. 2561775
، 2410930
في 2372857
من 1334219
ب@@ 688247
ي@@ 655350
على 623749
ل@@ 606291
( 584198
) 583747
ك@@ 520274
أ@@ 519658
وال@@ 497635
ت@@ 479800
و@@ 473936
إلى 472465
الم@@ 471000
ية 448234
لل@@ 441888
ي 435074
ه@@ 423255
&quot; 413254
ه 398684
الت@@ 364155
ال@@ 356745
ف@@ 352335
الأ@@ 349373
ين 341071
ة 340797
ح@@ 318625
ج@@ 309452
ش@@ 302732
د@@ 300180
ع@@ 300140
و 299324
أن 298226
ها 292461
عام 291215
م@@ 290305
إ@@ 289718
س@@ 284238
هو 273016
وي@@ 268668
ط@@ 266300
الح@@ 265762
غ@@ 259511
ق@@ 254312
ت 251134
ات 248090
ز@@ 246651
ب 241947
الق@@ 240665
م 240044
مع 239734
ص@@ 237663
التي 236146
ر@@ 233474
ى 231430
: 224661
ن@@ 219162
الع@@ 217515
ع 216052
عن 215383
ث@@ 213229
أو 212144
ف 212059
الك@@ 209999
ما 208267
وت@@ 208211
الن@@ 207235
سي@@ 206210
وا@@ 205790
الس@@ 204865
ًا 204572
ون 200565
ري@@ 197798
س 196425
لي@@ 192901
خ@@ 192251
ان@@ 191767
ا 191726
د 191529
كان 184170
ك 183311
بي@@ 183279
ان 182974
مي@@ 181885
وم@@ 181883
الف@@ 181835
ر 180382
ض@@ 179375
الج@@ 179086
ق 177294
هم 176282
في@@ 175553
ز 170516
لة 168795
دي@@ 168337
الإ@@ 163975
ين@@ 163901
را@@ 161868
لا@@ 161485
رو@@ 157841
وب@@ 157217
الب@@ 156253
ست@@ 155833
هي 153329
ار@@ 153193
ل 152249
رة 150025
ون@@ 149377
عة 148448
ح 147608
مة 146053
ذ@@ 145792
وأ@@ 145078
ور@@ 144763
الد@@ 142692
ال 142373
بعد 142161
الص@@ 142014
ير 140871
المتحدة 138840
بين 137797
الش@@ 137165
ن 137085
هذه 136755
اء 136435
ور 135979
ار 134883
ذلك 134607
من@@ 134060
لا 133670
دة 132310
« 131089
» 131019
ول@@ 130916
مو@@ 129194
مع@@ 128747
تش@@ 127186
الذي 126435
تم 125921
اب@@ 124652
- 121056
تع@@ 120923
هذا 120077
تح@@ 119291
يا 115985
والم@@ 115732
تم@@ 115152
تر@@ 114914
بر@@ 114481
وس@@ 114433
لو@@ 113195
الر@@ 112260
حيث 111419
الط@@ 111415
تق@@ 109657
ّ@@ 109302
ج 108973
ام 108955
ته 107321
است@@ 106514
مت@@ 106225
كانت 105909
مح@@ 105300
قة 105096
ط 104590
كل 104038
ولد 103511
وج@@ 102677
وق@@ 101424
ير@@ 101003
ام@@ 99673
قي@@ 99266
قبل 99166
اد@@ 98846
دي 98564
يات 98493
@-@ 98351
ني@@ 97160
ول 96129
غ 96087
ا@@ 96016
خلال 96005
تي@@ 95661
بة 95076
الخ@@ 95013
ات@@ 94749
ائ@@ 94071
وقد 93369
يل 93039
زي@@ 92933
با@@ 92878
كي@@ 92342
غير 92337
الولايات 91798
أس@@ 91753
تو@@ 91537
بن 89600
أن@@ 88940
قد 88731
وك@@ 88616
اً 88042
ود 87181
اف@@ 87050
كما 86187
بن@@ 85862
حة 85784
اله@@ 85704
ص 85675
مثل 85673
مس@@ 84531
نا@@ 84477
كرة 84386
بع@@ 84378
يد 84339
فة 83407
سي 82863
اني 82667
المح@@ 82516
لي 82469
تف@@ 82348
ُ@@ 82343
لم 81999
وفي 81919
الغ@@ 81741
حي@@ 81396
رية 81079
مر@@ 80991
سنة 80772
نية 80470
لات 80399
اع@@ 80036
ث 79527
فر@@ 79212
ض 78650
له 78057
المع@@ 77102
ما@@ 77009
رات 76337
تها 76243
ظ@@ 75948
اس@@ 75759
اد 75685
تج@@ 74955
الو@@ 74534
ند@@ 74492
عدد 74120
بي 73447
ني 73280
بل@@ 72225
الي@@ 71261
وهو 71191
لية 71006
وف@@ 70974
وع@@ 70701
آ@@ 69681
مار@@ 69399
بو@@ 69103
عل@@ 68967
يع@@ 68823
تص@@ 68694
المن@@ 68252
/ 68064
ري 68045
حتى 67893
بعض 67470
ارة 67279
سل@@ 66874
تا@@ 66504
در@@ 65945
اس 65839
ائية 65644
تك@@ 65438
يين 64637
بد@@ 64349
لاعب 63202
مق@@ 62937
المست@@ 62828
أنه 62697
ش 62617
أكثر 62294
ثم 62293
اه@@ 61652
طة 61434
سة 61245
انية 61209
الل@@ 60960
وا 60755
مج@@ 59872
المملكة 59871
كة 59834
ئ@@ 59820
لف@@ 59776
أي 59475
الي 59360
مل@@ 59052
َ@@ 58986
اي@@ 58887
الث@@ 57999
مد@@ 57828
عم@@ 57392
سب@@ 57343
أمريكي 57245
ادة 57233
لها 57160
يمكن 57077
يت@@ 56981
الية 56959
ورة 56591
جي@@ 56231
مدينة 56186
بية 56070
تي 56060
مص@@ 55818
الز@@ 55680
اب 55536
ِ@@ 55531
قدم 55451
يق@@ 55192
وهي 55045
كت@@ 54741
وي 54537
جن@@ 54298
عية 53997
مان 53993
مست@@ 53914
اج@@ 53333
– 53083
الة 52784
دية 52644
بشكل 52470
دو@@ 52464
دا@@ 52369
هي@@ 52160
عات 52109
% 52011
مية 51852
اح@@ 51834
1 51411
وص@@ 51186
بال@@ 51076
تب@@ 51049
سية 50874
راء 50729
ود@@ 50691
مه@@ 50482
يو@@ 50161
اك@@ 50096
عبد 50022
يم 49572
نس@@ 49505
شي@@ 49399
فا@@ 49381
المص@@ 49231
لت 49020
عي 48955
بح@@ 48948
نا 48895
ؤ@@ 48626
به 48554
الاست@@ 48417
ائي 48404
المر@@ 48075
رب@@ 47957
المق@@ 47842
الأس@@ 47713
وح@@ 47603
؛ 47444
نج@@ 47396
مي 47378
عد@@ 47309
اط@@ 47239
البي@@ 47224
إي@@ 47192
مش@@ 47169
سم@@ 46872
وكان 46802
ء 46771
العديد 46708
تكون 46229
وم 46212
أك@@ 46168
بها 46168
مك@@ 46142
السي@@ 46008
يك@@ 45950
, 45828
يتم 45663
2 45635
بات 45608
يُ@@ 45539
تد@@ 45376
خ 45059
تن@@ 44842
لك@@ 44820
سك@@ 44670
مر 44048
نة 44013
المت@@ 43975
سو@@ 43949
اش@@ 43917
يه 43831
أخرى 43804
المس@@ 43743
3 43729
تين 43572
بار@@ 43330
ّ 43279
رت 43149
مات 43043
مل 43037
المج@@ 42978
نادي 42900
اق@@ 42801
رين 42792
مركز 42758
لعب 42724
وية 42716
ابة 42458
والتي 42286
منها 42210
أول 42091
يم@@ 42084
مجلس 41784
القرن 41674
أم@@ 41558
تخ@@ 41558
فيها 41487
منذ 41226
ترا@@ 41222
الذ@@ 41151
عمل 41051
حسب 41033
تحت 40917
از@@ 40788
ومن 40784
خط@@ 40753
ئة 40725
مارس 40700
جو@@ 40672
سر@@ 40351
َّ@@ 40246
بط@@ 40008
الأول 39975
نش@@ 39948
عندما 39846
اص@@ 39839
هناك 39772
4 39744
عشر 39743
افة 39723
برا@@ 39708
فية 39693
كي 39652
جامعة 39567
ولكن 39537
جميع 39529
أل@@ 39493
وإ@@ 39460
طر@@ 39458
أص@@ 39419
رب 39382
الض@@ 39210
ارات 39063
إل@@ 39038
إن@@ 38951
مرة 38917
بسبب 38891
العالم 38810
هما 38702
دت 38600
محمد 38586
قي 38393
تس@@ 38370
نظ@@ 38354
فو@@ 38271
شر@@ 38165
الذين 38155
حول 38049
سون 38004
قية 37872
مؤ@@ 37764
الفر@@ 37727
يكون 37502
الله 37378
مث@@ 37366
قص@@ 37353
نق@@ 37268
لح@@ 37240
الأولى 37130
لت@@ 37073
أحد 37065
سن@@ 37061
منطقة 37061
مرا@@ 36917
وتوفي 36827
لق@@ 36785
العام 36734
عند 36496
الرو@@ 36310
كار@@ 36229
در 36207
5 36018
البر@@ 35929
أيضًا 35844
نو@@ 35613
ست 35596
.@@ 35551
أ 35550
علم 35519
التع@@ 35444
المه@@ 35410
نسمة 35395
دا 35386
از 35383
اخت@@ 35350
وس 35295
شركة 35204
مت 35081
اض@@ 35076
أر@@ 35008
تلك 34988
ده 34931
مان@@ 34860
2004 34505
أنها 34474
لاح@@ 34386
دون 34378
6 34230
كية 34216
تُ@@ 34127
مجموعة 34008
كو@@ 33854
الآ@@ 33693
بدأ 33653
بق@@ 33621
الجن@@ 33570
زة 33541
صل 33532
الأر@@ 33487
علا@@ 33422
الحرب 33332
بت@@ 33154
قر@@ 33101
لف 33062
الأمريكية 33047
دار@@ 33023
لإ@@ 33013
كل@@ 32944
المؤ@@ 32921
وري 32861
يح@@ 32823
يني 32684
ذ 32661
حد@@ 32634
التح@@ 32613
كس 32475
مايو 32443
فل@@ 32425
بلغ 32294
يت 32278
ولا@@ 32226
اث@@ 32214
غي@@ 32207
علي 32163
يس 32160
يوم 31950
ينية 31852
او@@ 31849
قو@@ 31835
يناير 31752
وت 31696
تا 31632
كم 31631
بري@@ 31610
حر@@ 31586
يش@@ 31542
فبراير 31505
رون 31474
يو 31313
اف 31279
وض@@ 31268
العمل 31169
اع 31148
وار@@ 31140
إن 30966
وز@@ 30956
شا@@ 30952
أبريل 30796
ولا 30774
3@@ 30715
آخر 30633
وه@@ 30631
أكتوبر 30592
هر 30549
درا@@ 30472
طل@@ 30375
أغ@@ 30369
فقد 30314
إلا 30298
ظهر 30271
الان@@ 30177
كر 30137
8 30131
&#93; 29939
الثاني 29904
سر 29886
تز@@ 29881
عدة 29820
كون@@ 29800
&#91; 29702
دات 29650
الات 29625
ةً 29625
ئ 29609
بـ 29580
فري@@ 29567
دان 29477
يونيو 29396
ٍ 29337
برو@@ 29332
يوليو 29325
ديد 29324
سياسي 29322
ديسمبر 29297
عضو 29203
ليل 29155
7 29122
فت@@ 29076
فق@@ 29069
سبتمبر 29050
يقع 29037
ْ@@ 28974
لكرة 28939
َ 28907
يًا 28895
استخدام 28861
باب 28804
ـ@@ 28799
العربية 28778
بش@@ 28765
مما 28746
سات 28698
فيه 28690
الفي@@ 28660
تأ@@ 28608
رج@@ 28558
دو 28506
هد 28464
10 28397
وجود 28394
كر@@ 28366
جهة 28299
عليه 28299
وغ@@ 28287
سم 28283
المدينة 28200
كان@@ 28100
أه@@ 28078
رس@@ 28069
عت 28040
نوفمبر 28014
ينة 28013
القدم 28011
حية 27963
ادي 27943
فإن 27917
بما 27833
حص@@ 27816
رئيس 27775
وط@@ 27733
ولاية 27699
سع@@ 27678
النا@@ 27560
البل@@ 27556
أغسطس 27518
والأ@@ 27513
ثر 27464
ثة 27442
تاريخ 27418
قل 27354
صي@@ 27338
اته 27278
ولة 27270
ضد 27253
دار 27230
بين@@ 27181
صر 27178
دد 27166
الرغم 27152
مانية 27074
بل 27052
جي 27029
نظام 27002
طريق 26989
لين 26961
عب@@ 26899
عب 26788
شارك 26785
فقط 26744
خت@@ 26728
الأخرى 26680
وير 26662
ذات 26658
أخ@@ 26597
إذا 26586
الرا@@ 26521
سط@@ 26496
الوقت 26471
بإ@@ 26442
زي 26414
9 26398
طي@@ 26391
هة 26266
واء 26187
لب 26108
ضة 26102
أح@@ 26100
امل 26093
شه@@ 26001
التص@@ 25993
داء 25951
واحد 25923
جة 25857
اة 25819
دين 25813
أما 25812
شار@@ 25811
ضمن 25724
إحدى 25709
بور@@ 25684
رف 25662
وة 25519
دير 25481
انتخب 25477
أكبر 25470
را 25461
بار 25449
اري 25422
كات 25416
باسم 25413
نفس 25394
الأح@@ 25357
المنطقة 25336
ُ 25218
فض@@ 25181
وش@@ 25172
أد@@ 25137
قط@@ 25063
يون 25036
4@@ 24975
وات 24938
عر@@ 24916
حالة 24801
الحزب 24795
أش@@ 24773
قام 24773
نف@@ 24764
اللا@@ 24751
20 24747
ولي@@ 24727
اسم 24664
دع@@ 24656
فر 24628
صة 24422
زل 24377
بر 24340
ينا 24308
أي@@ 24300
جر@@ 24287
وكانت 24283
سن 24276
عليها 24270
التق@@ 24247
مون 24242
وذلك 24224
ً 24213
الأم@@ 24076
ورية 24064
أث@@ 24010
اغ@@ 23995
حين 23976
موا@@ 23918
بناء 23913
مب@@ 23908
عبر 23892
وان@@ 23892
لكن 23862
والذي 23860
كبير 23837
سا@@ 23818
عل 23817
مون@@ 23784
أيضا 23741
اتها 23709
مين 23664
جون 23646
عد 23639
حي 23610
حوالي 23599
15 23558
داخل 23550
درجة 23461
شع@@ 23424
المش@@ 23412
الرسمي 23333
عملية 23307
جه@@ 23300
فت 23279
طور 23264
الثانية 23231
ذا 23208
ضاء 23197
القي@@ 23177
12 23166
سين@@ 23163
كتب 23158
عي@@ 23121
لاً 23059
يست@@ 23021
وب 22971
مف@@ 22963
ء@@ 22895
الأص@@ 22881
مقاطعة 22859
الحكومة 22802
نين 22763
وسط 22748
مُ@@ 22708
حصل 22662
واحدة 22651
المنا@@ 22601
جر 22570
ارية 22524
للأ@@ 22485
بالت@@ 22475
بالإضافة 22467
لأ@@ 22467
المي@@ 22446
عادة 22435
مواليد 22425
وني 22422
طبي@@ 22391
المد@@ 22383
ونادي 22282
خص@@ 22280
اعة 22261
راً 22252
جنوب 22245
النه@@ 22044
نوع 22041
دن 22022
فترة 21997
كث@@ 21954
داد 21937
قد@@ 21920
تغ@@ 21916
رار 21800
كون 21781
العامة 21773
اللغة 21648
ويل 21625
اية 21624
يز@@ 21583
فيلم 21579
يقدر 21560
سمى 21506
مغ@@ 21474
5@@ 21465
دور 21451
جا@@ 21426
سان@@ 21411
الوطني 21364
بول@@ 21328
قات 21303
أثناء 21274
تل 21271
2@@ 21231
تر 21209
ندي 21205
رض 21203
كور@@ 21182
رير 21180
بات@@ 21173
17@@ 21166
ادية 21160
19 21137
; 21126
شر 21114
ادر 21107
ِ 21105
ّة 21092
30 21075
امة 21065
جية 21058
بعة 21035
ائل 21015
ينتمي 21015
11 21009
ته@@ 20999
سين 20992
وى 20991
المغربية 20988
تت@@ 20950
خر@@ 20944
بت 20921
نز@@ 20894
للسكان 20888
والإ@@ 20861
ابن 20843
تقع 20792
نت 20755
مز@@ 20733
تضم 20728
فق 20704
تعل@@ 20683
بينما 20657
سل 20657
7@@ 20597
6@@ 20529
طلق 20495
الأد@@ 20490
تون 20488
ينات 20470
الدولة 20435
قال 20421
خي@@ 20409
كن@@ 20408
انا 20345
العالمية 20333
ارد 20318
التر@@ 20284
يف 20258
عدم 20254
المط@@ 20238
منتخب 20130
لسنة 20113
ورا@@ 20037
الاتحاد 20010
دف@@ 19943
14 19918
25 19907
وفي@@ 19902
16 19890
سان 19860
8@@ 19816
كبيرة 19806
سبب 19798
وتع@@ 19797
عمل@@ 19779
تل@@ 19758
قت 19739
عين 19735
دها 19732
عرض 19716
السل@@ 19706
اليوم 19704
فرنسا 19674
فات 19646
نسبة 19627
اره 19602
واست@@ 19585
نحو 19575
نشط 19521
18 19520
أجل 19514
لو 19484
2010 19469
انات 19461
ابات 19458
بأن 19457
وخ@@ 19440
وقت 19416
التعليم 19413
جل 19408
ومع 19402
الملك 19399
ندية 19384
حزب 19334
يس@@ 19326
ايا 19307
نه@@ 19303
ملا@@ 19284
رض@@ 19254
إقليم 19252
للا@@ 19252
إص@@ 19243
سنوات 19237
َّة 19237
بلا@@ 19222
كن 19215
الخاصة 19201
يون@@ 19200
الإحصاء 19188
واق@@ 19164
شكل 19109
عق@@ 19072
مصر 19058
17 19032
يار 19026
نى 19019
هـ 18947
قلي@@ 18884
أصبح 18880
مه 18822
اه 18804
قل@@ 18780
غر@@ 18756
طلب 18755
اق 18750
استخد@@ 18741
حد 18741
ونية 18732
زيد 18710
فن 18703
خدمة 18673
مها 18663
13 18646
ماس@@ 18615
موسم 18596
9@@ 18569
وسي@@ 18557
محافظة 18546
مض@@ 18516
ضر@@ 18465
رق@@ 18460
صف 18444
النق@@ 18442
ذكر 18375
معظم 18370
يرة 18358
قب@@ 18355
ولم 18338
الحياة 18292
والسكنى 18262
باء 18214
النف@@ 18199
المغ@@ 18187
الفترة 18177
اضي 18167
صح@@ 18137
الجيش 18111
ولدت 18089
بطولة 18082
حزبياً 18061
هار@@ 18047
وق 18036
الوطنية 18015
ماء 17953
ربة 17951
21 17949
الات@@ 17935
دًا 17933
مط@@ 17917
إنتاج 17908
نص@@ 17871
المك@@ 17855
يف@@ 17792
الثق@@ 17785
عض@@ 17777
داً 17758
2013 17732
ادات 17731
ثلاثة 17727
ضم 17701
أُ@@ 17674
وظ@@ 17638
رف@@ 17615
دور@@ 17607
عم 17585
عمر 17533
جز@@ 17528
مال@@ 17519
بص@@ 17479
فيما 17478
الري@@ 17432
ماني 17429
كام@@ 17387
بني 17350
جري@@ 17331
با 17297
للإ@@ 17293
قيقة 17272
بالإ@@ 17260
ة@@ 17260
ضي@@ 17253
24 17251
عه 17226
نهاية 17225
ضع 17218
اسي 17207
وف 17185
المُ@@ 17178
المف@@ 17169
ابع 17163
جانب 17131
خلا@@ 17119
الدين 17098
وله 17091
سياس@@ 17061
يلي 17022
دخ@@ 17020
يبلغ 17017
وري@@ 17009
ولي 17009
الأرض 17000
لك 16986
أبو 16938
كول@@ 16923
خرج 16858
التاريخ 16855
يع 16848
زية 16831
وبعد 16783
راض 16763
يران 16750
&amp; 16709
يز 16690
الاح@@ 16665
يش 16658
رًا 16624
آيت 16611
كا 16593
بريطاني 16591
2009 16576
جرا@@ 16573
وتح@@ 16569
زوج@@ 16549
يه@@ 16535
تهم 16512
دولة 16512
تست@@ 16510
الصح@@ 16491
مليون 16475
يل@@ 16465
فل 16452
عبة 16451
تو 16444
زيادة 16401
خل@@ 16356
العص@@ 16355
2007 16341
تج 16335
الشر@@ 16326
وار 16321
أع@@ 16319
الفيلم 16318
أف@@ 16306
جد 16296
سبة 16293
ألمانيا 16292
شمال 16284
تبة 16274
2008 16268
الدوري 16254
أحمد 16249
سلسلة 16240
بالم@@ 16228
كري@@ 16190
وث@@ 16187
23 16169
16@@ 16164
يني@@ 16161
سمية 16149
حل 16146
دائ@@ 16145
عها 16141
22 16117
طف@@ 16109
وادي 16104
لان 16064
امي 16062
خاصة 16054
والح@@ 16019
الأف@@ 16013
اله 15999
تض@@ 15999
فار@@ 15997
نظمة 15996
فيد 15984
لال 15963
الحر@@ 15962
يجب 15884
طية 15864
مختلفة 15847
فران@@ 15845
ائر 15835
لز 15828
اعد 15824
ناء 15799
أة 15794
انته@@ 15793
اكتش@@ 15787
كلي@@ 15776
دف 15744
الآن 15741
بدأت 15739
البا@@ 15738
انتق@@ 15716
احة 15665
تاج 15658
ليس 15655
اللي@@ 15650
راد 15646
كتاب 15629
داث 15615
المرك@@ 15605
لان@@ 15601
الهي@@ 15584
كلية 15583
سكانها 15561
روا@@ 15542
أق@@ 15530
سلا@@ 15530
القر@@ 15524
2016 15520
الأمريكي 15506
خو@@ 15501
وعلى 15486
متر 15484
مرك@@ 15473
الثالث 15457
ظر 15447
لعام 15447
لام 15442
وما 15439
توفي 15432
ددة 15417
سب 15417
المركز 15415
قا 15412
يوجد 15388
انت@@ 15374
الدرا@@ 15372
جان@@ 15371
لد 15362
العث@@ 15360
وفر 15356
فريق 15343
روس 15339
كأس 15324
تمر 15315
دم 15312
السكان 15296
نفسه 15288
ائرة 15285
2006 15268
لمدة 15266
دون@@ 15248
حركة 15247
اك 15235
سكانه 15226
مشار@@ 15218
ولى 15218
جون@@ 15188
إذ 15174
عط@@ 15172
غرا@@ 15158
لين@@ 15151
13@@ 15141
طن 15138
سيس 15134
هر@@ 15134
قض@@ 15126
يب 15093
افية 15077
مور@@ 15044
صف@@ 15028
صبح 15014
بأ@@ 14998
جديدة 14991
جائزة 14989
حض@@ 14978
به@@ 14962
2011 14919
الشع@@ 14916
المخ@@ 14892
كو 14860
برنامج 14844
ـ 14832
الشيخ 14831
27 14830
لم@@ 14824
المث@@ 14814
طرة 14809
بجماعة 14774
النظام 14765
لدى 14754
اذ 14740
المسل@@ 14727
ائد 14724
أنواع 14720
فين 14709
البرو@@ 14690
تب 14687
إدارة 14684
وال 14681
أيضاً 14670
28 14659
خة 14657
ِّ@@ 14650
26 14647
سكان 14644
البرا@@ 14632
قرية 14628
قانون 14618
الدوّار 14612
أفضل 14598
لمشيخة 14597
دُوَّار 14584
ولكن@@ 14584
وكذلك 14576
فيا 14575
مالي 14575
بان@@ 14574
ومن@@ 14544
القوات 14525
بلو@@ 14524
D@@ 14519
مخ@@ 14483
الرئيس 14471
أوروبا 14463
الأخ@@ 14458
الكويكب 14451
حق@@ 14440
انة 14437
نقل 14422
ره 14418
الموا@@ 14405
15@@ 14341
الإن@@ 14320
جات 14313
مباراة 14288
المسي@@ 14258
تشار@@ 14243
كوم@@ 14241
مجال 14226
2012 14207
منه 14185
ساب@@ 14159
خدمات 14155
شخص 14155
ريد 14142
جب 14130
عام@@ 14128
مدرسة 14115
الأطفال 14112
أمريكية 14103
حم@@ 14103
أصبحت 14081
ارت 14081
تط@@ 14073
منصب 14063
قبة 14059
إج@@ 14029
كندا 14023
القانون 14019
القط@@ 14002
جه 13994
دراسة 13990
وضع 13957
الرئيسي 13950
بغ@@ 13949
رح@@ 13931
L@@ 13903
المناطق 13900
سبيل 13896
منظمة 13887
اح 13883
14@@ 13878
نان@@ 13875
ذك@@ 13871
لوس 13868
ريف 13824
ينيات 13799
زمة 13783
ئات 13777
لفزي@@ 13776
البلاد 13772
جزء 13756
الجديدة 13754
النساء 13748
وتم 13748
دري@@ 13747
قه 13747
ريا 13707
غل 13707
نشر 13698
جب@@ 13693
عالم 13691
2000 13681
المرا@@ 13677
للح@@ 13671
كمة 13667
رك 13664
يان 13660
الشمالية 13629
ديو 13606
ظ 13577
يك 13576
واج 13568
جم 13558
عرف 13558
باً 13553
مسيرته 13552
اسية 13547
القديمة 13545
طرق 13529
الشركة 13513
الدولي 13494
لتح@@ 13478
قيادة 13468
لهم 13466
والد@@ 13462
الدولية 13461
ويت 13441
شرق 13431
ريقة 13414
سلط@@ 13403
دارة 13401
_ 13398
فور@@ 13381
الإص@@ 13375
خد@@ 13375
وبة 13365
بير 13359
ءة 13337
ابه 13306
رها 13302
طلاق 13301
الطبي@@ 13299
تمد 13296
29 13293
اي 13262
الخط@@ 13241
غري@@ 13226
البح@@ 13220
خار@@ 13213
بيا 13211
ثلاث 13196
باط 13194
الثلا@@ 13176
الدي@@ 13174
البحر 13173
بواسطة 13173
قائ@@ 13164
الكثير 13162
الغربية 13151
أعمال 13150
تاب@@ 13147
لاف 13146
ربية 13139
اسم@@ 13103
أقل 13092
اخ@@ 13089
2015 13088
جار 13077
بداية 13075
موقع 13074
قائمة 13073
شارة 13066
ند 13059
تقد 13056
بًا 13054
واقع 13054
الأك@@ 13053
نيويورك 13042
الجه@@ 13011
الناس 13011
أو@@ 13001
فس@@ 12988
حات 12985
2014 12968
العربي 12959
تبا@@ 12959
اض 12954
2005 12948
عاماً 12947
تدري@@ 12946
يج@@ 12945
كز 12941
الإم@@ 12936
تش 12934
شك@@ 12930
تقري@@ 12914
الدول 12908
الاخت@@ 12906
مستوى 12904
اوية 12903
بعض@@ 12902
سام 12902
الأه@@ 12880
ليين 12873
أعلى 12866
الاسم 12857
اتي 12849
طي 12843
وحدة 12840
نت@@ 12835
فوق 12820
فير 12820
الإنسان 12816
الأعمال 12813
فاز 12810
عص@@ 12792
شو@@ 12782
عاية 12782
والع@@ 12770
ماية 12753
هاب 12752
بس@@ 12744
لغ@@ 12740
بريطانيا 12732
ذج 12731
ودة 12721
كانوا 12710
دولار 12706
باش@@ 12700
-@@ 12691
اهرة 12690
مًا 12683
جين 12674
تتبع 12662
دس 12639
اء@@ 12632
قًا 12632
نوا@@ 12630
جو 12620
أنش@@ 12614
الهند 12606
ستخد@@ 12597
دائرة 12596
الطاقة 12591
بير@@ 12590
تور@@ 12588
رئي@@ 12581
يلعب 12563
التف@@ 12549
اليد 12547
طول 12534
كريكت 12519
ياً 12498
سج@@ 12496
الأمر 12492
وجه 12488
صن@@ 12443
المثال 12442
المياه 12439
C@@ 12438
سمح 12435
فص@@ 12422
بول 12413
حياته 12408
المجلس 12402
وع 12390
قيق 12372
وز 12372
الإعلا@@ 12332
الدفاع 12307
وتق@@ 12298
الظ@@ 12294
ندا 12290
قوة 12284
بط 12264
المب@@ 12263
ديل 12260
زم 12256
المتح@@ 12223
البط@@ 12221
ملك 12221
مار 12220
دخل 12218
شهر 12202
وزارة 12196
الور@@ 12186
الاجتماعية 12183
ذية 12181
لاند 12181
لأن 12168
تار@@ 12132
روف 12130
ئية 12129
بالك@@ 12127
انيا 12112
طلا@@ 12105
توا@@ 12101
والت@@ 12023
كثير 12022
دين@@ 11997
طاق@@ 11996
وان 11993
المجتمع 11986
سيا 11975
يخ 11975
دول@@ 11972
وهذا 11972
مدر@@ 11965
يكن 11963
جع 11961
الرياض@@ 11955
ستر@@ 11947
غط 11944
باستخدام 11939
مكان@@ 11931
اليون@@ 11916
حت@@ 11915
شي 11911
غر 11907
اكم 11905
صالح 11897
مال 11896
زا 11892
العلا@@ 11886
الصنا@@ 11878
الرئيسية 11876
ولوجيا 11872
إعادة 11866
العائ@@ 11860
ضية 11859
العشرين 11848
لوا 11842
سير 11838
ترك 11795
داف 11795
S@@ 11792
اما 11791
نتيجة 11789
يوس 11786
نم@@ 11780
دل@@ 11776
كين 11767
يرا 11765
دعم 11763
هام 11762
ديدة 11757
انتقل 11752
H@@ 11726
أس 11722
تصنيف 11719
حق 11712
العسكرية 11684
خل 11678
موسي@@ 11676
عز@@ 11670
ظهرت 11669
اتب 11660
ٌ 11654
الجنوبية 11652
غة 11651
ممثل 11650
الاقتص@@ 11627
أمريكا 11622
المرأة 11622
تاريخ@@ 11611
وين@@ 11611
الحكوم@@ 11603
المز@@ 11598
ربع 11593
الأكثر 11589
منهم 11586
ريك@@ 11577
باد@@ 11560
السياسية 11541
اذ@@ 11537
الكتاب 11534
صحي@@ 11521
المحي@@ 11516
لكل 11508
جوائز 11506
بيل 11492
عش@@ 11480
لوب 11480
ويات 11479
سوي@@ 11478
دول 11471
رام 11463
اليه@@ 11460
قوات 11457
مثلة 11438
لدي@@ 11435
جمهورية 11433
خارج 11432
&apos; 11425
الفرنسية 11417
ولوج@@ 11415
ملكة 11409
الدم 11403
قدر@@ 11397
للو@@ 11359
ارب 11358
P@@ 11350
نها 11350
التج@@ 11334
رقم 11333
الولا@@ 11330
مين@@ 11317
غالب@@ 11301
ستان 11233
افي 11219
قامت 11219
بنى 11212
= 11209
وفاة 11205
ربي 11200
أند@@ 11193
عن@@ 11188
حدي@@ 11186
كار 11186
رد 11166
حدث 11147
الصين 11142
وقف 11137
دل 11133
المعر@@ 11126
O@@ 11122
لذلك 11119
لاب 11116
رو 11112
ترو@@ 11110
الشرقية 11100
2003 11097
2020 11092
سكو 11087
الجديد 11078
الحيو@@ 11077
جهزة 11077
لهذا 11075
جد@@ 11073
جرة 11072
يعتبر 11036
المؤس@@ 11033
جمع 11032
تقديم 11030
زن 11021
الألعاب 11008
0@@ 11003
حالات 11001
السوفي@@ 10983
أمام 10981
مسي@@ 10961
ألف 10958
جورج 10958
شخص@@ 10957
بالنسبة 10956
ءات 10954
فن@@ 10949
قسم 10946
ستر 10931
2017 10924
ميل 10923
الجام@@ 10912
الروا@@ 10911
حرب 10904
وج 10899
كين@@ 10891
حياة 10879
يض@@ 10877
السعودية 10870
ضى 10864
مسر@@ 10857
وين 10856
٪ 10843
10@@ 10835
الموسيق@@ 10834
سام@@ 10824
يرلندا 10817
31 10804
المعلومات 10801
جمعية 10801
وزي@@ 10789
كيل 10787
مد 10785
يري 10763
فضل 10754
1@@ 10743
تعتبر 10742
َّ 10738
اط 10735
يخ@@ 10728
اعات 10727
R@@ 10723
أول@@ 10710
كات@@ 10708
الزرا@@ 10705
طب@@ 10704
أعم@@ 10702
أولاد 10695
العق@@ 10693
بع 10691
أدى 10689
الحكم 10685
الجما@@ 10677
تؤ@@ 10675
تستخدم 10674
غرب 10668
السابق 10653
التقلي@@ 10646
الت 10645
تنا@@ 10636
البريطانية 10621
منية 10617
الحركة 10600
ظه@@ 10599
كذلك 10599
امن 10590
جام@@ 10589
بأنه 10584
يث 10578
ادل 10562
أشهر 10554
فه 10547
لندن 10545
شن@@ 10536
شري@@ 10535
جان 10527
T@@ 10521
أربعة 10516
فا 10514
علوم 10510
الإسلامية 10509
التالية 10509
تميز 10501
M@@ 10500
فع@@ 10492
خط 10476
الشعب@@ 10475
ثق@@ 10469
راف 10465
بعدها 10459
جيل 10446
مز 10443
اج 10442
إنشاء 10437
ترج@@ 10432
بيت 10431
ونا 10422
أور@@ 10418
رئ@@ 10418
تطوير 10412
القدي@@ 10366
الشرق 10360
بيع 10358
روفة 10358
عائلة 10358
واح@@ 10343
اسة 10342
هدف 10337
نهر 10330
بد 10307
الأل@@ 10303
وني@@ 10301
فرا@@ 10300
شف 10293
وصل 10290
تغي@@ 10286
أصل 10276
أستراليا 10273
وجد 10268
جيمس 10264
الشيو@@ 10257
الأغ@@ 10242
عبارة 10240
نان 10237
تأس@@ 10229
مكان 10228
كندي 10225
الرق@@ 10217
تقدم 10216
بيض 10215
حكم 10214
أهم 10208
مج 10194
سما@@ 10187
التالي 10177
وبالتالي 10176
طات 10174
قى 10174
يستخدم 10173
جاب@@ 10158
قرا@@ 10158
تد 10146
ترك@@ 10142
يقوم 10134
التش@@ 10133
اقتص@@ 10127
العليا 10125
النظ@@ 10118
ادت 10105
العراق 10104
50 10103
ريق 10100
اديمية 10076
جن 10058
دان@@ 10058
الصحة 10050
مجموع@@ 10049
عمليات 10048
100 10034
إس 10029
هيئة 10025
حيد 10015
ودية 10015
إنه 10012
مذ@@ 10006
ريك 10002
2002 10000
السياس@@ 9991
السنة 9989
الكه@@ 9984
كويكبات 9982
المواد 9981
روي@@ 9979
سجل 9973
متح@@ 9973
خدم 9957
المشار@@ 9955
وح 9953
تعداد 9952
2018 9951
عُ@@ 9951
.. 9950
ممثلة 9950
عًا 9945
يرات 9945
طرا@@ 9944
آخرين 9933
لون 9933
... 9931
البشر@@ 9929
يكية 9928
مس 9923
اوي 9917
مرض 9915
المض@@ 9905
مشروع 9902
رجل 9898
الجزء 9897
دوار 9896
الا 9895
قاعدة 9881
العاصمة 9873
عنه 9873
السوي@@ 9869
ودي@@ 9864
وتش@@ 9851
لًا 9845
الجامعة 9843
مو 9838
عمر@@ 9834
الخلايا 9833
متع@@ 9823
علاج 9820
لفة 9816
حكومة 9809
نط@@ 9805
جنة 9795
مام 9795
اش 9791
المبار@@ 9790
أفريقيا 9788
N@@ 9787
هل 9786
لق 9785
الجمعية 9783
جزيرة 9783
نه 9771
النو@@ 9767
هول@@ 9759
يق 9751
بس 9750
أت 9746
أعضاء 9746
أمر 9724
ران 9719
روا 9712
الفل@@ 9705
تري@@ 9705
مَ@@ 9694
جل@@ 9686
اتهم 9676
قصة 9676
راع 9653
ابية 9650
الاس@@ 9645
انوية 9644
الشه@@ 9642
قوق 9639
قرار 9628
2019 9624
الماء 9617
منع 9595
توجد 9594
صغيرة 9591
2001 9588
G@@ 9586
B@@ 9585
القرية 9581
تعلق 9574
لأول 9573
ظم 9570
تعلم 9566
الحديث 9565
سلطان 9564
عهد 9562
بالق@@ 9561
إليه 9551
العلمي 9551
تخص@@ 9545
تحدث 9543
الأي@@ 9542
ويمكن 9541
التاسع 9531
وص 9520
تشمل 9519
مناطق 9514
تحديد 9507
برت 9500
اتية 9491
مجلة 9477
أنحاء 9471
الشخصية 9469
يعمل 9469
المختلفة 9466
نوات 9466
اول 9455
وأن 9454
الفرنسي 9452
الجزائر 9451
تنفي@@ 9444
أهل 9439
وفق 9439
العلوم 9438
والي 9433
الديمقراطي 9432
معركة 9431
عقد 9428
وسياسي 9427
حمل@@ 9426
راب 9425
وزير 9420
التابعة 9415
البحرية 9408
الرابع 9402
F@@ 9401
الحالات 9395
تعمل 9395
المجموعة 9375
ذي 9374
العصر 9373
جيش 9364
مرحلة 9363
لندا 9362
انس@@ 9357
ولية 9356
بالأ@@ 9355
النوع 9353
امه 9353
حل@@ 9353
درس 9351
جديد 9345
سطح 9343
المسر@@ 9335
الإي@@ 9332
الموقع 9331
املة 9327
كرا@@ 9323
باع@@ 9319
روب 9319
قين 9316
ناد@@ 9313
المدرسة 9304
مبي@@ 9304
افظ@@ 9301
بان 9300
ومح@@ 9298
جوم 9293
فع 9291
000 9290
فيروس 9290
الفلسط@@ 9270
ويليام 9269
يوم@@ 9269
مخت@@ 9267
سى 9260
لوك 9260
لاح 9253
الخاص 9248
الساد@@ 9248
أخذ 9243
الإسب@@ 9230
الأخيرة 9225
ارا 9218
توي 9218
حقوق 9216
عاد@@ 9213
ثلاث@@ 9208
طر 9194
ارس 9193
عيد 9182
بح 9180
عتبر 9176
التجارية 9166
صال 9166
وَ@@ 9166
سوم 9163
بالف@@ 9162
درو@@ 9143
سا 9142
كيلو@@ 9139
مختلف 9136
إسبانيا 9135
ورت 9134
كاتب 9129
انه 9127
توضيح 9119
ملة 9118
نيات 9102
واض@@ 9099
النس@@ 9094
قاء 9094
رؤ@@ 9085
تطبي@@ 9083
السو@@ 9081
ريض 9081
إضافة 9079
الهند@@ 9077
الألمانية 9071
الدراسات 9070
هن 9064
اولة 9057
ريات 9057
المحلية 9056
عسك@@ 9042
ارًا 9041
قيمة 9038
الاجتماعي 9035
اجتماع@@ 9033
تية 9029
روسيا 9027
زر@@ 9026
إيطاليا 9020
اليابان 9007
جزاء 9007
تمثل 9003
تصف 9002
فرنس@@ 8996
معدل 8993
صد 8991
لويس 8989
السين@@ 8988
أنهم 8976
تقوم 8972
تمث@@ 8966
تعليم 8958
يكا 8957
الشمس 8954
كبي@@ 8951
خص 8947
وفقًا 8946
اور@@ 8943
غيل 8938
الأول@@ 8936
0 8934
الخارجية 8934
شخصية 8928
وائ@@ 8927
ستخدم 8925
ونة 8923
العملية 8911
ستي@@ 8911
فان 8906
مير 8902
كتور 8901
بلغ@@ 8895
أفلام 8889
A@@ 8888
البعض 8882
الها 8882
الكل@@ 8879
العظمى 8875
الكت@@ 8867
بطة 8864
الأشخاص 8858
هند@@ 8848
امية 8837
طفال 8837
المل@@ 8834
ودي 8827
سرعة 8826
دورة 8818
عراض 8818
البار@@ 8815
السر@@ 8813
معه 8812
الياب@@ 8809
اتحاد 8807
تأثير 8806
السكان@@ 8802
البحث 8800
يؤدي 8797
وسائل 8796
دوا@@ 8795
مصطلح 8787
بك@@ 8785
نطاق 8779
عائ@@ 8777
وغيرها 8777
حالي@@ 8741
الفريق 8740
الأوروب@@ 8735
درة 8735
إليها 8733
فورد 8727
لول 8722
والث@@ 8720
مساعدة 8715
الب 8714
تضمن 8710
التاريخ@@ 8703
السري@@ 8702
العلاج 8702
صور 8697
ظهور 8691
الإسرائ@@ 8689
الهجوم 8689
رك@@ 8686
ماً 8685
التركي@@ 8683
الجان@@ 8683
الوسط 8683
المغرب 8680
دى 8677
اعدة 8670
قر 8653
الخلي@@ 8652
نمية 8650
وامل 8650
مبار@@ 8641
آل 8635
الم 8635
يّة 8622
الغذ@@ 8621
والده 8619
عاد 8618
40 8616
العل@@ 8615
ْ 8609
له@@ 8608
أست@@ 8607
جري 8606
تصل 8600
حت 8600
للغ@@ 8593
نف 8593
نون 8593
ورد 8593
ارها 8582
العالمي 8581
العض@@ 8576
باست@@ 8576
وحد@@ 8572
كال 8563
النواب 8560
نظرية 8557
طريقة 8556
نجلي@@ 8553
وتر@@ 8550
هام@@ 8541
البري@@ 8539
الحديثة 8539
E@@ 8538
الأراضي 8528
ولها 8527
الرح@@ 8524
الشمال 8515
فين@@ 8513
وحتى 8501
سيدي 8496
موق@@ 8496
شة 8491
أبر@@ 8490
مسؤ@@ 8489
الأساسية 8488
سو 8487
1999 8482
الملكية 8482
خراج 8474
وء 8468
بحاث 8463
ةٍ 8463
الكبير 8458
صدر 8457
يؤ@@ 8445
رجال 8444
أج@@ 8443
تبط 8441
باريس 8438
12@@ 8437
العمر 8436
الأمير 8434
الثورة 8434
الاع@@ 8426
لون@@ 8426
الجسم 8424
ماك@@ 8424
نات 8423
غلا@@ 8422
الكيمي@@ 8421
الجنوب 8404
0.@@ 8397
معسكر 8388
القص@@ 8386
ابل 8375
قاد@@ 8373
مرت 8367
الحصول 8366
خلي@@ 8363
امات 8359
تحتوي 8355
ئي 8352
وصف 8349
أم 8343
الخار@@ 8337
تمكن 8337
مؤسسة 8334
يعد 8334
سيد 8329
سابقاً 8323
أيام 8318
متوسط 8318
جمي@@ 8315
الكنيسة 8311
التدري@@ 8310
لديها 8292
راتي@@ 8290
تان 8289
أوك@@ 8286
رش@@ 8286
قع 8282
فرقة 8278
أواخر 8277
ظة 8277
فقة 8274
دوري 8273
قلة 8268
نسي@@ 8264
الأوروبي 8263
الانتخابات 8263
تمل 8263
تمت 8262
فها 8262
ستون 8258
فيات 8256
الام@@ 8254
الحيوانات 8254
شبكة 8248
حك@@ 8236
آسيا 8228
اعل 8228
المشا@@ 8223
عامي 8220
الجزيرة 8216
بوت@@ 8207
نور@@ 8202
عامة 8200
انتش@@ 8199
مول@@ 8181
الدرجة 8174
المشتر@@ 8173
الميلاد 8173
الجوية 8169
ائم 8166
ليف 8156
قب 8155
1.@@ 8154
شفى 8154
أوب@@ 8148
الأمريك@@ 8141
حسن 8140
1998 8136
روبرت 8128
عا 8127
سوف 8120
قيم 8108
ائرات 8094
فرة 8092
ومية 8091
أبي 8088
سيم 8086
الداخلية 8075
زيل 8075
الكبرى 8074
مسلسل 8068
الحالة 8066
الإمبراطورية 8065
الإيط@@ 8061
لاء 8054
طار 8053
رأس 8051
معهد 8044
يفة 8038
أحي@@ 8037
الأولمبية 8034
القض@@ 8030
انت 8029
وك 8028
ريم 8025
1990 8024
مؤس@@ 8024
حز@@ 8017
ناف@@ 8013
قها 8012
ثي@@ 8011
صب 8008
يب@@ 8002
جبل 7996
تحقيق 7994
كلا@@ 7992
قق 7990
سري@@ 7987
لما 7986
العرا@@ 7983
ارتفاع 7981
المرحلة 7977
السلطة 7974
يمي 7972
الوصول 7971
البيانات 7970
نشا@@ 7967
زين 7964
المعد@@ 7962
مهورية 7956
إسرائيل 7950
بج@@ 7937
ليب 7934
تلق@@ 7932
التشري@@ 7927
سلو@@ 7927
العمل@@ 7924
s 7919
لس 7917
علماء 7916
رواية 7910
حصلت 7903
ائف 7895
حاليا 7894
واسع 7889
صول 7886
نمو@@ 7884
بوب 7883
لجنة 7881
عنها 7871
واس@@ 7870
ابت@@ 7859
رائ@@ 7853
1996 7849
خاص 7842
تلال 7836
السياسي 7827
الطب 7822
ائع 7813
تصميم 7812
مير@@ 7805
الأمم 7801
ديا 7791
زات 7785
ماث@@ 7784
هوم 7783
ميم 7778
مقابل 7775
1992 7767
اومة 7765
خلالها 7765
تمع 7763
الطبية 7758
فيل 7757
لقد 7757
حدة 7756
عالية 7756
وارد 7756
يط 7756
تعد 7755
كرو@@ 7755
الوسطى 7754
مدي@@ 7754
بالقرب 7744
الإنترنت 7742
y 7738
حدو@@ 7736
الرئ@@ 7735
ذهب 7734
التن@@ 7732
قناة 7732
دوية 7727
باق 7721
الجة 7714
الإلكترو@@ 7711
طويلة 7711
اهدة 7709
باب@@ 7708
تقد@@ 7706
فون 7706
ندر 7703
العرب 7700
بوا@@ 7699
امها 7697
تال 7694
صناعة 7688
جهاز 7687
الحدود 7683
أفراد 7681
عامًا 7681
أوائل 7674
20@@ 7670
قلال 7662
سوريا 7655
لل 7654
1997 7652
الإسلام 7651
الصحية 7651
بلدية 7645
لكنه 7640
جما@@ 7637
بيرة 7636
الوزراء 7620
العظ@@ 7614
لـ 7614
أمين 7612
الموسم 7611
لمد@@ 7607
وقال 7606
طان 7601
ها@@ 7585
تاح 7579
ليون 7577
قاً 7576
ظل 7574
الطبيعية 7573
مى 7570
حب 7569
سف@@ 7567
هب 7564
بو 7558
وليس 7553
راج@@ 7552
الأط@@ 7550
200@@ 7537
تيجة 7537
هنري 7527
ائب 7519
يدة 7514
إر@@ 7513
البداية 7508
الإنجليزية 7505
أعلن 7502
نصف 7494
جنس 7492
الألماني 7488
البطولة 7488
ومي 7485
وُ@@ 7485
الأكبر 7484
نقطة 7484
شبه 7482
ستة 7480
بيلة 7478
الحض@@ 7477
إض@@ 7475
ثي 7475
الشكل 7474
بنا@@ 7473
تقل 7461
مات@@ 7460
باح 7459
الأمن 7455
الأن@@ 7455
تجات 7451
كتب@@ 7451
الإسلا@@ 7449
النادي 7449
أعل@@ 7446
غز@@ 7446
يص@@ 7445
نيسة 7442
الطب@@ 7440
تمام 7438
ارنة 7432
الطريق 7432
السع@@ 7431
شيء 7430
بحلول 7425
سابق 7425
قوا@@ 7424
المسيحية 7422
انتخ@@ 7421
درت 7421
رياض@@ 7418
موا 7418
إنجلترا 7417
الأق@@ 7417
قري@@ 7417
عضاء 7416
مارسة 7416
للم@@ 7413
الاحترا@@ 7411
الشعب 7408
ماك 7404
جاه 7402
اص 7399
تركي@@ 7397
عشرة 7396
مكن 7389
يشير 7383
جمع@@ 7382
شعب@@ 7382
لقب 7378
بأنها 7373
كتابة 7372
السابقة 7369
المصرية 7364
اول@@ 7359
اللغ@@ 7358
جور@@ 7357
formula 7356
الذك@@ 7355
الخامس 7352
لر 7352
جزء@@ 7350
gt 7349
معهم 7346
5.@@ 7344
كوك@@ 7343
دفع 7342
عداد 7340
المرض 7328
المسلمين 7328
مباشرة 7325
ماكن 7320
قرر 7319
غو 7312
تعرض 7310
والك@@ 7306
W@@ 7305
نجليزية 7304
والص@@ 7293
باس@@ 7289
ورات 7289
الخص@@ 7287
فاق 7287
منح 7287
1991 7282
البريطاني 7277
بهم 7275
مطار 7275
الموجودة 7273
الإج@@ 7272
نغ@@ 7263
اليمن 7261
ّا 7261
سوق 7258
الحرارة 7256
1994 7254
تلا@@ 7253
نائ@@ 7250
علي@@ 7241
امنة 7238
نفسها 7236
ادرة 7235
وفاته 7235
حجم 7234
انو 7226
خفض 7224
مارك 7224
جذ@@ 7221
الأحيان 7220
الجمهوري 7219
كاليفورنيا 7217
ارك 7215
الشب@@ 7213
كتي@@ 7211
والش@@ 7210
كامل 7209
العلاقات 7208
ؤلاء 7204
المدارس 7203
وبد@@ 7202
الدينية 7193
الساح@@ 7193
تشير 7189
تون@@ 7189
ثار 7185
للسي@@ 7185
وّ@@ 7185
ومي@@ 7178
كريست@@ 7175
60 7174
يتبع 7173
لندي 7169
فئة 7167
lt 7166
شاركت 7166
يمية 7164
ذو 7163
بون@@ 7161
شل 7161
نوعة 7157
ولات 7151
ضع@@ 7139
وست@@ 7139
اللعب 7133
ائيات 7130
البرلمان 7111
طيع 7110
لغة 7107
1995 7101
بيد 7101
وو@@ 7098
كلمة 7091
الصغيرة 7087
جوا@@ 7084
ماي@@ 7082
يحدث 7079
2.@@ 7076
رغم 7076
معر@@ 7069
برامج 7068
غير@@ 7067
لى 7067
دث 7062
هات 7059
الرجال 7058
عشرين 7056
ونات 7051
وهناك 7051
جنسية 7048
المكان 7046
السك@@ 7045
اسب 7044
ألعاب 7043
الثالثة 7042
ياب@@ 7036
عرض@@ 7031
القلب 7029
خمسة 7028
باح@@ 7027
زيز 7027
لاست@@ 7020
التنفي@@ 7017
مدة 7012
1980 7009
إبراهيم 7008
قت@@ 7008
فاظ 7006
1993 7005
القان@@ 7005
شركات 7003
نامج 7003
ضر 7001
واصل 7001
النظر 7000
العلمية 6997
الاشترا@@ 6995
صيلة 6992
الغربي 6989
ناحية 6989
طرف 6986
سيتي 6982
سون@@ 6981
جاء 6980
اعي 6978
عالم@@ 6978
العزيز 6976
ناصر 6975
الاقتصادية 6974
اون 6974
بالع@@ 6973
قتل 6969
النباتات 6968
طان@@ 6965
العمال 6964
الخي@@ 6960
1989 6958
العسك@@ 6956
غان 6956
الصيفية 6954
علاق@@ 6950
المجمو@@ 6949
الشرطة 6947
يعرف 6945
بخ@@ 6930
اللو@@ 6928
تنظيم 6928
داخ@@ 6927
؟ 6924
دز 6923
الجزائ@@ 6913
رال 6913
of 6912
للت@@ 6901
الخام@@ 6895
سكي 6894
لائ@@ 6886
نع 6883
انتخابات 6877
ثن@@ 6874
توماس 6870
وث 6870
يته 6866
يكي 6865
لاحق 6864
بحث 6863
التعل@@ 6854
ً@@ 6853
لن@@ 6840
اند 6839
الزي@@ 6830
بالح@@ 6822
عَ@@ 6815
خان 6811
ضل@@ 6811
خلف@@ 6810
اند@@ 6805
1988 6804
فس 6804
خطط 6803
عمال 6787
قليم 6781
بغداد 6768
رسم@@ 6755
ائق 6753
فرد 6753
سلام 6747
العلماء 6745
سلي@@ 6732
لن 6730
الإل@@ 6723
K@@ 6714
آر@@ 6713
تين@@ 6711
سوس 6707
1984 6704
فصل 6702
مرات 6701
ولت 6696
تن 6681
موض@@ 6680
فلسطين 6675
الموج@@ 6671
قبل@@ 6671
قان@@ 6662
وط 6659
لِ@@ 6651
1986 6643
العلم 6639
تحمل 6634
رس 6634
لَ@@ 6634
مني 6629
بعنوان 6624
جار@@ 6623
حاب 6622
عمو@@ 6618
تس 6612
politician 6598
حصول 6577
كت 6576
زرا@@ 6574
الشخص@@ 6573
حدود 6561
نح@@ 6542
بلاد 6534
غار@@ 6529
بذ@@ 6501
1982 6488
فان@@ 6464
زب@@ 6462
نقاط 6443
ثناء 6438
80 6436
1979 6433
الحدي@@ 6430
ضات 6419
وتر 6411
الشرق@@ 6409
تسل@@ 6407
اتفاق@@ 6402
المعروف 6401
عان 6394
1987 6390
يها 6387
منص@@ 6372
مرتب@@ 6359
1948 6331
بِ@@ 6329
شعر 6324
1985 6322
1945 6317
بارات 6317
افت@@ 6316
تَ@@ 6313
سال 6303
قائد 6301
السلام 6297
افع 6289
مقاط@@ 6284
اريو 6283
واج@@ 6283
الإنس@@ 6277
السلط@@ 6253
المخت@@ 6247
موت 6225
ّل 6223
1970 6205
التجار@@ 6185
I@@ 6178
تونس 6166
مِ@@ 6165
معلومات 6154
امين 6151
ومة 6151
جين@@ 6148
ساح@@ 6146
سرطان 6145
فتح 6141
صار 6140
افات 6122
1967 6121
ورا 6112
المدر@@ 6080
سُ@@ 6079
1983 6075
وض 6075
وسط@@ 6071
جا 6070
بال 6052
بَ@@ 6048
نظر 6038
on 6020
يوسف 6019
فول@@ 6014
حال@@ 6012
عظ@@ 6007
غا 6004
حس@@ 5982
شروع 5982
نُ@@ 5979
70 5973
ناب@@ 5968
غل@@ 5967
رر 5958
جغرا@@ 5957
تخت@@ 5954
تجاو@@ 5952
عمان 5952
اعتم@@ 5947
1981 5945
اعتب@@ 5943
تأث@@ 5941
قاب@@ 5941
an 5933
آخ@@ 5933
محتر@@ 5923
25@@ 5916
حسين 5915
! 5913
راضي 5907
لور@@ 5894
صد@@ 5885
قُ@@ 5882
أستر@@ 5880
ازات 5878
مسل@@ 5872
ويك@@ 5865
دمشق 5842
تخب 5836
رخ 5826
دوا 5821
نر 5817
الف 5813
+ 5804
نز 5804
زو 5800
سار@@ 5774
امر@@ 5768
الصي@@ 5758
شار 5753
اصة 5736
عار@@ 5736
مثال 5733
يمي@@ 5731
V@@ 5727
شاعر 5720
مم@@ 5720
J@@ 5719
هن@@ 5713
1974 5711
A 5709
نيو 5697
رج 5693
1975 5687
زر 5686
1978 5683
الديمقرا@@ 5677
1976 5675
جدا 5674
أَ@@ 5673
فرو@@ 5663
خصوص@@ 5658
انتقال 5629
بون 5627
آن@@ 5624
اون@@ 5615
توق@@ 5615
دست@@ 5613
قطع 5612
خلايا 5607
عرا@@ 5604
نار@@ 5601
نشاء 5598
توقع 5593
1973 5591
الرحمن 5583
سمي 5582
فعل 5579
تبر 5563
صل@@ 5562
فرق 5549
90 5542
نام@@ 5542
ديم 5534
نتائج 5529
اجات 5526
اصمة 5496
حال 5496
35 5494
طب 5484
عصر 5482
قاع@@ 5475
او 5472
لز@@ 5464
فائ@@ 5452
خر 5447
الجز@@ 5446
1972 5432
يول@@ 5431
الوج@@ 5422
لند@@ 5410
3.@@ 5401
us 5393
قول 5393
رز 5388
500 5376
طالب 5371
ساس 5364
لبنان 5345
in 5344
صر@@ 5327
الكث@@ 5323
ملح@@ 5320
لمان 5313
ثقاف@@ 5312
منظ@@ 5308
1968 5304
مسجد 5302
معد@@ 5300
مشتر@@ 5299
موجو@@ 5298
er 5293
تصني@@ 5292
لش@@ 5290
1960 5288
يَ@@ 5286
1977 5284
مالك 5283
ومات 5280
روج 5267
ران@@ 5261
1971 5252
جم@@ 5251
اقة 5246
مالية 5243
اجتماع 5216
إنج@@ 5213
اؤ@@ 5205
آثار 5202
متا@@ 5201
إسب@@ 5200
ورو 5198
رغ@@ 5192
الجنوب@@ 5188
طلح 5186
صاحب 5185
24@@ 5184
فرض 5184
ارض 5170
فنون 5170
1969 5164
1964 5158
بالن@@ 5158
رَ@@ 5139
سلم 5138
” 5135
حصاء 5134
ندما 5132
the 5131
x 5121
سد 5113
نو 5109
بوس@@ 5106
افر 5104
تذ@@ 5098
ثت 5088
الا@@ 5066
تول@@ 5066
1963 5058
شن 5041
شب@@ 5038
ربط 5035
ابقة 5034
نواب 5033
مود 5030
a 5027
ملت 5027
سور 5025
ــ@@ 5014
ضافة 5011
1950 5010
شرف 4979
اتح@@ 4974
عود 4972
200 4965
اطر 4963
مقد@@ 4953
نس 4953
18@@ 4952
القرآن 4947
واد 4947
آس@@ 4938
فو 4935
الاق@@ 4930
ناة 4918
الفت@@ 4913
1962 4906
ادا 4893
32 4878
شد 4873
1965 4865
وغير@@ 4862
ذر@@ 4861
&#124; 4846
1956 4837
روت 4835
لار@@ 4832
الملك@@ 4828
eter 4820
وقع 4815
* 4796
19@@ 4795
فلا@@ 4794
خطوط 4792
داب 4785
شخاص 4777
مرو@@ 4777
مواقع 4776
فح@@ 4766
انج@@ 4759
فظ 4747
اور 4742
روز 4740
قوان@@ 4733
مربع 4732
صنا@@ 4714
S 4711
جاج 4711
1958 4698
مدار 4693
خذ 4667
• 4667
كومة 4662
فتا@@ 4660
1966 4658
عون 4658
كُ@@ 4649
4.@@ 4644
crick@@ 4642
مواد 4642
روع 4639
الوز@@ 4637
لس@@ 4634
نائب 4628
1961 4627
ائنات 4627
خز@@ 4622
65 4615
ابعة 4600
ترا 4582
75 4581
i 4580
The 4554
لاع 4543
ارتف@@ 4538
ائج 4534
الوط@@ 4526
قَ@@ 4521
ذر 4507
خالد 4496
1944 4481
محمود 4478
1949 4467
1947 4462
and 4455
ائن 4453
t 4451
حام@@ 4448
اصط@@ 4441
اعتماد 4436
ولو 4436
ازت 4435
1946 4432
خاص@@ 4430
بز@@ 4426
ابتد@@ 4414
d 4400
صار@@ 4396
الجمه@@ 4390
بُ@@ 4386
لاس 4379
حاج@@ 4373
T 4367
1940 4357
جماعة 4357
حمل 4353
مناس@@ 4350
1941 4342
صلاح 4339
45 4337
1939 4329
انس 4328
مائ@@ 4326
U@@ 4312
C 4311
1959 4309
1957 4305
“ 4305
سور@@ 4283
1955 4281
33 4278
قطر 4275
افظ 4269
D 4268
الداخ@@ 4264
غم 4261
رته 4259
footballer 4258
رم 4255
برج 4249
هيم 4235
طق 4213
1954 4212
بحت 4212
مور 4206
30@@ 4198
28@@ 4194
1952 4192
الح 4188
الحال 4180
نام 4177
توم@@ 4157
شخ@@ 4150
زان 4147
منز@@ 4142
آن 4140
E 4133
قلب 4128
الأحي@@ 4126
بنت 4124
فور 4123
قائق 4110
لب@@ 4104
شرا@@ 4103
لط@@ 4092
لمح@@ 4084
زون 4080
حاد@@ 4079
واضح 4075
ماد@@ 4074
اعتبار 4071
عناصر 4069
براطورية 4065
خلاف 4061
1943 4046
son 4040
نج 4038
0,000 4035
y@@ 4035
قدر 4022
بور 4020
جنوب@@ 4016
شائ@@ 4014
O 4013
John 4006
بحر 4001
العش@@ 3996
ضاب@@ 3996
1953 3990
منزل 3987
فَ@@ 3985
37 3981
مول 3976
الخط 3968
خرى 3957
1942 3947
1951 3944
طانية 3932
مقاب@@ 3929
ناس@@ 3922
انق@@ 3921
هذ@@ 3919
فاق@@ 3917
R 3911
شو 3907
عنوان 3904
رخ@@ 3902
دود 3882
بائل 3881
معروف 3879
تنظ@@ 3868
الاب@@ 3844
الكويك@@ 3844
34 3841
1936 3834
جائ@@ 3819
36 3812
00@@ 3811
وصول 3809
سرا@@ 3806
شف@@ 3804
s@@ 3796
امت 3787
حساب 3787
ؤ 3785
300 3777
P 3776
خت 3768
فلس@@ 3767
38 3766
اليا 3764
عبد@@ 3762
de 3758
كويك@@ 3743
مانيا 3743
7.@@ 3740
فريقيا 3737
n 3732
روح 3731
MP@@ 3730
B 3721
M 3715
روز@@ 3707
6.@@ 3704
1920 3702
I 3692
29@@ 3689
سائ@@ 3683
موج@@ 3683
مشيخ@@ 3669
1,@@ 3664
ائط 3660
ادم 3654
جمال 3652
مرد 3642
نظم 3642
سعود 3639
روم 3635
201@@ 3633
منت@@ 3633
c@@ 3628
سفر 3617
es 3608
جسم 3608
صرف 3603
بلا 3602
ارف 3600
حج@@ 3599
إيط@@ 3595
غال@@ 3591
55 3586
L 3579
زار 3573
o 3572
t@@ 3569
ناق@@ 3564
محل 3561
الجمع@@ 3544
قوم 3540
e 3535
نع@@ 3528
26@@ 3525
رش 3520
d@@ 3515
نما@@ 3515
1930 3511
اعتراف 3510
موضوع 3507
كالي@@ 3504
قبائل 3501
مبر@@ 3500
p@@ 3499
كترو@@ 3497
نوب@@ 3496
الحق 3492
سس 3484
الحي@@ 3483
سال@@ 3480
1938 3466
صلا@@ 3462
1933 3459
والد 3451
48 3448
199@@ 3442
1937 3436
رُ@@ 3434
راس 3430
تبادل 3424
طالب@@ 3424
وزن 3423
ing 3418
عظم 3413
نيا 3413
براط@@ 3404
وش 3403
صاد@@ 3399
8.@@ 3390
e@@ 3375
شرو@@ 3374
42 3365
سعد 3356
مظ@@ 3356
85 3344
منا 3341
1918 3335
l 3333
عار 3331
نَ@@ 3330
آر 3320
جاد 3318
سوا 3318
1935 3296
واش@@ 3291
en 3290
الث 3274
الحسن 3270
39 3268
H 3266
is 3265
قوب 3263
c 3251
قبول 3238
9.@@ 3237
رسم 3224
قبال 3224
مسة 3206
1931 3205
استعمال 3205
عاش@@ 3197
1929 3188
al 3187
1934 3186
راز 3169
استح@@ 3168
64 3149
دُ@@ 3139
وروب@@ 3121
درج 3114
أولا@@ 3108
اصل 3107
طرح 3106
علومات 3100
وبا 3100
خش@@ 3081
اظ 3076
1922 3074
مباش@@ 3072
400 3068
سول 3065
طوي@@ 3065
27@@ 3064
الرئي@@ 3064
توب@@ 3063
ابق 3055
عوام 3048
49 3046
جامع 3039
فار 3036
تبع 3022
47 3020
عثمان 3016
95 3015
طبق@@ 3013
تعاون 3012
ضل 3012
اتا 3011
41 3008
F 3007
1928 3005
Y@@ 2999
مجمو@@ 2997
1919 2996
باد 2990
انتخاب 2986
شرح 2984
نوف@@ 2960
56 2947
دما@@ 2935
1924 2933
آب@@ 2931
1932 2917
44 2917
وند 2915
فعال 2906
X@@ 2901
خف@@ 2890
قوم@@ 2890
حاق 2884
اشترا@@ 2882
فلم 2881
مجمع 2881
1921 2866
um 2863
54 2861
53 2859
بوط 2859
o@@ 2857
نوبل 2857
72 2856
1923 2854
راض@@ 2851
84 2849
زب 2849
عرب 2838
مقرا@@ 2838
خوا@@ 2827
آذ@@ 2825
صنع@@ 2825
1917 2824
اثر 2822
52 2814
86 2814
1000 2808
فارس 2807
88 2805
فلسط@@ 2805
p 2803
لاز@@ 2802
N 2799
ساحل 2799
ملائ@@ 2789
شان@@ 2784
تاج@@ 2783
سمة 2782
نسب 2779
عراق 2777
احتج@@ 2772
1925 2771
b@@ 2765
ائز 2764
تاب 2761
خان@@ 2761
v 2755
غذ@@ 2753
46 2747
Z@@ 2747
51 2746
n@@ 2746
اجد 2746
1927 2745
43 2744
جات@@ 2731
h 2724
born 2720
ورك 2720
جع@@ 2719
مخص@@ 2718
66 2716
قات@@ 2716
{ 2714
الموس@@ 2713
تمي 2710
دفاع 2709
a@@ 2706
on@@ 2700
حلق@@ 2694
198@@ 2693
رسول 2693
1914 2692
اردو 2690
87 2685
w@@ 2683
سات@@ 2683
k 2682
m@@ 2671
رن 2671
83 2670
el 2669
in@@ 2669
ساف@@ 2668
g@@ 2666
i@@ 2663
76 2659
1926 2653
سول@@ 2650
57 2649
طل 2647
عباس 2647
متاز 2644
h@@ 2643
ونت 2635
62 2629
58 2626
شا 2623
ed 2617
67 2614
81 2611
1912 2607
99 2599
قان 2599
ٌ@@ 2599
لبن@@ 2590
لاد 2588
78 2581
63 2577
b 2575
77 2571
71 2559
ترنت 2556
196@@ 2542
شاع@@ 2539
59 2536
رت@@ 2532
خبر@@ 2531
مقدار 2530
متعدد 2527
197@@ 2521
William 2521
G 2515
05 2508
69 2508
شعر@@ 2507
2,@@ 2500
g 2497
68 2496
فات@@ 2495
وام 2495
Re@@ 2494
Ch@@ 2483
96 2482
al@@ 2479
150 2478
مقبر@@ 2477
بورن 2452
احترا@@ 2447
00 2444
أمريك@@ 2443
فاس@@ 2442
61 2440
بوت 2437
79 2433
ia 2431
01 2429
ثابت 2428
3,@@ 2421
مند@@ 2420
ch@@ 2412
جيم@@ 2410
رمض@@ 2409
خرا@@ 2404
74 2400
} 2392
82 2391
X 2391
سند@@ 2391
r 2385
اتفاق 2384
x@@ 2383
اث 2379
1910 2374
دب@@ 2373
f@@ 2368
73 2367
ناز@@ 2363
James 2362
عمرو 2360
13.@@ 2355
en@@ 2355
1915 2348
صاح@@ 2347
الْ@@ 2346
r@@ 2343
l@@ 2332
m 2312
ph@@ 2305
ton 2301
خام@@ 2299
عث@@ 2299
محافظ@@ 2296
ويلي@@ 2288
صور@@ 2286
ac@@ 2281
باتات 2275
نور 2274
آد@@ 2266
شام 2264
Mar@@ 2259
an@@ 2258
بند@@ 2257
amp 2256
لاحات 2251
سكر 2247
04 2246
92 2245
حضور 2245
انستان 2242
2021 2241
ڤ@@ 2239
1916 2234
195@@ 2233
1913 2231
آدم 2230
98 2226
or 2221
راج 2212
اظ@@ 2210
et 2206
93 2204
ar@@ 2200
1908 2189
ٍ@@ 2186
600 2166
man 2165
v@@ 2165
مستقل 2163
u 2158
فال@@ 2157
89 2154
اوا 2150
وول@@ 2149
ناول 2147
ol@@ 2137
يانا 2135
زيرة 2133
شت 2117
باغ@@ 2106
انتظ@@ 2105
di@@ 2101
ie 2101
ابت 2101
ينا@@ 2099
Al@@ 2096
بابا 2096
V 2095
am@@ 2090
03 2080
1911 2075
° 2070
97 2067
1905 2062
k@@ 2061
ئر 2059
برا 2051
حان 2049
as 2048
j@@ 2039
تور 2037
12.@@ 2030
09 2025
قاسم 2025
91 2022
ar 2021
07 2020
or@@ 2015
جعفر 2009
دعا 2009
ic@@ 2005
1909 2004
شمس 1999
ation 1987
08 1984
قابل 1982
مثلاً 1974
250 1973
02 1967
زن@@ 1967
طقة 1958
,000 1956
94 1956
عامر 1950
ine 1948
الين@@ 1947
أوروب@@ 1945
1906 1939
Br@@ 1939
خطاب 1937
4,@@ 1934
بدل 1933
George 1929
800 1928
سعو@@ 1924
دوب@@ 1923
الوسط@@ 1916
حافظ 1909
er@@ 1906
at 1898
استن@@ 1898
50@@ 1896
حصار 1896
آب 1893
اعترا@@ 1892
شان 1891
جناح 1889
نفس@@ 1887
إسرائ@@ 1884
1907 1883
— 1880
id 1877
1900 1876
برى 1875
06 1872
منصور 1870
om@@ 1864
el@@ 1863
فريق@@ 1860
مسا@@ 1845
to 1844
اختلاف 1843
194@@ 1841
1904 1840
li@@ 1835
مطالب@@ 1835
David 1830
th@@ 1828
Car@@ 1815
as@@ 1804
Co@@ 1801
موجود 1801
http 1797
افت 1793
os@@ 1791
جنا@@ 1791
11@@ 1790
Mc@@ 1786
وقوع 1786
سمت 1782
وَّ@@ 1782
www.@@ 1761
غور 1757
\ 1752
1901 1750
Robert 1749
واب@@ 1746
درست 1745
مسلم 1744
120 1734
1903 1730
W 1729
f 1727
رضا 1723
le@@ 1715
جال 1707
‌ 1704
رومان@@ 1703
شور 1703
مستقبل 1698
شائع 1689
سخ@@ 1687
1898 1684
فاط@@ 1684
ot@@ 1682
ter 1682
193@@ 1678
1902 1676
id@@ 1675
Q@@ 1672
فوج@@ 1671
وعات 1670
روح@@ 1668
.com 1666
سنت 1659
التاس@@ 1650
زائ@@ 1646
10.@@ 1645
حلة 1645
تصور 1643
23@@ 1642
× 1635
ers 1628
وطن 1627
6,@@ 1621
ى@@ 1618
U 1617
دش@@ 1607
et@@ 1601
700 1600
z@@ 1598
K 1594
NGC 1594
1890 1593
In@@ 1592
1899 1591
داد@@ 1589
Sh@@ 1585
w 1583
² 1577
لفظ 1574
le 1572
دفن 1569
ti@@ 1565
خون 1563
سكان@@ 1553
1896 1552
سرائ@@ 1552
Charles 1551
5,@@ 1549
ey 1546
40@@ 1539
اعت 1530
oc@@ 1525
1897 1524
بدر 1524
Mor@@ 1520
Ar@@ 1516
عاب 1515
معام@@ 1513
An@@ 1511
ate 1509
u@@ 1508
11.@@ 1507
حاصل 1507
80@@ 1501
Thomas 1498
فلو@@ 1495
at@@ 1494
ro@@ 1494
غيرة 1493
ابو 1491
ag@@ 1490
1895 1483
us@@ 1477
ref 1476
ad@@ 1475
حار@@ 1469
ic 1467
7,@@ 1466
la 1465
1892 1464
is@@ 1460
Con@@ 1458
بياً 1458
رل 1458
اتذ@@ 1457
حدى 1455
ul@@ 1450
باز 1449
0.000 1447
حاض@@ 1444
· 1439
tr@@ 1437
سوس@@ 1432
il@@ 1431
احمد 1429
ی@@ 1427
8,@@ 1422
يشن 1421
3000 1420
ley 1420
1889 1407
انقلاب 1407
اوت 1406
المدار@@ 1405
ويورك 1402
35@@ 1397
American 1393
5000 1392
است 1392
متعل@@ 1391
1885 1389
Le@@ 1389
نوان 1389
1894 1387
it@@ 1386
re@@ 1386
’ 1386
1891 1381
Col@@ 1380
داية 1376
lo@@ 1368
1893 1366
الاجتماع@@ 1362
امر 1361
مقب@@ 1359
Bar@@ 1356
سند 1354
1888 1352
es@@ 1351
طاني 1351
C. 1349
1880 1344
ard 1343
سطة 1341
Gr@@ 1338
1884 1331
خال@@ 1329
بريل 1328
z 1327
ay 1325
دوس@@ 1325
امام 1322
ماب@@ 1320
ana 1319
ell 1319
192@@ 1318
am 1314
انتظام 1307
El@@ 1306
دوران 1300
1886 1299
واب 1299
1870 1298
1887 1295
1500 1290
actor 1290
CO@@ 1289
one 1289
De@@ 1286
ap@@ 1283
1878 1282
os 1281
عمران 1278
ab@@ 1277
سلسل@@ 1277
1882 1272
New 1272
Ed@@ 1271
اُ@@ 1268
بنو 1267
1881 1263
جرات 1263
ter@@ 1259
اجتم@@ 1259
IS@@ 1258
ڭ@@ 1258
Tr@@ 1254
وسلم 1251
وو 1249
دوم 1247
صوب@@ 1237
مراد 1236
1.5 1235
اِ@@ 1232
E. 1231
فاع 1231
em@@ 1224
1861 1223
St@@ 1217
im@@ 1214
1883 1212
جوع 1212
1876 1209
W. 1206
ice 1206
0,@@ 1205
محاص@@ 1205
ler 1204
Henry 1201
ed@@ 1198
ur@@ 1198
محدود 1192
1860 1190
1871 1185
1879 1172
ob@@ 1170
for 1165
ick 1163
60@@ 1162
av@@ 1161
ner 1160
حامل 1159
جلد 1157
ir@@ 1155
34@@ 1153
الثة 1152
إبرا@@ 1151
ent 1149
# 1146
co@@ 1146
9,@@ 1145
Michael 1144
Per@@ 1143
Ro@@ 1133
Richard 1132
Par@@ 1131
po@@ 1130
$ 1124
باغ 1121
ina 1120
180 1119
نر@@ 1118
Cl@@ 1116
by 1116
st@@ 1116
1867 1113
خبر 1112
مسعود 1111
منظور 1108
بائ@@ 1106
2.5 1105
جس 1105
op@@ 1098
Di@@ 1097
33@@ 1095
واز 1095
ch 1094
عرب@@ 1092
مقام 1092
ae 1090
1877 1089
L. 1089
Pr@@ 1089
العالم@@ 1085
Paul 1083
جلال 1083
1873 1082
ne 1082
شامل 1081
تام 1080
un@@ 1078
1848 1076
آباد 1076
ath@@ 1073
14.@@ 1071
900 1071
Y 1062
ad 1062
37@@ 1061
160 1059
Th@@ 1059
1875 1058
1866 1057
1865 1056
1864 1053
190@@ 1052
روش@@ 1051
1868 1050
130 1048
صفحات 1048
110 1042
Smith 1042
نوم@@ 1038
AS@@ 1037
Bur@@ 1037
football 1036
مشر@@ 1034
جلا@@ 1029
1872 1025
ec@@ 1021
1869 1020
مسئ@@ 1020
قبرص 1019
والسك@@ 1018
جاس@@ 1017
خوف 1012
1874 1007
جزائر 1003
S. 1000
age 1000
لار 1000
th 997
خدمت 992
ata 991
it 990
قائم 990
Ne@@ 989
der 988
og@@ 983
لترا 983
da 982
AR@@ 975
Har@@ 975
1863 973
od@@ 973
Se@@ 972
ale 971
124@@ 969
R. 969
tri@@ 966
II 964
Cor@@ 960
ri@@ 959
بنا 958
تجرب@@ 956
برس 954
B. 952
1857 951
CA@@ 950
38@@ 943
90@@ 943
te 942
خيرة 939
پ@@ 937
1850 934
AC@@ 932
ST@@ 931
1862 928
Ad@@ 928
فوج 928
350 927
CD@@ 926
ans 926
125 924
^ 923
قطب 921
ent@@ 920
il 917
Ste@@ 915
ختم 915
1859 914
22@@ 911
D. 909
Bo@@ 906
رن@@ 905
140 904
ea 904
series 904
י@@ 904
ov@@ 899
موضوعات 896
ess 895
ig@@ 895
sh@@ 895
ev@@ 894
ay@@ 893
Sch@@ 891
ts 884
مسائل 883
شنا@@ 882
قبض@@ 881
Cr@@ 879
Jo@@ 879
4000 878
ens 876
بورو 875
Joseph 874
sen 873
Edward 872
مشق 872
all 871
ta 871
um@@ 871
حفا@@ 871
1856 866
70@@ 866
Ph@@ 865
Qu@@ 865
Z 865
? 863
ma 863
واع 859
36@@ 857
bi@@ 856
ica 856
de@@ 855
per@@ 853
خات@@ 852
1849 850
39@@ 850
Australian 850
eb@@ 849
vi@@ 849
se 843
120@@ 839
1840 839
ni@@ 837
2022 834
si@@ 832
Frank 831
1854 829
1830 827
ist 827
1858 826
name 826
امتح@@ 825
Peter 822
AT@@ 821
Sp@@ 819
ورش 818
100@@ 814
آغ@@ 814
ut@@ 813
Gu@@ 811
45@@ 809
Com@@ 807
ly 805
101 803
eg@@ 803
نساس 802
1800 801
حاء 798
do@@ 796
AD@@ 795
ker 794
Mon@@ 793
مخالف@@ 793
ھ@@ 790
Be@@ 787
For@@ 785
قرب@@ 785
450 783
طانيا 779
Am@@ 778
ممل@@ 778
ase 777
افس@@ 777
tion 775
AM@@ 774
to@@ 773
قبر@@ 771
Hol@@ 770
188@@ 769
حوال@@ 767
الأولمب@@ 765
ו@@ 764
15.@@ 763
Li@@ 763
yr@@ 763
IC@@ 762
per 760
مصنف@@ 760
ve 759
فاص@@ 759
Ber@@ 758
اَ@@ 755
Er@@ 754
RA@@ 753
Mur@@ 752
gr@@ 752
سطس 752
انص@@ 751
ence 749
189@@ 748
Lo@@ 748
ensis 748
qu@@ 748
est 744
Brown 741
ty 741
1851 740
360 739
صلاح@@ 739
زور 736
od 735
J 733
ou@@ 733
1853 732
ati@@ 732
170 731
اتنا 731
az@@ 730
− 729
1200 728
3.5 726
are 726
ce 725
org 725
ab 724
idae 724
ak@@ 723
ah 722
خطر@@ 722
65@@ 721
5,000 719
Martin 718
des 718
16.@@ 717
1847 716
وفات 716
1835 715
Ab@@ 715
Donald 715
ang 715
مرح@@ 715
1839 713
1852 712
Ex@@ 712
par@@ 711
1837 710
Ac@@ 710
Ger@@ 710
ol 710
جواب 710
ks 709
Scott 708
ik@@ 707
1845 706
SO@@ 706
1832 705
se@@ 705
1855 704
En@@ 703
كاون@@ 703
He@@ 701
چ@@ 701
SS 700
ene 699
105 698
AC 698
Cal@@ 698
ah@@ 698
yl@@ 697
اطق 697
ity 696
مدد 696
Lee 693
ary 693
17.@@ 692
55@@ 692
آ 691
1820 690
codice 690
موال@@ 689
1844 688
راست@@ 688
187@@ 686
46@@ 686
طالبان 686
1834 684
ک@@ 684
Mark 683
US@@ 683
1846 682
Fl@@ 682
G. 680
ir 680
baseball 679
Q 678
Or@@ 677
ory 677
اشا 677
Tom 675
1843 674
184@@ 674
Joe 674
تناز@@ 674
ford 673
ge 673
ke 672
1815 671
Bill 671
ane 671
land 669
تِ 669
ex@@ 668
uc@@ 668
آز@@ 668
Her@@ 667
und 666
23.@@ 665
Gar@@ 665
ens@@ 665
179@@ 664
Mo@@ 664
ing@@ 661
ry 661
واخر 661
AN@@ 660
Bro@@ 658
Jack 655
ace 654
اسلا@@ 654
10,000 653
1838 653
ant 653
Alexander 652
La 652
1842 650
AL@@ 650
Daniel 650
ick@@ 650
نسل@@ 649
1812 648
ess@@ 648
منظم 648
زد 647
صوف@@ 645
1836 644
ann@@ 643
br@@ 642
end@@ 642
2500 641
ep@@ 641
محفو@@ 639
au@@ 638
48@@ 636
1821 635
ella 635
na 634
‘ 634
115@@ 633
1841 632
ya 632
Williams 631
ai 631
علما 631
Na@@ 630
ez 629
ison 629
47@@ 628
mar@@ 627
ER@@ 626
les 624
af@@ 623
dis@@ 623
لِ 623
ملا 623
75@@ 622
be 622
mo@@ 622
Wil@@ 620
OS 619
erry 619
ra 619
گ@@ 619
186@@ 618
oph@@ 618
1833 617
AP@@ 617
220 616
Jim 616
https 616
str@@ 616
Ser@@ 615
25.@@ 614
pl@@ 614
Str@@ 613
ber@@ 613
19.@@ 612
CH@@ 611
20.@@ 609
ight 609
á@@ 609
SP@@ 608
1831 607
TV 607
24.@@ 606
IM@@ 606
Man@@ 606
وسف 606
Gre@@ 605
Fre@@ 604
135 603
Bob 602
ci@@ 601
ps 601
José 599
ith 599
Johnson 598
ano 598
q@@ 598
ناك 598
art 597
18.@@ 596
ver@@ 596
غالب 596
128 595
pr@@ 594
49@@ 593
240 592
Mike 592
فائز 592
22.@@ 589
ney 589
yn@@ 589
Jones 588
unc@@ 588
Mac@@ 587
68@@ 586
Arthur 586
,@@ 585
ES@@ 585
con@@ 585
21.@@ 584
Po@@ 584
26.@@ 583
27.@@ 583
Pro@@ 582
SA 582
102 581
ang@@ 581
re 581
Canadian 580
University 580
ance 579
era 579
no@@ 578
حضرت 578
Chris 576
حروف 576
Mil@@ 575
Walter 575
.000 573
MS 573
Mas@@ 573
SA@@ 573
117@@ 571
1810 570
ach@@ 570
انسان 570
57@@ 568
1826 567
su@@ 567
1814 566
MA 565
67@@ 564
un 564
2.0 563
be@@ 563
نسخ@@ 563
PS 562
Ver@@ 562
… 562
زبر@@ 560
1825 559
ma@@ 559
53@@ 558
DNA 558
bo@@ 558
if@@ 558
750 557
As@@ 556
di 556
gi@@ 556
اتر 555
118@@ 553
Sim@@ 553
ous 553
ow@@ 553
مقبول 553
Taylor 552
com@@ 552
der@@ 552
ara 551
ell@@ 551
104 550
aw@@ 550
صنعت 548
320 547
World 547
do 547
hi@@ 547
ite 547
van 547
ant@@ 546
ical 546
103 545
109 545
ons 545
زمان@@ 544
56@@ 543
Ram@@ 543
بند 543
tis 542
1829 541
Andrew 538
ak 538
Mal@@ 537
Tur@@ 536
basketball 536
اندر 536
1828 535
Tom@@ 535
1824 534
99@@ 534
Ge@@ 534
115 533
Fr@@ 533
ain 533
Ma@@ 531
win 531
Ag@@ 530
Dr@@ 530
ff@@ 530
44@@ 529
66@@ 529
Hor@@ 529
NE@@ 529
190 528
SE@@ 528
White 528
sa 528
114@@ 527
COVID 527
امور 527
1600 526
ass@@ 526
ti 526
107 525
ok@@ 525
tic@@ 524
قرآن 524
Wilson 523
ns 523
IN@@ 522
ضلع 522
and@@ 521
ot 521
q 520
tin 520
with 520
210 519
111 518
1819 518
ology 518
1822 516
ver 516
اطلاع 515
tor 514
اطلا@@ 513
Francis 512
Wal@@ 512
RO@@ 511
فرانس 511
58@@ 510
Hug@@ 510
ca 510
enn@@ 509
he@@ 509
نسل 509
113@@ 508
LE@@ 508
all@@ 508
ore 508
We@@ 507
pi@@ 507
ins 506
106 505
108 505
Steve 505
bert 503
NA 502
old 502
بتا@@ 502
سرو@@ 502
→ 502
Me@@ 501
Wo@@ 501
Cra@@ 500
MI@@ 499
Samuel 499
ake 499
sp@@ 499
PA 498
car@@ 498
1808 497
230 497
mon@@ 497
Kr@@ 496
1806 495
CI@@ 495
My@@ 495
Ros@@ 495
cher 495
~ 495
116@@ 494
RNA 494
Rich@@ 494
Sal@@ 494
WWE 494
onn@@ 494
Allen 493
day 493
man@@ 493
j 492
افراد 492
Conn@@ 491
IE@@ 491
1827 490
CP@@ 490
section 489
AB@@ 487
Nor@@ 487
Bi@@ 486
st 486
AS 485
Davis 485
die 485
ure 485
ett 483
1804 482
Ke@@ 481
te@@ 481
va 481
مختار 481
والا 481
1789 480
Albert 480
III 480
den 480
ies 479
ue 479
بولا 478
AP 477
Cam@@ 477
1818 476
co 475
om 475
175 474
Mer@@ 474
DA 472
oy@@ 472
vin 472
119@@ 471
Ap@@ 471
CD 471
e.@@ 471
end 471
CS@@ 470
استاد 470
بالا 470
UN@@ 469
ly@@ 469
ne@@ 469
tic 469
Al 468
kins 468
ok 468
Pe@@ 467
ib@@ 467
185@@ 466
Lewis 466
سفار@@ 466
330 465
ممتاز 465
1823 464
Don 464
IV 464
So@@ 464
ald 464
270 463
Dav@@ 463
א@@ 463
1813 462
59@@ 462
ile 462
ill 462
‍ 462
لمب@@ 461
ator 460
í@@ 460
α 460
121 459
Sol@@ 459
ism 459
شمول@@ 459
col@@ 458
International 457
1300 456
Harry 456
Miller 456
Pol@@ 456
Stephen 456
ist@@ 456
1790 455
our 455
ר@@ 455
1809 454
hockey 454
٬ 454
1,000 453
43@@ 453
Mat@@ 453
me@@ 453
11,@@ 452
Mag@@ 452
محفوظ 452
Wat@@ 450
1811 449
ino 449
lis 449
Hy@@ 448
Ray 448
Anderson 447
HT@@ 447
Wi@@ 447
At@@ 446
ML 446
مبر 446
1798 445
2,000 445
Em@@ 445
1700 444
1816 444
550 444
lin@@ 444
oth@@ 444
اوق@@ 444
132 443
King 443
Rec@@ 443
iz@@ 443
رابط@@ 443
ics 442
زند@@ 442
ail@@ 441
ge@@ 441
مغرب 441
ans@@ 440
حج 440
112 439
1807 439
280 439
Bl@@ 439
Brian 439
Gil@@ 439
أيض@@ 439
صاف 439
نما 439
Sil@@ 438
eh@@ 438
from 438
123 437
Fred 437
كريك@@ 437
† 437
145 435
tu@@ 435
1801 433
iv@@ 433
ی 433
ە@@ 433
ack 432
im 432
اسما@@ 432
Howard 431
Te@@ 431
able 431
ada 431
A. 430
122 429
ATP 429
PC@@ 429
ill@@ 429
113 428
IP 428
Rober@@ 428
Young 428
شاد 428
117 427
1792 427
All@@ 427
260 426
Juli@@ 426
اضاف@@ 426
تدار 426
1400 425
Alan 425
ac 425
AT 424
CC@@ 424
Go@@ 423
Hall 423
NH@@ 423
mi@@ 423
Lu@@ 422
aham 422
est@@ 422
musici@@ 422
CA 420
Des@@ 420
NO@@ 420
ari@@ 420
Ir@@ 419
SS@@ 419
מ@@ 419
عائد 419
مسلح 419
la@@ 418
sc@@ 418
1,0@@ 417
1799 417
1817 417
SM 417
ack@@ 417
ide 417
ster 417
Frederick 416
RE@@ 416
au 416
text 416
Clark 415
kin@@ 415
onlyinclude 415
Fo@@ 414
mer 414
Gordon 413
ade 413
10,@@ 412
116 412
actr@@ 412
my 412
sch@@ 412
راجا 412
منسو@@ 411
ard@@ 410
21@@ 409
ero 409
Je@@ 408
well 408
em 407
kh@@ 407
Ev@@ 406
York 406
so@@ 406
124 405
PC 405
ori@@ 405
Kar@@ 404
Reg@@ 404
ys@@ 404
Jackson 403
To@@ 403
Un@@ 403
ig 403
ra@@ 403
British 402
ora 402
rey 402
1795 401
1803 401
gen@@ 401
Cur@@ 400
K. 400
Su@@ 400
eman 400
ini 400
é@@ 400
114 399
eth 399
ran@@ 399
ris 398
155 395
180@@ 395
ion 395
127 394
Kevin 394
ales 394
0s 393
Du@@ 393
Mit@@ 393
New@@ 393
ings 393
Val@@ 392
du@@ 392
You 391
án 391
ire 390
13,@@ 389
Pl@@ 389
TE@@ 389
ox@@ 389
126 388
1805 388
Carlos 388
Clar@@ 388
berg 388
ys 388
زبان 388
650 387
Willi@@ 387
dr@@ 387
lu@@ 387
1793 386
AI@@ 386
Ho@@ 386
J. 386
ates 386
ur 386
ura 386
CE@@ 385
DE@@ 385
Por@@ 385
Ri@@ 385
ise 385
Patrick 384
مدت 384
Im@@ 383
Jean 383
National 383
か@@ 383
Green 382
Inter@@ 382
Ryan 382
Thompson 382
field 382
ome 382
class 381
cr@@ 381
Walker 380
enti@@ 379
ym@@ 379
مارا 379
Arch@@ 378
ich 378
mann 378
مشيخة 378
Dis@@ 377
Bruce 376
English 376
IP@@ 376
زخ@@ 376
Eric 375
LC 375
129 374
ka 374
aj@@ 373
als 373
ek@@ 373
ho@@ 373
ira 373
za 373
زائد 373
In 372
Si@@ 372
ations 372
oh@@ 372
Is@@ 371
a.@@ 371
io 371
IS 370
hy@@ 370
ian 370
ud@@ 370
Leon@@ 369
Tor@@ 369
ב@@ 369
152 368
Alfred 368
Wor@@ 368
oma 368
tor@@ 368
معاملات 368
12,@@ 367
Mel@@ 367
Moore 367
Robinson 367
ung 367
ru@@ 366
Black 365
ME@@ 365
atus 365
ita 365
Dan 364
ative 364
ov 364
1791 363
IC 363
Roy 363
ub@@ 363
AA 362
ray 362
نقص@@ 362
Juan 361
Vi@@ 361
up@@ 361
go@@ 360
اورا@@ 360
منظر 359
1802 358
Ang@@ 358
حاضر 358
عطا 358
Kenn@@ 357
Sa@@ 357
pe@@ 357
ten@@ 357
CN@@ 356
Lin@@ 356
s.@@ 356
اعداد 356
Love 355
ida 355
Hill 354
dy 354
ong 354
CC 353
Min@@ 353
arry 353
ated 353
Ern@@ 352
net 352
tive 352
-- 351
FC 351
Mar 351
Ni@@ 351
ger 351
صورت 351
118 349
119 349
Gary 349
Jer@@ 349
Pat@@ 349
ali@@ 349
box@@ 349
معاش@@ 349
Far@@ 348
Harris 348
arr@@ 348
ect 346
Billy 345
Cas@@ 345
anc@@ 345
Wright 344
AN 343
ה@@ 343
14,@@ 342
1797 342
Dave 342
No@@ 342
und@@ 342
é 342
سوان@@ 342
Campbell 341
Rand@@ 341
Russell 341
style 341
ל@@ 341
380 340
De 340
سرب@@ 340
1794 339
BN 339
Tony 339
yc@@ 339
elle 338
eng@@ 338
ili@@ 338
mer@@ 338
Ca@@ 337
Louis 337
Sand@@ 337
ment 337
no 337
ole 337
Matthe@@ 336
Ross 336
ama 336
arren 336
ement 335
Es@@ 334
Fe@@ 334
sw@@ 334
ومت 334
Barr@@ 333
pp@@ 333
rez 333
tions 333
But@@ 332
Do@@ 332
Gal@@ 332
MP 332
PE@@ 332
Lawrence 331
ici@@ 331
Charlie 330
EC@@ 330
ass 330
adi@@ 329
ā@@ 329
Stu@@ 328
Alex 327
Cy@@ 327
Ian 327
School 327
Sw@@ 327
BS 326
FI@@ 326
Hu@@ 325
Rom@@ 325
Sam 325
cor@@ 325
cus 325
fr@@ 325
model 325
ret@@ 325
Benjamin 324
Luis 324
sk@@ 324
Baker 323
Bel@@ 323
Herbert 323
tro@@ 323
Mus@@ 322
Ben@@ 321
Boy@@ 321
eli@@ 321
ents 321
let@@ 321
ساؤ@@ 321
Benn@@ 320
TS 320
me 320
اولاد 320
Can@@ 319
Fi@@ 319
Phil@@ 319
ock 319
مختصر 319
Douglas 318
HD 318
DS 317
Stewart 317
ish@@ 317
ning 317
we@@ 317
بلح@@ 317
فرار 317
Bor@@ 316
Rob@@ 316
public 316
yl 316
● 316
Gi@@ 315
Group 315
Hay@@ 315
Ru@@ 315
loyd 315
Bell 314
Kn@@ 314
ani 314
fil@@ 314
ler@@ 314
oto 314
ש@@ 314
16,@@ 313
Andy 313
Carl 313
EE 313
Tim 313
lan@@ 313
Fin@@ 312
Ly@@ 312
Lyn@@ 312
β 312
اصطلاح 312
BC 311
op 311
ro 311
ug@@ 311
17,@@ 310
Bal@@ 310
Ig@@ 310
Le 310
Shar@@ 310
amb@@ 310
format 310
Laur@@ 309
May 309
inter@@ 309
min@@ 309
Marshall 308
ta@@ 308
vol@@ 308
ws 308
Kelly 307
تحفظ 307
CP 306
out 306
Sul@@ 305
over@@ 305
pe 305
RI@@ 304
ena 304
خاتون 304
AM 303
Mari@@ 303
Simon 303
du 303
Anthony 302
RS 302
Web@@ 302
Zealand 301
bl@@ 301
PO@@ 300
Pi@@ 300
Roger 300
align 300
سی@@ 300
MS@@ 299
Ty@@ 299
ثلا@@ 299
فرائ@@ 299
--@@ 298
BA 298
chi@@ 298
mond 298
time 298
Christopher 297
Harr@@ 297
LA 297
Sha@@ 297
cu@@ 297
del 297
vo@@ 297
wood 297
Bas@@ 296
IT@@ 296
Mu@@ 296
Os@@ 296
ser@@ 296
von 296
yp@@ 296
Cer@@ 295
Eu@@ 295
Lam@@ 295
ennis 295
inc@@ 295
ium 295
so 295
sy@@ 295
Hel@@ 294
P. 294
Sc@@ 294
pu@@ 294
غزل 294
Jason 293
Moh@@ 293
amp@@ 293
osa 293
ters 293
إ 293
Tod@@ 292
ord@@ 292
Adams 291
Mul@@ 291
bor@@ 291
dia 291
eff 291
tel@@ 291
BM@@ 290
ISO 290
Manuel 290
My 290
ach 290
ve@@ 290
اخلا@@ 290
Gib@@ 289
Hum@@ 289
Tre@@ 289
film 289
ú@@ 289
مند 289
١@@ 289
Adam 288
PS@@ 288
20,@@ 287
Hal@@ 287
How@@ 287
Vol@@ 287
alp@@ 287
ash 287
ola 287
way 287
ま@@ 287
15,@@ 286
Jimmy 286
gu@@ 286
DF 285
TO@@ 285
ki@@ 284
nch@@ 284
thi@@ 284
Ful@@ 283
Norman 283
Sher@@ 283
ha 283
int 283
ki 283
oks 283
que 283
ér@@ 283
い@@ 283
Bob@@ 282
Morgan 282
cap@@ 282
ish 282
tes 282
ón 282
می@@ 282
Dou@@ 281
Ham@@ 281
ala 281
ally 281
sh 281
Jonathan 280
anth@@ 280
fo@@ 280
port 280
sson 280
ó@@ 280
CN 279
NS@@ 279
Pal@@ 279
Tri@@ 279
for@@ 279
its 279
low 279
DO@@ 278
ardo 278
bu@@ 278
lem@@ 278
line 278
son@@ 278
Kir@@ 277
Nelson 277
Antonio 276
Christian 276
Tak@@ 276
enz@@ 276
ko 276
lar@@ 276
נ@@ 276
غلام 276
M. 275
Prot@@ 275
Sur@@ 275
ff 275
lock 275
type 275
نوج@@ 275
Blo@@ 274
Whit@@ 274
occer 274
uch@@ 274
اعلان 274
West 273
cl@@ 273
uk@@ 273
value 273
Hir@@ 272
Ul@@ 272
background 272
ABC 271
Christ@@ 271
Dar@@ 271
Sam@@ 271
alis 271
ington 271
lo 271
si 271
sol@@ 271
مقدس 271
Jam@@ 270
ston 270
し@@ 270
FA 269
Mill@@ 269
RA 269
ado 269
Ben 268
Del@@ 268
TP 268
eron 268
Matt 267
res@@ 267
tics 267
た@@ 267
AR 266
IG@@ 266
Trans@@ 266
mat@@ 266
oni@@ 266
syn@@ 266
± 266
بازار 266
さ@@ 266
Miguel 265
Tim@@ 265
aceae 265
row 265
تمبر 265
El 264
Mah@@ 264
rel@@ 264
Lind@@ 263
London 263
Ol@@ 263
Wall@@ 263
ette 263
ich@@ 263
wards 263
ماؤ@@ 263
ek 262
ela 262
23,@@ 261
Hamilton 261
ds 261
انقلا@@ 261
ao 260
ods 260
ting 260
ری@@ 260
One 259
TA 259
19,@@ 258
DC 258
Stanley 258
ash@@ 258
ten 258
AD 257
DP 257
Gl@@ 257
Tel@@ 257
ain@@ 257
arch@@ 257
erg@@ 257
isa 257
ther@@ 257
Day 256
Eng@@ 256
South 256
bar@@ 256
ere 256
the@@ 256
yan 256
مضمون 256
Brad@@ 255
II@@ 255
Nov@@ 255
ax@@ 255
begin 255
ez@@ 255
new 255
oke 255
٢@@ 255
arg@@ 254
contributor 254
har@@ 254
nes 254
ors 254
timestamp 254
خوا 254
علی 254
phy 253
username 253
田@@ 253
18,@@ 252
Arm@@ 252
Bre@@ 252
ars 252
ye 252
طرز 252
IF@@ 251
Sm@@ 251
ai@@ 251
pha 251
Griff@@ 250
IBM 250
ari 250
cer@@ 250
ele 250
int@@ 250
ber 249
comment 249
li 249
ven 249
ה 249
اندا@@ 249
Met@@ 248
San@@ 248
vir@@ 248
we 248
ō@@ 248
Me 247
Rog@@ 247
SI@@ 247
lie 247
mag@@ 247
pro@@ 247
ven@@ 247
yle 247
ñ@@ 247
حالت 247
AF 246
BT 246
Black@@ 246
Bul@@ 246
Gen@@ 246
US 246
متعلق 246
AB 245
AE@@ 245
Francisco 245
Man 245
aur@@ 245
aus@@ 245
ito 245
val@@ 245
vey 245
Chil@@ 244
Jac@@ 244
Red 244
VA 244
ester 244
mes 244
pen@@ 244
Raymond 243
ave 243
cin@@ 243
fer 243
oper 243
ves 243
Bir@@ 242
Bu@@ 242
Lar@@ 242
Mad@@ 242
Nich@@ 242
SC 242
United 242
uz@@ 242
wid@@ 242
was 241
توان@@ 241
وی@@ 241
Journal 240
Park 240
Ra@@ 240
app@@ 240
ath 240
ball 240
A.@@ 239
LG@@ 239
Res@@ 239
ila 239
ott 239
ئن 239
جانا 239
All 238
As 238
Jordan 238
On@@ 238
Pear@@ 238
ba 238
ja 238
Gard@@ 237
Greg@@ 237
Johnny 237
Max 237
teri@@ 237
AL 236
GA 236
Gro@@ 236
ML@@ 236
Mol@@ 236
king 236
len@@ 236
unt 236
Hern@@ 235
Les 235
Medi@@ 235
Mir@@ 235
Sec@@ 235
tra 235
tur@@ 235
توضي@@ 235
27,@@ 234
Oliver 234
Steph@@ 234
if 234
iro 234
unter 234
رنز 234
Au@@ 233
Bernard 233
Brand@@ 233
Carter 233
EC 233
Sing@@ 233
aria 233
ection 233
ime 233
iti@@ 233
of@@ 233
ong@@ 233
Ba@@ 232
Mos@@ 232
anti@@ 232
az 232
err@@ 232
ery 232
hi 232
por@@ 232
tim@@ 232
دفتر 232
Lev@@ 231
ba@@ 231
cal@@ 231
ids 231
pre@@ 231
rol@@ 231
مزار 231
Ash@@ 230
John@@ 230
Pre@@ 230
meth@@ 229
や@@ 229
21,@@ 228
26,@@ 228
IO@@ 228
Maria 228
ern@@ 228
ie@@ 228
immer 228
rom@@ 228
التار@@ 228
دی@@ 228
Elec@@ 227
SD 227
ame 227
eck 227
off@@ 227
wer@@ 227
ڨ@@ 227
ひ@@ 227
22,@@ 226
3D 226
AF@@ 226
Arn@@ 226
ost 226
sa@@ 226
var@@ 226
اصول 226
ٱ@@ 226
Chap@@ 225
ger@@ 225
ther 225
ō 225
CO 224
Daw@@ 224
Franklin 224
GP@@ 224
Haw@@ 224
Liv@@ 224
anny 224
ן 224
き 224
Jos@@ 223
Ur@@ 223
act 223
edi@@ 223
£ 223
ד@@ 223
تشدد 223
24,@@ 222
MC 222
Mi@@ 222
air@@ 222
ani@@ 222
can@@ 222
colspan 222
ins@@ 222
lin 222
oa 222
Ban@@ 221
Cap@@ 221
aron 221
che 221
des@@ 221
len 221
pos@@ 221
sion 221
that 221
ä@@ 221
احت 221
् 221
し 221
Bri@@ 220
Op@@ 220
Sar@@ 220
gene 220
مقرر 220
Han@@ 219
Hard@@ 219
MO@@ 219
Men@@ 219
ille 219
ima 219
singer 219
tical 219
ע@@ 219
اخبار 219
BO@@ 218
Dre@@ 218
Ker@@ 218
Mary 218
Philip 218
ae@@ 218
ards 218
oth 218
ος 218
دبا@@ 218
Char@@ 217
Con 217
Life 217
Med@@ 217
RT@@ 217
fa@@ 217
yn 217
ڤ 217
Ak@@ 216
Fox 216
Grant 216
Jay 216
Pas@@ 216
SN@@ 216
Vir@@ 216
WW@@ 216
Wh@@ 216
gl@@ 216
illa 216
ji 216
lins 216
Award 215
Little 215
Music 215
Syst@@ 215
System 215
TV@@ 215
Tro@@ 215
Wayne 215
ham 215
ii 215
key 215
wiki 215
yer 215
CS 214
Co 214
Fran@@ 214
She@@ 214
eb 214
encer 214
uck 214
Micro@@ 213
Nick 213
SI 213
Vo@@ 213
cel@@ 213
center 213
don 213
ech@@ 213
lard 213
sel@@ 213
ø@@ 213
House 212
Il@@ 212
It 212
Mont@@ 212
Time 212
ap 212
ce@@ 212
ei 212
ha@@ 212
ind@@ 212
up 212
Adri@@ 211
Lor@@ 211
News 211
Pot@@ 211
ast@@ 211
dium 211
AG@@ 210
Hon@@ 210
eo 210
res 210
فی 210
Cle@@ 209
Pan@@ 209
arm@@ 209
ey@@ 209
fl@@ 209
lam@@ 209
parentid 209
محض 209
مصنف 209
25,@@ 208
Dun@@ 208
Jar@@ 208
Les@@ 208
Pedro 208
Thom@@ 208
ages 208
fe@@ 208
fre@@ 208
her@@ 208
ture 208
معلوم 208
← 208
AG 207
Dor@@ 207
González 207
Google 207
ax 207
back 207
fac@@ 207
ico 207
Bet@@ 206
Ko@@ 206
Long 206
On 206
Sk@@ 206
eri 206
pal@@ 206
ula 206
Blue 205
FM 205
Jus@@ 205
Stone 205
aka 205
ato 205
ems 205
loc@@ 205
لی@@ 205
Dec@@ 204
Mic@@ 204
Sub@@ 204
Ter@@ 204
cy 204
ello 204
ת 204
ادب 204
Fernando 203
H. 203
LO@@ 203
Net@@ 203
Press 203
Sy@@ 203
Windows 203
amm@@ 203
ding 203
ome@@ 203
بی@@ 203
な@@ 203
Blan@@ 202
Isa@@ 202
Rot@@ 202
Win@@ 202
anus 202
ature 202
don@@ 202
ef@@ 202
inae 202
ona 202
ular 202
Blu@@ 201
Cre@@ 201
Pierre 201
Vincent 201
ells 201
isher 201
ko@@ 201
ley@@ 201
sin@@ 201
ö@@ 201
نگ@@ 201
の@@ 201
Austin 200
Bow@@ 200
Mes@@ 200
Rol@@ 200
inn@@ 200
olog@@ 200
over 200
tw@@ 200
ον 200
٠@@ 200
あ@@ 200
Don@@ 199
García 199
VI@@ 199
augh@@ 199
ou 199
view 199
RT 198
́ 198
اقسام 198
Cu@@ 197
IA 197
Lab@@ 197
May@@ 197
Mich@@ 197
Washington 197
ami@@ 197
ema 197
ão 197
Cro@@ 196
EM@@ 196
Ja@@ 196
cul@@ 196
elec@@ 196
eta 196
ond 196
osis 196
tia 196
ای@@ 196
Andre@@ 195
March 195
ady 195
comp@@ 195
cy@@ 195
web@@ 195
xon 195
ա@@ 195
باعث 195
ین 195
BI 194
EP 194
Earl 194
PR@@ 194
bre@@ 194
els 194
kin 194
ling 194
É@@ 194
α@@ 194
براير 194
Av@@ 193
Prince 193
RC 193
ech 193
Art 192
Die 192
Karl 192
PP@@ 192
Research 192
Shel@@ 192
esc@@ 192
yg@@ 192
י 192
Az@@ 191
College 191
Ha@@ 191
Joh@@ 191
Star 191
onald 191
ts@@ 191
Sus@@ 190
awa 190
cre@@ 190
ese 190
ext 190
ide@@ 190
ni 190
tan@@ 190
uf@@ 190
una 190
City 189
Power 189
Rel@@ 189
Tal@@ 189
UC@@ 189
Vic@@ 189
cas@@ 189
ender@@ 189
eph@@ 189
esis 189
met@@ 189
onia 189
بخش 189
Association 188
B.@@ 188
Bla@@ 188
DVD 188
Ford 188
Log@@ 188
TC 188
Trav@@ 188
ders 188
ease 188
ier 188
mac@@ 188
out@@ 188
pa 188
rec@@ 188
ung@@ 188
ָ@@ 188
∈ 188
HP 187
Ren@@ 187
Rus@@ 187
The@@ 187
ble 187
ets 187
ider 187
lat@@ 187
ope 187
ph 187
vor 187
à 187
ּ@@ 187
حفاظ@@ 187
Jacob 186
Pa@@ 186
Rodríguez 186
Society 186
aki 186
ast 186
ense 186
ete 186
och@@ 186
une 186
Rose 185
Service 185
ega 185
fer@@ 185
tar@@ 185
صحت 185
فورس 185
Center 184
Hz 184
Martínez 184
Max@@ 184
esse 184
her 184
isi@@ 184
tom@@ 184
ut 184
′ 184
‹ 184
CE 183
Fu@@ 183
Ric@@ 183
Rodr@@ 183
dez 183
lig@@ 183
ms 183
tion@@ 183
uke 183
wen 183
ć 183
Corn@@ 182
GB 182
anda 182
cur@@ 182
jo 182
occ@@ 182
system 182
ust@@ 182
Gold@@ 181
Lang@@ 181
Live 181
North 181
T. 181
Victor 181
act@@ 181
bul@@ 181
fin@@ 181
hu@@ 181
iy@@ 181
rit@@ 181
Club 180
DI 180
Ever@@ 180
Oli@@ 180
Science 180
eri@@ 180
lif@@ 180
sen@@ 180
use 180
مولانا 180
Leg@@ 179
List 179
Media 179
cia 179
hil 179
ines 179
ng 179
say 179
ملاز@@ 179
BBC 178
Chr@@ 178
Mach@@ 178
aga 178
alist 178
ating 178
iss@@ 178
itz@@ 178
ness 178
ros@@ 178
sey 178
پس 178
Nav@@ 177
Ti@@ 177
XX 177
del@@ 177
﴾ 177
Arab@@ 176
Super@@ 176
air 176
igh@@ 176
non 176
sub@@ 176
vel@@ 176
الفرنس@@ 176
﴿ 176
Sho@@ 175
data 175
gen 175
ning@@ 175
prot@@ 175
top 175
ández 175
@ 174
IB@@ 174
Is 174
López 174
Rho@@ 174
Rod@@ 174
aci@@ 174
dic@@ 174
inde@@ 174
ky 174
log@@ 174
very 174
Fac@@ 173
br 173
enc@@ 173
ental 173
Super 172
Ther@@ 172
War@@ 172
acy 172
avier 172
bit 172
bot@@ 172
isti@@ 172
mus@@ 172
right 172
wat@@ 172
› 172
Abr@@ 171
Health 171
Microsoft 171
Pérez 171
cop@@ 171
eti@@ 171
mu@@ 171
ody 171
olds 171
ster@@ 171
writer 171
ze 171
آف 171
اوائل 171
Air 170
Entertainment 170
History 170
Mario 170
Star@@ 170
ange 170
gar@@ 170
mas@@ 170
oo 170
osaur@@ 170
ם 170
ثبوت 170
Hen@@ 169
Rap@@ 169
Sel@@ 169
This 169
UR@@ 169
drome 169
off 169
tha 169
this 169
فی@@ 169
10.000 168
S.@@ 168
St. 168
andro 168
wer 168
Company 167
Mem@@ 167
No 167
Plat@@ 167
Pow@@ 167
ali 167
ces 167
ein 167
ores 167
ח@@ 167
ק@@ 167
Bau@@ 166
Fol@@ 166
LP 166
Pet@@ 166
ando 166
bas@@ 166
bus@@ 166
dri@@ 166
esp@@ 166
ku@@ 166
mb@@ 166
America 165
Dev@@ 165
Fer@@ 165
Network 165
SR 165
State 165
Uni@@ 165
gar 165
sti@@ 165
tis@@ 165
AK@@ 164
Luc@@ 164
Royal 164
Van 164
action 164
ashi 164
ck 164
eno 164
lum 164
mor@@ 164
ty@@ 164
ə@@ 164
Cul@@ 163
Eli@@ 163
Kent 163
Night 163
P.@@ 163
Red@@ 163
Tam@@ 163
dom@@ 163
tel 163
trans@@ 163
مطلب 163
----@@ 162
Business 162
Institute 162
Jan@@ 162
Pau@@ 162
bro@@ 162
cases 162
fi@@ 162
icus 162
ine@@ 162
net@@ 162
ng@@ 162
org@@ 162
reg@@ 162
ski 162
ual 162
uki 162
C.@@ 161
High 161
Jud@@ 161
Kennedy 161
Poly@@ 161
Sav@@ 161
Show 161
Sá@@ 161
color 161
eira 161
ás 161
EN@@ 160
FO@@ 160
Pay@@ 160
Wes@@ 160
ex 160
hydro@@ 160
ides 160
ika 160
inger 160
ip@@ 160
men 160
my@@ 160
sal@@ 160
wan 160
Buc@@ 159
Foundation 159
eria 159
fol@@ 159
gio 159
ik 159
oshi 159
return 159
under@@ 159
خوب@@ 159
Den@@ 158
Emer@@ 158
Pres@@ 158
Rub@@ 158
bers 158
war@@ 158
نواز 158
Best 157
Cla@@ 157
Lucas 157
ality 157
char@@ 157
eller 157
ency 157
ep 157
erek 157
iss 157
osph@@ 157
produc@@ 157
ville 157
š@@ 157
دست 157
ー@@ 157
Education 156
F. 156
ean 156
igu@@ 156
lan 156
pson 156
André 155
Bern@@ 155
IT 155
July 155
Kim 155
Maur@@ 155
NS 155
Nic@@ 155
Ran@@ 155
ail 155
aus 155
hal@@ 155
ight@@ 155
ister 155
olas 155
sec@@ 155
strong 155
tica 155
én@@ 155
Big 154
Hil@@ 154
Law@@ 154
TH@@ 154
War 154
den@@ 154
ee 154
mel@@ 154
ond@@ 154
ough@@ 154
ust 154
ר 154
Cec@@ 153
IX 153
Jan 153
Maurice 153
ania 153
大@@ 153
Anna 152
Deb@@ 152
ON@@ 152
Oscar 152
Spe@@ 152
ache 152
ati 152
aya 152
ga 152
hin@@ 152
lia 152
lor@@ 152
more 152
مندر 152
Golden 151
Rh@@ 151
XX@@ 151
ever 151
ft 151
rest@@ 151
vers 151
web 151
ִ@@ 151
Gun@@ 150
Int@@ 150
Oc@@ 150
Pap@@ 150
abr@@ 150
atr@@ 150
emati@@ 150
kl@@ 150
leg@@ 150
دوست 150
5.000 149
AV@@ 149
DE 149
Hart@@ 149
San 149
ago 149
ation@@ 149
att 149
def@@ 149
he 149
ken 149
oz@@ 149
і@@ 149
مردم 149
山@@ 149
Anne 148
DR 148
Nat@@ 148
Pri@@ 148
ace@@ 148
anne 148
into 148
los@@ 148
ְ@@ 148
Ari@@ 147
Law 147
Pro 147
Times 147
Will 147
go 147
idea 147
tal@@ 147
uk 147
wor@@ 147
ς 147
ゆ@@ 147
ら 147
Est@@ 146
Sid@@ 146
aph@@ 146
athan 146
can 146
elli 146
eme 146
micro@@ 146
ost@@ 146
ל 146
مخالف 146
پ 146
お@@ 146
子 146
An 145
Ann@@ 145
Chi@@ 145
Cross 145
Der@@ 145
Fern@@ 145
Hoff@@ 145
Phone 145
SE 145
atum 145
bel@@ 145
hand@@ 145
pan@@ 145
ted 145
via 145
Ali 144
Eur@@ 144
Good@@ 144
Patr@@ 144
Project 144
V. 144
Wrestling 144
ants 144
eter@@ 144
ischer 144
uh@@ 144
ul 144
yth@@ 144
ée 144
مطالع@@ 144
نی@@ 144
つ@@ 144
Cab@@ 143
Dem@@ 143
Guy 143
María 143
Rafael 143
Sun@@ 143
acid 143
alism 143
cell@@ 143
face 143
inf@@ 143
itz 143
ix 143
mp@@ 143
oides 143
tern 143
uli@@ 143
ze@@ 143
い 143
Clin@@ 142
Eth@@ 142
HC 142
Kon@@ 142
Na 142
Nik@@ 142
States 142
arch 142
asp@@ 142
ays 142
ges@@ 142
ius 142
ket@@ 142
not 142
not@@ 142
نسبت 142
Ay@@ 141
Meth@@ 141
chi 141
ew@@ 141
folia 141
omy@@ 141
our@@ 141
ste@@ 141
み@@ 141
Dom@@ 140
Linux 140
Otto 140
Rem@@ 140
Shi@@ 140
dec@@ 140
eston 140
hom@@ 140
kar@@ 140
men@@ 140
rac@@ 140
serv@@ 140
ç@@ 140
گان 140
と@@ 140
も@@ 140
Cham@@ 139
Sou@@ 139
kr@@ 139
zo 139
April 138
August 138
Beau@@ 138
Ferr@@ 138
Hop@@ 138
Inc. 138
Jack@@ 138
bri@@ 138
ear@@ 138
flu@@ 138
hor@@ 138
inst@@ 138
set 138
π 138
פ@@ 138
Bat@@ 137
Bud@@ 137
Claude 137
Dow@@ 137
For 137
Organ@@ 137
Palm@@ 137
bur@@ 137
ful 137
ization 137
sch 137
Bab@@ 136
Cel@@ 136
Great 136
Nak@@ 136
Office 136
Rock 136
Tar@@ 136
U.S. 136
Women 136
ame@@ 136
ital 136
mayor 136
mot@@ 136
ova 136
red 136
struc@@ 136
tric 136
tz 136
win@@ 136
Ál@@ 136
فورنيا 136
だ 136
Cat@@ 135
Dur@@ 135
FF 135
Ltd 135
Mann 135
Marc 135
NBC 135
To 135
Up 135
Virginia 135
ban@@ 135
eth@@ 135
oni 135
ont 135
sil@@ 135
you 135
And@@ 134
Comm@@ 134
Enter@@ 134
Li 134
Nag@@ 134
Paris 134
Robin 134
Santos 134
West@@ 134
atic 134
bus 134
duc@@ 134
eus 134
ke@@ 134
ties 134
try 134
توبر 134
دولت 134
Air@@ 133
Corporation 133
Fil@@ 133
Gra@@ 133
Management 133
bet@@ 133
gs 133
has 133
mal@@ 133
mis@@ 133
ote 133
pedi@@ 133
tho@@ 133
worth 133
yes 133
γ 133
Ep@@ 132
Green@@ 132
Leo 132
Tan@@ 132
asi@@ 132
bes 132
iki 132
mund 132
ri 132
stein 132
sur@@ 132
Gabriel 131
Kh@@ 131
Open 131
Pier@@ 131
Roc@@ 131
aa 131
agan 131
ater 131
hr@@ 131
ights 131
land@@ 131
ort 131
ַ@@ 131
Ander@@ 130
God@@ 130
Ju@@ 130
Not@@ 130
Pin@@ 130
Pur@@ 130
anz@@ 130
cha 130
form 130
inal 130
light 130
mit@@ 130
mo 130
revision 130
sho@@ 130
urus 130
כ@@ 130
ס@@ 130
قوت 130
中@@ 130
DV@@ 129
Ing@@ 129
Kor@@ 129
Liber@@ 129
Ras@@ 129
Union 129
aqu@@ 129
eder@@ 129
gom@@ 129
his 129
ih@@ 129
ikit@@ 129
nam@@ 129
orum 129
ھ 129
Awards 128
Domin@@ 128
FL 128
France 128
Gor@@ 128
Hip@@ 128
Kin@@ 128
Pic@@ 128
Sem@@ 128
Sto@@ 128
art@@ 128
artist 128
cat@@ 128
ety 128
ological 128
quez 128
sons 128
tig@@ 128
نقصان 128
٩@@ 128
き@@ 128
こ 128
Bon@@ 127
CF 127
Duke 127
Marie 127
Mid@@ 127
Nu@@ 127
Publ@@ 127
Syn@@ 127
Ta@@ 127
Theod@@ 127
Web 127
ais 127
anna 127
ban 127
form@@ 127
iko 127
side 127
צ@@ 127
French 126
Grand 126
Pil@@ 126
Sat@@ 126
Sin@@ 126
Stor@@ 126
Warner 126
ats 126
bie 126
eau 126
ein@@ 126
firm@@ 126
für 126
ign@@ 126
ische 126
ker@@ 126
ough 126
vari@@ 126
zi@@ 126
سخت 126
す@@ 126
Dam@@ 125
Dy@@ 125
GM 125
Hugo 125
Pen@@ 125
Saint 125
Street 125
gre@@ 125
left 125
nh@@ 125
now@@ 125
ui@@ 125
wal@@ 125
اعظم 125
کان 125
Alberto 124
Ali@@ 124
Gom@@ 124
La@@ 124
Land@@ 124
Mann@@ 124
Yam@@ 124
ability 124
aff@@ 124
enberg 124
ier@@ 124
inn 124
plas@@ 124
ren@@ 124
vis 124
اسلام 124
ٰ@@ 124
€ 124
本@@ 124
Agu@@ 123
Ale@@ 123
Cour@@ 123
Diego 123
Fab@@ 123
Global 123
Irish 123
USA 123
alm@@ 123
att@@ 123
cript 123
elly 123
journ@@ 123
other 123
pur@@ 123
quot 123
rie 123
til@@ 123
tiv@@ 123
ysis 123
â@@ 123
ת@@ 123
حی@@ 123
August@@ 122
Bay@@ 122
Bot@@ 122
Bou@@ 122
Hem@@ 122
Island 122
Kath@@ 122
Ken@@ 122
Mak@@ 122
Produc@@ 122
Syl@@ 122
VI 122
Wag@@ 122
ational 122
endr@@ 122
ffer@@ 122
mi 122
ota 122
oz 122
phys@@ 122
plex 122
tory 122
う@@ 122
Fro@@ 121
Glo@@ 121
Japan 121
Kle@@ 121
Mun@@ 121
Sarah 121
Son@@ 121
Wol@@ 121
bs 121
els@@ 121
eng 121
ert 121
icia 121
mez 121
ories 121
pol@@ 121
Δ@@ 121
Academy 120
CBS 120
Cir@@ 120
M.@@ 120
Mart@@ 120
Math@@ 120
Mov@@ 120
Pablo 120
Plan@@ 120
Sun 120
UK 120
acc@@ 120
ais@@ 120
ike 120
language 120
medi@@ 120
ár@@ 120
Brig@@ 119
European 119
Ga@@ 119
Go 119
Khan 119
Lake 119
Lord 119
ami 119
bal@@ 119
cle 119
cli@@ 119
dem@@ 119
enni@@ 119
ente 119
group 119
iki@@ 119
ista 119
ks@@ 119
ops 119
plic@@ 119
sky 119
su 119
verse 119
ín 119
ó 119
بزر@@ 119
ری 119
مطابق 119
Ann 118
Anti@@ 118
Barbara 118
First 118
Force 118
Human 118
India 118
Kat@@ 118
Scottish 118
Sky 118
arab@@ 118
article 118
cho@@ 118
ci 118
ect@@ 118
gol@@ 118
inus 118
now 118
ny@@ 118
ones 118
pes 118
ple 118
poly@@ 118
pres@@ 118
site 118
uth 118
vis@@ 118
yo 118
yst@@ 118
Áng@@ 118
ör@@ 118
سز 118
お 118
は@@ 118
Buch@@ 117
Commun@@ 117
Der 117
Fal@@ 117
Ku@@ 117
Rad@@ 117
Series 117
ams 117
avo 117
burn 117
istr@@ 117
mun@@ 117
new@@ 117
nez 117
pel@@ 117
ques 117
rad 117
tus 117
β@@ 117
σ@@ 117
شتر 117
گو@@ 117
ん@@ 117
Kal@@ 116
Meg@@ 116
Ob@@ 116
Thi@@ 116
abe 116
ahn 116
com 116
hol@@ 116
ial 116
jud@@ 116
minor 116
obj@@ 116
wen@@ 116
دفت@@ 116
راست 116
■ 116
Comput@@ 115
Gam@@ 115
Kap@@ 115
MTV 115
Mey@@ 115
ands 115
bot 115
chin@@ 115
cont@@ 115
entr@@ 115
las 115
mar 115
nia 115
oy 115
ric 115
yi 115
گ 115
″ 115
East 114
Game 114
Kam@@ 114
Line 114
Loc@@ 114
Radio 114
Roberto 114
Tun@@ 114
ault 114
itch 114
je@@ 114
ography 114
tre@@ 114
Cos@@ 113
Fernández 113
GC 113
Hans 113
Sab@@ 113
Sci@@ 113
Tem@@ 113
`@@ 113
bir@@ 113
ely 113
ges 113
gro@@ 113
icum 113
main 113
midt 113
omon 113
self 113
vera 113
ł@@ 113
Κ@@ 113
ک 113
井@@ 113
Bol@@ 112
Dol@@ 112
Jane 112
Kan@@ 112
Luci@@ 112
Reichs@@ 112
Rhy@@ 112
Spr@@ 112
What 112
Wisconsin 112
alb@@ 112
book 112
burg 112
det@@ 112
les@@ 112
ock@@ 112
ple@@ 112
tern@@ 112
ush@@ 112
½ 112
عور@@ 112
کو@@ 112
よ@@ 112
Aus@@ 111
Aut@@ 111
Bish@@ 111
Bruno 111
Championship 111
Costa 111
General 111
Of 111
Public 111
Sig@@ 111
T.@@ 111
aft 111
agen 111
ark@@ 111
aul@@ 111
chr@@ 111
compos@@ 111
ector 111
gi 111
olan 111
oll@@ 111
phyl@@ 111
ving 111
vo 111
which 111
wing 111
yan@@ 111
ye@@ 111
§ 111
الی@@ 111
متعارف 111
مقصد 111
Ant@@ 110
Cin@@ 110
Cruz 110
Good 110
Michel 110
Nicol@@ 110
Ox@@ 110
PM 110
aba 110
af 110
ender 110
ket 110
ū@@ 110
باؤ@@ 110
تخت 110
Bod@@ 109
E.@@ 109
Ear@@ 109
Gir@@ 109
Gol@@ 109
Rev@@ 109
Seg@@ 109
Team 109
Vie@@ 109
Wilhelm 109
chem@@ 109
fan 109
igg@@ 109
iner 109
je 109
pat@@ 109
phon@@ 109
ser 109
sim@@ 109
tam@@ 109
ui 109
ג@@ 109
آزاد 109
خدا 109
سز@@ 109
فرم@@ 109
African 108
Bec@@ 108
Book 108
Clau@@ 108
Dan@@ 108
Dic@@ 108
Film 108
Hamp@@ 108
Kas@@ 108
ares 108
bil@@ 108
director 108
doc@@ 108
igo 108
ior 108
lam 108
low@@ 108
nd@@ 108
ont@@ 108
peri@@ 108
ures 108
world 108
دی 108
Bos@@ 107
Cup 107
Direc@@ 107
Field 107
German 107
Hand@@ 107
Imp@@ 107
Ori@@ 107
Play@@ 107
Republic 107
Wales 107
ask@@ 107
dra@@ 107
ects 107
ique 107
mil@@ 107
po 107
title 107
wn 107
اباد 107
ساز@@ 107
ⴰ@@ 107
Camp@@ 106
Gó@@ 106
June 106
Kur@@ 106
Saf@@ 106
Tit@@ 106
We 106
Your 106
apo@@ 106
aster 106
nis 106
nor@@ 106
omo 106
ots 106
phot@@ 106
radi@@ 106
ury 106
á 106
ī@@ 106
γ@@ 106
Apple 105
Cent@@ 105
Down 105
H.@@ 105
Hom@@ 105
League 105
Men 105
Out@@ 105
Techn@@ 105
Ven@@ 105
` 105
agn@@ 105
anan 105
ava 105
cell 105
eer 105
icul@@ 105
line@@ 105
mak@@ 105
news 105
ori 105
osh@@ 105
sig@@ 105
sive 105
sor@@ 105
super@@ 105
tra@@ 105
μ@@ 105
الی 105
Be 104
Brit@@ 104
Eduardo 104
Family 104
Fut@@ 104
GmbH 104
Herr@@ 104
UTC 104
coach 104
function 104
gal@@ 104
ho 104
less 104
ua 104
were 104
شاخ 104
と 104
む@@ 104
Acc@@ 103
Home 103
Ireland 103
Sebasti@@ 103
Sen@@ 103
Under@@ 103
first 103
ow 103
shire 103
stati@@ 103
uld 103
ume 103
ˈ@@ 103
村@@ 103
Alej@@ 102
Cad@@ 102
Che@@ 102
Digital 102
Sph@@ 102
Ster@@ 102
Texas 102
Tran@@ 102
aud 102
cine 102
iger 102
igh 102
ingham 102
trol 102
wa 102
yo@@ 102
う 102
Canada 101
Ci@@ 101
Di 101
François 101
Gonz@@ 101
Israel 101
Mot@@ 101
Psych@@ 101
Var@@ 101
Way 101
agr@@ 101
ante 101
con 101
egr@@ 101
ences 101
esti@@ 101
oper@@ 101
phy@@ 101
pos 101
sus 101
wh@@ 101
wo@@ 101
け@@ 101
ろ@@ 101
Berg@@ 100
Chem@@ 100
England 100
Eri@@ 100
Iv@@ 100
River 100
Som@@ 100
ado@@ 100
ag 100
asc@@ 100
lav@@ 100
nom@@ 100
ny 100
qui@@ 100
service 100
thr@@ 100
ulus 100
urity 100
water 100
® 100
è@@ 100
٠ 100
《 100
Astr@@ 99
Aur@@ 99
Bil@@ 99
Brun@@ 99
California 99
Central 99
Christi@@ 99
Head 99
Hud@@ 99
Kim@@ 99
Reb@@ 99
Sum@@ 99
Vit@@ 99
alt@@ 99
aun 99
bol@@ 99
dat@@ 99
ebr@@ 99
ji@@ 99
ju@@ 99
mem@@ 99
pun@@ 99
sul@@ 99
ías 99
ט@@ 99
اقد@@ 99
یا 99
Ach@@ 98
Af@@ 98
Ah@@ 98
Bus@@ 98
I. 98
Kaz@@ 98
SPD 98
Schne@@ 98
agon 98
band 98
ca@@ 98
dition 98
down 98
eda 98
odi@@ 98
sm@@ 98
vin@@ 98
Σ@@ 98
مقامات 98
نل 98
Battle 97
Egyp@@ 97
Gener@@ 97
L.@@ 97
Marco 97
Medical 97
Out 97
Radi@@ 97
Tas@@ 97
VP 97
Video 97
mod@@ 97
ner@@ 97
put 97
ross 97
state 97
theory 97
uri 97
var 97
ð@@ 97
δ@@ 97
اوقات 97
み 97
川@@ 97
And 96
Card@@ 96
Castil@@ 96
Elizabeth 96
Friedrich 96
Fun@@ 96
Jesús 96
Lanc@@ 96
Lib@@ 96
Mand@@ 96
Martín 96
Sor@@ 96
Spir@@ 96
Vel@@ 96
Wolf 96
ann 96
ements 96
ev 96
ham@@ 96
ists 96
orn@@ 96
ous@@ 96
patr@@ 96
rid 96
ump@@ 96
wi@@ 96
zi 96
ٰ 96
藤@@ 96
Ernst 95
Rud@@ 95
Shir@@ 95
Technology 95
Ze@@ 95
aliz@@ 95
coron@@ 95
have 95
min 95
oli@@ 95
onal 95
proc@@ 95
ret 95
sula 95
æ@@ 95
ە 95
Bank 94
Billboard 94
Gas@@ 94
Girl 94
HMS 94
Heart 94
Jacques 94
Kum@@ 94
Nev@@ 94
Northern 94
Off@@ 94
Pennsylvania 94
Pul@@ 94
Road 94
Schwar@@ 94
Three 94
Tol@@ 94
Tu@@ 94
Who 94
alia 94
code 94
esh 94
formation 94
ision 94
other@@ 94
pil@@ 94
pon@@ 94
rest 94
sum@@ 94
unk@@ 94
uv@@ 94
van@@ 94
ē@@ 94
انی@@ 94
Ahmed 93
Bundes@@ 93
Dal@@ 93
Denis 93
Econom@@ 93
Flor@@ 93
Has@@ 93
Internet 93
N. 93
Studi@@ 93
Ye@@ 93
ancy 93
body 93
cyc@@ 93
dres@@ 93
edo 93
etta 93
idi@@ 93
olia 93
rap@@ 93
rot@@ 93
ules 93
usa 93
vier 93
ward 93
zy@@ 93
Fried@@ 92
Georgia 92
Gold 92
Hi@@ 92
Julius 92
Mik@@ 92
Nam@@ 92
Ober@@ 92
October 92
Sn@@ 92
Tw@@ 92
anger 92
cal 92
enne 92
equ@@ 92
let 92
mul@@ 92
pin@@ 92
print 92
rés 92
sin 92
tional 92
vi 92
és@@ 92
معاو@@ 92
》 92
Berlin 91
Bret@@ 91
Development 91
Fe 91
Ki@@ 91
Last 91
Margaret 91
Nig@@ 91
Paulo 91
Pop@@ 91
Swe@@ 91
Two 91
ager 91
ahl 91
alg@@ 91
asis 91
conn@@ 91
eld 91
enth@@ 91
manuel 91
ode 91
ony@@ 91
soci@@ 91
two 91
wick 91
ā 91
Aqu@@ 90
Coll@@ 90
D.@@ 90
J.@@ 90
Mac 90
Point 90
Poli@@ 90
Progr@@ 90
Queen 90
R.@@ 90
Soci@@ 90
ader 90
ading 90
aine 90
amin@@ 90
aux 90
core 90
hua 90
illi@@ 90
imb@@ 90
ineering 90
ingo 90
ites 90
ived 90
mes@@ 90
mus 90
ogen@@ 90
oi 90
onal@@ 90
opus 90
sem@@ 90
uer@@ 90
Á@@ 90
ía 90
پي@@ 90
Android 89
Jim@@ 89
Lou@@ 89
Ok@@ 89
Ot@@ 89
Social 89
Summer 89
any 89
any@@ 89
atom@@ 89
aves 89
aw 89
dir@@ 89
eral 89
flora 89
ink 89
itor 89
ment@@ 89
oid 89
ony 89
scope 89
team 89
trol@@ 89
ute 89
val 89
éc@@ 89
κ@@ 89
مشرق 89
کر@@ 89
か 89
り@@ 89
わ@@ 89
Aer@@ 88
Bac@@ 88
Games 88
Gau@@ 88
Kom@@ 88
Lat@@ 88
Pav@@ 88
Sup@@ 88
Yu@@ 88
aer@@ 88
ather 88
dre 88
eff@@ 88
estr@@ 88
fication 88
get 88
govern@@ 88
mir@@ 88
onom@@ 88
original 88
play 88
pper 88
ses 88
sia 88
squ@@ 88
vent@@ 88
vil 88
wan@@ 88
work 88
xi@@ 88
ying 88
λ 88
ν 88
π@@ 88
جاتا 88
Boy 87
Death 87
Enrique 87
GT 87
Id@@ 87
Nar@@ 87
Princ@@ 87
Sz@@ 87
Vis@@ 87
bo 87
cel 87
eine 87
emia 87
emp@@ 87
essor 87
fal@@ 87
hard 87
hem@@ 87
iles 87
kes 87
kom@@ 87
olo@@ 87
opo@@ 87
ril 87
span 87
umb@@ 87
å@@ 87
í 87
î@@ 87
č@@ 87
تی@@ 87
سردار 87
٫ 87
Bush 86
Can 86
Daily 86
Name 86
Nob@@ 86
Records 86
aca 86
ate@@ 86
bar 86
bin@@ 86
by@@ 86
chn@@ 86
cs 86
date 86
emb@@ 86
enia 86
etz 86
history 86
list@@ 86
oria 86
phil@@ 86
port@@ 86
rop@@ 86
spec@@ 86
ton@@ 86
uter 86
ός 86
ֹ@@ 86
野@@ 86
Africa 85
Angel 85
Cros@@ 85
Deutsche 85
Fri@@ 85
Hur@@ 85
Hydro@@ 85
Kel@@ 85
Light 85
Mam@@ 85
Software 85
Tour@@ 85
Van@@ 85
Winter 85
andi 85
anum 85
astr@@ 85
bi 85
box 85
contr@@ 85
een 85
elen 85
fu@@ 85
house 85
ij@@ 85
illy 85
itt 85
kat@@ 85
ship 85
ths 85
ulation 85
vers@@ 85
én 85
ま 85
Back 84
Carol@@ 84
Cop@@ 84
FIFA 84
Jon@@ 84
Jr 84
Kend@@ 84
Oper@@ 84
People 84
Real 84
Western 84
adi 84
amed 84
baller 84
based 84
bit@@ 84
cos 84
ilia 84
ird 84
ith@@ 84
lier 84
med@@ 84
mont 84
nu@@ 84
pa@@ 84
sing 84
under 84
yd@@ 84
じ@@ 84
1,5 83
Comp@@ 83
Def@@ 83
Earth 83
Hus@@ 83
Ka@@ 83
Mass@@ 83
Mis@@ 83
Ontario 83
Pand@@ 83
Pictures 83
aire 83
bac@@ 83
ben@@ 83
cos@@ 83
da@@ 83
dan 83
fic@@ 83
illon 83
ix@@ 83
ld@@ 83
list 83
mit 83
och 83
rh@@ 83
tro 83
trong 83
ux 83
vie 83
és 83
ü@@ 83
Π@@ 83
ای 83
پر@@ 83
ン@@ 83
小@@ 83
木@@ 83
Alex@@ 82
Avi@@ 82
Berg 82
Bour@@ 82
Contin@@ 82
Da 82
Mod@@ 82
ammad 82
ayo 82
cot@@ 82
dex 82
general 82
iller@@ 82
include 82
national 82
page 82
source 82
tre 82
ud 82
ungs@@ 82
är@@ 82
ô@@ 82
پرو@@ 82
ず@@ 82
Bak@@ 81
Cass@@ 81
Conserv@@ 81
Dro@@ 81
Fili@@ 81
Fire 81
Fle@@ 81
Gh@@ 81
Gran@@ 81
I.@@ 81
Magazine 81
Obj@@ 81
Song 81
Sports 81
Yas@@ 81
about 81
aja 81
dit 81
fur@@ 81
lab@@ 81
mark 81
má@@ 81
ons@@ 81
pedia 81
rea 81
ree 81
tem@@ 81
than 81
virus 81
Ö@@ 81
ո@@ 81
‚ 81
た 81
Bay 80
Das 80
Doc@@ 80
Ind@@ 80
Kurt 80
Lem@@ 80
Now 80
Party 80
Peter@@ 80
Py@@ 80
Story 80
Suz@@ 80
Year 80
bal 80
hard@@ 80
ido 80
long@@ 80
pri@@ 80
pul@@ 80
top@@ 80
tural 80
ular@@ 80
uy@@ 80
vid@@ 80
yon 80
ís 80
İ@@ 80
Μ@@ 80
ܐ 80
市 80
Australia 79
Free 79
Grim@@ 79
Il 79
Kno@@ 79
Old 79
Post 79
Ret@@ 79
Roman 79
Sau@@ 79
Standard 79
Sydney 79
anced 79
bury 79
dae 79
ected 79
enzo 79
etr@@ 79
fe 79
führer 79
get@@ 79
lob@@ 79
mos@@ 79
oba 79
san@@ 79
table 79
their 79
tin@@ 79
tol@@ 79
urs 79
version 79
él@@ 79
ν@@ 79
بالآخر 79
Act 78
Ath@@ 78
Castro 78
Dani@@ 78
Diam@@ 78
If 78
Mob@@ 78
Mom@@ 78
Moon 78
Sac@@ 78
Scot@@ 78
Space 78
Universal 78
atis@@ 78
ends 78
ering 78
jas 78
lip 78
lon 78
los 78
mic@@ 78
number 78
que@@ 78
test 78
tric@@ 78
umi 78
vention 78
works 78
ère 78
▪ 78
Alice 77
App@@ 77
Arts 77
Beh@@ 77
China 77
Fel@@ 77
Jum@@ 77
Kit@@ 77
Lac@@ 77
Los 77
Natur@@ 77
Num@@ 77
Panz@@ 77
Sant@@ 77
Sonn@@ 77
Wa@@ 77
Zo@@ 77
alo 77
alus 77
clus@@ 77
einer 77
lav 77
lus@@ 77
ograp@@ 77
oman 77
sit@@ 77
tors 77
ution 77
δ 77
سپ@@ 77
2.000 76
Aff@@ 76
Carolina 76
County 76
Eg@@ 76
Fon@@ 76
Frank@@ 76
Kl@@ 76
Nur@@ 76
Over@@ 76
Prim@@ 76
Tex@@ 76
Tot@@ 76
aris 76
atri@@ 76
aven 76
bon 76
dren 76
ead 76
esi 76
etes 76
eur 76
isha 76
lands 76
osp@@ 76
oud 76
uni@@ 76
جی@@ 76
چ 76
Ἀ@@ 76
Bran@@ 75
Design 75
Div@@ 75
Estr@@ 75
Europe 75
F.@@ 75
Fair@@ 75
Hay 75
Inv@@ 75
Kid@@ 75
Kil@@ 75
Kol@@ 75
Lim@@ 75
Maz@@ 75
Neur@@ 75
Pel@@ 75
Rou@@ 75
That 75
Vas@@ 75
Way@@ 75
Wood@@ 75
ento 75
flo@@ 75
ichi 75
ift 75
imi@@ 75
mal 75
mol@@ 75
ord 75
oun 75
tan 75
θ 75
ր@@ 75
こ@@ 75
わ 75
1980s 74
Asian 74
Final 74
Middle 74
N.@@ 74
Pu@@ 74
Sir 74
Tab@@ 74
Tag 74
Television 74
Up@@ 74
Well@@ 74
Zh@@ 74
aden@@ 74
ades 74
ads 74
ait 74
avi@@ 74
bon@@ 74
cent@@ 74
dé@@ 74
fied 74
gri@@ 74
hum@@ 74
law@@ 74
lers 74
live 74
nus 74
order 74
plan@@ 74
protein 74
rati@@ 74
sis 74
uta 74
vor@@ 74
vul@@ 74
weight 74
ác@@ 74
اپ@@ 74
ܝ@@ 74
↑ 74
Associ@@ 73
By@@ 73
Cri@@ 73
Form@@ 73
Hat@@ 73
Houston 73
Not 73
SV 73
Us@@ 73
Vill@@ 73
Will@@ 73
With 73
aly@@ 73
ames 73
ases 73
blo@@ 73
chen@@ 73
eg 73
enz 73
eum 73
far@@ 73
gin 73
ications 73
icio 73
ills 73
ini@@ 73
ité 73
lem 73
mm 73
officer 73
put@@ 73
uses 73
А@@ 73
شی@@ 73
مزاح@@ 73
ち 73
Amaz@@ 72
Anton 72
Bah@@ 72
Coun@@ 72
Deutsch@@ 72
Ele@@ 72
Kem@@ 72
Lyon 72
Ma 72
Mé@@ 72
Om@@ 72
Reich@@ 72
Stand@@ 72
Tow@@ 72
Vil@@ 72
arius 72
author 72
bio 72
chen 72
cio 72
dier 72
ective 72
head 72
ishing 72
itas 72
lar 72
like 72
media 72
part@@ 72
player 72
stell@@ 72
stone 72
tu 72
ush 72
zo@@ 72
án@@ 72
Alg@@ 71
Catherine 71
Dead 71
End 71
Express 71
Fig@@ 71
Franz 71
Heinrich 71
Junior 71
Land 71
Lis@@ 71
Neg@@ 71
Ohio 71
Philos@@ 71
Pom@@ 71
Santiago 71
Sund@@ 71
Top 71
VII 71
Werner 71
abol@@ 71
alis@@ 71
also 71
atos 71
cer 71
din@@ 71
ement@@ 71
esia 71
eu@@ 71
full 71
han 71
idi 71
inson 71
mine 71
obi@@ 71
onel 71
sevi@@ 71
star 71
sten 71
tun@@ 71
wil@@ 71
will 71
wr@@ 71
ä 71
ρ 71
ω 71
٢ 71
یر 71
4,5 70
Del 70
Franco 70
God 70
Isab@@ 70
Lag@@ 70
Louise 70
Squ@@ 70
Victoria 70
Wit@@ 70
Zi@@ 70
aller 70
anie 70
arian 70
bau@@ 70
double 70
dur@@ 70
eas@@ 70
esa 70
istic 70
kg 70
nov@@ 70
ose 70
owski 70
point 70
private 70
round 70
yal@@ 70
yon@@ 70
öl@@ 70
ב 70
کان@@ 70
り 70
1,2 69
Alexandre 69
Andr@@ 69
Army 69
Augus@@ 69
Barcelona 69
Cru@@ 69
Din@@ 69
Do 69
Empire 69
Müller 69
Pad@@ 69
Rudolf 69
Se 69
Ses@@ 69
Sour@@ 69
Ton@@ 69
Wel@@ 69
activ@@ 69
andi@@ 69
anti 69
cho 69
cht 69
eh 69
iz 69
lac@@ 69
pot@@ 69
press@@ 69
tn@@ 69
umin@@ 69
μ 69
ז@@ 69
Ai 68
Andreas 68
Feli@@ 68
Flu@@ 68
Hid@@ 68
Hot 68
Like 68
Museum 68
Pseud@@ 68
Ry@@ 68
Verlag 68
Wid@@ 68
Wrest@@ 68
ator@@ 68
bach 68
dy@@ 68
ett@@ 68
law 68
lip@@ 68
olo 68
proper@@ 68
sac@@ 68
sn@@ 68
sta 68
tal 68
used 68
Ç@@ 68
Ó@@ 68
ία 68
شائر 68
١ 68
じ 68
三@@ 68
Alb@@ 67
Anth@@ 67
Centre 67
Charlotte 67
Council 67
Fir@@ 67
Hit@@ 67
King@@ 67
Kingdom 67
Major 67
Model 67
Mr. 67
Nord@@ 67
Pyr@@ 67
Services 67
Vog@@ 67
Xi@@ 67
Yo@@ 67
acter@@ 67
aye 67
cep@@ 67
cri@@ 67
dh@@ 67
dig@@ 67
ef 67
eva 67
even 67
ion@@ 67
iter 67
lim@@ 67
nucle@@ 67
process 67
ski@@ 67
ás@@ 67
ら@@ 67
1.000 66
Aleksand@@ 66
Ass@@ 66
Ax@@ 66
Bin@@ 66
Broad@@ 66
Bru@@ 66
Cot@@ 66
Dark 66
Ec@@ 66
February 66
Jul@@ 66
Koh@@ 66
Lep@@ 66
Michigan 66
Play 66
SK 66
Shin@@ 66
ains 66
anga 66
asa 66
been 66
but@@ 66
change 66
dor@@ 66
etti 66
fo 66
ident 66
ien 66
isch@@ 66
jo@@ 66
lad@@ 66
later 66
life 66
lit@@ 66
mas 66
oes 66
oko 66
pap@@ 66
quar@@ 66
reo 66
ror 66
uss@@ 66
vic@@ 66
η 66
زی@@ 66
گر@@ 66
の 66
高@@ 66
Andrea 65
Division 65
Indi@@ 65
Ky@@ 65
Mr@@ 65
Phys@@ 65
Run@@ 65
Sak@@ 65
Tap@@ 65
bia 65
bin 65
bridge 65
campus 65
ches 65
ck@@ 65
dio 65
educ@@ 65
eland 65
elo 65
enter 65
ept@@ 65
fa 65
gener@@ 65
graph@@ 65
had 65
ils 65
math@@ 65
mid@@ 65
omi 65
ophie 65
pus 65
rain 65
ru 65
ré@@ 65
tero 65
ε@@ 65
ρι@@ 65
א 65
ふ@@ 65
ろ 65
2,5 64
Amp@@ 64
Ana 64
Buil@@ 64
Cand@@ 64
Gle@@ 64
He 64
Hotel 64
Lec@@ 64
Leopol@@ 64
Ludwig 64
Parti@@ 64
Penn@@ 64
Rein@@ 64
Sea 64
Stur@@ 64
Type 64
agu@@ 64
aut@@ 64
but 64
dal@@ 64
dev@@ 64
eck@@ 64
ej@@ 64
following 64
hydr@@ 64
illo 64
inda 64
information 64
ked 64
ments 64
nik 64
opter@@ 64
orr@@ 64
ps@@ 64
ran 64
refer@@ 64
ry@@ 64
shi@@ 64
termin@@ 64
tom 64
uti@@ 64
war 64
ί@@ 64
ι@@ 64
э@@ 64
া@@ 64
く@@ 64
Alexand@@ 63
Am 63
Beach 63
Cho@@ 63
Da@@ 63
Det@@ 63
Florida 63
From 63
Haz@@ 63
Kab@@ 63
Lady 63
Library 63
Lon@@ 63
Mut@@ 63
Reich 63
aber 63
aker 63
alan@@ 63
anthus 63
brahim 63
cit@@ 63
cle@@ 63
ece 63
eni 63
erra 63
eti 63
hel@@ 63
ices 63
ilo 63
kal@@ 63
kan 63
lag 63
mad 63
mail 63
map@@ 63
neur@@ 63
onic 63
oza 63
polis 63
press 63
prof@@ 63
rich@@ 63
space 63
spe@@ 63
tt@@ 63
v. 63
à@@ 63
ă@@ 63
θ@@ 63
ئر@@ 63
قی@@ 63
◊ 63
え@@ 63
上@@ 63
Back@@ 62
Bit@@ 62
Eff@@ 62
Emil@@ 62
Fas@@ 62
Felipe 62
Hin@@ 62
Java 62
Lov@@ 62
Map@@ 62
Over 62
Petr@@ 62
Ray@@ 62
René 62
Rum@@ 62
active 62
ammed 62
ason 62
bos@@ 62
das 62
elia 62
ican 62
kan@@ 62
kel@@ 62
mut@@ 62
sam@@ 62
techn@@ 62
tex@@ 62
ues 62
ка 62
ד 62
تی 62
دروا@@ 62
け 62
ん 62
Bom@@ 61
Bridge 61
Cav@@ 61
Court 61
Fame 61
Frances@@ 61
Henri 61
Inf@@ 61
Islam@@ 61
Ny@@ 61
Pach@@ 61
Pep@@ 61
Studio 61
Tour 61
Wiki@@ 61
abl@@ 61
andes 61
aro 61
bat@@ 61
case 61
cm 61
fic 61
gel@@ 61
gin@@ 61
hab@@ 61
hang 61
hav@@ 61
histori@@ 61
ili 61
ited 61
itter 61
km 61
las@@ 61
lay@@ 61
ligh@@ 61
mach@@ 61
mati@@ 61
oe 61
ogr@@ 61
ols 61
only 61
orient@@ 61
par 61
pass@@ 61
pour 61
pression 61
scar 61
second 61
sex 61
tain@@ 61
test@@ 61
thre@@ 61
thy 61
trav@@ 61
uma 61
³ 61
éli@@ 61
ï@@ 61
ña 61
Η@@ 61
خود 61
٣@@ 61
イ@@ 61
Anton@@ 60
Bell@@ 60
Fa@@ 60
Four@@ 60
Fritz 60
Jak@@ 60
Ji@@ 60
Liter@@ 60
Mountain 60
NFL 60
North@@ 60
Order 60
Pit@@ 60
So 60
Sony 60
St 60
There 60
buch 60
cam@@ 60
care 60
cycl@@ 60
ening 60
ffe 60
fon@@ 60
formes 60
gy 60
hat@@ 60
ilio 60
ince 60
k.@@ 60
ls@@ 60
mental 60
music 60
na@@ 60
naci@@ 60
py@@ 60
ris@@ 60
show 60
tronic 60
uca 60
who 60
yat@@ 60
éri@@ 60
Ι 60
る 60
Anim@@ 59
Arg@@ 59
Chron@@ 59
Fantas@@ 59
Let@@ 59
Limited 59
Mess@@ 59
Oxford 59
Raj@@ 59
Sach@@ 59
Special 59
ander 59
arc@@ 59
che@@ 59
control 59
crip@@ 59
ended 59
esto 59
eu 59
fri@@ 59
iga 59
ken@@ 59
kre@@ 59
outh 59
prim@@ 59
psych@@ 59
sk 59
sl@@ 59
stor@@ 59
tron@@ 59
urt 59
wald 59
ways 59
τος 59
φ 59
на 59
р@@ 59
بین 59
་ 59
„ 59
リ@@ 59
Aj@@ 58
Asia 58
By 58
Cha@@ 58
Cher@@ 58
DJ 58
Gott@@ 58
Hong 58
Just 58
Lincoln 58
Lit@@ 58
Maj@@ 58
Palest@@ 58
Pir@@ 58
Pod@@ 58
Pon@@ 58
Scar@@ 58
Terr@@ 58
anal@@ 58
ario 58
aun@@ 58
bish@@ 58
chan@@ 58
din 58
erie 58
ext@@ 58
family 58
four 58
game 58
hip 58
ige 58
iller 58
ize 58
opsis 58
pit@@ 58
unit 58
uz 58
vie@@ 58
vit@@ 58
won 58
اک@@ 58
ა@@ 58
ⵉ@@ 58
ー 58
松@@ 58
이@@ 58
Cath@@ 57
Dr. 57
EU 57
Fur@@ 57
Gabri@@ 57
Gaz@@ 57
Indian 57
Industri@@ 57
Johann 57
Kaiser 57
Lima 57
Lot@@ 57
Main 57
Monte 57
Philippe 57
Port 57
Que@@ 57
Rah@@ 57
Sad@@ 57
Valley 57
Vik@@ 57
abil@@ 57
allas 57
anci@@ 57
anim@@ 57
aro@@ 57
azar 57
cast 57
dom 57
dro@@ 57
esh@@ 57
etz@@ 57
fle@@ 57
ias 57
ingen 57
ister@@ 57
lor 57
lyn 57
nier 57
nit@@ 57
ović 57
pag@@ 57
plat@@ 57
plus 57
ron@@ 57
rou@@ 57
s. 57
spr@@ 57
tidae 57
tier 57
uno 57
vil@@ 57
اختتام 57
کی@@ 57
Disney 56
Fem@@ 56
Got@@ 56
Guar@@ 56
Hein@@ 56
Hun@@ 56
Leb@@ 56
Milit@@ 56
Miss 56
Nas@@ 56
Nati@@ 56
Nicolas 56
Operation 56
Plus 56
Rach@@ 56
Studios 56
When 56
ables 56
age@@ 56
alt 56
aud@@ 56
ayn@@ 56
between 56
boy 56
cian 56
eps 56
fli@@ 56
gas 56
han@@ 56
kov 56
lear@@ 56
mad@@ 56
oso 56
own 56
people 56
pi 56
range 56
ric@@ 56
rich 56
room 56
small 56
sung 56
uo 56
urn@@ 56
using 56
ène 56
ê@@ 56
Λ@@ 56
λ@@ 56
τ@@ 56
石@@ 56
Alfre@@ 55
Boys 55
Bun@@ 55
Comics 55
Ein@@ 55
Festival 55
Ges@@ 55
Hyp@@ 55
Iron 55
Kun@@ 55
Pun@@ 55
Quer@@ 55
Rosa 55
Satur@@ 55
Sciences 55
Strat@@ 55
assi@@ 55
charge 55
ching 55
dar@@ 55
diplom@@ 55
dos 55
edy 55
esta 55
free 55
gil@@ 55
hai 55
imi 55
iri 55
ives 55
lah 55
lang 55
lib@@ 55
neg@@ 55
num@@ 55
ples 55
ports 55
rat 55
rup@@ 55
tie 55
tle 55
tournament 55
ww@@ 55
¤ 55
ın 55
н 55
ἀ@@ 55
や 55
郎 55
Chall@@ 54
Community 54
Dich@@ 54
Dream 54
Hab@@ 54
Kos@@ 54
Las@@ 54
Orig@@ 54
Pos@@ 54
Rab@@ 54
Sof@@ 54
chart 54
dian 54
dru@@ 54
eds 54
enf@@ 54
erst@@ 54
fast 54
fel@@ 54
grap@@ 54
igi 54
ign 54
ingu@@ 54
kers 54
mission 54
nati@@ 54
nav@@ 54
ograph@@ 54
ologies 54
pic@@ 54
poli@@ 54
rive 54
sequ@@ 54
software 54
trac@@ 54
usi@@ 54
ön@@ 54
ş@@ 54
Ε@@ 54
ε 54
ι 54
ׁ@@ 54
.C. 53
1st 53
Agr@@ 53
Alliance 53
Bad 53
Beg@@ 53
Classi@@ 53
Culture 53
December 53
Dig@@ 53
Geor@@ 53
Girls 53
Guerra 53
Hot@@ 53
Inst@@ 53
Massachusetts 53
Meh@@ 53
Salvador 53
Second 53
See 53
Shak@@ 53
Spar@@ 53
Stre@@ 53
UE@@ 53
Vari@@ 53
Viol@@ 53
Water@@ 53
agon@@ 53
atory 53
aug@@ 53
aut 53
berto 53
centr@@ 53
costa 53
dol@@ 53
eco 53
eline 53
enes 53
itu@@ 53
itung 53
lis@@ 53
most 53
multi@@ 53
network 53
ois 53
oli 53
ords 53
part 53
pas@@ 53
phone 53
rech@@ 53
research 53
ule 53
word 53
wth 53
´ 53
ż@@ 53
ά@@ 53
ρος 53
φ@@ 53
а@@ 53
ו 53
٥ 53
ڭ 53
ス@@ 53
3,5 52
Arti@@ 52
Chicago 52
Columbia 52
Hermann 52
Islands 52
Justice 52
Lom@@ 52
Mount 52
Ort@@ 52
Peti@@ 52
Phili@@ 52
Ris@@ 52
Stein@@ 52
Thr@@ 52
Villa 52
Volks@@ 52
XII 52
alie 52
alls 52
asi 52
asse 52
ats@@ 52
atur@@ 52
away 52
each 52
ebo@@ 52
effect 52
emat@@ 52
eur@@ 52
fiel@@ 52
gh@@ 52
gia 52
gn@@ 52
inas 52
istan 52
itation 52
lion 52
mand@@ 52
publ@@ 52
rd 52
sat@@ 52
shar@@ 52
some 52
tri 52
year 52
÷ 52
ֵ@@ 52
وّار 52
一 52
2. 51
Alber@@ 51
Cambridge 51
Dum@@ 51
Et@@ 51
Independ@@ 51
Nacional 51
Neu@@ 51
Phoen@@ 51
Ple@@ 51
Southern 51
Sym@@ 51
Tag@@ 51
Theatre 51
Tou@@ 51
Un 51
Vid@@ 51
aking 51
arri@@ 51
austr@@ 51
ave@@ 51
ces@@ 51
coc@@ 51
cola 51
coun@@ 51
dam@@ 51
did@@ 51
eli 51
enta 51
ern 51
found@@ 51
fran@@ 51
gency 51
hir@@ 51
kel 51
kor@@ 51
lati@@ 51
ledge 51
n.@@ 51
og 51
oga 51
place 51
rate 51
rio 51
sar@@ 51
schaft 51
see 51
spir@@ 51
tos 51
where 51
zen 51
ì 51
ür@@ 51
ś@@ 51
Νέα 51
σ 51
вич 51
ն 51
ֶ@@ 51
ولی@@ 51
人 51
正@@ 51
Boh@@ 50
Country 50
Day@@ 50
Dim@@ 50
End@@ 50
Fall 50
Gab@@ 50
Georg 50
Gesellschaft 50
Hub@@ 50
It@@ 50
January 50
Johannes 50
Kob@@ 50
Leh@@ 50
Long@@ 50
NAS@@ 50
NBA 50
November 50
Olympics 50
Si 50
Square 50
Termin@@ 50
UEFA 50
aller@@ 50
allo 50
ana@@ 50
andra 50
arte 50
back@@ 50
ceph@@ 50
craft 50
elt 50
entes 50
ference 50
fish 50
gam@@ 50
jan 50
lon@@ 50
mix@@ 50
nes@@ 50
ogen 50
optera 50
sci@@ 50
science 50
sel 50
stat@@ 50
then 50
thor@@ 50
trop@@ 50
ums 50
union 50
utt@@ 50
vert 50
ı@@ 50
Ş@@ 50
Б@@ 50
н@@ 50
ы@@ 50
ն@@ 50
سی 50
٨ 50
ܕ@@ 50
真@@ 50
Autom@@ 49
Doug@@ 49
Dru@@ 49
Eas@@ 49
Jersey 49
Mars 49
Master 49
Ner@@ 49
Od@@ 49
Say@@ 49
Sport 49
aborat@@ 49
alli@@ 49
angle 49
ape 49
arp@@ 49
bis 49
dans 49
dle 49
enna 49
ensive 49
enter@@ 49
idge 49
long 49
make 49
ongo 49
ostr@@ 49
pop 49
power 49
pp 49
qui 49
ram@@ 49
seg@@ 49
set@@ 49
through 49
tures 49
udi@@ 49
wide 49
è 49
ö 49
ɪ@@ 49
ά 49
ο@@ 49
в@@ 49
٣ 49
≤ 49
≥ 49
だ@@ 49
和@@ 49
1. 48
Alfonso 48
Ball@@ 48
Bed@@ 48
Bes@@ 48
Chi 48
Church 48
Committee 48
Facebook 48
Galax@@ 48
Hav@@ 48
Illinois 48
Revol@@ 48
SG 48
Sieg@@ 48
acher 48
aj 48
amo 48
avi 48
bat 48
comm@@ 48
dale 48
dem 48
dre@@ 48
eci@@ 48
econom@@ 48
edom 48
entin 48
figh@@ 48
fus@@ 48
guit@@ 48
har 48
home 48
hon@@ 48
isch 48
ishi 48
iti 48
lev@@ 48
lio 48
lower 48
mando 48
med 48
nec@@ 48
oon 48
oul 48
person@@ 48
play@@ 48
rem@@ 48
rique 48
sei 48
seu@@ 48
troph@@ 48
wa@@ 48
was@@ 48
ü 48
ī 48
Α@@ 48
ρ@@ 48
р 48
ский 48
ע 48
تعلقات 48
مدی@@ 48
ژ@@ 48
گا@@ 48
原@@ 48
西@@ 48
Archit@@ 47
Bad@@ 47
DDR 47
Football 47
Georges 47
Grou@@ 47
Jose@@ 47
León 47
Minnesota 47
NAT@@ 47
Rey 47
Sag@@ 47
September 47
Sl@@ 47
Stan@@ 47
USS 47
after 47
aging 47
aining 47
artic@@ 47
cut@@ 47
dan@@ 47
dis 47
ectiv@@ 47
elin 47
energy 47
enge 47
enger 47
eros 47
extr@@ 47
him 47
hou 47
ict 47
ific@@ 47
imal 47
ino@@ 47
isi 47
leri 47
opp@@ 47
phi@@ 47
prin@@ 47
prise 47
prop@@ 47
pur 47
roc@@ 47
saf@@ 47
san 47
sea 47
som@@ 47
stan@@ 47
systems 47
tín 47
unds 47
viol@@ 47
wel@@ 47
when 47
ì@@ 47
ē 47
ž@@ 47
Ρ@@ 47
Φ@@ 47
В@@ 47
٤ 47
٧ 47
کل 47
یل 47
۔ 47
্ 47
≈ 47
ⵎ@@ 47
Bass@@ 46
Benedi@@ 46
Bra@@ 46
Catal@@ 46
Charl@@ 46
Federation 46
Franç@@ 46
Hass@@ 46
Lé@@ 46
No. 46
Post@@ 46
Prom@@ 46
Queensland 46
Sap@@ 46
Sti@@ 46
Thor@@ 46
ación 46
aco 46
adr@@ 46
ango 46
anta 46
archit@@ 46
bes@@ 46
board 46
buil@@ 46
confirm@@ 46
current 46
edia 46
ego 46
eleg@@ 46
emi 46
ential 46
fas@@ 46
health 46
hur@@ 46
identi@@ 46
iler 46
inj@@ 46
kil@@ 46
kon@@ 46
lot 46
match 46
may 46
mel 46
nan 46
okia 46
ophyl@@ 46
orie 46
pand@@ 46
position 46
ras@@ 46
rights 46
scre@@ 46
sions 46
sport@@ 46
ste 46
structure 46
sur 46
tak@@ 46
tar 46
tera 46
thing 46
use@@ 46
utz 46
while 46
ysi@@ 46
Å 46
Ω 46
О@@ 46
л@@ 46
ш@@ 46
ւ@@ 46
محسوس 46
ぐ@@ 46
天@@ 46
.-@@ 45
Arc@@ 45
Cast@@ 45
Code 45
Department 45
Dipl@@ 45
Emp@@ 45
Es 45
Esp@@ 45
Feder@@ 45
Franc@@ 45
Kis@@ 45
Lau@@ 45
Princip@@ 45
Rio 45
Sever@@ 45
Spanish 45
Tat@@ 45
Test@@ 45
Vin@@ 45
Wad@@ 45
XI 45
amba 45
app 45
azar@@ 45
blu@@ 45
burgh 45
cip@@ 45
dens@@ 45
ec 45
engine 45
exp@@ 45
fi 45
film@@ 45
fried 45
has@@ 45
hip@@ 45
hist@@ 45
illing 45
inv@@ 45
last 45
liter@@ 45
mess@@ 45
mode 45
mov@@ 45
nm 45
ologie 45
omb@@ 45
onder@@ 45
orio 45
ority 45
otr@@ 45
post 45
public@@ 45
represent@@ 45
rik 45
tari@@ 45
uni 45
ved 45
viv@@ 45
volution 45
ò@@ 45
ω@@ 45
И@@ 45
ե@@ 45
اعز@@ 45
خود@@ 45
وزارت 45
ٳ@@ 45
پار@@ 45
ۡ@@ 45
美@@ 45
Abdul@@ 44
Adolf 44
Afr@@ 44
Band 44
Carlo 44
Cum@@ 44
Eug@@ 44
Fort 44
Glas@@ 44
Histor@@ 44
Main@@ 44
Metal 44
Missouri 44
Nations 44
Neb@@ 44
Place 44
Rit@@ 44
Santa 44
Single 44
Um@@ 44
Wy@@ 44
YouTube 44
acle 44
ael 44
alli 44
amo@@ 44
ander@@ 44
antes 44
bian 44
break 44
ecture 44
embran@@ 44
enda 44
exec@@ 44
flav@@ 44
gem@@ 44
gir@@ 44
hir 44
ild 44
iliz@@ 44
imp@@ 44
isco 44
isp@@ 44
kar 44
kul@@ 44
lery 44
libr@@ 44
liv@@ 44
lus 44
may@@ 44
mil 44
nic@@ 44
non@@ 44
onne 44
open 44
pain@@ 44
park 44
pers 44
related 44
sal 44
sche 44
scienti@@ 44
seau 44
tain 44
they 44
za@@ 44
ë@@ 44
Δ 44
Τ@@ 44
η@@ 44
д@@ 44
т 44
у 44
ь@@ 44
ק 44
اوسط 44
علی@@ 44
٥@@ 44
کن 44
یم 44
太@@ 44
美 44
Abu 43
Alt@@ 43
Brothers 43
Champ@@ 43
Dance 43
Dir@@ 43
District 43
Fall@@ 43
Films 43
Forest 43
Gru@@ 43
Had@@ 43
Journ@@ 43
K.@@ 43
Maine 43
Motor 43
Portu@@ 43
Revolution 43
Stud@@ 43
Ung@@ 43
Wehr@@ 43
ators 43
boy@@ 43
car 43
chia 43
come 43
cular 43
editor 43
edr@@ 43
eign 43
enh@@ 43
ider@@ 43
ities 43
kir@@ 43
kus 43
lec@@ 43
management 43
mos 43
nig@@ 43
path@@ 43
ply 43
post@@ 43
process@@ 43
production 43
quin@@ 43
sap@@ 43
stre@@ 43
stream 43
sun@@ 43
sup@@ 43
tas@@ 43
tot@@ 43
tres 43
zer 43
ël 43
ño 43
ό@@ 43
ի@@ 43
چو@@ 43
ܪ@@ 43
べ 43
日@@ 43
金@@ 43
Centr@@ 42
Chinese 42
Civil 42
Conference 42
Cou@@ 42
Ferdinand 42
Giovanni 42
Lud@@ 42
Modern 42
Other 42
Priv@@ 42
Roy@@ 42
Russian 42
Sir@@ 42
Some 42
Stil@@ 42
VIII 42
Vladimir 42
Yor@@ 42
affen 42
berger 42
chil@@ 42
cir@@ 42
class@@ 42
cro@@ 42
culture 42
dings 42
edition 42
ehr@@ 42
force 42
func@@ 42
hood 42
igi@@ 42
ilian 42
imm@@ 42
indic@@ 42
ku 42
kur@@ 42
lang@@ 42
liber@@ 42
liga 42
lim 42
mir 42
onen 42
pon 42
rag@@ 42
rugby 42
sha 42
these 42
thu@@ 42
tur 42
ult@@ 42
xa 42
ă 42
Ν@@ 42
στ@@ 42
Ба@@ 42
в 42
بلند 42
گا 42
ܘ@@ 42
ი@@ 42
オ@@ 42
ジ@@ 42
ッ@@ 42
也 42
佐@@ 42
東@@ 42
Angola 41
Ast@@ 41
Bis@@ 41
Ble@@ 41
Boston 41
Chile 41
Dé@@ 41
Exper@@ 41
Extr@@ 41
Feld@@ 41
Jun@@ 41
KK 41
Kentucky 41
Lan@@ 41
More 41
Nan@@ 41
Ou@@ 41
Person@@ 41
Plan 41
Rech@@ 41
Sign@@ 41
Tech@@ 41
Val 41
Was@@ 41
Yah@@ 41
aks 41
alog@@ 41
amount 41
ances 41
area 41
articles 41
bey 41
capit@@ 41
dies 41
erine 41
eto 41
fun@@ 41
geb@@ 41
high 41
ht 41
inden 41
iting 41
kno@@ 41
lies 41
ligence 41
mid 41
mon 41
nt 41
ographi@@ 41
omer@@ 41
organ@@ 41
parti@@ 41
sian 41
size 41
tac@@ 41
tec@@ 41
times 41
tribut@@ 41
tung 41
ulu 41
versi@@ 41
virtu@@ 41
voc@@ 41
within 41
ya@@ 41
zaman 41
zon 41
çal@@ 41
ès 41
ég@@ 41
ı 41
ː@@ 41
χ@@ 41
С@@ 41
к 41
у@@ 41
سامان 41
عی@@ 41
் 41
ἐ@@ 41
™ 41
∆ 41
∞ 41
⟩ 41
が@@ 41
ク@@ 41
一@@ 41
Bach 40
Bach@@ 40
Cant@@ 40
Cape 40
Channel 40
Coc@@ 40
Educ@@ 40
Federal 40
Ira@@ 40
Kamp@@ 40
Kri@@ 40
Mex@@ 40
Nap@@ 40
Navy 40
Pacific 40
President 40
Profes@@ 40
Schw@@ 40
Ten@@ 40
Under 40
Yan@@ 40
aching 40
adap@@ 40
aha 40
aise 40
alar@@ 40
alc@@ 40
bai 40
band@@ 40
ble@@ 40
bra 40
bran@@ 40
cus@@ 40
education 40
elling 40
eton 40
fall 40
final 40
fs 40
help 40
host@@ 40
ilit@@ 40
ises 40
kri@@ 40
lag@@ 40
lidae 40
nationale 40
ob 40
orph@@ 40
oug@@ 40
ouse 40
quit@@ 40
sens@@ 40
speed 40
tab@@ 40
teams 40
tice 40
wall 40
ymn@@ 40
š 40
и 40
к@@ 40
м@@ 40
с 40
انی 40
نگ 40
ܢ@@ 40
⟨ 40
・ 40
海@@ 40
Amer@@ 39
Audi@@ 39
Clu@@ 39
Crim@@ 39
Democ@@ 39
Elisabeth 39
Four 39
Fron@@ 39
Grande 39
Hall@@ 39
Jesus 39
Luf@@ 39
Muhammad 39
NCAA 39
Pra@@ 39
Prin@@ 39
Riv@@ 39
Secre@@ 39
Tig@@ 39
Wis@@ 39
Yel@@ 39
afric@@ 39
aries 39
arti@@ 39
asha 39
ayan 39
bec 39
ben 39
canc@@ 39
development 39
eca 39
eger 39
enburg 39
ester@@ 39
forman@@ 39
hyp@@ 39
imo 39
initi@@ 39
integr@@ 39
international 39
ires 39
kw@@ 39
led@@ 39
level 39
lu 39
ordin@@ 39
oti@@ 39
ovi@@ 39
pet@@ 39
players 39
pot 39
proced@@ 39
real 39
resp@@ 39
sional 39
sou@@ 39
sts 39
uel@@ 39
ves@@ 39
xi 39
ça 39
üt@@ 39
ń@@ 39
Ž@@ 39
Χ@@ 39
όν 39
й 39
ש 39
دید 39
سک@@ 39
فروغ 39
ملتان 39
ざ@@ 39
マ@@ 39
ル@@ 39
ン 39
島@@ 39
雄 39
After 38
At 38
Beng@@ 38
Bog@@ 38
Constant@@ 38
Corps 38
En 38
Fort@@ 38
Gel@@ 38
Gem@@ 38
Hof@@ 38
Jor@@ 38
Josef 38
Kong 38
Lak@@ 38
Lav@@ 38
Miss@@ 38
NCA@@ 38
Nep@@ 38
Orange 38
Sound 38
Tos@@ 38
Toy@@ 38
Trich@@ 38
adv@@ 38
aku 38
aling 38
apa 38
bra@@ 38
cic@@ 38
city 38
cla@@ 38
dou@@ 38
ener 38
ener@@ 38
exten@@ 38
gas@@ 38
head@@ 38
heim 38
igner 38
ily 38
ished 38
ized 38
master 38
mut 38
oc 38
pir@@ 38
plo@@ 38
poem 38
programm@@ 38
quel@@ 38
quer@@ 38
red@@ 38
rent 38
school 38
ska 38
species 38
sport 38
tax@@ 38
tique 38
utive 38
women 38
ύ@@ 38
ώ@@ 38
Ми@@ 38
مخصوص 38
٨@@ 38
٩ 38
پان@@ 38
کت@@ 38
ۚ 38
ܬ@@ 38
ⵜ@@ 38
福@@ 38
谷@@ 38
20th 37
Asp@@ 37
Bag@@ 37
Born 37
Buff@@ 37
Dep@@ 37
Fat@@ 37
Freder@@ 37
Fré@@ 37
Gö@@ 37
Initi@@ 37
Mau@@ 37
Russia 37
Ré@@ 37
Slo@@ 37
Sol 37
Tir@@ 37
Top@@ 37
Vinc@@ 37
abri@@ 37
archi@@ 37
architecture 37
arts 37
auer 37
auto@@ 37
bad 37
bank 37
books 37
brand 37
cent 37
compon@@ 37
conditions 37
enci@@ 37
eppe 37
esi@@ 37
fier 37
hio 37
hiz@@ 37
ici 37
ieve 37
known 37
lich@@ 37
mari@@ 37
mur@@ 37
oil 37
oir 37
oral 37
otes 37
otte 37
phase 37
plant 37
por 37
prob@@ 37
ria 37
rock 37
undo 37
unga 37
uru 37
vy@@ 37
west 37
what 37
ß 37
än@@ 37
ή 37
евич 37
ская 37
я 37
ائی@@ 37
٭ 37
کار@@ 37
ῖ@@ 37
∙ 37
崎@@ 37
� 37
Ba 36
Christ 36
Dod@@ 36
Hollywood 36
Hul@@ 36
Indonesia 36
Jur@@ 36
Kre@@ 36
Las 36
Mang@@ 36
Mih@@ 36
Stars 36
Syria 36
Yak@@ 36
Yıl@@ 36
Zen@@ 36
access 36
ador 36
apar@@ 36
appro@@ 36
aten 36
atz 36
cum@@ 36
emann 36
ember 36
entry 36
eye 36
figure 36
ful@@ 36
gesch@@ 36
gran@@ 36
human 36
idel@@ 36
iden 36
indi@@ 36
jam@@ 36
led 36
liche 36
love 36
lut@@ 36
natur@@ 36
nie 36
once 36
orn 36
oro 36
oty@@ 36
para 36
rad@@ 36
raz@@ 36
recep@@ 36
rol 36
ron 36
sign@@ 36
station 36
suff@@ 36
tag@@ 36
tico 36
tit@@ 36
tum 36
tura 36
tés 36
uda 36
ustr@@ 36
ution@@ 36
zone 36
­ 36
ém@@ 36
íos 36
ór@@ 36
üm@@ 36
ħ@@ 36
Β@@ 36
έ@@ 36
ζ@@ 36
υ@@ 36
Бе@@ 36
М@@ 36
а 36
т@@ 36
ц@@ 36
ь 36
جھ@@ 36
صی@@ 36
غیر 36
فرنس 36
پر 36
گو 36
∪ 36
☆ 36
シ@@ 36
ト@@ 36
ラ@@ 36
口@@ 36
동@@ 36
2nd 35
Brazil 35
Chir@@ 35
Commission 35
Develop@@ 35
Edu@@ 35
Gul@@ 35
Institut 35
Marvel 35
Nach@@ 35
Nikol@@ 35
Pass@@ 35
Pop 35
Rac@@ 35
Sonder@@ 35
Sultan 35
They 35
Vor@@ 35
Zel@@ 35
aces 35
actions 35
ague 35
alla 35
amber 35
asing 35
bad@@ 35
bile 35
bras@@ 35
chor@@ 35
construc@@ 35
depend@@ 35
encia 35
g. 35
ground 35
ief 35
isches 35
ising 35
iste 35
jum@@ 35
lied 35
ling@@ 35
ls 35
mam@@ 35
mechan@@ 35
member 35
met 35
nas@@ 35
oking 35
population 35
radio 35
ren 35
stage 35
star@@ 35
sten@@ 35
syl@@ 35
tes@@ 35
three 35
tific@@ 35
tran@@ 35
tz@@ 35
usion 35
äl@@ 35
érie 35
ū 35
ə 35
αμ@@ 35
К@@ 35
сь@@ 35
ס 35
آمد 35
اگ@@ 35
لائنا 35
٤@@ 35
ٲ@@ 35
ば@@ 35
林@@ 35
대@@ 35
Administration 34
Airport 34
Argent@@ 34
Atlantic 34
Bapti@@ 34
Baş@@ 34
Bug@@ 34
Chev@@ 34
Dad@@ 34
Early 34
Groß@@ 34
Han 34
High@@ 34
Hind@@ 34
Jug@@ 34
Jung@@ 34
Key@@ 34
Lap@@ 34
Lo 34
Margar@@ 34
Marine 34
Maxim@@ 34
Sali@@ 34
Sport@@ 34
Suc@@ 34
Tennessee 34
Tokyo 34
Tul@@ 34
Wolfgang 34
acer@@ 34
achi 34
adu@@ 34
airs 34
alog 34
amer@@ 34
annel 34
anos 34
champ@@ 34
chron@@ 34
complex 34
conduc@@ 34
dea 34
eshi 34
fan@@ 34
fir@@ 34
gan 34
greg@@ 34
hii 34
inen 34
iner@@ 34
integ@@ 34
iso 34
japon@@ 34
kun@@ 34
leist@@ 34
mah@@ 34
metal 34
modi@@ 34
ned 34
oca 34
oll 34
ool 34
princip@@ 34
raine 34
servat@@ 34
sta@@ 34
start 34
taine 34
thus 34
u. 34
uss 34
vec@@ 34
zur 34
î 34
ɛ@@ 34
Γ@@ 34
ρο@@ 34
σι@@ 34
г@@ 34
ный 34
ра@@ 34
յ@@ 34
ادی@@ 34
نی 34
٦ 34
پا 34
ܡ@@ 34
რ@@ 34
ⵔ@@ 34
せ@@ 34
武@@ 34
---- 33
Apol@@ 33
Argentina 33
Dut@@ 33
Eb@@ 33
Gan@@ 33
Graf 33
Iowa 33
Iran 33
Jes@@ 33
Jorge 33
Kauf@@ 33
Laurent 33
Maf@@ 33
Memorial 33
Nom@@ 33
Prof@@ 33
Prov@@ 33
Sas@@ 33
Société 33
Son 33
Stand 33
Su 33
Sud@@ 33
Town 33
Version 33
apr@@ 33
aring 33
atar 33
ations@@ 33
aup@@ 33
ause 33
aza 33
aç@@ 33
ball@@ 33
blan@@ 33
bloc@@ 33
broad@@ 33
building 33
carri@@ 33
coll@@ 33
country 33
ebe 33
ei@@ 33
election 33
eling 33
ers@@ 33
feld 33
fru@@ 33
gan@@ 33
ically 33
idential 33
image 33
jun@@ 33
ka@@ 33
late 33
lic@@ 33
lieb 33
magazine 33
nat@@ 33
next 33
ools 33
othe@@ 33
peti@@ 33
pole 33
program 33
project 33
rel 33
stadt 33
teur 33
town 33
unter@@ 33
urg@@ 33
vas@@ 33
vat@@ 33
working 33
would 33
xin 33
Öz@@ 33
ères 33
ét@@ 33
ğ@@ 33
Ο@@ 33
ια 33
ών 33
Р@@ 33
з@@ 33
ль@@ 33
э 33
گل@@ 33
ি@@ 33
え 33
カ@@ 33
彦 33
明@@ 33
橋@@ 33
水@@ 33
7,5 32
Brook@@ 32
Chal@@ 32
Congress 32
Führ@@ 32
German@@ 32
Hak@@ 32
His 32
Hist@@ 32
Ich@@ 32
Ide@@ 32
Infr@@ 32
Len@@ 32
Mb@@ 32
Naz@@ 32
Port@@ 32
Rak@@ 32
Rat@@ 32
Roll@@ 32
Stat@@ 32
Station 32
Tai@@ 32
Tib@@ 32
Universit@@ 32
agi@@ 32
aster@@ 32
base 32
bis@@ 32
bun@@ 32
classi@@ 32
cog@@ 32
common 32
during 32
electr@@ 32
elor 32
ende 32
endi 32
eux 32
eza 32
frag@@ 32
iment 32
inin 32
isten 32
jur@@ 32
lara 32
leb@@ 32
nu 32
orer 32
oss 32
quir@@ 32
ras 32
record 32
rev@@ 32
rid@@ 32
rig@@ 32
say@@ 32
sein 32
sep@@ 32
soft 32
spo@@ 32
sym@@ 32
tad@@ 32
tag 32
tary 32
teilung 32
third 32
total 32
tour@@ 32
ural 32
wak@@ 32
yel@@ 32
ün@@ 32
ǎ@@ 32
ː 32
αν@@ 32
μα 32
ре@@ 32
с@@ 32
سامنا 32
پی@@ 32
ۡ 32
ὐ@@ 32
≠ 32
に@@ 32
タ@@ 32
健@@ 32
吉@@ 32
新@@ 32
由@@ 32
3. 31
Alter@@ 31
Apo@@ 31
Baba 31
Bron@@ 31
Creek 31
Crist@@ 31
Ehr@@ 31
Gur@@ 31
Gustav 31
Itali@@ 31
Kiy@@ 31
Kro@@ 31
Lad@@ 31
Loire 31
Maryland 31
Milan 31
Milli@@ 31
Nec@@ 31
Ng@@ 31
Pakistan 31
Production 31
Sev@@ 31
Tes@@ 31
Turk@@ 31
abor@@ 31
ados 31
aines 31
ald@@ 31
ament@@ 31
ante@@ 31
atin 31
bor 31
cab@@ 31
chap@@ 31
commun@@ 31
cou@@ 31
cour@@ 31
drei 31
echo 31
eil@@ 31
eler 31
entos 31
fin 31
flor@@ 31
fos@@ 31
ging 31
inga 31
iva 31
jug@@ 31
major 31
many 31
mont@@ 31
must 31
mé@@ 31
open@@ 31
oux 31
phia 31
ping 31
plant@@ 31
political 31
prec@@ 31
region 31
rier 31
same 31
sav@@ 31
schule 31
social 31
sub 31
sun 31
there 31
tum@@ 31
uf 31
video 31
witz 31
xu@@ 31
öh@@ 31
ξ@@ 31
τ 31
το@@ 31
Т@@ 31
ко@@ 31
ף 31
ادی 31
غلط 31
غی@@ 31
گور@@ 31
یات 31
ব@@ 31
ὁ 31
ⵓ@@ 31
ち@@ 31
ゅ@@ 31
フ@@ 31
之 31
北@@ 31
英@@ 31
사@@ 31
️ 31
.S. 30
Adel@@ 30
Americ@@ 30
Band@@ 30
Fé@@ 30
Gün@@ 30
Harvard 30
Indiana 30
Ost@@ 30
Province 30
Renn@@ 30
Rico 30
Sain@@ 30
Shu@@ 30
Spi@@ 30
Temple 30
Trin@@ 30
Trump 30
Wak@@ 30
Wasser@@ 30
academ@@ 30
acht 30
argent@@ 30
aska 30
atia 30
autom@@ 30
bek@@ 30
child 30
ded 30
direc@@ 30
edra 30
ensa 30
environ@@ 30
etti@@ 30
figur@@ 30
fort 30
front 30
how 30
ingi@@ 30
ischen 30
isto 30
jan@@ 30
kap@@ 30
ld 30
lik@@ 30
lois 30
lov@@ 30
note 30
oku@@ 30
onna 30
ort@@ 30
ought 30
oğlu 30
pig@@ 30
positive 30
prov@@ 30
requ@@ 30
sion@@ 30
study 30
toral 30
tru@@ 30
uli 30
urg 30
views 30
white 30
years 30
æ 30
ów 30
ül@@ 30
ý 30
ƒ 30
ва 30
х@@ 30
ч@@ 30
կ@@ 30
ֲ@@ 30
ایا 30
بھ@@ 30
خی@@ 30
عمارت 30
史 30
山 30
李@@ 30
神@@ 30
0,5 29
Academ@@ 29
Angeles 29
Board 29
Chel@@ 29
Colombia 29
Germany 29
Gusta@@ 29
Historia 29
Ins@@ 29
Korea 29
Lug@@ 29
Lux@@ 29
Mississippi 29
Moz@@ 29
National@@ 29
Pf@@ 29
Sah@@ 29
Sierra 29
Speci@@ 29
Valle 29
Venezuela 29
Wer@@ 29
Wir@@ 29
acial 29
acio 29
ahr@@ 29
alle@@ 29
aver@@ 29
bas 29
bel 29
business 29
camp@@ 29
children 29
company 29
cons@@ 29
contin@@ 29
countries 29
cross 29
days 29
dir 29
dows 29
due 29
eded 29
elas 29
elles 29
elop@@ 29
embr@@ 29
emen 29
former 29
gers 29
gor@@ 29
gres@@ 29
hes@@ 29
igher 29
illi 29
implement@@ 29
instruc@@ 29
length 29
liz@@ 29
lug@@ 29
mé 29
nar@@ 29
polog@@ 29
professor 29
rif@@ 29
run@@ 29
running 29
sed 29
seud@@ 29
sing@@ 29
single 29
sites 29
stri@@ 29
such 29
them 29
trade 29
transfer@@ 29
udo 29
yu@@ 29
zen@@ 29
zu 29
û@@ 29
Š@@ 29
ί 29
λι@@ 29
τα 29
ψ@@ 29
Г@@ 29
г 29
ћ 29
افغ@@ 29
سید 29
لی 29
کا@@ 29
کن@@ 29
ܐ@@ 29
ަ@@ 29
ი 29
♦ 29
ア@@ 29
ニ@@ 29
二 29
國@@ 29
森@@ 29
Amt 28
Arena 28
Armen@@ 28
Auf@@ 28
Austr@@ 28
Austria 28
Britain 28
Champions 28
Chu@@ 28
Concep@@ 28
Dame 28
Du 28
Ef@@ 28
Ek@@ 28
Ey@@ 28
Film@@ 28
Gros@@ 28
Guillaume 28
Hai 28
Her 28
Hospital 28
Hut@@ 28
Instrum@@ 28
Kinder@@ 28
Mosco@@ 28
Moun@@ 28
Nad@@ 28
Pac@@ 28
Politi@@ 28
Premi@@ 28
Québec 28
Roh@@ 28
Rolling 28
Sib@@ 28
Stra@@ 28
Tek@@ 28
Wald@@ 28
Wind@@ 28
ahl@@ 28
ails 28
ained 28
aman@@ 28
amu 28
anza 28
benz@@ 28
bic@@ 28
bois 28
brach@@ 28
circu@@ 28
court 28
dar 28
down@@ 28
edi 28
edit@@ 28
elt@@ 28
ending 28
enko 28
ensi@@ 28
esses 28
fera 28
fes@@ 28
friend 28
had@@ 28
isia 28
isme 28
iter@@ 28
iterran@@ 28
jar@@ 28
ju 28
kol@@ 28
kum@@ 28
langu@@ 28
lines 28
nation 28
nos 28
née 28
oms 28
onde 28
onym@@ 28
otom@@ 28
ped@@ 28
perior 28
person 28
pre 28
published 28
reduc@@ 28
relations 28
ring 28
sburg 28
song 28
status 28
tou@@ 28
tras@@ 28
uel 28
werke 28
zon@@ 28
Ø@@ 28
ç 28
ð 28
ú 28
ει@@ 28
κα@@ 28
λε@@ 28
ρα@@ 28
της 28
б@@ 28
ли@@ 28
ј@@ 28
آتا 28
خوش@@ 28
رین 28
می 28
مین 28
٦@@ 28
٧@@ 28
چل@@ 28
یع@@ 28
ℓ 28
介 28
伊@@ 28
安@@ 28
宮@@ 28
島 28
平@@ 28
渡@@ 28
김@@ 28
Atlan@@ 27
Avenue 27
Batt@@ 27
Bill@@ 27
Boul@@ 27
Castle 27
Deutschland 27
Dist@@ 27
Fen@@ 27
Front 27
Govern@@ 27
Latin 27
Laz@@ 27
Luxemb@@ 27
Most 27
Sin 27
Stadium 27
acia 27
agre@@ 27
alam@@ 27
alogue 27
asia 27
asser 27
bab@@ 27
bec@@ 27
before 27
bell 27
bu 27
categ@@ 27
cial 27
ción 27
classes 27
course 27
design 27
dil@@ 27
egel 27
entation 27
estig@@ 27
europ@@ 27
evol@@ 27
fore 27
gli@@ 27
gun 27
hand 27
iff 27
ilde 27
imar@@ 27
industri@@ 27
inning 27
ismo 27
ismus 27
itar 27
king@@ 27
local 27
lose 27
manager 27
maz 27
mis 27
move 27
olar 27
ondo 27
onds 27
opa 27
pati@@ 27
phi 27
points 27
pu 27
qua 27
run 27
second@@ 27
since 27
solution 27
stand@@ 27
standard 27
tif@@ 27
til 27
tile 27
treat@@ 27
uş 27
venti@@ 27
vern@@ 27
w.@@ 27
wit@@ 27
µ@@ 27
Æ@@ 27
Ü@@ 27
ät@@ 27
ío 27
ù 27
ě@@ 27
Ō@@ 27
αλ@@ 27
ερ@@ 27
П@@ 27
Х@@ 27
بطور 27
دین 27
ربی@@ 27
نشان 27
نیا 27
کتاب 27
کر 27
ۆ@@ 27
ید 27
ܒ@@ 27
ল@@ 27
⁄ 27
て@@ 27
で@@ 27
内@@ 27
夫 27
田 27
長@@ 27
한@@ 27
Canal 26
Doctor 26
Eis@@ 26
Elis@@ 26
Hali@@ 26
Italia 26
Kot@@ 26
Kö@@ 26
Madrid 26
Mission 26
Mustafa 26
Oregon 26
Papa 26
Philadelphia 26
Poland 26
Rav@@ 26
Schul@@ 26
She 26
Soc@@ 26
These 26
Twitter 26
XIII 26
Ya 26
aat 26
abu 26
acks 26
agent 26
bay 26
bed 26
being 26
bom@@ 26
ched 26
compar@@ 26
continu@@ 26
dad 26
determin@@ 26
done 26
dynam@@ 26
eding 26
endi@@ 26
eurs 26
evo 26
fici@@ 26
fund@@ 26
gruppe 26
hak@@ 26
high@@ 26
hot@@ 26
iku@@ 26
imin@@ 26
inform@@ 26
ions 26
iwa 26
kad@@ 26
main@@ 26
mani 26
million 26
ms@@ 26
mt@@ 26
nen 26
oci@@ 26
old@@ 26
olf 26
omin@@ 26
online 26
ours 26
pas 26
ref@@ 26
regi@@ 26
sar 26
sie 26
sof@@ 26
speci@@ 26
specific 26
standing 26
straße 26
tent 26
tig 26
tiz@@ 26
ump 26
unge 26
ustry 26
valu@@ 26
vet@@ 26
wehr 26
wi 26
ý@@ 26
Č@@ 26
ę@@ 26
ř@@ 26
ǔ 26
Γ 26
Θ@@ 26
αγ@@ 26
οχ@@ 26
Н@@ 26
е 26
ח 26
آئ@@ 26
ابی@@ 26
اقبال 26
الک@@ 26
بزرگ 26
تھ@@ 26
حک@@ 26
سرم@@ 26
مندر@@ 26
پور 26
کلا@@ 26
ე@@ 26
ῦ@@ 26
₹ 26
ⵏ 26
ⵏ@@ 26
る@@ 26
ャ@@ 26
ロ@@ 26
下@@ 26
岡@@ 26
江@@ 26
清@@ 26
Asi@@ 25
But 25
Casa 25
Dop@@ 25
Ecuador 25
Esc@@ 25
Git@@ 25
Gren@@ 25
Haf@@ 25
Jag@@ 25
Japanese 25
Kul@@ 25
Lig@@ 25
Luft@@ 25
Materi@@ 25
Moder@@ 25
Moy@@ 25
Pak@@ 25
Paraguay 25
Police 25
Reser@@ 25
Scotland 25
Serbia 25
Tok@@ 25
Vig@@ 25
Von 25
Wein@@ 25
Winter@@ 25
Yer@@ 25
ahi 25
aman 25
americana 25
anger@@ 25
appe@@ 25
auc@@ 25
añ@@ 25
ağ@@ 25
beck 25
burger 25
compl@@ 25
digital 25
eko 25
eles 25
ennes 25
fili@@ 25
fire 25
française 25
gericht 25
got 25
haus 25
hen 25
histor@@ 25
ied 25
ilities 25
irat@@ 25
its@@ 25
lieg@@ 25
mill@@ 25
mtDNA 25
nak@@ 25
neum@@ 25
operation 25
ouv@@ 25
pend@@ 25
pod@@ 25
pro 25
rece@@ 25
resist@@ 25
result 25
saw 25
schi@@ 25
sir@@ 25
sound 25
syst@@ 25
tains 25
temp@@ 25
tempor@@ 25
theor@@ 25
tista 25
titu@@ 25
traf@@ 25
trich@@ 25
uga 25
umbo 25
unda 25
uri@@ 25
vio 25
yla 25
yu 25
Å@@ 25
ɔ@@ 25
ης 25
ψ 25
д 25
е@@ 25
ло@@ 25
ра 25
الدین 25
تین 25
پول@@ 25
ۃ 25
្ 25
ト 25
中国@@ 25
国@@ 25
文@@ 25
明 25
智@@ 25
樹 25
男 25
輔 25
鈴@@ 25
￼ 25
4. 24
Antar@@ 24
Berliner 24
Capit@@ 24
Carr@@ 24
Emper@@ 24
Europ@@ 24
Fakültesi 24
Found@@ 24
Geb@@ 24
Government 24
Herz@@ 24
Hous@@ 24
Institu@@ 24
König@@ 24
Lic@@ 24
Monum@@ 24
Motor@@ 24
NASA 24
Nam 24
Nel@@ 24
Personal 24
Peru 24
Popular 24
Register 24
Rug@@ 24
Sep@@ 24
Spain 24
São 24
Tenn@@ 24
Uruguay 24
Ut@@ 24
XV 24
XVIII 24
You@@ 24
acu@@ 24
aden 24
against 24
alled 24
amar@@ 24
analy@@ 24
anian 24
anya 24
assemb@@ 24
assen 24
asti@@ 24
auf@@ 24
auth@@ 24
avy@@ 24
azine 24
azu 24
bau 24
both 24
capac@@ 24
capital 24
cav@@ 24
dil 24
dot@@ 24
ecia 24
efe 24
ehr 24
eil 24
espe@@ 24
essed 24
ests 24
example 24
fen@@ 24
goals 24
half 24
hen@@ 24
hep@@ 24
hiv@@ 24
hr 24
ible 24
icht@@ 24
icro@@ 24
iness 24
inge 24
inos 24
isis 24
isl@@ 24
jazz 24
kab@@ 24
kt@@ 24
lich 24
loss@@ 24
mans 24
means 24
meas@@ 24
model@@ 24
movement 24
nant 24
oka 24
onidae 24
pad@@ 24
param@@ 24
quot@@ 24
rab@@ 24
revol@@ 24
sberg 24
schrift 24
services 24
sid@@ 24
stand 24
stock 24
suc@@ 24
support 24
tav@@ 24
tee 24
tienne 24
ungen 24
vet 24
º 24
École 24
Î@@ 24
ß@@ 24
àn 24
äger 24
éo 24
ë 24
ône 24
ş 24
ικ@@ 24
Л@@ 24
ви@@ 24
ла@@ 24
о 24
о@@ 24
ץ 24
اضلاع 24
اعزاز 24
تاریخ 24
طی@@ 24
فری@@ 24
کور@@ 24
ین@@ 24
ু@@ 24
ょ@@ 24
ス 24
久@@ 24
会@@ 24
四@@ 24
直@@ 24
部@@ 24
青@@ 24
국 24
서@@ 24
5. 23
6. 23
Airlines 23
Alabama 23
Antoine 23
BK 23
Colorado 23
Dest@@ 23
Dres@@ 23
Ere@@ 23
Gri@@ 23
Hau@@ 23
Heil@@ 23
Hier@@ 23
Him@@ 23
However 23
Ib@@ 23
Inn@@ 23
Kav@@ 23
Kop@@ 23
Mez@@ 23
Minister 23
Pam@@ 23
PlayStation 23
Raf@@ 23
Region 23
Roman@@ 23
Sic@@ 23
Unter@@ 23
Uz@@ 23
Vall@@ 23
Venez@@ 23
Wild@@ 23
abad 23
acqu@@ 23
ambo 23
ample 23
anca 23
angers 23
ater@@ 23
atrice 23
bah@@ 23
bara 23
bay@@ 23
black 23
blin 23
bol 23
casting 23
chester 23
chu@@ 23
colum@@ 23
communic@@ 23
conf@@ 23
cord 23
cover 23
crimin@@ 23
cu 23
death 23
det 23
deutsche 23
develop@@ 23
differ@@ 23
door 23
early 23
eing 23
eki 23
ered 23
esser 23
este 23
gence 23
gether 23
given 23
good 23
hid@@ 23
icht 23
impl@@ 23
ina@@ 23
irs 23
isation 23
itage 23
kes@@ 23
kho@@ 23
km2 23
lik 23
location 23
loss 23
maj@@ 23
minister@@ 23
mm@@ 23
moun@@ 23
ologi@@ 23
omen 23
others 23
ourg 23
perial 23
philosoph@@ 23
pis@@ 23
power@@ 23
programs 23
province 23
quali@@ 23
reib@@ 23
rep@@ 23
reser@@ 23
response 23
rog@@ 23
sist@@ 23
stanbul 23
stop 23
teen 23
television 23
thi 23
too 23
track 23
transl@@ 23
tribu@@ 23
té 23
urs@@ 23
va@@ 23
wagen 23
weg@@ 23
wie 23
z. 23
zz@@ 23
àng 23
å 23
ôme 23
ą@@ 23
Д@@ 23
ла 23
ы 23
տ@@ 23
ג 23
خوش 23
ذرائع 23
شیخ 23
مضبوط 23
نمائ@@ 23
ڨ 23
کث@@ 23
ლ@@ 23
南@@ 23
坂@@ 23
大 23
志 23
永@@ 23
義@@ 23
삼@@ 23
🏣 23
Amat@@ 22
Anat@@ 22
Another 22
Boliv@@ 22
Dakota 22
Democratic 22
Den 22
Dj@@ 22
Eastern 22
Gast@@ 22
Grund@@ 22
Hey@@ 22
Hr@@ 22
Hung@@ 22
Italy 22
Kay@@ 22
Kultur@@ 22
Landes@@ 22
Libr@@ 22
Marsh@@ 22
Martin@@ 22
Ministr@@ 22
Né@@ 22
Parti 22
Poc@@ 22
Proj@@ 22
Pub@@ 22
Rep@@ 22
Schwe@@ 22
Slov@@ 22
Stad@@ 22
Territ@@ 22
Toronto 22
Yen@@ 22
agne 22
ainst 22
aint 22
aires 22
alized 22
alu@@ 22
ament 22
amt 22
anco 22
anes 22
application 22
aven@@ 22
awi 22
bak@@ 22
bil 22
cad@@ 22
century 22
combin@@ 22
corpor@@ 22
cup@@ 22
cycle 22
decor@@ 22
dial 22
division 22
erk@@ 22
eval 22
evi 22
evi@@ 22
features 22
gens 22
gian 22
global 22
guer@@ 22
igen 22
island 22
islat@@ 22
ism@@ 22
kam@@ 22
kio 22
market 22
mec@@ 22
mom@@ 22
multiple 22
nership 22
normal 22
odes 22
offici@@ 22
ogo 22
oles 22
ono 22
oren 22
party 22
pay@@ 22
pays 22
period 22
plan 22
pool 22
porter 22
present 22
president 22
probl@@ 22
pros@@ 22
rant 22
rod@@ 22
season 22
spek@@ 22
spi@@ 22
story 22
temper@@ 22
tir@@ 22
uka 22
univers@@ 22
versit@@ 22
ween 22
without 22
yas@@ 22
zek@@ 22
zer@@ 22
zin@@ 22
éd@@ 22
ónica 22
ț@@ 22
Σ 22
ας 22
μα@@ 22
οι 22
ού@@ 22
υ 22
ων 22
ль 22
не 22
п@@ 22
ро@@ 22
ז 22
انجام 22
انگ@@ 22
تھا 22
شنل 22
وی 22
ٓ@@ 22
یس 22
ო@@ 22
Ἐ@@ 22
ῆ@@ 22
ῦ 22
ほ@@ 22
め 22
サ@@ 22
城 22
治 22
王 22
生 22
白@@ 22
雅@@ 22
📺 22
Ab 21
América 21
Aug@@ 21
Chic@@ 21
Córdoba 21
Gest@@ 21
Gü@@ 21
Ha 21
Haupt@@ 21
Histoire 21
Inform@@ 21
Kah@@ 21
Kho@@ 21
Lie@@ 21
Mehmet 21
Mercedes 21
Mong@@ 21
Nah@@ 21
Ni 21
Nou@@ 21
Premier 21
Prix 21
Refer@@ 21
Rid@@ 21
Santo 21
Sok@@ 21
Stadt@@ 21
Sé@@ 21
Tari@@ 21
Uta@@ 21
Vita 21
Wander@@ 21
XV@@ 21
accoun@@ 21
aches 21
adas 21
adem@@ 21
administr@@ 21
afe 21
again 21
aged 21
ako 21
alco@@ 21
algo 21
alifor@@ 21
amen 21
anl@@ 21
annual 21
associated 21
atives 21
atori@@ 21
best 21
called 21
cas 21
castle 21
cau@@ 21
chang@@ 21
chant 21
character@@ 21
cher@@ 21
clo@@ 21
club 21
colon@@ 21
community 21
construction 21
conver@@ 21
cros@@ 21
dance 21
div@@ 21
dér@@ 21
eas 21
ecti@@ 21
edonia 21
eim 21
eins 21
eke 21
enst@@ 21
eon@@ 21
esch@@ 21
eting 21
eño 21
fem@@ 21
frequ@@ 21
hao 21
hap@@ 21
hat 21
hil@@ 21
hold 21
icas 21
idad 21
iento 21
ife 21
ime@@ 21
inde 21
inet 21
inger@@ 21
invent@@ 21
ition 21
iç@@ 21
kle@@ 21
kop@@ 21
kt 21
ladi@@ 21
lau@@ 21
made 21
mile 21
motor 21
named 21
native 21
naval 21
night 21
nik@@ 21
office 21
opin@@ 21
oration 21
organization 21
orial 21
pf@@ 21
proj@@ 21
quel 21
release 21
rim@@ 21
riv@@ 21
sau@@ 21
scher 21
score 21
senti@@ 21
ses@@ 21
sev@@ 21
some@@ 21
stitu@@ 21
stitut@@ 21
studies 21
take 21
tien 21
transfer 21
ude 21
ufac@@ 21
usalem 21
verte@@ 21
werk 21
wir@@ 21
wn@@ 21
yak@@ 21
Þ@@ 21
ème 21
ê 21
ò 21
δι@@ 21
τα@@ 21
ва@@ 21
де@@ 21
ж@@ 21
ни@@ 21
ски 21
я@@ 21
طری@@ 21
طلاح 21
وَّار 21
کل@@ 21
کون@@ 21
یز 21
ਾ@@ 21
ர@@ 21
ு@@ 21
ნ@@ 21
ἔ@@ 21
ἰ@@ 21
ῶ@@ 21
ド@@ 21
信@@ 21
十@@ 21
民@@ 21
辺@@ 21
阿@@ 21
성@@ 21
조@@ 21
8. 20
Braz@@ 20
Broadway 20
Burg@@ 20
Bé@@ 20
CEO 20
Cem@@ 20
Chin@@ 20
Deutschen 20
Ein 20
España 20
Fam@@ 20
Hawai@@ 20
Hymen@@ 20
Iz@@ 20
Kus@@ 20
Lan 20
Malaysia 20
Mexico 20
Nieder@@ 20
Nintendo 20
Ord@@ 20
Partido 20
Patri@@ 20
Portugal 20
Racing 20
Regierungs@@ 20
Serv@@ 20
Sü@@ 20
Theo 20
Vy@@ 20
XIX 20
adan 20
afa 20
aim@@ 20
aji 20
alit@@ 20
americ@@ 20
ande 20
arias 20
associ@@ 20
attle 20
ayi 20
azi 20
azz@@ 20
bezirk 20
bre 20
bt 20
collection 20
cost@@ 20
cual 20
destin@@ 20
docum@@ 20
endo 20
endro@@ 20
entre@@ 20
esper@@ 20
found 20
gaz@@ 20
ged 20
government 20
grav@@ 20
grave 20
hausen 20
intr@@ 20
isions 20
kn@@ 20
lak 20
legi@@ 20
lemente 20
links 20
lit 20
mai 20
medical 20
mini 20
nam 20
ners 20
noch 20
obi 20
occident@@ 20
ole@@ 20
omp@@ 20
ored 20
plac@@ 20
pler 20
polit@@ 20
pped 20
rah@@ 20
rak@@ 20
records 20
reich@@ 20
rö@@ 20
sab@@ 20
sera 20
she 20
stars 20
states 20
sz@@ 20
tech@@ 20
temps 20
term 20
tiva 20
training 20
trat@@ 20
uj@@ 20
unos 20
utz@@ 20
wo 20
writ@@ 20
xe 20
yen@@ 20
yer@@ 20
zar@@ 20
Öster@@ 20
äm@@ 20
ù@@ 20
üb@@ 20
þ@@ 20
œ@@ 20
άκ@@ 20
ο 20
πολι@@ 20
ρά@@ 20
ρα 20
τι@@ 20
за@@ 20
й@@ 20
ка@@ 20
ма@@ 20
ная 20
ъ@@ 20
ї@@ 20
آج 20
سین 20
لین 20
میر@@ 20
پنجاب 20
پو@@ 20
र 20
र@@ 20
ल@@ 20
ম@@ 20
ে@@ 20
ា@@ 20
ṣ@@ 20
な 20
ブ@@ 20
ル 20
京@@ 20
光@@ 20
八@@ 20
尾@@ 20
昌@@ 20
池@@ 20
澤@@ 20
社 20
裕@@ 20
민@@ 20
주@@ 20
19th 19
Alger@@ 19
Assembly 19
Aster@@ 19
Beat@@ 19
Bibli@@ 19
Boeing 19
Chief 19
Constitu@@ 19
Escu@@ 19
Españ@@ 19
Flug@@ 19
Gramm@@ 19
Grec@@ 19
Greek 19
Hoh@@ 19
Kais@@ 19
Mai 19
Metropolit@@ 19
Mün@@ 19
Napole@@ 19
Opera 19
Pho@@ 19
Professor 19
Rhein@@ 19
Sa 19
Sax@@ 19
Servic@@ 19
Singapore 19
Songs 19
Stal@@ 19
Süd@@ 19
Ukraine 19
Wen@@ 19
Wiener 19
abi 19
above 19
acias 19
ajo 19
alle 19
allow 19
anch@@ 19
anese 19
anted 19
apo 19
arina 19
ark 19
atre 19
atu 19
atur 19
auch 19
audi@@ 19
bass@@ 19
berg@@ 19
bind@@ 19
bles 19
close 19
clu@@ 19
const@@ 19
cred@@ 19
cula 19
dep@@ 19
deutsch@@ 19
dice 19
direct 19
dist@@ 19
east 19
eball 19
ede 19
emer@@ 19
enem@@ 19
enty 19
five 19
folk 19
fron@@ 19
geh@@ 19
graphi@@ 19
heim@@ 19
heit 19
held 19
igan 19
ilk 19
iser 19
issu@@ 19
iye 19
izi@@ 19
jana 19
jer@@ 19
key@@ 19
kid@@ 19
lez 19
loy@@ 19
lung 19
lé@@ 19
maya 19
members 19
minutes 19
museum 19
national@@ 19
naz@@ 19
neutr@@ 19
nin 19
obr@@ 19
oda 19
official 19
oj@@ 19
olar@@ 19
olm 19
onale 19
pen 19
pion@@ 19
policy 19
reco@@ 19
role 19
rus@@ 19
sag@@ 19
schw@@ 19
sibil@@ 19
signed 19
sine 19
still 19
sto@@ 19
sus@@ 19
tail 19
tap@@ 19
tas 19
tei 19
tek@@ 19
tend@@ 19
tima 19
transport 19
typ@@ 19
ulo 19
uro 19
vir 19
yet 19
zil@@ 19
¯ 19
¾ 19
ées 19
ń 19
ŋ@@ 19
ή@@ 19
να@@ 19
πος 19
Э@@ 19
во@@ 19
до@@ 19
и@@ 19
ор@@ 19
са@@ 19
ایران 19
برابر 19
بچ@@ 19
مای@@ 19
وک@@ 19
ۖ 19
व@@ 19
ா@@ 19
∗ 19
⛪ 19
ⴰ 19
ⵜ 19
ⵣ@@ 19
っ@@ 19
ど@@ 19
ナ@@ 19
バ@@ 19
パ@@ 19
五@@ 19
保@@ 19
司 19
和 19
子@@ 19
幸 19
式@@ 19
星@@ 19
株@@ 19
沢@@ 19
河@@ 19
行 19
정@@ 19
7. 18
Alman@@ 18
Art@@ 18
Assist@@ 18
Bang@@ 18
Coast 18
Feuer@@ 18
Flam@@ 18
General@@ 18
Guadal@@ 18
Hoch@@ 18
Infan@@ 18
Italian 18
Its 18
Juni@@ 18
Kad@@ 18
Kak@@ 18
Kara 18
Liga 18
Malay@@ 18
Metro 18
Notre 18
Preis 18
Pé@@ 18
Regional 18
Rest@@ 18
Rock@@ 18
Roma 18
Rome 18
Seb@@ 18
Tay@@ 18
Theater 18
Tod 18
Tradi@@ 18
Ukr@@ 18
Universität 18
Virgin@@ 18
XIV 18
Yes@@ 18
abra 18
agin@@ 18
aide 18
aircraft 18
aku@@ 18
alier 18
amos 18
aning 18
annes 18
anni 18
applic@@ 18
aran 18
aras@@ 18
association 18
author@@ 18
beau@@ 18
bei 18
calcul@@ 18
card 18
cid@@ 18
cities 18
civil 18
concentr@@ 18
could 18
cription 18
cru@@ 18
curr@@ 18
dam 18
deux 18
different 18
dorf 18
egas 18
emo 18
enti 18
entum 18
eres 18
esen 18
estim@@ 18
etto 18
event 18
fam@@ 18
famili@@ 18
food 18
gend 18
groups 18
gul@@ 18
his@@ 18
iche 18
idas 18
iled 18
intel@@ 18
ised 18
itali@@ 18
ive 18
jen@@ 18
just 18
khe@@ 18
kreis 18
lak@@ 18
lı 18
m. 18
making 18
mass@@ 18
mig@@ 18
mission@@ 18
miz@@ 18
offic@@ 18
oise 18
orb@@ 18
orig@@ 18
orium 18
oven 18
paci@@ 18
phe 18
popul@@ 18
primary 18
prol@@ 18
prom@@ 18
qualif@@ 18
radic@@ 18
regul@@ 18
road 18
rée 18
sak@@ 18
sculp@@ 18
separ@@ 18
sex@@ 18
short 18
sible 18
sil 18
sour@@ 18
sozial@@ 18
stan 18
sult@@ 18
surface 18
techni@@ 18
templ@@ 18
thin 18
those 18
tik@@ 18
tries 18
tí@@ 18
ube 18
unde 18
ungo 18
university 18
uti 18
western 18
yar@@ 18
ál@@ 18
ège 18
ım 18
ır@@ 18
ˉ 18
άλ@@ 18
ακ@@ 18
αρ@@ 18
ιν@@ 18
κλ@@ 18
ρυ@@ 18
ρύ@@ 18
У@@ 18
ди@@ 18
л 18
на@@ 18
не@@ 18
но@@ 18
ц 18
і 18
Ա@@ 18
Հ@@ 18
ׁ 18
اری 18
زی 18
مک@@ 18
کا 18
گر 18
گرا@@ 18
އ@@ 18
़ 18
‰ 18
❪ 18
❫ 18
ぎ@@ 18
ず 18
め@@ 18
ボ@@ 18
ム@@ 18
ュ@@ 18
之@@ 18
俊@@ 18
台 18
多@@ 18
太 18
州 18
康@@ 18
王@@ 18
秀@@ 18
貴@@ 18
香@@ 18
국@@ 18
수@@ 18
신@@ 18
영@@ 18
이 18
장@@ 18
Académie 17
Alli@@ 17
Au 17
Baden 17
Bey@@ 17
Bib@@ 17
Chor@@ 17
Connecticut 17
Corpor@@ 17
Dek@@ 17
Deux 17
Dutch 17
Elek@@ 17
Famili@@ 17
Fund@@ 17
Grammy 17
His@@ 17
Jap@@ 17
Jazz 17
Jewish 17
Kansas 17
Kut@@ 17
Mayor 17
Miami 17
Mim@@ 17
Mittel@@ 17
Part@@ 17
Population 17
Publi@@ 17
Represent@@ 17
Salv@@ 17
Schn@@ 17
Schutz@@ 17
South@@ 17
Staats@@ 17
Supre@@ 17
Syr@@ 17
Tam 17
Tax@@ 17
Thé@@ 17
While 17
XVII 17
Zam@@ 17
Zar@@ 17
Zeit 17
Zeit@@ 17
Zw@@ 17
aal@@ 17
acre 17
aff 17
aft@@ 17
ago@@ 17
agog@@ 17
ainer 17
aler 17
arn 17
ativ@@ 17
atra 17
attack 17
atura 17
aught 17
available 17
bed@@ 17
collec@@ 17
communication 17
contact 17
cover@@ 17
defin@@ 17
died 17
diff@@ 17
document@@ 17
dyn@@ 17
eka 17
ellen@@ 17
endorf 17
endra 17
enin 17
ept 17
established 17
ettes 17
eve 17
far 17
foc@@ 17
forms 17
fu 17
gang@@ 17
haw@@ 17
hibi@@ 17
him@@ 17
histoire 17
ichte 17
including 17
incre@@ 17
institu@@ 17
ios 17
ip 17
irk 17
isse 17
kara 17
large 17
lave 17
lea 17
legal 17
located 17
manufactur@@ 17
matches 17
mez@@ 17
minister 17
mouth 17
mundo 17
nature 17
nea 17
ngh@@ 17
omel@@ 17
ordnung 17
owa 17
pec@@ 17
ped 17
pes@@ 17
pia 17
plann@@ 17
police 17
popular 17
reci@@ 17
reported 17
resid@@ 17
secre@@ 17
should 17
slo@@ 17
stad@@ 17
tout 17
troit 17
uba 17
uer 17
uko 17
universit@@ 17
util@@ 17
various 17
vida 17
vig@@ 17
xo@@ 17
yar 17
zed 17
ã@@ 17
ín@@ 17
öy 17
ø 17
ŏ@@ 17
Ś@@ 17
ș@@ 17
Α 17
Μακεδ@@ 17
Παλαι@@ 17
Φ 17
αι@@ 17
ελ@@ 17
θος 17
ον@@ 17
Е@@ 17
З@@ 17
Рес@@ 17
Са@@ 17
да@@ 17
ко 17
область 17
ս@@ 17
افواج 17
بیر 17
جرمن 17
حسین 17
دعوت 17
سمندر 17
سوال 17
قری@@ 17
میم 17
ویب 17
پاشا 17
ڠ@@ 17
کام@@ 17
کری 17
کم@@ 17
گل 17
ত@@ 17
দ@@ 17
় 17
া 17
์ 17
ག@@ 17
် 17
ს@@ 17
ṇ@@ 17
√ 17
ⴻ@@ 17
ⵍ@@ 17
ⵙ@@ 17
げ@@ 17
ァ@@ 17
エ@@ 17
ダ@@ 17
レ@@ 17
奈@@ 17
岩@@ 17
戦 17
政@@ 17
法 17
谷 17
道 17
기 17
다 17
Administr@@ 16
Afrique 16
Alaska 16
Album 16
Andro@@ 16
Arbeit@@ 16
Arizona 16
Arth@@ 16
Athle@@ 16
Aş@@ 16
Catholic 16
Dau@@ 16
Des 16
Doğ@@ 16
Fati@@ 16
Fres@@ 16
Hitler 16
Kazak@@ 16
Lai 16
Ley 16
Manchester 16
Mark@@ 16
Mec@@ 16
Must@@ 16
Mw@@ 16
Olympi@@ 16
Organisation 16
Partisi 16
Pok@@ 16
Program@@ 16
Regiment 16
Song@@ 16
Sud 16
Telev@@ 16
Türk 16
UNESCO 16
Université 16
Vietnam 16
Việt 16
Wan@@ 16
Welt 16
Werke 16
Wilhel@@ 16
acked 16
aissance 16
aled 16
allen 16
anat@@ 16
ata@@ 16
atz@@ 16
award 16
aï@@ 16
bid@@ 16
big 16
bou@@ 16
brig@@ 16
cen@@ 16
clim@@ 16
concre@@ 16
consol@@ 16
coordin@@ 16
crit@@ 16
cultural 16
dad@@ 16
dav@@ 16
diffus@@ 16
distance 16
domin@@ 16
dul@@ 16
ede@@ 16
engo 16
eren 16
ership 16
fahr@@ 16
feder@@ 16
fif@@ 16
fig@@ 16
fix@@ 16
gel 16
gesetz@@ 16
habit@@ 16
hib@@ 16
horiz@@ 16
however 16
iba 16
idence 16
influ@@ 16
interest 16
isol@@ 16
itzer 16
ival@@ 16
kit@@ 16
kov@@ 16
kshire 16
kut@@ 16
lance 16
leader 16
leur 16
limit@@ 16
liqu@@ 16
mann@@ 16
mexic@@ 16
mobil@@ 16
monde 16
mw@@ 16
natural 16
neu@@ 16
nous 16
observ@@ 16
oder 16
ois@@ 16
ombe 16
partic@@ 16
pera 16
performance 16
pers@@ 16
platz 16
pop@@ 16
porting 16
positi@@ 16
present@@ 16
pris@@ 16
provid@@ 16
race 16
ray@@ 16
refl@@ 16
sell 16
sexual 16
shu@@ 16
sos@@ 16
sous 16
sports 16
sters 16
such@@ 16
sé@@ 16
tai 16
tent@@ 16
teri 16
tik 16
tly 16
trad@@ 16
trag@@ 16
tras 16
tán 16
uela 16
undi 16
uvent@@ 16
vision 16
wam@@ 16
whe@@ 16
wich 16
zel@@ 16
zeug@@ 16
zin 16
zog 16
À@@ 16
Ä@@ 16
äd@@ 16
ète 16
év@@ 16
ön 16
ʲ@@ 16
Ι@@ 16
Νέ@@ 16
λα@@ 16
μος 16
τί@@ 16
ων@@ 16
Ар@@ 16
Ко@@ 16
Я@@ 16
ле@@ 16
м 16
ри@@ 16
ска 16
ст@@ 16
то@@ 16
чи@@ 16
ի 16
ׂ@@ 16
اقوام 16
بی 16
جارج@@ 16
ربی 16
نمبر 16
پور@@ 16
ڵ@@ 16
ݒ@@ 16
द@@ 16
प 16
म@@ 16
র 16
র@@ 16
ம@@ 16
მ@@ 16
⋅ 16
▄ 16
☉ 16
ⵢ@@ 16
々@@ 16
さ 16
ガ@@ 16
区 16
區 16
土@@ 16
城@@ 16
有@@ 16
章 16
경@@ 16
공@@ 16
라@@ 16
의 16
자 16
지@@ 16
🚿 16
Akadem@@ 15
Arist@@ 15
Armee 15
Bey 15
Bir 15
Bulgar@@ 15
Cari@@ 15
Chart 15
Chelsea 15
Ciudad 15
Copa 15
Europa 15
Form 15
Frit@@ 15
För@@ 15
Geschichte 15
Gut@@ 15
Haute 15
Jah@@ 15
Kie@@ 15
Kran@@ 15
Kriegs@@ 15
Kunst@@ 15
Lê 15
Mab@@ 15
Mia 15
Montre@@ 15
Nguy@@ 15
Nord 15
Pek@@ 15
Rund@@ 15
Tah@@ 15
Türkiye 15
Zimbab@@ 15
abi@@ 15
achen 15
actu@@ 15
adio 15
afi 15
afr@@ 15
ait@@ 15
album 15
alim@@ 15
altung 15
amor@@ 15
aper@@ 15
apos@@ 15
aret 15
argum@@ 15
astronom@@ 15
aub@@ 15
aux@@ 15
azo 15
bahn 15
bek 15
bern@@ 15
bomb@@ 15
bourg 15
bé@@ 15
caus@@ 15
caused 15
chs 15
clar@@ 15
complete 15
concer@@ 15
consum@@ 15
cost 15
deb@@ 15
ded@@ 15
design@@ 15
deutschen 15
discipl@@ 15
disco@@ 15
diz@@ 15
ectu@@ 15
enas 15
enor@@ 15
enses 15
ently 15
erung 15
espace 15
explor@@ 15
films 15
frac@@ 15
gos 15
got@@ 15
gu 15
gun@@ 15
gut 15
hara 15
hatt@@ 15
homme 15
human@@ 15
idar@@ 15
iler@@ 15
incia 15
ingia 15
intern@@ 15
istin 15
jit@@ 15
lead@@ 15
leit@@ 15
lichen 15
limited 15
meister 15
mf@@ 15
mich@@ 15
minim@@ 15
modern 15
need 15
nel 15
oft 15
ombi@@ 15
onda 15
orch@@ 15
osi 15
ovo 15
pair 15
pino 15
placement 15
played 15
pose 15
possible 15
property 15
rar@@ 15
ratic 15
report 15
rim 15
ros 15
rug@@ 15
rég@@ 15
rí@@ 15
sali@@ 15
sang@@ 15
sdorf 15
seen 15
sek@@ 15
sent@@ 15
separate 15
shot 15
six 15
special 15
square 15
stelle 15
tard 15
tillo 15
tivo 15
tour 15
umes 15
unia 15
units 15
vely 15
verband 15
verw@@ 15
young 15
zan 15
¼ 15
Í@@ 15
är 15
éch@@ 15
ément 15
ération 15
érieure 15
éro@@ 15
ıl@@ 15
ɛ 15
ʊ@@ 15
˚ 15
Η 15
Κάτω 15
Λ 15
Νε@@ 15
Παρ@@ 15
άν@@ 15
άς 15
αβ@@ 15
εια 15
εν@@ 15
ικός 15
μη 15
οδ@@ 15
πο@@ 15
ρί@@ 15
Ан@@ 15
На@@ 15
ан@@ 15
ар@@ 15
б 15
бе@@ 15
во 15
го@@ 15
гъ@@ 15
ми@@ 15
па@@ 15
по@@ 15
та@@ 15
те@@ 15
ха@@ 15
че@@ 15
؜ 15
برطان@@ 15
برگ 15
دری@@ 15
رک@@ 15
فتار 15
لگ@@ 15
مشتمل 15
ملی@@ 15
وری 15
وین 15
گن@@ 15
ہ 15
ێ@@ 15
ܝ 15
ܟ@@ 15
ܥ@@ 15
ް@@ 15
য 15
ி@@ 15
ტ@@ 15
უ@@ 15
↔ 15
≡ 15
ぶ@@ 15
仁@@ 15
元@@ 15
功 15
家@@ 15
平 15
成@@ 15
文 15
江 15
生@@ 15
菊@@ 15
隆@@ 15
香 15
麻@@ 15
龍@@ 15
리@@ 15
보@@ 15
성 15
스@@ 15
연 15
Ame@@ 14
Arbeits@@ 14
Arkansas 14
Arsen@@ 14
Bez@@ 14
Bezir@@ 14
Bras@@ 14
Captain 14
Carrera 14
Ce 14
Conseil 14
Dar 14
Depor@@ 14
Director 14
Distr@@ 14
Distribu@@ 14
Ener@@ 14
Geh@@ 14
Grün@@ 14
Haus@@ 14
Kongr@@ 14
König 14
Lok@@ 14
Many 14
Mek@@ 14
Militär@@ 14
Nis@@ 14
Olympic 14
Oy@@ 14
Philipp@@ 14
Philippines 14
República 14
Route 14
République 14
Schl@@ 14
Town@@ 14
Township 14
Unternehmen 14
Wach@@ 14
Wah@@ 14
Wür@@ 14
Zer@@ 14
Zu@@ 14
abo@@ 14
addition 14
adj@@ 14
agricul@@ 14
aill@@ 14
aille 14
alan 14
alen 14
ampton 14
animal 14
anst@@ 14
ası 14
atas@@ 14
attemp@@ 14
atures 14
auch@@ 14
auf 14
axe 14
ayr@@ 14
aş@@ 14
became 14
bud@@ 14
burg@@ 14
camp 14
chev@@ 14
clav@@ 14
college 14
coloni@@ 14
conc@@ 14
consci@@ 14
conserv@@ 14
declar@@ 14
deg@@ 14
dienst 14
eber@@ 14
eder 14
edral 14
eim@@ 14
eption 14
erb@@ 14
erc@@ 14
essen 14
estra 14
estro 14
eten 14
fact 14
fall@@ 14
fav@@ 14
forc@@ 14
fro@@ 14
further 14
future 14
games 14
genes 14
haf@@ 14
haz@@ 14
heits@@ 14
hem 14
hof 14
ikan@@ 14
iker 14
illed 14
illet 14
inci 14
independ@@ 14
industry 14
introduc@@ 14
ional 14
issue 14
kamp@@ 14
kim@@ 14
kis@@ 14
kö@@ 14
leo 14
lun@@ 14
mark@@ 14
much 14
nd 14
nis@@ 14
niti@@ 14
ober@@ 14
ometr@@ 14
onga 14
perf@@ 14
physi@@ 14
pom@@ 14
prepar@@ 14
progr@@ 14
quanti@@ 14
quet 14
recogni@@ 14
regular 14
religion 14
rement 14
retr@@ 14
river 14
rom 14
royal 14
sand@@ 14
sector 14
seri@@ 14
several 14
sition 14
sol 14
started 14
tat@@ 14
tem 14
teria 14
terior 14
terms 14
thel@@ 14
tige 14
tim 14
together 14
topl@@ 14
traditional 14
tsch@@ 14
unique 14
veget@@ 14
vent 14
vill@@ 14
vot@@ 14
wed 14
week@@ 14
who@@ 14
yat 14
yk@@ 14
zu@@ 14
¥ 14
Über 14
áng 14
ör 14
ünde 14
ür 14
č 14
ħ 14
İn@@ 14
ţ@@ 14
ʁ@@ 14
Θε@@ 14
Λι@@ 14
Ξ@@ 14
Πολ@@ 14
Ψ 14
Ω@@ 14
ευ@@ 14
ην@@ 14
ιά 14
τας 14
τρ@@ 14
υρ@@ 14
До@@ 14
Ка@@ 14
Ш@@ 14
вка 14
з 14
ков@@ 14
льный 14
мо@@ 14
ний 14
ник 14
нов 14
рий 14
ру@@ 14
со@@ 14
сто@@ 14
ү@@ 14
ө@@ 14
ּ 14
ئی@@ 14
قی 14
کش@@ 14
گان@@ 14
ۆ 14
یت 14
ܢ 14
ܩ@@ 14
ܫ@@ 14
ݣ@@ 14
ރ@@ 14
ާ@@ 14
ު@@ 14
द 14
स 14
ক@@ 14
่ 14
้ 14
ོ@@ 14
ა 14
ბ@@ 14
გ@@ 14
ვ@@ 14
ẟ@@ 14
ἄ@@ 14
⇌ 14
ⴳ@@ 14
ⴷ@@ 14
ⵉ 14
ⵔ 14
〜 14
ご@@ 14
ア 14
ウ@@ 14
デ@@ 14
メ@@ 14
东@@ 14
前@@ 14
千@@ 14
年@@ 14
弘 14
後@@ 14
志@@ 14
方@@ 14
朝@@ 14
村 14
沙@@ 14
玉@@ 14
电视@@ 14
町 14
章@@ 14
紀 14
良@@ 14
道@@ 14
里 14
나@@ 14
미@@ 14
아@@ 14
우@@ 14
인@@ 14
🕰 14
Centro 13
Christoph@@ 13
Congr@@ 13
Cór@@ 13
Era 13
Francia 13
Frau@@ 13
Heim@@ 13
Kaf@@ 13
Kreis@@ 13
Lö@@ 13
Mal 13
Melbourne 13
Ped@@ 13
Salz@@ 13
Schi@@ 13
Sek@@ 13
Sey@@ 13
Sri 13
Straße 13
Sur 13
Their 13
Trab@@ 13
Wissen@@ 13
XVI 13
Xu@@ 13
Yar@@ 13
Yeni 13
adol@@ 13
afé 13
agnie 13
alar 13
alternati@@ 13
anchi 13
ancia 13
ange@@ 13
architec@@ 13
atac@@ 13
ately 13
ateur 13
attribu@@ 13
average 13
awa@@ 13
aí@@ 13
barr@@ 13
borough 13
buildings 13
bé 13
chez 13
church 13
comes 13
concep@@ 13
confl@@ 13
consid@@ 13
constitu@@ 13
developed 13
dial@@ 13
dida 13
diers 13
does 13
e. 13
eler@@ 13
emas 13
enden 13
engl@@ 13
enk@@ 13
eran 13
erre 13
estre 13
event@@ 13
every 13
exper@@ 13
fak@@ 13
fest 13
fit 13
foot@@ 13
fres@@ 13
front@@ 13
för@@ 13
git@@ 13
grad@@ 13
grup@@ 13
heav@@ 13
heb@@ 13
hik@@ 13
hours 13
ided 13
iden@@ 13
illustr@@ 13
imler 13
internationale 13
juni@@ 13
kav@@ 13
km@@ 13
ları 13
lie@@ 13
lina 13
mant@@ 13
matr@@ 13
mula 13
music@@ 13
near 13
never 13
ogle 13
opol@@ 13
oya 13
pendi@@ 13
pens@@ 13
ppe 13
protection 13
qu 13
ques@@ 13
registr@@ 13
releas@@ 13
resol@@ 13
roman 13
rue 13
rul@@ 13
scor@@ 13
sept@@ 13
sexu@@ 13
simpl@@ 13
stein@@ 13
summer 13
tari 13
terr@@ 13
tiers 13
tul@@ 13
tut@@ 13
umba 13
until 13
upe 13
uso 13
vac@@ 13
vide@@ 13
voir 13
wag@@ 13
wär@@ 13
xim@@ 13
yok@@ 13
yor 13
zia 13
zis@@ 13
¬ 13
¶ 13
È@@ 13
ám 13
ät 13
ón@@ 13
öm@@ 13
ös@@ 13
ün 13
Ā@@ 13
đ@@ 13
ğ 13
ız 13
ɡ@@ 13
ɣ@@ 13
ɾ@@ 13
ʃ@@ 13
ˌ@@ 13
Ϊ@@ 13
έρ@@ 13
αυ@@ 13
ζ 13
ισ@@ 13
να 13
ξ 13
ου@@ 13
τερ@@ 13
υν@@ 13
υσ@@ 13
Бо@@ 13
Ма@@ 13
Ха@@ 13
Ц@@ 13
би@@ 13
ер@@ 13
та 13
ә@@ 13
امی@@ 13
اوی@@ 13
سزا 13
لیل 13
مپ@@ 13
ناک 13
ولی 13
ونی@@ 13
پن@@ 13
کتب 13
کی 13
یو@@ 13
۰@@ 13
ܚ@@ 13
ܪ 13
ނ@@ 13
ता 13
श 13
ন@@ 13
ਸ@@ 13
த@@ 13
ས 13
រ@@ 13
ὶ 13
℅ 13
∧ 13
ⵖ@@ 13
ご 13
む 13
キ@@ 13
ク 13
グ@@ 13
ゲ@@ 13
ナ 13
モ@@ 13
会 13
公園 13
博 13
博@@ 13
原 13
國 13
堀@@ 13
士 13
士@@ 13
大学 13
孝@@ 13
宏 13
市@@ 13
忠@@ 13
月@@ 13
浩@@ 13
理@@ 13
的@@ 13
皇@@ 13
秋@@ 13
者 13
花 13
花@@ 13
華 13
路 13
馬@@ 13
마@@ 13
원 13
주 13
창@@ 13
︎ 13
📻 13
Academia 12
Atlanta 12
Bask@@ 12
Baz@@ 12
Bek@@ 12
Compan@@ 12
Cô@@ 12
Dah@@ 12
Demokrati@@ 12
Description 12
Evangel@@ 12
Fest@@ 12
Fot@@ 12
Fútbol 12
Gia 12
Grab@@ 12
Graf@@ 12
Gran 12
Guinea 12
Hamb@@ 12
Harv@@ 12
Hosp@@ 12
Inh@@ 12
Mara 12
Mp@@ 12
Muh@@ 12
Museo 12
Nouvelle 12
Occ@@ 12
Premio 12
Produ@@ 12
Stif@@ 12
Stim@@ 12
Unión 12
Valencia 12
abs@@ 12
absor@@ 12
adel@@ 12
administration 12
aily 12
aina 12
alcal@@ 12
alition 12
alth 12
ambi 12
amii 12
amor 12
angel@@ 12
anot@@ 12
another 12
anto 12
ao@@ 12
appar@@ 12
aque 12
arist@@ 12
around 12
atique 12
aume 12
avia 12
ayed 12
basis 12
beg@@ 12
bli@@ 12
cant@@ 12
ché 12
cide 12
commerce 12
comple@@ 12
cours 12
desc@@ 12
district 12
dungs@@ 12
eci 12
egen 12
elimin@@ 12
ensus 12
equival@@ 12
erin 12
erte 12
etas 12
events 12
ever@@ 12
evin 12
ezi 12
fica 12
fig 12
français 12
gau@@ 12
gemein@@ 12
gradu@@ 12
great 12
group@@ 12
habitants 12
higher 12
hit 12
hul@@ 12
hus@@ 12
icos 12
ilg@@ 12
increase 12
instrum@@ 12
issen 12
izer 12
jaw@@ 12
kaya 12
label 12
lagen 12
lead 12
lek@@ 12
liste 12
little 12
lí@@ 12
material 12
maxim@@ 12
nament 12
newspap@@ 12
nou@@ 12
ograf@@ 12
olan@@ 12
onte 12
ording 12
orit@@ 12
oti 12
past 12
personal 12
practice 12
prises 12
program@@ 12
redu@@ 12
relati@@ 12
rá@@ 12
rév@@ 12
sam 12
sans 12
sett@@ 12
seven 12
spor@@ 12
spre@@ 12
strateg@@ 12
students 12
subst@@ 12
suppl@@ 12
sä@@ 12
tant 12
tay@@ 12
territ@@ 12
today 12
trib@@ 12
ug 12
umi@@ 12
usi 12
utenant 12
uw@@ 12
veau 12
vehic@@ 12
weg 12
whose 12
wife 12
wissen@@ 12
with@@ 12
yard 12
yet@@ 12
zeichen 12
zey@@ 12
zw@@ 12
¨ 12
Ö 12
Üniversitesi 12
ám@@ 12
ân 12
änder 12
äs@@ 12
èse 12
étr@@ 12
études 12
õ@@ 12
ög@@ 12
öz@@ 12
úl@@ 12
üh@@ 12
ük 12
ġ@@ 12
ık@@ 12
ır 12
ź@@ 12
ǒ@@ 12
ɑ@@ 12
ʹ 12
ʻ@@ 12
ʿ@@ 12
Δι@@ 12
άδ@@ 12
άρ@@ 12
ής 12
αί@@ 12
δε@@ 12
ις 12
ολ@@ 12
ορ@@ 12
ου 12
σία 12
σα 12
ση 12
τη 12
του 12
όβ@@ 12
όν@@ 12
ών@@ 12
Ду@@ 12
Ле@@ 12
Ра@@ 12
Ру@@ 12
То@@ 12
ал@@ 12
ба@@ 12
ки 12
лович 12
ни 12
рович 12
си@@ 12
ское 12
ство 12
ти@@ 12
ф@@ 12
фе@@ 12
љ@@ 12
հ@@ 12
մ@@ 12
շ@@ 12
ր 12
ט 12
آمد@@ 12
اری@@ 12
اقتدار 12
بیان 12
تک@@ 12
لیم 12
مرزا 12
مرک@@ 12
معنی 12
ڠ 12
کلی@@ 12
کم 12
گار@@ 12
ܠ@@ 12
ދ@@ 12
त 12
त@@ 12
म 12
ট@@ 12
ল 12
ੰ@@ 12
வ@@ 12
า@@ 12
བ@@ 12
ḥ@@ 12
ṭ@@ 12
ẟ 12
∉ 12
が 12
そ@@ 12
ズ 12
ド 12
ハ@@ 12
ム 12
ロ 12
上 12
主@@ 12
人@@ 12
信 12
勝@@ 12
塚@@ 12
央 12
学@@ 12
弘@@ 12
愛@@ 12
日 12
昭 12
次 12
洋@@ 12
清 12
瀬@@ 12
社@@ 12
竹@@ 12
達@@ 12
遠@@ 12
館 12
라 12
명@@ 12
무@@ 12
선 12
선@@ 12
스 12
시@@ 12
인 12
자@@ 12
장 12
🛫 12
9. 11
According 11
Afgh@@ 11
Anto@@ 11
Azer@@ 11
Ban 11
Bas 11
Bres@@ 11
Bü@@ 11
Colomb@@ 11
Congo 11
Cumhuriyeti 11
Este 11
Giang 11
Giov@@ 11
Haus 11
Histori@@ 11
Hük@@ 11
Im 11
Kunst 11
Lehr@@ 11
Liz@@ 11
Mart 11
Mehr@@ 11
Minister@@ 11
Napo@@ 11
Nouv@@ 11
Nür@@ 11
Paragu@@ 11
Parliament 11
Pia 11
Probl@@ 11
Puerto 11
Qué@@ 11
Río 11
Rö@@ 11
Sicher@@ 11
Sozial@@ 11
Spor@@ 11
Stockh@@ 11
Wahl@@ 11
Yug@@ 11
Yük@@ 11
Zentr@@ 11
Zwe@@ 11
a. 11
agua 11
aises 11
alisation 11
ambi@@ 11
amia 11
ammlung 11
ampa 11
ampli@@ 11
anas 11
anj@@ 11
anni@@ 11
anno@@ 11
arbeit@@ 11
assist@@ 11
aum@@ 11
ausen 11
avant 11
aña 11
because 11
benef@@ 11
bibli@@ 11
bres 11
brun@@ 11
canal 11
cars 11
cath@@ 11
central 11
championship 11
chos 11
considered 11
crim@@ 11
d. 11
day@@ 11
distribution 11
economic 11
eden 11
eget@@ 11
ellschaft 11
enen 11
eses 11
estruc@@ 11
exist@@ 11
expan@@ 11
expos@@ 11
eş@@ 11
fabri@@ 11
fah@@ 11
fen 11
fis@@ 11
formed 11
four@@ 11
fut@@ 11
fé@@ 11
gros@@ 11
harmon@@ 11
hier@@ 11
hips 11
hop 11
htt@@ 11
hui 11
hun@@ 11
hut@@ 11
ident@@ 11
idos 11
iges 11
igne 11
illas 11
imbo 11
imen 11
indo 11
infer@@ 11
isses 11
issi@@ 11
iten 11
itos 11
ivo 11
iza 11
jah@@ 11
jou@@ 11
kas@@ 11
lost 11
magaz@@ 11
march@@ 11
marine 11
materi@@ 11
milit@@ 11
mot 11
motor@@ 11
neo 11
neur 11
nin@@ 11
norm@@ 11
north 11
novel 11
novel@@ 11
ockey 11
ohne 11
oine 11
oja 11
olay@@ 11
ombo 11
organis@@ 11
organiz@@ 11
parall@@ 11
parish 11
partition 11
parts 11
pio 11
placed 11
pris 11
pron@@ 11
propag@@ 11
propor@@ 11
proxim@@ 11
präs@@ 11
qué 11
rain@@ 11
recht 11
repe@@ 11
sert 11
sources 11
spect@@ 11
sti 11
stil@@ 11
stra@@ 11
suit 11
teil 11
terres@@ 11
tet 11
tham 11
them@@ 11
tions@@ 11
tir 11
turn 11
unger 11
uto 11
vel 11
volume 11
waf@@ 11
wah@@ 11
week 11
wns 11
woman 11
yal 11
yem@@ 11
yum 11
zar 11
ßen 11
â 11
ã 11
ís@@ 11
ï 11
ül 11
ć@@ 11
ık 11
ʒ 11
ʰ@@ 11
̈ 11
΄ 11
Λου@@ 11
Μαρ@@ 11
Με@@ 11
Προ@@ 11
ίσ@@ 11
ανδ@@ 11
ατ@@ 11
γι@@ 11
ησ@@ 11
κ 11
κος 11
νη 11
οφ@@ 11
πι@@ 11
ρό@@ 11
τε@@ 11
υλ@@ 11
υπ@@ 11
όρ@@ 11
Ж@@ 11
Росси@@ 11
С 11
Со@@ 11
Ф@@ 11
аль@@ 11
да 11
ев 11
кий 11
ме@@ 11
публика 11
ров 11
си 11
сла@@ 11
х 11
хи@@ 11
ъ 11
Ս@@ 11
թ@@ 11
פ 11
ابتدا 11
بری 11
دیر 11
شک@@ 11
شیر 11
مرکز 11
ویر 11
چر@@ 11
گرو@@ 11
یاب 11
ލ@@ 11
ް 11
स@@ 11
জ@@ 11
ਰ@@ 11
ச@@ 11
ా@@ 11
్ 11
್ 11
თ@@ 11
ር@@ 11
ን@@ 11
ὸ@@ 11
‡ 11
⁬ 11
ⴼ@@ 11
ぶ 11
れ@@ 11
イ 11
カ 11
キ 11
コ@@ 11
テ@@ 11
ビ@@ 11
ョ@@ 11
リ 11
ワ@@ 11
今@@ 11
克@@ 11
南 11
古@@ 11
哲@@ 11
喜@@ 11
地 11
地@@ 11
外@@ 11
宏@@ 11
少@@ 11
州市 11
広@@ 11
慎@@ 11
拳 11
教@@ 11
早@@ 11
武 11
治@@ 11
法@@ 11
波@@ 11
港@@ 11
火@@ 11
賢@@ 11
陵 11
도 11
사 11
전@@ 11
현@@ 11
Afrika 10
Ago@@ 10
Alem@@ 10
Amerika 10
Amsterdam 10
Banglad@@ 10
Biz@@ 10
Bình 10
Categ@@ 10
Chu 10
During 10
Ent@@ 10
Euro 10
Frankfurt 10
Gesch@@ 10
Hungary 10
Hö@@ 10
Ili@@ 10
Jew@@ 10
Kag@@ 10
Kenya 10
Kik@@ 10
Klo@@ 10
Kup@@ 10
Kü@@ 10
Leben 10
Lt@@ 10
Lü@@ 10
Norte 10
Partei 10
Phi 10
Rail@@ 10
Railway 10
Rural 10
Seine 10
Siv@@ 10
Sos@@ 10
Sta@@ 10
Staat@@ 10
Teatro 10
Tierra 10
Verein 10
Wolf@@ 10
Württemberg 10
aban 10
ably 10
according 10
acha 10
aciones 10
added 10
adhi 10
adul@@ 10
aje 10
alité 10
alto 10
among 10
anii 10
antage 10
anı 10
arding 10
arra 10
arse 10
ativa 10
atten@@ 10
atu@@ 10
avec 10
bach@@ 10
besch@@ 10
bourne 10
cali@@ 10
centre 10
champion 10
character 10
clos@@ 10
coming 10
commercial 10
conse@@ 10
consult@@ 10
continue 10
correc@@ 10
cut 10
deal 10
deci@@ 10
deleg@@ 10
deo 10
described 10
diction 10
dies@@ 10
dif@@ 10
divid@@ 10
dos@@ 10
dó@@ 10
ehem@@ 10
einen 10
elected 10
elections 10
emba 10
enga 10
enos 10
eras 10
exerc@@ 10
feh@@ 10
femin@@ 10
follow@@ 10
forces 10
forsch@@ 10
fully 10
goal 10
grand 10
hau@@ 10
hommes 10
houses 10
idental 10
ien@@ 10
igr@@ 10
iliano 10
illes 10
important 10
innen 10
instead 10
investig@@ 10
iran 10
isen 10
ision@@ 10
isra@@ 10
istes 10
journal 10
jus@@ 10
kik@@ 10
kum 10
kus@@ 10
laborat@@ 10
lars 10
least 10
lil@@ 10
lima 10
male 10
manif@@ 10
manus@@ 10
mara 10
maz@@ 10
migr@@ 10
military 10
mondi@@ 10
mt 10
nicht 10
nim@@ 10
ographie 10
okrati@@ 10
pay 10
pek@@ 10
period@@ 10
poin@@ 10
portation 10
portun@@ 10
ppi 10
princ@@ 10
prit 10
produced 10
rang 10
rang@@ 10
refle@@ 10
regres@@ 10
rej@@ 10
restric@@ 10
results 10
sad@@ 10
said 10
schools 10
semble 10
soon 10
sul 10
sych@@ 10
tah@@ 10
tainment 10
tang@@ 10
technique 10
tered 10
thé@@ 10
toman 10
ually 10
ubic@@ 10
ubil@@ 10
udi 10
ulia 10
usu 10
uu 10
vas 10
verl@@ 10
voy@@ 10
wers 10
yaz@@ 10
zem@@ 10
© 10
¹ 10
Österreich 10
Ü 10
âteau 10
èle 10
ép@@ 10
ô 10
õ 10
ück 10
Ā 10
Đ@@ 10
ě 10
ő 10
Ə@@ 10
ʒ@@ 10
͂ 10
Ά@@ 10
Θ 10
Κο@@ 10
Πέ@@ 10
Περ@@ 10
Πλ@@ 10
Σω@@ 10
Υ@@ 10
έν@@ 10
αθ@@ 10
απ@@ 10
δα 10
εί@@ 10
θε@@ 10
κι@@ 10
λέ@@ 10
λλ@@ 10
λος 10
λόγ@@ 10
μέ@@ 10
οπ@@ 10
πα@@ 10
πολη 10
ργ@@ 10
ρον 10
σσ@@ 10
τά@@ 10
τρι@@ 10
ό 10
Гри@@ 10
Ку@@ 10
Мо@@ 10
Москов@@ 10
Рус@@ 10
Фе@@ 10
Ю@@ 10
гор@@ 10
гу@@ 10
кая 10
лий 10
лу@@ 10
ма 10
ми 10
стро@@ 10
ха 10
ция 10
щ@@ 10
Մ@@ 10
դ@@ 10
լ@@ 10
ղ@@ 10
վ@@ 10
ֱ@@ 10
ִ 10
ָ 10
ֹ 10
׃ 10
دیث 10
ریا 10
سعید 10
سلیم 10
سمبر 10
قوانین 10
مینی 10
ندی 10
نک@@ 10
پا@@ 10
چن 10
کار 10
کاش@@ 10
کری@@ 10
کس 10
کو 10
کوش@@ 10
کون 10
ې@@ 10
۲@@ 10
ܗ@@ 10
ܙ@@ 10
अ@@ 10
न@@ 10
मो@@ 10
य@@ 10
আ@@ 10
ন 10
ৰ@@ 10
ਮ@@ 10
ਿ@@ 10
ರ@@ 10
് 10
් 10
დ@@ 10
ត 10
ὀ@@ 10
ὰ 10
‑ 10
⁩ 10
ⴱ@@ 10
コ 10
チ@@ 10
プ@@ 10
九@@ 10
井 10
京 10
仁 10
八 10
六@@ 10
加@@ 10
動@@ 10
合@@ 10
哉 10
宗@@ 10
実 10
恵@@ 10
愛 10
憲@@ 10
敦@@ 10
木 10
機@@ 10
次@@ 10
正 10
津@@ 10
浅@@ 10
浩 10
淳 10
空@@ 10
聖@@ 10
都 10
里@@ 10
間@@ 10
陽@@ 10
隆 10
飯@@ 10
광@@ 10
기@@ 10
다@@ 10
대 10
리 10
문@@ 10
박@@ 10
부 10
위@@ 10
일 10
정 10
제@@ 10
중@@ 10
희 10
🚘 10
Apr@@ 9
Ard@@ 9
Atlé@@ 9
Ağ@@ 9
Bu 9
Columb@@ 9
Cuba 9
Dak@@ 9
Dresden 9
Funk@@ 9
Garc@@ 9
Guerre 9
Gör@@ 9
Highway 9
Hockey 9
Indon@@ 9
Kirch@@ 9
Leipzig 9
Mary@@ 9
Meter 9
Mt@@ 9
Nguyễn 9
Nr. 9
Orchestra 9
Osman@@ 9
Paşa 9
Plaza 9
Por 9
Pour 9
Primera 9
Schwer@@ 9
Señ@@ 9
Tang@@ 9
Trần 9
Tube 9
USD 9
Una 9
Universidad 9
Urugu@@ 9
Werk@@ 9
administrative 9
adores 9
airman 9
akawa 9
aland 9
alian 9
along 9
ambia 9
angi 9
announced 9
apon 9
argent 9
ased 9
asim@@ 9
aten@@ 9
attach@@ 9
aving 9
awarded 9
aş 9
bao 9
below 9
bir 9
bron@@ 9
büt@@ 9
casa 9
cause 9
chall@@ 9
champi@@ 9
changes 9
chief 9
cil 9
ciones 9
competi@@ 9
composition 9
conqu@@ 9
critic@@ 9
dest@@ 9
deutscher 9
diagn@@ 9
diam@@ 9
diffic@@ 9
dimen@@ 9
disambiguation 9
distinc@@ 9
dram@@ 9
drama 9
dée 9
eces 9
echt 9
ecu@@ 9
egu@@ 9
elde 9
elek@@ 9
endel@@ 9
erh@@ 9
ested 9
etos 9
eté 9
euse 9
experi@@ 9
expres@@ 9
faire 9
feature 9
fiction 9
financial 9
find 9
fot@@ 9
genus 9
geschichte 9
gest@@ 9
gien 9
gold 9
graf@@ 9
graphie 9
générale 9
haus@@ 9
hay@@ 9
hud@@ 9
ibn 9
iev@@ 9
iken 9
included 9
independent 9
ingt 9
initial 9
insec@@ 9
install@@ 9
iny@@ 9
istem@@ 9
istique 9
istische 9
itself 9
izo 9
iş@@ 9
joint 9
justice 9
kale 9
klär@@ 9
lage 9
leben 9
licher 9
lieutenant 9
lub 9
mak 9
mang@@ 9
mani@@ 9
meeting 9
mern 9
metr@@ 9
mg@@ 9
mina 9
mitted 9
moder@@ 9
money 9
médi@@ 9
nac@@ 9
ngu@@ 9
nig 9
numer@@ 9
oire 9
ose@@ 9
osen 9
pak@@ 9
particip@@ 9
patri@@ 9
priv@@ 9
promot@@ 9
publi@@ 9
pá@@ 9
r. 9
rat@@ 9
recorded 9
released 9
religi@@ 9
requi@@ 9
respon@@ 9
runs 9
rés@@ 9
sah@@ 9
sanc@@ 9
sang 9
serve 9
ships 9
significant 9
similar 9
sind 9
sis@@ 9
sobre 9
stead 9
student 9
tad 9
taire 9
taken 9
tam 9
tane 9
theast 9
though 9
tigen 9
tiy@@ 9
tori@@ 9
tros 9
trou@@ 9
types 9
ucion@@ 9
ución 9
ume@@ 9
urb@@ 9
urban@@ 9
usse 9
uten 9
verb@@ 9
vice 9
village 9
vom 9
vote 9
wana 9
wart 9
wash@@ 9
west@@ 9
wig 9
wur@@ 9
yana 9
yav@@ 9
yay@@ 9
yen 9
yol@@ 9
zeug 9
Église 9
États 9
Ø 9
ße 9
äf@@ 9
ähr@@ 9
äts@@ 9
çi 9
ève 9
élé@@ 9
éti@@ 9
étude 9
ête 9
óng 9
üf@@ 9
üs@@ 9
ė 9
İs@@ 9
ın@@ 9
Ł@@ 9
ł 9
ő@@ 9
ǐ 9
ǔ@@ 9
ɪ 9
ʃ 9
̯ 9
Β 9
Δημή@@ 9
Μα@@ 9
Παν@@ 9
Τρ@@ 9
Χαλ@@ 9
άδα 9
ίων 9
αλλ@@ 9
αστ@@ 9
βι@@ 9
ετ@@ 9
κά@@ 9
κας 9
λά@@ 9
μά@@ 9
μβ@@ 9
ρέ@@ 9
τη@@ 9
τρα 9
χ 9
όδ@@ 9
όκ@@ 9
Ј@@ 9
Во@@ 9
Г 9
За@@ 9
К 9
Кра@@ 9
Мар@@ 9
Ор@@ 9
Ро@@ 9
Укра@@ 9
Ч@@ 9
га 9
доро@@ 9
ло 9
ля 9
ман 9
но 9
об@@ 9
пе@@ 9
пи@@ 9
са 9
се@@ 9
ту@@ 9
ты@@ 9
ур@@ 9
хо@@ 9
ци@@ 9
ч 9
ша@@ 9
њ@@ 9
ў 9
բ@@ 9
զ@@ 9
պ@@ 9
֑ 9
֖ 9
ֻ@@ 9
ך 9
انگ 9
تحقیق 9
تھ 9
جنرل 9
حکم 9
دسمبر 9
ذکر 9
زید 9
سوی 9
سیر 9
فین 9
لحاظ 9
لیس 9
مجبور 9
مرکزی 9
ٱ 9
پرا@@ 9
پل 9
پون@@ 9
چار@@ 9
چان@@ 9
کرو@@ 9
ܦ@@ 9
ܬ 9
މ@@ 9
ސ@@ 9
ި@@ 9
आ@@ 9
का@@ 9
ং@@ 9
শ@@ 9
স@@ 9
হ@@ 9
ী 9
ਰ 9
ਹ@@ 9
க@@ 9
ி 9
ง@@ 9
ད@@ 9
ུ@@ 9
ზ@@ 9
ម 9
ស@@ 9
៉ 9
ᾶ@@ 9
○ 9
✪ 9
ⵛ@@ 9
ⵡ@@ 9
ケ@@ 9
シ 9
ジ 9
ミ@@ 9
ヤ@@ 9
万@@ 9
世@@ 9
中央@@ 9
分@@ 9
君 9
国 9
場 9
家 9
富@@ 9
寺@@ 9
工@@ 9
恵 9
戦@@ 9
星 9
昭@@ 9
海 9
無@@ 9
神 9
紀@@ 9
義 9
荒@@ 9
行@@ 9
術 9
語 9
路@@ 9
野 9
院 9
風@@ 9
구@@ 9
비@@ 9
시 9
왕 9
원@@ 9
진@@ 9
태@@ 9
하@@ 9
화@@ 9
Actu@@ 8
Afghanistan 8
Ahmet 8
Although 8
Anadolu 8
Anh@@ 8
Bahn 8
Bedeutung 8
Buch 8
Bundesliga 8
Burg 8
Canadi@@ 8
Cao 8
Chrys@@ 8
Comité 8
Dez@@ 8
Elle 8
Epis@@ 8
Fak@@ 8
Familie 8
Frei@@ 8
Gemein@@ 8
Gruppe 8
Guill@@ 8
Hamburg 8
Haup@@ 8
Hek@@ 8
Herb@@ 8
Holz@@ 8
Instituto 8
Internacional 8
Kamer@@ 8
Klein@@ 8
Konstant@@ 8
Kreuz@@ 8
Köl@@ 8
Köln 8
Künst@@ 8
Later 8
Madag@@ 8
Maji 8
Mf@@ 8
Minn@@ 8
Mosk@@ 8
Municipal 8
Para 8
Pueb@@ 8
Republik 8
Restaur@@ 8
Ruh@@ 8
Sainte 8
Soh@@ 8
Sommer 8
Sow@@ 8
Uch@@ 8
Unter 8
Wirtschafts@@ 8
Yaz@@ 8
abaj@@ 8
aben 8
activities 8
affa@@ 8
ahn@@ 8
aki@@ 8
aktion 8
aliste 8
alta 8
alter 8
alter@@ 8
americano 8
anak@@ 8
andan 8
anded 8
ansa 8
antas@@ 8
anz 8
appearance 8
asked 8
asse@@ 8
atif 8
atik 8
atmos@@ 8
ayı 8
ağ 8
batt@@ 8
baz@@ 8
başı 8
betrieb@@ 8
bez@@ 8
bour@@ 8
brit@@ 8
bruch 8
built 8
came 8
candid@@ 8
cens@@ 8
chac@@ 8
chef 8
cht@@ 8
chter 8
clas@@ 8
complet@@ 8
contains 8
crisis 8
defe@@ 8
dered 8
ders@@ 8
distr@@ 8
dok@@ 8
doğan 8
droit 8
durch 8
ebook 8
eden@@ 8
ege 8
elled 8
embe 8
endant 8
entale 8
ersch@@ 8
escap@@ 8
esha 8
evidence 8
experim@@ 8
fantas@@ 8
father 8
finished 8
fique 8
font 8
forced 8
forme 8
gef@@ 8
geg@@ 8
gesellschaft 8
gol 8
grande 8
guerre 8
gö@@ 8
hak 8
hay 8
ient 8
imba 8
immedi@@ 8
inclu@@ 8
includes 8
inclus@@ 8
individual 8
ingen@@ 8
inici@@ 8
inner@@ 8
isti 8
itable 8
iw@@ 8
iß@@ 8
jap@@ 8
jed@@ 8
kah@@ 8
kat 8
kaz@@ 8
kiye 8
ký 8
lake 8
largest 8
leading 8
league 8
leitung 8
lig 8
liner 8
loi 8
macht 8
marri@@ 8
mbH 8
meter 8
ministr@@ 8
mite 8
moment 8
muda 8
nach 8
nach@@ 8
nad@@ 8
ney@@ 8
nhof 8
nine 8
nung 8
nur 8
né 8
ogne 8
operations 8
osha 8
oten 8
paral@@ 8
playing 8
politi@@ 8
poss@@ 8
prac@@ 8
premi@@ 8
preser@@ 8
previ@@ 8
provide 8
publican 8
route 8
roy@@ 8
rur@@ 8
ré 8
schaf@@ 8
sche@@ 8
schutz 8
senior 8
sich@@ 8
sif 8
simul@@ 8
sola 8
spap@@ 8
stellung 8
successful 8
taking 8
teil@@ 8
terie 8
thiop@@ 8
tiller@@ 8
took 8
tora 8
trop 8
uch 8
urban 8
usha 8
utu 8
veloc@@ 8
verein 8
verg@@ 8
victory 8
vide 8
volun@@ 8
vu@@ 8
wach@@ 8
wala 8
written 8
yam@@ 8
zim@@ 8
À 8
äh@@ 8
ätten 8
êt 8
Đại 8
ıl 8
Ş 8
ǐ@@ 8
ɐ@@ 8
ɑ 8
ɔ 8
ʰ 8
͡ 8
Κ 8
Κορ@@ 8
Μακ@@ 8
Μαυ@@ 8
Μελ@@ 8
Παπ@@ 8
Στα@@ 8
Υ 8
Ψ@@ 8
έα 8
έλ@@ 8
ίν@@ 8
ίνα 8
απε@@ 8
αύ@@ 8
εία 8
ιλ@@ 8
μι@@ 8
μπ@@ 8
οβ@@ 8
ρε@@ 8
ριά 8
ταμ@@ 8
τσ@@ 8
τσα 8
τω@@ 8
τός 8
υμ@@ 8
χα@@ 8
ως 8
όπ@@ 8
ύλ@@ 8
ύρ@@ 8
ϕ 8
Ал@@ 8
Алек@@ 8
В 8
Ва@@ 8
Го@@ 8
И 8
Лу@@ 8
Не@@ 8
О 8
Пе@@ 8
Пет@@ 8
При@@ 8
Су@@ 8
ве@@ 8
ви 8
га@@ 8
ге@@ 8
йская 8
клуб 8
лов@@ 8
ния 8
нович 8
п 8
ро 8
ского 8
слав 8
ян 8
Վ@@ 8
ך@@ 8
اؤن 8
افغان 8
افغانستان 8
الحک@@ 8
انعام 8
بری@@ 8
تلاش 8
جماعت 8
حکوم@@ 8
ریف 8
ساز 8
سنگ@@ 8
سکر@@ 8
فلسطین 8
مانی 8
مری@@ 8
معی@@ 8
ملک 8
ملی 8
منتقل 8
میر 8
نگر 8
واقعات 8
وزی@@ 8
وسطی 8
ٓ 8
ٙ 8
چل 8
ژ 8
ۇ@@ 8
یار 8
ܓ@@ 8
ܣ@@ 8
ހ@@ 8
क@@ 8
ज 8
तर@@ 8
न 8
प@@ 8
पा@@ 8
ल 8
ली 8
ভ@@ 8
ম 8
য@@ 8
শ 8
স 8
ো@@ 8
ৰ 8
ਦ@@ 8
ਾ 8
ಮ@@ 8
ན 8
ར@@ 8
ྲ@@ 8
კ@@ 8
ម@@ 8
ῷ 8
↵ 8
∨ 8
♂ 8
♠ 8
♥ 8
ⵄ@@ 8
。 8
づ@@ 8
ね@@ 8
び@@ 8
ぽ@@ 8
ゃ@@ 8
ザ@@ 8
ソ@@ 8
七@@ 8
三 8
中国 8
乃 8
代 8
作@@ 8
優@@ 8
光 8
卫@@ 8
友@@ 8
堂 8
増@@ 8
女@@ 8
宅@@ 8
安 8
希 8
年 8
廣@@ 8
彩@@ 8
德@@ 8
心 8
戸@@ 8
教 8
敬@@ 8
未@@ 8
本 8
杉@@ 8
林 8
梁 8
殿 8
气 8
氣 8
河 8
泰@@ 8
知@@ 8
祐@@ 8
经@@ 8
葉@@ 8
虎 8
衣 8
誠@@ 8
证 8
豊 8
輝 8
金 8
順@@ 8
가@@ 8
강@@ 8
고@@ 8
곽@@ 8
노@@ 8
로@@ 8
만@@ 8
부@@ 8
상@@ 8
수 8
아 8
연@@ 8
유@@ 8
의@@ 8
전 8
조 8
천@@ 8
해@@ 8
호 8
회@@ 8
훈@@ 8
（ 8
🏥 8
🚧 8
Aires 7
Alpes 7
Alter 7
Anc@@ 7
Arsenal 7
Assemb@@ 7
Ave@@ 7
Bayern 7
Blü@@ 7
Budap@@ 7
Bö@@ 7
Bürger@@ 7
Büyük 7
Cathol@@ 7
Cen@@ 7
Cep@@ 7
Championships 7
Como 7
Cá@@ 7
Dienst@@ 7
Dok@@ 7
Ecu@@ 7
Eisen@@ 7
Erst@@ 7
Erz@@ 7
Est 7
Estados 7
Estudi@@ 7
Ethiopia 7
Eğiti@@ 7
Forsch@@ 7
Forschungs@@ 7
Fren@@ 7
Grupp@@ 7
Guatemala 7
Gymnasium 7
Göl@@ 7
Gül@@ 7
Hannover 7
Hochschule 7
Hü@@ 7
Hậu 7
Ih@@ 7
Ital@@ 7
Jeux 7
Kent@@ 7
Kip@@ 7
Krieg 7
Krieg@@ 7
Kül@@ 7
Lew@@ 7
Literatur 7
Liverpool 7
Marse@@ 7
Monte@@ 7
Montr@@ 7
Ms@@ 7
Musik 7
Nh@@ 7
Nobel 7
Orch@@ 7
Oy 7
Provin@@ 7
Rek@@ 7
Rez@@ 7
Rä@@ 7
Sachsen 7
Sevilla 7
Since 7
Sold@@ 7
Sov@@ 7
Stadi@@ 7
Stell@@ 7
Sudan 7
Sä@@ 7
Sơn 7
Tier@@ 7
Tông 7
Türk@@ 7
Une 7
Univers@@ 7
Uru@@ 7
Werk 7
Wien 7
Woh@@ 7
Yugoslav@@ 7
Yun@@ 7
Zentrum 7
abeth 7
acces@@ 7
ached 7
acts 7
adapt@@ 7
aired 7
akadem@@ 7
alismus 7
alista 7
alités 7
ambre 7
anlı 7
approxim@@ 7
arac@@ 7
arak 7
arded 7
arios 7
assur@@ 7
auff@@ 7
avent@@ 7
aç 7
bare 7
become 7
beginning 7
best@@ 7
bien 7
bonne 7
bras 7
carr@@ 7
cil@@ 7
cion@@ 7
closed 7
clubs 7
cole 7
commune 7
concept 7
contro@@ 7
conv@@ 7
coul@@ 7
dah@@ 7
dari 7
dedic@@ 7
degree 7
deli@@ 7
dern 7
desp@@ 7
dig 7
dik@@ 7
disput@@ 7
duc 7
ebu 7
eines 7
either 7
elem@@ 7
elev@@ 7
enca 7
erer 7
etin 7
etts 7
excep@@ 7
fab@@ 7
famil@@ 7
families 7
fang@@ 7
fed@@ 7
federal 7
financi@@ 7
franç@@ 7
garde 7
gazet@@ 7
give 7
giy@@ 7
grade 7
gru@@ 7
gé@@ 7
général 7
gü@@ 7
hac@@ 7
hin 7
honor@@ 7
hospital 7
hous@@ 7
ibi 7
igned 7
iku 7
iline 7
income 7
incorpor@@ 7
indi 7
influence 7
ingi 7
inh 7
internet 7
interpr@@ 7
inti@@ 7
invol@@ 7
involved 7
isine 7
isons 7
issues 7
jard@@ 7
join@@ 7
jos 7
jour 7
kea 7
kem@@ 7
lık 7
mano 7
mars 7
mex@@ 7
missions 7
mitt@@ 7
mother 7
moved 7
mr@@ 7
nah@@ 7
nay 7
nomin@@ 7
nord@@ 7
né@@ 7
often 7
older 7
onales 7
onc@@ 7
onie 7
orod@@ 7
ortho@@ 7
ously 7
oğ@@ 7
pal 7
parec@@ 7
piano 7
porte 7
posterior 7
previous 7
princi@@ 7
propos@@ 7
publication 7
quan 7
quarti@@ 7
railway 7
rait 7
rar 7
reform 7
regional 7
relation 7
respectiv@@ 7
rouge 7
schaften 7
schen@@ 7
schle@@ 7
sciences 7
sens 7
sik@@ 7
simil@@ 7
sister 7
siti@@ 7
six@@ 7
songs 7
statt 7
streng@@ 7
taus@@ 7
terre 7
thought 7
ticia 7
tish 7
tiv 7
train 7
turn@@ 7
ulaire 7
umu 7
upon 7
usta@@ 7
ustri@@ 7
uza 7
uş@@ 7
visible 7
visit@@ 7
vu 7
wake 7
wanda 7
weit@@ 7
went 7
wol@@ 7
xima 7
ximo 7
yab@@ 7
yor@@ 7
zam@@ 7
zentr@@ 7
zh 7
zt 7
zum 7
zwe@@ 7
¢ 7
µ 7
Â@@ 7
É 7
ài 7
ào 7
ái 7
äch@@ 7
çe 7
çu 7
ètre 7
ém 7
étique 7
ól@@ 7
óm@@ 7
ösung 7
über 7
üc@@ 7
üst@@ 7
ınar 7
œur 7
ɐ 7
ɨ@@ 7
ɬ 7
ɾ 7
ʀ 7
̃ 7
΅ 7
ΐ@@ 7
Ζ@@ 7
Καρ@@ 7
Μο@@ 7
Π 7
Πελ@@ 7
Ρ 7
Σοφ@@ 7
Φιλ@@ 7
άβ@@ 7
άδες 7
ήνη 7
ίας 7
ίγ@@ 7
ίδας 7
ίκ@@ 7
ίλ@@ 7
ασ@@ 7
θέρ@@ 7
θν@@ 7
ιζ@@ 7
ιος 7
κλη@@ 7
λεια 7
μου 7
μύ@@ 7
ξι@@ 7
οκ@@ 7
ούλ@@ 7
πέ@@ 7
παρ@@ 7
πό@@ 7
ρού@@ 7
σκ@@ 7
σύ@@ 7
τή@@ 7
ταν@@ 7
χή 7
χος 7
ώ 7
Ад@@ 7
Александ@@ 7
Би@@ 7
Бори@@ 7
Бур@@ 7
Влади@@ 7
Владимир 7
Де@@ 7
Им@@ 7
Ме@@ 7
Н 7
По@@ 7
Се@@ 7
Ти@@ 7
Я 7
ат@@ 7
ба 7
бла@@ 7
бо@@ 7
вер@@ 7
ги@@ 7
гол 7
ду@@ 7
жи@@ 7
йн 7
ке 7
ке@@ 7
ков 7
круг 7
ля@@ 7
мен@@ 7
мон@@ 7
нови@@ 7
ное 7
ны@@ 7
от@@ 7
пат@@ 7
ре 7
ск 7
ска@@ 7
ской 7
ст 7
сь 7
ун@@ 7
эн@@ 7
ян@@ 7
ї 7
қ@@ 7
գ@@ 7
ս 7
֥ 7
ֽ@@ 7
آپ@@ 7
اسلامی 7
اِس 7
اک 7
اکبر 7
جیل 7
خلی@@ 7
دھا 7
ریب 7
زیر 7
سورج 7
شمار 7
شکل 7
عرص@@ 7
ملتا 7
ٖ@@ 7
چی@@ 7
ښ@@ 7
کریم 7
کس@@ 7
ڪ@@ 7
گزر@@ 7
گن 7
گی@@ 7
ۈ@@ 7
یوسف 7
یون@@ 7
ۗ 7
۱@@ 7
۳ 7
۹@@ 7
ܛ@@ 7
ܨ@@ 7
ަ 7
च@@ 7
बा@@ 7
मी 7
य 7
रा@@ 7
ক 7
দ 7
ன@@ 7
ப@@ 7
ు 7
ท@@ 7
འ@@ 7
ི@@ 7
ᒾ 7
ន@@ 7
Ἁ@@ 7
Ἄ@@ 7
Ἑ@@ 7
Ἰ@@ 7
ὄ@@ 7
ὕ@@ 7
‒ 7
⁧ 7
↓ 7
ⴽ@@ 7
ⵃ@@ 7
『 7
』 7
ぎ 7
ば 7
セ@@ 7
ツ@@ 7
ピ@@ 7
ラ 7
世界@@ 7
中 7
二@@ 7
亜@@ 7
伐 7
元 7
入@@ 7
全@@ 7
利@@ 7
口 7
号 7
名@@ 7
吾 7
哲 7
場@@ 7
夏@@ 7
宗 7
寺 7
屋@@ 7
希@@ 7
帝 7
府 7
式 7
张@@ 7
徐@@ 7
御@@ 7
悟 7
技@@ 7
族 7
書@@ 7
月 7
梁@@ 7
梨@@ 7
氏 7
汉@@ 7
流@@ 7
浦@@ 7
病@@ 7
百@@ 7
相@@ 7
真 7
祖 7
科@@ 7
篠@@ 7
篤@@ 7
納@@ 7
緒@@ 7
織 7
舞 7
舞@@ 7
茂 7
茶@@ 7
菜 7
華@@ 7
藤 7
言 7
貴 7
赤@@ 7
辩@@ 7
都@@ 7
酒@@ 7
长@@ 7
門@@ 7
雄@@ 7
雪@@ 7
魔@@ 7
黒@@ 7
龍 7
龙@@ 7
가 7
경 7
구 7
군 7
금@@ 7
녀 7
니@@ 7
도@@ 7
릉 7
모@@ 7
벌 7
복@@ 7
산 7
세@@ 7
에 7
우 7
은@@ 7
점 7
제 7
청@@ 7
트 7
학@@ 7
한 7
회 7
） 7
， 7
🌍 7
🕧 7
ABD 6
Amér@@ 6
Ankara 6
Bei@@ 6
Brasil 6
Braun@@ 6
Buenos 6
Böl@@ 6
Bắc 6
Castilla 6
División 6
ESCO 6
Eine 6
Ej@@ 6
Entre 6
Estado 6
Famil@@ 6
Frauen 6
Gatt@@ 6
Grenz@@ 6
Grupo 6
INSE@@ 6
Ingen@@ 6
Juli 6
Kale 6
Kari@@ 6
Kinder 6
Kommun@@ 6
Kör@@ 6
Kız@@ 6
Ligue 6
Mit 6
Mär@@ 6
México 6
München 6
Nazi 6
Nueva 6
Olí@@ 6
Origin@@ 6
Osten 6
Papua 6
Par 6
Parte@@ 6
Privat@@ 6
Quảng 6
Quốc 6
Regi@@ 6
Rica 6
Schloss 6
Serie 6
Sist@@ 6
Sociedad 6
Soviet 6
Suisse 6
Tanzania 6
Toul@@ 6
Tsch@@ 6
Tây 6
Unidos 6
Uy@@ 6
Verfass@@ 6
Verw@@ 6
Viet@@ 6
Wash@@ 6
Wur@@ 6
Yap@@ 6
Zürich 6
aam 6
absol@@ 6
achsen 6
acquired 6
across 6
additional 6
adil@@ 6
adver@@ 6
aka@@ 6
allowed 6
altar 6
alı 6
anay@@ 6
annen 6
announc@@ 6
anterior 6
appen 6
areas 6
arı 6
assistant 6
aters 6
attention 6
atı 6
auen 6
aum 6
auté 6
awe 6
bald 6
bang 6
bey@@ 6
bili@@ 6
cartes 6
celle 6
centrale 6
certain 6
cet 6
chas 6
cim@@ 6
cinéma 6
cipe 6
cito 6
claim@@ 6
compr@@ 6
condi@@ 6
consist@@ 6
contempor@@ 6
contra 6
contract 6
contribut@@ 6
create 6
critique 6
decision 6
deur 6
dici@@ 6
dini 6
dissement 6
duk@@ 6
dung 6
démoc@@ 6
eben 6
eben@@ 6
ecke 6
ectura 6
egio 6
egos 6
eigen@@ 6
ekt 6
ellas 6
emu 6
endas 6
epis@@ 6
eski 6
español 6
especially 6
establ@@ 6
estas 6
expl@@ 6
expression 6
eñ@@ 6
failed 6
famous 6
featur@@ 6
femme 6
festiv@@ 6
few 6
gang 6
ged@@ 6
gew@@ 6
going 6
hava 6
historia 6
historique 6
hup@@ 6
hé@@ 6
ickl@@ 6
imleri 6
inay@@ 6
inco 6
increased 6
infr@@ 6
inten@@ 6
invas@@ 6
iture 6
ización 6
jamais 6
jours 6
kam 6
kia 6
kip@@ 6
kräf@@ 6
köy 6
latter 6
laun@@ 6
leaving 6
lement 6
leng@@ 6
likely 6
lowing 6
lui 6
mens@@ 6
mente 6
minut@@ 6
monte 6
month 6
musical 6
nation@@ 6
near@@ 6
odi 6
odo 6
ologique 6
ongo@@ 6
onship 6
onstr@@ 6
onz@@ 6
opening 6
originally 6
origine 6
otros 6
parc 6
pendant 6
pero 6
petite 6
pied 6
places 6
polic@@ 6
politique 6
politiques 6
prak@@ 6
presented 6
professional 6
progres@@ 6
promin@@ 6
pru@@ 6
quatre 6
quer 6
quier 6
raf@@ 6
rates 6
reich 6
rek@@ 6
retur@@ 6
reve@@ 6
rien 6
riere 6
roqu@@ 6
saire 6
sala 6
schaft@@ 6
sched@@ 6
schen 6
schl@@ 6
schul@@ 6
schwar@@ 6
selec@@ 6
semi 6
sent 6
session 6
shown 6
shows 6
simple 6
south 6
sozi@@ 6
staff 6
stated 6
stations 6
strat@@ 6
stud@@ 6
studi@@ 6
succ@@ 6
sug@@ 6
taş 6
ted@@ 6
tek 6
tepe 6
teurs 6
theater 6
tif 6
tioned 6
tionn@@ 6
tip 6
tische 6
tivi@@ 6
tores 6
toria 6
towards 6
trois 6
uku@@ 6
umen 6
umia 6
umo 6
unci@@ 6
ungu 6
unu 6
uppen 6
uras 6
vend@@ 6
venir 6
vez 6
vip@@ 6
vita 6
vière 6
voix 6
wad@@ 6
wes@@ 6
woh@@ 6
worked 6
yerine 6
zant@@ 6
zas 6
zeit 6
zor@@ 6
zur@@ 6
¸ 6
Ön@@ 6
Ú@@ 6
Über@@ 6
âtre 6
äng@@ 6
änger 6
çon 6
èmes 6
éal 6
écn@@ 6
école 6
économique 6
édition 6
éré@@ 6
éta@@ 6
état 6
ñ 6
ôn 6
ôt 6
öd@@ 6
úa 6
ück@@ 6
üd@@ 6
ütz@@ 6
þ 6
ė@@ 6
ę 6
İstanbul 6
İz@@ 6
ılar 6
ısı 6
ış 6
ű@@ 6
ǎ 6
ǒ 6
ǵ@@ 6
ɒ@@ 6
ɣ 6
ɨ 6
ʔ@@ 6
ʱ 6
̓ 6
Αγ@@ 6
Καλλ@@ 6
Κερ@@ 6
Κου@@ 6
Λε@@ 6
Λευ@@ 6
Μου@@ 6
Συ@@ 6
Χρυσ@@ 6
άγ@@ 6
άνα 6
άρι 6
άρι@@ 6
άφ@@ 6
έλευ@@ 6
ές 6
ίδ@@ 6
ίζ@@ 6
ίνη 6
ίου 6
ανδρ@@ 6
γεν@@ 6
δος 6
εβ@@ 6
ισσα 6
κρατ@@ 6
κτ@@ 6
κύ@@ 6
λί@@ 6
λεύ@@ 6
μέν@@ 6
μεν@@ 6
μπο@@ 6
οί 6
ού 6
πλ@@ 6
πρ@@ 6
ραν@@ 6
ς@@ 6
σμός 6
τικ@@ 6
το 6
χώ@@ 6
όσ@@ 6
ύν@@ 6
Ђ@@ 6
Алексе@@ 6
Бал@@ 6
Вели@@ 6
Гу@@ 6
Д 6
Дон@@ 6
Иванович 6
Македо@@ 6
Но@@ 6
Отече@@ 6
Па@@ 6
Пра@@ 6
Ре@@ 6
Си@@ 6
У 6
Фу@@ 6
Цер@@ 6
Ю 6
ата@@ 6
бал@@ 6
бли@@ 6
бу@@ 6
вая 6
вый 6
го 6
государствен@@ 6
до 6
ев@@ 6
же@@ 6
институт 6
ква 6
ку@@ 6
къ@@ 6
ле 6
лов 6
лё@@ 6
ники 6
ные 6
ных 6
она@@ 6
пера@@ 6
порт 6
пу@@ 6
рас@@ 6
рез@@ 6
слав@@ 6
сп@@ 6
ста@@ 6
су@@ 6
фа@@ 6
цы 6
ческий 6
чи 6
ш 6
ша 6
ю@@ 6
ђ@@ 6
Қ@@ 6
Ө@@ 6
Բ@@ 6
Գ@@ 6
է@@ 6
ց 6
֣ 6
ارک 6
الزام 6
امیر 6
اکی@@ 6
بیت 6
تاری@@ 6
تعلیم 6
حی 6
خاندان 6
دیا 6
ستمبر 6
سلیمان 6
سین@@ 6
شاہ 6
شی 6
قدی@@ 6
لیا 6
لیز 6
مارشل 6
مسلمان 6
مسی@@ 6
منعقد 6
میل 6
نتی@@ 6
والدین 6
وزیر 6
ویل@@ 6
پاکستان 6
پلا@@ 6
چش@@ 6
کال@@ 6
کستان 6
کسی@@ 6
ڬ@@ 6
گول@@ 6
یو 6
ۥ@@ 6
ܠ 6
ީ@@ 6
ः 6
क 6
कर@@ 6
का 6
ग 6
ट 6
दा@@ 6
नि@@ 6
नेपाल 6
ब 6
मा@@ 6
लि@@ 6
ष 6
ਕ@@ 6
ਜ@@ 6
ਬ@@ 6
ੀ@@ 6
ட@@ 6
த 6
ம 6
ர 6
สุ@@ 6
ང 6
ས@@ 6
င 6
စ@@ 6
န 6
ေ@@ 6
ს 6
ხ@@ 6
ል 6
መ@@ 6
አ@@ 6
ᛋ@@ 6
ុ@@ 6
ṃ@@ 6
ἑ@@ 6
Ἠ@@ 6
ἱ@@ 6
ἴ@@ 6
ὅ@@ 6
ὰ@@ 6
ὴ 6
ὸ 6
‎ 6
₂ 6
№ 6
∅ 6
∑ 6
∩ 6
≪ 6
█ 6
◦ 6
⦁ 6
ⴷ 6
ⴼ 6
、 6
へ 6
へ@@ 6
も 6
ィ 6
ィ@@ 6
ウ 6
ェ@@ 6
ゴ@@ 6
サ 6
ズ@@ 6
ヒ@@ 6
フ 6
プ 6
ポ@@ 6
ㄷ 6
ㅇ 6
不@@ 6
中华@@ 6
中國@@ 6
中華@@ 6
丸@@ 6
人民@@ 6
佛@@ 6
作 6
保 6
修 6
倉@@ 6
優 6
党 6
公 6
兴@@ 6
兵@@ 6
剛 6
勇@@ 6
名 6
周@@ 6
嘉@@ 6
奈 6
奥@@ 6
女 6
孝 6
宇@@ 6
川 6
州@@ 6
師 6
广@@ 6
建@@ 6
弥@@ 6
形 6
彰 6
念@@ 6
成 6
我 6
房@@ 6
所 6
撃@@ 6
敏 6
斗@@ 6
斯@@ 6
晃 6
晋@@ 6
書 6
最@@ 6
會 6
朗 6
朝 6
术 6
朱@@ 6
柳@@ 6
根@@ 6
比@@ 6
沙 6
泉@@ 6
洋 6
湖 6
漢@@ 6
潔 6
甲@@ 6
皇 6
祥@@ 6
竜@@ 6
笠@@ 6
維@@ 6
綾 6
羅 6
能@@ 6
自@@ 6
航@@ 6
良 6
草@@ 6
裕 6
踊 6
辻@@ 6
通@@ 6
間 6
门 6
间@@ 6
阳 6
阳@@ 6
陳@@ 6
陽 6
隊 6
顯@@ 6
鮮 6
黄@@ 6
계@@ 6
관@@ 6
남@@ 6
는 6
단@@ 6
달 6
당 6
돌@@ 6
문 6
백@@ 6
소@@ 6
씨 6
영 6
을 6
일@@ 6
종@@ 6
최@@ 6
투@@ 6
홍@@ 6
황@@ 6
효@@ 6
🌐 6
🏐 6
🏠 6
🚒 6
🛁 6
11. 5
12. 5
18. 5
22. 5
28. 5
Abgeord@@ 5
Allem@@ 5
Amts@@ 5
Anh 5
Asociación 5
Atl@@ 5
Aus 5
Ayr@@ 5
Barcel@@ 5
Basket@@ 5
Best@@ 5
Bremen 5
Career 5
Champi@@ 5
Coupe 5
Dies@@ 5
Direk@@ 5
Dunia 5
Ende 5
Ensti@@ 5
Er 5
Erd@@ 5
Escuela 5
Ethiop@@ 5
Fach@@ 5
Frau 5
Fuß@@ 5
Für@@ 5
Gebi@@ 5
Gé@@ 5
Gök@@ 5
Gür@@ 5
Hata 5
Historic 5
Insel 5
Israeli 5
Ivoire 5
Jugend@@ 5
Kant@@ 5
Kib@@ 5
Kır@@ 5
Lage 5
Landes 5
Lebens@@ 5
Minh 5
Minnes@@ 5
Mitarbeit@@ 5
Mitte 5
Muhammed 5
Munici@@ 5
Ninh 5
Olymp@@ 5
Orden 5
Orts@@ 5
Politik 5
Poliz@@ 5
Presidente 5
Preu@@ 5
Reino 5
Rugby 5
Schule 5
Sez@@ 5
Singles 5
Sous 5
Span@@ 5
Stadt 5
Tage 5
Thanh 5
Thu@@ 5
Thái 5
Tä@@ 5
Verein@@ 5
Verte@@ 5
Vier@@ 5
Waz@@ 5
Yard@@ 5
Yay@@ 5
Yaş@@ 5
Zür@@ 5
abb@@ 5
abila 5
ablo 5
acab@@ 5
acto 5
agement 5
aham@@ 5
aison 5
akt@@ 5
almost 5
alte 5
amani 5
amen@@ 5
amento 5
américa 5
ancı 5
antu 5
army 5
arro@@ 5
artists 5
asons 5
assass@@ 5
atem@@ 5
atisti@@ 5
autonom@@ 5
autor@@ 5
avail@@ 5
avril 5
ayak@@ 5
ayar@@ 5
ayna 5
azz 5
ağı 5
battle 5
bele 5
besonder@@ 5
bisher 5
brother 5
bürger@@ 5
c. 5
canti@@ 5
cerem@@ 5
changed 5
characters 5
chini 5
cina 5
ciné@@ 5
comb@@ 5
combat 5
competition 5
completed 5
confer@@ 5
constr@@ 5
continued 5
contribu@@ 5
corps 5
correspond@@ 5
culo 5
culp@@ 5
cultur@@ 5
curité 5
curs@@ 5
defeated 5
democ@@ 5
deren 5
destroy@@ 5
deter@@ 5
deu@@ 5
difficul@@ 5
dioc@@ 5
direction 5
dispar@@ 5
distingu@@ 5
diver@@ 5
dont 5
ducation 5
dur 5
dır@@ 5
earlier 5
eaux 5
ecto 5
edil@@ 5
eig@@ 5
eight 5
eiro 5
eja 5
elea 5
elen@@ 5
ellen 5
emos 5
empl@@ 5
employ@@ 5
enced 5
eos 5
equi@@ 5
equip@@ 5
ería 5
estar 5
etzt 5
ewa 5
explic@@ 5
explo@@ 5
facil@@ 5
fahrt 5
fait 5
farm@@ 5
femmes 5
festival 5
ffen 5
followed 5
fond@@ 5
fourth 5
franc@@ 5
frau 5
funk@@ 5
futbol 5
fédér@@ 5
führ@@ 5
führung 5
für@@ 5
gende 5
gestion 5
grou@@ 5
guerra 5
gén@@ 5
hab 5
haber 5
having 5
heavy 5
hek@@ 5
hie 5
honneur 5
icha 5
idente 5
ifen 5
ikal@@ 5
ikia 5
ilan 5
impres@@ 5
inz@@ 5
ität 5
ités 5
izi 5
ión 5
jeun@@ 5
kari@@ 5
kay@@ 5
keit 5
kent 5
khi 5
kina 5
kirche 5
klein@@ 5
kub@@ 5
kup@@ 5
kör@@ 5
lai 5
laz@@ 5
leich@@ 5
lere 5
lerin 5
letzte 5
lichkeit 5
lique 5
lir 5
listed 5
livre 5
logr@@ 5
lée 5
lığı 5
maal@@ 5
majority 5
mascul@@ 5
ması 5
mee 5
mik@@ 5
miles 5
mili@@ 5
militaire 5
milli@@ 5
mim@@ 5
months 5
mostly 5
muz@@ 5
mét@@ 5
mê@@ 5
naf@@ 5
nek@@ 5
neu 5
nj@@ 5
nouvelle 5
novi@@ 5
nú@@ 5
occupation 5
oires 5
ologiques 5
onnes 5
onya 5
opo 5
opération 5
oras 5
orden 5
organisation 5
origin@@ 5
oteca 5
otra 5
parents 5
parti 5
pein@@ 5
perman@@ 5
peu 5
plu@@ 5
pok@@ 5
politik 5
positions 5
practic@@ 5
preu@@ 5
prison@@ 5
proces@@ 5
pré@@ 5
pró@@ 5
publique 5
puiss@@ 5
question 5
rail 5
realiz@@ 5
reconn@@ 5
relationship 5
remained 5
required 5
riff@@ 5
rir 5
risto 5
roi 5
rum@@ 5
sai 5
saint 5
sanat@@ 5
según 5
serie 5
sever@@ 5
sied@@ 5
siempre 5
situation 5
siè@@ 5
sometimes 5
starting 5
stel@@ 5
steri@@ 5
studio 5
subj@@ 5
subject 5
success 5
superior 5
suspen@@ 5
symb@@ 5
sız 5
tained 5
themselves 5
there@@ 5
thode 5
tier@@ 5
tigung 5
tiles 5
tober 5
toire 5
tours 5
tradition 5
trat 5
trik 5
tropical 5
tropolit@@ 5
troupes 5
tungen 5
tä@@ 5
té@@ 5
tüsü 5
uku 5
una@@ 5
urt@@ 5
vard@@ 5
venue 5
versch@@ 5
vier@@ 5
vik@@ 5
vili@@ 5
vingt 5
vit 5
vive 5
vér@@ 5
watu 5
waz@@ 5
whom 5
winning 5
yana@@ 5
yap@@ 5
yeni 5
ympi@@ 5
yol 5
zentrum 5
zus@@ 5
¡ 5
ände 5
ätte 5
äus@@ 5
ède 5
ènes 5
éni@@ 5
époque 5
évision 5
être 5
ím@@ 5
íncipe 5
ông 5
ública 5
ún 5
û 5
ülk@@ 5
üz 5
Đức 5
ĕ 5
ĕ@@ 5
ġ 5
ĭ@@ 5
ıf 5
ıy@@ 5
ļ 5
ň 5
œ 5
Şir@@ 5
şehir 5
ŭ 5
Ż 5
Ż@@ 5
Ž 5
ž 5
ƒ@@ 5
ȳ 5
ɕ 5
ʊ 5
ʋ@@ 5
ʾ@@ 5
̀ 5
̂ 5
̥ 5
Ό@@ 5
Αν@@ 5
Αντί@@ 5
Ε 5
Κυ@@ 5
Κύ@@ 5
Μ 5
Μέ@@ 5
Μεγάλ@@ 5
Μεσ@@ 5
Νικ@@ 5
Πολι@@ 5
Πύ@@ 5
άζ@@ 5
άλα 5
άνη 5
άπ@@ 5
αγι@@ 5
αδ@@ 5
αρι@@ 5
βρα@@ 5
γέν@@ 5
δρ@@ 5
δρο@@ 5
εύ@@ 5
ηδ@@ 5
ησι@@ 5
ητ@@ 5
θα 5
θαν@@ 5
θη@@ 5
ισμός 5
ιστ@@ 5
κίν@@ 5
καλ@@ 5
κη 5
κο@@ 5
κυ@@ 5
μαν@@ 5
μον@@ 5
μυ@@ 5
μφ@@ 5
νέ@@ 5
νομ@@ 5
ογ@@ 5
οπο@@ 5
ούν@@ 5
πά@@ 5
περ@@ 5
ριστ@@ 5
ριστο@@ 5
σπ@@ 5
τέ@@ 5
τή 5
ταγ@@ 5
τυ@@ 5
τύ@@ 5
υργ@@ 5
φαν@@ 5
χν@@ 5
χω@@ 5
ωνία 5
όμ@@ 5
ύ 5
І@@ 5
Александр 5
Анато@@ 5
Бу@@ 5
Василь@@ 5
Все@@ 5
Да@@ 5
Дмит@@ 5
Ио@@ 5
Ки@@ 5
Ла@@ 5
Ли@@ 5
М 5
Му@@ 5
Ни@@ 5
Никола 5
Пав@@ 5
Павел 5
Та@@ 5
Тат@@ 5
Ту@@ 5
ФК 5
Ш 5
али@@ 5
ан 5
бы@@ 5
ге 5
евна 5
ера 5
зе@@ 5
зо@@ 5
зы 5
ит@@ 5
ите@@ 5
ки@@ 5
кови@@ 5
лен@@ 5
лы@@ 5
лю@@ 5
мир@@ 5
му 5
мы@@ 5
ной 5
ны 5
ографи@@ 5
пол@@ 5
рен@@ 5
ров@@ 5
сов 5
сов@@ 5
ства 5
ственные 5
то 5
три@@ 5
тур@@ 5
ть 5
фо@@ 5
хи 5
ца 5
чен@@ 5
чки 5
ше@@ 5
ши@@ 5
ье 5
ю 5
ё@@ 5
Ե@@ 5
Կ@@ 5
Պ@@ 5
Տ@@ 5
ժ@@ 5
խ@@ 5
կ 5
ջ@@ 5
ռ@@ 5
ք@@ 5
ֵ 5
מ 5
آذرب@@ 5
اؤ 5
اسی 5
الگ 5
الہ 5
امین 5
انیا 5
اہ 5
بنی@@ 5
بیب 5
تعریف 5
تقریبا 5
جی 5
خری@@ 5
ذی@@ 5
رہ 5
سفید 5
شری@@ 5
لک@@ 5
ملاقات 5
میری 5
ولادت 5
پاس 5
ڄ@@ 5
چک@@ 5
چی 5
ڕ@@ 5
کت 5
کتاب@@ 5
کول@@ 5
کین@@ 5
گار 5
ہ@@ 5
ބ@@ 5
ं 5
ए@@ 5
कु@@ 5
को@@ 5
ख 5
ग@@ 5
ङ 5
ट@@ 5
ण 5
ति 5
ति@@ 5
दु@@ 5
दे@@ 5
ध@@ 5
नदी 5
नी 5
भ@@ 5
मे@@ 5
राज 5
ला 5
व 5
सा@@ 5
ार@@ 5
। 5
ই@@ 5
চ@@ 5
ত 5
প@@ 5
ব 5
ি 5
ਅ@@ 5
ਤ@@ 5
ਨ@@ 5
ੁ@@ 5
ੇ@@ 5
ੋ@@ 5
ன 5
ய@@ 5
న@@ 5
మ@@ 5
ಾ@@ 5
ා@@ 5
น 5
รา@@ 5
ད 5
ི 5
ခ@@ 5
შ@@ 5
ሳ@@ 5
ባ@@ 5
ይ@@ 5
ᚷ@@ 5
ᛁ@@ 5
ᛏ@@ 5
ᛖ@@ 5
ខ@@ 5
ទ@@ 5
ន 5
ប 5
ប@@ 5
យ@@ 5
រ 5
វ@@ 5
ូ@@ 5
ḗ@@ 5
Ḥ@@ 5
ḫ@@ 5
ḳ@@ 5
ṯ@@ 5
Ἔ@@ 5
ἡ 5
ἡ@@ 5
Ἡ@@ 5
Ὀ@@ 5
ὴ@@ 5
ὼ@@ 5
ῖ 5
‏ 5
‐ 5
₤ 5
₩ 5
Ⅳ 5
∀ 5
∕ 5
≫ 5
♣ 5
✓ 5
ⲙ@@ 5
々 5
す 5
ぞ@@ 5
つ 5
で 5
に 5
ほ 5
ぼ 5
よ 5
を@@ 5
ォ@@ 5
ギ@@ 5
グ 5
バ 5
ベ@@ 5
ユ@@ 5
レ 5
ヴ@@ 5
ㄱ 5
ㅅ 5
ㅍ 5
东 5
丝@@ 5
中國 5
久 5
事件 5
代@@ 5
任@@ 5
伝 5
佳@@ 5
依 5
倫@@ 5
健 5
児 5
公@@ 5
关@@ 5
出@@ 5
刀 5
刃@@ 5
分 5
剣@@ 5
助 5
勳@@ 5
史@@ 5
右@@ 5
号@@ 5
同@@ 5
后 5
呪 5
哈@@ 5
基@@ 5
塔 5
夕@@ 5
天 5
宁@@ 5
官@@ 5
宣@@ 5
室 5
密@@ 5
寛 5
寧@@ 5
寶 5
将@@ 5
岸@@ 5
嵐@@ 5
左@@ 5
幸@@ 5
度@@ 5
座 5
延@@ 5
弓 5
彰@@ 5
御 5
忍@@ 5
忠 5
急@@ 5
性@@ 5
態 5
慶@@ 5
手@@ 5
拓@@ 5
放 5
斐@@ 5
新 5
族@@ 5
春@@ 5
時@@ 5
曲 5
有限@@ 5
東 5
栄@@ 5
梅@@ 5
條@@ 5
步@@ 5
毅 5
水 5
沖@@ 5
涼@@ 5
深@@ 5
淳@@ 5
渋@@ 5
片@@ 5
物@@ 5
特@@ 5
班 5
的 5
眞@@ 5
空 5
立@@ 5
站 5
競@@ 5
精@@ 5
純@@ 5
綾@@ 5
繁 5
绸@@ 5
羅@@ 5
聡 5
肅@@ 5
能 5
菅@@ 5
蘭@@ 5
術@@ 5
衛@@ 5
見@@ 5
解@@ 5
越@@ 5
車 5
通 5
進@@ 5
郎@@ 5
部 5
関@@ 5
雅 5
霊 5
青 5
順 5
馆 5
魯@@ 5
건@@ 5
고 5
관 5
군@@ 5
굴@@ 5
달@@ 5
덕@@ 5
들@@ 5
를 5
무 5
미 5
민 5
방@@ 5
빈 5
생 5
송@@ 5
숙@@ 5
순 5
식@@ 5
안@@ 5
양@@ 5
에@@ 5
오@@ 5
왕@@ 5
요 5
운 5
임@@ 5
종 5
지 5
진 5
춘@@ 5
터@@ 5
팔@@ 5
프@@ 5
환@@ 5
후 5
７@@ 5
𐎠@@ 5
🌏 5
🎰 5
🏁 5
🏛 5
🚎 5
🚨 5
🛣 5
🛤 5
13. 4
20. 4
Akademie 4
Amérique 4
Ark@@ 4
Auf 4
Aun@@ 4
Besch@@ 4
Bev@@ 4
Bisch@@ 4
Bürgermeister 4
COVI@@ 4
Califor@@ 4
Dans 4
Denk@@ 4
Devlet 4
Dies 4
Düssel@@ 4
Eig@@ 4
Ejército 4
Erk@@ 4
Fahr@@ 4
Feb@@ 4
Fernseh@@ 4
Following 4
Geg@@ 4
Geometr@@ 4
Gord@@ 4
Guin@@ 4
Géographie 4
Hindi 4
Hinter@@ 4
Hoàng 4
Hà 4
Johann@@ 4
Kongo 4
Lincol@@ 4
Macar@@ 4
Mungu 4
Musik@@ 4
Más 4
Mül@@ 4
Ngo@@ 4
Nigeria 4
Ouest 4
Pays 4
Russ@@ 4
Russie 4
Salaam 4
Schleswig 4
Schweizer 4
Situation 4
Spiel@@ 4
Staff@@ 4
Stoc@@ 4
Studium 4
Stuttgart 4
Städ@@ 4
Sult@@ 4
TCN 4
Thánh 4
Tür@@ 4
Ufa 4
Uk@@ 4
Verfüg@@ 4
Verkehr@@ 4
Viz@@ 4
Wab@@ 4
Welt@@ 4
Wieder@@ 4
Yoh@@ 4
abab@@ 4
abilité 4
accep@@ 4
actual 4
aday 4
adet 4
adop@@ 4
adora 4
afor@@ 4
aifa 4
ailleurs 4
aliforni@@ 4
alismo 4
allow@@ 4
already 4
although 4
alık 4
ambigu@@ 4
ambu@@ 4
ambul@@ 4
américain 4
amı 4
angla@@ 4
anglais 4
anime 4
anlar 4
appr@@ 4
après 4
arca 4
armée 4
arrang@@ 4
arrière 4
arten 4
artisti@@ 4
ateurs 4
athol@@ 4
atta@@ 4
atür@@ 4
autre 4
aî@@ 4
años 4
baba 4
baj@@ 4
bajo 4
becom@@ 4
behind 4
bere@@ 4
beri 4
better 4
biy@@ 4
bul 4
bü@@ 4
bür@@ 4
campaign 4
career 4
causa 4
celebr@@ 4
census 4
cero 4
cette 4
charg@@ 4
circul@@ 4
ciudad 4
commen@@ 4
comment@@ 4
commer@@ 4
compil@@ 4
comun@@ 4
concert 4
consider@@ 4
conten@@ 4
contre 4
covered 4
created 4
cristi@@ 4
cré@@ 4
cá@@ 4
có@@ 4
daughter 4
dek 4
derg@@ 4
deriv@@ 4
derung 4
designed 4
destruc@@ 4
dete 4
deut@@ 4
did 4
dido 4
disc@@ 4
domaine 4
dose 4
duras 4
düz@@ 4
earned 4
echos 4
ecken 4
edades 4
egal 4
eit@@ 4
eln 4
emplo@@ 4
empre 4
encias 4
enfants 4
engi 4
ennung 4
ense@@ 4
entaire 4
entro 4
episode 4
erste 4
esqu@@ 4
estudio 4
etten 4
etu 4
etzung 4
eventually 4
existence 4
extra@@ 4
extrem@@ 4
faite 4
familia 4
fau@@ 4
favor@@ 4
ferro@@ 4
fest@@ 4
fie 4
fight 4
fik@@ 4
flan@@ 4
forma 4
fort@@ 4
fäl@@ 4
gal 4
gaz 4
gebi@@ 4
generally 4
geri 4
ghi 4
grand@@ 4
guar@@ 4
génér@@ 4
gül@@ 4
haa 4
hala 4
hari@@ 4
haut 4
herr@@ 4
honor 4
huy@@ 4
ichen 4
ichts@@ 4
ición 4
ieder 4
iert 4
ieved 4
ifs 4
ilen 4
imiento 4
impro@@ 4
innov@@ 4
internation@@ 4
interpre@@ 4
iria 4
islas 4
issant 4
istik 4
istischen 4
istère 4
iten@@ 4
itr@@ 4
iğ@@ 4
jeres 4
jeunes 4
jia 4
jini 4
jour@@ 4
k. 4
kais@@ 4
kana 4
kari 4
kata 4
kati@@ 4
keine 4
kent@@ 4
khi@@ 4
kiş@@ 4
klin 4
kodi 4
lac 4
lama 4
langen 4
lege 4
leurs 4
libros 4
liches 4
lige 4
lista 4
living 4
longer 4
lungs@@ 4
mab@@ 4
maf@@ 4
mainly 4
mash@@ 4
mejor 4
meng@@ 4
mento 4
mif@@ 4
mittel@@ 4
modern@@ 4
moderne 4
mondiale 4
mouvement 4
msh@@ 4
mujer 4
mère 4
médic@@ 4
même 4
names 4
neas 4
neh@@ 4
neue 4
noche 4
nuc@@ 4
numerous 4
obst@@ 4
occu@@ 4
occup@@ 4
ografia 4
omba 4
onge@@ 4
onio 4
opened 4
orf 4
orta 4
otur@@ 4
outre 4
outside 4
ouvern@@ 4
owned 4
participation 4
particularly 4
passage 4
passed 4
pendiente 4
philos@@ 4
plays 4
plut@@ 4
poder@@ 4
ported 4
presse 4
prince 4
principal 4
prior 4
produce 4
prä@@ 4
préf@@ 4
puis 4
puls@@ 4
père 4
quier@@ 4
rather 4
reas 4
rebel@@ 4
recherche 4
refer 4
referred 4
rein@@ 4
reli@@ 4
replaced 4
respons@@ 4
reste 4
resul@@ 4
returned 4
rière 4
rä@@ 4
rän@@ 4
réc@@ 4
régi@@ 4
sant@@ 4
schafts@@ 4
schn@@ 4
seh@@ 4
seig@@ 4
seis 4
sek 4
seli 4
seri 4
served 4
seur 4
sich 4
sieben 4
signific@@ 4
sinh 4
sino 4
sionn@@ 4
siy@@ 4
siz 4
sociation 4
sold 4
spons@@ 4
spéci@@ 4
statisti@@ 4
städ@@ 4
succes@@ 4
suite 4
suiv@@ 4
supported 4
symbol@@ 4
sông 4
table@@ 4
tano 4
techniques 4
teh@@ 4
teile 4
tels 4
tere 4
tete 4
thu 4
ticos 4
tish@@ 4
tière 4
tous 4
town@@ 4
traduc@@ 4
travers 4
trieb@@ 4
très 4
télé@@ 4
tér@@ 4
tü 4
tü@@ 4
ulus@@ 4
umma 4
unden 4
usage 4
usually 4
utar@@ 4
utiliz@@ 4
utsch@@ 4
vak@@ 4
vos 4
vue 4
ví@@ 4
völ@@ 4
wani 4
wann 4
wap@@ 4
wealth 4
weeks 4
werk@@ 4
wirtschaft 4
wissenschaft@@ 4
writing 4
wrote 4
ymnasium 4
yse 4
zieh@@ 4
zig 4
ziy@@ 4
zona 4
Ét@@ 4
État 4
Ñ 4
Ñ@@ 4
Öl@@ 4
áo 4
át 4
ämp@@ 4
édi@@ 4
élém@@ 4
été 4
étés 4
ême 4
île 4
ónom@@ 4
öß@@ 4
ücken 4
ühr@@ 4
ünden 4
üng@@ 4
üş@@ 4
Đồng 4
đ 4
Ħ 4
ĩ@@ 4
İk@@ 4
İsk@@ 4
İzmir 4
ım@@ 4
ız@@ 4
ıç@@ 4
ış@@ 4
şi 4
ŵ@@ 4
Ź 4
ź 4
ướng 4
ǫ@@ 4
ș 4
ɦ@@ 4
ʔ 4
ʺ 4
Έ@@ 4
Ή@@ 4
Αργ@@ 4
Αυ@@ 4
Ελ@@ 4
Κα@@ 4
Καλ@@ 4
Κολ@@ 4
Κομ@@ 4
Κύπρου 4
Μέγ@@ 4
Μαλ@@ 4
Μαν@@ 4
Μικ@@ 4
Ν 4
Ορ@@ 4
Πά@@ 4
Περι@@ 4
Σκ@@ 4
Σου@@ 4
Τρί@@ 4
Χαρ@@ 4
Χριστιαν@@ 4
άμ@@ 4
άνδ@@ 4
έφ@@ 4
ήτης 4
ίδι@@ 4
ίκη 4
αία 4
αζ@@ 4
αμ 4
αμφ@@ 4
ανθ@@ 4
αντ@@ 4
αρχος 4
αχ@@ 4
βαρ@@ 4
γκ@@ 4
γραφή 4
δέν@@ 4
δίκ@@ 4
δας 4
δο@@ 4
δοκ@@ 4
δω@@ 4
ειο 4
εσ@@ 4
εφαλ@@ 4
ηγ@@ 4
ηλ@@ 4
ημ@@ 4
ηφ@@ 4
θέν@@ 4
θύ@@ 4
ιλι@@ 4
ιο 4
ιχ@@ 4
ιώ@@ 4
και 4
καν@@ 4
κερ@@ 4
κρι@@ 4
λέγ@@ 4
λή@@ 4
λευθερ@@ 4
λλην@@ 4
μεσ@@ 4
ναι 4
νε@@ 4
νης 4
οί@@ 4
οι@@ 4
ομ@@ 4
ορκ@@ 4
ους 4
ουσ@@ 4
πατ@@ 4
πει@@ 4
πυ@@ 4
ράς 4
ρου 4
ρω@@ 4
σο@@ 4
στι@@ 4
σω@@ 4
τέρ@@ 4
τι 4
τοκ@@ 4
τον 4
των 4
υγ@@ 4
υδ@@ 4
υχ@@ 4
φιλ@@ 4
χρ@@ 4
χρόν@@ 4
ωγ@@ 4
όγ@@ 4
όπουλ@@ 4
ώνη 4
ώρα 4
Ав@@ 4
Ак@@ 4
Б 4
Бела@@ 4
Ви@@ 4
Воло@@ 4
Й 4
Кар@@ 4
Коро@@ 4
Къ@@ 4
Миха@@ 4
Мон@@ 4
На 4
Николай 4
Обще@@ 4
Пере@@ 4
Пре@@ 4
Про@@ 4
Раз@@ 4
Република 4
Российской 4
Свя@@ 4
Совет@@ 4
Т 4
Тур@@ 4
Хо@@ 4
Ша@@ 4
ак@@ 4
ани 4
ап@@ 4
бо 4
бра@@ 4
вед@@ 4
версите@@ 4
вет 4
вор@@ 4
высо@@ 4
дин 4
дне@@ 4
дру@@ 4
ет 4
за 4
зер@@ 4
зи@@ 4
из@@ 4
йн@@ 4
ками 4
кова 4
ком@@ 4
ктор 4
ление 4
лия 4
лъ@@ 4
льная 4
льский 4
миро@@ 4
мит@@ 4
му@@ 4
народ@@ 4
ние 4
нин 4
ница 4
нов@@ 4
ност 4
ня@@ 4
обо@@ 4
оло@@ 4
ори 4
по 4
под@@ 4
пор@@ 4
пре@@ 4
публика@@ 4
рав@@ 4
раз@@ 4
ран@@ 4
рат 4
ри 4
рова 4
ры@@ 4
ск@@ 4
ские 4
ско@@ 4
стан 4
сы@@ 4
ся 4
те 4
тель@@ 4
тив@@ 4
тин 4
ток 4
тор 4
фи@@ 4
ху@@ 4
ча 4
чай@@ 4
чер@@ 4
шка 4
шу@@ 4
ёл 4
ғ@@ 4
ң 4
һ@@ 4
ԓ@@ 4
Թ@@ 4
Խ@@ 4
Յ@@ 4
Ջ@@ 4
ա 4
բ 4
յ 4
ո 4
ջ 4
տ 4
ք 4
֔ 4
ֶ 4
־ 4
כ 4
اتھ 4
اسماعیل 4
الفاظ 4
اکثر 4
این 4
بنی 4
تری 4
تعلی@@ 4
تقری@@ 4
جنگ@@ 4
جوی@@ 4
خیر 4
دریا 4
دھ@@ 4
رک 4
ریل 4
زہ 4
سمیت 4
سیم 4
شاہ@@ 4
شخصی@@ 4
شید 4
شین 4
صحی@@ 4
صلی 4
صیل 4
ضی 4
عدالت 4
عقی@@ 4
عی 4
فارسی 4
قلعہ 4
قومی 4
قین 4
متی 4
میت 4
نصی@@ 4
ونگ 4
وید 4
ٕ@@ 4
ٙ@@ 4
ٹی@@ 4
چا 4
ڑ@@ 4
کلام 4
کھ@@ 4
گرام 4
گوا@@ 4
گی 4
ڷ 4
ہے 4
ۇ 4
ۍ 4
ۙ 4
ܒ 4
ܵ@@ 4
ވ@@ 4
ޖ@@ 4
ޠ@@ 4
ާ 4
ީ 4
ު 4
ँ@@ 4
उ@@ 4
कर 4
कि@@ 4
की 4
ख@@ 4
गी@@ 4
गो@@ 4
ज@@ 4
जय 4
ड 4
णी 4
तरा@@ 4
ता@@ 4
दि@@ 4
भी 4
महा@@ 4
मा 4
रा 4
री@@ 4
शा@@ 4
सी 4
हि@@ 4
ा 4
ि@@ 4
অ@@ 4
গ@@ 4
ধ 4
ু 4
ਪ@@ 4
ਬ 4
ਸ 4
਼ 4
ੀ 4
ੱ@@ 4
ੴ 4
க 4
ஜ@@ 4
ஸ 4
జ 4
ద@@ 4
ర@@ 4
ి@@ 4
ತ@@ 4
ನ@@ 4
ಿ@@ 4
ත@@ 4
ර@@ 4
ง 4
น@@ 4
ม 4
รั@@ 4
ล 4
อร 4
แ@@ 4
ག 4
ར 4
ུ 4
ོ 4
ྱ@@ 4
ဆ@@ 4
ာ@@ 4
း 4
း@@ 4
ქ@@ 4
ሪ 4
ራ 4
ስ 4
ስ@@ 4
ብ@@ 4
ት 4
ች 4
ና 4
ድ@@ 4
ግ@@ 4
ᚪ@@ 4
ង 4
ព@@ 4
ភ 4
ល@@ 4
័ 4
ᠤ@@ 4
ḍ@@ 4
ḥ 4
ṭ 4
ấn 4
ền 4
ịnh 4
ợi 4
ὁ@@ 4
​ 4
‖ 4
⅔ 4
⅛ 4
∼ 4
⊂ 4
⊆ 4
⏰ 4
♀ 4
♭ 4
⛸ 4
ⵙ 4
⸵ 4
あ 4
て 4
べ@@ 4
オ 4
ゼ@@ 4
タ 4
チ 4
ッ 4
デ 4
ネ@@ 4
ノ@@ 4
ブ 4
ペ@@ 4
ミ 4
ヤ 4
ㄴ 4
ㅇ@@ 4
ㅈ 4
ㅊ 4
ㅌ 4
丈@@ 4
世 4
中央 4
中華 4
亀@@ 4
事@@ 4
交@@ 4
伯 4
伸@@ 4
体@@ 4
例 4
便@@ 4
俊 4
兄弟 4
先@@ 4
六 4
共和@@ 4
兵 4
典 4
兼@@ 4
冒@@ 4
冨@@ 4
別@@ 4
勇 4
化@@ 4
升@@ 4
南京 4
卡@@ 4
可@@ 4
吉 4
呂 4
命@@ 4
器 4
回@@ 4
団 4
在@@ 4
圭@@ 4
壹@@ 4
夫@@ 4
奇@@ 4
威@@ 4
娘 4
字 4
孙@@ 4
守@@ 4
宙@@ 4
宮 4
対@@ 4
寿 4
尋 4
尚@@ 4
局 4
展@@ 4
岁 4
岡 4
岳 4
嶋@@ 4
左 4
巴@@ 4
带@@ 4
師@@ 4
幕@@ 4
広 4
府@@ 4
康 4
弓@@ 4
弥 4
形@@ 4
征@@ 4
後 4
悠@@ 4
慧 4
憲 4
戰爭 4
戸 4
折@@ 4
拉@@ 4
拳@@ 4
摩@@ 4
救@@ 4
敬 4
文化 4
斎 4
旗 4
朋@@ 4
服@@ 4
条 4
来@@ 4
树@@ 4
桜@@ 4
梅 4
森 4
極@@ 4
橋 4
止@@ 4
步 4
歲 4
毛@@ 4
气@@ 4
気 4
氣@@ 4
泉 4
浜@@ 4
浪@@ 4
港 4
溝@@ 4
烈 4
爆@@ 4
爱@@ 4
玄@@ 4
画 4
界@@ 4
登@@ 4
白 4
皇帝 4
盛@@ 4
省 4
知 4
福 4
科 4
秘@@ 4
稔 4
立 4
童 4
第@@ 4
等@@ 4
筒@@ 4
箕@@ 4
管理@@ 4
純 4
結@@ 4
編 4
纪@@ 4
聖 4
育@@ 4
脉 4
腑 4
航空 4
芳@@ 4
茂@@ 4
蒼@@ 4
蘭 4
蜂@@ 4
被@@ 4
西 4
親@@ 4
記@@ 4
詩@@ 4
語@@ 4
謙@@ 4
豚 4
賀@@ 4
軍 4
辰 4
近@@ 4
速@@ 4
過@@ 4
那@@ 4
郡 4
重 4
重@@ 4
銀@@ 4
長 4
門 4
開@@ 4
關@@ 4
防@@ 4
韓@@ 4
飛@@ 4
飞@@ 4
飯 4
馬 4
马@@ 4
高 4
鳥@@ 4
鳳@@ 4
黃@@ 4
黨 4
龙 4
갑 4
개@@ 4
건 4
검 4
궁 4
글 4
날 4
디 4
디@@ 4
랑@@ 4
레@@ 4
려 4
려@@ 4
밥 4
배@@ 4
보 4
복 4
블@@ 4
산@@ 4
생@@ 4
서 4
석@@ 4
순@@ 4
승@@ 4
어 4
언@@ 4
역@@ 4
예@@ 4
옥@@ 4
울 4
울@@ 4
윤@@ 4
음 4
음@@ 4
점@@ 4
준@@ 4
쥐 4
차 4
철 4
치 4
치@@ 4
타 4
토@@ 4
티 4
포@@ 4
현 4
화 4
﻿ 4
： 4
； 4
￥ 4
𒀭@@ 4
𒄩@@ 4
𒆠 4
🏡 4
🏪 4
🏬 4
🏳 4
🕑 4
🕹 4
🚪 4
21. 3
25. 3
30. 3
Akad@@ 3
Arap@@ 3
Architek@@ 3
Bakanlığı 3
Bağ@@ 3
Bei 3
Bien 3
Bis 3
Bruder 3
Buna 3
Bür@@ 3
Büyük@@ 3
Chine 3
Comme 3
Consejo 3
Dağ@@ 3
Deniz 3
Diy@@ 3
Dollar 3
Dort 3
Durch@@ 3
Dör@@ 3
Dương 3
Eins@@ 3
Entw@@ 3
Erebidae 3
Esta 3
Eurovision 3
Ferdin@@ 3
Früh@@ 3
Gebiet 3
Geometridae 3
Halk 3
Hispania 3
Hymenoptera 3
Hòa 3
Ichneum@@ 3
Ichneumonidae 3
Imperio 3
Isra@@ 3
Karnataka 3
Komit@@ 3
Kreis 3
Kuv@@ 3
Kön@@ 3
Lig 3
Linc@@ 3
Loan 3
Lond@@ 3
Ló@@ 3
Meister 3
Mundial 3
Män@@ 3
Mü@@ 3
Nhân 3
Nint@@ 3
Norman@@ 3
Oly@@ 3
Paci@@ 3
Pennsyl@@ 3
Phú 3
Polen 3
Position 3
Punk@@ 3
Rechts@@ 3
Santi@@ 3
Schauspi@@ 3
Schiff 3
Schles@@ 3
Segunda 3
Seh@@ 3
Selb@@ 3
Sich@@ 3
Sieg 3
Singapo@@ 3
Sommer@@ 3
Staffel 3
Stelle 3
Straßen@@ 3
Tanz@@ 3
Trung 3
Tân 3
Unis 3
Verwendung 3
Vladi@@ 3
Vĩnh 3
Waj@@ 3
Wohn@@ 3
Yên 3
Yüksek 3
Zu 3
Zur 3
abilidad 3
abril 3
accu@@ 3
adal@@ 3
adam@@ 3
addi@@ 3
adron 3
affaires 3
agno@@ 3
aların 3
alem@@ 3
aliy@@ 3
altitude 3
alum@@ 3
amiento 3
ampi@@ 3
anges@@ 3
angu 3
anik@@ 3
années 3
antik 3
anzi 3
aparec@@ 3
appel@@ 3
approximately 3
arily 3
asit@@ 3
atini 3
ationen 3
attr@@ 3
atwa 3
autres 3
ayd@@ 3
aître 3
año 3
bea 3
becoming 3
betr@@ 3
bila 3
bire@@ 3
bord 3
bronze 3
brought 3
bâ@@ 3
böl@@ 3
cada 3
campa@@ 3
cara 3
cargo 3
carte 3
cathol@@ 3
celles 3
chama 3
cias 3
cinq 3
cir 3
ció 3
clase 3
collabor@@ 3
collaboration 3
comman@@ 3
comme 3
commerci@@ 3
commission 3
companies 3
compet@@ 3
comte 3
condu@@ 3
conflic@@ 3
conform@@ 3
conom@@ 3
county 3
crí@@ 3
cuar@@ 3
culos 3
cé@@ 3
dak@@ 3
dass 3
dau@@ 3
debut@@ 3
decided 3
decre@@ 3
dedi@@ 3
demand@@ 3
deniz 3
descri@@ 3
después 3
deutsch 3
diente 3
dipl@@ 3
direk@@ 3
distribu@@ 3
divi@@ 3
doch 3
doctor@@ 3
doğru 3
dö@@ 3
dül@@ 3
eastern 3
efs 3
egem@@ 3
ehe 3
eher 3
ehir@@ 3
eht 3
ehör@@ 3
eign@@ 3
ekte 3
elik 3
ellement 3
elos 3
emble 3
embre 3
emper@@ 3
energ@@ 3
enl@@ 3
ennen 3
enseign@@ 3
entered 3
entre 3
enzi 3
erini 3
erras 3
erre@@ 3
esas 3
eure 3
eyi 3
eña 3
fass@@ 3
female 3
fico 3
fils 3
finale 3
finanz@@ 3
frei@@ 3
frühen 3
fuerte 3
gabe 3
gart 3
gave 3
gesi 3
gesti@@ 3
gid@@ 3
gique 3
gleich 3
grá@@ 3
gues 3
gyp@@ 3
hall@@ 3
hasa 3
hasta 3
hayat@@ 3
heit@@ 3
heiten 3
helped 3
hier 3
hif@@ 3
highest 3
himself 3
hiwa 3
hombre 3
hors 3
hospit@@ 3
häl@@ 3
hö@@ 3
ibu 3
ieh@@ 3
ierung 3
ift@@ 3
igos 3
igt 3
ilik 3
illos 3
imoine 3
importance 3
imu 3
indig@@ 3
individu@@ 3
industrial 3
industrie 3
ingly 3
insel 3
intro@@ 3
isho 3
isim@@ 3
issement 3
issen@@ 3
istas 3
ió 3
jet@@ 3
jeu 3
jeune 3
jüd@@ 3
kama 3
kani 3
kehr@@ 3
kij@@ 3
kim 3
kleine 3
kreich 3
krieg@@ 3
kuh@@ 3
kuk 3
kung 3
kız@@ 3
lado 3
lanc@@ 3
lande 3
langue 3
lanz@@ 3
lao 3
larger 3
laya 3
legisl@@ 3
leh@@ 3
libro 3
lieu 3
ligne 3
littér@@ 3
lived 3
lte 3
luk 3
luy@@ 3
lywood 3
lâm 3
länd@@ 3
lö@@ 3
lü@@ 3
lük 3
maison 3
malar@@ 3
mana 3
marqu@@ 3
marque 3
matrimonio 3
mau@@ 3
medio 3
mek 3
mek@@ 3
menos 3
metre 3
milyon 3
minute 3
mita 3
modific@@ 3
monaster@@ 3
most@@ 3
muerte 3
muh@@ 3
munici@@ 3
musique 3
màn 3
mî 3
mün@@ 3
nacional 3
narr@@ 3
nationalen 3
ndi@@ 3
neces@@ 3
neği 3
nisse 3
nombre 3
northern 3
noted 3
nouveaux 3
ografía 3
ográ@@ 3
ologne 3
ología 3
olympi@@ 3
onnen 3
onto 3
onyme 3
operated 3
ople 3
oppos@@ 3
ordre 3
ordu 3
osas 3
osos 3
otball 3
otz 3
ouver 3
particular 3
pata 3
pek 3
películas 3
personne 3
perten@@ 3
petit 3
peut 3
pflich@@ 3
pierre 3
pili 3
plans 3
plata 3
polici@@ 3
pont 3
portes 3
presid@@ 3
professionn@@ 3
propri@@ 3
provided 3
provin@@ 3
provo@@ 3
prés@@ 3
publik 3
purch@@ 3
quartier 3
quelle 3
rail@@ 3
raised 3
received 3
refu@@ 3
rem 3
remain@@ 3
rence 3
rend@@ 3
represented 3
restaur@@ 3
result@@ 3
retour 3
reven@@ 3
roul@@ 3
round@@ 3
ruh@@ 3
rut@@ 3
sage 3
sahi@@ 3
salle 3
satis@@ 3
satz 3
sau 3
schrif@@ 3
schwe@@ 3
scored 3
secund@@ 3
selected 3
selon 3
semb@@ 3
seph 3
sey@@ 3
señ@@ 3
sita 3
siz@@ 3
soit 3
solo 3
sont 3
sort 3
southern 3
soy@@ 3
spiele 3
spor 3
sprach@@ 3
steh@@ 3
stoff@@ 3
studied 3
subsequently 3
sud 3
suggest@@ 3
suj@@ 3
surviv@@ 3
tante 3
taron 3
telev@@ 3
tema 3
temas 3
tenant 3
tend 3
tep@@ 3
territori@@ 3
throughout 3
timi 3
timm@@ 3
tiques 3
titul@@ 3
tivities 3
tnis 3
tof@@ 3
topr@@ 3
tourn@@ 3
tradition@@ 3
trag 3
travail 3
travaux 3
trique 3
tritt 3
tungs@@ 3
turned 3
tware 3
tête 3
tür 3
ufu@@ 3
ulares 3
ularly 3
umbu@@ 3
undu 3
unité 3
upo 3
uridad 3
uç@@ 3
vania 3
vement 3
versions 3
verz@@ 3
vile 3
visi@@ 3
voll@@ 3
vé@@ 3
wahr@@ 3
wale 3
walt 3
wand@@ 3
wanza 3
wenn 3
werden 3
wäh@@ 3
xico 3
yard@@ 3
yeri 3
yote 3
yü@@ 3
yür@@ 3
zeit@@ 3
zial@@ 3
zoni 3
zug 3
zug@@ 3
zäh@@ 3
 3
º@@ 3
Æ 3
Ð 3
Ó 3
Öff@@ 3
Üniversit@@ 3
ánica 3
áp 3
ächs@@ 3
äre 3
ären 3
äuf@@ 3
çek@@ 3
çı 3
èque 3
écol@@ 3
éné@@ 3
épo@@ 3
éra 3
éré 3
étant 3
ên 3
ños 3
òn 3
òng 3
ói 3
ólica 3
ónimo 3
öne@@ 3
öst@@ 3
ücke 3
üm 3
üre@@ 3
üs 3
üz@@ 3
ÿ 3
Đạo 3
Định 3
ği 3
ğr@@ 3
Ħ@@ 3
İki 3
İl@@ 3
İm@@ 3
İş@@ 3
ıcı 3
ıldı 3
ını 3
ıp 3
ışı 3
ņ@@ 3
Ō 3
ř 3
ś 3
Š 3
ţ 3
ŭ@@ 3
Ÿ@@ 3
ơ 3
Ƶ 3
ǂ@@ 3
ț 3
ɡ 3
ʉ@@ 3
ʌ@@ 3
ʕ@@ 3
ʲ 3
ˁ 3
˃ 3
̊ 3
̪ 3
Άγιος 3
Άν@@ 3
Άρ@@ 3
ΐ 3
Αγίου 3
Αθη@@ 3
Αλεξ@@ 3
Αμπ@@ 3
Αρχ@@ 3
Ατ@@ 3
Βουλ@@ 3
Γαλ@@ 3
Γεωργ@@ 3
Γεώργιος 3
Δημ@@ 3
Ελλήνων 3
Ευ@@ 3
Ιερ@@ 3
Κατ@@ 3
Κρι@@ 3
Λα@@ 3
Μαρία 3
Μεγ@@ 3
Μον@@ 3
Μπ@@ 3
Να@@ 3
Παλ@@ 3
Πε@@ 3
Πορ@@ 3
Πρ@@ 3
Πρό@@ 3
Σαρ@@ 3
Στρ@@ 3
Τ 3
Τρι@@ 3
Τσ@@ 3
Φίλιπ@@ 3
Φι@@ 3
Χ 3
Ϊ 3
άκι 3
άνδρ@@ 3
άνης 3
άνθ@@ 3
άρκ@@ 3
άστ@@ 3
άχ@@ 3
έκ@@ 3
έλλ@@ 3
έπ@@ 3
έρας 3
ίβ@@ 3
ίδης 3
ίος 3
ίρ@@ 3
ίτσ@@ 3
αν 3
ανίας 3
αρ 3
αφ@@ 3
βά@@ 3
βα 3
βασ@@ 3
βο@@ 3
βολ@@ 3
γαλ@@ 3
γκα 3
γλ@@ 3
γρα@@ 3
δί@@ 3
δία 3
δης 3
δυ@@ 3
είο 3
ειδ@@ 3
ειν@@ 3
εργ@@ 3
εχ@@ 3
ητής 3
θάλασσα 3
θέ@@ 3
θεια 3
θρ@@ 3
θυμ@@ 3
ιακ@@ 3
ιγ@@ 3
ιδ@@ 3
ικό 3
κί@@ 3
καθ@@ 3
κρά@@ 3
κράτος 3
κρα@@ 3
κυν@@ 3
λεκ@@ 3
λευ@@ 3
λις 3
λλα 3
λογ@@ 3
λογία 3
λυ@@ 3
μένη 3
ματα 3
με@@ 3
μη@@ 3
μην@@ 3
μητ@@ 3
μισ@@ 3
νά@@ 3
νη@@ 3
νι@@ 3
οσ@@ 3
οτ@@ 3
ούρ@@ 3
πί@@ 3
πίσ@@ 3
πα 3
παιδ@@ 3
παν@@ 3
πε@@ 3
πεί@@ 3
πεν@@ 3
πλά@@ 3
ποί@@ 3
ποι 3
πολλ@@ 3
προς 3
πύ@@ 3
ρακ@@ 3
ρατ@@ 3
ρι 3
ριν@@ 3
σε@@ 3
σιος 3
σμ@@ 3
σμα 3
στήρι@@ 3
στασ@@ 3
στρ@@ 3
στρο 3
συν@@ 3
σχ@@ 3
σωτερ@@ 3
τέλη 3
ται 3
τζ@@ 3
τικός 3
τολ@@ 3
τρί@@ 3
τρό@@ 3
τό 3
υκ@@ 3
φαιν@@ 3
φυσ@@ 3
χει@@ 3
ψυχ@@ 3
ϊ@@ 3
όλ@@ 3
όνη 3
ώς 3
Є 3
А 3
АН 3
Бело@@ 3
Бер@@ 3
Бро@@ 3
Виктор 3
Га@@ 3
Ге@@ 3
Георги@@ 3
Ги@@ 3
Гор@@ 3
Государ@@ 3
Дани@@ 3
Е 3
Зем@@ 3
Зи@@ 3
Ива@@ 3
Иль@@ 3
Ин@@ 3
Кара@@ 3
Кол@@ 3
Крас@@ 3
Кре@@ 3
Кро@@ 3
Кур@@ 3
Л 3
Лей@@ 3
Ль@@ 3
Лю@@ 3
Михаил 3
Михай@@ 3
Мол@@ 3
Обла@@ 3
П 3
Под@@ 3
Пол@@ 3
Рос@@ 3
России 3
Серге@@ 3
Сергей 3
Сла@@ 3
Соци@@ 3
Спа@@ 3
Ста@@ 3
Тер@@ 3
Х 3
Ше@@ 3
Щ@@ 3
Ы 3
Ы@@ 3
алистиче@@ 3
библиоте@@ 3
бы 3
ват@@ 3
ве 3
вна 3
воен@@ 3
воло@@ 3
вос@@ 3
времен@@ 3
вский 3
ву@@ 3
вы@@ 3
ган 3
ган@@ 3
гент@@ 3
гер@@ 3
гла@@ 3
говор@@ 3
даль@@ 3
дар 3
дах 3
дии 3
душ@@ 3
ды 3
ева 3
ево 3
ек@@ 3
жа@@ 3
жен@@ 3
жо@@ 3
зан@@ 3
зна@@ 3
из 3
ин 3
ис@@ 3
истории 3
ить 3
йский 3
ким 3
кин 3
княз@@ 3
комитет 3
кс 3
лек@@ 3
ли 3
лый 3
ман@@ 3
мбо@@ 3
мет@@ 3
мир 3
мия 3
монасты@@ 3
мост 3
мя 3
ниче@@ 3
нова 3
ности 3
ну@@ 3
обла@@ 3
ограниче@@ 3
одо@@ 3
он 3
он@@ 3
пере@@ 3
при@@ 3
про@@ 3
публи@@ 3
рам 3
ран 3
рес@@ 3
рии 3
рова@@ 3
ры 3
рь@@ 3
ря@@ 3
сам@@ 3
сан@@ 3
санд@@ 3
сен 3
сен@@ 3
син@@ 3
ских 3
сою@@ 3
сса@@ 3
ствен@@ 3
ственный 3
сти@@ 3
стра@@ 3
сть 3
су 3
ся@@ 3
тан@@ 3
тер@@ 3
ти 3
тиче@@ 3
тов 3
той 3
тор@@ 3
ты 3
тё@@ 3
ум 3
университет 3
установ@@ 3
ут@@ 3
училище 3
ф 3
ци 3
ча@@ 3
чко 3
щ 3
ья 3
эпо@@ 3
ћ@@ 3
ў@@ 3
ҡ@@ 3
ң@@ 3
ӣ 3
ө 3
Դ@@ 3
Լ@@ 3
Ն@@ 3
Շ@@ 3
ը 3
լ 3
ղ 3
չ 3
ց@@ 3
փ@@ 3
և@@ 3
֙ 3
צ 3
״ 3
اؤن@@ 3
ائیس 3
اثرات 3
اختیار 3
ادھ@@ 3
اللہ 3
انھ@@ 3
ایل 3
بلوچ 3
بلوچستان 3
تقریباً 3
جدید 3
حقی@@ 3
خیبر 3
رنگ@@ 3
روسی 3
رکن 3
ریات 3
ریس 3
زیر@@ 3
سلی@@ 3
سنگ 3
شدید 3
عبادت 3
عظیم 3
عکس 3
عین 3
فیصل 3
لیت 3
منگ@@ 3
میدان 3
نئی 3
نجی 3
نماز 3
نگار 3
نگز 3
والی 3
وصی@@ 3
ونی 3
وہ 3
ویت 3
ٔ 3
پاب@@ 3
پارٹی 3
پال 3
پش@@ 3
پوس@@ 3
کام 3
کثیر 3
کرا@@ 3
کش 3
گجرات 3
گز@@ 3
گون 3
ڸ 3
ہن@@ 3
ۉ@@ 3
یحی@@ 3
یقی@@ 3
یک 3
یک@@ 3
ې 3
۶ 3
ܲ@@ 3
ܶ@@ 3
ܺ@@ 3
ݘ@@ 3
ތ@@ 3
ޙ@@ 3
ެ@@ 3
ंग 3
अर 3
अव@@ 3
इ@@ 3
ई@@ 3
कन 3
के 3
घ@@ 3
घु@@ 3
ची 3
जा@@ 3
टा 3
टा@@ 3
ड@@ 3
डा@@ 3
डी 3
ती 3
ती@@ 3
दी 3
ने@@ 3
पुर 3
पूर 3
फ 3
बी@@ 3
भग@@ 3
भा@@ 3
भारत 3
भारतीय 3
भूमि 3
मि@@ 3
मी@@ 3
मु@@ 3
या 3
या@@ 3
यो@@ 3
योग 3
रदेश 3
रह 3
राज@@ 3
राव@@ 3
राष 3
री 3
लो@@ 3
वि@@ 3
विक 3
श@@ 3
शाह 3
सि@@ 3
सिंह 3
हा@@ 3
हिन 3
ान 3
ी 3
ूर 3
গ 3
ঙ 3
ঞ 3
ট 3
ড 3
ণ 3
থ@@ 3
ফ@@ 3
ী@@ 3
ূ@@ 3
ਓ@@ 3
ਗ@@ 3
ਘ 3
ਲ 3
ਵ@@ 3
ண 3
ண@@ 3
ந@@ 3
ப 3
ல@@ 3
ஷ@@ 3
ீ@@ 3
ே@@ 3
ை 3
ோ@@ 3
ం@@ 3
త@@ 3
ప@@ 3
య@@ 3
వ@@ 3
ు@@ 3
ಯ@@ 3
ಿ 3
ು@@ 3
മ 3
മ@@ 3
ര@@ 3
ാ@@ 3
න@@ 3
ප@@ 3
ු@@ 3
ก@@ 3
ช 3
ช@@ 3
ญ@@ 3
ต@@ 3
พระ@@ 3
พั@@ 3
ม@@ 3
ย 3
ลา@@ 3
ว@@ 3
ส@@ 3
ห 3
หม@@ 3
อง@@ 3
ะ@@ 3
า 3
เต@@ 3
เร@@ 3
ཆ@@ 3
པ 3
མ@@ 3
ལ@@ 3
ེ@@ 3
ྐ@@ 3
ླ@@ 3
မ@@ 3
ရ@@ 3
အ@@ 3
ု@@ 3
ြ@@ 3
ე 3
მ 3
პ@@ 3
ფ@@ 3
ც@@ 3
ძ@@ 3
ሃ@@ 3
ህ@@ 3
ላ@@ 3
ም 3
ረ@@ 3
ቆ@@ 3
በ@@ 3
ን 3
ዕ@@ 3
ያ@@ 3
ገ@@ 3
ጣ@@ 3
፡ 3
ᛋ 3
ក 3
ក@@ 3
គ@@ 3
ណ 3
យ 3
ិ@@ 3
ី@@ 3
ៀ@@ 3
េ@@ 3
ែ@@ 3
ំ 3
ំ@@ 3
Ḳ@@ 3
ṃ 3
ṅ@@ 3
ṇ 3
ṓ@@ 3
ẓ@@ 3
ạng 3
ắ@@ 3
ἅ@@ 3
Ἅ@@ 3
ἕ@@ 3
ἠ@@ 3
ἶ@@ 3
ὑ@@ 3
ᾶ 3
ῡ 3
ῥ@@ 3
Ῥ@@ 3
― 3
⁦ 3
⇔ 3
∥ 3
⊃ 3
⊢ 3
␣ 3
① 3
② 3
③ 3
④ 3
◯ 3
★ 3
✈ 3
➞ 3
⬛ 3
ⲏ@@ 3
ⲓ 3
ⲓ@@ 3
ⲛ@@ 3
ⲭ@@ 3
ⴽ 3
ⵀ@@ 3
ⵛ 3
は 3
ゆ 3
れ 3
ソ 3
ダ 3
ネ 3
ノ 3
パ 3
ヘ@@ 3
ホ@@ 3
マ 3
メ 3
ヴ 3
ヶ@@ 3
ㄹ 3
ㅁ 3
ㅂ 3
ㅆ 3
ㅋ 3
ㅎ 3
ㆁ 3
中華民國 3
乃@@ 3
义@@ 3
乙@@ 3
九 3
书 3
亮 3
仰 3
仲@@ 3
伎 3
休@@ 3
优@@ 3
伝@@ 3
伯@@ 3
伸 3
位@@ 3
佑@@ 3
何 3
佳 3
侯 3
修@@ 3
儀 3
克 3
內@@ 3
兩@@ 3
内 3
写@@ 3
冬@@ 3
凱@@ 3
刘@@ 3
制@@ 3
則 3
前 3
剛@@ 3
劉@@ 3
力 3
力@@ 3
功@@ 3
加 3
助@@ 3
勉 3
北 3
北京 3
华 3
印 3
县 3
发@@ 3
叔@@ 3
可 3
台@@ 3
合 3
吴@@ 3
命 3
唐 3
商@@ 3
問 3
啓@@ 3
善 3
善@@ 3
回 3
园 3
園@@ 3
團@@ 3
坐 3
型 3
垣@@ 3
培 3
塩@@ 3
声@@ 3
复@@ 3
夏 3
夜 3
央@@ 3
夷@@ 3
好 3
妻@@ 3
妾@@ 3
姬 3
娟 3
学校 3
孫@@ 3
學@@ 3
宁 3
守 3
宋@@ 3
官 3
定@@ 3
容 3
宿 3
實 3
导@@ 3
将 3
尉 3
小 3
尔@@ 3
尾 3
岩 3
崇@@ 3
布@@ 3
并 3
庆 3
庭@@ 3
异@@ 3
張@@ 3
徳 3
德 3
心@@ 3
必@@ 3
念 3
思@@ 3
悪@@ 3
情 3
惠@@ 3
慧@@ 3
慶 3
應 3
戰 3
手 3
指@@ 3
探@@ 3
援@@ 3
支@@ 3
政 3
敏@@ 3
敦 3
斗 3
斬 3
施@@ 3
昂@@ 3
春 3
晉@@ 3
晓@@ 3
普@@ 3
晴@@ 3
暮@@ 3
末@@ 3
杏@@ 3
杨@@ 3
松 3
枫@@ 3
栗@@ 3
桂@@ 3
桃@@ 3
桥 3
梓 3
梨 3
植@@ 3
椿 3
楚 3
業 3
楽 3
樂 3
樋@@ 3
横@@ 3
機 3
歌@@ 3
歩 3
死 3
死@@ 3
母 3
気@@ 3
洪 3
洪@@ 3
渉 3
湾 3
満 3
準 3
滋 3
滿@@ 3
潘@@ 3
潤 3
濱@@ 3
爾 3
猫@@ 3
玲 3
玲@@ 3
珠 3
珠@@ 3
球 3
球@@ 3
留 3
疆 3
登 3
百 3
皆@@ 3
盆@@ 3
目 3
直 3
相 3
睿@@ 3
矢 3
矢@@ 3
研究@@ 3
礼@@ 3
秀 3
種@@ 3
稲@@ 3
突@@ 3
節 3
範 3
米 3
系@@ 3
紋 3
紗@@ 3
絶@@ 3
經 3
綬@@ 3
総@@ 3
緯@@ 3
縄@@ 3
織@@ 3
经 3
群 3
翔 3
老@@ 3
聞 3
肇 3
肇@@ 3
胡@@ 3
脈 3
臣 3
臣@@ 3
至 3
臺@@ 3
臼@@ 3
色@@ 3
苑 3
苗 3
若@@ 3
英 3
草 3
莉@@ 3
菜@@ 3
萍 3
萩@@ 3
葛@@ 3
蔣@@ 3
蔵 3
藍 3
蘇@@ 3
血@@ 3
街 3
角@@ 3
解放@@ 3
言@@ 3
記 3
諸@@ 3
議@@ 3
護@@ 3
豆 3
豊@@ 3
象 3
豪 3
賢 3
赵@@ 3
起 3
足 3
足@@ 3
跋@@ 3
軍@@ 3
輪@@ 3
逆@@ 3
透 3
連@@ 3
遊 3
邉@@ 3
那 3
邦@@ 3
醋 3
鉄@@ 3
鎮@@ 3
银@@ 3
镇 3
阪 3
际@@ 3
陈@@ 3
陵@@ 3
陶@@ 3
際 3
隠@@ 3
雀 3
集@@ 3
雨 3
電@@ 3
霊@@ 3
靈@@ 3
靖 3
面 3
鞍@@ 3
音@@ 3
风 3
鲁@@ 3
鳥 3
鳴@@ 3
鷹@@ 3
麗@@ 3
黑@@ 3
감@@ 3
게@@ 3
계 3
교 3
규@@ 3
그@@ 3
꽃@@ 3
나 3
남 3
내@@ 3
넝@@ 3
년 3
니 3
담 3
던@@ 3
독@@ 3
동 3
들 3
등@@ 3
로 3
르@@ 3
름 3
마 3
만 3
먼@@ 3
메@@ 3
목@@ 3
바@@ 3
박 3
백 3
별@@ 3
본@@ 3
북@@ 3
빔@@ 3
살@@ 3
석 3
설@@ 3
슬@@ 3
식 3
신 3
았@@ 3
양 3
엔@@ 3
여@@ 3
역 3
올@@ 3
와@@ 3
운@@ 3
위 3
잔@@ 3
죽@@ 3
준 3
직@@ 3
집@@ 3
추@@ 3
탈@@ 3
테@@ 3
통@@ 3
트@@ 3
특@@ 3
파@@ 3
포 3
피@@ 3
하 3
해 3
헌@@ 3
호@@ 3
휴@@ 3
！ 3
𐎫@@ 3
𐎼@@ 3
𒄖@@ 3
𒉡 3
𒌝@@ 3
🃏 3
🌋 3
🎮 3
🏑 3
🏒 3
🏔 3
🏖 3
🏞 3
🏟 3
🏢 3
🏴 3
🚈 3
🚉 3
🚢 3
🛂 3
🛬 3
10. 2
15. 2
16. 2
27. 2
7ء 2
Alab@@ 2
Aleks@@ 2
Als 2
Anw@@ 2
Asoci@@ 2
Außen@@ 2
Bahnhof 2
Bau 2
Başkan@@ 2
Belgique 2
Benjam@@ 2
Bere@@ 2
Bevöl@@ 2
Bretagne 2
Bundessta@@ 2
Bảo 2
Campeonato 2
Canton 2
Congreso 2
Conse@@ 2
Desp@@ 2
Después 2
Doppel@@ 2
Doğu 2
Drit@@ 2
Durant 2
Durante 2
Dân 2
Ehe 2
Eigen@@ 2
Eing@@ 2
Engl@@ 2
Ermen@@ 2
Eski 2
Espagne 2
Esto 2
Eylül 2
Fenerbahçe 2
Fuer@@ 2
Für 2
Gemeinden 2
Gesamt@@ 2
Gew@@ 2
Ghana 2
Gleich@@ 2
Gmina 2
Guatem@@ 2
Güney 2
Heimat@@ 2
Hilfe 2
Hiv@@ 2
Hán 2
Höh@@ 2
Hưng 2
Hải 2
Iglesia 2
Irak 2
Jahr@@ 2
Jahre 2
Jahrhunder@@ 2
Jahrhunderts 2
Janeiro 2
Juegos 2
Julai 2
Juni 2
Kateg@@ 2
Kig@@ 2
Kinh 2
Kirche 2
Kirchen@@ 2
Kore 2
Kultur 2
Kuu 2
Kür@@ 2
Kızıl@@ 2
Landkreis 2
Leip@@ 2
Leiter 2
Liste 2
Mashariki 2
Meister@@ 2
Menschen 2
Merkezi 2
Mitglieder 2
Muhar@@ 2
Municipal@@ 2
Mutter 2
Müh@@ 2
Müz@@ 2
Nach 2
Namen 2
Nguyên 2
Người 2
Ngọc 2
Nha 2
Noctuidae 2
Obl@@ 2
Ofic@@ 2
Okul@@ 2
Olimpiyat@@ 2
Orta 2
Osmanlı 2
Parlament@@ 2
Pero 2
Perú 2
Pfarr@@ 2
Phong 2
Phật 2
Produk@@ 2
Proz@@ 2
Prä@@ 2
Qualif@@ 2
Quan 2
Quang 2
Queens@@ 2
Raum 2
Regional@@ 2
Rus 2
Sanat@@ 2
Savaşı 2
Schiff@@ 2
Schlacht 2
Schrif@@ 2
Sie@@ 2
Situ@@ 2
Siy@@ 2
Spiel 2
Sprache 2
Süper 2
Teil 2
Thành 2
Thượng 2
Tiene 2
Tòa 2
Türkçe 2
Uganda 2
Uluslararası 2
Um 2
Umoja 2
Utur@@ 2
Vak@@ 2
Vater 2
Wali@@ 2
Wam@@ 2
Wasser 2
Weit@@ 2
Wirt@@ 2
Wirtschaft 2
Xuân 2
Yüz@@ 2
Zanz@@ 2
Zug@@ 2
Zum 2
Zusammen@@ 2
abara 2
abord 2
acak@@ 2
acional 2
acı 2
adaki 2
adına 2
afin 2
afir@@ 2
afrika 2
afu@@ 2
agric@@ 2
ahada 2
aient 2
aiss@@ 2
ajiri 2
ajwa 2
albums 2
alement 2
alidad 2
alien 2
aliment@@ 2
alipo@@ 2
alisi@@ 2
aliye@@ 2
allemand 2
alles 2
altungs@@ 2
alya 2
ambos 2
amente 2
ammen 2
amt@@ 2
andere 2
anderen 2
anh 2
ansi 2
anzia 2
anzo 2
apparaît 2
appear@@ 2
appeared 2
appel 2
apti@@ 2
aray 2
arbeit 2
arrive 2
artist@@ 2
artí@@ 2
ará 2
ases@@ 2
asik 2
astron@@ 2
asına 2
atiques 2
augment@@ 2
aussi 2
auti 2
avu 2
azim@@ 2
aştır@@ 2
bases 2
bedeut@@ 2
began 2
beginn@@ 2
bem@@ 2
bereich 2
besonders 2
besser@@ 2
bew@@ 2
beş 2
bier@@ 2
bildung 2
bilin@@ 2
bora 2
bunal 2
bö@@ 2
cabo 2
calle 2
camino 2
campo 2
canadi@@ 2
canción 2
cantante 2
cedes 2
cera 2
cerc@@ 2
chanson 2
chemin 2
chim 2
chte 2
chung 2
chú 2
ciales 2
cional 2
circ@@ 2
claimed 2
comand@@ 2
command@@ 2
como 2
compagnie 2
compens@@ 2
comté 2
conven@@ 2
coup 2
couple 2
crit 2
criti@@ 2
cuando 2
currently 2
cán@@ 2
cél@@ 2
dado 2
dair 2
daugh@@ 2
debut 2
definiti@@ 2
dej@@ 2
demi 2
denk@@ 2
dentro 2
destr@@ 2
dibu@@ 2
digung 2
dire 2
disci@@ 2
divis@@ 2
diye 2
doba 2
donn@@ 2
donne 2
donné 2
dres 2
droits 2
dua 2
durum 2
déj@@ 2
départem@@ 2
económ@@ 2
ectos 2
efforts 2
ehemaligen 2
ehen 2
ehir 2
ehri 2
einem 2
einture 2
elte 2
emente 2
endis@@ 2
endre 2
endung 2
enfr@@ 2
ennt 2
ensatz 2
enso 2
enst 2
enten 2
environ 2
ergie 2
erreich@@ 2
erten 2
escu@@ 2
eser@@ 2
eso 2
esos 2
espacio 2
española 2
essenti@@ 2
estadounidense 2
estat@@ 2
estu@@ 2
etc. 2
eures 2
exclusiv@@ 2
exter@@ 2
fabric@@ 2
fahren 2
featured 2
febrero 2
femen@@ 2
fich@@ 2
ficos 2
fille 2
fonctionn@@ 2
forts 2
founded 2
frances@@ 2
fte 2
fuerza 2
funden 2
fér@@ 2
février 2
gab 2
gaben 2
gali@@ 2
gehen 2
gek@@ 2
genre 2
getr@@ 2
geç@@ 2
gibi 2
gran 2
grenz@@ 2
große 2
gör@@ 2
hacia 2
hale 2
hali 2
hali@@ 2
haya 2
hija 2
hili 2
histór@@ 2
hoa 2
huri 2
ichten 2
iciones 2
idari 2
ideas 2
identen 2
igte 2
igual 2
ihr 2
ihre 2
ilien 2
ilim@@ 2
import@@ 2
inah@@ 2
inat@@ 2
industr@@ 2
indépend@@ 2
infan@@ 2
insan@@ 2
interior 2
interpret@@ 2
introduced 2
intér@@ 2
iones 2
iques 2
irik@@ 2
isant 2
isión 2
issent 2
istre 2
isée 2
italien@@ 2
itions 2
itze 2
izm 2
için 2
joven 2
juin 2
juli@@ 2
junto 2
kaf@@ 2
kali 2
kauf@@ 2
khai 2
kila 2
kilom@@ 2
kuj@@ 2
kundi 2
kuv@@ 2
kuw@@ 2
kuwa 2
kämp@@ 2
kê 2
kü@@ 2
kı 2
lange 2
ların 2
launched 2
layan 2
laş@@ 2
legen 2
lek 2
lerde 2
lern 2
liament 2
lider@@ 2
lieder 2
liği 2
longu@@ 2
lten 2
lungen 2
luz 2
là 2
lég@@ 2
machen 2
mais 2
maları 2
mama 2
manifest@@ 2
manos 2
marc@@ 2
mayo 2
maî@@ 2
mağ@@ 2
mbal@@ 2
meli 2
meni 2
metro 2
mey@@ 2
migu@@ 2
minin 2
mise 2
mito 2
mittee 2
modo 2
mois 2
monta@@ 2
monuments 2
mort 2
motiv@@ 2
moyenne 2
mpi@@ 2
muer@@ 2
muy 2
mz@@ 2
mée 2
música 2
mü@@ 2
müh@@ 2
nacionales 2
namo 2
nde 2
nden 2
neigh@@ 2
nek 2
nete 2
người 2
nne 2
noi 2
nord 2
norte 2
notable 2
nouveau 2
novembre 2
noviembre 2
nten 2
nun 2
nı 2
oblig@@ 2
obras 2
oce 2
octobre 2
océ@@ 2
offered 2
offs 2
ologischen 2
oloji 2
olsa 2
olu 2
olur 2
ológ@@ 2
ológico 2
onnement 2
onóm@@ 2
opera 2
opér@@ 2
oslav@@ 2
osto 2
osu 2
otro 2
ouver@@ 2
ouvrage 2
ouvre 2
oyn@@ 2
où 2
padre 2
pale 2
pant@@ 2
parte 2
partem@@ 2
partement 2
partment 2
passe 2
performed 2
perio 2
persona 2
personnes 2
pewa 2
pier@@ 2
pik 2
pobl@@ 2
polé@@ 2
populaire 2
portant 2
portr@@ 2
première 2
preuve 2
primer 2
principio 2
privil@@ 2
prix 2
produ@@ 2
programme 2
promotion 2
propi@@ 2
prove@@ 2
provincia 2
puede 2
puer@@ 2
punk@@ 2
pén@@ 2
pér@@ 2
quand 2
quay 2
qued@@ 2
rais 2
raison 2
raum 2
rağ@@ 2
regel@@ 2
rejoint 2
relativ@@ 2
relig@@ 2
religious 2
remains 2
renom@@ 2
renov@@ 2
reti@@ 2
retir@@ 2
revel@@ 2
riff 2
rural 2
russe 2
réalis@@ 2
rün@@ 2
sah 2
santé 2
schutz@@ 2
seat 2
secré@@ 2
sede 2
segunda 2
sehen 2
seit@@ 2
sement 2
septembre 2
septi@@ 2
serving 2
sicht 2
siglo 2
signe 2
singles 2
siri 2
situ@@ 2
société 2
sogen@@ 2
sona 2
sorti 2
specif@@ 2
spezi@@ 2
spiel 2
spiel@@ 2
spé@@ 2
staat@@ 2
stant@@ 2
struk@@ 2
stän@@ 2
subsequ@@ 2
supérieur 2
suz 2
takes 2
tales 2
tarak@@ 2
tener 2
teriores 2
tido 2
tierra 2
tifs 2
tischen 2
tradi@@ 2
transform@@ 2
tren@@ 2
trit@@ 2
träge 2
tù 2
tür@@ 2
ucu 2
ulan 2
uma@@ 2
umbe 2
unca 2
unid@@ 2
unidad 2
unidades 2
unkt 2
urch 2
ustos 2
uvo 2
vall@@ 2
valor 2
veaux 2
veh@@ 2
vek@@ 2
veren 2
veril@@ 2
vertret@@ 2
vidéo 2
villa 2
voi 2
voit 2
volon@@ 2
voz 2
vua 2
vuel@@ 2
vyo@@ 2
văn 2
wahili 2
waj@@ 2
wali 2
watoto 2
wert 2
wirtschaft@@ 2
wuch@@ 2
yans@@ 2
yao 2
ycidae 2
yek@@ 2
yenne 2
yesi 2
yok 2
yoğ@@ 2
yum@@ 2
yük 2
zeh@@ 2
zeich@@ 2
zey 2
zul@@ 2
zun@@ 2
zweiten 2
¿ 2
Ä 2
Ç 2
Ô 2
Ô@@ 2
Ör@@ 2
ßer@@ 2
ác 2
ánico 2
ähn@@ 2
änd@@ 2
änder@@ 2
änge 2
äuser 2
çek 2
çev@@ 2
économ@@ 2
écu@@ 2
él 2
élec@@ 2
équi@@ 2
était 2
êts 2
ình 2
ít 2
óa 2
óg@@ 2
örd@@ 2
österreich@@ 2
öğ@@ 2
ún@@ 2
ús 2
ús@@ 2
über@@ 2
üge 2
ümü 2
ünü 2
üssel@@ 2
üy@@ 2
ăng 2
ą 2
Ċ 2
ċ 2
Č 2
đe 2
Ē 2
Ē@@ 2
Ġ 2
Ġ@@ 2
Ī 2
Ī@@ 2
İ 2
İr@@ 2
ılık 2
ına 2
ında 2
ından 2
ınday@@ 2
ırı 2
ıs@@ 2
ıt 2
ızı 2
Ļ 2
Ľ@@ 2
ľ@@ 2
Ņ 2
Œ 2
œuvre 2
şe 2
şek@@ 2
şid@@ 2
Ţ@@ 2
ť 2
ũ 2
ũ@@ 2
Ū 2
ů@@ 2
ų 2
ŷ@@ 2
ż 2
ơn 2
ượng 2
ǀ@@ 2
ǧ@@ 2
Ș@@ 2
Ȳ 2
ȳ@@ 2
ɕ@@ 2
ɖ@@ 2
ɜ@@ 2
ɞ 2
ɟ@@ 2
ɯ 2
ɱ 2
ɲ@@ 2
ɴ 2
ɵ@@ 2
ʀ@@ 2
ʁ 2
ʈ@@ 2
ʦ 2
ʱ@@ 2
ʷ@@ 2
ʸ 2
ʻ 2
ʼ 2
ʼ@@ 2
ʽ@@ 2
ʿ 2
ˁ@@ 2
˓ 2
˜ 2
ˣ 2
˳ 2
̑ 2
̝ 2
̡ 2
̩ 2
̷ 2
Ͳ 2
Ύ@@ 2
Ώ@@ 2
Ανατολ@@ 2
Αντι@@ 2
Αρ@@ 2
Ασ@@ 2
Βασίλ@@ 2
Βο@@ 2
Γεωργίου 2
Γκ@@ 2
Δημοκρατία 2
Ειρ@@ 2
Ελληνική 2
Επ@@ 2
Επι@@ 2
Εργ@@ 2
Ηλ@@ 2
Κέρ@@ 2
Κλ@@ 2
Κον@@ 2
Κωνσταντίνος 2
Κόμμα 2
Κύπελλο 2
Μά@@ 2
Μητ@@ 2
Μουσείο 2
Μπο@@ 2
Νικόλα@@ 2
Νομ@@ 2
Ξ 2
Ο 2
Παγ@@ 2
Παναγ@@ 2
Πατ@@ 2
Πατρι@@ 2
Πι@@ 2
Πο@@ 2
Ποδ@@ 2
Πόλε@@ 2
Σά@@ 2
Σέρ@@ 2
Σι@@ 2
Στά@@ 2
Σταυ@@ 2
Στρατ@@ 2
Σχ@@ 2
Σύ@@ 2
Τζ@@ 2
άδια 2
άνα@@ 2
άντα 2
άπο@@ 2
άσ@@ 2
έλφ@@ 2
έν 2
έρα 2
έσ@@ 2
έχ@@ 2
έων 2
ήλ@@ 2
ήν@@ 2
ίδα 2
ίμ@@ 2
ίν 2
αίν@@ 2
αγγ@@ 2
αγόρ@@ 2
αιν@@ 2
αμπ@@ 2
ανά 2
ανά@@ 2
ανία 2
ανν@@ 2
ανο@@ 2
ανός 2
αργ@@ 2
αρκ@@ 2
ασία 2
ασσ@@ 2
ατζ@@ 2
βα@@ 2
βαλ@@ 2
βασίλ@@ 2
γει@@ 2
γμα 2
γου@@ 2
γράμ@@ 2
γράφ@@ 2
γραφ@@ 2
γυμ@@ 2
δίας 2
δαν@@ 2
δελφ@@ 2
δικ@@ 2
διν@@ 2
δρα 2
δρόμ@@ 2
είδ@@ 2
εγ@@ 2
εζ@@ 2
ει 2
εις 2
εισ@@ 2
εκ@@ 2
ελι@@ 2
εμ@@ 2
εν 2
εντ@@ 2
επ@@ 2
εως 2
ηθ@@ 2
ησε 2
θάνα@@ 2
θήκη 2
θερ@@ 2
θη 2
θρησκ@@ 2
θυ@@ 2
ιθ@@ 2
ικά 2
ική 2
ιρ@@ 2
ισσ@@ 2
καιν@@ 2
καρ@@ 2
κατ@@ 2
κε@@ 2
κης 2
κολ@@ 2
κον@@ 2
κοπος 2
κου@@ 2
κρί@@ 2
κυβερν@@ 2
κό@@ 2
λαδ@@ 2
λαμ@@ 2
λεγ@@ 2
λει@@ 2
λη 2
λη@@ 2
λιο 2
μάν@@ 2
ματ@@ 2
μαχ@@ 2
μετ@@ 2
μετά 2
μικρ@@ 2
μν@@ 2
μο@@ 2
μορ@@ 2
μουσική 2
νησ@@ 2
ντ@@ 2
νω@@ 2
ξης 2
ογέν@@ 2
ογραφία 2
οδος 2
ολογ@@ 2
ονομ@@ 2
ουλ@@ 2
ουν@@ 2
ουσα 2
ούδ@@ 2
ούμεν@@ 2
ούς 2
παρά 2
πεζ@@ 2
πν@@ 2
ποδ@@ 2
πολ@@ 2
πους 2
πόλε@@ 2
ρή@@ 2
ρία 2
ρίζ@@ 2
ρίν@@ 2
ραγ@@ 2
ρες 2
ρεύ@@ 2
ρη 2
ρισ@@ 2
ρν@@ 2
ρο 2
ροι 2
ρον@@ 2
ροφ@@ 2
σκοπ@@ 2
στά@@ 2
στα 2
σταση 2
στη@@ 2
στιαν@@ 2
στις 2
τήρ@@ 2
τής 2
ταρα@@ 2
ταυ@@ 2
τελ@@ 2
τερα 2
τες 2
τευ@@ 2
τια 2
τικά 2
τική 2
τισ@@ 2
τορα 2
του@@ 2
τού@@ 2
τρο@@ 2
τσι 2
τσι@@ 2
τω 2
υθ@@ 2
φέρ@@ 2
φλ@@ 2
φορ@@ 2
φος 2
φρ@@ 2
φυ@@ 2
φύ@@ 2
χαρ@@ 2
χη 2
χρον@@ 2
ψη 2
ωμ@@ 2
ωρ@@ 2
όμεν@@ 2
όνομ@@ 2
όπουλος 2
όρου 2
όφ@@ 2
όχ@@ 2
ύγ@@ 2
ώδ@@ 2
Ϝ 2
ϝ@@ 2
І 2
Ам@@ 2
Андрей 2
Ара@@ 2
Ах@@ 2
Бай@@ 2
Бар@@ 2
Бел@@ 2
Благо@@ 2
Бли@@ 2
Бор@@ 2
Борис 2
Българ@@ 2
България 2
Бы@@ 2
Варна 2
Василий 2
Ве@@ 2
Вла@@ 2
Ган@@ 2
Гер@@ 2
Гра@@ 2
Гро@@ 2
Гру@@ 2
Дра@@ 2
Дру@@ 2
Его 2
Же@@ 2
Жи@@ 2
Зе@@ 2
Зо@@ 2
Иван 2
Исто@@ 2
История 2
Йо@@ 2
Кам@@ 2
Кан@@ 2
Карл 2
Ке@@ 2
Коло@@ 2
Ком@@ 2
Кри@@ 2
Кры@@ 2
Ленин@@ 2
Мал@@ 2
Ман@@ 2
Мари@@ 2
Мла@@ 2
Москва 2
Национа@@ 2
Никола@@ 2
Но 2
Ново@@ 2
ОО@@ 2
Ос@@ 2
Остро@@ 2
Пан@@ 2
Петро@@ 2
Пи@@ 2
Поли@@ 2
Пред@@ 2
Республики 2
Роди@@ 2
СС 2
Село 2
Сер@@ 2
Спе@@ 2
Уни@@ 2
Университе@@ 2
Фа@@ 2
Фин@@ 2
Фран@@ 2
Френ@@ 2
Фё@@ 2
Христо@@ 2
Ху@@ 2
Ц 2
Це@@ 2
Чер@@ 2
Ши@@ 2
Шу@@ 2
Щ 2
Ь 2
Эр@@ 2
Юж@@ 2
ас@@ 2
ати@@ 2
ато@@ 2
атор 2
бан@@ 2
берегу 2
би 2
бин@@ 2
бия 2
боль@@ 2
бро@@ 2
бу 2
быть 2
вано 2
вар@@ 2
вари@@ 2
вате@@ 2
вен 2
вет@@ 2
вил 2
вла@@ 2
вод 2
воз@@ 2
вой 2
восста@@ 2
вра@@ 2
вро@@ 2
вя@@ 2
гас 2
гвар@@ 2
ги 2
год 2
гори@@ 2
город@@ 2
города 2
государственного 2
град 2
граф@@ 2
гре@@ 2
группа 2
гу 2
дам 2
дан 2
дво@@ 2
де 2
деб@@ 2
дер@@ 2
дж 2
дж@@ 2
джа@@ 2
джи 2
ди 2
дия 2
дно 2
дри@@ 2
дро@@ 2
дь@@ 2
дя@@ 2
ем@@ 2
ен@@ 2
еро@@ 2
ет@@ 2
ж 2
жав@@ 2
жение 2
жения 2
жество 2
жи 2
живо@@ 2
жур@@ 2
зан 2
зен@@ 2
зу@@ 2
зы@@ 2
иг@@ 2
ил 2
или 2
им 2
имени 2
ин@@ 2
инжен@@ 2
иска@@ 2
истори@@ 2
ита 2
ита@@ 2
итель@@ 2
йо@@ 2
йт 2
кан 2
кара@@ 2
кия 2
кове 2
кое 2
кой 2
кол@@ 2
комму@@ 2
комплекс 2
кон@@ 2
кры@@ 2
лев 2
ления 2
лиза@@ 2
лле@@ 2
лова 2
лон@@ 2
лс 2
лы 2
магни@@ 2
ме 2
меди@@ 2
международ@@ 2
метро@@ 2
мии 2
миче@@ 2
мо 2
мов 2
мой 2
мыш@@ 2
мя@@ 2
нав@@ 2
над 2
най 2
нал 2
нау@@ 2
наук 2
нах 2
ника 2
ници 2
нию 2
нового 2
ного 2
ность 2
ным 2
нява 2
ок@@ 2
они 2
они@@ 2
ора 2
от 2
офи@@ 2
пад@@ 2
памят@@ 2
пар@@ 2
пей@@ 2
пер@@ 2
писи 2
план 2
пло@@ 2
пов@@ 2
пове@@ 2
поло@@ 2
прав@@ 2
православ@@ 2
раб@@ 2
рак@@ 2
рал 2
рата 2
револю@@ 2
рена 2
риа@@ 2
рин 2
рина 2
рису@@ 2
род@@ 2
ром 2
рон@@ 2
российский 2
ру 2
рь 2
сей 2
сем@@ 2
сия 2
ском 2
смо@@ 2
со 2
собо@@ 2
сово 2
спи@@ 2
спу@@ 2
сс 2
сси@@ 2
ссии 2
ста 2
ств 2
ством 2
ству@@ 2
сте 2
сте@@ 2
сто 2
стов 2
стре@@ 2
ступ@@ 2
сты 2
сты@@ 2
сы 2
тар 2
тар@@ 2
тая 2
тек@@ 2
теле@@ 2
тин@@ 2
тия 2
тон 2
тра@@ 2
транспор@@ 2
тре@@ 2
тро@@ 2
тя@@ 2
уго@@ 2
уч@@ 2
уче@@ 2
фа 2
фла@@ 2
хан 2
хов 2
це@@ 2
центр 2
церковь 2
ции 2
цион@@ 2
цкий 2
църква 2
чев 2
чение 2
ческая 2
ческой 2
чин 2
чина 2
чно 2
чной 2
чный 2
чу@@ 2
чь 2
ше 2
школа 2
шта@@ 2
ща 2
щина 2
ый 2
ья@@ 2
эф@@ 2
юр@@ 2
ющий 2
язык 2
яй@@ 2
ё 2
ём@@ 2
ёт@@ 2
ѓ@@ 2
є 2
ј 2
ҷ@@ 2
Ө 2
Ը@@ 2
Ղ@@ 2
Ռ@@ 2
գ 2
ը@@ 2
ծ 2
ծ@@ 2
ճ 2
մ 2
ւ 2
֤ 2
ְ 2
ֳ@@ 2
ׂ 2
נ 2
׳ 2
آئر@@ 2
آگ@@ 2
ئی 2
ائی 2
ابی 2
ادہ 2
اسک@@ 2
اضی 2
افری@@ 2
العزیز 2
امری@@ 2
انداز 2
اں 2
ایرانی 2
ایسی 2
بلی 2
بلی@@ 2
تجارت 2
تحریر 2
تحریک 2
تحقی@@ 2
تربیت 2
تسلیم 2
تصنی@@ 2
تفصی@@ 2
تنظیم 2
جنوبی 2
جنگ 2
جگ@@ 2
جہ 2
حفاظت 2
حیات 2
خصوصی@@ 2
خلافت 2
دربار 2
دیق 2
راہ 2
رنگ 2
روای@@ 2
روک@@ 2
ریز 2
زیز 2
ساری 2
سری 2
سفی@@ 2
سنی@@ 2
سوی@@ 2
سپر@@ 2
شای@@ 2
شخصیات 2
شریف 2
شمالی 2
طاقت 2
عورت 2
فیض 2
قبی@@ 2
قید 2
كاؤن@@ 2
لوی 2
لہ 2
لینا 2
لیگ 2
مالی 2
ماہ 2
مبارک 2
منی 2
نومبر 2
نک 2
نہ 2
وادی 2
وک 2
ویل 2
ٷ@@ 2
ٸ@@ 2
ٹ@@ 2
ٽ@@ 2
پبل@@ 2
پری@@ 2
پن 2
پند@@ 2
پی 2
پیش@@ 2
ڀ@@ 2
ځ@@ 2
چار 2
چر 2
چند 2
ڇ@@ 2
ڢ@@ 2
ڧ@@ 2
کرو 2
کمال 2
کمان@@ 2
کمی@@ 2
کنی@@ 2
گرد 2
گزی@@ 2
گلی@@ 2
گم 2
ڳ 2
ڽ 2
ڽ@@ 2
ۀ 2
ہار@@ 2
ۋ 2
یاء 2
یاد 2
یاد@@ 2
یکم 2
ے 2
ۢ 2
ۦ 2
۴@@ 2
۷ 2
۷@@ 2
۹ 2
۽ 2
ܗ 2
ܘ 2
ܟ 2
ܳ@@ 2
ܼ@@ 2
ݙ 2
ݠ@@ 2
ݢ@@ 2
ݨ 2
ކ@@ 2
ފ@@ 2
ޯ@@ 2
ं@@ 2
ंच@@ 2
ंदर 2
अद 2
अफ 2
अम@@ 2
आर 2
इ 2
इंडिया 2
ई 2
ईश 2
उप@@ 2
ए 2
एक 2
ओ@@ 2
कम 2
कल 2
काम@@ 2
कॉ@@ 2
को 2
खान 2
गण@@ 2
गल@@ 2
गि@@ 2
चल 2
ची@@ 2
जी 2
जु@@ 2
जै@@ 2
जो@@ 2
ञ 2
ञा@@ 2
टर 2
टी 2
ठ 2
डा 2
णा@@ 2
तन 2
तम 2
तल 2
तार 2
तु 2
तु@@ 2
तू@@ 2
ते 2
थ@@ 2
थि@@ 2
दर 2
दास 2
दीन 2
दुर 2
देव@@ 2
देवी 2
धि 2
ना@@ 2
नि 2
निया 2
पत 2
पा 2
पार 2
पुरी 2
ब@@ 2
बाद 2
बिन 2
मन 2
मार 2
मै@@ 2
यास 2
रह@@ 2
रानी 2
राह 2
रिय@@ 2
रिया 2
रु@@ 2
रू@@ 2
रे@@ 2
रो 2
रोज 2
लक 2
लम 2
ळ@@ 2
वती 2
वर 2
वरी 2
विन 2
वीर 2
वे@@ 2
वेद 2
शर 2
शा 2
शि@@ 2
शिव 2
शी@@ 2
शु@@ 2
शो@@ 2
ष@@ 2
षद 2
सं@@ 2
संस 2
से 2
ह 2
ह@@ 2
हन 2
हो@@ 2
ा@@ 2
ारी 2
ु 2
ु@@ 2
ू@@ 2
े@@ 2
ै 2
ो 2
॰ 2
ঁ@@ 2
উ@@ 2
এ@@ 2
খ 2
ছ@@ 2
জ 2
ধ@@ 2
ষ 2
ষ@@ 2
হ 2
ਂ 2
ਆ@@ 2
ਖ@@ 2
ਚ@@ 2
ਟ@@ 2
ਣ 2
ਤ 2
ਭ@@ 2
ਲ@@ 2
ੂ 2
੍ 2
ા@@ 2
அ@@ 2
இ@@ 2
ங 2
ச 2
ட 2
ா 2
ை@@ 2
గ@@ 2
జ@@ 2
న 2
మ 2
ర 2
ఱ@@ 2
ల@@ 2
శ@@ 2
స 2
ి 2
ీ 2
ె@@ 2
ో@@ 2
ಗ@@ 2
ಜ 2
ಡ@@ 2
ಾ 2
ೀ 2
ು 2
ം 2
ങ 2
ന@@ 2
ര 2
വ@@ 2
ി@@ 2
ു@@ 2
ඩ@@ 2
ත 2
න 2
ම@@ 2
ය@@ 2
ර 2
ව@@ 2
ැ@@ 2
ි@@ 2
ෙ@@ 2
กร@@ 2
กี@@ 2
ข@@ 2
จ@@ 2
จำ@@ 2
ชุ@@ 2
ณ 2
ณ@@ 2
ด@@ 2
ตน 2
ตุ 2
ท 2
ป 2
ป@@ 2
ประ@@ 2
ภ@@ 2
มณฑ@@ 2
มัน 2
ยา 2
ยา@@ 2
ร 2
ราช@@ 2
ล@@ 2
ศ@@ 2
ส 2
สา@@ 2
ห@@ 2
ฬ@@ 2
อ@@ 2
อล@@ 2
อิน@@ 2
ั 2
ุ@@ 2
ู 2
ู@@ 2
เ@@ 2
เกา@@ 2
เข@@ 2
เจริ@@ 2
เชียง@@ 2
เท 2
เทศ@@ 2
ให@@ 2
ไ@@ 2
ไทย 2
็ 2
๊ 2
ນ 2
ສ@@ 2
ັ@@ 2
າ@@ 2
། 2
ཀ@@ 2
ཁ 2
ཁ@@ 2
ཅ@@ 2
ཐ@@ 2
ཚ@@ 2
ཞ@@ 2
ཟ@@ 2
ལ 2
ེ 2
ྒ@@ 2
ྟ 2
က@@ 2
စ 2
တ 2
တ@@ 2
ာ 2
ီ@@ 2
ူ 2
ံ@@ 2
ွ@@ 2
၆@@ 2
ლ 2
ნ 2
ო 2
ყ@@ 2
ჯ@@ 2
ለ 2
ሐ@@ 2
ሔ@@ 2
ሕ@@ 2
ሚ@@ 2
ማ@@ 2
ም@@ 2
ሥ@@ 2
ራ@@ 2
ር 2
ቅ@@ 2
ብ 2
ቦ@@ 2
ተ@@ 2
ቱ 2
ት@@ 2
ኃ@@ 2
ኛ 2
ኞ@@ 2
እ@@ 2
ካ@@ 2
ዘ@@ 2
ዝ@@ 2
ዮ@@ 2
ደ@@ 2
ዴ@@ 2
ᓄ@@ 2
ᓇ@@ 2
ᚠ@@ 2
ᚢ@@ 2
ᚩ@@ 2
ᚫ@@ 2
ᚱ@@ 2
ᛁ 2
ᛞ@@ 2
ឃ@@ 2
ច@@ 2
ឆ 2
ជ 2
ឌ 2
ភ@@ 2
ល 2
វ 2
ស 2
អ@@ 2
ិ 2
ី 2
ោ@@ 2
់ 2
ᠨ 2
ᡠ@@ 2
ᱟ@@ 2
ᱤ 2
ᵊ 2
ᵻ@@ 2
ḗ 2
ḱ@@ 2
ṛ@@ 2
Ṣ@@ 2
ạc 2
ạn 2
ần 2
ận 2
ằng 2
ẽ 2
ệt 2
ệu 2
ổi 2
Ἕ@@ 2
Ἥ@@ 2
ἱ 2
ἵ@@ 2
ἷ@@ 2
Ἱ@@ 2
Ἴ@@ 2
Ἵ@@ 2
Ὑ@@ 2
Ὠ@@ 2
ᾱ 2
ῆ 2
⁹ 2
ⁿ 2
₀ 2
₁ 2
℃ 2
℠ 2
⅓ 2
⇓ 2
∃ 2
∇ 2
∓ 2
∝ 2
⊕ 2
⊨ 2
⑤ 2
─ 2
◄ 2
◇ 2
◾ 2
☃ 2
☮ 2
♡ 2
♯ 2
⛱ 2
⛽ 2
✖ 2
✦ 2
✧ 2
ⲁ@@ 2
ⲉ@@ 2
ⲙ 2
ⲛ 2
ⲣ@@ 2
ⲥ@@ 2
ⴱ 2
ⴳ 2
ⴴ@@ 2
ⵅ@@ 2
ⵇ@@ 2
ⵊ@@ 2
ⵍ 2
ⵎ 2
ⵓ 2
ⵕ@@ 2
ⵟ@@ 2
ⵣ 2
ⵥ@@ 2
〒 2
〖 2
〗 2
せ 2
ぬ@@ 2
ね 2
ふ 2
を 2
ァ 2
ゥ@@ 2
ケ 2
ザ 2
ツ 2
テ 2
ヌ@@ 2
ハ 2
ベ 2
ホ 2
ャ 2
ュ 2
ヨ@@ 2
ワ 2
ㄲ 2
ㄸ 2
ㅃ 2
ㅉ 2
ㅡ 2
ㅿ 2
丁@@ 2
丈 2
下 2
与@@ 2
世纪 2
丘 2
中华人民@@ 2
中心 2
丸 2
丹@@ 2
主义 2
主教 2
义 2
乌@@ 2
乐 2
乐@@ 2
也@@ 2
乡 2
乾@@ 2
争 2
事 2
于 2
云 2
五 2
亡 2
亮@@ 2
人民 2
今 2
仟 2
以@@ 2
份@@ 2
伍 2
伏@@ 2
伦 2
位 2
佐 2
体 2
佰 2
侯@@ 2
便 2
倉 2
個@@ 2
倍@@ 2
傳@@ 2
公司 2
兰@@ 2
円 2
円@@ 2
再@@ 2
军 2
凰 2
凱 2
刑@@ 2
列 2
列@@ 2
利 2
别@@ 2
刮@@ 2
制 2
則@@ 2
剣 2
劇@@ 2
劍 2
動 2
勲 2
包 2
化 2
匪 2
医@@ 2
千 2
午@@ 2
半@@ 2
卓 2
即@@ 2
卵 2
参@@ 2
及@@ 2
友 2
取@@ 2
受@@ 2
古 2
右 2
司@@ 2
后@@ 2
吐@@ 2
吳@@ 2
吴 2
吾@@ 2
呂@@ 2
呉 2
周 2
呼@@ 2
哀@@ 2
品 2
唐@@ 2
唯 2
喜 2
嘗 2
器@@ 2
噶@@ 2
因 2
因@@ 2
团@@ 2
图 2
圏 2
圓 2
圓@@ 2
圖 2
圣 2
坂 2
均@@ 2
坊 2
坛 2
坡@@ 2
坪@@ 2
垂@@ 2
型@@ 2
埔 2
域 2
基 2
堤 2
報@@ 2
塔@@ 2
塚 2
墓 2
壮 2
外 2
夢 2
头@@ 2
契@@ 2
奖 2
奖@@ 2
好@@ 2
妻 2
姊@@ 2
娥@@ 2
媛 2
嫦@@ 2
字@@ 2
季 2
学 2
學校 2
宗教 2
宙 2
宜@@ 2
宝@@ 2
实 2
客@@ 2
宫 2
容@@ 2
宾@@ 2
宿@@ 2
寧 2
寨 2
將 2
導@@ 2
尺 2
尼@@ 2
居@@ 2
屋 2
屯@@ 2
峰 2
峻 2
崇 2
崎 2
崔@@ 2
崖@@ 2
崙@@ 2
工 2
巨@@ 2
巴 2
帆 2
希望 2
帝@@ 2
常@@ 2
幼@@ 2
幽@@ 2
幾@@ 2
广 2
庁 2
庆@@ 2
店 2
庵@@ 2
廣 2
延 2
强@@ 2
当@@ 2
彦@@ 2
彼@@ 2
征 2
得@@ 2
復@@ 2
徳@@ 2
怀@@ 2
恋 2
恐@@ 2
恒 2
恩@@ 2
恭@@ 2
悠 2
惠 2
惡 2
感@@ 2
慈 2
慈@@ 2
我@@ 2
战@@ 2
战争 2
戯 2
所@@ 2
才@@ 2
打 2
扶@@ 2
承@@ 2
振@@ 2
掌 2
掌@@ 2
控@@ 2
摩 2
撒@@ 2
攻@@ 2
政府 2
故@@ 2
教育 2
散 2
斎@@ 2
斬@@ 2
新加@@ 2
方 2
无 2
无@@ 2
日本 2
旭 2
旭@@ 2
昆@@ 2
映@@ 2
昧 2
時代 2
晃@@ 2
晋 2
晩@@ 2
景@@ 2
晴 2
晶@@ 2
智 2
曆 2
曉@@ 2
會@@ 2
有 2
有限公司 2
望 2
望@@ 2
末 2
术@@ 2
机@@ 2
杉 2
杏 2
条@@ 2
来 2
果@@ 2
枪 2
架@@ 2
柏@@ 2
柔 2
柚@@ 2
柳 2
柴@@ 2
査@@ 2
校 2
根 2
格 2
格@@ 2
桜 2
條 2
梶@@ 2
棋 2
業@@ 2
榊@@ 2
様 2
様@@ 2
樂@@ 2
標 2
樹@@ 2
檀@@ 2
欲 2
欽@@ 2
歌 2
殿@@ 2
母@@ 2
氏@@ 2
民國 2
汁 2
池 2
決@@ 2
沢 2
波 2
泰 2
洗@@ 2
洲 2
活@@ 2
派 2
浄@@ 2
济@@ 2
浦 2
消@@ 2
淀 2
淑 2
淡@@ 2
淮@@ 2
混@@ 2
渠 2
温@@ 2
満@@ 2
漢 2
漫@@ 2
漳@@ 2
澄@@ 2
濟 2
濟@@ 2
灣 2
烈@@ 2
熊 2
燕 2
物 2
狐 2
狻@@ 2
猛 2
猛@@ 2
猴@@ 2
玄 2
玉 2
现@@ 2
班@@ 2
現@@ 2
瑞@@ 2
瑠@@ 2
璋 2
璧 2
瓊 2
甘 2
産@@ 2
用@@ 2
由 2
番@@ 2
疑@@ 2
痧 2
療@@ 2
發@@ 2
盆 2
益@@ 2
目@@ 2
省@@ 2
眼 2
眼@@ 2
石 2
碧@@ 2
礼 2
社会 2
社会@@ 2
祐 2
祖@@ 2
祝@@ 2
祥 2
祭 2
禁 2
禁@@ 2
禪@@ 2
禮@@ 2
私@@ 2
秒 2
秦@@ 2
稚@@ 2
稷 2
穂 2
穂@@ 2
穴@@ 2
竜 2
童@@ 2
端@@ 2
笑@@ 2
笠 2
第 2
第三@@ 2
筑@@ 2
算@@ 2
篤 2
米@@ 2
粉 2
粹@@ 2
系統 2
系统 2
約@@ 2
紅 2
紅@@ 2
紘 2
紫@@ 2
細@@ 2
組 2
絳 2
絵@@ 2
經@@ 2
綱 2
綱@@ 2
緋@@ 2
緑@@ 2
緣@@ 2
編@@ 2
縣 2
繁@@ 2
网 2
羊@@ 2
羽@@ 2
翁 2
翔@@ 2
翼 2
者@@ 2
耕@@ 2
耳 2
耶 2
聡@@ 2
聲 2
肉 2
肉@@ 2
股@@ 2
肥@@ 2
育 2
胡 2
脇@@ 2
臨@@ 2
臭@@ 2
至@@ 2
臼 2
興@@ 2
舟@@ 2
般@@ 2
艺 2
艺@@ 2
艾@@ 2
芙@@ 2
芦@@ 2
芸@@ 2
苔 2
若 2
苦@@ 2
茉@@ 2
茜@@ 2
茸 2
荼 2
莊@@ 2
菩@@ 2
营@@ 2
萬@@ 2
葫@@ 2
蒙@@ 2
蓮 2
薫 2
藏 2
號 2
衆 2
衆@@ 2
衡 2
衢 2
衣@@ 2
裸@@ 2
襲@@ 2
見 2
覚@@ 2
観 2
角 2
計@@ 2
訪@@ 2
話 2
誕@@ 2
誠 2
說 2
調@@ 2
諏@@ 2
諒 2
論 2
論@@ 2
警@@ 2
豆@@ 2
象@@ 2
貓@@ 2
賽@@ 2
责@@ 2
贵@@ 2
贺@@ 2
走@@ 2
起@@ 2
越 2
趙@@ 2
踊@@ 2
身@@ 2
車@@ 2
輝@@ 2
輩 2
辛@@ 2
農 2
農@@ 2
辺 2
达 2
迅 2
迎@@ 2
运动 2
远@@ 2
追@@ 2
逃@@ 2
逢@@ 2
進 2
遥 2
遵@@ 2
選 2
遺@@ 2
邑 2
邑@@ 2
邦 2
邪@@ 2
邯@@ 2
邵@@ 2
郁@@ 2
郭@@ 2
郷@@ 2
鄂@@ 2
鄧@@ 2
釣@@ 2
銅@@ 2
錄 2
钰 2
铜@@ 2
锡 2
锦@@ 2
镇@@ 2
閑@@ 2
閣 2
閣@@ 2
闘@@ 2
门@@ 2
阜@@ 2
陀 2
限@@ 2
院@@ 2
陰@@ 2
陳 2
陸@@ 2
険 2
隸@@ 2
集 2
雙@@ 2
雞@@ 2
雷@@ 2
霜@@ 2
霧@@ 2
霸@@ 2
靖@@ 2
静 2
韋@@ 2
韩@@ 2
音 2
領@@ 2
頭 2
頭@@ 2
顺@@ 2
食 2
飢@@ 2
饉 2
首@@ 2
香港 2
駕@@ 2
駛@@ 2
駿@@ 2
验@@ 2
骨 2
體 2
體@@ 2
髪 2
鬼 2
鬼@@ 2
魚@@ 2
鴻 2
鹿@@ 2
麒@@ 2
麟 2
麦@@ 2
黎@@ 2
黑 2
齊 2
각 2
각@@ 2
거 2
격@@ 2
골 2
과 2
교@@ 2
궁@@ 2
그 2
극@@ 2
내 2
네 2
년@@ 2
농@@ 2
누@@ 2
능@@ 2
더 2
데@@ 2
돌 2
된 2
된@@ 2
드 2
드@@ 2
떡 2
랑 2
래 2
랩 2
력 2
렬@@ 2
류@@ 2
륜@@ 2
릉@@ 2
린 2
림 2
릿@@ 2
맹 2
머 2
몰@@ 2
물@@ 2
밉@@ 2
방 2
버@@ 2
법 2
베@@ 2
병@@ 2
북 2
비 2
살 2
상 2
설 2
셔@@ 2
숙 2
실 2
심@@ 2
십@@ 2
쌍@@ 2
씨@@ 2
악@@ 2
암 2
앙@@ 2
야 2
야@@ 2
언 2
업 2
업@@ 2
엘 2
예 2
오 2
와 2
외@@ 2
용 2
웅@@ 2
월@@ 2
을@@ 2
있@@ 2
재@@ 2
절@@ 2
좋@@ 2
찌@@ 2
차@@ 2
천 2
체 2
초@@ 2
축@@ 2
충@@ 2
츠 2
칠@@ 2
카@@ 2
코@@ 2
콩@@ 2
크 2
키@@ 2
탄@@ 2
탕 2
통 2
투 2
팥@@ 2
표 2
풋@@ 2
피 2
합@@ 2
허@@ 2
헌 2
협@@ 2
혜@@ 2
후@@ 2
﹏ 2
～ 2
𐎧@@ 2
𐎲@@ 2
𐎹 2
𐏁@@ 2
𐏂 2
𐤂@@ 2
𐤋@@ 2
𐤓@@ 2
𐤕 2
𐤕@@ 2
𐩢@@ 2
𐩣 2
𐩧@@ 2
𐩬 2
𐩺@@ 2
𐭪 2
𒀀@@ 2
𒄭 2
𒄭@@ 2
𒆳@@ 2
𒈩@@ 2
𒈪@@ 2
𒉌 2
𒊏@@ 2
𒋫@@ 2
𒋾@@ 2
𒌦@@ 2
𒌷@@ 2
𝞴 2
🌄 2
🎖 2
🎠 2
🎴 2
🏅 2
🏎 2
🏚 2
💒 2
💜 2
🖼 2
🗻 2
🚡 2
🚩 2
🚶 2
🛌 2
14. 1
17. 1
19. 1
24. 1
26. 1
29. 1
31. 1
3ء 1
Adem@@ 1
Ainsi 1
Alemania 1
Anf@@ 1
Arap 1
Arbeit 1
Aunque 1
Avrupa 1
Bahn@@ 1
Batı 1
Begriff 1
Beispiel 1
Beschreibung 1
Beş@@ 1
Biografía 1
Biographie 1
Bischof 1
Bonde 1
Brezilya 1
Bà 1
Büh@@ 1
Bản 1
Bộ 1
Censo 1
Cerambycidae 1
Ces 1
Chama 1
Chrysomelidae 1
Châu 1
Chính 1
Chủ 1
Cumhur@@ 1
Cumhuriy@@ 1
Cách 1
Cổ 1
Cộng 1
Departamento 1
Depuis 1
Desde 1
Devleti 1
Dokum@@ 1
Dreh@@ 1
Durch 1
Département 1
Dünya 1
Eliz@@ 1
Ereb@@ 1
Ergeb@@ 1
Eğ@@ 1
Fes@@ 1
Festiv@@ 1
Finanz@@ 1
Firma 1
Flü@@ 1
Fransa 1
Futbol 1
Galatasaray 1
Giáo 1
Giải 1
Grund 1
Halb@@ 1
Hanno@@ 1
Hy 1
Häl@@ 1
Höhe 1
Hồ 1
Hội 1
II. 1
Innen@@ 1
Italien 1
Jahr 1
Jahrhundert 1
Janu@@ 1
Januari 1
Japón 1
Kama 1
Kapit@@ 1
Kasım 1
Kati 1
Khánh 1
Kif@@ 1
Kih@@ 1
Kilom@@ 1
Kilometer 1
Klasse 1
Kloster 1
Konz@@ 1
Kult@@ 1
Kuvvet@@ 1
Kuzey 1
Kwa 1
Kı@@ 1
Kıbrıs 1
Kỳ 1
Leist@@ 1
Leitung 1
Linie 1
Liver@@ 1
Londra 1
Lâm 1
Mais 1
Mei 1
Meisterschaft 1
Migu@@ 1
Millî 1
Ministerio 1
Mississi@@ 1
Mitgli@@ 1
Mji 1
Männer 1
Müd@@ 1
Müslü@@ 1
Mỹ 1
Naili 1
Nair@@ 1
Nairobi 1
Nghệ 1
Ngô 1
Noctu@@ 1
Năm 1
Ocak 1
Ordu 1
Ort 1
París 1
Personen 1
Pháp 1
Phúc 1
Phương 1
Platz 1
Portek@@ 1
Première 1
Provinz 1
Präs@@ 1
Präsident 1
Rahmen 1
Rang 1
Regierung 1
Reihe 1
Richtung 1
Rolle 1
Rom 1
Royaume 1
Rusia 1
Saison 1
Sau 1
Savaş@@ 1
Schrift@@ 1
Schweiz 1
Ses 1
Seç@@ 1
Sie 1
Sied@@ 1
Sohn 1
Spieler 1
Stutt@@ 1
Sus 1
Sân 1
Süden 1
Sự 1
También 1
Tanganyika 1
Tarih@@ 1
Tham 1
Thiên 1
Thị 1
Tochter 1
Topl@@ 1
Truppen 1
Turkana 1
Tư 1
Tổ 1
Ulaya 1
Ulusal 1
Umw@@ 1
Unido 1
Unterneh@@ 1
Venedi@@ 1
Vereinigten 1
Verwaltungs@@ 1
Vor 1
Vorsitzender 1
Văn 1
Vũ 1
Vương 1
Waf@@ 1
Wahl 1
Weltkrieg 1
Wettbewer@@ 1
Wie 1
Württem@@ 1
Yöne@@ 1
aband@@ 1
abhäng@@ 1
abras 1
acción 1
accomp@@ 1
actuelle 1
acuerdo 1
adele 1
adounid@@ 1
adı 1
adır 1
afu 1
agosto 1
aguas 1
ahidi 1
ahlen 1
aji@@ 1
akini 1
alara 1
alarda 1
aldı 1
alif@@ 1
alik@@ 1
alise 1
aliza 1
alización 1
allem@@ 1
alme 1
almente 1
alre@@ 1
alten 1
altitu@@ 1
altında 1
amac@@ 1
amba@@ 1
ambiguation 1
amment 1
amoja 1
améric@@ 1
anach@@ 1
anah@@ 1
anciens 1
angen 1
angwa 1
animales 1
anische 1
anlık 1
anmoins 1
annt 1
année 1
ansı 1
antigua 1
antwor@@ 1
anunci@@ 1
appointed 1
arası 1
araç@@ 1
araştır@@ 1
arbeitet 1
aret@@ 1
arka 1
arkad@@ 1
arkadaş@@ 1
arlar 1
arlo 1
armas 1
armes 1
arriv@@ 1
arron@@ 1
arrondissement 1
artiller@@ 1
aría 1
ashara 1
asoci@@ 1
assez 1
ativo 1
atoire 1
atrième 1
atro 1
attended 1
attı 1
aucun 1
auteur 1
autour 1
avait 1
awala 1
ayud@@ 1
aéri@@ 1
ağır@@ 1
aşa 1
bado 1
bahari 1
bahn@@ 1
banda 1
barrio 1
bataille 1
baya 1
baş 1
baş@@ 1
başkan@@ 1
beiden 1
beit 1
beit@@ 1
bekann@@ 1
belediye 1
[...]
