de 1
, 1
. 1
la 1
et 1
le 1
à 1
en 1
&quot; 0.9529084057237842
l&apos; 1
des 1
est 1
@-@ 1
les 1
du 1
d&apos; 1
un 1
une 1
( 1
) 1
é 1
dans 1
au 1
par 1
que 1
’ 1
il 1
ée 1
pour 1
a 0.5281367359624257
qui 1
er 1
Le 1
é@@ 1
se 1
sur 1
ant 1
ent 1
dé@@ 1
es 1
son 1
Il 1
aux 1
avec 1
La 1
ré@@ 1
és 1
: 1
l 1
ation 1
elle 1
plus 1
sont 1
ie 1
En 1
te 1
ou 1
re@@ 1
ch@@ 1
s 1
ne 1
Les 1
d 1
sa 1
ées 1
on 0.6068624214595558
été 1
ement 1
ce 1
« 1
» 1
s@@ 1
v@@ 1
qu&apos; 1
ses 1
p@@ 1
s&apos; 1
c@@ 1
ale 1
e 1
y 0.39892002150977307
C@@ 1
in@@ 1
comme 1
in 0.13224995288979977
ont 1
aire 1
deux 1
ité 1
age 1
L&apos; 1
is@@ 1
r@@ 1
g@@ 1
el 0.425140008147911
ait 1
is 0.3925534310386126
con@@ 1
ques 1
pas 1
ou@@ 1
S@@ 0.8461431163337663
d@@ 1
ine 1
P@@ 1
f@@ 1
qu@@ 1
ations 1
n@@ 1
par@@ 1
fait 1
ér@@ 1
l@@ 1
ère 1
tr@@ 1
L@@ 0.971790680634521
; 0.7284077294296757
entre 1
T@@ 0.961534768364309
ar@@ 1
it 0.9103729005104148
u 1
en@@ 0.9201385757730297
us 1
mais 1
ue 1
t@@ 0.9443315862244321
D@@ 0.8990112131707907
M@@ 0.9709146546261795
Elle 1
ite 1
ag@@ 1
m@@ 1
G@@ 1
sous 1
at 0.4716174718277039
re 1
ac@@ 1
cette 1
ex@@ 1
tion 1
B@@ 0.8819576488711118
A@@ 1
al 0.5283207702273246
t 0.6569059264602864
F@@ 0.9473176971884248
tes 1
im@@ 1
ons 1
ers 0.9568060297252979
V@@ 1
R@@ 0.8662702583623804
an 0.3092483965698574
eur 1
être 1
N@@ 0.9738596549466293
leur 1
ans 1
même 1
b@@ 0.9807443989383361
était 1
lui 1
n&apos; 1
on@@ 1
ur@@ 1
i 1
dont 1
après 1
ul@@ 1
ens 1
li@@ 1
a@@ 1
H@@ 0.7754530534309628
mo@@ 1
di@@ 1
pr@@ 1
ap@@ 1
aires 1
po@@ 1
% 1
è@@ 1
où 1
am@@ 1
&apos; 0.766659391780671
ance 1
o@@ 1
an@@ 0.9655016053940166
us@@ 1
i@@ 1
également 1
it@@ 1
che 1
én@@ 1
commune 1
France 1
al@@ 0.8081907784457548
ants 1
ville 1
É@@ 1
or@@ 1
c 1
e@@ 0.7985724203030895
u@@ 1
pré@@ 1
Ch@@ 1
au@@ 1
h@@ 0.7685194763069577
ence 1
alors 1
ise 1
tions 1
aussi 1
autres 1
vo@@ 1
né 1
per@@ 1
ts 1
nom 1
ainsi 1
Saint 1
ire 1
om@@ 1
o 0.6200461579573142
y@@ 1
partie 1
ph@@ 1
av@@ 1
elles 1
J@@ 1
ent@@ 1
ères 1
premier 1
me 1
ti@@ 1
fut 1
ic@@ 1
ique 1
ét@@ 1
éri@@ 1
at@@ 1
si@@ 1
ces 1
co@@ 1
ents 1
pl@@ 1
O@@ 0.9884528016862811
première 1
mé@@ 1
dis@@ 1
id@@ 1
ille 1
es@@ 1
enne 1
sou@@ 1
ais 1
ci@@ 1
ure 1
ab@@ 1
tre 1
ales 1
onn@@ 1
lors 1
À 1
puis 1
déc@@ 1
j@@ 1
E@@ 0.7224434055264675
mar@@ 1
ad@@ 0.9307660675152942
années 1
mon@@ 1
vers 1
contre 1
ils 1
gr@@ 1
peut 1
ages 1
eau 1
avant 1
groupe 1
lo@@ 1
2 0.7442763301881362
trois 1
K@@ 0.5720104568661144
teur 1
eurs 1
ro@@ 1
iste 1
depuis 1
él@@ 1
ir@@ 1
ég@@ 1
er@@ 0.49560124015602275
té 1
cours 1
1 0.6294885418002764
eux 1
ir 1
th@@ 0.7750276726353743
inter@@ 1
ill@@ 1
ante 1
ements 1
min@@ 1
ain 1
temps 1
plusieurs 1
as@@ 0.8505517318819221
ins 1
fin 1
ass@@ 1
Cette 1
aine 1
its 0.7008833697107179
br@@ 1
très 1
em@@ 1
Dans 1
os 0.5331051444023294
fois 1
ente 1
able 1
ge 1
com@@ 1
ur 1
il@@ 0.9716683152862473
ê@@ 1
ni@@ 1
bi@@ 1
Mar@@ 1
â@@ 1
pro@@ 1
ign@@ 1
no@@ 1
Al@@ 1
ateur 1
cr@@ 1
jusqu&apos; 1
el@@ 0.5797355673970371
els 1
ot@@ 1
ten@@ 1
leurs 1
pe 1
année 1
/ 0.6024294679524924
vi@@ 1
- 0.6729630593745147
sans 1
for@@ 1
avoir 1
os@@ 1
W@@ 0.47320697545548535
tant 1
I@@ 0.9639562005907764
Paris 1
3 0.7052559971223996
ès 1
ux 1
to@@ 1
oc@@ 1
acc@@ 1
end@@ 1
n 0.7236677914891213
mort 1
Jean 1
avait 1
tout 1
place 1
français 1
cour@@ 1
ig@@ 1
aient 1
Con@@ 1
ver@@ 0.5124565905649675
De 1
ach@@ 1
ec@@ 1
ter 0.7702008324721362
ile 1
notamment 1
famille 1
sion 1
ellement 1
suite 1
z@@ 0.5170754672093845
as 0.12825559960481403
la@@ 1
Ce 1
op@@ 1
alité 1
sé@@ 1
un@@ 0.5564882125022462
fi@@ 1
su@@ 1
mes 1
faire 1
so@@ 1
forme 1
Au 1
sa@@ 1
x 1
monde 1
ol@@ 0.8488454482617416
st@@ 0.4723076827087771
ice 1
res@@ 1
cou@@ 1
ï@@ 1
Z@@ 0.7485359189007491
pos@@ 1
saison 1
ard 1
res 1
ème 1
équipe 1
men@@ 1
Après 1
ati@@ 1
f 1
esse 1
gi@@ 1
isme 1
U@@ 0.8871784751914368
comp@@ 1
cl@@ 1
4 0.7114811017389017
sud 1
ém@@ 1
man@@ 1
car@@ 1
appar@@ 1
ités 1
ets 1
lieu 1
pays 1
17@@ 1
inc@@ 1
or 0.2788992420024394
nord 1
ion 1
urs 1
x@@ 1
af@@ 1
ouv@@ 1
ture 1
pendant 1
ade 1
Par@@ 1
ser@@ 1
ri@@ 1
év@@ 1
ma@@ 1
die 0.1370692147508308
ats 1
enti@@ 1
ve 0.5472574755799748
Biographie 1
autre 1
iss@@ 1
and 0.03857419838287486
ci 1
partir 1
États 1
grand 1
Une 1
région 1
Ar@@ 1
titre 1
non 1
bien 1
devient 1
qu 1
peu 1
trans@@ 1
tu@@ 1
ette 1
ines 1
&amp; 0.7576035108408493
vis@@ 1
Un 1
antes 1
film 1
sur@@ 1
teurs 1
L 1
Ré@@ 1
ies 1
pour@@ 1
vie 1
moins 1
éc@@ 1
alis@@ 1
utilis@@ 1
ann@@ 1
guerre 1
quatre 1
ang@@ 1
soit 1
ob@@ 1
6 0.7466794678012694
ennes 1
C&apos; 1
suiv@@ 1
encore 1
tres 1
ren@@ 1
k@@ 0.38039243035138165
ô@@ 1
tique 1
nouveau 1
cré@@ 1
istes 1
ires 1
élec@@ 1
ar 0.30229398737797664
Son 1
rem@@ 1
Car@@ 1
tionn@@ 1
de@@ 0.5539629237226539
ains 1
col@@ 1
général 1
ligne 1
tous 1
tra@@ 1
prend 1
rec@@ 1
ches 1
politique 1
pi@@ 1
ev@@ 1
constitu@@ 1
um 0.4826442147460616
Y@@ 0.9826044501275613
représent@@ 1
série 1
use 1
ables 1
r 1
gu@@ 1
ne@@ 1
Qu@@ 1
si 1
fond@@ 1
In@@ 0.8984747825532158
porte 1
16@@ 1
cu@@ 1
ç@@ 1
all@@ 1
fon@@ 1
contr@@ 1
An@@ 0.6850141080404737
tour@@ 1
début 1
tri@@ 1
le@@ 0.5023325240656594
ène 1
située 1
ra@@ 1
att@@ 1
ologie 1
celle 1
jou@@ 1
Unis 1
fin@@ 1
cor@@ 1
mor@@ 1
5 0.6250898459248762
État 1
ut 1
ter@@ 0.6969228501507027
ant@@ 1
conn@@ 1
cro@@ 1
éch@@ 1
nombre 1
tis@@ 1
compos@@ 1
fa@@ 1
dou@@ 1
ues 1
réalis@@ 1
tard 1
position 1
celui 1
fils 1
française 1
commun@@ 1
atique 1
grande 1
k 0.42575636678271567
onne 1
aines 1
bas@@ 1
ites 1
mi@@ 1
se@@ 0.7174574352742611
club 1
des@@ 0.9223447689758115
prés@@ 1
ner 0.9177743107270331
rel@@ 1
donc 1
selon 1
village 1
Mon@@ 1
En@@ 1
entr@@ 1
Tr@@ 0.7252429738517586
lu@@ 1
ures 1
Pour 1
mis 1
ouest 1
On 0.8503155985966017
pass@@ 1
album 1
histoire 1
vol@@ 1
ta@@ 1
rom@@ 1
loc@@ 1
né@@ 1
consid@@ 1
trouve 1
nouvelle 1
exp@@ 1
dit 1
marqu@@ 1
anc@@ 1
ff@@ 1
ru@@ 1
offici@@ 1
ve@@ 1
mal@@ 1
ing@@ 1
nes 1
form@@ 1
Histoire 1
ensuite 1
quelques 1
spéci@@ 1
eu 1
département 1
do@@ 1
bo@@ 0.8952575556818037
centre 1
î@@ 1
ord@@ 1
ain@@ 1
compte 1
père 1
Di@@ 1
lé@@ 1
c&apos; 1
président 1
époque 1
ète 1
deuxième 1
action 1
app@@ 1
be 0.2927154235846054
étaient 1
part 1
et@@ 0.5686186257176417
ia 0.5341593414293848
ayant 1
ateurs 1
dernier 1
population 1
conf@@ 1
soci@@ 1
Dé@@ 1
situé 1
serv@@ 1
vient 1
7 0.6583800068046646
Br@@ 0.8073933051447542
ton 0.9599823559383506
h 0.48322538320390146
z 0.7073815234013224
étant 1
Gr@@ 1
por@@ 1
période 1
ole 1
2010 0.8717318008767502
8 0.6563123609441068
Com@@ 1
ell@@ 1
bar@@ 1
rég@@ 1
face 1
dev@@ 1
Ro@@ 1
hi@@ 1
pe@@ 1
ing 0.09146666532020863
èrent 1
environ 1
fer@@ 1
te@@ 0.7516541319320144
sec@@ 1
étr@@ 1
nom@@ 1
A 0.3972509937125473
ences 1
roi 1
Cor@@ 1
rap@@ 1
can@@ 1
près 1
église 1
anti@@ 1
m 0.3888963115356147
nombreux 1
sc@@ 1
ba@@ 1
nommé 1
cho@@ 1
parti@@ 1
présent@@ 1
nationale 1
mois 1
sol@@ 1
car 1
thé@@ 1
tour 1
og@@ 1
ouver@@ 1
bl@@ 1
origine 1
isi@@ 1
déf@@ 1
aise 1
ut@@ 0.7640647497851878
Ils 1
15@@ 0.9219772974508247
gouvernement 1
dr@@ 1
Ces 1
ace 1
ili@@ 1
pu@@ 1
isse 1
Europe 1
met 1
sup@@ 1
of 0.02157456917932061
jour 1
ins@@ 1
est@@ 0.6355552559786004
Pierre 1
quement 1
chez 1
fr@@ 1
alement 1
aff@@ 1
espèce 1
ate 0.2883933848161248
port@@ 1
service 1
one 0.27864395955335747
ensemble 1
hum@@ 1
prim@@ 1
um@@ 0.5260368265220221
médi@@ 1
Au@@ 1
art 1
cinq 1
homme 1
ais@@ 1
organis@@ 1
ge@@ 0.5963212500058185
vari@@ 1
and@@ 0.8514756460593783
mot@@ 1
loi 1
ix 1
régi@@ 1
The 0.06693935595382221
chef 1
eaux 1
ves 1
eff@@ 1
permet 1
communes 1
pose 1
int@@ 1
mer 1
ailleurs 1
afin 1
ven@@ 1
ancien 1
chan@@ 1
Louis 1
rou@@ 1
oir 1
site 1
2018 1
ances 1
gar@@ 1
bre 1
aut 1
rés@@ 1
ai 1
aliste 1
arch@@ 1
our 1
10 0.5522771799630247
hui 1
connu 1
natur@@ 1
du@@ 1
bat@@ 1
souvent 1
dur@@ 1
cul@@ 1
ane 1
enn@@ 1
reste 1
mis@@ 1
carrière 1
mag@@ 1
agn@@ 1
née 1
durant 1
cas 1
édi@@ 1
der 0.04743265415481265
cer@@ 1
ori@@ 1
endre 1
jeu 1
effet 1
St@@ 0.5413097767472438
éd@@ 1
armée 1
ore 1
nav@@ 1
autor@@ 1
ête 1
ess@@ 1
études 1
val@@ 1
off@@ 1
Le@@ 0.8435477561898648
tor@@ 1
ment 0.7045807157914463
ond@@ 1
Nord 1
membre 1
not@@ 1
ov@@ 1
niveau 1
tement 1
identi@@ 1
w@@ 0.21283142949035821
imp@@ 1
termin@@ 1
ni 1
enf@@ 1
doit 1
société 1
éro@@ 1
ient 1
3@@ 0.5892116119564799
Bo@@ 1
rue 1
pein@@ 1
ban@@ 1
Bar@@ 0.9647799715753106
ran@@ 0.8800356961473245
rôle 1
compl@@ 1
enc@@ 1
national 1
membres 1
èmes 1
gé@@ 1
ju@@ 1
ta 0.5692741820187215
esp@@ 1
ève 1
jours 1
I 0.4967686425721868
peuvent 1
sera 1
américain 1
habitants 1
emp@@ 1
C 0.9428662404680436
tourn@@ 1
projet 1
Gu@@ 1
mise 1
chaque 1
coll@@ 1
particip@@ 1
Mal@@ 1
voy@@ 1
9 0.593350066474165
era 0.6464033496347564
èse 1
caractér@@ 1
œuvre 1
sor@@ 1
ges 1
Sa 1
ra 0.9823367604987818
gl@@ 1
cô@@ 1
va 1
the 0.010078770497146446
Selon 1
éré@@ 1
iques 1
mondiale 1
point 1
présente 1
bles 1
indi@@ 1
territoire 1
publi@@ 1
hau@@ 1
cher 1
construction 1
troisième 1
jus@@ 1
isation 1
El@@ 0.9276913340113995
2011 0.7438112416152615
mari@@ 1
conserv@@ 1
concer@@ 1
système 1
fé@@ 1
nu@@ 1
formation 1
premiers 1
amb@@ 1
Co@@ 0.8662929391145867
Ma@@ 1
ative 0.8696996530564194
Par 1
dès 1
personn@@ 1
dom@@ 1
finale 1
tur@@ 1
exemple 1
sein 1
toujours 1
chap@@ 1
be@@ 0.31452660033886864
travail 1
Sud 1
Mais 1
base 1
2000 1
agne 1
aissance 1
vic@@ 1
dic@@ 1
poste 1
constru@@ 1
droit 1
ay 0.6802801231095574
ze 1
2014 0.789565832011949
bourg 1
4@@ 0.595491800108003
_ 0.8514242160648821
match 1
command@@ 1
donn@@ 1
û@@ 1
ond 1
ie@@ 1
p 0.4872158903693055
prises 1
toute 1
fac@@ 0.9411361928006782
oth@@ 1
erie 1
ac 1
obten@@ 1
mat@@ 1
éré 1
iti@@ 1
chang@@ 1
Charles 1
oy@@ 1
Ber@@ 1
personnes 1
chev@@ 1
ois 1
gré 1
enfants 1
Guerre 1
production 1
ler 0.6849300543691496
ici@@ 1
aut@@ 1
ol 1
inst@@ 1
Or@@ 0.9044701146800113
ail@@ 1
but 0.3312314211592667
lég@@ 1
cet 1
Th@@ 0.535488034117278
actu@@ 1
nombreuses 1
journ@@ 1
2015 0.7711882963906469
toutes 1
ège 1
2009 0.771693833823706
uni@@ 1
Lors 1
Col@@ 0.9625750371509366
long 1
coul@@ 1
eng@@ 0.6954379970851238
écr@@ 1
ath@@ 0.9250029081265209
da 0.43914639235082037
entes 1
raison 1
certains 1
Des 1
uc@@ 1
tin 1
Am@@ 1
château 1
ini 1
sign@@ 1
man 0.44277960889903795
Re@@ 0.43769683422741357
œur 1
Ver@@ 0.3915245164611656
│ 1
amp 0.7084842362431177
tro@@ 1
ordre 1
édition 1
six 1
succès 1
étab@@ 1
explo@@ 1
sub@@ 0.874970848606027
Pr@@ 0.886625861244201
ier 1
New 0.45861957154260496
prix 1
2008 0.7470419375649696
aur@@ 1
tel 1
tête 1
rapport 1
tés 1
université 1
fs 1
are 0.16413810939555576
fl@@ 0.9357034578581223
maison 1
tif 1
école 1
version 1
port 1
na 0.9134144247012193
isons 1
siège 1
ot 1
tures 1
championnat 1
ali@@ 0.9837836504193296
ong@@ 1
som@@ 1
2012 0.7047149030318698
entraî@@ 1
sem@@ 1
fille 1
20 0.555764068251356
aus@@ 0.4796657595462911
lie 1
musique 1
ber@@ 0.4814885644560611
type 1
agit 1
uses 1
jeune 1
tent 1
am 0.23578238558931763
anim@@ 1
rest@@ 1
Grand 1
cons@@ 1
tient 1
tom@@ 1
xe 1
out 0.4883694964093125
professionn@@ 1
grâce 1
province 1
me@@ 0.6512162652312358
écrit 1
points 1
voir 1
2013 0.7185111778960995
inv@@ 1
cal@@ 1
île 1
bou@@ 1
per 0.8701136623966199
ay@@ 0.8090932329334617
E 0.9976399116829494
eil 1
ver 1
hommes 1
appel@@ 1
N 1
Sh@@ 0.6525751782154414
atiques 1
laquelle 1
ari@@ 1
stat@@ 1
long@@ 1
propri@@ 1
développement 1
ous 0.602266649416341
déclar@@ 1
remporte 1
iller 1
habit@@ 1
roy@@ 1
5@@ 0.624642864869015
Marie 1
II 0.9339481411285484
2020 0.8579836548288019
état 1
ministre 1
cle 1
passe 1
Mont@@ 1
principale 1
liv@@ 1
g 0.4088726593261402
ép@@ 1
lan@@ 1
Po@@ 1
arr@@ 1
lib@@ 1
femme 1
let@@ 1
élection 1
sions 1
B 0.7321810785792118
– 0.14212676793957427
ina 0.5933726530935517
til@@ 1
défin@@ 1
Mor@@ 1
élections 1
participe 1
direc@@ 1
qué 1
public@@ 1
diffus@@ 1
15 0.5853234933526581
Li@@ 1
pouvoir 1
hô@@ 1
élev@@ 1
14@@ 0.9261130652457384
âge 1
sal@@ 1
mer@@ 0.6665367032807077
vé@@ 1
joue 1
sp@@ 0.5435911866104756
aujourd&apos; 1
Mo@@ 1
onc@@ 1
neur 1
corps 1
télé@@ 1
irs 1
rencontre 1
public 1
Depuis 1
moyenne 1
ède 1
fication 1
ides 1
fort 1
création 1
D 0.8344113033530699
plac@@ 1
vement 1
class@@ 1
observ@@ 1
inf@@ 1
Paul 1
qui@@ 1
dirig@@ 1
ises 1
lam@@ 1
2016 0.6769650056272227
ler@@ 1
mas@@ 1
ide 1
œ@@ 1
mont@@ 1
préc@@ 1
Mé@@ 1
str@@ 0.4993694252519368
sort 1
2007 0.7070011020930963
prise 1
Allemagne 1
2017 0.7214600541106476
viv@@ 1
esc@@ 1
route 1
R 0.8508046585701052
aît 1
demi 1
met@@ 1
commence 1
tien 1
ste 1
euse 1
Lo@@ 1
ble 1
formula 0.8601827347846056
remplac@@ 1
êt 1
chi@@ 1
di 1
emb@@ 1
joueur 1
côté 1
Per@@ 0.7935475175869473
patr@@ 1
2006 0.7163101002747345
Coupe 1
buts 1
dernière 1
istiques 1
François 1
femmes 1
suivante 1
étudi@@ 1
sie 0.4207984635996168
ènes 1
football 1
to 0.022612741646507874
ly@@ 1
associ@@ 1
ed@@ 0.3701007003986936
uss@@ 1
cur@@ 1
seul 1
obj@@ 1
génér@@ 1
ancienne 1
od@@ 0.7408168767974107
illes 1
grands 1
zone 1
ceux 1
plan 1
furent 1
blan@@ 1
az@@ 0.682969847285937
install@@ 1
ime 1
time 0.3370404638786889
1990 1
devant 1
ist@@ 0.6034815168120314
effectu@@ 1
pris 1
aj@@ 1
son@@ 1
pres@@ 0.9339392928721794
ard@@ 1
12 0.4835999939048844
13@@ 0.926472260262378
ération 1
petit 1
origin@@ 1
bres 1
rev@@ 1
réc@@ 1
déjà 1
tifs 1
ature 1
produit 1
travaux 1
fo@@ 1
adi@@ 1
mission 1
rant 1
our@@ 1
retour 1
fron@@ 1
ch 0.3958678122402688
tiques 1
he@@ 0.5367091764443029
S 0.8500543531735689
ana 0.45965480220180377
littér@@ 1
co 0.7560520486810625
act@@ 1
iter 1
bal@@ 1
obtient 1
pal@@ 1
arm@@ 1
quali@@ 1
part@@ 1
proc@@ 1
militaire 1
prendre 1
direction 1
hom@@ 1
cher@@ 1
up@@ 0.8828248736907686
ha@@ 1
main@@ 1
République 1
différentes 1
dem@@ 0.8670256897305638
der@@ 0.5449405913469602
Italie 1
F 0.9465093164772764
cap@@ 0.9683333589915673
terme 1
For@@ 0.8353559487490255
syn@@ 1
voit 1
ai@@ 1
lande 1
date 1
ition 1
dée 1
John 0.683500609019738
extr@@ 1
chanson 1
anglais 1
lement 1
éta@@ 1
mère 1
siè@@ 1
érieure 1
Vi@@ 1
Be@@ 0.46112205559161185
tait 1
Se@@ 0.6285876484359051
M 0.898406960966977
log@@ 1
orie 1
ma 0.7442890377705068
parmi 1
Avec 1
mi 1
go@@ 1
hé@@ 1
D&apos; 1
ologique 1
30 0.5574936968486561
uv@@ 1
aiss@@ 1
issement 1
prom@@ 1
genre 1
épis@@ 1
réseau 1
permet@@ 1
sept 1
milieu 1
gt 0.8217992000465488
tandis 1
rait 1
initi@@ 1
ult@@ 1
parti 1
abord 1
ah@@ 0.6373179132927599
espèces 1
accu@@ 1
6@@ 0.5914235614922746
porté 1
voie 1
ablement 1
b 0.4513527248528934
puiss@@ 1
lanc@@ 1
liqu@@ 1
quant 1
Lor@@ 1
charg@@ 1
équ@@ 1
yr@@ 1
cin@@ 1
ti 1
dix 1
division 1
ident 1
tive 1
oire 1
lit 1
Sch@@ 0.2693370029495241
2005 0.7627801711042823
élu 1
frère 1
tel@@ 1
signe 1
parfois 1
seur 1
cription 1
néces@@ 1
étique 1
Ab@@ 0.4576993929503789
2019 0.6546033196255174
communauté 1
ouvre 1
T 0.7969876828634167
liste 1
condu@@ 1
Cependant 1
maî@@ 1
sols 1
ak@@ 0.38100385929096114
texte 1
donne 1
atif 1
seulement 1
fique 1
utilisé 1
Sur 1
dre 1
ennent 1
particulier 1
conse@@ 1
X@@ 0.9187363645910518
vers@@ 1
Description 1
Cl@@ 1
Sal@@ 1
cadre 1
phot@@ 1
proche 1
ano 0.5968811562306519
ense 1
beaucoup 1
britannique 1
Val@@ 1
lin@@ 0.6904659177830561
huit 1
directeur 1
isée 1
tot@@ 1
ographi@@ 1
priv@@ 1
sons 1
7@@ 0.5887005819003933
9@@ 0.6006402999118726
Pal@@ 1
ub@@ 1
zones 1
éli@@ 1
marque 1
tic@@ 0.9337742914301325
York 0.6954148832907768
aye 1
américaine 1
ôt 1
aurait 1
sh@@ 0.2600192926986074
Ses 1
quit@@ 1
différents 1
fil@@ 1
diffic@@ 1
ément 1
ref@@ 1
Union 1
enseign@@ 1
pon@@ 1
Jacques 1
rée 1
recherche 1
mét@@ 1
0,@@ 1
second 0.5909381828630333
Ex@@ 0.664624085227186
créé 1
mati@@ 1
tenant 1
international 1
scène 1
réalisé 1
onnement 1
font 1
sorti 1
livre 1
bâ@@ 1
Man@@ 0.8017079470217789
ang 0.7072986958192969
end 0.41837427521831666
8@@ 0.5997668286272021
centr@@ 1
Ac@@ 1
ote 1
bois 1
taire 1
bataille 1
fonction 1
prot@@ 0.9255865184250682
lat@@ 1
aci@@ 1
autom@@ 1
classi@@ 1
limit@@ 1
épouse 1
viol@@ 1
aide 1
oni@@ 1
gare 1
2@@ 0.6461023145063941
bel@@ 0.80689519822346
Ser@@ 1
occupation 1
fer 1
Cer@@ 1
11 0.4931965368889687
hér@@ 1
sens 1
alisation 1
différ@@ 1
principalement 1
auteur 1
autour 1
comm@@ 1
2004 0.7456755597090128
économ@@ 1
sav@@ 1
victoire 1
sau@@ 1
iv@@ 0.8602737690390078
entre@@ 1
pil@@ 1
dép@@ 1
existe 1
ports 1
Su@@ 1
... 1
cependant 1
objet 1
lig@@ 1
produ@@ 1
reconn@@ 1
char@@ 1
règ@@ 1
16 0.5461687376153487
peti@@ 1
surtout 1
pap@@ 1
aison 1
ors 0.5445294489225995
sy@@ 1
régu@@ 1
premières 1
ien 0.8487659448824845
atives 1
Av@@ 1
déput@@ 1
Canada 1
arrê@@ 1
rivière 1
Tou@@ 1
fréqu@@ 1
éti@@ 1
départem@@ 1
Je@@ 1
alli@@ 1
petite 1
gen@@ 0.4814049681191462
assur@@ 1
fédér@@ 1
organ@@ 1
équipes 1
enregistr@@ 1
Ang@@ 0.9918259574254064
publié 1
suit 1
plupart 1
pay@@ 1
èle 1
mouvement 1
millions 1
cit@@ 1
vue 1
lt 0.7117911274594085
iles 1
seconde 1
Jeux 1
œuvres 1
Tro@@ 1
18 0.48592103901205946
1999 0.968655980195025
ché 1
érieur 1
tels 1
prof@@ 1
rejoint 1
style 1
administr@@ 1
14 0.5543804470239438
europé@@ 1
Université 1
Conseil 1
allemand 1
opér@@ 1
Lé@@ 1
ules 1
cli@@ 1
ein@@ 0.3137983882714389
mé 1
P 0.8718748798638982
gal@@ 1
cause 1
élé@@ 1
lar@@ 1
activité 1
lier 1
lem@@ 1
Espagne 1
indépend@@ 1
suff@@ 1
mettre 1
Bor@@ 1
oph@@ 1
quartier 1
ison 1
ois@@ 1
alités 1
mesure 1
v 0.7708778758722233
domaine 1
mes@@ 1
entreprise 1
saire 1
langue 1
religie@@ 1
ley 0.625553012522959
comté 1
commenc@@ 1
demande 1
envir@@ 1
lequel 1
consac@@ 1
0 0.6470180138832634
là 0.289439010358026
éni@@ 1
venir 1
reçoit 1
ame 1
ik@@ 0.43891641653454805
accomp@@ 1
lée 1
juin 1
isé 1
Char@@ 1
avaient 1
haut 1
reg@@ 0.5562133923933127
eti@@ 1
25 0.5413431377067974
fié 1
intégr@@ 1
suivant 1
ka 0.9443615489618932
nor@@ 1
ands 1
probl@@ 1
pression 1
Afrique 1
ich@@ 0.815926919484073
Gar@@ 1
pouv@@ 1
eur@@ 1
ades 1
Rou@@ 1
dire 1
Bel@@ 0.820613761764623
construit 1
cre@@ 0.5362020361410145
19 0.5529747910040105
trouv@@ 1
catég@@ 1
iment 1
ême 1
dispar@@ 1
sist@@ 1
occup@@ 1
bu@@ 0.8890659532570114
Parti 1
Angleterre 1
écriv@@ 1
données 1
appelé 1
seule 1
eb@@ 0.3775489383715445
De@@ 0.5956927282707043
Champi@@ 1
classe 1
13 0.5492862713611886
gén@@ 1
rati@@ 1
milit@@ 1
roman 1
bur@@ 0.9346476975915374
manière 1
lim@@ 1
eg@@ 0.3400665900863917
istique 1
17 0.5607158057968765
trav@@ 1
aï@@ 1
finalement 1
établ@@ 1
interpr@@ 1
do 0.4226801848563658
if@@ 0.6498134880371312
montr@@ 1
issant 1
olog@@ 1
tir@@ 1
.@@ 0.45108442123016695
destin@@ 1
mont 1
station 0.8094906524424652
tiv@@ 1
ym@@ 1
tim@@ 0.6839949971596431
gauche 1
jamais 1
avi@@ 1
conseil 1
aises 1
fu@@ 1
amp@@ 1
péri@@ 1
onyme 1
prob@@ 1
pens@@ 1
idi@@ 1
onné 1
propre 1
rac@@ 1
2002 0.77429906664731
Cal@@ 1
mai 1
européenne 1
historique 1
développ@@ 1
étude 1
neu@@ 1
lorsque 1
candid@@ 1
seig@@ 1
Mus@@ 1
Str@@ 0.7198181493850924
volution 1
écu@@ 1
important 1
nouvelles 1
physi@@ 1
Gal@@ 1
mars 1
possède 1
tier 1
sépar@@ 1
G 0.8450434158710236
esti@@ 1
arti@@ 1
1998 0.9742523625781637
septembre 1
moment 1
champi@@ 1
compr@@ 1
article 1
ad 0.37768662291392774
Lu@@ 1
O 0.579924676660599
Pe@@ 1
fran@@ 1
écol@@ 1
donné 1
semble 1
suj@@ 1
présence 1
ome 1
quer 1
ples 1
serve 1
rencontr@@ 1
eli@@ 1
inform@@ 1
terre 1
certaines 1
possible 1
sig@@ 0.9461959051742749
précéd@@ 1
organisation 1
cultur@@ 1
vit@@ 1
lique 1
colon@@ 1
nant 1
Cr@@ 0.8587151951700102
matchs 1
ens@@ 0.38745556528415026
porter 1
2003 0.7662066063883071
Robert 1
principal 1
ental 1
V 0.9086342747556403
ces@@ 1
Ligue 1
occasion 1
1980 1
50 0.7176272100050186
Tour 1
té@@ 1
ettes 1
cela 1
groupes 1
bert 1
Henri 1
épo@@ 1
ey 0.7637127721631679
lie@@ 1
parc 1
référence 1
capit@@ 1
ambre 1
quand 1
2001 0.7397861057911179
&#91; 0.43990357696440985
entrée 1
axe 1
ode 1
ast@@ 0.8904798530879292
annonce 1
Ne@@ 0.5334146535604127
&#93; 0.4357038111599462
jeunes 1
juillet 1
matéri@@ 1
Historique 1
généralement 1
! 0.7451266089225783
octobre 1
termine 1
° 1
scienti@@ 1
ouvent 1
canton 1
acqu@@ 1
celles 1
anci@@ 1
ino 0.59479784074081
cathol@@ 1
bre@@ 0.6182618438946144
Carrière 1
ave@@ 1
graphie 1
publique 1
travers 1
théâtre 1
pas@@ 1
permettant 1
classement 1
Géographie 1
èrement 1
je@@ 1
uti@@ 1
aque 1
ré 1
atta@@ 1
ple@@ 1
bass@@ 1
grandes 1
issent 1
= 0.6752783885510117
main 0.8195642531452068
lir 1
Joseph 1
rement 1
aband@@ 1
dessin@@ 1
Tur@@ 0.8227245901477136
retr@@ 1
ic 0.25966821836684156
faite 1
ètre 1
rép@@ 1
court 1
plan@@ 1
êts 1
fonctionn@@ 1
mique 1
hu@@ 1
professeur 1
capitale 1
course 1
12@@ 0.9158993592800045
étés 1
Michel 1
-@@ 0.9439285942677816
Ainsi 1
H 1
24 0.559065199147411
Londres 1
taux 1
Est 1
Me@@ 0.7115580107745219
gique 1
tenu 1
ty@@ 1
Ad@@ 0.5639571270786695
fic@@ 1
essenti@@ 1
Québec 1
igu@@ 1
urn@@ 1
succes@@ 1
ôme 1
don@@ 1
1970 1
médec@@ 1
tar@@ 0.8871792345762126
ule 1
Japon 1
culture 1
industri@@ 1
villes 1
politiques 1
Nouvelle 1
japon@@ 1
Her@@ 0.5603364648046817
yl@@ 1
ection 1
ates 0.4283902152995448
compétition 1
vention 1
bâtiment 1
fle@@ 1
vu 1
hors 1
tent@@ 1
ud@@ 1
orient@@ 1
cer 1
èque 1
compagnie 1
administration 1
mu@@ 1
rapidement 1
ez 1
iche 1
ed 0.03530942438391811
2021 0.666549253904184
évol@@ 1
augment@@ 1
composé 1
Pl@@ 0.8168304470467272
ext@@ 1
ône 1
ange 1
Fin@@ 1
janvier 1
meurt 1
district 1
assemb@@ 1
vall@@ 1
rière 1
résultats 1
portant 1
dens@@ 1
mètres 1
décide 1
démoc@@ 1
bon 1
internationale 1
rés 1
Bou@@ 1
restaur@@ 1
crit 1
produc@@ 0.5891060016653555
anger 1
retrouve 1
onnats 1
musée 1
meilleur 1
formes 1
importante 1
deven@@ 1
domin@@ 1
propos@@ 1
aître 1
alise 1
troupes 1
land 0.28830490669694686
tre@@ 0.7602787294207549
architec@@ 1
avril 1
services 1
taine 1
urg@@ 1
Q@@ 0.9523634968854494
activités 1
Fl@@ 0.7163648380812265
w 0.24930201494110585
pan@@ 1
1950 1
Liste 1
nie 1
acteur 1
sen@@ 0.8122345190891304
U 0.707387041026156
adop@@ 1
Cro@@ 1
auprès 1
travaill@@ 1
quel@@ 1
tran@@ 1
itement 1
serait 1
Cas@@ 1
fus@@ 1
contin@@ 1
San 0.6099847816710956
isant 1
fier 1
Mag@@ 1
fonc@@ 1
itali@@ 1
campagne 1
Empire 1
prit 1
tir 1
décembre 1
films 1
climat 1
Pays 1
août 1
itié 1
comprend 1
ectif 1
és@@ 1
attach@@ 1
institu@@ 1
roul@@ 1
bor@@ 0.7021634293438179
itation 1
Is@@ 1
Grande 1
célè@@ 1
ceinture 1
He@@ 0.558194762745669
To@@ 0.9720381746888929
compar@@ 1
sortie 1
land@@ 0.8101841362917039
équip@@ 1
carte 1
iteur 1
iser 1
asse 1
appro@@ 1
Si 1
rie 1
table@@ 1
créée 1
alie 1
lang@@ 1
aqu@@ 1
Pro@@ 0.7345417458507939
Ren@@ 1
ision 1
programme 1
pel@@ 1
urba@@ 1
estim@@ 1
lance 1
sources 1
prépar@@ 1
Pendant 1
Min@@ 0.8963346990524398
spect@@ 1
Église 1
novembre 1
comte 1
Jo@@ 0.9741068067783323
bes 1
tem@@ 1
abilité 1
actuelle 1
21 0.512851739899745
unique 1
su 0.14179569132176986
aéri@@ 1
oug@@ 1
aud 1
he 0.07868820350496729
droite 1
Har@@ 0.7544545692763711
préf@@ 1
numér@@ 1
viennent 1
populaire 1
partition 1
Sp@@ 0.5519182496308493
cep@@ 1
supérieur 1
érie 1
tière 1
fér@@ 1
bour@@ 1
Gi@@ 1
Rome 1
béné@@ 1
situ@@ 1
40 0.6948309474877915
correspond@@ 1
atteint 1
connue 1
favor@@ 1
Bur@@ 0.7193219249305695
générale 1
désig@@ 1
cat@@ 1
ographie 1
Bi@@ 0.7207476881464305
ug@@ 0.7078944051744207
faisant 1
découver@@ 1
argent 1
droits 1
lac 1
ce@@ 0.7703420314716443
économique 1
inté@@ 1
méda@@ 1
terrain 1
Pi@@ 1
voix 1
forces 1
otte 1
landais 1
Pologne 1
ger 0.856570016341843
Seconde 1
total 0.7905868602947301
ib@@ 0.6912866290803822
départ 1
dévelop@@ 1
Comme 1
proj@@ 1
conten@@ 1
Chine 1
eine 0.13497670147984578
terres 1
ecture 1
vie@@ 1
Sainte 1
seau 1
10@@ 0.7040689964653389
puis@@ 1
cinéma 1
particulièrement 1
association 1
mand@@ 1
rédu@@ 1
li 1
contrôle 1
ones 0.6980008644490991
Por@@ 1
modèle 1
collec@@ 1
fe@@ 0.4539943554402457
Ri@@ 1
Arm@@ 1
page 1
découvert 1
russe 1
1960 1
fir@@ 1
honneur 1
ica 0.3665926855096192
noi 1
bless@@ 1
int 1
curité 1
auté 1
ris@@ 1
atoire 1
mod@@ 1
reven@@ 1
mê@@ 1
ah 0.7797627195653561
cas@@ 0.7426456086233407
nous 1
parties 1
ivent 1
produits 1
23 0.5473108431537678
intérieur 1
ov 1
22 0.5301083036362889
détru@@ 1
FC 1
ela 1
espace 1
Ger@@ 0.7619737636533133
bonne 1
champion 1
Ouest 1
air 0.9630759834576754
ok@@ 0.5155509489434638
cont@@ 0.6329734104480206
ige 0.6620276939940453
nouveaux 1
chin@@ 1
Belgique 1
rit@@ 1
occu@@ 1
inspir@@ 1
tou@@ 1
ense@@ 1
lic@@ 1
Du@@ 1
traditionn@@ 1
ager 1
sit@@ 1
désormais 1
eté 1
ël 1
façon 1
large 0.7895983136816854
pot@@ 1
ya 0.32313468260623796
uel 1
Oc@@ 1
Es@@ 1
igne 1
tienne 1
pén@@ 1
spor@@ 1
Ph@@ 0.6152750897622337
positions 1
? 1
pol@@ 1
lo 0.3063014875498114
opération 1
etc. 1
maire 1
municipalité 1
Prix 1
ki 1
nation@@ 1
technique 1
jug@@ 1
… 1
del@@ 0.9559592796974238
graphi@@ 1
idée 1
oppos@@ 1
territoires 1
critique 1
oires 1
istère 1
pen@@ 0.7297162373566007
Cet 1
Russie 1
— 0.0767055696703122
arrivée 1
jur@@ 1
ect@@ 1
cip@@ 1
sionn@@ 1
So@@ 0.9521901223185351
1991 0.8759485881834129
Philippe 1
vér@@ 1
signi@@ 1
Deux 1
lut@@ 1
Ir@@ 1
évén@@ 1
sait 1
éléments 1
personnage 1
Royaume 1
berg 0.6989661596195281
pul@@ 1
améric@@ 1
ski 1
Franç@@ 1
dat@@ 1
Plusieurs 1
100 0.5370286406564903
ami@@ 1
ax@@ 1
aller 1
Dr@@ 0.7931753498196205
combat 1
ps 0.8409711598211006
riv@@ 1
idence 1
joueurs 1
sert 1
bie 1
aucun 1
verse 1
sol 1
Bru@@ 1
As@@ 0.8092955125750335
Bal@@ 0.8740552135309632
intitul@@ 1
Sé@@ 1
ern@@ 0.7594019373049731
titres 1
èg@@ 1
exist@@ 1
attribu@@ 1
centrale 1
id 0.40943362372531017
anne 1
février 1
enant 1
envoy@@ 1
continu@@ 1
Rh@@ 1
auc@@ 1
Amérique 1
Syn@@ 1
contrat 1
sac@@ 1
altitude 1
David 1
importance 1
Mc@@ 0.5930262086781916
Ed@@ 0.7708015134375698
out@@ 0.9122995002635487
bas 1
cs 1
ards 0.6935808369370776
vingt 1
accès 1
util@@ 1
dessus 1
preuve 1
olympiques 1
montre 1
assez 1
Nor@@ 0.5847255675067653
Centre 1
chac@@ 1
décor@@ 1
chemin 1
source 1
X 0.8687172152562516
titu@@ 1
ara 0.7373932572486959
yp@@ 1
abb@@ 1
histori@@ 1
gues 1
ergie 1
airement 1
ifs 1
No@@ 1
Pu@@ 1
dér@@ 1
actions 1
icul@@ 1
erre 1
uelle 1
1997 0.7810140537479661
march@@ 1
maj@@ 1
dan@@ 1
ducation 1
universit@@ 1
sculp@@ 1
indre 1
allemande 1
devenu 1
longu@@ 1
publie 1
ices 1
dam@@ 1
duc@@ 1
fais@@ 1
iz@@ 0.3913889337528363
double 1
Si@@ 0.9481011151966805
force 1
lesqu@@ 1
historiques 1
III 1
terie 1
duc 1
attaque 1
tiers 1
comb@@ 1
Mari@@ 1
température 1
astéroïdes 1
circons@@ 1
1995 0.8096599115618035
acces@@ 1
onale 1
outre 1
Durant 1
ï 1
évolution 1
nommée 1
École 1
émission 1
1996 0.766076135097202
travaille 1
trouver 1
évêque 1
trop 1
surface 1
Gen@@ 1
lors@@ 1
quitte 1
jeux 1
trique 1
cord 1
situation 1
trou@@ 1
rir 1
charge 1
idae 1
quatrième 1
taille 1
Del@@ 1
devenir 1
ami 1
trac@@ 1
thi@@ 1
sch@@ 0.1636067934191552
journal 1
ick 0.5486423361136259
guer@@ 1
libre 1
Mer@@ 0.863311309740348
imoine 1
yen 1
marché 1
rejo@@ 1
passage 1
édé 1
situe 1
diver@@ 1
artistes 1
nier 1
rouge 1
missions 1
seurs 1
hy@@ 1
Go@@ 1
kilomètres 1
emment 1
améli@@ 1
aume 1
cad@@ 1
Sa@@ 1
pont 1
affaires 1
Martin 1
anmoins 1
passé 1
2,@@ 1
Ju@@ 1
crit@@ 1
ger@@ 0.4019461320239307
impos@@ 1
rév@@ 1
resp@@ 1
tenir 1
group@@ 1
bord 1
timents 1
sus@@ 1
alier 1
meille@@ 1
bes@@ 0.8647729359315572
Bas@@ 0.7932820112539157
anciens 1
secré@@ 1
engag@@ 1
Mad@@ 1
section 1
ase 0.6191962404200323
personne 1
apparaît 1
traite 1
inscrit 1
Bien 1
majorité 1
odes 1
1,@@ 0.8100495050520594
Rom@@ 1
financi@@ 1
Hol@@ 0.6268210540547161
ret@@ 0.9710927695930276
italien 1
cri@@ 0.9308768962282304
tex@@ 1
salle 1
Fr@@ 0.6531599778581547
lignes 1
èles 1
ajou@@ 1
principaux 1
ologiques 1
rend 1
santé 1
pu 1
Austr@@ 1
fie 1
ata 0.6263418518486576
tra 1
á@@ 0.3534314588478683
chaîne 1
1992 0.7561127936601675
semb@@ 1
ider 1
vain@@ 1
cell@@ 1
26 0.5372259741625219
plant@@ 1
compris 1
rent 1
plat@@ 1
pièces 1
représente 1
techn@@ 1
ep@@ 0.4238841310782028
vin@@ 1
intérêt 1
évolu@@ 1
1@@ 1
érée 1
astéroïde 1
utilisation 1
législ@@ 1
plutôt 1
Em@@ 0.9875869789662298
ouvrage 1
+ 0.9571904645197341
ell 0.3384939764788776
fit 1
arts 1
1994 0.758897019231118
60 0.7487284088372922
recher@@ 1
fut@@ 1
rier 1
Georges 1
cop@@ 1
Mat@@ 1
heures 1
empl@@ 1
modi@@ 1
saint 1
Première 1
ama 0.6671568620148243
bil@@ 0.608022168420988
Beau@@ 1
aw@@ 0.4295521668088952
Société 1
lois 1
analy@@ 1
grav@@ 1
conséqu@@ 1
import@@ 1
divers 1
toutefois 1
emper@@ 1
eures 1
bus 1
io 0.6285242522359283
Ros@@ 1
élimin@@ 1
derniers 1
vidéo 1
recensement 1
atrice 1
protég@@ 1
sif 1
êtes 1
oles 1
sold@@ 1
faible 1
Vo@@ 1
80 0.8425973772966574
agricoles 1
ich 0.6151452547948751
arrière 1
Sol@@ 0.9806303881790641
polon@@ 1
télévision 1
unité 1
reçu 1
valeur 1
Du 1
ak 0.4492606891471477
Thé@@ 1
feu@@ 1
simple 1
coup 1
entaire 1
hab@@ 0.908784107885777
vid@@ 1
comman@@ 1
ret 1
volon@@ 1
océ@@ 1
telle 1
sin@@ 1
oise 1
multi@@ 1
agement 1
sovi@@ 1
chant 1
change 0.9888686618849221
yth@@ 1
cité 1
van 1
ment@@ 1
onnes 1
Bour@@ 1
tal@@ 0.855133291931184
cour 1
1981 1
hor@@ 0.9036816312423188
km 0.3923795895814623
Bretagne 1
appr@@ 1
sciences 1
chré@@ 1
dipl@@ 1
rich@@ 1
dir@@ 1
ulaire 1
yn@@ 1
Thomas 0.9419001393010606
illon 1
positi@@ 1
figur@@ 1
quel 1
travers@@ 1
pri@@ 1
kh@@ 0.6409191302888512
caract@@ 1
armes 1
27 0.5165648303813094
cos@@ 1
André 1
forte 1
capac@@ 1
Ur@@ 0.8148019468428997
issue 1
sibil@@ 1
clubs 1
1993 0.7629810710368621
orb@@ 1
ouvr@@ 1
no 0.15216853356962437
Kar@@ 0.5810077022642209
28 0.5032701501321822
vice 1
bé@@ 1
ital 1
asp@@ 1
fici@@ 1
bri@@ 0.9219885423328963
étu@@ 1
Suisse 1
mol@@ 1
érique 1
Comp@@ 1
mp@@ 1
ans@@ 0.7305538407815513
sil@@ 1
conditions 1
bande 1
William 0.7183213718992124
canadi@@ 1
oi 1
provo@@ 1
proxim@@ 1
tro 1
Club 0.7937989115424673
excep@@ 1
contribu@@ 1
propose 1
popul@@ 1
estre 1
larg@@ 1
bé 1
endant 1
em 0.4296622685388263
milli@@ 1
ys@@ 1
Plus 1
Commun@@ 1
phon@@ 1
presse 1
aill@@ 1
pron@@ 1
K 0.6825605482440616
éal 1
bibli@@ 1
000 0.6722586908437987
aces 1
police 1
onal 1
influence 1
ici 1
air@@ 0.6867846779987443
batt@@ 1
gestion 1
ande 1
succ@@ 1
vel@@ 0.9870837732367757
anie 1
1975 1
mus@@ 0.854589760060404
Ag@@ 0.9457549124541061
paro@@ 1
pre@@ 0.21274294835786303
alg@@ 1
onnat 1
entale 1
dol@@ 1
1988 0.8459224507581529
attr@@ 1
Mas@@ 0.7635402912708893
ives 1
ids 1
Mac@@ 0.9587755689241863
bran@@ 1
onym@@ 1
deur 1
Vil@@ 1
eil@@ 1
recu@@ 1
1971 1
xième 1
music@@ 1
cla@@ 1
pierre 1
aves 1
Ben@@ 1
comple@@ 1
sexu@@ 1
commerce 1
Cam@@ 1
Institut 1
tab@@ 1
pend@@ 1
firme 1
zi@@ 0.655753737187613
Pol@@ 0.5637352889688085
ball 0.9627258674499296
concep@@ 1
ût 1
piè@@ 1
Tri@@ 0.7030855660032753
four@@ 1
union 1
ani 0.9128019170169205
auto@@ 1
ro 0.8178760318982835
ly 0.11187341965789714
types 1
ap 1
circul@@ 1
Claude 1
ow@@ 0.35764033799933426
umi@@ 1
Er@@ 0.24290865823494034
protection 1
ault 1
Bas 1
mot 1
employ@@ 1
Can@@ 0.9813453703241254
atin 1
but@@ 1
front@@ 1
appel 1
pologie 1
certain 1
ca 0.4537925154030037
Kr@@ 0.4735759140066626
nomin@@ 1
asti@@ 1
arrondissement 1
Académie 1
ape 1
Ou@@ 1
tron@@ 1
relations 1
vit 1
prince 1
ute 1
her@@ 0.260117256405681
syst@@ 1
dial 1
second@@ 1
ho@@ 0.31793598327437056
prati@@ 1
aliment@@ 1
major 0.6877294283803804
médic@@ 1
James 0.7281636872765685
tion@@ 0.8209072391102211
Des@@ 0.9293893179164969
pole 1
nature 1
ks 0.22203600190335535
von 0.04375153275259268
om 0.7640631495363879
struc@@ 1
ł@@ 1
mit@@ 0.5533688530097153
Entre 1
Ste@@ 0.5519972489912193
principales 1
George 0.7365614264567714
sim@@ 1
abr@@ 1
cel@@ 1
ira 1
bat 1
tan@@ 0.6971850801645258
ache 1
q 1
ophie 1
continue 1
structure 1
sti@@ 0.5594244060083681
rive 1
via 1
fen@@ 1
commerci@@ 1
ume 1
terr@@ 1
lis 1
rur@@ 1
1989 0.7386157832793007
monuments 1
Loire 1
tend 1
contempor@@ 1
Inter@@ 0.5388770742342822
mode 1
by 0.0294779042970983
ea 0.6418320768073713
ric 1
rend@@ 1
Nicolas 1
este 0.42895576635369354
70 0.768530014626173
Sav@@ 1
oblig@@ 1
çon 1
Juli@@ 1
éra 1
lec@@ 1
parents 1
vend@@ 1
progres@@ 1
arrive 1
put@@ 1
instrum@@ 1
ari 1
uch@@ 0.5920537355572678
vas@@ 1
za 0.5130696210135799
Sar@@ 1
dist@@ 1
Lyon 1
Cel@@ 1
conv@@ 1
Bl@@ 0.7039003684097009
ect 0.4508328811681815
veau 1
artisti@@ 1
ong 0.49113361812461936
Premier 1
rup@@ 1
disput@@ 1
pied 1
ena 0.48771076610831254
div@@ 1
amment 1
ind@@ 0.5063804680083837
internation@@ 1
mir@@ 1
former 0.44826359610797
jard@@ 1
diam@@ 1
uk@@ 0.645611733339338
den 0.03918273599088769
29 0.5008107943258548
minutes 1
bul@@ 1
ars 0.475666146245071
gence 1
ordin@@ 1
Sou@@ 1
alle 0.9237935259825445
phase 1
adapt@@ 1
question 1
del 0.05177656809381436
times 0.8398042025258469
figure 1
opsis 1
moderne 1
uy@@ 1
Moy@@ 1
ura 0.6658567518678421
solution 1
camp@@ 1
ui 1
liber@@ 1
cent@@ 1
usse 1
phe 1
nouv@@ 1
garde 1
ke 0.3283724922524673
wi@@ 1
transport 1
Pas@@ 1
ept@@ 1
3,@@ 1
Hu@@ 1
rien 1
techniques 1
cartes 1
0@@ 0.5652870568216086
arriv@@ 1
ouverneur 1
ani@@ 1
conc@@ 1
Berlin 0.7824356245107508
pat@@ 0.9262250683851037
Fé@@ 1
cab@@ 1
individ@@ 1
ex 1
Cour@@ 1
At@@ 0.8065998618587282
Bat@@ 1
tradu@@ 1
ser 0.4772875504837629
enci@@ 1
vot@@ 0.8300775071402834
camp 1
mée 1
influ@@ 1
abe 1
mina 1
je 1
cant@@ 1
quot@@ 1
Richard 1
usage 1
all 0.11655202183254249
ble@@ 1
ó@@ 0.3318344553821344
ye@@ 1
iture 1
ague 1
mal 0.9960517415676036
ares 1
aî@@ 1
har@@ 0.6087701988265274
actr@@ 1
cycl@@ 1
Lib@@ 1
Ni@@ 1
lot 0.9844418754306715
Montr@@ 1
Ori@@ 1
ae 0.6938221245041326
docum@@ 1
1986 0.7868343918025344
quar@@ 0.7824281001049215
gre@@ 0.3924908183651873
vir@@ 1
mun@@ 1
manifest@@ 1
derni@@ 1
abor@@ 1
flu@@ 1
Bon@@ 1
Association 0.8174961161659431
Blan@@ 1
dig@@ 0.9015882793991065
divis@@ 1
strat@@ 1
Peti@@ 1
super@@ 0.8374366850991195
agno@@ 1
yc@@ 1
forc@@ 1
dispos@@ 1
endra 1
31 0.5098552915906246
maxim@@ 1
spec@@ 0.8752158665167089
philos@@ 1
tours 1
ectiv@@ 1
amo@@ 1
quin@@ 1
Toul@@ 1
social 0.8144028884519107
programm@@ 1
inal 0.8733252219934037
clo@@ 1
Na@@ 1
ita 0.5629554920343847
entation 1
doc@@ 1
aç@@ 1
allem@@ 1
za@@ 1
collection 1
vert 1
Ty@@ 1
franch@@ 1
anni@@ 1
curr@@ 1
suppl@@ 1
Ét@@ 1
agricul@@ 1
industrie 1
lev@@ 1
radi@@ 1
Dan@@ 1
Né@@ 1
participation 1
35 0.7403972278577069
afric@@ 1
introdu@@ 1
onales 1
reli@@ 1
ords 1
einte 1
cim@@ 1
1984 0.7740889073304023
chem@@ 1
umes 1
im 0.04994699846252121
dot@@ 1
ey@@ 0.8181649800657316
ick@@ 0.285919014411402
image 1
record 0.6533266296526616
tho@@ 0.8233362317998459
Guillaume 1
Tar@@ 1
const@@ 1
Trans@@ 0.8191620296863106
barr@@ 1
concentr@@ 1
math@@ 1
ours 1
ogne 1
ida 0.42463571120634214
respons@@ 1
Hor@@ 0.744901797887142
br 0.9808694106965024
placement 1
cav@@ 1
Sur@@ 1
ox@@ 1
1987 0.738039853898886
sage 1
équi@@ 1
20@@ 0.5466935611659056
istre 1
Mil@@ 0.7551429805248938
1985 0.7558653708690036
lars 1
central 0.9265979795139794
don 1
ous@@ 1
Mex@@ 1
lers 1
abs@@ 1
ry 0.5166916193460035
pos 1
sites 1
illustr@@ 1
1930 1
tend@@ 1
Augus@@ 1
monum@@ 1
dioc@@ 1
Fran@@ 0.9968611896399502
aven@@ 1
1968 0.8497040072106326
âtre 1
ativ@@ 1
ker 0.4214264708123663
existence 1
cup@@ 1
ça 1
Antoine 1
bus@@ 0.6532996402489633
Haute 1
Seine 1
résult@@ 1
lip@@ 1
Assemb@@ 1
circu@@ 1
franç@@ 1
arg@@ 1
conqu@@ 1
90 0.7092024517275151
dor@@ 1
inten@@ 1
single 0.4596450793663828
fix@@ 1
Tor@@ 0.643798284493238
1945 0.5987471132051195
Ann@@ 1
neur@@ 1
Alexandre 1
opposition 1
quanti@@ 1
distinc@@ 1
1940 0.9096448559262965
ds 0.3361790482242405
expos@@ 1
ray@@ 1
1982 0.7778589468047966
édo@@ 1
ont@@ 1
trib@@ 1
lièrement 1
th 0.10961952230453555
indé@@ 1
Dame 1
ko 1
ty 0.20170663073693496
endro@@ 1
Gil@@ 1
Califor@@ 1
municip@@ 1
ots 0.815454938346446
plu@@ 1
cath@@ 1
Sim@@ 0.9155720645375781
eu@@ 1
studio 1
ala 0.6479117541085565
isions 1
National 0.2666503619018516
sus 0.24672111794736684
acle 1
architecture 1
Lou@@ 1
ao 0.8409293554894963
Jus@@ 1
tig@@ 0.6035123632218281
famili@@ 1
Hom@@ 1
proven@@ 1
rep@@ 1
Dou@@ 1
polé@@ 1
lit@@ 1
tains 1
arc@@ 1
45 0.7339076814647615
Do@@ 0.7634250521992533
pou@@ 1
magazine 1
Loc@@ 1
desc@@ 1
famil@@ 1
Royal 0.7177615080418394
org@@ 1
Ap@@ 0.9848649727644093
assass@@ 1
relation 1
Â@@ 1
prop@@ 1
Ban@@ 1
particu@@ 1
inaugur@@ 1
gouvern@@ 1
Anne 1
mann 0.5874654401264758
process@@ 1
bon@@ 1
mau@@ 1
1983 0.7541773872942594
hydro@@ 1
onde 1
communication 1
─ 1
référ@@ 1
personnel 1
occident@@ 1
ō 1
anti 1
ize 1
Sil@@ 0.7021935724264177
document@@ 1
cy@@ 1
prison 1
Fi@@ 0.8765036936954371
Nou@@ 1
ouse 1
Alg@@ 1
superficie 1
1972 0.7572910136563941
pér@@ 1
Tour@@ 1
Fré@@ 1
mil@@ 1
spir@@ 1
astr@@ 1
distance 1
atures 1
Notre 1
parall@@ 1
accep@@ 1
ett@@ 1
caus@@ 1
na@@ 1
tradition 1
orch@@ 1
jeun@@ 1
mobil@@ 1
eint 1
El 0.11247856754355086
ros@@ 1
Bernard 1
çu 1
radio 0.9565129568547764
fabri@@ 1
Maurice 1
ford 0.5252835845327997
vin 1
Os@@ 0.9712943292185643
norm@@ 1
M. 1
crip@@ 1
itable 1
princi@@ 1
agu@@ 1
Albert 1
itions 1
ton@@ 1
ek@@ 0.2554441196542614
Pan@@ 0.8532534555841191
1973 0.792885138869682
label 1
Bre@@ 0.6885568482699024
agent 1
IV 1
tefois 1
Op@@ 1
éo 1
dition 1
inclin@@ 1
32 0.7355612553516608
chr@@ 1
cam@@ 1
eh@@ 0.27784699292981774
antage 1
construc@@ 1
odi@@ 1
mach@@ 1
í@@ 0.1882709697176748
couple 1
Vol@@ 0.7846914033075924
We@@ 0.32043453900998053
information 1
marine 1
guit@@ 1
1976 0.7635587495562272
ts@@ 0.3486228087360626
isti@@ 0.8729076236199922
til 1
Sous 1
musici@@ 1
4,@@ 1
bronze 1
1979 0.732277881249814
urban@@ 1
sil 1
Î@@ 1
voc@@ 0.6677690197107347
1920 0.9301121645770555
1977 0.8067977467072626
1974 0.7563434567865476
importantes 1
Thi@@ 1
imi@@ 1
Fre@@ 0.35812329721601605
enter 1
ha 0.3118512409695589
fau@@ 1
inclu@@ 1
side 0.2790398009739736
uz@@ 0.7380714907290413
ther@@ 0.5571445503618839
Gé@@ 1
als 0.04473009368285482
ber 0.5623579867034167
fos@@ 1
responsable 1
eure 1
5,@@ 1
ec 1
ek 0.6253837133280024
train 1
monte 1
oto 0.9737375607428939
oux 1
Ven@@ 1
jo@@ 0.6838558162206302
dia 0.9882967420532205
ada 0.10469300433721489
nat@@ 1
vent 1
1978 0.7470783872230176
adr@@ 1
mascul@@ 1
propor@@ 1
Bos@@ 1
Pé@@ 1
uf@@ 0.5989368999848937
SS 1
protest@@ 1
vile 1
Cat@@ 1
Michael 0.7098487777707652
prov@@ 0.7486769768359098
articles 1
mani@@ 1
Festival 0.8843563357470736
ja 0.594654171900925
tis 1
û 1
Los 0.2782471674027119
Bri@@ 1
q@@ 0.9304876568831417
fabric@@ 1
75 0.760484826598548
Cass@@ 1
ram@@ 1
Champ@@ 1
bro@@ 0.48607958042323934
j 0.9431172894889674
dém@@ 1
Mur@@ 0.7492169457586545
art@@ 0.6451493739206634
blo@@ 1
Henry 0.8524216418669338
joint 1
demand@@ 1
Ko@@ 0.8065858798179073
ourg 1
ferrovi@@ 1
Ca@@ 1
adap@@ 1
Fon@@ 1
esses 0.9210090356101697
Wal@@ 0.629570172267666
C. 0.885300051836043
ye 0.5707689327901019
ō@@ 1
pa@@ 1
simil@@ 1
poly@@ 1
oc 1
prison@@ 1
orit@@ 1
ico 0.32381560976479984
justice 1
sive 0.4834149022189109
Bé@@ 1
minin 1
Aff@@ 1
200 0.6264897040011814
perman@@ 1
atr@@ 0.6578248822453686
transform@@ 1
hockey 1
composition 1
err@@ 0.6240386393018384
Ter@@ 1
Ho@@ 0.558255775889235
fru@@ 1
mains 1
renom@@ 1
6,@@ 1
vision 1
Cin@@ 1
lieutenant 1
relativ@@ 1
clim@@ 1
tun@@ 1
1967 0.7814039404480718
Marse@@ 1
ora 0.48810706248066094
apo@@ 1
act 0.4969259644645077
Vill@@ 1
isi 1
oli@@ 1
Bro@@ 0.7666519073898508
nati@@ 1
dimen@@ 1
agr@@ 1
alb@@ 1
orer 1
infan@@ 1
nuc@@ 1
nov@@ 1
angers 1
hyp@@ 1
Aut@@ 0.7268506678049087
oh@@ 0.6224184711070251
hal@@ 0.37718233582040334
endem@@ 1
commission 1
mouv@@ 1
sement 1
thode 1
erry 1
Fo@@ 0.9458436882691633
comport@@ 1
usi@@ 1
local 0.3610468983798817
infr@@ 1
bit@@ 1
vis 1
ilit@@ 1
Mi@@ 0.7720639107317296
meil@@ 1
La@@ 1
33 0.7859705389306428
tag@@ 1
titul@@ 1
rugby 1
vier 0.7227078813920678
villages 1
municipal 1
ories 0.6484662510016747
sk@@ 0.34616401004205233
ings 0.15003095211694978
code 1
foot@@ 1
Wil@@ 0.7044539856227682
Ra@@ 1
score 1
Mosco@@ 1
Dom@@ 1
Sam@@ 0.9041866277098587
commer@@ 1
ement@@ 1
nos 1
traduc@@ 1
Gau@@ 1
ella 0.5008153704262531
Var@@ 1
1969 0.7331790130675742
collaboration 1
publication 1
36 0.7803221852143689
Mich@@ 1
Al 0.605420246183531
Cô@@ 1
avent@@ 1
ust@@ 0.9782494680376834
š@@ 1
fre@@ 0.3671995447278127
mix@@ 1
ival@@ 1
Dev@@ 1
sible 1
Esp@@ 1
prin@@ 1
angla@@ 1
Ol@@ 0.9337555595740786
Alpes 1
tol@@ 1
ba 0.7856699216942844
ji 1
exerc@@ 1
auf 0.06538364406324228
Laurent 1
psych@@ 1
efs 1
anth@@ 1
ola 0.8571144326410471
Mos@@ 1
num@@ 0.9781621538002295
fun@@ 0.7184662206241663
absol@@ 1
emplo@@ 1
orph@@ 1
invent@@ 1
hol@@ 0.3815649903438717
champ@@ 1
Im@@ 0.6164110195111496
bi 1
Ba@@ 1
lon 1
expression 1
sent 0.8388060091709236
stein 0.5995090087671029
Kh@@ 0.7840581300775782
Grou@@ 1
eth@@ 0.7713097153247095
NGC 1
Hon@@ 0.7121345796803791
Direc@@ 1
Ge@@ 0.2286454768253753
archi@@ 1
prolong@@ 1
otes 1
ë@@ 1
ali 0.9539443967294178
Fer@@ 1
toire 1
ambi@@ 1
pp@@ 0.44530900101472665
rang 1
idi 1
festival 1
erg@@ 0.6478153265419546
audi@@ 1
combin@@ 0.8442543002934321
activ@@ 0.5136965389138797
Gir@@ 1
bot@@ 0.7316496170790371
Mol@@ 1
rock 0.7998127969508959
entales 1
ier@@ 0.32966302386220886
agric@@ 1
ri 1
1964 0.7345778877687206
Commission 1
Tun@@ 1
poin@@ 1
ez@@ 0.5171176001687366
W 0.4752658641951277
ach 0.23311676271897427
Sy@@ 0.8510350820049328
itu@@ 1
1962 0.7969343747131109
Daniel 1
Patr@@ 1
aille 1
yst@@ 1
ario 0.39385091548446294
lob@@ 1
note 1
mut@@ 1
andi@@ 1
portes 1
mul@@ 1
1944 0.6291671161932483
respectiv@@ 1
vote 1
so 0.1425102008141948
vil@@ 1
sport 1
Chap@@ 1
quet 1
application 1
once 0.6652107225380062
sen 0.34493978333083075
Art 0.5823749794710775
ster 0.3780093363288367
ef@@ 0.27482909634548425
conver@@ 1
isol@@ 1
1965 0.7307133308666239
abil@@ 1
iterran@@ 1
8,@@ 1
ols 1
ury 0.7225703691093466
if 0.40785254866946846
Fil@@ 0.989388573539956
Allem@@ 1
rej@@ 1
Sau@@ 1
City 0.2767111231466839
Ti@@ 0.6876421550944002
profes@@ 1
gyp@@ 1
pur@@ 0.4800238349871111
plic@@ 1
1966 0.735163506727315
senti@@ 1
collabor@@ 1
pes 1
aud@@ 1
ket 1
musul@@ 1
Marc 1
isses 1
gaz 1
toral 1
Un@@ 0.30110857172106475
discipl@@ 1
Hy@@ 0.9324707182823526
bunal 1
fili@@ 1
eter 0.4577076179465209
places 1
assist@@ 1
Distribu@@ 1
confi@@ 1
Peter 0.6096374112456778
visi@@ 1
trich@@ 1
see 0.5626288517590293
umin@@ 1
CA@@ 0.9422279815833376
alog@@ 1
René 1
Dis@@ 0.5304421663404129
Anti@@ 1
Ha@@ 0.9631560524196486
rate 1
osp@@ 1
World 0.19565748911875236
promotion 1
ibles 1
lin 1
Lam@@ 1
troph@@ 1
inet 1
Mir@@ 1
Sor@@ 1
Flor@@ 1
voire 1
Laur@@ 1
angle 1
Mel@@ 0.8195227193752024
isine 1
34 0.7398444602451768
atis@@ 1
Hel@@ 0.6988877116384481
inn@@ 0.2998714410689441
Te@@ 0.40451687861015495
onie 1
38 0.7573421616724537
reti@@ 1
fis@@ 1
sin 0.5775141058224478
ki@@ 0.5435613456912395
verg@@ 1
Rec@@ 0.47967731038794253
Prov@@ 1
Ram@@ 0.832094262231439
Dor@@ 0.8476184602112465
Est@@ 0.49864085068240926
1939 0.6905227792192373
age@@ 1
nit@@ 1
assi@@ 1
canal 1
tific@@ 1
Cou@@ 1
Ru@@ 0.7276894248005759
lon@@ 1
tél@@ 1
Maria 0.9570610696297037
test@@ 1
Brit@@ 1
que@@ 1
Sc@@ 0.8779813032712153
calcul@@ 1
Amér@@ 1
asc@@ 1
uer 1
my@@ 1
Jul@@ 1
Lang@@ 0.9470946875787135
Tom@@ 0.8834099073029259
tric@@ 1
1958 0.7752890252437074
bin@@ 0.9606096800045336
fe 0.6357937654010181
od 0.29000135439568975
science 1
Don@@ 1
omb@@ 1
Angeles 0.9272058328825824
Hal@@ 0.6720612168784257
ini@@ 1
phone 1
Mah@@ 0.8159836986698914
Chi@@ 0.8737494917985693
Cy@@ 1
iger 0.5304111955417401
ulation 1
Comité 1
ok 0.4784903562224477
AR@@ 0.9221880262133733
chi 0.9883657749596554
ames 1
adver@@ 1
Land 0.9813208824464805
&#124; 0.47161256762304193
distribution 1
raine 1
illy 1
elli 1
ith 0.6783291484502473
ques@@ 1
1866 1
ul 1
ail 0.7618259110535728
á 0.3705461622125459
fro@@ 1
fas@@ 0.8525820928632424
ham@@ 1
500 0.5166073918608216
ys 0.6088480793365441
ope 0.8575412883033883
diction 1
tera 1
fem@@ 1
concept 1
andes 1
yer 0.6944154153488175
37 0.7416395592302848
nis 0.6984186390473018
olympi@@ 1
Gren@@ 1
Franc@@ 1
princ@@ 1
semi 1
den@@ 0.26069415461766193
Lim@@ 1
Top@@ 1
Orig@@ 1
progr@@ 1
1963 0.7183408776232465
asi@@ 0.6149093560866745
Ferr@@ 1
9,@@ 1
illi@@ 1
Pon@@ 1
albums 1
ores 0.30625752738622086
pand@@ 1
Met@@ 0.7211226181067112
austr@@ 1
ingu@@ 1
due 0.32798212352251527
Atlan@@ 1
portu@@ 1
Lav@@ 1
ili 1
mili@@ 1
way 0.19967953968386176
Nov@@ 0.9583242075687309
sel@@ 0.29303814002166684
ów 1
ograp@@ 1
corresp@@ 1
Luc@@ 1
grade 1
ze@@ 0.40036424089391903
55 0.7699231425291125
ney 0.4710309901986772
ć 1
ester 0.6423052523707661
âteau 1
Ham@@ 0.9316542487099975
Arts 0.8659149643774638
dyn@@ 1
alt@@ 0.5087284456627734
descend@@ 1
gens 1
Bu@@ 0.9633370452920009
ters 0.20163555406132527
sanc@@ 1
65 0.5597043185616489
amm@@ 0.4088987770813904
Congr@@ 1
Gre@@ 0.44752369065302666
pa 1
ude 1
Victor 1
crimin@@ 1
Dur@@ 1
consci@@ 1
Argent@@ 1
rus@@ 1
brig@@ 1
1956 0.7214748008697899
Bau@@ 0.3944388649006124
ètres 1
7,@@ 1
oty@@ 1
Liv@@ 1
Py@@ 1
minim@@ 1
var@@ 0.8479167664901593
1914 0.9404115128256278
sat@@ 1
diplom@@ 1
table 1
plans 1
symb@@ 1
post@@ 1
Division 0.4554413022677601
tu 1
ary 0.08387214442892785
sult@@ 1
48 0.75237982936826
J 0.9328443639874157
64 0.6686567536711927
ert 0.19981355333230646
85 0.8321544609638075
ôle 1
sug@@ 1
1948 0.6910909196135023
pris@@ 1
ima 0.7614249607367317
ave 0.4478396720249513
42 0.767878100614473
agnie 1
International 0.3342876584544696
aux@@ 1
St 0.7332750337193901
A. 0.6009705902957801
Boul@@ 1
compens@@ 1
frag@@ 1
1946 0.6774152190421868
San@@ 0.709158859891873
bras 1
britanni@@ 1
ori 1
aul@@ 1
individu@@ 0.9302741637112821
Reg@@ 0.2972356457198418
isa 1
Washington 0.5577025310203996
over 0.11635859817937357
Chev@@ 1
diff@@ 1
1961 0.70394655075285
č@@ 1
oni 1
lov@@ 1
disponible 1
Mun@@ 1
Han@@ 0.8981103558274794
jour@@ 1
alm@@ 0.7499693203358169
Isra@@ 1
fusi@@ 1
Val 1
alogue 1
Records 0.6832944761599212
May@@ 1
veaux 1
versions 1
Culture 1
1820 1
oul 1
ff 0.6428207588300904
aug@@ 1
locales 1
lard 1
dram@@ 1
atri@@ 1
compéti@@ 1
cot@@ 1
polici@@ 1
1959 0.7183379552411266
Hau@@ 1
IG@@ 1
tempor@@ 0.8955841594380125
by@@ 1
gol@@ 0.8314009140965583
amer@@ 1
J.@@ 1
ill 0.4582177734741003
Ta@@ 1
fol@@ 0.5083666733652262
princip@@ 1
mess@@ 1
Bir@@ 0.6758091791663354
US 0.24550077299712686
Gas@@ 1
ular@@ 1
exten@@ 0.6124921185775276
Gl@@ 0.5990870716349507
line 0.21991340798955752
contact 1
van@@ 1
Der@@ 0.9179768239534442
final 0.24537938437343285
ball@@ 1
Van 1
ky 0.6789553663550195
signific@@ 1
ny 1
aga 0.903408256252368
los 0.03243336461332694
concert 1
sum@@ 0.6630120673713107
ysi@@ 1
1936 0.747588687219108
1947 0.7156649321125635
39 0.7601991833711157
ato 0.4180602990929827
facil@@ 1
ash@@ 0.4051960982155744
ona 0.4785316912281599
oun 1
dici@@ 1
usion 1
vir 1
religion 1
trains 1
José 0.7405152193112381
st 0.16343582565483306
52 0.7898212649862719
Chicago 0.7505311636709787
session 1
flor@@ 1
och@@ 0.9731999372470705
IS@@ 0.9368465552306598
Cap@@ 0.9287615821821678
Rich@@ 0.7463772633430705
explor@@ 1
Moh@@ 1
Roger 1
Pic@@ 1
ko@@ 0.5147065181185498
aly@@ 1
cir@@ 1
Sec@@ 0.7472141528634922
Coll@@ 1
anes 1
opp@@ 0.7157888788528419
bud@@ 1
Air 0.55633837206751
traf@@ 1
dav@@ 1
Rol@@ 1
ectu@@ 1
Som@@ 1
AS@@ 0.8676769484122345
ack@@ 0.26766662638340766
honor@@ 1
Maz@@ 1
gros@@ 1
xi@@ 1
Bapti@@ 1
las 0.05002838525689779
tic 0.23678377938163178
awa 1
distingu@@ 1
front 0.6650499236701318
migr@@ 1
44 0.6740751241376743
Denis 1
und@@ 0.14428119491809566
atu@@ 1
human@@ 1
mass@@ 1
orité 1
Christian 0.6186016523372053
temple 1
ple 1
sociales 1
taines 1
top@@ 1
Ke@@ 0.7084828366778021
destruc@@ 1
Sant@@ 1
Situation 1
tail 1
cel 1
1949 0.6782843246120471
adul@@ 1
Far@@ 0.5484443612036645
active 0.6431777358539734
Vic@@ 0.9116656582712725
1942 0.5877604159036416
Portugal 1
cus@@ 0.5819717697440561
partic@@ 1
pin@@ 0.824296732592458
manus@@ 1
Il@@ 0.9672655088173236
1918 0.6938720010968303
Ob@@ 0.677502784718437
ello 0.674949140964078
Oli@@ 1
Ay@@ 1
ef 0.7481972384882816
franc@@ 1
Ath@@ 1
ive 1
51 0.7958310238300723
seul@@ 1
illi 1
mit 0.03449657844628782
41 0.7705247735318591
retir@@ 1
Nav@@ 0.8000044674652357
eci 1
territori@@ 1
ments 0.38985028385565723
cé@@ 1
ner@@ 0.4533188784270427
ati 0.9281892955946784
oti@@ 0.7117313931375814
tie 1
1957 0.6872194850316788
1954 0.7057265915083518
47 0.7661128090026083
IN@@ 1
1943 0.5739555763701876
Pom@@ 1
1938 0.6568902450645218
1955 0.7081638754060339
valu@@ 1
aun@@ 1
dro@@ 0.6083102551195535
und 0.010718147840757898
versit@@ 1
ca@@ 1
conom@@ 1
kin 1
rog@@ 1
consiste 1
Nic@@ 1
Vier@@ 1
anda 0.7162427295877816
simpl@@ 1
san@@ 0.6869312365053944
for 0.013885084638029704
Rev@@ 1
az 0.553714886072728
ame@@ 1
Camp@@ 0.7442223181153647
ake 0.3938289332178609
illa 0.5518012421430659
Santa 0.6363872249484277
oz@@ 0.9890001752101386
43 0.7911130963616955
criv@@ 1
nation 1
Politi@@ 1
agon 1
ish@@ 0.23943465847561698
get 0.4261365257820079
radic@@ 1
Domin@@ 1
Simon 1
piano 1
LC 1
1941 0.5222541066638644
exter@@ 1
mac@@ 1
privil@@ 1
commercial 1
gam@@ 1
onte 1
cycle 1
bili@@ 1
72 0.8185538687986758
auff@@ 1
Hab@@ 1
sang 1
bomb@@ 1
itz 0.542199813082551
Rap@@ 1
field 0.24755909116160532
ort 0.6030706772499187
rig@@ 1
istr@@ 0.8012812844901217
ere 0.15559500303683638
1952 0.6730107374807964
ony@@ 1
XV 1
doctor@@ 1
68 0.8764050864097134
Ord@@ 1
annes 1
original 0.306698639173772
aint 1
rot@@ 0.8312774456691856
kl@@ 0.3670754176638071
Madrid 0.9253643571464514
ions 1
ution 0.7286816433912785
ciné@@ 1
Dar@@ 0.4113183155962882
ck 0.5777690361757115
consult@@ 1
Radio 0.7815059516076273
igner 1
ix@@ 1
56 0.7916243877892527
ific@@ 0.7774661854594841
manuel 1
Men@@ 0.7873565630699987
1953 0.6979498940261851
of@@ 0.30230410070884733
Jac@@ 1
Fam@@ 1
My@@ 0.8700475014521939
Œ@@ 1
2022 0.6875509626905218
88 0.8344213703025827
College 0.2766825839448775
yle 0.9173238954873444
League 0.20616232387391176
atom@@ 1
coloni@@ 1
53 0.7809705035297221
Cur@@ 0.5964730340400513
dal@@ 1
êque 1
volume 1
ron@@ 0.9700390837554776
Eug@@ 1
ero 0.2909679480477612
ington 0.5208909492214226
Nations 1
cent 0.9436091701015905
Park 0.33723544357486246
ā@@ 0.6047170765413157
artiller@@ 1
enz@@ 0.3456902904560597
indic@@ 0.6245330833381003
royal 1
Ul@@ 0.6596347535747775
mond 1
Not@@ 0.5932680097303659
Catherine 1
ess 0.14545089314641801
66 0.8146159237501343
yg@@ 1
asi 1
1937 0.6871033372335004
direct 1
Neu@@ 0.8674553329626463
gh@@ 1
Bibli@@ 1
AC 1
ras@@ 1
quarti@@ 1
orig@@ 1
chaî@@ 1
tempér@@ 1
emi 1
Milan 1
pati@@ 1
46 0.7557724119009394
atre 1
Blo@@ 1
58 0.7962640314261108
ih@@ 0.46355980171492334
Mot@@ 0.708696703147912
wa 0.41366441582045005
63 0.822578155130543
54 0.7465294284255782
hi 0.6818946089546046
commen@@ 1
ose 0.895203274293601
transfer@@ 0.8648374939308117
symbol@@ 1
national@@ 1
1933 0.6568170253635912
J. 0.6525463424037734
Bol@@ 0.742103378492697
49 0.7604152303972637
Marine 1
cal 1
gende 1
cy 1
fiction 1
encour@@ 1
ung 0.048678300576440355
RA@@ 0.866372795414099
ties 0.18691046419165253
eds 0.5683747741125794
dynam@@ 1
Math@@ 1
1919 0.6882725223976174
62 0.7888942224476776
ics 0.2024389133936657
Bul@@ 0.6277341647017075
terres@@ 1
lis@@ 1
Constitu@@ 1
erre@@ 1
Aus@@ 0.13693904798760884
Pau@@ 1
77 0.8349703268044804
Arthur 1
61 0.828518564069443
univers@@ 1
trop@@ 1
administrative 1
relati@@ 0.8629174462918554
ium 0.7427952301591572
ective 0.46967625331333096
dy 0.6710452421093672
Gor@@ 1
1951 0.6944002981152683
Bil@@ 0.3959210052318604
visit@@ 0.8902732836810698
performance 0.6129732356245776
ical 0.10586586767531964
86 0.794081706844161
simul@@ 1
estr@@ 0.3102846291481939
onds 1
requ@@ 0.49739243013843076
vig@@ 1
ologies 1
57 0.7804407909504474
ban 0.6289434271256151
cultiv@@ 1
Gro@@ 0.5276585825044072
Christ@@ 0.5365766478702122
Rus@@ 0.995650522421051
agin@@ 1
ensis 0.799860617396709
Eng@@ 0.5436779651262732
War@@ 0.4727281191231871
Barcel@@ 1
1935 0.7108856554029591
lac@@ 1
uli@@ 1
78 0.8010601520874685
67 0.8205394478415068
Vincent 1
Christ 1
ä@@ 0.09356145714942862
Mit@@ 0.4993626986960285
sour@@ 1
tax@@ 1
dispon@@ 1
Norman@@ 1
ES@@ 1
Administration 1
ten 0.04599537086831314
Vall@@ 1
chron@@ 1
Occ@@ 1
ilien 1
forts 1
Luci@@ 1
ister 0.8614733340763184
Ly@@ 0.9855687233134968
autonom@@ 1
Pa@@ 0.7699781005047429
harmon@@ 1
59 0.8111172847851891
Bay@@ 0.9104578165424468
Lar@@ 1
SN@@ 1
Francisco 0.6134439751477304
stations 1
CD 0.7340677624846431
Carol@@ 1
gien 1
dos 0.18611454586561338
Lie@@ 1
76 0.7691222175180622
enses 1
relev@@ 1
instruc@@ 1
ev 1
param@@ 1
ack 0.3092080341477463
join@@ 1
74 0.8282060549395748
1929 0.7136347366699975
mos@@ 1
Arch@@ 0.6281476708283478
Organisation 1
ash 0.6171265670343533
vet@@ 1
statisti@@ 1
zo 0.80098798648119
ock@@ 1
Af@@ 1
arri@@ 0.6040684759140289
lab@@ 0.6382140406046639
vor@@ 0.1481977675298866
95 0.748506990838623
patri@@ 1
1934 0.6985505217050914
87 0.8266076657152016
84 0.8081257770764454
phil@@ 1
mine 0.9864276481341865
éné@@ 1
juni@@ 1
CO@@ 0.8457238364859407
distribu@@ 1
ga 0.5096348140615073
Ker@@ 0.9140659632008238
UR@@ 1
Lin@@ 0.5195876594164961
aka 0.9089566289601171
surviv@@ 1
Ot@@ 0.7590044508657727
ito 0.42750936128589984
haus@@ 1
classes 1
eta 0.43543820418760637
rais 1
1932 0.7363661589581004
laborat@@ 1
Hug@@ 1
ón 0.16208300958886468
300 0.6114869024243863
troit 1
dier 1
├ 1
rut@@ 1
AD@@ 1
moder@@ 0.8541187505843927
we@@ 0.1164625820943197
exper@@ 1
1900 0.8297509922913108
Maur@@ 1
ab 0.1589497141605192
Indi@@ 0.5027097397204553
gran@@ 1
ke@@ 0.2307591081030157
Service 0.7876318675539545
Nati@@ 0.8809048167669283
Aur@@ 1
mans 1
Disney 1
adol@@ 1
temp@@ 1
Mes@@ 1
septi@@ 1
ado 0.044995293463147984
AS 1
âte@@ 1
cha 0.5201486683603133
con 0.03761301275524868
vern@@ 1
82 0.7976356015995707
venue 1
ament 1
Mul@@ 0.86502122805483
men 0.13408043985991666
musical 0.6421644362331644
explic@@ 1
sk 1
Patrick 1
Lit@@ 1
ua 0.5671525701595896
bit 1
Rel@@ 0.47647484197261974
Lev@@ 0.9615927702095975
dium 1
orial 0.6570539218795378
captur@@ 0.924840984829465
ory 0.17503327095532145
71 0.7908006168497923
grap@@ 1
Brun@@ 1
ova 1
hydr@@ 1
eo 0.3539963333050066
jum@@ 1
dres@@ 0.6794038595159501
astronom@@ 1
sab@@ 1
bach 0.48114989734912644
1928 0.6828549523471503
83 0.7895628563610005
servat@@ 1
ost@@ 0.6769960936663582
Cre@@ 0.5932567594464381
abl@@ 0.7170091388739958
avier 1
81 0.7969772217383181
ON@@ 1
Smith 0.585127541256899
oration 1
alp@@ 1
tam@@ 0.7478087683990564
School 0.1688932047981192
ator@@ 1
400 0.6516193006782928
cus 1
format 1
Ci@@ 0.9109989936697369
Syst@@ 1
rang@@ 1
race 0.4982137022186165
extra@@ 1
sition 1
1924 0.7231816301008278
attention 1
hist@@ 1
Uni@@ 0.856969302293359
73 0.8196181734421917
1910 0.8035468289294707
PS 1
aceae 0.7633882099109517
Guy 1
una 0.036096241351206385
TV 0.3110036383372624
69 0.8096726080192239
ges@@ 0.25863524742813576
itch 1
ila 0.6235185163987466
aki 0.9538341592635804
old 0.15904945772769627
embar@@ 1
cru@@ 0.6661821981331892
ham 0.6219117475785445
Juan 0.5491309115952194
án 0.21064624285510272
Land@@ 0.23598703154592524
fam@@ 1
cut@@ 1
Pot@@ 0.8849570828731471
ark 1
Comm@@ 0.7861606683502905
Luxemb@@ 1
naz@@ 1
san 1
Bern@@ 1
Port 1
enni@@ 1
Vie@@ 1
Prot@@ 0.49604961456233704
SC 1
bu 0.5480683819014347
dos@@ 1
grad@@ 1
intér@@ 1
qua 0.9892341975907982
net 0.4619821170582964
acu@@ 1
usa 1
Den@@ 0.5380170277254
modern@@ 1
Pres@@ 0.4878373303453077
ron 1
01 0.7231123807695992
Pin@@ 0.974435591183783
lion 0.7616157555260863
len@@ 0.3045851811802402
Let@@ 1
Antonio 0.8328305062006575
Pap@@ 0.6792581365775862
Lan@@ 0.99038561104684
Wor@@ 0.3148714384311659
venti@@ 1
ling 0.30083032705521423
alternati@@ 1
1870 1
Super 0.8245183581450783
Music 0.3780376543659781
orn@@ 1
CE@@ 1
sel 0.7245854281818151
prol@@ 1
uri@@ 1
Tokyo 1
New@@ 0.4763286977238925
ects 0.21543709416375567
ian 0.1839714509549625
Ari@@ 1
performances 1
ident@@ 1
loy@@ 1
cens@@ 1
invas@@ 1
ung@@ 0.19400956664305885
1925 0.7240251642439643
kar@@ 0.4115791471823233
79 0.8059374462028099
lor@@ 1
Cla@@ 1
entin 1
ingen 0.2932258005516506
nou@@ 1
bli@@ 1
endi@@ 0.6597315033035267
mondi@@ 1
phy@@ 1
endr@@ 1
Arn@@ 1
Rem@@ 1
spé@@ 1
1912 0.7283890715637384
aro 1
civil 0.7414026521484769
ament@@ 0.9514366563546729
Raymond 1
1931 0.7004714343033708
suspen@@ 1
Eur@@ 1
mur@@ 0.5190613507459745
bom@@ 1
oll@@ 0.28201101665195816
arab@@ 1
visible 1
CN@@ 1
ief 0.9707729069533412
atten@@ 1
intr@@ 1
Barr@@ 1
Kir@@ 0.6619845685480972
rain@@ 1
anger@@ 1
suc@@ 0.6801280018658156
SA 1
comment@@ 1
Wat@@ 0.7146646051559052
Doc@@ 1
Bab@@ 0.8809523348825323
Jos@@ 1
conclu@@ 0.9985574315254618
idente 1
onom@@ 0.7769315721689247
Sab@@ 0.8228809120628571
ald 0.8144034268255101
ses@@ 1
pier@@ 1
aile 1
ander 1
sing@@ 0.7545011684835722
dan 0.6505654478418313
30@@ 0.4891693033308207
ene 0.13167389040843627
Tre@@ 0.40129197828341795
Cu@@ 0.6407803164081748
Az@@ 0.8924129370714077
Lab@@ 0.5712342852505011
Paci@@ 1
solo 0.41565941817130325
lus 1
tus 1
Texas 0.5152473619211722
Population 1
Lee 0.699535212514157
Max 1
Gol@@ 0.8271024332101098
tec@@ 1
1921 0.696597257909745
zi 1
1926 0.6818833577489226
Trav@@ 1
United 0.09816961643111156
tin@@ 0.8638955287893348
ortho@@ 1
Ukraine 1
applic@@ 1
Ali@@ 1
Alfred 1
vac@@ 1
1922 0.6859575769538976
atmos@@ 1
Dem@@ 0.49061422173614866
FI@@ 0.9816272744832777
ele 0.4258275965546029
atur@@ 0.7230876817909216
West 0.22258243592689766
yn 0.8601258405622444
Hen@@ 1
AC@@ 0.7885981953239457
Fort 0.8761096002818232
consol@@ 1
aco 1
tari@@ 1
alco@@ 1
American 0.09969258020891665
can 0.09944654187340077
PC@@ 1
canc@@ 0.6564557619760573
Fri@@ 0.7588352364404489
Jan@@ 1
Bes@@ 0.3288762705191368
Football 0.4948259471107432
Super@@ 0.6319368970821506
illet 1
All@@ 0.5073250948138402
aim@@ 1
qualif@@ 1
Tib@@ 1
Saison 0.4508748233547163
Ben 1
Jack 0.8350875302662439
Fab@@ 1
Mary 0.5368405658290685
Wi@@ 0.49254958980275465
alition 1
Force 0.6182875306721821
Lac@@ 1
mile 1
ock 0.49184199715963606
mic@@ 1
Hil@@ 0.743666588654062
enta 0.4625739700718907
92 0.7903951227696832
Int@@ 1
dez 1
Mass@@ 1
Tal@@ 0.6483239868790143
1917 0.6118940608691038
nam@@ 0.2652005360350407
Plan@@ 0.6639503392063899
bloc@@ 1
ord 0.8240596595257786
Tom 0.8872994732479779
Louise 1
âce 1
micro@@ 1
zo@@ 1
99 0.7174406253522048
tile 1
sw@@ 0.29501673938642003
* 0.17381059869975263
1927 0.6644077108781311
mig@@ 0.748675496638986
Wo@@ 0.39977072101468025
zy@@ 0.8999358110898732
gul@@ 1
Hav@@ 0.874409284626398
ik 0.32529322462807114
sam@@ 0.9120377220470633
B. 0.4327169982636516
Internet 1
CF 1
sis 1
insec@@ 1
Pat@@ 0.6837329386740025
matr@@ 1
compil@@ 1
tac@@ 1
Ern@@ 1
Roy@@ 1
blin 1
ciales 1
da@@ 1
po 0.6492530368348327
amin@@ 0.894207742363133
drome 1
seud@@ 1
cial 0.6458487694726959
Buc@@ 0.9193299387280504
ech 0.474617413107139
shire 0.49774789020352317
iy@@ 0.5766147471413553
Nap@@ 1
office 0.412122110486025
Rot@@ 0.6159783439580983
ö@@ 0.13383983066455457
voi 1
lia 1
Rio 1
Gabriel 1
mon 1
Dro@@ 1
asse@@ 1
nel 1
ech@@ 0.2528248265837966
parts 0.5456288282150853
versi@@ 0.4740972713922727
28@@ 0.5591034710590899
Fe@@ 0.5042803409554021
animal 1
Cir@@ 0.8187000952508859
esta 0.21686529806083518
fig@@ 0.7718607405865372
go 0.25154696488018885
off 0.16453199050565034
ancy 1
rar@@ 1
Francis 1
pre 0.8708978709719637
Christoph@@ 1
pom@@ 1
Sk@@ 0.6535564522360383
popular@@ 1
í 0.3597014977074222
Kon@@ 0.18916220995709862
Sand@@ 0.6212214895723944
heim 0.6411416130855642
gen 0.15751492633961178
sar@@ 1
pic@@ 0.452652827701071
1923 0.6680923380210075
Black 0.47726186341182814
olo 1
On@@ 0.40311337442021805
got@@ 1
ologne 1
Tak@@ 0.7983997421719286
Hum@@ 0.7446880498326287
million 0.25522880270590925
estig@@ 1
well 0.09542706316711283
finales 1
Kal@@ 0.5260584688827662
alien 1
trol@@ 0.8522638969727869
vey 0.8240015494849454
iert 0.2397410919456395
grave 1
usalem 1
din@@ 0.5834023038048943
Bass@@ 1
FF 1
Frank 0.7404965192412699
Les@@ 1
Nar@@ 1
tori@@ 1
96 0.7487197174252508
Mark 0.6092932433860999
VI 1
ref 1
alter@@ 0.6397811102767312
Mau@@ 1
philosoph@@ 0.9584950592253159
oma 0.3594772899169667
win 0.23618852144632588
89 0.8153758641796465
primer 0.3717743378790922
ava 0.84060026297535
RE@@ 1
ett 0.40786999065054674
Cab@@ 0.8682806212300171
jazz 1
oud 1
sir@@ 1
ums 0.3004978235389623
Kat@@ 0.6123688051558359
flan@@ 1
Jam@@ 0.9011495465565451
Constant@@ 1
West@@ 0.36500483385771393
SA@@ 0.9783604015461793
ota 0.523337825596257
criti@@ 1
ever 0.3465308989622537
Mik@@ 1
isra@@ 1
Roc@@ 0.8397386359841197
Nu@@ 0.8586978505420864
agog@@ 1
asser 1
horiz@@ 1
Fa@@ 1
bac@@ 0.843588328052226
Syl@@ 1
tor 0.1316642411198253
embre 1
18@@ 0.3982514560750946
29@@ 0.6099777278234582
Z 0.5922251859997
Bran@@ 1
berg@@ 1
Journal 1
02 0.8029368589864676
Cham@@ 1
1913 0.7110283556995225
satis@@ 1
uni 1
Adri@@ 1
00@@ 0.4989197737147024
correc@@ 1
rey 0.46803208613916314
les@@ 0.38155568247580096
Isab@@ 1
aches 0.6888589768806003
aujour@@ 1
Form@@ 0.7371597996564885
dh@@ 0.6202266491414663
exclusiv@@ 1
ogr@@ 1
Edward 0.6430385472653499
1905 0.7528437777156292
07 0.7559375292407573
Hall 0.3891761971676326
gor@@ 1
tér@@ 1
05 0.7002467670563298
Alexand@@ 1
gio 1
let 0.5594137132102907
yd@@ 1
Liber@@ 0.4567092395818652
Rab@@ 1
iner 1
ight 0.1706141712817544
agon@@ 1
24@@ 0.49694589391632676
lav@@ 1
1911 0.744099636314808
US@@ 0.6094869194160435
anz@@ 0.27311884132878517
rez 1
CI@@ 1
propag@@ 1
portr@@ 0.8758812799539599
standard 0.7152652383488836
inger 0.41683482632540914
Star 0.6082305736237421
Vir@@ 0.6148090200573787
ei 0.38967084269096947
acre 1
AN@@ 1
Red 0.47797699821410805
bau@@ 0.3258946480307107
ax 1
Prince 0.7699725752599147
25@@ 0.299071087376845
lave 1
burg 0.23166251203144186
Cav@@ 1
Et@@ 0.8703059583784007
Lord 0.6683325209677293
Sw@@ 0.24772413835562962
list@@ 0.47599148345031617
maç@@ 1
04 0.7357107834752951
Ing@@ 1
amen 0.7118582575718118
Lis@@ 1
bases 1
firm@@ 1
leader 0.6130622514054933
impres@@ 1
far@@ 0.40884358985251823
aya 0.4309906513717843
dri@@ 0.28718282643185356
Agr@@ 0.963037093185988
pun@@ 0.6001941184185022
Son@@ 0.6980100346660111
ado@@ 1
introduc@@ 0.8454963765028987
Long@@ 1
93 0.7673523768723541
vec@@ 1
Phil@@ 0.7045588489416723
Sic@@ 1
ine@@ 0.6072415636314751
bos@@ 1
chor@@ 1
Ig@@ 1
Company 0.33458852942345957
min 1
amen@@ 1
serie 0.42550774449798295
Sel@@ 0.5988927807452218
Congo 1
embr@@ 1
Ak@@ 0.3429387109639425
op 0.2376616282166159
che@@ 0.9589524905062607
Gran@@ 0.8330850430381485
oli 1
98 0.7154880095745036
1908 0.7412508371758428
Ind@@ 0.941460542104422
sul@@ 1
adj@@ 1
Kam@@ 0.602163031194012
itage 0.9341674977175325
unit 0.683660737705638
Scott 0.7798362038742049
expan@@ 0.8484349758548678
chen@@ 0.8036000464843122
Pri@@ 0.32117116503344234
consist@@ 0.4505379403036471
Dav@@ 0.7947774183179098
low 0.12572054233193747
intel@@ 0.8392984014613655
Mand@@ 0.9577252899565447
Fac@@ 0.6369064892917932
rad@@ 0.9840788425298976
nh@@ 0.2213824210954235
cyc@@ 1
Hir@@ 0.9227825376431998
osph@@ 1
Dj@@ 1
Eu@@ 0.9106589258409485
imb@@ 0.9379118380876328
Arab@@ 0.7741504815788429
08 0.6995710467098524
Sig@@ 0.9748226712874516
bol@@ 0.6926037178543172
ensive 0.8303526412350613
Sen@@ 0.2156933508007799
sang@@ 1
Sac@@ 1
King 0.2834557253331496
etti 0.9406272315604276
Rad@@ 0.6592559028361468
Kor@@ 0.3464873966936605
Fal@@ 0.7445216135392904
Dam@@ 0.9247904399178838
vul@@ 1
Iran 0.8905194090639826
ist 0.02059184191902693
06 0.7460831417666857
OS 0.771693553647811
acher 0.5891359724521904
# 0.45219890093327536
fal@@ 0.35575893358790545
uf 1
Cos@@ 1
Olympi@@ 1
Sain@@ 1
ass 0.1738739393028929
Plat@@ 0.4901107393748716
Person@@ 0.9841449813205072
confirm@@ 0.715146412837261
Pre@@ 0.3012800027092913
mo 0.4010925594127052
cho 0.15479712447397856
oa 0.7223770790345214
ministr@@ 1
jan 1
Open 0.5799846593164142
ø@@ 0.7158502799868999
clav@@ 1
absor@@ 1
03 0.755099463002261
four 0.1303753145648921
Anna 0.9047684768676252
Nom@@ 1
ity 0.05392643992702292
test 0.627845334509335
.. 1
Abr@@ 1
Vit@@ 1
ando 0.09301693314018805
Walter 0.7951475723995307
DVD 0.9269489519208636
ud 0.6728843600238433
cost@@ 0.5532696259844545
heb@@ 1
09 0.6873803261133732
occas@@ 0.9349303624410439
Karl 0.563751609089074
Y 0.45599284883603497
Dol@@ 0.8393671257474303
eth 0.5795132686068994
IE@@ 1
Situ@@ 1
EP 0.8533605590672952
Sul@@ 0.8202092461642668
150 0.6953834575489537
97 0.7281182544318547
ther 0.26126179879944467
tropolit@@ 1
eri 0.6211229859035793
pis@@ 1
Boston 0.6754751325692873
innov@@ 1
91 0.7480633413200327
RC 1
\ 1
But@@ 0.7856216868962627
lies 0.3558115996485476
Lig@@ 1
aver@@ 0.9123825334749562
efforts 0.953623645752901
Street 0.27213717590060277
abol@@ 0.9541091608535817
fera 1
Pen@@ 0.4957023338133092
sym@@ 0.9398560927584965
94 0.7375844980579032
Dre@@ 0.46171996175478935
baseball 1
subst@@ 1
aph@@ 1
the@@ 0.1569915122271037
afé 1
ius 0.9487813114190922
1906 0.7502848744783116
1880 1
comment 1
sent@@ 0.6775104323264789
Vel@@ 1
communic@@ 1
Mu@@ 0.4574862360212388
26@@ 0.5838786453393503
Win@@ 0.5034999107784447
atus 0.5628732163494489
han 0.3335481269036575
igh@@ 0.23012788670981005
Bot@@ 0.34359592921751336
Ford 1
19@@ 0.43340890464754966
TA 0.9229044576239058
Cop@@ 0.8577387510724686
Ev@@ 0.4919377525952124
Jones 0.640484297926005
iro 0.9094956198309858
Capit@@ 1
Clar@@ 0.7684981603099547
Front 1
recens@@ 1
edi 1
cht@@ 0.8244829864963312
Rob@@ 0.9047393654090363
sports 0.6874833854017331
terror@@ 1
Tol@@ 0.8748756691904352
1907 0.7338300259037336
vière 1
Red@@ 0.5501579477803599
changes 0.6155637253976413
Guin@@ 1
cum@@ 0.906031220724864
plas@@ 0.9666821390251795
osa 0.32786798385792376
allo 1
Lec@@ 1
cm 0.5367761047798552
Bow@@ 0.6111063387426893
ath 0.32126818687609354
mm 0.3861423058396129
Sour@@ 1
Q 0.7522390349463521
mar 0.5886679634292479
Tim@@ 0.7673144801943792
Dau@@ 1
expres@@ 0.41611728423416655
hie 1
ji@@ 1
ika 0.5503541574077344
Conn@@ 0.8638997554471289
Tam@@ 0.6581393089186983
alim@@ 1
ago@@ 1
fur@@ 0.8139197071648661
ark@@ 0.41110277548492014
Sm@@ 0.7500924152059181
mente 1
tern@@ 0.5655253104502882
Mis@@ 0.8177183153411397
ficie 1
Fle@@ 0.8137958654553332
Tu@@ 0.7181708264553794
wood 0.3548135485530845
Victoria 0.6836537843247324
Ali 0.9826502050247403
aham 0.9539709683403006
Cot@@ 1
ouver 1
quer@@ 1
approxim@@ 1
PC 1
Awards 0.4074643277410713
1904 0.7522558810208977
Slov@@ 1
Dal@@ 1
nch@@ 0.6222451627945288
ases 0.8688793652369593
1901 0.818349482742846
Alb@@ 0.6711988591794794
UC@@ 1
1915 0.6301082121879
Sin@@ 0.5003643713419978
Alex@@ 1
Manuel 0.8964305282918825
kin@@ 0.4047352982631206
los@@ 0.300631940074284
rab@@ 1
hon@@ 0.4642548282864146
Pier@@ 1
Fu@@ 0.5308387470779637
cu 1
red@@ 0.6863225993643762
IC@@ 0.7230019148255424
Pel@@ 1
Log@@ 1
lan 1
ny@@ 0.9915035829521016
Adam 1
Williams 0.6454933952883428
Don 0.6195976762072044
assistant 0.886747701354849
1860 1
stell@@ 0.594628231707408
val 1
vide 1
poss@@ 1
1890 0.862174976594514
andi 1
ston 0.6298589784838297
pers@@ 1
otr@@ 1
Ferdinand 1
dres 1
ener 0.3963751870003965
Man 0.45014813272410525
AR 1
apos@@ 1
view 0.200570638374769
dil@@ 1
fes@@ 0.6926627943909568
Carlos 0.5858064449442182
Ric@@ 1
Corn@@ 0.8333871847624998
ster@@ 0.24328421900076244
P. 0.7401197545273537
ende 0.13929459726634447
etta 1
ulu 1
dies 0.4152363448860662
Mak@@ 0.7178519066295157
1909 0.7166142367754984
fich@@ 1
ip@@ 0.6760920355727311
Kn@@ 0.45638479109812075
Lag@@ 0.8040558797950678
Ka@@ 1
Chem@@ 0.7970679495590929
Ł@@ 1
bile 1
Joe 0.7508471813033667
Cast@@ 1
Sir 0.5244650118136408
Rod@@ 1
pros@@ 0.6672495913074381
Ga@@ 1
Sem@@ 0.5351744821822538
Nat@@ 1
Alexander 0.5030724626401373
fort@@ 1
AP@@ 0.8329927806630409
ion@@ 0.5400596606126046
Giovanni 1
rique 1
Ach@@ 1
incorpor@@ 0.44778972813270196
ú@@ 0.2694122052646007
MS 0.8931797277004583
pes@@ 0.9396346358531633
Society 0.3440595974995506
pit@@ 0.8745980617216002
1916 0.6255152224638766
gn@@ 1
cio 0.5629601830410863
Leg@@ 0.2643417957560221
RT@@ 1
ann 0.691137904660572
ffe 0.8795539912074763
dis 1
XIII 1
acts 0.6190077718896099
S. 0.5694093762710017
uri 1
Maj@@ 1
ople 1
Tit@@ 0.5525594775862067
Lem@@ 1
villa 1
ku@@ 0.34404484203549474
Hans 0.627917644018976
Love 0.5133431998817286
CA 0.8561945370418275
festiv@@ 1
apar@@ 0.7825285989919233
bury 0.5549196055416455
Pav@@ 1
Sing@@ 0.6333052577693531
len 0.16567601185498732
aper@@ 1
Acc@@ 1
astron@@ 1
Samuel 1
ew@@ 0.316491266340608
pop 0.7065352768072597
virus 1
Archit@@ 1
1848 1
NBA 0.9885183262621815
ustr@@ 0.7919892737410439
confl@@ 1
wan 0.7942693722027132
hand@@ 0.18716340149638605
Mid@@ 0.5228574725082167
Arg@@ 1
set 0.14651665743561482
Carl 0.7091894002339425
raf@@ 1
tige 0.5017143489653633
bis@@ 1
eppe 1
lés 1
mam@@ 1
unk@@ 0.3349855579942745
oy 1
SP@@ 1
print 0.8242477880390672
Johnson 0.6134676068447955
ven 0.2513753860028485
occ@@ 0.5259898830066583
Ky@@ 0.9347395822537744
TE@@ 1
ander@@ 0.394094152766301
Cul@@ 0.5563195523871157
jo 0.2549646293594133
tain@@ 0.4707977372130774
istan 0.9087032532564544
uter 0.5858272155742877
1902 0.7475514530464545
ible 0.6413054278801885
1.@@ 0.1818990615577057
post 0.3592063417597364
rain 1
Toronto 0.7719340764411192
ço@@ 1
Virgin@@ 1
çoit 1
FA 0.8007396114088121
RS 1
Hay@@ 0.7402174838323915
sky 0.49991084383341067
sid@@ 1
Mic@@ 1
Wall@@ 0.8658248973631665
Dun@@ 0.7083382129695797
quier 1
1830 1
Vis@@ 0.7200670841042262
indig@@ 1
Jan 1
lun@@ 1
éroï@@ 1
Ontario 0.8349193425388279
Amsterdam 1
R. 0.6652849318258913
bo 0.6919948092531977
Wol@@ 0.6083118715177136
inj@@ 0.6349046311177413
Kan@@ 0.37684473283330827
Mach@@ 0.7463422081144194
itr@@ 1
fa 1
L. 0.7792475831488472
we 0.24157011551081944
VII 1
Racing 1
ū@@ 1
top 0.1958316779430163
carr@@ 0.8528515683279991
Brown 0.5357298459999214
1903 0.7235373574249289
hr@@ 0.34795118456787355
Spr@@ 0.2776406980638198
itz@@ 0.22826230816671583
gaz@@ 1
Off@@ 0.37251779060262113
opo@@ 1
non@@ 1
Ki@@ 0.4956236688200819
Tem@@ 0.5655205393185135
ee 0.26448049408679547
Cant@@ 1
Da@@ 1
Alliance 1
All 0.18876743142928956
lus@@ 0.4450058617564268
Hill 0.44097203006101454
manif@@ 1
seu@@ 1
opin@@ 1
SE@@ 0.7554329689038386
Boh@@ 1
Kong 0.7342524196418252
tru@@ 0.9951360227080407
Air@@ 0.6098860516112841
anime 1
polis 0.7283128720159588
DC 0.811716710446326
my 0.38148267475934977
Herz@@ 0.7909096726248365
hen@@ 1
capital 0.32519747087230555
refl@@ 0.7447977275047035
Kur@@ 0.26102555233347585
D. 0.44678852276062103
eton 0.9490930191320254
Stan@@ 1
ese 0.12907603160398012
Dum@@ 1
Fol@@ 0.4314304122326482
ardo 0.8212444520884591
CD@@ 0.577331971232656
Trin@@ 0.8386845303780522
Temple 1
Ku@@ 0.6617928999886776
Cup 0.18118352589556305
trag@@ 0.4013616434171832
mb@@ 0.3347548864200617
AM@@ 0.7898319644539565
Mart@@ 1
Bill 0.6239022026558648
Cri@@ 0.7458268266692519
Cad@@ 1
gri@@ 0.7603483964523919
Donald 0.8326321133304022
Jackson 0.6963377965310213
gel@@ 0.10471293302975071
presti@@ 1
eck 0.43258933822900536
Harry 0.8559394427452542
White 0.36954256160031274
Ard@@ 1
Mars 1
Chris 0.7925828930454827
Sus@@ 0.5964812140842676
ouvern@@ 1
She@@ 0.5424841851429679
web 0.9516059357410642
tap@@ 1
aus 0.035037058367713564
ish 0.09235112634040597
cia 0.7343228930589596
Kin@@ 0.39877722194467324
Four@@ 1
vera 1
bin 0.9372171559464263
Kos@@ 0.9065083017678834
dio 0.38259271753707275
Kl@@ 0.3190730726798087
E. 0.5835848594550409
adémie 1
Navy 0.4677498619925285
rh@@ 0.9450396747561468
dial@@ 1
Bag@@ 1
sag@@ 1
Stu@@ 0.4720921674159149
Frances@@ 1
mexic@@ 1
Bruno 1
PS@@ 1
Tan@@ 0.6036803404441856
provin@@ 1
obst@@ 1
ę@@ 1
Rose 1
Tony 0.9324906930311098
distr@@ 0.5961306078477744
stati@@ 0.9509784153160666
yes 1
arron@@ 1
mom@@ 1
House 0.1857550075864124
Van@@ 1
narr@@ 0.8502750006772578
ë 1
27@@ 0.567526896494235
Suz@@ 1
Martin@@ 1
cide 1
Publ@@ 0.8474760096046943
Sher@@ 0.7231100507618483
1793 1
ost 0.2923830178540385
bal 0.840966311029666
arist@@ 1
modific@@ 1
onna 1
ications 0.8847241325760752
tradi@@ 0.5593900589985318
Field 0.8930083668212909
Infr@@ 1
sey 0.6574904079576934
Pir@@ 0.9211160791342263
stan@@ 0.8151852174347485
ago 0.3870657506024838
aft 0.23853720437263753
1898 0.7632610233445272
urg 0.7556991406270795
hosp@@ 1
Museum 0.30194515663252935
tang@@ 1
Mill@@ 0.6962247482592817
conduc@@ 0.29482357189972647
Europ@@ 0.36815707644625656
Fas@@ 1
Rock 0.5100509604233403
nas@@ 1
1871 0.9768712117508084
AN 1
Nag@@ 0.7955134807841455
Team 0.34500447855974653
Big 0.4798901351428945
Lau@@ 0.9211709171305291
Mike 0.7436150528490754
has@@ 1
ão 0.8876797633033527
Ash@@ 0.6152360282438823
enberg 0.6401850102155069
Brig@@ 0.5765064602066217
Maine 1
Tran@@ 0.7873131152683343
You 0.3657793985303153
Pit@@ 0.678756698570545
abeth 1
Natur@@ 0.38945136543275694
Ball@@ 0.7363511879916842
Sport 1
Young 0.5516650625425218
stitu@@ 0.936573899150796
enger 0.5573893558483086
king 0.13106293822922427
Steve 0.8063357665280391
did@@ 0.42224418189252255
Canal 1
tiles 1
Gh@@ 0.8716833013649143
lines 0.4355250853619936
seg@@ 0.4619349059649507
Max@@ 1
Sho@@ 0.5530991912890396
Production 1
One 0.18614093163825657
ast 0.16037699260151672
Bell@@ 1
Res@@ 0.25642662367768515
Orch@@ 1
Sports 0.7081929344533742
1896 0.7776965362550232
agan 1
IX 1
Ret@@ 1
proces@@ 1
tut@@ 1
14,@@ 1
Shi@@ 0.5844357106881501
amor@@ 1
Pass@@ 0.8537631708239416
syl@@ 1
naval 1
bun@@ 0.9490297422216639
studi@@ 0.9549577644868749
Hong 0.7030053602967946
pion@@ 0.9597086337072895
Seg@@ 0.5820531418957963
11@@ 0.6628882533157858
Top 0.5576625051208322
cen@@ 1
ovo 1
ube 1
ista 0.1558372648274301
Jar@@ 1
Bob 0.7773151301339938
Code 1
Bulgar@@ 1
gau@@ 1
Jer@@ 0.4425791628899839
diz@@ 1
fres@@ 0.7461643296160526
Sz@@ 0.7261064952459672
path@@ 0.9634513769942189
kr@@ 0.24160719771969524
ns 0.1446617164562287
1889 0.8514901194210469
house 0.17088018371412325
DA 1
Imp@@ 1
Chal@@ 1
CS@@ 0.926686360506306
Pro 0.8366230544799579
Lincoln 1
ř@@ 1
vo 0.41065153249120023
uh@@ 0.4079275676147244
Cher@@ 1
neutr@@ 1
Ober@@ 0.17720059285439818
Charlotte 1
Blu@@ 0.6563076483651308
eim 0.7607643658970259
vet 1
Nam@@ 0.5744938243842512
ž@@ 1
Cle@@ 0.5743482259871754
vill@@ 1
ín 0.3155400361615593
Lot@@ 1
ust 0.32218637185080407
din 1
Soc@@ 1
UN@@ 0.7234895959757167
osaur@@ 1
eld 0.3167317577772438
internet 1
alla 0.9118398159926279
Johann 0.4709061534077019
ask@@ 0.5216171657762352
1895 0.7594098997661419
ray 0.6907103573920501
Sto@@ 0.4255577452753598
Leon@@ 0.6961964409450883
Pad@@ 0.7492601537513053
Eric 1
ken@@ 0.23690751619772157
Award 0.24276855105564307
AT@@ 0.6540351888108866
Bus@@ 0.6019052359295902
argum@@ 0.9006200826452088
uck 0.5515950081950481
fantas@@ 1
bs 0.3659643351513138
hibi@@ 0.45078213565442726
isl@@ 0.5979455964527508
North 0.13069813399796698
ding 0.1502506980533345
Bak@@ 0.7902145481744515
ister@@ 0.32481916946199496
erte 0.1403241547087702
Bres@@ 1
han@@ 0.8308175754955461
{ 0.788556980489583
ensi@@ 0.8801314201597852
└ 1
1850 1
Mem@@ 0.5489369293377332
leg@@ 0.12017541875734668
ligence 0.8467987730722386
Lom@@ 1
× 0.686141294080664
Deb@@ 0.4364161194809194
$ 0.1029683179509057
ras 1
Ble@@ 1
cog@@ 1
ologi@@ 1
aria 0.24139718123225548
lu 1
bar 0.21089091682221803
ST@@ 0.8663771789167772
occidental 1
Diego 0.7535906431619258
Miss 0.8549349947195669
Lanc@@ 1
Post@@ 0.8952595841297705
asa 0.6249754763768252
Star@@ 0.4992293384469035
Joh@@ 0.8754697634074673
H. 0.550092916535395
Route 0.4536476869474901
urt 1
1885 0.8291156944898327
1899 0.721771005280566
Mario 1
conform@@ 1
support 0.20380852126804014
600 0.5772363441077083
Med@@ 0.2719090106637949
Kol@@ 0.3592537685679416
ho 1
graph@@ 0.5669748422230465
dra@@ 0.21432390614339306
Group 0.2571497953414785
ning 0.11672876473877271
Island 0.27663073746397826
Tel@@ 0.40818933950501146
evi@@ 1
onia 0.3333156418312825
Bla@@ 1
ons@@ 0.2783533872493431
lara 0.7088472265629426
elin 1
Benjamin 1
Whit@@ 0.5608793387334841
Eff@@ 1
ris 0.8851758713782469
portation 0.8058540163671982
ader 0.5850975180368166
Lat@@ 0.3914951859528214
ebr@@ 0.375965495443601
enter@@ 0.6233856925997724
ü@@ 0.09359398954513408
Gab@@ 1
islat@@ 0.8186840958877005
over@@ 0.14093222603772734
Castil@@ 1
800 0.5965235037001744
aum@@ 0.9665394555746668
rol@@ 0.27028454993350526
future 0.46153668619541083
Bob@@ 1
1893 0.8084020319990514
“ 0.024011955794047114
matches 0.47229430523773425
aw 0.6969572465140739
1897 0.7202499754944728
eron 0.24556940394550134
Ib@@ 1
ause 0.43457122157853223
Elizabeth 0.6346795333460108
Center 0.2710995633713358
idge 0.5880642904673005
MA 0.7985049497035964
kilom@@ 1
G. 0.7331596258091804
ska 1
Friedrich 0.40667148144744514
metal 0.5909648401097057
13,@@ 1
net@@ 0.5091317801084025
dir 0.40264379004040474
minute 0.7916620817797141
Hamilton 0.9048525984095181
Princip@@ 1
Carlo 1
eller 0.3640208158527966
wan@@ 0.34418919895854805
Alice 1
isième 1
virtu@@ 0.7235090638105589
diagn@@ 1
eva 0.7761556386900506
Tab@@ 0.6604281574541696
emble 1
rates 0.9328947645060759
lad@@ 0.4106722534897373
Centr@@ 1
Luis 0.5534121721436152
ism@@ 0.8331197587951759
eng 0.6733578040126332
A.@@ 0.7322918222996869
DE@@ 1
gi 1
zant@@ 1
Alber@@ 0.9710504936742953
Hitler 1
CH@@ 0.8961709166547067
mad@@ 0.447602163980897
Dec@@ 0.38379820759761657
tia 0.654254202193187
thiop@@ 1
war@@ 0.13255599264304047
ket@@ 0.43113960303884374
Office 0.5903200863071294
Classi@@ 1
paci@@ 1
clus@@ 0.7998458871453102
Point 0.7935441503509882
Alli@@ 1
1867 0.9648421404176568
Fern@@ 0.6717825309831934
Hugo 1
Prom@@ 0.8973978026408489
1790 1
Gusta@@ 1
Sciences 0.8410102262874469
enl@@ 1
thr@@ 0.46358950538237487
Place 1
omp@@ 1
Bah@@ 0.47340147183112713
onge@@ 1
Chin@@ 1
pro 0.5433245299942339
Justice 0.682207271932443
Mod@@ 0.4346147488092471
arrang@@ 0.5747280808045901
Riv@@ 1
mini 1
vent@@ 0.20102090828280142
ft 0.15212311880454074
alis 0.7303230268572893
Gra@@ 0.5371657933705366
Fig@@ 0.7507673446237456
tum@@ 1
sibl@@ 0.738606376376451
ER@@ 0.6504879299585811
12,@@ 1
ingham 0.5667563972531163
Nik@@ 0.9758591001533108
Irak 1
Ry@@ 1
” 0.07420793148383203
ken 0.0805202926697622
Corps 0.5745525694526105
opol@@ 1
outh 0.30958623670016033
bir@@ 0.18007562005329616
MP 0.8823938290324576
Pos@@ 1
ng@@ 0.19234039778092293
grand@@ 0.5009084330555418
tribut@@ 0.34262075162724276
Haw@@ 0.600695878065129
Apol@@ 1
ū 1
mill@@ 0.9624729703429077
tan 0.32477090102120015
Illinois 0.5456125095042469
Roy 1
lins 0.9219762028335702
eto 0.34376083565516236
1892 0.7704271372204641
ays 0.2677339448169674
alo 0.7755590387161511
Sub@@ 0.33015723988794926
Lewis 0.7340009584531045
ñ@@ 0.33105189394345463
Wilson 0.6338401867973541
airs 0.42265799322779357
Sydney 0.5775607137054897
British 0.1114904270417891
Hi@@ 0.5553659866551719
oslav@@ 1
mel@@ 0.257637985063044
ega 0.36156054409513705
Rho@@ 0.849953759971942
any@@ 0.32187152495887955
Hamb@@ 1
Bay 0.3470332446173603
initial 0.6754263171008816
XIV 1
Afr@@ 1
bis 0.03712532408261134
1789 1
RI@@ 1
ula 0.6752809085693074
nombres 1
1840 1
sul 1
Pil@@ 0.5595894936215448
Om@@ 1
dam 0.7477394390976841
God@@ 0.9811147832626057
frac@@ 1
Ass@@ 1
oine 1
hou 1
onal@@ 0.4033185595763015
yan@@ 0.5471074531287246
auth@@ 0.3470712251609364
1881 0.870832488859934
box 0.5248920285125641
Profes@@ 0.5728582482140621
Dist@@ 1
embran@@ 1
gan@@ 0.30537369756602867
sl@@ 0.47249878003088475
puls@@ 1
municipal@@ 1
ck@@ 0.32547369545156685
oria 0.46521226590937603
issues 0.43188326898798957
opus 1
adi 0.9118289356357852
affa@@ 0.9075596398071136
Shar@@ 0.5878314299501443
AP 0.7464996967723029
SO@@ 0.943043608738253
Clau@@ 1
æ@@ 1
Cra@@ 0.7760699955143596
Anton@@ 1
Had@@ 1
omo 0.909224187033523
élém@@ 1
1876 0.8895467724306921
1878 0.8307558010283749
anga 0.8349933096153436
izi@@ 1
anus 0.9667493694333367
IC 1
Canton 1
ig 0.2731767429474572
Oxford 0.659439444192705
Esc@@ 1
Times 0.3958530637244294
tw@@ 0.12943569310933692
1894 0.7462184148978643
Sha@@ 0.6116195189760499
South 0.09310782596785752
sch 0.20934445917613656
kins 0.5558080067510283
Davis 0.6612418084599591
core 0.6289550847296701
CC@@ 0.924179440545497
rag@@ 0.9281647371527789
ator 0.1184899087605675
NE@@ 0.8649891366157529
Din@@ 0.7566613116780824
F. 0.5862223875737539
Concep@@ 1
1886 0.8079523512474742
esh 0.45621562459816584
mang@@ 1
hard 0.38196286111978367
refu@@ 0.7803000002799783
Initi@@ 0.64832997008845
Parti@@ 0.6176809712897492
Rav@@ 1
Windows 0.6808092020795274
enh@@ 0.2931754255787061
Ant@@ 0.6437917908840709
ó 0.02277413464823054
uma 0.6730086643435027
Jersey 0.5406739139908056
Bis@@ 1
Web@@ 0.49202993603260975
Ast@@ 1
W. 0.5092919817347972
Ze@@ 0.22892164503803702
Alex 1
Research 0.39945568827941386
ido 0.07573249014378323
Monum@@ 1
Ale@@ 0.9366959366866688
live 0.2445477595450522
ń@@ 1
Avi@@ 0.8416807312942405
Fem@@ 1
etto 1
London 0.13182414652310154
lav 0.8802840455771824
S.@@ 0.6462357495522757
In 0.010095922625128984
Championship 0.22681452310834718
quelle 1
Live 0.5669223333181392
Philadel@@ 1
São 1
Vladimir 1
iki 0.46000778236907136
nez 1
ater 0.20844198669624556
District 0.14827942341167294
Taylor 0.6146341950666281
120 0.6656625248158561
Jacob 1
Ful@@ 0.6025105347303862
las@@ 0.549486679683142
Boy@@ 0.8876705813704648
Blue 0.501109723621482
ep 0.1870172675859024
Canadi@@ 1
Bet@@ 0.2926461483260391
kan@@ 0.2686288754725317
rebel@@ 0.7395177911091441
Kim 0.6841878372917869
Venezuela 0.8255646062649337
1888 0.7543646988361317
VIII 1
azi 1
Hydro@@ 1
crim@@ 0.6505632652358557
250 0.6249515058742152
cau@@ 1
kg 0.695965932010711
kov 1
1882 0.8404579268807045
idar@@ 1
ric@@ 0.45221785350674376
kov@@ 1
stand@@ 0.2295183632107942
tural 0.26151235029485326
gin@@ 1
sex@@ 0.7452401476124627
Rub@@ 1
Real 0.4868007166688446
try 0.1805185864846552
Arc@@ 1
kina 1
amed 0.3286791694322419
gs 0.33590165529973515
agi@@ 1
Isa@@ 1
pir@@ 1
state 0.0880260490820817
sson 0.9219187273879725
1891 0.7243326117281402
Me 0.47802511866167
ker@@ 0.26098564720368655
Nan@@ 1
Vik@@ 0.7759402953339376
nik 0.44570758888589485
merc@@ 1
ör@@ 0.14028267463817515
das 0.018168420430944642
Ah@@ 0.6232496131790273
argent@@ 0.8902517714307955
Mess@@ 0.890321355371322
design 0.24195913011649642
1884 0.8000663426160686
eri@@ 0.30383767056621824
uth 0.5079210313569328
Long 0.49404898396675695
tal 0.33661858629873853
Kas@@ 0.47698542052848375
ô 0.7457982850233031
1000 0.48649530106900923
anna 0.7296885197973912
Aires 0.6538315491740693
ilde 1
key 0.23028597043326077
Chall@@ 0.7548771698258057
Cuba 1
Pod@@ 1
Palest@@ 0.9118950997084603
undi 1
Spe@@ 0.2805584857038081
Green 0.40001125784577146
ush@@ 0.2840924228336894
University 0.053425897731169715
Š@@ 0.950884290532081
Princ@@ 0.6879091921693686
invit@@ 1
Sun@@ 0.5686517475218225
Film 0.1678676602630543
Pennsyl@@ 1
ombi@@ 1
wald 0.5948689060545469
Sym@@ 0.726207883173069
By@@ 0.7568205396943244
mir 0.9217389066752156
owski 0.9523427311087762
hin@@ 0.24129755322960814
anal@@ 0.45892843282895474
Stephen 0.6931719929698864
oke 0.48277471722058746
Elec@@ 0.32564869035515664
atori@@ 1
Oscar 1
Franz 0.6028889574831413
lige 1
Prin@@ 0.7181724849063615
DF 1
Institute 0.24450362828514843
ă@@ 0.8635657719909161
iga 0.7074207775402008
iss 0.4389534341339281
Che@@ 1
unc@@ 0.13559677563502356
motiv@@ 0.9833091316534971
ein 0.020334109342557857
Sum@@ 0.4676589550345146
enge 0.4752087177172178
Jap@@ 1
perf@@ 0.5818400941605351
BBC 0.4625677605349521
gar 0.4041377449383257
Nam 0.3346071382753723
yo 0.5808390017458355
Emp@@ 0.7920604241394702
olm 1
indu@@ 1
gir@@ 0.24253109223441885
rural 0.4835502118358327
sap@@ 1
1887 0.7617652264142435
eter@@ 0.23117338355230088
Nev@@ 0.77504353947116
Div@@ 0.6579312703700779
River 0.13487128269442888
hir 1
II@@ 1
partement 1
tics 0.10880418585172776
Territ@@ 0.6784560399830784
Id@@ 0.7105018438465825
Brian 0.7771444210876274
† 0.19261615518230127
Bog@@ 0.8012061499296104
dec@@ 0.07432026552560958
Kom@@ 0.16611683902114974
ept 0.3551940780325937
osh@@ 0.9240020717197417
tri 1
Pet@@ 0.7838090404744688
Andre@@ 1
Jim 0.6844769173039346
Indon@@ 1
Orange 1
ombe 1
Premi@@ 0.7263771564965629
Wilhelm 0.43796724636011003
1875 0.8428080382530512
ting 0.042036871878605685
essor 0.5470664326183562
adron 0.5482947201811761
Chr@@ 0.8088480746420362
Eli@@ 0.8102245143331901
tz 0.9343883665327523
coc@@ 0.9454467963454365
ashi 1
Sup@@ 0.7071996308357118
elo 0.4190487306617584
Pedro 0.5415524005464871
esa 0.21275768270378517
And@@ 1
Andr@@ 1
Hus@@ 0.7884677735708044
Villa 0.7184264025341965
Hard@@ 0.6971209783819996
My 0.42555758413673667
abri@@ 0.7659414137123328
FM 0.5387210224957978
elt 0.13261796231356637
yan 0.47642915371780375
Chir@@ 1
2.@@ 0.17135033091131638
more 0.04190280187890597
low@@ 0.16169137698731037
Mey@@ 1
Kaz@@ 1
nus 1
Gros@@ 1
lati@@ 1
Chron@@ 1
ery 0.34292733458973523
Andrew 0.5952710078785941
Ran@@ 0.49509700299517895
Mob@@ 0.9030497554587454
1863 0.8054594416987677
Jane 0.9705369007117792
East 0.1655063663418259
carre@@ 1
00 0.2974033903297861
tain 0.1479097960319624
Buenos 0.6197107423679505
ike 0.3054545655858806
Cath@@ 0.7434659342908035
oo 0.6632819001693373
berger 0.6147594206702846
wer@@ 0.09602052907096308
1883 0.8078604254228051
Philippines 0.7829884980867777
Spir@@ 0.8836052097918051
10,@@ 1
Lady 0.5968124638787695
coordin@@ 0.6866142372293387
stitut@@ 0.5487367043873282
Mam@@ 1
1868 0.8245872453308698
Kab@@ 0.6118793168257738
Ohio 0.43118635754843443
Sarah 0.9738921358132101
Central 0.19848609611468734
ben 0.14245818079571457
Alan 0.8831225002249673
nombr@@ 1
Maxim@@ 0.9892011733690006
Buff@@ 0.9384743171786596
Card@@ 0.7713856779325855
Douglas 0.7715858804785093
ATP 1
singles 0.5615155913395949
eman 0.46985052445817654
Astr@@ 0.6205495197697004
Phili@@ 1
Dy@@ 0.7335748826740528
bic@@ 0.9405384951663818
1872 0.83197471075102
Anthony 0.7907943948198776
Tig@@ 0.841133951002813
Chel@@ 1
Sib@@ 1
mif@@ 1
1815 1
Manchester 0.6719597176687981
NA 0.9847075583360514
comprom@@ 1
Johnny 1
å@@ 0.8432901711947415
toman 0.9416949103360811
ace@@ 0.43790305823140857
Rech@@ 0.6663387871635693
aba 0.09255404116524521
inae 1
tante 1
Ji@@ 0.9551137161665065
unt 0.5394849416988743
Reb@@ 0.6030173109757434
fan 0.6530692748261444
igo 0.5214135999443676
Cambridge 0.66711997777162
Rach@@ 1
ś@@ 1
Reich 0.9804305889110401
hai 0.25900505815963853
up 0.04124155720205906
Hur@@ 0.5680556954084438
Kit@@ 0.6840808739097796
RO@@ 0.7660976151232332
Petr@@ 0.9012996025068144
1877 0.8054243975120213
Costa 0.7602190050948907
libr@@ 0.4290910088110872
Monte 1
Sak@@ 0.749859837372489
kel@@ 0.3466695455137591
Euro 0.6909783133795384
Xi@@ 1
App@@ 0.868403670263247
corpor@@ 0.5775721980317884
politi@@ 0.8471333634927919
1865 0.7596923679633029
Lap@@ 1
Département 1
Nouv@@ 1
1861 0.7459813830991715
bot 0.5603628775541873
Yam@@ 1
Dic@@ 1
Rog@@ 0.8050412561054412
Cru@@ 0.9829749901199702
ema 0.2156604816103034
enfer@@ 1
ete 0.18668677285353955
worth 0.4082909416065808
ador 0.11228566909693084
IM@@ 0.7535667218015066
jud@@ 0.30091558828807063
ski@@ 0.8848363296490961
rum@@ 0.8276496373536801
ott 0.7573164606973463
eno 0.38158866396952623
Fro@@ 0.9889086788930603
Jud@@ 0.4033741313946773
sho@@ 0.11686313660972364
ij@@ 0.4085889274784389
1873 0.7947430592356727
1864 0.735268383877262
Sam 0.7589365303318792
eni 0.8410714358131597
Actu@@ 1
fri@@ 0.20134480760882775
AL@@ 0.8108549625424706
1874 0.8014248325473698
ag 0.5054771927558852
Entertainment 0.5716116759602076
Azer@@ 1
name 0.05959829133538195
DJ 1
Lon@@ 1
Series 0.37147616700287955
Tos@@ 1
Ja@@ 0.9703362916782469
Kie@@ 1
campus 0.5699544059051639
Bad@@ 0.5358791061273773
ń 1
1879 0.7569960239899569
condi@@ 0.9773399447466363
Rand@@ 0.7169229915030308
feld 0.3423103945490067
Massachusetts 0.4849021268024037
Wit@@ 0.4914617077605585
phys@@ 0.2503517794819159
cali@@ 0.7739749433431722
bec 0.8337897075755206
1792 1
dur 1
uer@@ 0.21997990293290062
uke 0.9081056467396061
HMS 1
fall@@ 0.37112220707907806
illo 0.40849937166427175
Sid@@ 0.9224392549590544
pair 0.5136825081661062
Sat@@ 0.5210366503842617
Leb@@ 0.510886628943033
Soci@@ 0.5385572380504328
Lake 0.24431674697916747
Wes@@ 0.4557036359806422
Sah@@ 1
cine 0.36850517073003686
onel 0.5949547761604184
clar@@ 0.7907154478466959
Arizona 0.6773081965307619
1862 0.7430921320636712
Corporation 0.4648359804266758
Stockh@@ 1
Laz@@ 1
XX@@ 0.9668909859758368
s. 0.4703710048467055
Tot@@ 0.6026170352498612
Rober@@ 0.729739368495449
sens@@ 0.7856344908683026
AI@@ 0.6083916402700901
RA 0.8970864491438543
lock 0.23722325582523202
intern@@ 0.58243991361349
edi@@ 0.14241661891417484
put 0.21570355568897534
Od@@ 0.9821921290966419
MI@@ 0.7792592877860283
Vas@@ 0.7284018398148642
any 0.09610050399110649
esser 0.974687270442975
America 0.17732474814245747
dest@@ 0.48654368951201726
pha 0.7816820632051248
GT 1
‘ 0.29239012400298703
Sof@@ 0.7372222655351162
1869 0.819094796526465
1,5 1
adu@@ 1
PA 0.6216440675440343
hip@@ 1
artic@@ 1
1800 0.95634533133431
Bec@@ 0.35061546051039044
BM@@ 0.7506288017740588
Kevin 0.8810308468323149
iti 0.8314488095417502
tit@@ 0.1629825077284889
iler 0.343851432570384
AM 0.6517728689569183
Emper@@ 0.6079461623355551
Fut@@ 0.6627842625053505
uki 1
VI@@ 0.9484846648246288
not 0.02302175624646981
The@@ 0.2026289124706141
ino@@ 1
tha 0.5927760731594106
Bra@@ 1
ends 0.1508465531225967
Fel@@ 0.32531378602861766
Pop@@ 0.688244529969144
Khan 0.6731857009369314
Dani@@ 1
Mong@@ 1
igi 1
destroy@@ 0.37396926193526914
ason 0.3135818616972504
manga 1
Hollywood 0.6578250654449165
Earth 0.5144893983123944
Paulo 1
Vid@@ 1
Bac@@ 1
Harr@@ 0.7093252010333736
I. 0.2688666684411149
chen 0.08386874737824532
• 0.796746734293674
Gold@@ 0.4457051881177463
Nad@@ 0.9945736195148747
Wa@@ 0.7008765449121152
² 0.14092047851971595
Plan 0.8595778674755769
Express 0.877757184760811
aa 1
Wood@@ 0.5509418464633065
1851 1
Vig@@ 1
.com 0.6131964271246906
Nikol@@ 0.8590760954029593
rel 1
ry@@ 1
Fur@@ 0.4472699050152494
addi@@ 1
under@@ 0.08743534778598845
No 0.23527954711137156
Pok@@ 0.6545516445873308
va@@ 1
Got@@ 0.33612684086288663
Jon@@ 1
hier 0.31882186572061805
atisti@@ 1
anny 0.9924575550084801
Bach@@ 0.5125278421080328
Hip@@ 1
Ever@@ 0.5837708363407059
roc@@ 0.5032758227393669
Las 0.14382489621991637
inus 1
current 0.23169126217116154
Flam@@ 1
Anderson 0.718601963377805
lam 0.5297659596124857
ams 0.22798833643815025
AF 0.8313752896229677
eff 0.9271986958218688
Pyr@@ 1
Suc@@ 1
Budap@@ 1
aro@@ 0.8794816448824583
è 1
wid@@ 0.16846575099512412
ár@@ 0.27089131834371255
encer 1
15,@@ 1
sister 0.40094147927935647
Bud@@ 0.3630715666113446
star 0.36352769954834835
High 0.1511975521123918
own 0.0900405010520935
Wur@@ 1
Grec@@ 1
Port@@ 0.6603952770844657
MC 1
olo@@ 0.6614375053411401
ogo 1
1801 1
Life 0.26201262049323176
Franco 1
nu 1
Otto 0.5766975357502733
isis 1
Pakistan 0.5114068879885655
Coc@@ 1
Eurovision 1
Billboard 0.42655385220224823
1855 0.941277497028674
tice 1
Gun@@ 0.6807653861225722
124@@ 1
sche 0.24593301703282466
Stanley 0.9400574187486004
Itali@@ 0.9488191517671605
borough 0.5733781943201294
yl 0.477430210562031
Len@@ 0.7204528883240651
ui@@ 1
DS 0.5964581241297825
ulus 1
iko 0.5680437093052474
umb@@ 0.2806123309003856
Howard 0.6661496748132291
King@@ 0.7782809744613226
Madag@@ 1
Monte@@ 1
Academy 0.22176077218331008
Extr@@ 1
registr@@ 0.5388955493917885
restric@@ 0.5700947869813798
ebo@@ 1
Ray 0.7564462067874556
T. 0.5860473001151822
1859 0.8037110741671054
11,@@ 1
Hass@@ 1
day 0.06517041660461409
Province 0.38177361360471185
Missouri 0.6214001833681565
Bom@@ 0.6202057746787133
1814 1
Ivoire 1
Lyn@@ 0.7763133335013789
ě@@ 1
MP@@ 0.6829807695960155
pig@@ 1
lich@@ 0.23655461068166952
Net@@ 0.5679905515232567
Proj@@ 0.4410870311111028
Greg@@ 0.555427513829931
stadt 0.19333877335522542
Stal@@ 1
poli@@ 0.27198130462964915
Heinrich 0.4182178021316778
Fox 0.5446318535208428
Carr@@ 1
pon 0.5207940759370566
State 0.0830754573444715
records 0.435501903604793
,@@ 0.9034778124016173
gres@@ 0.4102497140089608
ka@@ 1
jet@@ 1
125 1
SI@@ 1
bir 0.06518422417562542
Aqu@@ 0.7111169431083252
zer@@ 0.47925367717974116
ril 1
dorf 0.3748117359610856
Nak@@ 0.8994962297897785
ź 1
Miami 0.7090131153178603
Inst@@ 1
etz@@ 0.15480562073539364
irat@@ 1
eck@@ 0.23533402418693947
Yu@@ 0.9086476939335572
enti 1
ks@@ 0.2102333565997563
Aj@@ 1
ania 0.2382619884882326
} 0.6292269059257148
acha 1
Baz@@ 1
mant@@ 0.5906388653298
Rugby 0.7078196380699624
pus 1
enzo 1
Ny@@ 1
Pay@@ 1
row 0.20492681927435438
Ton@@ 0.595719436207218
Sun 0.4931313070791414
eines 0.0994941923127852
oz 0.9420678835398081
kil@@ 0.24685210371778288
edo 0.378779783434827
Michigan 0.4002481261678837
Yor@@ 0.5436076133781491
Kle@@ 0.37762448428497686
Amaz@@ 0.8135748850803239
Berg@@ 0.33741782058431463
Science 0.31392263100016043
play 0.08620150549067583
box@@ 0.5429250174850708
Arti@@ 0.3828228711633744
bel 0.8853297090234592
Tir@@ 0.7555143642452198
2,5 1
egr@@ 0.3130921100078081
rif@@ 0.5362670267636594
1856 0.8467459778683397
ws 0.1576324355368231
AA 0.5312563819006406
oro 0.43327088962790894
hip 0.2599942497487776
issi@@ 1
Thor@@ 0.882257279612137
Hun@@ 0.5415167734238157
ater@@ 0.47039916576287116
Chil@@ 0.3071105810305354
1857 0.8367384633852978
Road 0.1854030157297642
pur 0.7794453715018735
Second 0.2971401169948965
omon 1
case 0.17060161345632593
tul@@ 0.7558843093294124
Has@@ 0.48083396111986104
Vinc@@ 1
V. 0.3483646001209262
enth@@ 0.31597760222366605
lio 1
rad 0.749003007666491
Lind@@ 0.5936135210895663
Jur@@ 0.538243319564728
UEFA 0.6740383353997697
igr@@ 0.8137261086935734
fan@@ 1
Nintendo 1
Wh@@ 0.3592770094381012
Colorado 0.5929123155424583
nd@@ 0.5355435754284695
North@@ 0.4405215038191657
clu@@ 0.48090022424213585
1852 0.9405013959444433
lem 0.265802258072421
Christi@@ 0.4812743503034128
m. 0.526404864710547
Columbia 0.3648211816895545
Aster@@ 1
Dan 0.8141905288384034
logo 0.6101044956834334
umi 1
ku 0.9875955490877656
notable 0.40961181265029384
Miguel 0.590166846403044
tt@@ 0.4632651055332301
Gaz@@ 1
Time 0.40415175154467325
lage 0.22457441047546386
Cent@@ 0.5066141846764648
Yo@@ 0.8535848274788294
amér@@ 1
nar@@ 0.4402665830259156
Kenn@@ 0.4777467572346451
ben@@ 0.14965655649075266
tico 0.1837799115008912
bras@@ 1
dale 0.6844780005145051
Arist@@ 1
1846 0.9912545310028983
motor@@ 0.6782118493730763
Ris@@ 1
ms 0.17975102526558395
portun@@ 0.4178710164457024
General 0.10559534535041784
sept@@ 1
C.@@ 0.8092844946660291
kat@@ 0.33236512033816845
contro@@ 0.4644124992446006
unter 0.05212489068808662
yo@@ 0.26182143133629293
mel 1
1854 0.8620848697303626
Naz@@ 0.9362606145608241
deb@@ 0.30322045521001767
IS 0.8466472307559022
Sport@@ 0.3547051672216431
yon 1
oper 0.6326873712319772
ento 0.16213804962774278
location 0.3002830843867341
Vin@@ 1
Ok@@ 0.5498800538138542
Us@@ 1
Bruce 0.8070699780465682
ango 0.597410737397913
Crim@@ 0.8361064998449866
AB@@ 0.6545220981291805
Marco 1
sci@@ 1
ider@@ 0.6694634680319084
deu@@ 1
Beach 0.5111528344674424
week 0.2709351560024296
Gam@@ 0.8133169052672978
Jimmy 0.8337896041995357
Ges@@ 0.16554171042274773
1858 0.8472185480094547
Black@@ 0.5257737587447047
Nicol@@ 0.9175442751419088
Little 0.394610338159517
zon 1
cht 0.14710693199095537
1849 0.8603881368311737
rat 0.2959634928100566
Shak@@ 0.6980412416790946
Nich@@ 0.5376030194862984
ops 0.1578979074105246
K. 0.6037376046824943
AF@@ 0.808093827795766
alit@@ 0.8299842705346496
Ave@@ 1
ial 0.326242980472308
Atlanta 0.7316257679419882
nay 0.787620659400126
Ma 1
secre@@ 0.327685377611232
blu@@ 0.34261373872622536
tif@@ 0.585319318778593
nig@@ 1
burgh 0.36524332311057534
XVI 0.7989473691103218
oth 0.40053700442538154
Barbara 0.8738137840250827
lar 0.13027701529171115
It@@ 1
Prim@@ 0.3507656474293918
Golden 0.49698605342833607
Grim@@ 1
protagon@@ 0.5605560098492297
evo 0.6284463026503492
vi 0.717396716149036
oshi 1
Gö@@ 0.4856092273689984
Ng@@ 0.4686075459176274
ograph@@ 0.2084010176723808
udi@@ 0.6424571934191384
BA 0.46503927500662295
Game 0.43301351049460546
700 0.5246983968396505
alia 0.5193470581978585
lag@@ 0.22074876374223396
120@@ 1
ough 0.12479613210386586
iri 0.721404778256069
ás 0.2879648836533491
Radi@@ 0.5192388559313822
eda 0.5637841986136519
eus 0.7468307771358015
Restaur@@ 0.974784535552278
CE 0.6491351435039475
lah 0.7562509710813929
dau@@ 0.8124082425212711
andro 0.8376614542232143
xi 1
ling@@ 0.4243894422288164
3.@@ 0.15929073125868806
Gordon 0.673057993454782
Kil@@ 0.4344892406791016
ados 0.038081437646031814
Bank 0.2829000572962745
Township 0.4581751085108535
xon 1
udi 1
iz 0.6445171539824973
Sebasti@@ 0.6915259718819758
Charlie 0.8778264409500819
Fili@@ 0.5460167521947573
Miller 0.5705675791118864
š 1
ichi 1
AT 0.7576419984436412
CO 1
Meg@@ 0.6123130660487164
Fres@@ 0.9259160120326777
Roh@@ 0.7210861690833179
alan 0.5602845062478524
Mac 1
Rein@@ 0.49287661566465696
Inn@@ 0.5153779529478778
orum 0.9226875893267695
tes@@ 0.4708876833428686
Tw@@ 0.5325444877286581
ways 0.14092951873253234
imm@@ 0.3332243491561491
cars 0.45631300209516545
Kansas 0.5151366840191431
Benn@@ 0.74202125485671
Li 0.7754382345369025
Que@@ 0.44210347179443643
Poly@@ 0.6835813293667291
Clin@@ 0.5736040021037947
Fernando 0.6174741753387679
Kath@@ 0.45375907384919517
mund 0.6089011682759525
Medi@@ 0.16392030750561346
Se 0.11556100624955995
Num@@ 0.43642826744104435
Jonathan 0.9812776346869709
viles 1
ow 0.22546334339245533
Ō@@ 1
Show 0.3743084052626182
Jack@@ 0.7951508468099614
Mexico 0.27770955406551706
10.@@ 0.5358212218305672
Č@@ 1
tz@@ 0.8068864544305758
Tas@@ 0.5234590390900906
impl@@ 0.7466443374311785
Christopher 0.7805771774419965
Iv@@ 0.9143854052698852
etti@@ 1
Test@@ 0.7105164753195959
Robin 1
Bell 0.6647258535649261
Minnesota 0.4866832287310612
Pac@@ 1
lai 1
Glo@@ 0.8562334356472214
UNESCO 1
öl@@ 0.16486933009040955
his@@ 1
Andrea 1
Journ@@ 0.7092193167292214
1791 1
Wag@@ 0.6134492787351878
1831 1
igh 0.5981803743121549
folk 0.492950746411741
allas 0.430598762792259
ș@@ 0.8828907439859205
eler 0.30201759229151803
Afghanistan 0.9276311308462399
Day 0.2652139229646002
moto 1
Sir@@ 0.7474910467994277
réqu@@ 1
ej@@ 0.16608434971356853
Ahmed 1
Jum@@ 1
ME@@ 0.817649619865127
icus 0.9087250617413268
ste@@ 0.07716195855511203
Las@@ 0.9527043335877191
Leipzig 0.5988744718983288
ą@@ 1
Ras@@ 0.7340384925366111
är@@ 0.11802547130244698
Services 0.609332239287914
back 0.06867783265302951
zz@@ 0.7825067759418506
Dim@@ 1
3D 0.8569098316590493
magaz@@ 1
tica 0.16280135717291427
rech@@ 0.17424116647756913
ae@@ 0.28833713599786165
neum@@ 1
Sci@@ 0.688749066515324
Égl@@ 1
Pur@@ 0.4138741379930024
adel@@ 0.6048671515476344
ls 0.21563288504625194
1795 1
Act 0.2071247775779001
Ernst 0.568720361797697
Microsoft 0.7026000689755825
Dipl@@ 0.8941452306391998
Hot 0.4647666211268536
Produc@@ 0.43446800766136323
NO@@ 0.7794181976039931
Han 0.9750386165920581
Ken@@ 0.5903713584628603
oko 1
Mut@@ 0.5855805564822085
María 0.329220751724545
1794 1
ía 0.03278225536366401
uta 0.38330307127720303
LG@@ 0.8691158325955602
PE@@ 0.9709470639844009
TV@@ 0.7431866334100469
1853 0.8550125797560306
icia 0.40375614280708483
119@@ 1
dre@@ 0.15516460096087484
Allen 0.6055744387402617
wen 0.6066583430253353
Johannes 0.5679002512608616
Clark 0.6296376661314794
1845 0.9066996063911453
Kennedy 0.7402605282778175
Satur@@ 0.5240772420110501
Anat@@ 1
amo 0.5631990035588859
Santiago 0.5090361739890882
án@@ 0.19046454612512134
Morgan 0.7276763148863997
cle@@ 0.17028229610404955
territ@@ 0.2662838084155222
ran 0.2260020156556128
Magazine 0.6214559415637706
esi 0.22913323457821644
Hat@@ 0.7445213089214362
elen 0.3061165755413792
Die 0.01355183594520124
Green@@ 0.49470573370725146
€ 0.9097946381995808
zu@@ 0.18609687926923651
Sap@@ 1
py@@ 1
aza 0.35566884419878675
provincial 0.6411277907745877
Type 0.977398564261373
tad@@ 0.25435959153277293
aja 0.32220156863960564
180 0.7360957972172569
Herbert 0.787992486198583
Lak@@ 0.5417736706641125
Bod@@ 0.4203740266566656
stone 0.23094204797549486
spons@@ 0.44566929981186176
XI 0.9076283285064087
pi 1
ön@@ 0.15247397980660646
Cho@@ 0.9849938766803509
Willi@@ 0.6483346071749212
1837 0.9533200794554164
œuv@@ 1
ović 1
religi@@ 0.4030779588032448
gest@@ 0.15185470142305138
polit@@ 1
Gri@@ 0.5405238148834842
ide@@ 0.1877924973962813
sine 1
Vor@@ 0.05873677867508182
Nick 0.7887358264428431
1812 0.8552197467669196
Tul@@ 0.8468720843473321
loyd 0.6563441335898129
lyn 0.624878395238575
LE@@ 0.7145654746674237
Alberto 0.9530584235116125
Progr@@ 0.33387622679762646
Jun@@ 0.5406233595281557
ovi@@ 0.6718448834416049
jan@@ 1
auch@@ 0.9504584053087888
Tax@@ 0.6440954828709293
gom@@ 1
110 0.6736234045193655
Studio 0.6720204448974151
atar 1
ally 0.022747666187852473
1847 0.8683947438371556
Billy 0.7797531448255005
Russell 0.7342895428973207
aler 0.6558347990592385
imi 0.6153854354735582
wal@@ 0.149136054698236
wick 0.6748205724715738
wo@@ 0.13148122022659495
Nelson 0.7389442151859426
Pul@@ 0.6092641763291067
kir@@ 0.34710758778885864
Margaret 0.6829341051477469
1832 0.9885878297949654
Philip 0.6145761668898357
bet@@ 0.32501358694312354
arry 0.6795515738106725
pag@@ 0.49361297486933875
Zi@@ 0.32043159928960857
Bron@@ 0.4929279089178399
Vari@@ 0.37222085253046694
wich 0.6416919579750635
An 0.1154104593289887
Sag@@ 1
Nigeria 0.80693011220009
chester 0.44417749549616947
Brook@@ 0.5701177020674503
Fred 0.8817320149153144
jam@@ 1
Hermann 0.6518692176441419
Station 0.270369639888743
Liverpool 0.6718061994374241
Eg@@ 0.710221290998243
Janeiro 1
Lad@@ 0.7796913616694158
USA 0.2097527358552549
Ep@@ 0.5459003754782056
oid 0.3243446294413974
AG@@ 1
carri@@ 0.16399804233421425
Ther@@ 0.33937828505941475
Mission 0.6934434459710712
Stor@@ 0.5000695199975317
Houston 0.5916500005300019
Google 0.7640801478528984
Clu@@ 0.7744701500263927
apti@@ 1
Gard@@ 0.6405793259511005
Beg@@ 0.2650207087049721
Uruguay 0.8647321207397305
ley@@ 0.371010627428355
Moz@@ 1
exclus@@ 1
NASA 1
last 0.09640035532466572
Gom@@ 1
foc@@ 0.1644702893114295
Rud@@ 0.7528469514466306
Pun@@ 0.4090674173025539
Stadium 0.40464574726741087
yal@@ 0.5784538301987423
sex 0.27550749974788774
Sl@@ 0.7945414036157223
Down 0.7048256001085098
mas 0.2984685038366022
Ten@@ 0.5686749880276943
tical 0.08335455080363947
1836 0.9336339410664586
sev@@ 0.7764556971797586
Geor@@ 0.45686689662975544
1833 1
Ross 0.6795136745335705
Web 1
af 0.3440051391594963
Peter@@ 0.3850628964844316
Techn@@ 0.3206085971162581
grad 0.7042543876634483
nec@@ 0.23504866294746113
ć@@ 1
1841 0.9367910565832455
1835 0.9208535578918879
Brad@@ 0.5552239063494339
bra 0.6156630564588844
Georg 0.44484554768160395
Dod@@ 0.7990856857829379
Hul@@ 0.7577829956022634
Sad@@ 0.7677823361705983
Gabri@@ 1
Kad@@ 0.5599759324487136
0.@@ 0.09843813367439895
positive 0.34882078922759174
Ryan 0.6668294093350078
Conse@@ 1
ammed 1
Studios 0.5617077138610187
aret 1
Aug@@ 0.6382900842742453
Hamp@@ 0.49646128221037766
etz 0.3855197007910018
Play@@ 0.2202278660357433
ort@@ 0.20419162860108026
Kel@@ 0.5209729921909998
fli@@ 0.7276038520913819
gas@@ 0.4035682947672639
Andy 0.8256660166308228
pera 1
estu@@ 0.982705361455482
nan 1
Roman 0.1809578274263469
Lov@@ 0.6936369501520866
Apple 0.7459287656371155
Salvador 0.8247567769779587
Fron@@ 0.9944784280907115
eh 0.5927601068421916
fel@@ 0.15780937033959738
Iz@@ 1
Brand@@ 0.3670895703525527
manager 0.27289818469506494
Glas@@ 0.4832504473149134
Song 0.349340497536853
nia 0.43716786650167005
dose 1
eli 0.48125017919680235
Ple@@ 0.7231694695723011
Palm@@ 0.6989661559049027
Scar@@ 0.7965265960841383
Zo@@ 0.8278080273478454
det@@ 0.08903087429250901
ecti@@ 1
1806 1
WWE 0.9313620134032403
ambul@@ 1
aron 0.057069420742715815
1842 0.895424135967104
ahi 1
1839 0.9151657558554849
alls 0.11894148444010973
lum 0.46970127403980516
Lucas 1
Yan@@ 0.7236505105862531
Main 0.38042353079908836
achi 0.9993293985344948
awa@@ 1
impro@@ 0.2786887416813885
Bad 0.4333914316393032
Matt 0.7557944695201425
CC 0.5874702032295449
LO@@ 1
Ludwig 0.4311099678624852
master 0.3201818606688886
say 0.3846740404294244
zur 0.03985110813750207
Tah@@ 1
dies@@ 0.6564683334546418
1843 0.9295881565462951
tos 0.12139655725267004
Bret@@ 1
1834 0.9407109191652104
ights 0.19937183646819456
new 0.032852866652141134
Tech@@ 0.757406422797431
5.@@ 0.1821434931510889
wer 0.11512042416214725
aller@@ 0.5086354012413493
CS 0.8337348196451593
anos 0.1774821286684281
arn 0.8309143456802741
BC 0.2705752416945848
Moore 0.5895998978914084
dex 0.8064666104754249
dy@@ 0.855570759177128
Jason 0.8089353466454987
Harvard 0.5796531487145259
CP@@ 0.6659701564916827
Mec@@ 1
R.@@ 0.9354978594373511
sten@@ 0.6450729116458866
Guar@@ 0.4790951237799321
Terr@@ 0.545055333083817
Shin@@ 1
Tim 0.723104361939505
Stone 0.5023912416823808
Dak@@ 1
Dir@@ 0.7392139362485242
ppe 1
Comics 0.8763118227358944
23@@ 0.5000671291298097
Dres@@ 1
SM 0.9615666452035013
States 0.048284708829382766
1838 0.8829324424739338
Bang@@ 0.6827176431390809
ange@@ 0.5147453040114149
lead@@ 0.15780697356215195
acy 0.13864328298313258
Gib@@ 0.671517935390126
Pow@@ 0.5585621078726355
1844 0.8745260573761466
Associ@@ 0.6276872436541876
com 0.8381876388721774
conven@@ 0.5606534178216757
Cha@@ 1
Zh@@ 0.8358963021380755
zen@@ 0.3918343550470589
orn 0.6089546868358815
EC 1
Obj@@ 0.5100022614523569
scor@@ 0.23329988671542048
Schwar@@ 0.3748338651267226
rid@@ 0.3515698769985314
ampli@@ 0.479364586428993
ated 0.012389938566411343
Autom@@ 0.5668045430412695
ady 0.3529231488036581
ongo 1
Crist@@ 0.945420566946055
stan 0.8443584900898548
Dave 0.7069846190645246
Nobel 1
Europa 0.2307072438835555
esh@@ 0.35472011536300335
zen 0.11127133075394327
udo 1
roqu@@ 0.8790829616879744
118@@ 1
plo@@ 0.7852224364872052
hil 0.7040803512656779
AD 0.5084814673231636
Hein@@ 0.5430873627165932
uro 0.4662375109259084
NS@@ 0.45453143529779877
Tat@@ 0.7048981971887431
eder@@ 0.24389595433363515
Matthe@@ 0.6033923320915926
Go 0.6538650138545234
Thom@@ 0.912748559907858
kel 0.22376744066455542
Jak@@ 0.5515294867845516
amba 0.9490827129665323
ells 0.1813261684357535
Hoh@@ 0.49145781637351177
Audi@@ 0.770864569599112
Feder@@ 0.38464924844174414
Beat@@ 0.8458498822185376
ome@@ 0.2341239499358263
én 0.31570417637722054
Ec@@ 0.5973551937832531
Lep@@ 1
ayo 0.4603039485740503
Water@@ 0.6073512889601846
GC 1
brun@@ 1
XII 0.8857388418868641
1810 0.9651839966920698
with 0.004228182665432727
ür@@ 0.10595479420273912
Daw@@ 0.6808569414139715
yi 0.4737844593076295
elec@@ 0.08670203238512184
Nob@@ 1
eb 0.6904218542647002
News 0.32568998831982227
arios 0.17237207893239667
Viol@@ 0.7695640027751911
fi 1
amar@@ 0.5066658912100387
Organ@@ 0.2445409459487227
cerc@@ 1
aca 0.3238079241619262
Saf@@ 0.5407027262144982
card 0.4880413058975795
inaug@@ 0.8787703750065632
ink 0.27064615463785363
PlayStation 0.9329967466479542
global 0.45066225075647864
Ander@@ 0.6646046128655798
inos 0.20111662797918275
oba 0.9071114236885844
show 0.0833345798743552
Kelly 0.6423702382807165
Asp@@ 1
Inv@@ 0.33789515425110095
Hud@@ 0.6322622665683814
stock 0.36213134174823164
bay@@ 0.6756201681093118
rop@@ 0.6832548233334468
alar@@ 0.4536878018318666
eston 0.5681414826522884
Co 0.3835915415411
Hall@@ 0.7580302139633425
cut 0.30928774204402415
hur@@ 0.3221611161791677
Mercedes 1
Night 0.40982113724754443
Franklin 0.6645958368006899
ild 0.541759531701665
occer 0.43680111533308585
iller@@ 0.4941254625321912
16,@@ 1
Ele@@ 0.6541935932755295
Montre@@ 0.5398897387515522
oga 0.6657980009700232
Avenue 0.330870203589989
Boliv@@ 0.8514855789500136
els@@ 0.1850636188102457
vive 0.6361289061945979
Grant 0.6607784093597374
wealth 0.4056532622253346
Melbourne 0.45800485927939477
Nur@@ 0.8396749782088188
lands 0.10615208477741214
130 0.6324124145929989
Mississippi 0.6004343215030127
nin 0.2739610160676105
NFL 0.4666214116332331
Sovi@@ 1
Bit@@ 0.8528521372157889
IT@@ 0.6387594152221656
mano 0.7578926394964515
zer 0.3365860614324041
hospit@@ 0.7109615445968593
140 0.7174721656727221
imo 0.6028055848450422
acht 0.12210138436906968
cross 0.3450940126828005
gro@@ 0.07119537980125418
ibn 0.9781016924236037
fo 0.4862764546416971
LA 0.43328824893946477
Rac@@ 1
Aer@@ 0.47985525585542477
inn 0.49912851514620227
aha 0.5879563138793842
wa@@ 0.31661367700735527
series 0.048354963782792755
Indiana 0.4583074525657326
gia 0.15276923517041
Main@@ 0.4876546874079661
normal 0.41301802359787615
3,5 1
ingo 0.5214452848184591
zar@@ 0.6750344283977447
AE@@ 0.9236369665326947
TS 0.8832607391029714
Rid@@ 0.6521054319095227
Out@@ 0.3788141312515955
Line 0.25405519094462387
wen@@ 0.12527306451577033
film@@ 0.21483055164377493
attle 0.38628041287110393
ii 0.6605990694864421
Jazz 0.539317116442332
apo 1
Roberto 0.997973816639079
hop 0.8898968215352902
kur@@ 0.13074693444927188
Jr 0.43899709157249656
nis@@ 0.8530875084033616
4.@@ 0.14590225963678763
IP 0.6815228907975179
hard@@ 0.3216406450528878
Diam@@ 0.7411958420076555
Games 0.20920223340182617
Ein@@ 0.05158886710154433
XV@@ 1
Squ@@ 0.35219773473911176
Well@@ 0.6122033470934101
GM 0.9221302991830913
SS@@ 0.4625270294902105
Dig@@ 0.8043130841465219
Marvel 0.9021136412167986
wo 0.11345323368671444
115@@ 1
apa 0.46252052071492356
kon@@ 0.07774506037632305
press@@ 0.2885499715138886
wn 0.08321208274768209
band@@ 0.24589985603841322
tas 0.2627405468321158
rat@@ 0.6711030275799152
Anton 0.7586194494846412
Raf@@ 1
cic@@ 0.638997227986049
Gold 0.3440328190528578
Adolf 0.7183915230511067
Jordan 0.610290827802868
offs 0.4447502603203817
101 0.7062941685689373
Toy@@ 0.8530167716675475
Kent 0.6528413245993097
cél@@ 1
EN@@ 1
Cec@@ 0.8844192420719623
160 0.6737622755207685
ders 0.11193389561016351
zon@@ 1
cipe 1
arren 0.5399686589088623
MO@@ 0.8085040311283158
Stat@@ 0.6519163530023383
ros 0.7767421825308125
Pra@@ 0.39867241102519363
Boy 0.6208992256082845
Master 0.3696945651572088
ż@@ 1
Rosa 0.8026158752004628
AL 0.7797317750104491
eme 0.12070371836928545
uk 0.40684335854068165
Iowa 0.4938771340844432
Ian 0.7951368239440444
islas 1
itt 0.488003173911374
Steph@@ 0.5696775432761987
Kob@@ 0.9091807530767805
Vog@@ 0.4955474182269918
phy 0.3234915956832066
Sach@@ 0.6430454420089495
kab@@ 0.606194428814543
Eri@@ 0.580145407259172
AG 0.36816876101495555
Tennessee 0.457359740522459
Media 0.28535707955819856
ór@@ 0.23083923118853053
TC 0.6588173477186162
114@@ 1
Á@@ 0.31180390018976667
ills 0.1572857972881994
Lic@@ 0.8253055781897277
egas 0.5766767169608039
Hop@@ 0.5671746682587679
E.@@ 0.670786675984385
Wer@@ 0.16958099143254526
Power 0.40978678400198254
escal@@ 0.933850915321206
gin 0.339283291638822
esqu@@ 1
auer 0.17380466115599622
17,@@ 1
inge 0.48071620648659297
uli 1
bey 0.4935270504833522
lery 0.34357460764415965
Nas@@ 0.6637440117639223
sberg 0.5392241322947747
Tod@@ 0.25071363646676526
Estr@@ 0.9662167187622028
ness 0.10822717995501842
Theod@@ 0.5436282280815347
SK 1
det 0.28995267446499967
Bach 0.7663463561357269
Robinson 0.662942230233845
Sierra 0.5952444879087566
Tex@@ 0.26875430694777724
bor 0.47028748890620237
sion@@ 0.309346517498753
Wy@@ 0.5714900743084337
Carter 0.6728145377896125
Fir@@ 0.5072339716348419
Gan@@ 0.552181535611213
~ 0.9746660581465403
Major 0.2828209643210711
Reich@@ 0.2957765111866031
à@@ 1
dar@@ 0.07200157647458065
Press 0.3960411679968233
Great 0.16697345583047782
Buch@@ 0.2432700113884963
1824 0.9535163201521983
Bug@@ 1
1825 0.9038137317406603
Oliver 0.7028381242918601
ony 0.1450061388447665
now@@ 0.2899041268321429
Kis@@ 0.8518653779231845
paral@@ 1
Sep@@ 1
SE 1
Fantas@@ 0.7516535857737595
· 0.05319277003017365
bad@@ 0.5470012872600508
rio 0.8703838531966516
DE 0.8266836729540769
ī@@ 0.6024718266330871
1802 1
Anim@@ 0.7062131265513196
Best 0.16103206153181004
PR@@ 0.9309244540475944
Pear@@ 0.5820620315483022
uld 0.7294113960065071
liga 0.24158350404085965
HC 0.8907149591152155
ems 0.09416101582596749
Sign@@ 0.6268975736245888
Ner@@ 0.7792854824746993
Gary 0.7113115494923047
inclus@@ 0.8925344844690252
Kenya 0.8821266450644322
Lug@@ 0.9407798177156247
pot 0.5422947793678653
1803 0.9495534731658309
ana@@ 0.6725323275752091
thor@@ 0.5241548957703569
oll 0.6074992482440439
Cruz 0.47249470081470807
CP 0.8555168367224998
roman@@ 1
wat@@ 0.1312715403469321
YouTube 0.580392359830895
Rodr@@ 0.8665802512925844
DP 0.4332516101731865
sun@@ 0.35602029904741134
aer@@ 0.32203341067788993
Square 0.4941938997465546
Trump 0.6253217624853735
Warner 0.64775066515871
hiz@@ 1
Police 0.3758402997867217
1808 0.9880286997429347
isch@@ 0.09670575586382693
ody 0.3526148099966101
Bed@@ 0.30539268193810065
witz 0.8068017001601747
Adams 0.5958214969335207
Pablo 0.6668055398365387
Marshall 0.6482218524312179
It 0.013464545920559998
Hand@@ 0.12325288305172107
Dow@@ 0.3787065435954864
mpi@@ 1
Athle@@ 0.2979758281705127
117@@ 1
anta 0.5431098164000451
abi 1
Kot@@ 0.8170632049076743
1813 0.8564818623694437
1828 0.8852391509033893
Art@@ 0.7336673794729376
aup@@ 0.5706018445968575
ph 0.5144113327199612
Unter@@ 0.08425102857354916
Emil@@ 0.774400716474021
Nord@@ 0.13111016884684418
evin 1
ency 0.09122545705846245
Ax@@ 0.7991549331712229
bio 0.6464272012920589
imal 0.34707359418891875
vez 0.12724657112552576
TP 1
Home 0.3217607464749756
fav@@ 0.3976597975707059
Milit@@ 0.26180854333444686
var 0.49271029973781244
att 0.45131411870636584
ono 0.7560083407583942
Stein@@ 0.27482764513704516
Java 0.9245086342550478
squ@@ 0.18263598543902754
stage 0.1430794823058625
León 0.5726553007899696
Queen 0.2303207924397981
Kazak@@ 1
Lawrence 0.5498121871370316
promot@@ 0.16493773056469188
ilia 0.6818639537738278
ischer 0.059411144064394066
pler 0.7795788232941014
1821 0.7886541566336955
gy 0.5828283779364514
casting 0.3476548620003268
Rum@@ 0.4486208732041254
DI 0.9222872481371734
Austin 0.603060057296584
Histori@@ 1
1,2 1
Ey@@ 1
Kun@@ 0.3759685251277909
Gru@@ 0.44967513085300953
ego 0.2956740154111649
Gul@@ 0.340284280598152
Beng@@ 0.43400139415435557
espe@@ 0.7118664257347234
Copa 0.3200997327411025
lip 0.5614457078148336
Fun@@ 0.5703823483292432
Lud@@ 0.6125819040727055
Ann 0.6357657884777128
country 0.08785200779516421
oka 1
Stewart 0.6019831649344024
Broadway 0.5359467942528053
1809 0.9946585332278179
EM@@ 0.7531545200472755
aborat@@ 0.6444460609386157
1826 0.908973360467254
18,@@ 1
Alaska 0.7329923400046084
Industri@@ 0.28749943784444815
Neg@@ 0.4219601796398518
Wind@@ 0.4101684912888402
Fair@@ 0.4735058622344616
Gonz@@ 0.9096692294681485
PP@@ 1
Kap@@ 0.22740349279597186
1827 0.9861434229316952
hatt@@ 0.6124920989730938
Charl@@ 0.6699404270074438
ako 1
ely 0.04024606535010392
1500 0.5091432595661979
tet 0.11505143272300782
Theatre 0.25899841157488573
v. 0.3214285181522813
flo@@ 0.09922640530592161
1829 0.8659960908148777
Hid@@ 0.7203599290406626
Quer@@ 0.879052759075158
Good@@ 0.5388120096800953
zin@@ 0.35335823918122505
Strat@@ 0.5316174604964506
FIFA 0.5197656967932064
GA 0.7125587627140388
ishi 0.8333490495191569
Harris 0.5466015269933978
quez 0.7509805781699335
Jay 0.771901643364639
Kurt 0.7757850998729693
350 0.6693895957445488
M.@@ 0.5197825665558151
aris 1
Arena 0.5659018938253031
Valley 0.2159955119132457
900 0.5675450781267071
her 0.012988478900097153
Post 0.2696186228255151
ABC 0.4984239269404891
oks 0.2635179477562089
pec@@ 0.5310128509776334
ingi@@ 1
manufac@@ 1
aven 0.49377664490172807
Hit@@ 0.6278604610067616
gers 0.43624407403889054
ole@@ 1
Creek 0.2500338219795423
ight@@ 0.2842552184739407
1816 0.889052327969476
.C. 0.22482301887195152
1807 1
Ž@@ 1
augh@@ 0.355113566877567
fried 0.6305724673617579
water 0.07288932117100312
azar 0.6886562094768182
disci@@ 1
Freder@@ 1
cos 0.16304297368187065
sh 0.42158957532782704
erc@@ 0.6877748915897673
Griff@@ 0.6487627764755167
Agu@@ 0.5631816167532212
inde@@ 0.23098712260794385
Guill@@ 1
Mang@@ 0.6853839670155939
Junior 0.3516831682977586
Rafael 0.7504406965615552
oms 0.2702410280121404
aman@@ 0.6810598037734134
Raj@@ 0.33069400612246763
ats@@ 0.20909186840076954
pendi@@ 0.3926988304249719
Dest@@ 1
Ray@@ 0.9452051079312551
Rep@@ 0.8926352458598455
ough@@ 0.19257717631325622
Patri@@ 0.5046882915738982
alan@@ 0.48009366826060773
pson 1
wh@@ 0.06952342576311744
Wrestling 0.5442188986125447
Space 0.4425279840244412
oca 0.4449244636955419
phyl@@ 1
avi 0.7648562816590637
azar@@ 0.6861807733089612
ä 1
179@@ 0.9203213510029497
e.@@ 0.2928031347695027
1823 0.9683300393605642
kom@@ 0.08735352528647349
Elisabeth 0.7662384357258635
Tes@@ 0.9065692162713158
Cros@@ 0.5428188282426478
dad 0.2984527662771777
sal 0.31003048529609606
ê 0.572860354860167
Alt@@ 0.28833362536115315
Anth@@ 0.6989878620226501
1822 0.9291583526443898
Fen@@ 0.4675541913548406
1798 1
Wright 0.5919130101030766
Frederick 0.47390128808294707
Campbell 0.5872508329419914
diers 0.2889581076133732
Catal@@ 0.7089465983244182
stre@@ 0.10268224867923106
elia 0.6416858808220647
50@@ 0.32953319188290187
Town 0.22056798872582406
System 0.22956601079044092
Mov@@ 0.28427488545001034
sto@@ 0.269888732382201
Anto@@ 1
Pep@@ 0.6711957683364097
â 1
IP@@ 0.7290805891431891
Hart@@ 0.4953837173643325
Rah@@ 0.5953774287973653
Sony 0.690940927301431
athan 0.8547748844766759
stanbul 0.9948989659176125
1818 0.8362049291356094
Schne@@ 0.511248047711122
GP@@ 0.938091502766779
tuy@@ 1
D.@@ 0.8217566058203574
Shel@@ 0.6503171736664632
ers@@ 0.41086716275358975
Is 0.36108868103450936
aska 0.7124456914232218
Sá@@ 0.6350438362184153
Ox@@ 0.5965182418369376
ahn 0.4001658236357487
Hot@@ 0.5604548547054636
para 0.015551561345705843
South@@ 0.35320258069428934
vil 0.27613218442222937
sburg 0.23225666049211552
B.@@ 0.5402491625821272
urus 1
enburg 0.2585762756628147
Hak@@ 0.7615199451047723
Publi@@ 1
Wel@@ 0.27437905626331743
Batt@@ 0.3612418613307418
enko 0.8942187250229126
sah@@ 0.7945290195258529
Walker 0.5166023152836837
aster 0.3203957573468426
olas 0.4213132153735968
township 0.6231950629928893
IA 0.7188131341486134
into 0.01941666077546139
1804 1
Alabama 0.4708858761328009
atum 0.5574366971120808
culp@@ 1
1811 0.9485910298328741
Map@@ 0.8070123982271945
Thompson 0.5559489593307112
Champions 0.46913030307131626
1817 0.906470909379518
Band@@ 0.43941801796518015
Will 0.584406811706935
zam@@ 0.8132401399215426
Origin@@ 0.3717623942034133
Tow@@ 0.3311400936959561
Portu@@ 0.36269523299367795
pers 0.3300008101162402
indo 1
RT 0.5781026195644163
arp@@ 1
orio 0.2703832483415433
ilo 0.5701370387769638
zu 0.01041218098095272
ð@@ 0.8948421670686852
40@@ 0.43180526531335406
García 0.5099646702895917
mouth 0.32524281169558944
rol 0.6274836628756113
agua 0.19972851895482494
évision 1
Will@@ 0.5444502658439612
IF@@ 0.8792139626954498
Old 0.20813391548064689
ampton 0.5660733911867286
1799 1
ffer@@ 0.3367806115559832
ML@@ 0.45577816335046045
Hem@@ 0.49834871763465
TO@@ 0.8928103804340543
eira 0.6977196693257561
Landes 0.5310521191758256
0,5 1
Antar@@ 0.6049547953001682
atra 0.6727354448269868
tat@@ 1
very 0.04874526136793689
Banglad@@ 0.5137146105017352
116@@ 1
Boeing 0.8647604925657254
BI 0.5434290864699403
Di 1
7,5 1
Ye@@ 0.39087644446804964
ampa 0.6653174728221514
Jorge 0.5407260156447947
DO@@ 0.7142281041500138
eland 0.3637258259460363
pper 0.3230701123004524
SV 0.44106926971565613
Stars 0.5808414225342089
town 0.050894342299018375
1819 0.9129527445873448
Was@@ 0.6418615272453754
Stuttgart 0.5602644849782548
grou@@ 1
Cum@@ 0.5204205573587422
Rat@@ 0.5396764947068825
ingt 0.3607498531629706
Tai@@ 0.31424428786052494
Apo@@ 0.8499498658940894
Nig@@ 0.6654974078225461
Jor@@ 1
Network 0.33595916377848484
AB 0.7048582165611079
Forest 0.37055823261477355
PO@@ 0.7597661894461564
e. 0.3247785204682852
Spor@@ 0.7555176542140172
other@@ 0.27013173840169025
ying 0.05335262133161741
î 1
onga 1
Rudolf 0.5823037360164055
È@@ 1
Mom@@ 0.6784937878662248
orium 0.5125363715763941
Bun@@ 0.3949490081732079
ump@@ 0.1472367459153414
nic@@ 0.7441101188792757
cript 0.3059475981685329
Ghana 0.80496640842699
Fried@@ 0.21924458842700417
ng 0.3628128630496499
Army 0.09304646743458803
azz@@ 0.6702618218384772
ilio 0.5113232249933188
Boys 0.4883223588494626
tern 0.0903297633150542
ods 0.09407348319153686
Universit@@ 0.38578872776155443
ias 0.2095105765397108
got 0.22172456009447236
Mann@@ 0.24079069940438516
Gel@@ 0.17436964554763648
cid@@ 1
zan 1
wilaya 1
hem 0.6123746397294082
EC@@ 0.8313586600853708
rid 0.5319818275335588
obi@@ 0.5923594523129683
Linux 0.8721305622897536
hat@@ 0.3627626892167588
BS 0.4407589735322508
Angel 0.7749897529623503
kal@@ 0.15584188904735372
sar 0.7188466514785778
mil 0.44641480202650524
BT 0.6410769967960319
Program@@ 0.3831012880406638
6.@@ 0.1401975165151443
oven 0.8124890891918533
You@@ 1
1805 0.9286614593056207
ausen 0.39635364329319844
August 0.031134209616020595
First 0.1104304437090011
codice 0.5677648959501713
Cao 0.8469068183473164
Mai 0.09943873418371398
hang 0.30651666374501535
Jose@@ 0.5880602197883875
Wehr@@ 0.5636696945636708
dem 0.008249558268391818
lif@@ 0.28563164880929814
ö 0.7280115487880336
War 0.04880383398127283
win@@ 0.07114937834077546
7.@@ 0.14413608868292893
Dark 0.6462555280375764
aries 0.14528258692616489
SD 0.7396443346078058
Vietnam 0.3407719720708111
Liga 0.16032292895452688
jar@@ 0.6711568060587002
105 0.6765784679219311
Shir@@ 0.6723112404578655
Wayne 0.6258406052835274
Maryland 0.38454407332865365
Gó@@ 0.8114836008713866
tric 0.1589374786701983
Meh@@ 0.7497261458472801
ector 0.508538439922816
Ost@@ 0.2124562741318095
Bush 0.6091079196808744
ender 0.11168263681445352
August@@ 0.5585697495395551
boy@@ 0.2427524695384465
Party 0.08619595531125734
Baker 0.5982996698688277
ean 0.0995176872491796
maf@@ 1
Up 0.41242390285436775
gang@@ 0.2711605185642294
ellen@@ 0.3971519031389739
sis@@ 1
iges 0.4745581507611946
Tag@@ 0.314932111267327
Rail@@ 0.3037415147456345
Bras@@ 0.5733568861079982
eph@@ 0.2668180958534041
1797 1
Band 0.14170356064705855
aj 0.5505499404977677
isch 0.050961003785902084
gel 0.254499121910084
aman 0.7123189598649208
High@@ 0.36900595468461517
Hub@@ 0.5742914284658944
Oregon 0.40844510705769416
Kim@@ 0.7005118919169969
aki@@ 1
Syr@@ 1
Finale 0.423542398328359
alt 0.13552925463783944
Sey@@ 1
red 0.030497972689164838
yu 0.7096911697791861
ward 0.08476560806083044
24,@@ 1
Inf@@ 0.6010031741221467
rich 0.26903360134705223
stri@@ 0.2875835911993323
Phoen@@ 0.5850706306380798
Western 0.12008968109530557
yon@@ 0.20785287492952934
113@@ 1
LP 0.4702757697859225
bra@@ 1
iva 0.39996599544386824
Airlines 0.6472385143636049
burn 0.438625837723335
Connecticut 0.46441343058094225
Tradi@@ 0.38118307437551097
alc@@ 0.8991346332221495
fines 0.6729408959907096
Norman 0.5345566948807927
eti 0.38184196510359947
idel@@ 0.29974976981449597
4,5 1
verb@@ 0.34319871910794636
Sev@@ 0.8971246759596239
Hosp@@ 1
Sky 0.6176785501538903
USS 0.6049783903038967
Railway 0.20203192834979367
Fame 0.4166756656894538
iner@@ 0.7832017496973772
oman 0.49205495171652547
Haz@@ 0.6636881692761837
coron@@ 0.5712645956964775
Standard 0.518301983539108
Key@@ 0.5784134817151533
star@@ 0.08959210752731205
20,@@ 1
Pérez 0.7130815769410552
ensus 0.2943835880962007
Infan@@ 0.2651903631012331
360 0.68974723066776
Gem@@ 0.25310312990632156
tak@@ 0.16811358653588349
Rico 0.49729645409340567
Films 0.4950097318508799
dae 1
Arsenal 0.9458011285612341
kan 0.32345786343219735
Kentucky 0.4007396437716508
35@@ 0.5136621979496288
Um@@ 0.09605875491019109
mak@@ 0.09215224779006825
Contin@@ 0.4199566919039889
Salz@@ 0.4164652194272492
Stre@@ 0.19087190992974348
Project 0.347402999400809
colspan 0.4060795384807936
Wolfgang 0.588283590107292
Spar@@ 0.4124153138527091
Sax@@ 0.48604950034761923
Dru@@ 0.28359480341050036
8.@@ 0.15054347034709534
stars 0.25635611341959674
Facebook 0.7218039741059895
management 0.19267037204809354
r. 0.4014415968594917
MS@@ 0.5838279702777133
road 0.07436415203532497
19,@@ 1
Hoff@@ 0.5330051715414063
Fat@@ 1
enda 0.228150994174714
tarde 0.23698572163925036
170 0.7127621496169606
isp@@ 0.6259224868583769
play@@ 0.20637904704232013
Jug@@ 0.6274234634657825
uj@@ 0.7992521325755539
Ś@@ 1
lama 0.6083393295787632
oe 0.4535993742772676
N. 0.547062698908197
boy 0.2938290588438481
Mountain 0.31457371688438146
bec@@ 0.4825166987843709
Universal 0.5207082810272482
vier@@ 0.23816990924872414
Swe@@ 0.203481976232121
Tap@@ 0.7837202317730759
acer@@ 0.4377868462380866
og 0.3791689927479987
Sund@@ 0.24779610510555072
oso 0.15073131757205274
P.@@ 0.8398996897241761
emple 1
emann 0.6755957475686859
lez 1
och 0.2898504658094576
How@@ 0.5308157066710043
down 0.05795973867145354
igg@@ 0.2939677567447629
midt 0.6250296613216253
Ç@@ 0.1989995588370662
Channel 0.34110137616192043
sand@@ 0.3796738090508002
ern 0.03792726858985166
Sri 0.36921516517481495
Gest@@ 0.341931640765922
Sas@@ 0.8284578871727888
mark 0.1459858346513312
Gustav 0.6625576606189988
Pacific 0.18166028773510554
him@@ 0.7295303501990662
dice 0.32549261574583016
ubil@@ 0.603330193751556
Guatemala 0.6787972357919073
ondo 0.921609379852756
I.@@ 0.7398239591347194
investig@@ 0.12391855042547349
aku 1
hua 0.7111728489763345
May 0.037423567306032544
Der 0.017234497575771477
Produ@@ 0.5223453204219841
chs 0.591425792032316
Josef 0.4991446222252231
wor@@ 0.039405325231817216
Rica 0.709759064811279
yor@@ 1
Just 0.5331233551182758
vor 0.03669304902126088
kam@@ 0.38695674408874614
FO@@ 0.7766251708889963
avo 0.6762083285344207
Bill@@ 0.8793593220690016
Lima 0.6217582638544106
def@@ 0.04846548741345173
200@@ 0.2287559681996602
pak@@ 1
č 1
tar 0.20477392737842146
map@@ 0.45901787223158474
eption 0.1536398022775252
kol@@ 0.27696556874412226
ps@@ 0.45675728223923956
Angola 1
Italien 0.4687028368734948
sz@@ 0.5250348141814859
Feli@@ 0.7153966025377513
22,@@ 1
teri@@ 0.20035689838862022
kshire 0.4793543604990399
Wisconsin 0.31900003076092354
Cand@@ 0.7806143623425666
Who 0.5009996532151321
arius 0.878493595462609
aker 0.2281045737217445
perform@@ 0.2756659179756205
beck 0.4986784041337275
Colomb@@ 1
Uta@@ 0.5159172647759577
forma 0.09773446910945188
Fritz 0.6373101251946256
erra 0.711912837289985
To 0.1285934954791642
www.@@ 0.7926095124446614
eria 0.3040164673338524
ymn@@ 1
Guadal@@ 0.6255815629909843
ester@@ 0.3369284280424929
Serie 0.2076219400168742
L.@@ 0.6058071926149893
ML 0.6814127831237031
sia 0.7877773389360491
Julius 0.6311608467217242
omi 0.9342643460759672
uno 0.08746146592754976
bridge 0.1633990520691822
echt 0.614324928011227
Eth@@ 0.3335091187765151
NS 0.6218981573047155
European 0.07539278721340538
Wolf 0.5554043466211058
Queensland 0.3549063984465689
atu 1
Out 0.36829254255372734
neg@@ 0.07742499482106095
bab@@ 0.38685110461571254
36@@ 0.6630354649760286
Foundation 0.2093018895085322
Santos 0.6553105566980547
incor@@ 1
senior 0.1739567878703961
Biz@@ 1
light 0.06793689347260846
López 0.5444267998388925
arina 0.6735939476342467
may@@ 0.2985727295488868
ael 1
Schw@@ 0.1277079442899748
een 0.2942987425613605
from 0.003997318188484574
Hey@@ 0.759284312598502
Gur@@ 0.5436369718232764
macht 0.3530323854137503
Adel@@ 0.36885592608585943
Girl 0.47154998841502105
Rock@@ 0.5096495241431188
25,@@ 1
Conserv@@ 0.24340827179315452
agen 0.07948066503384586
eber@@ 0.5011073925492036
aks 0.23919599546014667
Chrys@@ 1
Micro@@ 0.6857802363098213
Of 0.2321625290912625
33@@ 0.6200129722986458
Cross 0.2689647985575947
aun 0.37764230073823435
Sud@@ 0.33234067212477536
ren 0.5797305505055368
octo@@ 1
wil@@ 0.15147243233179888
John@@ 0.6267153103219155
ña 0.15121972278734722
elly 0.6131298696656783
Def@@ 0.18248136428276934
ural 0.30740602124349653
ayn@@ 0.7175845359320082
ISO 0.9285383992371202
Ster@@ 0.3618594407555254
auf@@ 0.026469889331760487
wanda 1
Castro 0.741026940646792
liner 0.9558807683233725
ennis 0.5383660037357328
Wis@@ 0.8808383419123793
Business 0.2798571277222597
strong 0.1415407869896325
Sali@@ 1
Sti@@ 0.2671224517237347
ring 0.16839955869271592
tory 0.16876645409601684
Rey 0.5845386748875806
org 0.6537950767164278
dar 0.17224328011599688
kes 0.329257225381895
aden 0.2146692205234166
α 0.10982471702803538
German@@ 0.5411996544726813
Amp@@ 0.741838489200187
kor@@ 0.16748692023892106
Philos@@ 0.2863710921399255
Kum@@ 0.4524811710774581
Volks@@ 0.16213142206368153
Pand@@ 0.6511674535504005
ostr@@ 0.8516939652034832
ju 0.8602280016676157
esia 0.4288171649504945
Your 0.40415717371508714
Aleksand@@ 1
Over@@ 0.26556082891739435
ate@@ 0.4419398405816682
Kre@@ 0.16265367144351447
igan 0.6729331876413733
27,@@ 1
Herr@@ 0.20024595539242152
Andreas 0.5673308492844709
Deutsche 0.28626676526015027
male 0.19533024451305606
ú 0.29348510731522615
Wak@@ 0.7585118134412323
Hern@@ 0.6112115345030867
Emer@@ 0.3574434672611325
Be 0.5203905310095158
Leo 0.5451508416781027
igt 0.4488392906569613
Gener@@ 0.18919581832060656
Twitter 0.7447895177296795
rail 0.3619797607615205
1600 0.7946937600737979
gradu@@ 0.06488369581277251
Global 0.3980281247475795
mail 0.5282890028208541
ather 0.15047390615268313
onald 0.8425721105294637
rak@@ 0.8367244896578396
Men 0.20545512236038502
Mün@@ 0.19690593242477808
Bin@@ 0.8047498543517859
Public 0.17370243837113197
kay@@ 0.4765236744387155
cros@@ 0.17548289693127075
Hin@@ 0.14831376385213532
anch@@ 0.38112121011261874
hel@@ 0.11536134403380881
Him@@ 0.4679090878776889
Church 0.07587779335686137
edr@@ 0.1844074357130266
Say@@ 0.6330475035523516
lidae 0.9462312396232657
tas@@ 0.1941127716522779
ò 0.7009487289091832
Sieg@@ 0.2341535959542508
Do 0.35352147289525193
ý 0.24915330517982623
Brothers 0.45410287791142806
iden 0.11736310183568101
Paraguay 0.7692079745615515
SG 0.6083428693036447
berto 0.9369420637735757
Sph@@ 0.9629043338950746
atrième 1
Werner 0.5973697749333572
Olymp@@ 0.8884298352999827
AV@@ 0.6735649933296624
Pictures 0.5454635406346964
nik@@ 0.9524684899948765
hav@@ 0.15515300717759836
Termin@@ 0.5266528454731108
37@@ 0.6423190149430172
Book 0.2669047256828505
rik 0.7835529952286103
thel@@ 0.48229182733051107
102 0.6864119063193665
39@@ 0.710576207463698
tista 0.5069331996173801
altar 0.3586790069822365
SI 0.8681816093999831
34@@ 0.6116243975238574
Müller 0.5978329259507851
Leh@@ 0.29736038020340794
Río 0.33054623321802123
mos 0.3793682213267979
Sonn@@ 0.37107059266456854
utenant 0.40839950241873807
ā 0.6473834168518025
VP 0.4748121003433955
kar 0.5377117145497878
Æ@@ 1
80@@ 0.4312092704830007
uru 0.5983467229840208
ao@@ 1
26,@@ 1
Dead 0.5553857956281728
FL 0.2893889298212828
animales 0.8076801290471927
Roman@@ 0.3629608992272956
pp 0.4451261324369729
gos 0.396640051096227
450 0.6551014134859922
eline 0.5586281528106831
´ 1
Santo 0.4951251285671932
uka 0.8655854309868366
Under@@ 0.3859311248996698
sm@@ 0.1193236278492735
bia 0.7116916284523676
model@@ 0.14798401981461065
F.@@ 0.7632602904560465
VA 0.5480099515500252
æ 1
ympi@@ 1
Day@@ 0.5457335382821353
einture 1
Light 0.35081746987118984
ís 0.5291923861142636
alto 0.3198463967900467
etr@@ 0.26993674848272375
inga 0.7313294698334056
Free 0.32846061490178874
Ö@@ 0.1902186973657174
oon 0.30062285578624054
Sea 0.20900284862931728
kad@@ 0.4280873489403418
ual 0.05349635083926172
kers 0.11414312535087939
contra 0.11142183060522143
einer 0.01636608017962108
eros 0.11517535330153572
21,@@ 1
Econom@@ 0.18540906703692783
Sok@@ 1
Story 0.5089327541539592
sta@@ 0.26413478388461603
inci 0.9850463052122944
eer 0.1489337954397433
Sn@@ 0.5677393595075535
stra@@ 0.23450460693041147
tors 0.06280224726994754
jer@@ 0.2714850945530752
shi@@ 0.11522076639011582
Coast 0.22360321381969195
Lok@@ 0.31529081212177124
dissement 0.9790132763798345
38@@ 0.6008251076449983
andra 0.6178291614559044
Jag@@ 0.37622636296679685
dom 0.278850048505048
104 0.6977856782611719
His@@ 0.3505315278458636
book 0.0577741582059885
hen 0.4319060775325691
vio 0.44158941015515124
Zar@@ 0.45224732072700236
Law@@ 0.35546050338259416
gan 0.4210885339991604
Four 0.2801834482017746
ù 0.8623673538131279
HD 0.4572486067410602
Roll@@ 0.8606011835231027
T.@@ 0.8373400144774811
Japan 0.08655191780034417
ț@@ 0.9107456502759401
Hut@@ 0.574486806726004
Chelsea 0.7573415821317037
23,@@ 1
Sept@@ 1
Tang@@ 0.9880054605978097
alle@@ 0.2289737495582815
Yas@@ 0.9411241726547561
tidae 0.8368035777170884
ás@@ 0.1935509188975847
rod@@ 0.4980906571404272
yat@@ 0.530866218959777
bay 0.17411236956413795
Tanz@@ 0.9754043524671976
expl@@ 0.11415037751224323
Dah@@ 0.5130091584720159
head 0.06155006979146166
ru 0.8377058213234648
9.@@ 0.14150704280042614
mite 0.7178749239713286
nac@@ 0.2764269969591342
Hyp@@ 0.8839885269887371
Dance 0.3963689580347204
mental 0.1295508031640153
ld 1
3000 0.4413611532345788
wag@@ 0.8351028697835926
Rolling 0.6045456157042223
Way 0.4352827252584866
Priv@@ 0.33947434799890336
bei 0.014118170443126344
Anh@@ 0.2996670213482794
bak@@ 0.29906144309908833
üt@@ 0.09487256805057645
ls@@ 0.4453152003212501
Institu@@ 0.4238056701127836
sian 0.24849814032960135
enga 1
tribu@@ 0.29320359355799663
Bask@@ 1
tag 0.19031442928995404
22@@ 0.5424169741376684
oes 0.2535075226527368
Ż@@ 1
135 0.6974695314686935
Slo@@ 0.2458286476908013
omin@@ 0.4214884750029192
square 0.19617120880715708
isher 0.2888976587679355
Girls 0.4188890561781873
tari 1
Design 0.285614478884121
ño 0.2070937318551868
ob 0.24469039496847628
MTV 0.4822062419117829
zin 0.5178172983031601
ict 0.17881105875726913
Grammy 0.5947224933685656
än@@ 0.04841762979906966
ender@@ 0.33272929555359204
peri@@ 0.11559127310596379
phi@@ 0.6647502286311489
hausen 0.3199162471956247
Memorial 0.2826586902506831
hin 0.2602905463622791
Bridge 0.23822549914789812
Miss@@ 0.536666942090984
uvent@@ 0.6268123551941713
1700 0.8392373305989986
game 0.03493038363798543
xu@@ 1
ground 0.06813662515208938
gem@@ 0.07981484543670436
wards 0.13490891802409347
cole 1
ily 0.12437971348779617
anza 0.18892771036996517
ree 0.2023688210871947
→ 0.6883377227979788
Mr@@ 0.3541561095507425
Panz@@ 0.4551358209524094
Pam@@ 0.7342805163548346
eum 0.3415881395665555
fast 0.1228397387794056
González 0.49538378258180793
ful 0.05947017817398171
oper@@ 0.04170287608915778
109 0.7145479555671574
uo 0.3912412071300218
uba 0.6470067565911144
nombre@@ 1
Technology 0.24986046357282712
Del 0.3867051819174728
ology 0.04015428066885693
Sound 0.3925710915241875
UK 0.09385063653205537
tiller@@ 0.37755292441244354
Dakota 0.464315325171742
thy 0.17491344208517248
now 0.03619124935526163
iler@@ 0.4535565548307428
olan 0.1086273126166885
BO@@ 0.7171767391012478
subj@@ 0.29530835272525774
Zam@@ 0.689343525687482
mid@@ 0.09451435080018884
ische 0.01817083303460883
We 0.17248687229192405
eka 0.715793500333037
born 0.021991427569578788
vat@@ 0.8996665032907841
103 0.6836475566824013
Hockey 0.26015310754772764
yse 1
Arkansas 0.4218472188150298
Ltd 0.4146451442953041
bers 0.08991902859573608
tropical 0.2446835831002645
teil@@ 0.14477605814629413
Galax@@ 0.6162307755763666
even 0.05283651394756515
ney@@ 1
ife 0.3970210334633654
Mab@@ 1
Final 0.20377071812097253
Abu 0.5358444390020917
iba 0.6641655751709988
upe 1
gang 0.12516340985544144
ld@@ 0.20676023992438008
Yah@@ 0.9891294325829092
band 0.04021635456914541
Eas@@ 0.4667712215646287
iter@@ 0.4386617999846666
stand 0.05855037624871956
chall@@ 0.1735910086634146
Good 0.35428258311021904
meeting 0.1725035232622641
Kem@@ 0.6183077803011221
hap@@ 0.1578166411894006
align 0.25169335118413505
inda 0.6490366235677058
pant@@ 0.6573858478290036
1200 0.6167053081673172
Council 0.06859536552534193
Virginia 0.11651388389950575
Haus@@ 0.16458055346733538
Muhammad 0.4509202114934952
poem 0.3482810189800475
ross 0.6661768952075828
heim@@ 0.23135190627982796
SR 0.24088177660027535
Zel@@ 0.5864641645518646
oj@@ 0.5021457318293041
scope 0.516118508369251
County 0.031756095135126186
sormais 1
eg 0.2535485601778494
ambigu@@ 0.8008987779689977
Management 0.2646752673504682
rail@@ 0.26633140535044664
eke 0.8014614027659717
sep@@ 0.8704824251436811
Must@@ 1
Court 0.08985614464470251
chia 0.4625540985984911
anum 0.7279224767850115
Scot@@ 0.3267552356757807
ear@@ 0.056050159198545675
bron@@ 0.8332569149208112
awi 0.8203302031857002
Motor@@ 0.3375736970133795
Shu@@ 0.590951597321234
isha 0.4962553881275056
Moon 0.4295751663439555
Death 0.23550797296937437
Luf@@ 0.3369821346814546
eren 0.04516944127525479
tom 0.18114856248957656
hib@@ 0.13606274992108255
220 0.6597495140503459
Kay@@ 0.6540423558614125
uel@@ 0.22958523276608736
ship 0.041324644042125505
zel@@ 0.9350169559386986
Atlantic 0.22711740085030455
deg@@ 0.7876790433096638
gli@@ 0.19188265885087524
108 0.6587299870147326
Rodríguez 0.5152982864081026
Tag 0.24441414830191302
oral 0.3373923280016681
kw@@ 0.2636864999365335
Administr@@ 0.3726055805224584
brahim 0.9183638300911
Tenn@@ 0.34749093960631405
NCAA 0.2661891620043266
Hali@@ 0.6777679900892788
XVIII 0.3390758648643884
45@@ 0.5518833017565962
hil@@ 0.45056297121111455
eca 0.3654529731705343
asis 0.3678520245999463
appe@@ 0.07010643031088598
Kus@@ 0.6105877411590466
Ses@@ 0.5679412255348096
sta 0.2678643387355167
Law 0.15283222097554391
Prof@@ 0.23785156549097689
Ana 0.5017917339080067
Metropolit@@ 0.2991875541224492
CBS 0.39798619763068516
dru@@ 0.1095630877312671
ainer 0.1714640543853416
xa 0.45404290208822873
provoc@@ 0.4553651712388477
ül@@ 0.1519866759341927
Nacional 0.10798398053826823
106 0.677258773168537
Indian 0.08039133352420011
dian 0.3308850093222932
Psych@@ 0.3407293711951798
Da 0.14454374710146406
alus 0.788183733040615
ths 0.18220118901380802
ț 1
.S. 0.570967032846317
Pach@@ 0.6891848818033521
Kö@@ 0.30115610544307136
Tok@@ 0.8018047436602647
Dream 0.571384509710388
emati@@ 0.09353690554206802
hâ@@ 1
acks 0.12140523590974012
Album 0.1492027772422152
Mim@@ 1
castle 0.20641040713602374
Play 0.388949820268725
Serv@@ 0.6010605463786313
uto 0.4795418059628387
má@@ 0.11063924224385771
partici@@ 0.4928012919520391
idea 0.12969859651366655
Pop 0.44239727037988175
Bundesliga 0.34262578939848193
bid@@ 0.629759020749377
Orchestra 0.3492089655398352
ican 0.11890037791428036
lau@@ 0.17565823467408404
omy@@ 0.9164090496586312
ria 0.5022340090532506
112 0.711101033813803
Düssel@@ 0.438432653845921
NBC 0.3995361757854881
disco@@ 0.2152215950086427
ads 0.09918956357483116
UE@@ 1
uss 0.13947878797487812
Kri@@ 0.199270356141219
km@@ 0.31241574095825037
Schleswig 0.6308196528033589
WW@@ 0.5337818657518818
hit 0.12710141786304752
End 0.3793784388568103
Fire 0.32892963969430483
Television 0.2708278123674155
agre@@ 0.07457738786771854
teil 0.06751486678495022
Liz@@ 0.5587291153264691
offic@@ 0.1929212295565613
mad 0.5946955514822876
ith@@ 0.3792582627354274
alli 0.5955525510331713
hat 0.03698269760347416
Heart 0.37873123488498944
DR 0.5355832604328439
Gott@@ 0.43540387722988455
wel@@ 0.11138699527259827
haf@@ 0.14367192400359424
Eisen@@ 0.1802245744669339
itas 0.3487629750426718
tras 0.09462536063240953
igi@@ 0.28400737058915126
Philipp@@ 0.3862356855733631
Burg@@ 0.33408616771279775
Leopol@@ 0.44306651701654765
Opera 0.3576640654718246
bao 0.1836628729751256
ince 0.4905565380530593
Nah@@ 0.4326933911002752
Kak@@ 0.9013731420088231
western 0.0879222927856364
Daily 0.3863178498614493
esch@@ 0.12983959719400145
128 0.655841940005478
N.@@ 0.6227927141096888
arro@@ 0.5232708959106095
For 0.04538760079316242
Penn@@ 0.6813894097707321
Thr@@ 0.1674241030313368
esis 0.1530976904306367
As 0.02725787320548796
Ent@@ 0.08796776110105228
oides 0.4340130410638616
Mih@@ 0.9020400805344256
rea 0.15072514677558155
Braz@@ 0.3270173648708503
timent 1
toria 0.9772709506729419
Zu@@ 0.27025543114829204
break 0.16642873047881837
bach@@ 0.21341760321309056
person@@ 0.09913637783051014
107 0.6684726719749082
für 0.007223818489725761
Koh@@ 0.2759196501871884
Moun@@ 0.2451403717955198
Ich@@ 1
tane 1
views 0.09829385163617974
Yel@@ 0.4293950882411122
44@@ 0.7357530736364553
Vy@@ 1
IBM 0.5936819398212281
ante@@ 0.4096183486983534
HP 0.6131913541582117
ý@@ 0.9777144700844855
This 0.01602683908831435
otom@@ 0.51181727954646
China 0.059081068353632124
ahl 0.25977068857357627
£ 0.15543488508392148
Atlé@@ 0.5990520946166858
Digital 0.3846339159574536
Stur@@ 0.39187209364248626
ál@@ 0.2775537374358698
IT 0.4616407660036915
onen 0.07652934369676613
Zen@@ 0.3230374256636002
isto 0.4799638604211296
endorf 0.31423440428849153
Amat@@ 0.3255095390073624
eval 0.24555874538402467
nen 0.05686096107512204
tav@@ 0.556651449270917
Hotel 0.2179690994092522
Rak@@ 0.5106318812112567
Iron 0.3970647516355326
Duke 0.20057679476238438
enz 0.11288251929378644
khe@@ 0.3121544759914592
121 0.8095102246963475
gene 0.21911796542903336
115 0.6128723837360927
Run@@ 0.3361994621321979
ful@@ 0.3228911494561181
inas 0.13142734350533816
Hist@@ 0.6900096829409995
ping 0.18687456325572926
añ@@ 0.1222580456935277
GB 0.31915719743966575
nam 0.20397487289500352
por 0.005713629582508695
Sever@@ 0.1890136235217424
oci@@ 0.4204063528064114
Women 0.09098380414775399
inde 0.13570300046853348
Mary@@ 1
under 0.01706847690784484
duras 0.5518597289513583
111 0.6462407062335895
Spi@@ 0.23605414662679106
stor@@ 0.0726172369021162
Buil@@ 0.184855268473729
aff 0.33371732784046015
Chic@@ 0.8038407336514719
Uz@@ 0.5813758271957298
&apos;@@ 0.029511427523682923
Country 0.23344953169662622
PM 0.612978142034599
miles 0.17993077783304212
Chor@@ 0.33042506059956533
HT@@ 0.6501151267943558
anni 1
ails 0.15865669552200748
Two 0.1037612419895253
Special 0.21784851855443763
Version 0.32280859190691785
750 0.5393781251921799
Africa 0.09579836021360114
Bundes@@ 0.08130892546782814
final@@ 0.6310854406241567
him 0.0173553395151558
Inform@@ 0.29220968429515254
wak@@ 0.20803820549737073
ün@@ 0.054474632035002
SPD 0.41220678925081944
icht 0.06273680458782178
INSE@@ 0.8741507979961338
Cathol@@ 0.6186904472837733
ving 0.059075374509902
elt@@ 0.22390148981129585
esto 0.13912096843624802
ī 0.5238283197398715
Juni@@ 0.29675754634761703
west 0.03893454512085723
Moder@@ 0.33509085570342695
set@@ 0.1676785205027745
Eduardo 0.5389388069811764
Enter@@ 0.4042959072129969
bourne 0.8686222832775319
sdorf 0.29507115799107086
ift 0.29252169737219547
anj@@ 0.33392097501152695
Rhy@@ 0.4387311147672184
Berg 0.34652398355249114
Mez@@ 0.8837861427296929
arte 0.22859962038166212
edy 0.12738695192869903
templ@@ 0.27790485425197614
invol@@ 0.10874189273018242
Southern 0.1296810802348893
inen 0.16001281835858988
Zimbab@@ 0.7325186874657967
unds 0.06759892485018164
60@@ 0.35513212517857984
French 0.04310423211729599
chu@@ 0.38125334974836017
imen 0.2629541977306142
TH@@ 0.580888603931414
Mount 0.1715724914537594
ation@@ 0.2768769271694556
open 0.08238931759136568
Kamp@@ 0.18401577612277975
craft 0.29701237584651063
123 0.7546167077979625
Martín 0.4184166261397404
Rit@@ 0.29759245983598315
127 0.7195172600579522
Mar 0.4654171259029769
Kag@@ 1
sten 0.032099448146730096
endi 0.5840688364245549
Board 0.12497411991680936
law 0.05052969253850108
NH@@ 0.1967522238905892
alif@@ 1
tivo 0.14785253610426025
Stil@@ 0.2717811365643681
124 0.7667576333675719
Kul@@ 0.3121140880052432
egel 0.31057209126498814
β 0.48096034271151666
Family 0.1673553640495957
Å@@ 0.937888324274318
dance 0.19454108653180943
lik@@ 0.0851751343869109
olia 0.4335862016541752
http 0.7227975756266556
History 0.03713243365850509
mus 0.379015869187681
kt 0.050728230337952804
ush 0.23885877226529031
olds 0.13125912800718245
Wild@@ 0.24805377310367216
aten 0.044850345933703455
Fort@@ 0.4031682751701309
spo@@ 0.08882893903922083
Last 0.34981508610086487
Wein@@ 0.26065412629377605
äl@@ 0.05169415627709275
Fall@@ 0.39335079566846104
leb@@ 0.18087265672253874
H.@@ 0.46527731693261093
kus 0.33248010446934606
Hoch@@ 0.1029853431564445
Beh@@ 0.14974132767918838
õ@@ 0.7609008146593074
Fati@@ 1
122 0.7054994903038241
Ál@@ 0.42509009797315844
yk@@ 0.7790369463354734
ación 0.008899743931178226
addition 0.07087543325979796
afr@@ 0.41283711077725865
49@@ 0.49441421386178414
other 0.011308929755955443
Poc@@ 0.43115656627724414
cargo 0.15244827857832427
engo 1
Fe 0.5055208680700991
imin@@ 0.32556914692150296
DV@@ 0.6617355753259717
Back 0.3721441783278347
onz@@ 0.31901722269509236
Fernández 0.45708639044851035
Hof@@ 0.2136419064149241
erine 0.763136652402112
Casa 0.37789442606996626
this 0.009067952616836884
sino 0.27199526752962616
benz@@ 0.7388581791585939
Dies@@ 0.5375141824018574
Castle 0.19475857692461715
video 0.05437189410242807
asha 0.865824403733744
117 0.7192981944554316
Anc@@ 1
Doctor 0.253084390034932
center 0.07574417847187688
program@@ 0.2107812376471891
ety 0.046423845927983584
sha 0.6747342765616565
jas 0.16838833076900545
ă 0.9028931359329145
Ili@@ 1
U.S. 0.045277849720922046
Ins@@ 0.20851762286709313
Johann@@ 0.5081684671291915
namo 0.9258858792998171
web@@ 0.13120457099924818
Wolf@@ 0.5427081022576584
straße 0.09564411626589937
König@@ 0.10100260748540407
Kop@@ 0.19774934698678032
bek@@ 0.07416461002256101
río 0.1364857523454422
Conference 0.1324133868043653
gun@@ 0.11802761057907656
Android 0.6576825440708888
ân 0.1916601991661528
Up@@ 0.3777629828174285
Summer 0.10630000146763248
you 0.08460812888842224
ò@@ 1
Yak@@ 0.5800384515428216
aber 0.029794870209573082
alcal@@ 0.47222851926650805
podr@@ 0.638661389946478
tier@@ 0.3579181678085332
Von 0.05151991791251382
aland 1
old@@ 0.16079083714235243
onic 0.22896294374919804
Ó@@ 0.5186615742735865
46@@ 0.5943730403035219
Independ@@ 0.15700839729791452
ede 0.1749590960009655
gun 0.17234379617476672
ahl@@ 0.10461838716115594
Yun@@ 0.7504898790364227
ership 0.12988474094543362
Felipe 0.45313615158718223
sala 0.5205966625084817
113 0.6750072434281776
Haf@@ 0.23626296449632714
yak@@ 0.42513096247258253
Mb@@ 1
tn@@ 0.14982586657562966
Nec@@ 0.6167021243971508
avia 0.4981852026437417
kaz@@ 0.7077674136130927
causa 0.39594621941840813
gil@@ 0.9116135815355791
`@@ 1
curs@@ 0.5516223867481885
− 0.16829380915915965
Schl@@ 0.18647884316689411
Kno@@ 0.27242777827560194
abi@@ 1
Head 0.24539958121534247
Italia 0.21777983512681767
Kid@@ 0.6980793295756609
Kro@@ 0.473869402048167
enas 0.189618995805565
kho@@ 0.4876718330348817
Pf@@ 0.09797794098015825
bank 0.11327139508480823
California 0.04988038890373127
Qué@@ 1
firma 0.4127297682203975
mem@@ 0.04853651733484254
sak@@ 0.5666752047173702
Bey 0.9843438610370532
ilian 0.19002229745188554
Salv@@ 0.7077526388394028
yenne 1
üb@@ 0.14530884887009904
niti@@ 1
music 0.03069686860012262
bol 0.16245878711377515
haus 0.12637316795717624
hir@@ 0.526566557383334
Theater 0.17922006670367038
adém@@ 0.525457956922012
ehr@@ 0.09206294546484259
Baden 0.2644434984359261
Ago@@ 1
ted 0.007891143477680709
plex 0.3091217172483244
vos 0.3813875208952459
240 0.6027014273022203
126 0.7010463869099196
ü 0.12925429827261478
manufactur@@ 0.13231279998549014
bai 0.3183193233882837
Alej@@ 0.42056874080731105
Tay@@ 0.7351905148789011
uca 0.5774554256307682
Metal 0.3772496172017318
Pseud@@ 0.46696545012325585
Sek@@ 0.16851122181034336
48@@ 0.5799427393786692
unga 0.829214797313215
elor 0.1946895248457335
Model 0.3511173275161832
Auch 0.08248385994857889
zia 1
Social 0.1583130149175812
Kho@@ 0.7394071724885488
ancia 0.1608048220534271
gency 0.1374294026280355
war 0.005961616355638193
juli@@ 1
usu@@ 0.4429182029251036
Mek@@ 0.6770632668387443
anco 0.3618071223276654
disc@@ 0.19723158027661966
201@@ 0.38575031981467145
Limited 0.3443640182912643
190 0.6507452463652625
icum 0.762065757323175
Canadian 0.07725402070575522
mez 0.43261848889700255
chil@@ 0.13600930014377788
ophyl@@ 0.8884737778497285
atic 0.07846063884197356
phia 0.7377839148257607
Columb@@ 0.4732128835933427
sung 0.28489871337387895
mut 0.39183432915645094
Margar@@ 0.4586880123982516
osi 1
tura 0.08870091675425645
tries 0.21884059171359876
230 0.669812941021707
utive 0.07151893808428915
320 0.6839324454361525
round 0.04636073163715803
eps 0.224644653652189
medi@@ 0.030385199734674715
ogen@@ 0.2122415611419452
‰ 1
47@@ 0.5420295149018164
elas 0.2962539275158884
c. 1
ő@@ 1
cast 0.056334663200788185
1300 0.7505401830516971
Eis@@ 0.2317230134667164
had@@ 0.7387761333371716
Bez@@ 0.18181117631369415
ambo 0.9904509552874313
mah@@ 0.3858314409461125
crick@@ 0.1692009411179713
Hospital 0.13139603686736617
polog@@ 0.2913308089022488
ener@@ 0.16048196622349126
less 0.04235488046310296
Bayern 0.25229461910833845
har 0.5125281120964502
Đ@@ 0.08398045683815088
board 0.07299832557826731
ladi@@ 0.6681060963667896
Hind@@ 0.4736901710262098
value 0.14737408091357895
Cen@@ 0.9306645068036818
eco 0.3513235326623144
enia 0.6807414299434476
than 0.016432702691513226
umba 0.619096248088679
IB@@ 0.5607176347699555
multiple 0.1321499382272931
encia 0.023763824266953275
Puerto 0.17522326008627992
anas 0.11420551490485426
América 0.2245155895422602
wagen 0.22283473923054042
ammad 0.7346414174540178
Gle@@ 0.31398261669956024
Broad@@ 0.2294711644421414
shu@@ 0.3501774455261997
eins 0.2376701482983956
rug@@ 0.6105323099763058
Winter@@ 0.21731501469470405
Alter@@ 0.2070936977379707
obi 1
thus 0.10105686627239005
Ear@@ 0.2834316738771388
sai 0.6884687144677962
Edu@@ 0.5108292947386702
Ek@@ 0.6068824037264952
Alfre@@ 0.7777836366634627
unda 0.1928077128688719
Ú@@ 0.5612482083705511
ht 0.12344197026557926
tem 0.25516760241597797
Northern 0.1035626310863076
lil@@ 1
pod@@ 0.3734150082875219
jun@@ 0.21939572413452038
CN 0.45044314394478363
sea 0.07474290466463102
Regiment 0.14981030471226361
adan 0.4251562410480608
Det@@ 0.21508278633423986
Schul@@ 0.08235156048447494
ald@@ 0.5161391064746481
zig 0.3504132407085237
ahr@@ 0.08808274974992315
has 0.005495931701428212
oss 0.21123729342749578
Nis@@ 1
med@@ 0.04628918391750107
Martínez 0.4465617891327898
afa 0.9013547752570776
Rest@@ 0.4853078270865857
Gün@@ 0.38537566286360325
ading 0.0908075672540396
Poli@@ 0.15773269319629712
kul@@ 0.08687368700722181
Frank@@ 0.2632637315039926
onder@@ 0.16959925146800597
Wid@@ 0.23288597175422693
fu 0.8073553953459592
Bib@@ 0.5430602320215082
Gut@@ 0.26521497174602116
Seb@@ 0.9632498832236929
oza 0.5602641676300634
hut@@ 0.5624501863182295
Depor@@ 0.3911179260427603
Human 0.22445969236299743
sters 0.23954983285676604
tech@@ 0.5004641344033093
ei@@ 0.18743737914457279
Cari@@ 0.2436734107164318
hara 0.8371706602531125
Milli@@ 0.1899265755712402
Sta@@ 0.2249312354335921
wns 0.12217567321874663
Studi@@ 0.08648475254260352
imar@@ 0.6349790695598281
2.0 0.49584565500445693
Flu@@ 0.2325579438574191
Reichs@@ 0.18514208840220514
rd 0.11066125014637673
More 0.2082421994901574
monta@@ 0.33842650042306804
Mann 0.16922110413104655
best 0.04133918086513815
Zw@@ 0.11650924139851128
Library 0.16508733912408932
Am 0.031138600234790963
118 0.6870118057397241
Three 0.14131709580080906
heavy 0.13711598835186475
Teatro 0.3532865659480753
haz@@ 0.32802038698953356
Asi@@ 0.3070050195029894
acia 0.24496321373098456
hao 0.9298315560100295
bad 0.20812458728338776
Modern 0.23555719387191595
sei 0.09403639856420909
ina@@ 0.7162182675010496
abo@@ 0.3944861652982061
mani 1
aat 0.7210004317584338
ional 0.15958181111252656
Valle 0.4456063672638443
Pak@@ 0.2458563115331564
tle 0.17821827000361548
ufac@@ 0.7281872884221323
Motor 0.23935782443332435
ș 1
Ni 1
ł 1
114 0.595282983148495
English 0.03613164178269638
erk@@ 0.07386280794151294
And 0.18389043340536854
330 0.7529029942360113
ien@@ 0.22627272008304855
aban 0.05874998277796085
bek 0.6211217473310253
210 0.6122494945103979
baz@@ 0.7182087121346707
arra 0.2405072925938787
Zer@@ 0.3979172052510571
ebe 0.2075675904465087
jana 0.7745272538493663
zur@@ 0.3108268292956613
river 0.08192357104204735
Libr@@ 0.5592245881996015
ì 0.4410534311280895
132 0.7298933752308291
IO@@ 0.454763128022547
Irish 0.10530745879563576
ead 0.15029394666144236
Kut@@ 0.5461857587722901
EE 0.4217613141028777
Sol 0.4485379315896604
Áng@@ 0.2663966796854324
Video 0.22288309806256448
esi@@ 0.23035691371697847
Software 0.35633687377211404
rapid@@ 0.3586527025432528
aliforni@@ 1
Giov@@ 1
sik@@ 0.8405795361166892
design@@ 0.05654894812967084
asia 0.3831659597343107
Maf@@ 0.745680413190281
vas 0.23077691830476027
Oy@@ 0.4899635573582637
saf@@ 0.09801448380244898
Yar@@ 0.49428882050221357
55@@ 0.5372257909278293
say@@ 0.05958890749558201
What 0.2078791679290209
Jung@@ 0.28588960741500896
oya 0.6300194917148395
So 0.07477042208806157
itzer 0.2366469877362661
gol 0.3602862349106933
öh@@ 0.06173242157536051
a.@@ 0.3012707326356574
Hz 0.2947730920344613
ück 0.11597700241588928
India 0.04295963512274697
XX 0.13896924046539605
Eb@@ 0.15031044378826613
hof 0.1440623701129455
parte 0.03212254673146758
Deutsch@@ 0.2018375539315143
Bish@@ 0.1275106740673239
olf 0.5324298374446835
iso 0.35989045295419747
bern@@ 0.5045658308776225
Ê@@ 1
Enrique 0.3387280294290976
Chi 0.44658990781510466
contribut@@ 0.12758376191500337
staff 0.10605738629048662
rah@@ 0.5049520967612774
abad 0.20050349812136978
cir 0.3118739311485669
Plaza 0.31610112436860544
Comput@@ 0.25750644243409937
116 0.6090732546663312
Kah@@ 0.604532017018652
yar@@ 0.23888286214231477
Wan@@ 0.6100175402397354
Education 0.08105595390698382
lerin 0.1283171840821945
oft 0.14155578227905485
vik@@ 0.9410128986556948
Gran 0.18160837291002366
tum 0.2363197161702039
Development 0.12282150693915724
People 0.10916318655291171
equ@@ 0.0523808636569366
forman@@ 0.3398753279813187
tros 0.28876879502779473
recht 0.13687849046910525
Dep@@ 0.16470543984573094
Battle 0.09375856627853689
Pho@@ 0.9419188380454253
280 0.659627447305316
world 0.03164863203490128
vivi@@ 0.28487047659572684
21@@ 1
rom 0.5436516428633117
Sich@@ 0.608983880722059
ē@@ 0.8187649461453239
sing 0.05556451695174384
Dut@@ 0.6407581046261095
away 0.05466611207547851
Captain 0.16665541131145867
Exper@@ 0.2556101772378173
coach 0.06452181802813077
cases 0.09946472999805142
lí@@ 0.10541286145683505
atz@@ 0.14156548123743568
évrier 1
100@@ 0.4021406759806605
260 0.6623696942737316
Ukr@@ 0.2023612092746372
scher 0.07763465854681816
owa 0.6521947816554117
Wen@@ 0.22109756359714017
utz 0.2302502763072593
70@@ 0.359478394875252
129 0.6811962954735347
Australian 0.05392337920868961
mara 0.2220318473910408
ological 0.04991142932086344
lag 0.0592196679357212
hot@@ 0.11989714088605516
Wilhel@@ 0.41763524482552516
endel@@ 0.6264620898167884
Singles 0.19828419371718448
rim@@ 0.5988579946294945
Songs 0.221299996915859
Sultan 0.3140843363737231
Hous@@ 0.7201891236374245
1400 0.7046846386313214
ß 0.04031413037085523
ating 0.013385017404577022
yu@@ 0.6841524950211034
ayan 0.23296033963932464
@ 0.8659841700550077
Schi@@ 0.195786736068726
sad@@ 0.500863797236294
Instrum@@ 0.2567399182406686
asit@@ 1
Fall 0.17197778540895955
park 0.06792046928629701
Minh 0.3015940700245529
Lü@@ 0.3367890196108144
Probl@@ 0.27479293406979094
s.@@ 0.6603778298882453
175 0.6015474801096137
Stand@@ 0.10748021535528997
Heil@@ 0.1437995760705023
ween 0.15220420930574588
icio 0.1072649724770423
Thu@@ 0.5526083145500292
Mark@@ 0.23882099491081596
entry 0.14503514406305232
Arth@@ 1
background 0.15483824091478723
Nieder@@ 0.06695888823434712
650 0.6239168153766963
orf 0.38607399343351984
Assist@@ 0.17210348343903586
Vladi@@ 1
erek 0.25286498764582765
ait@@ 0.9662318875856074
later 0.012882031570369488
pad@@ 0.2111115801996423
ya@@ 0.6262964323559396
Ped@@ 0.4191063690060948
maz@@ 0.6461917354796772
57@@ 0.6254510310077946
NCA@@ 1
Ere@@ 0.27868774080877046
enst@@ 0.11758561841025668
Desp@@ 1
90@@ 0.4228133870450204
ʻ@@ 0.7281972506288782
right 0.04212020581756506
AK@@ 0.49320231800186826
inson 0.7162743744075644
ikan@@ 0.13686289159762544
Wrest@@ 0.8475627312532278
Este 0.09783976244949623
uda 0.4088919001661558
dul@@ 0.27459858755800903
idas 0.07710624584944006
Rä@@ 0.29718763316000296
Like 0.15765799433153885
Chu@@ 0.5846379792539484
uga 0.5749705788503571
5000 0.3214459218592685
arqu@@ 0.4042484075500374
weight 0.09608110148114694
Ruh@@ 0.2697972119011632
He 0.003999203120325628
alte 0.1985279370431153
ambu@@ 1
Winter 0.1457349121725087
kop@@ 0.18272019224712596
edia 0.3205365718642862
onda 0.45197553524185374
Year 0.09623189891613516
eki 0.6607338033917944
550 0.5875217657589269
anno@@ 0.48520585142410116
Tari@@ 0.49319271988831315
mez@@ 0.20779810976557894
atos 0.12607937283759513
.-@@ 0.3031112690632407
ning@@ 0.1434485332117612
gu 0.7681625060607054
work 0.015093763560024013
beau@@ 0.1905636434774955
ulo 0.46066309825838403
Abdul@@ 0.4479066252355426
Tek@@ 0.44970710268328495
COVID 0.14309689135037415
edra 0.2625561855370385
Dad@@ 0.3142250724925558
liz@@ 0.14266500789897668
edom 0.1418794390062533
ác@@ 0.14685773360943913
Mal 0.12968918190794748
Alfonso 0.3402886105520702
anca 0.6722122194740195
י@@ 1
chn@@ 0.354918917308542
acio 0.1960785537513757
kön@@ 0.12648508195733912
sali@@ 0.22688509332280146
native 0.09110403273286867
Neb@@ 0.30322444644463187
orr@@ 0.17335970410639787
African 0.0633808191356178
ayr@@ 0.2767077932186683
Feld@@ 0.2091551060904547
his 0.002347340564738016
Trich@@ 0.5660522358222257
wol@@ 0.25953076747250164
revol@@ 0.08600152025224463
Das 0.012314389238274208
Rug@@ 0.9577794086662224
Vita 1
Aun@@ 1
izi 0.8870224131561028
ffen 0.14548621758740396
Federation 0.16711290975580653
zt 0.11649905446353027
Can 0.3042146471933624
155 0.6187891265114552
145 0.5837468121517772
adio 0.2149791402300414
tras@@ 0.14494941850536225
techni@@ 1
trol 0.22821617026791507
Roma 0.17372034762987368
ular 0.037232542024462814
Geh@@ 0.17789524145708896
wall 0.10704148882259121
erst@@ 0.057756179932292914
Now 0.23297478758077553
Gör@@ 0.48399878429114107
nes@@ 0.22628365469492706
vel 1
ior 0.06716920028436643
Coun@@ 0.11867610366044676
270 0.6260767023051562
estat@@ 0.253609058423596
plut@@ 1
sula 0.13855311904850182
Basket@@ 0.17351613801715027
life 0.016846718916076656
eci@@ 0.12041738312183309
get@@ 0.059362888325530445
eve 0.16997702584856686
Asia 0.09599404286677642
leva 1
obr@@ 0.4547245865798928
65@@ 0.46741507865335125
altitu@@ 0.3862337196390215
Jim@@ 0.5769874647756894
cola 0.3145397179892775
56@@ 0.6022546933738561
Oper@@ 0.10339112436733575
concre@@ 0.19500146601625878
NAS@@ 0.42144344202270934
opo 1
Su 0.04467242614014813
itor 0.11449376479104378
kid@@ 0.2943071423065722
uz 0.15415203967118862
egu@@ 0.5121549205973979
Kirch@@ 0.1194427281108369
eon@@ 0.5378192664282456
Lo 0.3459836151620393
lose 0.17280108170331437
Ort@@ 0.16081115815640154
acial 0.1252482530462867
bah@@ 0.1226627492145311
Amer@@ 0.20927028836278375
Wad@@ 0.6313348231477749
Chart 0.2394033978053729
ext 0.32020215862279017
uti 0.7980944608619639
43@@ 0.5193225548433469
Yer@@ 0.4930198912821319
God 0.110391185712748
pool 0.2049636701437948
Kant@@ 0.25938913277143283
spr@@ 0.033069074389603936
was 0.000784799966074194
big 0.13550695197917148
pio 0.2713826184141834
ority 0.0645639398153088
flav@@ 0.37182477742782133
From 0.03891255749780693
ering 0.049544830696850485
pen 0.12308881347676195
come 0.06021868420748513
ism 0.024718368242499313
Rhein@@ 0.1647879264631094
eras 0.11970287983260791
utt@@ 0.4704227366784143
4000 0.487407900671551
tima 0.35115916376241874
usi 0.8999398726219812
Town@@ 0.44801951908141213
Highway 0.10897494576542976
Lö@@ 0.2288922783948646
Song@@ 0.448244744112994
https 0.562327521657843
lich 0.01298862955944394
ß@@ 0.04079712430059429
lim 0.1364467633691059
lay@@ 0.09288470833529425
That 0.08810896645264181
lower 0.05750384105635706
ías 0.05358384576401365
ality 0.029858807839121208
Ehr@@ 0.11989020296908319
ulia 0.8259946235107422
Kav@@ 0.365044130443501
eger 0.22273009924274645
ishing 0.04669880562213837
Kais@@ 0.17267357093449048
inz@@ 0.9478735282676609
Phone 0.5884732616424933
enna 0.16681094071789956
Israel 0.08264452924250056
acqui@@ 1
itter 0.2413397460414477
hay@@ 0.2545557553329276
report 0.09599039245674204
Ut@@ 0.5200577784497762
ockey 0.4705360855245533
eling 0.12872530138034627
inger@@ 0.23046796987507684
refer@@ 0.04561918500531436
adas 0.017963388453705015
raz@@ 0.20689368855662138
wand@@ 0.17029248124575838
works 0.032049987400954466
ə@@ 0.5675060207651461
afe 0.2596327312364293
tur 0.08886238687800019
ineering 0.08867392499289833
opter@@ 0.4112734374755728
featur@@ 0.1258968607511145
119 0.5992194288929756
uku 0.8877793371436663
black 0.06139120100273469
Jesus 0.17412325852118724
tronic 0.16497001692691995
arch 0.0863628905743776
oja 0.6624669994878077
Lew@@ 0.5994017528888888
oda 0.5328623044469063
tham 0.12635276387188313
thu@@ 0.136892089996816
night 0.06527114707649286
wing 0.029113815830694643
start 0.06696294186699119
isco 0.6394329258106348
lug@@ 0.15602547709562428
380 0.6606716235566771
ensa 0.15242174983139492
ror 0.16880375239077886
had 0.00390513521077666
Cape 0.16095547614699376
quot 0.3142161575445134
đ@@ 0.0445938604874211
Ef@@ 0.4764177374630074
ehr 0.10115113257148627
infer@@ 0.1878413521856587
58@@ 0.5786858050176812
ň 1
adem@@ 0.3350561747355701
estro 0.19896876704839253
Bek@@ 0.1541598968307987
fab@@ 1
Rez@@ 0.22777784451479507
Lux@@ 0.886210299105073
thi 0.1510607869768528
anya 0.33812910573409416
Scottish 0.10813965180175494
unge 0.1638165539667043
Git@@ 0.2282522190615482
won 0.01615694375267935
nach 0.007063585932429798
sobre 0.02671205495087059
anan 0.2961950705110191
ו@@ 1
vy@@ 0.9508295829986182
illing 0.08626251966072757
ational 0.04234546131653941
endo 0.033180951112980694
onidae 1
elling 0.05563496719415699
Grab@@ 0.16533212496869976
68@@ 0.4983420822886035
Jes@@ 0.18491824835964865
brit@@ 1
emba 1
Kingdom 0.06550429829524104
See 0.11188542283897736
aji 0.33038270399354974
Nach@@ 0.042014240396932405
wi 0.602222301433061
kit@@ 0.23036793369830577
ample 0.27535484361193285
utu 1
utar@@ 1
Pueb@@ 0.2987237795304842
anced 0.0733476347052661
Na 0.4137781433897619
dle 0.0747204747200175
assen 0.07031833132330201
ios 0.1572424589534301
othe@@ 0.16999854378403126
illas 0.17185756571492516
amu 0.5732894922981753
empres@@ 0.4251384666344645
histor@@ 0.04686892195002621
icos 0.03985420149317008
Jah@@ 0.18963987355448214
lern 0.14087519558366068
USD 0.3163421788274561
alen 0.05906024202389593
Univers@@ 0.5769563068265644
Wander@@ 0.2367692987730549
dea 0.2932425414132711
With 0.04211225857472589
folia 0.5145009760032372
Metro 0.19128387402587507
media 0.04472120704720065
Eastern 0.08904669731374962
Committee 0.06387950116610142
fire 0.05623294927605948
152 0.5807051496948108
Secre@@ 0.07506544461001756
kum@@ 0.18311696604089786
furt 0.42593889729605805
Papa 0.5558347468855678
Wir@@ 0.07856795419263081
Under 0.09619810543532623
Earl 0.14966433850055957
Not 0.18155290315764008
inden 0.09540581355096682
weg 0.12428633245581117
wn@@ 0.31246333684445754
ˈ@@ 1
ising 0.07767419730857618
Wald@@ 0.18102220252856366
-- 0.39516481176092244
Kaiser 0.16761566214170753
ción 0.015795469410603925
cara 0.3229853272051801
Over 0.13000733603722253
KK 0.5798644661051744
lise 1
Born 0.12118135272281906
führer 0.1750592582838254
essen 0.08650605399843216
K.@@ 0.5164751180782577
Hiv@@ 1
Viz@@ 0.16825589843253333
aub@@ 0.17503533849140795
kö@@ 0.12804096339688606
zem@@ 0.6778375764731669
amber 0.14877975875745134
bahn 0.06173983737552225
53@@ 0.5481976727234409
irk 0.19569474853186544
Oly@@ 1
uela 0.3468479920968679
Municipal@@ 0.2571580148817158
ign 0.08895933683889401
d. 0.1941088116562494
far 0.07094238739590493
uten 0.09507702549469656
Ayr@@ 1
ulan 0.7135304869487188
Sied@@ 0.12868784281051904
11.@@ 0.17116411027493758
med 0.17034593377326812
slo@@ 0.14780094119963133
stead 0.1858050817345516
lik 0.1392871753961121
BK 0.6500789444475306
cier@@ 0.29760287429777554
topl@@ 0.44119338399363517
anchi 1
mim@@ 0.45653810950539214
git@@ 0.2838952765656835
º 0.13169875151100413
ø 0.6802343084664478
eza 0.08822032861960837
ÿ 1
́ 0.025604138075753867
led@@ 0.201454842384817
Latin 0.0906092745451036
alles 0.2846759207839024
59@@ 0.5506368101162906
its@@ 0.14880494536495514
12.@@ 0.1670059816875323
Carolina 0.07294290841844984
Historic 0.10263472547632362
Renn@@ 0.21959183288579023
amount 0.09761625945204681
undo 0.3459545359907932
uso 0.05047228472948225
Neur@@ 0.2700393709557389
Reser@@ 0.09429213122858493
idad 0.02449718520945964
naci@@ 0.1696852026628211
Geb@@ 0.06126644584639321
Ha 0.20977297456915348
kle@@ 0.10235281001703715
atia 0.2117861426751293
rö@@ 0.16407680919798515
GmbH 0.16806995372804373
ners 0.0665463506339748
tiva 0.13349286046378298
aku@@ 0.4996302846424894
kas@@ 0.21604557294667134
Córdoba 0.28538591287786697
Kriegs@@ 0.11791521385231826
chini 1
kis@@ 0.3306165529288414
Spiel@@ 0.048076703001164026
aina 0.5173017986212478
England 0.027403933628734146
sti 1
ime@@ 0.5875529848515944
Medical 0.1301500024862677
Americ@@ 0.11160601982271046
ators 0.05213927730921251
Civil 0.08001083251734414
new@@ 0.0754569339475777
ät@@ 0.07159521077085602
kn@@ 0.05839454515655723
Sold@@ 0.18023241411946198
Health 0.0937324775995434
abandon@@ 0.08216334584248369
Kaf@@ 0.4301628430002299
Chu 0.45470181798851866
urs@@ 0.10313191664465357
range 0.05224011585424806
Fren@@ 0.804662544503952
nah@@ 0.11398060522354174
oti 0.8784884940310083
liche 0.012839791577855331
Ankara 0.3885886874190328
Islam@@ 0.11926769730123643
± 0.6201512182122869
mission@@ 0.05064248996097276
asons 0.13642177162530447
sam 0.1636652964748408
bian 0.13876081915908783
Ø@@ 0.7511300080900196
Cem@@ 0.15678196720055113
tero 0.15555381248104522
team 0.010339303056019706
alu@@ 0.11031359593004042
Stadi@@ 0.24738527695690082
atz 0.17929142400380113
eiro 0.7227891613104267
ities 0.03141796877655386
stream 0.0978520432697595
fen 0.04272751854342362
partem@@ 0.8226627280563252
eles 0.10468520471757724
eleg@@ 0.06021141191328237
trai 0.3521535008944638
Back@@ 0.08447342529263449
wes@@ 0.07863386888468425
stop 0.1002909709592358
bil 0.3957662112902032
dil 0.6141759271097551
dren 0.1692295347675285
Hr@@ 0.6489821175547212
apr@@ 0.2303296019397097
ól@@ 0.1821133719088036
perial 0.09871840112192755
avy@@ 0.5162716352730592
kap@@ 0.08708243574272141
pru@@ 1
Sie@@ 0.6598930293666918
Ireland 0.05516965073272697
Siv@@ 0.5394550085917819
Ung@@ 0.12981519110337006
then 0.009292520939185001
abu 0.5803651714418607
aliz@@ 0.035511147173172435
dings 0.094351129896859
ird 0.13636660044739154
nin@@ 0.12921413235041063
sts 0.09800352893614539
Baba 0.7725563870645826
Wales 0.06639427213240569
proper@@ 0.11441715135097381
zor@@ 0.43967688893846707
ʿ@@ 0.4745853631288937
Klo@@ 0.1627565073098891
Phys@@ 0.1528614312646821
itar 0.16026802573728316
adv@@ 0.03839806841921687
Fak@@ 0.1704178674439797
spe@@ 0.03251771960970229
business 0.03990022387606518
Olympic 0.10117466843108093
afor@@ 0.23405830581982262
bara 0.6517856401957387
rest 0.06196974741594591
wers 0.06226906647698385
üh@@ 0.06405860704909266
Burundi 1
aí@@ 0.32255215286074645
urity 0.05711054764577683
Stud@@ 0.09346933014722648
idental 0.3037344956111185
Dar 1
hak@@ 0.2749991996353222
power 0.029855755713018236
transl@@ 0.09038569308804938
1st 0.05011043862347669
Florida 0.05900268935417087
erne@@ 0.4120075236175849
67@@ 0.503933749974847
Inc. 0.1309266764879046
fest 0.1673481033654992
kus@@ 0.17858209194691638
March 0.014556569783925844
Stra@@ 0.13139156768434407
Fest@@ 0.11356760105607101
Benedi@@ 0.2101397224655189
Hier@@ 0.1569662596337686
self 0.042337950714707334
anl@@ 0.0696442919513114
Ame@@ 0.8456920259731701
arian 0.056418204192504706
form 0.013678876730438045
Ciudad 0.15825250804359012
erh@@ 0.05563630450436734
ves@@ 0.15634146456931383
azu 0.20344166144234277
bau 0.04600231506042241
zw@@ 0.0663076395587129
eso 0.14931423342630284
disco 0.13794746893020943
Xu@@ 0.6711621706403521
anot@@ 0.24590635731351207
jen@@ 0.4403395985509896
§ 0.2838495138392134
hab 0.29072790401794046
angi 0.6554146351315341
Nel@@ 0.7022779982673162
66@@ 0.5401178502862468
zar 0.20568922642683596
etes 0.10065972063191235
yer@@ 0.16163203843428833
kun@@ 0.13222064104940306
sola 0.3211898770756646
iff 0.11338862455653892
hio 1
Doug@@ 0.6171159825688508
engl@@ 0.10597938134367317
europ@@ 0.06857859438820306
esen 0.07049943263574023
free 0.042832432698121266
mula 0.17831406684484571
zis@@ 0.3740333445575289
estra 0.11150117272602625
algo 0.1749211867386412
mann@@ 0.17791226261635787
azo 0.14931348600995847
75@@ 0.35508648406565785
ms@@ 0.24332543382496571
langu@@ 0.10242068623632926
pues 0.19547054481854392
eko 1
Way@@ 0.6788540302120978
Sos@@ 0.5869133499734375
legi@@ 0.08299005777393594
ists 0.01806800733179267
itung 0.07512478448503884
iza 0.2521092277819739
teri 0.8474007897231957
imba 0.9342979543295803
Kiy@@ 1
UTC 0.316545069770499
haw@@ 0.3743572671748909
alter 0.10530925485340391
iku 0.807366285357117
coun@@ 0.027613348594440763
omer@@ 0.23256114878636353
Bey@@ 0.5238896936046853
emo 0.26816014930719323
nj@@ 1
text 0.05316858617475863
Ital@@ 1
Ban 0.20131144309011711
Bisch@@ 0.20910996652215597
Department 0.043145328059921856
arak 0.14357675543313156
trad@@ 0.09702537915945914
ilg@@ 0.28938087254942124
ío 0.10463868143617788
bare 0.16352987386273712
pez 0.6701096755610737
umbo 0.5436717064129982
å 0.7412503765732811
appen 0.10307874128812622
osis 0.09199185860768562
Community 0.10960543583197381
sub 0.13777158968227382
Sonder@@ 0.19527208986262148
they 0.006022925728142473
ös@@ 0.10715000372333926
Alem@@ 0.48503346244235596
Jesús 0.24651372190332607
alta 0.15229573460549892
utz@@ 0.09998118044972143
Stad@@ 0.1380398390671778
love 0.06612144276391943
Gü@@ 0.11367264022434317
death 0.02228340930300963
lina 0.7587206428981816
ã@@ 0.5036957491820009
Mustafa 0.5492450722411988
marc@@ 0.28482040956556554
okia 0.6580374009961003
ández 0.4809374005837086
jed@@ 0.7619468817739363
änder 0.12208444444401897
azine 1
Fes@@ 1
was@@ 0.06344429620091306
Government 0.053914021622038295
eder 0.11945908225602744
Tier@@ 0.2013836180849579
platz 0.07807311120184969
sey@@ 0.42781772169590937
ece 0.03084500576765597
ún 0.1071547916263269
thing 0.05377695991761866
Australia 0.02651868338411517
Schwer@@ 0.12119288869736881
chos 0.20509933740708344
emer@@ 0.08233939739724686
If 0.062035511818371955
eim@@ 0.18000130525575106
yam@@ 1
Municipal 0.16841883619273365
estruc@@ 0.20757287848853
umo 0.35229296134715
Kik@@ 0.8877613528292786
Hawai@@ 0.14864332870316377
0.000 0.07076570909353959
Scotland 0.07759572799419351
Obl@@ 0.172833092453312
àn 0.1410708846772896
Für@@ 0.11133468957058028
kara 0.45047075209010035
schaft 0.017092886073230066
Ba 0.21070876737329616
ool 0.4334471409162288
sell 0.14370938142820422
Liter@@ 0.09377399654546317
inh 0.11536958748800771
pet@@ 0.1433856438391268
Kara 0.6653052828855373
zog 0.061990066032398705
mich@@ 0.9571785854322932
real 0.04281879189020148
maya 0.15853848629086492
elos 0.2374468015541472
Mia 0.9256706934106764
scar 0.537026677197259
When 0.023622232374041475
bere@@ 0.06602546561164055
that 0.0012789636042948545
sun 0.2314731862137571
Kauf@@ 0.17850280093060064
tín 0.24519746346029586
leben 0.09568019629382356
At 0.015542180339853984
Rö@@ 0.19441465065182803
sos@@ 0.2761957867494195
Bü@@ 0.11445055482169256
Wiener 0.16356786159601971
Georgia 0.07291002239256385
wah@@ 0.15706077530664772
deo 0.21334835515142245
199@@ 0.05625849490136353
brach@@ 0.348085704363836
Part@@ 0.16259773851770135
anat@@ 1
Federal 0.07261970774218837
Revolution 0.09971274677046678
premi@@ 0.05891536418319953
eig@@ 0.06003913519554403
gave 0.039577638952189284
upon 0.04810254121016976
aster@@ 0.10714661875534878
División 0.10077151491676573
enk@@ 0.1651930437279274
fic 0.04459853325353272
late 0.02293479026709093
opa 0.2987925761633633
yas@@ 0.2435698086611863
gus@@ 0.2840402135204543
ſ@@ 1
kim@@ 0.2942159312703916
üs@@ 0.07784800343433293
requi@@ 0.10649491226043283
give 0.06747652513087726
mid 0.04686937550937591
tei 0.16061740046110234
Middle 0.08571264328361274
Napo@@ 0.8629296960794803
trit@@ 0.16786847060050128
eign 0.04504158671478643
americana 0.23821752205969537
Famil@@ 0.6852229409524639
law@@ 0.0350512315988545
left 0.01785664275802407
usha 0.9873111610190154
pedia 0.22337947265344618
99@@ 0.4926788182747563
iwa 0.6573846440175011
enen 0.014594067175005197
adam@@ 0.5542613016341322
group 0.014573091743490847
isten 0.02665767711410278
XVII 0.17665127881684237
ersch@@ 0.060718755870160235
fass@@ 0.1071747778478335
rem 0.9501784662677158
After 0.010261077854872534
ombo 1
trat 0.03918698160294468
meister 0.07931407887726817
ships 0.04666393106213661
Den 0.11468657160377166
isen 0.09934133628008669
leri 0.04565970449172994
End@@ 0.12681209459834308
pia 0.42759437539352196
eball 0.14516592931278063
bü@@ 0.07822055420793464
mec@@ 0.16797172792394868
Hung@@ 0.11283364739800111
geb@@ 0.021446212963668602
Elis@@ 0.8146823839100631
Historia 0.05962793489618819
Schn@@ 0.16529082209653664
issen 0.07842479814029882
erb@@ 0.11827886050074915
kri@@ 0.063892662561321
2500 0.4426223784236711
Graf 0.18792354441009396
body 0.03214293180565923
arias 0.09349261523842076
enes 0.04824270032572372
tsch@@ 0.0894413202593164
entras 1
anto 0.16542214794952806
anthus 0.509588547674735
tek 0.2704495518972437
Minn@@ 0.7691218425206171
Kip@@ 1
Mara 1
close 0.04410461492049611
³ 0.2098292909255128
ź@@ 1
kes@@ 0.12463507812673325
tival 1
tig 0.05257805219912918
ede@@ 0.23620197535553983
gas 0.06143650590888543
aras@@ 0.46010393617008505
Sin 0.056233370226969386
egen 0.035036619182361485
uch 0.08788252471320836
ón@@ 0.09441440161521156
app 0.10531380833085116
a. 0.06838815071957935
Erd@@ 0.13686162456211196
alam@@ 0.3951686305561837
anach@@ 1
sau 0.03911401671235358
etas 0.12739902488080415
dek 0.5665559574489284
door 0.06476773556553221
repe@@ 0.08445736356079113
Ş@@ 0.08987746090591545
Sü@@ 0.07279608355312793
Hay 0.2059814567791897
color 0.04864042365714062
lor 0.40308184740786396
XIX 0.07865175401793309
ungs@@ 0.008133565247634186
ḥ@@ 0.9205121329657566
unter@@ 0.011146017636380045
onio 0.5078983740228478
ungen 0.006182587143986836
data 0.045780567498636834
eres 0.16478760229399503
hous@@ 0.39234009635690553
weg@@ 0.04012506953093122
church 0.027399409461552386
Wah@@ 0.18976359928601927
1. 0.025925387653525294
Yoh@@ 1
educ@@ 0.03879955434708825
Muh@@ 0.41161362163854764
emen 0.06856253966681734
ín@@ 0.05451261210354932
Egyp@@ 0.07656006469413373
Histor@@ 0.08211089639485825
hold 0.06934195859721579
Armen@@ 0.09534418658084105
Viet@@ 0.24413628968982085
lea 0.1502659530444592
room 0.044783879307850945
nak@@ 0.2235729826102967
enty 0.07501286067377773
burger 0.11255595952258461
Provin@@ 0.10751623609827948
Revol@@ 0.0997079035716899
apon 0.2373155697756519
Öster@@ 0.17590206927473534
oten 0.11715692442478456
imler 0.4732407124746128
sn@@ 0.0994141865385154
burg@@ 0.1906637648916469
elek@@ 0.21934782987923473
Yes@@ 0.5620634687119137
Í@@ 0.4007356813847841
Meth@@ 0.12906361417035028
Ark@@ 0.823228314234387
Kend@@ 0.4540618670699041
eshi 0.5212779672234588
ő 1
mens@@ 0.13522734487277677
Alman@@ 0.5966266730922039
gemeinde 0.1223515029226918
rá@@ 0.15228505638109108
Ai 0.44146388267370457
Preu@@ 0.1599706694260453
gener@@ 0.020348498722354277
Dop@@ 0.517127298074434
Grün@@ 0.08058406768476095
Centro 0.14166148196130868
iken 0.11654348761978212
ž 1
iki@@ 0.5494372245726447
esper@@ 0.1030827706417012
Order 0.06857514915964873
plant 0.0441531582493587
Yaz@@ 0.48325731209314826
ů@@ 0.8728033921178535
linois 1
Ministr@@ 0.0667507787893708
ambi 1
ose@@ 0.6641256833321839
wide 0.030582992344511197
Most 0.05012247772836938
hid@@ 0.11364641139305132
Fund@@ 0.09679855990555794
Turk@@ 0.09251531813372323
Nairobi 0.8960386332331505
imini 0.7947500387338666
Republic 0.042314041354346535
Hö@@ 0.21982835825205316
nt 0.0724691491461045
wig 0.3597990223629187
ajo 0.1470416940336052
^ 0.7253698555223391
brand 0.09245171525532153
wehr 0.16698253451493655
run@@ 0.04722223505339166
Position 0.15792435246864975
drama 0.06911765557898655
shows 0.04287321662275361
Single 0.14158156089518184
eting 0.22906400611645256
Gord@@ 1
hindi 1
Norte 0.11411554252356151
bey@@ 0.48987066714114375
spi@@ 0.042696662134090416
yard 0.07368268850356993
Speci@@ 0.16240918417396943
iria 1
optera 0.31323499666662324
ustry 0.2225840107180048
Trab@@ 0.5653201216428918
Airport 0.07664857952356147
schw@@ 0.038101658412105346
quir@@ 0.16840575332204524
Theo 0.15646451992896637
ieve 0.06131473831976695
erin 0.0490729084601148
yar 0.30548200024314376
elde 0.2645670673965782
ň@@ 1
Führ@@ 0.09270563325717122
List 0.039807940783308064
loss@@ 0.12020889702823492
ching 0.052326405553981624
kup@@ 0.355175173022223
Vak@@ 0.7064722478416436
Zealand 0.044836255607055064
timi 0.6318730268188167
Rund@@ 0.11449832081719938
sanat@@ 0.5548895246338261
extrem@@ 0.09923374652953498
Cá@@ 0.13790566091439543
sych@@ 0.9845406714757414
clas@@ 0.16606062472413535
provid@@ 0.034085095960836864
nig 0.25510713142178665
Braun@@ 0.1729656019334349
Philadelphia 0.07943289311920912
déj@@ 1
Kran@@ 0.08069953051644858
Tsch@@ 0.1393559373700324
evi 0.4387364865660104
uw@@ 1
ר@@ 1
Konstant@@ 0.4066484230135302
shot 0.05410898832081987
intent@@ 0.1703930226023238
Uru@@ 1
care 0.051584635054856914
lieb 0.6190651876741643
angel@@ 0.23413561911222908
Apr@@ 0.7048844975327709
ě 1
Elek@@ 0.10912087777157604
ş@@ 0.03739387427862101
embargo 0.0393234340906085
ön 0.3331945233411811
Bev@@ 0.4159514736592438
Soh@@ 0.27695952685409475
üs 0.6580237591295837
Ener@@ 0.19431475772201057
jah@@ 0.15356063809144618
Bahn 0.12682158571629087
sche@@ 0.04899646597674741
ṣ@@ 0.850066823043079
pf@@ 0.03149403073681487
fest@@ 0.058841851613714205
lub 0.21278041097288608
class 0.027337865559938744
Zwe@@ 0.061996439412296295
immer 0.03951014751068665
General@@ 0.09655477527678619
ė 0.5751041013327851
cula 0.242124128357092
aining 0.03267148369028792
host@@ 0.039471314210939135
ppi 1
Con 0.05572571672513044
museum 0.06343889614905175
iran 0.9779003302302118
urt@@ 0.2561729388244408
ip 0.2525268053585522
kent 0.5112766082265424
school 0.01043986285434734
Gramm@@ 0.2741535170828217
tung 0.025812845507036063
aran 0.14697827904945526
affen 0.10398042703973769
Nür@@ 0.16584151048037102
iden@@ 0.11539532092420186
nad@@ 0.46282950342136575
isches 0.05871736820644834
lemente 0.6198851626363006
Festiv@@ 0.2745583799591389
them 0.009062491665842384
fish 0.06517845704448164
iç@@ 0.19355765728777347
yal 0.574899482191393
alum@@ 0.14779538989001298
Dek@@ 0.16581916179998482
will 0.011066836175659782
rim 0.33289156669204967
space 0.03948652551936276
äs@@ 0.04054663011680245
espè@@ 1
mitt@@ 0.11814168507522176
hr 0.1125031059261879
eye 0.09529924983236701
mey@@ 0.679816333554422
ì@@ 0.6155246596609453
É 0.8156997273001064
dad@@ 0.09019539443106545
Lincol@@ 0.6204707108118462
press 0.06062472281918505
lak@@ 0.16673781832020973
urb@@ 0.13526734496458978
dini 0.6201001385405903
kre@@ 0.03865838562987208
sant@@ 0.7399659267222833
icas 0.026048603996626583
stad@@ 0.2703496419317223
γ 0.5782920235808422
yok@@ 0.33800014312605203
Wali@@ 1
alog 0.1650964935566616
Stand 0.06540312344993585
א@@ 1
Süd@@ 0.03221293248978523
Frit@@ 0.6939717943975076
enca 0.21593599386139273
Kib@@ 0.6194301595155234
Groß@@ 0.03397466423850239
chas 0.11971370971494376
Berliner 0.10363281019969432
cil@@ 0.2798536363798068
Dok@@ 0.19559259392300668
Name 0.041451902909882044
event 0.024848039301115992
But 0.057502644653792415
divid@@ 0.05059125228223322
Quan 0.48064145953730864
Gast@@ 0.13116605211063076
ellen 0.019889980318125774
ù@@ 0.5402244964147903
üm@@ 0.049640322047817015
′ 0.3198481623189955
full 0.02540118418175025
ilk 0.0551122724531187
½ 0.3196917448600898
ening 0.05509266300274345
same 0.010268173458038045
emat@@ 0.1274633497318755
sional 0.05377865672998273
isel 0.5202254165324003
Mp@@ 1
hem@@ 0.08577751535392873
aben 0.05065075468199971
conflic@@ 0.10859499707125671
list 0.027912904305732317
By 0.022756204159769686
She 0.00703140674302214
hus@@ 0.28557389152041235
Chief 0.054025891721952726
izer 0.32994141683986494
eden@@ 0.07079750230734176
Pek@@ 0.21648869540011256
yla 0.5205540931330669
pop@@ 0.420561584816847
cera 0.33013552168271787
ought 0.028057088170106898
where 0.0054585366596547535
afi 0.5592843025640629
gru@@ 0.24369218757884828
ondo@@ 1
hak 0.6753435505320001
stein@@ 0.08928322247786837
werk 0.038630860991440356
theater 0.08074455160411784
open@@ 0.14347324876090317
meng@@ 0.5605146332275727
ned 0.027265201363607494
ording 0.04785850915418848
jia 1
size 0.03795075315921717
amos 0.11310172899731334
schen 0.03074689897303899
digital 0.06681964361305626
ã 0.22491499323671357
Wür@@ 0.1420976370843542
yana 0.3295720146286643
iku@@ 0.6411455971821985
trat@@ 0.05445755913697507
Frau@@ 0.13594670583171814
about 0.006605676411245473
ainst 0.30140181765761215
trong 0.006373309450772473
uko 0.802133841433477
2nd 0.047891258452854316
Kreuz@@ 0.08105594263662094
Zanzibar 1
Ô 1
198@@ 0.12767823011402635
äng@@ 0.02765137822680825
Democ@@ 0.06535805183003596
king@@ 0.1096388275381721
Stoc@@ 0.6954062612488802
dific@@ 0.2056716372397014
dok@@ 0.5461730915691517
allen 0.05304077096223344
Islands 0.0704950113429755
Arsen@@ 0.892431080257267
His 0.01089170390042554
mov@@ 0.019485133448860086
Herb@@ 0.14215451588873024
ém 0.4519039524319822
Ya 0.2328553043227965
made 0.006058218840288563
atory 0.061533847400524325
ledge 0.06265061414100571
Evangel@@ 0.09868123765274915
perten@@ 0.17907411695926334
ceph@@ 0.3681324682106534
íos 0.13529895676542497
tai 0.40293787032529954
hac@@ 0.07360631044911191
ismo 0.027945817680811356
Müh@@ 0.11066427486936779
ump 0.15620069587230898
omba 0.8193964925130682
iny@@ 0.5399251115912318
wur@@ 0.10416497669263232
Ä@@ 0.03456549718421313
BN 0.26144150688301165
aña 0.15445129605187924
lake 0.07571816394519312
xim@@ 0.32372111914712975
alist 0.021525548544339305
ampi@@ 0.9509165050820563
elen@@ 0.2908376500891243
lang 0.03262386773239397
typ@@ 0.03286445076467094
flora 0.22642124389214732
neu 0.06211448180615244
Graf@@ 0.07301104368504695
Ferdin@@ 1
2. 0.038267115680653926
ç 0.09693307120781135
census 0.03650163657587536
opera 0.09949410287988053
eral 0.040565074821106814
Þ@@ 0.8010801672524642
Landes@@ 0.041554686595753086
iten 0.023890237826591318
Sov@@ 1
ography 0.01840988819826748
Ü@@ 0.10090787782106993
auch 0.003649410311672441
ɔ@@ 1
ders@@ 0.3699312204923973
ysis 0.051670011808103475
Gesellschaft 0.06781490918978167
pale 0.29123256303600853
dif@@ 0.19349955290622187
hiv@@ 0.40856201553408106
ging 0.023730328584145366
establ@@ 0.029081407568261514
sek 0.7256674462845147
Galatasaray 0.5558236069421497
zil@@ 0.8455138219413756
ÿ@@ 1
Bö@@ 0.14705007418583804
June 0.009639264127506427
ifu@@ 0.8457491417632287
may 0.008870470828400376
enton@@ 1
ization 0.05609842285525647
kata 0.2883354896442408
Valencia 0.13704398241750343
arac@@ 0.6306599624250948
envi@@ 0.13185619464420198
head@@ 0.01984207253503407
18.@@ 0.18088986294362308
tee 0.1726351934339374
15.@@ 0.15771918156763742
nm 0.2261122934133313
mando 0.087840961957483
uren 0.07181699817125471
Museo 0.11441884870911634
kio 0.20721999268099778
tik 0.046277160666711954
Her 0.027628778268180897
Schwe@@ 0.08557563735249962
chart 0.06208137356752698
oras 0.09838754344263821
Bei 0.01948987059051118
ος 0.025437288537806926
Việt 0.05364135391068193
eran 0.018470400387641403
Rus 0.3272630909587757
embe 1
jos 0.06929658163307365
fore 0.029268723666880877
ğ@@ 0.06900212299700721
jit@@ 0.8186932365763534
run 0.021944870830678635
atur 0.06720424937627441
ecke 0.16232827842310102
usu 0.151869751364828
pero 0.0140274700164965
fall 0.02580548890750115
inner@@ 0.19878362405245847
isti 0.71238575323125
There 0.011091018944229728
hii 0.457960486488029
Universidad 0.03386350730715518
lywood 0.5206903891341612
nek 0.4579430941006581
Marsh@@ 0.2130060871653089
aught 0.04011301687722793
eas@@ 0.031469277617034115
iker 0.046024416668114146
ב@@ 1
coloc@@ 0.1700145212880506
Kunst@@ 0.058199559845105095
prac@@ 0.09279301980255558
National@@ 0.03671248128388195
eler@@ 0.08231831535316068
track 0.021634989012906527
Segunda 0.08670078902552569
week@@ 0.05883221195583245
ṭ@@ 0.7849773955180748
back@@ 0.0477515730611827
klin 0.8795356715810597
odo 0.3904151048292905
hep@@ 0.2272052174968168
oran@@ 0.5611715017049572
Pia 1
iev@@ 0.04931809817463007
ihr 0.025851616666229035
yen@@ 0.13884594466325983
system 0.011445666667456158
Kongo 0.578255714201294
common 0.02472693135235758
performan@@ 1
Bir 0.19715485555472845
schule 0.040917846844872326
issen@@ 0.1990491559179514
ı@@ 0.05178003318771352
lied 0.035780150062374554
acid 0.10695763689970587
φ 0.23568740923459772
Sociedad 0.18369717667929183
building 0.012861915110245602
leh@@ 0.06736783299591749
--@@ 0.46188671059176467
ayi 0.4897278369559095
gruppe 0.06300974382534465
ôn 0.10535792649794083
km2 0.11108843972092328
lost 0.02147265175253083
Wiki@@ 0.24548638054435143
aft@@ 0.08684222875479583
מ@@ 1
word 0.0373986221370177
umen 0.06984098694128159
Another 0.05268496871828837
Staats@@ 0.04759917857220521
España 0.03360852936665939
omel@@ 1
Mosk@@ 0.11719921226277223
buch 0.08578401560806206
unia 1
wart 0.18998915895949925
oking 0.05574363018611332
Uch@@ 0.8338852789280254
verein 0.10809130618387594
Heim@@ 0.07774356251690423
elop@@ 0.3189084913354321
ög@@ 0.16067973679471445
fact 0.04478544682956192
Kup@@ 0.1287837797243086
eing 0.06012346969687754
stant@@ 0.20861088861530436
Wach@@ 0.1478020276260996
senc@@ 0.2996993606683871
Ide@@ 0.0899932961621022
kum 0.15596065019547303
bald 0.1096658919598096
nine 0.04364507865399415
ogen 0.030861837751820383
wann 0.5480034871823445
20th 0.050774070601246016
196@@ 0.03897945905348062
Pennsylvania 0.04579206433337415
drei 0.01570513171248972
stil@@ 0.13506159103847906
city 0.009005188134131476
umu 0.21395053479981735
kt@@ 0.058855255207584896
nea 0.10851560841778987
books 0.03304523859095007
cell 0.06337730672004437
gut 0.057777913298751475
ǎ@@ 1
sita 1
Klein@@ 0.11010918040259986
Other 0.027327855686333127
Primera 0.07570428959230556
ngu@@ 0.5952175226999153
unas 0.07174691806680078
enin 0.10358986323689688
elem@@ 0.0750725420682617
aten@@ 0.039468694330150676
aum 0.049191773651378036
ɛ@@ 1
eski 0.15372133795811052
fiel@@ 0.038860390294846864
bez@@ 0.052375875633148244
isia 0.25097676399063207
she 0.0040895227205896886
Regional@@ 0.11163355301094445
home 0.011275925460463562
line@@ 0.05788838497022443
basketball 0.04728703738439431
ś 1
Una 0.05436740695609518
iß@@ 0.0392819436283456
Early 0.022133814209590093
Distr@@ 0.06829045949149129
λ 0.08465967290898642
bell 0.20612540450579156
ever@@ 0.048563056370255514
üc@@ 0.04772055881118803
atura 0.05468714110300163
Deutschland 0.025239789112391116
Corpor@@ 0.24202899260355706
otra 0.057957182622891026
statt 0.02963116057985322
Telev@@ 0.2400157680329055
büt@@ 0.38213062578318
kari 0.7005546569281844
tiz@@ 0.03262695587313407
ש@@ 1
Españ@@ 0.14656890482812393
eas 0.06777128331272554
gal 0.4762345832592188
iliano 0.5178381401000074
wana@@ 1
âm 0.06929689317706297
uza 0.5156970323716003
anz 0.09112443979526032
wana 0.7831774503998459
April 0.006448861464287509
ege 0.06240714015956088
led 0.006649938909128549
14.@@ 0.12449179116791181
194@@ 0.10825266028777013
kia 0.4296219255904229
unde 0.04856913170285239
Epis@@ 0.0733353092724652
asim@@ 0.2928953955754323
anzo 1
laz@@ 0.31832221948305395
kik@@ 1
Es 0.008775532027837827
Ș@@ 0.905749217207142
13.@@ 0.11527579128301423
oren 0.03491061366484814
ℝ 1
Frei@@ 0.09114711326948591
hadi@@ 1
like 0.010188141166319348
Regional 0.07426902321986059
pay 0.06026503221099764
ieurs 1
sof@@ 0.18414696286472304
oğlu 0.18911576854430773
dik@@ 0.14266766140797477
cil 0.03743984259554379
ა@@ 0.8284969385554949
dort 0.021663461743069972
tores 0.04405398707869497
tek@@ 0.16022418638798833
Barcelona 0.054641865973875686
Straße 0.04668360776763764
ký 0.13173972400295828
Haupt@@ 0.020682583125299286
ω 0.18546136988128922
short 0.020080223119627826
odi 0.8157865263625248
ember 0.06670735882422886
doch 0.06768172715808653
hood 0.03323343871675499
neo 0.08267514798111249
coming 0.04069668707548966
good 0.027798866904812584
ên 0.09739319053945504
oyn@@ 0.17305231742095983
äm@@ 0.06470310607912452
ished 0.021577241584471416
197@@ 0.03394172914507924
adet 0.42424538120536176
bed@@ 0.03319751826444757
eten 0.016936563099134935
hali@@ 1
uvent 1
song 0.01017113814509358
aji@@ 0.7670240705340408
Congress 0.041174742649908926
ṇ@@ 0.8757013242695375
entum 0.10004795418314642
大@@ 0.007164040570562241
kam 0.018374647687659434
µ@@ 0.3983692765569507
inning 0.08933324796289129
σ 0.5564347558312738
Film@@ 0.04328992099579427
huy@@ 0.22024741801776335
town@@ 0.21332468999205104
adores 0.023037661706421766
Unión 0.08311419988017267
ibi 0.6228724808359851
ifu 0.7330287867875217
ved 0.008901602908091758
quan 0.03695896345880393
4. 0.04564085373081812
Carrera 0.11804258584952078
elte 0.0604535113547601
Fot@@ 0.1071772474145455
tik@@ 0.16631773904355093
wir@@ 0.034594102364909306
20.@@ 0.15610372682421625
dibu@@ 0.18424147566192525
Nguyễn 0.12224147842658761
ⴰ@@ 1
alya 0.5911978657658269
ל@@ 1
् 0.001250864920348326
ischen 0.0032184443262184984
Guerra 0.05118370941075993
kend@@ 0.13800320318428186
μ@@ 0.03121907246715371
nord@@ 0.04829150971932354
oder 0.005937568608308781
π 0.18955644831617174
iting 0.05113982170679496
ata@@ 0.20216636513036873
reich@@ 0.02872351387595246
aching 0.022801671910361324
esha 0.4271365562397168
Nep@@ 0.09676158362611355
estas 0.0346626187589961
zas 0.22393353123318582
Britain 0.04460830310344636
phi 0.1742414722111717
ungo 0.9175028283516583
alian 0.330566559648861
ober@@ 0.041017316083410894
utsch@@ 0.20179835078143438
ʼ@@ 0.38562461599928033
Dez@@ 0.5901935621771894
standing 0.030040895130811335
cina 0.1625538054492915
195@@ 0.04588899832621839
Wab@@ 0.6625689282347468
eden 0.07128440808986349
feder@@ 0.04271769752725975
Wilaya 1
tof@@ 0.7340682278358509
soft 0.15140007201172415
kno@@ 0.025444778253198335
Santi@@ 0.7056116337166473
і@@ 0.19814823474966506
äh@@ 0.025947636192625925
circ@@ 0.11005383855819625
etten 0.1233648719390225
akawa 0.9621301413784495
igen 0.0087015990912002
inco 0.373868727003091
ε 0.0529794580480397
Nueva 0.04707438839000371
yat 0.4029838779702353
Mittel@@ 0.027941759194767404
Musik 0.058444265684083445
abila 1
él 0.037949039058071156
Jewish 0.04039593292822344
xin 0.2422739106414321
Garc@@ 1
plann@@ 0.03092668128653059
mf@@ 0.23592028965713016
CEO 0.089891101409382
kut@@ 0.24310521589702572
gali@@ 0.8421769865923912
fied 0.011721016830912711
kim 0.18538773559025903
Asian 0.04492330612522928
16.@@ 0.13232640073064075
Stell@@ 0.08641773444021876
icro@@ 0.8585022848311566
tam 0.2369435023882666
ablo 0.2549458541281011
wad@@ 0.46859571944529566
Jew@@ 0.32932533934185904
canti@@ 0.2811912881115015
eben 0.020171421478106695
ütz@@ 0.0413684430284163
Waz@@ 0.9952252956892169
indi 0.45879150752543096
190@@ 0.2025997343510881
Ó 0.6673935049080185
Ö 0.24867984971909451
Mayor 0.06874844048348601
ví@@ 0.09055339386722437
wr@@ 0.03347060002235768
itos 0.05264620464041574
县 0.03369661157353311
dah@@ 0.1046066080125536
nach@@ 0.027752060743341182
icht@@ 0.030966015460768073
Inh@@ 0.08056115635368086
Mw@@ 0.709631844486487
enzi 1
hun@@ 0.08408177161389987
tah@@ 0.17458915590756743
Rang 0.08882579033323329
high 0.009285919513014511
17.@@ 0.13472590163467668
Soviet 0.031043473894443833
Musik@@ 0.03211941474313322
leit@@ 0.04832665650742233
aling 0.04749990944819264
emia 0.0961107954612643
נ@@ 1
beg@@ 0.011638220743921134
Kig@@ 1
inin 0.04435027066407793
Academ@@ 0.12747490736173867
tradition@@ 0.07273121694459397
xima 0.13879140930247286
äger 0.08178597291656443
izo 0.17734371331602045
baj@@ 0.10002917682081895
basket@@ 0.9623279689229721
Compan@@ 0.20456016060674964
goles 0.1477545474253618
ße 0.042045958988976354
ė@@ 0.4624819856050973
δ 0.6144851707535549
Andro@@ 0.7821151616894102
consum@@ 0.06328290947907735
Kü@@ 0.08732460204338197
193@@ 0.05691085965750265
hul@@ 0.15767596252367627
record@@ 0.08163186203854697
ilan 0.28115992866122086
mak 0.08230011996304037
ligh@@ 0.01825231152314356
teen 0.033138091936601104
egal 0.16021571081506797
novel 0.029326923971334275
ped@@ 0.055132748624939235
two 0.002457120532010126
noch 0.008196457022694992
child 0.03178984179883165
gö@@ 0.09203917266733198
idos 0.01918790411688193
ug 0.08716781127443071
ה@@ 1
.000 0.06333978727287902
idir 0.17787905485691527
‑ 0.8152409773570514
news 0.043441349167564154
veren 0.4469605413603032
estar 0.07178242818794385
acias 0.32825145324246374
heit 0.020512631633649792
uzi 0.8629864497622713
ück@@ 0.03541567619122595
Argentina 0.03355372792430568
yum 0.4291131382672056
Academia 0.11376745803906058
Ira@@ 0.058936031842493505
nament 0.07019153554808413
schen@@ 0.07699456555736464
çal@@ 0.1967441029583937
wit@@ 0.05122745897421537
Staff@@ 0.2599690967281746
grup@@ 0.0825191174614056
ibu 0.8245081039568031
erer 0.06621612829950257
Öz@@ 0.13253212059684813
EU 0.0723410422074146
pal 0.5994212326319942
Tam 0.31366597208364205
ís@@ 0.0945380077727949
istin 0.1351519743205628
dak@@ 0.4075963976330956
Holz@@ 0.07520771420646877
Lai 0.3072223187601836
ability 0.016298054237654444
adora 0.051660393357314954
pedi@@ 0.04567014254808434
Atl@@ 0.23426735290454903
regi@@ 0.021139562722447987
verl@@ 0.01652230016082689
k.@@ 0.244542776162485
Ć@@ 1
g. 0.053129712148397665
vu@@ 0.2902532235184544
Chinese 0.022814105064379572
anzi 1
deut@@ 0.09770850216739138
Dutch 0.04024544939161817
emos 0.1149880326771948
pá@@ 0.1112896733014471
ð 0.7923758412960246
key@@ 0.07268717693543898
zim@@ 0.458737716804921
Ngo@@ 0.5755788152002151
sed 0.01290753452409903
onstr@@ 0.039015753798091815
ņ@@ 0.977915897578275
amor 0.14002883229649188
people 0.0060634053440706635
quy 0.15526215195635426
kem@@ 0.21391983437966855
usta@@ 1
Brasil 0.07719277062980755
year 0.003994108062466863
maz 0.3071967513946545
ests 0.017047370936393587
riff 0.06273896686700356
desp@@ 0.03318672044850986
ended 0.008918546075149787
onto 0.047744741447591776
thin 0.05702747831390881
wahili 1
Kent@@ 0.5963960127099307
aden@@ 0.11222574536413135
guar@@ 0.06458882233791977
bul 0.42197130176552006
Verlag 0.10203812413308236
eño 0.07259433030594561
refle@@ 0.10995515533416013
estudi@@ 0.04218754196855311
kamp@@ 0.0772867188999516
lek@@ 0.12035698832453685
market 0.026522602812210562
Bür@@ 0.0825510648544342
Lt@@ 0.16523674992628715
Estudi@@ 0.09427635954749304
ichen 0.047397588940804404
lig 0.06554799344064677
Kreis@@ 0.07385505633034953
aday 0.365635679157685
tional 0.016794696218219215
aking 0.030414612999011
aray 0.8895579578828529
Popular 0.0995227000894462
number 0.006306223161872267
Erz@@ 0.05976477923833539
cian 0.14333004494923016
efe 0.11614253170452567
geh@@ 0.019904493293543525
amento 0.11900119096623824
icha 0.29873541244932383
aje 0.019689856974292357
upo 1
Wasser@@ 0.03230233623393295
Zeit@@ 0.02498104213735125
Supre@@ 0.040700156112893036
azim@@ 1
iw@@ 0.159547246964555
24.@@ 0.1547083801408488
ი@@ 0.8916277546954248
ücke 0.03477055744916358
pios 0.14699709352219692
ť 1
Bezir@@ 0.07597685074298137
Mehmet 0.38903233545979365
German 0.011275515426735482
Gymnasium 0.08743854945485964
mana 0.11984229458592438
tad 0.09392319635622741
Rek@@ 0.07255948542621943
Stadt@@ 0.01824656705636852
shar@@ 0.026472165436122293
eign@@ 0.06565542124772956
tim 0.09052204725653354
Eins@@ 0.07004553916454949
Hochschule 0.09108784401678524
event@@ 0.05764219867562596
anian 0.04680182142327024
dern 0.028316839848992463
ľ@@ 0.8988738349855606
eln 0.022311836537886758
zoni 1
lieg@@ 0.04041247273952271
Venez@@ 0.17575182166730294
isión 0.024540969522653805
cá@@ 0.039392798756533044
hours 0.034849980971134134
ivo 0.06472121337831702
Eliz@@ 0.4674093060231916
speed 0.03821681135469919
22.@@ 0.13918275787731063
на 0.0006241450875775731
Operation 0.058162722503065666
Zürich 0.0933082169888956
Tanganyika 1
enden 0.0069228028567480645
party 0.015323989911955011
ged 0.0214423656810271
gü@@ 0.08292953731782052
alism 0.029597733173692346
är 0.04523498996882718
angen 0.05147127047226046
games 0.012018200842000787
DDR 0.05897768111650049
ún@@ 0.06294656722656125
Wien 0.0426520803639899
weit@@ 0.02493223372408912
general 0.009316548007637149
ν 0.0422554919797198
ŏ@@ 0.5567148807295336
Fenerbahçe 0.4184191070230521
Grund@@ 0.021199769876140594
Ein 0.01808884726132478
Nguy@@ 0.5467429970204037
otz 0.06927991890043468
θ 0.2629216301162108
atini 1
sana 0.4678575396658361
vita 0.820202244587266
ա@@ 0.5757209493870663
doğan 0.4421627108550725
α@@ 0.03426155170925147
ー@@ 0.8997903047828569
Bu 0.032961262785780036
Ih@@ 0.19602298542806046
ς 0.04807258033624834
angu 1
area 0.006044765437493946
orden 0.04429274572483378
wie 0.006484397683220363
omen 0.22429073363518043
Some 0.018913886099796176
title 0.012180482046301394
ahn@@ 0.09476799224198258
Gruppe 0.030760185398743308
Internacional 0.06796985498338311
woman 0.027266593985787322
graf@@ 0.04319209796881115
unci@@ 0.061132680819470236
sociation 1
ün 0.0526725494212982
have 0.0021453824891156416
İ@@ 0.04223596042591638
vide@@ 0.0476306812702217
Lan 0.07119166826292127
dep@@ 0.027740712764361335
Wash@@ 0.39669377950738366
arca 0.08453014984774311
unu 0.07584289963976408
verdi 0.26721330543255295
ería 0.039071859617134205
ply 0.0178727049217295
ül 0.24955610842745302
Rural 0.07069770203695674
ungu 0.8442230713797277
imbo 0.5048302871697177
Munici@@ 0.10868201918929293
They 0.006708518108385333
span 0.08859387573678869
tena 0.3569886181016354
zek@@ 0.6301963214107407
ónica 0.06530905125289861
oil 0.03932430794439084
riff@@ 0.04028251354824678
3. 0.03032103396597215
abra 0.11511720898508465
Harv@@ 0.3895880535796622
n.@@ 0.20214095056691375
stel@@ 0.06758855791709072
ám@@ 0.07288398859070194
sich@@ 0.0169114438440987
Kari@@ 0.21349743413940153
rí@@ 0.10348260515974364
Sommer@@ 0.08165172463179107
model 0.022933896984673248
gether 0.11351575996142074
spre@@ 0.02662301095232246
Premio 0.08063701570769957
aging 0.031042558199767596
yor 0.19078462959674986
þ@@ 0.9516958351510988
chter 0.10246517858559442
8. 0.04195077797188504
Nh@@ 0.0713266405055421
ativa 0.042933185001167
day@@ 0.12552409248982893
schi@@ 0.03568175848424478
Krieg@@ 0.045193461586417516
Macar@@ 0.4329427282422124
ansa 0.46503891572882206
Kapit@@ 0.06887575569516205
180@@ 0.2822864642823536
Auf@@ 0.006522402434857379
Instituto 0.0672744787698127
running 0.027277966941095723
Grupo 0.1096951461615567
pino 0.1363473266589359
thre@@ 0.022365735298023836
west@@ 0.03988354365799214
lanz@@ 0.035830308644184954
mik@@ 0.22171651640740228
Fútbol 0.0976469553932759
reib@@ 0.049447749654996404
egio 0.09398967094977816
ℤ 1
Haus 0.03932429731436713
arten 0.08175012531172937
most@@ 1
vida 0.02565193121821851
ż 1
nim@@ 0.9101093937122267
inti@@ 0.4209647929927615
ked 0.009707111684641513
ρ 0.06798670219806818
Famili@@ 0.04450722301012009
reno 0.1668530936148095
1.5 0.08521535855474913
divers@@ 0.3566545014590328
ellas 0.04504174115406229
first 0.001476071836557716
zey 0.4814580045867614
Sow@@ 0.06281449013303518
msh@@ 0.3917549410023975
gemein@@ 0.021147994609573253
во 0.006424185440597462
ünde 0.05592793778463111
„ 0.0020356840726779347
riere 0.14907345415532
lak 0.29835152211221044
scre@@ 0.02381852991666974
dó@@ 0.08179239335306666
С@@ 0.003596269007346355
Señ@@ 0.1051830254636942
Stif@@ 0.0506216196852161
lista 0.05856728230315339
mül@@ 0.266227256972062
mip@@ 1
ע@@ 1
bang 0.059323046309054474
reich 0.0430839811759687
Mei 0.6001419351652941
reci@@ 0.01823680943912798
ה 1
wenn 0.03210169726268827
192@@ 0.4520331659963624
Austria 0.04281195009534982
schluss 0.04273550304550755
use@@ 0.05894639066646905
hari@@ 0.703359994504045
orta@@ 1
19.@@ 0.11898106323792322
antas@@ 0.4841338251332773
young 0.018115029597454153
kana 0.4735784680878535
kav@@ 0.24994993024690174
taş 0.2627961209094024
sound 0.035046955142242216
Nair@@ 1
aka@@ 0.6893503026463429
ebu 0.44038844903347135
kat 0.29131245450502563
21.@@ 0.12428994605687374
Educ@@ 0.07478051756584593
ı 0.018936775269740663
una@@ 0.5675403540434787
Afgh@@ 0.19608387694934143
Colombia 0.049217311621498956
haline 0.43266145519804466
Era 0.10353364881861082
sequ@@ 0.020974655305821776
uu 0.7229200001266268
yap@@ 0.04069958276673509
Diy@@ 0.37473584796256254
amia 0.28063025795001195
Korea 0.04109457651861171
frontera 0.10768699308814232
kip@@ 0.5154728751136385
Escu@@ 0.21879872394464459
Hai 0.16994932108573657
Hamburg 0.0380807237440088
≤ 0.8839727793924961
costa 0.07118046185674964
ifa 1
too 0.023849576651985293
tí@@ 0.04347381300778812
ezo 0.563637057772846
uras 0.1036200439159197
5. 0.0351012120414002
anh 0.038262823044290906
Lê 0.16123905518261447
endas 0.08320359281298287
Alger@@ 0.10471880202713443
Ermen@@ 0.5069509666111806
Kunst 0.06794595667422464
vili@@ 0.06469457051852195
ús@@ 0.06912948734561418
Feb@@ 0.9100250976818693
aring 0.0277092029649001
gesch@@ 0.006991573232550473
Buch 0.0574712126719135
hips 0.06252268855998087
lek 0.42787764168945236
osha 0.6492161775990012
yol@@ 0.11349280541455337
Dollar 0.0736794293761917
iten@@ 0.05901155111917585
Register 0.041983254268044876
spor 0.18965982858222635
eja 0.09307275653645619
2.5 0.09178613403623145
Schles@@ 0.1768583928584993
lerine 0.13210007510291238
minor 0.036669024997633214
americ@@ 0.3834144141510554
mw@@ 0.14877783680206955
ßen 0.012382960364466067
Seh@@ 0.09626498995004433
atro 0.16599830163831172
hand 0.02188628195801769
cover 0.022870076067668124
tly 0.013456968999180963
white 0.017139295184126876
üm 0.136099615754265
Kreis 0.045741046488994026
ieder 0.11347346242715996
Chile 0.02959242097496448
ected 0.005975826833675221
kaya 0.28230466170987095
ngh@@ 0.08521660168135893
Hü@@ 0.09546404977557958
Karnataka 0.146120805995453
anderen 0.015132283103728047
β@@ 0.018678486393200737
wich@@ 0.04567267074462516
Amt 0.03667452421384338
Sevilla 0.11492555467204063
lao 0.24002745982648124
gold 0.02554539121339978
pain@@ 0.012593402829235335
amba@@ 1
malar@@ 0.14772533184380818
ored 0.015058889299147865
schwe@@ 0.06589185591997705
ř 1
leo 0.06427860356189923
seri@@ 0.03240952870695817
ď@@ 1
alem@@ 0.06535348746159877
Professor 0.02264052054312358
mab@@ 0.44103685666652803
ubic@@ 0.08443564216726476
― 0.21287820103160185
constr@@ 0.15352719740130194
tere 0.047705455218222614
ús 0.25072927284749724
Govern@@ 0.027367424037913406
Sommer 0.048318308484643455
deutsche 0.028309862258272547
mee 0.21735275824342823
states 0.0199407596655806
öm@@ 0.08939278619727077
ichte 0.05875062522166638
werke 0.054864378875416064
athol@@ 0.12173193635042828
lichen 0.003955928581700923
ingi 0.5550563744436162
waka 1
[...]
