на 1
. 1
, 1
и 1
в 1
е 1
от 1
се 1
с 1
( 1
) 1
за 1
@-@ 1
да 1
„ 1
“ 1
&quot; 0.47796430362528575
са 1
ни 1
по 1
– 1
г 1
ва 1
г. 1
ната 1
но 1
ните 1
на@@ 1
като 1
през 1
си 1
т 1
ния 1
из@@ 1
ли@@ 1
ка 1
по@@ 1
ски 1
а 1
л 1
до 1
н 1
за@@ 1
л@@ 1
с@@ 1
година 1
о@@ 1
ре@@ 1
През 1
В 1
ри@@ 1
съ@@ 1
пре@@ 1
у@@ 1
не 1
му 1
но@@ 1
ка@@ 1
я 1
ска 1
не@@ 1
от@@ 1
ли 1
ни@@ 1
ра@@ 1
ти 1
А@@ 1
та 1
е@@ 1
че 1
ти@@ 1
де@@ 1
р 1
ле@@ 1
ската 1
раз@@ 1
ват 1
ви@@ 1
ко@@ 1
до@@ 1
ра 1
д 1
к@@ 1
к 1
С@@ 1
ди@@ 1
: 0.8907398099755959
Е@@ 1
в@@ 1
ла 1
д@@ 1
ва@@ 1
си@@ 1
м@@ 1
ския 1
й@@ 1
ми@@ 1
ция 1
ното 1
т@@ 1
О@@ 1
ите 1
а@@ 1
мо@@ 1
ки 1
про@@ 1
те@@ 1
се@@ 1
ро@@ 1
па@@ 1
я@@ 1
ване 1
ла@@ 1
н@@ 1
ма 1
з@@ 1
ци 1
ло@@ 1
това 1
към 1
ката 1
ма@@ 1
ът 1
ри 1
то 1
б@@ 1
п@@ 1
при@@ 1
то@@ 1
които 1
х@@ 1
ди 1
г@@ 1
или 1
ж@@ 1
най 1
ят 1
ност 1
ве@@ 1
при 1
ст 1
ята 1
който 1
след 1
ви 1
Б@@ 1
И@@ 1
об@@ 1
ст@@ 1
На 1
ку@@ 1
ш@@ 1
бо@@ 1
те 1
Д@@ 1
га 1
го@@ 1
ден 1
ските 1
ник 1
че@@ 1
ф@@ 1
фон 1
м 1
във 1
; 0.7495508069638583
ата 1
би@@ 1
ч@@ 1
да@@ 1
ме@@ 1
има 1
о 1
ването 1
лен 1
пи@@ 1
сти@@ 1
и@@ 1
под@@ 1
са@@ 1
ля@@ 1
К@@ 1
ство 1
ско 1
ко 1
та@@ 1
ството 1
пе@@ 1
У@@ 1
ба@@ 1
част 1
време 1
ъ@@ 1
бе@@ 1
во@@ 1
ското 1
га@@ 1
зи@@ 1
р@@ 1
В@@ 1
която 1
П@@ 1
ният 1
години 1
цията 1
След 1
което 1
нието 1
во 1
град 1
Ко@@ 1
й 1
Ма@@ 1
ени 1
ци@@ 1
ето 1
ру@@ 1
със 1
1 1
По@@ 1
той 1
Т@@ 1
хо@@ 1
ници 1
ър@@ 1
ми 1
со@@ 1
го 1
рия 1
ан@@ 1
ц@@ 1
Ка@@ 1
2 1
ло 1
Х@@ 1
ду@@ 1
сто@@ 1
рите 1
ал@@ 1
вен 1
ста@@ 1
ките 1
въз@@ 1
чи@@ 1
ща 1
ин@@ 1
За@@ 1
По 1
М@@ 1
ен@@ 1
Н@@ 1
Г@@ 1
става 1
Се@@ 1
/ 1
ки@@ 1
На@@ 1
ците 1
ства 1
лни 1
България 1
Съ@@ 1
чен 1
лна 1
между 1
около 1
Ф@@ 1
век 1
ността 1
пред@@ 1
много 1
От 1
лите 1
ча@@ 1
3 1
Той 1
ве 1
ър 1
село 1
Ми@@ 1
кра@@ 1
же@@ 1
16@@ 1
ар@@ 1
Ви@@ 1
ше@@ 1
ек@@ 1
където 1
гра@@ 1
ту@@ 1
ца 1
ба 1
† 1
зо@@ 1
ние 1
може 1
ще 1
лно 1
ѝ 1
нията 1
рат 1
ля 1
един 1
ги@@ 1
вър@@ 1
З@@ 1
ен 1
вата 1
су@@ 1
бу@@ 1
хи@@ 1
ц 1
Бо@@ 1
Л@@ 1
п 1
у 1
би 1
рен 1
нов 1
зе@@ 1
война 1
4 1
чни 1
както 1
ит@@ 1
жи@@ 1
други 1
15@@ 1
също 1
Са@@ 1
ха@@ 1
под 1
Па@@ 1
ю@@ 1
Ре@@ 1
им 1
мен@@ 1
ет@@ 1
це@@ 1
Де@@ 1
ции 1
17@@ 1
ге@@ 1
пу@@ 1
ява 1
сти 1
Ба@@ 1
Р@@ 1
Не@@ 1
щи 1
ат@@ 1
бург 1
мата 1
този 1
5 1
ч 1
ръ@@ 1
дена 1
Ро@@ 1
ск@@ 1
лу@@ 1
ран 1
мъ@@ 1
жда 1
вид 1
Ха@@ 1
започва 1
доб@@ 1
йски 1
Ш@@ 1
ор@@ 1
6 1
щата 1
Из@@ 1
щ 1
тен 1
То@@ 1
чно 1
чи 1
Си@@ 1
щ@@ 1
лия 1
късно 1
С 1
До@@ 1
ши@@ 1
само 1
три@@ 1
з 1
ран@@ 1
ста 1
Ц@@ 1
края 1
Ку@@ 1
фе@@ 1
още 1
гла@@ 1
Ли@@ 1
фи@@ 1
кри@@ 1
ня@@ 1
стра@@ 1
де 1
гу@@ 1
тур@@ 1
жи 1
ак@@ 1
он 1
За 1
ря@@ 1
ш 1
он@@ 1
I 1
души 1
Ар@@ 1
над 1
кон@@ 1
него 1
вия 1
ман@@ 1
Ме@@ 1
път 1
чески 1
лата 1
13@@ 1
10 1
една 1
Ан@@ 1
срещу 1
ъл@@ 1
сла@@ 1
тре@@ 1
14@@ 1
ги 1
20 1
ван 1
Про@@ 1
Ал@@ 1
ков 1
града 1
Пре@@ 1
така 1
когато 1
зна@@ 1
ан 1
Ра@@ 1
му@@ 1
Ру@@ 1
Биография 1
Ле@@ 1
ница 1
Ю@@ 1
Мо@@ 1
m 0.7159565722509619
ден@@ 1
граф 1
български 1
началото 1
мест@@ 1
ският 1
няколко 1
ж 1
ф 1
фа@@ 1
ке@@ 1
къ@@ 1
всички 1
II 1
селото 1
ро 1
лъ@@ 1
въ@@ 1
7 1
пла@@ 1
х 1
тя 1
Бе@@ 1
висо@@ 1
ща@@ 1
8 1
вете 1
род@@ 1
два 1
km 1
семейство 1
рани 1
тях 1
чер@@ 1
ур@@ 1
фо@@ 1
ране 1
дени 1
река 1
гле@@ 1
София 1
създа@@ 1
Я@@ 1
рата 1
па 1
две 1
вите 1
Ди@@ 1
лен@@ 1
ха 1
май 1
септември 1
бро@@ 1
При@@ 1
пол@@ 1
пъ@@ 1
Би@@ 1
ено 1
дъл@@ 1
вой@@ 1
Лу@@ 1
що 1
кръ@@ 1
лин@@ 1
пер@@ 1
ител@@ 1
кла@@ 1
заедно 1
зи 1
Това 1
кан@@ 1
Пе@@ 1
% 0.5454986720442769
сен 1
ьо@@ 1
ша@@ 1
край@@ 1
15 1
получава 1
сте@@ 1
лят 1
тите 1
б 1
Пър@@ 1
кия 1
тези 1
нява 1
ника 1
място 1
Ки@@ 1
национа@@ 1
йн 1
ниците 1
лото 1
Га@@ 1
тази 1
Мар@@ 1
Според 1
берг 1
лич@@ 1
- 0.5244297356725475
дъщеря 1
ров 1
лан@@ 1
имат 1
януари 1
ев 1
откри@@ 1
жени 1
Ве@@ 1
жение 1
намира 1
9 1
октомври 1
Пи@@ 1
ера 1
дни 1
САЩ 1
преди 1
върху 1
дъ@@ 1
юни 1
спо@@ 1
нение 1
тър@@ 1
ате@@ 1
12 1
вя@@ 1
юли 1
30 1
чна 1
вла@@ 1
основ@@ 1
три 1
Ч@@ 1
Го@@ 1
името 1
август 1
лната 1
различни 1
Македония 1
жа@@ 1
бъде 1
Об@@ 1
стта 1
ер@@ 1
чрез 1
март 1
сре@@ 1
ности 1
полу@@ 1
нен 1
тан@@ 1
област 1
ско@@ 1
април 1
кар@@ 1
мо 1
3@@ 0.954826409387364
тра@@ 1
жен 1
град@@ 1
us 0.4467395548092897
син 1
йки 1
отде@@ 1
ноември 1
ман 1
Ло@@ 1
Йо@@ 1
работи 1
оби@@ 1
декември 1
бра@@ 1
тъ@@ 1
община 1
мия 1
стро@@ 1
А 1
рана 1
Ж@@ 1
мат 1
еди@@ 1
Ла@@ 1
пло@@ 1
Да@@ 1
мар@@ 1
дава 1
Хо@@ 1
казва 1
дру@@ 1
ос@@ 1
вод@@ 1
История 1
&amp; 0.6556826306795396
12@@ 1
бор@@ 1
пра@@ 1
жда@@ 1
ати@@ 1
ани 1
дър@@ 1
рав@@ 1
Бу@@ 1
някои 1
мал@@ 1
Ри@@ 1
Кон@@ 1
група 1
ну@@ 1
дия 1
дей@@ 1
ска@@ 1
нски 1
оръ@@ 1
чу@@ 1
често 1
мен 1
ча 1
само@@ 1
От@@ 1
лю@@ 1
ита 1
след@@ 1
цата 1
рай@@ 1
ков@@ 1
нея 1
сред@@ 1
Гра@@ 1
вани 1
При 1
нето 1
тя@@ 1
16 1
ите@@ 1
ся@@ 1
тни 1
дя@@ 1
игра@@ 1
жа 1
ме 1
страната 1
тия 1
води 1
Те@@ 1
уч@@ 1
ед@@ 1
000 1
роден 1
.@@ 1
Тя 1
ата@@ 1
Но@@ 1
стъ@@ 1
ител 1
пис@@ 1
хе@@ 1
им@@ 1
опреде@@ 1
използва@@ 1
18 1
сел@@ 1
ление 1
вен@@ 1
гар@@ 1
зва 1
послед@@ 1
нове@@ 1
февруари 1
тен@@ 1
11 1
4@@ 0.9120721058465986
вайки 1
14 1
Ни@@ 1
Ва@@ 1
език 1
Ста@@ 1
ши 1
сия 1
25 1
вече 1
зем@@ 1
Те 1
вто@@ 1
19 1
Су@@ 1
рин@@ 1
могат 1
сред 1
ари 1
Ин@@ 1
гия 1
прави 1
Та@@ 1
лов 1
център 1
шен 1
изпъл@@ 1
ун@@ 1
пр.н.е. 1
дра@@ 1
Ти@@ 1
бре@@ 1
кул@@ 1
империя 1
запа@@ 1
пар@@ 1
пъл@@ 1
чо@@ 1
граф@@ 1
вана 1
сле@@ 1
пле@@ 1
вар@@ 1
ней@@ 1
тата 1
све@@ 1
ем@@ 1
сло@@ 1
13 1
лния 1
Разпространение 1
бя@@ 1
тно 1
мина@@ 1
Видът 1
нов@@ 1
повече 1
работ@@ 1
университет 1
над@@ 1
Италия 1
мини@@ 1
завършва 1
отново 1
части 1
щия 1
17 1
Северна 1
джи@@ 1
рът 1
Раз@@ 1
вания 1
без 1
нат 1
ген 1
бил 1
рен@@ 1
ет 1
използва 1
лните 1
тът 1
дата 1
участва 1
Кар@@ 1
страна 1
жен@@ 1
плани@@ 1
мите 1
ждат 1
кло@@ 1
край 1
стъп@@ 1
Му@@ 1
едно 1
него@@ 1
жители 1
юж@@ 1
специ@@ 1
лет@@ 1
лек@@ 1
училище 1
фор@@ 1
син@@ 1
стве@@ 1
дж@@ 1
населението 1
гат 1
сезон 1
височина 1
наре@@ 1
бър@@ 1
бата 1
пи 1
вер@@ 1
Най 1
ша 1
вени 1
бан@@ 1
поради 1
мла@@ 1
мът 1
собстве@@ 1
тро@@ 1
мати@@ 1
световна 1
трябва 1
първата 1
рията 1
ьор 1
периода 1
Сто@@ 1
твър@@ 1
Че@@ 1
нова 1
рането 1
малко 1
представ@@ 1
обаче 1
свър@@ 1
мет@@ 1
юго@@ 1
зва@@ 1
Ду@@ 1
йския 1
ато@@ 1
Фран@@ 1
според 1
север@@ 1
III 1
&apos; 0.21721718002467796
име 1
хра@@ 1
сън 1
голяма 1
гре@@ 1
спи@@ 1
щат 1
вена 1
цион@@ 1
ниче@@ 1
Германия 1
обя@@ 1
тор 1
лина 1
изток 1
взе@@ 1
дан@@ 1
анд@@ 1
чев 1
режи@@ 1
стите 1
Франция 1
вото 1
ителите 1
без@@ 1
ер 1
своя 1
вал 1
Хе@@ 1
член 1
Русия 1
нар@@ 1
ще@@ 1
мент 1
ане 1
съществу@@ 1
източ@@ 1
сту@@ 1
армия 1
21 1
фил@@ 1
тер@@ 1
наслед@@ 1
система 1
умира 1
Свети 1
же 1
2010 0.7340822777127655
авто@@ 1
ган@@ 1
подоб@@ 1
вява 1
Со@@ 1
50 1
ход 1
соци@@ 1
живо@@ 1
били 1
* 1
24 1
гъ@@ 1
образу@@ 1
од@@ 1
северо@@ 1
смъртта 1
22 1
сп@@ 1
зия 1
американ@@ 1
стан@@ 1
8@@ 1
пор@@ 1
км 1
9@@ 0.9880514673975241
поч@@ 1
5@@ 0.8162257910720173
запад 1
нал 1
ваща 1
поли@@ 1
чните 1
прия@@ 1
Ге@@ 1
изда@@ 1
щите 1
Гърция 1
2011 0.8121651307559652
ход@@ 1
йн@@ 1
глав@@ 1
кли@@ 1
чава 1
църква 1
вра@@ 1
население 1
Иван 1
жена 1
цен@@ 1
Европа 1
стоя@@ 1
жението 1
бер@@ 1
държав@@ 1
ново 1
ствие 1
ита@@ 1
Георги 1
име@@ 1
благо@@ 1
Въпреки 1
нови 1
ални 1
разде@@ 1
ре 1
ел 1
чение 1
тар@@ 1
мор@@ 1
кът 1
запад@@ 1
пред 1
Чер@@ 1
Ке@@ 1
гро@@ 1
докато 1
ните@@ 1
проце@@ 1
днес 1
чат 1
кт 1
ланд@@ 1
прав@@ 1
гор@@ 1
23 1
чва 1
Щ@@ 1
стре@@ 1
мост 1
тна 1
ред@@ 1
първи 1
дат 1
лището 1
граждан@@ 1
idae 1
чната 1
вода 1
ващи 1
40 1
играе 1
тиче@@ 1
Бра@@ 1
ствено 1
6@@ 0.8624542200846719
Мария 1
ок@@ 1
времето 1
продъл@@ 1
пише 1
лица 1
Лю@@ 1
остров 1
щайн 1
деца 1
изпра@@ 1
отбор 1
рабо@@ 1
логи@@ 1
циите 1
лени 1
Роден 1
тат@@ 1
лат@@ 1
рак@@ 1
рал@@ 1
грани@@ 1
страни 1
рий 1
групата 1
два@@ 1
баща 1
вате@@ 1
стри@@ 1
живот 1
али@@ 1
Пет@@ 1
тъй 1
дел@@ 1
бли@@ 1
зира 1
печели 1
слу@@ 1
це 1
вли@@ 1
Населението 1
тин@@ 1
ген@@ 1
класи@@ 1
тогава 1
десе@@ 1
2@@ 0.9794288964715306
ално 1
пър@@ 1
7@@ 0.8653997352042399
големи 1
ландия 1
Кри@@ 1
първия 1
стен 1
26 1
света 1
лд 1
чина 1
ше 1
яват 1
сили 1
крал 1
сно 1
период 1
позна@@ 1
окръг 1
дите 1
род 1
йската 1
кс 1
Бер@@ 1
Ту@@ 1
рано 1
27 1
голе@@ 1
тел 1
Фи@@ 1
цент@@ 1
28 1
остава 1
Южна 1
публику@@ 1
общ@@ 1
брат 1
ръковод@@ 1
рим@@ 1
Дж@@ 1
Има 1
мер@@ 1
ези@@ 1
герман@@ 1
ък 1
побе@@ 1
произве@@ 1
ене@@ 1
провинция 1
жения 1
лена 1
жан@@ 1
мат@@ 1
тив@@ 1
раст@@ 1
вет@@ 1
годиш@@ 1
кото 1
програ@@ 1
2000 0.9607690509047273
поя@@ 1
първите 1
др 1
войната 1
лява 1
йска 1
Хи@@ 1
сни 1
бъдат 1
60 1
Национа@@ 1
посо@@ 1
10@@ 1
кре@@ 1
S@@ 0.11773227898189469
известен 1
дви@@ 1
гри@@ 1
йни 1
бит@@ 1
иде@@ 1
места 1
почти 1
нем@@ 1
прове@@ 1
турата 1
начин 1
съвет@@ 1
свобо@@ 1
гата 1
няма 1
2012 0.7212167407696148
там 1
2009 0.7438124282313066
ез@@ 1
голям 1
ането 1
Ша@@ 1
2007 0.7941632667783978
чка 1
хвър@@ 1
тек@@ 1
вали 1
ително 1
спе@@ 1
Мон@@ 1
К 1
коле@@ 1
2008 0.7404761859797698
дро@@ 1
свет@@ 1
тира 1
прие@@ 1
Вели@@ 1
преда@@ 1
продължава 1
ители 1
държа@@ 1
филм 1
истори@@ 1
възмож@@ 1
сър@@ 1
включва 1
спа@@ 1
ван@@ 1
C@@ 0.13868208621162806
ващ 1
дор 1
Александър 1
цел 1
водо@@ 1
Първата 1
2006 0.7916164298331946
уче@@ 1
ити 1
клю@@ 1
80 1
ена 1
ву@@ 1
народ@@ 1
зу@@ 1
100 1
дости@@ 1
важ@@ 1
юр@@ 1
хора 1
коло@@ 1
обра@@ 1
използват 1
цар@@ 1
ав@@ 1
писва 1
опера@@ 1
двете 1
ця@@ 1
тор@@ 1
данни 1
ле 1
Пред@@ 1
ск 1
гръц@@ 1
яване 1
дено 1
29 1
произ@@ 1
все 1
пол 1
оста@@ 1
нес 1
работа 1
анти@@ 1
българ@@ 1
всеки 1
била 1
държа 1
Димитър 1
̀ 1
американски 1
крити@@ 1
ждане 1
поло@@ 1
вият 1
дове 1
бира 1
тех@@ 1
Май@@ 1
тел@@ 1
чо 1
семейството 1
ън 1
градата 1
електро@@ 1
успява 1
диа@@ 1
ком@@ 1
ян 1
стати@@ 1
джа@@ 1
лин 1
освобо@@ 1
вски 1
70 1
нари@@ 1
ху@@ 1
установ@@ 1
e 0.1462437782881105
стар@@ 1
Мал@@ 1
резултат 1
чени 1
север 1
ев@@ 1
сен@@ 1
рина 1
областта 1
комуни@@ 1
излиза 1
тон 1
M@@ 0.13878559245108052
сът 1
един@@ 1
района 1
същата 1
награда 1
море 1
теж@@ 1
ред 1
дар@@ 1
италиан@@ 1
форма 1
мно@@ 1
Фридрих 1
ън@@ 1
дейност 1
вица 1
менти 1
територията 1
император 1
посе@@ 1
ано 1
Фе@@ 1
редица 1
постро@@ 1
тивен 1
юг 1
Ча@@ 1
дна 1
има@@ 1
британ@@ 1
нау@@ 1
щава 1
Ско@@ 1
четири 1
Въ@@ 1
председател 1
временно 1
много@@ 1
ора 1
Гор@@ 1
Ор@@ 1
фак@@ 1
изгра@@ 1
Кра@@ 1
френ@@ 1
пара@@ 1
Втората 1
обще@@ 1
команд@@ 1
музика@@ 1
чет@@ 1
Като 1
степен 1
тина 1
влиза 1
съюз 1
2013 0.6467043948096118
ити@@ 1
малки 1
мият 1
присъ@@ 1
Бур@@ 1
първият 1
къс@@ 1
ад@@ 1
дът 1
интер@@ 1
лка 1
стър 1
изку@@ 1
нер 1
31 1
шо@@ 1
сна@@ 1
отбора 1
зан@@ 1
шки 1
чки 1
Ман@@ 1
партия 1
заради 1
дре@@ 1
ват@@ 1
пости@@ 1
пъти 1
генерал 1
своите 1
2014 0.6198524891225983
дори 1
регион 1
управление 1
република 1
она@@ 1
ална 1
албум 1
2005 0.8163371584544096
Гу@@ 1
ъл 1
Фа@@ 1
ствена 1
нама@@ 1
дво@@ 1
лното 1
оп@@ 1
гот@@ 1
как@@ 1
своята 1
логия 1
Уи@@ 1
извест@@ 1
бия 1
фици@@ 1
ческа 1
физи@@ 1
рал 1
жител@@ 1
иг@@ 1
светов@@ 1
сво@@ 1
парти@@ 1
рии 1
мин@@ 1
Во@@ 1
площ 1
дри@@ 1
множество 1
P@@ 0.12636103154325548
мача 1
преминава 1
ори 1
съвремен@@ 1
голямата 1
например 1
възраст 1
° 1
чена 1
обикновено 1
дина@@ 1
йна 1
IV 1
учи@@ 1
участие 1
дин@@ 1
тън 1
независи@@ 1
съответ@@ 1
близо 1
църквата 1
живота 1
дълбо@@ 1
вре@@ 1
архи@@ 1
разпростра@@ 1
филма 1
съпруга 1
Чи@@ 1
2001 0.9665467903935725
ква@@ 1
s 0.06892228794257196
мир 1
Към 1
Бар@@ 1
П 1
мени 1
ня 1
зар@@ 1
органи@@ 1
нения 1
лет 1
уча@@ 1
дължина 1
острови 1
рение 1
тру@@ 1
Основ@@ 1
разпространен 1
организация 1
вин@@ 1
бар@@ 1
връ@@ 1
D@@ 0.11457141680671692
вид@@ 1
няват 1
2015 0.5910036292972658
ь@@ 0.9256972515393175
Карл 1
икономи@@ 1
крат@@ 1
обек@@ 1
кова 1
политиче@@ 1
войски 1
ления 1
дол@@ 1
сме@@ 1
международ@@ 1
стен@@ 1
пти@@ 1
жде@@ 1
чета 1
гър@@ 1
вида 1
история 1
рам@@ 1
среща 1
2004 0.8081472398864522
право@@ 1
зъм 1
О 1
ждава 1
1944 1
доби@@ 1
мили@@ 1
призна@@ 1
Вер@@ 1
ствени 1
поле@@ 1
покри@@ 1
надморска 1
ква 1
производ@@ 1
Република 1
вено 1
ент@@ 1
дин 1
служ@@ 1
Османската 1
кате@@ 1
90 1
ец 1
тура 1
нд 1
тео@@ 1
включително 1
образ@@ 1
кто@@ 1
ску@@ 1
До 1
2002 0.9189999475527754
A@@ 0.1425699737955983
сце@@ 1
популяр@@ 1
лски 1
Когато 1
жава 1
Ер@@ 1
Хер@@ 1
нин 1
общината 1
Сред@@ 1
лство 1
достига 1
B@@ 0.11599240754775499
затво@@ 1
лер 1
кти@@ 1
дар 1
рий@@ 1
И 1
линия 1
ис@@ 1
опит@@ 1
_ 0.5973510242810243
науч@@ 1
стан 1
групи 1
ствата 1
кариера 1
наме@@ 1
съвет 1
Кор@@ 1
ний 0.8796212435035337
десет 1
0 0.726873797538233
съпругата 1
загу@@ 1
състои 1
уни@@ 1
застрашен 1
дение 1
ол@@ 1
Кла@@ 1
The 0.042780382014294994
дате@@ 1
особено 1
зма 1
уме@@ 1
избран 1
ут@@ 1
дер@@ 1
V 1
T@@ 0.10877104521756852
Българ@@ 1
Тър@@ 1
Пер@@ 1
Освен 1
министър 1
шка 1
форми@@ 1
започ@@ 1
Пу@@ 1
брой 1
чния 1
gt 0.7649539237375059
противо@@ 1
събити@@ 1
Це@@ 1
тег@@ 1
древ@@ 1
владе@@ 1
ус 1
нос@@ 1
в. 1
въоръ@@ 1
създава 1
нове 1
оти@@ 1
фон@@ 1
ради@@ 1
средата 1
приема 1
полага 1
власт 1
сто 1
H@@ 0.11685089011014597
рин 1
предимно 1
гна@@ 1
живее 1
мон@@ 1
География 1
наблю@@ 1
историята 1
бен 1
теле@@ 1
добре 1
ров@@ 1
бъ@@ 1
хода 1
едно@@ 1
гори@@ 1
функ@@ 1
футбо@@ 1
² 1
пове@@ 1
рени 1
близ@@ 1
започват 1
изди@@ 1
ктор 1
L@@ 0.10436940791091417
дан 1
втората 1
херцог 1
лища 1
вол@@ 1
зен 1
дения 1
българи 1
мя@@ 1
ема 1
лиза@@ 1
Ню 1
ций 1
вероятно 1
стика 1
Бел@@ 1
излъ@@ 1
право 1
бю@@ 1
вич 1
общо 1
състеза@@ 1
назначен 1
срав@@ 1
ителни 1
епископ 1
вед@@ 1
скоро@@ 1
вън 1
хар@@ 1
единстве@@ 1
енер@@ 1
Пра@@ 1
минава 1
присъеди@@ 1
пома@@ 1
lt 0.7196297889333706
връзка 1
въпреки 1
кин@@ 1
месе@@ 1
тер 1
тин 1
бив@@ 1
еле@@ 1
рото 1
въпро@@ 1
силно 1
търгов@@ 1
Рай@@ 1
проте@@ 1
стиче@@ 1
осно@@ 1
сите 1
нарича 1
цо@@ 1
оке@@ 1
тове 1
дале@@ 1
мена 1
нос 1
Ай@@ 1
мета@@ 1
ета@@ 1
прода@@ 1
Дей@@ 1
Хайнрих 1
отнася 1
коми@@ 1
лага 1
Р 1
Вар@@ 1
сл 1
служба 1
договор 1
успе@@ 1
жество 1
състава 1
допъл@@ 1
бал@@ 1
майка 1
хи 1
помо@@ 1
i 0.18739376005441488
тип 1
вътреш@@ 1
ин 1
Бал@@ 1
поста@@ 1
памет@@ 1
чове@@ 1
Доб@@ 1
1990 0.9728135608523184
Така 1
вала 1
писате@@ 1
погре@@ 1
защото 1
бри@@ 1
Кара@@ 1
избо@@ 1
E@@ 0.1416469149742081
Мак@@ 1
ителна 1
инте@@ 1
Йохан 1
годишна 1
видове 1
новете 1
завър@@ 1
Никола 1
дер 1
смър@@ 1
N@@ 0.1209649426984654
G@@ 0.11213641362790991
2016 0.5172686378311314
is 0.03739842024458649
Ши@@ 1
ю 0.6771271370127361
Завършва 1
вно 1
звез@@ 1
зване 1
награ@@ 1
лож@@ 1
мет 1
№ 1
проек@@ 1
Петър 1
статъ@@ 1
проду@@ 1
Тра@@ 1
крепо@@ 1
следва@@ 1
кар 1
щта 1
басе@@ 1
вод 1
довете 1
око@@ 1
мето@@ 1
компози@@ 1
спор@@ 1
центра@@ 1
носи 1
&#93; 0.4885837910621259
кръг 1
опа@@ 1
35 1
било 1
българска 1
сък 1
a 0.014246909308188945
Хар@@ 1
широ@@ 1
причи@@ 1
роля 1
пан@@ 1
гръцки 1
зали@@ 1
Разпространен 1
никът 1
жат 1
зако@@ 1
мре@@ 1
кур@@ 1
големите 1
гео@@ 1
осман@@ 1
Три@@ 1
Пловдив 1
расте@@ 1
Ком@@ 1
твор@@ 1
&#91; 0.48425534601866277
рей@@ 1
интере@@ 1
изчезване 1
нен@@ 1
зата 1
мей@@ 1
напа@@ 1
насо@@ 1
гите 1
сед@@ 1
Вто@@ 1
ари@@ 1
став@@ 1
ако 1
неговата 1
представлява 1
попа@@ 1
управ@@ 1
R@@ 0.10267084496598758
вни 1
мач 1
зат@@ 1
район 1
воен@@ 1
рена 1
гане 1
уби@@ 1
аре@@ 1
пада 1
2003 0.789939352788086
хората 1
продук@@ 1
лий 1
Жи@@ 1
разли@@ 1
съюз@@ 1
съдържа@@ 1
цар 1
лей@@ 1
Рим 1
вели@@ 1
прину@@ 1
C 0.5139584846713
F@@ 0.10599047820774446
2017 0.5223438890722626
практи@@ 1
рода 1
земе@@ 1
Ху@@ 1
Сле@@ 1
лез@@ 1
мента 1
обе@@ 1
фек@@ 1
ито 1
Сан@@ 1
повечето 1
песни 1
ати 1
архитек@@ 1
воде@@ 1
ъм 1
Джон 1
състав 1
Васил 1
гер 1
зву@@ 1
ем 1
тов@@ 1
нор@@ 1
Дже@@ 1
свят 1
лън@@ 1
пит@@ 1
графиня 1
ждането 1
мето 1
сата 1
способ@@ 1
всяка 1
рият 1
реди@@ 1
мър@@ 1
Шу@@ 1
кол@@ 1
включ@@ 1
втори 1
материа@@ 1
влия@@ 1
нението 1
V@@ 0.14050411906274254
комитет 1
мс 1
дома@@ 1
нина 1
сигур@@ 1
Д 1
лиза 1
дем 1
контро@@ 1
ВМ@@ 1
тях@@ 1
провежда 1
метра 1
лс 1
Англия 1
Пар@@ 1
дипло@@ 1
моде@@ 1
вяват 1
отбеля@@ 1
академия 1
Гер@@ 1
кси@@ 1
гово@@ 1
музи@@ 1
прави@@ 1
англи@@ 1
нена 1
пробле@@ 1
четвър@@ 1
слав 1
човек 1
тво@@ 1
казват 1
пр 1
ца@@ 1
държава 1
Дру@@ 1
нала 1
стату@@ 1
дове@@ 1
гора 1
щи@@ 1
въве@@ 1
стопан@@ 1
госпо@@ 1
нася 1
милиона 1
пли@@ 1
сви@@ 1
Въз@@ 1
зар 1
ъ 1
пис 1
българската 1
Испания 1
вари@@ 1
свързани 1
учи 1
смя@@ 1
мък 1
бите 1
европей@@ 1
W@@ 0.1136871467266949
различ@@ 1
Голя@@ 1
Народ@@ 1
ене 1
обеди@@ 1
публи@@ 1
мъж@@ 1
пен@@ 1
сан@@ 1
Балкан@@ 1
ристи@@ 1
Б 1
вън@@ 1
стъпва 1
гъл 1
вна 1
присти@@ 1
християн@@ 1
ческо 1
Тре@@ 1
риа@@ 1
есте@@ 1
евре@@ 1
миш@@ 1
ланд 1
Него@@ 1
тър 1
руски 1
зда@@ 1
ционен 1
Нова 1
писа@@ 1
постав@@ 1
Париж 1
защ@@ 1
Стефан 1
ръко@@ 1
гне 1
стой@@ 1
манастир 1
бол@@ 1
Кли@@ 1
полк 1
оло@@ 1
кро@@ 1
шно 1
яването 1
1912 1
разработ@@ 1
праз@@ 1
командир 1
Филип 1
йт 1
со 1
Вал@@ 1
Димит@@ 1
живеят 1
чето 1
направ@@ 1
ерата 1
офици@@ 1
сила 1
въл@@ 1
квар@@ 1
пет 1
бързо 1
ален 1
вец 1
тните 1
известни 1
преде@@ 1
Джо@@ 1
жават 1
Дра@@ 1
Америка 1
образование 1
Великобритания 1
пус@@ 1
ителен 1
музика 1
сътруд@@ 1
голямо 1
импера@@ 1
неговите 1
ери 1
струк@@ 1
друг 1
йските 1
връх 1
терито@@ 1
дивизия 1
лено 1
O@@ 0.14574759089356074
гимназия 1
Сре@@ 1
Китай 1
бор 1
организи@@ 1
бази@@ 1
испан@@ 1
1991 0.9903027188416322
настоя@@ 1
връща 1
ос 1
гли@@ 1
майсто@@ 1
вета 1
хиля@@ 1
дне@@ 1
пя@@ 1
разположен 1
Африка 1
шампи@@ 1
развитие 1
известна 1
политически 1
Мари@@ 1
нин@@ 1
офи@@ 1
премина@@ 1
лище 1
мю@@ 1
увели@@ 1
кове 1
началник 1
разру@@ 1
сръб@@ 1
тури 1
плат@@ 1
ологи@@ 1
Христо 1
Нор@@ 1
главен 1
каче@@ 1
1945 1
ана 1
Умира 1
Све@@ 1
писание 1
движение 1
рил 1
друга 1
месеца 1
разположени 1
манасти@@ 1
Софи@@ 1
бав@@ 1
y@@ 0.13742436634150315
низ@@ 1
отношение 1
Бре@@ 1
получа@@ 1
шни 1
мира 1
печат@@ 1
стил 1
сят 1
заема 1
нително 1
они 1
театър 1
геро@@ 1
Македо@@ 1
актив@@ 1
ал 1
вина 1
продължение 1
коре@@ 1
скло@@ 1
основно 1
бо 1
1999 0.7472868527030212
графия 1
тит@@ 1
кият 1
2018 0.43670038788682847
реката 1
нико@@ 1
чното 1
Тео@@ 1
Тай@@ 1
1913 1
анали@@ 1
пат@@ 1
кор@@ 1
инду@@ 1
кита@@ 1
Зе@@ 1
професиона@@ 1
СССР 1
култур@@ 1
тан 1
инди@@ 1
правителство 1
следва 1
зато@@ 1
доли@@ 1
лов@@ 1
лис 1
+ 1
Рим@@ 1
част@@ 1
То 1
произход 1
дву@@ 1
тната 1
йско 1
револю@@ 1
Ата@@ 1
мов 1
ета 1
действия 1
предизви@@ 1
държави 1
Този 1
она 1
джа 1
литература 1
напра@@ 1
Ун@@ 1
остав@@ 1
директор 1
ил 1
създаването 1
75 1
пъту@@ 1
първенство 1
ори@@ 1
Сла@@ 1
— 0.08968413342208195
200 1
лятото 1
вано 1
бан 1
занима@@ 1
нами@@ 1
сов 1
президент 1
Япония 1
мястото 1
ствен 1
Ос@@ 1
израз@@ 1
къл 1
тат 1
Йорк 1
западната 1
тръ@@ 1
of 0.009529944376964906
щето 1
новата 1
администра@@ 1
концер@@ 1
пита@@ 1
необходи@@ 1
сбор@@ 1
останалите 1
сина 1
разши@@ 1
английски 1
зват 1
управлението 1
отбо@@ 1
птица 1
бива 1
Ше@@ 1
фа 1
вил 1
гола 1
стрел@@ 1
изо@@ 1
= 0.6036596002388533
цялата 1
хард 1
Първият 1
зависи@@ 1
телевизи@@ 1
Произ@@ 1
нически 1
маши@@ 1
1992 0.8865253401740618
хия 1
Солу@@ 1
източната 1
Българската 1
оцен@@ 1
първото 1
точка 1
части@@ 1
дет@@ 1
епо@@ 1
изслед@@ 1
мента@@ 1
хайм 1
роман@@ 1
1941 1
Ива@@ 1
ара 1
политик 1
Между@@ 1
45 1
рих 1
1989 1
говори 1
ок 1
Нико@@ 1
знач@@ 1
Светов@@ 1
Николай 1
карва 1
меня 1
май@@ 1
книги 1
32 1
френски 1
значение 1
Вилхелм 1
търго@@ 1
доку@@ 1
пет@@ 1
цето 1
западно 1
зада@@ 1
трен@@ 1
решава 1
Вър@@ 1
Администра@@ 1
Джа@@ 1
специали@@ 1
ницата 1
кари@@ 1
центъра 1
ьор@@ 1
Европей@@ 1
бъде@@ 1
XIX 1
Рабо@@ 1
симво@@ 1
психо@@ 1
намират 1
Анна 1
Гла@@ 1
кан 1
1998 0.7713679970092434
седми@@ 1
служи 1
Полша 1
Западна 1
топ@@ 1
ства@@ 1
графи@@ 1
клет@@ 1
Св 1
напуска 1
другите 1
чието 1
пръ@@ 1
връз@@ 1
Ст@@ 1
нени 1
пода@@ 1
Михаил 1
малка 1
нарича@@ 1
решение 1
двата 1
гло@@ 1
ралната 1
Някои 1
устрой@@ 1
морски 1
природ@@ 1
стават 1
Пло@@ 1
лев 1
formula 0.4952090881486744
здра@@ 1
роман 1
1@@ 1
Москва 1
итава 1
правителството 1
нет 1
дно 1
същото 1
футболист 1
някога 1
разположено 1
отли@@ 1
стер@@ 1
чети@@ 1
прите@@ 1
инстру@@ 1
0@@ 0.811167388411576
дьо 1
албума 1
Фер@@ 1
Цент@@ 1
1997 0.8218711831106226
православ@@ 1
децата 1
лът 1
нали@@ 1
вис@@ 1
замест@@ 1
чават 1
източно 1
ФК 1
резер@@ 1
ролята 1
арти@@ 1
бряг 1
едва 1
ль@@ 0.24266771108382731
щати 1
особ@@ 1
М 1
ули@@ 1
рио@@ 1
ностите 1
Вол@@ 1
Пла@@ 1
Във 1
беле@@ 1
Тази 1
къв 1
Поли@@ 1
македон@@ 1
неговото 1
превръща 1
Син@@ 1
жо@@ 1
сна 1
Там 1
рок 1
! 0.6106604729811029
мото 1
тена 1
екс@@ 1
лети@@ 1
означава 1
Т 1
изи@@ 1
външ@@ 1
1996 0.8076575601016794
Намира 1
федера@@ 1
Уе@@ 1
последните 1
битката 1
жела@@ 1
ун 1
зае@@ 1
Азия 1
систе@@ 1
колкото 1
вър 1
Тези 1
Центра@@ 1
военни 1
учител 1
разлика 1
основа@@ 1
вор@@ 1
компю@@ 1
убий@@ 1
Зем@@ 1
кен@@ 1
ток 1
мер 1
нали 1
песента 1
лига 1
известно 1
точ@@ 1
циона@@ 1
мени@@ 1
Фло@@ 1
чено 1
Кръ@@ 1
технологи@@ 1
мм 1
Турция 1
1995 0.8320362277821761
500 1
унищо@@ 1
действие 1
виде@@ 1
РО 1
Къ@@ 1
нените 1
Селото 1
княз 1
двигате@@ 1
съще@@ 1
скоро 1
Ги@@ 1
ново@@ 1
1994 0.8307751909679073
поставя 1
e@@ 0.0881059037920663
книга 1
гради 1
сията 1
мина 1
съгла@@ 1
защит@@ 1
Поради 1
бах 1
консул 1
успех 1
кали@@ 1
Индия 1
транспор@@ 1
Анто@@ 1
възстанов@@ 1
дире@@ 1
напълно 1
сра@@ 1
форми 1
on 0.026873472786631953
главно 1
изкуство 1
зин@@ 1
Мла@@ 1
информация 1
спомена@@ 1
течение 1
малък 1
Света 1
издава 1
двамата 1
чуж@@ 1
цери 1
щият 1
т.@@ 1
фал@@ 1
1980 0.8745444694148403
зона 1
ъра 1
Елизабет 1
участ@@ 1
Описание 1
дръ@@ 1
гру@@ 1
компания 1
изпълните@@ 1
стин@@ 1
осигур@@ 1
Сърбия 1
чите 1
гел 1
кораба 1
територия 1
меха@@ 1
Воен@@ 1
душ@@ 1
стена 1
нската 1
лип@@ 1
кораби 1
копи@@ 1
ващите 1
маги@@ 1
народен 1
отбра@@ 1
Крал@@ 1
щото 1
повърх@@ 1
стран@@ 1
въстание 1
гнат 1
влияние 1
зан 1
изследвания 1
лта 1
самостояте@@ 1
Сан 1
Константин 1
ато 1
вся@@ 1
Варна 1
низи@@ 1
поле 1
източна 1
варя 1
зат 1
развитието 1
вършва 1
рон 1
Лудвиг 1
тие 1
труд@@ 1
прин@@ 1
бой@@ 1
кови 1
събрание 1
чен@@ 1
тук 1
осъ@@ 1
градове 1
Йе@@ 1
предста@@ 1
планина 1
глежда 1
каза@@ 1
лям 1
пата 1
извърш@@ 1
днеш@@ 1
изиск@@ 1
исторически 1
тради@@ 1
защита 1
политика 1
­ 1
Фор@@ 1
преме@@ 1
Участва 1
проти@@ 1
фи 1
писател 1
гне@@ 1
недо@@ 1
Австралия 1
опит 1
mm 1
вз@@ 1
ото 1
прием@@ 1
артиле@@ 1
моти@@ 1
официално 1
почи@@ 1
предло@@ 1
фер@@ 1
производство 1
българските 1
половина 1
тото 1
фу@@ 1
обви@@ 1
електри@@ 1
38 1
мину@@ 1
целия 1
случай 1
професор 1
завръща 1
Же@@ 1
водата 1
наси@@ 1
пило@@ 1
бле@@ 1
ческите 1
I@@ 0.1667558095303573
идва 1
изцяло 1
1993 0.8285639763951599
34 1
членове 1
лагат 1
сни@@ 1
ционни 1
36 1
революцион@@ 1
произведения 1
подкре@@ 1
ката@@ 1
преброяването 1
неговия 1
династи@@ 1
Лондон 1
рове 1
кономиче@@ 1
развива 1
рю@@ 1
обявява 1
стват 1
тият 1
култура 1
Дъл@@ 1
Кам@@ 1
ум@@ 1
рису@@ 1
Украйна 1
окол@@ 1
Благо@@ 1
позиция 1
спеди@@ 1
шката 1
сер@@ 1
тай@@ 1
против@@ 1
тична 1
гъл@@ 1
против 1
участват 1
подкреп@@ 1
Международ@@ 1
осъщест@@ 1
зархи@@ 1
Министер@@ 1
Сло@@ 1
ческата 1
правят 1
рон@@ 1
селе@@ 1
следващите 1
употре@@ 1
низа@@ 1
появява 1
мощ@@ 1
гането 1
2019 0.3858656581237551
зай@@ 1
сестра 1
33 1
стка 1
пови@@ 1
поръ@@ 1
съд 1
Под@@ 1
мин 1
Тан@@ 1
музей 1
положение 1
художе@@ 1
планината 1
острова 1
um 0.12226101472161384
рите@@ 1
имену@@ 1
Но 1
техниче@@ 1
можно 1
кораб 1
лан 1
села 1
шава 1
нер@@ 1
1943 1
чин 1
65 1
първо 1
лате@@ 1
еро 1
Вси@@ 1
Ран@@ 1
37 1
вят 1
консу@@ 1
Ак@@ 1
Бразилия 1
жените 1
кот@@ 1
Църк@@ 1
Шар@@ 1
управля@@ 1
прило@@ 1
1878 1
състояние 1
Разполо@@ 1
съл 1
55 1
ум 1
Роб@@ 1
фигу@@ 1
ключ@@ 1
връщ@@ 1
Източна 1
вало 1
тивно 1
клуб 1
лова 1
тика 1
всичко 1
журнали@@ 1
двой@@ 1
дебю@@ 1
автор 1
чело 1
дов@@ 1
0,@@ 1
дават 1
чув@@ 1
земи 1
първоначално 1
патриар@@ 1
длъж@@ 1
деб@@ 1
гене@@ 1
игри 1
деж@@ 1
Кари@@ 1
вестник 1
между@@ 1
Дъ@@ 1
тори 1
годината 1
Държав@@ 1
серио@@ 1
условия 1
Бан@@ 1
пен 1
фан@@ 1
каз@@ 1
пера@@ 1
коно@@ 1
Спи@@ 1
меда@@ 1
кой 0.952511282932842
тора 1
Сред 1
1970 0.8746988070596408
Г 1
кин 1
Кан@@ 1
епизо@@ 1
br 1
общи@@ 1
помощта 1
рас@@ 0.9486859798530219
хими@@ 1
значително 1
x 0.21743667793095445
1900 1
изобраз@@ 1
шу@@ 1
Гви@@ 1
Разположено 1
руп@@ 1
себе 1
спече@@ 1
Сти@@ 1
демокра@@ 1
райони 1
техните 1
тели 1
системи 1
издаден 1
простран@@ 1
убе@@ 1
километра 1
изследовате@@ 1
тем@@ 1
проект 1
сли@@ 1
план@@ 1
свеще@@ 1
езици 1
шев 1
щение 1
кни@@ 1
открива 1
веро@@ 1
мир@@ 1
стви@@ 1
годините 1
Съю@@ 1
строител@@ 1
1918 1
флот 1
Фамилия 1
столицата 1
формата 1
институт 1
ян@@ 1
мон 1
пря@@ 1
записва 1
цели 1
de 0.005883121446360574
Вене@@ 1
долф 1
бур@@ 1
представител 1
последовате@@ 1
сь@@ 1
тно@@ 1
преди@@ 1
p@@ 0.07105200840246761
елементи 1
пад@@ 1
съхра@@ 1
a@@ 0.14926018336671312
рис 1
включват 1
обществе@@ 1
Източ@@ 1
разположена 1
пръв 1
Кю@@ 1
българско 1
компанията 1
мар 1
шампион 1
отво@@ 1
the 0.004276066302461994
Йор@@ 1
Стара 1
зов 1
нав@@ 1
тов 0.7862565464955802
Марк 1
обре@@ 1
лър 1
библиоте@@ 1
шата 1
забеле@@ 1
алната 1
пси@@ 1
Румъ@@ 1
рик 1
мах@@ 1
K@@ 0.07632478158971175
Хен@@ 1
книгата 1
традицион@@ 1
военен 1
основава 1
пози@@ 1
селище 1
Съвет@@ 1
мя 1
пора@@ 1
точки 1
говор@@ 1
спек@@ 1
позволява 1
смята 1
участието 1
близост 1
Ев@@ 1
Австрия 1
мъжва 1
пътя 1
сента 1
бър 1
секретар 1
следващата 1
версия 1
кос@@ 1
кораб@@ 1
възник@@ 1
Вла@@ 1
най@@ 1
гария 1
годи@@ 1
ческия 1
вяр@@ 1
макар 1
1960 0.9372315225950537
освен 1
дий 1
инжен@@ 1
йс 1
брежи@@ 1
яне 1
основате@@ 1
ьо 1
сюл@@ 1
модер@@ 1
так@@ 1
дат@@ 1
Други 1
обща 1
часа 1
c@@ 0.0704438404960795
предлага 1
нас 1
У 1
състав@@ 1
мери@@ 1
средства 1
брак 1
дати@@ 1
организа@@ 1
титлата 1
яни 1
толкова 1
они@@ 1
Фили@@ 1
канди@@ 1
реали@@ 1
Между 1
административ@@ 1
85 1
окръ@@ 1
1940 1
изключително 1
колек@@ 1
едноимен@@ 1
лска 1
задъл@@ 1
носите@@ 1
оказва 1
армията 1
ть@@ 1
наги 1
песен 1
лите@@ 1
ническата 1
пл@@ 1
сезона 1
cm 1
завърш@@ 1
военна 1
сметка 1
рява 1
Ек@@ 1
работата 1
куп@@ 1
бух@@ 1
лизи@@ 1
ълга@@ 1
мона@@ 1
дело 1
усп@@ 1
1942 1
Послед@@ 1
Хай@@ 1
чване 1
математи@@ 1
случа@@ 1
езерото 1
Тур@@ 1
Мексико 1
ниво 1
худож@@ 1
такива 1
шко 1
воначално 1
фамили@@ 1
пуска 1
Не 1
къщи 1
аб@@ 1
реги@@ 1
писан 1
прото@@ 1
Фу@@ 1
мяна 1
принци@@ 1
Анти@@ 1
Оби@@ 1
бло@@ 1
фра@@ 1
Ен@@ 1
Охри@@ 1
стане 1
стади@@ 1
зе 1
Пан@@ 1
заве@@ 1
Й@@ 1
Обе@@ 1
маке@@ 1
местообита@@ 1
отношения 1
пое@@ 1
сем@@ 1
2020 0.3636410009478616
температура 1
y 0.0192755683377144
мни 1
76 1
Тро@@ 1
дж 1
боле@@ 1
форма@@ 1
гръ@@ 1
Георги@@ 1
море@@ 1
гас 1
зад 1
говор 1
Стра@@ 1
гр 1
престо@@ 1
духов@@ 1
дали 1
слав@@ 1
ул 1
шко@@ 1
уси@@ 1
мпи@@ 1
сми@@ 1
Много 1
лай@@ 1
шин@@ 1
фир@@ 1
студи@@ 1
зави@@ 1
изя@@ 1
стове 1
Канада 1
дом 1
тет 1
20@@ 0.6661457989038178
права 1
i@@ 0.1051431013468055
мани@@ 1
фести@@ 1
СК@@ 1
ели@@ 1
учеб@@ 1
запис@@ 1
ia 0.14525459647612451
Лан@@ 1
ар 1
et 0.023497923960217215
принце@@ 1
1986 0.8748743971635804
основа 1
сва@@ 1
39 1
300 1
Френ@@ 1
числе@@ 1
назна@@ 1
42 1
48 1
хт 1
Ат@@ 1
Богороди@@ 1
стандар@@ 1
жд@@ 1
1988 0.7991500080315942
строе@@ 1
щина 1
оце@@ 1
Кру@@ 1
биз@@ 1
Фил@@ 1
потреб@@ 1
забра@@ 1
Глав@@ 1
b@@ 0.0725258615679493
жие 1
разви@@ 1
макси@@ 1
века 1
изуча@@ 1
Бен@@ 1
1950 0.9446652384564141
стаби@@ 1
коро@@ 1
медици@@ 1
хай@@ 1
чита@@ 1
Ел@@ 1
каз 1
публикан@@ 1
Север@@ 1
n@@ 0.06896764489908093
конструк@@ 1
цвет@@ 1
1,@@ 0.6755477803159776
Сте@@ 1
нато@@ 1
цу@@ 1
изве@@ 1
КП 1
яв@@ 1
o@@ 0.09539196979549151
... 0.6765942307676485
1934 1
военно@@ 1
области 0.930506204038996
стани@@ 1
вери@@ 1
византи@@ 1
ph@@ 0.15282749114264876
A 0.11213367999613578
1905 1
ясно 1
визи@@ 1
херцо@@ 1
сон 1
56 1
уда@@ 1
социа@@ 1
Юго@@ 1
литератур@@ 1
64 1
Христо@@ 1
Египет 1
приток 1
юри@@ 1
впослед@@ 1
реша@@ 1
мл@@ 1
Х 1
ган 1
рой 1
поме@@ 1
сел 1
вро@@ 1
религиоз@@ 1
лищ@@ 1
41 1
.. 1
хран@@ 1
срещ@@ 1
рения 1
ева 1
44 1
взи@@ 1
бе 1
ке 0.4099621870883417
o 0.0586092418405522
вариан@@ 1
ic@@ 0.12901360918222612
олимпи@@ 1
Пле@@ 1
телевизион@@ 1
хов@@ 1
зано 1
еписко@@ 1
Гре@@ 1
акт@@ 1
дже@@ 1
лист@@ 1
цент 1
72 1
s@@ 0.03808383544738165
автомоби@@ 1
остана@@ 1
хан@@ 1
футбол 1
54 1
меди@@ 1
преми@@ 1
ково 1
рев@@ 1
стов 1
68 1
Джи@@ 1
Кристи@@ 1
вка 1
43 1
Саксо@@ 1
in@@ 0.048223724146866716
построена 1
леген@@ 1
кара 1
чения 1
Университе@@ 1
1985 0.8338187335953735
кня@@ 1
Стру@@ 1
разме@@ 1
52 1
любо@@ 1
1920 1
Макси@@ 1
-@@ 0.5670998960194692
карти@@ 1
въста@@ 1
Бру@@ 1
47 1
резул@@ 1
христи@@ 1
Ана@@ 1
вест@@ 1
раб@@ 1
фина@@ 1
обработ@@ 1
тал 1
рец 1
рак 1
бург@@ 1
1987 0.8029361165432022
аген@@ 1
чле@@ 1
Население 1
иска 1
мигра@@ 1
склю@@ 1
бун@@ 1
кон 1
63 1
жу@@ 1
статисти@@ 1
Пор@@ 1
лението 1
революцио@@ 1
случаи 1
капитан 1
.е. 1
тран@@ 1
европе@@ 1
действи@@ 1
казате@@ 1
представители 1
сово 1
Само@@ 1
рова 1
зая@@ 1
1984 0.8171701300087024
дина 1
коп@@ 1
финансо@@ 1
88 1
ам@@ 1
автоно@@ 1
Бро@@ 1
d@@ 0.05913428555281229
Гру@@ 1
1939 1
вока@@ 1
пе 1
мате@@ 1
финан@@ 1
51 1
вай@@ 1
засе@@ 1
1981 0.8719151802481585
XX 1
араб@@ 1
1968 0.9081286003067519
прекра@@ 1
53 1
тки 1
Борис 1
хва@@ 1
95 1
фото@@ 1
m@@ 0.07791758775857931
Берлин 1
япон@@ 1
офицер 1
времен@@ 1
населе@@ 1
86 1
62 1
остро@@ 1
клу@@ 1
яр@@ 1
лон 1
пока@@ 1
1974 0.8968269539031978
ch@@ 0.05356820312224679
in 0.006053581637832434
шена 1
гин@@ 1
региона 1
точно 1
нис 1
Авгу@@ 1
из 0.19076543009478275
писана 1
Джеймс 1
митрополит 1
хро@@ 1
лос 1
епархия 1
Шве@@ 1
тю@@ 1
66 1
жерт@@ 1
зана 1
джи 1
жка 1
1979 0.8573947428442208
Ир@@ 1
циони@@ 1
67 1
S 0.3530522656430801
ничество 1
план 1
как 0.32485271728212023
мед 1
вание 1
насе@@ 1
пехо@@ 1
догово@@ 1
фика@@ 1
t 0.04139005282682233
храм 1
78 1
орга@@ 1
лист 1
зация 1
ряд@@ 1
1978 0.8816203356942055
кат@@ 1
астро@@ 1
1948 1
VI 1
І@@ 1
1971 0.891468304384601
82 1
сфе@@ 1
зон@@ 1
конкур@@ 1
типа 1
Ам@@ 1
Мор@@ 1
турнира 1
лог 1
ляр@@ 1
нан@@ 1
58 1
широко 1
убит 1
характеристи@@ 1
тически 1
1928 1
реак@@ 1
l 0.07024763944547323
цве@@ 1
Кал@@ 1
преподавате@@ 1
Тер@@ 1
сне@@ 1
1982 0.8232760756919079
институ@@ 1
59 1
g@@ 0.0604437830181734
беля@@ 1
1976 0.8636345906597013
кампа@@ 1
представля@@ 1
вклю@@ 1
спери@@ 1
структура 1
характер@@ 1
доне@@ 1
сул@@ 1
победа 1
1946 1
Сер@@ 1
X@@ 0.39702021857257364
or@@ 0.08015479161724375
сам 1
нима@@ 1
тури@@ 1
школа 1
разнообраз@@ 1
като@@ 1
ология 1
on@@ 0.08147335557263072
йо@@ 1
парла@@ 1
46 1
зани 1
Константино@@ 1
Владимир 1
поко@@ 1
рес@@ 1
проекта 1
Колум@@ 1
Геор@@ 1
оригина@@ 1
1972 0.8212635904046862
Вай@@ 1
шение 1
стра 1
препода@@ 1
57 1
дор@@ 1
н. 1
берт 1
Гри@@ 1
69 1
забо@@ 1
Британ@@ 1
момент 1
брига@@ 1
сии 1
1930 1
сим@@ 1
вле@@ 1
университета 1
хал@@ 1
дел 1
вати@@ 1
правител@@ 1
рея 1
чия 1
ограни@@ 1
полож@@ 1
дра 1
ждан@@ 1
иска@@ 1
творчество 1
d 0.06310389017052791
посто@@ 1
тар 1
фри@@ 1
84 1
гли 1
камен@@ 1
треш@@ 1
вмест@@ 1
темпера@@ 1
Род@@ 1
Марга@@ 1
вет 1
веще@@ 1
1975 0.7945071380913842
рез@@ 1
ей 0.9076871341732531
редактор 1
сий 1
латин@@ 1
общество 1
разв@@ 1
1947 1
61 1
77 1
Мето@@ 1
цо 1
Калифорния 1
ид@@ 1
постепенно 1
Исто@@ 1
полити@@ 1
Алек@@ 1
Ара@@ 1
обла@@ 1
стру@@ 1
гол 1
81 1
дам 1
истин@@ 1
удо@@ 1
Полу@@ 1
Джу@@ 1
ходя@@ 1
археологи@@ 1
зате@@ 1
свиде@@ 1
73 1
подчи@@ 1
радио@@ 1
конгре@@ 1
прив@@ 1
71 1
мит@@ 1
каза 1
er 0.02061098162936054
1969 0.8868629385108894
принадле@@ 1
83 1
запове@@ 1
79 1
види@@ 1
лета 1
лати@@ 1
Мюн@@ 1
скар 1
чели 1
австри@@ 1
1973 0.8388265266915934
Лай@@ 1
обо@@ 1
осе@@ 1
1983 0.7768019283182763
кови@@ 1
проя@@ 1
X 0.5653551314871885
фини@@ 1
комплек@@ 1
спон@@ 1
Югосла@@ 1
Ци@@ 1
1927 1
изче@@ 1
йл 1
Луи 1
парк 1
организации 1
1919 1
ителя 1
нови@@ 1
семейства 1
74 1
диалек@@ 1
1923 1
1967 0.8799446142289458
87 1
Хан@@ 1
добав@@ 1
брат@@ 1
49 1
вин 1
Ch@@ 0.10463858575408387
еро@@ 1
приблиз@@ 1
Фо@@ 1
U@@ 0.12130834571712137
Фри@@ 1
ству@@ 1
Форму@@ 1
th@@ 0.07726987025455014
издате@@ 1
Игра@@ 1
сор@@ 1
чество 1
Кур@@ 1
парт@@ 1
пом@@ 1
Запад@@ 1
науки 1
станция 1
издание 1
ент 1
al@@ 0.05563854768107333
дворец 1
1962 0.9563940939214578
дели@@ 1
Павел 1
пов 1
майор 1
B 0.2459330443847978
нова@@ 1
щен 1
Око@@ 1
актриса 1
успешно 1
фикация 1
зеф 1
дка 1
вато@@ 1
Американ@@ 1
лега@@ 1
1966 0.9003098358986835
мно 1
военно 1
вну@@ 1
полковник 1
2,@@ 0.7266493037351658
стои 1
ac@@ 0.07900868249540903
Бран@@ 1
транс@@ 1
крайна 1
подготов@@ 1
Им@@ 1
om@@ 0.12404781607307908
начало 1
бого@@ 1
неу@@ 1
1965 0.877943286397474
кипа@@ 1
150 1
площа@@ 1
псевдо@@ 1
ограниче@@ 1
кого@@ 1
сч@@ 1
живе@@ 1
Пара@@ 1
Бри@@ 1
бое@@ 1
1977 0.8144653454077161
л. 1
вонача@@ 1
el@@ 0.06608678323040892
финала 1
1959 1
1964 0.860929433402897
Бай@@ 1
лем 1
нес@@ 1
литера@@ 1
1915 1
Мин@@ 1
мбо@@ 1
Пон@@ 1
Бор@@ 1
Жан 1
философи@@ 1
избра@@ 1
Чар@@ 1
ставля@@ 1
Кай@@ 1
Ката@@ 1
1949 0.9904886091258452
Изра@@ 1
1938 0.9809116004996971
желе@@ 1
2021 0.34840238286027125
услу@@ 1
бина 1
Ау@@ 1
F 0.3375004541514885
00 1
Тома@@ 1
Александ@@ 1
атор 1
Кир@@ 1
96 1
Ф 1
уста@@ 1
Пен@@ 1
ing 0.020749694294466946
зо 1
риал@@ 1
t@@ 0.044552829903641566
филосо@@ 1
първен@@ 1
.н@@ 1
Вой@@ 1
предостав@@ 1
скри@@ 1
дии 1
романа 1
рес 1
пехот@@ 1
Хол@@ 1
леку@@ 1
дил 1
ol@@ 0.10469745584199296
Ад@@ 1
Пат@@ 1
1961 0.9426136518143069
гер@@ 1
Н 1
оз@@ 1
цио@@ 1
1956 0.9335950742953633
es 0.017601026184476724
художник 1
ул@@ 1
L 0.24169777109771806
Обла@@ 1
рели@@ 1
ай@@ 1
контра@@ 1
обучение 1
1963 0.8977351835790769
98 1
вместо 1
ято 1
1000 1
дие 1
комби@@ 1
реше@@ 1
еже@@ 1
ръб@@ 1
Кре@@ 1
глава 1
дома 1
ensis 1
чис@@ 1
1958 0.9321340478855554
музе@@ 1
Меди@@ 1
Вен@@ 1
жина 1
пери@@ 1
ски@@ 1
магни@@ 1
Кле@@ 1
92 1
бла@@ 1
en@@ 0.04124831685805098
рами@@ 1
генера@@ 1
клуба 1
активно 1
дент@@ 1
тана 1
1936 1
страте@@ 1
помощ@@ 1
05 1
1924 1
93 1
свой 1
J@@ 0.07650262087154602
уз@@ 1
цер 1
400 1
чик 1
T 0.29232559401283054
Член 1
посред@@ 1
Юж@@ 1
Груп@@ 1
алистиче@@ 1
лично 1
лу 1
? 0.6971240645684526
год@@ 1
1926 1
успеш@@ 1
нео@@ 1
пуска@@ 1
нару@@ 1
цяло 1
нам 1
зви@@ 1
Институ@@ 1
отноше@@ 1
конститу@@ 1
горе@@ 1
1903 1
Пале@@ 1
взаимо@@ 1
Е 1
99 1
g 0.1297756558697538
06 1
обита@@ 1
дуар@@ 1
роди@@ 1
люби@@ 1
04 1
an@@ 0.057190365144481746
офор@@ 1
сан 1
f@@ 0.042384583620704415
Каро@@ 1
хор@@ 1
изобра@@ 1
депу@@ 1
гон@@ 1
поз@@ 1
цер@@ 1
Пол@@ 1
дъщер@@ 1
моно@@ 1
Ван@@ 1
уре@@ 1
тона 1
зон 1
Гро@@ 1
Хри@@ 1
Лин@@ 1
узна@@ 1
Гене@@ 1
предо@@ 1
k@@ 0.05800787450575398
кнове@@ 1
реш@@ 1
er@@ 0.04530107314799038
огром@@ 1
линии 1
пропа@@ 1
миче@@ 1
бен@@ 1
слож@@ 1
моби@@ 1
Швейца@@ 1
бели 1
микро@@ 1
пото@@ 1
цин@@ 1
ae 0.5462390960002708
личе@@ 1
число 1
Акаде@@ 1
зен@@ 1
ох@@ 1
иденти@@ 1
храма 1
1935 1
реки 1
Спе@@ 1
1952 0.9499933851505069
r@@ 0.04958722000188406
опе@@ 1
броне@@ 1
1929 1
89 1
Аб@@ 1
сцена@@ 1
Дар@@ 1
Спа@@ 1
свои 1
1914 1
фронт 1
Джордж 1
Ян@@ 1
Елена 1
бир@@ 1
Дю@@ 1
Кате@@ 1
ѐ@@ 1
ООН 1
ot@@ 0.09977820567363362
1925 1
значи@@ 1
1921 1
рази@@ 1
номер 1
състе@@ 1
and 0.0055099888093624125
теат@@ 1
иза 1
уве@@ 1
хан 1
Кат@@ 1
сексу@@ 1
насти@@ 1
Остро@@ 1
28@@ 1
гимна@@ 1
ана@@ 1
войска 1
непре@@ 1
Тех@@ 1
достав@@ 1
пру@@ 1
пля@@ 1
1908 1
рит 1
97 1
1922 1
мокра@@ 1
все@@ 1
кара@@ 1
построен 1
01 1
Сар@@ 1
нии 0.2823583270833449
вали@@ 1
сов@@ 1
епи@@ 1
серия 1
обору@@ 1
94 1
предназна@@ 1
1951 1
08 1
зни 1
контак@@ 1
oc@@ 0.11654875718905777
Чу@@ 1
комплекс 1
ис 1
1953 0.9512314003460481
N 0.3143558733350382
мас@@ 1
ar@@ 0.05186833882981587
1877 1
нера@@ 1
вдо@@ 1
1933 0.9307347390393729
игра 1
Кни@@ 1
код 1
30@@ 0.8426004057206632
после 0.5417477807514546
том@@ 1
5,@@ 1
1957 0.8891548640472346
катего@@ 1
шения 1
фла@@ 1
власти 1
изпол@@ 1
изме@@ 1
реда@@ 1
Орга@@ 1
Нидер@@ 1
укра@@ 1
дал 1
тропи@@ 1
индиви@@ 1
n 0.07394711673565582
1937 0.9411539606274174
тера@@ 1
Пав@@ 1
характер 1
оне@@ 1
Ари@@ 1
Андже@@ 1
снаб@@ 1
1904 1
Мер@@ 1
председате@@ 1
Пос@@ 1
фабри@@ 1
дела 1
колко 1
І 1
прито@@ 1
писи 1
съпру@@ 1
академи@@ 1
постоян@@ 1
дови@@ 1
провин@@ 1
ul@@ 0.07966368329586769
зам@@ 1
роб@@ 1
перио@@ 1
президент@@ 1
1917 1
Под 1
роли 1
възра@@ 1
Гар@@ 1
опис@@ 1
моне@@ 1
лец 1
следствие 1
отно@@ 1
гражда@@ 1
ник@@ 1
Васи@@ 1
Мит@@ 1
пов@@ 1
фран@@ 1
VII 1
именно 1
тога@@ 1
09 1
католиче@@ 1
91 1
украин@@ 1
върш@@ 1
ферен@@ 1
вси@@ 1
02 1
албу@@ 1
консер@@ 1
отряд 1
нача@@ 1
творче@@ 1
регистри@@ 1
ада@@ 1
ним 1
тил 1
Сюжет 1
гласно 1
повто@@ 1
Петер@@ 1
квали@@ 1
лиан@@ 1
1954 0.8746570366520083
лон@@ 1
Ок@@ 1
ѝ@@ 1
Андре@@ 1
гон 1
07 1
любов@@ 1
сиг@@ 1
бин@@ 1
окончате@@ 1
Кали@@ 1
Все@@ 1
линей@@ 1
Слу@@ 1
03 1
гов 1
сена 1
Бли@@ 1
хо 1
предприя@@ 1
Извест@@ 1
лед@@ 1
събра@@ 1
’ 0.04997687697493952
24@@ 0.9052880489805818
1932 1
дете@@ 1
сек@@ 1
отри@@ 1
пост 1
основан 1
сведения 1
вши@@ 1
os@@ 0.10856976704392972
25@@ 0.5619554652199755
atus 1
дес@@ 1
1910 1
африкан@@ 1
корпус 1
рекор@@ 1
щер@@ 1
v@@ 0.05486152271767413
сериал 1
сю@@ 1
орке@@ 1
космо@@ 1
определя@@ 1
Тран@@ 1
демон@@ 1
кора@@ 1
Сара@@ 1
кле@@ 1
D 0.22609335846885847
Клу@@ 1
вале@@ 1
Евро@@ 1
la 0.0071073353544337985
кам@@ 1
родо@@ 1
гале@@ 1
am@@ 0.07077467830008256
Дани@@ 1
ata 0.34227424710453763
1955 0.8555948905771903
кори@@ 1
ево 1
3,@@ 0.6990018887254634
дек@@ 1
зиден@@ 1
голя@@ 1
счита@@ 1
Z@@ 0.0780971726168952
лейтенант 1
зер@@ 1
лит@@ 1
старо@@ 1
4,@@ 0.8916747755786774
студен@@ 1
Португа@@ 1
духа 1
информа@@ 1
ine 0.0760063246160077
вести@@ 1
популя@@ 1
скан@@ 1
ремон@@ 1
ситуа@@ 1
M 0.2640246128871312
просто 1
цеп@@ 1
вече@@ 1
Спо@@ 1
богат@@ 1
лки 1
количество 1
amp 0.16950774141634298
рато@@ 1
контроли@@ 1
фло@@ 1
заслу@@ 1
конферен@@ 1
сова 1
постоянно 1
Автор 1
ro@@ 0.07898226778999116
гун@@ 1
кратно 1
опи@@ 1
Никола@@ 1
рово@@ 1
изключ@@ 1
бва 1
бира@@ 1
дов 0.6834566458683539
непосред@@ 1
църк@@ 1
сай@@ 1
шах@@ 1
юно@@ 1
куро@@ 1
услови@@ 1
полови@@ 1
побед@@ 1
гно@@ 1
канал 1
леги@@ 1
Впослед@@ 1
Рей@@ 1
La 0.05406356315537221
бет 1
зала 1
волю@@ 1
спу@@ 1
Село 1
пребро@@ 1
театра@@ 1
x@@ 0.13202779401150028
O 0.2168401673572382
ау@@ 1
наро@@ 1
президента 1
Фин@@ 1
1931 1
Тор@@ 1
кновено 1
строй@@ 1
хот@@ 1
тря@@ 1
26@@ 1
Например 1
Олимпи@@ 1
вей@@ 1
19@@ 0.8187212479440846
конфлик@@ 1
W 0.4383315272466783
ента@@ 1
свой@@ 1
сериала 1
поня@@ 1
c 0.06867851050385983
600 1
бой 1
Черно@@ 1
Ъ@@ 1
образова@@ 1
Вин@@ 1
треб@@ 1
18@@ 0.6656388862648063
турнир 1
Зо@@ 1
рито@@ 1
ктор@@ 1
1916 1
Влади@@ 1
G 0.29649330265784807
облада@@ 1
ография 1
сам@@ 1
Авто@@ 1
Тю@@ 1
лес 1
университе@@ 1
швед@@ 1
бомбарди@@ 1
Григо@@ 1
рова@@ 0.6887754409376916
АТ@@ 1
лев@@ 1
пто@@ 1
1906 1
Бело@@ 1
ag@@ 0.0627854854131258
мене@@ 1
циф@@ 1
чай@@ 1
укреп@@ 1
автор@@ 1
рус@@ 0.7890900762093097
Интер@@ 1
енен 1
законо@@ 1
портре@@ 1
гии 1
метри@@ 1
суб@@ 1
купи@@ 1
ографи@@ 1
повре@@ 1
Стро@@ 1
ют 0.35258497952762463
Л 1
гда@@ 1
контин@@ 1
континента@@ 1
R 0.21125476456427267
h 0.07595895554901497
ti@@ 0.06951847294023566
Гос@@ 1
k 0.05872085240325361
km2 1
разполо@@ 1
защитник 1
удар@@ 1
6,@@ 0.8974643108798862
жено 1
парламен@@ 1
рекла@@ 1
фектив@@ 1
зрите@@ 1
що@@ 1
Ричар@@ 1
подвод@@ 1
l@@ 0.03960810552402882
санд@@ 1
акти@@ 1
29@@ 0.9544875928599335
гина@@ 1
яй@@ 1
количе@@ 1
E 0.222155877161955
Ав@@ 1
импе@@ 1
Мол@@ 1
ресур@@ 1
тари@@ 1
1911 1
Михай@@ 1
спорт 1
фило@@ 1
Джор@@ 1
гент@@ 1
Тру@@ 1
финал 1
124@@ 1
зло@@ 1
удосто@@ 1
титу@@ 1
Ала@@ 1
атмо@@ 1
j@@ 0.06630250944837114
1902 1
u@@ 0.07120665679078313
сли 1
Бела@@ 1
характери@@ 1
кой@@ 1
флота 1
относ@@ 1
Дър@@ 1
пон@@ 1
лей 0.5436792410758687
1907 1
юн@@ 1
постанов@@ 1
вян@@ 1
lo@@ 0.08006514381052954
ждение 1
улица 1
Дан@@ 1
номина@@ 1
проб@@ 1
стояние 1
нало@@ 1
вне@@ 1
образо@@ 1
СС 1
емо@@ 1
разо@@ 1
1909 1
тка 1
h@@ 0.03778913453067731
дисци@@ 1
дон 1
ани@@ 1
Коло@@ 1
120 1
замен@@ 1
летия 1
бед@@ 1
Кин@@ 1
Вале@@ 1
метро@@ 1
функции 1
чил 1
il@@ 0.06976320976829113
Кро@@ 1
ника@@ 1
Ну@@ 1
инициати@@ 1
лок 1
космиче@@ 1
щения 1
действ@@ 1
id@@ 0.07710174207673941
Ис@@ 1
Теле@@ 1
гате@@ 1
констру@@ 1
жия 1
документа@@ 1
позволя@@ 1
Зи@@ 1
1885 1
Вален@@ 1
ств@@ 1
доро@@ 1
нологи@@ 1
теше@@ 1
Лат@@ 1
Сим@@ 1
is@@ 0.054759622569518
1873 1
27@@ 1
ство@@ 0.9087611921670063
od@@ 0.1771445319236874
Али@@ 1
гат@@ 1
лег@@ 1
Виктор 1
sa 0.10447141349913593
участник 1
to 0.005860447563140732
Ц 1
ност@@ 1
яко@@ 1
звание 1
ковод@@ 1
стойчи@@ 1
наи@@ 1
пос@@ 1
региона@@ 1
&#124; 0.4102619914824515
ге 0.505561438436047
бран@@ 1
рез 1
Смо@@ 1
поро@@ 1
кс@@ 1
шан@@ 1
пей@@ 1
партии 1
концеп@@ 1
ствия 1
церемо@@ 1
регу@@ 1
Сю@@ 1
опас@@ 1
250 1
ur@@ 0.05938597827861528
озна@@ 1
p 0.0938587321877092
став 1
компании 1
секу@@ 1
чар@@ 1
напис@@ 1
Бори@@ 1
охра@@ 1
et@@ 0.07614881525586957
закон@@ 1
1901 1
трени@@ 1
I. 0.7625464391144455
800 1
it@@ 0.05279434417288199
P 0.24153945322476522
моз@@ 1
имено@@ 1
пес@@ 1
ави@@ 1
VIII 1
Ган@@ 1
форму@@ 1
разно@@ 1
op@@ 0.09243856965755738
кана@@ 1
имо@@ 1
оба@@ 1
подо@@ 1
чит@@ 1
Лон@@ 1
z@@ 0.0423869275649543
ЦК 1
лабо@@ 1
двор@@ 1
лм 1
em@@ 0.06609114321189
Con@@ 0.09893799409696767
конфли@@ 1
пример 1
операции 1
магази@@ 1
кино@@ 1
le@@ 0.05611765312700821
стро 1
Кол@@ 1
капита@@ 1
кост@@ 1
вероя@@ 1
купа@@ 1
ap@@ 0.06398716156967059
Викто@@ 1
упо@@ 1
тон@@ 1
Al@@ 0.0683165725795785
ней 0.6399010489387874
Лей@@ 1
ститу@@ 1
Сър@@ 1
at@@ 0.05613802927587123
as@@ 0.052752826550999755
tr@@ 0.0395056401538362
З 1
теоре@@ 1
Мен@@ 1
днев@@ 1
нуж@@ 1
превра@@ 1
турни@@ 1
печ@@ 1
кило@@ 1
шо 1
An@@ 0.07247457330776062
прово@@ 1
т. 1
1895 1
ърк@@ 1
Гон@@ 1
Андрей 1
St@@ 0.08444434127659987
медицин@@ 1
Прав@@ 1
кви 1
станов@@ 1
фамилия 1
Хор@@ 1
ta 0.09214736940383401
ума 1
слова@@ 1
фин@@ 1
позиции 1
Дон@@ 1
u 0.06576826373454801
см 1
al 0.017655369252029755
1896 1
чета@@ 1
соб@@ 0.9528791398762745
Бол@@ 1
ку 0.27069702999144524
предме@@ 1
ряда 1
вобо@@ 1
усло@@ 1
тела 1
семей@@ 1
мало@@ 1
Зна@@ 1
ради 1
жар@@ 1
морска 1
вер 1
нец 1
пенси@@ 1
тече@@ 1
сро@@ 1
Mac@@ 0.40797334834542753
тий 1
дон@@ 1
щен@@ 1
Ах@@ 1
In@@ 0.08676909126595098
скон@@ 1
8,@@ 0.840015157391861
ina 0.11546955813055014
поте@@ 1
избе@@ 1
цов 1
департа@@ 1
туга@@ 1
отправ@@ 1
желез@@ 1
1899 1
li@@ 0.05863848430121926
АН 1
Нача@@ 1
119@@ 1
внимание 1
джан@@ 1
лиде@@ 1
an 0.010653965066366946
Соци@@ 1
Санкт 1
H 0.31956472743915476
застра@@ 1
ордина@@ 1
Ген@@ 1
7,@@ 0.8184970537934699
Ново@@ 1
мино@@ 1
ством 0.9130515745279127
чие 1
чин@@ 1
меня@@ 1
чко 1
профе@@ 1
кг 1
жества 1
$ 0.18972534795337656
Ar@@ 0.08279360573494836
порт 1
Tr@@ 0.07635481747865822
отве@@ 1
1876 1
Стар@@ 1
шил 1
меж@@ 1
лага@@ 1
модели 1
комен@@ 1
андар@@ 1
ря 1
секретар@@ 1
Обще@@ 1
полага@@ 1
фли@@ 1
лии 1
120@@ 1
Вил@@ 1
1894 1
ровка 1
ду 0.4208424840245616
лод@@ 1
так 0.5270140889218162
неф@@ 1
бом@@ 1
кономи@@ 1
жени@@ 1
фре@@ 1
фар@@ 1
IX 1
место@@ 1
w@@ 0.03176108539900433
1.@@ 0.28371153988081416
700 1
XVIII 1
степен@@ 1
произведе@@ 1
публика@@ 1
стат@@ 1
es@@ 0.04518681281795103
избира@@ 1
сня@@ 1
команди@@ 1
огро@@ 1
9,@@ 0.8764507873701488
щем 1
няко@@ 1
1880 1
1898 1
XIV 1
ad@@ 0.04296429535388242
1897 1
кру@@ 1
стер 1
or 0.021924897290676894
нович 1
решения 1
лик@@ 1
Москов@@ 1
баталь@@ 1
di@@ 0.044986557875979494
води@@ 1
Лит@@ 1
привле@@ 1
дивизи@@ 1
11@@ 1
обозна@@ 1
наб@@ 1
el 0.009315142192848574
персона@@ 1
заво@@ 1
” 0.13687345625105352
зах@@ 1
at 0.01333938667413014
ec@@ 0.0647161963274255
Car@@ 0.10776482997853111
Казах@@ 1
шен@@ 1
рд 1
XVI 1
съю@@ 1
ana 0.09021705407395052
ar 0.026462873089560603
en 0.004875349736800811
номе@@ 1
тол@@ 1
приме@@ 1
кино 1
подразде@@ 1
версии 1
хов 1
обу@@ 1
ys 0.40453704952145997
Мат@@ 1
ri@@ 0.07808376004384496
други@@ 1
свобод@@ 1
всем 1
1890 1
TV 0.3006621926004214
1500 1
аври@@ 1
as 0.008844482024966632
провинции 1
ники 0.5746119982046294
ica 0.11272846950386747
завод 1
1879 1
1891 1
Все 1
гов@@ 1
огра@@ 1
́ 0.2747649952847235
уст@@ 1
сте 1
онат 1
bi@@ 0.08601587017578544
тур 1
фе 1
одо@@ 1
Кав@@ 1
Константи@@ 1
kg 1
Ита@@ 1
архите@@ 1
no@@ 0.12110054331797206
Мно@@ 1
ждения 0.8773946890814591
пере@@ 0.1364983798164006
маршру@@ 1
арх@@ 1
1870 1
сор 1
og@@ 0.11483662717728245
компа@@ 1
воз@@ 0.3119995118292545
евич 0.6634643240571821
научно 1
провод@@ 1
люб@@ 1
серта@@ 1
споме@@ 1
Th@@ 0.07821838157166434
180 1
иту@@ 1
Дне@@ 1
попу@@ 1
пр@@ 1
1893 1
Василий 1
ter@@ 0.05905704654530012
мана 1
измене@@ 1
Пари@@ 1
вез@@ 1
1889 1
пълно 1
ed 0.009582947283852684
1892 1
XVII 1
1886 1
C. 0.4314301070154232
абсолю@@ 1
вое@@ 1
b 0.08455967651232117
нич@@ 1
сфер@@ 1
пун@@ 1
im@@ 0.04222404252366643
заме@@ 1
Par@@ 0.09323706886880763
обнов@@ 1
вов 1
пору@@ 1
лиш@@ 1
позво@@ 1
лес@@ 1
Участ@@ 1
навли@@ 1
1881 1
губерна@@ 1
тюр@@ 1
Плов@@ 1
кавале@@ 1
гла 1
ту 0.43665379133753446
U 0.17375676478097585
нк@@ 1
гни@@ 1
характе@@ 1
седате@@ 1
досто@@ 1
1,5 1
явление 1
1884 1
os 0.026136468770368553
религи@@ 1
118@@ 1
уро@@ 1
1883 1
бронзо@@ 1
авиа@@ 1
Миха@@ 1
ea 0.23036990860225723
француз@@ 1
Ac@@ 0.20868918583681392
ré@@ 0.06458040387618147
3000 1
вел 1
армии 0.9651573640134395
учре@@ 1
следовате@@ 1
00@@ 0.48590887716118275
с. 1
глу@@ 1
шоу 1
станции 1
ром 0.20273749474024458
re@@ 0.013677969441042232
st@@ 0.027677939491371487
отра@@ 1
po@@ 0.04882532169292569
r 0.09915155844969825
Windows 1
di 0.188764190562573
1860 1
Y@@ 0.06890029994341434
ci@@ 0.07005046322040802
вили 1
лята 1
ati@@ 0.08315414433626481
преду@@ 1
Робер@@ 1
ного 0.07704096859010237
лян@@ 1
противника 1
внима@@ 1
Тат@@ 1
XV 1
ig@@ 0.056354350452347435
кров@@ 1
жил 0.965204246161521
педагоги@@ 1
XII 1
tienne 1
Population 1
дю@@ 1
Co@@ 0.10110568599782732
сите@@ 1
Од@@ 1
Br@@ 0.07052611656190134
édo@@ 1
160 1
дей 1
to@@ 0.07562405463420499
Констан@@ 1
1888 1
корпуса 1
писал 0.9951078041198584
Re@@ 0.05787957174383126
alis 1
мум 1
секре@@ 1
брон@@ 1
сей 1
Нар@@ 1
архе@@ 1
K 0.2109339545304183
фрон@@ 1
начи@@ 1
ation 0.01684565006626739
Джей@@ 1
назва@@ 0.8109908306636782
Федера@@ 1
Сергей 1
цу 0.8939213823037897
шел 1
мел@@ 1
1848 1
Ph@@ 0.15292904655024955
жет 1
ктора 1
вза@@ 1
находи@@ 1
Cr@@ 0.1675304385669012
XI 1
Азербай@@ 1
1882 1
us@@ 0.04177608100735551
кисло@@ 1
1871 1
зя@@ 1
XIII 1
Зав@@ 1
начал@@ 1
ab@@ 0.03424426062960779
1887 1
Стефа@@ 1
бело@@ 1
oph@@ 0.28107042039859315
w 0.056705568237207495
хер@@ 1
бат@@ 1
Петро@@ 1
зии 0.9558320453102104
жиз@@ 1
Гър@@ 1
показате@@ 1
парта@@ 1
числа 1
pr@@ 0.05461300476889759
коман@@ 0.8528435981502118
практически 1
1875 1
Le@@ 0.0824924711594994
час 1
le 0.007739221365284864
• 1
ir@@ 0.04866161715441484
дово@@ 1
1872 1
Авст@@ 1
ed@@ 0.05319192800341064
114@@ 1
dae 1
название 0.8426594181860427
un@@ 0.02791643287829793
наход@@ 1
per@@ 0.04245947720196928
av@@ 0.05930954346004017
участи@@ 1
лах 1
реб@@ 1
миро@@ 1
140 1
World 0.09759188674294747
ников 0.3170980779954936
ру 0.7118897525324465
школ@@ 1
актри@@ 1
рам 1
сиона@@ 1
неде@@ 1
You 0.41640202022799844
приз@@ 1
130 1
иници@@ 1
ном 0.10188391326308353
показа@@ 1
оне 1
2,5 1
заклю@@ 1
ach@@ 0.061503639630749535
носи@@ 1
вила 1
Сою@@ 1
5000 1
лосо@@ 1
f 0.0679516758749294
Екате@@ 1
фикации 1
na 0.10183936915095113
Кита@@ 1
бу 1
мии 0.9665028419386221
сей@@ 1
yl@@ 0.1962358183878263
вой 0.19540696252283707
aceae 0.5003341645438448
da 0.04976900466691231
кир@@ 1
1869 1
WWE 1
115@@ 1
‰ 1
1867 1
1864 1
ровки 1
z 0.05356532244410821
Bo@@ 0.10963997948224241
записи 1
co@@ 0.03851144380972864
осъще@@ 1
храни@@ 1
110 1
900 1
XX@@ 1
Mar@@ 0.049056790594291265
оче@@ 1
Com@@ 0.07464014436979362
бити@@ 1
гато 1
Евге@@ 1
2.@@ 0.24248529585176742
безопас@@ 1
it 0.015104369330431364
lidae 1
лагер@@ 1
лом 0.3726258525065244
персо@@ 1
бай@@ 1
раз 0.8142334357332643
1200 1
ню@@ 1
хоро@@ 0.9605129436159722
Ленин@@ 1
движения 1
pi@@ 0.068681850011788
ru@@ 0.08527255257801669
су 1
ob@@ 0.06266777342844519
Ю 1
ni@@ 0.0650814680392706
Bar@@ 0.08460952505501261
бище 1
eg@@ 0.05749885377060189
креп@@ 1
област@@ 1
one 0.02371776271244233
ор 1
1874 1
ВС 1
иму@@ 1
спорта 1
ѫ@@ 1
1868 1
am 0.0272026961627972
ep@@ 0.10218912774546066
ху 1
ella 0.1981180026924497
Англи@@ 1
1866 0.8792735713203627
лович 1
br@@ 0.03908933896846005
трудо@@ 1
епар@@ 1
нил 1
qu@@ 0.03298343720767049
патри@@ 1
1861 0.9764538254316423
место 0.5069197576569956
Records 0.3181209341740051
ate 0.023691317089536153
de@@ 0.030903641401533705
евро@@ 1
Уни@@ 1
стото 1
отличие 1
ври 1
quot 1
Am@@ 0.10003633285261215
Дим@@ 1
par@@ 0.03728013670081874
au@@ 0.045057720512768865
Дмит@@ 1
De@@ 0.0922747763853927
350 1
пят@@ 1
Алексе@@ 1
ens 0.04639672190443921
истории 0.7690418976756432
ber@@ 0.05113085535808326
птем@@ 1
цев 0.38514035533059515
Кана@@ 1
116@@ 1
ch 0.049101528269964154
1863 0.972802749345713
Ex@@ 0.0886413755879188
vi@@ 0.050838636045325396
готов@@ 1
кива 1
Sh@@ 0.06858029136275308
OS 0.5662610887192091
метра@@ 1
ордена 1
правило 1
кина 1
gr@@ 0.05130723912193883
1850 0.9647099201704983
район@@ 1
117@@ 1
all@@ 0.07539035150754848
нах 0.6983176619623923
1865 0.9371710544744074
его 0.08647930647777141
Col@@ 0.08822065920123791
1830 1
Mon@@ 0.08006316844097733
for 0.007221796119400617
принадлежа@@ 1
говото 1
Так@@ 1
млад@@ 1
tu@@ 0.09375542290550086
1800 1
отец 1
Сак@@ 1
ut@@ 0.05323699502741355
химиче@@ 1
ers 0.016237557713858642
имуще@@ 1
дис@@ 1
Love 0.42535354655149077
получи@@ 0.8697073235336388
ti 0.1505872771893441
Q@@ 0.15364434864529375
que 0.007989239663355682
Мини@@ 1
публика 1
категории 1
ie 0.02650153316906884
ST@@ 0.7966738434628372
сериа@@ 1
сил 0.9171985747538262
mo@@ 0.05609902742238502
170 1
ve 0.024753434253840953
домаш@@ 1
si@@ 0.04286166053426348
груп@@ 0.5127162183626516
yr@@ 0.13984960008816086
125 1
ter 0.02858163848250121
DVD 0.633527573484453
шли 0.6714573925988792
ell@@ 0.06778515897869754
рович 1
2022 0.32418618844326286
do@@ 0.06626299326686882
КП@@ 1
te 0.014365774675342278
Осман@@ 1
113@@ 1
3.@@ 0.24500687237533172
лаго@@ 1
1856 1
Di@@ 0.06806413249404039
… 0.28322615706527765
степенно 1
tic@@ 0.10978638355964981
se 0.009674132805513682
второ@@ 1
1862 0.8866167975215336
ас@@ 1
1859 1
ѣ@@ 1
ent@@ 0.026379230193987746
оте@@ 1
um@@ 0.03707571662535893
мерно 1
лъж@@ 1
# 0.31307498689628677
милия 1
голо@@ 1
Sp@@ 0.0925533098402397
Мек@@ 1
age 0.024390388837630925
ale 0.038164380149873375
шва 1
рей 1
ich@@ 0.10552987442281063
получил 0.4682345786897678
графа 1
ath@@ 0.07731739014590863
mar@@ 0.041376829787036155
der 0.003710079099029213
сть@@ 1
Коро@@ 1
Str@@ 0.0968199184021252
des 0.005682055706546737
pl@@ 0.04043929935559653
ССР 0.8248715666034142
фронта 1
сдел@@ 1
дивизии 1
uc@@ 0.0893230660747651
ent 0.014644847875433884
дли@@ 0.7576265986093534
степ@@ 1
лектро@@ 1
anus 0.8876656838694853
ma 0.07802738023226458
Cor@@ 0.0884937224656225
4000 1
хри@@ 1
105 1
Cal@@ 0.15927812996336124
23@@ 0.7861488553615483
1858 1
среди 0.5307606239724997
Se@@ 0.06572908091347944
Велико@@ 1
смо@@ 0.5722253416088773
дея@@ 1
1840 0.9716297475926077
Be@@ 0.048681991959792247
1300 1
He@@ 0.08379539384300724
US@@ 0.35930430161535026
ran@@ 0.060346281544766386
ing@@ 0.052735262796321604
az@@ 0.06580918082511937
зидент@@ 1
Gr@@ 0.06037527586258997
пас@@ 1
Еги@@ 1
Per@@ 0.07308412585771258
em 0.08679322465798342
4.@@ 0.24907494479831746
bus 0.3299636277715707
1600 1
bo@@ 0.04603581361397365
сок 0.8973377110476529
450 1
мах 1
Hy@@ 0.29060634156543064
gi@@ 0.047265170453562974
icus 1
Cy@@ 0.34828770135746967
Or@@ 0.06862562911515369
1849 1
ari@@ 0.10833135231344235
Qu@@ 0.06343866387276013
матри@@ 1
бов 1
101 1
гвардей@@ 1
даже 0.8201660554182746
Александра 1
³ 1
ну 0.41370036167836377
,@@ 1
серии 1
1806 1
Hz 1
Google 1
cus 0.4712360128497802
полка 1
цик@@ 1
Me 0.44972201162296804
дека@@ 1
ore 0.07679656521607602
1854 0.9996282686817374
говори@@ 1
New 0.03708225746456596
ov@@ 0.07702890005983648
лум@@ 1
Анато@@ 1
0.@@ 0.14459700403742398
ca 0.09076178938064336
ad 0.04780262300937848
codice 1
oma 0.19998802738281882
eph@@ 0.5412828023836189
ver@@ 0.016099842926711155
рован 0.9187245727231902
мед@@ 1
Microsoft 0.8820255233448955
En@@ 0.06953456216124135
1853 1
urus 1
Климат 1
102 1
1857 0.9276146881528894
ay 0.0486611020636373
est 0.007373156327574899
re 0.0367282607742485
Рос@@ 1
стана 1
чат@@ 1
хе 1
eb@@ 0.04508660277373274
ell 0.05975547713921641
Бълга@@ 1
гото@@ 1
гу 0.37333960884751066
зей 1
ким 0.39212129438362586
ници@@ 1
ходи@@ 0.6337923853349665
1700 1
× 0.5084428449660829
Ш 1
Music 0.17729095564326952
Ne@@ 0.06554998681478046
Cl@@ 0.1133183913557261
My@@ 0.3208856121662404
inus 0.9898930385495597
{ 0.5707043769380405
con@@ 0.019592197158796978
12,@@ 1
ic 0.033703697504257064
і@@ 1
Отече@@ 1
Украин@@ 1
Сол@@ 1
том 0.08483754858655658
por@@ 0.08692908056243139
UTC 1
CD 0.29424545029941107
играл 0.7317830842481969
учения 1
5.@@ 0.2548157869439899
CO@@ 0.339284842443405
For@@ 0.07274418380602041
ra 0.06148712390321808
Po@@ 0.10700952767048205
IS@@ 0.3077382880414455
ura 0.1311793141840654
коне@@ 0.8376403502581551
3,5 1
hy@@ 0.2037660235157124
сами 1
can@@ 0.09598686939318056
Афри@@ 1
tion 0.02141383672667553
ce 0.030045915004921788
губер@@ 1
Завър@@ 1
ist@@ 0.05114938236148975
1821 1
Sc@@ 0.24780423435475432
era 0.04058722494684301
завое@@ 1
педаго@@ 1
Ad@@ 0.06774086455339134
all 0.024569140630699815
лял 1
RA@@ 0.316148878241184
мая 0.27940631947400596
После 0.19237863315763354
str@@ 0.040097431840829055
Pr@@ 0.060329453780529486
Вилхе@@ 1
1815 0.9920430998663043
In 0.008705966550208381
ниц 1
Ro@@ 0.06198271300726648
1831 1
1812 0.9763842470491652
ne@@ 0.04642396949074017
Te@@ 0.11693274857242913
ans 0.027286887324821336
yc@@ 0.2659653701996447
мож@@ 1
1835 1
гвар@@ 1
сезо@@ 1
ряд 0.7280607059172374
Lo@@ 0.09458920991236269
1829 1
My 0.36804743426590175
Un@@ 0.08594062122166525
ass@@ 0.034912092742767506
240 1
ili@@ 0.08307919886217367
Pro@@ 0.08989758795989154
J 0.26979815285844844
eus 0.7854375015443251
rom@@ 0.11707526745009234
езе@@ 1
тта 1
1855 0.8651369266097986
горо@@ 0.5292796848926798
ними 1
est@@ 0.03234411780836557
127 1
TA 0.46922711111827525
необ@@ 1
pe@@ 0.04864973207123742
Разпростра@@ 1
− 0.49325238384499703
1852 0.9062795193149531
ex@@ 0.018342826694247052
1845 0.9733140341692302
1828 1
tri@@ 0.040708133898583715
AR@@ 0.2460005606088348
Z 0.27741465494647183
сков@@ 1
za 0.09171463090249371
lu@@ 0.07223840114849295
ит 1
10,@@ 0.9168693831076401
v 0.07346784847898535
ког@@ 1
Y 0.23606789370119094
ou@@ 0.03651116195963924
Пере@@ 0.9744848296606146
Mus@@ 0.10367305932076847
атов 0.6051441019156448
1820 0.792850842481479
car@@ 0.04114710601681396
oth@@ 0.10409573100141993
прак@@ 1
act@@ 0.222098036471139
eri 0.31392774049795463
se@@ 0.02833514067615318
sp@@ 0.03973366060309508
рая 1
1837 1
so@@ 0.04591491308190685
ang@@ 0.03280463034027973
ai 0.07123686670173913
ог@@ 1
hi@@ 0.05531823094018487
1814 1
служил 1
счит@@ 0.7367108904125245
общества 0.8450091406392743
1847 0.9315925561492618
Ag@@ 0.14390378292781206
mac@@ 0.391960000287561
Mo@@ 0.09208088663981089
1841 1
152 1
220 1
Ma@@ 0.08177853463814054
Калифор@@ 1
ску 1
появи@@ 0.6812696812673416
исто@@ 1
митрополи@@ 1
ОО@@ 1
комите@@ 1
​ 1
зиди@@ 1
похо@@ 1
6.@@ 0.23268216664473448
блиоте@@ 1
ML 1
tidae 1
International 0.09823059821038672
0,5 1
осу@@ 1
ченко 1
1851 0.8453502243210677
7.@@ 0.2382908715811511
ons 0.028948318935623264
yp@@ 0.15236416482672843
1844 0.9859483520998469
птември 1
1846 0.900846110965483
360 1
9.@@ 0.290374655118462
per 0.05588138714666851
ная 0.05316292085476536
Занима@@ 1
1836 0.978212198743878
sch@@ 0.02316436493847044
Ж 1
гну@@ 1
Li@@ 0.06975617429832064
sh@@ 0.02270975451701796
Live 0.40548357010082525
начина@@ 0.7969733275280892
iz@@ 0.05206645764225844
ларов 1
Dr@@ 0.09631348470130743
рополи@@ 1
смет@@ 1
amb@@ 0.08788396205342384
стоян@@ 1
Красно@@ 0.8692654030025411
ап@@ 1
1400 1
ops 0.1580680152667661
ский 0.040376203218608846
alus 1
1792 1
2500 1
Ser@@ 0.10354765929038755
ol 0.06837505380720554
MS 0.4457979290085562
ly 0.018242554614262357
ями 0.266192224773243
Tur@@ 0.08149268204967569
und 0.003486087987646428
зал 0.945325538973202
ak@@ 0.031041354895389464
ho@@ 0.050938064780567255
aur@@ 0.1669410327052212
ill@@ 0.055823410106777334
11,@@ 0.86141255069516
Ab@@ 0.03648603878540186
програм@@ 0.46315268990702196
4,5 1
Tour 0.18915392211794282
AS@@ 0.2398942308468613
hin@@ 0.18089458666962402
ся 0.38613503315785863
Хайн@@ 1
did@@ 0.2463055195237113
1839 0.9509636364551979
1843 0.9697646273513876
80@@ 0.7730943243515935
El@@ 0.048535982902455435
are 0.010552531217413605
io 0.08437202017301557
ps 0.09774188298293343
Go@@ 0.12942987678276893
106 1
кий 0.41712004368288846
жили 1
com@@ 0.02426050110753063
оказа@@ 0.579852300096581
280 1
вос@@ 0.3942305720312765
onidae 1
8.@@ 0.2417579417623277
un 0.005191757439586836
opus 1
lar@@ 0.08505071358497185
One 0.1092225454855589
Цер@@ 1
ax 0.4508334807657911
inc@@ 0.04606067305920204
завода 1
Can@@ 0.13574084501817926
iv@@ 0.06708862479997708
ская 0.07369634836836367
дето 1
1818 1
tor@@ 0.04764130654812757
ον 0.9861510120070743
1832 0.9282139799821363
1838 0.9020468577124207
1834 0.9408569023895493
tes 0.036393907126096726
13,@@ 0.9044950433402632
Pi@@ 0.11088973094097539
mag@@ 0.10447288711777152
гим@@ 1
ii 0.7375838759504342
чате@@ 1
cor@@ 0.047399324890822464
ok@@ 0.05831365104959905
cr@@ 0.04554909077326568
лю 0.6627222884132435
тии 0.9282882512990525
стал 0.16030031992619434
j 0.17758125667278732
.com 0.4782784132205506
135 1
750 1
безо@@ 1
1810 0.9898045949148089
ik@@ 0.03759810243579756
института 1
ue 0.03622726793269017
ae@@ 0.277376163668172
столи@@ 1
1793 1
публики 1
108 1
ge 0.030371747871244813
AC 0.29207188443977256
1842 0.872949737415558
ula 0.4106429907216256
osa 0.15083793026483386
if@@ 0.05511495997939956
1825 0.9997607916498045
los@@ 0.1412354558537792
All 0.09905297129392998
1822 1
Ap@@ 0.16445636866263932
ola 0.172086825352151
даря 1
франц@@ 1
190 1
V. 0.2942317369447199
man@@ 0.0337475405760018
Her@@ 0.0530537987688421
Life 0.21076472429091112
ice 0.035008996149407605
mon@@ 0.03268479343198447
ne 0.0209137410017608
1813 0.9667165659588286
and@@ 0.03526074260816642
It 0.01674006414446588
103 1
впа@@ 1
ten@@ 0.02826010826835514
320 1
il 0.012235674346853036
Si@@ 0.1033465412035132
To@@ 0.09092118465184362
ha 0.05906537136101034
id 0.04634226301347161
ot 0.06282387176459218
Group 0.14743091939136255
Pe@@ 0.096184728827823
ma@@ 0.04944592066756782
104 1
Mag@@ 0.09227871983676791
ini 0.08670433027308631
ite 0.025454321606970726
Sch@@ 0.019416603688495477
Сем@@ 0.8143333557465824
ion 0.046077141780556004
ora 0.09484661739600156
tus 0.508628085576414
Billboard 0.3277009583907875
ant 0.012916592618130437
степени 0.7237268357255073
Ge@@ 0.04881162867469619
Les 0.034430582981868955
ant@@ 0.04386072501872975
man 0.023977885275601653
сток 1
1789 1
Vi@@ 0.08954157712837384
nis 0.15473915643950484
Sol@@ 0.11307207203859251
WW@@ 0.9919156066373569
1795 1
orum 0.7466871193457499
od 0.06622816789433997
si 0.08863851127522696
109 1
Black 0.17481330442540235
ight 0.06772036764026823
Tri@@ 0.09104618463648825
1803 1
int 0.2869664553454973
tra 0.11630624420926218
комитета 1
128 1
te@@ 0.027250765143954664
ty 0.03480475430022425
нем 0.5552285236231423
1797 1
º 0.47575449999120567
prin@@ 0.24522290296276247
end@@ 0.025557209099383183
à 0.004560111322380275
ard 0.03523184025860049
lan@@ 0.06653813616968034
mi@@ 0.04669145559470042
230 1
CA@@ 0.18813484844424405
SS 0.26722367006389863
1790 1
yth@@ 0.2145020990757184
tis 0.21491900949063256
Wor@@ 0.10290486664036311
авиацион@@ 1
онов 0.6218055596516254
179@@ 1
Mor@@ 0.053361011367606806
москов@@ 1
служи@@ 0.6435904404472019
1819 1
107 1
Rock 0.24924306659888112
Воро@@ 1
друго@@ 0.8897667065801115
имен@@ 1
ena 0.06779568165828787
14,@@ 0.8702139951965394
du@@ 0.059446526296710024
1833 0.8691186685083383
ann@@ 0.041464463034310124
HT@@ 1
Ver@@ 0.020512672150996916
оборо@@ 0.5059735057053877
1,2 1
1805 1
RO@@ 0.4845075558250583
руб@@ 1
oni@@ 0.0982435565707608
ure 0.02937962989328032
ске 0.4176826161889755
Tro@@ 0.13206296512272492
ile 0.038682532197918514
док 0.8599569724141766
Wrestling 0.6232927005261281
Do@@ 0.11928738337688247
II@@ 0.9277854970274492
ka 0.06778466514898808
Java 0.9601878602517013
Hol@@ 0.06856811101711562
36@@ 0.9095336547346938
ere 0.04183422162455757
1808 0.9904819326176962
Ca@@ 0.26385679607740525
стали 0.42988647194464014
210 1
Fr@@ 0.0710437220269766
Роди@@ 1
ous 0.03202569633271129
son@@ 0.08636114777347788
122 1
tel@@ 0.06324668436824392
As@@ 0.0795450497524089
1816 0.9441874166029076
1799 1
40@@ 0.5168674160934428
cu@@ 0.03917808978928939
do 0.032823848051975996
ком 0.1221667846053471
be 0.010067075328776659
Филип@@ 1
Man@@ 0.05223976882378151
СС@@ 1
1817 1
отказа@@ 1
34@@ 0.8784545650463383
Q 0.2887299960369261
ος 0.15021197226400895
Fe@@ 0.16897202638451891
och@@ 0.2135457174936126
сол@@ 0.5365014098162332
cul@@ 0.0877627489104877
синг@@ 1
At@@ 0.10629204782931015
приве@@ 0.7239469770640912
115 1
Bl@@ 0.08988116444345108
1826 0.9243670659344185
ain 0.04173377872914049
ino 0.047436401282539
EP 0.30705038560528086
th 0.017663249431878643
върх@@ 1
присво@@ 0.9313286617069717
col@@ 0.03691671561377805
no 0.018466234274253143
1801 0.9523153045982006
Ty@@ 0.17696638208650697
co 0.043369556918499835
Apple 0.6308065794243355
by 0.00401861564072707
1807 1
рах 0.3645769660566824
AP@@ 0.3268758892052925
lin@@ 0.04340324037889223
Ο@@ 0.41475072238767724
рован@@ 0.21539116870302916
щие 0.6815094617874142
ick@@ 0.0421948280248321
ору@@ 0.2912940553157692
out 0.024781122434810867
35@@ 0.641600672735328
твер@@ 0.7886799067941154
ari 0.12740578024332555
260 1
yn@@ 0.11338726287148757
ni 0.09628789123977176
550 1
Cer@@ 0.1534820820213067
Entertainment 0.3503309749771334
uli@@ 0.2711814285220196
ях 0.16283637438270662
eli@@ 0.121639597044448
Я 0.6728501088119762
ts 0.013100815201213874
Ря@@ 1
650 1
ator 0.06691907426231966
be@@ 0.014292969114565427
me 0.032882199357194684
é 0.009107345617479203
1804 1
ь 0.05562865289344357
ei 0.1344027276154052
ks 0.0279718237038791
126 1
Uni@@ 0.23057991808038772
la@@ 0.04652392361200793
Α@@ 0.2304610638749662
1794 1
Dis@@ 0.10027313762443475
270 1
mel@@ 0.13643538806816224
ake 0.09284251889422582
330 1
380 1
α 0.15200641050793234
vir@@ 0.17690147871152143
ото@@ 0.913571761037125
1791 1
123 1
Fl@@ 0.05760245664179229
ani 0.10036561129951858
Fi@@ 0.12525067968650033
Gu@@ 0.04418531069710421
ess 0.03697361039134299
ost@@ 0.17938257070382393
111 1
Le 0.015318796723748487
жер@@ 1
ary 0.0180445199484571
ace 0.051328255152280226
жур@@ 0.6223471537999405
1824 0.8550042485252091
33@@ 0.7800006610866214
стой 1
ala 0.09126375183476296
СА@@ 1
enti@@ 0.03518836987212716
бка 0.6627861738935124
1798 1
No@@ 0.1572449501533052
корпу@@ 1
.-@@ 0.7500304189466963
De 0.06315962726638476
Mel@@ 0.14543824921469073
Micro@@ 0.848109749885821
aria 0.11376519137094589
1827 0.9214842551240795
10.@@ 0.38772342687530736
1823 0.9371970112546416
дет 1
112 1
Ho@@ 0.0888582476200713
ya 0.029469623236117914
15,@@ 0.894990230862076
Ι@@ 0.47009687782750725
7,5 1
Bur@@ 0.05902769658399804
No 0.15124133324260047
дела@@ 0.49163794702438307
37@@ 0.828122523165321
á@@ 0.03580531029615697
175 1
ity 0.019491631447775673
воло@@ 0.5417795952729565
3D 0.5997213573392828
for@@ 0.021435595497361716
su@@ 0.020780233700210524
und@@ 0.032229493150835925
So@@ 0.07998732962906752
oides 0.6932004026240864
значения 0.5720985910466075
50@@ 0.34148928327039624
Company 0.11154887024111546
логии 0.6394346160616307
den 0.004992522671701388
Воло@@ 1
AM@@ 0.306313813766159
fr@@ 0.04266947656540518
ge@@ 0.020292458593693226
ides 0.08570546031782486
oni 0.2375889495237935
дере@@ 0.5556150149185173
124 1
af@@ 0.02614350952243752
IN@@ 0.2497273871610036
1802 0.9286519028611223
Er@@ 0.02767694713968038
Op@@ 0.1468217607146239
ance 0.019982523901280774
nch@@ 0.21935070035528542
les 0.004689133428029677
1809 0.89265838599255
AT@@ 0.27824095045585995
хии 0.8741216165917557
22@@ 0.7353841008896557
Bi@@ 0.05751286582894358
12.@@ 0.49757403420048085
арми@@ 0.7608950798273126
лектри@@ 1
ence 0.018377260793763676
114 1
Mer@@ 0.07683370220276885
117 1
17,@@ 0.8629106971587714
ES@@ 0.23790685526160094
up@@ 0.044695511209579465
ra@@ 0.04266793847378599
NE@@ 0.402461312591911
ys@@ 0.11907884130109049
ay@@ 0.03552947269638518
луч@@ 0.2482161267479041
см@@ 1
ano 0.03356482135814432
cin@@ 0.10237154299108281
ur 0.033010030098542406
ai@@ 0.1054668725506121
соз@@ 0.9725676261620114
рь@@ 0.6643218587030749
рян@@ 0.8886268267478821
Τ@@ 0.2161497270618902
→ 0.9161290736031857
School 0.04436968164042774
bl@@ 0.034466791853601186
РС@@ 1
мага@@ 1
ev@@ 0.03034464547807551
38@@ 0.7657322602353628
cop@@ 0.08974936027631587
ser@@ 0.03520133648056054
Pol@@ 0.058790766739756084
UN@@ 0.29409238012001726
Time 0.2605313569347747
бря@@ 1
Bel@@ 0.050202865694607114
ali@@ 0.040220841823425994
ek@@ 0.03665818450471579
dia 0.13311484732044496
ius 0.2934021721865529
Me@@ 0.049218866948699584
FI@@ 0.24999157905432387
ey 0.05007110729812009
кая 0.3284902822043608
ј@@ 1
спорт@@ 0.9761622083833961
шед@@ 0.5924354391038432
Min@@ 0.06505855526204332
ara 0.061663649903676274
Австра@@ 1
16,@@ 0.852806144495564
Ч 1
min@@ 0.027520776455129715
каде@@ 1
пр.н@@ 1
ib@@ 0.05294842269987336
om 0.07795951779953272
sol@@ 0.03197538614730611
гля@@ 0.7356633408658669
mer@@ 0.029587766587277978
Inter@@ 0.05761533973779726
son 0.008496851285060655
1811 0.8596743203355579
ings 0.023754630291562287
дя 0.8545093242806042
25,@@ 1
ba@@ 0.056605330218941305
cap@@ 0.04588288478446784
del 0.006119007828839489
Σ@@ 0.1409451418799782
преимуще@@ 0.8323375854952199
€ 0.5887425293830227
abr@@ 0.14615832997995898
sus 0.03260694370696073
è@@ 0.05861822067799267
Empire 0.16140439442753907
SO@@ 0.4021640146017646
пор 0.8710587964971367
yg@@ 0.3350435790259766
Ot@@ 0.16902268539257778
alb@@ 0.17641108607419173
à@@ 1
ning 0.05039697536286438
ord@@ 0.047864423066846636
Й 1
Mal@@ 0.05506367347338797
der@@ 0.026806497704362237
ros@@ 0.1874042503863945
bu@@ 0.051475572323669186
Κ@@ 0.16871305833591105
ug@@ 0.05192749660990146
Cas@@ 0.08901647189539684
Eth@@ 0.37263883057668074
город 0.2586911689279967
American 0.0273573770427669
ema 0.11453980158748177
сад@@ 0.500263768719584
121 1
18,@@ 0.8476718512810119
We@@ 0.04347449334909843
IBM 0.8449274779890821
anc@@ 0.043734844750490054
ici@@ 0.04261493648586577
Δ@@ 0.3470011759207867
IC@@ 0.228370205623013
ak 0.041197352717265844
ef@@ 0.044158421651312126
Bre@@ 0.08795939440766871
NO@@ 0.491230579697132
ref 0.3965088858674688
Su@@ 0.05825128545762741
dr@@ 0.03160760205905294
he@@ 0.025613130665333033
tor 0.03830394117560608
Елиза@@ 1
ect@@ 0.10678364226780562
город@@ 0.32839597406306625
end 0.022589193270597246
sit@@ 0.10695630542062211
Мекси@@ 1
вое 0.19354414329686528
118 1
Hot 0.29962584164607925
PS 0.26146605339482704
ISO 0.9632413343796586
ta@@ 0.049476768879191564
ответ@@ 0.7468419125037173
chi@@ 0.08190404320254908
Mark 0.16120149649784665
Брази@@ 1
Of 0.2584518963481089
Как 0.4909670257886912
Cha@@ 0.741259814784931
ton 0.024153048292805974
Fre@@ 0.04740357361681442
SI 0.9350317442839879
атом 0.48087169825970805
129 1
155 1
Disney 0.32827835571827474
IM@@ 0.3577358317669847
ita 0.06184168864472209
du 0.004639086021174916
Gal@@ 0.07371163312840817
ello 0.12196758388292364
illa 0.1035091676612346
19,@@ 1
Network 0.31452644272984814
view 0.06597362755215498
рование 0.5387457100056403
уез@@ 0.5502546552272959
надле@@ 1
cer@@ 0.049652204798287594
Thr@@ 0.23432619223127096
SA@@ 0.2426701659582153
бере@@ 0.36822604906935213
мь@@ 0.4824552122365959
рования 0.35592512460371317
chil@@ 0.22968585736343874
ler 0.02435938918767833
Анг@@ 1
gu@@ 0.024957095023211497
nig@@ 0.8327354968189172
é@@ 0.011285646446173346
cur@@ 0.04596219895398642
Por@@ 0.08383822045625743
них 0.09703103687323193
opter@@ 0.9177691835074285
ā@@ 0.11603105047911781
IP 0.48969314132563424
anth@@ 0.16622656314925882
пу 0.46667186924667087
Au@@ 0.06328293977556322
Linux 0.7591804687614389
ym@@ 0.09261796304785289
преки 1
ff@@ 0.03484643585539706
land 0.019518187745585006
tro@@ 0.04291446365566172
pen@@ 0.05244239504746089
cre@@ 0.029895927864274602
Pl@@ 0.050508483010467196
39@@ 0.7473347272331422
Bal@@ 0.06260353858055337
ow@@ 0.033680183902074445
20,@@ 0.958467405609463
li 0.07988822529649933
ub@@ 0.05222509390098505
Elec@@ 0.14637615240512628
Man 0.13850613324090325
ida 0.04707988724788757
′ 1
Fac@@ 0.1714734461034666
яну@@ 1
amp@@ 0.06223656855897735
ars 0.04746383158167844
gen@@ 0.025163670341377863
проводи@@ 0.5028130985705909
Gl@@ 0.10024190700197048
Em@@ 0.07613092816515153
On 0.018617694997107
метров 0.2684572526472788
Ste@@ 0.05142507854049027
щена 0.7469974957536358
ain@@ 0.045346859052502804
del@@ 0.06554688047485537
int@@ 0.03181365867015346
Sal@@ 0.05601527328576158
sc@@ 0.03946643956821258
Hel@@ 0.10091469078837478
116 1
Tor@@ 0.0706441497977349
eti@@ 0.06916004923125539
IT@@ 0.44078202642363484
Times 0.16257903629221396
anti@@ 0.04478982251464144
Die 0.008702923316231053
Sil@@ 0.07963094816162292
ep 0.08136343398218203
} 0.32412567940142595
£ 0.21261962364026213
eps 0.3621550242483794
ulus 0.7681191240106757
газ@@ 0.7329755347168001
PC 0.2837937436733458
pal@@ 0.07147528513815633
bar@@ 0.033628416955930225
DJ 0.4542511310728527
ales 0.015378016181557418
ass 0.04908067290716274
Крас@@ 0.33168931418460657
цей 0.4369450962778563
зу 0.46590714487411394
MP@@ 0.3384019019590902
Bul@@ 0.11785102668329007
ori@@ 0.04771159534532826
vo@@ 0.03962085020645629
восто@@ 0.1550000516583709
145 1
gar@@ 0.06145941538710082
ory 0.037713825912864186
tica 0.09845078626640646
евна 0.7895428359529528
To 0.12901141294340074
Your 0.4096631507081481
eo 0.0743546977979825
Nov@@ 0.1368960525793225
Cre@@ 0.12068327828624313
ard@@ 0.04763862953588967
eng@@ 0.023552304378592875
ess@@ 0.028929746850457228
зербай@@ 1
š@@ 0.13613898974526606
27,@@ 1
aris 0.7674681475639858
ner 0.018692030124818054
Val@@ 0.07272710947398346
ates 0.025893871249594955
ster@@ 0.07311068951674017
MTV 0.527140871442588
ona 0.07791113680853379
кого 0.2057915750151936
atr@@ 0.0789833530090194
Leg@@ 0.07989183460712919
ex 0.14695352591119387
CH@@ 0.30911647128791897
ium 0.13466932907438617
tel 0.07764766500042103
Rom@@ 0.07337851436777135
Ε@@ 0.2097255468006871
45@@ 0.6320700270586033
60@@ 0.4764982708112707
War@@ 0.08931783268824926
ское 0.07070730764843322
ah@@ 0.027463016318286734
об 0.2785212068139672
Ber@@ 0.03209245182933636
ki@@ 0.07572501258051134
AC@@ 0.16870326113442963
ack@@ 0.045033506948603405
yi 0.3086879884073604
113 0.934098805030143
получила 0.5102630172419818
24,@@ 1
phil@@ 0.3627486633887375
public 0.04477735276946427
11.@@ 0.39098908555885
che 0.02859953070455648
1. 0.07992258458777252
Pal@@ 0.05278164550309665
fer@@ 0.029010633177128126
ens@@ 0.021485169726241822
проходи@@ 0.4881455836819416
On@@ 0.0944994294385532
lis 0.14505457809503525
ver 0.03898670523241257
близо@@ 1
ang 0.03172776921805023
unc@@ 0.0575715169516677
Warner 0.4484859048092307
A. 0.08910998238339841
Im@@ 0.07749732015845842
Pas@@ 0.09916103191219937
cript 0.2559896890641533
onia 0.11671810903517162
FC 0.06539943455414604
mat@@ 0.04028584721081881
млн 0.5275904991345923
ist 0.005547343337971419
name 0.027404068665321805
`@@ 1
bre@@ 0.03367833962813445
pel@@ 0.07857938947089538
Ang@@ 0.044374710385988135
Pic@@ 0.23167355281383517
cel@@ 0.08474352990965313
ise 0.019245234309806313
Населе@@ 1
ной 0.013822967818446295
ja 0.0674390713204774
mor@@ 0.0427851624779346
BM@@ 0.3251859092641139
ila 0.12179584299537817
thi@@ 0.12411810910326977
Air 0.08695978473601933
eri@@ 0.12145859977905821
lor@@ 0.2798390813077601
Dre@@ 0.11911139290621321
Chil@@ 0.15394590531675045
System 0.17967434944180746
ama 0.04874272716329036
rit@@ 0.06597643841583897
Scar@@ 0.4546654092029886
самостоя@@ 0.8988054003980688
26,@@ 1
Gi@@ 0.059194239562898335
uf@@ 0.06631454377817173
55@@ 0.8410559673803056
Mur@@ 0.08236647720700739
aw@@ 0.03203682296053125
ect 0.0395545087642112
Club 0.05990267476304087
e.@@ 0.22117566920018467
AN@@ 0.22659403835049313
MA 0.25764661191885146
зации 0.6038462612638472
Blo@@ 0.16739370753688187
sk@@ 0.04231551226384043
Pan@@ 0.08712324661615521
wer@@ 0.04073589127217341
Швей@@ 1
with 0.0027559929757798975
Meg@@ 0.3078395848427722
graphi@@ 0.2607525079697976
даго@@ 1
cal@@ 0.06524826657035768
iss@@ 0.05989706278474126
loc@@ 0.037779358301252834
BBC 0.17911437875342975
ade 0.02886554302265224
ceph@@ 1
ever 0.07924028175586698
Иванович 0.5906583156910634
Corporation 0.19771835955198372
Ur@@ 0.05927452062902658
tions 0.014789895824536199
urn@@ 0.13531532722717154
thr@@ 0.15822269609178286
High 0.07056822947619491
eh@@ 0.030363871210491236
вше@@ 0.2607405421130313
Grec@@ 0.6382339305223477
Night 0.25368623003458096
ast@@ 0.04409192082542806
\ 0.4392817825614904
toman 0.3575914872413311
pin@@ 0.12159192487485813
Mas@@ 0.05738266601690614
El 0.012262113005260764
Star 0.1358069641469852
Up 0.32833816716557035
ke 0.02921712307450269
ню 0.4487447834453987
Char@@ 0.06871478033902564
Hydro@@ 0.6696384654614179
Open 0.13730634774989411
bor@@ 0.03886411752316886
new 0.019998830677791755
ER@@ 0.21552140287076466
olo@@ 0.2856711358475121
деяте@@ 1
Is 0.267026060924126
don@@ 0.07982170946349232
Best 0.10923883726338476
SP@@ 0.2666876385860514
Eur@@ 0.19311000023758418
atisti@@ 0.7189216746826687
cl@@ 0.030568988785067013
the@@ 0.040039745456067435
132 1
Tel@@ 0.13121720907301557
iti@@ 0.045327050422723676
our 0.029277658708228987
года 0.010148149965994991
Kr@@ 0.037367604187933064
ister 0.14183782011296872
фестива@@ 0.5580985736472672
Sci@@ 0.3429565071765921
Cro@@ 0.07609058648940015
Eu@@ 0.2004363268397213
Sph@@ 0.8213229397174787
ko@@ 0.07543139283422079
ς 0.2564267124155815
Ниж@@ 0.6100892701656
Awards 0.10394944935235295
IE@@ 0.4299886561789301
48@@ 0.7531735165485172
DC 0.21834892160284128
va 0.04366068205246652
University 0.020770400846961194
Fox 0.23965457999260384
Red 0.10618443988224588
atum 0.3983550025454973
ics 0.03489067180382328
ki 0.061079542598769285
AN 0.3427052554377774
Vol@@ 0.07746553200382446
Il 0.013304204911364343
able 0.013439658290247077
q@@ 0.09303053691740341
Not@@ 0.09371137249282821
23,@@ 0.9219596684289186
AF 0.33864972427225426
adi@@ 0.04277023446147857
st 0.024562718022477194
ical 0.018479281381248845
low 0.02998646582676072
Fo@@ 0.09859870540055397
YouTube 0.3640132491233372
Χ@@ 0.2153376288512629
City 0.034215476790189395
Del@@ 0.06769483231576913
Ros@@ 0.06688917334761427
Vo@@ 0.1135759264784174
è 0.5718279289221793
USS 0.4621506019962396
ah 0.04413339399141106
Har@@ 0.04087711087151012
Pictures 0.47694021894580485
This 0.018659812461384255
Герма@@ 1
SM 0.5035549334836703
ud@@ 0.05655605553146142
Inc. 0.29256945368875054
ast 0.048402310835298945
im 0.00472863817490471
кафе@@ 1
клад@@ 0.7302909556943424
Blue 0.1741866807865182
Lib@@ 0.17850631586717441
Mot@@ 0.10979246632582856
ι@@ 0.12504875378043429
позволи@@ 0.6585887698557205
Media 0.17780387889731653
Pin@@ 0.16692710463079383
NA 0.3494015417455137
ense 0.05956017279837109
fin@@ 0.020198388193347298
pos@@ 0.019501970909783936
заня@@ 0.2653512252617636
пунк@@ 0.41008696507783277
моло@@ 0.32907446745294694
We 0.1725635883521377
ir 0.021721251707754484
· 0.034675227590821346
go@@ 0.04760028931735527
Syst@@ 0.17862306602089104
Π@@ 0.14741393233682712
22,@@ 0.92495500873056
ick 0.03446324767535094
me@@ 0.019795366387090424
ó@@ 0.02813701314303574
RI@@ 0.3252375246964487
pu@@ 0.034353657263105714
μ@@ 0.12745251850736553
Rec@@ 0.05775102019182839
ostr@@ 0.6794290721977231
National 0.025351859287848843
SE@@ 0.19352573896686956
omy@@ 0.8788605987254323
нок 0.35164750515699156
eter@@ 0.0845153777389615
Ρ@@ 0.21589046859562644
44@@ 0.753543299304089
ene 0.02574928809300746
Met@@ 0.08737895241397246
ry 0.04540274072818602
asi@@ 0.07496834146328125
igh@@ 0.054229170312897465
q 0.09716612614315875
TE@@ 0.3210992302459268
Hor@@ 0.062086087555067185
Wi@@ 0.09344798959533128
Sec@@ 0.09864529238117116
AG 0.21760856691782404
Channel 0.26446718381823736
Reg@@ 0.03939816736823597
SD 0.5092559563706782
ace@@ 0.15992614989738183
tar@@ 0.04128577313446758
Sor@@ 0.1786690714086613
til@@ 0.06820277348647594
ular@@ 0.21285677281538581
чел 0.5647866109499322
CA 0.19982031664105507
Studios 0.28166038088404327
Sy@@ 0.08999566125577718
ax@@ 0.0833112809602856
Bab@@ 0.15096144622383847
Cir@@ 0.1516580101577026
‘ 0.11391263424831254
Plat@@ 0.10498269165495154
` 1
phy@@ 0.32562257483468177
way 0.02534459917798512
46@@ 0.6821920497470948
Jo@@ 0.04770931899233344
VI@@ 0.34244438184955395
sin@@ 0.06375767499845804
sub@@ 0.023858177575905786
ly@@ 0.06126142725284159
Ul@@ 0.09511965250817601
www.@@ 0.5847255566491413
pp@@ 0.04830085706394791
ave 0.05639274117135977
ber 0.05313784369569176
sim@@ 0.07404870120268646
elle 0.010445543211903862
entr@@ 0.03794874759859908
едо@@ 1
ack 0.04979826690289597
Cin@@ 0.19482754571283223
Na@@ 0.1554330020318839
Vir@@ 0.12109589087947888
ista 0.044016173233783824
tur@@ 0.024882566811223937
yan@@ 0.16711375148251628
CN@@ 0.2827249137803642
US 0.03256570066272586
arr@@ 0.02953124520841977
ι 0.17055020051846212
York 0.025195347806627598
ok 0.05544596152629763
ors 0.021120309542171176
ota 0.10066724827605518
sy@@ 0.06654786806135896
Cu@@ 0.11086592115981461
воро@@ 0.3424274904257389
дино@@ 0.5743260507425625
119 0.9625282007195541
2. 0.12128433087186805
TV@@ 0.3290999115405678
arius 0.6253071360612393
inn@@ 0.03461396474028979
тая 0.49703345328520726
шие 0.19674686263366908
SA 0.17340767576542312
oh@@ 0.06088833839506717
Ν@@ 0.17486983967500871
круп@@ 0.2191052035706453
HMS 0.409894617144561
ken 0.025189814383992516
tac@@ 0.27929787093080266
ual 0.046197892713510325
помощи 0.595805486813942
ide 0.05008398423279511
NGC 0.26306680626472007
aj@@ 0.035815761087890106
Поз@@ 0.38358196672412886
ada 0.010295923551615205
Big 0.1240564055609116
гда 0.20451106877944056
вопро@@ 0.2522630819075529
Av@@ 0.09426630310733071
Pro 0.2126835460341717
РСФСР 0.5420147132360336
EC@@ 0.527943318943627
примерно 0.3853311317717839
Don 0.13546715014293798
Mir@@ 0.11305023680832718
ase 0.035973289827009106
стр 0.42512810313714006
200@@ 0.17105045668819782
70@@ 0.49087791563559197
zi 0.19084456657955065
Lep@@ 0.4995032952779811
сона 0.6026787770975347
ker 0.03479689425017841
Окон@@ 0.5107858790008954
Camp@@ 0.09558483992203595
ire 0.025222226253041026
AS 0.20476395389560995
DE@@ 0.2666605733159863
illi@@ 0.23565477266332188
č@@ 0.12798684677955124
dis@@ 0.008336639091968705
if 0.04330485147034112
its 0.006311895329172966
ong@@ 0.02678987093644547
we@@ 0.0187004818844751
э@@ 0.01850373004555798
bul@@ 0.07573443228070047
Be 0.3919613484114238
Ed@@ 0.0404516699917961
bat@@ 0.05450149432019684
sal@@ 0.04174999995372186
α@@ 0.1550626374023026
als 0.004255805081390838
pe 0.032768580345706594
tic 0.030850752448496818
SS@@ 0.24121557356982934
аль@@ 0.05441477738262318
ям 0.17422059697802197
ero 0.0407356316229225
Ben@@ 0.06747919611486092
Eng@@ 0.07736815188238237
Pri@@ 0.06408773045304753
au 0.004902101754554416
ѐ 1
Gre@@ 0.05128049988954257
class 0.0719143591944658
ima 0.0856874934759799
команда 0.4868078961974995
ное 0.028687352760568628
Es@@ 0.04982068276604112
Gar@@ 0.05003525652050228
Studio 0.29073328659555897
Wh@@ 0.1422438559621703
ä@@ 0.014161148823143755
ë@@ 0.2599732733159266
Plan@@ 0.11206118312663492
Ple@@ 0.3281271688668168
lia 0.171938636486212
nus 0.40723481147550605
ung@@ 0.03243434241093054
уго@@ 0.318763973007111
90@@ 0.5704205197087316
For 0.04404553802783943
cas@@ 0.03608547552694061
21,@@ 0.8359335183292624
Chr@@ 0.2442698694931264
lam@@ 0.047076822446061185
nam@@ 0.04665591449493567
ny@@ 0.19701922807121672
ones 0.03369326462706901
opo@@ 0.2514093899717402
47@@ 0.6004163191800894
Sw@@ 0.047554382893725766
km@@ 0.2839058024414472
ler@@ 0.0283819174034707
Μ@@ 0.12465530256446228
ί@@ 0.1339541460963018
псе@@ 1
Grand 0.05980059403137918
ven@@ 0.03204534614713573
Kar@@ 0.0348887245070878
Produc@@ 0.18434773770489338
tal@@ 0.04843974135159528
Щ 1
ν 0.183670783275329
Свя@@ 0.2514107978293867
формирова@@ 0.47377365573242114
Air@@ 0.1380663185981376
AT 0.29407435641619467
CE@@ 0.23447104147568734
Estr@@ 0.47156717904209167
Hon@@ 0.06703201441520805
Wal@@ 0.054958588841496854
Prot@@ 0.07592069392661568
aci@@ 0.0530576035590366
dom@@ 0.05512641355152206
ost 0.07107804614549296
43@@ 0.7382195844085938
aga 0.10061971867709187
ley 0.022927930078383413
FO@@ 0.5062658911347125
Pseud@@ 0.4991701959676276
Β@@ 0.15513244449275138
dic@@ 0.03784640103644647
esc@@ 0.04904497390414587
Day 0.1111122420203204
Du@@ 0.057021107025513815
Ri@@ 0.0525834831770328
ng@@ 0.054278725342080794
β@@ 0.09385037693566449
Dark 0.39219204574984146
Like 0.2138432334204478
San 0.026953008030908557
ind@@ 0.03400992852835709
zi@@ 0.03993828184269907
Do 0.26030690940343015
tim@@ 0.02588290706600092
йти 0.41081221945478963
ABC 0.2733036375242973
2.0 0.5691282580432836
Death 0.20102442164138026
tho@@ 0.05830960763876579
ve@@ 0.04522819985153794
els 0.023175435528052492
etta 0.22476802455772393
Λ@@ 0.15904905369470435
ή 0.05851974544538625
Android 0.6486063906460338
Mc@@ 0.029847809262836447
Sub@@ 0.09074221066745479
arch@@ 0.039108658342207545
return 0.08735386002859141
ble 0.04064950524238407
ine@@ 0.10835784618502557
Centr@@ 0.3960886799377773
δ@@ 0.11526692092738615
крас@@ 0.3132351814291249
пизо@@ 0.5443357855462102
Bor@@ 0.04516087722016027
Des@@ 0.05527394132409796
Ni@@ 0.0686983230299673
Ferr@@ 0.18727460952680614
Vis@@ 0.15221464257659986
aster 0.18701549884485769
fas@@ 0.08418739121169537
isti@@ 0.06817438224548181
Anim@@ 0.3487390275791099
Go 0.2931589093311529
omo 0.23531606326238746
pre@@ 0.013276265497478389
Amaz@@ 0.2790336142087429
RE@@ 0.2147284453416398
ane 0.031731986691803715
ds 0.02605390418624451
ός 0.14427350337241096
her@@ 0.01658226716555556
Hal@@ 0.06619976587837315
Line 0.12463787221436108
Rem@@ 0.14711398914665907
aus@@ 0.012090964545188489
49@@ 0.47423213000212544
Super@@ 0.09830756270801212
bur@@ 0.032718243633940124
idi@@ 0.06348039748529417
Sim@@ 0.06567046777727614
Tom@@ 0.08412158929700639
tan@@ 0.042369430001727236
Рус@@ 0.3214510270069666
ez@@ 0.048101250384982384
mi 0.08806654686724393
pha 0.2422014783999404
Pom@@ 0.16927641017485331
Win@@ 0.09467161951564682
ays 0.07201391576785013
eil@@ 0.16316756656959433
rec@@ 0.013315607588541143
ters 0.02186857928999411
Res@@ 0.060740504535082215
Wil@@ 0.0606869241102852
Zo@@ 0.3409118578587677
aup@@ 0.2860896623527106
flav@@ 0.5110108615266696
las 0.006072051052876986
pa 0.098023816960965
чу 0.34585421798591437
Net@@ 0.19175318468600044
Play@@ 0.09688189609714115
arg@@ 0.08833539346201637
Gro@@ 0.06831675634359123
MI@@ 0.23775507075357452
from 0.002808956816419654
ster 0.03593363261064724
Bol@@ 0.09114172549196085
CBS 0.32135182941363033
Out 0.2443224785896473
reg@@ 0.019535535896477017
ey@@ 0.055061350330008765
Амери@@ 0.42858878272539364
United 0.01576479605703942
What 0.24478849366050442
aja 0.13034621974813804
lat@@ 0.03596302464032245
ste@@ 0.0313653564444599
tra@@ 0.0438057711989824
ap 0.058298029152413444
app@@ 0.03168273635315973
ek 0.04938372382610419
sen@@ 0.032761365919195685
див 1
S.@@ 0.17083493550124404
AV@@ 0.44973087846858334
COVID 0.1869035769450008
Sho@@ 0.12334578689417948
TS 0.3867656115758567
fer 0.04593393197946441
ani@@ 0.07605035542127424
ye 0.04641333993439115
RT@@ 0.2941666084998877
k.@@ 0.8736285040885294
oy@@ 0.03845956005895522
Home 0.16365945582523087
ith@@ 0.31121580383743236
opsis 0.19428324890437243
von 0.0027680322673058603
ò@@ 0.9798038405373722
AD@@ 0.16500617127039666
~ 0.43676600086597933
λ@@ 0.12690565587152206
бя 1
DA 0.229305436771818
Ger@@ 0.03323053407666525
Mat@@ 0.053507006511833745
una 0.0052866332775875595
alm@@ 0.0758967323323508
pa@@ 0.08575336819660827
Lin@@ 0.067738391338954
bi 0.13631018138345466
res@@ 0.012467868576678648
денти@@ 1
игро@@ 0.2014490908978264
кое 0.2266017792012387
ходят 0.3091525552098865
Radio 0.08845799079937838
ip@@ 0.12664604345387726
pes 0.15972756264864776
BC 0.11610162123079129
ty@@ 0.08168979916758795
ρι@@ 0.1572672978017879
Cat@@ 0.08383700891070205
Cur@@ 0.06926799624015104
Sun 0.16375475011003351
char@@ 0.0526396835889133
ther@@ 0.042652481323355224
tro 0.09969093115093303
65@@ 0.587754640395593
John 0.018789833164873107
ba 0.0645369790869542
ico 0.026507364181249958
sec@@ 0.021154597321754006
67@@ 0.8085232854837419
юго 0.21384452036339352
56@@ 0.743015778502462
Lab@@ 0.08159181622570527
Oc@@ 0.07340819645424843
ated 0.005533413783958316
eu@@ 0.12853659840675397
Cam@@ 0.06742939837565319
LE@@ 0.2647753414926775
Phone 0.7587145202149389
Space 0.22595955594569797
Cap@@ 0.0933008801245594
Heart 0.3009492638093358
olog@@ 0.041364179114858374
58@@ 0.7702260816676705
Award 0.05577902976518998
Facebook 0.4096190063118619
Sur@@ 0.06589550174505347
fo@@ 0.03727403566576687
une 0.0038332444334929975
включа@@ 0.251239432808435
Royal 0.049700988671608014
Tre@@ 0.057920307748826096
ame 0.05970323326061833
кото@@ 1
A.@@ 0.16623951188086877
Mil@@ 0.049159087416056145
Sab@@ 0.11147136461525077
cat@@ 0.04289274491853416
elli 0.12488694198345046
здание 0.3987556963108981
Bas@@ 0.03706825472422247
agr@@ 0.0877228342113818
ish 0.019957473008634406
авгу@@ 1
Il@@ 0.09812661230639404
Чем@@ 1
AB@@ 0.21630289511519515
TP 0.5089320741778419
ets 0.016385366223854256
ilia 0.3163784411592846
vo 0.0898808975354219
шла 0.14550110888123025
HD 0.30867414944994637
Ru@@ 0.06402818906347874
Show 0.134191487848325
η 0.0278655081490754
лой 0.24699933813353692
King 0.048098807408049345
Mach@@ 0.14154657717000216
eum 0.24384853537907245
ë 0.5025394152339291
ł@@ 0.07886327838633955
59@@ 0.7853938165787417
Dance 0.27124826868350793
Mi@@ 0.05983093376519213
otr@@ 0.30424873333357283
AP 0.17561115230582264
Top 0.11699552274874996
oa 0.11622204013619429
68@@ 0.6609399399873738
Mac 0.3741981005134589
rich@@ 0.04959362546218308
ome@@ 0.09900379861715286
time 0.008902570450047113
ua 0.07128672069391342
cic@@ 0.27101040016530187
inae 0.2656754114141752
оконча@@ 0.6314371102241135
act 0.03859747444398093
amm@@ 0.03901611563630925
bal@@ 0.04878919575263517
day 0.02123758318325775
ful 0.04345874795977306
je 0.07246765389093669
СР 1
News 0.13645586066288828
Ox@@ 0.2938805287482391
ash 0.07406038639290338
des@@ 0.011563950204237491
─ 0.36655384066084024
House 0.03892424899585389
Sony 0.3339504292352417
die 0.0014846026949347376
Journal 0.1522502646197927
ric@@ 0.1136262926748238
style 0.04533633798027168
tig@@ 0.04033231509907694
Hem@@ 0.25401746458003105
ca@@ 0.15622176453078054
ong 0.028237041413889608
Sym@@ 0.17934899640897925
chr@@ 0.15226480829712505
ill 0.045297291262283115
tera 0.16288255643734748
пут@@ 0.26333087425073076
General 0.03593720073050255
VA 0.3431429709021532
box 0.12319703406015962
icul@@ 0.11430181030168106
istr@@ 0.08328321662284299
vit@@ 0.13231878375774483
ō@@ 0.09472000154648612
вая 0.05611130885241162
Lov@@ 0.25675480323264754
Trans@@ 0.04973105727774376
ab 0.020395908214240952
enn@@ 0.02565091182012231
Can 0.35779990741689577
Center 0.06108547573298524
ten 0.0057142394120763855
και 0.011813819839972494
Tal@@ 0.08893539188807366
ater 0.052758340577195084
ection 0.03530108148359627
text 0.0886301891333483
99@@ 0.8442843427005073
Tun@@ 0.10851872225353115
dium 0.1912440979375197
fl@@ 0.01907884683031062
king 0.02772834222206932
ѣ 1
Gen@@ 0.04861191716108886
Sam@@ 0.06702191851876507
Way 0.2852898742428239
AI@@ 0.16683583666565444
agon 0.14956639728560808
í@@ 0.013718303998313999
CD@@ 0.10855972101763184
Pap@@ 0.08462551857727413
± 0.8653516950972162
нами 0.12281675897309165
leg@@ 0.026362682038138647
AL@@ 0.20905895110469946
CP 0.35470482356803307
Ori@@ 0.10073150241064202
art@@ 0.04584120341555554
port 0.030430857488113056
Street 0.045130283522332795
дера@@ 1
art 0.01996941893719551
formes 0.18368481152575625
sti@@ 0.02984615949173713
PO@@ 0.36639212226291146
Sk@@ 0.09013270978125529
mas@@ 0.027497429470900756
ode 0.08796361443821014
ry@@ 0.313224265727546
окон@@ 0.70318547598778
Cent@@ 0.15694581738190055
chin@@ 0.09977811239357882
eta 0.05183684873702573
шру@@ 1
Augus@@ 0.15847073274610646
fac@@ 0.01741406229682835
75@@ 0.5414501223221873
sel@@ 0.026596189785698363
ko 0.06566184381992474
line 0.021606114458906298
ο 0.02206609839380644
GB 0.2457995241082638
ft 0.034721944497925594
ony@@ 0.12371930127944433
op 0.037114402996438194
Blu@@ 0.1283978878348421
But@@ 0.11882515460899684
Down 0.2422356187250051
Ke@@ 0.06739264704754573
Ran@@ 0.12425203032779478
Ль@@ 0.4537924995631744
кам 0.20536377700622432
AB 0.33552824342372284
Dic@@ 0.26813458766307807
Good 0.23895253310353845
anthus 0.8570008083058599
esti@@ 0.03710324876737556
let@@ 0.026177512812581124
prim@@ 0.03337355278643471
Kis@@ 0.3402185535915292
gens 0.29359534458369835
ish@@ 0.024952910666281868
sil@@ 0.04593169549271802
LC 0.2108586957606646
Universal 0.27444988452317237
dy 0.07177534840748663
my 0.07066469988506086
pan@@ 0.04270157930479108
ž@@ 0.20026901937548924
ремо@@ 1
CC@@ 0.19798436330844865
CI@@ 0.14763605761294363
Ci@@ 0.10267792542853212
ac 0.04509881050165819
dor@@ 0.06760664243928048
ement 0.008566060457786788
len@@ 0.038258176990950875
occ@@ 0.09218328148518662
ν@@ 0.09727513991715163
Mic@@ 0.22762945425998066
ans@@ 0.03391373741718781
pro@@ 0.015224121263784687
ie@@ 0.026917013832701956
milit@@ 0.09490389202950873
ный 0.011455328345928922
hr@@ 0.06335180240668334
3. 0.10754342561711219
Ach@@ 0.16243936377095136
mal@@ 0.030088000585937823
ATP 0.31000884237268245
DO@@ 0.32991014705275623
Festival 0.05741987677909118
PE@@ 0.30037227682262535
America 0.04876464410780648
Ter@@ 0.07088242874508391
cha 0.05949712133823572
fus@@ 0.09585504091313621
go 0.03491017683036832
pay 0.15753512189278213
ting 0.010765727193958761
uch@@ 0.030705085472170438
yst@@ 0.08842557274251246
бок 0.4202747230398554
ву 0.2355936362127436
other 0.009406565027794765
Spe@@ 0.0672548546252469
ha@@ 0.04093163934978627
Black@@ 0.1576085024722867
MO@@ 0.30563081361985633
Nor@@ 0.023451431400982378
cal 0.09837663790755216
ce@@ 0.027528978139105244
not@@ 0.021959476114624177
β 0.36665252987135993
гом 0.22318833158724302
so 0.01142666367269562
Рас@@ 0.25299049249509836
орде@@ 0.3345555766132979
Mad@@ 0.04545699217313433
aer@@ 0.13417633246640545
bit 0.11702547299259237
College 0.028551926626156347
a.@@ 0.2887261428317049
fe@@ 0.017109400745128765
ke@@ 0.02681185530583215
Bet@@ 0.06747038759046614
Bulgar@@ 0.2501542399857285
GM 0.3341547198914579
inter@@ 0.00926069625058267
org 0.3491955680382807
EN@@ 0.4414905703364974
Fin@@ 0.03639888245243242
net 0.054398554897587784
pul@@ 0.0444073297627015
π@@ 0.08651695950834323
итуа@@ 1
чем 0.10235631997984736
53@@ 0.6709104300028612
First 0.054956551350443354
Lu@@ 0.039632252114594375
Project 0.1768533392560152
gl@@ 0.031566187470727834
oria 0.09975866707875139
rop@@ 0.2457452555946561
vic@@ 0.037628691061284934
σ@@ 0.08040555509960877
Из 0.206424829771988
Dead 0.31182791386074127
FM 0.12644260264095133
IP@@ 0.312196821911125
Sar@@ 0.06326194658725828
Syn@@ 0.09302613270423982
ania 0.068691811571892
веду@@ 0.2760029713072405
BS 0.20809264556122548
Dol@@ 0.11815443552693014
Girl 0.25114660767322045
NH@@ 0.15138175935701143
PC@@ 0.19230534391710175
ock 0.06216887401835267
ovo 0.2144588009894244
ro 0.03755143556608544
tia 0.12910247830872865
« 0.0027315222493049752
HP 0.41682889323195993
PP@@ 0.4022807840011835
ato 0.037655826053927866
γ@@ 0.09522425101499209
Chi@@ 0.06597421033664336
Dec@@ 0.07799627768677475
M. 0.07883966664682236
Sel@@ 0.08306341526896101
White 0.06555192297275485
ern@@ 0.028526980857741042
form@@ 0.01905128188860521
long@@ 0.06857396470108769
po 0.08138477327736596
του 0.0100540397036884
Sm@@ 0.11136840880356685
Star@@ 0.09561391314919482
ech@@ 0.033593672192321365
ents 0.00919816277622802
ette 0.02885559197021101
vol@@ 0.0243056747736382
‎ 1
Apo@@ 0.3699665175279652
IC 0.20414403512288648
ga 0.05480119341509684
ier@@ 0.02468275490597642
ations 0.006303566181367196
cho@@ 0.0374182207974705
ple 0.09472124652044969
Cham@@ 0.19186489624078198
Liv@@ 0.1158527318857615
Os@@ 0.056617242109961836
Beau@@ 0.11450560709639218
Lady 0.13768423161815685
Ob@@ 0.06035023655483814
Pot@@ 0.09483202123176193
ins 0.014032666534871155
oi 0.1442825174784519
peri@@ 0.0715172153171452
Γ@@ 0.17759802286555584
τ@@ 0.08822963958688121
LA 0.15862272750232878
Ti@@ 0.04957408234187631
optera 0.5442841859405197
занти@@ 1
66@@ 0.7229882684283114
Columb@@ 0.3785875862245784
ach 0.01742792240390709
chi 0.07215166942955052
isi@@ 0.025423129534217204
lo 0.011622126403441003
oz@@ 0.0858821223126382
tory 0.09210037109706297
Web 0.39242639173625626
estr@@ 0.032197914096065455
fic@@ 0.04072030385437883
ω 0.4536816759927388
вру@@ 0.5140039411264773
мости 0.1796908003757256
D. 0.07540789905967255
Loc@@ 0.06342072529515051
The@@ 0.052653188416402256
ame@@ 0.08973564203868233
lum 0.1572935944275958
ut 0.037160432316603605
ье 0.08050358222829491
icum 0.5805552306546902
kar@@ 0.04748898007712697
ze 0.026079064835615395
барди@@ 1
бре 1
Championship 0.049564700145838414
Co 0.1369437618788279
Press 0.1518458136366777
ali 0.06332652651085582
Book 0.1468438951486149
Ly@@ 0.09399012031540796
ail@@ 0.03033896438541635
ange 0.05573858452831855
tin@@ 0.09725321689436721
ˈ@@ 1
And 0.16470714284956053
MS@@ 0.27505502154826345
ati 0.07870610538517693
ela 0.05343716843825541
iger 0.04021923626198081
ω@@ 0.09284393778692883
Hu@@ 0.04876367888900943
Song 0.11623430916331785
eni 0.18871161954161308
ger@@ 0.016116045781564635
президен@@ 0.5870589924301421
MC 0.242345417953896
PA 0.1486677995910594
Twitter 0.3744837279241916
ci 0.04669056020953143
дой 0.14064628493510703
свя@@ 0.08810558960417035
15.@@ 0.3319544742565163
B. 0.05261401323083748
Der 0.008845460826279865
Last 0.25239770142393925
Little 0.11091019954777619
Roc@@ 0.10151876819591744
alia 0.14620302412126437
of@@ 0.028802070472239143
ung 0.005006516348725286
рос@@ 0.32596430639926016
GP@@ 0.3679994753055179
Sun@@ 0.12041391153583438
ems 0.03706706273484858
ights 0.06771811313405919
uk@@ 0.030776473469606516
ury 0.04986760246729973
â@@ 0.03432426562786886
дами 0.18092811718281765
тем 0.14068401130019473
Fal@@ 0.09734020553196265
Ful@@ 0.12312052601319874
Model 0.27178572836272324
RC 0.19187703849828144
Rol@@ 0.08543415615797613
ole 0.029084055810224323
usa 0.12949200279560452
fi@@ 0.019314722382926884
tis@@ 0.03229417760438017
vil 0.11770806694298613
57@@ 0.5636078848496506
CO 0.27711711316382304
E. 0.09499547398589207
Super 0.08606382689097027
War 0.02278792558330263
tion@@ 0.035916192423369436
год 0.04984738563887168
14.@@ 0.2869736349206149
Internet 0.13105356630378753
NBC 0.2476721104354657
Sof@@ 0.169714128220261
Swe@@ 0.09868320012490016
sa@@ 0.022841461449896672
sem@@ 0.034056705213367094
AA 0.13830732600937617
Amp@@ 0.3592679815030015
Bro@@ 0.04713458198759173
Mes@@ 0.10857494117657374
Sep@@ 0.34486339086367174
aca 0.11171000744056807
οβ@@ 0.5148515275527755
ου 0.06496998108213535
Ba@@ 0.09275110473226442
Cel@@ 0.08436891764433511
May@@ 0.09974615262282871
rot@@ 0.07168149780458315
Luc@@ 0.07911638477772205
non 0.02356301711148572
ö@@ 0.016700226543395896
ρ@@ 0.12103497657233565
Back 0.2641969850157265
Is@@ 0.03303811465295431
oll@@ 0.03198311174895939
pus 0.33230990820280065
начала 0.11616068758704266
AE@@ 0.29973053191573573
Pun@@ 0.12559957595002189
anz@@ 0.03518869415643571
солю@@ 0.8938620622542833
Lar@@ 0.09358745658123571
ache 0.06192719129843497
anum 0.4078102198290161
key 0.049129960855765493
ment 0.010033956940604927
val@@ 0.024135499605947765
Няко@@ 1
Game 0.11856915755893715
Light 0.18408003132774303
Num@@ 0.12215207337702093
Pre@@ 0.04066297766346688
bel@@ 0.018686987647709027
etti 0.115974945342273
империи 0.2773275591502529
DS 0.14426236037372608
Fire 0.20163967531262145
Lim@@ 0.09941654852493181
Park 0.031090329165400072
ign@@ 0.02027602851026456
ome 0.05546634708994855
23.@@ 0.39607050558678397
tem@@ 0.054135488485523436
this 0.006657790399908814
tu 0.13676211549082115
DE 0.282565797974197
Dem@@ 0.054732192830320645
Dream 0.33111730185014204
New@@ 0.05036558651278236
elec@@ 0.029888242984852657
ira 0.06815991014422174
χ@@ 0.07662323293856772
Ak@@ 0.04446998516142808
London 0.027221451374422702
Pur@@ 0.1178757604104914
USA 0.06438850845100626
ami@@ 0.0780498586648165
dec@@ 0.016383238259590382
out@@ 0.030596333314690225
шим 0.11972265219935074
ends 0.03663862118362288
ky 0.0527362624112633
видов 0.2835591911231464
мян@@ 0.2774111954008772
полков@@ 0.5918321376202044
Ram@@ 0.055598515476917576
Who 0.23034501184074835
cip@@ 0.06932784928289949
ias 0.09039167794135734
ren@@ 0.016325543995470145
Bu@@ 0.06707245914402499
Dom@@ 0.06619047475295695
» 0.0024269940996020653
ath 0.04459397101615799
men@@ 0.015032631556224668
κα@@ 0.1281256428326273
της 0.012316335516080835
ы@@ 0.025210493168271907
ѧ 1
BN 0.49020864408901604
Bad 0.13344281040721345
Rh@@ 0.07592358432034058
lock 0.05500189387584815
mu@@ 0.032981322046626654
rol@@ 0.04829261229773789
αν@@ 0.07057624098000884
их 0.037690149624158294
22.@@ 0.39091685625778994
Je@@ 0.037992216643639345
Sa@@ 0.04028569108883667
don 0.06139640936179669
ime 0.03238696937407799
ito 0.04156341934026768
ό@@ 0.10163575900300108
Art 0.03796948700176609
Pa@@ 0.0691610940031351
har@@ 0.02836898697014009
основе 0.2757246646132946
^ 1
gin@@ 0.19536698890922657
Chir@@ 0.3314171559168528
DF 0.22144781832378058
esi 0.06584509911976576
ische 0.010407412894110601
lig@@ 0.03523741704538013
лами 0.20019405101396281
das 0.003770800563478682
var@@ 0.059226244269136516
-- 0.41990418805813384
Mem@@ 0.09008668793294125
Mob@@ 0.175557840111438
Rel@@ 0.04614769970904245
ger 0.025772892617873716
ik 0.03679319144006741
sion 0.014267301244687424
sur@@ 0.013058883557080772
tom@@ 0.025473284085756373
Во 0.12395822231134204
Association 0.03710574677881369
aud@@ 0.10426309987193987
hu@@ 0.027441703181517518
ray 0.11001423047734606
GC 0.3563830614547734
eth@@ 0.046695312039706484
kh@@ 0.024361484143664694
ns 0.024334796728461998
ori 0.10638853549760531
ze@@ 0.028857000078255333
деся@@ 0.1487040090536551
Stu@@ 0.07197356311558165
Ven@@ 0.0685928338874095
Video 0.1801139123380632
ash@@ 0.03142199364868433
aven 0.17836586307868765
cola 0.29124235197972376
ff 0.04725120433499568
vul@@ 0.15914605562126605
Anth@@ 0.25290682105865686
Fri@@ 0.0781877993555536
GT 0.3277040536670935
Plus 0.18757528085917718
bas@@ 0.017667544099564003
ellas 0.1364328969094307
ich 0.02264046294067804
ρ 0.2043749211116091
ы 0.009509515363945233
Aus@@ 0.012624215192148444
Global 0.18826744797392367
Ren@@ 0.051914522477200596
Type 0.2500596540067654
andi@@ 0.1443546121594466
ids 0.049613030040537326
I.@@ 0.3099284224800384
IS 0.19949650434057334
our@@ 0.0331812165945657
BO@@ 0.36355416533216683
Obj@@ 0.15232911370085667
dex 0.22849936722719005
uz@@ 0.039230696398524285
ə@@ 0.5319930414797294
Воз@@ 0.22116110288411123
Canal 0.17308876805308807
Force 0.06461395997363778
á 0.02559918100673851
ME@@ 0.20479788384381856
Medi@@ 0.04395455668677523
Queen 0.08227344775417325
Sou@@ 0.0805980216448175
That 0.08540228475575601
ney 0.032864332307113435
row 0.049850622242289866
top 0.02929274735045846
world 0.026625391738536647
zo 0.06993843986269228
Ju@@ 0.044645833988987145
Vic@@ 0.0670136476450999
ative 0.01230430294552242
onn@@ 0.02156043229311699
sw@@ 0.03226084205789736
ĸ@@ 1
производства 0.3001731100270143
low@@ 0.03320391016584886
mer 0.020911414185997245
nov@@ 0.11771910700108533
osp@@ 0.08230639064898052
Band 0.05910993288608595
CS@@ 0.13642426960811113
Europe 0.03203967810421969
M.@@ 0.18089367321394478
Phili@@ 0.18748515213629097
Team 0.05297724948635612
adr@@ 0.08113349595174355
tric 0.06552800655691746
Fe 0.31727686427324936
bil@@ 0.021493407393893417
ζ@@ 0.11028815437182128
Stars 0.2174476082609402
ault 0.064222628706728
мой 0.06748282845545632
стала 0.10670039560215226
Christ@@ 0.04587633773055086
Play 0.21124778366885497
Test@@ 0.1748450390756385
ago 0.058082327748873105
aph@@ 0.14332555953238596
dition 0.05162427922466506
ight@@ 0.1015544407215923
All@@ 0.05202907579384889
Road 0.04488692157245517
light 0.031055576755479087
yon@@ 0.0858230564145685
ă@@ 0.15456303087402795
log@@ 0.046581958239192776
Tot@@ 0.12246196250603916
UR@@ 0.2474254621025036
mus 0.23349021958712196
my@@ 0.0898198416196428
Осве@@ 1
@ 0.6459961612591574
eria 0.1311951456124889
Чемпи@@ 0.24884095287520724
Arg@@ 0.13203486165665784
European 0.03372792102034647
San@@ 0.047853216414251776
ding 0.02418594830815717
emp@@ 0.026998087780150757
ou 0.008704057467335257
yo@@ 0.06334940151503597
Σ 0.8817544075871911
Иль@@ 0.3353854987603142
ado 0.004276513705281832
asc@@ 0.07371175613183636
oo 0.12395008857838467
ote 0.029541535590382414
Brothers 0.20281878368861425
Games 0.06568307953449
T. 0.12612358758976408
ado@@ 0.11101894824298754
ee 0.03764987127140156
eme 0.03915751910546103
ines 0.01879568534361154
pic@@ 0.04774530468279521
ri 0.09338725555554939
tics 0.021268046512970006
unter 0.012882251241197072
ust@@ 0.05276505948933513
Power 0.12876471289892652
Rhy@@ 0.2567553293917867
Young 0.07989263421019496
mot@@ 0.025736821299174813
obi@@ 0.218600814086324
двиг 1
Mol@@ 0.05816623727665803
Name 0.06706865526340812
RS 0.18898118483651302
With 0.04216059172938285
down 0.024694094463721394
Arc@@ 0.16592770071742244
Ze@@ 0.040975020610692234
ark@@ 0.050981206482943055
tre@@ 0.019780097761546184
ά 0.06367743532244445
Ali@@ 0.10386281070293216
Aut@@ 0.038580420564175204
Express 0.17357058085954394
NS@@ 0.12903630759480947
Rev@@ 0.08939879192207931
ider 0.04777012859637876
ино@@ 0.24991992374520813
BA 0.10986589045001609
ader 0.08903107789419368
den@@ 0.017235490755165107
enia 0.4418061226444964
err@@ 0.03281302978483253
lus@@ 0.06091281698738326
Liber@@ 0.04902706705931266
Ra@@ 0.06023036820709359
Spir@@ 0.15707539954935845
unk@@ 0.044694533717021284
vari@@ 0.018157677444441227
академии 0.25718203369425907
вс@@ 0.3346795936468541
← 1
13.@@ 0.22555112695366075
4. 0.09384144866908462
Aer@@ 0.1400464962056711
Iron 0.21954454999368503
Saint 0.01605321132297816
apo@@ 0.05211678177887215
color 0.06505538525121098
gn@@ 0.15084503924107506
Arch@@ 0.051895992844335874
CN 0.30379813686826607
Stor@@ 0.12849684818704768
bis 0.006460765861436661
kr@@ 0.03630388910870973
mus@@ 0.029826446877596748
Ever@@ 0.11900354868489482
SC 0.09024109130394367
Sky 0.2305958225765553
Society 0.0441269965518526
astr@@ 0.054769913180974336
ini@@ 0.12565439773107928
Bir@@ 0.04507917489005239
Boeing 0.29151270303153826
Girls 0.19557617161996219
Wo@@ 0.039878879115538515
esper@@ 0.14117603723871813
work 0.0125995372425213
Υ 1
Coll@@ 0.12008027722631337
Digital 0.20873035780429983
Enter@@ 0.22831822091852863
Pon@@ 0.10171738109528804
mul@@ 0.0549163099802216
pon@@ 0.04005944502990994
π 0.3819831777329353
Japan 0.04089319355377302
Sem@@ 0.06581276386890028
over 0.008115825562143112
pro 0.08457996215024814
Η@@ 0.4017039053274381
Ele@@ 0.1801700349162371
Ltd 0.19827511543080498
RT 0.19682389560582417
S. 0.07019281849585378
Sav@@ 0.065992062466573
ites 0.03521477438471414
ple@@ 0.04494232187270669
pur@@ 0.027932971643073966
ton@@ 0.06225518986273903
L. 0.09762333990994329
Mu@@ 0.052419904299622344
Research 0.06718907730821735
Science 0.06883609800551266
hom@@ 0.027900334070937137
orn@@ 0.1377613357241778
ά@@ 0.07389073828318278
Gener@@ 0.08175615116250255
Sin@@ 0.059288344710793466
Squ@@ 0.1027602433409582
acc@@ 0.013994328564267114
air@@ 0.023791569669084876
aus 0.004979607124453853
bia 0.2968388242999499
ian 0.017070601100505164
ith 0.04036407232730046
ture 0.01573630547595304
ль 0.013810355062443963
By@@ 0.1260465749027018
IB@@ 0.35489540992091667
Stone 0.13303177101856617
UK 0.04599379861337537
ature 0.029633084849844546
fu@@ 0.027786202220573677
nm 0.3781048329226653
ris 0.1243214024855228
ying 0.01975978392806741
Nu@@ 0.08269662914782235
ku@@ 0.04323254572455678
okia 0.7074953001420871
pol@@ 0.028429450002053172
rh@@ 0.11890248703425615
É@@ 0.018872379925998425
16.@@ 0.2714075112506201
Al 0.03201305963879089
Astr@@ 0.10982135703695318
FA 0.09750755961251036
Hip@@ 0.2949574503456446
Kon@@ 0.019313138918412492
Poly@@ 0.15270829044511022
SI@@ 0.2673689380387666
air 0.02556331047316096
enta 0.044048679022931685
get@@ 0.049447854994150775
land@@ 0.020252158420191388
uta 0.09241954023401254
י@@ 0.7897036525148219
arc@@ 0.09832836830465287
bro@@ 0.02415806290387729
var 0.1507810991056574
Dy@@ 0.127178731895135
Ha@@ 0.05214143435706114
Lam@@ 0.08330321887993504
Mov@@ 0.0951843618423106
Now 0.18688390943675584
Office 0.08746054252406521
egr@@ 0.0672661743013395
ures 0.02463732676106699
ust 0.04632283892242949
лла 0.20773377357766618
P. 0.08479342734581383
Pop@@ 0.1291206769309705
Syl@@ 0.18707742761771265
ava 0.07924834112041118
esta 0.021691922527073998
leri 0.05599876053210867
ness 0.032994558479574145
17.@@ 0.27645549754257476
AM 0.12168755508361861
Dou@@ 0.08479284434449093
ante 0.011086144090541391
cep@@ 0.06435486999175315
ide@@ 0.046674030117578216
ies 0.012413391608937351
ins@@ 0.017335108091823707
ix 0.04399742769319941
mb@@ 0.04403889455356496
mp@@ 0.039675843751212
ted 0.004982466741794241
ts@@ 0.01680007894266816
шая 0.10455283484307049
Abr@@ 0.1077432343098983
Buc@@ 0.08245202664686817
Div@@ 0.10945193953918098
Mul@@ 0.06749559425723746
gia 0.04388406325209215
lob@@ 0.0720293716787643
ού@@ 0.11442306677044882
Восто@@ 0.14163189712632548
Укра@@ 1
Ko@@ 0.0379770128505918
Lon@@ 0.1963136215637532
Paris 0.01958094247683571
SE 0.273002108123751
Sac@@ 0.12866272108960883
Ta@@ 0.07664339782254273
odi@@ 0.05903027863386845
Maria 0.05195954677701065
So 0.05298052780435899
con 0.0032488314958838455
ο@@ 0.06644564115094445
окончания 0.24021915995435864
100@@ 0.2814605689829354
5. 0.09527925950444918
EE 0.2812383890363192
Hill 0.055754301989970126
Rot@@ 0.056890706747623906
Wat@@ 0.061107179180131366
edy 0.07071144207217224
idel@@ 0.10902711981572813
oman 0.17508324801433103
phyl@@ 0.3215492821598325
í 0.03477278049536822
ης 0.08057930221897368
ων 0.057614699126343566
ствен@@ 0.05045429700699813
201@@ 0.23085724988306378
bic@@ 0.1546700085427904
ente 0.008890473772790968
fa 0.1271106627633038
ici 0.1393851613844365
include 0.022486495053523212
ond@@ 0.029070879706519587
rup@@ 0.03954911446456265
ò 0.2734669832734006
Spar@@ 0.14930972276314258
berg 0.018927934077771318
oud 0.10665874782338566
AF@@ 0.1643917667693959
Aur@@ 0.13336208455316692
Cos@@ 0.11145376468951534
Free 0.13683700035233137
G. 0.10092311394249456
Out@@ 0.10358882707403468
Pres@@ 0.04078105695087506
fol@@ 0.03216880392355612
ille 0.01864919775750686
yd@@ 0.12886262422434125
шло 0.1763553736179405
Boy 0.1679848619161124
Lang@@ 0.050748878402665114
West@@ 0.03547339290335684
iden 0.04888811537830373
tw@@ 0.020870091035633757
σι@@ 0.14708738360889048
Моск@@ 0.1813935428349094
F.@@ 0.2970351605115671
align 0.11586902026580337
van 0.034060588260148496
ér@@ 0.011695898871730321
25.@@ 0.3426540180613856
Boys 0.16149339990088443
EM@@ 0.21477743219181575
IA 0.2209427382432767
Kin@@ 0.05050042052421942
acer@@ 0.15737880792733888
acle 0.13631000725136563
use 0.010118531692464235
κ@@ 0.056476664304112426
Bank 0.06202741917313151
Bat@@ 0.045673391272370426
CC 0.14190678553080854
Kn@@ 0.051919824967667214
Magazine 0.13751528749124117
ando 0.010162808402318924
arm@@ 0.018836436179154745
bus@@ 0.026461320610488663
nic@@ 0.2361090856062426
sum@@ 0.04081464212961982
tin 0.02562930316553275
you 0.0490166693161609
Austr@@ 0.06589228911170437
Metal 0.21767922928011318
Web@@ 0.07527946538281656
When 0.026526491862315378
ham@@ 0.07565020921603244
orb@@ 0.12500081645523411
seu@@ 0.30626290986051796
2.5 0.24180845774808032
Comput@@ 0.17337776042026204
Over 0.11571846777420365
Software 0.2316816282130649
ough 0.02752689456014867
IG@@ 0.1606323060451438
Imp@@ 0.14497920784124024
K. 0.12235976580415754
La@@ 0.06503614878271781
gre@@ 0.015137277371880644
ike 0.05186422824521106
less 0.02625994854180283
wal@@ 0.035517851148302484
дь@@ 0.10421631949082365
простра@@ 0.6722228513695123
18.@@ 0.27905005603577643
Bell 0.13912430213375782
British 0.017031796816438877
LO@@ 0.27107655222990246
cy@@ 0.07566932176799943
elas 0.17496793598288282
medi@@ 0.01853513818931761
oks 0.07953113170607336
vil@@ 0.12150650989940727
yes 0.11688130352291859
Commun@@ 0.052154237916106565
IT 0.2230966196743663
Pat@@ 0.059171256587107784
Sen@@ 0.02224323022806114
nom@@ 0.04138119279642066
orer 0.21790245305867434
pres@@ 0.013945899076252533
sig@@ 0.01896350219466503
AR 0.16954635071865085
Business 0.10636528020157948
Not 0.15679687052500563
Phil@@ 0.06623631347689178
Red@@ 0.05719415577796412
Service 0.057733785788055415
red 0.010828304950533154
side 0.012851804810611179
ü@@ 0.01332672305244261
θ@@ 0.061917273913670356
Af@@ 0.07473103686366836
Ari@@ 0.11059347517920601
Film 0.02737905325471983
Max 0.0803020921837535
Pach@@ 0.29976933735910505
gi 0.14971286036578152
met@@ 0.02340947713997806
ret 0.057911327112018914
uv@@ 0.04968894952130495
½ 0.4332909366612268
Υ@@ 0.49044008339988865
ктов 0.181793012489873
AL 0.1976851711347294
Foundation 0.07820183139363891
France 0.012747652294542923
Lat@@ 0.05305277920781241
RA 0.1477765996321217
Tw@@ 0.11010487540371569
arian 0.0557135292994951
eli 0.11311306763050553
etes 0.09995909516507061
oes 0.10646985732820444
onom@@ 0.06206026165365345
plat@@ 0.03018590309688377
via 0.03315446141110925
ε@@ 0.07654553897526714
чело@@ 0.6627257850816742
20.@@ 0.2764961473380703
As 0.013377897248354304
Comm@@ 0.05930141041700385
Cot@@ 0.11800419730028772
Fut@@ 0.11397725863283423
Gun@@ 0.12194117917954234
Pel@@ 0.1120064646924901
bir@@ 0.026421483526285792
ces 0.014784712015883406
dis 0.17532995067625534
fre@@ 0.01823126090111995
oca 0.1312187292665649
å@@ 0.13269228209191808
ū@@ 0.11308873979323959
ί 0.15282145869680236
ώ@@ 0.145295830611266
Deutsche 0.1087245885035517
Got@@ 0.06168487806089995
Great 0.046575954482225616
North 0.017700137011165903
Tran@@ 0.0935982535218013
craft 0.15185208722011997
endro@@ 0.2317821765486313
hip@@ 0.26909208789872946
AD 0.12222362376556438
Cho@@ 0.20087960180012862
Pyr@@ 0.22962293854539903
Spr@@ 0.033087930965815235
Union 0.024868158334900126
avi@@ 0.04895480514284271
lem@@ 0.03144537622758154
Рес@@ 0.2917095329404755
End 0.17129936189421155
Lor@@ 0.042209878859622255
Publ@@ 0.09731545945820741
ams 0.042310037707311836
comes 0.0876268239621428
gal@@ 0.03594591741076216
lav@@ 0.0963558379869381
Fil@@ 0.046998349364186905
H. 0.07059181562047714
Old 0.06565978697324214
line@@ 0.09515259851900934
nor@@ 0.018473831339958648
φ@@ 0.053651196792350454
1.5 0.19975768574787325
Cul@@ 0.06172597214041291
Earth 0.08929383039561727
Ep@@ 0.11902442656181961
Mak@@ 0.07425804628929888
Opera 0.16284630647408688
St. 0.02235591054589653
Tar@@ 0.053300396578904743
ais 0.02033537971640292
ebr@@ 0.049763757334001
ket 0.05049695048807551
stri@@ 0.09546485516864772
vin@@ 0.05540958095419356
19.@@ 0.2832225512671003
DV@@ 0.3269073627938403
Fu@@ 0.05489425397941626
ML@@ 0.1382618362660861
Sum@@ 0.0714474508616877
Trich@@ 0.3831142520574736
hor@@ 0.025340193315443422
isa 0.05948995302340224
ison 0.02761133628217812
ée 0.0035692575078285793
ī@@ 0.15605472958363178
│ 0.08524942412410733
Arm@@ 0.04969974406605634
Arts 0.04532690060420138
Dev@@ 0.059488072155427875
Ol@@ 0.04189073563584447
People 0.07103522581617501
Tou@@ 0.08888981229413874
abil@@ 0.0643010975040205
idea 0.05881294758543042
now 0.01564387606738875
stati@@ 0.10557096040259291
Ζ@@ 0.20739830224451541
Ban@@ 0.042153197257740624
Hall 0.03524481561868358
Nav@@ 0.04733037132453327
SK 0.282776026917548
body 0.035387386109488064
mo 0.03869040462852757
ope 0.043509577647553026
ser 0.016804938762237286
very 0.01553842898724189
сси@@ 0.04958579688528494
Dro@@ 0.12073718021915003
Hom@@ 0.05907320440080884
Island 0.03631897547033264
bo 0.07525284558103498
enc@@ 0.01858870019222804
inger 0.03783944240823668
liv@@ 0.0653653544074954
su 0.0034530099953094537
tiv@@ 0.027125638387399217
ρο@@ 0.09664643987040047
Bos@@ 0.05638489467947344
DI 0.23470271202364404
m. 0.09790931039337655
mas 0.06637007337935238
ru 0.30746426585636183
Ι 1
соби@@ 0.23038026754229743
F. 0.08108695163893667
Ir@@ 0.03334146238276192
R. 0.07191382731115815
att@@ 0.012710540475255584
ept@@ 0.0708020724595059
Χ 1
РФ 0.24817706767022854
P.@@ 0.2615736448445461
Post@@ 0.10602226924733942
plic@@ 0.0550089605364537
s.@@ 0.40399413186022953
ו@@ 0.75932574464728
Bon@@ 0.04847614446844939
Theatre 0.07181281587328585
ech 0.03942744089815694
ms 0.034949504600566415
sor@@ 0.03164667560124922
Arti@@ 0.07003241319504318
Fab@@ 0.1346071139392318
From 0.02856863059383841
Just 0.17377257483409142
Lac@@ 0.15232670596971315
ento 0.031606392084227476
ody 0.0923369617327615
vel@@ 0.02783520750947379
ù 0.3069994639271228
έ@@ 0.06098917966386318
рее@@ 0.2459477854834527
27.@@ 0.3219322883878029
AG@@ 0.20931867850960462
Dor@@ 0.04047879102099504
Ev@@ 0.047247804005634456
Under@@ 0.14085137185998037
house 0.021262506355471913
kl@@ 0.023263148679651617
ories 0.028652163306588038
uck 0.06630227882498506
ute 0.033019967825748536
vers@@ 0.01849374064268152
Family 0.08226524499132398
Hir@@ 0.07920870481139772
PS@@ 0.1230905164180716
Public 0.06325905648067393
Run@@ 0.1529778735293277
Som@@ 0.05828420298456313
ami 0.06725182496749241
cher 0.01854985295497008
cle@@ 0.0358886221739697
ental 0.01867238716911068
quit@@ 0.058774213658856045
ă 0.41782952483389396
20. 0.06851493968542427
Che@@ 0.13960869982764007
West 0.018089137070003015
ager 0.04026489355821717
background 0.09942394624729568
eti 0.11927874296443951
fal@@ 0.03305137236635615
mail 0.1823283405071002
nia 0.09538998336203688
sis 0.17240471473363858
yn 0.06429150188903587
Серге@@ 0.26817667523630867
следо@@ 0.09651945834256316
ator@@ 0.07712901374590321
lio 0.22332233926250986
ology 0.016474758006955408
oto 0.03760735094852455
ova 0.07293419324569286
vis 0.13261265285028132
An 0.02496621554348871
Lic@@ 0.19193924850041227
Los 0.01185851076377842
PlayStation 0.2013731777657657
Shi@@ 0.0666020208915849
brach@@ 0.3380678874496914
ision 0.05734026505138649
oth 0.07513960725720384
serv@@ 0.023365618785910244
wo@@ 0.02817162240837854
God 0.07784784597083368
Jon@@ 0.1838981052602565
State 0.015059542083223531
esp@@ 0.02516381430698617
iller 0.04504838485855637
itch 0.07277353306328259
kin 0.06198730785436616
lon@@ 0.18066195590969247
micro@@ 0.08086086016907652
poem 0.13860404380941618
we 0.02658024173913643
yle 0.05341532623855239
Уча@@ 0.44898743708723443
лли@@ 0.1307647194025012
GA 0.18013804047847848
Let@@ 0.12321625635295248
Television 0.11452694196329238
fil@@ 0.01985958860727751
gin 0.08356671914670016
inf@@ 0.023827653966180896
nu@@ 0.0322898976530968
ul 0.0560068295465049
Ν 1
княз@@ 0.2035456813900654
21.@@ 0.2777393992462873
CP@@ 0.14043860186740306
He 0.0026222957903416807
Summer 0.0536298518511697
ats 0.012354426011512515
cli@@ 0.031215454600863047
even 0.021447275599762745
hur@@ 0.07456230625491586
ili 0.06988501232816345
жав@@ 0.364900936833503
Gor@@ 0.0691760433032253
Party 0.026599558293286002
Story 0.17871365020067378
iter 0.04216425782429253
Š@@ 0.12512095043662244
Аль@@ 0.08895863773006943
тах 0.08934649000035394
ON@@ 0.16186805245901653
ally 0.004818365018437671
ling 0.022062506699740043
san@@ 0.03886856952113169
win@@ 0.021735656958223853
Меж@@ 1
24.@@ 0.2918264831968445
Def@@ 0.061763838785820174
Na 0.29743881547470785
Nec@@ 0.29143507464705404
dal@@ 0.07731522477238534
tron@@ 0.06545921721277503
IF@@ 0.229962494074372
Real 0.06577548706086477
Whit@@ 0.06578981529478074
gio 0.08571018359051122
ji 0.04709675900661981
left 0.017764913488513296
ret@@ 0.023273708011473
rive 0.10749222546101583
sac@@ 0.0457725683929164
Airlines 0.18580690953647597
Comp@@ 0.07763827375068756
EC 0.21176458055474512
Mid@@ 0.05207844272428909
Var@@ 0.07595874348803507
austr@@ 0.10305630061874142
eth 0.05079918730180338
let 0.04549397605503423
mit@@ 0.016279148401846084
tre 0.018998377447788865
yla 0.6152861965895882
ē@@ 0.44849679952070676
ś@@ 0.2035864991378152
Э@@ 0.013261372084147752
Cop@@ 0.07387707579363785
Far@@ 0.030283167944390392
Haw@@ 0.07366722625344618
UC@@ 0.10249716511225376
Van@@ 0.13033921892507713
Vel@@ 0.08613509041504273
isch@@ 0.024561338743701
ont@@ 0.04588032876880591
prise 0.054383077490593956
ymn@@ 0.3945537164508947
κ 0.1543219227168645
DP 0.10414482439309927
Math@@ 0.07522662129950418
Satur@@ 0.0989852563404203
anger 0.0522745169970267
bra 0.12155789475345063
mod@@ 0.031716803318602604
tos 0.02644882337662238
wa 0.025412036693732747
Bod@@ 0.08097412994527112
Long 0.06604405887214627
bac@@ 0.06434503478124294
esa 0.030756206348202225
face 0.02790689060457103
los 0.0018282388813414276
men 0.009316373246015489
osaur@@ 0.12829660275431293
wagen 0.11623988468399434
xi@@ 0.09704447603320879
η@@ 0.06787784788977344
ια 0.07604599592534994
ѫ 1
21@@ 0.5444255858619631
Angel 0.2068748726842943
Bot@@ 0.031136119145476756
Central 0.02914469558264871
E.@@ 0.1505468435650693
J. 0.03862298521097895
L.@@ 0.1836266360226625
Sat@@ 0.07704966465707397
Sound 0.14456493406888785
Strat@@ 0.13103745115818416
burg 0.0195655533964681
duc@@ 0.03505622002021058
elia 0.16244894432363127
ese 0.013920492371214796
ett@@ 0.03856993106153509
vent@@ 0.02530482678831588
Θ@@ 0.23821273858155576
стом 0.10408214171315949
Ford 0.08344628193947976
Kor@@ 0.02994598963705463
Off@@ 0.03825081599896744
Paul 0.019877404019975762
Santa 0.03493793067496561
Ye@@ 0.1066688142332952
af 0.068984113557196
erg@@ 0.02749129087295897
esh@@ 0.07563101633997792
mol@@ 0.03993459230847731
orph@@ 0.10333102131650453
sung 0.14117668405648784
ικ@@ 0.09602312066553421
Ъ 1
Cri@@ 0.07378453936469916
Institute 0.03390709817363591
Mess@@ 0.11119890260789812
Volks@@ 0.05359030323073849
ards 0.015620290461728756
bin@@ 0.0420839771361256
dem@@ 0.011417109846502056
ein 0.002914352046801457
fa@@ 0.014652809098882159
trol 0.143367866059512
ì@@ 0.6688669336555104
στ@@ 0.05489219747412426
Films 0.14233503400460512
Italia 0.10438631440170215
Jean 0.019813829688328104
Post 0.06811533104578647
ful@@ 0.13519173045665467
ov 0.027707040912733447
ō 0.05048454666394559
Ω@@ 0.9122203088877242
длин@@ 0.18821345477710058
управления 0.1369097620517031
Rus@@ 0.05663723485112018
TH@@ 0.24415977163650854
Tim@@ 0.06592952304715756
acy 0.029670712184745776
aft 0.025755808823947422
back 0.01316989182732731
center 0.03551349978925883
ju@@ 0.021286691803223567
ods 0.02680491671890423
qui@@ 0.02466431200646596
s. 0.06924550900357006
state 0.012043010786217586
tol@@ 0.04739362955212473
tric@@ 0.07026291633388262
командо@@ 0.12923625722451038
ской 0.006425257148329172
ѭ 1
Chel@@ 0.2655396395051357
Rolling 0.20315635295001896
Three 0.07562600133977795
ein@@ 0.005166904700368052
oper@@ 0.015594849879412223
ort 0.033247226656203235
ski 0.035075665793180014
tern@@ 0.05002516849646661
uma 0.08235813565860498
up 0.006145793522486101
ě@@ 0.18323880092647135
Academy 0.03577521853784213
Ann@@ 0.06041916241566265
Head 0.11528547713020043
More 0.10944693883000743
TO@@ 0.22166198521208116
ond 0.029547829087172753
sia 0.22673030957482257
ws 0.026729778286866186
æ@@ 0.14905516526518361
ίου 0.12454516374993929
ύ@@ 0.07233916756553001
поселения 0.1018916925984084
рами 0.08145895210717606
Cle@@ 0.06119358665577669
Juli@@ 0.03981458422560558
N.@@ 0.2365946890374054
Prim@@ 0.06058148019849375
Rho@@ 0.09679516525795391
Sea 0.07036124524512809
asp@@ 0.04149886040623077
aul@@ 0.06598151689744862
kon@@ 0.01780952466244126
play 0.014635105592236679
ways 0.02566420081647348
Ray 0.11271848413184171
TC 0.14192787668681744
alli@@ 0.03631703738477576
bran@@ 0.036095506424302176
edi@@ 0.02156616028489214
eros 0.03917082188905249
hi 0.038518456900663155
ox@@ 0.03699042290546151
pat@@ 0.02642156921147385
well 0.007542483102355484
26.@@ 0.2827934465210016
Acc@@ 0.11351124080037397
Pop 0.16471023094618845
Un 0.025741281784631982
dy@@ 0.16104351382701598
ho 0.11516153418554075
hol@@ 0.015890165969845643
orient@@ 0.05538963675937833
prot@@ 0.013043248046775206
Mun@@ 0.04946845764046384
Pep@@ 0.1617176559863286
Point 0.08674266096813044
aff@@ 0.014341433089157087
bon@@ 0.05923618602489126
cula 0.2558187496148486
elo 0.05574213958307802
ony 0.03375100596298845
under@@ 0.013736167164851938
контракт 0.221939493740683
Autom@@ 0.11149141259578879
If 0.05401755683819801
MP 0.09709482848710388
Pen@@ 0.04117070323620461
Shar@@ 0.06906514837414127
Techn@@ 0.06139453290968995
cid@@ 0.4977181308954316
ega 0.042994833889874455
ital 0.04068544330194741
άν@@ 0.06807040617595315
ѧ@@ 1
Asp@@ 0.19500103712354247
She@@ 0.05271482148700513
gran@@ 0.10068228259794006
ng 0.09539181839259933
non@@ 0.0995461104657063
onym@@ 0.08083601025756532
poli@@ 0.0427148775321456
Dam@@ 0.06982043698426492
FF 0.1649431151929274
Green 0.05088156581486743
History 0.016265168253751003
League 0.011724741979893694
Vie@@ 0.09873727154175738
agon@@ 0.08502365968140403
ih@@ 0.026179097327879732
mir@@ 0.03672096495594917
mun@@ 0.03936719815715353
set 0.014119476053055252
sions 0.025324483059098703
ush 0.10210568979603493
zy@@ 0.060300615435166724
υ@@ 0.0812725206962771
нике 0.19783190236412415
् 0.0018422948328362034
B.@@ 0.13110762669977472
Hi@@ 0.06332023516034642
Med@@ 0.02990870429129498
Mis@@ 0.06690294951616055
Panz@@ 0.15316055919834193
Standard 0.13949678830349024
Stre@@ 0.054215970329473
Tu@@ 0.05957182535691689
esia 0.12914995573098403
print 0.07272426196019592
ας 0.061444501523108784
е. 1
Bay@@ 0.050363069840515605
Gesellschaft 0.08282979890233184
ages 0.00897887814087565
bes 0.03002560202556878
ez 0.021879314935622653
mis@@ 0.011494618626905331
old 0.010432943862026043
org@@ 0.045154917950596535
otes 0.10793144730299764
ία 0.03541147545892964
τζ@@ 0.2694753493610626
Aqu@@ 0.10399166070813798
Master 0.07876004034118553
South 0.011510608183844525
ains 0.019402989916524012
field 0.013510545825475733
iss 0.055244134907225004
ume 0.037129714754425766
wi@@ 0.0454417416475643
Япо@@ 0.21491411411492484
неме@@ 0.6558738509387372
Das 0.00732248464257626
Don@@ 0.043754728024198115
Fel@@ 0.04678711889363935
Hum@@ 0.051365467256875
Inst@@ 0.1670660919614842
Int@@ 0.09070249106705695
Land 0.04005595376746925
Tak@@ 0.054640507972322915
Under 0.06600650638966528
anda 0.03576944574775595
ants 0.0075501927232207245
ink 0.055119684322091626
ny 0.06373585939123359
onal@@ 0.04677204797172732
type 0.027392696692746108
ακ@@ 0.07388827484395595
αρ@@ 0.07881146145099069
όν 0.24975037088798657
тех 0.18262286931473948
Daily 0.1425918880822997
Son@@ 0.05124044669497966
Stil@@ 0.11174928230383804
bian 0.10150325898394608
ications 0.08141303482900963
sul@@ 0.08206451043587495
ux 0.026046450594535583
wid@@ 0.025333530101407667
Ath@@ 0.0634248951604169
Laur@@ 0.05084034149424808
Lev@@ 0.054228145701737056
Motor@@ 0.117150024948777
Wol@@ 0.0548145978700955
dren 0.12417163823463506
hab@@ 0.020371235593590418
lie 0.03551277305043932
nik 0.05384478489549002
try 0.02252814436330385
ø@@ 0.054205221220014824
GmbH 0.11754352310398399
Petr@@ 0.11099223844111422
https 0.32494385949007015
self 0.03263477940938472
tura 0.04098585399374102
ā 0.1901542011654952
ками 0.04704019767409163
Chart 0.14119881434259454
East 0.021739617450744597
Golden 0.07829660310482123
Kal@@ 0.03664359536880908
Max@@ 0.11271743781607378
Mercedes 0.1912616038010852
Moon 0.1458147591653431
Om@@ 0.11125328849007796
PR@@ 0.18517651078888187
Trav@@ 0.1059078796592995
ban@@ 0.017166362355467365
com 0.15008526955228854
ew@@ 0.028318806151219577
gh@@ 0.06047395929134857
iti 0.10871040571329389
lati@@ 0.20088964699710324
mani 0.44589552657464004
not 0.0033677181241977532
udi@@ 0.099900867778133
value 0.06884161812892493
ç@@ 0.016738667792408884
ć 0.042992674743975924
Broad@@ 0.10638943374176148
Cup 0.017370079009540254
Good@@ 0.11834979030289919
NS 0.1688411104344472
Orig@@ 0.07923610272188247
Quer@@ 0.18485929098719875
Tod@@ 0.05331324855675756
Two 0.041124831155872565
function 0.06981684940206703
vi 0.10939105475206878
wn 0.017621407788022486
6. 0.07251344334998824
Cast@@ 0.09961052961025535
Mit@@ 0.027573112210303927
Ret@@ 0.09120826441035398
ister@@ 0.03318485694680441
kan@@ 0.03220800967917928
spir@@ 0.03724084450822191
stein 0.0226442878737136
Born 0.08055880276046441
Fun@@ 0.12206954892226449
R.@@ 0.1613940374288052
Songs 0.1147703746843567
Sti@@ 0.07708058333683446
ask@@ 0.051372368146640396
da@@ 0.09538264441620616
isi 0.043439649498512325
kin@@ 0.033438967766507365
tal 0.040389418177070216
λι@@ 0.09883106745231199
Am 0.01521145678336897
Bay 0.03847517560365492
Radi@@ 0.08058066136991393
Rob@@ 0.06735080093479877
Sports 0.06568574838851302
dol@@ 0.03603246999571554
eca 0.12326580014444848
ores 0.013352180884460272
pil@@ 0.02576922122154128
wil@@ 0.043862201484599364
дерев@@ 0.22531797728581257
если 0.11650176176224562
раун@@ 0.2143858649588733
ссе@@ 0.18252731071851944
ა@@ 0.9966487920607163
Clar@@ 0.05778870972093532
Da@@ 0.09632905649277711
Ec@@ 0.1095129131034461
Fol@@ 0.039014849858603
Gom@@ 0.18859304651244704
Human 0.1051522946965523
Series 0.048281805552926424
Ther@@ 0.059018072055388886
come 0.03561230545960327
erry 0.03913541503401344
g. 0.08184698583782524
ker@@ 0.031089229896426027
mann 0.018391111928013824
rem@@ 0.017491097049619212
tical 0.015132375816167791
vis@@ 0.009021523833639734
γ 0.5593638813710315
гой 0.20916592073065315
дах 0.09737695137665697
3.5 0.24363634469625536
AK@@ 0.24932723410990906
Progr@@ 0.0567147172549588
Sour@@ 0.12281675629258267
Ton@@ 0.08417532807120127
bit@@ 0.04347874222452348
cle 0.03814885283419285
ika 0.04316288203934741
nas@@ 0.09422555540487888
super@@ 0.02265120873859512
το@@ 0.09800194132484419
вии 0.15619278475151688
стя 0.1702560099816438
њ@@ 1
Anti@@ 0.04886906203026439
Bit@@ 0.15391314295937958
Dan@@ 0.033513044177480224
Mari@@ 0.027638098374244566
Pil@@ 0.05970138596340283
Tit@@ 0.04564975543486573
Xi@@ 0.12598039294783434
amo@@ 0.06161818692754215
din@@ 0.03890833138282638
eles 0.07354226785111226
head 0.01957043936115099
lit@@ 0.0389993902205402
pf@@ 0.030939639375689332
tive 0.01516608233695678
Fall 0.0877301927475257
Ky@@ 0.07516580148051435
LP 0.11617268348405645
Management 0.08719920518272568
Technology 0.08017288689929114
ego 0.06369743830024427
esis 0.05505645275871344
ket@@ 0.04445444498649093
more 0.005327223417716155
zen 0.021168035517200475
і 1
Cros@@ 0.11776406129325925
Fantas@@ 0.1451600940484477
Ham@@ 0.036928069279083285
Mr. 0.08474568486273411
Rap@@ 0.06411498892112454
Ster@@ 0.09942002245927799
ate@@ 0.12213696978342788
atic 0.03421096915459726
bol@@ 0.04884359022289945
je@@ 0.01863904058226038
mic@@ 0.1295719313823658
rap@@ 0.023067948928110135
sar@@ 0.0771571809314711
top@@ 0.05658691767335084
ρος 0.1738577477621537
ть 0.010786387130330461
″ 0.6126172661409246
199@@ 0.04546802537059215
Dar@@ 0.020451110268155295
Dr. 0.04116100871953684
Modern 0.10890532332859267
Pra@@ 0.07779235183170326
aka 0.04717447841545633
alar@@ 0.0837339847731168
ean 0.025049109632596912
isp@@ 0.15433397754908076
na@@ 0.08452001333920442
star 0.04958552494695447
wood 0.0281361992572404
ември 1
Diam@@ 0.13490844084746978
Men 0.05845857551768045
Mod@@ 0.044677522202171714
Sund@@ 0.06431902426319511
aux 0.0040589322464852085
boy 0.07543250978118948
dig@@ 0.023441394603820723
ele 0.026576454752323644
ial 0.049118813723035
ment@@ 0.033805646411531505
nat@@ 0.051999597439013716
olo 0.07287564342299122
tronic 0.09706736095469343
οχ@@ 0.2477444081117026
чной 0.042491229112140406
Act 0.0335508969698514
Direc@@ 0.05646237462409861
Ere@@ 0.13950994084726473
Pet@@ 0.08702816572382553
aire 0.007822479766213659
ao 0.02406566312024393
asi 0.08320450445525338
augh@@ 0.07589586388309602
equ@@ 0.025793882541656172
für 0.0026138393832709906
jo@@ 0.021640507944795696
pec@@ 0.11034951326554199
pot@@ 0.021086888036527415
private 0.03476601018402367
sen 0.013128485049580177
tam@@ 0.04048867455357175
ums 0.02039701948790328
urs 0.0175699104270905
war@@ 0.013903472976681904
ï@@ 0.027776448561408
ερ@@ 0.09402390912132895
ї@@ 1
Brown 0.045022452692501796
Der@@ 0.03803960922355524
Hen@@ 0.06043696416597089
Natur@@ 0.03550246123960524
Year 0.050153262084130165
coun@@ 0.020504171404097958
dar@@ 0.014794956892115694
fes@@ 0.053019913799637046
hal@@ 0.013093816558796786
nes 0.024477693375231167
rel@@ 0.008201807684636827
vid@@ 0.04160880130736816
ής 0.04448731029228745
τος 0.13047381017512288
Od@@ 0.11497538702075023
Will 0.12694144002951632
Wit@@ 0.06015464333572535
by@@ 0.065231913953268
edo 0.05282275558691017
iga 0.0772713492312151
nh@@ 0.016094547160224147
phon@@ 0.07231158628878592
utt@@ 0.2515187282998494
ves 0.01007080225018764
Δήμος 1
ίας 0.045018919456413155
Василь@@ 0.1586029704592118
Ио@@ 0.1033472125618005
196@@ 0.046136647649009196
Audi@@ 0.13002776752164794
D.@@ 0.16945295062998955
Fle@@ 0.05897470826685518
Martin 0.026929885849705446
arch 0.05017854748362424
imal 0.07012331638334117
mil@@ 0.028700075360781667
section 0.0255991872155507
αλ@@ 0.0828073662511276
Chem@@ 0.059541659899224206
Chron@@ 0.11893424582776053
David 0.018087339935157244
George 0.017046533956594903
Gh@@ 0.07361370438472055
Hur@@ 0.06620500143574029
Sl@@ 0.12301756966950544
Sport 0.08714675287245163
Tem@@ 0.04667650294244592
W. 0.053584989480352216
agn@@ 0.03655710948157793
cho 0.01138855325495428
hum@@ 0.019006547460130547
lip@@ 0.06410353897799584
ː 1
C.@@ 0.10854000266433925
Inv@@ 0.06070885513664359
Kom@@ 0.019421260964534524
Pir@@ 0.07546526075054967
Si 0.058854658185468416
ater@@ 0.06432963652458848
esi@@ 0.10454290107126533
kom@@ 0.01917507028077372
off 0.010778849577240951
ots 0.02261462238476306
vir 0.10330554182569461
ę@@ 0.1312665022186369
Ball@@ 0.0623004832918028
Lit@@ 0.0636232907928202
Men@@ 0.035650298439218485
ail 0.028389083122813862
anti 0.03545685789309776
any@@ 0.032958646768540274
az 0.024973475878176693
eck 0.036572414734347955
he 0.0014158300228106148
ion@@ 0.04146059266762947
mos@@ 0.06088075323156092
oli@@ 0.07307592469541604
omb@@ 0.06443211161721613
urity 0.03886143671237466
λ 0.099494995437136
Fran@@ 0.025888732542992
Ga@@ 0.0786348729804858
Guar@@ 0.07989750814473574
ck 0.026657417346070945
crip@@ 0.0391339833664446
ole@@ 0.25297867012275466
ών 0.03454705416015961
апри@@ 1
кто 0.17978791880172518
шем 0.12517671097150973
ա@@ 0.8412263644048937
Fas@@ 0.09942575773550734
Fer@@ 0.03443327010717873
Studi@@ 0.03801141624520538
Water@@ 0.10196622402241126
dea 0.16842592624006697
eci@@ 0.06271870610031735
ington 0.02441002492959885
ism 0.013457280251156094
patr@@ 0.025631980612981577
ε 0.0681395007101444
Bou@@ 0.05855855484014096
Final 0.06177857824336604
Gaz@@ 0.1271554374355919
Hein@@ 0.09052248078637132
Jazz 0.09462960735318499
Junior 0.0718960442386984
Phoen@@ 0.13175135772120555
Pit@@ 0.05674537932894961
chia 0.13796386250888343
ely 0.008394177014931907
ende 0.010971093854686493
ido 0.008225179451633376
itas 0.11178738953294448
japon@@ 0.062107339308661975
mad@@ 0.042558679256385366
ski@@ 0.09705806871573869
uca 0.21646993494846314
µ@@ 0.467345293167187
ère 0.009549643350681411
Η 0.02629981162542646
εν@@ 0.04595593378640829
Gold@@ 0.05495527567857117
Industri@@ 0.05741273265646935
Land@@ 0.013099003157351345
Mom@@ 0.143207531233099
Saf@@ 0.09142246173883338
UE@@ 0.45775957476813084
anced 0.04227773287265499
can 0.006114184293028479
chen 0.010849682569896924
core 0.06215845962527184
mid@@ 0.028718018644747073
ous@@ 0.04821840250620068
ska 0.10711476078756468
еха@@ 0.256371068454253
Bil@@ 0.019373802529476177
Coun@@ 0.06036773896089918
Doc@@ 0.07912453266519062
Han@@ 0.03440253473695967
Pod@@ 0.1028800162421189
amount 0.059692102835771185
les@@ 0.024315770502727627
polis 0.05682150337721273
sap@@ 0.26043106405642125
while 0.0075953150329511115
ör@@ 0.015304146449809491
ου@@ 0.05771154080608103
Фридри@@ 0.6761478542038806
Bus@@ 0.05200068073187636
HC 0.15489339762824061
No. 0.04154250113842917
Over@@ 0.06858291219547649
Py@@ 0.0939736708883878
Sand@@ 0.03683742168318532
aun@@ 0.0427520027459966
hel@@ 0.030867981250193067
ji@@ 0.0693091265273847
lus 0.1772667283831599
ther 0.018334150309968524
® 1
ù@@ 0.4766342171079506
ː@@ 1
στα 0.05810592940527902
των 0.017177837186981994
James 0.015855704025586066
agu@@ 0.03139619620173087
amo 0.08130066109421133
cio 0.04148001734622499
lab@@ 0.031125418018117378
lev@@ 0.045976748707939795
neg@@ 0.019723954222619095
ord 0.0459638423501103
proc@@ 0.02825297167481904
ron@@ 0.041492734829221375
τσα 0.8434762621649693
Battle 0.04234592451715836
Bri@@ 0.03727640020286354
Buil@@ 0.0621910681458122
Classi@@ 0.09916859253511486
Gir@@ 0.06260881873657616
Reb@@ 0.06560607097186094
aqu@@ 0.02299858264300899
etto 0.1475378295886468
lim@@ 0.024850113469677405
lut@@ 0.0795978063072579
mark 0.035360263736455524
radi@@ 0.036290510015651964
ram@@ 0.05121438256038451
ump@@ 0.032562166838768586
yon 0.12651582747114606
Α 0.1311540360970885
Τσ@@ 0.28373930072389564
τσ@@ 0.13512351110691673
Arena 0.10672745863955407
By 0.021368339420604537
Hot@@ 0.11128288788741253
dian 0.09883618973575102
ear@@ 0.01702378965724458
ej@@ 0.024411553389801204
eleg@@ 0.037752798633468095
inga 0.18212149986602996
ques 0.007566325449448114
ree 0.05777992266754237
Č@@ 0.13691576385119164
Φ@@ 0.08006109009546986
нее 0.06084791642405148
California 0.018920177104010883
Econom@@ 0.049603853335145554
Galax@@ 0.16907797153671594
Ner@@ 0.1340590819175482
Sap@@ 0.17423982814344466
nit@@ 0.04628521423711664
plus 0.004448528941640691
ween 0.06934014081309972
ó 0.002372906675063876
муниципа@@ 0.06849374596229502
чей 0.06423680886503925
Bed@@ 0.05621962673692465
Dir@@ 0.11223428252618088
Kit@@ 0.07245543326693109
Nat@@ 0.06784114218937445
Sha@@ 0.05780464469285548
Sto@@ 0.03636589001898851
T.@@ 0.20870322644795777
Tex@@ 0.04856608072501103
acia 0.10035366573357589
ady 0.057064769733199384
dam@@ 0.024762775062583165
enge 0.04887266159052794
mem@@ 0.018299527095029206
min 0.07589854226906677
pos 0.033422426470955724
ror 0.08950678009851909
som@@ 0.035025098549198094
tum 0.10216887700578428
École 0.09546398551667579
Μπ@@ 0.09934659739708154
ασ@@ 0.08259758310410002
ими 0.15447215472647205
Alb@@ 0.04547329431658904
Blan@@ 0.05004090653276421
Cath@@ 0.0758393852409257
Glo@@ 0.11185001838511108
Historia 0.043975430353745265
Luci@@ 0.1070845114705294
Operation 0.08319032543353087
SG 0.14750819212830266
ag 0.0553746283564169
comp@@ 0.010024215052293953
iki 0.04520461736323539
lers 0.025828703898093143
ses 0.004480629920379984
trop@@ 0.07230769310847623
wat@@ 0.0244053867519331
развития 0.1411729573867576
сом 0.05333307416992197
CS 0.12256863878198579
Hyp@@ 0.21849201254105372
Sig@@ 0.05793030999993413
aly@@ 0.05109083353497235
atra 0.13224260358870846
bri@@ 0.017542948221401348
ef 0.02974002503795001
multi@@ 0.04842289021298941
struc@@ 0.021209971754912613
val 0.09276369899865158
viv@@ 0.03200281087829997
Ο 0.02824150684783246
тенан@@ 1
Gold 0.058589675592544146
IO@@ 0.18171154392802208
Las 0.017582167529547957
List 0.03255655635761264
Michael 0.0199241669836959
Prin@@ 0.07000675267835978
Wel@@ 0.05498088938526205
ald 0.04153619321073789
cit@@ 0.030927219674060247
eu 0.03316797547657572
fur@@ 0.0529057795610189
ift 0.09555080507319708
imb@@ 0.055577378688462936
itz 0.022827302508295833
pap@@ 0.02199846097904545
right 0.019291396306901885
teri@@ 0.047074393429734164
комп@@ 0.20516056598022234
Fro@@ 0.09929921013701863
brun@@ 0.16435927930970576
fe 0.021599089446317398
folia 0.2649287804854551
ford 0.01433568971357094
kel@@ 0.03754664153906688
oon 0.07620571390052208
other@@ 0.05596238080703418
res 0.013780885672637586
tom 0.0522368625581964
ито@@ 0.13957634568123126
поряд@@ 0.17866730514234636
цкий 0.09792350699407577
Dig@@ 0.12633503007564942
Europ@@ 0.029260734842185096
Ig@@ 0.05799752030807353
Main 0.05769638175449824
alls 0.018675772196210905
enger 0.04369297482805884
http 0.2256586477836897
rea 0.046433788354018735
sive 0.014150256034522928
ties 0.008663559831675514
uti@@ 0.033529299174535517
ρά@@ 0.11063055972397605
шта@@ 0.060420968716075
љ@@ 1
Hollywood 0.07219848893790443
Li 0.09783358714020493
Pu@@ 0.04092070180591881
Robert 0.016043466630055576
Special 0.06928726928294
ece 0.020641295070150476
gel@@ 0.008297160025144128
len 0.012218234210660085
minor 0.05956912561986021
off@@ 0.008663854909089226
pedia 0.15355614816966473
uh@@ 0.03325791150451021
zon@@ 0.23931223792634052
zz@@ 0.10113910402812742
Ѐ@@ 1
лейтенан@@ 0.3498868610073897
одна 0.13986339732739717
Form@@ 0.04129722018266975
Pac@@ 0.1652314409388576
She 0.006236942670751492
itor 0.05431026839886827
mes 0.01584194979416401
pera 0.18336552163720918
where 0.004884525552399101
ει@@ 0.08670464247660709
οι 0.021807033759537384
коль@@ 0.1502204537514358
Lot@@ 0.08564002502314584
ads 0.029188633727984477
def@@ 0.011194757648934878
lad@@ 0.035293627218583055
ner@@ 0.01813567031611198
osis 0.05896737636173855
outh 0.027783046616325618
umin@@ 0.045902022388973944
uss@@ 0.021307767545474605
--@@ 0.43725546373083624
Bell@@ 0.10019695730660455
Cru@@ 0.09525344869366577
Dest@@ 0.1747917325807511
Est@@ 0.01646433645605196
Fa@@ 0.08690442980983652
Lag@@ 0.052086236333442754
Rad@@ 0.039088332902700744
Tang@@ 0.2284885398842636
alt@@ 0.017782559433675914
ario 0.012515571114954787
fli@@ 0.10122801811890622
αμ@@ 0.11917913584866079
Brit@@ 0.05981743336452456
Fur@@ 0.049714844993889964
Limited 0.11964374242149231
Lou@@ 0.03805166209085032
William 0.013389153876839416
ands 0.01765140511732578
asti@@ 0.057737777989867865
flu@@ 0.028959854252560775
gas@@ 0.05818692521046593
verse 0.023518228696794374
är@@ 0.0162066096685705
ì 0.16820372437834288
фут@@ 1
Jones 0.03930848354375469
Sic@@ 0.10848245404714203
Van 0.04580231475397715
ements 0.008754206150237122
gen 0.008949529666516971
oty@@ 0.06927750681675214
plo@@ 0.11182537883251488
sam@@ 0.04585074451435937
umb@@ 0.0324639019076153
wh@@ 0.01314474044744752
š 0.13194208115289116
ему 0.03884160584749925
сут@@ 0.5277509333003406
Alliance 0.09437014252565709
Az@@ 0.04271680272081623
China 0.017895105443991713
Chrys@@ 0.25962470126584547
Pos@@ 0.08698142177385791
Pul@@ 0.080782053751942
Rock@@ 0.11112122964448878
ating 0.005646828741238165
cht@@ 0.04923879792512757
form 0.008209934403487378
inal 0.019035653398143074
kel 0.03421674629298323
lac@@ 0.10757850697569428
ords 0.028099735626940257
umba 0.21181960248891027
μπ@@ 0.06477294696264
неско@@ 1
Columbia 0.04359187144119041
Corn@@ 0.05204942394361359
Federation 0.0737450553985248
Nas@@ 0.10364975723899171
Peter 0.018866196967018602
Vog@@ 0.0782794936886227
Wan@@ 0.2296346194916783
bun@@ 0.0676663028101039
dur@@ 0.01851861402249831
gul@@ 0.11359178430112929
jo 0.018121458537130555
mur@@ 0.0254402638103753
night 0.03201863929241502
onna 0.10353017077328057
own 0.01041181554619323
§ 0.16423259626743927
сторо@@ 0.07391209826838636
After 0.006904679748244829
Clu@@ 0.1003718218525876
Gam@@ 0.09298848327068285
God@@ 0.07903402462834484
Independ@@ 0.05240854900048797
Rub@@ 0.08750758415703781
ality 0.014171570922554041
cam@@ 0.027175758489801055
eon@@ 0.23150478980085248
fel@@ 0.022979997110333165
ique 0.01372042675479985
oli 0.09330791470810962
py@@ 0.13531257870504496
syl@@ 0.13438953964421207
under 0.005235072029962183
йской 0.042801456175620235
метал@@ 0.15260434328142244
сент@@ 0.6271726838928442
ских 0.008946769375976544
7. 0.059333475803071654
At 0.010074254887114739
Beg@@ 0.03649589153723595
Psych@@ 0.09064061359292104
River 0.013210864868201673
Seg@@ 0.04298565313958708
Yah@@ 0.23350773577982364
ais@@ 0.015091424262270729
media 0.022745645090394243
mit 0.001387599647108316
rac@@ 0.015101181892587953
Росси@@ 0.07514046503931256
сть 0.023851156154562864
20th 0.04926070504491638
Ast@@ 0.09132292660108547
Au 0.023673538097889225
Bridge 0.05956732430734262
Capit@@ 0.08238972633112822
Gra@@ 0.043871024330091955
ape 0.0364065556595735
book 0.014246901261969052
data 0.03157692439519971
ennis 0.11486340083540064
ete 0.01912593164395
odes 0.03439822649176728
rur@@ 0.11476562346207994
sche 0.027482445399446328
sho@@ 0.012123780810863643
win 0.013025276897364187
ón 0.00746839023391383
образования 0.0882318043309262
ה@@ 1
Album 0.040446403890939855
Cand@@ 0.15437708630281316
Lem@@ 0.09421526972858889
Mill@@ 0.04871197765718447
Sn@@ 0.128634633412331
Soci@@ 0.05349956749147978
Ten@@ 0.07446856544097287
There 0.010232668118155085
cir@@ 0.035638937810321784
za@@ 0.08721938672189715
ão 0.060987721212054695
αγ@@ 0.08278944656733815
Bru@@ 0.035970932545606966
Design 0.06935554696371618
English 0.013635962080397294
Hali@@ 0.1668839679485304
Ku@@ 0.04446996401691798
VP 0.10557656962899008
aro@@ 0.08813463831509244
eau 0.011596041613269738
ert 0.0069869785532113305
ior 0.029267608829705565
ix@@ 0.10601830849996767
iy@@ 0.029084441859464554
major 0.012948590126522178
mes@@ 0.030840118725051113
pas@@ 0.01378294272627788
qua 0.04257225683028978
tut@@ 0.08307318498721677
ского 0.004256867284779014
Associ@@ 0.08528009611990142
Avi@@ 0.06894512313802496
Eg@@ 0.08912938902924886
Louis 0.01806028880137831
Miss 0.06160692682879205
Vil@@ 0.036234854384875816
bert 0.022051401708732016
imi 0.07734468409958116
khe@@ 0.0877071005485706
lea 0.10132095589880469
rus@@ 0.07976865665544258
wan@@ 0.027430113586914377
να 0.011742110466757029
ού 0.051403078059810536
ρί@@ 0.09128310781046838
ი@@ 0.9916345722249796
Daw@@ 0.09364483903914328
Duke 0.056666811958957626
Ind@@ 0.04911861928777504
Kur@@ 0.01818715393310047
Pay@@ 0.12020843249531393
Phys@@ 0.08278480245905943
aco 0.050158952799486956
bat 0.05671761552558397
casting 0.056854494934975984
change 0.016002258811628745
ext@@ 0.016657104434932228
squ@@ 0.030441819172772173
ville 0.007114934779183324
ye@@ 0.02245087122725636
μ 0.11532121025823384
Kan@@ 0.025233819097920045
Lis@@ 0.06489587935425181
Log@@ 0.0666961332096467
Pok@@ 0.06560319035296555
States 0.006970367101117051
Tokyo 0.06695702861795472
eur 0.009232116840231954
life 0.007268637948621781
seri@@ 0.04839276962921485
tha 0.05857139189529316
tul@@ 0.08015972154574204
unt 0.05018305051019723
using 0.01151369447849941
wa@@ 0.04669556865065347
объ@@ 0.061322022067416104
ские 0.014135511013571226
сь 0.044941424508420466
CE 0.07321360526219575
Domin@@ 0.04696374491114662
Dur@@ 0.038695431512094515
Gol@@ 0.03728881914438678
Prix 0.04246659268180661
Toy@@ 0.119228122874835
Vit@@ 0.07092117527156598
You@@ 0.25049804925443736
cia 0.04805784587858904
emati@@ 0.02457961326277611
ev 0.04760846427830476
iva 0.07539489762127766
ose 0.033227679421889665
que@@ 0.03859621556358226
round 0.015554408749597643
ą@@ 0.15934472236732863
ρα@@ 0.07443627998591341
Chap@@ 0.039930094283268686
Tan@@ 0.04027434567495921
Thi@@ 0.04896100085564585
Tour@@ 0.027231285801539242
els@@ 0.027045071596285077
enor@@ 0.11621590659386735
eter 0.01341058928655545
eur@@ 0.036792409506064126
ext 0.13397225364931709
ld@@ 0.05086593446680637
lin 0.03159728766607773
roc@@ 0.05087815665685255
wor@@ 0.008141389884284245
én@@ 0.009253380428204583
δ 0.6231264085128904
распо@@ 0.20584874718956747
Canada 0.01495463159780732
Din@@ 0.0595768571181318
Lord 0.03411220131446445
Republic 0.028960189313193944
Tes@@ 0.1401843470918809
alc@@ 0.15690123587767826
ather 0.03265534548272243
cot@@ 0.049102758501761615
dit 0.022153037988945055
ign 0.04324789611329241
ingi 0.7729525126593355
list 0.02184301360380166
new@@ 0.03850870338125537
sey 0.04368724980995437
stat@@ 0.014243779862121005
sur 0.002495066182018188
ven 0.016440181491854593
w.@@ 1
zu 0.0018943590946767887
ú@@ 0.01697963895750755
ον@@ 0.06236220150132418
Charles 0.013678198272293706
Comics 0.10974078010491815
Fort@@ 0.11451065719618654
Poli@@ 0.05385314639279733
Roy@@ 0.08583653817754373
ei@@ 0.06417066529675755
emb@@ 0.014747992863214635
enz@@ 0.013209827997060846
ery 0.030972596339742586
iri 0.07859375170872038
ographi@@ 0.03404138686950563
÷ 1
ş@@ 0.026682880009909735
Ω 1
ј 1
Aff@@ 0.038811607474741036
App@@ 0.07507169733526026
Da 0.036417669821673555
Motor 0.08248552523188245
PM 0.15930715430527098
Rose 0.06510171301592106
Valley 0.03506684526696582
anna 0.059407065298677904
bot@@ 0.019447294085151983
dem 0.0015444747241722125
emat@@ 0.09616173279072672
ingu@@ 0.04474886567336847
loss@@ 0.08254120568216325
person@@ 0.026547982545968803
poly@@ 0.050090549427888265
usi@@ 0.026140511512690864
uth 0.042386314527601394
∞ 1
Atlantic 0.05524675447889776
Conn@@ 0.046811442096550755
Hotel 0.058163665620324795
Marie 0.028212487734388995
Sax@@ 0.0891666062917922
Sher@@ 0.04632299783327598
Social 0.04951669466567628
Um@@ 0.01849123630187282
aborat@@ 0.09688033328426049
afric@@ 0.09853346533829013
ben@@ 0.01670628660709088
break 0.04380051102948664
fast 0.02899976307623217
fun@@ 0.018642401027003805
hir@@ 0.15443232669325804
ild 0.0729471856209214
ills 0.0235420696640379
liber@@ 0.023046859563565714
orr@@ 0.06833053515466245
oti@@ 0.024015519505949972
quin@@ 0.06991584008193057
Ј@@ 1
включая 0.11889344198514282
ѡ@@ 1
Cav@@ 0.05917139842952116
DR 0.12994423487113038
Division 0.0141763101351635
Mary 0.02460806194687481
Rosa 0.1085729756140045
Sing@@ 0.03736301781333975
igu@@ 0.030741385895172217
main 0.009222670018703805
nati@@ 0.03389227812248943
plan@@ 0.014351052466808682
uni@@ 0.015589858390053571
v. 0.050315010110114376
έρ@@ 0.08493068181087478
Centre 0.03063320237914142
Douglas 0.06469502598642277
Eas@@ 0.10608072344415237
Gran@@ 0.041060123595250554
Mich@@ 0.03335161086997285
Nar@@ 0.04663264962009515
bers 0.02135052692273966
endr@@ 0.08325868290629607
lay@@ 0.03891268229324494
lec@@ 0.034527576755101964
sang@@ 0.10518469427524028
trol@@ 0.03897299682093565
vers 0.007488151542404867
ных 0.0032852216152030253
א@@ 0.70785020451753
Emp@@ 0.06316292317959822
Kir@@ 0.028188393651491738
Patr@@ 0.03677034415411878
SR 0.056336122398941736
anta 0.07855369287235023
assi@@ 0.04853690221029851
atis@@ 0.03168482108964934
formation 0.016653775852504254
ground 0.015704420554538363
ow 0.02578101764119954
rag@@ 0.06814955665903172
trans@@ 0.005940349997361351
trich@@ 0.12578560155524032
uld 0.10104023363488707
version 0.011839856412231148
works 0.013678636523674228
ī 0.1355302129088757
Alli@@ 0.07317066407346393
Another 0.04476702634413969
Sir@@ 0.08019019190418102
Washington 0.01707062702423246
pag@@ 0.05776945406328458
pri@@ 0.01977253974789681
set@@ 0.045281481736781266
thing 0.02986614201990855
ð@@ 0.1371794682063765
ż@@ 0.19919753303342874
άς 0.15435505003373806
ιν@@ 0.05170399203575518
σ 0.48660763562103815
сса@@ 0.08868880516836689
Boh@@ 0.06625671087563555
German@@ 0.10266283031282435
Id@@ 0.05670969453793411
Kl@@ 0.020453729418126693
Nintendo 0.11361154656674498
Singles 0.06986046816286634
amer@@ 0.03147648582105824
bon 0.02858983000842387
cos@@ 0.04360226400320874
double 0.03299136280436235
eld 0.02176256540658363
ged 0.024645135875541162
ilio 0.0842025961509671
music 0.009238708097534019
num@@ 0.023586831582245456
stre@@ 0.0167421395120966
vor 0.007081705266044428
цкой 0.12305896245595797
ר@@ 0.6881694235564451
198@@ 0.09492387594882136
Ass@@ 0.08784207137544489
Aster@@ 0.14221932735441675
Development 0.04245198094780238
Dow@@ 0.05460933383156136
Hav@@ 0.03737308422426152
Liter@@ 0.05168597837811424
Mand@@ 0.04531894015597784
Mont@@ 0.018192535224562444
Other 0.02349336619728115
Pau@@ 0.04295968072628192
Pho@@ 0.2948087710781103
SN@@ 0.09655401926853034
Sup@@ 0.05662453034373267
Tow@@ 0.05339558295605309
Up@@ 0.10466962169036041
Viol@@ 0.09481774361386502
Vor@@ 0.0070835104022388875
Wa@@ 0.06299017664876973
Women 0.02388542317035428
ait 0.0058221116975657105
alla 0.057508343658884874
aro 0.050406930455379945
aya 0.021312675070777554
but@@ 0.03829554132238497
che@@ 0.04503395952120727
dan@@ 0.041414872838891635
gir@@ 0.02032378233868755
love 0.035597989207953505
pia 0.23672894688855706
ras@@ 0.03348514521963763
поселение 0.12641619837074897
тами 0.05231113699557562
Ash@@ 0.03838742313222888
Beh@@ 0.04111472752779199
Cab@@ 0.03841459841398009
Four 0.058510666677608944
Hand@@ 0.01824313968247413
Long@@ 0.06906736284429046
arts 0.03432229961059191
asa 0.04137835046403171
cell@@ 0.021463516816562344
esch@@ 0.03211291760066033
get 0.014316845870645327
mis 0.028164116678956328
sch 0.016305977084736918
sm@@ 0.02472166635695471
tas@@ 0.0389747263216556
ube 0.10375831407748695
umma 1
î@@ 0.02766488321233093
мерикан@@ 1
ב@@ 0.8382965117846797
Cass@@ 0.06629231841826969
Code 0.08689784645174274
Fair@@ 0.0683347626633656
Ker@@ 0.032634891561047465
Ni 0.34867200901942996
Nic@@ 0.042048628586136505
Prince 0.03538213245197911
Rid@@ 0.08277111132644621
atri@@ 0.05782797806353654
begin 0.06635956003003046
colspan 0.07048918709414445
ects 0.009077021185174318
ges 0.014660843201425114
ier 0.01414147589645137
occident@@ 0.11366881711253457
ship 0.00966627205394147
tle 0.057561609217802664
ä 0.1501308780905283
Adel@@ 0.06816223686522449
Afr@@ 0.0729041318201465
Army 0.01564568189630249
Brad@@ 0.06348176094223763
Hab@@ 0.03523537099094485
Kat@@ 0.027581071282022054
Prom@@ 0.059271881936896434
Winter 0.05219348870015062
aye 0.043708771765618874
cau@@ 0.09360159614487822
dev@@ 0.010166881656127618
ider@@ 0.06565161821722827
pon 0.04899559252682468
τι@@ 0.04774513863796733
начал 0.06412479694547693
Ἀ@@ 1
Fame 0.0699985641717761
Flam@@ 0.10737379158727921
H.@@ 0.11928267024993998
II. 0.048483115128927265
Ing@@ 0.04571307601321904
Milit@@ 0.0376140633637049
Mos@@ 0.025407192752305855
Place 0.08162107022865778
Thomas 0.01357621112763642
Vari@@ 0.04221264083326241
ation@@ 0.07111370638692506
bet@@ 0.03695054077466428
istes 0.024403170752967815
ité 0.006083628218021549
may@@ 0.055003957021113936
mm@@ 0.09225824929714961
point 0.011334842021456609
sz@@ 0.09154094063664205
tot@@ 0.0271671485812151
ues 0.0150214009828453
án 0.008545192290207906
кие 0.0491093919532513
нему 0.12536104871636733
Bug@@ 0.1294148694379747
Hard@@ 0.05375114494405123
Services 0.06318748953756863
Son 0.019769185697413753
Texas 0.02124363934666917
action 0.00993200268063254
ason 0.028244497311571505
dom 0.05611353377101677
idi 0.05694849325189236
itar 0.07518998231127491
iza 0.1234558788399604
kal@@ 0.025757078022756612
kil@@ 0.024105641526490695
lov@@ 0.04749208808958106
maxim@@ 0.03302975603287108
ols 0.025337794014784393
oti 0.3634527831839919
sta 0.05960942649509568
tn@@ 0.041661583035822285
ô@@ 0.020783148774354637
ατ@@ 0.07171414183511074
་ 1
Alice 0.0777365203989556
Ay@@ 0.0377474103017087
Contin@@ 0.07014709521671754
Fall@@ 0.0999991749475388
Moz@@ 0.12836322853673124
Premi@@ 0.054905324075212654
Scot@@ 0.07062324494813335
case 0.016928164213170564
cru@@ 0.024949642276866194
ester 0.0174879949522385
lon 0.05159140802820993
ons@@ 0.018712846909464127
press 0.04038338327865479
sei 0.02953508938069479
star@@ 0.015528291678192715
ελ@@ 0.06947271045749366
φ 0.18174342913408717
муници@@ 1
197@@ 0.02915641464458307
Chall@@ 0.05468957531679439
Extr@@ 0.10293821307615844
Jer@@ 0.027505444254647425
Yel@@ 0.0986731217098117
aha 0.07175421843665467
bis@@ 0.05836693763395834
coc@@ 0.06917428915607979
cum@@ 0.04345914274257817
cyc@@ 0.07568250544498574
eder@@ 0.029890585310357137
enti 0.23701833860795246
ineering 0.034777492495834554
pop 0.037514494103107705
sin 0.014819596411111297
wer 0.01397945796611311
σκ@@ 0.07150017292632081
насел@@ 0.06824369113102255
8. 0.047837530916854755
Day@@ 0.10077780615510401
FIFA 0.07136836434118106
Ras@@ 0.07297249856638917
asia 0.11653421854391305
chan@@ 0.02590340622819626
ender 0.018362015847868694
nd@@ 0.05007763605676634
obj@@ 0.014848670038246466
ologies 0.0626033090613532
opp@@ 0.020754452946429545
pi 0.1389176683396147
Γκ@@ 0.1072473353166186
ῶ@@ 1
Dim@@ 0.1159025916535574
Joe 0.03806042432849816
Ki@@ 0.027742378513795157
Mah@@ 0.0203098001857909
Mam@@ 0.09185485953677357
Nik@@ 0.06140772185560153
USD 0.12450174705745173
Una 0.043573913590820676
eck@@ 0.021974020963293144
hon@@ 0.023775332868103974
las@@ 0.03928717183321755
lery 0.04452380358345956
ps@@ 0.07691750119324942
them@@ 0.07678966880295855
uri 0.05102655471287039
ustr@@ 0.041101016283054945
vor@@ 0.005490068756327214
ɛ@@ 1
τα@@ 0.06966216283138017
стей 0.06703538369681568
Carl 0.036975007813714524
Lee 0.026967149102336104
Victoria 0.033417861867019866
enes 0.026048767177010976
eno 0.030735202308398747
ety 0.012187690285670053
event@@ 0.05915959104894824
ham 0.022620024791635635
ks@@ 0.019557419784143673
mach@@ 0.021627445318328692
mati@@ 0.03476383801050766
ovi@@ 0.06867870542724258
tab@@ 0.026261111905494627
thor@@ 0.0670746918092503
ush@@ 0.02142075934861559
Θε@@ 0.1878390763082638
ή@@ 0.06328143152749952
εκ 0.3447875811657738
BT 0.09428474300228162
Bec@@ 0.029423383539818417
Henry 0.017367869798071048
Town 0.031994493048564096
aks 0.04199718021059964
alan@@ 0.06613488712444954
alog@@ 0.04007544357339511
anger@@ 0.06050573322383163
bes@@ 0.011013657213169426
eer 0.028662463803531702
enas 0.05011718972161811
enne 0.010926794371602763
fera 0.12048394665196309
fire 0.022694729451857847
fore 0.021474212559223268
imi@@ 0.06059641440807123
net@@ 0.03231655078500447
number 0.006315782879088883
onds 0.05833732583332321
that 0.0006567659443084501
ular 0.013130822970923219
unda 0.05484835218476429
uy@@ 0.02082230517875268
ı 0.022270422277541266
να@@ 0.08252772329854233
0.000 0.03500710160184777
Exper@@ 0.0793827657791801
Map@@ 0.10984588195223703
Racing 0.06458052467537294
Ses@@ 0.11416192459348677
Terr@@ 0.060096911594602474
ades 0.01306219142337862
anci@@ 0.017381234602362027
ders 0.014319100431268139
dro@@ 0.017967432120076746
eine 0.0016458178160803074
hood 0.02713828734247348
isch 0.00822505700312786
kor@@ 0.029917268070285368
lar 0.012861356881933773
rod@@ 0.09251211273570116
stone 0.02436097365279693
tempor@@ 0.023736751826012176
undo 0.1398219582364767
ú 0.05210323711323664
πο@@ 0.10151164815798729
Ѝ@@ 1
Apr@@ 0.38625780187750386
Et@@ 0.035968092784698986
Organ@@ 0.028904989948862394
Sus@@ 0.03243063247583274
Tab@@ 0.04065080834821233
Vill@@ 0.02712714079367767
cav@@ 0.03247267752549015
cri@@ 0.011645190721877554
ebe 0.061201273540125355
ells 0.021287841833358065
enni@@ 0.0431609942199347
ett 0.017260726866522694
gro@@ 0.008806177024240452
itali@@ 0.04720311498151546
mari@@ 0.02730039153973866
ont 0.0049754200476273295
qui 0.0019547616786718984
απ@@ 0.046697872113623265
λε@@ 0.07219178681314364
מ@@ 0.6953290301617133
Jack 0.031274156523164995
Jud@@ 0.03125527679782401
Library 0.04745671617466583
Ober@@ 0.010833803464472195
Philos@@ 0.049475563099650795
Rep@@ 0.11316477736174978
Rum@@ 0.05790290990298949
Sign@@ 0.07608706445470283
andra 0.10963634012141824
argent@@ 0.059060717559064696
att 0.05789658374959393
ches 0.00857564684158368
cy 0.039851843274587226
dle 0.028745723201975843
dot@@ 0.054585000190479974
gol@@ 0.021831460303786316
inst@@ 0.011514374493776507
oga 0.07455811923922281
phone 0.04871547076618529
stor@@ 0.01695265453673065
wr@@ 0.029048261953692867
ć@@ 0.1724286726531565
Καρ@@ 0.18015255032269756
нако 1
ἐ@@ 1
Bun@@ 0.05714236439606558
Kil@@ 0.04072278605149867
Law 0.03160470271128974
Smith 0.020088079585510652
aa 0.08485168760853591
alli 0.12049322242219253
ander@@ 0.020688275557531364
anes 0.04721154020639658
coron@@ 0.08543077190955707
doc@@ 0.018177826155407785
dri@@ 0.012700164299100798
hiz@@ 0.15321604834908187
ien 0.00677009035931425
ino@@ 0.07899119809966339
iro 0.04011061835490801
ken@@ 0.014347179790319577
kn@@ 0.02441226361770717
kov@@ 0.08497933394090268
legi@@ 0.037892420765970825
pod@@ 0.1005610327810159
ris@@ 0.018402706942651566
ê@@ 0.014393709333232916
άρ@@ 0.05675105050822508
населения 0.029771225981931267
ἀ@@ 1
195@@ 0.03782153443004427
Card@@ 0.05440655014934817
Christian 0.017078235091633674
Dame 0.06202086444253641
Grande 0.04058142324913401
Hop@@ 0.06658192954299659
Hun@@ 0.04649681321365221
Monte 0.08520405594442985
Mountain 0.049370605596683936
Orange 0.08165228049092983
Sul@@ 0.03539229659770367
ante@@ 0.08729186697259696
aug@@ 0.049816779148569586
avo 0.1033123071779926
code 0.036750975720092435
gs 0.02340453034800566
kat@@ 0.030109141144112832
nationale 0.0234307033215268
princ@@ 0.07113396324605442
rev@@ 0.022566006838601403
sson 0.059547297690145926
volution 0.05330158723880132
és 0.0025559613350037936
ū 0.0822508162636054
λα@@ 0.10426377012041224
хом 0.10917519259052352
ћ 1
Four@@ 0.07202627059451461
Nations 0.04013061471330256
Rab@@ 0.04375841987741286
Second 0.02619675692739467
ave@@ 0.04254884272420302
camp@@ 0.026870005953434258
dio 0.020734318773912724
far@@ 0.01743023507187961
fest 0.0714906827948574
fo 0.05481578752386763
gem@@ 0.015463285094320609
hem 0.08524967666186717
imo 0.06673829231737916
itz@@ 0.012295777192061897
tres 0.0077416133576496465
ution 0.020945652610925142
Cross 0.044125843414509924
N. 0.08158612398764056
Speci@@ 0.08810380000412153
Tas@@ 0.04796212018159604
cro@@ 0.011442531882071833
edom 0.045349555726586034
ency 0.011725626811859667
gener@@ 0.010882625869012643
indic@@ 0.018419152752995504
ishing 0.01636027572528071
og 0.05809044351772047
pun@@ 0.024752837110500622
stars 0.0394498095215839
van@@ 0.04462728119186694
ysis 0.034566231540970487
ţ@@ 0.566108885643815
Μα@@ 0.33370720740136256
ολ@@ 0.07206929047366743
ομ@@ 0.06475127869830806
февру@@ 1
ћ@@ 1
Boy@@ 0.05541133682021562
FL 0.04970689860713047
Inn@@ 0.04633584435769451
Que@@ 0.04030473101675247
Rail@@ 0.04419476243620539
See 0.040523921046006744
Station 0.027201814153162515
awa 0.028270059512584437
ec 0.0631324985608541
gil@@ 0.20239431323081444
ird 0.05624640652470097
pet@@ 0.06637186336221058
quer@@ 0.072502055633222
sts 0.04064815815527603
table 0.028066610685648818
tori@@ 0.08603511442438638
ía 0.003283866333010006
виде 0.08506320204992004
ность 0.010615204395324361
19. 0.02632120623206575
190@@ 0.16208612035529843
Bran@@ 0.037876617681032475
Chal@@ 0.10001086866209402
Maxim@@ 0.06518663379602
Pear@@ 0.06704668738920666
Rou@@ 0.034429944640353864
ango 0.050580968014329264
ball 0.012702881109502462
cont@@ 0.006878529118329992
ize 0.023604648199847204
kan 0.04806689318951869
kir@@ 0.03398464032949342
mak@@ 0.0141448237258529
med@@ 0.012533992666143683
meth@@ 0.020278148963931028
oci@@ 0.088190064157825
olia 0.09546930688611227
omer@@ 0.10021465994923821
real 0.01997437447838708
tari 0.18304342820210673
tei 0.07593510370464207
ui 0.04363527773772508
αβ@@ 0.13889391628206288
бом 0.09948580049215787
вича 0.06647465958567976
ე@@ 0.9725908355841707
----@@ 0.612847214863794
Archit@@ 0.046875598339328965
Berlin 0.011650462589396081
Bom@@ 0.04832153131209572
Coast 0.03900971288545276
Coc@@ 0.09673905317302701
Harry 0.04167912861569039
Joseph 0.015030857505575507
Meth@@ 0.0655714037089154
Metro 0.0687919347317877
Mé@@ 0.031954040760741646
Nam@@ 0.031180598617040263
Poc@@ 0.09585521455817521
Richard 0.015610347090633908
Riv@@ 0.07935058831643538
Sciences 0.0475231594599024
alg@@ 0.015505425019660726
apa 0.05126046170579531
atom@@ 0.0445013134797512
ective 0.014264012337137002
eron 0.014568689087214504
ident 0.013472971353072669
lau@@ 0.03494293146772974
ling@@ 0.037513628385130365
onic 0.05398166608614564
psych@@ 0.030098714078056837
stein@@ 0.054155512819123446
thus 0.026417600828865215
ə 0.6739309385435227
χειρ@@ 0.6191981965847844
ступ@@ 0.029305524042314225
ё@@ 0.007914261644073401
ל@@ 0.7125780819362747
Agr@@ 0.03645030302773005
Bern@@ 0.032615814440735684
Deutsch@@ 0.05566311898685281
Mars 0.08993516583224433
Rich@@ 0.018841331718554087
Roma 0.054140304379663974
Vid@@ 0.08584156645715668
aker 0.03523575997978646
bar 0.012139544560640739
deg@@ 0.1391067423082988
eto 0.0210102280406201
fran@@ 0.02968838359146096
kus 0.07350543440055365
lion 0.02470580636075346
live 0.015928119108203
rain 0.04847986269695179
ron 0.08395716984665616
test 0.02598023682214251
tif@@ 0.04931331588802212
udo 0.12412238584251938
virus 0.07293534582331292
voc@@ 0.012104558759352367
0,000 0.017845027409001797
Arab@@ 0.030516290030328186
Batt@@ 0.04660603051475041
Brook@@ 0.05293001870832718
Castle 0.04413932796058069
Emper@@ 0.04410679404582181
Hil@@ 0.02595127990175412
Kol@@ 0.020268867976734394
Lyn@@ 0.05820358419250696
Orch@@ 0.0990533978915074
Tax@@ 0.058472701792966555
arti@@ 0.021258476452460717
asis 0.0682303106544363
atia 0.07866843280891171
ayi 0.31273130079592065
dir@@ 0.025357604161434993
domin@@ 0.01317419831344556
dre@@ 0.014706034916340474
enter 0.03110339595262195
has@@ 0.04942088469922547
his 0.0007354242647961322
lag@@ 0.019565341289678254
ley@@ 0.03562054733089945
lich@@ 0.019086717227582838
rd 0.029297236407043983
ισ@@ 0.05043689712156723
Совет@@ 0.05803383600956513
≈ 0.9723281206660874
Africa 0.020377073677562432
Bras@@ 0.07659254143110834
Bud@@ 0.027884990983750236
Den@@ 0.01756468390895391
Oper@@ 0.03243760644206886
Tap@@ 0.10713439702575728
Tom 0.030254330249854113
Yo@@ 0.06633478935551912
eds 0.016350216638016772
illing 0.029688566890360178
ogr@@ 0.042876235933279126
oug@@ 0.041494641004752884
put 0.016084831571338432
scope 0.09134923242324954
tex@@ 0.021495109800076604
viol@@ 0.012541875599294447
yo 0.037311634823561805
вский 0.06713066955070857
резу@@ 1
ты 0.00847804021121995
Ax@@ 0.08719198675497682
Clau@@ 0.07286899677496315
Cou@@ 0.0641712055557003
Jac@@ 0.03420455035214914
Milli@@ 0.04862326729906904
Miss@@ 0.08996269465861954
NASA 0.09820554430029838
Stra@@ 0.05224920277999435
Suc@@ 0.08174369880282863
Thom@@ 0.086455045464179
into 0.0025814277293510737
ordin@@ 0.020763054722732387
plex 0.07103111925995596
pot 0.05992116414797884
schaft 0.00754259681382567
tern 0.012422359504437918
uni 0.08147453699968364
октом@@ 1
э 0.04346647969025331
☉ 1
9. 0.04143270758646582
Ame@@ 0.3051032853746794
Cher@@ 0.05944385260256279
Country 0.04744287669040765
Dist@@ 0.05596726862742845
Emer@@ 0.055009554358341935
Him@@ 0.07167495348266548
Mim@@ 0.1905788192665961
Order 0.03382147204166087
Rod@@ 0.04674606298747737
Sau@@ 0.02809763200294682
Trin@@ 0.038583154631255084
ading 0.023092502272250712
agi@@ 0.08781669347542781
anga 0.047244423632084746
ause 0.023893504647102385
aut@@ 0.0139839738402231
avia 0.10859426129568531
endi@@ 0.02126873046946196
etz 0.03679081131668245
ishi 0.09253866489407442
like 0.007170929240252562
nar@@ 0.035370817371237026
nier 0.03142397775741315
prom@@ 0.009751528691640345
tific@@ 0.03183207649781698
ungs@@ 0.003882783857969219
urg@@ 0.02257068598712977
ę 1
ξ@@ 0.04955438490017535
ש@@ 0.7168971197801106
Bac@@ 0.07392302826558661
End@@ 0.05685819660605644
Fem@@ 0.059876284415626486
Indi@@ 0.015189082982538427
Revol@@ 0.047508809277061866
Se 0.010180851513942319
Shin@@ 0.0992501047191464
anza 0.03268127528007691
away 0.015050467242246856
cons@@ 0.008889046150672413
enf@@ 0.01200842989282583
ges@@ 0.008351796880732626
ku 0.07291631956150875
lic@@ 0.016768400488781858
liche 0.004827517702494919
mand@@ 0.015743455949318825
ophyl@@ 0.18886331238348078
oro 0.03378840420327674
sav@@ 0.023576727899919332
ule 0.021143886325577035
º@@ 0.3480925482532874
τα 0.011887839561269334
ках 0.022801915411335708
რ@@ 1
Ble@@ 0.0748986301453699
Chicago 0.017757660822936283
Cour@@ 0.029538525182158167
England 0.010017993100691262
Gab@@ 0.06919083411159552
Her 0.017046352188001847
His 0.006379559873032524
Itali@@ 0.06543200031734446
Kap@@ 0.02659685655661126
Ric@@ 0.048133880673969835
Tat@@ 0.06637360343027214
Theater 0.040424161420188794
agin@@ 0.053861301959308806
dier 0.05259957129651125
enth@@ 0.024942067005004814
esse 0.011443130169464612
ffer@@ 0.04237850240798795
fle@@ 0.014501732781249702
hip 0.020541490536108046
indi@@ 0.014720655319617568
ities 0.011799327778505963
ization 0.03415820243361202
nav@@ 0.015842340380794892
oke 0.029922580117647455
put@@ 0.01538402189226619
rent 0.03813191373672755
sta@@ 0.04225176151026177
tec@@ 0.0467344131105065
umia 0.5635268717858516
word 0.024108379435328006
yer 0.014858768863187021
ίσ@@ 0.08580650799448822
κλ@@ 0.0753455777490087
тот 0.05838921782472122
є@@ 1
ѿ 1
ῆ@@ 1
├ 0.19957526201456777
Beach 0.040028787330470855
Has@@ 0.036700693218924885
Key@@ 0.07523517531830658
NAS@@ 0.12047863652286245
South@@ 0.04271962226691075
Stur@@ 0.07393304735785783
Tech@@ 0.06820618737313244
Wolf 0.07733602096592121
adi 0.0492064732897178
aj 0.0701464773222768
aves 0.012356857044437845
bie 0.03561982371259213
contr@@ 0.005829865544509585
dé@@ 0.0020682168880818146
endo 0.010919825912079151
eres 0.07488294731474097
fish 0.03420263183753181
gency 0.031355211966802035
hem@@ 0.04713569813140633
icia 0.03474118842006767
ischen 0.0022968664983937744
public@@ 0.010372430026461687
rep@@ 0.02848157803226722
ud 0.025824499662344298
ward 0.011624159264970317
was 0.0002421355086652247
ý@@ 0.17041957221156834
ны 0.006150306882771599
ье@@ 0.057780103583898214
ი 1
Church 0.011755266696556702
Fir@@ 0.05276243389376705
Football 0.016443152319484816
Jus@@ 0.028509755623176244
K.@@ 0.1656468002096538
Most 0.023884707794074773
Museum 0.014823764429758548
Oli@@ 0.042681941078621125
Profes@@ 0.031813370920201485
Sz@@ 0.03482221518435442
Wiki@@ 0.15056672736055648
aking 0.025127650456814064
andi 0.10706780551256147
atur@@ 0.0230818290811971
ble@@ 0.02337301369688772
evo 0.04868416519769614
front 0.015781660572840465
rog@@ 0.0572769846704247
stop 0.03670160291597484
test@@ 0.02103180486766291
Ö@@ 0.029809449110515317
άλ@@ 0.05573815530184152
διά 0.8672262357456031
θ 0.22162782187121938
θε@@ 0.060854241353407786
где 0.012856373350230675
Ab 0.024314266930891747
Champ@@ 0.03614742939328686
Forest 0.04556690054300316
Jan@@ 0.032521597715356614
Kam@@ 0.022145925519114398
Société 0.06661404996187006
U.S. 0.009689975008910535
Vas@@ 0.0471739813629844
Version 0.061798687550619916
Wes@@ 0.030243885988457713
age@@ 0.06619925166708901
aine 0.010878798813262498
ainst 0.162027642442689
aliz@@ 0.013106254865901704
cant@@ 0.033651513710583086
chap@@ 0.016361532013508588
child 0.0242854843650982
cine 0.02477243679558213
eas@@ 0.01916719944537476
ected 0.006000658506667806
essor 0.033265133391275986
liz@@ 0.03986215422063035
pit@@ 0.03539516911778739
àn 0.057330918899064914
δι@@ 0.035007152971678966
ό 0.02159053568567384
ших 0.022551951041205203
נ@@ 0.7491779503706173
Dal@@ 0.04001266922960711
Jung@@ 0.06995142633964785
Ka@@ 0.04422511223025105
Notre 0.0660007650991019
Secre@@ 0.02455149202748857
active 0.015176753547820897
alp@@ 0.037416738650996796
atori@@ 0.058931752554752345
audi@@ 0.021400573625764602
erra 0.09306709262006256
flor@@ 0.05253467103937234
font 0.043776901295111324
hard@@ 0.032158430755709434
ices 0.013015310325202315
illy 0.034636675815123655
ogen@@ 0.047204468307358326
phi 0.11916091849648967
riv@@ 0.026313554245346465
stell@@ 0.024022530634949222
ston 0.025397963449421808
vern@@ 0.03920750503301917
web 0.040915272947343054
Ş@@ 0.03956185195087134
сель@@ 0.02127424911073834
Bow@@ 0.023623702671213723
Community 0.042454468331405745
Las@@ 0.0717009345197423
Pierre 0.017217543199551922
Sport@@ 0.02694288691021121
Square 0.05067953974604807
Stand 0.03364533450822387
Zi@@ 0.02755818024277101
antes 0.005481638308512298
blan@@ 0.022059384081011702
cel 0.052889559785128756
cher@@ 0.026630901176747677
clar@@ 0.049208191767791266
elop@@ 0.18926304803670102
gan@@ 0.01702216564687339
ilk 0.028827771622216173
ising 0.025402545301386484
jan@@ 0.10509701660918483
minut@@ 0.6246922803129921
par 0.0011299641595979648
reo 0.10531319505822703
rey 0.016278751130348094
rock 0.014545916534063513
uk 0.040631615278990306
xa 0.07541260484990905
Κα@@ 0.14607538190625316
Λι@@ 0.3259502572549876
μα 0.04789143599442371
ων@@ 0.06424343670918152
Александр 0.04735016557115813
селе 0.05980073833594804
ском 0.006804086075011134
шей 0.02754192426270594
ὶ 1
Anc@@ 0.34030732926665963
Angeles 0.017704632342306167
Bra@@ 0.06332651010474877
Kh@@ 0.013980731130986173
Lake 0.01612944350582153
Maj@@ 0.044655516168621595
Neur@@ 0.08828467246715796
Raj@@ 0.03664022348372176
Shak@@ 0.05073491583114589
aba 0.006004662005784957
abri@@ 0.04405200168205105
aki 0.026076217294845983
ban 0.016388178634729855
box@@ 0.03849646572903979
esto 0.026668516250065756
first 0.001335360104516173
flo@@ 0.011099696503470114
ij@@ 0.025789734923309358
mess@@ 0.023458745357363343
nes@@ 0.061927303723704356
oe 0.05792773733817758
pers 0.03844827381679918
rid@@ 0.03220517574610226
senti@@ 0.0538565261803857
sign@@ 0.01464398463126218
tan 0.01749816826409211
uli 0.10915298505973098
vita 0.6175173796821611
сс 0.03766698528960241
ῖ@@ 1
.S. 0.09189701180620372
1,0@@ 0.14979596097353962
Bang@@ 0.05876411101206618
Clin@@ 0.043471840258087535
En 0.0012788800589097948
Justice 0.034088578096943926
Kingdom 0.02016649796535855
Vita 0.28780547790299826
Western 0.015356779601626248
alis@@ 0.010270606095159793
area 0.0050183911344874165
dings 0.033045764556016946
ement@@ 0.02744098376430411
estruc@@ 0.07962142461735387
eva 0.037522958011417154
illi 0.07873169359389959
itu@@ 0.03750705549463574
kol@@ 0.036760759859198536
lag 0.015017009983019455
paci@@ 0.08413442844268855
plac@@ 0.017121335742923575
rad@@ 0.03309836504051931
rif@@ 0.03768820759539714
tit@@ 0.011004831569446302
æ 0.39297206505247745
τ 0.04195291435613424
отме@@ 0.041365126855778686
ѥ@@ 1
ლ@@ 1
Eff@@ 0.05518282082176014
Gri@@ 0.0429780853400655
Instrum@@ 0.06316624687071379
Neg@@ 0.04391391291636887
Princ@@ 0.037777467907201254
Priv@@ 0.05077505385234037
Reichs@@ 0.04212455537958456
Sali@@ 0.1341863291875487
Was@@ 0.07159496949376082
any 0.006410512930641572
azz@@ 0.07546392971140703
cab@@ 0.015119984736621427
e. 0.03801671025547099
eren 0.007552804830490805
ieve 0.028118206348962473
ingen 0.008875670795472529
ists 0.006699210000594271
mut@@ 0.01825799094523915
ned 0.014264893879050583
och 0.03722987460487821
river 0.019423440902956873
sanc@@ 0.049571570832870476
spec@@ 0.011424205179504647
stan@@ 0.03484952832649009
teria 0.3794150927363597
trac@@ 0.015590955174851292
vin 0.03343369822413266
wen@@ 0.01224707405737418
öl@@ 0.013190937499294543
ные 0.002965274579424031
преж@@ 0.0707804751688836
ры@@ 0.010793700302984235
Ѫ@@ 1
Cant@@ 0.051977033878810974
Fili@@ 0.04019243785023528
Front 0.04741934036963774
Hus@@ 0.04358980671848494
Iv@@ 0.06513662889094822
Jane 0.05294701101036214
King@@ 0.049773163856852265
Kle@@ 0.026359043037376077
Lan@@ 0.026586972320312454
Lav@@ 0.04881569766330179
Nap@@ 0.06926581340154163
ación 0.0017567992882322593
anot@@ 0.08553317720713928
ational 0.012720745196042507
bach 0.013246224162434036
bal 0.03527579165149335
cast 0.012136679005141442
dav@@ 0.06036719305419796
ease 0.02538029049251714
eger 0.062198989327396696
eller 0.018078818485827
iles 0.02107321095364493
imm@@ 0.025372116427416207
lit 0.01720635232876274
obr@@ 0.11766578474548359
onde 0.04704055194167261
onder@@ 0.03789294692139214
oso 0.01947393525543032
ples 0.009851504908127215
space 0.019177854872665663
strong 0.01948587020776667
sun@@ 0.035489264362554576
tax@@ 0.03127467255712706
teri 0.2791851941805247
town 0.006075786096336462
ules 0.015782240198482816
unds 0.012805661057023611
wing 0.008593072628827365
worth 0.024814203539023083
yer@@ 0.057045516062503854
ες 0.018716556433042177
ρου 0.0906905499028985
τά@@ 0.05219129327499893
τον 0.008206558118500733
одно@@ 0.025778561788412695
Carol@@ 0.05179689537125284
Con 0.026023298883754337
Hung@@ 0.0448867271696222
Nati@@ 0.022426697898572018
Rein@@ 0.03622587865954666
Roger 0.04031491892711121
Roll@@ 0.11577233443129532
Some 0.015195712064686026
Stand@@ 0.0264853289301231
Zen@@ 0.05564419933490725
ances 0.007973105656969957
arp@@ 0.1312818186399396
aut 0.010355291277968625
bot 0.032910018103917936
each 0.0063656966465682596
enna 0.04649176049665488
igo 0.030487428367022108
ischer 0.006278915106401668
ka@@ 0.08667351003143028
kul@@ 0.019375316547810374
model 0.019202373378490716
natur@@ 0.013642896243751472
offic@@ 0.03228734326722757
ologie 0.009531611263704914
oper 0.04372865280217468
osh@@ 0.049176205052187665
ough@@ 0.02086342670453447
over@@ 0.00701510014832692
pper 0.036687173600563686
sea 0.016460691630901282
sh 0.04381259597845789
sing 0.013491506111426188
sional 0.026673264675912797
sou@@ 0.005851084556169855
source 0.020694036795202608
systems 0.020687621346852487
ungen 0.002587497784085896
vet 0.0934585341787715
vet@@ 0.04511679249242356
water 0.007921169237748873
wit@@ 0.036467589399495445
έλ@@ 0.08005362091779421
κο@@ 0.08156705576646477
ρίου 0.2079284593878229
σα 0.1898905993238531
ды 0.008671963692728601
нь 0.04598012444926966
сса 0.035389530907878455
≤ 0.7149768596378425
194@@ 0.06429807252770448
Bad@@ 0.03175648929652732
Barr@@ 0.02840981902654581
Bass@@ 0.0647163886473463
Hier@@ 0.053406558857508446
Maz@@ 0.04088678472505231
Tony 0.03756122035076175
achi 0.0773974786197414
ames 0.03423575236365802
ben 0.008534144987258132
cost@@ 0.01925481973354778
div@@ 0.018761474330640907
ensi@@ 0.03820838442325115
este 0.0052217718087926865
fir@@ 0.010749139100418591
lem 0.018772971516600345
mexic@@ 0.05981510598632443
mont@@ 0.028841201484239215
ose@@ 0.26289573789607396
phot@@ 0.013084222372033587
quar@@ 0.009813282690218137
regi@@ 0.015102325889433737
rier 0.03778672461545616
tag@@ 0.023424547494563228
war 0.0012373285415763365
xi 0.08331860229247377
án@@ 0.01509574004642764
άκ@@ 0.07776084706396554
.C. 0.023296419647265407
Adri@@ 0.04487416952950867
Apol@@ 0.07043284926359354
Hit@@ 0.061469945903636636
Lind@@ 0.03947268509048989
Pacific 0.022745834188643482
Steph@@ 0.051434347669910355
aces 0.017643412661920516
aim@@ 0.03563288092341661
aux@@ 0.06168893099203954
cht 0.010721505553651626
cou@@ 0.010796799592331307
ebo@@ 0.06922741276198696
erk@@ 0.0165960889463713
ident@@ 0.0472163221403203
ingi@@ 0.19450450123799579
iting 0.03215801413523098
kers 0.016123200364272585
kop@@ 0.044867693628181333
lik 0.04248782683298771
onlyinclude 0.04453611289431938
orio 0.029681980596054345
orn 0.05014622647020058
thin 0.04106718675834025
tima 0.09206591771253883
uno 0.011386738157090565
versi@@ 0.014575403363738833
ß 0.009713306470811365
él@@ 0.00822887189028006
ür@@ 0.009558629933473863
ý 0.03367075883143495
ίδης 0.5498790329234954
ρον 1
τη 0.010044960797222868
ментов 0.071792359830965
Anna 0.029196726747636754
Dipl@@ 0.06232962475625103
Fon@@ 0.04126428393883894
Jag@@ 0.05171791095955061
Nob@@ 0.08068752550936398
Oxford 0.032234129057944406
Pier@@ 0.058851213981530835
Rog@@ 0.044199334861332616
Ross 0.05166412793877878
Stadium 0.03173510748307975
a. 0.027114736252383233
anne 0.02419285200974517
ats@@ 0.0216805651507432
enci@@ 0.012035210953349612
endi 0.09933884177869017
hat@@ 0.040302852017236594
kis@@ 0.09941923666241335
mode 0.042595440222780154
part 0.00284675392917955
pedi@@ 0.03171335988536781
rim@@ 0.131935156969745
sat@@ 0.020441754426512925
schi@@ 0.028954122396444917
tir@@ 0.01728583426137424
unter@@ 0.004491323389457794
ɪ@@ 1
έ 0.13428196445618912
ορ@@ 0.04609858510836417
ո@@ 1
Alexand@@ 0.040292466091161314
Back@@ 0.026919780049215025
Boul@@ 0.039630823702176375
Crim@@ 0.053854550533612
Dé@@ 0.019488618521659243
Fres@@ 0.06118870102715861
Friedrich 0.018804611759424297
Gul@@ 0.03311030632136162
May 0.004680984130402968
Orchestra 0.05372447755108174
Sain@@ 0.055512165016386845
Sin 0.021947939457970952
Theod@@ 0.04862618580530822
Vin@@ 0.0695225020223979
Yam@@ 0.05546786824115059
band 0.006142944397453262
bey 0.04436205230960394
bos@@ 0.03150669195760086
cad@@ 0.02364944769293422
din 0.041966124296404436
dos 0.004788766479525469
eign 0.01697739361424077
flora 0.11161858922170884
para 0.0016938466844720582
press@@ 0.025948474758211996
ria 0.07588779489867245
stream 0.03102116243227977
zum 0.0023687106236275754
ü 0.025126580904510365
Ά@@ 0.08913772299560348
имел 0.08643486550722583
‚ 0.0875645254647788
Bla@@ 0.055084958284533005
Bour@@ 0.035814189305597995
Casa 0.06656938468190843
Du 0.047086126399872204
Fam@@ 0.06711175669276011
Gas@@ 0.030730540208744446
Gil@@ 0.020875688674229925
Hat@@ 0.05228388004841526
Health 0.02888383874142372
High@@ 0.04100573352952741
India 0.009554393463952818
Libr@@ 0.11427561587899271
Luf@@ 0.049723478156618005
Nord 0.018918532928520082
Single 0.05802531910661743
Stat@@ 0.05579813029460126
abl@@ 0.017814390538381374
aw 0.030408635655209224
azar@@ 0.06567832507412431
aç@@ 0.026782404061281687
ck@@ 0.016074603641127748
cos 0.016496983068331913
edia 0.07456018137000163
fi 0.09095895467945
iki@@ 0.20848213710649566
isco 0.1619529452594587
kw@@ 0.03945197831337964
loyd 0.04730617872103974
nu 0.09214177593666002
oj@@ 0.07171529584883732
omi 0.10473145883124785
reich@@ 0.01747639887674504
shar@@ 0.019165697353508482
tari@@ 0.03320218161585571
thi 0.04132641428404324
tier 0.020635318952662247
ulu 0.047660987036655875
year 0.0027743327680549686
zon 0.12677382434902104
Ȣ@@ 1
ɔ@@ 1
ФСР 1
ד@@ 0.8801527166638325
ה 0.7568282289723344
の@@ 0.6777438434292002
Australian 0.012253152932931504
Council 0.010227875967296723
Eri@@ 0.04986885230634612
Esp@@ 0.027519930220684146
Jam@@ 0.025643379063322716
Lanc@@ 0.04375387972390665
Lo 0.08443914477962398
Ma 0.0717468287978515
Ny@@ 0.06271122335136739
Rit@@ 0.05057907135408724
eil 0.026383658847233676
hac@@ 0.03573097749314555
her 0.0013121714771506304
imler 0.1764417470563896
jam@@ 0.11448486605381511
lands 0.009287985288783203
lu 0.044133176570330244
mon 0.059516002768975174
ort@@ 0.01624071285895812
oz 0.05593776639502348
pen 0.03142011755558093
peti@@ 0.016993912716670237
plas@@ 0.031219000339259367
result 0.012725417083502418
sed 0.0087768523483772
spr@@ 0.00851399056607061
sula 0.03413081720788324
tar 0.024588779544921342
tem 0.05077881388202893
tun@@ 0.019578798971765673
Ç@@ 0.0235148955599967
č 0.1262940276550336
ший 0.023160813556640607
187@@ 0.15469353217116133
Beat@@ 0.0644110377944244
Charlie 0.05603283219264762
Cla@@ 0.04329950555324815
Deb@@ 0.018692395879463627
Elizabeth 0.02728899987571057
Greg@@ 0.03343105955948334
Karl 0.018224180366268633
Kel@@ 0.03924883409665201
Mass@@ 0.03351514266647856
Nom@@ 0.0739136616424804
Pass@@ 0.0333596946811816
Plan 0.047786051944041084
Ry@@ 0.04456925581671375
Ré@@ 0.014410468390242553
Teatro 0.07074742202263144
aber 0.005477670538333878
ails 0.02621207360477735
amar@@ 0.040778867056579904
amor 0.09268352293318256
ander 0.04367876785639123
asse 0.020858977379592095
auc@@ 0.03750737522553692
bass@@ 0.027526884364900583
black 0.016245925680965157
current 0.014177781874131653
elin 0.08183570689617913
emi 0.061161505077813816
fied 0.0072049513050565965
fili@@ 0.06493984586973983
fon@@ 0.011405387353406266
fort 0.010542386955199516
fri@@ 0.011467884579291378
gy 0.052650404175280295
list@@ 0.014670027512822802
maj@@ 0.03919111733611546
ock@@ 0.024591570076600296
shire 0.0142508569001325
sing@@ 0.019683837229764505
ult@@ 0.015255728920526677
uses 0.008887148399779467
vention 0.014695805918583743
weight 0.022361903795457966
ř@@ 0.047885807362662944
χει@@ 0.22321802515279832
1st 0.015692979366654956
Aj@@ 0.06915449257441143
Dav@@ 0.023895805020764993
Det@@ 0.042146751557626747
LG@@ 0.05745700771103077
Nak@@ 0.05162427922466506
Tok@@ 0.10952577683158324
Tol@@ 0.027610173465801722
Walter 0.024523080301686085
Wer@@ 0.015084151227389982
Wood@@ 0.031530511040539895
bli@@ 0.03936942393286055
edr@@ 0.023249915606598802
elles 0.007075189186751609
elt 0.007176540329343868
gesch@@ 0.005777006371457405
have 0.0015730724413723592
icro@@ 0.4684792705282937
ition 0.014904035925042951
juli@@ 0.509193693878624
mili@@ 0.05719883687733569
ological 0.011062281202625979
only 0.002722143637818025
onne 0.01502188663623063
phy 0.0280015260307728
pour 0.0012153577306363782
sert 0.03596061857965539
spect@@ 0.03652752466848092
square 0.026700001637467705
vey 0.022807346059962045
whe@@ 0.015282034102535418
ya@@ 0.13196214589485575
ár@@ 0.01632157124890932
ą 1
δο@@ 0.15218238204356696
εί@@ 0.061749605400031854
є 1
Asia 0.02299501774172381
Bibli@@ 0.03219539161583574
Boston 0.021071369702157377
Giovanni 0.056497706349903115
Ken@@ 0.039699763439379136
Maur@@ 0.033647508037106214
Roman@@ 0.04495223517709237
abol@@ 0.028851783031402463
ann 0.023627787826762805
atos 0.028908310714990625
bec@@ 0.05237859930032168
bio 0.055602391896396194
dix 0.03845402898678535
eling 0.032355407810705346
fic 0.01561782436030347
fiel@@ 0.020625307091976176
gun@@ 0.0208014880193886
itung 0.02410929072296925
kur@@ 0.011172131889142295
ls 0.015208131820224331
now@@ 0.025435947200607927
ought 0.012683165581019026
rou@@ 0.013506030867244499
tak@@ 0.018725635373196207
tors 0.00829372436810695
vat@@ 0.11391615721313816
wak@@ 0.03347234123675039
ł 0.21894962103493232
ογ@@ 0.07785898771429256
акаде@@ 0.21738238027141743
Alex@@ 0.054724839573677436
Cra@@ 0.03401462255399445
Fat@@ 0.10368597653150194
Gem@@ 0.027475323063964698
Kre@@ 0.019732032346960977
Mik@@ 0.02833354855901776
Mut@@ 0.0390006542924962
Revolution 0.03409823811558278
Southern 0.021154804769532853
Wild@@ 0.04088080451731145
ares 0.010912885420936328
date 0.012388826222745921
han@@ 0.032304598980894376
inde@@ 0.021752241445090647
kara 0.14287842125071462
kre@@ 0.01653022389264859
metal 0.024689250378473814
port@@ 0.007300010708666245
rid 0.05274988723752423
rie 0.028302628934649156
tes@@ 0.03061336273445372
usion 0.03864973704892943
vac@@ 0.030451764436825356
xe 0.017899941001427826
ów 0.03313578563193299
Καλ@@ 0.15435828740086957
όν@@ 0.045502775847917294
рь 0.047350308411820814
ῦ 1
™ 1
Band@@ 0.041710126022615576
Dru@@ 0.03049534792647939
Dun@@ 0.02459366616954286
Flor@@ 0.02515229451335277
Francisco 0.013548519679946122
Histoire 0.01908062704004194
Main@@ 0.03831023050687738
anni 0.19389949012595928
anted 0.014564061592865864
board 0.013647114325290347
chn@@ 0.07763395917531236
een 0.033588466966642354
etti@@ 0.0650175600652995
europ@@ 0.021164729230240677
fig@@ 0.020374004884752085
fron@@ 0.018772912942686334
ging 0.011227037559005965
iment 0.018658669849104713
imp@@ 0.008897086799232656
itter 0.05797600293169214
lam 0.029555014259649685
libr@@ 0.0221799596699739
otom@@ 0.07433129379779815
pio 0.06333898070374179
rant 0.02085056409173926
rio 0.06902311933706218
speci@@ 0.0212369199656665
uki 0.05591775260721813
web@@ 0.02230524217628757
werk 0.017050428661595566
werke 0.04507628112191125
ń@@ 0.051461382856816125
έν@@ 0.03683003143906918
ις 0.2387086748957476
ψ@@ 0.07997504022794658
протя@@ 0.06849592895213248
стато@@ 0.14325216053627932
Bag@@ 0.03880095371617325
Biz@@ 0.12957788994277927
County 0.004411210405209801
Epis@@ 0.03802996156961226
Hay@@ 0.025172287042759388
Jum@@ 0.11134233631735033
Mr@@ 0.0454355372548503
Pour 0.018133580580069555
Simon 0.027846812632818557
They 0.0047493206108348085
ago@@ 0.040264183567698286
ament 0.03824598723155222
ample 0.06841416195017289
anas 0.021102694039535897
aver@@ 0.026556265292490413
bei 0.0018529219856209948
bin 0.03239115293238345
campus 0.029142088637118677
ching 0.020250477519953996
dest@@ 0.02579425610822203
ering 0.011780247187159932
hot@@ 0.024955977083296808
ires 0.010471796410526321
park 0.014374145854573445
rad 0.04284230454943415
rug@@ 0.10601411486042395
sex@@ 0.03335150503652833
sky 0.017565817266762436
sons 0.013479683580688542
tran@@ 0.016298510727507754
uer@@ 0.011854702400936952
ö 0.06913316704796514
ě 0.35634304147133483
Δ 0.1723923767425764
Μπο@@ 0.23250379857372447
ατζ@@ 0.4658552296740519
μα@@ 0.06521457245347503
городи@@ 0.5594602348353868
ꙑ@@ 1
Atlan@@ 0.05611194790896981
Bill 0.021912952110675392
Cad@@ 0.04378329849334
Ges@@ 0.010396708899113878
Naz@@ 0.052578050905540914
Pav@@ 0.0397908575363827
Rand@@ 0.035515526694852494
Rio 0.03336558678309932
Stan@@ 0.03425030595379307
Telev@@ 0.11872089112960064
Vig@@ 0.09850459315070983
Villa 0.033507924671563306
Yor@@ 0.030989438825807798
adem@@ 0.08015797268691637
aining 0.012912069117079842
arina 0.071023812798313
bs 0.014487188550936952
dan 0.015873002012806184
entum 0.05284594003694267
eux 0.008878775184850004
hand@@ 0.006621421771879186
kit@@ 0.056717567243510555
lang@@ 0.013724934656760574
lave 0.045443250750048944
pass@@ 0.006220235174878853
perial 0.028006221557028418
show 0.006582387946201961
tico 0.011327349961747626
tru@@ 0.0330442662002172
tt@@ 0.027377413758991737
typ@@ 0.014749966138589029
ufac@@ 0.1293776575935016
zo@@ 0.05101200411721243
Περ@@ 0.1865966682630243
αυ@@ 0.08822535535097319
οδ@@ 0.06139165591019009
οσ@@ 0.07430482352203313
πολι@@ 0.10527573332622527
ως 0.014694958721856693
ья 0.01263327663595687
192@@ 0.3110140453309034
193@@ 0.032932199043684426
Bau@@ 0.006779906698469354
Bin@@ 0.0856732941139534
Bob@@ 0.039128944989025756
Court 0.012093537703735942
Dj@@ 0.07183074607620289
Had@@ 0.052904625317504894
Kas@@ 0.021741718592954228
Lad@@ 0.04990579219694342
Ou@@ 0.042083025369857655
Pow@@ 0.03937486639226917
Sad@@ 0.0503065245118584
Suz@@ 0.05763021069348369
Tenn@@ 0.045589588193371014
XV@@ 0.1796608519089963
ables 0.008521716210795257
ablo 0.13836440016688104
apar@@ 0.0249178620104314
bom@@ 0.024036331212122276
bor 0.037349378171366306
curr@@ 0.02502690729440216
iche 0.02201211514292428
kle@@ 0.02727156155644371
kun@@ 0.03860787425807257
ligh@@ 0.010684490114278881
lun@@ 0.053930779981549305
open 0.012899285526284422
oss 0.038340168930111364
sab@@ 0.022105533359237605
shi@@ 0.014133682752296229
va@@ 0.0688461265745694
wel@@ 0.015777737300730336
wide 0.011098397078638269
yan 0.02267317607033946
¬ 1
än@@ 0.006232111761159866
õ@@ 0.11155434807692445
Άν@@ 0.14280418917634466
ρού@@ 0.09453844028046533
τρ@@ 0.04031719226549363
υρ@@ 0.09473630929425934
Asi@@ 0.055456604712478985
Committee 0.016002301325613217
Daniel 0.018472304591738285
Hug@@ 0.026335226355912296
Medical 0.03457771094594048
North@@ 0.025247354749084877
Police 0.030445308126512236
allen 0.022648999370709237
atten@@ 0.03133933951574236
bour@@ 0.02464909516096202
care 0.019424129189310628
cog@@ 0.05862376214716771
emia 0.05355955853830349
kt 0.007989244684424001
mal 0.01000807474297092
mir 0.03957073716111813
phia 0.1162505295916912
say@@ 0.011515411173125666
sep@@ 0.10385354962260253
sort 0.023283778277956534
system 0.005381989093150846
yal@@ 0.0377830247097434
ı@@ 0.024269513729948015
Δι@@ 0.07258236402492695
ητ@@ 0.11973296692499753
ούλ@@ 0.21966123655005845
атам 0.07047427689924735
афри@@ 1
ългар@@ 1
ם 0.8739088551601323
Ant@@ 0.026845202839339506
CF 0.06281589573552995
Di 0.08511373838010389
Doctor 0.03914716206529566
Euro 0.032192455819557216
Gel@@ 0.016638115158785036
Git@@ 0.05335581285629382
Hall@@ 0.05257686339021795
Hid@@ 0.057299651009959325
Institut 0.026324789542423392
Jack@@ 0.04591421063257365
Marine 0.02846193093009089
Port 0.02584546783584954
Tam@@ 0.019473788166782423
Tek@@ 0.08995416380878717
agen 0.008735105902858213
aud 0.02293547648135282
bab@@ 0.04040510715851665
blo@@ 0.01323892157249328
boy@@ 0.02338818644546426
ces@@ 0.01163594277599121
erei 0.046541097798766626
espace 0.052359433155116104
his@@ 0.05930481528508723
igi 0.07372747748884606
kins 0.02322300684604881
lot 0.009806655197851451
nel 0.023936454245219306
ograph@@ 0.012675478229964654
ongo@@ 0.07632474504988002
ool 0.12688805317719304
prises 0.021688250162033882
sten 0.0049371554250062085
uga 0.11072578431543685
άδ@@ 0.14954651462276577
γκ@@ 0.03946502200803532
εν 0.10962158655522261
ύρ@@ 0.16307715925268482
Его 0.03223178630030051
премии 0.07859973329352017
цы 0.009166236679051021
ր@@ 0.8847527301710939
ὐ@@ 1
185@@ 0.1518224385691542
Dad@@ 0.0631245923778069
Fund@@ 0.033580501995872904
Geor@@ 0.029522700570879145
Latin 0.02299626292513264
Leon@@ 0.02480839408622816
Mart@@ 0.04147269370918866
Nord@@ 0.01078896108371374
Ost@@ 0.020234966205281597
Pad@@ 0.026532293574167816
Pand@@ 0.06657457426911188
Top@@ 0.039626025696584126
Wir@@ 0.01924363262230265
acks 0.016033600102618558
afe 0.05785800138900072
ahi 0.09823585077022966
aint 0.049974388244591314
amin@@ 0.021077161316995035
apr@@ 0.06045928932007545
arias 0.029995039695629798
aven@@ 0.033606752854328584
bile 0.03605729042148917
blu@@ 0.019970040971675204
dat@@ 0.021030208265609283
dil@@ 0.03371664245136909
ener 0.012329870597900437
etr@@ 0.030410916594127216
fall 0.011509236833294826
gor@@ 0.04605620116171225
hai 0.012536813148392133
hav@@ 0.017438804613651323
heim 0.015875286291810974
imin@@ 0.048757117062475014
isse 0.012663336866959874
long 0.0046467317407560965
lower 0.012895753328893334
parti@@ 0.008380044962842266
pis@@ 0.0541549412898297
road 0.007579909896894159
ste 0.0057554718043408915
syn@@ 0.010625882035856937
title 0.007818589769976727
té 0.008307768831489754
vas@@ 0.02558628643056552
vie 0.01283336001508464
yl 0.024942364241648154
zur 0.00283849225519152
üt@@ 0.011468237259823844
άρ 0.40772859022172137
όρ@@ 0.05437730023418795
ه@@ 0.012787493761927516
ნ@@ 1
្ 1
186@@ 0.14772249166071125
Ba 0.06162627688462832
Bundes@@ 0.011674651094047838
Chev@@ 0.04570476546408909
Develop@@ 0.18018334159885405
Dum@@ 0.05609147132636488
Guy 0.050253964575183815
Jan 0.0337660728716436
Kad@@ 0.0355712178744541
Kim@@ 0.06236205051213624
Nacional 0.013945643841252848
Rac@@ 0.07376524887397515
Ris@@ 0.053969510422823566
Tag 0.030608928161967013
Virginia 0.014601620059706357
acht 0.00907236841585007
americana 0.07220188880131394
ancy 0.02332704176678299
atu@@ 0.05430864664658913
bu 0.012001303213482938
but 0.0012065906064163607
cut@@ 0.023715932984161813
egel 0.04486339523287171
ening 0.021432243496585394
eral 0.017069336270177028
ichi 0.06454978214064565
ig 0.01145572132327464
ked 0.006539544193938579
kt@@ 0.027170405085387504
ligence 0.02943156728882621
master 0.021587126979043032
mont 0.015484482162838816
omin@@ 0.04830119424816314
pad@@ 0.040791643716093326
soci@@ 0.006313934824288347
thel@@ 0.05118420419687229
tour 0.009470674140483581
umi 0.06161593100327241
uss 0.018362212472938205
ίκ@@ 0.10338050098982943
губернии 0.046816349636983064
золо@@ 0.04075238962493254
лях 0.047724624806784105
Ale@@ 0.03618899662435182
Alexander 0.015179933288501014
Atl@@ 0.12737050959062296
Culture 0.03826058748326609
Cum@@ 0.04461190481962923
Johnson 0.018956460417852098
Mark@@ 0.044866629585449444
NBA 0.02870009873305405
Scott 0.020032986828895132
ador 0.005435202357219397
ament@@ 0.02010742879488234
base 0.007659511619789111
bau@@ 0.008599173457021068
centr@@ 0.011413653783291908
dale 0.03612100844916617
dans 0.0007778737849286815
dh@@ 0.015490545670326442
eff@@ 0.004896436930213876
elt@@ 0.03131408090428678
ember 0.03201769123988661
eting 0.07642410109597066
exec@@ 0.014295188941878704
eyi 0.1573848433165062
igi@@ 0.036622882275585716
iler 0.016926324135105825
iste 0.006738528773775267
jan 0.049408652149282264
jer@@ 0.03019585789691152
law@@ 0.01076612732969619
ments 0.006950433226575717
oft 0.025969105972486452
ply 0.011293853165443886
post 0.011549317301166324
prop@@ 0.011661571762802006
sl@@ 0.01881130728058412
spi@@ 0.01468364852958889
tad@@ 0.015734008474377795
track 0.009472517269474528
tural 0.011257249447724403
two 0.001343188467570722
vie@@ 0.009354713672665101
Ü@@ 0.041675246176017026
Αγ@@ 0.14546865883917254
Γι@@ 0.10856409139108644
ην@@ 0.10375070040095752
λά@@ 0.13523327893282217
Alg@@ 0.03324714383319356
Australia 0.007643344384416766
Bes@@ 0.007771129366555633
Edward 0.01578091414799192
Ein@@ 0.0038114049455835485
Frances@@ 0.04603975615585396
Jimmy 0.043183312991780645
Jug@@ 0.05683239173564301
Kelly 0.042415791113179536
Kenn@@ 0.02547355959963683
Morgan 0.041394583729788395
Ord@@ 0.030682057342758317
Roman 0.011891012592205603
Sant@@ 0.0321292144495621
Tos@@ 0.07313305869139677
Tul@@ 0.048238821387355794
americ@@ 0.2557852467680461
anim@@ 0.008258463655286506
arte 0.03174821372038162
asser 0.03905776828913749
aster@@ 0.03171709097944277
cs 0.01807355331948395
enberg 0.021074776896854042
fall@@ 0.017427093670273494
force 0.010867406466701321
geri 0.10857659220012793
hil@@ 0.05336305999835957
ige 0.004498612018639865
illo 0.01908568057607786
integ@@ 0.04150045387637997
kar 0.05536191275753031
lins 0.03342533456864076
news 0.023416809087302183
ott 0.03314928768098092
pre 0.019934778770923943
ros 0.05300699895044225
sion@@ 0.022955734899533405
tag 0.02172892995651315
trav@@ 0.00785485009820728
troph@@ 0.055262195638809256
ves@@ 0.04120257384438854
ǎ@@ 0.5490018392941064
Ξ@@ 0.22893322549405593
νη 0.08834324389441975
οπ@@ 0.06133591329314993
запре@@ 0.07141129105362562
ию@@ 0.05370610133896592
средне@@ 0.04380554276180696
12. 0.02701187845784382
Eastern 0.020283305485240856
Gau@@ 0.03165558237156126
Gib@@ 0.04194232653331106
Heinrich 0.021035044204295573
Ich@@ 0.13428768349827874
Temple 0.03454970952609526
Universit@@ 0.033097444943430636
Wilhelm 0.018680942594169865
abe 0.0188991542023029
alen 0.013430793282247196
bou@@ 0.022978049489891305
bras@@ 0.0557485351601687
eki 0.11762909722077543
fica 0.03836889004496241
fos@@ 0.029079217768975308
free 0.011477306550457101
gam@@ 0.040730107410659744
gether 0.07059578874431605
group 0.004368185396383432
him@@ 0.06525617680787461
ina@@ 0.11244179900586576
iner@@ 0.06697270051153546
ingo 0.035274437787968224
isia 0.1088594257434259
kap@@ 0.021985758291446573
mai 0.03536821363515192
mar 0.016202729658524238
next 0.008068799353796719
oid 0.019849215933288544
orie 0.01414987578546945
ority 0.01338914799519512
size 0.014530643619853567
sul 0.06055495285126111
uke 0.03912154606548305
uo 0.04396636618563599
αδ@@ 0.08241711236062454
αι@@ 0.03818626999816987
αρχος 0.5367803798098205
γι@@ 0.06725038927002307
ετ@@ 0.07944907955881322
Он 0.015235825297574314
августа 0.01854539907587844
вый 0.01585003745540082
ვ@@ 1
Anton@@ 0.050260121201387724
August@@ 0.04701557242684382
Avenue 0.022249083441088578
CEO 0.043902460558921504
Deutschland 0.011201185928262716
Ear@@ 0.044361139048218784
Education 0.014285975391233373
Europa 0.015188713902096349
Ey@@ 0.0809375393426983
Gran 0.03161145684549846
Harvard 0.03575073760623531
Juni@@ 0.03932736098325052
Korea 0.02710388897473596
Les@@ 0.02261588965680573
Shu@@ 0.06604515613792726
Wind@@ 0.030828316859388246
alo 0.027775685314136836
car 0.006346054015353723
det@@ 0.005775893748163247
dres@@ 0.01327681836740139
eman 0.020198664081316958
eton 0.02775660389744847
frag@@ 0.018464168742343207
gang@@ 0.02379703093712795
gar 0.016802688705798777
gom@@ 0.060115379132390165
ils 0.004345430198809042
ismo 0.01085005098380652
ited 0.00456879919164523
lang 0.012772510042776332
lik@@ 0.011947001855879158
mani@@ 0.032881277387768505
nos 0.01871100609406178
ono 0.05356186579027905
order 0.0066260934674957
rat@@ 0.044528050965873346
sag@@ 0.038532697175281405
sel 0.014715099746994318
seud@@ 0.0536307406475137
sport 0.021512127148462373
stanbul 0.07334656008197978
tech@@ 0.07825897269203429
uter 0.01739661582138184
uz 0.03060374672391172
zel@@ 0.1003622346473975
zia 0.13641597297302613
ön@@ 0.009176291189304981
Πολ@@ 0.21998664134503357
άσ@@ 0.053480444575917704
ηλ@@ 0.137175829590207
λλ@@ 0.06466360688414806
ρε@@ 0.06252013964434712
υπ@@ 0.05177568379332833
вы@@ 0.0023903490363250185
дня 0.06819899186860948
ע@@ 0.6391084962160645
Anh@@ 0.03205117341561564
Bis@@ 0.038558755878044616
Kos@@ 0.026647177960725875
Manchester 0.02785168390573507
Metropolit@@ 0.03460454287556206
Ministr@@ 0.020984991955420012
Nev@@ 0.030318254310500305
Princip@@ 0.04780708975996773
Proj@@ 0.02134235410456164
Reich@@ 0.021009513206363014
Rhein@@ 0.032732613168451684
Sib@@ 0.07218709810919241
Spi@@ 0.030426123937396597
Tir@@ 0.03615278901560039
anch@@ 0.03746954634066029
elly 0.05656881736584077
engine 0.019384481694315787
estra 0.028686086608876265
eval 0.03106437837336853
fication 0.00859217553719148
fru@@ 0.020284527373278394
graph@@ 0.01921117267837848
ific@@ 0.012935324001165965
ilo 0.044741718922159994
inning 0.040750352258638566
iz 0.033552822533763134
jar@@ 0.05455458924640176
lies 0.00943115943842645
mix@@ 0.012326938366961773
pris 0.02923022826036275
rig@@ 0.025923567902947565
sex 0.01657119589525831
sir@@ 0.031977249919386164
tly 0.009015377446057732
tur 0.018466271995378744
ui@@ 0.04467101518302661
unger 0.02378176814121897
vig@@ 0.0339567685569932
ē 0.46093414117425907
Δημ@@ 0.22375778295614096
Ε 0.1486054901992595
Παπ@@ 0.2550885839686492
ίων 0.06309053917449034
ιά 0.08827487351750742
όσ@@ 0.06774760983706556
испо@@ 0.1938824868321386
чь 0.024897742209676003
ָ@@ 0.8507359947203889
ת 0.725752672147004
Ah@@ 0.023759698911266867
Albert 0.017788465086439092
Carlo 0.05871535350561242
Creek 0.018861767664739213
Fron@@ 0.05515094566783727
Green@@ 0.027282796386152088
Grim@@ 0.053588431992043356
Highway 0.02163103740481775
Kamp@@ 0.024352665340558584
Kri@@ 0.023655931036191187
Middle 0.024083720790457133
Navy 0.014375150484304289
Nick 0.0424171167077565
Pf@@ 0.014181506539755966
Russia 0.01726282428761347
Wall@@ 0.02421153008018314
atura 0.023363838877495283
auer 0.012215920061764756
avi 0.054981302648249956
bol 0.02342025399263863
card 0.030790097740745124
chen@@ 0.019028644711595103
chev@@ 0.021833259248200048
cial 0.014100359542533181
ector 0.04166670566339952
enses 0.022363393525643434
enter@@ 0.02073426968872689
ever@@ 0.020739940564844545
forman@@ 0.05615337511741425
host@@ 0.01318843074325312
iterran@@ 0.036521267795772715
ju 0.07682140965271757
kam@@ 0.0347251938739091
led 0.002887612013238383
nea 0.04523288702225925
polit@@ 0.0765780956219
pom@@ 0.059237264670306995
produc@@ 0.003394406147882139
room 0.013507714942809364
seg@@ 0.014694526053063187
sters 0.03754116548249946
tent 0.020509950075669605
tional 0.009058104084631124
vier 0.0085566682067428
west 0.00517537169002284
zen@@ 0.0242725893578584
ég@@ 0.007065846527761554
Αν@@ 0.06230890302235844
Κάτω 0.5404792675448054
ική 0.01328089272105215
Боль@@ 0.04510854356846624
мы 0.00878017111355628
рую 0.19708742291347944
უ@@ 1
189@@ 0.10915879007446266
Americ@@ 0.025467409340042373
Austin 0.04165720664720248
Chris 0.022729651073836822
Corps 0.019943364470993836
Italy 0.016394254512136063
Johnny 0.04050721470436766
Mb@@ 0.26246195138964046
Mär@@ 0.07832671330702745
Northern 0.015936789570599137
Taylor 0.022700818978791712
These 0.007416630825731199
Thor@@ 0.040318721074421804
Wag@@ 0.03177285143715799
Wid@@ 0.03580753960249961
ardo 0.023260785961106877
chester 0.024981974784172252
commun@@ 0.007701035975506445
einer 0.0016890065991215413
eka 0.0729067456336333
got@@ 0.028786149507250895
iko 0.025893782294762493
iner 0.024892638819798838
inv@@ 0.005324153683429093
izer 0.11211299292678654
lav 0.0312059251940748
limited 0.017290359024245694
oir 0.01315923968690914
oul 0.03429635497959643
publ@@ 0.01731889588973712
sti 0.25090104769345645
tat@@ 0.09390238600471568
trag@@ 0.01204551507947776
tum@@ 0.04636030041172566
ved 0.00399107947776359
ór@@ 0.01574805302392611
þ@@ 0.49872558274292145
βι@@ 0.060981166367307056
ζ 0.11276290098311678
μά@@ 0.055611824833971576
μι@@ 0.06746944944007169
время 0.005162908783015115
гг 0.0503393244055352
скус@@ 0.4192370773070235
џ@@ 1
ѡ 1
ן 0.7212991426802212
س@@ 0.01240190725076645
َ@@ 0.06681452185108405
10. 0.026989841640303932
17. 0.02179814046456976
Administration 0.029587561285199526
Bach@@ 0.022685545068785173
Brig@@ 0.01735633904540119
Brun@@ 0.022480101497350996
Eug@@ 0.04788544419693962
Fig@@ 0.024875878384816388
Frank 0.01586784286850315
Gru@@ 0.031241186126497487
Hr@@ 0.13927942433064835
Jay 0.0522108078040793
Jos@@ 0.02785091377949238
Mex@@ 0.015368129410781813
Mount 0.021944970237590327
Nach@@ 0.008655950969184308
Ok@@ 0.026600596469844293
Palm@@ 0.039055580896463375
Port@@ 0.02891938146574812
Sak@@ 0.029557373954065814
Samuel 0.02687723652557388
Unter@@ 0.006034764165137897
Zh@@ 0.04720470371303933
ados 0.0020429284687482428
alifor@@ 0.3437795838520145
anco 0.05003630244647224
auf 0.0008366972221726379
bel 0.039604205040556985
bora 0.4140713868152517
bury 0.015092558191234607
cent@@ 0.009395964062259107
corpor@@ 0.023303582152659822
eas 0.028107212021062356
erst@@ 0.010640355594641127
format 0.02067640545649716
gas 0.01734221621285716
had 0.0007924947534678782
infer@@ 0.03726821103368923
itage 0.020980823634598775
kö@@ 0.027308858615985643
lear@@ 0.012763547941161699
mission 0.007117305967828609
nik@@ 0.0833981500672183
serie 0.010138391657008323
ulia 0.14518095317337057
util@@ 0.03208420982385819
zer@@ 0.022158351196536565
Ś@@ 0.0947626059378188
ουλ@@ 0.07723885376932804
τιμ@@ 0.13419160911850334
το 0.002410327861473396
τσι 0.43038965248193223
ких 0.019828560295212138
мы@@ 0.008272153069648718
поселе@@ 0.10658992450922912
развити@@ 0.08669026095809564
смер@@ 0.06200510193460386
ِ@@ 0.065866281157074
მ@@ 1
.000 0.030303739477824145
11. 0.027108088740730313
BI 0.040507741142420894
Eli@@ 0.029847367600090727
Histori@@ 0.08882944636322564
Kob@@ 0.05461474799949059
Sah@@ 0.03989960152891521
Victor 0.02872052116070755
Wrest@@ 0.13138235697564596
anny 0.04058034495448003
capit@@ 0.015638832716360997
dance 0.024698815689062778
det 0.019162872525206667
dra@@ 0.007117488378409578
ede 0.023555679440123125
ended 0.004493157267807033
entes 0.004060370252329384
etz@@ 0.0073712154261275625
evi 0.12911326861077127
fem@@ 0.017702784344984724
film 0.0019634199348409877
grav@@ 0.017503041173711372
head@@ 0.007377872442107337
mula 0.0424437928298413
nen 0.006899558443849298
offici@@ 0.006734870208652321
omel@@ 0.4376872057987345
ouse 0.027754826811465103
then 0.0021552618997523853
tique 0.01144527494244777
¼ 0.6867826255368558
Á@@ 0.020339909036271225
äl@@ 0.006759602317641079
ét@@ 0.00577105840442067
ησι@@ 0.212419966786921
ἰ@@ 1
And@@ 0.03768115571716361
Arthur 0.01739013722309922
Braz@@ 0.036719665987751976
Centro 0.040167009042890466
Commission 0.014659748147231685
[...]
