. 54279576
, 39980294
der 33655491
und 25847899
die 21158320
in 20490547
&quot; 17849450
@-@ 13896996
von 12317855
er 12004268
den 11916889
) 9862494
( 9853715
des 9427675
im 8730453
en 8466577
mit 8040984
dem 6909792
wurde 6895326
ist 6671054
das 6254407
als 6240859
Die 6186032
t 5943213
auf 5717267
zu 5708026
ein 5667196
an 5651467
für 5455196
eine 5425389
te 5281952
er@@ 5031994
ung 4991852
sich 4950735
ten 4847711
war 4790685
ver@@ 4642913
en@@ 4487815
es 4390272
s@@ 4294457
aus 4260755
z@@ 3727231
auch 3535851
am 3514890
bis 3428960
ischen 3367391
nach 3317793
S@@ 3294694
sch@@ 3286433
: 3217303
bei 3202198
“ 3201910
Sch@@ 3192082
„ 3181527
t@@ 3107781
k@@ 3082943
Der 3041904
K@@ 3005450
Ver@@ 2916002
s 2889933
be@@ 2877236
einer 2875923
ein@@ 2873779
st@@ 2853851
sie 2833782
zum 2810263
L@@ 2770008
W@@ 2760839
ungen 2694724
H@@ 2692086
n@@ 2678654
D@@ 2671256
um 2645759
ä@@ 2602893
B@@ 2598999
f@@ 2578523
F@@ 2573791
R@@ 2453140
T@@ 2431867
G@@ 2403004
ische 2380559
aus@@ 2371833
durch 2320259
– 2271555
ch@@ 2271310
einem 2240234
einen 2237353
l@@ 2231868
de 2215359
Im 2181156
e 2171487
el 2162033
Z@@ 2160851
el@@ 2155351
werden 2134984
nicht 2116366
Das 2109941
ent@@ 2106283
sind 2106098
w@@ 2095299
ab@@ 2093833
über 2086808
e@@ 2082669
d@@ 2081950
h@@ 2060501
ungs@@ 2047324
ge@@ 2020995
M@@ 2013331
P@@ 2003583
; 1982774
In 1966053
wird 1965763
an@@ 1948752
zur 1943599
m@@ 1907485
b@@ 1898872
auf@@ 1894744
An@@ 1893060
lich 1889162
Er@@ 1861594
n 1850859
lichen 1846466
al@@ 1842667
E@@ 1841535
ter 1839116
N@@ 1823441
oder 1793400
wurden 1772057
Aus@@ 1742966
- 1741942
g@@ 1718673
i@@ 1700842
St@@ 1697519
m 1672276
dass 1658534
in@@ 1651613
liche 1627750
un@@ 1618916
it@@ 1583113
/ 1579432
Er 1563168
unter 1548683
et 1541789
V@@ 1526475
um@@ 1521005
tr@@ 1520421
Jahr 1508959
ar@@ 1506434
vor@@ 1505313
Ab@@ 1496948
A@@ 1496592
r@@ 1487801
es@@ 1470515
le@@ 1460183
re@@ 1442553
z 1437911
au@@ 1436774
ert 1400364
über@@ 1391972
Vor@@ 1370754
vor 1369553
ern 1368804
eb@@ 1367767
ig@@ 1363907
Ein@@ 1340496
wie 1334867
ö@@ 1328075
is@@ 1307634
ang@@ 1307083
d 1273370
or@@ 1267989
on@@ 1267364
ber@@ 1266880
g 1261591
Auf@@ 1259592
sowie 1251507
J@@ 1249361
unter@@ 1246020
vom 1245994
enden 1238452
Be@@ 1236911
seiner 1219334
at 1219285
Nach 1208716
noch 1198079
ter@@ 1195544
di@@ 1194404
on 1186144
O@@ 1183561
C@@ 1173208
igen 1172794
nur 1172185
ie 1172003
Re@@ 1170867
ens@@ 1168328
hatte 1166721
si@@ 1166493
Al@@ 1161717
ger@@ 1160130
enen 1153527
ü@@ 1152444
ag@@ 1150170
ken 1141430
k 1140821
le 1139937
seine 1139634
ab 1135797
al 1124488
us 1122299
j@@ 1118972
chen 1118184
ens 1117045
ien 1111700
aber 1109881
sten 1109430
ti@@ 1108448
Jahre 1107549
p@@ 1097021
gesch@@ 1089822
f 1087353
gel@@ 1081979
eg@@ 1078843
isch 1076048
ende 1074842
Sie 1071112
zwei 1070728
ischer 1065615
of 1061526
schaft 1059067
l 1057324
ach@@ 1054285
waren 1050474
ten@@ 1047818
Ge@@ 1030823
zwischen 1025156
hat 1020345
ur@@ 1017330
th@@ 1016332
and 1007299
i 1005284
ige 1003463
* 990943
et@@ 987274
st 984210
ene 980580
us@@ 978160
gen 972153
au 970480
eines 968597
br@@ 961503
Tr@@ 961168
ed@@ 959289
erte 955104
sein 948976
ik@@ 946156
Jahren 945211
der@@ 944747
ler 942764
o@@ 938861
ch 934206
Am 933188
Br@@ 931518
am@@ 925167
il@@ 923956
gen@@ 919295
ot@@ 912782
ak@@ 910865
eren 909696
em@@ 908011
än@@ 906630
is 904865
gegen 903103
Kon@@ 902541
ner 901058
and@@ 900461
dieser 893309
her@@ 893079
ne 887445
ol@@ 886261
wer@@ 866433
Es 866103
ers 863729
eh@@ 862967
ge 862543
end@@ 860160
elle 859173
ek@@ 856867
iert 853412
I@@ 853307
u@@ 853302
we@@ 850889
ich@@ 845845
Mar@@ 841272
as@@ 837330
ersten 820758
om@@ 820512
In@@ 820331
Land@@ 818976
os@@ 818559
len 811129
man 803435
Zeit 800951
ing@@ 797902
ere 794579
gew@@ 792533
17@@ 791331
fer@@ 789824
ir@@ 785473
schaften 783683
seit 781783
ier@@ 781357
jedoch 780636
ell@@ 779521
1 779042
Unter@@ 776504
ges@@ 776169
U@@ 775891
Stadt 775376
at@@ 772442
so 767481
ke 764756
li@@ 763357
ts@@ 762682
ist@@ 752499
ung@@ 751217
land 750476
Se@@ 747218
id@@ 746646
Gr@@ 745221
We@@ 743090
geb@@ 740952
etwa 739016
drei 738602
kon@@ 736596
Ober@@ 735839
de@@ 734865
sen 733519
ati@@ 733338
str@@ 732143
y 731938
em 721612
ste 721008
Her@@ 716624
y@@ 713952
sp@@ 713275
or 713109
ation 711288
zi@@ 710887
Di@@ 708210
Ch@@ 708006
o 707372
Bau@@ 706863
Fre@@ 706676
b 705401
wieder 704787
it 704116
end 702934
Geschichte 700741
2 699724
ellen 699286
est@@ 698424
kt 693777
se 693270
mehr 687998
eng@@ 686579
är@@ 685825
ß 683224
Ar@@ 681907
aten 680880
Als 679400
äl@@ 678959
Le@@ 678918
ts 678754
men 678630
Leben 675963
ar 675960
ell 674633
Ber@@ 674516
ör@@ 672549
ler@@ 672029
seinem 671910
ben 671261
erung 666255
Kr@@ 665494
da 665248
ingen 664255
tes 663042
ut@@ 662851
liegt 658225
und@@ 656498
hal@@ 654859
zeit 653390
nen 652282
Str@@ 650419
seinen 646695
ul@@ 646651
später 643788
Von 643585
bl@@ 643497
beim 642835
Bei 641614
im@@ 641541
Ne@@ 641079
eten 637109
dar@@ 636778
a 635897
kom@@ 635642
ing 635465
v@@ 634712
lo@@ 634592
Sp@@ 634213
a@@ 634196
ri@@ 630569
ro@@ 627912
berg 626588
sh@@ 625261
Fl@@ 624571
Ende 623513
diese 621065
as 620166
1. 619814
ihre 618624
mer@@ 617473
beg@@ 616964
bes@@ 613276
ff@@ 610646
ßen 609061
sti@@ 606378
ale 606059
16@@ 604082
kann 603500
Über@@ 602725
teil 601852
Or@@ 599821
ß@@ 593513
wo 591814
all@@ 591664
ad@@ 590612
icht 588652
kam 588248
isch@@ 585653
h 584863
cht 584114
konnte 583547
Kom@@ 581405
ün@@ 580078
erste 579884
Mit 579783
se@@ 579375
che 579263
c@@ 578150
Gemeinde 576331
burg 575157
ür@@ 574539
iz@@ 571757
ser@@ 570797
ze@@ 570709
Reg@@ 569223
etz@@ 569200
3 568733
enn@@ 568615
ie@@ 567667
ihm 565301
elt 564168
ent 561511
agen 560324
ech@@ 559249
he@@ 557067
Qu@@ 556449
gr@@ 555383
tung 554733
August 554700
per@@ 554091
He@@ 553884
Mai 552350
Bes@@ 551119
El@@ 549716
tet 549507
besch@@ 548569
März 548458
haben 547901
Januar 546720
ierte 546482
os 546172
Th@@ 542906
Teil 542454
heute 541359
Oktober 541013
ach 540463
verl@@ 540328
uch@@ 539555
acht 538202
sch 538143
iger 535664
ni@@ 535390
Nach@@ 535269
licher 533601
fre@@ 533403
ass@@ 532729
Haupt@@ 532133
den@@ 531790
if@@ 530690
dann 530675
ihrer 527743
Ges@@ 527246
ich 526244
mann 525037
fl@@ 524107
&amp; 521488
bereits 521227
Ang@@ 520796
dessen 520095
te@@ 519795
dort 519698
iten 519595
’ 519538
pl@@ 519130
tete 517150
September 515383
† 513786
zen 513224
stand 512975
af@@ 512490
tion 512299
isten 512262
bau@@ 511888
alle 510861
Um@@ 510442
April 509910
r 508543
Juni 507018
eben 506799
men@@ 506600
ob@@ 506262
zug@@ 505575
Universität 505348
gab 504314
gi@@ 504243
p 504070
15@@ 503662
Juli 502827
erten 498904
ah@@ 498901
Ger@@ 498574
mit@@ 498312
ihn 497287
Bil@@ 496073
Kirche 495652
anderen 495522
ur 494895
og@@ 494152
0er 493802
gest@@ 493711
nung 493558
während 493342
amm@@ 493257
Dezember 492753
ker 491841
US 490662
erhielt 490256
Stadt@@ 489394
gibt 489371
lung 489198
ern@@ 488699
vier 487963
uf@@ 486370
4 485724
Mon@@ 485259
gem@@ 485232
sich@@ 485218
ib@@ 485053
gestellt 484900
ho@@ 484811
ne@@ 484798
ap@@ 482139
best@@ 481953
äng@@ 481533
ken@@ 481472
ger 481157
durch@@ 480282
rich@@ 479020
Ein 478915
November 477250
Saison 476826
km 475133
ihr 472868
beiden 472437
Diese 471110
fen 470684
heit 470512
spr@@ 470481
inn@@ 469512
u 469187
Li@@ 468953
egen 467010
stadt 465452
Nord@@ 464963
lin@@ 464805
ef@@ 464234
op@@ 464083
mi@@ 464045
re 463417
me 463388
pf@@ 463214
% 463008
cher 462825
ph@@ 461097
tig@@ 460884
wen@@ 459814
so@@ 458390
öh@@ 458164
Hand@@ 457865
Seit 456607
ine 455915
age 455546
Fr@@ 454390
anz@@ 453393
Platz 452989
Deutschland 452107
Inter@@ 452059
können 451910
x@@ 451446
diesem 449637
enz@@ 448792
Bundes@@ 448446
ft 447298
onen 446321
stellung 445068
mittel@@ 444931
ste@@ 444396
ehen 444126
Berlin 443607
Jahrhundert 442300
trat 441480
bre@@ 441460
geh@@ 440734
lt 440554
Ent@@ 440243
Me@@ 440097
fer 439254
Par@@ 438710
Kar@@ 437819
tur@@ 437141
mer 436796
schen 435448
enti@@ 435426
eter 435054
Ze@@ 434621
be 433688
Süd@@ 433609
ann@@ 432952
Spiel@@ 432595
ationen 432421
ess@@ 432059
itz@@ 430835
v 430173
tigen 430013
Mitglied 428457
Februar 428124
je@@ 428106
ön@@ 428016
gleich@@ 426823
worden 426495
ang 426153
Eine 424215
steht 423871
bau 423134
ia 422782
bar 420632
ins 420604
nahm 419623
ord@@ 418814
Ur@@ 416916
öl@@ 416027
pr@@ 415213
deutschen 414442
Bo@@ 413766
ähr@@ 413654
ben@@ 412790
ise 411670
üt@@ 409855
Groß@@ 409249
zu@@ 408385
deren 408121
kr@@ 408067
erst@@ 406701
Grund@@ 405970
lage 405635
3@@ 405026
ums 404735
Ste@@ 404602
Auch 404365
schw@@ 404161
sen@@ 404087
zurück 403289
Fahr@@ 402735
sk@@ 402712
äh@@ 402336
Un@@ 402176
B 401919
mal@@ 401822
bek@@ 401759
Tur@@ 401754
Nieder@@ 401712
rech@@ 400892
damit 400831
enten 399643
äch@@ 399439
ru@@ 398468
eln 398291
ster 398261
Für 397861
Dar@@ 397781
kur@@ 395114
bar@@ 394242
Ex@@ 393882
bach 392411
zunächst 391572
En@@ 390813
Per@@ 390321
nh@@ 390228
5 389359
alten 388332
Auf 387431
statt 387364
lich@@ 387119
ihren 386444
bekannt 386027
gt 385675
For@@ 385333
Kl@@ 385246
Familie 384587
qu@@ 384127
zusammen 383156
keine 382691
_ 381714
weise 380184
ze 379874
befindet 379359
stein 378460
gemein@@ 378304
kl@@ 378239
6 377168
sol@@ 377081
sehr 376945
Ort 376614
ologie 375785
me@@ 375173
ok@@ 374745
bil@@ 374722
Bar@@ 374626
ick@@ 374612
w 373729
her 373688
Ä@@ 372979
weitere 372664
bel@@ 372324
tern 371566
erk@@ 371539
Mittel@@ 370902
Namen 370541
halb 370316
zus@@ 370150
fe 369949
reich@@ 369779
Schw@@ 369508
Kur@@ 368217
schafts@@ 367793
Wer@@ 367631
fe@@ 367236
4@@ 367233
lang 366867
nach@@ 366831
begann 366412
ug@@ 366172
tor 366030
alen 365815
mus@@ 364599
tel@@ 364177
len@@ 363806
aut 363615
bi@@ 363469
Film 362997
par@@ 362955
Sohn 362870
ren@@ 362024
wegen 360955
Zeit@@ 360258
auer 359669
mar@@ 359160
annte 359089
denen 359076
ster@@ 358388
sche 358296
Ad@@ 358195
Ma@@ 358087
ks 357809
ran@@ 357598
spielte 357125
Schul@@ 356616
man@@ 355223
sel@@ 354921
gewann 354740
itz 354708
scher 352944
fahr@@ 352924
Aut@@ 352847
ete 352706
etzt 352696
straße 352187
bzw. 351669
ih@@ 351441
geg@@ 351347
allem 350799
äs@@ 350791
ebenfalls 350578
weit@@ 350478
vi@@ 350383
hin@@ 350280
az@@ 350211
Bl@@ 350161
kre@@ 349912
Personen 349828
hand@@ 349400
nam@@ 349047
De@@ 348990
zwe@@ 347621
ons@@ 347154
dig@@ 347142
ate 347086
2010 346758
Ak@@ 346697
süd@@ 346237
schließlich 345625
anderem 345367
werk 345304
tel 345086
2011 345033
erh@@ 344057
iti@@ 343623
Te@@ 343465
ep@@ 342750
A 342585
bahn 341824
ub@@ 341754
ging 341209
altung 340925
geführt 340514
uk@@ 340320
Geb@@ 339492
was 338916
x 338548
Pr@@ 337986
uer@@ 337852
su@@ 337459
führte 335938
immer 335923
Hoch@@ 335910
Pro@@ 335373
gebiet 335102
dr@@ 334505
ik 333958
Min@@ 333426
lag 333103
änder@@ 332977
ed 332885
ier 332031
Gesch@@ 331625
Au@@ 331310
oc@@ 330725
-@@ 330230
20 330008
dete 329880
König@@ 329847
ig 329659
ks@@ 329557
ei 329370
net 328885
lig@@ 328443
ations@@ 328085
alt@@ 327463
icht@@ 327364
tionen 326411
U 326215
Bi@@ 326021
14@@ 326019
Pl@@ 325919
ker@@ 325568
kommen 325252
selbst 325015
ind@@ 324932
ohne 324764
Pf@@ 324378
ogen 324169
The@@ 323698
ite 323356
nis 323258
West@@ 322801
keit 322741
lag@@ 322392
2015 322222
fr@@ 322157
neuen 321813
2009 321140
des@@ 320848
2012 320754
dabei 320295
8 320227
lagen 319897
2. 319868
2008 319677
oren 318794
2014 318138
gehörte 316906
mal 316532
2013 316452
Nor@@ 316436
weiter 316199
eck@@ 315694
assen 315482
tragen 315155
enz 314961
verw@@ 314344
tlich 313456
Bel@@ 313369
formula 313314
zeich@@ 313288
nahme 313213
ender 312968
10 312945
tig 312910
dern 312587
Während 312321
19. 312076
tor@@ 312005
ließ 311846
els 311838
hier 311664
ic@@ 311658
&apos; 311387
führt 311264
Mit@@ 311056
la 310996
deutscher 310978
enf@@ 310764
the 310551
Musik@@ 309957
trag@@ 309109
est 309023
Meter 309022
ko@@ 308345
Ph@@ 308087
innen 308056
2016 307951
ow@@ 307878
vers@@ 307016
neue 306819
arbeitete 306409
zeit@@ 306157
ehr@@ 305871
Jahrhunderts 305790
erstmals 305691
ahr@@ 305649
2007 305507
for@@ 305333
üh@@ 305186
nte 304872
iv@@ 304747
tige 304418
the@@ 304390
alt 303316
Man@@ 303243
ieren 303148
fand 303042
Landes@@ 302742
oh@@ 302456
National@@ 301521
teil@@ 300531
nahmen 300084
Ab 299963
5@@ 299582
annten 299070
bezeichnet 298434
pre@@ 297985
sche@@ 297816
7 297486
sehen 297326
zäh@@ 297068
tischen 296866
lan@@ 296564
lu@@ 296414
sei 296105
ahl@@ 296093
ander@@ 295952
land@@ 295358
New 295260
Flug@@ 295230
fünf 295214
ausge@@ 294936
av@@ 294372
kan@@ 294314
Teil@@ 294203
2017 294062
elten 293926
G 293853
tigt 293677
ner@@ 293134
woh@@ 292107
lang@@ 291923
Seine 291866
Europ@@ 291226
The 291161
iß@@ 290700
ierten 290166
St. 289948
2006 289842
gehört 289318
Name 289261
Spr@@ 289166
D 288212
Am@@ 287513
gebaut 287351
gang 286452
fahren 286276
gek@@ 286079
erin 286002
größ@@ 285852
erst 285685
schule 285312
ina 285281
ät@@ 285016
son 284966
13@@ 284921
zw@@ 284895
Titel 284856
Y@@ 284726
ekt 284278
O 284130
wor@@ 284026
Ro@@ 283848
ersch@@ 283169
Deutschen 282882
zog 282861
Lehr@@ 282527
esch@@ 282188
ard 282110
schon 281984
eig@@ 281892
ans@@ 281704
ade 281505
hi@@ 281084
kel 280965
zweiten 280753
do@@ 280081
Rück@@ 279140
ierung 279109
Mas@@ 278551
ener 278430
2018 278257
Wasser@@ 278005
2019 277566
Band 277390
ka 277171
fang@@ 277009
sondern 276863
einige 276795
Gruppe 276724
ant@@ 275996
Mor@@ 275970
Zu 275824
weg@@ 275737
punkt 275295
seines 275292
Sein 274847
ac@@ 274843
Mag@@ 274622
ute 274187
achen 273925
Volks@@ 273610
ber 273519
lichkeit 273437
nete 273394
So 272981
15 272969
tro@@ 272853
ec@@ 272811
zurück@@ 272654
L 272442
ück@@ 272375
ori@@ 272245
amp 272172
M 271937
hol@@ 271880
Co@@ 271783
Vi@@ 271759
ände 271678
Hol@@ 271232
Liste 271192
ck 271143
il 270362
Zus@@ 270289
Bas@@ 270212
hr@@ 270196
Mal@@ 270077
ans 270007
Zusammen@@ 269882
he 269479
isi@@ 269140
Lebens@@ 268930
präs@@ 268559
pro@@ 268430
rund 268032
od@@ 267832
Neu@@ 267686
6@@ 267498
Tri@@ 267468
anischen 267385
ihrem 267355
To@@ 267307
Gel@@ 267279
ort 267244
dung 267018
neben 266687
studierte 266482
Ko@@ 266382
hatten 266034
bere@@ 265267
leg@@ 265182
aben 265052
Kre@@ 264920
ele 264776
Karriere 264567
Menschen 264552
Friedrich 263799
2005 263589
els@@ 263465
tre@@ 263359
Mus@@ 263143
Medi@@ 262858
trag 262635
mehrere 262506
aff@@ 260949
3. 260677
feld 260224
andere 259527
äu@@ 259316
ilen 258976
Wal@@ 258941
of@@ 258925
wir@@ 258726
iden 258516
besteht 258509
tim@@ 258076
ücke 257893
aft 257809
20. 257787
zentr@@ 257589
ache 257394
ath@@ 257068
olog@@ 256966
zeug@@ 256858
pi@@ 256403
deutsche 255980
star@@ 255748
letzten 255742
Fran@@ 255510
30 255414
dieses 254773
art 254710
großen 254635
Wir@@ 254568
Anfang 254476
dre@@ 254021
2000 253833
pp@@ 253811
Durch 253776
ober@@ 253541
B. 253476
Kin@@ 253231
tritt 253137
genannt 253131
Kan@@ 252776
tions@@ 252679
Tod 252558
po@@ 252317
c 252305
to@@ 252202
tri@@ 251867
per 251430
inger 251364
min@@ 251030
Art 250806
weit 250806
18. 250545
isti@@ 250456
1945 250309
zahl 250077
7@@ 250072
unden 250044
enh@@ 249679
chte 249596
oll@@ 249492
inter@@ 249341
fäl@@ 249168
Kol@@ 249049
haus 248679
wenn 248567
sollte 248540
blieb 248366
war@@ 248265
Car@@ 248262
S 248011
kul@@ 247808
uh@@ 247805
I 247680
bedeut@@ 247535
stieg 247388
Kilometer 247198
ester 247162
kri@@ 247083
Zw@@ 246938
Geg@@ 246892
voll@@ 246867
Con@@ 246637
große 246353
Staats@@ 246334
up@@ 246276
tätig 246197
ütz@@ 245600
ck@@ 245120
att@@ 244956
gewählt 244955
esen 244723
form@@ 244681
wieder@@ 244593
2004 244550
erfolgte 244490
diesen 244468
Natur@@ 244421
Da 244329
Ost@@ 243975
one 243855
fal@@ 243840
itung 243793
folgenden 243696
ile 243641
wechselte 242836
haf@@ 242835
Unternehmen 242826
ke@@ 242785
ez@@ 242606
ats@@ 242403
weiter@@ 242191
tische 242002
vol@@ 241714
isches 241402
2020 241369
ons 241353
allerdings 241327
R 241325
Wo@@ 241202
schaf@@ 241135
ück 240772
Gebiet 240528
halten 240192
ot 240109
Haus@@ 240080
50 239918
frü@@ 239849
Johann 239651
8@@ 239411
feh@@ 239162
stän@@ 238692
wohl 238579
Met@@ 238444
unk@@ 238386
wobei 237666
teilung 237505
äuf@@ 237483
off@@ 237468
mehr@@ 237165
essen 236781
to 236518
kar@@ 236501
kirche 236500
9 236325
Einwohner 236303
soll 235984
Dre@@ 235754
nungen 235115
äf@@ 234870
Straße 234830
all 234717
ton 234658
ta 234602
starb 233487
Mitte 233426
ße 233277
wes@@ 233195
Com@@ 232983
bed@@ 232883
gegründet 232874
kung 232165
Zwe@@ 231791
ki@@ 231588
Fol@@ 231587
Frau 231220
Mo@@ 231110
tu@@ 231110
ven 230873
ex@@ 230488
ant 230027
lassen 229844
Berg@@ 229680
je 229350
Nachdem 228712
Mün@@ 228563
Dis@@ 228273
allen 228185
platz 228169
ve 227903
res@@ 227836
nehmen 227814
15. 227797
Dr@@ 227669
scheid@@ 227655
erreichte 227429
Sen@@ 227360
lik@@ 227107
Mannschaft 227096
Fried@@ 226897
Verein 226897
bo@@ 226886
aum 226424
mon@@ 226254
Zweiten 226088
schi@@ 226004
jähr@@ 225991
18 225829
ili@@ 225751
Karl 225736
heim 225541
Durch@@ 225515
Region 225450
Best@@ 225448
übernahm 225331
anl@@ 225222
nun 224745
sechs 224570
musste 224539
4. 224500
keiten 224408
C 224362
jeweils 224355
stell@@ 224347
Gen@@ 224313
ismus 224301
9@@ 224243
ennen 224227
mel@@ 224102
unde 224025
Verein@@ 224012
Mer@@ 223897
z. 223785
V 223711
Gemein@@ 223165
nord@@ 222881
weiteren 222451
lat@@ 222344
Gebäude 222292
ard@@ 222165
Tor@@ 221344
ett@@ 221105
ität 221088
viele 220986
are 220958
amen 220691
Gu@@ 220593
äre 220555
mis@@ 220526
Po@@ 220498
16 219942
ad 219710
Bre@@ 219401
neu@@ 219306
Studi@@ 219292
wissenschaft@@ 219283
tur 219191
uten 219158
deten 218902
stellt 218496
Mod@@ 218161
0 218006
det 217909
Vater 217696
Bis 217625
wal@@ 217533
forder@@ 217407
tik 217398
eleg@@ 217227
grenz@@ 217162
Hel@@ 217070
geleg@@ 217067
Sh@@ 217012
16. 216874
100 216859
17. 216788
sig@@ 216336
lungen 216325
ma@@ 216249
schaft@@ 216028
wahl 215990
ehr 215965
finden 215802
ät 215366
2@@ 215321
statt@@ 215297
2003 215187
2001 215021
USA 214999
Ru@@ 214763
Kor@@ 214590
rit@@ 214411
tigkeit 214350
Sa@@ 214334
I. 214162
Har@@ 214093
igkeit 214044
Norden 213995
schrift 213965
dorf 213456
folge 213302
Plat@@ 213291
om 213174
12 213018
a. 212937
enst@@ 212669
führung 212620
Char@@ 212582
zt 212103
Wahl@@ 212047
emp@@ 211595
ill@@ 211271
Buch@@ 211188
spieler 210915
östlich 210838
E 210835
FC 210750
Bereich 210510
cht@@ 210492
Lin@@ 210470
Welt@@ 210350
schul@@ 210347
fin@@ 210342
Hal@@ 210340
neu 210299
issen 210146
iker 210118
Schauspi@@ 210080
uss 210062
2002 209880
schein@@ 209859
An 209582
westlich 209354
fte 209242
Gro@@ 208565
insgesamt 208492
Form 208485
ess 208347
welche 208070
aufgrund 207995
u. 207948
stellte 207935
erhalten 207848
zeigt 207814
Sil@@ 207784
sin@@ 207570
bez@@ 207355
5. 207247
gabe 207227
üb@@ 207221
meister 207174
stellen 207154
ba@@ 207013
istischen 206958
K 206795
Film@@ 206313
University 206253
Dort 206084
inen 205957
leit@@ 205848
este 205794
id 205497
Sü@@ 205261
spielen 204628
darauf 204552
setzte 204488
stehen 204232
verwendet 204094
Tochter 203969
So@@ 203859
Gl@@ 203805
Dabei 203804
entstand 203678
tiv@@ 203645
na 203598
Gar@@ 203527
verschiedenen 203512
ente 203471
ette 203465
Kunst@@ 203366
kön@@ 203305
Album 203292
Bur@@ 203282
Reich@@ 203253
ast@@ 203111
Vol@@ 203026
reg@@ 202993
uz@@ 202866
2021 202853
steh@@ 202682
folgt 202628
Ju@@ 202616
ana 202491
Rechts@@ 202320
dazu 202147
üc@@ 202022
gel 201994
Haus 201890
14 201725
lieg@@ 201639
schloss 201609
Land 201449
Tre@@ 201356
ass 201259
tisch 201150
selben 200994
König 200944
Süden 200887
ett 200767
Wilhelm 200689
Bau 200537
II. 200424
Gew@@ 200272
erg@@ 200220
Amt 200118
F 200086
Pi@@ 200078
Do@@ 199975
lus@@ 199818
Ser@@ 199725
München 199649
ide 199544
13. 199539
14. 199520
Bor@@ 199435
arbeit@@ 199405
get@@ 199022
tiert 198793
äd@@ 198689
Gi@@ 198525
enth@@ 198432
riff@@ 198404
Spe@@ 198316
Fußball@@ 198274
6. 198263
histor@@ 198139
Prozent 198121
entlich 198110
fest@@ 198036
Konz@@ 198024
Beg@@ 197995
folgender 197972
groß@@ 197835
erschien 197707
Kinder 197623
wan@@ 197494
kor@@ 197427
Wien 197408
25 197392
erneut 197379
ätze 197348
recht 197308
Hin@@ 196999
12@@ 196931
amp@@ 196872
ick 196803
Werk 196772
wür@@ 196673
eller 196381
Künst@@ 196361
Halb@@ 196341
40 195970
Si@@ 195948
Pol@@ 195707
Proj@@ 195561
Rahmen 195483
Millionen 195294
W 195067
Lauf@@ 195016
Kirch@@ 194989
änger 194822
nieder@@ 194604
stär@@ 194486
Punk@@ 194364
Kle@@ 194355
1999 194290
spiel 194240
Fach@@ 194149
Op@@ 194108
Weltkrieg 193889
Kap@@ 193888
Grün@@ 193811
Mal 193734
pol@@ 193711
Ri@@ 193650
Stre@@ 193646
lau@@ 193634
Dies 192971
meister@@ 192906
wär@@ 192839
Arbeit 192796
Entwicklung 192664
Stand 192523
Stein@@ 192473
einander 192438
John 192315
Einsatz 192094
gilt 192024
meist 191955
insbesondere 191868
ichen 191757
Kultur@@ 191714
Orts@@ 191553
regi@@ 191413
errichtet 191300
Lage 191210
ähn@@ 191166
Neben 191162
ain@@ 191130
ov@@ 191007
Dieser 190993
iter 190899
führ@@ 190799
Rolle 190567
är 190552
ager 190533
Christ@@ 190499
hof 190339
Heinrich 190274
12. 190272
konnten 190215
Fil@@ 190193
seite 190187
X@@ 190066
Eisen@@ 189952
kommt 189716
eld 189583
aden 189313
Woh@@ 189217
lauf 189202
Bevölkerung 189102
orie 189069
abhäng@@ 188928
schrieb 188797
struk@@ 188715
Richtung 188648
Provinz 188617
8. 188379
Ehr@@ 188243
Dorf 188128
gut 188103
Sport@@ 187800
N 187688
Osten 187644
geschichte 187502
ammlung 187431
ew@@ 187293
chi@@ 187214
gruppe 187191
1990 187163
Pal@@ 187135
7. 186972
Far@@ 186897
ständi@@ 186888
zeitig 186664
Jugend@@ 186563
Weit@@ 186421
prä@@ 186164
Zi@@ 186018
no@@ 185999
eff@@ 185953
anti@@ 185839
13 185836
Stand@@ 185738
Westen 185683
ikan@@ 185416
igung 185411
Staaten 185395
Got@@ 185295
fast 185226
davon 185085
kle@@ 184773
atz@@ 184771
9. 184740
Por@@ 184527
uss@@ 184490
ehör@@ 184435
ow 184404
Rot@@ 184387
gesam@@ 184309
Frankreich 184297
Haup@@ 184244
ante 184043
schluss 184004
folgte 183755
liegen 183715
eht 183547
tag 183506
bü@@ 183477
eigenen 183404
eck 183385
wach@@ 183161
ätz@@ 183096
rat 182936
nten 182792
eingesetzt 182610
bestand 182550
Frauen 182500
ou@@ 182381
herr@@ 182372
Herr@@ 182232
tsch@@ 182227
trug 182218
schließ@@ 181898
un 181757
schied 181530
dies 181523
Hans 181349
äten 181160
T 180992
kal@@ 180927
kathol@@ 180884
eder@@ 180810
tw@@ 180780
annt 180769
gegeben 180608
gleich 180603
Gesellschaft 180596
leben 180520
engl@@ 180479
Pre@@ 180360
innerhalb 180230
wirtschaft@@ 180202
Beginn 179943
reich 179905
dungs@@ 179882
jahr 179786
Schule 179712
kte 179641
eden@@ 179621
Heil@@ 179517
sel 179342
üst@@ 179339
17 179324
oft 179257
genommen 179247
Tex@@ 179191
steller 179170
1998 179148
York 179121
Kri@@ 179051
gaben 179042
Bedeutung 178992
elte 178759
habe 178738
ore 178738
Bal@@ 178679
gre@@ 178671
versu@@ 178643
länd@@ 178618
Aus 178505
schl@@ 178417
Seite 178291
Mann@@ 178280
zug 178217
Gemeinde@@ 178176
Pap@@ 178116
Krieg@@ 178009
.@@ 177993
eit@@ 177990
Pfarr@@ 177934
Partei 177731
Peter 177593
damals 177535
Paris 177522
Hor@@ 177448
Kran@@ 177369
üs@@ 177283
Lo@@ 177261
nt 177225
wahr@@ 177064
ainer 177030
öch@@ 176941
Arbeits@@ 176847
Beispiel 176803
Außerdem 176447
War@@ 176228
zweite 176212
loc@@ 176041
gez@@ 175724
pel@@ 175685
Paul 175660
19 175646
zehn 175599
Wieder@@ 175580
Sal@@ 175549
utz@@ 175494
oth@@ 175447
pen@@ 175415
Kriegs@@ 175396
chen@@ 175370
stand@@ 175352
also 175270
führen 175171
geben 175145
Jahres 175090
Folge 175054
rä@@ 175033
richtung 174901
Um 174873
verkauf@@ 174827
ack@@ 174658
tn@@ 174593
nah@@ 174560
endete 174558
10. 174494
pe 174480
Verk@@ 174396
mas@@ 174351
heiten 174339
darunter 174131
vier@@ 174098
letz@@ 174052
möglich@@ 173992
Ö@@ 173888
europ@@ 173834
alisi@@ 173820
dem@@ 173758
ils 173758
Sol@@ 173694
All@@ 173663
geht 173654
Landkreis 173524
ai 173480
stark 173261
atur 173229
regel@@ 173113
uti@@ 173031
Zur 172873
Vier@@ 172854
schn@@ 172776
Prot@@ 172444
Lang@@ 172411
ehemaligen 172410
österreich@@ 172380
dor@@ 172262
Gem@@ 172250
Wissen@@ 172222
angeb@@ 172078
tin 172058
Zug@@ 171896
Bahn@@ 171888
Musik 171874
Regierung 171832
handelt 171764
gl@@ 171683
weg 171656
Höhe 171644
findet 171623
leist@@ 171304
Sy@@ 171288
Off@@ 171257
mt 171252
lange 171211
erfolg@@ 171192
11. 171150
etz 171067
Hinter@@ 170949
fel@@ 170915
Unter 170836
ins@@ 170256
tak@@ 170113
aw@@ 170103
häl@@ 170085
einz@@ 170034
fu@@ 170033
Jo@@ 169805
heutigen 169552
kurz 169534
kt@@ 169405
Vertr@@ 169402
gli@@ 169264
ließ@@ 168979
ätte 168786
Eb@@ 168646
ser 168580
los 168451
zer@@ 168411
ret@@ 168334
form 168309
kel@@ 168309
Im@@ 168262
nik 168255
welt@@ 168208
1994 168089
liches 168089
förder@@ 167842
gang@@ 167768
uch 167535
weil 167389
Sied@@ 167357
kn@@ 167341
angen 167263
ekte 167191
Es@@ 167148
amerikanischen 167147
ative 167114
verein@@ 167079
Bürger@@ 166973
Verwaltungs@@ 166954
uren 166835
mb@@ 166750
Verw@@ 166712
Kamp@@ 166708
far@@ 166703
tan@@ 166497
At@@ 166267
ball 166210
fall 166032
ion 166030
ps 166025
Mot@@ 166015
gegenüber 165932
spi@@ 165929
Beh@@ 165895
Ros@@ 165849
einge@@ 165849
ffen 165816
1996 165638
äm@@ 165612
Eng@@ 165593
tungen 165591
mern 165261
schnit@@ 165246
enburg 165205
liga 165192
di 165141
leh@@ 165125
ös@@ 165003
Leist@@ 164971
1997 164443
Team 164403
Österreich 164345
sogen@@ 164271
1992 164269
Kam@@ 164190
= 164119
ef 163899
Serie 163751
Indi@@ 163726
veröffentlicht 163672
ark@@ 163669
Sek@@ 163638
ble@@ 163625
brachte 163594
offizi@@ 163553
11 163509
produz@@ 163503
mo@@ 163496
Schl@@ 163461
Spiel 163433
Graf@@ 163336
Besch@@ 163272
see 163217
Einzel@@ 163127
ehe 163081
atur@@ 163069
rieben 163048
Famili@@ 162960
zahlreiche 162848
Fest@@ 162831
höch@@ 162782
Em@@ 162703
Arbeit@@ 162549
ichts@@ 162529
wi@@ 162331
Col@@ 162190
ingt 162180
lossen 162141
é 162090
dis@@ 162079
ari@@ 162027
fass@@ 161964
französischen 161933
not@@ 161926
ca. 161879
sowohl 161841
eröff@@ 161624
asse 161576
west@@ 161553
Mi@@ 161535
trä@@ 161395
reib@@ 161363
Bez@@ 161279
Burg 161203
ann 160986
tigte 160919
änge 160823
näch@@ 160745
Fernseh@@ 160744
Welt 160568
60 160531
geboren 160524
Ob@@ 160477
wiesen 160440
ets 160432
Erst@@ 160325
Kreis 160304
V. 160277
sozi@@ 160080
dru@@ 160074
Führ@@ 160059
üm@@ 160038
ust@@ 159937
bu@@ 159858
ir 159838
leb@@ 159726
Wi@@ 159711
muss 159691
Zum 159681
dec@@ 159652
ator 159618
zudem 159555
arbeiten 159551
ses 159468
gar@@ 159422
Kreuz@@ 159383
onnen 159182
Höh@@ 159136
gebi@@ 159099
fanden 159045
russ@@ 158976
unterschied@@ 158898
ücken 158809
1995 158764
Krieg 158753
1991 158651
san@@ 158539
bri@@ 158515
eler 158493
tion@@ 158485
&#91; 158336
danach 158198
&#93; 158082
verschiedene 157912
heits@@ 157718
Städ@@ 157704
zer 157408
isen 157272
stoff@@ 157266
30. 157013
Kat@@ 156905
iss@@ 156899
Rich@@ 156781
alter 156721
á@@ 156719
Amts@@ 156566
ki 156498
Liga 156494
Kal@@ 156430
Ben@@ 156377
treten 156373
Rech@@ 156351
Sitz 156285
tä@@ 156282
aufhin 156255
ue 156229
art@@ 156085
1993 156079
Gebi@@ 156078
zust@@ 156068
besuchte 156040
isse 155896
Mari@@ 155622
Insel 155611
1,@@ 155583
ote 155577
lern 155481
Rel@@ 155323
vertr@@ 155322
Tä@@ 155214
bt 155188
betr@@ 155187
gemeinsam 155180
Grupp@@ 155137
Su@@ 155132
ali@@ 155057
üf@@ 155015
Produk@@ 154864
21. 154847
wich@@ 154584
Trans@@ 154578
P 154520
bereich 154476
Sieg@@ 154323
zul@@ 154176
uc@@ 154166
besonders 154157
ign@@ 154067
zen@@ 154051
Für@@ 154034
gef@@ 154010
ium 153936
Alter 153895
dig 153800
nor@@ 153674
Architek@@ 153555
Gemeinden 153433
fes@@ 153301
Professor 153148
trieben 153087
Kop@@ 153018
ters 152934
Fe@@ 152899
schutz@@ 152851
setz@@ 152647
ufen 152598
gleichen 152569
Dor@@ 152474
machte 152337
ächlich 152246
doch 152159
ice 152114
ob 152109
Zentr@@ 152099
emen 152018
Schwar@@ 152008
ino 151914
Vertrag 151882
zieh@@ 151878
Maria 151830
hin 151806
kh@@ 151750
beispielsweise 151610
edr@@ 151522
entsprech@@ 151477
son@@ 151401
tra@@ 151380
zuvor 151375
Spieler 151295
0.000 151260
21 151220
sieben 151133
Kirchen@@ 151105
Stif@@ 151096
äischen 151077
Hamburg 151015
italien@@ 150954
Tit@@ 150935
pen 150789
heim@@ 150694
chin@@ 150681
einzel@@ 150641
eme 150585
kir@@ 150543
ebr@@ 150468
ates 150409
1989 150369
ennt 150282
elen 150267
ol 150154
wo@@ 150152
Wor@@ 149991
wel@@ 149943
meisten 149938
onn@@ 149899
ma 149897
sta@@ 149803
Lu@@ 149793
antwor@@ 149793
London 149769
kamen 149621
arbeit 149542
ennung 149512
Mutter 149503
por@@ 149314
zeuge 149226
Sommer 149017
möglich 148876
Sti@@ 148866
20@@ 148798
24 148779
wei@@ 148742
Men@@ 148512
tar@@ 148213
änder 148125
gesetzt 148009
yl@@ 147980
teilweise 147965
ordnung 147829
hinaus 147825
Cor@@ 147781
setzung 147779
Mann 147508
lit@@ 147500
sion 147412
sprach@@ 147312
liefer@@ 147301
Reichs@@ 147227
aut@@ 147219
arbeitet 147167
urg 147048
aller 146950
Stu@@ 146930
Schweiz 146880
ätzlich 146804
fach 146790
San@@ 146773
Werke 146604
ommen 146595
les 146573
Kommun@@ 146557
ats 146514
ged@@ 146468
Mat@@ 146343
gelang 146262
befinden 146190
ichten 146173
mals 146102
ändern 145975
err@@ 145934
aille 145860
Gegen@@ 145802
Europa 145799
ra 145779
oben 145634
wissen@@ 145583
Gesamt@@ 145553
Heim@@ 145538
ator@@ 145170
tere 145126
endet 145125
dosten 145100
lar@@ 145082
10@@ 145017
tag@@ 144993
hö@@ 144972
fü@@ 144898
Schwer@@ 144791
Militär@@ 144743
General@@ 144737
lauf@@ 144650
westen 144497
Bü@@ 144481
Alt@@ 144453
lte 144435
neh@@ 144261
25. 144252
ül@@ 144246
bestimm@@ 144236
Kör@@ 144232
stein@@ 144163
neten 144162
gehören 144137
DDR 144053
ther 144053
auen 144038
Herz@@ 144019
verb@@ 144010
Fer@@ 143966
ents 143957
ihnen 143916
Vereinigten 143689
Georg 143642
erwar@@ 143626
versch@@ 143484
80 143446
genutzt 143382
Schrift@@ 143359
ak 143274
26. 143216
Ins@@ 143140
wid@@ 143013
Schloss 142953
teilt 142943
yp@@ 142943
alb@@ 142896
anst@@ 142895
Erz@@ 142890
amt 142871
ast 142765
istische 142730
pu@@ 142720
Hil@@ 142590
ständig 142580
Ung@@ 142564
öff@@ 142457
igte 142445
League 142396
Arten 142375
Pri@@ 142237
Strecke 142214
oni@@ 142126
22. 141945
Hof@@ 141908
veröffentlichte 141895
bild 141866
absolvierte 141628
los@@ 141624
0,@@ 141606
erklär@@ 141576
Bri@@ 141509
daher 141494
gehend 141410
Ty@@ 141394
Fern@@ 141314
As@@ 141204
Spielen 141167
Rad@@ 141050
nisse 141045
kreis 141025
ure 140979
ay 140969
Armee 140892
eigene 140864
Ul@@ 140842
schnitt 140770
tierte 140596
wechsel@@ 140580
zin@@ 140555
off 140502
Mitglieder 140455
endung 140416
ühr@@ 140380
wald 140354
etzung 140153
ban@@ 140125
berger 140116
let@@ 140106
Franz 140070
Kas@@ 140070
nehmer 140011
Studium 139908
folgende 139871
Plan@@ 139824
aktion 139789
appen 139746
ano 139732
Betrieb 139731
Danach 139724
ut 139661
Schwe@@ 139639
gebracht 139636
Russ@@ 139617
ika 139595
nachdem 139453
fasste 139378
eg 139362
lehr@@ 139238
Ausbildung 139185
öst@@ 139072
kehrte 138900
etwas 138873
Dem@@ 138866
gründete 138630
anische 138629
Reihe 138625
urch 138581
ja 138550
kleinen 138481
läng@@ 138456
28. 138430
24. 138423
yr@@ 138144
strecke 138056
enberg 138020
fluss 138017
lieder@@ 138004
geschlossen 137945
esse 137853
Nutz@@ 137753
ografie 137739
Saint 137552
eckt 137547
lö@@ 137510
eim 137442
H 137376
Deutsche 137362
ater 137353
klass@@ 137339
vermut@@ 137304
satz 137299
Ergeb@@ 137286
Bruder 137174
23. 136901
idi@@ 136841
Tag 136817
fläche 136690
ecken 136579
riff 136576
Den@@ 136494
bahn@@ 136463
aufgenommen 136431
ost@@ 136379
erb@@ 136372
kap@@ 136297
Gest@@ 136267
Geh@@ 136266
ffe 136253
Ha@@ 136171
äts@@ 136075
ud@@ 136014
hielt 135974
Ludwig 135926
techn@@ 135922
Weitere 135895
Luft@@ 135822
weisen 135805
Poliz@@ 135788
del 135737
üge 135723
entstanden 135706
raum 135704
Politiker 135687
arr@@ 135660
gesetz@@ 135651
bah@@ 135555
Meister@@ 135553
1972 135435
sa@@ 135374
th 135308
mäßig 135306
kein 135266
ange@@ 135224
ammen 135215
1933 135177
alle@@ 135127
beide 135106
adi@@ 135091
Rhein@@ 135070
Ersten 135055
bin@@ 135039
1988 134959
äuser 134793
Fuß@@ 134727
Sto@@ 134642
häufig 134584
Bot@@ 134541
einigen 134491
deutlich 134428
Hier 134421
La 134417
bas@@ 134398
alte 134252
23 134243
Zwischen 134213
Ed@@ 134191
Spi@@ 134140
gehör@@ 134103
gend 134043
affen 134030
27. 133856
äus@@ 133850
burger 133798
sicht 133691
kleine 133679
ther@@ 133616
grund 133446
letzte 133404
Bed@@ 133310
ff 133307
Betrieb@@ 133248
Olympischen 133190
wichtig@@ 133174
Mehr@@ 133113
erreicht 133105
22 133094
Ir@@ 133042
Michael 132886
Ti@@ 132873
deutsch@@ 132852
anten 132810
Sin@@ 132701
buch 132494
bert 132431
klein@@ 132298
Bahnhof 132263
Bereits 132171
Bet@@ 132129
hinter 132107
legte 132060
Museum 132047
ev@@ 131990
ng@@ 131880
Eing@@ 131856
gehen 131806
ume 131677
Bek@@ 131669
ämp@@ 131508
für@@ 131472
somit 131461
70 131445
assung 131434
onal@@ 131411
wiegend 131411
chten 131391
geord@@ 131293
lässt 131247
spiele 131172
1980 131155
emati@@ 131149
entr@@ 131138
zwar 131075
Buch 130843
Gleich@@ 130808
erer 130695
ichts 130679
minister@@ 130661
ften 130563
ane 130555
Früh@@ 130502
organ@@ 130451
lers 130438
Stelle 130424
ena 130421
Mitarbeit@@ 130375
Deutsch@@ 130356
gelegt 130340
ku@@ 130340
Klasse 130122
Wirtschafts@@ 130068
egr@@ 130003
vielen 129959
spä@@ 129941
Ag@@ 129924
Nähe 129915
außerdem 129846
Schi@@ 129732
Wes@@ 129731
1987 129714
finale 129572
Den 129551
ase 129448
errich@@ 129440
29. 129433
oten 129423
Nachbar@@ 129422
ica 129397
² 129394
lebte 129381
werke 129377
bezeich@@ 129324
Gener@@ 129152
ursprünglich 129090
Linie 129054
1970 129039
stammt 128986
ernannt 128982
bet@@ 128955
wand@@ 128909
County 128877
pos@@ 128869
aft@@ 128843
drit@@ 128811
ären 128783
zeh@@ 128696
Über 128638
Geschäfts@@ 128624
Weltkrieg@@ 128624
sw@@ 128613
Ort@@ 128480
schwer@@ 128446
Techn@@ 128421
Berliner 128372
Gre@@ 128344
Pa@@ 128306
Syst@@ 128257
diente 128245
äuft 128223
entspr@@ 128222
fün@@ 128206
Mil@@ 128092
Brand@@ 128067
wegung 128019
Os@@ 128010
pe@@ 127969
haup@@ 127771
fun@@ 127729
mehreren 127693
Ziel 127679
unkt 127642
stre@@ 127630
ley 127619
ling 127565
ahlen 127559
pflich@@ 127551
nischen 127487
kmale 127480
macht 127467
direkt 127406
har@@ 127404
zuneh@@ 127380
1939 127361
ält 127349
its@@ 127199
Thomas 127118
lands 127054
Ban@@ 126999
ns 126959
wirtschaft 126869
grün@@ 126829
stelle 126829
ese 126820
ish@@ 126793
verkehr 126762
zerst@@ 126714
Wil@@ 126711
reichen 126703
Finale 126683
lig 126673
Kais@@ 126670
langen 126591
bruch 126562
dafür 126549
werk@@ 126520
ta@@ 126510
ag 126427
tt@@ 126368
Zudem 126354
forsch@@ 126349
bildung 126263
Du@@ 126165
Leg@@ 126124
Anw@@ 126055
Inn@@ 125935
zeug 125799
Siehe 125729
Straßen@@ 125725
1938 125591
oph@@ 125570
gemeinde 125526
Staat@@ 125457
Anh@@ 125413
gewesen 125403
film 125379
Res@@ 125372
Gö@@ 125318
Prof@@ 125318
südlich 125293
Wasser 125265
1986 125257
Eins@@ 125234
Pe@@ 125206
verli@@ 125197
ätzen 125197
finanz@@ 125076
Robert 125050
anschließend 125007
besser@@ 125001
erwähnt 124924
Dru@@ 124886
1974 124821
mu@@ 124814
Präsident 124774
Bezeichnung 124655
Tag@@ 124642
heit@@ 124598
bew@@ 124589
klär@@ 124571
pro 124547
Milli@@ 124517
š@@ 124372
sor@@ 124323
außer@@ 124287
aj@@ 124259
heraus@@ 124206
Denk@@ 124202
Et@@ 124197
Prin@@ 124081
AG 123968
31. 123946
ron@@ 123925
Ki@@ 123864
Fel@@ 123843
Hoh@@ 123747
stellungen 123704
zy@@ 123690
weniger 123633
1984 123571
ünden 123443
Erfolg 123432
altet 123402
hör@@ 123397
San 123389
dritten 123380
Is@@ 123300
Dan@@ 123284
1975 123212
Austr@@ 123201
Eigen@@ 123104
Wel@@ 123067
Martin 122891
Gründung 122880
nch@@ 122865
kräf@@ 122800
1985 122795
Nam@@ 122729
Einwohnern 122680
Stim@@ 122648
Gal@@ 122611
90 122603
Preis 122601
stan@@ 122591
otz 122577
Ihre 122553
entdec@@ 122548
nier 122541
recht@@ 122512
entwickelte 122504
ra@@ 122451
Wohn@@ 122400
trol@@ 122391
Spiele 122369
Holz@@ 122272
mun@@ 122267
folg@@ 122244
zusammen@@ 122235
National 122226
Chr. 122064
verheiratet 122060
eint 121946
och 121934
Rund@@ 121933
ichte 121903
dienst 121884
auff@@ 121811
eti@@ 121747
heiratete 121631
lanz@@ 121624
1944 121570
ay@@ 121519
schen@@ 121441
sozial@@ 121408
Tour@@ 121385
35 121343
iten@@ 121296
bisch@@ 121209
größte 121207
för@@ 121191
met@@ 121183
alität 121112
politischen 121092
erweise 121073
Kreis@@ 121036
wur@@ 121014
häng@@ 120996
unterstütz@@ 120992
Tro@@ 120933
erster 120911
mm 120899
Selb@@ 120885
kun@@ 120864
entw@@ 120822
did@@ 120796
Bon@@ 120770
iner 120709
bezirk 120684
Ni@@ 120680
fort 120614
punk@@ 120611
Präs@@ 120606
Nachfolger 120509
2,@@ 120417
Del@@ 120415
tigung 120410
sitz 120371
itze 120245
tive 120190
ling@@ 120063
ganz@@ 120058
iben 120058
existi@@ 120049
Grab@@ 119997
1978 119926
Produktion 119839
Finanz@@ 119838
Bay@@ 119809
ihres 119799
ti 119791
spezi@@ 119707
gal@@ 119699
1968 119692
Deb@@ 119678
Cr@@ 119616
Innen@@ 119539
Jahr@@ 119453
Eis@@ 119427
aur@@ 119422
ey 119402
Sow@@ 119369
größten 119363
Sta@@ 119346
Schweizer 119330
ei@@ 119273
cm 119255
Obj@@ 119236
Form@@ 119199
erei 119062
gegrün@@ 119028
fül@@ 119017
Gold@@ 118946
Wit@@ 118863
Tal@@ 118854
Ol@@ 118848
eli@@ 118844
Drit@@ 118831
ameister@@ 118783
ema 118769
sa 118709
wil@@ 118681
del@@ 118679
Sprache 118673
national@@ 118637
aub@@ 118547
amerikanischer 118507
berg@@ 118507
Dieses 118457
iche 118441
500 118439
les@@ 118436
ver 118348
1969 118305
nördlich 118215
Rom@@ 118186
Forsch@@ 118104
Beruf@@ 118080
leicht 118079
gericht 118074
grund@@ 118028
Haf@@ 117985
eil@@ 117830
anz 117809
umb@@ 117806
1979 117748
Go@@ 117742
dh@@ 117737
führer 117724
Elek@@ 117709
ifen 117677
gelöst 117666
äger 117627
Mel@@ 117623
run@@ 117622
1973 117595
sied@@ 117519
000 117517
Not@@ 117475
ausen 117471
1983 117468
fahrt 117438
ister 117426
Flü@@ 117425
ht 117328
1971 117325
Mög@@ 117316
hausen 117302
Winter@@ 117301
band 117279
Dom@@ 117258
Parte@@ 117241
Kn@@ 117220
emein@@ 117139
Euro 117134
Direk@@ 117123
Regierungs@@ 117077
200 117054
1982 117028
Frei@@ 117006
erischen 117005
Weg 116967
wer 116888
betrieb 116859
führten 116851
Grenz@@ 116849
International 116837
wirk@@ 116765
wagen 116722
Stra@@ 116711
jüng@@ 116686
ahl 116667
hoch@@ 116643
tal 116581
bildet 116501
Stad@@ 116490
stel@@ 116459
West 116439
funk@@ 116390
Leh@@ 116350
Bezir@@ 116317
Beim 116219
iler 116212
fol@@ 116194
gebildet 116111
Organ@@ 116003
ide@@ 115988
erschi@@ 115978
1976 115944
Familienname 115915
ult@@ 115859
Köln 115842
digung 115814
ösung 115799
mess@@ 115790
positi@@ 115710
Chem@@ 115706
Zu@@ 115677
ört 115671
schwar@@ 115651
heren 115649
Verbindung 115647
befand 115557
verbind@@ 115538
do 115529
Institut 115522
Grund 115513
Sz@@ 115490
legt 115481
verg@@ 115450
Wol@@ 115429
änd@@ 115407
Tem@@ 115261
Abgeord@@ 115247
welches 115235
Proz@@ 115180
erfol@@ 115168
Damit 115126
Kapit@@ 115074
Gü@@ 115046
ikation 115034
ais@@ 114958
aum@@ 114940
0@@ 114914
Bod@@ 114906
Besitz 114846
ganz 114750
Sicher@@ 114723
ras@@ 114693
1960 114679
City 114670
träge 114662
Cl@@ 114661
legen 114604
Kloster 114592
Johannes 114510
Kinder@@ 114495
Ac@@ 114488
verband 114424
Teile 114381
Verkehr@@ 114333
ien@@ 114266
umfasst 114218
zahlreich@@ 114193
derung 114180
Arti@@ 114094
Mitgli@@ 114077
Dreh@@ 114058
Lok@@ 113878
Raum 113854
Meister 113661
lungs@@ 113647
viel@@ 113641
Sozial@@ 113573
Frankfurt 113501
medi@@ 113487
Kir@@ 113463
! 113449
Qualif@@ 113432
Carl 113425
Truppen 113403
iges 113248
Stell@@ 113241
För@@ 113150
yn@@ 113116
win@@ 113088
ehemalige 113075
ises 113062
sburg 113050
hr 113045
isiert 112957
Anschließend 112913
tnis 112893
1950 112852
Funk@@ 112773
dient 112772
kunft 112761
Mc@@ 112756
enes 112753
rö@@ 112718
1946 112659
wäh@@ 112652
nimmt 112616
Philos@@ 112609
minister 112545
Entw@@ 112544
ologischen 112529
gebung 112525
Staffel 112521
Sold@@ 112517
alismus 112516
lad@@ 112515
Web@@ 112482
setzt 112469
fi@@ 112427
jüd@@ 112373
ätten 112367
1981 112345
fen@@ 112327
ächen 112279
ms 112271
England 112256
teten 112255
Kaiser 112244
ings 112179
Erd@@ 112172
leich@@ 112156
Tage 112150
rän@@ 112110
entwickelt 112099
Joseph 112092
nörd@@ 112091
Z 112076
fasst 112018
Rol@@ 112014
vertret@@ 112006
Wahl 111960
ode 111945
Rek@@ 111923
Rang 111890
schle@@ 111798
beschäf@@ 111764
stamm@@ 111709
Wettbewer@@ 111708
ko 111647
Bischof 111642
einmal 111593
Nr. 111534
ah 111534
gu@@ 111534
iligen 111512
Italien 111408
ister@@ 111395
ini 111344
Sk@@ 111328
arch@@ 111291
Ho@@ 111224
spiel@@ 111211
Leitung 111089
ski 111058
spielt 111055
dar 110986
Minister@@ 110923
v. 110896
ales 110871
elt@@ 110845
kop@@ 110830
Vari@@ 110706
Hälfte 110687
Klo@@ 110680
Rennen 110569
32 110506
fern 110499
Red@@ 110495
Forschungs@@ 110488
hohen 110481
Des@@ 110406
rh@@ 110386
System 110381
Bru@@ 110328
arm@@ 110323
hard 110193
sdorf 110184
Otto 110099
Wald@@ 110087
Politik 110067
mor@@ 110060
fiel 110044
damaligen 109937
sitz@@ 109913
gesehen 109859
Unterstütz@@ 109758
enheit 109685
Zuge 109668
identen 109621
Sieg 109588
baren 109573
benannt 109500
ors 109423
lam@@ 109421
nahe 109409
1964 109407
Inform@@ 109403
Inh@@ 109306
arti@@ 109264
amer@@ 109183
ider 109136
1977 109085
hang 109077
staat@@ 109063
plan@@ 109060
wenig 109047
teile 109036
Fig@@ 108934
Grenze 108910
Feld@@ 108901
1967 108849
Pil@@ 108828
ven@@ 108763
ebenso 108714
mün@@ 108702
Veröffentlich@@ 108687
britischen 108673
kol@@ 108640
Bür@@ 108618
Landes 108611
verz@@ 108606
Ihr 108568
französische 108558
Ernst 108557
nationalen 108534
GmbH 108483
Rh@@ 108428
ater@@ 108405
mut@@ 108401
Außen@@ 108368
öße 108362
belegte 108349
ong@@ 108340
net@@ 108293
Länge 108270
lichkeiten 108260
mitt@@ 108249
alien 108159
Program@@ 108070
ce 107983
Ortsteil 107960
Arbeiten 107850
wuchs 107844
verkehr@@ 107825
fri@@ 107817
weih@@ 107816
Tab@@ 107807
sek@@ 107728
Runde 107690
ograf@@ 107678
Kunst 107665
Weltmeister@@ 107621
era 107599
Bad 107572
Wen@@ 107465
hier@@ 107385
jährigen 107370
lug@@ 107211
nutz@@ 107194
mög@@ 107189
amb@@ 107177
Sand@@ 107122
geber 107071
dau@@ 107003
Pra@@ 106962
Wein@@ 106935
Müh@@ 106900
beträgt 106868
Kun@@ 106862
Je@@ 106832
besteh@@ 106821
bach@@ 106766
Kompon@@ 106660
ahn 106648
sogar 106627
lief 106610
betre@@ 106608
Leipzig 106557
iste 106530
bevor 106505
entfernt 106494
uf 106484
Ehe 106393
utz 106347
Tour 106326
igt 106295
Begriff 106284
Tür@@ 106253
leitete 106159
1965 106154
Nationalmannschaft 106097
Bah@@ 106062
ack 106055
selb@@ 106017
iken 105993
besitzt 105975
Prä@@ 105916
kten 105912
linie 105896
abr@@ 105873
Kanton 105756
frei@@ 105750
End@@ 105744
Division 105719
Ren@@ 105695
leich 105613
zeichnet 105557
standen 105517
Stil 105509
ata 105490
Med@@ 105488
umen 105379
machen 105378
1966 105353
Win@@ 105348
fiz@@ 105340
45 105322
Leiter 105308
Herrschaft 105293
app 105228
26 105086
See 105023
Aufgrund 104954
einzige 104924
Fri@@ 104898
Zentrum 104798
verein 104777
othe@@ 104768
gäng@@ 104757
weist 104750
schutz 104724
such@@ 104682
pers@@ 104673
Salz@@ 104631
cu@@ 104549
weiterhin 104495
schwe@@ 104470
Fak@@ 104418
ł@@ 104376
deutsch 104349
aktiv 104268
Fin@@ 104260
Unterneh@@ 104197
seln 104186
biet@@ 104088
städ@@ 104062
ebe 103985
späteren 103961
1963 103951
1961 103943
erseits 103894
ausgezeichnet 103874
kamp@@ 103861
ug 103788
Sä@@ 103742
Fall 103718
Christian 103692
taus@@ 103684
onder@@ 103659
was@@ 103561
ibt 103557
lebt 103550
tit@@ 103522
Ach@@ 103509
ym@@ 103507
ellen@@ 103428
á 103393
verk@@ 103382
walt 103381
achten 103337
1952 103301
Republik 103297
platz@@ 103232
1962 103203
üsse 103198
org@@ 103188
Industri@@ 103175
endorf 103142
ama 103097
spre@@ 103097
1956 103047
reiche 103035
flü@@ 103021
richt 102996
28 102970
75 102965
annen 102935
ail@@ 102928
Werk@@ 102909
1940 102881
ara 102879
trieb@@ 102879
astr@@ 102870
Theater 102854
erweit@@ 102853
Bayern 102733
Öff@@ 102716
Tsch@@ 102670
maß@@ 102610
frühen 102561
Koh@@ 102432
ha 102411
On@@ 102392
Kü@@ 102375
Sachsen 102365
ca 102309
1948 102281
timm@@ 102277
Ide@@ 102256
park 102240
Hu@@ 102203
iff 102107
° 102083
öffent@@ 102078
oss 102069
no 102068
la@@ 102049
uktur 101976
Sam@@ 101957
Bundessta@@ 101931
Park 101905
ophie 101879
kämp@@ 101860
Männer 101859
verbunden 101828
äuß@@ 101784
Später 101774
port@@ 101769
Pas@@ 101761
ee 101718
uz 101690
Polen 101681
Universit@@ 101678
Person@@ 101646
Wie 101645
Ap@@ 101638
Kab@@ 101603
haus@@ 101592
sy@@ 101583
gefunden 101540
wa 101530
bringen 101519
eher 101488
zentrum 101462
wah@@ 101437
1949 101432
Viz@@ 101427
künst@@ 101370
ys@@ 101366
Fläche 101363
Firma 101347
bli@@ 101280
setzen 101274
tungs@@ 101270
tin@@ 101241
II 101220
Syn@@ 101213
politische 101119
esischen 101088
í@@ 101048
Zahl 101003
würde 100971
by 100962
mission 100906
atz 100886
heb@@ 100879
27 100876
bisher 100875
rot@@ 100772
kommen@@ 100765
Dorf@@ 100731
klasse 100719
Lau@@ 100664
Blü@@ 100663
ai@@ 100604
tem 100596
nommen 100585
internationalen 100558
Lab@@ 100551
verbreit@@ 100543
1941 100510
io 100501
entlichen 100473
erzielte 100455
ächs@@ 100451
evangel@@ 100292
Pres@@ 100242
Neben@@ 100241
ek 100223
enthält 100198
med@@ 100196
müssen 100127
fest 100116
ea 100057
van 100025
1942 100023
bürger@@ 100000
za 99995
1943 99987
Son@@ 99961
Dienst@@ 99884
Erst 99840
Geographie 99818
Bezieh@@ 99803
völ@@ 99777
mannschaft 99728
Heimat@@ 99690
Hilfe 99645
geprä@@ 99562
jap@@ 99538
verlor 99431
du 99426
Klein@@ 99418
ehemal@@ 99381
1958 99362
Bus@@ 99307
Doppel@@ 99261
gül@@ 99225
aun@@ 99211
tei 99195
fügt 99160
Il@@ 99151
lediglich 99102
Wiener 99101
Literatur 98990
krieg@@ 98874
schieden 98829
sä@@ 98829
Pan@@ 98812
Cal@@ 98704
Akademie 98683
asti@@ 98625
Preu@@ 98617
port 98607
Sub@@ 98592
aill@@ 98551
Vog@@ 98547
nit@@ 98506
plat@@ 98458
ges 98450
beginn@@ 98384
moder@@ 98379
Kultur 98378
üler 98335
testen 98300
seit@@ 98279
unge 98207
Hy@@ 98126
ae 98109
ille 98095
Bro@@ 98014
ys 97950
zählt 97943
Gast@@ 97905
deut@@ 97898
zeichen 97895
studi@@ 97891
Flu@@ 97887
bald 97829
schriften 97788
Gra@@ 97717
füg@@ 97711
lebten 97699
angeg@@ 97675
Bahn 97666
Sommer@@ 97649
Verfüg@@ 97578
siert 97567
David 97477
km@@ 97447
1959 97398
zeugen 97395
preuß@@ 97365
tar 97361
Cas@@ 97358
Sonn@@ 97341
bare 97279
General 97261
estr@@ 97228
loss@@ 97194
Pok@@ 97187
Vor 97184
Wirtschaft 97178
Funktion 97176
poli@@ 97109
Beschreibung 97078
Mol@@ 97072
folgten 97072
verte@@ 97036
j 97011
betrieb@@ 96996
bekann@@ 96984
gespi@@ 96967
William 96956
Leb@@ 96938
Meisterschaft 96831
milit@@ 96801
spek@@ 96793
Weltmeisterschaft 96783
College 96695
Veranst@@ 96681
Gattung 96677
mm@@ 96632
old 96551
Schiff@@ 96541
fil@@ 96524
Histor@@ 96511
beteiligt 96468
qualifiz@@ 96369
sollten 96361
Alexander 96322
.000 96306
bilden 96250
Version 96196
ologische 96196
promovi@@ 96140
Schlacht 96105
mp@@ 96020
Abschluss 95844
egel 95832
trit@@ 95783
Lö@@ 95779
digt 95768
Don@@ 95762
öffentlichen 95745
1947 95738
1957 95666
Jah@@ 95621
ßer@@ 95620
enst 95565
ci@@ 95543
mittler@@ 95532
ha@@ 95517
griech@@ 95497
röm@@ 95484
fließ@@ 95461
Regel 95446
sorg@@ 95439
schreib@@ 95315
ange 95287
Verwendung 95276
westlichen 95251
Vorsitzender 95205
bs 95192
getr@@ 95166
Schiff 95108
produk@@ 95103
anges@@ 94974
Richard 94944
Bürgermeister 94935
Uhr 94928
SV 94927
Umw@@ 94824
wak@@ 94797
grup@@ 94749
kauf@@ 94736
amerikanische 94725
eigen@@ 94707
gerichtet 94659
system 94621
Regional@@ 94590
wert 94590
imal 94576
thi@@ 94574
wirkte 94532
Span@@ 94511
Sat@@ 94408
ages 94278
Luf@@ 94246
ersetzt 94203
enk@@ 94195
hohe 94174
haupts@@ 94135
ensatz 94059
Verfass@@ 94057
1918 94019
leitung 94018
denk@@ 94010
wollte 93986
Kateg@@ 93938
Val@@ 93923
1953 93904
arten 93888
Frau@@ 93878
ebt 93873
sat@@ 93844
besitz@@ 93836
eilt 93828
1934 93821
ihe 93813
gebäude 93782
Dec@@ 93771
viel 93765
1955 93673
1936 93650
alls 93649
neun 93647
1954 93643
č@@ 93640
III. 93606
edern 93598
erreichen 93528
opp@@ 93418
Produ@@ 93393
ichtet 93326
1920 93302
trägt 93287
isierung 93261
aup@@ 93242
Gut@@ 93229
frau 93180
eth@@ 93156
ams 93147
Hier@@ 93144
Bei@@ 93046
Arch@@ 93032
tür@@ 93022
1919 92999
dest@@ 92990
Schn@@ 92987
65 92951
Oper@@ 92942
tho@@ 92938
ya 92832
Büh@@ 92805
Fen@@ 92742
é@@ 92630
Politi@@ 92566
Ham@@ 92417
Wid@@ 92406
fall@@ 92364
esti@@ 92360
Aug@@ 92307
tern@@ 92254
chr@@ 92182
Feuer@@ 92172
Privat@@ 92110
ic 92036
Pass@@ 92017
fallen 91965
Fu@@ 91955
Dokum@@ 91943
Man 91921
Hochschule 91877
sberg 91836
gesellschaft 91644
du@@ 91641
gegen@@ 91610
Tel@@ 91583
mäß@@ 91578
Ern@@ 91565
aten@@ 91454
Cup 91380
nie 91314
Dollar 91311
bot 91163
Alter@@ 91121
Position 91118
onz@@ 91113
mann@@ 91063
Gri@@ 91017
ust 90957
ege 90939
besi@@ 90887
tum 90850
typ@@ 90822
… 90802
Verte@@ 90799
Union 90752
Stud@@ 90703
asi@@ 90611
Ker@@ 90520
Anti@@ 90506
Män@@ 90484
School 90445
eben@@ 90215
Gol@@ 90043
Hermann 90041
ers@@ 90011
36 89924
Juni@@ 89914
Hein@@ 89913
Schne@@ 89897
Math@@ 89869
we 89849
gro@@ 89834
Sonder@@ 89825
aters 89770
lerin 89597
ematik 89585
indig@@ 89579
‘ 89541
Roman 89503
Rom 89489
serie 89486
Bat@@ 89473
Jean 89469
ursprüng@@ 89418
anc@@ 89395
Baden 89321
1937 89277
Eig@@ 89272
co 89179
ands 89146
Jur@@ 89047
Distr@@ 89043
Rez@@ 89034
bem@@ 89012
Rein@@ 88986
une 88806
itzer 88731
inden 88648
Han@@ 88646
name 88624
Num@@ 88601
China 88427
elerin 88426
Max 88387
inge 88386
1951 88203
dad@@ 88195
bot@@ 88144
1935 88034
Organisation 87983
eim@@ 87974
sam 87971
Lag@@ 87953
direk@@ 87844
Q@@ 87814
kör@@ 87788
ause 87740
adr@@ 87732
eign@@ 87626
irk 87621
+ 87610
33 87553
Schutz@@ 87534
Bere@@ 87500
alter@@ 87465
jah@@ 87452
1@@ 87450
achsen 87441
sag@@ 87345
ong 87302
Erk@@ 87241
aktiv@@ 87088
res 87046
früh@@ 87030
1930 87019
Burg@@ 87017
Gas@@ 87001
Materi@@ 86991
James 86962
bro@@ 86827
ener@@ 86810
kam@@ 86787
nat@@ 86741
Kath@@ 86623
for 86592
Git@@ 86564
Pot@@ 86529
ograph@@ 86514
Kenn@@ 86459
sam@@ 86416
Probl@@ 86366
1.@@ 86349
Mont@@ 86308
3,@@ 86282
iko 86225
World 86209
ora 86203
rün@@ 86198
Dresden 86196
Hir@@ 86158
Berg 86081
George 86018
29 85893
wehr 85790
sion@@ 85754
34 85752
Gymnasium 85705
mach@@ 85665
ville 85593
Rä@@ 85591
Rit@@ 85582
Mark@@ 85538
mand@@ 85447
inst@@ 85429
icklung 85423
Öster@@ 85135
ickl@@ 85134
assi@@ 85072
Ord@@ 85022
Wür@@ 85010
Zen@@ 84935
Bad@@ 84846
Verlag 84837
hab@@ 84728
ahn@@ 84636
31 84565
ond@@ 84487
abil@@ 84462
Bisch@@ 84452
kün@@ 84433
sech@@ 84405
Mach@@ 84396
sprech@@ 84356
ense@@ 84352
Ruh@@ 84210
Renn@@ 84179
Rö@@ 84138
Fot@@ 84067
Bir@@ 84048
Reich 83972
Kauf@@ 83923
ident 83918
nern 83904
Parti@@ 83890
co@@ 83719
pass@@ 83607
ó@@ 83521
Herb@@ 83518
azu 83424
Fal@@ 83420
chung 83413
alm@@ 83370
agog@@ 83354
asser 83351
Bundesliga 83338
d. 83314
ō 83232
etes 83194
teren 83163
CD@@ 83143
1914 83141
Dr. 83121
Bu@@ 83119
My@@ 83082
197@@ 83025
kw@@ 83022
Roh@@ 82995
kund@@ 82832
ock@@ 82809
1928 82793
uer 82765
lem 82756
französ@@ 82741
Main 82726
will 82700
sur 82622
khe@@ 82613
under@@ 82476
ement 82387
Wehr@@ 82336
mod@@ 82329
position 82273
ump@@ 82164
gestell@@ 82142
lar 82139
X 82051
dah@@ 82000
igten 81997
Lig@@ 81973
nes 81953
Ton@@ 81892
Sem@@ 81850
ford 81752
Lit@@ 81740
Main@@ 81706
char@@ 81665
1929 81641
River 81606
Hannover 81580
ikal@@ 81477
wirt@@ 81398
55 81382
zig 81367
ap 81345
64 81293
dan@@ 81225
nationale 81223
abe 81023
198@@ 80976
relati@@ 80918
got@@ 80898
versi@@ 80897
Mos@@ 80885
Jak@@ 80842
38 80816
Sim@@ 80797
Radi@@ 80776
1932 80743
Japan 80703
tier@@ 80628
Club 80627
jewe@@ 80613
Fi@@ 80548
oy@@ 80451
Walter 80439
syst@@ 80246
Ster@@ 80193
aler 80185
Nord 80178
« 80115
Mass@@ 80094
Seg@@ 80086
Evangel@@ 80060
Bibli@@ 79987
proj@@ 79923
sah 79789
pan@@ 79776
Mad@@ 79764
1900 79711
Journ@@ 79710
» 79704
bor@@ 79601
lten 79588
rad 79515
Charles 79485
identi@@ 79439
37 79431
beteil@@ 79384
American 79380
urs 79373
Graf 79364
ō@@ 79360
müh@@ 79350
ton@@ 79307
politik 79196
rom@@ 79175
Anna 79117
Instrum@@ 79101
va 78991
yst@@ 78945
pon@@ 78861
hor@@ 78795
rag@@ 78764
Tradi@@ 78759
besondere 78736
Ther@@ 78691
Sau@@ 78679
tal@@ 78666
dings 78646
Kant@@ 78621
Gru@@ 78601
its 78537
gesamt 78491
Josef 78471
ain 78390
graf@@ 78388
Mess@@ 78314
flo@@ 78291
alg@@ 78260
85 78249
Mich@@ 78183
Dam@@ 78170
kus@@ 78071
Post@@ 78070
entwick@@ 78054
196@@ 78007
tradition@@ 77988
Bach@@ 77981
Mosk@@ 77933
li 77848
dür@@ 77815
19@@ 77800
400 77739
union 77639
han@@ 77619
trans@@ 77602
SC 77432
Mis@@ 77391
ø@@ 77368
Nür@@ 77352
chter 77256
etten 77228
A. 77191
Autom@@ 76957
199@@ 76926
Emp@@ 76885
ont@@ 76883
kin@@ 76879
42 76871
sport@@ 76814
ders 76773
ā@@ 76772
Stuttgart 76750
kat@@ 76710
1925 76700
law@@ 76698
Le 76650
int@@ 76529
Ke@@ 76523
erie 76523
peri@@ 76484
til@@ 76443
eu@@ 76442
kö@@ 76384
Sach@@ 76376
app@@ 76337
entum 76323
onom@@ 76315
Parlam@@ 76308
ura 76292
48 76223
Kup@@ 76220
Premi@@ 76213
urg@@ 76210
acher 76206
Mark 76200
Les@@ 76107
Mur@@ 76105
erreich@@ 76096
Zürich 76069
ustr@@ 75996
publik 75981
Dek@@ 75977
5,@@ 75921
Düssel@@ 75856
akadem@@ 75844
Assist@@ 75796
eler@@ 75777
TV 75756
kum@@ 75665
Nati@@ 75658
ani 75656
kus 75610
ball@@ 75554
300 75485
Tier@@ 75473
ment@@ 75430
elektr@@ 75425
Jung@@ 75395
rol@@ 75352
SPD 75349
ona 75289
wol@@ 75278
1924 75257
Pub@@ 75140
hel@@ 75034
1927 74962
ok 74934
akter@@ 74892
Braun@@ 74807
atus 74771
mig@@ 74740
Wind@@ 74583
prak@@ 74535
insel 74529
bür@@ 74524
frag@@ 74473
auch@@ 74305
‚ 74294
kes 74209
Département 74155
Lat@@ 74032
fah@@ 74020
fs 73989
Sel@@ 73931
eter@@ 73829
1910 73801
Sor@@ 73799
tes@@ 73789
ock 73774
britanni@@ 73697
pa@@ 73694
beleg@@ 73661
Kongr@@ 73563
44 73504
sem@@ 73485
izi@@ 73460
lem@@ 73446
ac 73435
hu@@ 73435
Super@@ 73392
Einwoh@@ 73378
gs 73354
ächst 73299
ars 73149
mund 73133
Award 73120
erzi@@ 73114
kür@@ 73041
hen 73019
Liter@@ 72992
chs 72909
fas@@ 72798
Ander@@ 72760
zin 72720
formation 72687
Lor@@ 72671
aun 72628
United 72419
öm@@ 72326
Mik@@ 72227
abl@@ 72186
1931 72084
Ere@@ 72071
arn 72048
1921 71979
Ter@@ 71722
ala 71721
Nov@@ 71718
esp@@ 71695
Bul@@ 71606
Dör@@ 71587
39 71555
Hom@@ 71530
Single 71500
ada 71491
Tun@@ 71434
Song 71388
Bevöl@@ 71351
tiz@@ 71344
Kö@@ 71255
trieb 71243
ule 71241
ines 71124
ky 71110
Grand 71033
Ant@@ 71017
program@@ 70975
luss 70931
1923 70915
iss 70914
gyp@@ 70863
Pat@@ 70849
Seh@@ 70725
1926 70705
Wach@@ 70689
stor@@ 70655
bay@@ 70583
fach@@ 70577
Jag@@ 70571
Pau@@ 70535
nomin@@ 70525
oper@@ 70510
Hamb@@ 70503
Chr@@ 70487
seur 70487
Frank@@ 70479
ance 70450
engag@@ 70437
gol@@ 70402
Blu@@ 70401
ester@@ 70352
Engl@@ 70340
gebr@@ 70291
enfalls 70289
atr@@ 70257
ary 70256
ly 70242
ty 70167
4,@@ 70127
6,@@ 70082
anne 70051
? 70046
Part@@ 70036
52 70020
onie 69951
Phili@@ 69937
ari 69912
1912 69891
imin@@ 69863
Chor@@ 69855
uli@@ 69850
Fle@@ 69845
Open 69811
Wall@@ 69809
ecke 69807
Initi@@ 69801
Mau@@ 69801
use 69701
bal@@ 69669
Bern@@ 69644
nd@@ 69628
Star@@ 69590
Tan@@ 69522
ony@@ 69512
ls@@ 69509
Lie@@ 69454
ont 69450
och@@ 69433
tz@@ 69404
Anf@@ 69398
liz@@ 69370
Tech@@ 69305
Moder@@ 69258
idel@@ 69236
mes 69202
ilien 69190
Gott@@ 69157
Louis 69097
aly@@ 69083
Rudolf 69076
1922 69071
Wag@@ 69043
meter 68998
Brun@@ 68981
jet@@ 68952
ey@@ 68943
lim@@ 68906
Festival 68895
otte 68822
schie@@ 68785
lo 68780
Sar@@ 68767
breit@@ 68675
Lü@@ 68648
tol@@ 68604
72 68596
pas@@ 68558
Stur@@ 68515
Bol@@ 68485
liter@@ 68478
Hon@@ 68463
pp 68462
zur@@ 68436
lin 68417
las 68394
ais 68363
utzt 68353
eder 68315
oz@@ 68186
Württemberg 68181
cher@@ 68174
kunde 68101
51 68056
inn 68003
od 67813
imm@@ 67797
eng 67762
wech@@ 67738
Pop@@ 67708
eber@@ 67617
Wolfgang 67612
grad 67600
Albert 67504
Provin@@ 67479
pal@@ 67466
Glas@@ 67425
osen 67417
att 67405
47 67222
ög@@ 67202
ř@@ 67198
Mand@@ 67042
part@@ 67032
edi@@ 67030
41 66909
eri@@ 66698
fur@@ 66633
bank 66632
Verbind@@ 66534
Rum@@ 66524
56 66463
Infan@@ 66402
eden 66402
Arn@@ 66395
ept 66380
sm@@ 66350
Jus@@ 66221
empl@@ 66217
prin@@ 66188
priv@@ 66162
Gle@@ 66107
istr@@ 66104
Ind@@ 66076
urt 66045
Kad@@ 65983
beck 65972
43 65965
NS@@ 65954
film@@ 65925
vari@@ 65865
orium 65829
Stadi@@ 65788
famil@@ 65739
inger@@ 65698
54 65613
Juli@@ 65553
istik 65502
88 65491
nant 65490
bun@@ 65488
Hek@@ 65484
lie@@ 65461
onlyinclude 65435
Tot@@ 65428
chester 65410
Pen@@ 65354
1913 65329
gien 65321
Sing@@ 65265
Dah@@ 65244
Ball@@ 65205
Hü@@ 65200
Fund@@ 65163
Wur@@ 65046
Som@@ 65018
Royal 64994
stil@@ 64964
eger 64912
Alb@@ 64900
Panz@@ 64888
Ann@@ 64876
Phil@@ 64847
mot@@ 64845
ple@@ 64795
53 64776
Ener@@ 64692
ax@@ 64689
ella 64662
üt 64644
liste 64590
Ok@@ 64511
Tar@@ 64504
Mut@@ 64460
Peter@@ 64372
kum 64216
dition 64206
Patr@@ 64189
Los 64140
internationale 64087
78 64068
rad@@ 64032
ider@@ 64013
Motor 63949
alis@@ 63937
Wah@@ 63929
mat@@ 63883
Tak@@ 63862
mag@@ 63848
Restaur@@ 63825
mark 63777
rich 63756
Bö@@ 63654
vis@@ 63646
Mul@@ 63630
serv@@ 63606
dies@@ 63596
86 63583
Fir@@ 63566
mens@@ 63564
itr@@ 63542
Der@@ 63507
Island 63489
bis@@ 63487
1911 63478
afr@@ 63477
Det@@ 63472
71 63455
66 63434
ath 63418
46 63352
dur@@ 63339
ards 63323
49 63275
SS 63252
enda 63225
bur@@ 63210
ime 63130
rati@@ 63096
Bremen 63079
ill 63035
ash@@ 63008
Washington 62946
teur 62932
Nikol@@ 62926
echt 62916
low 62906
Stil@@ 62887
besuch@@ 62843
ls 62797
inf@@ 62772
theater 62759
Motor@@ 62737
1000 62709
Dich@@ 62670
lege 62620
links 62550
sz@@ 62506
burg@@ 62486
Sum@@ 62477
nhof 62476
mut 62467
S. 62423
ieder 62403
Jer@@ 62398
ation@@ 62369
63 62361
PS 62354
fried 62305
Schrif@@ 62274
det@@ 62170
76 62158
1907 62153
fle@@ 62059
68 61932
1905 61899
ost 61883
Infr@@ 61861
Fo@@ 61822
ou 61774
rem@@ 61740
.-@@ 61691
195@@ 61685
Hum@@ 61650
62 61648
Ing@@ 61633
fort@@ 61582
95 61571
fik@@ 61553
30@@ 61542
Slo@@ 61533
ita 61533
84 61522
2022 61518
Bank 61511
absol@@ 61505
schrif@@ 61496
Eth@@ 61401
tic@@ 61391
vern@@ 61377
bish@@ 61376
57 61368
Hö@@ 61368
inal 61367
ly@@ 61341
nis@@ 61306
La@@ 61287
zös@@ 61274
ds 61209
Jazz 61172
Lim@@ 61139
Dro@@ 61137
1917 61117
× 61111
okrati@@ 61023
58 60991
Ec@@ 60959
ole 60936
Dol@@ 60927
sten@@ 60875
ris@@ 60796
8,@@ 60779
25@@ 60766
alit@@ 60738
Mac@@ 60726
Neb@@ 60694
ith 60640
83 60628
ér@@ 60622
Astr@@ 60586
Hen@@ 60585
sters 60571
Tom@@ 60569
1908 60518
77 60470
67 60468
religi@@ 60458
ace 60447
mt@@ 60442
Adolf 60422
alog@@ 60415
Test@@ 60365
61 60218
Chi@@ 60202
Amer@@ 60198
ffer@@ 60124
ems 60012
Bras@@ 59900
stitu@@ 59863
Marie 59849
sar@@ 59845
Winter 59826
Ot@@ 59785
87 59691
dens@@ 59664
besonder@@ 59661
chem@@ 59623
stitut@@ 59585
Jes@@ 59580
ence 59548
05 59522
74 59508
ald 59471
Wander@@ 59450
kas@@ 59425
Reser@@ 59393
gar 59376
rel@@ 59375
maxim@@ 59365
ünde 59344
Band@@ 59323
59 59256
plant 59216
ogr@@ 59214
Bom@@ 59184
hy@@ 59126
bec@@ 59108
lub 59104
82 59094
Sw@@ 59092
Demokrati@@ 59085
Frank 58994
Rem@@ 58952
defin@@ 58943
í 58917
Bos@@ 58884
Ev@@ 58874
urs@@ 58811
Cam@@ 58809
EU 58743
ord 58731
reform 58716
una 58667
eau 58656
Lud@@ 58626
igi@@ 58614
Andreas 58573
Maxim@@ 58542
Mes@@ 58535
orf 58489
usi@@ 58458
lek@@ 58432
sil@@ 58427
Müller 58377
sal@@ 58338
Station 58329
Can@@ 58279
Hoff@@ 58274
terie 58273
tan 58223
istin 58190
Mex@@ 58135
Est@@ 58131
alist 58126
kehr@@ 58119
04 58111
1906 58105
such 58079
ov 58076
Air 58054
ome 58049
Psych@@ 58043
ola 58032
zuk@@ 58027
ordin@@ 57988
iden@@ 57987
73 57977
GB 57965
AR@@ 57944
uth 57866
ez 57855
seh@@ 57855
Kos@@ 57850
num@@ 57816
7,@@ 57807
kg 57798
ket@@ 57792
bus@@ 57732
flu@@ 57706
81 57689
eur@@ 57684
Exper@@ 57676
tent@@ 57533
ular@@ 57494
athol@@ 57457
ettbewer@@ 57451
tis 57448
Hab@@ 57446
af 57443
Beispi@@ 57381
Amat@@ 57330
q@@ 57325
mes@@ 57296
ć 57291
Mär@@ 57269
Ram@@ 57239
AS@@ 57200
issen@@ 57182
min 57171
tis@@ 57162
prof@@ 57156
Origin@@ 57102
Lind@@ 57046
our 57029
Inv@@ 57006
É@@ 56997
itter 56892
Werner 56878
De 56853
austr@@ 56846
&#124; 56747
Kel@@ 56683
same 56681
tif@@ 56630
ical 56587
chn@@ 56500
abri@@ 56393
SG 56386
1909 56383
ask@@ 56379
01 56337
Id@@ 56335
pres@@ 56318
kü@@ 56197
Gold 56186
ty@@ 56160
Sym@@ 56039
Int@@ 56013
Vir@@ 55997
Nah@@ 55994
then 55987
og 55972
esh@@ 55937
eb 55882
Tenn@@ 55875
album 55863
Mah@@ 55815
69 55804
Records 55773
08 55751
Sul@@ 55748
phase 55713
lige 55675
1904 55673
entin 55671
Sur@@ 55655
Olympi@@ 55587
ovi@@ 55574
Dav@@ 55565
Ly@@ 55526
Fritz 55524
ches 55486
stati@@ 55442
sab@@ 55439
J. 55426
Rock 55415
Ra@@ 55400
Anton 55397
Bec@@ 55334
etr@@ 55294
onale 55282
line 55241
ysi@@ 55214
Ingen@@ 55211
rec@@ 55197
don@@ 55117
gende 55092
ox@@ 55083
reibung 55081
No@@ 55077
Zer@@ 55041
inten@@ 55025
ppe 54957
Company 54924
1915 54795
Theod@@ 54794
ental 54783
Spar@@ 54777
Tu@@ 54742
witz 54728
79 54685
Elisabeth 54679
99 54665
18@@ 54535
09 54523
politi@@ 54517
Alfred 54470
Net@@ 54453
Gran@@ 54446
3.@@ 54443
CD 54395
Rap@@ 54389
alli@@ 54368
Reb@@ 54351
Eff@@ 54311
Asi@@ 54260
äß@@ 54228
sive 54207
station 54205
Ü@@ 54133
Dad@@ 54110
eres 54086
Bron@@ 54067
Kanada 54016
Des 53973
sto@@ 53960
lose 53919
eption 53779
mus 53777
9,@@ 53736
ür 53717
2.@@ 53708
96 53656
band@@ 53616
inc@@ 53608
ani@@ 53584
Dok@@ 53576
parall@@ 53567
ouverneur 53562
ose 53531
Henry 53508
Bud@@ 53504
ela 53476
ney 53468
sk 53433
07 53430
ison 53350
Prom@@ 53288
Angeles 53271
mechan@@ 53265
Brig@@ 53253
Sport 53247
zial@@ 53238
Spor@@ 53223
isl@@ 53222
150 53115
1903 53091
redu@@ 53089
win 53073
Refer@@ 53056
ory 53011
rang 53002
Itali@@ 52988
uck 52980
tra 52976
ande 52948
bus 52913
eins 52817
dire@@ 52808
afe 52799
Ba@@ 52788
que 52779
bewer@@ 52720
State 52717
Sig@@ 52700
ius 52679
AP 52662
use@@ 52621
yer 52600
Bun@@ 52595
hem@@ 52587
plo@@ 52573
afrika 52570
Sign@@ 52492
sit@@ 52471
Villa 52464
car@@ 52464
1916 52457
Territ@@ 52391
Gün@@ 52364
nom@@ 52354
Situation 52338
Daniel 52318
veröffentlich@@ 52298
dic@@ 52264
tad@@ 52231
bit@@ 52223
esser 52209
öß@@ 52169
Ferdinand 52155
publi@@ 52136
omin@@ 52134
nig 52127
ico 52084
domin@@ 52079
Hall@@ 52027
ao 52026
ark 52004
Fort@@ 51998
inner@@ 51981
Parlament@@ 51949
mando 51922
Abr@@ 51911
Vorsitz@@ 51853
Terr@@ 51851
gh@@ 51817
Rec@@ 51791
Vil@@ 51783
Films 51709
1902 51676
Top 51649
Radio 51598
ato 51562
neg@@ 51541
Wilhel@@ 51513
Bach 51505
gener@@ 51495
ip@@ 51477
Wild@@ 51423
Eur@@ 51417
§ 51409
emente 51392
Regiment 51212
Dies@@ 51184
ix 51158
ame 51070
plan 51065
Vik@@ 51048
98 50981
ört@@ 50906
Stat@@ 50895
Gustav 50882
stra@@ 50833
Luc@@ 50802
aux 50785
ve@@ 50755
Sak@@ 50707
1901 50682
Uni@@ 50654
South 50631
Bab@@ 50608
92 50537
sl@@ 50525
organisation 50495
m. 50475
House 50387
riere 50373
elles 50359
00 50344
Ath@@ 50319
ga 50317
indi@@ 50309
SS@@ 50280
val@@ 50273
arg@@ 50216
pendi@@ 50199
Camp@@ 50184
legi@@ 50176
Liber@@ 50172
28@@ 50143
ake 50063
ida 50053
06 50021
integ@@ 49995
Ortste@@ 49991
Köl@@ 49879
Lad@@ 49869
sexu@@ 49850
Music 49831
iw@@ 49831
Lar@@ 49818
Tir@@ 49755
akter 49753
Revolution 49703
1848 49677
museum 49643
Kaliforni@@ 49614
utsch@@ 49574
Regi@@ 49553
Epis@@ 49494
Society 49484
Lib@@ 49364
Progr@@ 49351
uter 49341
ire 49337
enge 49318
midt 49288
sprüng@@ 49288
ding 49268
1899 49184
ün 49178
Kamer@@ 49166
brun@@ 49108
sex@@ 49101
bel 49058
tz 49049
Joh@@ 48994
Priv@@ 48919
stock 48919
iser 48897
uppen 48876
North 48831
kontrol@@ 48821
Fili@@ 48798
slo@@ 48757
Leon@@ 48730
Flor@@ 48723
Geor@@ 48721
ros@@ 48707
bind@@ 48676
eo 48666
24@@ 48610
con@@ 48600
Prim@@ 48573
Cre@@ 48549
ader 48542
weiten 48441
oll 48412
600 48400
Jud@@ 48376
800 48333
oti@@ 48295
Ris@@ 48291
III 48275
ital 48231
itig 48211
öz@@ 48208
ild 48199
94 48171
Pom@@ 48162
ero 48089
1898 48087
Len@@ 48083
Mak@@ 48081
ment 48033
ensi@@ 48008
ington 48007
oni 47975
itt 47972
Art@@ 47950
Laur@@ 47936
lis 47932
schied@@ 47928
wart 47874
93 47870
beit@@ 47870
vid@@ 47863
Rus@@ 47809
lere 47792
ry 47773
azz@@ 47756
03 47737
C. 47713
Bres@@ 47694
Ori@@ 47676
ij@@ 47645
ima 47577
damal@@ 47564
jur@@ 47561
1890 47558
Wat@@ 47548
German@@ 47522
Av@@ 47512
Hockey 47487
Fas@@ 47481
hunder@@ 47404
iller 47373
ua 47350
Monum@@ 47346
eland 47346
Jan 47323
New@@ 47302
angel@@ 47302
Has@@ 47258
Lam@@ 47232
02 47221
ro 47191
bul@@ 47166
bes 47130
Vo@@ 47128
erne@@ 47099
owski 47095
sport 47084
ierungs@@ 47043
key@@ 47014
mir 46927
Hall 46925
Kro@@ 46919
analy@@ 46917
97 46904
Santa 46818
IS@@ 46770
Hart@@ 46760
bran@@ 46716
Hard@@ 46673
Lot@@ 46547
Chicago 46464
öster@@ 46449
Pierre 46418
läs@@ 46372
mir@@ 46358
91 46347
wuch@@ 46340
spe@@ 46321
89 46258
1895 46254
üssel@@ 46227
alles 46224
ba 46214
urt@@ 46117
Poly@@ 46085
mar 46084
field 46079
M. 46070
esi@@ 46067
1896 46059
Dipl@@ 46041
Ku@@ 46038
Lan@@ 46027
mark@@ 46026
Rat@@ 46016
Mir@@ 46010
Aff@@ 46004
Gau@@ 45999
ž@@ 45968
thode 45951
lob@@ 45931
Sab@@ 45919
nel 45915
psych@@ 45898
az 45896
bibli@@ 45860
glieder 45828
ike 45828
Ca@@ 45808
Association 45792
ism@@ 45734
1870 45719
Hotel 45704
Na@@ 45697
Š@@ 45692
NS 45685
wieg@@ 45596
emann 45589
verse 45585
ammen@@ 45567
Leopol@@ 45561
autom@@ 45558
gewäh@@ 45526
cor@@ 45512
Imp@@ 45511
Boh@@ 45508
DP 45478
High 45366
1871 45290
sing@@ 45276
1897 45239
oto 45216
Will@@ 45175
ni 45171
Petr@@ 45087
Play@@ 45086
red@@ 45079
Him@@ 45031
ello 45012
gebil@@ 45007
si 44978
venti@@ 44940
Vill@@ 44917
Institute 44884
SE@@ 44879
atum 44814
enger 44814
Lev@@ 44813
dy 44777
aja 44714
tic 44707
lima 44701
Tas@@ 44626
ief 44600
ife 44593
Vis@@ 44581
Ep@@ 44506
à 44471
mau@@ 44408
ergie 44404
ye 44380
Ble@@ 44379
lock 44331
Basket@@ 44327
born 44321
tiv 44301
00@@ 44281
Domin@@ 44246
Schleswig 44226
4.@@ 44209
efe 44185
wen 44173
apo@@ 44117
Marine 44109
Milit@@ 44096
servat@@ 44091
natur@@ 44070
British 44053
Cur@@ 44053
Tran@@ 44023
Ras@@ 44015
Hub@@ 44014
All 44010
dro@@ 43987
Eg@@ 43965
elli 43940
Bog@@ 43930
Hot@@ 43890
hil@@ 43859
Öl@@ 43839
Sc@@ 43772
But@@ 43762
Kul@@ 43759
dissement 43724
rek@@ 43711
üng@@ 43702
Songs 43691
sub@@ 43681
dam 43679
ies 43638
ift 43635
loss 43601
Bran@@ 43562
awa 43494
ity 43466
atisti@@ 43410
furt 43355
elek@@ 43353
altungs@@ 43343
Kie@@ 43342
trop@@ 43329
tron@@ 43309
inde 43273
Kno@@ 43258
zis@@ 43208
29@@ 43191
Trin@@ 43174
aul@@ 43159
Lake 43140
fak@@ 43112
26@@ 43094
CA@@ 43042
Log@@ 43026
Arts 43019
op 42974
xe 42965
Archit@@ 42944
po 42922
Jap@@ 42899
Ran@@ 42894
agon@@ 42894
Academy 42879
tab@@ 42869
Pin@@ 42854
anda 42827
Ful@@ 42819
grab@@ 42811
Af@@ 42795
Sav@@ 42745
ě@@ 42692
isation 42629
international 42564
1893 42549
Minister 42534
Raj@@ 42529
Jahrhunder@@ 42516
1,5 42504
ech 42500
agement 42459
hand 42428
J 42415
193@@ 42413
El 42413
rest@@ 42394
mont 42369
Bak@@ 42357
amt@@ 42357
Liz@@ 42348
Pos@@ 42323
zone 42258
plex 42224
ith@@ 42192
low@@ 42188
vers 42150
Tim@@ 42140
Ah@@ 42139
Kurt 42087
1850 42045
Mob@@ 42031
lande 42016
spez@@ 42006
ée 41807
Cro@@ 41761
³ 41721
sage 41715
lon 41709
1892 41694
Maur@@ 41692
aller@@ 41689
produ@@ 41677
fran@@ 41630
1880 41611
Johann@@ 41589
met 41578
Moh@@ 41535
radi@@ 41474
tik@@ 41461
ion@@ 41390
tors 41383
ender@@ 41378
arab@@ 41354
May@@ 41321
ali 41288
tiller@@ 41255
ian 41248
olo@@ 41233
Pad@@ 41212
Arm@@ 41149
Edu@@ 41141
up 41137
RA@@ 41135
Star 41128
ident@@ 41119
SA 41068
Benedi@@ 41043
Jan@@ 41030
ume@@ 41004
Steph@@ 40991
kan 40975
fund@@ 40973
ight 40964
Gor@@ 40920
sum@@ 40836
anna 40799
Hit@@ 40791
1885 40787
Dir@@ 40786
Blan@@ 40727
Nag@@ 40698
Eu@@ 40683
chan@@ 40647
Center 40629
Publi@@ 40627
ira 40627
Hau@@ 40619
Gil@@ 40586
Sus@@ 40583
ý 40580
Mey@@ 40578
1894 40527
mil@@ 40527
ting 40500
Kil@@ 40497
pot@@ 40495
go@@ 40469
odi@@ 40452
Mu@@ 40424
Group 40375
Metal 40364
1888 40347
Sho@@ 40285
Las@@ 40280
Bis@@ 40232
theor@@ 40226
Wa@@ 40218
ells 40162
1889 40101
yn 40099
befin@@ 40092
1874 40068
Alli@@ 40048
Institu@@ 40046
ury 39997
Science 39988
regul@@ 39985
zo 39980
ham 39979
Gun@@ 39958
enc@@ 39902
air@@ 39894
agn@@ 39888
tem@@ 39872
Back@@ 39854
cha 39844
Football 39841
ehem@@ 39816
H. 39806
deur 39789
portu@@ 39772
Thi@@ 39771
1891 39728
ren 39717
popul@@ 39709
zahl@@ 39659
â@@ 39659
pil@@ 39654
ju@@ 39643
orn 39642
D. 39600
Arthur 39584
organis@@ 39567
log@@ 39523
Julius 39512
Hav@@ 39510
eil 39488
pa 39472
ubil@@ 39434
iter@@ 39428
Jac@@ 39348
onstr@@ 39337
vierte 39320
ologi@@ 39319
ū@@ 39290
Liv@@ 39289
Show 39288
Argent@@ 39286
mak@@ 39283
ail 39278
emb@@ 39276
prot@@ 39274
Adel@@ 39271
å@@ 39253
án 39234
Ukraine 39220
Israel 39213
were 39178
ul 39169
Cy@@ 39129
oma 39088
bö@@ 39051
Simon 39046
CO@@ 38999
Smith 38991
entation 38975
liber@@ 38954
person@@ 38953
nö@@ 38939
Dres@@ 38918
sert 38914
dia 38879
agne 38871
1860 38837
Rab@@ 38837
sho@@ 38800
industrie 38737
erwäh@@ 38721
Bit@@ 38689
cho@@ 38629
Black 38598
Ig@@ 38582
Pul@@ 38578
ogen@@ 38568
1879 38551
ami@@ 38541
Ven@@ 38529
traf@@ 38524
Pel@@ 38509
stat@@ 38487
Pir@@ 38453
fabri@@ 38453
Augus@@ 38449
elektron@@ 38448
ila 38445
tech@@ 38444
yc@@ 38439
tour@@ 38432
bat@@ 38426
Dy@@ 38423
kilom@@ 38412
1866 38400
Orden 38393
fig@@ 38385
AC 38355
1500 38325
Rev@@ 38320
ji 38307
ny 38271
Feder@@ 38187
gü@@ 38149
Arab@@ 38134
Bass@@ 38110
Sebasti@@ 38099
Mun@@ 38090
Portugal 38068
fan 38062
Rak@@ 38051
entfer@@ 38050
üd@@ 38026
anger@@ 38024
ati 38016
Live 38010
ingen@@ 38009
erhin 37989
rup@@ 37966
Bay 37959
ics 37954
Vel@@ 37948
VI@@ 37937
Pod@@ 37930
jo@@ 37902
seg@@ 37893
ame@@ 37850
probl@@ 37779
Dur@@ 37764
tend@@ 37760
iga 37754
250 37698
1875 37677
Rand@@ 37649
altar 37646
Blo@@ 37637
rates 37623
Ih@@ 37613
stad@@ 37611
een 37610
Super 37596
FI@@ 37533
q 37490
Tol@@ 37485
ava 37465
Geschäf@@ 37428
wit@@ 37419
ede 37332
Plan 37302
Pet@@ 37290
ón 37284
Roman@@ 37191
auto@@ 37174
Ner@@ 37159
äude 37124
aug@@ 37087
way 37030
Nav@@ 37026
1887 37015
Party 37003
enso 37001
Gir@@ 36999
tom@@ 36986
1867 36982
phe 36962
OS 36953
ES@@ 36942
NH@@ 36934
Č@@ 36931
Schles@@ 36928
eta 36907
Rob@@ 36906
Operation 36887
Studio 36880
Bib@@ 36862
1886 36859
iz 36832
Dist@@ 36829
prim@@ 36799
illy 36792
by@@ 36755
kais@@ 36753
Internet 36735
atik 36695
dal@@ 36682
Cap@@ 36659
King 36622
uv@@ 36612
material 36603
müs@@ 36600
Rio 36534
120 36528
sand@@ 36509
27@@ 36404
W. 36404
osph@@ 36368
Sof@@ 36365
Francisco 36356
emer@@ 36344
enne 36324
Tat@@ 36315
Mang@@ 36292
dium 36248
1872 36226
dün@@ 36220
brach@@ 36199
Wolf 36175
VP 36149
Wolf@@ 36144
US@@ 36133
motor 36128
nden 36124
1884 36123
bien 36114
Alexand@@ 36034
Río 36030
Profes@@ 36019
1873 35991
teri@@ 35987
fli@@ 35978
Tanz@@ 35952
Roc@@ 35947
1868 35929
Cer@@ 35906
Edward 35883
Hi@@ 35879
figur@@ 35859
arina 35857
Corn@@ 35855
ensis 35845
hard@@ 35840
ographie 35819
Post 35797
José 35794
tam@@ 35774
isa 35741
Software 35734
ej@@ 35716
... 35700
Sou@@ 35670
ements 35626
aka 35621
zi 35549
Strat@@ 35546
aden@@ 35542
ants 35504
Antar@@ 35503
Chall@@ 35500
Kob@@ 35493
Quer@@ 35478
Nar@@ 35450
Adam 35429
illa 35408
1881 35385
DE@@ 35382
1882 35380
ble 35343
go 35341
Hun@@ 35325
Don 35318
Phys@@ 35295
2,5 35291
6.@@ 35264
States 35216
ito 35211
Herbert 35202
Greg@@ 35178
10.000 35122
rein@@ 35094
e.@@ 35074
tro 35020
Pu@@ 35016
IC@@ 35001
Mem@@ 34977
initi@@ 34969
cl@@ 34888
tha 34865
1883 34859
ott 34844
ends 34839
Asp@@ 34838
1878 34829
ado 34827
interes@@ 34825
Ky@@ 34820
wan 34812
Ka@@ 34792
alog 34792
imb@@ 34788
cus 34782
Route 34767
omb@@ 34730
Rod@@ 34711
folgen@@ 34661
out 34644
Soh@@ 34635
Street 34617
fir@@ 34602
Nik@@ 34582
Hus@@ 34574
nd 34546
rum@@ 34542
moderne 34519
Dau@@ 34518
ago@@ 34509
sson 34482
avier 34470
1876 34461
Pow@@ 34461
famili@@ 34443
Ferr@@ 34434
Ta@@ 34408
Neur@@ 34392
1861 34391
restaur@@ 34375
eth 34332
alp@@ 34317
Video 34280
örd@@ 34243
ellschaft 34215
igh@@ 34190
view 34187
tir@@ 34182
firma 34161
adel@@ 34158
s. 34145
com@@ 34132
Chron@@ 34124
ition 34124
well 34109
Pon@@ 34101
aven 34098
put@@ 34098
Rah@@ 34082
vention 34075
via 34071
Venedi@@ 34034
pet@@ 34029
Air@@ 33928
ão 33928
mel 33925
kab@@ 33923
mos@@ 33898
Viol@@ 33888
pom@@ 33878
let 33869
Margar@@ 33859
hi 33851
dik@@ 33845
Mül@@ 33840
1869 33801
Hem@@ 33764
SP@@ 33757
Vit@@ 33726
Gul@@ 33725
DR 33723
France 33709
aga 33707
Afr@@ 33697
Fort 33693
E. 33657
Arg@@ 33637
1864 33636
vel@@ 33631
erry 33616
Red 33614
bad 33507
Afrika 33488
kin 33476
Mary 33461
idae 33441
mati@@ 33433
1865 33395
las@@ 33395
Loc@@ 33380
pers 33339
Miss@@ 33334
700 33323
Ö 33322
oper 33321
Dev@@ 33313
äufig 33292
shire 33287
lip@@ 33265
tivi@@ 33218
old@@ 33194
Chin@@ 33179
1815 33175
revol@@ 33172
tener 33154
1862 33153
ots 33150
Div@@ 33129
1877 33116
Zo@@ 33094
text 33087
ws 33048
Prix 33037
1849 33031
Design 33020
print 33016
Mom@@ 33010
uy@@ 32997
Nat@@ 32993
Texas 32986
flan@@ 32959
western 32938
Antonio 32911
Cot@@ 32879
Amsterdam 32841
phys@@ 32754
ici@@ 32725
ames 32704
DF 32684
jen@@ 32679
sequ@@ 32655
ère 32640
Yor@@ 32623
strateg@@ 32616
Agr@@ 32576
pul@@ 32562
5.000 32561
G. 32545
kad@@ 32520
ear@@ 32519
umin@@ 32519
harmon@@ 32474
Fut@@ 32434
aki 32432
uni@@ 32417
Lee 32351
Ele@@ 32341
don 32339
gün@@ 32317
ín 32269
Komit@@ 32263
Luxemb@@ 32253
isses 32251
autor 32233
Stockh@@ 32231
Thr@@ 32228
Fres@@ 32216
Rud@@ 32183
ota 32155
Standard 32117
− 32103
da@@ 32098
Management 32066
rain@@ 32064
col@@ 32033
ulation 32008
Ari@@ 31987
archit@@ 31984
eur 31984
Cat@@ 31981
App@@ 31953
Staff@@ 31953
metr@@ 31952
nec@@ 31929
mol@@ 31923
Lou@@ 31919
Hugo 31902
agr@@ 31899
su 31888
Sec@@ 31886
ores 31879
Rou@@ 31865
Lon@@ 31849
version 31828
able 31815
itu@@ 31815
open@@ 31800
ision 31760
extr@@ 31754
gas@@ 31709
onne 31679
Buc@@ 31652
Tom 31638
Pro 31604
IV 31593
Hill 31590
bir@@ 31576
esses 31545
operation 31513
Nich@@ 31506
Kh@@ 31505
hom@@ 31505
Mission 31503
dex 31476
kale 31472
Da@@ 31461
bün@@ 31456
ations 31437
AS 31415
e. 31410
Orch@@ 31397
tus 31390
ves 31380
Revol@@ 31373
orr@@ 31357
mf@@ 31356
BM@@ 31351
enter 31338
wa@@ 31333
fa@@ 31319
Oscar 31315
individu@@ 31282
lor@@ 31269
ine@@ 31264
Clu@@ 31258
eton 31249
ement@@ 31243
other@@ 31194
Al 31192
yth@@ 31186
mo 31184
Pseud@@ 31177
over 31177
8.@@ 31159
1863 31124
Nic@@ 31113
mw@@ 31090
iment 31083
osa 31070
Best 31052
eum 31030
Spir@@ 31019
Master 31006
Front 31002
Din@@ 30997
anger 30995
Az@@ 30990
funden 30980
dam@@ 30979
UN@@ 30972
Tax@@ 30957
ymnasi@@ 30957
1800 30955
F. 30951
7.@@ 30932
Dun@@ 30919
Kilom@@ 30913
öd@@ 30893
R. 30884
elem@@ 30884
semble 30878
Major 30868
ous 30853
Awards 30851
Van 30843
Ret@@ 30823
reste 30755
Gör@@ 30719
Aster@@ 30711
front 30711
materi@@ 30674
Obl@@ 30670
Wirt@@ 30665
ish 30655
bras@@ 30652
zel@@ 30643
kio 30611
ph 30546
aya 30541
lam 30541
Pic@@ 30519
Orig@@ 30507
Rock@@ 30487
ER@@ 30484
spir@@ 30465
1856 30424
haber 30421
ska 30409
Co 30404
IN@@ 30398
Force 30393
Gros@@ 30361
ń@@ 30358
Bou@@ 30342
August@@ 30297
aceae 30295
gres@@ 30238
Was@@ 30176
Stor@@ 30162
professi@@ 30158
Pyr@@ 30156
nde 30150
aster 30143
Boston 30129
qui@@ 30123
ban 30109
Meg@@ 30108
sal 30099
tend 30099
Mart@@ 30096
bin 30064
ilian 30034
big 30021
ning 30014
gesti@@ 29994
ays 29987
ution@@ 29986
Bow@@ 29957
mil 29926
atori@@ 29899
sky 29866
CS@@ 29849
fo@@ 29843
usion 29842
instrum@@ 29836
Sich@@ 29793
olm 29790
aissance 29781
itation 29736
chi 29728
our@@ 29721
Olymp@@ 29713
Register 29709
vo@@ 29698
Play 29697
Run@@ 29692
1840 29683
rom 29663
NGC 29653
region 29651
test@@ 29640
Lem@@ 29610
Gatt@@ 29608
west 29600
Sm@@ 29595
yl 29586
ament 29585
Anth@@ 29551
Bra@@ 29539
sur@@ 29532
preu@@ 29530
jug@@ 29524
seits 29508
Les 29507
Napole@@ 29502
Fro@@ 29490
Service 29473
ley@@ 29467
Hitler 29465
eri 29461
alis 29460
Cel@@ 29440
anus 29430
Fun@@ 29408
Barbara 29378
syn@@ 29375
woll@@ 29373
Nachfol@@ 29342
beit 29324
orden 29323
Singles 29294
Barcelona 29278
1859 29277
SA@@ 29238
unc@@ 29236
Pand@@ 29231
Big 29214
ci 29187
Amerika 29152
Williams 29125
Jones 29121
Kav@@ 29098
oli@@ 29040
Leip@@ 29016
private 29016
list@@ 28995
offs 28993
You 28988
1806 28986
AT@@ 28890
polis 28870
ilde 28868
200@@ 28862
eus 28859
Jack 28822
elor 28815
Aur@@ 28812
aria 28781
Budap@@ 28764
Jug@@ 28733
wood 28725
Columbia 28715
Mid@@ 28712
ades 28712
By@@ 28710
Tam@@ 28673
wig 28669
ides 28654
Hay@@ 28651
Atlan@@ 28648
uld 28635
ham@@ 28622
tier 28612
Cu@@ 28608
East 28595
tels 28594
lie 28575
üne 28570
TA 28550
fot@@ 28550
ond 28533
Mount 28519
ri 28511
Madrid 28509
Corps 28487
alar@@ 28476
industri@@ 28433
ów 28428
Alber@@ 28409
Var@@ 28384
ny@@ 28360
vent@@ 28359
ault 28338
FA 28323
gio 28314
IC 28304
mond 28284
yg@@ 28271
aph@@ 28261
under 28226
Comm@@ 28225
Fall@@ 28205
gens 28182
Fur@@ 28153
Stan@@ 28151
Cir@@ 28134
burgh 28132
Inf@@ 28099
bol@@ 28097
Flam@@ 28090
ret 28087
Dou@@ 28073
nati@@ 28066
Jar@@ 28064
Joe 28049
team 28044
professor 28030
ú@@ 27999
Brown 27982
sons 27953
Juan 27932
Vic@@ 27926
Inst@@ 27908
bol 27901
1855 27888
Clar@@ 27886
ort@@ 27880
1857 27866
eppe 27863
Feli@@ 27857
1854 27827
parti@@ 27823
ston 27823
rik 27799
ania 27795
1830 27789
cr@@ 27783
5.@@ 27774
olo 27751
Oc@@ 27746
IT@@ 27729
differ@@ 27727
Eug@@ 27717
isra@@ 27703
P. 27686
troph@@ 27681
statisti@@ 27647
Series 27634
anth@@ 27623
Sl@@ 27616
Dig@@ 27590
Virginia 27588
ax 27549
öne 27543
HC 27539
ī@@ 27535
inus 27481
Research 27461
Sir 27460
Pek@@ 27430
rey 27414
3000 27413
iy@@ 27398
European 27377
MS 27375
Navy 27375
1858 27368
king 27365
Ox@@ 27362
biet 27342
mee 27298
1852 27278
Harry 27278
ingu@@ 27274
.C. 27273
Jose@@ 27265
bron@@ 27265
Vas@@ 27238
1803 27232
Armen@@ 27211
ori 27211
sul@@ 27204
Oli@@ 27198
Fa@@ 27183
etc. 27183
Lord 27162
ometr@@ 27156
Kön@@ 27154
sang 27138
Love 27130
François 27126
my 27120
ope 27042
g. 27015
symbol@@ 26999
onia 26993
ram@@ 26962
Roll@@ 26961
uvor 26959
iki 26938
50@@ 26936
tions 26936
real 26933
eich@@ 26928
è@@ 26927
Florida 26926
ave 26910
ova 26906
Pav@@ 26899
Barr@@ 26868
ë@@ 26864
Carolina 26863
aham 26843
Nas@@ 26839
Earl 26836
One 26828
amerikan@@ 26783
ago 26762
Championship 26759
bury 26749
Rhy@@ 26742
Dim@@ 26736
DVD 26703
fin 26699
endel@@ 26686
ä 26669
White 26658
Pit@@ 26646
Max@@ 26618
aining 26611
aku@@ 26607
par 26606
ize 26575
Hur@@ 26552
ux 26546
owa 26518
Samuel 26513
ution 26500
eu 26495
Elec@@ 26485
Western 26459
Fab@@ 26435
1845 26427
Philipp@@ 26425
aw 26417
def@@ 26415
agi@@ 26369
Jacques 26360
yd@@ 26352
Ten@@ 26343
alia 26340
Wales 26328
1818 26325
kins 26303
Shi@@ 26294
Jam@@ 26267
Pun@@ 26258
atin 26258
ones 26234
gers 26217
endi@@ 26195
Cle@@ 26188
ré@@ 26186
gri@@ 26162
Scott 26150
Anne 26126
dist@@ 26121
Galax@@ 26120
AD@@ 26118
Meth@@ 26115
Ken@@ 26113
autor@@ 26108
Dal@@ 26104
philosoph@@ 26070
1851 26069
Grim@@ 26038
tex@@ 26036
unds 26031
ʿ@@ 26010
tain@@ 25997
anga 25988
Nu@@ 25957
institu@@ 25954
ă@@ 25953
Alex@@ 25947
iro 25940
kers 25935
Jacob 25913
arren 25912
pur@@ 25884
ms@@ 25883
Massachusetts 25880
rang@@ 25878
auspi@@ 25869
lins 25850
bers 25836
AC@@ 25804
kerung 25791
eral 25779
pap@@ 25778
uo 25777
1813 25773
Rub@@ 25772
Port@@ 25771
dat@@ 25762
imar@@ 25759
fru@@ 25745
Giovanni 25742
1847 25709
Comput@@ 25693
por 25684
Festiv@@ 25681
Ci@@ 25677
pri@@ 25669
Extr@@ 25665
major 25665
sü@@ 25659
Central 25641
historiques 25637
AM@@ 25635
Pennsylvania 25632
pak@@ 25632
Castle 25631
bo 25624
sign@@ 25606
L. 25589
Christi@@ 25580
Army 25570
1816 25519
modern@@ 25511
lav 25496
graph@@ 25468
1846 25464
Beau@@ 25447
ops 25439
ès 25406
1853 25400
Bill 25389
äche 25378
zar@@ 25372
ring 25345
now@@ 25341
Pak@@ 25305
110 25297
Cos@@ 25292
Whit@@ 25286
sis 25271
etti 25265
T. 25240
EP 25239
Cast@@ 25235
Gh@@ 25194
Y 25159
nov@@ 25135
Ry@@ 25114
rah@@ 25110
sun@@ 25088
annes 25082
Leo 25081
æ@@ 25063
ę@@ 25057
Bag@@ 25040
sau@@ 25023
lan 25022
St 25008
Termin@@ 24999
Om@@ 24986
pag@@ 24975
Hop@@ 24956
ush@@ 24956
osp@@ 24947
Cou@@ 24931
ec 24930
Commun@@ 24903
š 24898
ares 24893
lia 24864
10,@@ 24863
São 24857
Portu@@ 24853
High@@ 24852
usalem 24836
abor@@ 24817
Johnson 24812
gan@@ 24806
AN@@ 24801
Victoria 24766
omen 24741
sin 24729
Bour@@ 24711
Bruno 24710
DS 24700
kup@@ 24696
oty@@ 24680
André 24660
urn@@ 24641
ners 24627
phil@@ 24618
Clau@@ 24609
cer@@ 24601
Sher@@ 24597
etta 24571
Chir@@ 24564
Maz@@ 24554
Charlotte 24530
diver@@ 24528
partem@@ 24511
anci@@ 24507
stanbul 24506
Maj@@ 24487
gn@@ 24484
Song@@ 24474
ș@@ 24465
wag@@ 24436
Patri@@ 24427
Mill@@ 24426
ament@@ 24418
parlam@@ 24415
Dé@@ 24411
Ford 24401
atom@@ 24343
Cour@@ 24339
1814 24338
Kit@@ 24331
Young 24310
She@@ 24291
Highway 24290
video 24283
ensus 24282
basis 24270
Line 24249
mex@@ 24221
mang@@ 24217
Py@@ 24215
prob@@ 24204
ockey 24195
Bob@@ 24188
Ž@@ 24187
Emer@@ 24172
Bret@@ 24163
Rog@@ 24158
interpre@@ 24147
sym@@ 24111
ash 24091
ladi@@ 24091
folg 24080
Mike 24075
experim@@ 24069
aud 24064
time 24051
Lis@@ 24050
ruh@@ 24050
Moun@@ 24042
quelle 24034
ū 24015
chron@@ 23990
thin 23974
9.@@ 23960
Ohio 23955
inv@@ 23952
mente 23951
tien 23935
cre@@ 23934
Davis 23913
Gab@@ 23906
Kür@@ 23902
post@@ 23899
180 23898
Bapti@@ 23878
eget@@ 23865
RE@@ 23858
sar 23818
ortho@@ 23810
Champ@@ 23784
Kot@@ 23777
Pur@@ 23777
Michel 23772
Hat@@ 23770
math@@ 23764
ingham 23749
diplom@@ 23728
hav@@ 23697
aro 23694
ido 23692
Green 23673
ander 23654
inas 23642
Top@@ 23630
opo@@ 23620
provin@@ 23617
én@@ 23602
1843 23588
Cent@@ 23583
Eli@@ 23579
Haw@@ 23573
Games 23571
3,5 23567
First 23544
1844 23536
systems 23529
ativ@@ 23528
etti@@ 23525
Andre@@ 23524
ula 23509
Pop 23505
ces 23499
Code 23481
obi@@ 23454
tot@@ 23453
Chile 23442
Chap@@ 23419
edo 23406
sah@@ 23396
Dow@@ 23387
bat 23385
Fac@@ 23384
Studios 23381
SK 23379
$ 23377
rien 23365
Bezeich@@ 23348
ó 23338
1832 23337
1835 23309
Thor@@ 23295
din@@ 23275
Hey@@ 23263
kov@@ 23263
1842 23253
Coun@@ 23240
Champions 23233
omo 23223
Blue 23195
Council 23195
Dep@@ 23184
Jesus 23177
resp@@ 23171
oa 23148
Ax@@ 23146
Francis 23135
ests 23070
Life 23039
Victor 23030
ères 23020
vil@@ 23012
és 22994
jo 22959
eke 22958
Aqu@@ 22947
oid 22938
uba 22914
asi 22913
mi 22912
# 22907
aire 22896
zant@@ 22885
esa 22873
0.@@ 22865
1837 22861
dis 22860
ref 22821
Committee 22801
sey 22794
Carlos 22791
ept@@ 22768
Tai@@ 22766
blo@@ 22741
Henri 22727
12,@@ 22726
” 22718
Roger 22712
Fon@@ 22698
Bob 22697
40@@ 22675
sim@@ 22674
ense 22653
Mr@@ 22639
5000 22637
isol@@ 22621
inspir@@ 22616
lü@@ 22613
Ali@@ 22596
ista 22585
Stal@@ 22582
tru@@ 22570
Kus@@ 22561
gelö@@ 22558
ual 22538
California 22537
Oxford 22525
Ple@@ 22513
Lav@@ 22487
Bev@@ 22485
any 22481
ids 22478
Hug@@ 22475
Patrick 22470
Illinois 22464
1810 22432
Ben 22426
tos 22422
Toronto 22417
ep 22413
bili@@ 22409
temper@@ 22409
eds 22399
RT@@ 22386
Akadem@@ 22384
ST@@ 22368
ardo 22363
ate@@ 22363
imen 22360
brand 22339
1838 22334
1841 22326
900 22317
thr@@ 22308
Boul@@ 22291
ails 22291
tun@@ 22291
Rose 22287
ili 22277
Iran 22262
Centre 22245
Sydney 22245
Wh@@ 22244
ár@@ 22241
grub@@ 22207
1839 22203
Glo@@ 22203
Anim@@ 22195
lied 22190
Amp@@ 22185
ymnasium 22172
ex 22153
protest@@ 22151
Zar@@ 22148
Neg@@ 22146
pper 22141
quot@@ 22137
Riv@@ 22133
Kaf@@ 22114
these 22105
Q 22102
Town 22098
Road 22084
Arena 22073
Fron@@ 22066
Van@@ 22050
ho 22048
Eri@@ 22046
Point 22046
Rep@@ 22044
fusi@@ 22031
phon@@ 22019
oli 22018
AB@@ 21994
Charl@@ 21991
Spä@@ 21989
Corporation 21979
behin@@ 21969
obj@@ 21969
1808 21968
UEFA 21964
eto 21960
Conn@@ 21943
124@@ 21942
aine 21933
1836 21908
patr@@ 21907
AP@@ 21903
irat@@ 21892
aker 21891
160 21863
Sun@@ 21848
ji@@ 21845
vir@@ 21839
Key@@ 21836
1834 21827
Rest@@ 21788
Philadelphia 21785
lit 21777
Chris 21764
K. 21752
rain 21747
USD 21744
1821 21725
Well@@ 21719
avi@@ 21717
uk 21705
iller@@ 21694
orn@@ 21692
ado@@ 21684
1820 21675
ains 21667
Adri@@ 21654
Taylor 21654
ön 21644
bi 21642
Me 21632
journ@@ 21626
Wilson 21625
mah@@ 21614
din 21598
SO@@ 21590
respon@@ 21588
astronom@@ 21586
Port 21585
archi@@ 21579
Church 21557
aqu@@ 21541
alan@@ 21539
eles 21509
yan@@ 21497
air 21487
reser@@ 21485
azar@@ 21472
uri 21467
Steve 21450
PC 21436
Griff@@ 21429
My 21427
Hollywood 21420
Donald 21418
gö@@ 21381
ous@@ 21372
ive 21357
cio 21342
Jackson 21324
Orchestra 21324
Hyp@@ 21305
IS 21296
cul@@ 21290
int 21283
Palm@@ 21281
magaz@@ 21230
Carol@@ 21227
Times 21216
Audi@@ 21213
saison 21212
Lac@@ 21200
eman 21195
CH@@ 21194
Ay@@ 21179
ario 21176
ae@@ 21145
nas@@ 21130
schri@@ 21112
Lom@@ 21111
130 21110
ATP 21107
quit@@ 21092
COVID 21087
unger 21082
dav@@ 21077
Ped@@ 21061
xi@@ 21061
Had@@ 21052
rap@@ 21050
alternati@@ 21045
Chil@@ 21042
ando 21024
hem 21018
ami 21013
Windows 21002
Sciences 20977
Cin@@ 20972
BA 20964
can@@ 20958
1831 20944
Ric@@ 20930
oo 20916
Meh@@ 20913
enl@@ 20909
hep@@ 20904
Ga@@ 20902
cir@@ 20892
vin 20891
1828 20880
if 20855
resul@@ 20853
vit@@ 20852
NO@@ 20851
11,@@ 20844
bon@@ 20833
Lewis 20826
oria 20825
ilit@@ 20819
antes 20812
has@@ 20800
imp@@ 20800
Cambridge 20799
agu@@ 20790
tari@@ 20782
IM@@ 20779
AL@@ 20774
kil@@ 20767
Media 20754
Sax@@ 20742
deg@@ 20740
Rho@@ 20724
ßen@@ 20718
hai 20703
hau@@ 20701
k. 20697
1812 20694
Rav@@ 20669
Jersey 20666
Cop@@ 20649
pat@@ 20627
Osman@@ 20626
worth 20626
oi 20625
imi@@ 20619
1200 20614
,@@ 20594
Oliver 20591
wall 20579
native 20576
vey 20570
aci@@ 20560
universit@@ 20547
Gam@@ 20538
frequ@@ 20529
row 20526
Douglas 20521
DC 20481
Women 20475
istan 20474
pend@@ 20470
1817 20469
Benjamin 20469
140 20468
tori@@ 20451
Ever@@ 20449
Tony 20442
chil@@ 20439
Kult@@ 20429
enor@@ 20420
ators 20418
cal@@ 20405
Montre@@ 20400
Soc@@ 20393
Vie@@ 20388
Ses@@ 20381
entes 20379
Nicol@@ 20369
Hung@@ 20360
Cla@@ 20353
cho 20353
Anton@@ 20352
streng@@ 20343
ouver@@ 20336
Wy@@ 20333
DJ 20332
1833 20324
illon 20324
Cros@@ 20312
feder@@ 20294
illi 20288
exp@@ 20286
Naz@@ 20280
Konstant@@ 20247
iner@@ 20240
alition 20222
Let@@ 20219
Ash@@ 20209
Stars 20194
sour@@ 20161
any@@ 20138
aud@@ 20110
ttem@@ 20108
Sib@@ 20097
Apol@@ 20094
dram@@ 20089
vas@@ 20081
Tod@@ 20063
Tow@@ 20063
ð@@ 20056
orum 20055
oks 20043
Aer@@ 20039
ü 20027
oms 20023
aco 20019
1825 19997
opa 19993
islat@@ 19980
git@@ 19975
spor@@ 19974
Ass@@ 19972
Journal 19962
AN 19958
manuel 19955
phy 19932
assist@@ 19922
Univers@@ 19920
Islam@@ 19902
CI@@ 19895
Nob@@ 19893
bad@@ 19887
AI@@ 19861
Real 19852
ogo 19849
13,@@ 19846
half 19841
án@@ 19839
Franc@@ 19830
ī 19828
DV@@ 19818
fan@@ 19814
Shar@@ 19810
now 19809
ray 19787
Frances@@ 19786
Dame 19750
yle 19746
try 19734
neur@@ 19717
aster@@ 19715
hum@@ 19711
cel@@ 19708
Luci@@ 19703
lier 19696
atten@@ 19688
orph@@ 19686
Avi@@ 19678
Val 19670
Jon@@ 19646
1809 19645
gene 19640
UC@@ 19627
oe 19608
11@@ 19595
Comp@@ 19595
origin@@ 19594
esc@@ 19591
Ji@@ 19588
Benn@@ 19565
Harr@@ 19559
0,5 19541
Gren@@ 19539
esia 19505
vo 19456
Sup@@ 19452
inform@@ 19451
Hydro@@ 19445
han 19441
perf@@ 19432
Hass@@ 19428
1807 19424
bom@@ 19386
350 19374
ą@@ 19360
mine 19344
tics 19339
1824 19337
argent@@ 19334
Bedeut@@ 19333
my@@ 19332
uma 19330
udi@@ 19321
fa 19318
oul 19316
Mario 19314
RT 19307
Hz 19298
ough 19290
Andrew 19288
Valley 19287
jan 19264
quartier 19237
1826 19232
onte 19228
1798 19219
Boy@@ 19217
Gur@@ 19183
var@@ 19181
physi@@ 19180
Andr@@ 19170
aches 19153
prom@@ 19147
heu@@ 19142
LE@@ 19139
Thom@@ 19139
Marc 19123
1829 19111
rat@@ 19110
nus 19098
Fantas@@ 19097
ias 19058
ome@@ 19057
NAT@@ 19050
1822 19045
Isab@@ 19037
Jos@@ 19032
Hak@@ 19031
relev@@ 19011
VA 19005
Gabriel 18993
Sep@@ 18990
phy@@ 18986
ink 18981
Bell@@ 18950
Cra@@ 18949
blin 18947
hil 18942
kis@@ 18935
gi 18899
pedi@@ 18892
Hamilton 18891
MA 18886
bloc@@ 18882
Cab@@ 18881
ega 18873
AB 18868
Bac@@ 18848
pin@@ 18846
America 18835
ites 18822
neutr@@ 18817
Manuel 18816
Cul@@ 18805
ped@@ 18805
aison 18801
CA 18800
festival 18797
ensive 18789
Express 18779
cin@@ 18777
na@@ 18767
S.@@ 18766
Great 18762
Wood@@ 18735
dé@@ 18722
Def@@ 18712
Tw@@ 18703
vin@@ 18696
IT 18693
1802 18692
ills 18683
osaur@@ 18682
ye@@ 18668
1819 18665
cia 18661
Golden 18652
1811 18644
→ 18634
rate 18626
igu@@ 18577
gas 18570
lara 18570
Monte@@ 18559
ords 18548
Act 18542
A.@@ 18531
€ 18519
Ek@@ 18518
rig@@ 18504
own 18502
Sound 18499
120@@ 18497
line@@ 18486
pot 18486
event@@ 18478
Nec@@ 18468
Railway 18458
elo 18446
oth 18443
management 18442
Shak@@ 18420
Carlo 18418
ede@@ 18412
sul 18408
Claude 18398
Ali 18383
125 18366
sak@@ 18366
site 18343
ris 18341
vent 18336
tre 18332
Contin@@ 18327
essor 18324
Out@@ 18318
ö 18311
Beach 18303
omer@@ 18302
gros@@ 18282
RS 18266
Rail@@ 18263
Premier 18255
forman@@ 18251
Ale@@ 18238
may@@ 18226
1827 18223
Saf@@ 18219
dan 18217
seig@@ 18208
Waf@@ 18204
porter 18201
UNESCO 18200
Time 18196
Nad@@ 18186
1801 18169
cy 18161
rea 18147
kend@@ 18143
dynam@@ 18124
Monte 18119
DNA 18114
Ny@@ 18106
itor 18105
1805 18100
division 18096
Prince 18076
som@@ 18071
NE@@ 18070
TE@@ 18067
bie 18054
Cham@@ 18053
Elizabeth 18053
alie 18035
etto 18035
1804 18015
club 18015
Eric 18013
NBA 18010
nes@@ 17995
Historic 17990
Sid@@ 17988
Day 17983
Black@@ 17980
tek@@ 17970
dom@@ 17938
Creek 17925
get 17924
Little 17922
ör 17919
1793 17918
Harvard 17916
Pier@@ 17910
Bin@@ 17900
ric@@ 17898
ś@@ 17897
Rober@@ 17889
anal@@ 17876
Tap@@ 17874
rol 17858
gan 17843
Lyon 17815
Rosa 17809
ony 17806
It 17775
tia 17751
MI@@ 17750
Sud@@ 17750
1,2 17749
rak@@ 17746
vat@@ 17743
uta 17742
LP 17737
court 17732
renom@@ 17731
Brit@@ 17722
not 17717
Alg@@ 17710
Manchester 17710
diglich 17710
Nev@@ 17694
Willi@@ 17694
dot@@ 17694
It@@ 17691
194@@ 17665
ône 17649
hydr@@ 17646
ube 17646
utt@@ 17640
dri@@ 17629
Mé@@ 17620
promin@@ 17617
Cav@@ 17614
law 17614
kub@@ 17612
Georges 17611
Michigan 17585
eser@@ 17584
Janeiro 17583
Mam@@ 17582
PC@@ 17580
tica 17578
Foundation 17571
ols 17568
arius 17563
lus 17562
attr@@ 17552
Andrea 17546
icus 17537
Personal 17529
duk@@ 17529
ever 17522
adem@@ 17516
eno 17500
alo 17499
ever@@ 17495
Tou@@ 17494
espe@@ 17494
lum 17485
osh@@ 17456
1823 17454
Vin@@ 17445
1600 17444
Norman@@ 17434
jan@@ 17416
pio 17408
BBC 17402
Miller 17399
adi 17382
Isra@@ 17374
plant@@ 17362
dit 17356
ated 17352
mem@@ 17347
Wis@@ 17342
14,@@ 17335
positive 17323
Gan@@ 17320
Peti@@ 17317
Dop@@ 17316
energ@@ 17315
amo 17307
Law@@ 17300
ç@@ 17288
Zür@@ 17281
trich@@ 17276
Model 17268
cap@@ 17264
Township 17258
Alex 17250
ular 17245
Hospital 17235
60@@ 17230
ñ@@ 17217
ps@@ 17205
Europe 17195
Anthony 17192
ways 17186
Country 17180
Costa 17178
Kum@@ 17174
Business 17172
Nacional 17163
non 17159
arte 17139
Bernard 17135
brig@@ 17117
10.@@ 17112
Syl@@ 17110
büt@@ 17103
ights 17098
Allen 17095
ostr@@ 17091
Racing 17087
Lady 17071
ron 17060
human@@ 17049
ique 17045
Over@@ 17036
ology 17034
Kim 17027
loyd 17022
test 17016
District 16992
XV@@ 16992
eli 16992
bon 16991
efs 16984
PS@@ 16983
And@@ 16981
Gard@@ 16981
Od@@ 16972
War 16967
ini@@ 16965
semb@@ 16962
1700 16955
Hut@@ 16948
onna 16942
Minnesota 16936
Stephen 16934
Arist@@ 16931
uelle 16930
Jim 16927
Tari@@ 16895
Luis 16881
lard 16847
Suc@@ 16839
Hamp@@ 16838
ness 16829
wich 16816
Bridge 16813
BC 16807
inos 16788
ku 16784
cur@@ 16781
ior 16780
ehir@@ 16773
br 16769
omp@@ 16768
refer@@ 16767
sc@@ 16763
prop@@ 16761
orb@@ 16758
Louise 16756
23@@ 16722
Aires 16715
tas@@ 16715
bek 16709
iti 16703
Ja@@ 16696
Squ@@ 16677
sula 16673
ovo 16663
God@@ 16660
Power 16658
vul@@ 16649
Green@@ 16648
Bish@@ 16645
Munici@@ 16644
Grande 16642
ues 16641
set 16639
meng@@ 16626
more 16625
asa 16623
Emil@@ 16609
Long 16603
cel 16584
Free 16577
RO@@ 16571
Buenos 16562
Bang@@ 16559
ce@@ 16548
key 16546
Sac@@ 16538
pok@@ 16533
act@@ 16510
DA 16506
modi@@ 16481
Airport 16469
apar@@ 16464
aven@@ 16464
Yam@@ 16453
Pedro 16451
bor 16435
Tig@@ 16430
idge 16424
hou 16423
male 16423
ME@@ 16415
pler 16411
Lak@@ 16408
esi 16389
1794 16383
regional 16383
ý@@ 16369
Long@@ 16361
Sam 16347
pos 16338
igi 16336
ois 16336
Queen 16308
sec@@ 16307
hur@@ 16303
ud 16298
4,5 16297
verheirat@@ 16294
atis@@ 16289
dir@@ 16288
Ré@@ 16271
IO@@ 16269
ebo@@ 16262
atra 16252
chef 16251
č 16244
quar@@ 16241
with 16237
dol@@ 16234
etts 16232
Ast@@ 16226
Alice 16223
intel@@ 16217
codice 16190
programm@@ 16180
apo 16169
Tul@@ 16166
Stutt@@ 16161
outh 16161
Theatre 16160
FF 16158
Kari@@ 16156
signi@@ 16152
vik@@ 16147
René 16142
80@@ 16133
Ukr@@ 16129
NFL 16108
Howard 16092
Paulo 16072
CE@@ 16070
show 16068
poly@@ 16064
separ@@ 16047
1790 16007
kent@@ 16007
Nak@@ 16003
onyme 15994
igner 15986
emper@@ 15984
eph@@ 15974
road 15972
acc@@ 15965
k.@@ 15953
Game 15935
Prov@@ 15924
Brian 15913
Ray 15912
amente 15907
Lap@@ 15898
1792 15894
track 15886
gor@@ 15873
stütz@@ 15853
edy 15852
bos@@ 15838
Mercedes 15817
Cad@@ 15794
Beat@@ 15790
thiop@@ 15778
1.000 15771
rid 15765
tains 15765
AF 15747
Dic@@ 15747
ante@@ 15742
tom 15725
Sag@@ 15719
Stadium 15718
Peru 15704
aat 15702
ude 15700
onds 15682
Kem@@ 15667
Georgia 15648
illi@@ 15644
ally 15643
Loire 15639
170 15638
1789 15632
Indon@@ 15606
1797 15604
Ross 15604
Amaz@@ 15592
unt 15585
lav@@ 15575
ads 15573
bra@@ 15573
Mov@@ 15566
North@@ 15564
DE 15555
gru@@ 15549
MP@@ 15546
ka@@ 15543
aha 15533
oux 15526
Sports 15524
pole 15524
2.000 15517
CN 15497
dos 15497
lab@@ 15494
iler@@ 15477
Cath@@ 15476
Vall@@ 15472
Gordon 15454
ô@@ 15454
Coll@@ 15445
Jack@@ 15443
ographi@@ 15443
mobil@@ 15440
Brook@@ 15437
\ 15429
Junior 15421
lieder 15420
Stanley 15416
Alan 15405
SD 15405
tional 15395
Raf@@ 15383
plas@@ 15383
age@@ 15365
Mong@@ 15356
shu@@ 15349
Australian 15344
enta 15344
horiz@@ 15344
Cass@@ 15332
atu@@ 15331
poem 15330
müc@@ 15327
mik@@ 15322
zun@@ 15319
Cru@@ 15311
Las 15310
ival@@ 15304
No 15302
Fame 15297
blu@@ 15297
gin 15283
Santiago 15270
idi 15259
nam 15250
fos@@ 15221
illo 15218
Ontario 15213
Rach@@ 15208
programme 15189
RA 15174
IP 15169
179@@ 15162
lieb 15159
Administr@@ 15155
Tim 15151
lio 15143
elen@@ 15122
119@@ 15117
eira 15113
Austria 15110
ket 15108
til 15099
acks 15098
Tib@@ 15092
aro@@ 15091
PA 15090
Sarah 15089
Diego 15088
ento 15071
eff 15061
ouvern@@ 15058
cas@@ 15054
Philip 15051
imi 15048
mas 15046
Marco 15035
Maurice 15032
itas 15030
Bug@@ 15026
amo@@ 15026
ery 15023
enko 15013
Christopher 15011
Entertainment 15004
allas 15004
Isa@@ 15003
core 14999
Lug@@ 14997
Colorado 14987
Cha@@ 14986
rif@@ 14976
ía 14971
Independ@@ 14952
Jul@@ 14951
ward 14951
tü@@ 14948
afé 14933
aborat@@ 14931
marine 14931
Old 14924
bud@@ 14918
16,@@ 14913
Missouri 14912
fres@@ 14912
back 14908
Diam@@ 14907
Hind@@ 14891
Sah@@ 14877
aba 14863
ection 14853
Sun 14846
box@@ 14842
él@@ 14839
cal 14838
XX@@ 14830
Technology 14827
motor@@ 14818
kes@@ 14817
Pep@@ 14798
Hul@@ 14780
ological 14779
7,5 14778
toire 14761
RI@@ 14758
Lov@@ 14757
Duke 14745
ennes 14745
105 14732
mül@@ 14730
Ç@@ 14726
Fred 14720
ods 14719
EC 14715
Public 14711
Night 14706
Sir@@ 14704
Mr. 14690
Adams 14688
ór@@ 14686
Tos@@ 14683
aman@@ 14672
cup@@ 14672
enni@@ 14669
dirig@@ 14665
Vincent 14658
anny 14658
rop@@ 14649
esta 14648
UK 14644
Johnny 14639
Space 14633
ović 14629
post 14627
Death 14620
Ł@@ 14608
15,@@ 14606
Dum@@ 14596
igr@@ 14572
kov 14562
U.S. 14561
Freder@@ 14560
Airlines 14538
nar@@ 14531
Lé@@ 14526
Order 14520
ana@@ 14511
1799 14506
HP 14506
ques 14506
einte 14504
live 14501
onal 14497
mid 14489
eni 14485
Court 14480
Dani@@ 14479
Clark 14478
dimen@@ 14451
Lec@@ 14449
ustri@@ 14448
Fem@@ 14447
sens 14445
DO@@ 14443
oko 14434
olf 14424
ture 14424
arri@@ 14423
yan 14412
Jimmy 14410
Biographie 14409
Gib@@ 14407
Board 14406
aver@@ 14406
Law 14403
Chief 14399
Moore 14392
Anderson 14384
iles 14382
Sha@@ 14379
con 14367
amin@@ 14361
SR 14343
ț@@ 14331
Kansas 14328
norm@@ 14326
Us@@ 14316
lois 14304
101 14297
enzo 14295
ref@@ 14282
troit 14279
USS 14254
heirat@@ 14248
org 14244
LA 14214
ix@@ 14207
450 14197
B.@@ 14194
pedia 14169
Ou@@ 14168
Pacific 14164
ashi 14164
wat@@ 14164
11.@@ 14162
Sant@@ 14157
otr@@ 14156
Ib@@ 14141
Soci@@ 14140
750 14136
Wisconsin 14128
May 14121
Billy 14102
ui 14101
ths 14091
aks 14089
Guar@@ 14080
pati@@ 14074
Memorial 14067
anch@@ 14061
Chal@@ 14060
1795 14059
hold 14037
Metropolit@@ 14035
graphie 14020
70@@ 14019
pologie 14017
Gül@@ 14014
BS 14012
Conference 14004
ég@@ 14004
ás 14002
aff 13989
pha 13989
Cher@@ 13969
Gür@@ 13968
wann 13955
Dan 13953
Lux@@ 13947
Bla@@ 13939
Melbourne 13939
17,@@ 13938
mul@@ 13929
École 13905
División 13898
Martin@@ 13898
Charlie 13896
inde@@ 13893
auté 13892
Acc@@ 13890
rie 13887
Is 13877
Home 13858
status 13851
var 13837
Chev@@ 13836
uki 13813
­ 13810
sus 13797
CS 13794
DI 13794
amba 13788
Moz@@ 13781
porte 13774
virtu@@ 13773
minim@@ 13770
bak@@ 13767
aa 13765
Cross 13740
Sci@@ 13733
ential 13731
fac@@ 13729
him@@ 13726
Irak 13718
out@@ 13718
aye 13717
lot 13703
kateg@@ 13698
Lanc@@ 13681
ogne 13679
Dance 13675
msh@@ 13674
gelen@@ 13673
Du 13669
sist@@ 13668
ouver 13666
Rugby 13661
exter@@ 13659
lev@@ 13658
Türk@@ 13656
fron@@ 13637
inae 13627
oro 13627
lé@@ 13620
bra 13616
1300 13615
Nicolas 13612
Lyn@@ 13597
4000 13595
ait 13595
Ō@@ 13569
ising 13564
Sultan 13561
usa 13557
yo 13555
Fox 13549
onel 13549
Brad@@ 13548
uke 13546
nig@@ 13537
lyn 13535
Bruce 13527
Mountain 13519
Daw@@ 13518
views 13516
1791 13504
Kaz@@ 13500
ango 13499
elia 13493
Buff@@ 13491
sö@@ 13489
Sok@@ 13484
Fair@@ 13466
che@@ 13454
ng 13446
Indiana 13445
eer 13438
stone 13433
PE@@ 13431
nia 13419
Bell 13408
idar@@ 13407
last 13400
ène 13393
HMS 13387
akt@@ 13377
fon@@ 13375
Nom@@ 13374
Hud@@ 13361
multi@@ 13354
Wiki@@ 13348
AE@@ 13347
Mississippi 13341
Nan@@ 13335
Cruz 13323
RC 13323
star 13322
Atlanta 13315
aße 13315
118@@ 13313
ambi@@ 13306
tu 13303
Philippe 13295
fond@@ 13291
AA 13286
pus 13280
kno@@ 13279
Athle@@ 13273
Jane 13271
Che@@ 13265
Roy 13259
tempor@@ 13245
These 13229
say 13229
oy 13225
AG@@ 13216
evi@@ 13214
oven 13210
Arizona 13209
Last 13209
ature 13202
Sund@@ 13199
anti 13197
drama 13196
Pakistan 13195
oug@@ 13192
Gramm@@ 13188
î@@ 13188
igo 13183
Roy@@ 13178
andes 13174
van@@ 13167
pression 13165
Up@@ 13158
toria 13157
Magazine 13150
yk@@ 13139
Capit@@ 13131
Produc@@ 13129
Sad@@ 13125
Württem@@ 13120
ibn 13120
Special 13116
Suz@@ 13115
top@@ 13107
TC 13106
18,@@ 13100
sens@@ 13099
Alger@@ 13092
Québec 13091
tran@@ 13091
ż@@ 13090
illing 13089
Copa 13087
Not 13080
Princ@@ 13078
endr@@ 13071
Kevin 13070
Sap@@ 13070
aces 13070
SM 13067
after 13064
endem@@ 13058
Hawai@@ 13035
lave 13033
tradi@@ 13033
side 13025
arch 13023
AT 13020
Gabri@@ 13015
iri 13013
eda 13004
Enter@@ 13003
wealth 12993
Southern 12990
115@@ 12989
ry@@ 12985
Under@@ 12981
Sie@@ 12968
ihr@@ 12959
situation 12959
tum@@ 12959
ses@@ 12951
agno@@ 12949
ple 12940
wick 12936
Trav@@ 12930
grav@@ 12916
Tes@@ 12913
Department 12888
imo 12888
Opera 12886
AF@@ 12883
Stone 12883
Water@@ 12874
Esp@@ 12861
coun@@ 12854
′ 12853
Office 12847
Bé@@ 12842
Liverpool 12841
ennis 12834
quer@@ 12830
tico 12830
Toul@@ 12821
sou@@ 12813
oman 12810
Stewart 12808
onym@@ 12807
beispi@@ 12805
Tennessee 12802
elin 12796
35@@ 12785
Lt@@ 12783
Associ@@ 12771
Tang@@ 12771
Afghanistan 12754
üst 12753
Maine 12750
Gaz@@ 12747
Robin 12741
embr@@ 12727
Syr@@ 12726
jus@@ 12718
dev@@ 12700
Lincoln 12696
lion 12691
ouse 12691
Good@@ 12688
AM 12673
agan 12672
nu@@ 12667
History 12665
appar@@ 12665
mans 12662
Clin@@ 12660
Margaret 12659
1400 12645
Sierra 12635
uno 12627
Kis@@ 12625
auth@@ 12623
Khan 12617
final@@ 12606
studio 12602
Microsoft 12599
Connecticut 12592
Nick 12590
lah 12588
zz@@ 12588
mid@@ 12587
sions 12572
molek@@ 12569
elsweise 12566
µ@@ 12566
deb@@ 12563
propag@@ 12562
CC@@ 12559
ria 12559
evo 12526
oke 12522
esis 12520
Global 12519
Pach@@ 12514
Gom@@ 12505
Antoine 12498
enname 12491
Marse@@ 12474
quer 12469
Miami 12465
Jordan 12458
Australia 12452
explo@@ 12450
Sainte 12446
rab@@ 12446
aer@@ 12440
oud 12437
Que@@ 12436
ancy 12430
inz@@ 12422
olas 12422
hydro@@ 12418
Up 12417
Social 12402
egas 12402
Matthe@@ 12399
His@@ 12398
Anat@@ 12382
anum 12380
ight@@ 12379
AD 12357
ross 12351
diagn@@ 12350
ilo 12343
3D 12342
On 12338
Place 12338
ML 12336
mac@@ 12333
Sas@@ 12326
zim@@ 12316
tri 12311
Nelson 12309
ů@@ 12308
Mü@@ 12306
AL 12298
Hip@@ 12284
Roma 12280
adu@@ 12273
eran 12273
tec@@ 12263
Doc@@ 12244
act 12244
lov@@ 12241
acy 12240
than 12238
stan 12235
M.@@ 12229
Nä@@ 12220
GT 12217
Harris 12216
Forest 12212
Dave 12211
Puerto 12208
day 12205
stud@@ 12204
eure 12201
Denis 12184
jar@@ 12183
CC 12164
philos@@ 12157
ichi 12155
national 12155
dio 12139
tras@@ 12136
namo 12119
otes 12119
ê@@ 12117
TS 12106
E.@@ 12099
20,@@ 12088
Cec@@ 12088
Nig@@ 12077
Map@@ 12065
ely 12064
Lawrence 12051
sex 12041
anim@@ 12037
abs@@ 12035
Canada 12029
220 12026
even 12024
tie 12024
ées 12021
ying 12015
depor@@ 12013
ulu 12006
Toy@@ 11995
alier 11985
Franklin 11979
ady 11979
web@@ 11975
Captain 11967
bal 11958
press@@ 11947
Cri@@ 11942
Sever@@ 11939
augh@@ 11931
Hot 11922
meth@@ 11922
ineering 11908
ric 11908
vie@@ 11905
tical 11901
Å@@ 11897
Departamento 11894
dom 11887
IF@@ 11880
Pac@@ 11880
Frit@@ 11879
garde 11870
Russell 11865
aliz@@ 11864
eston 11855
ev 11855
Disney 11848
Comics 11841
erra 11841
114@@ 11830
lies 11830
ás@@ 11826
argum@@ 11821
IE@@ 11816
té 11812
main 11806
ingo 11802
Il 11800
house 11798
Econom@@ 11789
Iowa 11786
South@@ 11785
mom@@ 11782
very 11778
Lucas 11776
kuli@@ 11776
King@@ 11771
yi 11761
Vietnam 11751
eh 11749
bourg 11747
Will 11730
Morgan 11729
Frederick 11724
vek@@ 11719
Mic@@ 11715
Sn@@ 11714
zeu@@ 11714
ald@@ 11699
play 11697
Miss 11694
adas 11691
feu@@ 11690
Vinc@@ 11681
greg@@ 11680
yen 11680
Rid@@ 11679
agre@@ 11676
jed@@ 11666
andro 11661
Ann 11657
38@@ 11632
MC 11629
IB@@ 11628
orit@@ 11614
rock 11614
Kongo 11610
N. 11606
How@@ 11600
yon@@ 11591
eux 11579
Lep@@ 11576
Cum@@ 11568
Jonathan 11568
say@@ 11566
erre@@ 11564
entale 11561
· 11553
BK 11543
Uruguay 11543
transport 11543
jana 11542
én 11540
ouv@@ 11536
agon 11533
adap@@ 11526
aca 11522
from 11519
K.@@ 11512
102 11511
Haute 11507
Trich@@ 11501
quarti@@ 11488
SE 11487
box 11487
Sey@@ 11473
360 11464
Down 11463
bit 11459
Centr@@ 11454
gia 11449
Zel@@ 11447
EM@@ 11436
CP@@ 11435
Broadway 11427
seurs 11423
Viet@@ 11420
FIFA 11416
Maf@@ 11405
ál@@ 11390
HD 11389
Avenue 11365
tle 11356
town 11348
ean 11341
isi 11331
liv@@ 11319
Classi@@ 11313
Hid@@ 11313
uel@@ 11313
perman@@ 11310
NA 11309
online 11309
News 11308
19,@@ 11305
nik@@ 11305
Kim@@ 11303
.com 11301
GC 11298
bey 11290
yes 11282
andi@@ 11280
matr@@ 11280
Wais@@ 11273
Houston 11270
Kelly 11265
cos 11256
aris 11255
Sph@@ 11254
izer 11240
mad@@ 11238
Miguel 11236
baller 11228
104 11217
End 11216
Kennedy 11203
oga 11201
Ey@@ 11200
dale 11194
rez 11191
Swe@@ 11181
angers 11177
Á@@ 11175
elec@@ 11172
ect 11164
Story 11147
attle 11147
raf@@ 11146
Nations 11144
ody 11137
German 11136
tric 11136
red 11129
VI 11128
top 11128
Fernando 11126
communes 11126
Andy 11118
Maryland 11111
Beng@@ 11109
Mars 11104
Raymond 11100
Walker 11098
sau 11097
117@@ 11088
II@@ 11082
etik 11082
Alpes 11081
Situ@@ 11075
135 11072
CN@@ 11063
ii 11054
Xi@@ 11049
Go 11037
Kak@@ 11036
Canadian 11032
ISO 11026
umi 11025
Hanno@@ 11020
teams 11018
Jun@@ 11005
gradu@@ 11004
vis 10989
Korea 10967
nation@@ 10964
Boys 10963
dir 10962
antik 10956
subj@@ 10955
Ś@@ 10953
Campbell 10941
utenant 10933
Cant@@ 10930
ayr@@ 10924
osis 10919
atives 10909
icia 10902
oka 10895
ough@@ 10890
Empire 10883
ï@@ 10880
115 10873
omon 10870
Pear@@ 10863
IG@@ 10855
MO@@ 10855
Iz@@ 10829
128 10825
partement 10825
anos 10824
Satur@@ 10819
eti 10813
mani@@ 10811
fix@@ 10804
ires 10804
Publ@@ 10799
distr@@ 10782
Direc@@ 10779
Kentucky 10779
ograp@@ 10778
oshi 10774
Shir@@ 10768
Development 10766
burn 10753
IP@@ 10748
gy 10742
aron 10736
ures 10735
sing 10733
Northern 10729
hatt@@ 10725
allo 10720
mos 10719
Community 10711
Pay@@ 10708
elde 10708
Boeing 10703
arry 10698
mass@@ 10697
ados 10690
33@@ 10688
aç@@ 10685
polog@@ 10680
Apple 10677
rod@@ 10673
Carr@@ 10666
sort 10665
Aj@@ 10663
sold@@ 10659
Yu@@ 10658
nic@@ 10658
Islands 10651
Dez@@ 10643
parte 10639
light 10638
alla 10630
lac@@ 10630
Google 10627
Li 10625
icum 10625
viol@@ 10624
YouTube 10623
eva 10623
ité 10612
öffentlich@@ 10611
za@@ 10607
igh 10588
Ear@@ 10583
isp@@ 10582
Geometr@@ 10577
Thompson 10571
ė 10569
Austin 10548
part 10548
Wan@@ 10536
Bill@@ 10518
internation@@ 10516
bai 10508
Franco 10506
Arc@@ 10504
Network 10503
kar 10498
Year 10494
Administration 10493
rev@@ 10488
AK@@ 10486
John@@ 10482
103 10455
Gary 10454
Scot@@ 10446
108 10445
Light 10444
down 10436
igg@@ 10426
uro 10423
• 10421
Ame@@ 10418
BI 10417
board 10417
monum@@ 10413
eria 10409
style 10405
Dj@@ 10403
Cô@@ 10402
niveau 10378
ünst@@ 10376
Billboard 10368
anes 10366
Pam@@ 10365
roqu@@ 10365
thel@@ 10357
hir@@ 10353
vil 10352
Italia 10348
anie 10348
Phoen@@ 10342
ason 10340
Guy 10327
vi 10327
GP@@ 10325
esh 10325
Out 10324
Cho@@ 10320
Ryan 10308
CO 10305
Say@@ 10305
sung 10292
240 10289
María 10278
Hr@@ 10274
ə@@ 10269
ML@@ 10265
ree 10265
eron 10255
val 10254
We 10250
dier 10247
MTV 10244
ā 10236
presse 10235
ering 10231
estig@@ 10208
Est 10207
SN@@ 10206
Services 10202
uri@@ 10201
but 10198
plus 10193
vet@@ 10193
Sri 10187
Histori@@ 10180
dör@@ 10171
pier@@ 10171
peti@@ 10169
param@@ 10167
Kah@@ 10158
Grant 10147
aj 10145
Kut@@ 10141
wn 10141
Oregon 10132
Matt 10130
ayo 10127
yer@@ 10125
Coast 10124
Scar@@ 10122
ampton 10115
Alabama 10108
Wrestling 10100
HT@@ 10093
C.@@ 10092
tienne 10083
Carter 10082
Ard@@ 10080
ras 10080
nad@@ 10078
Robinson 10069
EN@@ 10067
cat@@ 10066
illes 10061
anj@@ 10060
Be 10048
aise 10046
cle 10045
106 10041
AV@@ 10041
apos@@ 10037
Book 10033
GM 10029
ambia 10029
KK 10026
ký 10025
ios 10022
Warner 10019
but@@ 10019
egal 10018
Primera 10016
Gmina 10003
alam@@ 10001
Catherine 9989
Salvador 9989
Eurovision 9987
Championships 9985
fo 9985
Venezuela 9984
ulus 9981
Java 9966
Shin@@ 9965
MS@@ 9962
xon 9962
Commission 9958
zo@@ 9957
rou@@ 9937
Iv@@ 9933
ilia 9922
seri@@ 9912
personal 9903
Boy 9898
£ 9896
Town@@ 9894
I.@@ 9893
Head 9891
34@@ 9888
uli 9888
anno@@ 9886
ning@@ 9878
lik 9872
mant@@ 9868
TV@@ 9865
FM 9856
12.@@ 9853
Wright 9848
90@@ 9846
Your 9845
Abu 9843
Alberto 9830
AR 9828
Brothers 9826
format 9825
116@@ 9816
Modern 9816
FL 9811
24,@@ 9810
Apo@@ 9808
ui@@ 9808
Ut@@ 9806
lis@@ 9800
107 9796
hip 9793
MP 9780
lleg@@ 9778
Medical 9767
uni 9762
label 9758
kut@@ 9754
aves 9752
Sea 9747
âteau 9746
administr@@ 9735
tas 9734
sional 9733
atri@@ 9730
ating 9715
ran 9704
Malaysia 9703
Alaska 9701
borough 9694
Elis@@ 9691
Linux 9688
Field 9676
Trump 9668
mouth 9668
head 9656
tres 9656
jer@@ 9654
25,@@ 9647
Orange 9647
sts 9639
.. 9632
eros 9631
111 9630
õ@@ 9622
Digital 9620
yo@@ 9620
39@@ 9599
telef@@ 9594
Jason 9591
Thé@@ 9589
Académie 9587
r. 9583
Kent 9581
Universal 9580
neum@@ 9576
Tok@@ 9574
Yo@@ 9572
Regional 9569
ebil@@ 9569
oz 9559
Zh@@ 9557
Indian 9556
ador 9552
mü@@ 9551
½ 9548
ammed 9544
2500 9539
Card@@ 9538
LC 9538
Ian 9536
mission@@ 9533
sev@@ 9533
Type 9528
ace@@ 9521
anta 9520
Baker 9517
Sky 9515
ishi 9506
109 9502
com 9502
transfer@@ 9500
Lima 9498
Santos 9495
irs 9494
Norman 9489
vide@@ 9480
sh 9476
Bretagne 9470
Nigeria 9464
over@@ 9463
BN 9460
Bulgar@@ 9460
Kay@@ 9458
evol@@ 9446
ros 9440
113@@ 9435
design 9418
ém@@ 9416
card 9411
atura 9408
Roberto 9406
forte 9404
230 9401
Santo 9396
sta 9393
Dark 9391
innov@@ 9379
Sá@@ 9376
Grammy 9370
Wayne 9370
Project 9360
volution 9357
Muhammad 9350
TH@@ 9348
boy@@ 9345
Mac 9338
éli@@ 9329
autonom@@ 9319
Coc@@ 9312
manager 9312
festiv@@ 9311
hen@@ 9303
enna 9297
FO@@ 9278
Nep@@ 9275
Hist@@ 9260
RNA 9258
Second 9255
ality 9250
into 9250
ient 9245
112 9233
Dod@@ 9222
dou@@ 9221
ego 9216
ifu@@ 9215
Agu@@ 9204
sad@@ 9189
LG@@ 9178
alif@@ 9173
hir 9159
{ 9147
italien 9144
650 9143
Ş@@ 9138
orio 9133
gin@@ 9130
Web 9124
Marshall 9119
ments 9119
thor@@ 9117
22,@@ 9114
amar@@ 9113
spor 9112
ě 9111
Christ 9103
Bask@@ 9100
Four@@ 9093
pens@@ 9087
D.@@ 9082
ports 9077
ship 9067
prov@@ 9063
ety 9056
portation 9051
Eastern 9046
ő@@ 9040
As 9037
strum@@ 9037
tory 9022
36@@ 9016
haut 9005
ń 9005
PO@@ 9004
GA 9001
Four 8996
21,@@ 8993
rid@@ 8991
Lig 8988
athan 8988
emat@@ 8988
phia 8988
ø 8988
apa 8985
dez 8980
SI@@ 8977
320 8971
Library 8971
equ@@ 8962
Hosp@@ 8961
Metro 8960
emiti@@ 8959
Notre 8956
ape 8954
23,@@ 8953
inga 8951
territori@@ 8946
és@@ 8943
Sevilla 8941
190 8934
Mez@@ 8931
expres@@ 8926
SI 8925
onald 8918
Ark@@ 8912
gom@@ 8910
mon 8910
Do 8900
ather 8898
eka 8889
writer 8884
Girl 8882
37@@ 8881
fro@@ 8874
isher 8873
Shel@@ 8867
Conserv@@ 8865
ave@@ 8839
Valencia 8836
Buil@@ 8830
flor@@ 8829
CP 8825
termin@@ 8819
ė@@ 8819
hist@@ 8818
aiss@@ 8816
front@@ 8815
Press 8812
Han 8809
gency 8809
ted 8804
hus@@ 8799
ful 8798
legal 8794
Yan@@ 8788
cell@@ 8784
ju 8783
sych@@ 8782
ici 8779
114 8762
other 8759
26,@@ 8756
Atlantic 8751
550 8748
cop@@ 8745
201@@ 8743
ampa 8740
bac@@ 8739
Scottish 8738
lery 8738
Teatro 8735
210 8733
Madag@@ 8729
onde 8726
sn@@ 8726
fis@@ 8725
nav@@ 8720
xi 8716
lib@@ 8711
rier 8708
can 8707
ties 8695
ext 8694
— 8689
anas 8688
enci@@ 8684
alre@@ 8680
ensemble 8677
quet 8673
wards 8669
Fat@@ 8667
ino@@ 8664
Î@@ 8659
Vig@@ 8657
ABC 8648
Channel 8642
45@@ 8640
English 8637
exist@@ 8637
orient@@ 8633
ching 8632
People 8609
Stoc@@ 8608
istes 8607
Ray@@ 8606
éri@@ 8605
seu@@ 8596
Federation 8588
pes 8588
orch@@ 8578
Sony 8577
Lic@@ 8575
27,@@ 8570
oba 8567
wns 8566
Seb@@ 8561
films 8559
obi 8550
lip 8537
Jew@@ 8532
Population 8531
arts 8525
ld@@ 8523
san 8514
ña 8507
prise 8506
Sour@@ 8505
oir 8503
Laurent 8499
roman@@ 8498
Société 8496
abol@@ 8492
trol 8488
CF 8485
R.@@ 8479
Lew@@ 8476
Nur@@ 8470
Jor@@ 8469
hua 8440
García 8436
lif@@ 8434
Mek@@ 8427
113 8420
bile 8417
´ 8415
Fré@@ 8411
ôme 8411
state 8407
Plus 8402
ác@@ 8402
Venez@@ 8400
175 8390
nan 8390
Cem@@ 8389
Ú@@ 8389
roc@@ 8386
Christoph@@ 8381
Ye@@ 8369
code 8353
naz@@ 8343
Nouvelle 8341
embran@@ 8338
Jr 8335
veget@@ 8329
African 8325
icul@@ 8319
utive 8319
Na 8317
onales 8316
maz@@ 8313
pi 8313
zia 8308
achi 8297
122 8292
ʻ@@ 8291
TO@@ 8286
Alem@@ 8282
NASA 8281
irken 8269
117 8264
Final 8264
roman 8259
Ecuador 8257
idad 8257
Democ@@ 8244
lu 8244
Rodr@@ 8241
ift@@ 8240
Of 8231
13.@@ 8226
ories 8226
comp@@ 8224
List 8215
Secre@@ 8211
gran@@ 8211
Uta@@ 8207
kreich 8206
French 8196
Health 8191
ading 8191
260 8188
Wak@@ 8188
erre 8184
Jay 8183
Pays 8176
PR@@ 8174
Haz@@ 8169
dial@@ 8162
Mexico 8156
unda 8156
elly 8152
Pablo 8151
rac@@ 8147
Franç@@ 8146
orig@@ 8142
boy 8141
Men 8136
left 8135
Gonz@@ 8134
IX 8125
imler 8124
aku 8119
div@@ 8118
bridge 8116
ski@@ 8116
trav@@ 8115
Broad@@ 8111
deu@@ 8107
hak@@ 8104
zon 8104
Sez@@ 8103
Dakota 8095
doc@@ 8088
Two 8086
tax@@ 8085
Canal 8080
Heart 8078
Jorge 8078
nin 8077
éc@@ 8075
ono 8066
avo 8063
ň@@ 8059
aza 8051
seau 8046
encer 8045
oso 8039
Columb@@ 8038
Guadal@@ 8038
Dead 8036
ò 8031
22@@ 8016
Hern@@ 8016
Back 8014
cial 8009
expan@@ 8002
person 7994
dian 7988
LO@@ 7984
agin@@ 7984
BO@@ 7982
adj@@ 7979
ists 7974
song 7974
Good 7973
anza 7969
alisation 7968
Poc@@ 7965
dö@@ 7958
wad@@ 7956
anced 7953
endi 7953
Gran 7952
L.@@ 7952
itch 7951
Crist@@ 7942
Kong 7931
kshire 7922
Day@@ 7921
IA 7917
Sain@@ 7917
thy 7916
To 7902
dy@@ 7896
Tokyo 7893
eball 7893
126 7889
ación 7879
124 7877
tane 7876
ping 7864
enter@@ 7862
Fire 7857
antas@@ 7856
No. 7847
EC@@ 7844
oj@@ 7841
14.@@ 7838
start 7836
Ghana 7833
ror 7826
León 7822
tav@@ 7820
280 7817
123 7815
aide 7812
lear@@ 7800
Pictures 7796
Rico 7796
127 7795
Vy@@ 7795
eca 7775
ć@@ 7773
Montr@@ 7768
Laz@@ 7760
Micro@@ 7758
atic 7755
Turk@@ 7750
otom@@ 7743
pur 7741
ă 7725
Vid@@ 7724
hiz@@ 7724
Bush 7712
derg@@ 7712
Education 7711
strong 7699
ilio 7697
occ@@ 7696
alli 7695
Rug@@ 7692
ça 7691
Family 7689
ency 7687
jam@@ 7687
opol@@ 7683
sus@@ 7679
alifor@@ 7678
Rafael 7677
yar@@ 7677
aska 7674
má@@ 7667
α 7663
hibi@@ 7662
ș 7662
water 7660
ilg@@ 7658
struc@@ 7658
a.@@ 7654
alem@@ 7650
new@@ 7647
Batt@@ 7643
ael 7642
ural 7630
Angel 7628
Limited 7627
ysis 7627
grap@@ 7626
VII 7622
ces@@ 7621
olds 7610
emi 7609
pon 7607
Rac@@ 7605
ial 7602
rus@@ 7600
tural 7599
terr@@ 7598
enin 7596
rio 7596
occer 7595
phot@@ 7594
eci@@ 7593
agua 7592
kit@@ 7590
Di 7588
phone 7583
juni@@ 7581
vak@@ 7579
121 7568
Penn@@ 7568
270 7562
asp@@ 7562
Cape 7558
Gusta@@ 7553
″ 7552
sup@@ 7550
infr@@ 7538
Africa 7536
ground 7530
Cand@@ 7527
bern@@ 7523
Director 7519
IBM 7512
media 7508
rent 7506
TP 7496
ect@@ 7491
path@@ 7488
Marsh@@ 7478
isto 7478
22.@@ 7477
Poli@@ 7477
engen@@ 7472
clubs 7470
iva 7469
116 7467
tura 7466
Alliance 7462
uru 7459
favor@@ 7457
.S. 7453
Wad@@ 7453
49@@ 7451
Dak@@ 7447
aret@@ 7446
school 7442
év@@ 7439
endant 7434
bil 7427
zan 7427
ú 7415
J.@@ 7412
que@@ 7412
ities 7402
work 7395
Square 7393
propor@@ 7392
å 7387
taine 7384
quanti@@ 7383
Ng@@ 7382
üm 7380
quien 7379
Supre@@ 7378
CEO 7377
hut@@ 7374
Eas@@ 7366
Gó@@ 7362
situ@@ 7360
Mih@@ 7355
lement 7332
cli@@ 7331
This 7321
Theo 7308
oon 7303
Can 7296
Tah@@ 7295
neo 7285
oca 7283
rd 7281
lak@@ 7279
Ich@@ 7278
H.@@ 7277
188@@ 7263
patri@@ 7259
Universidad 7258
bu 7258
Baz@@ 7253
Ankara 7252
lon@@ 7251
cast 7244
47@@ 7237
has 7235
rog@@ 7228
ël 7228
Guillaume 7226
grade 7219
jas 7211
Human 7206
β 7203
super@@ 7201
yon 7201
145 7195
Castro 7195
ül 7190
çon 7186
Sé@@ 7180
partie 7178
berto 7174
issi@@ 7174
chor@@ 7167
avi 7158
castle 7145
pun@@ 7145
ign 7144
univers@@ 7142
moment 7141
benz@@ 7134
Atlé@@ 7133
à@@ 7131
versit@@ 7124
hon@@ 7123
tat@@ 7117
Sali@@ 7111
Sudan 7108
texte 7106
femin@@ 7104
oes 7098
ège 7095
Mim@@ 7081
tista 7080
Irish 7076
bonne 7065
intr@@ 7065
16.@@ 7063
Nintendo 7063
bab@@ 7063
Facebook 7061
urus 7050
ird 7040
Way 7036
118 7031
vio 7031
loy@@ 7027
Guatemala 7017
hat@@ 7016
impl@@ 7016
omi 7015
330 7014
ois@@ 6997
Television 6996
sang@@ 6993
polit@@ 6991
Germany 6989
set@@ 6985
eling 6984
Rolling 6973
Girls 6969
isel 6965
He 6961
asc@@ 6961
ettes 6959
Alexandre 6958
cot@@ 6953
Au 6951
qua 6947
Salv@@ 6943
380 6941
uses 6941
P.@@ 6931
yse 6930
ł 6924
ose@@ 6913
abad 6912
ving 6906
González 6905
Banglad@@ 6898
bay 6898
cs 6896
onc@@ 6894
appel 6891
Ø@@ 6876
Moon 6873
ples 6873
jun@@ 6869
liner 6863
mari@@ 6861
Chrys@@ 6860
dad 6850
lí@@ 6849
visi@@ 6841
Ż@@ 6837
main@@ 6836
mina 6834
ē@@ 6827
Servic@@ 6825
ondo 6822
Yel@@ 6820
abi 6811
obr@@ 6808
Queensland 6803
21.@@ 6800
bas 6799
zon@@ 6799
mad 6797
ON@@ 6792
lor 6786
avia 6785
Arsenal 6784
Estr@@ 6784
Nel@@ 6771
Kag@@ 6770
WW@@ 6770
fi 6762
urity 6759
Doctor 6757
eas 6756
ision@@ 6755
py@@ 6752
Fé@@ 6751
eval 6746
Öz@@ 6744
rest 6740
Partido 6737
UR@@ 6737
Zam@@ 6737
hot@@ 6728
Arkansas 6724
155 6723
Three 6721
17.@@ 6719
gau@@ 6719
usse 6716
ako 6715
craft 6711
isha 6710
wh@@ 6708
ority 6707
duc@@ 6701
oire 6701
privil@@ 6696
aland 6692
uj@@ 6680
Dream 6674
Fes@@ 6674
that 6669
sell 6668
tary 6665
gir@@ 6657
Shu@@ 6654
vera 6650
F.@@ 6649
132 6648
Just 6646
elling 6638
teh@@ 6629
Nap@@ 6625
arra 6625
Trab@@ 6624
Asia 6621
BT 6619
onga 6606
ymn@@ 6595
15.@@ 6591
Angola 6589
design@@ 6581
55@@ 6579
vic@@ 6576
quez 6563
waf@@ 6560
bier@@ 6558
éal 6553
trop 6546
Rodríguez 6538
López 6537
oun 6537
♂ 6537
WWE 6536
Summer 6535
Temple 6531
ime@@ 6530
viv@@ 6504
ë 6504
ayn@@ 6498
Who 6496
lec@@ 6495
fut@@ 6491
India 6485
andra 6485
PP@@ 6483
187@@ 6482
ole@@ 6481
vie 6481
how 6476
schließend 6468
oblig@@ 6462
oran@@ 6456
18.@@ 6448
ational 6446
tac@@ 6442
bio 6438
48@@ 6436
129 6434
anni@@ 6433
ector 6433
agnie 6432
definiti@@ 6432
face 6421
That 6409
you 6406
rel 6403
ease 6386
Congress 6385
mbH 6381
gold 6380
recher@@ 6379
verschied@@ 6377
voir 6374
eas@@ 6369
azi 6367
aching 6363
bia 6363
Sud 6362
68@@ 6360
kana 6356
spo@@ 6349
esto 6348
What 6347
less 6345
route 6339
Ma 6333
ís 6331
Valle 6329
ague 6329
Rica 6328
Wrest@@ 6328
life 6328
cen@@ 6324
Police 6308
med 6308
edi 6304
his 6303
itali@@ 6297
zam@@ 6296
awi 6293
46@@ 6285
ugen@@ 6285
tice 6281
Distribu@@ 6280
trang 6276
è 6273
atu 6265
tap@@ 6265
Yas@@ 6264
Speci@@ 6257
folk 6255
inj@@ 6251
audi@@ 6246
edom 6240
addi@@ 6239
pool 6237
adio 6232
Pérez 6226
± 6221
Ferdin@@ 6214
ening 6206
Ligue 6205
uti 6198
dyn@@ 6197
umi@@ 6193
lic@@ 6191
eso 6190
ı@@ 6188
Chic@@ 6183
oration 6171
emas 6166
March 6159
Nis@@ 6159
change 6156
dek 6155
adop@@ 6151
dre 6151
imbab@@ 6151
pour 6143
For 6137
Tek@@ 6136
dren 6136
sent@@ 6136
Zealand 6132
ş@@ 6131
23.@@ 6130
65@@ 6127
sala 6125
integr@@ 6118
mek@@ 6116
urban@@ 6110
119 6107
Paraguay 6106
uga 6105
plans 6099
ň 6098
jud@@ 6097
Daily 6096
Mar 6092
ongo 6089
stream 6083
hyp@@ 6082
inda 6079
tivo 6079
unat@@ 6078
sil 6077
44@@ 6074
egem@@ 6066
Chelsea 6059
maj@@ 6053
añ@@ 6044
Abdul@@ 6038
ľ@@ 6037
deleg@@ 6036
Biz@@ 6034
tari 6031
trat@@ 6024
premi@@ 6022
20.@@ 6017
uel 6017
189@@ 6016
rive 6014
stars 6013
Earth 6004
Federal 5998
squ@@ 5997
rem 5986
wn@@ 5982
profes@@ 5980
fus@@ 5974
spons@@ 5969
estudi@@ 5967
ily 5965
Depor@@ 5963
NCAA 5957
adron 5953
Amerik@@ 5945
tribu@@ 5935
titu@@ 5930
asis 5920
PlayStation 5915
ible 5914
Ör@@ 5914
Iron 5910
CE 5908
iterran@@ 5904
trik 5902
Hong 5901
crip@@ 5900
Scotland 5899
Córdoba 5898
airs 5896
timent 5881
ships 5880
put 5869
lim 5864
adul@@ 5861
atia 5859
ism 5856
qui 5854
quel@@ 5852
nj@@ 5851
andi 5848
Battle 5846
İ@@ 5846
phyl@@ 5841
villa 5841
né 5829
zor@@ 5829
Fe 5819
orial 5815
Muh@@ 5813
Weltkri@@ 5812
Serv@@ 5806
Mais 5804
75@@ 5802
ives 5800
former 5798
nu 5797
Tay@@ 5791
exper@@ 5791
vice 5790
Guinea 5789
azar 5789
ción 5788
God 5786
anto 5782
Municipal 5770
kina 5759
atmos@@ 5753
idea 5753
tür 5753
lenen 5750
ru 5747
cine 5744
T.@@ 5742
this 5741
itage 5735
Most 5734
mg@@ 5734
bunden 5733
elop@@ 5728
nek 5725
ensa 5723
Ireland 5722
fig 5715
uca 5715
152 5711
alc@@ 5708
zem@@ 5706
ext@@ 5699
Fernández 5697
pek@@ 5697
Si 5696
ects 5691
Ahmed 5682
Son 5680
anco 5671
ishing 5671
entos 5669
Kid@@ 5667
pas 5667
N.@@ 5665
Arth@@ 5658
Böl@@ 5658
Ana 5657
mara 5657
new 5654
Canadi@@ 5647
pson 5642
vel 5637
Born 5626
cep@@ 5621
kari@@ 5620
cover 5619
minute 5617
iting 5614
Esc@@ 5610
kah@@ 5610
Justice 5609
invol@@ 5599
leur 5598
divers@@ 5593
oc 5587
software 5586
tronic 5578
enem@@ 5574
43@@ 5572
Govern@@ 5572
ead 5572
model@@ 5572
Corpor@@ 5569
oda 5563
seen 5553
} 5546
Å 5544
Crim@@ 5543
n.@@ 5543
Arsen@@ 5540
19.@@ 5537
186@@ 5532
enfr@@ 5532
zil@@ 5530
guer@@ 5517
Mf@@ 5506
unga 5506
Nazi 5502
idas 5498
ğ@@ 5496
gun@@ 5495
güt@@ 5493
plic@@ 5493
steri@@ 5490
2.0 5478
nay 5477
enti 5476
sek 5472
uto 5462
mental 5461
Government 5459
Ál@@ 5459
Alfre@@ 5455
progres@@ 5452
arp@@ 5450
raine 5448
mile 5444
sea 5443
olan 5441
ina@@ 5430
Pho@@ 5428
radio 5426
perial 5425
ellos 5424
atos 5423
ders@@ 5420
Chel@@ 5418
Vita 5414
anni 5413
destr@@ 5410
âtre 5410
ndi@@ 5399
numer@@ 5395
sibil@@ 5393
osi 5391
Civil 5381
brahim 5380
dul@@ 5375
Hali@@ 5372
CBS 5367
works 5363
ève 5363
President 5357
sports 5357
ombe 5356
ional 5352
uka 5344
igan 5338
va@@ 5334
Casa 5329
ño 5329
Ili@@ 5326
tique 5324
ices 5322
opter@@ 5322
Fam@@ 5320
öne@@ 5315
car 5310
ember 5306
ush 5297
qualif@@ 5294
mab@@ 5291
ves@@ 5286
VIII 5280
xa 5278
rá@@ 5273
Catal@@ 5263
Fati@@ 5251
dil 5246
tribut@@ 5243
ambul@@ 5232
dok@@ 5228
portr@@ 5216
fic 5212
Asian 5202
Assembly 5198
dra@@ 5197
Eduardo 5191
cyc@@ 5190
ieh@@ 5186
Uganda 5183
temp@@ 5182
grad@@ 5179
wing 5177
resid@@ 5172
pros@@ 5171
-- 5168
ansa 5167
digital 5167
fic@@ 5161
tir 5154
ables 5153
cas 5153
suff@@ 5150
telle 5149
mec@@ 5148
adol@@ 5144
stage 5140
provo@@ 5137
ieurs 5131
got 5120
uvent@@ 5118
Like 5115
gam@@ 5109
terror@@ 5108
anca 5104
Android 5103
Over 5099
enas 5095
And 5092
standard 5089
eign 5088
ications 5088
Pueb@@ 5085
yal@@ 5084
nm 5078
ét@@ 5077
dle 5074
aines 5072
dres@@ 5069
eps 5068
rés 5062
adet 5061
oise 5057
vot@@ 5041
Göl@@ 5040
edia 5039
Centro 5031
nos 5030
vière 5030
Yak@@ 5028
away 5024
Jum@@ 5023
~ 5021
Now 5019
omy@@ 5018
ź 5018
ril 5017
gun 5016
Martín 5015
Democratic 5011
arist@@ 5011
Mab@@ 5007
rant 5006
Olympic 5002
ufac@@ 5002
Grou@@ 4999
hie 4999
Del 4996
ambo 4996
fu 4989
ì 4988
Dut@@ 4981
ful@@ 4980
yu 4976
mis 4968
acha 4962
motiv@@ 4954
UTC 4950
perten@@ 4950
tras 4950
oides 4949
América 4948
Đ@@ 4941
Ó@@ 4940
enia 4936
amed 4934
thi 4928
s.@@ 4927
Rey 4925
itar 4924
open 4924
aman 4913
Cá@@ 4911
iso 4911
service 4902
tric@@ 4901
Twitter 4898
Martínez 4897
Cari@@ 4894
Museo 4893
elos 4893
ewa 4893
185@@ 4887
pit@@ 4883
erek 4880
Plaza 4877
blan@@ 4877
éch@@ 4876
mail 4875
sha 4869
Mec@@ 4861
abu 4859
ateur 4855
quin@@ 4855
Apr@@ 4851
uda 4849
tile 4844
Segunda 4840
Fren@@ 4839
oğlu 4838
ví@@ 4834
ḫ@@ 4833
ombi@@ 4831
eiro 4828
refle@@ 4826
run 4824
Andro@@ 4818
group 4817
entry 4814
EE 4809
har 4809
Kib@@ 4801
alus 4801
yat@@ 4796
Inc. 4792
Middle 4791
hib@@ 4788
lower 4788
normal 4785
pic@@ 4780
ahi 4776
modern 4767
historique 4766
sol 4765
Chu@@ 4764
tain 4755
separate 4753
nek@@ 4744
tradition 4741
gos 4738
lina 4737
More 4732
sous 4730
NAS@@ 4727
cy@@ 4726
teurs 4723
duras 4709
eki 4709
ca@@ 4708
Concep@@ 4702
odes 4697
indu@@ 4695
Sos@@ 4692
music 4685
eaux 4682
minut@@ 4679
asse@@ 4677
cos@@ 4674
diff@@ 4670
lars 4668
nament 4666
opus 4662
ences 4657
vill@@ 4655
Americ@@ 4650
XX 4645
ž 4644
pler@@ 4640
list 4639
administrative 4635
eting 4631
tera 4628
mur@@ 4625
Anto@@ 4624
wi 4616
ective 4612
Wash@@ 4610
opsis 4609
enos 4603
inin 4600
sug@@ 4598
Academia 4597
luch@@ 4597
door 4595
iliz 4595
atar 4580
encia 4580
ization 4577
chia 4575
Kip@@ 4574
bec 4573
53@@ 4569
kem@@ 4569
mez 4568
Yar@@ 4560
Bey@@ 4557
chu@@ 4555
etas 4554
sia 4553
Papua 4552
Sev@@ 4548
arca 4547
asia 4547
leng@@ 4545
polé@@ 4544
Aleksand@@ 4542
bande 4539
You@@ 4538
eras 4534
française 4530
thing 4529
sep@@ 4526
Instituto 4524
oza 4524
arias 4522
absor@@ 4519
onic 4511
olympi@@ 4509
afor@@ 4508
extrem@@ 4507
NBC 4506
oya 4505
Galatasaray 4504
57@@ 4500
ò@@ 4496
Pendant 4491
Yun@@ 4491
led@@ 4491
nez 4487
ligence 4485
cro@@ 4483
manif@@ 4471
singer 4466
aume 4465
56@@ 4462
eurs 4457
trac@@ 4455
tros 4453
resist@@ 4452
sun 4444
leader 4443
cou@@ 4433
ait@@ 4428
km2 4428
ingi@@ 4424
artiller@@ 4423
müd@@ 4423
non@@ 4416
Nou@@ 4415
Dest@@ 4413
ispi@@ 4404
pios 4404
dea 4402
cript 4397
yas@@ 4397
Ago@@ 4392
184@@ 4389
senior 4386
cri@@ 4384
ip 4383
Colomb@@ 4380
igne 4380
usi 4375
udo 4374
master 4372
partam@@ 4370
Desp@@ 4364
nak@@ 4362
estre 4361
exten@@ 4361
Ef@@ 4358
58@@ 4355
spec@@ 4351
atrice 4350
sac@@ 4349
cont@@ 4347
aham@@ 4346
cus@@ 4344
♀ 4341
Mustafa 4333
dans 4332
bourne 4330
rug@@ 4330
enga 4324
tang@@ 4323
dér@@ 4319
adam@@ 4317
Suisse 4309
ammad 4308
chant 4300
Ital@@ 4294
donn@@ 4294
tek 4293
Milan 4291
Æ@@ 4289
Ministr@@ 4286
pop 4286
vas 4277
ías 4277
Alfonso 4272
Enrique 4269
writ@@ 4267
albums 4259
aban 4258
ophyl@@ 4258
Beledi@@ 4257
center 4256
iki@@ 4256
contr@@ 4248
estim@@ 4248
aim@@ 4242
acia 4241
Princip@@ 4238
hul@@ 4236
aifa 4233
ulia 4229
Castil@@ 4228
original 4228
67@@ 4224
flora 4218
auc@@ 4212
érie 4207
Sa 4204
sult@@ 4202
ican 4200
dil@@ 4198
From 4190
24.@@ 4178
valu@@ 4174
ù 4168
Under 4166
gus@@ 4160
inson 4157
illas 4156
vert 4153
order 4149
hun@@ 4148
PM 4137
tard 4129
jum@@ 4128
ledge 4127
99@@ 4125
Giov@@ 4125
bian 4124
Chi 4123
engo 4119
prol@@ 4118
diz@@ 4116
rail@@ 4116
acle 4111
âte@@ 4111
him 4106
Vladimir 4103
tul@@ 4103
child 4102
Kingdom 4097
With 4096
point 4087
upe 4086
shows 4084
kuh@@ 4083
edral 4082
Latin 4081
ḥ@@ 4081
kim@@ 4079
Un 4077
Pé@@ 4075
éra 4072
ő 4069
UE@@ 4068
estra 4067
Moy@@ 4065
oras 4056
icio 4054
Compan@@ 4053
endro@@ 4048
erine 4048
voi 4047
olan@@ 4044
arkad@@ 4042
won 4041
uela 4040
ayan 4039
tham 4039
lay@@ 4037
olia 4037
still 4033
date 4032
ecture 4031
cola 4028
êt 4027
aret 4025
install@@ 4023
milli@@ 4023
arc@@ 4020
gues 4020
bao 4017
camp 4016
iku 4016
ól@@ 4012
Sic@@ 4011
mez@@ 4008
chim 4006
world 4006
ç 4003
cer 4002
stant@@ 4002
ín@@ 4001
uso 3996
illustr@@ 3993
class 3991
gul@@ 3989
Siv@@ 3986
aux@@ 3986
amount 3983
ų 3983
Bas 3982
veh@@ 3973
ved 3972
tima 3966
25.@@ 3965
amber 3965
esper@@ 3956
mé@@ 3953
eses 3951
had 3951
Ü 3951
anan 3950
eza 3948
aina 3945
ourg 3940
Afgh@@ 3939
ool 3939
chang@@ 3935
Hous@@ 3934
umba 3930
Su 3927
iba 3924
NCA@@ 3918
icas 3918
training 3914
When 3913
oral 3908
ours 3899
they 3897
lieu 3896
sav@@ 3893
acio 3888
mili@@ 3887
period@@ 3885
û@@ 3885
wili 3884
map@@ 3874
ulo 3871
ances 3867
66@@ 3865
Este 3863
acu@@ 3861
érieure 3861
tiers 3859
‰ 3858
ř 3857
His 3856
come 3856
information 3856
dep@@ 3855
urb@@ 3854
abb@@ 3852
tim 3852
thus 3848
100@@ 3846
sever@@ 3841
Jim@@ 3840
yar 3838
onda 3835
amor@@ 3833
eco 3831
kisi@@ 3829
Sult@@ 3824
arian 3824
59@@ 3818
zili@@ 3818
iliz@@ 3815
held 3808
edit@@ 3807
quir@@ 3806
ecu@@ 3805
roy@@ 3805
ilik@@ 3804
ajo 3799
relation 3799
soci@@ 3795
cant@@ 3790
Premio 3788
illet 3786
ème 3785
ished 3782
pig@@ 3781
ı 3781
ece 3780
mont@@ 3780
linde 3779
dae 3774
tour 3774
asha 3769
Alej@@ 3767
Université 3767
book 3763
Minn@@ 3758
para 3757
fau@@ 3751
España 3750
action 3748
anat@@ 3747
Häl@@ 3746
saf@@ 3745
kav@@ 3741
bunal 3739
divis@@ 3736
Þ@@ 3731
Must@@ 3729
www.@@ 3728
phi 3726
wiki 3726
imz@@ 3725
sian 3724
spap@@ 3723
abi@@ 3721
back@@ 3721
Doug@@ 3720
ump 3714
ability 3710
ouvre 3710
bass@@ 3709
minor 3703
solo 3700
atures 3698
cad@@ 3694
Felipe 3693
nouvelle 3693
cle@@ 3690
ón@@ 3689
bois 3688
gu 3687
cam@@ 3686
dak@@ 3686
nation 3686
ologies 3685
shi@@ 3684
uku 3681
gil@@ 3679
Ban 3678
26.@@ 3669
king@@ 3668
total 3667
entales 3657
trad@@ 3657
ween 3657
Cen@@ 3655
Oy@@ 3655
fit 3654
cip@@ 3652
vez 3652
Sur 3651
note 3647
Academ@@ 3644
Britain 3640
body 3640
Coupe 3636
Hindi 3636
folia 3633
fab@@ 3631
self 3617
terres@@ 3616
nom 3613
older 3609
wr@@ 3608
1st 3607
Phone 3603
sti 3603
Chinese 3596
formes 3595
data 3591
klin 3587
Áng@@ 3585
kent 3581
proc@@ 3581
vet 3581
Urugu@@ 3580
bou@@ 3579
neur 3576
Ciudad 3575
americana 3575
veren 3574
œ@@ 3569
edra 3564
Internacional 3562
inet 3559
cours 3557
voc@@ 3549
pein@@ 3546
Parti 3544
his@@ 3543
27.@@ 3538
If 3536
bles 3535
Marvel 3530
cog@@ 3528
coc@@ 3524
Jewish 3520
ney@@ 3519
Bey 3518
ording 3509
ligh@@ 3508
ancia 3507
impos@@ 3506
Kend@@ 3500
iku@@ 3497
ã@@ 3493
Kent@@ 3492
phi@@ 3492
yak@@ 3492
songs 3491
adan 3490
XI 3485
cord 3485
subst@@ 3484
èle 3480
éro@@ 3475
night 3473
isons 3472
Yah@@ 3470
lea 3470
cour@@ 3463
Sol 3462
camp@@ 3460
ilk 3459
hara 3457
syl@@ 3457
Production 3456
long@@ 3453
After 3447
Fenerbahçe 3447
protein 3444
ules 3444
Dutch 3441
kara 3439
teen 3436
tent 3435
tena 3432
yen@@ 3431
champ@@ 3423
afa 3421
Republic 3420
terre 3420
docum@@ 3413
ools 3410
elimin@@ 3409
ð 3407
casting 3405
mich@@ 3402
En 3401
pod@@ 3401
final 3399
attach@@ 3398
perior 3396
tific@@ 3396
Süper 3394
ération 3393
tín 3387
inci 3383
stead 3383
teria 3383
Brasil 3380
anya 3380
Culture 3379
thu@@ 3379
alu@@ 3376
cit@@ 3376
Historia 3374
antage 3374
long 3372
interpret@@ 3370
ography 3368
toral 3368
avent@@ 3367
bre 3362
standing 3361
Í@@ 3360
eline 3358
Guill@@ 3357
Ét@@ 3356
éd@@ 3354
Assemb@@ 3353
right 3348
Mia 3342
orer 3339
aires 3338
strat@@ 3337
ŏ@@ 3335
reti@@ 3331
march@@ 3327
taire 3325
Lo 3323
table 3317
tracks 3313
Norte 3312
Lond@@ 3304
taş 3304
pad@@ 3294
Pour 3290
sap@@ 3289
upon 3289
chos 3276
mani 3273
them@@ 3272
èg@@ 3272
public@@ 3269
isions 3268
had@@ 3267
ın@@ 3266
XII 3262
sciences 3258
uw@@ 3255
Papa 3254
haz@@ 3254
lut@@ 3248
asit@@ 3235
orden@@ 3234
haw@@ 3233
mode 3233
Uz@@ 3231
éni@@ 3229
bé 3227
did 3227
narr@@ 3220
anthus 3218
hab 3218
iza 3218
nac@@ 3217
isco 3216
nord 3214
Cao 3213
onnes 3206
press 3204
best 3203
ť@@ 3203
cars 3202
Ba 3200
turn@@ 3200
Constitu@@ 3199
invent@@ 3199
fiel@@ 3198
like 3195
stri@@ 3191
publican 3187
hio 3185
fied 3184
population 3184
c. 3182
She 3179
eve 3178
tou@@ 3177
ismo 3175
aint 3173
area 3170
mill@@ 3168
jos 3165
naci@@ 3165
span 3163
riv@@ 3162
epis@@ 3160
hall@@ 3160
airman 3158
Ltd 3157
two 3156
Mary@@ 3155
atem@@ 3153
city 3151
entre@@ 3150
Ha 3149
sir@@ 3147
Wab@@ 3146
ém 3144
place 3139
ered 3130
Kho@@ 3125
đ@@ 3123
aries 3121
xin 3121
elas 3116
hood 3116
ṣ@@ 3116
vision 3113
aji 3106
There 3102
awe 3100
proxim@@ 3100
і@@ 3100
brit@@ 3099
Como 3097
portun@@ 3097
ême 3096
zey 3094
ük@@ 3093
round 3092
fire 3089
@ 3088
bour@@ 3086
Popular 3085
appel@@ 3084
ź@@ 3084
pia 3077
At 3076
udi 3075
usal@@ 3073
tiva 3072
Way@@ 3067
asing 3066
sola 3066
value 3066
Slov@@ 3065
Hai 3063
fili@@ 3059
Febru@@ 3057
amos 3048
deo 3047
active 3046
acid 3045
once 3043
Œ@@ 3042
alta 3039
eski 3038
marc@@ 3036
okia 3034
hui 3032
iwa 3029
determin@@ 3028
about 3024
Rome 3014
Ufa 3014
arios 3013
isia 3009
enfer@@ 3007
suite 3007
Nam 3006
portes 3006
rég@@ 3005
bic@@ 3002
ld 3000
rique 3000
estro 2999
ince 2999
sites 2999
ologne 2998
Braz@@ 2996
cover@@ 2994
concer@@ 2991
ún 2988
rebel@@ 2987
font 2983
host@@ 2983
luk@@ 2982
Ř@@ 2981
trou@@ 2978
intern@@ 2977
siti@@ 2977
sible 2976
oja 2973
Constant@@ 2972
Virgin@@ 2971
tilen 2971
Gé@@ 2968
aging 2968
ustry 2968
nim@@ 2957
sid@@ 2955
abo@@ 2953
have 2953
oles 2953
tee 2953
Her 2950
room 2949
maf@@ 2944
far 2943
endo 2940
presti@@ 2939
י@@ 2939
ché 2934
amu 2932
building 2930
church 2928
cole 2928
dial 2928
virus 2927
cu 2923
bara 2918
pir@@ 2913
simil@@ 2911
contin@@ 2908
icos 2907
daf@@ 2905
rep@@ 2905
retr@@ 2905
okul@@ 2899
times 2899
grave 2892
propri@@ 2889
chas 2888
èse 2888
anik@@ 2884
emia 2881
obst@@ 2879
chez 2872
Ș@@ 2872
ández 2871
simul@@ 2867
scor@@ 2866
ambi 2865
olar@@ 2864
Españ@@ 2863
tidae 2859
essenti@@ 2856
alto 2853
Jesús 2845
nea 2835
ership 2833
öner@@ 2833
ieve 2831
mam@@ 2831
Libr@@ 2830
jaw@@ 2830
opo 2829
mr@@ 2825
μ@@ 2824
ao@@ 2822
ppi 2822
Ouest 2821
iç@@ 2819
acre 2818
hao 2817
Nairobi 2815
lak 2814
ın 2813
anot@@ 2811
infer@@ 2810
aki@@ 2809
eko 2802
Né@@ 2799
cla@@ 2799
tures 2799
wers 2797
mot 2795
dur 2792
Alman@@ 2791
hockey 2790
thern 2790
quel 2789
› 2788
ê 2784
Ḫ@@ 2783
aí@@ 2774
rim 2774
ited 2772
anchi 2770
Mehmet 2764
‹ 2762
ended 2759
Kara 2754
Province 2751
Kik@@ 2747
Mayor 2747
mak 2743
fication 2741
Malay@@ 2739
lati@@ 2736
finales 2733
kat 2727
dó@@ 2724
graphi@@ 2721
doğan 2720
Uk@@ 2716
angi 2716
dice 2713
fem@@ 2707
them 2703
vir 2701
Ä 2700
ʾ@@ 2699
erc@@ 2698
hek@@ 2698
onto 2691
utu 2689
Grec@@ 2688
first 2683
hap@@ 2683
cum@@ 2673
where 2671
2nd 2669
ned 2669
Beş@@ 2667
zar 2665
Vak@@ 2664
ו@@ 2662
190@@ 2654
idos 2653
egio 2648
ply 2648
cab@@ 2639
arak 2638
Pia 2633
muda 2632
lake 2627
Singapore 2626
Minh 2625
fish 2625
ņ@@ 2621
utar@@ 2617
emo 2616
most 2609
coach 2605
onio 2605
Kül@@ 2602
Vladi@@ 2598
rather 2596
By 2595
kaz@@ 2592
monde 2587
bid@@ 2586
esab@@ 2586
vec@@ 2586
Early 2580
chini 2577
agent 2575
fier 2568
kip@@ 2567
sé@@ 2564
least 2562
Uch@@ 2560
drome 2558
too 2558
Lincol@@ 2556
Yaz@@ 2555
alan 2552
mim@@ 2547
Carrera 2545
writing 2544
Baba 2543
Yıl@@ 2542
bir 2542
head@@ 2541
general 2540
lil@@ 2540
global 2539
four 2538
aring 2536
bord 2536
pop@@ 2536
cons@@ 2535
undo 2535
aka@@ 2534
inning 2534
eon@@ 2533
sik@@ 2533
maz 2532
weight 2532
administration 2530
amen@@ 2528
eding 2528
migr@@ 2528
ío 2528
kaf@@ 2527
pes@@ 2527
pu 2526
emba 2522
pera 2522
México 2519
match 2516
enses 2509
ya@@ 2509
lines 2507
party 2507
tail 2507
barr@@ 2506
Unión 2505
cent@@ 2503
infan@@ 2503
itos 2499
Ej@@ 2497
pion@@ 2497
passage 2494
mula 2489
onge@@ 2489
tí@@ 2489
reas 2487
sovi@@ 2487
clus@@ 2484
jit@@ 2481
pec@@ 2480
ambre 2477
edrich 2475
mini 2470
ô 2470
chall@@ 2469
umo 2468
forme 2467
ám@@ 2466
ellas 2464
aş@@ 2463
chev@@ 2462
ques@@ 2462
Mb@@ 2461
20th 2458
études 2458
enty 2456
isis 2456
Kiy@@ 2455
yard 2455
Napo@@ 2454
estat@@ 2453
Mara 2447
public 2447
Anc@@ 2446
cara 2446
leri 2444
azo 2443
student 2443
ď@@ 2440
Alab@@ 2438
Conseil 2437
ected 2433
Harv@@ 2432
Ayr@@ 2429
impres@@ 2427
ṭ@@ 2425
requ@@ 2424
éo 2423
result@@ 2416
sis@@ 2412
ş 2410
latter 2409
oyn@@ 2407
ť 2407
superior 2405
atique 2400
ged 2399
lez 2399
afan@@ 2394
Elle 2393
ampi@@ 2392
lı 2392
atür@@ 2388
love 2385
nin@@ 2385
idence 2384
şehir 2384
acer@@ 2383
ã 2380
tero 2376
imba 2375
raz@@ 2371
ép@@ 2371
lares 2370
Sin 2369
etin 2369
mix@@ 2364
Occ@@ 2360
gön@@ 2360
ceph@@ 2359
source 2355
force 2354
good 2353
sai 2353
α@@ 2353
June 2352
oti 2351
yla 2349
lek 2348
undi 2348
Other 2347
ús@@ 2346
Diy@@ 2342
oku@@ 2342
esos 2339
général 2339
Oly@@ 2337
français 2337
ted@@ 2334
honor@@ 2328
mai 2325
tut@@ 2324
Catholic 2323
Türk 2322
sif 2321
campus 2315
kaya 2313
ngu@@ 2312
play@@ 2310
shar@@ 2308
mov@@ 2299
umbo 2297
hip@@ 2294
Thu@@ 2293
ondo@@ 2292
pá@@ 2292
Ave@@ 2289
centr@@ 2289
bell 2286
sibl@@ 2285
extra@@ 2283
fam@@ 2283
oking 2283
ır@@ 2282
alism 2281
player 2280
sey@@ 2277
tales 2277
pik 2274
libr@@ 2267
religion 2266
γ 2265
fils 2264
evi 2263
music@@ 2263
municipio 2261
icha 2259
zas 2253
Comité 2252
year 2252
eté 2250
Ecu@@ 2248
ık@@ 2245
Ai 2243
optera 2243
vy@@ 2238
Egyp@@ 2237
armes 2237
indo 2236
mars 2236
olar 2234
ağ@@ 2231
ingia 2230
logo 2222
flav@@ 2220
ions 2220
costa 2219
nou@@ 2218
quot 2218
cut@@ 2217
ded 2213
Xu@@ 2212
pierre 2209
uza 2209
Gord@@ 2208
eing 2203
sed 2203
Deux 2197
teri 2197
cross 2194
Educ@@ 2193
Histoire 2192
score 2188
dose 2184
Nueva 2183
imini 2182
ête 2180
magazine 2179
cav@@ 2174
cina 2173
pris@@ 2171
atre 2169
XIII 2168
Con 2167
tai 2167
‑ 2167
apti@@ 2164
atas@@ 2164
ré 2161
yok@@ 2159
né@@ 2157
aji@@ 2156
vend@@ 2155
cartes 2154
templ@@ 2152
later 2151
aking 2148
cula 2147
INSE@@ 2143
Santi@@ 2143
egu@@ 2142
Hay 2140
axe 2139
ainst 2137
idential 2135
isti 2133
yu@@ 2133
transfer 2131
Janu@@ 2129
alogue 2128
tepe 2127
ık 2123
aal@@ 2122
space 2122
Argentina 2121
aï@@ 2118
ů 2117
zona 2114
ə 2114
Atl@@ 2106
aliforni@@ 2102
liqu@@ 2102
cell 2100
power 2098
permi@@ 2096
river 2094
genre 2092
mic@@ 2092
dini 2091
Champi@@ 2090
üz@@ 2090
Rus 2089
trong 2088
21@@ 2087
mé 2086
Cuba 2084
aling 2083
commun@@ 2083
jou@@ 2083
saat 2076
technique 2076
ś 2074
scar 2072
Escuela 2069
Yes@@ 2068
hop 2065
onnement 2065
ought 2062
word 2056
œur 2054
ğ 2053
oteca 2050
vall@@ 2049
Yer@@ 2047
edition 2047
ément 2046
Se 2043
histoire 2041
Linc@@ 2037
quier 2036
sera 2036
tés 2032
ís@@ 2031
uko 2029
she 2026
bele 2017
aper@@ 2016
topl@@ 2016
habit@@ 2013
hiv@@ 2011
kay@@ 2010
only 2010
rière 2008
single 2007
Büyük@@ 2006
íos 2006
ка 2006
xim@@ 2002
Ahmet 1999
wide 1999
aran 1995
pal 1993
Ce 1992
avec 1987
endra 1986
reci@@ 1983
aş 1982
due 1982
bres 1981
scre@@ 1981
cau@@ 1980
iev@@ 1979
origen 1976
Telev@@ 1975
aje 1975
rim@@ 1974
Another 1973
kwa 1970
ked 1969
algo 1967
Ley 1966
ος 1966
aras@@ 1962
They 1957
emos 1954
kati@@ 1953
ète 1953
cent 1951
Í 1950
lidae 1948
Э@@ 1947
Uru@@ 1946
yel@@ 1943
meil@@ 1941
≈ 1940
trib@@ 1937
hac@@ 1935
roi 1934
wana 1932
atory 1928
Okul@@ 1927
geri 1926
üs 1926
eos 1924
hay@@ 1923
aque 1922
unas 1921
using 1919
eja 1918
elev@@ 1918
enca 1918
ım 1918
led 1915
dipl@@ 1913
apr@@ 1912
Estado 1910
avant 1906
èque 1905
ónica 1904
tores 1901
venir 1901
ır 1901
izi 1900
piano 1900
usha 1899
aña 1896
staff 1896
una@@ 1895
educ@@ 1894
bey@@ 1893
fore 1893
ebu 1892
oci@@ 1891
lac 1889
baz@@ 1888
þ@@ 1887
seud@@ 1886
istic 1885
session 1884
Develop@@ 1883
diam@@ 1880
tant 1880
ù@@ 1877
XVI 1876
® 1876
Liver@@ 1875
stop 1875
ativa 1873
gal 1873
eshi 1871
ifu 1871
Canton 1868
care 1868
yaz@@ 1865
Minnes@@ 1864
Ni 1862
orod@@ 1860
conn@@ 1859
aliste 1858
--@@ 1850
cycl@@ 1850
deriv@@ 1850
pino 1850
plays 1850
tren@@ 1850
ample 1847
usu 1846
Guerra 1845
pré@@ 1839
ungo 1836
rée 1835
sound 1835
avy@@ 1834
case 1833
semi 1833
celles 1829
veau 1829
éré@@ 1828
alista 1824
zek@@ 1822
reli@@ 1821
XV 1820
echo 1820
Chart 1819
publ@@ 1815
Nobel 1812
ï 1811
kho@@ 1810
transform@@ 1810
çal@@ 1810
metal 1808
model 1806
coll@@ 1805
Sept@@ 1804
kia 1804
made 1804
hes@@ 1797
shot 1795
vig@@ 1792
bomb@@ 1790
adv@@ 1788
Estudi@@ 1783
kim 1781
Т@@ 1781
type 1780
qu 1778
ē 1773
ión 1769
zoni 1768
appro@@ 1767
acter@@ 1766
idental 1766
whe@@ 1766
sof@@ 1765
destin@@ 1762
anak@@ 1760
iliano 1757
seri 1756
σ 1756
milieu 1755
iran 1754
antu 1753
dos@@ 1751
senti@@ 1748
symb@@ 1745
terres 1745
isme 1744
indi 1743
iria 1740
gart 1731
Señ@@ 1730
inti@@ 1729
sci@@ 1728
ǧ@@ 1725
corps 1724
XVII 1720
hous@@ 1720
sanc@@ 1718
endis@@ 1714
Fuer@@ 1712
odi 1710
diffus@@ 1709
Campeonato 1708
lemente 1707
firm@@ 1698
faire 1695
poin@@ 1694
adores 1693
prises 1691
Grupo 1689
appe@@ 1689
prit 1689
Some 1688
Chu 1687
cic@@ 1684
paro@@ 1684
tly 1684
techni@@ 1683
Türkiye 1682
Eyl@@ 1681
dance 1681
yam@@ 1681
Rural 1680
But 1679
forma 1679
ata@@ 1678
homme 1678
guerre 1675
pero 1675
Sociedad 1673
pis@@ 1672
journal 1667
partment 1666
tiques 1665
Indonesia 1662
bras 1662
genes 1662
ì@@ 1661
א@@ 1660
î 1657
thé@@ 1654
sched@@ 1653
Ligi 1652
kari 1651
base 1648
invas@@ 1646
arding 1644
ectiv@@ 1644
Ḥ@@ 1643
ases 1642
cian 1641
histori@@ 1641
event 1640
igher 1638
Hamil@@ 1637
estas 1635
esha 1634
prior 1634
just 1631
mano 1631
relativ@@ 1630
ıy@@ 1629
erken 1628
territ@@ 1626
Aun@@ 1625
tof@@ 1625
С@@ 1624
Municipal@@ 1622
Represent@@ 1622
quan 1622
ific@@ 1621
yet 1619
laya 1618
lique 1612
kid@@ 1607
monte 1604
qué 1604
clav@@ 1600
cá@@ 1600
noi 1598
rut@@ 1598
ezo 1597
ngh@@ 1594
rend@@ 1594
angle 1593
tered 1593
parts 1590
rue 1588
aises 1585
ied 1583
their 1583
adora 1582
who 1582
puis 1579
ân 1575
nde@@ 1573
euse 1572
through 1572
micro@@ 1570
train 1570
Ya 1565
XIV 1564
buil@@ 1564
akawa 1560
tam 1560
tep@@ 1560
umu 1560
wale 1560
manus@@ 1559
étr@@ 1557
w.@@ 1556
wam@@ 1556
illos 1555
uwe@@ 1551
lá 1550
puer@@ 1549
ר@@ 1548
alim@@ 1547
cru@@ 1547
ük 1547
ayi 1546
may 1545
vita 1545
porting 1544
afi 1542
dix 1541
eş@@ 1541
market 1541
önem@@ 1541
ağı 1540
saw 1538
Olimpi@@ 1537
weng@@ 1537
rail 1536
lun@@ 1535
Burundi 1534
cut 1534
alian 1527
double 1527
Ā@@ 1527
át 1526
anzo 1525
forts 1523
rur@@ 1523
return 1520
Barcel@@ 1519
laun@@ 1517
vé@@ 1517
people 1516
etos 1515
β@@ 1513
nership 1512
break 1510
tah@@ 1509
amba@@ 1508
Genç@@ 1507
speed 1507
İstanbul 1507
`@@ 1506
aday 1506
hii 1506
istem@@ 1506
ubic@@ 1504
dres 1502
ț 1502
omba 1501
Dar 1499
temps 1499
¹ 1499
pre 1497
revision 1497
duc 1496
verdi 1493
Müs@@ 1492
hit 1491
anian 1490
çe 1488
Guin@@ 1485
faz@@ 1485
bed 1484
konn@@ 1484
ς 1483
ayı 1482
dül@@ 1482
Russian 1481
iny@@ 1481
septi@@ 1478
odo 1477
theast 1477
XVIII 1476
départem@@ 1474
enzi 1474
Allem@@ 1473
Mp@@ 1473
corpor@@ 1473
terrain 1473
incorpor@@ 1470
cil@@ 1469
istère 1469
leo 1469
uras 1468
ending 1464
kali 1463
kata 1463
down@@ 1458
wap@@ 1458
some 1456
grande 1455
timents 1455
tán 1455
Lan 1454
éré 1452
út 1452
Nguyễn 1451
lors 1450
Una 1446
íncipe 1446
recherche 1445
Boliv@@ 1444
Fútbol 1442
מ@@ 1440
issement 1439
yana 1438
istas 1437
République 1433
villes 1433
argent 1432
asons 1432
tad 1432
İl@@ 1432
gether 1430
́ 1429
tif 1425
Δ@@ 1424
ách 1423
ա@@ 1423
wake 1422
Eliz@@ 1421
Spain 1421
ilan 1420
proven@@ 1418
fantas@@ 1417
urban 1417
gian 1412
lost 1412
ż 1412
estruc@@ 1410
æ 1410
ל@@ 1410
level 1407
tante 1403
with@@ 1401
awa@@ 1398
envi@@ 1398
yab@@ 1398
ombo 1397
iness 1396
Mosco@@ 1395
izo 1394
canal 1393
onidae 1393
ray@@ 1393
Greek 1387
Mw@@ 1386
ʿ 1383
Karnataka 1382
promot@@ 1382
Para 1381
Paragu@@ 1381
evin 1379
scienti@@ 1376
business 1375
Église 1374
princip@@ 1372
osu 1371
ède 1371
tionn@@ 1370
Palest@@ 1367
baj@@ 1367
which 1367
econom@@ 1366
allem@@ 1365
yal 1365
ʾ 1365
origine 1364
λ 1361
hik@@ 1359
Ira@@ 1356
ivo 1355
pand@@ 1355
Aş@@ 1352
bom 1352
esqu@@ 1352
class@@ 1351
ablo 1350
eye 1350
lista 1350
â 1349
comes 1348
kül@@ 1348
tillo 1348
aught 1347
Gök@@ 1344
elik 1344
election 1343
vit 1343
cet 1342
köy 1342
XIX 1339
fera 1339
free 1339
yat 1339
сь@@ 1339
Futbol 1336
Parliament 1336
mek 1336
asim@@ 1334
gence 1333
Spanish 1332
В@@ 1332
ский 1332
aciones 1331
inh 1331
abaj@@ 1330
color 1329
lée 1328
ference 1327
imbo 1326
simple 1326
ası 1325
galak@@ 1325
Queens@@ 1324
ıl@@ 1323
image 1321
what 1321
hid@@ 1319
ungu 1318
་ 1318
sali@@ 1317
yol@@ 1317
anted 1314
ש@@ 1310
Ć@@ 1309
İn@@ 1308
sition 1306
amento 1305
batt@@ 1305
afu@@ 1304
passe 1304
musical 1301
etk@@ 1300
many 1300
omel@@ 1299
upo 1299
musique 1298
dée 1295
ǎ@@ 1295
ב@@ 1295
bul 1294
Lai 1292
divi@@ 1292
ährend 1292
Emper@@ 1291
carr@@ 1291
élé@@ 1291
orta 1290
Ľ@@ 1289
istre 1286
there 1286
opposition 1284
3.5 1283
amor 1282
Era 1280
rév@@ 1280
laz@@ 1279
rar 1278
niti@@ 1276
rar@@ 1276
té@@ 1276
wth 1276
cera 1274
clu@@ 1274
pendiente 1273
cias 1272
unia 1272
् 1272
http 1271
Kich@@ 1269
estar 1269
rí@@ 1269
ν 1269
endre 1268
éné@@ 1268
Yen@@ 1267
pez 1267
kiş@@ 1264
lili@@ 1264
resol@@ 1264
Ž 1264
lead@@ 1263
ólica 1261
180@@ 1259
afric@@ 1259
fici@@ 1259
assemb@@ 1257
impro@@ 1257
cid@@ 1256
Hymen@@ 1255
endas 1254
taines 1254
yet@@ 1253
anzi 1252
atta@@ 1250
high 1250
Kır@@ 1248
arrang@@ 1246
xo@@ 1245
úa 1244
huy@@ 1243
ļ@@ 1243
conc@@ 1241
gör@@ 1241
oine 1241
República 1239
tish@@ 1238
ezi 1237
investig@@ 1237
Italian 1234
pay@@ 1233
А@@ 1229
home 1228
ulan 1228
Uy@@ 1227
uzi 1227
yü@@ 1226
ˈ@@ 1226
Ağ@@ 1225
atini 1225
egos 1225
went 1225
tries 1224
¼ 1222
dej@@ 1221
Japanese 1220
xu@@ 1219
óg@@ 1216
leurs 1215
young 1215
popular@@ 1214
192@@ 1213
power@@ 1213
when 1213
inat@@ 1212
só@@ 1212
Colombia 1211
util@@ 1210
Doğ@@ 1209
others 1209
éta@@ 1208
comm@@ 1207
sub 1206
suc@@ 1206
^ 1204
imiento 1204
perform@@ 1204
petit 1204
Syria 1203
giz@@ 1202
suit 1201
bé@@ 1200
actions 1198
story 1198
Russia 1197
hips 1196
mch@@ 1196
Ə@@ 1196
beau@@ 1193
conf@@ 1192
loi 1192
sans 1192
uu 1192
Sov@@ 1191
öy 1191
δ 1191
inan@@ 1190
mais 1190
в@@ 1190
Paci@@ 1189
umes 1188
Phi 1186
hasa 1186
vos 1185
на 1184
Waj@@ 1183
ą 1183
mois 1182
Baş@@ 1181
ded@@ 1180
ecia 1180
speci@@ 1179
rural 1177
cost@@ 1173
forc@@ 1172
gaz@@ 1172
İs@@ 1172
ifa 1171
season 1171
Entre 1165
dida 1163
mz@@ 1163
Ó 1163
pose 1162
clo@@ 1161
jia 1161
dispon@@ 1160
iques 1160
lieutenant 1160
visit@@ 1160
abra 1159
coming 1158
hospital 1158
tér@@ 1158
juli@@ 1157
ologique 1157
sino 1156
Partisi 1155
legisl@@ 1155
unit 1155
bora 1154
culp@@ 1154
carri@@ 1153
aşa 1152
produc@@ 1152
ları 1151
acqu@@ 1150
lai 1148
Mei 1147
deux 1147
ict 1147
Wam@@ 1145
eño 1145
apon 1143
Nguy@@ 1142
abeth 1140
mey@@ 1140
の@@ 1140
page 1139
ım@@ 1139
Castilla 1138
anese 1138
coul@@ 1138
encu@@ 1138
naf@@ 1138
puls@@ 1137
Kenya 1132
cular 1132
⚭ 1131
大@@ 1131
Köy 1130
each 1130
pru@@ 1130
Mart 1128
izin 1128
Found@@ 1126
unu 1125
hak 1123
inu 1122
eces 1120
take 1120
Qué@@ 1119
atif 1119
plac@@ 1119
р@@ 1119
emu 1117
Benjam@@ 1116
ghi 1116
section 1116
luk 1115
observ@@ 1115
enton@@ 1114
thre@@ 1114
º 1113
π 1112
Yoh@@ 1111
ched 1111
ḍ@@ 1111
acab@@ 1110
oil 1110
size 1110
ה@@ 1110
ored 1109
limited 1108
ibi 1107
japon@@ 1107
jeune 1107
Yay@@ 1106
ε 1106
been 1105
jard@@ 1104
Ț@@ 1103
О@@ 1103
aray 1102
fédér@@ 1102
Sist@@ 1101
ibu 1099
gare 1098
acts 1097
erse 1097
נ@@ 1097
ús 1096
figh@@ 1095
poss@@ 1095
Amér@@ 1093
Garc@@ 1091
wahili 1088
Arap@@ 1087
chap@@ 1087
ided 1087
white 1087
ística 1087
δ@@ 1087
laborat@@ 1086
vania 1085
yor 1084
waj@@ 1083
enek@@ 1082
gün 1080
isión 1077
ınar 1077
xima 1076
Bien 1075
conqu@@ 1075
ız 1075
late 1074
itable 1073
kiz@@ 1072
most@@ 1072
Nh@@ 1070
expression 1070
food 1070
ָ@@ 1070
birliği 1069
zeng@@ 1069
eci 1068
groups 1068
镇 1068
àn 1067
editor 1066
jazz 1066
uku@@ 1065
known 1064
ÿ 1064
edonia 1062
ateurs 1060
miz@@ 1060
bán 1059
maire 1059
soft 1059
game 1057
near 1057
osha 1056
otur@@ 1054
ω 1054
Escu@@ 1053
politiques 1052
État 1052
grand 1050
adver@@ 1048
theory 1048
çi 1048
ambu@@ 1047
scope 1046
intro@@ 1045
voy@@ 1042
Wali@@ 1041
mento 1041
ím@@ 1039
onné 1038
ónom@@ 1038
second 1037
offic@@ 1036
Ön@@ 1035
usta@@ 1034
isant 1033
natural 1033
alth 1032
rais 1032
books 1031
diers 1029
envir@@ 1028
Asociación 1027
align 1026
ſ@@ 1026
actor 1025
islas 1025
ped 1025
↑ 1025
dedi@@ 1024
franch@@ 1024
indic@@ 1024
otra 1024
rés@@ 1024
atro 1020
elik@@ 1019
iteur 1018
tart@@ 1018
week 1018
amia 1016
atika 1015
vac@@ 1015
placed 1011
Д@@ 1011
‐ 1010
fie 1009
pont 1009
estudio 1008
missions 1006
iş@@ 1005
plut@@ 1005
vide 1005
municipal 1004
Nair@@ 1002
coron@@ 1002
üre@@ 1001
ÿ@@ 1001
inco 1000
Kig@@ 998
démoc@@ 998
sede 998
М@@ 996
Nouv@@ 995
isim@@ 994
kek 994
rul@@ 994
cali@@ 993
ulus@@ 990
aged 989
dır@@ 988
ñas 988
Bu 987
embe 983
reo 983
κ@@ 983
jour 982
rights 981
capit@@ 980
régi@@ 980
full 979
woman 979
alum@@ 978
isine 978
radic@@ 978
alar 977
Tube 974
fique 974
Tierra 973
Л@@ 973
vili@@ 972
artisti@@ 971
director 971
yesi 969
census 968
black 967
lance 967
trade 966
ה 966
social 965
Sous 964
inclu@@ 964
etu 960
common 959
sebe@@ 959
ός 958
ehir 957
ingi 957
termine 957
Yeni 956
Buna 955
kura 955
services 955
ún@@ 955
У@@ 954
Cathol@@ 953
Deniz 953
aguas 951
news 951
serve 951
volon@@ 951
ע@@ 951
0s 950
ativo 950
nne 950
web 950
kuk 948
special 948
Bir 947
yum 945
Olí@@ 944
ofu 944
ль@@ 944
requi@@ 943
celle 942
près 941
kuf@@ 940
historia 939
miles 939
cim@@ 938
ería 938
make 938
Ω 938
anach@@ 937
soon 937
wanda 937
human 936
château 935
enant 935
Р@@ 935
libre 934
ucion@@ 934
ác 933
Lê 932
civil 932
encias 931
siz 931
simpl@@ 930
three 929
1.5 927
essed 927
pek 926
éti@@ 926
days 925
onnat 925
angu 924
azz 924
sold 924
с@@ 924
obra 923
П@@ 920
Afrique 918
aving 918
sana 917
↔ 917
kik@@ 916
pain@@ 914
Sau 913
ecti@@ 913
ġ@@ 912
sine 911
tay 908
crit@@ 907
dola 907
γ@@ 907
yap@@ 905
fé@@ 903
working 903
─ 903
muz@@ 902
basket@@ 901
р 900
ised 899
Â@@ 899
term 898
bire@@ 897
function 897
igos 897
и 895
Quan 893
ferro@@ 893
hiwa 892
Α@@ 891
wed 889
depend@@ 888
little 887
entre 886
ized 885
umia 885
ű@@ 882
И@@ 882
Guatem@@ 881
used 881
Waz@@ 880
afin 880
hoa 880
1,0@@ 879
ét 879
conseil 877
never 877
¾ 877
control 875
Yard@@ 874
----@@ 873
performance 873
ּ@@ 873
Perú 872
history 872
Presidente 871
ד@@ 871
∞ 871
course 870
foc@@ 870
https 870
tesp@@ 870
Г@@ 870
Durant 866
littér@@ 866
да 866
cada 865
générale 865
rend 865
science 865
ticas 865
ayed 864
ağ 864
ον 863
ará 862
ebook 862
essee 862
в 862
Kati 861
deal 861
н@@ 861
cycle 860
fico 860
hé@@ 860
would 859
report 858
hér@@ 857
adal@@ 854
fér@@ 854
к 853
beri 852
hala 852
yük 851
êque 851
arro@@ 849
ц@@ 849
ְ@@ 849
chart 845
ifs 845
yana@@ 845
ḥ 844
alled 842
based 842
tiles 842
uş@@ 842
cier@@ 841
iye 841
nú@@ 841
onu 841
Congo 840
ectu@@ 840
grou@@ 840
points 840
pron@@ 840
ói 840
Kızıl@@ 839
friend 839
ţ@@ 839
atwa 838
nuc@@ 838
Israeli 837
constitu@@ 835
maison 835
lywood 833
ités 832
Famil@@ 831
bronze 831
ν@@ 829
mundo 828
nucle@@ 828
possible 827
pant@@ 824
eñ@@ 823
üş@@ 823
Σ@@ 823
progr@@ 820
cathol@@ 818
pris 818
ŭ@@ 818
approxim@@ 817
contra 817
idades 817
ticia 817
nok@@ 816
Σ 816
americano 815
causa 815
turn 815
cion@@ 814
siè@@ 813
Pennsyl@@ 812
acial 812
without 812
Brazil 810
mana 810
cual 804
mbal@@ 803
parti 803
Ül@@ 803
alı 802
irse 802
ilim@@ 801
İzmir 801
kud@@ 800
Üniversitesi 800
être 800
Feb@@ 798
ained 798
ecto 798
rir 798
sos@@ 798
tival 798
unos 798
σ@@ 798
azine 797
Une 796
ích 796
я 796
edad 795
fica 795
princ@@ 795
reve@@ 795
direc@@ 794
asker@@ 793
comte 793
Italy 792
sant@@ 791
sud 791
Consejo 790
Categ@@ 789
quay 789
л@@ 788
д@@ 786
bea 785
compl@@ 785
between 784
lui 784
wani 784
İz@@ 784
│ 783
arı 782
franç@@ 782
tora 782
山@@ 782
arka 781
Belgique 780
û 780
direkt@@ 779
ested 779
oğ@@ 779
tiy@@ 779
Many 778
uerto 778
ʼ@@ 777
saba 776
both 775
wais@@ 775
yor@@ 773
contempor@@ 771
Philadel@@ 770
ε@@ 770
associ@@ 769
año 768
gé@@ 768
direct 767
Ο@@ 767
anah@@ 766
mort 766
Č 763
会 763
fiction 762
tière 762
eña 761
Akad@@ 760
2.5 759
unci@@ 759
ám 759
≤ 759
ן 758
alized 757
classi@@ 757
jeu 757
años 756
É 756
Ø 756
本@@ 756
day@@ 755
êts 752
Yug@@ 751
aled 751
jina 751
militaire 751
fait 750
ónimo 750
cipe 749
country 749
ulares 749
uma@@ 749
édi@@ 748
м@@ 748
hud@@ 747
pata 747
quier@@ 747
solution 746
π@@ 746
ibar 745
novi@@ 745
occident@@ 745
Anadolu 743
ː@@ 743
conv@@ 741
Tam 740
father 740
opin@@ 740
êtes 740
vida 738
ciones 737
dido 737
È@@ 737
illed 735
critic@@ 734
cı 734
landa 734
saire 734
áng 734
cros@@ 733
ח@@ 731
Congr@@ 730
vu 730
ví 730
wez@@ 730
й 729
places 727
promotion 727
ènes 727
λ@@ 727
visible 726
Par 725
those 725
annel 724
kich@@ 723
Ε@@ 723
学@@ 723
estu@@ 722
Iglesia 721
τ@@ 721
enario 720
great 720
日@@ 720
ayar@@ 719
Việt 718
activ@@ 718
aning 718
osas 718
while 718
years 717
clar@@ 716
ografia 715
rej@@ 715
tay@@ 715
் 715
Migu@@ 713
gré 713
wala 713
ַ@@ 713
nhau 712
award 709
Yap@@ 707
bado 707
óm@@ 707
ь 707
alco@@ 705
vu@@ 705
Κ@@ 705
ת 705
úl@@ 704
condi@@ 703
small 703
along 702
offici@@ 702
Dağ@@ 701
Kama 701
runs 700
À 700
neas 699
during 698
sevi@@ 698
天@@ 698
ên 697
Oreg@@ 696
amani 696
Ñ@@ 696
novel@@ 695
posterior 695
élec@@ 695
К@@ 695
aç 694
hospit@@ 694
isiones 694
miento 693
él 693
üz 693
elabor@@ 692
érieur 692
ם 692
pour@@ 691
chemin 690
league 690
attribu@@ 689
adil@@ 688
Ms@@ 687
ôle 687
т 687
ш@@ 687
Oy 686
Career 684
While 684
against 684
anterior 684
around 683
names 683
ь@@ 683
olu 682
portant 682
caus@@ 681
urba@@ 681
ι 681
done 680
Philippines 679
diction 679
ִ@@ 679
dua 678
cide 677
anh 676
trois 676
ucky 676
ра@@ 676
Their 675
başı 673
sona 673
Τ@@ 673
bang 672
imani 672
ufu@@ 670
cil 667
Topl@@ 665
astron@@ 665
ufu 665
ıs@@ 665
sett@@ 664
tario 664
ôt 664
к@@ 664
events 663
lado 663
series 663
Krall@@ 662
greso 662
lir 662
χ@@ 661
commune 660
gol 660
imu 660
wali 660
mash@@ 659
found@@ 658
influ@@ 658
Ermen@@ 657
urdu 657
Б@@ 657
Guerre 656
Văn 656
mita 656
plu@@ 656
vivi@@ 656
issant 655
alidades 654
ongo@@ 654
culo 652
ulaire 652
doba 650
óp@@ 649
basketball 647
community 647
engi 646
meni 646
Š 645
η 645
iled 644
Cór@@ 643
comb@@ 643
ış 643
aî@@ 641
million 641
ל 641
yonel 640
abara 639
govern@@ 639
Califor@@ 637
affa@@ 636
avu 636
kuch@@ 636
polon@@ 636
siz@@ 636
Sus 635
Yük@@ 635
must 635
ukw@@ 635
école 635
ма@@ 635
Siy@@ 634
formed 634
next 634
tropolit@@ 634
Cep@@ 633
supérieur 633
undu 633
Λ@@ 633
ј@@ 633
Noctuidae 632
multiple 632
populaire 632
production 631
ρ@@ 631
better 630
tó 630
khu@@ 629
Eurov@@ 627
incia 627
norte 627
ıl 627
י 627
academ@@ 626
ajes 625
devant 625
football 625
icro@@ 625
royal 624
а 624
н 624
oires 623
écol@@ 623
featur@@ 621
θ@@ 621
Azer@@ 620
some@@ 620
lama 619
much 619
écn@@ 619
Sơn 618
ר 618
Kih@@ 617
Macar@@ 617
explor@@ 617
prince 616
Millî 615
amii 615
embre 615
zed 615
alme 614
Hispania 613
family 613
lég@@ 613
rouge 613
Description 612
Zimbab@@ 612
baba 612
could 612
honneur 612
provid@@ 611
ased 610
entro 610
evento 609
range 609
spect@@ 609
studies 609
Ṣ@@ 609
Mississi@@ 608
compar@@ 608
curr@@ 608
number 608
文@@ 608
amac@@ 607
compos@@ 607
erini 607
ный 607
tip 606
fark@@ 605
rép@@ 605
ἀ@@ 605
ername 604
guit@@ 604
ingly 603
short 603
≥ 603
acias 602
afir@@ 602
five 602
marqu@@ 602
新@@ 602
sent 601
being 600
cription 600
vile 600
ת@@ 600
Merkez 599
going 599
kuj@@ 598
μ 598
acı 597
femme 596
tainment 596
before 595
ρ 595
Francia 594
Poland 594
ambos 594
different 594
gique 594
ológico 594
¡ 594
alik@@ 593
thu 593
étés 592
là 591
anlı 590
grá@@ 590
actu@@ 589
hapa 589
takes 589
т@@ 589
fed@@ 588
langue 588
lý 588
Ι@@ 588
hay 587
manos 587
ṯ@@ 587
language 586
À@@ 586
hô@@ 584
Ngo@@ 583
six 583
Carrière 582
again 581
contre 581
culture 581
prec@@ 581
ская 581
Muhammed 580
estos 580
logr@@ 580
pay 580
suj@@ 580
tema 580
İsk@@ 578
yav@@ 577
espace 576
équ@@ 576
Π@@ 575
Н@@ 575
death 574
issue 573
kij@@ 573
sawa 573
adini 572
onship 571
onya 571
pewa 571
oslav@@ 570
été 570
з@@ 570
ħ@@ 569
פ@@ 569
‎ 569
Gia 568
nous 568
ק@@ 568
ª 567
local 566
arqu@@ 565
give 565
cred@@ 564
е 564
nature 563
species 563
у@@ 563
cán@@ 562
secre@@ 562
Olympics 561
ibles 560
ĸ 560
0,000 558
prac@@ 558
baya 557
esas 557
renov@@ 556
conserv@@ 555
waz@@ 555
có@@ 554
ically 554
kuz@@ 553
luy@@ 553
colum@@ 552
і 552
ṭ 552
embargo 551
sement 551
Congreso 548
company 547
merc@@ 547
Cumhuriy@@ 546
ambas 546
armée 546
stations 546
ո@@ 546
₂ 546
issu@@ 545
‒ 545
Actu@@ 544
education 544
study 544
ympi@@ 544
ǐ 543
atiques 542
discipl@@ 540
soka 539
positions 538
yem@@ 538
ни@@ 538
ilities 536
ー@@ 536
addition 535
research 535
moun@@ 534
ños 533
kea 532
uzo 532
ː 531
October 530
ɛ@@ 530
כ@@ 529
kua 528
minin 528
ently 527
dici@@ 526
should 526
July 525
anı 525
ayak@@ 525
office 525
pale 525
avoir 524
cito 524
edil@@ 524
с 524
women 523
Μ@@ 523
ви@@ 523
canti@@ 522
cinéma 522
engine 522
istique 522
mpi@@ 522
ordre 522
uç@@ 522
élém@@ 522
mexic@@ 521
opera 521
tör@@ 521
afu 520
población 520
ę 520
aría 519
Alit@@ 518
böl@@ 518
ilik 518
waka 518
cultural 517
deli@@ 517
mada 517
山 517
Dans 516
distribu@@ 516
exec@@ 516
race 516
disco@@ 515
tware 515
conduc@@ 514
sept@@ 514
η@@ 514
ω@@ 514
З@@ 514
Ló@@ 513
Nint@@ 513
regres@@ 513
wali@@ 513
wash@@ 513
φ@@ 513
ր@@ 513
colon@@ 512
dioc@@ 512
droit 512
国@@ 511
ezas 510
leading 510
location 510
mtDNA 509
pair 509
önem 508
ο@@ 508
ız@@ 507
村 507
Loan 506
arac@@ 506
development 506
foot@@ 506
ḏ@@ 506
alité 505
genus 505
г 505
ч@@ 505
casa 504
huo 504
ígen@@ 504
ľ 504
asked 503
ḫ 503
artic@@ 502
func@@ 502
vely 502
abila 501
east 500
find 500
tarak@@ 500
vai 500
ŋ 500
Thanh 499
energy 499
erras 499
franc@@ 499
а@@ 499
ро@@ 498
aband@@ 497
divid@@ 497
lanc@@ 497
ología 497
pied 497
п@@ 497
中国@@ 497
clos@@ 496
koa 496
xem 496
adém@@ 495
hale 495
member 495
oría 495
óc 495
üç@@ 495
ва 494
abier@@ 493
hali@@ 493
pped 493
東@@ 493
señ@@ 492
ŋ@@ 492
registr@@ 491
ǫ@@ 491
begin 490
noche 490
ución 490
ṇ@@ 489
frances@@ 488
lés 488
maî@@ 488
ılar 488
publique 487
Later 486
beledi@@ 486
idente 486
unidad 486
ào 486
Conse@@ 485
games 485
umma 485
construc@@ 484
nje 484
zonas 484
Adem@@ 483
americ@@ 483
artist 483
三@@ 482
gestion 481
prix 481
future 479
ığ@@ 479
chief 478
iture 478
otball 478
six@@ 478
agit 477
Δ 477
isho 476
princi@@ 476
Ď@@ 476
Kale 475
said 475
second@@ 475
umani 475
ticos 474
voie 474
ǔ 474
más 473
я@@ 473
hava 472
о@@ 472
Ethiop@@ 471
making 471
unca 471
eyen 470
г@@ 470
does 469
lü 469
tout 469
abab@@ 468
ა@@ 468
ķ@@ 466
ж@@ 466
hali 465
money 465
allow 464
д 464
й@@ 464
central 463
four@@ 463
peu 463
Nguyên 462
parish 462
atac@@ 461
benef@@ 461
coloni@@ 461
ously 461
ли@@ 461
gó@@ 460
title 460
ww@@ 460
ış@@ 460
Bình 459
fonso 459
工@@ 459
const@@ 458
ekonom@@ 458
ispo 458
joint 458
meeting 458
mev@@ 458
м 458
large 457
correc@@ 456
organiz@@ 456
Allemagne 455
crimin@@ 455
document@@ 454
forms 454
kli 454
structure 454
manifest@@ 453
political 453
Ч@@ 453
Anh 452
gran 452
khi 452
ached 451
every 451
yol 451
reduc@@ 450
вка 450
б@@ 449
ло@@ 449
cour 448
district 448
femmes 448
polic@@ 448
traditionn@@ 448
Kif@@ 447
colspan 447
placement 447
zey@@ 447
高@@ 447
cens@@ 446
hadi 446
mite 446
nh 446
schools 446
hosp@@ 445
ría 445
της 445
ре@@ 445
ское 445
Muhar@@ 444
maya 444
évision 444
ֶ@@ 444
ン@@ 444
Ivoire 442
Jeux 442
Quang 442
biy@@ 442
fight 442
town@@ 442
èmes 442
ṣ 442
美@@ 442
Kazak@@ 441
plaz@@ 441
signe 441
canc@@ 440
çı 440
ы@@ 440
alismo 439
early 439
need 439
Ко@@ 439
ế 439
crim@@ 438
giy@@ 438
justice 438
Е@@ 438
anii 437
there@@ 437
Ν@@ 437
не 437
because 436
consult@@ 436
ectura 436
quy 436
ъ 436
chac@@ 435
trique 435
guar@@ 434
née 434
round@@ 434
科@@ 434
Ciud@@ 433
arlo 433
comi@@ 432
critique 432
disco 432
persona 432
ֹ@@ 432
Ninh 431
ekler 431
Paşa 430
Pero 430
gén@@ 430
junto 430
Kuna 429
entras 429
episode 429
ived 429
ски 429
х@@ 429
Ṭ@@ 429
西@@ 429
ẓ@@ 428
№ 428
ministr@@ 427
ıt 427
ή 427
φ 427
ἐ@@ 427
Its 426
limit@@ 426
parec@@ 426
project 426
çu 426
ла@@ 426
一@@ 426
acces@@ 425
moto 425
much@@ 425
Por 424
architecture 424
effect 424
children 423
jini 423
ե@@ 423
Tây 422
government 422
voz 422
elected 421
found 421
near@@ 421
א 421
術@@ 421
lise 420
pays 420
aily 418
champi@@ 418
ǐ@@ 418
Φ@@ 418
ία 418
Nisan 417
Mt@@ 416
ג@@ 416
disput@@ 415
summer 415
ülk@@ 415
Ǧ@@ 415
За@@ 415
inah@@ 414
states 414
мо@@ 414
Yaş@@ 413
italiano 413
úbl@@ 413
continu@@ 412
modèle 412
naval 412
ordu 412
père 412
rement 412
consci@@ 411
yani 411
fille 410
ί@@ 410
ס@@ 410
中@@ 410
Première 409
adhi 409
andan 409
城@@ 409
Italie 408
ayna 408
ecek 408
iones 408
ogle 408
seli 408
Seconde 407
cultur@@ 407
timi 407
charg@@ 406
commerce 406
lao 406
jour@@ 405
üş 405
京@@ 405
oce 404
õ 404
南@@ 404
Kuv@@ 403
ğr@@ 403
Ма@@ 403
` 402
đe 402
но@@ 402
durum 401
iente 401
paci@@ 401
Ц@@ 401
на@@ 401
ailleurs 400
mej@@ 400
ximo 400
ɔ@@ 400
ная 400
王@@ 400
alya 399
together 399
tous 399
ulit@@ 399
vive 399
ôn 399
út@@ 399
Β@@ 399
indépend@@ 398
senc@@ 398
electr@@ 397
ка@@ 397
accoun@@ 396
hoy 396
А 396
aam 395
seis 395
wanza 395
ŵ@@ 395
Mch@@ 394
cional 394
estudios 394
high@@ 394
hommes 394
ouvent 394
police 394
ít 394
С 394
ably 393
Χ@@ 393
™ 393
学校 393
individ@@ 392
polí@@ 392
relig@@ 392
tours 392
̯ 392
вич 392
cela 391
centrale 391
dico 391
muh@@ 391
ût 391
communic@@ 390
complex 390
process@@ 390
recogni@@ 390
record 390
square 390
ט@@ 390
hari@@ 389
records 389
ն@@ 389
mittee 388
sculp@@ 388
Ī@@ 388
ι@@ 388
о 388
dows 387
寺 387
Bağ@@ 386
Thị 386
desc@@ 386
parator@@ 386
secund@@ 386
צ@@ 386
access 385
allemand 385
ко@@ 385
aument@@ 384
echa 384
neş 384
œuvre 384
Salaam 383
eyi 383
ficio 383
meas@@ 383
ǒ@@ 383
como 382
comun@@ 382
irik@@ 382
haya 381
lık 381
related 381
οι 381
Geometridae 380
Juegos 380
ikia 380
oyun@@ 380
premier 380
réalis@@ 380
hup@@ 379
ición 379
до@@ 379
研究@@ 379
combin@@ 378
network 378
île 378
Ħ@@ 378
ων 378
ῖ@@ 378
current 377
support 377
uş 377
не@@ 377
move 376
podr@@ 376
yay@@ 376
ρος 376
го@@ 376
и@@ 376
子@@ 376
Ejército 375
gauche 375
poder 375
isla 374
qued@@ 374
village 374
⅔ 374
llam@@ 373
college 372
larg@@ 372
во@@ 372
application 371
asik 371
ayd@@ 371
fav@@ 371
mother 371
âce 371
another 370
arron@@ 370
mée 370
seven 370
économ@@ 370
К 370
Nyan@@ 369
aliy@@ 369
frac@@ 369
gaz 369
hors 369
По@@ 369
Hata 368
adı 368
dire 368
itions 368
transl@@ 368
Reino 367
güc@@ 367
repe@@ 367
zwa 367
dair 366
décor@@ 366
inay@@ 366
э@@ 366
Hoa 365
cero 365
excep@@ 365
reno 365
dado 364
escu@@ 364
guerra 364
ieron 364
mif@@ 364
cai 363
elecciones 363
üçük 363
eneo 362
enfants 362
eures 362
ıca 362
Со@@ 362
Ordu 361
diye 361
living 361
novel 361
vard@@ 361
ει@@ 360
ately 359
cultura 359
ն 359
matches 358
ológ@@ 358
process 358
Γ@@ 358
program 357
propi@@ 357
usu@@ 357
海@@ 357
dari 356
proper@@ 356
ве@@ 356
Trần 355
wenda 355
azim@@ 354
ῶ@@ 354
Hồ 353
farm@@ 353
Õ@@ 353
Ка@@ 353
iğ@@ 352
yeri 352
е@@ 352
ри@@ 352
doğ@@ 351
ле@@ 351
oldu@@ 350
present@@ 350
л 350
ла 350
⁄ 350
Dương 349
present 349
小@@ 349
angwa 348
aître 348
carte 348
ngo@@ 348
İş@@ 348
December 347
Gobierno 347
européenne 347
yoğ@@ 347
abras 346
terior 346
within 346
şe 346
θ 346
Hà 344
experi@@ 344
petite 344
sita 344
table@@ 344
ɪ@@ 344
Α 344
ας 344
安@@ 344
石@@ 344
alich@@ 343
ehri 343
Égl@@ 343
στ@@ 343
amini 342
background 342
cath@@ 342
entaire 342
kama 342
villages 342
week@@ 342
τος 342
то@@ 342
Asoci@@ 341
circ@@ 341
emple 341
equi@@ 341
unzi 341
ֵ@@ 341
堂 341
criv@@ 340
dif@@ 340
kı 340
sionn@@ 340
tarde 340
dispar@@ 339
politique 339
roul@@ 339
Я@@ 339
esine 338
iyi 338
ва@@ 338
acked 337
anay@@ 337
close 337
ilere 337
insec@@ 337
turas 337
hata 336
lowing 336
rece@@ 336
sanat@@ 336
tivities 336
written 336
М 336
ки 336
县 336
assistant 335
baş 335
livre 335
minde 335
ы 335
charge 334
⅓ 334
Ngô 333
built 333
conver@@ 333
kani 333
laka 333
llev@@ 333
sobre 333
µ 333
се@@ 333
osos 332
人@@ 332
century 331
ogoro 331
у 331
día 330
Turkana 329
ancı 329
ikit@@ 329
kush@@ 329
ǔ@@ 329
Ayn@@ 328
Orta 328
initial 328
signed 328
ʔ@@ 328
ης 328
址 328
espec@@ 327
ople 327
travail 327
umbe 327
民@@ 327
heavy 326
help 326
réc@@ 326
ública 326
ű 326
Ми@@ 326
гро@@ 325
Phong 324
divers 324
ducation 324
encore 324
κ 324
Hiv@@ 323
emble 323
empe@@ 323
given 323
ό@@ 323
kır@@ 322
vue 322
vér@@ 322
zh 322
ď 322
Tanzania 321
auti 321
teriores 321
ια 321
υ@@ 321
ệm 321
voix 320
òn 320
ი@@ 320
fich@@ 319
island 319
où 319
phong 319
Ġ@@ 319
Ρ@@ 319
mkon@@ 318
pou@@ 318
Ф@@ 318
ко 318
Aleks@@ 317
Kupası 317
conse@@ 317
hadi@@ 317
singles 317
veaux 317
子 317
comme 316
heav@@ 316
huri 316
malar@@ 316
sexual 316
家@@ 316
fif@@ 315
acus@@ 314
gouvern@@ 314
menos 314
ográ@@ 314
κα@@ 314
га@@ 314
евич 314
ти@@ 314
agricul@@ 313
ύ@@ 313
сель@@ 313
among 312
echos 312
ellik@@ 312
yako 312
đi@@ 312
aile 311
appr@@ 311
environ@@ 311
fact 311
mang 311
marca 311
movement 311
behind 310
interest 310
quatre 310
sociales 310
¥ 310
ди@@ 310
après 309
partic@@ 309
τ 309
ћ 309
rait 308
spéci@@ 308
ıç@@ 308
degree 307
déc@@ 307
municipalité 307
nouveau 307
quali@@ 307
release 307
response 307
suspen@@ 307
П 307
ansi 306
canton 306
derni@@ 306
déf@@ 306
déj@@ 306
ió 306
obras 306
past 306
regular 306
ustur@@ 306
Đồng 306
В 306
ז@@ 306
autre 305
fá@@ 305
osto 305
wife 305
Ἀ@@ 305
航@@ 305
andır@@ 304
jours 304
represent@@ 304
ülke 304
北@@ 304
Quảng 303
travers 303
， 303
Kuvvet@@ 302
consol@@ 302
kâ@@ 302
médec@@ 302
north 302
umbu@@ 302
金@@ 302
pendant 301
ài 301
elinde 300
jeun@@ 300
munici@@ 300
unidades 300
з 300
ми@@ 300
volun@@ 299
Bahari 298
Soviet 298
certain 298
histór@@ 298
modo 298
thought 298
ǧ 298
Maji 297
called 297
ustos 297
Kore 296
σι@@ 296
circul@@ 295
further 295
Halk 294
Thái 294
arş@@ 294
russe 294
μα 294
☉ 294
atoire 293
nhi@@ 293
policy 293
ά@@ 293
ւ@@ 293
character 292
chré@@ 292
monuments 291
today 291
ình 291
、 291
distribution 290
einture 290
metro 290
seat 290
ıcı 290
田@@ 290
Hải 289
bí 289
compagnie 289
democ@@ 289
dır 289
fully 289
houses 289
յ@@ 289
Biblia 288
ль 288
水@@ 288
Hoàng 287
constr@@ 287
ο 287
上@@ 287
deney@@ 286
gouvernement 286
relations 286
Ж@@ 286
Х@@ 286
comment 285
concept 285
distingu@@ 285
municip@@ 285
restric@@ 285
vur@@ 285
Chama 284
ajou@@ 284
commer@@ 284
communication 284
forces 284
protection 284
unique 284
étique 284
complete 283
direction 283
donne 283
Θ@@ 283
ξ 283
по@@ 283
█ 283
古@@ 283
院 283
destruc@@ 282
muş 282
бо@@ 282
ի@@ 282
Büyük 281
campo 281
features 281
raison 280
role 280
rugby 280
trouv@@ 280
şi 280
ба@@ 280
collection 279
ürl@@ 279
ɛ 279
но 279
ESCO 278
affaires 278
came 278
comple@@ 278
ilerin 278
Après 277
・ 277
Ces 276
cause 276
curité 276
ʃ@@ 276
。 276
centre 275
clim@@ 275
incor@@ 275
isé 275
otro 275
ucu 275
wezi 275
ζ 275
И 275
ე@@ 275
Comme 274
Kwa 274
ciales 274
instruc@@ 274
length 274
mise 274
particulier 274
èn 274
ׁ@@ 274
eded 273
imonio 273
église 273
construction 272
cé@@ 272
có 272
muz 272
tiki 272
çı@@ 272
На@@ 272
Ш@@ 272
ḍ 272
kez@@ 271
playing 271
tarz@@ 271
tête 271
who@@ 271
Đức 271
地@@ 271
Bonde 270
changes 270
few 270
gelen 270
vehic@@ 270
vista 270
← 270
applic@@ 269
classes 269
covered 269
lido 269
opér@@ 269
orta@@ 269
édé 269
ʰ@@ 269
社 269
saint 268
çek@@ 268
önc@@ 268
Ē@@ 268
actr@@ 267
lead 267
often 267
sont 267
triz 267
òng 267
区 267
Ereb@@ 266
health 266
organization 266
İ 266
Ō 266
ṟ@@ 265
elea 264
ática 264
̃ 264
所 264
Machi 263
bila 263
partes 263
trai 263
立@@ 263
Tham 262
adapt@@ 262
leva 262
vote 262
ǎ 262
ὐ@@ 262
空@@ 262
acion@@ 261
aéri@@ 261
censo 261
champion 261
collec@@ 261
otros 261
parc 261
surface 261
tiem@@ 261
tuy@@ 261
О 261
anlığı 260
arse 260
canadi@@ 260
inici@@ 260
iş 260
recep@@ 260
état 260
во 260
ска 260
Devlet 259
assur@@ 259
του 258
categ@@ 257
desp@@ 257
grand@@ 257
important 257
primary 257
proced@@ 257
since 257
ái 257
érique 257
ónico 257
ḗ 257
Londres 256
baja 256
centro 256
enced 256
génér@@ 256
xico 256
ḗ@@ 256
maç@@ 255
suppl@@ 255
де@@ 255
ра 255
animal 254
areas 254
mains 254
Ş 254
Са@@ 254
,000 253
entí@@ 253
titul@@ 253
га 253
公@@ 253
技@@ 253
culos 252
dered 252
itié 252
risto 252
xième 252
Ба@@ 252
бе@@ 252
та 252
Hòa 251
το@@ 251
Бе@@ 251
ד 251
ὶ 251
clas@@ 250
enseign@@ 250
practice 250
sao 250
áp 250
ıf@@ 250
ικ@@ 250
Бо@@ 250
ạc 250
军@@ 250
année 249
fines 249
property 249
¿ 249
Ú 249
Т 249
大学 249
李@@ 249
Unidos 248
battle 248
europé@@ 248
mwan@@ 248
ologiques 248
tá 248
რ@@ 248
Eğ@@ 247
equip@@ 247
escap@@ 247
finished 247
import@@ 247
па@@ 247
太@@ 247
Lý 246
attack 246
ización 246
parties 246
treat@@ 246
да@@ 246
ב 246
ṃ@@ 246
Ses 245
Since 245
artís@@ 245
demi 245
insan@@ 245
lisi 245
nine 245
кий 245
ス@@ 245
Chí 244
Grup 244
Müd@@ 244
mique 244
ouvr@@ 244
théâtre 244
étude 244
Ķ@@ 244
ζ@@ 244
Мо@@ 244
ampli@@ 243
cez@@ 243
comment@@ 243
famous 243
guez 243
jeunes 243
naye 243
İm@@ 243
ρο@@ 243
ник 243
া@@ 243
リ@@ 243
林@@ 243
bajo 242
cette 242
chí 242
hili 242
refl@@ 242
sufri@@ 242
ш 242
イ@@ 242
imoine 241
terme 241
į@@ 241
ɔ 241
би@@ 241
遗@@ 241
Más 240
candid@@ 240
diffic@@ 240
familia 240
hija 240
olay@@ 240
Đại 240
̀ 240
Д 240
画@@ 240
associated 239
immedi@@ 239
professional 239
Во@@ 239
ков 239
те@@ 239
Fener@@ 238
January 238
ajiri 238
conom@@ 238
feature 238
jeres 238
quand 238
đa 238
ıc@@ 238
Не@@ 238
ний 238
са@@ 238
□ 238
Ministerio 237
amiento 237
baş@@ 237
khi@@ 237
lors@@ 237
performances 237
tourn@@ 237
épo@@ 237
ρι@@ 237
ṯ 237
abei 236
almost 236
cré@@ 236
torno 236
ו 236
க@@ 236
ラ@@ 236
Imperio 235
Nga 235
dió 235
inclus@@ 235
ʃ 235
ξ@@ 235
ἰ@@ 235
alara 234
instead 234
outre 234
trata 234
uncu 234
ġ 234
ி@@ 234
ẵ@@ 234
ἄ@@ 234
ῦ@@ 234
concentr@@ 233
popular 233
reco@@ 233
sols 233
Ő@@ 233
αν@@ 233
Л 233
ан@@ 233
东@@ 233
江@@ 233
compon@@ 232
deci@@ 232
mali 232
means 232
ziy@@ 232
ме@@ 232
нов 232
ї@@ 232
ṅ@@ 232
人 232
Espagne 231
Phạm 231
άν@@ 231
្ 231
◊ 231
Rais 230
hif@@ 230
huru 230
protagon@@ 230
religie@@ 230
specific 230
З 230
У 230
х 230
ா@@ 230
ი 230
classe 229
concep@@ 229
coup 229
independent 229
running 229
ʼ 229
⇒ 229
Cuando 228
acto 228
ció 228
contribu@@ 228
ficas 228
ligne 228
professionn@@ 228
reun@@ 228
έ@@ 228
Ку@@ 228
Güney 227
ahora 227
inaugur@@ 227
tish 227
versions 227
économique 227
Η@@ 227
τι@@ 227
та@@ 227
allow@@ 226
escal@@ 226
expos@@ 226
kalm@@ 226
units 226
Đi@@ 226
ου 226
≡ 226
光@@ 226
actual 225
ambigu@@ 225
ennent 225
kila 225
rence 225
19th 224
Durante 224
cao 224
etler 224
hâ@@ 224
luz 224
wever 224
ıs 224
Ра@@ 224
ῆ@@ 224
四@@ 224
anded 223
ц 223
че@@ 223
郎 223
médi@@ 222
seul 222
ông 222
Şir@@ 222
ар@@ 222
ḳ@@ 222
会@@ 222
市 222
Xuân 221
jeux 221
mayor 221
nouvelles 221
uvo 221
ático 220
ĕ@@ 220
Б 220
Ле@@ 220
Ро@@ 220
二@@ 220
部 220
Baad@@ 219
música 219
Го@@ 219
хо@@ 219
ё@@ 219
ⴰ@@ 219
和@@ 219
白@@ 219
establ@@ 218
honor 218
óric@@ 218
ное 218
alización 217
architec@@ 217
comer@@ 217
isée 217
muerte 217
otras 217
си@@ 217
со@@ 217
☆ 217
ッ@@ 217
goal 216
région 216
third 216
utili@@ 216
ρα@@ 216
ру@@ 216
⟩ 216
asist@@ 215
autres 215
khu 215
libro 215
university 215
uzun@@ 215
ф@@ 215
Amérique 214
Quốc 214
aşı 214
sión 214
waw@@ 214
ψ@@ 214
Ю@@ 214
ли 214
五@@ 214
across 213
áo 213
âm 213
武@@ 213
Bắc 212
character@@ 212
igned 212
vención 212
óng 212
ά 212
Hymenoptera 211
decre@@ 211
ellement 211
médic@@ 211
péri@@ 211
selec@@ 211
ánica 211
ლ@@ 211
below 210
famille 210
internet 210
ocho 210
practic@@ 210
prati@@ 210
Ò@@ 210
ện 210
ℳ 210
Nha 209
dont 209
mouvement 209
officer 209
sources 209
ùng 209
ών 209
за@@ 209
ни 209
平@@ 209
Giang 208
economic 208
ectos 208
polici@@ 208
president 208
taux 208
vì 208
Но@@ 208
за 208
ч 208
⟨ 208
içi 207
period 207
prepar@@ 207
voire 207
пи@@ 207
ağı@@ 206
circu@@ 206
distinc@@ 206
yao 206
ア@@ 206
ル@@ 206
明@@ 206
développement 205
employ@@ 205
kanda 205
Martí@@ 204
cases 204
claim@@ 204
female 204
husband 204
icios 204
iliy@@ 204
released 204
≠ 204
木@@ 204
above 203
ansas 203
retour 203
tü 203
Á 203
àng 203
ོ@@ 203
物@@ 203
Pacífico 202
siones 201
Се@@ 201
ке 201
市@@ 201
brother 200
inté@@ 200
mujer 200
terms 200
ʒ@@ 200
Н 200
​ 200
ト@@ 200
川@@ 200
都@@ 200
annonce 199
commission 199
taki 199
èles 199
đ 199
ས 199
Tiy@@ 198
agric@@ 198
capital 198
confer@@ 198
iline 198
poco 198
refu@@ 198
revel@@ 198
çek 198
ģ@@ 198
生@@ 198
Phú 197
Unido 197
distance 197
eléctr@@ 197
figure 197
ovu 197
question 197
ŭ 197
ή@@ 197
ủ 197
化@@ 197
女@@ 197
artistes 196
cô@@ 196
disc@@ 196
hours 196
ported 196
complet@@ 195
encour@@ 195
giai 195
marché 195
players 195
Ν 195
ев 195
Phúc 194
mère 194
très 194
üzel 194
ство 194
ṛ@@ 194
教@@ 194
Unis 193
alise 193
celebr@@ 193
died 193
enea 193
evidence 193
nacional 193
poste 193
principal 193
tesi 193
türe@@ 193
ʷ@@ 193
Ω@@ 193
чи@@ 193
կ@@ 193
---- 192
Mwan@@ 192
alipo@@ 192
anistan 192
chú 192
closed 192
consist@@ 192
department 192
karne 192
koy@@ 192
mama 192
mayo 192
musici@@ 192
usiana 192
écu@@ 192
ği 192
œuvres 192
ʳ@@ 192
Λ 192
ώ@@ 192
Де@@ 192
ма 192
ịnh 192
門 192
akula 191
concert 191
préf@@ 191
result 191
satis@@ 191
όν 191
Müz@@ 190
capac@@ 190
curso 190
duy 190
ección 190
áneo 190
Φ 190
ги@@ 190
ст@@ 190
տ@@ 190
十@@ 190
青@@ 190
Hy 189
Noctu@@ 189
bâ@@ 189
kiwa 189
members 189
uç 189
º@@ 189
óa 189
₁ 189
協@@ 189
1,000 188
Chine 188
Mundial 188
association 188
occas@@ 188
santé 188
Γ 188
ακ@@ 188
ве 188
lığı 187
month 187
thay 187
uzak@@ 187
États 187
ров@@ 187
Tanganyika 186
defe@@ 186
ganda 186
Ê@@ 186
ánico 186
星@@ 186
神@@ 186
Kız@@ 185
commercial 185
idari 185
posta 185
sí 185
techniques 185
unza 185
Định 185
ψ 185
ּ 185
emple@@ 184
expl@@ 184
Æ 184
établ@@ 184
ί 184
合@@ 184
alités 183
ativas 183
kuk@@ 183
meli 183
oeste 183
quant 183
yok 183
ις 183
ня 183
八@@ 183
Ethiopia 182
Vũ 182
mitted 182
Β 182
ον@@ 182
Про@@ 182
Ру@@ 182
medio 181
operations 181
zones 181
ơ 181
ǁ@@ 181
Υ@@ 181
και 181
ца 181
த@@ 181
ག@@ 181
田 181
院@@ 181
chanson 180
conven@@ 180
hidro@@ 180
ideas 180
poder@@ 180
þ 180
ού@@ 180
Бу@@ 180
До@@ 180
Ḍ@@ 180
法@@ 180
Ichneum@@ 179
acak 179
biri 179
grandes 179
kın 179
medical 179
though 179
öğ@@ 179
μος 179
ע 179
ḷ@@ 179
ữ 179
contract 178
decor@@ 178
partition 178
tioned 178
usawa 178
Ū@@ 178
вет 178
ர@@ 178
ს@@ 178
↓ 178
と@@ 178
Eski 177
dedic@@ 177
departamento 177
même 177
ocup@@ 177
passé 177
écr@@ 177
བ@@ 177
花@@ 177
街道 177
道@@ 177
consider@@ 176
county 176
create 176
exerc@@ 176
hombre 176
winning 176
zuri 176
édo@@ 176
ȟ@@ 176
ần 176
主@@ 176
deniz 175
example 175
ŕ@@ 175
Ť@@ 175
̓ 175
̱ 175
ες 175
Р 175
人民@@ 175
城 175
河 175
Bảo 174
Mỹ 174
plann@@ 174
λλ@@ 174
нов@@ 174
ན 174
河@@ 174
buildings 173
ciné@@ 173
droits 173
either 173
irani 173
évrier 173
ıklı 173
ку@@ 173
ến 173
代@@ 173
ancien 172
bilim@@ 172
develop@@ 172
directeur 172
esini 172
indé@@ 172
introduc@@ 172
prison@@ 172
siy@@ 172
ultad 172
until 172
venes 172
χ 172
ше@@ 172
assass@@ 171
compte 171
fut 171
segu@@ 171
tober 171
yans@@ 171
ılı 171
Ар@@ 171
СССР 171
округ 171
ང 171
Angleterre 170
During 170
heures 170
sür@@ 170
Ô@@ 170
ής 170
Ве@@ 170
ат@@ 170
ン 170
become 169
bzw@@ 169
combat 169
española 169
explic@@ 169
ferrovi@@ 169
leyen 169
municipality 169
walik@@ 169
ŷ@@ 169
信@@ 169
建@@ 169
清@@ 169
Jimbo 168
arrondissement 168
bali 168
command@@ 168
langu@@ 168
selves 168
tierra 168
üy@@ 168
ква 168
лу@@ 168
ля@@ 168
ـ@@ 168
Hungary 167
cü 167
ográfica 167
orité 167
sept 167
ɪ 167
θη@@ 167
θος 167
ши@@ 167
Bà 166
Sovi@@ 166
contributor 166
cost 166
imientos 166
presented 166
È 166
ĸ@@ 166
ʹ@@ 166
ー 166
关@@ 166
acak@@ 165
linal@@ 165
preuve 165
religious 165
yum@@ 165
Я 165
ков@@ 165
ур@@ 165
ש 165
ه 165
业@@ 165
aliment@@ 164
doa 164
himself 164
toman 164
viles 164
vip@@ 164
¢ 164
бу@@ 164
ு@@ 164
caso 163
declar@@ 163
ου@@ 163
ров 163
的@@ 163
cities 162
industrial 162
pén@@ 162
société 162
toujours 162
ungwa 162
ương 162
américa 161
arded 161
having 161
prés@@ 161
seul@@ 161
took 161
usage 161
whose 161
Ду@@ 161
ду@@ 161
ه@@ 161
Ẓ@@ 161
ἔ@@ 161
术@@ 161
行@@ 161
龙@@ 161
broad@@ 160
influence 160
khai 160
opération 160
orado 160
première 160
wany@@ 160
wao 160
μα@@ 160
τα 160
όν@@ 160
І@@ 160
му@@ 160
之@@ 160
阳@@ 160
Hán 159
awala 159
bless@@ 159
calcul@@ 159
conoc@@ 159
droite 159
marri@@ 159
succ@@ 159
timestamp 159
unid@@ 159
να@@ 159
ὀ@@ 159
松@@ 159
akati 158
aparec@@ 158
edly 158
está 158
madre 158
nouv@@ 158
south 158
topr@@ 158
tüm 158
αι@@ 158
ρί@@ 158
зо@@ 158
ск@@ 158
ப@@ 158
ὸ@@ 158
シ@@ 158
川 158
部@@ 158
野@@ 158
Serbia 157
denomin@@ 157
embar@@ 157
fois 157
gave 157
username 157
ɑ@@ 157
̌ 157
ίας 157
Пет@@ 157
њ@@ 157
வ@@ 157
ི@@ 157
王 157
賞 157
conditions 156
huit 156
étu@@ 156
üp 156
ция 156
方@@ 156
长@@ 156
館 156
Thành 155
banda 155
dney 155
vement 155
αλ@@ 155
κος 155
Му@@ 155
пу@@ 155
ти 155
ვ@@ 155
ọ 155
10,000 154
author@@ 154
cierto 154
curs@@ 154
equival@@ 154
itself 154
montr@@ 154
played 154
taş@@ 154
trains 154
¬ 154
ен@@ 154
■ 154
い@@ 154
州@@ 154
芸@@ 154
Sanat@@ 153
Tông 153
calle 153
decision 153
dessin@@ 153
elled 153
military 153
reven@@ 153
uridad 153
αρ@@ 153
ля 153
重@@ 153
Following 152
Kristo 152
ahidi 152
fabric@@ 152
ficos 152
listed 152
mascul@@ 152
signific@@ 152
souri 152
ερ@@ 152
να 152
作@@ 152
Ngọc 151
aliza 151
consum@@ 151
eshwa 151
introdu@@ 151
padre 151
Ζ@@ 151
ного 151
ной 151
ս@@ 151
ֲ@@ 151
∙ 151
春@@ 151
autour 150
bataille 150
including 150
industr@@ 150
issues 150
neigh@@ 150
seph 150
taken 150
про@@ 150
ста@@ 150
Historique 149
author 149
bilin@@ 149
cargo 149
follow@@ 149
Ли@@ 149
район 149
ского 149
集 149
Cerambycidae 148
Merkezi 148
oppos@@ 148
teatro 148
était 148
ñ 148
̥ 148
πο@@ 148
рий 148
乡 148
Doğu 147
Massachus@@ 147
Yên 147
avril 147
conten@@ 147
cuer@@ 147
elections 147
minutes 147
subject 147
âge 147
са 147
博@@ 147
正@@ 147
自@@ 147
acional 146
acteur 146
buts 146
cinq 146
evu 146
gid@@ 146
maal@@ 146
posición 146
provincia 146
tambu@@ 146
tı 146
İr@@ 146
δι@@ 146
ρα 146
ད@@ 146
ṓ@@ 146
寺@@ 146
blanco 145
named 145
ăng 145
Π 145
Ви@@ 145
Ста@@ 145
лов@@ 145
մ@@ 145
ảo 145
学院 145
Chuo 144
compr@@ 144
contact 144
neces@@ 144
־ 144
♭ 144
師@@ 144
通@@ 144
anzia 143
faite 143
incre@@ 143
octo@@ 143
succes@@ 143
surviv@@ 143
tiempo 143
éctr@@ 143
ép 143
λι@@ 143
ων@@ 143
Ре@@ 143
Си@@ 143
вая 143
рович 143
Հ@@ 143
Wilaya 142
edades 142
haa 142
occup@@ 142
todo 142
travaux 142
uyên 142
ˁ@@ 142
̲ 142
ελ@@ 142
θε@@ 142
Су@@ 142
об@@ 142
ի 142
্ 142
Kı@@ 141
gali@@ 141
join@@ 141
ografía 141
ũng 141
Э 141
ев@@ 141
завод 141
ных 141
理@@ 141
achus@@ 140
conform@@ 140
forced 140
fuer@@ 140
indre 140
kü 140
results 140
÷ 140
αγ@@ 140
ные 140
сто@@ 140
卫@@ 140
Géographie 139
babu 139
confl@@ 139
crit 139
individual 139
leme 139
pouvoir 139
prépar@@ 139
railway 139
ìn 139
ùi 139
ıt@@ 139
ường 139
ʒ 139
τρ@@ 139
Та@@ 139
ம@@ 139
ར@@ 139
ὁ 139
₤ 139
★ 139
塔 139
村@@ 139
Châu 138
TCN 138
characters 138
neği 138
ocur@@ 138
venue 138
ċ@@ 138
ʊ@@ 138
άρ@@ 138
ότητα 138
мен@@ 138
пе@@ 138
ნ@@ 138
ῦ 138
₱ 138
Zanz@@ 137
alama 137
ceux 137
killed 137
kuna 137
Ā 137
ική 137
ικός 137
б 137
ние 137
ор@@ 137
事@@ 137
馬@@ 137
Cette 136
Pologne 136
Trung 136
asyonu 136
doctor@@ 136
financial 136
issent 136
kurul@@ 136
mê@@ 136
nó 136
taking 136
uvu 136
ısı 136
ų@@ 136
εία 136
Ме@@ 136
Па@@ 136
― 136
る@@ 136
長@@ 136
Nội 135
Ulus@@ 135
Vĩnh 135
anciens 135
asili 135
concre@@ 135
meden 135
pobl@@ 135
serving 135
Θε@@ 135
εφαλ@@ 135
λε@@ 135
Ј@@ 135
不@@ 135
真@@ 135
akini 134
département 134
kati 134
relationship 134
releas@@ 134
suz 134
trao 134
types 134
Υ 134
λα@@ 134
ча@@ 134
película 133
perio 133
Đo@@ 133
ʉ@@ 133
Η 133
κλ@@ 133
Г 133
Ա@@ 133
ク@@ 133
タ@@ 133
史@@ 133
Estados 132
Sır@@ 132
accomp@@ 132
adır 132
anlar 132
commerci@@ 132
correspond@@ 132
mondi@@ 132
rı 132
Şark@@ 132
ţ 132
ɑ 132
ɗ@@ 132
ɡ@@ 132
ница 132
п 132
ха@@ 132
ச@@ 132
រ@@ 132
マ@@ 132
室 132
業@@ 132
黄@@ 132
Hồng 131
altı 131
clás@@ 131
dernier 131
existence 131
mét@@ 131
performan@@ 131
respons@@ 131
série 131
tù 131
ŏ 131
То@@ 131
ба 131
лищ@@ 131
ạt 131
原@@ 131
国家@@ 131
年@@ 131
德@@ 131
测@@ 131
马@@ 131
entreg@@ 130
retur@@ 130
écriv@@ 130
ǝ@@ 130
ͤ 130
ско 130
ту@@ 130
ть 130
љ@@ 130
París 129
arily 129
derec@@ 129
elección 129
following 129
législ@@ 129
lık@@ 129
mip@@ 129
particu@@ 129
vingt 129
αμ@@ 129
Ла@@ 129
ин@@ 129
ю@@ 129
მ@@ 129
ო@@ 129
ằng 129
张@@ 129
designed 128
matrimonio 128
muer@@ 128
ιν@@ 128
νη 128
гор@@ 128
州 128
門@@ 128
Gonzá@@ 127
eleri 127
miş 127
pande 127
proces@@ 127
significant 127
tano 127
ãi 127
ıp 127
Şehir 127
͡ 127
Κοιν@@ 127
ασ@@ 127
Га@@ 127
华@@ 127
程@@ 127
Almanya 126
ancak 126
comman@@ 126
intérieur 126
pueblo 126
siri 126
tecn@@ 126
télé@@ 126
uchumi 126
yek@@ 126
zile 126
étudi@@ 126
ˁ 126
ό 126
电@@ 126
5,000 125
alidad 125
artists 125
augment@@ 125
dirección 125
income 125
propos@@ 125
rapid@@ 125
rôle 125
several 125
tait 125
ıf 125
τα@@ 125
Ки@@ 125
ос@@ 125
ק 125
カ@@ 125
全@@ 125
福@@ 125
Chrysomelidae 124
Khánh 124
asoci@@ 124
comté 124
dispos@@ 124
iriki 124
kuto@@ 124
outside 124
teor@@ 124
usika 124
Į 124
ǃ@@ 124
ʲ@@ 124
ισ@@ 124
σκ@@ 124
При@@ 124
льный 124
ск 124
э 124
འ@@ 124
უ@@ 124
ḏ 124
ục 124
Tân 123
grands 123
leaving 123
menor 123
olewa 123
record@@ 123
worked 123
çık@@ 123
υ 123
ất 123
ị 123
中心 123
hamia 122
ileri 122
iç 122
jamais 122
kiye 122
océ@@ 122
particip@@ 122
pili 122
reli 122
Ε 122
Ο 122
των 122
ал@@ 122
ки@@ 122
по 122
су@@ 122
ས@@ 122
ུ@@ 122
ジ@@ 122
月@@ 122
According 121
attemp@@ 121
buni 121
chaî@@ 121
groupe 121
implement@@ 121
provoc@@ 121
pró@@ 121
queda 121
reconn@@ 121
söz 121
tanto 121
towards 121
Ð@@ 121
λος 121
Ло@@ 121
ло 121
ི 121
⋅ 121
法 121
道 121
amı 120
compet@@ 120
composition 120
federal 120
industry 120
interpr@@ 120
peut 120
ratic 120
tekn@@ 120
traditional 120
udur 120
© 120
ética 120
ĩnh 120
рин@@ 120
ẓ 120
⊙ 120
レ@@ 120
周@@ 120
江 120
Müzik 119
coi 119
español 119
fié 119
lerini 119
mağ@@ 119
paral@@ 119
ũ@@ 119
ɐ 119
άκ@@ 119
άς 119
из@@ 119
ны 119
ф 119
ян@@ 119
∈ 119
▬ 119
Russie 118
destroy@@ 118
elerde 118
television 118
Ф 118
гу@@ 118
сла@@ 118
中央@@ 118
永@@ 118
派 118
Cumhuriyeti 117
avail@@ 117
cambi@@ 117
contro@@ 117
countries 117
jeni 117
présent@@ 117
ơn 117
ские 117
ền 117
√ 117
九@@ 117
Ceramb@@ 116
allemande 116
ases@@ 116
becom@@ 116
dağ@@ 116
layan 116
paso 116
published 116
stir 116
Ý@@ 116
ʔ 116
Θ 116
Ι 116
άσ@@ 116
πος 116
ρά@@ 116
ге@@ 116
ش@@ 116
₀ 116
吉@@ 116
Asya 115
Esta 115
Eğiti@@ 115
ancienne 115
dibu@@ 115
fue 115
ildi 115
ministre 115
students 115
ορ@@ 115
το 115
Гор@@ 115
Мар@@ 115
Пе@@ 115
ди 115
нович 115
र 115
ბ@@ 115
ロ@@ 115
下@@ 115
发@@ 115
商@@ 115
成@@ 115
政@@ 115
有限公司 115
阿@@ 115
Khu 114
continue 114
duy@@ 114
financi@@ 114
kazi 114
longer 114
quelques 114
río 114
ually 114
édition 114
ɣ@@ 114
ιος 114
жи@@ 114
ния 114
ня@@ 114
ст 114
то 114
ⴻ@@ 114
이@@ 114
chama 113
coordin@@ 113
daki 113
debut 113
difficul@@ 113
ekani 113
higher 113
huko 113
kuv@@ 113
likely 113
Đông 113
λόγ@@ 113
οπ@@ 113
πί@@ 113
он 113
ر@@ 113
ა 113
ạng 113
alcal@@ 112
ativos 112
average 112
ciudad 112
descend@@ 112
dikten 112
kuwa 112
manufac@@ 112
telev@@ 112
ército 112
Чер@@ 112
лович 112
шка 112
თ@@ 112
体@@ 112
保@@ 112
六@@ 112
帝@@ 112
玉@@ 112
Zanzibar 111
octu@@ 111
représent@@ 111
scène 111
todos 111
toutes 111
ίου 111
ϑ 111
ө@@ 111
党 111
alık 110
anglais 110
competition 110
depuis 110
independ@@ 110
lük 110
nuevo 110
parentid 110
règ@@ 110
southern 110
temple 110
toute 110
volume 110
лов 110
ша@@ 110
ә@@ 110
ា@@ 110
か@@ 110
元@@ 110
委员会 110
验@@ 110
Hưng 109
Yüksek 109
antigu@@ 109
attention 109
atı 109
cristi@@ 109
düz@@ 109
ligi 109
particular 109
tenant 109
Ô 109
ʁ@@ 109
̄ 109
εί@@ 109
εν@@ 109
μέ@@ 109
Ва@@ 109
ي@@ 109
َ@@ 109
└ 109
● 109
井@@ 109
同@@ 109
总@@ 109
義@@ 109
Bộ 108
Ils 108
brought 108
directed 108
frica 108
hindi 108
monta@@ 108
territoire 108
ǫ 108
αυ@@ 108
Росси@@ 108
вер@@ 108
зер@@ 108
lider@@ 107
musul@@ 107
İk@@ 107
δρ@@ 107
σα 107
Лю@@ 107
Пре@@ 107
ша 107
ْ@@ 107
た@@ 107
千@@ 107
台@@ 107
族@@ 107
eight 106
àm 106
Българ@@ 106
же@@ 106
ман 106
он@@ 106
ъ@@ 106
ạch 106
ル 106
世@@ 106
仁@@ 106
号 106
学 106
群 106
COVI@@ 105
Oficina 105
aired 105
appearance 105
aujour@@ 105
bà 105
consid@@ 105
dessus 105
durant 105
idée 105
primer 105
ſ 105
ǀ@@ 105
άλ@@ 105
Александр 105
ет@@ 105
лин@@ 105
хи@@ 105
د@@ 105
ن@@ 105
机@@ 105
Công 104
abril 104
emplo@@ 104
irler 104
mouv@@ 104
official 104
tiene 104
turned 104
évêque 104
ĭ@@ 104
ʉ 104
ατ@@ 104
οί 104
Ан@@ 104
թ@@ 104
ך 104
ب@@ 104
त 104
़ 104
ன 104
ấn 104
ὰ 104
し@@ 104
七@@ 104
名@@ 104
土@@ 104
Seç@@ 103
angaz@@ 103
cité 103
ficie 103
grado 103
kalan 103
traite 103
Ğ@@ 103
αί@@ 103
Лу@@ 103
Че@@ 103
ства 103
сти@@ 103
ր 103
ِ@@ 103
ầu 103
∴ 103
ABD 102
Ocak 102
aliye@@ 102
condu@@ 102
deter@@ 102
empre 102
hiệu 102
include 102
preser@@ 102
pér@@ 102
vain@@ 102
ĝ@@ 102
գ@@ 102
ח 102
র@@ 102
ận 102
ὑ@@ 102
に@@ 102
宝@@ 102
有@@ 102
百@@ 102
藤@@ 102
Anglet@@ 101
abord 101
accep@@ 101
années 101
became 101
différ@@ 101
manga 101
province 101
sometimes 101
success 101
élection 101
απ@@ 101
κο@@ 101
πρ@@ 101
ρον 101
م@@ 101
∆ 101
⌀ 101
キ@@ 101
ド@@ 101
出@@ 101
造@@ 101
里 101
Eylül 100
arla 100
aussi 100
deş@@ 100
enero 100
municipal@@ 100
remains 100
soit 100
tropical 100
Ç 100
те 100
ম@@ 100
ོ 100
ྱ@@ 100
ết 100
ⵏ 100
丸 100
北京@@ 100
國@@ 100
木 100
源@@ 100
Alman 99
armas 99
bağ@@ 99
días 99
families 99
manufactur@@ 99
siempre 99
traduc@@ 99
àu 99
éroï@@ 99
ĩ 99
į 99
œ 99
ρε@@ 99
Александ@@ 99
Гу@@ 99
Кар@@ 99
ж 99
ци@@ 99
ي 99
ệ 99
ộc 99
解放@@ 99
bases 98
campagne 98
fonc@@ 98
nombre 98
realiz@@ 98
ư 98
Ά@@ 98
ήσ@@ 98
τερ@@ 98
τική 98
Вер@@ 98
Рус@@ 98
ى 98
ེ 98
な@@ 98
一 98
内@@ 98
多@@ 98
巴@@ 98
等@@ 98
Alemania 97
Ichneumonidae 97
Kinh 97
création 97
encial 97
faa 97
ismi 97
puis@@ 97
salle 97
themselves 97
titre 97
êm 97
óm 97
κά@@ 97
ρω@@ 97
τε@@ 97
Вели@@ 97
лы@@ 97
це 97
ل@@ 97
ி 97
ὸ 97
刘@@ 97
号@@ 97
汉@@ 97
行 97
atao 96
career 96
ciona 96
comand@@ 96
dü 96
emek@@ 96
igual 96
kenti 96
northern 96
onóm@@ 96
régu@@ 96
suiv@@ 96
whom 96
ˌ@@ 96
вский 96
ю 96
Ս@@ 96
վ@@ 96
ט 96
与@@ 96
展 96
广@@ 96
絵@@ 96
里@@ 96
Arnav@@ 95
Nghệ 95
isinin 95
meilleur 95
moja 95
tained 95
vuel@@ 95
yenne 95
şehir@@ 95
ʊ 95
Ново@@ 95
от@@ 95
ха 95
Մ@@ 95
್ 95
∨ 95
ス 95
島@@ 95
竹@@ 95
anime 94
cultiv@@ 94
dès 94
lived 94
mua 94
parents 94
provincial 94
sister 94
Ό@@ 94
Δήμος 94
Ни@@ 94
Ша@@ 94
аль@@ 94
ской 94
ا 94
් 94
། 94
ག 94
は@@ 94
コ@@ 94
心@@ 94
生 94
谷@@ 94
Birliği 93
doğdu 93
ificación 93
induzi 93
kote 93
nouveaux 93
oyun 93
sitio 93
έν@@ 93
τη@@ 93
мы@@ 93
ро 93
ско@@ 93
сло@@ 93
ты 93
це@@ 93
ָ 93
س@@ 93
ស@@ 93
Ḏ@@ 93
ᾶ@@ 93
≙ 93
史 93
朱@@ 93
almente 92
cir 92
especially 92
mesi 92
tifs 92
κύ@@ 92
Ор@@ 92
Хо@@ 92
ван@@ 92
го 92
ит@@ 92
нова 92
при@@ 92
ད 92
ὄ@@ 92
云@@ 92
洋@@ 92
記 92
Bunun 91
Ofic@@ 91
americanos 91
available 91
ayud@@ 91
bió 91
canción 91
diez 91
inclin@@ 91
isini 91
jiji 91
tipo 91
üncü 91
üsü 91
ılık 91
Δι@@ 91
εύ@@ 91
τά@@ 91
τός 91
Све@@ 91
Ха@@ 91
ер@@ 91
жа@@ 91
ি@@ 91
ட@@ 91
མ@@ 91
◎ 91
ⵉ@@ 91
外@@ 91
平 91
杨@@ 91
间@@ 91
飞@@ 91
Agosti 90
Tự 90
arifa 90
arrière 90
así 90
auteur 90
barrio 90
carre@@ 90
coloc@@ 90
communauté 90
dizi 90
ecek@@ 90
intent@@ 90
produced 90
recorded 90
và 90
vía 90
yalı 90
Да@@ 90
лю@@ 90
ры@@ 90
цы 90
ў@@ 90
֣ 90
ס 90
ܝ@@ 90
ަ@@ 90
া 90
མ 90
ℓ 90
▭ 90
フ@@ 90
前@@ 90
局 90
水 90
老@@ 90
育@@ 90
音@@ 90
風@@ 90
February 89
comprom@@ 89
principio 89
ικό 89
ργ@@ 89
Вол@@ 89
Е 89
кова 89
сть 89
ம 89
ḷ 89
ạnh 89
庙 89
旧@@ 89
红@@ 89
革@@ 89
Anadol@@ 88
angla@@ 88
cadre 88
crisis 88
efu 88
etkin@@ 88
fútbol 88
kuw@@ 88
nda 88
seule 88
umwa 88
ydi 88
Û@@ 88
équi@@ 88
ĭ 88
ʰ 88
Ξ@@ 88
Ψ 88
έρ@@ 88
αβ@@ 88
οδ@@ 88
зе@@ 88
ַ 88
ṉ@@ 88
《 88
》 88
制@@ 88
論 88
集@@ 88
changed 87
created 87
doit 87
hilo 87
liwa 87
oloj@@ 87
principales 87
sait 87
siete 87
soy@@ 87
umri 87
victoria 87
wanyama 87
άγ@@ 87
ολ@@ 87
Москов@@ 87
зи@@ 87
ча 87
қ@@ 87
ỗ 87
ト 87
兵@@ 87
宗 87
社@@ 87
野 87
陈@@ 87
Kiswahili 86
adele 86
already 86
beginning 86
interior 86
muy 86
yó 86
şi@@ 86
ίων 86
Михай@@ 86
лен@@ 86
ἴ@@ 86
ら@@ 86
司@@ 86
命@@ 86
宁@@ 86
楼 86
沙@@ 86
治@@ 86
皇@@ 86
Tuy 85
arriv@@ 85
asyon 85
connu 85
formación 85
mondiale 85
pasado 85
plaza 85
served 85
taille 85
ètre 85
ístico 85
γι@@ 85
ομ@@ 85
Алексе@@ 85
Ге@@ 85
Сер@@ 85
зна@@ 85
клуб 85
ף 85
و 85
ỳ@@ 85
⅛ 85
原 85
宗@@ 85
書@@ 85
氏@@ 85
湖@@ 85
Galatas@@ 84
Royaume 84
Yüz@@ 84
actriz 84
aircraft 84
began 84
descri@@ 84
hasta 84
ingana 84
isième 84
married 84
moins 84
prison 84
sector 84
success@@ 84
tivos 84
ycidae 84
yıl@@ 84
Ţ@@ 84
Περ@@ 84
αθ@@ 84
ви 84
доро@@ 84
ке@@ 84
ү@@ 84
Ἰ@@ 84
‌ 84
デ@@ 84
展@@ 84
特@@ 84
郡 84
의 84
Avec 83
Başkan@@ 83
Vương 83
article 83
contribut@@ 83
generally 83
kez 83
started 83
various 83
wrote 83
ħ 83
ĩ@@ 83
Ź@@ 83
ɐ@@ 83
ɾ@@ 83
Никола@@ 83
йский 83
֨ 83
ץ 83
დ@@ 83
ს 83
ῥ@@ 83
モ@@ 83
力@@ 83
念@@ 83
愛@@ 83
火@@ 83
2,000 82
Kıbrıs 82
alış@@ 82
companies 82
confirm@@ 82
cél@@ 82
especial 82
intégr@@ 82
matéri@@ 82
quitte 82
wango 82
ευ@@ 82
Дмит@@ 82
Иван 82
ѣ@@ 82
ح@@ 82
د 82
ல@@ 82
ལ@@ 82
伊@@ 82
明 82
画 82
路@@ 82
ayant 81
collabor@@ 81
cuando 81
deuxième 81
découver@@ 81
préc@@ 81
rapport 81
rivière 81
veloc@@ 81
ŕ 81
ƒ 81
̣ 81
Καρ@@ 81
μι@@ 81
τή@@ 81
ских 81
сь 81
ك@@ 81
ܐ 81
ེ@@ 81
▀ 81
エ@@ 81
万@@ 81
林 81
球@@ 81
用@@ 81
省@@ 81
知@@ 81
経@@ 81
義 81
Kazi 80
activities 80
appeared 80
baji 80
group@@ 80
istiques 80
izm 80
libros 80
êu 80
καλ@@ 80
πολι@@ 80
όδ@@ 80
όρ@@ 80
Ди@@ 80
Сла@@ 80
Ча@@ 80
вой 80
ды 80
кин 80
ֹ 80
〉 80
佐@@ 80
园 80
島 80
次@@ 80
町 80
第@@ 80
대@@ 80
Genel 79
awali 79
considered 79
featured 79
hát 79
invit@@ 79
juin 79
kıl@@ 79
programs 79
purch@@ 79
tement 79
valor 79
üğü 79
Ψ@@ 79
ην@@ 79
με@@ 79
Ал@@ 79
Влади@@ 79
За 79
России 79
ан 79
пре@@ 79
си 79
ье 79
ان 79
म@@ 79
ἡ 79
├ 79
ⴷ@@ 79
唐@@ 79
士@@ 79
Lâm 78
abilité 78
cá 78
minh 78
occupation 78
opening 78
recu@@ 78
vient 78
weeks 78
èo 78
óvenes 78
ına 78
τικ@@ 78
Пи@@ 78
Ти@@ 78
Укра@@ 78
бал@@ 78
чка 78
щи@@ 78
ׁ 78
ز@@ 78
♥ 78
ん@@ 78
ニ@@ 78
宮@@ 78
少@@ 78
本 78
泉@@ 78
Kuzey 77
aları 77
army 77
cuatro 77
decided 77
eastern 77
entire 77
estado 77
eviz@@ 77
futbol@@ 77
hombres 77
itwa 77
kili@@ 77
konum@@ 77
liği 77
musée 77
président 77
yıld@@ 77
đàn 77
̂ 77
Αγ@@ 77
πλ@@ 77
Владимир 77
զ@@ 77
ু@@ 77
ま@@ 77
仙@@ 77
佛@@ 77
分@@ 77
士 77
定@@ 77
食@@ 77
Posteri@@ 76
auprès 76
cerc@@ 76
elerine 76
goals 76
nueva 76
occu@@ 76
odio 76
áy 76
ησ@@ 76
ως 76
Об@@ 76
вен@@ 76
де 76
стра@@ 76
র 76
ි@@ 76
ὴ 76
♯ 76
共@@ 76
家 76
殿 76
门@@ 76
Cet 75
chữ 75
compens@@ 75
competi@@ 75
compil@@ 75
constru@@ 75
facil@@ 75
landais 75
lesqu@@ 75
pequ@@ 75
plata 75
solic@@ 75
temas 75
Ì@@ 75
̩ 75
Ελλην@@ 75
έρας 75
ησι@@ 75
χος 75
тан@@ 75
ղ@@ 75
ய@@ 75
ὕ@@ 75
ィ@@ 75
帝 75
津@@ 75
華@@ 75
adiri 74
alement 74
camino 74
dép@@ 74
established 74
haline 74
huu 74
partici@@ 74
permet@@ 74
Ë@@ 74
Ś 74
şir@@ 74
̕ 74
Αν@@ 74
έλ@@ 74
ίσ@@ 74
παρ@@ 74
Иванович 74
Пер@@ 74
Щ@@ 74
вый 74
ья 74
ع@@ 74
ම@@ 74
် 74
ḵ@@ 74
Ἐ@@ 74
∧ 74
◻ 74
☮ 74
ⴳ@@ 74
お@@ 74
サ@@ 74
像 74
利@@ 74
口@@ 74
基地 74
女 74
实@@ 74
思@@ 74
站 74
英@@ 74
郎@@ 74
allí 73
altitude 73
ierra 73
itement 73
mà 73
secré@@ 73
siglo 73
specif@@ 73
̇ 73
Καλ@@ 73
ητ@@ 73
λί@@ 73
μά@@ 73
υρ@@ 73
Би@@ 73
Те@@ 73
Х 73
ак@@ 73
гра@@ 73
мир 73
ря@@ 73
ска@@ 73
тя@@ 73
լ@@ 73
շ@@ 73
ف@@ 73
க 73
ん 73
乐@@ 73
克@@ 73
庄@@ 73
观@@ 73
陽@@ 73
雄 73
龍@@ 73
amua 72
couple 72
dific@@ 72
iento 72
ingres@@ 72
leti 72
maji 72
owned 72
plusieurs 72
quy@@ 72
système 72
uyền 72
ɵ 72
εια 72
τη 72
Все@@ 72
Гра@@ 72
Пу@@ 72
ева 72
ники 72
све@@ 72
ব@@ 72
ு 72
კ@@ 72
き@@ 72
り@@ 72
オ@@ 72
书@@ 72
尔@@ 72
式@@ 72
草@@ 72
Avrupa 71
added 71
ahada 71
annual 71
campaign 71
importance 71
intérêt 71
moved 71
sahi@@ 71
tienen 71
κτ@@ 71
μβ@@ 71
οι@@ 71
τρο@@ 71
Кри@@ 71
ле 71
льский 71
अ@@ 71
ে@@ 71
ར 71
ტ@@ 71
ẽ@@ 71
を@@ 71
ウ@@ 71
ャ@@ 71
基@@ 71
宋@@ 71
景@@ 71
興@@ 71
近@@ 71
防@@ 71
Esto 70
according 70
azama 70
jwa 70
professeur 70
rejo@@ 70
theo 70
usually 70
époque 70
άδ@@ 70
πι@@ 70
ριστ@@ 70
Василь@@ 70
СК@@ 70
Тро@@ 70
евна 70
ед@@ 70
кая 70
род@@ 70
ци 70
հ@@ 70
द 70
ữu 70
⚔ 70
り 70
バ@@ 70
天 70
徐@@ 70
探@@ 70
社会@@ 70
： 70
Cumhur@@ 69
Thiên 69
caract@@ 69
defensa 69
entren@@ 69
huwa 69
jimbo 69
kumi 69
lendi 69
lerde 69
ouest 69
puiss@@ 69
sız 69
télévision 69
yolu 69
éx@@ 69
Пав@@ 69
Сте@@ 69
бан@@ 69
град@@ 69
ман@@ 69
мор@@ 69
ника 69
рь@@ 69
слав 69
тра@@ 69
ще 69
ර@@ 69
ᐧ@@ 69
く@@ 69
セ@@ 69
专@@ 69
堂@@ 69
専@@ 69
張@@ 69
朝@@ 69
由@@ 69
甲@@ 69
盟 69
设@@ 69
1980s 68
ansı 68
cerem@@ 68
elewa 68
frère 68
geográfica 68
passed 68
país 68
teki 68
ınlar 68
ũ 68
Ż 68
ɒ@@ 68
Άγιος 68
Ευ@@ 68
ξι@@ 68
τον 68
Вы@@ 68
Фе@@ 68
ать 68
фи@@ 68
դ@@ 68
‛ 68
₹ 68
あ@@ 68
御@@ 68
忠@@ 68
昌@@ 68
無@@ 68
聖@@ 68
記@@ 68
象@@ 68
赤@@ 68
Trường 67
ambao 67
appear@@ 67
nacionales 67
resto 67
suggest@@ 67
wilaya 67
˚ 67
Παρ@@ 67
αστ@@ 67
σπ@@ 67
τε 67
φύ@@ 67
Ком@@ 67
Македо@@ 67
ав@@ 67
ата@@ 67
дин@@ 67
ми 67
ре 67
фа@@ 67
ше 67
щ@@ 67
ћ@@ 67
Қ@@ 67
ল@@ 67
ர 67
่ 67
ⴰ 67
ⵣ@@ 67
う@@ 67
ナ@@ 67
ポ@@ 67
善@@ 67
夏@@ 67
字@@ 67
富@@ 67
日 67
時@@ 67
한@@ 67
acción 66
daughter 66
gesi 66
huy 66
liament 66
mujeres 66
ôi 66
Ģ@@ 66
şim@@ 66
΄ 66
γλ@@ 66
πέ@@ 66
Кон@@ 66
дру@@ 66
ите@@ 66
ֽ@@ 66
ා@@ 66
が@@ 66
丁@@ 66
三 66
嘉@@ 66
図 66
星 66
秀@@ 66
Arap 65
Así 65
Japon 65
andao 65
crita 65
encontr@@ 65
fuera 65
hizo 65
juu 65
produce 65
required 65
successful 65
ɨ 65
Μ 65
μν@@ 65
ύρ@@ 65
ώ 65
Из@@ 65
Николай 65
вар@@ 65
жен@@ 65
нови@@ 65
ри 65
фо@@ 65
ى@@ 65
प 65
य 65
้ 65
པ@@ 65
ọng 65
◦ 65
〜 65
兴@@ 65
团@@ 65
导@@ 65
支 65
文 65
書 65
来@@ 65
기@@ 65
김@@ 65
민@@ 65
avait 64
contains 64
dù 64
eğ@@ 64
hijo 64
miş@@ 64
momento 64
monaster@@ 64
mostr@@ 64
pièces 64
proche 64
similar 64
teş@@ 64
étab@@ 64
̍ 64
ρυ@@ 64
τρι@@ 64
Гри@@ 64
Пар@@ 64
Чу@@ 64
лек@@ 64
льная 64
па 64
прав@@ 64
щина 64
স@@ 64
த 64
ἱ@@ 64
᾽ 64
⁠ 64
ℛ@@ 64
⇔ 64
ⵜ@@ 64
れ@@ 64
ハ@@ 64
以@@ 64
友@@ 64
口 64
學@@ 64
开@@ 64
曲@@ 64
會 64
氏 64
波@@ 64
深@@ 64
語 64
銀@@ 64
Dunia 63
ajwa 63
chaque 63
dawa 63
déput@@ 63
iliği 63
ortal@@ 63
performed 63
recog@@ 63
âu 63
érée 63
Μαρ@@ 63
ίν@@ 63
προ@@ 63
Ива@@ 63
вна 63
ган@@ 63
ком@@ 63
кра@@ 63
лё@@ 63
народ@@ 63
нин 63
нь 63
ран@@ 63
ста 63
ܡ@@ 63
ხ@@ 63
ệ@@ 63
⅜ 63
ⵙ@@ 63
中 63
军 63
研究 63
秋@@ 63
進@@ 63
Mayıs 62
Nehri 62
bunge 62
developed 62
koş@@ 62
lâm 62
mucho 62
muj@@ 62
okea 62
oldu 62
siège 62
throughout 62
victory 62
ızı 62
οφ@@ 62
σσ@@ 62
Фу@@ 62
бра@@ 62
ги 62
до 62
стро@@ 62
क 62
स 62
় 62
₃ 62
み@@ 62
ケ@@ 62
岡@@ 62
志@@ 62
我@@ 62
手@@ 62
资@@ 62
aît 61
comunidad 61
célè@@ 61
derecho 61
dernière 61
ekana 61
ensuite 61
failed 61
febr@@ 61
ilir 61
novela 61
obten@@ 61
tesis 61
tisha 61
verano 61
zaman 61
ıklar 61
ɨ@@ 61
ɬ@@ 61
Αρ@@ 61
Προ@@ 61
γκ@@ 61
καν@@ 61
νης 61
ύλ@@ 61
Михаил 61
град 61
є@@ 61
خ@@ 61
ق@@ 61
و@@ 61
ු@@ 61
チ@@ 61
医@@ 61
台 61
墓 61
居@@ 61
現@@ 61
筑@@ 61
联@@ 61
苏@@ 61
連@@ 61
주@@ 61
ardhi 60
engwa 60
laş@@ 60
puesta 60
travers@@ 60
Έ@@ 60
άμ@@ 60
βι@@ 60
ού 60
χρ@@ 60
Георги@@ 60
Крас@@ 60
Ту@@ 60
ФК 60
имени 60
мов 60
ок@@ 60
рав@@ 60
рен@@ 60
рина 60
ый 60
ё 60
ёр@@ 60
ә 60
پ@@ 60
ཁ@@ 60
შ@@ 60
い 60
グ@@ 60
テ@@ 60
ブ@@ 60
书 60
于@@ 60
公司 60
場 60
墓@@ 60
摩@@ 60
溪@@ 60
良@@ 60
鉄@@ 60
Phương 59
arlar 59
commenc@@ 59
esho 59
españ@@ 59
millions 59
months 59
mızı 59
parque 59
participation 59
ían 59
úp 59
Παναγ@@ 59
ίλ@@ 59
μπ@@ 59
πά@@ 59
σία 59
όσ@@ 59
Бал@@ 59
Доб@@ 59
рон@@ 59
сти 59
тина 59
чу@@ 59
ক@@ 59
ন 59
ন@@ 59
ྲ@@ 59
გ@@ 59
Ṯ@@ 59
ải 59
ẽ 59
〈 59
ミ@@ 59
井 59
交@@ 59
池@@ 59
路 59
農@@ 59
雪@@ 59
Hội 58
başkan@@ 58
circons@@ 58
compan@@ 58
contrat 58
escrit@@ 58
fase 58
göz@@ 58
however 58
número 58
particularly 58
secu@@ 58
sistema 58
versiones 58
yeni 58
ính 58
Κα@@ 58
αδ@@ 58
οχ@@ 58
περ@@ 58
ών@@ 58
ву@@ 58
им@@ 58
лий 58
обо@@ 58
се 58
тов 58
хов@@ 58
чик 58
ս 58
م 58
න@@ 58
ქ@@ 58
ắ@@ 58
ノ@@ 58
プ@@ 58
ュ@@ 58
国 58
夫@@ 58
系@@ 58
藤 58
詩@@ 58
陵 58
anlık 57
articles 57
cuar@@ 57
mejor 57
ndio 57
propre 57
suy 57
sépar@@ 57
troisième 57
ʷ 57
̈ 57
Μον@@ 57
βί@@ 57
εσ@@ 57
όλ@@ 57
Бар@@ 57
От@@ 57
ис@@ 57
рия 57
рь 57
спо@@ 57
ї 57
ׂ@@ 57
ܪ@@ 57
ު@@ 57
र@@ 57
ἑ@@ 57
久@@ 57
动@@ 57
应@@ 57
流@@ 57
湖 57
经@@ 57
語@@ 57
電@@ 57
Irel@@ 56
Kỳ 56
ayır@@ 56
crick@@ 56
effet 56
escri@@ 56
oficial 56
selon 56
unité 56
Ï@@ 56
ço@@ 56
şu 56
γέν@@ 56
δος 56
εφ@@ 56
ηγ@@ 56
ηλ@@ 56
ημ@@ 56
ιδ@@ 56
κυ@@ 56
οβ@@ 56
ογ@@ 56
οσ@@ 56
Кара@@ 56
Народ@@ 56
Сто@@ 56
али@@ 56
вое 56
ление 56
поселение 56
чки 56
ִ 56
ך@@ 56
ت@@ 56
ن 56
ی 56
า@@ 56
ན@@ 56
ṉ 56
♣ 56
つ@@ 56
何@@ 56
報 56
康@@ 56
蒙@@ 56
谷 56
（ 56
Başkanı 55
Dünya 55
azini 55
groupes 55
highest 55
majority 55
occasion 55
personnel 55
tamente 55
đi 55
ʕ@@ 55
ʽ@@ 55
Ί@@ 55
θέ@@ 55
ιλ@@ 55
νο@@ 55
ούς 55
Остро@@ 55
Ри@@ 55
Сою@@ 55
Фё@@ 55
атов 55
для 55
ку 55
от 55
рал 55
фе@@ 55
բ@@ 55
պ@@ 55
ք 55
ܘ@@ 55
य@@ 55
ម@@ 55
Ἑ@@ 55
ⵔ@@ 55
さ@@ 55
ガ@@ 55
ク 55
之 55
光 55
加@@ 55
吴@@ 55
夫 55
峰@@ 55
改@@ 55
春 55
胡@@ 55
陳@@ 55
리@@ 55
Bwana 54
También 54
Tổ 54
Yunan 54
appointed 54
cinco 54
desde 54
dük@@ 54
halk@@ 54
migu@@ 54
onun 54
personne 54
presid@@ 54
subsequ@@ 54
ularly 54
zote 54
ánh 54
último 54
ʌ@@ 54
Δημο@@ 54
Παν@@ 54
Ρ 54
ποι@@ 54
ται 54
Боль@@ 54
би 54
государствен@@ 54
кан@@ 54
сте@@ 54
тор@@ 54
университет 54
ход@@ 54
чи 54
ј 54
ց@@ 54
ج@@ 54
్ 54
് 54
Ḳ@@ 54
ẹ 54
ệu 54
ịa 54
ἡ@@ 54
∼ 54
⊤ 54
こ@@ 54
パ@@ 54
务@@ 54
大 54
拉@@ 54
版@@ 54
神 54
组 54
试@@ 54
鐘@@ 54
馆 54
香@@ 54
국@@ 54
agosto 53
allowed 53
arası 53
casi 53
hizi 53
kundi 53
ların 53
premiers 53
raised 53
supported 53
Ė@@ 53
İslam 53
Ț 53
ɣ 53
ικά 53
πόλεις 53
ριος 53
ρύ@@ 53
στι@@ 53
τας 53
υν@@ 53
Жи@@ 53
Шу@@ 53
Ъ 53
бы@@ 53
гар@@ 53
кови@@ 53
мер@@ 53
слав@@ 53
стер 53
״ 53
ک@@ 53
ण 53
ত@@ 53
ன@@ 53
ལ 53
ⵍ@@ 53
ち@@ 53
ョ@@ 53
動@@ 53
双@@ 53
吉 53
君@@ 53
夜@@ 53
故@@ 53
梁@@ 53
楽@@ 53
济@@ 53
甲 53
秦@@ 53
聞 53
色@@ 53
计@@ 53
開@@ 53
Osmanlı 52
Yugoslav@@ 52
abandon@@ 52
angalia 52
domaine 52
espè@@ 52
fais@@ 52
joven 52
nunca 52
selected 52
umlu 52
unión 52
¨ 52
áu 52
Đạo 52
ırı 52
şek@@ 52
ǝ 52
̅ 52
θα 52
ιμ@@ 52
νομ@@ 52
όπ@@ 52
ϑ@@ 52
Дра@@ 52
Пере@@ 52
Сергей 52
Совет@@ 52
Чи@@ 52
дар@@ 52
йская 52
кол@@ 52
мар@@ 52
мм 52
пер@@ 52
пере@@ 52
рус@@ 52
ут@@ 52
уч@@ 52
ҳ@@ 52
ց 52
ُ@@ 52
ނ@@ 52
म 52
श 52
ை 52
བ 52
ཚ@@ 52
ཨ@@ 52
ẹ@@ 52
ἕ@@ 52
◡ 52
ダ@@ 52
可@@ 52
回@@ 52
左@@ 52
洪@@ 52
精@@ 52
起@@ 52
陵@@ 52
鳥@@ 52
） 52
Ensti@@ 51
Watu 51
ambazo 51
amér@@ 51
donné 51
kadar 51
larger 51
obje@@ 51
phố 51
porque 51
provide 51
provided 51
pueb@@ 51
réqu@@ 51
réseau 51
sociation 51
sát 51
ubwa 51
yali@@ 51
ʲ 51
Ακ@@ 51
Σω@@ 51
αλλ@@ 51
αν 51
ρου 51
τέ@@ 51
τζ@@ 51
όφ@@ 51
Борис 51
Тру@@ 51
бор@@ 51
бы 51
вица 51
дия 51
им 51
лы 51
оло@@ 51
ственный 51
сы 51
ђ@@ 51
֥ 51
ז 51
ق 51
ਰ@@ 51
ុ@@ 51
∅ 51
元 51
劉@@ 51
场 51
岩@@ 51
常@@ 51
斯@@ 51
花 51
藏@@ 51
観@@ 51
黃@@ 51
龙 51
MÖ 50
arrê@@ 50
bahçe 50
defeated 50
described 50
genç 50
mito 50
newspap@@ 50
personn@@ 50
shown 50
spé@@ 50
suces@@ 50
tido 50
çağ@@ 50
ğin 50
̑ 50
ει 50
ιά 50
κας 50
μαν@@ 50
μον@@ 50
Алек@@ 50
Кор@@ 50
ато@@ 50
вет@@ 50
ем@@ 50
институт 50
мо 50
нен@@ 50
ности 50
сов@@ 50
тиче@@ 50
ун@@ 50
чен@@ 50
ща@@ 50
ر 50
न@@ 50
์ 50
ྒ@@ 50
ე 50
ᐃ@@ 50
⅝ 50
♠ 50
ⵓ 50
丹@@ 50
修@@ 50
县@@ 50
峰 50
朝 50
海 50
点@@ 50
衛@@ 50
議@@ 50
시@@ 50
Liên 49
Tuzo 49
artist@@ 49
assez 49
cerca 49
côté 49
entreprise 49
entrée 49
fourth 49
iciones 49
involved 49
leş@@ 49
objet 49
prendre 49
presidente 49
received 49
retired 49
tự 49
uyết 49
wana@@ 49
Âu 49
Ċ@@ 49
ĕ 49
ɫ@@ 49
ίος 49
αφ@@ 49
βασ@@ 49
κατ@@ 49
λέ@@ 49
μφ@@ 49
πό@@ 49
τυ@@ 49
Ин@@ 49
Красно@@ 49
Ль@@ 49
Ц 49
Ч 49
Ши@@ 49
дов 49
зу@@ 49
зы@@ 49
ников 49
ры 49
спе@@ 49
ческий 49
ײ@@ 49
त@@ 49
ल 49
ள 49
ཡ@@ 49
ር@@ 49
ṃ 49
ὴ@@ 49
∶ 49
ⵓ@@ 49
も@@ 49
ア 49
ェ@@ 49
ム@@ 49
厂 49
後@@ 49
性@@ 49
月 49
石 49
统@@ 49
雄@@ 49
Naili 48
Ngh@@ 48
aidia 48
américain 48
août 48
artista 48
composed 48
continued 48
donc 48
donde 48
imeh@@ 48
kodi 48
kuten@@ 48
kuu 48
lugar 48
olup 48
punto 48
unun 48
̪ 48
Εταιρ@@ 48
είο 48
επ@@ 48
ικών 48
μυ@@ 48
σιος 48
τικός 48
όκ@@ 48
Же@@ 48
СС 48
года 48
ден 48
комитет 48
лян@@ 48
ме 48
ты@@ 48
ג 48
أ@@ 48
މ@@ 48
न 48
ṛ 48
ὺ@@ 48
‡ 48
ド 48
メ@@ 48
中國@@ 48
反@@ 48
喜@@ 48
府@@ 48
德 48
战@@ 48
文化 48
智@@ 48
株@@ 48
泰@@ 48
洞@@ 48
済@@ 48
渡@@ 48
湾@@ 48
系 48
者 48
者@@ 48
能@@ 48
阪@@ 48
사@@ 48
조@@ 48
Kaskazini 47
Quân 47
adlı 47
adémie 47
clase 47
conflic@@ 47
efforts 47
hace 47
hiki 47
ilç@@ 47
nüf@@ 47
publication 47
sistem@@ 47
tél@@ 47
undan 47
çift@@ 47
üç 47
ışık 47
Κ 47
Ξ 47
δε@@ 47
δυ@@ 47
ους 47
πα@@ 47
τικό 47
Бори@@ 47
Государ@@ 47
На 47
Свя@@ 47
бе 47
зар@@ 47
йн 47
пол@@ 47
цкий 47
шки 47
ք@@ 47
প@@ 47
ப 47
ව@@ 47
ཅ@@ 47
ḕ 47
ả 47
ệt 47
‍ 47
Ⅹ@@ 47
▄ 47
ⴱ@@ 47
ピ@@ 47
乌@@ 47
先@@ 47
兰@@ 47
农@@ 47
凤@@ 47
初@@ 47
及@@ 47
哈@@ 47
園 47
地 47
室@@ 47
屋@@ 47
所@@ 47
毛@@ 47
見@@ 47
雲@@ 47
黒@@ 47
Although 46
Kasım 46
Ulusal 46
acqui@@ 46
although 46
culas 46
favor 46
firme 46
horas 46
househ@@ 46
increase 46
keti 46
kufu@@ 46
lerden 46
mismo 46
pouv@@ 46
riwa 46
spent 46
tenu 46
valeur 46
évén@@ 46
İsp@@ 46
ước 46
Κυ@@ 46
άπ@@ 46
αχ@@ 46
που 46
ριο 46
Бра@@ 46
Воло@@ 46
Иль@@ 46
Кру@@ 46
Ок@@ 46
Рес@@ 46
СС@@ 46
ден@@ 46
ду 46
ера 46
жо@@ 46
из 46
кон@@ 46
ново 46
ну@@ 46
пор@@ 46
тин@@ 46
ции 46
ֻ@@ 46
الله 46
ِ 46
ި@@ 46
व@@ 46
அ@@ 46
ட 46
ម 46
ṅ 46
ẕ@@ 46
ạn 46
ống 46
ὁ@@ 46
け@@ 46
ビ@@ 46
仁 46
信 46
勝@@ 46
区@@ 46
區 46
合 46
哲@@ 46
守@@ 46
布@@ 46
年 46
延@@ 46
恩@@ 46
昭@@ 46
桥@@ 46
漢@@ 46
県@@ 46
章 46
若@@ 46
아@@ 46
Desde 45
Nhi@@ 45
activité 45
américaine 45
deki 45
gibi 45
küt@@ 45
kı@@ 45
launched 45
lerine 45
militar 45
sterdam 45
yarat@@ 45
İkinci 45
şehri 45
ɲ@@ 45
ΠΑ@@ 45
Τ 45
μύ@@ 45
νε@@ 45
σύ@@ 45
τρα 45
υγ@@ 45
υλ@@ 45
υμ@@ 45
όγ@@ 45
Мин@@ 45
Щ 45
вод@@ 45
город@@ 45
дор 45
дь 45
лен 45
лина 45
миро@@ 45
нина 45
сов 45
чь 45
ёт@@ 45
ғ@@ 45
ֵ 45
غ@@ 45
ல 45
ಾ@@ 45
ཆ@@ 45
ძ@@ 45
አ@@ 45
ន@@ 45
ḻ@@ 45
ẖ@@ 45
ẞ 45
⁴ 45
ム 45
产@@ 45
共和@@ 45
半@@ 45
如@@ 45
密@@ 45
庆@@ 45
戦@@ 45
梅@@ 45
森@@ 45
橋 45
港@@ 45
經 45
经 45
自治@@ 45
軍@@ 45
隆@@ 45
面@@ 45
Bakanlığı 44
Hàn 44
Hậu 44
acquired 44
amientos 44
cantante 44
captur@@ 44
championship 44
followed 44
geç@@ 44
kuş@@ 44
operated 44
plantas 44
política 44
previous 44
prolong@@ 44
puesto 44
surround@@ 44
territorio 44
Â 44
ċ 44
Ň@@ 44
ǒ 44
ɕ@@ 44
ɵ@@ 44
ʹ 44
ΐ@@ 44
Παλαι@@ 44
ίδ@@ 44
ίδης 44
γεν@@ 44
ουλ@@ 44
υπ@@ 44
ϊ@@ 44
Богороди@@ 44
Од@@ 44
дан 44
ек@@ 44
зан@@ 44
од@@ 44
ора 44
пра@@ 44
че 44
чный 44
ьо@@ 44
Կ@@ 44
ְ 44
بن 44
ص@@ 44
ް 44
ग 44
ជ@@ 44
ត@@ 44
ạ@@ 44
ụ 44
ⵏ@@ 44
し 44
て@@ 44
労@@ 44
器@@ 44
崖@@ 44
師 44
広@@ 44
志 44
指@@ 44
清 44
罗@@ 44
臣@@ 44
角@@ 44
護@@ 44
载@@ 44
間@@ 44
音 44
风@@ 44
黨 44
리 44
하@@ 44
Kıbr@@ 43
Tras 43
cambio 43
composé 43
compuesto 43
comunic@@ 43
dentro 43
dön@@ 43
educación 43
güç 43
hakk@@ 43
htt@@ 43
personnes 43
primera 43
produits 43
quement 43
suivant 43
también 43
évolution 43
ümü 43
ˀ@@ 43
Φιλ@@ 43
άβ@@ 43
ίκ@@ 43
εδ@@ 43
ιο 43
οκ@@ 43
ωρ@@ 43
Ё 43
Воз@@ 43
Ев@@ 43
Ио@@ 43
Мал@@ 43
вы@@ 43
она@@ 43
под@@ 43
тин 43
ху@@ 43
чев 43
֔ 43
من 43
ܐ@@ 43
އ@@ 43
ं 43
জ@@ 43
ት 43
ን@@ 43
ង 43
ិ@@ 43
ḳ 43
ἶ@@ 43
⅞ 43
す@@ 43
ワ@@ 43
世界@@ 43
丛@@ 43
义@@ 43
今@@ 43
任@@ 43
塔@@ 43
孝@@ 43
安 43
射@@ 43
居 43
师@@ 43
徳@@ 43
柳@@ 43
械@@ 43
甘@@ 43
直@@ 43
祖@@ 43
総@@ 43
蔵@@ 43
装@@ 43
覧@@ 43
越@@ 43
郭@@ 43
酒@@ 43
additional 42
aplic@@ 42
aprob@@ 42
aştır@@ 42
cabeza 42
commen@@ 42
crec@@ 42
crito 42
ectif 42
espèces 42
grâce 42
hijos 42
kumbu@@ 42
piè@@ 42
retim 42
seconde 42
tüsü 42
wahi 42
 42
çer@@ 42
üstü 42
ĳ@@ 42
ʀ@@ 42
Γεώργιος 42
Κά@@ 42
ην 42
καρ@@ 42
κι@@ 42
λη 42
ρέ@@ 42
ρία 42
σφ@@ 42
τί@@ 42
φορ@@ 42
І 42
Авто@@ 42
Андрей 42
Кали@@ 42
Север@@ 42
вед@@ 42
дом 42
ды@@ 42
же 42
ити@@ 42
мя 42
нин@@ 42
ниче@@ 42
раз@@ 42
рин 42
стан@@ 42
стре@@ 42
ши 42
Գ@@ 42
տ 42
रा@@ 42
ष 42
দ@@ 42
ந@@ 42
ක@@ 42
ා 42
ུ 42
ẩn 42
ều 42
ột 42
控@@ 42
産@@ 42
羅@@ 42
虎@@ 42
金 42
성@@ 42
Hạ 41
Magharibi 41
azam@@ 41
becoming 41
crí@@ 41
cuyo 41
entonces 41
habitants 41
ildir 41
kuji@@ 41
lengu@@ 41
lignes 41
linois 41
marzo 41
obispo 41
papel 41
producción 41
rangi 41
remain@@ 41
terci@@ 41
zake 41
òi 41
úc 41
última 41
ĉ@@ 41
Đ 41
Κύ@@ 41
Χ 41
έ 41
ές 41
ίζ@@ 41
εις 41
κλη@@ 41
λά@@ 41
μή@@ 41
όμ@@ 41
Бер@@ 41
България 41
Й 41
Кре@@ 41
Под@@ 41
Раз@@ 41
Российской 41
Сло@@ 41
Федера@@ 41
Ш 41
Ше@@ 41
ате@@ 41
воз@@ 41
ген@@ 41
итель 41
каз@@ 41
лка 41
съ@@ 41
тия 41
три@@ 41
чо@@ 41
ب 41
نا 41
ُ 41
گ@@ 41
ެ@@ 41
ला 41
ங 41
ἁ@@ 41
Ἄ@@ 41
ⵎ@@ 41
二 41
全国@@ 41
写@@ 41
协@@ 41
宇@@ 41
尾@@ 41
崎@@ 41
工程 41
歌@@ 41
紀@@ 41
紫@@ 41
船@@ 41
铁@@ 41
長 41
際@@ 41
화@@ 41
However 40
Kiaus@@ 40
accu@@ 40
celui 40
charac@@ 40
damu 40
helped 40
limpi@@ 40
membre 40
nombres 40
principale 40
toda 40
uzun 40
vya 40
équipe 40
ăn 40
ıdır 40
Ł 40
ŷ 40
ɡ 40
ɬ 40
ɯ 40
ʀ 40
ʻ 40
Απ@@ 40
Ιωάννης 40
έσ@@ 40
θέν@@ 40
οτ@@ 40
ούν@@ 40
ωνία 40
Вар@@ 40
Димит@@ 40
Мат@@ 40
Петро@@ 40
вой@@ 40
лин 40
най 40
ром 40
сер@@ 40
собо@@ 40
уче@@ 40
эн@@ 40
Պ@@ 40
ա 40
গ@@ 40
ே@@ 40
ත@@ 40
ប@@ 40
ặng 40
ὅ@@ 40
ὲ 40
入@@ 40
南 40
國 40
屋 40
施@@ 40
普@@ 40
望@@ 40
権@@ 40
目@@ 40
論@@ 40
雅@@ 40
黎@@ 40
나@@ 40
인@@ 40
Fue 39
Geografía 39
Quận 39
Tiên 39
Trương 39
arrive 39
defa 39
especi@@ 39
exclusiv@@ 39
irika 39
kesi 39
lesia 39
rencontre 39
reported 39
tỉnh 39
utiliz@@ 39
ùa 39
ĉ 39
Αλ@@ 39
άρι 39
λευ@@ 39
μεν@@ 39
μη@@ 39
φυ@@ 39
Ак@@ 39
Акаде@@ 39
Ь 39
вя@@ 39
гла@@ 39
дар 39
ез@@ 39
лия 39
ны@@ 39
сен@@ 39
ствен@@ 39
є 39
ֶ 39
الع@@ 39
الم@@ 39
َ 39
ܒ@@ 39
व 39
য 39
ನ@@ 39
ო 39
᜔ 39
គ@@ 39
ản 39
ẩm 39
ắc 39
ゲ@@ 39
仏@@ 39
副@@ 39
婦@@ 39
息@@ 39
振@@ 39
易@@ 39
會@@ 39
歌 39
正 39
治 39
溪 39
然@@ 39
玄@@ 39
第二@@ 39
豊@@ 39
队 39
陶@@ 39
龍 39
다 39
신@@ 39
Cá 38
Nhà 38
caused 38
ceinture 38
eshim@@ 38
exclus@@ 38
façon 38
femen@@ 38
gira 38
mới 38
niños 38
novembre 38
pitia 38
tabia 38
thị 38
ungua 38
¦ 38
évol@@ 38
Đảng 38
Ľ 38
ǂ@@ 38
Ș 38
Αγία 38
Ελληνική 38
Νε@@ 38
Περι@@ 38
έρα 38
ηδ@@ 38
ικής 38
ιστ@@ 38
μή 38
μου 38
μπο@@ 38
νά@@ 38
ροι 38
σε@@ 38
Андре@@ 38
Бор@@ 38
Воен@@ 38
Ген@@ 38
Гру@@ 38
Дру@@ 38
Институ@@ 38
Ке@@ 38
Серге@@ 38
автомоби@@ 38
бер@@ 38
вы 38
дан@@ 38
лни 38
логи@@ 38
мия 38
нок 38
поли@@ 38
сан@@ 38
строитель@@ 38
сту@@ 38
тар@@ 38
чер@@ 38
қ 38
Բ@@ 38
փ@@ 38
آ@@ 38
ة 38
ت 38
ش 38
ف 38
يا 38
ग@@ 38
হ@@ 38
ਾ@@ 38
ರ@@ 38
ස@@ 38
ཀ@@ 38
ក 38
ᠠ@@ 38
ếu 38
ổi 38
Ἱ@@ 38
Ῥ@@ 38
₩ 38
る 38
わ@@ 38
グ 38
ソ@@ 38
ボ@@ 38
劇@@ 38
化 38
华 38
右@@ 38
団 38
型@@ 38
岛 38
座 38
感@@ 38
成 38
无@@ 38
橋@@ 38
気@@ 38
浦@@ 38
独@@ 38
相@@ 38
级@@ 38
范@@ 38
茶@@ 38
辛@@ 38
际@@ 38
麻@@ 38
黑@@ 38
정@@ 38
Chiến 37
Lương 37
Mã 37
Từ 37
Utur@@ 37
activités 37
atoliki 37
ağır@@ 37
beaucoup 37
collaboration 37
connue 37
correspon@@ 37
cú 37
durante 37
ekwa 37
existe 37
formas 37
geldi 37
included 37
insan 37
juillet 37
kız 37
müş 37
nchi 37
oloni 37
político 37
pública 37
seasons 37
segundo 37
usiano 37
wanah@@ 37
 37
¸ 37
Ą@@ 37
ılan 37
̊ 37
Βι@@ 37
Λι@@ 37
Μπ@@ 37
Νέα 37
Πλ@@ 37
άκης 37
ίδες 37
δί@@ 37
εν 37
ημα 37
ρον@@ 37
σης 37
στά@@ 37
[...]
