ya 430186
. 411759
wa 321389
na 311688
, 300899
katika 123455
kwa 115363
ni 107700
&quot; 96989
la 86523
) 84269
( 84121
ku@@ 76177
za 74821
m@@ 46486
M@@ 44592
cha 42937
kuwa 42363
mwaka 42311
kama 41404
yake 38623
@-@ 38001
u@@ 37273
a 34736
i 33736
U@@ 30727
o 30198
ia 30060
u 29890
ali@@ 29747
ak@@ 29372
ana 29131
K@@ 28838
w@@ 28781
nchini 28672
: 27603
am@@ 27310
hu@@ 25827
j@@ 24266
au 23896
N@@ 23517
ani 23500
ki@@ 22926
k@@ 22108
an@@ 21741
aji 21642
isha 21264
kutoka 21150
ik@@ 21037
in@@ 20933
n@@ 20772
kwenye 20178
Ki@@ 19899
a@@ 19677
pia 19283
lugha 19223
ili@@ 19173
ini 19171
zaidi 18897
vya 18893
z@@ 18801
watu 18559
im@@ 18452
h@@ 18144
ma@@ 18108
wali@@ 17875
un@@ 17781
wake 17654
alikuwa 17451
al@@ 17344
&#91; 17132
&#93; 17076
y@@ 16840
at@@ 16827
ika 16802
mji 16781
H@@ 16652
ari 16591
kati 16548
; 16275
o@@ 16144
T@@ 16087
Mto 15849
W@@ 15580
as@@ 15489
us@@ 15451
ut@@ 15218
uli@@ 15180
ili 15101
wak@@ 15014
um@@ 15004
il@@ 14811
ot@@ 14461
ch@@ 14412
kwanza 14316
mwa 14293
ali 14220
wan@@ 14168
B@@ 14119
Kwa 14030
nchi 14010
hii 13969
it@@ 13936
ar@@ 13872
p@@ 13802
Tanzania 13766
A@@ 13762
zi 13639
ano 13590
S@@ 13587
v@@ 13564
pamoja 13396
vi@@ 13396
af@@ 13247
hadi 13194
wakazi 13178
miaka 13049
Mwaka 12965
i@@ 12883
ilikuwa 12860
jina 12617
sh@@ 12600
ab@@ 12591
&apos; 12525
ang@@ 12513
aa 12474
Afrika 12463
wakati 12446
kut@@ 12424
ina 12411
ah@@ 12328
juu 12149
uk@@ 12092
Kenya 11966
aj@@ 11913
ap@@ 11904
ek@@ 11721
lakini 11675
ish@@ 11663
f@@ 11648
huko 11581
ama 11579
kata 11426
ung@@ 11370
moja 11361
tarehe 11339
b@@ 11259
om@@ 11216
I@@ 11117
ishi 11051
iko 11029
mara 10939
mto 10867
oni 10691
hiyo 10626
ua 10618
t@@ 10603
P@@ 10561
ndani 10479
mnamo 10478
L@@ 10441
Ali@@ 10355
kazi 10329
aka 10293
asi 10243
D@@ 10242
ambayo 10189
ad@@ 10168
aw@@ 10155
kus@@ 10110
Bahari 10082
we 9975
mak@@ 9894
idadi 9886
J@@ 9851
kum@@ 9813
iki 9810
e@@ 9783
mi@@ 9682
mw@@ 9637
amu 9604
eneo 9585
ara 9570
Mkoa 9448
ha@@ 9429
R@@ 9394
Katika 9361
ishwa 9331
g@@ 9321
azi 9315
Kati 9254
e 9217
ala 9175
sana 9174
Maji 9138
is@@ 9137
sehemu 9133
hatimaye 9088
iwa 9059
ima 9056
ub@@ 8963
G@@ 8950
ok@@ 8899
nyingi 8881
yao 8832
kup@@ 8794
baada 8749
isi 8702
awa 8701
mkoa 8659
kwamba 8654
ur@@ 8575
up@@ 8570
ea 8566
eza 8541
kubwa 8497
el@@ 8391
iri 8382
chini 8371
kundi 8300
oma 8298
wat@@ 8284
mat@@ 8263
amb@@ 8253
Marekani 8227
of@@ 8224
ambao 8190
Wilaya 8178
mas@@ 8161
ema 8121
ing@@ 8073
et@@ 7989
tu 7970
huo 7960
d@@ 7901
ka 7899
ig@@ 7894
unapatikana 7831
hasa 7786
hivyo 7721
Kusini 7650
ny@@ 7632
ati 7618
anza 7604
ai 7581
ag@@ 7555
li@@ 7545
ti@@ 7474
oa 7468
mkuu 7439
E@@ 7430
an 7409
anga 7392
os@@ 7379
and@@ 7351
on@@ 7335
uf@@ 7306
ata 7300
uni 7275
timu 7272
ul@@ 7247
uz@@ 7230
aki 7219
uh@@ 7214
O@@ 7172
C@@ 7163
if@@ 7149
V@@ 7096
1 7068
yanaishia 7054
idi 7049
em@@ 7042
2 6963
Ch@@ 6955
kawaida 6939
sensa 6939
sababu 6933
s@@ 6922
weza 6905
l@@ 6833
mt@@ 6831
ko 6823
mbalimbali 6815
- 6799
Baada 6763
F@@ 6731
ao 6711
yote 6702
ati@@ 6673
bi@@ 6658
umu 6567
yenye 6565
map@@ 6519
Uganda 6512
uma 6486
zin@@ 6460
mwan@@ 6449
wasemaji 6433
az@@ 6408
was@@ 6387
op@@ 6382
kuf@@ 6376
ir@@ 6372
id@@ 6370
th@@ 6370
huu 6365
Z@@ 6337
hut@@ 6334
namba 6319
Mashariki 6273
kaskazini 6267
Wa@@ 6225
en@@ 6213
3@@ 6197
endelea 6191
yo 6185
abu 6171
ita 6168
eni 6162
kim@@ 6160
wengi 6147
wilaya 6143
mb@@ 6115
kila 6111
or@@ 6071
kaunti 6057
Kit@@ 6050
ta@@ 6021
iz@@ 6016
mad@@ 6001
unga 5992
wa@@ 5963
kit@@ 5915
KK 5912
Sh@@ 5912
vile 5912
maji 5894
alizaliwa 5892
ji 5879
maj@@ 5873
ug@@ 5844
anya 5810
po@@ 5804
eo 5801
ol@@ 5799
3 5790
itwa 5779
imu 5767
si 5710
us 5707
fu 5698
bahari 5696
eti 5650
ambaye 5645
bar@@ 5644
hali 5623
Kufuatana 5616
ja 5616
aliwa 5614
er@@ 5586
alit@@ 5563
kur@@ 5554
4@@ 5551
wapatao 5551
lake 5550
wana@@ 5542
uainishaji 5537
es@@ 5531
Wakati 5526
kabla 5512
Mungu 5485
ba 5482
on 5461
iliyofanyika 5445
har@@ 5444
usi 5438
2012 5434
lin@@ 5429
wenye 5416
Mnamo 5410
siku 5393
ume 5387
au@@ 5385
aina 5384
wal@@ 5382
vy@@ 5378
ye 5376
magharibi 5362
Kik@@ 5359
amba 5346
iti 5337
/ 5329
Kanisa 5327
isho 5322
umia 5311
Al@@ 5310
ath@@ 5299
Kristo 5285
ach@@ 5254
y 5254
kuna 5251
inayozungumzwa 5244
adi 5237
upande 5227
Ni 5211
Kim@@ 5191
karne 5191
kik@@ 5191
ki 5169
mbili 5168
ambapo 5163
Uingereza 5161
kusini 5150
ote 5120
mp@@ 5101
m 5100
aweza 5083
ich@@ 5075
Y@@ 5073
njia 5065
akiwa 5060
muziki 5058
imehesabiwa 5057
zake 5048
Ny@@ 5030
av@@ 5024
io 5023
ada 5020
uka 5019
dhidi 5008
olewa 5002
undi 4999
in 4996
Naili 4992
da 4983
ikiwa 4979
inayo@@ 4956
tena 4952
4 4938
kuj@@ 4929
ona 4928
ajili 4923
karibu 4908
mab@@ 4891
maf@@ 4891
al 4864
inahusu 4858
tofauti 4850
Kis@@ 4842
taifa 4842
eli 4834
Papa 4831
Kin@@ 4828
muda 4824
jimbo 4815
inga 4800
5@@ 4799
iliyo@@ 4775
Ma@@ 4760
aja 4760
filamu 4760
fuata 4754
hi@@ 4752
6@@ 4751
ongo 4741
5 4734
di@@ 4734
ng@@ 4725
sasa 4723
ush@@ 4707
mtu 4702
ta 4699
Makala 4691
ilit@@ 4689
An@@ 4686
nyingine 4679
olojia 4659
hata 4625
ud@@ 4625
aba 4621
In@@ 4594
uzi 4590
bu@@ 4574
ile 4571
de 4559
tangu 4559
end@@ 4557
iliy@@ 4553
wote 4549
wao 4548
– 4544
Kil@@ 4540
mmoja 4535
serikali 4501
ikia 4476
kadhaa 4469
pili 4455
mashariki 4453
hili 4451
fu@@ 4446
ezi 4442
kutokana 4442
po 4431
una@@ 4430
humo 4426
hivi 4419
we@@ 4408
nafasi 4404
isi@@ 4403
Wak@@ 4402
Kaskazini 4380
anda 4378
pa 4374
dh@@ 4370
ifu 4360
yan@@ 4353
oh@@ 4339
wengine 4337
kuliko 4334
ingi 4333
una 4320
di 4315
hilo 4299
mit@@ 4299
umika 4296
tu@@ 4295
ambu@@ 4267
ha 4267
okea 4266
tatu 4255
Tangu 4248
Kongo 4246
maisha 4227
onekana 4222
s 4222
ay@@ 4219
&amp; 4214
asili 4213
hi 4209
Mw@@ 4208
esha 4188
&#124; 4186
aliye@@ 4184
zo 4174
Chuo 4173
waf@@ 4164
alipo@@ 4145
eb@@ 4144
Mak@@ 4142
r@@ 4139
any@@ 4119
Mji 4103
6 4092
kuhusu 4076
7@@ 4074
unda 4073
ep@@ 4067
isa 4039
uch@@ 4031
saf@@ 4030
eta 4021
ogo 4018
be 4008
asa 4002
chake 4001
Vi@@ 3999
h 3997
baadaye 3991
20 3990
be@@ 3990
duniani 3988
ziwa 3985
ira 3984
leo 3984
eka 3977
es 3972
Sikukuu 3956
kuz@@ 3953
mujibu 3952
maeneo 3928
mik@@ 3924
aya 3921
indi 3915
Mas@@ 3911
7 3908
ash@@ 3883
ow@@ 3883
kub@@ 3876
mag@@ 3860
Ulaya 3849
ji@@ 3849
Mar@@ 3835
kush@@ 3833
mu@@ 3833
de@@ 3832
uri 3831
mkubwa 3830
enga 3827
ina@@ 3826
uo 3813
ambo 3802
muhimu 3801
ele 3795
Kiingereza 3790
10 3786
Ufaransa 3784
oka 3775
“ 3773
og@@ 3766
nje 3754
irika 3748
shule 3743
walio@@ 3743
Pia 3741
mchezaji 3740
kw@@ 3739
mar@@ 3723
Kib@@ 3719
vit@@ 3701
oko 3696
walikuwa 3696
kale 3691
maarufu 3687
Bar@@ 3682
imba 3682
d 3680
bila 3679
thi 3679
uv@@ 3678
kuu 3677
ti 3677
Hindi 3675
kufanya 3673
yali@@ 3636
uta 3617
kuli@@ 3616
Ujerumani 3615
iriki 3614
mjini 3611
ib@@ 3605
adhi 3596
Eneo 3593
eg@@ 3590
watoto 3589
yaani 3586
Magharibi 3584
zote 3584
of 3581
familia 3575
vin@@ 3567
um 3564
und@@ 3562
pekee 3554
kupitia 3550
” 3544
kul@@ 3539
inda 3533
imani 3527
x 3525
ungu 3515
wen@@ 3515
opo 3512
hak@@ 3509
atia 3491
kin@@ 3482
ishaji 3479
ame@@ 3476
enda 3471
8@@ 3463
ana@@ 3463
wam@@ 3462
9 3457
endo 3455
ob@@ 3449
wanawake 3448
zamani 3436
biashara 3431
% 3427
ingine 3424
kabisa 3424
8 3417
The 3417
ou@@ 3417
usu 3413
vita 3413
iti@@ 3407
ri@@ 3407
alis@@ 3400
mah@@ 3388
19 3386
alim@@ 3381
julikana 3378
Januari 3369
yo@@ 3367
Was@@ 3364
ro@@ 3363
aha 3362
umiwa 3361
ayo 3355
ida 3354
kan@@ 3350
zili@@ 3348
bunge 3346
Mei 3337
klabu 3336
Ku@@ 3334
ime@@ 3334
imb@@ 3330
kutumia 3321
9@@ 3315
ba@@ 3315
Mat@@ 3312
wimbo 3312
habari 3307
oto 3305
si@@ 3305
atu 3279
wala 3277
Wakristo 3275
12 3272
waz@@ 3269
udi 3265
mwisho 3263
onyesha 3263
okana 3262
eh@@ 3260
historia 3258
umb@@ 3246
eshi 3245
inay@@ 3242
elimu 3239
ango 3237
huwa 3231
anzishwa 3229
maz@@ 3229
k 3224
bora 3220
wani 3209
maana 3205
ong@@ 3205
mtakatifu 3204
zinaz@@ 3202
adil@@ 3201
Oktoba 3198
Japani 3195
ari@@ 3194
ar 3193
awali 3190
15 3186
uliwa 3186
am 3185
kuto@@ 3178
Italia 3161
alik@@ 3155
mita 3131
mpya 3129
kipindi 3128
er 3122
ezwa 3117
apa 3116
mengine 3115
.@@ 3112
Kikuu 3112
emb@@ 3111
iga 3107
albamu 3102
apo 3094
enzi 3093
Julai 3091
hizi 3091
Roma 3090
BK 3089
kis@@ 3081
Juni 3080
zao 3078
ko@@ 3070
ito 3069
ezaji 3068
uj@@ 3066
bo@@ 3064
ambazo 3062
pen@@ 3042
kupata 3040
binadamu 3035
I 3030
kuanzia 3030
engo 3025
umba 3024
izi 3022
mpira 3021
iki@@ 3018
Novemba 3015
Burundi 3012
Kir@@ 3009
waishio 3006
kil@@ 3002
kij@@ 3000
man@@ 2996
ri 2996
ih@@ 2983
ale 2976
jamii 2975
jumla 2968
mis@@ 2967
mito 2967
15@@ 2965
umri 2962
lili@@ 2960
yanay@@ 2951
Machi 2944
hayo 2942
uko 2936
milioni 2932
Desemba 2927
Agosti 2918
Wan@@ 2911
Septemba 2910
ing 2908
afu 2907
anay@@ 2906
2000 2905
Mal@@ 2897
t 2893
Maisha 2892
ma 2888
ziliz@@ 2886
Aprili 2876
huadhimishwa 2875
km 2874
mfano 2868
18 2867
aliy@@ 2865
du 2865
Historia 2864
ip@@ 2861
New 2854
11 2853
lia 2852
wi 2848
sa 2847
angaza 2841
du@@ 2837
iku@@ 2834
ane 2833
apo@@ 2831
takriban 2826
dunia 2825
tam@@ 2819
usawa 2818
mil@@ 2804
2014 2802
30 2795
ham@@ 2789
Mi@@ 2787
miguu 2781
ino 2774
16 2771
kifo 2770
uru 2767
nguvu 2761
Wat@@ 2760
kimataifa 2759
Nigeria 2758
eng@@ 2751
kiasi 2751
kun@@ 2750
nyimbo 2747
Kuna 2746
2007 2741
mau@@ 2737
ye@@ 2732
iv@@ 2731
A 2727
kuji@@ 2725
ania 2724
aki@@ 2721
makuu 2721
13 2720
msingi 2719
Ar@@ 2713
to 2713
and 2711
uziki 2705
od@@ 2704
kiwa 2701
2@@ 2692
17 2691
Kid@@ 2690
Februari 2689
Yesu 2689
dini 2682
matumizi 2679
adi@@ 2675
Tuzo 2667
ej@@ 2662
wahi 2653
fanya 2644
jiji 2642
ungo 2638
kisiwa 2637
mrefu 2637
Dunia 2636
andika 2636
et 2634
16@@ 2627
amezaliwa 2627
wach@@ 2627
michezo 2624
andishi 2622
esh@@ 2617
akati 2615
andikwa 2611
aifa 2603
ora 2592
Hata 2589
Jamhuri 2587
14 2586
mwenye 2581
hapo 2578
mash@@ 2573
0,000 2567
aza 2566
kua 2561
mch@@ 2557
to@@ 2557
mengi 2555
do 2554
kuw@@ 2549
Uch@@ 2548
ezea 2548
Kig@@ 2547
umwa 2545
25 2542
elekea 2537
zwa 2537
ho@@ 2534
liwa 2533
ulikuwa 2526
hizo 2522
ajulikana 2519
the 2518
ine 2513
kampuni 2513
Katoliki 2507
era 2504
Idadi 2501
ansi 2498
bi 2496
kam@@ 2495
Mor@@ 2493
2008 2489
askofu 2489
alish@@ 2487
2009 2483
engen@@ 2476
imo 2474
su@@ 2473
mechi 2470
fulani 2466
As@@ 2463
ambalo 2463
Mu@@ 2461
jum@@ 2456
mpaka 2454
uwezo 2454
se@@ 2444
unguza 2444
me@@ 2442
alicheza 2436
mtoto 2434
zi@@ 2432
ache 2430
ule 2430
baadhi 2429
rasmi 2427
utawala 2426
Kar@@ 2425
alia 2425
wana 2418
ato 2416
aidia 2415
ie 2415
mojawapo 2415
mfumo 2414
2006 2410
lik@@ 2410
ewa 2408
el 2407
Misri 2405
jijini 2405
linal@@ 2405
umbo 2404
l 2403
Ab@@ 2402
kom@@ 2400
yak@@ 2400
kwenda 2397
Man@@ 2396
sheria 2396
Am@@ 2395
inaweza 2393
ongozi 2393
ov@@ 2391
iy@@ 2389
sa@@ 2386
ilia 2385
kuch@@ 2384
ota 2382
hus@@ 2380
en 2376
pata 2376
lilil@@ 2374
21 2369
ibu 2369
Mt@@ 2367
mz@@ 2366
2011 2362
unge 2362
imbo 2359
kuv@@ 2355
Lakini 2351
ne 2348
Jina 2347
emu 2347
pande 2347
ang 2345
mwandishi 2341
aga 2332
haki 2330
vu 2330
U 2327
kiwango 2325
inat@@ 2322
kon@@ 2322
irik@@ 2320
’ 2320
aguliwa 2317
nne 2317
g 2316
bu 2309
damu 2307
li 2296
isiwa 2294
mwingine 2294
Kih@@ 2292
ungwa 2292
vip@@ 2290
izo 2289
is 2284
Kazi 2276
tuzo 2275
2015 2270
re@@ 2270
ain@@ 2267
atibu 2265
ge 2263
le@@ 2263
mwili 2262
amo 2256
gi@@ 2256
bali 2255
pe@@ 2254
iku 2253
amini 2251
17@@ 2249
wanda 2245
shirika 2243
Marejeo 2240
ez@@ 2237
kuk@@ 2235
ah 2234
tak@@ 2233
rangi 2231
vili@@ 2229
wili 2227
mg@@ 2224
ugonjwa 2223
her@@ 2220
24 2219
ae 2217
B 2215
ila 2213
kip@@ 2211
ekwa 2208
yeye 2202
chama 2201
ababisha 2191
maal@@ 2186
Ziwa 2183
wap@@ 2174
kilich@@ 2173
kucheza 2172
aka@@ 2171
kutoa 2167
apatikana 2163
kea 2163
ndege 2158
msh@@ 2153
neno 2151
amia 2148
elek@@ 2148
wezi 2148
Th@@ 2143
ra@@ 2143
asilimia 2139
10@@ 2136
pewa 2134
ind@@ 2133
kud@@ 2132
14@@ 2129
Umoja 2128
oz@@ 2125
vil@@ 2123
at 2122
ombo 2122
000 2119
anzisha 2119
ambako 2117
ndio 2117
zil@@ 2114
itaji 2112
kio 2110
egemea 2108
sita 2106
mahali 2104
chang@@ 2101
kumi 2100
dia 2098
awala 2097
Waz@@ 2095
amizi 2093
pu@@ 2090
ge@@ 2081
undo 2080
uchumi 2078
chuo 2077
nyota 2075
wez@@ 2075
azo 2074
hapa 2074
as 2070
hal@@ 2064
22 2062
anywa 2061
eshwa 2060
Tanganyika 2058
mfalme 2057
amani 2051
os 2051
Mkuu 2050
lil@@ 2050
uli 2050
halafu 2048
uhuru 2048
oro 2047
Uturuki 2046
ingia 2046
Mwan@@ 2044
uwanja 2040
wanyama 2037
Kut@@ 2032
Amerika 2031
bado 2026
Kab@@ 2023
osa 2021
afrika 2020
binafsi 2019
st@@ 2018
mambo 2016
ke 2015
mwezi 2012
ef@@ 2011
2005 2007
ra 1999
afan@@ 1998
yana@@ 1997
II 1996
kujit@@ 1996
ai@@ 1995
mdogo 1993
yaliy@@ 1993
ongoza 1992
jeshi 1989
ate 1987
or 1981
ingawa 1974
ed@@ 1969
mbali 1969
aliz@@ 1965
23 1963
eno 1963
Wam@@ 1958
asilia 1958
katikati 1958
vik@@ 1958
uchaguzi 1954
walit@@ 1952
ikali 1951
acha 1950
fi@@ 1949
uy@@ 1949
islamu 1946
Jimbo 1943
ezo 1937
mama 1937
mazingira 1934
chukua 1932
kikuu 1932
chakula 1931
joto 1931
Wakatoliki 1928
ke@@ 1926
osi 1926
ndogo 1925
mam@@ 1924
mta@@ 1922
ubwa 1921
Uwanja 1918
mal@@ 1918
Rais 1915
iny@@ 1912
tr@@ 1912
atikana 1911
Atlantiki 1909
Mil@@ 1907
ono 1906
chi 1904
2002 1898
² 1898
mwenyewe 1895
un 1893
ilo 1891
2010 1890
hao 1888
falme 1887
kijiji 1883
kar@@ 1882
kwake 1881
hamia 1880
le 1880
sawa 1877
wakil@@ 1875
zile 1875
Guinea 1874
hud@@ 1874
Hii 1873
dawa 1872
huelekea 1872
pot@@ 1864
awi 1863
ambuk@@ 1860
é 1860
ela 1859
13@@ 1857
Alikuwa 1854
Baadaye 1854
27 1851
nyumbani 1850
uso 1850
ura 1848
Wal@@ 1847
pel@@ 1846
alif@@ 1841
te@@ 1840
Mah@@ 1834
n 1834
Yeye 1832
usha 1832
jinsi 1831
ahudi 1829
iriki@@ 1826
makubwa 1824
anzo 1821
umbu@@ 1821
Mia 1818
namna 1818
Tarafa 1811
28 1809
Kiarabu 1809
engwa 1807
= 1805
len@@ 1804
huru 1803
hab@@ 1797
tish@@ 1796
Mara 1794
1,@@ 1792
indo 1792
Maj@@ 1788
Waorthodoksi 1787
bas@@ 1787
Kifaransa 1786
War@@ 1786
wah@@ 1786
Di@@ 1784
visiwa 1783
hai 1782
Ng@@ 1781
onjwa 1780
Wah@@ 1777
wanaoishi 1777
hur@@ 1776
rais 1775
Kama 1774
Ukristo 1772
jini 1772
26 1771
Ghana 1771
tun@@ 1769
usiano 1769
dugu 1765
ist@@ 1760
mwen@@ 1757
pwani 1755
lilikuwa 1754
p 1753
aribu 1752
elea 1751
upo 1751
kisiasa 1749
hatari 1747
Mag@@ 1746
jiunga 1746
Vita 1742
pokea 1742
Watu 1741
kali 1741
urefu 1741
baba 1738
endi 1738
fupi 1730
w 1727
2016 1726
undwa 1726
matokeo 1724
Yohane 1723
indwa 1723
29 1722
alianza 1720
embe 1720
El@@ 1719
uku@@ 1717
anaheshimiwa 1716
huduma 1714
ifu@@ 1714
kulingana 1714
ovu 1714
tano 1713
Mp@@ 1712
amua 1712
kia 1712
ando 1710
mr@@ 1707
Mpya 1706
wale 1703
wenyewe 1703
kidogo 1702
M 1700
ayar@@ 1700
kat@@ 1700
Waf@@ 1699
asisi 1699
kinach@@ 1699
amp@@ 1696
jo 1695
z 1694
saba 1688
kich@@ 1687
avyo 1686
uti@@ 1684
2018 1681
Orodha 1681
kitabu 1680
Tarehe 1677
kab@@ 1676
ori 1676
ev@@ 1673
kanda 1673
oloni 1672
ongeza 1672
ungua 1670
Paulo 1666
atwa 1666
iliano 1663
anz@@ 1661
nyumba 1659
vyo@@ 1658
12@@ 1657
spishi 1657
kid@@ 1656
angu 1655
mlima 1654
huku 1652
watakatifu 1652
has@@ 1650
Jamii 1648
hewa 1648
Ag@@ 1647
ij@@ 1647
so@@ 1647
ahada 1640
hif@@ 1640
Urusi 1639
picha 1637
vitabu 1637
Dar 1636
maneno 1634
Ser@@ 1633
abara 1633
haya 1633
huri 1633
uu 1629
Map@@ 1628
ond@@ 1628
mwigizaji 1625
miji 1624
ami@@ 1623
Kuu 1622
uti 1622
pi@@ 1621
Dola 1620
Jum@@ 1620
Mad@@ 1620
kuh@@ 1620
te 1620
C 1617
utamaduni 1617
wawili 1617
endel@@ 1613
b 1610
Kip@@ 1609
2017 1608
Sab@@ 1608
Hispania 1607
uawa 1606
ere 1605
100 1604
air@@ 1604
vijana 1603
anii 1599
anzi 1599
abila 1598
are 1598
Kilatini 1597
do@@ 1597
2013 1596
pas@@ 1596
bao 1595
ulu 1593
aliza 1592
enea 1592
Ili@@ 1590
adili 1589
refu 1587
bin@@ 1586
eri 1586
milima 1585
alich@@ 1583
eleza 1583
ulimweng@@ 1582
Ru@@ 1581
afuta 1580
ambi 1580
mwanam@@ 1579
,000 1577
korongo 1576
men@@ 1571
c@@ 1570
zim@@ 1570
Australia 1568
ad 1566
40 1565
Gu@@ 1564
ui 1564
2020 1563
3,@@ 1563
kari 1562
mchang@@ 1562
makao 1561
engine 1558
gt 1558
ambia 1556
Kiswahili 1555
avy@@ 1555
lim@@ 1555
shughuli 1554
anyika 1551
masomo 1550
ekana 1548
haz@@ 1546
hicho 1546
jit@@ 1545
31 1543
avu 1543
Wab@@ 1540
hiki 1540
2019 1539
postikodi 1539
Kif@@ 1536
man 1536
sauti 1535
moyo 1534
majina 1533
aanisha 1532
ajwa 1532
msimu 1531
ike 1530
lt 1529
ulio@@ 1529
Biblia 1527
umo 1527
ahidi 1526
oti 1526
Mab@@ 1525
mbele 1525
! 1524
hatua 1523
enti 1522
ju@@ 1522
ombe 1519
afya 1516
angulia 1516
unza 1515
Kal@@ 1514
kilomita 1512
jumu@@ 1511
Hivyo 1510
K. 1510
Asia 1509
iriwa 1508
tisha 1507
ndiyo 1506
opatikana 1506
ambacho 1505
Ethiopia 1504
aguzi 1503
Bonde 1497
2003 1495
afu@@ 1492
sal@@ 1492
ran@@ 1490
York 1489
andao 1489
2001 1488
Shule 1486
alifariki 1484
adiriwa 1483
John 1482
Kam@@ 1482
kili@@ 1482
ongoni 1482
linalopatikana 1479
mwimbaji 1479
vir@@ 1479
vyake 1478
kuanz@@ 1477
bea 1476
ee 1475
jia 1475
zinazo@@ 1475
dio 1474
Mo@@ 1473
Ut@@ 1473
c 1472
zuri 1472
kina 1471
ho 1470
oja 1470
sim@@ 1464
esi 1463
ong 1461
ungano 1461
kari@@ 1460
mich@@ 1459
mabadiliko 1458
1990 1457
Salaam 1456
angwa 1453
kote 1453
ongezeka 1453
say@@ 1453
baya 1452
pan@@ 1452
ingo 1451
2004 1450
Ak@@ 1450
kisha 1450
undu 1450
kumbu@@ 1448
uba 1448
ic@@ 1447
ardhi 1445
anach@@ 1443
msa@@ 1442
no 1437
udi@@ 1436
oy@@ 1435
Uhindi 1434
weka 1433
afiri 1432
emi 1431
usika 1428
ac@@ 1427
okrasia 1427
Ba@@ 1426
yako 1426
ikuwa 1424
iliyot@@ 1424
ast@@ 1423
r 1423
50 1422
Bur@@ 1422
utafiti 1421
emo 1420
eshimiwa 1420
iadini 1419
mwanachama 1419
ukumu 1419
mfululizo 1418
Way@@ 1417
maendeleo 1417
isheni 1416
ku 1415
zuia 1415
Kibantu 1414
kituo 1414
mwanamke 1411
one 1410
China 1409
yeji 1408
ilik@@ 1407
Lu@@ 1405
kitaifa 1404
zilizo@@ 1403
ony@@ 1400
ashara 1397
kufikia 1397
Zanzibar 1395
ena 1393
wanza 1393
.. 1392
Ben@@ 1392
amin@@ 1392
Sp@@ 1391
Ta@@ 1391
takatifu 1391
yen@@ 1391
kisasa 1389
mf@@ 1389
umi 1389
iliwa 1387
soka 1387
wad@@ 1387
evile 1386
kol@@ 1385
ni@@ 1385
20@@ 1384
fa@@ 1383
por@@ 1382
alme 1379
elewa 1379
sw@@ 1378
omba 1377
lo@@ 1376
n.k. 1376
walio 1375
wepo 1375
gu@@ 1374
arifa 1373
induzi 1373
siri 1372
inayot@@ 1370
jerumani 1370
majimbo 1370
posta 1370
anyiko 1368
naye 1368
vizuri 1368
aalamu 1366
alipata 1366
ers 1366
kataba 1365
halisi 1364
esa 1363
jeni 1363
unzi 1363
upe 1363
anishwa 1361
haraka 1360
ungum@@ 1360
Gal@@ 1358
Waislamu 1357
Kigiriki 1355
iger 1354
ishoni 1354
hesh@@ 1352
kifupi 1352
wafany@@ 1352
0@@ 1350
haw@@ 1350
Kiy@@ 1349
Ufa 1349
abab@@ 1347
pokuwa 1347
Alit@@ 1345
ehe 1345
uza 1345
kr@@ 1344
kufu@@ 1343
Wali@@ 1342
Car@@ 1340
kiongozi 1335
walik@@ 1333
kikubwa 1332
Waj@@ 1331
Chama 1330
Mch@@ 1330
Mus@@ 1328
ola 1328
4,@@ 1326
Alb@@ 1326
ak 1325
met@@ 1324
rekodi 1323
mip@@ 1320
ze 1320
waj@@ 1317
2,@@ 1316
laka 1316
akili 1315
alifanya 1315
aria 1314
miwili 1314
onge@@ 1314
aume 1313
matatizo 1313
Nyan@@ 1312
kir@@ 1311
usal@@ 1310
awany@@ 1309
ber@@ 1308
omo 1308
anchi 1307
bad@@ 1305
Kale 1304
fur@@ 1304
haa 1304
kad@@ 1303
ay 1302
upendo 1301
wango 1301
Kich@@ 1298
Maria 1298
Kirumi 1297
Un@@ 1297
lich@@ 1297
vid@@ 1296
zoni 1294
Be@@ 1293
ga 1293
kumbu 1293
tabia 1293
dar@@ 1292
Hu@@ 1291
hakuna 1291
sanaa 1289
zen@@ 1289
angazwa 1288
mwanzo 1288
Makao 1285
vyo 1283
Nairobi 1282
ech@@ 1282
ole 1282
par@@ 1281
elezo 1280
ene 1280
Ji@@ 1279
O 1279
min@@ 1279
andi@@ 1278
arabu 1278
kamili 1277
uma@@ 1276
kuishi 1275
Mlima 1274
ton 1274
Lugha 1273
umbe 1273
laz@@ 1272
mif@@ 1272
Mon@@ 1271
mashindano 1271
siasa 1271
unguzi 1269
ze@@ 1269
Tab@@ 1268
Ing@@ 1267
Tr@@ 1267
chu@@ 1266
matibabu 1266
Re@@ 1265
inzani 1265
x@@ 1265
Ad@@ 1264
Le@@ 1263
Q@@ 1263
wazo 1263
fa 1262
yewe 1262
wenzake 1261
Mataifa 1260
pa@@ 1260
fedha 1259
son 1259
Br@@ 1258
kiny@@ 1258
T 1257
adiri 1257
afiti 1257
ondo@@ 1257
it 1256
kusababisha 1255
umeme 1255
ogoro 1254
Har@@ 1253
msanii 1253
ajiri 1252
Bo@@ 1251
anzia 1250
ass@@ 1250
unao@@ 1250
Tak@@ 1244
kuingia 1244
kutengen@@ 1244
Kamp@@ 1243
anik@@ 1243
isti 1243
ahi 1242
ten@@ 1242
ndiye 1241
nyuma 1239
Kiaustronesia 1238
azama 1238
huitwa 1238
wanah@@ 1237
irani 1236
ula 1236
unganisha 1236
Wimbo 1235
wiki 1235
ume@@ 1234
wasi@@ 1234
kweli 1232
ingi@@ 1230
oli 1230
oo 1230
uwe@@ 1230
mwanasiasa 1229
ru@@ 1229
ukw@@ 1229
Pe@@ 1228
akuwa 1227
war@@ 1227
vifaa 1226
sifa 1222
aur@@ 1221
avyo@@ 1219
bara 1219
tar@@ 1218
orodha 1217
Turkana 1216
kike 1215
wanafunzi 1215
Wag@@ 1214
ingereza 1213
odi 1213
angalia 1211
kabila 1211
och@@ 1210
tambu@@ 1209
San@@ 1208
ake 1208
ph@@ 1208
kutano 1207
onyesho 1207
amp 1206
ew@@ 1206
ongozwa 1206
osh@@ 1206
Kimataifa 1205
kilimo 1205
oj@@ 1205
sam@@ 1205
Usw@@ 1204
doa 1204
mani 1204
30@@ 1203
aribio 1203
hiwa 1203
mshindi 1203
seli 1203
cho@@ 1202
ishia 1202
ur 1202
je 1201
kijamii 1200
kiz@@ 1200
hay@@ 1199
ou 1196
dalili 1194
Pi@@ 1193
akazi 1192
id 1192
1999 1191
Mit@@ 1191
akawa 1190
buni 1188
ografia 1188
ukubwa 1188
wag@@ 1188
kushinda 1186
hadi@@ 1184
tay@@ 1184
kani 1182
Kikristo 1181
ondoka 1181
tol@@ 1180
yoy@@ 1180
ufu@@ 1179
hib@@ 1178
ilifu 1178
sil@@ 1178
usiana 1178
Mer@@ 1177
Sher@@ 1177
mkono 1177
wame@@ 1176
D 1175
tarakimu 1174
ekani 1173
Kombe 1172
ugen@@ 1172
mchezo 1171
Bwana 1170
Kas@@ 1168
ui@@ 1165
yek@@ 1165
ulit@@ 1164
ey 1162
Ms@@ 1160
nia 1160
yas@@ 1160
husika 1159
bia 1158
Indonesia 1156
Ame@@ 1155
azim@@ 1155
gen@@ 1155
Si@@ 1153
awe 1149
evu 1149
ins@@ 1149
umma 1149
ulia 1147
wali 1147
hup@@ 1146
6,@@ 1145
ofu 1145
ndi@@ 1142
iria 1138
faa 1137
bio 1135
hat@@ 1135
Hak@@ 1134
asha 1134
sum@@ 1133
tari 1133
etu 1132
ne@@ 1131
utu 1130
ii 1129
osha 1129
Mf@@ 1127
bid@@ 1127
kura 1127
azam@@ 1126
anat@@ 1125
60 1124
inu 1122
igizaji 1118
1991 1117
auti 1117
angi 1116
anti 1116
sis@@ 1116
thi@@ 1116
Bi@@ 1114
tasa 1113
ingana 1110
8,@@ 1109
kati@@ 1109
St@@ 1108
bak@@ 1108
aji@@ 1107
ria 1107
tw@@ 1106
atizo 1100
tar 1097
70 1095
adu@@ 1095
7,@@ 1094
80 1091
lu 1089
----@@ 1087
dua 1087
jam@@ 1086
vua 1086
Sudan 1085
esabiwa 1084
emba 1083
R 1082
1@@ 1080
N 1080
Kan@@ 1078
Seh@@ 1078
---- 1077
1995 1077
unat@@ 1076
90 1075
Baba 1074
jwa 1073
mim@@ 1073
moto 1069
1994 1064
aro 1064
alama 1061
pok@@ 1061
la@@ 1059
yam@@ 1059
? 1055
dari 1055
hau@@ 1054
Mb@@ 1052
nad@@ 1052
Ivoire 1050
yat@@ 1050
Ang@@ 1047
cho 1046
land 1045
CC@@ 1044
ed 1044
mach@@ 1043
1993 1040
amoja 1040
Al 1039
bur@@ 1038
Nam@@ 1037
adini 1037
mon@@ 1036
1997 1033
Gr@@ 1033
kh@@ 1032
ilio 1031
ebu 1029
za@@ 1027
Is@@ 1026
fun@@ 1024
kez@@ 1024
umi@@ 1024
amba@@ 1022
Pas@@ 1020
ako 1019
ei 1019
ol 1019
X@@ 1018
1998 1017
wash@@ 1017
igi@@ 1015
his@@ 1013
Fil@@ 1012
aham@@ 1012
uki 1012
Mich@@ 1010
Tun@@ 1010
uw@@ 1009
AN@@ 1006
Fran@@ 1005
Pr@@ 1005
Par@@ 1004
he@@ 1004
onga 1003
pol@@ 1003
Israeli 1002
Vig@@ 1002
London 999
progr@@ 999
1.@@ 997
f 997
leng@@ 997
video 997
eko 996
ose@@ 996
utar@@ 994
angaz@@ 993
ant@@ 993
jen@@ 992
1996 991
ilim@@ 991
1980 989
1970 988
Bot@@ 987
Maz@@ 987
igo 985
Sal@@ 984
Papua 983
lina 983
lit@@ 982
Sah@@ 981
achama 981
bel@@ 981
py@@ 979
san@@ 979
1992 977
Nak@@ 977
Kr@@ 976
chap@@ 976
ley 975
sha 975
Som@@ 974
dom@@ 974
ikuu 973
abi@@ 972
br@@ 970
telev@@ 969
E 968
Sa@@ 968
ng 968
0 966
City 966
Kat@@ 966
200 965
ent@@ 965
awa@@ 964
dola 964
asi@@ 962
hol@@ 961
adamu 960
ago 960
Ir@@ 959
United 957
naf@@ 956
ega 953
miz@@ 953
sit@@ 953
Tib@@ 952
Leo 951
nj@@ 950
tan@@ 950
500 948
icha 948
California 945
pale 945
Af@@ 943
En@@ 943
hara 943
sala 943
Korea 939
ision@@ 937
akatifu 935
ok 935
Brazil 933
Nobel 933
ispania 932
ms@@ 932
Sen@@ 930
hul@@ 930
nak@@ 930
Sim@@ 928
• 928
ngo@@ 927
Or@@ 923
q@@ 923
se 923
bo 920
kal@@ 914
De@@ 910
eke 910
pom@@ 909
tro 909
ufu 909
agua 907
meli 907
ter@@ 907
Sam@@ 906
oga 904
Hab@@ 901
Ligi 900
Yer@@ 900
Her@@ 899
eja 899
Bal@@ 898
Co@@ 897
wenda 897
far@@ 894
yet@@ 894
orod@@ 893
ongo@@ 891
simu 891
yon@@ 891
fariki 890
oc@@ 889
25@@ 888
hum@@ 886
wanao@@ 886
5,@@ 885
arufu 885
ard 883
mo@@ 881
bor@@ 880
1988 879
ens@@ 879
iw@@ 879
Kh@@ 878
1960 877
ic 877
sin@@ 876
Nor@@ 875
hindi 875
usi@@ 875
Ali 874
Mur@@ 874
emia 874
Mik@@ 873
imi 873
mali 873
Em@@ 870
Vietnam 868
Kanada 867
Se@@ 867
Kum@@ 866
uku 866
il 865
vis@@ 865
Yo@@ 863
ard@@ 863
eva 863
ir 863
9,@@ 862
indano 862
anj@@ 861
Wad@@ 860
pad@@ 858
olo 855
idae 854
Bu@@ 853
Hal@@ 853
Ro@@ 853
aye 850
dogo 849
teria 849
gh@@ 848
Kamer@@ 845
B.@@ 844
Kag@@ 844
anisha 844
atom@@ 843
tim@@ 843
vi 843
0.@@ 842
Con@@ 842
Oli@@ 842
burg 840
Chi@@ 839
Pol@@ 839
ation 838
Dod@@ 837
L 837
Uta@@ 836
35 835
Kais@@ 834
sar@@ 833
Li@@ 829
est@@ 829
32 828
Ber@@ 827
Vik@@ 827
gaz@@ 827
kas@@ 827
iza 825
singi 824
idi@@ 822
aduni 821
tiki 821
Ju@@ 820
sur@@ 820
re 818
yi 817
1989 816
agon@@ 816
‘ 816
Ka@@ 814
band@@ 812
1987 810
col@@ 810
tas@@ 810
Ho@@ 809
ch 807
huy@@ 807
ligi 803
Kari@@ 802
sk@@ 802
zek@@ 801
Na 800
Per@@ 800
gir@@ 800
Vil@@ 799
ome 799
Anat@@ 796
Say@@ 795
hari@@ 795
Cor@@ 792
So@@ 790
Zimbab@@ 789
ec@@ 788
lang@@ 788
III 787
nd@@ 787
India 786
ory 786
son@@ 785
zis@@ 785
Tar@@ 784
taraf@@ 783
yal@@ 783
afunzi 782
asia 782
S 780
ongez@@ 780
F 778
babu 778
umani 776
2021 775
Paris 775
ame 775
hospit@@ 773
pole 773
Angola 771
V 771
La 770
imbaji 770
hek@@ 769
pl@@ 769
Moh@@ 768
thel@@ 768
Kor@@ 766
aunti 766
adhim@@ 765
Su@@ 764
pos@@ 764
IM@@ 762
iba 762
tekn@@ 762
Rom@@ 761
isto 761
eria 760
umizi 760
West 759
ais 758
isia 757
may@@ 757
reno 757
Ver@@ 755
Mach@@ 753
lao 753
Tam@@ 752
ado 750
He@@ 747
Kol@@ 747
ab 747
ace 747
monaster@@ 746
efu 745
fal@@ 745
ken@@ 745
kesi 744
Michael 743
inj@@ 740
Ur@@ 739
Bas@@ 738
Il@@ 738
aus@@ 738
fut@@ 737
prot@@ 736
Aleksand@@ 733
reli 733
ung 733
fo 732
34 731
Roh@@ 730
by 728
oria 727
Vit@@ 726
Ni@@ 725
Sing@@ 724
sab@@ 723
v 723
kais@@ 722
kamp@@ 722
Mis@@ 721
vol@@ 721
33 719
FC 719
hali@@ 719
° 718
andi 717
eng 717
Cape 715
James 715
Alger@@ 714
X 714
ben@@ 714
br 714
endeleo 714
imar@@ 714
Bab@@ 713
for 713
ot 712
Mos@@ 711
Dar@@ 709
alo 709
hot@@ 709
Com@@ 707
tab@@ 706
ly 705
ore 705
Maf@@ 704
ue 704
Sek@@ 703
Sch@@ 702
ambul@@ 702
iro 701
jer@@ 701
kem@@ 701
é@@ 701
Kur@@ 699
sik@@ 699
studio 699
hes@@ 697
fan@@ 695
28@@ 694
2.@@ 693
Du@@ 692
Lo@@ 691
him@@ 691
elem@@ 690
olia 690
onde 689
Me@@ 688
kah@@ 688
rah@@ 688
1982 687
Africa 687
age 686
chan@@ 686
P 685
To@@ 685
Far@@ 684
Ig@@ 684
Jo@@ 684
chen@@ 684
opo@@ 684
1981 681
King@@ 681
em 681
36 680
Den@@ 680
ary 680
1986 679
Kul@@ 679
fer@@ 679
tia 679
Kon@@ 678
ez 678
African 677
Col@@ 677
fas@@ 677
win@@ 677
We@@ 676
hand@@ 676
ve 676
For@@ 675
pino 675
ure 672
ami 671
G 670
ava 670
ens 670
ka@@ 670
tem@@ 670
les 669
K.@@ 668
afi 668
hip 667
ende 665
hop 664
all@@ 663
engi 662
ire 661
med@@ 661
had@@ 659
1985 658
1984 657
El 656
FIFA 656
ro 656
Hat@@ 654
Ste@@ 654
ac 654
co 654
Austria 652
75 651
William 651
ram@@ 651
pak@@ 650
ask@@ 649
lo 648
ngu@@ 648
Ne@@ 647
lu@@ 647
K 646
Vy@@ 646
imi@@ 646
zu 645
Ed@@ 644
Mc@@ 644
asim@@ 644
der 644
ice 643
45 642
George 641
37 640
row 639
gesi 637
300 636
Paul 635
fuatana 635
Ko@@ 634
Tor@@ 634
bal@@ 634
ban 634
yer@@ 633
bahar@@ 631
pin@@ 631
q 631
va 630
Joseph 629
juli@@ 628
pe 628
39 627
fau@@ 627
nas@@ 627
egem@@ 626
Mari@@ 624
ondo 624
ica 623
kund@@ 623
ell 622
qu@@ 621
tag@@ 621
TV 620
ulikana 620
Ge@@ 619
usa 619
* 618
Can@@ 618
ans 618
400 617
mir@@ 616
gun@@ 615
pek@@ 615
ter 615
jo@@ 614
At@@ 613
Mom@@ 613
ford 613
nde@@ 613
omb@@ 613
26@@ 611
Greg@@ 611
ey@@ 609
rie 609
Bon@@ 608
pig@@ 608
24@@ 606
National 606
Pal@@ 606
aum@@ 606
fah@@ 606
0,@@ 605
run@@ 605
Ram@@ 603
Bel@@ 602
29@@ 600
Gar@@ 600
Nar@@ 600
Wach@@ 599
afa 599
om 599
kuten@@ 598
47 597
Qu@@ 597
atimaye 596
ent 596
mi 596
onia 596
yr@@ 596
5,000 595
Az@@ 595
Saint 595
49 594
uri@@ 594
38 593
gu 592
Us@@ 591
mkon@@ 591
pedia 591
alfab@@ 590
da@@ 589
fuat@@ 589
inah@@ 589
East 588
Ha@@ 588
1964 587
Na@@ 587
chem@@ 587
vig@@ 587
Robert 586
isim@@ 586
k.@@ 586
Awards 585
aku 585
Mand@@ 584
anak@@ 584
-@@ 583
avi 583
okia 583
pat@@ 581
ya@@ 581
Kl@@ 580
sahi@@ 580
Charles 579
Po@@ 579
Tu@@ 579
ris@@ 579
waw@@ 579
42 578
Er@@ 578
Med@@ 578
Up@@ 578
bun@@ 578
dak@@ 578
des 578
mark 578
Gi@@ 577
shu@@ 576
som@@ 576
Ath@@ 575
afir@@ 575
hin@@ 575
dis@@ 574
ik 574
kilom@@ 574
1950 572
Lag@@ 571
South 571
bus@@ 571
haf@@ 571
18@@ 569
She@@ 569
egal 569
pend@@ 569
San 568
dakika 568
Ger@@ 567
ail@@ 567
David 566
Te@@ 566
ost@@ 566
pi 566
Uz@@ 565
tel@@ 565
48 564
Ph@@ 564
Ri@@ 564
per@@ 564
+ 563
3.@@ 563
don@@ 563
International 561
tum@@ 561
Bor@@ 560
H 560
eto 560
igi 560
Fas@@ 559
Fl@@ 559
ingira 559
kop@@ 559
single 558
esho 557
uke 557
55 556
a.@@ 556
# 555
Min@@ 555
ashi 555
ero 555
he 554
La@@ 553
aku@@ 553
im 553
raf@@ 553
amer@@ 552
bul@@ 552
ope 552
Records 551
eso 551
10,000 550
j 550
hinda 549
Sar@@ 547
amaduni 547
tor@@ 547
aliyet@@ 546
der@@ 546
North 545
go 545
Kus@@ 542
Bus@@ 541
IV 541
1979 540
all 540
Manchester 539
Wiki@@ 539
ann@@ 539
ce 539
jar@@ 539
Ham@@ 537
Ken@@ 537
1977 535
Cr@@ 535
Tol@@ 535
den 535
Muh@@ 534
Peter 534
Tek@@ 534
toria 534
kisi@@ 533
mig@@ 533
00@@ 532
1978 532
65 532
Jackson 532
School 531
1983 530
ich 530
jana 530
oth@@ 530
pr@@ 530
scope 530
yap@@ 530
Um@@ 529
bei 529
ger@@ 529
Kap@@ 528
kara 527
zu@@ 526
1975 525
ista 525
Kom@@ 524
World 524
omi 524
Jersey 523
wi@@ 523
27@@ 521
ikit@@ 521
41 519
kav@@ 519
Muhammad 518
Str@@ 518
so 518
takri@@ 518
Bin@@ 517
fund@@ 516
sel@@ 516
wer@@ 516
... 515
54 515
bil@@ 515
ecture 515
44 514
Jam@@ 514
Sol@@ 513
bin 513
hom@@ 513
ungumzwa 513
Bak@@ 512
Sul@@ 512
1969 511
4.@@ 511
tir@@ 510
Id@@ 509
yana 509
1976 508
52 507
Music 507
ani@@ 507
Tri@@ 506
1963 505
sera 505
Sin@@ 504
bek@@ 503
Argentina 502
Es@@ 502
ser@@ 502
Cal@@ 501
Fr@@ 501
protest@@ 501
préf@@ 501
51 500
85 500
anti@@ 500
kana 500
46 499
Sous 499
ler 499
ek 498
lab@@ 498
sak@@ 498
43 497
aal@@ 497
eki 496
ty 496
ust@@ 496
1972 495
che 493
Go@@ 491
usta@@ 491
56 490
lio 490
53 489
Bah@@ 489
Konstant@@ 489
Ky@@ 489
Mir@@ 489
Sil@@ 489
ver@@ 489
19@@ 487
Dal@@ 487
let@@ 487
ut 487
1961 486
1974 486
Town 486
des@@ 486
oi 486
visi@@ 486
West@@ 485
bah@@ 485
ein@@ 485
ess 485
ith 485
biri 484
You 483
hibi@@ 483
Dis@@ 482
fik@@ 482
onda 482
Ol@@ 481
ori@@ 481
tis@@ 481
zia 481
oba 478
Pakistan 477
Vol@@ 477
iliz@@ 477
sp@@ 477
11,@@ 476
1973 476
67 476
uga 476
wahili 476
600 475
95 474
Lin@@ 474
Sak@@ 474
Val@@ 474
1967 473
ans@@ 472
Del@@ 471
Mau@@ 471
ant 471
bili@@ 471
ick 471
lam@@ 471
Kem@@ 470
data 470
sen@@ 470
72 469
New@@ 469
gol@@ 469
Hol@@ 468
adhimishwa 468
co@@ 468
ous 468
Mun@@ 466
Nik@@ 466
Washington 466
ner 466
Hud@@ 464
Kak@@ 464
dest@@ 464
eti@@ 464
est 462
99 461
61 460
div@@ 460
1965 459
Bag@@ 459
gr@@ 459
uniani 459
lem@@ 458
Ke@@ 457
Hi@@ 456
Mr@@ 456
58 455
Ti@@ 455
berg 455
fin@@ 455
indi@@ 455
88 454
Pan@@ 453
ence 453
no@@ 453
sek@@ 453
kel@@ 452
09 451
ap 451
ian 450
les@@ 450
Cas@@ 449
ais@@ 449
Gen@@ 448
Eri@@ 447
Os@@ 447
ete 447
1971 446
64 446
pitia 446
uc@@ 446
ven@@ 446
Billboard 445
ff@@ 445
62 444
07 443
Anti@@ 443
fili@@ 443
800 442
ca 442
ion@@ 442
opa 442
01 441
87 441
97 441
Cl@@ 441
ain 441
Tur@@ 440
ezaliwa 440
mar 440
sem@@ 440
66 439
79 439
1962 438
Richard 438
ille 438
ville 438
yu 438
Ok@@ 437
baad@@ 437
git@@ 437
Mam@@ 436
enge 436
ofanyika 436
ord@@ 436
6.@@ 435
98 435
Im@@ 435
5.@@ 434
River 434
ade 433
tal@@ 433
the@@ 433
University 432
kaz@@ 432
me 432
oke 432
1945 431
Bre@@ 431
Sw@@ 431
Sir@@ 430
69 429
pap@@ 429
AR@@ 428
Black 428
Pro@@ 428
rej@@ 428
Bay 427
Juli@@ 427
Fre@@ 426
Sau@@ 426
Wash@@ 426
.C. 425
chi@@ 425
Bil@@ 424
Famil@@ 424
Tim@@ 424
dr@@ 424
elle 424
05 423
anah@@ 423
ese 423
king@@ 423
57 422
ange@@ 422
von 422
Thomas 421
lis@@ 421
04 420
1,000 420
Ash@@ 420
Hiv@@ 420
ill@@ 420
73 419
Poland 419
odi@@ 419
74 417
76 417
Liber@@ 417
ikan@@ 417
1966 416
Massachusetts 416
amar@@ 416
10,@@ 415
63 415
adiliko 415
ell@@ 415
yan 415
68 414
83 414
Fal@@ 414
ban@@ 414
ci@@ 414
ess@@ 414
ite 414
Martin 413
Park 413
Pos@@ 413
1968 412
Bug@@ 412
IC@@ 412
Por@@ 411
96 410
Jer@@ 410
Kup@@ 410
wanja 410
UEFA 409
jap@@ 409
May@@ 408
Men@@ 408
iter@@ 408
59 407
92 407
Ter@@ 405
profes@@ 405
Maur@@ 404
himu 404
81 403
od 403
ongoz@@ 403
Bro@@ 402
Uk@@ 402
esh 402
ikukuu 402
Benedi@@ 401
Yak@@ 401
magaz@@ 401
rio 401
uto 401
Mel@@ 400
Pl@@ 400
Sel@@ 400
del@@ 400
hua 400
sig@@ 400
Bun@@ 399
Ros@@ 399
71 398
84 398
Git@@ 398
Kay@@ 398
78 397
Shu@@ 397
… 397
Song@@ 396
ings 396
tend@@ 396
35@@ 395
W 395
Wais@@ 395
86 394
mer@@ 394
7.@@ 393
eli@@ 393
esia 393
fi 393
weng@@ 393
Hor@@ 392
Mul@@ 392
malar@@ 392
na@@ 392
91 390
Ah@@ 390
XX@@ 390
edi 390
82 389
enia 389
eon@@ 388
igh@@ 388
zam@@ 388
ity 387
ks 387
77 386
zo@@ 386
03 385
2,000 385
Love 385
No@@ 385
lan@@ 385
sinema 384
Berlin 383
Bay@@ 382
eri@@ 382
08 381
Asi@@ 381
dig@@ 381
ras@@ 381
Johann@@ 380
aro@@ 380
ick@@ 379
mid@@ 379
$ 378
Plat@@ 378
Wil@@ 378
1000 377
ange 377
esab@@ 377
06 376
abi 376
Fi@@ 375
Saf@@ 375
kor@@ 375
93 374
King 374
UN@@ 374
Una 374
astronom@@ 374
die 374
ise 374
mos@@ 374
trop@@ 374
8.@@ 373
Hung@@ 373
bai 373
hav@@ 373
oda 373
1958 372
Dam@@ 372
Dr@@ 372
anc@@ 372
1959 371
Ker@@ 371
Mac@@ 371
Party 371
Sult@@ 371
ande 371
700 370
Coast 370
Ireland 370
Sum@@ 370
go@@ 370
DJ 369
Lib@@ 369
amed 369
mot@@ 369
tri@@ 369
edi@@ 368
Madrid 366
Tan@@ 366
for@@ 366
ā@@ 366
Ac@@ 365
molek@@ 365
trol@@ 365
1930 364
89 364
Hass@@ 364
wand@@ 364
Jean 363
fr@@ 363
ham 363
ney 362
Central 361
ait@@ 361
Ana 360
Ib@@ 360
az 360
iss@@ 360
lad@@ 360
tah@@ 360
Malaysia 359
liko 359
lima 358
ts@@ 358
unia 358
Fel@@ 357
Gre@@ 357
Los 357
Mart@@ 357
Uy@@ 357
our 357
van 357
yar@@ 357
Henry 356
My@@ 356
Pre@@ 356
kunde 356
mo 356
oku@@ 356
sad@@ 356
Afr@@ 355
Hot@@ 355
dem@@ 354
Arsenal 353
ambi@@ 353
9.@@ 352
ts 352
Julius 351
th 351
94 350
Aj@@ 350
Ex@@ 350
ler@@ 350
Bos@@ 349
Nat@@ 349
Ob@@ 349
tikodi 349
uno 349
1957 348
Louis 348
dizi 348
Hon@@ 347
etwa 347
ist 347
200@@ 346
Don@@ 346
Dor@@ 346
Pul@@ 346
ison 346
ther 346
enn@@ 345
mada 345
wany@@ 345
oug@@ 344
Hil@@ 343
VI 343
bom@@ 343
ons 343
tut@@ 343
1940 342
Palest@@ 342
akini 342
ganda 342
pp@@ 342
sir@@ 342
02 341
indu@@ 341
lah 341
Sha@@ 340
tro@@ 340
Gh@@ 339
Mek@@ 339
Reg@@ 339
Bis@@ 338
Gab@@ 338
atur@@ 338
bir@@ 338
del 338
tra 338
Me 337
Leb@@ 336
Syria 336
inae 336
12,@@ 335
Do@@ 335
Man 335
Mol@@ 335
XIII 335
ella 335
okeo 335
pop 335
1948 334
Rho@@ 334
dy 334
ker 334
1956 333
Bul@@ 333
Kad@@ 333
akula 333
oza 333
Eu@@ 332
Vir@@ 332
1954 331
Bl@@ 331
arab@@ 331
ario 331
,@@ 330
33@@ 330
Han@@ 330
Mes@@ 330
XII 330
sich@@ 330
tin@@ 330
inn@@ 329
je@@ 329
pal@@ 329
wo@@ 329
1949 328
Bad@@ 328
Lam@@ 328
MA 328
Wen@@ 328
op 328
Mary 327
anum 327
ase 327
ifa 327
ov 326
Nas@@ 325
itzer 325
Ay@@ 324
Kun@@ 324
inde 324
uss@@ 324
IS@@ 323
atoliki 323
kt@@ 323
C. 322
Mexico 322
P. 322
Pen@@ 322
Ra@@ 322
Tom@@ 322
Video 322
23@@ 321
dan@@ 321
ster@@ 321
Award 320
Dau@@ 320
Od@@ 320
Rh@@ 320
ates 320
den@@ 320
field 320
Hus@@ 319
Sk@@ 319
wir@@ 319
1920 318
Char@@ 318
J. 318
Jazz 318
Real 318
kodi 318
1947 317
Georgia 317
My 317
aransa 317
emp@@ 317
ener@@ 317
mini 317
oe 317
tarak@@ 317
viv@@ 316
Daniel 315
Iran 315
uel@@ 315
Hosp@@ 314
Rus@@ 314
St. 314
enz@@ 314
tof@@ 314
wan 314
Afghanistan 313
Edward 313
Math@@ 313
Mut@@ 313
ight 313
oni@@ 313
vur@@ 313
ast 312
150 311
1918 311
Abr@@ 311
Angeles 311
Brown 311
wil@@ 311
imp@@ 310
liv@@ 310
way 310
1955 309
aten@@ 309
nah@@ 309
Hel@@ 308
bert 308
ie@@ 308
tion 308
August@@ 307
oliki 307
B. 306
Bou@@ 306
DNA 306
Nad@@ 306
— 306
1952 305
gl@@ 305
ini@@ 305
Academy 304
Cel@@ 304
Domin@@ 304
ish 304
wel@@ 304
Elizabeth 303
a. 303
abr@@ 303
ine@@ 303
m. 303
per 303
Albert 302
Bir@@ 302
One 302
uk 302
yn@@ 302
AS@@ 301
Ca@@ 301
Smith 301
Z 301
ash 301
atika 301
bl@@ 301
Au@@ 300
FA 300
Isa@@ 300
State 300
Victoria 299
leb@@ 299
tic 299
CO@@ 298
County 298
Shak@@ 298
cheza 298
ry 298
Madag@@ 297
amt@@ 297
ber 297
elo 297
han@@ 297
igu@@ 297
sah@@ 297
sen 297
Barcelona 296
De 296
Fu@@ 296
Ly@@ 296
Ten@@ 296
uda 296
13,@@ 295
Lee 295
bele 295
mand@@ 295
Has@@ 294
It 294
J 294
Zealand 294
elli 294
und 294
yl@@ 294
Ban@@ 293
Ngo@@ 293
ach 293
bury 293
fiz@@ 293
1900 292
900 292
Cam@@ 292
Fo@@ 292
dea 292
inus 292
olog@@ 292
pu 292
Nep@@ 291
S.@@ 291
Sy@@ 291
Y 291
On@@ 290
Je@@ 289
dur@@ 289
ico 289
life 289
1946 288
Brit@@ 288
CD 288
Dak@@ 288
Hot 288
Mex@@ 288
wo 288
Acc@@ 287
Times 287
aska 287
que 287
1953 286
Texas 286
The@@ 286
arr@@ 286
ean 286
hir@@ 286
ond 286
á@@ 286
bol@@ 285
Av@@ 284
Ras@@ 284
Sou@@ 284
ichi 284
orthodoksi 284
Sand@@ 283
Theod@@ 283
gia 283
str@@ 283
Fin@@ 282
Foundation 282
anus 282
nim@@ 282
45@@ 281
Khan 281
Lim@@ 281
Pad@@ 281
edonia 281
ger 281
hio 281
mm@@ 281
lar@@ 279
Ya 278
enna 278
ington 278
ologi@@ 278
í@@ 278
Biz@@ 277
Mot@@ 277
Pau@@ 277
Serbia 277
Van 277
dal@@ 276
nik@@ 275
AD@@ 274
Kah@@ 274
Ven@@ 274
mer 274
Bol@@ 273
Dur@@ 273
ebe 273
my 273
ul 273
1939 272
Armen@@ 272
Chelsea 272
ate@@ 272
ido 272
Bom@@ 271
Lit@@ 271
sia 271
But@@ 270
Des@@ 270
Sur@@ 270
anta 270
fre@@ 270
izaji 270
own 270
14,@@ 269
Che@@ 269
Dem@@ 269
ae@@ 269
ds 269
250 268
AC@@ 268
Hay@@ 268
Tro@@ 268
ement 268
1888 267
E. 267
anth@@ 267
bay@@ 267
Andrea 266
IX 266
Pat@@ 266
UNESCO 266
Union 266
enti@@ 266
gar@@ 266
pun@@ 266
tis 266
Wor@@ 265
_ 265
abe 265
ance 265
ff 265
1886 264
All 264
Kie@@ 264
Met@@ 264
Progr@@ 264
Zam@@ 264
open@@ 264
pand@@ 264
art 263
bon@@ 263
hor@@ 263
Eli@@ 262
Florida 262
tha 262
ć 262
aje 261
sburg 261
duk@@ 260
vo 260
Ap@@ 259
CD@@ 259
bro@@ 259
lara 259
uzo 259
15,@@ 258
Dan@@ 258
Dj@@ 258
Inter@@ 258
amo@@ 258
anne 258
bab@@ 258
ins 258
oshi 258
ova 258
11@@ 257
Sun@@ 257
ks@@ 257
nam@@ 257
Ant@@ 256
Don 256
FM 256
Hut@@ 256
Son@@ 256
Ul@@ 256
ello 256
ime 256
them@@ 256
Laz@@ 255
Luc@@ 255
M. 255
afsi 255
hui 255
kl@@ 255
ster 255
Society 254
elektr@@ 254
mm 254
yn 254
Abu 253
Band@@ 253
Liv@@ 253
Nag@@ 253
Tal@@ 253
ker@@ 253
waka 253
American 252
con@@ 252
fil@@ 252
isti@@ 252
ve@@ 252
1951 251
CA@@ 251
Chicago 251
SA@@ 251
ult@@ 251
Alexander 250
Cap@@ 250
Les@@ 250
Pok@@ 250
gam@@ 250
mweng@@ 250
Abdul@@ 249
Dom@@ 249
Kro@@ 249
alam@@ 249
ling@@ 249
Hum@@ 248
League 248
Sam 248
but@@ 248
dir@@ 248
Group 247
antu 247
hel@@ 247
lor@@ 247
sult@@ 247
A. 246
Jones 246
Lom@@ 246
Nov@@ 246
ion 246
pon@@ 246
1941 245
Cer@@ 245
Laur@@ 245
Lyon 245
Sok@@ 245
eme 245
Da@@ 244
Democratic 244
Rob@@ 244
asiasa 244
its 244
lat@@ 244
1500 243
1914 243
Ale@@ 243
Lug@@ 243
ex@@ 243
out 243
tin 243
1936 242
College 242
Fili@@ 242
Grammy 242
Leon@@ 242
Lor@@ 242
ardo 242
ghuli 242
istan 242
ius 242
sta@@ 242
yol@@ 242
1917 241
Kim 241
Le 241
bot@@ 241
mann 241
1944 240
Bern@@ 240
High 240
Sec@@ 240
bet@@ 240
1933 239
Iv@@ 239
Mov@@ 239
Star 239
aman@@ 239
ark@@ 239
ette 239
res@@ 239
50@@ 238
Grand 238
Williams 238
ensis 238
vin 238
Braz@@ 237
avia 237
ibn 237
imin@@ 237
DA 236
Island 236
beg@@ 236
evi 236
ill 236
Est@@ 235
Moy@@ 235
Radio 235
Vo@@ 235
cel@@ 235
ck 235
ech 235
mati@@ 235
rati@@ 235
une 235
.com 234
Chil@@ 234
Mosco@@ 234
pop@@ 234
Cham@@ 233
3000 232
AT@@ 232
House 232
Jack 232
ack 232
avi@@ 232
nin@@ 232
tad@@ 232
AM@@ 231
Association 231
ES@@ 231
Satur@@ 231
alb@@ 231
jah@@ 231
jus@@ 231
unu 231
£ 231
Chile 230
Go 230
Sav@@ 230
Sus@@ 230
bes@@ 229
car@@ 229
itu@@ 229
lav@@ 229
Jar@@ 228
Lab@@ 228
hap@@ 228
ulo 228
Cur@@ 227
Hill 227
Michigan 227
département 227
vent@@ 227
esis 226
inc@@ 226
16,@@ 225
Johnson 225
Van@@ 225
hy@@ 225
well 225
Ahmed 224
Club 224
Fati@@ 224
Patri@@ 224
RC 224
fe 224
int@@ 224
ju 224
nit@@ 224
win 224
Shar@@ 223
St 223
Ty@@ 223
Women 223
baji 223
wood 223
Pon@@ 222
ies 222
ome@@ 222
st 222
umbani 222
uni@@ 222
Eng@@ 221
Hitler 221
Jay 221
Kaz@@ 221
Rub@@ 221
ige 221
Cher@@ 220
Der@@ 220
achi 220
ack@@ 220
asti@@ 220
mun@@ 220
sk 220
« 220
Camp@@ 219
Gl@@ 219
Patr@@ 219
stein 219
ute 219
» 219
Pot@@ 218
Star@@ 218
00 217
Google 217
Que@@ 217
Sierra 217
Young 217
gel@@ 217
1934 216
Gor@@ 216
Hip@@ 216
Lat@@ 216
oph@@ 216
poli@@ 216
1922 215
1925 215
1929 215
BBC 215
Kos@@ 215
LA 215
Profes@@ 215
Queen 215
Santa 215
Swe@@ 215
Wales 215
White 215
aire 215
dor@@ 215
gom@@ 215
iso 215
log@@ 215
reg@@ 215
tom@@ 215
1942 214
DC 214
Ev@@ 214
Media 214
Oc@@ 214
Q 214
Stars 214
Trans@@ 214
aceae 214
ata@@ 214
onom@@ 214
ston 214
ys 214
5000 213
Company 213
Obl@@ 213
XI 213
XVI 213
ther@@ 213
use 213
1885 212
Mont@@ 212
eth 212
eth@@ 212
su 212
1943 211
Canada 211
Francis 211
Hir@@ 211
Sem@@ 211
ren@@ 211
sul@@ 211
Had@@ 210
Ukraine 210
Vis@@ 210
ales 210
ign@@ 210
1926 209
Cro@@ 209
F.@@ 209
apar@@ 209
ax@@ 209
urs 209
Band 208
Dav@@ 208
Japan 208
Long@@ 208
Si 208
fig@@ 208
onya 208
180 207
1890 207
Fa@@ 207
News 207
Patrick 207
erry 207
esse 207
ical 207
120@@ 206
17,@@ 206
AP@@ 206
Hen@@ 206
Pom@@ 206
ep 206
ky 206
tor 206
var@@ 206
Wit@@ 205
cor@@ 205
els 205
lis 205
radi@@ 205
CH@@ 204
Gaz@@ 204
Hom@@ 204
yab@@ 204
All@@ 203
Bat@@ 203
Port 203
alm@@ 203
bos@@ 203
toba 203
י@@ 203
120 202
Ben 202
Mid@@ 202
Rose 202
diye 202
ern@@ 202
1,0@@ 201
116 201
AC 201
AI@@ 201
Rich@@ 201
Wall@@ 201
ammed 201
ass 201
39@@ 200
65@@ 200
Arab@@ 200
Miss 200
Scott 200
low 200
shi@@ 200
sol@@ 200
val@@ 200
Hy@@ 199
MTV 199
Marie 199
Sir 199
Taylor 199
Tran@@ 199
Win@@ 199
adr@@ 199
afr@@ 199
area 199
ego 199
ly@@ 199
rom@@ 199
sta 199
124@@ 198
18,@@ 198
1910 198
1937 198
Bib@@ 198
Chris 198
Green@@ 198
Hek@@ 198
Sm@@ 198
ax 198
ege 198
elektron@@ 198
ento 198
gez@@ 198
pro@@ 198
Christian 197
Dr. 197
Zi@@ 197
ald 197
mes@@ 197
1938 196
CN@@ 196
Christ@@ 196
Ira@@ 196
Jose@@ 196
Kel@@ 196
Rab@@ 196
Simon 196
inayoz@@ 196
ns 196
nying@@ 196
ps 196
yesi 196
102 195
1905 195
Anthony 195
Diam@@ 195
Rek@@ 195
han 195
ski 195
Fer@@ 194
Haw@@ 194
YouTube 194
Ze@@ 194
abor@@ 194
fon@@ 194
hem@@ 194
ors 194
rey 194
sanii 194
Big 193
Life 193
Mark 193
VIII 193
hidro@@ 193
land@@ 193
pha 193
usu@@ 193
67@@ 192
Best 192
IN@@ 192
Kong 192
Om@@ 192
Pet@@ 192
eau 192
ide 192
illa 192
ith@@ 192
lie 192
oud 192
sav@@ 192
ø@@ 192
Cab@@ 191
Cu@@ 191
Cy@@ 191
D. 191
Dun@@ 191
Gro@@ 191
Royal 191
Shi@@ 191
Thi@@ 191
old 191
ver 191
ym@@ 191
ï@@ 191
1919 190
36@@ 190
AB@@ 190
Blo@@ 190
Categ@@ 190
ester 190
now@@ 190
1923 189
British 189
In 189
Northern 189
People 189
Rad@@ 189
aut@@ 189
ci 189
enne 189
erg@@ 189
ix 189
rek@@ 189
sch@@ 189
sou@@ 189
uro 189
1931 188
2022 188
Columbia 188
Congress 188
God@@ 188
Neg@@ 188
Nis@@ 188
OS 188
Rec@@ 188
yc@@ 188
É@@ 188
Illinois 187
Telev@@ 187
Yugoslav@@ 187
hun@@ 187
ics 187
ros@@ 187
til@@ 187
ä@@ 187
1912 186
Boy@@ 186
Hur@@ 186
I. 186
Israel 186
apos@@ 186
eh 186
mus@@ 186
ruh@@ 186
ys@@ 186
1927 185
Entertainment 185
Lev@@ 185
Pri@@ 185
Raj@@ 185
Sc@@ 185
UK 185
emek@@ 185
lands 185
nom@@ 185
shire 185
sho@@ 185
Astr@@ 184
Lou@@ 184
e.@@ 184
gio 184
gre@@ 184
iva 184
kap@@ 184
len 184
lig@@ 184
tek@@ 184
with 184
ö@@ 184
Ever@@ 183
Tig@@ 183
Tw@@ 183
US@@ 183
adam@@ 183
bon 183
cia 183
cl@@ 183
gal@@ 183
sy@@ 183
tes 183
Ari@@ 182
Carl 182
Hong 182
Jac@@ 182
ogr@@ 182
oli@@ 182
ven 182
Nu@@ 181
Pierre 181
Rou@@ 181
ave 181
lip@@ 181
outh 181
stanbul 181
tur@@ 181
{ 181
Arthur 180
Euro 180
Tot@@ 180
ait 180
zw@@ 180
Cla@@ 179
Nelson 179
Ou@@ 179
Rem@@ 179
TA 179
ante 179
atr@@ 179
edo 179
ony 179
span 179
AK@@ 178
Bau@@ 178
Ful@@ 178
Rock 178
Run@@ 178
VII 178
edia 178
Air 177
Ep@@ 177
Sydney 177
ism 177
tang@@ 177
Cre@@ 176
Fe@@ 176
Francisco 176
Jan@@ 176
May 176
amm@@ 176
anal@@ 176
cus 176
emen 176
enzo 176
hr@@ 176
ize 176
sea 176
1928 175
Kilom@@ 175
Liverpool 175
Rio 175
Southern 175
aw 175
day@@ 175
gan@@ 175
sent@@ 175
tic@@ 175
tions 175
1889 174
Frank 174
Joe 174
Lis@@ 174
Max@@ 174
S. 174
Sho@@ 174
Single 174
ilimia 174
inger 174
wor@@ 174
Banglad@@ 173
Fir@@ 173
Tel@@ 173
Western 173
dis 173
ett 173
ref 173
rut@@ 173
vul@@ 173
} 173
án 173
Anna 172
Cle@@ 172
Gil@@ 172
Gir@@ 172
Lang@@ 172
Whit@@ 172
Yam@@ 172
Zu@@ 172
ão 172
ó@@ 172
Carlos 171
Cross 171
Fat@@ 171
Jos@@ 171
Vid@@ 171
ble 171
eman 171
estr@@ 171
faransa 171
jan@@ 171
mem@@ 171
mir 171
ost 171
Ç@@ 171
‎ 171
119 170
Adam 170
Pel@@ 170
Res@@ 170
Tem@@ 170
beri 170
cre@@ 170
ingen 170
1903 169
1916 169
Adri@@ 169
als 169
A.@@ 168
AL@@ 168
Fab@@ 168
Ford 168
Karl 168
Nev@@ 168
ator 168
com@@ 168
cu@@ 168
dens@@ 168
ingham 168
lif@@ 168
mek@@ 168
nes 168
tou@@ 168
23,@@ 167
Aleks@@ 167
His@@ 167
Num@@ 167
Pin@@ 167
Ren@@ 167
Tre@@ 167
Virginia 167
able 167
ag 167
bs 167
via 167
1.5 166
Amaz@@ 166
Bet@@ 166
RI@@ 166
Tony 166
Wilson 166
atar 166
dol@@ 166
key 166
onn@@ 166
shar@@ 166
α 166
Air@@ 165
Golden 165
It@@ 165
Limited 165
NBC 165
Osman@@ 165
Prot@@ 165
Sever@@ 165
Tokyo 165
Wi@@ 165
ally 165
inf@@ 165
sat@@ 165
urg 165
1935 164
Bes@@ 164
Harvard 164
Mim@@ 164
SC 164
Samuel 164
Uni@@ 164
Wo@@ 164
aden 164
anna 164
arg@@ 164
ier@@ 164
port 164
rock 164
tik@@ 164
19,@@ 163
1932 163
Pep@@ 163
ars 163
ations 163
brahim 163
nh@@ 163
oper@@ 163
plat@@ 163
polis 163
tan 163
á 163
1908 162
1913 162
20,@@ 162
Him@@ 162
Kri@@ 162
Ot@@ 162
R. 162
Territ@@ 162
arm@@ 162
lov@@ 162
stan 162
uvu 162
yem@@ 162
市 162
1896 161
1906 161
Ach@@ 161
DP 161
Gol@@ 161
Lak@@ 161
Mong@@ 161
Studio 161
Super 161
W. 161
ampa 161
any 161
eter@@ 161
ide@@ 161
neo 161
sey 161
ō@@ 161
40@@ 160
Aur@@ 160
Bulgar@@ 160
Ek@@ 160
Pu@@ 160
Queensland 160
Toy@@ 160
agr@@ 160
aus 160
tus 160
€ 160
Bad 159
Lok@@ 159
SA 159
Sor@@ 159
Walter 159
ated 159
ath 159
atifu 159
bud@@ 159
chor@@ 159
cr@@ 159
fus@@ 159
liz@@ 159
stone 159
2.5 158
Black@@ 158
Dou@@ 158
eld 158
gen 158
ias 158
sur 158
1870 157
Andrew 157
Baad@@ 157
Bill 157
Cop@@ 157
No 157
Pak@@ 157
ador 157
fer 157
manuel 157
non 157
obi 157
ret@@ 157
Green 156
Hall 156
Napole@@ 156
Pres@@ 156
South@@ 156
pati@@ 156
350 155
Bang@@ 155
Beng@@ 155
Boston 155
Carolina 155
Napo@@ 155
Phil@@ 155
Sig@@ 155
Spr@@ 155
Sto@@ 155
Tai@@ 155
WWE 155
aster@@ 155
bes 155
dik@@ 155
jazz 155
manga 155
én@@ 155
160 154
1860 154
AS 154
Benjamin 154
Center 154
Donald 154
Emil@@ 154
IA 154
aux 154
etti 154
hir 154
lam 154
mili@@ 154
vel@@ 154
1902 153
Bud@@ 153
Seg@@ 153
Shin@@ 153
Sud@@ 153
Time 153
atra 153
ente 153
ever 153
kung 153
ores 153
unc@@ 153
Ann@@ 152
Antonio 152
Ind@@ 152
Kiaus@@ 152
Leg@@ 152
Rail@@ 152
Red 152
Shir@@ 152
Vill@@ 152
Vincent 152
aff@@ 152
aham 152
aun@@ 152
insi 152
mez@@ 152
ology 152
ér@@ 152
1907 151
59@@ 151
Alexand@@ 151
Flor@@ 151
Mob@@ 151
Oxford 151
RE@@ 151
Show 151
Sic@@ 151
Tas@@ 151
bra 151
oth 151
oya 151
vers 151
1924 150
Chem@@ 150
Christopher 150
Day@@ 150
EP 150
Prim@@ 150
Prince 150
Rap@@ 150
Wel@@ 150
Yas@@ 150
ft 150
gi 150
Day 149
Gas@@ 149
Liga 149
Nah@@ 149
Old 149
Otto 149
Pa@@ 149
Peru 149
Sep@@ 149
Steve 149
Tom 149
err@@ 149
mont 149
oon 149
1800 148
Disney 148
Mass@@ 148
Not@@ 148
Up 148
ative 148
bar 148
din 148
icia 148
izi@@ 148
ovo 148
Dani@@ 147
Hamburg 147
Kenn@@ 147
M.@@ 147
Tos@@ 147
agu@@ 147
awaida 147
end 147
eter 147
lak@@ 147
ock 147
was 147
ו@@ 147
109 146
Bob 146
Pit@@ 146
Sad@@ 146
iz 146
ont@@ 146
ters 146
vo@@ 146
www.@@ 146
1836 145
Frederick 145
Fri@@ 145
Rah@@ 145
atu@@ 145
che@@ 145
ein 145
ister@@ 145
ten 145
140 144
1911 144
25,@@ 144
Daw@@ 144
Mill@@ 144
Pennsylvania 144
Vin@@ 144
eda 144
ets 144
kaya 144
lin 144
nch@@ 144
nor@@ 144
omon 144
tari@@ 144
101 143
1880 143
1921 143
America 143
Fun@@ 143
José 143
MC 143
Pap@@ 143
Peter@@ 143
US 143
alie 143
ode 143
pro 143
C.@@ 142
EC@@ 142
Jordan 142
Mang@@ 142
Sof@@ 142
Yor@@ 142
app@@ 142
http 142
idge 142
meth@@ 142
mor@@ 142
oks 142
our@@ 142
ˈ@@ 142
​ 142
110 141
AA 141
Benn@@ 141
Kath@@ 141
Len@@ 141
Mr. 141
Nap@@ 141
Orchestra 141
age@@ 141
fo@@ 141
jaw@@ 141
oso 141
piano 141
unde 141
37@@ 140
Boy 140
Fon@@ 140
Mike 140
Nach@@ 140
Ontario 140
Scotland 140
São 140
ays 140
hil@@ 140
ights 140
ling 140
war 140
1884 139
1887 139
1904 139
Kn@@ 139
Lincoln 139
MS 139
Ma 139
Mem@@ 139
Press 139
RA 139
Sid@@ 139
Sun 139
eck 139
olo@@ 139
sions 139
ste@@ 139
sti@@ 139
Beach 138
Chap@@ 138
Cho@@ 138
Institute 138
Oy@@ 138
PA 138
Sali@@ 138
from 138
km2 138
oul 138
wich 138
119@@ 137
1899 137
Blue 137
Dol@@ 137
G. 137
kins 137
sein 137
tics 137
170 136
Great 136
North@@ 136
Petr@@ 136
Sultan 136
Wol@@ 136
att@@ 136
azar@@ 136
ejeo 136
entr@@ 136
kaf@@ 136
rit@@ 136
â@@ 136
11.@@ 135
1891 135
53@@ 135
BA 135
Ele@@ 135
ebr@@ 135
ents 135
imeh@@ 135
mad 135
ment 135
ous@@ 135
ô@@ 135
1898 134
Arch@@ 134
Gold 134
Haf@@ 134
Pir@@ 134
Road 134
Syl@@ 134
Trin@@ 134
fel@@ 134
ons@@ 134
pik 134
zur@@ 134
57@@ 133
Bec@@ 133
Brun@@ 133
Frankfurt 133
Gam@@ 133
Jr 133
Margaret 133
Neb@@ 133
Sat@@ 133
Spe@@ 133
`@@ 133
art@@ 133
ici@@ 133
my@@ 133
nav@@ 133
ting 133
uvent@@ 133
yok@@ 133
Beau@@ 132
Fort 132
Gau@@ 132
Tou@@ 132
dan 132
media 132
pil@@ 132
ray 132
solo 132
thiop@@ 132
tho@@ 132
ump@@ 132
Ago@@ 131
Anne 131
By@@ 131
Cass@@ 131
Kot@@ 131
Op@@ 131
Rod@@ 131
Rug@@ 131
Sag@@ 131
ature 131
aud@@ 131
bie 131
rel@@ 131
ud 131
ա@@ 131
1791 130
1839 130
1915 130
22,@@ 130
Hid@@ 130
Roger 130
SM 130
burgh 130
burn 130
enni@@ 130
ig 130
kt 130
mang 130
1897 129
1901 129
Alex 129
Bob@@ 129
Boh@@ 129
Brian 129
Fur@@ 129
Is 129
Russia 129
Tit@@ 129
Ton@@ 129
XIV 129
cy 129
eu 129
ills 129
las 129
num@@ 129
over 129
CE@@ 128
Film 128
Kazak@@ 128
Orange 128
Pun@@ 128
air 128
aman 128
fululizo 128
gar 128
itz 128
king 128
lyn 128
ole@@ 128
xi 128
ος 128
47@@ 127
Baden 127
CS@@ 127
Davis 127
Gul@@ 127
Pic@@ 127
Wilhelm 127
aam 127
aland 127
alls 127
fes@@ 127
itz@@ 127
lob@@ 127
men 127
rak@@ 127
ũng 127
10.@@ 126
1866 126
Cambridge 126
Dre@@ 126
France 126
Gabriel 126
Hand@@ 126
Reb@@ 126
Slo@@ 126
Street 126
Suz@@ 126
Vic@@ 126
elia 126
line 126
orum 126
ris 126
thu@@ 126
ty@@ 126
Anton@@ 125
Ard@@ 125
Arts 125
BC 125
Cat@@ 125
Free 125
Lan@@ 125
ater 125
banda 125
heim 125
jan 125
kes 125
mond 125
pag@@ 125
sand@@ 125
118@@ 124
130 124
27,@@ 124
Bank 124
Ci@@ 124
Hollywood 124
Hug@@ 124
Nur@@ 124
Post 124
Princ@@ 124
ards 124
ful@@ 124
ning 124
not@@ 124
opera 124
ube 124
1892 123
75@@ 123
Boliv@@ 123
Clin@@ 123
Earth 123
England 123
Howard 123
Kaf@@ 123
Naz@@ 123
Venezuela 123
alla 123
ao@@ 123
fe@@ 123
gul@@ 123
nan 123
yth@@ 123
ạc 123
201@@ 122
24,@@ 122
AF@@ 122
Arist@@ 122
Be 122
Brook@@ 122
CI@@ 122
Centre 122
Clar@@ 122
Development 122
Ga@@ 122
PE@@ 122
Pam@@ 122
Ross 122
Rot@@ 122
chin@@ 122
doba 122
ehem@@ 122
enger 122
etta 122
hala 122
keti 122
„ 122
103 121
105 121
1895 121
Alfred 121
Cent@@ 121
Joh@@ 121
On 121
We 121
eign 121
elen 121
isini 121
mund 121
tivo 121
él@@ 121
ı@@ 121
ł@@ 121
4000 120
Aqu@@ 120
Brothers 120
Fox 120
Gold@@ 120
Key@@ 120
L. 120
Live 120
Lyn@@ 120
Main 120
Palm@@ 120
Ran@@ 120
Tag@@ 120
XV 120
adan 120
ampton 120
day 120
eski 120
mes 120
tico 120
34@@ 119
Arm@@ 119
Corn@@ 119
Daily 119
Die 119
Din@@ 119
FO@@ 119
Fut@@ 119
H. 119
Lem@@ 119
Nic@@ 119
Now 119
Rand@@ 119
SS@@ 119
aco 119
bis@@ 119
ikal@@ 119
pri@@ 119
uth 119
ves 119
yp@@ 119
106 118
115@@ 118
360 118
Augus@@ 118
Emer@@ 118
Global 118
Haz@@ 118
Red@@ 118
Web@@ 118
atus 118
din@@ 118
ebo@@ 118
eu@@ 118
ids 118
oes 118
tete 118
ward 118
ç@@ 118
1200 117
1861 117
1871 117
60@@ 117
Allen 117
Apo@@ 117
Da 117
Jak@@ 117
Lake 117
Leopol@@ 117
Nav@@ 117
Nikol@@ 117
Stanley 117
Water@@ 117
af 117
ayan 117
ayi 117
cap@@ 117
ef 117
eland 117
kin 117
ny 117
ways 117
š@@ 117
CA 116
Div@@ 116
Hav@@ 116
Hem@@ 116
Hun@@ 116
Kelly 116
Nan@@ 116
Raf@@ 116
SS 116
Vie@@ 116
ail 116
alar@@ 116
blu@@ 116
eim@@ 116
grav@@ 116
mel@@ 116
meng@@ 116
ord 116
ric@@ 116
sun@@ 116
try 116
1893 115
26,@@ 115
Alliance 115
Deb@@ 115
Gran@@ 115
Ré@@ 115
Var@@ 115
alg@@ 115
ams 115
cop@@ 115
dam@@ 115
eci@@ 115
enberg 115
ennis 115
mojaw@@ 115
ux 115
ú@@ 115
450 114
Barr@@ 114
Bundesliga 114
Diego 114
Harris 114
Long 114
Max 114
Ori@@ 114
Pow@@ 114
Santos 114
Tim 114
Villa 114
Wes@@ 114
aul@@ 114
ines 114
lev@@ 114
more 114
oman 114
res 114
town 114
wer 114
1894 113
80@@ 113
Atlanta 113
Eric 113
Ltd 113
Luis 113
Luxemb@@ 113
NA 113
Ohio 113
Tok@@ 113
hep@@ 113
illy 113
omin@@ 113
rap@@ 113
ton@@ 113
ː 113
1840 112
43@@ 112
Ankara 112
Bayern 112
Cup 112
F. 112
Girls 112
Gun@@ 112
Microsoft 112
Pav@@ 112
RA@@ 112
Serie 112
Stan@@ 112
Stephen 112
Theatre 112
aph@@ 112
eds 112
him 112
ness 112
rain 112
yor@@ 112
107 111
21,@@ 111
Adolf 111
Anderson 111
ER@@ 111
Gem@@ 111
Lar@@ 111
MI@@ 111
Sas@@ 111
aca 111
anger 111
bez@@ 111
got@@ 111
ken 111
nu@@ 111
ones 111
ose 111
pet@@ 111
rec@@ 111
Dev@@ 110
Front 110
Gö@@ 110
Hans 110
Harry 110
Loc@@ 110
RT 110
Rol@@ 110
ainishaji 110
elec@@ 110
form@@ 110
ien 110
into 110
loyd 110
ow 110
tig@@ 110
ws 110
yd@@ 110
ָ@@ 110
Art 109
Ass@@ 109
Cec@@ 109
Dest@@ 109
Feli@@ 109
Good@@ 109
Net@@ 109
Rog@@ 109
^ 109
bre@@ 109
eira 109
out@@ 109
time 109
AF 108
AP 108
Barbara 108
Denis 108
Ern@@ 108
Gur@@ 108
Houston 108
Lac@@ 108
Lawrence 108
Milan 108
Shel@@ 108
Song 108
Valley 108
Victor 108
cher 108
eff@@ 108
esta 108
ilian 108
kg 108
lar 108
mom@@ 108
ometr@@ 108
owa 108
poin@@ 108
ī@@ 108
AR 107
Bell@@ 107
Bé@@ 107
Country 107
Hawai@@ 107
ML@@ 107
MS@@ 107
Medi@@ 107
Minnesota 107
Mississippi 107
Mod@@ 107
RO@@ 107
Ric@@ 107
Sarah 107
Sev@@ 107
Uruguay 107
dam 107
ense 107
illo 107
isl@@ 107
lywood 107
muh@@ 107
nach@@ 107
onal@@ 107
plas@@ 107
spek@@ 107
taki 107
teri@@ 107
ABC 106
Amsterdam 106
Azer@@ 106
Can 106
Conn@@ 106
Fac@@ 106
Harr@@ 106
Juan 106
Kle@@ 106
Lewis 106
Ray 106
Roc@@ 106
TE@@ 106
Ther@@ 106
Trav@@ 106
ape 106
ats 106
cer@@ 106
eus 106
graf@@ 106
lock 106
off 106
rem@@ 106
ser 106
sky 106
up 106
1881 105
BN 105
District 105
Girl 105
IP@@ 105
Jack@@ 105
SE@@ 105
Sports 105
Willi@@ 105
bay 105
cur@@ 105
ider 105
pul@@ 105
teri 105
à 105
12.@@ 104
Bra@@ 104
Chin@@ 104
Hul@@ 104
Kennedy 104
Oscar 104
Rum@@ 104
Sow@@ 104
Ung@@ 104
erre 104
kitab@@ 104
och 104
para 104
pur@@ 104
sh 104
yle 104
38@@ 103
Bernard 103
Bit@@ 103
COVID 103
Corps 103
Jacob 103
Log@@ 103
Meth@@ 103
Township 103
baj@@ 103
ei@@ 103
enburg 103
hou 103
iller 103
istr@@ 103
lati@@ 103
low@@ 103
ox@@ 103
ted 103
114@@ 102
Buch@@ 102
Colorado 102
Copa 102
Let@@ 102
Little 102
NBA 102
Network 102
T. 102
XVII 102
Yu@@ 102
Zel@@ 102
athan 102
bat@@ 102
esi@@ 102
her 102
inz@@ 102
trans@@ 102
108 101
1830 101
1850 101
320 101
Agr@@ 101
Alaska 101
Boys 101
Bri@@ 101
Council 101
Game 101
Gib@@ 101
Main@@ 101
Maryland 101
PC@@ 101
Pop 101
Rak@@ 101
Super@@ 101
Tang@@ 101
aci@@ 101
andra 101
bou@@ 101
department 101
did@@ 101
dir 101
if 101
1600 100
1700 100
1909 100
Apol@@ 100
Bush 100
Business 100
Cav@@ 100
Church 100
Corporation 100
Dad@@ 100
Ferr@@ 100
Iz@@ 100
aut 100
blin 100
egr@@ 100
ept@@ 100
ers@@ 100
fran@@ 100
ges 100
giz@@ 100
ien@@ 100
inge 100
lem 100
oy 100
ê@@ 100
ş@@ 100
1869 99
Aires 99
Ann 99
Bell 99
Chal@@ 99
Down 99
Fol@@ 99
Gel@@ 99
Ian 99
Indi@@ 99
Isab@@ 99
Lady 99
Lov@@ 99
Mario 99
Oliver 99
Pil@@ 99
Seb@@ 99
Yan@@ 99
ensa 99
etto 99
ort 99
oun 99
va@@ 99
æ@@ 99
ón 99
270 98
Bog@@ 98
Buenos 98
CP 98
Henri 98
Ludwig 98
Meg@@ 98
Rodr@@ 98
Tennessee 98
UC@@ 98
Valencia 98
een 98
fol@@ 98
hist@@ 98
iche 98
itt 98
lan 98
ran 98
sc@@ 98
senti@@ 98
tri 98
13.@@ 97
550 97
Ax@@ 97
Christi@@ 97
Gordon 97
Lav@@ 97
Pear@@ 97
Rom 97
Ruh@@ 97
USA 97
Vel@@ 97
Windows 97
Württemberg 97
ague 97
ides 97
leh@@ 97
leri 97
onna 97
othe@@ 97
ovi@@ 97
risto 97
1882 96
Austr@@ 96
Ball@@ 96
Brad@@ 96
Bran@@ 96
Bruce 96
Bruno 96
Dec@@ 96
Gary 96
Kob@@ 96
Lucas 96
Philip 96
Tah@@ 96
bal 96
elt 96
ester@@ 96
gene 96
lea 96
olm 96
sing@@ 96
stadt 96
uf 96
Aut@@ 95
Douglas 95
Eg@@ 95
Independ@@ 95
Irak 95
Jonathan 95
PS@@ 95
Poly@@ 95
Puerto 95
Rico 95
Standard 95
Wood@@ 95
auf@@ 95
bus 95
ding 95
galak@@ 95
kan 95
off@@ 95
sev@@ 95
tera 95
ə@@ 95
Bish@@ 94
Brand@@ 94
Facebook 94
Family 94
Johannes 94
Junior 94
NE@@ 94
NS@@ 94
Nig@@ 94
Sac@@ 94
Tanz@@ 94
That 94
anim@@ 94
bron@@ 94
can@@ 94
cio 94
house 94
igh 94
name 94
sula 94
yst@@ 94
ğ@@ 94
ه@@ 94
1883 93
Alt@@ 93
Carol@@ 93
Cra@@ 93
Dah@@ 93
Glo@@ 93
Hai 93
Hamp@@ 93
Hin@@ 93
Ligue 93
Plan@@ 93
ST@@ 93
Ses@@ 93
Singles 93
Toronto 93
Viz@@ 93
Wayne 93
Yah@@ 93
agen 93
alis 93
ator@@ 93
chester 93
dae 93
emaji 93
gor@@ 93
mas 93
ning@@ 93
ough 93
pre@@ 93
pres@@ 93
rik 93
side 93
ū@@ 93
β 93
104 92
70@@ 92
Bac@@ 92
Claude 92
Cot@@ 92
European 92
For 92
Friedrich 92
Jane 92
Mih@@ 92
Studios 92
Warner 92
Wh@@ 92
Zo@@ 92
cul@@ 92
ier 92
ique 92
sion 92
sti 92
ture 92
ë@@ 92
ē@@ 92
100@@ 91
112 91
750 91
Back 91
DS 91
Franklin 91
Kevin 91
Land@@ 91
Top 91
ado@@ 91
ahr@@ 91
arra 91
bec 91
pir@@ 91
sid@@ 91
sub@@ 91
union 91
vio 91
116@@ 90
Festival 90
Gard@@ 90
Geor@@ 90
Herz@@ 90
Lon@@ 90
Marvel 90
Produc@@ 90
char@@ 90
dev@@ 90
fos@@ 90
ges@@ 90
ium 90
mit 90
optera 90
ron@@ 90
tel 90
ust 90
yes 90
1865 89
210 89
AD 89
Bour@@ 89
Cuba 89
God 89
Gra@@ 89
Guar@@ 89
IP 89
Martin@@ 89
Pur@@ 89
Raymond 89
Slov@@ 89
Tul@@ 89
Vas@@ 89
allas 89
cal 89
dad 89
eron 89
ev 89
jed@@ 89
ret 89
rid@@ 89
tit@@ 89
unk@@ 89
van@@ 89
117@@ 88
240 88
650 88
Agu@@ 88
Angel 88
Arn@@ 88
Bru@@ 88
Charlotte 88
Cir@@ 88
Dir@@ 88
E.@@ 88
Econom@@ 88
Jimmy 88
Las 88
Moz@@ 88
Paraguay 88
Stu@@ 88
Tour@@ 88
XIX 88
act@@ 88
don 88
dri@@ 88
eller 88
fl@@ 88
ket@@ 88
luk@@ 88
mej@@ 88
oll@@ 88
onne 88
publican 88
r. 88
rea 88
tul@@ 88
è@@ 88
125 87
1857 87
Channel 87
Cru@@ 87
Europa 87
Good 87
Jud@@ 87
Les 87
Marshall 87
Maurice 87
Mic@@ 87
Migu@@ 87
Opera 87
Rhy@@ 87
Salvador 87
Santiago 87
agan 87
aine 87
astr@@ 87
dos 87
other@@ 87
pper 87
urn@@ 87
worth 87
ב@@ 87
1838 86
1867 86
Alan 86
Dipl@@ 86
Hau@@ 86
Kho@@ 86
Master 86
Mount 86
Nich@@ 86
Orig@@ 86
To 86
Vladimir 86
augh@@ 86
ck@@ 86
ection 86
ement@@ 86
eton 86
fab@@ 86
idad 86
jug@@ 86
neur@@ 86
sei 86
sis 86
star@@ 86
113 85
260 85
380 85
Apple 85
Gabri@@ 85
Grim@@ 85
I.@@ 85
Inn@@ 85
Jan 85
Law 85
Missouri 85
Ry@@ 85
Sib@@ 85
Thr@@ 85
XVIII 85
atao 85
ex 85
ext 85
has 85
illi@@ 85
inter@@ 85
ization 85
lies 85
long@@ 85
omp@@ 85
oti@@ 85
ots 85
ott 85
tion@@ 85
wen 85
yl 85
ς 85
1815 84
1856 84
220 84
230 84
280 84
Adams 84
Alice 84
Andr@@ 84
BM@@ 84
BS 84
Beg@@ 84
Buff@@ 84
DF 84
Eliz@@ 84
Football 84
Fres@@ 84
Giovanni 84
MP@@ 84
Maxim@@ 84
Miami 84
Py@@ 84
Rock@@ 84
SI 84
Stal@@ 84
ancy 84
austr@@ 84
ces 84
dian 84
kar 84
law@@ 84
net 84
path@@ 84
rol@@ 84
ía 84
1864 83
Chr@@ 83
DVD 83
FI@@ 83
Ferdinand 83
Grant 83
Hop@@ 83
Jacques 83
Johann 83
Miller 83
Power 83
Sevilla 83
Tow@@ 83
Will 83
` 83
abo@@ 83
agon 83
amen@@ 83
atis@@ 83
ede 83
hid@@ 83
ple@@ 83
ru 83
were 83
ée 83
ém@@ 83
ר@@ 83
1863 82
330 82
Arizona 82
CP@@ 82
Community 82
Cô@@ 82
Heinrich 82
Indiana 82
Rach@@ 82
Rid@@ 82
Ryan 82
Yoh@@ 82
You@@ 82
Zen@@ 82
acc@@ 82
bit@@ 82
eb 82
eck@@ 82
ental 82
gy 82
hariki 82
hon@@ 82
lim 82
loc@@ 82
lon 82
rad@@ 82
ː@@ 82
א@@ 82
115 81
1300 81
Blan@@ 81
Buc@@ 81
DO@@ 81
Dro@@ 81
Elec@@ 81
Force 81
Jus@@ 81
Matt 81
Organ@@ 81
PS 81
Pop@@ 81
Sony 81
Television 81
ago@@ 81
aug@@ 81
deb@@ 81
etr@@ 81
fen@@ 81
geg@@ 81
gus@@ 81
ital 81
los@@ 81
nar@@ 81
oca 81
quel@@ 81
sar 81
set 81
å@@ 81
ā 81
135 80
1862 80
Alberto 80
Aus@@ 80
Costa 80
Dance 80
Do 80
EC 80
Gom@@ 80
Hali@@ 80
Law@@ 80
Nations 80
Prov@@ 80
RNA 80
Sri 80
Ster@@ 80
Stone 80
alifor@@ 80
ert 80
gn@@ 80
har 80
inal 80
ision 80
née 80
qui@@ 80
uck 80
viol@@ 80
ī 80
́ 80
ְ@@ 80
Alber@@ 79
Bremen 79
Coll@@ 79
DE@@ 79
Eb@@ 79
Education 79
Ere@@ 79
Fem@@ 79
Franco 79
Home 79
Hotel 79
Kre@@ 79
Lig@@ 79
Marse@@ 79
Out@@ 79
Pay@@ 79
SP@@ 79
Sz@@ 79
Sé@@ 79
Vor@@ 79
Way 79
What 79
Ye@@ 79
Your 79
aj 79
anny 79
bas 79
ellen@@ 79
iss 79
lins 79
ody 79
phy 79
unt 79
weg@@ 79
won 79
yg@@ 79
ès 79
113@@ 78
1858 78
1879 78
2500 78
AM 78
Adel@@ 78
Arg@@ 78
Bla@@ 78
Congo 78
Connecticut 78
Dig@@ 78
Et@@ 78
Franz 78
Grande 78
Herbert 78
Jun@@ 78
Kansas 78
Lord 78
Men 78
NASA 78
Project 78
Stadium 78
Stewart 78
This 78
Toul@@ 78
Ukr@@ 78
Zar@@ 78
alle 78
ating 78
ativ@@ 78
ayn@@ 78
dic@@ 78
ful 78
izer 78
nis 78
ods 78
onte 78
ops 78
org@@ 78
osis 78
raine 78
she 78
strong 78
ō 78
117 77
1873 77
As 77
Aug@@ 77
D.@@ 77
Dum@@ 77
General 77
Monte 77
Port@@ 77
Rud@@ 77
Stockh@@ 77
aqu@@ 77
arren 77
ce@@ 77
das 77
eder@@ 77
eye 77
fiel@@ 77
hard 77
iye 77
ms 77
neg@@ 77
tors 77
wn 77
yaz@@ 77
í 77
ה@@ 77
An 76
Bres@@ 76
Hamilton 76
IG@@ 76
LE@@ 76
Lad@@ 76
Terr@@ 76
ades 76
album 76
alt@@ 76
andro 76
car 76
dé@@ 76
ely 76
gun 76
hoa 76
org 76
stan@@ 76
tron@@ 76
tru@@ 76
tz 76
ör@@ 76
114 75
14.@@ 75
1400 75
1878 75
3.5 75
Amer@@ 75
Dan 75
Inc. 75
Monte@@ 75
Morgan 75
NAT@@ 75
Philadelphia 75
Rel@@ 75
So 75
Sub@@ 75
Sund@@ 75
alp@@ 75
atini 75
azini 75
beck 75
dipl@@ 75
enf@@ 75
eshim@@ 75
had 75
ife 75
kno@@ 75
osp@@ 75
proj@@ 75
sex 75
ubil@@ 75
ury 75
ּ@@ 75
127 74
129 74
1859 74
Bass@@ 74
Bron@@ 74
Coc@@ 74
Duke 74
Fro@@ 74
Glas@@ 74
Gren@@ 74
J.@@ 74
Jap@@ 74
Java 74
Just 74
Out 74
Point 74
Pra@@ 74
Salz@@ 74
Sebasti@@ 74
Techn@@ 74
V. 74
abil@@ 74
ager 74
ages 74
ann 74
atem@@ 74
can 74
ett@@ 74
inh 74
int 74
main 74
zan 74
× 74
Ş@@ 74
1837 73
1844 73
1876 73
AT 73
Ast@@ 73
Berg@@ 73
Bod@@ 73
Campbell 73
Champ@@ 73
Comm@@ 73
Cos@@ 73
Dy@@ 73
Eth@@ 73
Fund@@ 73
High@@ 73
Jul@@ 73
LO@@ 73
Nati@@ 73
Norman 73
Ray@@ 73
Rober@@ 73
Roberto 73
Rosa 73
Sax@@ 73
Schleswig 73
Venez@@ 73
abl@@ 73
acy 73
allo 73
ands 73
court 73
illes 73
lus@@ 73
mouth 73
now 73
ses 73
tre@@ 73
wh@@ 73
wur@@ 73
· 73
ó 73
1875 72
Andre@@ 72
Austin 72
Carr@@ 72
Cul@@ 72
Fernando 72
Mann@@ 72
Of 72
PC 72
Phoen@@ 72
Publ@@ 72
Service 72
Tir@@ 72
Zh@@ 72
auer 72
cas@@ 72
cher@@ 72
dad@@ 72
dale 72
diz@@ 72
fam@@ 72
fan 72
film 72
hil 72
ister 72
leg@@ 72
let 72
obi@@ 72
tica 72
tif@@ 72
ı 72
田 72
1874 71
Aff@@ 71
Bow@@ 71
Esp@@ 71
Fred 71
IT@@ 71
Night 71
Oper@@ 71
Robin 71
Schutz@@ 71
She 71
Space 71
Story 71
Tod@@ 71
Wer@@ 71
XX 71
ady 71
anger@@ 71
ency 71
enter@@ 71
kay@@ 71
ple 71
tai 71
tt@@ 71
u. 71
verte@@ 71
viel@@ 71
wick 71
111 70
1841 70
19.@@ 70
199@@ 70
46@@ 70
AN 70
Broad@@ 70
Catherine 70
Democ@@ 70
Dream 70
Ey@@ 70
Han 70
Heart 70
LC 70
Manuel 70
Nicolas 70
Santo 70
Singapore 70
Tat@@ 70
Tour 70
ading 70
cal@@ 70
cin@@ 70
cript 70
diplom@@ 70
ect 70
enta 70
eph@@ 70
hie 70
inger@@ 70
kov@@ 70
nat@@ 70
tre 70
wit@@ 70
xon 70
zy@@ 70
ï 70
ʿ@@ 70
1820 69
Baz@@ 69
Cant@@ 69
Cour@@ 69
EN@@ 69
Fame 69
Guadal@@ 69
IF@@ 69
Jah@@ 69
Jason 69
Kuv@@ 69
Mary@@ 69
Matthe@@ 69
Mission 69
Mé@@ 69
Sant@@ 69
Sea 69
States 69
Vall@@ 69
With 69
ants 69
arak 69
attle 69
e. 69
formes 69
odo 69
phon@@ 69
plaz@@ 69
ril 69
sie 69
sin 69
sos@@ 69
unter 69
َ@@ 69
ḥ@@ 69
17.@@ 68
1846 68
90@@ 68
Alabama 68
Anth@@ 68
Bach@@ 68
Blu@@ 68
Boul@@ 68
Castro 68
DV@@ 68
Hermann 68
Iowa 68
Kent 68
P.@@ 68
Science 68
Steph@@ 68
Sup@@ 68
U.S. 68
abad 68
aim@@ 68
avo 68
bac@@ 68
bey 68
borough 68
by@@ 68
cat@@ 68
ender@@ 68
enh@@ 68
gency 68
hayat@@ 68
los 68
ment@@ 68
olas 68
orn 68
put@@ 68
rad 68
sang@@ 68
teki 68
that 68
urdu 68
yer 68
éd@@ 68
ég@@ 68
122 67
1847 67
1848 67
1868 67
1877 67
Carter 67
Cruz 67
Dave 67
EM@@ 67
Eur@@ 67
First 67
Hugo 67
IC 67
Kant@@ 67
Melbourne 67
Rev@@ 67
Sey@@ 67
Wolf@@ 67
atri@@ 67
avent@@ 67
este 67
gan 67
grad 67
lau@@ 67
lier 67
music 67
nam 67
onald 67
ostr@@ 67
ré@@ 67
san 67
tes@@ 67
urg@@ 67
מ@@ 67
190 66
Airport 66
Championship 66
Chel@@ 66
Colombia 66
Cri@@ 66
Ernst 66
Fair@@ 66
Feder@@ 66
Gener@@ 66
Internet 66
SPD 66
TO@@ 66
Tex@@ 66
aron 66
bach 66
bau@@ 66
castle 66
cm 66
ders 66
fli@@ 66
format 66
fort 66
gin 66
ob 66
other 66
pson 66
red 66
see 66
sons 66
sson 66
tical 66
yay@@ 66
ying 66
ْ@@ 66
124 65
Arkansas 65
Comp@@ 65
Frances@@ 65
Lot@@ 65
MO@@ 65
Roy 65
Spir@@ 65
Under@@ 65
Wright 65
ander 65
anes 65
anie 65
aven 65
ehr@@ 65
face 65
hip@@ 65
ibi 65
lois 65
mail 65
ologne 65
otom@@ 65
radio 65
rag@@ 65
ron 65
water 65
wol@@ 65
zon 65
zuk@@ 65
1852 64
66@@ 64
Amp@@ 64
Anim@@ 64
Bapti@@ 64
Bed@@ 64
Def@@ 64
Ein@@ 64
François 64
Hospital 64
If 64
Kentucky 64
Luci@@ 64
Montre@@ 64
Nom@@ 64
Sa 64
Suc@@ 64
Technology 64
There 64
agne 64
dez 64
dren 64
eaux 64
fri@@ 64
hiv@@ 64
sberg 64
semi 64
star 64
tot@@ 64
ulus 64
yani 64
נ@@ 64
123 63
1854 63
1872 63
48@@ 63
CBS 63
Charl@@ 63
Chi 63
Cros@@ 63
Dim@@ 63
Eastern 63
End 63
Johnny 63
Kav@@ 63
Lic@@ 63
ME@@ 63
Mac 63
Michel 63
Moun@@ 63
T.@@ 63
Walker 63
adel@@ 63
aden@@ 63
afe 63
agin@@ 63
asis 63
box 63
eff 63
els@@ 63
emat@@ 63
evo 63
gas@@ 63
ilg@@ 63
ior 63
italiano 63
less 63
model 63
mur@@ 63
ouse 63
rat 63
sung 63
top 63
ual 63
under@@ 63
yon 63
är@@ 63
′ 63
1853 62
BO@@ 62
CO 62
Cin@@ 62
Coun@@ 62
Eas@@ 62
Gut@@ 62
Ja@@ 62
Jim 62
Kır@@ 62
Lau@@ 62
PO@@ 62
SV 62
Universal 62
When 62
Year 62
aban 62
ace@@ 62
ality 62
alum@@ 62
anto 62
ats@@ 62
auch@@ 62
aven@@ 62
bel 62
bot 62
esti@@ 62
fir@@ 62
koa 62
onel 62
ority 62
ović 62
sian 62
ska 62
sup@@ 62
vention 62
vey 62
western 62
121 61
49@@ 61
Athle@@ 61
Dut@@ 61
Flam@@ 61
Got@@ 61
Griff@@ 61
Jon@@ 61
L.@@ 61
Land 61
Moore 61
Nam 61
Ner@@ 61
RT@@ 61
Sound 61
Tay@@ 61
agog@@ 61
annes 61
arry 61
asser 61
ater@@ 61
cle 61
country 61
elik 61
eston 61
hatt@@ 61
ino@@ 61
modi@@ 61
mol@@ 61
nis@@ 61
plan@@ 61
pos 61
rac@@ 61
s.@@ 61
serv@@ 61
spir@@ 61
ties 61
view 61
vor 61
you 61
č@@ 61
ık@@ 61
ש@@ 61
118 60
Co 60
Cou@@ 60
Death 60
Dow@@ 60
Kop@@ 60
Meh@@ 60
Pedro 60
Pictures 60
Premier 60
Scot@@ 60
Stor@@ 60
Stre@@ 60
acks 60
ads 60
angle 60
asp@@ 60
ault 60
eer 60
esp@@ 60
ists 60
lib@@ 60
lip 60
orio 60
pens@@ 60
school 60
seg@@ 60
traf@@ 60
world 60
ère 60
155 59
1789 59
1814 59
23.@@ 59
AG@@ 59
Chall@@ 59
Constant@@ 59
Crist@@ 59
End@@ 59
Guatemala 59
Guy 59
HT@@ 59
Hard@@ 59
Head 59
IT 59
Lanc@@ 59
Lep@@ 59
Lé@@ 59
Ox@@ 59
Pass@@ 59
Sym@@ 59
VI@@ 59
Wrestling 59
ael 59
aille 59
aise 59
ball 59
chen 59
elly 59
espe@@ 59
fich@@ 59
hat 59
igg@@ 59
osaur@@ 59
ph 59
ree 59
rup@@ 59
ship 59
sus@@ 59
top@@ 59
umin@@ 59
ár@@ 59
− 59
.S. 58
16.@@ 58
Act 58
BI 58
CE 58
Georg 58
Hoff@@ 58
Jor@@ 58
Pier@@ 58
Rein@@ 58
Sap@@ 58
Yen@@ 58
amii 58
ante@@ 58
arch@@ 58
aten 58
contributor 58
dibu@@ 58
dom 58
domin@@ 58
ennes 58
ering 58
hija 58
idea 58
light 58
phia 58
ping 58
rot@@ 58
sch 58
sun 58
tie 58
tras@@ 58
³ 58
ğ 58
ın 58
ś@@ 58
ִ@@ 58
128 57
1821 57
22@@ 57
99@@ 57
And@@ 57
Arti@@ 57
Champions 57
Chief 57
Digital 57
Gan@@ 57
Janeiro 57
Lind@@ 57
Magazine 57
Moon 57
Nguy@@ 57
Pro 57
Rav@@ 57
SO@@ 57
System 57
aissance 57
antes 57
atic 57
change 57
eg 57
elles 57
ery 57
esc@@ 57
estra 57
eum 57
eur@@ 57
even 57
ffer@@ 57
ift 57
igan 57
lard 57
mut@@ 57
ough@@ 57
ples 57
rez 57
rop@@ 57
vis 57
wing 57
ü@@ 57
175 56
18.@@ 56
1810 56
André 56
Army 56
Brig@@ 56
Cha@@ 56
Freder@@ 56
Inst@@ 56
Mey@@ 56
PR@@ 56
Play@@ 56
SE 56
Son 56
Stil@@ 56
Trab@@ 56
Who 56
adj@@ 56
ald@@ 56
att 56
azar 56
azz@@ 56
casting 56
chil@@ 56
dorf 56
edy 56
fac@@ 56
ican 56
ink 56
kshire 56
nus 56
peri@@ 56
sah 56
thu 56
timestamp 56
west 56
ր@@ 56
126 55
44@@ 55
AG 55
Afrique 55
Album 55
Alex@@ 55
Commun@@ 55
He 55
ISO 55
Journal 55
Mustafa 55
Off@@ 55
Oregon 55
RS 55
Seine 55
Wisconsin 55
agi@@ 55
autom@@ 55
bach@@ 55
dar 55
edom 55
gli@@ 55
icus 55
idel@@ 55
kov 55
lug@@ 55
mac@@ 55
pler 55
pros@@ 55
sel 55
username 55
wald 55
zon@@ 55
ַ@@ 55
ם 55
15.@@ 54
1835 54
Atlantic 54
Au 54
BT 54
Clau@@ 54
Dep@@ 54
Enter@@ 54
Fern@@ 54
Lec@@ 54
Li 54
Miguel 54
More 54
Museum 54
Nick 54
Penn@@ 54
Turk@@ 54
Yun@@ 54
adol@@ 54
ander@@ 54
bor 54
con 54
deg@@ 54
enc@@ 54
etti@@ 54
etz@@ 54
las@@ 54
min 54
nik 54
parentid 54
prim@@ 54
rö@@ 54
s. 54
thy 54
uz 54
ël 54
üt@@ 54
-- 53
1832 53
1849 53
1851 53
20.@@ 53
24.@@ 53
August 53
Hub@@ 53
LP 53
Latin 53
Pand@@ 53
Public 53
Ris@@ 53
Rolling 53
Thompson 53
War 53
Wolfgang 53
Yel@@ 53
abol@@ 53
alism 53
ames 53
angers 53
assi@@ 53
band 53
ben 53
blo@@ 53
boy 53
com 53
eca 53
edr@@ 53
ily 53
influ@@ 53
isher 53
kateg@@ 53
naz@@ 53
occ@@ 53
ocho 53
omy@@ 53
ories 53
sus 53
tham 53
var 53
én 53
İzmir 53
ح@@ 53
--@@ 52
145 52
1831 52
3D 52
55@@ 52
Am 52
Ba 52
Book 52
Britain 52
Cast@@ 52
Chu@@ 52
Conserv@@ 52
Di 52
English 52
Indian 52
Line 52
Lud@@ 52
Medical 52
Minh 52
Ministr@@ 52
Nh@@ 52
Rudolf 52
Sky 52
Spar@@ 52
TH@@ 52
Trump 52
aster 52
bourg 52
duras 52
ischer 52
kel 52
ket 52
onz@@ 52
pio 52
troit 52
ude 52
ums 52
zus@@ 52
zz@@ 52
î@@ 52
şehir 52
ṣ@@ 52
56@@ 51
Billy 51
CC 51
Capit@@ 51
Chir@@ 51
Eisen@@ 51
Es 51
Fak@@ 51
Fle@@ 51
HP 51
Hier@@ 51
IBM 51
Ich@@ 51
Marc 51
Marco 51
Mountain 51
N.@@ 51
Nicol@@ 51
Over 51
Province 51
Russell 51
TV@@ 51
Tes@@ 51
altar 51
apti@@ 51
bish@@ 51
cy@@ 51
ems 51
hang 51
inas 51
iter 51
kri@@ 51
lav 51
live 51
mana 51
mus 51
neutr@@ 51
oir 51
pes@@ 51
struc@@ 51
super@@ 51
text 51
vera 51
yum@@ 51
ène 51
ön@@ 51
ü 51
ɛ@@ 51
ɪ@@ 51
大@@ 51
1845 50
Antoine 50
Dead 50
Feld@@ 50
Gonz@@ 50
Herr@@ 50
Human 50
Islam@@ 50
König@@ 50
Micro@@ 50
Nazi 50
Prix 50
Roy@@ 50
Studi@@ 50
Syn@@ 50
Wind@@ 50
aft 50
aup@@ 50
azu 50
cht 50
dit 50
dre@@ 50
eppe 50
gang@@ 50
og 50
otr@@ 50
ric 50
ry@@ 50
sag@@ 50
thr@@ 50
vier 50
ž@@ 50
بن 50
ن@@ 50
Bridge 49
Cath@@ 49
Clu@@ 49
Comics 49
Cum@@ 49
Dakota 49
Dok@@ 49
Du 49
EU 49
Eff@@ 49
Estr@@ 49
FF 49
Gustav 49
Hamb@@ 49
Islands 49
Last 49
Margar@@ 49
Mars 49
N. 49
Ober@@ 49
PP@@ 49
Phili@@ 49
Play 49
R.@@ 49
Republic 49
Research 49
Sci@@ 49
Series 49
Siv@@ 49
Social 49
Squ@@ 49
Square 49
Thu@@ 49
Two 49
UR@@ 49
Well@@ 49
Werner 49
Xi@@ 49
alt 49
alus 49
anan 49
back 49
ball@@ 49
bank 49
enci@@ 49
haribi 49
ign 49
inan@@ 49
magazine 49
mina 49
nes@@ 49
not 49
oine 49
ouver 49
part@@ 49
prop@@ 49
quar@@ 49
right 49
sion@@ 49
tima 49
uld 49
under 49
versi@@ 49
very 49
vu@@ 49
zen 49
éli@@ 49
ín 49
ów 49
μ@@ 49
ד@@ 49
ל@@ 49
َ 49
0s 48
1806 48
1855 48
Arc@@ 48
Avi@@ 48
Bei 48
Classi@@ 48
Columb@@ 48
Dic@@ 48
Ef@@ 48
Empire 48
Express 48
Fall 48
Fernández 48
Franc@@ 48
From 48
Hey@@ 48
LG@@ 48
Louise 48
Metropolit@@ 48
Will@@ 48
Zw@@ 48
act 48
aff 48
agn@@ 48
ains 48
also 48
ammad 48
arian 48
avier 48
born 48
dre 48
efs 48
eim 48
ety 48
formula 48
head 48
his 48
ls 48
mel 48
mil 48
n.@@ 48
nov@@ 48
ography 48
otte 48
sec@@ 48
ste 48
tienne 48
tier 48
tive 48
tum 48
tural 48
verse 48
öl@@ 48
山@@ 48
Ble@@ 47
Ec@@ 47
Georges 47
IB@@ 47
Il 47
Jung@@ 47
Lima 47
ML 47
Mess@@ 47
Miss@@ 47
Pac@@ 47
Pacific 47
Pé@@ 47
Radi@@ 47
Robinson 47
Sport@@ 47
Stuttgart 47
abri@@ 47
ados 47
apr@@ 47
arina 47
aris 47
arius 47
asc@@ 47
aç@@ 47
body 47
cial 47
dok@@ 47
egas 47
hit 47
iken 47
inst@@ 47
mon 47
nu 47
ouv@@ 47
pon 47
ras 47
rh@@ 47
seri 47
stati@@ 47
tiv@@ 47
uela 47
ush 47
zer 47
ν 47
ה 47
ע@@ 47
م@@ 47
Ἀ@@ 47
0.000 46
1807 46
1824 46
1843 46
AB 46
Charlie 46
Conference 46
DI 46
GT 46
Hit@@ 46
How@@ 46
Hydro@@ 46
Jesus 46
Klo@@ 46
Laurent 46
León 46
Like 46
Mai 46
Metro 46
Not 46
Order 46
Summer 46
Thom@@ 46
Twitter 46
alan@@ 46
aly@@ 46
ause 46
betr@@ 46
bit 46
city 46
dida 46
doc@@ 46
dos@@ 46
dy@@ 46
ector 46
encer 46
ender 46
ends 46
erie 46
far 46
ffe 46
fis@@ 46
gs 46
icul@@ 46
ight@@ 46
ild 46
imbali 46
jou@@ 46
kers 46
migu@@ 46
ont 46
pers 46
syn@@ 46
è 46
éré 46
ę@@ 46
ן 46
152 45
1813 45
1818 45
1842 45
Alfonso 45
Ander@@ 45
Art@@ 45
Egyp@@ 45
Gri@@ 45
Haute 45
Kara 45
Kingdom 45
Lap@@ 45
Management 45
Middle 45
Nord@@ 45
Rey 45
SD 45
Strat@@ 45
Yar@@ 45
agre@@ 45
akt@@ 45
alta 45
asit@@ 45
aver@@ 45
berto 45
comment 45
dou@@ 45
eine 45
enes 45
enin 45
flu@@ 45
gil@@ 45
ider@@ 45
kle@@ 45
kn@@ 45
lers 45
ley@@ 45
onto 45
put 45
ski@@ 45
tran@@ 45
yk@@ 45
ône 45
ık 45
س 45
ِ@@ 45
132 44
1825 44
1828 44
196@@ 44
198@@ 44
21.@@ 44
Back@@ 44
Baker 44
Cari@@ 44
Catal@@ 44
Doc@@ 44
Dé@@ 44
Federal 44
Geb@@ 44
Health 44
Inv@@ 44
Jag@@ 44
Lie@@ 44
PlayStation 44
SI@@ 44
Sud 44
TP 44
WW@@ 44
adv@@ 44
agno@@ 44
anos 44
arts 44
benz@@ 44
bers 44
bridge 44
cell@@ 44
ear@@ 44
ells 44
eran 44
hydro@@ 44
iden 44
ilde 44
illi 44
ineering 44
ities 44
kö@@ 44
ments 44
mul@@ 44
nataka 44
onu 44
prom@@ 44
pus 44
say 44
sive 44
tain 44
tal 44
tap@@ 44
uca 44
ustry 44
wards 44
web@@ 44
zor@@ 44
ép@@ 44
ö 44
ün@@ 44
ν@@ 44
ُ@@ 44
1795 43
1799 43
1822 43
1829 43
América 43
Clark 43
Hannover 43
Ih@@ 43
Justice 43
Maine 43
Sá@@ 43
aer@@ 43
aide 43
aun 43
bonne 43
comp@@ 43
dah@@ 43
emati@@ 43
fak@@ 43
fied 43
habit@@ 43
ial 43
ices 43
igen 43
lag 43
lum 43
mental 43
mix@@ 43
mod@@ 43
new 43
opp@@ 43
par 43
prin@@ 43
quez 43
riwa 43
sap@@ 43
spr@@ 43
tains 43
vie 43
県 43
197@@ 42
26.@@ 42
58@@ 42
Arap 42
Atlé@@ 42
Avenue 42
Beat@@ 42
Broadway 42
Como 42
Département 42
Forest 42
Games 42
Gran 42
Gros@@ 42
IO@@ 42
IS 42
Journ@@ 42
Leipzig 42
NO@@ 42
Pach@@ 42
Pek@@ 42
Prom@@ 42
Top@@ 42
Viol@@ 42
Vog@@ 42
Web 42
aker 42
aud 42
bomb@@ 42
book 42
dier 42
elor 42
ensi@@ 42
high 42
itch 42
ix@@ 42
jur@@ 42
lamu 42
language 42
long 42
mbal@@ 42
million 42
pes 42
stil@@ 42
v. 42
Î@@ 42
ères 42
ña 42
Š@@ 42
محمد 42
∘ 42
1809 41
1812 41
1834 41
Android 41
Chart 41
Ciudad 41
DR 41
Frank@@ 41
Hall@@ 41
IE@@ 41
John@@ 41
Juni@@ 41
Köln 41
Mar 41
Ost@@ 41
Ple@@ 41
Prin@@ 41
Schwar@@ 41
Siy@@ 41
TS 41
Wolf 41
acia 41
alisi@@ 41
aran 41
ches 41
coc@@ 41
dec@@ 41
dem 41
duc@@ 41
eber@@ 41
enko 41
esto 41
folk 41
gin@@ 41
host@@ 41
ications 41
kum 41
lai 41
mano 41
nig@@ 41
ographi@@ 41
orn@@ 41
rod@@ 41
than 41
tific@@ 41
vari@@ 41
wall 41
ın@@ 41
ū 41
1802 40
1811 40
1833 40
Airlines 40
Antar@@ 40
Captain 40
Chron@@ 40
Comput@@ 40
Deutsche 40
Dop@@ 40
Eduardo 40
Eug@@ 40
Four 40
Fried@@ 40
GM 40
Hern@@ 40
History 40
Jorge 40
Mosk@@ 40
Olymp@@ 40
Region 40
Río 40
Sn@@ 40
Tap@@ 40
Wander@@ 40
Wy@@ 40
action 40
atas@@ 40
away 40
bek 40
ceph@@ 40
codice 40
daf@@ 40
dium 40
ective 40
ehir 40
eles 40
eur 40
formation 40
found@@ 40
hen@@ 40
isis 40
itas 40
lars 40
loy@@ 40
lut@@ 40
micro@@ 40
nationale 40
number 40
ogne 40
ological 40
ording 40
ords 40
pera 40
perial 40
spec@@ 40
tempor@@ 40
unds 40
ures 40
work 40
xi@@ 40
ð@@ 40
☉ 40
1816 39
App@@ 39
Cand@@ 39
Creek 39
Federation 39
Fire 39
Four@@ 39
German 39
Imp@@ 39
Loire 39
Neu@@ 39
Place 39
Pod@@ 39
Rat@@ 39
Sain@@ 39
Schne@@ 39
Sos@@ 39
ader 39
ares 39
ather 39
aï@@ 39
cyc@@ 39
ease 39
echt 39
esper@@ 39
feder@@ 39
form 39
fried 39
heim@@ 39
hik@@ 39
ils 39
issen@@ 39
kes@@ 39
mal 39
medi@@ 39
oc 39
oz 39
pod@@ 39
pour 39
pp 39
stat@@ 39
stre@@ 39
this 39
ular 39
urus 39
wes@@ 39
wns 39
yu@@ 39
ú 39
ş 39
ʻ@@ 39
† 39
1801 38
1803 38
2.0 38
AE@@ 38
Alpes 38
Anh@@ 38
Australian 38
Burg@@ 38
Carlo 38
Design 38
Enrique 38
Her 38
II@@ 38
Nec@@ 38
Poli@@ 38
Publi@@ 38
Pueb@@ 38
Reser@@ 38
Scar@@ 38
Soci@@ 38
Songs 38
Stand@@ 38
Uru@@ 38
ahn 38
ainst 38
alog 38
ational 38
atum 38
aves 38
bat 38
bibli@@ 38
ca@@ 38
cli@@ 38
ect@@ 38
hand 38
hard@@ 38
isp@@ 38
kre@@ 38
lag@@ 38
ld@@ 38
nin 38
nm 38
né@@ 38
oire 38
ois 38
olan 38
oper 38
plant 38
quot 38
ross 38
sist@@ 38
sl@@ 38
sm@@ 38
ths 38
tory 38
tos 38
umen 38
wealth 38
α@@ 38
ח@@ 38
כ@@ 38
س@@ 38
179@@ 37
1826 37
25.@@ 37
68@@ 37
Alli@@ 37
Amat@@ 37
And 37
Andy 37
Arena 37
At 37
Batt@@ 37
Castle 37
Christ 37
DE 37
Ear@@ 37
Ej@@ 37
Ethiop@@ 37
Hz 37
Kend@@ 37
Light 37
Lux@@ 37
NCAA 37
Nob@@ 37
Nord 37
Rugby 37
Sl@@ 37
Syr@@ 37
TC 37
Tari@@ 37
VA 37
akadem@@ 37
alan 37
atrice 37
bil 37
cast 37
eline 37
hab 37
imm@@ 37
inv@@ 37
itage 37
ites 37
mang@@ 37
model@@ 37
muj@@ 37
má@@ 37
owski 37
por 37
spor@@ 37
tidae 37
tim 37
ving 37
zeit@@ 37
ça 37
és 37
ɡ@@ 37
د@@ 37
َّ@@ 37
ܝ@@ 37
1792 36
1804 36
1817 36
Alg@@ 36
Anton 36
April 36
Bill@@ 36
Boeing 36
Bretagne 36
Elek@@ 36
Fam@@ 36
Fantas@@ 36
Field 36
García 36
Hart@@ 36
Iron 36
Josef 36
María 36
Muhammed 36
Norte 36
Nou@@ 36
ON@@ 36
Over@@ 36
Roman 36
Rome 36
Sport 36
Station 36
Wis@@ 36
Zer@@ 36
aines 36
alition 36
cam@@ 36
cas 36
chez 36
cri@@ 36
dle 36
doksi 36
entes 36
https 36
igr@@ 36
ism@@ 36
lic@@ 36
nati@@ 36
ogen@@ 36
osu 36
pedi@@ 36
pic@@ 36
pierre 36
ps@@ 36
ques 36
quit@@ 36
red@@ 36
rep@@ 36
sek 36
servat@@ 36
tres 36
tric 36
ug 36
vat@@ 36
weight 36
γ@@ 36
1808 35
1827 35
Atlan@@ 35
Bek@@ 35
Budap@@ 35
CF 35
Canal 35
Dek@@ 35
Hind@@ 35
Jur@@ 35
Kirch@@ 35
Natur@@ 35
Rica 35
Riv@@ 35
SN@@ 35
Special 35
Sti@@ 35
Umw@@ 35
Under 35
VP 35
Yaz@@ 35
Zürich 35
acter@@ 35
aft@@ 35
aining 35
alem@@ 35
anl@@ 35
black 35
board 35
but 35
cel 35
core 35
down 35
eit@@ 35
ener 35
ern 35
fot@@ 35
gem@@ 35
ici 35
ingu@@ 35
inn 35
ip 35
ische 35
lang 35
ner@@ 35
orial 35
osph@@ 35
patri@@ 35
rugby 35
sam 35
saw 35
sept@@ 35
series 35
show 35
stad@@ 35
sz@@ 35
tra@@ 35
tuy@@ 35
urt 35
à@@ 35
ür@@ 35
ń@@ 35
ə 35
ός 35
ե@@ 35
ո@@ 35
ّ@@ 35
ἀ@@ 35
1793 34
1797 34
22.@@ 34
27.@@ 34
Born 34
CN 34
Commission 34
Culture 34
Frauen 34
Haus@@ 34
Hein@@ 34
Hof@@ 34
Initi@@ 34
Kurt 34
Olympi@@ 34
PM 34
Sach@@ 34
Services 34
adio 34
ahl@@ 34
ansa 34
aray 34
audi@@ 34
bir 34
brand 34
bri@@ 34
dex 34
eros 34
left 34
lich 34
lit 34
love 34
nier 34
ock@@ 34
oll 34
ols 34
park 34
phone 34
play 34
programm@@ 34
ref@@ 34
ror 34
system 34
techni@@ 34
tern 34
tional 34
trav@@ 34
tura 34
use@@ 34
vic@@ 34
yav@@ 34
year 34
és@@ 34
Π@@ 34
ն 34
ֹ@@ 34
ز@@ 34
1798 33
1805 33
1819 33
Alab@@ 33
Bahn 33
Beh@@ 33
Civil 33
Das 33
Erz@@ 33
Franç@@ 33
French 33
GA 33
German@@ 33
Gusta@@ 33
H.@@ 33
Memorial 33
Müller 33
Nair@@ 33
Ordu 33
Professor 33
Pseud@@ 33
Sol 33
Viet@@ 33
aks 33
ason 33
aş 33
bian 33
cro@@ 33
dil@@ 33
eig@@ 33
erini 33
fic@@ 33
fication 33
have 33
hiz@@ 33
imini 33
ited 33
lidae 33
like 33
lion 33
lus 33
occer 33
ograf@@ 33
ophie 33
part 33
phy@@ 33
poly@@ 33
pur 33
seh@@ 33
~ 33
Ál@@ 33
École 33
ë 33
ís 33
ɾ@@ 33
β@@ 33
الله 33
ك@@ 33
ṭ@@ 33
1790 32
193@@ 32
Buil@@ 32
Det@@ 32
Doctor 32
Elisabeth 32
Lo 32
Mann 32
March 32
Pho@@ 32
angel@@ 32
asse 32
atin 32
elik@@ 32
endorf 32
entin 32
eral 32
flo@@ 32
gers 32
ires 32
ishing 32
isten 32
iten@@ 32
ión 32
kiş@@ 32
kê 32
lun@@ 32
nel 32
nen 32
opus 32
orr@@ 32
oux 32
priv@@ 32
quer@@ 32
rates 32
rid 32
rif@@ 32
standing 32
tern@@ 32
trol 32
än@@ 32
éc@@ 32
ées 32
ô 32
ă@@ 32
ία 32
ск 32
ֶ@@ 32
ب@@ 32
ي 32
ُ 32
1. 31
195@@ 31
Board 31
Córdoba 31
Esta 31
Fe 31
Gru@@ 31
Heil@@ 31
Industri@@ 31
Jim@@ 31
Kent@@ 31
München 31
Né@@ 31
Other 31
Priv@@ 31
Production 31
Prof@@ 31
September 31
Sour@@ 31
Val 31
Von 31
aber 31
ahl 31
airs 31
alist 31
alu@@ 31
anced 31
anime 31
aras@@ 31
cir@@ 31
come 31
dra@@ 31
dur 31
ede@@ 31
eler 31
eps 31
fast 31
first 31
get 31
ground 31
igner 31
ives 31
jun@@ 31
lery 31
olds 31
orie 31
plex 31
plus 31
program 31
qui 31
song 31
stead 31
ular@@ 31
usalem 31
volution 31
ween 31
wid@@ 31
word 31
xe 31
ás 31
év@@ 31
ñ@@ 31
üz@@ 31
ũ@@ 31
γ 31
ת 31
ال@@ 31
ل@@ 31
وَ@@ 31
藤 31
郎 31
Alfre@@ 30
Associ@@ 30
By 30
Card@@ 30
Epis@@ 30
Fré@@ 30
Gott@@ 30
Gramm@@ 30
Kno@@ 30
Name 30
Nel@@ 30
Open 30
Railway 30
Syst@@ 30
Zanz@@ 30
acle 30
akter@@ 30
anh 30
anz 30
atür@@ 30
bé 30
cine 30
dat@@ 30
dings 30
elev@@ 30
ember 30
equ@@ 30
fif@@ 30
got 30
iff 30
illon 30
isch 30
isch@@ 30
iting 30
law 30
milli@@ 30
otra 30
ourg 30
pen 30
pool 30
press 30
propag@@ 30
quin@@ 30
rier 30
sai 30
sche 30
ses@@ 30
sing 30
sor@@ 30
teur 30
tn@@ 30
toral 30
uer@@ 30
ustr@@ 30
vil 30
wais@@ 30
yen 30
zer@@ 30
Ö@@ 30
ège 30
ır 30
ʁ@@ 30
י 30
פ@@ 30
ا 30
ق@@ 30
् 30
1823 29
2. 29
ATP 29
Cad@@ 29
Ecuador 29
Elis@@ 29
Europe 29
Evangel@@ 29
FL 29
Form@@ 29
Germany 29
Gó@@ 29
Kö@@ 29
Las@@ 29
Liter@@ 29
Luf@@ 29
MP 29
Major 29
Nacional 29
No. 29
Pablo 29
Ped@@ 29
Post@@ 29
Rest@@ 29
Ret@@ 29
Schi@@ 29
See 29
Stud@@ 29
anas 29
auto@@ 29
ayr@@ 29
contin@@ 29
cos 29
cot@@ 29
cs 29
door 29
ece 29
eich@@ 29
evi@@ 29
fish 29
force 29
geb@@ 29
hood 29
imbab@@ 29
inson 29
iran 29
ising 29
itali@@ 29
kam 29
khe@@ 29
lama 29
lay@@ 29
mari@@ 29
mez 29
news 29
oides 29
oty@@ 29
point 29
real 29
revision 29
sant@@ 29
sep@@ 29
sola 29
spo@@ 29
tere 29
tle 29
wers 29
wide 29
yat 29
zur 29
Á@@ 29
élé@@ 29
č 29
ħ@@ 29
İ@@ 29
ır@@ 29
š 29
3. 28
5. 28
Andreas 28
Anto@@ 28
Archit@@ 28
Bez@@ 28
Chev@@ 28
Court 28
Crim@@ 28
Del 28
EE 28
Educ@@ 28
Era 28
Fritz 28
Fron@@ 28
Government 28
Institut 28
Koh@@ 28
Leh@@ 28
Linux 28
NH@@ 28
Pf@@ 28
Philippe 28
Rafael 28
Rit@@ 28
SK 28
Supre@@ 28
Team 28
adem@@ 28
anch@@ 28
anco 28
arch 28
arti@@ 28
aş@@ 28
code 28
company 28
cos@@ 28
erek 28
feld 28
gens 28
gri@@ 28
haup@@ 28
iler 28
inci 28
inde@@ 28
its@@ 28
kho@@ 28
ladi@@ 28
liber@@ 28
mut 28
nay 28
nd 28
ologies 28
onder@@ 28
padre 28
power 28
prise 28
rev@@ 28
test@@ 28
til 28
tric@@ 28
té 28
will 28
ór@@ 28
üb@@ 28
ıy@@ 28
ʾ@@ 28
ֵ@@ 28
ת@@ 28
ع@@ 28
Bas 27
Dame 27
Den 27
Department 27
Diy@@ 27
Edu@@ 27
Elle 27
En 27
Modern 27
NFL 27
Quer@@ 27
Revolution 27
SR 27
Scottish 27
Sieg@@ 27
Sta@@ 27
Thor@@ 27
Three 27
Trich@@ 27
afric@@ 27
ament@@ 27
amor@@ 27
anca 27
arc@@ 27
bad 27
bom 27
boy@@ 27
camp@@ 27
cic@@ 27
def@@ 27
dition 27
drama 27
dul@@ 27
ec 27
ects 27
einer 27
eleg@@ 27
embr@@ 27
endr@@ 27
eren 27
father 27
fem@@ 27
friend 27
ged 27
get@@ 27
gether 27
gran@@ 27
graph@@ 27
haus 27
hen 27
icum 27
incia 27
ked 27
mine 27
old@@ 27
olu 27
ool 27
orch@@ 27
oven 27
over@@ 27
rat@@ 27
rig@@ 27
sal 27
thor@@ 27
tries 27
uter 27
vai 27
w.@@ 27
yel@@ 27
zun@@ 27
ál@@ 27
án@@ 27
ò 27
ĩ@@ 27
ış 27
ɔ@@ 27
θ@@ 27
κ@@ 27
π@@ 27
ի@@ 27
ל 27
ר 27
ان 27
د 27
ف@@ 27
ܐ 27
194@@ 26
Administration 26
Audi@@ 26
Catholic 26
Ges@@ 26
Liz@@ 26
Most 26
Olympic 26
Philipp@@ 26
Revol@@ 26
Salv@@ 26
Second 26
Termin@@ 26
Universit@@ 26
Volks@@ 26
abaj@@ 26
ables 26
ajo 26
alog@@ 26
app 26
aret 26
bis 26
cell 26
cons@@ 26
cou@@ 26
coun@@ 26
crip@@ 26
cus@@ 26
dro@@ 26
elop@@ 26
encia 26
eux 26
für 26
grade 26
group 26
harmon@@ 26
idas 26
iner 26
infr@@ 26
irs 26
isra@@ 26
istic 26
kat 26
level 26
loi 26
master 26
math@@ 26
mov@@ 26
net@@ 26
nom 26
oid 26
ort@@ 26
pas 26
pass@@ 26
poem 26
port@@ 26
rel 26
tain@@ 26
tepe 26
tero 26
test 26
toman 26
trac@@ 26
urity 26
ution 26
vir 26
works 26
zant@@ 26
zar 26
äl@@ 26
ē 26
ε@@ 26
η 26
ον 26
ρος 26
ة 26
ش@@ 26
و@@ 26
ي@@ 26
ِ 26
木 26
本 26
田@@ 26
野 26
1794 25
Aer@@ 25
Bras@@ 25
Bu 25
CS 25
Chic@@ 25
Committee 25
Division 25
Esc@@ 25
HMS 25
Int@@ 25
Karnataka 25
Lai 25
Oly@@ 25
Premi@@ 25
Reich@@ 25
Schw@@ 25
Stein@@ 25
Tod 25
UE@@ 25
Univers@@ 25
Vinc@@ 25
acher 25
aling 25
anges@@ 25
anted 25
ases@@ 25
ateur 25
centr@@ 25
ces@@ 25
d. 25
digital 25
eas@@ 25
ellen 25
enst@@ 25
entry 25
erk@@ 25
greg@@ 25
hay 25
ht 25
iden@@ 25
illas 25
inos 25
itor 25
luk 25
matr@@ 25
onidae 25
people 25
plut@@ 25
prof@@ 25
qua 25
return 25
ros 25
rus@@ 25
same 25
sau 25
set@@ 25
space 25
tiz@@ 25
track 25
tronic 25
vers@@ 25
vie@@ 25
which 25
wn@@ 25
xa 25
zar@@ 25
éri@@ 25
Đ@@ 25
ė@@ 25
Ł@@ 25
Σ@@ 25
ρ@@ 25
σ@@ 25
ׁ@@ 25
ج@@ 25
ه 25
ى 25
ῖ@@ 25
山 25
.000 24
190@@ 24
Centr@@ 24
Earl 24
GP@@ 24
Giov@@ 24
Jes@@ 24
Jesús 24
Marsh@@ 24
Motor@@ 24
Navy 24
Office 24
Orch@@ 24
Rodríguez 24
Serv@@ 24
Stra@@ 24
Stur@@ 24
Wir@@ 24
alya 24
aries 24
atz 24
back@@ 24
bahn 24
bey@@ 24
bire@@ 24
burg@@ 24
church 24
cle@@ 24
det@@ 24
ening 24
enter 24
fed@@ 24
femin@@ 24
four 24
ict 24
ident 24
iller@@ 24
illing 24
imler 24
join@@ 24
kır@@ 24
lac@@ 24
lige 24
lon@@ 24
mens@@ 24
ograph@@ 24
oise 24
online 24
orta 24
rich 24
river 24
second@@ 24
self 24
squ@@ 24
sten 24
tac@@ 24
tec@@ 24
tee 24
tista 24
tros 24
udo 24
uel 24
vas@@ 24
verg@@ 24
version 24
vet@@ 24
voc@@ 24
Å@@ 24
ás@@ 24
ño 24
ôme 24
ük 24
üm@@ 24
Κ@@ 24
р@@ 24
ر@@ 24
ْ 24
ܘ@@ 24
‏ 24
夫 24
AL 23
After 23
Apr@@ 23
Bey@@ 23
Championships 23
Christoph@@ 23
Düssel@@ 23
ESCO 23
Emp@@ 23
Extr@@ 23
Fen@@ 23
GC 23
Guill@@ 23
Hungary 23
List 23
Mercedes 23
Organisation 23
Program@@ 23
Stand 23
Wild@@ 23
Winter@@ 23
aat 23
anci@@ 23
ation@@ 23
cit@@ 23
edra 23
ences 23
enk@@ 23
eve 23
fact 23
forman@@ 23
franch@@ 23
heit 23
high@@ 23
how 23
ité 23
kus 23
lave 23
led 23
lik 23
ls@@ 23
made 23
male 23
midt 23
nea 23
non@@ 23
nos 23
oms 23
opol@@ 23
peti@@ 23
phil@@ 23
print 23
records 23
ren 23
sang 23
scre@@ 23
style 23
thing 23
tile 23
tori@@ 23
tures 23
vern@@ 23
wagen 23
xico 23
å 23
édi@@ 23
ò@@ 23
Č@@ 23
ʼ@@ 23
א 23
ק@@ 23
الح@@ 23
ص@@ 23
Ḥ@@ 23
″ 23
川 23
高@@ 23
Academ@@ 22
Alej@@ 22
Alexandre 22
Andro@@ 22
Dark 22
Doug@@ 22
Grec@@ 22
Martínez 22
Model 22
Municipal 22
Occ@@ 22
Peti@@ 22
Plus 22
Schwe@@ 22
Sciences 22
Temple 22
Vari@@ 22
Wein@@ 22
Wid@@ 22
Winter 22
Wur@@ 22
amt 22
asing 22
bass@@ 22
been 22
bol 22
card 22
champ@@ 22
chart 22
cip@@ 22
cover 22
cut@@ 22
dete 22
egel 22
electr@@ 22
elin 22
eş@@ 22
fore 22
gos 22
gres@@ 22
irat@@ 22
ird 22
kim 22
list 22
lı 22
mos 22
night 22
obr@@ 22
oci@@ 22
olar@@ 22
onal 22
onio 22
onym@@ 22
oras 22
pit@@ 22
post 22
pou@@ 22
rim 22
sell 22
site 22
state 22
stor@@ 22
tered 22
they 22
thin 22
title 22
vak@@ 22
witz 22
yar 22
zem@@ 22
zin 22
Áng@@ 22
Ø@@ 22
éré@@ 22
ün 22
üş@@ 22
ɑ@@ 22
κα@@ 22
ο@@ 22
τ@@ 22
к 22
ская 22
յ@@ 22
اء 22
一 22
189@@ 21
1st 21
Aster@@ 21
Code 21
Colomb@@ 21
Film@@ 21
Fort@@ 21
Italian 21
Lincol@@ 21
NAS@@ 21
Ninh 21
October 21
Proj@@ 21
Sainte 21
Secre@@ 21
Sist@@ 21
Sonn@@ 21
Sph@@ 21
Thanh 21
aller@@ 21
asons 21
atory 21
ausen 21
bourne 21
bul 21
cav@@ 21
cipe 21
classi@@ 21
debe 21
emann 21
enso 21
erer 21
erine 21
etes 21
free 21
game 21
hausen 21
icio 21
idar@@ 21
ieve 21
initi@@ 21
international 21
istem@@ 21
iterran@@ 21
km@@ 21
lé@@ 21
mans 21
ois@@ 21
oking 21
onds 21
onic 21
order 21
oss 21
ously 21
patr@@ 21
phot@@ 21
press@@ 21
rol 21
sau@@ 21
seau 21
soci@@ 21
spe@@ 21
television 21
thus 21
tif 21
yeni 21
µ@@ 21
½ 21
æ 21
ι 21
τος 21
χ@@ 21
ω@@ 21
ւ@@ 21
ג@@ 21
إ@@ 21
الن@@ 21
ذ@@ 21
عبد 21
و 21
→ 21
井 21
口 21
村 21
松@@ 21
Another 20
Bir 20
Bình 20
Canadian 20
Chor@@ 20
Constitu@@ 20
Contin@@ 20
Cuando 20
Deutsch@@ 20
Dru@@ 20
Eis@@ 20
Flu@@ 20
Fot@@ 20
HD 20
Inf@@ 20
July 20
June 20
Lew@@ 20
Must@@ 20
Neur@@ 20
Nguyễn 20
Nueva 20
Ort@@ 20
Plaza 20
Pyr@@ 20
Quang 20
Se 20
Su 20
These 20
Tiy@@ 20
Vak@@ 20
Wien 20
Yes@@ 20
\ 20
abb@@ 20
acid 20
anese 20
award 20
ayak@@ 20
berger 20
box@@ 20
cab@@ 20
cant@@ 20
cep@@ 20
cer 20
coron@@ 20
dicho 20
dif@@ 20
disco 20
ead 20
edral 20
elos 20
ense@@ 20
enth@@ 20
ership 20
esch@@ 20
football 20
fro@@ 20
fru@@ 20
ible 20
icht 20
idental 20
igne 20
ince 20
ition 20
iyi 20
last 20
liga 20
lines 20
mani@@ 20
met 20
mua 20
muz@@ 20
namo 20
ners 20
ogen 20
page 20
pec@@ 20
phe 20
phi@@ 20
plo@@ 20
produc@@ 20
rab@@ 20
refu@@ 20
rique 20
roc@@ 20
sey@@ 20
spap@@ 20
stars 20
sters 20
stock 20
sul 20
table 20
taine 20
tat@@ 20
them 20
tly 20
ues 20
using 20
utt@@ 20
vek@@ 20
vel 20
vor@@ 20
women 20
wr@@ 20
ónom@@ 20
Ž@@ 20
ʉ@@ 20
ί@@ 20
Ա@@ 20
տ@@ 20
اد 20
ار@@ 20
الج@@ 20
Ἰ@@ 20
三 20
小@@ 20
雄 20
9. 19
Asp@@ 19
Assemb@@ 19
Ban 19
Benjam@@ 19
Bundes@@ 19
Chrys@@ 19
Depor@@ 19
Des 19
February 19
Giang 19
Greek 19
Italy 19
Kapit@@ 19
Library 19
Lü@@ 19
Marine 19
Milit@@ 19
Nintendo 19
Parti@@ 19
Philos@@ 19
Pérez 19
Soh@@ 19
Un 19
abei 19
about 19
abra 19
academ@@ 19
aking 19
alc@@ 19
allen 19
anian 19
ators 19
ayed 19
azz 19
bed@@ 19
cen@@ 19
chia 19
class@@ 19
club 19
cola 19
dance 19
ders@@ 19
divis@@ 19
dès 19
eci 19
education 19
egen 19
elling 19
enty 19
etz 19
ext@@ 19
eñ@@ 19
fang@@ 19
fera 19
fle@@ 19
flor@@ 19
gro@@ 19
haus@@ 19
hé@@ 19
iles 19
ilk 19
irk 19
ismo 19
iste 19
köy 19
lie@@ 19
lieu 19
ligence 19
lot 19
lower 19
main@@ 19
manus@@ 19
mey@@ 19
mt 19
new@@ 19
nig 19
nucle@@ 19
olar 19
oration 19
parti@@ 19
pay@@ 19
ped@@ 19
perior 19
person 19
phys@@ 19
pios 19
ply 19
prol@@ 19
rug@@ 19
rés 19
sous 19
sts 19
taş 19
techn@@ 19
tem 19
titu@@ 19
ulan 19
ump 19
uses 19
vania 19
ww@@ 19
yal 19
years 19
yet 19
yla 19
ysis 19
Öz@@ 19
équ@@ 19
õ@@ 19
Đồng 19
ė 19
ğr@@ 19
ż@@ 19
ɨ@@ 19
φ@@ 19
р 19
ז@@ 19
ס@@ 19
ب 19
رَ@@ 19
غ@@ 19
ق 19
يد 19
አ@@ 19
ọ 19
ῆ@@ 19
三@@ 19
原 19
和@@ 19
福@@ 19
21@@ 18
7. 18
Akadem@@ 18
Arsen@@ 18
Basket@@ 18
Bezir@@ 18
Canton 18
Der 18
Fest@@ 18
Films 18
Fé@@ 18
Galax@@ 18
González 18
Ha 18
Hous@@ 18
Irish 18
Jug@@ 18
Lt@@ 18
Notre 18
Nür@@ 18
Regional 18
Rep@@ 18
Sociedad 18
Spi@@ 18
Spor@@ 18
Tech@@ 18
Theater 18
Their 18
Theo 18
acht 18
acio 18
aday 18
aill@@ 18
alli 18
amber 18
ampli@@ 18
ativa 18
aub@@ 18
ave@@ 18
aving 18
ağ@@ 18
ble@@ 18
c. 18
capit@@ 18
deu@@ 18
dies 18
dil 18
dot@@ 18
drome 18
eco 18
egio 18
eiro 18
enas 18
enz 18
epis@@ 18
erra 18
estro 18
fire 18
gian 18
gut 18
ief 18
inin 18
ios 18
isco 18
ished 18
itze 18
jour@@ 18
k. 18
langu@@ 18
later 18
latter 18
lek@@ 18
line@@ 18
mai 18
may 18
mee 18
meni 18
mé@@ 18
neum@@ 18
noch 18
novi@@ 18
onale 18
operation 18
others 18
pain@@ 18
pot 18
prov@@ 18
public 18
que@@ 18
rate 18
rog@@ 18
rom 18
sional 18
siti@@ 18
tam 18
teen 18
teh@@ 18
termin@@ 18
territ@@ 18
tet 18
tique 18
tir 18
uch 18
urs@@ 18
utz 18
white 18
zey 18
â 18
çon 18
íncipe 18
ης 18
в 18
الم@@ 18
عَ@@ 18
مَ@@ 18
ية 18
ܪ@@ 18
中@@ 18
佐@@ 18
岡@@ 18
正@@ 18
長@@ 18
6. 17
Autom@@ 17
Bach 17
Berg 17
Bret@@ 17
Böl@@ 17
Chu 17
Direc@@ 17
División 17
Dresden 17
Ehr@@ 17
España 17
Gesellschaft 17
Gle@@ 17
Gün@@ 17
HC 17
His 17
Hist@@ 17
Itali@@ 17
January 17
Milli@@ 17
Nha 17
Nouvelle 17
Princip@@ 17
Rac@@ 17
René 17
Restaur@@ 17
Sign@@ 17
Soviet 17
Tax@@ 17
Tierra 17
Vladi@@ 17
Yap@@ 17
alar 17
aller 17
ampi@@ 17
arri@@ 17
athol@@ 17
atur 17
cara 17
comm@@ 17
cord 17
cross 17
dav@@ 17
district 17
endro@@ 17
erst@@ 17
essen 17
estig@@ 17
estre 17
ever@@ 17
fic 17
formed 17
française 17
fres@@ 17
ged@@ 17
late 17
ledge 17
list@@ 17
lose 17
mec@@ 17
med 17
mek 17
mula 17
nez 17
orig@@ 17
polit@@ 17
publi@@ 17
round 17
rum@@ 17
said 17
software 17
such@@ 17
tig 17
unit 17
uss 17
ution@@ 17
vez 17
virus 17
with@@ 17
ä 17
èle 17
éra 17
ì 17
ío 17
ück 17
ɐ@@ 17
ʃ@@ 17
λογία 17
της 17
ω 17
в@@ 17
евич 17
ла@@ 17
ский 17
ш@@ 17
і@@ 17
կ@@ 17
أَ@@ 17
الك@@ 17
ط@@ 17
ܕ@@ 17
ἰ@@ 17
安@@ 17
川@@ 17
187@@ 16
4. 16
AV@@ 16
Ab 16
Arth@@ 16
Bibli@@ 16
Dollar 16
Early 16
Fall@@ 16
Guillaume 16
Gü@@ 16
Inh@@ 16
Janu@@ 16
Kauf@@ 16
Ley 16
Mal 16
Panz@@ 16
Pays 16
Person@@ 16
Phone 16
Police 16
Sachsen 16
Soc@@ 16
Software 16
Spiel@@ 16
Sur 16
Tenn@@ 16
Test@@ 16
USD 16
Université 16
Version 16
aband@@ 16
acer@@ 16
algo 16
ark 16
arte 16
bec@@ 16
big 16
brig@@ 16
comun@@ 16
cont@@ 16
cula 16
dır 16
eger 16
elten 16
endra 16
ered 16
evento 16
fs 16
gence 16
ging 16
head@@ 16
heb@@ 16
ibar 16
inet 16
internet 16
ises 16
itar 16
ival@@ 16
ive 16
kent 16
lec@@ 16
ligh@@ 16
liter@@ 16
local 16
national 16
nec@@ 16
nek@@ 16
network 16
ologie 16
onc@@ 16
pero 16
plic@@ 16
ppi 16
proc@@ 16
program@@ 16
pru@@ 16
rich@@ 16
rou@@ 16
sever@@ 16
sign@@ 16
singles 16
some 16
station 16
tag 16
tema 16
utz@@ 16
val 16
value 16
versit@@ 16
week 16
woman 16
xima 16
­ 16
ät@@ 16
éal 16
érieure 16
éro@@ 16
ê 16
ös@@ 16
ł 16
Ō@@ 16
Α@@ 16
Μ@@ 16
вич 16
н 16
ь 16
ն@@ 16
الس@@ 16
الش@@ 16
بِ@@ 16
ت 16
نا 16
ܬ@@ 16
185@@ 15
186@@ 15
192@@ 15
Académie 15
Bask@@ 15
Battle 15
Beş@@ 15
Campeonato 15
Ent@@ 15
Feb@@ 15
Final 15
Ital@@ 15
Japanese 15
Kateg@@ 15
Mark@@ 15
Mec@@ 15
Moder@@ 15
Nieder@@ 15
Philippines 15
Renn@@ 15
Rural 15
Sez@@ 15
Spanish 15
Stat@@ 15
They 15
USS 15
Universität 15
Wilhel@@ 15
aces 15
aching 15
aint 15
alli@@ 15
amen 15
amount 15
andes 15
anni 15
argent 15
arias 15
artist 15
atik 15
atives 15
añ@@ 15
cars 15
cerc@@ 15
chn@@ 15
ected 15
edition 15
embran@@ 15
emer@@ 15
enen 15
esen 15
family 15
fantas@@ 15
fie 15
fin 15
ihe 15
inco 15
ivo 15
key@@ 15
khi@@ 15
mark@@ 15
mechan@@ 15
metro 15
nic@@ 15
nie 15
omel@@ 15
only 15
open 15
orer 15
original 15
orium 15
oğlu 15
play@@ 15
polog@@ 15
porting 15
process@@ 15
qué 15
rd 15
road 15
science 15
short 15
sol 15
sten@@ 15
stri@@ 15
studi@@ 15
tent@@ 15
through 15
tom 15
too 15
trad@@ 15
transl@@ 15
type 15
ules 15
unter@@ 15
upon 15
vas 15
vet 15
vida 15
ç 15
çal@@ 15
ét@@ 15
íos 15
ð 15
ù 15
ý 15
ım 15
ım@@ 15
ń 15
Τ@@ 15
ξ@@ 15
στ@@ 15
το@@ 15
ль@@ 15
н@@ 15
на 15
ի 15
צ@@ 15
ا@@ 15
دي 15
دی 15
ر 15
مل@@ 15
من 15
ون 15
ስ 15
ὁ 15
⁄ 15
↑ 15
也 15
司 15
島 15
森@@ 15
樹 15
治 15
直@@ 15
ﬁ@@ 15
188@@ 14
20th 14
8. 14
@ 14
Akad@@ 14
Assembly 14
Atl@@ 14
But 14
Casa 14
Emper@@ 14
Eurovision 14
Galatasaray 14
Hay 14
Ide@@ 14
Kinder 14
Martín 14
Motor 14
Muhar@@ 14
Norman@@ 14
Ord@@ 14
Popular 14
Population 14
Portugal 14
Quảng 14
Roll@@ 14
Roman@@ 14
Société 14
Spain 14
Tam 14
Tradi@@ 14
Wahl 14
Wahl@@ 14
after 14
alled 14
andan 14
andere 14
aí@@ 14
baseball 14
bem@@ 14
bles 14
cent 14
cole 14
contr@@ 14
cum@@ 14
cut 14
division 14
down@@ 14
echa 14
efe 14
eil@@ 14
eing 14
elas 14
eling 14
ements 14
enek@@ 14
ersch@@ 14
esses 14
essor 14
estos 14
evol@@ 14
eyi 14
furt 14
gas 14
gener@@ 14
giy@@ 14
guer@@ 14
gü@@ 14
history 14
hyp@@ 14
iker 14
inden 14
intern@@ 14
inti@@ 14
ions 14
isons 14
ized 14
kâ@@ 14
label 14
lí@@ 14
many 14
maya 14
mission 14
muz 14
ned 14
ograp@@ 14
oles 14
omer@@ 14
opsis 14
orph@@ 14
paral@@ 14
rem 14
room 14
roy@@ 14
seu@@ 14
sevi@@ 14
singer 14
six 14
siz@@ 14
suit 14
syst@@ 14
tas 14
tav@@ 14
tax@@ 14
team 14
their 14
theory 14
tik 14
tur 14
tz@@ 14
ulizo 14
used 14
usion 14
ved 14
vent 14
wart 14
when 14
where 14
who 14
ác@@ 14
ém 14
érie 14
öy 14
ù@@ 14
ún 14
ül@@ 14
ă 14
ıl@@ 14
ő@@ 14
Ś@@ 14
δ@@ 14
ει@@ 14
λ@@ 14
τι@@ 14
ων 14
О@@ 14
С@@ 14
а@@ 14
ј@@ 14
أ@@ 14
الب@@ 14
الع@@ 14
الق@@ 14
الل@@ 14
بع@@ 14
بَ@@ 14
خ@@ 14
م 14
ܡ@@ 14
ṯ@@ 14
ἐ@@ 14
Ἐ@@ 14
一@@ 14
中 14
人 14
林 14
男 14
道 14
Alter@@ 13
Anc@@ 13
Braun@@ 13
Cao 13
Dies@@ 13
Distribu@@ 13
Dutch 13
Ferdin@@ 13
Fig@@ 13
Guin@@ 13
Hockey 13
Hoh@@ 13
Ins@@ 13
Irel@@ 13
López 13
Mez@@ 13
Montr@@ 13
Monum@@ 13
NS 13
Operation 13
Para 13
Phys@@ 13
Premio 13
Primera 13
Québec 13
Reich 13
Speci@@ 13
Valle 13
Yug@@ 13
ability 13
achen 13
against 13
aged 13
ahn@@ 13
ails 13
appe@@ 13
aque 13
atos 13
aum 13
auth@@ 13
best@@ 13
bic@@ 13
blan@@ 13
books 13
bran@@ 13
cartes 13
cath@@ 13
cent@@ 13
chant 13
cina 13
coll@@ 13
crit@@ 13
critique 13
dek 13
dial 13
diam@@ 13
dice 13
dimen@@ 13
document@@ 13
dru@@ 13
echo 13
eden@@ 13
endi@@ 13
enos 13
ential 13
eurs 13
fait 13
fest 13
film@@ 13
flora 13
gal 13
hem 13
home 13
itter 13
iç@@ 13
laya 13
leben 13
led@@ 13
metal 13
mic@@ 13
mile 13
mill@@ 13
mittee 13
named 13
native 13
nda 13
odes 13
ombi@@ 13
once 13
organ@@ 13
party 13
porte 13
ports 13
pose 13
positive 13
post@@ 13
run 13
rég@@ 13
sali@@ 13
sanc@@ 13
sequ@@ 13
sine 13
stein@@ 13
tei 13
texte 13
tiers 13
tiva 13
tiy@@ 13
traduc@@ 13
uer 13
ulation 13
urban 13
usse 13
uzak@@ 13
vide@@ 13
vision 13
writer 13
zed 13
± 13
Öster@@ 13
ày 13
édition 13
ý@@ 13
İn@@ 13
ţ@@ 13
Δ@@ 13
π 13
ρ 13
ών 13
У@@ 13
и 13
ма@@ 13
ро@@ 13
Մ@@ 13
ս@@ 13
ּ 13
ث@@ 13
ج 13
را@@ 13
ل 13
لا@@ 13
محافظة 13
مو@@ 13
مي@@ 13
া@@ 13
ር@@ 13
ụ@@ 13
ῦ 13
ῶ@@ 13
宮@@ 13
島@@ 13
西 13
西@@ 13
谷 13
1980s 12
Afgh@@ 12
Amerik@@ 12
Ayr@@ 12
Bey 12
Castilla 12
Cem@@ 12
Dist@@ 12
Europ@@ 12
Exper@@ 12
Fenerbahçe 12
Geh@@ 12
Grou@@ 12
Gymnasium 12
Haupt@@ 12
Hyp@@ 12
Im 12
Instituto 12
Jewish 12
Kaiser 12
Minn@@ 12
Musik@@ 12
Part@@ 12
Segunda 12
Sich@@ 12
Stadi@@ 12
Tag 12
Tier@@ 12
Wald@@ 12
ably 12
aches 12
achsen 12
achus@@ 12
acu@@ 12
adal@@ 12
alen 12
alista 12
alogue 12
anthus 12
aring 12
arla 12
atta@@ 12
auf 12
based 12
baz@@ 12
being 12
brit@@ 12
buch 12
canal 12
cla@@ 12
class 12
common 12
control 12
corpor@@ 12
culture 12
development 12
dial@@ 12
dist@@ 12
docum@@ 12
dyn@@ 12
ecia 12
econom@@ 12
edit@@ 12
egu@@ 12
eil 12
eler@@ 12
emiti@@ 12
endem@@ 12
erh@@ 12
essed 12
europ@@ 12
eval 12
ference 12
fier 12
hasta 12
hof 12
iben 12
idential 12
igher 12
imal 12
imz@@ 12
include 12
iques 12
isation 12
isse 12
itation 12
jos 12
lande 12
lead@@ 12
libr@@ 12
logo 12
minor 12
most 12
mundo 12
neu 12
oft 12
olay@@ 12
onie 12
onnen 12
partement 12
perten@@ 12
phố 12
porter 12
pression 12
prises 12
production 12
raz@@ 12
region 12
related 12
released 12
reste 12
rive 12
scher 12
segu@@ 12
sil 12
siy@@ 12
small 12
source 12
stell@@ 12
strat@@ 12
tard 12
tex@@ 12
tigen 12
timi 12
two 12
volume 12
while 12
yard 12
yum 12
zone 12
´ 12
Â@@ 12
ß 12
ève 12
ías 12
ónica 12
ôn 12
öh@@ 12
öz@@ 12
ücken 12
ě@@ 12
ınar 12
ış@@ 12
ŋ@@ 12
ũ 12
ʊ@@ 12
ʒ@@ 12
Ε@@ 12
ά@@ 12
ή 12
ε 12
εια 12
εύ@@ 12
ζ 12
να@@ 12
ρι@@ 12
σι@@ 12
υ@@ 12
Б@@ 12
Рес@@ 12
а 12
ка 12
л@@ 12
т 12
ы@@ 12
Հ@@ 12
الف@@ 12
ح 12
رة 12
سع@@ 12
عب 12
علي 12
ك 12
لَ@@ 12
ون@@ 12
يل 12
ين 12
ّ 12
ა@@ 12
ም 12
ን@@ 12
ḇ@@ 12
ὶ 12
ー 12
二 12
太 12
本@@ 12
清@@ 12
良@@ 12
野@@ 12
1,2 11
Americ@@ 11
Asian 11
Ave@@ 11
CEO 11
Coupe 11
Deutschland 11
Felipe 11
GB 11
Geg@@ 11
Graf@@ 11
Göl@@ 11
Hà 11
Institu@@ 11
Instrum@@ 11
Libr@@ 11
Malay@@ 11
Mün@@ 11
NCA@@ 11
November 11
Olympics 11
Provin@@ 11
Rhein@@ 11
Russian 11
Stad@@ 11
Universidad 11
Vier@@ 11
Wür@@ 11
aborat@@ 11
abras 11
ación 11
acre 11
active 11
adas 11
afé 11
alian 11
ambre 11
americana 11
arn 11
around 11
arp@@ 11
arten 11
arı 11
assen 11
atre 11
aux@@ 11
ağı 11
aşa 11
bloc@@ 11
bre 11
canc@@ 11
care 11
case 11
categ@@ 11
championship 11
chief 11
child 11
chr@@ 11
ción 11
clar@@ 11
condi@@ 11
contempor@@ 11
countries 11
cá@@ 11
date 11
dej@@ 11
det 11
dido 11
double 11
ectiv@@ 11
elt@@ 11
ended 11
erei 11
fall 11
featured 11
full 11
function 11
g. 11
gang 11
gau@@ 11
good 11
grou@@ 11
hin 11
hydr@@ 11
ific@@ 11
illed 11
iness 11
istin 11
ived 11
jet@@ 11
journ@@ 11
kiye 11
kleri 11
koy@@ 11
langen 11
ld 11
league 11
loss@@ 11
mak 11
management 11
mann@@ 11
mid 11
movement 11
nomin@@ 11
nou@@ 11
oil 11
opter@@ 11
osas 11
outre 11
person@@ 11
pf@@ 11
power@@ 11
province 11
public@@ 11
rang@@ 11
rant 11
ray@@ 11
recht 11
refer@@ 11
resp@@ 11
rest 11
rir 11
role 11
schen@@ 11
schwe@@ 11
sed 11
semb@@ 11
semble 11
sn@@ 11
social 11
sof@@ 11
sports 11
syl@@ 11
sym@@ 11
systems 11
tary 11
thành 11
tillo 11
tribut@@ 11
trou@@ 11
tés 11
unci@@ 11
uten 11
vert 11
wth 11
xo@@ 11
yeri 11
young 11
zel@@ 11
Æ@@ 11
Ú@@ 11
ím@@ 11
ön 11
ź 11
ž 11
ɛ 11
ʾ 11
Χ@@ 11
ας 11
ι@@ 11
μ 11
τη@@ 11
χ 11
όν@@ 11
ва 11
й 11
м@@ 11
мо@@ 11
с@@ 11
т@@ 11
ד 11
الأ@@ 11
الر@@ 11
اَ@@ 11
ة@@ 11
ت@@ 11
ري@@ 11
فة 11
من@@ 11
ن 11
وم 11
ير 11
ی@@ 11
ܩ@@ 11
ር 11
ới 11
Ἄ@@ 11
‌ 11
久@@ 11
州 11
幸 11
忠@@ 11
藤@@ 11
金@@ 11
1.000 10
184@@ 10
2,5 10
2nd 10
5.000 10
Adem@@ 10
Argent@@ 10
Ark@@ 10
Bau 10
Centro 10
Cá@@ 10
Desp@@ 10
Distr@@ 10
Grün@@ 10
Hoa 10
Hòa 10
Infan@@ 10
Plan 10
Racing 10
Regi@@ 10
Schul@@ 10
Some 10
Stoc@@ 10
Süd@@ 10
Thé@@ 10
Welt 10
Yay@@ 10
adora 10
adul@@ 10
aging 10
ained 10
angeb@@ 10
angeg@@ 10
aning 10
aper@@ 10
apon 10
appeared 10
ases 10
ataifa 10
aught 10
azine 10
aç 10
aña 10
bajo 10
başı 10
best 10
bew@@ 10
bier@@ 10
bres 10
bt 10
chs 10
cian 10
clim@@ 10
clo@@ 10
commerce 10
compl@@ 10
culp@@ 10
degree 10
deki 10
dicha 10
dire 10
dır@@ 10
eces 10
empl@@ 10
enca 10
erin 10
eten 10
etos 10
exp@@ 10
famili@@ 10
food 10
former 10
för@@ 10
gest@@ 10
govern@@ 10
graphi@@ 10
gues 10
ically 10
icos 10
identi@@ 10
ilien 10
information 10
ingen@@ 10
inning 10
institu@@ 10
iser 10
issen 10
iten 10
itung 10
juni@@ 10
known 10
lak 10
legi@@ 10
lied 10
limited 10
mayo 10
nation 10
né 10
ober@@ 10
ools 10
ople 10
orf 10
osen 10
oslav@@ 10
ought 10
où 10
pendiente 10
phi 10
plant@@ 10
pre 10
pris@@ 10
pron@@ 10
published 10
reas 10
resist@@ 10
sci@@ 10
service 10
shot 10
signed 10
sino 10
sources 10
square 10
suff@@ 10
sé@@ 10
terres 10
then 10
thre@@ 10
tier@@ 10
toire 10
tour@@ 10
urb@@ 10
veren 10
views 10
wig 10
yol 10
ysi@@ 10
zog 10
º 10
Ó@@ 10
âteau 10
äs@@ 10
éo 10
été 10
ø 10
û@@ 10
ć@@ 10
İl@@ 10
ız 10
ǎ@@ 10
ɪ 10
ʿ 10
Ζ@@ 10
εία 10
θ 10
ια 10
λόγ@@ 10
μα@@ 10
ξ 10
ύ@@ 10
ώ@@ 10
Ро@@ 10
Са@@ 10
о 10
լ@@ 10
վ@@ 10
ב 10
ח 10
آ@@ 10
اب@@ 10
الد@@ 10
الدين 10
بر@@ 10
فر@@ 10
مان 10
مة 10
ند@@ 10
وا@@ 10
ور@@ 10
وس@@ 10
ܣ@@ 10
ስ@@ 10
ብ@@ 10
Ọ@@ 10
℟ 10
ー@@ 10
井@@ 10
介 10
健@@ 10
加@@ 10
原@@ 10
吉@@ 10
武@@ 10
永@@ 10
鈴@@ 10
20. 9
Anadolu 9
Assist@@ 9
Bắc 9
Castil@@ 9
Concep@@ 9
Er 9
Erd@@ 9
Estado 9
Grab@@ 9
Gür@@ 9
Highway 9
Ingen@@ 9
Jew@@ 9
Kü@@ 9
Many 9
Mehmet 9
Minister 9
México 9
Phúc 9
President 9
Rus 9
Señ@@ 9
Sü@@ 9
Town@@ 9
UTC 9
Yên 9
aben 9
acias 9
aile 9
aires 9
alle@@ 9
along 9
alte 9
ances 9
anistan 9
annel 9
argent@@ 9
article 9
aters 9
atif 9
atura 9
atures 9
atz@@ 9
available 9
because 9
bed 9
before 9
bile 9
both 9
bour@@ 9
brun@@ 9
burger 9
canti@@ 9
century 9
chos 9
cias 9
conqu@@ 9
costa 9
cover@@ 9
cu 9
cular 9
done 9
doğan 9
eball 9
ecti@@ 9
eget@@ 9
elen@@ 9
enario 9
ently 9
eras 9
eres 9
esini 9
ests 9
etapa 9
etts 9
flan@@ 9
flav@@ 9
front 9
government 9
grand 9
grá@@ 9
gö@@ 9
hac@@ 9
held 9
integ@@ 9
intel@@ 9
itable 9
itos 9
itr@@ 9
klin 9
landa 9
leur 9
lez 9
lieb 9
links 9
lor 9
lung 9
mass@@ 9
match 9
metr@@ 9
motor 9
multi@@ 9
nac@@ 9
neu@@ 9
ney@@ 9
onné 9
ordin@@ 9
orient@@ 9
otes 9
oyn@@ 9
pant@@ 9
propi@@ 9
pré@@ 9
psych@@ 9
qu 9
reo 9
required 9
revol@@ 9
rim@@ 9
ring 9
rur@@ 9
sac@@ 9
second 9
songs 9
speed 9
sto@@ 9
such 9
taire 9
theast 9
times 9
trong 9
tung 9
typ@@ 9
ungs@@ 9
vec@@ 9
venti@@ 9
vot@@ 9
whe@@ 9
yok 9
ández 9
ã@@ 9
èse 9
ét 9
ünde 9
Ā@@ 9
İz@@ 9
ıl 9
ŏ@@ 9
œ@@ 9
ʲ@@ 9
Θε@@ 9
Λ@@ 9
δ 9
η@@ 9
ικ@@ 9
λα@@ 9
λι@@ 9
λλ@@ 9
μα 9
ο 9
ου@@ 9
ού@@ 9
πος 9
Влади@@ 9
Ка@@ 9
На@@ 9
Совет@@ 9
ба@@ 9
з@@ 9
ный 9
о@@ 9
публика 9
թ@@ 9
մ@@ 9
آل 9
ئ@@ 9
الص@@ 9
حي@@ 9
ست@@ 9
ع 9
قي@@ 9
كُ@@ 9
لِ@@ 9
مي 9
مُ@@ 9
وا 9
ين@@ 9
يَ@@ 9
ܐ@@ 9
์ 9
ክ@@ 9
የ@@ 9
ድ@@ 9
ḥ 9
ọ@@ 9
ἱ@@ 9
ὐ@@ 9
ᾶ@@ 9
二@@ 9
俊@@ 9
前@@ 9
北@@ 9
南@@ 9
史 9
太@@ 9
宏 9
崎 9
平 9
幸@@ 9
彦 9
昌@@ 9
李@@ 9
橋 9
水@@ 9
江@@ 9
津@@ 9
輝 9
部 9
隆@@ 9
도 9
시 9
180@@ 8
According 8
Ahmet 8
Alem@@ 8
Alter 8
Bev@@ 8
Con 8
Doğ@@ 8
Form 8
Found@@ 8
Fren@@ 8
Gest@@ 8
Govern@@ 8
Hoch@@ 8
Häl@@ 8
Hö@@ 8
Hü@@ 8
Isra@@ 8
Krieg@@ 8
Lö@@ 8
Mundial 8
Musik 8
Ngh@@ 8
Ouest 8
Phú 8
Portu@@ 8
République 8
Schwer@@ 8
Sov@@ 8
Sơn 8
Utur@@ 8
Vĩnh 8
Wiener 8
actor 8
administration 8
afin 8
ainer 8
aler 8
alier 8
amac@@ 8
ament 8
angen 8
anni@@ 8
anten 8
arios 8
arka 8
articles 8
aître 8
ağ 8
became 8
bilin@@ 8
bind@@ 8
bra@@ 8
brach@@ 8
break 8
cali@@ 8
celles 8
chaîne 8
chemin 8
cht@@ 8
cid@@ 8
circu@@ 8
conf@@ 8
conserv@@ 8
county 8
cristi@@ 8
cru@@ 8
current 8
ded 8
design 8
directed 8
doch 8
déf@@ 8
dér@@ 8
each 8
eas 8
economic 8
eding 8
educ@@ 8
elde 8
emble 8
ending 8
energy 8
ested 8
etas 8
ffen 8
fonso 8
found 8
gare 8
gaz 8
gend 8
genes 8
genus 8
geri 8
global 8
gold 8
guit@@ 8
hak 8
hale 8
half 8
haut 8
health 8
hier@@ 8
histori@@ 8
hold 8
hr 8
human 8
idence 8
ieh@@ 8
ilan 8
jas 8
justice 8
khu@@ 8
kitap@@ 8
lac 8
ledi 8
leist@@ 8
luy@@ 8
make 8
manif@@ 8
market 8
mern 8
monde 8
mot 8
mpi@@ 8
multiple 8
musici@@ 8
naci@@ 8
narr@@ 8
natural 8
need 8
nek 8
nership 8
observ@@ 8
offici@@ 8
ographie 8
olf 8
oloji 8
oral 8
orb@@ 8
orden 8
ored 8
organization 8
ours 8
ouvre 8
pal 8
partem@@ 8
pek 8
perf@@ 8
plac@@ 8
played 8
portun@@ 8
prec@@ 8
quot@@ 8
race 8
religi@@ 8
requi@@ 8
rest@@ 8
riv@@ 8
rul@@ 8
score 8
sdorf 8
section 8
septi@@ 8
serve 8
sible 8
sif 8
slo@@ 8
soit 8
south 8
sport 8
standard 8
take 8
tech@@ 8
templ@@ 8
tent 8
terre 8
theater 8
theor@@ 8
tice 8
tiles 8
tionn@@ 8
tip 8
trade 8
trag@@ 8
trich@@ 8
té@@ 8
ufac@@ 8
ulus@@ 8
ungen 8
utenant 8
utive 8
villa 8
visible 8
wie 8
xim@@ 8
yor 8
zug@@ 8
º@@ 8
ß@@ 8
ßen 8
èg@@ 8
ération 8
î 8
ą@@ 8
ĩ 8
İstanbul 8
ız@@ 8
ǁ@@ 8
ɐ 8
ɑ 8
ɣ@@ 8
ɲ@@ 8
ʎ@@ 8
ˌ@@ 8
͡ 8
άν@@ 8
άρ@@ 8
ή@@ 8
αγ@@ 8
αι@@ 8
ερ@@ 8
ζ@@ 8
θος 8
ιος 8
ισ@@ 8
πι@@ 8
σ 8
ό@@ 8
А@@ 8
Со@@ 8
Соци@@ 8
д@@ 8
до@@ 8
е 8
ко 8
л 8
ная 8
нович 8
ха@@ 8
ц@@ 8
я 8
ћ 8
ղ@@ 8
ր 8
ו 8
ע 8
ף 8
أم@@ 8
ابن 8
ار 8
اس 8
اس@@ 8
الت@@ 8
الخ@@ 8
الْ@@ 8
ام 8
بي 8
بي@@ 8
سي 8
ش 8
عل@@ 8
عيد 8
لل@@ 8
مؤ@@ 8
مار@@ 8
مع@@ 8
مِ@@ 8
ني 8
وط@@ 8
يُ@@ 8
ک@@ 8
ܠ@@ 8
ܢ@@ 8
ተ@@ 8
ṇ@@ 8
Ṣ@@ 8
Ἁ@@ 8
℣ 8
≥ 8
ン@@ 8
之 8
保 8
古@@ 8
名@@ 8
子 8
孝@@ 8
平@@ 8
泰@@ 8
海@@ 8
渡@@ 8
澤 8
真@@ 8
輔 8
都@@ 8
青@@ 8
대@@ 8
1,5 7
2.000 7
Academia 7
Actu@@ 7
Ai 7
Arap@@ 7
Arbeit@@ 7
Aun@@ 7
Baş@@ 7
Bü@@ 7
Cathol@@ 7
Champi@@ 7
Develop@@ 7
Est 7
Gia 7
Gör@@ 7
Histoire 7
However 7
Hr@@ 7
Indon@@ 7
Infr@@ 7
Internacional 7
Klein@@ 7
Kran@@ 7
Materi@@ 7
Municipal@@ 7
National@@ 7
Personal 7
Phi 7
Psych@@ 7
Queens@@ 7
Represent@@ 7
Sie@@ 7
Stell@@ 7
Stif@@ 7
Teatro 7
Unter@@ 7
Verte@@ 7
Virgin@@ 7
Wrest@@ 7
Xu@@ 7
Yıl@@ 7
Zeit@@ 7
abeth 7
addition 7
agent 7
albums 7
alien 7
ambas 7
among 7
amos 7
appel 7
arding 7
asse@@ 7
atori@@ 7
attack 7
background 7
base 7
basketball 7
biy@@ 7
bringen 7
broad@@ 7
business 7
cao 7
caus@@ 7
cause 7
center 7
ched 7
children 7
ching 7
cide 7
cil 7
communes 7
compos@@ 7
conc@@ 7
concer@@ 7
covered 7
craft 7
death 7
debut 7
defin@@ 7
deo 7
differ@@ 7
direc@@ 7
drei 7
due 7
during 7
départem@@ 7
early 7
effect 7
ehr 7
entale 7
entation 7
erc@@ 7
erte 7
ería 7
eses 7
event@@ 7
extr@@ 7
faz@@ 7
featur@@ 7
fen 7
festival 7
films 7
following 7
foot@@ 7
fron@@ 7
future 7
given 7
gradu@@ 7
grap@@ 7
hous@@ 7
idari 7
idos 7
iev@@ 7
isinin 7
isol@@ 7
issi@@ 7
issu@@ 7
journal 7
just 7
lear@@ 7
liche 7
lig 7
lista 7
lub 7
lö@@ 7
mess@@ 7
mex@@ 7
modern 7
musical 7
natur@@ 7
newspap@@ 7
office 7
ortho@@ 7
pendi@@ 7
phyl@@ 7
plan 7
player 7
pler@@ 7
possible 7
ppe 7
prak@@ 7
private 7
ques@@ 7
reci@@ 7
recogni@@ 7
reich 7
reser@@ 7
resto 7
retr@@ 7
rév@@ 7
saire 7
scar 7
sche@@ 7
sciences 7
secre@@ 7
senior 7
sens 7
services 7
seud@@ 7
sex@@ 7
simul@@ 7
since 7
sport@@ 7
staff 7
start 7
status 7
stra@@ 7
straße 7
sub 7
suc@@ 7
tant 7
technique 7
tek 7
thé@@ 7
tipi 7
tour 7
turn@@ 7
udur 7
university 7
ural 7
vac@@ 7
veget@@ 7
ves@@ 7
web 7
week@@ 7
weil 7
west@@ 7
what 7
xin 7
yans@@ 7
zey@@ 7
ziy@@ 7
zona 7
Ä@@ 7
Ü@@ 7
áng 7
äng@@ 7
ên 7
ì@@ 7
òn 7
üs@@ 7
Ć@@ 7
ıt 7
ř@@ 7
ʉ 7
ʊ 7
Θ@@ 7
Ι@@ 7
Κύ@@ 7
Φ@@ 7
ά 7
άς 7
έλ@@ 7
δι@@ 7
λε@@ 7
ογ@@ 7
πλ@@ 7
πολι@@ 7
ρα@@ 7
ριος 7
ρο@@ 7
σιος 7
όκ@@ 7
όρ@@ 7
И@@ 7
К@@ 7
Ко@@ 7
Никола@@ 7
Та@@ 7
Я@@ 7
б@@ 7
г@@ 7
за@@ 7
и@@ 7
й@@ 7
к@@ 7
ли@@ 7
миро@@ 7
пе@@ 7
ру@@ 7
сь@@ 7
ї@@ 7
ә 7
ә@@ 7
Ե@@ 7
Ս@@ 7
ց@@ 7
ֲ@@ 7
أن@@ 7
ال 7
الإ@@ 7
الغ@@ 7
بة 7
بل@@ 7
تُ@@ 7
خلي@@ 7
دا@@ 7
در@@ 7
سى 7
ط 7
طر@@ 7
عة 7
علی 7
عي@@ 7
لي@@ 7
ما@@ 7
مد 7
مر 7
ور 7
ول 7
ولی 7
ويت 7
ٱ@@ 7
ܥ@@ 7
ი 7
ი@@ 7
ნ@@ 7
ት 7
ያ@@ 7
ደ@@ 7
ግ@@ 7
ḏ@@ 7
ṃ@@ 7
ẵ@@ 7
ῦ@@ 7
ク@@ 7
仁 7
光@@ 7
内 7
千@@ 7
博@@ 7
岡 7
崎@@ 7
弘 7
徳@@ 7
志 7
戸@@ 7
明 7
朗 7
朝 7
木@@ 7
江 7
石@@ 7
神@@ 7
茂@@ 7
行 7
谷@@ 7
近@@ 7
한@@ 7
𝄆 7
𝄇 7
.-@@ 6
Ağ@@ 6
Berliner 6
Brasil 6
Califor@@ 6
Chinese 6
Director 6
Estudi@@ 6
Febru@@ 6
Funk@@ 6
Für@@ 6
Geschichte 6
GmbH 6
Gord@@ 6
Graf 6
Groß@@ 6
Guerra 6
Harv@@ 6
Hymenoptera 6
Kinder@@ 6
Kirche 6
Kül@@ 6
Kızıl@@ 6
Lan 6
Landes 6
Later 6
Metal 6
Munici@@ 6
Museo 6
Nisan 6
Paci@@ 6
Parliament 6
Parti 6
Partido 6
Phong 6
Poc@@ 6
Première 6
Pub@@ 6
Rech@@ 6
Refer@@ 6
SG 6
Schn@@ 6
Sin 6
Sommer 6
Sus 6
Sân 6
Thái 6
Tuy 6
Türk 6
actions 6
adet 6
again 6
aily 6
alter@@ 6
alto 6
anot@@ 6
anst@@ 6
antik 6
appel@@ 6
arca 6
ations@@ 6
auc@@ 6
avec 6
batt@@ 6
beau@@ 6
bell 6
bere@@ 6
bern@@ 6
between 6
bitir@@ 6
bli@@ 6
cad@@ 6
cau@@ 6
central 6
chev@@ 6
ché 6
cim@@ 6
cities 6
cog@@ 6
college 6
commun@@ 6
community 6
concentr@@ 6
conduc@@ 6
constitu@@ 6
conten@@ 6
contribu@@ 6
conv@@ 6
conven@@ 6
cost@@ 6
coul@@ 6
crick@@ 6
cros@@ 6
cré@@ 6
cycl@@ 6
dau@@ 6
days 6
deal 6
dioc@@ 6
director 6
disput@@ 6
donde 6
east 6
eben@@ 6
ebook 6
eher 6
eln 6
enem@@ 6
enor@@ 6
entum 6
environ@@ 6
eption 6
erung 6
esqu@@ 6
esser 6
estar 6
ettes 6
feature 6
feh@@ 6
femmes 6
fiction 6
français 6
func@@ 6
games 6
gel 6
general 6
gira 6
help 6
hockey 6
homme 6
ichen 6
ided 6
ident@@ 6
igos 6
iled 6
iment 6
industry 6
inen 6
iner@@ 6
integr@@ 6
intr@@ 6
introduc@@ 6
isine 6
isión 6
isme 6
ispo 6
istes 6
istik 6
iş@@ 6
jour 6
khu 6
lead 6
lement 6
lemente 6
living 6
material 6
meas@@ 6
member 6
merc@@ 6
meter 6
miento 6
missions 6
modern@@ 6
money 6
moun@@ 6
must 6
nament 6
nant 6
numer@@ 6
obj@@ 6
ockey 6
offic@@ 6
official 6
ogle 6
okul@@ 6
omen 6
onen 6
onnat 6
otur@@ 6
parall@@ 6
past 6
period 6
pers@@ 6
pez 6
physi@@ 6
platz 6
playing 6
police 6
political 6
position 6
poss@@ 6
present 6
prob@@ 6
promot@@ 6
provid@@ 6
provided 6
puer@@ 6
quali@@ 6
quir@@ 6
rail 6
rain@@ 6
received 6
record 6
reli@@ 6
rent 6
reti@@ 6
rights 6
ré 6
sens@@ 6
served 6
sett@@ 6
should 6
simil@@ 6
size 6
sound 6
stage 6
stel@@ 6
stitu@@ 6
story 6
stream 6
study 6
subject 6
summer 6
tail 6
tane 6
teil 6
teilung 6
terror@@ 6
there 6
three 6
tien 6
tiques 6
tracks 6
tradi@@ 6
unun 6
verein 6
vill@@ 6
village 6
virtu@@ 6
vière 6
voir 6
volun@@ 6
wech@@ 6
wich@@ 6
woh@@ 6
writing 6
zh 6
¥ 6
ße 6
àn 6
àu 6
áo 6
är 6
éch@@ 6
éti@@ 6
ín@@ 6
óa 6
ól@@ 6
ón@@ 6
ông 6
õ 6
ört@@ 6
ús 6
û 6
über 6
üc@@ 6
üm 6
ıt@@ 6
ś 6
ǐ 6
ǒ@@ 6
ș@@ 6
ʁ 6
ʃ 6
ʋ@@ 6
ʌ@@ 6
ʔ@@ 6
̣ 6
͵ 6
άρι@@ 6
άσ@@ 6
έ@@ 6
ί 6
ίας 6
ακ@@ 6
αμ@@ 6
απ@@ 6
ις 6
κυ@@ 6
λ 6
με@@ 6
νη 6
οι 6
ομ@@ 6
τε@@ 6
υρ@@ 6
Ле@@ 6
Ма@@ 6
Ми@@ 6
Ра@@ 6
То@@ 6
ан@@ 6
де@@ 6
ла 6
м 6
не@@ 6
ни@@ 6
нов 6
си@@ 6
стро@@ 6
у@@ 6
э@@ 6
Қ@@ 6
қ@@ 6
բ@@ 6
գ@@ 6
կ 6
ս 6
ֱ@@ 6
ַ 6
ט@@ 6
ק 6
ש 6
، 6
أبو 6
إل@@ 6
اب 6
ات 6
ات@@ 6
اث@@ 6
الز@@ 6
الو@@ 6
با@@ 6
تَ@@ 6
خان 6
دو@@ 6
دي@@ 6
ري 6
شن@@ 6
ظ@@ 6
عر@@ 6
ف 6
فَ@@ 6
قَ@@ 6
لة 6
لية 6
هر 6
وادي 6
وب@@ 6
ول@@ 6
وي 6
يوم 6
کل 6
ക@@ 6
ል 6
ሕ@@ 6
መ@@ 6
ማ@@ 6
ም@@ 6
ራ 6
ት@@ 6
ኢ@@ 6
ይ@@ 6
ዮ@@ 6
ፍ@@ 6
ḗ@@ 6
ắ@@ 6
ế 6
Ἅ@@ 6
Ἡ@@ 6
い@@ 6
久 6
信@@ 6
剛 6
友@@ 6
周@@ 6
四@@ 6
富@@ 6
岩@@ 6
州市 6
康@@ 6
志@@ 6
敏@@ 6
橋@@ 6
永 6
河@@ 6
生 6
秀@@ 6
秋@@ 6
立@@ 6
美 6
蔵 6
裕@@ 6
貴@@ 6
賀@@ 6
輝@@ 6
那@@ 6
重@@ 6
隆 6
雅@@ 6
남@@ 6
안@@ 6
주@@ 6
 6
﻿ 6
10.000 5
19th 5
3,5 5
4,5 5
Belgique 5
Bien 5
Bà 5
Büyük@@ 5
Corpor@@ 5
December 5
Deniz 5
Deux 5
Dres@@ 5
Dương 5
Ein 5
Flug@@ 5
Frau@@ 5
Frei@@ 5
Gé@@ 5
Hochschule 5
Holz@@ 5
Höhe 5
Hải 5
Hồ 5
Inform@@ 5
Kunst@@ 5
Mart 5
Mü@@ 5
Müh@@ 5
Mül@@ 5
Olimpi@@ 5
República 5
Schl@@ 5
Sied@@ 5
Since 5
Sozial@@ 5
Stim@@ 5
Việt 5
While 5
Xuân 5
above 5
acab@@ 5
accoun@@ 5
activ@@ 5
adap@@ 5
adele 5
agnie 5
aled 5
alise 5
alternati@@ 5
alth 5
amento 5
ample 5
anded 5
anlar 5
anlı 5
archi@@ 5
architecture 5
arrive 5
aría 5
association 5
ası 5
atique 5
axe 5
ayd@@ 5
bang 5
bunal 5
called 5
camp 5
capac@@ 5
capital 5
cens@@ 5
centre 5
character 5
chas 5
chré@@ 5
closed 5
collaboration 5
coloni@@ 5
colum@@ 5
combin@@ 5
commerci@@ 5
communication 5
competition 5
concert 5
confl@@ 5
consid@@ 5
consol@@ 5
cred@@ 5
cultural 5
cup@@ 5
dans 5
defeated 5
design@@ 5
divid@@ 5
dix 5
doğ@@ 5
dung 5
dó@@ 5
eben 5
eded 5
eder 5
eines 5
election 5
enant 5
enses 5
enten 5
entos 5
eting 5
etk@@ 5
every 5
exemple 5
famil@@ 5
features 5
female 5
fest@@ 5
fico 5
fight 5
final 5
financial 5
follow@@ 5
footballer 5
founded 5
frag@@ 5
frequ@@ 5
fue 5
fır@@ 5
gabe 5
ganz@@ 5
gesellschaft 5
give 5
great 5
gyp@@ 5
hall@@ 5
hijo 5
histor@@ 5
honneur 5
hoy 5
human@@ 5
ied 5
iges 5
illet 5
inaug@@ 5
indir@@ 5
industri@@ 5
insel 5
internation@@ 5
interpre@@ 5
inté@@ 5
isions 5
island 5
istische 5
istère 5
itself 5
jud@@ 5
karar@@ 5
kathol@@ 5
kek 5
kent@@ 5
khi 5
klasse 5
kurum@@ 5
lange 5
legal 5
lege 5
lek 5
leti 5
lieg@@ 5
limit@@ 5
liner 5
lique 5
lisi 5
located 5
major 5
mant@@ 5
maxim@@ 5
metre 5
mission@@ 5
moved 5
much@@ 5
museum 5
nach 5
national@@ 5
nature 5
nete 5
neur 5
nhof 5
north 5
note 5
novela 5
nt 5
officer 5
oloj@@ 5
ophyl@@ 5
organiz@@ 5
oteca 5
parec@@ 5
paro@@ 5
parti 5
pays 5
persona 5
phase 5
philosoph@@ 5
pis@@ 5
plu@@ 5
polé@@ 5
popular 5
portu@@ 5
pped 5
primary 5
produced 5
project 5
propos@@ 5
propri@@ 5
publ@@ 5
queda 5
range 5
rar@@ 5
regi@@ 5
regul@@ 5
release 5
rence 5
requ@@ 5
rière 5
région 5
saint 5
schule 5
scienti@@ 5
scor@@ 5
sech@@ 5
shows 5
sigui@@ 5
sites 5
six@@ 5
sold 5
southern 5
special 5
species 5
spi@@ 5
started 5
stitut@@ 5
students 5
tay 5
tenant 5
tenu 5
terr@@ 5
ticia 5
tiem@@ 5
tiv 5
tivities 5
topl@@ 5
tours 5
tradition 5
train 5
tras 5
trat@@ 5
tronesia 5
trop 5
troph@@ 5
turn 5
ually 5
univers@@ 5
until 5
urt@@ 5
usunda 5
uzun@@ 5
uş@@ 5
versions 5
vice 5
voy@@ 5
wed 5
wehr 5
went 5
westen 5
zt 5
® 5
âm 5
óc 5
öne 5
úa 5
üh@@ 5
ür 5
þ@@ 5
Định 5
đ@@ 5
đa 5
Ē@@ 5
ĩa 5
İsk@@ 5
ılar 5
ŋ 5
ŕ@@ 5
ŭ 5
ź@@ 5
ǀ 5
ʒ 5
ʕ@@ 5
̄ 5
̯ 5
Α 5
Β@@ 5
Ν@@ 5
Ο@@ 5
Σ 5
Υ@@ 5
αν@@ 5
αρ@@ 5
βασιλ@@ 5
βι@@ 5
γράφ@@ 5
δης 5
ευ@@ 5
θη@@ 5
ιδ@@ 5
ικός 5
ιλ@@ 5
ιν@@ 5
κλ@@ 5
κος 5
μέ@@ 5
μος 5
μφ@@ 5
οβ@@ 5
ολογία 5
πολ@@ 5
ρά@@ 5
ρα 5
τα 5
τρο@@ 5
των 5
φάν@@ 5
φύ@@ 5
ψ 5
ψ@@ 5
ων@@ 5
ώς 5
Алек@@ 5
Бе@@ 5
Г@@ 5
Иль@@ 5
Ки@@ 5
П@@ 5
Х@@ 5
Ха@@ 5
Че@@ 5
алистиче@@ 5
бе@@ 5
би@@ 5
ви@@ 5
га 5
д 5
да@@ 5
ев 5
евна 5
ж@@ 5
зер@@ 5
ка@@ 5
кин 5
ков 5
ку@@ 5
лович 5
море 5
нова 5
ров@@ 5
с 5
сия 5
ское 5
ти@@ 5
то@@ 5
у 5
ч 5
ү@@ 5
Գ@@ 5
Վ@@ 5
ա 5
դ@@ 5
շ@@ 5
պ@@ 5
ջ@@ 5
־ 5
ס 5
ץ 5
أر@@ 5
أس@@ 5
أل@@ 5
إبراهيم 5
از@@ 5
البحر 5
البي@@ 5
المه@@ 5
ام@@ 5
امة 5
اني 5
بلا@@ 5
به 5
ث 5
جي@@ 5
حسن 5
راء 5
رجل 5
رو@@ 5
رية 5
سك@@ 5
سل@@ 5
سلطان 5
سي@@ 5
عبد@@ 5
عن@@ 5
كت@@ 5
كر@@ 5
لا 5
هب 5
وت 5
ولاية 5
يا 5
ير@@ 5
٢ 5
ܝ 5
ܦ@@ 5
া 5
് 5
ු@@ 5
น@@ 5
่ 5
ვ@@ 5
ቀ@@ 5
ታ@@ 5
ን 5
ወ@@ 5
ዘ@@ 5
ያ 5
ዳ@@ 5
ገ@@ 5
ẖ@@ 5
ịa 5
ἄ@@ 5
ἔ@@ 5
Ἑ@@ 5
ἡ 5
ἡ@@ 5
Ὀ@@ 5
ὸ@@ 5
ᾶ 5
‑ 5
ⴰ@@ 5
上 5
今@@ 5
倉 5
八@@ 5
内@@ 5
勇@@ 5
勝@@ 5
南 5
市@@ 5
愛@@ 5
慶@@ 5
新@@ 5
日@@ 5
明@@ 5
智@@ 5
杉@@ 5
東@@ 5
横@@ 5
浦 5
知@@ 5
紀 5
義 5
英@@ 5
辺 5
馬 5
국@@ 5
라 5
부@@ 5
왕 5
원@@ 5
11. 4
Alman@@ 4
Anh 4
Auch 4
Aş@@ 4
Barcel@@ 4
Bere@@ 4
Bö@@ 4
Bür@@ 4
COVI@@ 4
Canadi@@ 4
Carrera 4
Ce 4
Cen@@ 4
Chí 4
Comme 4
Compan@@ 4
Conseil 4
Công 4
Dich@@ 4
Durant 4
During 4
Este 4
Fahr@@ 4
Famili@@ 4
Grupo 4
Gül@@ 4
Halk 4
Haus 4
Herb@@ 4
Histor@@ 4
Höh@@ 4
Juli 4
Kanton 4
Kultur@@ 4
Lê 4
Meister 4
Minister@@ 4
Mit 4
NGC 4
Noctuidae 4
Par 4
Pour 4
Register 4
Rez@@ 4
Schule 4
Sept@@ 4
Sovi@@ 4
Sovyet@@ 4
Staat@@ 4
Sä@@ 4
Teil 4
Trung 4
Tsch@@ 4
Type 4
Um 4
Welt@@ 4
Zug@@ 4
ablo 4
acak@@ 4
ached 4
acial 4
acqu@@ 4
actr@@ 4
acts 4
addi@@ 4
administrative 4
adores 4
almost 4
alter 4
alı 4
americ@@ 4
amor 4
américa 4
application 4
areas 4
artic@@ 4
askazini 4
assemb@@ 4
ately 4
auté 4
avant 4
bau 4
begin 4
bildung 4
bois 4
buts 4
bür@@ 4
cada 4
carr@@ 4
carri@@ 4
cathol@@ 4
causa 4
cela 4
celebr@@ 4
chall@@ 4
champi@@ 4
changed 4
circul@@ 4
clav@@ 4
clos@@ 4
clu@@ 4
color 4
coming 4
commune 4
communic@@ 4
compar@@ 4
compil@@ 4
complete 4
continu@@ 4
contra 4
contro@@ 4
conver@@ 4
could 4
cour@@ 4
crimin@@ 4
crita 4
curr@@ 4
daki 4
deli@@ 4
deriv@@ 4
designed 4
deut@@ 4
diction 4
did 4
died 4
direct 4
direction 4
divi@@ 4
dose 4
dres 4
ecke 4
ectu@@ 4
edad 4
eight 4
emos 4
encour@@ 4
enden 4
enl@@ 4
ept 4
ergie 4
evin 4
example 4
fav@@ 4
favor@@ 4
femme 4
few 4
finale 4
fit 4
folia 4
forms 4
fort@@ 4
forte 4
frica 4
garde 4
gart 4
geschichte 4
gew@@ 4
going 4
gol 4
gran 4
gros@@ 4
guar@@ 4
heav@@ 4
heavy 4
helped 4
heren 4
hospital 4
ieder 4
ihr@@ 4
ihre 4
ildi 4
ilities 4
image 4
imen 4
immer 4
impro@@ 4
including 4
influence 4
inner@@ 4
instrum@@ 4
interpret@@ 4
ischen 4
ised 4
isel 4
issue 4
issues 4
istas 4
kuk 4
leader 4
lern 4
liqu@@ 4
littér@@ 4
logr@@ 4
luz 4
making 4
manager 4
married 4
materi@@ 4
members 4
minh 4
minister 4
minister@@ 4
mis 4
mise 4
moment 4
mother 4
motor@@ 4
mé 4
mün@@ 4
neigh@@ 4
ngh@@ 4
noi 4
nten 4
occident@@ 4
odio 4
olan@@ 4
ologique 4
ológ@@ 4
onstr@@ 4
opin@@ 4
orden@@ 4
organis@@ 4
orit@@ 4
ouver@@ 4
papel 4
param@@ 4
partic@@ 4
place 4
policy 4
portr@@ 4
president 4
princ@@ 4
prison 4
proced@@ 4
proces@@ 4
programs 4
provide 4
puls@@ 4
quan 4
quel 4
rang 4
rece@@ 4
recep@@ 4
recherche 4
reform 4
relationship 4
relev@@ 4
rien 4
riff@@ 4
roman 4
roqu@@ 4
round@@ 4
royal 4
rá@@ 4
sans 4
sao 4
sculp@@ 4
sede 4
serie 4
sert 4
session 4
sexu@@ 4
ships 4
sibil@@ 4
signe 4
situ@@ 4
situation 4
sona 4
soon 4
speci@@ 4
stand@@ 4
still 4
studied 4
sı@@ 4
takes 4
tarihi 4
taus@@ 4
temp@@ 4
temper@@ 4
temps 4
term 4
thao 4
third 4
throughout 4
tora 4
tores 4
total 4
treat@@ 4
tá 4
tête 4
ulaire 4
unca 4
unid@@ 4
uren 4
uyên 4
vard@@ 4
various 4
verb@@ 4
verl@@ 4
vos 4
wann 4
who@@ 4
wife 4
without 4
working 4
would 4
writ@@ 4
xu@@ 4
ymn@@ 4
ympi@@ 4
z. 4
zeh@@ 4
zeng@@ 4
zig 4
zug 4
zum 4
¢ 4
§ 4
À 4
État 4
Ì@@ 4
Í@@ 4
Ñ@@ 4
Ön@@ 4
Ör@@ 4
ài 4
ào 4
âte@@ 4
âtre 4
äh@@ 4
änder 4
çi 4
çı 4
ème 4
èn 4
évision 4
êtes 4
ólica 4
öm@@ 4
ör 4
öster@@ 4
ück@@ 4
üd@@ 4
ġ@@ 4
Ī@@ 4
ıklı 4
Ľ@@ 4
ő 4
ŭ@@ 4
ų 4
ż 4
ǐ@@ 4
ț@@ 4
ɕ 4
ɫ@@ 4
ʂ@@ 4
ʹ 4
ʽ@@ 4
̃ 4
̈ 4
Ά@@ 4
Αιγ@@ 4
Γ@@ 4
Η@@ 4
Κα@@ 4
Κλ@@ 4
Μαρία 4
Περ@@ 4
Τρί@@ 4
άκ@@ 4
ής 4
αλ@@ 4
ασ@@ 4
γέν@@ 4
γεν@@ 4
δό@@ 4
ες 4
θρ@@ 4
κ 4
κά@@ 4
λί@@ 4
μά@@ 4
μή@@ 4
μι@@ 4
να 4
ορ@@ 4
οσ@@ 4
παρ@@ 4
πο@@ 4
πό@@ 4
ρί@@ 4
ρη@@ 4
ριστ@@ 4
σσ@@ 4
τ 4
τί@@ 4
τα@@ 4
τυ@@ 4
υν@@ 4
φαν@@ 4
ώ 4
Ан@@ 4
Ана@@ 4
Би@@ 4
Владимир 4
Вол@@ 4
Д@@ 4
Е@@ 4
М@@ 4
Москов@@ 4
Но@@ 4
Ново@@ 4
По@@ 4
Пре@@ 4
Ру@@ 4
Свети 4
Сергей 4
Су@@ 4
Т@@ 4
Укра@@ 4
Фё@@ 4
Чер@@ 4
Э@@ 4
али@@ 4
би 4
бо@@ 4
ве@@ 4
г 4
гар@@ 4
град 4
да 4
дар 4
ди@@ 4
зи@@ 4
ний 4
но 4
п@@ 4
пол@@ 4
ре@@ 4
ри@@ 4
рий 4
рин@@ 4
ск@@ 4
ские 4
ст@@ 4
ха 4
э 4
қ 4
Կ@@ 4
տ 4
ך 4
أحمد 4
أص@@ 4
ارة 4
استاد 4
اش@@ 4
اق 4
اق@@ 4
الأح@@ 4
الأر@@ 4
الإسلا@@ 4
الذ@@ 4
الرحمن 4
السوي@@ 4
الشيخ 4
العزيز 4
الفر@@ 4
القي@@ 4
اله@@ 4
الي 4
ان@@ 4
اهرة 4
او@@ 4
اي@@ 4
باب 4
برج 4
بن@@ 4
بني 4
بوس@@ 4
بيت 4
تع@@ 4
جبل 4
جمال 4
جه@@ 4
جو@@ 4
حافظ 4
حم@@ 4
دار 4
دري@@ 4
دی@@ 4
را 4
رب 4
رب@@ 4
رسول 4
ز 4
زبان 4
زة 4
زي 4
زی 4
سب@@ 4
سما@@ 4
سين@@ 4
شة 4
شد 4
صر 4
طرا@@ 4
ظ 4
عائ@@ 4
عمر 4
فق@@ 4
قال 4
كة 4
كي@@ 4
لش@@ 4
لو@@ 4
لي 4
لی 4
مج@@ 4
مح@@ 4
مر@@ 4
مس@@ 4
می@@ 4
نا@@ 4
نة 4
نج@@ 4
ند 4
نه 4
نوا@@ 4
هر@@ 4
واح@@ 4
ولی@@ 4
يم@@ 4
يو@@ 4
َّ 4
ِّ@@ 4
ّة 4
پ@@ 4
چ@@ 4
کم 4
کور@@ 4
گ@@ 4
ܚ@@ 4
ܟ@@ 4
ܢ 4
का@@ 4
জ@@ 4
ব@@ 4
ম@@ 4
ল@@ 4
ে@@ 4
ੰ@@ 4
් 4
ช@@ 4
ณ 4
ม 4
་ 4
ლ@@ 4
რ@@ 4
ს@@ 4
ለ@@ 4
ረ@@ 4
ሳ@@ 4
በ@@ 4
ባ@@ 4
ቤ@@ 4
ች 4
ዎ@@ 4
ዲ@@ 4
ጵ@@ 4
ḇ 4
ḍ 4
ṓ@@ 4
ạng 4
ạt 4
ận 4
ến 4
ọng 4
ὄ@@ 4
≤ 4
々@@ 4
さ@@ 4
の@@ 4
タ@@ 4
マ@@ 4
ャ@@ 4
ル 4
ル@@ 4
上@@ 4
下@@ 4
京@@ 4
代 4
伊@@ 4
保@@ 4
分@@ 4
取@@ 4
合@@ 4
和 4
哲@@ 4
営@@ 4
地 4
坂 4
天@@ 4
奈@@ 4
宁 4
宇@@ 4
安 4
宏@@ 4
广@@ 4
悟 4
手@@ 4
拓@@ 4
昭@@ 4
武 4
水 4
沢 4
洋 4
洋@@ 4
熊@@ 4
相@@ 4
章 4
米@@ 4
義@@ 4
茂 4
菊@@ 4
謙@@ 4
遠@@ 4
酒@@ 4
阪@@ 4
阳 4
静@@ 4
香@@ 4
鳥@@ 4
鹿@@ 4
龍@@ 4
개@@ 4
김@@ 4
동@@ 4
산 4
신@@ 4
여 4
자@@ 4
전@@ 4
청@@ 4
￼ 4
12. 3
Auf 3
Beledi@@ 3
Best@@ 3
Buch 3
Bürger@@ 3
Career 3
Cet 3
Châu 3
Comité 3
Dör@@ 3
Engl@@ 3
Entre 3
Ermen@@ 3
Escu@@ 3
Españ@@ 3
Eğ@@ 3
Fener@@ 3
Francia 3
För@@ 3
Für 3
Gast@@ 3
Grenz@@ 3
Heim@@ 3
Hy 3
Hưng 3
II. 3
INSE@@ 3
Insel 3
Kreis@@ 3
Kreuz@@ 3
Köl@@ 3
Kör@@ 3
Lehr@@ 3
Liver@@ 3
Lond@@ 3
Macar@@ 3
Mehr@@ 3
Merkez 3
Mississi@@ 3
Mitte 3
Mär@@ 3
Mỹ 3
Nguyên 3
Noctu@@ 3
Nouv@@ 3
Obj@@ 3
Olí@@ 3
Oreg@@ 3
Oy 3
Parte@@ 3
Politi@@ 3
Probl@@ 3
Qualif@@ 3
Reichs@@ 3
Rusia 3
Russ@@ 3
Rö@@ 3
Santi@@ 3
Schiff 3
Schiff@@ 3
Sein 3
Servic@@ 3
Sieg 3
Singapo@@ 3
Sold@@ 3
Sommer@@ 3
Sonder@@ 3
Sprache 3
Süper 3
Thiên 3
Tây 3
Tä@@ 3
Unión 3
Verk@@ 3
Verlag 3
Văn 3
Wehr@@ 3
Weit@@ 3
XV@@ 3
Zeit 3
Zentrum 3
Zwe@@ 3
absol@@ 3
aciones 3
acked 3
adapt@@ 3
adop@@ 3
adron 3
adver@@ 3
affaires 3
affen 3
afor@@ 3
ailleurs 3
airman 3
aises 3
aison 3
align 3
aliste 3
alité 3
allem 3
alles 3
allow@@ 3
ambigu@@ 3
anderen 3
annen 3
anno@@ 3
another 3
appro@@ 3
après 3
arac@@ 3
arist@@ 3
arrang@@ 3
arro@@ 3
arron@@ 3
artiller@@ 3
artists 3
arş@@ 3
ased 3
assistant 3
associated 3
atisti@@ 3
ativo 3
attended 3
attention 3
auch 3
auff@@ 3
author 3
awarded 3
ayna 3
aî@@ 3
bahçe 3
baja 3
bare 3
barr@@ 3
beit@@ 3
berg@@ 3
bien 3
bras@@ 3
brother 3
building 3
bán 3
came 3
campus 3
career 3
charg@@ 3
charge 3
chef 3
ciones 3
cir 3
comment@@ 3
commercial 3
comple@@ 3
complex 3
conn@@ 3
cours 3
created 3
criv@@ 3
cual 3
có@@ 3
democ@@ 3
deniz 3
dep@@ 3
depend@@ 3
dern 3
described 3
deutscher 3
developed 3
diagn@@ 3
dici@@ 3
dienst 3
dies@@ 3
diff@@ 3
different 3
diffic@@ 3
direk@@ 3
discipl@@ 3
disco@@ 3
distr@@ 3
distribu@@ 3
dows 3
dram@@ 3
dres@@ 3
dée 3
démoc@@ 3
düz@@ 3
dı 3
earned 3
ecu@@ 3
eden 3
editor 3
einem 3
embar@@ 3
enced 3
enst 3
ensus 3
entales 3
enton@@ 3
entre 3
erre@@ 3
erste 3
esas 3
escu@@ 3
esos 3
established 3
estim@@ 3
etten 3
euse 3
eventually 3
exper@@ 3
experi@@ 3
experim@@ 3
expres@@ 3
febr@@ 3
figur@@ 3
finished 3
fix@@ 3
foc@@ 3
forma 3
four@@ 3
front@@ 3
fuer@@ 3
fäl@@ 3
gazet@@ 3
grab@@ 3
grave 3
groups 3
gru@@ 3
guez 3
gó@@ 3
gün 3
habe 3
habitants 3
hangi 3
heures 3
hier 3
hips 3
honor@@ 3
hosp@@ 3
hô@@ 3
icht@@ 3
ift@@ 3
igned 3
ilgili 3
ilik 3
illustr@@ 3
includes 3
incorpor@@ 3
increase 3
independent 3
indic@@ 3
individu@@ 3
industrial 3
ingly 3
ingt 3
insec@@ 3
install@@ 3
interest 3
isches 3
islas 3
issant 3
isses 3
iture 3
ités 3
ió 3
iğ@@ 3
iş 3
japon@@ 3
jeunes 3
joue 3
kend@@ 3
ları 3
least 3
leaving 3
lichen 3
liches 3
linde 3
listed 3
little 3
longer 3
lowing 3
lá 3
lés 3
mars 3
matches 3
meeting 3
mexic@@ 3
meye 3
migr@@ 3
miles 3
ministr@@ 3
minute 3
mite 3
mode 3
mont@@ 3
music@@ 3
nation@@ 3
near 3
never 3
nh 3
novel 3
numerous 3
ocur@@ 3
oder 3
offs 3
often 3
okrati@@ 3
onlyinclude 3
orado 3
oten 3
ouverneur 3
oğ@@ 3
parish 3
particip@@ 3
paso 3
ped 3
pied 3
plann@@ 3
politiques 3
positi@@ 3
prepar@@ 3
presti@@ 3
previous 3
princip@@ 3
principio 3
prix 3
programme 3
progres@@ 3
property 3
provin@@ 3
pá@@ 3
quet 3
quốc 3
raised 3
rar 3
rech@@ 3
refl@@ 3
relati@@ 3
relativ@@ 3
report 3
reported 3
represent@@ 3
resol@@ 3
respon@@ 3
restaur@@ 3
restric@@ 3
reve@@ 3
richt 3
riere 3
rural 3
rés@@ 3
sage 3
schen 3
schi@@ 3
schrift 3
season 3
sector 3
seinen 3
sent 3
seri@@ 3
seur 3
sied@@ 3
sionn@@ 3
soft 3
some@@ 3
sometimes 3
sorg@@ 3
spiel 3
stand 3
states 3
steri@@ 3
stop 3
studies 3
städ@@ 3
sug@@ 3
support 3
taken 3
ted@@ 3
teor@@ 3
these 3
though 3
thought 3
tige 3
tioned 3
tions@@ 3
tivi@@ 3
today 3
together 3
training 3
tribu@@ 3
tropolit@@ 3
trouv@@ 3
turned 3
tér@@ 3
tế 3
ucu 3
umes 3
unas 3
unger 3
unos 3
urban@@ 3
usually 3
utili@@ 3
uvo 3
uç 3
valu@@ 3
veau 3
veloc@@ 3
vide 3
vier@@ 3
vom 3
vote 3
và 3
weit@@ 3
written 3
ymnasium 3
yük 3
zul@@ 3
zwe@@ 3
¼ 3
É 3
Ê@@ 3
Ö 3
Ü 3
ái 3
áp 3
ã 3
ãi 3
äf@@ 3
ähr@@ 3
çek@@ 3
ète 3
ément 3
éni@@ 3
études 3
ême 3
êu 3
ígen@@ 3
ói 3
óp@@ 3
ög@@ 3
önem@@ 3
ús@@ 3
ül 3
ăng 3
ą 3
Đi@@ 3
ĕ@@ 3
Ħ@@ 3
ĩnh 3
ĭ@@ 3
İs@@ 3
ıs 3
ıs@@ 3
ıç@@ 3
ň 3
œuvre 3
Şark@@ 3
Ż@@ 3
ǃ@@ 3
ǧ@@ 3
ɦ@@ 3
ɯ@@ 3
ʷ@@ 3
ˀ@@ 3
ˌ 3
ˤ 3
˧ 3
̀ 3
̞ 3
΄ 3
Ό@@ 3
Β 3
Γαλ@@ 3
Δημή@@ 3
Δι@@ 3
Ιω@@ 3
Κρή@@ 3
Μέγ@@ 3
Νικ@@ 3
Π 3
Συ@@ 3
Τρ@@ 3
Φίλιπ@@ 3
άνα 3
άπ@@ 3
έν@@ 3
ήνη 3
ίνα 3
ίσ@@ 3
αλλ@@ 3
αμ 3
βί@@ 3
γεω@@ 3
γιος 3
δί@@ 3
δια@@ 3
δο@@ 3
δρ@@ 3
εί@@ 3
εδ@@ 3
εκ@@ 3
εσ@@ 3
ετ@@ 3
ηδ@@ 3
θάλασσα 3
θε@@ 3
ιο 3
καλ@@ 3
λά@@ 3
λιος 3
μαγ@@ 3
νομ@@ 3
ντ@@ 3
ολ@@ 3
ον@@ 3
οπ@@ 3
οτ@@ 3
πά@@ 3
πα@@ 3
ποι@@ 3
πολη 3
πους 3
πρ@@ 3
ραν@@ 3
ρεύ@@ 3
ριστο@@ 3
ρον 3
ρυ@@ 3
ρω@@ 3
ρό@@ 3
σία 3
σα 3
σμα 3
σμός 3
σχ@@ 3
σω@@ 3
σύ@@ 3
τά@@ 3
τερ@@ 3
τη 3
τός 3
υλ@@ 3
φιλ@@ 3
χα@@ 3
χαρ@@ 3
χος 3
χρ@@ 3
ως 3
όν 3
όπος 3
όφ@@ 3
ύρ@@ 3
ώπ@@ 3
Ал@@ 3
Александр 3
Ар@@ 3
Ба@@ 3
Бай@@ 3
Васи@@ 3
Вели@@ 3
Ви@@ 3
Во@@ 3
Ду@@ 3
Ж@@ 3
З@@ 3
Иван 3
Иванович 3
Ку@@ 3
Кур@@ 3
Миха@@ 3
Михай@@ 3
Москва 3
Н@@ 3
Не@@ 3
Ниж@@ 3
Никола 3
Р@@ 3
Република 3
Свя@@ 3
Ти@@ 3
Фе@@ 3
Ц@@ 3
Ч@@ 3
Чу@@ 3
Ш@@ 3
ав@@ 3
автоно@@ 3
ат@@ 3
бир@@ 3
бург 3
ва@@ 3
вета 3
во 3
га@@ 3
ган@@ 3
ге 3
ги@@ 3
го@@ 3
город 3
гу@@ 3
з 3
за 3
йская 3
ке@@ 3
кен@@ 3
ки@@ 3
кий 3
ко@@ 3
ле@@ 3
ло 3
ло@@ 3
ль 3
мы@@ 3
нин 3
ня 3
полу@@ 3
ран@@ 3
ре 3
рен@@ 3
ров 3
ры 3
ры@@ 3
сан@@ 3
ски 3
ско@@ 3
слав@@ 3
со@@ 3
ст 3
ста@@ 3
сти@@ 3
сы@@ 3
та 3
ты 3
ур@@ 3
х@@ 3
це@@ 3
цкий 3
чи@@ 3
ш 3
ъ 3
ь@@ 3
ё@@ 3
і 3
ғ@@ 3
ұ@@ 3
ӣ 3
Բ@@ 3
զ@@ 3
ծ@@ 3
հ@@ 3
ռ@@ 3
ց 3
ְ 3
ֹ 3
ׂ@@ 3
ז 3
ך@@ 3
أهل 3
إن@@ 3
ائ@@ 3
ابو 3
اة 3
اج@@ 3
اف@@ 3
الأص@@ 3
الأكبر 3
الأول 3
الإسلام 3
الاس@@ 3
الجزائر 3
الجه@@ 3
الدولي 3
الدین 3
السلام 3
السنة 3
الشعب@@ 3
العرب 3
العربي 3
العربية 3
الكبير 3
المج@@ 3
المرا@@ 3
المملكة 3
المن@@ 3
الي@@ 3
اه@@ 3
اِ@@ 3
ای 3
باح 3
بحر 3
بري@@ 3
بش@@ 3
بط@@ 3
به@@ 3
بو@@ 3
بوت@@ 3
بور@@ 3
بُ@@ 3
ةً 3
تب@@ 3
جب@@ 3
جز@@ 3
جنوب 3
خ 3
خل@@ 3
داء 3
داد 3
دان 3
دن 3
دية 3
رأس 3
رق@@ 3
رم 3
ری@@ 3
سا 3
سلي@@ 3
سو@@ 3
سيد 3
سُ@@ 3
شا@@ 3
شر@@ 3
شمس 3
شي@@ 3
شی@@ 3
ض@@ 3
طر 3
عد@@ 3
عط@@ 3
عم@@ 3
عمان 3
عي 3
غر 3
ـ@@ 3
فار@@ 3
فاط@@ 3
في@@ 3
فی 3
قاسم 3
قر@@ 3
قل@@ 3
قُ@@ 3
كر 3
لار 3
لس@@ 3
لو 3
لوك 3
لِ 3
مار 3
مت 3
مد@@ 3
مل 3
مه@@ 3
مية 3
نط@@ 3
نهر 3
نية 3
نَ@@ 3
نُ@@ 3
نی 3
هار@@ 3
وار@@ 3
وال@@ 3
وج 3
وج@@ 3
ود 3
وس 3
وف 3
وي@@ 3
وی@@ 3
يب 3
يل@@ 3
ينة 3
يني 3
يوسف 3
يون 3
يون@@ 3
ّا 3
٠ 3
١ 3
٣ 3
٤ 3
٥ 3
٧ 3
٩ 3
کی 3
کی@@ 3
ی 3
ܛ@@ 3
ܫ@@ 3
गुप 3
त 3
म@@ 3
य 3
ली 3
ং@@ 3
ন@@ 3
র 3
র@@ 3
স@@ 3
ু@@ 3
ਜ@@ 3
ਬ 3
ਰ@@ 3
ਸ@@ 3
ਾ@@ 3
ੀ 3
ા@@ 3
் 3
ව@@ 3
ා@@ 3
ง@@ 3
ส@@ 3
า@@ 3
แ@@ 3
็ 3
้ 3
ລ@@ 3
ຸ@@ 3
ა 3
ე@@ 3
თ@@ 3
უ@@ 3
ለ 3
ል@@ 3
ሐ@@ 3
ሙ@@ 3
ረ 3
ራ@@ 3
ሬ@@ 3
ሰ@@ 3
ቆ@@ 3
ቡ@@ 3
ባ 3
ብ 3
ቦ@@ 3
ቱ 3
ቴ@@ 3
ና 3
ና@@ 3
ኤ@@ 3
ዊ 3
ዋ@@ 3
ዝ@@ 3
ይ 3
ዱ@@ 3
ጣ@@ 3
ጾ@@ 3
ḍ@@ 3
ṅ@@ 3
ṗ@@ 3
ṛ@@ 3
Ṭ@@ 3
ṭ 3
ṯ 3
ẓ 3
ẓ@@ 3
ạn 3
ấn 3
ằng 3
ẹ 3
ện 3
ị 3
ừa 3
ἶ@@ 3
Ὑ@@ 3
Ὕ@@ 3
ὴ 3
‚ 3
‡ 3
ⴷ@@ 3
す@@ 3
ま@@ 3
み 3
り@@ 3
ア@@ 3
イ@@ 3
キ@@ 3
グ@@ 3
シ@@ 3
ジ@@ 3
ッ@@ 3
ナ@@ 3
ニ@@ 3
フ 3
ュ@@ 3
リ@@ 3
レ@@ 3
ワ@@ 3
ヶ@@ 3
下 3
世 3
之@@ 3
亮@@ 3
仲@@ 3
伸@@ 3
佑@@ 3
信 3
倉@@ 3
健 3
充 3
克@@ 3
児@@ 3
全@@ 3
勝 3
博 3
口@@ 3
台@@ 3
名 3
哉 3
土@@ 3
坂@@ 3
城 3
堀@@ 3
塚 3
好@@ 3
子@@ 3
孔@@ 3
孝 3
家@@ 3
寛 3
寿@@ 3
尔@@ 3
岐@@ 3
廣@@ 3
形@@ 3
慎@@ 3
成 3
成@@ 3
指@@ 3
文@@ 3
斉@@ 3
新 3
春 3
昭 3
晃 3
月 3
有@@ 3
望@@ 3
朝@@ 3
松 3
柳@@ 3
桑@@ 3
森 3
次 3
歌@@ 3
池@@ 3
沢@@ 3
波 3
浅@@ 3
浜@@ 3
浦@@ 3
浩 3
淳@@ 3
源@@ 3
潟@@ 3
潤@@ 3
牟 3
特@@ 3
玉@@ 3
理@@ 3
甘@@ 3
祐@@ 3
神 3
竹@@ 3
笠@@ 3
篤@@ 3
聖@@ 3
聡 3
肥 3
航@@ 3
良 3
色@@ 3
若@@ 3
葉@@ 3
語 3
豊@@ 3
贵@@ 3
道@@ 3
達@@ 3
邦@@ 3
都 3
鎌@@ 3
长@@ 3
関@@ 3
阜@@ 3
陽@@ 3
雄@@ 3
韓@@ 3
須@@ 3
가@@ 3
강@@ 3
경@@ 3
광@@ 3
동 3
방@@ 3
북@@ 3
상@@ 3
성 3
소@@ 3
여@@ 3
원 3
주 3
창@@ 3
천 3
치@@ 3
 3
 3
ﻟ@@ 3
𐤔 3
0,5 2
10. 2
14. 2
16. 2
17. 2
19. 2
21. 2
31. 2
Akademie 2
Anf@@ 2
Arnav@@ 2
Asociación 2
Auf@@ 2
Bei@@ 2
Bisch@@ 2
Cerambycidae 2
Cumhuriy@@ 2
Cumhuriyeti 2
Cộng 2
DDR 2
Dağ@@ 2
Demokrati@@ 2
Description 2
Dez@@ 2
Dies 2
Doğu 2
Drit@@ 2
Ecu@@ 2
Eigen@@ 2
Eine 2
Einwohner 2
Ener@@ 2
Escuela 2
Eski 2
Está 2
Fes@@ 2
Festiv@@ 2
Feuer@@ 2
Fuer@@ 2
Fútbol 2
Führ@@ 2
Garc@@ 2
Gatt@@ 2
Gök@@ 2
Güney 2
Histori@@ 2
Historic 2
Hàn 2
Hậu 2
Iglesia 2
Its 2
Khi 2
Khánh 2
Kore 2
Kultur 2
Kunst 2
Kür@@ 2
Kỳ 2
Literatur 2
Loan 2
Luft@@ 2
Lâm 2
Ló@@ 2
Mayor 2
Merkezi 2
Millionen 2
Mittel@@ 2
Nghệ 2
Nhi@@ 2
Nội 2
Orta 2
Perú 2
Pfarr@@ 2
Platz 2
Poliz@@ 2
Por 2
Position 2
Rang 2
Regiment 2
Regional@@ 2
Republik 2
Route 2
Schles@@ 2
Schloss 2
Schweiz 2
Sie 2
Span@@ 2
Staats@@ 2
Stadt@@ 2
Staff@@ 2
Straße 2
Stutt@@ 2
Thành 2
Trương 2
Trần 2
Tube 2
Tân 2
Türk@@ 2
Türkiye 2
Türkçe 2
Venedi@@ 2
Verkehr@@ 2
Wirtschafts@@ 2
Woh@@ 2
Yard@@ 2
Yaş@@ 2
Zentr@@ 2
Zu 2
Zusammen@@ 2
Zür@@ 2
abs@@ 2
accep@@ 2
acces@@ 2
across 2
actu@@ 2
acus@@ 2
adém@@ 2
adı 2
aired 2
aktiv 2
aktiv@@ 2
alara 2
aliforni@@ 2
allow 2
allowed 2
ammen 2
ancak 2
animal 2
antage 2
appearance 2
appointed 2
arbeit 2
arded 2
asked 2
assass@@ 2
assist@@ 2
astron@@ 2
atmos@@ 2
atro 2
atten@@ 2
attribu@@ 2
author@@ 2
avail@@ 2
avril 2
ayır@@ 2
año 2
aşı 2
beginning 2
below 2
besch@@ 2
bord 2
brought 2
bruch 2
buil@@ 2
bulun@@ 2
bö@@ 2
büt@@ 2
calcul@@ 2
campaign 2
census 2
changes 2
chron@@ 2
ciales 2
cil@@ 2
ciudad 2
claimed 2
clas@@ 2
classes 2
clus@@ 2
coach 2
collec@@ 2
collection 2
comes 2
comi@@ 2
comman@@ 2
complet@@ 2
concep@@ 2
conom@@ 2
consci@@ 2
const@@ 2
consum@@ 2
contains 2
continue 2
coordin@@ 2
corps 2
course 2
create 2
cription 2
cultiv@@ 2
cultura 2
currently 2
cycle 2
cán@@ 2
cé@@ 2
dass 2
davran@@ 2
declar@@ 2
ded@@ 2
dedic@@ 2
demi 2
destruc@@ 2
deutsch@@ 2
deutsche 2
deş@@ 2
dient 2
difer@@ 2
difficul@@ 2
digt 2
dirig@@ 2
disambiguation 2
distingu@@ 2
distribution 2
donn@@ 2
doğu 2
droits 2
durch 2
déc@@ 2
eastern 2
edly 2
ehen 2
eint 2
ejec@@ 2
ellas 2
ellschaft 2
emas 2
employ@@ 2
encias 2
endant 2
endet 2
ennt 2
entras 2
episode 2
erken 2
ersten 2
escap@@ 2
establ@@ 2
estas 2
estat@@ 2
etler 2
eures 2
evangel@@ 2
event 2
evidence 2
exec@@ 2
exist@@ 2
expl@@ 2
extrem@@ 2
eyal@@ 2
eño 2
faite 2
farm@@ 2
festiv@@ 2
feu@@ 2
fica 2
fici@@ 2
fig 2
figh@@ 2
fils 2
find 2
fique 2
five 2
font 2
forces 2
forme 2
forsch@@ 2
franç@@ 2
fusi@@ 2
fé@@ 2
fér@@ 2
führer 2
gab 2
gali@@ 2
gave 2
gef@@ 2
genre 2
ghi 2
gien 2
grado 2
grande 2
grup@@ 2
gé@@ 2
haline 2
harek@@ 2
hava 2
heit@@ 2
heits@@ 2
higher 2
histoire 2
historique 2
hours 2
however 2
icas 2
ient 2
ieron 2
igkeit 2
igt 2
igung 2
illos 2
ilçe 2
imiento 2
impres@@ 2
inclu@@ 2
included 2
incre@@ 2
independ@@ 2
indig@@ 2
infan@@ 2
innov@@ 2
inspir@@ 2
instead 2
inten@@ 2
interior 2
internationale 2
investig@@ 2
ional 2
isant 2
isen 2
isiones 2
ismi 2
issement 2
istre 2
itement 2
itions 2
içi 2
jeux 2
juin 2
jährigen 2
kein 2
killed 2
kte 2
ký 2
kı@@ 2
lance 2
langue 2
larg@@ 2
large 2
legisl@@ 2
lehr@@ 2
lere 2
licher 2
lider@@ 2
lief 2
likely 2
location 2
loss 2
lost 2
luch@@ 2
lui 2
là 2
lü 2
lü@@ 2
macht 2
madan 2
mainly 2
maire 2
maison 2
manos 2
manufactur@@ 2
marché 2
mayores 2
maç@@ 2
means 2
medical 2
meil@@ 2
mento 2
minin 2
minut@@ 2
mique 2
moder@@ 2
most@@ 2
much 2
munici@@ 2
municipality 2
mül@@ 2
nde 2
neh@@ 2
next 2
nicht 2
noche 2
normal 2
northern 2
nous 2
nouvelle 2
nun 2
nur 2
obra 2
occas@@ 2
ografie 2
older 2
ológico 2
onnement 2
operations 2
opération 2
oran@@ 2
oren 2
originally 2
orta@@ 2
otro 2
otz 2
ouest 2
parents 2
partam@@ 2
partment 2
passage 2
pay 2
pendant 2
performance 2
permet@@ 2
petit 2
pier@@ 2
pion@@ 2
places 2
plays 2
popul@@ 2
portant 2
portes 2
premi@@ 2
premier 2
première 2
present@@ 2
presented 2
princi@@ 2
principal 2
prior 2
prit 2
probl@@ 2
process 2
produ@@ 2
produce 2
professi@@ 2
professional 2
propor@@ 2
protein 2
provincia 2
prépar@@ 2
publication 2
punk@@ 2
quand 2
question 2
quier 2
rebel@@ 2
reco@@ 2
record@@ 2
reduc@@ 2
refer 2
referred 2
refle@@ 2
regional 2
regular 2
reich@@ 2
rein@@ 2
relation 2
relations 2
religious 2
repe@@ 2
resid@@ 2
response 2
retir@@ 2
returned 2
revel@@ 2
riff 2
roi 2
roman@@ 2
rouge 2
rue 2
régi@@ 2
rí@@ 2
schaft 2
schools 2
schw@@ 2
secund@@ 2
seine 2
selec@@ 2
selected 2
selves 2
separ@@ 2
seph 2
seven 2
sexual 2
signific@@ 2
siones 2
sister 2
soll 2
solution 2
soy@@ 2
sozial@@ 2
specif@@ 2
spons@@ 2
stant@@ 2
stated 2
stations 2
stelle 2
struk@@ 2
strum@@ 2
subj@@ 2
subst@@ 2
suj@@ 2
surviv@@ 2
sych@@ 2
symbol@@ 2
sát 2
taines 2
tainment 2
tario 2
tels 2
terms 2
territori@@ 2
tesi 2
there@@ 2
thuộc 2
ticos 2
tiller@@ 2
tish 2
tober 2
todo 2
transfer@@ 2
trit@@ 2
tropical 2
trä@@ 2
träge 2
trực 2
tsch@@ 2
tungs@@ 2
tán 2
tü 2
tı 2
tır@@ 2
ucion@@ 2
ucky 2
uelle 2
unden 2
unidad 2
usage 2
ustri@@ 2
vely 2
vement 2
vend@@ 2
venir 2
verdi 2
verein@@ 2
verk@@ 2
victory 2
vient 2
villages 2
voie 2
voire 2
vì 2
ví@@ 2
walt 2
whose 2
wirtschaft@@ 2
within 2
yalı 2
ydi 2
yü@@ 2
zaman@@ 2
zentr@@ 2
zial@@ 2
zäh@@ 2
¨ 2
¾ 2
Ét@@ 2
Österreich 2
Üniversitesi 2
Þ@@ 2
ám 2
ân 2
äch@@ 2
ächs@@ 2
äd@@ 2
äm@@ 2
änge 2
çe 2
èmes 2
ènes 2
école 2
église 2
él 2
éta@@ 2
étique 2
étr@@ 2
étu@@ 2
ête 2
être 2
ình 2
ñas 2
òng 2
óg@@ 2
ónico 2
öff@@ 2
öğ@@ 2
ública 2
ún@@ 2
üf@@ 2
ük@@ 2
ünden 2
üssel@@ 2
ütz@@ 2
üç@@ 2
üçük 2
üş 2
ÿ 2
Ă@@ 2
ĉ 2
ď 2
Ĕ@@ 2
ĝ 2
Ġ@@ 2
ħ 2
İk@@ 2
İm@@ 2
ıc@@ 2
ılı 2
ından 2
ĵ 2
ř 2
Ś 2
ŝ 2
şu 2
ů 2
ů@@ 2
ước 2
ượng 2
ǀ@@ 2
ǔ 2
ǫ@@ 2
Ș@@ 2
ș 2
ɒ@@ 2
ɔ 2
ɕ@@ 2
ɜ@@ 2
ɫ 2
ʂ 2
ʌ 2
ʤ@@ 2
ʰ@@ 2
ˀ 2
ˁ@@ 2
̩ 2
̱ 2
Άγιος 2
Άρ@@ 2
Ή@@ 2
Ί@@ 2
Ύ@@ 2
ΐ@@ 2
Απο@@ 2
Βαρ@@ 2
Βι@@ 2
Βο@@ 2
Δ 2
Ιερ@@ 2
Ισ@@ 2
Κολ@@ 2
Κό@@ 2
Λευ@@ 2
Μ 2
Μαρ@@ 2
Μεγάλ@@ 2
Ν 2
Νε@@ 2
Ξ 2
Ο 2
Πά@@ 2
Παν@@ 2
Παρ@@ 2
Σα@@ 2
Σαλ@@ 2
Σοφ@@ 2
Τ 2
Χ 2
Χαλ@@ 2
Ψ 2
Ω 2
άγ@@ 2
άδ@@ 2
άμ@@ 2
άφ@@ 2
έας 2
έρ@@ 2
έργ@@ 2
έων 2
ήγ@@ 2
ήμ@@ 2
ήτης 2
ίγ@@ 2
ίδ@@ 2
ίδα 2
ίδης 2
ίος 2
ίου 2
αβ@@ 2
ανία 2
ανδ@@ 2
αφ@@ 2
βά@@ 2
βα@@ 2
βη@@ 2
βιβλ@@ 2
για 2
γκ@@ 2
γλ@@ 2
γραφία 2
δας 2
δεκ@@ 2
δελφ@@ 2
δοκ@@ 2
δρα 2
δρο@@ 2
δυ@@ 2
δω@@ 2
είδ@@ 2
είς 2
εβ@@ 2
ειδ@@ 2
ειν@@ 2
εις 2
εισ@@ 2
ελ@@ 2
εν 2
ηλ@@ 2
ηφ@@ 2
θέ@@ 2
θέν@@ 2
θεν@@ 2
θμ@@ 2
θύ@@ 2
ική 2
ιμ@@ 2
καθολ@@ 2
καρι@@ 2
κερ@@ 2
κη 2
κρά@@ 2
κτ@@ 2
κύ@@ 2
κύκλ@@ 2
λεύ@@ 2
λη@@ 2
λιο 2
λις 2
λος 2
λύ@@ 2
μένη 2
μέρα 2
μαθηματ@@ 2
μετα@@ 2
μη 2
μικρ@@ 2
μύ@@ 2
νε@@ 2
νες 2
νησι@@ 2
ξέν@@ 2
ξεν@@ 2
ξι@@ 2
οί 2
οδος 2
οι@@ 2
οπο@@ 2
οχ@@ 2
ούν@@ 2
πάρ@@ 2
παράδ@@ 2
παρακ@@ 2
πατ@@ 2
ποδ@@ 2
πολλ@@ 2
πορ@@ 2
πυ@@ 2
ρία 2
ργ@@ 2
ρε@@ 2
ρη 2
ρκ@@ 2
στολ@@ 2
σύν@@ 2
τέ@@ 2
ταν@@ 2
ταξι@@ 2
ταυ@@ 2
τικ@@ 2
τον 2
τρα 2
υθ@@ 2
φ 2
φέρ@@ 2
φορά 2
φος 2
φρα@@ 2
φυσ@@ 2
φω@@ 2
φων@@ 2
χολ@@ 2
ωνία 2
ϊ@@ 2
όδ@@ 2
όλων 2
όπ@@ 2
όρι@@ 2
όρος 2
ύλ@@ 2
ώδ@@ 2
ϛ 2
ϝ 2
Аб@@ 2
Алексе@@ 2
Андре@@ 2
Бал@@ 2
Бел@@ 2
Бело@@ 2
Бо@@ 2
Бори@@ 2
Вален@@ 2
Васил 2
Василий 2
Вен@@ 2
Вла@@ 2
Га@@ 2
Гор@@ 2
Государ@@ 2
Де@@ 2
Дмит@@ 2
Елиза@@ 2
Зем@@ 2
Ива@@ 2
Ин@@ 2
Ио@@ 2
Ир@@ 2
Ис@@ 2
Кали@@ 2
Кам@@ 2
Кара@@ 2
Карл 2
Ке@@ 2
Кир@@ 2
Константин 2
Красно@@ 2
Кре@@ 2
Кри@@ 2
Кры@@ 2
Л@@ 2
Ла@@ 2
Макси@@ 2
Ме@@ 2
Мето@@ 2
Мит@@ 2
Михаил 2
Мо@@ 2
Мол@@ 2
Ни@@ 2
Николай 2
Ор@@ 2
Пав@@ 2
Пе@@ 2
Пер@@ 2
Петро@@ 2
Пи@@ 2
Пу@@ 2
Росси@@ 2
России 2
Российской 2
Сара@@ 2
Се@@ 2
Сер@@ 2
Си@@ 2
Сою@@ 2
Ста@@ 2
Стефан 2
Те@@ 2
Ту@@ 2
Федерации 2
Хан@@ 2
Ша@@ 2
Ши@@ 2
Ю@@ 2
ар@@ 2
армия 2
ата@@ 2
бъ@@ 2
вая 2
вер@@ 2
вина 2
ган 2
гас 2
го 2
гол 2
гор@@ 2
джи@@ 2
ди 2
дия 2
дро@@ 2
дру@@ 2
ево 2
ек@@ 2
ене@@ 2
ера 2
ет@@ 2
зан@@ 2
зиден@@ 2
ита 2
йн 2
каз 2
кар 2
км 2
ков@@ 2
кова 2
кор@@ 2
космиче@@ 2
лен@@ 2
ли 2
лин 2
лу@@ 2
лы 2
лья@@ 2
ля 2
ля@@ 2
ма 2
мал@@ 2
ман@@ 2
мар@@ 2
ме@@ 2
международ@@ 2
ми 2
ми@@ 2
мир 2
му@@ 2
ник 2
ников 2
нин@@ 2
но@@ 2
ново 2
ной 2
ня@@ 2
область 2
одо@@ 2
округ 2
он@@ 2
ора 2
острова 2
п 2
пер@@ 2
по@@ 2
пора@@ 2
публика@@ 2
ра@@ 2
рон@@ 2
рь 2
са 2
са@@ 2
се 2
сов 2
сп@@ 2
ста 2
сто 2
сто@@ 2
сы 2
та@@ 2
те 2
те@@ 2
ти 2
тин 2
тия 2
тка 2
ты@@ 2
укра@@ 2
ф 2
фа 2
фе@@ 2
х 2
хан@@ 2
хи@@ 2
хо@@ 2
ц 2
ца 2
ци@@ 2
ция 2
ч@@ 2
ча@@ 2
чер@@ 2
чна 2
шин@@ 2
щ@@ 2
ы 2
ян 2
яр@@ 2
ёт@@ 2
њ@@ 2
ҷ@@ 2
һ@@ 2
ө@@ 2
Դ@@ 2
Է@@ 2
Ի@@ 2
Լ@@ 2
Ղ@@ 2
Ն@@ 2
Փ@@ 2
բ 2
դ 2
յ 2
շ 2
ք@@ 2
և@@ 2
֫ 2
ָ 2
ֽ@@ 2
ג 2
נ 2
״ 2
؛ 2
آباد 2
آزاد 2
آيت 2
أف@@ 2
أك@@ 2
أكبر 2
أكتوبر 2
ؤ@@ 2
إلا 2
ئر 2
ابات 2
اح@@ 2
احمد 2
ادات 2
ادة 2
ازی 2
است@@ 2
اص 2
اص@@ 2
اط@@ 2
اك@@ 2
الأس@@ 2
الأق@@ 2
الأول@@ 2
البح@@ 2
البر@@ 2
الة 2
التح@@ 2
التع@@ 2
الجنوب@@ 2
الحسن 2
الخلي@@ 2
الدرجة 2
الرا@@ 2
الساد@@ 2
السري@@ 2
السو@@ 2
السي@@ 2
الط@@ 2
العق@@ 2
الغربية 2
المؤ@@ 2
المدينة 2
المسي@@ 2
المص@@ 2
المغرب 2
الملك 2
النا@@ 2
انية 2
ای@@ 2
ایران 2
با 2
باد 2
بار 2
بت@@ 2
بد@@ 2
برا@@ 2
بل 2
بلاد 2
بلوچستان 2
بيض 2
تاح 2
تاریخ 2
تح@@ 2
تم@@ 2
ته 2
ته@@ 2
تی@@ 2
جد 2
جر 2
جلال 2
جمي@@ 2
جن@@ 2
جه 2
جهاز 2
جی@@ 2
حاق 2
حج 2
حج@@ 2
حدة 2
حرب 2
حركة 2
حس@@ 2
حسين 2
حق 2
خالد 2
خلی@@ 2
دة 2
دری@@ 2
دولة 2
دون 2
دى 2
ديا 2
دين 2
دُ@@ 2
راب 2
راع 2
رام 2
ران 2
رف 2
رك@@ 2
روح 2
رير 2
ريف 2
ريم 2
رين 2
رُ@@ 2
ری 2
ریا 2
زب@@ 2
زر 2
زي@@ 2
سر 2
سرطان 2
سعود 2
سم@@ 2
سن@@ 2
سنة 2
سوق 2
سين 2
سی@@ 2
شت 2
شع@@ 2
شعب@@ 2
شه@@ 2
شهر 2
صح@@ 2
صلا@@ 2
صلاح 2
ض 2
ضاء 2
طف@@ 2
طور 2
طي@@ 2
ظهر 2
عب@@ 2
عت 2
عثمان 2
عد 2
عشر 2
على 2
عُ@@ 2
فائ@@ 2
فارسی 2
فض@@ 2
فلسطين 2
فن@@ 2
في 2
قا 2
قائ@@ 2
قائد 2
قص@@ 2
قلب 2
كامل 2
كان 2
كتاب 2
كري@@ 2
كل@@ 2
لام 2
لب 2
لغة 2
لف 2
لف@@ 2
له 2
له@@ 2
لى 2
لی@@ 2
ما 2
ماك 2
مانية 2
مانی 2
محافظ@@ 2
محفوظ 2
محمود 2
مدينة 2
مرا@@ 2
مز 2
مص@@ 2
ملكة 2
منظمة 2
مهورية 2
موا 2
مون 2
نام@@ 2
نج 2
ندر 2
نق@@ 2
نو@@ 2
ني@@ 2
نيسة 2
نين 2
نگ 2
نی@@ 2
ها 2
هات 2
هد 2
هـ 2
هم 2
هو 2
هي@@ 2
واقع 2
وبة 2
ود@@ 2
ورة 2
ورية 2
وش 2
وف@@ 2
وق@@ 2
ولد 2
ولي 2
ولي@@ 2
وم@@ 2
وى 2
وية 2
يف@@ 2
يه@@ 2
ٌ 2
ٍ 2
َّة 2
٢@@ 2
٦ 2
ٻ@@ 2
پن@@ 2
پی@@ 2
کریم 2
کو@@ 2
گ 2
یر 2
ین 2
ܒ@@ 2
ܗ@@ 2
ܘ 2
ܠ 2
ܣ 2
ܨ@@ 2
ܪ 2
ܶ@@ 2
ܺ@@ 2
क 2
ग@@ 2
ठ@@ 2
धर 2
ना 2
म 2
मु@@ 2
य@@ 2
राज 2
राज@@ 2
ल@@ 2
ला 2
वंश 2
स@@ 2
हिन 2
আ@@ 2
খ 2
ম 2
শ@@ 2
হ@@ 2
় 2
ি@@ 2
্ 2
ਪ@@ 2
ਿ@@ 2
੍ 2
ં@@ 2
ક@@ 2
ગ@@ 2
મ@@ 2
ર@@ 2
ી 2
ப@@ 2
வ@@ 2
ಿ 2
ര 2
ല@@ 2
സ@@ 2
ി 2
ി@@ 2
ൊ@@ 2
ත@@ 2
ම@@ 2
ර@@ 2
ස 2
ා 2
ේ 2
ก 2
ค 2
ช 2
ชิ@@ 2
ต 2
ตร 2
ท 2
น 2
พระ@@ 2
ม@@ 2
ย@@ 2
ยาม 2
ร 2
ล 2
ว@@ 2
วั@@ 2
ษ 2
ิน@@ 2
เอ 2
ไทย 2
ດ 2
ສ@@ 2
ິ@@ 2
མ 2
င 2
် 2
კ@@ 2
ო 2
ო@@ 2
ტ@@ 2
ქ@@ 2
ღ@@ 2
შ@@ 2
ჯ@@ 2
ህ@@ 2
ሊ@@ 2
ላ 2
ላ@@ 2
ሎ@@ 2
ሓ@@ 2
ሔ@@ 2
ሕ 2
ሚ@@ 2
ሥ@@ 2
ሪ 2
ሮ@@ 2
ሱ@@ 2
ሲ@@ 2
ሳ 2
ሽ 2
ቅ@@ 2
ቶ@@ 2
ኃ@@ 2
ኖ@@ 2
ኣ@@ 2
ከ@@ 2
ኮ@@ 2
ው 2
ው@@ 2
ዓ@@ 2
ዕ@@ 2
ዝ 2
ድ 2
ዶ@@ 2
ጀ@@ 2
ጅ 2
ጉ@@ 2
ጎ@@ 2
ጠ@@ 2
ጥ@@ 2
ᐃ@@ 2
ᑦ 2
ᓗ@@ 2
ន 2
ន@@ 2
ស@@ 2
ុ@@ 2
ḳ@@ 2
ḵ 2
Ẓ@@ 2
ảm 2
ất 2
ền 2
ỉ 2
ủ 2
ἕ@@ 2
ἠ@@ 2
Ἥ@@ 2
ἴ@@ 2
Ἱ@@ 2
ὀ@@ 2
ὁ@@ 2
Ὅ@@ 2
Ὠ@@ 2
ὰ 2
ὺ@@ 2
ὼ@@ 2
ῑ@@ 2
Ῥ@@ 2
ῳ@@ 2
ῴ@@ 2
‐ 2
‬ 2
⁰ 2
₦ 2
₹ 2
≈ 2
ⴱ@@ 2
ⴻ@@ 2
ⵔ 2
ⵢ@@ 2
ⵣ@@ 2
う@@ 2
え 2
き 2
そ@@ 2
た@@ 2
の 2
ふ@@ 2
や@@ 2
り 2
ィ@@ 2
エ@@ 2
オ@@ 2
コ@@ 2
ゴ 2
サ@@ 2
ジ 2
ス 2
ス@@ 2
ダ@@ 2
デ@@ 2
ト@@ 2
ド@@ 2
ナ 2
ハ@@ 2
パ@@ 2
ビ 2
フ@@ 2
プ@@ 2
メ@@ 2
モ@@ 2
ョ@@ 2
・ 2
业 2
东 2
並 2
丸 2
丸@@ 2
主@@ 2
习@@ 2
云@@ 2
亨@@ 2
亮 2
仙@@ 2
会@@ 2
伯 2
伯@@ 2
佑 2
佳@@ 2
修@@ 2
偉 2
元@@ 2
光 2
児 2
兰@@ 2
兵@@ 2
典 2
列@@ 2
利@@ 2
勉 2
化 2
北 2
南京 2
卯@@ 2
又 2
取 2
右@@ 2
司@@ 2
吉 2
向@@ 2
味@@ 2
命 2
哈@@ 2
唐@@ 2
啓@@ 2
嗣 2
嘉@@ 2
國@@ 2
園@@ 2
在 2
圭@@ 2
坪@@ 2
城@@ 2
基@@ 2
堂 2
塩@@ 2
増@@ 2
士 2
壮@@ 2
売@@ 2
夢@@ 2
夫@@ 2
姣 2
孫@@ 2
実 2
宮 2
対@@ 2
尙@@ 2
尹@@ 2
尾@@ 2
屋 2
屋@@ 2
岸@@ 2
峡 2
嶋 2
巳 2
希 2
幌@@ 2
幕 2
幻 2
広 2
広@@ 2
庄 2
府 2
府@@ 2
康 2
建 2
式@@ 2
弘@@ 2
弥 2
彰@@ 2
征@@ 2
忠 2
思@@ 2
恒@@ 2
恵 2
悠@@ 2
想 2
感@@ 2
憲@@ 2
我@@ 2
戸 2
政@@ 2
敬 2
敬@@ 2
文 2
斗 2
早@@ 2
昌 2
春@@ 2
晃@@ 2
智 2
服@@ 2
札@@ 2
朱@@ 2
李 2
村@@ 2
東 2
板@@ 2
柏@@ 2
柔@@ 2
柱@@ 2
栃@@ 2
栄 2
栄@@ 2
株@@ 2
梅@@ 2
槙@@ 2
正 2
毅 2
氏@@ 2
汉 2
汉@@ 2
汕@@ 2
池 2
沖@@ 2
沙 2
治@@ 2
沼 2
泰 2
津 2
浩@@ 2
深@@ 2
淵 2
湖@@ 2
源 2
滨 2
漢@@ 2
澤@@ 2
濟@@ 2
瀬 2
瀬@@ 2
爱 2
獨@@ 2
王 2
瑟 2
璠 2
甲@@ 2
町 2
百@@ 2
盛@@ 2
真 2
矢@@ 2
碁 2
碩 2
磨 2
社 2
科 2
立 2
竜@@ 2
算 2
篠@@ 2
篤 2
純 2
素@@ 2
細@@ 2
維@@ 2
羅@@ 2
美@@ 2
翁 2
習@@ 2
老@@ 2
聖 2
船@@ 2
色 2
芳@@ 2
苦@@ 2
菅 2
菅@@ 2
菱@@ 2
葉 2
蒙 2
蘇@@ 2
街@@ 2
裕 2
覇@@ 2
訓 2
誠 2
誠@@ 2
豊 2
貝 2
貴 2
越@@ 2
足@@ 2
路 2
迫 2
通@@ 2
達 2
郑@@ 2
阳@@ 2
阿@@ 2
陽 2
雪@@ 2
順@@ 2
風@@ 2
馬@@ 2
高 2
黄@@ 2
黒@@ 2
공@@ 2
구@@ 2
군 2
나 2
나@@ 2
당@@ 2
도@@ 2
독@@ 2
라@@ 2
루 2
림 2
립@@ 2
말 2
명@@ 2
모 2
모@@ 2
문 2
문@@ 2
박 2
보@@ 2
본@@ 2
비@@ 2
사 2
사@@ 2
산@@ 2
서@@ 2
선@@ 2
성@@ 2
송@@ 2
수@@ 2
에@@ 2
영@@ 2
왕@@ 2
울@@ 2
윤@@ 2
의 2
의@@ 2
인@@ 2
자 2
장@@ 2
점 2
제@@ 2
조@@ 2
졸@@ 2
진 2
천@@ 2
추@@ 2
충@@ 2
특@@ 2
한 2
할@@ 2
회 2
ﺍ@@ 2
ﺐ 2
ﺮ@@ 2
ﺳ@@ 2
ﻠ@@ 2
ﻤ@@ 2
ﻥ 2
ﻴ@@ 2
（ 2
： 2
13. 1
15. 1
23. 1
25. 1
27. 1
28. 1
29. 1
7,5 1
Administr@@ 1
Although 1
Amér@@ 1
Après 1
Aralık 1
Arbeiten 1
Armee 1
Asoci@@ 1
Aunque 1
Avru@@ 1
Ayn@@ 1
Bahn@@ 1
Bahnhof 1
Bakanlığı 1
Batı 1
Bağ@@ 1
Biografía 1
Biographie 1
Blü@@ 1
Bruder 1
Buna 1
Burg 1
Büyük 1
Chrysomelidae 1
Chủ 1
Congr@@ 1
Conse@@ 1
Consejo 1
Daha 1
Damit 1
Denk@@ 1
Deutschen 1
Dezember 1
Direk@@ 1
Doppel@@ 1
Durante 1
Dân 1
Eig@@ 1
Eins@@ 1
Ekim 1
Ende 1
Entwicklung 1
Estados 1
Flü@@ 1
Following 1
Fransa 1
Frit@@ 1
Fue 1
Fuß@@ 1
Gegen@@ 1
Gemein@@ 1
Gemeinde@@ 1
Gleich@@ 1
Gmina 1
Grund@@ 1
Hamil@@ 1
Hier 1
Hymen@@ 1
Hạ 1
Hội 1
III. 1
Jahrhunder@@ 1
Jeux 1
Kilometer 1
Kirchen@@ 1
Komit@@ 1
Kommun@@ 1
Kongr@@ 1
Kreis 1
Kriegs@@ 1
Kuzey 1
Künst@@ 1
Kıbr@@ 1
Kıbrıs 1
Kız@@ 1
Leben 1
Lebens@@ 1
Lig 1
Linc@@ 1
Liste 1
Liên 1
Lý 1
Massachus@@ 1
Militär@@ 1
Ministerio 1
Män@@ 1
Müd@@ 1
Müz@@ 1
Một 1
Nach 1
Ngô 1
Nint@@ 1
Origin@@ 1
Orod@@ 1
Ort 1
Paragu@@ 1
Parlam@@ 1
Partei 1
Partisi 1
Philadel@@ 1
Phạm 1
Preu@@ 1
Privat@@ 1
Quan 1
Quốc 1
Reino 1
Rolle 1
Royaume 1
Rund@@ 1
Saison 1
Savaş@@ 1
Schrif@@ 1
Schrift@@ 1
Schweizer 1
Ses 1
Sicher@@ 1
Situation 1
Spiel 1
Stadt 1
Staffel 1
Städ@@ 1
Suisse 1
Tage 1
Thủ 1
Trường 1
Tür@@ 1
Tỉnh 1
Uhr 1
Une 1
Unido 1
Vater 1
Verein 1
Verein@@ 1
Verw@@ 1
Verwaltungs@@ 1
Vũ 1
Werk@@ 1
Westen 1
Wieder@@ 1
Wirtschaft 1
Yahud@@ 1
Yunan 1
Yük@@ 1
Zum 1
abilité 1
acak 1
access 1
accomp@@ 1
according 1
acion@@ 1
acto 1
actual 1
added 1
administr@@ 1
affa@@ 1
agement 1
agit 1
agricul@@ 1
aları 1
alcal@@ 1
alco@@ 1
alismo 1
alismus 1
alized 1
allem@@ 1
alre@@ 1
already 1
altung 1
altı 1
alın@@ 1
alış@@ 1
amente 1
americano 1
amerikanischen 1
amiento 1
ammlung 1
analy@@ 1
ancia 1
anciens 1
anderem 1
andır 1
andır@@ 1
announced 1
annt 1
annual 1
antas@@ 1
anterior 1
anı 1
aparec@@ 1
aplic@@ 1
appar@@ 1
appear@@ 1
appen 1
appr@@ 1
architec@@ 1
ardı 1
argum@@ 1
arily 1
arkad@@ 1
arlar 1
arlo 1
arrondissement 1
arse 1
artistes 1
associ@@ 1
assur@@ 1
asyon@@ 1
attach@@ 1
attemp@@ 1
auen 1
augment@@ 1
autonom@@ 1
autor@@ 1
average 1
ayud@@ 1
ayı 1
aît 1
años 1
ağı@@ 1
bahn@@ 1
bald 1
baller 1
bande 1
baş@@ 1
becom@@ 1
becoming 1
befinden 1
behind 1
beit 1
beleg@@ 1
believed 1
benef@@ 1
besi@@ 1
better 1
bilg@@ 1
bilim@@ 1
birbir@@ 1
bisch@@ 1
bless@@ 1
bras 1
bunden 1
bâ@@ 1
bé@@ 1
bü@@ 1
bır@@ 1
cai 1
canadi@@ 1
canción 1
cargo 1
caso 1
celle 1
cerem@@ 1
certain 1
cez@@ 1
chac@@ 1
champion 1
chanson 1
character@@ 1
characters 1
chim 1
chter 1
chung 1
cier@@ 1
cion@@ 1
claim@@ 1
clás@@ 1
colon@@ 1
colspan 1
comand@@ 1
comb@@ 1
combat 1
command@@ 1
commen@@ 1
commenc@@ 1
commence 1
commission 1
communauté 1
companies 1
compet@@ 1
compon@@ 1
composition 1
comprom@@ 1
compuesto 1
comte 1
comunidad 1
concept 1
conditions 1
condu@@ 1
confirm@@ 1
conform@@ 1
conoc@@ 1
conse@@ 1
consecu@@ 1
considered 1
consist@@ 1
constr@@ 1
consult@@ 1
contact 1
contract 1
contre 1
contribut@@ 1
correc@@ 1
cost 1
coup 1
couple 1
crim@@ 1
criti@@ 1
critic@@ 1
cuatro 1
culo 1
cump@@ 1
curs@@ 1
curso 1
cô@@ 1
cı 1
dado 1
daha 1
dair 1
daughter 1
dağ@@ 1
debut@@ 1
decor@@ 1
decre@@ 1
dedor 1
deleg@@ 1
depor@@ 1
dered 1
deren 1
derg@@ 1
desc@@ 1
descri@@ 1
dessin@@ 1
determin@@ 1
deur 1
deutsch 1
deutschen 1
devant 1
develop@@ 1
dico 1
diente 1
diers 1
diffus@@ 1
dific@@ 1
distinc@@ 1
diver@@ 1
división 1
doctor@@ 1
does 1
dont 1
doğdu 1
dungs@@ 1
durant 1
développement 1
dör@@ 1
dù 1
dü 1
dül@@ 1
dış@@ 1
earch 1
ecken 1
ecto 1
ectura 1
edil@@ 1
edrich 1
efforts 1
egos 1
ehri 1
eht 1
eigen@@ 1
einen 1
einigen 1
either 1
elabor@@ 1
elección 1
elected 1
elled 1
embre 1
emper@@ 1
emple 1
empres@@ 1
endas 1
enero 1
engl@@ 1
ensemble 1
ensive 1
entered 1
entre@@ 1
entreprise 1
entro 1
entstand 1
eos 1
equi@@ 1
equival@@ 1
erb@@ 1
erischen 1
erne@@ 1
eröff@@ 1
escal@@ 1
escuela 1
eser@@ 1
español 1
espec@@ 1
especially 1
essee 1
essenti@@ 1
estado 1
estruc@@ 1
eté 1
européenne 1
events 1
exerc@@ 1
existence 1
expan@@ 1
explic@@ 1
explo@@ 1
explor@@ 1
expos@@ 1
expression 1
exten@@ 1
exter@@ 1
eyen 1
eña 1
fabric@@ 1
fach@@ 1
fahr@@ 1
faire 1
fallen 1
famous 1
fand 1
fass@@ 1
favor 1
federal 1
fern 1
figure 1
fille 1
filmi 1
fois 1
followed 1
forced 1
fourth 1
frac@@ 1
franc@@ 1
frau 1
frühen 1
fully 1
funk@@ 1
futbol 1
führung 1
gebaut 1
gebi@@ 1
gebiet 1
geführt 1
gende 1
generally 1
genommen 1
gericht 1
gesch@@ 1
geç@@ 1
giao 1
gibi 1
gid@@ 1
goal 1
griech@@ 1
group@@ 1
große 1
grub@@ 1
grund 1
grund@@ 1
grâce 1
guerre 1
gén@@ 1
génér@@ 1
générale 1
göre 1
güç 1
hareket 1
herr@@ 1
himself 1
hinter 1
hoch@@ 1
hohe 1
hommes 1
honor 1
househ@@ 1
houses 1
hàng 1
häl@@ 1
hér@@ 1
ibt 1
ichte 1
ichten 1
icro@@ 1
ideas 1
identen 1
idir 1
ieren 1
ieved 1
ifs 1
ihtiy@@ 1
ilen 1
iler@@ 1
ileri 1
iligen 1
ilç@@ 1
imoine 1
impl@@ 1
implement@@ 1
importance 1
inaugur@@ 1
inclus@@ 1
income 1
increased 1
individual 1
industr@@ 1
indé@@ 1
inform@@ 1
información 1
insan 1
insan@@ 1
instruc@@ 1
intro@@ 1
invas@@ 1
invent@@ 1
invol@@ 1
iones 1
ismus 1
issent 1
itié 1
ización 1
izm 1
iß@@ 1
iç 1
jamais 1
jeune 1
joined 1
juillet 1
jähr@@ 1
kadar 1
kalan 1
kardeş@@ 1
karşı 1
kasab@@ 1
kauf@@ 1
không 1
kirche 1
klein@@ 1
kleinen 1
konn@@ 1
kontrol@@ 1
koş@@ 1
kreis 1
kurul@@ 1
kör@@ 1
lado 1
lage 1
lanc@@ 1
lanz@@ 1
lares 1
larger 1
largest 1
ların 1
larına 1
laun@@ 1
leading 1
leich@@ 1
leit@@ 1
lendi 1
length 1
lerin 1
lerine 1
leurs 1
leva 1
leş@@ 1
libre 1
lieutenant 1
ligne 1
lignes 1
linie 1
lir 1
liste 1
lived 1
livre 1
locales 1
lors 1
lée 1
lık@@ 1
madre 1
marc@@ 1
marca 1
marine 1
marqu@@ 1
marri@@ 1
maz 1
menin 1
menos 1
mente 1
mesi 1
meurt 1
mev@@ 1
milieu 1
militaire 1
military 1
minde 1
minim@@ 1
ministro 1
mitted 1
moderne 1
moins 1
montr@@ 1
monum@@ 1
mort 1
move 1
mtDNA 1
muer@@ 1
mujer 1
municipal@@ 1
muş 1
mà 1
más 1
môn 1
nachdem 1
names 1
ndan 1
near@@ 1
neue 1
neun 1
nine 1
niti@@ 1
nord 1
norm@@ 1
novel@@ 1
nuc@@ 1
nung 1
número 1
nı 1
oben 1
occasion 1
occidental 1
oce 1
octobre 1
ocup@@ 1
océ@@ 1
offered 1
offizi@@ 1
oficial 1
oires 1
okras@@ 1
oldu@@ 1
ología 1
olympi@@ 1
ommen 1
onnes 1
onship 1
onships 1
onyme 1
opened 1
oppos@@ 1
origin@@ 1
origine 1
oría 1
osos 1
otball 1
otras 1
oughout 1
outside 1
ouvern@@ 1
owned 1
oyun@@ 1
pair 1
parc 1
parenti@@ 1
partido 1
passe 1
película 1
pequ@@ 1
perform@@ 1
performances 1
performed 1
perman@@ 1
personn@@ 1
peu 1
phong 1
plata 1
politi@@ 1
politique 1
populaire 1
population 1
portation 1
pour@@ 1
pouv@@ 1
practic@@ 1
prendre 1
presid@@ 1
preu@@ 1
previ@@ 1
primera 1
prince 1
prison@@ 1
produk@@ 1
professor 1
programa 1
promin@@ 1
promotion 1
provincial 1
proxim@@ 1
präs@@ 1
prés@@ 1
présente 1
pró@@ 1
publik 1
publique 1
puis 1
puiss@@ 1
punkt 1
pén@@ 1
pér@@ 1
qualif@@ 1
quanti@@ 1
quarti@@ 1
quatre 1
quay 1
quelle 1
quement 1
quer 1
radic@@ 1
rail@@ 1
railway 1
raison 1
rait 1
rapid@@ 1
rather 1
rağ@@ 1
reached 1
redu@@ 1
registr@@ 1
releas@@ 1
relig@@ 1
religion 1
remained 1
rement 1
rend@@ 1
renov@@ 1
replaced 1
represented 1
research 1
resmi 1
resul@@ 1
result 1
result@@ 1
retour 1
retrouve 1
retur@@ 1
reun@@ 1
reven@@ 1
roul@@ 1
russ@@ 1
rä@@ 1
réc@@ 1
rée 1
rép@@ 1
ría 1
rı 1
saat 1
sahip@@ 1
saison 1
sait 1
sanat@@ 1
satis@@ 1
schaf@@ 1
scheid@@ 1
schein@@ 1
schluss 1
schul@@ 1
schutz 1
schutz@@ 1
seasons 1
seat 1
seen 1
segundo 1
seig@@ 1
seln 1
sement 1
senc@@ 1
separate 1
sept 1
serving 1
seul@@ 1
sibl@@ 1
silah@@ 1
similar 1
simpl@@ 1
sitz 1
siyas@@ 1
siz 1
siè@@ 1
sobre 1
sociation 1
sogen@@ 1
sont 1
sort 1
sour@@ 1
sozi@@ 1
specific 1
spect@@ 1
spor 1
sprach@@ 1
spre@@ 1
standen 1
stark 1
statisti@@ 1
statt 1
statt@@ 1
steller 1
stieg 1
strateg@@ 1
streng@@ 1
structure 1
student 1
ständi@@ 1
subsequ@@ 1
subsequently 1
succ@@ 1
succes@@ 1
sud 1
suggest@@ 1
superior 1
supported 1
supérieur 1
surface 1
suy 1
sä@@ 1
sí 1
tained 1
tales 1
tasar@@ 1
teams 1
teatro 1
techniques 1
tecn@@ 1
tehsil 1
teknik 1
telef@@ 1
telle 1
temple 1
terie 1
territorio 1
thay 1
theo 1
thode 1
those 1
ticas 1
tiene 1
timent 1
tionen 1
tiếng 1
took 1
toute 1
towards 1
town@@ 1
tradu@@ 1
trains 1
transfer 1
trat 1
travaux 1
trik 1
trois 1
trung 1
ttem@@ 1
types 1
tä@@ 1
tí@@ 1
tò 1
tür 1
tür@@ 1
tỉnh 1
ubic@@ 1
ufen 1
uktur 1
ulares 1
ularly 1
ultad 1
unique 1
units 1
universit@@ 1
urba@@ 1
ustos 1
util@@ 1
utiliz@@ 1
uğu 1
uş 1
valeur 1
vehic@@ 1
verband 1
verbunden 1
verkehr 1
verw@@ 1
verz@@ 1
veya 1
victoria 1
viel 1
vit 1
vive 1
voix 1
vue 1
vé@@ 1
vér@@ 1
weeks 1
weg 1
wei@@ 1
weit 1
weiten 1
welt@@ 1
werke 1
wert 1
worked 1
xième 1
ycidae 1
yolu 1
yonu 1
yoğ@@ 1
yse 1
yüz@@ 1
zas 1
zeit 1
zieh@@ 1
¡ 1
¬ 1
µ 1
¹ 1
À@@ 1
Â 1
Ç 1
È 1
È@@ 1
Égl@@ 1
États 1
Ê 1
Ó 1
Ödülleri 1
Ù@@ 1
Über 1
àm 1
ác 1
ách 1
álisis 1
ánh 1
át 1
áy 1
âce 1
ät 1
ätte 1
äuf@@ 1
çek 1
çift@@ 1
çok 1
çu 1
çı@@ 1
çık@@ 1
èque 1
écn@@ 1
écr@@ 1
élec@@ 1
élém@@ 1
éné@@ 1
érieur 1
étab@@ 1
état 1
étude 1
étudi@@ 1
évolu@@ 1
éx@@ 1
êm 1
ìm 1
ís@@ 1
òi 1
óng 1
ónimo 1
ôle 1
öch@@ 1
÷ 1
ùa 1
ùng 1
úl@@ 1
ût 1
über@@ 1
ücke 1
ühr@@ 1
üler 1
üne 1
üng@@ 1
üre@@ 1
üsse 1
üt 1
üz 1
Ą 1
Ć 1
Č 1
Đài 1
Đông 1
Đại 1
Đạo 1
Đảng 1
Độ 1
Ę 1
ę 1
Ě@@ 1
ě 1
Ğ 1
Ğ@@ 1
ği 1
ġ 1
ĥ 1
Ħ 1
Ī 1
į 1
İ 1
İsp@@ 1
İş@@ 1
ıca 1
ıcı 1
ıf@@ 1
ıma 1
ına 1
ınlar 1
ırlar 1
ıya 1
ığ@@ 1
ĵ@@ 1
ĺ@@ 1
ľ 1
Ł 1
Ń 1
Ń@@ 1
ŏ 1
œur 1
Ř@@ 1
Ş 1
Şir@@ 1
şehri 1
şey@@ 1
şi 1
şir@@ 1
ť 1
Ů@@ 1
ű 1
Ź 1
Ź@@ 1
Ż 1
Ž 1
Ə@@ 1
ơ 1
ơn 1
ương 1
ǃ 1
Ǎ@@ 1
ǎ 1
Ǧ@@ 1
ǧ 1
ǭ@@ 1
ǰ@@ 1
ɒ 1
ɓ@@ 1
ɘ@@ 1
ɟ@@ 1
ɡ 1
ɤ 1
ɧ@@ 1
ɨ 1
ɬ 1
ɲ 1
ɳ 1
ɹ@@ 1
ɾ 1
ʀ@@ 1
ʈ@@ 1
ʋ 1
ʏ 1
ʏ@@ 1
ʔ 1
ʕ 1
ʝ@@ 1
ʲ 1
ʻ 1
ˈ 1
ˤ@@ 1
˥ 1
˩ 1
̇ 1
̌ 1
̚ 1
̟ 1
̥ 1
̪ 1
̽ 1
Ͳ 1
ͳ 1
Έ@@ 1
Αγ@@ 1
Αγία 1
Αδ@@ 1
Αθήνα 1
Αι@@ 1
Αλέξανδ@@ 1
Αλεξ@@ 1
Αμ@@ 1
Αν@@ 1
Ανδρ@@ 1
Αρ@@ 1
Ατ@@ 1
Αυτοκρατορία 1
Βασ@@ 1
Βασίλ@@ 1
Βασιλ@@ 1
Βου@@ 1
Βυζαντιν@@ 1
Γ 1
Γεν@@ 1
Γεώργιος 1
Γρηγ@@ 1
Δήμ@@ 1
Δημ@@ 1
Ε 1
Ειρ@@ 1
Ελλ@@ 1
Ελλάδα 1
Επ@@ 1
Ερ@@ 1
Ευ@@ 1
Ευρώπη 1
Ζ 1
Η 1
Θ 1
Θέ@@ 1
Θεσσαλονίκη 1
Θεσσαλονίκης 1
Ιν@@ 1
Ιωάννης 1
Κέν@@ 1
Καν@@ 1
Κατ@@ 1
Κερ@@ 1
Κον@@ 1
Κορ@@ 1
Κρι@@ 1
Κυ@@ 1
Κωνσταντίνος 1
Κωνσταντινού@@ 1
Λ 1
Λε@@ 1
Λου@@ 1
Λού@@ 1
Μέ@@ 1
Μα@@ 1
Μακ@@ 1
Μακεδ@@ 1
Μαλ@@ 1
Ματ@@ 1
Με@@ 1
Μεγ@@ 1
Μελ@@ 1
Μερ@@ 1
Μεσ@@ 1
Μικ@@ 1
Μιχαήλ 1
Νέ@@ 1
Νέα 1
Νικόλα@@ 1
Νό@@ 1
Ξ@@ 1
Ορ@@ 1
Πέ@@ 1
Παγ@@ 1
Παλ@@ 1
Παναγ@@ 1
Πελ@@ 1
Περι@@ 1
Πλ@@ 1
Πο@@ 1
Πορ@@ 1
Πρ@@ 1
Πρά@@ 1
Ρ@@ 1
Σεπ@@ 1
Σκ@@ 1
Στέ@@ 1
Σταυ@@ 1
Στρατ@@ 1
Σύ@@ 1
Φ 1
Χαρ@@ 1
Ψ@@ 1
Ω@@ 1
Ως 1
άβ@@ 1
άδα 1
άκη 1
άλ@@ 1
άλα 1
άλλ@@ 1
άνδ@@ 1
άρα 1
άσι@@ 1
άστ@@ 1
έ 1
έδ@@ 1
έκα 1
έλος 1
έμ@@ 1
έπ@@ 1
έρα 1
ές 1
έσ@@ 1
ήμη 1
ήν 1
ήσ@@ 1
ίζ@@ 1
ίκ@@ 1
ίκη 1
ίλ@@ 1
ίν@@ 1
ίνη 1
ίνος 1
ίους 1
ίστ@@ 1
ίτ@@ 1
ίων 1
αία 1
αίο 1
αγγ@@ 1
αγκ@@ 1
αγόρ@@ 1
αθ@@ 1
αισ@@ 1
ακολ@@ 1
αμβ@@ 1
αμπ@@ 1
αμφ@@ 1
αν 1
ανή@@ 1
ανίας 1
ανθ@@ 1
ανου@@ 1
ανός 1
αξ@@ 1
αξι@@ 1
απε@@ 1
από 1
αρι@@ 1
αρκ@@ 1
αρμ@@ 1
αρχ@@ 1
αρχή 1
αρχία 1
αρχαί@@ 1
αρχος 1
ασία 1
αστική 1
ατ@@ 1
ατα 1
ατζ@@ 1
ατο@@ 1
ατρ@@ 1
αχ@@ 1
βαρ@@ 1
βασ@@ 1
βεν@@ 1
βιβλία 1
βολ@@ 1
βολή 1
βρ@@ 1
βόρ@@ 1
γελ@@ 1
γι@@ 1
γνωστ@@ 1
γραφή 1
γυ@@ 1
γύ@@ 1
δήμος 1
δία 1
δίδ@@ 1
δίν@@ 1
δα 1
δαν@@ 1
δε@@ 1
δεια 1
δημ@@ 1
δημοκρατ@@ 1
διά 1
διακ@@ 1
διαν@@ 1
διδ@@ 1
διοίκ@@ 1
διπλ@@ 1
δομ@@ 1
δος 1
δου@@ 1
δύνα@@ 1
είας 1
εγ@@ 1
ειρ@@ 1
εν@@ 1
επίσ@@ 1
επι@@ 1
επισκ@@ 1
ερ 1
εστ@@ 1
ετ 1
εφ@@ 1
εφαλ@@ 1
εχ@@ 1
εως 1
ζω@@ 1
ζωής 1
ην@@ 1
ησι@@ 1
ητ@@ 1
ητής 1
θάν@@ 1
θή@@ 1
θήκη 1
θα 1
θεια 1
θν@@ 1
θρω@@ 1
θυν@@ 1
θύν@@ 1
ιαν@@ 1
ιγ@@ 1
ιερ@@ 1
ιλι@@ 1
ιπ@@ 1
ισμός 1
ισσ@@ 1
ιστορ@@ 1
ιστορία 1
ιτ@@ 1
ιώ@@ 1
κάτω 1
κέν@@ 1
κα 1
καδημ@@ 1
και 1
κακ@@ 1
καλλι@@ 1
καν@@ 1
καρ@@ 1
κε@@ 1
κεν@@ 1
κεφ@@ 1
κι@@ 1
κλει@@ 1
κλη@@ 1
κν@@ 1
κο@@ 1
κον@@ 1
κοπος 1
κορ@@ 1
κράτος 1
κραν@@ 1
κρατ@@ 1
κυρί@@ 1
κω@@ 1
κόσμου 1
λή@@ 1
λαμβ@@ 1
λαϊκ@@ 1
λει@@ 1
λεια 1
λεκ@@ 1
λεξ@@ 1
λευ@@ 1
λους 1
λυ@@ 1
μέρος 1
μία 1
μακ@@ 1
μαλ@@ 1
ματ@@ 1
μαϊκ@@ 1
μβ@@ 1
μεν@@ 1
μεσ@@ 1
μετ@@ 1
μη@@ 1
μικ@@ 1
μν@@ 1
μο@@ 1
μονα@@ 1
μορ@@ 1
μουσική 1
μπο@@ 1
μυ@@ 1
μυθ@@ 1
νά@@ 1
νέ@@ 1
νίκ@@ 1
νας 1
νευ@@ 1
νη@@ 1
νης 1
νησ@@ 1
νοτι@@ 1
νόμ@@ 1
ξεις 1
οί@@ 1
ογραφία 1
οδ@@ 1
οειδ@@ 1
οια 1
οιν@@ 1
ολόγ@@ 1
ονία 1
οποι@@ 1
ορι@@ 1
οστ@@ 1
ουδ@@ 1
ουλ@@ 1
ουν 1
ουρ@@ 1
ουσ@@ 1
ουσα 1
ουσι@@ 1
οφ@@ 1
οχή 1
ούμεν@@ 1
πέ@@ 1
παλ@@ 1
παρά@@ 1
παρα@@ 1
παρουσία 1
πεί@@ 1
πει@@ 1
πεν@@ 1
περιφέρεια 1
πιστ@@ 1
πνευ@@ 1
ποι 1
πολύ 1
πολύ@@ 1
ποταμ@@ 1
που 1
πού@@ 1
προ 1
προ@@ 1
ράς 1
ρή 1
ρή@@ 1
ρίου 1
ρίων 1
ρακ@@ 1
ραμ@@ 1
ρατ@@ 1
ριν@@ 1
ρν@@ 1
ρου 1
ρου@@ 1
ροφή 1
ρού@@ 1
ς@@ 1
σή@@ 1
σί@@ 1
σεν@@ 1
σες 1
σκ@@ 1
σμ@@ 1
στά@@ 1
στή 1
στή@@ 1
στήρι@@ 1
στατ@@ 1
στερ@@ 1
συγκ@@ 1
συνα@@ 1
σώ@@ 1
τά 1
τέχ@@ 1
τή 1
τή@@ 1
ται 1
ταιν@@ 1
ταμ@@ 1
τεία 1
τελε@@ 1
τερ 1
τεχν@@ 1
τική 1
τικός 1
τοι 1
τοιχ@@ 1
τοκ@@ 1
τομ@@ 1
του@@ 1
τρία 1
τρι@@ 1
τρια 1
τω@@ 1
υζ@@ 1
υμ@@ 1
υπ@@ 1
υργ@@ 1
υσ@@ 1
φι@@ 1
φιλοσοφ@@ 1
φρά@@ 1
χά@@ 1
χημ@@ 1
χι@@ 1
χλ@@ 1
χρυσ@@ 1
χωρ@@ 1
ψυχ@@ 1
ωγ@@ 1
ωμα 1
ωπ@@ 1
ωρ@@ 1
ό 1
όβ@@ 1
όλη 1
όλου@@ 1
όμ@@ 1
όσ@@ 1
όχ@@ 1
ύτερ@@ 1
ώνων 1
ώρα 1
ϑ 1
ϙ 1
Ϝ 1
ϟ 1
Ϡ 1
ϡ 1
Ђ@@ 1
Є@@ 1
І@@ 1
Ј@@ 1
Љ@@ 1
Ў@@ 1
А 1
Авто@@ 1
Ад@@ 1
Ала@@ 1
Александ@@ 1
Александра 1
Анато@@ 1
Ара@@ 1
Бар@@ 1
Бела@@ 1
Благо@@ 1
Бли@@ 1
Бра@@ 1
Бре@@ 1
Бро@@ 1
Бу@@ 1
Бур@@ 1
България 1
В@@ 1
Василь@@ 1
Ве@@ 1
Вер@@ 1
Виктор 1
Воз@@ 1
Воло@@ 1
Воро@@ 1
Г 1
Георги@@ 1
Гер@@ 1
Гос@@ 1
Гри@@ 1
Гро@@ 1
Д 1
Дани@@ 1
Джу@@ 1
До 1
До@@ 1
Дон@@ 1
Е 1
Евге@@ 1
Екате@@ 1
Ер@@ 1
Жан 1
З 1
Йо@@ 1
Кав@@ 1
Казах@@ 1
Кал@@ 1
Кор@@ 1
Крас@@ 1
Ли@@ 1
Ль@@ 1
Май@@ 1
Македо@@ 1
Ман@@ 1
Мар@@ 1
Мария 1
Мен@@ 1
Мон@@ 1
Мор@@ 1
Нар@@ 1
Народ@@ 1
Но 1
Об@@ 1
Остро@@ 1
Павел 1
Пен@@ 1
Петер@@ 1
Под@@ 1
Полу@@ 1
Про@@ 1
РСФСР 1
Ре@@ 1
Рим@@ 1
Рос@@ 1
Рус@@ 1
Ря@@ 1
С 1
СР 1
Сан 1
Санкт 1
Север@@ 1
Северна 1
Серге@@ 1
Сим@@ 1
Ско@@ 1
Смо@@ 1
София 1
Сре@@ 1
Сы@@ 1
Т 1
Тай@@ 1
Тат@@ 1
Тър@@ 1
Тю@@ 1
Уи@@ 1
Украин@@ 1
Университе@@ 1
Федера@@ 1
Фран@@ 1
Хер@@ 1
Ц 1
Ча@@ 1
Эр@@ 1
Юж@@ 1
академия 1
ал@@ 1
ари@@ 1
арти@@ 1
бах 1
бе 1
бере@@ 1
бли@@ 1
български 1
бы 1
вар@@ 1
ват@@ 1
ве 1
вез@@ 1
вели@@ 1
ви 1
вили 1
вин 1
во@@ 1
вод@@ 1
вой 1
война 1
восто@@ 1
вре@@ 1
вро@@ 1
вски 1
вский 1
вый 1
гда 1
ге@@ 1
гель@@ 1
гни@@ 1
гов 1
года 1
гой 1
горе@@ 1
гори@@ 1
горо@@ 1
государ@@ 1
государствен@@ 1
град@@ 1
гре@@ 1
гро@@ 1
дан 1
дан@@ 1
дар@@ 1
движение 1
де 1
дем 1
ден@@ 1
деятельности 1
дж@@ 1
джа@@ 1
джи 1
дии 1
дин@@ 1
дне@@ 1
до 1
дове@@ 1
дор 1
дор@@ 1
дри@@ 1
ду@@ 1
ды@@ 1
ева 1
ед@@ 1
един@@ 1
ези@@ 1
език 1
ен@@ 1
ж 1
жа 1
же@@ 1
женный 1
жество 1
забо@@ 1
зависи@@ 1
зад 1
зар 1
зар@@ 1
зе@@ 1
зен@@ 1
зи 1
зо@@ 1
зы@@ 1
из@@ 1
изи@@ 1
им@@ 1
име@@ 1
ин@@ 1
институт 1
истин@@ 1
итель 1
ити 1
ить 1
йн@@ 1
йский 1
кан 1
като@@ 1
ква 1
ки 1
кия 1
кон@@ 1
космо@@ 1
кров@@ 1
кс@@ 1
ку 1
лан 1
ларов 1
ле 1
лек@@ 1
лиза@@ 1
лин@@ 1
лов 1
лов@@ 1
лс 1
лу 1
лы@@ 1
льный 1
льский 1
льян@@ 1
лё@@ 1
маке@@ 1
ман 1
мани@@ 1
март 1
мат 1
мат@@ 1
мбо@@ 1
мел@@ 1
мен 1
мен@@ 1
мии 1
мия 1
мо 1
мон 1
мя@@ 1
мян@@ 1
нав@@ 1
над@@ 1
народ@@ 1
наси@@ 1
нау@@ 1
не 1
нен@@ 1
ни 1
нис 1
ници 1
ния 1
нов@@ 1
нови@@ 1
ного 1
ное 1
ноември 1
нски 1
ны 1
ны@@ 1
ные 1
ных 1
ню@@ 1
няя 1
образ@@ 1
око@@ 1
он 1
они@@ 1
ор@@ 1
ори 1
ос@@ 1
остров 1
от@@ 1
отноше@@ 1
па@@ 1
пес@@ 1
пет@@ 1
пло@@ 1
по 1
пов 1
пове@@ 1
под@@ 1
подоб@@ 1
пост 1
пра@@ 1
право@@ 1
през 1
при 1
про@@ 1
пу@@ 1
пут@@ 1
ра 1
раб@@ 1
рак@@ 1
рал 1
рен 1
ри 1
рин 1
рио@@ 1
ро 1
рович 1
рополи@@ 1
росси@@ 1
рус@@ 1
рь@@ 1
рян@@ 1
санд@@ 1
сви@@ 1
се@@ 1
сей 1
сей@@ 1
си 1
сий 1
ски@@ 1
ско 1
сков@@ 1
ского 1
ской 1
ском 1
сла@@ 1
слав 1
служ@@ 1
смо@@ 1
сова 1
сово 1
спи@@ 1
сса@@ 1
сси@@ 1
стан 1
ств 1
ства 1
ствен@@ 1
ственной 1
сти 1
стов 1
стой 1
стра@@ 1
су@@ 1
съ@@ 1
сь 1
тай@@ 1
тар 1
тер@@ 1
тий 1
тина 1
то 1
тов 1
тов@@ 1
той 1
тон 1
тон@@ 1
тра@@ 1
три@@ 1
ту@@ 1
уго@@ 1
ул 1
ун@@ 1
ф@@ 1
фа@@ 1
фе 1
федера@@ 1
фи 1
фи@@ 1
физи@@ 1
фо@@ 1
фон 1
хар@@ 1
хард 1
хов 1
хозяй@@ 1
ца@@ 1
це 1
центр 1
цер@@ 1
ции 1
цы 1
ча 1
чат@@ 1
че@@ 1
чев 1
ческая 1
ческой 1
чик 1
чина 1
чно 1
чё@@ 1
ша 1
ша@@ 1
шан@@ 1
ше@@ 1
ши@@ 1
шки 1
шко@@ 1
шу@@ 1
ща@@ 1
щен@@ 1
щена 1
ье 1
ья 1
ья@@ 1
эн@@ 1
ю@@ 1
я@@ 1
язык 1
ян@@ 1
ёл 1
ём@@ 1
ёр@@ 1
ј 1
љ@@ 1
ѣ@@ 1
Ѯ 1
ѯ 1
Ѱ 1
ҝ@@ 1
ң@@ 1
ҳ@@ 1
ҹ@@ 1
ӧ 1
Ճ@@ 1
Յ@@ 1
Չ@@ 1
Պ@@ 1
Ջ@@ 1
Ց@@ 1
Ք@@ 1
է 1
ը@@ 1
թ 1
ժ@@ 1
լ 1
խ 1
խ@@ 1
ծ 1
ղ 1
ճ 1
ճ@@ 1
մ 1
չ 1
պ 1
ջ 1
ռ 1
ք 1
֛ 1
֥ 1
ֶ 1
ֿ@@ 1
ט 1
כ 1
ם@@ 1
פ 1
װ@@ 1
ء 1
ء@@ 1
آب@@ 1
آخر 1
آذ@@ 1
آذرب@@ 1
آیت 1
أ 1
أبي 1
أح@@ 1
أد@@ 1
أس 1
أش@@ 1
أع@@ 1
ألف 1
أم 1
أمين 1
أن 1
أه@@ 1
أي@@ 1
أُ@@ 1
إن 1
إنج@@ 1
إنه 1
إي@@ 1
ئ 1
ئیں 1
ائد 1
ائر 1
ائی 1
ابة 1
اتر 1
اته 1
اتي 1
اج 1
اجد 1
اح 1
اد@@ 1
ادت 1
ادر 1
ادل 1
ارب 1
ارد 1
اردو 1
اره 1
اری 1
اسلا@@ 1
اسلام 1
اسم@@ 1
اسی 1
اش 1
اصطلاح 1
اصل 1
اض 1
اضي 1
اط 1
اع 1
اع@@ 1
اعد 1
اعي 1
اغ@@ 1
اف 1
افغانستان 1
افي 1
اقبال 1
اك 1
الأغ@@ 1
الأن@@ 1
الأولى 1
الأي@@ 1
الإسرائ@@ 1
الإسلامية 1
البار@@ 1
البرو@@ 1
التعل@@ 1
الث@@ 1
الثاني 1
الجديد 1
الجمع@@ 1
الجمه@@ 1
الجنوب 1
الجنوبية 1
الجيش 1
الحياة 1
الخط@@ 1
الخي@@ 1
الدولة 1
الرح@@ 1
الرو@@ 1
الري@@ 1
الرياض@@ 1
الزي@@ 1
الساح@@ 1
السع@@ 1
السعودية 1
الشر@@ 1
الشه@@ 1
الض@@ 1
الطريق 1
الظ@@ 1
العراق 1
العزیز 1
العسك@@ 1
العلا@@ 1
الفلسط@@ 1
الفي@@ 1
القدي@@ 1
القر@@ 1
القرآن 1
القص@@ 1
القط@@ 1
الكل@@ 1
الكنيسة 1
الكيمي@@ 1
اللہ 1
المت@@ 1
المتحدة 1
المث@@ 1
المح@@ 1
المخت@@ 1
المد@@ 1
المر@@ 1
المرأة 1
المس@@ 1
المسل@@ 1
المشتر@@ 1
المغربية 1
المق@@ 1
المل@@ 1
المنا@@ 1
الموس@@ 1
المي@@ 1
الناس 1
النظ@@ 1
اله 1
الوز@@ 1
الوطني 1
الولا@@ 1
اليا 1
اليمن 1
الک@@ 1
الی 1
امات 1
امه 1
انة 1
انس@@ 1
انه 1
انی 1
انے 1
اوق@@ 1
اول 1
اومة 1
اون 1
اً 1
اکبر 1
اگر@@ 1
باد@@ 1
باش@@ 1
باط 1
بالإ@@ 1
بالق@@ 1
بان@@ 1
بح@@ 1
بر 1
برابر 1
برو@@ 1
بريل 1
بزرگ 1
بس@@ 1
بط 1
بع 1
بغداد 1
بق@@ 1
بك@@ 1
بلوچ 1
بنت 1
بنو 1
بنى 1
بو 1
بور 1
بير 1
بير@@ 1
بيع 1
بيل 1
بيلة 1
بين 1
بکر 1
بھ@@ 1
تا 1
تا@@ 1
تاج 1
تاج@@ 1
تخت 1
تر 1
تر@@ 1
تس@@ 1
تش 1
تش@@ 1
تص@@ 1
تصني@@ 1
تف@@ 1
تق@@ 1
تقد@@ 1
تن 1
تو 1
تو@@ 1
تور@@ 1
تون@@ 1
تونس 1
تي@@ 1
تی 1
ثة 1
ثلاث@@ 1
جا 1
جا@@ 1
جار 1
جال 1
جام@@ 1
جامع 1
جامعة 1
جان 1
جب 1
جة 1
جد@@ 1
جر@@ 1
جرة 1
جس 1
جم@@ 1
جماعة 1
جنة 1
جون 1
جی 1
حاب 1
حاد@@ 1
حام@@ 1
حة 1
حد@@ 1
حدي@@ 1
حزب 1
حك@@ 1
حكومة 1
حل@@ 1
حمل 1
حية 1
حی@@ 1
خار@@ 1
خام@@ 1
خر@@ 1
خلا@@ 1
خمسة 1
خوا@@ 1
خيرة 1
خی@@ 1
دا 1
دائرة 1
دار@@ 1
دان@@ 1
داً 1
درا@@ 1
درو@@ 1
دریا 1
دز 1
دس 1
دع@@ 1
دفع 1
دمشق 1
ده 1
دور@@ 1
دوس@@ 1
دوم 1
ديد 1
دیا 1
دیث 1
دین 1
ذات 1
ذهب 1
ذو 1
رئ@@ 1
رئيس 1
رائ@@ 1
رات 1
راج 1
رار 1
راس 1
ران@@ 1
رانی 1
ربع 1
ربية 1
رج@@ 1
رح@@ 1
رس 1
رف@@ 1
رقم 1
رمض@@ 1
رن@@ 1
رواية 1
روت 1
روح@@ 1
روحانی 1
روز 1
روع 1
روم 1
ريا 1
ریز 1
زار 1
زان 1
زر@@ 1
زيادة 1
زيد 1
زی@@ 1
سائ@@ 1
سابق 1
ساحل 1
ساری 1
سام 1
سامان 1
سبيل 1
ستان 1
ستون 1
سد 1
سرکاری 1
سعو@@ 1
سف@@ 1
سفر 1
سكر 1
سلا@@ 1
سلسلة 1
سلط@@ 1
سلی@@ 1
سم 1
سند@@ 1
سندھ 1
سور@@ 1
سوريا 1
سوس@@ 1
سول@@ 1
سوي@@ 1
سوی 1
سية 1
سيدي 1
سی 1
سید 1
سیم 1
سین 1
شام 1
شب@@ 1
شري@@ 1
شمال 1
شو@@ 1
شیر 1
ص 1
صاح@@ 1
صاد@@ 1
صار 1
صاف 1
صالح 1
صة 1
صر@@ 1
صف@@ 1
صن@@ 1
صنع@@ 1
صور 1
صوفی 1
صي@@ 1
ضر@@ 1
طالب 1
طان 1
طة 1
طريقة 1
طق 1
طل 1
طل@@ 1
طلاق 1
طية 1
عباس 1
عبر 1
عرب 1
عش@@ 1
عص@@ 1
عق@@ 1
علماء 1
علي@@ 1
علی@@ 1
عمران 1
عمرو 1
عمو@@ 1
عه 1
عہ@@ 1
غ 1
غز@@ 1
غور 1
غي@@ 1
فا@@ 1
فارس 1
فان 1
فر 1
فري@@ 1
فس@@ 1
فظ 1
فق 1
فو@@ 1
فور 1
فور@@ 1
قاب@@ 1
قات 1
قان@@ 1
قب@@ 1
قبة 1
قبل@@ 1
قة 1
قرا@@ 1
قطب 1
قطر 1
قع 1
قل 1
قلة 1
قناة 1
قو@@ 1
قہ 1
قی@@ 1
كا 1
كاتب 1
كار@@ 1
كت 1
كتب@@ 1
كرا@@ 1
كس 1
كل 1
كمة 1
كو 1
كو@@ 1
كوك@@ 1
كي 1
كين 1
لات 1
لاد 1
لال 1
لان@@ 1
لبنان 1
لتح@@ 1
لح@@ 1
لد 1
لر 1
لس 1
للح@@ 1
لم@@ 1
ليب 1
ليل 1
ماء 1
مات 1
مارس 1
ماس@@ 1
مال@@ 1
مالك 1
مالي 1
مام 1
مان@@ 1
ماني 1
ماں 1
مب@@ 1
مبار@@ 1
مت@@ 1
متح@@ 1
مثل 1
محل 1
مختار 1
مدر@@ 1
مدرسة 1
مذ@@ 1
مرك@@ 1
مرو@@ 1
مرکز 1
مری@@ 1
مز@@ 1
مسجد 1
مسر@@ 1
مسل@@ 1
مسلم 1
مش@@ 1
مشرق 1
مصر 1
مض@@ 1
مط@@ 1
مغرب 1
مق@@ 1
مقابل 1
ملة 1
ملك 1
مم@@ 1
منا 1
منية 1
موت 1
مور 1
مور@@ 1
مون@@ 1
مير@@ 1
می 1
مینی 1
نئی 1
ناد@@ 1
ناصر 1
نجلي@@ 1
نح@@ 1
نر@@ 1
نصف 1
نف 1
نف@@ 1
نقطة 1
نوب@@ 1
نور 1
نور@@ 1
نوف@@ 1
نيا 1
نگ@@ 1
هاب 1
هة 1
هذا 1
هيم 1
هٔ 1
وأ@@ 1
واء 1
وار 1
والا 1
والش@@ 1
والي 1
وان 1
وة 1
وح@@ 1
وحد@@ 1
ودي 1
ورت 1
وز 1
وز@@ 1
وسط 1
وسی 1
وش@@ 1
وصل 1
وض 1
وط 1
وع@@ 1
وعلى 1
وغ@@ 1
وقال 1
وقف 1
ومة 1
ومي 1
وني 1
ونية 1
ونی@@ 1
وه@@ 1
ويات 1
وُ@@ 1
ى@@ 1
يب@@ 1
يت 1
يح@@ 1
يخ 1
يدة 1
يران 1
يرة 1
يز 1
يز@@ 1
يس@@ 1
يش@@ 1
يفة 1
يق 1
يك@@ 1
يلي 1
يم 1
يمكن 1
يمي@@ 1
يمية 1
ينية 1
يه 1
يين 1
ً@@ 1
ًا 1
ٍ@@ 1
٠@@ 1
١@@ 1
٥@@ 1
٨ 1
ٹ@@ 1
ٹھ@@ 1
پ 1
پر@@ 1
پرو@@ 1
پنج@@ 1
ڃ@@ 1
چ 1
چر@@ 1
ڈیا 1
ڌ@@ 1
ژ 1
ڙ@@ 1
ڤ@@ 1
ک 1
کرم 1
کری 1
کش@@ 1
کشمیر 1
کمال 1
ګ@@ 1
گان 1
ڵ 1
ڻ 1
ڻ@@ 1
ہ@@ 1
ہو 1
ہور 1
ۇ@@ 1
یا 1
ید 1
یس 1
یل 1
یم 1
یون@@ 1
یک 1
یں 1
ۍ 1
ې@@ 1
ۑ 1
ە@@ 1
۷ 1
۸ 1
ܒ 1
ܓ@@ 1
ܛ 1
ܟ 1
ܡ 1
ܩ 1
ܬ 1
ܵ@@ 1
ܸ@@ 1
ߊ 1
ߋ@@ 1
ߌ 1
ߌ@@ 1
ߏ@@ 1
ߕ@@ 1
ߖ@@ 1
ߘ@@ 1
ߡ@@ 1
ߣ@@ 1
ं 1
ं@@ 1
ंग 1
कम 1
कश 1
कान 1
के 1
गा 1
गि@@ 1
गुरु 1
गौ@@ 1
ङ 1
चंद 1
चा@@ 1
ज@@ 1
जय 1
जि@@ 1
जी 1
ड@@ 1
डु 1
ण@@ 1
त@@ 1
तन 1
तम 1
ता 1
थ 1
था 1
दास 1
दिल 1
दी 1
दू 1
ध@@ 1
धार 1
नई 1
नदी 1
नर 1
ना@@ 1
प 1
पंजाब 1
फ 1
ब 1
बा 1
भ@@ 1
भा@@ 1
महा@@ 1
मा@@ 1
मान 1
मीर 1
मुंबई 1
रम 1
रमा@@ 1
रह 1
राम 1
राव 1
रु@@ 1
रूप 1
रे@@ 1
रो@@ 1
ल 1
लि 1
लि@@ 1
ली@@ 1
लु 1
लू 1
ले 1
लो 1
ळ@@ 1
वत 1
विक 1
श 1
शान 1
स 1
सं@@ 1
सम 1
सा@@ 1
साम 1
सिद 1
सिन 1
सु@@ 1
हिंदी 1
़ 1
ि@@ 1
ी 1
ु 1
ै 1
ौ 1
ौ@@ 1
ौर 1
ই@@ 1
ও@@ 1
ক@@ 1
গ 1
চ@@ 1
ট 1
ট@@ 1
ড 1
দ 1
দ@@ 1
ন 1
ভ@@ 1
য 1
ল 1
শ 1
ষ@@ 1
ী 1
ো@@ 1
ਖ@@ 1
ਗ 1
ਗ@@ 1
ਥ 1
ਦ 1
ਦ@@ 1
ਵ@@ 1
ਸ 1
ਹ@@ 1
਼ 1
ੁ@@ 1
ੂ 1
ੱ@@ 1
ચ@@ 1
છ@@ 1
જ@@ 1
ત@@ 1
દ 1
દ@@ 1
ધ@@ 1
ન@@ 1
મ 1
સ 1
હ@@ 1
ુ@@ 1
ે@@ 1
ો 1
ો@@ 1
ச@@ 1
த 1
ன@@ 1
ப 1
ம 1
ய@@ 1
ஸ 1
ா@@ 1
ி@@ 1
ு 1
ு@@ 1
ே@@ 1
ோ@@ 1
ಕ@@ 1
ದ@@ 1
ನ@@ 1
ಳ@@ 1
ಾ@@ 1
ം 1
ക 1
ങ 1
ച 1
ച@@ 1
ത 1
ത@@ 1
ന@@ 1
പ 1
ഭ 1
മ@@ 1
യ@@ 1
ര@@ 1
റ@@ 1
ള@@ 1
ാ 1
ാ@@ 1
ു@@ 1
േ@@ 1
ോ@@ 1
ං@@ 1
අ@@ 1
ක@@ 1
ජ@@ 1
ත 1
න 1
න@@ 1
ප@@ 1
ය@@ 1
ල@@ 1
ශ 1
ශ@@ 1
ස@@ 1
ළ@@ 1
ි@@ 1
ී 1
ො@@ 1
ก@@ 1
กร@@ 1
กรม@@ 1
ข 1
ฃ 1
ฅ 1
ฅ@@ 1
ฆ 1
ง 1
จ 1
จ@@ 1
จันท@@ 1
จี@@ 1
ฉ 1
ชา 1
ชา@@ 1
ชี@@ 1
ซ 1
ฌ 1
ญ 1
ฎ 1
ฏ 1
ฐ 1
ฑ 1
ฒ 1
ณ@@ 1
ด 1
ดิ 1
ดี 1
ติ@@ 1
ถ 1
ท@@ 1
ทธ 1
ธ 1
ธ@@ 1
บ 1
บาท@@ 1
บิน 1
บู@@ 1
ป 1
ป@@ 1
ปร@@ 1
ประ@@ 1
ปล@@ 1
ผ 1
ฝ 1
พ 1
พ@@ 1
พง@@ 1
พิ@@ 1
ฟ 1
ภ 1
ภิ@@ 1
มะ@@ 1
มี 1
ย 1
ยุ@@ 1
ร@@ 1
รัช@@ 1
รา@@ 1
รุง 1
ฤ@@ 1
ล@@ 1
ลง@@ 1
ละ@@ 1
ลักษ@@ 1
ลา@@ 1
ว 1
วะ 1
วิน 1
ศ 1
ษ@@ 1
ส 1
สงคราม 1
สม@@ 1
สา@@ 1
สิทธิ 1
สู@@ 1
ห 1
หัว 1
ฬ 1
อ 1
อ@@ 1
อก 1
อย@@ 1
ฮ 1
ะ@@ 1
ักษ@@ 1
ำ@@ 1
ิ 1
ิ@@ 1
ี@@ 1
ู 1
ู@@ 1
เก@@ 1
เจ 1
เด 1
เปร@@ 1
เว@@ 1
โอ@@ 1
ไฟ@@ 1
๐ 1
๑ 1
๒ 1
๓ 1
๔ 1
๕ 1
๖ 1
๗ 1
๘ 1
๙ 1
ງ 1
ງ@@ 1
ຈ@@ 1
ຍ@@ 1
ທ@@ 1
ນ 1
ນ@@ 1
ບ@@ 1
ວ@@ 1
ອ@@ 1
ະ@@ 1
ັ@@ 1
ີ@@ 1
ໍ@@ 1
ཐ@@ 1
ཕ@@ 1
བ@@ 1
ི@@ 1
ུ 1
ླ 1
မ@@ 1
ဝ@@ 1
့ 1
း@@ 1
ြ@@ 1
ბ 1
ბ@@ 1
დ@@ 1
ზ@@ 1
მ@@ 1
წ@@ 1
ሀ@@ 1
ሃ@@ 1
ሆ 1
ሊ 1
ሌ@@ 1
መ 1
ማ 1
ሞ@@ 1
ሠ@@ 1
ሩ 1
ሬ 1
ሮ 1
ሴ 1
ሶ@@ 1
ሻ@@ 1
ሾ@@ 1
ቂ 1
ቄ 1
ቅ 1
ቢ@@ 1
ተ 1
ቲ@@ 1
ቸ@@ 1
ች@@ 1
ነ 1
ኔ@@ 1
ኛ 1
አ 1
እ@@ 1
ኦ@@ 1
ኪ 1
ካ@@ 1
ክ 1
ዋ 1
ዐ@@ 1
ዕ 1
ዘ 1
ዜ 1
ዳ 1
ዴ 1
ዶ 1
ጊ@@ 1
ጋ 1
ጋ@@ 1
ጌ 1
ጌ@@ 1
ግ 1
ጐ@@ 1
ጣ 1
ጦ@@ 1
ጨ@@ 1
ጫ 1
ጮ 1
ጮ@@ 1
ፅ@@ 1
ፈ@@ 1
ፋ@@ 1
ፍ 1
፡ 1
ᑖ@@ 1
ᑭ@@ 1
ᒃ 1
ᓄ@@ 1
ᓇ@@ 1
ᕗ@@ 1
ᕿ@@ 1
ᖃ@@ 1
ᖅ@@ 1
ត 1
ត@@ 1
ម 1
ម@@ 1
រ@@ 1
ហ 1
ហ@@ 1
ី 1
ី@@ 1
ែ@@ 1
ោ@@ 1
៊ 1
្ 1
ᵗ 1
ᵘ 1
ḏ 1
ḗ 1
ḡ@@ 1
Ḥ 1
ḩ@@ 1
ḫ@@ 1
Ḳ@@ 1
ḳ 1
ḷ@@ 1
ṑ@@ 1
ṣ 1
ẖ 1
ạch 1
ạnh 1
ảng 1
ảo 1
ần 1
ầu 1
Ẹ 1
ẽ@@ 1
ết 1
ệm 1
ỉ@@ 1
Ọ 1
ổ 1
ột 1
ợ 1
ụ 1
ἁ@@ 1
ἑ@@ 1
ἒ 1
Ἔ@@ 1
ἢ@@ 1
ἥ@@ 1
ἱ 1
ἷ@@ 1
Ἵ@@ 1
ὅ@@ 1
Ὄ@@ 1
ὐ 1
ὑ@@ 1
ὔ@@ 1
ὕ@@ 1
ὤ@@ 1
Ὦ@@ 1
ὰ@@ 1
ὴ@@ 1
ὸ 1
ὺ 1
ᾍ@@ 1
ᾱ@@ 1
ᾳ 1
᾿ 1
ῆ 1
ῑ 1
ῖ 1
῞ 1
ῳ 1
ῷ 1
ῷ@@ 1
‍ 1
‛ 1
‰ 1
₨ 1
™ 1
⅓ 1
⅛ 1
Ⅽ 1
↵ 1
∑ 1
☞ 1
✓ 1
ⲁ 1
ⲁ@@ 1
Ⲡ@@ 1
ⲣ@@ 1
ⵃ@@ 1
ⵏ@@ 1
ⵓ 1
ⵜ 1
、 1
《 1
》 1
あ 1
い 1
う 1
え@@ 1
お@@ 1
が 1
き@@ 1
く@@ 1
け@@ 1
さ 1
し@@ 1
ず@@ 1
だ 1
ち@@ 1
な@@ 1
に@@ 1
ぬ@@ 1
は@@ 1
ほ 1
ま 1
み@@ 1
ゆ@@ 1
よ 1
よ@@ 1
ら 1
ら@@ 1
ろ@@ 1
わ@@ 1
ん 1
ァ 1
ァ@@ 1
ア 1
ウ@@ 1
ェ@@ 1
ク 1
シ 1
ソ@@ 1
チ 1
チ@@ 1
ト 1
バ@@ 1
ブ@@ 1
ペ@@ 1
マ 1
ミ@@ 1
ラ@@ 1
ロ 1
ン 1
ㄴ 1
ㅎ 1
ㅏ 1
与@@ 1
丘 1
业@@ 1
东@@ 1
中国 1
中國 1
丹 1
丹@@ 1
主 1
主义 1
乾 1
五 1
五@@ 1
亨 1
他 1
他@@ 1
代@@ 1
任@@ 1
份 1
伍 1
休 1
伸 1
何 1
何@@ 1
佛@@ 1
作 1
佟@@ 1
俊 1
修 1
倍 1
偁 1
僚@@ 1
兄 1
公@@ 1
六@@ 1
兰 1
关@@ 1
円 1
冈 1
冨@@ 1
冰 1
凱@@ 1
出 1
別@@ 1
利 1
制 1
則@@ 1
剛@@ 1
剣@@ 1
副@@ 1
割 1
功 1
功@@ 1
加 1
助 1
勇 1
務@@ 1
匝@@ 1
卒@@ 1
卓@@ 1
協@@ 1
印@@ 1
县 1
友 1
反@@ 1
发 1
叔@@ 1
可@@ 1
合 1
君@@ 1
吳@@ 1
吾 1
呂@@ 1
問 1
善@@ 1
喜@@ 1
四 1
回@@ 1
囲@@ 1
围@@ 1
国 1
国@@ 1
圀@@ 1
國 1
園 1
圣@@ 1
在@@ 1
圳@@ 1
埜 1
域@@ 1
基 1
埼@@ 1
堂@@ 1
堅@@ 1
場 1
堺@@ 1
壁 1
夏 1
多@@ 1
大 1
天 1
失@@ 1
奇@@ 1
奥 1
奥@@ 1
奧 1
女性 1
好 1
始 1
婁 1
媛@@ 1
学 1
学@@ 1
孫 1
宁@@ 1
宅 1
守@@ 1
宗 1
客 1
宣@@ 1
室@@ 1
寅 1
寛@@ 1
寺 1
寺@@ 1
寿 1
将@@ 1
尚 1
尼 1
尾 1
居 1
岩 1
岳 1
岸 1
崇 1
崇@@ 1
嶋@@ 1
嶽 1
州@@ 1
工@@ 1
巧 1
巩@@ 1
己 1
巻 1
師 1
帯@@ 1
常@@ 1
年 1
年@@ 1
庫@@ 1
庭 1
庭@@ 1
延 1
建@@ 1
弦@@ 1
張@@ 1
強 1
强 1
彌 1
彌@@ 1
彥@@ 1
彼 1
律 1
後 1
後@@ 1
得@@ 1
徳 1
徵@@ 1
徽 1
怒@@ 1
恋 1
恋@@ 1
恪@@ 1
悌@@ 1
悠 1
悦 1
情 1
惠@@ 1
慈 1
慕@@ 1
憲 1
戈@@ 1
成立 1
房@@ 1
扇@@ 1
手 1
才@@ 1
拳@@ 1
挙@@ 1
振@@ 1
掛@@ 1
揭@@ 1
播@@ 1
撲 1
操 1
收 1
政 1
敦 1
斎@@ 1
斯@@ 1
族 1
旭@@ 1
时@@ 1
旿 1
昂 1
昆@@ 1
昇@@ 1
昊 1
晁 1
時@@ 1
時代 1
晋@@ 1
晴 1
暁@@ 1
暉 1
暎@@ 1
暢@@ 1
曜@@ 1
更@@ 1
曹@@ 1
曽@@ 1
曾@@ 1
會 1
會@@ 1
望 1
末@@ 1
朴 1
杜@@ 1
杭@@ 1
枕 1
枕@@ 1
枝 1
柳 1
柴@@ 1
柿@@ 1
栗@@ 1
根 1
根@@ 1
桑 1
梁@@ 1
梠 1
梦@@ 1
梧 1
梨@@ 1
梶@@ 1
棄@@ 1
棋 1
棠 1
植@@ 1
楊@@ 1
楢@@ 1
業 1
楽@@ 1
榎 1
権@@ 1
樫 1
橡@@ 1
次@@ 1
歌 1
殿 1
母@@ 1
比@@ 1
氏 1
民@@ 1
気 1
気@@ 1
汗 1
汰 1
沈@@ 1
河 1
沼@@ 1
泉 1
法 1
法@@ 1
波@@ 1
洪 1
洵 1
活 1
流@@ 1
济@@ 1
浙@@ 1
浮@@ 1
海 1
涛 1
润@@ 1
淸@@ 1
清朝 1
渓@@ 1
游 1
湖 1
湛@@ 1
湯@@ 1
満@@ 1
準 1
溝@@ 1
滉 1
滋@@ 1
漁 1
漱 1
潟 1
潤 1
潮@@ 1
澳門 1
瀧 1
烏@@ 1
然 1
煥 1
照@@ 1
熹 1
爭@@ 1
片@@ 1
版 1
物@@ 1
王@@ 1
玟 1
现@@ 1
玲 1
珠@@ 1
現 1
現@@ 1
琛 1
琢@@ 1
琵@@ 1
琶@@ 1
瑜 1
瑠@@ 1
瑳@@ 1
甄@@ 1
生@@ 1
由@@ 1
申@@ 1
电@@ 1
男@@ 1
男子 1
畑 1
畠@@ 1
當 1
畿@@ 1
疾 1
病 1
症 1
痛@@ 1
登 1
發 1
白@@ 1
皆@@ 1
皇帝 1
益@@ 1
目 1
瞳 1
矢 1
矩@@ 1
石 1
碓@@ 1
碧 1
礒@@ 1
社@@ 1
社会@@ 1
祐 1
祖 1
祥@@ 1
祭 1
禹@@ 1
秀 1
私@@ 1
秋 1
秦@@ 1
税 1
稔 1
種@@ 1
稲@@ 1
積 1
穣 1
空@@ 1
童 1
端 1
竿 1
策 1
箕@@ 1
節 1
範 1
築 1
精@@ 1
紀@@ 1
納 1
純@@ 1
素 1
紳@@ 1
統@@ 1
継@@ 1
綺 1
綺@@ 1
総@@ 1
緣 1
縄 1
縄@@ 1
縣 1
繁@@ 1
纥 1
维@@ 1
缘@@ 1
置@@ 1
群@@ 1
羽 1
羽@@ 1
翔 1
翔@@ 1
耀 1
耳 1
聃 1
聞 1
肃 1
育@@ 1
胡@@ 1
能@@ 1
脇 1
脩@@ 1
腐 1
腰 1
自治@@ 1
致@@ 1
興@@ 1
航 1
花 1
花@@ 1
芹 1
苏 1
英 1
茨@@ 1
茶 1
茶@@ 1
草@@ 1
荒@@ 1
莉@@ 1
莞@@ 1
菜@@ 1
華@@ 1
萌 1
萩 1
落@@ 1
葵 1
蘭 1
虎@@ 1
蛍 1
行@@ 1
術 1
衛 1
衛@@ 1
袖@@ 1
裂@@ 1
要@@ 1
覇 1
見 1
規@@ 1
解 1
解@@ 1
言@@ 1
訓@@ 1
記 1
誓@@ 1
語@@ 1
調@@ 1
諫@@ 1
謙 1
话 1
豆@@ 1
象@@ 1
豪 1
貞@@ 1
貢 1
賀 1
賢@@ 1
路@@ 1
車@@ 1
軍 1
軒 1
軽@@ 1
軾 1
輪 1
辛@@ 1
辽@@ 1
迁 1
近 1
远@@ 1
這 1
遊 1
遼@@ 1
邉 1
邊 1
邑 1
邦 1
郁@@ 1
郡 1
鄂@@ 1
鄒@@ 1
里@@ 1
重 1
釜@@ 1
鍾@@ 1
鑊 1
铃@@ 1
锦@@ 1
長 1
門 1
間 1
闘@@ 1
门@@ 1
陈 1
陈@@ 1
陕@@ 1
陳 1
隼@@ 1
雍@@ 1
雲 1
靖 1
非 1
非@@ 1
靱@@ 1
鞏 1
鞏@@ 1
韶@@ 1
須 1
頭@@ 1
顏@@ 1
额@@ 1
餘 1
館@@ 1
香港 1
駅 1
駒 1
駒@@ 1
駿@@ 1
马@@ 1
髙@@ 1
鬥 1
魯 1
鮮 1
鳳 1
鴇@@ 1
鴨@@ 1
麻@@ 1
麿 1
黃@@ 1
黎@@ 1
黑@@ 1
黒 1
齋@@ 1
齐@@ 1
龙@@ 1
가 1
강 1
건 1
고@@ 1
구 1
국 1
금@@ 1
기@@ 1
깨@@ 1
꽃@@ 1
남 1
녀 1
노 1
다 1
단@@ 1
당 1
델@@ 1
드@@ 1
랑@@ 1
레@@ 1
록@@ 1
루@@ 1
류@@ 1
리@@ 1
립 1
면 1
몽 1
몽@@ 1
무 1
무@@ 1
미@@ 1
민@@ 1
바@@ 1
백 1
별 1
별@@ 1
병@@ 1
불@@ 1
비 1
빈@@ 1
삼 1
삼@@ 1
석 1
선 1
설@@ 1
섭@@ 1
센@@ 1
손 1
송 1
수 1
스 1
스@@ 1
승@@ 1
시@@ 1
식@@ 1
아 1
압@@ 1
애@@ 1
양 1
양@@ 1
어 1
역 1
역@@ 1
연@@ 1
예 1
오 1
옹 1
와@@ 1
요@@ 1
우@@ 1
울 1
위 1
위@@ 1
유@@ 1
육@@ 1
이@@ 1
인 1
일 1
재@@ 1
전 1
정@@ 1
제 1
조 1
족 1
좌@@ 1
중 1
중@@ 1
지@@ 1
직@@ 1
착 1
철@@ 1
춘@@ 1
크@@ 1
탁@@ 1
탐@@ 1
태@@ 1
텔 1
토@@ 1
평@@ 1
포@@ 1
퐁 1
핑@@ 1
하@@ 1
함@@ 1
해 1
해@@ 1
헌 1
현@@ 1
협@@ 1
호 1
호@@ 1
화 1
화@@ 1
환 1
회@@ 1
후 1
후@@ 1
흥 1
 1
﨑 1
ﷲ 1
ﷺ 1
ﺎ@@ 1
ﺑ@@ 1
ﺞ 1
ﺟ@@ 1
ﺣ@@ 1
ﺪ@@ 1
ﺮ 1
ﺯ@@ 1
ﺷ@@ 1
ﻄ@@ 1
ﻗ@@ 1
ﻧ@@ 1
ﻬ@@ 1
ﻮ@@ 1
ﻲ 1
ﻳ@@ 1
， 1
𐤕 1
𒈥@@ 1
𒌅 1
