. 7828053
, 7734839
là 3280710
và 2801032
&quot; 2741386
của 2651967
một 2635602
được 2354748
trong 2098333
năm 1909549
có 1781505
các 1474183
) 1435615
( 1434603
này 1228827
đã 1065442
người 1059885
ở 1052975
họ 1039642
với 1012926
loài 934119
cho 927351
đầu 884578
học 864240
vào 809905
@-@ 745506
thành 722925
tháng 705008
số 670753
T@@ 654847
từ 646669
không 633153
đến 620635
l@@ 607140
những 597290
ch@@ 592323
t@@ 578604
tại 571373
khi 570579
C@@ 566325
tả 558234
c@@ 556642
tiên 544067
ra 540311
ngày 536033
ông 530719
khoa 528275
thể 526746
Loài 525263
h@@ 514391
đ@@ 514323
m@@ 509574
đó 507575
L@@ 505244
vật 505204
: 500195
công 495477
thực 493175
B@@ 491616
về 489671
b@@ 486903
th@@ 485030
để 484104
thuộc 480258
sự 475697
như 463004
H@@ 459041
bị 458696
d@@ 458383
trên 457515
chính 450756
v@@ 429764
M@@ 419074
sau 415649
dân 409322
S@@ 402762
gia 401305
quân 398193
nhà 384483
động 383733
; 379591
n@@ 379268
us 378718
lại 375030
cũng 373974
làm 371508
Th@@ 367635
thời 367469
s@@ 362236
hiện 361776
tr@@ 361510
nước 356271
nhất 354938
Đ@@ 354221
mô 339302
V@@ 338119
kh@@ 333997
Nam 332801
ng@@ 332516
sử 332207
phát 329546
ph@@ 329088
hành 328800
bộ 328052
i 325700
r@@ 325623
hoa 324466
nhiều 320160
theo 309280
hai 309092
D@@ 308545
nh@@ 306630
khác 301598
việc 297481
K@@ 292956
quốc 287917
quan 285535
N@@ 282906
con 281826
m 281715
sinh 278178
thế 277134
1 275725
chỉ 275470
cùng 275104
g@@ 273963
Ch@@ 273845
xã 273613
nhân 273315
hình 270148
hơn 268905
do 268028
dụng 267932
Tr@@ 267746
chiến 266076
2 265813
định 265403
thứ 264737
a 258637
Quốc 258233
đồng 256960
xuất 256512
viên 253975
x@@ 250719
còn 249259
độ 246082
miêu 244012
Trung 243893
thị 243040
cách 241071
tỉnh 240721
ia 238197
u 237544
nó 236368
y@@ 236262
vị 236093
tên 235641
an 235214
G@@ 234098
cuộc 233667
y 233639
bản 232965
3 232481
Ph@@ 230088
Việt 228967
P@@ 228915
/ 228454
giới 224640
trở 224510
bởi 223678
hợp 223374
Các 222807
lập 221775
nhưng 221325
rằng 221254
khu 218864
phía 218531
lớn 218237
idae 217681
cao 216631
điểm 216613
bằng 216511
tự 216270
phần 216121
đội 215829
đại 214180
nhận 214091
kết 213579
chức 212963
trước 211554
hội 211459
trường 209309
giải 208682
k@@ 208276
hoặc 207554
Năm 207342
tiếng 207257
Anh 206723
vùng 205856
cả 205615
Trong 204392
phải 203343
on 203240
trình 203108
gồm 202867
thường 201854
Hoa 201837
tiếp 200688
điều 200497
gi@@ 200098
lượng 200030
- 198211
chủ 198200
qua 196500
phân 195140
um 195100
lý 194899
anh 194735
sản 193960
Kỳ 193698
A@@ 193407
mà 192731
R@@ 191987
thống 191830
4 191560
loại 190796
sẽ 190772
tế 189983
huyện 189020
cơ 188473
trung 185086
5 183283
tính 181638
diễn 181232
lên 180087
đối 179020
phố 177458
bao 177440
án 176750
is 175847
tích 175817
vụ 175782
gọi 175443
thông 174869
sống 174559
tác 172750
đi 172652
hàng 172217
o 172122
bắt 172032
phim 171071
tạo 170670
t 169711
vì 169587
lực 169197
ân 168766
mình 167272
nhiên 167184
6 166054
quyền 165702
vực 164844
âm 163382
hệ 163184
cánh 162888
địa 162885
Đại 162799
trị 162781
&amp; 162255
ta 161432
đường 161356
lần 161144
nghiệp 160663
giáo 159085
ương 158610
đánh 156946
diện 156434
chi 156384
10 156220
cấp 156103
đấu 154688
ang 154380
chúng 153830
thủ 153407
Pháp 152824
cầu 152563
khoảng 152291
ối 151991
qu@@ 151004
sĩ 150793
mới 150500
in 150300
Sau 150182
thức 150142
à 149295
đoàn 148403
hóa 147784
trận 147657
ô 146883
Đức 146152
tranh 146083
cô 146080
hay 145682
7 145669
đêm 144769
inh 144421
8 144050
pháp 143883
đề 143565
ảnh 143492
Tây 143338
% 141874
– 141777
in@@ 141570
liên 141153
n 141083
tập 141053
tham 141007
nhạc 140905
tàu 140789
chuyển 140441
hiệu 139526
biển 139083
bay 138428
thấy 138070
p@@ 137972
máy 137905
bố 137182
truyền 136364
Mỹ 136105
thì 136022
ăn 135762
năng 135451
ata 135207
ban 135105
km 135078
mặt 134539
toàn 134023
gian 133832
nên 133823
ai 133444
9 133207
rất 132952
12 131654
aceae 131570
O@@ 131155
E@@ 130515
ý 130408
văn 129737
phương 129725
tới 129444
hoạt 129436
đô 128967
đây 128770
Ng@@ 128754
ứng 128664
bang 128163
trí 127814
nam 127338
giữa 127188
đạo 127045
triển 127037
đặc 126776
o@@ 126382
tổ 126064
nhau 125716
bướm 125448
Bắc 125376
nghĩa 125327
ba 125267
al@@ 125172
đá 124739
danh 124471
cứng 123829
àn 123515
Một 123473
Ông 122780
ánh 121730
an@@ 121691
biệt 121140
Kh@@ 120576
tử 119828
bóng 119593
thiết 119370
chế 119299
đất 119121
đang 119118
nằm 118930
kinh 118668
bình 118452
đổi 118245
X@@ 118156
thuật 117925
F@@ 117846
kỳ 117483
tâm 117366
nơi 116982
dài 116951
i@@ 116828
đơn 116433
ôi 116288
ống 116159
dưới 116091
chất 115959
Nó 114721
cuối 114249
phủ 114045
ti@@ 114032
Công 113791
ến 113305
bọ 113094
kế 112145
Liên 111990
dịch 111975
Đông 111905
ôn 111691
Lan 111201
11 111166
ac@@ 110721
nữ 110676
ên 110569
&apos; 110505
nhiệm 110396
u@@ 110082
ic@@ 109986
tiểu 109871
ho@@ 109819
tin 109686
điện 109676
os@@ 109634
sách 109610
Nhật 109455
àng 109340
ol@@ 109230
nói 109213
Vào 109048
biết 108769
phẩm 108684
sáng 108448
thay 108387
e@@ 108376
en@@ 108335
tăng 108056
châu 107676
bảo 107650
Qu@@ 107534
biến 107485
trưởng 106355
Nh@@ 106309
nguyên 106294
Thái 106084
báo 105810
đều 105734
or@@ 105592
ca 105499
mục 105397
vẫn 105355
ensis 105087
cứu 104702
thi 104669
gần 104312
trọng 104232
áp 104201
ar@@ 104168
đảo 104116
ền 103926
Gi@@ 103743
on@@ 103713
tình 103381
amp 102766
ết 102490
a@@ 102301
chơi 101901
thu 101689
tiến 101513
p 101443
cá 101139
J@@ 101070
giá 100980
bài 100924
Bộ 100841
đặt 100813
tiêu 100727
thân 100677
tương 100469
nay 100409
tư 100334
ật 99797
nhóm 99658
Ngày 99453
dự 99450
ung 99402
nhỏ 99298
tìm 98982
tổng 98891
phòng 98848
ần 98652
el@@ 98449
dùng 98198
W@@ 98164
e 98032
c 97852
bắc 97308
ngoài 97005
lịch 96746
đông 96741
á 96606
ị 96016
hòa 95839
ận 95808
bà 95804
bên 95754
tài 95657
hậu 95655
ấn 95539
nổi 95255
màu 94744
s 94731
ái 94413
êu 94412
ạc 94374
dẫn 94274
ùng 94149
hi@@ 93883
ot@@ 93771
I@@ 93723
quả 93618
phong 93560
Ti@@ 93220
tuổi 93129
ảng 93057
oc@@ 92983
tinh 92918
ê 92872
Dân 92734
phục 92496
kỷ 92440
ana 92068
biểu 92032
đưa 91937
sát 91758
U@@ 91645
đời 91632
ạch 91600
Tuy 91403
de 91342
đình 91336
viết 91323
ấy 90192
la 90181
tục 90033
ài 90006
Thành 89995
giao 89995
am@@ 89655
om@@ 89647
&#93; 89430
Hà 89119
miền 88800
mang 88668
ăng 88546
en 88511
Bản 88505
quận 88059
yếu 87847
mùa 87841
hát 87709
giữ 87565
Hoàng 87557
rộng 87505
tướng 87426
trang 87382
vô 87097
thương 86832
liệu 86649
ag@@ 86558
di 86047
Y@@ 86026
sông 85968
ea 85876
&#91; 85596
il@@ 85594
² 85583
bán 85577
nhập 85486
quyết 85172
từng 85082
dựng 84473
bất 84189
đóng 84123
er@@ 84119
tấn 84033
ường 83883
sở 83783
bỏ 83774
thần 83567
Dương 83557
quá 83519
phụ 83352
Xã 83167
ám 83077
chiếc 82821
ệt 82560
chương 82527
viện 82390
ư 82265
di@@ 82218
dù 81669
3@@ 81574
thắng 81459
câu 81387
nghệ 81387
vận 81353
Hải 81327
Văn 81280
hoàn 81237
ul@@ 81129
nhiệt 81020
Cộng 81002
tra 80952
2010 80879
Theo 80786
Độ 80756
ạn 80739
vai 80667
binh 80442
lạc 80313
xây 80313
khí 80255
am 80114
át 80033
id@@ 79931
cung 79751
cử 79483
ngh@@ 79450
cổ 79326
ác 79311
vệ 78920
nào 78831
ao 78799
Ấn 78566
giống 78453
ồng 78335
hạng 78180
xác 78173
is@@ 78064
z@@ 77997
ục 77901
ạt 77888
Tổng 77861
tiền 77652
ty 77632
Nguyễn 77281
er 77120
hoàng 76868
trò 76867
vua 76765
li@@ 76736
h 76386
ệ 76112
Bình 76072
as@@ 76063
k 75948
mở 75709
ế 75563
ong 75490
Minh 75111
Những 75110
ước 75050
tây 74939
sân 74856
ngữ 74793
chống 74789
hướng 74719
ốc 74701
ắc 74656
ấm 74619
chung 74573
cái 74558
trợ 74378
ất 74022
làng 73939
ng 73920
chiếm 73894
Di@@ 73650
20 73605
chưa 73583
Từ 73433
hộ 73262
ay 73140
ghi 73050
ỗ 72884
tượng 72827
Ban 72707
ma 72523
ro@@ 72507
cộng 72447
ề 72426
giả 72285
minh 72181
em 71936
đạt 71739
mất 71525
ẻ 71409
triệu 71356
dạng 71080
al 71055
4@@ 70814
kiến 70419
phản 70303
quản 70294
âu 70193
bệnh 70153
op@@ 70113
mạnh 70096
sang 70061
chết 70022
Z@@ 69912
ký 69807
hạn 69743
.@@ 69737
lúc 69617
Quân 69492
ur@@ 69470
giờ 69304
tộc 69269
xe 69269
cảnh 69260
lãnh 69248
ít 69169
gây 69101
ổ 68915
nguồn 68903
chứng 68813
kể 68618
kích 68594
es 68456
at@@ 68394
nghiên 68317
chia 68191
trấn 68084
kiện 67928
5@@ 67805
lệ 67647
ach@@ 67628
tất 67619
Chúng 67536
đoạn 67384
lo@@ 67258
ồn 67244
ngôi 67229
hữu 67014
ỉ 66999
thư 66989
lưu 66984
yêu 66961
Khi 66726
vương 66721
êm 66654
tay 66484
cây 66385
ĩ 66310
chân 66166
Vương 66046
ển 65775
thu@@ 65755
le@@ 65640
ờ 65518
ar 65490
áo 65481
vòng 65297
l 65091
thuyết 65065
giúp 65012
phép 65010
thêm 64996
Nga 64982
Chính 64952
Ho@@ 64889
x 64750
Ba 64406
ỡ 64307
ực 64228
Châu 64137
độc 64020
thích 64004
phá 63988
ina 63977
trực 63875
mỗi 63792
ấu 63781
Sơn 63609
Âu 63536
ả 63464
da 63430
hưởng 63293
vậy 63138
chọn 63109
ap@@ 63012
The 62779
khỏi 62696
Sự 62656
sắc 62652
sư 62630
òn 62623
Hội 62588
cảm 62496
í 62251
mi@@ 62112
vấn 62108
ồi 62019
j@@ 61972
so 61898
15 61769
Chiến 61548
vi 61264
cần 61238
ọc 61213
hết 61119
Giải 61088
bi@@ 60989
Nhà 60956
thi@@ 60860
tốt 60840
d 60805
địch 60642
luật 60575
ầu 60380
cư 60250
La 60095
xem 59991
ào 59959
ẽ 59819
nội 59730
ạm 59630
xếp 59581
es@@ 59463
ae 59455
tỷ 59340
sao 59298
lấy 59108
ải 58954
An 58953
gốc 58908
ắn 58824
úc 58666
Al@@ 58630
khả 58422
quy 58414
ập 58386
2011 58366
dương 58214
chí 58198
mạng 58196
ừng 58140
Hu@@ 58130
ầm 57936
giành 57854
Thanh 57781
Thi@@ 57748
ốt 57602
ú 57587
us@@ 57538
em@@ 57518
núi 57512
trai 57446
mật 57280
vi@@ 57097
áng 57051
Người 57039
mắt 56849
im@@ 56829
g 56750
bàn 56541
triều 56528
Đây 56333
ức 56330
Br@@ 56295
ẩm 56083
cố 55869
niên 55804
giảm 55659
huy 55630
30 55559
khai 55544
Nhĩ 55543
Quận 55471
Ar@@ 55355
lời 55331
tuyến 55267
po@@ 55206
lệnh 55016
An@@ 54958
7@@ 54641
it@@ 54482
6@@ 54449
Đảng 54402
et@@ 54398
ab@@ 54309
khiến 54218
khách 54143
Nha 54108
18 54049
ích 53948
cáo 53938
Thổ 53936
trẻ 53908
bầu 53870
ịnh 53815
òng 53723
duy 53685
Mã 53673
ủng 53518
ột 53502
ữ 53496
19 53347
ụ 53223
Mar@@ 53160
thảo 53157
w@@ 53123
Q@@ 53120
vũ 53083
sức 53044
Thế 52984
Tân 52972
el 52933
ad@@ 52902
bại 52871
to@@ 52742
tuần 52666
chuyên 52636
A 52617
ngoại 52576
óc 52555
đa 52541
Tháng 52505
... 52361
17@@ 52328
ứ 52232
ec@@ 51807
chu@@ 51659
ig@@ 51649
đồ 51626
dục 51586
môi 51586
I 51531
ụ@@ 51508
ni@@ 51480
album 51473
ãi 51466
Nhân 51429
Nội 51362
16 51286
ỗi 51259
Lý 51225
quay 51186
riêng 51185
f@@ 51117
chuẩn 51053
ơn 51028
ễn 51017
et 51014
phổ 50969
Đi@@ 50959
Tại 50882
thiên 50876
đới 50828
thúc 50743
uyền 50669
gặp 50665
đế 50654
8@@ 50443
the 50416
hầu 50345
Xô 50324
ỏ 50324
nghiệm 50299
Do 50271
lớp 50212
nghị 50165
thanh 50140
lợi 50133
hạt 50051
Long 50004
of 49967
ua 49867
2@@ 49814
Phi 49767
at 49761
14 49740
au 49688
ki@@ 49677
chữ 49676
ượng 49617
ẩn 49459
9@@ 49456
doanh 49431
ời 49366
lễ 49344
ợ 49315
nền 49310
xuống 49236
chạy 49142
phiên 48900
Ki@@ 48806
ưa 48643
ép 48540
Danh 48508
ậm 48500
biên 48392
ri@@ 48281
thái 48235
ại 48140
Lịch 48033
ica 48033
od@@ 47927
gái 47913
atus 47796
ách 47780
bổ 47748
ì 47694
kiểm 47634
13 47632
vây 47546
du 47351
Hòa 47280
cha 47209
Bi@@ 47169
Sh@@ 47124
17 47056
dòng 47053
tồn 46934
luận 46898
Hán 46891
ưng 46862
tưởng 46816
Hồ 46804
rồi 46797
so@@ 46797
muốn 46726
tuyên 46638
thấp 46565
ch 46522
vàng 46477
Đế 46462
25 46461
ắm 46410
ã 46350
ình 46298
New 46072
tiết 46017
mọi 45956
khẩu 45877
cực 45831
Á 45770
as 45757
or 45702
Giáo 45650
tức 45619
og@@ 45558
ing 45553
đứng 45538
ak@@ 45328
cửa 45299
tịch 45298
ine 45231
nhanh 45228
2007 45164
ũng 45083
giám 45042
Ngoài 45030
Trường 44991
mức 44910
ây 44766
mẹ 44725
thờ 44704
ru@@ 44674
coi 44536
ãn 44507
yr@@ 44353
trúc 44327
Trần 44319
thất 44299
đáng 44227
dụ 44134
ắt 44093
Có 44092
nữa 44092
ens 44028
kỹ 44019
dựa 43973
cận 43968
Hi@@ 43889
phi 43841
nh 43814
giáp 43802
giai 43783
ngay 43756
mét 43703
Hồng 43691
Car@@ 43674
ang@@ 43638
ir@@ 43585
mặc 43582
ed@@ 43576
hạ 43494
ệu 43462
đôi 43457
Nguyên 43379
bảng 43373
tối 43318
quần 43269
sa 43213
ran@@ 43170
ói 43143
Chi@@ 43094
quanh 43082
phái 43023
lâu 42942
thủy 42938
dung 42935
tuyển 42899
ồ 42895
nhện 42802
ựa 42775
Cr@@ 42772
phóng 42711
ưu 42677
Thiên 42623
Hàn 42553
lục 42468
ản 42384
đốc 42383
vài 42373
nhằm 42334
nếu 42291
pháo 42251
ện 42224
ngôn 42112
ella 42085
Đô 42014
Tư 41995
2006 41993
tố 41963
cải 41954
2008 41885
B 41876
per@@ 41872
thập 41823
Đồng 41776
ổi 41761
bu@@ 41750
đủ 41725
ắp 41698
Không 41680
yl@@ 41659
thưởng 41569
ò 41552
Kinh 41403
ảy 41375
ăm 41320
ếu 41314
and 41262
Lê 41240
ob@@ 41230
ấp 41227
Ý 41221
bạn 41199
ộc 41164
cấu 41114
ỹ 41110
ya 41077
ter@@ 41034
đi@@ 41000
ợi 41000
21 40993
II 40952
eg@@ 40937
Chủ 40936
z 40935
St@@ 40922
T 40922
El@@ 40881
mẫu 40867
ỏa 40819
16@@ 40802
Par@@ 40785
Lu@@ 40700
giết 40652
era 40647
Vũ 40593
uyên 40569
os 40522
hỗ 40509
chiều 40426
ính 40318
luyện 40250
Li@@ 40197
un@@ 40185
Ở 40117
ự 40037
ốn 40001
au@@ 39923
ọ 39891
xa 39869
Le@@ 39761
av@@ 39750
lá 39692
to 39666
Tông 39609
Cô 39589
bắn 39555
phạm 39518
alis 39495
kéo 39474
kim 39374
áy 39230
um@@ 39225
hoạch 39180
ơ 39113
ảo 39111
chấp 39094
24 38999
bốn 38889
rừng 38885
ưỡng 38884
2016 38775
osa 38749
đài 38701
Geometridae 38675
ữa 38630
ẳng 38588
Họ 38541
Tiên 38518
lộ 38515
Kim 38478
môn 38471
ov@@ 38410
chứa 38263
rõ 38258
st@@ 38238
trùng 38219
Vi@@ 38213
tỏ 38196
un 38176
sóng 38156
buộc 38018
Ủy 37979
cứ 37960
chịu 37929
ù 37894
Thu@@ 37878
ạo 37833
Cao 37736
phận 37662
dành 37629
D 37613
cạnh 37608
ọn 37592
lửa 37522
ngành 37517
tri@@ 37479
2009 37455
ạnh 37368
tôi 37349
tôn 37307
toán 37305
đổ 37267
ũ 37265
ể 37219
mềm 37185
đàn 37178
cụ 37136
oph@@ 37132
trao 37049
tốc 36962
2004 36866
si@@ 36850
hải 36841
đu@@ 36796
khởi 36754
đĩa 36668
Điều 36654
2015 36627
23 36596
ik@@ 36565
Đài 36472
bờ 36431
nông 36395
C 36370
è 36285
khúc 36260
Ngh@@ 36251
hồ 36187
ớ@@ 36184
kho@@ 36169
nặng 36160
trắng 36157
Quảng 36153
thổ 36044
Địa 35965
Bảo 35937
ber@@ 35923
ơi 35837
Sch@@ 35766
2000 35747
ngắn 35735
1.@@ 35703
lĩnh 35640
2014 35631
nối 35619
v 35600
Bà 35582
ườn 35556
2005 35452
hại 35418
Tri@@ 35393
re@@ 35391
22 35388
ỏng 35340
Lưu 35333
Đến 35243
ruồi 35221
15@@ 35212
hôn 35177
Tiểu 35136
2012 35132
hồi 35102
ah@@ 35030
khảo 35014
na 34972
ưới 34938
chú 34921
chuyện 34897
Giang 34877
sâu 34864
ược 34789
xảy 34695
Bar@@ 34679
tòa 34678
yp@@ 34641
trạng 34619
ủy 34487
2017 34474
trả 34441
co@@ 34439
100 34409
2013 34332
it 34315
gì 34180
trụ 34142
ut@@ 34137
son 34125
1999 34089
thiếu 34087
ạ 33991
Thượng 33848
2018 33825
Noctuidae 33825
đen 33816
man 33806
sh@@ 33794
niệm 33740
thuốc 33725
nhìn 33684
tho@@ 33657
loạt 33625
ếp 33580
khó 33541
chiếu 33519
Gia 33489
br@@ 33417
mối 33412
ok@@ 33337
ằng 33336
31 33302
ton 33278
ô@@ 33263
Đường 33203
rút 33189
xử 33116
2019 33061
nuôi 33026
chim 33018
50 33002
tái 32937
bức 32926
Cal@@ 32850
vượt 32823
Thị 32760
cũ 32731
As@@ 32729
thuận 32682
uc@@ 32679
r 32505
ướng 32479
xung 32395
Ne@@ 32315
Triều 32263
tước 32221
èo 32215
Co@@ 32211
Gr@@ 32194
O 32182
mua 32116
Mi@@ 32091
ci@@ 32081
do@@ 32069
ell@@ 32044
aria 31981
amb@@ 31918
vốn 31894
ur 31836
su@@ 31827
28 31793
đầy 31771
sai 31678
ổn 31671
thơ 31666
mại 31665
gt 31662
ọng 31596
To@@ 31589
tu@@ 31551
ena 31495
tội 31493
26 31454
Hiệp 31398
oni@@ 31396
27 31380
Cerambycidae 31359
băng 31356
le 31329
ath@@ 31311
trục 31264
and@@ 31245
óng 31193
ọt 31136
mm 30957
phối 30954
õ 30915
súng 30889
tic@@ 30882
lt 30869
tạp 30862
Phó 30861
ỷ 30840
_ 30768
úa 30750
ay@@ 30717
no@@ 30714
ie 30686
Mặc 30667
suất 30613
lu@@ 30604
Cu@@ 30582
hu@@ 30580
Ninh 30494
14@@ 30482
soát 30474
b 30413
song 30385
đai 30363
Cổ 30356
Cúc 30343
linh 30330
ứa 30289
0 30288
eo 30275
chủng 30264
buổi 30254
M 30238
tia 30235
ura 30200
kịch 30182
xét 30142
gh@@ 30077
trái 30058
ệp 30049
thử 30024
càng 29925
va 29918
eb@@ 29862
40 29799
gr@@ 29737
Tu@@ 29688
góp 29657
ou@@ 29657
rời 29623
truyện 29550
đỏ 29543
é 29518
ành 29513
ổng 29481
ati@@ 29476
dễ 29469
Trước 29447
ạng 29447
kiếm 29372
sứ 29346
ngựa 29296
tầng 29292
ùa 29289
2001 29285
Am@@ 29274
đảm 29246
tải 29225
ent@@ 29220
Chi 29186
trách 29185
luôn 29159
chuyến 29124
ưởng 29104
par@@ 29080
trì 29064
bo@@ 29017
cập 29003
mar@@ 28998
dấu 28997
phí 28988
đích 28949
Thủ 28894
pl@@ 28856
Mặt 28811
ín 28788
ly 28779
hiệp 28762
suốt 28741
Tập 28714
út 28668
suy 28662
ỵ 28662
Per@@ 28619
ep@@ 28589
az@@ 28587
bào 28568
Hai 28563
F 28561
Hy 28539
U 28508
Thánh 28492
đăng 28448
kiểu 28433
xỉ 28383
Khu 28356
Bo@@ 28319
Yên 28292
xanh 28230
Cơ 28225
Or@@ 28198
2020 28191
ten@@ 28187
cu@@ 28153
Con@@ 28123
ne 28118
V 28102
đào 28100
ora 28051
29 28048
ão 28043
In@@ 27934
khá 27913
lược 27891
khối 27879
tín 27864
Tổ 27823
căn 27814
Với 27810
khu@@ 27808
vợ 27798
dần 27774
lòng 27770
Lo@@ 27768
đảng 27756
ậy 27727
àu 27720
hãng 27696
Việc 27682
ươ@@ 27658
ày 27649
hàm 27632
ón 27618
trưng 27566
ạp 27531
xứ 27493
if@@ 27465
car@@ 27417
Úc 27406
cuốn 27351
kê 27272
Viện 27259
ợt 27217
w 27150
ẹ 27142
Lạp 27118
ềm 27114
Giám 27106
bụng 27088
Phương 27061
anth@@ 27047
ắng 27036
đương 27009
mực 27000
lượt 26941
nghi 26860
G 26811
èn 26810
S 26807
ội 26805
ượ@@ 26763
xuyên 26752
Quang 26746
= 26731
ãy 26709
đột 26701
ố 26695
ử 26614
thịt 26610
Pr@@ 26607
họa 26595
Phần 26575
phê 26574
ĩnh 26555
E 26551
ủ 26548
Cuộc 26546
13@@ 26541
ka 26525
2002 26465
dữ 26459
P 26447
mã 26447
hủy 26358
mạch 26323
ium 26322
ùy 26247
one 26230
chi@@ 26228
kính 26216
Cor@@ 26196
Đào 26189
thừa 26154
Đậu 26126
hi 26113
Sân 26085
tuy 26072
đạn 26061
Thời 26036
kẻ 26025
Chu 26004
nạn 25992
àm 25989
óa 25955
huấn 25952
ười 25945
thoại 25887
hỏi 25880
vừa 25859
Mon@@ 25841
Lâm 25837
khóa 25833
trời 25811
ara 25801
Thụy 25777
Se@@ 25756
Phong 25729
ex 25716
Phú 25702
2003 25695
yc@@ 25687
ox@@ 25678
de@@ 25676
Con 25625
League 25586
ặp 25576
Dr@@ 25556
ếm 25556
onia 25506
Vì 25453
pi@@ 25440
chúa 25427
Định 25421
ass@@ 25352
ếng 25338
ví 25324
ne@@ 25308
óm 25278
Xuân 25263
ểu 25221
ngăn 25217
đẩy 25132
ớ 25126
aw@@ 25121
giác 25096
ễ 25068
oma 25045
trừ 25030
só@@ 25018
úng 24973
loạn 24955
10@@ 24929
ộng 24905
ệnh 24891
nổ 24883
ậu 24854
ys@@ 24831
ing@@ 24791
con@@ 24761
man@@ 24661
TCN 24602
mu@@ 24568
thật 24564
ad 24539
trải 24507
L 24477
San 24452
Col@@ 24446
uy@@ 24441
chóng 24399
ều 24353
0@@ 24334
lao 24322
lính 24320
Chí 24278
ha 24262
ak 24209
sơ 24175
pha 24172
che 24149
ộ@@ 24106
mộ 24091
Erebidae 24086
Phật 24052
1990 24032
oth@@ 24030
úp 23976
hạm 23960
vọng 23949
diệt 23946
ộn 23931
pu@@ 23903
H 23879
điển 23877
ov 23863
ama 23832
mo@@ 23816
ó 23813
ari@@ 23792
Mal@@ 23781
Ro@@ 23765
Số 23765
thiện 23759
dia 23734
cm 23676
ầy 23672
hiên 23653
Re@@ 23527
60 23484
thao 23421
Tham 23406
sửa 23392
Đội 23386
ụy 23316
bước 23305
tu 23261
ila 23257
ii 23247
Trương 23225
Hy@@ 23219
nhờ 23198
xin 23152
lai 23149
0.000 23146
Du@@ 23139
thú 23125
khắp 23121
Sư 23090
thí 23090
phù 23053
phút 23050
ic 23047
đem 23043
tách 23005
N 22990
ki 22968
trào 22964
Mor@@ 22894
Tòa 22869
thụ 22859
all@@ 22855
gu@@ 22842
lo 22817
ừa 22789
ate 22781
ộ 22771
cắt 22763
ev@@ 22752
! 22738
huy@@ 22722
chẳng 22719
Nhưng 22709
land 22699
nhiễm 22692
Trái 22684
hương 22683
0,@@ 22658
ặt 22638
nguy 22629
lum 22628
bày 22627
ga 22607
quý 22558
đỉnh 22512
gửi 22501
Man@@ 22489
lông 22476
ùi 22473
Đất 22462
chỗ 22444
R 22443
ano 22439
Sal@@ 22432
&#124; 22414
optera 22412
Er@@ 22405
nghe 22382
kháng 22357
John 22348
ướ@@ 22317
20@@ 22312
och@@ 22299
xâm 22260
anus 22252
hiểu 22243
cai 22220
oides 22219
Huyện 22190
cầm 22163
ans 22107
sắt 22098
hiểm 22080
te 22062
òi 22023
ngầm 21998
tiện 21993
Eu@@ 21969
tàng 21968
Tên 21962
đẹp 21951
Thông 21932
vành 21916
nâng 21911
khắc 21910
liền 21889
ra@@ 21889
te@@ 21885
hơi 21882
tầm 21874
Nhiều 21867
ứt 21858
ist@@ 21852
la@@ 21825
uch@@ 21814
ịp 21809
liệt 21806
sớm 21804
chỉnh 21792
Ngô 21770
ala 21752
eri 21735
thăm 21732
áu 21726
Kr@@ 21725
má@@ 21695
ley 21653
ẹ@@ 21638
kênh 21636
né@@ 21622
cường 21605
Be@@ 21589
sung 21551
eli@@ 21543
thăng 21520
chảy 21500
der@@ 21495
tuyệt 21490
ino 21489
Hưng 21474
tù 21459
ế@@ 21458
1998 21457
uyết 21449
ae@@ 21444
Tỉnh 21413
xúc 21408
ã@@ 21400
iz@@ 21382
sáu 21361
ìn 21345
Đạo 21340
bão 21299
lis 21292
nửa 21286
ell 21267
dọc 21246
ania 21244
? 21196
1945 21192
màn 21148
tò 21137
đọc 21098
C. 21084
ol 21068
thôn 21051
formula 21031
máu 21014
Về 21012
mưu 21006
Để 21000
quảng 20997
quán 20974
2.@@ 20972
ĩa 20971
ó@@ 20942
Hiện 20940
tan 20925
giản 20911
tán 20887
Nếu 20875
rêu 20826
ụng 20802
Kar@@ 20740
vò 20726
Gu@@ 20710
lan@@ 20665
Vĩnh 20631
Hồi 20542
sch@@ 20526
ula 20518
ita 20512
se@@ 20493
Ac@@ 20466
chồng 20441
ers 20408
đe 20383
des 20366
ah 20343
opter@@ 20332
ũi 20327
Cách 20310
thẳng 20304
Ai 20302
1,@@ 20284
X 20279
K 20267
Ngọc 20243
ard 20223
1997 20217
dầu 20217
Ichneumonidae 20214
Đặc 20210
ex@@ 20201
uyến 20191
ngược 20171
phó 20154
ong@@ 20151
ú@@ 20145
dạy 20118
Phúc 20108
Đo@@ 20100
80 20094
săn 20084
Ber@@ 20065
quy@@ 20062
ố@@ 20052
ặng 20031
video 19979
Lương 19964
bí 19958
truy 19954
3.@@ 19953
ola 19890
Cục 19843
Hạ 19838
2021 19827
dọa 19825
Si@@ 19814
õi 19814
ich@@ 19798
Su@@ 19782
+ 19753
inae 19733
atum 19732
70 19730
Canada 19716
York 19713
Phân 19705
000 19694
Mac@@ 19688
Tam 19677
bậc 19656
Áo 19646
ost@@ 19645
ed 19611
xo@@ 19603
sp@@ 19601
Y 19599
ys 19588
ọp 19551
í@@ 19533
Thủy 19527
lan 19517
thoát 19517
Quan 19484
1980 19474
ey 19461
ter 19450
ill@@ 19447
cr@@ 19430
ant@@ 19403
thiệu 19384
tặng 19381
Karnataka 19374
1991 19363
tháp 19347
cậu 19346
ly@@ 19346
bò 19331
Pal@@ 19322
Lai 19293
Paris 19253
è@@ 19251
thước 19226
° 19219
Thống 19196
Ver@@ 19194
Phạm 19181
ann@@ 19168
aur@@ 19165
ice 19158
Hành 19151
ịch 19124
vu@@ 19123
ới 19115
đúng 19114
ei 19112
ẫu 19104
bom 19096
gắn 19075
xạ 19050
Mùa 19038
êng 19020
phiếu 18999
no 18998
Chỉ 18987
f 18965
ow@@ 18932
Hymenoptera 18924
mon@@ 18924
ona 18893
​ 18871
Loan 18847
Te@@ 18816
ense 18816
nghiêm 18788
Â@@ 18788
90 18779
pr@@ 18757
khoản 18750
trích 18749
Hậu 18740
Cá 18685
sẵn 18685
ệ@@ 18675
chó 18655
12@@ 18653
tehsil 18627
ụp 18614
hút 18606
bãi 18598
tá 18586
ặm 18533
ét 18526
ẫn 18510
1996 18508
Rêu 18506
ti 18504
lẫn 18496
Tran@@ 18494
Pl@@ 18479
ằn 18479
du@@ 18461
trại 18447
ani 18446
se 18443
ém 18375
Trich@@ 18368
chặn 18359
ù@@ 18329
rơi 18318
Mel@@ 18312
ba@@ 18293
Tử 18281
lar@@ 18280
ima 18245
Tự 18235
uyện 18235
thù 18207
En@@ 18202
siêu 18194
đoán 18188
ax@@ 18170
cờ 18151
ỏ@@ 18151
Saint 18138
gắng 18108
Cập 18098
cựu 18095
Arc@@ 18078
Sp@@ 18070
tắc 18053
end@@ 18052
tránh 18024
Bel@@ 18020
lâm 18006
úy 18004
ảm 17999
ida 17976
dây 17975
Hol@@ 17971
Nghệ 17966
khiển 17964
Bur@@ 17962
phyl@@ 17958
Com@@ 17952
lương 17950
ẹp 17946
1995 17940
bác 17937
cỏ 17925
il 17912
Mông 17873
Her@@ 17870
1975 17867
aj@@ 17856
Khánh 17848
Bal@@ 17847
iss@@ 17835
hấp 17804
Hệ 17772
World 17670
1992 17668
yn@@ 17661
ali@@ 17584
ợp 17577
Ni@@ 17537
ía 17525
Mc@@ 17519
dium 17505
son@@ 17498
him 17402
USD 17383
sub@@ 17375
35 17349
tis 17347
ver@@ 17329
inc@@ 17316
Camp@@ 17304
ich 17300
Har@@ 17293
Pi@@ 17287
awa 17203
ỗ@@ 17201
C.@@ 17196
2,@@ 17182
tai 17169
li 17148
ib@@ 17116
á@@ 17107
ub@@ 17090
III 17064
ili@@ 17061
món 17055
1993 17038
Cas@@ 16978
ł@@ 16958
hy@@ 16893
tus 16886
pa 16865
De@@ 16801
icus 16790
unc@@ 16779
mac@@ 16727
Mo@@ 16726
Tor@@ 16711
af@@ 16701
Cy@@ 16689
uk@@ 16680
1994 16664
cor@@ 16652
str@@ 16626
co 16603
200 16568
opsis 16564
Sc@@ 16546
đo@@ 16520
ada 16509
Bor@@ 16475
ion 16453
eri@@ 16356
re 16339
1970 16286
bar@@ 16254
Brasil 16252
lia 16245
ểm 16245
hô@@ 16222
A.@@ 16215
ừ@@ 16208
Ad@@ 16161
Po@@ 16144
Lim@@ 16122
olo@@ 16082
Do@@ 16048
Cup 16030
lã@@ 16016
45 15980
Ma@@ 15965
Poly@@ 15934
A. 15931
ek@@ 15929
ke 15928
He@@ 15921
he@@ 15907
4.@@ 15867
ok 15849
act@@ 15805
Ả 15795
Kho@@ 15761
ori@@ 15755
ọa 15732
Hal@@ 15700
ơ@@ 15699
Ste@@ 15693
Na 15678
za 15670
bia 15668
Chrysomelidae 15663
Me@@ 15656
1960 15643
Á@@ 15643
500 15619
Ag@@ 15586
can 15563
bé 15549
ides 15483
1989 15432
game 15413
Mer@@ 15368
su 15367
iv@@ 15353
ử@@ 15341
1@@ 15333
alli 15324
lui 15320
ẫ@@ 15317
Str@@ 15262
odes 15236
eus 15223
ệm 15217
ìm 15212
ym@@ 15193
ale 15164
gió 15162
oa 15134
pe@@ 15125
folia 15116
“ 15106
ini 15090
ặc 15037
Ser@@ 15026
Pol@@ 15022
Mas@@ 14997
California 14992
Rom@@ 14984
Lep@@ 14983
Di 14923
ãng 14922
” 14871
lin@@ 14827
ma@@ 14807
der 14792
32 14783
cal@@ 14781
ophyl@@ 14766
Ab@@ 14756
ug@@ 14696
yan@@ 14673
ữu 14672
khi@@ 14652
ce 14639
atr@@ 14618
sk@@ 14583
by 14559
ō@@ 14554
FC 14550
ore 14502
1988 14488
Meg@@ 14464
lidae 14462
est@@ 14426
J.@@ 14423
ve 14393
ō 14373
oh@@ 14364
9,@@ 14338
ler 14318
Dic@@ 14314
cel@@ 14300
ema 14297
ater@@ 14288
pal@@ 14249
48 14199
75 14182
mer@@ 14180
xu@@ 14166
Pro@@ 14135
io 14109
Cl@@ 14091
.. 14064
tidae 14049
min@@ 14011
duy@@ 13999
cus 13949
ser@@ 13944
les 13943
ash@@ 13933
ì@@ 13909
eta 13905
Philippines 13902
ane 13901
ord@@ 13863
ui 13840
ile 13815
65 13803
be@@ 13798
ỏi 13782
So@@ 13771
phi@@ 13760
25@@ 13725
ai@@ 13686
kia 13643
up@@ 13639
ta@@ 13632
Rh@@ 13610
und@@ 13561
ation 13560
Sam@@ 13537
ợ@@ 13458
ir 13446
aya 13437
3,@@ 13434
can@@ 13433
ởi 13425
ff@@ 13417
1986 13399
id 13369
ens@@ 13358
nia 13333
col@@ 13315
ene 13282
web 13244
gen@@ 13214
anum 13212
san 13181
Tur@@ 13137
dr@@ 13115
nig@@ 13104
phe 13102
ner 13032
ts 13017
eph@@ 13012
ud@@ 13010
alus 13005
q 13002
mel@@ 12998
inus 12984
ễ@@ 12974
Cer@@ 12970
1950 12945
me 12925
Ru@@ 12918
Mag@@ 12917
1987 12893
eh@@ 12863
-@@ 12839
ler@@ 12819
1985 12796
Ngo@@ 12779
Mu@@ 12777
mer 12767
ửa 12767
1942 12760
Sar@@ 12747
adi@@ 12735
38 12727
United 12723
age 12709
Ger@@ 12683
ê@@ 12679
én 12664
asi@@ 12660
Can@@ 12657
Hungary 12648
kg 12636
.000 12592
gen 12588
30@@ 12574
amp@@ 12574
Lin@@ 12555
33 12545
36 12524
Jo@@ 12496
Sé@@ 12489
Ap@@ 12484
Sa@@ 12469
be 12468
van 12455
War@@ 12450
éo 12434
Min@@ 12425
ide 12424
37 12421
1981 12416
alb@@ 12406
ick@@ 12381
cer@@ 12375
34 12349
S.@@ 12345
ji 12339
ro 12322
ge@@ 12319
01 12301
1944 12300
Sm@@ 12293
1979 12283
Sa 12267
1940 12241
1984 12225
ỳ@@ 12223
ari 12194
com@@ 12192
cul@@ 12155
53 12154
lor@@ 12140
L.@@ 12123
H.@@ 12121
Ri@@ 12119
Is@@ 12113
ặn 12093
fer@@ 12086
Ex@@ 12085
Sol@@ 12085
Gar@@ 12079
Lat@@ 12058
ey@@ 12058
ựu 12050
tel@@ 11994
abr@@ 11987
Pe@@ 11979
Indonesia 11963
Ben@@ 11957
1982 11956
Grand 11949
George 11948
5,@@ 11926
6.@@ 11898
’ 11877
â@@ 11870
har@@ 11869
Pan@@ 11859
tri 11855
por@@ 11834
55 11831
Oc@@ 11830
sky 11811
tic 11810
47 11808
Ç@@ 11801
IV 11790
ota 11782
Mad@@ 11768
fr@@ 11767
1941 11762
von 11728
ins@@ 11693
1983 11689
aus@@ 11686
tan@@ 11675
bon 11673
ick 11664
Album 11662
ius 11644
voi 11637
Bul@@ 11600
1972 11593
1943 11588
52 11576
ez@@ 11570
28@@ 11556
im 11534
ess@@ 11524
ò@@ 11521
At@@ 11519
dae 11517
enn@@ 11516
oy@@ 11504
od 11459
On@@ 11445
aga 11429
tim 11424
des@@ 11423
Gal@@ 11415
tor@@ 11414
Ge@@ 11409
William 11405
ven 11402
1978 11399
Israel 11395
é@@ 11386
ỉnh 11384
inn@@ 11379
6,@@ 11376
James 11376
Os@@ 11361
Hel@@ 11359
For@@ 11357
ant 11318
sc@@ 11317
1930 11316
Fr@@ 11303
1976 11302
oto 11298
— 11268
Bu@@ 11264
rom@@ 11259
non 11258
300 11245
ko 11241
Sel@@ 11239
me@@ 11234
Sil@@ 11207
Cro@@ 11200
64 11194
5.@@ 11178
L. 11174
berg 11166
oni 11165
24@@ 11159
anthus 11157
eng@@ 11156
ung@@ 11141
fol@@ 11124
7.@@ 11122
yi 11117
ủ@@ 11112
si 11108
R.@@ 11096
sti@@ 11090
Tak@@ 11082
Val@@ 11078
4,@@ 11075
nis 11071
ze 11071
Sy@@ 11030
bre@@ 11004
Bl@@ 10992
Du 10976
len@@ 10942
dis@@ 10937
ard@@ 10934
ent 10926
ỳ 10922
We@@ 10920
pes 10916
TV 10907
Syria 10904
ish@@ 10902
tar@@ 10902
Pom@@ 10900
aph@@ 10892
Met@@ 10891
Kit@@ 10876
ira 10858
burg 10856
ford 10849
yth@@ 10840
ịt 10838
are 10813
Mur@@ 10810
Hor@@ 10807
iti@@ 10806
Ko@@ 10801
Ur@@ 10793
bl@@ 10785
51 10777
Mil@@ 10775
1968 10773
tha 10771
est 10748
ek 10736
44 10734
Q 10733
ze@@ 10727
29@@ 10725
42 10714
aina 10714
den 10707
Ang@@ 10701
ot 10691
1946 10680
ge 10677
18@@ 10664
Cam@@ 10656
W 10655
Bol@@ 10651
8.@@ 10614
39 10593
ie@@ 10584
tes 10583
Por@@ 10579
uz@@ 10571
Ed@@ 10556
ưỡ@@ 10554
1973 10552
cin@@ 10541
ere 10534
ville 10533
ind@@ 10528
eti@@ 10520
ax 10509
Mit@@ 10500
endr@@ 10471
1954 10465
00@@ 10457
Nor@@ 10457
per 10438
Charles 10433
omy@@ 10433
Phil@@ 10430
om 10410
sa@@ 10395
Del@@ 10392
yg@@ 10389
Mai 10377
Chu@@ 10369
Ấ@@ 10359
pp@@ 10356
kar@@ 10338
pan@@ 10334
j 10331
q@@ 10322
Tar@@ 10321
ite 10321
1974 10308
49 10307
illa 10302
26@@ 10295
aki 10275
all 10275
1965 10261
M.@@ 10246
eter@@ 10231
ững 10219
Pot@@ 10208
iy@@ 10207
72 10169
Henry 10167
City 10162
Windows 10160
Go@@ 10150
46 10141
ans@@ 10140
km2 10138
Ireland 10135
opo@@ 10134
th 10131
Ak@@ 10125
M. 10112
Al 10091
7,@@ 10043
men 10036
… 10032
ha@@ 10031
ni 10020
ops 10000
sy@@ 9988
gl@@ 9986
1977 9954
05 9937
Malaysia 9936
Ma 9929
43 9927
ons 9927
8,@@ 9926
85 9924
1967 9917
West 9913
ênh 9894
Mat@@ 9883
elle 9862
ẩu 9852
58 9840
41 9837
Ukr@@ 9828
nch@@ 9824
David 9818
1964 9813
Sph@@ 9813
54 9806
Gre@@ 9803
ski 9798
que 9786
aka 9761
arg@@ 9759
lang 9746
ster@@ 9744
than 9739
isti@@ 9737
Robert 9725
1963 9713
go@@ 9711
men@@ 9697
Washington 9681
Tro@@ 9676
ip@@ 9676
esc@@ 9675
lam 9647
Ly@@ 9645
bor@@ 9642
don@@ 9640
ase 9626
zi@@ 9610
Đ 9603
top 9587
1939 9575
nghi@@ 9575
Singapore 9552
anc@@ 9548
for@@ 9548
F.@@ 9527
ali 9524
tam 9524
Mexico 9496
may 9487
sk 9478
Paul 9477
57 9458
âng 9458
sen 9439
B.@@ 9432
Ros@@ 9432
Pennsylvania 9426
02 9409
flav@@ 9395
56 9350
1971 9348
ac 9332
J. 9324
cur@@ 9302
New@@ 9298
ượt 9279
1920 9271
los@@ 9257
Ale@@ 9249
Kur@@ 9246
1969 9242
Es@@ 9234
ja 9233
Pseud@@ 9228
06 9226
tro@@ 9220
ry 9219
07 9218
phil@@ 9218
1962 9203
ven@@ 9197
Em@@ 9192
form@@ 9183
ign@@ 9178
mag@@ 9173
ast@@ 9150
Eri@@ 9149
ih@@ 9141
hang 9134
cú 9131
Mus@@ 9130
ennis 9122
Mes@@ 9102
1956 9097
isa 9095
04 9085
Mic@@ 9080
Sen@@ 9075
Illinois 9064
Mol@@ 9052
Louis 9038
ker 9032
ự@@ 9031
88 9024
My@@ 9017
Lee 9010
62 9004
H. 9001
Wil@@ 9000
Fre@@ 8997
ain@@ 8991
oz@@ 8981
ky 8975
1955 8965
sim@@ 8965
orum 8960
1966 8949
cap@@ 8947
Ath@@ 8941
Na@@ 8939
Wal@@ 8937
ko@@ 8927
enz@@ 8925
Mari@@ 8918
ks 8917
zy@@ 8891
Ca@@ 8889
19@@ 8885
67 8878
68 8875
Fl@@ 8869
76 8848
86 8848
entr@@ 8839
Song 8835
Lib@@ 8828
AS@@ 8824
ri 8823
ake 8809
77 8800
rich@@ 8791
Fran@@ 8787
oi 8777
Scar@@ 8775
uli@@ 8768
cl@@ 8760
br 8757
vir@@ 8756
Gen@@ 8746
Sw@@ 8743
Des@@ 8728
E.@@ 8716
long 8712
09 8711
stein 8711
ros@@ 8701
ku@@ 8699
S. 8697
27@@ 8691
London 8688
ye 8681
ace 8672
03 8661
Texas 8650
Ke@@ 8646
63 8634
Je@@ 8631
den@@ 8626
of@@ 8625
nhi@@ 8610
ts@@ 8605
95 8602
1958 8600
fl@@ 8590
Nov@@ 8582
don 8576
CP 8571
1947 8559
1936 8556
Plat@@ 8522
enti@@ 8515
flora 8505
esia 8503
ou 8501
sin@@ 8499
400 8493
Maria 8492
Zealand 8492
Ox@@ 8484
Cop@@ 8480
00 8465
66 8448
Ty@@ 8444
ence 8442
ấ@@ 8439
Ot@@ 8431
Iran 8420
pop 8419
tig@@ 8408
59 8407
Tom@@ 8404
mat@@ 8403
anime 8397
61 8396
ham 8392
Cre@@ 8388
ker@@ 8387
0.@@ 8384
Entertainment 8372
otr@@ 8354
08 8348
olia 8340
Tokyo 8331
Bas@@ 8327
Kun@@ 8317
pin@@ 8297
Hir@@ 8294
ke@@ 8289
loss@@ 8289
× 8279
Mah@@ 8278
71 8273
Dor@@ 8269
1961 8255
ain 8252
Michael 8249
Bre@@ 8241
1949 8239
1959 8239
Hyp@@ 8236
ela 8231
č@@ 8218
ũ@@ 8204
tung 8198
ian 8196
Thomas 8195
Sem@@ 8194
9.@@ 8192
Iowa 8172
hal@@ 8172
ẻ@@ 8166
usa 8158
Argentina 8155
Dakota 8149
Ohio 8119
atia 8117
ato 8112
Ol@@ 8108
sus 8106
No@@ 8105
Andr@@ 8104
Vo@@ 8104
San@@ 8098
$ 8088
Han@@ 8086
elia 8070
87 8055
del 8049
82 8047
Billboard 8044
Neur@@ 8043
ev 8043
81 8042
rec@@ 8032
Ư@@ 8030
Mont@@ 8022
P. 8007
1957 8003
Som@@ 8001
ney 7999
ty@@ 7993
ā@@ 7982
bi 7976
ure 7974
1953 7965
Astr@@ 7948
mi 7944
México 7943
Mül@@ 7938
andra 7933
alia 7922
UEFA 7921
You 7920
Ram@@ 7916
Rhy@@ 7909
69 7889
sil@@ 7886
ack@@ 7879
79 7860
84 7860
Scotland 7857
78 7855
asia 7839
ille 7837
ez 7826
res@@ 7821
xi@@ 7812
virus 7808
Austr@@ 7807
protein 7806
und 7805
bas@@ 7800
ý@@ 7800
1938 7796
yl 7794
ani@@ 7783
õ@@ 7780
E. 7778
Ky@@ 7760
Pas@@ 7753
ami 7749
arp@@ 7747
1948 7741
Dar@@ 7724
ve@@ 7722
1937 7716
tuy@@ 7714
Cat@@ 7712
73 7710
74 7705
sol@@ 7676
ito 7671
mai 7670
ye@@ 7670
83 7664
Hem@@ 7650
Cuba 7649
Park 7638
1951 7631
ı@@ 7621
icul@@ 7618
ami@@ 7610
củ@@ 7603
aci@@ 7594
st 7592
Ha@@ 7586
Music 7581
Au@@ 7580
P.@@ 7579
Video 7577
ab 7575
ary 7571
Sim@@ 7569
ster 7549
Vol@@ 7534
France 7531
tur@@ 7530
wa 7530
idi@@ 7520
South 7518
aer@@ 7514
lon@@ 7512
ison 7510
loc@@ 7508
ry@@ 7505
anti@@ 7497
icum 7494
99 7485
chil@@ 7485
TV@@ 7484
Anth@@ 7482
ail@@ 7474
for 7473
ue 7467
1952 7463
ici@@ 7458
ush@@ 7457
her@@ 7425
we@@ 7403
mor@@ 7394
Kan@@ 7388
seu@@ 7386
eria 7383
tica 7381
ngo@@ 7380
the@@ 7380
aine 7376
Ep@@ 7370
ref 7360
1934 7357
uta 7356
1929 7351
Bro@@ 7334
ese 7334
CD 7333
ais 7324
Nag@@ 7321
Ter@@ 7317
Sz@@ 7311
1935 7310
ess 7310
pul@@ 7304
Kal@@ 7301
ect@@ 7301
Ple@@ 7289
OS 7287
ier@@ 7277
Richard 7256
die 7251
Char@@ 7250
phy@@ 7244
bur@@ 7230
Internet 7221
ise 7221
ole@@ 7188
rot@@ 7184
tal@@ 7183
ory 7175
Berlin 7153
estr@@ 7153
ette 7151
ă@@ 7148
Martin 7146
ny@@ 7142
ft 7141
98 7138
Ta@@ 7130
Wat@@ 7128
err@@ 7119
rad@@ 7117
yd@@ 7112
long@@ 7107
ept@@ 7104
hr@@ 7100
Ku@@ 7094
field 7094
Ô 7092
B. 7090
az 7078
ack 7073
ade 7071
sal@@ 7068
agn@@ 7062
art 7062
š@@ 7062
King 7058
ero 7055
eur@@ 7055
yo@@ 7055
92 7053
opus 7038
Fi@@ 7030
pur@@ 7029
del@@ 7028
war@@ 7022
Nhi@@ 7014
D. 7013
thr@@ 7012
thus 7005
1931 6996
fas@@ 6996
ech@@ 6992
96 6990
Wales 6966
Manchester 6964
1914 6962
iro 6962
yst@@ 6962
Cos@@ 6950
Dol@@ 6939
1918 6936
Luc@@ 6932
var@@ 6925
onn@@ 6924
ul 6911
vit@@ 6905
1900 6904
sel@@ 6903
gin@@ 6896
ust@@ 6889
lat@@ 6877
Mak@@ 6874
ator 6872
isi@@ 6871
Spr@@ 6868
ova 6867
mann 6866
ous 6864
ine@@ 6862
Ba@@ 6859
Minnesota 6859
fe@@ 6852
Fu@@ 6843
Mik@@ 6840
ace@@ 6840
Wi@@ 6838
Gl@@ 6831
Hon@@ 6831
Edward 6830
Bos@@ 6828
m. 6813
ach 6812
rock 6808
El 6805
1912 6802
ps 6798
Kansas 6797
ava 6793
Los 6782
ut 6773
ten 6770
arr@@ 6765
One 6761
jeun@@ 6756
air@@ 6748
IN@@ 6747
Cle@@ 6743
gar@@ 6739
osh@@ 6736
Sum@@ 6731
da@@ 6730
Love 6725
Rob@@ 6723
Kam@@ 6714
1891 6704
Av@@ 6699
J 6697
ẩy 6693
Mosk@@ 6691
did@@ 6688
esh 6685
ello 6682
Py@@ 6679
CO@@ 6675
K. 6651
93 6648
cas@@ 6648
Un@@ 6640
lam@@ 6630
Jean 6616
Kon@@ 6614
Ir@@ 6611
sur 6590
Tim@@ 6587
600 6581
97 6563
1933 6557
Ira@@ 6555
1922 6553
1917 6552
chr@@ 6552
mal@@ 6532
hin@@ 6528
ẵ@@ 6520
1913 6519
poly@@ 6513
eli 6509
ij@@ 6507
Ban@@ 6499
Friedrich 6497
urus 6477
Ham@@ 6463
1932 6459
1924 6457
Bab@@ 6457
ç@@ 6455
Ul@@ 6454
Lind@@ 6452
ạy 6452
Joseph 6448
ington 6436
una 6433
gan 6420
Hydro@@ 6419
1925 6418
ire 6415
ight 6414
via 6402
1908 6393
ệc 6378
imb@@ 6368
pos@@ 6366
150 6362
Sin@@ 6361
astr@@ 6361
Xi@@ 6354
91 6352
tin@@ 6350
ates 6346
Smith 6343
94 6342
ẳ@@ 6336
Der@@ 6335
CA@@ 6328
89 6327
Jackson 6322
1919 6319
ów 6315
dic@@ 6313
I. 6306
anga 6295
Cap@@ 6283
1910 6279
1916 6279
ci 6275
ren@@ 6269
Lan@@ 6266
cy@@ 6266
Le 6265
Pakistan 6265
ger 6262
1905 6259
Kir@@ 6258
Nguy@@ 6258
1911 6254
T.@@ 6252
Nar@@ 6242
sen@@ 6235
ce@@ 6234
ề@@ 6234
St. 6222
aul@@ 6216
ọi 6215
pe 6209
Colombia 6208
Bang@@ 6202
nú@@ 6202
Ra@@ 6201
manga 6199
Nak@@ 6188
Brazil 6184
Top 6181
Bayern 6179
ori 6179
ular@@ 6176
Nav@@ 6173
Stal@@ 6170
Micro@@ 6168
Pa@@ 6168
ill 6164
Loire 6163
cho@@ 6161
win 6156
ist 6155
Peter 6154
K.@@ 6153
F. 6150
Lor@@ 6146
ein@@ 6142
sis 6138
Sak@@ 6134
Gor@@ 6133
ger@@ 6133
Kor@@ 6132
ings 6132
Ven@@ 6130
oul 6130
ern@@ 6128
lem@@ 6128
Lit@@ 6126
Alpes 6123
AP@@ 6122
tor 6122
Eug@@ 6120
USS 6118
CH@@ 6117
bul@@ 6114
hor@@ 6111
D.@@ 6106
tí@@ 6106
ck 6092
Mir@@ 6086
800 6084
Far@@ 6083
La@@ 6078
fal@@ 6077
Mich@@ 6072
uma 6067
uki 6060
ber 6059
dom@@ 6059
Ok@@ 6057
1927 6055
Alb@@ 6051
Sav@@ 6050
ria 6049
Il@@ 6042
Xu@@ 6040
lin 6039
cia 6036
arm@@ 6032
Mos@@ 6029
mas@@ 6029
ắ@@ 6028
Afghanistan 6027
ther@@ 6027
1923 6026
Not@@ 6024
ône 6023
Men@@ 6016
bel@@ 6009
ago 6003
pol@@ 6003
aris 6002
ver 5998
Missouri 5995
fus@@ 5994
Ry@@ 5992
2022 5991
bic@@ 5989
use 5978
R. 5972
vel@@ 5970
leo 5967
Air@@ 5965
val@@ 5965
Me 5963
1906 5960
Man 5954
ashi 5953
oria 5953
sia 5953
DP 5951
1928 5949
ik 5948
Yam@@ 5939
pic@@ 5915
ằm 5915
Schl@@ 5913
Bon@@ 5910
til@@ 5909
Sur@@ 5901
ö@@ 5894
itz 5885
off 5880
Shi@@ 5876
Baker 5873
Venezuela 5871
eck@@ 5867
ér@@ 5867
Australia 5866
Rho@@ 5865
wan@@ 5855
ony@@ 5854
ap 5841
Kat@@ 5839
hip 5836
anie 5835
ho 5835
Bat@@ 5826
cat@@ 5822
osp@@ 5818
Dav@@ 5813
urg@@ 5804
Bru@@ 5802
Chr@@ 5802
DNA 5798
sul@@ 5795
enia 5789
Coc@@ 5788
Olympic 5781
eci@@ 5771
Alexand@@ 5767
De 5766
alm@@ 5766
Eur@@ 5764
Super 5757
ilia 5752
Tam@@ 5747
igh@@ 5747
mb@@ 5742
not@@ 5738
Simon 5737
Z 5732
well 5728
Microsoft 5725
Kol@@ 5710
Mary 5710
phia 5709
bert 5692
My 5691
Wor@@ 5690
kov 5687
Guinea 5683
ales 5683
Hau@@ 5680
Angeles 5675
Op@@ 5664
Wo@@ 5663
acid 5661
ond@@ 5659
ity 5647
ff 5644
ance 5640
uti@@ 5636
1926 5629
he 5628
eum 5627
eth@@ 5624
uri 5620
andi@@ 5615
ista 5613
cit@@ 5609
AR@@ 5608
ń@@ 5608
Est 5606
ric@@ 5598
1909 5592
ulus 5586
att@@ 5584
1921 5583
kil@@ 5580
Hot 5578
let@@ 5571
ome 5569
Lam@@ 5564
amer@@ 5554
sem@@ 5554
.C. 5552
Santa 5547
Les@@ 5546
quit@@ 5546
tre 5538
1895 5537
Dis@@ 5526
Kas@@ 5523
agi@@ 5520
nus 5520
v. 5504
Az@@ 5501
T. 5494
Chile 5491
mar 5489
Francisco 5488
Ứ@@ 5488
pro@@ 5485
1915 5483
Hitler 5483
Florida 5482
pen@@ 5467
Jac@@ 5464
Hab@@ 5463
pel@@ 5460
inter@@ 5455
Armen@@ 5453
end 5451
esi 5450
Division 5443
Serbia 5440
trich@@ 5440
chin@@ 5435
By@@ 5430
tol@@ 5429
tum 5428
lig@@ 5427
Ay@@ 5426
tom@@ 5417
ỉ@@ 5417
toman 5412
iger 5408
Prot@@ 5405
endro@@ 5403
uf@@ 5402
Vil@@ 5400
Virginia 5398
rol@@ 5398
ele 5392
Dem@@ 5391
Jer@@ 5391
bol@@ 5389
nam@@ 5387
Dre@@ 5380
ré@@ 5377
Football 5374
aca 5369
FA 5361
Gro@@ 5358
Cur@@ 5357
uv@@ 5356
Pen@@ 5353
Champions 5349
IS@@ 5346
Mark 5344
els 5342
pil@@ 5333
Mot@@ 5325
anda 5325
asc@@ 5319
Psych@@ 5316
ć 5310
agon 5307
tim@@ 5305
Hawai@@ 5302
ole 5302
ock 5300
Sho@@ 5298
eps 5296
Fo@@ 5294
Roma 5293
mad@@ 5291
char@@ 5289
Vir@@ 5288
ebr@@ 5287
fin@@ 5287
Google 5284
ř@@ 5279
Arg@@ 5278
Rad@@ 5278
Bulgar@@ 5271
Lev@@ 5269
oshi 5263
Uy@@ 5258
neo 5254
cá@@ 5251
apo@@ 5247
dor@@ 5245
Fri@@ 5243
acia 5241
BT 5237
onidae 5237
FIFA 5233
Pin@@ 5229
elli 5225
Rich@@ 5222
Sul@@ 5216
hydr@@ 5205
Diego 5202
Disney 5200
ass 5198
istan 5192
Nep@@ 5191
vil@@ 5189
5.000 5184
ther 5184
She@@ 5178
fi@@ 5178
ray 5177
Karl 5168
# 5164
edi@@ 5162
Don@@ 5161
isia 5158
une 5152
Nic@@ 5147
met@@ 5147
Oscar 5146
Don 5144
asa 5143
1903 5132
osph@@ 5131
eng 5130
eni 5130
COVID 5129
tric@@ 5129
cop@@ 5117
ling 5117
Pat@@ 5116
chuy@@ 5113
Ec@@ 5108
ear@@ 5107
Bah@@ 5104
eu@@ 5104
CN 5102
North 5099
bil@@ 5098
Hil@@ 5097
Buc@@ 5095
Alexander 5090
1904 5087
Mun@@ 5079
Sab@@ 5076
ati 5076
Black 5064
ogne 5062
Pu@@ 5047
Wisconsin 5043
Pre@@ 5042
G. 5041
Ash@@ 5036
Est@@ 5034
ingen 5033
Slov@@ 5028
Gmina 5027
aha 5025
Nam@@ 5024
Van 5024
1907 5022
Nintendo 5017
Eng@@ 5013
VI 5005
bon@@ 5004
Victoria 5000
Med@@ 4994
1898 4992
je@@ 4992
tis@@ 4992
vic@@ 4989
Pav@@ 4975
fer 4970
oe 4966
Ka@@ 4964
Jam@@ 4963
dec@@ 4959
1000 4958
ee 4958
obi@@ 4957
tro 4955
zia 4955
Tel@@ 4951
Peru 4944
Harry 4943
SS 4941
antes 4941
Champ@@ 4940
ico 4940
ars 4929
International 4928
Juli@@ 4920
Pit@@ 4920
arc@@ 4917
guit@@ 4917
tem@@ 4916
Bir@@ 4913
1.000 4908
fo@@ 4907
low 4907
Cari@@ 4902
nom@@ 4898
1897 4897
700 4894
dem@@ 4893
gi 4892
Nigeria 4891
It 4889
iki 4888
kin 4888
Tan@@ 4885
W. 4883
1899 4880
amm@@ 4880
1902 4877
ash 4874
Madrid 4867
Mid@@ 4864
120 4862
Serie 4861
Elizabeth 4859
Shar@@ 4859
lati@@ 4853
Lom@@ 4849
bit 4849
tam@@ 4846
alp@@ 4839
ton@@ 4838
Ran@@ 4836
Tun@@ 4834
aw 4833
ith 4833
port 4828
Gil@@ 4827
Hom@@ 4823
Thom@@ 4822
micro@@ 4818
emia 4815
Sor@@ 4804
DS 4798
Ú@@ 4794
Ecuador 4793
edonia 4790
sburg 4789
Christ@@ 4788
Dom@@ 4787
ū@@ 4785
umb@@ 4782
yum 4782
Premier 4779
RA@@ 4775
kin@@ 4775
Air 4769
kl@@ 4768
sé@@ 4766
1896 4765
ichi 4763
aux 4760
Tour 4758
mil@@ 4752
ath 4749
Pic@@ 4748
ame 4741
bus 4740
Cham@@ 4737
Hier@@ 4731
Chrys@@ 4728
Carl 4726
ins 4726
DC 4725
ca@@ 4724
* 4721
Pri@@ 4718
way 4718
we 4716
CN@@ 4713
our 4713
lip@@ 4712
uke 4712
bro@@ 4708
Milan 4707
Bay@@ 4706
ish 4703
old 4699
Lincoln 4696
É@@ 4695
ful@@ 4690
bach 4686
Ả@@ 4684
ừ 4684
arius 4683
Chelsea 4682
ika 4681
aly@@ 4677
ène 4675
1901 4672
Pap@@ 4653
bal@@ 4653
din@@ 4651
ogr@@ 4651
Anti@@ 4648
Cir@@ 4648
ep 4643
vis@@ 4643
Hay@@ 4641
Records 4640
ett 4640
fur@@ 4638
~ 4635
ū 4633
Win@@ 4628
Steph@@ 4626
ecia 4624
Johnson 4619
10.@@ 4611
go 4610
uk 4606
tion 4604
Clar@@ 4599
NH@@ 4599
adi 4594
Ô@@ 4591
ef@@ 4590
Red 4588
In 4587
ken@@ 4579
1,5 4577
ny 4568
uss@@ 4566
1894 4563
mes@@ 4562
TP 4560
wal@@ 4558
Pel@@ 4555
onom@@ 4554
Oli@@ 4549
Arkansas 4548
atra 4543
rit@@ 4539
with 4539
avi@@ 4536
hir@@ 4535
istr@@ 4533
DVD 4532
Ker@@ 4530
vo@@ 4526
Town 4525
odi@@ 4523
isch@@ 4512
abil@@ 4510
name 4506
say 4506
ime 4499
van@@ 4499
ẵn 4499
sur@@ 4497
cre@@ 4496
Rol@@ 4493
uca 4488
ein 4482
Michigan 4480
West@@ 4480
Italia 4479
hum@@ 4474
AC 4467
Che@@ 4466
Star@@ 4465
yo 4465
May@@ 4462
Frank 4461
mic@@ 4461
Ele@@ 4460
So 4460
fa 4455
Dan@@ 4454
Moh@@ 4454
Liverpool 4450
Ş@@ 4449
Game 4447
ham@@ 4447
app@@ 4446
Da@@ 4445
ste@@ 4439
esti@@ 4427
ester 4425
Pil@@ 4423
hydro@@ 4422
Arthur 4420
250 4418
Nobel 4414
mont 4414
Dur@@ 4407
Fer@@ 4403
any@@ 4403
bin 4403
trop@@ 4400
AT@@ 4398
Mand@@ 4398
50@@ 4397
Dal@@ 4385
Inter@@ 4385
icia 4385
vari@@ 4384
Taylor 4381
Pyr@@ 4379
etta 4378
land@@ 4375
Maz@@ 4374
Sk@@ 4374
adr@@ 4372
YouTube 4369
mé@@ 4366
acc@@ 4363
dy 4360
Dev@@ 4348
po 4339
Í@@ 4333
iri 4329
san@@ 4322
rop@@ 4320
200@@ 4316
Nouvelle 4315
té 4314
1889 4308
Web@@ 4305
oga 4304
aba 4299
Kos@@ 4298
hab@@ 4296
1890 4294
illi@@ 4292
eda 4291
zi 4291
V. 4289
wood 4288
Spar@@ 4285
IC@@ 4284
dal@@ 4283
ado 4280
Ob@@ 4279
lav 4277
int@@ 4275
ẽ@@ 4273
amo@@ 4270
Cel@@ 4268
Haw@@ 4262
ega 4260
Columbia 4256
inger 4254
Times 4253
Real 4247
osaur@@ 4243
,@@ 4239
grad 4236
ston 4236
American 4233
hol@@ 4229
zo 4226
Jack 4225
umi 4218
ör@@ 4217
ais@@ 4210
lı 4209
Star 4202
ini@@ 4201
uh@@ 4201
nu@@ 4199
Beg@@ 4197
anes 4196
Yo@@ 4194
ites 4190
Mim@@ 4187
rap@@ 4187
US@@ 4185
Tre@@ 4184
Shin@@ 4183
Reg@@ 4180
Alg@@ 4179
iko 4178
polis 4176
PC 4175
Agr@@ 4172
kr@@ 4172
23@@ 4169
Wit@@ 4168
Sic@@ 4167
Jones 4161
seud@@ 4158
Apple 4157
Fe@@ 4155
Sand@@ 4152
Chil@@ 4151
ett@@ 4151
idea 4150
HMS 4148
Got@@ 4147
anian 4147
ceph@@ 4147
onne 4146
Abr@@ 4142
rey 4141
Nik@@ 4139
Dy@@ 4135
yn 4133
out 4129
3D 4128
Fal@@ 4125
Leg@@ 4125
TH@@ 4112
1885 4109
Albert 4109
bo 4109
jo 4103
oba 4101
Latin 4100
Sha@@ 4098
• 4095
Sri 4094
han 4094
oli@@ 4093
rel@@ 4090
Tom 4089
Hen@@ 4082
tt@@ 4082
Sau@@ 4080
− 4079
Beau@@ 4078
Ren@@ 4076
lad@@ 4075
series 4068
Pod@@ 4067
Ble@@ 4063
ä@@ 4062
10.000 4059
Wilhelm 4058
len 4055
Gir@@ 4054
Var@@ 4054
sey 4054
ğ@@ 4053
hiệ@@ 4048
Vel@@ 4042
Kaz@@ 4038
bai 4037
SE@@ 4034
Leon@@ 4031
Syn@@ 4028
ew@@ 4027
Club 4024
UNESCO 4024
12,@@ 4023
Wood@@ 4023
Ari@@ 4017
plat@@ 4017
cher 4015
Big 4014
Java 4014
10,@@ 4011
1878 4011
oll@@ 4011
NGC 4010
11.@@ 4007
Hymen@@ 4005
ui@@ 4002
pus 4000
Williams 3999
pat@@ 3999
AI@@ 3998
The@@ 3996
tru@@ 3996
Mul@@ 3994
ame@@ 3994
prot@@ 3991
Hass@@ 3984
vin@@ 3983
ines 3966
Tal@@ 3963
sor@@ 3962
agr@@ 3957
ino@@ 3957
Ober@@ 3956
Brit@@ 3952
ę@@ 3952
Trump 3951
Awards 3945
Vit@@ 3942
tera 3940
ı 3940
Tit@@ 3938
ors 3935
roc@@ 3934
erry 3930
1870 3927
Pres@@ 3925
rh@@ 3921
rup@@ 3919
ji@@ 3916
ome@@ 3916
Sun@@ 3912
ont@@ 3910
sz@@ 3908
2.000 3907
Congo 3907
mot@@ 3907
AN 3900
Bag@@ 3897
reg@@ 3889
MTV 3888
2,5 3886
Norman@@ 3884
Roc@@ 3883
ope 3883
aus 3882
Jan@@ 3873
Plan@@ 3873
bet@@ 3873
nhiễ@@ 3869
stan 3869
tiế@@ 3868
ban@@ 3867
Sher@@ 3865
ast 3865
White 3863
Rock 3856
Cha@@ 3855
ech 3855
wi@@ 3852
ros 3848
Amp@@ 3844
érie 3841
Ga@@ 3837
xi 3837
Slo@@ 3832
Marie 3830
dol@@ 3825
Young 3821
Bri@@ 3818
Lab@@ 3818
mir@@ 3817
ater 3816
ix 3815
Yu@@ 3813
car 3809
op 3808
Ah@@ 3800
eth 3800
Im@@ 3798
Pau@@ 3798
Cent@@ 3795
Cô@@ 3795
Rio 3795
Wall@@ 3795
mol@@ 3794
oid 3793
Time 3791
Gh@@ 3787
aster 3787
esi@@ 3787
oon 3784
Mach@@ 3782
ume 3781
ider 3780
Brown 3778
Cher@@ 3773
Max@@ 3771
fan 3769
Kom@@ 3768
Laur@@ 3767
anna 3767
itz@@ 3765
web@@ 3765
anz@@ 3764
play 3763
mos@@ 3761
uni@@ 3758
Lar@@ 3754
Haute 3752
Rus@@ 3751
AC@@ 3750
Moore 3748
Greg@@ 3747
AN@@ 3746
les@@ 3746
ska 3742
Ther@@ 3741
igu@@ 3741
cola 3736
Rap@@ 3732
otes 3732
Bis@@ 3727
time 3727
fa@@ 3726
1893 3725
Ci@@ 3724
yu 3724
Green@@ 3723
Pierre 3720
ovo 3715
liv@@ 3713
iti 3712
wo@@ 3709
bat@@ 3708
ée 3708
Af@@ 3707
che@@ 3704
Costa 3703
Carolina 3702
Ach@@ 3697
1859 3695
Blo@@ 3694
Net@@ 3694
Ja@@ 3692
tile 3692
Fin@@ 3691
ka@@ 3689
leri 3689
kan@@ 3688
Amaz@@ 3686
Ze@@ 3686
CD@@ 3683
Om@@ 3681
line 3681
Cand@@ 3680
Scott 3677
ado@@ 3677
yla 3675
ris 3673
Sax@@ 3672
wer@@ 3672
kan 3670
Bus@@ 3666
Euro 3666
CI@@ 3665
din 3663
pre@@ 3663
Chicago 3661
brach@@ 3660
Dam@@ 3657
vol@@ 3657
Brun@@ 3655
1882 3652
ble 3652
omb@@ 3652
emb@@ 3650
bus@@ 3649
eto 3649
shire 3643
aud@@ 3640
Pach@@ 3638
1886 3636
VII 3633
electr@@ 3633
Arch@@ 3632
Kn@@ 3632
Rot@@ 3632
eld 3626
gal@@ 3626
11,@@ 3624
São 3624
Boston 3623
XX 3622
Kav@@ 3620
aro 3620
asp@@ 3620
set 3620
brun@@ 3614
Wilson 3613
wat@@ 3613
Julius 3610
bin@@ 3604
mo 3604
Daniel 3603
Bou@@ 3601
N.@@ 3601
enburg 3601
sam@@ 3598
Maur@@ 3597
jo@@ 3597
ś@@ 3596
Bot@@ 3595
Indiana 3588
Kenya 3586
Walter 3585
1880 3581
vin 3581
Arist@@ 3578
Liber@@ 3577
enc@@ 3574
Peter@@ 3573
coc@@ 3573
ken 3573
Black@@ 3570
sw@@ 3568
1875 3566
1888 3565
Dec@@ 3564
agu@@ 3563
All@@ 3560
Pun@@ 3560
solo 3560
Show 3558
Bec@@ 3555
flor@@ 3555
All 3553
lit@@ 3553
polé@@ 3553
aff@@ 3551
etes 3549
Spe@@ 3548
nes 3542
1860 3540
ets 3536
yan 3536
But@@ 3535
Ever@@ 3535
Fle@@ 3533
Live 3533
Lac@@ 3531
Nev@@ 3529
XIX 3527
Gom@@ 3525
atar 3525
nor@@ 3525
National 3520
1871 3518
ère 3518
Bet@@ 3517
Lou@@ 3517
Night 3517
Vill@@ 3514
Hollywood 3513
yon@@ 3513
bot 3508
Uganda 3506
Cra@@ 3505
ret@@ 3505
EP 3504
Ric@@ 3503
Boh@@ 3502
BS 3500
lea 3499
TS 3496
esa 3495
lus 3493
saw 3493
Nu@@ 3488
lut@@ 3488
eton 3486
Gru@@ 3485
Lis@@ 3485
eti 3485
Beng@@ 3484
sten@@ 3484
eil@@ 3482
Anne 3481
Ful@@ 3480
als 3478
Arm@@ 3477
pur 3477
ave 3474
Constant@@ 3471
mp@@ 3471
Ju@@ 3469
BBC 3468
Vor@@ 3468
ters 3467
cam@@ 3464
sum@@ 3464
Hill 3463
Den@@ 3462
alt@@ 3462
1879 3460
iga 3459
ier 3458
ote 3454
nit@@ 3453
à@@ 3453
lie 3451
Tol@@ 3449
Ing@@ 3446
line@@ 3446
Li 3445
Sat@@ 3443
11@@ 3438
fera 3438
Whit@@ 3436
Barcelona 3435
Chap@@ 3435
Group 3433
én@@ 3432
Media 3427
bar 3426
lu 3426
Ig@@ 3423
aqu@@ 3421
oth 3417
agin@@ 3416
SA@@ 3414
eron 3414
dig@@ 3410
bit@@ 3408
ị@@ 3407
ES@@ 3405
lob@@ 3405
sit@@ 3404
eon@@ 3402
net 3396
Pok@@ 3395
onal@@ 3395
LG@@ 3390
owski 3387
nik 3383
12.@@ 3380
Lag@@ 3380
my@@ 3377
Hamp@@ 3376
Grammy 3375
40@@ 3374
AS 3373
bos@@ 3370
MS 3369
1887 3366
ning 3366
1883 3365
1892 3359
ves 3359
ket@@ 3357
Ann@@ 3355
Anna 3354
Fab@@ 3351
eva 3351
1869 3349
ente 3346
TA 3345
Airlines 3344
1873 3343
han@@ 3341
1884 3339
mis@@ 3336
town 3336
plex 3335
lí@@ 3334
bra 3333
him@@ 3333
180 3332
Go 3330
Nat@@ 3328
Games 3327
Hin@@ 3323
orn@@ 3319
Blue 3316
ost 3314
ron@@ 3314
ide@@ 3313
N. 3311
Pon@@ 3311
ean 3311
Palest@@ 3310
piano 3310
ş@@ 3308
Arsenal 3300
udi@@ 3299
Elec@@ 3297
ở@@ 3297
130 3296
las@@ 3295
Cass@@ 3294
row 3294
Boeing 3293
IM@@ 3293
illo 3292
‘ 3291
Liv@@ 3290
ail 3288
Asp@@ 3285
Wol@@ 3284
Hop@@ 3282
pa@@ 3277
ø@@ 3277
1866 3275
ics 3272
Cambridge 3271
gol@@ 3270
log@@ 3269
Clin@@ 3267
Corn@@ 3265
ike 3265
Madag@@ 3259
Sou@@ 3257
from 3257
ingham 3257
ostr@@ 3257
Max 3255
Clu@@ 3251
ık 3250
ois 3248
1864 3247
folk 3245
Dou@@ 3242
Bil@@ 3241
fu@@ 3241
Seg@@ 3238
ds 3237
Kl@@ 3236
900 3234
Pet@@ 3234
1877 3233
AM@@ 3231
dis 3230
elt 3229
obr@@ 3229
Christian 3228
kov@@ 3228
ồm 3227
lac@@ 3225
1876 3222
tel 3222
13,@@ 3221
Bern@@ 3219
1838 3216
art@@ 3216
Sid@@ 3215
RNA 3214
olo 3214
esta 3211
ow 3211
ST@@ 3210
110 3208
top@@ 3205
vis 3203
ás 3200
1861 3198
my 3198
ovi@@ 3198
won 3197
fic@@ 3196
.com 3192
site 3190
vul@@ 3187
Kin@@ 3186
Stan@@ 3185
Vic@@ 3185
gro@@ 3185
Donald 3183
Son@@ 3183
alar@@ 3182
Gol@@ 3180
Massachusetts 3180
eff@@ 3179
py@@ 3177
ém@@ 3177
US 3172
bury 3169
Model 3166
1867 3165
.-@@ 3162
lar 3162
Bac@@ 3159
flu@@ 3159
our@@ 3158
under@@ 3158
Centr@@ 3157
Ant@@ 3156
Island 3154
Tot@@ 3152
tak@@ 3149
Life 3148
Vas@@ 3148
opa 3148
unda 3146
Championship 3144
hit 3143
1868 3141
ido 3141
Bay 3140
VIII 3139
1881 3135
ès 3134
1874 3128
Len@@ 3128
hat@@ 3128
gan@@ 3127
Cin@@ 3125
Juan 3125
1863 3124
Aster@@ 3123
Petr@@ 3121
verg@@ 3121
Dun@@ 3119
isp@@ 3118
UN@@ 3115
MA 3114
ical 3113
oc 3111
ě@@ 3110
Rid@@ 3108
ond 3106
Tanzania 3105
Nad@@ 3104
heim 3104
bes@@ 3103
ram@@ 3102
trans@@ 3102
hom@@ 3100
MC 3096
chn@@ 3095
Bau@@ 3094
ald 3093
eleg@@ 3092
bir@@ 3091
Red@@ 3089
tw@@ 3085
imm@@ 3079
XIII 3078
opera 3078
mand@@ 3076
Lang@@ 3073
low@@ 3073
ple@@ 3073
SA 3072
Sti@@ 3071
Khan 3061
Jordan 3060
Gun@@ 3059
IX 3059
Sto@@ 3058
Marshall 3056
mes 3055
Hat@@ 3054
Ev@@ 3051
Mart@@ 3050
Phili@@ 3050
Kong 3048
Rem@@ 3044
eca 3044
101 3043
pap@@ 3040
able 3037
tour 3037
ın@@ 3035
Sec@@ 3034
Ghana 3032
wo 3031
orph@@ 3030
Blan@@ 3027
aden@@ 3026
Kazak@@ 3024
1850 3023
Rec@@ 3023
Ken@@ 3021
kins 3021
Bak@@ 3020
Ten@@ 3019
NE@@ 3017
Beat@@ 3013
Conn@@ 3013
Sudan 3013
rem@@ 3012
Loc@@ 3011
ark@@ 3011
ns 3009
Sus@@ 3008
umin@@ 3008
enes 3005
Aur@@ 3003
Da 3002
eno 3002
ju@@ 3001
aco 3000
Cab@@ 2998
Thor@@ 2998
sar@@ 2997
erg@@ 2996
Mis@@ 2995
sin 2995
evi@@ 2994
rag@@ 2988
José 2986
Ali@@ 2985
Vis@@ 2985
Green 2984
Royal 2983
meth@@ 2983
gio 2982
Had@@ 2980
Vin@@ 2980
ür@@ 2980
xon 2974
anah@@ 2973
ymn@@ 2970
1862 2964
ishi 2963
enta 2962
80@@ 2960
PS 2960
Sir@@ 2957
ü@@ 2956
sea 2953
1865 2950
Mill@@ 2950
has@@ 2950
Super@@ 2948
urn@@ 2947
köy 2946
Hong 2945
SM 2942
Arn@@ 2940
SC 2940
Cav@@ 2937
Rose 2933
BC 2931
Hum@@ 2930
ju 2929
ą@@ 2929
ault 2927
14,@@ 2926
CP@@ 2926
Š@@ 2925
León 2923
Nom@@ 2923
wan 2922
ery 2921
aham 2920
Davis 2919
Hav@@ 2919
mul@@ 2919
rac@@ 2919
Kad@@ 2918
DA 2917
ube 2917
Kab@@ 2916
Kus@@ 2916
ku 2915
East 2914
ion@@ 2913
Sah@@ 2911
Soc@@ 2911
nic@@ 2911
Sam 2910
esp@@ 2909
iss 2909
ü 2908
oti@@ 2906
Van@@ 2904
Chris 2902
Val 2902
1858 2901
Trin@@ 2899
Wes@@ 2899
Him@@ 2897
Apo@@ 2896
Fair@@ 2896
Ori@@ 2895
Tok@@ 2893
1848 2892
Ali 2892
dev@@ 2891
sch 2888
PS@@ 2887
lah 2887
Raj@@ 2883
esh@@ 2883
Stone 2882
Su 2881
NAT@@ 2880
gran@@ 2880
Bour@@ 2879
cos@@ 2879
Stand@@ 2877
1840 2875
king 2874
Pir@@ 2871
mit@@ 2869
Day 2868
Pur@@ 2864
phon@@ 2864
enin 2863
I.@@ 2862
kal@@ 2862
aja 2861
ift 2856
CA 2855
Sing@@ 2854
elec@@ 2853
fre@@ 2851
austr@@ 2850
lav@@ 2848
box 2845
Sony 2844
Wiki@@ 2843
ange 2843
Lake 2842
Lewis 2842
Pand@@ 2840
wer 2839
ờ@@ 2838
Ethiopia 2836
olog@@ 2836
Has@@ 2835
Puerto 2834
d. 2834
mus 2834
Little 2831
Liga 2829
teri@@ 2829
show 2826
las 2825
luy@@ 2825
News 2822
aun@@ 2822
Sym@@ 2819
unk@@ 2819
Tat@@ 2818
lock 2818
tric 2815
Harr@@ 2813
over 2813
ık@@ 2813
Azer@@ 2812
oy 2810
mod@@ 2807
ịu 2806
eau 2805
thor@@ 2805
Sas@@ 2802
was 2802
Company 2801
alan@@ 2800
1857 2798
medi@@ 2797
cli@@ 2794
hel@@ 2792
nea 2792
Brand@@ 2790
Kum@@ 2790
kor@@ 2786
Ny@@ 2785
Scot@@ 2785
3,5 2784
1830 2782
Bud@@ 2781
Domin@@ 2781
Norman 2781
Bow@@ 2780
gor@@ 2779
viol@@ 2779
XII 2778
ya@@ 2777
emp@@ 2776
Douglas 2775
Sydney 2775
Ye@@ 2775
Fox 2774
Kob@@ 2774
RO@@ 2774
ks@@ 2774
Allen 2772
Georgia 2772
och 2772
Yor@@ 2770
imp@@ 2769
amin@@ 2766
Nich@@ 2764
roi 2763
Dich@@ 2761
Res@@ 2761
Hid@@ 2758
WWE 2757
gel@@ 2754
oka 2754
cula 2752
CS 2751
Ere@@ 2751
Oregon 2751
1854 2750
College 2747
aman@@ 2746
kon@@ 2745
Bran@@ 2744
Tem@@ 2744
Kim@@ 2743
Franklin 2742
Lap@@ 2738
assi@@ 2737
CC@@ 2736
res 2736
Vik@@ 2733
Cape 2732
ras@@ 2732
1836 2730
oo 2730
160 2729
Brad@@ 2727
dan@@ 2726
Can 2725
Ludwig 2724
Hall 2723
Joe 2723
Hug@@ 2722
Boy 2721
itch 2721
Boliv@@ 2720
Bank 2719
idi 2719
Flor@@ 2718
Aleksand@@ 2717
enberg 2716
tiv@@ 2716
140 2715
FI@@ 2715
utt@@ 2714
Joh@@ 2713
mis 2713
na@@ 2713
ket 2711
Ster@@ 2710
yle 2710
pedia 2707
Uni@@ 2706
chen@@ 2705
sig@@ 2705
ort 2704
· 2704
eck 2703
XIV 2701
ret 2701
uka 2700
1849 2699
Bill 2699
Chart 2695
Rub@@ 2694
America 2693
ats@@ 2693
ges@@ 2692
PA 2690
emen 2690
Banglad@@ 2689
AD@@ 2687
Cho@@ 2687
aku 2687
Mam@@ 2686
achi 2686
mari@@ 2685
35@@ 2680
Moon 2680
Pul@@ 2680
Seine 2680
Lav@@ 2677
ges 2677
ž@@ 2675
onna 2672
Android 2671
enne 2671
stri@@ 2669
DE 2667
Pro 2667
Din@@ 2666
ili 2665
1841 2664
lov@@ 2664
Fun@@ 2663
enf@@ 2663
s. 2660
sun@@ 2659
1872 2658
Gul@@ 2658
Prim@@ 2658
NS@@ 2657
ș@@ 2657
AF@@ 2656
bis@@ 2656
agen 2655
amar@@ 2655
pot@@ 2654
It@@ 2652
its 2651
Alt@@ 2648
Carlos 2647
Guadal@@ 2645
60@@ 2643
1851 2642
Henri 2638
Kis@@ 2637
ardo 2635
avia 2633
chen 2633
Linux 2632
omon 2632
Gold@@ 2631
PlayStation 2630
Barr@@ 2628
Sag@@ 2628
Gam@@ 2625
Pad@@ 2625
ambia 2625
Facebook 2624
Rac@@ 2624
alis@@ 2623
isi 2623
nung 2623
yon 2623
Id@@ 2620
zon@@ 2620
Jersey 2619
Bes@@ 2618
eros 2618
neg@@ 2618
1846 2615
Gel@@ 2615
wil@@ 2615
ağ@@ 2614
ski@@ 2614
hao 2613
ứu 2613
Will@@ 2612
dri@@ 2612
eman 2610
day 2608
pi 2605
Schwar@@ 2604
awi 2602
ies 2602
zam@@ 2602
enna 2601
Corporation 2600
Bad@@ 2599
hem@@ 2599
ont 2599
arch@@ 2598
lé@@ 2597
phot@@ 2595
Jus@@ 2594
Shir@@ 2594
Street 2589
equ@@ 2588
Queen 2587
Fir@@ 2585
iner@@ 2585
edo 2584
ult@@ 2584
leg@@ 2583
Rud@@ 2580
c. 2578
Sig@@ 2577
ades 2577
大@@ 2577
Adam 2575
Francis 2575
multi@@ 2574
Hz 2571
Rica 2571
Galax@@ 2570
British 2569
Land@@ 2565
ń 2565
Cot@@ 2564
eller 2564
sec@@ 2563
Uz@@ 2561
imi@@ 2558
Maj@@ 2556
Anderson 2554
Mike 2553
dan 2550
Gran@@ 2549
ily 2549
anot@@ 2548
dar@@ 2547
1844 2545
Kil@@ 2545
igo 2545
radio 2545
ury 2544
ting 2542
Jan 2541
ag 2540
cio 2539
side 2539
Rhein@@ 2536
agan 2536
Andrew 2534
Team 2532
orr@@ 2532
MI@@ 2531
öy 2530
王 2530
13.@@ 2526
kel@@ 2526
simil@@ 2526
dre@@ 2525
vu 2525
15,@@ 2523
Philip 2523
Mec@@ 2522
Best 2521
1853 2520
Cour@@ 2520
Gab@@ 2520
1845 2519
Aer@@ 2519
anne 2518
ig 2517
350 2516
Stu@@ 2516
centr@@ 2516
ron 2516
ogen 2515
St 2514
ated 2513
atri@@ 2513
Dod@@ 2511
Syl@@ 2511
codice 2511
Mey@@ 2510
Pedro 2508
bau@@ 2508
prop@@ 2508
cot@@ 2507
ids 2507
Hit@@ 2506
Open 2506
ento 2506
oli 2506
sei 2506
atin 2505
gn@@ 2505
som@@ 2502
County 2501
iden 2498
ith@@ 2498
vo 2498
Rod@@ 2497
Schw@@ 2495
Sap@@ 2494
omer@@ 2494
plic@@ 2493
r. 2493
Antonio 2490
je 2490
lon 2490
Bit@@ 2489
Sachsen 2489
proc@@ 2488
SO@@ 2487
Alaska 2484
Otto 2483
bs 2483
Grande 2482
neutr@@ 2482
ode 2481
ulu 2481
Fas@@ 2479
fil@@ 2476
single 2475
Ast@@ 2474
ete 2474
School 2473
pres@@ 2472
Sant@@ 2468
asis 2467
Lawrence 2466
Sun 2466
120@@ 2463
XI 2463
midt 2462
yer@@ 2462
AT 2461
Suz@@ 2460
ck@@ 2459
uth 2459
ATP 2458
Philadelphia 2458
Paulo 2457
ding 2456
atis@@ 2454
Studios 2453
tz 2453
AB@@ 2452
Frederick 2449
ưở@@ 2447
Alli@@ 2446
Uruguay 2446
off@@ 2446
tre@@ 2446
ben@@ 2445
comp@@ 2445
omi 2443
ınar 2443
Medi@@ 2442
ec 2442
Hot@@ 2440
Ố@@ 2440
Adams 2438
Nikol@@ 2438
asi 2438
Ō@@ 2438
key 2437
Great 2436
dea 2436
ầng 2436
ons@@ 2435
sta@@ 2435
Tos@@ 2434
Hamilton 2432
own 2432
cy 2431
any 2429
dh@@ 2428
oke 2427
37@@ 2426
Hand@@ 2426
worth 2426
105 2424
Sci@@ 2423
omo 2422
Girls 2420
esis 2420
ando 2417
Ukraine 2416
Stephen 2413
ask@@ 2413
Ax@@ 2411
Rico 2410
dur@@ 2410
16,@@ 2409
Kie@@ 2409
Tir@@ 2409
enko 2408
vers 2405
Si 2404
mus@@ 2402
ual 2401
pros@@ 2399
Mang@@ 2397
SP@@ 2397
plan@@ 2396
Dj@@ 2395
dam@@ 2394
elles 2394
los 2394
ever 2392
nov@@ 2391
ịa 2390
Aus@@ 2387
Queensland 2385
His@@ 2381
Rome 2381
Alex@@ 2380
bri@@ 2380
AM 2379
Quer@@ 2379
XVI 2379
ouv@@ 2379
ball@@ 2378
etz@@ 2378
Centre 2377
360 2375
Hun@@ 2374
Sof@@ 2374
kat@@ 2374
oro 2374
ég@@ 2372
tra@@ 2371
Key@@ 2369
oud 2369
Ji@@ 2366
pos 2366
aut@@ 2365
org@@ 2365
sson 2365
ony 2364
ores 2363
GB 2362
ix@@ 2362
Ł@@ 2361
Ball@@ 2360
Boy@@ 2360
Bog@@ 2358
Toy@@ 2356
rain 2354
Log@@ 2351
aug@@ 2351
quin@@ 2351
Vladimir 2349
ander 2349
gas@@ 2347
hut@@ 2347
illy 2346
Bed@@ 2345
AA 2344
not 2344
CS@@ 2342
Cast@@ 2338
RI@@ 2336
oug@@ 2335
Dig@@ 2334
House 2333
NO@@ 2332
anl@@ 2332
bal 2332
gene 2332
kir@@ 2332
esch@@ 2331
lim@@ 2331
Siv@@ 2330
pun@@ 2330
ord 2329
Bob 2328
Phoen@@ 2328
Kot@@ 2327
1856 2326
Mississippi 2325
Prov@@ 2325
air 2325
ough 2325
36@@ 2324
Papua 2324
Wh@@ 2324
Ben 2322
125 2321
ante 2319
niti@@ 2313
pon 2313
Union 2312
usi@@ 2312
Les 2311
ident@@ 2310
ias 2309
Tas@@ 2307
14.@@ 2306
Bom@@ 2306
wa@@ 2306
ait 2305
Maxim@@ 2304
ennes 2304
aman 2302
Trans@@ 2301
mur@@ 2300
Carol@@ 2299
ogo 2299
Muhammad 2298
Andre@@ 2297
Gö@@ 2297
k. 2297
rier 2296
Gib@@ 2295
Hus@@ 2294
egr@@ 2294
17,@@ 2293
Creek 2292
Sad@@ 2292
Theod@@ 2292
General 2291
Tw@@ 2291
more 2291
August@@ 2289
Bad 2288
Girl 2287
court 2287
eira 2285
Rab@@ 2283
Alfred 2280
nat@@ 2279
sho@@ 2279
Ẩ@@ 2278
Roger 2277
ones 2277
ous@@ 2277
inf@@ 2275
syn@@ 2275
Phone 2273
cic@@ 2273
On 2272
Series 2270
bak@@ 2270
Apol@@ 2269
Lec@@ 2269
enh@@ 2268
uni 2268
pec@@ 2267
IS 2266
North@@ 2266
alg@@ 2264
ún 2261
hii 2259
Yel@@ 2257
ext 2257
Yak@@ 2254
Port 2251
abe 2249
qui@@ 2249
Ein@@ 2248
mini 2247
bot@@ 2246
ud 2245
Aqu@@ 2244
ingi@@ 2244
teri 2244
Lady 2243
light 2243
min 2242
1847 2241
arra 2241
Afr@@ 2239
Benn@@ 2239
ffer@@ 2238
EU 2237
Sultan 2234
ago@@ 2234
Catherine 2233
Ś@@ 2230
aro@@ 2229
Alice 2228
Ford 2226
HT@@ 2226
Od@@ 2226
wich 2226
ñ@@ 2225
oko 2224
amia 2223
Hip@@ 2221
sep@@ 2220
Center 2219
Zo@@ 2219
Buch@@ 2217
Steve 2217
ner@@ 2217
usalem 2217
Cla@@ 2216
hat 2216
lus@@ 2215
MP@@ 2214
uro 2212
Fantas@@ 2211
kali 2211
Aj@@ 2210
eki 2210
mond 2210
mut@@ 2210
ées 2210
Chel@@ 2209
Gas@@ 2209
1,2 2208
Radio 2208
section 2208
Berg@@ 2206
ister@@ 2206
Clark 2205
Fon@@ 2205
ej@@ 2205
ön@@ 2204
Harvard 2201
Margaret 2201
Fro@@ 2199
up 2199
anger 2198
mun@@ 2198
1837 2197
apar@@ 2197
formes 2197
wen@@ 2197
Syr@@ 2196
ect 2196
gu 2196
mati@@ 2196
eger 2195
Fel@@ 2194
Herbert 2194
Inc. 2194
urt 2192
ust 2192
CBS 2190
Napo@@ 2189
Jos@@ 2188
cip@@ 2188
feld 2187
lio 2187
1833 2186
Chir@@ 2186
Pass@@ 2186
Sir 2186
eter 2185
Lon@@ 2184
but@@ 2183
Ich@@ 2182
1842 2181
Alabama 2181
psych@@ 2181
ump@@ 2181
Gau@@ 2179
Howard 2179
Jung@@ 2178
Rober@@ 2175
pler 2175
yak@@ 2175
IC 2172
TC 2171
45@@ 2170
Mass@@ 2169
Schleswig 2169
Bell@@ 2167
LE@@ 2167
bek@@ 2167
Lot@@ 2166
Shak@@ 2166
Ferdinand 2161
Yas@@ 2161
God@@ 2160
cell@@ 2160
eston 2160
Europa 2159
burn 2159
Guar@@ 2157
NA 2157
Sierra 2153
Your 2153
aven 2153
amo 2152
eme 2152
occ@@ 2149
zant@@ 2149
Lig@@ 2148
Villa 2148
idel@@ 2148
Oxford 2147
1824 2146
Kö@@ 2144
Zh@@ 2142
Asia 2141
Bell 2140
Ray 2140
hip@@ 2140
Long@@ 2139
aft 2139
gom@@ 2138
Augus@@ 2137
Rog@@ 2136
amba 2135
annes 2134
18,@@ 2133
Hoff@@ 2133
Willi@@ 2132
color 2132
internet 2132
Kay@@ 2131
bes 2131
Lau@@ 2130
1852 2129
33@@ 2129
af 2129
enger 2128
eh 2127
Luxemb@@ 2126
Nord@@ 2125
Neg@@ 2124
dam 2124
Div@@ 2122
Nec@@ 2122
Nob@@ 2122
Anim@@ 2121
Ind@@ 2121
Kag@@ 2121
Miller 2120
aza 2119
ER@@ 2118
outh 2117
z. 2117
Pep@@ 2116
Princ@@ 2116
ider@@ 2115
kt 2115
1843 2113
cir@@ 2113
ize 2113
1839 2111
adel@@ 2111
ères 2111
0,5 2110
Shu@@ 2108
Alex 2107
els@@ 2107
Ard@@ 2106
River 2106
UK 2105
HD 2103
ert 2102
NASA 2100
No 2100
Lov@@ 2099
media 2099
Hur@@ 2096
University 2096
gar 2096
15.@@ 2095
Rand@@ 2094
dy@@ 2094
yer 2094
Grant 2092
1832 2090
Ferr@@ 2088
Jar@@ 2088
Moz@@ 2088
16.@@ 2086
AP 2086
ngu@@ 2086
Stor@@ 2085
pia 2085
aire 2084
108 2083
Glo@@ 2083
Walker 2083
ango 2082
Up 2081
cost@@ 2081
üt@@ 2079
LC 2078
Victor 2078
ally 2078
Colorado 2077
LA 2074
Boul@@ 2073
ados 2073
wh@@ 2073
Arizona 2072
Tod@@ 2072
Down 2071
gam@@ 2070
Adri@@ 2069
Channel 2069
cal 2069
etti 2069
Mob@@ 2068
Venez@@ 2068
Eric 2067
Bun@@ 2065
Kennedy 2065
chan@@ 2065
eder@@ 2064
tions 2064
Tab@@ 2057
Baden 2056
ana@@ 2056
1834 2055
Mé@@ 2054
bec@@ 2051
dro@@ 2051
ations 2050
bac@@ 2050
Ton@@ 2048
Wy@@ 2048
Alan 2047
Č@@ 2047
170 2046
1827 2045
ander@@ 2044
fe 2044
quar@@ 2044
Fern@@ 2043
SS@@ 2043
Rou@@ 2042
pas@@ 2042
Kel@@ 2041
aş@@ 2041
camp@@ 2040
38@@ 2038
ays 2038
Angola 2035
ott 2035
uru 2035
Chal@@ 2033
eu 2033
Brian 2032
Mem@@ 2032
aut 2032
Final 2030
dale 2030
1855 2029
Twitter 2029
vers@@ 2029
Gard@@ 2028
his@@ 2028
oda 2027
ann 2026
hot@@ 2026
Houston 2025
pet@@ 2025
Esp@@ 2023
oper@@ 2023
IG@@ 2022
then 2022
220 2021
AL@@ 2021
Studio 2021
sex 2021
Jun@@ 2019
Lanc@@ 2019
uto 2017
Pop@@ 2016
win@@ 2016
aa 2015
Nieder@@ 2013
0,000 2010
by@@ 2010
elo 2010
ux 2010
Tony 2008
view 2008
High 2007
Zimbab@@ 2007
ei@@ 2007
King@@ 2005
nar@@ 2004
pom@@ 2003
Franz 2002
stan@@ 2002
Lyn@@ 2001
gin 2001
ár@@ 1999
aster@@ 1997
Jane 1996
First 1995
Que@@ 1995
AR 1994
anta 1994
hen@@ 1994
rig@@ 1993
39@@ 1992
Grim@@ 1992
Pictures 1992
Cant@@ 1991
kur@@ 1991
ces 1990
otom@@ 1990
ester@@ 1988
ism 1988
test@@ 1988
Spir@@ 1987
Hard@@ 1985
Wa@@ 1985
Hul@@ 1984
mund 1983
cyc@@ 1982
ment 1982
ourg 1982
unt 1982
Nan@@ 1981
Fur@@ 1980
sam 1980
Bruce 1978
alli@@ 1978
Bush 1977
Is 1977
Saf@@ 1976
burgh 1974
John@@ 1973
neum@@ 1973
species 1973
Bra@@ 1971
aç@@ 1970
lev@@ 1970
34@@ 1968
109 1967
Two 1967
agua 1967
Am 1964
now@@ 1964
set@@ 1964
sev@@ 1964
450 1963
Guatemala 1963
minor 1963
tari@@ 1963
{ 1962
Sali@@ 1960
Yen@@ 1960
ante@@ 1960
fle@@ 1958
Tou@@ 1957
cro@@ 1957
this 1957
Emil@@ 1956
Î@@ 1955
102 1954
Vietnam 1953
ws 1953
Beach 1951
evo 1950
wald 1950
IP 1949
Jak@@ 1949
Luci@@ 1949
1800 1948
Gur@@ 1947
aska 1947
fran@@ 1947
indi@@ 1947
17.@@ 1946
Mosco@@ 1946
mont@@ 1946
alc@@ 1945
Prom@@ 1942
1825 1941
Toronto 1941
Catal@@ 1940
Rat@@ 1940
Rein@@ 1940
dav@@ 1940
syl@@ 1939
eza 1938
1831 1937
Dance 1936
RE@@ 1936
Abu 1935
Um@@ 1934
allas 1934
70@@ 1932
We 1932
Japan 1931
München 1931
Co 1930
Eli@@ 1929
Il 1929
Maine 1929
Will 1929
Sac@@ 1928
asti@@ 1928
Network 1927
apa 1927
olas 1927
Point 1925
ple 1925
Sund@@ 1924
att 1924
orn 1924
vid@@ 1922
25,@@ 1921
ms 1919
19,@@ 1918
Anton@@ 1918
CE@@ 1918
Ni 1918
Thr@@ 1918
Tim 1918
PC@@ 1915
dé@@ 1915
Old 1914
og 1914
24,@@ 1913
enni@@ 1913
japon@@ 1909
This 1908
idge 1908
gre@@ 1905
bie 1904
hiz@@ 1903
spi@@ 1903
uck 1903
UTC 1902
VI@@ 1902
edia 1902
opp@@ 1902
tag@@ 1902
Agu@@ 1899
auc@@ 1899
ako 1898
South@@ 1897
ped@@ 1897
Sn@@ 1896
María 1895
mak@@ 1895
orient@@ 1895
Tul@@ 1894
aven@@ 1894
Under@@ 1893
Dum@@ 1892
ż@@ 1892
AL 1891
ight@@ 1891
127 1890
blo@@ 1889
3000 1888
47@@ 1888
ë@@ 1888
α 1888
22@@ 1887
ayi 1887
Aut@@ 1886
Dow@@ 1885
Valley 1884
TE@@ 1882
XV 1882
BA 1881
Play@@ 1880
Wayne 1880
Isab@@ 1878
Junior 1877
zu 1877
Dro@@ 1876
pon@@ 1876
doc@@ 1874
arren 1873
Pop 1872
Ped@@ 1871
Vy@@ 1871
1828 1870
Tag@@ 1870
You@@ 1870
esper@@ 1870
unter 1870
104 1869
Heinrich 1869
Napole@@ 1867
Fil@@ 1865
ader 1865
amen 1864
Russell 1863
Johann 1862
rea 1862
tir@@ 1861
XX@@ 1860
osis 1860
Anthony 1859
Ras@@ 1859
argent@@ 1859
kam@@ 1859
poli@@ 1859
4,5 1858
48@@ 1858
Bretagne 1858
May 1857
IP@@ 1856
urg 1856
agon@@ 1855
Digital 1853
pod@@ 1853
王@@ 1852
Hub@@ 1851
Cul@@ 1850
Miss 1850
ement 1850
å@@ 1850
esse 1849
itter 1849
Mario 1847
Pier@@ 1845
Port@@ 1843
Prince 1843
Cros@@ 1841
dorf 1841
enth@@ 1841
1835 1840
ely 1840
Wak@@ 1837
tab@@ 1837
Jr 1836
ướm 1836
Bla@@ 1834
loyd 1833
urs 1833
Adel@@ 1832
plas@@ 1829
Rum@@ 1828
Be 1827
20,@@ 1826
ève 1826
Aug@@ 1825
François 1825
ose 1825
ğ 1824
26,@@ 1823
lier 1823
Award 1822
igh 1821
ina@@ 1820
nan 1820
inga 1818
novel 1818
AK@@ 1817
Baz@@ 1817
cau@@ 1817
mir 1817
Land 1816
öl@@ 1816
Las 1815
ody 1815
ways 1815
hid@@ 1814
stone 1814
Comp@@ 1813
DJ 1812
Kle@@ 1812
Marvel 1812
Road 1809
anti 1809
asha 1808
ents 1808
let 1808
acer@@ 1807
ampton 1807
190 1806
Warner 1806
imi 1806
mel 1806
nd@@ 1806
lins 1805
Chin@@ 1804
Deb@@ 1802
Isa@@ 1799
Jacques 1799
Lak@@ 1798
hop 1797
oca 1797
Gaz@@ 1796
ces@@ 1796
27,@@ 1795
Bob@@ 1795
Hud@@ 1795
Ner@@ 1794
Ryan 1794
Nas@@ 1793
XVIII 1793
320 1792
Satur@@ 1792
canal 1791
gun 1791
ī@@ 1791
Golden 1789
cher@@ 1789
Band@@ 1787
teria 1786
ental 1785
Zen@@ 1783
ache 1783
18.@@ 1782
MP 1782
peri@@ 1782
ave@@ 1781
23,@@ 1780
tern@@ 1780
1826 1778
Kath@@ 1778
Stein@@ 1778
ches 1778
ats 1776
ling@@ 1775
tics 1775
Christopher 1772
ers@@ 1772
gem@@ 1772
agne 1771
rug@@ 1771
Miami 1770
igi 1770
Iz@@ 1769
AD 1767
Lud@@ 1767
Wer@@ 1767
Philippe 1766
Morgan 1765
Samuel 1765
abad 1765
este 1765
Kap@@ 1764
mark 1764
metal 1763
Enter@@ 1762
MS@@ 1762
Zar@@ 1761
Blu@@ 1759
Chor@@ 1759
Raymond 1759
Brook@@ 1758
Ichneum@@ 1758
Fac@@ 1756
ager 1756
Geor@@ 1755
TO@@ 1755
Hans 1754
Avi@@ 1753
Hak@@ 1753
sang@@ 1753
bey 1752
com 1752
far@@ 1752
mouth 1752
Kevin 1751
tac@@ 1750
Turk@@ 1748
rep@@ 1748
Lie@@ 1747
Patr@@ 1747
anak@@ 1746
Jim 1745
eer 1744
Nelson 1743
sac@@ 1743
VA 1742
ehr@@ 1742
mexic@@ 1742
Charl@@ 1741
ants 1741
GP@@ 1735
Good 1735
Philipp@@ 1735
Lucas 1734
aj 1734
³ 1734
Gros@@ 1732
Wright 1732
128 1731
Mut@@ 1730
Patrick 1730
arina 1730
ingo 1730
Vie@@ 1729
Cru@@ 1728
Play 1728
Pra@@ 1728
lich@@ 1728
107 1727
App@@ 1727
CC 1727
super@@ 1727
20.@@ 1726
zu@@ 1725
gir@@ 1724
nati@@ 1724
1829 1722
olm 1722
onlyinclude 1722
Hart@@ 1721
Santiago 1721
tad@@ 1721
Panz@@ 1720
eş@@ 1719
Lem@@ 1717
radi@@ 1717
tz@@ 1717
皇@@ 1717
house 1716
Gener@@ 1715
Rolling 1715
22,@@ 1714
Power 1713
李@@ 1713
Gra@@ 1712
aron 1711
fli@@ 1711
Mod@@ 1710
uvent@@ 1710
za@@ 1710
ayo 1709
fon@@ 1709
ights 1709
Heart 1708
now 1708
Kul@@ 1707
ph 1707
1820 1706
trac@@ 1706
wak@@ 1705
Carter 1703
isha 1703
SD 1701
gens 1701
Aires 1700
zen@@ 1699
wor@@ 1698
Men 1697
alan 1697
90@@ 1696
Melbourne 1696
ister 1696
may@@ 1696
oz 1696
Robin 1695
üm@@ 1694
Jag@@ 1693
anch@@ 1693
uer@@ 1693
22.@@ 1692
sing@@ 1692
Son 1689
alt 1689
oun 1689
21.@@ 1688
Buenos 1688
1810 1687
ran 1687
DE@@ 1686
eim 1686
iz 1686
Mess@@ 1684
kab@@ 1684
Bundesliga 1683
sag@@ 1683
Barbara 1682
106 1681
115 1681
Cruz 1680
ady 1680
anii 1680
sl@@ 1679
tul@@ 1679
War 1678
benz@@ 1677
cid@@ 1676
int 1676
uga 1676
él@@ 1676
103 1673
squ@@ 1673
How@@ 1672
Ontario 1672
Tour@@ 1672
bu 1672
lag@@ 1672
nucle@@ 1671
ful 1670
Jum@@ 1668
mas 1668
rie 1668
Mac 1666
ā 1665
Santo 1664
main 1664
「 1664
Gle@@ 1663
Fut@@ 1662
Harris 1662
Home 1662
khe@@ 1662
anos 1661
CO 1660
DF 1660
」 1660
lik@@ 1659
model 1659
IA 1658
Kenn@@ 1658
uri@@ 1658
Lic@@ 1657
Yan@@ 1657
hin 1657
n.@@ 1657
Mom@@ 1656
eff 1656
uno 1653
124@@ 1651
Tennessee 1651
Gabriel 1650
Good@@ 1650
Lord 1649
Lyon 1648
Matthe@@ 1648
ital 1648
azi 1646
fel@@ 1645
vier 1645
zen 1645
Sub@@ 1644
mern 1644
yar@@ 1644
Card@@ 1643
oty@@ 1643
pri@@ 1643
Sebasti@@ 1642
borough 1641
das 1640
Adolf 1639
fili@@ 1639
hard 1639
ser 1639
other@@ 1638
} 1638
andi 1637
tit@@ 1637
Anh@@ 1636
ams 1635
111 1634
Dipl@@ 1634
PE@@ 1634
Jud@@ 1633
lard 1632
oper 1632
Orch@@ 1631
Web 1631
113 1628
135 1628
lers 1627
Rev@@ 1626
pper 1626
tico 1626
Coll@@ 1625
China 1624
Sey@@ 1624
BM@@ 1623
Jimmy 1622
Dim@@ 1620
Ray@@ 1620
Ses@@ 1618
fac@@ 1618
zar@@ 1618
Sek@@ 1617
dies@@ 1617
itt 1615
that 1615
İ@@ 1615
eb 1614
Bod@@ 1613
Luis 1613
oss 1613
240 1612
Post 1612
kom@@ 1612
mani 1612
Association 1611
sha 1611
Bres@@ 1609
Story 1609
ology 1609
Fort 1607
Kak@@ 1607
Ou@@ 1607
dil@@ 1607
leb@@ 1607
mix@@ 1607
augh@@ 1605
Orange 1604
Penn@@ 1604
Ern@@ 1603
sap@@ 1603
otte 1602
1500 1601
46@@ 1601
IBM 1600
ayan 1599
mang@@ 1599
19.@@ 1597
BO@@ 1597
eland 1597
yat@@ 1597
Type 1596
idad 1596
wi 1596
Pow@@ 1594
Sea 1592
ef 1592
Hut@@ 1590
Monte@@ 1589
Paraguay 1588
his 1588
vil 1588
Manuel 1587
ao@@ 1587
coron@@ 1587
1806 1584
MO@@ 1584
rik 1584
55@@ 1583
Charlie 1583
Roy@@ 1583
Swe@@ 1581
ilio 1580
Vincent 1579
emer@@ 1579
Alber@@ 1578
ahr@@ 1578
area 1578
Ö@@ 1578
peti@@ 1577
21,@@ 1576
fort 1576
Coun@@ 1575
ego 1575
ór@@ 1575
100@@ 1574
ague 1574
tot@@ 1572
iler 1571
ason 1570
Cum@@ 1569
Fest@@ 1568
jan@@ 1568
210 1567
sun 1567
eles 1566
chor@@ 1565
Festival 1564
sion 1564
ted 1564
track 1564
Budap@@ 1563
Sarah 1563
zur@@ 1563
ario 1562
plo@@ 1562
tem 1562
André 1561
And@@ 1560
rod@@ 1559
uba 1559
ın 1559
rog@@ 1558
ection 1557
wn 1557
Pays 1556
heim@@ 1556
phy 1555
sou@@ 1555
Wel@@ 1554
uli 1554
AG@@ 1553
ique 1553
65@@ 1551
okia 1551
onga 1551
ustr@@ 1551
yana 1551
abi 1548
1801 1547
DI 1547
Chr. 1546
ŏ@@ 1546
Boys 1545
Las@@ 1545
dos 1545
tepe 1545
blin 1544
cum@@ 1544
aver@@ 1543
Han 1542
jazz 1542
Nap@@ 1541
Kamp@@ 1540
acy 1540
hil 1540
Jon@@ 1539
Neu@@ 1539
Santos 1537
plus 1537
IE@@ 1535
Roy 1535
Stre@@ 1535
wick 1535
XVII 1534
ture 1533
ating 1532
1812 1531
EC 1531
Eth@@ 1531
IF@@ 1531
afric@@ 1531
IT@@ 1530
Jason 1530
Yah@@ 1530
atic 1530
base 1530
mail 1529
oux 1529
1789 1528
Fol@@ 1527
lem 1527
.S. 1526
Andy 1526
bourg 1525
into 1525
AF 1524
fen@@ 1524
Leopol@@ 1523
mon 1523
lec@@ 1522
FF 1521
Maryland 1521
clav@@ 1521
Feder@@ 1520
Kır@@ 1520
conf@@ 1520
etr@@ 1520
Tap@@ 1519
ild 1519
occident@@ 1519
ono 1519
Arena 1518
aye 1518
cep@@ 1518
AV@@ 1517
Dir@@ 1517
Shel@@ 1517
Amsterdam 1516
ahn 1516
oya 1516
1802 1515
Kelly 1515
Light 1515
Like 1514
System 1513
What 1513
Gordon 1512
Leo 1512
Palm@@ 1512
frag@@ 1512
112 1511
other 1510
Jur@@ 1509
tax@@ 1509
ôme 1509
alo 1508
æ@@ 1508
49@@ 1507
Cou@@ 1507
Mau@@ 1507
ahl@@ 1506
net@@ 1506
Dream 1504
arti@@ 1503
Daw@@ 1500
attle 1500
Clau@@ 1499
Ut@@ 1499
ape 1499
aun 1499
plaz@@ 1499
tes@@ 1499
Wag@@ 1498
duras 1498
you 1498
ác@@ 1498
nes@@ 1497
tier 1496
Universal 1495
etto 1495
1821 1493
44@@ 1493
Nick 1493
see 1493
sh 1493
115@@ 1492
ABC 1492
152 1490
aud 1490
onu 1489
ender@@ 1487
lif@@ 1487
Hein@@ 1486
Ross 1486
illes 1486
Chall@@ 1485
aban 1485
ble@@ 1485
Dark 1484
Lé@@ 1484
ills 1484
pig@@ 1484
eler 1482
forme 1482
vor@@ 1482
bas 1480
Salvador 1479
ells 1479
German 1478
23.@@ 1477
how 1477
State 1476
try 1476
zur 1476
‎ 1476
fes@@ 1475
Anat@@ 1474
iller 1474
out@@ 1473
tom 1473
clar@@ 1471
Benjamin 1470
Cec@@ 1470
ris@@ 1470
cru@@ 1469
gs 1469
Vall@@ 1466
lands 1466
Cad@@ 1465
Leb@@ 1465
act 1465
inda 1464
Giovanni 1463
Hamburg 1463
Vog@@ 1462
wen 1462
ï@@ 1462
ır 1461
Dan 1459
sta 1459
sula 1459
ML 1458
Rach@@ 1458
egas 1457
RS 1456
back 1456
zo@@ 1456
Chev@@ 1455
Project 1455
tron@@ 1454
ward 1454
75@@ 1452
Stockh@@ 1452
aden 1452
oes 1452
Indi@@ 1451
Raf@@ 1450
lara 1450
Zi@@ 1449
zon 1448
750 1447
High@@ 1447
230 1446
Stewart 1445
dance 1445
sign@@ 1445
Franc@@ 1444
án@@ 1444
š 1444
Reb@@ 1443
Oliver 1442
RT@@ 1442
aker 1442
Comm@@ 1441
kina 1441
Water@@ 1440
lip 1440
Wolf 1438
castle 1438
Cath@@ 1437
yes 1437
Fa@@ 1436
lab@@ 1436
nas@@ 1436
后 1436
Foundation 1435
Laz@@ 1435
Tig@@ 1435
grap@@ 1435
vey 1435
To 1434
atu 1434
Tow@@ 1433
ator@@ 1433
cle@@ 1433
kale 1432
Atlan@@ 1431
Christ 1431
Jay 1431
Office 1431
PO@@ 1431
rez 1431
audi@@ 1430
Ass@@ 1428
Monte 1426
uel@@ 1426
ses 1425
tran@@ 1425
126 1424
天@@ 1424
Art 1423
Robinson 1423
ancy 1423
That 1422
ards 1422
August 1420
ISO 1420
Singles 1420
eran 1420
iku 1420
jar@@ 1420
her 1418
kel 1418
Line 1417
abra 1417
Phys@@ 1416
Tek@@ 1416
fun@@ 1416
Ib@@ 1415
duc@@ 1414
Frankfurt 1413
Hoh@@ 1413
ough@@ 1413
± 1413
ë 1413
280 1412
Out 1412
ative 1411
zh 1411
que@@ 1410
Et@@ 1409
Way 1409
uz 1409
Austin 1408
Pho@@ 1408
bras@@ 1408
sos@@ 1408
Viet@@ 1406
speci@@ 1406
Arab@@ 1405
Columb@@ 1405
He 1405
Kem@@ 1405
elen 1405
tal 1405
Ž@@ 1405
Rodr@@ 1404
dian 1404
isch 1403
unga 1403
census 1402
unge 1402
vent@@ 1402
jan 1401
122 1400
down 1400
riv@@ 1400
very 1400
nom 1398
Mov@@ 1397
Valencia 1397
wanda 1397
avi 1396
gil@@ 1396
Abdul@@ 1395
Castro 1395
Sports 1395
Tes@@ 1395
Yar@@ 1394
def@@ 1394
adu@@ 1393
ares 1393
tif@@ 1393
cover 1390
hur@@ 1390
IO@@ 1389
Roman 1389
1805 1388
Michel 1388
Pak@@ 1388
PP@@ 1387
ayn@@ 1387
var 1386
ley@@ 1385
şehir 1385
GM 1384
né 1384
Fernando 1383
jam@@ 1383
Eg@@ 1382
Global 1382
Hey@@ 1382
Women 1382
nier 1382
LO@@ 1381
Wind@@ 1381
Zam@@ 1381
dio 1381
Central 1380
Hali@@ 1380
330 1379
chester 1379
5000 1377
123 1375
cav@@ 1375
Charlotte 1374
cab@@ 1374
phone 1374
prin@@ 1374
ME@@ 1373
BI 1372
oj@@ 1372
Square 1371
太@@ 1371
1819 1369
cri@@ 1369
SI 1368
rio 1368
sex@@ 1368
alla 1367
ought 1367
Ander@@ 1366
Jacob 1366
57@@ 1365
igi@@ 1365
nik@@ 1365
rom 1364
ums 1364
Denis 1363
ois@@ 1363
stadt 1363
文@@ 1363
Bé@@ 1362
dir@@ 1362
wel@@ 1362
inst@@ 1361
Janeiro 1360
onic 1359
→ 1359
Gem@@ 1358
260 1357
ş 1357
oks 1355
Batt@@ 1354
ren 1354
Ă@@ 1354
sand@@ 1351
7,5 1350
Ha 1350
Iv@@ 1349
Lo 1349
cus@@ 1349
ric 1348
star@@ 1348
Kut@@ 1347
Math@@ 1347
Tax@@ 1347
vern@@ 1347
1818 1346
them@@ 1345
201@@ 1344
Crim@@ 1344
auch@@ 1344
fru@@ 1344
edr@@ 1343
wid@@ 1343
vec@@ 1342
azar 1341
enge 1341
inos 1341
ior 1341
neur@@ 1341
trat 1340
INSE@@ 1339
ondo 1338
Kentucky 1337
är@@ 1337
43@@ 1336
lyn 1336
spr@@ 1336
Daily 1335
Was@@ 1335
emat@@ 1335
part@@ 1335
Say@@ 1334
iter 1334
kul@@ 1334
Sound 1333
124 1332
Nicol@@ 1331
aş 1331
Ü@@ 1331
1815 1330
117 1329
Pay@@ 1329
Poc@@ 1329
hav@@ 1329
RT 1328
SN@@ 1328
cos 1328
namo 1328
Stanley 1327
aum 1327
ović 1327
Bernard 1326
Lad@@ 1326
Württemberg 1326
Koh@@ 1325
elin 1323
Leh@@ 1322
Run@@ 1322
kim@@ 1322
Atlanta 1321
Dru@@ 1321
lis@@ 1321
bun@@ 1320
olan 1320
155 1319
Georges 1319
gul@@ 1319
ness 1319
Gren@@ 1318
Jonathan 1318
a.@@ 1318
craft 1318
CEO 1316
FM 1316
Map@@ 1316
Matt 1315
has 1315
nin 1313
58@@ 1312
End 1311
Riv@@ 1311
elop@@ 1311
qui 1311
igg@@ 1310
Johannes 1309
lake 1309
rid@@ 1309
sik@@ 1309
Nord 1308
hap@@ 1308
hatt@@ 1308
« 1308
Songs 1307
aup@@ 1307
ods 1307
core 1306
hon@@ 1306
less 1306
270 1305
Sá@@ 1305
rati@@ 1304
ège 1304
Ré@@ 1303
Book 1302
ders 1302
kun@@ 1302
onym@@ 1302
post@@ 1302
star 1301
RC 1300
kw@@ 1300
live 1300
ıy@@ 1299
Capit@@ 1298
cel 1298
Anc@@ 1297
Hay 1296
tei 1296
Gold 1295
Miguel 1295
England 1294
ru 1294
Ris@@ 1293
mid@@ 1291
atori@@ 1290
azar@@ 1290
1814 1289
Produc@@ 1289
Ret@@ 1289
Uta@@ 1289
1804 1288
USA 1288
ink 1288
1822 1287
etti@@ 1287
£ 1286
üz@@ 1286
rid 1285
sat@@ 1285
1823 1284
Engl@@ 1284
ML@@ 1284
Mann@@ 1284
Song@@ 1283
fri@@ 1283
prim@@ 1283
175 1282
Film 1282
ña 1282
mec@@ 1281
118@@ 1280
116 1278
Griff@@ 1278
119@@ 1277
121 1277
Press 1277
eds 1277
seri 1277
serv@@ 1277
tas@@ 1277
anj@@ 1276
rur@@ 1276
war 1276
Jack@@ 1275
abri@@ 1274
tsch@@ 1274
val 1273
wards 1273
1803 1272
kes 1272
nm 1272
bach@@ 1271
form 1271
ingia 1271
major 1271
Claude 1269
Hermann 1269
Num@@ 1269
Pam@@ 1267
Society 1267
lot 1267
lun@@ 1267
www.@@ 1267
ửi 1267
Express 1266
Nur@@ 1266
Vig@@ 1265
iken 1265
ț@@ 1265
Stil@@ 1263
stanbul 1263
Who 1262
550 1261
cali@@ 1261
Pear@@ 1260
altar 1260
Mars 1258
prise 1258
ador 1257
Martin@@ 1256
angers 1255
sab@@ 1255
Copa 1254
Haz@@ 1254
Sky 1254
parti@@ 1254
Ż@@ 1251
End@@ 1250
Kop@@ 1250
Louise 1250
Meh@@ 1249
Mr. 1249
ern 1249
nav@@ 1249
pag@@ 1249
obi 1248
red 1248
sel 1248
114 1247
Dani@@ 1247
Emer@@ 1247
atom@@ 1247
med@@ 1247
rad 1247
Just 1246
pend@@ 1246
wall 1245
β 1245
56@@ 1243
board 1243
ilo 1243
Master 1242
1813 1241
Fred 1241
Trav@@ 1241
zer@@ 1241
Top@@ 1240
118 1238
145 1238
AG 1238
Fili@@ 1238
ends 1237
1817 1236
Earth 1236
Gün@@ 1236
hil@@ 1236
integ@@ 1236
stell@@ 1235
SE 1234
Sainte 1233
公 1233
Jose@@ 1232
ilian 1232
quer@@ 1232
Ð@@ 1230
ạ@@ 1230
ladi@@ 1229
HP 1228
hara 1228
» 1228
Johnny 1227
Maurice 1227
troph@@ 1227
és 1227
Ges@@ 1226
bor 1224
imar@@ 1224
ties 1224
Space 1223
ock@@ 1223
ying 1223
dar 1222
logo 1222
sak@@ 1222
yu@@ 1222
Athle@@ 1221
Opera 1221
een 1221
Back 1220
bis 1219
ems 1219
pit@@ 1219
éc@@ 1219
emati@@ 1218
gang 1218
Last 1217
Off@@ 1217
Rosa 1217
nen 1217
Arts 1215
Sl@@ 1215
Fire 1214
aves 1214
bank 1214
ouver 1214
Iron 1213
eg 1213
trad@@ 1213
Rel@@ 1212
quez 1212
viv@@ 1211
Science 1210
eine 1210
endi@@ 1210
129 1209
RA 1208
Asian 1207
cht 1207
iva 1207
begin 1205
Day@@ 1204
Dead 1204
ener 1204
Syst@@ 1203
Billy 1201
alls 1201
ç 1201
auer 1200
cons@@ 1200
dition 1200
enda 1200
Aş@@ 1199
Kno@@ 1199
mit 1199
Well@@ 1198
ause 1198
ige 1198
vat@@ 1198
wr@@ 1198
AB 1197
kaya 1197
Prix 1195
kö@@ 1195
onde 1195
yaz@@ 1195
Ann 1194
sche 1194
53@@ 1193
67@@ 1193
sid@@ 1193
under 1193
Marc 1192
arab@@ 1192
ư@@ 1192
http 1191
EM@@ 1190
rates 1189
­ 1189
č 1189
anya 1188
eka 1188
ilg@@ 1188
rus@@ 1188
Forest 1187
Kent 1187
Thompson 1187
başı 1187
ograp@@ 1187
rang 1187
tory 1187
68@@ 1186
Gary 1186
Spi@@ 1186
Yer@@ 1186
imo 1186
县 1186
bian 1185
studio 1184
versi@@ 1183
arch 1182
eber@@ 1182
oman 1181
Imp@@ 1180
Zel@@ 1180
Kızıl@@ 1179
Tah@@ 1179
ingi 1179
Gó@@ 1178
ingu@@ 1178
Nicolas 1177
fish 1177
Ek@@ 1176
Rak@@ 1176
ree 1176
Marse@@ 1173
wit@@ 1173
Connecticut 1172
iba 1172
ots 1172
Sud@@ 1170
org 1170
Western 1169
Sev@@ 1168
ien 1168
reich 1168
Gott@@ 1167
tun@@ 1166
子 1166
\ 1165
Empire 1164
if 1164
kol@@ 1164
ush 1164
water 1164
DV@@ 1163
ể@@ 1163
anny 1162
Form@@ 1161
ehr 1161
kshire 1161
Pos@@ 1160
ism@@ 1160
cu 1159
Reich@@ 1158
ibn 1158
Berg 1157
crip@@ 1157
Journal 1156
cera 1156
tn@@ 1156
pot 1155
kus@@ 1154
Cri@@ 1153
Ian 1153
boy 1153
hard@@ 1153
rif@@ 1153
132 1152
Art@@ 1152
114@@ 1151
1792 1151
Rech@@ 1151
eshi 1151
ır@@ 1151
Hugo 1150
Sok@@ 1150
ision 1150
kas@@ 1150
ment@@ 1150
Wah@@ 1149
vet@@ 1149
Main@@ 1148
inn 1148
prol@@ 1148
uda 1147
117@@ 1146
650 1145
Diam@@ 1145
aji 1145
Olympi@@ 1144
cast 1144
kara 1144
stein@@ 1144
Alger@@ 1143
113@@ 1142
Law@@ 1142
bei 1142
mek@@ 1142
24.@@ 1141
cut@@ 1141
pson 1141
sberg 1141
blu@@ 1140
ườ@@ 1140
Bass@@ 1139
cad@@ 1139
stre@@ 1139
， 1139
allo 1138
alta 1138
dom 1138
ads 1137
ature 1137
ains 1136
esses 1136
par 1135
Anto@@ 1134
ON@@ 1134
orio 1134
yal@@ 1134
1808 1133
25.@@ 1133
ls 1133
tos 1133
kum@@ 1132
verse 1132
ás@@ 1132
380 1130
hen 1130
tiva 1130
ves@@ 1129
mach@@ 1128
Crist@@ 1126
capit@@ 1126
Four@@ 1125
SK 1124
ahl 1124
Over@@ 1123
igan 1123
minut@@ 1123
Academy 1122
Eisen@@ 1121
uj@@ 1121
wol@@ 1121
but 1120
orb@@ 1120
gy 1119
Brothers 1118
Schul@@ 1118
Sever@@ 1118
People 1117
atur@@ 1117
beri 1117
ouse 1117
Ernst 1116
Metro 1116
Inst@@ 1115
oti 1115
achsen 1114
ausen 1114
enzo 1114
har 1114
26.@@ 1113
Christi@@ 1113
box@@ 1112
1807 1111
Campbell 1110
Kre@@ 1109
tec@@ 1109
EC@@ 1108
Hung@@ 1108
Arti@@ 1106
By 1106
Roman@@ 1106
endorf 1106
Marco 1104
ampa 1104
Hall@@ 1103
év@@ 1103
Direc@@ 1102
cont@@ 1102
muda 1102
59@@ 1101
66@@ 1101
Rafael 1101
sus@@ 1101
116@@ 1100
Buff@@ 1100
modi@@ 1100
Ana 1099
Olymp@@ 1099
ebe 1099
Of 1098
Rey 1098
manuel 1098
unds 1098
Rah@@ 1097
Stars 1097
elas 1097
Sup@@ 1096
Let@@ 1093
Pacific 1092
anni 1092
dul@@ 1092
zz@@ 1092
aç 1091
emi 1091
Die 1090
Mek@@ 1090
2.0 1088
Dave 1088
bat 1087
spir@@ 1087
Free 1086
stel@@ 1086
Franco 1085
Comics 1083
Gri@@ 1083
Orig@@ 1083
ort@@ 1082
rech@@ 1082
Def@@ 1081
born 1079
deg@@ 1079
Haus@@ 1078
Neb@@ 1078
omel@@ 1078
strong 1077
1816 1076
LP 1075
Nig@@ 1075
lit 1075
99@@ 1074
Fried@@ 1074
Gan@@ 1074
Sib@@ 1074
entin 1074
fem@@ 1074
tern 1074
dad 1073
emann 1073
119 1072
Roh@@ 1072
BN 1071
Kaf@@ 1071
Party 1071
jug@@ 1071
ndi@@ 1070
ük@@ 1070
Lug@@ 1069
Ahmed 1068
Wur@@ 1068
andro 1068
Montre@@ 1067
abl@@ 1066
pir@@ 1066
tex@@ 1066
young 1066
ň@@ 1066
Mount 1065
zel@@ 1065
Up@@ 1064
公@@ 1064
For 1063
contr@@ 1063
ime@@ 1063
Guy 1062
Out@@ 1061
Squ@@ 1061
Associ@@ 1060
Now 1060
bridge 1060
tar 1060
Angel 1059
Broad@@ 1059
Diy@@ 1059
enter 1059
As 1058
sons 1058
Bapti@@ 1057
Jul@@ 1057
bea 1057
Bron@@ 1056
Bruno 1056
dit 1056
inal 1056
ī 1056
安@@ 1056
Mab@@ 1055
ector 1055
teen 1055
1798 1054
Sep@@ 1054
ayr@@ 1054
Toul@@ 1053
Wan@@ 1053
Gustav 1052
arry 1052
ischer 1052
sdorf 1052
́ 1052
Naz@@ 1051
elt@@ 1051
Glas@@ 1050
hyp@@ 1050
lies 1050
Carr@@ 1049
ahi 1049
liz@@ 1049
Konstant@@ 1048
toria 1048
Colomb@@ 1047
Inn@@ 1047
inin 1046
sie 1046
uku 1046
Force 1045
Ltd 1044
raine 1044
1790 1042
AE@@ 1042
illi 1042
pop@@ 1042
Tib@@ 1041
Von 1041
schi@@ 1041
ship 1040
1799 1038
Pac@@ 1038
Zu@@ 1037
illon 1037
ols 1037
öz@@ 1037
edi 1036
fi 1036
FO@@ 1035
ben 1035
mina 1034
non@@ 1034
Epis@@ 1033
Gü@@ 1033
Ligue 1033
sal 1033
bec 1032
kar 1032
Ehr@@ 1031
PM 1031
ate@@ 1031
pes@@ 1031
1600 1029
Fam@@ 1029
gri@@ 1029
rat 1029
tive 1029
Feli@@ 1028
iki@@ 1028
found@@ 1027
Broadway 1025
27.@@ 1024
Georg 1024
Stur@@ 1024
away 1024
casting 1024
Magazine 1022
Vid@@ 1022
alifor@@ 1022
encer 1022
Leipzig 1021
1809 1020
Ankara 1020
SI@@ 1019
had 1019
ño 1019
の@@ 1019
vie 1018
aise 1017
athan 1017
hem 1017
ulia 1017
domin@@ 1016
ogen@@ 1016
ọ@@ 1015
FL 1014
tur 1014
Castil@@ 1013
Radi@@ 1013
avo 1013
Death 1012
Cross 1011
Fres@@ 1011
aber 1011
amed 1011
dou@@ 1011
get@@ 1011
ē@@ 1011
Gör@@ 1010
ather 1010
ő@@ 1010
Limited 1009
hak@@ 1009
mich@@ 1009
€ 1009
Fat@@ 1008
öster@@ 1007
cript 1005
oso 1005
21@@ 1004
pis@@ 1004
Carlo 1003
Acc@@ 1002
Lok@@ 1002
Southern 1002
Main 1001
card 1001
eur 999
map@@ 999
orer 999
DO@@ 998
lau@@ 997
nu 997
Mong@@ 996
hausen 996
1811 995
Amer@@ 995
dex 995
hua 995
ular 995
isher 994
lim 993
′ 990
Us@@ 989
world 989
Kiy@@ 988
ques 988
Ost@@ 987
dist@@ 987
etz 987
NBA 986
book 986
head 986
sol 986
Asi@@ 985
CE 985
maire 985
shi@@ 985
yas@@ 985
Andro@@ 984
Fall 984
Plus 983
üş@@ 983
Italy 982
Mez@@ 982
Summer 982
indic@@ 982
179@@ 981
acu@@ 981
Hoch@@ 980
NBC 980
kn@@ 980
Peti@@ 979
sein 977
suff@@ 977
Burundi 976
isl@@ 976
orch@@ 976
zog 976
hio 975
union 975
ük 975
lik 974
Fe 973
ensa 973
text 973
even 972
itzer 972
rev@@ 972
zer 972
Vinc@@ 971
onald 971
thy 971
Prin@@ 970
Andrea 969
Hern@@ 969
UR@@ 969
ớm 969
English 968
iner 968
NS 967
fall@@ 967
fica 967
4000 965
Three 964
mine 964
Service 963
hay@@ 963
Alexandre 961
Bridge 961
Rav@@ 961
氏 961
Rudolf 960
Terr@@ 959
WW@@ 959
Year 959
lang@@ 959
Not 958
ağı 957
ball 957
hist@@ 957
polit@@ 957
dra@@ 956
pers@@ 956
Laurent 955
ext@@ 955
eux 954
format 954
witz 954
Meth@@ 953
avier 953
dez 953
Alberto 952
dida 952
ả@@ 952
1200 951
lower 951
ー@@ 951
GA 950
baz@@ 950
cs 950
tou@@ 950
,000 949
Dah@@ 949
Independ@@ 949
fu 949
istes 948
sav@@ 948
Frances@@ 947
Rural 947
Field 946
Kid@@ 945
aland 945
met 944
onder@@ 944
Eas@@ 943
ammed 943
Trab@@ 942
angi 942
sar 942
vania 942
old@@ 941
Battle 940
Extr@@ 940
Institute 940
Schne@@ 940
bay@@ 940
dot@@ 940
ires 940
plac@@ 940
國@@ 940
Comput@@ 939
ios 938
Bin@@ 937
apo 936
ysis 936
Fig@@ 935
ering 935
ysi@@ 935
abi@@ 934
vie@@ 934
yen@@ 934
山@@ 934
Del 933
Eff@@ 933
scope 933
Haf@@ 932
itas 931
jap@@ 931
Band 930
Dak@@ 930
ages 930
European 929
Salz@@ 929
UC@@ 929
tronic 929
Müller 928
vas@@ 928
Kaiser 927
ading 927
e.@@ 926
hir 926
ün@@ 926
妃 926
Lima 925
pp 925
Kah@@ 924
drei 924
pera 924
ış@@ 924
II@@ 923
chem@@ 923
tle 922
enst@@ 921
stor@@ 920
bek 919
hac@@ 919
Atlé@@ 918
umo 918
wn@@ 918
三@@ 918
aten 917
inson 917
子@@ 917
Family 916
ality 916
azu 916
odi 916
spec@@ 916
Dr. 915
Pérez 915
Wein@@ 915
ures 915
was@@ 915
concert 914
ril 914
Single 913
iller@@ 913
tion@@ 913
Dist@@ 912
PR@@ 912
Tay@@ 912
ensi@@ 912
uter 911
ğr@@ 911
fan@@ 910
luk 910
seg@@ 909
南@@ 909
Doc@@ 908
termin@@ 908
Sur 907
alu@@ 907
engo 906
new 906
oll 906
人 906
武@@ 906
aide 905
mad 905
Bug@@ 904
Doğ@@ 904
ande 904
eyi 904
onda 904
atten@@ 902
Bish@@ 901
Luf@@ 901
Nel@@ 901
ede 901
ames 900
law 900
ál@@ 900
ül@@ 900
Tang@@ 899
mem@@ 899
Gür@@ 898
pedi@@ 898
Back@@ 897
Mark@@ 897
fo 897
tav@@ 897
ș 897
aim@@ 896
tang@@ 896
Four 895
Research 895
lung 895
tima 895
vor 895
âteau 895
abor@@ 894
ener@@ 894
rat@@ 893
zan 893
ː 893
Captain 892
arist@@ 892
dier 892
Nach@@ 891
SV 891
alam@@ 891
pris 891
º@@ 891
Ê@@ 891
eas@@ 890
liqu@@ 890
区 890
brahim 889
elly 889
Anton 888
eppe 888
quel@@ 888
Felipe 887
Television 886
1700 885
Spor@@ 885
dioc@@ 885
mah@@ 885
ılar 885
ˈ@@ 885
NCA@@ 884
Wis@@ 884
ands 884
had@@ 884
Sevilla 883
also 882
right 882
1791 881
District 881
Norte 881
ticia 881
bio 880
Hind@@ 879
Jesus 879
Tai@@ 879
Viol@@ 879
aks 879
othe@@ 879
tical 879
Eb@@ 878
Estr@@ 878
rich 878
州 878
Wander@@ 877
fiel@@ 877
icro@@ 877
Herz@@ 876
alı 876
1793 875
Muh@@ 875
azz@@ 875
beck 875
Mountain 874
Mr@@ 874
ici 874
over@@ 874
patr@@ 874
Coast 873
have 873
work 873
Fort@@ 871
Tenn@@ 871
cle 871
ł 871
Standard 870
ophie 870
key@@ 869
ongo 869
tas 869
anza 868
dos@@ 868
1794 867
God 867
孝@@ 867
States 866
Arth@@ 865
Techn@@ 865
blan@@ 865
chap@@ 865
uld 865
Chem@@ 864
Macar@@ 864
cla@@ 864
dah@@ 864
König@@ 863
mil 863
wing 863
German@@ 862
Philos@@ 862
ainer 862
ilen 862
ische 862
sian 862
Ey@@ 860
Roberto 860
espe@@ 860
invol@@ 860
Nis@@ 859
einer 859
vac@@ 859
元@@ 859
Emp@@ 858
Erz@@ 858
Johann@@ 858
bey@@ 858
erre 858
rol 858
stream 858
École 858
Burg@@ 857
Software 857
Zer@@ 857
conn@@ 857
date 857
mos 857
ning@@ 857
ob 857
Kro@@ 856
anni@@ 856
face 856
left 856
lic@@ 856
press@@ 855
umi@@ 855
More 854
schn@@ 854
Autom@@ 853
Rep@@ 853
Republic 853
There 853
Vari@@ 853
Suc@@ 852
entry 852
nec@@ 852
Atlantic 851
Herr@@ 851
Vladi@@ 849
fron@@ 849
明@@ 847
Bill@@ 846
online 846
ican 845
ycidae 845
GC 844
Kurt 844
ories 844
red@@ 844
Korea 843
ety 843
itor 843
bab@@ 842
dur 842
pool 842
thiop@@ 842
geri 841
estra 840
music 840
ras 840
rou@@ 840
servat@@ 840
va@@ 839
ps@@ 838
ute 838
Alliance 837
Commun@@ 836
actr@@ 836
arca 836
burg@@ 836
endi 836
style 836
bou@@ 835
uo 835
building 834
Doctor 833
action 833
ege 833
geh@@ 833
osi 833
Nati@@ 831
Business 830
Nations 830
Post@@ 830
aux@@ 830
½ 830
ə@@ 830
Nah@@ 829
Yaz@@ 829
eras 829
pio 829
tie 829
Rock@@ 828
arı 828
decor@@ 828
vera 828
Benedi@@ 827
Nou@@ 827
kay@@ 827
tienne 827
pole 826
Dau@@ 825
real 825
fos@@ 824
jer@@ 824
Bras@@ 823
Ent@@ 822
Freder@@ 822
cas 822
Publ@@ 821
adan 821
jur@@ 821
yeri 821
Pero 820
bid@@ 820
coll@@ 820
mara 820
ö 820
endel@@ 819
Gök@@ 818
Rang 818
ld 818
Mih@@ 817
abol@@ 817
gó@@ 817
Yay@@ 816
erk@@ 816
éri@@ 816
ỷ@@ 816
Africa 815
Duke 815
arian 815
ils 815
López 814
elea 814
isto 814
bol 813
simul@@ 813
ça 813
EN@@ 812
comment 812
EE 811
Natur@@ 811
Gabri@@ 810
Jorge 810
With 810
1795 809
alen 809
ebu 809
parall@@ 809
kea 808
utu 808
VP 807
abo@@ 807
fried 807
path@@ 807
Poli@@ 806
sey@@ 806
Flam@@ 805
Kri@@ 805
劉@@ 805
高@@ 805
Aff@@ 804
ß@@ 804
Seb@@ 803
Station 803
ehir 803
ident 803
orium 803
Brig@@ 802
erst@@ 802
iwa 802
之@@ 802
金@@ 802
Bas 801
ammad 801
tum@@ 801
xima 801
colspan 800
Maf@@ 799
cath@@ 799
coun@@ 799
Major 798
hou 798
por 798
taş 798
CF 797
Ear@@ 797
asse 797
Gonz@@ 796
adol@@ 796
lima 796
tap@@ 796
After 795
plut@@ 795
See 794
Strat@@ 794
type 794
Northern 793
cer 793
gros@@ 793
reduc@@ 793
ses@@ 793
americana 791
apr@@ 791
lay@@ 791
Ế@@ 791
dem 790
kit@@ 790
urs@@ 790
ậ@@ 790
Indian 789
sn@@ 789
tura 789
conc@@ 788
paci@@ 788
sm@@ 788
sti 788
ule 788
és@@ 788
德@@ 788
Fall@@ 787
edom 787
group 787
inj@@ 787
kop@@ 787
play@@ 787
Sport@@ 786
aki@@ 786
uş@@ 786
་ 786
Pablo 785
tari 785
öh@@ 785
Chron@@ 784
Dest@@ 784
Name 784
tat@@ 784
García 783
municipal 783
troit 783
wiki 783
HC 782
ople 782
prom@@ 782
two 782
1797 781
ael 780
confer@@ 780
nak@@ 780
onte 780
spect@@ 780
ıç@@ 780
主 780
bour@@ 779
crick@@ 779
alim@@ 778
Geh@@ 777
Hannover 777
egal 777
kap@@ 777
Industri@@ 776
greg@@ 776
distinc@@ 774
orf 774
Must@@ 773
det@@ 773
life 773
vir 773
Kant@@ 772
René 772
onel 772
Second 771
cant@@ 771
consol@@ 771
enci@@ 771
four 771
rive 771
Süd@@ 770
team 770
Ál@@ 770
ǎ@@ 770
Göl@@ 769
Québec 769
sola 769
ź 769
vet 768
éli@@ 768
Sol 767
enor@@ 767
get 767
市 766
acha 765
egel 765
bran@@ 764
debut 764
gener@@ 764
itr@@ 764
run 764
If 763
Milli@@ 763
led@@ 763
maj@@ 763
mim@@ 763
Econom@@ 762
Nacional 762
lie@@ 762
alter@@ 761
anal@@ 761
band 761
chev@@ 761
ste 761
yard 761
Bey@@ 760
Human 760
Management 760
inas 760
ıl@@ 760
edy 759
para 759
Å@@ 759
cent@@ 758
Beh@@ 757
Special 757
cartes 757
essen 757
alie 756
commune 756
tain@@ 756
yans@@ 756
Elisabeth 755
Pueb@@ 755
ead 755
Audi@@ 754
Over 754
amii 754
dens@@ 754
中@@ 754
eling 752
guer@@ 752
occer 752
rim@@ 752
Bez@@ 751
Sach@@ 751
lug@@ 751
Antoine 750
Stuttgart 750
ird 750
test 750
ls@@ 749
Born 748
Dep@@ 748
Margar@@ 748
amu 748
bra@@ 748
evi 748
oven 748
Graf 747
acht 747
haz@@ 747
् 747
ombi@@ 746
Ave@@ 745
ambo 745
iye 745
umani 745
iles 744
asser 743
tori@@ 743
works 743
ð@@ 743
SR 742
Sour@@ 742
Werner 742
acher 742
kle@@ 742
oci@@ 742
yap@@ 742
Hotel 741
impres@@ 741
Moun@@ 740
asim@@ 740
ender 740
num@@ 740
Guill@@ 739
cog@@ 739
kad@@ 739
tain 739
Det@@ 738
pen 738
Classi@@ 737
cell 737
Head 736
yam@@ 736
bah@@ 735
opol@@ 735
trol 735
weight 735
ife 734
thre@@ 734
Wrestling 733
ata@@ 733
which 733
ă 733
deb@@ 732
igne 732
oğlu 732
Country 731
drama 731
India 730
Köln 730
Ya 730
owa 730
ß 730
Río 729
age@@ 729
olds 729
sug@@ 729
Dres@@ 728
Ordu 728
When 728
lich 727
sous 726
1400 725
hand@@ 725
ror 724
sive 723
İzmir 723
shu@@ 721
its@@ 720
Dresden 719
Mart 719
Rodríguez 719
-- 718
Bremen 718
Inv@@ 718
schw@@ 718
Bach@@ 717
nos 716
sanc@@ 716
umba 716
vip@@ 716
Bach 715
Biz@@ 715
Wad@@ 715
Zw@@ 715
active 715
sten 714
山 714
agre@@ 713
div@@ 713
gas 712
law@@ 712
tiques 712
come 711
Baş@@ 710
Wolfgang 710
Öz@@ 710
compl@@ 708
edra 708
Blü@@ 707
Conference 707
Winter 707
berger 707
ency 707
Juni@@ 706
Obl@@ 705
Spiel@@ 705
apos@@ 705
taine 705
Sain@@ 704
self 704
ỡ@@ 704
eko 703
Klo@@ 702
Pf@@ 702
first 702
ween 702
一@@ 702
Fré@@ 701
fire 701
ground 701
阮@@ 701
Progr@@ 700
Technology 700
aşa 700
iku@@ 700
lak@@ 700
Flu@@ 699
data 699
film 699
Braun@@ 698
History 698
iza 698
Eis@@ 697
Termin@@ 697
dek 697
ece 697
mez 697
anci@@ 696
ences 696
cen@@ 695
colum@@ 695
ld@@ 695
sau@@ 695
Mercedes 694
Thé@@ 694
basis 694
eres 694
timestamp 694
Osman@@ 693
arts 693
González 692
bers 692
leh@@ 692
Jazz 691
Kingdom 691
anlı 691
issi@@ 691
west 691
Law 690
Metal 690
Sonn@@ 690
Wrest@@ 690
anan 690
bom@@ 690
epis@@ 690
ubil@@ 690
Valle 689
Dé@@ 688
adam@@ 688
contributor 688
Cá@@ 687
Public 687
ayak@@ 687
dren 687
inger@@ 687
tek 687
trag@@ 687
eim@@ 686
cou@@ 685
ign 685
İn@@ 685
ň 685
aku@@ 684
got@@ 684
arak 683
gelen@@ 683
Jes@@ 681
gos 681
trol@@ 681
vill@@ 681
Chic@@ 680
Rit@@ 680
divis@@ 679
embran@@ 679
minim@@ 677
point 677
Bret@@ 676
aray 676
gel 676
Ef@@ 675
nin@@ 675
oza 675
sul 675
Films 674
concer@@ 674
ffe 674
iş@@ 674
https 673
maxim@@ 673
西@@ 673
陳@@ 673
French 672
mal 672
produc@@ 672
sad@@ 672
username 672
alco@@ 671
ellen@@ 671
thel@@ 671
yk@@ 671
Esc@@ 670
stock 670
Kara 669
Plaza 669
jun@@ 669
mê@@ 669
ose@@ 669
uko 669
199@@ 668
word 668
code 667
eke 667
prob@@ 667
張@@ 667
Franç@@ 666
body 665
mani@@ 665
Place 664
allen 663
bad@@ 663
haw@@ 663
deci@@ 662
noi 662
umia 662
Josef 661
^ 661
berg@@ 661
dest@@ 660
lib@@ 660
uss 660
DR 659
race 659
rent 659
tras@@ 659
侯 659
bara 658
Ê 658
Andreas 657
Jim@@ 657
añ@@ 657
lois 657
sult@@ 657
Fernández 656
cara 656
angel@@ 655
comm@@ 655
gli@@ 655
ney@@ 655
bad 654
fast 654
pas 654
ız@@ 654
endra 653
fen 653
shar@@ 653
were 653
Fem@@ 652
idas 652
和@@ 652
mam@@ 651
mann@@ 651
acle 650
ede@@ 650
pru@@ 650
tique 650
Ó@@ 650
aper@@ 649
oir 649
IT 648
alle 647
enca 647
tay@@ 647
ø 647
ouvre 646
tag 646
oft 645
Wilhel@@ 644
Zürich 644
master 644
平@@ 644
Gramm@@ 643
ip 643
open@@ 643
uel 643
Development 642
Fame 642
bern@@ 641
dice 641
ä 641
phys@@ 640
rés 640
uf 640
kır@@ 639
like 639
Lew@@ 638
enas 638
0s 637
IB@@ 637
hier@@ 637
Mex@@ 636
hib@@ 636
schul@@ 636
℃ 636
ial 635
oras 635
put@@ 635
rest 635
sir@@ 635
。 635
itar 634
oce 634
Church 633
Sin 633
hiv@@ 633
qué 633
î@@ 633
ン@@ 633
clo@@ 632
jas 632
lina 632
enga 631
List 630
Miss@@ 630
ambi@@ 630
teur 630
Ỷ 630
Gül@@ 629
bel 629
compos@@ 629
Town@@ 628
U.S. 628
anto 628
omin@@ 628
onen 628
rest@@ 628
usi 628
Fron@@ 627
Gusta@@ 627
engine 627
uza 627
elen@@ 626
Court 625
Sport 625
gun@@ 625
hood 625
league 625
abu 624
atem@@ 624
izer 624
quet 624
Hindi 623
anca 623
ağı@@ 623
boy@@ 623
embr@@ 623
seri@@ 623
2500 622
inci 622
mid 622
sing 622
thing 622
Amat@@ 621
Tex@@ 621
irk 621
onal 621
ů@@ 621
band@@ 620
yat 620
Under 619
daf@@ 619
Dad@@ 618
bere@@ 618
ineering 618
kent 618
new@@ 618
trat@@ 618
Europe 617
Dut@@ 616
Guin@@ 616
alle@@ 616
diver@@ 616
olan@@ 616
wana 616
Regel 615
cine 615
gers 615
reo 615
tail 615
zem@@ 615
Fen@@ 614
bir 614
kes@@ 614
unia 614
Premi@@ 612
leist@@ 612
mess@@ 612
From 611
1.5 610
uti 610
zin@@ 610
Kais@@ 609
Yes@@ 609
alier 609
gö@@ 609
iter@@ 609
pad@@ 609
μ@@ 609
align 608
dle 608
ibu 608
nis@@ 608
Ruh@@ 607
alternati@@ 607
dings 607
ving 607
海@@ 607
Doug@@ 606
They 606
been 606
Se 605
entum 605
rab@@ 605
suc@@ 604
omp@@ 603
Eastern 602
Fati@@ 602
rah@@ 602
Argent@@ 601
Gut@@ 601
akawa 601
iç@@ 601
üç@@ 601
י@@ 601
Gleich@@ 600
afe 600
ait@@ 600
pak@@ 600
vig@@ 600
Den 599
Marine 599
lil@@ 599
refer@@ 599
ät@@ 599
alog 598
・ 597
Kik@@ 596
Wid@@ 596
encia 596
ité 596
maf@@ 596
América 595
ansa 594
conv@@ 594
dep@@ 594
igen 594
loi 594
ald@@ 593
thé@@ 593
Wolf@@ 592
esha 592
福@@ 592
Liz@@ 591
apti@@ 591
atu@@ 591
isco 591
leben 591
仁@@ 591
Frank@@ 590
Tech@@ 590
isse 590
pendi@@ 590
1300 589
Oy@@ 589
Rus 589
She 589
cour@@ 589
ography 589
ulo 589
anger@@ 588
love 588
anim@@ 587
times 587
retr@@ 586
帝 586
Ağ@@ 585
Sieg@@ 585
harmon@@ 585
erie 584
put 584
ís 584
ĩ@@ 584
grav@@ 583
izi@@ 583
rak@@ 583
Australian 582
Castle 582
graph@@ 582
inden 582
《 582
atz@@ 581
erc@@ 581
oten 581
round 581
》 581
@ 580
Int@@ 580
Stra@@ 580
erra 580
Alfonso 579
Wien 579
lion 579
sci@@ 579
stat@@ 579
Deutsche 578
a. 578
ː@@ 578
Bek@@ 577
Dame 576
hik@@ 576
đ 576
宗 576
erek 575
äl@@ 575
bass@@ 574
river 574
zey@@ 574
イ@@ 574
陵 574
Edu@@ 573
Russian 573
ien@@ 573
東@@ 573
Fritz 572
dru@@ 572
fir@@ 572
kaz@@ 572
place 572
med 571
osu 571
Motor 570
Wild@@ 570
diff@@ 570
mans 570
Wir@@ 569
elling 569
onds 569
ậc 569
mana 568
ıca 568
Britain 567
Como 567
Kirch@@ 567
aliz@@ 567
cô@@ 567
dre 567
hun@@ 567
dır@@ 566
ieve 566
ו@@ 566
Produ@@ 565
eco 565
flo@@ 565
tour@@ 565
Besch@@ 564
azine 564
eas 564
vez 564
high 563
ists 563
nez 563
grade 562
sant@@ 562
year 562
Act 561
Sü@@ 561
amount 561
class 561
staff 560
iso 559
table 559
liber@@ 558
sich@@ 558
œ@@ 558
imal 557
Canadian 555
aller 555
det 555
isis 555
known 555
s.@@ 555
west@@ 555
berto 554
ishing 554
waj@@ 554
edil@@ 553
night 553
ray@@ 553
rel 553
、 553
聖@@ 553
Contin@@ 552
enz 552
郡@@ 552
Apr@@ 551
Order 551
aday 551
bourne 551
change 551
ende 551
iste 551
Yun@@ 550
brit@@ 550
vio 550
alog@@ 549
ports 549
Soh@@ 548
Tag 548
Wald@@ 548
seau 548
wad@@ 548
ück 548
mom@@ 547
spo@@ 547
Der 546
Metropolit@@ 546
mill@@ 546
undi 546
anat@@ 545
revol@@ 545
Montr@@ 544
Social 544
most@@ 544
siti@@ 542
struc@@ 542
force 541
Ø@@ 541
Lö@@ 540
anced 540
ecti@@ 540
endo 540
Army 539
aí@@ 539
enos 539
later 539
上@@ 539
And 538
contin@@ 538
ě 538
Antar@@ 537
Modern 536
Nairobi 536
Code 535
Hr@@ 535
ebo@@ 535
inv@@ 535
refle@@ 535
shot 535
tah@@ 535
trav@@ 535
† 535
eren 534
scor@@ 534
soci@@ 534
voc@@ 534
dır 533
say@@ 533
tors 533
rul@@ 532
yok@@ 532
長@@ 532
Lond@@ 531
anas 531
enk@@ 531
ization 531
tres 531
bed@@ 530
oja 530
xim@@ 530
人@@ 530
Ort@@ 529
exp@@ 529
òa 529
2.5 528
alist 528
aran 528
dir 528
nel 528
neu@@ 528
194@@ 527
Jug@@ 527
bonne 527
aler 526
egu@@ 526
schwe@@ 526
utz@@ 526
Groß@@ 525
system 525
Herb@@ 524
cent 524
dres@@ 524
gues 524
Organ@@ 523
rang@@ 523
case 522
iria 522
king@@ 522
ords 522
190@@ 521
Jor@@ 521
Nür@@ 521
anco 521
main@@ 521
ứ@@ 521
Hof@@ 520
ross 520
terr@@ 520
March 519
Mün@@ 519
Profes@@ 519
aught 519
avy@@ 519
hes@@ 519
sche@@ 519
their 519
zor@@ 519
forman@@ 518
g. 518
ising 518
ping 518
ises 517
onie 517
only 517
Most 516
ever@@ 516
Córdoba 515
Education 515
bud@@ 515
ications 515
mé 515
usha 515
zin 515
Racing 514
olar@@ 514
sych@@ 514
sym@@ 514
ules 514
Reichs@@ 513
comi@@ 513
kata 513
yab@@ 513
ağ 512
esto 512
lü 512
ecu@@ 511
ifu 511
where 511
gency 510
uela 510
Jah@@ 509
mut 509
scher 509
Ili@@ 508
aces 508
after 507
dat@@ 507
inen 507
schle@@ 507
ầ@@ 507
Inf@@ 506
Unter@@ 506
Volks@@ 506
extr@@ 506
ilk 506
kut@@ 506
match 506
成@@ 506
Schles@@ 504
Sud 504
cil 504
lor 504
km@@ 503
pand@@ 503
Oper@@ 502
sto@@ 502
Eduardo 501
Test@@ 501
aines 501
ezi 501
Design 500
Deux 500
Martín 500
ational 500
atos 500
lag 500
libr@@ 500
nek 500
ographi@@ 500
oles 500
小@@ 500
Büyük@@ 499
Renn@@ 499
Roll@@ 499
chs 499
hui 499
onc@@ 499
198@@ 498
Martínez 498
Moy@@ 498
prof@@ 498
sala 498
alar 497
aret 497
ht 497
iche 497
Alej@@ 496
Justice 496
aub@@ 496
background 496
entes 496
mass@@ 496
pay@@ 496
ć@@ 496
宗@@ 496
En 495
cros@@ 495
erine 495
ober@@ 495
tista 495
vert 495
yar 495
新@@ 495
ortho@@ 494
Eurovision 493
indi 493
sup@@ 493
zona 493
日@@ 493
Beş@@ 492
empl@@ 492
pay 492
Islands 491
Production 491
ects 491
iran 491
school 491
uso 491
oise 490
pers 490
195@@ 489
Landes 489
Schi@@ 489
port@@ 489
Yıl@@ 488
afé 488
eaux 488
enti 488
marine 488
ms@@ 488
้ 488
sions 487
BK 486
ables 486
echt 486
illing 486
status 486
undo 486
ー 486
Person@@ 485
constr@@ 485
elos 485
kno@@ 485
昭@@ 485
Soci@@ 484
Stadi@@ 484
ación 484
down@@ 484
ease 484
ffen 484
Mia 483
Temple 483
ajo 483
imin@@ 483
tero 482
і@@ 482
sera 481
江@@ 481
atrice 480
umen 480
ías 480
Memorial 479
app 479
ikan@@ 479
trata 479
unter@@ 479
่ 479
center 478
cycl@@ 478
jen@@ 478
state 478
Kib@@ 477
SG 477
fic 477
sional 477
Cen@@ 476
Motor@@ 476
auf@@ 476
神@@ 476
hold 475
inz@@ 475
mile 475
through 475
Priv@@ 474
Sos@@ 474
arac@@ 474
eline 474
maz@@ 474
sine 474
zw@@ 474
Castilla 473
Yug@@ 473
host@@ 472
olay@@ 472
parentid 472
tiz@@ 472
20th 471
Marsh@@ 471
Milit@@ 471
part 471
quir@@ 471
riff 471
ṇ@@ 471
Enrique 470
adj@@ 470
Ổ 470
Geb@@ 469
about 469
organ@@ 469
yay@@ 469
ympi@@ 469
Atl@@ 468
Avenue 467
Gest@@ 467
Mb@@ 467
irat@@ 467
jed@@ 467
Lü@@ 466
白@@ 466
Ung@@ 465
acio 465
fall 465
än@@ 465
ıklı 465
ılı 465
ổ@@ 465
3.5 464
Noctu@@ 464
acks 464
inge 464
olf 463
rö@@ 463
simpl@@ 463
ths 463
道@@ 463
adem@@ 462
frac@@ 462
kus 462
ラ@@ 462
Baba 461
upe 461
yor@@ 461
197@@ 460
heavy 460
vit 460
Mar 459
Mustafa 459
ament@@ 459
disco 459
disco@@ 459
国@@ 459
ective 458
lery 458
naz@@ 458
ude 458
ues 458
196@@ 457
Ord@@ 457
ligh@@ 457
rant 457
éal 457
Ame@@ 456
Stadium 456
ampi@@ 456
aras@@ 456
mula 456
朱@@ 456
perial 455
vière 455
zim@@ 455
Services 454
algo 454
alism 454
arn 454
erh@@ 454
fied 454
icha 454
kiş@@ 454
aff 453
sept@@ 453
Territ@@ 452
rar@@ 452
Her 451
ampli@@ 451
andes 451
ark 451
champ@@ 451
eiro 451
emo 451
ref@@ 451
µ@@ 451
正@@ 451
Chinese 450
ool 450
Ơ@@ 450
Mission 449
ción 449
haus 449
pro 449
北@@ 449
이@@ 449
Middle 448
eski 448
inde@@ 448
1st 447
enea 447
isme 447
nie 447
Winter@@ 446
hasa 446
kers 446
roy@@ 446
Dop@@ 445
Eliz@@ 445
Federation 445
Obj@@ 445
Wehr@@ 445
eve 445
istic 445
sters 445
üc@@ 445
親@@ 445
Health 444
chang@@ 444
enty 444
mak 444
馬@@ 444
nuc@@ 443
oku@@ 443
ring 443
ezo 442
last 442
ological 442
olu 442
post 442
Un 441
bli@@ 441
gether 441
永@@ 441
Sciences 440
aal@@ 440
eil 440
wide 440
Ớ@@ 440
不@@ 440
Bask@@ 439
hul@@ 439
А@@ 439
Ciudad 438
ices 438
ities 438
gau@@ 437
ël 437
五@@ 437
Council 436
bil 436
most 436
mov@@ 436
yav@@ 436
Alter@@ 435
Hamb@@ 435
Jap@@ 434
Mann 434
Uru@@ 434
bre 434
inet 434
span 434
Bü@@ 433
Grab@@ 433
Notre 433
pu 433
tena 433
üb@@ 433
γ 433
Gran 432
juli@@ 432
sion@@ 432
ος 432
林@@ 432
Uch@@ 431
hof 431
auto@@ 430
nur 430
uu 430
Theatre 429
jana 429
led 429
reich@@ 429
NAS@@ 428
Schiff@@ 428
dil 428
opo 428
gang@@ 427
geb@@ 427
hau@@ 427
kis@@ 427
person@@ 427
zun@@ 427
周@@ 427
Ital@@ 426
aill@@ 426
ques@@ 426
sequ@@ 426
stand@@ 426
世@@ 426
Kör@@ 425
恭@@ 425
egen 424
elem@@ 424
imba 424
nac@@ 424
utz 424
Sign@@ 423
eit@@ 423
kreis 423
oire 423
ım@@ 423
aji@@ 422
gres@@ 422
pino 422
ɪ@@ 422
Dok@@ 421
cord 421
fication 421
kav@@ 421
rein@@ 421
Erd@@ 420
alit@@ 420
hoch@@ 420
urity 420
day@@ 419
formation 419
192@@ 418
Rug@@ 418
angalia 418
break 418
esser 418
who 418
Other 417
haus@@ 417
ned 417
porter 417
they 417
town@@ 417
yen 417
α@@ 417
光@@ 417
adas 416
ation@@ 416
itation 416
jah@@ 416
oslav@@ 416
öğ@@ 416
Guillaume 415
Museum 415
aten@@ 415
eben@@ 415
illas 415
she 415
GT 414
KK 414
ged 414
haf@@ 414
isol@@ 414
perf@@ 414
roqu@@ 414
в 413
ṣ@@ 413
isten 412
ví@@ 412
ź@@ 412
Viz@@ 411
iler@@ 411
odo 411
ル@@ 411
宮 411
惠@@ 411
Kup@@ 410
idar@@ 410
list 410
Buil@@ 409
Revolution 409
aking 409
kre@@ 409
ologies 409
Another 408
Zanzibar 408
fore 408
Elle 407
Hispania 407
esen 407
Ago@@ 406
atur 406
beg@@ 406
commun@@ 406
ince 406
opin@@ 406
turn@@ 406
на 406
got 405
zone 405
Way@@ 404
aben 404
auth@@ 404
ching 404
free 404
mili@@ 404
second 404
yel@@ 404
Т@@ 404
193@@ 403
Concep@@ 403
eden@@ 403
stead 403
tivo 403
yük 403
楊@@ 403
auff@@ 402
iden@@ 402
vice 402
genus 401
lac 401
mode 401
û@@ 401
Ư 401
feder@@ 400
fut@@ 400
heb@@ 400
illet 400
kri@@ 400
spe@@ 400
use@@ 400
ŭ@@ 400
igr@@ 399
mig@@ 399
nah@@ 399
çon 399
Harv@@ 398
amber 398
black 398
plu@@ 398
At 397
Community 397
anz 397
curr@@ 397
eig@@ 397
ples 397
tech@@ 397
Ổ@@ 397
math@@ 396
orig@@ 396
pass@@ 396
Braz@@ 395
artic@@ 395
eben 395
iser 395
macht 395
ority 395
rd 395
Bö@@ 394
front 393
kana 393
ppe 393
cina 392
mau@@ 392
Kend@@ 391
actu@@ 391
aşı 391
enter@@ 391
kub@@ 391
park 391
sert 391
vé@@ 391
ün 391
四@@ 391
Vier@@ 390
found 390
äger 390
い@@ 390
americ@@ 389
Salv@@ 388
aring 388
eces 388
event@@ 388
lose 388
rim 388
small 388
Fak@@ 387
eder 387
ologne 387
sek@@ 387
çal@@ 387
aborat@@ 386
bles 386
sali@@ 386
König 385
có@@ 385
gest@@ 385
onz@@ 385
`@@ 384
aller@@ 384
kote 384
liga 384
nad@@ 384
pf@@ 384
saf@@ 384
til 384
wes@@ 384
1. 383
2. 383
arte 383
param@@ 383
ump 383
vy@@ 383
wur@@ 383
ン 383
acter@@ 382
full 382
mm@@ 382
version 382
His 381
laz@@ 381
run@@ 381
êt 381
Federal 380
Nueva 380
eign 380
ikit@@ 380
ives 380
lars 380
lern 380
rem 380
八@@ 380
城@@ 380
阿@@ 380
--@@ 379
Alem@@ 379
Christoph@@ 379
aham@@ 379
approxim@@ 379
doğan 379
fro@@ 379
ilde 379
taire 379
tet 379
wag@@ 379
zar 379
С@@ 379
Sov@@ 378
bron@@ 378
fis@@ 378
raf@@ 378
ét@@ 378
Serv@@ 377
aka@@ 377
district 377
elek@@ 377
kari 377
radic@@ 377
regi@@ 377
sil 377
5,000 376
Championships 376
afa 376
itu@@ 376
定@@ 376
Austria 375
ember 375
eral 375
will 375
ön 375
慈@@ 375
gien 374
orie 374
zt 374
ž 374
Das 373
Feld@@ 373
Minn@@ 373
Mw@@ 373
room 373
sah@@ 373
и 373
城 373
夫@@ 373
Dies@@ 372
Lt@@ 372
atz 372
lave 372
legi@@ 372
ɛ@@ 371
Canal 370
grand@@ 370
hep@@ 370
rugby 370
Deutsch@@ 369
aat 369
anderen 369
identi@@ 369
¥ 369
ös@@ 369
Für@@ 368
Stand 368
icos 368
์ 368
189@@ 367
deu@@ 367
ellen 367
far 367
pre 367
reti@@ 367
清@@ 367
adul@@ 366
azo 366
evento 366
nj@@ 366
ồ@@ 366
Ụ@@ 366
Parti@@ 365
Pé@@ 365
dik@@ 365
foc@@ 365
k.@@ 365
volution 365
ṭ@@ 365
Earl 364
Plan 364
liter@@ 364
yal 364
UE@@ 363
für 363
hali@@ 363
icio 363
native 363
ofu 363
once 363
ppi 363
trit@@ 363
О@@ 363
し@@ 363
十@@ 363
Committee 362
Leip@@ 362
No. 362
eler@@ 362
kuz@@ 362
nach 362
sek 362
wagen 362
bile 361
jou@@ 361
otra 361
tice 361
″ 361
寺 361
水@@ 361
African 360
April 360
Library 360
Police 360
Province 360
cut 360
power 360
quer 360
udo 360
Department 359
ected 359
half 359
éd@@ 359
ッ@@ 359
anese 358
üm 358
н 358
Hous@@ 357
dak@@ 357
separ@@ 357
黎@@ 357
jit@@ 356
plant@@ 356
ution 356
花@@ 356
趙@@ 356
Champi@@ 355
Deutschland 355
Front 355
city 355
ders@@ 355
loy@@ 355
soft 355
ól@@ 355
春@@ 355
adio 354
erre@@ 354
fif@@ 354
intr@@ 354
lieu 354
proxim@@ 354
schen 354
u. 354
ubic@@ 354
voir 354
ő 354
リ@@ 354
古@@ 354
Archit@@ 353
Rez@@ 353
Speci@@ 353
function 353
istère 353
list@@ 353
reci@@ 353
tés 353
urban@@ 353
188@@ 352
Alfre@@ 352
Irish 352
Islam@@ 352
ails 352
fin 352
iny@@ 352
sana 352
three 352
used 352
yol 352
女@@ 352
有@@ 352
good 351
icht 351
offic@@ 351
return 351
revision 351
Kü@@ 350
Wab@@ 350
deo 350
dyn@@ 350
iting 350
mondi@@ 350
wig 350
敬@@ 350
ambi 349
erin 349
print 349
straße 349
umbo 349
Ó 349
June 348
child 348
jaw@@ 348
lü@@ 348
quot 348
ʻ@@ 348
Evangel@@ 347
Société 347
Sta@@ 347
kuh@@ 347
press 347
princ@@ 347
space 347
stil@@ 347
186@@ 346
Dutch 346
ambigu@@ 346
include 346
positi@@ 346
石@@ 346
Reser@@ 345
Vita 345
giy@@ 345
ledge 345
popul@@ 345
zis@@ 345
ández 345
home 344
ied 343
ival@@ 343
mental 343
ío 343
Mary@@ 342
Seh@@ 342
aifa 342
estre 342
iker 342
made 342
sts 342
師@@ 342
Board 341
GmbH 341
Universit@@ 341
anten 341
canc@@ 341
cim@@ 341
integr@@ 341
jum@@ 341
level 341
porte 341
Airport 340
amen@@ 340
kio 340
onnat 340
tien 340
weg@@ 340
mano 339
к 339
Frit@@ 338
Japanese 338
Wen@@ 338
ening 338
р@@ 338
貴@@ 338
Bundes@@ 337
NFL 337
Pek@@ 337
Theater 337
amor@@ 337
ombe 337
ved 337
א@@ 337
1,0@@ 336
Early 336
Wür@@ 336
head@@ 336
them 336
皇帝 336
Git@@ 335
Kari@@ 335
amos 334
beau@@ 334
izi 334
ordin@@ 334
tional 334
ス@@ 334
Des 333
ché 333
diffic@@ 333
public 333
э@@ 333
的@@ 333
europ@@ 332
usse 332
й 332
aï@@ 331
costa 331
gemeinde 331
msh@@ 331
oğ@@ 331
thin 331
漢@@ 331
180@@ 330
Bib@@ 330
club 330
common 330
ending 330
ked 330
ungs@@ 330
Bağ@@ 329
Fé@@ 329
assen 329
cias 329
digital 329
typ@@ 329
„ 329
fam@@ 328
milit@@ 328
nationale 328
schwar@@ 328
ép@@ 328
君 328
Casa 327
Depor@@ 327
Revol@@ 327
distr@@ 327
ific@@ 327
ilan 327
rain@@ 327
wah@@ 327
zek@@ 327
1,000 326
Ins@@ 326
entales 326
う@@ 326
行@@ 326
陽@@ 326
Graf@@ 325
eso 325
meister@@ 325
íncipe 325
Operation 324
anno@@ 324
ayed 324
ecture 324
lywood 324
there 324
âte@@ 324
Şark@@ 324
187@@ 323
Heil@@ 323
Mp@@ 323
tural 323
vas 323
景@@ 323
Geg@@ 322
Zwe@@ 322
acab@@ 322
based 322
octo@@ 322
pris@@ 322
宣@@ 322
本@@ 322
法@@ 322
Institut 321
eval 321
season 321
tains 321
tempor@@ 321
ül 321
ē 321
π 321
ア@@ 321
地@@ 321
Coupe 320
alya 320
cil@@ 320
due 320
hus@@ 320
kid@@ 320
≤ 320
都@@ 320
Grou@@ 319
aint 319
airs 319
fig@@ 319
hala 319
metr@@ 319
ête 319
д@@ 319
Scottish 318
chez 318
ement@@ 318
family 318
furt 318
sif 318
yol@@ 318
軍 318
Este 317
Wiener 317
appen 317
kem@@ 317
verl@@ 317
т 317
康@@ 317
ativ@@ 316
franc@@ 316
guar@@ 316
mission 316
ograph@@ 316
ָ@@ 316
玉@@ 316
黃@@ 316
afin 315
ayır@@ 315
ging 315
gü@@ 315
臣 315
順@@ 315
Gord@@ 314
ances 314
lek@@ 314
nament 314
vall@@ 314
vention 314
מ@@ 314
姬@@ 314
Holz@@ 313
Vak@@ 313
alto 313
arş@@ 313
care 313
mik@@ 313
éch@@ 313
之 313
antu 312
aries 312
iß@@ 312
sona 312
å 312
İm@@ 312
朝@@ 312
afor@@ 311
fak@@ 311
immer 311
rique 311
tent@@ 311
Æ@@ 311
θ 311
家@@ 311
美@@ 311
Ener@@ 310
achen 310
iff 310
titu@@ 310
義@@ 310
정@@ 310
Hö@@ 309
Malay@@ 309
年@@ 309
afr@@ 308
dini 308
disc@@ 308
iw@@ 308
ʼ@@ 308
м@@ 308
Culture 307
División 307
Oly@@ 307
eja 307
plant 307
ply 307
sculp@@ 307
ural 307
λ 307
ר@@ 307
河@@ 307
Kran@@ 306
Orchestra 306
cian 306
dipl@@ 306
nou@@ 306
185@@ 305
Schn@@ 305
Stud@@ 305
afi 305
enzi 305
omen 305
strat@@ 305
uch 305
éro@@ 305
ка 305
ト@@ 305
Dar 304
ability 304
big 304
nim@@ 304
singer 304
sis@@ 304
ный 304
原@@ 304
10,000 303
Mittel@@ 303
const@@ 303
dessus 303
double 303
fab@@ 303
pré@@ 303
usu 303
zil@@ 303
ς 303
р 303
ル 303
Hek@@ 302
iliz@@ 302
onale 302
Fund@@ 301
Rund@@ 301
awa@@ 301
jus@@ 301
kum 301
lub 301
project 301
ıc@@ 301
ements 300
itos 300
resp@@ 300
soon 300
氏@@ 300
e. 299
tek@@ 299
Occ@@ 298
following 298
gal 298
meister 298
udi 298
в@@ 298
田@@ 298
Emper@@ 297
aliy@@ 297
divers@@ 297
grande 297
uw@@ 297
唐@@ 297
Dek@@ 296
Kauf@@ 296
back@@ 296
ẩ@@ 296
Dağ@@ 295
Düssel@@ 295
division 295
white 295
道 295
Mara 294
asons 294
bire@@ 294
etten 294
uç 294
éra 294
emba 293
some 293
Inh@@ 292
Kig@@ 292
antas@@ 292
eses 292
hand 292
tik@@ 292
無@@ 292
羅@@ 292
inu 291
number 291
order 291
page 291
position 291
rá@@ 291
ür 291
Tanganyika 290
adal@@ 290
ishia 290
mant@@ 290
ments 290
ď@@ 290
懿@@ 290
fed@@ 289
fit 289
tut@@ 289
ungo 289
ış 289
К@@ 289
н@@ 289
生@@ 289
grave 288
rej@@ 288
sour@@ 288
β@@ 288
廣@@ 288
mez@@ 287
sub 287
Klein@@ 286
Mei 286
Soviet 286
aliwa 286
chac@@ 286
serie 286
tific@@ 286
ε 286
ский 286
Kreuz@@ 285
Lux@@ 285
Princip@@ 285
corpor@@ 285
estig@@ 285
ests 285
four@@ 285
kt@@ 285
ə 285
ま@@ 285
（ 285
baba 284
ded 284
ential 284
izo 284
mab@@ 284
miz@@ 284
schen@@ 284
uten 284
week 284
À@@ 284
鄭@@ 284
2nd 283
Itali@@ 283
burger 283
ended 283
priv@@ 283
ré 283
Áng@@ 283
龍@@ 283
Arsen@@ 282
Hist@@ 282
Im 282
Reich 282
Sist@@ 282
asse@@ 282
axe 282
games 282
gru@@ 282
wam@@ 282
whe@@ 282
while 282
Ör@@ 282
ん@@ 282
嬪 282
真@@ 282
莊@@ 282
Studi@@ 281
door 281
isen 281
terres@@ 281
と@@ 281
Democ@@ 280
bomb@@ 280
death 280
erb@@ 280
kamp@@ 280
late 280
miles 280
tend@@ 280
acqu@@ 279
cial 279
hab 279
hr 279
hud@@ 279
ḥ@@ 279
宋@@ 279
184@@ 278
Exper@@ 278
Francia 278
SPD 278
iterran@@ 278
liche 278
ütz@@ 278
九@@ 278
方@@ 278
） 278
Schwe@@ 277
ift@@ 277
sell 277
student 277
tik 277
umu 277
ữ@@ 277
忠@@ 277
Secre@@ 276
arri@@ 276
bell 276
bü@@ 276
ekt 276
open 276
raz@@ 276
л@@ 276
service 275
殿 275
amba@@ 274
bez@@ 274
gus@@ 274
hak 274
ileri 274
か@@ 274
族@@ 274
lez 273
mw@@ 273
yü@@ 273
Ș@@ 273
穆@@ 273
英@@ 273
Bev@@ 272
Schwer@@ 272
cup@@ 272
mark@@ 272
pron@@ 272
anted 271
hé@@ 271
lanc@@ 271
located 271
pour 271
tropical 271
ustry 271
ジ@@ 271
帝@@ 271
明 271
2,000 270
Supre@@ 270
barr@@ 270
coul@@ 270
gaz@@ 270
ombo 270
unde 270
Germany 269
Grund@@ 269
Jew@@ 269
abei 269
buil@@ 269
git@@ 269
hiwa 269
inning 269
leur 269
lık 269
rut@@ 269
topl@@ 269
Müh@@ 268
Publi@@ 268
adora 268
bois 268
concept 268
ebook 268
kend@@ 268
luk@@ 268
mittee 268
prov@@ 268
stop 268
阳@@ 268
Civil 267
Yoh@@ 267
ange@@ 267
kam 267
nd 267
И@@ 267
徐@@ 267
Corps 266
Uk@@ 266
iş 266
lead 266
oking 266
pour@@ 266
unit 266
zig 266
二@@ 266
hous@@ 265
intel@@ 265
player 265
sed 265
urb@@ 265
ènes 265
ク@@ 265
生 265
adron 264
alum@@ 264
best 264
evin 264
ligence 264
meng@@ 264
oran@@ 264
ω 264
Hosp@@ 263
Kreis 263
front@@ 263
ible 263
ıl 263
ּ@@ 263
ל@@ 263
國 263
aling 262
educ@@ 262
erei 262
former 262
jia 262
jos 262
lak 262
national 262
such 262
trou@@ 262
çe 262
Patri@@ 261
amac@@ 261
dans 261
diffus@@ 261
iten 261
oyn@@ 261
value 261
èse 261
В@@ 261
ה@@ 261
司@@ 261
between 260
tant 260
unci@@ 260
util@@ 260
vida 260
ская 260
ṃ@@ 260
Stat@@ 259
imler 259
road 259
ɔ@@ 259
я 259
Ferdin@@ 258
Medical 258
aille 258
ativa 258
gold 258
gyp@@ 258
inah@@ 258
tribut@@ 258
wand@@ 258
ôt 258
δ 258
В 258
思@@ 258
Poland 257
bish@@ 257
carri@@ 257
ieron 257
oyun@@ 257
plata 257
sever@@ 257
tir 257
èle 257
üh@@ 257
ţ@@ 257
ț 257
宮@@ 257
대@@ 257
atura 256
erte 256
grá@@ 256
people 256
seul 256
çı 256
Ark@@ 255
Sie@@ 255
eing 255
pens@@ 255
when 255
州@@ 255
Canton 254
Commission 254
Wash@@ 254
för@@ 254
mee 254
station 254
systems 254
İs@@ 254
通@@ 254
Heim@@ 253
drome 253
idental 253
ilit@@ 253
ours 253
schaft 253
sist@@ 253
stage 253
tras 253
üs@@ 253
ği 253
Δ@@ 253
青@@ 253
Prof@@ 252
atac@@ 252
gol 252
said 252
≥ 252
吳@@ 252
少@@ 252
Giov@@ 251
embe 251
juni@@ 251
ume@@ 251
្ 251
Americ@@ 250
President 250
conver@@ 250
figh@@ 250
kah@@ 250
range 250
tee 250
wehr 250
μ 250
云@@ 250
縣 250
Historia 249
Türk@@ 249
poem 249
regul@@ 249
unca 249
western 249
öm@@ 249
ь 249
东@@ 249
延@@ 249
承@@ 249
秦@@ 249
affen 248
church 248
ibi 248
imini 248
market 248
Ị@@ 248
な@@ 248
木@@ 248
Eğ@@ 247
Initi@@ 247
Proj@@ 247
Santi@@ 247
divi@@ 247
evol@@ 247
transfer@@ 247
У@@ 247
君@@ 247
梁@@ 247
院 247
adap@@ 246
coming 246
each 246
eich@@ 246
upon 246
Olympics 245
ancia 245
bora 245
enl@@ 245
fund@@ 245
herr@@ 245
monte 245
network 245
prak@@ 245
Ủ@@ 245
Ingen@@ 244
Rail@@ 244
actor 244
düz@@ 244
ettes 244
gid@@ 244
カ@@ 244
Né@@ 243
ainst 243
champi@@ 243
ometr@@ 243
ug 243
vel 243
ב@@ 243
シ@@ 243
Afgh@@ 242
Dollar 242
camp 242
limited 242
pped 242
region 242
ız 242
女 242
越@@ 242
Film@@ 241
agno@@ 241
alian 241
ited 241
mot 241
oral 241
prises 241
全@@ 241
章@@ 241
3. 240
Conserv@@ 240
Regional 240
irs 240
mey@@ 240
progres@@ 240
vide 240
ße 240
≈ 240
建@@ 240
Jesús 239
oms 239
ücken 239
慶@@ 239
ası 238
isla 238
tros 238
uren 238
érieure 238
ıs@@ 238
き@@ 238
河 238
anay@@ 237
grad@@ 237
isel 237
naci@@ 237
otur@@ 237
signi@@ 237
İz@@ 237
П@@ 237
下@@ 237
郎 237
Elek@@ 236
eye 236
inde 236
sevi@@ 236
zus@@ 236
§ 236
何@@ 236
anlar 235
apon 235
cht@@ 235
estim@@ 235
orial 235
orod@@ 235
size 235
tif 235
train 235
刘@@ 235
Administration 234
fs 234
ispi@@ 234
kat 234
many 234
德 234
文 234
Führ@@ 233
Wach@@ 233
enden 233
iment 233
indo 233
主@@ 233
孫@@ 233
府@@ 233
Version 232
bele 232
brig@@ 232
bul 232
eding 232
gut 232
language 232
osha 232
pose 232
tig 232
uses 232
wani 232
レ@@ 232
克@@ 232
Tari@@ 231
abara 231
ably 231
cı 231
icas 231
leich@@ 231
pek@@ 231
programm@@ 231
ıt 231
六@@ 231
黄@@ 231
Desp@@ 230
Ide@@ 230
ered 230
etas 230
poder@@ 230
science 230
ême 230
г@@ 230
事@@ 230
政@@ 230
月@@ 230
Railway 229
Segunda 229
Sommer@@ 229
offs 229
onge@@ 229
plan 229
tane 229
traf@@ 229
yem@@ 229
ßen 229
üş 229
祖@@ 229
魏@@ 229
Hü@@ 228
Pia 228
abeth 228
carr@@ 228
dej@@ 228
enen 228
friend 228
ief 228
kilom@@ 228
kwa 228
milli@@ 228
wir@@ 228
ín@@ 228
า@@ 228
Ạ@@ 228
张@@ 228
Arap@@ 227
Centro 227
Congress 227
Rö@@ 227
ators 227
elte 227
erst 227
lear@@ 227
lemente 227
male 227
wart 227
ıs 227
် 227
七@@ 227
弘@@ 227
興@@ 227
Galatasaray 226
Hamil@@ 226
Navy 226
Rugby 226
title 226
百@@ 226
陽 226
Au 225
Tsch@@ 225
fah@@ 225
führer 225
ľ@@ 225
Ế 225
angle 224
annel 224
büt@@ 224
diam@@ 224
iliano 224
iness 224
infer@@ 224
wali 224
éni@@ 224
ש@@ 224
い 224
た@@ 224
化@@ 224
曹@@ 224
淑@@ 224
Italian 223
Some 223
aum@@ 223
dau@@ 223
font 223
innen 223
orta 223
pati@@ 223
yani 223
華@@ 223
4. 222
Greek 222
Sonder@@ 222
Stad@@ 222
atory 222
ict 222
pierre 222
population 222
slo@@ 222
ль@@ 222
у@@ 222
נ@@ 222
マ@@ 222
史@@ 222
祖 222
Develop@@ 221
essor 221
yet@@ 221
σ 221
а@@ 221
ְ@@ 221
ス 221
我@@ 221
貞@@ 221
aje 220
ensus 220
rum@@ 220
una@@ 220
whose 220
woll@@ 220
フ@@ 220
尔@@ 220
昌@@ 220
Frei@@ 219
ases 219
asili 219
candid@@ 219
diz@@ 219
elev@@ 219
istem@@ 219
itung 219
schaf@@ 219
stad@@ 219
steri@@ 219
zul@@ 219
zum 219
À 219
蕭@@ 219
郭@@ 219
Its 218
aching 218
acre 218
along 218
baj@@ 218
control 218
country 218
done 218
fav@@ 218
imen 218
kup@@ 218
rate 218
umma 218
vent 218
ï 218
ɑ@@ 218
士 218
崇@@ 218
左@@ 218
經 218
韓@@ 218
사@@ 218
Internacional 217
arias 217
celles 217
cross 217
dad@@ 217
during 217
enso 217
fusi@@ 217
für@@ 217
infr@@ 217
lines 217
russ@@ 217
same 217
tures 217
äm@@ 217
こ@@ 217
士@@ 217
等@@ 217
ahn@@ 216
aissance 216
einander 216
itable 216
ition 216
ording 216
perior 216
pion@@ 216
yolu 216
äs@@ 216
о 216
安 216
arro@@ 215
chant 215
chiế@@ 215
fie 215
laya 215
pata 215
scar 215
ungen 215
vivi@@ 215
étr@@ 215
ν 215
φ 215
ん 215
江 215
陈@@ 215
Ouest 214
ablo 214
appel@@ 214
argent 214
escu@@ 214
fot@@ 214
ifa 214
tep@@ 214
using 214
Ơ 214
Г@@ 214
端@@ 214
Form 213
Lig 213
platz 213
promin@@ 213
tly 213
ulation 213
wahili 213
ım 213
ǔ 213
Б@@ 213
お@@ 213
同@@ 213
心@@ 213
萬@@ 213
門 213
Portu@@ 212
ivo 212
pero 212
princip@@ 212
yor 212
ός 212
М@@ 212
Bahn 211
Kent@@ 211
Popular 211
alem@@ 211
ambu@@ 211
final 211
igher 211
kâ@@ 211
éta@@ 211
爾@@ 211
胡@@ 211
Sow@@ 210
alogue 210
temp@@ 210
urban 210
wealth 210
京@@ 210
김@@ 210
Bu 209
Campeonato 209
bahn 209
culp@@ 209
engen@@ 209
esqu@@ 209
natural 209
south 209
tiers 209
ロ@@ 209
洪@@ 209
DDR 208
Moder@@ 208
enario 208
iev@@ 208
isti 208
istin 208
sita 208
uma@@ 208
with@@ 208
タ@@ 208
常@@ 208
Bibli@@ 207
Bir 207
Tierra 207
besch@@ 207
crita 207
human 207
ive 207
loss 207
recep@@ 207
й@@ 207
л 207
嘉@@ 207
These 206
Waz@@ 206
ambre 206
eño 206
nant 206
urt@@ 206
ą 206
Д@@ 206
杜@@ 206
自@@ 206
Instrum@@ 205
eurs 205
forte 205
kip@@ 205
leit@@ 205
igner 204
ongo@@ 204
orden@@ 204
syst@@ 204
奉@@ 204
Libr@@ 203
Papa 203
Stim@@ 203
ayd@@ 203
chart 203
dif@@ 203
stra@@ 203
İsk@@ 203
б@@ 203
с@@ 203
千@@ 203
ayar@@ 202
figur@@ 202
lanz@@ 202
rek@@ 202
short 202
特@@ 202
門@@ 202
～ 202
Catholic 201
Kale 201
Liter@@ 201
Russia 201
Teatro 201
altı 201
aque 201
maz 201
pal 201
pá@@ 201
recht 201
various 201
vier@@ 201
вич 201
仲@@ 201
吉@@ 201
多@@ 201
川@@ 201
bloc@@ 200
differ@@ 200
isches 200
named 200
senti@@ 200
sols 200
stand 200
theory 200
vía 200
น@@ 200
御@@ 200
aining 199
central 199
hari@@ 199
ildi 199
omba 199
tent 199
theast 199
ро@@ 199
Grec@@ 198
Universidad 198
continu@@ 198
heit 198
such@@ 198
techn@@ 198
tries 198
vision 198
Govern@@ 197
Mf@@ 197
just 197
legal 197
marc@@ 197
İk@@ 197
外@@ 197
平 197
长@@ 197
Chief 196
diye 196
kik@@ 196
雲@@ 196
appe@@ 195
eten 195
obj@@ 195
philos@@ 195
social 195
standing 195
к@@ 195
‰ 195
り@@ 195
ド@@ 195
恩@@ 195
立@@ 195
Egyp@@ 194
Fren@@ 194
athol@@ 194
eting 194
quali@@ 194
sied@@ 194
σ@@ 194
テ@@ 194
Gé@@ 193
Señ@@ 193
Township 193
arten 193
nomin@@ 193
pant@@ 193
secund@@ 193
succ@@ 193
usion 193
ʿ@@ 193
ַ@@ 193
☆ 193
壽@@ 193
部 193
Ih@@ 192
anik@@ 192
anzo 192
brand 192
dağ@@ 192
design@@ 192
dies 192
eos 192
hie 192
lili@@ 192
scre@@ 192
upo 192
would 192
çi 192
ρ 192
♭ 192
る@@ 192
against 191
ède 191
Ω 191
ע@@ 191
ら@@ 191
伯@@ 191
藤@@ 191
Cem@@ 190
Ivoire 190
before 190
bé@@ 190
lista 190
luch@@ 190
ème 190
đị@@ 190
ト 190
玄@@ 190
Süper 189
aches 189
ample 189
avant 189
hibi@@ 189
image 189
mif@@ 189
nek@@ 189
village 189
íos 189
以@@ 189
民@@ 189
Hospital 188
Kongo 188
Sociedad 188
avent@@ 188
ecto 188
gaz 188
ikal@@ 188
sens 188
tard 188
verte@@ 188
ığ@@ 188
く@@ 188
さ@@ 188
巴@@ 188
Liver@@ 187
Spanish 187
Telev@@ 187
depend@@ 187
direc@@ 187
itali@@ 187
moder@@ 187
near 187
oine 187
pain@@ 187
tered 187
wert 187
合@@ 187
왕@@ 187
circul@@ 186
clu@@ 186
moun@@ 186
rière 186
software 186
ė 186
仁 186
伯 186
保@@ 186
區 186
海 186
田 186
Highway 185
areas 185
did 185
fest 185
incia 185
utive 185
寧@@ 185
語 185
Materi@@ 184
Portugal 184
Salaam 184
broad@@ 184
forma 184
leva 184
sent@@ 184
® 184
ř 184
Şir@@ 184
евич 184
ц@@ 184
夏@@ 184
Bisch@@ 183
Government 183
Part@@ 183
access 183
aume 183
ectiv@@ 183
edit@@ 183
ikia 183
neur 183
sens@@ 183
İsp@@ 183
イ 183
式@@ 183
是@@ 183
范@@ 183
香@@ 183
5. 182
Elis@@ 182
Haupt@@ 182
chter 182
famili@@ 182
graf@@ 182
inclin@@ 182
ш@@ 182
ク 182
重@@ 182
Academ@@ 181
Assist@@ 181
eleri 181
expan@@ 181
festiv@@ 181
puis 181
spor 181
spre@@ 181
Ä@@ 181
元 181
里@@ 181
amani 180
comes 180
ership 180
ferro@@ 180
gew@@ 180
idos 180
illustr@@ 180
north 180
née 180
restric@@ 180
tora 180
uzo 180
vot@@ 180
what 180
内@@ 180
皇 180
知@@ 180
Primera 179
auf 179
cole 179
derni@@ 179
doch 179
dér@@ 179
fier 179
make 179
qu 179
ón@@ 179
ǐ 179
ная 179
ה 179
に@@ 179
ア 179
天 179
將@@ 179
書 179
Es 178
wich@@ 178
woman 178
â 178
ť 178
ż 178
バ@@ 178
如@@ 178
Ej@@ 177
Philadel@@ 177
being 177
ense@@ 177
fest@@ 177
ized 177
large 177
lieb 177
march@@ 177
proj@@ 177
signe 177
üt 177
ла@@ 177
容@@ 177
物@@ 177
지@@ 177
Paci@@ 176
atür@@ 176
habit@@ 176
lande 176
É 176
т@@ 176
ặ@@ 176
可@@ 176
台@@ 176
고@@ 176
Stell@@ 175
bau 175
engi 175
fres@@ 175
iğ@@ 175
lek 175
mando 175
onto 175
temper@@ 175
γ@@ 175
Bey 174
Director 174
Distr@@ 174
agog@@ 174
dix 174
donn@@ 174
forms 174
mission@@ 174
quier@@ 174
ре@@ 174
я@@ 174
□ 174
ィ@@ 174
信@@ 174
和 174
堂 174
尚@@ 174
府 174
軍@@ 174
風@@ 174
Region 173
called 173
campus 173
entre 173
general 173
nt 173
stati@@ 173
Ét@@ 173
Öster@@ 173
з@@ 173
楚@@ 173
襄@@ 173
马@@ 173
한@@ 173
Constitu@@ 172
Lincol@@ 172
batt@@ 172
endre 172
erer 172
fau@@ 172
isión 172
klin 172
marqu@@ 172
onya 172
tesis 172
х@@ 172
キ@@ 172
中 172
書@@ 172
齊@@ 172
Ein 171
NCAA 171
Tür@@ 171
ained 171
dram@@ 171
eci 171
itage 171
length 171
olar 171
rée 171
wth 171
на@@ 171
光 171
동 171
España 170
Route 170
acı 170
anchi 170
ansi 170
atas@@ 170
aña 170
caus@@ 170
ions 170
langu@@ 170
ligi 170
ück@@ 170
λ@@ 170
с 170
后@@ 170
aging 169
echo 169
estro 169
estruc@@ 169
gence 169
grup@@ 169
iten@@ 169
nord@@ 169
pewa 169
quier 169
stars 169
wash@@ 169
Ö 169
är 169
Ā@@ 169
ви@@ 169
杨@@ 169
衛@@ 169
Instituto 168
appar@@ 168
atre 168
avec 168
awe 168
distingu@@ 168
fici@@ 168
mtDNA 168
muj@@ 168
others 168
program 168
ко@@ 168
ち@@ 168
慕@@ 168
空@@ 168
Gymnasium 167
Rest@@ 167
atini 167
dispar@@ 167
edral 167
elik 167
firm@@ 167
imani 167
maya 167
million 167
mt@@ 167
osen 167
publi@@ 167
yet 167
ь@@ 167
あ@@ 167
宇@@ 167
愛@@ 167
Sus 166
Waj@@ 166
alter 166
angen 166
wie 166
ám@@ 166
ög@@ 166
ś 166
善@@ 166
寶@@ 166
師 166
星@@ 166
理@@ 166
龙@@ 166
aged 165
conform@@ 165
ergie 165
ilim@@ 165
içi 165
jard@@ 165
orden 165
quel 165
werk 165
years 165
zed 165
º 165
ıklar 165
е 165
ա@@ 165
事 165
博@@ 165
学@@ 165
富@@ 165
Böl@@ 164
Ethiop@@ 164
Kip@@ 164
Mär@@ 164
bed 164
biy@@ 164
pier@@ 164
possible 164
stant@@ 164
éré@@ 164
ы@@ 164
陵@@ 164
의 164
Frau@@ 163
both 163
emu 163
graphi@@ 163
initi@@ 163
onio 163
parts 163
present 163
üd@@ 163
π@@ 163
າ@@ 163
も@@ 163
先@@ 163
旗@@ 163
武 163
自治@@ 163
General@@ 162
aires 162
exten@@ 162
func@@ 162
local 162
original 162
polog@@ 162
schie@@ 162
tigen 162
utar@@ 162
Ệ@@ 162
ブ@@ 162
烈@@ 162
燕@@ 162
靖@@ 162
Kama 161
Ufa 161
cription 161
efs 161
gebi@@ 161
ingen@@ 161
oil 161
pression 161
sud 161
tlich 161
во 161
佳@@ 161
龍 161
But 160
Flug@@ 160
clus@@ 160
football 160
hata 160
nig 160
since 160
source 160
wala 160
Å 160
Δ 160
δ@@ 160
시@@ 160
Histoire 159
Kön@@ 159
Rek@@ 159
activ@@ 159
alara 159
ched 159
ners 159
ored 159
ufac@@ 159
veau 159
wns 159
Р@@ 159
не 159
រ@@ 159
ṅ@@ 159
妃@@ 159
憲@@ 159
良@@ 159
Grün@@ 158
Stoc@@ 158
around 158
atif 158
inco 158
jud@@ 158
start 158
take 158
tarak@@ 158
tary 158
ǒ@@ 158
ャ@@ 158
代@@ 158
会@@ 158
佛@@ 158
月 158
cycle 157
dok@@ 157
foot@@ 157
haya 157
high@@ 157
imu 157
these 157
usiana 157
ɾ@@ 157
θ@@ 157
ִ@@ 157
ា@@ 157
ḍ@@ 157
中国@@ 157
水 157
義 157
인@@ 157
Académie 156
Europ@@ 156
Professor 156
Univers@@ 156
bem@@ 156
echa 156
egos 156
elor 156
estar 156
hali 156
inan@@ 156
inat@@ 156
lied 156
note 156
oppos@@ 156
unger 156
yek@@ 156
ément 156
ת 156
ง@@ 156
は@@ 156
一 156
Yük@@ 155
aning 155
announced 155
bier@@ 155
française 155
kush@@ 155
metro 155
nten 155
uer 155
ution@@ 155
waka 155
© 155
ж@@ 155
ם 155
み@@ 155
れ@@ 155
ウ@@ 155
オ@@ 155
記 155
7. 154
Dör@@ 154
Fenerbahçe 154
Garc@@ 154
Kür@@ 154
eget@@ 154
funk@@ 154
hadi@@ 154
hall@@ 154
mek 154
moment 154
rí@@ 154
six 154
veren 154
м 154
் 154
右@@ 154
獻@@ 154
Ministr@@ 153
Wali@@ 153
bağ@@ 153
combin@@ 153
dynam@@ 153
eded 153
ersch@@ 153
excep@@ 153
gali@@ 153
liner 153
octu@@ 153
schule 153
surface 153
tier@@ 153
views 153
ė@@ 153
Ř@@ 153
ʃ@@ 153
мо@@ 153
名@@ 153
學@@ 153
布@@ 153
松@@ 153
樂@@ 153
沈@@ 153
� 153
Alab@@ 152
Carrera 152
Distribu@@ 152
Monum@@ 152
Por 152
elde 152
enem@@ 152
entos 152
ically 152
logr@@ 152
müh@@ 152
sibil@@ 152
tad 152
tof@@ 152
unu 152
ა@@ 152
サ@@ 152
吴@@ 152
懷@@ 152
林 152
行 152
裕@@ 152
隆@@ 152
신@@ 152
아@@ 152
best@@ 151
defin@@ 151
ently 151
fix@@ 151
kud@@ 151
person 151
zey 151
が@@ 151
星 151
集 151
국@@ 151
성@@ 151
Afrika 150
Bür@@ 150
December 150
Gesellschaft 150
Meister@@ 150
Wahl@@ 150
again 150
autom@@ 150
colon@@ 150
considered 150
franch@@ 150
limit@@ 150
power@@ 150
recorded 150
âtre 150
şehri 150
ы 150
川 150
後@@ 150
火@@ 150
野@@ 150
Españ@@ 149
anı 149
comb@@ 149
construc@@ 149
ised 149
lama 149
municipality 149
news 149
record 149
sites 149
sport 149
tillo 149
volume 149
の 149
伊@@ 149
島 149
花 149
達@@ 149
Ab 148
Tier@@ 148
Virgin@@ 148
adil@@ 148
ambul@@ 148
dua 148
eball 148
event 148
father 148
garde 148
geç@@ 148
natur@@ 148
probl@@ 148
té@@ 148
vend@@ 148
ва 148
ра@@ 148
ナ@@ 148
成 148
靈@@ 148
abila 147
food 147
requi@@ 147
sort 147
正 147
都 147
顯@@ 147
November 146
angu 146
euse 146
ismo 146
kuj@@ 146
richt 146
sexual 146
土@@ 146
崔@@ 146
者@@ 146
蔡@@ 146
Um 145
baya 145
isions 145
ugen@@ 145
Öl@@ 145
óm@@ 145
時@@ 145
조@@ 145
crit@@ 144
efe 144
gare 144
kleri 144
pez 144
scienti@@ 144
wei@@ 144
う 144
原 144
志 144
镇 144
Olimpi@@ 143
Université 143
banda 143
egio 143
five 143
genes 143
grand 143
ished 143
observ@@ 143
oder 143
played 143
÷ 143
ünde 143
üng@@ 143
Н@@ 143
て@@ 143
其@@ 143
戦@@ 143
會@@ 143
沙@@ 143
Personal 142
alif@@ 142
bres 142
classi@@ 142
estu@@ 142
ichte 142
public@@ 142
sah 142
technique 142
temps 142
went 142
ни@@ 142
น 142
コ@@ 142
家 142
法 142
Fuer@@ 141
För@@ 141
Spain 141
año 141
days 141
ept 141
frequ@@ 141
mbal@@ 141
points 141
province 141
seli 141
speed 141
story 141
weg 141
ónica 141
г 141
ло@@ 141
ằ@@ 141
真 141
那@@ 141
6. 140
Fot@@ 140
Pour 140
alik@@ 140
amt@@ 140
ancak 140
battle 140
early 140
effect 140
fantas@@ 140
ference 140
giz@@ 140
received 140
too 140
èg@@ 140
前@@ 140
至@@ 140
興 140
8. 139
afu@@ 139
anach@@ 139
andan 139
atures 139
chos 139
eden 139
expres@@ 139
feh@@ 139
icht@@ 139
meeting 139
monde 139
sans 139
without 139
üler 139
üre@@ 139
κ@@ 139
но@@ 139
ド 139
华@@ 139
国 139
社 139
Suisse 138
asing 138
bilin@@ 138
duk@@ 138
hek@@ 138
isim@@ 138
ocur@@ 138
rue 138
square 138
suit 138
until 138
ск 138
儀 138
內@@ 138
Berliner 137
Entre 137
Kriegs@@ 137
Mal 137
Regional@@ 137
collec@@ 137
ewa 137
hup@@ 137
impro@@ 137
ologi@@ 137
rend@@ 137
wann 137
ŋ@@ 137
ǐ@@ 137
Ко@@ 137
д 137
у 137
ֹ@@ 137
ן 137
哈@@ 137
工@@ 137
！ 137
Ayr@@ 136
Escu@@ 136
Kih@@ 136
enst 136
equi@@ 136
minute 136
next 136
pik 136
score 136
semble 136
ungu 136
С 136
сь@@ 136
ỵ@@ 136
っ@@ 136
ガ@@ 136
丁@@ 136
神 136
老@@ 136
Akadem@@ 135
Cep@@ 135
Estudi@@ 135
Hinter@@ 135
acias 135
ancı 135
auch 135
dial@@ 135
doba 135
enses 135
muz 135
requ@@ 135
rien 135
städ@@ 135
uku@@ 135
uzi 135
vak@@ 135
ρος 135
и@@ 135
← 135
〜 135
智@@ 135
9. 134
Assembly 134
Categ@@ 134
century 134
distribution 134
esab@@ 134
illos 134
leş@@ 134
sible 134
suj@@ 134
utsch@@ 134
öch@@ 134
З@@ 134
Ка@@ 134
а 134
グ@@ 134
宁@@ 134
村 134
泰 134
동@@ 134
주@@ 134
Sied@@ 133
Unión 133
While 133
bt 133
eln 133
etts 133
iled 133
ismus 133
prec@@ 133
soka 133
statt 133
tema 133
ť@@ 133
ον 133
广@@ 133
政 133
英 133
達 133
나@@ 133
Landkreis 132
adv@@ 132
insec@@ 132
least 132
sawa 132
tish@@ 132
vik@@ 132
villa 132
öd@@ 132
œur 132
га@@ 132
ד@@ 132
Ộ@@ 132
ỹ@@ 132
木 132
罗@@ 132
華 132
Gast@@ 131
adop@@ 131
ament 131
amento 131
astronom@@ 131
ateur 131
clos@@ 131
gemein@@ 131
hava 131
issen 131
iyi 131
process 131
semi 131
still 131
ulan 131
çu 131
Ми@@ 131
во@@ 131
о@@ 131
ม@@ 131
∈ 131
夫 131
母 131
紅@@ 131
而@@ 131
院@@ 131
Gatt@@ 130
Presidente 130
ecke 130
fort@@ 130
given 130
lig 130
mechan@@ 130
near@@ 130
puer@@ 130
Ć@@ 130
ʊ@@ 130
ө@@ 130
ม 130
∞ 130
入@@ 130
利@@ 130
南 130
熊@@ 130
相@@ 130
禪@@ 130
charge 129
doa 129
intern@@ 129
phase 129
some@@ 129
states 129
waz@@ 129
within 129
ǔ@@ 129
チ@@ 129
大 129
魯@@ 129
Indon@@ 128
amt 128
atta@@ 128
auti 128
chall@@ 128
cular 128
gesch@@ 128
latter 128
longu@@ 128
quarti@@ 128
reas 128
seinen 128
several 128
tip 128
tisch 128
tribu@@ 128
vide@@ 128
éné@@ 128
ν@@ 128
го@@ 128
ћ 128
כ@@ 128
メ@@ 128
兵@@ 128
孟@@ 128
守@@ 128
원@@ 128
Corpor@@ 127
Wasser@@ 127
complex 127
dern 127
gebung 127
horiz@@ 127
imbo 127
kek 127
nach@@ 127
sciences 127
unas 127
yum@@ 127
zeug@@ 127
Х@@ 127
ר 127
ṛ@@ 127
‑ 127
ュ@@ 127
万@@ 127
尹@@ 127
Fes@@ 126
Flü@@ 126
Sult@@ 126
festival 126
langen 126
lement 126
member 126
meni 126
paral@@ 126
partic@@ 126
rail@@ 126
teams 126
visi@@ 126
wach@@ 126
weit@@ 126
Ф@@ 126
не@@ 126
ย@@ 126
叔@@ 126
蘭@@ 126
赵@@ 126
音@@ 126
風 126
Compan@@ 125
Municipal 125
abs@@ 125
books 125
deli@@ 125
desc@@ 125
dig 125
edition 125
little 125
noch 125
ped 125
ก@@ 125
泰@@ 125
長 125
Escuela 124
Stadt@@ 124
Sır@@ 124
andere 124
class@@ 124
condi@@ 124
conqu@@ 124
cual 124
department 124
eser@@ 124
hizo 124
kli 124
operation 124
pler@@ 124
templ@@ 124
uş 124
venti@@ 124
æ 124
Л@@ 124
デ@@ 124
ニ@@ 124
出@@ 124
将@@ 124
晉@@ 124
歌 124
部@@ 124
이 124
Eins@@ 123
September 123
enton@@ 123
isho 123
migr@@ 123
mite 123
ondo@@ 123
sometimes 123
ль 123
プ@@ 123
佐@@ 123
作@@ 123
侍@@ 123
大学 123
昌 123
開@@ 123
contempor@@ 122
eins 122
entation 122
firma 122
islas 122
norm@@ 122
quand 122
repe@@ 122
subj@@ 122
tiy@@ 122
turn 122
¼ 122
éré 122
ァ@@ 122
パ@@ 122
也 122
侯@@ 122
信 122
在@@ 122
官@@ 122
志@@ 122
慧@@ 122
睿@@ 122
純@@ 122
선@@ 122
주 122
： 122
Krieg@@ 121
October 121
Span@@ 121
Una 121
aliforni@@ 121
comple@@ 121
complet@@ 121
could 121
covered 121
distrito 121
dola 121
much 121
never 121
oration 121
poin@@ 121
private 121
released 121
rir 121
roman@@ 121
ıt@@ 121
ŋ 121
̣ 121
ка@@ 121
源@@ 121
繼@@ 121
도 121
Califor@@ 120
circ@@ 120
desp@@ 120
econom@@ 120
eñ@@ 120
island 120
muş 120
podr@@ 120
puls@@ 120
yana@@ 120
çek@@ 120
Ậ@@ 120
セ@@ 120
ラ 120
呂@@ 120
拳 120
者 120
若@@ 120
Found@@ 119
July 119
chas 119
deutsche 119
dial 119
emos 119
essed 119
impl@@ 119
information 119
leng@@ 119
ologie 119
polic@@ 119
promot@@ 119
près 119
term 119
wers 119
ücke 119
до@@ 119
ли@@ 119
ด@@ 119
普@@ 119
美 119
雄 119
서@@ 119
According 118
Hockey 118
Yard@@ 118
adet 118
agric@@ 118
eña 118
idence 118
inclus@@ 118
ogle 118
versit@@ 118
waw@@ 118
Ü 118
İstanbul 118
по@@ 118
то@@ 118
下 118
于@@ 118
本 118
Dez@@ 117
Era 117
Kız@@ 117
Mayor 117
XV@@ 117
design 117
east 117
ennen 117
feu@@ 117
mex@@ 117
ogoro 117
seven 117
usta@@ 117
ète 117
ñas 117
Ḥ@@ 117
口@@ 117
台 117
司 117
리 117
Barcel@@ 116
Conseil 116
Nazi 116
diers 116
emas 116
mash@@ 116
northern 116
official 116
roul@@ 116
sech@@ 116
urdu 116
vili@@ 116
ве@@ 116
но 116
エ@@ 116
寶 116
教@@ 116
方 116
章 116
蘇@@ 116
－ 116
Finale 115
Hata 115
Premio 115
Sä@@ 115
años 115
current 115
ehri 115
gruppe 115
homme 115
including 115
klein@@ 115
kung 115
orit@@ 115
portation 115
riff@@ 115
sof@@ 115
terre 115
Église 115
ırı 115
ζ 115
ת@@ 115
བ@@ 115
ひ@@ 115
春 115
段@@ 115
溫@@ 115
Grupo 114
Para 114
Sich@@ 114
abb@@ 114
aft@@ 114
atik 114
history 114
illed 114
kü 114
outside 114
television 114
unid@@ 114
visible 114
ähr@@ 114
ís@@ 114
п@@ 114
та 114
ه@@ 114
ミ@@ 114
母@@ 114
郡 114
Schloss 113
Schutz@@ 113
cion@@ 113
commer@@ 113
compar@@ 113
etos 113
fiction 113
ided 113
idential 113
koa 113
reib@@ 113
sino 113
summer 113
sö@@ 113
ʼ 113
А 113
Со@@ 113
Ц@@ 113
да 113
ри@@ 113
פ@@ 113
じ@@ 113
ょ@@ 113
り 113
季@@ 113
拉@@ 113
拓@@ 113
為@@ 113
肅@@ 113
里 113
馮@@ 113
장@@ 113
Qué@@ 112
République 112
alcal@@ 112
alled 112
appel 112
atro 112
award 112
disci@@ 112
esos 112
gesti@@ 112
kön@@ 112
nation 112
offici@@ 112
´ 112
änder 112
ное 112
ү@@ 112
ח@@ 112
つ@@ 112
よ@@ 112
乡 112
令@@ 112
修@@ 112
從@@ 112
拔@@ 112
梅@@ 112
福 112
艦 112
金 112
錄 112
Educ@@ 111
Guerra 111
January 111
Luft@@ 111
Mehmet 111
Since 111
Stadt 111
casi 111
celle 111
circu@@ 111
dó@@ 111
ischen 111
kua 111
kuch@@ 111
lance 111
meli 111
naf@@ 111
older 111
onnes 111
spor@@ 111
third 111
those 111
öff@@ 111
η 111
ว@@ 111
แ@@ 111
ས 111
⁄ 111
州市 111
虎@@ 111
가@@ 111
Burg 110
Famili@@ 110
Ló@@ 110
Orta 110
abab@@ 110
arka 110
attack 110
fang@@ 110
figure 110
sibl@@ 110
topr@@ 110
toral 110
ρ@@ 110
ко 110
ле@@ 110
ダ@@ 110
忠 110
桓@@ 110
毛@@ 110
汉@@ 110
港@@ 110
綿@@ 110
馬 110
공@@ 110
원 110
하@@ 110
Rom 109
aled 109
bili@@ 109
business 109
chef 109
chron@@ 109
industrial 109
ision@@ 109
research 109
tige 109
tropolit@@ 109
φ@@ 109
Ба@@ 109
за@@ 109
Ἀ@@ 109
京 109
兴@@ 109
哲@@ 109
學 109
徽@@ 109
潘@@ 109
羅 109
賢@@ 109
자@@ 109
Journ@@ 108
Many 108
Origin@@ 108
Universität 108
aret@@ 108
ested 108
hockey 108
igos 108
indig@@ 108
kari@@ 108
mg@@ 108
model@@ 108
poss@@ 108
regel@@ 108
session 108
ма@@ 108
丹@@ 108
奇@@ 108
居@@ 108
欽@@ 108
洋@@ 108
湖@@ 108
石 108
董@@ 108
諸@@ 108
飛@@ 108
경@@ 108
Partido 107
Savaş@@ 107
because 107
company 107
create 107
determin@@ 107
doğ@@ 107
election 107
eviz@@ 107
explo@@ 107
influ@@ 107
kuk 107
ously 107
porting 107
stitu@@ 107
yalı 107
ð 107
ร@@ 107
乐@@ 107
娘 107
裴@@ 107
集@@ 107
기@@ 107
Infan@@ 106
Lauf@@ 106
Ley 106
afu 106
assemb@@ 106
avu 106
chini 106
college 106
dici@@ 106
direct 106
extrem@@ 106
great 106
ibar 106
inform@@ 106
international 106
placed 106
sexu@@ 106
verw@@ 106
Þ@@ 106
ɔ 106
Е@@ 106
К 106
で@@ 106
傳 106
功@@ 106
字 106
彥@@ 106
會 106
柳@@ 106
秋@@ 106
論 106
雄@@ 106
雪@@ 106
리@@ 106
Alman@@ 105
Funk@@ 105
Register 105
ayı 105
cito 105
femin@@ 105
ingana 105
issen@@ 105
lage 105
larg@@ 105
mens@@ 105
motor 105
royal 105
äf@@ 105
ки 105
ל 105
し 105
る 105
令 105
军 105
卿 105
官 105
年 105
最@@ 105
治 105
禮@@ 105
科@@ 105
도@@ 105
Gew@@ 104
Histor@@ 104
adores 104
article 104
atique 104
bila 104
bisch@@ 104
buch 104
concre@@ 104
development 104
held 104
ilien 104
ouver@@ 104
pueb@@ 104
schl@@ 104
tournament 104
tracks 104
ʰ@@ 104
τ@@ 104
е@@ 104
ч@@ 104
Ồ 104
保 104
分@@ 104
口 104
日 104
次@@ 104
湖 104
Kich@@ 103
Kultur@@ 103
aving 103
health 103
party 103
period 103
sector 103
tiki 103
ör 103
ɡ@@ 103
бо@@ 103
仙@@ 103
回@@ 103
姜@@ 103
得@@ 103
盛@@ 103
虎 103
鄧@@ 103
鎮@@ 103
靜@@ 103
Later 102
bras 102
character 102
help 102
igt 102
proper@@ 102
rece@@ 102
role 102
seh@@ 102
ships 102
siz@@ 102
äh@@ 102
Π@@ 102
χ@@ 102
ди@@ 102
ла 102
ј@@ 102
ズ 102
史 102
孔@@ 102
恭 102
輔@@ 102
수@@ 102
Academia 101
Institu@@ 101
Muhammed 101
Muhar@@ 101
Museo 101
aam 101
alized 101
arios 101
described 101
elik@@ 101
escap@@ 101
irler 101
mita 101
names 101
sound 101
tecn@@ 101
trade 101
ukw@@ 101
wake 101
zuk@@ 101
ний 101
х 101
勒 101
姬 101
尊@@ 101
局 101
心 101
手@@ 101
敦@@ 101
歌@@ 101
藏@@ 101
覺@@ 101
許@@ 101
스@@ 101
Osten 100
Program@@ 100
département 100
empe@@ 100
entro 100
lead@@ 100
lige 100
nation@@ 100
numer@@ 100
portun@@ 100
process@@ 100
southern 100
taş@@ 100
univers@@ 100
üz 100
þ@@ 100
Ж@@ 100
со@@ 100
⟩ 100
リ 100
來@@ 100
慎@@ 100
麻@@ 100
전@@ 100
Aun@@ 99
Schweiz 99
arding 99
aussi 99
deş@@ 99
hö@@ 99
ional 99
jina 99
kich@@ 99
often 99
related 99
teh@@ 99
tish 99
trieb@@ 99
vita 99
walt 99
ส@@ 99
≠ 99
ろ@@ 99
ビ@@ 99
周 99
字@@ 99
濟@@ 99
瑞@@ 99
總@@ 99
후 99
Bien 98
Russ@@ 98
aband@@ 98
above 98
alme 98
antage 98
baş@@ 98
cela 98
centre 98
children 98
clas@@ 98
correc@@ 98
kent@@ 98
maison 98
money 98
yote 98
zwe@@ 98
上 98
市@@ 98
情@@ 98
未@@ 98
莫@@ 98
薛@@ 98
通 98
다 98
Alter 97
Isra@@ 97
Rä@@ 97
alın@@ 97
anst@@ 97
chief 97
dido 97
edad 97
inner@@ 97
isons 97
isra@@ 97
lık@@ 97
peu 97
publ@@ 97
published 97
strum@@ 97
utenant 97
ística 97
ús 97
τ 97
ອ@@ 97
ར@@ 97
共@@ 97
姚@@ 97
威@@ 97
於@@ 97
无@@ 97
派 97
清 97
貝@@ 97
起@@ 97
유@@ 97
Democratic 96
Turkana 96
` 96
adém@@ 96
alth 96
analy@@ 96
archi@@ 96
cet 96
energy 96
isses 96
neas 96
seis 96
teil 96
undu 96
üst@@ 96
ק@@ 96
င 96
Ọ@@ 96
ム 96
友@@ 96
曲@@ 96
治@@ 96
秀@@ 96
赤@@ 96
达@@ 96
오@@ 96
Auf@@ 95
Bezir@@ 95
Ce 95
Haus 95
barrio 95
contains 95
course 95
cred@@ 95
etu 95
films 95
haup@@ 95
lesia 95
llev@@ 95
management 95
multiple 95
nghiệ@@ 95
refl@@ 95
reported 95
reve@@ 95
seur 95
taines 95
ted@@ 95
werke 95
working 95
yse 95
î 95
üstü 95
И 95
Ма@@ 95
י 95
ი@@ 95
☉ 95
孙@@ 95
度@@ 95
敏@@ 95
省 95
程@@ 95
葉@@ 95
誠@@ 95
雅@@ 95
顺@@ 95
Bahn@@ 94
February 94
Infr@@ 94
Mehr@@ 94
Nyan@@ 94
Politi@@ 94
Tanz@@ 94
arrondissement 94
enten 94
lée 94
lớ@@ 94
ocho 94
propri@@ 94
secre@@ 94
takes 94
uç@@ 94
çift@@ 94
της 94
О 94
Я@@ 94
ба@@ 94
де@@ 94
ник 94
ག@@ 94
傳@@ 94
初@@ 94
固@@ 94
完@@ 94
格@@ 94
牛@@ 94
草@@ 94
見@@ 94
민@@ 94
Güney 93
Kapit@@ 93
Wam@@ 93
acus@@ 93
ajiri 93
ately 93
ayna 93
complete 93
esine 93
every 93
exper@@ 93
fuer@@ 93
future 93
hors 93
inten@@ 93
ispo 93
ived 93
journal 93
lichen 93
meas@@ 93
museum 93
nok@@ 93
rail 93
resid@@ 93
seen 93
terres 93
tür@@ 93
Са@@ 93
га 93
ာ@@ 93
⁰ 93
─ 93
ハ@@ 93
今@@ 93
宜@@ 93
族 93
门@@ 93
階@@ 93
黑@@ 93
dimen@@ 92
flan@@ 92
hips 92
inclu@@ 92
mip@@ 92
muz@@ 92
prolong@@ 92
rég@@ 92
siz 92
zoni 92
ę 92
İl@@ 92
Σ@@ 92
ร 92
ເ@@ 92
ἀ@@ 92
₫ 92
塔@@ 92
所 92
竹@@ 92
紀@@ 92
經@@ 92
臨@@ 92
郎@@ 92
---- 91
Best@@ 91
Estado 91
Kinder@@ 91
Schweizer 91
abaj@@ 91
across 91
allem@@ 91
cier@@ 91
ichen 91
lieg@@ 91
music@@ 91
polon@@ 91
usu@@ 91
ε@@ 91
ти@@ 91
ง 91
မ@@ 91
Ỉ 91
♯ 91
ノ@@ 91
会 91
簡@@ 91
魔@@ 91
소@@ 91
Canadi@@ 90
Fútbol 90
Oy 90
Siy@@ 90
absol@@ 90
agnie 90
bald 90
competition 90
culture 90
doğdu 90
huri 90
iges 90
lir 90
pont 90
production 90
septi@@ 90
study 90
techni@@ 90
waf@@ 90
writer 90
äuser 90
êque 90
ʒ@@ 90
ֵ@@ 90
د@@ 90
ầ 90
Ờ@@ 90
命@@ 90
希@@ 90
所@@ 90
烏@@ 90
珠@@ 90
直@@ 90
良 90
言 90
기 90
보@@ 90
Basket@@ 89
Jewish 89
acked 89
dado 89
femme 89
footballer 89
konn@@ 89
mr@@ 89
oteca 89
religi@@ 89
reser@@ 89
result 89
teilung 89
theor@@ 89
ört@@ 89
öst@@ 89
ɛ 89
Ле@@ 89
По@@ 89
া@@ 89
ე@@ 89
交@@ 89
任@@ 89
使@@ 89
定 89
宝@@ 89
寿@@ 89
来@@ 89
洲@@ 89
碩@@ 89
色@@ 89
路 89
郑@@ 89
陸@@ 89
영@@ 89
의@@ 89
태@@ 89
ached 88
andır@@ 88
asked 88
dres 88
ehe 88
escal@@ 88
gart 88
location 88
magazine 88
matr@@ 88
modern 88
neu 88
parec@@ 88
stitut@@ 88
total 88
tı 88
wap@@ 88
Ľ@@ 88
Λ@@ 88
ω@@ 88
ха@@ 88
№ 88
≡ 88
わ@@ 88
園 88
姜 88
應@@ 88
朝 88
爱@@ 88
紫@@ 88
語@@ 88
화@@ 88
Buch 87
Sept@@ 87
actions 87
another 87
anzi 87
atı 87
aître 87
cide 87
cover@@ 87
ebil@@ 87
environ@@ 87
gend 87
gesi 87
ucu 87
virtu@@ 87
wed 87
ра 87
ه 87
พระ@@ 87
ງ@@ 87
ན 87
を@@ 87
康 87
格 87
流@@ 87
省@@ 87
禮 87
統@@ 87
翼@@ 87
野 87
사 87
안@@ 87
천@@ 87
Ahmet 86
Bei@@ 86
Benjam@@ 86
Departamento 86
Inform@@ 86
Regi@@ 86
alama 86
amor 86
appro@@ 86
bahçe 86
communication 86
conserv@@ 86
curs@@ 86
does 86
ellas 86
ged@@ 86
kirche 86
mf@@ 86
specific 86
toire 86
verein 86
¾ 86
ι 86
За@@ 86
ان 86
ོ@@ 86
亮 86
察@@ 86
手 86
昭 86
玉 86
紹@@ 86
連@@ 86
마@@ 86
Linc@@ 85
Their 85
Tod 85
alipo@@ 85
argum@@ 85
bind@@ 85
community 85
dari 85
hale 85
inay@@ 85
isation 85
label 85
office 85
players 85
prac@@ 85
tiv 85
ächs@@ 85
ún@@ 85
̃ 85
ψ 85
Э@@ 85
ма 85
ֶ@@ 85
ນ@@ 85
加@@ 85
問@@ 85
型@@ 85
夜@@ 85
桂@@ 85
管@@ 85
翁@@ 85
路@@ 85
音 85
선 85
Bau 84
Durant 84
Ermen@@ 84
However 84
República 84
annen 84
application 84
bali 84
besuch@@ 84
close 84
disput@@ 84
eines 84
national@@ 84
need 84
release 84
sovi@@ 84
udur 84
¹ 84
éti@@ 84
öne@@ 84
ʁ@@ 84
ˌ@@ 84
Α@@ 84
ар@@ 84
ва@@ 84
ສ@@ 84
Ầ@@ 84
‡ 84
√ 84
典 84
利 84
哀@@ 84
洛@@ 84
漢 84
祥 84
處@@ 84
面@@ 84
頭@@ 84
高 84
제@@ 84
학@@ 84
Buna 83
Histori@@ 83
Pub@@ 83
aison 83
among 83
atwa 83
came 83
canton 83
deki 83
divid@@ 83
exec@@ 83
honneur 83
ilç@@ 83
koy@@ 83
licher 83
mün@@ 83
spek@@ 83
suz 83
uelle 83
umes 83
vard@@ 83
ınlar 83
ο@@ 83
ги@@ 83
нов 83
са@@ 83
те@@ 83
ца 83
บ@@ 83
ေ@@ 83
ワ@@ 83
名 83
善 83
威 83
室@@ 83
宫 83
尉 83
廷@@ 83
甲@@ 83
雲 83
행@@ 83
National@@ 82
Organisation 82
Werke 82
ambos 82
clim@@ 82
deter@@ 82
episode 82
estas 82
example 82
fass@@ 82
going 82
hif@@ 82
lö@@ 82
ools 82
opening 82
oren 82
pendiente 82
pou@@ 82
qued@@ 82
support 82
terie 82
written 82
ziy@@ 82
ération 82
ƒ 82
ξ 82
Мо@@ 82
та@@ 82
ր@@ 82
محمد 82
วั@@ 82
ុ@@ 82
‒ 82
だ@@ 82
め@@ 82
ィ 82
ム@@ 82
ョ@@ 82
你@@ 82
勤@@ 82
同 82
圖 82
宫@@ 82
容 82
寧 82
橋 82
維@@ 82
红@@ 82
蒙@@ 82
鮮@@ 82
Perú 81
Restaur@@ 81
adver@@ 81
aises 81
attr@@ 81
cada 81
ehir@@ 81
enant 81
exist@@ 81
exter@@ 81
gek@@ 81
hosp@@ 81
jet@@ 81
landa 81
mül@@ 81
prit 81
satz 81
standard 81
veget@@ 81
zeh@@ 81
ónimo 81
си@@ 81
сть 81
س@@ 81
ະ@@ 81
☃ 81
⟨ 81
え@@ 81
き 81
园 81
地 81
彭@@ 81
曲 81
東 81
步@@ 81
賀@@ 81
부 81
Alit@@ 80
Kreis@@ 80
Kunst@@ 80
Kül@@ 80
Minister 80
Nouv@@ 80
Provin@@ 80
Straße 80
ará 80
capital 80
faire 80
goal 80
kais@@ 80
kund@@ 80
merc@@ 80
must 80
novi@@ 80
registr@@ 80
tière 80
transl@@ 80
uras 80
èque 80
Κ@@ 80
Но@@ 80
ни 80
ру@@ 80
ไ@@ 80
ိ@@ 80
モ@@ 80
三 80
好@@ 80
曾@@ 80
甘@@ 80
西 80
要@@ 80
詩@@ 80
谷@@ 80
越 80
遠@@ 80
강@@ 80
Amt 79
Feuer@@ 79
Lebens@@ 79
assur@@ 79
bruch 79
canti@@ 79
compon@@ 79
cristi@@ 79
destruc@@ 79
değ@@ 79
dée 79
give 79
groups 79
ifen 79
lük 79
municipio 79
onstr@@ 79
prati@@ 79
resol@@ 79
rights 79
second@@ 79
subst@@ 79
throughout 79
ww@@ 79
yako 79
̀ 79
Бо@@ 79
М 79
да@@ 79
ми@@ 79
нович 79
ро 79
ст@@ 79
ى@@ 79
ု@@ 79
ស@@ 79
ῖ@@ 79
吉 79
喜 79
悼@@ 79
盧@@ 79
節@@ 79
能@@ 79
苏@@ 79
順 79
박@@ 79
Preu@@ 78
Tube 78
Yap@@ 78
Zeit@@ 78
acak@@ 78
akula 78
arqu@@ 78
associ@@ 78
heav@@ 78
ickl@@ 78
mostly 78
nership 78
nhof 78
philosoph@@ 78
route 78
similar 78
special 78
taken 78
tions@@ 78
zas 78
¡ 78
äd@@ 78
ús@@ 78
ırlar 78
ɑ 78
Σ 78
ά@@ 78
се@@ 78
і 78
ย 78
ว 78
ມ@@ 78
း 78
Ề@@ 78
カ 78
キ 78
僧@@ 78
兒 78
喜@@ 78
封@@ 78
戦 78
摩@@ 78
斯@@ 78
殿@@ 78
汝@@ 78
理 78
苻@@ 78
超@@ 78
남@@ 78
산@@ 78
----@@ 77
Carrière 77
Halb@@ 77
Kult@@ 77
Landes@@ 77
Mü@@ 77
Parti 77
Queens@@ 77
died 77
dienst 77
ehem@@ 77
government 77
histor@@ 77
maji 77
professor 77
schluss 77
signed 77
tener 77
È@@ 77
û 77
über 77
şey@@ 77
ское 77
ح@@ 77
Ủ 77
ソ@@ 77
ッ 77
ツ@@ 77
傅@@ 77
向@@ 77
始@@ 77
榮@@ 77
衣@@ 77
麗@@ 77
종 77
지 77
Kamer@@ 76
Schiff 76
Woh@@ 76
accoun@@ 76
bajo 76
bien 76
built 76
einen 76
ezas 76
imiento 76
indu@@ 76
lerin 76
response 76
transfer 76
ulit@@ 76
usal@@ 76
çat@@ 76
ɐ@@ 76
ʊ 76
ί@@ 76
Ч@@ 76
ан@@ 76
ду@@ 76
ວ@@ 76
く 76
す@@ 76
ナ 76
书@@ 76
伏@@ 76
儀@@ 76
孤@@ 76
思 76
景 76
機@@ 76
济@@ 76
牛 76
謝@@ 76
進@@ 76
陰@@ 76
라@@ 76
무@@ 76
산 76
아 76
일@@ 76
Cór@@ 75
Jeux 75
Klasse 75
Kı@@ 75
Tradi@@ 75
Tä@@ 75
aciones 75
aiss@@ 75
alles 75
arse 75
calcul@@ 75
erne@@ 75
histori@@ 75
iline 75
lost 75
mort 75
muh@@ 75
neh@@ 75
paro@@ 75
recogni@@ 75
regular 75
soy@@ 75
wao 75
xico 75
ím@@ 75
ǎ 75
Бе@@ 75
Бу@@ 75
ев 75
ג@@ 75
ס@@ 75
ก 75
ล@@ 75
ད@@ 75
ུ@@ 75
რ@@ 75
久@@ 75
僖@@ 75
商@@ 75
夏 75
度 75
指@@ 75
支@@ 75
男 75
童@@ 75
護@@ 75
韋@@ 75
미@@ 75
어@@ 75
왕 75
우@@ 75
Career 74
Ecu@@ 74
Welt 74
baş 74
bezirk 74
depor@@ 74
dered 74
deutsch@@ 74
different 74
director 74
editor 74
eption 74
français 74
further 74
gradu@@ 74
général 74
instruc@@ 74
instrum@@ 74
layan 74
making 74
manager 74
meter 74
obra 74
osas 74
playing 74
rebel@@ 74
tales 74
tradi@@ 74
verb@@ 74
¢ 74
ünden 74
На@@ 74
ля@@ 74
ي 74
พ@@ 74
า 74
丁 74
乃@@ 74
乌@@ 74
二 74
別@@ 74
又@@ 74
开@@ 74
律@@ 74
房@@ 74
源 74
立 74
阿 74
隆 74
館 74
교 74
법@@ 74
장 74
최@@ 74
Administr@@ 73
Köl@@ 73
Lehr@@ 73
altitu@@ 73
bew@@ 73
degree 73
elected 73
endem@@ 73
few 73
habitants 73
interest 73
kalan 73
kani 73
laun@@ 73
leader 73
lisi 73
mars 73
mento 73
mois 73
pale 73
performance 73
provid@@ 73
selec@@ 73
studi@@ 73
suite 73
sä@@ 73
verdi 73
vive 73
vos 73
wali@@ 73
women 73
yeni 73
Í 73
út@@ 73
ɐ 73
˚ 73
τος 73
би@@ 73
кий 73
лу@@ 73
ные 73
ي@@ 73
เจ 73
ང 73
ក@@ 73
け@@ 73
ジ 73
勒@@ 73
北京@@ 73
古 73
妙@@ 73
布 73
愛 73
教 73
旗 73
熙@@ 73
男@@ 73
茂@@ 73
關@@ 73
隊 73
Ceramb@@ 72
akt@@ 72
annual 72
arded 72
became 72
etin 72
geg@@ 72
mobil@@ 72
mother 72
naval 72
otz 72
risto 72
theater 72
there@@ 72
trik 72
tó 72
wife 72
yüz@@ 72
ɪ 72
Τ@@ 72
До@@ 72
ї@@ 72
ป@@ 72
オ 72
ケ@@ 72
世 72
慶 72
提@@ 72
易@@ 72
祥@@ 72
秀 72
竇@@ 72
蘭 72
비@@ 72
수 72
Janu@@ 71
Sold@@ 71
acial 71
alanı 71
andır 71
cars 71
conoc@@ 71
dès 71
eastern 71
equip@@ 71
eshwa 71
experim@@ 71
formed 71
grou@@ 71
jeres 71
jour 71
liği 71
property 71
provin@@ 71
seit@@ 71
territ@@ 71
équ@@ 71
être 71
ία 71
στ@@ 71
ων 71
Про@@ 71
ан 71
ז@@ 71
ش@@ 71
ช@@ 71
み 71
ブ 71
勇@@ 71
戰 71
敏 71
毅@@ 71
满@@ 71
第@@ 71
貞 71
雙@@ 71
상@@ 71
해@@ 71
Nair@@ 70
Nä@@ 70
Platz 70
Staats@@ 70
auen 70
cipe 70
edly 70
gef@@ 70
grab@@ 70
ieder 70
kura 70
mali 70
manif@@ 70
placement 70
pok@@ 70
primary 70
together 70
valu@@ 70
zug@@ 70
Ý@@ 70
üğ@@ 70
ʔ 70
Ар@@ 70
про@@ 70
ров 70
ч 70
จ@@ 70
็ 70
ັ@@ 70
ほ@@ 70
マ 70
亲@@ 70
力@@ 70
圣@@ 70
壽 70
望@@ 70
溪@@ 70
禧@@ 70
鄂@@ 70
구@@ 70
진@@ 70
Assemb@@ 69
Parliament 69
Sieg 69
aily 69
alık 69
château 69
conduc@@ 69
crim@@ 69
dö@@ 69
egem@@ 69
entale 69
fand 69
investig@@ 69
jour@@ 69
journ@@ 69
listed 69
ograf@@ 69
prince 69
six@@ 69
tiller@@ 69
victoria 69
Ì@@ 69
él 69
élé@@ 69
ʔ@@ 69
க@@ 69
ท@@ 69
อ@@ 69
™ 69
ゅ@@ 69
乾@@ 69
人民@@ 69
幽@@ 69
性@@ 69
果@@ 69
梅 69
泉@@ 69
津@@ 69
深@@ 69
辛@@ 69
静@@ 69
인 69
진 69
Italie 68
Kuv@@ 68
Verte@@ 68
Wissen@@ 68
administr@@ 68
ardı 68
declar@@ 68
deux 68
distance 68
docum@@ 68
expos@@ 68
having 68
included 68
incor@@ 68
inti@@ 68
kaf@@ 68
kü@@ 68
nun 68
olympi@@ 68
qualif@@ 68
reli 68
running 68
rév@@ 68
vote 68
ıf@@ 68
ɣ@@ 68
Б 68
При@@ 68
Ш@@ 68
ш 68
ян@@ 68
ո@@ 68
ب@@ 68
ع@@ 68
ن@@ 68
Ẳ@@ 68
Ồ@@ 68
休@@ 68
允@@ 68
关@@ 68
榮 68
觀@@ 68
領 68
鬼@@ 68
부@@ 68
성 68
에@@ 68
Amér@@ 67
Population 67
Probl@@ 67
Stif@@ 67
ambas 67
ammen 67
deriv@@ 67
fact 67
haber 67
ihr 67
imbab@@ 67
instead 67
juu 67
mainly 67
portes 67
proced@@ 67
reli@@ 67
situ@@ 67
siy@@ 67
studies 67
tionn@@ 67
Μ@@ 67
Ο@@ 67
об@@ 67
ур@@ 67
ລ@@ 67
པ 67
‌ 67
● 67
ロ 67
你 67
使 67
叶@@ 67
夷 67
庆@@ 67
恩 67
朴@@ 67
汗 67
温@@ 67
献@@ 67
略 67
節 67
艦@@ 67
袁@@ 67
贵@@ 67
銀@@ 67
陶@@ 67
麗 67
문@@ 67
현@@ 67
ESCO 66
Fuß@@ 66
Genç@@ 66
Sein 66
Zug@@ 66
available 66
beginning 66
ciones 66
concentr@@ 66
countries 66
crimin@@ 66
dass 66
encore 66
gör@@ 66
iques 66
matches 66
popular 66
schaften 66
sched@@ 66
shows 66
universit@@ 66
vehic@@ 66
week@@ 66
ρι@@ 66
Го@@ 66
ъ 66
ر@@ 66
ق@@ 66
รั@@ 66
ห@@ 66
း@@ 66
せ@@ 66
ェ@@ 66
书 66
亭@@ 66
勝@@ 66
影@@ 66
扶@@ 66
比@@ 66
波 66
考@@ 66
臣@@ 66
航@@ 66
言@@ 66
豐@@ 66
雨@@ 66
雷@@ 66
首@@ 66
는 66
영 66
전 66
Feb@@ 65
adhi 65
auté 65
better 65
cost 65
county 65
diction 65
ectu@@ 65
estren@@ 65
expl@@ 65
forces 65
ión 65
neigh@@ 65
onnen 65
onné 65
patri@@ 65
produced 65
quot@@ 65
records 65
should 65
sports 65
structure 65
ʲ@@ 65
Λ 65
Г 65
Рес@@ 65
хо@@ 65
ز@@ 65
ى 65
ῆ@@ 65
ノ 65
中央@@ 65
乡@@ 65
叔 65
图 65
夷@@ 65
密@@ 65
殷@@ 65
民 65
甲 65
紀 65
與@@ 65
豫@@ 65
구 65
어 65
자 65
Deutschen 64
Une 64
acts 64
afir@@ 64
anded 64
coordin@@ 64
destroy@@ 64
ería 64
fils 64
hier 64
ingt 64
leurs 64
mascul@@ 64
sorg@@ 64
sources 64
writ@@ 64
ydi 64
ólica 64
ύ@@ 64
Ве@@ 64
за 64
ме@@ 64
са 64
че@@ 64
ё@@ 64
ס 64
ネ@@ 64
レ 64
中華@@ 64
仮@@ 64
佘@@ 64
巨@@ 64
微@@ 64
戴@@ 64
新 64
村@@ 64
由@@ 64
祿@@ 64
話 64
语 64
賢 64
車 64
aircraft 63
altitude 63
azz 63
bâ@@ 63
categ@@ 63
dibu@@ 63
elled 63
famous 63
huu 63
ilik 63
irani 63
isiones 63
iç 63
kati@@ 63
kij@@ 63
means 63
moto 63
movement 63
permi@@ 63
petit 63
physi@@ 63
senior 63
singles 63
venir 63
ű@@ 63
ɒ@@ 63
Ι@@ 63
ге@@ 63
ной 63
пи@@ 63
ша@@ 63
عبد 63
य@@ 63
ต 63
Ắ@@ 63
そ@@ 63
也@@ 63
井@@ 63
仲 63
堂@@ 63
島@@ 63
校@@ 63
株@@ 63
留@@ 63
色 63
芳@@ 63
葛@@ 63
鄉@@ 63
雅 63
鹿@@ 63
다@@ 63
Er 62
Famil@@ 62
Mt@@ 62
Olí@@ 62
Staff@@ 62
albums 62
almost 62
character@@ 62
construction 62
dose 62
faz@@ 62
female 62
guerre 62
human@@ 62
istas 62
military 62
normal 62
novel@@ 62
propag@@ 62
reco@@ 62
recog@@ 62
replaced 62
rés@@ 62
Ò@@ 62
Ø 62
ʌ@@ 62
μα 62
ξ@@ 62
бе@@ 62
ц 62
צ@@ 62
ས@@ 62
た 62
ゃ@@ 62
ヒ@@ 62
佛 62
军@@ 62
夢@@ 62
姑@@ 62
寺@@ 62
总@@ 62
恪@@ 62
情 62
战 62
晋@@ 62
極@@ 62
歸@@ 62
波@@ 62
渠@@ 62
甫 62
申@@ 62
益@@ 62
臺@@ 62
衡 62
豆@@ 62
국 62
세@@ 62
양@@ 62
여@@ 62
연@@ 62
Comité 61
Iglesia 61
Sozial@@ 61
animal 61
arlar 61
ations@@ 61
atives 61
author 61
brother 61
commerce 61
cours 61
deur 61
devant 61
dows 61
famille 61
find 61
govern@@ 61
interior 61
iones 61
migu@@ 61
musique 61
officer 61
progr@@ 61
sage 61
soll 61
solution 61
ustri@@ 61
vely 61
État 61
Ε@@ 61
ας 61
υ@@ 61
Ро@@ 61
ен@@ 61
з 61
ния 61
па@@ 61
пе@@ 61
ши@@ 61
Ở@@ 61
ら 61
卫@@ 61
嗣 61
嗣@@ 61
場 61
室 61
尼@@ 61
峰@@ 61
恋@@ 61
桃@@ 61
業 61
父 61
獨@@ 61
育@@ 61
草 61
蒲@@ 61
중@@ 61
Bahari 60
Beledi@@ 60
During 60
Häl@@ 60
Paragu@@ 60
ased 60
become 60
championship 60
collection 60
conse@@ 60
consist@@ 60
currently 60
duc 60
education 60
eight 60
fig 60
fique 60
fond@@ 60
gé@@ 60
hamia 60
ilities 60
kumi 60
livre 60
members 60
miento 60
ockey 60
previous 60
schied 60
sent 60
tesi 60
wanza 60
ät 60
école 60
η@@ 60
при@@ 60
্ 60
สุ@@ 60
ი 60
ក 60
ង 60
コ 60
丘@@ 60
兰@@ 60
岳@@ 60
峰 60
朗 60
死@@ 60
永 60
浪@@ 60
滿@@ 60
硕@@ 60
经@@ 60
聖 60
謙 60
近@@ 60
進 60
雨 60
鳳@@ 60
그@@ 60
시 60
은 60
황@@ 60
Afrique 59
Mwan@@ 59
Weit@@ 59
Zeit 59
academ@@ 59
coloni@@ 59
erste 59
explor@@ 59
feature 59
kama 59
motor@@ 59
oben 59
report 59
äch@@ 59
му@@ 59
ных 59
рович 59
ше@@ 59
นา@@ 59
མ 59
ḥ 59
‐ 59
乙@@ 59
俊 59
双@@ 59
嚴@@ 59
園@@ 59
将 59
房 59
才@@ 59
揚@@ 59
敬 59
曰@@ 59
根 59
淑 59
眼@@ 59
索@@ 59
錢@@ 59
门 59
霍@@ 59
韩@@ 59
香 59
鶴@@ 59
고 59
려 59
Akad@@ 58
Allem@@ 58
Asociación 58
Hochschule 58
alition 58
although 58
artist 58
autor@@ 58
average 58
below 58
bibli@@ 58
constitu@@ 58
conven@@ 58
features 58
fight 58
frances@@ 58
honor 58
honor@@ 58
huo 58
kiwa 58
kuk@@ 58
nine 58
nous 58
pek 58
personal 58
ría 58
spap@@ 58
ulus@@ 58
usually 58
Ú 58
çek 58
Не@@ 58
Ру@@ 58
Си@@ 58
У 58
ос@@ 58
ть 58
ج@@ 58
ོ 58
ရ@@ 58
ლ@@ 58
ត 58
ấ 58
ね@@ 58
シ 58
业@@ 58
亭 58
传 58
則@@ 58
嘉 58
圓@@ 58
塔 58
太平@@ 58
头@@ 58
学院 58
弼 58
愍@@ 58
感@@ 58
时@@ 58
業@@ 58
此@@ 58
浦@@ 58
熙 58
用@@ 58
登@@ 58
礼 58
米@@ 58
統 58
間@@ 58
阳 58
Actu@@ 57
Akademie 57
Ms@@ 57
accep@@ 57
addition 57
agement 57
agent 57
aguas 57
airman 57
architecture 57
bado 57
büyük 57
civil 57
hayat@@ 57
living 57
move 57
narr@@ 57
nde 57
propi@@ 57
respon@@ 57
sebe@@ 57
strateg@@ 57
thought 57
today 57
ufu 57
uzak@@ 57
ης 57
П 57
ал@@ 57
ли 57
ня 57
ט@@ 57
อง@@ 57
མ@@ 57
ྲ@@ 57
ὐ@@ 57
ど@@ 57
や@@ 57
ボ@@ 57
与@@ 57
刀 57
制 57
勝 57
城区 57
基 57
弘 57
機 57
溪 57
班@@ 57
空 57
角 57
象@@ 57
陀@@ 57
우 57
Adem@@ 56
Historic 56
Musik@@ 56
Preis 56
Tiy@@ 56
Verw@@ 56
aidia 56
appearance 56
dont 56
established 56
fahr@@ 56
heits@@ 56
largest 56
leading 56
mais 56
mağ@@ 56
mev@@ 56
musical 56
originally 56
perten@@ 56
petite 56
premi@@ 56
rather 56
training 56
ónom@@ 56
Де@@ 56
Та@@ 56
гор@@ 56
ׁ@@ 56
ข@@ 56
ห 56
ะ@@ 56
က@@ 56
တ@@ 56
ន@@ 56
倫@@ 56
半@@ 56
华 56
宿 56
尚 56
橋@@ 56
淳@@ 56
电@@ 56
莊 56
身@@ 56
載@@ 56
风@@ 56
鲁@@ 56
19th 55
Ayn@@ 55
Geometr@@ 55
Munici@@ 55
Municipal@@ 55
Par 55
addi@@ 55
alich@@ 55
communic@@ 55
erini 55
fern 55
hospit@@ 55
husband 55
lagen 55
ologique 55
pios 55
saba 55
scheid@@ 55
tiles 55
w.@@ 55
Ñ@@ 55
ŏ 55
Ț@@ 55
ɨ@@ 55
ή 55
Ку@@ 55
лович 55
ля 55
ров@@ 55
ா@@ 55
ล 55
້ 55
ེ@@ 55
ს@@ 55
∆ 55
ゴ@@ 55
ホ@@ 55
制@@ 55
奕@@ 55
將 55
庄@@ 55
才 55
故@@ 55
白 55
秋 55
羊@@ 55
舒@@ 55
遠 55
명@@ 55
비 55
스 55
Arbeit@@ 54
Waf@@ 54
acces@@ 54
allow 54
arily 54
asit@@ 54
cases 54
closed 54
composed 54
deal 54
economic 54
elimin@@ 54
eté 54
eğ@@ 54
farm@@ 54
fully 54
incre@@ 54
independent 54
innov@@ 54
irse 54
itze 54
kez 54
libre 54
roman 54
saire 54
seig@@ 54
tatu 54
took 54
uerto 54
university 54
vur@@ 54
völ@@ 54
wale 54
ühr@@ 54
Β@@ 54
κ 54
Ан@@ 54
ку@@ 54
чи@@ 54
ե@@ 54
الله 54
خ@@ 54
ต@@ 54
ウ 54
ズ@@ 54
丸 54
为@@ 54
克 54
列@@ 54
副@@ 54
力 54
厚@@ 54
喇@@ 54
尾@@ 54
建 54
惟@@ 54
惠 54
放@@ 54
李 54
森@@ 54
樂 54
演@@ 54
濟 54
照@@ 54
珍@@ 54
珠 54
血@@ 54
街 54
解@@ 54
記@@ 54
體@@ 54
齐@@ 54
라 54
방@@ 54
위@@ 54
1980s 53
Congr@@ 53
Migu@@ 53
Regierungs@@ 53
alien 53
assist@@ 53
fik@@ 53
goals 53
ingly 53
introduced 53
joint 53
kez@@ 53
kuş@@ 53
lado 53
portu@@ 53
songs 53
uvo 53
versions 53
writing 53
études 53
óp@@ 53
úl@@ 53
şe 53
ů 53
ǒ 53
Пет@@ 53
Т 53
сь 53
ян 53
م 53
त 53
ນ 53
འ@@ 53
临@@ 53
吾@@ 53
命 53
图@@ 53
場@@ 53
干@@ 53
廟 53
徽 53
懿 53
洞@@ 53
珍 53
用 53
社@@ 53
素@@ 53
茶 53
赫@@ 53
逐@@ 53
頭 53
군 53
니@@ 53
백@@ 53
화 53
Aralık 52
Cathol@@ 52
Erk@@ 52
II. 52
Sez@@ 52
acak 52
americano 52
certain 52
develop@@ 52
dire@@ 52
emper@@ 52
forc@@ 52
heu@@ 52
hoy 52
jini 52
past 52
plays 52
positive 52
services 52
symbol@@ 52
teil@@ 52
ticos 52
transport 52
Ül@@ 52
ĕ@@ 52
ʃ 52
ει@@ 52
κα@@ 52
χ 52
Мар@@ 52
гу@@ 52
льный 52
ю 52
ி@@ 52
ម 52
ピ@@ 52
乞@@ 52
了@@ 52
公司 52
务@@ 52
咸@@ 52
奇 52
復@@ 52
施@@ 52
沮@@ 52
泉 52
玄 52
直 52
相 52
纳@@ 52
聞@@ 52
舞@@ 52
菩@@ 52
谷 52
超 52
鬼 52
鴻@@ 52
龙 52
광@@ 52
대 52
로 52
서 52
Höh@@ 51
Kuna 51
Privat@@ 51
Regiment 51
Städ@@ 51
Verwaltungs@@ 51
aters 51
began 51
chanson 51
concep@@ 51
implement@@ 51
minister 51
más 51
occas@@ 51
okul@@ 51
organiz@@ 51
signific@@ 51
sold 51
tere 51
ually 51
urba@@ 51
voix 51
voy@@ 51
édi@@ 51
êts 51
ков@@ 51
ло 51
ค@@ 51
ກ@@ 51
ພ@@ 51
ြ@@ 51
ន 51
ម@@ 51
ῦ@@ 51
ῶ@@ 51
⋅ 51
っ 51
れ 51
グ 51
ヴ@@ 51
代 51
典@@ 51
務@@ 51
化 51
合 51
基@@ 51
太 51
宇 51
尼 51
振@@ 51
智 51
有限公司 51
机场 51
權 51
池@@ 51
澤 51
符@@ 51
舍@@ 51
茶@@ 51
薩@@ 51
衣 51
那 51
隊@@ 51
雍@@ 51
非@@ 51
만@@ 51
청@@ 51
한 51
Description 50
Nint@@ 50
arrang@@ 50
bare 50
casa 50
como 50
decision 50
emplo@@ 50
espace 50
igned 50
important 50
jeune 50
kanda 50
mayor 50
pair 50
pied 50
political 50
publican 50
rais 50
rép@@ 50
spiel 50
visit@@ 50
ʾ@@ 50
αν@@ 50
ι@@ 50
Во@@ 50
То@@ 50
го 50
ного 50
пу@@ 50
ты 50
ция 50
ل@@ 50
ลา@@ 50
ប@@ 50
Ị 50
Ụ 50
Ứ 50
ἐ@@ 50
す 50
と 50
ギ@@ 50
ミ 50
ヤ@@ 50
丹 50
兩@@ 50
圖@@ 50
宸@@ 50
岛 50
幸@@ 50
怀@@ 50
涼@@ 50
湘@@ 50
琴 50
精@@ 50
約 50
胡 50
說@@ 50
额@@ 50
가 50
정 50
Armee 49
Dies 49
Musik 49
Wirt@@ 49
Zentr@@ 49
ativo 49
awala 49
condu@@ 49
created 49
document@@ 49
durum 49
finished 49
follow@@ 49
global 49
haut 49
lider@@ 49
mada 49
okeo 49
resist@@ 49
riere 49
sett@@ 49
significant 49
tainment 49
vom 49
âce 49
Се@@ 49
Ста@@ 49
Ю@@ 49
ат@@ 49
же@@ 49
ков 49
фронт 49
ци 49
э 49
د 49
र 49
ด 49
ི 49
な 49
ヨ@@ 49
亦@@ 49
動@@ 49
包@@ 49
匡@@ 49
密 49
徳@@ 49
意@@ 49
斗@@ 49
条@@ 49
桥 49
流 49
縣@@ 49
荣@@ 49
訓 49
誠 49
論@@ 49
记 49
足@@ 49
铁@@ 49
關 49
電@@ 49
領@@ 49
食@@ 49
齊 49
금 49
랑@@ 49
Kıbr@@ 48
Oreg@@ 48
Represent@@ 48
Topl@@ 48
angwa 48
atmos@@ 48
bunal 48
cause 48
cero 48
cuer@@ 48
defeated 48
democ@@ 48
either 48
equival@@ 48
experi@@ 48
fourth 48
greso 48
heit@@ 48
however 48
mundo 48
origin@@ 48
round@@ 48
serve 48
siè@@ 48
zeug 48
Θ@@ 48
Ре@@ 48
Су@@ 48
ди 48
ци@@ 48
ն@@ 48
و@@ 48
ท 48
วง@@ 48
ྱ@@ 48
ἄ@@ 48
♀ 48
に 48
ザ@@ 48
ポ@@ 48
仙 48
住@@ 48
全 48
到@@ 48
受@@ 48
如 48
存@@ 48
尉@@ 48
庶@@ 48
毅 48
牙@@ 48
碧@@ 48
秘@@ 48
範 48
肃@@ 48
虞@@ 48
謙@@ 48
镇@@ 48
顏@@ 48
거@@ 48
Although 47
Doppel@@ 47
Fach@@ 47
Gesch@@ 47
Kore 47
Mutter 47
Verlag 47
appear@@ 47
applic@@ 47
besi@@ 47
bür@@ 47
conditions 47
corps 47
ded@@ 47
erten 47
frau 47
fé@@ 47
isinin 47
köy@@ 47
oires 47
operations 47
propos@@ 47
préf@@ 47
runs 47
schrift 47
though 47
tours 47
yok 47
Ù@@ 47
ŭ 47
͡ 47
Χ@@ 47
Ω@@ 47
Алек@@ 47
вая 47
мир 47
ские 47
بن 47
म@@ 47
าน@@ 47
န 47
ო@@ 47
ṃ 47
ẫ 47
♦ 47
什@@ 47
共和@@ 47
切@@ 47
友 47
姫 47
松 47
柔@@ 47
根@@ 47
澤@@ 47
琵@@ 47
瑞 47
祐 47
裕 47
邦@@ 47
鐵@@ 47
陀 47
駆@@ 47
삼@@ 47
예@@ 47
트 47
호@@ 47
Israeli 46
Kunst 46
Leben 46
Machi 46
Werk@@ 46
Yugoslav@@ 46
atiques 46
bö@@ 46
capac@@ 46
dự@@ 46
enced 46
engl@@ 46
events 46
gül@@ 46
institu@@ 46
justice 46
mej@@ 46
mz@@ 46
nature 46
perman@@ 46
politi@@ 46
represent@@ 46
simple 46
unden 46
venue 46
çap@@ 46
óg@@ 46
ǃ@@ 46
ɕ@@ 46
Глав@@ 46
ке 46
ски 46
ского 46
ста@@ 46
ство 46
या@@ 46
บ 46
ุ 46
ู 46
ვ@@ 46
Ễ@@ 46
お 46
か 46
て 46
タ 46
傑 46
先 46
八 46
凤@@ 46
卓@@ 46
县@@ 46
型 46
嬪@@ 46
学 46
干 46
沙 46
洪 46
父@@ 46
的 46
知 46
祐@@ 46
綏@@ 46
羽@@ 46
耶@@ 46
能 46
荀@@ 46
詩 46
議@@ 46
贝@@ 46
防@@ 46
魚@@ 46
송@@ 46
씨 46
현 46
； 46
Cumhuriy@@ 45
Meister 45
Selb@@ 45
Zus@@ 45
administration 45
akter 45
cinéma 45
compr@@ 45
eckt 45
entire 45
film@@ 45
hangi 45
inici@@ 45
policy 45
politik 45
relati@@ 45
saint 45
struk@@ 45
supérieur 45
tores 45
trop 45
units 45
Über 45
σι@@ 45
Ли@@ 45
Ме@@ 45
Пе@@ 45
Росси@@ 45
б 45
ки@@ 45
ны 45
по 45
ри 45
стре@@ 45
ط@@ 45
ين 45
ค 45
უ@@ 45
ᠠ@@ 45
Ộ 45
₹ 45
ℓ 45
♂ 45
こ 45
云 45
他@@ 45
北 45
協@@ 45
句@@ 45
吕@@ 45
国家@@ 45
媛 45
存 45
宣 45
彌@@ 45
录 45
慎 45
我 45
斗 45
望 45
洞 45
甄@@ 45
盛 45
穆 45
編 45
群@@ 45
羽 45
蓮@@ 45
青 45
齋 45
궁 45
노@@ 45
천 45
홍@@ 45
19. 44
Stutt@@ 44
aliste 44
arla 44
associated 44
bisher 44
cán@@ 44
deleg@@ 44
deren 44
difer@@ 44
favor@@ 44
insel 44
irik@@ 44
isine 44
issant 44
jeu 44
kiz@@ 44
militaire 44
ouvent 44
terms 44
usawa 44
villes 44
ɲ@@ 44
̯ 44
λε@@ 44
Я 44
ба 44
вой 44
ет@@ 44
цы 44
ص@@ 44
ك@@ 44
न@@ 44
รา@@ 44
ี 44
მ@@ 44
ស 44
Ệ 44
フ 44
丰@@ 44
二十@@ 44
伦@@ 44
勳 44
即@@ 44
回 44
奴 44
姓 44
嫡@@ 44
宏 44
射@@ 44
屋@@ 44
延 44
想@@ 44
技@@ 44
時代 44
柴@@ 44
案 44
樓 44
港 44
烈 44
翰 44
譚@@ 44
運@@ 44
邵@@ 44
顯 44
ꞌ@@ 44
레@@ 44
호 44
Dunia 43
Ende 43
Sanat@@ 43
according 43
added 43
agricul@@ 43
akini 43
azim@@ 43
especially 43
explic@@ 43
extra@@ 43
fonso 43
histoire 43
istische 43
itself 43
joined 43
material 43
months 43
okrati@@ 43
ouvern@@ 43
presented 43
professional 43
quanti@@ 43
superior 43
tivi@@ 43
Â 43
Über@@ 43
ÿ 43
ʰ 43
έ@@ 43
αυ@@ 43
Гор@@ 43
Д 43
Да@@ 43
Ду@@ 43
Ра@@ 43
аль@@ 43
бла@@ 43
им@@ 43
кая 43
ние 43
ст 43
сы 43
ту@@ 43
управление 43
ի@@ 43
ر 43
प 43
ำ@@ 43
ື@@ 43
ལ@@ 43
ི@@ 43
ំ@@ 43
ậ 43
Ợ@@ 43
は 43
ま 43
ゲ@@ 43
中國@@ 43
义 43
井 43
亞@@ 43
任 43
余@@ 43
侍 43
依@@ 43
反@@ 43
垂@@ 43
娘@@ 43
婉@@ 43
孫 43
常 43
式 43
彝@@ 43
殺@@ 43
火 43
球@@ 43
琶 43
画 43
異@@ 43
第一@@ 43
藤 43
觉@@ 43
貴 43
車@@ 43
速@@ 43
際@@ 43
랑 43
바@@ 43
요 43
Geschichte 42
Lage 42
atisti@@ 42
ayud@@ 42
career 42
cerem@@ 42
contract 42
dül@@ 42
ectura 42
etk@@ 42
facil@@ 42
fait 42
fá@@ 42
gende 42
ient 42
insi 42
materi@@ 42
much@@ 42
nieder@@ 42
osto 42
prix 42
reste 42
sister 42
sogen@@ 42
stud@@ 42
tout 42
towards 42
tren@@ 42
types 42
ucky 42
venes 42
wuch@@ 42
yoğ@@ 42
üf@@ 42
ļ@@ 42
Š 42
Φ@@ 42
οι 42
ό@@ 42
СССР 42
Ха@@ 42
бу@@ 42
ек@@ 42
ман@@ 42
ми 42
си 42
ּ 42
، 42
य 42
स 42
ு@@ 42
් 42
ราช@@ 42
ງ 42
པ@@ 42
ბ@@ 42
ნ@@ 42
Ỹ 42
∩ 42
⊆ 42
位 42
佟@@ 42
再@@ 42
品@@ 42
婆@@ 42
客@@ 42
师@@ 42
念@@ 42
打@@ 42
掌@@ 42
暉 42
汪@@ 42
然@@ 42
物 42
璋 42
目@@ 42
破@@ 42
科 42
納@@ 42
聲@@ 42
胤@@ 42
船@@ 42
蔣@@ 42
起 42
连@@ 42
鍾@@ 42
鎮 42
长 42
面 42
게 42
나 42
순@@ 42
Als 41
Bis 41
Chuo 41
Mitte 41
Wais@@ 41
campaign 41
celebr@@ 41
centrale 41
changes 41
contact 41
cultural 41
ensive 41
featur@@ 41
minutes 41
month 41
mt 41
mét@@ 41
remained 41
scored 41
territori@@ 41
umbu@@ 41
viel 41
weil 41
ños 41
örd@@ 41
ınca 41
ζ@@ 41
Совет@@ 41
ге 41
от 41
школе 41
ья 41
الح@@ 41
ர@@ 41
ญ 41
ยา@@ 41
ี@@ 41
ལ 41
់ 41
』 41
ず@@ 41
义@@ 41
介 41
倫 41
備@@ 41
公園 41
六 41
冠@@ 41
分 41
呼@@ 41
壮@@ 41
好 41
居 41
工 41
巫@@ 41
必@@ 41
扎@@ 41
晉 41
毓@@ 41
渡@@ 41
灵@@ 41
琴@@ 41
研究@@ 41
習@@ 41
葉 41
藍@@ 41
藏 41
觀 41
輪@@ 41
邪@@ 41
酒@@ 41
鈴@@ 41
陆@@ 41
？ 41
Kommun@@ 40
Meter 40
Norden 40
acomp@@ 40
ammen@@ 40
approximately 40
arası 40
behind 40
characters 40
chte 40
confirm@@ 40
destr@@ 40
hasta 40
iliy@@ 40
imz@@ 40
includes 40
incorpor@@ 40
issue 40
lares 40
lere 40
lowing 40
manos 40
organization 40
particip@@ 40
president 40
surviv@@ 40
tilen 40
verband 40
villages 40
ximo 40
¿ 40
äng@@ 40
érieur 40
Ν@@ 40
Ки@@ 40
Укра@@ 40
зи@@ 40
зо@@ 40
ин@@ 40
лов 40
лы@@ 40
ня@@ 40
рий 40
ф@@ 40
ча@@ 40
эн@@ 40
қ@@ 40
א 40
ت@@ 40
س 40
ं 40
र@@ 40
นี 40
ບ@@ 40
ა 40
თ@@ 40
ជ@@ 40
› 40
ベ@@ 40
世界@@ 40
來 40
倉@@ 40
健@@ 40
儿 40
兵 40
因@@ 40
實@@ 40
封 40
岭 40
廢@@ 40
彦@@ 40
徒@@ 40
戰@@ 40
支 40
文化 40
淨@@ 40
私@@ 40
終@@ 40
苗@@ 40
落@@ 40
衞@@ 40
载@@ 40
閔@@ 40
閻@@ 40
養@@ 40
黒@@ 40
윤@@ 40
을 40
평@@ 40
해 40
희 40
﻿ 40
Frau 39
Grupp@@ 39
Kati 39
absor@@ 39
allowed 39
appeared 39
association 39
atika 39
beit@@ 39
campe@@ 39
cathol@@ 39
developed 39
followed 39
igung 39
impos@@ 39
minister@@ 39
moved 39
musici@@ 39
nouveau 39
ographie 39
ouverneur 39
owned 39
revel@@ 39
served 39
sold@@ 39
tario 39
tend 39
tous 39
yali@@ 39
zeu@@ 39
Égl@@ 39
ände 39
évolution 39
şi 39
αγ@@ 39
αρ@@ 39
μα@@ 39
πος 39
Вели@@ 39
зе@@ 39
йн 39
ново 39
п 39
ة 39
ف@@ 39
م@@ 39
महा@@ 39
ப@@ 39
ช 39
ศ@@ 39
່ 39
သ@@ 39
ល@@ 39
Ự 39
⁠ 39
『 39
ち 39
テ 39
事件 39
传@@ 39
則 39
劍@@ 39
十 39
发@@ 39
园@@ 39
坡@@ 39
大學 39
姓@@ 39
尔 39
尾 39
己 39
廣 39
楚 39
洲 39
淮@@ 39
溥@@ 39
老 39
芳 39
角@@ 39
诗@@ 39
贞@@ 39
远@@ 39
過@@ 39
郁@@ 39
関@@ 39
隱@@ 39
雪 39
颜@@ 39
개@@ 39
덕@@ 39
드@@ 39
제 39
Devlet 38
Eyl@@ 38
Haup@@ 38
Kateg@@ 38
Sommer 38
Türk 38
akadem@@ 38
altung 38
betr@@ 38
consci@@ 38
consid@@ 38
conten@@ 38
distribu@@ 38
earned 38
eigen@@ 38
fér@@ 38
groupe 38
gré 38
générale 38
higher 38
huko 38
huru 38
industry 38
infan@@ 38
internationale 38
iture 38
killed 38
manufactur@@ 38
maç@@ 38
police 38
present@@ 38
propor@@ 38
results 38
seul@@ 38
subsequ@@ 38
été 38
Ă 38
Авто@@ 38
Гу@@ 38
Пу@@ 38
ев@@ 38
публика 38
сти 38
су@@ 38
тан@@ 38
ב 38
ד 38
ט 38
ศ 38
ཆ@@ 38
ར 38
္ 38
ត@@ 38
Ể@@ 38
バ 38
ペ@@ 38
俊@@ 38
兒@@ 38
勤 38
印@@ 38
去@@ 38
參@@ 38
号@@ 38
哲 38
固 38
宝 38
實 38
尊 38
岩@@ 38
当@@ 38
戸@@ 38
服 38
果 38
柏@@ 38
桥@@ 38
洋 38
澄 38
灣@@ 38
營 38
班 38
督 38
砂@@ 38
翰@@ 38
菊@@ 38
譜 38
變 38
许@@ 38
谢@@ 38
賈@@ 38
錦@@ 38
锦@@ 38
騎@@ 38
용@@ 38
조 38
종@@ 38
20. 37
Amerika 37
Sous 37
Yeni 37
Zu 37
adı 37
akuwa 37
aría 37
coloc@@ 37
commercial 37
consum@@ 37
contra 37
contre 37
direction 37
establ@@ 37
fille 37
kuf@@ 37
onales 37
plann@@ 37
princi@@ 37
rar 37
schutz 37
segu@@ 37
subject 37
sí 37
tante 37
terior 37
unat@@ 37
yanı 37
Ön@@ 37
ħ@@ 37
ışık 37
ľ 37
ις 37
ψ@@ 37
Ге@@ 37
Ти@@ 37
Чу@@ 37
вка 37
вый 37
ер@@ 37
ет 37
мар@@ 37
мен@@ 37
ница 37
ор@@ 37
ры@@ 37
ха 37
шка 37
ն 37
ך@@ 37
بي 37
و 37
ە@@ 37
த@@ 37
ั 37
เส@@ 37
ົ@@ 37
ទ@@ 37
Ṣ@@ 37
Ử 37
♥ 37
エ 37
チ 37
デ 37
丽@@ 37
位@@ 37
俱@@ 37
关 37
冬@@ 37
区@@ 37
厲@@ 37
及@@ 37
噶@@ 37
執@@ 37
季 37
悪@@ 37
战@@ 37
校 37
森 37
樊@@ 37
泽@@ 37
浮@@ 37
淵 37
游@@ 37
燕 37
琳 37
笑@@ 37
纪@@ 37
荊@@ 37
術 37
跋@@ 37
迎@@ 37
造@@ 37
遊@@ 37
邊@@ 37
鎭@@ 37
钟@@ 37
麟 37
너@@ 37
로@@ 37
민 37
신 37
야 37
은@@ 37
일 37
Guerre 36
Hanno@@ 36
Kanton 36
Kinder 36
Minister@@ 36
Nisan 36
Paşa 36
Rechts@@ 36
Rolle 36
Verein@@ 36
agit 36
already 36
ammlung 36
blanco 36
correspond@@ 36
critic@@ 36
cé@@ 36
emple 36
encias 36
expression 36
fabri@@ 36
ifu@@ 36
industri@@ 36
kın 36
lehr@@ 36
links 36
manus@@ 36
married 36
mère 36
nouv@@ 36
pobl@@ 36
relation 36
seasons 36
seat 36
separate 36
sionn@@ 36
sition 36
teurs 36
unos 36
unun 36
uvu 36
wrote 36
Ã 36
çev@@ 36
Č 36
ņ@@ 36
ή@@ 36
Ла@@ 36
ве 36
воен@@ 36
ед@@ 36
ера 36
жи@@ 36
льский 36
ска 36
ско@@ 36
сто@@ 36
щи@@ 36
ю@@ 36
ң@@ 36
َ@@ 36
ۇ@@ 36
ຫ@@ 36
ཀ@@ 36
ེ 36
ḫ@@ 36
ὀ@@ 36
ὁ 36
け 36
じ 36
ツ 36
乘@@ 36
亂 36
亨 36
優@@ 36
剛@@ 36
卜@@ 36
四 36
坂@@ 36
失@@ 36
奚@@ 36
嫔 36
宏@@ 36
宿@@ 36
寒@@ 36
對@@ 36
岸 36
崇 36
持@@ 36
曰 36
末@@ 36
梁 36
楽@@ 36
池 36
犬 36
當@@ 36
目 36
稱@@ 36
答@@ 36
簡 36
翊@@ 36
蒙 36
融 36
衛 36
观@@ 36
輝@@ 36
送@@ 36
重 36
間 36
骑@@ 36
10. 35
11. 35
Eig@@ 35
Entw@@ 35
Komit@@ 35
Nr. 35
Sicher@@ 35
Teil@@ 35
Welt@@ 35
Zur 35
afan@@ 35
aired 35
alité 35
allow@@ 35
autor 35
awarded 35
birliği 35
changed 35
clubs 35
combat 35
cü 35
daughter 35
deutscher 35
entaire 35
esas 35
fahrt 35
fois 35
generally 35
gün 35
hidro@@ 35
highest 35
join@@ 35
kuli@@ 35
langue 35
longer 35
mitted 35
nda 35
nne 35
places 35
provided 35
redu@@ 35
rement 35
région 35
sont 35
suggest@@ 35
toba 35
trois 35
umwa 35
vek@@ 35
vile 35
voll@@ 35
zeit 35
Ð 35
Österreich 35
çer@@ 35
état 35
ıcı 35
Φιλ@@ 35
Бела@@ 35
Крас@@ 35
Ор@@ 35
Пре@@ 35
Рус@@ 35
Сер@@ 35
ской 35
ти 35
ша 35
ָ 35
ال 35
อย@@ 35
∀ 35
ⴰ@@ 35
ご@@ 35
ゆ@@ 35
プ 35
体@@ 35
修 35
健 35
前 35
剣 35
取@@ 35
唐 35
声@@ 35
寂@@ 35
寨 35
岳 35
形@@ 35
征@@ 35
散@@ 35
来 35
樓@@ 35
浩 35
溫 35
独@@ 35
瓜@@ 35
町 35
界 35
皆@@ 35
秉@@ 35
等 35
策@@ 35
翠@@ 35
般@@ 35
蒼@@ 35
見 35
親 35
身 35
辅@@ 35
農@@ 35
鏡@@ 35
離@@ 35
難@@ 35
革@@ 35
飞@@ 35
餅 35
黨 35
Büh@@ 34
Kwa 34
Singapo@@ 34
alisation 34
armée 34
continued 34
cultiv@@ 34
directed 34
discipl@@ 34
famil@@ 34
grund 34
issu@@ 34
liches 34
lors 34
protection 34
père 34
record@@ 34
sobre 34
table@@ 34
ufu@@ 34
ulaire 34
unique 34
veloc@@ 34
who@@ 34
¬ 34
çık@@ 34
écu@@ 34
ħ 34
ılık 34
̍ 34
μέ@@ 34
ρο@@ 34
Ни@@ 34
Че@@ 34
вер@@ 34
ле 34
ну@@ 34
сла@@ 34
це@@ 34
را@@ 34
ق 34
त@@ 34
র@@ 34
ญ@@ 34
วิ@@ 34
โ@@ 34
ຊ@@ 34
ິ@@ 34
ད 34
ာ 34
⅓ 34
↑ 34
⇔ 34
∗ 34
⊕ 34
ば@@ 34
ふ@@ 34
乱 34
儿@@ 34
冷@@ 34
凌@@ 34
劍 34
功 34
头 34
应@@ 34
彥 34
忽@@ 34
戎 34
旦 34
時 34
棋 34
權@@ 34
沖@@ 34
活@@ 34
漫@@ 34
狐@@ 34
第三@@ 34
紹 34
绍@@ 34
肅 34
至 34
致@@ 34
茂 34
號 34
謂@@ 34
话 34
足 34
輝 34
迷@@ 34
遺@@ 34
邑 34
邑@@ 34
閣 34
館@@ 34
髮@@ 34
鳥@@ 34
계@@ 34
울@@ 34
Consejo 33
Deniz 33
Fahr@@ 33
Forschungs@@ 33
Heimat@@ 33
Parte@@ 33
Unter 33
Wieder@@ 33
asik 33
author@@ 33
autonom@@ 33
awali 33
baja 33
cens@@ 33
champion 33
coach 33
comte 33
difficul@@ 33
eher 33
ejec@@ 33
evidence 33
hér@@ 33
ieh@@ 33
individual 33
kıl@@ 33
larger 33
ları 33
likely 33
lique 33
meil@@ 33
missions 33
mito 33
municip@@ 33
nchi 33
persona 33
practice 33
previously 33
principal 33
question 33
recherche 33
señ@@ 33
sifa 33
ticas 33
traditional 33
uppen 33
verz@@ 33
volun@@ 33
äus@@ 33
çı@@ 33
ġ@@ 33
Ō 33
ŵ@@ 33
ǁ@@ 33
ǂ@@ 33
ʁ 33
ής 33
θος 33
λλ@@ 33
Алексе@@ 33
Вы@@ 33
Кон@@ 33
Москов@@ 33
Никола 33
Никола@@ 33
ды 33
ит@@ 33
ить 33
лю@@ 33
он 33
от@@ 33
ска@@ 33
ще 33
յ@@ 33
ֲ@@ 33
أحمد 33
الع@@ 33
مي@@ 33
ส 33
เ@@ 33
ུ 33
ྒ@@ 33
န@@ 33
ិ@@ 33
ូ@@ 33
ោ@@ 33
ḗ@@ 33
Ề 33
‍ 33
₩ 33
⅔ 33
で 33
び@@ 33
メ 33
丘 33
伽@@ 33
倉 33
儼 33
升 33
博 33
吾 33
团@@ 33
在 33
坤@@ 33
報 33
多 33
宁 33
小 33
嶺@@ 33
师 33
庙 33
彰@@ 33
後 33
怪@@ 33
拉 33
曹 33
服@@ 33
死 33
益 33
聽@@ 33
营@@ 33
藩@@ 33
處 33
蜀@@ 33
追@@ 33
遗@@ 33
际@@ 33
魚 33
내 33
두@@ 33
드 33
불@@ 33
혜@@ 33
Drit@@ 32
Gemein@@ 32
Krieg 32
Minnes@@ 32
Orden 32
Poliz@@ 32
Position 32
Refer@@ 32
Republik 32
ahlen 32
alisi@@ 32
américa 32
bilim@@ 32
charac@@ 32
companies 32
composition 32
contro@@ 32
droit 32
evu 32
gave 32
grub@@ 32
hija 32
ilik@@ 32
immedi@@ 32
kuw@@ 32
medical 32
obst@@ 32
occu@@ 32
opened 32
origine 32
outre 32
partment 32
proces@@ 32
raum 32
religion 32
selected 32
siri 32
tels 32
township 32
ución 32
umbe 32
wango 32
ôle 32
ţ 32
ο 32
Ал@@ 32
Ком@@ 32
Па@@ 32
Ту@@ 32
евна 32
те 32
хи@@ 32
Ө@@ 32
ئ@@ 32
ال@@ 32
الج@@ 32
ـ@@ 32
ن 32
न 32
ம@@ 32
ณ 32
ริ@@ 32
สม@@ 32
ທ@@ 32
ျ@@ 32
ွ@@ 32
Ừ 32
Å 32
が 32
ぎ@@ 32
む@@ 32
ネ 32
ュ 32
亚@@ 32
兼@@ 32
刀@@ 32
判@@ 32
勇 32
厚 32
奈@@ 32
媯@@ 32
寨@@ 32
就@@ 32
已@@ 32
引@@ 32
斡@@ 32
毘@@ 32
津 32
深 32
潭@@ 32
照 32
片@@ 32
畿@@ 32
監@@ 32
眾@@ 32
督@@ 32
级@@ 32
翁 32
耳 32
股@@ 32
芒@@ 32
营 32
街道 32
表@@ 32
襄 32
計@@ 32
豊@@ 32
資@@ 32
赋 32
軒 32
輔 32
遼@@ 32
雷 32
震 32
骨@@ 32
鱼@@ 32
黎 32
龐@@ 32
꫁ 32
관 32
반@@ 32
복@@ 32
승@@ 32
재@@ 32
피@@ 32
12. 31
Anf@@ 31
Bere@@ 31
Direk@@ 31
Más 31
Schule 31
aktion 31
alise 31
attemp@@ 31
azama 31
ağır@@ 31
cerc@@ 31
charg@@ 31
comer@@ 31
defe@@ 31
demi 31
drit@@ 31
déc@@ 31
ellik@@ 31
embre 31
endas 31
hadi 31
import@@ 31
invent@@ 31
kayn@@ 31
kili@@ 31
kundi 31
lég@@ 31
nde@@ 31
noted 31
posterior 31
prior 31
refu@@ 31
releas@@ 31
spons@@ 31
streng@@ 31
tioned 31
tivities 31
umlu 31
élec@@ 31
ürl@@ 31
üzel 31
Ţ@@ 31
̄ 31
Ρ@@ 31
ικ@@ 31
ού@@ 31
ρα@@ 31
το@@ 31
όν 31
Ј@@ 31
Александ@@ 31
Ви@@ 31
Михай@@ 31
Му@@ 31
Ново@@ 31
От@@ 31
России 31
Фё@@ 31
ата@@ 31
де 31
лов@@ 31
му 31
округ 31
рал 31
рус@@ 31
фе@@ 31
Қ@@ 31
ְ 31
ע 31
الب@@ 31
الم@@ 31
غ@@ 31
ی 31
ব@@ 31
ป 31
ษ 31
เก@@ 31
ไทย 31
ດ 31
ပ@@ 31
့ 31
დ@@ 31
េ@@ 31
ែ@@ 31
Ố 31
Ử@@ 31
― 31
つ 31
ぶ@@ 31
ぼ@@ 31
乙 31
九 31
佑@@ 31
充@@ 31
党 31
农@@ 31
午@@ 31
印 31
召@@ 31
喀@@ 31
土 31
垣 31
岐@@ 31
嶺 31
巴 31
幕@@ 31
幼@@ 31
庄 31
庫@@ 31
役 31
提 31
摩 31
改@@ 31
斌 31
早@@ 31
昆@@ 31
曾 31
朱 31
某@@ 31
柱 31
桐@@ 31
次 31
殊@@ 31
熊 31
特 31
狼@@ 31
球 31
祭@@ 31
竹 31
篇 31
綱 31
翼 31
考 31
耳@@ 31
臧 31
苑@@ 31
菜 31
萨@@ 31
褚@@ 31
见@@ 31
警@@ 31
赤 31
走@@ 31
連 31
酒 31
銅@@ 31
閣@@ 31
雀@@ 31
須@@ 31
黃 31
齡 31
궁@@ 31
내@@ 31
당 31
들 31
면 31
배@@ 31
생@@ 31
연 31
처@@ 31
파@@ 31
Chine 30
Mundial 30
Partei 30
Punk@@ 30
amı 30
archit@@ 30
artists 30
astron@@ 30
büyü@@ 30
communes 30
consider@@ 30
cump@@ 30
dair 30
designed 30
diplom@@ 30
ekler 30
encour@@ 30
featured 30
gericht 30
göz@@ 30
invas@@ 30
kauf@@ 30
keti 30
littér@@ 30
muş@@ 30
orado 30
particular 30
performed 30
sahi@@ 30
sich 30
sind 30
started 30
teren 30
tü 30
ucion@@ 30
umri 30
veya 30
wezi 30
Ù 30
ática 30
ätten 30
ıdır 30
ısı 30
ʹ 30
̌ 30
Θ 30
Φ 30
ια 30
І@@ 30
Би@@ 30
Чер@@ 30
ато@@ 30
года 30
дан@@ 30
жа@@ 30
из@@ 30
каз@@ 30
мер@@ 30
нов@@ 30
пера@@ 30
сло@@ 30
сте@@ 30
то 30
це 30
أ@@ 30
ا@@ 30
يد 30
া 30
นิ@@ 30
ผ@@ 30
พิ@@ 30
ฟ 30
สา@@ 30
ໄ@@ 30
လ@@ 30
ព@@ 30
K 30
∇ 30
あ 30
げ@@ 30
ォ@@ 30
ザ 30
ャ 30
ユ@@ 30
三十@@ 30
五 30
佐 30
充 30
党@@ 30
劇@@ 30
句 30
号 30
坊 30
塘@@ 30
寬@@ 30
屈@@ 30
岡@@ 30
庆 30
庭@@ 30
廉 30
性 30
悲@@ 30
意 30
憲 30
戀@@ 30
故事 30
有 30
朗@@ 30
期@@ 30
杰 30
桑@@ 30
樹 30
樹@@ 30
求@@ 30
油@@ 30
浦 30
浩@@ 30
然 30
皮@@ 30
盟 30
監 30
端 30
经 30
舊@@ 30
舍 30
船 30
茅@@ 30
蓝@@ 30
讓@@ 30
豐 30
贊@@ 30
遲@@ 30
鑲@@ 30
阜@@ 30
雁@@ 30
雍 30
靖 30
靜 30
韶@@ 30
馆 30
麟@@ 30
래 30
운@@ 30
창@@ 30
타@@ 30
회 30
Anadolu 29
Comme 29
Fener@@ 29
Following 29
Grenz@@ 29
Merkez@@ 29
Reino 29
abras 29
amua 29
attended 29
aî@@ 29
claim@@ 29
competi@@ 29
crisis 29
cual@@ 29
dedic@@ 29
envi@@ 29
estos 29
fico 29
gesellschaft 29
group@@ 29
historique 29
hours 29
huit 29
idades 29
initial 29
interpr@@ 29
interpre@@ 29
iteur 29
kiye 29
medio 29
mesi 29
nicht 29
numerous 29
organis@@ 29
particularly 29
portr@@ 29
railway 29
referred 29
rouge 29
réc@@ 29
shown 29
surround@@ 29
urch 29
verk@@ 29
çağ@@ 29
élém@@ 29
ď 29
ʕ@@ 29
Α 29
έρ@@ 29
λος 29
πλ@@ 29
Вол@@ 29
Государ@@ 29
Иван 29
Р 29
ать 29
бю@@ 29
же 29
кин 29
ково 29
ман 29
ном 29
ности 29
он@@ 29
рия 29
се 29
сти@@ 29
уча@@ 29
хан 29
إ@@ 29
ار 29
ச@@ 29
เพ@@ 29
ใ@@ 29
ຈ@@ 29
ှ@@ 29
ს 29
Ỳ 29
ὶ 29
↔ 29
ぃ@@ 29
え 29
ァ 29
东 29
仪@@ 29
倭@@ 29
僕@@ 29
刺@@ 29
变 29
呂 29
哈 29
圓 29
塞@@ 29
处@@ 29
奖 29
娥 29
尋@@ 29
尹 29
巡@@ 29
并@@ 29
幻@@ 29
庵 29
弟@@ 29
怡@@ 29
應 29
敦 29
旧@@ 29
昇 29
暘@@ 29
机@@ 29
枝@@ 29
楊 29
渭@@ 29
潮@@ 29
焦@@ 29
營@@ 29
爾 29
牙 29
猛@@ 29
磨@@ 29
礼@@ 29
禄 29
窦@@ 29
粉 29
線 29
若 29
荒@@ 29
衍@@ 29
诸@@ 29
运@@ 29
還@@ 29
霸@@ 29
领@@ 29
餘@@ 29
骨 29
금@@ 29
달@@ 29
모@@ 29
상 29
요@@ 29
청 29
희@@ 29
Grund 28
Sohn 28
Staat@@ 28
Wirtschafts@@ 28
adini 28
alış@@ 28
arlo 28
articles 28
atao 28
autre 28
cities 28
cultur@@ 28
dete 28
deutsch 28
eign@@ 28
ellschaft 28
familia 28
families 28
gez@@ 28
icios 28
invit@@ 28
itié 28
jimbo 28
kuna 28
kız@@ 28
laka 28
launched 28
marri@@ 28
metre 28
nying@@ 28
nö@@ 28
occup@@ 28
okea 28
oldu@@ 28
parents 28
parish 28
program@@ 28
punk@@ 28
quartier 28
required 28
trains 28
treat@@ 28
ulares 28
uzun@@ 28
wech@@ 28
wez@@ 28
whom 28
yesi 28
ymnasium 28
änger 28
ülk@@ 28
ɨ 28
άρ@@ 28
ί 28
ρά 28
Ва@@ 28
Николай 28
Пер@@ 28
вский 28
кова 28
мор@@ 28
мы 28
пол@@ 28
порт 28
раз@@ 28
ран@@ 28
ә@@ 28
Ա@@ 28
ا 28
لي@@ 28
क 28
ति 28
द 28
ম@@ 28
ณ@@ 28
สิ@@ 28
ཁ@@ 28
စ@@ 28
វ@@ 28
ា 28
ḷ@@ 28
Ặ@@ 28
Ờ 28
Ự@@ 28
ὄ@@ 28
★ 28
よ 28
个@@ 28
们@@ 28
偉@@ 28
儒 28
冀@@ 28
務 28
医@@ 28
只@@ 28
吐@@ 28
哥 28
單@@ 28
団 28
壬@@ 28
壯@@ 28
婦@@ 28
孝 28
屋 28
庚 28
庚@@ 28
庾@@ 28
強 28
強@@ 28
待@@ 28
快@@ 28
息@@ 28
慈 28
慧 28
托@@ 28
扬@@ 28
折@@ 28
拳@@ 28
振 28
撃@@ 28
攻@@ 28
旅@@ 28
查@@ 28
桑 28
榜 28
横@@ 28
橘@@ 28
殷 28
猫@@ 28
獄 28
瓦@@ 28
短@@ 28
祝@@ 28
祺 28
突@@ 28
简@@ 28
級@@ 28
罕 28
联@@ 28
落 28
蛇@@ 28
規 28
識@@ 28
讓 28
谱 28
象 28
豪@@ 28
辰 28
辰@@ 28
辽@@ 28
银@@ 28
陳 28
雜@@ 28
韓 28
鹿 28
鼎 28
鼎@@ 28
강 28
관@@ 28
방 28
빈 28
석 28
에 28
치@@ 28
Aleks@@ 27
Aus 27
Dorf@@ 27
Eine 27
Kif@@ 27
Män@@ 27
Rais 27
Verein 27
actual 27
beledi@@ 27
benef@@ 27
cerca 27
ciales 27
completed 27
conom@@ 27
destin@@ 27
dispos@@ 27
día 27
endant 27
femmes 27
grandes 27
hakk@@ 27
houses 27
ió 27
lege 27
leti 27
okana 27
rait 27
regional 27
regres@@ 27
relationship 27
represented 27
respectiv@@ 27
rural 27
schreib@@ 27
tische 27
tourn@@ 27
tér@@ 27
voz 27
weng@@ 27
wiesen 27
worked 27
yao 27
yük@@ 27
zile 27
ätz@@ 27
étude 27
ñ 27
ünlü 27
Ə@@ 27
ǀ@@ 27
ɯ@@ 27
ʷ@@ 27
˧ 27
̉ 27
Γ@@ 27
άν@@ 27
Василь@@ 27
Кре@@ 27
Михаил 27
Сем@@ 27
Серге@@ 27
Ху@@ 27
ви 27
войск 27
государствен@@ 27
дия 27
доро@@ 27
ем 27
ж 27
ите@@ 27
лин@@ 27
мы@@ 27
сси@@ 27
ёт 27
ւ@@ 27
ש 27
علي 27
ور 27
پ@@ 27
ন@@ 27
ু@@ 27
ธ@@ 27
ื 27
ປ@@ 27
គ@@ 27
Ữ@@ 27
Ἰ@@ 27
₂ 27
⇒ 27
└ 27
ゼ@@ 27
ビ 27
中心 27
乐 27
佑 27
冒@@ 27
刑@@ 27
助 27
坪@@ 27
客 27
審@@ 27
屠@@ 27
己@@ 27
弦@@ 27
徹 27
恆@@ 27
恪 27
惇@@ 27
戊@@ 27
显@@ 27
曇@@ 27
期 27
极@@ 27
柳 27
楽 27
檀@@ 27
淳 27
淵@@ 27
湾 27
爽 27
番@@ 27
登 27
發@@ 27
祚 27
禁@@ 27
積@@ 27
純 27
翟@@ 27
耿@@ 27
肇@@ 27
舉 27
芝@@ 27
萬 27
藝@@ 27
行政@@ 27
要 27
賦 27
贾@@ 27
赣@@ 27
軌 27
达 27
迦@@ 27
逸@@ 27
遂@@ 27
鏡 27
難 27
零@@ 27
霞@@ 27
霸 27
马 27
鳴@@ 27
날 27
만 27
Auch 26
Büyük 26
Chama 26
Futbol 26
Jahr@@ 26
Maji 26
Militär@@ 26
Studium 26
administrative 26
ajou@@ 26
alish@@ 26
ateurs 26
circons@@ 26
cité 26
command@@ 26
comment@@ 26
confl@@ 26
conflic@@ 26
contribu@@ 26
corri@@ 26
criv@@ 26
decre@@ 26
dön@@ 26
ecken 26
eshim@@ 26
founded 26
huwa 26
hâ@@ 26
ieren 26
individu@@ 26
industrie 26
inspir@@ 26
kesi 26
kunde 26
mayo 26
mente 26
mji 26
otros 26
plans 26
premier 26
prepar@@ 26
preser@@ 26
promotion 26
puis@@ 26
queda 26
remains 26
satis@@ 26
specif@@ 26
stated 26
suppl@@ 26
trouv@@ 26
tü@@ 26
utili@@ 26
victory 26
winning 26
xième 26
zahl@@ 26
épo@@ 26
öß@@ 26
ų 26
ʒ 26
ακ@@ 26
ρί@@ 26
ρα 26
όν@@ 26
Василий 26
Га@@ 26
Хо@@ 26
Щ@@ 26
вет 26
дар 26
до 26
как 26
лет 26
ром 26
сол@@ 26
сса@@ 26
стан 26
ства 26
ственный 26
университет 26
ща@@ 26
њ@@ 26
ғ@@ 26
տ@@ 26
اس@@ 26
ب 26
ते 26
म 26
। 26
র 26
ি@@ 26
ข 26
ประ@@ 26
อ 26
ิ@@ 26
เข@@ 26
အ@@ 26
យ@@ 26
ី 26
ẓ@@ 26
Ἐ@@ 26
█ 26
ぬ@@ 26
め 26
ェ 26
ガ 26
休 26
假@@ 26
偉 26
兄@@ 26
内 26
冯@@ 26
切 26
剌@@ 26
剛 26
历@@ 26
堅 26
墨@@ 26
專@@ 26
屯@@ 26
崎@@ 26
彩 26
彪 26
忍@@ 26
恆 26
恒@@ 26
承 26
播@@ 26
暗@@ 26
杞@@ 26
栗@@ 26
梦@@ 26
楼 26
油 26
洛 26
爲@@ 26
獻 26
珪 26
現@@ 26
瑾 26
略@@ 26
祿 26
禿@@ 26
秦 26
種@@ 26
童 26
結@@ 26
総@@ 26
纯@@ 26
羊 26
羋@@ 26
耀@@ 26
聚@@ 26
著@@ 26
蜜@@ 26
覺 26
语@@ 26
質 26
贊 26
走 26
趙 26
阮 26
霜 26
顺 26
食 26
魯 26
ꪙ 26
문 26
북@@ 26
오 26
임@@ 26
있@@ 26
차 26
충@@ 26
효@@ 26
️ 26
14. 25
ABD 25
Auf 25
Ces 25
Dans 25
Durch@@ 25
Gegen@@ 25
Urugu@@ 25
Verkehr@@ 25
acto 25
adapt@@ 25
additional 25
affa@@ 25
alismus 25
aliza 25
amini 25
army 25
assistant 25
consult@@ 25
dient 25
eneo 25
entre@@ 25
forced 25
forsch@@ 25
franç@@ 25
fü@@ 25
izin 25
krieg@@ 25
meyi 25
mise 25
ohne 25
ouvr@@ 25
produce 25
programs 25
provide 25
purch@@ 25
rapid@@ 25
ratic 25
recher@@ 25
refer 25
renov@@ 25
starting 25
successful 25
tival 25
trib@@ 25
wana@@ 25
ähn@@ 25
était 25
êtes 25
Œ@@ 25
Ŭ@@ 25
ɜ@@ 25
Υ 25
ικός 25
τί@@ 25
τρ@@ 25
Александр 25
Бело@@ 25
Влади@@ 25
Гри@@ 25
Е 25
Л 25
Лу@@ 25
Север@@ 25
Ф 25
ав@@ 25
ды@@ 25
йская 25
ке@@ 25
нин 25
рав@@ 25
ря@@ 25
тов 25
чения 25
чи 25
чу@@ 25
ի 25
վ@@ 25
ו 25
ח 25
اب@@ 25
الس@@ 25
ان@@ 25
رة 25
شا@@ 25
क@@ 25
ङ 25
वा@@ 25
स@@ 25
พร@@ 25
หน@@ 25
หม@@ 25
เด 25
ให@@ 25
ດ@@ 25
ຣ@@ 25
ວ 25
អ@@ 25
Ṭ@@ 25
ắ 25
∧ 25
ぐ@@ 25
两@@ 25
了 25
佘 25
兆@@ 25
兴 25
初 25
动@@ 25
占@@ 25
厂 25
哥@@ 25
团 25
坂 25
复@@ 25
夕@@ 25
外 25
夜 25
奥 25
嬴@@ 25
守 25
帥 25
报 25
探@@ 25
攝@@ 25
斛@@ 25
日本 25
柔 25
柱@@ 25
梨@@ 25
極 25
湾@@ 25
澄@@ 25
犬@@ 25
瓊@@ 25
申 25
界@@ 25
県 25
碩 25
禪 25
第二@@ 25
策 25
肇 25
胤 25
膺@@ 25
臺 25
萧@@ 25
術@@ 25
表 25
裁 25
補@@ 25
調@@ 25
護 25
诗 25
賀 25
辯 25
边@@ 25
運 25
邓@@ 25
鄴@@ 25
銃 25
钱@@ 25
陶 25
震@@ 25
類@@ 25
顧@@ 25
首 25
鸡@@ 25
간@@ 25
경 25
단 25
를 25
봉 25
야@@ 25
와 25
월 25
13. 24
Bei 24
Cuando 24
Irel@@ 24
Jahre 24
Ses 24
Yaş@@ 24
alista 24
antigu@@ 24
architec@@ 24
arron@@ 24
breit@@ 24
carte 24
censo 24
conclu@@ 24
couple 24
echos 24
ehen 24
einem 24
endis@@ 24
enfants 24
entw@@ 24
etler 24
fallen 24
génér@@ 24
haa 24
himself 24
hör@@ 24
internation@@ 24
jours 24
leaving 24
lido 24
linal@@ 24
modern@@ 24
newspap@@ 24
nje 24
oyun 24
ported 24
positions 24
primer 24
raised 24
reached 24
remain@@ 24
rün@@ 24
schwer@@ 24
sede 24
significa 24
solic@@ 24
stelle 24
stellung 24
techniques 24
tiene 24
uwe@@ 24
versch@@ 24
yine 24
ätte 24
étés 24
Ő@@ 24
œuvre 24
ɾ 24
ʹ@@ 24
κος 24
πι@@ 24
τερ@@ 24
τω@@ 24
όβ@@ 24
Восто@@ 24
Народ@@ 24
Пав@@ 24
бы@@ 24
град 24
зна@@ 24
итель 24
кра@@ 24
ктор@@ 24
лё@@ 24
мо 24
ники 24
нова 24
од@@ 24
ре 24
ск@@ 24
ско 24
слав 24
строе@@ 24
ф 24
ча 24
љ@@ 24
ׂ@@ 24
ات 24
ج 24
حسن 24
ند@@ 24
ول@@ 24
يل 24
ک@@ 24
ना@@ 24
़ 24
ল@@ 24
ตา@@ 24
ติ@@ 24
บาง@@ 24
บุรี 24
มหา@@ 24
วา@@ 24
ิ 24
ิน@@ 24
ប 24
៉ 24
ṓ@@ 24
ṯ@@ 24
ặ 24
Ọ 24
ἰ@@ 24
∂ 24
♠ 24
び 24
へ@@ 24
ゾ@@ 24
ニ 24
丈@@ 24
从@@ 24
伝 24
别@@ 24
勉 24
匿@@ 24
卷@@ 24
吳 24
商 24
啟@@ 24
嚴 24
场 24
增@@ 24
姐 24
委员会 24
學校 24
寿 24
巖 24
序 24
店 24
廉@@ 24
彩@@ 24
忘@@ 24
恋 24
悟@@ 24
拜@@ 24
札@@ 24
术@@ 24
条 24
楼@@ 24
欽 24
歐@@ 24
渡 24
炎 24
版 24
琪 24
環 24
環@@ 24
病@@ 24
盤@@ 24
祜@@ 24
稽 24
約@@ 24
聞 24
舞 24
艺@@ 24
苍@@ 24
虞 24
解 24
詞 24
贤@@ 24
輿@@ 24
车@@ 24
远 24
述@@ 24
退@@ 24
逢@@ 24
逸 24
郝@@ 24
醉@@ 24
錫 24
阴@@ 24
隱 24
韶 24
頃@@ 24
鳥 24
鶴 24
麽@@ 24
鼓@@ 24
齋@@ 24
건 24
루 24
소 24
실@@ 24
양 24
하 24
헌@@ 24
환@@ 24
회@@ 24
Arap 23
Architek@@ 23
Demokrati@@ 23
Esta 23
Italien 23
Jugend@@ 23
Mit 23
Osmanlı 23
Venedi@@ 23
acquired 23
affaires 23
ajes 23
armes 23
atoire 23
avoir 23
buni 23
classe 23
deutschen 23
diğ@@ 23
ecek 23
emein@@ 23
entered 23
fäl@@ 23
genre 23
geschichte 23
insan 23
involved 23
kamen 23
kila 23
mama 23
ministr@@ 23
orta@@ 23
parte 23
pays 23
popular@@ 23
practic@@ 23
privil@@ 23
pér@@ 23
quant 23
recht@@ 23
semb@@ 23
souri 23
sır@@ 23
tä@@ 23
undan 23
viel@@ 23
woh@@ 23
yarat@@ 23
ßer@@ 23
äß@@ 23
èmes 23
üs 23
üçük 23
Ĩ 23
ɴ 23
̩ 23
Β 23
Η@@ 23
κλ@@ 23
λι@@ 23
να@@ 23
οφ@@ 23
υ 23
Владимир 23
Жи@@ 23
Кра@@ 23
Ча@@ 23
бе 23
вен@@ 23
гар@@ 23
генерал 23
жен@@ 23
имени 23
клю@@ 23
нь 23
род@@ 23
рон@@ 23
ствен@@ 23
стро@@ 23
стру@@ 23
тя@@ 23
фи@@ 23
ции 23
ַ 23
ار@@ 23
ث@@ 23
ري@@ 23
مر@@ 23
ية 23
ে@@ 23
ங 23
வ@@ 23
ทร@@ 23
บุ@@ 23
ีย@@ 23
ุ@@ 23
ไท@@ 23
ီ@@ 23
ច@@ 23
Ỏ 23
Ỏ@@ 23
ῥ@@ 23
₱ 23
↓ 23
々@@ 23
ざ@@ 23
ず 23
や 23
ろ 23
ㅇ 23
ㅡ@@ 23
丞 23
中华人民@@ 23
乘 23
亮@@ 23
仰@@ 23
伍@@ 23
伟@@ 23
体 23
俗@@ 23
俞@@ 23
傅 23
冰@@ 23
冲@@ 23
剣@@ 23
勃@@ 23
勢@@ 23
向 23
吹@@ 23
喬 23
器@@ 23
址 23
均 23
報@@ 23
塘 23
壁@@ 23
奉 23
奥@@ 23
妻 23
姑 23
宪@@ 23
屏@@ 23
岭@@ 23
岸@@ 23
帖@@ 23
庭 23
廖@@ 23
張 23
形 23
影 23
按@@ 23
斯 23
旨 23
旺@@ 23
昊 23
晟 23
曼 23
桐 23
歲@@ 23
滑@@ 23
滨@@ 23
牟@@ 23
牧@@ 23
璠 23
画@@ 23
留 23
畢@@ 23
異 23
筆@@ 23
算@@ 23
絶@@ 23
緣@@ 23
继@@ 23
舟@@ 23
荣 23
藥@@ 23
虛@@ 23
蠻 23
視@@ 23
譚 23
诺@@ 23
遂 23
錫@@ 23
魏 23
黄 23
ꪱ 23
등@@ 23
디@@ 23
무 23
별@@ 23
열@@ 23
유 23
채@@ 23
15. 22
Así 22
Bürger@@ 22
III. 22
Qualif@@ 22
Servic@@ 22
activities 22
adır 22
alre@@ 22
anlık 22
autour 22
ciné@@ 22
compil@@ 22
comun@@ 22
continue 22
coup 22
cré@@ 22
dalg@@ 22
démoc@@ 22
edern 22
edrich 22
existence 22
fue 22
gran 22
historia 22
imeh@@ 22
itions 22
laş@@ 22
lichkeit 22
ließ 22
lise 22
llam@@ 22
lte 22
mitt@@ 22
mujer 22
osos 22
pequ@@ 22
pili 22
plaza 22
politique 22
proven@@ 22
provoc@@ 22
raison 22
respons@@ 22
succes@@ 22
supported 22
tano 22
unza 22
vain@@ 22
veh@@ 22
wany@@ 22
wär@@ 22
yağ@@ 22
yoy@@ 22
zeich@@ 22
zeng@@ 22
Ã@@ 22
änd@@ 22
änge 22
évision 22
île 22
öne 22
şir@@ 22
̥ 22
Γ 22
Ζ@@ 22
Π 22
έλ@@ 22
ερ@@ 22
εύ@@ 22
θε@@ 22
μος 22
οπ@@ 22
ου@@ 22
οχ@@ 22
σκ@@ 22
τα 22
Вен@@ 22
Иванович 22
Соци@@ 22
ак@@ 22
ау@@ 22
ван@@ 22
вы 22
ган@@ 22
гра@@ 22
ис@@ 22
йский 22
лек@@ 22
народ@@ 22
нови@@ 22
пер@@ 22
рии 22
ры 22
ских 22
фо@@ 22
че 22
чен@@ 22
чка 22
կ@@ 22
السلام 22
الن@@ 22
بي@@ 22
ل 22
مو@@ 22
چ@@ 22
ह@@ 22
ন 22
ன 22
ชา@@ 22
ทร 22
มา@@ 22
รัก 22
ลำ@@ 22
ษ@@ 22
อุ@@ 22
เว@@ 22
ຂ@@ 22
າ 22
ག 22
བ 22
ქ@@ 22
រ 22
ល 22
ី@@ 22
ṭ 22
※ 22
♪ 22
ゃ 22
を 22
ゥ 22
サ 22
专@@ 22
于 22
住 22
何 22
佩@@ 22
個@@ 22
偃 22
儒@@ 22
加 22
勐@@ 22
升@@ 22
卓 22
参 22
启@@ 22
員 22
唱@@ 22
國民@@ 22
塞 22
墓 22
女子 22
婕@@ 22
学校 22
寅 22
寬 22
尙@@ 22
履@@ 22
岩 22
嵩 22
帥@@ 22
幹 22
座 22
庵@@ 22
庸 22
得 22
御 22
悟 22
想 22
抚@@ 22
护@@ 22
播 22
救@@ 22
昇@@ 22
易 22
晋 22
晓@@ 22
普 22
暴@@ 22
杂@@ 22
杉@@ 22
杭@@ 22
柯@@ 22
桂 22
梵@@ 22
楷 22
様 22
欢@@ 22
歷@@ 22
歸 22
汉 22
淸@@ 22
為 22
版@@ 22
狂@@ 22
狄@@ 22
瑛 22
畫 22
碑 22
祁@@ 22
禧 22
稱 22
站 22
織@@ 22
约 22
结@@ 22
聯@@ 22
聲 22
胜@@ 22
舒 22
薄@@ 22
藩 22
装@@ 22
裏@@ 22
詠@@ 22
變@@ 22
質@@ 22
贺@@ 22
農 22
鄭 22
釋@@ 22
鉄@@ 22
鐘@@ 22
降@@ 22
雞@@ 22
項@@ 22
领 22
鮑@@ 22
鮮 22
鳳 22
간 22
니 22
단@@ 22
데@@ 22
말 22
목@@ 22
보 22
속@@ 22
애@@ 22
월@@ 22
준 22
통@@ 22
💰 22
Bahnhof 21
Belgique 21
Japon 21
Kloster 21
Leist@@ 21
Première 21
Situation 21
Zür@@ 21
adiri 21
allem 21
alten 21
angaz@@ 21
année 21
après 21
arriv@@ 21
buildings 21
classes 21
decided 21
descend@@ 21
dific@@ 21
doctor@@ 21
dungs@@ 21
dür@@ 21
einz@@ 21
emple@@ 21
enek@@ 21
essee 21
evangel@@ 21
frei@@ 21
gestion 21
iben 21
ieved 21
influence 21
isé 21
kräf@@ 21
mch@@ 21
menos 21
minin 21
modo 21
monum@@ 21
munici@@ 21
nern 21
nord 21
ología 21
pein@@ 21
quatre 21
rä@@ 21
schafts@@ 21
schools 21
setz@@ 21
spéci@@ 21
subsequently 21
symb@@ 21
temple 21
tête 21
uncu 21
unidad 21
werk@@ 21
wissen@@ 21
zuri 21
États 21
écol@@ 21
économ@@ 21
öner@@ 21
ĝ@@ 21
ĭ 21
ĭ@@ 21
œ 21
ǫ@@ 21
ʋ@@ 21
ʲ 21
ˤ@@ 21
̱ 21
Θε@@ 21
αί@@ 21
αι@@ 21
αλ@@ 21
ες 21
θη@@ 21
λα@@ 21
ς@@ 21
χος 21
Бер@@ 21
Борис 21
Къ@@ 21
Лю@@ 21
Пи@@ 21
али@@ 21
воз@@ 21
вы@@ 21
ева 21
им 21
коми@@ 21
нам 21
прав@@ 21
публи@@ 21
ста 21
ье 21
эро@@ 21
ֹ 21
آ@@ 21
حي@@ 21
ذ@@ 21
لل@@ 21
अ@@ 21
ல@@ 21
ி 21
್ 21
് 21
ර@@ 21
เด@@ 21
ခ@@ 21
გ@@ 21
ἔ@@ 21
さ 21
ダ 21
ハ 21
モ 21
且@@ 21
世界 21
伐 21
似@@ 21
依 21
允 21
兆 21
兗@@ 21
兰 21
冰 21
千 21
午 21
叡 21
啟 21
器 21
團 21
垣@@ 21
境@@ 21
夢 21
奴@@ 21
奶@@ 21
妖@@ 21
妹 21
屯 21
岡 21
岱 21
崎 21
巖@@ 21
弓@@ 21
弥@@ 21
律 21
徒 21
怪 21
断@@ 21
更@@ 21
朕@@ 21
案@@ 21
條@@ 21
槍 21
機場 21
歡@@ 21
歲 21
段 21
気@@ 21
汾@@ 21
沖 21
洵 21
瀬@@ 21
炳@@ 21
狄 21
獅@@ 21
琮 21
瑜 21
瑜@@ 21
瑶@@ 21
瓊 21
电视@@ 21
疆@@ 21
瞿@@ 21
竜@@ 21
符 21
絵 21
綠@@ 21
羌 21
群 21
羲 21
育 21
节@@ 21
芝 21
苦@@ 21
蓋@@ 21
蓮 21
號@@ 21
衍 21
調 21
證@@ 21
識 21
議 21
讀@@ 21
调@@ 21
載 21
辉 21
辣@@ 21
进@@ 21
逆@@ 21
遇 21
運動 21
過 21
錢 21
閱@@ 21
隨@@ 21
雞 21
露 21
顾@@ 21
飛 21
駒 21
駱@@ 21
군@@ 21
래@@ 21
미 21
버@@ 21
손@@ 21
여 21
초@@ 21
터@@ 21
프@@ 21
＼ 21
Congreso 20
Dokum@@ 20
Dola 20
Ereb@@ 20
Festiv@@ 20
Gruppe 20
Mississi@@ 20
Rück@@ 20
Situ@@ 20
Stelle 20
akati 20
anglais 20
anterior 20
auteur 20
baji 20
biri 20
böl@@ 20
debut@@ 20
diği 20
déjà 20
employ@@ 20
erschi@@ 20
gleich@@ 20
ités 20
keş@@ 20
klär@@ 20
kte 20
kı@@ 20
limpi@@ 20
malar@@ 20
mış 20
ordnung 20
provincia 20
restaur@@ 20
retired 20
ruh@@ 20
río 20
steh@@ 20
success@@ 20
thode 20
ustos 20
uğu 20
vue 20
yıld@@ 20
zeit@@ 20
üy@@ 20
Ġ@@ 20
Ī@@ 20
Ń@@ 20
ɡ 20
ɲ 20
ʿ 20
ον@@ 20
πο@@ 20
ρον 20
του 20
υπ@@ 20
На 20
Сол@@ 20
Фе@@ 20
Х 20
Ша@@ 20
бал@@ 20
бъ@@ 20
вец 20
вод@@ 20
гол 20
ду 20
ево 20
из 20
или 20
кови@@ 20
ком@@ 20
лен@@ 20
лин 20
ников 20
область 20
она@@ 20
пере@@ 20
поэ@@ 20
сп@@ 20
спо@@ 20
ческий 20
ך 20
ק 20
الش@@ 20
خالد 20
لي 20
نا 20
ल@@ 20
श 20
ক@@ 20
ம 20
ய@@ 20
ා@@ 20
ි@@ 20
ු@@ 20
กา@@ 20
ตร@@ 20
ระ@@ 20
ลง@@ 20
หล@@ 20
ัน@@ 20
าน 20
ึ 20
ຄ@@ 20
ົ 20
ဆ@@ 20
Ẓ@@ 20
∅ 20
∪ 20
├ 20
△ 20
ぞ@@ 20
ケ 20
七 20
予@@ 20
佳 20
倍@@ 20
偏@@ 20
像@@ 20
冊@@ 20
写@@ 20
冠 20
协@@ 20
危@@ 20
坤 20
堅@@ 20
堪 20
奈 20
娥@@ 20
婆 20
实@@ 20
対@@ 20
局@@ 20
峨@@ 20
巻@@ 20
席@@ 20
廷 20
從 20
循 20
怒@@ 20
戒@@ 20
戲@@ 20
撒@@ 20
敖 20
數@@ 20
昶 20
晏 20
曜@@ 20
曼@@ 20
朔@@ 20
树@@ 20
榆@@ 20
歡 20
止 20
潜@@ 20
燈@@ 20
璘 20
百 20
睦@@ 20
祭 20
禄@@ 20
程 20
穎 20
籍 20
糖@@ 20
系 20
素 20
組 20
级 20
罗 20
肉 20
肥@@ 20
艾@@ 20
芙@@ 20
荷@@ 20
莲@@ 20
菜@@ 20
蔵 20
融@@ 20
裔 20
製@@ 20
誨 20
諒 20
軽@@ 20
辛 20
造 20
遷 20
邢@@ 20
鄉 20
闘@@ 20
陰 20
韜 20
頌 20
額@@ 20
願@@ 20
风 20
魔 20
님 20
러@@ 20
마 20
말@@ 20
석@@ 20
육@@ 20
좋@@ 20
추@@ 20
카@@ 20
학 20
17. 19
Ejército 19
Frauen 19
Yüz@@ 19
alte 19
amente 19
bases 19
cargo 19
collaboration 19
compet@@ 19
crec@@ 19
dedi@@ 19
déj@@ 19
ellos 19
ematik 19
empre 19
eure 19
exclus@@ 19
financial 19
fiz@@ 19
fte 19
ganda 19
idari 19
independ@@ 19
initially 19
interpret@@ 19
jeux 19
lange 19
länd@@ 19
majority 19
manifest@@ 19
maî@@ 19
moderne 19
mée 19
nuevo 19
oblig@@ 19
ológ@@ 19
ovu 19
partement 19
parti 19
reempl@@ 19
régi@@ 19
schloss 19
sü@@ 19
tained 19
tierra 19
ularly 19
ungwa 19
utiliz@@ 19
wenda 19
wilaya 19
zentrum 19
äre 19
äu@@ 19
ıf 19
άς 19
ατ@@ 19
κύ@@ 19
λογία 19
ογ@@ 19
τι@@ 19
Дмит@@ 19
Ин@@ 19
Кур@@ 19
Ленин@@ 19
Сергей 19
Сти@@ 19
Сто@@ 19
бир@@ 19
бра@@ 19
вна 19
ган 19
дан 19
лан@@ 19
лина 19
миро@@ 19
нем@@ 19
нина 19
река 19
рь 19
сан@@ 19
тов@@ 19
тре@@ 19
хан@@ 19
ход@@ 19
хот@@ 19
чный 19
чь 19
ђ@@ 19
ս@@ 19
الق@@ 19
بر@@ 19
ت 19
مان 19
مح@@ 19
وب@@ 19
ون 19
ः 19
व@@ 19
वा 19
ลิ@@ 19
อก@@ 19
อย 19
๊ 19
က 19
ူ@@ 19
ფ@@ 19
ხ@@ 19
ង@@ 19
ំ 19
ẩ 19
Ỉ@@ 19
ギ 19
ョ 19
乾 19
份@@ 19
伝@@ 19
便@@ 19
俠@@ 19
偵@@ 19
入 19
凝@@ 19
出 19
创@@ 19
剑@@ 19
剧 19
劇 19
勿@@ 19
卦 19
参@@ 19
呼 19
咸 19
品 19
坝 19
城市 19
堯@@ 19
奎 19
奏@@ 19
婁@@ 19
婦 19
宋 19
宜 19
実@@ 19
宪 19
宰 19
宰@@ 19
展@@ 19
岑@@ 19
峻 19
嵩@@ 19
嶼 19
左 19
差@@ 19
希 19
帛@@ 19
広@@ 19
廟@@ 19
彝 19
往@@ 19
復 19
懋@@ 19
操 19
敢@@ 19
料@@ 19
施 19
染@@ 19
條 19
棠 19
楨 19
欲@@ 19
止@@ 19
毗@@ 19
毛 19
氣@@ 19
沛@@ 19
注 19
灘 19
焼@@ 19
爭@@ 19
爱 19
牒@@ 19
璽 19
监@@ 19
眞@@ 19
眼 19
砲 19
离@@ 19
称@@ 19
稽@@ 19
粉@@ 19
系@@ 19
緒 19
翎 19
肉@@ 19
與 19
航空 19
芸@@ 19
虔 19
街@@ 19
訓@@ 19
說 19
誰@@ 19
諒@@ 19
謀@@ 19
貢@@ 19
費@@ 19
质@@ 19
还@@ 19
述 19
遵@@ 19
酉@@ 19
醫@@ 19
量@@ 19
釐@@ 19
铜@@ 19
開 19
閭@@ 19
隋@@ 19
階 19
離 19
霜@@ 19
靑@@ 19
餘 19
鹤@@ 19
麦@@ 19
麻 19
鼓 19
龜@@ 19
네@@ 19
백 19
운 19
춘@@ 19
허@@ 19
／ 19
21. 18
Amerik@@ 18
Asoci@@ 18
Ciud@@ 18
Früh@@ 18
Fußball@@ 18
Gemeinde 18
Höhe 18
Pennsyl@@ 18
Proz@@ 18
Sie 18
Sovi@@ 18
Spiel 18
Verk@@ 18
ahidi 18
aldı 18
babu 18
becoming 18
believed 18
carre@@ 18
causa 18
cette 18
comman@@ 18
comme 18
compens@@ 18
critique 18
cuar@@ 18
culo 18
daha 18
deven@@ 18
diagn@@ 18
diez 18
donne 18
départem@@ 18
dü 18
elabor@@ 18
elten 18
emaji 18
emble 18
entras 18
federal 18
fut 18
fédér@@ 18
grund@@ 18
gén@@ 18
helped 18
hiki 18
iente 18
income 18
intent@@ 18
introduc@@ 18
italiano 18
kazi 18
kendi 18
kıy@@ 18
mü@@ 18
nden 18
oeste 18
operated 18
partie 18
polici@@ 18
prison@@ 18
provincial 18
religious 18
seph 18
sión 18
spent 18
sport@@ 18
tanto 18
taus@@ 18
tiem@@ 18
ttem@@ 18
ufen 18
veaux 18
wahr@@ 18
weeks 18
wirt@@ 18
¤ 18
µ 18
Ì 18
änder@@ 18
ätze 18
ût 18
þ 18
Ĩ@@ 18
ıld@@ 18
ű 18
ά 18
άκ@@ 18
ίγ@@ 18
ην@@ 18
λιος 18
με@@ 18
ρά@@ 18
ών 18
Аб@@ 18
Вла@@ 18
Ди@@ 18
Ев@@ 18
Ива@@ 18
Ир@@ 18
Кара@@ 18
Кор@@ 18
Красно@@ 18
Н 18
Не 18
Само@@ 18
Свя@@ 18
Эр@@ 18
ад@@ 18
бо 18
вин@@ 18
вол@@ 18
город 18
ден@@ 18
для 18
дра@@ 18
зар@@ 18
институт 18
кон@@ 18
лия 18
мат@@ 18
образ@@ 18
оло@@ 18
пор@@ 18
тор@@ 18
хи 18
ъ@@ 18
є@@ 18
اد 18
است@@ 18
اني 18
ستان 18
ش 18
عبد@@ 18
ك 18
مث@@ 18
مطار 18
ير 18
ْ@@ 18
ی@@ 18
ܐ 18
निर 18
मे@@ 18
व 18
सं@@ 18
सत 18
सु@@ 18
ட@@ 18
ක@@ 18
ම@@ 18
กระ@@ 18
จ 18
ภ@@ 18
มี@@ 18
เมือง@@ 18
ມ 18
ີ@@ 18
ູ@@ 18
ຽ@@ 18
ტ@@ 18
ះ@@ 18
ṛ 18
だ 18
も 18
业 18
侃 18
俠 18
公路 18
創@@ 18
卡@@ 18
卢@@ 18
及 18
坊@@ 18
奧@@ 18
娄@@ 18
孚 18
寇@@ 18
岐 18
巢@@ 18
巾@@ 18
库@@ 18
弼@@ 18
彦 18
彬 18
循@@ 18
微 18
念 18
恵@@ 18
戶@@ 18
推@@ 18
揚 18
旺 18
昱 18
板@@ 18
樞 18
檢@@ 18
欧@@ 18
求 18
沉@@ 18
沐@@ 18
湯 18
湯@@ 18
演 18
灣 18
炎@@ 18
炮 18
爆@@ 18
爪 18
牡@@ 18
犀@@ 18
狼 18
玛@@ 18
环@@ 18
琅@@ 18
琦 18
由 18
番 18
病 18
盖@@ 18
矩 18
示@@ 18
禁 18
穿@@ 18
竜 18
筠 18
範@@ 18
精 18
維 18
统@@ 18
習 18
腾@@ 18
苑 18
蕃 18
虚@@ 18
虹@@ 18
訶@@ 18
話@@ 18
談 18
請@@ 18
论 18
说@@ 18
豆 18
豪 18
运动 18
迪@@ 18
配@@ 18
采@@ 18
銀 18
鐸 18
铁路 18
锡@@ 18
阪@@ 18
隴@@ 18
雒@@ 18
露@@ 18
靈 18
颜 18
麵 18
齐 18
ꪉ 18
계 18
권 18
남 18
녀 18
당@@ 18
럼 18
명 18
빈@@ 18
식 18
씨@@ 18
점 18
토@@ 18
포@@ 18
향@@ 18
형 18
후@@ 18
Despite 17
Dorf 17
Juni 17
Kirche 17
Müs@@ 17
Unidos 17
Unternehmen 17
açık 17
cedes 17
cierto 17
clás@@ 17
comuna 17
conseil 17
denomin@@ 17
dico 17
durch 17
déf@@ 17
ennent 17
erse 17
erung 17
estat@@ 17
eventually 17
exerc@@ 17
fines 17
flü@@ 17
frica 17
ganz@@ 17
gelen 17
getr@@ 17
gique 17
hommes 17
ifs 17
importance 17
issement 17
istique 17
keit 17
lauf@@ 17
leitung 17
lieutenant 17
linie 17
linois 17
madre 17
manı 17
marca 17
maç 17
mejor 17
menor 17
mittel@@ 17
miş 17
muer@@ 17
même 17
nouvelle 17
obispo 17
ordu 17
oyuncu 17
pande 17
passé 17
première 17
publique 17
reven@@ 17
selves 17
sept 17
serving 17
sitz 17
stations 17
taki 17
tete 17
transform@@ 17
trä@@ 17
très 17
unzi 17
valor 17
vér@@ 17
yake 17
zones 17
Õ@@ 17
ämp@@ 17
ètre 17
écn@@ 17
évêque 17
Ď@@ 17
Ē@@ 17
İş@@ 17
œuvres 17
ɣ 17
ɦ@@ 17
ʤ@@ 17
ʾ 17
̂ 17
ασ@@ 17
ιν@@ 17
ιος 17
και 17
λόγ@@ 17
οδ@@ 17
ολ@@ 17
ομ@@ 17
σπ@@ 17
τός 17
ως 17
Ад@@ 17
Доб@@ 17
Из@@ 17
Иль@@ 17
Кав@@ 17
Кар@@ 17
Кри@@ 17
Республики 17
Сте@@ 17
Тур@@ 17
Ю 17
бой 17
вой@@ 17
дин 17
ец 17
зем@@ 17
лан 17
ление 17
лы 17
льная 17
най@@ 17
пре@@ 17
рина 17
стра@@ 17
техниче@@ 17
чная 17
щ@@ 17
ёр@@ 17
ј 17
Ң@@ 17
մ@@ 17
ז 17
اد@@ 17
الأ@@ 17
الف@@ 17
الك@@ 17
ام 17
بة 17
سى 17
سي@@ 17
فة 17
في 17
ܝ@@ 17
ध@@ 17
ल 17
ली 17
হ@@ 17
ை 17
ซ@@ 17
ที 17
นาง@@ 17
ผ 17
ยา 17
ฤ@@ 17
อน 17
อา@@ 17
ียง@@ 17
ဖ@@ 17
မ 17
ဟ@@ 17
ံ@@ 17
კ@@ 17
ო 17
ខ@@ 17
Ẹ@@ 17
ὑ@@ 17
ὰ 17
ὸ@@ 17
○ 17
♣ 17
〈 17
〉 17
ば 17
べ@@ 17
ヤ 17
丕 17
丕@@ 17
久 17
争 17
亜@@ 17
仇@@ 17
仔 17
像 17
儉 17
养@@ 17
凰@@ 17
去 17
各@@ 17
坝@@ 17
堯 17
声 17
央 17
契@@ 17
奔@@ 17
妤 17
始 17
娣 17
媽@@ 17
宾@@ 17
寄@@ 17
察 17
導@@ 17
岗@@ 17
库 17
店@@ 17
庫 17
弗 17
弦 17
强 17
徵 17
忌 17
怡 17
恵 17
戒 17
投@@ 17
撫@@ 17
攘@@ 17
攸 17
攸@@ 17
敕@@ 17
斷@@ 17
既@@ 17
昀 17
昂@@ 17
昔@@ 17
映@@ 17
是 17
晏@@ 17
晚@@ 17
曆 17
枝 17
步 17
毒 17
汤@@ 17
沒@@ 17
泗@@ 17
泥@@ 17
派@@ 17
涅@@ 17
混@@ 17
潭 17
潮 17
瀛@@ 17
熱@@ 17
猫 17
珊 17
琛 17
琰 17
璧 17
甜@@ 17
町@@ 17
盐@@ 17
礁 17
祜 17
祠 17
祺@@ 17
簾@@ 17
紅 17
續@@ 17
绵@@ 17
罪@@ 17
耀 17
范 17
荆@@ 17
著 17
葛 17
蔵@@ 17
藻 17
蘇 17
视@@ 17
計 17
豫 17
賞 17
过@@ 17
遇@@ 17
選 17
選@@ 17
邊 17
郢@@ 17
量 17
陛@@ 17
雀 17
集团 17
霖 17
願 17
顥 17
魂 17
麥@@ 17
귀@@ 17
녀@@ 17
들@@ 17
벌 17
별 17
병@@ 17
봉@@ 17
생 17
설@@ 17
숙@@ 17
십@@ 17
역 17
을@@ 17
음@@ 17
치 17
트@@ 17
Geografía 16
Hii 16
Imperio 16
Kazi 16
Kirchen@@ 16
Leiter 16
Mıs@@ 16
accomp@@ 16
achus@@ 16
ajwa 16
amoja 16
angeb@@ 16
aße 16
biet 16
bronze 16
brought 16
caused 16
chama 16
chemin 16
claimed 16
cour 16
ducation 16
dı 16
earlier 16
ensemble 16
eures 16
eği 16
fabric@@ 16
gab 16
grenz@@ 16
guerra 16
gün@@ 16
iert 16
induzi 16
install@@ 16
laborat@@ 16
lived 16
lés 16
mannschaft 16
monta@@ 16
noche 16
notable 16
ografia 16
ologische 16
ordre 16
oría 16
où 16
partition 16
result@@ 16
returned 16
russe 16
suspen@@ 16
sız 16
taking 16
temas 16
themselves 16
trique 16
umika 16
verein@@ 16
voie 16
vuel@@ 16
Æ 16
Õ 16
étique 16
über@@ 16
üssel@@ 16
ÿ@@ 16
İr@@ 16
Ž 16
ƣ@@ 16
ˁ@@ 16
Δι@@ 16
Υ@@ 16
άγ@@ 16
άλ@@ 16
κά@@ 16
μι@@ 16
φαν@@ 16
Бар@@ 16
Дра@@ 16
З 16
Ль@@ 16
Ман@@ 16
Остро@@ 16
Пере@@ 16
Под@@ 16
СС 16
Спе@@ 16
Те@@ 16
Це@@ 16
бер@@ 16
вица 16
все 16
дар@@ 16
дор 16
дру@@ 16
итель@@ 16
ку 16
къ@@ 16
лый 16
ника 16
рен@@ 16
рь@@ 16
тия 16
ты@@ 16
уго@@ 16
ун@@ 16
цион@@ 16
чо@@ 16
ще@@ 16
ёт@@ 16
ћ@@ 16
ў@@ 16
بل@@ 16
شد 16
عمر 16
ف 16
مع 16
ور@@ 16
ِ@@ 16
ّ@@ 16
ھ@@ 16
ަ@@ 16
ग@@ 16
ण 16
पा@@ 16
ा 16
ु 16
ు@@ 16
กล@@ 16
คร@@ 16
ดิ 16
ดี 16
มหาวิทยาลัย@@ 16
วง 16
อร 16
าย 16
ำ 16
เบ@@ 16
เม@@ 16
ຍ 16
ຕ@@ 16
ຳ@@ 16
ླ@@ 16
ည 16
ဘ@@ 16
ဝ@@ 16
ខ 16
ញ 16
ធ@@ 16
Ẻ@@ 16
Ể 16
Ừ@@ 16
Ἄ@@ 16
♡ 16
ⵉ@@ 16
ヒ 16
万 16
不 16
乂 16
亡@@ 16
仕@@ 16
仪 16
伊 16
伐@@ 16
伟 16
伦 16
伽 16
作 16
候@@ 16
倭 16
冥@@ 16
助@@ 16
吏@@ 16
啓@@ 16
喬@@ 16
均@@ 16
坐@@ 16
塵@@ 16
墨 16
変@@ 16
姫@@ 16
嬌 16
寅@@ 16
富 16
寒 16
屬@@ 16
峡 16
巻 16
座@@ 16
开 16
弟 16
惡@@ 16
或@@ 16
授@@ 16
排@@ 16
改 16
政府 16
旨@@ 16
杏@@ 16
梧@@ 16
残@@ 16
民國 16
氣 16
沃@@ 16
泥 16
泽 16
消@@ 16
済@@ 16
渾@@ 16
滅@@ 16
滿 16
澳@@ 16
濬 16
烧@@ 16
燃@@ 16
琉@@ 16
瑪@@ 16
瓘 16
發 16
盆@@ 16
盘@@ 16
眉@@ 16
磁@@ 16
磨 16
禹 16
禹@@ 16
稜 16
笑 16
米 16
納 16
紫 16
編@@ 16
羌@@ 16
翔 16
背@@ 16
胜 16
脩 16
臧@@ 16
芬 16
荘@@ 16
蒋@@ 16
蜀 16
裂 16
財@@ 16
賊@@ 16
賜 16
贈@@ 16
贡@@ 16
赞@@ 16
跨@@ 16
輪 16
遜 16
邦 16
鈕@@ 16
闵@@ 16
靳@@ 16
響@@ 16
頂@@ 16
頤 16
馨 16
魂@@ 16
默@@ 16
감 16
개 16
과 16
교@@ 16
길@@ 16
너 16
령 16
루@@ 16
릉 16
막@@ 16
밥 16
숭@@ 16
악@@ 16
역@@ 16
온@@ 16
용 16
재 16
직@@ 16
차@@ 16
친@@ 16
코@@ 16
크@@ 16
터 16
티@@ 16
풍@@ 16
합@@ 16
헌 16
훈 16
25. 15
Arnav@@ 15
Pfarr@@ 15
Royaume 15
accu@@ 15
acion@@ 15
adili 15
ailleurs 15
anzia 15
artiller@@ 15
artisti@@ 15
britanni@@ 15
captur@@ 15
collabor@@ 15
comand@@ 15
contribut@@ 15
ekana 15
environ 15
escrit@@ 15
failed 15
fich@@ 15
führ@@ 15
gegen@@ 15
grado 15
halk@@ 15
ificación 15
ihe 15
ihr@@ 15
ikali 15
insan@@ 15
inté@@ 15
lieder 15
liegen 15
linde 15
nete 15
océ@@ 15
onnement 15
onyme 15
otras 15
period@@ 15
personnel 15
pitia 15
pointed 15
pueblo 15
rence 15
retur@@ 15
selb@@ 15
statisti@@ 15
steller 15
success 15
también 15
telle 15
toda 15
todo 15
träge 15
vista 15
wird 15
église 15
üncü 15
ǚ 15
ʎ@@ 15
ʷ 15
˩ 15
̆ 15
΄ 15
Ά@@ 15
άσ@@ 15
δι@@ 15
εια 15
σα 15
υρ@@ 15
χρ@@ 15
ων@@ 15
ώ@@ 15
Бал@@ 15
Вер@@ 15
Гене@@ 15
Георги@@ 15
КП@@ 15
Миха@@ 15
Мон@@ 15
Пар@@ 15
Ц 15
алистиче@@ 15
бли@@ 15
бри@@ 15
ван 15
вет@@ 15
вина 15
вых 15
ген@@ 15
ги 15
гим@@ 15
град@@ 15
гре@@ 15
два 15
двигате@@ 15
зу@@ 15
йна 15
лий 15
нен@@ 15
нии 15
ок@@ 15
при 15
рей 15
риа@@ 15
сы@@ 15
тин 15
три@@ 15
тур@@ 15
фа 15
фрон@@ 15
чат 15
чик 15
Հ@@ 15
գ@@ 15
أبو 15
اس 15
الخ@@ 15
العربية 15
با@@ 15
حياة 15
خان 15
خلي@@ 15
سلطان 15
سيا 15
فر@@ 15
ما@@ 15
مي 15
ني 15
ود 15
कु@@ 15
ग 15
द@@ 15
ध 15
ष 15
॥ 15
দ@@ 15
স@@ 15
ਾ@@ 15
க 15
ண@@ 15
ர 15
ా@@ 15
్ 15
ಾ@@ 15
ಿ 15
ත@@ 15
ดา@@ 15
พ 15
ศัก@@ 15
อง 15
อน@@ 15
อม 15
ัน 15
ຸ@@ 15
ແ@@ 15
ཏ@@ 15
ྐ@@ 15
ု 15
ე 15
አ@@ 15
ព 15
ᠨ 15
ḗ 15
ṣ 15
ẳ 15
Ẹ 15
ᾶ@@ 15
へ 15
ベ 15
ワ 15
ヶ@@ 15
ㅡ 15
中國 15
什 15
介@@ 15
仔@@ 15
余 15
例 15
偶@@ 15
兄弟 15
具@@ 15
冊 15
册@@ 15
凰 15
则@@ 15
勃 15
单@@ 15
卯 15
叉 15
吏 15
吧 15
哉 15
唯@@ 15
唱 15
圆@@ 15
坦@@ 15
处 15
央@@ 15
妻@@ 15
委員會 15
孟 15
宅@@ 15
宙@@ 15
宴 15
射 15
尤@@ 15
峡@@ 15
崖 15
巾 15
帶@@ 15
帽 15
弋@@ 15
弓 15
弾 15
归@@ 15
急@@ 15
恒 15
懷 15
戸 15
押@@ 15
拂@@ 15
招@@ 15
拜 15
拾@@ 15
斑@@ 15
昏@@ 15
晴@@ 15
曆@@ 15
术 15
机 15
杉 15
桃 15
汗@@ 15
沂@@ 15
沟 15
沟@@ 15
济 15
游 15
渾 15
準 15
準@@ 15
潤 15
灰@@ 15
無 15
牢@@ 15
猶@@ 15
琬 15
瑀 15
瓌 15
產@@ 15
甥 15
盟@@ 15
盧 15
秩@@ 15
移@@ 15
種 15
竺@@ 15
箏 15
篤@@ 15
粹@@ 15
索 15
結 15
纪 15
绥@@ 15
肖@@ 15
脂@@ 15
腐 15
臥@@ 15
芈@@ 15
芦@@ 15
苗 15
茹@@ 15
莽@@ 15
菊 15
蓉@@ 15
蔻 15
蛮 15
衙@@ 15
衡@@ 15
詔@@ 15
説 15
謨 15
謹 15
诚 15
谦 15
谭@@ 15
貫 15
賊 15
赫 15
逵 15
遵 15
録 15
钦@@ 15
间@@ 15
阁 15
阎@@ 15
静 15
鞍@@ 15
飞 15
馆@@ 15
鸿@@ 15
黔@@ 15
點@@ 15
龄 15
龔@@ 15
ꞗ 15
권@@ 15
극@@ 15
년 15
더@@ 15
돌 15
두 15
람 15
르@@ 15
매@@ 15
번@@ 15
복 15
브@@ 15
식@@ 15
심@@ 15
없@@ 15
울 15
철@@ 15
총@@ 15
투@@ 15
･ 15
16. 14
Amérique 14
Arbeits@@ 14
Denk@@ 14
Dreh@@ 14
Forsch@@ 14
Hiv@@ 14
Insel 14
Schlacht 14
Vater 14
abandon@@ 14
altura 14
angulia 14
anische 14
baller 14
başlar 14
becom@@ 14
biet@@ 14
bless@@ 14
bürger@@ 14
criti@@ 14
descri@@ 14
einture 14
ejeo 14
español 14
finale 14
forts 14
führung 14
graphie 14
güç 14
hili 14
ihm 14
iligen 14
imonio 14
issues 14
jiji 14
juin 14
modelo 14
modèle 14
monuments 14
mpi@@ 14
nacional 14
ocup@@ 14
ortal@@ 14
parc 14
parties 14
portant 14
prépar@@ 14
realiz@@ 14
relativ@@ 14
relev@@ 14
sait 14
schnit@@ 14
sehen 14
seine 14
singi 14
situation 14
soit 14
sozi@@ 14
spiel@@ 14
teki 14
teor@@ 14
tisha 14
todos 14
tradition 14
travail 14
tungs@@ 14
turas 14
turned 14
verkehr@@ 14
wegen 14
 14
édo@@ 14
édé 14
étu@@ 14
Ś 14
şek@@ 14
şi@@ 14
̦ 14
Ε 14
Νικ@@ 14
άμ@@ 14
αθ@@ 14
αμ@@ 14
ανδ@@ 14
ανθ@@ 14
γι@@ 14
εί@@ 14
ελ@@ 14
μαν@@ 14
μβ@@ 14
μν@@ 14
ριστ@@ 14
σία 14
τη 14
ώ 14
Андре@@ 14
Андрей 14
Вар@@ 14
Воен@@ 14
Воло@@ 14
Все@@ 14
Петро@@ 14
Раз@@ 14
Роди@@ 14
Союза 14
авиа@@ 14
ари 14
вед@@ 14
вез@@ 14
все@@ 14
дат 14
дов 14
др 14
жение 14
жу@@ 14
льное 14
любов@@ 14
мм 14
мя 14
ность 14
ну 14
оборо@@ 14
пар@@ 14
побе@@ 14
рев@@ 14
рё@@ 14
санд@@ 14
сен@@ 14
тра@@ 14
тро@@ 14
чев 14
чер@@ 14
шен@@ 14
шта@@ 14
щен@@ 14
ён 14
Ս@@ 14
ր 14
ג 14
ף 14
اء 14
اب 14
افغانستان 14
الد@@ 14
الدولي 14
الر@@ 14
الز@@ 14
الص@@ 14
ای@@ 14
تا@@ 14
تي@@ 14
دي 14
رو@@ 14
سر@@ 14
سع@@ 14
طويلة 14
ع 14
لو@@ 14
مار@@ 14
مج@@ 14
وا@@ 14
وال@@ 14
रा@@ 14
वि@@ 14
ह 14
ो 14
গ@@ 14
ద@@ 14
ප@@ 14
ල@@ 14
กุล 14
จิ@@ 14
นา 14
มิ@@ 14
ราม 14
รี 14
หลวง 14
ะ 14
ู@@ 14
เทศ@@ 14
เล 14
ກ 14
ན@@ 14
ྟ@@ 14
စ 14
တ 14
ზ@@ 14
ដ@@ 14
ណ 14
ᠡ@@ 14
Ἑ@@ 14
ἱ@@ 14
Ὑ@@ 14
ὴ@@ 14
∑ 14
⊂ 14
⊙ 14
ぽ@@ 14
ゅ 14
中国 14
丽 14
乃 14
乳@@ 14
亥 14
兀@@ 14
兄 14
免 14
內 14
全国@@ 14
凡@@ 14
刊 14
刚 14
劉 14
勍 14
卫 14
卿@@ 14
反 14
取 14
可 14
含@@ 14
告@@ 14
味@@ 14
喇 14
圍@@ 14
團@@ 14
堤 14
壁 14
壇 14
壹@@ 14
备@@ 14
奎@@ 14
妄@@ 14
姐@@ 14
娜 14
娱@@ 14
嫁 14
嫁@@ 14
孙 14
孛@@ 14
宛@@ 14
審 14
導 14
岁@@ 14
峪 14
幸 14
广 14
惑@@ 14
憶 14
戏@@ 14
户@@ 14
抱@@ 14
拔 14
掌 14
接@@ 14
揮@@ 14
收@@ 14
放 14
敷@@ 14
斋 14
昂 14
晶@@ 14
曜 14
权@@ 14
杏 14
杰@@ 14
桓 14
档 14
楞@@ 14
槃@@ 14
橫@@ 14
檀 14
比 14
汴@@ 14
沈 14
没@@ 14
沢 14
注@@ 14
洗@@ 14
浚 14
淡@@ 14
渠 14
湘 14
湣@@ 14
溝 14
滄@@ 14
漫 14
漳@@ 14
潤@@ 14
瀬 14
焉@@ 14
熟@@ 14
燮 14
牧 14
猛 14
獣@@ 14
率@@ 14
琳@@ 14
瑗 14
瑚@@ 14
瑤 14
瑱 14
瓦 14
產 14
甫@@ 14
甸@@ 14
癸@@ 14
皓 14
矢@@ 14
破 14
类@@ 14
粵@@ 14
級 14
細@@ 14
綬 14
终@@ 14
苟@@ 14
荔@@ 14
莲 14
葬 14
蓉 14
蕃@@ 14
薩 14
藝 14
蛇 14
褒@@ 14
規@@ 14
詔 14
誌 14
誘@@ 14
誼@@ 14
训@@ 14
记@@ 14
评@@ 14
贵 14
轉@@ 14
辟@@ 14
选@@ 14
遙@@ 14
邪 14
鄰 14
鈞 14
鋒@@ 14
錦 14
陝@@ 14
霊@@ 14
革 14
革命 14
頼@@ 14
飲@@ 14
騰 14
驚@@ 14
驪@@ 14
鱼 14
鹽@@ 14
공 14
농@@ 14
량@@ 14
록 14
류 14
름 14
몰@@ 14
세 14
악 14
앙@@ 14
쟁 14
준@@ 14
철 14
케@@ 14
키@@ 14
환 14
ﾟ 14
𐭥@@ 14
Angleterre 13
Après 13
COVI@@ 13
Entwicklung 13
Estados 13
Konz@@ 13
Künst@@ 13
Literatur 13
Mch@@ 13
Mög@@ 13
Orts@@ 13
Unido 13
Westen 13
acqui@@ 13
ahora 13
alität 13
armas 13
assass@@ 13
así 13
ationen 13
azini 13
cambi@@ 13
dawa 13
denk@@ 13
derg@@ 13
diente 13
dire 13
dizi 13
eint 13
einte 13
ekte 13
ekwa 13
elections 13
embar@@ 13
endung 13
entrée 13
erischen 13
ersten 13
essenti@@ 13
final@@ 13
financi@@ 13
ften 13
fulani 13
gebr@@ 13
grands 13
guez 13
haki 13
hombre 13
househ@@ 13
igte 13
istik 13
kisi@@ 13
koş@@ 13
kuto@@ 13
liste 13
lucha 13
lungen 13
mambo 13
motiv@@ 13
muerte 13
namba 13
naye 13
occupation 13
organisation 13
padre 13
parque 13
paso 13
pendant 13
perform@@ 13
poco 13
recu@@ 13
salle 13
senc@@ 13
siones 13
uğ@@ 13
vención 13
vya 13
westen 13
worden 13
zentr@@ 13
zug 13
¦ 13
Û@@ 13
ático 13
äuf@@ 13
économique 13
équi@@ 13
érique 13
ösung 13
üne 13
Ğ@@ 13
ǧ@@ 13
ɯ 13
ʂ@@ 13
Περ@@ 13
Σω@@ 13
Ψ 13
ίδης 13
αστ@@ 13
κτ@@ 13
λύ@@ 13
νη 13
ούς 13
πέ@@ 13
πολι@@ 13
ργ@@ 13
ρε@@ 13
τη@@ 13
τικός 13
τρο@@ 13
υγ@@ 13
υλ@@ 13
ό 13
ύρ@@ 13
Анато@@ 13
Боль@@ 13
Бра@@ 13
Бур@@ 13
Васи@@ 13
Гла@@ 13
Гро@@ 13
Евге@@ 13
Же@@ 13
Кали@@ 13
Кры@@ 13
Мал@@ 13
Обла@@ 13
Сла@@ 13
Черно@@ 13
актив@@ 13
анд@@ 13
армии 13
армия 13
бы 13
вича 13
вод 13
война 13
гро@@ 13
день 13
дро@@ 13
дь@@ 13
исто@@ 13
ком 13
край 13
круг 13
лась 13
лен 13
лес@@ 13
лет@@ 13
льного 13
мат 13
ме 13
мен 13
меня 13
нер@@ 13
пат@@ 13
рас@@ 13
реб@@ 13
совет@@ 13
спу@@ 13
сс@@ 13
стов 13
строитель@@ 13
ся 13
тор 13
ху@@ 13
ца@@ 13
цар@@ 13
цкий 13
част@@ 13
ше 13
ший 13
шу@@ 13
ят 13
Մ@@ 13
ֱ@@ 13
ץ 13
ارة 13
اف@@ 13
الجن@@ 13
جن@@ 13
ست@@ 13
لة 13
مل@@ 13
نا@@ 13
نة 13
ܕ@@ 13
ܪ@@ 13
का@@ 13
च 13
ने@@ 13
मा@@ 13
ष@@ 13
हो@@ 13
ী 13
න@@ 13
กร@@ 13
กุ@@ 13
ขุ@@ 13
จุ@@ 13
ตุ@@ 13
ทิ@@ 13
ธิ@@ 13
พง@@ 13
ภา@@ 13
วัฒ@@ 13
วัน@@ 13
วา 13
ศรี 13
ศรี@@ 13
อั@@ 13
ัก@@ 13
เจ@@ 13
เพช@@ 13
แล@@ 13
ໂ@@ 13
འ 13
ྫ@@ 13
ྱ 13
ထ@@ 13
ပ 13
ီ 13
យ 13
ḍ 13
Ữ 13
ἴ@@ 13
ⁿ 13
せ 13
ぶ 13
む 13
ゼ 13
ゾ 13
パ 13
ボ 13
ヨ 13
ヴ 13
丙 13
丞@@ 13
乂@@ 13
亂@@ 13
僊@@ 13
僧 13
冉@@ 13
准@@ 13
凝 13
剌 13
剧@@ 13
動 13
包 13
卍 13
卞@@ 13
卯@@ 13
卷 13
又 13
发 13
只 13
吟 13
含 13
呪@@ 13
嘗@@ 13
因 13
圭@@ 13
域 13
堡 13
壇@@ 13
奕 13
妙 13
委@@ 13
委员@@ 13
婚@@ 13
嫻@@ 13
孩@@ 13
學院 13
孺@@ 13
宅 13
完 13
宙 13
寳@@ 13
少 13
尖@@ 13
尧 13
崑@@ 13
帆 13
带 13
廬@@ 13
弁@@ 13
弗@@ 13
弱 13
彌 13
徳 13
徵@@ 13
愚 13
戊 13
戴 13
指 13
換@@ 13
敎@@ 13
斋@@ 13
斤 13
旭 13
昆 13
昊@@ 13
晃 13
晶 13
暠 13
暢 13
曇 13
朔 13
未 13
朴 13
杜 13
林匹@@ 13
枯@@ 13
树 13
棟 13
植 13
欣 13
毋@@ 13
沁@@ 13
浪 13
涉@@ 13
温 13
湛@@ 13
滕@@ 13
激@@ 13
灵 13
热@@ 13
煦 13
爵 13
爷 13
狗 13
獄@@ 13
獅 13
玲@@ 13
瑤@@ 13
璟 13
瓚 13
瓷 13
當 13
疏 13
疏@@ 13
皮 13
碑@@ 13
禍 13
禎 13
稚@@ 13
穎@@ 13
窯 13
第十@@ 13
筑@@ 13
箭 13
紙 13
絕@@ 13
給@@ 13
綱@@ 13
緣 13
練@@ 13
縄@@ 13
繁@@ 13
罕@@ 13
聰@@ 13
脩@@ 13
腰@@ 13
腾 13
节 13
苏 13
萍 13
蓋 13
蔡 13
薇 13
被@@ 13
襲 13
覽 13
观 13
詢 13
試@@ 13
説@@ 13
談@@ 13
諾@@ 13
講@@ 13
謹@@ 13
论@@ 13
賜@@ 13
贤 13
资@@ 13
踊@@ 13
軒@@ 13
这@@ 13
送 13
遣 13
邕 13
邱@@ 13
邽 13
鄒@@ 13
鄴 13
鑑@@ 13
附@@ 13
隐@@ 13
非 13
韦@@ 13
頂 13
顒 13
顶@@ 13
项@@ 13
额 13
駕@@ 13
鴻 13
鷹 13
黨@@ 13
龜 13
ꪱ@@ 13
ꪹ@@ 13
겸 13
글 13
꽃@@ 13
령@@ 13
림 13
모 13
밀@@ 13
버 13
블@@ 13
실 13
심 13
애 13
욱 13
줘 13
찬@@ 13
타 13
특@@ 13
페@@ 13
함@@ 13
항 13
항@@ 13
혁 13
흥@@ 13
＝ 13
18. 12
30. 12
Anadol@@ 12
Asya 12
Cette 12
Eigen@@ 12
Espagne 12
Kilometer 12
Menschen 12
Nach 12
Okul@@ 12
Tage 12
Ulus@@ 12
Umw@@ 12
Wie 12
Zum 12
ahada 12
aile 12
aliye@@ 12
ambazo 12
announc@@ 12
ases@@ 12
attribu@@ 12
augment@@ 12
beleg@@ 12
campagne 12
campo 12
chten 12
daki 12
deniz 12
dissement 12
dogo 12
ección 12
emiti@@ 12
erras 12
estado 12
fach@@ 12
fonc@@ 12
gabe 12
geldi 12
haben 12
haci@@ 12
ikuwa 12
ilimia 12
increased 12
isée 12
kati 12
kenti 12
klass@@ 12
kommen 12
kör@@ 12
kı 12
lauf 12
marché 12
mbH 12
miş@@ 12
muy 12
médi@@ 12
neş 12
passed 12
peut 12
poder 12
presti@@ 12
präs@@ 12
publication 12
reconn@@ 12
resul@@ 12
schein@@ 12
sociation 12
sozial@@ 12
sprach@@ 12
studied 12
sız@@ 12
taifa 12
tenant 12
théâtre 12
tör@@ 12
voire 12
wasi@@ 12
wegung 12
weit 12
werden 12
wieg@@ 12
zeichen 12
Ä 12
ßen@@ 12
áneo 12
écr@@ 12
édition 12
éx@@ 12
ían 12
ígen@@ 12
önem@@ 12
üge 12
Ā 12
Ħ@@ 12
İ 12
ılar@@ 12
ığı 12
ſ@@ 12
ɕ 12
ɵ@@ 12
ˁ 12
̪ 12
έν@@ 12
ίλ@@ 12
ει 12
εν@@ 12
ευ@@ 12
εφαλ@@ 12
λέ@@ 12
λυ@@ 12
παρ@@ 12
πρ@@ 12
ριος 12
ρό@@ 12
ρύ@@ 12
τυ@@ 12
Бори@@ 12
Бре@@ 12
Гра@@ 12
Дон@@ 12
Дру@@ 12
За 12
Ио@@ 12
Константи@@ 12
Коро@@ 12
Ло@@ 12
Моск@@ 12
Москва 12
Об@@ 12
Петер@@ 12
Пра@@ 12
Прав@@ 12
Пред@@ 12
Слу@@ 12
Сою@@ 12
Тат@@ 12
Центра@@ 12
ата 12
ати@@ 12
брат@@ 12
бро@@ 12
вар@@ 12
времен@@ 12
ву@@ 12
гри@@ 12
дел 12
дин@@ 12
его 12
кан@@ 12
княз@@ 12
кро@@ 12
лова 12
люб@@ 12
мия 12
мов 12
над@@ 12
нах 12
ниче@@ 12
па 12
под 12
под@@ 12
поли@@ 12
рес@@ 12
рин@@ 12
собо@@ 12
стан@@ 12
сту@@ 12
ступ@@ 12
тер 12
тер@@ 12
тий 12
той 12
том@@ 12
уни@@ 12
уч@@ 12
фа@@ 12
хов 12
хоро@@ 12
что 12
шая 12
шо@@ 12
ый 12
ў 12
ң 12
ұ@@ 12
դ@@ 12
ղ@@ 12
ײ@@ 12
إبراهيم 12
تر@@ 12
ح 12
دار 12
ري 12
سما@@ 12
لى 12
لی 12
مه@@ 12
ولاية 12
ڤ@@ 12
ۆ@@ 12
आ@@ 12
ण@@ 12
ता@@ 12
ना 12
ि 12
ং@@ 12
জ@@ 12
ত@@ 12
দ 12
য@@ 12
় 12
ী@@ 12
ப 12
ழ@@ 12
ை@@ 12
ව@@ 12
จันท@@ 12
ชา 12
ดิน@@ 12
ถ 12
บู@@ 12
ปา@@ 12
พระ 12
มพ@@ 12
มา 12
สะ@@ 12
หัว@@ 12
ิน 12
฿ 12
เร@@ 12
แส@@ 12
ຊ 12
ང@@ 12
ཐ@@ 12
ཕ@@ 12
ཡ@@ 12
ဗ@@ 12
៊ 12
ᠭ@@ 12
ẵ 12
ἑ@@ 12
ἕ@@ 12
‹ 12
∨ 12
│ 12
ね 12
ょ 12
ゥ@@ 12
ヌ@@ 12
ピ 12
ㅜ 12
丙@@ 12
丸@@ 12
主席 12
乱@@ 12
亞 12
佗 12
係 12
候 12
傑@@ 12
優 12
兔 12
凡 12
则 12
劳@@ 12
勋 12
區@@ 12
占 12
厦 12
变@@ 12
叟 12
咎 12
問 12
喀 12
坡 12
坦 12
域@@ 12
境 12
墓@@ 12
壬 12
婉 12
嫻 12
嬰 12
孤 12
寂 12
对@@ 12
尸@@ 12
尽@@ 12
岑 12
嶽@@ 12
巢 12
帳 12
幡@@ 12
强@@ 12
彭 12
彼@@ 12
悅 12
悉@@ 12
感 12
愼@@ 12
执@@ 12
揆 12
揭@@ 12
摄@@ 12
敖@@ 12
整@@ 12
敷 12
斬@@ 12
曉@@ 12
札 12
柏 12
栋 12
桜 12
梦 12
棋@@ 12
棒@@ 12
椒@@ 12
楠 12
欣@@ 12
歌手 12
殤@@ 12
毕@@ 12
气@@ 12
決@@ 12
浙@@ 12
润@@ 12
滇@@ 12
潔 12
潞@@ 12
濱@@ 12
灼@@ 12
点@@ 12
焉 12
燒@@ 12
牌@@ 12
狸@@ 12
玲 12
珣 12
甌@@ 12
疾 12
皂@@ 12
盤 12
硬@@ 12
社会@@ 12
禺 12
穂 12
突 12
笙 12
简 12
箐 12
箕@@ 12
簿 12
終 12
経@@ 12
線@@ 12
繆@@ 12
线 12
维@@ 12
绿@@ 12
罪 12
翻@@ 12
耑@@ 12
肃 12
臼 12
舜@@ 12
舟 12
艷 12
艾 12
药@@ 12
荷 12
菴@@ 12
萊@@ 12
葵 12
薑 12
蘆@@ 12
虔@@ 12
蝶 12
袍 12
覆@@ 12
設@@ 12
誕 12
计@@ 12
设@@ 12
词 12
買 12
賭@@ 12
賴 12
贞 12
跡 12
跳@@ 12
运 12
逊@@ 12
逰@@ 12
遮@@ 12
邾 12
郁 12
郊@@ 12
醇@@ 12
醴@@ 12
銘 12
鍾 12
鑑 12
闻@@ 12
陸 12
險@@ 12
雁 12
霞 12
頓 12
題@@ 12
飯@@ 12
饒@@ 12
馨@@ 12
騎 12
體 12
鷹@@ 12
鸟@@ 12
麴@@ 12
黑 12
黒 12
鼻@@ 12
齡@@ 12
龚@@ 12
ꪚ@@ 12
각@@ 12
건@@ 12
그 12
근 12
까 12
께 12
돌@@ 12
떡 12
룹 12
림@@ 12
립@@ 12
먼@@ 12
뮤@@ 12
엔@@ 12
웅@@ 12
음 12
적 12
적@@ 12
죽@@ 12
즈 12
집@@ 12
체@@ 12
초 12
춘 12
택@@ 12
형@@ 12
 12
 12
￼ 12
🇳 12
22. 11
29. 11
Beruf@@ 11
Bruder 11
Dienst@@ 11
Durante 11
Département 11
Für 11
Guatem@@ 11
Jahres 11
Jimbo 11
Jina 11
Kilom@@ 11
Liste 11
Londres 11
Massachus@@ 11
Ofic@@ 11
Orod@@ 11
Sprache 11
Verfüg@@ 11
Weg 11
abier@@ 11
almente 11
appointed 11
ausge@@ 11
autres 11
betrieb@@ 11
bord 11
crit 11
culos 11
début 11
düğ@@ 11
fié 11
haline 11
hapa 11
hospital 11
ición 11
ideas 11
indre 11
industr@@ 11
isième 11
ität 11
jamais 11
leich 11
lesqu@@ 11
luz 11
magaz@@ 11
mbali 11
mehr@@ 11
ministre 11
montr@@ 11
ocasi@@ 11
onship 11
otball 11
otro 11
partam@@ 11
partem@@ 11
passage 11
pologie 11
populaire 11
presse 11
prison 11
programme 11
proy@@ 11
publik 11
punkt 11
recensement 11
réalis@@ 11
schutz@@ 11
située 11
stamm@@ 11
[...]
