de 51101683
, 48354455
. 40104442
la 25340387
et 20730558
le 18930355
à 17177425
en 15793250
&quot; 13607370
l&apos; 13581477
des 12998512
est 12596439
@-@ 12464928
les 11954486
du 11912094
d&apos; 10358977
un 9384927
une 8416621
( 8317844
) 8314780
é 7146691
dans 6949164
au 6532180
par 6379995
que 6037415
’ 5444266
il 5323735
ée 5236391
pour 5187327
a 5014663
qui 4605504
er 4255688
Le 4241614
é@@ 4187021
se 4041983
sur 3962127
ant 3852489
ent 3779689
dé@@ 3646756
es 3623051
son 3556161
Il 3430050
aux 3386132
avec 3360359
La 3261119
ré@@ 3098165
és 3060209
: 3033021
l 2962718
ation 2960308
elle 2911113
plus 2801061
sont 2631001
ie 2604791
En 2544690
te 2440696
ou 2388163
re@@ 2379220
ch@@ 2297008
s 2283166
ne 2251631
Les 2242115
d 2239060
sa 2232937
ées 2230601
on 2218191
été 2210784
ement 2159715
ce 2117795
« 2095312
» 2090741
s@@ 2084025
v@@ 1999596
qu&apos; 1968879
ses 1933431
p@@ 1918732
s&apos; 1882348
c@@ 1866369
ale 1857312
e 1753851
y 1738325
C@@ 1732094
in@@ 1715640
comme 1712692
in 1669978
ont 1659267
aire 1645285
deux 1600754
ité 1569686
age 1567591
L&apos; 1563116
is@@ 1546428
r@@ 1542971
g@@ 1530937
el 1514231
ait 1481138
is 1477854
con@@ 1458014
ques 1455051
pas 1439304
ou@@ 1432170
S@@ 1421785
d@@ 1416822
ine 1415431
P@@ 1401670
f@@ 1397494
qu@@ 1396686
ations 1390518
n@@ 1390093
par@@ 1374896
fait 1352839
ér@@ 1351341
l@@ 1342094
ère 1324176
tr@@ 1307210
L@@ 1304061
; 1293331
entre 1290496
T@@ 1280152
ar@@ 1271709
it 1266386
u 1258700
en@@ 1258371
us 1252875
mais 1242408
ue 1242229
t@@ 1227084
D@@ 1212638
M@@ 1209610
Elle 1189968
ite 1188714
ag@@ 1187083
m@@ 1180608
G@@ 1178981
sous 1177844
at 1154690
re 1153902
ac@@ 1150194
cette 1148551
ex@@ 1143184
tion 1131457
B@@ 1131220
A@@ 1118882
al 1118142
t 1112918
F@@ 1109183
tes 1105091
im@@ 1098530
ons 1096948
ers 1089157
V@@ 1078711
R@@ 1071663
an 1065637
eur 1064414
être 1058477
N@@ 1053311
leur 1046685
ans 1045694
même 1031781
b@@ 1016873
était 1009340
lui 1003844
n&apos; 994991
on@@ 989180
ur@@ 982300
i 978058
dont 976350
après 975276
ul@@ 970449
ens 970148
li@@ 970125
a@@ 969846
H@@ 967944
mo@@ 967161
di@@ 963315
pr@@ 962125
ap@@ 956576
aires 953367
po@@ 953286
% 948493
è@@ 947350
où 941027
am@@ 940889
&apos; 929902
ance 928432
o@@ 928122
an@@ 924585
us@@ 924533
i@@ 921884
également 909203
it@@ 903251
che 902376
én@@ 900512
commune 900403
France 896658
al@@ 896641
ants 896305
ville 892375
É@@ 892264
or@@ 892044
c 883931
e@@ 878164
u@@ 862991
pré@@ 856571
Ch@@ 854906
au@@ 853109
h@@ 851876
ence 849941
alors 846616
ise 843981
tions 825835
aussi 825662
autres 825118
vo@@ 823698
né 822839
per@@ 818398
ts 818123
nom 816220
ainsi 815207
Saint 814934
ire 811410
om@@ 804893
o 804448
y@@ 798801
partie 798433
ph@@ 791949
av@@ 789514
elles 786514
J@@ 783089
ent@@ 780728
ères 780500
premier 779382
me 779155
ti@@ 778496
fut 777173
ic@@ 776798
ique 775141
ét@@ 774263
éri@@ 773503
at@@ 769954
si@@ 767180
ces 763364
co@@ 758500
ents 757968
pl@@ 756788
O@@ 755922
première 755582
mé@@ 753709
dis@@ 748359
id@@ 741561
ille 739990
es@@ 739870
enne 738601
sou@@ 737085
ais 736176
ci@@ 735777
ure 732707
ab@@ 728718
tre 719676
ales 718579
onn@@ 715047
lors 713716
À 712148
puis 705535
déc@@ 703981
j@@ 702730
E@@ 693480
mar@@ 688358
ad@@ 687745
années 685538
mon@@ 685010
vers 683740
contre 681121
ils 680820
gr@@ 677860
peut 675986
ages 673760
eau 665673
avant 663365
groupe 663158
lo@@ 662273
2 656699
trois 654124
K@@ 651423
teur 648174
eurs 646626
ro@@ 637996
iste 635112
depuis 633818
él@@ 633755
ir@@ 633532
ég@@ 632292
er@@ 630590
té 630053
cours 629963
1 628021
eux 627661
ir 626975
th@@ 624102
inter@@ 614391
ill@@ 614345
ante 611359
ements 607606
min@@ 601896
ain 599319
temps 599209
plusieurs 596946
as@@ 595967
ins 588179
fin 587299
ass@@ 582223
Cette 581977
aine 580080
its 579529
br@@ 577126
très 576505
em@@ 575753
Dans 574055
os 572780
fois 571713
ente 569143
able 566538
ge 566179
com@@ 565362
ur 564640
il@@ 562901
ê@@ 562810
ni@@ 562424
bi@@ 561581
Mar@@ 561052
â@@ 558925
pro@@ 556908
ign@@ 554536
no@@ 553860
Al@@ 552608
ateur 545658
cr@@ 544085
jusqu&apos; 543404
el@@ 542624
els 540702
ot@@ 539930
ten@@ 537189
leurs 536418
pe 529948
année 528156
/ 527765
vi@@ 525195
- 523464
sans 523241
for@@ 522829
avoir 522278
os@@ 521588
W@@ 517880
tant 517774
I@@ 517280
Paris 516916
3 516135
ès 515804
ux 512656
to@@ 511788
oc@@ 509912
acc@@ 509424
end@@ 508373
n 508063
mort 507605
Jean 507359
avait 507285
tout 506878
place 506664
français 505844
cour@@ 505726
ig@@ 505252
aient 504672
Con@@ 504623
ver@@ 502446
De 502060
ach@@ 501034
ec@@ 493488
ter 493331
ile 492676
notamment 490464
famille 487784
sion 486183
ellement 485174
suite 484533
z@@ 483776
as 483680
la@@ 483482
Ce 482687
op@@ 480634
alité 480509
sé@@ 479060
un@@ 478461
fi@@ 478032
su@@ 477437
mes 476324
faire 476014
so@@ 474506
forme 474213
Au 474156
sa@@ 474123
x 472508
monde 472475
ol@@ 472237
st@@ 471276
ice 468916
res@@ 468076
cou@@ 466939
ï@@ 465843
Z@@ 464884
pos@@ 464872
saison 464467
ard 464336
res 462635
ème 460333
équipe 460213
men@@ 460008
Après 458199
ati@@ 456858
f 456757
esse 456517
gi@@ 456337
isme 451482
U@@ 450445
comp@@ 449486
cl@@ 449269
4 449250
sud 447747
ém@@ 446546
man@@ 446069
car@@ 442729
appar@@ 442531
ités 441930
ets 441656
lieu 440421
pays 438814
17@@ 438429
inc@@ 438140
or 437616
nord 437231
ion 436676
urs 436604
x@@ 435505
af@@ 430213
ouv@@ 430172
ture 428985
pendant 428244
ade 427920
Par@@ 424691
ser@@ 424308
ri@@ 424166
év@@ 423530
ma@@ 421902
die 421590
ats 421437
enti@@ 420653
ve 420126
Biographie 418485
autre 418251
iss@@ 418174
and 417349
ci 417272
partir 416296
États 416250
grand 415851
Une 415691
région 415624
Ar@@ 415036
titre 414414
non 414403
bien 412956
devient 412713
qu 411989
peu 411023
trans@@ 409268
tu@@ 408890
ette 407809
ines 406010
&amp; 405998
vis@@ 404721
Un 404588
antes 403283
film 402947
sur@@ 402251
teurs 400851
L 400609
Ré@@ 400211
ies 398599
pour@@ 397786
vie 396021
moins 395644
éc@@ 395502
alis@@ 395049
utilis@@ 394423
ann@@ 394174
guerre 392839
quatre 392829
ang@@ 392633
soit 392075
ob@@ 391249
6 390196
ennes 389732
C&apos; 387186
suiv@@ 386768
encore 386555
tres 385528
ren@@ 385210
k@@ 384394
ô@@ 384281
tique 383964
nouveau 383676
cré@@ 383386
istes 381577
ires 380957
élec@@ 379587
ar 379454
Son 379001
rem@@ 378660
Car@@ 376967
tionn@@ 374841
de@@ 374675
ains 374113
col@@ 374037
général 373547
ligne 373260
tous 372633
tra@@ 372328
prend 372150
rec@@ 371858
ches 371103
politique 370980
pi@@ 370823
ev@@ 369593
constitu@@ 368598
um 367031
Y@@ 366434
représent@@ 366313
série 365512
use 364655
ables 364332
r 363684
gu@@ 363683
ne@@ 362104
Qu@@ 361650
si 361590
fond@@ 360558
In@@ 360508
porte 360508
16@@ 360443
cu@@ 356063
ç@@ 355917
all@@ 355858
fon@@ 355842
contr@@ 355468
An@@ 354623
tour@@ 353920
début 353685
tri@@ 352471
le@@ 351855
ène 351335
située 351249
ra@@ 350945
att@@ 350288
ologie 349685
celle 349644
jou@@ 349330
Unis 348641
fin@@ 348160
cor@@ 347378
mor@@ 347180
5 344803
État 344067
ut 343488
ter@@ 343422
ant@@ 343369
conn@@ 342739
cro@@ 342684
éch@@ 341431
nombre 341296
tis@@ 340487
compos@@ 338282
fa@@ 338148
dou@@ 337757
ues 337054
réalis@@ 336470
tard 336456
position 336370
celui 336329
fils 336079
française 335676
commun@@ 335056
atique 334646
grande 334497
k 334486
onne 333852
aines 333152
bas@@ 332925
ites 331883
mi@@ 330012
se@@ 329883
club 329679
des@@ 328929
prés@@ 328631
ner 328027
rel@@ 327173
donc 327153
selon 327035
village 325407
Mon@@ 325295
En@@ 324813
entr@@ 324192
Tr@@ 323989
lu@@ 323893
ures 323548
Pour 323347
mis 322382
ouest 322287
On 321855
pass@@ 321581
album 320178
histoire 319105
vol@@ 318700
ta@@ 318694
rom@@ 318559
loc@@ 317091
né@@ 315884
consid@@ 315480
trouve 315041
nouvelle 314588
exp@@ 314560
dit 314425
marqu@@ 314219
anc@@ 313401
ff@@ 313326
ru@@ 313133
offici@@ 312448
ve@@ 312374
mal@@ 312196
ing@@ 311558
nes 311285
form@@ 310855
Histoire 309578
ensuite 309511
quelques 309409
spéci@@ 309012
eu 308166
département 308069
do@@ 307778
bo@@ 307617
centre 307605
î@@ 306960
ord@@ 306607
ain@@ 306457
compte 305902
père 305731
Di@@ 304721
lé@@ 304542
c&apos; 303593
président 303580
époque 303305
ète 303143
deuxième 301646
action 301115
app@@ 300854
be 300541
étaient 300181
part 299416
et@@ 299013
ia 298680
ayant 296967
ateurs 296771
dernier 295858
population 295018
conf@@ 294835
soci@@ 294783
Dé@@ 293928
situé 293887
serv@@ 293343
vient 292894
7 292814
Br@@ 292801
ton 292100
h 291710
z 291656
étant 291554
Gr@@ 291510
por@@ 291461
période 291047
ole 290997
2010 290762
8 289619
Com@@ 289448
ell@@ 289430
bar@@ 289337
rég@@ 288837
face 287315
dev@@ 286941
Ro@@ 286865
hi@@ 286751
pe@@ 286731
ing 286174
èrent 286168
environ 286049
fer@@ 285321
te@@ 285202
sec@@ 285025
étr@@ 284982
nom@@ 284021
A 283097
ences 281907
roi 281572
Cor@@ 281125
rap@@ 280821
can@@ 280503
près 279744
église 279439
anti@@ 279391
m 279302
nombreux 278894
sc@@ 278406
ba@@ 277715
nommé 277256
cho@@ 277158
parti@@ 276275
présent@@ 276247
nationale 276243
mois 276144
sol@@ 276130
car 275965
thé@@ 275843
tour 275524
og@@ 275519
ouver@@ 274853
bl@@ 273968
origine 273891
isi@@ 273799
déf@@ 273322
aise 273099
ut@@ 272151
Ils 271541
15@@ 271482
gouvernement 270606
dr@@ 270494
Ces 270261
ace 270145
ili@@ 269414
pu@@ 268754
isse 268231
Europe 267751
met 267618
sup@@ 267460
of 267435
jour 267347
ins@@ 266823
est@@ 266726
Pierre 266681
quement 266632
chez 266238
fr@@ 265729
alement 265128
aff@@ 264775
espèce 264215
ate 263701
port@@ 262921
service 262623
one 261994
ensemble 261961
hum@@ 261860
prim@@ 261513
um@@ 261280
médi@@ 261177
Au@@ 260833
art 260757
cinq 260612
homme 259269
ais@@ 259101
organis@@ 258458
ge@@ 258319
vari@@ 258201
and@@ 257584
mot@@ 257562
loi 257155
ix 256522
régi@@ 256241
The 256071
chef 255745
eaux 255058
ves 254889
eff@@ 254495
permet 253895
communes 253763
pose 253746
int@@ 253694
mer 253481
ailleurs 253406
afin 253077
ven@@ 252813
ancien 251647
chan@@ 251613
Louis 251408
rou@@ 251177
oir 250889
site 250295
2018 250262
ances 249933
gar@@ 249645
bre 249078
aut 248961
rés@@ 248778
ai 248457
aliste 248360
arch@@ 248144
our 247971
10 247811
hui 247242
connu 247235
natur@@ 246989
du@@ 246934
bat@@ 246699
souvent 246531
dur@@ 246370
cul@@ 246256
ane 246169
enn@@ 245964
reste 245314
mis@@ 245102
carrière 245100
mag@@ 244721
agn@@ 244629
née 244171
durant 243879
cas 243853
édi@@ 243697
der 243622
cer@@ 243614
ori@@ 243244
endre 242993
jeu 242787
effet 242771
St@@ 242716
éd@@ 242279
armée 242167
ore 241944
nav@@ 241888
autor@@ 241884
ête 241771
ess@@ 241485
études 241282
val@@ 241045
off@@ 240969
Le@@ 240850
tor@@ 240813
ment 240658
ond@@ 240505
Nord 240365
membre 240352
not@@ 240251
ov@@ 240128
niveau 239617
tement 238613
identi@@ 238577
w@@ 238573
imp@@ 238467
termin@@ 237732
ni 237583
enf@@ 237561
doit 237205
société 237151
éro@@ 236768
ient 236497
3@@ 236478
Bo@@ 235772
rue 235692
pein@@ 235318
ban@@ 234573
Bar@@ 234312
ran@@ 233950
rôle 233762
compl@@ 233442
enc@@ 233293
national 233264
membres 233080
èmes 233077
gé@@ 232961
ju@@ 232234
ta 232117
esp@@ 231615
ève 231543
jours 231243
I 230621
peuvent 230205
sera 230168
américain 229969
habitants 229830
emp@@ 229464
C 228925
tourn@@ 228684
projet 228620
Gu@@ 227611
mise 227603
chaque 227266
coll@@ 226349
particip@@ 225440
Mal@@ 225292
voy@@ 225129
9 225125
era 225125
èse 224332
caractér@@ 223954
œuvre 223872
sor@@ 223698
ges 223680
Sa 223353
ra 223228
gl@@ 222729
cô@@ 222509
va 222476
the 222288
Selon 222262
éré@@ 222166
iques 222133
mondiale 221963
point 221890
présente 221761
bles 221695
indi@@ 221431
territoire 221386
publi@@ 221018
hau@@ 221006
cher 220860
construction 220366
troisième 219970
jus@@ 219751
isation 219537
El@@ 219485
2011 219464
mari@@ 219364
conserv@@ 219095
concer@@ 219081
système 218901
fé@@ 218850
nu@@ 218820
formation 218477
premiers 218452
amb@@ 218414
Co@@ 217852
Ma@@ 217771
ative 217647
Par 217495
dès 217464
personn@@ 217121
dom@@ 217058
finale 217054
tur@@ 217042
exemple 216765
sein 216702
toujours 216652
chap@@ 216602
be@@ 216479
travail 216306
Sud 216214
Mais 216126
base 215781
2000 215583
agne 214766
aissance 214701
vic@@ 214421
dic@@ 214307
poste 213968
constru@@ 213919
droit 213864
ay 213650
ze 213620
2014 213549
bourg 213377
4@@ 213267
_ 213266
match 213171
command@@ 212924
donn@@ 212737
û@@ 212574
ond 212403
ie@@ 212257
p 211796
prises 211791
toute 211785
fac@@ 211560
oth@@ 211448
erie 211307
ac 211251
obten@@ 211139
mat@@ 211027
éré 210833
iti@@ 210804
chang@@ 210600
Charles 210579
oy@@ 210530
Ber@@ 210397
personnes 210187
chev@@ 209548
ois 209254
gré 209174
enfants 209163
Guerre 209028
production 208984
ler 208853
ici@@ 208298
aut@@ 208217
ol 207867
inst@@ 207727
Or@@ 207039
ail@@ 206518
but 206506
lég@@ 206386
cet 206378
Th@@ 206212
actu@@ 206097
nombreuses 206014
journ@@ 205905
2015 205470
toutes 205434
ège 205405
2009 205389
uni@@ 205341
Lors 204886
Col@@ 204682
long 204347
coul@@ 204259
eng@@ 203950
écr@@ 203931
ath@@ 203753
da 203588
entes 203528
raison 203392
certains 203306
Des 203197
uc@@ 202962
tin 202600
Am@@ 202513
château 202128
ini 202091
sign@@ 202058
man 201977
Re@@ 201397
œur 201321
Ver@@ 201144
│ 200991
amp 200962
tro@@ 200606
ordre 200566
édition 200552
six 200504
succès 200251
étab@@ 199658
explo@@ 199464
sub@@ 199268
Pr@@ 199113
ier 198998
New 198906
prix 198732
2008 198574
aur@@ 198457
tel 198334
tête 198160
rapport 197810
tés 197716
université 197499
fs 197488
are 197414
fl@@ 197285
maison 197212
tif 196948
école 196924
version 196621
port 196530
na 196350
isons 196290
siège 195730
ot 195584
tures 195581
championnat 195550
ali@@ 195389
ong@@ 195367
som@@ 195263
2012 195092
entraî@@ 195038
sem@@ 194952
fille 194930
20 194723
aus@@ 194579
lie 194326
musique 194043
ber@@ 193840
type 193675
agit 193593
uses 193441
jeune 193329
tent 193286
am 193246
anim@@ 193144
rest@@ 193070
Grand 192910
cons@@ 192805
tient 192736
tom@@ 192701
xe 192552
out 192244
professionn@@ 192087
grâce 192023
province 191963
me@@ 191881
écrit 191421
points 191406
voir 191366
2013 191276
inv@@ 191163
cal@@ 191103
île 190765
bou@@ 190479
per 190384
ay@@ 190365
E 189651
eil 189445
ver 189330
hommes 189300
appel@@ 189122
N 189121
Sh@@ 189030
atiques 189013
laquelle 189010
ari@@ 188901
stat@@ 188748
long@@ 188627
propri@@ 188558
développement 188469
ous 188362
déclar@@ 188329
remporte 188227
iller 188130
habit@@ 188100
roy@@ 188007
5@@ 188002
Marie 187953
II 187529
2020 187454
état 186970
ministre 186837
cle 186696
passe 186493
Mont@@ 186324
principale 186212
liv@@ 186109
g 186016
ép@@ 185986
lan@@ 185885
Po@@ 185864
arr@@ 185832
lib@@ 185815
femme 185542
let@@ 185479
élection 185478
sions 185459
B 185425
– 185417
ina 185325
til@@ 185255
défin@@ 185241
Mor@@ 184643
élections 184431
participe 184314
direc@@ 184291
qué 184282
public@@ 184209
diffus@@ 184068
15 183956
Li@@ 183939
pouvoir 183871
hô@@ 183645
élev@@ 183481
14@@ 183343
âge 183082
sal@@ 182489
mer@@ 182478
vé@@ 182472
joue 182428
sp@@ 182379
aujourd&apos; 182286
Mo@@ 182254
onc@@ 182116
neur 182051
corps 181604
télé@@ 181225
irs 181015
rencontre 180564
public 180478
Depuis 180420
moyenne 180297
ède 180297
fication 179848
ides 179836
fort 179801
création 179626
D 179285
plac@@ 179016
vement 178911
class@@ 178881
observ@@ 178771
inf@@ 178767
Paul 178715
qui@@ 178704
dirig@@ 178683
ises 178655
lam@@ 178637
2016 178631
ler@@ 178420
mas@@ 178329
ide 178192
œ@@ 178039
mont@@ 177850
préc@@ 177758
Mé@@ 177723
str@@ 177693
sort 177561
2007 177400
prise 177319
Allemagne 177306
2017 177249
viv@@ 177042
esc@@ 176557
route 176409
R 176298
aît 176078
demi 175992
met@@ 175942
commence 175873
tien 175826
ste 175693
euse 175691
Lo@@ 175607
ble 175435
formula 175383
remplac@@ 175375
êt 175215
chi@@ 174968
di 174904
emb@@ 174879
joueur 174875
côté 174811
Per@@ 174522
patr@@ 174515
2006 174453
Coupe 174282
buts 174166
dernière 174129
istiques 174075
François 173879
femmes 173478
suivante 173353
étudi@@ 172986
sie 172796
ènes 172684
football 172402
to 172373
ly@@ 172369
associ@@ 172293
ed@@ 172154
uss@@ 172125
cur@@ 171882
seul 171867
obj@@ 171723
génér@@ 171603
ancienne 171436
od@@ 171211
illes 171074
grands 170891
zone 170610
ceux 170504
plan 170378
furent 170268
blan@@ 170103
az@@ 170101
install@@ 170098
ime 169979
time 169893
1990 169852
devant 169710
ist@@ 169686
effectu@@ 169507
pris 169457
aj@@ 169425
son@@ 169320
pres@@ 169277
ard@@ 168845
12 168791
13@@ 168782
ération 168776
petit 168301
origin@@ 168160
bres 168108
rev@@ 168105
réc@@ 168061
déjà 168000
tifs 167872
ature 167369
produit 167350
travaux 166974
fo@@ 166912
adi@@ 166893
mission 166890
rant 166796
our@@ 166586
retour 166555
fron@@ 166513
ch 166237
tiques 166175
he@@ 165918
S 165830
ana 165793
littér@@ 165774
co 165717
act@@ 165539
iter 165373
bal@@ 165296
obtient 165227
pal@@ 165218
arm@@ 165203
quali@@ 165003
part@@ 164918
proc@@ 164833
militaire 164707
prendre 164683
direction 164598
hom@@ 164454
cher@@ 164334
up@@ 164215
ha@@ 164122
main@@ 164042
République 163800
différentes 163793
dem@@ 163741
der@@ 163717
Italie 163630
F 163624
cap@@ 163613
terme 163537
For@@ 163489
syn@@ 163326
voit 163304
ai@@ 163282
lande 163257
date 163230
ition 162885
dée 162640
John 162611
extr@@ 162453
chanson 162358
anglais 162252
lement 162060
éta@@ 161970
mère 161969
siè@@ 161931
érieure 161746
Vi@@ 161583
Be@@ 161330
tait 161136
Se@@ 161116
M 161111
log@@ 161104
orie 160955
ma 160897
parmi 160816
Avec 160792
mi 160663
go@@ 160421
hé@@ 160350
D&apos; 160322
ologique 160066
30 159922
uv@@ 159608
aiss@@ 159587
issement 159458
prom@@ 159368
genre 159309
épis@@ 159283
réseau 159268
permet@@ 159134
sept 158883
milieu 158822
gt 158723
tandis 158681
rait 158467
initi@@ 158401
ult@@ 158322
parti 158117
abord 158041
ah@@ 157964
espèces 157927
accu@@ 157867
6@@ 157726
porté 157684
voie 157564
ablement 157550
b 157336
puiss@@ 157312
lanc@@ 157267
liqu@@ 157200
quant 157117
Lor@@ 157044
charg@@ 157005
équ@@ 156971
yr@@ 156891
cin@@ 156785
ti 156708
dix 156686
division 156681
ident 156622
tive 156619
oire 156588
lit 156535
Sch@@ 156456
2005 156390
élu 156376
frère 156334
tel@@ 156315
signe 156259
parfois 156240
seur 155975
cription 155886
néces@@ 155866
étique 155808
Ab@@ 155795
2019 155706
communauté 155660
ouvre 155446
T 155439
liste 155370
condu@@ 155319
Cependant 155307
maî@@ 155245
sols 155029
ak@@ 154986
texte 154949
donne 154704
atif 154689
seulement 154583
fique 154573
utilisé 154345
Sur 154151
dre 154138
ennent 154138
particulier 154032
conse@@ 154014
X@@ 153491
vers@@ 153380
Description 153224
Cl@@ 153216
Sal@@ 153180
cadre 152906
phot@@ 152755
proche 152499
ano 152420
ense 152320
beaucoup 152215
britannique 152120
Val@@ 152082
lin@@ 151997
huit 151662
directeur 151546
isée 151406
tot@@ 151358
ographi@@ 151240
priv@@ 151233
sons 151042
7@@ 150965
9@@ 150882
Pal@@ 150846
ub@@ 150731
zones 150720
éli@@ 150645
marque 150622
tic@@ 150490
York 150480
aye 150277
américaine 150113
ôt 150026
aurait 149913
sh@@ 149875
Ses 149812
quit@@ 149665
différents 149654
fil@@ 149575
diffic@@ 149555
ément 149551
ref@@ 149546
Union 149468
enseign@@ 149451
pon@@ 149448
Jacques 149441
rée 149322
recherche 149251
mét@@ 149174
0,@@ 149155
second 149129
Ex@@ 149078
créé 148819
mati@@ 148691
tenant 148631
international 148630
scène 148483
réalisé 148404
onnement 148396
font 148371
sorti 148324
livre 148266
bâ@@ 148199
Man@@ 148007
ang 147713
end 147527
8@@ 147307
centr@@ 147204
Ac@@ 147202
ote 147189
bois 147137
taire 146831
bataille 146679
fonction 146673
prot@@ 146641
lat@@ 146620
aci@@ 146605
autom@@ 146537
classi@@ 146513
limit@@ 146498
épouse 146464
viol@@ 146320
aide 146229
oni@@ 146169
gare 145733
2@@ 145666
bel@@ 145596
Ser@@ 145503
occupation 145495
fer 145408
Cer@@ 145290
11 145275
hér@@ 145228
sens 145213
alisation 145077
différ@@ 144978
principalement 144932
auteur 144911
autour 144847
comm@@ 144835
2004 144770
économ@@ 144726
sav@@ 144621
victoire 144573
sau@@ 144459
iv@@ 144455
entre@@ 144433
pil@@ 144352
dép@@ 144282
existe 144267
ports 144210
Su@@ 143951
... 143906
cependant 143846
objet 143751
lig@@ 143747
produ@@ 143513
reconn@@ 143505
char@@ 143472
règ@@ 143409
16 143374
peti@@ 143343
surtout 143298
pap@@ 143266
aison 143109
ors 143088
sy@@ 143080
régu@@ 142916
premières 142878
ien 142807
atives 142729
Av@@ 142586
déput@@ 142535
Canada 142533
arrê@@ 142455
rivière 142381
Tou@@ 142178
fréqu@@ 142169
éti@@ 142074
départem@@ 142057
Je@@ 142013
alli@@ 141941
petite 141921
gen@@ 141914
assur@@ 141798
fédér@@ 141790
organ@@ 141739
équipes 141604
enregistr@@ 141476
Ang@@ 141438
publié 141420
suit 141054
plupart 141018
pay@@ 141010
èle 140992
mouvement 140985
millions 140899
cit@@ 140697
vue 140682
lt 140674
iles 140591
seconde 140541
Jeux 140497
œuvres 140481
Tro@@ 140450
18 140206
1999 140177
ché 140161
érieur 139832
tels 139790
prof@@ 139687
rejoint 139663
style 139611
administr@@ 139591
14 139540
europé@@ 139521
Université 139223
Conseil 139147
allemand 138984
opér@@ 138975
Lé@@ 138952
ules 138935
cli@@ 138835
ein@@ 138779
mé 138779
P 138665
gal@@ 138652
cause 138614
élé@@ 138445
lar@@ 138380
activité 138272
lier 138010
lem@@ 137849
Espagne 137735
indépend@@ 137722
suff@@ 137693
mettre 137681
Bor@@ 137478
oph@@ 137448
quartier 137318
ison 137290
ois@@ 137244
alités 137161
mesure 137132
v 137077
domaine 136890
mes@@ 136866
entreprise 136836
saire 136765
langue 136699
religie@@ 136656
ley 136654
comté 136611
commenc@@ 136487
demande 136475
envir@@ 136455
lequel 136426
consac@@ 136201
0 136140
là 136055
éni@@ 136053
venir 136030
reçoit 136007
ame 135933
ik@@ 135906
accomp@@ 135871
lée 135755
juin 135693
isé 135659
Char@@ 135571
avaient 135443
haut 135410
reg@@ 135409
eti@@ 135279
25 135244
fié 135241
intégr@@ 135059
suivant 134946
ka 134902
nor@@ 134854
ands 134784
probl@@ 134776
pression 134741
Afrique 134690
ich@@ 134557
Gar@@ 134484
pouv@@ 134183
eur@@ 133962
ades 133958
Rou@@ 133856
dire 133826
Bel@@ 133495
construit 133416
cre@@ 133279
19 133246
trouv@@ 133219
catég@@ 133085
iment 133044
ême 133020
dispar@@ 133001
sist@@ 132914
occup@@ 132912
bu@@ 132876
Parti 132838
Angleterre 132708
écriv@@ 132700
données 132357
appelé 132325
seule 132302
eb@@ 132280
De@@ 132229
Champi@@ 132169
classe 132106
13 131993
gén@@ 131971
rati@@ 131928
milit@@ 131885
roman 131814
bur@@ 131797
manière 131687
lim@@ 131636
eg@@ 131581
istique 131575
17 131470
trav@@ 131452
aï@@ 131373
finalement 131317
établ@@ 131201
interpr@@ 131116
do 131093
if@@ 130791
montr@@ 130724
issant 130667
olog@@ 130666
tir@@ 130603
.@@ 130500
destin@@ 130492
mont 130472
station 130350
tiv@@ 130193
ym@@ 130161
tim@@ 129921
gauche 129918
jamais 129912
avi@@ 129896
conseil 129880
aises 129711
fu@@ 129632
amp@@ 129590
péri@@ 129509
onyme 129497
prob@@ 129487
pens@@ 129442
idi@@ 129280
onné 129277
propre 129171
rac@@ 129161
2002 129152
Cal@@ 129087
mai 129050
européenne 129013
historique 128983
développ@@ 128925
étude 128883
neu@@ 128874
lorsque 128814
candid@@ 128809
seig@@ 128725
Mus@@ 128652
Str@@ 128650
volution 128645
écu@@ 128521
important 128466
nouvelles 128380
physi@@ 128289
Gal@@ 128281
mars 128233
possède 128133
tier 128109
sépar@@ 127926
G 127907
esti@@ 127907
arti@@ 127824
1998 127821
septembre 127763
moment 127726
champi@@ 127716
compr@@ 127712
article 127670
ad 127587
Lu@@ 127515
O 127449
Pe@@ 127396
fran@@ 127143
écol@@ 127095
donné 126920
semble 126817
suj@@ 126795
présence 126723
ome 126621
quer 126611
ples 126504
serve 126417
rencontr@@ 126406
eli@@ 126314
inform@@ 126311
terre 126216
certaines 126144
possible 126044
sig@@ 125934
précéd@@ 125868
organisation 125833
cultur@@ 125805
vit@@ 125731
lique 125654
colon@@ 125534
nant 125447
Cr@@ 125422
matchs 125287
ens@@ 125271
porter 125260
2003 125204
Robert 125155
principal 125074
ental 124989
V 124967
ces@@ 124896
Ligue 124870
occasion 124775
1980 124737
50 124736
Tour 124645
té@@ 124628
ettes 124569
cela 124537
groupes 124425
bert 124398
Henri 124371
épo@@ 124339
ey 124330
lie@@ 124178
parc 123981
référence 123981
capit@@ 123909
ambre 123876
quand 123806
2001 123783
&#91; 123773
entrée 123741
axe 123728
ode 123704
ast@@ 123453
annonce 123430
Ne@@ 123294
&#93; 123062
jeunes 123006
juillet 122991
matéri@@ 122941
Historique 122919
généralement 122892
! 122873
octobre 122856
termine 122802
° 122780
scienti@@ 122683
ouvent 122631
canton 122522
acqu@@ 122500
celles 122429
anci@@ 122327
ino 122288
cathol@@ 122111
bre@@ 122060
Carrière 122045
ave@@ 121998
graphie 121797
publique 121749
travers 121690
théâtre 121646
pas@@ 121581
permettant 121481
classement 121472
Géographie 121417
èrement 121391
je@@ 121383
uti@@ 121256
aque 121243
ré 121233
atta@@ 121222
ple@@ 121190
bass@@ 121110
grandes 121017
issent 120804
= 120704
main 120597
lir 120550
Joseph 120543
rement 120542
aband@@ 120518
dessin@@ 120471
Tur@@ 120450
retr@@ 120425
ic 120297
faite 120238
ètre 120153
rép@@ 120150
court 120090
plan@@ 120008
êts 119927
fonctionn@@ 119686
mique 119671
hu@@ 119635
professeur 119629
capitale 119626
course 119611
12@@ 119553
étés 119438
Michel 119378
-@@ 119265
Ainsi 119256
H 119154
24 119104
Londres 119008
taux 118917
Est 118810
Me@@ 118799
gique 118734
tenu 118678
ty@@ 118649
Ad@@ 118636
fic@@ 118504
essenti@@ 118498
Québec 118473
igu@@ 118427
urn@@ 118405
succes@@ 118380
ôme 118265
don@@ 118212
1970 118206
médec@@ 118203
tar@@ 118197
ule 118187
Japon 118140
culture 117991
industri@@ 117946
villes 117928
politiques 117877
Nouvelle 117647
japon@@ 117631
Her@@ 117498
yl@@ 117490
ection 117475
ates 117460
compétition 117380
vention 117078
bâtiment 117042
fle@@ 116683
vu 116580
hors 116573
tent@@ 116568
ud@@ 116491
orient@@ 116389
cer 116294
èque 116294
compagnie 116147
administration 116117
mu@@ 116098
rapidement 116035
ez 115976
iche 115951
ed 115947
2021 115824
évol@@ 115818
augment@@ 115791
composé 115777
Pl@@ 115709
ext@@ 115701
ône 115656
ange 115571
Fin@@ 115516
janvier 115491
meurt 115448
district 115446
assemb@@ 115422
vall@@ 115371
rière 115333
résultats 115272
portant 115221
dens@@ 115091
mètres 115016
décide 115014
démoc@@ 114985
bon 114977
internationale 114848
rés 114827
Bou@@ 114774
restaur@@ 114747
crit 114657
produc@@ 114649
anger 114589
retrouve 114585
onnats 114520
musée 114514
meilleur 114504
formes 114412
importante 114384
deven@@ 114201
domin@@ 114098
propos@@ 114044
aître 114013
alise 113907
troupes 113897
land 113828
tre@@ 113828
architec@@ 113737
avril 113718
services 113637
taine 113625
urg@@ 113587
Q@@ 113584
activités 113552
Fl@@ 113460
w 113388
pan@@ 113358
1950 113356
Liste 113341
nie 113335
acteur 113301
sen@@ 113262
U 113259
adop@@ 113216
Cro@@ 112930
auprès 112922
travaill@@ 112868
quel@@ 112765
tran@@ 112742
itement 112707
serait 112687
Cas@@ 112633
fus@@ 112632
contin@@ 112602
San 112597
isant 112577
fier 112527
Mag@@ 112507
fonc@@ 112453
itali@@ 112428
campagne 112422
Empire 112340
prit 112231
tir 112231
décembre 112218
films 112178
climat 112123
Pays 112111
août 112071
itié 112058
comprend 112042
ectif 112036
és@@ 112007
attach@@ 111991
institu@@ 111990
roul@@ 111980
bor@@ 111961
itation 111873
Is@@ 111836
Grande 111656
célè@@ 111616
ceinture 111612
He@@ 111529
To@@ 111490
compar@@ 111463
sortie 111354
land@@ 111294
équip@@ 111289
carte 111259
iteur 111216
iser 111189
asse 111071
appro@@ 110960
Si 110957
rie 110942
table@@ 110887
créée 110835
alie 110693
lang@@ 110686
aqu@@ 110643
Pro@@ 110537
Ren@@ 110532
ision 110464
programme 110402
pel@@ 110336
urba@@ 110187
estim@@ 110135
lance 110001
sources 109908
prépar@@ 109870
Pendant 109860
Min@@ 109852
spect@@ 109682
Église 109677
novembre 109610
comte 109590
Jo@@ 109589
bes 109570
tem@@ 109558
abilité 109497
actuelle 109486
21 109294
unique 109151
su 109071
aéri@@ 109004
oug@@ 108993
aud 108924
he 108912
droite 108892
Har@@ 108830
préf@@ 108778
numér@@ 108422
viennent 108402
populaire 108396
partition 108339
Sp@@ 108256
cep@@ 108228
supérieur 108196
érie 108191
tière 108080
fér@@ 107992
bour@@ 107969
Gi@@ 107912
Rome 107899
béné@@ 107837
situ@@ 107767
40 107683
correspond@@ 107671
atteint 107637
connue 107551
favor@@ 107500
Bur@@ 107441
générale 107432
désig@@ 107302
cat@@ 107293
ographie 107263
Bi@@ 107210
ug@@ 107200
faisant 107111
découver@@ 107063
argent 106970
droits 106940
lac 106929
ce@@ 106849
économique 106772
inté@@ 106658
méda@@ 106639
terrain 106586
Pi@@ 106518
voix 106484
forces 106453
otte 106351
landais 106216
Pologne 106084
ger 106062
Seconde 106046
total 106040
ib@@ 106012
départ 106005
dévelop@@ 105922
Comme 105869
proj@@ 105762
conten@@ 105702
Chine 105687
eine 105656
terres 105604
ecture 105594
vie@@ 105464
Sainte 105384
seau 105362
10@@ 105208
puis@@ 105207
cinéma 105206
particulièrement 105180
association 105115
mand@@ 105054
rédu@@ 104995
li 104956
contrôle 104831
ones 104821
Por@@ 104727
modèle 104727
collec@@ 104725
fe@@ 104721
Ri@@ 104708
Arm@@ 104706
page 104695
découvert 104676
russe 104652
1960 104608
fir@@ 104605
honneur 104594
ica 104493
noi 104378
bless@@ 104316
int 104287
curité 104275
auté 104269
ris@@ 104201
atoire 104190
mod@@ 104178
reven@@ 104091
mê@@ 104038
ah 104036
cas@@ 103978
nous 103951
parties 103930
ivent 103863
produits 103787
23 103530
intérieur 103470
ov 103448
22 103432
détru@@ 103425
FC 103220
ela 103216
espace 103215
Ger@@ 103211
bonne 103186
champion 102980
Ouest 102959
air 102801
ok@@ 102785
cont@@ 102752
ige 102710
nouveaux 102689
chin@@ 102677
Belgique 102636
rit@@ 102636
occu@@ 102592
inspir@@ 102583
tou@@ 102566
ense@@ 102517
lic@@ 102505
Du@@ 102504
traditionn@@ 102476
ager 102414
sit@@ 102406
désormais 102364
eté 102339
ël 102317
façon 102315
large 102274
pot@@ 102265
ya 102253
uel 102170
Oc@@ 102105
Es@@ 102078
igne 102074
tienne 102046
pén@@ 102009
spor@@ 101925
Ph@@ 101890
positions 101782
? 101652
pol@@ 101596
lo 101589
opération 101486
etc. 101483
maire 101460
municipalité 101440
Prix 101414
ki 101366
nation@@ 101283
technique 101242
jug@@ 101191
… 101166
del@@ 101160
graphi@@ 101124
idée 101123
oppos@@ 101107
territoires 101101
critique 101067
oires 101033
istère 100984
pen@@ 100984
Cet 100979
Russie 100971
— 100971
arrivée 100970
jur@@ 100948
ect@@ 100926
cip@@ 100808
sionn@@ 100784
So@@ 100776
1991 100755
Philippe 100728
vér@@ 100640
signi@@ 100623
Deux 100558
lut@@ 100556
Ir@@ 100525
évén@@ 100474
sait 100456
éléments 100346
personnage 100283
Royaume 100246
berg 100210
pul@@ 100087
améric@@ 100072
ski 100060
Franç@@ 100026
dat@@ 99996
Plusieurs 99947
100 99800
ami@@ 99797
ax@@ 99769
aller 99752
Dr@@ 99706
combat 99680
ps 99680
riv@@ 99529
idence 99339
joueurs 99337
sert 99318
bie 99277
aucun 99220
verse 99218
sol 99177
Bru@@ 99146
As@@ 99038
Bal@@ 99033
intitul@@ 99031
Sé@@ 98942
ern@@ 98924
titres 98901
èg@@ 98836
exist@@ 98768
attribu@@ 98761
centrale 98733
id 98691
anne 98623
février 98574
enant 98535
envoy@@ 98430
continu@@ 98382
Rh@@ 98367
auc@@ 98331
Amérique 98247
Syn@@ 98149
contrat 98147
sac@@ 98099
altitude 98069
David 98049
importance 98034
Mc@@ 97981
Ed@@ 97977
out@@ 97953
bas 97948
cs 97942
ards 97906
vingt 97763
accès 97737
util@@ 97705
dessus 97625
preuve 97625
olympiques 97571
montre 97554
assez 97547
Nor@@ 97534
Centre 97475
chac@@ 97471
décor@@ 97409
chemin 97406
source 97398
X 97355
titu@@ 97331
ara 97306
yp@@ 97202
abb@@ 97140
histori@@ 97126
gues 97122
ergie 97106
airement 97093
ifs 97063
No@@ 97059
Pu@@ 97018
dér@@ 96996
actions 96897
icul@@ 96775
erre 96761
uelle 96668
1997 96655
march@@ 96621
maj@@ 96617
dan@@ 96599
ducation 96584
universit@@ 96564
sculp@@ 96530
indre 96495
allemande 96417
devenu 96297
longu@@ 96291
publie 96291
ices 96284
dam@@ 96271
duc@@ 96226
fais@@ 96086
iz@@ 96085
double 95988
Si@@ 95973
force 95961
lesqu@@ 95934
historiques 95866
III 95859
terie 95776
duc 95732
attaque 95720
tiers 95712
comb@@ 95680
Mari@@ 95635
température 95624
astéroïdes 95567
circons@@ 95553
1995 95533
acces@@ 95508
onale 95491
outre 95425
Durant 95377
ï 95331
évolution 95312
nommée 95284
École 95210
émission 95183
1996 95171
travaille 95152
trouver 95113
évêque 95098
trop 95074
surface 95026
Gen@@ 94985
lors@@ 94978
quitte 94884
jeux 94877
trique 94819
cord 94804
situation 94759
trou@@ 94730
rir 94729
charge 94673
idae 94591
quatrième 94582
taille 94527
Del@@ 94495
devenir 94452
ami 94438
trac@@ 94346
thi@@ 94291
sch@@ 94276
journal 94174
ick 94135
guer@@ 94121
libre 94118
Mer@@ 94042
imoine 93988
yen 93970
marché 93961
rejo@@ 93812
passage 93807
édé 93733
situe 93719
diver@@ 93708
artistes 93618
nier 93592
rouge 93575
missions 93570
seurs 93559
hy@@ 93511
Go@@ 93438
kilomètres 93356
emment 93346
améli@@ 93325
aume 93301
cad@@ 93268
Sa@@ 93263
pont 93149
affaires 93098
Martin 93048
anmoins 93044
passé 93036
2,@@ 93015
Ju@@ 92990
crit@@ 92943
ger@@ 92927
impos@@ 92921
rév@@ 92786
resp@@ 92785
tenir 92784
group@@ 92746
bord 92740
timents 92724
sus@@ 92723
alier 92639
meille@@ 92610
bes@@ 92598
Bas@@ 92501
anciens 92479
secré@@ 92467
engag@@ 92447
Mad@@ 92363
section 92348
ase 92341
personne 92328
apparaît 92296
traite 92273
inscrit 92166
Bien 92131
majorité 92117
odes 92103
1,@@ 92033
Rom@@ 91991
financi@@ 91947
Hol@@ 91910
ret@@ 91864
italien 91801
cri@@ 91800
tex@@ 91779
salle 91740
Fr@@ 91717
lignes 91688
èles 91656
ajou@@ 91599
principaux 91566
ologiques 91520
rend 91400
santé 91273
pu 91181
Austr@@ 91117
fie 91114
ata 91051
tra 91020
á@@ 91004
chaîne 90940
1992 90911
semb@@ 90883
ider 90714
vain@@ 90608
cell@@ 90602
26 90552
plant@@ 90504
compris 90472
rent 90426
plat@@ 90418
pièces 90329
représente 90229
techn@@ 90225
ep@@ 90215
vin@@ 90168
intérêt 90164
évolu@@ 90158
1@@ 90144
érée 90090
astéroïde 89958
utilisation 89947
législ@@ 89918
plutôt 89906
Em@@ 89904
ouvrage 89865
+ 89852
ell 89847
fit 89806
arts 89784
1994 89759
60 89717
recher@@ 89705
fut@@ 89643
rier 89609
Georges 89576
cop@@ 89562
Mat@@ 89537
heures 89511
empl@@ 89454
modi@@ 89431
saint 89410
Première 89387
ama 89247
bil@@ 89186
Beau@@ 89177
aw@@ 89153
Société 89116
lois 89107
analy@@ 89094
grav@@ 89070
conséqu@@ 89051
import@@ 88981
divers 88956
toutefois 88905
emper@@ 88901
eures 88870
bus 88859
io 88779
Ros@@ 88774
élimin@@ 88644
derniers 88643
vidéo 88579
recensement 88570
atrice 88560
protég@@ 88532
sif 88500
êtes 88406
oles 88337
sold@@ 88331
faible 88324
Vo@@ 88305
80 88296
agricoles 88279
ich 88264
arrière 88234
Sol@@ 88186
polon@@ 88130
télévision 88101
unité 88094
reçu 88077
valeur 88074
Du 87878
ak 87868
Thé@@ 87863
feu@@ 87859
simple 87852
coup 87784
entaire 87776
hab@@ 87677
vid@@ 87674
comman@@ 87654
ret 87640
volon@@ 87640
océ@@ 87587
telle 87575
sin@@ 87542
oise 87493
multi@@ 87335
agement 87303
sovi@@ 87295
chant 87286
change 87260
yth@@ 87258
cité 87201
van 87201
ment@@ 87111
onnes 87089
Bour@@ 87052
tal@@ 86986
cour 86970
1981 86873
hor@@ 86730
km 86685
Bretagne 86659
appr@@ 86616
sciences 86608
chré@@ 86575
dipl@@ 86488
rich@@ 86472
dir@@ 86363
ulaire 86301
yn@@ 86141
Thomas 86136
illon 86118
positi@@ 86065
figur@@ 86061
quel 86061
travers@@ 85963
pri@@ 85842
kh@@ 85754
caract@@ 85659
armes 85590
27 85539
cos@@ 85503
André 85455
forte 85438
capac@@ 85380
Ur@@ 85299
issue 85297
sibil@@ 85278
clubs 85198
1993 85168
orb@@ 85137
ouvr@@ 85106
no 85030
Kar@@ 85015
28 85008
vice 84959
bé@@ 84954
ital 84930
asp@@ 84919
fici@@ 84895
bri@@ 84821
étu@@ 84757
Suisse 84744
mol@@ 84720
érique 84681
Comp@@ 84644
mp@@ 84588
ans@@ 84547
sil@@ 84471
conditions 84465
bande 84291
William 84223
canadi@@ 84210
oi 84167
provo@@ 84047
proxim@@ 84046
tro 83891
Club 83873
excep@@ 83870
contribu@@ 83842
propose 83798
popul@@ 83742
estre 83726
larg@@ 83691
bé 83624
endant 83569
em 83486
milli@@ 83420
ys@@ 83384
Plus 83358
Commun@@ 83261
phon@@ 83231
presse 83098
aill@@ 83047
pron@@ 83043
K 82910
éal 82908
bibli@@ 82714
000 82688
aces 82681
police 82656
onal 82619
influence 82580
ici 82574
air@@ 82544
batt@@ 82516
gestion 82499
ande 82432
succ@@ 82428
vel@@ 82375
anie 82364
1975 82339
mus@@ 82317
Ag@@ 82306
paro@@ 82304
pre@@ 82253
alg@@ 82233
onnat 82215
entale 82185
dol@@ 82141
1988 82140
attr@@ 82135
Mas@@ 82109
ives 82098
ids 82084
Mac@@ 82032
bran@@ 82015
onym@@ 81984
deur 81982
Vil@@ 81965
eil@@ 81818
recu@@ 81669
1971 81624
xième 81604
music@@ 81580
cla@@ 81577
pierre 81565
aves 81554
Ben@@ 81485
comple@@ 81420
sexu@@ 81420
commerce 81410
Cam@@ 81374
Institut 81371
tab@@ 81367
pend@@ 81360
firme 81239
zi@@ 81213
Pol@@ 81195
ball 81121
concep@@ 81058
ût 81054
piè@@ 80955
Tri@@ 80916
four@@ 80872
union 80864
ani 80856
auto@@ 80853
ro 80805
ly 80720
types 80698
ap 80678
circul@@ 80596
Claude 80591
ow@@ 80588
umi@@ 80560
Er@@ 80523
protection 80446
ault 80408
Bas 80364
mot 80360
employ@@ 80318
Can@@ 80272
atin 80264
but@@ 80200
front@@ 80184
appel 80130
pologie 80116
certain 80051
ca 80010
Kr@@ 79949
nomin@@ 79937
asti@@ 79855
arrondissement 79707
Académie 79678
ape 79670
Ou@@ 79659
tron@@ 79637
relations 79560
vit 79515
prince 79479
ute 79470
her@@ 79454
syst@@ 79374
dial 79362
second@@ 79354
ho@@ 79299
prati@@ 79205
aliment@@ 79111
major 79093
médic@@ 79059
James 78958
tion@@ 78900
Des@@ 78889
pole 78875
nature 78859
ks 78827
von 78759
om 78752
struc@@ 78748
ł@@ 78729
mit@@ 78603
Entre 78552
Ste@@ 78548
principales 78529
George 78410
sim@@ 78397
abr@@ 78343
cel@@ 78273
ira 78258
bat 78150
tan@@ 78094
ache 78041
q 77929
ophie 77878
continue 77752
structure 77741
sti@@ 77717
rive 77706
via 77617
fen@@ 77606
commerci@@ 77582
ume 77571
terr@@ 77529
lis 77388
rur@@ 77353
1989 77336
monuments 77220
Loire 77114
tend 77081
contempor@@ 77014
Inter@@ 76969
mode 76841
by 76827
ea 76823
ric 76797
rend@@ 76732
Nicolas 76702
este 76692
70 76628
Sav@@ 76569
oblig@@ 76536
çon 76527
Juli@@ 76476
éra 76418
lec@@ 76412
parents 76397
vend@@ 76377
progres@@ 76370
arrive 76259
put@@ 76128
instrum@@ 76076
ari 76036
uch@@ 75997
vas@@ 75857
za 75798
Sar@@ 75721
dist@@ 75713
Lyon 75702
Cel@@ 75610
conv@@ 75599
Bl@@ 75588
ect 75576
veau 75449
artisti@@ 75363
ong 75298
Premier 75295
rup@@ 75285
disput@@ 75222
pied 75203
ena 75199
div@@ 75192
amment 75117
ind@@ 75108
internation@@ 75087
mir@@ 75055
former 75049
jard@@ 74943
diam@@ 74812
uk@@ 74761
den 74726
29 74607
minutes 74607
bul@@ 74506
ars 74418
gence 74411
ordin@@ 74403
Sou@@ 74310
alle 74237
phase 74228
adapt@@ 74122
question 74109
del 74105
times 74096
figure 74089
opsis 74001
moderne 73995
uy@@ 73862
Moy@@ 73850
ura 73696
solution 73659
camp@@ 73622
ui 73559
liber@@ 73513
cent@@ 73490
usse 73430
phe 73407
nouv@@ 73361
garde 73338
ke 73326
wi@@ 73285
transport 73271
Pas@@ 73223
ept@@ 73181
3,@@ 73127
Hu@@ 73043
rien 73041
techniques 73016
cartes 73001
0@@ 72997
arriv@@ 72919
ouverneur 72907
ani@@ 72869
conc@@ 72868
Berlin 72831
pat@@ 72816
Fé@@ 72684
cab@@ 72677
individ@@ 72630
ex 72574
Cour@@ 72501
At@@ 72455
Bat@@ 72401
tradu@@ 72381
ser 72376
enci@@ 72310
vot@@ 72303
camp 72291
mée 72249
influ@@ 72180
abe 72169
mina 72164
je 72123
cant@@ 72098
quot@@ 72062
Richard 71959
usage 71875
all 71821
ble@@ 71798
ó@@ 71797
ye@@ 71784
iture 71779
ague 71774
mal 71760
ares 71745
aî@@ 71689
har@@ 71660
actr@@ 71637
cycl@@ 71573
Lib@@ 71541
Ni@@ 71530
lot 71435
Montr@@ 71370
Ori@@ 71314
ae 71252
docum@@ 71143
1986 71134
quar@@ 71054
gre@@ 70936
vir@@ 70899
mun@@ 70864
manifest@@ 70813
derni@@ 70737
abor@@ 70731
flu@@ 70566
Bon@@ 70525
Association 70434
Blan@@ 70407
dig@@ 70374
divis@@ 70337
strat@@ 70323
Peti@@ 70211
super@@ 70172
agno@@ 70133
yc@@ 70117
forc@@ 70034
dispos@@ 69994
endra 69971
31 69968
maxim@@ 69942
spec@@ 69907
philos@@ 69893
tours 69890
ectiv@@ 69847
amo@@ 69782
quin@@ 69691
Toul@@ 69682
social 69662
programm@@ 69650
inal 69634
clo@@ 69609
Na@@ 69595
ita 69545
entation 69538
doc@@ 69494
aç@@ 69483
allem@@ 69387
za@@ 69309
collection 69286
vert 69253
Ty@@ 69243
franch@@ 69234
anni@@ 69226
curr@@ 69110
suppl@@ 69013
Ét@@ 69010
agricul@@ 68881
industrie 68862
lev@@ 68840
radi@@ 68815
Dan@@ 68782
Né@@ 68758
participation 68712
35 68700
afric@@ 68683
introdu@@ 68656
onales 68609
reli@@ 68561
ords 68539
einte 68520
cim@@ 68461
1984 68426
chem@@ 68363
umes 68287
im 68238
dot@@ 68212
ey@@ 68167
ick@@ 68033
image 68010
record 67941
tho@@ 67905
Guillaume 67886
Tar@@ 67829
const@@ 67825
Trans@@ 67802
barr@@ 67782
concentr@@ 67764
math@@ 67743
ours 67739
ogne 67687
ida 67640
respons@@ 67635
Hor@@ 67613
br 67596
placement 67568
cav@@ 67515
Sur@@ 67450
ox@@ 67449
1987 67436
sage 67430
équi@@ 67279
20@@ 67189
istre 67174
Mil@@ 66899
1985 66881
lars 66875
central 66874
don 66810
ous@@ 66800
Mex@@ 66758
lers 66747
abs@@ 66703
ry 66702
pos 66680
sites 66654
illustr@@ 66640
1930 66523
tend@@ 66521
Augus@@ 66514
monum@@ 66442
dioc@@ 66406
Fran@@ 66397
aven@@ 66390
1968 66383
âtre 66296
ativ@@ 66183
ker 66160
existence 66157
cup@@ 66130
ça 66106
Antoine 66080
bus@@ 66056
Haute 66014
Seine 65973
résult@@ 65921
lip@@ 65735
Assemb@@ 65722
circu@@ 65703
franç@@ 65659
arg@@ 65647
conqu@@ 65638
90 65582
dor@@ 65568
inten@@ 65567
single 65542
fix@@ 65528
Tor@@ 65502
1945 65393
Ann@@ 65377
neur@@ 65360
Alexandre 65340
opposition 65267
quanti@@ 65108
distinc@@ 64900
1940 64854
ds 64832
expos@@ 64822
ray@@ 64819
1982 64726
édo@@ 64715
ont@@ 64706
trib@@ 64667
lièrement 64573
th 64568
indé@@ 64551
Dame 64548
ko 64547
ty 64513
endro@@ 64505
Gil@@ 64493
Califor@@ 64484
municip@@ 64420
ots 64392
plu@@ 64381
cath@@ 64380
Sim@@ 64357
eu@@ 64341
studio 64305
ala 64289
isions 64270
National 64242
sus 64239
acle 64167
architecture 64133
Lou@@ 64128
ao 64060
Jus@@ 64040
tig@@ 63994
famili@@ 63989
Hom@@ 63986
proven@@ 63962
rep@@ 63943
Dou@@ 63880
polé@@ 63864
lit@@ 63771
tains 63675
arc@@ 63640
45 63623
Do@@ 63594
pou@@ 63577
magazine 63576
Loc@@ 63558
desc@@ 63548
famil@@ 63468
Royal 63356
org@@ 63287
Ap@@ 63285
assass@@ 63277
relation 63265
Â@@ 63256
prop@@ 63211
Ban@@ 63193
particu@@ 63174
inaugur@@ 63162
gouvern@@ 63039
Anne 62993
mann 62978
process@@ 62939
bon@@ 62885
mau@@ 62881
1983 62865
hydro@@ 62851
onde 62838
communication 62831
─ 62831
référ@@ 62813
personnel 62794
occident@@ 62660
ō 62629
anti 62615
ize 62534
Sil@@ 62523
document@@ 62508
cy@@ 62491
prison 62384
Fi@@ 62372
Nou@@ 62366
ouse 62280
Alg@@ 62276
superficie 62269
1972 62242
pér@@ 62241
Tour@@ 62174
Fré@@ 62161
mil@@ 62153
spir@@ 62151
astr@@ 62108
distance 62087
atures 62057
Notre 62001
parall@@ 61984
accep@@ 61972
ett@@ 61899
caus@@ 61881
na@@ 61845
tradition 61819
orch@@ 61796
jeun@@ 61752
mobil@@ 61705
eint 61671
El 61653
ros@@ 61613
Bernard 61514
çu 61493
radio 61490
fabri@@ 61478
Maurice 61472
ford 61443
vin 61397
Os@@ 61355
norm@@ 61354
M. 61344
crip@@ 61339
itable 61327
princi@@ 61325
agu@@ 61303
Albert 61281
itions 61234
ton@@ 61221
ek@@ 61179
Pan@@ 61120
1973 61078
label 61067
Bre@@ 61058
agent 61022
IV 61017
tefois 60993
Op@@ 60965
éo 60919
dition 60914
inclin@@ 60904
32 60887
chr@@ 60874
cam@@ 60802
eh@@ 60747
antage 60741
construc@@ 60705
odi@@ 60678
mach@@ 60647
í@@ 60634
couple 60625
Vol@@ 60611
We@@ 60606
information 60605
marine 60585
guit@@ 60495
1976 60429
ts@@ 60416
isti@@ 60379
til 60343
Sous 60341
musici@@ 60322
4,@@ 60306
bronze 60274
1979 60211
urban@@ 60205
sil 60194
Î@@ 60150
voc@@ 60121
1920 60081
1977 60065
1974 59987
importantes 59967
Thi@@ 59931
imi@@ 59909
Fre@@ 59830
enter 59806
ha 59775
fau@@ 59640
inclu@@ 59622
side 59578
uz@@ 59547
ther@@ 59532
Gé@@ 59488
als 59472
ber 59437
fos@@ 59426
responsable 59403
eure 59353
5,@@ 59293
ec 59291
ek 59285
train 59239
monte 59214
oto 59168
oux 59156
Ven@@ 59130
jo@@ 59117
dia 59107
ada 59088
nat@@ 59084
vent 59062
1978 59061
adr@@ 59045
mascul@@ 59029
propor@@ 59024
Bos@@ 58973
Pé@@ 58965
uf@@ 58936
SS 58915
protest@@ 58893
vile 58878
Cat@@ 58832
Michael 58700
prov@@ 58675
articles 58644
mani@@ 58634
Festival 58631
ja 58543
tis 58514
û 58496
Los 58464
Bri@@ 58448
q@@ 58440
fabric@@ 58424
75 58423
Cass@@ 58319
ram@@ 58285
Champ@@ 58188
bro@@ 58182
j 58163
dém@@ 58061
Mur@@ 58018
art@@ 58017
blo@@ 58010
Henry 57977
joint 57963
demand@@ 57862
Ko@@ 57762
ourg 57719
ferrovi@@ 57707
Ca@@ 57705
adap@@ 57688
Fon@@ 57668
esses 57633
Wal@@ 57619
C. 57608
ye 57577
ō@@ 57533
pa@@ 57466
simil@@ 57442
poly@@ 57418
oc 57356
prison@@ 57355
orit@@ 57319
ico 57301
justice 57230
sive 57226
Bé@@ 57215
minin 57212
Aff@@ 57171
200 57166
perman@@ 57162
atr@@ 57121
transform@@ 57114
hockey 57111
composition 56946
err@@ 56921
Ter@@ 56854
Ho@@ 56802
fru@@ 56791
mains 56787
renom@@ 56786
6,@@ 56689
vision 56624
Cin@@ 56572
lieutenant 56566
relativ@@ 56519
clim@@ 56518
tun@@ 56414
1967 56376
Marse@@ 56311
ora 56282
apo@@ 56275
act 56274
Vill@@ 56272
isi 56260
oli@@ 56244
Bro@@ 56198
nati@@ 56171
dimen@@ 56150
agr@@ 56047
alb@@ 56019
orer 55998
infan@@ 55926
nuc@@ 55912
nov@@ 55910
angers 55894
hyp@@ 55853
Aut@@ 55844
oh@@ 55842
hal@@ 55801
endem@@ 55686
commission 55616
mouv@@ 55592
sement 55587
thode 55561
erry 55560
Fo@@ 55541
comport@@ 55526
usi@@ 55526
local 55524
infr@@ 55481
bit@@ 55448
vis 55363
ilit@@ 55253
Mi@@ 55111
meil@@ 55083
La@@ 55068
33 55011
tag@@ 54983
titul@@ 54932
rugby 54866
vier 54832
villages 54825
municipal 54688
ories 54658
sk@@ 54647
ings 54637
code 54613
foot@@ 54591
Wil@@ 54547
Ra@@ 54546
score 54454
Mosco@@ 54432
Dom@@ 54410
Sam@@ 54374
commer@@ 54361
ement@@ 54345
nos 54329
traduc@@ 54302
Gau@@ 54293
ella 54250
Var@@ 54241
1969 54080
collaboration 54055
publication 54047
36 54045
Mich@@ 54040
Al 54039
Cô@@ 54016
avent@@ 54015
ust@@ 54006
š@@ 53932
fre@@ 53923
mix@@ 53893
ival@@ 53886
Dev@@ 53873
sible 53846
Esp@@ 53810
prin@@ 53809
angla@@ 53788
Ol@@ 53780
Alpes 53754
tol@@ 53753
ba 53735
ji 53694
exerc@@ 53690
auf 53606
Laurent 53594
psych@@ 53561
efs 53531
anth@@ 53526
ola 53496
Mos@@ 53443
num@@ 53431
fun@@ 53411
absol@@ 53401
emplo@@ 53358
orph@@ 53314
invent@@ 53304
hol@@ 53286
champ@@ 53213
Im@@ 53188
bi 53187
Ba@@ 53155
lon 53134
expression 53077
sent 53039
stein 52991
Kh@@ 52980
Grou@@ 52961
eth@@ 52950
NGC 52906
Hon@@ 52871
Direc@@ 52869
Ge@@ 52825
archi@@ 52824
prolong@@ 52790
otes 52747
ë@@ 52738
ali 52730
Fer@@ 52722
toire 52706
ambi@@ 52703
pp@@ 52695
rang 52660
idi 52615
festival 52611
erg@@ 52535
audi@@ 52518
combin@@ 52508
activ@@ 52502
Gir@@ 52478
bot@@ 52458
Mol@@ 52444
rock 52429
entales 52423
ier@@ 52240
agric@@ 52233
ri 52227
1964 52175
Commission 52169
Tun@@ 52161
poin@@ 52147
ez@@ 52130
W 52107
ach 52086
Sy@@ 52083
itu@@ 52055
1962 52030
Daniel 52017
Patr@@ 52002
aille 51986
yst@@ 51978
ario 51929
lob@@ 51923
note 51884
mut@@ 51867
andi@@ 51866
portes 51866
mul@@ 51849
1944 51806
respectiv@@ 51779
vote 51727
so 51659
vil@@ 51652
sport 51612
Chap@@ 51599
quet 51598
application 51567
once 51503
sen 51419
Art 51404
ster 51370
ef@@ 51354
conver@@ 51351
isol@@ 51276
1965 51185
abil@@ 51179
iterran@@ 51160
8,@@ 51156
ols 51156
ury 51136
if 51124
Fil@@ 51101
Allem@@ 51079
rej@@ 51052
Sau@@ 51021
City 51005
Ti@@ 50985
profes@@ 50952
gyp@@ 50937
pur@@ 50887
plic@@ 50853
1966 50808
senti@@ 50772
collabor@@ 50716
pes 50710
aud@@ 50680
ket 50673
musul@@ 50644
Marc 50639
isses 50635
gaz 50618
toral 50579
Un@@ 50576
discipl@@ 50564
Hy@@ 50530
bunal 50497
fili@@ 50496
eter 50484
places 50461
assist@@ 50446
Distribu@@ 50400
confi@@ 50395
Peter 50393
visi@@ 50350
trich@@ 50315
see 50291
umin@@ 50265
CA@@ 50215
alog@@ 50146
René 50145
Dis@@ 50127
Anti@@ 50070
Ha@@ 50032
rate 50014
osp@@ 50000
World 49951
promotion 49938
ibles 49855
lin 49763
Lam@@ 49717
troph@@ 49715
inet 49699
Mir@@ 49662
Sor@@ 49641
Flor@@ 49635
voire 49633
Laur@@ 49595
angle 49583
Mel@@ 49576
isine 49559
34 49553
atis@@ 49520
Hel@@ 49514
inn@@ 49504
Te@@ 49491
onie 49483
38 49463
reti@@ 49455
fis@@ 49453
sin 49424
ki@@ 49418
verg@@ 49417
Rec@@ 49396
Prov@@ 49367
Ram@@ 49365
Dor@@ 49292
Est@@ 49280
1939 49272
age@@ 49251
nit@@ 49240
assi@@ 49214
canal 49201
tific@@ 49097
Cou@@ 49071
Ru@@ 49066
lon@@ 49007
tél@@ 49001
Maria 48960
test@@ 48889
Brit@@ 48871
que@@ 48818
Sc@@ 48804
calcul@@ 48797
Amér@@ 48793
asc@@ 48791
uer 48749
my@@ 48726
Jul@@ 48701
Lang@@ 48686
Tom@@ 48685
tric@@ 48681
1958 48666
bin@@ 48655
fe 48649
od 48623
science 48605
Don@@ 48601
omb@@ 48589
Angeles 48582
Hal@@ 48574
ini@@ 48552
phone 48550
Mah@@ 48542
Chi@@ 48521
Cy@@ 48505
iger 48458
ulation 48400
Comité 48355
ok 48338
AR@@ 48334
chi 48322
ames 48306
adver@@ 48242
Land 48235
&#124; 48225
distribution 48166
raine 48155
illy 48149
elli 48124
ith 48117
ques@@ 48075
1866 48026
ul 47984
ail 47967
á 47931
fro@@ 47894
fas@@ 47889
ham@@ 47865
500 47847
ys 47845
ope 47806
diction 47798
tera 47777
fem@@ 47758
concept 47744
andes 47726
yer 47711
37 47664
nis 47653
olympi@@ 47620
Gren@@ 47584
Franc@@ 47557
princ@@ 47548
semi 47541
den@@ 47531
Lim@@ 47529
Top@@ 47520
Orig@@ 47458
progr@@ 47433
1963 47426
asi@@ 47381
Ferr@@ 47359
9,@@ 47328
illi@@ 47321
Pon@@ 47300
albums 47281
ores 47225
pand@@ 47209
Met@@ 47202
austr@@ 47180
ingu@@ 47174
due 47095
Atlan@@ 47077
portu@@ 47032
Lav@@ 47004
ili 46950
mili@@ 46939
way 46923
Nov@@ 46890
sel@@ 46849
ów 46849
ograp@@ 46788
corresp@@ 46758
Luc@@ 46726
grade 46713
ze@@ 46698
55 46666
ney 46664
ć 46598
ester 46589
âteau 46559
Ham@@ 46526
Arts 46492
dyn@@ 46492
alt@@ 46488
descend@@ 46472
gens 46463
Bu@@ 46448
ters 46443
sanc@@ 46439
65 46375
amm@@ 46354
Congr@@ 46346
Gre@@ 46340
pa 46312
ude 46290
Victor 46235
crimin@@ 46225
Dur@@ 46215
consci@@ 46173
Argent@@ 46163
rus@@ 46117
brig@@ 46058
1956 46024
Bau@@ 46022
ètres 46007
7,@@ 45960
oty@@ 45960
Liv@@ 45943
Py@@ 45926
minim@@ 45913
var@@ 45909
1914 45869
sat@@ 45840
diplom@@ 45819
table 45814
plans 45792
symb@@ 45792
post@@ 45759
Division 45735
tu 45708
ary 45683
sult@@ 45664
48 45610
J 45519
64 45499
ert 45475
85 45468
ôle 45413
sug@@ 45366
1948 45339
pris@@ 45334
ima 45292
ave 45290
42 45281
agnie 45253
International 45221
aux@@ 45216
St 45213
A. 45196
Boul@@ 45108
compens@@ 45096
frag@@ 45091
1946 44998
San@@ 44997
bras 44951
britanni@@ 44937
ori 44937
aul@@ 44927
individu@@ 44887
Reg@@ 44857
isa 44839
Washington 44796
over 44786
Chev@@ 44754
diff@@ 44727
1961 44697
č@@ 44657
oni 44648
lov@@ 44578
disponible 44498
Mun@@ 44489
Han@@ 44479
jour@@ 44471
alm@@ 44463
Isra@@ 44445
fusi@@ 44396
Val 44394
alogue 44394
Records 44337
May@@ 44287
veaux 44287
versions 44255
Culture 44251
1820 44234
oul 44207
ff 44196
aug@@ 44172
locales 44169
lard 44140
dram@@ 44139
atri@@ 44132
compéti@@ 44124
cot@@ 44061
polici@@ 44052
1959 44010
Hau@@ 44008
IG@@ 43955
tempor@@ 43929
by@@ 43902
gol@@ 43890
amer@@ 43888
J.@@ 43883
ill 43882
Ta@@ 43831
fol@@ 43806
princip@@ 43770
mess@@ 43761
Bir@@ 43757
US 43748
Gas@@ 43680
ular@@ 43632
exten@@ 43620
Gl@@ 43619
line 43597
contact 43590
van@@ 43569
Der@@ 43562
final 43561
ball@@ 43540
Van 43492
ky 43453
signific@@ 43447
ny 43444
aga 43427
los 43426
concert 43421
sum@@ 43415
ysi@@ 43377
1936 43340
1947 43291
39 43291
ato 43288
facil@@ 43267
ash@@ 43231
ona 43204
oun 43165
dici@@ 43153
usion 43100
vir 43047
religion 43035
trains 42949
José 42917
st 42857
52 42844
Chicago 42837
session 42821
flor@@ 42801
och@@ 42801
IS@@ 42778
Cap@@ 42739
Rich@@ 42736
explor@@ 42729
Moh@@ 42726
Roger 42708
Pic@@ 42690
ko@@ 42677
aly@@ 42637
cir@@ 42618
Sec@@ 42611
Coll@@ 42605
anes 42602
opp@@ 42585
bud@@ 42563
Air 42560
traf@@ 42558
dav@@ 42531
Rol@@ 42510
ectu@@ 42492
Som@@ 42478
AS@@ 42448
ack@@ 42392
honor@@ 42362
Maz@@ 42335
gros@@ 42321
xi@@ 42306
Bapti@@ 42289
las 42289
tic 42288
awa 42280
distingu@@ 42269
front 42268
migr@@ 42266
44 42235
Denis 42232
und@@ 42219
atu@@ 42216
human@@ 42163
mass@@ 42157
orité 42130
Christian 42116
temple 42082
ple 42081
sociales 42063
taines 42063
top@@ 42043
Ke@@ 41966
destruc@@ 41910
Sant@@ 41901
Situation 41874
tail 41850
cel 41811
1949 41810
adul@@ 41751
Far@@ 41712
active 41702
Vic@@ 41695
1942 41661
Portugal 41644
cus@@ 41619
partic@@ 41612
pin@@ 41612
manus@@ 41607
Il@@ 41602
1918 41578
Ob@@ 41568
ello 41568
Oli@@ 41537
Ay@@ 41530
ef 41521
franc@@ 41507
Ath@@ 41484
ive 41449
51 41443
seul@@ 41425
illi 41376
mit 41346
41 41319
retir@@ 41311
Nav@@ 41303
eci 41273
territori@@ 41265
ments 41227
cé@@ 41213
ner@@ 41201
ati 41174
oti@@ 41111
tie 41104
1957 41100
1954 41072
47 41055
IN@@ 41015
1943 41010
Pom@@ 40999
1938 40952
1955 40940
valu@@ 40932
aun@@ 40927
dro@@ 40907
und 40900
versit@@ 40896
ca@@ 40875
conom@@ 40843
kin 40821
rog@@ 40802
consiste 40801
Nic@@ 40798
Vier@@ 40786
anda 40779
simpl@@ 40758
san@@ 40743
for 40732
Rev@@ 40726
az 40724
ame@@ 40716
Camp@@ 40703
ake 40696
illa 40689
Santa 40673
oz@@ 40626
43 40602
criv@@ 40584
nation 40578
Politi@@ 40553
agon 40553
ish@@ 40548
get 40530
radic@@ 40525
Domin@@ 40512
Simon 40500
piano 40472
LC 40450
1941 40438
exter@@ 40371
mac@@ 40339
privil@@ 40292
commercial 40289
gam@@ 40265
onte 40220
cycle 40203
bili@@ 40148
72 40115
auff@@ 40110
Hab@@ 40077
sang 40046
bomb@@ 40038
itz 40007
Rap@@ 39972
field 39934
ort 39883
rig@@ 39819
istr@@ 39813
ere 39805
1952 39767
ony@@ 39764
XV 39758
doctor@@ 39726
68 39720
Ord@@ 39680
annes 39648
original 39626
aint 39625
rot@@ 39625
kl@@ 39563
Madrid 39540
ions 39523
ution 39499
ciné@@ 39468
Dar@@ 39464
ck 39444
consult@@ 39438
Radio 39408
igner 39406
ix@@ 39395
56 39393
ific@@ 39392
manuel 39378
Men@@ 39351
1953 39298
of@@ 39287
Jac@@ 39280
Fam@@ 39279
My@@ 39268
Œ@@ 39229
2022 39222
88 39221
College 39183
yle 39169
League 39153
atom@@ 39109
coloni@@ 39087
53 39079
Cur@@ 39054
dal@@ 39053
êque 39017
volume 39006
ron@@ 38985
Eug@@ 38925
ero 38903
ington 38891
Nations 38880
cent 38806
Park 38802
ā@@ 38762
artiller@@ 38739
enz@@ 38704
indic@@ 38651
royal 38637
Ul@@ 38623
mond 38606
Not@@ 38566
Catherine 38523
ess 38523
66 38504
yg@@ 38501
asi 38485
1937 38462
direct 38449
Neu@@ 38425
gh@@ 38419
Bibli@@ 38417
AC 38413
ras@@ 38405
quarti@@ 38403
orig@@ 38377
chaî@@ 38373
tempér@@ 38366
emi 38307
Milan 38276
pati@@ 38252
46 38185
atre 38129
Blo@@ 38126
58 38103
ih@@ 38073
Mot@@ 38039
wa 37989
63 37986
54 37971
hi 37949
commen@@ 37933
ose 37933
transfer@@ 37910
symbol@@ 37905
national@@ 37888
1933 37866
J. 37833
Bol@@ 37825
49 37817
Marine 37807
cal 37807
gende 37797
cy 37794
fiction 37734
encour@@ 37724
ung 37695
RA@@ 37630
ties 37630
eds 37617
dynam@@ 37613
Math@@ 37596
1919 37590
62 37589
ics 37577
Bul@@ 37569
terres@@ 37557
lis@@ 37520
Constitu@@ 37512
erre@@ 37489
Aus@@ 37472
Pau@@ 37439
77 37413
Arthur 37377
61 37376
univers@@ 37370
trop@@ 37349
administrative 37287
relati@@ 37268
ium 37259
ective 37207
dy 37200
Gor@@ 37191
1951 37183
Bil@@ 37180
visit@@ 37151
performance 37145
ical 37129
86 37101
simul@@ 37054
estr@@ 37025
onds 37025
requ@@ 37024
vig@@ 37015
ologies 37010
57 36996
ban 36995
cultiv@@ 36983
Gro@@ 36980
Christ@@ 36976
Rus@@ 36946
agin@@ 36939
ensis 36932
Eng@@ 36927
War@@ 36908
Barcel@@ 36905
1935 36858
lac@@ 36829
uli@@ 36815
78 36809
67 36753
Vincent 36749
Christ 36743
ä@@ 36742
Mit@@ 36736
sour@@ 36729
tax@@ 36716
dispon@@ 36707
Norman@@ 36683
ES@@ 36678
Administration 36661
ten 36660
Vall@@ 36560
chron@@ 36528
Occ@@ 36526
ilien 36493
forts 36476
Luci@@ 36469
ister 36467
Ly@@ 36463
autonom@@ 36443
Pa@@ 36423
harmon@@ 36380
59 36368
Bay@@ 36299
Lar@@ 36296
SN@@ 36293
Francisco 36279
stations 36199
CD 36187
Carol@@ 36175
gien 36160
dos 36156
Lie@@ 36118
76 36107
enses 36092
relev@@ 36092
instruc@@ 36088
ev 36004
param@@ 36001
ack 35939
join@@ 35939
74 35881
1929 35878
mos@@ 35830
Arch@@ 35818
Organisation 35779
ash 35770
vet@@ 35754
statisti@@ 35738
zo 35724
ock@@ 35701
Af@@ 35688
arri@@ 35682
lab@@ 35676
vor@@ 35660
95 35655
patri@@ 35653
1934 35648
87 35633
84 35632
phil@@ 35579
mine 35578
éné@@ 35578
juni@@ 35564
CO@@ 35554
distribu@@ 35517
ga 35514
Ker@@ 35496
UR@@ 35488
Lin@@ 35485
aka 35436
surviv@@ 35420
Ot@@ 35419
ito 35309
haus@@ 35304
classes 35235
eta 35232
rais 35224
1932 35222
laborat@@ 35208
Hug@@ 35200
ón 35199
300 35193
troit 35182
dier 35170
├ 35164
rut@@ 35156
AD@@ 35148
moder@@ 35129
we@@ 35109
exper@@ 35096
1900 35075
Maur@@ 35069
ab 35030
Indi@@ 35022
gran@@ 35022
ke@@ 35021
Service 35005
Nati@@ 34988
Aur@@ 34960
mans 34939
Disney 34894
adol@@ 34878
temp@@ 34860
Mes@@ 34837
septi@@ 34822
ado 34821
AS 34819
âte@@ 34806
cha 34799
con 34781
vern@@ 34757
82 34756
venue 34751
ament 34745
Mul@@ 34744
men 34730
musical 34720
explic@@ 34719
sk 34718
Patrick 34662
Lit@@ 34646
ua 34641
bit 34640
Rel@@ 34636
Lev@@ 34633
dium 34627
orial 34616
captur@@ 34614
ory 34608
71 34607
grap@@ 34600
Brun@@ 34595
ova 34563
hydr@@ 34546
eo 34543
jum@@ 34526
dres@@ 34524
astronom@@ 34523
sab@@ 34518
bach 34489
1928 34483
83 34483
servat@@ 34475
ost@@ 34453
Cre@@ 34452
abl@@ 34433
avier 34418
81 34380
ON@@ 34341
Smith 34340
oration 34296
alp@@ 34290
tam@@ 34274
School 34271
ator@@ 34260
400 34205
cus 34184
format 34155
Ci@@ 34149
Syst@@ 34142
rang@@ 34128
race 34100
extra@@ 34086
sition 34081
1924 34072
attention 34045
hist@@ 34021
Uni@@ 33963
73 33958
1910 33955
PS 33918
aceae 33913
Guy 33905
una 33898
TV 33886
69 33877
ges@@ 33870
itch 33828
ila 33826
aki 33822
old 33813
embar@@ 33781
cru@@ 33767
ham 33765
Juan 33724
án 33712
Land@@ 33708
fam@@ 33672
cut@@ 33658
Pot@@ 33657
ark 33615
Comm@@ 33596
Luxemb@@ 33563
naz@@ 33503
san 33468
Bern@@ 33466
Port 33463
enni@@ 33420
Vie@@ 33415
Prot@@ 33386
SC 33376
bu 33369
dos@@ 33352
grad@@ 33323
intér@@ 33323
qua 33307
net 33305
acu@@ 33298
usa 33282
Den@@ 33280
modern@@ 33274
Pres@@ 33254
ron 33251
01 33237
Pin@@ 33214
lion 33194
len@@ 33165
Let@@ 33163
Antonio 33157
Pap@@ 33132
Lan@@ 33117
Wor@@ 33106
venti@@ 33106
ling 33093
alternati@@ 33087
1870 33082
Super 33076
Music 33057
orn@@ 33046
CE@@ 33029
sel 33027
prol@@ 33019
uri@@ 33011
Tokyo 33010
New@@ 32997
ects 32987
ian 32975
Ari@@ 32934
performances 32927
ident@@ 32895
loy@@ 32888
cens@@ 32853
invas@@ 32850
ung@@ 32737
1925 32679
kar@@ 32653
79 32647
lor@@ 32604
Cla@@ 32601
entin 32595
ingen 32555
nou@@ 32538
bli@@ 32525
endi@@ 32490
mondi@@ 32484
phy@@ 32466
endr@@ 32463
Arn@@ 32444
Rem@@ 32418
spé@@ 32418
1912 32415
aro 32385
civil 32328
ament@@ 32324
Raymond 32323
1931 32303
suspen@@ 32271
Eur@@ 32234
mur@@ 32205
bom@@ 32203
oll@@ 32187
arab@@ 32185
visible 32180
CN@@ 32064
ief 32063
atten@@ 32059
intr@@ 32057
Barr@@ 32030
Kir@@ 32022
rain@@ 32002
anger@@ 31988
suc@@ 31984
SA 31956
comment@@ 31952
Wat@@ 31942
Doc@@ 31928
Bab@@ 31918
Jos@@ 31906
conclu@@ 31904
idente 31904
onom@@ 31899
Sab@@ 31894
ald 31880
ses@@ 31878
pier@@ 31861
aile 31830
ander 31808
sing@@ 31808
dan 31786
30@@ 31744
ene 31706
Tre@@ 31700
Cu@@ 31643
Az@@ 31641
Lab@@ 31631
Paci@@ 31627
solo 31616
lus 31613
tus 31606
Texas 31558
Population 31545
Lee 31537
Max 31529
Gol@@ 31504
tec@@ 31492
1921 31453
zi 31413
1926 31409
Trav@@ 31404
United 31382
tin@@ 31369
ortho@@ 31350
Ukraine 31349
applic@@ 31340
Ali@@ 31321
Alfred 31308
vac@@ 31249
1922 31246
atmos@@ 31234
Dem@@ 31217
FI@@ 31207
ele 31200
atur@@ 31188
West 31183
yn 31167
Hen@@ 31153
AC@@ 31152
Fort 31118
consol@@ 31075
aco 31074
tari@@ 31043
alco@@ 31023
American 31020
can 31016
PC@@ 30993
canc@@ 30990
Fri@@ 30964
Jan@@ 30959
Bes@@ 30883
Football 30871
Super@@ 30860
illet 30852
All@@ 30840
aim@@ 30840
qualif@@ 30832
Tib@@ 30809
Saison 30803
Ben 30780
Jack 30763
Fab@@ 30731
Mary 30724
Wi@@ 30717
alition 30697
Force 30668
Lac@@ 30656
mile 30640
ock 30640
mic@@ 30620
Hil@@ 30619
enta 30587
92 30585
Int@@ 30549
dez 30545
Mass@@ 30541
Tal@@ 30533
1917 30505
nam@@ 30482
Plan@@ 30464
bloc@@ 30462
ord 30457
Tom 30456
Louise 30454
âce 30454
micro@@ 30419
zo@@ 30419
99 30410
tile 30409
sw@@ 30388
* 30387
1927 30386
mig@@ 30372
Wo@@ 30351
zy@@ 30326
gul@@ 30308
Hav@@ 30299
ik 30268
sam@@ 30263
B. 30252
Internet 30237
CF 30236
sis 30236
insec@@ 30215
Pat@@ 30177
matr@@ 30173
compil@@ 30170
tac@@ 30166
Ern@@ 30158
Roy@@ 30144
blin 30139
ciales 30134
da@@ 30106
po 30092
amin@@ 30091
drome 30083
seud@@ 30042
cial 30037
Buc@@ 30025
ech 30022
shire 29976
iy@@ 29963
Nap@@ 29960
office 29958
Rot@@ 29954
ö@@ 29952
voi 29947
lia 29933
Rio 29931
Gabriel 29922
mon 29916
Dro@@ 29878
asse@@ 29869
nel 29844
ech@@ 29839
parts 29832
versi@@ 29823
28@@ 29786
Fe@@ 29767
animal 29763
Cir@@ 29762
esta 29757
fig@@ 29738
go 29737
off 29735
ancy 29707
rar@@ 29706
Francis 29693
pre 29686
Christoph@@ 29669
pom@@ 29667
Sk@@ 29637
popular@@ 29629
í 29608
Kon@@ 29606
Sand@@ 29594
heim 29593
gen 29592
sar@@ 29591
pic@@ 29566
1923 29565
Black 29563
olo 29517
On@@ 29499
got@@ 29497
ologne 29463
Tak@@ 29450
Hum@@ 29422
million 29413
estig@@ 29387
well 29356
finales 29345
Kal@@ 29339
alien 29335
trol@@ 29331
vey 29329
iert 29305
grave 29271
usalem 29270
din@@ 29255
Bass@@ 29247
FF 29228
Frank 29221
Les@@ 29215
Nar@@ 29209
tori@@ 29208
96 29195
Mark 29191
VI 29179
ref 29159
alter@@ 29145
Mau@@ 29142
philosoph@@ 29141
oma 29131
win 29110
89 29099
primer 29096
ava 29076
RE@@ 29062
ett 29058
Cab@@ 29054
jazz 29033
oud 29018
sir@@ 29016
ums 29010
Kat@@ 29009
flan@@ 29007
Jam@@ 28993
Constant@@ 28986
West@@ 28963
SA@@ 28961
ota 28961
criti@@ 28944
ever 28926
Mik@@ 28923
isra@@ 28900
Roc@@ 28861
Nu@@ 28841
agog@@ 28814
asser 28814
horiz@@ 28803
Fa@@ 28793
bac@@ 28790
Syl@@ 28775
tor 28770
embre 28765
18@@ 28750
29@@ 28742
Z 28734
Bran@@ 28727
berg@@ 28720
Journal 28707
02 28693
Cham@@ 28687
1913 28686
satis@@ 28684
uni 28684
Adri@@ 28683
00@@ 28653
correc@@ 28636
rey 28635
les@@ 28606
Isab@@ 28597
aches 28565
aujour@@ 28553
Form@@ 28542
dh@@ 28541
exclusiv@@ 28535
ogr@@ 28517
Edward 28514
1905 28493
07 28486
Hall 28481
gor@@ 28480
tér@@ 28480
05 28472
Alexand@@ 28441
gio 28439
let 28421
yd@@ 28419
Liber@@ 28409
Rab@@ 28408
iner 28402
ight 28384
agon@@ 28379
24@@ 28374
lav@@ 28321
1911 28312
US@@ 28283
anz@@ 28279
rez 28267
CI@@ 28244
propag@@ 28239
portr@@ 28212
standard 28202
inger 28184
Star 28179
Vir@@ 28173
ei 28173
acre 28151
AN@@ 28138
Red 28101
bau@@ 28100
ax 28096
Prince 28092
25@@ 28061
lave 28056
burg 28053
Cav@@ 28020
Et@@ 28010
Lord 27976
Sw@@ 27943
list@@ 27928
maç@@ 27928
04 27897
Ing@@ 27886
amen 27885
Lis@@ 27862
bases 27859
firm@@ 27851
leader 27815
impres@@ 27791
far@@ 27782
aya 27748
dri@@ 27748
Agr@@ 27732
pun@@ 27731
Son@@ 27665
ado@@ 27662
introduc@@ 27640
Long@@ 27638
93 27596
vec@@ 27592
Phil@@ 27591
Sic@@ 27552
ine@@ 27549
bos@@ 27547
chor@@ 27545
Ig@@ 27514
Company 27476
min 27404
amen@@ 27396
serie 27395
Sel@@ 27378
Congo 27319
embr@@ 27309
Ak@@ 27306
op 27292
che@@ 27285
Gran@@ 27281
oli 27260
98 27259
1908 27255
Ind@@ 27238
sul@@ 27233
adj@@ 27229
Kam@@ 27202
itage 27200
unit 27186
Scott 27180
expan@@ 27178
chen@@ 27135
Pri@@ 27132
consist@@ 27119
Dav@@ 27102
low 27100
intel@@ 27084
Mand@@ 27083
Fac@@ 27079
rad@@ 27078
nh@@ 27063
cyc@@ 27059
Hir@@ 27053
osph@@ 27046
Dj@@ 27040
Eu@@ 27032
imb@@ 27016
Arab@@ 27001
08 26998
Sig@@ 26991
bol@@ 26968
ensive 26963
Sen@@ 26958
sang@@ 26941
Sac@@ 26938
King 26924
etti 26918
Rad@@ 26874
Kor@@ 26856
Fal@@ 26849
Dam@@ 26833
vul@@ 26832
Iran 26822
ist 26821
06 26809
OS 26801
acher 26791
# 26789
fal@@ 26788
uf 26782
Cos@@ 26779
Olympi@@ 26776
Sain@@ 26766
ass 26755
Plat@@ 26750
Person@@ 26747
confirm@@ 26728
Pre@@ 26723
mo 26697
cho 26673
oa 26667
ministr@@ 26659
jan 26652
Open 26630
ø@@ 26616
clav@@ 26607
absor@@ 26604
03 26600
four 26595
Anna 26539
Nom@@ 26523
ity 26521
test 26479
.. 26455
Abr@@ 26438
Vit@@ 26422
ando 26421
Walter 26420
DVD 26415
ud 26395
cost@@ 26388
heb@@ 26364
09 26354
occas@@ 26345
Karl 26318
Y 26310
Dol@@ 26309
eth 26299
IE@@ 26288
Situ@@ 26272
EP 26263
Sul@@ 26256
150 26254
97 26251
ther 26243
tropolit@@ 26229
eri 26193
pis@@ 26184
Boston 26178
innov@@ 26168
91 26162
RC 26161
\ 26158
But@@ 26147
lies 26145
Lig@@ 26142
aver@@ 26128
efforts 26087
Street 26066
abol@@ 26060
fera 26053
Pen@@ 26050
sym@@ 26041
94 26040
Dre@@ 26038
baseball 26030
subst@@ 26022
aph@@ 25985
the@@ 25923
afé 25906
ius 25888
1906 25873
1880 25868
comment 25862
sent@@ 25854
Vel@@ 25841
communic@@ 25836
Mu@@ 25831
26@@ 25819
Win@@ 25791
atus 25791
han 25779
igh@@ 25765
Bot@@ 25750
Ford 25749
19@@ 25730
TA 25717
Cop@@ 25700
Ev@@ 25677
Jones 25670
iro 25640
Capit@@ 25623
Clar@@ 25619
Front 25606
recens@@ 25592
edi 25585
cht@@ 25583
Rob@@ 25577
sports 25573
terror@@ 25569
Tol@@ 25558
1907 25530
vière 25491
Red@@ 25459
changes 25401
Guin@@ 25375
cum@@ 25349
plas@@ 25338
osa 25327
allo 25321
Lec@@ 25291
cm 25284
Bow@@ 25281
ath 25256
mm 25253
Sour@@ 25249
Q 25246
mar 25206
Tim@@ 25183
Dau@@ 25167
expres@@ 25161
hie 25146
ji@@ 25139
ika 25129
Conn@@ 25111
Tam@@ 25079
alim@@ 25069
ago@@ 25020
fur@@ 25019
ark@@ 25017
Sm@@ 25011
mente 24998
tern@@ 24985
Mis@@ 24969
ficie 24964
Fle@@ 24953
Tu@@ 24944
wood 24937
Victoria 24925
Ali 24924
aham 24887
Cot@@ 24871
ouver 24847
quer@@ 24846
approxim@@ 24844
PC 24838
Awards 24836
1904 24831
Slov@@ 24823
Dal@@ 24810
nch@@ 24786
ases 24776
1901 24775
Alb@@ 24771
UC@@ 24771
1915 24755
Sin@@ 24744
Alex@@ 24736
Manuel 24734
kin@@ 24731
los@@ 24721
rab@@ 24710
hon@@ 24707
Pier@@ 24705
Fu@@ 24693
cu 24692
red@@ 24663
IC@@ 24659
Pel@@ 24637
Log@@ 24634
lan 24620
ny@@ 24575
Adam 24570
Williams 24567
Don 24565
assistant 24561
1860 24535
stell@@ 24516
val 24491
vide 24483
poss@@ 24474
1890 24466
andi 24461
ston 24449
pers@@ 24443
otr@@ 24387
Ferdinand 24363
dres 24340
ener 24336
Man 24316
AR 24313
apos@@ 24304
view 24292
dil@@ 24286
fes@@ 24279
Carlos 24271
Ric@@ 24267
Corn@@ 24265
ster@@ 24244
P. 24239
ende 24226
etta 24208
ulu 24203
dies 24201
Mak@@ 24196
1909 24171
fich@@ 24156
ip@@ 24151
Kn@@ 24148
Lag@@ 24144
Ka@@ 24120
Chem@@ 24116
Ł@@ 24102
bile 24081
Joe 24041
Cast@@ 24031
Sir 24030
Rod@@ 24028
pros@@ 24016
Ga@@ 24006
Sem@@ 24004
Nat@@ 23994
Alexander 23993
fort@@ 23988
AP@@ 23986
ion@@ 23973
Giovanni 23957
rique 23925
Ach@@ 23918
incorpor@@ 23904
ú@@ 23897
MS 23879
pes@@ 23878
Society 23876
pit@@ 23867
1916 23860
gn@@ 23855
cio 23852
Leg@@ 23848
RT@@ 23846
ann 23839
ffe 23824
dis 23814
XIII 23797
acts 23756
S. 23749
uri 23739
Maj@@ 23736
ople 23727
Tit@@ 23715
Lem@@ 23659
villa 23647
ku@@ 23644
Hans 23639
Love 23634
CA 23615
festiv@@ 23610
apar@@ 23607
bury 23589
Pav@@ 23583
Sing@@ 23573
len 23564
aper@@ 23562
Acc@@ 23554
astron@@ 23551
Samuel 23540
ew@@ 23493
pop 23492
virus 23481
Archit@@ 23459
1848 23429
NBA 23422
ustr@@ 23359
confl@@ 23358
wan 23356
hand@@ 23335
Mid@@ 23320
Arg@@ 23311
set 23300
Carl 23292
raf@@ 23283
tige 23282
bis@@ 23274
eppe 23261
lés 23243
mam@@ 23239
unk@@ 23236
oy 23201
SP@@ 23162
print 23136
Johnson 23090
ven 23086
occ@@ 23084
Ky@@ 23066
TE@@ 23048
ander@@ 23039
Cul@@ 23038
jo 23016
tain@@ 23010
istan 23009
uter 23001
1902 22968
ible 22965
1.@@ 22964
post 22957
rain 22933
Toronto 22930
ço@@ 22921
Virgin@@ 22909
çoit 22908
FA 22895
RS 22876
Hay@@ 22861
sky 22833
sid@@ 22824
Mic@@ 22819
Wall@@ 22797
Dun@@ 22796
quier 22792
1830 22782
Vis@@ 22773
indig@@ 22769
Jan 22761
lun@@ 22736
éroï@@ 22736
Ontario 22710
Amsterdam 22708
R. 22708
bo 22694
Wol@@ 22683
inj@@ 22676
Kan@@ 22674
Mach@@ 22673
itr@@ 22667
fa 22665
L. 22659
we 22659
VII 22658
Racing 22628
ū@@ 22626
top 22599
carr@@ 22597
Brown 22573
1903 22572
hr@@ 22564
Spr@@ 22553
itz@@ 22537
gaz@@ 22528
Off@@ 22527
opo@@ 22523
non@@ 22516
Ki@@ 22511
Tem@@ 22492
ee 22473
Cant@@ 22455
Da@@ 22439
Alliance 22432
All 22422
lus@@ 22400
Hill 22396
manif@@ 22395
seu@@ 22391
opin@@ 22388
SE@@ 22382
Boh@@ 22365
Kong 22361
tru@@ 22352
Air@@ 22347
anime 22333
polis 22325
DC 22324
my 22324
Herz@@ 22321
hen@@ 22320
capital 22317
refl@@ 22303
Kur@@ 22302
D. 22291
eton 22289
Stan@@ 22285
ese 22284
Dum@@ 22277
Fol@@ 22266
ardo 22258
CD@@ 22254
Trin@@ 22252
Temple 22247
Ku@@ 22245
Cup 22216
trag@@ 22197
mb@@ 22180
AM@@ 22178
Mart@@ 22163
Bill 22160
Cri@@ 22153
Cad@@ 22151
gri@@ 22136
Donald 22128
Jackson 22119
gel@@ 22119
presti@@ 22106
eck 22083
Harry 22070
White 22069
Ard@@ 22066
Mars 22065
Chris 22064
Sus@@ 22059
ouvern@@ 22052
She@@ 22016
web 22004
tap@@ 21993
aus 21982
ish 21977
cia 21966
Kin@@ 21951
Four@@ 21942
vera 21939
bin 21937
Kos@@ 21935
dio 21934
Kl@@ 21911
E. 21887
adémie 21877
Navy 21848
rh@@ 21845
dial@@ 21841
Bag@@ 21840
sag@@ 21820
Stu@@ 21803
Frances@@ 21799
mexic@@ 21787
Bruno 21783
PS@@ 21768
Tan@@ 21752
provin@@ 21750
obst@@ 21739
ę@@ 21732
Rose 21717
Tony 21712
distr@@ 21711
stati@@ 21703
yes 21671
arron@@ 21659
mom@@ 21656
House 21653
Van@@ 21651
narr@@ 21651
ë 21650
27@@ 21644
Suz@@ 21643
Martin@@ 21641
cide 21639
Publ@@ 21628
Sher@@ 21628
1793 21608
ost 21606
bal 21601
arist@@ 21590
modific@@ 21575
onna 21574
ications 21554
tradi@@ 21554
Field 21553
Infr@@ 21532
sey 21523
Pir@@ 21519
stan@@ 21515
ago 21498
aft 21496
1898 21491
urg 21476
hosp@@ 21451
Museum 21448
tang@@ 21426
Mill@@ 21425
conduc@@ 21425
Europ@@ 21410
Fas@@ 21402
Rock 21397
nas@@ 21391
1871 21374
AN 21374
Nag@@ 21364
Team 21350
Big 21335
Lau@@ 21334
Mike 21330
has@@ 21302
ão 21291
Ash@@ 21287
enberg 21266
Brig@@ 21250
Maine 21236
Tran@@ 21232
You 21231
Pit@@ 21229
abeth 21224
Natur@@ 21220
Ball@@ 21205
Sport 21195
Young 21183
stitu@@ 21172
enger 21167
king 21165
Steve 21159
did@@ 21156
Canal 21138
tiles 21137
Gh@@ 21133
lines 21127
seg@@ 21124
Max@@ 21123
Sho@@ 21113
Production 21101
One 21093
ast 21086
Bell@@ 21065
Res@@ 21065
Orch@@ 21052
Sports 21052
1896 21040
agan 21040
IX 21028
Ret@@ 21022
proces@@ 21017
tut@@ 21016
14,@@ 21008
Shi@@ 20994
amor@@ 20981
Pass@@ 20972
syl@@ 20960
naval 20950
bun@@ 20949
studi@@ 20941
Hong 20932
pion@@ 20925
Seg@@ 20901
11@@ 20899
Top 20897
cen@@ 20888
ovo 20875
ube 20863
ista 20848
Jar@@ 20837
Bob 20834
Code 20815
Bulgar@@ 20796
gau@@ 20793
Jer@@ 20781
diz@@ 20766
fres@@ 20764
Sz@@ 20754
path@@ 20754
kr@@ 20743
ns 20725
1889 20709
house 20702
DA 20685
Imp@@ 20670
Chal@@ 20661
CS@@ 20653
Pro 20644
Lincoln 20635
ř@@ 20632
vo 20628
uh@@ 20622
Cher@@ 20586
neutr@@ 20575
Ober@@ 20569
Charlotte 20562
Blu@@ 20559
eim 20556
vet 20541
Nam@@ 20535
ž@@ 20519
Cle@@ 20515
vill@@ 20510
ín 20506
Lot@@ 20495
ust 20489
din 20483
Soc@@ 20480
UN@@ 20457
osaur@@ 20456
eld 20449
internet 20448
alla 20441
Johann 20430
ask@@ 20428
1895 20423
ray 20421
Sto@@ 20419
Leon@@ 20418
Pad@@ 20406
Eric 20404
ken@@ 20404
Award 20400
AT@@ 20390
Bus@@ 20368
argum@@ 20368
uck 20359
fantas@@ 20357
bs 20349
hibi@@ 20346
isl@@ 20345
North 20339
ding 20334
Bak@@ 20332
ister@@ 20330
erte 20323
Bres@@ 20320
han@@ 20313
{ 20281
ensi@@ 20280
└ 20266
1850 20256
Mem@@ 20255
leg@@ 20229
ligence 20226
Lom@@ 20224
× 20205
Deb@@ 20204
$ 20190
ras 20185
Ble@@ 20180
cog@@ 20179
ologi@@ 20163
aria 20154
lu 20135
bar 20134
ST@@ 20126
occidental 20124
Diego 20103
Miss 20089
Lanc@@ 20043
Post@@ 20041
asa 20036
Star@@ 20035
Joh@@ 20029
H. 20024
Route 20011
urt 20008
1885 20005
1899 20004
Mario 19995
conform@@ 19994
support 19991
600 19988
Med@@ 19960
Kol@@ 19928
ho 19907
graph@@ 19883
dra@@ 19882
Group 19877
ning 19865
Island 19863
Tel@@ 19855
evi@@ 19847
onia 19844
Bla@@ 19832
ons@@ 19814
lara 19813
elin 19806
Benjamin 19805
Whit@@ 19800
Eff@@ 19797
ris 19795
portation 19788
ader 19784
Lat@@ 19783
ebr@@ 19782
enter@@ 19776
ü@@ 19776
Gab@@ 19773
islat@@ 19756
over@@ 19749
Castil@@ 19712
800 19709
aum@@ 19698
rol@@ 19695
future 19691
Bob@@ 19683
1893 19682
“ 19668
matches 19666
aw 19662
1897 19649
eron 19637
Ib@@ 19635
ause 19629
Elizabeth 19605
Center 19599
idge 19598
MA 19584
kilom@@ 19573
G. 19567
ska 19563
Friedrich 19522
metal 19502
13,@@ 19486
net@@ 19466
dir 19459
minute 19459
Hamilton 19439
Princip@@ 19437
Carlo 19431
eller 19424
wan@@ 19422
Alice 19379
isième 19365
virtu@@ 19355
diagn@@ 19350
eva 19344
Tab@@ 19324
emble 19321
rates 19319
lad@@ 19294
Centr@@ 19287
Luis 19282
ism@@ 19277
eng 19273
A.@@ 19268
DE@@ 19267
gi 19256
zant@@ 19253
Alber@@ 19251
Hitler 19245
CH@@ 19243
mad@@ 19243
Dec@@ 19229
tia 19225
thiop@@ 19222
war@@ 19215
ket@@ 19203
Office 19189
Classi@@ 19184
paci@@ 19162
clus@@ 19155
Point 19144
Alli@@ 19143
1867 19138
Fern@@ 19136
Hugo 19121
Prom@@ 19074
1790 19061
Gusta@@ 19061
Sciences 19056
enl@@ 19028
thr@@ 19028
Place 19023
omp@@ 18993
Bah@@ 18981
onge@@ 18963
Chin@@ 18951
pro 18946
Justice 18944
Mod@@ 18924
arrang@@ 18923
Riv@@ 18916
mini 18904
vent@@ 18903
ft 18896
alis 18881
Gra@@ 18877
Fig@@ 18875
tum@@ 18875
sibl@@ 18846
ER@@ 18837
12,@@ 18830
ingham 18829
Nik@@ 18824
Irak 18811
Ry@@ 18780
” 18776
ken 18755
Corps 18754
opol@@ 18735
outh 18731
bir@@ 18725
MP 18709
Pos@@ 18709
ng@@ 18703
grand@@ 18672
tribut@@ 18663
Haw@@ 18661
Apol@@ 18654
ū 18645
mill@@ 18637
tan 18636
Illinois 18627
Roy 18625
lins 18625
eto 18621
1892 18612
ays 18610
alo 18608
Sub@@ 18601
Lewis 18583
ñ@@ 18581
Wilson 18565
airs 18552
Sydney 18549
British 18541
Hi@@ 18540
oslav@@ 18538
mel@@ 18532
ega 18527
Rho@@ 18526
any@@ 18508
Hamb@@ 18504
Bay 18473
initial 18466
XIV 18461
Afr@@ 18456
bis 18425
1789 18418
RI@@ 18413
ula 18385
nombres 18364
1840 18353
sul 18351
Pil@@ 18350
Om@@ 18343
dam 18343
God@@ 18340
frac@@ 18337
Ass@@ 18332
oine 18327
hou 18311
onal@@ 18307
yan@@ 18304
auth@@ 18297
1881 18294
box 18288
Profes@@ 18285
Dist@@ 18275
embran@@ 18273
gan@@ 18266
sl@@ 18260
puls@@ 18257
municipal@@ 18250
ck@@ 18249
oria 18238
issues 18235
opus 18230
adi 18209
affa@@ 18207
Shar@@ 18197
AP 18194
SO@@ 18191
Clau@@ 18181
æ@@ 18169
Cra@@ 18148
Anton@@ 18143
Had@@ 18143
omo 18132
élém@@ 18118
1876 18114
1878 18111
anga 18103
izi@@ 18103
anus 18099
IC 18093
Canton 18089
ig 18084
Oxford 18083
Esc@@ 18071
Times 18053
tw@@ 18032
1894 18023
Sha@@ 18015
South 18013
sch 18009
kins 18002
Davis 17990
core 17966
CC@@ 17957
rag@@ 17955
ator 17952
NE@@ 17940
Din@@ 17934
F. 17933
Concep@@ 17918
1886 17910
esh 17909
mang@@ 17888
hard 17875
refu@@ 17866
Initi@@ 17864
Parti@@ 17857
Rav@@ 17842
Windows 17841
enh@@ 17839
Ant@@ 17831
ó 17816
uma 17814
Jersey 17803
Bis@@ 17802
Web@@ 17802
Ast@@ 17779
W. 17778
Ze@@ 17768
Alex 17746
Research 17738
ido 17726
Monum@@ 17722
Ale@@ 17718
live 17712
ń@@ 17707
Avi@@ 17704
Fem@@ 17670
etto 17668
London 17652
lav 17652
S.@@ 17645
In 17641
Championship 17630
quelle 17630
Live 17623
Philadel@@ 17621
São 17569
Vladimir 17564
iki 17562
nez 17557
ater 17552
District 17549
Taylor 17533
120 17520
Jacob 17511
Ful@@ 17505
las@@ 17500
Boy@@ 17489
Blue 17469
ep 17468
Canadi@@ 17466
Bet@@ 17458
kan@@ 17457
rebel@@ 17452
Kim 17447
Venezuela 17445
1888 17442
VIII 17439
azi 17437
Hydro@@ 17432
crim@@ 17425
250 17420
cau@@ 17407
kg 17407
kov 17406
1882 17389
idar@@ 17386
ric@@ 17382
kov@@ 17378
stand@@ 17378
tural 17378
gin@@ 17367
sex@@ 17362
Rub@@ 17360
Real 17359
try 17349
Arc@@ 17346
kina 17335
amed 17333
gs 17333
agi@@ 17329
Isa@@ 17327
pir@@ 17325
state 17323
sson 17320
1891 17316
Me 17302
ker@@ 17299
Nan@@ 17298
Vik@@ 17291
nik 17289
merc@@ 17280
ör@@ 17274
das 17269
Ah@@ 17255
argent@@ 17250
Mess@@ 17233
design 17230
1884 17226
eri@@ 17225
uth 17212
Long 17195
tal 17189
Kas@@ 17166
ô 17142
1000 17140
anna 17139
Aires 17136
ilde 17132
key 17128
Chall@@ 17113
Cuba 17107
Pod@@ 17095
Palest@@ 17068
undi 17062
Spe@@ 17058
Green 17054
ush@@ 17044
University 17039
Š@@ 17035
Princ@@ 17027
invit@@ 17023
Sun@@ 17020
Film 17017
Pennsyl@@ 17012
ombi@@ 17012
wald 17012
Sym@@ 16982
By@@ 16970
mir 16959
owski 16954
hin@@ 16953
anal@@ 16948
Stephen 16941
oke 16941
Elec@@ 16930
atori@@ 16929
Oscar 16916
Franz 16914
lige 16906
Prin@@ 16894
DF 16891
Institute 16891
ă@@ 16890
iga 16887
iss 16879
Che@@ 16865
unc@@ 16864
motiv@@ 16863
ein 16860
Sum@@ 16859
enge 16856
Jap@@ 16847
perf@@ 16842
BBC 16836
gar 16832
Nam 16831
yo 16822
Emp@@ 16820
olm 16820
indu@@ 16817
gir@@ 16801
rural 16786
sap@@ 16784
1887 16773
eter@@ 16769
Nev@@ 16763
Div@@ 16746
River 16742
hir 16740
II@@ 16739
partement 16723
tics 16722
Territ@@ 16720
Id@@ 16710
Brian 16702
† 16692
Bog@@ 16681
dec@@ 16668
Kom@@ 16660
ept 16660
osh@@ 16651
tri 16650
Pet@@ 16645
Andre@@ 16642
Jim 16637
Indon@@ 16636
Orange 16629
ombe 16629
Premi@@ 16606
Wilhelm 16596
1875 16591
ting 16590
essor 16575
adron 16574
Chr@@ 16558
Eli@@ 16558
tz 16554
coc@@ 16541
ashi 16539
Sup@@ 16529
elo 16521
Pedro 16519
esa 16515
And@@ 16514
Andr@@ 16508
Hus@@ 16502
Villa 16485
Hard@@ 16482
My 16479
abri@@ 16470
FM 16458
elt 16455
yan 16443
Chir@@ 16442
2.@@ 16433
more 16429
low@@ 16427
Mey@@ 16420
Kaz@@ 16412
nus 16395
Gros@@ 16393
lati@@ 16391
Chron@@ 16388
ery 16385
Andrew 16382
Ran@@ 16371
Mob@@ 16348
1863 16345
Jane 16342
East 16340
carre@@ 16329
00 16319
tain 16317
Buenos 16315
ike 16312
Cath@@ 16304
oo 16302
berger 16297
wer@@ 16274
1883 16264
Philippines 16257
Spir@@ 16246
10,@@ 16237
Lady 16236
coordin@@ 16233
stitut@@ 16232
Mam@@ 16231
1868 16225
Kab@@ 16221
Ohio 16221
Sarah 16218
Central 16212
ben 16211
Alan 16203
nombr@@ 16203
Maxim@@ 16199
Buff@@ 16188
Card@@ 16168
Douglas 16168
ATP 16165
singles 16137
eman 16136
Astr@@ 16129
Phili@@ 16116
Dy@@ 16102
bic@@ 16089
1872 16084
Anthony 16080
Tig@@ 16074
Chel@@ 16066
Sib@@ 16048
mif@@ 16047
1815 16035
Manchester 16033
NA 16020
comprom@@ 16013
Johnny 16006
å@@ 16002
toman 15998
ace@@ 15995
Rech@@ 15987
aba 15982
inae 15978
tante 15976
Ji@@ 15975
unt 15974
Reb@@ 15972
fan 15968
igo 15965
Cambridge 15956
Rach@@ 15951
ś@@ 15946
Reich 15942
hai 15936
up 15929
Hur@@ 15927
Kit@@ 15926
RO@@ 15912
Petr@@ 15906
1877 15905
Costa 15895
libr@@ 15888
Monte 15874
Sak@@ 15869
kel@@ 15864
Euro 15862
Xi@@ 15862
App@@ 15859
corpor@@ 15855
politi@@ 15847
1865 15843
Lap@@ 15825
Département 15824
Nouv@@ 15818
1861 15815
bot 15813
Yam@@ 15809
Dic@@ 15801
Rog@@ 15801
Cru@@ 15786
ema 15786
enfer@@ 15782
ete 15779
worth 15779
ador 15778
IM@@ 15775
jud@@ 15770
ski@@ 15764
rum@@ 15761
ott 15754
eno 15746
Fro@@ 15745
Jud@@ 15737
sho@@ 15734
ij@@ 15729
1873 15715
1864 15707
Sam 15707
eni 15707
Actu@@ 15702
fri@@ 15689
AL@@ 15680
1874 15669
ag 15660
Entertainment 15658
Azer@@ 15648
name 15631
DJ 15625
Lon@@ 15621
Series 15620
Tos@@ 15601
Ja@@ 15599
Kie@@ 15552
campus 15548
Bad@@ 15535
ń 15530
1879 15526
condi@@ 15525
Rand@@ 15524
feld 15520
Massachusetts 15513
Wit@@ 15502
phys@@ 15489
cali@@ 15485
bec 15474
1792 15471
dur 15467
uer@@ 15465
uke 15457
HMS 15456
fall@@ 15453
illo 15453
Sid@@ 15438
pair 15434
Sat@@ 15415
Leb@@ 15409
Soci@@ 15407
Lake 15378
Wes@@ 15372
Sah@@ 15363
cine 15355
onel 15354
clar@@ 15346
Arizona 15314
1862 15309
Corporation 15299
Stockh@@ 15296
Laz@@ 15294
XX@@ 15289
s. 15284
Tot@@ 15273
Rober@@ 15262
sens@@ 15252
AI@@ 15248
RA 15248
lock 15248
intern@@ 15230
edi@@ 15224
put 15222
Od@@ 15221
MI@@ 15215
Vas@@ 15199
any 15183
esser 15181
America 15165
dest@@ 15162
pha 15152
GT 15149
‘ 15138
Sof@@ 15135
1869 15100
1,5 15085
adu@@ 15080
PA 15062
hip@@ 15061
artic@@ 15056
1800 15043
Bec@@ 15041
BM@@ 15038
Kevin 15036
iti 15033
tit@@ 15033
iler 15027
AM 14994
Emper@@ 14994
Fut@@ 14984
uki 14983
VI@@ 14967
not 14967
The@@ 14966
ino@@ 14951
tha 14934
Bra@@ 14924
ends 14921
Fel@@ 14919
Pop@@ 14910
Khan 14907
Dani@@ 14891
Mong@@ 14851
igi 14850
destroy@@ 14848
ason 14846
manga 14841
Hollywood 14825
Earth 14815
Paulo 14813
Vid@@ 14804
Bac@@ 14793
Harr@@ 14778
I. 14774
chen 14774
• 14757
Gold@@ 14754
Nad@@ 14751
Wa@@ 14739
² 14739
Plan 14732
Express 14726
aa 14702
Wood@@ 14700
1851 14696
Vig@@ 14694
.com 14689
Nikol@@ 14680
rel 14664
ry@@ 14654
Fur@@ 14645
addi@@ 14637
under@@ 14637
No 14633
Pok@@ 14605
va@@ 14600
Got@@ 14596
Jon@@ 14586
hier 14584
atisti@@ 14583
anny 14579
Bach@@ 14578
Hip@@ 14574
Ever@@ 14559
roc@@ 14549
Las 14547
inus 14547
current 14542
Flam@@ 14533
Anderson 14531
lam 14525
ams 14522
AF 14516
eff 14515
Pyr@@ 14513
Suc@@ 14513
Budap@@ 14512
aro@@ 14511
è 14509
wid@@ 14500
ár@@ 14499
encer 14498
15,@@ 14495
sister 14490
Bud@@ 14485
star 14484
High 14483
own 14475
Wur@@ 14468
Grec@@ 14458
Port@@ 14451
MC 14446
olo@@ 14442
ogo 14433
1801 14428
Life 14412
Franco 14409
nu 14403
Otto 14401
isis 14393
Pakistan 14384
Coc@@ 14381
Eurovision 14381
Billboard 14379
1855 14364
tice 14358
Gun@@ 14353
124@@ 14352
sche 14349
Stanley 14340
Itali@@ 14338
borough 14336
yl 14335
Len@@ 14322
ui@@ 14322
DS 14304
ulus 14304
iko 14294
umb@@ 14291
Howard 14285
King@@ 14285
Madag@@ 14281
Monte@@ 14281
Academy 14279
Extr@@ 14274
registr@@ 14272
restric@@ 14269
ebo@@ 14262
Ray 14260
T. 14249
1859 14246
11,@@ 14237
Hass@@ 14235
day 14231
Province 14227
Missouri 14226
Bom@@ 14222
1814 14205
Ivoire 14204
Lyn@@ 14197
ě@@ 14194
MP@@ 14192
pig@@ 14185
lich@@ 14171
Net@@ 14160
Proj@@ 14160
Greg@@ 14153
stadt 14153
Stal@@ 14147
poli@@ 14128
Heinrich 14112
Fox 14084
Carr@@ 14071
pon 14061
State 14060
records 14054
,@@ 14045
gres@@ 14038
ka@@ 14038
jet@@ 14031
125 14029
SI@@ 14026
bir 14026
Aqu@@ 14021
zer@@ 14018
ril 14017
dorf 14016
Nak@@ 14014
ź 14011
Miami 13992
Inst@@ 13984
etz@@ 13982
irat@@ 13981
eck@@ 13980
Yu@@ 13974
enti 13963
ks@@ 13956
Aj@@ 13952
ania 13946
} 13937
acha 13933
Baz@@ 13930
mant@@ 13921
Rugby 13918
pus 13903
enzo 13894
Ny@@ 13889
Pay@@ 13889
row 13882
Ton@@ 13871
Sun 13862
eines 13845
oz 13828
kil@@ 13819
edo 13813
Michigan 13805
Yor@@ 13800
Kle@@ 13796
Amaz@@ 13795
Berg@@ 13794
Science 13766
play 13755
box@@ 13754
Arti@@ 13746
bel 13744
Tir@@ 13739
2,5 13733
egr@@ 13732
rif@@ 13731
1856 13721
ws 13705
AA 13702
oro 13699
hip 13697
issi@@ 13692
Thor@@ 13691
Hun@@ 13685
ater@@ 13669
Chil@@ 13667
1857 13652
Road 13649
pur 13648
Second 13642
omon 13641
case 13626
tul@@ 13625
Has@@ 13615
Vinc@@ 13610
V. 13605
enth@@ 13605
lio 13590
rad 13579
Lind@@ 13575
Jur@@ 13571
UEFA 13569
igr@@ 13565
fan@@ 13563
Nintendo 13559
Wh@@ 13559
Colorado 13547
nd@@ 13526
North@@ 13524
clu@@ 13523
1852 13521
lem 13518
Christi@@ 13509
m. 13505
Columbia 13490
Aster@@ 13489
Dan 13485
logo 13478
umi 13474
ku 13470
notable 13468
Miguel 13464
tt@@ 13455
Gaz@@ 13441
Time 13434
lage 13434
Cent@@ 13427
Yo@@ 13426
amér@@ 13425
nar@@ 13425
Kenn@@ 13416
ben@@ 13404
tico 13401
bras@@ 13398
dale 13398
Arist@@ 13392
1846 13384
motor@@ 13376
Ris@@ 13358
ms 13354
portun@@ 13350
General 13344
sept@@ 13343
C.@@ 13339
kat@@ 13339
contro@@ 13332
unter 13331
yo@@ 13326
mel 13320
1854 13318
Naz@@ 13318
deb@@ 13318
IS 13317
Sport@@ 13316
yon 13314
oper 13311
ento 13292
location 13288
Vin@@ 13286
Ok@@ 13273
Us@@ 13268
Bruce 13266
ango 13257
Crim@@ 13251
AB@@ 13246
Marco 13245
sci@@ 13234
ider@@ 13230
deu@@ 13225
Beach 13217
week 13212
Gam@@ 13202
Jimmy 13186
Ges@@ 13185
1858 13176
Black@@ 13173
Nicol@@ 13171
Little 13164
zon 13163
cht 13156
1849 13154
rat 13152
Shak@@ 13149
Nich@@ 13144
ops 13144
K. 13140
AF@@ 13123
alit@@ 13120
Ave@@ 13116
ial 13113
Atlanta 13098
nay 13096
Ma 13092
secre@@ 13089
blu@@ 13084
tif@@ 13082
nig@@ 13075
burgh 13074
XVI 13072
oth 13072
Barbara 13065
lar 13060
It@@ 13051
Prim@@ 13041
Golden 13029
Grim@@ 13028
protagon@@ 13024
evo 13015
vi 13010
oshi 13002
Gö@@ 12971
Ng@@ 12965
ograph@@ 12962
udi@@ 12952
BA 12951
Game 12950
700 12937
alia 12930
lag@@ 12929
120@@ 12927
ough 12925
iri 12924
ás 12919
Radi@@ 12901
eda 12901
eus 12898
Restaur@@ 12896
CE 12892
lah 12882
dau@@ 12881
andro 12872
xi 12866
ling@@ 12865
3.@@ 12862
Gordon 12859
Kil@@ 12837
ados 12837
Bank 12830
Township 12830
xon 12830
udi 12824
iz 12812
Sebasti@@ 12803
Charlie 12802
Fili@@ 12792
Miller 12787
š 12787
ichi 12786
AT 12781
CO 12781
Meg@@ 12775
Fres@@ 12770
Roh@@ 12754
alan 12753
Mac 12751
Rein@@ 12750
Inn@@ 12744
orum 12740
tes@@ 12735
Tw@@ 12732
ways 12727
imm@@ 12724
cars 12723
Kansas 12714
Benn@@ 12708
Li 12705
Que@@ 12691
Poly@@ 12679
Clin@@ 12671
Fernando 12669
Kath@@ 12669
mund 12668
Medi@@ 12665
Se 12665
Num@@ 12664
Jonathan 12653
viles 12647
ow 12646
Ō@@ 12635
Show 12631
Jack@@ 12629
Mexico 12626
10.@@ 12623
Č@@ 12618
tz@@ 12617
Tas@@ 12613
impl@@ 12613
Christopher 12608
Iv@@ 12606
etti@@ 12587
Test@@ 12576
Robin 12575
Bell 12573
Minnesota 12573
Pac@@ 12559
lai 12556
Glo@@ 12554
UNESCO 12545
öl@@ 12538
his@@ 12536
Andrea 12534
Journ@@ 12530
1791 12506
Wag@@ 12506
1831 12505
igh 12503
folk 12499
allas 12497
ș@@ 12493
eler 12490
Afghanistan 12483
Day 12480
moto 12478
Sir@@ 12477
réqu@@ 12464
ej@@ 12459
Ahmed 12451
Jum@@ 12450
ME@@ 12447
icus 12442
ste@@ 12437
Las@@ 12434
Leipzig 12427
ą@@ 12417
Ras@@ 12399
är@@ 12399
Services 12398
back 12393
zz@@ 12391
Dim@@ 12389
3D 12365
magaz@@ 12364
tica 12361
rech@@ 12360
ae@@ 12352
neum@@ 12343
Sci@@ 12337
Égl@@ 12335
Pur@@ 12324
adel@@ 12321
ls 12317
1795 12316
Act 12316
Ernst 12313
Microsoft 12312
Dipl@@ 12307
Hot 12302
Produc@@ 12291
NO@@ 12290
Han 12289
Ken@@ 12283
oko 12261
Mut@@ 12244
María 12239
1794 12225
ía 12218
uta 12217
LG@@ 12214
PE@@ 12207
TV@@ 12207
1853 12204
icia 12203
119@@ 12202
dre@@ 12201
Allen 12197
wen 12194
Johannes 12193
Clark 12192
1845 12189
Kennedy 12185
Satur@@ 12185
Anat@@ 12182
amo 12180
Santiago 12179
án@@ 12172
Morgan 12170
cle@@ 12170
territ@@ 12164
ran 12161
Magazine 12158
esi 12157
Hat@@ 12144
elen 12138
Die 12135
Green@@ 12133
€ 12131
zu@@ 12124
Sap@@ 12123
py@@ 12122
aza 12120
provincial 12115
Type 12112
tad@@ 12106
aja 12092
180 12084
Herbert 12080
Lak@@ 12063
Bod@@ 12054
stone 12054
spons@@ 12051
XI 12046
pi 12046
ön@@ 12037
Cho@@ 12034
Willi@@ 12031
1837 12024
œuv@@ 12016
ović 12015
religi@@ 12014
gest@@ 11997
polit@@ 11995
Gri@@ 11991
ide@@ 11981
sine 11981
Vor@@ 11977
Nick 11974
1812 11970
Tul@@ 11970
loyd 11968
lyn 11964
LE@@ 11963
Alberto 11948
Progr@@ 11947
Jun@@ 11944
ovi@@ 11942
jan@@ 11934
auch@@ 11932
Tax@@ 11928
gom@@ 11926
110 11923
Studio 11923
atar 11914
ally 11910
1847 11900
Billy 11897
Russell 11884
aler 11884
imi 11883
wal@@ 11882
wick 11879
wo@@ 11871
Nelson 11865
Pul@@ 11854
kir@@ 11853
Margaret 11850
1832 11848
Philip 11846
bet@@ 11845
arry 11827
pag@@ 11822
Zi@@ 11816
Bron@@ 11813
Vari@@ 11799
wich 11799
An 11784
Sag@@ 11784
Nigeria 11781
chester 11778
Brook@@ 11777
Fred 11776
jam@@ 11776
Hermann 11771
Station 11770
Liverpool 11767
Eg@@ 11756
Janeiro 11756
Lad@@ 11752
USA 11751
Ep@@ 11748
oid 11747
AG@@ 11743
carri@@ 11743
Ther@@ 11727
Mission 11725
Stor@@ 11724
Houston 11719
Google 11712
Clu@@ 11706
apti@@ 11705
Gard@@ 11703
Beg@@ 11698
Uruguay 11694
ley@@ 11694
Moz@@ 11693
exclus@@ 11691
NASA 11687
last 11680
Gom@@ 11675
foc@@ 11674
Rud@@ 11669
Pun@@ 11661
Stadium 11659
yal@@ 11652
sex 11650
Sl@@ 11648
Down 11645
mas 11645
Ten@@ 11644
tical 11634
1836 11633
sev@@ 11629
Geor@@ 11622
1833 11600
Ross 11598
Web 11585
af 11584
Peter@@ 11579
Techn@@ 11572
grad 11551
nec@@ 11541
ć@@ 11541
1841 11538
1835 11527
Brad@@ 11519
bra 11519
Georg 11514
Dod@@ 11513
Hul@@ 11499
Sad@@ 11498
Gabri@@ 11496
Kad@@ 11488
0.@@ 11480
positive 11467
Ryan 11461
Conse@@ 11460
ammed 11436
Studios 11431
aret 11421
Aug@@ 11398
Hamp@@ 11393
etz 11386
Play@@ 11378
ort@@ 11377
Kel@@ 11360
fli@@ 11360
gas@@ 11358
Andy 11355
pera 11353
estu@@ 11347
nan 11336
Roman 11335
Lov@@ 11330
Apple 11322
Salvador 11317
Fron@@ 11314
eh 11308
fel@@ 11307
Iz@@ 11306
Brand@@ 11304
manager 11304
Glas@@ 11296
Song 11292
nia 11289
dose 11278
eli 11277
Ple@@ 11274
Palm@@ 11270
Scar@@ 11269
Zo@@ 11268
det@@ 11266
ecti@@ 11259
1806 11257
WWE 11254
ambul@@ 11250
aron 11250
1842 11242
ahi 11235
1839 11219
alls 11216
lum 11211
Lucas 11208
Yan@@ 11206
Main 11205
achi 11203
awa@@ 11191
impro@@ 11190
Bad 11189
Matt 11189
CC 11188
LO@@ 11187
Ludwig 11181
master 11177
say 11169
zur 11166
Tah@@ 11160
dies@@ 11159
1843 11157
tos 11152
Bret@@ 11151
1834 11149
ights 11149
new 11148
Tech@@ 11132
5.@@ 11128
wer 11124
aller@@ 11119
CS 11116
anos 11115
arn 11113
BC 11104
Moore 11103
dex 11098
dy@@ 11096
Jason 11094
Harvard 11086
CP@@ 11079
Mec@@ 11072
R.@@ 11067
sten@@ 11065
Guar@@ 11064
Terr@@ 11056
Shin@@ 11053
Tim 11039
Stone 11037
Dak@@ 11036
Dir@@ 11036
ppe 11029
Comics 11026
23@@ 11016
Dres@@ 11007
SM 11007
States 11006
1838 11000
Bang@@ 11000
ange@@ 10999
lead@@ 10999
acy 10998
Gib@@ 10991
Pow@@ 10982
1844 10979
Associ@@ 10976
com 10973
conven@@ 10970
Cha@@ 10968
Zh@@ 10957
zen@@ 10952
orn 10941
EC 10936
Obj@@ 10934
scor@@ 10933
Schwar@@ 10932
rid@@ 10923
ampli@@ 10916
ated 10914
Autom@@ 10905
ady 10901
ongo 10901
Crist@@ 10897
stan 10895
Dave 10886
Nobel 10886
Europa 10885
esh@@ 10880
zen 10874
udo 10869
roqu@@ 10868
118@@ 10866
plo@@ 10866
hil 10857
AD 10849
Hein@@ 10844
uro 10836
NS@@ 10835
Tat@@ 10834
eder@@ 10828
Matthe@@ 10825
Go 10824
Thom@@ 10824
kel 10822
Jak@@ 10809
amba 10808
ells 10806
Hoh@@ 10798
Audi@@ 10789
Feder@@ 10788
Beat@@ 10776
ome@@ 10775
én 10766
Ec@@ 10752
Lep@@ 10745
ayo 10745
Water@@ 10742
GC 10738
brun@@ 10738
XII 10723
1810 10722
with 10708
ür@@ 10690
Daw@@ 10689
yi 10678
elec@@ 10676
Nob@@ 10673
eb 10670
News 10662
arios 10661
Viol@@ 10660
fi 10658
amar@@ 10654
Organ@@ 10640
cerc@@ 10632
aca 10630
Saf@@ 10628
card 10616
inaug@@ 10616
ink 10616
PlayStation 10614
global 10613
Ander@@ 10612
inos 10609
oba 10605
show 10605
Kelly 10602
Asp@@ 10598
Inv@@ 10592
Hud@@ 10589
stock 10589
bay@@ 10583
rop@@ 10583
alar@@ 10579
eston 10578
Co 10573
Hall@@ 10565
cut 10561
hur@@ 10561
Mercedes 10552
Night 10543
Franklin 10541
ild 10541
occer 10536
iller@@ 10527
16,@@ 10526
Ele@@ 10526
Montre@@ 10521
oga 10521
Avenue 10512
Boliv@@ 10510
els@@ 10508
vive 10506
Grant 10504
wealth 10499
Melbourne 10496
Nur@@ 10491
lands 10484
130 10482
Mississippi 10482
nin 10468
NFL 10461
Sovi@@ 10455
Bit@@ 10454
IT@@ 10453
mano 10448
zer 10446
hospit@@ 10445
140 10443
imo 10431
acht 10423
cross 10415
gro@@ 10415
ibn 10410
fo 10403
LA 10398
Rac@@ 10392
Aer@@ 10390
inn 10389
aha 10385
wa@@ 10382
series 10378
Indiana 10377
gia 10376
Main@@ 10374
normal 10356
3,5 10353
ingo 10350
zar@@ 10341
AE@@ 10337
TS 10334
Rid@@ 10333
Out@@ 10324
Line 10323
wen@@ 10318
film@@ 10314
attle 10310
ii 10308
Jazz 10307
apo 10302
Roberto 10301
hop 10296
kur@@ 10287
Jr 10283
nis@@ 10279
4.@@ 10278
IP 10278
hard@@ 10277
Diam@@ 10275
Games 10271
Ein@@ 10266
XV@@ 10262
Squ@@ 10257
Well@@ 10257
GM 10256
SS@@ 10249
Dig@@ 10239
Marvel 10226
wo 10218
115@@ 10213
apa 10210
kon@@ 10207
press@@ 10202
wn 10197
band@@ 10195
tas 10189
rat@@ 10183
Anton 10174
Raf@@ 10169
cic@@ 10168
Gold 10162
Adolf 10161
Jordan 10146
offs 10144
101 10140
Toy@@ 10138
Kent 10135
cél@@ 10128
EN@@ 10122
Cec@@ 10112
160 10106
ders 10105
zon@@ 10096
cipe 10089
arren 10087
MO@@ 10085
Stat@@ 10085
ros 10082
Pra@@ 10080
Boy 10070
Master 10068
ż@@ 10067
Rosa 10066
AL 10063
eme 10061
uk 10058
Iowa 10055
Ian 10039
islas 10037
itt 10032
Steph@@ 10031
Kob@@ 10030
Vog@@ 10030
phy 10021
Sach@@ 10019
kab@@ 10015
Eri@@ 10008
AG 10003
Tennessee 10003
Media 9998
ór@@ 9996
TC 9993
114@@ 9990
Á@@ 9988
ills 9987
Lic@@ 9985
egas 9982
Hop@@ 9978
E.@@ 9967
Wer@@ 9960
Power 9956
escal@@ 9952
gin 9948
esqu@@ 9946
auer 9945
17,@@ 9939
inge 9936
uli 9936
bey 9929
lery 9927
Nas@@ 9926
sberg 9925
Tod@@ 9924
Estr@@ 9919
ness 9914
Theod@@ 9912
SK 9902
det 9888
Bach 9884
Robinson 9879
Sierra 9868
Tex@@ 9866
bor 9863
sion@@ 9862
Wy@@ 9851
Carter 9850
Fir@@ 9850
Gan@@ 9850
~ 9847
Major 9846
Reich@@ 9838
à@@ 9837
dar@@ 9835
Press 9830
Great 9828
Buch@@ 9819
1824 9811
Bug@@ 9809
1825 9806
Oliver 9802
ony 9802
now@@ 9801
Kis@@ 9791
paral@@ 9790
Sep@@ 9788
SE 9785
Fantas@@ 9784
· 9782
bad@@ 9781
rio 9780
DE 9777
ī@@ 9777
1802 9769
Anim@@ 9767
Best 9766
PR@@ 9766
Pear@@ 9766
uld 9766
liga 9765
HC 9760
ems 9759
Sign@@ 9757
Ner@@ 9755
Gary 9752
inclus@@ 9742
Kenya 9740
Lug@@ 9740
pot 9732
1803 9730
ana@@ 9727
thor@@ 9727
oll 9716
Cruz 9714
CP 9712
roman@@ 9710
wat@@ 9709
YouTube 9708
Rodr@@ 9707
DP 9692
sun@@ 9690
aer@@ 9684
Square 9682
Trump 9682
Warner 9677
hiz@@ 9677
Police 9653
1808 9649
isch@@ 9646
ody 9645
Bed@@ 9637
witz 9631
Adams 9629
Pablo 9606
Marshall 9596
It 9595
Hand@@ 9592
Dow@@ 9587
mpi@@ 9584
Athle@@ 9583
117@@ 9582
anta 9582
abi 9575
Kot@@ 9574
1813 9569
1828 9569
Art@@ 9565
aup@@ 9564
ph 9564
Unter@@ 9552
Emil@@ 9549
Nord@@ 9542
evin 9538
ency 9536
Ax@@ 9534
bio 9534
imal 9521
vez 9514
TP 9504
Home 9487
fav@@ 9478
Milit@@ 9455
var 9455
att 9447
ono 9433
Stein@@ 9429
Java 9426
squ@@ 9426
stage 9426
León 9425
Queen 9424
Kazak@@ 9420
Lawrence 9418
promot@@ 9418
ilia 9412
ischer 9409
pler 9406
1821 9405
gy 9398
casting 9394
Rum@@ 9393
DI 9392
Austin 9391
Histori@@ 9381
1,2 9376
Ey@@ 9376
Kun@@ 9373
Gru@@ 9367
ego 9364
Gul@@ 9363
Beng@@ 9362
espe@@ 9358
Copa 9353
lip 9353
Fun@@ 9348
Lud@@ 9345
Ann 9342
country 9340
oka 9340
Stewart 9329
Broadway 9325
1809 9321
EM@@ 9320
aborat@@ 9317
1826 9316
18,@@ 9314
Alaska 9308
Industri@@ 9308
Neg@@ 9308
Wind@@ 9305
Fair@@ 9304
Gonz@@ 9301
PP@@ 9296
Kap@@ 9295
1827 9293
hatt@@ 9292
Charl@@ 9285
ako 9279
ely 9277
1500 9275
tet 9269
Theatre 9266
v. 9265
flo@@ 9261
1829 9258
Hid@@ 9258
Quer@@ 9248
Good@@ 9247
zin@@ 9246
Strat@@ 9241
FIFA 9233
GA 9233
ishi 9231
Harris 9229
quez 9227
Jay 9224
Kurt 9220
350 9215
M.@@ 9215
aris 9213
Arena 9205
Valley 9205
900 9202
her 9200
Post 9198
ABC 9195
oks 9195
pec@@ 9195
ingi@@ 9194
manufac@@ 9191
aven 9187
Hit@@ 9181
gers 9179
ole@@ 9172
Creek 9169
ight@@ 9162
1816 9157
.C. 9155
1807 9154
Ž@@ 9152
augh@@ 9151
fried 9137
water 9133
azar 9127
disci@@ 9120
Freder@@ 9112
cos 9110
sh 9105
erc@@ 9104
Griff@@ 9103
Agu@@ 9092
inde@@ 9083
Guill@@ 9079
Mang@@ 9075
Junior 9070
Rafael 9067
oms 9059
aman@@ 9058
Raj@@ 9057
ats@@ 9057
pendi@@ 9052
Dest@@ 9049
Ray@@ 9041
Rep@@ 9030
ough@@ 9010
Patri@@ 9008
alan@@ 9008
pson 9006
wh@@ 9004
Wrestling 9002
Space 8995
oca 8995
phyl@@ 8988
avi 8987
azar@@ 8979
ä 8979
179@@ 8975
e.@@ 8973
1823 8972
kom@@ 8972
Elisabeth 8971
Tes@@ 8967
Cros@@ 8948
dad 8940
sal 8918
ê 8914
Alt@@ 8912
Anth@@ 8905
1822 8904
Fen@@ 8902
1798 8900
Wright 8900
Frederick 8895
Campbell 8891
diers 8883
Catal@@ 8881
stre@@ 8877
elia 8871
50@@ 8870
Town 8859
System 8850
Mov@@ 8849
sto@@ 8848
Anto@@ 8838
Pep@@ 8832
â 8825
IP@@ 8818
Hart@@ 8813
Rah@@ 8804
Sony 8801
athan 8796
stanbul 8796
1818 8791
Schne@@ 8791
GP@@ 8785
tuy@@ 8773
D.@@ 8772
Shel@@ 8765
ers@@ 8765
Is 8762
aska 8762
Sá@@ 8761
Ox@@ 8760
ahn 8758
Hot@@ 8750
para 8749
South@@ 8742
vil 8741
sburg 8739
B.@@ 8735
urus 8731
enburg 8727
Hak@@ 8721
Publi@@ 8719
Wel@@ 8719
Batt@@ 8715
enko 8712
sah@@ 8709
Walker 8704
aster 8702
olas 8698
township 8696
IA 8686
into 8686
1804 8678
Alabama 8677
atum 8674
culp@@ 8674
1811 8671
Map@@ 8660
Thompson 8660
Champions 8647
1817 8643
Band@@ 8642
Will 8635
zam@@ 8635
Origin@@ 8630
Tow@@ 8629
Portu@@ 8615
pers 8614
indo 8610
RT 8602
arp@@ 8590
orio 8588
ilo 8584
zu 8583
ð@@ 8574
40@@ 8572
García 8571
mouth 8566
rol 8566
agua 8547
évision 8546
Will@@ 8538
IF@@ 8537
Old 8532
ampton 8531
1799 8514
ffer@@ 8512
ML@@ 8511
Hem@@ 8508
TO@@ 8507
eira 8507
Landes 8503
0,5 8498
Antar@@ 8491
atra 8489
tat@@ 8488
very 8481
Banglad@@ 8480
116@@ 8476
Boeing 8475
BI 8474
Di 8464
7,5 8463
Ye@@ 8462
ampa 8461
Jorge 8457
DO@@ 8451
eland 8450
pper 8444
SV 8443
Stars 8442
town 8439
1819 8438
Was@@ 8437
Stuttgart 8436
grou@@ 8432
Cum@@ 8429
Rat@@ 8429
ingt 8428
Tai@@ 8426
Apo@@ 8424
Nig@@ 8413
Jor@@ 8405
Network 8402
AB 8394
Forest 8394
PO@@ 8387
e. 8385
Spor@@ 8384
other@@ 8383
ying 8383
î 8383
onga 8379
Rudolf 8378
È@@ 8376
Mom@@ 8366
orium 8366
Bun@@ 8362
ump@@ 8356
nic@@ 8354
cript 8350
Ghana 8349
Fried@@ 8343
ng 8340
Army 8339
azz@@ 8328
ilio 8317
Boys 8316
tern 8314
ods 8312
Universit@@ 8311
ias 8310
got 8306
Mann@@ 8304
Gel@@ 8302
cid@@ 8294
zan 8292
wilaya 8291
hem 8287
EC@@ 8284
rid 8284
obi@@ 8282
Linux 8280
hat@@ 8278
BS 8274
Angel 8273
kal@@ 8269
sar 8268
mil 8263
BT 8262
Program@@ 8261
6.@@ 8259
oven 8259
You@@ 8250
1805 8248
ausen 8248
August 8247
First 8247
codice 8240
Cao 8237
Mai 8237
hang 8237
Jose@@ 8233
Wehr@@ 8228
dem 8216
lif@@ 8212
ö 8204
War 8203
win@@ 8203
7.@@ 8202
Dark 8195
aries 8189
SD 8187
Vietnam 8180
Liga 8179
jar@@ 8179
105 8177
Shir@@ 8177
Wayne 8175
Maryland 8169
Gó@@ 8164
tric 8160
Meh@@ 8159
ector 8153
Ost@@ 8152
Bush 8151
ender 8149
August@@ 8147
boy@@ 8145
Party 8142
Baker 8139
ean 8139
maf@@ 8135
Up 8131
gang@@ 8121
ellen@@ 8112
sis@@ 8111
iges 8107
Tag@@ 8106
Rail@@ 8103
Bras@@ 8101
eph@@ 8101
1797 8086
Band 8084
aj 8084
isch 8078
gel 8077
aman 8066
High@@ 8065
Hub@@ 8057
Oregon 8057
Kim@@ 8050
aki@@ 8044
Syr@@ 8037
Finale 8019
alt 8014
Sey@@ 8007
red 8002
yu 8001
ward 8000
24,@@ 7998
Inf@@ 7993
rich 7992
stri@@ 7988
Phoen@@ 7986
Western 7986
yon@@ 7982
113@@ 7980
LP 7980
bra@@ 7976
iva 7974
Airlines 7972
burn 7972
Connecticut 7965
Tradi@@ 7961
alc@@ 7955
fines 7954
Norman 7949
eti 7947
idel@@ 7941
4,5 7939
verb@@ 7938
Sev@@ 7929
Hosp@@ 7928
Sky 7925
USS 7925
Railway 7922
Fame 7920
iner@@ 7915
oman 7915
Haz@@ 7904
coron@@ 7904
Standard 7900
Key@@ 7890
star@@ 7890
20,@@ 7887
Pérez 7879
ensus 7874
Infan@@ 7871
360 7857
Gem@@ 7856
tak@@ 7851
Rico 7849
Films 7845
dae 7842
Arsenal 7837
kan 7836
Kentucky 7834
35@@ 7832
Um@@ 7832
mak@@ 7831
Contin@@ 7827
Salz@@ 7826
Stre@@ 7819
Project 7813
colspan 7806
Wolfgang 7799
Spar@@ 7798
Sax@@ 7796
Dru@@ 7791
8.@@ 7787
stars 7786
Facebook 7779
management 7777
r. 7772
MS@@ 7766
road 7765
19,@@ 7764
Hoff@@ 7762
Fat@@ 7758
enda 7758
tarde 7757
170 7755
isp@@ 7746
play@@ 7746
Jug@@ 7745
uj@@ 7744
Ś@@ 7744
lama 7733
oe 7730
N. 7728
boy 7727
Mountain 7720
bec@@ 7720
Universal 7719
vier@@ 7716
Swe@@ 7711
Tap@@ 7705
acer@@ 7702
og 7692
Sund@@ 7690
oso 7690
P.@@ 7689
emple 7689
emann 7687
lez 7681
och 7678
How@@ 7672
down 7672
igg@@ 7672
midt 7665
Ç@@ 7664
Channel 7658
sand@@ 7656
ern 7651
Sri 7645
Gest@@ 7644
Sas@@ 7635
mark 7631
Gustav 7622
Pacific 7622
him@@ 7619
dice 7618
ubil@@ 7617
Guatemala 7612
ondo 7607
I.@@ 7604
investig@@ 7604
aku 7603
hua 7600
May 7595
Der 7588
Produ@@ 7588
chs 7588
Josef 7587
wor@@ 7585
Rica 7579
yor@@ 7578
Just 7570
vor 7569
kam@@ 7566
FO@@ 7561
avo 7561
Bill@@ 7552
Lima 7548
def@@ 7546
200@@ 7544
pak@@ 7542
č 7540
tar 7536
map@@ 7535
eption 7530
kol@@ 7530
ps@@ 7526
Angola 7523
Italien 7523
sz@@ 7523
Feli@@ 7519
22,@@ 7517
teri@@ 7512
kshire 7511
Wisconsin 7508
Cand@@ 7507
Who 7507
arius 7490
aker 7487
perform@@ 7485
beck 7477
Colomb@@ 7472
Uta@@ 7469
forma 7469
Fritz 7467
erra 7467
To 7466
www.@@ 7464
eria 7461
ymn@@ 7461
Guadal@@ 7456
ester@@ 7455
Serie 7454
L.@@ 7446
ML 7438
sia 7438
Julius 7430
omi 7430
uno 7427
bridge 7426
echt 7424
Eth@@ 7416
NS 7404
European 7395
Wolf 7393
Queensland 7389
atu 7373
Out 7372
neg@@ 7371
bab@@ 7368
36@@ 7360
Foundation 7359
Santos 7358
incor@@ 7356
senior 7354
Biz@@ 7348
light 7348
López 7341
arina 7338
may@@ 7338
ael 7336
Schw@@ 7330
een 7330
from 7318
Hey@@ 7316
Gur@@ 7313
macht 7313
Adel@@ 7308
Girl 7308
Rock@@ 7307
25,@@ 7306
Conserv@@ 7305
agen 7304
eber@@ 7302
aks 7301
Chrys@@ 7299
Micro@@ 7299
Of 7298
33@@ 7293
Cross 7291
aun 7290
Sud@@ 7284
ren 7275
octo@@ 7272
wil@@ 7267
John@@ 7266
ña 7266
elly 7261
Def@@ 7258
ural 7258
ayn@@ 7249
ISO 7244
Ster@@ 7238
auf@@ 7237
wanda 7237
Castro 7235
liner 7232
ennis 7231
Wis@@ 7229
Business 7227
strong 7226
Sali@@ 7221
Sti@@ 7219
ring 7208
tory 7206
Rey 7205
org 7204
dar 7203
kes 7202
aden 7198
α 7197
German@@ 7193
Amp@@ 7184
kor@@ 7182
Philos@@ 7173
Kum@@ 7171
Volks@@ 7170
Pand@@ 7162
ostr@@ 7154
ju 7148
esia 7144
Your 7138
Aleksand@@ 7131
Over@@ 7131
ate@@ 7120
Kre@@ 7118
igan 7117
27,@@ 7109
Herr@@ 7108
Andreas 7106
Deutsche 7105
male 7103
ú 7103
Wak@@ 7101
Hern@@ 7095
Emer@@ 7089
Be 7084
Leo 7083
igt 7082
Gener@@ 7081
Twitter 7069
rail 7068
1600 7066
gradu@@ 7063
Global 7060
mail 7058
ather 7057
onald 7057
rak@@ 7057
Men 7056
Mün@@ 7048
Bin@@ 7046
Public 7042
kay@@ 7040
cros@@ 7036
Hin@@ 7032
anch@@ 7027
hel@@ 7025
Him@@ 7018
Church 7014
edr@@ 7013
Say@@ 7009
lidae 7008
tas@@ 7003
ò 7003
Sieg@@ 6998
Do 6997
ý 6997
Brothers 6994
iden 6994
Paraguay 6989
SG 6987
berto 6986
Sph@@ 6981
atrième 6980
Werner 6971
Olymp@@ 6970
AV@@ 6968
Pictures 6967
nik@@ 6966
hav@@ 6963
Termin@@ 6957
37@@ 6954
Book 6951
rik 6949
thel@@ 6949
102 6945
39@@ 6944
tista 6941
altar 6940
SI 6939
34@@ 6920
Müller 6916
Leh@@ 6914
Río 6914
mos 6902
Sonn@@ 6900
utenant 6899
ā 6897
VP 6896
kar 6895
Æ@@ 6895
80@@ 6893
uru 6893
ao@@ 6887
26,@@ 6883
Dead 6880
FL 6878
animales 6877
Roman@@ 6876
pp 6876
gos 6869
450 6867
eline 6867
´ 6865
Santo 6864
uka 6863
Under@@ 6862
sm@@ 6857
bia 6856
model@@ 6856
F.@@ 6855
VA 6852
æ 6849
ympi@@ 6845
Day@@ 6844
einture 6842
Light 6839
ís 6839
alto 6838
etr@@ 6838
inga 6828
Free 6826
Ö@@ 6825
oon 6824
Sea 6823
kad@@ 6823
ual 6822
kers 6820
contra 6815
einer 6809
eros 6806
21,@@ 6805
Econom@@ 6785
Sok@@ 6764
Story 6764
sta@@ 6763
inci 6753
eer 6744
Sn@@ 6735
stra@@ 6735
tors 6720
jer@@ 6718
shi@@ 6703
Coast 6700
Lok@@ 6687
dissement 6686
38@@ 6685
andra 6684
Jag@@ 6679
dom 6679
104 6677
His@@ 6675
book 6675
hen 6675
vio 6675
Zar@@ 6673
Law@@ 6672
gan 6668
Four 6655
ù 6651
HD 6647
Roll@@ 6646
T.@@ 6646
Japan 6642
ț@@ 6640
Hut@@ 6634
Chelsea 6632
23,@@ 6628
Sept@@ 6626
Tang@@ 6621
alle@@ 6618
Yas@@ 6615
tidae 6613
ás@@ 6609
rod@@ 6607
yat@@ 6603
bay 6600
Tanz@@ 6597
expl@@ 6596
Dah@@ 6593
head 6589
ru 6588
9.@@ 6586
mite 6583
nac@@ 6578
Hyp@@ 6577
Dance 6575
mental 6573
ld 6571
3000 6566
wag@@ 6560
Rolling 6555
Way 6555
Priv@@ 6550
bei 6536
Anh@@ 6531
bak@@ 6530
üt@@ 6529
ls@@ 6524
Institu@@ 6521
sian 6521
enga 6519
tribu@@ 6519
Bask@@ 6518
tag 6516
22@@ 6512
oes 6509
Ż@@ 6505
135 6495
Slo@@ 6490
omin@@ 6488
square 6486
isher 6484
Girls 6480
tari 6477
Design 6476
ño 6476
ob 6470
MTV 6466
zin 6459
ict 6457
Grammy 6449
än@@ 6448
ender@@ 6447
peri@@ 6440
phi@@ 6435
hausen 6431
Memorial 6425
hin 6424
Bridge 6422
Miss@@ 6422
uvent@@ 6422
1700 6417
game 6417
xu@@ 6414
ground 6413
gem@@ 6398
wards 6398
cole 6397
ily 6387
anza 6386
ree 6384
→ 6381
Mr@@ 6380
Panz@@ 6373
Pam@@ 6369
eum 6364
fast 6363
González 6355
ful 6353
oper@@ 6348
109 6345
uo 6341
uba 6340
nombre@@ 6336
Technology 6328
Del 6321
ology 6308
Sound 6303
UK 6301
tiller@@ 6298
Dakota 6297
thy 6294
now 6293
iler@@ 6290
olan 6289
BO@@ 6285
subj@@ 6285
Zam@@ 6282
mid@@ 6282
ische 6279
We 6278
eka 6278
born 6273
vat@@ 6273
103 6266
Hockey 6262
yse 6261
Arkansas 6260
Ltd 6260
bers 6256
tropical 6256
teil@@ 6252
Galax@@ 6250
even 6248
ney@@ 6248
ife 6247
Mab@@ 6246
Final 6241
Abu 6238
iba 6238
upe 6235
gang 6234
ld@@ 6225
Yah@@ 6219
band 6217
Eas@@ 6212
iter@@ 6210
stand 6208
chall@@ 6205
Good 6200
meeting 6198
Kem@@ 6197
hap@@ 6195
align 6191
inda 6190
pant@@ 6189
1200 6188
Council 6185
Virginia 6185
Haus@@ 6183
Muhammad 6182
poem 6182
ross 6181
heim@@ 6178
SR 6172
Zel@@ 6168
oj@@ 6166
scope 6162
County 6160
sormais 6159
eg 6158
ambigu@@ 6154
Management 6151
rail@@ 6150
eke 6148
sep@@ 6147
Must@@ 6132
Court 6131
chia 6129
anum 6128
Scot@@ 6126
ear@@ 6123
bron@@ 6115
awi 6113
Motor@@ 6112
Shu@@ 6111
isha 6111
Moon 6107
Death 6103
Luf@@ 6101
eren 6101
tom 6097
hib@@ 6096
220 6092
Kay@@ 6092
uel@@ 6091
ship 6089
zel@@ 6089
Atlantic 6088
deg@@ 6085
gli@@ 6085
108 6084
Rodríguez 6082
Tag 6081
oral 6081
kw@@ 6077
Administr@@ 6074
brahim 6074
Tenn@@ 6071
NCAA 6069
Hali@@ 6067
XVIII 6065
45@@ 6064
hil@@ 6064
eca 6063
asis 6058
appe@@ 6057
Kus@@ 6054
Ses@@ 6050
sta 6049
Law 6047
Prof@@ 6045
Ana 6040
Metropolit@@ 6040
CBS 6038
dru@@ 6022
ainer 6017
xa 6012
provoc@@ 6011
ül@@ 6011
Nacional 6009
106 6007
Indian 6006
dian 5998
Psych@@ 5997
Da 5991
alus 5977
ths 5976
ț 5974
.S. 5972
Pach@@ 5967
Kö@@ 5966
Tok@@ 5966
Dream 5965
emati@@ 5964
hâ@@ 5956
acks 5954
Album 5953
Mim@@ 5952
castle 5952
Play 5949
Serv@@ 5937
uto 5936
má@@ 5935
partici@@ 5926
idea 5923
Pop 5922
Bundesliga 5920
bid@@ 5918
Orchestra 5916
ican 5916
lau@@ 5915
omy@@ 5905
ria 5902
112 5895
Düssel@@ 5887
NBC 5883
disco@@ 5883
ads 5882
UE@@ 5876
uss 5869
Kri@@ 5868
km@@ 5867
Schleswig 5858
WW@@ 5858
hit 5858
End 5855
Fire 5854
Television 5851
agre@@ 5847
teil 5841
Liz@@ 5840
offic@@ 5833
mad 5832
ith@@ 5831
alli 5826
hat 5822
Heart 5821
DR 5813
Gott@@ 5811
wel@@ 5808
haf@@ 5798
Eisen@@ 5791
itas 5790
tras 5788
igi@@ 5785
Philipp@@ 5784
Burg@@ 5779
Leopol@@ 5777
Opera 5773
bao 5772
ince 5764
Nah@@ 5756
Kak@@ 5748
western 5747
Daily 5741
esch@@ 5736
128 5729
N.@@ 5729
arro@@ 5724
For 5723
Penn@@ 5723
Thr@@ 5722
esis 5721
As 5719
Ent@@ 5717
oides 5712
Mih@@ 5697
rea 5693
Braz@@ 5690
timent 5689
toria 5678
Zu@@ 5677
break 5674
bach@@ 5673
person@@ 5672
107 5670
für 5669
Koh@@ 5665
Moun@@ 5660
Ich@@ 5645
tane 5642
views 5641
Yel@@ 5635
44@@ 5629
Vy@@ 5618
IBM 5615
ante@@ 5615
HP 5614
ý@@ 5599
This 5597
otom@@ 5596
China 5590
ahl 5590
£ 5589
Atlé@@ 5581
Digital 5581
Stur@@ 5577
ál@@ 5577
IT 5576
onen 5569
Zen@@ 5568
isto 5567
endorf 5564
Amat@@ 5563
eval 5563
nen 5563
tav@@ 5562
Hotel 5557
Rak@@ 5556
Iron 5551
Duke 5549
enz 5540
khe@@ 5537
121 5532
gene 5530
115 5521
Run@@ 5517
ful@@ 5514
inas 5507
Hist@@ 5503
ping 5493
añ@@ 5491
GB 5486
nam 5484
por 5484
Sever@@ 5482
oci@@ 5481
Women 5478
inde 5478
Mary@@ 5475
under 5475
duras 5474
111 5467
Spi@@ 5467
stor@@ 5467
Buil@@ 5466
aff 5466
Chic@@ 5463
Uz@@ 5462
&apos;@@ 5461
Country 5460
PM 5458
miles 5458
Chor@@ 5457
HT@@ 5454
anni 5450
ails 5442
Two 5434
Special 5428
Version 5428
750 5427
Africa 5427
Bundes@@ 5425
final@@ 5418
him 5411
Inform@@ 5408
wak@@ 5406
ün@@ 5405
SPD 5401
icht 5398
INSE@@ 5389
Cathol@@ 5388
ving 5383
elt@@ 5378
esto 5375
ī 5374
Juni@@ 5360
west 5359
Moder@@ 5357
set@@ 5356
Eduardo 5350
Enter@@ 5350
bourne 5340
sdorf 5339
ift 5338
anj@@ 5335
Rhy@@ 5333
Berg 5330
Mez@@ 5329
arte 5329
edy 5327
templ@@ 5321
invol@@ 5319
Southern 5318
inen 5318
Zimbab@@ 5306
unds 5306
60@@ 5305
French 5300
chu@@ 5300
imen 5292
TH@@ 5286
Mount 5285
ation@@ 5280
open 5276
Kamp@@ 5275
craft 5273
123 5268
Martín 5262
Rit@@ 5258
127 5256
Mar 5256
Kag@@ 5254
sten 5254
endi 5253
Board 5252
law 5248
NH@@ 5246
alif@@ 5244
tivo 5235
Stil@@ 5233
124 5227
Kul@@ 5227
egel 5225
β 5224
Family 5223
Å@@ 5221
dance 5216
lik@@ 5214
olia 5213
http 5212
History 5206
mus 5198
kt 5193
ush 5191
olds 5189
Wild@@ 5179
aten 5177
Fort@@ 5173
spo@@ 5170
Last 5168
Wein@@ 5167
äl@@ 5166
Fall@@ 5163
leb@@ 5163
H.@@ 5159
kus 5159
Hoch@@ 5157
Beh@@ 5153
õ@@ 5147
Fati@@ 5146
122 5143
Ál@@ 5142
yk@@ 5136
ación 5134
addition 5128
afr@@ 5123
49@@ 5120
other 5116
Poc@@ 5114
cargo 5113
engo 5111
Fe 5110
imin@@ 5106
DV@@ 5097
Back 5093
onz@@ 5092
Fernández 5088
Hof@@ 5088
erine 5086
Casa 5083
this 5083
sino 5082
benz@@ 5079
Dies@@ 5078
Castle 5076
video 5076
asha 5072
117 5069
Anc@@ 5069
Doctor 5067
center 5065
program@@ 5065
ety 5060
sha 5060
jas 5059
ă 5051
Ili@@ 5049
U.S. 5044
Ins@@ 5042
Johann@@ 5042
namo 5034
web@@ 5033
Wolf@@ 5032
straße 5027
König@@ 5026
Kop@@ 5020
bek@@ 5007
río 5004
Conference 5003
gun@@ 4997
Android 4995
ân 4995
Up@@ 4993
Summer 4991
you 4991
ò@@ 4982
Yak@@ 4980
aber 4979
alcal@@ 4970
podr@@ 4970
tier@@ 4967
Von 4965
aland 4963
old@@ 4960
onic 4955
Ó@@ 4950
46@@ 4948
Independ@@ 4935
ede 4932
gun 4932
ahl@@ 4931
Yun@@ 4929
ership 4928
Felipe 4926
sala 4926
113 4924
Haf@@ 4924
yak@@ 4922
Mb@@ 4921
tn@@ 4920
Nec@@ 4915
avia 4914
kaz@@ 4914
causa 4913
gil@@ 4911
`@@ 4906
curs@@ 4906
− 4905
Schl@@ 4904
Kno@@ 4902
abi@@ 4897
Head 4892
Italia 4885
Kid@@ 4885
Kro@@ 4885
enas 4884
kho@@ 4884
Pf@@ 4881
bank 4881
California 4876
Qué@@ 4876
firma 4875
mem@@ 4875
sak@@ 4875
Bey 4873
ilian 4871
Salv@@ 4867
yenne 4867
üb@@ 4866
niti@@ 4865
music 4858
bol 4857
haus 4857
hir@@ 4854
Theater 4853
adém@@ 4851
ehr@@ 4849
Baden 4845
Ago@@ 4839
ted 4835
plex 4830
vos 4830
240 4828
126 4826
ü 4825
manufactur@@ 4823
bai 4818
Alej@@ 4812
Tay@@ 4810
uca 4807
Metal 4802
Pseud@@ 4802
Sek@@ 4797
48@@ 4796
unga 4795
elor 4791
Model 4788
Auch 4787
zia 4786
Social 4780
Kho@@ 4776
ancia 4776
gency 4774
war 4770
juli@@ 4769
usu@@ 4767
Mek@@ 4764
anco 4763
disc@@ 4761
201@@ 4758
Limited 4755
190 4754
icum 4752
Canadian 4751
mez 4751
chil@@ 4749
ophyl@@ 4744
atic 4740
phia 4735
Columb@@ 4731
sung 4730
mut 4727
Margar@@ 4722
osi 4722
tura 4722
tries 4720
230 4708
utive 4706
320 4703
round 4702
eps 4698
medi@@ 4697
ogen@@ 4691
‰ 4686
47@@ 4684
elas 4683
c. 4681
ő@@ 4676
cast 4673
1300 4671
Eis@@ 4670
had@@ 4670
Bez@@ 4669
ambo 4659
mah@@ 4659
crick@@ 4658
Hospital 4654
polog@@ 4651
ener@@ 4638
less 4633
Bayern 4627
har 4623
Đ@@ 4617
board 4614
ladi@@ 4611
Hind@@ 4609
value 4609
Cen@@ 4601
eco 4600
enia 4600
than 4596
umba 4595
IB@@ 4594
multiple 4591
encia 4590
Puerto 4583
anas 4578
América 4575
wagen 4575
ammad 4573
Gle@@ 4571
Broad@@ 4568
shu@@ 4566
eins 4559
rug@@ 4558
Winter@@ 4557
Alter@@ 4556
obi 4548
thus 4548
Ear@@ 4547
sai 4546
Edu@@ 4544
Ek@@ 4541
Alfre@@ 4537
unda 4536
Ú@@ 4532
ht 4523
tem 4517
Northern 4511
lil@@ 4510
pod@@ 4508
jun@@ 4507
CN 4506
sea 4506
Regiment 4504
adan 4503
Det@@ 4494
Schul@@ 4494
ald@@ 4489
zig 4477
ahr@@ 4476
has 4472
oss 4471
Nis@@ 4469
med@@ 4468
Martínez 4465
afa 4465
Rest@@ 4462
Gün@@ 4455
ading 4450
Poli@@ 4448
kul@@ 4442
Frank@@ 4441
onder@@ 4436
Wid@@ 4435
fu 4433
Bib@@ 4432
Gut@@ 4430
Seb@@ 4430
oza 4430
hut@@ 4427
Depor@@ 4426
Human 4425
sters 4421
tech@@ 4421
ei@@ 4418
Cari@@ 4411
hara 4411
Milli@@ 4406
Sta@@ 4406
wns 4405
Studi@@ 4402
imar@@ 4401
2.0 4400
Flu@@ 4398
Reichs@@ 4398
rd 4396
More 4395
monta@@ 4392
Mann 4390
best 4390
Zw@@ 4386
Library 4384
Am 4380
118 4377
Three 4377
heavy 4374
Teatro 4373
haz@@ 4373
Asi@@ 4371
acia 4369
hao 4366
bad 4363
Modern 4352
sei 4352
ina@@ 4351
abo@@ 4349
mani 4347
aat 4346
ional 4340
Valle 4336
Pak@@ 4335
tle 4328
ufac@@ 4327
Motor 4325
ș 4325
Ni 4323
ł 4320
114 4315
English 4312
erk@@ 4312
And 4307
330 4302
ien@@ 4302
aban 4299
bek 4299
210 4297
baz@@ 4297
arra 4295
Zer@@ 4294
ebe 4289
jana 4287
zur@@ 4286
river 4281
Libr@@ 4279
ì 4278
132 4273
IO@@ 4273
Irish 4272
ead 4272
Kut@@ 4271
EE 4269
Sol 4264
Áng@@ 4263
Video 4261
esi@@ 4258
Software 4257
rapid@@ 4257
aliforni@@ 4255
Giov@@ 4253
sik@@ 4252
design@@ 4251
asia 4248
Maf@@ 4238
vas 4233
Oy@@ 4230
saf@@ 4230
Yar@@ 4229
55@@ 4227
say@@ 4227
What 4226
Jung@@ 4222
oya 4222
So 4220
itzer 4220
gol 4219
öh@@ 4219
a.@@ 4218
Hz 4216
ück 4216
India 4215
XX 4215
Eb@@ 4214
hof 4214
parte 4213
Deutsch@@ 4210
Bish@@ 4209
olf 4209
iso 4207
bern@@ 4205
Ê@@ 4193
Enrique 4191
Chi 4187
contribut@@ 4187
staff 4184
rah@@ 4177
abad 4175
cir 4171
Plaza 4168
Comput@@ 4164
116 4162
Kah@@ 4159
yar@@ 4157
Wan@@ 4153
Education 4152
lerin 4151
oft 4147
vik@@ 4147
Gran 4146
tum 4145
Development 4143
People 4140
equ@@ 4140
forman@@ 4137
tros 4135
recht 4129
Dep@@ 4126
Battle 4123
Pho@@ 4115
280 4112
world 4112
vivi@@ 4110
21@@ 4108
rom 4106
Sich@@ 4105
ē@@ 4099
sing 4098
Dut@@ 4088
away 4088
Captain 4084
Exper@@ 4083
coach 4083
cases 4081
lí@@ 4081
atz@@ 4080
évrier 4080
100@@ 4078
260 4078
Ukr@@ 4078
scher 4077
owa 4075
Wen@@ 4074
utz 4074
70@@ 4073
129 4070
Australian 4067
mara 4065
ological 4065
lag 4062
hot@@ 4061
Wilhel@@ 4060
endel@@ 4060
Singles 4056
rim@@ 4049
Songs 4044
Sultan 4044
Hous@@ 4042
1400 4040
ß 4040
ating 4039
yu@@ 4039
ayan 4035
@ 4032
Schi@@ 4031
sad@@ 4031
Instrum@@ 4028
asit@@ 4027
Fall 4024
park 4023
Minh 4021
Lü@@ 4020
Probl@@ 4014
s.@@ 4013
175 4012
Stand@@ 4009
Heil@@ 4005
ween 4004
icio 4002
Thu@@ 4001
Mark@@ 3996
entry 3993
Arth@@ 3988
background 3988
Nieder@@ 3982
650 3981
orf 3979
Assist@@ 3978
Vladi@@ 3978
erek 3976
ait@@ 3973
later 3960
pad@@ 3960
ya@@ 3958
Ped@@ 3955
maz@@ 3955
57@@ 3954
NCA@@ 3954
Ere@@ 3951
enst@@ 3949
Desp@@ 3947
90@@ 3940
ʻ@@ 3940
right 3939
AK@@ 3938
inson 3929
ikan@@ 3924
Wrest@@ 3921
Este 3919
uda 3919
dul@@ 3917
idas 3913
Rä@@ 3911
Like 3909
Chu@@ 3906
uga 3900
5000 3898
arqu@@ 3897
weight 3897
Ruh@@ 3895
He 3894
alte 3890
ambu@@ 3889
Winter 3888
kop@@ 3887
edia 3880
onda 3875
Year 3866
eki 3865
550 3858
anno@@ 3857
Tari@@ 3848
mez@@ 3845
atos 3837
.-@@ 3835
ning@@ 3830
gu 3825
work 3825
beau@@ 3824
ulo 3820
Abdul@@ 3818
Tek@@ 3817
COVID 3815
edra 3815
Dad@@ 3813
liz@@ 3812
edom 3809
ác@@ 3809
Mal 3805
Alfonso 3804
anca 3804
י@@ 3802
chn@@ 3795
acio 3792
kön@@ 3792
sali@@ 3792
native 3790
Neb@@ 3789
orr@@ 3786
African 3784
ayr@@ 3773
Feld@@ 3771
his 3771
Trich@@ 3770
wol@@ 3770
revol@@ 3769
Das 3768
Rug@@ 3768
Vita 3764
Aun@@ 3761
izi 3758
ffen 3756
Federation 3755
zt 3753
Can 3751
155 3750
145 3749
adio 3749
tras@@ 3746
techni@@ 3743
trol 3742
Roma 3740
ular 3738
Geh@@ 3734
wall 3734
erst@@ 3728
Now 3724
Gör@@ 3723
nes@@ 3721
vel 3721
ior 3719
Coun@@ 3718
270 3712
estat@@ 3712
plut@@ 3711
sula 3708
Basket@@ 3699
life 3699
eci@@ 3698
get@@ 3697
eve 3695
Asia 3688
leva 3688
obr@@ 3687
65@@ 3683
altitu@@ 3680
Jim@@ 3679
cola 3677
56@@ 3676
Oper@@ 3676
concre@@ 3675
NAS@@ 3668
opo 3668
Su 3667
itor 3667
kid@@ 3667
uz 3649
egu@@ 3645
Kirch@@ 3644
eon@@ 3641
Lo 3639
lose 3627
Ort@@ 3625
acial 3625
bah@@ 3616
Amer@@ 3610
Wad@@ 3609
Chart 3607
ext 3607
uti 3605
43@@ 3604
Yer@@ 3604
God 3603
pool 3603
Kant@@ 3600
spr@@ 3600
was 3598
big 3597
pio 3597
ority 3594
flav@@ 3593
From 3591
ering 3590
pen 3586
come 3584
ism 3584
Rhein@@ 3583
eras 3575
utt@@ 3567
4000 3559
tima 3559
usi 3559
Town@@ 3558
Highway 3554
Lö@@ 3553
Song@@ 3551
https 3551
lich 3550
ß@@ 3549
lim 3547
lay@@ 3545
That 3543
lower 3538
ías 3537
ality 3532
Ehr@@ 3529
ulia 3529
Kav@@ 3528
eger 3524
ishing 3521
Kais@@ 3519
inz@@ 3517
Phone 3516
enna 3516
Israel 3514
acqui@@ 3509
itter 3509
hay@@ 3508
report 3506
Ut@@ 3502
ockey 3502
eling 3499
inger@@ 3495
refer@@ 3491
adas 3489
raz@@ 3485
wand@@ 3485
works 3481
ə@@ 3473
afe 3463
tur 3461
ineering 3458
opter@@ 3458
featur@@ 3457
119 3455
uku 3447
black 3444
Jesus 3438
tronic 3433
arch 3432
oja 3432
Lew@@ 3428
oda 3428
tham 3428
thu@@ 3428
night 3425
wing 3424
start 3423
isco 3418
lug@@ 3418
380 3414
ensa 3412
ror 3411
had 3410
Cape 3407
quot 3407
đ@@ 3405
Ef@@ 3403
ehr 3402
infer@@ 3400
58@@ 3394
ň 3393
adem@@ 3384
estro 3384
Bek@@ 3383
fab@@ 3381
Rez@@ 3379
Lux@@ 3378
thi 3376
anya 3374
Scottish 3373
unge 3369
Git@@ 3365
won 3365
nach 3364
sobre 3363
anan 3362
ו@@ 3362
vy@@ 3361
illing 3359
ational 3358
endo 3358
onidae 3358
elling 3352
Grab@@ 3351
68@@ 3345
Jes@@ 3345
brit@@ 3345
emba 3345
Kingdom 3343
See 3343
aji 3342
Nach@@ 3341
wi 3337
kit@@ 3335
ample 3331
utu 3326
utar@@ 3324
Pueb@@ 3322
anced 3322
Na 3320
dle 3317
assen 3313
ios 3312
othe@@ 3307
illas 3306
amu 3305
empres@@ 3295
histor@@ 3295
icos 3295
Jah@@ 3287
lern 3285
USD 3284
alen 3280
Univers@@ 3278
Wander@@ 3278
dea 3278
With 3273
folia 3271
Metro 3266
media 3266
Eastern 3261
Committee 3259
fire 3258
152 3256
Secre@@ 3251
kum@@ 3248
furt 3245
Papa 3235
Wir@@ 3230
Under 3229
Earl 3226
Not 3226
inden 3226
weg 3224
wn@@ 3222
ˈ@@ 3215
ising 3214
Wald@@ 3211
-- 3206
Kaiser 3206
ción 3206
cara 3205
Over 3204
KK 3200
lise 3199
Born 3198
führer 3197
essen 3196
K.@@ 3195
Hiv@@ 3193
Viz@@ 3190
aub@@ 3190
kö@@ 3189
zem@@ 3185
amber 3183
bahn 3183
53@@ 3182
irk 3181
Oly@@ 3179
uela 3179
Municipal@@ 3178
ign 3178
d. 3174
far 3173
uten 3171
Ayr@@ 3166
ulan 3164
Sied@@ 3158
11.@@ 3157
med 3157
slo@@ 3154
stead 3154
lik 3148
BK 3145
cier@@ 3141
topl@@ 3137
anchi 3130
mim@@ 3130
git@@ 3125
º 3125
ø 3125
eza 3119
ÿ 3118
́ 3117
led@@ 3116
Latin 3112
alles 3112
59@@ 3109
its@@ 3107
12.@@ 3106
Carolina 3105
Historic 3102
Renn@@ 3102
amount 3102
undo 3101
uso 3100
Neur@@ 3097
Reser@@ 3095
idad 3094
naci@@ 3094
Geb@@ 3092
Ha 3092
kle@@ 3092
atia 3091
rö@@ 3089
GmbH 3088
ners 3088
tiva 3085
aku@@ 3082
kas@@ 3081
Córdoba 3079
Kriegs@@ 3079
chini 3077
kis@@ 3074
Spiel@@ 3069
aina 3069
England 3058
sti 3050
ime@@ 3046
Medical 3045
Americ@@ 3039
ators 3038
Civil 3037
new@@ 3033
ät@@ 3033
kn@@ 3031
Sold@@ 3030
Health 3021
abandon@@ 3020
Kaf@@ 3018
Chu 3017
urs@@ 3017
range 3014
Fren@@ 3012
nah@@ 3012
oti 3012
liche 3011
Ankara 3010
Islam@@ 3009
± 3009
mission@@ 3007
asons 3002
sam 2997
bian 2996
Ø@@ 2992
Cem@@ 2989
tero 2986
team 2985
alu@@ 2980
Stadi@@ 2977
atz 2977
eiro 2975
ities 2975
stream 2972
fen 2969
partem@@ 2968
eles 2966
eleg@@ 2965
trai 2965
Back@@ 2962
wes@@ 2961
stop 2960
bil 2959
dil 2959
dren 2959
Hr@@ 2957
apr@@ 2952
ól@@ 2952
perial 2947
avy@@ 2946
kap@@ 2943
pru@@ 2940
Sie@@ 2939
Ireland 2937
Siv@@ 2935
Ung@@ 2934
then 2930
abu 2929
aliz@@ 2929
dings 2927
ird 2926
nin@@ 2926
sts 2925
Baba 2923
Wales 2923
proper@@ 2918
zor@@ 2918
ʿ@@ 2918
Klo@@ 2916
Phys@@ 2915
itar 2913
adv@@ 2911
Fak@@ 2910
spe@@ 2903
business 2901
Olympic 2900
afor@@ 2900
bara 2900
rest 2900
wers 2899
üh@@ 2895
Burundi 2894
aí@@ 2894
urity 2890
Stud@@ 2886
idental 2886
Dar 2884
hak@@ 2880
power 2879
transl@@ 2878
1st 2877
Florida 2876
erne@@ 2876
67@@ 2873
Inc. 2868
fest 2868
kus@@ 2868
March 2866
Stra@@ 2860
Fest@@ 2859
Benedi@@ 2852
Hier@@ 2850
self 2849
anl@@ 2848
Ame@@ 2844
arian 2844
form 2839
Ciudad 2838
erh@@ 2837
ves@@ 2837
azu 2834
bau 2833
zw@@ 2828
eso 2824
disco 2822
Xu@@ 2821
anot@@ 2821
jen@@ 2821
§ 2821
hab 2820
angi 2817
Nel@@ 2816
66@@ 2814
zar 2814
etes 2812
yer@@ 2812
kun@@ 2810
sola 2808
iff 2805
hio 2804
Doug@@ 2799
engl@@ 2798
europ@@ 2797
esen 2794
free 2790
mula 2789
zis@@ 2788
estra 2787
algo 2786
mann@@ 2786
azo 2783
75@@ 2782
ms@@ 2776
langu@@ 2772
pues 2772
eko 2771
Way@@ 2769
Sos@@ 2766
legi@@ 2766
ists 2762
itung 2761
iza 2757
teri 2756
imba 2751
Kiy@@ 2750
UTC 2749
haw@@ 2749
alter 2747
iku 2744
coun@@ 2739
omer@@ 2738
Bey@@ 2735
emo 2734
nj@@ 2727
text 2725
Ital@@ 2722
Ban 2717
Bisch@@ 2717
Department 2716
arak 2713
trad@@ 2710
ilg@@ 2707
ío 2707
bare 2706
pez 2706
umbo 2706
å 2706
appen 2705
osis 2704
Community 2702
sub 2700
Sonder@@ 2697
they 2696
ös@@ 2691
Alem@@ 2690
Jesús 2689
alta 2689
utz@@ 2686
Stad@@ 2684
love 2681
Gü@@ 2679
death 2679
lina 2679
ã@@ 2676
Mustafa 2674
marc@@ 2674
okia 2671
ández 2671
jed@@ 2670
änder 2668
azine 2665
Fes@@ 2663
was@@ 2659
Government 2656
eder 2656
Tier@@ 2655
platz 2652
sey@@ 2652
ece 2647
ún 2647
thing 2646
Australia 2641
Schwer@@ 2640
chos 2639
emer@@ 2639
If 2638
eim@@ 2638
yam@@ 2637
Municipal 2633
estruc@@ 2632
umo 2632
Kik@@ 2631
Hawai@@ 2630
0.000 2629
Scotland 2627
Obl@@ 2626
àn 2622
Für@@ 2621
kara 2621
schaft 2618
Ba 2617
ool 2615
sell 2613
Liter@@ 2609
inh 2605
pet@@ 2605
Kara 2603
zog 2602
mich@@ 2597
real 2595
maya 2594
elos 2592
Mia 2591
scar 2587
When 2586
bere@@ 2581
that 2580
sun 2579
Kauf@@ 2578
tín 2578
leben 2575
At 2573
Rö@@ 2573
sos@@ 2572
Bü@@ 2568
Wiener 2568
Georgia 2565
wah@@ 2564
deo 2562
199@@ 2551
brach@@ 2551
Part@@ 2550
anat@@ 2550
Federal 2548
Revolution 2548
premi@@ 2548
eig@@ 2546
gave 2544
upon 2544
aster@@ 2543
División 2542
enk@@ 2542
fic 2541
late 2541
opa 2538
yas@@ 2533
gus@@ 2532
ſ@@ 2532
kim@@ 2531
üs@@ 2526
requi@@ 2522
give 2521
mid 2521
tei 2520
Middle 2519
Napo@@ 2519
trit@@ 2519
eign 2518
americana 2516
Famil@@ 2515
law@@ 2514
left 2514
usha 2514
pedia 2512
99@@ 2511
iwa 2507
enen 2506
adam@@ 2504
group 2504
isten 2504
XVII 2501
ersch@@ 2501
fass@@ 2500
rem 2499
After 2498
ombo 2498
trat 2497
meister 2494
ships 2493
Den 2492
isen 2487
leri 2487
End@@ 2486
pia 2486
eball 2484
bü@@ 2483
mec@@ 2483
Hung@@ 2482
geb@@ 2475
Elis@@ 2474
Historia 2473
Schn@@ 2471
issen 2469
erb@@ 2468
kri@@ 2468
2500 2466
Graf 2462
body 2462
arias 2461
enes 2460
tsch@@ 2460
entras 2458
anto 2454
anthus 2453
tek 2453
Minn@@ 2451
Kip@@ 2449
Mara 2449
close 2449
³ 2448
ź@@ 2445
kes@@ 2444
tival 2442
tig 2441
ede@@ 2434
gas 2432
aras@@ 2429
Sin 2428
egen 2428
uch 2427
ón@@ 2424
app 2422
a. 2416
Erd@@ 2415
alam@@ 2415
anach@@ 2415
sau 2415
etas 2414
dek 2411
door 2411
repe@@ 2411
Ş@@ 2411
Sü@@ 2410
Hay 2407
color 2404
lor 2404
XIX 2402
ungs@@ 2398
ḥ@@ 2397
unter@@ 2396
onio 2395
ungen 2394
data 2391
eres 2389
hous@@ 2388
weg@@ 2384
church 2383
Wah@@ 2380
1. 2375
Yoh@@ 2375
educ@@ 2375
Muh@@ 2372
emen 2372
ín@@ 2370
Egyp@@ 2368
Histor@@ 2368
hold 2367
Armen@@ 2366
Viet@@ 2360
lea 2360
room 2360
nak@@ 2358
enty 2357
burger 2353
Provin@@ 2352
Revol@@ 2348
apon 2348
Öster@@ 2347
oten 2346
imler 2344
sn@@ 2344
burg@@ 2341
elek@@ 2341
Yes@@ 2333
Í@@ 2333
Meth@@ 2332
Ark@@ 2329
Kend@@ 2329
eshi 2325
ő 2325
mens@@ 2324
Alman@@ 2322
gemeinde 2322
rá@@ 2317
Ai 2316
Preu@@ 2315
gener@@ 2315
Dop@@ 2313
Grün@@ 2313
Centro 2312
iken 2312
ž 2311
iki@@ 2310
esper@@ 2306
Order 2302
plant 2301
Yaz@@ 2299
ů@@ 2297
linois 2296
Ministr@@ 2295
ambi 2295
ose@@ 2293
wide 2293
Most 2289
hid@@ 2288
Fund@@ 2275
Turk@@ 2275
Nairobi 2273
imini 2273
Republic 2272
Hö@@ 2271
nt 2270
wig 2268
ajo 2267
^ 2266
brand 2266
wehr 2263
run@@ 2262
Position 2261
drama 2260
shows 2260
Single 2257
eting 2254
Gord@@ 2250
hindi 2250
Norte 2246
bey@@ 2245
spi@@ 2243
yard 2242
Speci@@ 2239
iria 2239
optera 2237
ustry 2237
Trab@@ 2236
Airport 2235
schw@@ 2235
quir@@ 2231
Theo 2227
ieve 2220
erin 2217
yar 2217
elde 2214
ň@@ 2212
Führ@@ 2207
List 2207
loss@@ 2207
ching 2205
kup@@ 2205
Vak@@ 2201
Zealand 2201
timi 2200
Rund@@ 2198
sanat@@ 2198
extrem@@ 2195
Cá@@ 2194
sych@@ 2194
clas@@ 2189
provid@@ 2189
nig 2185
Braun@@ 2184
Philadelphia 2184
déj@@ 2184
Kran@@ 2183
Tsch@@ 2179
evi 2179
uw@@ 2179
ר@@ 2179
Konstant@@ 2177
shot 2177
intent@@ 2176
Uru@@ 2175
care 2172
lieb 2171
angel@@ 2169
Apr@@ 2167
ě 2165
Elek@@ 2164
ş@@ 2164
embargo 2162
ön 2160
Bev@@ 2154
Soh@@ 2150
üs 2148
Ener@@ 2147
jah@@ 2146
Bahn 2145
sche@@ 2144
ṣ@@ 2143
pf@@ 2142
fest@@ 2141
lub 2141
class 2140
Zwe@@ 2139
immer 2139
General@@ 2137
ė 2137
cula 2136
aining 2135
host@@ 2132
ppi 2132
Con 2131
museum 2129
iran 2127
urt@@ 2127
ip 2126
kent 2126
school 2126
Gramm@@ 2125
tung 2120
aran 2118
affen 2117
Nür@@ 2116
iden@@ 2114
nad@@ 2112
isches 2108
lemente 2099
Festiv@@ 2098
them 2098
fish 2097
iç@@ 2097
yal 2090
alum@@ 2088
Dek@@ 2087
will 2085
rim 2083
space 2078
äs@@ 2078
espè@@ 2077
mitt@@ 2077
hr 2070
eye 2067
mey@@ 2066
ì@@ 2066
É 2065
dad@@ 2063
Lincol@@ 2062
press 2062
lak@@ 2060
urb@@ 2058
dini 2055
kre@@ 2055
sant@@ 2055
icas 2054
stad@@ 2054
γ 2054
yok@@ 2053
Wali@@ 2052
alog 2050
Stand 2047
א@@ 2044
Süd@@ 2042
Frit@@ 2039
enca 2039
Kib@@ 2037
Groß@@ 2033
chas 2031
Berliner 2027
cil@@ 2027
Dok@@ 2026
Name 2026
event 2025
But 2024
divid@@ 2024
Quan 2022
Gast@@ 2021
ellen 2021
ù@@ 2021
üm@@ 2020
′ 2018
full 2016
ilk 2016
½ 2015
ening 2010
same 2009
emat@@ 2007
sional 2007
isel 2005
Mp@@ 2001
hem@@ 1997
aben 1995
conflic@@ 1995
list 1991
By 1990
She 1990
hus@@ 1988
Chief 1984
izer 1982
eden@@ 1981
Pek@@ 1979
yla 1979
pop@@ 1976
cera 1974
ought 1973
where 1973
afi 1972
gru@@ 1972
ondo@@ 1967
hak 1966
stein@@ 1964
werk 1964
theater 1962
open@@ 1960
meng@@ 1955
ned 1955
ording 1955
jia 1954
size 1954
amos 1950
schen 1950
digital 1949
ã 1949
Wür@@ 1948
yana 1947
iku@@ 1946
trat@@ 1945
Frau@@ 1943
about 1942
ainst 1941
trong 1941
uko 1941
2nd 1933
Kreuz@@ 1929
Zanzibar 1929
Ô 1927
198@@ 1926
äng@@ 1925
Democ@@ 1924
king@@ 1924
Stoc@@ 1921
dific@@ 1918
dok@@ 1916
allen 1915
Islands 1914
Arsen@@ 1913
His 1913
mov@@ 1912
Herb@@ 1911
ém 1911
Ya 1909
made 1909
atory 1907
ledge 1907
Evangel@@ 1906
perten@@ 1906
ceph@@ 1905
íos 1904
tai 1900
hac@@ 1899
ismo 1899
Müh@@ 1897
ump 1897
omba 1894
iny@@ 1893
wur@@ 1892
Ä@@ 1891
BN 1889
aña 1888
lake 1888
xim@@ 1887
alist 1883
ampi@@ 1882
elen@@ 1882
lang 1882
typ@@ 1880
flora 1879
neu 1879
Graf@@ 1878
Ferdin@@ 1873
2. 1872
ç 1871
census 1868
opera 1865
eral 1862
Þ@@ 1859
Landes@@ 1856
iten 1856
Sov@@ 1855
ography 1854
Ü@@ 1853
auch 1851
ɔ@@ 1849
ders@@ 1844
ysis 1843
Gesellschaft 1841
pale 1841
dif@@ 1837
hiv@@ 1837
ging 1836
establ@@ 1835
sek 1835
Galatasaray 1833
zil@@ 1833
ÿ@@ 1833
Bö@@ 1832
June 1832
ifu@@ 1830
may 1830
enton@@ 1829
ization 1829
kata 1829
Valencia 1826
arac@@ 1825
envi@@ 1825
head@@ 1825
18.@@ 1824
tee 1822
15.@@ 1821
nm 1820
mando 1818
uren 1816
Museo 1815
kio 1815
tik 1815
Her 1812
Schwe@@ 1807
chart 1807
oras 1807
Bei 1806
ος 1806
Việt 1802
eran 1802
Rus 1801
embe 1800
jos 1800
fore 1799
ğ@@ 1798
jit@@ 1797
run 1793
atur 1792
ecke 1791
usu 1789
pero 1788
fall 1787
inner@@ 1786
isti 1785
There 1783
hii 1782
Universidad 1781
lywood 1781
nek 1778
Marsh@@ 1777
aught 1776
eas@@ 1776
iker 1776
ב@@ 1776
coloc@@ 1774
Kunst@@ 1770
prac@@ 1770
National@@ 1769
eler@@ 1767
track 1767
Segunda 1766
week@@ 1765
ṭ@@ 1764
back@@ 1762
klin 1762
odo 1762
hep@@ 1761
oran@@ 1759
Pia 1757
iev@@ 1757
ihr 1757
yen@@ 1756
system 1749
Kongo 1748
common 1748
performan@@ 1748
Bir 1746
schule 1746
issen@@ 1745
ı@@ 1745
lied 1744
acid 1742
φ 1741
Sociedad 1737
building 1737
leh@@ 1737
--@@ 1736
ayi 1736
gruppe 1736
ôn 1736
km2 1735
lost 1734
Wiki@@ 1733
aft@@ 1733
מ@@ 1733
word 1732
umen 1731
Another 1730
Staats@@ 1730
España 1729
omel@@ 1729
Mosk@@ 1727
buch 1724
unia 1724
wart 1723
oking 1720
Uch@@ 1719
verein 1718
Heim@@ 1717
elop@@ 1716
ög@@ 1715
fact 1712
Kup@@ 1711
eing 1710
stant@@ 1710
Wach@@ 1708
senc@@ 1707
Ide@@ 1704
kum 1703
bald 1702
nine 1702
ogen 1701
wann 1700
20th 1699
196@@ 1696
Pennsylvania 1696
drei 1696
stil@@ 1696
city 1694
umu 1694
kt@@ 1693
nea 1693
books 1690
cell 1690
gut 1690
ǎ@@ 1690
sita 1689
Klein@@ 1688
Other 1688
Primera 1687
ngu@@ 1687
unas 1686
enin 1685
elem@@ 1683
aten@@ 1682
aum 1682
ɛ@@ 1682
eski 1680
fiel@@ 1678
bez@@ 1676
isia 1676
she 1676
Regional@@ 1674
home 1673
line@@ 1673
basketball 1672
ś 1672
Una 1671
iß@@ 1671
Early 1670
Distr@@ 1668
λ 1668
bell 1667
ever@@ 1666
üc@@ 1666
atura 1664
Deutschland 1662
Corpor@@ 1661
otra 1660
statt 1660
Telev@@ 1659
büt@@ 1658
kari 1657
tiz@@ 1657
ש@@ 1657
Españ@@ 1654
eas 1654
gal 1653
iliano 1652
wana@@ 1652
âm 1652
uza 1651
anz 1650
wana 1650
April 1649
ege 1649
led 1648
14.@@ 1644
194@@ 1644
kia 1644
unde 1644
Epis@@ 1641
asim@@ 1641
anzo 1640
laz@@ 1640
kik@@ 1635
Es 1632
Ș@@ 1632
13.@@ 1631
oren 1631
ℝ 1630
Frei@@ 1628
hadi@@ 1628
like 1626
Regional 1625
pay 1624
ieurs 1623
sof@@ 1622
oğlu 1621
dik@@ 1619
cil 1618
ა@@ 1616
dort 1612
tores 1612
tek@@ 1610
Barcelona 1609
Straße 1609
ký 1608
Haupt@@ 1607
ω 1606
short 1604
odi 1603
ember 1602
doch 1601
hood 1601
neo 1601
coming 1600
good 1600
ên 1597
oyn@@ 1596
äm@@ 1593
ished 1592
197@@ 1591
adet 1589
bed@@ 1588
eten 1588
hali@@ 1588
uvent 1588
song 1587
aji@@ 1586
Congress 1585
ṇ@@ 1584
entum 1583
大@@ 1582
kam 1580
µ@@ 1578
inning 1577
σ 1577
Film@@ 1576
huy@@ 1575
town@@ 1573
adores 1570
Unión 1569
ibi 1569
ifu 1569
ved 1569
quan 1567
4. 1565
Carrera 1565
elte 1564
Fot@@ 1563
tik@@ 1563
wir@@ 1563
20.@@ 1561
dibu@@ 1561
Nguyễn 1559
ⴰ@@ 1559
alya 1558
ל@@ 1557
् 1556
ischen 1555
Guerra 1554
kend@@ 1554
μ@@ 1554
nord@@ 1549
oder 1547
π 1547
iting 1546
ata@@ 1545
reich@@ 1544
aching 1542
esha 1542
Nep@@ 1541
estas 1539
zas 1538
Britain 1537
phi 1535
ungo 1535
alian 1534
ober@@ 1530
utsch@@ 1530
ʼ@@ 1530
Dez@@ 1529
standing 1529
cina 1528
195@@ 1526
Wab@@ 1526
eden 1526
feder@@ 1526
Wilaya 1525
tof@@ 1525
soft 1523
kno@@ 1522
Santi@@ 1519
і@@ 1519
äh@@ 1518
circ@@ 1517
etten 1516
akawa 1513
igen 1513
inco 1513
ε 1512
Nueva 1510
yat 1510
Mittel@@ 1508
Musik 1507
abila 1506
él 1504
Jewish 1502
xin 1501
Garc@@ 1500
plann@@ 1499
mf@@ 1498
CEO 1497
kut@@ 1497
gali@@ 1496
fied 1493
kim 1493
Asian 1491
16.@@ 1490
Stell@@ 1490
icro@@ 1489
tam 1489
ablo 1488
wad@@ 1488
Jew@@ 1487
canti@@ 1485
eben 1485
ütz@@ 1485
Waz@@ 1484
indi 1483
190@@ 1482
Ó 1482
Ö 1482
Mayor 1481
ví@@ 1479
wr@@ 1479
itos 1477
县 1476
dah@@ 1475
nach@@ 1475
icht@@ 1473
Inh@@ 1472
Mw@@ 1472
enzi 1470
hun@@ 1470
tah@@ 1470
Rang 1469
high 1469
17.@@ 1466
Soviet 1465
Musik@@ 1463
leit@@ 1462
aling 1460
emia 1459
נ@@ 1459
beg@@ 1454
Kig@@ 1452
inin 1452
Academ@@ 1449
tradition@@ 1449
xima 1449
äger 1449
izo 1447
baj@@ 1445
basket@@ 1445
Compan@@ 1443
goles 1443
ße 1440
ė@@ 1439
δ 1439
Andro@@ 1438
consum@@ 1437
Kü@@ 1436
193@@ 1433
hul@@ 1433
record@@ 1426
ilan 1425
mak 1425
ligh@@ 1424
teen 1424
egal 1421
novel 1420
ped@@ 1419
two 1419
noch 1417
child 1416
gö@@ 1415
idos 1415
ug 1413
ה@@ 1413
.000 1410
idir 1410
‑ 1410
news 1409
veren 1409
estar 1408
acias 1406
heit 1406
uzi 1406
ück@@ 1406
Argentina 1405
yum 1405
Academia 1402
Ira@@ 1402
nament 1400
schen@@ 1400
çal@@ 1400
wit@@ 1399
Staff@@ 1398
grup@@ 1397
ibu 1397
erer 1396
Öz@@ 1396
EU 1395
pal 1393
Tam 1389
ís@@ 1388
istin 1387
dak@@ 1386
Holz@@ 1385
Lai 1385
ability 1384
adora 1384
pedi@@ 1384
Atl@@ 1383
regi@@ 1383
verl@@ 1382
k.@@ 1380
Ć@@ 1380
g. 1378
vu@@ 1377
Chinese 1376
anzi 1375
deut@@ 1374
Dutch 1372
emos 1372
pá@@ 1370
ð 1370
key@@ 1369
zim@@ 1368
Ngo@@ 1367
sed 1367
onstr@@ 1364
ņ@@ 1364
amor 1363
people 1362
quy 1362
kem@@ 1361
usta@@ 1359
Brasil 1358
year 1357
maz 1356
ests 1352
riff 1352
desp@@ 1349
ended 1349
onto 1349
thin 1349
wahili 1349
Kent@@ 1345
aden@@ 1345
guar@@ 1344
bul 1342
Verlag 1341
eño 1340
refle@@ 1339
estudi@@ 1338
kamp@@ 1337
lek@@ 1337
market 1337
Bür@@ 1336
Lt@@ 1331
Estudi@@ 1330
ichen 1330
lig 1330
Kreis@@ 1328
aday 1325
tional 1325
aking 1324
aray 1323
Popular 1322
number 1322
Erz@@ 1321
cian 1321
efe 1321
geh@@ 1320
amento 1317
icha 1316
aje 1314
upo 1314
Wasser@@ 1313
Zeit@@ 1313
Supre@@ 1312
azim@@ 1312
iw@@ 1312
24.@@ 1311
ი@@ 1310
ücke 1308
pios 1307
ť 1306
Bezir@@ 1305
Mehmet 1304
German 1303
Gymnasium 1303
mana 1303
tad 1303
Rek@@ 1300
Stadt@@ 1298
shar@@ 1298
eign@@ 1297
tim 1297
Eins@@ 1296
Hochschule 1294
event@@ 1293
anian 1290
dern 1290
ľ@@ 1289
eln 1287
zoni 1287
lieg@@ 1286
Venez@@ 1284
isión 1283
cá@@ 1282
hours 1282
ivo 1282
Eliz@@ 1278
speed 1278
22.@@ 1277
на 1277
Operation 1276
Zürich 1276
Tanganyika 1275
enden 1275
party 1275
ged 1274
gü@@ 1274
alism 1273
är 1273
angen 1270
games 1269
DDR 1268
ún@@ 1268
Wien 1267
weit@@ 1266
general 1265
ν 1264
ŏ@@ 1263
Fenerbahçe 1261
Grund@@ 1261
Ein 1259
Nguy@@ 1259
otz 1259
θ 1259
atini 1258
sana 1258
vita 1258
ա@@ 1258
doğan 1257
α@@ 1257
ー@@ 1254
Bu 1253
Ih@@ 1253
ς 1253
angu 1251
area 1250
orden 1249
wie 1249
omen 1247
Some 1245
title 1244
ahn@@ 1243
Gruppe 1242
Internacional 1241
woman 1241
graf@@ 1240
unci@@ 1240
sociation 1238
ün 1238
have 1237
İ@@ 1235
vide@@ 1232
Lan 1231
dep@@ 1230
Wash@@ 1228
arca 1228
unu 1228
verdi 1228
ería 1227
ply 1225
ül 1222
Rural 1220
ungu 1218
imbo 1214
Munici@@ 1213
They 1213
span 1212
tena 1211
zek@@ 1210
ónica 1210
oil 1209
riff@@ 1209
3. 1208
abra 1208
Harv@@ 1205
n.@@ 1205
stel@@ 1205
ám@@ 1205
sich@@ 1202
Kari@@ 1199
rí@@ 1197
Sommer@@ 1196
model 1194
gether 1191
spre@@ 1191
Premio 1190
aging 1190
yor 1190
þ@@ 1190
chter 1189
8. 1187
Nh@@ 1187
ativa 1187
day@@ 1187
schi@@ 1186
Krieg@@ 1185
Macar@@ 1185
ansa 1184
Kapit@@ 1183
180@@ 1181
Auf@@ 1180
Instituto 1180
running 1180
Grupo 1179
pino 1179
thre@@ 1179
west@@ 1179
lanz@@ 1177
mik@@ 1177
Fútbol 1175
reib@@ 1175
egio 1173
ℤ 1172
Haus 1171
arten 1171
most@@ 1171
vida 1170
ż 1170
nim@@ 1169
inti@@ 1168
ked 1168
ρ 1167
Famili@@ 1166
reno 1166
1.5 1165
divers@@ 1165
ellas 1161
first 1161
zey 1160
Sow@@ 1159
msh@@ 1159
gemein@@ 1158
во 1158
ünde 1157
„ 1157
riere 1156
lak 1155
scre@@ 1155
dó@@ 1154
С@@ 1154
Señ@@ 1152
Stif@@ 1151
lista 1151
mül@@ 1151
mip@@ 1150
ע@@ 1150
bang 1149
reich 1149
Mei 1148
reci@@ 1148
ה 1148
wenn 1147
192@@ 1145
Austria 1144
schluss 1144
use@@ 1142
hari@@ 1141
orta@@ 1140
19.@@ 1138
antas@@ 1137
young 1137
kana 1136
kav@@ 1135
taş 1135
sound 1133
Nair@@ 1131
aka@@ 1131
ebu 1130
kat 1128
21.@@ 1127
Educ@@ 1127
ı 1124
una@@ 1123
Afgh@@ 1122
Colombia 1122
haline 1122
Era 1121
sequ@@ 1121
uu 1121
yap@@ 1121
Diy@@ 1119
amia 1117
Korea 1116
frontera 1113
kip@@ 1113
Escu@@ 1110
Hai 1110
Hamburg 1110
≤ 1110
costa 1109
ifa 1109
too 1109
tí@@ 1109
ezo 1106
uras 1105
5. 1104
anh 1104
Lê 1103
endas 1103
Alger@@ 1102
Ermen@@ 1102
Kunst 1099
vili@@ 1099
ús@@ 1098
Feb@@ 1097
aring 1097
gesch@@ 1097
Buch 1096
hips 1096
lek 1096
osha 1096
yol@@ 1096
Dollar 1095
iten@@ 1094
Register 1092
spor 1092
eja 1091
2.5 1090
Schles@@ 1090
lerine 1090
minor 1090
americ@@ 1089
mw@@ 1089
ßen 1089
Seh@@ 1086
atro 1086
hand 1086
cover 1085
tly 1085
white 1085
üm 1085
Kreis 1084
ieder 1083
Chile 1082
ected 1081
kaya 1081
ngh@@ 1080
Hü@@ 1079
Karnataka 1078
anderen 1078
β@@ 1077
wich@@ 1076
Amt 1075
Sevilla 1075
lao 1075
gold 1073
pain@@ 1073
amba@@ 1072
malar@@ 1071
ored 1071
schwe@@ 1071
ř 1071
leo 1069
seri@@ 1067
ď@@ 1067
alem@@ 1066
Professor 1064
mab@@ 1064
ubic@@ 1064
― 1064
constr@@ 1062
tere 1062
ús 1062
Govern@@ 1057
Sommer 1057
deutsche 1057
mee 1057
states 1056
öm@@ 1056
ichte 1054
werke 1053
athol@@ 1051
lichen 1051
ingi 1050
waka 1050
anted 1046
deutscher 1045
gian 1045
older 1044
ometr@@ 1043
wam@@ 1042
cada 1041
tillo 1041
Ā@@ 1041
О@@ 1040
pik 1039
ease 1038
26.@@ 1037
Alter 1036
Napole@@ 1035
Yay@@ 1032
miz@@ 1031
Blü@@ 1030
Mär@@ 1028
eos 1028
Kultur@@ 1027
went 1027
enor@@ 1026
Stim@@ 1025
Tage 1025
itze 1024
kreis 1024
Platz 1023
dig 1023
achen 1022
Ej@@ 1021
kirche 1020
entos 1019
imiento 1019
osas 1019
ibar 1017
pendiente 1017
の@@ 1017
eces 1015
ferro@@ 1014
Catholic 1013
Para 1013
liter@@ 1013
Best@@ 1012
orden@@ 1010
üd@@ 1010
whe@@ 1009
Mül@@ 1008
reco@@ 1007
hik@@ 1006
Woh@@ 1005
fund@@ 1005
avu 1004
municipio 1004
Parliament 1003
Mart 1002
tary 1002
ד@@ 1002
úa 1001
ɛ 1001
А@@ 1001
ן 1000
ţ@@ 999
acter@@ 997
ecia 997
Championships 996
Grupp@@ 996
teria 996
nek@@ 995
Schiff@@ 994
Phi 993
23.@@ 992
them@@ 992
189@@ 991
atem@@ 991
meth@@ 991
olar@@ 991
lieder 990
miento 988
parque 987
Δ@@ 987
0,000 985
luk 985
return 985
ustri@@ 985
ת 985
3.5 984
sek@@ 984
König 983
acab@@ 982
gend 980
cual 979
Sä@@ 978
Waj@@ 978
did 978
mek@@ 977
inat@@ 974
Thanh 973
ending 973
kub@@ 972
aham@@ 971
ispo 971
modo 970
áng 970
langen 969
atür@@ 967
Burg 966
award 966
oku@@ 966
prec@@ 966
Afrika 965
epis@@ 965
wali 965
ür 965
Uk@@ 964
Ab 963
ongo@@ 961
elik 960
lima 960
schl@@ 959
goal 958
ähr@@ 958
beri 956
bed 954
amt 953
Liver@@ 952
eben@@ 952
bora 949
yote 949
tay@@ 948
rece@@ 947
hes@@ 946
casa 945
eit@@ 944
escap@@ 944
illos 944
making 944
most 944
huo 943
Halb@@ 942
ision@@ 942
laya 942
seri 942
äd@@ 942
ezi 941
intro@@ 941
dido 940
Feuer@@ 939
ded 939
nd 939
区 938
Yen@@ 937
sied@@ 937
Develop@@ 936
Wam@@ 935
iline 935
י 934
Hinter@@ 933
idential 932
saw 932
wiki 932
qued@@ 931
alar 930
͡ 930
yet 929
27.@@ 928
iness 928
osu 928
Armee 927
Beş@@ 927
Fach@@ 927
mm@@ 926
zwe@@ 926
Assembly 925
Materi@@ 925
р@@ 925
tales 924
ť@@ 924
lung 923
singer 923
xo@@ 923
ayed 922
Hek@@ 921
ecu@@ 921
enso 921
dida 919
feh@@ 918
funk@@ 918
tep@@ 917
μ 917
ited 916
Fuer@@ 915
President 915
edad 914
octu@@ 914
Regi@@ 913
Sez@@ 913
comes 912
ʾ@@ 912
Ω 912
Ḥ@@ 911
ン@@ 911
Teil@@ 910
ution@@ 909
Er 908
osen 908
anese 906
soon 906
ume@@ 906
anst@@ 905
geri 905
mt@@ 905
teren 905
viel 905
encontr@@ 904
σ@@ 904
↔ 904
Funk@@ 902
success@@ 902
logr@@ 901
wap@@ 900
igher 899
ą 899
iliz@@ 898
ieh@@ 897
Hymen@@ 896
ə 896
Δ 896
fak@@ 895
leich@@ 895
ymnasium 895
γ@@ 895
ּ@@ 895
league 894
asing 893
greg@@ 893
publ@@ 892
zum 891
187@@ 889
limited 888
ם 888
through 887
half 886
185@@ 884
Kinder@@ 884
naf@@ 883
hay 882
kwa 882
DNA 881
khi 881
städ@@ 881
egos 879
Ör@@ 878
в@@ 878
Ñ@@ 877
éx@@ 877
Yug@@ 876
unger 876
onnen 875
aciones 873
Stadt 872
six@@ 872
sever@@ 871
hali 870
small 870
spiel 869
temper@@ 869
hoch@@ 868
186@@ 866
ekt 866
Sơn 865
anak@@ 864
ät 864
ş 863
undu 862
Flug@@ 861
comi@@ 861
188@@ 860
Ahmet 860
enos 860
escu@@ 860
istic 860
ential 859
novel@@ 859
út 859
ский 859
tán 858
25.@@ 857
Pub@@ 857
auen 855
Democratic 854
mash@@ 854
Tierra 852
leng@@ 852
6. 851
Estado 851
ucky 851
Linc@@ 849
Zeit 848
schaf@@ 848
igos 847
story 846
teilung 846
engi 844
ⵉ@@ 844
año 843
lö@@ 843
urban 843
NAT@@ 842
Russian 841
daf@@ 841
deren 841
À@@ 841
Kör@@ 840
Tube 840
quay 840
ē 839
nok@@ 838
hoa 837
া@@ 836
edit@@ 835
ndi@@ 835
oteca 833
perior 832
Ethiop@@ 831
souri 831
ufu 831
jina 829
ка 828
Welt 827
öd@@ 827
Ř@@ 826
Urugu@@ 825
etts 824
Mehr@@ 823
imbab@@ 823
atik 822
cion@@ 821
fica 821
eget@@ 820
istas 820
kung 820
Francia 819
Queens@@ 819
Sein 819
nde 819
trade 819
----@@ 818
integ@@ 818
Akadem@@ 817
Sist@@ 817
ools 817
Partido 816
ewa 816
184@@ 815
eding 815
jaw@@ 815
schrift 815
were 815
ци 814
systems 813
ე@@ 813
″ 813
bier@@ 812
done 812
äuser 812
и 812
hala 811
რ@@ 811
Rom 810
Singapore 810
Werke 810
≥ 810
verband 809
Japanese 808
eses 808
moun@@ 808
speci@@ 808
vur@@ 806
Span@@ 805
food 805
ñas 805
öz@@ 804
Văn 803
naye 802
öch@@ 802
awe 801
Gesch@@ 799
turn 799
Gül@@ 798
figh@@ 798
trik 798
р 798
Kich@@ 797
México 797
Eyl@@ 792
Frau 792
ός 792
tay 791
Im 790
econom@@ 790
erei 789
many 789
ör 789
Castilla 788
Zentrum 788
after 788
Büh@@ 787
Schutz@@ 785
ον 784
Wahl@@ 783
abara 783
в 783
к 783
Köl@@ 782
hall@@ 781
Ley 780
ticia 780
ː@@ 780
天@@ 779
lange 777
how 776
Ciud@@ 775
azz 775
mern 775
Mitte 774
edral 774
ח@@ 774
mundo 773
wake 772
⇒ 772
Dör@@ 771
ached 771
antu 771
order 771
dül@@ 770
kama 770
Poliz@@ 769
Verte@@ 769
För@@ 768
baya 768
yaz@@ 768
cias 765
novi@@ 765
η 765
山@@ 764
óg@@ 763
н 763
0s 762
siz 762
פ@@ 762
others 761
Found@@ 760
λ@@ 760
äf@@ 759
ː 758
their 756
ל 756
Bei@@ 755
Personal 755
dienst 755
quier@@ 755
Meister 754
Trần 754
Kamer@@ 753
ṃ@@ 753
Dresden 752
Rais 752
abaj@@ 752
н@@ 752
München 751
ın 751
ghi 749
munici@@ 748
vania 748
baba 747
nje 747
yel@@ 747
äch@@ 747
я 747
amac@@ 746
each 746
ָ@@ 746
Ingen@@ 745
eser@@ 745
ν@@ 744
Olimpi@@ 742
bt 742
democ@@ 741
buil@@ 740
emu 740
π@@ 740
Dich@@ 739
vip@@ 738
level 737
minut@@ 737
wala 737
7. 736
mt 736
such@@ 736
thu 735
loss 734
Gew@@ 732
Spanish 731
emas 731
aal@@ 730
bom 728
Böl@@ 726
bilin@@ 726
Lehr@@ 725
Oy 725
Sicher@@ 723
für@@ 723
völ@@ 723
hud@@ 722
ק@@ 722
etu 721
porting 721
τ@@ 720
ი 720
Geg@@ 719
Germany 719
Luft@@ 718
identific@@ 718
й 718
för@@ 717
ר 717
Quang 716
kari@@ 716
вич 716
ca. 715
telev@@ 715
ónimo 715
Staat@@ 714
haci@@ 714
Frankfurt 711
ת@@ 711
años 710
eñ@@ 710
át 710
über 710
kah@@ 709
liches 709
ḍ@@ 709
schaften 708
Many 707
college 707
evol@@ 707
natural 707
control 705
nucle@@ 705
voz 705
Rolle 704
л@@ 704
yana@@ 703
heits@@ 702
ლ@@ 702
Arap@@ 701
Welt@@ 701
Đại 701
latter 700
olu 700
Gia 699
mento 699
ayar@@ 698
ʾ 698
ļ@@ 695
δ@@ 695
annel 694
Topl@@ 693
avail@@ 693
onu 693
ücken 693
В@@ 693
ְ@@ 693
Indonesia 692
Russ@@ 692
best@@ 692
some 692
yab@@ 692
̃ 692
་ 692
francés 691
wach@@ 690
waj@@ 690
elev@@ 689
who 689
cost 688
schn@@ 688
И@@ 686
friend 684
muda 683
eña 682
innen 682
gart 681
reo 681
ağ@@ 680
Region 679
lear@@ 679
theast 679
ε@@ 678
zeug@@ 677
Russia 676
enario 676
make 676
Tod 675
mg@@ 674
imani 673
power@@ 673
aş@@ 672
wth 672
vom 671
yet@@ 671
úl@@ 671
orta 670
ciones 669
divi@@ 669
battle 668
isim@@ 668
kale 668
player 668
longer 667
¡ 667
Gatt@@ 666
Kama 666
Uy@@ 666
Benjam@@ 665
Köln 665
arka 665
olar 665
sevi@@ 665
dola 664
estos 664
sah 664
θ@@ 664
Р@@ 664
bruch 663
κ@@ 663
ered 662
umia 662
ched 661
muz 661
tepe 661
Italy 660
Г@@ 660
9. 659
bán 659
culo 659
м@@ 659
espec@@ 658
luy@@ 658
ím@@ 657
ım 657
Lauf@@ 656
jap@@ 656
ệm 654
partido 653
sport@@ 653
seine 652
Akademie 651
Cep@@ 651
ω@@ 651
ַ@@ 651
numer@@ 650
д@@ 650
Zentr@@ 649
ִ@@ 649
imu 646
using 646
כ@@ 646
eş@@ 645
hava 645
lı 645
ǔ 645
Д@@ 645
Yard@@ 644
doba 644
đe 644
а 644
cito 643
These 642
ped 642
sona 642
ш@@ 642
Bình 641
hier@@ 641
aving 640
isho 640
∈ 640
days 638
ɔ 637
came 636
Verein 635
sobre@@ 635
èn 634
lado 633
Dies 632
ι 632
Mf@@ 631
Verein@@ 631
afu 631
üst@@ 631
enten 630
Hoa 629
kali 629
К@@ 628
Wissen@@ 627
actor 627
company 627
müh@@ 627
quien 627
ль@@ 627
ét 625
inu 624
incia 622
tered 622
emple@@ 621
what 621
bea 620
process 620
wash@@ 620
Bremen 619
Tür@@ 619
ations@@ 619
ference 618
gesellschaft 618
ın@@ 618
project 617
Ț@@ 616
Brazil 615
fah@@ 615
zul@@ 615
just 614
ская 614
Jugend@@ 613
mün@@ 613
Universität 612
ğ 612
anah@@ 610
aş 610
ehe 610
seinen 610
ük 610
atwa 609
ograf@@ 609
Schweizer 608
enem@@ 608
Künst@@ 607
ecto 607
there 607
zun@@ 607
July 606
fif@@ 606
kea 606
ük@@ 606
三@@ 606
ingen@@ 605
zus@@ 604
ℚ 604
ь 603
Escuela 602
reve@@ 602
herr@@ 601
which 601
yav@@ 601
ј@@ 601
Engl@@ 600
Geschichte 600
Yıl@@ 600
ngo@@ 600
high@@ 599
mr@@ 599
turn@@ 599
limpi@@ 598
海@@ 598
known 597
olan@@ 597
ħ@@ 597
а@@ 597
Presidente 596
山 596
cero 595
entro 595
essed 595
Osman@@ 594
inan@@ 593
einen 592
Ayn@@ 591
grab@@ 590
polic@@ 590
Σ@@ 590
adil@@ 589
Schauspi@@ 588
reas 588
・ 588
Zug@@ 587
only 587
ied 586
igung 586
studies 586
üng@@ 586
т 586
só@@ 585
ס@@ 585
் 585
gew@@ 584
zh 584
Α@@ 584
kich@@ 583
ói 583
Migu@@ 582
Erk@@ 581
alled 581
Män@@ 580
licher 580
neh@@ 580
Deutschen 579
amani 579
sorg@@ 579
alista 578
ised 578
adhi 577
khi@@ 577
ва 577
dari 576
ehem@@ 576
soka 576
Hamil@@ 575
vak@@ 575
óm@@ 575
Σ 575
klasse 574
three 574
Б@@ 574
к@@ 574
alme 573
ebook 573
ْ@@ 573
ayak@@ 572
bö@@ 572
tiy@@ 572
Arbeit@@ 571
dö@@ 571
fed@@ 571
function 571
mbal@@ 570
z. 570
ǐ@@ 570
Leben 569
Ô@@ 569
ნ@@ 569
critic@@ 568
่ 568
kati@@ 567
ℂ 567
adini 566
М@@ 566
been 565
tish@@ 565
П@@ 565
Nä@@ 564
ג@@ 564
nership 563
ро@@ 563
Como 562
Waf@@ 562
colum@@ 561
fik@@ 561
κ 561
Sus 560
nicht 560
alized 559
persona 559
ǐ 559
Ninh 558
Bis 557
öff@@ 557
ır 557
haya 556
hilo 556
kud@@ 556
richt 556
ará 555
ickl@@ 554
kua 554
chung 553
exec@@ 553
pok@@ 553
ρ@@ 552
♭ 552
region 551
ه@@ 551
ო@@ 551
‐ 551
Gür@@ 550
Italian 550
Nazi 550
Schiff 550
イ@@ 550
alifor@@ 549
ре@@ 549
Nguyên 548
dient 548
nur 548
reser@@ 547
tora 547
Form 546
ihr@@ 546
ζ 546
Teil 545
degree 545
luch@@ 545
role 545
schafts@@ 545
zona 545
χ 545
Ngô 544
aliy@@ 544
е 544
Bürger@@ 543
hö@@ 543
primera 543
Über@@ 543
ⵎ@@ 542
Asociación 541
lá 541
oldu@@ 541
u. 541
ви@@ 541
َ@@ 541
arding 540
Kale 539
Schloss 539
etin 539
Ко@@ 539
← 539
mita 538
χ@@ 538
kuj@@ 537
hale 536
ión 536
working 535
zuk@@ 535
œ 535
Siy@@ 534
王@@ 534
Landkreis 533
archit@@ 533
ır@@ 533
Ε@@ 533
Greek 531
Werk@@ 531
steri@@ 531
aters 530
edonia 530
rul@@ 530
unca 530
ào 530
kaf@@ 529
Fuß@@ 527
ambas 527
anten 527
isiones 526
lead 526
verte@@ 526
τ 526
Zu 525
nh 525
ık@@ 525
евич 525
ḥ 525
ativo 524
南@@ 524
ġ@@ 523
̄ 523
Spain 522
Perú 521
tigen 521
again 519
tische 519
Wahl 518
iyi 518
nung 518
rein@@ 518
中@@ 518
puer@@ 517
República 516
У@@ 516
ἀ@@ 516
✝ 516
bür@@ 515
chim 514
respon@@ 514
spap@@ 514
waf@@ 514
đa 514
с@@ 514
Eig@@ 513
fico 513
wani 513
ла@@ 513
ス@@ 513
一@@ 512
子 512
dej@@ 511
minister@@ 511
cán@@ 510
fot@@ 510
online 510
planta 510
tür@@ 510
у@@ 510
ћ 510
aam 509
kek 509
李@@ 509
rek@@ 508
Director 507
character 507
caracter@@ 506
etos 506
publican 506
ained 505
ennen 505
geschichte 505
iye 505
linde 505
siz@@ 505
stelle 505
но 505
ⵍ@@ 505
ammen 504
calle 503
ecken 503
hili 503
Т@@ 503
ს@@ 501
schutz 500
tish 500
й@@ 500
annen 499
dua 499
schul@@ 499
Minister@@ 498
Zür@@ 498
Salaam 497
Sult@@ 497
aning 497
erini 497
banda 496
modern 496
ט@@ 495
Höh@@ 494
blanco 494
correspon@@ 494
ψ 494
dico 493
fang@@ 493
features 493
take 493
umma 493
Paragu@@ 491
Württemberg 491
luk@@ 491
orado 491
¹ 491
Mt@@ 490
clos@@ 490
comun@@ 490
erras 490
metro 490
̀ 490
ли@@ 490
Nyan@@ 489
ц@@ 489
∞ 489
along 488
atac@@ 488
down@@ 488
ided 487
orod@@ 487
uku@@ 487
when 487
1,0@@ 486
Kinder 486
Their 486
nhof 486
Anh 485
Campeonato 485
ajiri 485
private 485
ǔ@@ 485
edition 484
fahr@@ 484
tren@@ 484
ο@@ 484
saba 483
soy@@ 483
้ 483
Hannover 482
electr@@ 482
Kati 481
Ló@@ 481
Mỹ 481
до@@ 481
Malaysia 480
Quảng 480
arse 480
history 480
used 480
（ 480
access 479
adal@@ 479
develop@@ 479
erten 479
manos 479
მ@@ 479
≈ 479
found@@ 477
ⵏ 477
西@@ 477
Minister 476
spiele 476
ле@@ 476
ayna 475
runs 474
ám 474
์ 474
្ 474
akadem@@ 473
eyi 473
little 473
muz@@ 472
wezi 472
oben 471
änd@@ 471
з@@ 471
т@@ 471
Ecu@@ 470
kü@@ 470
tiv 470
wär@@ 470
Lebens@@ 468
ık 468
צ@@ 468
Sachsen 467
мо@@ 467
ра@@ 467
ي@@ 467
Sohn 466
erse 466
politik 466
ʃ@@ 466
★ 466
ác 465
ր@@ 465
ル@@ 465
Frauen 464
grá@@ 464
istische 464
werden 464
Ο@@ 464
г@@ 464
্ 464
` 463
italiano 463
yay@@ 463
金@@ 463
Lond@@ 462
üz@@ 462
ıl@@ 462
☆ 462
deutschen 461
opening 461
Э@@ 461
ِ@@ 461
ッ@@ 461
ラ@@ 461
çe 460
bele 459
election 459
Κ@@ 459
ло@@ 459
RNA 458
move 458
years 458
September 457
permi@@ 457
sä@@ 457
► 457
子@@ 457
chte 456
Đồng 456
ный 455
Türk 454
Γ 454
بن 454
Mü@@ 453
5.000 452
satz 452
integr@@ 451
Ľ@@ 451
ⵓ@@ 451
tions@@ 450
） 450
kuh@@ 449
theory 449
Yap@@ 448
iente 448
tracks 448
о@@ 448
ვ@@ 448
≠ 448
official 447
äus@@ 447
có@@ 446
while 446
Göl@@ 445
ambia 445
aría 445
Hier 444
Mississi@@ 444
Unter 444
Λ@@ 444
ʂ@@ 443
bila 442
edil@@ 442
pler@@ 442
İn@@ 442
ǒ@@ 442
Dorf@@ 441
Lý 441
frances@@ 441
ه 441
amini 440
ayı 440
ños 440
ко@@ 440
Malay@@ 439
mada 439
seh@@ 439
高@@ 439
schools 438
uzo 438
yük 438
zeit 438
Á 438
Ü 438
ŭ@@ 438
л 438
fight 437
posta 437
ни@@ 437
Gök@@ 436
altung 436
grund 436
mek 436
ww@@ 436
ո@@ 436
ṛ@@ 435
chief 434
Bau 433
deutsch@@ 433
giy@@ 433
ized 433
phong 433
新@@ 433
本@@ 433
Sozial@@ 432
ambos 432
schle@@ 431
fonso 430
Τ@@ 430
， 430
Um 429
ilim@@ 429
sawa 429
ἐ@@ 429
Privat@@ 428
ри@@ 428
Ṣ@@ 428
stud@@ 427
unat@@ 427
õ 427
şehir 427
ilen 426
kura 426
Ι@@ 426
October 425
cover@@ 425
hadi 425
kani 425
teh@@ 425
д 425
Châu 424
Kih@@ 424
Leip@@ 424
campo 424
with@@ 424
̯ 424
φ@@ 424
უ@@ 424
Entw@@ 423
änger 423
ح@@ 423
môn 422
wei@@ 422
이@@ 422
Hà 421
ы@@ 421
小@@ 421
acomp@@ 420
deal 420
differ@@ 420
ア@@ 420
bado 419
lere 419
ñ 419
Por 418
verw@@ 418
ь@@ 418
10.000 417
王 417
Preis 416
uma@@ 416
東@@ 416
equi@@ 415
ingia 415
Alit@@ 414
Phong 414
aguas 414
eher 413
tip 413
ólica 413
Represent@@ 412
illed 412
network 412
с 412
ق@@ 412
Lig 411
egem@@ 411
ehen 411
landa 411
uç@@ 411
ű@@ 411
ρος 411
andan 410
iş@@ 410
ukw@@ 410
З@@ 409
ن@@ 409
1.000 408
Auf 408
Verk@@ 408
tart@@ 408
waz@@ 408
Ка@@ 408
文@@ 408
Gleich@@ 407
father 407
ikal@@ 407
plays 407
örd@@ 407
academ@@ 406
echo 406
kuz@@ 406
operation 406
öne@@ 406
ů 406
Π@@ 406
Kif@@ 405
Alab@@ 404
based 404
etk@@ 404
mej@@ 404
ayd@@ 403
nú@@ 403
ي 403
Osten 402
songs 402
го@@ 402
ⵜ@@ 402
pek@@ 401
àng 401
Μ@@ 401
я@@ 400
ك@@ 400
money 399
suy 399
biy@@ 398
nde@@ 398
uvo 398
س@@ 398
guerra 397
still 397
While 396
going 396
Ма@@ 396
日@@ 396
Haup@@ 395
Schule 395
average 395
island 395
special 395
walt 395
≡ 395
Geographie 394
м 394
א 394
cular 393
yao 393
ình 393
professor 392
ätten 392
ե@@ 392
リ@@ 392
Tông 390
koa 390
ر@@ 390
Adem@@ 389
besch@@ 389
bish@@ 389
ilik@@ 389
öy 389
ла 389
太@@ 389
Ağ@@ 388
prak@@ 388
Eine 387
anii 387
community 387
faz@@ 387
gericht 387
ế 387
during 386
ɪ@@ 386
abab@@ 385
ansi 385
köy 385
თ@@ 385
amt@@ 384
plaza 384
yani 384
äu@@ 384
neas 383
those 383
Бо@@ 383
ل@@ 383
airman 382
ismus 382
khu@@ 382
near 382
İstanbul 382
По@@ 382
family 381
kâ@@ 381
lares 381
● 381
names 380
ー 380
afu@@ 379
ofu 379
risto 379
ξ 379
б@@ 379
п@@ 379
上@@ 379
Cór@@ 378
más 378
ximo 378
о 378
atas@@ 377
erste 377
k. 377
next 377
uppen 377
duk@@ 376
onya 376
и@@ 376
♯ 376
州 376
Mundial 375
schwar@@ 375
yum@@ 375
ɨ@@ 375
encias 374
kunde 374
út@@ 374
во@@ 374
Ende 373
Regierungs@@ 373
also 373
sehen 373
ài 373
水@@ 373
Doğ@@ 372
fig 372
wert 372
на@@ 372
ṅ@@ 372
arlo 371
ogle 371
ди@@ 371
ז@@ 371
Giang 370
como 370
soll 370
Å 370
安@@ 370
Genç@@ 369
femin@@ 369
officer 369
schreib@@ 369
alth 368
anay@@ 367
lido 367
mark@@ 367
such 367
Bảo 366
Nga 366
erung 366
writ@@ 366
人 366
americano 365
county 365
never 365
wegen 365
ка@@ 365
ма@@ 365
神@@ 365
November 364
forsch@@ 364
ikia 364
ebil@@ 363
ehir 363
ogoro 363
tarak@@ 363
Noctu@@ 362
bezirk 362
nne 362
summer 362
áp 362
武@@ 362
Rück@@ 361
cultural 361
ン 361
Xuân 360
ehri 360
íncipe 360
До@@ 360
Heimat@@ 359
Weit@@ 359
century 359
fahrt 359
paso 359
sö@@ 359
ŋ 359
Grenz@@ 358
gesti@@ 358
historia 358
imz@@ 358
mayor 358
ко 358
ⵔ@@ 358
cao 357
dado 357
isla 357
ografia 357
Đức 357
ник 357
ч@@ 357
ֹ@@ 357
Anf@@ 356
Zur 356
akt@@ 356
erster 356
sched@@ 356
ɨ 356
е@@ 356
Olí@@ 355
aç 355
zeh@@ 355
ト@@ 355
aled 354
begin 354
Deniz 353
Pero 353
cambi@@ 353
eich@@ 353
frau 353
urch 353
hata 352
seen 352
Я@@ 352
道@@ 352
Thái 351
ammlung 351
anik@@ 351
kuf@@ 351
µ 351
国@@ 351
poder@@ 350
Λ 350
у 350
ḫ@@ 350
dung 349
durum 349
guez 349
oce 349
protein 349
Geometridae 348
kiş@@ 348
ustos 348
Consejo 347
Ms@@ 347
would 347
yeri 347
bajo 346
great 346
must 346
pili 346
separ@@ 346
weil 346
óng 346
ƒ 346
η@@ 346
Fahr@@ 345
ihe 345
ная 345
siy@@ 344
weit 344
ái 344
د@@ 344
around 343
genes 343
metr@@ 343
® 343
Е@@ 343
北@@ 343
aged 342
broad@@ 342
fand 342
ged@@ 342
utili@@ 342
women 342
ί@@ 342
် 342
Noctuidae 341
amii 341
ellos 341
fern 341
grub@@ 341
länd@@ 341
ätte 341
̱ 341
ク@@ 341
Akad@@ 340
Hindi 340
regul@@ 340
software 340
yü@@ 340
Über 340
ŏ 340
محمد 340
ṭ 340
Kirche 339
Meister@@ 339
found 339
hoy 339
sich 339
ted@@ 339
сь@@ 339
Früh@@ 338
convertir@@ 338
Ò@@ 338
ῶ@@ 338
human 337
klär@@ 337
tario 337
ία 337
Ἀ@@ 337
ῖ@@ 337
Peru 336
mex@@ 336
scheid@@ 336
¿ 336
⋅ 336
五@@ 336
haber 335
yol 335
х@@ 335
ب@@ 335
ⵏ@@ 335
Ø 334
̂ 334
да 334
Türk@@ 333
acked 333
gran 333
tano 333
without 333
Ми@@ 333
Weg 332
aifa 332
research 332
uş 332
ℓ 332
田@@ 332
Erebidae 331
weng@@ 331
writer 331
ό@@ 331
,000 330
Nha 330
Zum 330
angwa 330
aret@@ 330
both 330
ría 330
uwe@@ 330
Н@@ 330
Yên 329
evu 329
ieren 329
zey@@ 329
Β@@ 329
ტ@@ 329
ⵙ@@ 329
bind@@ 328
insel 328
khu 328
edly 327
señ@@ 327
seph 326
τος 325
ων 325
Buna 324
oyun@@ 324
óp@@ 324
Leiter 323
ajes 323
amente 323
nacional 323
who@@ 323
ühr@@ 323
人@@ 323
Cerambycidae 322
ESCO 322
Iglesia 322
Verkehr@@ 322
vai 322
ép 322
öst@@ 322
не@@ 322
dedi@@ 321
mua 321
pek 321
unden 321
wed 321
Φ 321
στ@@ 321
της 321
Poland 320
auti 320
çi 320
đi@@ 320
ва@@ 320
ﬁ@@ 320
ticos 319
ն@@ 319
Hata 318
Wirt@@ 318
eyal@@ 318
jeres 318
member 318
obra 318
otur@@ 318
̌ 318
ж@@ 318
ն 318
ع@@ 318
Anadolu 317
before 317
ded@@ 317
five 317
otball 317
Kommun@@ 315
Turkana 315
habitantes 315
ingly 315
irik@@ 315
said 315
wango 315
οι 315
υ@@ 315
Hòa 314
Kultur 314
aşa 314
derg@@ 314
minh 314
species 314
ش@@ 314
、 314
ously 313
pped 313
Ц@@ 313
ба@@ 313
김@@ 313
2.000 312
December 312
Dương 312
Later 312
ве@@ 312
Tân 311
Uganda 311
ası 311
between 311
early 311
fá@@ 311
hiwa 311
pata 311
ände 311
че@@ 311
Durante 310
Kür@@ 310
Tây 310
huy 310
menos 310
program 310
ución 310
ŵ@@ 310
ʁ@@ 310
白@@ 310
Mannschaft 309
Trung 309
dair 309
mî 309
ков@@ 309
シ@@ 309
Beledi@@ 308
Doppel@@ 308
Punk@@ 308
luz 308
meni 308
muh@@ 308
но@@ 308
по@@ 308
э@@ 308
ի@@ 308
Städ@@ 307
ο 307
ز@@ 307
Flü@@ 306
given 306
Α 306
タ@@ 306
Bahnhof 305
día 305
ι@@ 305
江@@ 305
Gemein@@ 304
Hoàng 304
̈ 304
Ра@@ 304
之@@ 304
decor@@ 303
inay@@ 303
ología 303
ης 303
ב 303
ា@@ 303
ⵜ 303
寺 303
Lage 302
aily 302
duy 302
İs@@ 302
ɡ@@ 302
ʃ 302
ца 302
Kül@@ 301
Orta 301
writing 301
êm 301
üssel@@ 301
Phú 300
deli@@ 300
development 300
menor 300
­ 300
Norden 299
amiento 299
mali 299
十@@ 299
Guinea 298
Tä@@ 298
recep@@ 298
thay 298
đ 298
ـ@@ 298
ẓ@@ 298
events 297
goals 297
materi@@ 297
parec@@ 297
propi@@ 297
yem@@ 297
ämp@@ 297
Ħ@@ 297
Selb@@ 296
abras 296
groups 296
tete 296
де@@ 296
გ@@ 296
Denk@@ 295
Zus@@ 295
ymnasi@@ 295
Partei 294
Thị 294
alich@@ 294
poder 294
television 294
terci@@ 294
م@@ 294
城 294
ectura 293
fü@@ 293
ùng 293
ы 293
道 293
vard@@ 292
το@@ 292
ד 292
ა 292
Baş@@ 290
Its 290
Schweiz 290
Staffel 290
mother 290
ικ@@ 290
Ле@@ 290
ми@@ 290
ბ@@ 290
平@@ 290
bali 289
verein@@ 289
wale 289
zug@@ 289
ätz@@ 289
і 289
education 288
lte 288
mev@@ 288
tó 288
üler 288
ль 288
Tuy 287
jini 287
lü@@ 287
training 287
usal@@ 287
ά@@ 287
А 287
ably 286
against 286
có 286
ohne 286
Ж 286
∪ 286
Hải 285
Orden 285
unos 285
öne 285
ύ@@ 285
Arbeits@@ 284
ently 284
huru 284
spiel@@ 284
ジ@@ 284
Mit 283
kais@@ 283
¼ 283
َ 283
র@@ 283
Orts@@ 282
нов 282
ি@@ 282
ს 282
10. 281
Hồ 281
ahlen 281
iliy@@ 281
rar 281
Ï@@ 281
ʰ@@ 281
г 281
ⴷ@@ 281
的@@ 281
ocho 280
ulit@@ 280
Ə@@ 280
ֵ@@ 280
ロ@@ 280
Kilom@@ 279
bem@@ 279
edern 279
ę 279
ʲ@@ 279
heav@@ 278
ὶ 278
。 278
Klasse 277
ganda 277
hek@@ 277
kush@@ 277
language 277
these 277
tiki 277
น@@ 277
ezas 276
gelen@@ 276
huri 276
imonio 276
pande 276
pueblo 276
ų 276
ان 276
დ@@ 276
Muhammed 275
esine 275
kalm@@ 275
relig@@ 275
На@@ 275
マ@@ 275
明@@ 275
Besch@@ 274
wanza 274
werk@@ 274
Hispania 273
betr@@ 273
empe@@ 273
ficio 273
sind 273
ích 273
ông 273
Ν@@ 273
ή 273
フ@@ 273
Más 272
κα@@ 272
《 272
》 272
Aus 271
hasa 271
iled 271
ilities 271
Ṭ@@ 271
Juli 270
elea 270
ница 270
√ 270
uerto 269
üf@@ 269
城@@ 269
Forschungs@@ 268
release 268
sozial@@ 268
Бе@@ 268
র 268
ⴰ 268
林@@ 268
Jahr@@ 267
kila 267
segu@@ 267
Ī@@ 267
ʒ@@ 267
ново 267
Wieder@@ 266
ispi@@ 266
stellung 266
º@@ 266
ας 266
acus@@ 265
¥ 265
រ@@ 265
ⵢ@@ 265
afir@@ 264
kuk 264
ŋ@@ 264
---- 263
¾ 263
Ку@@ 263
Л@@ 263
ки 263
ї@@ 263
Career 262
denk@@ 262
formed 262
gó@@ 262
houses 262
noche 262
seit@@ 262
wür@@ 262
ıy@@ 262
pewa 261
бо@@ 261
Bonde 260
Demokrati@@ 260
Futbol 260
ift@@ 260
lichkeit 260
osos 260
reduc@@ 260
some@@ 260
Österreich 260
ц 260
公@@ 260
國@@ 260
社 260
dizi 259
does 259
elimin@@ 259
iones 259
laun@@ 259
lili@@ 259
uş@@ 259
Öl@@ 259
和@@ 259
河@@ 259
Mutter 258
Sieg 258
Yeni 258
could 258
greso 258
icios 258
idades 258
legisl@@ 258
represent@@ 258
sett@@ 258
ج@@ 258
い@@ 258
Süper 257
Zanz@@ 257
better 257
held 257
mambo 257
unidad 257
ķ@@ 257
ни 257
四@@ 257
einem 256
xem 256
ız 256
Bahari 255
Refer@@ 255
deutsch 255
kuch@@ 255
strateg@@ 255
umri 255
wali@@ 255
ра 255
ш 255
II. 254
Loan 254
near@@ 254
ǎ 254
ব@@ 254
ু@@ 254
cultura 253
esos 253
every 253
experim@@ 253
inici@@ 253
nun 253
wissen@@ 253
zile 253
Ül@@ 253
石@@ 253
Cộng 252
Kır@@ 252
alik@@ 252
ersten 252
ường 252
ⴱ@@ 252
Kloster 251
fiel 251
ilik 251
ticas 251
üş@@ 251
Ба@@ 251
Ро@@ 251
Х@@ 251
ى 251
レ@@ 251
劉@@ 251
experi@@ 250
need 250
tainment 250
ɲ@@ 250
ρι@@ 250
biri 249
dows 249
ikit@@ 249
person 249
rä@@ 249
tivities 249
ucion@@ 249
xico 249
¬ 249
ɑ 249
Го@@ 249
Са@@ 249
бе@@ 249
то@@ 249
ւ@@ 249
ện 249
Fernseh@@ 248
forms 248
much 248
ти@@ 248
յ@@ 248
不@@ 248
Ministerio 247
editor 247
movement 247
σι@@ 247
ف@@ 247
張@@ 247
대@@ 247
artist 246
organiz@@ 246
veh@@ 246
да@@ 246
خ@@ 246
ὐ@@ 246
地@@ 246
conoc@@ 245
follow@@ 245
living 245
wez@@ 245
áo 245
äts@@ 245
òn 245
ương 245
ски 245
ו 245
ủ 245
Krieg 244
Unidos 244
dete 244
ları 244
mama 244
па@@ 244
са@@ 244
gabe 243
imientos 243
present@@ 243
regional 243
tehsil 243
écn@@ 243
ınar 243
За@@ 243
си@@ 243
ت@@ 243
د 243
ম@@ 243
Sudan 242
durch 242
heit@@ 242
tlich 242
Со@@ 242
не 242
ল@@ 242
় 242
Phúc 241
achsen 241
defin@@ 241
giz@@ 241
Ġ@@ 241
ɕ@@ 241
ει@@ 241
те@@ 241
cai 240
gebung 240
tisch 240
wech@@ 240
ánh 240
óa 240
öß@@ 240
ев 240
за@@ 240
া 240
Quốc 239
being 239
direk@@ 239
north 239
osto 239
retur@@ 239
russ@@ 239
status 239
w.@@ 239
woh@@ 239
га 239
га@@ 239
ׁ@@ 239
alten 238
hif@@ 238
irani 238
Γ@@ 238
Ж@@ 238
ъ 238
ῆ@@ 238
№ 238
19th 237
Vĩnh 237
İzmir 237
ط@@ 237
ⴻ@@ 237
Gegen@@ 236
bisher 236
deci@@ 236
gid@@ 236
ically 236
ologische 236
̣ 236
Kön@@ 235
biet 235
chten 235
istem@@ 235
Χ@@ 235
و 235
ド@@ 235
Kore 234
familia 234
Định 234
̩ 234
Φ@@ 234
та 234
Komit@@ 233
Muhar@@ 233
Paşa 233
Spiel 233
acto 233
ağ 233
find 233
ɣ@@ 233
家@@ 233
Büyük@@ 232
Syria 232
fach@@ 232
uyên 232
ǧ@@ 232
рович 232
ֶ@@ 232
น 232
Verw@@ 231
ció 231
echa 231
oğ@@ 231
vek@@ 231
ков 231
عبد 231
Als 230
Categ@@ 230
Studium 230
dır@@ 230
engine 230
enst 230
frequ@@ 230
hup@@ 230
yako 230
zed 230
ا 230
ᵉ 230
八@@ 230
Bắc 229
Ejército 229
chú 229
ächs@@ 229
üz 229
̍ 229
ги@@ 229
ч 229
ال@@ 229
ℕ 229
Thành 228
Verwaltungs@@ 228
lagen 228
present 228
pueb@@ 228
resist@@ 228
ım@@ 228
Ρ@@ 228
нович 228
ル 228
20. 227
caso 227
past 227
steller 227
verk@@ 227
üne 227
ص@@ 227
elten 226
mch@@ 226
ulares 226
öster@@ 226
◄ 226
Ecuador 225
lerini 225
Đ 225
ɑ@@ 225
ру@@ 225
Häl@@ 224
coi 224
cred@@ 224
ested 224
კ@@ 224
ạc 224
ehir@@ 223
haup@@ 223
lege 223
bire@@ 222
fäl@@ 222
term 222
ziy@@ 222
ónom@@ 222
ια 222
ли 222
ḳ@@ 222
伊@@ 222
mayo 221
òng 221
Гор@@ 221
з 221
Aş@@ 220
engen@@ 220
players 220
tä@@ 220
wegung 220
ört@@ 220
Israeli 219
Proz@@ 219
asoci@@ 219
elected 219
geg@@ 219
gün 219
muerte 219
secund@@ 219
trag 218
Ð@@ 218
со@@ 218
ُ@@ 218
11. 217
Wie 217
behind 217
oría 217
Ω@@ 217
ское 217
alı 216
ellschaft 216
ĭ@@ 216
า@@ 216
元@@ 216
川@@ 216
族@@ 216
法@@ 216
Neben 215
railway 215
season 215
should 215
óc 215
ʼ 215
έ@@ 215
ṯ@@ 215
ῦ@@ 215
正@@ 215
19. 214
Janu@@ 214
Kirchen@@ 214
Stutt@@ 214
energ@@ 214
ách 214
Мо@@ 214
ме@@ 214
Eurov@@ 213
independ@@ 213
kij@@ 213
lauf 213
tierra 213
turas 213
ăng 213
Но@@ 213
ần 213
ận 213
～ 213
Chrysomelidae 212
Grund 212
breit@@ 212
gazet@@ 212
study 212
wahl 212
را@@ 212
ス 212
花@@ 212
Amerika 211
enea 211
española 211
irse 211
legal 211
olay@@ 211
sexual 211
there@@ 211
க@@ 211
东@@ 211
Für 210
resol@@ 210
unzi 210
© 210
ʿ 210
ξ@@ 210
Ш@@ 210
カ@@ 210
Jahre 209
medio 209
êu 209
Ю@@ 209
се@@ 209
الح@@ 209
January 208
gek@@ 208
libro 208
llev@@ 208
sold 208
viel@@ 208
voll@@ 208
ıl 208
та@@ 208
ة 208
ხ@@ 208
║ 208
ⵣ@@ 208
バ@@ 208
Bere@@ 207
atika 207
categ@@ 207
kül@@ 207
rence 207
vely 207
üst 207
Θ@@ 207
ন@@ 207
Phạm 206
arbeit@@ 206
energy 206
government 206
kiz@@ 206
sao 206
spek@@ 206
12. 205
Hy 205
alismo 205
children 205
leading 205
nying@@ 205
renov@@ 205
ţ 205
Де@@ 205
な@@ 205
馬@@ 205
Jimbo 204
Servic@@ 204
dire@@ 204
units 204
ª 204
ров@@ 204
光@@ 204
清@@ 204
14. 203
birliği 203
edrich 203
esini 203
izin 203
otros 203
verz@@ 203
Í 203
ġ 203
Ō 203
нов@@ 203
ש 203
木@@ 203
effect 202
kanda 202
sezon 202
taki 202
ска 202
Aleks@@ 201
Since 201
awala 201
centro 201
gef@@ 201
trata 201
♰ 201
古@@ 201
村 201
Gmina 200
Höhe 200
asked 200
environ@@ 200
lisi 200
sede 200
ít 200
Đi@@ 200
ɾ@@ 200
ар@@ 200
ма 200
ّ@@ 200
ọ 200
か@@ 200
真@@ 200
Công 199
Parte@@ 199
Republik 199
Türkiye 199
entreg@@ 199
help 199
third 199
ufu@@ 199
yek@@ 199
গ@@ 199
ạng 199
テ@@ 199
二@@ 199
fallen 198
keit 198
phân 198
torno 198
Ǧ@@ 198
百@@ 198
diente 197
dungs@@ 197
interest 197
kann 197
steh@@ 197
ρα@@ 197
Ф@@ 197
чи@@ 197
⊕ 197
Werk 196
lungen 196
mujer 196
ográ@@ 196
ovu 196
̤ 196
് 196
ṣ 196
イ 196
ived 195
teatro 195
ĕ@@ 195
̥ 195
Β 195
Π 195
Ч@@ 195
ля@@ 195
ний 195
Reino 194
Sie 194
aße 194
koy@@ 194
Пет@@ 194
দ@@ 194
式@@ 194
III. 193
Lâm 193
Militär@@ 193
Olympics 193
araç@@ 193
policy 193
selec@@ 193
änge 193
ística 193
üt 193
О 193
С 193
州@@ 193
정@@ 193
Asoci@@ 192
ahora 192
ağı 192
muer@@ 192
novela 192
vista 192
ví 192
са 192
хо@@ 192
ק 192
م 192
ா@@ 192
‚ 192
antigu@@ 191
kamen 191
nten 191
practice 191
ähn@@ 191
äre 191
úbl@@ 191
υ 191
ע 191
़ 191
方@@ 191
Bahn@@ 190
Ceramb@@ 190
buildings 190
evento 190
meister@@ 190
schloss 190
sitz@@ 190
̲ 190
Се@@ 190
ше@@ 190
ến 190
し@@ 190
会@@ 190
美@@ 190
陳@@ 190
13. 189
heu@@ 189
interpret@@ 189
provincia 189
京@@ 189
女@@ 189
bisch@@ 188
farm@@ 188
func@@ 188
би@@ 188
型 188
長@@ 188
Dorf 187
Khánh 187
alama 187
cuadr@@ 187
declar@@ 187
hombre 187
migu@@ 187
political 187
sech@@ 187
İl@@ 187
Ве@@ 187
س 187
ἰ@@ 187
中国@@ 187
16. 186
Sau 186
Wais@@ 186
accoun@@ 186
kuli@@ 186
theor@@ 186
ม@@ 186
↑ 186
玉@@ 186
Tham 185
hija 185
odio 185
rights 185
signed 185
ış 185
ǫ@@ 185
ί 185
лович 185
ḏ@@ 185
ῦ 185
キ@@ 185
郎 185
阿@@ 185
Hanno@@ 184
Jahr 184
cities 184
seven 184
träge 184
veget@@ 184
zeit@@ 184
zentrum 184
Υ@@ 184
άν@@ 184
αν@@ 184
Ме@@ 184
ан@@ 184
ку@@ 184
الم@@ 184
ịnh 184
Arnav@@ 183
complex 183
depend@@ 183
ordu 183
μα 183
В 183
кий 183
ф@@ 183
স@@ 183
ト 183
ナ@@ 183
九@@ 183
無@@ 183
doa 182
kuna 182
siri 182
ʰ 182
Бу@@ 182
ე 182
と@@ 182
コ@@ 182
我@@ 182
通@@ 182
15. 181
Kazi 181
Meisterschaft 181
gez@@ 181
hör@@ 181
junto 181
kör@@ 181
Не@@ 181
ქ@@ 181
지@@ 181
Drit@@ 180
aktion 180
ematik 180
enced 180
mang 180
preu@@ 180
ungwa 180
Ру@@ 180
ст@@ 180
প@@ 180
andere 179
ihm 179
ζ@@ 179
ى@@ 179
ܐ 179
ất 179
∧ 179
た@@ 179
福@@ 179
leitung 178
ológico 178
seli 178
teams 178
umbe 178
х 178
野@@ 178
alisi@@ 177
motor 177
trä@@ 177
ű 177
ρο@@ 177
ψ@@ 177
Му@@ 177
Па@@ 177
рий 177
و@@ 177
ง@@ 177
ἄ@@ 177
ⵄ@@ 177
ん@@ 177
パ@@ 177
사@@ 177
10,000 176
Konz@@ 176
efu 176
plata 176
ruh@@ 176
ου@@ 176
Ар@@ 176
أ@@ 176
原@@ 176
島 176
flü@@ 175
resid@@ 175
result@@ 175
schutz@@ 175
waw@@ 175
ũng 175
̓ 175
Э 175
ⵡ@@ 175
い 175
民@@ 175
永@@ 175
Partisi 174
another 174
industrial 174
πο@@ 174
الله 174
ক@@ 174
周@@ 174
皇 174
Anglet@@ 173
arı 173
issu@@ 173
minister 173
raum 173
umani 173
zeich@@ 173
ィ@@ 173
青@@ 173
areas 172
kent@@ 172
lowing 172
recht@@ 172
timm@@ 172
Во@@ 172
пе@@ 172
生 172
龍@@ 172
Ngọc 171
París 171
husband 171
okrati@@ 171
university 171
Ä 171
ши@@ 171
ب 171
生@@ 171
镇 171
Literatur 170
ased 170
siti@@ 170
vehic@@ 170
änder@@ 170
ístico 170
Ž 170
И 170
ск@@ 170
غ@@ 170
ก@@ 170
შ@@ 170
‌ 170
七@@ 170
經 170
Eigen@@ 169
Güney 169
Japón 169
compon@@ 169
director 169
esas 169
ären 169
ё@@ 169
ܝ@@ 169
த@@ 169
ὸ@@ 169
‡ 169
愛@@ 169
黄@@ 169
Menschen 168
ición 168
since 168
tema 168
uzak@@ 168
ycidae 168
àu 168
να@@ 168
ково 168
한@@ 168
Kuv@@ 167
alara 167
elik@@ 167
laka 167
length 167
otro 167
Đông 167
ền 167
一 167
院 167
iben 166
¨ 166
Ķ@@ 166
ду@@ 166
ки@@ 166
ி@@ 166
ャ@@ 166
春@@ 166
queda 165
Си@@ 165
То@@ 165
евна 165
ло 165
‒ 165
ⵉ 165
星@@ 165
田 165
abei 164
aliye@@ 164
alre@@ 164
betrieb@@ 164
ió 164
meas@@ 164
nuevo 164
poco 164
revel@@ 164
together 164
ucu 164
umbu@@ 164
տ@@ 164
ウ@@ 164
年@@ 164
Imperio 163
Machi 163
Minnes@@ 163
Papua 163
clás@@ 163
different 163
ección 163
hospital 163
zug 163
über@@ 163
Пе@@ 163
ảo 163
台@@ 163
物@@ 163
黃@@ 163
Kinh 162
ambao 162
barrio 162
esab@@ 162
largo 162
president 162
ŭ 162
る 162
Devlet 161
Meter 161
Mr. 161
Wirtschafts@@ 161
haa 161
ichten 161
meter 161
mittee 161
̪ 161
τι@@ 161
الع@@ 161
ết 161
⟩ 161
空@@ 161
門 161
Forsch@@ 160
ahada 160
attack 160
govern@@ 160
maji 160
popular 160
redu@@ 160
ydi 160
ен@@ 160
за 160
ر 160
オ@@ 160
baja 159
istik 159
mechan@@ 159
neue 159
ánica 159
ʔ@@ 159
ْ 159
德@@ 159
皇@@ 159
Ngh@@ 158
ȝ@@ 158
Η@@ 158
сто@@ 158
إ@@ 158
香@@ 158
ciudad 157
español 157
federal 157
julio 157
nda 157
organization 157
playing 157
tischen 157
todo 157
written 157
÷ 157
ģ@@ 157
Ан@@ 157
К 157
կ@@ 157
ạch 157
ị 157
∂ 157
合@@ 157
成@@ 157
藤@@ 157
Kızıl@@ 156
khai 156
kuk@@ 156
kund@@ 156
presid@@ 156
wenda 156
zaman 156
zeug 156
ق 156
າ@@ 156
ạnh 156
チ@@ 156
帝 156
ansas 155
complete 155
endet 155
proced@@ 155
tiempo 155
tipi 155
ĝ@@ 155
ĩ 155
الق@@ 155
ِ 155
河 155
구@@ 155
Maji 154
Mch@@ 154
Vater 154
Vor 154
inah@@ 154
much@@ 154
padre 154
sahi@@ 154
tener 154
wird 154
λλ@@ 154
Га@@ 154
り@@ 154
六@@ 154
Durch@@ 153
Frankreich 153
Juni 153
nden 153
yonel 153
Θ 153
μα@@ 153
ско 153
⁰ 153
り 153
エ@@ 153
グ@@ 153
デ@@ 153
Dort 152
Gobierno 152
Orod@@ 152
aparec@@ 152
famous 152
ichts@@ 152
igkeit 152
oldu 152
ƒ@@ 152
Ψ 152
Ви@@ 152
бу@@ 152
ẵ@@ 152
∘ 152
∩ 152
ま@@ 152
氏 152
21. 151
akini 151
cı 151
elinde 151
seat 151
λα@@ 151
του 151
Ки@@ 151
Про@@ 151
ев@@ 151
ন 151
ộc 151
■ 151
心@@ 151
Kwa 150
Singapo@@ 150
Umw@@ 150
Wasser 150
duy@@ 150
instead 150
präs@@ 150
quy@@ 150
Η 150
ή@@ 150
Александ@@ 150
пу@@ 150
وَ@@ 150
プ@@ 150
学@@ 150
Cumhuriy@@ 149
beit@@ 149
brother 149
bürger@@ 149
gegen 149
genus 149
muj@@ 149
mz@@ 149
okul@@ 149
suç@@ 149
yans@@ 149
yoğ@@ 149
ũ@@ 149
ʐ@@ 149
ʒ 149
صر 149
ⴳ@@ 149
会 149
少@@ 149
25. 148
Architek@@ 148
allow 148
ifen 148
ου 148
гор@@ 148
ур@@ 148
، 148
ு@@ 148
自治@@ 148
Gesamt@@ 147
determin@@ 147
eded 147
enek@@ 147
linal@@ 147
ommen 147
related 147
όν 147
ܘ@@ 147
ὁ 147
サ@@ 147
名@@ 147
松@@ 147
Finanz@@ 146
acı 146
eneo 146
eyen 146
honor 146
kleine 146
ordnung 146
sión 146
yok 146
̧ 146
ат@@ 146
лу@@ 146
ю 146
ⴼ@@ 146
ブ@@ 146
covered 145
fully 145
música 145
partment 145
prepar@@ 145
victoria 145
àm 145
ɪ 145
ακ@@ 145
гу@@ 145
пи@@ 145
ُ 145
› 145
軍 145
1,000 144
17. 144
Fußball@@ 144
Geometr@@ 144
Stil 144
Thiên 144
adiri 144
baji 144
championship 144
cuer@@ 144
igte 144
kumi 144
nueva 144
resto 144
unid@@ 144
và 144
vì 144
within 144
zuri 144
Æ 144
Влади@@ 144
ал@@ 144
ро 144
ров 144
ча@@ 144
ف 144
য 144
ც@@ 144
江 144
都@@ 144
afan@@ 143
asker@@ 143
atao 143
diez 143
inglés 143
kez@@ 143
uldu 143
zentr@@ 143
Ста@@ 143
Я 143
му@@ 143
ния 143
њ@@ 143
ع 143
ར@@ 143
‹ 143
∅ 143
法 143
because 142
nete 142
tá 142
wife 142
Â 142
ក@@ 142
⊗ 142
堂 142
平 142
阳@@ 142
anded 141
babu 141
comunidad 141
dass 141
superior 141
texto 141
transfer 141
б 141
ت 141
さ@@ 141
千@@ 141
行@@ 141
18. 140
llam@@ 140
ttem@@ 140
̠ 140
αρ@@ 140
ού@@ 140
У 140
ри 140
⟨ 140
に@@ 140
る@@ 140
月@@ 140
박@@ 140
ABD 139
among 139
armas 139
lü 139
personal 139
wieder 139
ʊ@@ 139
θος 139
τα 139
ϐ@@ 139
Су@@ 139
ное 139
ار@@ 139
↦ 139
」 139
ん 139
ダ@@ 139
市 139
文 139
楊@@ 139
Chama 138
Irel@@ 138
dered 138
eckt 138
evangel@@ 138
gebi@@ 138
hombres 138
liegen 138
urdu 138
zial@@ 138
αλ@@ 138
Ва@@ 138
це 138
ս@@ 138
ม 138
「 138
Arbeit 137
asili 137
enfr@@ 137
finished 137
today 137
İz@@ 137
ην@@ 137
ις 137
Мар@@ 137
ня 137
ха@@ 137
մ@@ 137
ل 137
ុ@@ 137
ク 137
下@@ 137
工@@ 137
海 137
Sprache 136
führung 136
health 136
ierra 136
madre 136
wohl 136
Ā 136
ȝ 136
΄ 136
ώ@@ 136
Ј@@ 136
ет@@ 136
лов@@ 136
ṯ 136
お@@ 136
ミ@@ 136
张@@ 136
記 136
Insel 135
Jahres 135
ammen@@ 135
cez@@ 135
ganz@@ 135
kommen 135
tesi 135
ɓ@@ 135
вица 135
ста@@ 135
⊂ 135
ニ@@ 135
神 135
30. 134
Dienst@@ 134
Kuna 134
Tanzania 134
artists 134
papel 134
sí 134
vuel@@ 134
zös@@ 134
È 134
ôi 134
Š 134
δι@@ 134
أبو 134
ار 134
ო 134
ệu 134
う@@ 134
立@@ 134
陽@@ 134
리 134
Kanada 133
leich 133
mannschaft 133
rund 133
schaft@@ 133
siones 133
south 133
wao 133
ónico 133
ʷ@@ 133
Алек@@ 133
Михай@@ 133
ди 133
ор@@ 133
პ@@ 133
ạt 133
き@@ 133
Agosti 132
called 132
drit@@ 132
días 132
east 132
kräf@@ 132
ocur@@ 132
ológ@@ 132
vía 132
ız@@ 132
Ε 132
αυ@@ 132
ј 132
Ա@@ 132
ძ@@ 132
Ἰ@@ 132
こ@@ 132
有@@ 132
Tiên 131
amua 131
entren@@ 131
iriki 131
meli 131
prior 131
seln 131
truy 131
ơ 131
ιος 131
Ни@@ 131
ба 131
же@@ 131
ا@@ 131
አ@@ 131
Ḫ@@ 131
あ@@ 131
天 131
漢@@ 131
自@@ 131
軍@@ 131
Chí 130
Hilfe 130
Nghệ 130
Qualif@@ 130
andao 130
complet@@ 130
elections 130
está 130
parish 130
regular 130
schied 130
sozi@@ 130
unkt 130
wiesen 130
Θε@@ 130
лов 130
то 130
ن 130
ắ@@ 130
∨ 130
が@@ 130
く@@ 130
ビ@@ 130
港@@ 130
Tiy@@ 129
başı 129
camino 129
eight 129
hiệu 129
month 129
onlyinclude 129
response 129
Õ@@ 129
ática 129
ի 129
ে@@ 129
国 129
明 129
潜@@ 129
龙@@ 129
동@@ 129
Amts@@ 128
Familie 128
Oreg@@ 128
Parlam@@ 128
Tự 128
Venedi@@ 128
benef@@ 128
deleg@@ 128
dió 128
emente 128
insan@@ 128
mito 128
property 128
tü@@ 128
venes 128
θε@@ 128
ذ@@ 128
แ@@ 128
ⵔ 128
世@@ 128
景@@ 128
朱@@ 128
花 128
수@@ 128
5,000 127
Ereb@@ 127
Mwan@@ 127
achten 127
acion@@ 127
echos 127
selves 127
thought 127
ulus@@ 127
zieh@@ 127
ıt 127
μέ@@ 127
ρα 127
Ду@@ 127
اب@@ 127
ர@@ 127
♥ 127
ュ@@ 127
alismus 126
usiana 126
̞ 126
Ν 126
вна 126
зо@@ 126
ство 126
خان 126
ش 126
ப@@ 126
ស@@ 126
ằng 126
ệ 126
ⵃ@@ 126
大 126
村@@ 126
Biblia 125
einz@@ 125
erischen 125
ización 125
kiye 125
leyen 125
ĭ 125
αι@@ 125
ين 125
ོ@@ 125
ỳ@@ 125
ὑ@@ 125
♂ 125
唐@@ 125
建@@ 125
株@@ 125
華@@ 125
部@@ 125
22. 124
Erst@@ 124
Regel 124
alipo@@ 124
allem 124
asik 124
curso 124
debut 124
konum@@ 124
leist@@ 124
struk@@ 124
Ē@@ 124
ʁ 124
όν@@ 124
Да@@ 124
кова 124
су@@ 124
ח 124
نا@@ 124
ག@@ 124
ἔ@@ 124
⁄ 124
∆ 124
♀ 124
家 124
아@@ 124
army 123
celebr@@ 123
elled 123
lesia 123
links 123
çı 123
Ре@@ 123
Че@@ 123
вец 123
في 123
ی@@ 123
ਾ@@ 123
行 123
門@@ 123
Fener@@ 122
américa 122
angeb@@ 122
anzia 122
ately 122
bild 122
consider@@ 122
empre 122
iento 122
kiwa 122
ʷ 122
ερ@@ 122
Ла@@ 122
мир 122
ъ@@ 122
الش@@ 122
고@@ 122
이 122
acional 121
aliza 121
allow@@ 121
female 121
perio 121
plaz@@ 121
sifa 121
volun@@ 121
го 121
жи@@ 121
ные 121
الك@@ 121
জ@@ 121
ὰ 121
草@@ 121
陽 121
Gebiet 120
Hội 120
Nach 120
died 120
dör@@ 120
economic 120
edades 120
gebiet 120
medical 120
obispo 120
taus@@ 120
¢ 120
äß@@ 120
ìn 120
̆ 120
ρά@@ 120
ша 120
ấn 120
┬ 120
宗 120
部 120
국@@ 120
achama 119
ationen 119
diye 119
fach 119
welche 119
zeichen 119
ính 119
üçük 119
ľ 119
ước 119
ιν@@ 119
Пре@@ 119
Та@@ 119
миро@@ 119
ض@@ 119
مَ@@ 119
स 119
ョ@@ 119
宗@@ 119
教@@ 119
里@@ 119
陈@@ 119
Kateg@@ 118
Ordu 118
Spiele 118
associated 118
author 118
kte 118
sü@@ 118
Ön@@ 118
üge 118
ĩnh 118
ǒ 118
ʲ 118
ρί@@ 118
τρ@@ 118
Александр 118
М 118
ит@@ 118
рь 118
پ@@ 118
ত@@ 118
主@@ 118
大学 118
Bruder 117
Ethiopia 117
Spä@@ 117
ahidi 117
censo 117
competition 117
contract 117
encu@@ 117
few 117
rather 117
Ď@@ 117
ʊ 117
ʽ@@ 117
ατ@@ 117
ικός 117
ών 117
ной 117
те 117
Հ@@ 117
ס 117
ら@@ 117
ァ@@ 117
ガ@@ 117
ド 117
外@@ 117
英@@ 117
館 117
23. 116
Vũ 116
Württem@@ 116
bahn@@ 116
encial 116
entí@@ 116
kathol@@ 116
legen 116
linie 116
means 116
nisse 116
pequ@@ 116
winning 116
yoy@@ 116
̇ 116
ασ@@ 116
κο@@ 116
να 116
э 116
ך 116
الن@@ 116
ري@@ 116
َّ@@ 116
ย@@ 116
ち@@ 116
仁 116
吉@@ 116
手@@ 116
리@@ 116
학@@ 116
Kult@@ 115
Ort 115
Pfarr@@ 115
anische 115
confer@@ 115
frei@@ 115
ático 115
αμ@@ 115
П 115
ин@@ 115
об@@ 115
сти@@ 115
モ@@ 115
井@@ 115
博@@ 115
義@@ 115
기@@ 115
성@@ 115
ildi 114
neces@@ 114
tanto 114
tnis 114
tournament 114
éctr@@ 114
ον@@ 114
І@@ 114
Об@@ 114
مو@@ 114
ว@@ 114
င 114
ზ@@ 114
Ḳ@@ 114
₁ 114
₂ 114
™ 114
ズ 114
华@@ 114
市@@ 114
重@@ 114
도 114
신@@ 114
Hưng 113
Kilometer 113
Schrif@@ 113
bew@@ 113
equip@@ 113
punkt 113
triz 113
ɐ 113
ες 113
λε@@ 113
ние 113
ть 113
อ@@ 113
Ἐ@@ 113
┌ 113
ⴷ 113
代@@ 113
原 113
Verfass@@ 112
canción 112
daki 112
istischen 112
lý 112
marca 112
nhi@@ 112
takes 112
Ú 112
ígen@@ 112
Ι 112
Дра@@ 112
мен@@ 112
լ@@ 112
ان@@ 112
سى 112
ục 112
⇔ 112
ハ@@ 112
全@@ 112
夫 112
安 112
戦@@ 112
Betrieb@@ 111
Hungary 111
episode 111
interpre@@ 111
jüd@@ 111
kili@@ 111
mbH 111
period 111
strum@@ 111
ßer@@ 111
þ 111
ıs@@ 111
Ο 111
αγ@@ 111
Владимир 111
слав 111
र 111
ะ@@ 111
ữu 111
ⵓ 111
ⵙ 111
士 111
後@@ 111
민@@ 111
주@@ 111
24. 110
Cuando 110
February 110
ancı 110
histór@@ 110
igned 110
success 110
tambu@@ 110
woll@@ 110
Ï 110
üre@@ 110
şi 110
ʔ 110
κλ@@ 110
λι@@ 110
τα@@ 110
Ли@@ 110
Укра@@ 110
ст 110
ὀ@@ 110
ⴽ@@ 110
化@@ 110
川 110
29. 109
Pacífico 109
awali 109
ihn 109
ünden 109
ħ 109
ɣ 109
άρι@@ 109
ελ@@ 109
λόγ@@ 109
При@@ 109
Сер@@ 109
п 109
по 109
دي 109
ی 109
ச@@ 109
ម 109
は@@ 109
島@@ 109
社@@ 109
語 109
Anw@@ 108
Grup 108
beit 108
ficas 108
heute 108
mehr@@ 108
zeng@@ 108
Υ 108
ав@@ 108
ер@@ 108
про@@ 108
ские 108
ю@@ 108
ون 108
ܕ@@ 108
ো@@ 108
வ@@ 108
ḍ 108
ầu 108
艦 108
马@@ 108
feature 107
gebr@@ 107
include 107
members 107
reform 107
seis 107
siempre 107
terior 107
tionen 107
yali@@ 107
zwei 107
ública 107
ά 107
οφ@@ 107
Иван 107
Чер@@ 107
бро@@ 107
нова 107
ция 107
ץ 107
أحمد 107
الأ@@ 107
ܪ@@ 107
त 107
█ 107
型@@ 107
孫@@ 107
是@@ 107
縣 107
의 107
조@@ 107
Gemeinde 106
cristi@@ 106
ennt 106
fte 106
jiji 106
temas 106
εν@@ 106
Ло@@ 106
ня@@ 106
ского 106
れ@@ 106
字 106
朝@@ 106
湖@@ 106
火@@ 106
胡@@ 106
长@@ 106
인@@ 106
Nint@@ 105
abier@@ 105
führ@@ 105
sitz 105
èo 105
ής 105
πι@@ 105
το 105
لَ@@ 105
হ@@ 105
ம@@ 105
ု@@ 105
ボ@@ 105
定@@ 105
梁@@ 105
沙@@ 105
老@@ 105
교 105
Phương 104
Yaş@@ 104
baller 104
baş@@ 104
dır 104
große 104
krieg@@ 104
produk@@ 104
recogni@@ 104
Ç 104
Ë@@ 104
Гра@@ 104
Дмит@@ 104
Т 104
из@@ 104
љ@@ 104
الس@@ 104
عَ@@ 104
ช@@ 104
พ@@ 104
ส@@ 104
ន@@ 104
​ 104
中 104
政@@ 104
會 104
林 104
水 104
2,000 103
26. 103
Khi 103
Leist@@ 103
Thánh 103
destr@@ 103
essee 103
kati 103
letzte 103
udur 103
uvu 103
Алексе@@ 103
Лю@@ 103
Цер@@ 103
вер@@ 103
ля 103
ман 103
ту@@ 103
ט 103
ح 103
علي 103
巴@@ 103
書 103
源@@ 103
羅@@ 103
스@@ 103
Dr. 102
Makala 102
Nationalmannschaft 102
Politik 102
Raum 102
cional 102
grenz@@ 102
hapa 102
ieron 102
konn@@ 102
tisha 102
wirt@@ 102
áneo 102
óric@@ 102
ǀ@@ 102
άλ@@ 102
Фё@@ 102
Ха@@ 102
ге@@ 102
лю@@ 102
ти 102
ф 102
ابن 102
الت@@ 102
رو@@ 102
ก 102
็ 102
ာ@@ 102
∀ 102
ワ@@ 102
你@@ 102
across 101
artist@@ 101
author@@ 101
eigen@@ 101
geht 101
gira 101
ierte 101
lucha 101
menin 101
obras 101
versch@@ 101
ùi 101
Ğ@@ 101
ˁ@@ 101
άρ@@ 101
Би@@ 101
Г 101
Никола@@ 101
лен@@ 101
ك 101
ਰ@@ 101
み@@ 101
ェ@@ 101
内@@ 101
字@@ 101
谷@@ 101
超@@ 101
Congreso 100
Following 100
Nội 100
Prä@@ 100
aircraft 100
ajwa 100
anı 100
iliz 100
onship 100
todos 100
trieb@@ 100
uyền 100
âu 100
̰ 100
ед@@ 100
зи@@ 100
си 100
مان 100
ด@@ 100
之 100
女 100
特@@ 100
風@@ 100
기 100
나@@ 100
원 100
유@@ 100
Amerik@@ 99
Chuo 99
Linie 99
ambaye 99
frente 99
geber 99
gelen 99
hasta 99
kazi 99
round@@ 99
southern 99
tù 99
unza 99
Περ@@ 99
Лу@@ 99
вая 99
ны 99
ос@@ 99
сла@@ 99
ья 99
ү@@ 99
اِ@@ 99
ܰ@@ 99
ร 99
∙ 99
〜 99
っ@@ 99
も@@ 99
ノ@@ 99
ム@@ 99
史@@ 99
同@@ 99
志@@ 99
術 99
雲@@ 99
우@@ 99
Bischof 98
COVI@@ 98
Stelle 98
arla 98
cuatro 98
decision 98
fuer@@ 98
material 98
rangi 98
serving 98
taron 98
tivi@@ 98
ŷ@@ 98
ʹ 98
άκ@@ 98
Б 98
Рус@@ 98
ря@@ 98
це@@ 98
ية 98
يد 98
ير 98
چ@@ 98
ệt 98
メ@@ 98
玄@@ 98
趙@@ 98
郡 98
风@@ 98
경@@ 98
According 97
Departamento 97
dney 97
fiz@@ 97
hidro@@ 97
maal@@ 97
operations 97
stir 97
ugen@@ 97
vención 97
ética 97
ũ 97
ơn 97
ων@@ 97
рина 97
ско@@ 97
ци@@ 97
ր 97
ܡ@@ 97
म@@ 97
བ@@ 97
ေ@@ 97
ម@@ 97
ℓ@@ 97
宮@@ 97
星 97
衛@@ 97
Eğ@@ 96
Hymenoptera 96
Verfüg@@ 96
alidad 96
ihre 96
nö@@ 96
result 96
sitio 96
streng@@ 96
usawa 96
σα 96
Гри@@ 96
ре 96
хи@@ 96
ས 96
ṛ 96
ⵛ@@ 96
土@@ 96
宮 96
普@@ 96
書@@ 96
Oficina 95
fue 95
oeste 95
ánico 95
Ал@@ 95
Доб@@ 95
аль@@ 95
ле 95
льный 95
اس@@ 95
ک@@ 95
ไ@@ 95
ང 95
ን@@ 95
ង 95
ラ 95
仁@@ 95
光 95
号 95
師 95
木 95
미@@ 95
Esta 94
bió 94
eht 94
frica 94
künst@@ 94
lık 94
pobl@@ 94
specific 94
viaj@@ 94
yesi 94
ˌ@@ 94
ίας 94
δρ@@ 94
Вла@@ 94
Р 94
Ша@@ 94
ша@@ 94
مي@@ 94
ນ@@ 94
て@@ 94
科@@ 94
龍 94
Bà 93
Bürgermeister 93
Innen@@ 93
Straßen@@ 93
azini 93
chữ 93
cá 93
iligen 93
oloj@@ 93
stän@@ 93
äuf@@ 93
έρ@@ 93
εία 93
ισ@@ 93
μος 93
σκ@@ 93
Иванович 93
жа@@ 93
че 93
ท@@ 93
ย 93
ფ@@ 93
ក 93
ὸ 93
信@@ 93
利@@ 93
多@@ 93
徐@@ 93
영@@ 93
During 92
Firma 92
Müs@@ 92
Rechts@@ 92
ciona 92
denen 92
ecek 92
escri@@ 92
folg@@ 92
hakk@@ 92
kein 92
país 92
prä@@ 92
quốc 92
released 92
tiem@@ 92
wissenschaft@@ 92
üç@@ 92
ıç@@ 92
ŝ@@ 92
με@@ 92
ρον 92
Н 92
лек@@ 92
нови@@ 92
تَ@@ 92
لا@@ 92
ور 92
ง 92
า 92
ṃ 92
⅓ 92
保@@ 92
广@@ 92
昌@@ 92
汉@@ 92
津@@ 92
路 92
Dunia 91
auspi@@ 91
biet@@ 91
bò 91
chama 91
durante 91
entw@@ 91
hizo 91
ibt 91
libros 91
teki 91
thern 91
¦ 91
úy 91
İsk@@ 91
ılar 91
ŕ@@ 91
Кара@@ 91
Николай 91
ще 91
红@@ 91
音@@ 91
Chr. 90
Hồng 90
Okul@@ 90
dür@@ 90
españ@@ 90
incre@@ 90
listed 90
nte 90
period@@ 90
publik 90
schied@@ 90
schwer@@ 90
tiene 90
until 90
ď 90
ική 90
ό 90
ж 90
ман@@ 90
он 90
ө@@ 90
ড 90
รั@@ 90
ວ@@ 90
ải 90
₹ 90
ⵖ@@ 90
宁@@ 90
理@@ 90
雄 90
麻@@ 90
전@@ 90
Männer 89
TCN 89
astéroï@@ 89
basis 89
comand@@ 89
endis@@ 89
ingana 89
matrimonio 89
zeu@@ 89
Üniversitesi 89
ċ 89
ğr@@ 89
ǧ 89
ʑ@@ 89
Ди@@ 89
ани 89
ской 89
ף 89
آ@@ 89
الف@@ 89
بي@@ 89
گ@@ 89
म 89
ட@@ 89
း@@ 89
⅔ 89
丁@@ 89
万@@ 89
國 89
夏@@ 89
志 89
音 89
산 89
상@@ 89
！ 89
Dokum@@ 88
Kỳ 88
Westen 88
actual 88
división 88
huko 88
kadar 88
liwa 88
απ@@ 88
Сто@@ 88
Ти@@ 88
ево 88
тан@@ 88
ча 88
الر@@ 88
ام@@ 88
فر@@ 88
ܳ@@ 88
अ@@ 88
ḷ@@ 88
ỉ@@ 88
の 88
司@@ 88
吳@@ 88
嘉@@ 88
殿 88
美 88
보@@ 88
원@@ 88
하@@ 88
： 88
antik 87
become 87
decre@@ 87
etik 87
ficos 87
gör@@ 87
industr@@ 87
punk@@ 87
reli 87
religious 87
solic@@ 87
ustur@@ 87
έν@@ 87
εύ@@ 87
اد@@ 87
ام 87
اَ@@ 87
بو@@ 87
प 87
ਿ@@ 87
∑ 87
☉ 87
ツ@@ 87
侯 87
元 87
帝@@ 87
廣@@ 87
御@@ 87
武 87
論 87
소@@ 87
화@@ 87
Bộ 86
Ichneumonidae 86
Ligi 86
ases@@ 86
cierto 86
equival@@ 86
esho 86
häl@@ 86
industry 86
lehr@@ 86
marri@@ 86
mà 86
partidos 86
uridad 86
ãi 86
önem@@ 86
ĉ@@ 86
чу@@ 86
زي@@ 86
ℵ 86
し 86
ム 86
信 86
君 86
校@@ 86
공@@ 86
성 86
시@@ 86
Unido 85
angaz@@ 85
ebt 85
habe 85
haben 85
leme 85
outside 85
schie@@ 85
suz 85
και 85
Д 85
Же@@ 85
З 85
Ор@@ 85
Пав@@ 85
Фе@@ 85
ке 85
ке@@ 85
ә@@ 85
ג 85
شا@@ 85
ܐ@@ 85
್ 85
ร@@ 85
ស 85
់ 85
ữ 85
∃ 85
≃ 85
ピ@@ 85
Hristi@@ 84
akati 84
anlı 84
claim@@ 84
create 84
grün@@ 84
jeni 84
ografie 84
oyun 84
parlam@@ 84
setz@@ 84
tü 84
österreich@@ 84
şe 84
υρ@@ 84
град 84
доро@@ 84
при@@ 84
ای@@ 84
مح@@ 84
क 84
ད@@ 84
Ῥ@@ 84
つ@@ 84
を@@ 84
セ@@ 84
兴@@ 84
口 84
士@@ 84
心 84
日 84
西 84
장@@ 84
28. 83
Baad@@ 83
Dân 83
cerem@@ 83
example 83
gab 83
kämp@@ 83
partam@@ 83
published 83
restos 83
Ã 83
êng 83
Œ 83
Пи@@ 83
Сла@@ 83
фи@@ 83
ֲ@@ 83
الج@@ 83
श 83
መ@@ 83
う 83
け@@ 83
上 83
作@@ 83
有限公司 83
도@@ 83
서@@ 83
스 83
Thủ 82
Vương 82
agosto 82
etzt 82
kır@@ 82
mitted 82
presented 82
took 82
tungs@@ 82
verkehr@@ 82
weeks 82
Ő@@ 82
Ɛ 82
˚ 82
вский 82
الد@@ 82
سي@@ 82
य 82
ำ@@ 82
ừa 82
⁣ 82
ア 82
前@@ 82
台 82
回@@ 82
石 82
航@@ 82
集 82
오@@ 82
above 81
akula 81
ekte 81
gobierno 81
hijo 81
ismi 81
kê 81
lauf@@ 81
northern 81
nungen 81
tecn@@ 81
trao 81
veloc@@ 81
ǃ@@ 81
ɒ@@ 81
̝ 81
ολ@@ 81
ρε@@ 81
Ге@@ 81
Кар@@ 81
де 81
зе@@ 81
шка 81
щи@@ 81
Մ@@ 81
اني 81
ী 81
ῥ@@ 81
♦ 81
南 81
口@@ 81
和 81
宝@@ 81
站 81
赤@@ 81
다 81
Ichneum@@ 80
Trường 80
Vertr@@ 80
culos 80
deniz 80
ectos 80
evidence 80
kli 80
zäh@@ 80
ċ@@ 80
ĩ@@ 80
Ţ@@ 80
ǫ 80
πος 80
Василь@@ 80
Кон@@ 80
Те@@ 80
ге 80
ден@@ 80
ми 80
ры@@ 80
сть 80
ье 80
জ 80
ী@@ 80
ਸ@@ 80
ိ@@ 80
ỗ 80
で@@ 80
下 80
在@@ 80
常@@ 80
康@@ 80
德 80
思@@ 80
手 80
方 80
義 80
聖@@ 80
강@@ 80
영 80
ﬂ@@ 80
Bwana 79
Halk 79
arded 79
bí 79
cabo 79
cuar@@ 79
mü@@ 79
professi@@ 79
sicht 79
Č 79
Ζ@@ 79
κος 79
λος 79
πρ@@ 79
Ива@@ 79
ак@@ 79
лица 79
ха 79
գ@@ 79
ات 79
بر@@ 79
ورة 79
ি 79
จ@@ 79
ป@@ 79
ล@@ 79
ན 79
ḫ 79
ᾶ@@ 79
〉 79
す@@ 79
事@@ 79
云@@ 79
何@@ 79
出@@ 79
北京@@ 79
區 79
孝@@ 79
知@@ 79
第@@ 79
路@@ 79
陵 79
마@@ 79
사 79
진@@ 79
Serbia 78
arbeit 78
enheit 78
gül@@ 78
oloni 78
toda 78
uç 78
valor 78
Ɔ 78
ɐ@@ 78
ˁ 78
των 78
Михаил 78
Никола 78
Росси@@ 78
Сте@@ 78
лно 78
стра@@ 78
ղ@@ 78
با@@ 78
สุ@@ 78
က@@ 78
ế@@ 78
ὄ@@ 78
公 78
号@@ 78
峰 78
智@@ 78
良@@ 78
韓@@ 78
라@@ 78
Nhân 77
derung 77
estado 77
often 77
reiche 77
reun@@ 77
sebe@@ 77
uyar@@ 77
verbind@@ 77
 77
çek 77
Đạo 77
μά@@ 77
монасты@@ 77
он@@ 77
ран@@ 77
рь@@ 77
վ@@ 77
الدين 77
رة 77
مة 77
من@@ 77
ະ@@ 77
မ@@ 77
ḳ 77
〈 77
や@@ 77
丹@@ 77
佛@@ 77
宋@@ 77
寶@@ 77
師@@ 77
昌 77
洋@@ 77
級@@ 77
馬 77
． 77
Jahren 76
Produktion 76
así 76
mals 76
mujeres 76
taifa 76
ually 76
undan 76
νη 76
Вели@@ 76
Кру@@ 76
ата@@ 76
ви 76
дов 76
кин 76
сь 76
الخ@@ 76
ث@@ 76
ج 76
ري 76
لي@@ 76
ما@@ 76
مر@@ 76
ன 76
ம 76
ំ@@ 76
『 76
好@@ 76
如@@ 76
本 76
清 76
장 76
27. 75
31. 75
Así 75
Daha 75
Dreh@@ 75
deriv@@ 75
dân 75
elektr@@ 75
erst 75
huwa 75
ilçe 75
mittel@@ 75
monaster@@ 75
named 75
siglo 75
student 75
though 75
tigkeit 75
ư 75
̐ 75
άς 75
παρ@@ 75
ως 75
Анато@@ 75
Пу@@ 75
Рес@@ 75
йн 75
па 75
тов 75
чо@@ 75
є@@ 75
Ս@@ 75
ז 75
ال 75
من 75
ल 75
চ@@ 75
শ@@ 75
ắc 75
ề@@ 75
ケ@@ 75
乡 75
兵@@ 75
富@@ 75
桂@@ 75
流 75
真 75
竹@@ 75
親@@ 75
言 75
那@@ 75
電@@ 75
로@@ 75
호 75
Namen 74
St. 74
Wirtschaft 74
altet 74
bildung 74
closed 74
gön@@ 74
kéo 74
mehr 74
military 74
İş@@ 74
̦ 74
̨ 74
Δι@@ 74
ίου 74
οδ@@ 74
Из@@ 74
Остро@@ 74
ан 74
ных 74
от@@ 74
ства 74
шо@@ 74
щина 74
ї 74
ني 74
บ@@ 74
ັ@@ 74
ត 74
ិ@@ 74
ἱ@@ 74
‍ 74
ⵍ 74
き 74
仙@@ 74
史 74
宣@@ 74
左@@ 74
朝 74
梨 74
鄭@@ 74
集@@ 74
가@@ 74
Hán 73
Tử 73
crisis 73
fútbol 73
isini 73
placed 73
recog@@ 73
releas@@ 73
zao 73
úc 73
Ά@@ 73
αβ@@ 73
χος 73
Гу@@ 73
лин@@ 73
се 73
اد 73
بي 73
عبد@@ 73
द 73
ུ@@ 73
ር@@ 73
ជ@@ 73
ប@@ 73
ọng 73
ới 73
⁴ 73
』 73
丸 73
春 73
萬@@ 73
葉@@ 73
郭@@ 73
산@@ 73
주 73
Runde 72
eshwa 72
gesetz@@ 72
halten 72
ichts 72
internacional 72
ngữ 72
territorio 72
timestamp 72
versiones 72
öğ@@ 72
ĩa 72
Ɛ@@ 72
μι@@ 72
ομ@@ 72
τον 72
ϕ 72
Ши@@ 72
ато@@ 72
лина 72
нь 72
ђ@@ 72
در@@ 72
رَ@@ 72
ظ@@ 72
ور@@ 72
් 72
ห@@ 72
ᠠ@@ 72
ṟ@@ 72
ạn 72
ẻ 72
ひ@@ 72
ベ@@ 72
克@@ 72
宇@@ 72
官@@ 72
年 72
府 72
泰@@ 72
经 72
남@@ 72
문@@ 72
Dola 71
Wohn@@ 71
baren 71
ften 71
grado 71
professional 71
promin@@ 71
schein@@ 71
verano 71
wirtschaft 71
Ê 71
ǚ 71
άγ@@ 71
άσ@@ 71
αί@@ 71
μαν@@ 71
ορ@@ 71
οσ@@ 71
Москов@@ 71
ты 71
чка 71
ян@@ 71
بِ@@ 71
ھ@@ 71
ग 71
ঞ 71
ল 71
ാ@@ 71
ต 71
พระ@@ 71
ื 71
တ@@ 71
ត@@ 71
ន 71
▪ 71
♠ 71
ポ@@ 71
二 71
所 71
英 71
越@@ 71
무@@ 71
수 71
윤@@ 71
Tras 70
Utur@@ 70
besonder@@ 70
campe@@ 70
crec@@ 70
emein@@ 70
gleich@@ 70
kalan 70
kuto@@ 70
lieder@@ 70
nern 70
okana 70
students 70
toba 70
Ì@@ 70
κου@@ 70
Чи@@ 70
ева 70
դ@@ 70
بل@@ 70
ە@@ 70
ர 70
ပ@@ 70
ទ@@ 70
ợi 70
∗ 70
ⵇ@@ 70
先@@ 70
刘@@ 70
成 70
見@@ 70
通 70
어@@ 70
천@@ 70
최@@ 70
Dağ@@ 69
Gemeinden 69
Millî 69
Polen 69
appearance 69
gesi 69
including 69
partes 69
polí@@ 69
primary 69
results 69
several 69
starting 69
treat@@ 69
wahi 69
çek@@ 69
Ş 69
̋ 69
εί@@ 69
πλ@@ 69
мир@@ 69
музей 69
фо@@ 69
ّ 69
ล 69
ห 69
ố@@ 69
ồng 69
典 69
戦 69
會@@ 69
東 69
梅@@ 69
樂@@ 69
毛@@ 69
流@@ 69
興@@ 69
藏@@ 69
藤 69
野 69
陸@@ 69
駅 69
&apos;s 68
Gebi@@ 68
Jahrhunderts 68
Kongr@@ 68
Ortsteil 68
Schrift@@ 68
dedic@@ 68
eleri 68
formación 68
hamia 68
ität 68
klein@@ 68
mji 68
ografía 68
ográfica 68
played 68
puesta 68
ätze 68
ıcı 68
ış@@ 68
ɲ 68
ʎ 68
ˌ 68
̊ 68
όδ@@ 68
ден 68
сло@@ 68
مِ@@ 68
وا@@ 68
ி 68
ደ@@ 68
↳ 68
∇ 68
═ 68
ウ 68
仲@@ 68
佐@@ 68
橋 68
祖 68
秦@@ 68
章 68
草 68
谷 68
隆@@ 68
Desde 67
Gonzá@@ 67
Seite 67
Titel 67
arifa 67
ayud@@ 67
bà 67
definiti@@ 67
department 67
iş 67
leti 67
maye 67
preser@@ 67
stark 67
topr@@ 67
ufen 67
̭ 67
τερ@@ 67
τω@@ 67
Воло@@ 67
Ри@@ 67
до 67
рус@@ 67
цы 67
الب@@ 67
ک 67
ய@@ 67
Ἑ@@ 67
グ 67
了 67
交@@ 67
人民@@ 67
吴@@ 67
商@@ 67
岛 67
条@@ 67
球@@ 67
米@@ 67
開@@ 67
阳 67
Asya 66
Esto 66
Nisan 66
akazi 66
desde 66
gibt 66
independent 66
kı 66
least 66
nchi 66
practic@@ 66
tober 66
üş 66
Đo@@ 66
ɡ 66
ɾ 66
πα@@ 66
τη@@ 66
Бела@@ 66
Ту@@ 66
кови@@ 66
лы@@ 66
թ@@ 66
مي 66
ܠ@@ 66
よ@@ 66
体@@ 66
傳 66
友@@ 66
歌 66
선@@ 66
아 66
해@@ 66
🇩 66
Arten 65
Eski 65
almente 65
below 65
companies 65
dentro 65
etler 65
huu 65
ileri 65
ilir 65
iğ@@ 65
mucho 65
schon 65
seit 65
theo 65
tido 65
zwischen 65
σιος 65
ώ 65
Георги@@ 65
Ев@@ 65
Кра@@ 65
Крас@@ 65
лна 65
հ@@ 65
اء 65
ــ@@ 65
ਹ@@ 65
ລ@@ 65
ສ@@ 65
ས@@ 65
ẩm 65
ặng 65
ồ 65
ソ@@ 65
善@@ 65
技@@ 65
洪@@ 65
線 65
蘇@@ 65
要@@ 65
门@@ 65
飛@@ 65
선 65
전 65
현@@ 65
beginning 64
character@@ 64
compet@@ 64
cü 64
dù 64
giai 64
heiten 64
horas 64
instal@@ 64
kuw@@ 64
lâm 64
neigh@@ 64
ported 64
sân 64
tuy 64
tör@@ 64
wahr@@ 64
wili 64
İm@@ 64
ığ@@ 64
πά@@ 64
Сергей 64
али@@ 64
вой 64
вый 64
кая 64
пол@@ 64
щ@@ 64
لل@@ 64
ند@@ 64
يا 64
ण 64
ல@@ 64
წ@@ 64
រ 64
ḱ@@ 64
ụ 64
‎ 64
⊆ 64
♣ 64
え@@ 64
ら 64
乐@@ 64
公司 64
甲@@ 64
雄@@ 64
魏@@ 64
일@@ 64
Arap 63
Bağ@@ 63
Ihr 63
Liên 63
Produk@@ 63
built 63
cerca 63
derecho 63
htt@@ 63
hát 63
married 63
muss 63
ologischen 63
política 63
pró@@ 63
sigue 63
unión 63
ày 63
ört 63
Ė@@ 63
ίων 63
τικ@@ 63
Е 63
Ча@@ 63
бра@@ 63
мо 63
сти 63
ян 63
بَ@@ 63
لة 63
วั@@ 63
ເ@@ 63
ི@@ 63
ნ 63
ḯ@@ 63
ὴ 63
‧ 63
た 63
ギ@@ 63
可@@ 63
学 63
惠@@ 63
玉 63
相@@ 63
紅@@ 63
里 63
연@@ 63
태@@ 63
🇨 63
Beruf@@ 62
Gemeinde@@ 62
halk@@ 62
hesh@@ 62
ligi 62
muy 62
ratic 62
wieg@@ 62
ían 62
ίσ@@ 62
εια 62
Жи@@ 62
Мал@@ 62
Народ@@ 62
ван@@ 62
вка 62
обо@@ 62
рен@@ 62
ск 62
ска@@ 62
сте@@ 62
ў@@ 62
ս 62
الز@@ 62
دار 62
ܢ@@ 62
ต@@ 62
ོ 62
ྱ@@ 62
ရ@@ 62
ჯ@@ 62
ội 62
‖ 62
み 62
ゲ@@ 62
ゴ@@ 62
勝@@ 62
后 62
园 62
將@@ 62
屋@@ 62
族 62
月 62
杨@@ 62
次@@ 62
浦@@ 62
直@@ 62
祖@@ 62
良 62
金 62
雪@@ 62
양@@ 62
자@@ 62
희 62
Doğu 61
Sanat@@ 61
Ufa 61
Umoja 61
bağ@@ 61
competi@@ 61
emiti@@ 61
machen 61
metre 61
ocup@@ 61
taken 61
también 61
verkehr 61
zili@@ 61
ızı 61
Ū@@ 61
ưng 61
ǁ@@ 61
καλ@@ 61
κύ@@ 61
περ@@ 61
υπ@@ 61
όφ@@ 61
Андрей 61
Бори@@ 61
ари 61
вет@@ 61
дин 61
зна@@ 61
рев@@ 61
рия 61
санд@@ 61
ческий 61
ёт@@ 61
اس 61
ক 61
ข@@ 61
མ@@ 61
ራ@@ 61
ⵕ@@ 61
京 61
區@@ 61
喜@@ 61
地 61
場 61
正 61
用@@ 61
秀@@ 61
章@@ 61
纸 61
苏@@ 61
銀@@ 61
隊 61
국 61
－ 61
Büyük 60
Thủy 60
Yük@@ 60
according 60
adili 60
azama 60
compan@@ 60
enero 60
footballer 60
griech@@ 60
grund@@ 60
implement@@ 60
individual 60
italien@@ 60
kunft 60
otras 60
presidente 60
subject 60
whom 60
ɕ 60
ργ@@ 60
σσ@@ 60
Бело@@ 60
Л 60
Тро@@ 60
Х 60
ве 60
ды 60
она@@ 60
ры 60
село 60
ъл@@ 60
ър@@ 60
ׂ@@ 60
عي@@ 60
لو@@ 60
وال@@ 60
وي@@ 60
ܬ@@ 60
न 60
र@@ 60
ว 60
ེ 60
ព@@ 60
ḱ 60
ọc 60
ⵊ@@ 60
ⵟ@@ 60
分@@ 60
右@@ 60
后@@ 60
守@@ 60
機@@ 60
沈@@ 60
湖 60
研究@@ 60
秋@@ 60
育@@ 60
인 60
제@@ 60
Hollanda 59
Kombe 59
Từ 59
annual 59
began 59
faa 59
fül@@ 59
hiki 59
kuv@@ 59
kuwa 59
kü 59
politische 59
terms 59
whose 59
último 59
ξι@@ 59
φύ@@ 59
όρος 59
Ио@@ 59
Кри@@ 59
Ново@@ 59
Совет@@ 59
дор 59
лен 59
ного 59
נ 59
ئ@@ 59
بة 59
ضلع 59
قَ@@ 59
ܒ@@ 59
ज 59
เกา@@ 59
ອ@@ 59
း 59
ღ@@ 59
ስ@@ 59
ẩn 59
ἑ@@ 59
∼ 59
ネ@@ 59
三 59
佐 59
修@@ 59
君@@ 59
城区 59
弘@@ 59
教 59
杜@@ 59
来@@ 59
歌@@ 59
氏@@ 59
派 59
華 59
虎@@ 59
話 59
頭 59
안@@ 59
&apos;t 58
Unternehmen 58
almost 58
became 58
dawa 58
gün@@ 58
juu 58
killed 58
lungs@@ 58
niños 58
strecke 58
tôn 58
yó 58
İ 58
ŕ 58
ȟ@@ 58
γκ@@ 58
νης 58
России 58
кра@@ 58
лё@@ 58
мор@@ 58
сы 58
фа@@ 58
حسن 58
دي@@ 58
في@@ 58
فَ@@ 58
مُ@@ 58
क@@ 58
เล 58
သ@@ 58
ប 58
ẓ 58
ử@@ 58
ὁ@@ 58
す 58
だ@@ 58
別@@ 58
北 58
命@@ 58
奇@@ 58
尚@@ 58
時@@ 58
民 58
治@@ 58
町 58
目 58
空 58
若@@ 58
陵@@ 58
부@@ 58
세@@ 58
여@@ 58
역 58
진 58
Beschreibung 57
Jahrhundert 57
Nutz@@ 57
acak 57
ambazo 57
baş 57
either 57
elerin 57
eléctr@@ 57
izm 57
içi 57
jimbo 57
kauf@@ 57
neş 57
sieben 57
į 57
ɯ 57
ʀ 57
Ρ 57
αστ@@ 57
δρο@@ 57
ευ@@ 57
πολι@@ 57
ρά 57
ριος 57
σπ@@ 57
φιλ@@ 57
ϰ@@ 57
Свя@@ 57
ера 57
жен@@ 57
лин 57
льский 57
мы@@ 57
фе@@ 57
ченко 57
الص@@ 57
الل@@ 57
بن@@ 57
حي@@ 57
دة 57
هي 57
ަ@@ 57
য@@ 57
ญ@@ 57
້ 57
། 57
လ@@ 57
ⲟ@@ 57
于@@ 57
井 57
命 57
旗 57
紀@@ 57
能@@ 57
車 57
Hạ 56
Lương 56
Trương 56
afrika 56
charac@@ 56
dön@@ 56
lleg@@ 56
neben 56
newspap@@ 56
received 56
revision 56
seiner 56
sinh 56
specif@@ 56
yeni 56
ği 56
Ξ@@ 56
έλ@@ 56
οί 56
τη 56
Ком@@ 56
мов 56
цкий 56
чи 56
қ@@ 56
الغ@@ 56
انی 56
سل@@ 56
ـ 56
ট@@ 56
ਿ 56
ด 56
ả 56
ống 56
ἡ 56
く 56
ち 56
ズ@@ 56
ヤ@@ 56
中國@@ 56
功 56
孔@@ 56
岩@@ 56
忠@@ 56
念@@ 56
柳@@ 56
業@@ 56
洲 56
牛@@ 56
術@@ 56
铁@@ 56
雅@@ 56
면 56
중@@ 56
Nhi@@ 55
Parlament@@ 55
Thế 55
Uhr 55
carrera 55
crita 55
defe@@ 55
emek@@ 55
hizi 55
interior 55
username 55
zehn 55
ßen@@ 55
ĕ 55
į@@ 55
ıc@@ 55
ǵ@@ 55
ɗ@@ 55
Φιλ@@ 55
κά@@ 55
κυ@@ 55
μπ@@ 55
τυ@@ 55
Аб@@ 55
зер@@ 55
рав@@ 55
لي 55
يم 55
يَ@@ 55
रा@@ 55
व 55
व@@ 55
দ 55
ਕ@@ 55
க 55
ு 55
ງ@@ 55
ማ@@ 55
ብ@@ 55
ት 55
ី@@ 55
ạ 55
ếu 55
ịa 55
ὕ@@ 55
以@@ 55
学院 55
寺@@ 55
我 55
无@@ 55
曹@@ 55
母 55
胜@@ 55
際@@ 55
鬼@@ 55
黒@@ 55
구 55
라 55
백@@ 55
Estados 54
Kız@@ 54
Nehri 54
Trong 54
beim 54
cabeza 54
dogo 54
fuerte 54
further 54
idadi 54
ingine 54
keine 54
miş 54
nieder@@ 54
programs 54
καν@@ 54
υλ@@ 54
Ген@@ 54
Пер@@ 54
Щ@@ 54
ате@@ 54
дро@@ 54
ек@@ 54
йский 54
лий 54
ников 54
рал 54
ּ 54
ست@@ 54
لا 54
مل@@ 54
نج@@ 54
نَ@@ 54
ود 54
ਨ@@ 54
ੀ 54
ལ 54
ល@@ 54
Ẓ@@ 54
ἶ@@ 54
ヴ@@ 54
丹 54
任@@ 54
基@@ 54
学校 54
摩@@ 54
易@@ 54
等@@ 54
者 54
色@@ 54
間@@ 54
门 54
Verwendung 53
artista 53
atı 53
besi@@ 53
clase 53
descri@@ 53
difficul@@ 53
endung 53
iliği 53
kenti 53
luss 53
tipo 53
vya 53
ıf@@ 53
şu 53
͠ 53
Χ 53
ησι@@ 53
καρ@@ 53
τε@@ 53
ών@@ 53
Вале@@ 53
вен@@ 53
зу@@ 53
зы@@ 53
ръ@@ 53
պ@@ 53
ز 53
شه@@ 53
ۇ@@ 53
ര@@ 53
ผ@@ 53
เ@@ 53
ກ@@ 53
ჩ@@ 53
ូ@@ 53
ḷ 53
ạo 53
ℱ 53
⊥ 53
ⲓ@@ 53
个@@ 53
中央@@ 53
主 53
乌@@ 53
伯@@ 53
力@@ 53
名 53
學@@ 53
尔@@ 53
布@@ 53
拉@@ 53
范@@ 53
酒 53
际@@ 53
승@@ 53
Martí@@ 52
acción 52
acuer@@ 52
aidia 52
andır@@ 52
available 52
forced 52
hielt 52
jwa 52
liko 52
nationalen 52
owned 52
punto 52
quán 52
teor@@ 52
trieb 52
ây 52
ösung 52
Şir@@ 52
αθ@@ 52
μυ@@ 52
υγ@@ 52
Бре@@ 52
Викто@@ 52
Вол@@ 52
За 52
Павел 52
СССР 52
Серге@@ 52
государствен@@ 52
джи@@ 52
йо@@ 52
ա 52
اف@@ 52
مش@@ 52
ول@@ 52
يل 52
न@@ 52
ष 52
ਮ@@ 52
ค 52
ุ 52
Ḍ@@ 52
ảnh 52
ẹ 52
♡ 52
じ@@ 52
て 52
今@@ 52
寿@@ 52
岡@@ 52
康 52
延@@ 52
徳@@ 52
情@@ 52
曲 52
泉@@ 52
瑞@@ 52
的 52
經@@ 52
罗@@ 52
蔡@@ 52
觀@@ 52
정 52
Guatem@@ 51
Herrschaft 51
Kristo 51
Zusammen@@ 51
abhäng@@ 51
aired 51
canciones 51
characters 51
gleich 51
insi 51
jahr 51
norte 51
schnit@@ 51
sector 51
significant 51
yine 51
üy@@ 51
ısı 51
ʀ@@ 51
ʻ 51
ιλ@@ 51
ιμ@@ 51
οι@@ 51
όσ@@ 51
Андре@@ 51
Хо@@ 51
ать 51
ду 51
ды@@ 51
жав@@ 51
ите@@ 51
лия 51
нин 51
ность 51
ских 51
тре@@ 51
џ@@ 51
կ 51
ך@@ 51
جامعة 51
دا@@ 51
سی@@ 51
مص@@ 51
ܶ@@ 51
प@@ 51
វ@@ 51
ột 51
ở 51
せ@@ 51
わ@@ 51
健@@ 51
力 51
半@@ 51
司 51
始@@ 51
居@@ 51
戰 51
新 51
来 51
治 51
火 51
省 51
紫@@ 51
街 51
靈@@ 51
香 51
광@@ 51
동 51
명@@ 51
지 51
Abgeord@@ 50
Entwicklung 50
Genel 50
Hàn 50
Tổ 50
achus@@ 50
akter@@ 50
alfab@@ 50
chí 50
ekwa 50
ificación 50
insan 50
mayan 50
posición 50
temporada 50
tesis 50
towards 50
turned 50
waren 50
ăn 50
đi 50
Νικ@@ 50
δο@@ 50
εφαλ@@ 50
ηλ@@ 50
θη@@ 50
Ϲ 50
Все@@ 50
Иль@@ 50
Шу@@ 50
бан@@ 50
ган@@ 50
ги 50
гра@@ 50
дия 50
национа@@ 50
од@@ 50
от 50
الْ@@ 50
سر@@ 50
سن@@ 50
سيدي 50
مع@@ 50
مه@@ 50
هر 50
ون@@ 50
يوسف 50
ު@@ 50
स@@ 50
ਤ@@ 50
ณ 50
ท 50
นา@@ 50
อง@@ 50
ู 50
ດ@@ 50
ນ 50
འ@@ 50
េ@@ 50
ổ 50
伝@@ 50
園 50
域 50
店 50
影@@ 50
灣@@ 50
経 50
臣 50
酒@@ 50
魔@@ 50
자 50
현 50
Direk@@ 49
Durch 49
Thống 49
Ulus@@ 49
afiri 49
alität 49
casi 49
daughter 49
families 49
francesa 49
großen 49
igual 49
ihrer 49
imeh@@ 49
induzi 49
neuen 49
nước 49
röm@@ 49
schrif@@ 49
sistema 49
stehen 49
suces@@ 49
taking 49
tatu 49
tài 49
uncu 49
vertr@@ 49
Û@@ 49
ùa 49
Ċ@@ 49
Ť@@ 49
ʌ@@ 49
βι@@ 49
γλ@@ 49
εβ@@ 49
ρω@@ 49
σφ@@ 49
τά@@ 49
ван 49
дар@@ 49
дра@@ 49
дь@@ 49
рова 49
ть@@ 49
احمد 49
اش@@ 49
مد@@ 49
ܫ@@ 49
त@@ 49
খ@@ 49
ി@@ 49
ེ@@ 49
យ@@ 49
ẖ@@ 49
ἴ@@ 49
か 49
コ 49
ツ 49
久@@ 49
向@@ 49
夫@@ 49
松 49
森@@ 49
波@@ 49
溪@@ 49
目@@ 49
经@@ 49
菩@@ 49
话 49
黎@@ 49
당 49
비@@ 49
연 49
호@@ 49
？ 49
🇷 49
Spieler 48
anischen 48
changed 48
crí@@ 48
debut@@ 48
defensa 48
frü@@ 48
having 48
higher 48
igten 48
immedi@@ 48
joven 48
kommt 48
lider@@ 48
mesi 48
premio 48
sonr@@ 48
sprech@@ 48
sterdam 48
uzun@@ 48
vô 48
worked 48
äischen 48
Ɨ 48
ʈ@@ 48
Έ@@ 48
Κομ@@ 48
λά@@ 48
προ@@ 48
τοι 48
τός 48
Бра@@ 48
Вър@@ 48
Ин@@ 48
вы@@ 48
же 48
свя@@ 48
ственный 48
чен@@ 48
ё 48
բ@@ 48
باب 48
عة 48
علی 48
ܚ@@ 48
ब 48
ை 48
ช 48
ພ@@ 48
ာ 48
ყ@@ 48
ច@@ 48
∴ 48
乙@@ 48
你 48
入@@ 48
呂@@ 48
塔 48
度@@ 48
开@@ 48
彭@@ 48
慧@@ 48
慶@@ 48
拳 48
物 48
白 48
线 48
茶@@ 48
语 48
貴@@ 48
雷@@ 48
麻 48
에@@ 48
Misri 47
aliwa 47
annte 47
böl@@ 47
cinco 47
comunic@@ 47
donde 47
fuera 47
iç 47
kten 47
mbali 47
produced 47
sogen@@ 47
themselves 47
tioned 47
trabajo 47
ıklı 47
ει 47
κας 47
μεν@@ 47
τί@@ 47
Кор@@ 47
Кре@@ 47
Македо@@ 47
На 47
Чу@@ 47
бер@@ 47
ем@@ 47
ком@@ 47
лова 47
льная 47
публика 47
тор@@ 47
ѣ@@ 47
می@@ 47
ދ@@ 47
री 47
শ 47
ਲ@@ 47
ക@@ 47
ි@@ 47
พิ@@ 47
ี@@ 47
ြ@@ 47
ት@@ 47
ṳ 47
ản 47
ều 47
ồn 47
ἕ@@ 47
ℒ 47
✸ 47
ⵀ@@ 47
ⵎ 47
ォ@@ 47
ザ@@ 47
ヒ@@ 47
利 47
夏 47
奉@@ 47
孙@@ 47
打@@ 47
楚@@ 47
泉 47
深@@ 47
漢 47
燕@@ 47
甘@@ 47
茶 47
菜 47
足@@ 47
車@@ 47
郎@@ 47
대 47
랑@@ 47
트 47
Quân 46
Reihe 46
Shule 46
acak@@ 46
already 46
appeared 46
asyon 46
countries 46
depor@@ 46
dieser 46
eastern 46
especial 46
fahren 46
gehen 46
haki 46
idari 46
kez 46
lived 46
nacionales 46
tamente 46
¯ 46
ǝ@@ 46
ʂ 46
̶ 46
Κα@@ 46
άδ@@ 46
αν 46
γι@@ 46
δος 46
κι@@ 46
гар@@ 46
град@@ 46
др 46
ез@@ 46
ец 46
мен 46
спе@@ 46
сы@@ 46
тен@@ 46
уч@@ 46
շ@@ 46
מ 46
تو@@ 46
تي@@ 46
كي@@ 46
محمود 46
وب@@ 46
ত 46
ங 46
ல 46
ี 46
့ 46
ባ@@ 46
ክ@@ 46
ᐊ@@ 46
ព 46
ḵ@@ 46
ậu 46
Ἄ@@ 46
ⲁ@@ 46
は 46
ょ@@ 46
ブ 46
ホ@@ 46
リ 46
书 46
令@@ 46
兰@@ 46
军 46
化 46
學 46
守 46
寶 46
想@@ 46
昭@@ 46
機 46
洲@@ 46
源 46
电@@ 46
者@@ 46
蒙@@ 46
蘭@@ 46
解@@ 46
雨@@ 46
黑@@ 46
龙 46
가 46
단 46
은 46
의@@ 46
화 46
Ziel 45
Zwischen 45
added 45
aşı 45
campaign 45
digung 45
hiện 45
ideas 45
ingres@@ 45
lenen 45
lief 45
nunca 45
regres@@ 45
saat 45
schri@@ 45
siku 45
sprach@@ 45
stieg 45
tivos 45
wanja 45
Î 45
Để 45
ượng 45
Κ 45
ίν@@ 45
ιστ@@ 45
λί@@ 45
μφ@@ 45
ρον@@ 45
ρυ@@ 45
σία 45
σε@@ 45
Борис 45
Тат@@ 45
вед@@ 45
вы 45
ок@@ 45
ста 45
стро@@ 45
той 45
цо@@ 45
الط@@ 45
اه@@ 45
به@@ 45
تا@@ 45
سع@@ 45
سي 45
عمر 45
قي@@ 45
ट 45
य@@ 45
স 45
్ 45
ธ@@ 45
ป 45
สม@@ 45
ງ 45
န 45
ለ@@ 45
ែ@@ 45
ổi 45
ứ 45
Ἱ@@ 45
ⴼ 45
ゆ@@ 45
中心 45
儀 45
刀@@ 45
反@@ 45
圖 45
夜@@ 45
拳@@ 45
树 45
極@@ 45
横@@ 45
津 45
湾@@ 45
為@@ 45
珠@@ 45
男 45
男@@ 45
盛@@ 45
藏 45
象@@ 45
青 45
首@@ 45
바@@ 45
우 45
종@@ 45
Naili 44
Provinz 44
anlar 44
arily 44
arş@@ 44
chuy@@ 44
lengu@@ 44
letzten 44
lugar 44
meden 44
militar 44
muş 44
onóm@@ 44
preuß@@ 44
puede 44
traditional 44
weih@@ 44
wuch@@ 44
çev@@ 44
üsse 44
Ĝ 44
Ə 44
αδ@@ 44
ιτ@@ 44
κατ@@ 44
φαν@@ 44
Национа@@ 44
Соци@@ 44
Сре@@ 44
бы@@ 44
зан@@ 44
итель@@ 44
кина 44
мы 44
народ@@ 44
нина 44
пер@@ 44
рец 44
рин 44
ствен@@ 44
ты@@ 44
чик 44
ья@@ 44
Қ@@ 44
כ 44
أَ@@ 44
راء 44
لِ@@ 44
ما 44
ܢ 44
॥ 44
ই@@ 44
ঙ 44
ా@@ 44
ಾ@@ 44
മ@@ 44
รา@@ 44
ริ@@ 44
๊ 44
န@@ 44
ွ@@ 44
რ 44
ን 44
የ@@ 44
ḏ 44
ṓ@@ 44
ắm 44
ắng 44
ὴ@@ 44
∠ 44
⊃ 44
ま 44
め@@ 44
ゃ@@ 44
カ 44
チ 44
世 44
中華@@ 44
公園 44
加@@ 44
土 44
報 44
威@@ 44
宜@@ 44
室 44
尊 44
局 44
戰@@ 44
政 44
曲@@ 44
术@@ 44
果@@ 44
気@@ 44
玄 44
甲 44
画 44
相 44
程@@ 44
舞 44
言@@ 44
許@@ 44
語@@ 44
諸@@ 44
车 44
達@@ 44
鉄@@ 44
鎮 44
馆 44
군 44
한 44
Cổ 43
Huyện 43
Müd@@ 43
ajili 43
alidades 43
amientos 43
appear@@ 43
ellik@@ 43
manera 43
mới 43
nó 43
plantas 43
selb@@ 43
telef@@ 43
tigung 43
usiano 43
wirtschaft@@ 43
zake 43
ächen 43
Đảng 43
ıca 43
Καρ@@ 43
βί@@ 43
λογ@@ 43
μου 43
ογ@@ 43
ρύ@@ 43
ται 43
όμ@@ 43
Екате@@ 43
Нико@@ 43
Север@@ 43
Стефан 43
бри@@ 43
йская 43
мат@@ 43
род@@ 43
со 43
ћ@@ 43
ׁ 43
الإ@@ 43
اله@@ 43
جر@@ 43
خ 43
ني@@ 43
ܝ 43
ग@@ 43
ර@@ 43
ා@@ 43
วิ@@ 43
ཆ@@ 43
ྲ@@ 43
ễ@@ 43
⁠ 43
₀ 43
ⴹ@@ 43
ユ@@ 43
事 43
代 43
兒 43
共@@ 43
军@@ 43
協@@ 43
卿 43
双@@ 43
夢@@ 43
崎 43
港 43
烏@@ 43
班 43
興 43
街道 43
角@@ 43
记 43
赵@@ 43
都 43
關@@ 43
雲 43
風 43
용@@ 43
은@@ 43
프@@ 43
🇫 43
Anfang 42
Yunan 42
abril 42
adele 42
conjunto 42
following 42
futbol 42
harek@@ 42
inzani 42
itself 42
klass@@ 42
kuten@@ 42
larger 42
letz@@ 42
origen 42
particular 42
spielt 42
standen 42
wieder@@ 42
zeuge 42
Ñ 42
Ù@@ 42
Ý@@ 42
ΐ@@ 42
ικά 42
ους 42
πατ@@ 42
πό@@ 42
ριστ@@ 42
Вар@@ 42
Вы@@ 42
Евге@@ 42
Мат@@ 42
Миха@@ 42
От@@ 42
Под@@ 42
Сем@@ 42
Стра@@ 42
Тру@@ 42
Ю 42
вра@@ 42
ву@@ 42
лни 42
ниче@@ 42
река 42
сен 42
тин 42
զ@@ 42
խ@@ 42
ք 42
از@@ 42
رب@@ 42
عين 42
نا 42
ها 42
وم 42
وي 42
ভ@@ 42
ম 42
ਾ 42
ன@@ 42
ே@@ 42
ติ@@ 42
ยา@@ 42
ມ@@ 42
ჭ@@ 42
ይ@@ 42
ዮ@@ 42
ố 42
ợ 42
ἡ@@ 42
ℍ 42
✠ 42
ⲉ@@ 42
に 42
タ 42
令 42
伝 42
內@@ 42
哈@@ 42
基 42
妙@@ 42
将@@ 42
尉 42
崔@@ 42
时@@ 42
李 42
氣 42
池@@ 42
而@@ 42
記@@ 42
院@@ 42
面@@ 42
食@@ 42
高 42
鹿@@ 42
노@@ 42
송@@ 42
Außen@@ 41
Eing@@ 41
Müz@@ 41
annt 41
bün@@ 41
denomin@@ 41
getr@@ 41
heren 41
himself 41
juego 41
ließ 41
lığı 41
schriften 41
trang 41
álisis 41
đo@@ 41
ɒ 41
ɫ@@ 41
Κύ@@ 41
Παρ@@ 41
αφ@@ 41
τας 41
τζ@@ 41
χή 41
Пла@@ 41
Пра@@ 41
Сло@@ 41
Ф 41
Федера@@ 41
вет 41
зей 41
им@@ 41
сп@@ 41
ху@@ 41
шин@@ 41
ց@@ 41
ֻ@@ 41
اب 41
بني 41
دی 41
هد 41
وس@@ 41
پور 41
އ@@ 41
या@@ 41
ह@@ 41
ੁ@@ 41
ญ 41
นิ@@ 41
ခ@@ 41
ል 41
ል@@ 41
ốc 41
᾿ 41
‟ 41
↓ 41
仙 41
夷@@ 41
官 41
尼@@ 41
屋 41
役 41
後 41
得@@ 41
振@@ 41
气 41
渡@@ 41
現@@ 41
理 41
由@@ 41
町@@ 41
竹 41
葛@@ 41
連@@ 41
银@@ 41
는 41
만@@ 41
임@@ 41
황@@ 41
Betrieb 40
Estos 40
Hiệp 40
Jina 40
Kı@@ 40
Staaten 40
akter 40
altungs@@ 40
anges@@ 40
azam@@ 40
contributor 40
defeated 40
einmal 40
gibi 40
groß@@ 40
học 40
iglesia 40
ikation 40
kuu 40
marzo 40
personas 40
regel@@ 40
relationship 40
sehr 40
sigui@@ 40
tarz@@ 40
walik@@ 40
wirk@@ 40
yard@@ 40
Đế 40
ĳ@@ 40
ǝ 40
ʳ 40
̏ 40
Τ 40
άζ@@ 40
βασιλ@@ 40
βλ@@ 40
ματα 40
οπ@@ 40
πρωτο@@ 40
τρι@@ 40
Бер@@ 40
Зо@@ 40
Константи@@ 40
Само@@ 40
Фа@@ 40
бор@@ 40
имени 40
ита 40
ку 40
лич@@ 40
мя 40
пере@@ 40
ран 40
сен@@ 40
тин@@ 40
ции 40
чер@@ 40
Գ@@ 40
تي 40
ث 40
عل@@ 40
مس@@ 40
ड 40
ા@@ 40
ค@@ 40
เกาะ 40
เจ 40
ບ@@ 40
ད 40
က 40
ስ 40
በ@@ 40
ḗ 40
➢ 40
凤@@ 40
华 40
合 40
姬 40
岳@@ 40
崎@@ 40
愛 40
戸@@ 40
改@@ 40
最@@ 40
董@@ 40
遊@@ 40
鄧@@ 40
鍾@@ 40
雨 40
革@@ 40
黨 40
니@@ 40
다@@ 40
위@@ 40
타@@ 40
Bedeutung 39
Jahrhunder@@ 39
Nhật 39
ardhi 39
dann 39
directed 39
engwa 39
eviz@@ 39
fuerza 39
meses 39
meyen 39
neun 39
siete 39
tự 39
ungano 39
unun 39
weiter 39
zwa 39
áticos 39
önc@@ 39
ĸ 39
Ż 39
Ǵ@@ 39
βο@@ 39
γελ@@ 39
δε@@ 39
ηγ@@ 39
θύ@@ 39
κτ@@ 39
ποι@@ 39
πυ@@ 39
στο@@ 39
τική 39
χαρ@@ 39
Боль@@ 39
Българ@@ 39
Кли@@ 39
Пар@@ 39
Це@@ 39
Ш 39
ад@@ 39
дин@@ 39
дь 39
зов 39
им 39
кор@@ 39
лей@@ 39
лка 39
му 39
ну@@ 39
пре@@ 39
район@@ 39
рин@@ 39
جبل 39
حة 39
مز@@ 39
ول 39
ين@@ 39
द@@ 39
श@@ 39
আ@@ 39
ੰ@@ 39
୍ 39
ชา@@ 39
ณ@@ 39
ส 39
ไทย 39
ག 39
ገ@@ 39
ី 39
ះ@@ 39
ど@@ 39
ロ 39
世界@@ 39
临@@ 39
关@@ 39
大學 39
夷 39
姬@@ 39
尾@@ 39
峰@@ 39
崇@@ 39
府@@ 39
服@@ 39
福 39
維@@ 39
羊@@ 39
舞@@ 39
豆@@ 39
賢 39
賦 39
造@@ 39
順@@ 39
鳥@@ 39
교@@ 39
그@@ 39
레@@ 39
예@@ 39
울@@ 39
일 39
Hậu 38
additional 38
común 38
fün@@ 38
kote 38
minde 38
mostr@@ 38
okea 38
schnitt 38
spä@@ 38
tekn@@ 38
tungen 38
tái 38
wany@@ 38
Âu 38
Ò 38
äche 38
óm 38
ıs 38
Ŋ 38
Şark@@ 38
ɵ 38
ʌ 38
Ζ 38
Μον@@ 38
Ξ 38
Παν@@ 38
ελλ@@ 38
εσ@@ 38
λέ@@ 38
λύ@@ 38
μν@@ 38
νομ@@ 38
ουλ@@ 38
τέ@@ 38
τες 38
χρ@@ 38
Государ@@ 38
Димит@@ 38
Константин 38
Мари@@ 38
ане 38
бе 38
горо@@ 38
гре@@ 38
жа 38
лан@@ 38
лей 38
лы 38
сов 38
стре@@ 38
три@@ 38
ун@@ 38
цев 38
шен@@ 38
اق@@ 38
او@@ 38
اي@@ 38
دو@@ 38
رية 38
ستان 38
ط 38
فة 38
مج@@ 38
पा@@ 38
ल@@ 38
ট 38
ਪ@@ 38
த 38
ந@@ 38
ം 38
ศ 38
อ 38
ู@@ 38
ያ@@ 38
ង@@ 38
៉ 38
ᵉ@@ 38
Ṛ@@ 38
Ṯ@@ 38
ầm 38
ῳ 38
ℳ 38
⊨ 38
◌ 38
ⵚ@@ 38
つ 38
ば@@ 38
ナ 38
书@@ 38
佛 38
兵 38
刀 38
動@@ 38
園@@ 38
圣@@ 38
奇 38
定 38
承@@ 38
指@@ 38
桥@@ 38
業 38
橋@@ 38
淮@@ 38
珍 38
省@@ 38
精@@ 38
臺@@ 38
速@@ 38
遠@@ 38
阪@@ 38
陀@@ 38
頭@@ 38
나 38
시 38
activities 37
amaç@@ 37
antigua 37
asyonu 37
attemp@@ 37
cedes 37
contains 37
created 37
cú 37
distrito 37
ekonom@@ 37
fourth 37
gaben 37
grupo 37
hijos 37
kür@@ 37
mwa 37
principio 37
selbst 37
setzung 37
stellen 37
stoff@@ 37
trí 37
uyết 37
westen 37
Ù 37
Û 37
İr@@ 37
ıf 37
ŷ 37
βρα@@ 37
ιά 37
πί@@ 37
τικός 37
όβ@@ 37
І 37
Авто@@ 37
Васи@@ 37
Елена 37
Ке@@ 37
Ль@@ 37
Мор@@ 37
Петро@@ 37
Фи@@ 37
Черно@@ 37
Ше@@ 37
вар@@ 37
вя@@ 37
дар 37
дов@@ 37
ей 37
мар@@ 37
мия 37
ники 37
поле 37
слав@@ 37
тра@@ 37
фа 37
ше 37
ьо@@ 37
язык 37
Կ@@ 37
ַ 37
־ 37
الجزائر 37
الي@@ 37
رضا 37
ना@@ 37
मन 37
वा@@ 37
ภ@@ 37
ษ 37
མ 37
ያ 37
ẽ 37
ẽ@@ 37
Ἡ@@ 37
⁵ 37
➜ 37
ご@@ 37
と 37
ほ@@ 37
ィ 37
丁 37
伯 37
俊@@ 37
制@@ 37
功@@ 37
动@@ 37
太平@@ 37
孟@@ 37
幸@@ 37
曾@@ 37
桃@@ 37
母@@ 37
沢@@ 37
端@@ 37
育 37
蘭 37
観@@ 37
觀 37
量@@ 37
鐵@@ 37
關 37
體@@ 37
서 37
Massachus@@ 36
americanos 36
bunu 36
cambio 36
comer@@ 36
cump@@ 36
después 36
durch@@ 36
ehör@@ 36
escrit@@ 36
ganz 36
geboren 36
highest 36
höch@@ 36
interes@@ 36
ishia 36
layan 36
leicht 36
mismo 36
presión 36
secu@@ 36
tained 36
ultad 36
umwa 36
various 36
victory 36
worden 36
ãn 36
İk@@ 36
Ĳ@@ 36
ʹ@@ 36
ήσ@@ 36
επ@@ 36
οτ@@ 36
όπουλος 36
Ана@@ 36
Анна 36
Василий 36
Ги@@ 36
водо@@ 36
вые 36
кого 36
лет@@ 36
ме 36
нец 36
они@@ 36
сты@@ 36
церковь 36
ғ@@ 36
ք@@ 36
ء 36
آباد 36
اج@@ 36
بی@@ 36
جو@@ 36
نة 36
ध 36
ং@@ 36
ರ@@ 36
യ@@ 36
ตา@@ 36
บุ@@ 36
วง@@ 36
ལ@@ 36
ላ@@ 36
ነ@@ 36
እ@@ 36
ዊ 36
ḡ@@ 36
ối 36
ὰ@@ 36
₤ 36
₩ 36
⊢ 36
♪ 36
こ 36
ろ@@ 36
キ 36
丘 36
也 36
剛@@ 36
務@@ 36
取@@ 36
好 36
密 36
察@@ 36
庄@@ 36
战 36
格@@ 36
楽@@ 36
樹 36
波 36
浪@@ 36
温@@ 36
益@@ 36
盧@@ 36
秋 36
秘@@ 36
血@@ 36
賀@@ 36
邑 36
鈴@@ 36
雪 36
삼@@ 36
요 36
･ 36
Despite 35
Einsatz 35
batalla 35
bringen 35
dalg@@ 35
estudio 35
etwa 35
ierung 35
liament 35
momento 35
món 35
negoci@@ 35
pasado 35
passed 35
primero 35
required 35
segunda 35
selected 35
uzun 35
¸ 35
Þ 35
üğü 35
Ą 35
Đào 35
Ę 35
ητ@@ 35
ιδ@@ 35
λιος 35
σχ@@ 35
τή@@ 35
του@@ 35
ϕ@@ 35
Гла@@ 35
Не 35
Пол@@ 35
Ь 35
армия 35
вин@@ 35
вой@@ 35
дан 35
жда 35
нии 35
пера@@ 35
рон@@ 35
сан@@ 35
тина 35
ши 35
ѣ 35
أن@@ 35
الدین 35
زي 35
سم@@ 35
می 35
وان 35
ير@@ 35
کو@@ 35
ި@@ 35
ब@@ 35
ला 35
ப 35
ു@@ 35
กระ@@ 35
ัน@@ 35
ྒ@@ 35
ီ@@ 35
ም 35
ም@@ 35
ግ@@ 35
ោ@@ 35
៊ 35
ḗ@@ 35
ṉ@@ 35
ἁ@@ 35
ὅ@@ 35
ℝ@@ 35
え 35
な 35
ペ@@ 35
中国 35
伏@@ 35
住@@ 35
傳@@ 35
卫@@ 35
周 35
坂@@ 35
如 35
庆@@ 35
忠 35
斯@@ 35
晉@@ 35
望@@ 35
柔@@ 35
桥 35
洞@@ 35
熊@@ 35
登@@ 35
皇帝 35
秀 35
联@@ 35
船@@ 35
苗@@ 35
詩 35
詩@@ 35
謝@@ 35
越 35
达@@ 35
连@@ 35
郑@@ 35
間 35
鬼 35
재@@ 35
청@@ 35
Chrysomel@@ 34
Cô 34
Juegos 34
Sitz 34
allowed 34
besser@@ 34
cái 34
descu@@ 34
difer@@ 34
einge@@ 34
estación 34
filmi 34
giá 34
hacer 34
iciones 34
isiert 34
kufu@@ 34
lassen 34
months 34
moved 34
platz@@ 34
posterior 34
started 34
ständi@@ 34
trabaj@@ 34
verli@@ 34
úp 34
üzel 34
ɥ@@ 34
̟ 34
Μ 34
Μαρ@@ 34
έ 34
δυ@@ 34
νο@@ 34
ρία 34
όπ@@ 34
όρι@@ 34
Ϲ@@ 34
Бур@@ 34
Вер@@ 34
Виктор 34
Воз@@ 34
Восто@@ 34
Дру@@ 34
Дъ@@ 34
Кур@@ 34
Пере@@ 34
Ско@@ 34
Три@@ 34
Центра@@ 34
Ъ 34
ген@@ 34
дер@@ 34
жо@@ 34
жу@@ 34
зар@@ 34
зем@@ 34
ис@@ 34
ита@@ 34
каз@@ 34
кар@@ 34
кол@@ 34
кт 34
лан 34
лев@@ 34
ности 34
пор@@ 34
порт 34
старо@@ 34
сты 34
тар 34
тя@@ 34
чь 34
шки 34
ռ@@ 34
ָ 34
اح@@ 34
اضي 34
الرحمن 34
ری 34
زة 34
سو@@ 34
كُ@@ 34
وم@@ 34
ِّ@@ 34
ܺ@@ 34
หม@@ 34
เข@@ 34
เส@@ 34
ຸ@@ 34
ົ@@ 34
པ@@ 34
ར 34
ျ@@ 34
ኢ@@ 34
ⁿ@@ 34
℃ 34
⇆ 34
∉ 34
➡ 34
ⵥ@@ 34
プ 34
丰@@ 34
位@@ 34
列@@ 34
包@@ 34
堂@@ 34
奥@@ 34
威 34
寒@@ 34
岭@@ 34
広@@ 34
弘 34
悟@@ 34
景 34
杭@@ 34
泰 34
総@@ 34
羽@@ 34
船 34
色 34
蓮@@ 34
藩 34
虎 34
要 34
语@@ 34
豊@@ 34
陶@@ 34
관@@ 34
문 34
상 34
어 34
포@@ 34
Alemania 33
Cumhuriyeti 33
Eylül 33
Khu 33
Lưu 33
adaki 33
alizado 33
amoja 33
bereich 33
brought 33
cuốn 33
erken 33
femen@@ 33
financial 33
gesam@@ 33
liegt 33
likely 33
mundial 33
nahme 33
ndio 33
performed 33
político 33
porque 33
posible 33
produce 33
realiz@@ 33
rı 33
served 33
spez@@ 33
todas 33
unidades 33
weisen 33
wever 33
wrote 33
zote 33
Öff@@ 33
âng 33
äten 33
ército 33
ürl@@ 33
ɟ 33
ɤ 33
Ευ@@ 33
άμ@@ 33
ές 33
αλλ@@ 33
δης 33
θέ@@ 33
μερ@@ 33
μον@@ 33
πέ@@ 33
ση 33
υν@@ 33
όκ@@ 33
Анто@@ 33
Бар@@ 33
България 33
Вален@@ 33
Спа@@ 33
бар@@ 33
зе 33
лет 33
оло@@ 33
под@@ 33
стен 33
стов 33
уго@@ 33
улица 33
университет 33
Վ@@ 33
ات@@ 33
الة 33
المن@@ 33
ایران 33
رات 33
ری@@ 33
صف@@ 33
طف@@ 33
عد@@ 33
قل@@ 33
كان 33
ہ 33
ܦ@@ 33
ނ@@ 33
މ@@ 33
आ@@ 33
च@@ 33
ਦ@@ 33
ਵ@@ 33
ட 33
വ@@ 33
ව@@ 33
พง@@ 33
มา@@ 33
ศ@@ 33
ิ@@ 33
ິ@@ 33
ển 33
ὺ@@ 33
┐ 33
オ 33
ゼ@@ 33
与@@ 33
业@@ 33
东 33
了@@ 33
事件 33
余@@ 33
依@@ 33
俊 33
僧@@ 33
党 33
去@@ 33
吉 33
团@@ 33
场 33
塔@@ 33
干@@ 33
恩@@ 33
慈@@ 33
應@@ 33
支@@ 33
旦 33
桐 33
樓 33
比@@ 33
活@@ 33
画@@ 33
皮@@ 33
科 33
穆@@ 33
老 33
芳 33
药 33
葉 33
薩 33
衛 33
角 33
説 33
貞@@ 33
造 33
達 33
遠 33
鄉 33
錄 33
長 33
防@@ 33
陰@@ 33
거@@ 33
미 33
회 33
Mög@@ 32
alización 32
ancak 32
ativas 32
career 32
considered 32
decir 32
dicha 32
entdec@@ 32
entire 32
finanz@@ 32
gegen@@ 32
hangi 32
hunder@@ 32
ilç@@ 32
itwa 32
kommen@@ 32
lebt 32
mejor 32
moja 32
nivel 32
reibung 32
sür@@ 32
tritt 32
xã 32
áu 32
ält 32
ülke 32
Độ 32
ıp 32
ſ 32
ǃ 32
˞ 32
Βασιλ@@ 32
ίζ@@ 32
ίκ@@ 32
ημ@@ 32
ματ@@ 32
ναι 32
συν@@ 32
σύ@@ 32
τε 32
τοκ@@ 32
ϊ@@ 32
όγ@@ 32
όχ@@ 32
ύλ@@ 32
Ђ@@ 32
Бал@@ 32
Гер@@ 32
Обла@@ 32
Ок@@ 32
Петер@@ 32
Санкт 32
бир@@ 32
вина 32
ган 32
гна@@ 32
кла@@ 32
коло@@ 32
лез@@ 32
лъ@@ 32
мер@@ 32
мя@@ 32
ну 32
соб@@ 32
стан 32
теат@@ 32
чев 32
чный 32
шко 32
ծ@@ 32
أس@@ 32
اج 32
المع@@ 32
حم@@ 32
على 32
عم@@ 32
لف@@ 32
ް@@ 32
का@@ 32
ज@@ 32
जि@@ 32
ছ@@ 32
ਜ@@ 32
ੁ 32
ீ@@ 32
ประ@@ 32
ั 32
ပ 32
ယ 32
ለ 32
ᐃ@@ 32
គ@@ 32
ⁿ 32
ⲣ@@ 32
お 32
け 32
め 32
久 32
传@@ 32
冠@@ 32
初@@ 32
到@@ 32
厦 32
唐 32
喜 32
国家@@ 32
座 32
情 32
智 32
朴@@ 32
楼@@ 32
潘@@ 32
無 32
狼@@ 32
篇 32
股@@ 32
與@@ 32
蔵 32
薛@@ 32
起@@ 32
進@@ 32
関@@ 32
非@@ 32
魚@@ 32
鱼@@ 32
석@@ 32
파@@ 32
Danh 31
Ehe 31
Ihre 31
Neben@@ 31
No. 31
Rennen 31
Tarih@@ 31
ahudi 31
akili 31
altı 31
deter@@ 31
dài 31
económ@@ 31
ejec@@ 31
ekana 31
elección 31
empresa 31
erfol@@ 31
förder@@ 31
halb 31
identen 31
keiten 31
kesi 31
kinh 31
okeo 31
parenti@@ 31
semana 31
separate 31
[...]
