， 21332614
的 13289022
。 12382365
、 4786949
年 4762403
在 4055882
是 3219095
（ 3213067
） 3208600
. 2190708
和 2185900
月 2155419
人 2041233
了 1817104
為 1685164
於 1681660
一@@ 1535325
大@@ 1529032
有 1516078
日 1419589
中 1399956
为 1344860
》 1222109
《 1222093
· 1214147
- 1107943
上 1036719
他 1032762
被 1017955
： 936914
「 929291
」 929151
與 890729
到 857614
也 847985
“ 840666
” 838685
中@@ 836718
而 825667
不@@ 806186
以 796724
由 791610
後 787374
斯 760263
于 757664
及 747122
會 740955
等 740230
1 733509
名 728747
子 720785
西@@ 694357
公@@ 672256
部 648238
斯@@ 638903
道 631971
下 631597
州 625189
位 623276
地 612658
人@@ 609853
2 598946
者 595850
至 595690
" 585596
高@@ 574989
； 570130
新@@ 567491
后 566887
三@@ 560998
海@@ 555441
南@@ 554335
特@@ 554022
3 548833
省 541770
市 540098
長 539520
与 538585
來 537406
大 536594
出 536535
) 533521
但 528202
( 528140
都 520180
時 517997
主@@ 517996
区 514460
其 514075
文@@ 513058
多@@ 512601
行 509574
站 495277
, 493702
会 493570
用 493238
小@@ 492139
分@@ 487082
地@@ 477551
之@@ 477167
一个 476629
4 475700
尔 475633
區 473984
以@@ 471631
十@@ 470787
上@@ 468388
北@@ 464706
克 459325
國@@ 454501
作 452891
成 451388
本@@ 448978
5 442978
克@@ 442208
德@@ 440221
性 437783
任 435072
有@@ 434094
天@@ 432115
力 431663
對 428881
出@@ 427295
德 426007
法 422963
家 420454
所 417481
日@@ 416069
定 416020
拉@@ 414870
安@@ 412562
6 407065
山 404817
前 404269
利 402895
里 401988
阿@@ 400761
自@@ 400621
军 400277
入 399581
山@@ 399297
或 398228
年@@ 394352
之 391269
时 386830
特 386353
巴@@ 384272
相@@ 381874
国@@ 381717
度 381453
8 381355
四@@ 381149
加@@ 379400
7 378318
10 375187
金@@ 374850
改@@ 374397
不 374354
并 370441
面 370319
化 367351
民@@ 366117
事 363061
全@@ 362376
科@@ 360640
生@@ 360632
個 354639
东@@ 353334
爾@@ 352694
水@@ 352407
生 352133
米 350204
可以 346299
合 344206
並@@ 343257
9 342050
政府 341153
尔@@ 340497
物 339218
王@@ 337510
首@@ 335930
法@@ 335090
量 335003
下@@ 334989
二@@ 334720
工@@ 334217
原@@ 334058
同@@ 333919
合@@ 333520
对 333126
成@@ 332685
西 332226
型 331591
向 331066
12 328873
次 328807
理 328281
利@@ 327844
分 327342
长 326796
尼@@ 326778
方 326509
基@@ 325467
國 323692
中国 323156
其@@ 321170
路 320671
拉 320494
行@@ 320338
場 319905
个 319904
日本 319845
新 319795
重@@ 319373
保@@ 319029
使用 318488
第 318372
名@@ 316448
建@@ 315283
教@@ 314459
期 311552
軍@@ 308687
式 306254
事@@ 305333
南 305244
士 305214
布@@ 304530
一 302840
多 302311
線 301536
院 300374
台 300360
县 297484
香港 296786
東@@ 296066
将 295450
交@@ 295159
外@@ 294123
国 293284
就 292329
; 292152
公司 291250
曾 289841
科 289582
此@@ 289515
能 289231
市@@ 288032
此 287662
包括 286563
學@@ 286450
以及 286017
卡@@ 285118
11 285103
稱 284766
明 283070
她 282824
其中 280286
發@@ 279392
太@@ 279077
马@@ 278877
一個 277711
格 276755
来 274829
隊 273787
代 272335
比@@ 271551
建 270602
人口 269018
這@@ 268699
平@@ 267074
/ 266543
理@@ 265939
正@@ 265846
局 265676
夫 265568
軍 263479
外 263375
馬 263295
文 262539
所@@ 262036
伊@@ 260894
: 260833
里@@ 260175
可@@ 258820
学@@ 258442
兩@@ 258375
使 257986
英@@ 257886
物@@ 257703
主要 257345
通@@ 256603
色 255324
古@@ 254246
後@@ 254205
格@@ 253556
得 253209
民 252750
業 249277
可 248150
五@@ 248041
提@@ 247213
縣 246622
第@@ 244269
約 243715
球 242563
學 242089
政@@ 241986
北 241271
各@@ 240365
亞@@ 240329
城 239191
車 238762
指@@ 238332
前@@ 238217
体 237993
普@@ 237968
林 236580
天 236367
明@@ 235962
美@@ 235625
域 235489
賽 235123
立 234621
反@@ 234484
它 234304
內 234148
开@@ 233923
該 233888
電@@ 233720
爾 233370
李@@ 233040
要 231469
作@@ 231464
員 231187
又 230955
制 230559
將 230483
元 228561
业 228471
開@@ 228355
发@@ 228292
王 227728
学 226641
自 225792
流@@ 225788
接@@ 225655
该 224829
段 224670
河@@ 224373
口 223842
因 223339
本 223326
起 222612
河 220873
海 220560
电@@ 220482
手 219806
體 219115
間 218770
戰@@ 218734
任@@ 218696
波@@ 218301
最@@ 217079
當@@ 216463
线 215984
收@@ 215827
号 215532
场 213838
現@@ 213556
其他 213059
方@@ 212826
广@@ 212454
属 212179
屬 212112
會@@ 210692
亦 210589
亞 210580
江@@ 210468
星 210466
世界 209669
達 209618
家@@ 209050
用@@ 209028
福@@ 208883
號 208681
林@@ 207933
罗@@ 207396
世 207213
平方公里 206456
化@@ 206091
而@@ 205825
部@@ 205660
已 205198
空@@ 205192
级 205022
这@@ 204562
两@@ 204457
美國 204240
臺 203658
称 203162
因此 203060
村 202911
經@@ 202601
内@@ 202398
商@@ 202374
時@@ 201384
水 201299
位于 200581
去 200483
联@@ 200382
器 200109
哈@@ 199908
路@@ 199125
高 199090
選@@ 198399
最 198061
從 198033
由@@ 197911
表@@ 196225
機@@ 195562
小 195457
神@@ 195217
比 195099
武@@ 195033
代@@ 194833
系 194821
信@@ 194698
將@@ 194328
维@@ 193489
台@@ 191810
% 191421
女@@ 191297
即 191220
因@@ 190833
安 190354
意@@ 190215
大学 189900
投@@ 189416
清@@ 189273
城@@ 189090
尼 188755
中心 188569
常@@ 188548
白@@ 188459
地区 188103
件 188054
六@@ 187127
治 186880
則 186856
员 186346
更 186329
总@@ 186199
洛@@ 185430
並 185173
军@@ 185002
博@@ 184841
主 184421
說 184176
派 184119
案 183765
内 183699
定@@ 183428
總@@ 183323
威@@ 182820
製 182688
种 182141
从 181334
音 181302
自己 181161
3@@ 180902
流 180888
20 180351
镇 180343
府 180023
東 179283
立@@ 179212
演 178487
品 178019
機 178012
球@@ 178011
集 177944
长@@ 176917
著 176891
机 176735
兵 176502
奥@@ 176196
蘭 176155
八@@ 175993
队 175549
廣@@ 175518
吉@@ 175258
美国 175190
石@@ 174921
语 174851
片 174735
得@@ 174592
周@@ 174440
回@@ 174415
代表 174138
起@@ 173748
入@@ 173673
金 173471
如@@ 173185
成立 172520
研究 172519
可能 171911
政治 171718
4@@ 171656
时@@ 171374
车 171219
語 170969
發 170817
官 170773
亚@@ 170526
工作 170207
率 170169
工 170050
打@@ 169297
動 169266
对@@ 169140
共@@ 168954
解@@ 168949
之一 168935
女 168904
更@@ 168889
數@@ 168374
數 167865
室 167774
平 167437
实@@ 167227
維@@ 166821
開始 166654
令 166420
& 165842
市镇 165769
光@@ 165648
級 165539
原 164498
季 164098
约 163953
戰 163296
九@@ 162708
字 162621
座 162432
设@@ 162237
直@@ 161942
源 161869
战@@ 161772
族 161651
点 161217
表示 160566
教 160304
類 160256
手@@ 159905
现@@ 158745
每@@ 158475
種 157895
和@@ 157792
程 157742
先@@ 157641
机@@ 157553
引@@ 157442
动@@ 157416
情 157401
意 157377
瓦@@ 157180
為@@ 156823
同 156722
子@@ 156533
不同 156026
點 155979
造 155567
星@@ 155532
M@@ 155453
百@@ 155417
5@@ 155373
无@@ 155029
如 154924
無@@ 154912
止 154297
数 154278
修@@ 154137
處 153773
雷@@ 153771
重 153366
7@@ 153059
身 153031
6@@ 152967
助 152776
實@@ 152428
島 152358
推@@ 152225
基 152140
部分 152093
關 151547
管 151532
伯@@ 151465
例 151271
未@@ 151056
內@@ 151035
动 150612
士@@ 150472
兰 150441
置 150424
支@@ 149191
心 149012
聯@@ 148534
沙@@ 148378
目 148352
列@@ 148241
火@@ 148083
動@@ 147373
— 147219
元@@ 146803
曾@@ 146384
參@@ 146283
30 146240
字@@ 146151
第一@@ 146011
说 145936
15 145932
羅@@ 145696
指 145294
列 145050
演@@ 144983
法国 144827
_ 144637
區@@ 144316
議 144220
好 144212
9@@ 143754
选@@ 143460
塔@@ 143413
界 143307
連@@ 143157
少@@ 143156
制@@ 143094
达 143000
黑@@ 142862
副 142528
知@@ 142402
超@@ 142365
作品 142329
8@@ 142321
塞@@ 142302
近 142278
形 142107
年代 142030
运@@ 141792
體@@ 141504
像 141360
然 141188
七@@ 141149
则 140666
程@@ 140585
卡 140489
发 140450
埃@@ 140436
开始 140381
告 140370
布 140345
示 140238
江 140023
公里 139994
設@@ 139939
氏 139901
这 139792
開 139683
希@@ 139544
专@@ 139516
在@@ 139200
把 138695
羅 138683
光 138622
经@@ 138505
中國 138492
过 138297
进行 138153
台灣 138141
东 137911
義@@ 137756
言 137619
青@@ 137485
正式 137322
数@@ 137180
国家 137096
一些 137070
放 137044
車@@ 136997
间 136955
集@@ 136793
T@@ 136500
S@@ 136460
影@@ 136447
司@@ 136337
米@@ 136158
通 135883
黨 135752
加 135432
常 135386
境 135156
着 134979
正 134875
传@@ 134798
该@@ 134586
门 134325
万@@ 134262
第二@@ 133906
曲 133896
受 133554
防@@ 133431
再 133313
勒 133269
知 133044
B@@ 132905
經 132728
那@@ 132642
們 132636
提供 132616
落 132558
半@@ 132505
成为 132500
史@@ 132113
深@@ 131832
朝 131727
整@@ 131514
進行 131285
行政 131123
战 130905
非 130653
所有 130622
速 130239
他們 130086
才 129886
華@@ 129698
門 129684
城市 129539
能@@ 129466
地區 128915
未 128878
師 128803
洲 128738
播 128503
身@@ 128485
道@@ 128321
真@@ 128312
登@@ 128163
象 128113
攻@@ 128095
石 127823
当@@ 127480
少 127465
领@@ 127378
過@@ 127133
創@@ 127131
D@@ 126894
委 126850
考@@ 126741
泰@@ 126730
2@@ 126464
回 126391
運@@ 126355
成為 126228
轉@@ 125518
治@@ 125507
史 125119
花@@ 124763
朝@@ 124712
师 124657
文化 124588
奧@@ 124506
國家 124389
我 124263
第一 124112
16 123969
便 123930
大學 123805
心@@ 123700
18 123588
往 123575
息 123574
受@@ 123568
蘭@@ 123509
处 123397
性@@ 123349
中国@@ 123282
除 123147
2010 123123
堡 123046
21 122893
世@@ 122867
形@@ 122742
堂 122727
配@@ 122714
論 122611
風@@ 122604
进@@ 122440
校@@ 121501
官@@ 121380
樂@@ 121291
C@@ 121285
牌 121174
領@@ 121158
愛@@ 121093
查 120962
省@@ 120502
設 120169
感@@ 120071
赛 119985
警@@ 119983
放@@ 119814
果 119699
还 119584
宣@@ 119522
获得 119373
停@@ 119112
均 118713
湖@@ 118642
川 118637
今 117921
达@@ 117869
以下 117779
較 117730
社@@ 117604
生活 117318
失@@ 117297
老@@ 117152
19 116928
学院 116900
取 116833
类 116805
G@@ 116568
瑞@@ 116240
P@@ 116114
因為 116038
夫@@ 115981
formula 115923
信 115828
社 115792
人民@@ 115780
人物 115550
后@@ 115264
14 115235
劇 115002
亚 114769
見 114652
還@@ 114604
力@@ 114578
先 114558
面積 114526
没有 114376
馬@@ 114314
錄 114191
等@@ 114175
H@@ 114169
他们 114114
應 113686
易 113574
事件 113573
校 113263
精@@ 113255
死 113207
認為 113093
資@@ 113033
塔 112915
体@@ 112825
隨@@ 112658
客@@ 112609
標@@ 112554
美 112547
施 112248
消@@ 112176
13 112088
萬@@ 111756
岛 111683
16@@ 111643
苏@@ 111618
至@@ 111602
印@@ 111556
持@@ 111524
华@@ 111470
母 111393
非@@ 111342
進 111106
對@@ 111021
想 111009
章 110833
電影 110795
頭 110776
通过 110693
目前 110438
航@@ 110339
历史 110212
表 110195
帶 110171
傳@@ 109955
永@@ 109820
17 109806
依@@ 109625
宗 109591
結@@ 109557
神 109396
展@@ 109335
25 109155
當時 109139
專@@ 108999
移@@ 108811
奇 108152
接 108118
被@@ 108078
创@@ 108064
2019 107995
但是 107700
帝 107621
角 107613
委@@ 107583
变@@ 107439
權 107389
2011 107308
L@@ 107307
版 107194
票 106982
森 106836
皇@@ 106676
共 106660
團 106528
管理 106463
足球 106461
客 106407
2009 106377
姆 106218
佛@@ 106196
15@@ 106128
次@@ 106037
承@@ 105994
为@@ 105824
擊 105760
弗@@ 105657
目@@ 105470
陳 105356
论 105205
党 105072
旅@@ 105045
2016 105036
馆 104967
面@@ 104881
土@@ 104880
店 104838
托@@ 104815
港@@ 104716
乐@@ 104675
规@@ 104659
協@@ 104535
中央 104527
進@@ 104373
北部 104064
產@@ 103914
持 103879
务 103853
田@@ 103747
料 103680
认为 103564
加入 103440
關@@ 103267
過 103230
蘇@@ 103193
同年 103176
木@@ 103171
E@@ 103126
莫@@ 102984
来@@ 102937
賽@@ 102908
盟 102860
底 102787
編@@ 102784
街 102556
歷史 102554
灣@@ 102554
龍 102444
A@@ 102426
書 102389
2018 102330
該@@ 102326
務 102236
讓 102177
重要 102169
方面 101928
政 101732
館 101647
关 101577
現 101351
月@@ 101236
2012 101113
役 101092
郡 100939
系列 100792
车@@ 100740
马 100487
港 100422
值 100419
田 100288
下辖 100153
排@@ 100114
萨@@ 100021
2013 99839
達@@ 99829
時間 99817
书 99808
份 99742
迪@@ 99703
變@@ 99625
岸 99587
友 99496
觀@@ 99371
需要 99258
圣@@ 99229
解 99116
支持 99098
2017 99062
增@@ 99061
团 98901
三 98821
委员会 98746
2014 98741
教育 98591
A 98541
延@@ 98407
情@@ 98367
乡 98281
當 98256
花 98208
建立 98125
生平 98106
2015 98087
群 98074
只 97894
空 97831
氣@@ 97505
24 97494
E 97342
京@@ 97264
取@@ 97252
南部 97208
張@@ 97202
艾@@ 97114
参@@ 97107
樣 97057
書@@ 96933
地方 96892
{ 96855
相 96848
图@@ 96826
F@@ 96817
計@@ 96758
嘉@@ 96754
規@@ 96682
獲得 96636
邦 96597
汉@@ 96520
獎 96459
音@@ 96194
资@@ 96042
兰@@ 95913
莱@@ 95749
N@@ 95697
密@@ 95544
升@@ 95523
備 95474
铁路 95424
要求 95407
食@@ 95190
17@@ 95153
zh 95080
紀@@ 95000
完成 94960
張 94842
标@@ 94764
初 94682
批@@ 94654
作为 94636
开 94604
千@@ 94236
候 94207
转@@ 94178
網@@ 94156
近@@ 94039
2008 94021
志 93956
同時 93943
风@@ 93909
黃 93847
仍 93834
义 93791
0.@@ 93743
夏@@ 93703
述 93660
辦 93621
看@@ 93579
納@@ 93517
員@@ 93491
議@@ 93444
} 93363
们 93292
記@@ 93266
由于 93198
报@@ 93159
車站 93150
协@@ 93136
黄@@ 93017
2020 93004
曼 92995
恩 92980
单位 92970
R@@ 92768
K@@ 92753
選 92741
22 92588
醫@@ 92586
唐@@ 92583
例如 92443
效@@ 92334
即@@ 91988
抗@@ 91948
勒@@ 91944
典 91942
視 91914
籍 91886
业@@ 91853
纳 91797
畫 91695
期@@ 91620
州@@ 91488
O@@ 91142
退@@ 91129
] 91095
医@@ 91092
劇@@ 91077
及@@ 91058
工程 90996
[ 90956
寺 90915
成功 90811
梅@@ 90799
产@@ 90678
方式 90634
经 90534
得到 90226
素 90226
受到 90097
甲@@ 90056
署 90034
23 89982
灣 89916
调@@ 89851
第二 89821
很 89771
结@@ 89709
权 89695
低 89647
鲁@@ 89631
留@@ 89596
交 89489
阳 89391
職@@ 89290
张@@ 89159
上海 89095
病@@ 88997
四 88938
组 88927
發展 88876
分布 88857
歲 88794
湖 88774
群@@ 88763
冠@@ 88702
一般 88664
突@@ 88649
義 88627
二 88584
统@@ 88584
纳@@ 88492
土 88481
母@@ 88456
構 88423
令@@ 88341
管@@ 88247
参加 88199
公 87994
思@@ 87881
命 87785
人民 87760
復 87693
初@@ 87688
索@@ 87651
似 87521
0 87517
打 87450
房 87448
續 87412
毛@@ 87320
聖@@ 86998
導 86953
展 86950
每 86950
通常 86942
存在 86918
升 86913
報@@ 86856
系统 86845
击 86844
的@@ 86776
居 86773
單@@ 86674
前往 86653
款 86594
富@@ 86502
射 86230
议 86225
藝@@ 86168
且 86162
给 85803
恩@@ 85769
蒙@@ 85715
一種 85598
首 85587
具 85510
號@@ 85469
之后 85456
存 85438
带 85308
層 85276
簡@@ 85181
000 85085
巴 85066
园 85014
發現 84974
会@@ 84962
商 84955
容 84943
系統 84943
2001 84939
應@@ 84753
育@@ 84751
眾 84680
议@@ 84603
算 84592
蒂@@ 84391
人口密度 84282
今@@ 84197
架 84190
圖 84177
都@@ 84171
術 84137
強@@ 84114
服@@ 84087
報 84076
統@@ 83969
祖@@ 83923
病 83900
做 83838
2007 83776
口@@ 83770
另 83710
質 83595
務@@ 83573
求 83482
农@@ 83471
查@@ 83242
－ 83233
色@@ 83143
样 83107
雙@@ 83066
康@@ 83046
條 83039
沿@@ 82923
务@@ 82882
飛@@ 82823
是@@ 82811
28 82806
就是 82767
然而 82671
模@@ 82651
同时 82638
提出 82486
則@@ 82462
届 82462
男@@ 82423
书@@ 82353
射@@ 82255
鐵@@ 82208
属于 82186
瓦 82165
菲@@ 82078
越 82068
一名 82022
龍@@ 81966
哥 81836
冠 81797
完@@ 81777
組@@ 81714
备 81673
形成 81614
沒有 81578
R 81526
连@@ 81518
或@@ 81456
耶@@ 81421
应@@ 81413
另外 81384
核@@ 81379
准 81323
气@@ 81180
歌 81052
父@@ 80993
兵@@ 80961
选 80956
网@@ 80868
帕@@ 80813
組 80796
國際 80705
項 80698
著@@ 80696
担任 80624
父 80608
企@@ 80607
節 80591
研究@@ 80506
所以 80463
赛@@ 80388
哥@@ 80376
離 80348
支 80330
最大 80237
照 80230
2006 80214
B 80211
降@@ 80211
端 80167
調@@ 79913
尚@@ 79906
宗@@ 79884
世纪 79867
具有 79867
波 79626
步 79623
组织 79405
邊 79395
班 79340
摩@@ 79299
封@@ 79282
区@@ 79232
U@@ 79132
党@@ 79088
村@@ 79086
據 78962
皮@@ 78720
主席 78677
主义 78568
佈 78552
26 78438
宣布 78302
北京 78297
藏 78095
只有 78082
售 78079
胡@@ 78078
最高 78067
逐@@ 78029
守 78027
报 77933
預@@ 77918
變 77904
一种 77871
歌曲 77809
只@@ 77797
贝@@ 77779
他@@ 77766
薩@@ 77740
漢@@ 77691
環@@ 77550
罗 77544
几@@ 77509
很@@ 77494
英國 77463
比賽 77384
擔任 77319
卫@@ 77281
据 77235
業@@ 77197
頓 77168
屆 77095
語@@ 77076
学校 77014
编@@ 77001
五 76975
故事 76904
萬 76839
根據 76809
始@@ 76740
早@@ 76706
倫@@ 76683
址 76658
甲 76650
向@@ 76645
当 76541
单@@ 76520
施@@ 76519
合作 76470
敗 76469
关@@ 76461
洋 76451
职@@ 76450
白 76424
已@@ 76372
遊戲 76341
澳@@ 76340
办@@ 76337
条 76208
27 76170
擊@@ 76016
一位 75921
接受 75911
興@@ 75857
園 75782
2021 75780
試 75736
T 75731
評@@ 75722
條@@ 75691
学名 75665
產 75610
峰 75585
现 75452
此外 75440
反 75399
出現 75251
係 75158
船 75146
極@@ 75125
首次 75105
环@@ 75103
14@@ 75099
足 74969
处@@ 74922
导@@ 74755
gt 74689
D 74674
食 74673
附近 74654
龙@@ 74615
卻 74609
= 74587
J@@ 74499
序 74497
这些 74481
容@@ 74412
杜@@ 74375
朱@@ 74306
話 74156
景@@ 74106
小行星 74027
念 73990
h@@ 73946
給 73878
头 73874
破@@ 73803
2000 73661
實 73657
造成 73655
予 73648
臣 73621
V@@ 73609
红@@ 73587
角色 73435
游戏 73378
樓 73365
密 73290
雷 73287
图 73251
印度 73234
质 73201
范@@ 73064
发展 73063
31 73057
住@@ 72986
察@@ 72954
因为 72937
记@@ 72836
影響 72783
一直 72768
发现 72757
2005 72620
席 72585
游@@ 72389
執@@ 72325
這些 72317
爆@@ 72304
專輯 72248
衛@@ 72149
寫 72147
追@@ 72056
自由 72021
德国 71996
一座 71931
森@@ 71909
轄 71879
女性 71781
约@@ 71704
命@@ 71693
院@@ 71688
朗 71644
丁@@ 71631
再@@ 71500
時期 71422
角@@ 71410
取得 71318
层 71256
增加 71254
0@@ 71237
丹@@ 71170
修 71120
纪@@ 71119
进 71109
面积 70988
曼@@ 70943
营 70938
劉@@ 70910
时间 70793
1.@@ 70744
個@@ 70727
設計 70683
留 70680
鎮 70679
降 70661
魚 70615
这个 70520
C 70514
托 70478
略 70384
29 70278
離@@ 70251
观@@ 70177
使@@ 70171
从@@ 70140
中华人民共和国 70136
攻 70103
lt 70095
陈@@ 70038
映 70012
W@@ 69939
刘@@ 69922
二十@@ 69910
稱@@ 69902
国际 69887
這個 69880
銀@@ 69869
活動 69865
沒 69810
社會 69806
導@@ 69795
傳 69693
命名 69675
之間 69534
任何 69439
如果 69393
微@@ 69378
当时 69255
曲@@ 69234
干@@ 69178
播@@ 69131
派@@ 69089
强@@ 69070
歌@@ 69046
司 69041
六 69012
期间 68951
英 68936
易@@ 68856
左@@ 68844
學校 68809
好@@ 68760
共有 68725
撤@@ 68675
I@@ 68616
殺 68589
然@@ 68582
載 68556
注@@ 68539
之前 68436
评@@ 68328
海拔高度 68317
50 68193
魯@@ 68157
居@@ 68119
索 68099
沃@@ 68078
幾@@ 68034
应 68031
低@@ 67983
复@@ 67969
乌@@ 67864
晚@@ 67857
街道 67845
导 67767
13@@ 67720
除了 67705
收 67689
裝@@ 67611
别 67595
混@@ 67591
并@@ 67579
不是 67506
剧 67470
隆 67411
威 67391
烈 67366
萊@@ 67366
各 67340
双@@ 67318
控制 67298
巨@@ 67191
根据 67168
设计 67165
互@@ 67148
荷@@ 67106
S 67051
牙@@ 66992
一次 66982
类@@ 66972
必@@ 66911
岁 66908
根 66901
俄@@ 66888
雅@@ 66854
康 66805
第三@@ 66760
伦@@ 66735
时期 66645
春@@ 66512
秘@@ 66495
华 66485
發行 66450
奇@@ 66416
桥 66416
喜@@ 66415
足@@ 66378
改 66356
交通 66345
霍@@ 66270
赫@@ 66145
确@@ 66119
车站 66048
皆 66003
利亚 65938
活@@ 65905
穆@@ 65831
建筑 65780
故@@ 65774
斯特 65764
艺@@ 65739
姆@@ 65733
离 65709
办 65550
聯 65452
失 65425
公路 65414
版本 65403
' 65375
短@@ 65315
电影 65290
害 65257
节 65109
問題 64987
野@@ 64967
圖@@ 64886
納 64880
貝@@ 64836
英国 64806
根@@ 64791
组@@ 64764
無 64751
100 64737
见 64724
木 64584
節目 64476
態 64383
職 64336
落@@ 64320
平均 64316
香@@ 64304
乘@@ 64303
局@@ 64279
清 64233
氣 64207
營 64205
大量 64203
度@@ 64189
10@@ 64102
計 64032
魚@@ 63997
紅@@ 63988
故 63967
站@@ 63946
植物 63929
历@@ 63913
登 63807
战争 63740
午 63703
板 63683
计@@ 63678
督 63651
鄉 63615
坦@@ 63605
教授 63596
出版 63586
酸 63527
40 63489
革命 63457
樂 63323
飞@@ 63241
装@@ 63180
线@@ 63137
顿 63056
地理 63001
娜 62984
縣@@ 62972
走 62951
批 62924
团@@ 62917
副@@ 62885
舉@@ 62867
發生 62865
视 62843
股@@ 62836
請 62815
效 62808
热@@ 62787
送 62765
兒 62764
古 62758
快 62723
庄 62703
舉行 62687
一起 62594
非常 62487
源@@ 62477
獲 62392
比赛 62220
宋@@ 62212
占@@ 62129
服 62117
计 62070
處@@ 62062
直接 62048
別 62042
裡 62030
川@@ 61948
个@@ 61918
之间 61906
決@@ 61888
诺@@ 61808
卢@@ 61787
整 61765
致 61762
2004 61696
強 61591
組織 61579
電視@@ 61559
位置 61494
全国 61448
裝 61407
美元 61380
模 61378
问题 61373
复 61371
你 61367
判 61359
距@@ 61322
影响 61317
族@@ 61303
死@@ 61247
主任 61234
项 61232
島@@ 61224
推出 61174
术 61147
作為 61120
期間 61119
爱@@ 61076
快@@ 61064
已经 61031
有限公司 61027
越@@ 60991
題 60941
廷 60937
私@@ 60898
领 60896
它@@ 60877
方法 60872
詞 60852
中央@@ 60850
善 60660
什@@ 60647
品@@ 60593
暴@@ 60563
保护 60513
介@@ 60442
門@@ 60441
草@@ 60403
佩@@ 60283
望 60266
十 60257
血@@ 60225
重新 60153
法院 60146
電 60093
让 60092
甚至 60066
該國 60060
電視 60049
著名 60048
營@@ 59985
標 59936
玉@@ 59923
奖 59900
乎 59871
楼 59858
运 59807
草 59651
那 59549
银@@ 59535
雄 59426
運 59370
進入 59349
职 59331
雖然 59304
简@@ 59290
视@@ 59270
志@@ 59153
吸@@ 59130
O 59099
| 59053
援 59019
迪 58976
酒@@ 58922
包含 58913
女子 58907
京 58894
告@@ 58886
M 58840
经济 58835
育 58820
造@@ 58802
聚@@ 58799
戶 58756
出现 58741
伯 58667
发生 58486
航空 58484
宁@@ 58478
假@@ 58457
最佳 58447
录 58412
屋 58396
利用 58381
丁 58357
西班牙 58282
散 58200
形式 58171
播出 58156
称为 58142
遗@@ 58088
廳 58053
亲 58048
獲@@ 57921
两个 57889
铁@@ 57783
運動@@ 57694
G 57680
律@@ 57673
顯@@ 57555
護 57550
s 57543
守@@ 57528
变 57506
阳@@ 57502
探@@ 57489
张 57481
第三 57461
巡@@ 57450
过@@ 57424
班@@ 57420
成員 57339
松@@ 57334
鎮@@ 57323
随@@ 57318
福 57195
进入 57195
包@@ 57185
華 57168
浙@@ 57150
切 57131
学家 57067
谷 57043
風 57034
2.@@ 57023
舞@@ 56919
帝@@ 56906
直到 56889
伊 56856
条@@ 56709
三年 56673
列表 56565
罪 56549
围 56531
選舉 56506
郎 56490
智@@ 56445
云@@ 56444
季@@ 56419
徒 56225
學院 56208
房@@ 56193
言@@ 56162
場@@ 56152
of 56140
普 56054
行政区划 56009
第十@@ 56008
一年 56003
算@@ 55986
完全 55948
住 55939
並且 55843
漫@@ 55770
步@@ 55731
頭@@ 55723
西部 55721
最終 55671
感 55655
共同 55642
负@@ 55640
较 55523
彈 55515
活动 55477
往@@ 55454
出生 55356
火 55341
不能 55324
书记 55240
男子 55167
总面积 55129
盛@@ 55110
察 55090
尤@@ 55084
技术 55060
剧@@ 54993
切@@ 54987
众 54981
抵@@ 54974
美國@@ 54907
諾@@ 54878
分別 54865
设 54863
益 54835
參加 54787
一部分 54774
視@@ 54727
音樂 54723
再次 54722
勢 54720
欧@@ 54651
演出 54643
位@@ 54630
离@@ 54585
计划 54571
何@@ 54537
丹 54517
家族 54497
認@@ 54417
2003 54381
后来 54381
就@@ 54344
總 54340
藏@@ 54311
但@@ 54299
I 54272
證@@ 54261
末 54232
某@@ 54132
亡 54113
致@@ 54051
限 54049
家庭 54042
這 54009
婚 54002
民主 53993
橋 53946
權@@ 53915
單 53900
跟 53880
決定 53820
政策 53794
類@@ 53729
油 53721
附@@ 53718
话 53710
世界@@ 53695
朗@@ 53692
師@@ 53691
種@@ 53688
不過 53682
祖 53664
大陆 53653
居民 53623
領 53623
陸 53620
月台 53562
希望 53559
L 53522
能力 53487
产 53478
共和 53378
生涯 53325
逃@@ 53325
費 53312
歐@@ 53283
执@@ 53267
万 53261
带@@ 53252
些 53204
意大利 53159
洪@@ 53152
许多 53078
20@@ 53032
我@@ 52992
船@@ 52979
老 52978
塞 52941
速@@ 52885
排 52884
陸@@ 52864
徐@@ 52812
巴士 52768
廠 52725
鐵 52689
聲@@ 52651
风 52571
早期 52527
來@@ 52506
决@@ 52497
而且 52494
P 52467
服務 52462
击@@ 52356
通過 52345
半 52327
票@@ 52321
右@@ 52317
勝@@ 52191
截@@ 52176
将@@ 52161
景 52160
隊@@ 52150
预@@ 52143
學生 52114
調 52105
洋@@ 52084
功能 52078
写 52032
諾 52016
授@@ 51959
當地 51953
旗@@ 51952
技@@ 51869
世紀 51775
词 51772
激@@ 51701
典@@ 51666
冰@@ 51660
中國@@ 51625
助@@ 51588
沙 51548
人士 51502
最终 51485
寶@@ 51471
兴@@ 51461
X 51444
牛@@ 51336
兩個 51274
厂 51262
斷 51253
作用 51249
于@@ 51223
照@@ 51219
N 51154
親 51143
看 51132
親@@ 51102
委員會 51030
禁@@ 51016
汽@@ 50990
龙 50984
優@@ 50980
安全 50978
以上 50977
平方千米 50949
歐洲 50924
态 50923
狀@@ 50908
秀 50882
征 50878
識 50877
供@@ 50869
k 50841
準 50833
列车 50821
始 50816
2002 50765
证@@ 50749
门@@ 50711
周 50706
律 50694
大部分 50673
戰爭 50646
想@@ 50608
經濟 50606
缺@@ 50592
仅 50567
侧 50549
約@@ 50538
1@@ 50505
标 50497
耳@@ 50459
60 50450
拿@@ 50437
殿 50416
克斯 50388
召@@ 50363
唱 50343
到@@ 50330
翰 50328
y 50321
a 50318
敦 50269
边 50221
the 50219
考 50200
農@@ 50112
若 50089
屬@@ 50067
韩@@ 50061
法律 50019
運動 49982
油@@ 49976
隆@@ 49920
民族 49878
董@@ 49860
陆@@ 49835
申@@ 49800
俱@@ 49784
獎@@ 49716
i 49604
北京@@ 49585
湾 49573
判@@ 49566
免 49559
兒@@ 49433
團@@ 49422
责 49412
方向 49362
号@@ 49355
会议 49340
津 49338
K 49253
許多 49227
走@@ 49220
使得 49180
中華民國 49172
版@@ 49160
模式 49159
又@@ 49141
艦 49132
另@@ 49124
已經 49119
最後@@ 49076
厅 49064
官方 49035
铁 48975
思 48955
聲 48944
吳@@ 48933
記 48918
保 48893
柏@@ 48888
气 48879
良 48876
n 48808
… 48763
八 48749
溫@@ 48747
熱@@ 48731
嚴@@ 48720
破 48720
影 48601
决定 48583
拔 48580
聯盟 48580
計劃 48542
声@@ 48519
做@@ 48515
户 48508
术@@ 48504
兼@@ 48485
败 48471
甘@@ 48425
配 48413
二年 48335
关系 48331
+ 48298
特別 48246
最初 48204
实 48170
续 48147
F 48131
去世 48130
称@@ 48126
原因 48118
中共 48109
努@@ 48080
指出 48010
加拿大 48009
载 47927
运动 47900
細@@ 47898
济@@ 47892
政治@@ 47874
捕 47858
羽@@ 47856
拍 47816
师@@ 47815
控 47752
確@@ 47752
差@@ 47706
儿@@ 47698
梁@@ 47681
3.@@ 47642
篇 47638
装 47621
翻@@ 47607
終@@ 47590
代表@@ 47576
危@@ 47522
生物 47494
魔@@ 47483
边@@ 47475
V 47438
野 47428
遊@@ 47369
除@@ 47369
陽 47366
救@@ 47286
仍然 47247
很多 47226
编码 47196
男 47192
试@@ 47176
側 47171
旗 47154
描述 47146
委员 47083
监@@ 47062
健@@ 47032
球隊 47022
進士 46982
刊 46978
尾 46952
画 46942
繼@@ 46923
引 46860
学生 46858
道路 46856
示@@ 46840
死亡 46821
槍 46785
种@@ 46715
严@@ 46688
聯賽 46664
宮 46662
底@@ 46660
相關 46630
相同 46626
練 46565
赤@@ 46551
细@@ 46550
t@@ 46520
总人口 46504
費@@ 46473
待 46436
爵 46425
許@@ 46390
情况 46382
年度 46363
負責管 46349
童 46299
全 46259
on 46241
占 46236
库 46199
畫@@ 46154
聞 46134
溪 46106
奧 46069
自治@@ 46046
目的 45997
宇@@ 45983
戈@@ 45981
組成 45978
余@@ 45973
爭@@ 45968
路線 45937
舰 45928
片@@ 45881
酒 45833
兼 45787
尼亚 45776
唯一 45733
要@@ 45731
强 45710
昌 45674
歌手 45643
武 45635
社会 45618
极@@ 45548
存@@ 45537
偏@@ 45503
权@@ 45499
何 45492
護@@ 45481
率@@ 45479
監@@ 45470
显@@ 45455
雄@@ 45439
給@@ 45403
擁有 45387
全球 45345
遺@@ 45318
防 45314
杨@@ 45296
胞 45245
注 45244
固@@ 45232
温@@ 45220
符@@ 45207
1990 45187
统 45164
歷 45070
结构 45055
茨 45022
黎@@ 44970
七 44967
按@@ 44948
狀 44941
12@@ 44915
認 44914
讀 44900
久 44896
us 44873
辑 44871
圍 44785
游 44770
阿尔@@ 44770
雲@@ 44726
临@@ 44699
刻 44681
操@@ 44674
若@@ 44654
決 44634
資料 44617
机构 44607
80 44567
全部 44536
驗 44514
诺 44440
德國 44436
麥@@ 44427
X@@ 44396
觀 44390
坑 44388
辛@@ 44363
充@@ 44334
第一次 44330
鄉@@ 44329
恐@@ 44324
男性 44324
無法 44215
分别 44195
宁 44176
君@@ 44170
封 44151
併 44140
省份 44067
結果 44056
来自 44023
这种 43969
4.@@ 43938
州市 43930
從@@ 43928
陽@@ 43924
成员 43910
四年 43873
榜 43833
返@@ 43806
招@@ 43798
阿拉@@ 43743
举@@ 43664
法國 43643
资 43610
大型 43588
总统 43587
盃 43558
刺@@ 43487
杀 43476
组成 43450
九 43419
最后 43341
吉 43320
松 43320
墨@@ 43306
呼@@ 43208
獨立 43192
裔 43176
設有 43099
避@@ 43047
黨@@ 43043
具@@ 43035
深 43025
5.@@ 42978
結束 42958
替 42928
及其 42925
00 42915
项目 42883
70 42868
檢@@ 42861
飾 42832
資 42824
情況 42801
烏@@ 42793
人员 42792
习 42775
什 42731
控@@ 42692
每年 42689
传 42682
制度 42671
移 42654
举 42629
楊@@ 42626
總統 42617
階@@ 42608
泽@@ 42550
艇 42519
露 42512
一部 42496
际@@ 42484
币 42479
座@@ 42450
仁@@ 42440
电视@@ 42427
洛 42423
建築 42397
象@@ 42382
習 42370
不久 42333
背@@ 42330
或者 42305
1999 42262
良@@ 42261
皇 42228
! 42156
靠 42149
演唱 42145
卷 42119
x 42068
町 42054
超過 42050
積@@ 42043
結 42030
培@@ 42009
拜@@ 42002
夏季 41973
1998 41911
拍@@ 41906
帶@@ 41902
春 41876
圈 41821
產生 41807
簽@@ 41776
瑪@@ 41761
富 41746
尾@@ 41729
用于 41659
線@@ 41635
县@@ 41629
桑@@ 41616
列車 41600
訊 41597
库@@ 41592
获 41575
時代 41549
名字 41524
介 41510
阻@@ 41488
采用 41479
赫 41472
部队 41407
競@@ 41389
媒@@ 41350
35 41346
參 41330
导致 41320
測 41296
姓 41268
建设 41237
明朝 41230
西亚 41203
質@@ 41172
功@@ 41159
翼 41149
为了 41144
氧@@ 41143
涉@@ 41118
秀@@ 41117
際@@ 41084
生于 41054
測@@ 41019
检@@ 40992
繼續 40963
优@@ 40957
500 40947
验 40923
单 40904
戴@@ 40901
拥有 40888
抗 40866
免@@ 40855
案@@ 40850
U 40842
減@@ 40817
当地 40815
争@@ 40748
属@@ 40748
毕业 40736
200 40730
遭到 40672
财@@ 40625
許 40609
哲@@ 40593
崇@@ 40592
轉 40581
津@@ 40573
教堂 40568
透過 40565
境内 40498
6.@@ 40474
建造 40453
並在 40442
独立 40436
議員 40429
背景 40427
采@@ 40406
〉 40389
并且 40378
送@@ 40372
幕 40370
〈 40348
90 40323
增 40316
暴 40300
费@@ 40269
麗@@ 40243
彼@@ 40232
速度 40232
集团 40218
財@@ 40206
坐@@ 40187
否 40155
途 40129
土地 40092
績 40087
玩家 40086
際 40076
1980 40062
導致 40054
療 40033
西北 40018
雜@@ 40009
佔 39964
历 39961
还@@ 39956
歷@@ 39953
皮 39948
吴@@ 39942
弟 39939
休@@ 39904
公園 39896
僅 39893
證 39893
联赛 39887
集團 39852
扩@@ 39839
之後@@ 39836
解放@@ 39805
林匹@@ 39796
獨@@ 39786
末@@ 39781
欧洲 39777
产生 39771
泛 39730
接壤 39705
佛 39703
疑 39701
價 39688
枚 39683
奏 39673
状 39660
俄罗斯 39655
默@@ 39576
含@@ 39567
宗教 39516
函@@ 39507
公尺 39500
数量 39500
青年 39496
征@@ 39439
断 39408
肯@@ 39358
汉 39333
太 39332
自然 39315
地球 39299
退 39224
誌 39214
回到 39212
引起 39205
蒂 39199
友@@ 39191
套 39191
勝 39187
啟@@ 39187
夠 39183
準@@ 39175
股 39172
举行 39170
音乐 39144
乾@@ 39129
紐@@ 39126
状@@ 39071
机场 39060
1997 39028
學家 39028
最早 39019
劃 39017
清朝 39017
念@@ 39004
傳統 38996
共产党 38986
街@@ 38972
邮@@ 38960
调 38944
研@@ 38895
承 38874
葉@@ 38837
雪@@ 38835
地位 38811
概@@ 38773
採用 38730
阿 38702
苏联 38700
輪 38697
庫 38689
三十@@ 38676
單位 38654
奥 38641
熱帶 38637
穿@@ 38574
基本 38558
五年 38542
評 38534
儿 38533
染 38512
越南 38510
韓@@ 38509
国家@@ 38481
需@@ 38456
准@@ 38449
旧 38427
作家 38424
主角 38399
差 38390
身份 38372
需 38321
夜 38314
材 38298
价 38295
維 38271
乐 38236
滿 38171
语言 38164
順@@ 38162
in 38146
經過 38143
拒@@ 38138
c@@ 38127
陶@@ 38096
影片 38051
美洲 38040
冬@@ 38037
元年 38034
斯坦 38016
证 38012
w 37993
音樂@@ 37986
真 37913
舉 37871
僅@@ 37848
棲@@ 37848
Y@@ 37835
妻@@ 37834
疫@@ 37807
论@@ 37779
郭@@ 37770
轨@@ 37743
黎 37742
主教 37741
菌 37736
遭@@ 37701
畢業 37699
营@@ 37685
斗 37679
乙@@ 37670
制作 37668
45 37664
惠@@ 37649
取代 37637
H 37634
测@@ 37624
機場 37603
多次 37588
中部 37567
殖@@ 37559
項@@ 37537
转 37497
陵 37478
價@@ 37472
佐@@ 37466
旋 37466
尽@@ 37454
險 37449
头@@ 37448
劳@@ 37446
禮 37434
出身 37398
– 37387
贵@@ 37378
亲@@ 37359
服务 37333
不少 37329
乘 37324
语@@ 37279
兴 37271
眼@@ 37267
！ 37243
主持 37236
有人 37226
7.@@ 37218
任命 37206
地面 37200
满@@ 37191
天主教 37168
球队 37102
发行 37079
傷 37062
艘 37021
消 37012
池 36969
武器 36954
加上 36932
難 36895
短 36888
军队 36874
费 36874
還 36867
遇@@ 36862
症 36854
迫 36813
改革 36797
勞@@ 36789
32 36784
遠@@ 36768
英格@@ 36765
终@@ 36763
反应 36741
葡萄@@ 36708
管理@@ 36704
庭 36626
技術 36614
网 36607
試@@ 36585
48 36579
护@@ 36567
测 36555
出任 36548
仁 36528
鰭 36527
社会@@ 36524
参与 36523
豐@@ 36520
鐵路 36517
遠 36489
西南 36458
行動 36453
构@@ 36439
大陸 36437
部长 36431
分析 36382
亞洲 36363
问 36358
立法 36356
The 36346
炮 36345
換 36328
內容 36319
只是 36286
电 36267
全国@@ 36245
邊@@ 36198
犯 36197
論@@ 36176
週@@ 36173
秦@@ 36164
婚@@ 36163
曹@@ 36153
便@@ 36125
皇帝 36124
势 36118
動畫 36108
這種 36107
毫米 36096
衛 36090
絕 36076
基地 36035
颗 36032
震 36018
1996 35998
奖@@ 35990
帝国 35967
晚 35946
原本 35944
各地 35938
採@@ 35926
地下 35922
烏克@@ 35900
还有 35899
材@@ 35884
关于 35854
沈@@ 35842
质@@ 35839
負責 35835
泉 35800
鄭@@ 35798
至今 35741
说@@ 35737
表演 35723
节目 35713
之外 35658
卫 35623
韓國 35607
點@@ 35570
骨 35564
杰@@ 35559
义@@ 35549
昭@@ 35516
平台 35500
妹 35490
一定 35471
过程 35397
壓 35378
试 35364
结束 35336
节@@ 35336
生产 35327
父親 35296
科技 35288
興 35278
虽@@ 35266
晋@@ 35233
徑 35228
左右 35180
輛 35180
决 35179
早 35173
英文 35163
繁@@ 35149
30@@ 35145
租@@ 35141
日至 35127
t 35120
运动员 35074
孔@@ 35072
漸 35071
說@@ 35057
发布 35047
侵@@ 35042
签@@ 35016
病毒 35008
居住 34994
场@@ 34990
基督@@ 34981
於@@ 34980
泰 34968
靈@@ 34942
作者 34917
大会 34908
刑 34905
唱片 34903
付 34853
南省 34830
顺@@ 34819
舍 34796
節@@ 34777
新加坡 34772
單曲 34761
行政@@ 34755
舊 34748
岩 34746
货@@ 34739
宫 34735
同意 34733
問 34731
大多 34729
國民@@ 34727
擴@@ 34727
藍@@ 34725
圣 34672
辦@@ 34647
廉 34623
阶@@ 34604
继@@ 34583
喬@@ 34575
杯 34569
限制 34561
李 34554
？ 34542
概念 34537
1994 34535
習@@ 34535
日起 34521
凱@@ 34503
御@@ 34480
却 34478
孟@@ 34474
盧@@ 34460
一家 34459
分子 34455
救 34434
輕@@ 34419
中学 34417
公共 34415
南京 34415
记 34371
舰@@ 34363
伦 34339
拉斯 34322
必須 34317
宣 34305
有些 34300
範圍 34262
骨@@ 34253
梅 34242
筑@@ 34224
柯@@ 34205
團體 34196
韦@@ 34187
划@@ 34181
科学 34178
系@@ 34178
麻@@ 34160
演員 34147
魏@@ 34134
戲@@ 34086
綱 34082
倫 34080
太平洋 34075
牙 34074
远@@ 34029
一步 34028
網 34002
经过 34001
维 34001
余 33995
距 33973
文物@@ 33972
随后 33965
城区 33958
俄羅@@ 33956
请 33955
辖 33955
频@@ 33943
極 33937
人口普查 33936
亿@@ 33916
奉@@ 33901
釋 33880
聖 33866
澳門 33859
量@@ 33839
1992 33817
驻 33817
独@@ 33812
o 33807
警察 33795
兄弟 33783
1995 33781
希 33724
滿@@ 33714
突 33709
航 33709
冲@@ 33683
例@@ 33672
乡镇级 33670
br 33662
蒙古 33643
继续 33640
我们 33623
玛@@ 33623
初期 33590
识 33587
纽@@ 33575
孙@@ 33573
排名 33571
候@@ 33556
部份 33520
黑 33510
融@@ 33492
挑@@ 33478
臨@@ 33471
雨@@ 33466
25@@ 33431
蔡@@ 33431
镇@@ 33304
轮 33295
中華 33254
攝 33241
竹@@ 33241
元素 33229
傑@@ 33192
複 33188
呈 33151
捷@@ 33131
媒體 33129
構@@ 33128
8.@@ 33114
途@@ 33111
功 33108
拜 33081
忠@@ 33055
硬@@ 33047
百 33040
頻@@ 33039
找 33002
允@@ 32977
苏 32974
刑@@ 32966
壓@@ 32921
錦@@ 32896
直 32864
叶 32862
叶@@ 32845
脈 32825
宝@@ 32796
赵@@ 32791
乔@@ 32781
鐘 32742
毛 32728
秋@@ 32724
1993 32707
夜@@ 32678
廟 32665
输@@ 32647
急 32591
補@@ 32535
an 32516
and 32506
码 32493
適@@ 32467
审@@ 32457
伍 32453
找@@ 32445
观 32442
蒙 32424
d 32406
綫 32384
杂@@ 32366
划 32358
平方@@ 32358
认 32358
认@@ 32352
1991 32347
岩@@ 32343
享@@ 32333
超 32333
弟@@ 32306
歸@@ 32295
孫@@ 32279
審@@ 32277
幼@@ 32259
宅 32257
c 32254
弱 32245
術@@ 32242
席@@ 32239
裂 32191
擇 32158
连 32153
拆@@ 32149
炮@@ 32148
洞 32146
異 32144
督@@ 32117
淡@@ 32106
叫 32099
促@@ 32098
麦@@ 32093
络 32080
兹 32063
透@@ 32040
慶@@ 32012
革@@ 31976
授 31966
够 31926
昆@@ 31926
m 31827
求@@ 31814
訓@@ 31803
鼓@@ 31779
犯@@ 31774
衝@@ 31758
琴 31698
奈@@ 31686
获@@ 31676
庆 31664
提 31617
联 31573
廢@@ 31568
核 31556
亮 31540
36 31441
1950 31438
售@@ 31437
题 31436
連 31418
銷@@ 31396
滑@@ 31394
庆@@ 31363
弹 31363
昂 31361
爭 31358
仙@@ 31347
萨 31311
炸@@ 31301
遇 31256
际 31247
er 31234
碼 31227
围@@ 31226
餘@@ 31222
33 31203
雨 31191
么 31174
殊 31155
才@@ 31153
p 31122
郑@@ 31097
散@@ 31088
宮@@ 31059
9.@@ 30963
疾@@ 30961
貨@@ 30883
昌@@ 30880
榮@@ 30860
柴@@ 30832
紀 30832
尺 30819
零@@ 30812
腦 30811
芬@@ 30807
汗 30796
朋@@ 30756
孩@@ 30738
患@@ 30735
写@@ 30716
别@@ 30702
果@@ 30668
胜@@ 30667
蛋@@ 30662
i@@ 30647
亂 30635
38 30631
亨@@ 30626
裁@@ 30620
1949 30572
扎@@ 30545
牧@@ 30537
级@@ 30529
Z@@ 30500
夏 30490
画@@ 30488
燃@@ 30482
暗@@ 30481
供 30471
归@@ 30459
洲@@ 30426
討@@ 30415
衣 30385
搭@@ 30376
隔@@ 30368
坡 30366
练 30357
e 30341
彈@@ 30334
陣 30328
幣 30323
編 30296
跨@@ 30272
匈@@ 30246
凯@@ 30242
启@@ 30219
冷@@ 30216
换 30214
偶@@ 30209
振@@ 30206
隸@@ 30203
幅 30197
爲 30176
1988 30151
統 30146
00@@ 30145
34 30143
37 30127
紫@@ 30119
況 30116
须 30114
艦@@ 30079
1970 30068
e@@ 30041
300 30034
君 30030
闻 30013
輻@@ 29995
01 29963
队@@ 29956
博 29949
辆 29884
据@@ 29839
禮@@ 29806
杀@@ 29784
覺 29770
界@@ 29759
境@@ 29755
眾@@ 29729
罪@@ 29720
諸@@ 29720
许 29720
竞@@ 29687
藝 29673
莱 29668
按 29657
共和国 29655
雅 29651
旋@@ 29643
沃 29629
急@@ 29625
庄@@ 29616
声 29610
减@@ 29605
毒@@ 29588
器@@ 29581
ing 29573
丽@@ 29546
蓋 29527
斗@@ 29508
75 29442
』 29437
異@@ 29431
『 29427
豪@@ 29410
潮 29362
了@@ 29356
軟@@ 29347
菜 29339
1989 29315
柱 29290
谢@@ 29247
困@@ 29242
逝@@ 29233
宜@@ 29228
压 29176
圓@@ 29169
掌@@ 29166
磁@@ 29161
估@@ 29150
與@@ 29149
径 29110
较@@ 29110
講@@ 29108
似@@ 29104
无 29102
远 29101
瑟@@ 29086
墓 29077
众@@ 29071
莉 29062
旧@@ 29010
確 28977
攝@@ 28961
销 28937
難@@ 28923
革 28916
h 28906
1945 28903
溪@@ 28877
韋@@ 28871
难 28862
譯 28798
辽@@ 28780
齐@@ 28767
盖 28761
奉 28734
別@@ 28670
邦@@ 28657
青 28643
血 28602
樹@@ 28594
限@@ 28582
y@@ 28576
包 28554
炎 28518
型@@ 28490
徵@@ 28470
编 28444
尚 28430
24@@ 28420
积@@ 28419
井 28408
奪@@ 28364
詹@@ 28358
坦 28356
临 28347
投 28320
桃@@ 28299
丽 28296
彭@@ 28291
荣@@ 28289
迷@@ 28285
累@@ 28251
莉@@ 28239
幫@@ 28216
障 28193
竹 28175
疆 28137
鬥 28118
诸@@ 28097
休 28092
綠@@ 28092
架@@ 28080
1960 28062
尊@@ 28049
晉@@ 28036
28@@ 28034
藥@@ 28014
熙 28010
善@@ 28002
養 27987
岛@@ 27982
祭@@ 27976
眼 27950
虎 27945
碑 27942
肉 27910
锦@@ 27902
2022 27900
ans 27894
薩 27882
鬥@@ 27874
p@@ 27840
澤@@ 27840
葬 27829
千 27789
压@@ 27759
绝@@ 27749
迎 27745
雪 27740
块 27735
購 27698
倍 27697
尋@@ 27626
活 27612
赴 27605
l 27594
訴 27585
謝@@ 27585
橫@@ 27558
隔 27532
忠 27499
策@@ 27487
诗@@ 27484
億 27470
麗 27470
is 27469
隧@@ 27469
趣 27454
額 27446
覆@@ 27445
紅 27428
牛 27393
畔 27357
宋 27332
絲 27327
秒 27298
总 27253
埃 27236
55 27202
輸@@ 27181
遍 27173
氏@@ 27171
漢 27164
葛@@ 27156
丰@@ 27143
遂 27124
兩 27108
詩@@ 27082
訂 27074
陕@@ 27043
侍@@ 27040
邀@@ 27023
沉@@ 26988
芬 26951
陆 26949
软@@ 26942
归 26933
1985 26908
人口@@ 26878
迁@@ 26842
梁 26791
舊@@ 26788
乱 26783
哈 26765
运动@@ 26756
染@@ 26746
宪@@ 26719
慈@@ 26693
課@@ 26690
  26675
恢@@ 26675
s@@ 26659
庙 26646
輯 26629
孩 26626
曆 26626
de 26621
炸 26610
假 26599
盤 26577
环 26569
～ 26549
26@@ 26546
箭 26545
童@@ 26541
騎@@ 26529
W 26491
1984 26466
孝@@ 26455
干 26446
65 26440
卿 26410
寧@@ 26401
茲 26357
胜 26327
灰@@ 26318
伤 26309
亦@@ 26305
味 26283
返 26264
愛 26213
擔 26207
庫@@ 26199
42 26198
渡@@ 26189
1986 26179
液 26178
佳@@ 26170
像@@ 26138
傷@@ 26116
賓 26078
憲@@ 26077
乃@@ 26065
大利 26034
慕@@ 26008
頂 26006
迅@@ 25993
驻@@ 25914
额 25913
39 25906
瑞 25893
谷@@ 25879
挥 25872
妮 25856
搜@@ 25854
献 25851
槍@@ 25840
裁 25806
葉 25782
擎 25777
耶 25757
帮@@ 25743
震@@ 25736
堅@@ 25716
坊 25709
绝 25700
否@@ 25690
1987 25689
壞 25689
珠@@ 25689
渐 25670
莎@@ 25666
拿 25656
侵 25650
满 25644
警 25614
64 25613
录@@ 25609
俗 25539
灵@@ 25513
潮@@ 25512
掉 25505
间@@ 25483
幕@@ 25464
粉@@ 25457
植@@ 25449
础 25442
懷@@ 25441
仰 25418
潘@@ 25413
械 25397
遷 25382
築@@ 25379
殺@@ 25375
异@@ 25374
药@@ 25346
均@@ 25328
择 25327
价@@ 25316
借@@ 25297
r 25283
46 25266
盟@@ 25255
麼 25193
乡@@ 25174
犹@@ 25174
輕 25169
钟 25167
隻 25161
靈 25147
杭@@ 25144
塘 25139
险 25129
陣@@ 25123
浦@@ 25083
伐@@ 25048
29@@ 25028
g 24997
衡 24997
牠 24960
遊 24954
高度 24933
礼 24921
舞 24917
序@@ 24870
娛@@ 24865
1982 24853
乏 24833
毁 24795
玻@@ 24794
随 24784
温 24768
駐 24759
環 24751
替@@ 24742
遣 24728
軌@@ 24705
儀@@ 24682
柳@@ 24677
讲@@ 24644
补@@ 24622
47 24613
云 24596
遭 24596
餘 24593
屋@@ 24583
al 24569
18@@ 24554
貴@@ 24553
适@@ 24530
盛 24528
訪 24526
藤@@ 24517
极 24513
44 24502
鲜 24484
叛@@ 24474
协 24472
晨 24425
壁 24390
句 24388
鱼 24388
评 24383
民國 24374
J 24367
徽 24365
迴 24360
彩 24326
右 24312
轄@@ 24255
恒@@ 24248
1983 24241
購@@ 24194
積 24189
凌@@ 24167
珠 24112
渡 24087
与@@ 24080
鮮 24069
墓@@ 24039
鏡 24037
莫 24024
榮 24006
井@@ 23998
茨@@ 23981
侯@@ 23943
香 23921
难@@ 23882
迫@@ 23862
综@@ 23857
译 23848
唐 23831
闻@@ 23822
溫 23790
緒 23768
b 23760
策 23727
护 23707
验@@ 23700
訊@@ 23675
宜 23653
秋 23653
51 23618
怀@@ 23611
趙 23558
礎 23549
宇 23539
錄@@ 23532
侯 23467
歸 23455
1979 23452
讀@@ 23436
彩@@ 23421
楚@@ 23405
綜@@ 23403
52 23402
徵 23402
41 23370
融 23334
鲁 23334
衣@@ 23298
　 23296
勇@@ 23291
范 23289
涅@@ 23283
跑 23270
圆@@ 23238
塊 23227
停 23192
桂@@ 23191
緣 23178
厄@@ 23140
坚@@ 23140
43 23137
刺 23125
雕@@ 23116
露@@ 23116
倒@@ 23111
翰@@ 23099
爱 23075
400 23021
樹 23018
穿 23010
傑 23001
齊@@ 22991
略@@ 22959
56 22951
砲 22950
读 22928
点@@ 22916
雲 22916
杉@@ 22897
靠@@ 22895
陰@@ 22853
邨 22826
援@@ 22820
岡@@ 22808
喀@@ 22791
幸@@ 22787
禁 22785
跳@@ 22781
伸 22780
頒@@ 22774
1978 22750
轻@@ 22749
濟@@ 22731
印 22717
d@@ 22711
爵@@ 22698
藥 22680
揮 22679
涅 22674
恆@@ 22657
琳 22652
聞@@ 22649
27@@ 22632
珍@@ 22632
祥 22628
u 22621
顶 22600
素@@ 22589
棄 22586
慶 22585
刻@@ 22582
餐@@ 22554
刀 22528
骑@@ 22524
徽@@ 22512
剂 22510
仲@@ 22508
扎 22507
给@@ 22474
措@@ 22463
寬 22446
圍@@ 22445
袁@@ 22406
倒 22399
迎@@ 22387
微 22370
輸 22370
疗 22363
85 22362
es 22353
绿@@ 22344
读@@ 22333
貿@@ 22292
amp 22287
旅 22274
獻 22266
肉@@ 22257
黃@@ 22244
礼@@ 22233
紧@@ 22209
热 22207
儘 22203
負@@ 22180
兹@@ 22158
顯 22138
培 22136
充 22135
孔 22124
酸@@ 22122
譽 22120
讷 22085
释 22077
迷 22060
颱 22057
符 22048
肯 22029
貢@@ 22018
树 22006
撒@@ 21997
53 21981
毒 21963
虎@@ 21963
潜@@ 21955
袖 21947
桥@@ 21941
宽 21933
丘@@ 21908
瑟 21901
1981 21889
買 21884
敦@@ 21878
顧@@ 21860
贸@@ 21851
旁 21821
妃 21820
° 21812
见@@ 21809
54 21806
亭 21795
62 21792
仍@@ 21775
創 21753
靖 21749
錢 21746
佳 21738
輪@@ 21734
训@@ 21731
吕@@ 21727
寫@@ 21707
养 21686
浮@@ 21656
坏 21652
玩@@ 21646
57 21644
輔@@ 21640
谋@@ 21593
閣 21588
拓@@ 21555
賓@@ 21541
x@@ 21539
％ 21517
Q@@ 21500
58 21490
飛 21485
浪@@ 21468
树@@ 21467
寄@@ 21465
晶@@ 21465
鱼@@ 21455
um 21439
菲 21434
结 21431
章@@ 21397
毀 21366
捐@@ 21363
旺@@ 21359
尖@@ 21357
舒@@ 21357
旦 21352
损@@ 21343
暫@@ 21339
确 21310
糖 21286
尉 21277
许@@ 21272
責@@ 21255
甸 21241
HD 21230
衰@@ 21229
宿@@ 21213
賣 21193
廣 21180
仅@@ 21168
宙 21164
症@@ 21164
药 21154
唱@@ 21146
废@@ 21132
監 21126
久@@ 21112
齒 21111
n@@ 21109
绕 21101
吃 21099
罕@@ 21081
陷 21075
魯 21058
é 21048
卓@@ 21031
妻 21031
刊@@ 21023
也@@ 21013
崔@@ 20996
76 20991
麥 20982
销@@ 20975
陷@@ 20971
絡 20967
端@@ 20962
r@@ 20947
溶@@ 20897
害@@ 20888
坎@@ 20882
億@@ 20878
72 20841
摩 20840
泉@@ 20836
诊 20829
仪@@ 20827
描@@ 20824
责@@ 20822
贏@@ 20813
弹@@ 20806
脱@@ 20775
插@@ 20770
隶@@ 20753
识@@ 20749
k@@ 20733
88 20704
魏 20697
伐 20684
逊 20671
夺@@ 20662
86 20657
折@@ 20642
依 20639
咸@@ 20638
诉 20620
戈 20617
誤 20610
默 20593
絕@@ 20573
伴 20570
冷 20562
聽 20561
49 20532
換@@ 20531
姐 20525
玉 20519
枪 20510
壇 20500
／ 20442
ch@@ 20438
願 20436
值@@ 20431
埔@@ 20421
植 20410
惡@@ 20400
1946 20386
贡@@ 20373
Windows 20371
損@@ 20364
襲 20343
鄰 20330
鹿@@ 20318
鲜@@ 20304
扮@@ 20302
玄@@ 20296
段@@ 20270
梯 20262
输 20262
戏@@ 20261
59 20257
中华@@ 20254
杰 20248
68 20239
遜 20238
a@@ 20224
園@@ 20218
滨@@ 20216
换@@ 20182
樓@@ 20180
Y 20169
慢 20165
芝@@ 20156
寧 20144
ic@@ 20142
61 20104
访@@ 20084
棒@@ 20080
泳 20080
齐 20080
賞 20067
逢 20058
1958 20051
味@@ 20036
IS@@ 20033
厚 20031
蓝@@ 20019
1948 20010
借 20010
帕 20006
佔@@ 20000
仔 19963
宝 19958
墙 19957
讨@@ 19945
券 19944
箱 19943
19@@ 19935
齡 19921
to 19908
鼠 19896
含 19885
66 19883
歡@@ 19876
勤 19874
屏@@ 19873
問@@ 19872
宾 19860
週 19859
迹 19857
左 19840
阵@@ 19822
腹@@ 19807
浪 19793
歡 19781
頂@@ 19780
卑@@ 19774
浦 19760
獄 19738
幹@@ 19725
阮@@ 19721
o@@ 19703
捕@@ 19694
飾@@ 19689
驱@@ 19689
挪@@ 19684
敵@@ 19682
绩 19677
惠 19671
敬@@ 19664
幻@@ 19649
揭@@ 19629
泊 19627
.@@ 19625
燕@@ 19622
緯 19606
鳳@@ 19588
请@@ 19556
77 19547
螺@@ 19506
63 19468
敏@@ 19468
1920 19465
棒 19457
逐 19443
78 19413
舍@@ 19413
67 19411
争 19380
堂@@ 19371
俗@@ 19367
横@@ 19367
凡 19362
笑 19362
翌@@ 19362
行星 19361
裡@@ 19351
1940 19331
楚 19329
鳥 19318
敏 19315
答 19315
寨 19309
铜@@ 19288
05 19266
鬼 19240
INSE@@ 19230
蛇 19230
圳 19228
购@@ 19197
饰 19185
慮 19181
1976 19178
莎 19155
95 19129
蟲 19123
嘉 19086
m@@ 19074
1975 19066
Ch@@ 19053
板@@ 19049
迈@@ 19031
宫@@ 19027
譯@@ 19026
顏@@ 19026
弘@@ 19009
赞@@ 19000
嶼 18996
儀 18945
in@@ 18942
填@@ 18941
呈@@ 18940
滅 18927
稳@@ 18906
潛@@ 18904
鄰@@ 18897
稿 18884
緊@@ 18872
奪 18870
1972 18867
丘 18865
蘇 18862
汇@@ 18857
87 18837
71 18836
* 18833
盾 18789
寺@@ 18774
臨 18771
屯@@ 18760
剩@@ 18737
銷 18733
1930 18730
两 18729
息@@ 18678
陵@@ 18652
顾@@ 18643
遷@@ 18635
83 18633
訪@@ 18632
灌@@ 18620
負 18618
契@@ 18615
智 18603
1956 18599
茶 18590
81 18584
赢@@ 18582
600 18568
顶@@ 18564
終 18547
床 18543
陳@@ 18531
恢 18516
残@@ 18516
乳@@ 18498
撞@@ 18490
疑@@ 18455
固 18429
99 18392
焦@@ 18387
紹 18382
阴@@ 18349
呼 18345
1937 18341
82 18341
坐 18338
府@@ 18337
宿 18331
貌 18331
牌@@ 18327
艺 18321
词@@ 18294
冊 18290
詞@@ 18288
钢@@ 18280
穩@@ 18278
锡@@ 18276
频 18254
g@@ 18251
红 18250
廊 18246
埔 18242
註 18234
69 18226
橋@@ 18226
员@@ 18192
73 18188
顆 18177
f@@ 18159
弃 18142
芳 18136
异 18132
1947 18128
廈 18103
1000 18076
衍@@ 18073
污@@ 18060
et 18056
延 18045
豪 18032
1941 18023
番 17993
800 17990
齊 17984
擔@@ 17982
淘@@ 17973
誉 17969
祀 17967
户@@ 17963
液@@ 17962
歐 17948
虛@@ 17948
ar 17946
抽@@ 17943
琴@@ 17929
澳 17925
勢@@ 17916
違@@ 17910
熱 17896
湯@@ 17895
操 17880
广 17868
駐@@ 17863
狄@@ 17860
虫 17854
茲@@ 17849
益@@ 17848
續@@ 17845
逮@@ 17843
捷 17840
殘@@ 17839
伏@@ 17835
麦 17833
74 17832
仔@@ 17823
伍@@ 17812
棋 17810
v@@ 17809
凤@@ 17808
冰 17790
陨@@ 17789
粒@@ 17786
屠@@ 17784
摄 17781
甚@@ 17773
茶@@ 17758
1952 17756
b@@ 17743
戴 17737
談@@ 17734
肺@@ 17729
技 17718
廷@@ 17717
1968 17673
喜 17670
苦 17664
熊@@ 17662
84 17641
1973 17637
脫@@ 17631
缩@@ 17608
卒 17599
寸 17596
TV 17587
摄@@ 17586
奴 17581
el 17575
敌@@ 17574
壘 17564
俄 17563
烈@@ 17562
OS 17547
脂 17546
歧@@ 17535
猶@@ 17488
呂@@ 17480
望@@ 17478
琉@@ 17461
敵 17445
苗 17435
丙@@ 17431
矿@@ 17425
輝 17417
遵@@ 17401
孤@@ 17395
桑 17395
響 17373
鋼@@ 17370
奴@@ 17369
旁@@ 17364
07 17363
轮@@ 17356
藩 17332
en 17318
an@@ 17304
寻@@ 17291
膜 17291
觉 17288
阁 17278
籃@@ 17271
孙 17270
付@@ 17264
1977 17261
阵 17253
臘 17223
92 17200
苑 17199
養@@ 17150
勃@@ 17148
AR@@ 17143
廉@@ 17127
中華@@ 17123
腳 17118
腊 17108
盘 17105
答@@ 17098
驅@@ 17088
宏@@ 17073
獸 17065
岭 17049
冒@@ 17041
精 17027
幻 17018
辖@@ 17006
辰 17006
ia 17000
79 16990
隱@@ 16982
挥@@ 16978
觸 16976
02 16963
1955 16962
al@@ 16959
佐 16950
98 16946
丈@@ 16942
1964 16940
粉 16927
亮@@ 16922
熟 16916
1974 16890
w@@ 16888
塑@@ 16888
1966 16875
ac@@ 16867
盖@@ 16866
1938 16841
叙@@ 16828
嶺 16823
見@@ 16823
am 16817
去@@ 16806
據@@ 16805
显 16801
夢 16794
藉@@ 16757
須 16753
08 16750
駕@@ 16747
怒 16744
粗@@ 16738
89 16703
旬 16700
伴@@ 16679
栽@@ 16666
請@@ 16659
150 16656
御 16642
习@@ 16641
浩@@ 16611
04 16603
疫 16602
袭@@ 16599
估 16556
03 16549
伤@@ 16547
側@@ 16544
劑 16539
06 16532
In@@ 16522
备@@ 16519
ant 16515
循@@ 16511
弗 16505
姓@@ 16473
邀 16470
劃@@ 16468
詩 16456
1939 16454
轻 16451
尊 16439
针@@ 16437
迁 16435
on@@ 16432
邓@@ 16422
册 16419
閉 16419
1954 16416
听@@ 16413
銅@@ 16413
缘 16410
1944 16406
郵@@ 16386
鳥@@ 16377
範@@ 16358
坪 16353
酶 16349
協 16342
崎@@ 16331
淮@@ 16306
姻 16301
颁@@ 16300
1971 16297
绍 16287
f 16279
垂@@ 16278
at 16269
钱@@ 16268
枝 16259
响@@ 16241
袭 16240
享 16226
較@@ 16224
or 16214
钱 16169
洗@@ 16165
鋒 16157
谈@@ 16150
96 16142
揚 16131
巡 16129
厘@@ 16114
09 16095
雙 16079
斤 16068
1965 16067
蓋@@ 16060
泽 16059
莊@@ 16054
沒@@ 16033
共和@@ 16018
瓜@@ 16010
剛@@ 16009
茂@@ 16000
访 15998
邻 15977
針@@ 15976
庭@@ 15971
奈 15961
劍 15960
蕭@@ 15944
魂 15938
脉 15932
瓜 15928
1969 15926
扶@@ 15916
某 15911
間@@ 15906
闭 15880
碼@@ 15878
柔@@ 15875
級@@ 15872
l@@ 15870
虑 15864
障@@ 15858
訓 15837
跡 15837
責 15835
1959 15830
俊@@ 15827
狱 15827
仙 15819
昂@@ 15815
诗 15806
壽@@ 15768
荒@@ 15759
敬 15748
宾@@ 15690
胞@@ 15674
─ 15671
驗@@ 15656
恶@@ 15655
健 15647
订 15639
汪@@ 15635
1942 15629
91 15621
93 15613
啟 15606
籌@@ 15599
鮮@@ 15598
練@@ 15596
鄧@@ 15573
译@@ 15572
1957 15544
串 15543
1953 15521
偉@@ 15509
暗 15500
剛 15495
题@@ 15492
錫@@ 15491
1936 15486
卜@@ 15480
97 15464
蒸@@ 15462
痛 15461
媒 15459
牵@@ 15459
糖@@ 15459
跨 15456
养@@ 15451
勇 15451
扬 15439
敌 15439
謂 15428
1967 15424
苗@@ 15415
翠@@ 15408
翁 15405
购 15404
域@@ 15403
双 15399
叫@@ 15388
买 15368
歇@@ 15367
辞@@ 15356
襲@@ 15348
II 15333
託 15333
逝 15330
縮 15302
背 15297
湘@@ 15288
样@@ 15265
室@@ 15256
魔 15229
譜 15219
頁 15213
賴@@ 15212
唯@@ 15207
繪@@ 15205
絲@@ 15198
孫 15177
怪 15174
醇 15165
羽 15164
AS@@ 15153
积 15139
1962 15093
凝@@ 15077
1943 15069
濟 15059
奏@@ 15052
駛 15052
薛@@ 15048
el@@ 15044
灵 15038
偵@@ 15032
94 15031
吨 15009
擬 15001
欧 15000
跟@@ 14999
违@@ 14996
藤 14995
患 14993
灭 14992
姚@@ 14986
疆@@ 14985
順 14972
1961 14963
1951 14962
狗 14954
汝@@ 14945
IN@@ 14930
餐 14923
岳@@ 14922
课@@ 14922
待@@ 14913
熟@@ 14910
1963 14909
煤@@ 14902
en@@ 14889
謀 14882
寮 14874
姐@@ 14869
吐@@ 14857
殖 14827
CD 14817
疏@@ 14807
1935 14802
談 14801
貴 14794
脑 14790
暂@@ 14779
涉 14772
式@@ 14760
讚 14744
層@@ 14742
伏 14714
飲@@ 14696
园@@ 14680
慧 14674
粹 14669
郎@@ 14659
贊@@ 14652
胎 14645
靜@@ 14643
徒@@ 14630
池@@ 14606
匯@@ 14599
丝 14591
險@@ 14585
’ 14583
ed 14580
夢@@ 14574
飓@@ 14563
绪 14560
飞 14559
th@@ 14543
辅@@ 14541
釋@@ 14526
隋@@ 14515
态@@ 14503
硫@@ 14493
羊@@ 14483
轴 14463
乃 14457
彰@@ 14430
滅@@ 14427
置@@ 14413
欢@@ 14394
担@@ 14392
頓@@ 14386
断@@ 14377
紙 14372
璃 14370
SA@@ 14366
虚@@ 14363
憑 14360
筹@@ 14356
NBA 14354
・ 14352
西班@@ 14351
軌 14347
錯@@ 14343
婦 14333
耳 14315
裏 14310
忙 14295
ar@@ 14294
敘@@ 14293
戶@@ 14290
毫@@ 14288
滑 14272
髮 14269
欲 14229
撞 14228
萧@@ 14214
洞@@ 14211
棋@@ 14209
恰@@ 14207
互 14203
獻@@ 14194
隐@@ 14194
蓮@@ 14193
傾@@ 14169
训 14169
沿 14160
篮@@ 14160
肖@@ 14153
傅@@ 14145
兄@@ 14144
× 14135
怕 14135
銜 14115
厚@@ 14109
賀@@ 14104
抑@@ 14100
萊 14094
济 14081
拘@@ 14073
况 14063
误 14058
番@@ 14044
裕 14044
戀@@ 14018
申 14009
纵@@ 14004
粵@@ 13999
凡@@ 13997
割 13996
曰 13992
吧 13991
沖 13975
豆 13975
戲 13967
700 13961
榜@@ 13942
圓 13940
咖@@ 13937
撰@@ 13917
缺 13917
讯 13916
没 13907
错@@ 13907
耀@@ 13905
~ 13898
衔 13893
探 13886
霸@@ 13885
般@@ 13880
僧@@ 13868
碳 13858
as 13843
叔@@ 13812
繼 13810
握 13805
ation 13791
態@@ 13780
針 13778
牆 13774
翻 13774
载@@ 13766
斑@@ 13765
荷 13742
永 13739
甫 13730
揮@@ 13722
荣 13718
泛@@ 13712
獨 13693
尺@@ 13688
醒 13679
莊 13675
纸 13669
追 13649
胸@@ 13645
释@@ 13644
静@@ 13633
套@@ 13623
吾@@ 13619
拼@@ 13616
娘 13610
娃 13600
肥@@ 13584
押 13568
漁@@ 13562
農 13562
幽@@ 13560
弦 13560
幸 13557
税 13550
勵 13548
檔 13547
聽@@ 13543
添@@ 13541
Z 13530
Al@@ 13527
夷 13524
郊 13522
妇@@ 13509
珍 13508
殿@@ 13503
泥@@ 13501
泥 13496
燈 13491
召 13490
楼@@ 13489
蒋@@ 13489
鍵 13488
紋 13487
am@@ 13474
峡 13474
儒@@ 13465
续@@ 13452
宽@@ 13447
碟 13438
1933 13430
仿 13429
掘 13428
120 13413
巧 13413
u@@ 13407
氯@@ 13400
汰 13400
苦@@ 13392
堪@@ 13391
汇 13390
1928 13386
願@@ 13375
刚 13371
怪@@ 13360
筆@@ 13345
颜@@ 13334
辭@@ 13333
催@@ 13322
熊 13319
戒 13312
轟@@ 13287
顧 13284
敢 13277
細 13276
獵@@ 13268
腳@@ 13265
j@@ 13260
寶 13252
共产@@ 13232
辛 13216
镜 13210
织@@ 13195
予@@ 13171
硕@@ 13170
盡 13165
悲@@ 13163
驚@@ 13157
艾 13139
份@@ 13136
蛋 13135
規 13118
坛 13115
摧@@ 13099
玛 13091
羊 13091
1931 13082
ol@@ 13079
50@@ 13073
賢 13073
or@@ 13067
俘 13066
z 13057
忽@@ 13056
贾@@ 13047
1932 13045
龄 13008
codice 13001
1927 12994
祝 12976
愿 12968
愿@@ 12966
郡@@ 12957
寿@@ 12949
鼻@@ 12944
ot@@ 12942
嫌 12937
潭 12937
純@@ 12931
AT@@ 12930
逆@@ 12926
補 12921
繞 12916
搬@@ 12909
绍@@ 12907
蛛 12897
惡 12896
蹈 12896
賴 12891
儲@@ 12888
研 12886
壁@@ 12885
澤 12885
规 12882
麻 12855
掌 12847
蔣@@ 12836
邁@@ 12834
偷@@ 12821
顺 12818
汀 12801
as@@ 12800
麟 12800
CO@@ 12795
振 12784
柱@@ 12767
硬 12752
缅@@ 12747
it 12738
矛@@ 12734
讲 12728
料@@ 12721
脅 12721
晉 12720
殼 12703
謝 12699
畢@@ 12689
针 12689
跑@@ 12684
既 12681
腐@@ 12646
完 12628
ph@@ 12626
10.@@ 12622
隶 12618
晶 12614
盐@@ 12614
盐 12612
拟 12611
繪 12611
层@@ 12607
赖@@ 12600
1934 12599
折 12577
键 12560
40@@ 12559
档 12553
貝 12553
杂 12545
窗@@ 12518
贝 12512
俊 12501
狂@@ 12495
縮@@ 12494
誕@@ 12482
os@@ 12473
困 12472
芒 12468
蝶 12465
祝@@ 12439
祠 12435
駛@@ 12429
礦@@ 12425
储@@ 12424
筆 12419
纪 12418
濱 12400
亡@@ 12391
BS 12382
賈@@ 12382
Re@@ 12372
23@@ 12356
势@@ 12352
丰 12344
祥@@ 12341
茵 12338
慢@@ 12328
冯@@ 12322
謀@@ 12317
邑 12303
範 12299
豆@@ 12292
欣@@ 12291
撰 12290
拳@@ 12258
AP@@ 12253
廖@@ 12251
枪@@ 12245
谢 12245
峰@@ 12242
翔 12236
堆 12233
沟 12231
蹟 12229
Q 12227
丸 12227
夕 12226
继 12199
阪 12197
仪 12170
兄 12170
礙 12169
锡 12169
妹@@ 12167
1929 12160
沉 12157
‘ 12155
雀 12149
烟@@ 12139
悉 12133
锋 12132
鍾 12127
憶 12124
贈 12120
袋 12118
痛@@ 12098
灭@@ 12097
店@@ 12094
80@@ 12081
奎@@ 12079
千米 12065
雌@@ 12061
束 12060
缓@@ 12060
衡@@ 12060
姜@@ 12055
ー 12039
旨 12038
祿 12022
麵 12007
秘 12002
慧@@ 12001
蹤 11996
零 11996
覺@@ 11981
祭 11967
v 11953
螺 11950
聘 11932
宛 11918
杜 11905
lo@@ 11901
刷 11900
斑 11885
赞 11879
1918 11869
噴@@ 11867
鲍@@ 11866
雍@@ 11863
欢 11858
戒@@ 11848
1912 11846
惟@@ 11846
剑 11837
緬@@ 11831
彌@@ 11820
贵 11810
汤@@ 11808
le 11788
AT 11785
寬@@ 11785
洪 11784
滩 11781
委員@@ 11779
屈@@ 11769
for 11760
劍@@ 11755
逃 11748
ul@@ 11739
避 11738
拖@@ 11733
id 11731
擾 11723
耐@@ 11723
暨 11706
岸@@ 11699
邵@@ 11695
の 11680
矿 11658
扬@@ 11655
寒@@ 11650
剪@@ 11645
坑@@ 11645
響@@ 11639
濃@@ 11627
課 11623
猛@@ 11607
敗@@ 11604
腔 11601
聚 11589
巫@@ 11578
腓@@ 11571
漫 11564
er@@ 11563
re@@ 11560
肌@@ 11552
... 11541
构 11536
鬼@@ 11536
碧@@ 11535
崎 11516
朴@@ 11515
鹿 11515
激 11509
oc@@ 11506
栖@@ 11505
姊@@ 11502
句@@ 11499
驾@@ 11499
披@@ 11496
ine 11491
盆@@ 11473
災 11471
辭 11464
討 11453
戀 11448
峽 11446
勤@@ 11443
刚@@ 11441
补 11439
St@@ 11435
脫 11434
壮@@ 11409
晋 11407
蟹 11403
壤 11401
ate 11397
→ 11397
枢@@ 11392
豐 11385
监 11384
珊@@ 11378
薄@@ 11376
郊@@ 11375
泊@@ 11370
粒 11368
翼@@ 11359
擅@@ 11356
斷@@ 11352
菌@@ 11352
滨 11344
瑪 11340
覽 11337
朱 11327
忍@@ 11326
斜@@ 11323
兆@@ 11315
銀 11307
la 11302
创 11302
灾 11294
Tr@@ 11291
额@@ 11289
黄 11286
姬 11279
旺 11271
搖@@ 11260
AC@@ 11259
Ar@@ 11257
燕 11250
胺 11246
1919 11245
獅@@ 11241
鸟 11240
氨@@ 11232
呎 11225
既@@ 11223
谓 11220
猪@@ 11218
陀 11218
怖 11217
1924 11199
覽@@ 11196
械@@ 11195
谱 11187
佩 11169
密度 11151
卷@@ 11141
掩@@ 11123
碩@@ 11122
磯 11117
鐘@@ 11113
钟@@ 11107
覆 11106
礁 11101
搬 11097
冬 11094
賣@@ 11077
悬@@ 11075
撒 11072
触 11069
必 11059
z@@ 11048
at@@ 11042
頻 11042
AM@@ 11033
笼@@ 11026
赖 11025
丑 11024
献@@ 11023
om@@ 11022
繫 11010
襄@@ 11002
坝 11001
災@@ 10998
凱 10996
tr@@ 10969
觉@@ 10968
芳@@ 10943
霸 10936
ie 10932
ag@@ 10924
昇 10918
菩@@ 10918
晓@@ 10913
龐@@ 10904
鹽 10888
雖@@ 10879
Sh@@ 10870
倾@@ 10869
盡@@ 10865
罰 10865
1925 10864
涵@@ 10858
陪@@ 10847
旨@@ 10839
叔 10828
玩 10821
秦 10817
檔@@ 10815
隸 10814
ory 10811
胁 10809
稀@@ 10805
備@@ 10801
ensis 10799
1917 10793
喪@@ 10791
Co@@ 10787
錯 10786
1926 10777
镜@@ 10777
毕@@ 10772
癌 10770
罩 10756
Google 10755
1914 10747
嘗@@ 10746
鎖 10746
倉 10742
誤@@ 10741
DVD 10738
耀 10738
尖 10733
km 10731
屯 10730
碳@@ 10725
12.@@ 10720
毗@@ 10700
着@@ 10694
跳 10691
詳@@ 10688
胡 10669
負責@@ 10651
轨 10650
ad@@ 10648
優 10647
冀@@ 10640
鏡@@ 10638
偶 10636
稅 10625
燒 10614
矩@@ 10611
勋@@ 10608
貓 10601
柏 10570
耗@@ 10570
励 10559
斐@@ 10559
噶@@ 10556
租 10556
ST@@ 10555
抓@@ 10548
茅@@ 10534
匹 10531
菊@@ 10529
訴@@ 10518
鄂@@ 10500
绘@@ 10497
览 10494
喇@@ 10492
农 10490
樣@@ 10488
褐@@ 10486
蒲@@ 10482
菜@@ 10477
亨 10472
附 10470
1922 10468
載@@ 10458
牧 10456
Con@@ 10441
罗斯 10435
崖 10432
叉 10428
訂@@ 10421
毅 10409
il@@ 10395
裂@@ 10395
者@@ 10391
俠 10376
縱@@ 10363
卖 10360
隨 10353
織@@ 10349
壽 10341
拳 10341
CA@@ 10339
審 10327
狼 10327
is@@ 10316
馮@@ 10312
豹 10298
伸@@ 10292
轰@@ 10280
肃@@ 10263
ch 10258
250 10253
瘤 10252
ro@@ 10251
柄 10240
塘@@ 10237
话@@ 10232
谋 10224
烷 10223
逼@@ 10220
ic 10213
岡 10213
1.5 10207
犬 10199
邱@@ 10196
匹@@ 10194
紹@@ 10193
燒@@ 10192
漸@@ 10188
漠 10187
窗 10180
巧@@ 10170
An@@ 10165
RA@@ 10163
懸@@ 10155
穴 10152
谈 10149
碰@@ 10148
帅 10142
娱@@ 10131
Mar@@ 10119
巷 10117
胶@@ 10117
肃 10116
屏 10113
ES@@ 10108
稍@@ 10105
藉 10101
IC@@ 10100
迦@@ 10100
貼 10092
鷹 10092
叛 10089
笔@@ 10068
館@@ 10066
堡@@ 10063
磨@@ 10061
幼 10056
AN@@ 10047
奠@@ 10042
阻 10042
塑 10031
夺 10029
吻 10027
码@@ 10023
岳 10019
泡 10019
饰@@ 10009
妙 9999
彻@@ 9998
柬@@ 9991
吏@@ 9990
爆 9987
葡@@ 9985
梵@@ 9976
識@@ 9968
芭@@ 9963
1921 9962
喷@@ 9958
仿@@ 9957
银 9956
脊@@ 9944
$ 9937
珊 9928
幫 9927
险@@ 9920
耕@@ 9916
鼓 9915
棘 9905
映@@ 9893
剑@@ 9877
挖@@ 9873
买@@ 9869
貨 9863
悠@@ 9839
le@@ 9832
砂@@ 9817
吞@@ 9811
韓 9811
101 9808
圭 9799
梦@@ 9793
盜 9772
杨 9764
濱@@ 9759
雇@@ 9759
遣@@ 9753
60@@ 9749
稻@@ 9745
ay 9742
揚@@ 9736
ap@@ 9733
亥@@ 9726
11.@@ 9722
ン 9722
纹 9721
賢@@ 9720
斜 9715
緊 9712
3000 9700
奔@@ 9699
韦 9695
it@@ 9693
刀@@ 9687
邻@@ 9680
鯉 9680
1913 9678
1911 9677
囊 9676
蕨 9668
偉 9666
络@@ 9666
婆 9663
祈@@ 9662
織 9660
1923 9659
臘@@ 9645
聘@@ 9640
淑@@ 9639
婦@@ 9637
洗 9635
篇@@ 9626
崩@@ 9598
彰 9594
尹@@ 9588
℃ 9576
碎@@ 9574
橡@@ 9565
踏@@ 9565
li@@ 9559
臂 9559
綱@@ 9558
id@@ 9552
貫 9546
勞 9542
腦@@ 9541
損 9537
碎 9536
藍 9530
疏 9523
os 9514
妇 9514
靜 9508
澎@@ 9503
泳@@ 9493
嚴 9492
恨 9492
蔡 9491
α 9488
贡 9487
卢 9486
劫 9481
娶 9479
鸟@@ 9472
削@@ 9469
税@@ 9465
講 9462
販@@ 9462
倉@@ 9458
et@@ 9452
署@@ 9450
件@@ 9448
耗 9448
棕@@ 9444
雕 9441
彥 9439
劳 9436
桃 9433
沟@@ 9432
鮑@@ 9424
Th@@ 9419
ers 9419
窄 9419
1900 9414
韋 9414
琪 9405
秩@@ 9401
厥 9395
惜 9394
拔@@ 9389
35@@ 9388
勃 9386
薦 9375
罕 9361
ri@@ 9360
適 9357
扭@@ 9353
努 9352
燈@@ 9351
担 9346
损 9346
氢@@ 9335
氧 9331
筒 9329
埋@@ 9323
mm 9322
槽 9318
11@@ 9317
藻 9316
診@@ 9315
午@@ 9313
買@@ 9306
笔 9301
賞@@ 9289
誠@@ 9285
哪@@ 9281
遍@@ 9275
卵@@ 9274
赤 9270
辨@@ 9269
宏 9265
纯@@ 9264
冕 9248
廠@@ 9242
乳 9237
橄@@ 9236
亩 9234
腿 9234
賜 9234
铸@@ 9227
錦 9220
没@@ 9214
ti@@ 9210
灾@@ 9209
腊@@ 9209
額@@ 9208
減 9199
曉@@ 9193
怎@@ 9189
厝 9187
妮@@ 9177
串@@ 9162
亿 9162
歉 9152
饮@@ 9143
雜 9140
坡@@ 9136
哲 9130
DNA 9128
禄 9127
伟@@ 9125
丝@@ 9120
# 9110
階 9107
es@@ 9098
湿@@ 9094
戊@@ 9091
軸@@ 9091
问@@ 9088
婆@@ 9087
仇@@ 9079
细 9077
帥 9063
藩@@ 9063
链@@ 9063
薇 9060
UN@@ 9059
顿@@ 9051
蓮 9048
暖 9047
溯 9041
閱@@ 9040
冲 9036
NH@@ 9032
ad 9031
灰 9024
軟 9018
宰@@ 9011
900 9009
溝@@ 9007
杆 9005
侧@@ 9004
ve 9003
练@@ 8998
阪@@ 8997
竣@@ 8993
览@@ 8990
诚 8990
粮@@ 8977
听 8975
ver 8967
un@@ 8963
‧ 8959
1909 8954
纽 8953
蓬@@ 8953
ER@@ 8952
媽@@ 8950
陈 8950
110 8939
190@@ 8939
苯@@ 8939
欣 8938
独 8923
尿@@ 8921
巢 8914
題@@ 8911
终 8910
舟 8910
仇 8902
嗣 8901
拱@@ 8889
囚@@ 8884
梯@@ 8879
son 8878
忆 8875
緩@@ 8875
吹@@ 8861
町@@ 8858
ana 8857
Com@@ 8849
缩 8846
愈 8845
丧@@ 8840
株 8838
玲 8837
屍@@ 8836
勳@@ 8835
蔣 8830
ur@@ 8826
腾@@ 8824
脂@@ 8818
錢@@ 8812
虹 8806
奶@@ 8802
寓 8801
葬@@ 8776
觸@@ 8776
Br@@ 8773
st@@ 8762
采 8755
凯 8749
恭@@ 8747
厦 8745
ata 8740
磷@@ 8740
蛇@@ 8735
ent 8723
私 8717
庇@@ 8716
讷@@ 8702
贫@@ 8702
NE@@ 8699
扁 8696
man 8682
煙@@ 8678
廟@@ 8676
RO@@ 8671
烧@@ 8666
ec@@ 8658
琳@@ 8656
辯@@ 8652
己@@ 8651
em@@ 8649
狂 8647
1916 8633
诞@@ 8632
Par@@ 8629
逻@@ 8629
辩@@ 8624
癌@@ 8623
膠 8623
辟 8620
订@@ 8619
推 8618
灘 8616
夷@@ 8615
涌 8613
繁 8613
貧@@ 8613
循 8610
擁@@ 8607
履@@ 8604
她@@ 8601
棟 8600
屿 8599
斥 8598
飯 8598
吾 8591
甜@@ 8580
貞@@ 8579
医 8574
樞@@ 8574
壳 8570
圳@@ 8569
圈@@ 8567
碑@@ 8566
2.5 8564
岗@@ 8564
芝 8554
豫@@ 8545
嘴 8539
遮@@ 8539
ed@@ 8534
啡 8524
中华人民@@ 8519
罷@@ 8519
齿 8513
芒@@ 8512
1910 8511
锁 8506
靖@@ 8504
鰭@@ 8504
误@@ 8492
棉@@ 8489
堤 8485
眠 8479
滋@@ 8473
1915 8467
页 8459
沼@@ 8457
us@@ 8455
撫 8445
般 8442
Car@@ 8441
脱 8440
Ex@@ 8429
av@@ 8427
陀@@ 8418
肇@@ 8411
AK@@ 8409
踪 8407
荐 8406
蘋@@ 8406
赠 8405
铺 8405
13.@@ 8403
罚 8401
吃@@ 8394
鯉@@ 8391
倡@@ 8389
紙@@ 8388
祐 8383
償 8381
贺@@ 8378
90@@ 8374
弱@@ 8374
桌@@ 8372
椅 8371
頗 8371
鹽@@ 8371
澄@@ 8366
挂 8350
灯 8344
戌 8340
專 8338
70@@ 8333
滕@@ 8316
by 8310
а 8310
sh@@ 8309
朵 8303
姑@@ 8300
汗@@ 8295
茂 8294
im@@ 8293
寿 8292
昭 8289
裕@@ 8280
搭 8278
th 8273
项@@ 8272
浓@@ 8271
逾 8271
卸@@ 8270
坂@@ 8265
魁@@ 8258
湾@@ 8254
脚@@ 8251
框@@ 8248
龜 8243
筑 8237
审 8236
遲 8235
悉@@ 8232
楊 8229
one 8227
閉@@ 8218
嫁@@ 8215
肝@@ 8210
紐 8209
蝶@@ 8202
漂@@ 8193
憶@@ 8190
ter 8189
铜 8186
炭 8179
侦@@ 8174
仑 8168
墨 8163
話@@ 8157
轴@@ 8156
烯 8147
肥 8142
扣@@ 8138
輔 8129
騎 8111
LE@@ 8107
碍 8107
詢 8106
僧 8105
盘@@ 8104
誠 8104
be 8077
抢@@ 8076
孕 8072
兽 8068
吸 8065
摔@@ 8059
懷 8058
鈴@@ 8047
熔@@ 8041
析@@ 8033
你@@ 8026
De@@ 8015
馆@@ 8014
霞 8010
擬@@ 8008
掛 8007
鐸 8006
惊@@ 8002
1901 7997
株@@ 7997
5000 7995
睛 7992
绘 7992
TV@@ 7986
乾 7986
幹 7986
鼎@@ 7981
赶@@ 7978
US@@ 7977
割@@ 7971
乙 7966
拟@@ 7966
PC 7964
冈@@ 7964
醫 7960
貫@@ 7957
禦 7949
错 7947
启 7944
桂 7941
14.@@ 7930
珀 7928
UTC 7921
酮 7921
孝 7916
紛 7916
汽 7912
蕃 7912
AC 7902
徙 7900
哺@@ 7892
1905 7884
慎 7883
瓶 7883
贤 7879
璋 7875
乌 7874
恋 7870
躍@@ 7867
扰 7864
鴻@@ 7864
誉@@ 7863
純 7859
180 7843
渔@@ 7843
趕@@ 7843
缸 7841
厦@@ 7837
霖 7837
潔 7835
负 7830
猜@@ 7826
伙@@ 7824
翁@@ 7822
TE@@ 7819
勳 7811
斌 7811
涵 7811
脊 7806
閃@@ 7806
丞 7800
坎 7800
课 7790
盧 7788
忌 7784
攜@@ 7774
欺@@ 7774
猫 7767
嫩 7765
驶 7764
讨 7761
弄 7760
陶 7752
栗 7747
YouTube 7746
庞@@ 7744
蝠 7742
Or@@ 7729
伽 7728
鬆 7724
3D 7718
嗣@@ 7718
age 7715
仕 7714
130 7713
仰@@ 7708
Cl@@ 7706
Le@@ 7705
太平@@ 7705
頒 7704
． 7702
跃 7701
析 7700
匯 7693
吊@@ 7693
紛@@ 7693
箭@@ 7692
酯 7692
抱@@ 7691
详@@ 7691
33@@ 7687
庵 7682
敲@@ 7678
屆@@ 7677
伽@@ 7676
裸@@ 7675
弥@@ 7672
Be@@ 7671
凭@@ 7671
霍 7671
尝@@ 7668
誓 7662
John 7654
促 7653
昔@@ 7653
潘 7646
稅@@ 7644
劫@@ 7640
止@@ 7634
透 7633
庚@@ 7632
軸 7630
伟 7628
竟 7625
阅@@ 7621
纸@@ 7615
麓 7615
ang 7614
柳 7612
do@@ 7611
牲 7609
抚@@ 7606
吏 7604
熙@@ 7603
肢 7602
鱸 7600
捲 7594
com 7592
ina 7592
鑑 7589
ab@@ 7587
di@@ 7583
慈 7578
募 7574
俘@@ 7569
En@@ 7553
危 7553
37@@ 7552
傅 7552
札@@ 7551
á 7550
雖 7545
圆 7534
纲 7532
润 7531
160 7525
把@@ 7525
Bo@@ 7508
岗 7505
闭@@ 7500
殷@@ 7499
FC 7498
摇@@ 7497
い 7491
穆 7487
娅 7484
氟@@ 7481
磨 7480
刘 7472
珀@@ 7472
疗@@ 7465
冈 7463
雞 7463
攀@@ 7462
裴@@ 7462
34@@ 7459
嘴@@ 7458
己 7455
链 7450
盤@@ 7442
TO@@ 7437
赏 7437
廢 7436
1903 7430
臟 7405
糕 7404
叉@@ 7401
纯 7400
脑@@ 7399
抵 7398
央@@ 7397
稍 7397
哀@@ 7396
RE@@ 7395
怖@@ 7395
塌 7379
穌 7379
灯@@ 7373
厂@@ 7371
暫 7371
忍 7368
赴@@ 7367
奶 7363
臣@@ 7361
茄 7359
抱 7357
辐@@ 7356
桓@@ 7355
IM@@ 7347
狹@@ 7346
尤 7345
瑜 7341
1500 7339
須@@ 7334
36@@ 7330
椎 7325
蜂 7324
狼@@ 7320
睡@@ 7319
薄 7312
1908 7306
Un@@ 7305
寒 7305
莲@@ 7303
崙 7299
噸 7295
PlayStation 7287
夸@@ 7278
闽@@ 7278
触@@ 7274
辱 7264
SO@@ 7262
鼠@@ 7259
侍 7256
储 7255
秉@@ 7246
浩 7245
緩 7244
抚 7243
腺@@ 7243
奔 7241
舱 7237
刷@@ 7236
抄@@ 7231
帽 7228
о 7227
140 7224
烧 7221
Categ@@ 7216
漳@@ 7208
ai 7202
嫁 7200
遞 7200
忘@@ 7199
蝙@@ 7196
葵@@ 7195
佑 7190
甘 7188
style 7186
衝 7183
脚 7182
拥@@ 7175
滾 7173
詢@@ 7171
姿@@ 7170
舌@@ 7169
矩 7168
煌 7161
蜜@@ 7156
憲 7154
牽@@ 7153
床@@ 7143
猎@@ 7140
遼@@ 7127
勘@@ 7126
仓@@ 7123
殊@@ 7117
诉@@ 7117
庸 7115
酷 7115
静 7115
黛@@ 7106
閩@@ 7103
颶@@ 7101
陝@@ 7100
獵 7093
厢 7090
蕾@@ 7084
鼎 7081
邪 7074
盈@@ 7072
禎 7071
譚@@ 7068
泡@@ 7067
僚 7059
浸@@ 7059
se 7058
粹@@ 7057
媽 7053
1906 7051
荒 7049
逆 7049
NGC 7047
顾 7047
1907 7046
累 7041
align 7040
od@@ 7040
SE@@ 7039
丛 7039
滕 7037
沪 7034
棚 7033
廂 7030
賀 7024
赐 7021
ton 7009
綠 7006
弘 7001
硝@@ 6998
键@@ 6994
妖@@ 6992
款@@ 6991
鉴@@ 6990
阶 6982
软 6979
扇 6977
鯰@@ 6973
堆@@ 6971
炎@@ 6971
罢@@ 6968
矶 6967
賊 6965
CH@@ 6961
尽 6961
de@@ 6957
劣 6955
匠 6952
梦 6946
III 6945
da 6931
矮@@ 6928
迟 6927
樑 6917
幢 6915
貓@@ 6910
1904 6909
垃@@ 6904
坤 6902
欄 6902
蕾 6901
鸡@@ 6895
宴 6887
翅@@ 6887
16.@@ 6884
colspan 6883
渠 6880
霧 6878
厄 6870
廿@@ 6868
鋼 6868
逸@@ 6867
ig@@ 6857
駁 6851
冯 6847
辉 6847
滾@@ 6839
15.@@ 6835
PS 6827
幅@@ 6825
携@@ 6823
蟲@@ 6818
废 6816
琼@@ 6816
劾 6815
焚@@ 6815
艙 6801
LO@@ 6798
ir@@ 6796
榴@@ 6794
荆@@ 6792
慣 6791
MS 6786
Per@@ 6783
薪@@ 6781
蛙 6778
蜀 6776
採 6774
Ph@@ 6770
钦@@ 6770
籤 6767
錫 6766
PS@@ 6762
毀@@ 6755
臀@@ 6753
ta 6750
括 6750
歧 6745
侶 6739
棠 6724
櫻@@ 6723
邪@@ 6723
100@@ 6718
拯@@ 6715
銘 6704
der 6700
淺@@ 6697
um@@ 6691
壬@@ 6691
漏@@ 6685
酷@@ 6682
op@@ 6680
Sp@@ 6679
\ 6675
翡@@ 6675
尸@@ 6655
涛 6649
贯@@ 6648
IC 6644
IG@@ 6638
彗@@ 6637
ang@@ 6632
鞍@@ 6632
募@@ 6629
co@@ 6628
绥@@ 6628
趨@@ 6625
帆@@ 6623
疾 6623
are 6618
肩@@ 6618
行政区@@ 6618
纤@@ 6617
潭@@ 6614
膨@@ 6611
喬 6608
牟@@ 6608
卵 6603
苯 6600
45@@ 6598
埠 6597
炳@@ 6595
爐 6593
概 6592
椒 6590
Qu@@ 6589
El@@ 6581
擋 6580
輛@@ 6579
爺 6571
診 6569
貢 6569
邸 6565
ard 6562
嫌@@ 6558
减 6557
AL@@ 6556
究 6555
闊 6551
? 6546
奎 6546
腹 6541
吴 6538
諮 6537
烏 6531
截 6526
躍 6519
j 6518
Gr@@ 6517
Linux 6516
38@@ 6515
籲 6515
AD@@ 6512
劉 6510
庶 6507
17.@@ 6506
兆 6506
拆 6504
虹@@ 6504
伙 6503
執 6502
Col@@ 6501
涂@@ 6501
询 6498
搶 6492
39@@ 6490
Se@@ 6487
啤@@ 6479
暂 6476
ore 6475
允 6475
color 6470
签 6469
Di@@ 6460
徐 6457
瓷 6448
閘@@ 6446
柯 6444
嘛 6443
吹 6441
骑 6440
瞄@@ 6437
凸@@ 6433
慘@@ 6433
礦 6433
360 6427
鄭 6424
鸿@@ 6418
韩 6417
per@@ 6416
誰 6416
Ro@@ 6415
魁 6414
扫@@ 6413
椎@@ 6413
恒 6409
MI@@ 6407
po@@ 6405
函 6400
禪@@ 6400
鹰 6398
姬@@ 6390
拒 6374
Cr@@ 6369
ica 6367
ma 6366
Mon@@ 6361
贴 6361
og@@ 6358
淺 6354
ter@@ 6353
蓄@@ 6353
background 6351
BC 6344
档@@ 6342
SP@@ 6340
匣 6339
卜 6335
β 6332
栋 6322
鳳 6322
货 6321
鎖@@ 6321
蜂@@ 6314
軒 6309
擺@@ 6307
− 6306
愈@@ 6305
禧 6305
賭@@ 6303
乒@@ 6302
燃 6300
勋 6299
ey 6297
Ad@@ 6288
燥 6287
擁 6286
汶@@ 6286
105 6280
徹@@ 6273
唇 6272
贯 6272
邏@@ 6272
и 6270
仓 6268
掠 6268
煤 6266
彬 6265
盜@@ 6264
夾@@ 6259
MO@@ 6258
皆@@ 6258
彙 6256
径@@ 6256
卖@@ 6254
钢 6253
帖 6251
豬 6249
渠@@ 6243
堅 6233
逼 6233
儒 6232
焦 6232
勾@@ 6230
昏@@ 6230
枝@@ 6226
DS 6223
350 6219
ell 6219
欲@@ 6217
淡 6206
贞@@ 6206
糧@@ 6205
輝@@ 6200
濕@@ 6196
芙@@ 6192
撤 6190
伪@@ 6184
宅@@ 6179
掛@@ 6179
坂 6178
寓@@ 6175
潤 6175
黏@@ 6174
插 6165
頃 6157
束@@ 6156
齒@@ 6152
玫@@ 6149
ty 6137
center 6136
AN 6135
纷 6135
垣 6134
戏 6130
怡 6129
煙 6129
狭@@ 6129
浮 6125
适 6124
粤@@ 6123
掠@@ 6122
趋@@ 6118
梨 6116
un 6115
all 6113
吳 6112
趁@@ 6104
蜜 6103
惑 6098
顷 6097
腺 6091
仕@@ 6089
ity 6084
1898 6081
徹 6080
縱 6079
惟 6076
磅 6074
纖@@ 6073
恶 6071
欠@@ 6070
响 6067
焰 6067
氢 6066
躲@@ 6065
RNA 6059
倡 6059
懼 6059
ni@@ 6058
咒 6053
帆 6052
text 6047
鎊 6047
迄@@ 6045
to@@ 6044
穗 6041
匪 6040
盒 6036
胎@@ 6035
犬@@ 6032
勁 6031
壯@@ 6030
ary 6018
阔 6015
粘@@ 6013
荃@@ 6006
1902 5998
递@@ 5996
ob@@ 5995
忘 5995
MP@@ 5985
瓣 5981
啦 5979
end 5975
墙@@ 5975
毁@@ 5975
豫 5974
握@@ 5970
跋 5968
鞋 5966
Bar@@ 5965
築 5965
BO@@ 5960
隙 5957
欽@@ 5956
挂@@ 5955
寇 5951
緣@@ 5946
豬@@ 5944
诊@@ 5934
债@@ 5931
辅 5927
浅@@ 5926
卓 5924
妥@@ 5924
惨@@ 5922
ce 5920
18.@@ 5917
爪@@ 5914
洁 5905
te 5903
舌 5894
梨@@ 5890
孕@@ 5877
昆 5877
彎@@ 5876
ak@@ 5875
mo@@ 5873
赵 5873
tu@@ 5870
200@@ 5855
丞@@ 5853
弓@@ 5851
曝@@ 5851
扁@@ 5849
1895 5848
鶴@@ 5846
75@@ 5844
Cor@@ 5840
崇 5839
桐@@ 5837
败@@ 5828
赋@@ 5825
螢@@ 5824
22@@ 5818
汁 5818
qu@@ 5810
契 5807
í 5806
递 5805
玄 5804
65@@ 5800
咀 5800
AM 5799
措 5798
墟 5796
喻 5793
爬@@ 5792
ile 5791
驶@@ 5782
詳 5781
飯@@ 5781
艮@@ 5776
Ne@@ 5774
薪 5772
酋@@ 5772
殉@@ 5771
瀑@@ 5771
鳴@@ 5768
ly 5765
扣 5764
葛 5762
跌 5754
纷@@ 5753
ol 5752
腰 5751
偽@@ 5749
瑰 5746
兔 5743
峡@@ 5742
逸 5742
慰 5738
pl@@ 5737
賦@@ 5737
鋪 5735
偏 5733
Pr@@ 5730
劝@@ 5727
甚 5727
仲 5724
瓊@@ 5723
od 5719
ü 5718
臉@@ 5718
怨 5717
厅@@ 5716
押@@ 5710
坚 5708
夕@@ 5706
盲@@ 5705
鯨 5698
tion 5694
偿 5694
鸡 5694
骸 5691
膠@@ 5690
DC 5686
鱗@@ 5681
帳@@ 5678
癸@@ 5676
One 5670
侠 5669
禾 5668
咨@@ 5664
Mo@@ 5663
し 5663
120@@ 5658
Love 5658
塗@@ 5657
鏈 5657
ak 5654
竟@@ 5654
eg@@ 5651
夥@@ 5635
si@@ 5634
捉 5632
盗@@ 5631
凹@@ 5630
拓 5630
雞@@ 5628
怀 5623
墅 5614
曹 5612
Sch@@ 5609
ス 5609
籍@@ 5609
イ 5605
岭@@ 5604
橙@@ 5600
19.@@ 5599
盗 5599
恭 5591
桶 5586
re 5585
倍@@ 5583
繩@@ 5581
苹@@ 5581
貞 5580
債@@ 5578
RI@@ 5576
驅 5576
ā 5570
墩 5569
3.5 5568
糾@@ 5564
鴨 5564
4000 5561
乔 5555
拋@@ 5555
Ac@@ 5554
Li@@ 5551
稣 5548
吁 5547
删@@ 5545
娘@@ 5540
窟 5539
BBC 5531
呢 5531
貪@@ 5531
勸 5527
嬰@@ 5526
韻@@ 5523
TH@@ 5522
ut@@ 5522
ON@@ 5519
卯 5519
彦@@ 5517
冥@@ 5513
郭 5509
笑@@ 5508
龜@@ 5505
疊 5501
Ste@@ 5498
钠 5498
預 5493
47@@ 5491
雀@@ 5491
娥 5490
胶 5490
漏 5488
卸 5486
挺 5485
蓝 5484
ん 5481
Facebook 5479
砂 5477
Am@@ 5475
吋 5475
World 5474
ent@@ 5473
tic 5472
狩@@ 5469
Lo@@ 5468
104 5466
sil@@ 5463
尹 5459
欖@@ 5458
齋 5457
寵@@ 5448
堪 5444
е 5440
鯰 5440
48@@ 5435
肅 5434
贤@@ 5430
恆 5425
-- 5420
誘@@ 5420
He@@ 5414
偷 5409
摘@@ 5408
桐 5408
108 5406
淨@@ 5398
【 5396
】 5396
纵 5396
闪@@ 5393
ah 5386
55@@ 5385
ou@@ 5384
帽@@ 5379
潔@@ 5376
菊 5376
氮 5373
For@@ 5371
慰@@ 5370
穩 5369
Microsoft 5366
ae 5366
幾 5365
掃@@ 5365
稻 5365
ó 5364
册@@ 5362
ex@@ 5358
舖 5357
170 5351
弓 5344
券@@ 5342
凰 5340
旱 5340
102 5336
鳴 5336
獅 5328
塚 5323
with 5322
棘@@ 5321
蜘@@ 5321
н 5318
※ 5318
1896 5315
衍 5314
俞@@ 5311
晨@@ 5309
棄@@ 5309
妙@@ 5308
1890 5307
岐@@ 5304
au@@ 5303
糊 5303
-@@ 5300
詔@@ 5299
梭 5297
q 5292
溯@@ 5292
贾 5292
爪 5289
荔@@ 5289
AG@@ 5288
栏 5287
喊 5286
牡@@ 5285
踢 5284
蓬 5280
诏 5280
46@@ 5279
蔽 5278
伺@@ 5275
AI@@ 5273
瑚 5271
荊@@ 5268
CP@@ 5266
餅 5266
氯 5265
罹@@ 5265
ay@@ 5263
乓@@ 5259
札 5256
怡@@ 5255
ing@@ 5254
憤@@ 5252
ue 5251
绕@@ 5251
125 5249
仗 5249
淨 5244
墳 5241
韶@@ 5239
Ge@@ 5237
section 5235
撥@@ 5231
103 5228
膚 5227
鼻 5221
圾 5219
em 5218
斬 5216
BA 5214
晴@@ 5214
宪 5212
摆@@ 5211
纺@@ 5211
瀨@@ 5203
寅 5197
董 5194
New 5193
鄂 5191
1897 5181
钦 5180
鴻 5179
杏@@ 5176
斋 5173
CC@@ 5172
贏 5172
VA 5170
纠@@ 5168
訟 5168
丈 5166
埋 5166
虐@@ 5166
た 5165
杉 5165
ley 5162
est 5160
搞 5160
DE@@ 5153
飲 5153
宰 5151
box 5150
TA 5149
AR 5144
櫃 5144
橫 5143
20.@@ 5138
AB@@ 5138
萄 5138
Hz 5135
par@@ 5135
鑑@@ 5134
Live 5130
魅@@ 5130
ber@@ 5129
诸 5128
穀 5127
桿 5121
蓉 5121
ach@@ 5120
GB 5117
ts 5112
寡@@ 5111
騷@@ 5110
柔 5105
斐 5098
纂 5096
齿@@ 5093
az@@ 5091
猎 5089
au 5088
圭@@ 5082
49@@ 5078
Ap@@ 5077
冶@@ 5077
猪 5076
財 5076
ル 5073
侨 5070
DP 5068
溝 5068
106 5066
甸@@ 5057
猛 5056
蝦 5055
遙@@ 5050
净@@ 5045
彭 5044
辞 5044
ge 5043
撫@@ 5043
no@@ 5040
刪@@ 5035
紫 5034
翅 5034
迦 5031
弦@@ 5026
崛@@ 5019
う 5018
噪@@ 5018
裹 5014
炉 5013
賠@@ 5013
FI@@ 5012
垒 5011
畢 5011
萍 5011
bo@@ 5008
壩 5008
帮 4995
庶@@ 4995
贈@@ 4995
療@@ 4994
睡 4992
葵 4992
蜀@@ 4992
109 4989
IE@@ 4989
祇 4985
Net@@ 4983
剩 4981
猴 4981
Music 4980
滚@@ 4980
繳@@ 4980
蔬@@ 4977
ea 4976
彪 4975
剥@@ 4972
悟 4965
蜥 4962
懲@@ 4960
ite 4957
il 4955
泄@@ 4954
欽 4950
矢@@ 4950
ML 4939
綁 4935
You 4934
辨 4934
1200 4933
宦@@ 4933
慣@@ 4930
紋@@ 4930
瓶@@ 4926
峻 4925
喝@@ 4921
础@@ 4921
铺@@ 4921
且@@ 4920
恐 4919
蜥@@ 4915
荡 4913
44@@ 4910
湯 4909
蘿@@ 4902
閱 4899
1899 4897
CD@@ 4897
Ma@@ 4897
湘 4897
嵌 4896
凉@@ 4894
谭@@ 4893
夹@@ 4891
淮 4890
ance 4889
NO@@ 4887
郁@@ 4881
Me@@ 4880
僑 4879
奸 4876
鉴 4873
耿@@ 4871
茎 4870
浏@@ 4869
俯@@ 4868
莲 4868
ens 4866
+@@ 4864
Str@@ 4864
107 4863
恰 4863
乞@@ 4861
彝@@ 4861
旭@@ 4861
淆 4858
磁 4853
Android 4850
亂@@ 4850
IV 4849
na 4846
参 4845
棉 4845
SS 4844
砖@@ 4842
窮 4840
狙@@ 4839
渐@@ 4838
坞 4834
2.0 4832
矮 4832
廈@@ 4829
EN@@ 4828
酬 4828
SS@@ 4822
辉@@ 4819
韻 4817
虞@@ 4816
IP 4812
塢 4809
RT 4807
IP@@ 4801
倪@@ 4801
纬 4801
VI@@ 4796
簡 4795
筋 4793
汕@@ 4791
ik@@ 4790
Po@@ 4788
崩 4786
脏 4785
鬚 4783
烟 4777
惯@@ 4773
SM 4772
ME@@ 4771
豚 4770
ure 4769
禅@@ 4769
鱷 4769
銅 4763
mar@@ 4761
芽 4759
Ser@@ 4757
р 4757
虏 4757
晰 4755
狮@@ 4754
眉 4754
ong 4745
烯@@ 4745
ice 4744
添 4744
戚 4740
と 4738
详 4737
侄@@ 4736
冒 4733
鹏 4733
则@@ 4730
招 4730
婉@@ 4728
1889 4727
阜@@ 4726
烹@@ 4725
Mc@@ 4724
暖@@ 4723
宴@@ 4722
Vi@@ 4720
巢@@ 4719
int 4718
醉 4715
些@@ 4713
HT@@ 4712
Phone 4711
掃 4711
榆@@ 4710
祯 4710
蝕 4706
禦@@ 4702
bi@@ 4701
ra 4695
ale 4694
僱@@ 4694
氫 4694
鹤@@ 4694
菱 4690
驚 4689
璃@@ 4688
悼@@ 4686
om 4684
喉@@ 4681
School 4679
挽@@ 4679
ラ 4676
ö 4670
怒@@ 4667
疊@@ 4666
骼 4666
顛@@ 4662
騙 4662
擲 4660
ep@@ 4659
di 4657
24.@@ 4655
SA 4654
• 4653
CA 4649
Pro@@ 4646
23.@@ 4645
Ver@@ 4643
聰@@ 4636
銘@@ 4636
舟@@ 4632
践 4630
if@@ 4625
杖 4624
鑽@@ 4624
涌@@ 4622
肆 4622
严 4616
搶@@ 4614
眉@@ 4614
PE@@ 4613
饭@@ 4608
115 4605
ya 4605
腰@@ 4598
潰 4597
囊@@ 4596
狗@@ 4596
か 4595
繩 4595
顆@@ 4591
奮@@ 4589
蔓@@ 4589
擦@@ 4588
頸 4583
旦@@ 4580
騰 4579
馮 4576
淳 4573
碗 4573
浴@@ 4571
恋@@ 4568
描 4566
禾@@ 4566
鑼@@ 4566
MA 4562
擦 4562
te@@ 4560
笛 4559
21.@@ 4556
娜@@ 4555
瞬@@ 4555
68@@ 4553
孚 4551
暢@@ 4550
廚@@ 4548
穎 4548
ver@@ 4547
舶 4547
ler 4546
拨@@ 4542
爛 4542
450 4541
gi@@ 4541
戎 4536
渤@@ 4536
弧@@ 4535
猴@@ 4532
CP 4531
盾@@ 4531
111 4530
漆 4528
莖 4528
蝴@@ 4526
彦 4525
搞@@ 4523
con@@ 4522
EP 4521
aw@@ 4520
纹@@ 4519
嵌@@ 4516
爸 4512
痕 4512
砖 4512
硫 4511
箱@@ 4511
卧@@ 4510
嗎 4509
崗@@ 4508
钻@@ 4497
説 4493
ne 4492
哭 4492
辣@@ 4492
瓷@@ 4489
氛 4488
杆@@ 4487
简 4485
郝@@ 4483
ess 4482
遞@@ 4480
跌@@ 4478
姑 4474
啡@@ 4472
67@@ 4470
污 4470
狐@@ 4470
酰@@ 4470
43@@ 4469
丛@@ 4468
pen@@ 4467
庙@@ 4467
墜@@ 4465
咸 4464
se@@ 4457
IS 4456
毅@@ 4455
氟 4455
檢 4453
诱@@ 4452
瑙@@ 4450
淋@@ 4447
辑@@ 4445
楠 4444
哇 4442
疲@@ 4440
vi@@ 4439
慕 4438
蚀 4434
輯@@ 4434
Wi@@ 4433
抓 4432
禍 4432
eb@@ 4429
99@@ 4428
ati@@ 4428
姊 4426
220 4425
腐 4425
賈 4422
喙 4421
に 4420
1860 4417
CS@@ 4409
ner 4408
22.@@ 4405
cm 4405
赣@@ 4397
DA 4396
孢@@ 4394
叠 4393
譴@@ 4393
1880 4389
IO@@ 4386
谁 4385
涼@@ 4382
鵬 4382
br@@ 4380
潛 4380
沪@@ 4378
湿 4378
CI@@ 4375
妾 4374
愉@@ 4374
陇@@ 4369
祁@@ 4367
​ 4366
GP@@ 4360
汤 4360
1600 4357
ion 4355
渦@@ 4351
IT@@ 4349
謙 4346
凶@@ 4345
な 4342
邢@@ 4342
凤 4341
陰 4341
誓@@ 4340
骚@@ 4340
凌 4335
ur 4333
鱂 4333
ma@@ 4332
ps 4330
畜@@ 4330
敖@@ 4327
誼 4326
樊@@ 4322
趾 4322
ain 4320
峽@@ 4320
240 4318
役@@ 4317
25.@@ 4313
1800 4312
挝 4312
傍@@ 4310
雁@@ 4309
Mor@@ 4307
嫡@@ 4307
La 4306
end@@ 4306
135 4304
1894 4304
繞@@ 4300
赔@@ 4299
聊@@ 4298
112 4297
胃@@ 4296
Wor@@ 4295
奋@@ 4295
踐 4295
ys 4293
Me 4290
ara 4289
pi@@ 4289
′ 4289
煽@@ 4288
ト 4286
谴@@ 4284
谱@@ 4283
1871 4280
58@@ 4279
る 4278
蟻 4275
赠@@ 4274
ks 4273
1870 4272
醛 4272
缀 4269
Met@@ 4263
脈@@ 4261
铭 4255
辽 4253
唇@@ 4251
弼 4251
叢@@ 4249
悅 4245
渭@@ 4245
绿 4245
甄@@ 4243
56@@ 4242
凰@@ 4242
哩 4242
輩 4239
仆@@ 4237
Fr@@ 4236
樟@@ 4236
atus 4233
拱 4233
罵 4233
ode 4232
Ed@@ 4230
Min@@ 4229
SD 4228
栗@@ 4227
David 4223
预 4223
邯@@ 4222
碱@@ 4218
衙@@ 4218
贊 4217
瘋@@ 4213
ov@@ 4212
uc@@ 4212
峙 4212
杯@@ 4212
赏@@ 4208
BM@@ 4207
Mac@@ 4207
漿 4207
Te@@ 4205
丟@@ 4203
织 4203
do 4201
ok@@ 4201
脹 4201
抽 4198
57@@ 4197
紮 4194
虽 4192
贞 4188
飼@@ 4185
疼@@ 4183
q@@ 4181
泌 4178
茵@@ 4176
削 4171
憂@@ 4169
AL 4167
诏@@ 4165
讼 4163
ath@@ 4162
牺@@ 4162
迅 4161
and@@ 4158
PO@@ 4157
贪@@ 4156
124@@ 4155
胸 4155
畜 4151
115@@ 4149
萌@@ 4148
128 4147
兔@@ 4146
匿@@ 4145
婿 4145
è 4144
颇@@ 4144
畏 4143
ell@@ 4142
婷 4142
剿 4141
挺@@ 4141
棍@@ 4140
International 4137
University 4136
巩@@ 4135
巫 4134
颇 4133
Fl@@ 4131
In 4131
袍 4131
蘆@@ 4130
阅 4128
hi@@ 4123
衷 4119
輿@@ 4119
ff@@ 4117
饶@@ 4115
Pi@@ 4113
肿@@ 4112
闆 4111
壯 4107
抛@@ 4106
26.@@ 4105
扳@@ 4105
您 4103
薯 4102
罰@@ 4101
Hol@@ 4100
碱 4099
遂@@ 4096
寇@@ 4095
ot 4094
尋 4092
赐@@ 4090
CC 4086
遥@@ 4086
朔@@ 4081
屍 4080
溃 4079
却@@ 4076
藻@@ 4075
虜 4074
Fre@@ 4073
剝@@ 4072
琦 4071
撐 4070
检 4069
ini 4065
ok 4065
Ab@@ 4064
润@@ 4062
粮 4060
27.@@ 4058
pr@@ 4058
鍵@@ 4058
Dr@@ 4057
究@@ 4056
DO@@ 4051
с 4047
str@@ 4046
駿 4043
狐 4041
懂 4039
ne@@ 4036
胤 4035
ah@@ 4028
1885 4026
拾 4026
稚 4024
ight 4023
犧@@ 4023
騰@@ 4022
疇 4020
闖@@ 4020
衞 4019
矣 4018
磡 4018
Fi@@ 4015
幣@@ 4015
銳 4015
ame@@ 4014
酉 4014
笠 4012
TC 4011
竭 4011
斥@@ 4010
捐 4008
谊 4007
鮋 4007
li 4006
帜 4005
Sw@@ 4000
廓 3998
肖 3996
卑 3995
頸@@ 3995
貸@@ 3992
簿 3991
127 3988
肌 3985
阜 3985
gr@@ 3981
轟 3981
暑@@ 3980
ence 3977
乱@@ 3976
栏@@ 3976
Jo@@ 3975
ass 3975
隱 3974
惯 3973
潤@@ 3973
埼 3972
畿 3972
撲 3970
粟@@ 3970
芦@@ 3969
讯@@ 3967
Har@@ 3965
聂@@ 3964
宛@@ 3961
ka 3955
缘@@ 3954
喀 3953
禄@@ 3952
抄 3950
旱@@ 3948
挖 3946
翠 3944
喚 3943
孟 3942
愤@@ 3942
坪@@ 3940
账@@ 3940
擾@@ 3938
IA 3935
膀 3934
腸 3932
横 3930
謠 3930
ick@@ 3929
Ber@@ 3921
阎@@ 3921
Inter@@ 3920
堵 3920
EM@@ 3918
320 3916
臭@@ 3914
be@@ 3912
碧 3912
Man@@ 3911
蕉 3910
弯@@ 3909
Mac 3908
誕 3908
ace 3907
Mag@@ 3906
氫@@ 3906
鯛 3905
汶 3904
鞭@@ 3904
暹@@ 3903
澄 3903
韵@@ 3903
Team 3902
阴 3902
Gu@@ 3900
280 3898
釜@@ 3897
膽 3892
蛤@@ 3891
芙 3890
郁 3890
饼 3890
垂 3888
柴 3888
230 3887
薇@@ 3887
爽 3885
122 3883
湛@@ 3881
籌 3879
AP 3878
勸@@ 3870
颠 3870
113 3869
抬@@ 3869
牆@@ 3868
蛾 3864
66@@ 3861
簧 3858
詠 3856
醉@@ 3855
ク 3854
舆@@ 3854
ref 3853
屈 3852
ア 3851
We@@ 3849
Saint 3847
慾 3847
_@@ 3842
幟 3842
罚@@ 3841
59@@ 3840
鸣 3839
濤 3835
淵 3833
桿@@ 3831
啊 3829
ack@@ 3828
〜 3828
梓@@ 3828
190 3827
塾 3823
缓 3823
贺 3820
瞭@@ 3818
橘@@ 3817
爬 3814
ä 3812
绵@@ 3809
Su@@ 3808
痕@@ 3807
孜@@ 3805
land 3804
煮 3803
ci@@ 3802
慎@@ 3802
堵@@ 3801
宙@@ 3801
毓@@ 3796
芯@@ 3796
ase 3795
り 3795
桓 3795
述@@ 3795
喝 3793
宵 3789
Sol@@ 3788
釣@@ 3788
晴 3787
Er@@ 3785
旭 3785
脉@@ 3784
吞 3783
贼 3783
賦 3782
Twitter 3781
des 3781
pe@@ 3780
侨@@ 3778
贸 3776
Dis@@ 3775
憂 3774
謙@@ 3772
僵@@ 3770
晓 3768
т 3767
リ 3767
沛 3767
鸣@@ 3767
肤 3765
砌 3764
ung 3763
娃@@ 3760
Her@@ 3758
匙 3758
趙@@ 3757
遜@@ 3757
榄@@ 3754
雯 3754
123 3750
1892 3749
臥@@ 3749
yl@@ 3748
廁@@ 3748
蓄 3741
all@@ 3738
淳@@ 3738
贷@@ 3738
迈 3738
My@@ 3736
鵝@@ 3736
氰@@ 3735
TP 3734
閩 3734
惩@@ 3732
濫@@ 3732
肩 3732
兇@@ 3730
胚@@ 3730
To@@ 3729
ake 3729
牢@@ 3728
CE@@ 3725
My 3724
1893 3723
AS 3722
沈 3721
混 3719
121 3718
迭@@ 3718
阀 3718
AA 3717
姿 3717
框 3714
舒 3714
斩@@ 3712
諸 3712
den 3711
懿 3711
締@@ 3709
臉 3709
泗@@ 3707
铭@@ 3707
Lin@@ 3704
滇@@ 3701
蒼@@ 3701
賜@@ 3699
氮@@ 3696
溉 3696
悟@@ 3695
は 3694
腾 3694
210 3693
ti 3693
PA 3688
that 3686
扮 3686
贫 3686
闢 3686
諭 3685
114 3684
淚 3684
捍@@ 3683
tri@@ 3682
琛 3681
胆@@ 3680
Type 3679
im 3679
118@@ 3677
饥@@ 3676
119@@ 3675
届@@ 3674
煉 3674
遲@@ 3673
able 3672
擠 3672
yr@@ 3671
膜@@ 3671
岑@@ 3670
1884 3668
褒@@ 3668
Pro 3665
瀏@@ 3665
悔 3663
邁 3663
ella 3661
犁 3661
潟 3660
陞 3659
瑙 3658
1887 3657
ical 3655
侣 3655
1886 3654
CN@@ 3651
赋 3651
MC 3649
蕊 3649
哉 3648
鳞@@ 3648
As@@ 3642
啓 3642
愚@@ 3641
爸@@ 3640
113@@ 3638
镑 3631
渊 3630
錶 3630
刃 3629
崗 3628
堯 3626
渴@@ 3626
阔@@ 3626
William 3625
硅@@ 3624
巾 3623
吐 3622
駕 3622
118 3621
稜 3620
ick 3619
53@@ 3618
iz@@ 3617
祠@@ 3617
堤@@ 3616
廳@@ 3616
st 3615
毕 3615
ev@@ 3612
趕 3610
Game 3609
ous 3609
堀@@ 3607
赦 3607
醒@@ 3607
1888 3605
was 3605
拖 3603
ub@@ 3602
奢@@ 3598
页@@ 3598
橢@@ 3596
les 3595
碘 3592
BT 3591
Pe@@ 3591
Go@@ 3590
ass@@ 3588
殼@@ 3588
禪 3588
傘 3587
TS 3586
淵@@ 3586
聰 3586
沧@@ 3583
ect 3582
纲@@ 3580
117 3578
James 3577
吕 3576
腸@@ 3576
750 3574
睹 3572
伪 3571
譜@@ 3571
憾 3568
盈 3565
醜@@ 3564
sa 3563
LG@@ 3561
浅 3560
蛛@@ 3560
Group 3559
苍@@ 3559
涡@@ 3558
冊@@ 3557
滴 3554
So@@ 3551
1861 3549
谐 3548
債 3547
缴@@ 3547
era 3546
肅@@ 3543
line 3542
棍 3542
from 3539
狄 3538
茅 3538
饭 3537
緯@@ 3536
弊 3535
塵 3533
倭@@ 3532
枯@@ 3531
GA 3530
勉@@ 3530
嘲@@ 3530
ra@@ 3529
л 3527
癒 3527
穷 3527
1876 3525
116 3524
2500 3524
墾 3524
忧 3522
Ho@@ 3521
淹@@ 3519
韵 3519
ist@@ 3518
You@@ 3516
ker 3516
肺 3515
Bi@@ 3514
if 3514
朴 3510
114@@ 3509
檐 3509
閣@@ 3509
胆 3508
129 3507
哨 3507
違 3507
坠@@ 3506
茱@@ 3505
me 3504
ings 3496
梧@@ 3494
瑚@@ 3494
肢@@ 3494
ir 3493
亭@@ 3492
禹 3490
鑽 3490
锋@@ 3490
閒 3490
盆 3489
髓 3489
辆@@ 3486
捨 3485
詮@@ 3485
擒 3482
閒@@ 3482
124 3480
抨@@ 3479
劣@@ 3476
锐 3476
奕 3475
Bur@@ 3474
в 3474
ISO 3473
116@@ 3468
he@@ 3468
畏@@ 3468
踢@@ 3466
魂@@ 3464
祂 3456
af@@ 3455
紡@@ 3454
胀 3452
铎 3451
抒@@ 3450
霹@@ 3450
诚@@ 3449
淀@@ 3447
祕 3447
Si@@ 3442
陪 3439
阐@@ 3436
126 3434
1891 3434
衫 3433
馨 3430
綽@@ 3428
霞@@ 3428
PC@@ 3427
犀@@ 3426
к 3424
让@@ 3422
su@@ 3420
擢 3420
庐@@ 3415
憑@@ 3414
ATP 3412
漲 3410
獸@@ 3410
寂 3409
跃@@ 3408
歼@@ 3407
蒿 3406
Do@@ 3401
勁@@ 3401
ant@@ 3398
儲 3396
坝@@ 3394
瑾 3393
嚇 3392
崑 3392
鄒@@ 3392
叠@@ 3391
襪 3390
閘 3389
〔 3387
钾 3386
〕 3384
剌 3383
260 3382
肪 3381
丑@@ 3380
諜 3380
酿@@ 3380
稽 3378
绑@@ 3378
頌 3378
per 3375
1850 3374
妓@@ 3372
棱@@ 3372
und 3371
蹄@@ 3371
駒 3370
撕@@ 3369
填 3368
117@@ 3366
緻 3365
so@@ 3363
捉@@ 3363
CN 3359
oph@@ 3359
Robert 3358
IT 3357
禧@@ 3357
烤 3354
鑄@@ 3354
弄@@ 3353
DE 3352
浙 3351
ons 3350
浆 3350
鰍 3350
滤@@ 3348
1883 3346
璧 3341
醬 3341
Paul 3340
掀@@ 3339
腫@@ 3339
菇 3339
ann@@ 3338
1862 3336
io 3336
蜒 3336
卦 3333
縫 3333
盔 3330
贬@@ 3325
CO 3323
岱 3323
郑 3323
IBM 3322
閥 3319
荃 3317
淪@@ 3316
ap 3315
询@@ 3315
漆@@ 3314
co 3311
1868 3309
鈞 3308
ッ 3304
莞 3303
籃 3301
鱸@@ 3300
Java 3299
雾 3299
慌 3298
鸚@@ 3296
擇@@ 3293
檀@@ 3292
桌 3289
欠 3289
歇 3289
艰@@ 3289
净 3283
菱@@ 3283
est@@ 3282
扑 3281
ack 3280
崔 3280
蜿@@ 3280
膏 3279
窑 3278
US 3277
孚@@ 3276
狮 3276
Apple 3275
有限@@ 3275
矢 3275
驳 3275
ib@@ 3273
ま 3269
μ 3268
絡@@ 3268
炼 3267
羟@@ 3267
貿 3267
滲@@ 3265
ow@@ 3263
SI@@ 3261
颜 3260
饱@@ 3260
舜@@ 3259
On@@ 3258
弃@@ 3258
闸 3258
Michael 3257
Super 3257
滚 3257
@ 3256
1867 3255
凉 3255
Hy@@ 3254
牲@@ 3252
寄 3251
嘎@@ 3250
砍@@ 3250
ade 3249
さ 3249
喉 3249
磷 3249
Pal@@ 3248
婴@@ 3248
帳 3248
赦@@ 3245
耕 3243
闲 3243
优 3241
浴 3241
Ag@@ 3238
瑛 3238
侏@@ 3236
ho@@ 3234
撑 3234
委员@@ 3229
悦 3229
凍 3226
凭 3226
渝 3223
茹 3218
霆 3218
550 3217
缪@@ 3217
罐 3217
² 3216
惧 3214
vir@@ 3212
椭@@ 3212
Cal@@ 3211
普查 3208
湧@@ 3208
貼@@ 3208
1848 3207
Uni@@ 3207
Win@@ 3207
趁 3207
RS 3206
330 3205
LC 3205
1873 3204
淹 3204
猿 3202
1878 3201
专 3201
膛 3199
襄 3199
ا 3196
篡@@ 3196
MS@@ 3194
溶 3194
禹@@ 3194
鞋@@ 3194
が 3193
DJ 3190
ator 3190
て 3190
僑@@ 3189
鞏@@ 3189
145 3188
朔 3188
涼 3187
汪 3186
浸 3184
擺 3181
諡 3181
笼 3180
National 3179
1864 3177
1879 3177
悼 3177
牢 3172
翔@@ 3172
锁@@ 3172
cr@@ 3169
钩 3169
1877 3167
缝 3167
莽 3167
き 3164
ry 3162
苔 3161
穷@@ 3160
羞@@ 3160
袋@@ 3160
ano 3156
ru@@ 3155
剖@@ 3154
甜 3154
鴉@@ 3152
sp@@ 3151
彎 3150
ino 3149
mi@@ 3148
窩 3148
狸 3147
蕩 3144
丢@@ 3142
屡@@ 3142
畅@@ 3142
tic@@ 3141
虞 3141
岐 3139
idae 3134
皖@@ 3133
禽 3133
芜@@ 3131
颗@@ 3130
择@@ 3129
綴 3129
泵 3127
雇 3124
eh@@ 3119
匡@@ 3119
MP 3117
掉@@ 3117
琅 3116
芯 3115
蔚@@ 3115
low 3114
庚 3112
溢@@ 3109
ca 3108
1875 3106
650 3098
釐 3098
1865 3097
涨 3095
籠 3095
1882 3093
杭 3093
City 3092
肠 3090
晤@@ 3087
剪 3086
畴 3086
酵 3084
1881 3079
out 3079
挡 3079
茜 3078
鹃 3074
磚@@ 3073
ng 3072
糧 3072
隕@@ 3071
AD 3070
綿@@ 3070
霧@@ 3070
鬧 3068
冤@@ 3067
傲 3066
鸿 3065
滴@@ 3064
ena 3063
tel 3063
胰@@ 3063
鰓 3062
谥@@ 3059
酵@@ 3059
堊@@ 3058
窦@@ 3058
虐 3058
net 3055
樸 3053
邹@@ 3052
Go 3049
蝠@@ 3049
Val@@ 3048
礁@@ 3046
onlyinclude 3045
岁@@ 3045
戚@@ 3045
175 3043
梓 3043
岑 3042
墮@@ 3041
麾@@ 3041
孵@@ 3040
猶 3040
糟@@ 3040
ong@@ 3039
name 3038
迟@@ 3038
喻@@ 3037
ics 3036
邱 3035
汾@@ 3034
IX 3033
呂 3033
ab 3032
曉 3032
Tri@@ 3030
fo@@ 3030
enti@@ 3029
fli@@ 3029
棵 3029
ran@@ 3028
濕 3028
鹤 3028
姜 3026
鍊 3026
宠@@ 3025
菸 3025
ora 3024
俾@@ 3023
鰕 3023
逗@@ 3021
Fe@@ 3020
挫@@ 3019
敷 3019
钧 3019
dis@@ 3016
鹅 3016
MTV 3014
扇@@ 3013
贴@@ 3013
顱 3013
155 3010
up@@ 3006
埗 3006
辈 3006
黜 3006
趨 3005
奸@@ 3001
莓 3001
蚌@@ 2999
鑒 2999
蔭@@ 2998
1874 2997
NA 2997
Entertainment 2996
彻 2995
ain@@ 2993
裙 2990
豁@@ 2989
焊@@ 2988
頜 2988
CS 2987
炼@@ 2986
Por@@ 2984
Pol@@ 2982
119 2981
企 2981
1840 2979
1863 2978
苻 2978
詐 2978
諧 2978
oth@@ 2976
岬 2974
ら 2973
虫@@ 2973
380 2971
蕨@@ 2971
攔@@ 2970
our 2969
ill 2968
篤 2968
叙 2966
烃 2963
シ 2962
脆@@ 2962
蕭 2962
喪 2961
偽 2959
谦 2959
阱 2959
壟@@ 2958
1872 2954
Cy@@ 2954
und@@ 2954
袁 2954
la@@ 2953
斬@@ 2952
AV@@ 2950
man@@ 2950
Trans@@ 2949
tor 2949
System 2948
箕 2946
陡@@ 2944
霜 2941
270 2939
amb@@ 2939
艱@@ 2935
鸭@@ 2935
ise 2934
wid@@ 2934
屢@@ 2933
昏 2933
腎@@ 2933
厭@@ 2932
澀 2928
貶@@ 2927
紧 2925
羌 2924
骗 2923
ari@@ 2922
聶@@ 2919
ess@@ 2917
ten@@ 2917
酚 2917
芹 2915
鸦@@ 2914
哀 2913
ke 2912
app@@ 2911
帛 2911
巳 2909
鹰@@ 2907
祿@@ 2906
CE 2904
Gi@@ 2904
哭@@ 2904
UR@@ 2902
厲 2902
碘@@ 2902
its 2901
鰻 2900
扶 2899
鶴 2898
ist 2895
Bl@@ 2894
ene 2893
ens@@ 2893
ello 2892
屑 2891
It 2889
ber 2889
Cre@@ 2887
汀@@ 2887
讽@@ 2887
int@@ 2885
稽@@ 2885
ge@@ 2884
楠@@ 2884
沦@@ 2883
铝 2883
炒@@ 2882
St 2879
咬@@ 2878
闸@@ 2878
agr@@ 2876
娟 2876
SN@@ 2875
Sal@@ 2875
孜 2875
鋒@@ 2874
152 2873
盪 2873
Sho@@ 2872
遺 2872
盲 2870
嵩 2869
椰@@ 2869
篷 2867
All 2866
姦 2866
禱 2866
FO@@ 2865
George 2865
梳@@ 2865
闡@@ 2865
饒 2865
頌@@ 2864
濒 2863
萼 2862
ali@@ 2861
ash 2860
俠@@ 2860
Hu@@ 2859
Bas@@ 2856
壹 2856
begin 2855
ket 2854
く 2854
轩 2852
禅 2850
簽 2849
茹@@ 2849
棣 2847
衔@@ 2847
za 2846
媛 2846
槟@@ 2845
琼 2845
駿@@ 2844
齋@@ 2844
Gar@@ 2843
玲@@ 2843
Ang@@ 2842
ane 2841
yn@@ 2840
亥 2840
加拿@@ 2840
Mer@@ 2839
稣@@ 2839
醚 2836
鬱 2835
鹹 2835
port 2833
bu@@ 2832
ax 2831
ere 2830
夥 2830
酪 2830
孤 2829
幌 2828
绥 2828
跤 2828
浚 2823
mon@@ 2822
kg 2821
兽@@ 2820
湛 2818
RT@@ 2817
钓@@ 2817
皋 2816
陛@@ 2816
Tur@@ 2815
妨@@ 2815
缮 2815
鱷@@ 2814
を 2813
賺 2813
傀@@ 2812
幡 2810
舅@@ 2807
淫 2806
趣@@ 2805
濾@@ 2803
括@@ 2802
Club 2801
坏@@ 2801
Mi@@ 2800
Office 2800
尉@@ 2799
帖@@ 2799
曙@@ 2796
忆@@ 2793
厌@@ 2792
跋@@ 2792
鵝 2791
COVID 2790
淑 2790
滙 2790
衰 2789
锅@@ 2788
猩@@ 2787
怨@@ 2786
盎@@ 2785
Pl@@ 2784
漠@@ 2784
car@@ 2783
釀@@ 2783
ated 2782
龟 2781
窮@@ 2778
葫@@ 2777
1869 2776
巨 2775
粗 2775
辯 2775
徑@@ 2774
妖 2771
No@@ 2770
傘@@ 2770
傲@@ 2770
尸 2770
甫@@ 2770
驱 2770
磚 2767
Time 2766
ani 2765
奕@@ 2765
ki@@ 2764
1866 2762
瑶@@ 2762
Mark 2761
ung@@ 2759
麒@@ 2759
カ 2756
羌@@ 2756
剿@@ 2754
1300 2753
鯨@@ 2753
kh@@ 2752
戟 2752
侮@@ 2751
こ 2750
渗@@ 2750
龚@@ 2750
閻@@ 2748
塵@@ 2747
丧 2746
寻 2746
尧 2746
瘟@@ 2746
蠻 2746
溴@@ 2745
pp@@ 2744
壶 2744
膽@@ 2744
炬 2743
ill@@ 2742
ta@@ 2741
辣 2740
γ 2739
闵@@ 2738
掘@@ 2737
At@@ 2735
恕 2735
剌@@ 2733
On 2732
丙 2732
峨@@ 2732
妈 2730
紳 2730
鈴 2730
僕 2729
贿@@ 2729
頜@@ 2728
yc@@ 2726
弧 2726
aur@@ 2724
崁 2724
SC 2723
财 2723
沫 2722
Mel@@ 2720
晃 2719
錐@@ 2719
Center 2718
Co 2718
琵@@ 2718
鎌 2718
132 2717
itch 2716
疯@@ 2716
Show 2714
赌@@ 2713
冕@@ 2712
拦@@ 2712
奮 2710
碩 2710
汞 2709
諷@@ 2708
譬@@ 2708
卻@@ 2706
渊@@ 2706
洽 2704
隐 2704
肾@@ 2703
逢@@ 2702
沁@@ 2700
み 2699
峇 2699
鷹@@ 2699
way 2698
莆@@ 2696
Kar@@ 2695
ment 2695
yth@@ 2694
瑜@@ 2694
溴 2693
阮 2692
Park 2689
濒@@ 2689
酋 2689
Del@@ 2687
sch@@ 2687
桨 2685
袖@@ 2683
ala 2682
vo@@ 2681
姚 2681
懋@@ 2679
萱 2679
1400 2677
Games 2677
Star 2677
勿 2677
隅 2677
ich@@ 2673
勉 2671
タ 2670
汐 2668
ac 2666
歼 2666
梭@@ 2665
苷 2665
ha 2664
敷@@ 2660
耆 2658
ABC 2656
time 2656
敢@@ 2655
Tun@@ 2654
UC@@ 2650
肝 2650
蟾 2649
妥 2648
巖 2648
mac@@ 2646
Charles 2644
〇 2642
201@@ 2641
als 2640
Mat@@ 2639
瀕@@ 2639
贩@@ 2639
栓 2638
飽 2638
ao 2636
ense 2636
驟 2635
Gen@@ 2634
Thomas 2634
啶 2634
睿 2634
糙 2631
颂 2631
cript 2630
ロ 2628
咬 2628
嵩@@ 2628
詔 2628
舷 2627
ative 2620
ual 2620
哪 2620
藓 2620
彤 2617
堰 2616
沂@@ 2616
驳@@ 2616
lin@@ 2612
匿 2612
壮 2612
滥@@ 2612
聪@@ 2611
dr@@ 2607
鋸@@ 2607
瓊 2606
兀@@ 2605
熹 2605
膝@@ 2605
腕 2603
橘 2602
Sil@@ 2601
eng@@ 2601
跆@@ 2601
餓 2596
Mas@@ 2594
硅 2593
ium 2592
剖 2591
沸@@ 2591
鯊 2591
鴨@@ 2591
僕@@ 2590
泣 2589
阁@@ 2588
戮 2583
ug@@ 2580
for@@ 2579
no 2579
撲@@ 2579
棲 2579
垄@@ 2577
淫@@ 2574
饮 2572
狸@@ 2571
婭 2570
惹 2570
gu@@ 2569
Kr@@ 2568
炭@@ 2567
烷@@ 2567
Bel@@ 2566
砍 2565
osa 2564
あ 2564
埠@@ 2563
苣 2563
妍 2562
蔚 2561
梗 2560
眷@@ 2559
匾 2558
臟@@ 2558
ff 2556
傣@@ 2556
肋@@ 2556
壞@@ 2555
谍 2555
荀@@ 2553
楷 2552
麟@@ 2552
黔@@ 2552
墳@@ 2551
ek@@ 2550
ジ 2550
ero 2549
吗 2549
樱@@ 2549
滇 2549
烂 2548
1830 2545
嶽 2545
蛤 2545
霄 2545
糊@@ 2544
溜@@ 2543
販 2543
lu@@ 2540
で 2540
竺 2540
ama 2539
der@@ 2539
倚@@ 2538
硒 2537
舅 2537
烤@@ 2535
畿@@ 2535
祸 2534
Street 2533
罐@@ 2533
讓@@ 2533
琪@@ 2532
竊 2532
惊 2531
Peter 2530
mo 2530
沛@@ 2530
倆 2529
潜 2529
IF@@ 2527
DF 2526
唯 2526
埕 2524
Media 2523
矛 2523
蚤 2522
illa 2521
謎 2521
High 2520
扰@@ 2520
ki 2519
舵 2519
College 2518
棕 2518
1853 2516
吊 2516
鶯 2516
ili@@ 2514
戎@@ 2514
榕 2513
Life 2511
誅 2511
魨 2511
fr@@ 2510
吡@@ 2510
颈@@ 2510
Web 2509
Es@@ 2507
沼 2507
Red 2506
駁@@ 2506
枕@@ 2505
酰 2504
anc@@ 2503
瘦@@ 2503
虔@@ 2502
颖 2502
氛@@ 2501
ations 2498
1700 2497
1858 2497
me@@ 2497
ari 2496
ba@@ 2495
慨 2495
须@@ 2495
π 2494
猩 2491
Mal@@ 2490
悲 2490
摺 2489
霉@@ 2489
骆@@ 2489
謹 2488
擢@@ 2486
竖@@ 2486
Medi@@ 2485
峯 2482
晏@@ 2481
炳 2480
翟@@ 2480
FM 2479
塗 2479
擴 2479
巷@@ 2477
焉 2477
睦 2477
House 2475
aj@@ 2475
鑫 2475
FA 2472
ire 2471
咪 2471
寂@@ 2471
懿@@ 2471
肠@@ 2470
褲 2470
笛@@ 2467
窑@@ 2465
1859 2464
雛@@ 2464
BN 2463
脸 2461
鑲@@ 2461
罷 2459
恪 2458
抹 2458
EC@@ 2457
Im@@ 2457
ド 2456
撥 2456
Sc@@ 2455
币@@ 2455
镶@@ 2455
va 2454
お 2454
VP 2453
マ 2453
Man 2452
煩 2451
胃 2451
Big 2449
tra 2449
谦@@ 2449
RC 2448
軒@@ 2448
諷 2446
倖@@ 2444
Inst@@ 2443
逻 2443
du 2442
Fo@@ 2441
厨@@ 2441
齡@@ 2441
鈉 2439
Gre@@ 2438
now 2438
殷 2436
Sur@@ 2435
侖 2435
cor@@ 2434
钥 2433
妓 2430
遼 2429
鯛@@ 2429
陌@@ 2427
1854 2426
oy@@ 2425
誦 2424
1857 2423
ning 2421
れ 2420
gen@@ 2419
尿 2418
yp@@ 2417
詠@@ 2417
Red@@ 2413
闲@@ 2412
曦 2411
art 2410
櫃@@ 2410
瑩 2410
King 2409
No 2409
ome 2409
娄@@ 2409
拼 2408
爷 2408
PP@@ 2407
iv@@ 2407
AG 2405
棺@@ 2405
毯 2405
腥 2403
鵡 2402
屢 2401
tions 2400
皓 2400
羚 2400
衆 2399
滯 2398
鞘 2398
虛 2395
com@@ 2394
倖 2394
炒 2394
暨@@ 2393
泾@@ 2393
ada 2392
莞@@ 2391
諡@@ 2391
吻@@ 2390
梗@@ 2389
煮@@ 2389
Richard 2388
Gam@@ 2387
黔 2387
□ 2386
噬 2386
窝 2385
蛮 2385
辰@@ 2385
NASA 2384
aria 2381
矽@@ 2380
祷 2380
Bor@@ 2379
賄@@ 2378
伞@@ 2376
min@@ 2375
長@@ 2375
毘 2374
铝@@ 2373
渣@@ 2372
铃@@ 2372
wer@@ 2371
凍@@ 2371
樺 2371
丕 2370
誼@@ 2370
1856 2369
ins 2369
抹@@ 2369
曜 2369
债 2368
涂 2367
绳 2367
Limited 2366
盒@@ 2366
ster 2365
レ 2365
ek 2364
卤@@ 2363
NBC 2362
Wo@@ 2361
睿@@ 2361
饶 2361
lan@@ 2360
腿@@ 2360
谣 2360
躲 2359
俱 2357
渲@@ 2356
San 2355
卉 2355
磺@@ 2353
沐@@ 2351
顎 2350
EE 2349
忽 2349
殘 2349
笨@@ 2349
ov 2348
央 2348
嫩@@ 2348
訥 2347
纜 2346
块@@ 2345
Ul@@ 2344
匪@@ 2344
稿@@ 2344
鉤 2344
披 2343
祺@@ 2342
疹 2341
钙 2341
λ 2340
綏@@ 2340
鱗 2340
崖@@ 2339
Hor@@ 2338
叱@@ 2338
淚@@ 2338
key 2337
摸 2337
Cas@@ 2336
諒 2336
鹅@@ 2336
ement 2335
毆 2334
铸 2334
Bre@@ 2333
禺 2333
饲@@ 2333
証 2332
鏈@@ 2331
氦 2328
鄧 2328
Wal@@ 2327
AE@@ 2326
Company 2326
帐@@ 2325
晖 2323
皈@@ 2323
1851 2322
焚 2321
穹@@ 2321
鍋 2321
隼 2321
Project 2320
攬 2320
Mus@@ 2319
釘 2319
del 2318
禽@@ 2318
虚 2318
鄞@@ 2318
骤 2318
Studio 2317
纬@@ 2317
Gal@@ 2316
ame 2315
pe 2314
ich 2313
靼 2313
ico 2311
○ 2311
籠@@ 2309
Tor@@ 2308
妄@@ 2308
湄@@ 2308
肚 2308
銳@@ 2308
LA 2307
Play@@ 2307
裸 2307
XX 2306
ww@@ 2306
org 2305
si 2304
bit 2303
执 2303
苔@@ 2302
ち 2301
嬪 2301
畝 2301
虾 2299
皖 2298
萝@@ 2297
Astr@@ 2296
脏@@ 2296
Is@@ 2295
ting 2295
row 2294
adi@@ 2293
儡 2293
颈 2293
溺@@ 2291
return 2290
CBS 2289
辜 2288
Op@@ 2287
缆 2287
elle 2284
坤@@ 2284
Vo@@ 2283
ach 2283
ish 2283
mer@@ 2283
祚 2283
鈾 2283
軼@@ 2282
崙@@ 2280
Lu@@ 2279
憩 2279
胖 2279
op 2278
乍@@ 2278
氨 2278
China 2277
藔 2277
忒 2276
毙 2276
穗@@ 2276
臻 2276
ection 2275
篮 2275
踏 2275
劝 2274
濁 2274
蛙@@ 2274
傭@@ 2272
敕@@ 2272
Sec@@ 2271
稠@@ 2271
辩 2270
ο 2269
American 2268
坍@@ 2268
ç 2266
拷@@ 2266
庾@@ 2263
肛@@ 2262
Air 2261
犁@@ 2261
壺 2259
21@@ 2257
諫 2255
鸦 2254
緝 2252
eta 2249
斧 2249
欄@@ 2249
豎@@ 2249
謹@@ 2248
駱@@ 2247
HC 2246
ai@@ 2246
type 2246
沮@@ 2246
AB 2245
諧@@ 2245
趟 2245
暉 2244
滬@@ 2244
my 2243
uk@@ 2243
du@@ 2242
猫@@ 2241
dia 2238
Ke@@ 2237
溃@@ 2237
ud@@ 2236
汴@@ 2236
揆 2235
磊 2235
Wil@@ 2234
Em@@ 2233
Sim@@ 2233
lock 2233
忌@@ 2233
雍 2233
van 2232
we@@ 2231
丸@@ 2231
179@@ 2230
ura 2230
匀 2230
洩@@ 2230
硼@@ 2229
Day 2228
勘 2228
苓 2226
Eng@@ 2225
們@@ 2225
啸 2225
窝@@ 2225
筹 2225
蜴 2225
± 2222
窃 2221
鍋@@ 2221
锦 2221
SE 2217
Vol@@ 2217
霜@@ 2215
夠@@ 2214
淤@@ 2214
1855 2213
ML@@ 2213
mi 2213
蒲 2213
Can@@ 2212
哨@@ 2212
閃 2212
嗜@@ 2211
繹 2211
舜 2211
敛 2210
囚 2209
筒@@ 2209
耦@@ 2209
谕 2209
濾 2208
斃 2207
昊 2207
绪@@ 2207
菁@@ 2207
楓 2205
蔷@@ 2205
龄@@ 2205
姻@@ 2204
溥@@ 2204
珂 2204
寨@@ 2203
隍 2203
ote 2202
攤@@ 2202
湊 2202
锌 2202
ism 2201
que 2201
Ros@@ 2199
not 2199
alis 2198
â 2198
偿@@ 2198
抑 2198
漕@@ 2198
RA 2195
my@@ 2195
茜@@ 2195
饒@@ 2195
ford 2194
淄@@ 2194
伞 2193
珪 2193
逊@@ 2193
http 2192
ith 2192
缔@@ 2192
鱈 2192
oh@@ 2191
Al 2190
咒@@ 2190
1847 2189
ost 2187
冻@@ 2187
淞@@ 2186
Ger@@ 2185
狱@@ 2184
tor@@ 2182
Ni@@ 2181
肆@@ 2181
剂@@ 2180
1841 2178
Vis@@ 2178
ents 2178
Des@@ 2177
肽 2176
毋@@ 2175
bl@@ 2174
懂@@ 2173
榕@@ 2170
汰@@ 2169
Tai@@ 2167
顏 2166
ish@@ 2165
奋 2165
ly@@ 2163
von 2162
弊@@ 2161
乞 2160
ye 2158
Boy 2157
Ri@@ 2157
ú 2156
淀 2156
ind@@ 2154
も 2154
尧@@ 2154
槳 2153
Girls 2152
捧 2152
峭 2151
繡 2151
銜@@ 2151
Road 2149
蔗 2149
郸 2149
ard@@ 2148
hy@@ 2147
洁@@ 2146
1852 2143
NS@@ 2143
龔@@ 2142
冀 2141
馳 2141
Sk@@ 2140
愚 2140
ail@@ 2139
厘 2139
鋁 2139
绳@@ 2138
嘎 2137
沫@@ 2137
铅@@ 2137
鴉 2137
Fin@@ 2136
侃 2136
Cam@@ 2135
new 2135
樞 2135
厉 2134
鳞 2133
尘 2132
纏 2132
坊@@ 2131
浑@@ 2131
Ltd 2130
圃 2130
肚@@ 2130
Sa@@ 2129
ast@@ 2129
ola 2129
鹼 2129
berg 2128
祺 2128
新加@@ 2127
AF@@ 2126
莒@@ 2126
匾@@ 2125
靶@@ 2125
濬 2124
class 2121
唤 2121
壹@@ 2121
搖 2121
椅@@ 2120
潰@@ 2120
邓 2120
厲@@ 2119
稳 2119
膝 2119
臧@@ 2119
Galax@@ 2117
繆@@ 2116
Bal@@ 2115
oo 2115
扯 2115
琰 2115
Force 2114
谥 2113
ee 2112
龟@@ 2112
Sam@@ 2111
オ 2111
誇@@ 2110
諱 2110
aus@@ 2109
謠@@ 2109
艷@@ 2108
绵 2107
1849 2106
oma 2106
ave 2105
匈 2105
綿 2105
敕 2104
诞 2103
Bro@@ 2102
NS 2102
锐@@ 2102
忧@@ 2101
铅 2100
拾@@ 2099
筛@@ 2099
ville 2097
廊@@ 2097
腎 2095
妝@@ 2094
ista 2093
闯@@ 2093
鲸 2092
溥 2091
笙 2091
SI 2090
柜 2090
鳩 2090
劑@@ 2089
EC 2088
妈@@ 2088
pa 2086
脸@@ 2086
à 2085
琶 2085
铀 2085
フ 2084
嶺@@ 2084
锂 2084
郵 2082
Pas@@ 2080
1815 2079
Nor@@ 2079
廂@@ 2078
眷 2078
蠟@@ 2078
1846 2076
Ti@@ 2076
σ 2076
沁 2075
芽@@ 2075
厭 2073
蕴@@ 2073
瀛 2072
猜 2072
圻 2070
颠@@ 2070
Sm@@ 2069
檻 2069
腔@@ 2068
赶 2067
摘 2066
泌@@ 2066
鸭 2065
у 2063
兜@@ 2063
蚊@@ 2063
谊@@ 2063
鼬 2063
sa@@ 2061
勛 2061
Hall 2060
field 2060
戍@@ 2060
泸@@ 2060
汲@@ 2059
cu@@ 2057
匡 2057
潼@@ 2057
鞭 2057
挑 2056
ε 2054
叡 2054
嘆 2054
д 2053
ita 2052
unc@@ 2052
ding 2050
鹼@@ 2050
Rec@@ 2049
绒 2049
儂 2048
Mob@@ 2047
well 2047
Au@@ 2046
eli@@ 2045
lar@@ 2045
闊@@ 2045
絮 2044
arr@@ 2043
tro@@ 2043
穎@@ 2043
ρ 2042
ori@@ 2041
ل 2041
← 2041
裘@@ 2041
暢 2040
1820 2039
ates 2039
垦 2038
庇 2038
悔@@ 2038
fin@@ 2037
侠@@ 2037
衢@@ 2037
赣 2037
扑@@ 2036
烘@@ 2036
畸@@ 2036
輩@@ 2036
佑@@ 2033
励@@ 2033
紳@@ 2033
鉛 2033
肋 2032
萎@@ 2032
帥@@ 2031
悚@@ 2031
Dre@@ 2030
蘿 2030
1845 2029
瞿@@ 2029
ike 2027
沂 2027
鯊@@ 2027
惹@@ 2026
Tel@@ 2025
厉@@ 2025
霰@@ 2025
Ru@@ 2024
飢@@ 2024
1844 2022
go@@ 2021
悖@@ 2021
South 2019
昧 2019
ex 2017
eo 2016
稷 2016
Sy@@ 2015
Cap@@ 2014
晤 2014
Hel@@ 2013
迹@@ 2013
夹 2012
ology 2011
靴 2011
ters 2010
ys@@ 2009
逾@@ 2009
col@@ 2008
Association 2007
Records 2007
ble 2007
Pre@@ 2006
騙@@ 2006
oni@@ 2005
恤 2005
É 2004
ath 2003
ν 2002
辜@@ 2002
飘@@ 2002
cap@@ 2001
绎 2001
乏@@ 1998
鈣 1997
鑿 1997
齣 1997
Web@@ 1996
Vir@@ 1995
吟 1995
hu@@ 1994
CEO 1992
劲 1992
邑@@ 1992
譚 1991
苷@@ 1990
頑@@ 1990
靡 1989
ette 1988
菁 1987
Bu@@ 1986
擱@@ 1986
燦@@ 1986
ash@@ 1985
搏@@ 1985
play 1984
芮@@ 1984
遙 1984
す 1983
Mil@@ 1982
姪 1982
岔 1982
惱 1982
簧@@ 1982
馈 1982
茉@@ 1981
Pan@@ 1980
吟@@ 1978
ei 1977
況@@ 1977
遵 1977
锥@@ 1977
枫@@ 1976
驰 1976
‰ 1972
賃 1972
ro 1971
敘 1971
Play 1970
煉@@ 1970
磐@@ 1970
虧@@ 1969
棺 1967
馳@@ 1967
濠 1966
萧 1966
遴@@ 1966
甦 1964
碉@@ 1962
you 1961
庸@@ 1961
North 1960
ney 1960
殲@@ 1960
Direc@@ 1959
颖@@ 1958
嘻@@ 1957
撃 1957
骂 1957
鬍 1957
鲤@@ 1957
聪 1956
︰ 1956
Char@@ 1955
濮@@ 1955
Best 1954
Le 1954
楷@@ 1954
濁@@ 1954
瑤 1954
1812 1953
ock 1953
暱 1953
産 1953
じ 1952
咽@@ 1952
陋 1952
this 1951
薰 1951
噸@@ 1950
Black 1947
por@@ 1947
櫻 1946
朽 1945
蒋 1945
1843 1942
Na@@ 1942
坟@@ 1942
ian 1941
Max 1940
sion 1939
傾 1938
毫 1938
fac@@ 1935
Sony 1934
ici@@ 1933
old 1933
WWE 1932
几 1932
Reg@@ 1931
侬 1931
礙@@ 1931
纜@@ 1931
臭 1931
ky 1930
鈕 1930
濃 1929
绣 1929
糯@@ 1928
1814 1926
佣 1924
僱 1923
浜 1923
HP 1921
1842 1920
Du@@ 1920
Mir@@ 1920
so 1920
渥@@ 1919
谨@@ 1919
DI 1918
ger 1918
楔@@ 1918
潞@@ 1918
铃 1918
Lee 1917
ja 1917
憤 1917
脆 1917
酬@@ 1917
蒸 1915
薹 1915
煥 1914
鑲 1914
棱 1913
wan 1911
凸 1910
紗@@ 1909
驾 1909
New@@ 1908
Tal@@ 1908
dy 1908
萌 1908
雁 1908
cul@@ 1906
芷@@ 1906
enn@@ 1904
Don 1903
ally 1903
ep 1903
枣@@ 1903
tel@@ 1902
ã 1902
绒@@ 1902
king 1901
ars 1900
ô 1898
佣@@ 1898
ds 1897
キ 1896
羧@@ 1896
Kong 1895
覓 1895
Mad@@ 1894
osaur@@ 1894
灌 1894
瞻@@ 1893
res@@ 1892
弈 1892
汕 1892
Res@@ 1891
To 1891
Henry 1889
Jean 1889
Luc@@ 1889
嬰 1888
佬 1885
Internet 1883
igh@@ 1883
隘 1883
猷 1882
pha 1881
墊 1881
斡@@ 1881
羲 1881
遏@@ 1881
烦 1880
裳 1880
鳍 1880
尘@@ 1879
搁@@ 1877
皂 1877
tin 1876
っ 1875
夭@@ 1875
膺 1875
駝 1875
哆 1874
朋 1874
閔@@ 1874
滋 1872
ech 1871
凹 1871
詛@@ 1870
扔 1869
橙 1868
浑 1868
跡@@ 1868
胺@@ 1867
岔@@ 1866
爺@@ 1866
磺 1865
晟 1863
檀 1863
磐 1863
绰@@ 1863
ula 1862
奚@@ 1862
栖 1861
粵 1860
苑@@ 1860
逵 1860
驕@@ 1860
del@@ 1858
畅 1858
缅 1858
貸 1858
eri 1857
滄@@ 1857
苟@@ 1856
つ 1855
詹 1855
ema 1854
蜡@@ 1854
United 1853
up 1853
倦 1853
茄@@ 1853
м 1852
ever 1851
ミ 1850
燮 1850
ace@@ 1849
卧 1848
偕 1845
冻 1845
Up 1844
ii 1844
mag@@ 1844
芸 1844
Girl 1842
挫 1842
pre@@ 1841
ser@@ 1841
锅 1841
ast 1840
挤 1840
兑@@ 1839
We 1838
ida 1838
ison 1838
钊 1838
aga 1837
樵 1837
ime 1836
Je@@ 1835
ets 1835
tis 1835
歲@@ 1835
贿 1835
寅@@ 1834
冶 1833
滞@@ 1833
煞@@ 1833
Joseph 1832
La@@ 1832
滤 1832
璽 1832
BI 1831
瀋 1831
肪@@ 1831
δ 1830
蹄 1830
light 1829
汐@@ 1829
Martin 1828
Prot@@ 1828
兇 1825
渣 1825
耐 1825
コ 1824
Tre@@ 1823
τ 1823
吨@@ 1823
叢 1821
稚@@ 1821
Ty@@ 1820
镍 1820
Cur@@ 1819
els 1819
甥 1819
萃 1819
侗@@ 1818
ym@@ 1817
濂 1817
竿 1816
躺 1816
昨@@ 1815
壕 1814
蒐@@ 1813
Hi@@ 1812
凶 1812
靂 1812
anti@@ 1811
sc@@ 1811
sur 1811
呆 1811
Ca@@ 1810
鬱@@ 1810
鰻@@ 1808
勐@@ 1807
壢 1807
PR@@ 1806
绑 1805
谟 1805
謨 1804
寰 1802
Lev@@ 1801
鲨@@ 1800
洙 1799
菅@@ 1799
ko 1798
潑 1798
瞻 1798
顽@@ 1798
佚 1797
谐@@ 1797
噪 1796
帐 1796
潍@@ 1795
堇 1794
槃 1793
猿@@ 1793
饋 1793
篩@@ 1792
鋁@@ 1792
Grand 1791
War@@ 1791
sen 1791
Tom@@ 1789
懸 1788
Hong 1787
ft 1787
橇 1787
1789 1786
1832 1786
斋@@ 1786
inter@@ 1785
☆ 1785
冗@@ 1785
夔 1785
窩@@ 1784
撈 1783
lo 1781
冉@@ 1781
嫻 1781
ors 1780
^ 1777
柑@@ 1777
ans@@ 1776
兖@@ 1776
澜 1776
芋 1776
River 1773
芥@@ 1773
餉 1773
砸 1772
澈 1771
蠕@@ 1771
Hal@@ 1770
Ki@@ 1770
刮@@ 1768
鲨 1768
睦@@ 1767
Video 1766
chi@@ 1766
day 1766
孛 1766
枫 1766
薛 1766
劲@@ 1765
爐@@ 1765
Chil@@ 1764
搏 1764
臂@@ 1764
ler@@ 1763
敞@@ 1763
琮 1763
濫 1762
贷 1762
緬 1761
inc@@ 1759
沽 1758
僖@@ 1757
妃@@ 1757
1835 1756
嘯 1756
汙@@ 1756
蔭 1756
鞑@@ 1756
Ur@@ 1754
咤 1754
羰@@ 1754
蒜 1754
Star@@ 1752
泄 1752
ve@@ 1751
祉 1751
飄@@ 1751
1839 1750
Japan 1750
廖 1750
魄 1749
rom@@ 1748
Wat@@ 1747
Chr@@ 1746
吵 1745
炫@@ 1745
芮 1745
Ra@@ 1744
sol@@ 1744
艏 1744
苞 1744
Mur@@ 1743
ille 1743
凝 1743
Mul@@ 1742
埤 1742
缝@@ 1742
咎 1741
緝@@ 1741
荫 1741
Chi@@ 1740
Rem@@ 1740
fe@@ 1740
娛 1740
朕 1740
骗@@ 1740
Super@@ 1738
錐 1737
斛 1734
cre@@ 1733
俸 1733
Radio 1732
嚇@@ 1732
笃@@ 1732
餅@@ 1731
ha@@ 1730
1801 1729
醋 1729
amp@@ 1728
Rad@@ 1727
tes 1727
1821 1726
ales 1726
й 1726
堰@@ 1725
ez@@ 1721
1795 1720
Mak@@ 1720
穴@@ 1720
1838 1719
ted 1719
塌@@ 1719
寵 1719
渝@@ 1719
PM 1717
ς 1717
厝@@ 1717
綁@@ 1717
諮@@ 1717
褚@@ 1716
cl@@ 1715
瞞 1715
穫 1715
铵 1715
iss@@ 1714
ord@@ 1714
誘 1714
Jum@@ 1713
唑 1712
孀 1712
篠 1712
罢 1712
鳚 1712
Ir@@ 1711
舱@@ 1711
ni 1710
GM 1709
テ 1709
勻 1708
嫉@@ 1708
堕@@ 1707
1806 1706
GT 1706
ide 1706
ost@@ 1705
勾 1705
熵 1705
鰈 1705
1793 1704
拨 1704
枢 1703
唔 1702
ナ 1701
can@@ 1700
灶 1700
锥 1700
驼 1700
Power 1699
mat@@ 1699
Smith 1698
纏@@ 1698
腫 1698
ona 1697
淇 1696
薑 1696
1836 1695
ey@@ 1695
Bab@@ 1694
This 1694
ns 1694
凿 1694
婴 1693
捞 1693
虔 1691
ke@@ 1690
撼 1690
1792 1688
mann 1688
谏 1688
km2 1687
uch@@ 1687
沌 1687
澱 1687
酗@@ 1687
闽 1687
乂 1686
紗 1686
侄 1685
诬@@ 1685
ken 1684
嫔 1684
竭@@ 1684
Tw@@ 1683
ī 1683
叹 1683
炯@@ 1683
isa 1682
lis 1682
戛@@ 1682
焕 1682
Blue 1681
The@@ 1681
蘚 1681
刁@@ 1679
涯 1679
竇@@ 1678
ou 1677
over 1676
忙@@ 1676
鈔 1676
News 1675
erry 1675
All@@ 1674
樁 1674
tics 1673
ut 1673
墾@@ 1673
暮@@ 1673
arg@@ 1672
謬@@ 1672
ウ 1671
鈍 1671
妳 1670
や 1669
暑 1669
薨 1669
fl@@ 1667
pu@@ 1667
癮 1667
稀 1667
豔 1667
Nov@@ 1666
ix 1666
ブ 1666
檳@@ 1666
鑰@@ 1666
Be 1665
渾@@ 1665
昕 1664
Kh@@ 1663
瑶 1663
蹈@@ 1663
bre@@ 1662
筠 1661
貶 1661
Wh@@ 1660
ι 1660
帧 1660
宸 1659
酱 1659
镁 1659
left 1658
縛 1658
Tom 1657
煩@@ 1657
tical 1656
巔@@ 1656
pos@@ 1655
妝 1655
幌@@ 1655
擠@@ 1655
轎@@ 1655
Network 1654
ome@@ 1654
tive 1654
傭 1654
携 1654
炀@@ 1654
甬@@ 1654
粟 1654
the@@ 1653
wood 1653
he 1652
1837 1651
牽 1651
Young 1650
斩 1650
糞 1650
躁 1650
League 1649
Sun@@ 1649
go 1649
樸@@ 1649
汝 1649
cer@@ 1648
擒@@ 1648
篤@@ 1648
尬 1647
win 1646
俩 1646
殭 1646
Art 1645
face 1645
倭 1645
荧@@ 1645
Gl@@ 1644
棚@@ 1644
喚@@ 1643
摸@@ 1643
ñ 1642
だ 1642
愁 1642
釀 1642
遮 1641
Ben@@ 1640
« 1640
瀉 1640
炔 1640
谣@@ 1638
Book 1637
West 1637
set 1637
朵@@ 1637
饑 1637
cus 1636
眶 1636
粤 1636
耍 1636
裙@@ 1635
楨 1634
Pri@@ 1633
ax@@ 1633
掙@@ 1633
殆@@ 1633
砌@@ 1633
脾@@ 1633
Cer@@ 1632
ba 1632
倾 1631
溧@@ 1631
訝 1631
贖@@ 1631
醣 1631
Air@@ 1630
悄@@ 1630
螈 1630
anus 1628
淋 1628
綜 1628
die 1627
inn@@ 1627
span 1627
轍 1627
State 1625
サ 1625
槟 1625
1831 1624
Ga@@ 1623
泪 1623
嘗 1622
牒 1621
琥@@ 1621
繳 1621
雉 1621
Elec@@ 1620
Island 1620
Now 1620
Plus 1620
勿@@ 1620
圾@@ 1620
Cos@@ 1619
誣@@ 1619
洼@@ 1618
昱 1617
谨 1617
nam@@ 1616
氹 1616
秃@@ 1616
葆@@ 1615
蟬 1615
褒 1615
AF 1614
right 1614
Cro@@ 1611
渚 1611
绞@@ 1611
1824 1610
阡@@ 1610
輾@@ 1609
Blo@@ 1607
1825 1605
吓 1605
Sir 1604
耆@@ 1604
邏 1603
sub@@ 1602
兌@@ 1602
綸 1602
靳@@ 1602
form 1601
妊@@ 1601
Top 1600
ids 1600
仆 1599
扫 1599
粥 1599
驿@@ 1599
蜗@@ 1598
﹐ 1597
胖@@ 1596
淇@@ 1595
鉛@@ 1595
II@@ 1594
sk@@ 1594
嶋 1594
蠅 1594
sin@@ 1593
彼 1593
恥 1593
锯@@ 1593
駭@@ 1593
渥 1592
form@@ 1591
tu 1591
颂@@ 1591
ez 1590
nm 1590
son@@ 1590
诛@@ 1590
掷 1589
har@@ 1588
Leg@@ 1587
ful 1587
婺@@ 1586
盔@@ 1586
壳@@ 1585
Ha@@ 1584
Lam@@ 1583
戍 1583
榔 1583
欖 1583
鍾@@ 1583
锻@@ 1583
挤@@ 1580
瞰 1580
羚@@ 1579
iti@@ 1578
瑋 1578
拌 1577
謊@@ 1576
Institute 1575
of@@ 1574
毗 1572
蘆 1572
蚁 1572
﹑ 1572
1833 1571
檸@@ 1571
Nav@@ 1570
SR 1570
咪@@ 1570
敖 1570
闹@@ 1570
Eu@@ 1569
ω 1567
1790 1566
ature 1566
洽@@ 1566
瑄 1566
Gro@@ 1565
Home 1565
ム 1565
檬@@ 1565
韶 1564
溢 1563
膳 1562
脖@@ 1561
Production 1560
Bir@@ 1559
FF 1559
ems 1559
聊 1559
豹@@ 1559
譽@@ 1558
谭 1557
aya 1556
楓@@ 1556
鲸@@ 1556
use 1555
唸 1553
燦 1553
鋪@@ 1553
sy@@ 1552
峪@@ 1552
Asia 1550
垮@@ 1550
1804 1549
1810 1549
エ 1549
泼@@ 1549
Bank 1548
プ 1548
肤@@ 1548
骏 1548
Society 1547
ube 1547
叻 1546
栈 1545
ts@@ 1544
惜@@ 1544
廬@@ 1543
讳 1543
盼 1542
荡@@ 1542
驛 1542
loc@@ 1541
top 1540
乎@@ 1540
杏 1540
硼 1539
雳 1539
膳@@ 1538
饿 1538
anth@@ 1537
碟@@ 1537
亏@@ 1536
芸@@ 1536
mer 1535
媚 1535
Jack 1534
攸@@ 1534
慷@@ 1533
轿@@ 1533
Sel@@ 1531
och@@ 1531
畑@@ 1531
ota 1530
ua 1530
仑@@ 1529
庞 1529
汾 1529
庐 1528
摇 1528
鋰 1528
龕 1528
萃@@ 1527
蟾@@ 1527
DR 1526
Dream 1526
寡 1526
残 1526
窯 1526
隋 1526
摆 1525
垣@@ 1524
縫@@ 1524
which 1523
act 1522
ira 1522
伎 1522
桩 1522
煥@@ 1522
砷 1522
诈@@ 1522
Av@@ 1521
ole 1521
悍 1520
赎@@ 1520
羈@@ 1519
瀛@@ 1517
陂 1517
謎@@ 1516
爽@@ 1515
ə 1514
蛮@@ 1514
飽@@ 1514
ze@@ 1513
拐@@ 1512
偕@@ 1511
1799 1510
des@@ 1510
チ 1509
昵@@ 1509
诵 1509
Ly@@ 1507
Far@@ 1505
Research 1505
冢 1505
ie@@ 1504
tus 1504
撾 1504
璜 1504
aceae 1503
ins@@ 1503
妒 1503
Rock 1502
惕 1502
鉅 1502
Ban@@ 1501
琦@@ 1501
踪@@ 1501
cur@@ 1500
嬌 1500
醇@@ 1500
San@@ 1499
ze 1499
刹@@ 1499
簇 1499
bert 1497
can 1497
་ 1497
韌@@ 1497
lin 1496
ray 1496
暱@@ 1496
獄@@ 1496
篆@@ 1496
韃@@ 1496
Bul@@ 1495
https 1495
殴@@ 1495
Good 1494
Junior 1494
よ 1494
1809 1493
more 1493
聆@@ 1493
elec@@ 1492
グ 1492
ng@@ 1491
弯 1491
ty@@ 1490
鮨 1490
赂 1489
very 1488
垫 1488
筋@@ 1488
ila 1487
war@@ 1487
柵@@ 1487
Open 1486
che 1486
eph@@ 1486
衷@@ 1486
遥 1486
Tour 1485
bar@@ 1485
佥@@ 1485
呀 1485
舵@@ 1485
栅@@ 1484
Sports 1482
雌 1482
agon 1481
1834 1480
绅 1480
涪@@ 1479
瀾 1478
ニ 1477
丕@@ 1477
1822 1475
Award 1475
Magazine 1475
we 1475
閏 1475
Billboard 1474
First 1474
轶@@ 1472
Church 1471
Mont@@ 1471
White 1469
蟬@@ 1469
Moz@@ 1468
傻@@ 1467
襪@@ 1467
攤 1466
1813 1465
eme 1465
嫡 1465
淞 1465
po 1464
踩 1464
iki 1462
tur@@ 1462
ten 1461
皿 1461
Night 1460
» 1460
岱@@ 1460
Ter@@ 1459
trans@@ 1459
苛@@ 1459
慘 1458
歪@@ 1458
Kir@@ 1457
bor@@ 1457
け 1457
苞@@ 1457
Fri@@ 1455
廁 1455
槐 1455
1828 1454
デ 1454
ャ 1454
訟@@ 1453
辟@@ 1453
Service 1452
蕙 1452
蠢 1452
嵐 1451
葡 1451
鷲 1451
Christ@@ 1450
oto 1450
梧 1450
鹦@@ 1450
1826 1449
蘊@@ 1449
詭@@ 1449
Do 1448
掣 1448
暇 1448
葱 1448
鉉 1448
Mary 1447
埤@@ 1447
攏 1446
Channel 1445
Sar@@ 1445
scope 1444
ture 1444
瀚 1444
褶@@ 1444
Louis 1443
ato 1443
絨 1443
ce@@ 1442
rec@@ 1442
坳 1442
窃@@ 1442
Pin@@ 1441
Green 1440
贛@@ 1440
ela 1439
晃@@ 1439
湳 1439
璟 1439
For 1438
翎 1438
跪 1438
骄@@ 1438
氓 1437
酮@@ 1437
俸@@ 1436
剃@@ 1436
荫@@ 1436
肿 1435
1819 1434
IB@@ 1434
Lab@@ 1434
Your 1434
ache 1434
芜 1434
钮 1433
麴 1433
懋 1432
芦 1432
ness 1431
岷@@ 1430
澜@@ 1430
玺 1430
璞 1430
邺 1430
隴@@ 1430
鉀 1429
East 1428
ign@@ 1428
兜 1428
匝@@ 1428
遗 1428
バ 1427
奄@@ 1427
榆 1427
瘦 1427
冤 1426
擂@@ 1426
晏 1426
1807 1425
兗@@ 1425
嗜 1425
鄱@@ 1425
鷗 1425
擄 1424
枕 1424
滞 1424
1805 1423
Sub@@ 1423
Ⅱ 1423
丫@@ 1423
艳 1423
莹 1423
诠@@ 1423
1794 1421
Cat@@ 1421
楞 1421
Spe@@ 1420
pro@@ 1419
吼 1419
宠 1419
gl@@ 1418
倩 1418
Maria 1417
Ran@@ 1417
滩@@ 1417
稟 1417
钉 1416
De 1415
Point 1415
Ta@@ 1415
僚@@ 1415
桢 1415
謊 1415
Act 1414
Arts 1414
Dec@@ 1414
Line 1414
oa 1414
貧 1414
Is 1413
Corporation 1411
Sun 1411
bus 1411
哇@@ 1411
public 1410
吠@@ 1410
噬@@ 1410
玟 1410
Science 1409
Tro@@ 1409
竊@@ 1409
贖 1409
償@@ 1408
绸@@ 1408
1808 1407
Beau@@ 1407
ett 1407
椒@@ 1407
VII 1406
ili 1406
sti@@ 1406
曳 1406
view 1405
1791 1404
挾@@ 1404
闹 1404
ail 1403
eter@@ 1403
ust 1403
я 1403
煞 1403
邮 1403
ae@@ 1402
icus 1402
灼@@ 1402
秒@@ 1402
翊@@ 1402
靶 1402
Dor@@ 1401
銓 1400
1829 1399
star 1399
蛺@@ 1399
蝸@@ 1399
衬@@ 1399
谓@@ 1399
Cin@@ 1397
媛@@ 1397
忻@@ 1397
撓 1397
VI 1396
ington 1396
璇 1396
瘋 1396
拇@@ 1395
hi 1394
昔 1394
General 1392
have 1392
ling 1392
self 1392
š 1392
Az@@ 1391
rel@@ 1391
une 1391
│ 1391
倩@@ 1391
愧 1391
擅 1391
椿 1391
Ko@@ 1390
ops 1390
锈@@ 1390
昼@@ 1389
蔥 1389
Sen@@ 1388
訶@@ 1388
钞 1388
ega 1387
孢 1387
Mot@@ 1385
妲 1385
飪 1385
Edward 1384
fer@@ 1384
斂 1384
斧@@ 1384
査 1384
螂 1384
down 1383
uz@@ 1383
毓 1383
side 1382
俭 1382
僻 1381
喊@@ 1381
悅@@ 1381
楞@@ 1381
洩 1381
矯@@ 1381
詐@@ 1381
1823 1380
κ 1380
赢 1380
鼩 1380
El 1379
ュ 1379
Spr@@ 1378
Station 1378
睞 1378
肇 1378
Sin@@ 1377
黛 1377
Cir@@ 1376
叭 1376
Pres@@ 1375
don 1375
姨@@ 1375
迭 1375
1818 1374
湧 1374
芥 1374
Eur@@ 1373
迺@@ 1373
雏@@ 1373
况@@ 1372
叮@@ 1372
妆 1372
襯@@ 1372
鳅 1372
Not@@ 1371
敞 1371
Syst@@ 1370
ima 1370
ny 1370
癱@@ 1370
Battle 1369
tar@@ 1369
鄺@@ 1369
饷 1369
г 1368
绣@@ 1368
鸞 1368
Oc@@ 1367
1803 1366
len@@ 1366
匆@@ 1366
焘 1366
ali 1365
弥 1365
Chinese 1364
儉 1364
喃 1364
ies 1363
ple 1363
ster@@ 1363
ィ 1363
禍@@ 1363
诈 1363
ating 1362
攀 1362
趋 1362
彥@@ 1361
洮@@ 1361
1802 1360
Ba@@ 1360
厢@@ 1360
昶 1359
纂@@ 1359
鏢 1359
stein 1358
龛 1358
1816 1357
aph@@ 1357
oni 1357
佟@@ 1356
涿@@ 1356
Dem@@ 1355
yon@@ 1355
臼@@ 1355
麒 1355
amm@@ 1354
ms 1354
val@@ 1354
灑 1354
熄@@ 1354
mp@@ 1353
work 1353
鵰 1353
鑄 1352
Party 1351
los@@ 1351
パ 1351
硕 1351
Hill 1350
ن 1350
碁 1350
table 1349
Cu@@ 1348
歙@@ 1348
ste@@ 1347
ê 1347
伶 1347
煎 1347
蝽 1347
other 1346
嘱 1346
墜 1346
樟 1346
Juli@@ 1345
Rel@@ 1345
廚 1345
颍@@ 1345
Liv@@ 1344
彌 1344
艋 1344
旌@@ 1343
沅@@ 1343
瘓 1342
tom@@ 1341
蕃@@ 1341
1798 1340
Bet@@ 1340
Comm@@ 1340
oides 1340
虧 1340
cast 1339
僉 1339
檗 1339
ius 1338
ر 1338
舺 1338
黴@@ 1338
air 1337
崧 1337
碰 1337
胥 1337
ope 1336
tan@@ 1336
蓼 1336
As 1335
Ig@@ 1335
ハ 1335
杠 1335
long@@ 1334
struc@@ 1334
卿@@ 1334
堯@@ 1334
脅@@ 1334
葺 1334
Meg@@ 1333
ji 1333
え 1333
寝 1333
秩 1333
骁@@ 1332
ange 1331
撿 1331
歴 1331
Han@@ 1330
Shi@@ 1329
ides 1329
纱@@ 1329
骷@@ 1329
eus 1327
沾@@ 1327
ond@@ 1326
わ 1326
誡 1326
鎂 1326
Syn@@ 1325
締 1325
鹏@@ 1325
let 1324
咐 1324
囑 1324
鏽 1324
fa@@ 1323
una 1323
賂 1322
web 1321
峨 1321
蝦@@ 1321
Mike 1320
桅@@ 1320
殯@@ 1320
Royal 1319
ther@@ 1319
绩@@ 1319
缠@@ 1319
has 1318
頰 1318
辱@@ 1317
--@@ 1316
С 1316
CF 1315
LP 1315
ku@@ 1315
onn@@ 1315
tim@@ 1315
屎 1315
黯@@ 1315
Little 1314
扼@@ 1314
潟@@ 1314
蓟@@ 1314
1817 1313
199@@ 1313
Lang@@ 1313
Ol@@ 1313
eng 1313
wa 1313
煎@@ 1313
Plan@@ 1312
var 1312
伶@@ 1312
僉@@ 1312
剔@@ 1312
Hon@@ 1311
ß 1311
钻 1311
her@@ 1310
螨 1310
Digital 1309
mor@@ 1309
were 1309
赁 1309
zi@@ 1308
icul@@ 1307
sur@@ 1307
倘@@ 1307
膚@@ 1306
艳@@ 1306
Il@@ 1305
η 1305
Alexander 1304
Dy@@ 1304
first 1304
琉 1304
薯@@ 1304
Awards 1303
● 1303
檎 1303
诰 1303
Scott 1302
Tar@@ 1302
rit@@ 1302
匠@@ 1302
rive 1301
沥@@ 1301
籽 1301
践@@ 1301
辗@@ 1301
垦@@ 1299
壤@@ 1299
钩@@ 1299
驸@@ 1299
Coun@@ 1298
Daniel 1297
捆@@ 1297
滁@@ 1297
cal 1296
Mu@@ 1295
our@@ 1295
沽@@ 1295
笈 1295
Fac@@ 1294
fer 1294
逍@@ 1294
醮 1294
鬧@@ 1294
gre@@ 1292
缚 1291
瀝@@ 1290
缴 1290
Of 1289
ays 1289
凋@@ 1289
world 1288
錘 1288
髒 1288
Vel@@ 1287
ese 1287
ties 1287
墘 1287
櫛@@ 1287
wan@@ 1286
art@@ 1285
cher 1285
low@@ 1285
唤@@ 1285
謬 1285
Dou@@ 1284
瑤@@ 1283
Ever@@ 1282
sel@@ 1282
驰@@ 1282
ado@@ 1281
ven@@ 1281
ガ 1281
垫@@ 1281
Great 1280
Loc@@ 1280
urus 1280
莘@@ 1280
Rap@@ 1279
Sou@@ 1279
oud 1279
Kin@@ 1277
Rom@@ 1277
宵@@ 1277
醯 1277
钴 1277
Os@@ 1276
潢 1276
艙@@ 1276
貌@@ 1275
cal@@ 1274
lum 1274
咏@@ 1274
遁 1274
acy 1273
锤 1272
dition 1271
Ham@@ 1269
ality 1268
opsis 1268
窒@@ 1268
窖 1268
Mari@@ 1267
掖 1267
兀 1266
徘@@ 1266
梵 1266
榄 1266
緒@@ 1266
腕@@ 1266
刪 1264
get 1263
con 1262
堺 1261
晦 1261
槐@@ 1261
皂@@ 1261
yle 1260
ひ 1260
洼 1260
Tim@@ 1259
湊@@ 1259
舷@@ 1259
孺 1258
綾@@ 1257
蚕@@ 1257
メ 1256
拂@@ 1256
ond 1255
tory 1255
tem@@ 1254
憎@@ 1254
Conn@@ 1253
Technology 1253
焕@@ 1253
苳 1253
莺 1253
Master 1252
п 1252
ダ 1251
佗 1251
oll@@ 1250
咳@@ 1249
騷 1249
Aut@@ 1248
奘 1248
滯@@ 1248
胥@@ 1248
Jr 1247
ip@@ 1247
攜 1247
蘑@@ 1247
lia 1246
孺@@ 1246
win@@ 1245
his 1244
婢 1244
Kn@@ 1243
zo 1243
彬@@ 1243
柩 1243
賭 1243
鹃@@ 1243
off 1242
佃@@ 1242
肘 1241
膀@@ 1241
姨 1240
阙 1240
ats 1239
atum 1239
Saf@@ 1238
砸@@ 1238
err@@ 1237
彝 1237
魮 1237
Frank 1236
Software 1236
侈 1236
勵@@ 1236
拙 1236
Hot 1235
Mol@@ 1233
She@@ 1233
function 1233
歳 1233
涧 1233
誥 1233
Brown 1232
len 1232
釉 1232
鬣@@ 1232
鹘 1232
eth 1230
yst@@ 1230
烽@@ 1230
皓@@ 1230
裴 1230
But@@ 1229
瘫@@ 1229
Union 1228
ati 1228
鞍 1228
餵 1228
res 1227
坟 1227
湍@@ 1227
180@@ 1226
Bon@@ 1226
lat@@ 1226
let@@ 1226
螯 1226
″ 1225
妆@@ 1225
Lake 1224
tre@@ 1224
yn 1224
嚮 1224
曬 1224
Sor@@ 1223
Global 1222
War 1222
ef@@ 1222
悦@@ 1222
腭 1222
ern@@ 1221
谎@@ 1221
刹 1220
蝇 1220
Mah@@ 1219
core 1219
抬 1219
歉@@ 1219
栃 1218
膛@@ 1218
荼 1218
煜 1217
睾@@ 1217
闰 1217
1827 1216
沱@@ 1216
Ev@@ 1215
Techn@@ 1215
蠻@@ 1215
system 1214
栓@@ 1214
徊 1213
灶@@ 1213
贬 1213
ko@@ 1212
滦@@ 1212
Ple@@ 1211
堃 1211
弼@@ 1211
簷 1211
账 1211
act@@ 1210
sen@@ 1210
蔔 1210
Chris 1209
inus 1209
θ 1209
筱@@ 1209
谜 1209
Pat@@ 1208
焰@@ 1208
He 1207
Mic@@ 1207
thi@@ 1207
Model 1206
嗓@@ 1206
骚 1206
Bay 1205
忱 1205
桅 1205
绸 1205
謗 1205
ito 1204
mel@@ 1204
mu@@ 1204
冼@@ 1204
娩 1204
癖 1204
喇 1203
鑰 1203
Cup 1202
Dar@@ 1202
檯 1201
蔗@@ 1201
Ku@@ 1200
orer 1200
Joe 1199
York 1199
ي 1199
槌 1199
Anim@@ 1198
Journal 1198
Series 1198
璐 1198
繕 1198
erg@@ 1197
isi@@ 1197
甯 1197
痪 1197
Sand@@ 1196
崴 1196
挠 1196
疣 1196
Santa 1195
Sn@@ 1195
Special 1195
hor@@ 1195
red 1195
瀧@@ 1194
Pen@@ 1193
alus 1193
抢 1193
Camp@@ 1192
Pa@@ 1192
凳 1191
馴@@ 1191
air@@ 1190
ital 1190
ë 1189
ō 1188
婁@@ 1188
趾@@ 1188
م 1187
膏@@ 1187
鲷 1187
iy@@ 1186
筲@@ 1186
lem@@ 1185
ビ 1185
钝 1185
闖 1185
Andrew 1184
め 1184
琅@@ 1184
顛 1184
驯@@ 1184
atr@@ 1183
ь 1183
佘@@ 1183
惇 1183
郴@@ 1182
蔽@@ 1181
蟹@@ 1181
霉 1181
1811 1180
Laur@@ 1180
Out@@ 1180
Square 1180
ik 1180
纶 1180
蜱 1180
Lady 1179
Mem@@ 1179
廓@@ 1179
轎 1179
鈔@@ 1179
Amaz@@ 1178
but 1178
攔 1178
笃 1178
臼 1178
韬 1178
屠 1177
炉@@ 1177
Ci@@ 1176
tia 1176
垮 1176
釜 1176
Lis@@ 1175
Vie@@ 1175
櫚@@ 1175
糸 1175
镶 1174
Free 1173
燭 1173
衮 1173
Stu@@ 1172
inae 1172
寞 1172
揽 1172
杞 1172
inger 1171
Express 1169
SK 1169
胄 1169
讽 1169
Mess@@ 1168
铉 1167
ular 1166
髻 1166
eri@@ 1165
tho@@ 1165
tro 1165
僭 1165
忒@@ 1165
Les 1164
aris 1164
fol@@ 1164
pot 1164
su 1164
賄 1164
踝 1164
An 1163
喆 1163
嬉@@ 1163
磋@@ 1163
φ 1162
薰@@ 1162
鸠 1162
Space 1161
Town 1161
tal@@ 1161
try 1161
樽 1161
莪 1161
Down 1160
粲 1160
艇@@ 1160
Press 1159
鞠@@ 1158
鵬@@ 1158
沾 1157
Christian 1156
ision 1156
羣 1156
鈎 1156
钛 1156
Cel@@ 1155
Museum 1155
yg@@ 1155
198@@ 1154
Lov@@ 1154
捏@@ 1153
犀 1153
膦 1153
Gil@@ 1152
Ram@@ 1152
Tou@@ 1152
杞@@ 1152
柠@@ 1152
綢 1152
賺@@ 1151
郸@@ 1151
鎚 1151
饪 1151
WW@@ 1150
pin@@ 1149
― 1149
ょ 1149
纱 1149
铬 1149
瘾 1148
瑰@@ 1147
Rob@@ 1146
Shar@@ 1146
az 1146
榴 1146
Bill 1145
咏 1145
NCAA 1144
窄@@ 1144
驹 1144
Code 1143
Obj@@ 1143
cha 1143
泵@@ 1143
綺@@ 1143
Don@@ 1142
FIFA 1142
Micro@@ 1142
What 1142
edi@@ 1142
ろ 1141
殲 1141
泼 1141
艉 1141
鋅 1141
钥@@ 1141
1797 1140
kin 1140
sky 1140
吒 1140
嗅@@ 1140
痴@@ 1140
羁@@ 1140
謁 1140
鈦 1140
Council 1139
ado 1139
aw 1139
竄 1138
Dol@@ 1137
vel@@ 1137
祸@@ 1137
DV@@ 1136
珉 1136
耻 1136
肄@@ 1136
＋ 1136
Gh@@ 1135
aster 1135
鎧@@ 1135
bo 1134
缔 1134
圩 1133
妤 1133
鱇 1133
Lor@@ 1132
ater 1132
lie 1132
nch@@ 1132
卅@@ 1132
糟 1132
ck 1131
么@@ 1131
驿 1131
Stor@@ 1130
back 1130
糕@@ 1130
bas@@ 1129
mas@@ 1129
闕 1129
鴿 1129
Dev@@ 1127
Mos@@ 1127
Roc@@ 1127
case 1127
莽@@ 1127
Mov@@ 1126
蔑 1126
釉@@ 1126
May@@ 1125
eti@@ 1125
禱@@ 1125
跪@@ 1125
闇 1125
Heart 1124
acc@@ 1124
荥@@ 1124
疵 1123
鮭 1123
浊 1122
艷 1122
kin@@ 1121
ying 1121
data 1119
ental 1119
two 1119
弩 1119
耿 1119
麽 1119
istr@@ 1118
蟒 1118
dium 1117
翹 1117
稠 1116
絞@@ 1116
鮟 1116
non 1115
捧@@ 1115
氾 1115
渦 1115
翊 1115
asi@@ 1114
opter@@ 1114
ri 1114
峻@@ 1114
London 1113
愷 1113
ski 1112
宕 1111
挡@@ 1111
pop 1110
奬 1110
聆 1110
hr@@ 1109
ul 1109
匣@@ 1109
б 1108
馏 1108
Summer 1107
ely 1107
esis 1107
嫂 1107
尝 1107
柚@@ 1107
邵 1107
Bat@@ 1106
not@@ 1106
倪 1106
兮 1106
Ash@@ 1105
Kon@@ 1105
ga 1105
reg@@ 1105
羞 1105
逕 1105
ais 1104
ret 1104
噴 1104
诱 1104
琨 1103
蝎@@ 1103
ald 1102
yan@@ 1102
锰 1101
Coll@@ 1100
Plat@@ 1100
Sof@@ 1100
dic@@ 1100
ean 1100
拢 1100
廬 1099
矚@@ 1099
Run@@ 1098
gen 1098
⋯ 1098
履 1098
onia 1097
佤@@ 1097
呤 1097
夾 1097
扭 1097
畠 1097
裤 1097
誹@@ 1097
America 1096
tion@@ 1096
Centre 1095
under@@ 1095
厕@@ 1095
拐 1095
檬 1095
Fal@@ 1094
剎@@ 1094
＂ 1094
ox@@ 1093
ces 1092
唾@@ 1092
诫 1092
谅 1092
Produc@@ 1091
ズ 1091
碇 1091
荆 1091
贩 1091
驟@@ 1091
Black@@ 1090
Festival 1090
Nic@@ 1090
ule 1090
塚@@ 1090
腈 1090
Steve 1089
摔 1089
撇@@ 1089
穹 1089
膩 1089
Enter@@ 1088
wn 1088
楣 1088
镀@@ 1088
顱@@ 1088
chin@@ 1087
enc@@ 1087
ы 1087
峪 1087
缉@@ 1087
蕉@@ 1087
1st 1086
Eric 1086
Soc@@ 1086
Mach@@ 1085
Two 1085
灘@@ 1085
脇 1085
tra@@ 1084
鷺 1084
Cle@@ 1083
cop@@ 1083
sh 1083
檐@@ 1083
泪@@ 1083
臥 1083
麼@@ 1083
Sem@@ 1082
吵@@ 1082
茛@@ 1082
蘊 1082
璘 1081
ext 1080
丐 1080
颅@@ 1080
action 1079
don@@ 1079
ger@@ 1079
槭 1079
幽 1078
曜@@ 1078
蕈 1078
鋸 1078
閑 1078
Chap@@ 1077
Pur@@ 1077
Tan@@ 1077
恺 1077
鐮@@ 1077
钓 1077
main 1076
蔑@@ 1076
媳@@ 1075
FL 1074
Pap@@ 1074
sw@@ 1074
緋@@ 1074
婉 1073
醬@@ 1073
Sav@@ 1072
Studios 1072
蚜 1072
髓@@ 1072
Central 1071
ree 1071
汛 1071
鮭@@ 1071
less 1070
佬@@ 1070
Management 1069
³ 1069
谜@@ 1069
Acc@@ 1068
瀕 1068
競 1068
uy@@ 1067
厌 1067
暈 1067
aft 1066
ч 1066
Rho@@ 1065
ø 1065
贻@@ 1065
GC 1064
Place 1064
Tow@@ 1064
ser 1064
モ 1064
揭 1064
褲@@ 1064
Dance 1063
SG 1063
А 1063
瑕@@ 1063
竺@@ 1063
诽@@ 1063
men 1062
狡@@ 1062
涨@@ 1061
玖 1061
褐 1061
迥@@ 1061
Comput@@ 1060
ci 1060
ham 1060
nh@@ 1060
syn@@ 1060
巒 1060
愤 1060
暮 1060
漱@@ 1060
猝@@ 1060
Form@@ 1059
Pierre 1059
fil@@ 1059
滥 1059
瞳@@ 1059
荊 1059
镰@@ 1059
Kan@@ 1058
Progr@@ 1058
cin@@ 1058
plic@@ 1058
ē 1058
帅@@ 1058
搜 1058
赚@@ 1058
USS 1057
elli 1057
晷 1057
宦 1056
蔓 1056
inal 1055
凑 1055
喘 1055
櫸 1055
Design 1054
峭@@ 1054
邂@@ 1054
鹉 1054
Mid@@ 1053
梢 1053
藜 1053
Spir@@ 1052
vis@@ 1052
焉@@ 1052
绛 1052
Sky 1051
Sym@@ 1050
vol@@ 1050
蔻 1049
Arch@@ 1048
Bos@@ 1048
ights 1048
刮 1048
昊@@ 1048
］ 1048
ader 1047
扔@@ 1047
祷@@ 1047
酱@@ 1047
肾 1046
逅 1046
颁 1046
ket@@ 1045
扈@@ 1045
鞅 1045
Men@@ 1044
bar 1044
鹛 1044
Kal@@ 1043
哩@@ 1043
胱 1043
＝ 1043
Fantas@@ 1042
arm@@ 1042
懲 1042
邕 1042
pan@@ 1041
咕@@ 1041
咽 1041
Poly@@ 1040
惰@@ 1040
［ 1040
Football 1039
П 1039
婪 1039
碲 1039
鈕@@ 1039
麝@@ 1039
潼 1038
Ben 1037
Yah@@ 1037
ū 1037
踞 1037
銃 1037
鳃 1037
Med@@ 1036
豌@@ 1035
頤 1035
叟 1034
碾@@ 1034
輿 1034
嘧@@ 1033
Om@@ 1032
و 1032
Kit@@ 1029
壠 1029
笋 1029
羹 1029
萍@@ 1029
pol@@ 1028
sal@@ 1028
罄 1028
esa 1027
Δ 1027
せ 1026
曇 1026
Bob 1025
Clar@@ 1025
aka 1025
ault 1025
bal@@ 1025
bir@@ 1025
ume 1025
懈 1025
纤 1025
蓉@@ 1025
Jer@@ 1024
Si 1024
Van 1024
蝗@@ 1023
Math@@ 1022
active 1022
ide@@ 1022
溜 1022
煦 1022
贮@@ 1022
Rol@@ 1021
夸 1021
柿@@ 1021
蜆 1021
谤 1021
aux 1020
ough 1020
貪 1020
Pop 1019
aki 1019
anga 1019
ines 1019
into 1019
巅@@ 1019
泾 1019
Vic@@ 1018
bian 1018
ves 1018
瘤@@ 1018
韧@@ 1018
Out 1017
cat@@ 1017
戳 1017
炫 1017
炯 1017
疟@@ 1017
瞒 1017
诅@@ 1017
鼐 1017
Song 1016
錨 1016
Ful@@ 1015
ye@@ 1015
勖 1015
卦@@ 1015
挣@@ 1015
Su 1014
ther 1014
斡 1014
渾 1014
ider 1013
脷 1013
菸@@ 1013
隍@@ 1013
Ak@@ 1012
ele 1012
had 1012
lam@@ 1012
xi@@ 1012
睐 1012
Che@@ 1011
rey 1011
瓚 1011
絃 1011
蚓 1011
诃 1011
Bit@@ 1010
alm@@ 1010
嗽 1010
蚌 1010
Light 1009
Marie 1009
uf@@ 1009
Prim@@ 1008
Sund@@ 1008
弁 1008
枣 1008
諦 1008
遐@@ 1008
District 1007
att@@ 1007
衢 1007
鄴 1007
鎬 1007
endr@@ 1006
ih@@ 1006
缉 1006
襟 1006
Swe@@ 1005
verse 1005
К 1005
噁 1005
樊 1005
itz 1004
log@@ 1004
meth@@ 1004
晝@@ 1003
桁@@ 1003
悠 1002
谿 1002
鲤 1002
hin@@ 1001
椿@@ 1001
氙 1001
醋@@ 1001
钞@@ 1001
Sam 1000
ency 1000
olo@@ 1000
拮@@ 1000
耽@@ 1000
蚜@@ 1000
mail 999
ort 999
垒@@ 999
轩@@ 999
192@@ 998
195@@ 998
County 998
Moh@@ 998
ects 998
sim@@ 998
嘌@@ 998
弛 998
抖@@ 998
Fran@@ 997
Tran@@ 997
壢@@ 997
聿@@ 997
陕 997
ux 996
ven 996
will 996
賑@@ 996
軀@@ 996
Ker@@ 995
dit 995
sho@@ 995
滘 995
Fut@@ 994
code 994
den@@ 994
oz@@ 994
Rich@@ 993
gar@@ 993
hal@@ 993
苛 993
Bus@@ 992
oper@@ 992
嵐@@ 992
掏@@ 992
矗@@ 992
蠶@@ 992
貳 992
Commun@@ 991
tig@@ 991
瞳 991
蜓 991
Est@@ 990
Fle@@ 990
寸@@ 990
蚂@@ 990
Inv@@ 989
oi 989
抉@@ 988
ho 987
菠@@ 987
锑 987
髏 987
Ray 986
Ven@@ 986
dec@@ 986
eck 986
č 986
Johnson 985
ebook 985
螞@@ 985
her 983
mb@@ 983
tw@@ 983
恥@@ 983
祗 983
Public 982
Tak@@ 982
bro@@ 982
char@@ 982
nes 982
訥@@ 982
Ali@@ 981
Law 981
绅@@ 981
鍛@@ 981
鏞 981
egr@@ 980
Cop@@ 979
Disney 979
杵 979
衙 979
鎳 979
鮑 979
鹵@@ 979
Blu@@ 978
Buil@@ 978
Dom@@ 978
ight@@ 978
幂 978
桔@@ 978
蒴@@ 978
Stephen 977
窘@@ 977
訣 977
閔 977
Mich@@ 976
UE@@ 976
谏@@ 976
ny@@ 975
off@@ 975
while 974
舆 974
Doc@@ 973
Pop@@ 973
change 973
esc@@ 973
爛@@ 973
yl 972
媳 972
谍@@ 972
霑 972
Def@@ 971
dren 971
亳@@ 971
塊@@ 971
釁 971
British 970
coun@@ 970
kar@@ 969
yi 969
挨@@ 969
籲@@ 969
胱@@ 969
鱨 969
West@@ 968
ゆ 968
嚼 968
岚 968
浓 968
Foundation 966
Ju@@ 966
trol 966
巾@@ 966
泻 966
燧 966
Fil@@ 965
hol@@ 965
棧 965
餚 965
Num@@ 964
igo 964
pel@@ 964
their 964
娠 964
浆@@ 964
鑫@@ 964
Kor@@ 963
formation 963
number 963
ros@@ 963
Story 962
ages 962
璧@@ 962
Mit@@ 961
ier 961
倚 961
悍@@ 961
憐 961
ika 960
pedia 960
怜 960
悶 960
Last 959
where 959
彷 959
Arthur 958
Sig@@ 958
ont@@ 958
wal@@ 958
Post@@ 957
澡 957
鑣 957
馥 957
Off@@ 956
Rub@@ 956
eter 956
慌@@ 956
昇@@ 956
Film 955
bun@@ 955
size 955
壘@@ 955
旷@@ 955
獾 955
酐 955
鱲 955
Williams 954
pal@@ 954
tern@@ 954
uli@@ 954
弔 954
灸 954
眠@@ 954
ams 953
bur@@ 953
eld 953
薔@@ 953
Final 952
ova 952
惑@@ 951
掩 951
敲 951
洵 951
狠@@ 951
Jan@@ 950
fi@@ 950
箔 950
雾@@ 950
＆ 950
Tu@@ 949
Fire 948
枋@@ 948
碌 948
arch@@ 947
idi@@ 947
pres@@ 947
俞 947
疚 947
龐 947
Academy 946
ants 946
uck 946
咀@@ 946
捆 946
幔 945
铂 945
鳄 945
Rus@@ 944
帘 944
貂@@ 944
迂@@ 944
酿 944
隘@@ 944
196@@ 943
folia 943
з 942
岚@@ 942
Jones 941
aci@@ 941
兑 941
篆 940
馀 940
Fu@@ 939
Tol@@ 939
М 939
壩@@ 939
彧 939
ards 938
ward 938
圩@@ 938
昀 938
柑 938
瓯 938
诛 938
Pu@@ 937
lig@@ 937
炱 937
礫@@ 937
繹@@ 937
肴 937
ania 936
纖 936
Name 935
body 935
В 935
Band 934
侷 934
鸽 933
Queen 932
also 932
ery 932
ods 932
wh@@ 932
酥 932
ami@@ 931
idea 931
咲@@ 931
娑 931
巽@@ 931
Fam@@ 930
Fer@@ 930
Moon 930
Up@@ 930
ŋ 930
祚@@ 930
驼@@ 930
atic 929
俟 929
渔 929
print 928
ws 928
栢 928
爷@@ 928
粱 928
菴 928
鑾 928
闍 928
Jac@@ 927
Sus@@ 927
犹 927
窦 927
剃 926
璉 926
筏 926
group 925
yo@@ 925
ury 924
弋@@ 924
綾 924
虢 924
褶 924
Earth 923
ı 923
Hotel 922
Pot@@ 922
vari@@ 922
偃@@ 922
冥 922
淦 922
狩 922
瘧@@ 922
葱@@ 922
鴞 922
Kur@@ 921
aus 921
Land@@ 920
ani@@ 920
惧@@ 920
袜 920
194@@ 919
Ath@@ 919
unter 919
叩@@ 919
恨@@ 919
戦 919
Phil@@ 918
like 918
tica 918
｢ 918
Sing@@ 917
Whit@@ 917
care 917
etta 917
tric 917
弩@@ 917
賤@@ 917
193@@ 916
Bridge 916
棟@@ 916
１ 916
zi 915
浇@@ 915
睢@@ 915
祐@@ 915
諺@@ 915
Lord 914
oid 914
咎@@ 914
熏@@ 914
腱 914
蕙@@ 914
bel@@ 912
ど 912
寰@@ 912
汞@@ 912
粪@@ 911
bul@@ 910
even 910
out@@ 910
呆@@ 910
扳 910
碍@@ 910
ret@@ 909
sec@@ 909
Jim 908
Liber@@ 908
歆 908
珩 908
脩 908
铯 908
飆@@ 908
鰨 908
瀨 907
踩@@ 907
value 906
闵 906
骠@@ 906
Avenue 905
God 905
chi 905
dex 905
phy@@ 905
歪 905
泮@@ 905
list 904
ple@@ 904
紓 904
綬 904
绢 904
鶯@@ 904
App@@ 903
So 903
嘔@@ 903
柜@@ 903
California 902
栾@@ 902
箏 902
anced 901
entr@@ 901
sson 901
筍 901
醍@@ 901
釣 901
Max@@ 900
prot@@ 900
懶 900
Lar@@ 899
cel@@ 899
睽 899
酯@@ 899
靴@@ 899
驴 899
厥@@ 898
ends 897
oth 897
sig@@ 897
枋 897
砾@@ 897
秧@@ 897
蚊 897
袞 897
Pic@@ 896
抖 896
蜈@@ 896
鵑 896
Orig@@ 895
ony 895
傢 895
摊@@ 895
轰 895
arch 894
rol@@ 894
墅@@ 894
胁@@ 894
芋@@ 894
轭 894
Taylor 893
霄@@ 893
Business 892
Hom@@ 892
micro@@ 892
sive 892
寢 892
槿@@ 892
軀 892
cas@@ 891
帚 891
轅 891
History 890
Mod@@ 890
Son@@ 890
bi 890
bin@@ 890
棵@@ 890
蜍 890
ech@@ 889
嶄@@ 889
珈 889
纥 889
185@@ 888
Fe 888
mil@@ 888
ren@@ 888
憬 888
蜻@@ 888
遶 888
Kis@@ 887
Walter 887
ody 887
Д 887
喵 887
囉 887
骰@@ 887
Zo@@ 886
only 886
ب 886
俚@@ 886
嬌@@ 886
槓@@ 886
舫 886
醐 886
隈 886
cli@@ 885
enz@@ 885
fre@@ 885
廍 885
慄 885
旻 885
螃@@ 885
May 884
vin 884
匕@@ 884
荚 884
醴@@ 884
諏 883
鱈@@ 883
Simon 882
til@@ 882
ein@@ 881
emati@@ 881
辍@@ 881
Bud@@ 880
Fel@@ 880
States 880
USA 880
ban 880
iro 880
mal@@ 880
uv@@ 880
赈@@ 880
頁@@ 880
Lou@@ 879
eau 879
ier@@ 879
las 879
sus 879
剋 879
叹@@ 879
噩@@ 879
烴 879
耻@@ 879
Vita 878
anda 878
狠 878
讞 878
谔 878
鄙@@ 878
悌 877
蚣 877
Tam@@ 876
head 876
phyl@@ 876
恂 876
晒 876
讶 876
186@@ 875
Hem@@ 875
wer 875
劭 875
卅 875
滔 875
腻 875
菏@@ 875
懇@@ 874
榨@@ 874
焯 874
甄 874
钚 874
197@@ 873
NFL 873
ear@@ 873
iko 873
ush@@ 873
媲@@ 873
浚@@ 873
蝉@@ 873
賊@@ 873
鰂 873
桦@@ 872
澍 872
鸥 872
Sour@@ 871
fied 871
ush 871
via 871
攸 871
钡 871
Back 870
綺 870
貂 870
Arm@@ 869
dings 869
ev 869
qui@@ 869
噶 869
爹 869
螳@@ 869
이 869
ゅ 868
ェ 868
佯@@ 868
儁 868
眺@@ 868
辈@@ 868
ust@@ 867
寢@@ 867
煒 867
Arc@@ 866
Jackson 866
ava 866
ois 866
奠 866
芎 866
酉@@ 866
Operation 865
ave@@ 865
emp@@ 865
£ 865
嘻 865
弋 865
彿 865
螢 865
郢 865
Like 864
List 864
Mik@@ 864
ark@@ 864
cle 864
house 864
晕 864
瀚@@ 864
矫@@ 864
賤 864
Can 863
Li 863
Ma 863
Times 863
ami 863
ective 863
桔 863
漁 863
瀧 863
驊 863
Alex 862
Long 862
SV 862
Stre@@ 862
any@@ 862
mis@@ 862
怠@@ 862
昴 862
靼@@ 862
Dav@@ 861
Int@@ 861
凿@@ 861
瑭 861
貯@@ 861
187@@ 860
Leon@@ 860
then 860
Bri@@ 859
prise 859
嬅 859
磅@@ 859
蛹 859
Ren@@ 858
Ye@@ 858
cho 858
duc@@ 858
襟@@ 858
镖 858
Land 857
UK 857
dri@@ 857
釗 857
Metro 856
than 856
they 856
宥 856
洒 856
Way 855
ć 855
仄 855
侈@@ 855
墊@@ 855
栅 855
ady 854
ink 854
ノ 854
歹@@ 854
氐 854
熬 854
瓮@@ 854
顫@@ 854
Who 853
喧@@ 853
works 852
enger 851
point 851
put 851
寝@@ 851
鮃 851
English 850
pur@@ 850
ョ 850
Hum@@ 849
Ob@@ 849
Old 849
Sul@@ 849
With 849
嫖@@ 849
漳 849
Development 848
Ori@@ 848
ł 848
颐 848
Alan 847
Albert 847
Cour@@ 847
ert 847
uri 847
隕 847
After 846
ine@@ 846
溺 846
焙 846
茫 846
Ann@@ 845
Comp@@ 845
dis 845
そ 845
庠 845
烦@@ 845
鸾 845
Wilson 844
comp@@ 844
oks 844
謚 844
Karl 843
Rot@@ 843
aro 843
絨@@ 843
覃@@ 843
詣 843
諜@@ 843
轼 843
Ari@@ 842
asa 842
ete 842
ツ 842
卞@@ 842
诡@@ 842
黍 842
ais@@ 841
｣ 841
Cent@@ 840
European 840
Mill@@ 840
Sup@@ 840
iger 840
model 840
沧 840
And@@ 839
vo 839
窟@@ 839
锤@@ 839
Audi@@ 837
Sum@@ 837
esp@@ 837
姦@@ 837
葦 837
Cul@@ 836
堇@@ 836
痴 836
胚 836
雯@@ 836
Fol@@ 835
Gener@@ 835
ild 835
蛟 835
Tony 834
small 834
尷@@ 834
畲@@ 834
ig 833
峒 833
榷 833
涸 833
mas 832
巍 832
戸 832
诵@@ 832
輟@@ 832
Bol@@ 831
isti@@ 831
掸@@ 831
攘@@ 831
濑@@ 831
颅 831
鮠 831
Carl 830
pat@@ 830
妄 830
欺 830
罂@@ 830
躋@@ 830
鴿@@ 830
鹭 830
leg@@ 829
誦@@ 829
谅@@ 829
Den@@ 828
Rock@@ 828
ute 828
哔@@ 828
婁 828
屁@@ 828
Hay@@ 827
Mes@@ 827
Pun@@ 827
ワ 827
亘 827
烛 827
184@@ 826
Francis 826
Hen@@ 826
ability 826
夭 826
幺 826
蚀@@ 826
酪@@ 826
锺 826
Champ@@ 825
Kim 825
aff@@ 825
any 825
dor@@ 825
俑 825
塹 825
簾 825
Log@@ 824
Trav@@ 824
躬 824
bs 822
★ 822
ゃ 822
囪 822
柿 822
稼@@ 822
莪@@ 822
Ze@@ 821
lati@@ 821
sey 821
乖@@ 821
菈 821
錘@@ 821
men@@ 820
敍 820
飄 820
Samuel 819
af 819
ein 819
ship 819
æ 819
娶@@ 819
瓘 819
骏@@ 819
Cra@@ 818
vers@@ 818
漯@@ 818
秤 818
簇@@ 818
蠍@@ 818
mot@@ 817
Å 817
腋@@ 817
Brian 816
Donald 816
Gol@@ 816
tom 816
皱@@ 816
镐 816
Rh@@ 815
婷@@ 815
盂 815
People 814
min 814
mus@@ 814
town 814
υ 814
菀 814
賬@@ 814
鲍 814
Ther@@ 813
met@@ 813
蒐 813
End 812
ect@@ 812
娣 812
翟 812
estr@@ 811
map@@ 811
okia 811
咲 811
擎@@ 811
镍@@ 811
Ep@@ 810
ety 810
ont 810
wor@@ 810
Т 810
扈 810
沔@@ 810
竇 810
蟻@@ 810
Kevin 809
蟠@@ 809
Good@@ 808
Yo@@ 808
悬 808
赎 808
188@@ 807
ham@@ 807
yan 807
尻@@ 807
Jos@@ 806
orum 806
worth 806
縻 806
赓 806
Just 805
Year 805
Р 805
堀 805
奚 805
恪@@ 805
猖@@ 805
Patrick 804
Publ@@ 804
Real 804
ago 804
ate@@ 804
ester 804
巽 804
掾 804
漾 804
邕@@ 804
Will 803
sung 803
喃@@ 803
懶@@ 803
榻 803
189@@ 802
2nd 802
啄@@ 802
壕@@ 802
歎 802
瑁 802
Gor@@ 801
Les@@ 801
Library 801
kins 801
uth 801
蓓@@ 801
谬 801
usa 800
yd@@ 800
杓 800
毎 800
泗 800
盼@@ 800
砷@@ 800
邃 800
Prom@@ 799
Sab@@ 799
墮 799
煌@@ 798
vil 797
啉 797
蛟@@ 797
鮫 797
tis@@ 796
das 795
劈 795
甾@@ 795
Cha@@ 794
ɛ 794
夯@@ 794
甩@@ 794
遽 794
vi 793
≤ 793
柘@@ 793
Lep@@ 792
oria 792
坛@@ 792
釧 792
摊 791
芭 791
include 790
恬 790
愉 790
懺@@ 790
湃 790
Hot@@ 789
呕@@ 789
帷@@ 789
躯@@ 789
ait 788
obj@@ 788
侏 788
勐 788
Ha 787
bet@@ 787
iller 787
medi@@ 787
tha 787
渴 787
alb@@ 786
ca@@ 786
eu@@ 786
摒@@ 786
燭@@ 786
Adam 785
ord 785
癡 785
闪 785
Bad 784
That 784
佚@@ 784
憧@@ 784
焊 784
籬 784
褫@@ 784
戌@@ 783
浣@@ 783
鳌 783
En 782
Sher@@ 782
anthus 782
dem@@ 782
垢 782
崭@@ 782
Nu@@ 781
music 781
ological 781
嶠 781
ton@@ 780
仗@@ 780
Rose 779
轿 779
陂@@ 779
Vill@@ 778
紊@@ 778
鮡 778
Opera 777
Valley 777
栎 777
璿 777
惶@@ 776
呋@@ 775
牟 775
禿 775
虱 775
Over@@ 774
Tit@@ 774
ji@@ 774
ulu 774
灿@@ 774
缠 774
萩@@ 774
钵 774
Dic@@ 773
apo@@ 773
tional 773
vers 773
嫦@@ 773
寥@@ 773
琊 773
迥 773
癲@@ 772
Family 771
XX@@ 771
pa@@ 771
岌@@ 771
拥 771
涡 771
翘 771
鍛 771
Lon@@ 770
equ@@ 770
og 770
缕 770
Jam@@ 769
Pacific 769
Pseud@@ 769
Rev@@ 769
ational 769
kr@@ 769
罔@@ 769
虾@@ 769
貽@@ 769
Miss 768
Services 768
Sha@@ 768
杲 768
泓 768
瀬 768
煬@@ 768
鏗 768
Education 767
Jason 767
Seg@@ 767
讼@@ 767
闰@@ 767
Ryan 766
Vil@@ 766
丢 766
剎 766
祀@@ 766
苟 766
铲@@ 766
鳄@@ 766
Dro@@ 765
Tim 765
cell 765
eth@@ 765
uk 765
urity 765
岖 765
萝 765
鄚 765
霾 765
Div@@ 764
Wol@@ 764
佼@@ 764
鈺 764
Dur@@ 763
Pay@@ 763
Under 763
唆 763
恼 763
暹 763
蕪 763
.. 762
Cros@@ 762
anum 762
gs 762
los 762
悚 762
珥 762
rot@@ 761
ways 761
yo 761
ㄧ 761
嵊@@ 761
洄@@ 761
狹 761
鯙 761
Barr@@ 760
Econom@@ 760
Golden 760
帑 760
漪 760
稔 760
蛭 760
Rog@@ 759
囱 759
榭 759
祈 759
鳖 759
mes 758
ones 758
瑠@@ 758
鐸@@ 758
Nich@@ 757
愍 757
馨@@ 757
Dan 756
Harry 756
bil@@ 756
兌 756
燊 756
颚 756
ston 755
拂 755
痊 755
絹 755
abr@@ 754
under 754
剷 754
摹 754
秉 754
筝 754
bes 753
wat@@ 753
摯@@ 753
ason 752
cho@@ 752
搅@@ 752
涩 752
硤 752
礫 752
鉑 752
Deb@@ 751
Hil@@ 751
Lim@@ 751
Tex@@ 751
mod@@ 751
title 751
瑗 751
禿@@ 751
谒 751
ask@@ 750
burg 750
栩@@ 750
汁@@ 750
綵 750
肱@@ 750
軾 750
颌@@ 750
Alex@@ 749
浊@@ 749
漲@@ 749
穢 749
芹@@ 749
Stadium 748
aun@@ 748
plex 748
吩@@ 748
绶 748
蒜@@ 748
鉅@@ 748
Hug@@ 747
Ox@@ 747
Pit@@ 747
Premi@@ 747
bri@@ 747
ば 747
孽 747
嵇@@ 747
耘 747
酥@@ 747
Na 746
ew@@ 746
itz@@ 746
ご 746
乩 746
拘 746
曠@@ 746
琬 746
瑕 746
镉 746
Angel 745
jo@@ 745
ories 745
sing 745
ʰ 745
疽 745
Tem@@ 744
anna 744
gro@@ 744
勅 744
瑋@@ 744
聾 744
By@@ 743
Victor 743
agu@@ 743
mit@@ 743
砾 743
綏 743
羯 743
臚 743
砦 742
羨@@ 742
込 742
霓@@ 742
Social 741
wo@@ 741
懦@@ 741
栈@@ 741
渎 741
蝰 741
酌 741
釘@@ 741
Port 740
Reb@@ 740
lev@@ 740
oro 740
used 740
zo@@ 740
蚕 740
蛾@@ 740
邈 740
镓 740
髦 740
pes 739
pul@@ 739
闾 739
鸽@@ 739
Alice 738
Pad@@ 738
long 738
戡@@ 738
楹 738
瀆 738
灼 738
荨@@ 738
餡@@ 738
Jus@@ 737
Prince 737
ph 737
桦 737
Din@@ 736
Ka@@ 736
ols 736
ow 736
word 736
裘 736
贛 736
韜 736
Pul@@ 735
Sound 735
ial 735
olog@@ 735
嚨 735
擱 735
梟 735
矶@@ 735
粘 735
缪 735
钒 735
Nar@@ 734
dh@@ 734
using 734
巍@@ 734
梳 734
鐮 734
钯 734
颐@@ 734
Aer@@ 733
Die 733
Main 733
ather 733
ず 733
苇 733
Beg@@ 732
ef 732
illy 732
ister 732
傻 732
喘@@ 732
跻@@ 732
Mand@@ 731
Not 731
Pel@@ 731
ites 731
Ⅰ 731
涟@@ 731
畹@@ 731
fal@@ 730
繇 730
茴@@ 730
釐@@ 730
Ing@@ 729
Sci@@ 729
績@@ 729
钙@@ 729
Ret@@ 728
Sto@@ 728
钨 728
Dam@@ 727
Friedrich 727
H.@@ 727
檜 727
祁 727
Dakota 726
life 726
lower 726
د 726
س 726
澹 726
app 725
dan 725
蕴 725
顗 725
Am 724
Dark 724
bit@@ 724
eman 724
晞 724
Af@@ 723
Chem@@ 723
Tech@@ 723
pi 723
喂@@ 723
齦 723
Pil@@ 722
icum 722
uma 722
戟@@ 722
賠 722
餌 722
Van@@ 721
oke 721
ori 721
tiv@@ 721
ζ 721
尻 721
炙@@ 721
荠 721
钉@@ 721
鹊 721
Bot@@ 720
掺@@ 720
隧 720
Cross 719
Department 719
Pau@@ 719
セ 719
儸 719
捻 719
湟@@ 719
疼 719
鍍 719
Gold@@ 718
Py@@ 718
opp@@ 718
蘋 718
颌 718
Cho@@ 717
bach 717
jo 717
lor@@ 717
啮@@ 717
嘯@@ 717
骥 717
ante 716
dom@@ 716
sis 716
ui 716
暈@@ 716
様 716
燁 716
Jane 715
opo@@ 715
µ 715
亢 715
薊@@ 715
And 714
Bern@@ 714
Fair@@ 714
ager 714
恃 714
捣@@ 714
滸@@ 714
璨 714
鈺@@ 714
Bou@@ 713
eria 713
nig@@ 713
俐 713
癸 713
Kam@@ 712
nis 712
俭@@ 712
sor@@ 711
thr@@ 711
瘡 711
祜@@ 711
鷺@@ 711
Davis 710
Mis@@ 710
Sport 710
壬 710
沭@@ 710
漿@@ 710
燮@@ 710
瞄 710
诲 710
鱧 710
Map@@ 709
ʁ 709
嬪@@ 709
晟@@ 709
獺 709
羲@@ 709
颊 709
Ay@@ 708
France 708
eff@@ 708
ots 708
哮@@ 708
垩@@ 708
涇@@ 708
ineering 707
琐 707
迂 707
邢 707
锚 707
驍@@ 707
Hard@@ 706
Ky@@ 706
Women 706
awa 706
犍 706
肽@@ 706
Anthony 705
Gir@@ 705
Juan 705
itu@@ 705
omo 705
恳@@ 705
陇 705
Hand@@ 704
tre 704
urs 704
匐 704
妒@@ 704
痘 704
絶 704
羔@@ 704
豎 704
鄙 704
釷 704
钼 704
镛 704
Ah@@ 703
Elizabeth 703
Human 703
aven 703
been 703
love 703
嚕 703
缆@@ 703
Dow@@ 702
Jud@@ 702
Lewis 702
忏@@ 702
痺 702
衅 702
Committee 701
Health 701
Kat@@ 701
eno 701
hat@@ 701
偃 701
娄 701
屡 701
蒯@@ 701
蜡 701
閏@@ 701
鰲 701
ift 700
unds 700
vent@@ 700
yer 700
綦@@ 700
萸 700
饿@@ 700
Greg@@ 699
Prix 699
inst@@ 699
iri 699
now@@ 699
val 699
恺@@ 699
撐@@ 699
Arti@@ 698
NAT@@ 698
Pon@@ 698
live 698
Б 698
淅@@ 698
漬 698
Jay 697
aa 697
ements 697
ett@@ 697
旻@@ 697
罩@@ 697
Dun@@ 696
Has@@ 696
Kle@@ 696
bers 696
cy@@ 696
栽 696
糙@@ 696
胭@@ 696
Rand@@ 695
Theatre 695
ror 695
uh@@ 695
匍@@ 695
悄 695
柵 695
汙 695
淖@@ 695
辻@@ 695
augh@@ 694
х 694
胪 694
茗 694
aham 693
lon 693
space 693
婕 693
恙 693
瘟 693
Anna 692
Christopher 692
Division 692
嘅 692
媚@@ 692
烂@@ 692
迄 692
钰 692
鳍@@ 692
Bom@@ 691
槛 691
浒@@ 691
熾@@ 691
Standard 690
ease 690
rent 690
汛@@ 690
痰 690
竿@@ 690
茫@@ 690
鈸 690
Board 689
Que@@ 689
Vit@@ 689
acle 689
iga 689
lem 689
ures 689
壺@@ 689
渭 689
珅 689
璠 689
盏 689
砵 689
铋 689
麓@@ 689
HMS 688
Lyn@@ 688
Philip 688
chen 688
ills 688
je 688
own 688
unt 688
峠 688
漩 688
玫 688
Da@@ 687
def@@ 687
emb@@ 687
fu@@ 687
score 687
婕@@ 687
恤@@ 687
沅 687
荀 687
侗 686
铊 686
锗 686
Mount 685
Sea 685
aqu@@ 685
iss 685
osp@@ 685
Boy@@ 684
ogo 684
咄@@ 684
尴@@ 684
峴 684
溉@@ 684
滬 684
澗 684
Dan@@ 683
Wood@@ 683
pp 683
冉 683
潇@@ 683
窪@@ 683
version 682
瓣@@ 682
輻 682
铨 682
靺 682
han 681
orn 681
苴 681
Der@@ 680
Miller 680
Tod@@ 680
after 680
乍 680
ign 679
ization 679
next 679
ron 679
Ⅲ 679
嗪 679
嵯@@ 679
掖@@ 679
aliz@@ 678
anne 678
je@@ 678
outh 678
熹@@ 678
瑣@@ 678
Meth@@ 677
Stone 677
water 677
榈 677
瀾@@ 677
盞 677
鐳 677
陲 677
Roger 676
by@@ 676
俺 676
Band@@ 675
Bau@@ 675
book 675
seu@@ 675
ネ 675
揣@@ 675
榈@@ 675
郢@@ 675
頗@@ 675
Wa@@ 674
ban@@ 674
mit 674
灑@@ 674
缸@@ 674
駒@@ 674
alan 673
娼 673
闫@@ 673
鞨 673
鱺 673
Cath@@ 672
ball 672
land@@ 672
栋@@ 672
皺 672
祜 672
酌@@ 672
鈣@@ 672
Kenn@@ 671
Paris 671
hab@@ 671
ker@@ 671
偈 671
眺 671
窪 671
笹@@ 671
荻@@ 671
萤@@ 671
Bil@@ 670
Hans 670
Haw@@ 670
Maj@@ 670
ders 670
idge 670
彪@@ 670
Da 669
Som@@ 669
ibn 669
inf@@ 669
tier 669
勺 669
臧 669
荔 669
鰺 669
Classi@@ 668
Gun@@ 668
adi 668
bis 668
kl@@ 668
澧@@ 668
Over 667
ape 667
fri@@ 667
itor 667
oli@@ 667
ysis 667
颓@@ 667
駙@@ 667
Lind@@ 666
Tas@@ 666
ept@@ 666
test 666
Н 666
啞@@ 666
槽@@ 666
酶@@ 666
ente 665
round 665
vey 665
俏@@ 665
啼@@ 665
炽@@ 665
珞@@ 665
盱@@ 665
阇 665
馭 665
From 664
Matt 664
Rab@@ 664
cell@@ 664
rd 664
state 664
yes 664
偵 664
嘲 664
墻 664
慨@@ 664
栱 664
烙@@ 664
鍍@@ 664
Bay@@ 663
炬@@ 663
蘚@@ 663
Allen 662
Coc@@ 662
anny 662
eh 662
gin 662
幀 662
皱 662
钧@@ 662
Bug@@ 661
Key@@ 661
Matthe@@ 661
hom@@ 661
over@@ 661
ulus 661
ump@@ 661
嵴 661
榘 661
炙 661
鑼 661
Aur@@ 660
亟@@ 660
沐 660
瘠 660
绰 660
荖 660
菓 660
蝗 660
BK 659
Patr@@ 659
onder@@ 659
玠 659
骤@@ 659
Bad@@ 658
Kab@@ 658
imb@@ 658
poly@@ 658
亢@@ 658
昱@@ 658
灿 658
Jan 657
炜 657
hop 656
怜@@ 656
珏 656
羥@@ 656
鸫 656
Zi@@ 655
sch 655
壇@@ 655
専 655
揀 655
癇 655
瞩@@ 655
蟒@@ 655
Cla@@ 654
Joh@@ 654
Lanc@@ 654
alls 654
ner@@ 654
vet 654
Fox 653
Nam@@ 653
Ry@@ 653
ading 653
aja 653
ext@@ 653
ij@@ 653
垩 653
奭 653
焜 653
cos@@ 652
esti@@ 652
flo@@ 652
lip 652
醃 652
Antonio 651
Gold 651
hip 651
place 651
嬴@@ 651
盪@@ 651
饼@@ 651
Natur@@ 650
eff 650
熒@@ 650
Francisco 649
Industri@@ 649
Kath@@ 649
佥 649
樱 649
魷@@ 649
has@@ 648
service 648
who 648
塭 648
恿 648
苻@@ 648
鲈 648
Howard 647
ann 647
most 647
var@@ 647
ァ 647
冪 647
瀘@@ 647
猾 647
琶@@ 647
薈@@ 647
Mun@@ 646
洮 646
茸 646
饵 646
Г 645
і 645
ほ 645
筷@@ 645
蟑@@ 645
Pier@@ 644
Ω 644
襯 644
Thr@@ 643
cel 643
囤@@ 643
怯 643
柝@@ 643
檜@@ 643
禺@@ 643
窺@@ 643
笨 643
蝨 643
Vog@@ 642
rap@@ 642
珲@@ 642
蒼 642
豈@@ 642
鸮 642
Anne 641
Daw@@ 641
bury 641
inde@@ 641
occ@@ 641
吓@@ 641
滔@@ 641
澎 641
蹦@@ 641
Carlos 640
Sid@@ 640
aba 640
ag 640
alia 640
aly@@ 640
tz 640
Σ 640
Ric@@ 639
Victoria 639
Wel@@ 639
澂 639
邾 639
Bell 638
Dal@@ 638
Rod@@ 638
ebr@@ 638
thing 638
撑@@ 638
柬 638
矾 638
诣 638
辕 638
锚@@ 638
Avi@@ 637
Bob@@ 637
game 637
peri@@ 637
庵@@ 637
惨 637
棻 637
瓏 637
窯@@ 637
覲 637
逞 637
陝 637
２ 637
Court 636
Dig@@ 636
Indi@@ 636
enni@@ 636
姥@@ 636
甬 636
矚 636
荪 636
Bran@@ 635
Castle 635
Fun@@ 635
star@@ 635
uta 635
И 635
弒 635
恬@@ 635
攪@@ 635
浬 635
base 634
order 634
plat@@ 634
tern 634
ふ 634
娱 634
Alfred 633
Fro@@ 633
Lib@@ 633
ando 633
anger 633
urn@@ 633
zer 633
า 633
禰 633
臀 633
Radi@@ 632
sum@@ 632
墩@@ 632
搗@@ 632
聾@@ 632
頡@@ 632
Pet@@ 631
Ton@@ 631
黏 631
å 630
慑 630
殡@@ 630
肼 630
譏@@ 630
邛@@ 630
醌 630
鏟 630
濛 629
酚@@ 629
魟 629
Ali 628
呵@@ 628
扒 628
獗 628
蠡@@ 628
軔 628
alp@@ 627
lan 627
ц 627
匀@@ 627
匮@@ 627
荻 627
Dave 626
mal 626
杠@@ 626
赔 626
鯤 626
Var@@ 625
arry 625
rea 625
咆@@ 625
嶄 625
Boys 624
Los 624
bin 624
pper 624
tle 624
tural 624
yu 624
吡 624
泓@@ 623
裨@@ 623
驥 623
Phys@@ 622
alism 622
ボ 622
俳@@ 622
娇 622
怕@@ 622
筵 622
葆 622
Ale@@ 621
Plaza 621
Wan@@ 621
eller 621
榛 621
蒨 621
邠 621
鵜@@ 621
Wit@@ 620
fa 620
gio 620
湮@@ 620
甕 620
蠟 620
醛@@ 620
馱 620
Ass@@ 619
Princ@@ 619
ender 619
mar 619
∞ 619
幂@@ 619
抛 619
盎 619
鸢@@ 619
Autom@@ 618
eum 618
olo 618
tan 618
ی 618
ケ 618
佰@@ 618
珮@@ 618
艮 618
蚵 618
訖 618
誨 618
躬@@ 618
Arg@@ 617
Gary 617
Thi@@ 617
cs 617
mont 617
poem 617
spec@@ 617
umia 617
噻@@ 617
晰@@ 617
Poc@@ 616
tin@@ 616
î 616
О 616
丶 616
刈 616
坵 616
庑 616
珣 616
珮 616
虏@@ 616
裤@@ 616
訶 616
Sau@@ 615
cep@@ 615
uni@@ 615
卤 615
睇 615
莅@@ 615
鉞 615
驒 615
Lot@@ 614
ls 614
wiki 614
僖 614
癢 614
苍 614
蛸 614
袒 614
Corn@@ 613
Ind@@ 613
Post 613
age@@ 613
cy 613
eron 613
free 613
night 613
part 613
rem@@ 613
ses 613
won 613
敎 613
鄯@@ 613
驛@@ 613
魴 613
Bow@@ 612
Organ@@ 612
寛 612
憐@@ 612
鵲 612
Kol@@ 611
ί 611
ा 611
撮@@ 611
笏 611
銨 611
Pod@@ 610
bili@@ 610
nor@@ 610
槓 610
猕@@ 610
莅 610
蛺 610
閹@@ 610
Sac@@ 609
Walker 609
lus@@ 609
sk 609
拦 609
晦@@ 609
猥@@ 609
鄢@@ 609
sin 608
缽 608
蕲@@ 608
錮 608
Under@@ 607
hil 607
zen 607
् 607
岂@@ 607
愫 607
玳@@ 607
绛@@ 607
谕@@ 607
flora 606
姥 606
懒@@ 606
Buc@@ 605
If 605
ris 605
粿 605
Gib@@ 604
Sign@@ 604
Western 604
mond 604
rac@@ 604
楫 604
熾 604
稼 604
郝 604
鎧 604
馥@@ 604
Lag@@ 603
anz@@ 603
een 603
ks@@ 603
wen 603
瀰 603
Anderson 602
Bod@@ 602
羡@@ 602
ior 601
nd@@ 601
see 601
start 601
stati@@ 601
unk@@ 601
儉@@ 601
卍 601
屹@@ 601
撻 601
枉@@ 601
榨 601
縊 601
Kom@@ 600
Sl@@ 600
come 600
ă 600
Bag@@ 599
Nintendo 599
Steph@@ 599
ains 599
media 599
憫 599
Arn@@ 598
Men 598
Order 598
VIII 598
aul@@ 598
ells 598
gi 598
onom@@ 598
some 598
聋@@ 598
邳@@ 598
郧@@ 598
鵑@@ 598
Kelly 597
Lit@@ 597
Pass@@ 597
Pictures 597
ju@@ 597
ry@@ 597
洱@@ 597
浔@@ 597
灝 597
砚@@ 597
Clark 596
Yu@@ 596
date 596
oe 596
ogr@@ 596
捏 596
楯 596
銮 596
Johann 595
idi 595
tors 595
梶@@ 595
爍 595
贱 595
闷 595
Championship 594
Nick 594
gency 594
nu@@ 594
蝕@@ 594
镕@@ 594
Broad@@ 593
Head 593
Lac@@ 593
anti 593
double 593
gir@@ 593
mem@@ 593
壑 593
蝓 593
豈 593
驃 593
﹕ 593
Bra@@ 592
Jacques 592
blo@@ 592
亏 592
晁@@ 592
闐 592
鴕@@ 592
Gran@@ 591
ications 591
japon@@ 591
† 591
├ 591
匆 591
撮 591
櫟 591
紜 591
虢@@ 591
郃 591
Centr@@ 590
cle@@ 590
otr@@ 590
桧 590
檳 590
漩@@ 590
緹 590
颤@@ 590
Airport 589
Cot@@ 589
about 589
asi 589
ities 589
onic 589
wing 589
ع 589
怛 589
瑀 589
瓢@@ 589
絳 589
蝇@@ 589
Field 588
bus@@ 588
ous@@ 588
ш 588
噹 588
枚@@ 588
艘@@ 588
褪@@ 588
遁@@ 588
Cri@@ 587
哗@@ 587
犍@@ 587
莘 587
蟎 587
錳 587
` 586
lim@@ 586
polis 586
ピ 586
悖 586
歿 586
綬@@ 586
蛞@@ 586
豚@@ 586
鯽 586
Cham@@ 585
Rober@@ 585
aff 585
based 585
tn@@ 585
潁@@ 585
藐@@ 585
邇 585
锯 585
Eg@@ 584
Stand 584
Studi@@ 584
aha 584
kel@@ 584
umi 584
劈@@ 584
厨 584
洱 584
豊 584
贼@@ 584
Andy 583
Cab@@ 583
aire 583
amin@@ 583
lot 583
vis 583
哮 583
錠 583
Ken@@ 582
県 582
賁 582
Stars 581
Strat@@ 581
aca 581
ɔ 581
ね 581
涝 581
齧 581
Ross 580
esta 580
ś 580
愍@@ 580
秽 580
鵙 580
黒 580
Johnny 579
Mom@@ 579
elo 579
ò 579
剽@@ 579
藓@@ 579
陋@@ 579
Archit@@ 578
Sak@@ 578
elia 578
high 578
ت 578
啄 578
嫣 578
蹲 578
阆@@ 578
ck@@ 577
­ 577
燬 577
Imp@@ 576
Sir@@ 576
arp@@ 576
bot 576
む 576
燾 576
瑯@@ 576
篙 576
鹫 576
song 575
trol@@ 575
傈@@ 575
孖 575
瓯@@ 575
鯖 575
Nat@@ 574
XIII 574
film 574
mir@@ 574
would 574
婢@@ 574
爨 574
龈 574
High@@ 573
Long@@ 573
Three 573
gh@@ 573
lang 573
ports 573
枯 573
氚 573
Anti@@ 572
Bruce 572
ected 572
pot@@ 572
ð 572
晒@@ 572
筠@@ 572
Boul@@ 571
bon 571
mak@@ 571
pon 571
site 571
station 571
唁 571
槎 571
瓒 571
痒 571
繆 571
諺 571
Kl@@ 570
Ni 570
ments 570
pro 570
sem@@ 570
儼@@ 570
旬@@ 570
煊 570
癫@@ 570
秃 570
覓@@ 570
Cand@@ 569
Gordon 569
lon@@ 569
倻 569
Kot@@ 568
Ober@@ 568
district 568
ector 568
odi@@ 568
拯 568
煇 568
軫 568
麋@@ 568
Benjamin 567
Maz@@ 567
Nak@@ 567
astr@@ 567
din@@ 567
hai 567
there 567
ぶ 567
彊 567
辙 567
Adri@@ 566
oon 566
serv@@ 566
stone 566
凑@@ 566
睪 566
蝉 566
赚 566
魅 566
鸳@@ 566
August 565
Mountain 565
board 565
onal 565
匱@@ 565
妞 565
暐 565
矽 565
Jar@@ 564
Republic 564
ancy 564
ges 564
ishing 564
ku 564
ร 564
卞 564
坠 564
殴 564
烨 564
聶 564
Creek 563
沸 563
瘍 563
Diam@@ 562
Eli@@ 562
Hir@@ 562
Hospital 562
Tab@@ 562
cont@@ 562
han@@ 562
umb@@ 562
俶 562
朽@@ 562
萎 562
萼@@ 562
Glo@@ 561
Lat@@ 561
More 561
Nik@@ 561
aud@@ 561
three 561
骧 561
鲀 561
龢 561
Tap@@ 560
ands 560
bol@@ 560
teri@@ 560
蝌@@ 560
Fort 559
asp@@ 559
example 559
ily 559
mol@@ 559
rie 559
tol@@ 559
窺 559
薦@@ 559
邳 559
鴦 559
Jonathan 558
fas@@ 558
ores 558
愧@@ 558
緞 558
Ann 557
Kel@@ 557
boy 557
child 557
news 557
sional 557
ution 557
乖 557
咳 557
惰 557
阯 557
癬 556
睽@@ 556
箴@@ 556
Alliance 555
Rou@@ 555
ches 555
ologies 555
拙@@ 555
覬@@ 555
諒@@ 555
锭 555
Commission 554
Squ@@ 554
Tour@@ 554
bat@@ 554
kw@@ 554
nia 554
olia 554
radi@@ 554
sions 554
super@@ 554
哑@@ 554
怠 554
违 554
閭 554
顒 554
驤 554
Ern@@ 553
Soci@@ 553
net@@ 553
墀 553
揉@@ 553
蜚@@ 553
袍@@ 553
鉢 553
＞ 553
Git@@ 552
Kingdom 552
Temple 552
aker 552
י 552
ソ 552
檄@@ 552
淄 552
谎 552
韬@@ 552
Blan@@ 551
Eri@@ 551
Metal 551
law 551
傣 551
蠍 551
錡 551
Chart 550
Wall@@ 550
iz 550
nov@@ 550
rain 550
she 550
uti@@ 550
▲ 550
ゲ 550
疱@@ 550
蝨@@ 550
餡 550
Arena 549
Hur@@ 549
enne 549
涕 549
潑@@ 549
輒 549
鉗 549
閨@@ 549
Ax@@ 548
archi@@ 548
ardo 548
second 548
嬴 548
氪 548
籽@@ 548
胤@@ 548
蹇 548
韭@@ 548
Bla@@ 547
Wright 547
ei@@ 547
osph@@ 547
produc@@ 547
ゴ 547
嗆 547
磊@@ 547
箴 547
纺 547
Gas@@ 546
Mission 546
eli 546
eva 546
lip@@ 546
lit@@ 546
pil@@ 546
ポ 546
奢 546
渺@@ 546
蓁 546
蚯@@ 546
觐 546
阈@@ 546
隗@@ 546
韌 546
鳌@@ 546
Mam@@ 545
Wilhelm 545
hard 545
liv@@ 545
vid@@ 545
娇@@ 545
弭 545
怯@@ 545
晝 545
曇@@ 545
曖@@ 545
杖@@ 545
Brad@@ 544
uss@@ 544
ザ 544
儋@@ 544
晕@@ 544
疮 544
蓓 544
蕊@@ 544
觅@@ 544
軋 544
铰@@ 544
----@@ 543
Hop@@ 543
eer 543
棗@@ 543
氈 543
Modern 542
Pep@@ 542
Second 542
燼 542
玮 542
锷 542
Canada 541
Sat@@ 541
eil@@ 541
挚@@ 541
挨 541
歩 541
澧 541
瞎@@ 541
靚@@ 541
唆@@ 540
濠@@ 540
粽@@ 540
藕 540
蹂@@ 540
Brand@@ 539
Brit@@ 539
Ny@@ 539
through 539
thus 539
掣@@ 539
琢@@ 539
锟 539
God@@ 538
Top@@ 538
aron 538
get@@ 538
斟@@ 538
橐 538
洺 538
涓 538
箍 538
羯@@ 538
醜 538
雒@@ 538
Medical 537
enth@@ 537
esse 537
mic@@ 537
僞 537
嚐 537
烁 537
餾 537
Douglas 536
Gra@@ 536
Kas@@ 536
enberg 536
flu@@ 536
san@@ 536
ˋ 536
妨 536
搗 536
樽@@ 536
炽 536
糠 536
蚪 536
鄔@@ 536
Domin@@ 535
Hav@@ 535
Jimmy 535
She 535
When 535
bot@@ 535
ority 535
rich@@ 535
滎@@ 535
竖 535
郯@@ 535
Eth@@ 534
Ng@@ 534
arren 534
osh@@ 534
set@@ 534
絆 534
莿 534
阎 534
霏 534
鱔 534
Bec@@ 533
bie 533
gener@@ 533
people 533
tran@@ 533
曷 533
煲 533
琏 533
脲 533
鮪 533
Green@@ 532
Moore 532
Pav@@ 532
Singapore 532
咁 532
徭@@ 532
蠔@@ 532
Eas@@ 531
Kap@@ 531
琢 531
膾 531
鑾@@ 531
Khan 530
acid 530
mun@@ 530
ords 530
when 530
∈ 530
ぐ 530
喷 530
Oper@@ 529
dres@@ 529
ering 529
imi 529
wr@@ 529
zy@@ 529
劭@@ 529
蠣 529
鞘@@ 529
颢 529
駝@@ 529
Army 528
Emer@@ 528
enia 528
玥 528
瑩@@ 528
謫 528
赭@@ 528
Bak@@ 527
Flor@@ 527
Sph@@ 527
Wag@@ 527
edo 527
wi@@ 527
秤@@ 527
郓@@ 527
Zen@@ 526
dra@@ 526
eni 526
啸@@ 526
汨@@ 526
溟 526
舶@@ 526
袜@@ 526
铍 526
雹 526
頹@@ 526
plus 525
top@@ 525
ά 525
勗 525
殆 525
谛 525
阀@@ 525
Florida 524
Frederick 524
Ian 524
each 524
former 524
oli 524
qu 524
崂@@ 524
犢 524
ric@@ 523
vic@@ 523
暠 523
耒@@ 523
詰 523
铮 523
頤@@ 523
Associ@@ 522
Bru@@ 522
Sa 522
band 522
chil@@ 522
lands 522
≥ 522
宕@@ 522
糜@@ 522
din 521
volution 521
０ 521
Asian 520
kan@@ 520
rop@@ 520
勰 520
嘆@@ 520
爰 520
瞬 520
竞 520
褻 520
鈷 520
Beach 519
Jack@@ 519
igu@@ 519
碗@@ 519
稹 519
繭 519
讫 519
跖@@ 519
躁@@ 519
逗 519
Russell 518
ember 518
level 518
uke 518
へ 518
燉 518
痹 518
粪 518
蒿@@ 518
诃@@ 518
dez 517
mul@@ 517
ony@@ 517
淩 517
絢@@ 517
縉 517
録 517
陡 517
March 516
alt@@ 516
eas@@ 516
eck@@ 516
etti 516
loyd 516
mini 516
疃 516
铬@@ 516
鬃@@ 516
Cav@@ 515
edia 515
fication 515
kt 515
nus 515
press 515
such 515
喱 515
朐 515
洒@@ 515
灝@@ 515
蛻@@ 515
鶘 515
麝 515
Yel@@ 514
aer@@ 514
annel 514
power 514
潢@@ 514
砜 514
Id@@ 513
Lan@@ 513
Terr@@ 513
ads 513
car 513
doc@@ 513
kil@@ 513
pic@@ 513
ving 513
囂 513
塱 513
隅@@ 513
靡@@ 513
骅 513
Lap@@ 512
abl@@ 512
fe 512
ists 512
nom@@ 512
sit@@ 512
孃 512
帘@@ 512
瀑 512
疹@@ 512
靛 512
鳗 512
Fir@@ 511
Oli@@ 511
Tot@@ 511
aut 511
edom 511
tronic 511
χ 511
獼@@ 511
鈹 511
ades 510
home 510
厩 510
揉 510
暄 510
碓 510
芩 510
蚺 510
誇 510
赌 510
辎@@ 510
閤 510
Aff@@ 509
Sarah 509
ido 509
ron@@ 509
ベ 509
娼@@ 509
枉 509
竣 509
Wes@@ 508
afe 508
amo@@ 508
anci@@ 508
iti 508
opus 508
晩 508
沢 508
眩@@ 508
虜@@ 508
輋 508
Rhy@@ 507
Scar@@ 507
city 507
dre@@ 507
proc@@ 507
series 507
soft 507
vention 507
甩 507
簪 507
谟@@ 507
album 506
lag 506
quar@@ 506
tou@@ 506
® 506
徳 506
昉 506
樵@@ 506
氡 506
沮 506
溼@@ 506
痫 506
Eff@@ 505
aco 505
andra 505
heim 505
lad@@ 505
may 505
shi@@ 505
△ 505
愁@@ 505
捞@@ 505
橈 505
潦@@ 505
濮 505
筊 505
钠@@ 505
him 504
ld@@ 504
que@@ 504
ギ 504
们@@ 504
儡@@ 504
柚 504
聳@@ 504
菖@@ 504
龚 504
Let@@ 503
atis@@ 503
neg@@ 503
咯 503
恍@@ 503
氘 503
猬 503
胀@@ 503
钛@@ 503
alg@@ 502
ked 502
lim 502
oper 502
school 502
朮 502
樺@@ 502
痊@@ 502
耸@@ 502
At 501
Billy 501
Oliver 501
Profes@@ 501
format 501
蝮@@ 501
覦 501
鲱 501
Europe 500
Trin@@ 500
aining 500
show 500
trop@@ 500
Á 500
蟆 500
軛 500
骸@@ 500
Abr@@ 499
bat 499
fo 499
凪 499
莢 499
锈 499
闢@@ 499
Giovanni 498
Pear@@ 498
Termin@@ 498
dal@@ 498
ophyl@@ 498
び 498
嶷 498
甌 498
砥@@ 498
篩 498
隣 498
There 497
Um@@ 497
Universal 497
chr@@ 497
imal 497
year 497
½ 497
妍@@ 497
鱉 497
lery 496
ό 496
ヤ 496
恼@@ 496
憚 496
捩@@ 496
疤@@ 496
竑 496
鰓@@ 496
Cru@@ 495
Gard@@ 495
ango 495
away 495
chan@@ 495
mut@@ 495
result 495
ˊ 495
伉@@ 495
冑 495
擋@@ 495
汜 495
玷@@ 495
窜 495
腌@@ 495
鳐 495
major 494
pas@@ 494
prim@@ 494
圜 494
撼@@ 494
滷 494
漂 494
阗 494
鴛@@ 494
Spar@@ 493
Ten@@ 493
Willi@@ 493
ded 493
pos 493
ved 493
ه 493
淖 493
甥@@ 493
苇@@ 493
Michel 492
eps 492
multi@@ 492
ough@@ 492
ぎ 492
坻@@ 492
寥 492
巩 492
疤 492
萘 492
觐@@ 492
Bun@@ 491
Ele@@ 491
Tokyo 491
lers 491
other@@ 491
sign@@ 491
屁 491
瞎 491
紇 491
諫@@ 491
賬 491
钕 491
钝@@ 491
Daily 490
Ec@@ 490
Fa@@ 490
Thompson 490
bac@@ 490
family 490
umin@@ 490
旷 490
訛 490
訢 490
譙 490
醞@@ 490
illi@@ 489
ons@@ 489
pur 489
ram@@ 489
vin@@ 489
櫥 489
燙 489
窥@@ 489
Fas@@ 488
Hab@@ 488
Orange 488
wa@@ 488
war 488
廨 488
皋@@ 488
簾@@ 488
荐@@ 488
銫 488
Aqu@@ 487
Law@@ 487
ential 487
les@@ 487
揄 487
琇 487
筵@@ 487
飙@@ 487
鳶 487
length 486
lins 486
sea 486
tain 486
usion 486
wil@@ 486
疲 486
谚@@ 486
谬@@ 486
赟 486
Conference 485
England 485
Hyp@@ 485
agn@@ 485
auer 485
ennis 485
say 485
tal 485
ui@@ 485
咕 485
嗚 485
挽 485
畑 485
祟 485
耙 485
蚶 485
褚 485
贅 485
Dead 484
XI 484
aye 484
ento 484
neo 484
ose 484
ostr@@ 484
tron@@ 484
zone 484
ペ 484
俏 484
傕 484
攣 484
朦@@ 484
珲 484
瑯 484
缙@@ 484
Single 483
Vari@@ 483
bol 483
ended 483
gene 483
page 483
棧@@ 483
韧 483
鰨@@ 483
Mar 482
Plan 482
Stand@@ 482
gal@@ 482
igh 482
ott 482
ples 482
put@@ 482
र 482
諭@@ 482
Alabama 481
Carol@@ 481
andi@@ 481
lob@@ 481
omb@@ 481
oy 481
plan@@ 481
棗 481
炅 481
璀@@ 481
鶇 481
＊ 481
Roman 480
da@@ 480
fish 480
ges@@ 480
hua 480
豺@@ 480
鼱 480
Guy 479
Lawrence 479
control 479
eu 479
ize 479
ken@@ 479
kno@@ 479
na@@ 479
pus 479
ž 479
挟@@ 479
檄 479
笠@@ 479
覃 479
Cou@@ 478
Ferr@@ 478
Luis 478
Nag@@ 478
Television 478
ו 478
扛 478
蜢 478
鎢 478
钋 478
鯔 478
鶲 478
｜ 478
Luci@@ 477
Riv@@ 477
Vincent 477
dig@@ 477
仡@@ 477
玘 477
痢@@ 477
蠢@@ 477
鈞@@ 477
Brothers 476
See 476
ben@@ 476
cia 476
lay@@ 476
lu 476
mus 476
ş 476
悯 476
鮎@@ 476
Kil@@ 475
Vas@@ 475
Washington 475
van@@ 475
俨 475
晗 475
炊@@ 475
窿 475
鄜 475
镠 475
镭 475
conn@@ 474
gar 474
rup@@ 474
tak@@ 474
勣 474
孪@@ 474
Chin@@ 473
Jordan 473
Lem@@ 473
ias 473
sed 473
templ@@ 473
́ 473
Ford 472
dev@@ 472
睫@@ 472
锆 472
闾@@ 472
Death 471
Version 471
orient@@ 471
osis 471
Л 471
箐 471
蔴 471
Day@@ 470
Memorial 470
hydro@@ 470
lah 470
nik 470
ues 470
阙@@ 470
Revolution 469
Songs 469
break 469
good 469
mon 469
铟 469
锣@@ 469
Ji@@ 468
Se 468
cine 468
ecture 468
minor 468
ulation 468
↔ 468
镧 468
Benn@@ 467
Stud@@ 467
arius 467
edral 467
ffer@@ 467
ister@@ 467
itt 467
nic@@ 467
phy 467
ヒ 467
啞 467
钵@@ 467
Mb@@ 466
Od@@ 466
between 466
cio 466
fic 466
ogen@@ 466
sm@@ 466
丟 466
锶 466
Hat@@ 465
Hud@@ 465
Syl@@ 465
esi 465
ingen 465
olas 465
囑@@ 465
寔 465
揖 465
芪 465
銹@@ 465
Album 464
Frances@@ 464
Ras@@ 464
Robinson 464
mos@@ 464
咱@@ 464
拚 464
泫 464
鉻@@ 464
＜ 464
Charlie 463
Franz 463
dro@@ 463
ư 463
喂 463
滄 463
発 463
舂 463
钗 463
闺@@ 463
Community 462
Gul@@ 462
Jacob 462
Vor@@ 462
alist 462
contr@@ 462
elen 462
isch@@ 462
叱 462
塬 462
摻@@ 462
熏 462
聳 462
蛄 462
谘@@ 462
遏 462
騫 462
Apo@@ 461
Harr@@ 461
Ot@@ 461
eb 461
fan 461
oman 461
ˈ 461
弈@@ 461
惩 461
橡 461
淦@@ 461
灏 461
畈 461
篷@@ 461
藨 461
钺 461
雉@@ 461
Bish@@ 460
Mut@@ 460
Yan@@ 460
road 460
ump 460
ː 460
愔 460
漓@@ 460
釵 460
锌@@ 460
Lav@@ 459
avi@@ 459
four 459
hand@@ 459
kers 459
ment@@ 459
oty@@ 459
吶@@ 459
岬@@ 459
戊 459
葦@@ 459
飆 459
Extr@@ 458
Petr@@ 458
Toy@@ 458
eral 458
ische 458
儷 458
悶@@ 458
摹@@ 458
綝 458
驢 458
鷲@@ 458
Fres@@ 457
Water@@ 457
line@@ 457
ography 457
plo@@ 457
press@@ 457
them 457
喔 457
肱 457
脛@@ 457
芷 457
荳 457
贲 457
镌@@ 457
French 456
Harris 456
Norman 456
Southern 456
傍 456
棣@@ 456
殮 456
涤@@ 456
簋 456
袂 456
躯 456
铠@@ 456
３ 456
Margaret 455
Ner@@ 455
Theod@@ 455
abe 455
crip@@ 455
lac@@ 455
mm@@ 455
哌@@ 455
埴 455
嬤 455
廸 455
摯 455
汎 455
煒@@ 455
铿 455
Cad@@ 454
Cast@@ 454
edr@@ 454
iner 454
慤 454
扒@@ 454
毙@@ 454
濺 454
蝟 454
銬 454
Alexand@@ 453
Roy 453
峦 453
祆 453
綑 453
膊 453
菇@@ 453
菰 453
dol@@ 452
mark 452
冢@@ 452
剔 452
嘩@@ 452
笞 452
蔥@@ 452
阉@@ 452
By 451
Four 451
Nati@@ 451
aine 451
fs 451
ས 451
惶 451
瑣 451
蓟 451
钳@@ 451
铀@@ 451
Ast@@ 450
Lak@@ 450
enge 450
enter 450
esia 450
ique 450
ock@@ 450
sym@@ 450
Đ 450
绶@@ 450
Got@@ 449
Thor@@ 449
adr@@ 449
elt 449
ground 449
lard 449
Ö 449
ù 449
扯@@ 449
曰@@ 449
榛@@ 449
皎 449
蜑 449
酝@@ 449
骡@@ 449
Campbell 448
Independ@@ 448
aj 448
team 448
榎 448
珙 448
繽@@ 448
衬 448
袱 448
Ach@@ 447
aves 447
big 447
cot@@ 447
hen@@ 447
uld 447
惋@@ 447
揶@@ 447
芾 447
钍 447
GmbH 446
ceph@@ 446
kel 446
num@@ 446
戾 446
挟 446
礪 446
鞠 446
Fron@@ 445
Hus@@ 445
Shir@@ 445
ited 445
mode 445
拽 445
曄 445
渍 445
薙 445
譁 445
鏢@@ 445
飭 445
How@@ 444
Pir@@ 444
Trich@@ 444
cyc@@ 444
û 444
ж 444
刃@@ 444
嘢 444
涞@@ 444
瀟@@ 444
痙@@ 444
藁@@ 444
驭 444
Clin@@ 443
aud 443
lar 443
park 443
tt@@ 443
吒@@ 443
毯@@ 443
獠@@ 443
粽 443
胛@@ 443
裟 443
顔 443
鲑 443
鹟 443
鹬 443
Mars 442
river 442
徠 442
腮@@ 442
袤 442
Augus@@ 441
Government 441
Hip@@ 441
Way@@ 441
did@@ 441
eds 441
esh@@ 441
gia 441
gun 441
臍 441
薈 441
蚩@@ 441
诋@@ 441
郤 441
霆@@ 441
Alb@@ 440
Bour@@ 440
Fon@@ 440
Heinrich 440
Major 440
Sciences 440
They 440
ern 440
fort 440
isi 440
istic 440
owski 440
ska 440
vit@@ 440
吼@@ 440
堑 440
曳@@ 440
缨 440
蟀 440
Cass@@ 439
Cher@@ 439
oft 439
铈 439
리 439
﹔ 439
Korea 438
Rach@@ 438
Xi@@ 438
Yam@@ 438
aks 438
ames 438
being 438
ement@@ 438
gel@@ 438
hel@@ 438
onna 438
sian 438
stre@@ 438
岙 438
枇@@ 438
楸 438
涤 438
翘@@ 438
辄 438
錕 438
钏 438
鸯 438
Australia 437
Hit@@ 437
fic@@ 437
lib@@ 437
ross 437
uni 437
У 437
夙@@ 437
挹@@ 437
淘 437
萘@@ 437
锺@@ 437
馗 437
KK 436
King@@ 436
Leo 436
Morgan 436
Police 436
gan@@ 436
ingu@@ 436
open 436
sam@@ 436
ski@@ 436
坻 436
増 436
擄@@ 436
皺@@ 436
绮 436
鳟 436
Pow@@ 435
Suz@@ 435
chu@@ 435
led 435
両 435
冏 435
宸@@ 435
屑@@ 435
嵙 435
謇 435
钮@@ 435
阡 435
Esp@@ 434
Mart 434
Rail@@ 434
Sax@@ 434
language 434
made 434
吲@@ 434
哦 434
庠@@ 434
惣 434
氰 434
牯@@ 434
蓀 434
覲@@ 434
Hun@@ 433
Il 433
Maur@@ 433
cri@@ 433
fle@@ 433
pap@@ 433
phone 433
ˇ 433
佺 433
沱 433
篝@@ 433
蝸 433
NAS@@ 432
Pom@@ 432
Ster@@ 432
gol@@ 432
hr 432
ka@@ 432
position 432
瓮 432
蹲@@ 432
錒 432
雒 432
Ball@@ 431
ario 431
kat@@ 431
prin@@ 431
single 431
佃 431
佢 431
浒 431
燎@@ 431
緋 431
诀 431
钾@@ 431
Carolina 430
Grande 430
Rio 430
aku 430
ause 430
ec 430
make 430
冇 430
祯@@ 430
靳 430
骞 430
＃ 430
Federation 429
Fred 429
Sad@@ 429
Sali@@ 429
lab@@ 429
pon@@ 429
ular@@ 429
ï 429
忿@@ 429
桶@@ 429
溼 429
紘 429
蔵 429
鹊@@ 429
Baker 428
Wy@@ 428
theory 428
咩 428
坨 428
滌 428
舯 428
貘 428
鞮 428
鼬@@ 428
Abu 427
Country 427
Culture 427
North@@ 427
Pyr@@ 427
dos 427
greg@@ 427
isher 427
por 427
ʔ 427
垠 427
惱@@ 427
暘 427
硝 427
诩 427
Contin@@ 426
Lic@@ 426
ledge 426
sing@@ 426
弑 426
掷@@ 426
攪 426
杷 426
蠶 426
鄲 426
Otto 425
cro@@ 425
gn@@ 425
known 425
obi@@ 425
¹ 425
淪 425
Empire 424
Fab@@ 424
aten 424
oll 424
thor@@ 424
vec@@ 424
凄@@ 424
咖 424
磯@@ 424
缎 424
陟 424
Marc 423
Priv@@ 423
inga 423
ligh@@ 423
挾 423
盯@@ 423
缢 423
肘@@ 423
葶 423
铲 423
颉@@ 423
Con 422
Mr@@ 422
Nep@@ 422
alis@@ 422
hum@@ 422
hur@@ 422
ident 422
kir@@ 422
rati@@ 422
ris@@ 422
vor@@ 422
喹@@ 422
拗 422
挚 422
梆@@ 422
樫 422
禛 422
筛 422
膿@@ 422
鉻 422
Nas@@ 421
Neu@@ 421
Tes@@ 421
chen@@ 421
ń 421
哄@@ 421
哚 421
磘 421
Earl 420
Henri 420
Nan@@ 420
Pedro 420
agon@@ 420
but@@ 420
icia 420
image 420
kal@@ 420
侮 420
坯 420
斌@@ 420
槻@@ 420
烛@@ 420
鞏 420
骇@@ 420
鳉 420
Four@@ 419
Isa@@ 419
Neg@@ 419
asc@@ 419
eing 419
nh 419
㎡ 419
冼 419
岂 419
忻 419
羿 419
鏖@@ 419
鮈 419
Di 418
Railway 418
che@@ 418
fun@@ 418
web@@ 418
垭 418
嶇 418
幡@@ 418
忤@@ 418
暉@@ 418
殉 418
璐@@ 418
脩@@ 418
苕 418
蛎 418
褂 418
訇 418
谯@@ 418
贪 418
蹼 418
April 417
Secre@@ 417
asse 417
dale 417
odes 417
tam@@ 417
嗨 417
玑 417
郗@@ 417
鉚@@ 417
５ 417
Northern 416
Stewart 416
eder@@ 416
rez 416
stream 416
trac@@ 416
岘 416
淌 416
熔 416
眙 416
蜷@@ 416
逛 416
钌 416
顫 416
Bell@@ 415
Card@@ 415
June 415
Rid@@ 415
Satur@@ 415
hav@@ 415
刎 415
勲 415
繙 415
茛 415
蜗 415
袈@@ 415
铼 415
閎 415
鳕 415
Geor@@ 414
Haz@@ 414
etz@@ 414
process 414
実 414
苋@@ 414
鉄 414
Gaz@@ 413
ender@@ 413
imo 413
rid 413
spir@@ 413
uki 413
wen@@ 413
儼 413
垛 413
睢 413
絆@@ 413
綻 413
羨 413
郜@@ 413
鈍@@ 413
饬 413
Mey@@ 412
Raj@@ 412
cial 412
ingham 412
pers 412
嘱@@ 412
恣@@ 412
昙 412
淼 412
穰 412
贓 412
鳢 412
Ernst 411
bank 411
stat@@ 411
ý 411
น 411
挛 411
罌@@ 411
锰@@ 411
饅@@ 411
Forest 410
Las@@ 410
ouse 410
ホ 410
唸@@ 410
瓌 410
餾@@ 410
oti@@ 409
track 409
ì 409
曠 409
猗 409
釗@@ 409
鯡 409
Gem@@ 408
ilia 408
ini@@ 408
mad@@ 408
sul@@ 408
亵@@ 408
凜@@ 408
勻@@ 408
曙 408
樾 408
澡@@ 408
牍 408
翹@@ 408
蒾 408
顼 408
鯓 408
Brig@@ 407
Psych@@ 407
aut@@ 407
det@@ 407
eto 407
eton 407
oug@@ 407
pass@@ 407
墉 407
憨@@ 407
汴 407
澆@@ 407
琚 407
璩 407
蜕@@ 407
鍬 407
铢 407
髅 407
Hamilton 406
att 406
ischer 406
zu 406
懈@@ 406
樋@@ 406
繃 406
综 406
羈 406
躄 406
ayan 405
final 405
indi@@ 405
species 405
tun@@ 405
捻@@ 405
晔 405
烽 405
詡 405
鈽 405
Amp@@ 404
Duke 404
Fur@@ 404
Gom@@ 404
Hollywood 404
lus 404
refer@@ 404
rier 404
げ 404
姫 404
獴 404
謐 404
鯧 404
Andre@@ 403
Brun@@ 403
Capit@@ 403
Emp@@ 403
India 403
lion 403
zz@@ 403
ξ 403
ة 403
ق 403
孰@@ 403
岀 403
憊 403
浔 403
詮 403
鶻 403
Front 402
Ja@@ 402
Nelson 402
Seb@@ 402
ching 402
exp@@ 402
gin@@ 402
usi@@ 402
俳 402
恵 402
椽 402
硐 402
绯@@ 402
脛 402
鉤@@ 402
锂@@ 402
Batt@@ 401
Feli@@ 401
Rat@@ 401
shire 401
vil@@ 401
喫 401
忤 401
Bang@@ 400
Chall@@ 400
Middle 400
area 400
uo 400
巻 400
淤 400
Concep@@ 399
ion@@ 399
udi@@ 399
嚣 399
琐@@ 399
蟋@@ 399
诟@@ 399
颍 399
Asp@@ 398
Ok@@ 398
Shu@@ 398
bau@@ 398
thre@@ 398
  398
卒@@ 398
歹 398
絞 398
Flu@@ 397
Gabriel 397
aug@@ 397
force 397
gether 397
lier 397
nt 397
潞 397
疯 397
痉@@ 397
鵡@@ 397
４ 397
Rud@@ 396
gy 396
ules 396
ψ 396
坷 396
恽@@ 396
惺@@ 396
扉 396
揽@@ 396
瞪@@ 396
腥@@ 396
莒 396
钇 396
骯 396
Dir@@ 395
Sport@@ 395
Univers@@ 395
Winter 395
abil@@ 395
arc@@ 395
aro@@ 395
bic@@ 395
sequ@@ 395
攒 395
邬@@ 395
郅 395
鲫 395
Bernard 394
Det@@ 394
Viol@@ 394
ences 394
kon@@ 394
onne 394
tar 394
啾 394
懼@@ 394
擘 394
砚 394
豉 394
鼯@@ 394
aman 393
ation@@ 393
eign 393
焗 393
遹 393
Bac@@ 392
Bin@@ 392
amo 392
dam@@ 392
ej@@ 392
prob@@ 392
sion@@ 392
spe@@ 392
僥 392
僳@@ 392
宓 392
掳@@ 392
溅@@ 392
迺 392
鷸 392
鹭@@ 392
Part@@ 391
Poli@@ 391
Stanley 391
comm@@ 391
omy@@ 391
phon@@ 391
stor@@ 391
珑 391
睑 391
臆@@ 391
赉@@ 391
鮄 391
Val 390
dar@@ 390
kan 390
tek 390
ح 390
椁 390
殯 390
籬@@ 390
Emil@@ 389
Et@@ 389
Schwar@@ 389
alo 389
ob 389
糞@@ 389
脾 389
蜃@@ 389
謔 389
鎳@@ 389
閲 389
髯 389
Dist@@ 388
dom 388
昼 388
泮 388
莆 388
隷 388
鬬 388
鶚 388
Chi 387
Pra@@ 387
Rosa 387
sia 387
tain@@ 387
仄@@ 387
烬 387
辊 387
飢 387
Beat@@ 386
Doctor 386
Premier 386
Roy@@ 386
Stil@@ 386
esh 386
fire 386
ru 386
solo 386
儕 386
拭 386
枷@@ 386
楹@@ 386
汲 386
翩@@ 386
赃@@ 386
邽 386
Mark@@ 385
Tir@@ 385
arts 385
chia 385
drome 385
eur 385
thy 385
wick 385
yon 385
侃@@ 385
嵋 385
彤@@ 385
徕 385
掀 385
摧 385
涧@@ 385
纓 385
蔘 385
轧@@ 385
郫@@ 385
Ou@@ 384
Produ@@ 384
bon@@ 384
mental 384
new@@ 384
room 384
vier 384
嘶@@ 384
曦@@ 384
溱 384
漣@@ 384
眩 384
耸 384
鋤@@ 384
Lig@@ 383
eling 383
nucle@@ 383
pri@@ 383
proper@@ 383
巿 383
槿 383
疙@@ 383
穂 383
钳 383
Chir@@ 382
Lau@@ 382
Wid@@ 382
ebe 382
ieve 382
伕 382
喋@@ 382
懇 382
浣 382
舔 382
苜@@ 382
菟 382
褻@@ 382
蹊@@ 382
before 381
eira 381
elling 381
enf@@ 381
ices 381
illo 381
ils 381
uter 381
囓@@ 381
洹 381
讹@@ 381
Mass@@ 380
侶@@ 380
劵 380
嘿 380
懾 380
罡 380
趴 380
Films 379
Georges 379
Kaz@@ 379
Palm@@ 379
ric 379
wi 379
奘@@ 379
汊 379
睫 379
竈 379
아 379
Colorado 378
Vik@@ 378
aborat@@ 378
ander 378
rue 378
shar@@ 378
尕@@ 378
崽 378
瘩 378
荼@@ 378
螂@@ 378
訛@@ 378
讥@@ 378
閡 378
靚 378
Epis@@ 377
dle 377
forman@@ 377
ㄚ 377
俐@@ 377
咯@@ 377
嶂 377
幪 377
甑 377
绮@@ 377
蝮 377
詬@@ 377
酆 377
銣 377
駅 377
Aus@@ 376
Buff@@ 376
Clu@@ 376
EU 376
Justice 376
Raymond 376
arian 376
cole 376
iter 376
what 376
Γ 376
砀@@ 376
胫@@ 376
腓 376
誅@@ 376
逮 376
雋 376
馒@@ 376
鬃 376
Alt@@ 375
Dum@@ 375
Lo 375
elly 375
ras@@ 375
spr@@ 375
僊 375
煜@@ 375
翎@@ 375
蠡 375
郷 375
Her 374
Hin@@ 374
Iv@@ 374
bes@@ 374
brach@@ 374
bridge 374
court 374
etes 374
囍 374
熬@@ 374
燊@@ 374
疍 374
簿@@ 374
蹠 374
Carter 373
It@@ 373
Robin 373
airs 373
asia 373
versi@@ 373
wel@@ 373
催 373
僻@@ 373
弢 373
汹@@ 373
滌@@ 373
秆 373
茁@@ 373
Australian 372
Federal 372
Grant 372
Griff@@ 372
craft 372
gam@@ 372
mid@@ 372
peti@@ 372
凜 372
棂 372
珉@@ 372
蚁@@ 372
Aj@@ 371
Lucas 371
athan 371
edy 371
lam 371
sn@@ 371
tit@@ 371
wide 371
ㄨ 371
糰 371
羟 371
苫 371
赉 371
錚 371
铷 371
Kun@@ 370
abri@@ 370
ece 370
front 370
lif@@ 370
mach@@ 370
oko 370
卯@@ 370
昙@@ 370
昶@@ 370
桀 370
碚 370
茸@@ 370
蒞@@ 370
裹@@ 370
謂@@ 370
輓 370
Stan@@ 369
card 369
far@@ 369
wak@@ 369
Š 369
壶@@ 369
慫@@ 369
欒@@ 369
珞 369
痞@@ 369
蘸 369
辕@@ 369
闯 369
Ba 368
Wolf 368
angle 368
avo 368
dio 368
private 368
兗 368
姒 368
帛@@ 368
挝@@ 368
棨 368
虱@@ 368
詼@@ 368
頷 368
Herbert 367
Islands 367
① 367
佶 367
绎@@ 367
Was@@ 366
chem@@ 366
enta 366
itation 366
ith@@ 366
mes@@ 366
oul 366
prop@@ 366
傉 366
廪 366
禀 366
苾 366
蛉 366
Jon@@ 365
Kak@@ 365
Mart@@ 365
ander@@ 365
els@@ 365
fi 365
fus@@ 365
graph@@ 365
mission 365
oshi 365
ud 365
歙 365
穢@@ 365
筐 365
鈈 365
Dru@@ 364
Stein@@ 364
eros 364
kov 364
last 364
project 364
uru 364
廩 364
懊@@ 364
楽 364
礽 364
鍺 364
Angeles 363
borough 363
cus@@ 363
mid 363
mov@@ 363
咭 363
擷@@ 363
楂 363
殓 363
涝@@ 363
牴 363
蚋 363
趴@@ 363
Austin 362
agen 362
apa 362
cam@@ 362
tri 362
video 362
哋 362
拚@@ 362
氖 362
洸 362
牵 362
狭 362
璣 362
痣 362
誰@@ 362
辇 362
ashi 361
born 361
bra 361
och 361
Α 361
亶 361
伝 361
岷 361
獐@@ 361
蠑@@ 361
Der 360
Fernando 360
Guar@@ 360
fur@@ 360
phot@@ 360
post 360
rad 360
埭 360
泚 360
碣 360
萁 360
蓿 360
馅@@ 360
---- 359
Agr@@ 359
Beh@@ 359
Initi@@ 359
Wind@@ 359
XII 359
ador 359
iler 359
itter 359
ques 359
綢@@ 359
葩 359
靛@@ 359
Dep@@ 358
pre 358
toral 358
ums 358
揪@@ 358
湄 358
諤 358
0.000 357
End@@ 357
Kim@@ 357
Manuel 357
Test@@ 357
spo@@ 357
tas@@ 357
xi 357
َ 357
咫@@ 357
嫔@@ 357
孿@@ 357
惮 357
祎 357
蕪@@ 357
謨@@ 357
贰 357
钤 357
Main@@ 356
Maxim@@ 356
Sainte 356
fel@@ 356
org@@ 356
program 356
tary 356
vie@@ 356
娠@@ 356
瞭 356
瞿 356
罹 356
闓 356
闔 356
鹳 356
Captain 355
Exper@@ 355
Marine 355
Mario 355
atom@@ 355
both 355
igi 355
ird 355
part@@ 355
run 355
吝@@ 355
昺 355
犒@@ 355
糜 355
腑 355
詆@@ 355
踵@@ 355
鱒 355
Adams 354
Christi@@ 354
Pach@@ 354
President 354
Rep@@ 354
mix@@ 354
Č 354
ش 354
倬 354
傚 354
愨 354
誣 354
Bapti@@ 353
Baz@@ 353
Bes@@ 353
Chu 353
Peter@@ 353
Well@@ 353
Will@@ 353
cos 353
func@@ 353
侂 353
岫@@ 353
愕 353
燻 353
砺 353
觴 353
譙@@ 353
跗@@ 353
酈@@ 353
Bis@@ 352
Gri@@ 352
Miss@@ 352
Other 352
bran@@ 352
kar 352
nav@@ 352
player 352
sou@@ 352
敝 352
桉@@ 352
缇 352
觅 352
Bog@@ 351
Kno@@ 351
Ludwig 351
Mang@@ 351
Sant@@ 351
Shel@@ 351
aint 351
bal 351
chester 351
ising 351
real 351
sl@@ 351
¥ 351
Ü 351
丐@@ 351
滏@@ 351
犰@@ 351
缙 351
菝@@ 351
葜 351
藪 351
鄒 351
铌 351
镰 351
饥 351
Columbia 350
Japanese 350
Stat@@ 350
asis 350
assi@@ 350
dat@@ 350
sar 350
ths 350
ย 350
枸@@ 350
鉍 350
Ａ 350
0s 349
Miguel 349
Muhammad 349
ble@@ 349
las@@ 349
pler 349
username 349
za@@ 349
垛@@ 349
峤 349
疡 349
箇 349
萜 349
蝾@@ 349
鎘 349
驷 349
Chief 348
Maurice 348
Ut@@ 348
Ya 348
dae 348
lav 348
丫 348
洶@@ 348
硯 348
逍 348
邯 348
Dim@@ 347
aber 347
enh@@ 347
jan 347
onal@@ 347
sons 347
sts 347
Φ 347
拋 347
殤 347
滲 347
焓 347
粑 347
纘 347
觎 347
Clau@@ 346
Jak@@ 346
Jur@@ 346
Pand@@ 346
Pho@@ 346
Ses@@ 346
aver@@ 346
eti 346
imi@@ 346
isp@@ 346
lich@@ 346
servat@@ 346
these 346
ɕ 346
噱@@ 346
嬤@@ 346
枱 346
贱@@ 346
Ear@@ 345
eine 345
san 345
έ 345
嚙 345
淒@@ 345
淬@@ 345
盯 345
邰@@ 345
Back@@ 344
Fem@@ 344
Kos@@ 344
Tat@@ 344
bis@@ 344
fir@@ 344
igg@@ 344
sar@@ 344
squ@@ 344
柄@@ 344
熄 344
狳 344
罔 344
蕎@@ 344
讹 344
赃 344
鲵 344
鳗@@ 344
Austr@@ 343
Chicago 343
Len@@ 343
坌 343
娥@@ 343
毌 343
禀@@ 343
肮@@ 343
郦@@ 343
锢 343
馴 343
黟@@ 343
Catherine 342
Chron@@ 342
Had@@ 342
Isab@@ 342
Malaysia 342
Oxford 342
Prin@@ 342
Professor 342
agan 342
dorf 342
isch 342
rich 342
virus 342
ה 342
嚥 342
憩@@ 342
晖@@ 342
栒 342
櫚 342
濡 342
璁 342
绾 342
蹴@@ 342
釧@@ 342
鉀@@ 342
Gau@@ 341
Indian 341
Person@@ 341
Thom@@ 341
Wir@@ 341
enci@@ 341
mad 341
ply 341
tie 341
whe@@ 341
② 341
嘩 341
淝 341
舘 341
螯@@ 341
鲱@@ 341
Airlines 340
Bed@@ 340
Berg@@ 340
Marshall 340
against 340
aster@@ 340
ead 340
eim 340
kes 340
mess@@ 340
tz@@ 340
岫 340
燧@@ 340
犛@@ 340
甕@@ 340
绫 340
霈 340
鸠@@ 340
Oscar 339
ague 339
eler 339
nati@@ 339
ole@@ 339
tax@@ 339
timestamp 339
white 339
侑 339
囧 339
泣@@ 339
濘 339
瘴@@ 339
胳@@ 339
麿 339
Cum@@ 338
Kamp@@ 338
Raf@@ 338
aller 338
andro 338
ening 338
etto 338
techn@@ 338
ě 338
ユ 338
ヴ 338
尕 338
扩 338
痲 338
磋 338
綽 338
茧 338
锄@@ 338
髹 338
Barbara 337
Carlo 337
His 337
Milit@@ 337
eger 337
integ@@ 337
ogle 337
ours 337
protein 337
ria 337
ḥ 337
戳@@ 337
扛@@ 337
睜@@ 337
翦 337
膑 337
芍@@ 337
蹶@@ 337
지 337
Moun@@ 336
Racing 336
blu@@ 336
contributor 336
during 336
dy@@ 336
fen@@ 336
ference 336
mund 336
omi 336
plas@@ 336
Λ 336
簫 336
觊@@ 336
锣 336
陉 336
頷@@ 336
馅 336
Theater 335
Villa 335
avier 335
berger 335
eca 335
oso 335
ran 335
ring 335
เ 335
皙 335
翳 335
顷@@ 335
騏 335
鳶@@ 335
鼴@@ 335
Dod@@ 334
Nev@@ 334
Rein@@ 334
Wiki@@ 334
tos 334
voc@@ 334
xa 334
Π 334
ม 334
皝 334
躉 334
轸 334
Reser@@ 333
Sap@@ 333
effect 333
eur@@ 333
feld 333
iva 333
rock 333
疝 333
皎@@ 333
脓@@ 333
Georg 332
Laz@@ 332
Motor@@ 332
Tax@@ 332
identi@@ 332
ingo 332
py@@ 332
stri@@ 332
ざ 332
渚@@ 332
稗 332
贓@@ 332
鏘 332
鑛 332
闕@@ 332
驪@@ 332
鹑 332
Mann@@ 331
Nord@@ 331
Proj@@ 331
comment 331
oes 331
tly 331
ṭ 331
䲗 331
紂 331
苄 331
讣@@ 331
鄢 331
銥 331
钜 331
関@@ 331
阖 331
鲶@@ 331
Arab@@ 330
Bah@@ 330
Comics 330
Marco 330
Phoen@@ 330
aza 330
kom@@ 330
ling@@ 330
rh@@ 330
凈 330
啲 330
嗝 330
搐 330
旃@@ 330
炘 330
祛@@ 330
辮 330
邙@@ 330
鎔@@ 330
闷@@ 330
龔 330
ging 329
later 329
lio 329
qua 329
stadt 329
wald 329
yu@@ 329
ʃ 329
対 329
尙 329
牂 329
腋 329
菅 329
讒@@ 329
閥@@ 329
鲈@@ 329
Kum@@ 328
iden 328
ien 328
lic@@ 328
trav@@ 328
ר 328
嗇 328
愷@@ 328
氦@@ 328
漣 328
碌@@ 328
稷@@ 328
竅 328
褓 328
銖 328
铑 328
镳 328
Shin@@ 327
cription 327
fon@@ 327
ht 327
ible 327
play@@ 327
sche 327
tima 327
嚏 327
寐 327
慟 327
玖@@ 327
禕 327
邝@@ 327
驴@@ 327
鲑@@ 327
鶉 327
Coast 326
Rah@@ 326
alt 326
ares 326
burn 326
isia 326
ج 326
侥@@ 326
媧 326
惫 326
摺@@ 326
燥@@ 326
璞@@ 326
顥 326
Claude 325
Gur@@ 325
Philippe 325
ances 325
anta 325
avi 325
hard@@ 325
illing 325
illon 325
late 325
ད 325
佾 325
倣 325
吶 325
獭 325
銼 325
Charlotte 324
Most 324
cht 324
esi@@ 324
ific@@ 324
same 324
tures 324
ʻ 324
ก 324
อ 324
呐@@ 324
尪 324
楝 324
蜊 324
輅 324
飘 324
鵟 324
Son 323
ata@@ 323
best 323
ina@@ 323
many 323
met 323
tab@@ 323
慮@@ 323
翱@@ 323
闋 323
鱿@@ 323
Cec@@ 322
Cem@@ 322
Democ@@ 322
Lie@@ 322
Pos@@ 322
ael 322
bey 322
bourg 322
eci@@ 322
head@@ 322
imp@@ 322
ms@@ 322
tag 322
unit 322
咗 322
塩 322
挠@@ 322
槲@@ 322
溅 322
玮@@ 322
疋 322
繡@@ 322
轅@@ 322
鎗 322
頴 322
黻 322
Develop@@ 321
bab@@ 321
consol@@ 321
dem 321
design 321
lit 321
som@@ 321
wards 321
đ 321
ف 321
亵 321
吠 321
泻@@ 321
糯 321
餃@@ 321
駄 321
Another 320
Ide@@ 320
days 320
ition 320
utive 320
々 320
仞 320
嚎@@ 320
沔 320
眨@@ 320
秧 320
銑 320
Alg@@ 319
Del 319
Fall 319
Tok@@ 319
Vin@@ 319
ats@@ 319
ever@@ 319
sex 319
tot@@ 319
uer@@ 319
べ 319
哑 319
攫@@ 319
沣 319
玹 319
钨@@ 319
闿 319
骊@@ 319
黴 319
Peti@@ 318
years 318
僮 318
徇@@ 318
荟@@ 318
遐 318
鎓 318
镨 318
閂 318
다 318
Anth@@ 317
Philos@@ 317
Ukr@@ 317
fore 317
local 317
national 317
ophie 317
嫂@@ 317
巳@@ 317
徳@@ 317
桀@@ 317
殃@@ 317
涛@@ 317
涩@@ 317
濡@@ 317
狨 317
笺 317
鍔 317
鍰 317
Canadian 316
Eastern 316
Gab@@ 316
Hein@@ 316
Jun@@ 316
box@@ 316
high@@ 316
indic@@ 316
ix@@ 316
ono 316
orph@@ 316
par 316
疸 316
菘 316
衹 316
讧 316
﹚ 316
Dame 315
ables 315
aise 315
event@@ 315
nel 315
omer@@ 315
oun 315
劏 315
稗@@ 315
虬@@ 315
驕 315
Bahn 314
German 314
anim@@ 314
ben 314
dou@@ 314
ider@@ 314
igi@@ 314
lav@@ 314
mani 314
mine 314
ning@@ 314
tent 314
vor 314
ya@@ 314
ṣ 314
嗅 314
拏 314
琺@@ 314
瓢 314
餵@@ 314
Africa 313
Ble@@ 313
Born 313
Du 313
Lec@@ 313
Louise 313
Scot@@ 313
UEFA 313
alogue 313
enzo 313
iles 313
orn@@ 313
phi 313
tir@@ 313
侦 313
俾 313
沓 313
糠@@ 313
豸 313
闼 313
隽 313
atory 312
cit@@ 312
dea 312
呦 312
団 312
孽@@ 312
宥@@ 312
峙@@ 312
櫓 312
毡 312
炤 312
盂@@ 312
箋 312
聂 312
踴@@ 312
鎰 312
Rum@@ 311
acks 311
atur@@ 311
cent 311
just 311
ordin@@ 311
rou@@ 311
strong 311
tum 311
◎ 311
榊@@ 311
磾 311
蠹 311
蹬 311
锴 311
魘 311
鱟 311
Route 310
aces 310
coordin@@ 310
prom@@ 310
ros 310
signed 310
uno 310
埸 310
璫 310
癣 310
睬 310
箬 310
諳 310
驮 310
麂 310
cir@@ 309
eland 309
iting 309
ley@@ 309
master 309
oga 309
range 309
ั 309
⁵ 309
拌@@ 309
殁 309
稃 309
縷 309
葭 309
谒@@ 309
飚 309
Dest@@ 308
Jazz 308
Nur@@ 308
Phili@@ 308
cla@@ 308
source 308
sula 308
ɑ 308
া 308
哄 308
惕@@ 308
盥@@ 308
笋@@ 308
粧 308
紡 308
絮@@ 308
蠵 308
賡 308
銮@@ 308
霓 308
Mw@@ 307
XV 307
alli 307
ending 307
gan 307
nit@@ 307
original 307
sort 307
viv@@ 307
ysi@@ 307
≠ 307
壅@@ 307
蟠 307
迩 307
South@@ 306
Tib@@ 306
found 306
翱 306
铕 306
雛 306
頑 306
馈@@ 306
骈 306
Andrea 305
Johannes 305
R.@@ 305
Tul@@ 305
dur@@ 305
eppe 305
iness 305
onym@@ 305
ง 305
伎@@ 305
嘟 305
廡 305
涎 305
湜 305
瓩 305
碛 305
紺 305
薊 305
贽 305
鈮 305
隙@@ 305
鱚 305
６ 305
Dani@@ 304
Fried@@ 304
Julius 304
XIV 304
direc@@ 304
enes 304
ilian 304
lose 304
systems 304
庾 304
彷@@ 304
旼 304
橿 304
緱@@ 304
脣 304
莓@@ 304
閬 304
사 304
Nations 303
ators 303
ego 303
lec@@ 303
stage 303
xe 303
Э 303
் 303
姍@@ 303
滂 303
濰@@ 303
铣 303
阚@@ 303
鲹 303
C.@@ 302
Kid@@ 302
Kul@@ 302
activ@@ 302
amba 302
aun 302
elles 302
erie 302
hood 302
tari 302
tric@@ 302
ṃ 302
啰 302
奐 302
殇 302
牘 302
瑷 302
瘀@@ 302
笆 302
篪 302
鏐 302
驢@@ 302
Boh@@ 301
Sz@@ 301
alli@@ 301
inv@@ 301
sun@@ 301
啜 301
栉@@ 301
翀 301
脐@@ 301
軻 301
鉗@@ 301
黼 301
Milli@@ 300
Speci@@ 300
flav@@ 300
kn@@ 300
parti@@ 300
rig@@ 300
wall 300
乓 300
寛@@ 300
弑@@ 300
棠@@ 300
钰@@ 300
Gel@@ 299
Hass@@ 299
John@@ 299
Sti@@ 299
Virginia 299
dir 299
encer 299
hap@@ 299
nat@@ 299
onald 299
phil@@ 299
rate 299
seud@@ 299
uro 299
ύ 299
ṇ 299
ぼ 299
叭@@ 299
巯@@ 299
捡 299
漓 299
耍@@ 299
鏟@@ 299
驃@@ 299
Au 298
Govern@@ 298
Hut@@ 298
Prof@@ 298
Ray@@ 298
Sydney 298
aries 298
ener 298
million 298
nec@@ 298
production 298
short 298
uli 298
ğ 298
喰 298
搪@@ 298
瀞 298
灞 298
荞@@ 298
谯 298
贲@@ 298
逖 298
鱀 298
Fig@@ 297
Ib@@ 297
Nig@@ 297
Pac@@ 297
anie 297
hiz@@ 297
tains 297
З 297
矯 297
辮@@ 297
Nap@@ 296
Russian 296
Sah@@ 296
Say@@ 296
ك 296
न 296
‖ 296
嵬 296
涇 296
箫 296
糅@@ 296
虻 296
軛@@ 296
颤 296
﹙ 296
Atlantic 295
Christ 295
Iron 295
Koh@@ 295
NCA@@ 295
Supre@@ 295
Tag 295
abad 295
defin@@ 295
host@@ 295
ligence 295
unter@@ 295
徙@@ 295
捅 295
斃@@ 295
漕 295
瑱 295
荽 295
贮 295
钪 295
Nikol@@ 294
appro@@ 294
formes 294
ime@@ 294
pose 294
thu@@ 294
བ 294
≈ 294
搓 294
躪 294
雎 294
駭 294
가 294
Hermann 293
Ireland 293
Monte 293
cip@@ 293
cord 293
iki@@ 293
ि 293
伺 293
佰 293
囂@@ 293
宍 293
覧 293
贍 293
鏗@@ 293
Anton 292
Bruno 292
Hart@@ 292
Panz@@ 292
idos 292
匝 292
嗚@@ 292
噌 292
撣@@ 292
獠 292
鎏@@ 292
Hydro@@ 291
evo 291
ful@@ 291
sten 291
tec@@ 291
א 291
ز 291
™ 291
咙 291
址@@ 291
姉 291
姍 291
枷 291
跛@@ 291
韜@@ 291
饗 291
Mong@@ 290
aking 290
ilio 290
lies 290
wich 290
㹴 290
爻 290
牦@@ 290
狒 290
総 290
袒@@ 290
讖@@ 290
鄄@@ 290
鉭 290
鬨 290
대 290
Apol@@ 289
Berlin 289
Diego 289
Hugo 289
November 289
Penn@@ 289
Slo@@ 289
plan 289
quin@@ 289
west 289
€ 289
壆 289
徴 289
怎 289
渎@@ 289
艱 289
衅@@ 289
铐 289
Cant@@ 288
Fall@@ 288
anh 288
due 288
eux 288
itas 288
obr@@ 288
rio 288
six 288
ste 288
♭ 288
嘏 288
孰 288
滦 288
燄 288
绊@@ 288
訌 288
踵 288
邗@@ 288
郾@@ 288
饱 288
Mau@@ 287
bu 287
hem@@ 287
him@@ 287
hir@@ 287
iner@@ 287
oca 287
sel 287
sert 287
Ф 287
म 287
倔@@ 287
卬 287
噓 287
惘 287
珂@@ 287
邹 287
Hul@@ 286
Texas 286
atin 286
ino@@ 286
ishi 286
lied 286
ovi@@ 286
teen 286
ή 286
俨@@ 286
濯 286
谪 286
骶@@ 286
Nom@@ 285
Orchestra 285
bia 285
eda 285
take 285
tidae 285
吩 285
敛@@ 285
曬@@ 285
聿 285
芈 285
駢@@ 285
髂@@ 285
鹗 285
Aster@@ 284
hibi@@ 284
inn 284
mati@@ 284
mil 284
vul@@ 284
ɪ 284
呐 284
呷 284
嫻@@ 284
徨 284
泠 284
烙 284
蓣 284
蝰@@ 284
骼@@ 284
Bach@@ 283
Wer@@ 283
Wild@@ 283
Yar@@ 283
adv@@ 283
anal@@ 283
club 283
construc@@ 283
ige 283
佇@@ 283
嚟 283
鍀 283
鳕@@ 283
김 283
Canal 282
Motor 282
Sag@@ 282
Sierra 282
endro@@ 282
far 282
mos 282
nar@@ 282
some@@ 282
э 282
ิ 282
垵 282
毬 282
瘁 282
磬 282
簕 282
苄@@ 282
衊 282
隴 282
隽@@ 282
Assembly 281
Highway 281
enna 281
entry 281
mand@@ 281
para 281
without 281
ォ 281
撇 281
昪 281
砧@@ 281
祏 281
鉸 281
鎵 281
頊 281
Alber@@ 280
Cambridge 280
Corps 280
Kay@@ 280
Kennedy 280
Liter@@ 280
Zh@@ 280
ahn 280
eston 280
nd 280
onel 280
stell@@ 280
uses 280
緞@@ 280
肟 280
葯 280
霁@@ 280
Dipl@@ 279
Gru@@ 279
Metropolit@@ 279
acher 279
agne 279
following 279
hat 279
hon@@ 279
ל 279
ོ 279
乡镇@@ 279
呵 279
嘛@@ 279
堉 279
柞@@ 279
珽 279
苎@@ 279
鉬 279
锇 279
Civil 278
Him@@ 278
January 278
Pek@@ 278
Pok@@ 278
abi 278
atu 278
ires 278
lyn 278
mir 278
oking 278
pet@@ 278
train 278
効 278
嘈@@ 278
拴@@ 278
琯 278
眞 278
笙@@ 278
脯@@ 278
辺 278
Franklin 277
Wayne 277
coc@@ 277
kor@@ 277
magazine 277
match 277
midt 277
nu 277
ps@@ 277
rid@@ 277
ult@@ 277
ི 277
啦@@ 277
噠 277
玆 277
秣 277
蔺@@ 277
衫@@ 277
閻 277
鹳@@ 277
나 277
Municipal 276
atri@@ 276
bos@@ 276
complex 276
emia 276
ged 276
Ø 276
圮 276
嬛 276
嬸 276
崮 276
澶 276
薏@@ 276
蘅 276
銦 276
鰾 276
Hid@@ 275
Jesus 275
Santo 275
Warner 275
burgh 275
cons@@ 275
hir 275
rel 275
tail 275
uba 275
娲 275
浇 275
滉 275
莹@@ 275
阑@@ 275
驷@@ 275
Fern@@ 274
Some 274
again 274
med@@ 274
phys@@ 274
roc@@ 274
sz@@ 274
times 274
Β 274
勺@@ 274
啥 274
慚@@ 274
戡 274
晾@@ 274
癥 274
詒 274
鋇 274
鋯 274
镀 274
靓@@ 274
頫 274
鳟@@ 274
Buch@@ 273
Regional 273
Vid@@ 273
ator@@ 273
dian 273
eting 273
grap@@ 273
nas@@ 273
oir 273
ར 273
叮 273
怂@@ 273
揪 273
暧@@ 273
縛@@ 273
罵@@ 273
谌 273
軼 273
Adel@@ 272
Anton@@ 272
Grim@@ 272
Las 272
P.@@ 272
bad 272
casting 272
could 272
eka 272
termin@@ 272
冪@@ 272
哆@@ 272
溲 272
訃@@ 272
霖@@ 272
鯡@@ 272
﹣ 272
Hali@@ 271
Sep@@ 271
depend@@ 271
este 271
information 271
nay 271
pression 271
shot 271
ག 271
ㄇ 271
劻 271
孳@@ 271
岙@@ 271
巅 271
淸 271
炁 271
烫 271
狛 271
眞@@ 271
秭@@ 271
荚@@ 271
螭 271
鄣 271
铵@@ 271
镂@@ 271
December 270
Port@@ 270
Roh@@ 270
Santos 270
Sultan 270
ebo@@ 270
endi@@ 270
har 270
mula 270
oc 270
olan 270
俁@@ 270
槙 270
瓠 270
磕@@ 270
窰 270
耽 270
胝 270
臬 270
訕 270
鉈 270
鋂 270
DDR 269
Jag@@ 269
Shak@@ 269
amer@@ 269
ichi 269
lik@@ 269
stock 269
哼@@ 269
垌 269
忿 269
篱 269
谧 269
輜@@ 269
郗 269
镧@@ 269
Alli@@ 268
Gonz@@ 268
Sieg@@ 268
Yor@@ 268
adu@@ 268
espace 268
tribut@@ 268
埒 268
廝@@ 268
恃@@ 268
枞@@ 268
泷@@ 268
焱 268
纭 268
胯@@ 268
趺 268
阕 268
鯒 268
黝@@ 268
Congress 267
Ein@@ 267
Instrum@@ 267
Nam 267
Roberto 267
Tenn@@ 267
aging 267
open@@ 267
pay@@ 267
ustr@@ 267
xon 267
乜 267
埂 267
弒@@ 267
杵@@ 267
柊 267
玻 267
羥 267
舢@@ 267
苌 267
襖 267
鍶 267
African 266
Rac@@ 266
Rodr@@ 266
ample 266
kul@@ 266
rif@@ 266
test@@ 266
utt@@ 266
嚈 266
囿 266
懒 266
舛 266
鈿 266
鵜 266
鵠 266
Nacional 265
Pam@@ 265
S.@@ 265
ned 265
ref@@ 265
season 265
soci@@ 265
standing 265
tico 265
urt 265
ゼ 265
椋 265
稙 265
芃 265
蓆 265
谁@@ 265
邸@@ 265
陟@@ 265
鰧 265
鸛 265
Andr@@ 264
Bill@@ 264
Chal@@ 264
Chev@@ 264
Jung@@ 264
Revol@@ 264
ana@@ 264
estruc@@ 264
imm@@ 264
including 264
kus 264
person 264
sal 264
sten@@ 264
trich@@ 264
was@@ 264
zen@@ 264
त 264
搔@@ 264
榧 264
氬 264
涿 264
脐 264
腩 264
諱@@ 264
辫@@ 264
current 263
isten 263
ju 263
kur@@ 263
mel 263
move 263
orr@@ 263
唧@@ 263
垅 263
榖 263
狒@@ 263
蘄@@ 263
韭 263
颛@@ 263
髑 263
鬟 263
Crim@@ 262
Das 262
ayo 262
eki 262
emi 262
lear@@ 262
nan 262
seg@@ 262
吗@@ 262
榉 262
筏@@ 262
羧 262
鄠 262
鲆 262
﹝ 262
﹞ 262
Cruz 261
Tag@@ 261
agi@@ 261
large 261
sie 261
tempor@@ 261
urg@@ 261
ю 261
♪ 261
倦@@ 261
孑@@ 261
岘@@ 261
擧 261
栻 261
槺 261
螅 261
蠱 261
躺@@ 261
逛@@ 261
鋆 261
鲉 261
Nob@@ 260
Rak@@ 260
Spor@@ 260
bei 260
excep@@ 260
groups 260
inda 260
inj@@ 260
kov@@ 260
quer@@ 260
uel@@ 260
曝 260
沆 260
滹@@ 260
羔 260
蘑 260
豳 260
钽 260
驩 260
鱥 260
정 260
Abdul@@ 259
E.@@ 259
Jul@@ 259
called 259
gres@@ 259
ip 259
ogoro 259
speci@@ 259
unge 259
昧@@ 259
滂@@ 259
皰@@ 259
翩 259
耜 259
蚤@@ 259
輦 259
７ 259
Director 258
Kurt 258
Quer@@ 258
These 258
ados 258
apar@@ 258
ces@@ 258
ically 258
limited 258
since 258
tras@@ 258
vio 258
啃@@ 258
娴 258
弇 258
拈@@ 258
旃 258
枭 258
烹 258
绚@@ 258
胍 258
貽 258
鋤 258
饺@@ 258
Lom@@ 257
alar@@ 257
ffe 257
ized 257
online 257
sup@@ 257
uca 257
ustry 257
ส 257
悝 257
揹 257
椴@@ 257
瑛@@ 257
釔 257
鯷 257
Administration 256
Cape 256
Dj@@ 256
Kad@@ 256
Minister 256
Nad@@ 256
alla 256
mur@@ 256
nen 256
凛@@ 256
叩 256
巂 256
柒@@ 256
湫 256
矜 256
绫@@ 256
谌@@ 256
鲃 256
스 256
August@@ 255
Ey@@ 255
Fund@@ 255
Kre@@ 255
Zer@@ 255
ails 255
aling 255
cross 255
dav@@ 255
dier 255
different 255
ilk 255
maxim@@ 255
patr@@ 255
sburg 255
ymn@@ 255
∶ 255
瘿 255
粕 255
羡 255
郤@@ 255
鞣@@ 255
full 254
lea 254
phe 254
rad@@ 254
͡ 254
剝 254
庯 254
廆 254
朧 254
澆 254
炊 254
痞 254
舎 254
虑@@ 254
蠊 254
鏵 254
기 254
Ｂ 254
July 253
Tig@@ 253
anch@@ 253
buil@@ 253
cover 253
nez 253
released 253
stars 253
wn@@ 253
ř 253
ى 253
仝@@ 253
卹 253
咱 253
懦 253
気 253
璈 253
綉 253
芫@@ 253
藹 253
頼 253
颙 253
鳎 253
하 253
Alter@@ 252
Inf@@ 252
Ris@@ 252
UNESCO 252
prov@@ 252
requ@@ 252
said 252
structure 252
tera 252
咨 252
嫚 252
幗 252
诙@@ 252
Andreas 251
Suc@@ 251
amber 251
austr@@ 251
gem@@ 251
isha 251
lost 251
saf@@ 251
story 251
tex@@ 251
yak@@ 251
ེ 251
兢@@ 251
擂 251
榭@@ 251
橱@@ 251
湣 251
猞@@ 251
砧 251
粱@@ 251
蒽@@ 251
螫 251
赘 251
踊@@ 251
Chor@@ 250
Franc@@ 250
Inn@@ 250
Nicolas 250
Olympic 250
door 250
ectiv@@ 250
enter@@ 250
loss@@ 250
viol@@ 250
ว 250
憎 250
杼 250
濶 250
詧 250
９ 250
Mai 249
Materi@@ 249
arti@@ 249
did 249
enz 249
exec@@ 249
kol@@ 249
libr@@ 249
qui 249
œ 249
劄 249
塽 249
惚 249
扼 249
攬@@ 249
猁 249
瘀 249
苈 249
貯 249
輟 249
驤@@ 249
Championships 248
Grou@@ 248
black 248
bor 248
friend 248
ived 248
manuel 248
ogen 248
ping 248
umo 248
õ 248
ש 248
└ 248
悸 248
殃 248
殻 248
渤 248
蛆 248
雫 248
鹵 248
｡ 248
Agu@@ 247
Chic@@ 247
Denis 247
Hak@@ 247
Sas@@ 247
abor@@ 247
ilo 247
optera 247
क 247
唄 247
峄 247
昕@@ 247
槤 247
猗@@ 247
琬@@ 247
罽 247
脯 247
蕤 247
蝎 247
衎 247
azi 246
centr@@ 246
inning 246
lidae 246
port@@ 246
ril 246
tific@@ 246
ա 246
垓 246
塾@@ 246
娴@@ 246
濑 246
窈@@ 246
轧 246
鋦 246
頡 246
鲂 246
Wales 245
amed 245
differ@@ 245
ongo 245
÷ 245
呻@@ 245
嚎 245
坭 245
廄 245
懺 245
砹 245
篱@@ 245
謾 245
逹 245
郛 245
鄖@@ 245
醃@@ 245
骰 245
Famil@@ 244
Ferdinand 244
Fili@@ 244
coll@@ 244
cut 244
essor 244
etr@@ 244
haus 244
initi@@ 244
key@@ 244
omon 244
stan@@ 244
tag@@ 244
③ 244
䓬 244
枹 244
榫 244
潯 244
珙@@ 244
瑊 244
睁@@ 244
赡@@ 244
铆@@ 244
馏@@ 244
Bret@@ 243
Fen@@ 243
Parti@@ 243
Ped@@ 243
ante@@ 243
emann 243
emat@@ 243
modi@@ 243
release 243
social 243
sub 243
temper@@ 243
urg 243
ф 243
劊@@ 243
婧 243
恕@@ 243
珈@@ 243
篁 243
逋 243
Antoine 242
Hau@@ 242
Hoff@@ 242
brahim 242
eg 242
einer 242
idel@@ 242
lines 242
ouv@@ 242
reduc@@ 242
resp@@ 242
ạ 242
俑@@ 242
変 242
妞@@ 242
栉 242
槻 242
祔 242
铳 242
隗 242
饉 242
Gros@@ 241
Neur@@ 241
Wak@@ 241
achi 241
alan@@ 241
around 241
ayi 241
dies 241
dru@@ 241
ers@@ 241
figur@@ 241
general 241
human 241
ls@@ 241
nier 241
perial 241
rat 241
third 241
wth 241
仝 241
崆@@ 241
潯@@ 241
煨 241
苹 241
藺@@ 241
鏑 241
镕 241
라 241
한 241
Asi@@ 240
Lad@@ 240
September 240
eline 240
geb@@ 240
history 240
oss 240
tem 240
ơ 240
מ 240
屐 240
嵋@@ 240
恽 240
憍 240
旼@@ 240
簸 240
聋 240
荏@@ 240
蛊 240
酢 240
鋐 240
鎔 240
铱 240
의 240
Ant@@ 239
Martin@@ 239
anos 239
building 239
engine 239
ered 239
erine 239
how 239
never 239
ờ 239
删 239
嗡 239
抜 239
晸 239
柃 239
爹@@ 239
継 239
緲 239
踐@@ 239
躏 239
阂 239
雩 239
鬘 239
어 239
Constitu@@ 238
Evangel@@ 238
Leb@@ 238
eball 238
eco 238
hold 238
hou 238
law@@ 238
led@@ 238
lut@@ 238
may@@ 238
nos 238
studio 238
unda 238
§ 238
Ⅳ 238
ヨ 238
佞 238
佤 238
捶 238
豨 238
８ 238
Brook@@ 237
Chel@@ 237
Sol 237
amount 237
ently 237
gom@@ 237
onds 237
oux 237
tour 237
zon@@ 237
嶝 237
摑 237
泯 237
涯@@ 237
珺 237
砥 237
耦 237
肛 237
艰 237
謗@@ 237
顴@@ 237
鳝 237
鷗@@ 237
동 237
Han 236
Kara 236
Kent 236
Lincoln 236
Vinc@@ 236
amar@@ 236
anger@@ 236
election 236
fall 236
phase 236
sta 236
still 236
tac@@ 236
vat@@ 236
vision 236
丼 236
亳 236
嘟@@ 236
嶼@@ 236
廕 236
瀅 236
瀘 236
瘡@@ 236
稈 236
筍@@ 236
錸 236
鑿@@ 236
铪 236
陌 236
鹀 236
Athle@@ 235
Fat@@ 235
Gren@@ 235
Mercedes 235
Sek@@ 235
Stra@@ 235
agin@@ 235
ained 235
hyp@@ 235
native 235
virtu@@ 235
嗡@@ 235
屌 235
殤@@ 235
煚 235
睺 235
胧 235
鄴@@ 235
骈@@ 235
鰲@@ 235
鷄 235
鼴 235
Deutsche 234
Dut@@ 234
Flam@@ 234
Hall@@ 234
alie 234
ished 234
lich 234
ographi@@ 234
sac@@ 234
stop 234
tru@@ 234
weight 234
ъ 234
づ 234
崐 234
旸 234
濞 234
緘@@ 234
绯 234
缗 234
胂 234
钐 234
･ 234
Lud@@ 233
Sri 233
embran@@ 233
event 233
lov@@ 233
nea 233
phia 233
platz 233
ʂ 233
Κ 233
ệ 233
拗@@ 233
溆@@ 233
萜@@ 233
諲 233
谗@@ 233
貉 233
颉 233
骊 233
魄@@ 233
Alberto 232
Boston 232
Form 232
Princip@@ 232
Prov@@ 232
Schw@@ 232
because 232
isco 232
iser 232
lag@@ 232
party 232
rail 232
within 232
̃ 232
哼 232
垸 232
筮 232
粥@@ 232
苋 232
谑 232
隰@@ 232
飼 232
Gan@@ 231
Vladimir 231
enda 231
ican 231
ools 231
portation 231
ren 231
tif@@ 231
噜 231
嵗 231
嵘 231
戢 231
扦@@ 231
浐 231
紂@@ 231
蹺 231
铂@@ 231
镁@@ 231
餃 231
October 230
Werner 230
egas 230
entin 230
fast 230
onde 230
say@@ 230
tres 230
vet@@ 230
ת 230
犛 230
癖@@ 230
賁@@ 230
钫 230
锝 230
Kob@@ 229
eleg@@ 229
games 229
member 229
ool 229
tari@@ 229
̍ 229
刽@@ 229
厮@@ 229
喹 229
嗩@@ 229
妣 229
妲@@ 229
渑@@ 229
烃@@ 229
硏 229
碶 229
窘 229
贇 229
郿 229
주 229
Ahmed 228
Irish 228
alle 228
anza 228
asons 228
cros@@ 228
dan@@ 228
eras 228
future 228
kam@@ 228
mouth 228
orio 228
ped@@ 228
sat@@ 228
sep@@ 228
掐@@ 228
臍@@ 228
蠔 228
踊 228
雋@@ 228
Frank@@ 227
endi 227
enko 227
hang 227
hot@@ 227
operation 227
pec@@ 227
ב 227
⟩ 227
乗 227
俎 227
壙 227
炕 227
猥 227
萱@@ 227
魣 227
龑 227
Ai 226
Ce 226
Sebasti@@ 226
Sib@@ 226
another 226
edi 226
evol@@ 226
parentid 226
pun@@ 226
侑@@ 226
劾@@ 226
墬 226
姫@@ 226
恫@@ 226
桉 226
绊 226
翥 226
腭@@ 226
轲 226
鐲 226
镝 226
성 226
Bass@@ 225
Dad@@ 225
Jose@@ 225
Notre 225
ament@@ 225
ives 225
otte 225
pio 225
until 225
¬ 225
⟨ 225
ㄆ 225
卽 225
吧@@ 225
圉 225
揍 225
楔 225
淯 225
炖 225
瑠 225
裱 225
襁@@ 225
銹 225
Es 224
Feder@@ 224
Josef 224
Rit@@ 224
allas 224
atra 224
construction 224
integr@@ 224
lara 224
orium 224
rest 224
佞@@ 224
哏 224
啼 224
噗 224
揖@@ 224
沩@@ 224
涣@@ 224
濊 224
闳 224
鯧@@ 224
Navy 223
Naz@@ 223
Rav@@ 223
etz 223
mis 223
nam 223
ovo 223
pool 223
tad@@ 223
tique 223
week 223
yal@@ 223
凛 223
奂 223
広 223
禩 223
诰@@ 223
镖@@ 223
靄@@ 223
鯪 223
鯻 223
鱵 223
鲟 223
Leopol@@ 222
Sain@@ 222
ainer 222
ao@@ 222
colum@@ 222
fier 222
iter@@ 222
param@@ 222
shu@@ 222
union 222
刨@@ 222
惺 222
斤@@ 222
縝@@ 222
胰 222
蓖@@ 222
閾@@ 222
鞦 222
Ab 221
Freder@@ 221
Laurent 221
Pablo 221
Pak@@ 221
Personal 221
agog@@ 221
article 221
cav@@ 221
church 221
direct 221
eval 221
evi 221
flor@@ 221
isto 221
list@@ 221
mari@@ 221
term 221
  221
圪@@ 221
妫 221
峋 221
嶙@@ 221
恳 221
楮 221
琥 221
箝@@ 221
萇 221
蛀@@ 221
蠱@@ 221
鎂@@ 221
陨 221
韆 221
饌 221
鮗 221
Conserv@@ 220
Kus@@ 220
Reich@@ 220
anes 220
angi 220
back@@ 220
enburg 220
management 220
ought 220
played 220
sha 220
speed 220
tes@@ 220
thi 220
tienne 220
冴@@ 220
唁@@ 220
媾@@ 220
搓@@ 220
灞@@ 220
碴 220
磧 220
颞@@ 220
鸚 220
鹈@@ 220
Catholic 219
Early 219
Scotland 219
compar@@ 219
cut@@ 219
erra 219
inger@@ 219
recep@@ 219
sav@@ 219
sta@@ 219
≡ 219
嗶 219
嗶@@ 219
畀 219
瞼 219
銚 219
鍇 219
闌@@ 219
Atl@@ 218
Rolling 218
Zam@@ 218
azz@@ 218
bile 218
development 218
global 218
ief 218
itage 218
phi@@ 218
today 218
uj@@ 218
ё 218
佟 218
圏 218
炆 218
瞪 218
蓑@@ 218
薮 218
迤 218
鎭 218
镯 218
鰩 218
鸵@@ 218
鹧@@ 218
Art@@ 217
Hey@@ 217
Leh@@ 217
Wis@@ 217
atar 217
country 217
echo 217
estra 217
fund@@ 217
gran@@ 217
leri 217
little 217
network 217
ograph@@ 217
old@@ 217
orial 217
ort@@ 217
Е 217
■ 217
♯ 217
仟 217
憨 217
攘 217
毂 217
汧 217
箍@@ 217
絀 217
翦@@ 217
舾@@ 217
褔 217
邛 217
邬 217
鈀 217
鈐 217
鏜 217
雑 217
鳔 217
A.@@ 216
Iz@@ 216
Schne@@ 216
ako 216
ater@@ 216
cher@@ 216
dens@@ 216
dre 216
jur@@ 216
legi@@ 216
points 216
red@@ 216
those 216
刁 216
厮 216
垻 216
埈 216
畹 216
碣@@ 216
絹@@ 216
踹 216
원 216
Alaska 215
Aug@@ 215
Bron@@ 215
Hamp@@ 215
Ost@@ 215
Wolfgang 215
actions 215
ammad 215
ande 215
aring 215
hun@@ 215
igher 215
illi 215
oba 215
too 215
Ś 215
溏 215
瞧 215
矾@@ 215
簪@@ 215
耨 215
鸪 215
Ander@@ 214
Histor@@ 214
Para 214
Phi 214
Vietnam 214
classi@@ 214
common 214
five 214
ici 214
ises 214
itar 214
ourg 214
zer@@ 214
ぬ 214
卟 214
呜@@ 214
嘘 214
戔 214
澀@@ 214
獒 214
瑈 214
痂 214
皐 214
矜@@ 214
罟 214
脍@@ 214
薙@@ 214
铽 214
鲽 214
Elisabeth 213
However 213
Pf@@ 213
above 213
aircraft 213
bud@@ 213
elin 213
forms 213
often 213
once 213
region 213
uto 213
vas@@ 213
º 213
啤 213
拭@@ 213
朥 213
橱 213
羁 213
莢@@ 213
闱 213
髋@@ 213
麹 213
Fort@@ 212
Jap@@ 212
Landkreis 212
Sin 212
alog 212
ayn@@ 212
boy@@ 212
ched 212
dynam@@ 212
eil 212
great 212
oz 212
suff@@ 212
total 212
vehic@@ 212
स 212
མ 212
噝 212
坯@@ 212
楙 212
猷@@ 212
窖@@ 212
萣 212
迤@@ 212
驪 212
鶓 212
Assist@@ 211
Kop@@ 211
Mim@@ 211
aran 211
const@@ 211
erek 211
market 211
scre@@ 211
syl@@ 211
vie 211
ǎ 211
ท 211
唬 211
唵 211
挞 211
捌 211
搵 211
殞@@ 211
燿 211
砰 211
竜 211
籙 211
絵 211
緹@@ 211
芊@@ 211
蘧 211
蹦 211
Qualif@@ 210
Sonn@@ 210
Stadi@@ 210
Yes@@ 210
aching 210
anj@@ 210
anto 210
aven@@ 210
cau@@ 210
ede 210
energy 210
ife 210
iliz@@ 210
ą 210
䲁 210
偲@@ 210
咚 210
啃 210
寳 210
旂 210
昰 210
臾 210
莖@@ 210
蒺@@ 210
蔺 210
蠅@@ 210
赈 210
錨@@ 210
钿 210
骁 210
鱘@@ 210
Gustav 209
Jorge 209
Kem@@ 209
Rafael 209
lis@@ 209
loy@@ 209
orie 209
person@@ 209
佼 209
圯 209
坍 209
擷 209
榻@@ 209
禑 209
紓@@ 209
袄 209
詁 209
谤@@ 209
贄 209
釩 209
鉲 209
驄 209
B.@@ 208
Nec@@ 208
bloc@@ 208
carri@@ 208
close 208
dar 208
deg@@ 208
frag@@ 208
fried 208
got 208
non@@ 208
rik 208
square 208
yat@@ 208
yum 208
䴉 208
圹 208
姝 208
寘 208
拣 208
烜 208
煖 208
狽 208
畯 208
癲 208
貊 208
蹋 208
転 208
轶 208
铠 208
隰 208
鳀 208
鸻 208
Esc@@ 207
Nord 207
Program@@ 207
ahr@@ 207
argum@@ 207
atia 207
character 207
dep@@ 207
epis@@ 207
esch@@ 207
esto 207
fig 207
nik@@ 207
pour 207
pson 207
quit@@ 207
tur 207
━ 207
墉@@ 207
熨@@ 207
硯@@ 207
羹@@ 207
腴 207
鉏 207
闘 207
頹 207
Costa 206
Marsh@@ 206
anco 206
apon 206
eber@@ 206
ehr@@ 206
ept 206
extr@@ 206
fos@@ 206
oil 206
run@@ 206
stand 206
弛@@ 206
渕 206
燙@@ 206
琇@@ 206
砻@@ 206
篡 206
藿 206
蟄@@ 206
襦 206
諶 206
謫@@ 206
诠 206
郕 206
関 206
Britain 205
Chu@@ 205
February 205
Jes@@ 205
Lok@@ 205
Spi@@ 205
ago@@ 205
alized 205
atos 205
bed 205
chang@@ 205
much 205
rant 205
tice 205
Х 205
傢@@ 205
卐 205
撬@@ 205
瞧@@ 205
縁 205
賑 205
髪 205
鶿 205
서 205
Catal@@ 204
Fritz 204
Herr@@ 204
Lai 204
Province 204
ammed 204
continu@@ 204
electr@@ 204
frequ@@ 204
gers 204
iff 204
must 204
neur@@ 204
nine 204
otes 204
pend@@ 204
prof@@ 204
surface 204
theor@@ 204
udo 204
俣@@ 204
胼@@ 204
脹@@ 204
褥 204
轆 204
鐺 204
阊 204
饕@@ 204
髭 204
魷 204
Democratic 203
Juni@@ 203
Zu@@ 203
aged 203
ainst 203
aissance 203
antes 203
cycle 203
esses 203
eye 203
gu 203
poli@@ 203
sible 203
support 203
། 203
ུ 203
僮@@ 203
垓@@ 203
娟@@ 203
峁 203
栎@@ 203
湟 203
秣@@ 203
綰 203
繭@@ 203
茌@@ 203
蹠@@ 203
Latin 202
Stur@@ 202
Tah@@ 202
appe@@ 202
ark 202
math@@ 202
nak@@ 202
senti@@ 202
vern@@ 202
ween 202
þ 202
ぞ 202
亙 202
叼 202
啖 202
撕 202
犄@@ 202
箸 202
纣@@ 202
荩 202
裒 202
镒 202
鱒@@ 202
鸲 202
鹩 202
Italia 201
Tos@@ 201
ahl 201
cru@@ 201
dance 201
etti@@ 201
fin 201
half 201
nes@@ 201
onda 201
power@@ 201
present 201
sibil@@ 201
yar@@ 201
zia 201
昐 201
璆 201
笪 201
藕@@ 201
覡 201
铨@@ 201
우 201
Fame 200
Israel 200
aji 200
anan 200
gas@@ 200
pag@@ 200
sei 200
ses@@ 200
sun 200
ა 200
哺 200
岌 200
廿 200
拴 200
珐@@ 200
瑾@@ 200
痢 200
Tay@@ 199
anted 199
azar@@ 199
bio 199
early 199
elt@@ 199
exten@@ 199
hara 199
izer 199
nation 199
vent 199
İ 199
Μ 199
प 199
刨 199
娅@@ 199
庹@@ 199
惲@@ 199
曩 199
槊 199
欒 199
瓛 199
瘙@@ 199
経 199
诒 199
酣@@ 199
Crist@@ 198
Loire 198
Tek@@ 198
Volks@@ 198
andi 198
apo 198
bas 198
cum@@ 198
deo 198
logo 198
provid@@ 198
quet 198
sein 198
ę 198
厕 198
売 198
娑@@ 198
桫@@ 198
浠@@ 198
甪 198
痍 198
秽@@ 198
窥 198
繖 198
腌 198
菟@@ 198
谘 198
辫 198
錇 198
闈 198
陉@@ 198
Academ@@ 197
Ministr@@ 197
Stell@@ 197
bak@@ 197
beau@@ 197
ised 197
ungs@@ 197
ế 197
劢 197
唑@@ 197
姗@@ 197
庥 197
桜 197
畋 197
瞒@@ 197
笄 197
绽@@ 197
缬@@ 197
缽@@ 197
葳 197
謄@@ 197
钬 197
骄 197
鼹@@ 197
Ｃ 197
Glas@@ 196
Institut 196
Vig@@ 196
cost 196
emo 196
fes@@ 196
going 196
liber@@ 196
meas@@ 196
quot 196
sberg 196
views 196
凫 196
剥 196
晾 196
柽@@ 196
毋 196
沥 196
熜 196
熠 196
犊 196
粄 196
苧@@ 196
茔 196
荸@@ 196
蔦 196
轆@@ 196
餮 196
髖@@ 196
고 196
미 196
Bu 195
Kend@@ 195
Serv@@ 195
bai 195
cular 195
eded 195
fran@@ 195
others 195
path@@ 195
tista 195
wo 195
ล 195
่ 195
勷 195
婭@@ 195
泷 195
烺 195
燹 195
臻@@ 195
雏 195
鬲 195
鴯@@ 195
F.@@ 194
Greek 194
His@@ 194
Restaur@@ 194
Rudolf 194
Sever@@ 194
Zel@@ 194
acia 194
aden@@ 194
distribution 194
foc@@ 194
hist@@ 194
oj@@ 194
olds 194
polog@@ 194
record 194
俪 194
嘶 194
廻 194
怙 194
斟 194
歆@@ 194
澪 194
燏 194
衽 194
踝@@ 194
邺@@ 194
鎗@@ 194
鸞@@ 194
鹮 194
齶 194
Ban 193
Cari@@ 193
Casa 193
bay 193
combin@@ 193
cost@@ 193
ict 193
perf@@ 193
quali@@ 193
rang 193
rest@@ 193
several 193
ufac@@ 193
ves@@ 193
ང 193
値 193
烘 193
疮@@ 193
茯@@ 193
蔬 193
诂 193
豕 193
鐙 193
钷 193
驸 193
adem@@ 192
amen 192
cad@@ 192
chart 192
cola 192
death 192
eding 192
ests 192
every 192
gor@@ 192
harmon@@ 192
oka 192
sang@@ 192
้ 192
僳 192
恊 192
瀝 192
睾 192
缢@@ 192
罈 192
膈 192
莺@@ 192
蛏 192
鈇 192
锵 192
颯 192
鮫@@ 192
鲇@@ 192
鹫@@ 192
Edu@@ 191
Ges@@ 191
books 191
chap@@ 191
estig@@ 191
sang 191
ʼ 191
Ц 191
俬 191
挪 191
渙 191
蛭@@ 191
貍 191
镐@@ 191
#@@ 190
Gott@@ 190
Institu@@ 190
Jim@@ 190
acter@@ 190
asti@@ 190
ied 190
inge 190
main@@ 190
should 190
ན 190
埵 190
奄 190
悴 190
欉 190
浯 190
涟 190
盩 190
磔 190
祢 190
缤@@ 190
缵@@ 190
茗@@ 190
蕁@@ 190
诬 190
隠 190
黯 190
Bibli@@ 189
But 189
Roll@@ 189
Tang@@ 189
bles 189
igr@@ 189
isis 189
jar@@ 189
marine 189
rim 189
typ@@ 189
uz 189
ी 189
པ 189
崞 189
悫 189
捒 189
掄 189
祓 189
襞 189
譞 189
霽 189
颞 189
鱘 189
Houston 188
Monum@@ 188
does 188
ennes 188
iku@@ 188
iment 188
property 188
uss 188
偓 188
刍 188
涣 188
満 188
灃 188
烊 188
腮 188
裾 188
郞 188
鑀 188
鑭@@ 188
钹 188
顓@@ 188
Adolf 187
Kri@@ 187
Meh@@ 187
Sud@@ 187
alog@@ 187
expres@@ 187
fan@@ 187
irs 187
istan 187
note 187
pen 187
囝 187
堕 187
嫦 187
桩@@ 187
毡@@ 187
祧 187
翕 187
肜 187
萵@@ 187
鹚 187
Anc@@ 186
Georgia 186
Nicol@@ 186
Scottish 186
acu@@ 186
brun@@ 186
cent@@ 186
igner 186
inclu@@ 186
jus@@ 186
mom@@ 186
oms 186
programm@@ 186
pros@@ 186
pu 186
Θ 186
伋 186
儆@@ 186
峒@@ 186
惭@@ 186
椴 186
澹@@ 186
濉@@ 186
玕 186
缎@@ 186
萩 186
諴 186
赡 186
頵 186
顳 186
飙 186
馀@@ 186
鸬@@ 186
요 186
Universit@@ 185
Zealand 185
acer@@ 185
auto@@ 185
div@@ 185
division 185
enty 185
fis@@ 185
lez 185
natural 185
onga 185
thin 185
zu@@ 185
ط 185
俦 185
唭 185
嚣@@ 185
娓@@ 185
孱@@ 185
橇@@ 185
潁 185
灤@@ 185
炖@@ 185
碾 185
糾 185
綻@@ 185
缕@@ 185
蓑 185
觞 185
镞 185
鹕 185
Est 184
Hoh@@ 184
Wein@@ 184
autom@@ 184
clus@@ 184
font 184
hip@@ 184
jer@@ 184
kap@@ 184
rep@@ 184
儋 184
吝 184
噢 184
您@@ 184
捣 184
摻 184
暎 184
杙 184
汭 184
眙@@ 184
赓@@ 184
逯@@ 184
鑊 184
钆 184
鰹 184
黥 184
오 184
Harvard 183
Lux@@ 183
Mei 183
Region 183
Us@@ 183
agre@@ 183
aim@@ 183
asing 183
atives 183
categ@@ 183
complete 183
down@@ 183
model@@ 183
normal 183
specific 183
sters 183
titu@@ 183
ude 183
uka 183
亩@@ 183
兮@@ 183
剡@@ 183
厔 183
嗯 183
嬉 183
掟 183
泞 183
犷 183
痤@@ 183
眈 183
笕 183
茉 183
轭@@ 183
鈑 183
钼@@ 183
餓@@ 183
骂@@ 183
鸕 183
鹌@@ 183
인 183
Egyp@@ 182
Museo 182
fiel@@ 182
hib@@ 182
idas 182
king@@ 182
onale 182
psych@@ 182
uga 182
vot@@ 182
yet 182
พ 182
佘 182
嘿@@ 182
権 182
毆@@ 182
毬@@ 182
灸@@ 182
熲 182
畦 182
磴 182
葳@@ 182
诒@@ 182
谚 182
镎 182
도 182
﻿ 182
Jew@@ 181
auc@@ 181
ball@@ 181
bid@@ 181
bom@@ 181
class@@ 181
culture 181
dil 181
ekt 181
football 181
gli@@ 181
kas@@ 181
langu@@ 181
othe@@ 181
revision 181
sell 181
status 181
sus@@ 181
uso 181
Ó 181
འ 181
兖 181
圀 181
垟 181
懵@@ 181
捡@@ 181
掳 181
琤 181
琿 181
罘 181
芻 181
螨@@ 181
袴 181
譏 181
赳 181
酩@@ 181
颺 181
黜@@ 181
Alexandre 180
Ave@@ 180
Bush 180
Hof@@ 180
gold 180
government 180
kad@@ 180
loss 180
mechan@@ 180
mile 180
nationale 180
pod@@ 180
second@@ 180
uda 180
uri@@ 180
仃 180
嘜 180
媞 180
撣 180
洵@@ 180
獷 180
縯 180
诘 180
銪 180
镱 180
阗@@ 180
수 180
Carr@@ 179
Liz@@ 179
Seine 179
actor 179
aman@@ 179
endorf 179
held 179
onte 179
pad@@ 179
possible 179
post@@ 179
radio 179
sag@@ 179
tour@@ 179
ural 179
yer@@ 179
Î 179
Ε 179
匮 179
彫 179
扆 179
捺 179
梣 179
橹 179
牻 179
璇@@ 179
眈@@ 179
礴 179
筴 179
箕@@ 179
絢 179
鋹 179
馄@@ 179
髁 179
鼹 179
일 179
Gran 178
Jor@@ 178
Regiment 178
Yun@@ 178
acht 178
auth@@ 178
cou@@ 178
liner 178
saw 178
study 178
uf 178
ल 178
斂@@ 178
暇@@ 178
樗 178
涞 178
渗 178
焖 178
蛳 178
賾 178
逑 178
銓@@ 178
靄 178
饨 178
骡 178
Hub@@ 177
Mec@@ 177
Singles 177
bec@@ 177
compl@@ 177
create 177
eles 177
find 177
kun@@ 177
lang@@ 177
rev@@ 177
working 177
Ч 177
牀 177
甾 177
芻@@ 177
訐 177
鲢 177
해 177
Gabri@@ 176
Haute 176
Ord@@ 176
Song@@ 176
became 176
cour@@ 176
diction 176
domin@@ 176
educ@@ 176
ikit@@ 176
label 176
route 176
science 176
special 176
vely 176
zar@@ 176
ʿ 176
˙ 176
匙@@ 176
悽 176
憔@@ 176
拷 176
枭@@ 176
枳 176
猊 176
癭 176
瞥 176
縉@@ 176
绂 176
腱@@ 176
觚 176
酊 176
鹄 176
국 176
시 176
Dutch 175
Gle@@ 175
Hawai@@ 175
Oy@@ 175
Represent@@ 175
Township 175
fu 175
gas 175
inson 175
jum@@ 175
ld 175
olar 175
performance 175
pris 175
proced@@ 175
sap@@ 175
sport 175
standard 175
خ 175
ต 175
ห 175
ㄅ 175
堑@@ 175
癱 175
芊 175
芗 175
葷 175
蛊@@ 175
蟄 175
陛 175
髂 175
鲷@@ 175
Manchester 174
cant@@ 174
company 174
session 174
Я 174
ד 174
廙 174
桁 174
眸 174
籁 174
绢@@ 174
詭 174
迨 174
迸@@ 174
顳@@ 174
Ana 173
Emper@@ 173
Gut@@ 173
Ich@@ 173
Indonesia 173
Monte@@ 173
Yas@@ 173
access 173
announced 173
collection 173
course 173
food 173
grav@@ 173
idential 173
proj@@ 173
rog@@ 173
trong 173
ution@@ 173
व 173
ễ 173
戮@@ 173
棹 173
洎 173
涕@@ 173
瘾@@ 173
簃 173
籐 173
羗 173
辻 173
迳 173
鋨 173
驹@@ 173
鲭 173
鲻 173
Gramm@@ 172
ahi 172
allo 172
ehr 172
issue 172
near 172
occer 172
olar@@ 172
pole 172
sid@@ 172
valu@@ 172
亘@@ 172
巔 172
棐 172
澗@@ 172
纫@@ 172
蒔 172
蛔@@ 172
誾 172
騾@@ 172
Lug@@ 171
Zar@@ 171
cer 171
declar@@ 171
eve 171
father 171
hand 171
lau@@ 171
minute 171
mission@@ 171
sdorf 171
sound 171
teams 171
troph@@ 171
vas 171
ė 171
य 171
ะ 171
∧ 171
♥ 171
仵@@ 171
倜@@ 171
吮 171
呢@@ 171
咋 171
哽@@ 171
峩 171
摭 171
斫 171
炜@@ 171
舐 171
蚱@@ 171
裔@@ 171
鏊 171
闩 171
鮰 171
L.@@ 170
M.@@ 170
adio 170
alu@@ 170
entation 170
features 170
fera 170
mang@@ 170
obi 170
porting 170
upon 170
Ç 170
ი 170
囤 170
嶲 170
朊 170
椤 170
樛 170
沆@@ 170
渺 170
琍 170
茎@@ 170
鬻 170
에 170
자 170
Administr@@ 169
Arist@@ 169
Dau@@ 169
ahl@@ 169
arn 169
canc@@ 169
eres 169
lie@@ 169
liz@@ 169
software 169
匏 169
寀 169
扉@@ 169
掸 169
櫈 169
沚 169
潍 169
濤@@ 169
烫@@ 169
箓 169
紉@@ 169
荛 169
莨@@ 169
誊@@ 169
鑠 169
颚@@ 169
Arth@@ 168
Ek@@ 168
Ere@@ 168
Paulo 168
Sach@@ 168
abo@@ 168
along 168
amu 168
anca 168
application 168
awi 168
ende 168
grade 168
inos 168
pia 168
sak@@ 168
tivo 168
ี 168
凊 168
咄 168
哌 168
嗟 168
峥 168
廝 168
悰 168
漱 168
褥@@ 168
頃@@ 168
Alfre@@ 167
Deutsch@@ 167
argent@@ 167
began 167
liter@@ 167
need 167
ording 167
rag@@ 167
sai 167
sam 167
tap@@ 167
village 167
wealth 167
倧 167
倬@@ 167
怿 167
泠@@ 167
渌 167
痔@@ 167
贻 167
铛 167
骇 167
Haf@@ 166
Kah@@ 166
Yak@@ 166
aden 166
bell 166
bind@@ 166
cu 166
esper@@ 166
gal 166
help 166
iba 166
lug@@ 166
lun@@ 166
organ@@ 166
quez 166
results 166
rom 166
sexual 166
tang@@ 166
transl@@ 166
tul@@ 166
young 166
ِ 166
僵 166
呱@@ 166
哒 166
崤 166
撈@@ 166
撬 166
晙 166
榔@@ 166
瘫 166
缄@@ 166
虬 166
跸 166
釤 166
锜 166
鹉@@ 166
Neb@@ 165
T.@@ 165
abol@@ 165
available 165
done 165
dos@@ 165
eces 165
endo 165
ership 165
feder@@ 165
liga 165
material 165
movement 165
museum 165
mut 165
quir@@ 165
sau@@ 165
transfer 165
uku 165
units 165
verl@@ 165
zed 165
佻 165
凳@@ 165
姣@@ 165
岢@@ 165
揣 165
槳@@ 165
璀 165
紬 165
缭@@ 165
臏 165
舨 165
藹@@ 165
豺 165
遨@@ 165
锔 165
饋@@ 165
Benedi@@ 164
Euro 164
Kav@@ 164
Santiago 164
Wrestling 164
abab@@ 164
aning 164
arina 164
enti 164
eran 164
named 164
observ@@ 164
quel@@ 164
research 164
Ž 164
ƒ 164
ʷ 164
द 164
ヘ 164
倓 164
勱 164
噗@@ 164
帯 164
徂 164
憙 164
旌 164
籓 164
藿@@ 164
駱 164
鵪@@ 164
鹞 164
麂@@ 164
Hier@@ 163
aat 163
alam@@ 163
ald@@ 163
aum 163
band@@ 163
camp@@ 163
dil@@ 163
environ@@ 163
gian 163
given 163
isl@@ 163
mill@@ 163
riv@@ 163
types 163
ص 163
ྱ 163
ị 163
壟 163
摶 163
朐@@ 163
甡 163
糬 163
纫 163
蔼 163
薷 163
鄆@@ 163
餒 163
饺 163
髡 163
Ｘ 163
Antar@@ 162
Burg@@ 162
Canton 162
Infr@@ 162
Islam@@ 162
Parliament 162
Register 162
adron 162
ament 162
ately 162
blan@@ 162
commun@@ 162
ester@@ 162
ism@@ 162
jug@@ 162
pf@@ 162
primary 162
sition 162
suit 162
儷@@ 162
啜@@ 162
啪 162
澥 162
砭 162
硖@@ 162
艛 162
豇@@ 162
郯 162
馍 162
骆 162
鸢 162
Afr@@ 161
Columb@@ 161
Moder@@ 161
battle 161
bel 161
chor@@ 161
corpor@@ 161
edition 161
elop@@ 161
essen 161
illes 161
jan@@ 161
kis@@ 161
period 161
soon 161
sports 161
tiva 161
〞 161
叁 161
哗 161
嘔 161
嘹@@ 161
帙 161
搁 161
潾 161
澐 161
燴 161
礎@@ 161
禔 161
薌 161
螄 161
豢@@ 161
邾@@ 161
骐 161
Ｏ 161
20th 160
Estr@@ 160
aled 160
aught 160
eke 160
erst@@ 160
expression 160
gri@@ 160
gul@@ 160
igan 160
kit@@ 160
nament 160
pit@@ 160
ras 160
trag@@ 160
utenant 160
wes@@ 160
أ 160
⊕ 160
ㄩ 160
檨 160
畤 160
纠 160
莴@@ 160
菑 160
蚝 160
譴 160
酣 160
锄 160
霽@@ 160
驍 160
鲛 160
鲲 160
Beng@@ 159
Dah@@ 159
Dok@@ 159
Reichs@@ 159
Sic@@ 159
Sur 159
avia 159
concer@@ 159
fact 159
fro@@ 159
kirche 159
pas 159
uu 159
ด 159
ุ 159
円 159
厓 159
唛 159
岖@@ 159
拣@@ 159
熠@@ 159
畷 159
腆 159
腈@@ 159
蟜 159
観 159
軋@@ 159
霁 159
鲫@@ 159
니 159
Champions 158
Eduardo 158
Inform@@ 158
Kaf@@ 158
Kro@@ 158
Mann 158
agent 158
bli@@ 158
emer@@ 158
formed 158
gens 158
hak@@ 158
hatt@@ 158
included 158
minim@@ 158
ograp@@ 158
schule 158
strateg@@ 158
tile 158
ș 158
ک 158
ヶ 158
俅 158
嗲 158
婊@@ 158
応 158
恣 158
暐@@ 158
澚 158
笳 158
筷 158
臃@@ 158
蚴 158
邝 158
鋭 158
鏘@@ 158
頦 158
소 158
Marvel 157
Miami 157
Nah@@ 157
audi@@ 157
azar 157
coming 157
ener@@ 157
feature 157
fru@@ 157
itzer 157
mans 157
office 157
simple 157
unga 157
univers@@ 157
vert 157
yard 157
נ 157
偁 157
冽 157
堞 157
忞 157
懌 157
桤 157
溞 157
漪@@ 157
焙@@ 157
畲 157
竦 157
縈 157
邡 157
鎢@@ 157
Chrys@@ 156
Maf@@ 156
Rey 156
Verte@@ 156
ampton 156
central 156
century 156
got@@ 156
pair 156
regi@@ 156
response 156
sil 156
xin 156
ע 156
仮 156
凖 156
垚 156
嬋 156
澍@@ 156
瑢 156
痹@@ 156
盅 156
籀 156
藁 156
陔 156
로 156
Braz@@ 155
Von 155
determin@@ 155
efe 155
give 155
khe@@ 155
rights 155
rus@@ 155
songs 155
spi@@ 155
syst@@ 155
tered 155
turn 155
weg@@ 155
zon 155
円@@ 155
噲 155
挹 155
暾 155
柃@@ 155
梂 155
氙@@ 155
燎 155
篦 155
絜 155
诹 155
鄲@@ 155
镥 155
Ｄ 155
Atlan@@ 154
Franco 154
Kho@@ 154
angers 154
apr@@ 154
bad@@ 154
beck 154
ided 154
iku 154
inet 154
irk 154
kus@@ 154
ners 154
process@@ 154
related 154
students 154
uti 154
util@@ 154
ु 154
র 154
ལ 154
④ 154
♡ 154
嗒 154
氩 154
渙@@ 154
燐 154
窣 154
繚@@ 154
缯 154
莠 154
薳 154
谙 154
谩@@ 154
谪@@ 154
豁 154
貲 154
跗 154
锑@@ 154
안 154
Fak@@ 153
Hous@@ 153
Italian 153
Territ@@ 153
ably 153
anot@@ 153
chn@@ 153
essed 153
iker 153
ismo 153
leb@@ 153
tas 153
wagen 153
zur 153
冨 153
嗔 153
埡@@ 153
搔 153
涮 153
芡 153
蔼@@ 153
鏷 153
鑪 153
Amer@@ 152
Their 152
ambi 152
asha 152
better 152
bour@@ 152
cab@@ 152
coron@@ 152
erk@@ 152
nie 152
orig@@ 152
oti 152
represent@@ 152
ộ 152
℉ 152
∀ 152
桧@@ 152
梟@@ 152
楢 152
淝@@ 152
砭@@ 152
纾 152
谄@@ 152
贍@@ 152
鍼 152
顎@@ 152
麸@@ 152
鼷 152
allen 151
atz 151
ensi@@ 151
hydr@@ 151
ingi@@ 151
isen 151
otom@@ 151
pedi@@ 151
singer 151
utz 151
yana@@ 151
щ 151
ُ 151
⋅ 151
兢 151
喺 151
噓@@ 151
夯 151
撚 151
梢@@ 151
汜@@ 151
璹 151
諍 151
贅@@ 151
锕@@ 151
骥@@ 151
麾 151
Dres@@ 150
Un 150
conf@@ 150
docum@@ 150
films 150
kia 150
members 150
rab@@ 150
rat@@ 150
sev@@ 150
sous 150
sult@@ 150
် 150
ヌ 150
勔 150
嚷 150
圪 150
埡 150
廞 150
渟 150
瀟 150
玎 150
禎@@ 150
绷@@ 150
逞@@ 150
遒@@ 150
鎬@@ 150
駢 150
骘 150
魇 150
鰐 150
鸝 150
Haus@@ 149
Kaiser 149
Tam 149
anya 149
atre 149
como 149
digital 149
embr@@ 149
igne 149
ios 149
rod@@ 149
toria 149
tum@@ 149
wers 149
yar 149
Ä 149
ő 149
ố 149
‡ 149
卉@@ 149
吽 149
暻 149
栩 149
浍 149
畬 149
皞 149
瞽 149
砒@@ 149
簸@@ 149
臯 149
蔷 149
蛰@@ 149
蟳 149
铥 149
鴝 149
Berg 148
Harv@@ 148
Russia 148
Schul@@ 148
Vall@@ 148
berg@@ 148
eder 148
isse 148
ive 148
kay@@ 148
sol 148
Ш 148
ָ 148
垭@@ 148
夤 148
彘 148
抟 148
熺 148
盦 148
竄@@ 148
荠@@ 148
賚 148
釙 148
銖@@ 148
鏤@@ 148
鐫@@ 148
Hoch@@ 147
Kih@@ 147
Ms@@ 147
adas 147
annes 147
berto 147
entes 147
important 147
iste 147
kum@@ 147
med 147
taine 147
tiz@@ 147
垄 147
屹 147
徬@@ 147
椰 147
氓@@ 147
燿@@ 147
窜@@ 147
衾 147
讪 147
錳@@ 147
镌 147
騭 147
髀 147
鬮 147
그 147
Den 146
Dies@@ 146
Fest@@ 146
Philipp@@ 146
Rest@@ 146
SPD 146
ativ@@ 146
auf 146
become 146
clo@@ 146
det 146
dist@@ 146
emas 146
eren 146
hui 146
oda 146
olm 146
prol@@ 146
retur@@ 146
stand@@ 146
tura 146
叻@@ 146
昵 146
栝@@ 146
槨 146
淙 146
焯@@ 146
煐 146
狁 146
箔@@ 146
紱 146
羸@@ 146
苅 146
茀 146
蛀 146
讴@@ 146
铒 146
鷉 146
장 146
Amat@@ 145
Anh@@ 145
Ard@@ 145
Biz@@ 145
Distribu@@ 145
Elle 145
Germany 145
Hern@@ 145
Historic 145
Mih@@ 145
Olymp@@ 145
alier 145
camp 145
featur@@ 145
gues 145
rug@@ 145
े 145
ぱ 145
倘 145
儺 145
埭@@ 145
捱 145
渉 145
疥@@ 145
葭@@ 145
蒽 145
蚬 145
蜻 145
逄@@ 145
鄩 145
騁 145
骅@@ 145
骋 145
鴴 145
鹱 145
Compan@@ 144
Eb@@ 144
Lyon 144
Orch@@ 144
Popular 144
accep@@ 144
aina 144
aka@@ 144
clos@@ 144
conduc@@ 144
conver@@ 144
fix@@ 144
haz@@ 144
international 144
nin 144
omin@@ 144
oration 144
pez 144
ż 144
ả 144
∗ 144
〝 144
ぜ 144
凃 144
剁@@ 144
劼 144
呸 144
唃 144
啬 144
彗 144
戩 144
掰 144
擰 144
晁 144
櫥@@ 144
湍 144
矇 144
笮 144
訝@@ 144
鉸@@ 144
Bas 143
Bib@@ 143
Castro 143
Malay@@ 143
Winter@@ 143
atures 143
entum 143
gradu@@ 143
guez 143
nership 143
orch@@ 143
parall@@ 143
porte 143
princip@@ 143
prises 143
serve 143
similar 143
ulia 143
yel@@ 143
亜 143
佉 143
咔@@ 143
咧 143
暦 143
湮 143
狎@@ 143
痺@@ 143
礬 143
粳@@ 143
纘@@ 143
纣 143
肓 143
荟 143
藎 143
闌 143
驯 143
Carrera 142
aler 142
compon@@ 142
fall@@ 142
inh 142
isions 142
kop@@ 142
liche 142
mai 142
ologie 142
porter 142
ppi 142
propos@@ 142
resol@@ 142
zan 142
ɣ 142
〗 142
ㄥ 142
呪 142
嗤@@ 142
崮@@ 142
帼 142
幷 142
曄@@ 142
涔 142
滸 142
犨 142
瞋 142
矧 142
砰@@ 142
缵 142
薫 142
蟎@@ 142
赘@@ 142
跛 142
蹼@@ 142
辂 142
銶 142
锕 142
韫 142
颯@@ 142
騶 142
骝 142
鹎 142
Basket@@ 141
Ent@@ 141
Era 141
Hr@@ 141
Ins@@ 141
Nel@@ 141
acio 141
aille 141
antage 141
arding 141
campus 141
cas 141
concept 141
dot@@ 141
erc@@ 141
hil@@ 141
kt@@ 141
lor 141
moun@@ 141
olf 141
uch 141
ug 141
̯ 141
ầ 141
⇔ 141
〖 141
嘸 141
姗 141
恸 141
枥 141
栞 141
桨@@ 141
殇@@ 141
淆@@ 141
珦 141
琹 141
瓔 141
瓖 141
甙 141
窕 141
緑 141
绀@@ 141
腧@@ 141
茱 141
蛻 141
郏@@ 141
钜@@ 141
锎 141
颧@@ 141
鴷 141
黠@@ 141
Corpor@@ 140
dam 140
fen 140
hen 140
kle@@ 140
oire 140
seen 140
til 140
vera 140
吁@@ 140
咿@@ 140
図 140
攢 140
柘 140
栀@@ 140
桷 140
沄 140
犂 140
琮@@ 140
畝@@ 140
銻 140
鯽@@ 140
마 140
진 140
Salvador 139
Unter@@ 139
accoun@@ 139
asser 139
eas 139
jas 139
numer@@ 139
omp@@ 139
raine 139
role 139
seven 139
suc@@ 139
tung 139
utz@@ 139
⇒ 139
僰 139
哙 139
啻 139
杼@@ 139
栾 139
殡 139
涎@@ 139
濯@@ 139
藜@@ 139
鬪 139
鸊 139
세 139
Alej@@ 138
Eis@@ 138
Europa 138
Rug@@ 138
Trump 138
bec 138
business 138
cog@@ 138
hin 138
kab@@ 138
lement 138
male 138
ondo 138
orb@@ 138
organiz@@ 138
osi 138
poin@@ 138
sens@@ 138
╱ 138
ぽ 138
ㄐ 138
卣 138
坨@@ 138
姮 138
嶸 138
悪 138
暲 138
楝@@ 138
泺 138
洄 138
牡 138
獁@@ 138
璪 138
瞌@@ 138
縷@@ 138
芨@@ 138
蜉@@ 138
裨 138
詫@@ 138
讒 138
酃 138
鋌@@ 138
锫 138
锹 138
는 138
유 138
Bundes@@ 137
Charl@@ 137
Hung@@ 137
Libr@@ 137
Nieder@@ 137
Ohio 137
XV@@ 137
aches 137
ases 137
folk 137
hid@@ 137
higher 137
implement@@ 137
ingi 137
intern@@ 137
kim@@ 137
ois@@ 137
sist@@ 137
stil@@ 137
studies 137
wed 137
yla 137
ʾ 137
俥 137
厰 137
媵 137
戕 137
毽@@ 137
浞 137
獐 137
疝@@ 137
瘧 137
糍@@ 137
纛 137
翮 137
膿 137
莼@@ 137
菉 137
蒍 137
비 137
영 137
Anat@@ 136
Geb@@ 136
Guillaume 136
Jah@@ 136
acked 136
attle 136
ayr@@ 136
brand 136
built 136
dir@@ 136
dows 136
education 136
ested 136
ional 136
positive 136
stra@@ 136
summer 136
teri 136
written 136
Ο 136
∥ 136
ㄎ 136
䗛 136
乭 136
倌 136
垢@@ 136
姣 136
媯@@ 136
崢 136
擲@@ 136
沓@@ 136
牝@@ 136
疣@@ 136
痘@@ 136
硚@@ 136
稞 136
脇@@ 136
诘@@ 136
辍 136
酞 136
鐿 136
閹 136
鳃@@ 136
abra 135
among 135
anni@@ 135
associated 135
cic@@ 135
community 135
govern@@ 135
ischen 135
laz@@ 135
nig 135
pron@@ 135
subject 135
க 135
ㄢ 135
刍@@ 135
叨 135
噏 135
嬈 135
幄 135
攒@@ 135
梉 135
泸 135
潇 135
璥 135
砟 135
磴@@ 135
缀@@ 135
胛 135
膈@@ 135
蘅@@ 135
譎 135
谠 135
鄺 135
镫 135
鮀 135
산 135
전 135
Graf@@ 134
Its 134
Kut@@ 134
Mab@@ 134
Many 134
Partido 134
Patri@@ 134
Philadelphia 134
cause 134
exist@@ 134
hii 134
iller@@ 134
modern 134
oci@@ 134
plac@@ 134
regul@@ 134
tsch@@ 134
yen 134
্ 134
ค 134
จ 134
⁄ 134
唢@@ 134
愆 134
掺 134
暝 134
滢 134
笏@@ 134
絳@@ 134
綃@@ 134
纍 134
苡 134
蓨 134
褸 134
詬 134
釁@@ 134
鰏 134
鸾@@ 134
齦@@ 134
Found@@ 133
Jersey 133
Luf@@ 133
bass@@ 133
cid@@ 133
curr@@ 133
had@@ 133
heim@@ 133
imin@@ 133
mam@@ 133
mt 133
sex@@ 133
ubil@@ 133
urs@@ 133
versit@@ 133
yk@@ 133
ώ 133
ј 133
์ 133
俵@@ 133
圄 133
够@@ 133
宓@@ 133
恚 133
捍 133
掐 133
榫@@ 133
甴 133
碉 133
絛@@ 133
胙 133
詰@@ 133
跷 133
辋 133
遑@@ 133
鏻 133
铣@@ 133
駡 133
髙@@ 133
조 133
Argentina 132
Doug@@ 132
Jewish 132
Wolf@@ 132
abu 132
analy@@ 132
bay@@ 132
dur 132
leo 132
maj@@ 132
means 132
neum@@ 132
prec@@ 132
various 132
ּ 132
ㄒ 132
仃@@ 132
崽@@ 132
戇 132
抒 132
揀@@ 132
涓@@ 132
烩 132
疥 132
紊 132
菡 132
衿 132
讳@@ 132
跚 132
跤@@ 132
遄 132
阏@@ 132
은 132
Broadway 131
Coupe 131
Enrique 131
Frankfurt 131
Hymen@@ 131
Mez@@ 131
Ung@@ 131
adj@@ 131
atori@@ 131
atura 131
bern@@ 131
econom@@ 131
fit 131
gil@@ 131
intel@@ 131
ions 131
plant 131
pop@@ 131
states 131
visible 131
ḍ 131
⟷ 131
匄 131
嗑 131
崃 131
揸 131
檸 131
濛@@ 131
狍 131
窠 131
罨 131
茆@@ 131
蛰 131
蠲@@ 131
訣@@ 131
跏@@ 131
遽@@ 131
酎 131
釵@@ 131
鍱 131
镗 131
霎@@ 131
鴣 131
화 131
Haus 130
Town@@ 130
cula 130
cup@@ 130
diff@@ 130
esen 130
eure 130
financial 130
forc@@ 130
geh@@ 130
lead 130
making 130
opa 130
repe@@ 130
rim@@ 130
sik@@ 130
use@@ 130
werk 130
ช 130
√ 130
倜 130
冗 130
収 130
呱 130
屜 130
杲@@ 130
櫛 130
漬@@ 130
煲@@ 130
缶 130
翌 130
薔 130
跩 130
遘 130
鑌 130
鞬 130
鱯 130
鲎 130
Distr@@ 129
Indiana 129
Sud 129
USD 129
Yer@@ 129
adan 129
aft@@ 129
alen 129
ausen 129
bou@@ 129
explo@@ 129
fem@@ 129
genus 129
initial 129
iny@@ 129
iwa 129
location 129
oral 129
oza 129
partic@@ 129
sir@@ 129
stan 129
yat 129
ʒ 129
ض 129
ㄠ 129
囹@@ 129
婧@@ 129
抃 129
枏 129
櫂 129
沘 129
眭@@ 129
竪 129
篋 129
纔 129
芍 129
蕗 129
諦@@ 129
韞 129
韫@@ 129
髖 129
魋 129
Americ@@ 128
Itali@@ 128
Kie@@ 128
Melbourne 128
Mia 128
Ontario 128
Wad@@ 128
acre 128
attack 128
bourne 128
conv@@ 128
cover@@ 128
egel 128
ffen 128
inden 128
missions 128
rang@@ 128
received 128
sab@@ 128
stein@@ 128
tham 128
tig 128
tir 128
took 128
yas@@ 128
ㄑ 128
俵 128
吿 128
呜 128
喲 128
嫉 128
屉 128
撩@@ 128
柒 128
櫟@@ 128
泯@@ 128
洧 128
漚 128
燔 128
痿 128
癮@@ 128
睜 128
聃 128
菫 128
蜷 128
諂@@ 128
譟 128
闥 128
鳯 128
鷓@@ 128
민 128
보 128
Italy 127
Margar@@ 127
Rome 127
Teatro 127
auf@@ 127
cali@@ 127
concep@@ 127
dul@@ 127
elor 127
fig@@ 127
fres@@ 127
gence 127
graphi@@ 127
gun@@ 127
ladi@@ 127
legal 127
mah@@ 127
nac@@ 127
offic@@ 127
parts 127
placement 127
pped 127
public@@ 127
sched@@ 127
sent 127
tai 127
ungen 127
usually 127
va@@ 127
ṛ 127
Ⅴ 127
ㄛ 127
亹 127
剣 127
崃@@ 127
戛 127
拎 127
捺@@ 127
曱@@ 127
樨@@ 127
汊@@ 127
沭 127
瀉@@ 127
禵 127
箧 127
缜@@ 127
螫@@ 127
迢@@ 127
颓 127
鯢 127
鸨 127
경 127
선 127
현 127
Castil@@ 126
Chelsea 126
Maryland 126
Mex@@ 126
ayed 126
capit@@ 126
cen@@ 126
clu@@ 126
erre 126
icio 126
inas 126
pes@@ 126
scher 126
semi 126
theast 126
umba 126
̄ 126
ㄝ 126
乜@@ 126
夔@@ 126
惲 126
捜 126
昃 126
畬@@ 126
硃@@ 126
窍 126
笺@@ 126
羿@@ 126
翚 126
褫 126
覈 126
赊@@ 126
遴 126
霰 126
韮 126
飩 126
餌@@ 126
騮 126
Dak@@ 125
Depor@@ 125
Educ@@ 125
Elek@@ 125
Sev@@ 125
aill@@ 125
aines 125
eurs 125
isches 125
moment 125
ored 125
ously 125
pay 125
race 125
unger 125
unique 125
ं 125
ồ 125
剁 125
匱 125
叟@@ 125
嘘@@ 125
嫄 125
嫘@@ 125
愕@@ 125
捶@@ 125
斓 125
検 125
漾@@ 125
甌@@ 125
瘸@@ 125
罃 125
蒟 125
訖@@ 125
谶@@ 125
邋@@ 125
邠@@ 125
鱝 125
문 125
While 124
XVI 124
capac@@ 124
cred@@ 124
dimen@@ 124
emen 124
estim@@ 124
idad 124
inen 124
interest 124
lave 124
lil@@ 124
official 124
policy 124
spre@@ 124
stations 124
undo 124
visi@@ 124
ţ 124
ह 124
ி 124
₂ 124
俯 124
呾 124
哖 124
撻@@ 124
晧 124
朓 124
榦 124
珝 124
虺 124
赧@@ 124
郇@@ 124
駟@@ 124
鹞@@ 124
Bez@@ 123
Pub@@ 123
Vy@@ 123
aide 123
americ@@ 123
architecture 123
beg@@ 123
bish@@ 123
blin 123
character@@ 123
money 123
natur@@ 123
pir@@ 123
pris@@ 123
rul@@ 123
sand@@ 123
scienti@@ 123
stead 123
umbo 123
伷 123
哷 123
埙 123
彀 123
扪 123
璲 123
砮 123
碭@@ 123
缦 123
菪 123
蕲 123
闞@@ 123
頠 123
餽 123
鰤 123
부 123
I.@@ 122
Pennsylvania 122
Roma 122
Toul@@ 122
Tradi@@ 122
Viz@@ 122
aban 122
aup@@ 122
eaux 122
enga 122
events 122
iche 122
ince 122
km@@ 122
metal 122
onstr@@ 122
ray@@ 122
̥ 122
亀 122
噤@@ 122
塲 122
愬 122
杳@@ 122
枳@@ 122
桕 122
湌 122
炔@@ 122
疟 122
稲@@ 122
篾 122
茭@@ 122
蚡 122
蜇 122
蝣 122
覷 122
蹭 122
邲 122
鎏 122
연 122
𩷶 122
Grammy 121
Stal@@ 121
assemb@@ 121
came 121
children 121
deb@@ 121
enst@@ 121
kho@@ 121
kre@@ 121
minut@@ 121
perior 121
plann@@ 121
polit@@ 121
ppe 121
student 121
tee 121
tournament 121
with@@ 121
Ā 121
ן 121
✓ 121
仫@@ 121
嬗@@ 121
撓@@ 121
椋@@ 121
渋 121
玢 121
璦 121
癫 121
眜 121
窠@@ 121
遢 121
邴@@ 121
鈰 121
靓 121
鲇 121
%@@ 120
Ago@@ 120
Ehr@@ 120
German@@ 120
Infan@@ 120
acha 120
addition 120
below 120
cases 120
deli@@ 120
icro@@ 120
impl@@ 120
ival@@ 120
mann@@ 120
names 120
north 120
produced 120
recogni@@ 120
report 120
schaft 120
staff 120
ㄜ 120
卮 120
嗟@@ 120
坩@@ 120
堦 120
憾@@ 120
搧 120
氹@@ 120
瀆@@ 120
綎 120
翬 120
藦 120
讃 120
雳@@ 120
鳩@@ 120
여 120
호 120
Baba 119
Bres@@ 119
Organisation 119
Wah@@ 119
ambo 119
atrice 119
average 119
cil 119
either 119
ilities 119
independent 119
institu@@ 119
jam@@ 119
kat 119
subst@@ 119
together 119
yal 119
zin@@ 119
ĩ 119
ग 119
บ 119
ㄕ 119
傥 119
勍 119
堝 119
忡 119
撩 119
狷 119
碕 119
蕰 119
螣 119
袛 119
褪 119
郈 119
鄮 119
鈁 119
阑 119
鲣@@ 119
박 119
Hind@@ 118
Papa 118
Spanish 118
adul@@ 118
aland 118
alition 118
alter@@ 118
anno@@ 118
atten@@ 118
fully 118
having 118
idence 118
itself 118
k.@@ 118
oven 118
rah@@ 118
tik 118
ậ 118
栿 118
沦 118
浤 118
狈 118
玦 118
瘰@@ 118
盏@@ 118
碚@@ 118
羋 118
詵 118
교 118
Gesellschaft 117
Mary@@ 117
Mexico 117
Minn@@ 117
Toronto 117
Wilhel@@ 117
broad@@ 117
contin@@ 117
degree 117
eko 117
fili@@ 117
gang@@ 117
idar@@ 117
invol@@ 117
kara 117
mtDNA 117
regular 117
separ@@ 117
tat@@ 117
thel@@ 117
them@@ 117
tribu@@ 117
usi 117
voir 117
went 117
women 117
ْ 117
► 117
ㄉ 117
ㄌ 117
䶄 117
吱@@ 117
廵 117
惆@@ 117
旛 117
椙 117
椥 117
歛 117
瞑@@ 117
秸@@ 117
鯤@@ 117
麐 117
鼇 117
鼒 117
랑 117
Aleksand@@ 116
Boeing 116
Montre@@ 116
Muh@@ 116
Soh@@ 116
ached 116
adap@@ 116
arra 116
chez 116
develop@@ 116
encia 116
moved 116
oras 116
rak@@ 116
rather 116
sera 116
sola 116
tei 116
though 116
woman 116
ְ 116
ם 116
ṅ 116
亓@@ 116
唧 116
戬 116
泐 116
烴@@ 116
罍 116
羆 116
胴@@ 116
諶@@ 116
赜 116
踰 116
軚 116
迢 116
鐐 116
霊 116
餛@@ 116
鬻@@ 116
신 116
Aires 115
Alfonso 115
Feld@@ 115
Kag@@ 115
Verlag 115
ampa 115
aper@@ 115
arte 115
clav@@ 115
comple@@ 115
elas 115
hausen 115
health 115
intr@@ 115
population 115
published 115
trade 115
writing 115
zum 115
Ú 115
ն 115
ọ 115
‎ 115
‬ 115
∨ 115
嘀@@ 115
堠 115
塍 115
塹@@ 115
壑@@ 115
嫣@@ 115
峦@@ 115
撝 115
浄 115
燝 115
珰 115
璄 115
痔 115
眨 115
稔@@ 115
芗@@ 115
蹊 115
錼 115
鍚 115
锉 115
구 115
Fati@@ 114
Lew@@ 114
aily 114
aku@@ 114
anas 114
aten@@ 114
capital 114
classes 114
endra 114
hit 114
iso 114
least 114
pal 114
personal 114
rem 114
simil@@ 114
slo@@ 114
tav@@ 114
urban 114
zin 114
Ł 114
ɐ 114
ɒ 114
堍 114
塙 114
姝@@ 114
杈 114
涮@@ 114
稲 114
緡 114
縈@@ 114
绞 114
耒 114
裱@@ 114
郇 114
锽 114
饷@@ 114
鲛@@ 114
麩@@ 114
黧@@ 114
Europ@@ 113
Film@@ 113
Pia 113
Provin@@ 113
Turk@@ 113
certain 113
created 113
cycl@@ 113
diam@@ 113
eins 113
fest 113
grave 113
hips 113
nature 113
ouver 113
pand@@ 113
relation 113
resist@@ 113
solution 113
tend@@ 113
侪 113
厍 113
唷 113
嘓 113
嘖@@ 113
嚩 113
埏 113
埝 113
孳 113
屄 113
瘢@@ 113
睁 113
碸 113
箇@@ 113
膨 113
蠓 113
覘 113
诀@@ 113
鄘 113
镤 113
颎 113
鳖@@ 113
야 113
Buenos 112
Christoph@@ 112
Lima 112
Mp@@ 112
Salv@@ 112
agua 112
ased 112
conc@@ 112
ensa 112
gel 112
his@@ 112
hof 112
immer 112
incre@@ 112
istes 112
nis@@ 112
television 112
trat@@ 112
xu@@ 112
Æ 112
ִ 112
ㄍ 112
匏@@ 112
咥 112
姵@@ 112
廌 112
忡@@ 112
潺@@ 112
狡 112
璝 112
璵 112
畸 112
禳 112
縠 112
纈 112
菽 112
蓼@@ 112
诤 112
閆@@ 112
閼@@ 112
霨 112
鰹@@ 112
鹋 112
Andro@@ 111
Madrid 111
Rhein@@ 111
Sok@@ 111
Syr@@ 111
anian 111
ativa 111
bang 111
clar@@ 111
correc@@ 111
design@@ 111
ege 111
egu@@ 111
emplo@@ 111
fab@@ 111
hay@@ 111
hut@@ 111
iled 111
ney@@ 111
past 111
quel 111
retr@@ 111
tut@@ 111
Ş 111
ɯ 111
埜 111
壊 111
崛 111
晳 111
暕 111
曽@@ 111
柰 111
栄 111
疽@@ 111
紉 111
遛@@ 111
闡 111
阐 111
鴇 111
鷯 111
️ 111
Ｍ 111
acts 110
anni 110
arak 110
bed@@ 110
bil 110
considered 110
disco@@ 110
ensive 110
few 110
igned 110
lub 110
migr@@ 110
quot@@ 110
records 110
running 110
stitu@@ 110
پ 110
ㄟ 110
儆 110
匂 110
哉@@ 110
哎@@ 110
囗 110
屿@@ 110
抡 110
挞@@ 110
槁 110
溧 110
煦@@ 110
玺@@ 110
琵 110
癆 110
箬@@ 110
粦 110
罟@@ 110
訏 110
诫@@ 110
顽 110
饯@@ 110
鲿 110
제 110
Bras@@ 109
Dich@@ 109
Kais@@ 109
Michigan 109
Mosco@@ 109
actu@@ 109
basis 109
bau 109
changes 109
charge 109
condi@@ 109
dered 109
dissement 109
elled 109
eza 109
heav@@ 109
illed 109
ision@@ 109
ivo 109
jud@@ 109
living 109
mother 109
naci@@ 109
orf 109
pain@@ 109
portun@@ 109
spect@@ 109
sto@@ 109
tet 109
ulo 109
writ@@ 109
writer 109
䱛 109
亟 109
俁 109
偌@@ 109
偰 109
儔 109
嗓 109
噍 109
妳@@ 109
朶 109
椪 109
檩 109
浯@@ 109
篾@@ 109
絅 109
郴 109
醺 109
鈾@@ 109
镅 109
靂@@ 109
骶 109
역 109
𣴓 109
Illinois 108
Reich 108
Thu@@ 108
Wen@@ 108
Zeit@@ 108
appar@@ 108
award 108
bt 108
caus@@ 108
centre 108
chant 108
deriv@@ 108
edra 108
episode 108
fif@@ 108
fight 108
hul@@ 108
irat@@ 108
located 108
materi@@ 108
oise 108
playing 108
rech@@ 108
reo 108
sci@@ 108
sug@@ 108
wit@@ 108
wol@@ 108
zam@@ 108
⁴ 108
↑ 108
▪ 108
ゥ 108
働 108
垴 108
奐@@ 108
懃 108
搾 108
攙 108
旄 108
昞 108
椽@@ 108
槲 108
滝 108
瀍 108
煅@@ 108
獣 108
獬 108
玨 108
璉@@ 108
畧 108
纮 108
襬 108
謖 108
郧 108
鉾 108
霏@@ 108
韞@@ 108
餞@@ 108
馃 108
鵲@@ 108
Argent@@ 107
Centro 107
D.@@ 107
Des 107
Liga 107
Rech@@ 107
Slov@@ 107
alled 107
calcul@@ 107
dyn@@ 107
edit@@ 107
eiro 107
forces 107
hau@@ 107
hep@@ 107
imba 107
jun@@ 107
lak@@ 107
multiple 107
neu@@ 107
philosoph@@ 107
reached 107
reich 107
services 107
yam@@ 107
zog 107
¼ 107
Þ 107
Τ 107
媾 107
嫖 107
屎@@ 107
朏 107
氘@@ 107
泅@@ 107
澇 107
珧 107
瓟 107
禊 107
莧 107
躇 107
[...]
