ใน 1227153
ที่ 1045930
และ 1003417
ของ 861906
เป็น 833596
มี 643097
การ 629687
ได้ 559865
" 495984
) 424909
( 418103
ส@@ 398124
ล@@ 397430
ม@@ 378320
น@@ 372192
ด@@ 358146
การ@@ 350470
น 343544
ก@@ 338992
ม 330316
. 322917
โดย 315240
บ@@ 307411
กับ 304636
ว่า 299919
อ@@ 287023
ค@@ 280478
ปี 278022
ก 277989
ป@@ 272325
ย@@ 269255
จาก 269073
จะ 263482
ท@@ 261658
ร@@ 260975
ง 259634
์ 254478
ต@@ 254067
ส 251869
ซึ่ง 249279
ด 246718
ให้ 245779
มา 242485
ความ@@ 240321
ล 240048
ไป 237246
ไม่ 234823
พ.ศ. 227057
ว@@ 215510
25@@ 213201
, 210935
ง@@ 210013
ข@@ 204106
เมื่อ 200893
พ@@ 196019
ช@@ 195396
ต 191539
นี้ 190975
จ@@ 188401
ซ@@ 186230
ห@@ 185628
ะ 184589
ฟ@@ 176880
แ@@ 171012
บ 169967
โ@@ 165616
พระ 163628
อยู่ 162308
หรือ 162154
ผู้@@ 162135
ใช้ 161506
ค.ศ. 160906
ว 158235
คน 158129
นิ@@ 156777
ไ@@ 155153
- 153933
ประ@@ 153869
เขา 151746
คือ 150556
ย 150259
แต่ 148675
ก็ 147234
วิ@@ 145605
ร์ 143751
ร 143465
ทาง 143034
อ 141889
เล@@ 139752
ด้วย 139129
ประเทศ 138445
ถ@@ 138332
เป็น@@ 137388
กัน 137352
ๆ 137029
วันที่ 136491
ถูก 130040
เมือง 128928
แห่ง 128359
ขึ้น 127024
ี@@ 127004
นา@@ 124927
์@@ 122244
ตัว 118497
อย่าง 118467
ยัง 117125
ค 116951
เก@@ 116044
เ@@ 115315
นั้น 114433
มา@@ 114278
เส@@ 114087
า 113679
เพื่อ 113537
อา@@ 113425
ได้รับ 113401
ที่@@ 112974
เบ@@ 110813
เว@@ 110778
2 110683
ไทย 110400
ถึง 110064
ส์ 109642
มี@@ 109264
งาน 106232
พระ@@ 106128
ผ@@ 106049
จึง 105574
ฮ@@ 101664
รา@@ 100548
อน 100500
1 99799
นา 97931
ติ 97560
้า 95819
หนึ่ง 95389
ชื่อ 94655
ู 94345
่า 94151
ริ@@ 93868
เม@@ 93418
ผู้ 93028
กล@@ 92026
ิ@@ 90791
เน@@ 90635
ี 89790
เซ@@ 89726
ทาง@@ 89712
ุ 88933
เอ@@ 87884
สามารถ 87721
ต่อ 87214
นัก@@ 86826
ู@@ 86372
้น 85705
แล้ว 85067
รั@@ 85001
้ 84574
ช 84529
กระ@@ 84223
3 83425
ย์ 83253
สุ@@ 81865
ดี 81500
เรื่อง 81450
เพ@@ 81337
สา@@ 80804
พิ@@ 80309
่ 79887
ท 79765
สร้าง 78829
แบบ 78703
ะ@@ 78484
า@@ 78089
ทำให้ 78025
ส่วน 78013
ญ 77394
เกิด 77026
กร@@ 76948
ร์@@ 76658
ตาม 76555
ราช@@ 76223
ภาพ 76095
ฝ@@ 75967
ป 75852
เธอ 75795
อร์@@ 75710
่ง 75683
เพลง 75595
ลา@@ 74917
ัน 74820
มาก 74586
ทรง 74144
ออก 74137
ุ@@ 74000
เท@@ 73291
ธ@@ 73083
กา 73045
ฟ 73005
หล@@ 72772
ลิ@@ 72636
ริ 72593
เจ@@ 72440
จังหวัด 72130
ศ@@ 71802
รา 71725
ความ 71352
เด@@ 70826
วัด 70794
ทำ 70339
เช@@ 69186
ยา 69177
ัง 69024
เจ้า@@ 68976
ต้อง 68847
ใหม่ 68768
ลง 68757
ชาว 68532
โลก 68123
() 68085
ลา 67960
ยา@@ 67531
รี 67496
แรก 67416
อร 67397
ใจ 66576
ระหว่าง 66459
้@@ 66384
ตร@@ 66289
ติ@@ 66088
เร@@ 65869
ฉ@@ 65747
ิ 65447
ต่อมา 65419
่ง@@ 65352
็@@ 65138
ิน 64961
เช่น 64888
ราช 64607
ทั้ง 64593
อง 64589
ณ@@ 64527
หน@@ 64165
เวลา 63851
ณ 63733
กรรม 63618
วั@@ 63246
ีย@@ 62745
หลาย 62595
นำ 62581
ครั้ง 62364
วา@@ 62221
รับ@@ 62192
สม@@ 61951
พบ 61794
ทีม 61326
4 60886
ื@@ 60841
ที่สุด 60432
อีก 60323
วัน 60319
กลุ่ม 59796
เดือน 58706
ปัจจุบัน 58648
ภ@@ 58226
อั@@ 57925
ชาติ 57474
ใหญ่ 57139
สำหรับ 56907
รับ 56267
กว่า 56061
ญ@@ 55924
: 55906
คล@@ 55805
พระองค์ 55698
โอ 55063
หลัง 55037
ด้าน 54974
พ 54879
่น 54666
้ง 54604
ษ@@ 54401
ิน@@ 54352
โร@@ 53971
อร์ 53931
24@@ 53891
วง@@ 53441
ตัว@@ 52734
เล่น 52514
ช่วง 52502
เข้า 52466
อุ@@ 52211
5 52084
บน 52076
้า@@ 52038
ผล 51948
หม@@ 51861
โดย@@ 51817
คา@@ 51549
จัด 51468
เริ่ม 51459
จ 51333
อำเภอ 51290
ซี 51280
วง 51211
กั@@ 51162
ที่จะ 51149
หน้า 51148
ดา 50918
เอ 50918
เรียก 50901
ตา@@ 50764
มัน 50732
เป@@ 50651
ตา 50639
ั@@ 50384
มั@@ 49955
ใต้ 49813
สี 49752
ภาพยนตร์ 49552
เขต 49409
ีย 49177
น้ำ 49035
กลาง 49007
ตั้งแต่ 48881
่า@@ 48709
สิ@@ 48578
น้ำ@@ 48478
ไว้ 48415
มิ 48038
ภาษา 47954
ปล@@ 47926
จน 47923
คร@@ 47919
อง@@ 47822
่@@ 47119
อิ@@ 46910
ต์ 46833
สูง 46667
พระเจ้า 46346
การแข่งขัน 46345
ใน@@ 45822
กร 45641
"@@ 45528
ยุ@@ 45469
โรงเรียน 45445
สมัย 45331
ต่าง 45251
พระราช@@ 45148
ทำ@@ 45104
ศาสตร์ 45056
ี่ 44909
จำนวน 44889
อา 44837
ชน 44589
พา@@ 44567
หา 44508
บา@@ 44425
อบ 44181
เหนือ 44075
ฐาน 44012
คน@@ 43957
รอบ 43787
คา 43751
น์ 43699
เค@@ 43582
ลี 43576
เด 43576
เข้า@@ 43536
กา@@ 43393
รัฐ 43294
อื่น 43269
รวม 43078
ชา 43023
เข@@ 43001
สำคัญ 42919
มาจาก 42698
ก่อน 42589
ือ@@ 42581
เต@@ 42572
ลิ 42397
คำ@@ 42360
ิด 42293
ัน@@ 42210
– 42204
ดิ@@ 42125
สอง 42038
; 41769
เดิม 41755
ที 41688
เห@@ 41652
บ้าน 41636
ซา 41382
ระบบ 41255
เจ้า 41127
่น@@ 41059
ียน 41008
ทร@@ 40497
สาร 40416
มิ@@ 40407
แก@@ 40349
กีฬา 40224
ประมาณ 40147
การศึกษา 40089
มหา@@ 40086
6 40055
ปฏิ@@ 40013
โต 39954
ระดับ 39922
พื้นที่ 39902
ทั้งหมด 39871
โก 39657
อม 39642
จีน 39571
อด@@ 39402
ชาย 39393
บรร@@ 39378
่าง 39296
แบ@@ 39121
ผ่าน 39100
นาย 39050
บั@@ 39025
อน@@ 38895
กุ@@ 38878
อก 38717
อาจ 38608
เหล@@ 38503
โร 38493
ิง 38389
เครื่อง@@ 38186
แม@@ 38159
ับ 37929
นาม 37915
ด์ 37910
้ว@@ 37857
ตั้ง 37826
อังกฤษ 37755
ชีวิต 37734
มุ@@ 37646
สมเด็จ 37615
อย 37582
หลวง 37479
คำ 37467
ญี่ปุ่น 37359
ดา@@ 37333
ลง@@ 37250
เขียน 37001
าน 36995
บุ@@ 36993
โปร@@ 36973
ชา@@ 36930
ท์ 36863
ในประเทศ 36843
ผล@@ 36812
ัย 36800
ัก@@ 36796
ชนะ 36730
(@@ 36672
เร 36632
โด@@ 36625
ภา@@ 36530
เคย 36487
นิยม 36368
ัก 36200
วา 36144
ปา@@ 36077
เห็น 36033
สี@@ 35944
ได้แก่ 35819
ตำบล 35806
ึ@@ 35531
ส่วน@@ 35482
รูป 35227
ติด@@ 35211
ชนิด 35081
เฟ@@ 35015
ตร 35008
อันดับ 34822
ให้@@ 34734
นัก 34711
อด 34687
ฟุตบอล 34653
7 34540
๊@@ 34310
รุ@@ 34196
แสดง 34126
มหาวิทยาลัย 34118
แก่ 34118
แล@@ 34092
เนื่องจาก 34041
พล@@ 34014
เรีย@@ 33926
วี 33905
งค@@ 33828
ตำแหน่ง 33607
ส่ง 33540
เพราะ 33510
้าง 33483
วิ 33448
อล@@ 33414
ศา@@ 33364
เพียง 33322
่าย 33318
กิ@@ 33190
ลักษณะ 33180
กำลัง 33154
วงศ์ 33117
ำ@@ 33096
จิ@@ 33075
ปร@@ 32999
เต 32920
สั@@ 32765
ยก@@ 32764
บาง@@ 32737
ซ 32643
ิล 32576
ปรา@@ 32539
เซ 32451
อนุ@@ 32357
ระ@@ 32327
สัง@@ 32238
อย@@ 32232
โม@@ 32212
ชุด 32184
เสียง 32179
หลัก 32136
บริษัท 32095
ลูก@@ 32093
บาง 32062
ศึกษา 32018
เผ@@ 31973
นั@@ 31946
ไป@@ 31857
บริเวณ 31805
แทน 31750
นำ@@ 31710
ซ์ 31696
เท 31640
สาย 31585
ครั้งแรก 31413
-@@ 31375
องค์@@ 31372
อัน 31322
โน 31284
ทั@@ 31216
8 31177
แน@@ 31126
นิ 31124
ทหาร 31099
เม 31006
.@@ 31003
่ว@@ 30962
สว@@ 30952
รี@@ 30935
เดียว 30915
คั@@ 30892
10 30823
สะ@@ 30807
ซิ 30803
แข@@ 30782
ใช้@@ 30767
เตอร์ 30692
กอง@@ 30646
เย@@ 30602
จำ@@ 30363
ประวัติ 30244
ตาม@@ 30241
หญิง 30208
ได้@@ 30099
ชิ 29950
ขา@@ 29942
ฝ่าย 29885
หลังจาก 29859
บิน 29857
ฯ 29746
& 29711
ทิ@@ 29672
โต@@ 29583
ต่อ@@ 29442
แค@@ 29442
ใ@@ 29429
สาม 29414
ฆ@@ 29306
ณ์ 29180
ประกอบ 29155
ปั@@ 29151
อบ@@ 29101
ระ 29099
งาน@@ 29087
หา@@ 29047
ตั้งอยู่ 28976
น้อย 28933
กลับ 28883
รัก 28789
ภาค 28781
แท@@ 28764
รัฐบาล 28683
อก@@ 28678
ัง@@ 28602
สู@@ 28594
หัว@@ 28546
เกม 28528
เรือ 28518
จัด@@ 28479
โค 28444
ดู 28384
สน@@ 28329
/ 28307
ชิ@@ 28305
คิด 28152
อดีต 28113
ที@@ 28103
ชี@@ 28047
สงคราม 28025
นาน 28023
เดียวกัน 28010
รายการ 27976
เปิด 27957
ษ 27952
โล@@ 27889
บริ@@ 27841
ปี@@ 27820
โรง@@ 27781
หมาย 27627
ธรรม 27557
ฤ@@ 27557
ยู@@ 27541
มว@@ 27464
ยาว 27464
ร่วม@@ 27456
กาย 27448
่าน 27412
มือ 27371
วัง 27355
ื่อ@@ 27347
อายุ 27303
่อ 27284
ละ@@ 27252
ชั้น 27179
้อง 27104
ธ 27064
สมาชิก 27046
รุ่น 27027
ตุ@@ 27023
เรียน 27022
รร@@ 27013
อัลบั้ม 26941
แผ@@ 26913
โซ@@ 26898
เก 26821
ไม้ 26806
เกาะ 26788
ช่วย 26783
ราว 26764
เปลี่ยน 26764
พร@@ 26755
ึก 26701
วะ 26692
แบ่ง 26572
อาหาร 26451
ข้อ@@ 26415
ยู 26357
อย่าง@@ 26357
ชั@@ 26243
ต้น 26191
ภายใน 26141
เฉ@@ 26110
9 26087
บท 26014
ยุค 26009
ซิ@@ 25979
ตน 25945
องค์ 25932
ราย 25922
จริง 25917
หัว 25911
ทำงาน 25760
นว@@ 25746
ประกาศ 25723
ื้อ 25711
เมตร 25695
ฝรั่งเศส 25678
สโมสร 25660
้าง@@ 25621
เกี่ยวกับ 25619
โก@@ 25553
ำ 25481
ทอง 25378
” 25332
นที่ 25327
ดี@@ 25320
ซี@@ 25299
ียง 25268
ปลา 25215
เป็นการ 24987
นี 24976
ทุก@@ 24909
ร่วม 24904
อี 24888
เนื้อ@@ 24820
จา@@ 24745
จิ 24718
คณะ 24689
่อง@@ 24681
โอลิมปิก 24673
ดิน 24617
สภา 24614
ภาษา@@ 24605
รว@@ 24591
อิน@@ 24568
ทั้ง@@ 24559
ผลงาน 24550
รู้ 24538
บา 24527
ฮา 24526
พรรค 24498
็น 24450
เทศ@@ 24444
ละ 24441
เช่น@@ 24396
ีน 24337
บว@@ 24324
20 24317
โด 24293
ต้น@@ 24214
ข 24171
การเมือง 24127
สู่ 24109
สิน@@ 24073
พันธุ์ 24062
ธิ@@ 24045
“ 24038
บุรี 23971
เคล@@ 23946
ทั่วไป 23871
รูปแบบ 23835
ดังกล่าว 23715
เงิน 23693
โค@@ 23667
ลำ@@ 23626
เต็@@ 23589
ือ 23578
ชัน 23555
รัช@@ 23485
  23469
เค 23437
ียว 23388
ล้าน 23384
นาง 23383
ู่ 23369
วน 23313
แห่งชาติ 23152
แอ@@ 23101
of 23092
สร@@ 23027
เอง 23025
สกุล 23009
ไม@@ 22990
สุดท้าย 22974
รักษา 22961
ลีก 22914
มากกว่า 22834
โป@@ 22799
แข่งขัน 22741
รถ@@ 22728
เอก 22683
โรค 22675
ถือ@@ 22659
บี 22656
วาง 22547
ตรา 22518
แดง 22514
จนถึง 22440
ร็@@ 22417
จุ@@ 22395
นอกจากนี้ 22320
ิร์@@ 22271
คุ@@ 22259
รางวัล 22248
การปกครอง 22239
ห 22228
ค้า 22213
พิมพ์ 22196
ไล@@ 22190
ศ 22161
12 22152
๋@@ 22104
ดิ 21985
ส่ง@@ 21969
ราย@@ 21960
หาร@@ 21959
บู@@ 21953
ียม 21939
ญา@@ 21934
สอน 21928
กล 21922
ทา@@ 21916
15 21913
เอ็@@ 21892
้อน 21892
เหตุ 21845
กาล 21844
ท่าน 21792
โล 21787
ซา@@ 21760
รัฐ@@ 21740
พวก 21719
ชาว@@ 21698
สาว 21663
ถนน 21608
หน้า@@ 21596
ลาย 21577
เข้าร่วม 21577
ณา 21565
ตอน@@ 21537
ห์ 21497
แลนด์ 21496
กษัตริย์ 21480
ฐานะ 21403
ส่วนใหญ่ 21336
โม 21335
ข้อมูล 21308
พล 21305
ตอน 21303
้ม 21302
พื้น@@ 21297
อยู่@@ 21293
่อ@@ 21197
เกิดขึ้น 21179
อาศัย 21163
ลั@@ 21153
อล 21134
อำนาจ 21043
30 21026
จากนั้น 21014
เจ 20932
แหล@@ 20931
ภาพ@@ 20926
โย@@ 20901
เลือก 20850
โท 20825
เวีย@@ 20779
บาย 20771
ลอง 20760
้าน@@ 20724
ประเภท 20720
เดินทาง 20673
โทรทัศน์ 20659
คร 20638
บท@@ 20634
ตัน 20610
ไร@@ 20602
พัฒนา 20598
ตั้ง@@ 20584
กรม 20582
ไข@@ 20572
ภิ@@ 20564
่อน 20559
พวกเขา 20534
คณะ@@ 20528
สำ@@ 20501
คุณ@@ 20455
16 20443
ไร 20439
ตี 20434
ก็ได้ 20425
มหา 20356
ตัด@@ 20345
่ม 20341
โอ@@ 20289
ตรี 20280
ค่า 20258
ฤดูกาล 20256
ทุ@@ 20221
ทุก 20215
บาท 20213
นคร 20207
ื่อ 20202
สัตว์ 20200
รอง 20192
้อง@@ 20179
สำนัก@@ 20163
ผลิต 20160
ขนาด 20147
มีนาคม 20143
สิงหาคม 20098
ดนตรี 20077
กองทัพ 20065
ที่อยู่ 20050
ื่อน 20047
สุด 20043
ยิ@@ 19987
แม่น้ำ 19986
นต@@ 19981
นต์ 19956
ิต 19900
ปริ@@ 19807
อาคาร 19804
ตุลาคม 19787
ราชการ 19756
แสดง@@ 19746
ุน 19732
วด 19731
นี@@ 19728
สังกัด 19709
สิ่ง@@ 19686
แชมป์ 19683
ย้าย 19662
แนว 19644
สห@@ 19627
ชน@@ 19572
ปรากฏ 19571
ออกมา 19561
ราชวงศ์ 19551
แฟ@@ 19530
สต@@ 19504
เข้ามา 19499
ืน 19456
ณี 19451
กลายเป็น 19441
ออกจาก 19414
ช่อง 19368
กันยายน 19312
สนับสนุน 19291
การณ์ 19290
กิจ@@ 19290
ตะวันตก 19280
ิก 19245
จบ 19216
' 19212
ประกอบด้วย 19196
เคร@@ 19164
ใด 19160
ยังมี 19147
เมษายน 19139
กำ@@ 19135
มกราคม 19132
แยก 19109
เติ@@ 19081
ธันวาคม 19074
สาขา 19074
ยาน 19065
พระยา 19050
ูน 19033
11 19021
จักรพรรดิ 19018
ฏ@@ 19008
้ม@@ 19002
ียง@@ 18997
แต่ละ 18987
), 18983
ประชากร 18966
่าย@@ 18957
บุคคล 18956
ึก@@ 18952
ออ 18944
พิเศษ 18941
ศาสนา 18925
สถา@@ 18923
ขึ้น@@ 18919
พฤษภาคม 18899
สัน@@ 18862
ภัย 18860
ต่างๆ 18853
แว@@ 18848
แนว@@ 18842
ฟ้า 18832
น. 18814
ทา 18773
ศว@@ 18762
เล็ก 18762
โน@@ 18743
กำหนด 18742
เฮ@@ 18725
สถาน@@ 18714
หมายถึง 18709
ประชาชน 18707
กรกฎาคม 18699
19 18694
หน้าที่ 18667
ือน 18659
ักษ@@ 18654
18 18647
เสียชีวิต 18647
เรีย 18638
ตรง 18611
ขาย 18610
ตี@@ 18610
มนุษย์ 18595
ประจำ 18578
รวมถึง 18562
ทะเล 18510
เอก@@ 18490
นก 18488
กรณ์ 18484
้อ@@ 18442
มัก 18440
S@@ 18434
ตะวันออก 18410
ับ@@ 18400
ชอบ 18383
ื่น 18373
อากาศ 18361
ปา 18325
สัน 18286
ศรี 18272
เซีย 18242
ชัย 18218
ประตู 18206
วัน@@ 18200
ถ 18197
้น@@ 18189
นัด 18161
เพิ่ม 18159
การเลือกตั้ง 18136
ีย์ 18131
ทิศ@@ 18118
หนัก 18081
14 18069
หนังสือ 18020
ล์ 18005
แม่ 18000
สม 17988
โซ 17986
กรม@@ 17979
ทั้งสอง 17968
มิถุนายน 17922
ข้า@@ 17905
หั@@ 17869
ตะ@@ 17864
ื่อน@@ 17833
ลำดับ 17822
ปัญหา 17798
กรุง 17764
ซั@@ 17741
อะ 17716
นิว@@ 17689
เส้น@@ 17652
คู่ 17644
แส@@ 17587
ขอ 17580
เชื่อ 17571
ที่สอง 17559
ลด 17555
หร@@ 17547
แพ@@ 17546
ค์ 17543
สัญญา 17539
เนีย 17531
โท@@ 17519
หลัก@@ 17509
เด็ก 17509
พฤศจิกายน 17494
ยุ 17493
เพิ่ม@@ 17475
สิ่ง 17466
สง@@ 17453
สิทธิ์ 17446
ประวัติศาสตร์ 17437
คว@@ 17413
มะ 17353
สหรัฐ 17323
ว์ 17313
เร็ว 17313
เสีย 17298
วิชา 17294
อีกครั้ง 17288
ก่อน@@ 17274
ไอ 17245
สหรัฐอเมริกา 17238
เท่านั้น 17222
เง@@ 17217
ภูมิ@@ 17195
ระยะ@@ 17179
นอก@@ 17170
ม. 17124
แป@@ 17112
อุป@@ 17097
ป่า 17083
ี่@@ 17083
สิ้น@@ 17073
วิทยา 17057
โจ@@ 17053
พา 17046
สาร@@ 16965
ไฟฟ้า 16962
25 16959
ภูมิ 16950
็น@@ 16946
แร@@ 16942
ฉบับ 16919
ชั้น@@ 16891
กุมภาพันธ์ 16873
ละคร 16856
ยะ 16851
ยุโรป 16806
อิ 16788
กว@@ 16764
ธรรม@@ 16749
50 16712
หมาย@@ 16711
สัม@@ 16706
กี 16705
13 16662
เทพ 16653
ภายใต้ 16649
พันธ์ 16632
้ำ 16626
ฟิ@@ 16589
สมเด็จพระ@@ 16580
ทะ@@ 16551
สาย@@ 16543
สถาน 16541
ตาย 16508
กฎหมาย 16507
อัน@@ 16499
ภาค@@ 16489
่ม@@ 16446
ดังนี้ 16445
ออก@@ 16397
จุด@@ 16395
ไฟ 16378
นอก 16376
ย์@@ 16360
ียร์ 16332
บริการ 16328
แอ 16327
ศตวรรษ 16326
นคร@@ 16325
มอ 16318
สังคม 16317
ครอง 16298
ช่วง@@ 16296
ซู 16287
เกาหล@@ 16274
ตำ@@ 16270
รัส 16264
ิด@@ 16233
ศรี@@ 16232
ยก 16217
็ก@@ 16213
17 16194
ชื่อว่า 16178
บัง@@ 16173
ปลาย 16173
แจ@@ 16155
ควบคุม 16113
(; 16067
เครื่อง 16064
ดาว@@ 16032
เอา@@ 16016
พระราชทาน 15998
วรร@@ 15977
C@@ 15973
เหตุการณ์ 15960
ธี@@ 15939
วัต@@ 15925
เกล@@ 15925
ก่อตั้ง 15923
ยึ@@ 15916
ก่อ@@ 15908
กิ 15863
ต่าง@@ 15842
เชื่อ@@ 15822
ออกอากาศ 15818
The 15817
รวมทั้ง 15809
ไซ@@ 15790
จา 15787
รวม@@ 15763
ขุ@@ 15750
เดอะ 15737
เหรีย@@ 15730
ต้องการ 15727
อาร์ 15725
แถ@@ 15723
เชิ@@ 15718
กะ 15695
จำหน่าย 15689
็ก 15665
บร@@ 15661
แต@@ 15660
สูงสุด 15658
เลย 15656
ยอด@@ 15637
ฤดูร้อน 15635
สุ 15610
มพ@@ 15606
แซ@@ 15589
ร่วมกับ 15525
") 15524
ใบ 15517
จารย์ 15512
อักษร 15492
วิทยาศาสตร์ 15488
่าง@@ 15481
คณะกรรมการ 15473
บริหาร 15460
เส้น 15443
่ว 15396
แพ้ 15394
ยาม 15366
ฮ 15357
สถ@@ 15348
ถ้า 15330
มาร 15329
หาร 15322
สต์ 15314
รบ 15306
จำกัด 15301
กิโลเมตร 15296
ลูก 15289
ือง 15281
T@@ 15223
รู 15210
ข้าง 15204
24 15187
แต่@@ 15175
ครั้ง@@ 15161
กลา@@ 15151
ประจำ@@ 15125
เกษ@@ 15122
เสีย@@ 15119
M@@ 15099
้อย 15076
P@@ 15075
ราบ 15067
การแสดง 15066
ปกติ 15013
ไม่@@ 15003
ประสบ@@ 14995
บัญ@@ 14990
ขาว 14965
เอส 14962
ท่า@@ 14933
สมั@@ 14932
ดั@@ 14928
ยังคง 14915
ไท@@ 14913
เรา 14899
ลิง 14892
็ด 14878
่ำ 14874
ไห@@ 14868
เล 14858
ผิด@@ 14856
ระเบ@@ 14855
วิธี 14839
กลับมา 14822
พยายาม 14805
ดาว 14781
จาร@@ 14780
ถือ 14780
พุทธ@@ 14780
21 14763
หาก 14763
โช@@ 14700
อาการ 14693
โบ@@ 14688
แย@@ 14670
สี่ 14620
บุตร 14618
เจน 14615
กู 14607
ตย์ 14591
s 14587
หน่วย 14575
อธิ@@ 14555
ถ่าย@@ 14554
แพทย์ 14553
ศั@@ 14537
บุญ 14514
ถึง@@ 14495
ป้องกัน 14489
วร 14483
บัน@@ 14479
ฮิ 14470
ัด@@ 14456
ทร 14442
ด้าน@@ 14431
ปฏิบัติ@@ 14380
ี้@@ 14362
โบ 14358
ชี 14356
​ 14339
ิล@@ 14327
ชิง 14311
เลข 14307
คล้าย 14302
เซอร์ 14302
จัดการ 14292
น่า@@ 14279
เท่า@@ 14264
ูก 14250
พ่อ 14239
ตั@@ 14233
พิธี 14227
จุด 14226
มะ@@ 14212
หาย 14198
ทัพ 14193
อะ@@ 14168
คริสต@@ 14140
าก 14134
เลีย 14132
ตก@@ 14114
นักแสดง 14110
ดัง 14095
อาชีพ 14091
ตย@@ 14090
ทด@@ 14077
่อง 14072
น้@@ 14063
สอบ 14034
กาศ@@ 14026
อิส@@ 14023
คอ 14018
พระพุทธ@@ 14012
ดิน@@ 13989
ของ@@ 13982
นับ 13970
เอเชีย 13960
ดู@@ 13956
วิจัย 13947
ทั่ว@@ 13927
กิน 13897
หมู่ 13873
สาธารณรัฐ 13872
เสนอ 13863
สมรส 13838
พันธ@@ 13836
ครู 13822
กรา@@ 13815
มู@@ 13814
ศัก@@ 13800
เข้าไป 13799
มน@@ 13790
ต่อสู้ 13783
ืน@@ 13779
รัสเซีย 13777
เรื่อง@@ 13772
D@@ 13763
หุ@@ 13759
เหมือน 13758
รอ 13755
รถ 13750
ิว 13737
ชิง@@ 13732
กระทรวง@@ 13730
วัฒนธรรม 13725
ฐ@@ 13712
ดอก 13709
วิน 13705
เหล่านี้ 13704
ขนาดใหญ่ 13694
อินเดีย 13625
ึ 13621
เจ้าชาย 13618
ศาส@@ 13617
หลา@@ 13614
เป็นที่ 13597
พั@@ 13594
ดำรงตำแหน่ง 13592
ร้อง 13589
เขต@@ 13582
ปกครอง 13580
วาง@@ 13575
คะแนน 13570
แม้ 13567
22 13555
ประธาน 13526
กษ์ 13516
G@@ 13515
the 13510
แต่ง@@ 13497
เป็นหนึ่ง 13478
โครงการ 13476
นับ@@ 13469
ชนะเลิศ 13466
ฝั่ง 13465
อี@@ 13456
% 13449
เข้าสู่ 13430
โอรส 13430
ศักดิ์ 13423
กษา@@ 13407
23 13405
คอม@@ 13402
พื@@ 13396
รอง@@ 13387
โย 13381
ขน@@ 13378
เชียง@@ 13350
ทำการ 13346
บอล 13333
ม์ 13330
ก่อสร้าง 13324
ภู@@ 13320
็อ@@ 13315
ึง 13310
ติด 13303
เลือด 13276
ทาน 13258
นะ 13247
แมน 13234
ตนเอง 13232
ุ่ม 13225
เป็นต้น 13221
สิน 13213
รัฐมนตรี 13200
เปลี่ยนแปลง 13198
ภายหลัง 13195
เที่ย@@ 13194
ลุ@@ 13159
gt 13156
เคราะห์ 13141
ยอด 13117
ออ@@ 13115
ชาการ 13100
วาย 13093
ครอบครัว 13080
จนกระทั่ง 13072
เฉียง@@ 13071
โพ@@ 13063
ครอง@@ 13058
lt 13051
าย 13043
สั่ง 13036
เวิ@@ 13014
เริ่มต้น 13000
ใกล้ 12984
ดุ@@ 12979
60 12972
กล่าว@@ 12971
นั่ง 12970
แรง@@ 12957
นาง@@ 12948
คุณ 12941
มศึกษา 12930
ทุน 12922
ออกแบบ 12916
สถานี 12903
มิว@@ 12902
แรง 12901
ยาว@@ 12885
แสง 12876
รายชื่อ 12875
สถาบัน 12864
พรร@@ 12860
ค้น@@ 12855
เล็ก@@ 12851
ท่า 12847
ไว@@ 12843
เจริ@@ 12842
ยาย 12833
จำนวนมาก 12832
สนาม 12808
รถไฟ 12807
จี 12779
กำกับ 12778
เอา 12770
เด็@@ 12762
ดำ 12760
การพัฒนา 12745
ญา 12739
มณฑล 12738
พฤ@@ 12736
พัน 12732
้าว 12730
ึ่ง 12726
็บ@@ 12723
คม 12722
เซลล์ 12712
คริสต์@@ 12706
พอ 12684
N@@ 12683
ต่อไป 12671
ราม 12669
ร์ก 12661
R@@ 12644
เกล้า@@ 12644
ัย@@ 12631
็ต 12623
ินี 12621
ระบุ 12613
กำเนิด 12608
ตระกูล 12572
ดินแดน 12551
เกียร@@ 12546
โอกาส 12534
บิดา 12532
ยนต์ 12483
ออสเตร@@ 12483
งค์ 12473
มป@@ 12467
แอน@@ 12455
เศรษฐกิจ 12449
อย่างไรก็ตาม 12446
ธิดา 12424
ีก 12416
มหาวิทยาลัย@@ 12406
เจ้าหญิง 12404
ลู 12402
0 12400
H@@ 12387
สวน 12379
มากขึ้น 12378
็บ 12377
บทบาท 12329
แม้ว่า 12324
เสด็จ 12323
ยน 12322
อิน 12316
L@@ 12310
ธรรมชาติ 12302
เชื้อ@@ 12301
วิทยาลัย 12298
แห@@ 12298
ฮั@@ 12294
คดี 12293
ร้าย 12291
จอม@@ 12276
วิหาร 12261
ส่วนหนึ่ง 12260
บิ 12259
ค่า@@ 12236
ฏ 12221
จัดตั้ง 12218
พยาบาล 12217
ธิ 12200
สมบัติ 12195
รุ 12187
หลังจากนั้น 12179
ความสำเร็จ 12178
พี่@@ 12175
ชม 12174
เวอร์ 12172
ในขณะที่ 12169
หิน 12165
แต่งตั้ง 12158
มักจะ 12129
26 12107
ก่อ 12092
สมาคม 12083
ยอม@@ 12082
พลัง@@ 12070
28 12063
้าย 12060
B@@ 12058
ชุ@@ 12052
ปรับ@@ 12048
ร. 12038
แปล 12032
พี 12013
ชาย@@ 12007
ข้าม 12004
เฮ 12004
คลอง 11996
สวรร@@ 11965
40 11962
งา 11953
ไต@@ 11952
ยศ 11951
เอ็ม 11943
ู่@@ 11937
ตัวเอง 11930
ท้องถิ่น 11924
อเมริกัน 11903
เก็บ 11902
อุด@@ 11890
เปอร์ 11873
y 11857
)@@ 11847
กว้าง 11843
่อน@@ 11824
ตลอด@@ 11797
แผ่นดิน 11782
ทวี@@ 11765
ดอน 11760
เพื่อให้ 11748
ศิ@@ 11740
นาย@@ 11731
อีกด้วย 11712
ครั้งนี้ 11711
เบิร์@@ 11710
เดิน 11705
ยม 11701
เกิน 11700
โดยเฉพาะ 11696
ระดับ@@ 11693
มส์ 11692
แก้ว 11675
สถานี@@ 11672
แต่ง 11656
ปล่อย 11653
ประชุม 11652
รุง 11651
อร์ด 11651
การ์@@ 11648
3@@ 11641
กี@@ 11637
แตก 11636
เรียน@@ 11612
ฬ@@ 11609
ดังนั้น 11608
พม่า 11607
ห้อง 11607
ศูนย์ 11589
มิตร 11578
อว@@ 11575
ี่ยว 11574
ธุรกิจ 11561
27 11556
อาจจะ 11555
จับ@@ 11546
นุ@@ 11530
มีความ@@ 11525
เหตุ@@ 11512
รู@@ 11504
แม่@@ 11495
เปร@@ 11494
เฉพาะ 11483
พรรค@@ 11471
ยุทธ@@ 11462
E@@ 11454
แผน 11449
ได 11439
หนา@@ 11437
สาน 11434
ูล 11428
W@@ 11422
ียด 11416
เนื้อ 11404
29 11389
ดูแล 11370
A 11330
สิ้น 11321
คัดเลือก 11314
กรุง@@ 11306
เหลือ 11299
เยอรมนี 11289
พร 11266
ังก@@ 11263
ภัณฑ์ 11255
F@@ 11245
จักรวรรดิ 11243
บัญญัติ 11243
ศิลปะ 11235
A@@ 11227
ข่าว 11221
ุม 11206
ัด 11187
ชั่ว@@ 11181
มารดา 11172
ภูมิภาค 11169
เพ 11163
เยอรมัน 11163
ศูนย์@@ 11160
ญญาณ 11154
บันทึก 11152
บาล 11146
นายกรัฐมนตรี 11138
แดน 11130
อัล 11128
ฤษฎ@@ 11115
พุทธ 11109
ยิ่ง 11109
พอ@@ 11107
ร่าง@@ 11102
ชาร์@@ 11101
ธาน@@ 11101
เก่า 11099
โฮ 11099
สั้น 11089
เกี่ยวข้อง 11087
พูด 11082
หว@@ 11079
อาณาจักร 11075
สรร@@ 11065
คต 11062
เน 11059
กัน@@ 11040
ประโยชน์ 11027
มีชื่อเสียง 11027
วุธ 11026
ปก@@ 11020
ลาย@@ 11002
เทคโนโลยี 10997
ซู@@ 10995
บี@@ 10986
ยิง 10983
สุข 10981
เที@@ 10963
ธาตุ 10959
ั้@@ 10958
ฉาย 10938
กระจา@@ 10935
เลอ 10930
ศึก 10924
สมุทร 10922
ใกล้@@ 10910
้าน 10909
เชิง 10906
วุ@@ 10898
อื่นๆ 10891
ศพ 10878
พืช 10876
ทู@@ 10874
ธิการ 10865
กุล 10857
เสริม 10853
๊ก 10851
จร 10841
สถานที่ 10837
เป็นทางการ 10830
พง@@ 10817
โบราณ 10815
[ 10809
ไซ 10806
เคียง 10803
พร้อมกับ 10793
ั้น 10783
ณิ@@ 10773
ทธิ@@ 10769
สนาม@@ 10763
มากมาย 10751
ี่ยง 10732
ล้อม 10730
ย่อย 10720
ศิลปิน 10694
บาท@@ 10691
จักร 10687
ดัน 10669
เลี้ยง 10661
ว่าการ 10659
ตัวละคร 10648
กอ 10645
กรุงเทพมหานคร 10639
รู้สึก 10639
ตอบ@@ 10638
บัติ 10628
กุ 10624
เด่น 10623
หมู่บ้าน 10621
เลือกตั้ง 10603
ค่าย 10543
ตะ 10533
นติ@@ 10529
เยี่ยม 10527
วี@@ 10523
เปิดตัว 10518
ทรัพ@@ 10514
หลาย@@ 10511
พร้อม 10500
กล่าว 10488
ข้าง@@ 10484
นี่ 10484
งาม 10482
นักเรียน 10471
ธรร@@ 10460
ร้อย@@ 10451
ใช่ 10446
บวนการ 10444
สระ 10436
ทำหน้าที่ 10412
คืน 10406
31 10405
ใส่ 10405
ชั่น 10403
วัฒ@@ 10397
สืบ@@ 10391
อิทธิพล 10388
ซิงเกิล 10381
จับ 10380
ณะ 10376
รัง@@ 10362
ื้@@ 10355
หลังจากที่ 10345
4@@ 10336
จันทร์ 10335
ดำเนิน 10330
จุ 10329
โจมตี 10325
ระบ@@ 10317
ขั้@@ 10316
สนใจ 10313
ชุม@@ 10311
สิทธิ@@ 10310
] 10308
อยุธยา 10305
อร์แลนด์ 10302
ไท 10302
ชื่อ@@ 10288
ไหว 10286
ทร์ 10284
อุ 10254
ษา 10250
าน@@ 10240
เป็นที่รู้จัก 10235
คอน@@ 10231
เพช@@ 10227
พลัง 10222
สงคราม@@ 10218
ดำเนินการ 10206
อิตาลี 10178
ฌ@@ 10176
ช่วยเหลือ 10158
ฐ 10158
ลับ 10156
บูรณ์ 10149
สำนัก 10138
ทัพ@@ 10133
ไน@@ 10128
หม่อ@@ 10111
กษา 10096
วัย@@ 10095
เทียบ 10094
ตัด 10076
หยุ@@ 10070
ษฐ@@ 10062
ตะวันออก@@ 10061
ฟา 10060
ปริญญา@@ 10047
นักร้อง 10038
สภาพ 10034
บัณฑ@@ 10027
ผู้อ@@ 10021
น้อง 10015
ความสัมพันธ์ 10007
54 10002
จอ@@ 10001
ความสามารถ 9994
สัตว@@ 9991
แข็ง 9991
อู 9976
ูก@@ 9971
2@@ 9955
มัธย@@ 9947
ประก@@ 9938
พย@@ 9936
ียน@@ 9922
ละคร@@ 9921
พระนาง 9916
in 9909
ตลาด 9909
23@@ 9906
สงฆ์ 9902
). 9899
รูป@@ 9899
ใบ@@ 9889
= 9885
นอ 9864
O@@ 9862
พระชน@@ 9859
ประชา@@ 9856
มอง@@ 9855
หย@@ 9848
สเปน 9841
ไอ@@ 9832
นด์ 9829
รู้จัก 9820
็อก 9819
ต่อต้าน 9818
ช์ 9808
and 9805
กล่าวว่า 9803
แพร่ 9797
ขยาย 9796
รรษ 9795
การผลิต 9794
สำเร็จ 9792
55 9788
พิจาร@@ 9766
ตลอด 9765
คม@@ 9758
ทัน@@ 9758
ป่วย 9758
ตรง@@ 9727
เถ@@ 9725
สิทธิ 9716
เหมือน@@ 9716
แฮ@@ 9716
ขณะนั้น 9704
แก้@@ 9694
จิต@@ 9693
ตำรวจ 9685
K@@ 9679
้าย@@ 9677
ิม 9672
ควร 9671
us 9668
ทำลาย 9667
น้อย@@ 9666
ฟู 9647
ตก 9646
แตกต่าง 9644
สัญลักษณ์ 9643
คง 9636
แคว@@ 9636
เทศ 9627
รับรางวัล 9625
เป็นที่@@ 9621
พาน 9617
เนื่อง 9616
อุตสาห@@ 9612
ปาก 9607
กซ์ 9601
เมือง@@ 9601
สเต@@ 9588
เปล@@ 9585
กระท@@ 9572
ส์@@ 9571
ประชาธิ@@ 9568
จน์ 9564
ขนาดเล็ก 9562
อัล@@ 9562
ราง@@ 9559
รุนแรง 9559
ผสม 9554
ล่าง 9548
ตั้งขึ้น 9543
กอง 9542
ฒ@@ 9539
เธ@@ 9533
พระบรม@@ 9532
ข้อ 9525
าม 9508
หนี 9502
สมาชิกสภาผู้แทนราษฎร 9496
็อง 9494
บอก 9479
ผู้นำ 9478
เพศ 9475
วิท@@ 9471
อาทิ@@ 9469
57 9460
53 9459
บาล@@ 9453
จู 9451
้อ 9447
ตรวจ@@ 9440
สัปดาห์ 9433
ร้อน 9429
ตัวอย่าง 9422
ดับ 9420
สหราชอาณาจักร 9416
100 9414
(" 9413
สมุ@@ 9398
โครงสร้าง 9397
เหล็ก 9385
ต่างกัน 9376
ลล@@ 9365
พระมหา@@ 9359
ก์ 9343
ด้วยกัน 9320
ประท@@ 9317
อาณา@@ 9315
on 9299
ปิ@@ 9296
ขัด@@ 9291
ศิลป@@ 9285
่อย 9276
่วย@@ 9271
รายงาน 9263
ื่น@@ 9262
กรุ@@ 9251
หลักสูตร 9237
สงค@@ 9236
ดีโอ 9235
่ำ@@ 9229
ประธานาธิบดี 9228
ษฐาน 9224
ทำให้เกิด 9214
โคร@@ 9209
ฎ 9206
รณะ 9206
ห์น 9206
บดี 9185
49 9170
ทธิ 9169
ปไตย 9159
51 9129
้ว 9117
ระย@@ 9091
จี@@ 9085
a 9077
ประสาท 9075
ฎ@@ 9056
16@@ 9050
กาศ 8999
ขณะที่ 8973
จำ 8973
เปิด@@ 8935
แปลง 8908
ญญา 8895
กรรม@@ 8892
48 8789
องค@@ 8773
แด@@ 8772
ปราก@@ 8769
15@@ 8743
59 8728
61 8717
]@@ 8700
คริ@@ 8691
62 8685
ื้อ@@ 8633
5@@ 8621
จั@@ 8617
35 8591
al 8581
ื่@@ 8579
0,000 8558
V@@ 8542
52 8538
สื@@ 8537
แพร@@ 8514
กิจ 8478
ครอบ@@ 8440
ภา 8433
เตร@@ 8399
ing 8395
อเมริกา 8317
รส 8302
56 8298
เฉพา@@ 8255
[@@ 8207
สิง@@ 8188
58 8187
ผู@@ 8177
x 8166
สำเร็@@ 8156
T 8155
ณา@@ 8128
อม@@ 8115
ภั@@ 8114
6@@ 8096
ฤดู@@ 8092
7@@ 8068
บรม@@ 8062
เหน@@ 8053
โทร@@ 8050
พยา@@ 8049
ท้อง@@ 7949
ฺ@@ 7929
ไฟ@@ 7901
ี่ย@@ 7896
2016 7888
กษ@@ 7878
ว่า@@ 7875
E 7869
ครั@@ 7868
45 7864
จักร@@ 7861
เปลี่ยน@@ 7855
ศึ@@ 7844
63 7804
ี่ยม 7804
i 7782
9@@ 7752
สาท 7736
2012 7723
ทธ@@ 7713
พร้อม@@ 7712
้อม 7698
_ 7697
วิทยา@@ 7693
เร็@@ 7683
ขา 7679
2014 7674
กรรมการ 7664
17@@ 7661
รณ@@ 7650
B 7603
I@@ 7600
กระทรว@@ 7587
แช@@ 7567
64 7532
2010 7528
2018 7523
สัมพันธ์ 7521
สุด@@ 7517
8@@ 7489
an 7435
จน@@ 7402
C 7397
47 7395
ชีพ 7322
2020 7320
พุ@@ 7296
y@@ 7252
ราชอาณาจักร 7185
อำ@@ 7184
ถุ@@ 7183
14@@ 7179
ั้น@@ 7179
เดียว@@ 7142
หมด 7135
็ง 7102
เทค@@ 7042
ภาย@@ 7012
ิ่น 6953
c 6948
1,@@ 6926
คาร 6922
ดัง@@ 6912
ระหว@@ 6832
n 6799
ด้วย@@ 6787
จริ@@ 6783
t 6770
มาร@@ 6751
2015 6732
32 6711
39 6703
e@@ 6703
42 6680
ศาสต@@ 6660
S 6651
ี้ย@@ 6624
J@@ 6617
er 6606
44 6603
D 6593
ตู 6590
ลาด 6589
รณ์ 6581
13@@ 6569
อร@@ 6556
00 6536
2017 6514
I 6487
รวจ 6477
! 6465
80 6407
เทพ@@ 6405
เดิน@@ 6386
46 6350
ฺ 6344
2008 6312
d 6305
/@@ 6254
43 6244
2013 6223
มาณ 6222
ation 6189
formula 6184
N 6161
e 6151
F 6144
38 6142
U@@ 6133
36 6117
สาธารณ@@ 6088
ทั้@@ 6083
in@@ 6055
O 6052
พัฒ@@ 6050
ดำเนิ@@ 6045
ุ่น 6024
 @@ 6013
ดับ@@ 6005
กำล@@ 5987
2019 5945
2011 5933
ตรว@@ 5929
M 5926
p@@ 5900
o@@ 5881
34 5876
33 5873
ึง@@ 5873
ฑ@@ 5860
ทรั@@ 5856
R 5838
แล 5835
10@@ 5832
สมา@@ 5822
เลี้ย@@ 5807
ราษฎ@@ 5800
37 5765
ธา@@ 5754
s@@ 5741
แผ่น@@ 5714
P 5699
เนื่อง@@ 5655
ราะ 5651
สภา@@ 5628
ก็@@ 5611
ณฑ์ 5589
1.@@ 5576
แชมป@@ 5561
ูด 5518
มูล 5504
90 5497
๋ 5493
ลล์ 5480
หมู่@@ 5479
ตน@@ 5474
2009 5448
เอเช@@ 5448
k 5435
20@@ 5432
นาม@@ 5425
ท้าย 5421
H 5401
000 5388
41 5387
ปัจ@@ 5380
กัด 5376
ผลิ@@ 5369
หนังส@@ 5347
ใต@@ 5347
es 5341
70 5337
หญ@@ 5294
พัน@@ 5280
2007 5270
กำหน@@ 5269
เดีย 5249
ำเ@@ 5243
ศ. 5231
ธุ@@ 5228
ลักษณ์ 5218
จันท@@ 5173
br 5172
2006 5167
สัญ@@ 5163
ถิ่น 5161
L 5142
สูตร 5126
th@@ 5116
c@@ 5108
ศักดิ@@ 5092
o 5089
ขนา@@ 5085
เสริ@@ 5078
h 5072
65 5050
;@@ 5043
al@@ 4977
de 4965
l 4946
um 4913
t@@ 4912
on@@ 4902
เทีย@@ 4890
Y@@ 4856
ฆ 4853
กลับ@@ 4839
ดำ@@ 4837
บุค@@ 4836
โบรา@@ 4821
รกิจ 4815
u 4812
สาธา@@ 4811
เพื่อ@@ 4799
ได@@ 4790
an@@ 4768
200 4749
เลิ@@ 4728
to 4725
ทางการ 4709
G 4706
สู้ 4705
500 4678
75 4652
p 4644
m 4633
n@@ 4628
เศรษฐ@@ 4606
ภ 4597
หลัง@@ 4587
i@@ 4583
๒@@ 4553
0.@@ 4551
ฐาน@@ 4535
เสด็@@ 4534
... 4527
ช่วย@@ 4527
บัน 4523
ก็ตาม 4504
ทัศน์ 4504
ี่ยว@@ 4498
ตะวันต@@ 4492
idae 4488
is 4474
รู้@@ 4459
ch@@ 4450
ขณะ@@ 4450
12@@ 4439
d@@ 4429
ตุ 4429
เลื@@ 4429
เดีย@@ 4410
เศษ 4387
หรับ 4359
ia 4357
+ 4349
ทธ 4329
V 4322
g@@ 4306
แม้@@ 4302
ic 4287
Ch@@ 4285
ine 4280
เหล่า@@ 4247
or 4233
0@@ 4225
สเป@@ 4218
ph@@ 4199
2000 4197
k@@ 4182
ให้เกิด 4180
่าว 4180
ar 4172
ate 4167
ed 4166
r@@ 4161
X@@ 4160
ac@@ 4156
เศร@@ 4134
ลักษ@@ 4131
2004 4112
X 4103
ฟุ@@ 4099
2,@@ 4096
มนตรี 4080
พันธุ@@ 4073
Z@@ 4067
2021 4065
2005 4063
3,@@ 4058
ต้อง@@ 4057
ic@@ 4045
มนุ@@ 4042
or@@ 4012
r 4004
ar@@ 3984
f@@ 3984
,000 3978
Th@@ 3969
ot@@ 3965
a@@ 3947
et 3935
g 3928
มนุษ@@ 3915
ือน@@ 3914
เหม@@ 3913
แพท@@ 3907
ประกอบ@@ 3889
ฯ@@ 3860
ตล@@ 3846
oc@@ 3822
ด็@@ 3808
คัด@@ 3792
h@@ 3789
กระทั่ง 3788
os@@ 3785
ศ์ 3768
en@@ 3762
กฎ@@ 3758
w@@ 3755
ศิล@@ 3720
In@@ 3716
w 3716
แทน@@ 3716
| 3702
b 3687
W 3635
โครง@@ 3610
!@@ 3564
am@@ 3547
b@@ 3545
ol@@ 3541
amp 3532
at 3532
ตระ@@ 3527
99 3525
K 3510
el@@ 3506
2.@@ 3504
om@@ 3498
aceae 3484
สร 3484
as@@ 3460
ธิบดี 3445
ส่ว@@ 3438
นาคม 3428
จัย 3417
1990 3407
m@@ 3393
tr@@ 3392
จาก@@ 3386
WWE 3381
ราะ@@ 3355
ณฑ@@ 3351
หมา@@ 3344
บัติ@@ 3332
v@@ 3320
é 3312
en 3309
00@@ 3271
ญญา@@ 3254
ราม@@ 3252
ul@@ 3231
,@@ 3216
บล 3211
ห์@@ 3201
ดง 3189
er@@ 3184
x@@ 3168
2002 3154
l@@ 3154
มัธ@@ 3148
ชีวิ@@ 3147
lo@@ 3136
ม่า 3126
el 3113
2003 3112
95 3108
at@@ 3101
ั่ง 3091
เภ@@ 3086
01 3078
เศ@@ 3071
ณะ@@ 3068
300 3064
ฬ 3059
le@@ 3053
ธี 3040
4,@@ 3035
1980 3027
ทัศ@@ 3025
ag@@ 3012
:@@ 3005
๑@@ 3003
Con@@ 2998
อเมริ@@ 2996
ประส@@ 2992
กรุงเทพ@@ 2968
ดำร@@ 2962
U 2961
ap@@ 2944
นการ 2940
85 2933
3.@@ 2910
05 2902
re@@ 2887
id@@ 2880
for 2873
กิโล@@ 2857
88 2852
98 2850
Sh@@ 2848
section 2839
le 2833
จักรพรร@@ 2833
อีก@@ 2830
am 2827
๕@@ 2801
4.@@ 2799
อย่างไร@@ 2792
72 2791
เกิด@@ 2787
จัง@@ 2780
2001 2777
ti@@ 2760
คุม 2760
World 2757
ro@@ 2750
ราษฎร 2742
one 2739
ฉ 2739
ออส@@ 2739
84 2729
ad@@ 2726
j@@ 2725
Re@@ 2697
u@@ 2683
76 2682
it@@ 2682
Tr@@ 2642
ั้ม 2637
03 2631
77 2620
ur@@ 2619
อักษ@@ 2618
04 2615
is@@ 2613
08 2612
et@@ 2609
่งข@@ 2608
“@@ 2605
ent 2597
๑ 2584
ดำรง@@ 2574
93 2561
92 2558
68 2550
94 2547
89 2540
op@@ 2536
09 2532
02 2531
78 2531
91 2529
96 2526
07 2523
บันท@@ 2523
An@@ 2518
66 2516
81 2516
06 2509
1992 2509
82 2499
1996 2498
ity 2496
ันท@@ 2490
สภาผู้แทนราษฎร 2486
เมริ@@ 2479
97 2474
1998 2466
5.@@ 2454
มาก@@ 2453
ูน@@ 2449
67 2448
83 2444
ประโย@@ 2443
ดง@@ 2442
tion 2440
Al@@ 2439
ถน@@ 2431
ve 2422
1999 2416
li@@ 2416
ai 2415
it 2408
7.@@ 2406
วัล 2405
30@@ 2403
1970 2397
’ 2395
° 2393
​@@ 2386
co@@ 2381
po@@ 2376
มปิก 2369
ควบ@@ 2367
ะแน@@ 2363
69 2358
ฬา 2357
แตก@@ 2357
6,@@ 2351
86 2351
ary 2346
79 2327
1997 2313
73 2311
6.@@ 2310
จัก 2307
as 2306
ร่ว@@ 2306
1960 2299
ter 2296
em@@ 2289
il@@ 2289
ec@@ 2287
ยัง@@ 2286
87 2285
71 2283
J 2279
ษฎ@@ 2277
f 2271
z@@ 2258
เลิศ 2251
400 2242
คะแน@@ 2239
สหรัฐ@@ 2218
end 2217
— 2213
74 2204
ers 2196
ยี 2196
St@@ 2190
๊ 2189
1,000 2188
8.@@ 2182
Co@@ 2178
สูง@@ 2178
ต้าน 2169
ีต 2169
ch 2168
th 2165
v 2165
ชื่อเสียง 2163
es@@ 2158
๒ 2155
di@@ 2143
age 2136
ฒ 2130
สมาชิก@@ 2123
to@@ 2102
1991 2097
นิด 2092
1994 2087
z 2075
us@@ 2071
เกิล 2065
๐ 2060
Ex@@ 2047
สมาชิ@@ 2046
Com@@ 2027
Y 2021
7,@@ 2019
ed@@ 2012
2022 2004
ang@@ 2004
Ar@@ 1998
im@@ 1996
University 1992
st@@ 1991
1993 1989
9.@@ 1988
de@@ 1988
จำนวน@@ 1985
้อย@@ 1983
Br@@ 1981
ธาน 1980
เกีย@@ 1980
ๆ@@ 1979
=@@ 1966
ติศาสตร์ 1964
1995 1963
ay 1958
per@@ 1945
ous 1942
Love 1938
18@@ 1922
ab@@ 1912
แห่ง@@ 1903
8,@@ 1896
ty 1890
ang 1889
1988 1880
un@@ 1879
ควา@@ 1873
ure 1872
อำนา@@ 1871
International 1868
ir@@ 1865
ญญ@@ 1865
5,@@ 1861
od@@ 1859
บริษั@@ 1854
1989 1847
la 1845
ter@@ 1842
เหร@@ 1842
Se@@ 1840
150 1836
มาย 1835
Car@@ 1831
He@@ 1831
bi@@ 1829
sh@@ 1829
ie 1826
ical 1825
ana 1817
Mar@@ 1816
ess 1814
1945 1809
๓ 1804
ae 1790
'@@ 1787
2500 1783
%@@ 1778
TV 1778
จัก@@ 1763
เป็@@ 1759
ent@@ 1758
Ro@@ 1755
da 1755
ใหญ@@ 1755
600 1746
ํ@@ 1746
id 1744
รัส@@ 1743
Par@@ 1742
เริ่ม@@ 1741
ant 1739
ory 1736
5,000 1729
og@@ 1728
ig@@ 1727
You 1722
๔@@ 1719
New 1713
si@@ 1712
II 1710
ปัญ@@ 1706
os 1704
มหานคร 1704
AR@@ 1699
Q@@ 1692
dis@@ 1692
26@@ 1686
19@@ 1685
ให@@ 1684
800 1675
man 1675
1984 1666
ือง@@ 1664
28@@ 1663
1950 1649
ฝรั@@ 1644
ol 1641
AS@@ 1632
เกี่ยว@@ 1631
ism 1628
um@@ 1628
av@@ 1626
Mon@@ 1623
2,000 1622
tic 1619
á 1618
9,@@ 1593
Di@@ 1592
ata 1590
ep@@ 1590
Best 1585
ri@@ 1581
Bo@@ 1579
do@@ 1579
Le@@ 1576
Ph@@ 1576
ad 1575
se 1573
๔ 1573
คล 1572
1986 1558
ob@@ 1558
ใส@@ 1558
๕ 1557
ครัว 1550
นายก@@ 1546
เทคโนโล@@ 1544
29@@ 1543
ut@@ 1540
ni@@ 1533
”@@ 1528
1@@ 1526
Ac@@ 1526
Music 1526
ite 1524
De@@ 1523
ดน@@ 1519
1940 1518
? 1516
ak@@ 1511
hi@@ 1509
ance 1506
qu@@ 1500
yl@@ 1497
ase 1496
En@@ 1490
ด้ว@@ 1490
ชุม 1488
ati@@ 1485
ปัจจุ@@ 1484
ตุลา@@ 1483
te 1480
School 1475
ly 1474
Be@@ 1471
ม่ 1470
1987 1458
all 1458
begin 1454
Per@@ 1450
te@@ 1447
Z 1441
ail@@ 1441
est 1439
tor 1436
0,@@ 1431
1.5 1428
pi@@ 1426
ขนาด@@ 1426
cor@@ 1420
der 1415
120 1411
par@@ 1411
1985 1406
Cr@@ 1401
by 1392
Sp@@ 1378
700 1375
10,000 1374
1972 1369
Ad@@ 1369
no@@ 1364
ce 1358
tri@@ 1358
no 1357
az@@ 1352
Ne@@ 1343
mo@@ 1337
ok@@ 1329
IS@@ 1328
yr@@ 1328
ne@@ 1322
๐@@ 1321
pl@@ 1317
ath@@ 1313
ina 1312
ma 1311
ong 1310
ือด 1310
com 1309
ain 1308
eg@@ 1308
j 1308
ฑ 1308
oph@@ 1299
ion 1298
ci@@ 1291
.ศ. 1290
National 1290
se@@ 1288
ex@@ 1284
1983 1283
ya 1274
๓@@ 1274
bo@@ 1271
ตว@@ 1271
2.5 1270
ence 1267
un 1264
ik@@ 1254
กลาย@@ 1251
.. 1248
AT@@ 1245
27@@ 1244
ice 1243
od 1243
In 1240
ประวั@@ 1240
1930 1237
My 1235
1979 1234
1968 1233
br@@ 1230
Gr@@ 1224
ue 1222
end@@ 1221
su@@ 1220
1920 1218
CO@@ 1217
1982 1216
ach@@ 1216
# 1215
1981 1213
Award 1212
ative 1209
ace 1208
1976 1203
ฤ 1202
* 1200
1964 1200
Or@@ 1199
ard 1198
20.@@ 1196
Pr@@ 1194
str@@ 1192
ta 1190
For@@ 1189
Man@@ 1187
are 1185
1941 1182
Col@@ 1181
Mo@@ 1181
hy@@ 1181
1975 1179
ฟุต@@ 1175
John 1170
ay@@ 1169
ge 1168
ou@@ 1168
Gu@@ 1167
Cl@@ 1166
ov@@ 1166
ES@@ 1158
๖ 1153
ing@@ 1150
1939 1148
Cor@@ 1145
son 1144
tic@@ 1143
1944 1142
IN@@ 1139
ื่อง 1138
Str@@ 1136
ale 1133
mon@@ 1133
ight 1132
1978 1130
ated 1130
st 1129
Q 1127
sp@@ 1127
รรม@@ 1127
๙ 1125
ea 1123
ok 1123
ō 1123
Qu@@ 1122
be 1122
250 1121
Awards 1119
− 1119
1974 1117
re 1117
Championship 1114
Si@@ 1113
with 1112
ey 1110
and@@ 1108
Un@@ 1105
Pro@@ 1104
ver@@ 1104
ah 1102
car@@ 1097
Lo@@ 1095
ber@@ 1095
สาห@@ 1095
ass@@ 1094
con@@ 1092
ong@@ 1092
CA@@ 1088
gi@@ 1088
ā 1088
‘ 1088
ist 1083
uc@@ 1082
?@@ 1080
ular 1080
au@@ 1079
ton 1078
Dr@@ 1077
CD 1075
ell 1074
pr@@ 1074
ฆ์ 1074
ensis 1070
BC 1067
ng 1065
ยุโร@@ 1061
• 1059
Her@@ 1053
he@@ 1052
ts 1050
ak 1047
22@@ 1046
ics 1046
eb@@ 1045
มณฑ@@ 1044
× 1036
Bar@@ 1033
cer@@ 1033
ans 1032
aw@@ 1032
๗ 1032
Me 1028
10.@@ 1025
ment 1022
1969 1020
ตริ@@ 1020
El@@ 1019
ฌ 1019
1948 1018
ass 1015
1967 1012
1977 1008
tu@@ 1003
1971 1001
Am@@ 1000
1956 999
mar@@ 999
ใช@@ 994
ica 993
พว@@ 991
ile 990
ื่อง@@ 986
ๅ@@ 984
Mag@@ 983
Man 983
AC@@ 982
1942 981
King 980
able 979
ell@@ 979
Ab@@ 975
ah@@ 974
1973 973
101 970
ma@@ 970
๘ 968
Te@@ 967
180 966
und 966
ัติ 963
AN@@ 961
onlyinclude 961
Me@@ 960
ology 954
เกา@@ 953
18.@@ 952
na 952
ü 952
It 949
Min@@ 947
iz@@ 947
Li@@ 944
พวก@@ 943
1918 942
บิด@@ 940
Po@@ 938
gen@@ 937
our 936
Entertainment 934
ํ 928
Hol@@ 926
1936 925
ari@@ 922
ib@@ 922
tive 921
Tri@@ 919
il 915
IC@@ 913
Sch@@ 912
ann@@ 912
To@@ 910
1962 906
ran@@ 905
ant@@ 904
ill@@ 904
ings 903
Ma@@ 899
ox@@ 899
ens 898
AC 897
ot 897
$ 896
so@@ 895
Team 894
ake 894
Hy@@ 893
RA@@ 893
om 893
if@@ 892
ler 892
ator 890
ษา@@ 890
pe@@ 889
900 886
ack@@ 886
vi@@ 885
1943 884
1963 883
me 882
ore 882
ษั@@ 880
Inter@@ 878
1000 877
1949 876
SE@@ 875
Wor@@ 874
cr@@ 874
eng@@ 873
und@@ 873
130 870
1952 869
1947 868
Star 867
ww@@ 867
ade 866
Dis@@ 865
ST@@ 865
gr@@ 864
den 863
be@@ 859
rec@@ 859
III 858
One 858
ene 856
lin@@ 856
1938 855
As@@ 854
1946 853
1965 851
TH@@ 850
ly@@ 849
inal 847
ö 846
1958 843
Pl@@ 841
amb@@ 839
ศัย 839
ー@@ 839
Cy@@ 837
Mas@@ 833
cell 833
land 833
1966 830
OS 830
anti@@ 829
ó 829
United 828
17.@@ 827
ER@@ 826
We@@ 824
act 824
ting 823
1954 822
com@@ 822
1961 821
50@@ 820
All 820
all@@ 819
yc@@ 819
ise 818
af@@ 817
ist@@ 816
ect 815
li 815
Group 813
พิมพ@@ 812
Jo@@ 811
ons 811
ks 810
AB@@ 809
Mor@@ 809
ung 807
ner 805
American 804
Black 804
sion 803
ne 802
les 801
19.@@ 799
RO@@ 799
ปฏ@@ 799
22.@@ 798
Ste@@ 798
Battle 796
On@@ 796
ho@@ 794
ป้อง@@ 794
ka 793
up@@ 793
ane 790
yn@@ 789
Do@@ 788
neur@@ 788
Ho@@ 787
ella 787
ens@@ 785
enti@@ 784
Har@@ 782
|@@ 780
12.@@ 779
13.@@ 779
ida 779
Time 777
ra 776
Im@@ 775
syn@@ 775
Girl 773
em 773
cu@@ 771
yp@@ 771
1959 770
row 769
CO 768
No 768
ek@@ 768
est@@ 768
Ag@@ 767
ble 766
ian 766
ini 765
AM@@ 764
mag@@ 764
Go@@ 762
mi@@ 762
College 761
Bur@@ 760
ast 760
ide 760
ev@@ 759
~ 758
ars 756
+@@ 754
Fr@@ 753
BA 752
Royal 752
ick 752
oth@@ 752
110 751
1919 748
City 748
q 748
NA 747
Su@@ 747
1900 745
man@@ 744
1957 743
per 743
の@@ 742
ley 741
160 740
FC 740
ement 740
11.@@ 739
line 739
1912 738
Pe@@ 738
king 738
16.@@ 737
ama 736
fac@@ 736
หนัง@@ 736
Live 734
Mus@@ 733
als 733
era 731
Center 729
Pol@@ 729
Pal@@ 728
lu@@ 728
ura 728
ere 727
me@@ 727
ge@@ 726
IM@@ 725
Fl@@ 724
200@@ 723
RE@@ 723
Ang@@ 721
My@@ 721
ain@@ 721
ici@@ 720
จากนี้ 720
Ser@@ 719
ection 719
Wrestling 717
21.@@ 716
Sol@@ 716
des 713
อุต@@ 713
Bi@@ 712
UN@@ 712
1953 711
pre@@ 711
ra@@ 711
ara 710
ver 707
Mer@@ 706
ick@@ 706
140 704
au 704
1933 701
BS 701
Mc@@ 700
fer@@ 699
1955 698
Pi@@ 698
sc@@ 698
sub@@ 698
ur 698
AP@@ 695
Fi@@ 695
Day 692
di 692
ster@@ 692
1917 691
ave 691
So@@ 690
for@@ 690
TE@@ 688
í 687
NE@@ 685
mer@@ 685
108 684
Ver@@ 684
atus 684
anc@@ 683
RI@@ 681
War 681
ir 681
ン@@ 681
La 679
Pre@@ 679
out 679
System 677
art 677
ตั้@@ 677
ors 676
low 674
1937 673
ish@@ 673
ten@@ 671
Life 669
ac 669
ast@@ 669
ys@@ 669
bu@@ 667
Ge@@ 666
http 666
system 666
หวัด 666
ff@@ 665
dr@@ 664
form 664
uk@@ 663
Leg@@ 661
MA 661
ish 661
ca 660
cre@@ 660
ual 660
order 659
tro@@ 659
Ap@@ 658
ชนะ@@ 658
la@@ 657
way 657
inter@@ 656
Sw@@ 655
ost 655
→ 655
40@@ 654
Mal@@ 654
SA@@ 654
ao 653
Association 652
aj@@ 651
360 650
Tre@@ 650
from 650
ori@@ 649
ther@@ 649
3.5 648
AL@@ 648
To 648
ack 648
app@@ 647
colspan 645
ning 645
1934 644
Super 644
min@@ 644
lar@@ 642
350 641
Show 640
112 639
125 639
col@@ 639
trans@@ 639
ind@@ 638
tical 638
ung@@ 638
1932 637
Er@@ 637
gu@@ 636
14.@@ 633
Hz 633
Institute 633
1924 631
15.@@ 630
è 630
Fre@@ 629
Sur@@ 629
igh@@ 629
Ed@@ 627
ru@@ 627
Bre@@ 626
ali@@ 625
eli@@ 625
Mac@@ 624
Trans@@ 623
ode 623
1,0@@ 622
ry 622
At@@ 621
eph@@ 621
tics 621
1935 620
ino 620
High 619
Res@@ 619
ys 619
ym@@ 618
Sc@@ 617
1928 616
mat@@ 614
๖@@ 614
Char@@ 613
120@@ 612
Bas@@ 612
ture 612
2.0 611
ili@@ 611
MS 610
วัฒน@@ 610
Super@@ 609
ano 609
เนี@@ 609
WW@@ 608
ug@@ 608
adi@@ 607
dae 607
ich@@ 607
lock 607
Sho@@ 606
nucle@@ 606
cle 605
Cal@@ 603
1951 602
Park 602
Sub@@ 602
Academy 600
Mat@@ 600
Prot@@ 600
time 600
Great 599
US@@ 599
Fe@@ 598
Grand 598
Top 598
tions 598
On 597
ality 597
สามาร@@ 597
EP 596
Sm@@ 596
cl@@ 596
ker 596
CE@@ 595
ser@@ 595
IV 594
Sec@@ 594
der@@ 594
sch@@ 594
Ber@@ 593
DC 593
House 593
sa 593
Elec@@ 592
AN 591
Film 591
ud@@ 591
大@@ 591
王@@ 591
Gar@@ 590
Science 590
St 590
chi@@ 590
ตำแหน@@ 590
eral 588
style 588
ai@@ 587
eh@@ 587
ep 587
ess@@ 587
film 587
Asia 585
William 585
of@@ 584
AK@@ 583
à 583
Hon@@ 582
ations 582
ness 582
bl@@ 581
iss@@ 581
ow@@ 581
James 580
Tur@@ 580
acc@@ 580
kh@@ 580
ome 579
Art 578
ello 578
ters 578
ani 577
co 577
ps 577
Gre@@ 576
ap 575
105 574
anth@@ 574
ref 574
วิทยาล@@ 573
Kar@@ 570
Lin@@ 570
PC 570
MO@@ 569
oma 569
rom@@ 569
tor@@ 569
Eng@@ 566
Series 565
80@@ 564
ng@@ 564
oni@@ 564
Cro@@ 563
MI@@ 563
SS@@ 563
Red 562
Sil@@ 562
Year 561
iv@@ 561
do 560
oy@@ 560
DA 559
medi@@ 559
1911 558
arr@@ 558
the@@ 558
กุม@@ 558
Ran@@ 557
Hor@@ 556
ala 556
osis 556
ji 555
por@@ 555
was 555
เ 555
ents 554
450 553
Sal@@ 553
pro@@ 553
ted 553
135 552
Gal@@ 552
Party 552
Gener@@ 551
sel@@ 551
ub@@ 551
1910 550
iti@@ 550
Song 549
agon 549
och@@ 549
โอลิ@@ 549
Big 548
pp@@ 547
Gi@@ 546
cap@@ 546
11,@@ 545
1914 545
du@@ 545
ta@@ 544
CI@@ 543
bas@@ 543
que 543
្@@ 543
1922 542
Japan 542
tis 542
ye 542
sol@@ 541
AA 540
BO@@ 540
su 540
ash@@ 539
enc@@ 539
drome 538
ization 538
AG@@ 536
1908 535
q@@ 535
111 534
23.@@ 534
we@@ 534
sive 533
ti 532
ครั้@@ 532
RNA 531
Young 531
ora 531
Mi@@ 530
lat@@ 529
ena 528
fe@@ 528
10,@@ 527
Michael 527
ales 527
ash 526
Mel@@ 524
Records 524
ire 524
PC@@ 523
oh@@ 523
FI@@ 522
Op@@ 522
tin 522
unc@@ 522
115 521
CD@@ 521
Rec@@ 521
duc@@ 521
res@@ 521
Night 520
Progr@@ 520
Rock 520
Uni@@ 520
atic 520
EC@@ 519
Of 519
fl@@ 519
im 519
List 518
ab 518
bit@@ 518
Robert 517
ates 517
ster 517
ner@@ 516
1929 515
PS 515
teams 515
TO@@ 514
LE@@ 513
Mah@@ 513
bul@@ 513
ding 513
ha 513
had 513
First 512
118@@ 511
ost@@ 511
11@@ 510
1904 510
HD 510
can@@ 508
ole 508
Sim@@ 507
ath 507
Bal@@ 506
ever 506
uch@@ 506
Project 505
ids 505
170 504
its 504
ds 503
กาส 503
ä 502
Beau@@ 501
Can@@ 501
SA 501
ler@@ 501
sy@@ 500
Ni@@ 499
ee 499
ber 498
codice 498
ke 498
1921 497
fin@@ 497
hi 497
103 496
We 496
ari 496
Club 495
Hall 495
ha@@ 495
ki@@ 494
side 494
Em@@ 492
ful 492
inc@@ 492
day 491
elec@@ 491
esis 491
124@@ 490
AI@@ 490
awa 490
inae 490
1925 489
220 489
Des@@ 489
acid 489
ental 489
ki 489
Fac@@ 488
State 488
Blo@@ 487
Mad@@ 487
Windows 487
ature 487
los@@ 487
met@@ 487
1926 486
ที่ย@@ 486
Bel@@ 485
Pan@@ 485
116 484
Val@@ 484
ei 484
ft 484
David 483
War@@ 483
tra 483
ข้อง 483
meth@@ 482
pe 482
–@@ 482
119@@ 481
Kn@@ 481
US 481
eti@@ 481
mus@@ 481
osph@@ 481
ease 480
Ra@@ 479
SO@@ 479
ba@@ 479
League 478
White 478
ating 478
ky 478
oid 478
109 477
Je@@ 477
entr@@ 477
106 476
1931 476
Festival 476
Miss 476
Ul@@ 476
ax@@ 476
ins 476
io 476
verse 476
Is 475
Ta@@ 475
-- 474
1906 474
Bl@@ 474
Paul 474
ame 474
Reg@@ 472
Kr@@ 471
ock 471
poly@@ 471
1923 470
Bang@@ 470
Fo@@ 470
DS 469
102 468
sur@@ 468
port 467
Vo@@ 466
ome@@ 466
เลือก@@ 466
มัก@@ 465
CH@@ 464
Gen@@ 464
Ru@@ 464
Sing@@ 464
scope 464
tre@@ 464
you 464
Charles 463
Cre@@ 463
DE@@ 463
Network 463
action 463
formes 463
115@@ 462
BT 462
PA 462
General 461
Medi@@ 461
els 461
fr@@ 461
Company 459
Cup 459
States 459
world 459
low@@ 458
pen@@ 458
Girls 457
Hal@@ 457
TV@@ 457
Vi@@ 457
ean 456
ita 456
not 456
127 455
George 455
Mul@@ 455
alism 455
๙@@ 455
1927 454
Blue 454
LO@@ 454
Prince 453
pos@@ 453
๘@@ 452
Lu@@ 451
int@@ 451
yth@@ 451
cal@@ 450
up 450
Chil@@ 449
Dec@@ 449
SP@@ 449
eo 449
ich 449
van 449
Final 448
dy 448
AD@@ 447
amp@@ 447
ov 447
ON@@ 446
ach 446
group 446
ou 446
York 445
op 445
Be 444
Don 444
ada 444
light 444
1896 443
Is@@ 443
Vol@@ 443
sk@@ 443
Your 442
za 442
her@@ 441
320 440
ae@@ 440
lam@@ 440
tric 440
Princ@@ 439
Rom@@ 439
Sa@@ 439
ason 439
ns 439
Arts 438
IO@@ 438
Master 438
River 438
model 438
ผ 438
1890 437
Sy@@ 437
cul@@ 437
Nor@@ 436
Wh@@ 436
ard@@ 436
ect@@ 436
สมเด็จ@@ 436
Media 435
Society 435
ency 435
1905 434
1915 434
Bor@@ 434
Wal@@ 434
ū 434
107 433
60@@ 433
AP 432
Queen 432
117 431
No@@ 431
des@@ 431
Gl@@ 430
ans@@ 429
ater 429
pu@@ 429
aur@@ 428
ill 428
ium 428
Sam@@ 427
arch 427
ets 427
onal 426
SS 425
ek 425
son@@ 425
*@@ 424
Cas@@ 424
Wi@@ 424
ony 424
IS 423
cop@@ 423
ese 423
DNA 422
Research 422
von 422
MP@@ 421
fication 421
osa 421
recep@@ 421
tel@@ 421
wn 421
‍ 421
Kh@@ 420
Oc@@ 420
Vir@@ 420
1907 419
Heart 419
Story 419
Up 419
Wil@@ 419
name 419
ney 419
ชน์ 418
ยนต@@ 418
Little 417
NO@@ 417
Plat@@ 417
dia 417
weight 417
1913 416
AT 416
Bro@@ 416
ke@@ 416
ut 416
12,@@ 415
750 415
Bab@@ 415
SD 415
eme 415
lan@@ 415
non@@ 415
ธยา 415
CC@@ 414
Good 414
South 414
mp@@ 414
ple 414
123 413
Play@@ 413
ins@@ 412
AD 411
Ben@@ 411
Hu@@ 411
IB@@ 411
Tak@@ 411
ette 411
1916 410
Act 410
ace@@ 410
ays 410
bre@@ 410
cy@@ 410
act@@ 409
ero 409
une 409
104 408
Boy 408
Cer@@ 408
Council 408
Down 408
hor@@ 408
mas@@ 408
use 408
PE@@ 407
go@@ 407
nch@@ 407
prot@@ 407
Mov@@ 406
down 406
field 406
Tom@@ 405
go 405
CA 404
China 404
Del@@ 404
Pri@@ 404
iy@@ 404
ī 404
IP 403
ML 403
UTC 403
ze 403
114 402
Av@@ 402
aka 402
cus 402
เคราะ@@ 402
IE@@ 401
Last 401
Met@@ 401
TA 401
Technology 401
… 401
East 400
Win@@ 400
ysis 400
121 399
Cap@@ 399
English 399
Por@@ 399
Who 399
อิตา@@ 399
CS@@ 398
MS@@ 398
Mil@@ 398
Mir@@ 398
net 398
British 397
aki 397
back 397
hydro@@ 397
ni 397
tim@@ 397
yl 397
्@@ 397
Fri@@ 396
Golden 396
IT@@ 396
Model 396
mac@@ 396
alis 395
Coun@@ 394
ime 394
AS 393
Air 393
Chi@@ 393
ME@@ 393
Ros@@ 393
Ur@@ 393
key 393
oto 393
เภท 393
Asian 392
Lee 392
London 392
ax 392
dition 392
elle 392
Ty@@ 391
air 390
enth@@ 390
vis@@ 390
illa 389
ital 389
top 389
Dre@@ 388
Shi@@ 388
acy 388
del@@ 388
ket 388
war@@ 388
AL 387
Bir@@ 387
Fin@@ 387
ISO 387
Kingdom 387
Swe@@ 387
ense 387
hin@@ 387
lidae 387
Hel@@ 386
ective 386
language 386
Men 385
loc@@ 385
DO@@ 384
RS 384
Women 384
arch@@ 384
ema 384
over 384
sen@@ 384
ผู้แทน@@ 384
1800 383
Produc@@ 383
sti@@ 383
1870 382
Au@@ 382
Mur@@ 382
ez@@ 382
tory 382
yst@@ 382
126 381
128 381
mer 381
រ@@ 381
Dream 380
Open 380
bar@@ 380
ko 380
that 380
イ@@ 380
1860 379
Go 379
Special 379
du 379
enn@@ 379
my 379
song 379
tional 379
tra@@ 379
Business 378
ide@@ 378
this 378
1889 377
Game 377
ff 377
ima 377
tur@@ 377
1871 376
Thomas 376
hom@@ 376
Ko@@ 375
ational 375
ato 375
Home 374
Tag 374
har@@ 374
33@@ 373
aya 373
๗@@ 373
Es@@ 372
Sun@@ 372
emati@@ 372
tion@@ 372
gl@@ 371
inn@@ 371
ties 371
DP 370
ography 370
red 370
ship 370
ve@@ 370
EN@@ 369
Mot@@ 369
Peter 369
ury 369
ú 369
MP 368
People 368
esti@@ 368
their 368
ดาห์ 368
1901 367
AR 367
Cur@@ 367
West 367
aus@@ 367
eng 367
fi@@ 367
ota 367
Dou@@ 366
Le 365
eter@@ 365
หน่าย 365
set 364
{ 364
£ 364
113 363
The@@ 363
asi@@ 363
ine@@ 363
pol@@ 363
Pres@@ 362
Tro@@ 362
ides 362
mor@@ 362
ั 362
Green 361
Richard 361
SC 361
bor@@ 361
hal@@ 361
ights 361
ste@@ 361
1880 360
Ke@@ 360
Rel@@ 360
Tor@@ 360
icul@@ 359
yg@@ 359
Chart 358
Chem@@ 358
New@@ 358
Sar@@ 358
Tour 358
ye@@ 358
114@@ 357
330 357
Dance 357
Fu@@ 357
series 357
state 357
กำเ@@ 357
Ca@@ 356
IG@@ 356
What 356
gre@@ 356
ola 356
ret@@ 356
กูล 356
Tal@@ 355
tan@@ 355
1898 354
wa 354
240 353
Air@@ 353
PO@@ 353
ological 353
35@@ 352
Anti@@ 352
IC 352
cin@@ 352
sin@@ 352
vir@@ 352
118 351
Epis@@ 351
Island 351
News 351
Out@@ 351
bit 351
ona 351
α 351
122 350
Cir@@ 350
Du@@ 350
For 350
Street 350
ally 350
ling 350
cur@@ 349
emia 349
nam@@ 349
ord@@ 349
ฤษ 349
13,@@ 348
1909 348
CP@@ 348
Cam@@ 348
Lang@@ 348
tis@@ 348
AM 347
FA 347
Hot 347
Pas@@ 347
­@@ 347
ith 346
รู้ส@@ 346
14,@@ 345
America 345
Organ@@ 345
Space 345
arm@@ 345
erg@@ 345
tern 345
Global 344
Mid@@ 344
Net@@ 344
Union 344
ja 344
1500 343
190 343
Sea 343
ies 343
team 343
Nep@@ 342
berg 342
if 342
old 342
1903 341
Orig@@ 341
Tokyo 341
eth@@ 341
yo@@ 341
116@@ 340
1902 340
113@@ 339
117@@ 339
FM 339
Ob@@ 339
É 339
This 338
center 338
eus 338
formation 338
ineering 338
our@@ 338
prin@@ 338
ty@@ 338
BM@@ 337
Kor@@ 337
ison 337
SM 336
Video 336
ange 336
ort 336
sw@@ 336
ๅ 336
天@@ 336
210 335
Econom@@ 335
Spe@@ 335
istr@@ 335
Power 334
ple@@ 334
pot@@ 334
ret 334
sa@@ 334
vol@@ 334
Google 333
Management 333
Republic 333
Ter@@ 333
ential 333
ext 333
1895 332
Digital 332
HC 332
pul@@ 332
แหน@@ 332
European 331
Ti@@ 331
cle@@ 331
ister 331
Chinese 330
ebr@@ 330
gener@@ 330
230 329
Ger@@ 329
Han@@ 328
Plan@@ 328
body 328
ku@@ 328
test 328
vil 328
ル@@ 328
San 327
atr@@ 327
ey@@ 327
hu@@ 327
ike 327
off 327
put 327
rel@@ 327
ç 327
Cin@@ 326
AF@@ 325
Cel@@ 325
Ful@@ 325
Rem@@ 325
ami@@ 325
onic 325
tidae 325
tom@@ 325
Duke 324
Lor@@ 324
PP@@ 324
Sou@@ 324
ger 324
len@@ 324
ote 324
self 324
win@@ 324
yan@@ 324
子@@ 324
70@@ 323
DVD 323
Mu@@ 323
Os@@ 323
Wo@@ 323
mem@@ 323
1888 322
34@@ 322
Star@@ 322
dec@@ 322
edr@@ 322
pan@@ 322
they 322
129 321
1899 321
Bank 321
CP 321
ope 321
ス@@ 321
1868 320
Central 320
Corporation 320
Health 320
Out 320
Wat@@ 320
ail 320
dor@@ 320
form@@ 320
ines 320
member 320
Foundation 319
Fut@@ 319
Luc@@ 319
Pat@@ 319
lia 319
1815 318
Bu@@ 318
Det@@ 318
ein 318
omo 318
ond@@ 318
pres@@ 318
124 317
HT@@ 317
Line 317
Sel@@ 317
tes 317
1893 316
Airport 316
Sem@@ 316
Sup@@ 316
ear@@ 316
ef@@ 316
ogen@@ 316
ward 316
1830 315
1867 315
Billboard 315
Lady 315
Tel@@ 315
VI@@ 315
enz@@ 315
ket@@ 315
ond 315
ς@@ 315
Book 314
oz@@ 314
…@@ 314
ラ@@ 314
Gro@@ 313
comp@@ 313
mel@@ 313
ō@@ 313
Fantas@@ 312
TS 312
tar@@ 312
til@@ 312
Audi@@ 311
Education 311
Lab@@ 311
1848 310
AE@@ 310
Bul@@ 310
Channel 310
let 310
1897 309
Christ@@ 309
God 309
protein 309
uz@@ 309
ผู้แทนราษฎร 309
AF 308
Empire 308
Service 308
del 308
eter 308
quot 308
ren@@ 308
ush@@ 308
ken 307
lig@@ 307
olog@@ 307
tex@@ 307
try 307
va 307
Dem@@ 306
Pin@@ 306
did@@ 306
pa 306
Henry 305
Pop 305
gro@@ 305
ula 305
Apple 304
Comm@@ 304
Il@@ 304
North 304
ait 304
inf@@ 304
kin@@ 304
kl@@ 304
nor@@ 304
thi@@ 304
â 304
บัญญ@@ 304
ា@@ 304
dom@@ 303
่วย 303
IA 302
Times 302
ign@@ 302
Law 301
Order 301
Way 301
bur@@ 301
ety 301
log@@ 301
pal@@ 301
Bud@@ 300
Ever@@ 300
Mak@@ 300
Marvel 300
hab@@ 300
ven@@ 300
Games 299
Sk@@ 299
Vis@@ 299
280 298
Cat@@ 298
Development 298
Free 298
Mem@@ 298
Pen@@ 298
Ri@@ 298
band 298
sen 298
GM 297
MC 297
Road 297
ely 297
now 297
odi@@ 297
é@@ 297
But@@ 296
Emper@@ 296
PS@@ 296
SN@@ 296
align 296
ico 296
lower 296
opsis 296
24.@@ 295
EE 295
Lev@@ 295
Lov@@ 295
Meg@@ 295
icus 295
ms 295
oll@@ 295
oth 295
ust 295
uy@@ 295
จักรวรร@@ 295
帝@@ 295
Arti@@ 294
Light 294
air@@ 294
eri@@ 294
function 294
lion 294
val@@ 294
· 294
Design 293
Ir@@ 293
Radio 293
atom@@ 293
clu@@ 293
mal@@ 293
org 293
pat@@ 293
ts@@ 293
wid@@ 293
Album 292
Family 292
Mark 292
Off@@ 292
Pap@@ 292
Ther@@ 292
hr@@ 292
ider 292
istic 292
my@@ 292
rit@@ 292
ute 292
very 292
dic@@ 291
tiv@@ 291
una 291
view 291
Classi@@ 290
Nov@@ 290
aria 290
dium 290
ying 290
皇@@ 290
Blu@@ 289
Coll@@ 289
LA 289
Martin 289
Olympic 289
https 289
lor@@ 289
Anim@@ 288
Band 288
Fire 288
Television 288
aph@@ 288
effect 288
ford 288
gen 288
onia 288
plas@@ 288
si 288
super@@ 288
1878 287
ders 287
edi@@ 287
ial 287
็ 287
1885 286
Arch@@ 286
Bat@@ 286
Like 286
Pot@@ 286
ior 286
less 286
tors 286
vo@@ 286
กษัตริ@@ 286
Fal@@ 285
Mit@@ 285
char@@ 285
fer 285
ones 285
osp@@ 285
1600 284
260 284
Force 284
Ha@@ 284
MTV 284
RT 284
anthus 284
ants 284
ilia 284
กษั@@ 284
Louis 283
Studio 283
erry 283
onn@@ 283
ro 283
sem@@ 283
BBC 282
Back 282
Dar@@ 282
IP@@ 282
Public 282
Ret@@ 282
oo 282
1892 281
Comput@@ 281
RC 281
SR 281
Toy@@ 281
alm@@ 281
ards 281
cine 281
ori 281
All@@ 280
Poly@@ 280
Sen@@ 280
Syn@@ 280
Wrest@@ 280
aci@@ 280
ba 280
emp@@ 280
ery 280
ko@@ 280
Ham@@ 279
Journal 279
Pic@@ 279
Rap@@ 279
Saint 279
Tow@@ 279
ability 279
amm@@ 279
cho@@ 279
ects 279
ix 279
micro@@ 279
motor 279
145 278
1850 278
Got@@ 278
Shin@@ 278
Spir@@ 278
Stadium 278
Yu@@ 278
ger@@ 278
vent@@ 278
1894 277
550 277
Kam@@ 277
Roc@@ 277
Rol@@ 277
cell@@ 277
ten 277
word 277
Kim 276
Web@@ 276
cat@@ 276
ces 276
other 276
psych@@ 276
well 276
LC 275
Stu@@ 275
even 275
ough 275
pin@@ 275
Ven@@ 274
ci 274
flu@@ 274
so 274
15,@@ 273
17,@@ 273
175 273
Do 273
aga 273
ray 273
win 273
—@@ 273
1840 272
As 272
Old 272
Play 272
change 272
ck 272
err@@ 272
plic@@ 272
ree 272
sal 272
Cent@@ 271
Dark 271
Pro 271
ories 271
yo 271
Aut@@ 270
Bet@@ 270
Death 270
ages 270
ania 270
core 270
sul@@ 270
vention 270
ē 270
Hay@@ 269
Imp@@ 269
Not@@ 269
San@@ 269
Social 269
can 269
ga 269
gency 269
kin 269
mot@@ 269
not@@ 269
ny 269
rest@@ 269
CN@@ 268
Long 268
Spr@@ 268
Summer 268
bri@@ 268
mun@@ 268
1884 267
DF 267
EM@@ 267
Eu@@ 267
Ye@@ 267
ashi 267
first 267
fo@@ 267
format 267
get 267
ira 267
left 267
lob@@ 267
pha 267
tom 267
สัป@@ 267
い@@ 267
16,@@ 266
90@@ 266
Commun@@ 266
Earth 266
UK 266
art@@ 266
die 266
ie@@ 266
sec@@ 266
spec@@ 266
type 266
ulation 266
1886 265
Joseph 265
Limited 265
Universal 265
ern@@ 265
lem@@ 265
region 265
ton@@ 265
² 265
人@@ 265
1861 264
650 264
Ka@@ 264
Three 264
background 264
coun@@ 264
ends 264
jo 264
occ@@ 264
rol@@ 264
wer@@ 264
ขึ@@ 264
Div@@ 263
Kis@@ 263
Ram@@ 263
TP 263
cel@@ 263
ih@@ 263
李@@ 263
119 262
155 262
1862 262
Bot@@ 262
GB 262
She@@ 262
cas@@ 262
ila 262
lar 262
1891 261
36@@ 261
ami 261
phot@@ 261
class 260
esc@@ 260
hem@@ 260
ille 260
teri@@ 260
text 260
1789 259
Cop@@ 259
Mach@@ 259
radi@@ 259
ume 259
1866 258
De 258
fish 258
point 258
’@@ 258
山@@ 258
Acc@@ 257
Ba@@ 257
Broad@@ 257
La@@ 257
Maria 257
SI 257
Sor@@ 257
inde@@ 257
more 257
pus 257
ron@@ 257
Dor@@ 256
Tw@@ 256
avy@@ 256
ous@@ 256
play 256
Li 255
Sum@@ 255
Sun 255
_@@ 255
aff@@ 255
arg@@ 255
eff@@ 255
ein@@ 255
let@@ 255
ody 255
Ban@@ 254
Ltd 254
TC 254
That 254
ado@@ 254
dex 254
sal@@ 254
・@@ 254
Can 253
France 253
High@@ 253
ams 253
lum 253
rac@@ 253
CC 252
amin@@ 252
anus 252
bin@@ 252
box 252
ech 252
music 252
~@@ 252
Co 251
Gold 251
Liv@@ 251
active 251
lo 251
vari@@ 251
1814 250
45@@ 250
Camp@@ 250
Dol@@ 250
Men@@ 249
Sports 249
Tan@@ 249
mann 249
mod@@ 249
next 249
po 249
sh 249
umin@@ 249
wor@@ 249
） 249
DI 248
Sciences 248
Yo@@ 248
aliz@@ 248
int 248
vers@@ 248
ิ่ม 248
1864 247
Ash@@ 247
Now 247
Ol@@ 247
anda 247
fa@@ 247
right 247
Ann@@ 246
Ev@@ 246
Human 246
Pseud@@ 246
Pur@@ 246
SI@@ 246
Stone 246
ight@@ 246
pop 246
yle 246
າ@@ 246
chi 245
opo@@ 245
1863 244
Far@@ 244
Four 244
GP@@ 244
Liber@@ 244
RT@@ 244
fied 244
theory 244
tw@@ 244
yon@@ 244
太@@ 244
Champ@@ 243
Prim@@ 243
RA 243
Single 243
Tim@@ 243
based 243
eta 243
fol@@ 243
gang@@ 243
multi@@ 243
1887 242
380 242
Che@@ 242
Cos@@ 242
Federation 242
Kur@@ 242
aven 242
len 242
lis 242
qui@@ 242
uti@@ 242
ト@@ 242
1879 241
Internet 241
Ly@@ 241
Na@@ 241
Pu@@ 241
Sha@@ 241
agr@@ 241
ati 241
dri@@ 241
xi@@ 241
County 240
Hum@@ 240
Med@@ 240
Mob@@ 240
Museum 240
Sym@@ 240
Tar@@ 240
Tun@@ 240
ats 240
cular 240
eth 240
phy@@ 240
return 240
uki 240
Fel@@ 239
Nar@@ 239
Under@@ 239
bert 239
contributor 239
ech@@ 239
ord 239
โจม@@ 239
1200 238
1882 238
Kan@@ 238
Mol@@ 238
Sav@@ 238
att@@ 238
enge 238
oides 238
uli@@ 238
1875 237
1877 237
1881 237
Astr@@ 237
Az@@ 237
Direc@@ 237
End 237
Hi@@ 237
Ig@@ 237
Max 237
SE 237
Sain@@ 237
pur@@ 237
reg@@ 237
tho@@ 237
อยุ@@ 237
1865 236
Lord 236
Two 236
ault 236
don 236
equ@@ 236
game 236
timestamp 236
tus 236
unter 236
1801 235
Al 235
Football 235
When 235
iger 235
men@@ 235
tern@@ 235
ul 235
ク@@ 235
132 234
Edward 234
GT 234
Hem@@ 234
ii 234
land@@ 234
ont@@ 234
peri@@ 234
Ali@@ 233
So 233
Som@@ 233
Tour@@ 233
agn@@ 233
aster 233
ik 233
pel@@ 233
star 233
Da@@ 232
Jean 232
Microsoft 232
Sound 232
Station 232
^ 232
bro@@ 232
isi@@ 232
plat@@ 232
ros@@ 232
som@@ 232
23,@@ 231
Jr 231
Mari@@ 231
Office 231
Over 231
Sak@@ 231
men 231
tem@@ 231
ua 231
California 230
Mich@@ 230
ais@@ 230
astr@@ 230
bot@@ 230
bus 230
mas 230
1790 229
270 229
Ak@@ 229
Bec@@ 229
bil@@ 229
dren 229
front@@ 229
gh@@ 229
head 229
sum@@ 229
wan 229
ฉบ@@ 229
中@@ 229
26.@@ 228
Mary 228
Pun@@ 228
Ren@@ 228
bir@@ 228
ius 228
lem 228
mis@@ 228
nd 228
tia 228
Gh@@ 227
Ju@@ 227
Loc@@ 227
Nav@@ 227
Thr@@ 227
ali 227
den@@ 227
ez 227
ip@@ 227
ith@@ 227
trol 227
umi 227
Dev@@ 226
Dic@@ 226
USA 226
bon 226
estr@@ 226
gar@@ 226
ister@@ 226
mit@@ 226
pression 226
ves 226
อิทธิ@@ 226
An 225
Enter@@ 225
With 225
blo@@ 225
hol@@ 225
refle@@ 225
ッ@@ 225
25.@@ 224
BN 224
Ci@@ 224
FO@@ 224
Land 224
chin@@ 224
Johnson 223
Micro@@ 223
Moon 223
ball 223
face 223
ods 223
oli@@ 223
tol@@ 223
urus 223
シ@@ 223
--@@ 222
Boys 222
Den@@ 222
IT 222
Medical 222
Nak@@ 222
alist 222
ito 222
opter@@ 222
tel 222
username 222
ô 222
1883 221
Alexander 221
Fran@@ 221
ani@@ 221
ems 221
ground 221
mal 221
new 221
ums 221
リ@@ 221
南@@ 221
ABC 220
Los 220
Mos@@ 220
Ple@@ 220
Roman 220
lam 220
mi 220
work 220
­ 220
ì 220
國@@ 220
1839 219
48@@ 219
Ku@@ 219
Scott 219
dem@@ 219
embran@@ 219
fa 219
ham 219
out@@ 219
wan@@ 219
งเกิล 219
1859 218
Chap@@ 218
Cross 218
Fer@@ 218
ame@@ 218
ri 218
20,@@ 217
27.@@ 217
75@@ 217
Bad 217
Centre 217
Paris 217
any@@ 217
code 217
iki 217
mu@@ 217
ority 217
tal@@ 217
vel@@ 217
文@@ 217
Committee 216
Ji@@ 216
alb@@ 216
color 216
hum@@ 216
sil@@ 216
ways 216
ธัน@@ 216
1872 215
3000 215
Court 215
Ori@@ 215
ban@@ 215
cha 215
esia 215
lip@@ 215
mb@@ 215
oman 215
version 215
} 215
公@@ 215
Cle@@ 214
NH@@ 214
Temple 214
inger 214
ision 214
number 214
ose 214
tro 214
wer 214
ស@@ 214
37@@ 213
Doc@@ 213
Hom@@ 213
Vie@@ 213
bat@@ 213
gin 213
ule 213
1700 212
55@@ 212
CN 212
Cul@@ 212
Natur@@ 212
che 212
cip@@ 212
uri 212
1873 211
Alb@@ 211
And 211
England 211
Tit@@ 211
\ 211
area 211
chem@@ 211
control 211
ika 211
outh 211
်@@ 211
1820 210
Aqu@@ 210
Bow@@ 210
Ky@@ 210
Num@@ 210
ider@@ 210
sho@@ 210
ust@@ 210
ville 210
ā@@ 210
后@@ 210
152 209
1806 209
AB 209
Cru@@ 209
Kong 209
Nag@@ 209
forman@@ 209
mol@@ 209
stein 209
them 209
we 209
ê 209
Alliance 208
Cath@@ 208
India 208
Juli@@ 208
Land@@ 208
Tran@@ 208
Ze@@ 208
eil@@ 208
neg@@ 208
nu@@ 208
ทั่ง 208
19,@@ 207
GA 207
If 207
Maj@@ 207
Sport 207
cher 207
dian 207
ists 207
ment@@ 207
mental 207
wal@@ 207
ื 207
Rus@@ 206
Studios 206
life 206
sor@@ 206
1874 205
1876 205
Amp@@ 205
DE 205
Kir@@ 205
LG@@ 205
Rhy@@ 205
Sus@@ 205
bel@@ 205
ce@@ 205
ept@@ 205
eri 205
kar@@ 205
ops 205
rea 205
tempor@@ 205
thr@@ 205
ures 205
yu 205
Archit@@ 204
EC 204
Fame 204
Lake 204
have 204
iller 204
ny@@ 204
oper@@ 204
wat@@ 204
1849 203
65@@ 203
Aff@@ 203
Fas@@ 203
Ga@@ 203
PR@@ 203
Yam@@ 203
anced 203
cs 203
ther 203
ze@@ 203
ម@@ 203
宗@@ 203
Chall@@ 202
Comp@@ 202
God@@ 202
Jack 202
Nations 202
Ray 202
contr@@ 202
ega 202
gal@@ 202
mark 202
prim@@ 202
sky 202
1858 201
AV@@ 201
Arena 201
Def@@ 201
IF@@ 201
Iron 201
Pacific 201
comment 201
process 201
sig@@ 201
（@@ 201
1869 200
Dom@@ 200
Pa@@ 200
Rose 200
Sin@@ 200
elli 200
จจะ 200
CS 199
Code 199
Est@@ 199
Kat@@ 199
Type 199
XX 199
perial 199
zi@@ 199
Bridge 198
Brown 198
Junior 198
May@@ 198
Mod@@ 198
Not 198
Shar@@ 198
bal@@ 198
con 198
gene 198
ham@@ 198
lab@@ 198
ogr@@ 198
onom@@ 198
path@@ 198
ump@@ 198
Dy@@ 197
History 197
Hong 197
cyc@@ 197
edral 197
ji@@ 197
ked 197
pon 197
uck 197
uv@@ 197
wo@@ 197
1857 196
CE 196
Dow@@ 196
Eur@@ 196
Mac 196
Post@@ 196
Stor@@ 196
ban 196
cript 196
fre@@ 196
hai 196
otr@@ 196
rati@@ 196
tural 196
umb@@ 196
ution 196
utive 196
wiki 196
š 196
District 195
Fox 195
HP 195
Hotel 195
Reb@@ 195
arp@@ 195
atory 195
bac@@ 195
cep@@ 195
data 195
he 195
kr@@ 195
mul@@ 195
oa 195
seu@@ 195
zo 195
ន@@ 195
、@@ 195
38@@ 194
39@@ 194
Bill 194
Chr@@ 194
Cros@@ 194
Jer@@ 194
Modern 194
Sci@@ 194
UR@@ 194
activ@@ 194
alg@@ 194
annel 194
ex 194
ishi 194
other@@ 194
space 194
under@@ 194
β 194
日@@ 194
1793 193
Bod@@ 193
Christian 193
Division 193
NS@@ 193
Phone 193
Saf@@ 193
Smith 193
Vic@@ 193
anal@@ 193
atum 193
cog@@ 193
electr@@ 193
！@@ 193
44@@ 192
99@@ 192
Army 192
Brothers 192
Church 192
Gol@@ 192
Kin@@ 192
Phil@@ 192
Pit@@ 192
VA 192
lay@@ 192
lim@@ 192
only 192
pedia 192
tig@@ 192
will 192
Clar@@ 191
Commission 191
Der@@ 191
Kal@@ 191
Suz@@ 191
itz 191
law 191
mm 191
phyl@@ 191
prise 191
prop@@ 191
ror 191
sign@@ 191
‌ 191
Chris 190
El 190
Mand@@ 190
aer@@ 190
her 190
idi@@ 190
lin 190
off@@ 190
æ 190
ฅ@@ 190
18,@@ 189
22,@@ 189
Ass@@ 189
Cri@@ 189
From 189
Hen@@ 189
Hir@@ 189
Inv@@ 189
Jac@@ 189
Rob@@ 189
Techn@@ 189
Trav@@ 189
def@@ 189
eck 189
ites 189
oes 189
would 189
yn 189
国@@ 189
IX 188
Jackson 188
Korea 188
Na 188
Xi@@ 188
ago 188
ecture 188
isti@@ 188
itch 188
long@@ 188
sey 188
station 188
三@@ 188
1792 187
Cu@@ 187
Ep@@ 187
Gam@@ 187
Laur@@ 187
Operation 187
Run@@ 187
Standard 187
Studi@@ 187
az 187
bic@@ 187
dh@@ 187
dres@@ 187
oty@@ 187
sus 187
value 187
ws 187
46@@ 186
Bach@@ 186
FF 186
Rot@@ 186
anger 186
apo@@ 186
ark@@ 186
fus@@ 186
hav@@ 186
iro 186
rot@@ 186
DV@@ 185
Over@@ 185
Sab@@ 185
Web 185
aft 185
album 185
book 185
bot 185
dro@@ 185
graph@@ 185
olo@@ 185
round 185
urity 185
yes 185
รรม 185
武@@ 185
Arm@@ 184
Boy@@ 184
Lim@@ 184
Magazine 184
Mis@@ 184
Nic@@ 184
Radi@@ 184
Sto@@ 184
Version 184
endr@@ 184
ett 184
lands 184
leg@@ 184
nh@@ 184
oke 184
ots 184
site 184
versi@@ 184
wood 184
ア@@ 184
元@@ 184
Die 183
Ox@@ 183
Real 183
Son@@ 183
Stars 183
Tem@@ 183
ader 183
isa 183
tain@@ 183
urs 183
แ 183
Soci@@ 182
UC@@ 182
anterior 182
casting 182
ities 182
med@@ 182
serv@@ 182
uni@@ 182
zen 182
‘@@ 182
1795 181
Bac@@ 181
Cho@@ 181
Conn@@ 181
Dan@@ 181
Hill 181
Int@@ 181
Islands 181
PM 181
abol@@ 181
aker 181
bers 181
bon@@ 181
ef 181
fil@@ 181
lie 181
obi@@ 181
oni 181
ony@@ 181
rop@@ 181
sin 181
single 181
top@@ 181
ush 181
1854 180
Bil@@ 180
Harry 180
Mom@@ 180
Mountain 180
Nam@@ 180
Rh@@ 180
Second 180
Tom 180
don@@ 180
mati@@ 180
produc@@ 180
rap@@ 180
°@@ 180
47@@ 179
Gor@@ 179
Hard@@ 179
Just 179
Sat@@ 179
ady 179
bo 179
fu@@ 179
itation 179
now@@ 179
sing 179
uth 179
yi 179
Aer@@ 178
Government 178
Steve 178
Theatre 178
into 178
mid@@ 178
mut@@ 178
ow 178
vers 178
yan 178
神@@ 178
1831 177
Arthur 177
Bos@@ 177
Ele@@ 177
Hab@@ 177
Hydro@@ 177
Indian 177
Lam@@ 177
Mic@@ 177
Sir 177
Tu@@ 177
alus 177
bet@@ 177
case 177
love 177
press@@ 177
LP 176
Let@@ 176
Revolution 176
Sky 176
burg 176
eum 176
gir@@ 176
list 176
match 176
ock@@ 176
oli 176
osh@@ 176
ural 176
verte@@ 176
な@@ 176
海@@ 176
1837 175
Eth@@ 175
Jones 175
Kon@@ 175
Mont@@ 175
Squ@@ 175
eld 175
ign 175
iss 175
ker@@ 175
oon 175
print 175
trac@@ 175
water 175
ภาพยนต@@ 175
金@@ 175
Bay@@ 174
Championships 174
Don@@ 174
Eff@@ 174
Francis 174
German 174
Gil@@ 174
Meth@@ 174
Red@@ 174
Syst@@ 174
Tai@@ 174
Var@@ 174
Wit@@ 174
YouTube 174
ald 174
anga 174
bar 174
ela 174
emb@@ 174
esp@@ 174
ku 174
lag 174
like 174
take 174
ダ@@ 174
1812 173
1845 173
ATP 173
French 173
Good@@ 173
Head 173
Japanese 173
Mik@@ 173
af 173
enia 173
hou 173
lus@@ 173
ois 173
org@@ 173
wh@@ 173
ទ@@ 173
1851 172
Angel 172
Bay 172
Dead 172
Justice 172
Rev@@ 172
Zh@@ 172
ather 172
edom 172
ert 172
nom@@ 172
orph@@ 172
sens@@ 172
span 172
ปไต@@ 172
App@@ 171
Dro@@ 171
ading 171
aly@@ 171
arian 171
ching 171
cont@@ 171
idea 171
omy@@ 171
position 171
tronic 171
var 171
video 171
zone 171
‎ 171
1791 170
1856 170
Cour@@ 170
Ind@@ 170
May 170
VI 170
cal 170
complex 170
din@@ 170
ink 170
pa@@ 170
parentid 170
ph 170
termin@@ 170
unk@@ 170
usi@@ 170
−@@ 170
1824 169
Ben 169
Express 169
Grammy 169
Phys@@ 169
ado 169
andi@@ 169
hyp@@ 169
inus 169
national 169
room 169
second 169
which 169
21,@@ 168
After 168
Prom@@ 168
Publ@@ 168
Raj@@ 168
Sand@@ 168
Van@@ 168
Wel@@ 168
Will 168
agon@@ 168
egr@@ 168
eria 168
omb@@ 168
power 168
pper 168
}@@ 168
ñ 168
，@@ 168
1821 167
1852 167
Diam@@ 167
Fun@@ 167
Lar@@ 167
Om@@ 167
ais 167
aw 167
ew@@ 167
hydr@@ 167
ichi 167
ier 167
media 167
mir@@ 167
mission 167
uk 167
vin@@ 167
where 167
ø 167
カ@@ 167
COVI@@ 166
Champions 166
Joe 166
Most 166
Vel@@ 166
agin@@ 166
aun@@ 166
free 166
has@@ 166
house 166
oi 166
public 166
trav@@ 166
朝@@ 166
Af@@ 165
Amaz@@ 165
Bus@@ 165
Moh@@ 165
Press 165
Santa 165
Sul@@ 165
ington 165
iri 165
over@@ 165
ser 165
uf@@ 165
25,@@ 164
DR 164
Guar@@ 164
Hospital 164
Ki@@ 164
Rich@@ 164
Square 164
aden@@ 164
aire 164
cos@@ 164
dy@@ 164
eer 164
ester 164
fic 164
mes@@ 164
onna 164
sk 164
struc@@ 164
then 164
นแรง 164
明@@ 164
西@@ 164
1828 163
Bon@@ 163
Bri@@ 163
Contin@@ 163
Doctor 163
Fil@@ 163
Nan@@ 163
Stephen 163
Tou@@ 163
anna 163
atis@@ 163
aud@@ 163
come 163
fas@@ 163
ident 163
ij@@ 163
post@@ 163
tas@@ 163
unt 163
ī@@ 163
Country 162
Dur@@ 162
Jazz 162
ev 162
net@@ 162
tle 162
trol@@ 162
were 162
新@@ 162
179@@ 161
Ay@@ 161
Cha@@ 161
Elizabeth 161
Math@@ 161
Pul@@ 161
any 161
extr@@ 161
pas@@ 161
tric@@ 161
一@@ 161
安@@ 161
Black@@ 160
Buc@@ 160
Cast@@ 160
Eli@@ 160
March 160
Mun@@ 160
Ton@@ 160
illi@@ 160
lot 160
major 160
people 160
phon@@ 160
ston 160
virus 160
ã 160
1300 159
26,@@ 159
67@@ 159
Disney 159
Jan@@ 159
Jud@@ 159
Les@@ 159
Marie 159
Point 159
Rum@@ 159
Songs 159
Town 159
Vari@@ 159
line@@ 159
zi 159
พฤษภา@@ 159
Her 158
Independ@@ 158
Lot@@ 158
Mes@@ 158
Neur@@ 158
Pear@@ 158
acle 158
augh@@ 158
hibi@@ 158
ills 158
jo@@ 158
mil@@ 158
oud 158
rate 158
tal 158
マ@@ 158
1853 157
Daniel 157
His 157
Ker@@ 157
Pon@@ 157
Sac@@ 157
Sof@@ 157
Sund@@ 157
abil@@ 157
eau 157
hip 157
ier@@ 157
rock 157
sim@@ 157
ski 157
track 157
uke 157
ules 157
α@@ 157
វ@@ 157
ん@@ 157
江@@ 157
高@@ 157
1832 156
1841 156
Fle@@ 156
Frank 156
Karl 156
Kas@@ 156
Pictures 156
Satur@@ 156
West@@ 156
aining 156
alia 156
boy 156
conn@@ 156
dig@@ 156
fle@@ 156
kg 156
les@@ 156
orum 156
shi@@ 156
sis 156
ulus 156
ド@@ 156
@ 155
Les 155
Place 155
Pop@@ 155
Whit@@ 155
You@@ 155
ben@@ 155
dom 155
ece 155
edy 155
eign 155
enni@@ 155
gas@@ 155
pap@@ 155
surface 155
tain 155
war 155
± 155
か@@ 155
ジ@@ 155
学@@ 155
平@@ 155
이@@ 155
GC 154
Maz@@ 154
Middle 154
More 154
Psych@@ 154
iko 154
ishing 154
レ@@ 154
城@@ 154
州@@ 154
Fe 153
Leon@@ 153
Py@@ 153
ades 153
ag 153
aris 153
superior 153
1803 152
1847 152
Industri@@ 152
Production 152
Supre@@ 152
ava 152
ju@@ 152
kat@@ 152
1808 151
1825 151
Autom@@ 151
Department 151
Haw@@ 151
Vit@@ 151
assi@@ 151
atur@@ 151
board 151
illy 151
ista 151
itz@@ 151
sap@@ 151
stone 151
usion 151
 @@ 151
‎@@ 151
′ 151
1805 150
1835 150
Angeles 150
Ball@@ 150
Beg@@ 150
Eastern 150
Fab@@ 150
ected 150
eling 150
ometr@@ 150
ords 150
pes 150
sequ@@ 150
table 150
43@@ 149
5000 149
Bra@@ 149
Brit@@ 149
Fol@@ 149
Lep@@ 149
Obj@@ 149
Pierre 149
Tes@@ 149
VII 149
imal 149
mon 149
plex 149
tha 149
under 149
ven 149
wil@@ 149
ក@@ 149
Am 148
FIFA 148
Hur@@ 148
Kit@@ 148
Motor 148
Sph@@ 148
ager 148
aja 148
combin@@ 148
etta 148
func@@ 148
ingu@@ 148
lic@@ 148
mes 148
san@@ 148
uss@@ 148
之@@ 148
1799 147
Ali 147
Conference 147
Field 147
Jam@@ 147
King@@ 147
ate@@ 147
hiz@@ 147
oshi 147
plan@@ 147
rey 147
soci@@ 147
uma 147
าคม 147
1826 146
Bell 146
By 146
Castle 146
Director 146
Gun@@ 146
Hit@@ 146
Kevin 146
Lon@@ 146
ML@@ 146
Sony 146
Southern 146
Stre@@ 146
back@@ 146
but 146
conver@@ 146
ele 146
mach@@ 146
minor 146
oul 146
pri@@ 146
ui 146
μ 146
ာ@@ 146
☆ 146
し@@ 146
1844 145
49@@ 145
Board 145
Bol@@ 145
Daw@@ 145
Fro@@ 145
Fur@@ 145
Johnny 145
Lat@@ 145
Ok@@ 145
ador 145
amber 145
bury 145
dle 145
family 145
ize 145
network 145
onder@@ 145
opp@@ 145
plo@@ 145
ric@@ 145
spir@@ 145
through 145
Ai 144
Mess@@ 144
Name 144
airs 144
aku 144
blu@@ 144
cli@@ 144
elor 144
hang 144
ho 144
kins 144
nes 144
oria 144
sam@@ 144
social 144
オ@@ 144
道@@ 144
1813 143
Rod@@ 143
Stand@@ 143
aha 143
asis 143
eller 143
enter@@ 143
mail 143
oy 143
press 143
trop@@ 143
usa 143
zu 143
ə 143
ロ@@ 143
1400 142
AG 142
African 142
Poli@@ 142
Priv@@ 142
Rho@@ 142
Sher@@ 142
ands 142
ble@@ 142
coll@@ 142
cou@@ 142
dra@@ 142
eu@@ 142
mo 142
organ@@ 142
peti@@ 142
polis 142
rd 142
ses 142
test@@ 142
tre 142
unds 142
ł 142
ウ@@ 142
漢@@ 142
1822 141
57@@ 141
Apo@@ 141
Cab@@ 141
Chicago 141
Clin@@ 141
Seg@@ 141
aro 141
asc@@ 141
cir@@ 141
gn@@ 141
kel@@ 141
sea 141
sia 141
wa@@ 141
1842 140
24,@@ 140
56@@ 140
Buil@@ 140
Chron@@ 140
Congress 140
Hand@@ 140
Washington 140
aqu@@ 140
bs 140
centr@@ 140
doc@@ 140
ector 140
fal@@ 140
ific@@ 140
lear@@ 140
lery 140
nia 140
night 140
pain@@ 140
rive 140
two 140
white 140
xi 140
ត@@ 140
ャ@@ 140
27,@@ 139
58@@ 139
Cot@@ 139
Eric 139
Forest 139
Has@@ 139
Hun@@ 139
Nat@@ 139
Ry@@ 139
Tam@@ 139
Van 139
XX@@ 139
angle 139
bi 139
dol@@ 139
eck@@ 139
ird 139
mic@@ 139
phase 139
pic@@ 139
py@@ 139
ular@@ 139
ǎ 139
　@@ 139
1836 138
1846 138
1855 138
Albert 138
Din@@ 138
Fair@@ 138
Gir@@ 138
Mill@@ 138
Rid@@ 138
See 138
She 138
Sir@@ 138
Sn@@ 138
gia 138
his 138
ld@@ 138
level 138
porting 138
sing@@ 138
sion@@ 138
size 138
tu 138
viv@@ 138
地@@ 138
東@@ 138
Han 137
Long@@ 137
Nik@@ 137
Pep@@ 137
Pil@@ 137
Rab@@ 137
Sax@@ 137
VP 137
asa 137
bin 137
bus@@ 137
dyn@@ 137
ift 137
imi 137
je@@ 137
min 137
sional 137
tica 137
劉@@ 137
왕@@ 137
53@@ 136
59@@ 136
Ah@@ 136
Andrew 136
Extr@@ 136
Fem@@ 136
Gra@@ 136
Indi@@ 136
Sap@@ 136
Scar@@ 136
Sig@@ 136
Sign@@ 136
Wol@@ 136
XIII 136
aster@@ 136
flo@@ 136
football 136
stri@@ 136
vec@@ 136
vey 136
မ@@ 136
バ@@ 136
Adam 135
Bak@@ 135
Barr@@ 135
Dun@@ 135
Hat@@ 135
Hul@@ 135
Neg@@ 135
Rat@@ 135
Up@@ 135
Wa@@ 135
eki 135
ete 135
gi 135
han 135
ols 135
phy 135
reduc@@ 135
school 135
vas@@ 135
works 135
1804 134
Administration 134
Earl 134
Gold@@ 134
Hil@@ 134
Jack@@ 134
Tot@@ 134
Wan@@ 134
aba 134
aling 134
amo@@ 134
ause 134
box@@ 134
by@@ 134
cm 134
cy 134
identi@@ 134
itor 134
ive 134
lit@@ 134
oil 134
omer@@ 134
ondo 134
orn 134
primary 134
rain 134
sac@@ 134
wing 134
ò 134
1802 133
1810 133
Agr@@ 133
BI 133
Beh@@ 133
Hip@@ 133
Lanc@@ 133
Nich@@ 133
Oper@@ 133
Rand@@ 133
Si 133
Ten@@ 133
Western 133
cast 133
part 133
urn@@ 133
ْ@@ 133
ฝ 133
1794 132
Associ@@ 132
Hollywood 132
Khan 132
Pav@@ 132
Phoen@@ 132
Shu@@ 132
burg@@ 132
but@@ 132
chan@@ 132
cho 132
ember 132
gio 132
hil 132
ion@@ 132
mechan@@ 132
species 132
tag@@ 132
「@@ 132
軍@@ 132
CEO 131
Cham@@ 131
DJ 131
Ear@@ 131
Emer@@ 131
Thi@@ 131
ache 131
age@@ 131
ante 131
cycle 131
ending 131
ido 131
mit 131
nig@@ 131
ographi@@ 131
thing 131
π@@ 131
グ@@ 131
1843 130
Ari@@ 130
Gas@@ 130
Lyn@@ 130
Software 130
aim@@ 130
arc@@ 130
bra 130
ges 130
iting 130
las@@ 130
ledge 130
posterior 130
wel@@ 130
zy@@ 130
ˈ 130
ເ@@ 130
女@@ 130
1798 129
1817 129
Bish@@ 129
CBS 129
Ing@@ 129
Jan 129
Jur@@ 129
Library 129
Lou@@ 129
Mike 129
Popular 129
ander@@ 129
ando 129
aun 129
avi@@ 129
cial 129
ett@@ 129
ges@@ 129
gran@@ 129
ka@@ 129
mos@@ 129
obj@@ 129
tam@@ 129
vo 129
who 129
ガ@@ 129
Bit@@ 128
Federal 128
II@@ 128
Mars 128
Milit@@ 128
Orchestra 128
Tony 128
Warner 128
ains 128
arts 128
cro@@ 128
dens@@ 128
ized 128
show 128
stream 128
town 128
た@@ 128
タ@@ 128
光@@ 128
68@@ 127
Africa 127
Civil 127
Culture 127
Dist@@ 127
Fall 127
Form@@ 127
Front 127
Key@@ 127
Mission 127
Post 127
Shir@@ 127
Tex@@ 127
Tod@@ 127
alt@@ 127
amen 127
car 127
da@@ 127
enger 127
lers 127
nis 127
nit@@ 127
ο@@ 127
≤ 127
대@@ 127
1807 126
1834 126
Carl 126
Cra@@ 126
He 126
Jim 126
Ken@@ 126
Lag@@ 126
Law@@ 126
Max@@ 126
Plus 126
Viol@@ 126
atin 126
aves 126
bes 126
chr@@ 126
ements 126
grap@@ 126
has 126
idge 126
opus 126
orient@@ 126
person@@ 126
phys@@ 126
ply 126
revision 126
sed 126
spo@@ 126
wth 126
ǐ 126
ฃ 126
ฦ@@ 126
ົ@@ 126
At 125
Ath@@ 125
Aus@@ 125
Democratic 125
Dest@@ 125
Fres@@ 125
Lic@@ 125
Pom@@ 125
Under 125
Vill@@ 125
adi 125
alli@@ 125
bran@@ 125
cri@@ 125
gy 125
ild 125
isch@@ 125
ligh@@ 125
own 125
roc@@ 125
戦@@ 125
----@@ 124
Australian 124
Born 124
Da 124
Deb@@ 124
Gul@@ 124
Him@@ 124
Spar@@ 124
Termin@@ 124
aborat@@ 124
abr@@ 124
also 124
anz@@ 124
ications 124
ising 124
kan@@ 124
neum@@ 124
oral 124
orr@@ 124
rup@@ 124
tun@@ 124
uh@@ 124
宋@@ 124
1809 123
Columbia 123
Galax@@ 123
Nu@@ 123
Pel@@ 123
Yel@@ 123
agent 123
anne 123
ikit@@ 123
main 123
nov@@ 123
ples 123
squ@@ 123
家@@ 123
@@ 123
Aur@@ 122
Beach 122
Chev@@ 122
Lac@@ 122
Memorial 122
Mut@@ 122
Winter 122
city 122
dit 122
esh@@ 122
gs 122
igher 122
ingen 122
nec@@ 122
ons@@ 122
ped@@ 122
pi 122
pil@@ 122
rem@@ 122
sexual 122
spe@@ 122
stor@@ 122
year 122
る@@ 122
小@@ 122
1838 121
Australia 121
Community 121
Dir@@ 121
Kom@@ 121
Nati@@ 121
Ras@@ 121
Simon 121
Tas@@ 121
Valley 121
atri@@ 121
chen 121
integr@@ 121
kno@@ 121
nm 121
quar@@ 121
ry@@ 121
tos 121
zh 121
້@@ 121
う@@ 121
1818 120
Bau@@ 120
Florida 120
Hug@@ 120
IBM 120
Jos@@ 120
Stud@@ 120
There 120
adr@@ 120
ation@@ 120
base 120
che@@ 120
ference 120
ging 120
hist@@ 120
hur@@ 120
kers 120
mar 120
ogen 120
servat@@ 120
sm@@ 120
tron@@ 120
不@@ 120
1819 119
Assembly 119
Ax@@ 119
Giovanni 119
Id@@ 119
Pau@@ 119
Ster@@ 119
They 119
ament 119
ancy 119
anger@@ 119
een 119
fic@@ 119
last 119
lev@@ 119
ls 119
river 119
tin@@ 119
tran@@ 119
vid@@ 119
xin 119
ć 119
€ 119
上@@ 119
河@@ 119
白@@ 119
1797 118
Alan 118
Anne 118
Avi@@ 118
Cass@@ 118
Speci@@ 118
Walter 118
agu@@ 118
central 118
enna 118
gether 118
ostr@@ 118
prob@@ 118
study 118
sym@@ 118
val 118
เวณ 118
ニ@@ 118
生@@ 118
4000 117
Bla@@ 117
Domin@@ 117
Eas@@ 117
Era 117
Ford 117
Kaz@@ 117
Services 117
alls 117
anci@@ 117
ca@@ 117
care 117
differ@@ 117
find 117
fos@@ 117
hat@@ 117
ili 117
nd@@ 117
sung 117
uld 117
unter@@ 117
ฃ@@ 117
馬@@ 117
1833 116
Alice 116
Arc@@ 116
Bob 116
Boh@@ 116
Bom@@ 116
Bun@@ 116
Crim@@ 116
Hot@@ 116
Main 116
Oxford 116
Philip 116
Russian 116
Williams 116
ape 116
bey 116
eman 116
je 116
most 116
olia 116
wi@@ 116
สโม@@ 116
อัลบ@@ 116
ប@@ 116
Arab@@ 115
Canada 115
Democ@@ 115
Europe 115
Facebook 115
Pir@@ 115
Princip@@ 115
Trich@@ 115
aging 115
andra 115
aus 115
bau@@ 115
date 115
gar 115
ils 115
oks 115
pon@@ 115
pot 115
que@@ 115
range 115
rent 115
uter 115
ı 115
に@@ 115
Concep@@ 114
Dal@@ 114
Dav@@ 114
Ferr@@ 114
Greg@@ 114
Kenn@@ 114
Log@@ 114
Pad@@ 114
aul@@ 114
ceph@@ 114
conduc@@ 114
ening 114
eron 114
hel@@ 114
jug@@ 114
onidae 114
ophyl@@ 114
อังก@@ 114
Band@@ 113
Bob@@ 113
Johann 113
Orange 113
Philos@@ 113
Province 113
Sl@@ 113
Texas 113
achi 113
aine 113
ators 113
bat 113
cros@@ 113
dan 113
din 113
eur@@ 113
fir@@ 113
ige 113
ley@@ 113
mak@@ 113
sions 113
sit@@ 113
sort 113
titu@@ 113
unit 113
vis 113
web@@ 113
་@@ 113
本@@ 113
Brian 112
Flu@@ 112
Gran@@ 112
Hus@@ 112
NBC 112
Ot@@ 112
Police 112
Wilson 112
abl@@ 112
cav@@ 112
dou@@ 112
eas@@ 112
eci@@ 112
eine 112
eye 112
isions 112
kan 112
kil@@ 112
lah 112
sar@@ 112
service 112
shar@@ 112
sup@@ 112
vul@@ 112
ß 112
จำนว@@ 112
フ@@ 112
北@@ 112
的@@ 112
Antonio 111
Centr@@ 111
Fa@@ 111
Islam@@ 111
Ma 111
NS 111
Pet@@ 111
Premi@@ 111
Rog@@ 111
ches 111
chil@@ 111
culture 111
imb@@ 111
infer@@ 111
ks@@ 111
lip 111
long 111
parti@@ 111
sex 111
uo 111
ux 111
yd@@ 111
ภอ 111
ນ@@ 111
德@@ 111
66@@ 110
Ach@@ 110
Aster@@ 110
Cou@@ 110
Person@@ 110
SV 110
Shak@@ 110
aca 110
aham 110
alis@@ 110
cit@@ 110
det@@ 110
dru@@ 110
eps 110
esa 110
folia 110
human 110
ition 110
las 110
led 110
ligence 110
ont 110
oration 110
osaur@@ 110
ras@@ 110
rece@@ 110
tan 110
web 110
wen@@ 110
と@@ 110
1829 109
Comics 109
Inn@@ 109
Jum@@ 109
Other 109
Wall@@ 109
Wood@@ 109
ads 109
coron@@ 109
ences 109
icia 109
ken@@ 109
mode 109
ova 109
than 109
thor@@ 109
uli 109
vin 109
ຈ@@ 109
り@@ 109
仁@@ 109
Bern@@ 108
Corn@@ 108
Fat@@ 108
Franz 108
Kum@@ 108
abor@@ 108
chen@@ 108
crip@@ 108
each 108
esi@@ 108
fire 108
force 108
high@@ 108
hood 108
iness 108
itu@@ 108
kal@@ 108
lad@@ 108
lit 108
og 108
used 108
voc@@ 108
vor 108
デ@@ 108
世@@ 108
田@@ 108
長@@ 108
Another 107
Bour@@ 107
Bru@@ 107
Cher@@ 107
Miss@@ 107
NBA 107
NFL 107
Pass@@ 107
Son 107
bos@@ 107
contin@@ 107
ig 107
mus 107
nh 107
omi 107
park 107
software 107
ution@@ 107
worth 107
キ@@ 107
Bad@@ 106
By@@ 106
FL 106
Major 106
Mam@@ 106
Samuel 106
Stil@@ 106
Victor 106
Victoria 106
adap@@ 106
dies 106
eur 106
fier 106
iden 106
local 106
odes 106
ring 106
teen 106
ปุ่น 106
ງ@@ 106
ុ@@ 106
福@@ 106
1827 105
And@@ 105
Back@@ 105
Charlotte 105
Christ 105
Petr@@ 105
Prix 105
Sour@@ 105
Tok@@ 105
adu@@ 105
agi@@ 105
between 105
card 105
das 105
dynam@@ 105
elia 105
enberg 105
fore 105
gold 105
uru 105
モ@@ 105
和@@ 105
陽@@ 105
Anna 104
Anthony 104
Flor@@ 104
Jar@@ 104
Joh@@ 104
Milli@@ 104
Mount 104
Rou@@ 104
Sam 104
actor 104
alized 104
aries 104
boy@@ 104
ext@@ 104
general 104
hat 104
lied 104
nas@@ 104
ole@@ 104
thus 104
whe@@ 104
ù 104
င@@ 104
1823 103
Austria 103
Di 103
Ec@@ 103
Guy 103
Hop@@ 103
Jus@@ 103
Lan@@ 103
President 103
Rub@@ 103
Sah@@ 103
Strat@@ 103
aux 103
bol@@ 103
cio 103
dar@@ 103
dea 103
ingi@@ 103
ino@@ 103
ited 103
sert 103
start 103
while 103
zer 103
β@@ 103
Day@@ 102
Dig@@ 102
Francisco 102
Frederick 102
Hav@@ 102
Northern 102
Pay@@ 102
aking 102
bie 102
brach@@ 102
dre@@ 102
fel@@ 102
hand@@ 102
high 102
intr@@ 102
mess@@ 102
process@@ 102
res 102
volution 102
zz@@ 102
ِ@@ 102
張@@ 102
Chor@@ 101
Coast 101
Profes@@ 101
Tol@@ 101
ango 101
born 101
ck@@ 101
common 101
eds 101
ester@@ 101
fe 101
gam@@ 101
iki@@ 101
illing 101
imm@@ 101
oko 101
resp@@ 101
rier 101
var@@ 101
ễ 101
年@@ 101
Abr@@ 100
Alfred 100
Constitu@@ 100
Dru@@ 100
Green@@ 100
Howard 100
Jung@@ 100
Lem@@ 100
Nas@@ 100
Ny@@ 100
Patr@@ 100
Rober@@ 100
Singapore 100
Tab@@ 100
Um@@ 100
depend@@ 100
gu 100
idel@@ 100
live 100
period 100
sburg 100
sian 100
star@@ 100
subst@@ 100
there 100
ube 100
ude 100
Ö 100
å 100
ィ@@ 100
司@@ 100
Bag@@ 99
Blan@@ 99
Feder@@ 99
Hans 99
Moore 99
NAT@@ 99
North@@ 99
Professor 99
Ryan 99
Song@@ 99
aco 99
ats@@ 99
ices 99
include 99
lac@@ 99
los 99
optera 99
oti@@ 99
ris 99
spr@@ 99
ump 99
ustry 99
uta 99
ya@@ 99
yer 99
Đ@@ 99
َ@@ 99
ေ@@ 99
ិ@@ 99
。@@ 99
く@@ 99
ム@@ 99
法@@ 99
花@@ 99
1816 98
Christopher 98
Four@@ 98
Od@@ 98
Sid@@ 98
Sz@@ 98
Tat@@ 98
Zo@@ 98
aff 98
ana@@ 98
architecture 98
arry 98
away 98
bal 98
benz@@ 98
colum@@ 98
current 98
eff 98
energy 98
exp@@ 98
ffer@@ 98
grav@@ 98
part@@ 98
phi@@ 98
road 98
source 98
tail 98
tari@@ 98
van@@ 98
1811 97
Alex 97
Coc@@ 97
Dam@@ 97
Davis 97
Dutch 97
Fort 97
Frances@@ 97
Steph@@ 97
ayo 97
cam@@ 97
coc@@ 97
ecti@@ 97
elt 97
enta 97
fri@@ 97
hard 97
resist@@ 97
science 97
sun@@ 97
tak@@ 97
zo@@ 97
ë 97
ū@@ 97
យ@@ 97
ら@@ 97
サ@@ 97
君@@ 97
四@@ 97
Airlines 96
Alex@@ 96
Austr@@ 96
Cad@@ 96
Donald 96
Germany 96
Glo@@ 96
Hid@@ 96
Marine 96
Nev@@ 96
Roger 96
South@@ 96
Soviet 96
Vil@@ 96
ched 96
course 96
double 96
eh 96
ement@@ 96
evol@@ 96
heim 96
onal@@ 96
poli@@ 96
stage 96
vil@@ 96
wak@@ 96
yel@@ 96
á@@ 96
ă 96
เปลี่ย@@ 96
五@@ 96
宮@@ 96
院@@ 96
Bin@@ 95
Brand@@ 95
Bron@@ 95
Emp@@ 95
Fall@@ 95
Fir@@ 95
Gard@@ 95
Inst@@ 95
Nur@@ 95
Oli@@ 95
Revol@@ 95
anim@@ 95
anum 95
comm@@ 95
ectiv@@ 95
engine 95
gas 95
indi@@ 95
ned 95
quin@@ 95
represent@@ 95
seg@@ 95
stati@@ 95
ths 95
tit@@ 95
成@@ 95
Ant@@ 94
Batt@@ 94
Cand@@ 94
Chel@@ 94
Lib@@ 94
Ses@@ 94
Tap@@ 94
Terr@@ 94
Was@@ 94
XI 94
abe 94
ances 94
asia 94
aut 94
ayan 94
bian 94
bridge 94
head@@ 94
iga 94
inj@@ 94
isi 94
langu@@ 94
lose 94
mad@@ 94
master 94
place 94
plant 94
rat 94
rid@@ 94
season 94
three 94
tile 94
tot@@ 94
wall 94
won 94
wr@@ 94
อำเ@@ 94
ង@@ 94
《@@ 94
コ@@ 94
テ@@ 94
정@@ 94
Form 93
Fort@@ 93
Kelly 93
Mass@@ 93
Otto 93
Prin@@ 93
Rad@@ 93
Roy@@ 93
Taylor 93
Vik@@ 93
allas 93
asp@@ 93
ente 93
fur@@ 93
imp@@ 93
ished 93
nar@@ 93
phone 93
proc@@ 93
ric 93
square 93
unda 93
wen 93
č 93
ě 93
َ 93
ナ@@ 93
パ@@ 93
方@@ 93
Allen 92
Hung@@ 92
Hyp@@ 92
Kab@@ 92
Metal 92
Rep@@ 92
Say@@ 92
Suc@@ 92
asi 92
cia 92
dur@@ 92
etes 92
gres@@ 92
ilk 92
ingham 92
modi@@ 92
oka 92
prol@@ 92
wide 92
θ@@ 92
ိ@@ 92
京@@ 92
真@@ 92
Alexand@@ 91
Arn@@ 91
Cambridge 91
Daily 91
Hin@@ 91
Kim@@ 91
Las@@ 91
Lewis 91
Matthe@@ 91
Pyr@@ 91
Trin@@ 91
UEFA 91
VIII 91
Yor@@ 91
alo 91
ann 91
ardo 91
auto@@ 91
cole 91
cut@@ 91
egas 91
ells 91
ender 91
eros 91
flora 91
hard@@ 91
ieve 91
imo 91
ini@@ 91
oro 91
ough@@ 91
program 91
second@@ 91
urg@@ 91
yon 91
士@@ 91
市@@ 91
水@@ 91
Academ@@ 90
Bruce 90
Captain 90
Chief 90
Fam@@ 90
Jason 90
Jay 90
Mario 90
Moun@@ 90
Sau@@ 90
UNESCO 90
chart 90
design 90
dis 90
edia 90
ended 90
gun 90
ince 90
inv@@ 90
isher 90
olar 90
olas 90
ref@@ 90
refer@@ 90
speci@@ 90
standing 90
stat@@ 90
suit 90
tific@@ 90
troph@@ 90
udi@@ 90
vi 90
ه@@ 90
း@@ 90
寺@@ 90
川@@ 90
春@@ 90
August 89
Bapti@@ 89
Ges@@ 89
Jane 89
Secre@@ 89
Tax@@ 89
Wilhelm 89
arius 89
award 89
black 89
bor 89
carri@@ 89
cum@@ 89
dal@@ 89
dev@@ 89
ebook 89
eton 89
feder@@ 89
fort 89
hon@@ 89
hua 89
inst@@ 89
iti 89
jus@@ 89
lan 89
metal 89
nus 89
plac@@ 89
pun@@ 89
rich@@ 89
stars 89
transfer@@ 89
ving 89
×@@ 89
エ@@ 89
夜@@ 89
@@ 89
Bernard 88
Clu@@ 88
Eri@@ 88
Institu@@ 88
Jacob 88
Jun@@ 88
Kurt 88
Rein@@ 88
Russia 88
Yak@@ 88
aa 88
ator@@ 88
eleg@@ 88
emat@@ 88
fix@@ 88
iliz@@ 88
indic@@ 88
iter 88
ix@@ 88
lim 88
mond 88
nav@@ 88
news 88
ordin@@ 88
pig@@ 88
ram@@ 88
tains 88
ព@@ 88
័@@ 88
主@@ 88
林@@ 88
Dave 87
Dep@@ 87
Ein@@ 87
Films 87
Hak@@ 87
Pac@@ 87
Water@@ 87
Wes@@ 87
Wind@@ 87
acter@@ 87
aman 87
attack 87
break 87
dat@@ 87
etti 87
kor@@ 87
ments 87
na@@ 87
normal 87
och 87
oe 87
race 87
rh@@ 87
rie 87
shire 87
sons 87
specific 87
theor@@ 87
tt@@ 87
ves@@ 87
vit@@ 87
θ 87
√ 87
」 87
は@@ 87
メ@@ 87
月@@ 87
美@@ 87
Adri@@ 86
Anderson 86
Anth@@ 86
Charlie 86
Cla@@ 86
Geor@@ 86
Gran 86
Indonesia 86
Juan 86
Luci@@ 86
Main@@ 86
Opera 86
Pach@@ 86
Patri@@ 86
Patrick 86
Pow@@ 86
Premier 86
ave@@ 86
bun@@ 86
clus@@ 86
ej@@ 86
esh 86
igi 86
igu@@ 86
mur@@ 86
ograph@@ 86
put@@ 86
response 86
small 86
sts 86
sula 86
tab@@ 86
tera 86
tier 86
wo 86
{@@ 86
Android 85
Avenue 85
Bou@@ 85
Brun@@ 85
Initi@@ 85
Jordan 85
Linux 85
Nick 85
Plan 85
Well@@ 85
XII 85
aj 85
amer@@ 85
cord 85
elo 85
ering 85
esta 85
friend 85
ged 85
han@@ 85
hot@@ 85
icum 85
irat@@ 85
lav@@ 85
oking 85
open 85
princip@@ 85
ross 85
sch 85
sson 85
syl@@ 85
ជ@@ 85
が@@ 85
ま@@ 85
八@@ 85
正@@ 85
華@@ 85
Andy 84
Benjamin 84
Berlin 84
Ernst 84
Fig@@ 84
Gordon 84
Instrum@@ 84
Irish 84
Java 84
Kol@@ 84
Metropolit@@ 84
Nob@@ 84
Proj@@ 84
Raymond 84
Singles 84
XIV 84
acial 84
anta 84
ask@@ 84
classi@@ 84
craft 84
dam@@ 84
ded 84
dist@@ 84
emer@@ 84
ento 84
eva 84
fli@@ 84
four 84
ible 84
ique 84
lies 84
mov@@ 84
oll 84
ouse 84
ports 84
pose 84
prov@@ 84
stop 84
suff@@ 84
systems 84
tent 84
ud 84
via 84
ǔ 84
原@@ 84
少@@ 84
趙@@ 84
100@@ 83
Billy 83
Buff@@ 83
Cav@@ 83
Du 83
Gabriel 83
Il 83
Inf@@ 83
Isab@@ 83
Liter@@ 83
Nintendo 83
Pier@@ 83
Tim 83
Yah@@ 83
alp@@ 83
aut@@ 83
child 83
death 83
eding 83
flor@@ 83
gian 83
hep@@ 83
itar 83
kam@@ 83
km 83
lins 83
liz@@ 83
ograp@@ 83
® 83
ו@@ 83
　 83
お@@ 83
Ale@@ 82
BK 82
Boul@@ 82
Esp@@ 82
Kap@@ 82
Maxim@@ 82
Moz@@ 82
Poc@@ 82
Roman@@ 82
Wales 82
aissance 82
bom@@ 82
educ@@ 82
eing 82
essor 82
ily 82
joint 82
made 82
mix@@ 82
nament 82
new@@ 82
onda 82
ool 82
positive 82
see 82
sound 82
พฤษ@@ 82
← 82
み@@ 82
忠@@ 82
～@@ 82
Bed@@ 81
Exper@@ 81
Jimmy 81
Jonathan 81
Lawrence 81
Rio 81
bia 81
canc@@ 81
ces@@ 81
chron@@ 81
cription 81
digital 81
ebo@@ 81
eland 81
esse 81
far@@ 81
ibn 81
oper 81
ping 81
using 81
yal@@ 81
ï 81
Δ 81
十@@ 81
周@@ 81
氏@@ 81
秦@@ 81
#@@ 80
April 80
It@@ 80
Jesus 80
Kel@@ 80
Lau@@ 80
Leo 80
NGC 80
Ner@@ 80
Parliament 80
Region 80
Syl@@ 80
acre 80
best 80
cot@@ 80
door 80
eli 80
endro@@ 80
gence 80
hap@@ 80
limited 80
must 80
nik 80
ores 80
orial 80
pia 80
real 80
scre@@ 80
sha 80
त@@ 80
ု@@ 80
清@@ 80
Bell@@ 79
Bis@@ 79
Govern@@ 79
Henri 79
Kos@@ 79
Map@@ 79
Mr@@ 79
PlayStation 79
Railway 79
Ric@@ 79
Sarah 79
Thor@@ 79
acher 79
appro@@ 79
chor@@ 79
cut 79
cycl@@ 79
eni 79
eti 79
event@@ 79
ful@@ 79
gli@@ 79
him@@ 79
ican 79
iment 79
inin 79
itage 79
mid 79
natural 79
ono 79
plus 79
ria 79
sl@@ 79
theast 79
·@@ 79
Á 79
γ 79
さ@@ 79
会@@ 79
Chu 78
Italian 78
June 78
Matt 78
Pod@@ 78
Regional 78
Slo@@ 78
Tig@@ 78
Top@@ 78
XV 78
Yas@@ 78
Zen@@ 78
\@@ 78
about 78
afe 78
ario 78
burgh 78
div@@ 78
els@@ 78
exec@@ 78
fall@@ 78
hen@@ 78
kel 78
loss@@ 78
make 78
onds 78
programm@@ 78
raine 78
rel 78
sep@@ 78
syst@@ 78
tary 78
uka 78
µ 78
í@@ 78
も@@ 78
ブ@@ 78
我@@ 78
陳@@ 78
龍@@ 78
Augus@@ 77
Austin 77
Bah@@ 77
Bug@@ 77
Der 77
Dim@@ 77
EU 77
Greek 77
Ireland 77
Jacques 77
Malaysia 77
Metro 77
Stat@@ 77
anj@@ 77
aye 77
eting 77
fun@@ 77
gel@@ 77
image 77
ime@@ 77
intern@@ 77
ling@@ 77
lon 77
mand@@ 77
market 77
maxim@@ 77
operation 77
production 77
relation 77
run@@ 77
singer 77
tend@@ 77
term 77
tif@@ 77
toral 77
π 77
代@@ 77
星@@ 77
義@@ 77
門@@ 77
Apol@@ 76
Boston 76
CF 76
Capit@@ 76
Carter 76
Conserv@@ 76
Ey@@ 76
Friedrich 76
Gan@@ 76
Kil@@ 76
Maur@@ 76
Program@@ 76
Sep@@ 76
Spanish 76
Stan@@ 76
aro@@ 76
arti@@ 76
asons 76
cla@@ 76
continu@@ 76
cover 76
domin@@ 76
ensi@@ 76
ered 76
gor@@ 76
hold 76
igo 76
izer 76
king@@ 76
kon@@ 76
lea 76
liber@@ 76
pass@@ 76
poem 76
pole 76
prec@@ 76
rad 76
some 76
structure 76
tures 76
ved 76
vic@@ 76
vot@@ 76
ó@@ 76
φ@@ 76
ກ@@ 76
き@@ 76
下@@ 76
後@@ 76
無@@ 76
青@@ 76
Alter@@ 75
Dipl@@ 75
Eg@@ 75
End@@ 75
Gau@@ 75
HMS 75
Kamp@@ 75
Len@@ 75
Mai 75
Nom@@ 75
Reser@@ 75
Rock@@ 75
Vog@@ 75
Wir@@ 75
aces 75
aching 75
aron 75
eno 75
footballer 75
idential 75
isha 75
known 75
law@@ 75
management 75
movement 75
ored 75
ours 75
port@@ 75
professional 75
ron 75
tac@@ 75
tou@@ 75
tour@@ 75
ues 75
virtu@@ 75
when 75
ð 75
י@@ 75
ن@@ 75
  75
心@@ 75
都@@ 75
黃@@ 75
Carlos 74
Ferdinand 74
Gib@@ 74
Lit@@ 74
Port 74
Roy 74
Sant@@ 74
Sek@@ 74
bach 74
bu 74
company 74
development 74
dio 74
frequ@@ 74
good 74
har 74
isia 74
kn@@ 74
mont 74
neutr@@ 74
perf@@ 74
player 74
say 74
stock 74
tum@@ 74
tz 74
yu@@ 74
ະ@@ 74
》 74
れ@@ 74
チ@@ 74
ュ@@ 74
時@@ 74
民@@ 74
～ 74
Alg@@ 73
Arg@@ 73
Douglas 73
Ern@@ 73
Gur@@ 73
Hamilton 73
Haz@@ 73
Jor@@ 73
Kno@@ 73
Prov@@ 73
Ross 73
Theater 73
ables 73
aise 73
apon 73
edo 73
eline 73
elling 73
endi@@ 73
enh@@ 73
esser 73
fru@@ 73
gol@@ 73
igh 73
istan 73
lu 73
mos 73
nati@@ 73
non 73
phil@@ 73
points 73
pros@@ 73
red@@ 73
rich 73
san 73
stre@@ 73
tai 73
あ@@ 73
つ@@ 73
を@@ 73
唐@@ 73
校@@ 73
行@@ 73
Aug@@ 72
Brad@@ 72
Canadian 72
Carolina 72
Catherine 72
Christi@@ 72
Dan 72
Jose@@ 72
Kle@@ 72
Kot@@ 72
Lav@@ 72
Mart@@ 72
Mb@@ 72
Nelson 72
Neu@@ 72
Part@@ 72
Ris@@ 72
Rome 72
Soc@@ 72
Stra@@ 72
Virginia 72
Zealand 72
ander 72
being 72
bloc@@ 72
camp@@ 72
chia 72
dial 72
dial@@ 72
eder@@ 72
election 72
enter 72
eption 72
foc@@ 72
fon@@ 72
ict 72
inger@@ 72
lav 72
oir 72
partic@@ 72
standard 72
tar 72
traf@@ 72
union 72
½ 72
î 72
คัญ 72
김@@ 72
Atlantic 71
Claude 71
Constant@@ 71
December 71
Kath@@ 71
Kid@@ 71
Kun@@ 71
Lak@@ 71
Lind@@ 71
Motor@@ 71
October 71
Rail@@ 71
Vas@@ 71
ago@@ 71
alogue 71
anny 71
apa 71
been 71
cus@@ 71
democ@@ 71
eu 71
event 71
gan@@ 71
ias 71
ingo 71
lec@@ 71
location 71
lut@@ 71
num@@ 71
page 71
pit@@ 71
project 71
rou@@ 71
tum 71
ulu 71
ì@@ 71
μ@@ 71
ရ@@ 71
ី 71
ズ@@ 71
Asi@@ 70
Bran@@ 70
Britain 70
Chir@@ 70
Ich@@ 70
Jon@@ 70
Kl@@ 70
Neb@@ 70
Oscar 70
Pand@@ 70
Rural 70
Spain 70
USD 70
adj@@ 70
alt 70
ares 70
atia 70
bass@@ 70
bis@@ 70
circu@@ 70
clim@@ 70
consci@@ 70
eda 70
edi 70
enes 70
ennis 70
father 70
ief 70
ien 70
inga 70
ised 70
itt 70
iz 70
kar 70
kom@@ 70
nak@@ 70
nam 70
olo 70
omin@@ 70
orb@@ 70
post 70
seud@@ 70
ska 70
tax@@ 70
temper@@ 70
tiz@@ 70
venti@@ 70
ysi@@ 70
ə@@ 70
တ@@ 70
。 70
ョ@@ 70
字@@ 70
祖@@ 70
魔@@ 70
August@@ 69
Dad@@ 69
Diego 69
Ian 69
Las 69
Ludwig 69
Racing 69
Sag@@ 69
Sas@@ 69
access 69
aring 69
bak@@ 69
bol 69
cer 69
compl@@ 69
complete 69
cos 69
direct 69
district 69
five 69
get@@ 69
harmon@@ 69
ilian 69
ises 69
ismo 69
lif@@ 69
map@@ 69
nat@@ 69
nation 69
nen 69
polog@@ 69
pos 69
regular 69
set@@ 69
sters 69
wagen 69
wald 69
ween 69
wich 69
years 69
ē@@ 69
ư@@ 69
ː 69
Р@@ 69
م@@ 69
有@@ 69
인@@ 69
Chu@@ 68
Dod@@ 68
Es 68
Kad@@ 68
Mong@@ 68
Nec@@ 68
Nicolas 68
Norman 68
Reich@@ 68
Test@@ 68
Univers@@ 68
aks 68
anch@@ 68
atives 68
auth@@ 68
cher@@ 68
cross 68
direc@@ 68
elly 68
enzo 68
fast 68
gin@@ 68
hao 68
history 68
ional 68
liter@@ 68
quer@@ 68
sou@@ 68
thre@@ 68
transfer 68
west 68
ơ 68
ມ@@ 68
ວ@@ 68
ອ@@ 68
† 68
⊕ 68
」@@ 68
史@@ 68
孝@@ 68
阮@@ 68
音@@ 68
Andre@@ 67
Anton@@ 67
Chic@@ 67
Coupe 67
Fron@@ 67
Gri@@ 67
How@@ 67
Lie@@ 67
Ni 67
Obl@@ 67
Wak@@ 67
ague 67
ako 67
asha 67
bind@@ 67
cath@@ 67
cent 67
class@@ 67
country 67
esi 67
final 67
ied 67
imi@@ 67
information 67
ives 67
loyd 67
nu 67
orer 67
pair 67
pet@@ 67
tec@@ 67
techn@@ 67
thy 67
tly 67
vier 67
ɪ 67
ة@@ 67
န@@ 67
ノ@@ 67
군@@ 67
Abu 66
Andr@@ 66
Ast@@ 66
Boeing 66
Cec@@ 66
Ere@@ 66
Jew@@ 66
Lad@@ 66
Pok@@ 66
Produ@@ 66
Represent@@ 66
September 66
Territ@@ 66
Vladimir 66
Volks@@ 66
acu@@ 66
bid@@ 66
bile 66
canal 66
dier 66
distance 66
eon@@ 66
esses 66
ever@@ 66
following 66
ht 66
ju 66
libr@@ 66
mile 66
moun@@ 66
native 66
open@@ 66
ording 66
political 66
pool 66
research 66
sat@@ 66
stan@@ 66
was@@ 66
wn@@ 66
yat@@ 66
ε@@ 66
ος 66
र@@ 66
へ@@ 66
九@@ 66
古@@ 66
朱@@ 66
Cape 65
Chal@@ 65
Grant 65
July 65
Margaret 65
Miller 65
Minister 65
Ober@@ 65
Palm@@ 65
Personal 65
Russell 65
Sti@@ 65
Tos@@ 65
Wayne 65
anted 65
aud 65
avier 65
ball@@ 65
castle 65
cel 65
curr@@ 65
ener@@ 65
finished 65
host@@ 65
illo 65
iner@@ 65
jum@@ 65
liv@@ 65
owski 65
pp 65
ques 65
related 65
sang 65
sei 65
trong 65
ymn@@ 65
÷ 65
ć@@ 65
ν@@ 65
ω@@ 65
ី@@ 65
េ@@ 65
書@@ 65
藏@@ 65
重@@ 65
（ 65
Card@@ 64
Maurice 64
Muhammad 64
Peti@@ 64
Que@@ 64
These 64
Tib@@ 64
Turk@@ 64
alam@@ 64
aven@@ 64
aza 64
condi@@ 64
cru@@ 64
dem 64
enburg 64
enne 64
erie 64
fan 64
flav@@ 64
fran@@ 64
full 64
hand 64
ically 64
jan 64
kul@@ 64
nos 64
stell@@ 64
tras@@ 64
ສ@@ 64
  64
プ@@ 64
昌@@ 64
空@@ 64
사@@ 64
원@@ 64
Brig@@ 63
Brook@@ 63
Corps 63
Gom@@ 63
Isa@@ 63
Materi@@ 63
Pra@@ 63
Sydney 63
Theod@@ 63
Walker 63
ahi 63
aji 63
alan@@ 63
apr@@ 63
ases 63
association 63
bai 63
court 63
dance 63
eb 63
ei@@ 63
enci@@ 63
fici@@ 63
geb@@ 63
great 63
iker 63
lag@@ 63
lik@@ 63
once 63
pag@@ 63
rag@@ 63
rid 63
ris@@ 63
she 63
ski@@ 63
special 63
sport 63
ste 63
ult@@ 63
wealth 63
wick 63
Ō 63
ฅ 63
ザ@@ 63
セ@@ 63
侯@@ 63
縣@@ 63
藤@@ 63
조@@ 63
Americ@@ 62
Early 62
Flam@@ 62
Iz@@ 62
Ja@@ 62
Rah@@ 62
Rak@@ 62
Scot@@ 62
USS 62
Yan@@ 62
acks 62
after 62
apar@@ 62
ativ@@ 62
dings 62
distribution 62
entum 62
ern 62
eto 62
front 62
kov 62
lard 62
mah@@ 62
may@@ 62
onym@@ 62
ort@@ 62
proj@@ 62
ps@@ 62
repe@@ 62
rod@@ 62
sil 62
sta 62
tes@@ 62
ui@@ 62
uni 62
uno 62
vor@@ 62
wi 62
à@@ 62
ː@@ 62
ר@@ 62
ช่ว@@ 62
ល@@ 62
ハ@@ 62
情@@ 62
昭@@ 62
經@@ 62
英@@ 62
風@@ 62
Assist@@ 61
Dame 61
Deutsche 61
Educ@@ 61
Emil@@ 61
Georgia 61
Hawai@@ 61
Ng@@ 61
Nikol@@ 61
Sieg@@ 61
Tul@@ 61
Wag@@ 61
Willi@@ 61
agan 61
ament@@ 61
anti 61
artic@@ 61
bank 61
bec@@ 61
bis 61
character 61
coordin@@ 61
corpor@@ 61
dil@@ 61
distr@@ 61
eil 61
eins 61
encer 61
enty 61
eppe 61
estig@@ 61
fall 61
fro@@ 61
fund@@ 61
genus 61
igan 61
international 61
ions 61
nership 61
rif@@ 61
sn@@ 61
status 61
trag@@ 61
ufac@@ 61
uku 61
û 61
ý 61
ž 61
δ@@ 61
σ@@ 61
ັ@@ 61
က@@ 61
こ@@ 61
ち@@ 61
て@@ 61
ビ@@ 61
二@@ 61
康@@ 61
愛@@ 61
梁@@ 61
章@@ 61
親@@ 61
성@@ 61
아@@ 61
Ann 60
Arist@@ 60
Athle@@ 60
Ble@@ 60
Clark 60
Egyp@@ 60
Kag@@ 60
Michel 60
Oliver 60
Olympi@@ 60
Orch@@ 60
Raf@@ 60
Rest@@ 60
Robin 60
Sad@@ 60
Villa 60
Wolf 60
abad 60
ao@@ 60
bab@@ 60
cons@@ 60
dimen@@ 60
division 60
hip@@ 60
igg@@ 60
ip 60
lang 60
lich@@ 60
lus 60
minim@@ 60
multiple 60
nel 60
online 60
pand@@ 60
person 60
play@@ 60
sar 60
tri 60
urban 60
verl@@ 60
with@@ 60
ś 60
क@@ 60
ศูน@@ 60
‌@@ 60
え@@ 60
っ@@ 60
ー 60
信@@ 60
如@@ 60
妃@@ 60
赤@@ 60
越@@ 60
魏@@ 60
한@@ 60
Andrea 59
Baz@@ 59
Benn@@ 59
Cant@@ 59
Carol@@ 59
Fon@@ 59
Gru@@ 59
Harvard 59
Herbert 59
Kent 59
Lis@@ 59
Mang@@ 59
Manuel 59
Mim@@ 59
Moder@@ 59
Mosco@@ 59
Pos@@ 59
Rey 59
Schwar@@ 59
Sport@@ 59
Wid@@ 59
ainst 59
anni@@ 59
avi 59
borough 59
club 59
edition 59
eval 59
fen@@ 59
gom@@ 59
hara 59
hid@@ 59
iria 59
jur@@ 59
kir@@ 59
kw@@ 59
lines 59
lon@@ 59
many 59
nan 59
nic@@ 59
ois@@ 59
otom@@ 59
ought 59
oven 59
placement 59
ran 59
result 59
score 59
shot 59
soft 59
thin 59
umi@@ 59
what 59
young 59
ú@@ 59
ş 59
א@@ 59
ạ 59
ミ@@ 59
將@@ 59
永@@ 59
玉@@ 59
陵@@ 59
경@@ 59
신@@ 59
Chi 58
Con 58
Gaz@@ 58
Grande 58
Iv@@ 58
Jak@@ 58
KK 58
Louise 58
Monum@@ 58
Ray@@ 58
Robinson 58
Scottish 58
Tech@@ 58
alan 58
amba 58
ames 58
arren 58
chu@@ 58
church 58
cour@@ 58
defin@@ 58
elen 58
endra 58
hin 58
igi@@ 58
iles 58
large 58
nationale 58
nes@@ 58
ob 58
porter 58
pris@@ 58
sak@@ 58
sibil@@ 58
tru@@ 58
urg 58
working 58
« 58
Š 58
ɪ@@ 58
́@@ 58
р@@ 58
َّ@@ 58
ა@@ 58
ゴ@@ 58
園@@ 58
最@@ 58
野@@ 58
Bog@@ 57
Cari@@ 57
Corpor@@ 57
Harr@@ 57
Kennedy 57
Leb@@ 57
Lucas 57
Miami 57
Morgan 57
Navy 57
Stand 57
Sultan 57
Tag@@ 57
Tenn@@ 57
Thom@@ 57
ained 57
amo 57
att 57
aug@@ 57
austr@@ 57
both 57
conf@@ 57
down@@ 57
illed 57
illi 57
imin@@ 57
isis 57
main@@ 57
mission@@ 57
ovi@@ 57
pers 57
qua 57
retr@@ 57
saf@@ 57
saw 57
tah@@ 57
tie 57
tique 57
tour 57
traditional 57
uses 57
uz 57
vet 57
vision 57
without 57
yak@@ 57
γ@@ 57
λ@@ 57
ر@@ 57
म@@ 57
ລ@@ 57
•@@ 57
事@@ 57
石@@ 57
黄@@ 57
Bruno 56
Finale 56
Gary 56
Georg 56
His@@ 56
Historia 56
Kak@@ 56
Kob@@ 56
Lec@@ 56
Manchester 56
Mei 56
Papa 56
SG 56
Sud@@ 56
Tang@@ 56
Vietnam 56
Vincent 56
Yar@@ 56
Yun@@ 56
Zer@@ 56
ampli@@ 56
capac@@ 56
commun@@ 56
compon@@ 56
early 56
edra 56
elin 56
etr@@ 56
gan 56
govern@@ 56
idi 56
late 56
lave 56
lead 56
modern 56
okia 56
original 56
ott 56
perten@@ 56
rog@@ 56
sus@@ 56
transport 56
treat@@ 56
university 56
vie@@ 56
xe 56
yok@@ 56
သ@@ 56
千@@ 56
定@@ 56
島@@ 56
省@@ 56
者@@ 56
通@@ 56
Gel@@ 55
German@@ 55
Had@@ 55
Hous@@ 55
Latin 55
Mar 55
Ministr@@ 55
Monte 55
Pho@@ 55
Scotland 55
Tir@@ 55
Zi@@ 55
agne 55
aku@@ 55
amu 55
angers 55
autom@@ 55
cad@@ 55
dir 55
epis@@ 55
him 55
home 55
inning 55
lier 55
lug@@ 55
mine 55
office 55
onel 55
playing 55
regul@@ 55
ses@@ 55
speed 55
tropolit@@ 55
uss 55
utt@@ 55
ő 55
و@@ 55
ດ@@ 55
គ@@ 55
よ@@ 55
ン 55
娘@@ 55
政@@ 55
￼@@ 55
Adams 54
Evangel@@ 54
Lap@@ 54
Laz@@ 54
Ohio 54
Ou@@ 54
Peter@@ 54
Philipp@@ 54
Rach@@ 54
Rolling 54
Rud@@ 54
SK 54
Thompson 54
Zel@@ 54
amed 54
anak@@ 54
atra 54
aver@@ 54
avo 54
band@@ 54
clo@@ 54
dale 54
degree 54
eca 54
entation 54
exten@@ 54
iler 54
inn 54
isation 54
isch 54
kle@@ 54
may 54
mil 54
mis 54
nis@@ 54
onne 54
orium 54
pler 54
prof@@ 54
propri@@ 54
public@@ 54
sav@@ 54
sir@@ 54
sun 54
title 54
total 54
va@@ 54
§ 54
ל@@ 54
มิถุ@@ 54
ພ@@ 54
™ 54
ギ@@ 54
化@@ 54
族@@ 54
機@@ 54
物@@ 54
秋@@ 54
羅@@ 54
見@@ 54
記@@ 54
郎@@ 54
面@@ 54
나@@ 54
자@@ 54
1,2 53
201@@ 53
Alli@@ 53
Amat@@ 53
Ba 53
Baker 53
Beng@@ 53
Bibli@@ 53
Catholic 53
Creek 53
Dum@@ 53
Dut@@ 53
Hall@@ 53
Lincoln 53
Parti@@ 53
Verte@@ 53
abi 53
acked 53
against 53
bay 53
before 53
burn 53
cent@@ 53
const@@ 53
einer 53
enf@@ 53
etto 53
exper@@ 53
fes@@ 53
fiel@@ 53
government 53
graphi@@ 53
half 53
inda 53
inet 53
ischer 53
island 53
omon 53
orn@@ 53
pec@@ 53
plant@@ 53
proced@@ 53
pur 53
rant 53
rat@@ 53
short 53
solution 53
tir@@ 53
urb@@ 53
vent 53
vern@@ 53
xa 53
²@@ 53
ŋ@@ 53
สนุน 53
დ@@ 53
რ@@ 53
≈ 53
♥ 53
夏@@ 53
式@@ 53
景@@ 53
楊@@ 53
良@@ 53
리@@ 53
의@@ 53
Clau@@ 52
Fili@@ 52
Fried@@ 52
Italy 52
Julius 52
Kem@@ 52
Kus@@ 52
Lom@@ 52
Marco 52
Mey@@ 52
NASA 52
Nord@@ 52
Port@@ 52
Sin 52
Ut@@ 52
aint 52
antes 52
building 52
children 52
community 52
dice 52
endo 52
ership 52
etz@@ 52
frac@@ 52
give 52
health 52
hen 52
hop 52
idence 52
irs 52
kab@@ 52
kov@@ 52
lement 52
mad 52
manuel 52
money 52
mund 52
ologi@@ 52
possible 52
quot@@ 52
stand@@ 52
times 52
tribut@@ 52
tz@@ 52
univers@@ 52
ل@@ 52
ệ 52
ん 52
孫@@ 52
慶@@ 52
會@@ 52
治@@ 52
洪@@ 52
秀@@ 52
수@@ 52
종@@ 52
190@@ 51
Amer@@ 51
Beat@@ 51
DDR 51
Dani@@ 51
Feli@@ 51
Glas@@ 51
Hugo 51
Marc 51
Massachusetts 51
Mexico 51
Ped@@ 51
Rac@@ 51
Sa 51
Sev@@ 51
Shel@@ 51
acia 51
alco@@ 51
alition 51
alu@@ 51
anza 51
arn 51
cau@@ 51
chn@@ 51
circul@@ 51
dez 51
econom@@ 51
esch@@ 51
ests 51
eux 51
eve 51
fo 51
food 51
fu 51
gul@@ 51
inclu@@ 51
ism@@ 51
key@@ 51
lati@@ 51
mel 51
mir 51
occer 51
ogo 51
olf 51
onstr@@ 51
pay@@ 51
qu 51
run 51
tay@@ 51
thi 51
too 51
trad@@ 51
vas 51
š@@ 51
מ@@ 51
ي@@ 51
ຄ@@ 51
七@@ 51
东@@ 51
台@@ 51
部@@ 51
 51
Carlo 50
Chin@@ 50
Fred 50
Gab@@ 50
Ha 50
Hamp@@ 50
Hungary 50
Ide@@ 50
Plaza 50
Sri 50
^@@ 50
absol@@ 50
aller@@ 50
alter@@ 50
auer 50
berger 50
cost 50
dan@@ 50
during 50
eg 50
ego 50
eler 50
episode 50
got@@ 50
haz@@ 50
heim@@ 50
isp@@ 50
itas 50
japon@@ 50
little 50
meas@@ 50
members 50
nea 50
oga 50
pad@@ 50
propor@@ 50
sag@@ 50
sex@@ 50
sol 50
tap@@ 50
third 50
uj@@ 50
uro 50
zed 50
А@@ 50
ש@@ 50
न@@ 50
य@@ 50
អ@@ 50
› 50
区@@ 50
建@@ 50
御@@ 50
思@@ 50
惠@@ 50
松@@ 50
語@@ 50
Abdul@@ 49
Administr@@ 49
Anton 49
Burg@@ 49
Deutsch@@ 49
Hass@@ 49
Hey@@ 49
Hier@@ 49
Highway 49
Histor@@ 49
Luis 49
Mex@@ 49
Rit@@ 49
Stanley 49
Stewart 49
aber 49
agen 49
aircraft 49
alla 49
alog@@ 49
amount 49
atar 49
bed 49
broad@@ 49
due 49
embr@@ 49
figh@@ 49
grade 49
groups 49
horiz@@ 49
iku 49
ires 49
ische 49
itter 49
kia 49
math@@ 49
pod@@ 49
pour 49
revol@@ 49
rig@@ 49
rik 49
ru 49
senti@@ 49
sten@@ 49
tn@@ 49
uri@@ 49
uu 49
wit@@ 49
yla 49
» 49
ِ 49
ی@@ 49
ฝรั่ง@@ 49
စ@@ 49
ṭ 49
†@@ 49
仙@@ 49
何@@ 49
聖@@ 49
順@@ 49
구@@ 49
장@@ 49
지@@ 49
후@@ 49
Ahmed 48
Andreas 48
Arth@@ 48
Bes@@ 48
Elisabeth 48
Hart@@ 48
Hermann 48
Ib@@ 48
Ins@@ 48
Jersey 48
Lux@@ 48
Milan 48
Population 48
Stein@@ 48
Wer@@ 48
anian 48
athan 48
bish@@ 48
calcul@@ 48
correc@@ 48
ede 48
elop@@ 48
inten@@ 48
jer@@ 48
lov@@ 48
minute 48
mouth 48
ms@@ 48
oug@@ 48
oun 48
party 48
pir@@ 48
raf@@ 48
stan 48
story 48
temple 48
urt 48
western 48
อื่น@@ 48
ຣ@@ 48
ả 48
動@@ 48
同@@ 48
宣@@ 48
怪@@ 48
木@@ 48
源@@ 48
火@@ 48
黒@@ 48
공@@ 48
주@@ 48
Del 47
Dj@@ 47
Illinois 47
Inform@@ 47
Infr@@ 47
Johannes 47
Meh@@ 47
Nad@@ 47
Nam 47
Portu@@ 47
Reichs@@ 47
Rudolf 47
Sever@@ 47
Sonn@@ 47
Un 47
Us@@ 47
ait@@ 47
arding 47
azz@@ 47
cen@@ 47
cian 47
cil 47
comple@@ 47
cost@@ 47
determin@@ 47
erk@@ 47
essed 47
este 47
fi 47
forc@@ 47
gem@@ 47
grave 47
hatt@@ 47
isto 47
ladi@@ 47
lich 47
lio 47
obr@@ 47
observ@@ 47
oms 47
orch@@ 47
positi@@ 47
power@@ 47
prom@@ 47
reser@@ 47
sz@@ 47
tad@@ 47
thought 47
trich@@ 47
uer@@ 47
unga 47
unger 47
versit@@ 47
volume 47
ה@@ 47
ຊ@@ 47
利@@ 47
名@@ 47
奇@@ 47
師@@ 47
慈@@ 47
電@@ 47
Barcelona 46
Berg@@ 46
Canal 46
Gem@@ 46
Heinrich 46
Kav@@ 46
Lo 46
Nacional 46
November 46
Philippe 46
Sebasti@@ 46
Sic@@ 46
Stal@@ 46
Vor@@ 46
Wy@@ 46
Xu@@ 46
Yes@@ 46
amar@@ 46
ample 46
aning 46
ante@@ 46
associated 46
azine 46
beau@@ 46
bli@@ 46
different 46
dos 46
dot@@ 46
ead 46
ec 46
experi@@ 46
expres@@ 46
expression 46
hir@@ 46
ided 46
iled 46
inform@@ 46
initi@@ 46
instrum@@ 46
kur@@ 46
lyn 46
met 46
nation@@ 46
neigh@@ 46
oc 46
oda 46
ologies 46
ovo 46
players 46
quali@@ 46
radio 46
rang 46
round@@ 46
sible 46
television 46
upon 46
vote 46
wards 46
λ 46
ό@@ 46
ທ@@ 46
ァ@@ 46
夫@@ 46
府@@ 46
廣@@ 46
戰@@ 46
曹@@ 46
楚@@ 46
汉@@ 46
泰@@ 46
立@@ 46
香@@ 46
국@@ 46
서@@ 46
씨@@ 46
；@@ 46
･@@ 46
$@@ 45
Basket@@ 45
Cum@@ 45
Dres@@ 45
Franklin 45
Hud@@ 45
Itali@@ 45
Jag@@ 45
Olympics 45
Philadelphia 45
Sierra 45
UE@@ 45
again 45
alit@@ 45
alle@@ 45
analy@@ 45
around 45
assemb@@ 45
ater@@ 45
awi 45
bay@@ 45
called 45
capital 45
conv@@ 45
edit@@ 45
environ@@ 45
far 45
figur@@ 45
hak@@ 45
ilo 45
isol@@ 45
isten 45
mom@@ 45
mula 45
organization 45
personal 45
present 45
qui 45
radic@@ 45
recogni@@ 45
rez 45
rights 45
sition 45
tem 45
tournament 45
zu@@ 45
è@@ 45
स@@ 45
มนี 45
ီ@@ 45
ボ@@ 45
全@@ 45
吳@@ 45
园@@ 45
湖@@ 45
色@@ 45
소@@ 45
199@@ 44
Afr@@ 44
Anat@@ 44
But 44
Das 44
Distribu@@ 44
Found@@ 44
Gramm@@ 44
Italia 44
Jul@@ 44
Kay@@ 44
Luxemb@@ 44
Mann@@ 44
Riv@@ 44
Su 44
adem@@ 44
ails 44
alog 44
anni 44
application 44
ayn@@ 44
bles 44
could 44
dar 44
ede@@ 44
ener 44
ers@@ 44
eses 44
events 44
fam@@ 44
feld 44
games 44
got 44
human@@ 44
iter@@ 44
iva 44
jar@@ 44
marine 44
mass@@ 44
medical 44
miz@@ 44
official 44
olar@@ 44
orig@@ 44
phi 44
polit@@ 44
rest 44
rev@@ 44
same 44
sist@@ 44
suc@@ 44
sur 44
these 44
training 44
tribu@@ 44
tul@@ 44
yar@@ 44
®@@ 44
Å 44
ń 44
ʰ@@ 44
Δ@@ 44
δ 44
ω 44
ان@@ 44
เศส 44
္@@ 44
ြ@@ 44
ភ@@ 44
℃ 44
≥ 44
○@@ 44
ケ@@ 44
嘉@@ 44
多@@ 44
宇@@ 44
徳@@ 44
敬@@ 44
是@@ 44
犬@@ 44
鉄@@ 44
동@@ 44
시@@ 44
Anh@@ 43
Carr@@ 43
Develop@@ 43
Dok@@ 43
Gott@@ 43
Hut@@ 43
Indiana 43
Institut 43
Leopol@@ 43
Penn@@ 43
Pennsylvania 43
Rav@@ 43
Rico 43
Route 43
Tradi@@ 43
Wiki@@ 43
Wild@@ 43
Ya 43
ased 43
attribu@@ 43
avia 43
bes@@ 43
cic@@ 43
concept 43
concert 43
consol@@ 43
constitu@@ 43
deli@@ 43
dep@@ 43
diff@@ 43
eira 43
enko 43
found 43
found@@ 43
grad 43
hii 43
hir 43
hul@@ 43
kes 43
leo 43
loss 43
male 43
par 43
ped 43
pen 43
portation 43
required 43
rio 43
tag 43
tav@@ 43
territ@@ 43
uda 43
until 43
yas@@ 43
zon@@ 43
ຳ@@ 43
ပ@@ 43
ះ@@ 43
ố 43
す@@ 43
仮@@ 43
合@@ 43
里@@ 43
Bu 42
Bush 42
En 42
Et@@ 42
Georges 42
Hoh@@ 42
Lud@@ 42
Marshall 42
Nah@@ 42
Nap@@ 42
Phili@@ 42
Salv@@ 42
Stur@@ 42
Wen@@ 42
actions 42
adapt@@ 42
aland 42
ambo 42
andro 42
ange@@ 42
ata@@ 42
atten@@ 42
atu 42
autonom@@ 42
chant 42
conqu@@ 42
crimin@@ 42
emi 42
eston 42
evo 42
fin 42
former 42
gau@@ 42
global 42
hier@@ 42
iche 42
ife 42
ived 42
kho@@ 42
material 42
nin 42
nomin@@ 42
old@@ 42
otte 42
philosoph@@ 42
popular 42
por 42
release 42
ros 42
sel 42
sources 42
tigen 42
tres 42
woman 42
zen@@ 42
Ø 42
ί@@ 42
ρ@@ 42
ς 42
χ@@ 42
м@@ 42
สนับ@@ 42
ใ 42
ไ 42
∞ 42
≠ 42
め@@ 42
华@@ 42
特@@ 42
相@@ 42
知@@ 42
郭@@ 42
鄭@@ 42
間@@ 42
릉@@ 42
Adel@@ 41
Antoine 41
Armen@@ 41
Bundes@@ 41
Dollar 41
Gonz@@ 41
Griff@@ 41
Hein@@ 41
January 41
Kais@@ 41
Kara 41
Kre@@ 41
Liz@@ 41
Malay@@ 41
Mart 41
NCAA 41
Napole@@ 41
Philippines 41
Santiago 41
Se 41
Wis@@ 41
Wright 41
ainer 41
alled 41
allen 41
asti@@ 41
capit@@ 41
cht 41
cred@@ 41
cultural 41
director 41
diz@@ 41
entry 41
four@@ 41
fried 41
greg@@ 41
igner 41
ina@@ 41
iner 41
inge 41
itzer 41
khe@@ 41
ld 41
least 41
legi@@ 41
length 41
mill@@ 41
oca 41
onald 41
onga 41
rul@@ 41
scienti@@ 41
states 41
summer 41
support 41
together 41
tropical 41
uba 41
ubil@@ 41
vehic@@ 41
wers 41
ហ@@ 41
⊙ 41
ツ@@ 41
ベ@@ 41
死@@ 41
衛@@ 41
隆@@ 41
다@@ 41
Alber@@ 40
Broadway 40
Fern@@ 40
Franc@@ 40
Grim@@ 40
Grou@@ 40
Hali@@ 40
Houston 40
Koh@@ 40
Ord@@ 40
Rosa 40
abri@@ 40
aler 40
alisation 40
alth 40
app 40
bud@@ 40
buil@@ 40
business 40
camp 40
construc@@ 40
contact 40
dam 40
did 40
dose 40
dre 40
ehr 40
ehr@@ 40
eles 40
espe@@ 40
example 40
explo@@ 40
films 40
fs 40
gers 40
how 40
iff 40
illon 40
lis@@ 40
migr@@ 40
otes 40
parall@@ 40
population 40
quanti@@ 40
quez 40
refl@@ 40
ren 40
resid@@ 40
shu@@ 40
sten 40
strateg@@ 40
subj@@ 40
them@@ 40
tice 40
unge 40
ungs@@ 40
ustr@@ 40
yar 40
Ç 40
ë@@ 40
Ω 40
ν 40
С@@ 40
ធ@@ 40
♣ 40
け@@ 40
ル 40
前@@ 40
子 40
条@@ 40
歌@@ 40
理@@ 40
起@@ 40
郡@@ 40
雲@@ 40
도@@ 40
라@@ 40
민@@ 40
192@@ 39
198@@ 39
Alt@@ 39
Asp@@ 39
Budap@@ 39
Categ@@ 39
February 39
Fernando 39
Frank@@ 39
Freder@@ 39
Hist@@ 39
Israel 39
Lai 39
Liverpool 39
Maf@@ 39
Marsh@@ 39
Michigan 39
Miguel 39
Poland 39
Roll@@ 39
Vid@@ 39
Vin@@ 39
afric@@ 39
allo 39
ammad 39
archi@@ 39
attle 39
chester 39
cup@@ 39
diffus@@ 39
echt 39
ested 39
fres@@ 39
idar@@ 39
independent 39
influ@@ 39
jan@@ 39
natur@@ 39
oci@@ 39
oj@@ 39
onale 39
ools 39
ophie 39
oz 39
param@@ 39
pend@@ 39
promot@@ 39
proper@@ 39
quit@@ 39
ratic 39
regi@@ 39
simple 39
strong 39
thu@@ 39
tries 39
typ@@ 39
uga 39
visible 39
week 39
za@@ 39
zer@@ 39
ğ 39
̍ 39
Π@@ 39
ב@@ 39
بن 39
ច@@ 39
ោ@@ 39
ំ@@ 39
‹ 39
せ@@ 39
ヒ@@ 39
仲@@ 39
恭@@ 39
沙@@ 39
社@@ 39
虎@@ 39
韓@@ 39
고@@ 39
기@@ 39
선@@ 39
제@@ 39
Amsterdam 38
Art@@ 38
Bill@@ 38
Campbell 38
Catal@@ 38
Dau@@ 38
Historic 38
Hosp@@ 38
Jewish 38
Juni@@ 38
Lig@@ 38
Martin@@ 38
Nicol@@ 38
Prof@@ 38
Reich 38
Roh@@ 38
Santos 38
Some 38
Spor@@ 38
Their 38
` 38
acht 38
adv@@ 38
alie 38
ammed 38
areas 38
assen 38
bora 38
ege 38
eka 38
elles 38
enda 38
fem@@ 38
folk 38
fron@@ 38
given 38
hib@@ 38
ilio 38
label 38
lau@@ 38
magazine 38
mini 38
nature 38
neo 38
novel 38
olan 38
oso 38
oss 38
pas 38
pedi@@ 38
pio 38
played 38
protection 38
province 38
rad@@ 38
reco@@ 38
royal 38
sau@@ 38
solo 38
stadt 38
uch 38
within 38
xima 38
İ 38
ʻ 38
श@@ 38
ូ@@ 38
ḥ 38
ネ@@ 38
ペ@@ 38
ヤ@@ 38
使@@ 38
六@@ 38
力@@ 38
場@@ 38
夢@@ 38
寧@@ 38
度@@ 38
殿@@ 38
玄@@ 38
界@@ 38
胡@@ 38
興@@ 38
貞@@ 38
超@@ 38
龙@@ 38
영@@ 38
 38
187@@ 37
Aleksand@@ 37
Benedi@@ 37
Est 37
Gustav 37
Gymnasium 37
Harris 37
Hau@@ 37
John@@ 37
Josef 37
Nig@@ 37
Nobel 37
Vinc@@ 37
alar@@ 37
aman@@ 37
anie 37
anos 37
appar@@ 37
aret 37
azi 37
bell 37
blin 37
categ@@ 37
charge 37
compar@@ 37
concentr@@ 37
covered 37
eder 37
edonia 37
elt@@ 37
entin 37
erc@@ 37
fan@@ 37
fis@@ 37
gradu@@ 37
haus@@ 37
instruc@@ 37
interest 37
isco 37
isl@@ 37
kum@@ 37
later 37
lun@@ 37
mam@@ 37
metr@@ 37
minister 37
olm 37
perior 37
phe 37
record 37
seri@@ 37
session 37
tent@@ 37
trade 37
uca 37
valu@@ 37
views 37
viol@@ 37
zia 37
ǐ@@ 37
ǔ@@ 37
τ@@ 37
Б@@ 37
я@@ 37
ј@@ 37
د@@ 37
ع@@ 37
ُ@@ 37
》@@ 37
ひ@@ 37
む@@ 37
や@@ 37
ェ@@ 37
佛@@ 37
可@@ 37
命@@ 37
臣@@ 37
葉@@ 37
阳@@ 37
雄@@ 37
문@@ 37
세@@ 37
우@@ 37
Buch@@ 36
Compan@@ 36
Costa 36
Dak@@ 36
Hub@@ 36
Hymen@@ 36
Ira@@ 36
Lug@@ 36
Organisation 36
Rodr@@ 36
Schne@@ 36
Syr@@ 36
Twitter 36
Von 36
Will@@ 36
Wolf@@ 36
aden 36
ael 36
alli 36
andi 36
argent@@ 36
asing 36
atures 36
blan@@ 36
bour@@ 36
cens@@ 36
chall@@ 36
diction 36
ebe 36
eded 36
eim 36
eko 36
equival@@ 36
formed 36
lake 36
lang@@ 36
led@@ 36
maj@@ 36
making 36
norm@@ 36
nt 36
orit@@ 36
pal 36
particip@@ 36
partment 36
phia 36
pron@@ 36
publican 36
quel@@ 36
ques@@ 36
received 36
reci@@ 36
rein@@ 36
report 36
secre@@ 36
sports 36
stitu@@ 36
stitut@@ 36
tura 36
ulo 36
vert 36
vie 36
weg@@ 36
zant@@ 36
zar@@ 36
Ā 36
κ@@ 36
το@@ 36
К@@ 36
ע@@ 36
ب@@ 36
ْ 36
प@@ 36
လ@@ 36
ầ 36
█@@ 36
ど@@ 36
内@@ 36
出@@ 36
劇@@ 36
县@@ 36
工@@ 36
志@@ 36
村@@ 36
洋@@ 36
紅@@ 36
自@@ 36
車@@ 36
阿@@ 36
飛@@ 36
상@@ 36
하@@ 36
186@@ 35
Europa 35
Gabri@@ 35
Gle@@ 35
Gren@@ 35
Hoff@@ 35
Jap@@ 35
Jes@@ 35
Mark@@ 35
Minnesota 35
Missouri 35
Nis@@ 35
Olymp@@ 35
Pam@@ 35
Stadi@@ 35
Wolfgang 35
abi@@ 35
anas 35
anese 35
animal 35
appe@@ 35
associ@@ 35
audi@@ 35
bad 35
clav@@ 35
diam@@ 35
dir@@ 35
drama 35
education 35
egel 35
enti 35
esto 35
evi 35
fera 35
fiction 35
foot@@ 35
fully 35
heavy 35
hit 35
iev@@ 35
institu@@ 35
iwa 35
lor 35
mani@@ 35
model@@ 35
olds 35
ose@@ 35
patr@@ 35
performance 35
rab@@ 35
sche 35
semble 35
sie 35
sites 35
studies 35
tainment 35
technique 35
tered 35
tham 35
unique 35
uso 35
uto 35
«@@ 35
Ü 35
ε 35
η@@ 35
ح@@ 35
ष@@ 35
უ@@ 35
′@@ 35
ォ@@ 35
交@@ 35
作@@ 35
保@@ 35
傳@@ 35
宝@@ 35
将@@ 35
常@@ 35
普@@ 35
百@@ 35
盛@@ 35
線@@ 35
草@@ 35
路@@ 35
长@@ 35
陈@@ 35
부@@ 35
스@@ 35
연@@ 35
윤@@ 35
Ave@@ 34
Cao 34
Cruz 34
Denis 34
Fritz 34
Guinea 34
Gut@@ 34
Hockey 34
Later 34
Mek@@ 34
Naz@@ 34
Palest@@ 34
Refer@@ 34
Sali@@ 34
Tennessee 34
amia 34
among 34
ampa 34
anto 34
azu 34
bad@@ 34
berto 34
coup 34
estra 34
extra@@ 34
forms 34
geh@@ 34
gens 34
hik@@ 34
iku@@ 34
ilg@@ 34
integ@@ 34
iso 34
kari 34
kit@@ 34
lak@@ 34
lars 34
leb@@ 34
majority 34
mother 34
neu@@ 34
obi 34
organiz@@ 34
ouv@@ 34
oya 34
portr@@ 34
prises 34
private 34
pro 34
pson 34
quet 34
rom 34
scor@@ 34
sto@@ 34
tari 34
trat@@ 34
udo 34
vat@@ 34
visi@@ 34
voir 34
Æ 34
æ@@ 34
Č 34
ę 34
Ś 34
ˈ@@ 34
μα@@ 34
л@@ 34
э@@ 34
द@@ 34
ག@@ 34
ែ@@ 34
ṇ 34
ῖ@@ 34
ピ@@ 34
喜@@ 34
在@@ 34
徐@@ 34
波@@ 34
蘭@@ 34
貴@@ 34
集@@ 34
185@@ 33
195@@ 33
Brazil 33
Chrys@@ 33
Columb@@ 33
Iran 33
Kansas 33
Kul@@ 33
Montre@@ 33
Ost@@ 33
Pak@@ 33
Pedro 33
Restaur@@ 33
Sach@@ 33
Schw@@ 33
Toronto 33
XVI 33
abo@@ 33
ampton 33
anan 33
ark 33
aux@@ 33
beck 33
bourg 33
bunal 33
caus@@ 33
chang@@ 33
clar@@ 33
days 33
design@@ 33
eces 33
ectu@@ 33
enin 33
erin 33
etz 33
every 33
evidence 33
extrem@@ 33
fact 33
fest 33
frag@@ 33
gest@@ 33
hes@@ 33
histor@@ 33
hui 33
intel@@ 33
iser 33
kap@@ 33
kol@@ 33
largest 33
mai 33
midt 33
moder@@ 33
near@@ 33
northern 33
offic@@ 33
ogle 33
orio 33
para 33
plann@@ 33
portun@@ 33
priv@@ 33
rement 33
requ@@ 33
respon@@ 33
ril 33
sai 33
sam 33
say@@ 33
spre@@ 33
stand 33
subject 33
transl@@ 33
usalem 33
vac@@ 33
xon 33
ö@@ 33
ŏ 33
ɑ@@ 33
ʔ 33
к@@ 33
і@@ 33
ग@@ 33
ल@@ 33
்@@ 33
ตะวัน@@ 33
ູ@@ 33
ར@@ 33
ნ@@ 33
ខ@@ 33
ế 33
♠ 33
で@@ 33
土@@ 33
基@@ 33
堂@@ 33
梅@@ 33
業@@ 33
萬@@ 33
言@@ 33
進@@ 33
齊@@ 33
무@@ 33
박@@ 33
비@@ 33
안@@ 33
화@@ 33
）@@ 33
Aj@@ 32
Arizona 32
Atlan@@ 32
Career 32
Cem@@ 32
Eb@@ 32
Ehr@@ 32
GmbH 32
Lan 32
Municipal 32
Paulo 32
Roberto 32
Trump 32
Ukr@@ 32
Vita 32
Wein@@ 32
acias 32
aled 32
alier 32
aller 32
ambi@@ 32
anes 32
angel@@ 32
anot@@ 32
another 32
aup@@ 32
aving 32
bec 32
ben 32
bourne 32
communication 32
compos@@ 32
concep@@ 32
contract 32
cover@@ 32
declar@@ 32
deg@@ 32
develop@@ 32
docum@@ 32
endi 32
expos@@ 32
gang 32
goal 32
icro@@ 32
illes 32
ingi 32
ival@@ 32
just 32
kara 32
loy@@ 32
ls@@ 32
med 32
million 32
move 32
poin@@ 32
present@@ 32
presented 32
quir@@ 32
rak@@ 32
relations 32
releas@@ 32
sexu@@ 32
ships 32
sid@@ 32
simul@@ 32
some@@ 32
stein@@ 32
thel@@ 32
those 32
tico 32
tienne 32
unci@@ 32
utu 32
vill@@ 32
vir 32
³ 32
ñ@@ 32
œ 32
ʃ@@ 32
Т@@ 32
е@@ 32
н@@ 32
ا 32
ال@@ 32
س@@ 32
ដ@@ 32
ណ@@ 32
▪ 32
今@@ 32
吉@@ 32
外@@ 32
寶@@ 32
尹@@ 32
株@@ 32
殺@@ 32
老@@ 32
許@@ 32
顯@@ 32
마@@ 32
유@@ 32
， 32
Agu@@ 31
Antar@@ 31
Argentina 31
Ban 31
Canton 31
Eisen@@ 31
Gros@@ 31
Indon@@ 31
Jah@@ 31
Kah@@ 31
Kaiser 31
Mab@@ 31
NAS@@ 31
Sol 31
Tah@@ 31
Tek@@ 31
Vig@@ 31
Wilhel@@ 31
Zar@@ 31
Zu@@ 31
above 31
actr@@ 31
adio 31
ados 31
aged 31
agre@@ 31
ahr@@ 31
aran 31
argum@@ 31
bed@@ 31
bou@@ 31
desc@@ 31
disambiguation 31
eign@@ 31
ellen@@ 31
emo 31
eres 31
evi@@ 31
expan@@ 31
heit 31
inclus@@ 31
ision@@ 31
kt 31
lib@@ 31
manager 31
military 31
milli@@ 31
ners 31
never 31
nik@@ 31
note 31
onen 31
plan 31
pped 31
progres@@ 31
rail 31
rang@@ 31
ras 31
regional 31
rep@@ 31
rus@@ 31
sein 31
til 31
tista 31
topl@@ 31
uti 31
vera 31
vet@@ 31
wake 31
wir@@ 31
ü@@ 31
λε@@ 31
О@@ 31
ּ@@ 31
ج@@ 31
ك@@ 31
โ 31
ບ@@ 31
ས@@ 31
ἀ@@ 31
″ 31
だ@@ 31
ソ@@ 31
伝@@ 31
典@@ 31
別@@ 31
吴@@ 31
商@@ 31
始@@ 31
崔@@ 31
懿@@ 31
教@@ 31
来@@ 31
流@@ 31
烈@@ 31
蕭@@ 31
189@@ 30
Braz@@ 30
Herr@@ 30
Inh@@ 30
Iowa 30
Journ@@ 30
Maryland 30
Mih@@ 30
Puerto 30
SPD 30
Tay@@ 30
Toul@@ 30
Ukraine 30
Vall@@ 30
Yaz@@ 30
abu 30
acer@@ 30
alc@@ 30
alternati@@ 30
anya 30
arab@@ 30
atre 30
aught 30
bas 30
brand 30
brun@@ 30
bt 30
cali@@ 30
cant@@ 30
coming 30
concer@@ 30
conserv@@ 30
crit@@ 30
cu 30
ender@@ 30
erine 30
estruc@@ 30
experim@@ 30
gel 30
hips 30
his@@ 30
inci 30
issue 30
izi@@ 30
jud@@ 30
legal 30
lub 30
mant@@ 30
materi@@ 30
national@@ 30
oba 30
oux 30
pf@@ 30
prepar@@ 30
rim 30
sciences 30
separ@@ 30
sever@@ 30
sta@@ 30
studio 30
such 30
sych@@ 30
tori@@ 30
urs@@ 30
vide 30
yk@@ 30
yol@@ 30
zin@@ 30
ή@@ 30
ός 30
н 30
ز@@ 30
ف@@ 30
ق@@ 30
ण@@ 30
া@@ 30
ဝ@@ 30
ị 30
ゆ@@ 30
中国@@ 30
乐@@ 30
勝@@ 30
善@@ 30
學@@ 30
官@@ 30
弘@@ 30
急@@ 30
手@@ 30
斗@@ 30
港@@ 30
苏@@ 30
賢@@ 30
남@@ 30
전@@ 30
．@@ 30
184@@ 29
188@@ 29
196@@ 29
197@@ 29
Adolf 29
Barbara 29
Bass@@ 29
Chelsea 29
Colorado 29
Estr@@ 29
Leh@@ 29
Nel@@ 29
Pf@@ 29
Quer@@ 29
Uz@@ 29
ald@@ 29
asse 29
books 29
collection 29
culp@@ 29
day@@ 29
deb@@ 29
deriv@@ 29
direction 29
emann 29
emen 29
emper@@ 29
ensive 29
ently 29
eran 29
gun@@ 29
heav@@ 29
held 29
icas 29
inas 29
inh 29
kes@@ 29
list@@ 29
mari@@ 29
nine 29
oft 29
ologie 29
others 29
ourg 29
pati@@ 29
physi@@ 29
property 29
proxim@@ 29
released 29
resol@@ 29
sang@@ 29
sci@@ 29
soon 29
terior 29
took 29
umbo 29
umen 29
utenant 29
written 29
yard 29
zan 29
õ 29
ș 29
ον@@ 29
В@@ 29
أَ@@ 29
الل@@ 29
ຫ@@ 29
ོ@@ 29
ဒ@@ 29
ჷ@@ 29
ṣ 29
そ@@ 29
・ 29
万@@ 29
令@@ 29
伊@@ 29
你@@ 29
姫@@ 29
张@@ 29
溪@@ 29
电视@@ 29
茶@@ 29
董@@ 29
蘇@@ 29
話@@ 29
道 29
阪@@ 29
鬼@@ 29
방@@ 29
현@@ 29
． 29
： 29
Ab 28
Actu@@ 28
Congo 28
Dek@@ 28
Den 28
Fati@@ 28
Margar@@ 28
Melbourne 28
Oregon 28
Pek@@ 28
Portugal 28
Pub@@ 28
Register 28
Stockh@@ 28
Sur 28
Zam@@ 28
accoun@@ 28
adul@@ 28
ande 28
arina 28
article 28
artist 28
aten 28
atos 28
awa@@ 28
bek@@ 28
cab@@ 28
chap@@ 28
construction 28
county 28
derni@@ 28
directed 28
dul@@ 28
eras 28
erre 28
etti@@ 28
grand 28
gros@@ 28
help 28
hours 28
igr@@ 28
ilit@@ 28
iller@@ 28
inen 28
inson 28
isse 28
iste 28
iture 28
jam@@ 28
kaya 28
kis@@ 28
museum 28
musical 28
ople 28
opol@@ 28
othe@@ 28
publ@@ 28
records 28
reich 28
rim@@ 28
streng@@ 28
tang@@ 28
techni@@ 28
tei 28
templ@@ 28
train 28
troit 28
vely 28
verg@@ 28
women 28
writer 28
Ó 28
ä@@ 28
ç@@ 28
ą 28
ǒ 28
، 28
ا@@ 28
الْ@@ 28
ປ@@ 28
ິ@@ 28
ო@@ 28
、 28
わ@@ 28
ポ@@ 28
ム 28
ヨ@@ 28
丹@@ 28
撃@@ 28
曲@@ 28
樂@@ 28
節@@ 28
紀@@ 28
羽@@ 28
身@@ 28
风@@ 28
魚@@ 28
광@@ 28
루@@ 28
의 28
최@@ 28
치@@ 28
4,5 27
Alberto 27
Charl@@ 27
Ent@@ 27
Euro 27
Gusta@@ 27
Harv@@ 27
Kop@@ 27
Luf@@ 27
Madrid 27
Mau@@ 27
Mia 27
Panz@@ 27
Rhein@@ 27
Sey@@ 27
Universit@@ 27
Val 27
Yer@@ 27
across 27
agog@@ 27
ahl@@ 27
amac@@ 27
annes 27
aper@@ 27
arist@@ 27
aten@@ 27
average 27
centre 27
circ@@ 27
civil 27
close 27
countries 27
discipl@@ 27
ecia 27
eke 27
elimin@@ 27
fantas@@ 27
features 27
female 27
ffe 27
fif@@ 27
fusi@@ 27
fut@@ 27
guit@@ 27
hil@@ 27
ici 27
ident@@ 27
ilities 27
immer 27
ios 27
kshire 27
mani 27
mec@@ 27
musici@@ 27
ney@@ 27
nez 27
nier 27
omen 27
oti 27
ray@@ 27
riv@@ 27
role 27
route 27
slo@@ 27
steri@@ 27
still 27
sult@@ 27
tard 27
tioned 27
tish@@ 27
tiva 27
toria 27
yer@@ 27
yum 27
zon 27
ù@@ 27
ı@@ 27
ʰ 27
͡@@ 27
Σ@@ 27
ά@@ 27
Г@@ 27
в@@ 27
ְ@@ 27
ד@@ 27
່@@ 27
თ@@ 27
១ 27
ồ 27
ず@@ 27
ょ@@ 27
ワ@@ 27
中華@@ 27
団@@ 27
守@@ 27
承@@ 27
球@@ 27
蔡@@ 27
袁@@ 27
銀@@ 27
鳥@@ 27
해@@ 27
194@@ 26
Alaska 26
Alexandre 26
Castil@@ 26
Dich@@ 26
Fen@@ 26
General@@ 26
Guill@@ 26
Jug@@ 26
Mustafa 26
Nach@@ 26
National@@ 26
Seb@@ 26
Spi@@ 26
actu@@ 26
aired 26
aque 26
ativa 26
attention 26
ayi 26
battle 26
below 26
berg@@ 26
campus 26
charg@@ 26
cities 26
communic@@ 26
created 26
dur 26
economic 26
eler@@ 26
elev@@ 26
ende 26
ennes 26
enses 26
erra 26
fen 26
haw@@ 26
hoa 26
hun@@ 26
hut@@ 26
istem@@ 26
iyi 26
laz@@ 26
lez 26
lil@@ 26
lost 26
means 26
metro 26
miles 26
mt@@ 26
mtDNA 26
ning@@ 26
onde 26
onto 26
pens@@ 26
pers@@ 26
pop@@ 26
ppe 26
rates 26
rem 26
rug@@ 26
sab@@ 26
schule 26
services 26
sof@@ 26
tim 26
tir 26
toman 26
umo 26
units 26
wad@@ 26
wns 26
ων@@ 26
И@@ 26
ָ@@ 26
ش@@ 26
व@@ 26
สิงหา@@ 26
ຍ@@ 26
ີ@@ 26
ຸ@@ 26
ს@@ 26
い 26
じ@@ 26
ふ@@ 26
ゃ@@ 26
人 26
來@@ 26
先@@ 26
嚴@@ 26
密@@ 26
左@@ 26
未@@ 26
演@@ 26
爾@@ 26
若@@ 26
議@@ 26
近@@ 26
食@@ 26
黎@@ 26
포@@ 26
Ander@@ 25
Bask@@ 25
Connecticut 25
Crist@@ 25
Doug@@ 25
Este 25
Fund@@ 25
Herz@@ 25
Mary@@ 25
Monte@@ 25
Nou@@ 25
Nueva 25
Oy@@ 25
Paci@@ 25
Provin@@ 25
Regi@@ 25
Salvador 25
Schul@@ 25
Sib@@ 25
ached 25
ahn 25
alle 25
anat@@ 25
annual 25
apo 25
arak 25
asked 25
attach@@ 25
aum@@ 25
bach@@ 25
bao 25
bei 25
bel 25
cas 25
chief 25
create 25
destin@@ 25
dorf 25
eball 25
edil@@ 25
enant 25
endel@@ 25
entes 25
enz 25
habit@@ 25
had@@ 25
icio 25
idental 25
igen 25
industry 25
inos 25
its@@ 25
kt@@ 25
living 25
mang@@ 25
mann@@ 25
marri@@ 25
nie 25
pendi@@ 25
perman@@ 25
religion 25
running 25
seat 25
sev@@ 25
spi@@ 25
teur 25
thu 25
tip 25
uf 25
utz@@ 25
veget@@ 25
week@@ 25
xu@@ 25
yet 25
zur@@ 25
¼ 25
ɛ 25
ʿ 25
Ω@@ 25
ι@@ 25
ρο@@ 25
П@@ 25
г@@ 25
ط@@ 25
या@@ 25
བ@@ 25
ည@@ 25
အ@@ 25
ზ@@ 25
ḥ@@ 25
∞@@ 25
ね@@ 25
ば@@ 25
伯@@ 25
党@@ 25
區@@ 25
呂@@ 25
宙@@ 25
屋@@ 25
山 25
恩@@ 25
拉@@ 25
拳@@ 25
智@@ 25
泉@@ 25
遊@@ 25
郡 25
開@@ 25
陸@@ 25
非@@ 25
騎@@ 25
보@@ 25
순@@ 25
어@@ 25
진@@ 25
충@@ 25
태@@ 25
@@ 25
！ 25
0.000 24
193@@ 24
Edu@@ 24
Elle 24
Engl@@ 24
Hamb@@ 24
Kiy@@ 24
Mercedes 24
Minister@@ 24
Notre 24
Probl@@ 24
Vy@@ 24
Wad@@ 24
Wander@@ 24
Way@@ 24
Zu 24
aban 24
abra 24
acqu@@ 24
acts 24
adron 24
antage 24
ations@@ 24
avail@@ 24
bah@@ 24
brahim 24
cause 24
collec@@ 24
concre@@ 24
diers 24
dispar@@ 24
done 24
eber@@ 24
echo 24
erek 24
figure 24
grad@@ 24
histori@@ 24
iden@@ 24
irk 24
jit@@ 24
justice 24
kas@@ 24
lage 24
leri 24
mig@@ 24
mitted 24
modern@@ 24
most@@ 24
music@@ 24
ngh@@ 24
oire 24
ongo 24
ously 24
parish 24
pis@@ 24
pom@@ 24
purch@@ 24
relati@@ 24
relativ@@ 24
sand@@ 24
sister 24
tee 24
teri 24
tivo 24
turn 24
tut@@ 24
uko 24
usha 24
½@@ 24
Î 24
ŭ 24
ρα@@ 24
σ 24
СС@@ 24
У@@ 24
з@@ 24
на@@ 24
но@@ 24
ш@@ 24
ُ 24
च@@ 24
ക@@ 24
ື@@ 24
ọ 24
Ἀ@@ 24
⁄ 24
∈ 24
█ 24
☆@@ 24
井@@ 24
儀@@ 24
初@@ 24
包@@ 24
北京@@ 24
回@@ 24
广@@ 24
影@@ 24
徽@@ 24
悪@@ 24
橋@@ 24
比@@ 24
気@@ 24
王 24
紫@@ 24
能@@ 24
臺@@ 24
術@@ 24
角@@ 24
赵@@ 24
雪@@ 24
鳳@@ 24
가@@ 24
양@@ 24
중@@ 24
천@@ 24
 24
：@@ 24
🇭 24
🇹@@ 24
Alfonso 23
Andro@@ 23
Arsenal 23
Baba 23
Berg 23
Bret@@ 23
Dah@@ 23
Guillaume 23
Hind@@ 23
Infan@@ 23
Its 23
Kazak@@ 23
Kut@@ 23
Liga 23
Madag@@ 23
Nord 23
Norte 23
Para 23
Queensland 23
Sist@@ 23
Slov@@ 23
aches 23
acquired 23
aily 23
altar 23
amos 23
apos@@ 23
asser 23
atura 23
auc@@ 23
ayed 23
azar 23
college 23
complet@@ 23
completed 23
department 23
dioc@@ 23
disput@@ 23
eco 23
egu@@ 23
erst@@ 23
ettes 23
eza 23
famili@@ 23
festival 23
guez 23
hac@@ 23
hio 23
iken 23
imler 23
included 23
infr@@ 23
inz@@ 23
isen 23
itr@@ 23
join@@ 23
kre@@ 23
laun@@ 23
lung 23
mens@@ 23
mili@@ 23
minutes 23
motor@@ 23
much 23
oku@@ 23
omel@@ 23
opera 23
orie 23
oten 23
placed 23
rah@@ 23
rech@@ 23
relationship 23
sad@@ 23
sera 23
since 23
sine 23
stead 23
tant 23
tech@@ 23
tero 23
today 23
turn@@ 23
uel 23
vio 23
wol@@ 23
writing 23
ρ 23
т@@ 23
ө@@ 23
ק@@ 23
إ@@ 23
خ@@ 23
مَ@@ 23
ه 23
ّ@@ 23
ड@@ 23
ना@@ 23
रा@@ 23
ຕ@@ 23
ི@@ 23
ი@@ 23
់@@ 23
ṃ 23
ṅ 23
ṣ@@ 23
ṭ@@ 23
ス 23
ゼ@@ 23
ホ@@ 23
ヴ@@ 23
了@@ 23
云@@ 23
人民@@ 23
体@@ 23
侍@@ 23
兵@@ 23
友@@ 23
反@@ 23
妖@@ 23
季@@ 23
所@@ 23
摩@@ 23
期@@ 23
森@@ 23
爱@@ 23
狄@@ 23
直@@ 23
科@@ 23
紋@@ 23
統@@ 23
鎮@@ 23
隊@@ 23
館@@ 23
麗@@ 23
강@@ 23
교@@ 23
명@@ 23
여@@ 23
예@@ 23
요@@ 23
홍@@ 23
---- 22
Alabama 22
Anc@@ 22
Azer@@ 22
Best@@ 22
Biz@@ 22
Casa 22
Conseil 22
Dakota 22
Dop@@ 22
Eis@@ 22
Esc@@ 22
Feld@@ 22
Film@@ 22
Frankfurt 22
Ili@@ 22
Im 22
Kant@@ 22
Lok@@ 22
Pakistan 22
Salz@@ 22
Soh@@ 22
Sonder@@ 22
Werner 22
While 22
Zw@@ 22
acha 22
affa@@ 22
aide 22
amen@@ 22
anded 22
atu@@ 22
auch@@ 22
better 22
big 22
candid@@ 22
colon@@ 22
crisis 22
egen 22
elek@@ 22
engl@@ 22
eshi 22
femin@@ 22
gal 22
gaz@@ 22
gend 22
idad 22
initial 22
iye 22
kim@@ 22
lance 22
manga 22
mim@@ 22
missions 22
need 22
ogne 22
omp@@ 22
pler@@ 22
policy 22
publi@@ 22
reas 22
rol 22
roy@@ 22
sberg 22
schaft 22
sept@@ 22
seven 22
shows 22
uel@@ 22
usu 22
yam@@ 22
zel@@ 22
À 22
â@@ 22
Đ 22
ŋ 22
Κ@@ 22
υ@@ 22
Ф@@ 22
ви@@ 22
и 22
נ@@ 22
ת@@ 22
اد@@ 22
ار@@ 22
ص@@ 22
ى@@ 22
ம@@ 22
ແ@@ 22
ད@@ 22
ན@@ 22
ུ@@ 22
ထ@@ 22
ჽ@@ 22
‍@@ 22
「 22
〜 22
ご@@ 22
ろ@@ 22
ゲ@@ 22
丁@@ 22
丘@@ 22
以@@ 22
余@@ 22
分@@ 22
勇@@ 22
印@@ 22
叉@@ 22
号@@ 22
塔@@ 22
封@@ 22
戸@@ 22
柳@@ 22
母@@ 22
涼@@ 22
潮@@ 22
濟@@ 22
炎@@ 22
獣@@ 22
目@@ 22
端@@ 22
经@@ 22
辛@@ 22
门@@ 22
陰@@ 22
韋@@ 22
21@@ 21
Afghanistan 21
Au 21
Bach 21
Banglad@@ 21
Bib@@ 21
Funk@@ 21
Gest@@ 21
Haus@@ 21
Hof@@ 21
Kri@@ 21
Loire 21
Lyon 21
Minh 21
Rech@@ 21
Regiment 21
Rug@@ 21
Sok@@ 21
Tari@@ 21
XVII 21
aat 21
absor@@ 21
adam@@ 21
ahl 21
aka@@ 21
alar 21
ambul@@ 21
angi 21
asim@@ 21
ateur 21
atrice 21
auf@@ 21
aum 21
azar@@ 21
bois 21
bre 21
cerem@@ 21
character@@ 21
cid@@ 21
clos@@ 21
deu@@ 21
doba 21
does 21
elled 21
enga 21
ept 21
eren 21
escap@@ 21
fig 21
genre 21
ient 21
ifu 21
imen 21
impl@@ 21
insec@@ 21
invas@@ 21
jun@@ 21
kad@@ 21
kus@@ 21
leading 21
lique 21
mab@@ 21
meeting 21
nac@@ 21
near 21
nom 21
odo 21
olan@@ 21
onc@@ 21
opo 21
pak@@ 21
pes@@ 21
pino 21
pion@@ 21
positions 21
previous 21
princ@@ 21
regres@@ 21
restaur@@ 21
six@@ 21
staff 21
strat@@ 21
sug@@ 21
ually 21
umu 21
util@@ 21
vice 21
went 21
xim@@ 21
yat 21
zar 21
zur 21
ß@@ 21
đ 21
ʊ@@ 21
κ 21
φ 21
Л@@ 21
Н@@ 21
Х@@ 21
й 21
с@@ 21
ات@@ 21
ث@@ 21
غ@@ 21
ِّ@@ 21
ܐ@@ 21
ज@@ 21
க@@ 21
క@@ 21
ဇ@@ 21
့@@ 21
ွ@@ 21
ှ@@ 21
ấ 21
★ 21
】@@ 21
う 21
イ 21
也@@ 21
姬@@ 21
富@@ 21
尚@@ 21
尾@@ 21
局@@ 21
师@@ 21
恋@@ 21
战@@ 21
日 21
桂@@ 21
楽@@ 21
毛@@ 21
燕@@ 21
爆@@ 21
獻@@ 21
甲@@ 21
男@@ 21
神 21
秘@@ 21
精@@ 21
糖@@ 21
衣@@ 21
觀@@ 21
谷@@ 21
走@@ 21
関@@ 21
雨@@ 21
雷@@ 21
革@@ 21
黨@@ 21
로@@ 21
리 21
에@@ 21
@@@ 20
Alej@@ 20
Ana 20
Apr@@ 20
Ek@@ 20
Gia 20
Herb@@ 20
Histoire 20
Hr@@ 20
Kho@@ 20
Kib@@ 20
Kie@@ 20
Kro@@ 20
Lew@@ 20
Mec@@ 20
Position 20
Rom 20
Santo 20
Sov@@ 20
XIX 20
academ@@ 20
achen 20
administrative 20
alian 20
ambi 20
amor@@ 20
applic@@ 20
aska 20
augment@@ 20
conc@@ 20
confl@@ 20
consist@@ 20
dav@@ 20
diagn@@ 20
diver@@ 20
dos@@ 20
eastern 20
essen 20
estar 20
eure 20
feature 20
ferro@@ 20
fight 20
font 20
forme 20
haf@@ 20
haus 20
imar@@ 20
immedi@@ 20
ingia 20
inner@@ 20
internet 20
istes 20
istin 20
iterran@@ 20
itung 20
journal 20
kay@@ 20
kio 20
kri@@ 20
kut@@ 20
lara 20
leader 20
listed 20
oblig@@ 20
opa 20
organisation 20
orta 20
osi 20
practice 20
published 20
rain@@ 20
rar@@ 20
reli@@ 20
restric@@ 20
sched@@ 20
serve 20
tam 20
tane 20
tat@@ 20
tik 20
tik@@ 20
uren 20
utz 20
various 20
volun@@ 20
Ú 20
č@@ 20
ʼ 20
̤ 20
η 20
ψ@@ 20
Д@@ 20
р 20
ре@@ 20
ы@@ 20
ת 20
عَ@@ 20
لَ@@ 20
ब@@ 20
़@@ 20
ி@@ 20
ང@@ 20
ယ@@ 20
း 20
ျ@@ 20
べ@@ 20
世界@@ 20
久@@ 20
乱@@ 20
任@@ 20
修@@ 20
入@@ 20
剣@@ 20
剧@@ 20
口@@ 20
哲@@ 20
女 20
岳@@ 20
易@@ 20
獄@@ 20
甘@@ 20
祥@@ 20
程@@ 20
等@@ 20
肉@@ 20
臨@@ 20
莊@@ 20
語 20
護@@ 20
變@@ 20
達@@ 20
那@@ 20
鐵@@ 20
關@@ 20
麻@@ 20
齐@@ 20
산@@ 20
임@@ 20
헌@@ 20
호@@ 20
Academia 19
Chile 19
Des 19
Dies@@ 19
Elek@@ 19
Europ@@ 19
Fak@@ 19
Franco 19
Git@@ 19
Jorge 19
Laurent 19
Libr@@ 19
NCA@@ 19
Occ@@ 19
Parti 19
Sudan 19
Tam 19
Venez@@ 19
Wur@@ 19
addi@@ 19
adol@@ 19
airman 19
ajo 19
alen 19
alum@@ 19
alya 19
anl@@ 19
approxim@@ 19
ately 19
beg@@ 19
cola 19
compet@@ 19
conse@@ 19
dad 19
dig 19
disco@@ 19
eas 19
efs 19
encia 19
enst@@ 19
ensus 19
erh@@ 19
esen 19
esha 19
esper@@ 19
firm@@ 19
giz@@ 19
going 19
hay@@ 19
hiv@@ 19
ibu 19
independ@@ 19
ismus 19
jap@@ 19
jia 19
kaz@@ 19
kun@@ 19
lead@@ 19
lie@@ 19
liner 19
liqu@@ 19
logo 19
mans 19
mich@@ 19
millions 19
mont@@ 19
nant 19
narr@@ 19
naval 19
officer 19
offici@@ 19
onz@@ 19
oppos@@ 19
pay 19
premi@@ 19
president 19
principal 19
professor 19
raz@@ 19
rend@@ 19
seen 19
simil@@ 19
specif@@ 19
student 19
sub 19
sul 19
tas 19
techniques 19
terr@@ 19
tien 19
tur 19
utar@@ 19
uten 19
village 19
wag@@ 19
wed 19
writ@@ 19
zam@@ 19
¡ 19
ħ 19
ħ@@ 19
ś@@ 19
Ž 19
ɕ@@ 19
ɛ@@ 19
ˋ@@ 19
ˌ 19
̚@@ 19
̤@@ 19
Λ@@ 19
ρι@@ 19
σι@@ 19
Ц@@ 19
ва@@ 19
и@@ 19
к 19
ка@@ 19
на 19
х@@ 19
ү@@ 19
ت@@ 19
ست@@ 19
و 19
ين@@ 19
ܝ@@ 19
वि@@ 19
ப@@ 19
ຽ@@ 19
დ 19
ჷ 19
ន 19
ួ@@ 19
ḍ 19
ṇ@@ 19
ậ 19
● 19
〜@@ 19
え 19
か 19
ぎ@@ 19
び@@ 19
る 19
ト 19
ㄧ@@ 19
位@@ 19
傑@@ 19
刘@@ 19
原 19
太平@@ 19
孙@@ 19
客@@ 19
寿@@ 19
尉@@ 19
尊@@ 19
巴@@ 19
念@@ 19
晉@@ 19
池@@ 19
浦@@ 19
画@@ 19
穆@@ 19
組@@ 19
縣 19
舞@@ 19
范@@ 19
蓮@@ 19
處@@ 19
蜀@@ 19
論@@ 19
諸@@ 19
豆@@ 19
遠@@ 19
雙@@ 19
계@@ 19
반@@ 19
오@@ 19
용@@ 19
일@@ 19
Bras@@ 18
Castro 18
Ce 18
Ciudad 18
Graf 18
Haf@@ 18
Hai 18
Hamburg 18
Kentucky 18
Kik@@ 18
Kinder@@ 18
Many 18
Mez@@ 18
Minn@@ 18
Mississippi 18
Rugby 18
Schles@@ 18
Serie 18
Since 18
Teatro 18
Viz@@ 18
Wah@@ 18
adan 18
administration 18
agricul@@ 18
alto 18
anno@@ 18
appen 18
attr@@ 18
atz@@ 18
basis 18
bra@@ 18
bron@@ 18
chev@@ 18
constr@@ 18
contempor@@ 18
cula 18
decision 18
dies@@ 18
dows 18
droit 18
eig@@ 18
enario 18
encore 18
endre 18
enk@@ 18
excep@@ 18
fili@@ 18
follow@@ 18
franch@@ 18
future 18
genes 18
goals 18
gut 18
higher 18
hous@@ 18
iba 18
igne 18
imba 18
isches 18
isine 18
kid@@ 18
leur 18
meter 18
mina 18
month 18
motiv@@ 18
nay 18
nig 18
nim@@ 18
novi@@ 18
numer@@ 18
ombi@@ 18
ouver 18
paral@@ 18
patri@@ 18
pek@@ 18
pera 18
popul@@ 18
probl@@ 18
publique 18
question 18
sanc@@ 18
sans 18
sculp@@ 18
should 18
singles 18
six 18
southern 18
stanbul 18
stant@@ 18
tiles 18
ttem@@ 18
ug 18
umba 18
undi 18
urban@@ 18
uza 18
veau 18
veloc@@ 18
yen@@ 18
ympi@@ 18
ɔ@@ 18
ʒ@@ 18
ξ 18
ξ@@ 18
τερ@@ 18
Я 18
а@@ 18
й@@ 18
я 18
الله 18
ذ@@ 18
ري@@ 18
وَ@@ 18
ي 18
ट@@ 18
ता@@ 18
ह@@ 18
ဟ@@ 18
ộ 18
ờ 18
ἄ@@ 18
≡ 18
♪ 18
ク 18
ヘ@@ 18
丸@@ 18
伏@@ 18
內@@ 18
刀@@ 18
則@@ 18
双@@ 18
城 18
変@@ 18
威@@ 18
孔@@ 18
宁@@ 18
居@@ 18
川 18
州 18
延@@ 18
憲@@ 18
月 18
桃@@ 18
梨@@ 18
派@@ 18
游@@ 18
為@@ 18
父@@ 18
破@@ 18
社 18
罗@@ 18
聞@@ 18
胤@@ 18
血@@ 18
解@@ 18
遼@@ 18
闘@@ 18
靖@@ 18
頭@@ 18
頼@@ 18
니@@ 18
랑@@ 18
북@@ 18
아 18
야@@ 18
트@@ 18
 18
Arsen@@ 17
Bahn 17
Colomb@@ 17
Desp@@ 17
Distr@@ 17
Er 17
Gesellschaft 17
INSE@@ 17
Kup@@ 17
Leipzig 17
Mal 17
Mann 17
Marse@@ 17
Muh@@ 17
Pablo 17
Sie@@ 17
Stadt@@ 17
Stell@@ 17
Theo 17
Uch@@ 17
Uta@@ 17
Viet@@ 17
adop@@ 17
afa 17
aill@@ 17
aille 17
aina 17
aines 17
along 17
architec@@ 17
available 17
best@@ 17
champ@@ 17
chs 17
eget@@ 17
eight 17
eln 17
etu 17
eyi 17
featur@@ 17
gew@@ 17
gri@@ 17
implement@@ 17
including 17
inde 17
izi 17
kuh@@ 17
maf@@ 17
matr@@ 17
mm@@ 17
mw@@ 17
oder 17
oine 17
oras 17
osen 17
outside 17
preser@@ 17
prince 17
replaced 17
sali@@ 17
scher 17
sector 17
sent@@ 17
sour@@ 17
spect@@ 17
stra@@ 17
surviv@@ 17
suspen@@ 17
tet 17
themselves 17
vai 17
wana 17
wes@@ 17
wig 17
witz 17
xo@@ 17
yap@@ 17
zt 17
zw@@ 17
ô@@ 17
Ł 17
ł@@ 17
ɔ 17
ʔ@@ 17
̍@@ 17
Ε@@ 17
Λ 17
Τ@@ 17
Χ@@ 17
αγ@@ 17
ζ@@ 17
ον 17
д@@ 17
ни@@ 17
ская 17
ъ 17
آ@@ 17
تَ@@ 17
ध@@ 17
ຼ@@ 17
ྱ@@ 17
ဗ@@ 17
် 17
ლ@@ 17
៉@@ 17
Ḥ 17
‡ 17
Ⅲ@@ 17
【 17
ほ@@ 17
り 17
チ 17
中央@@ 17
亂@@ 17
于@@ 17
俊@@ 17
博@@ 17
字 17
宜@@ 17
形@@ 17
房@@ 17
无@@ 17
曾@@ 17
桓@@ 17
注@@ 17
洛@@ 17
洞@@ 17
版@@ 17
禧@@ 17
落@@ 17
虫@@ 17
贵@@ 17
農@@ 17
追@@ 17
鄉@@ 17
際@@ 17
고 17
노@@ 17
학@@ 17
황@@ 17
Alger@@ 16
Ame@@ 16
Ard@@ 16
Argent@@ 16
Atlanta 16
Bek@@ 16
Bres@@ 16
Deutschland 16
Dez@@ 16
Ener@@ 16
Erz@@ 16
Fren@@ 16
Geb@@ 16
Graf@@ 16
Heim@@ 16
Jim@@ 16
Kaf@@ 16
Kunst@@ 16
Lehr@@ 16
Nieder@@ 16
Ontario 16
Quang 16
Republik 16
Rus 16
Sich@@ 16
Situation 16
Telev@@ 16
Thanh 16
Tube 16
Virgin@@ 16
Yug@@ 16
ablo 16
ably 16
acio 16
adas 16
aires 16
alien 16
ambre 16
anca 16
announced 16
anz 16
arte 16
aub@@ 16
author@@ 16
axe 16
began 16
bomb@@ 16
brit@@ 16
century 16
characters 16
competi@@ 16
dil 16
eaux 16
ebu 16
eger 16
eiro 16
elem@@ 16
equip@@ 16
exerc@@ 16
explic@@ 16
explor@@ 16
fav@@ 16
fig@@ 16
fit 16
gave 16
gestion 16
gil@@ 16
hab 16
hausen 16
highest 16
hr 16
idas 16
ien@@ 16
igned 16
isses 16
iten 16
kata 16
kub@@ 16
league 16
lik 16
lois 16
lowing 16
manif@@ 16
mara 16
maz@@ 16
mittee 16
mut 16
named 16
nde 16
nin@@ 16
nuc@@ 16
onship 16
past 16
piano 16
plu@@ 16
pris 16
prison@@ 16
reached 16
religious 16
reve@@ 16
said 16
satis@@ 16
selected 16
sent 16
succes@@ 16
suppl@@ 16
tek@@ 16
tend 16
terres@@ 16
tima 16
tung 16
undo 16
usi 16
verw@@ 16
wand@@ 16
yal 16
yen 16
zin 16
»@@ 16
Ä 16
ð@@ 16
ò@@ 16
Ş 16
ư 16
ʃ 16
Θ 16
έ@@ 16
ει@@ 16
ελ@@ 16
όν@@ 16
И 16
ба@@ 16
ми@@ 16
ци@@ 16
ч@@ 16
ь@@ 16
ћ@@ 16
ա@@ 16
ֵ@@ 16
ה 16
י 16
لا@@ 16
ک@@ 16
ܐ 16
अ@@ 16
का@@ 16
य 16
ா@@ 16
กรกฎ@@ 16
མ@@ 16
ခ@@ 16
ဘ@@ 16
ါ@@ 16
ံ@@ 16
ნ 16
ថ@@ 16
៊@@ 16
ṃ@@ 16
‹@@ 16
※ 16
♦ 16
ⴰ@@ 16
『@@ 16
の 16
ら 16
ィ 16
乾@@ 16
传@@ 16
佐@@ 16
佳@@ 16
傅@@ 16
功@@ 16
医@@ 16
去@@ 16
婆@@ 16
崇@@ 16
布@@ 16
当@@ 16
彭@@ 16
復@@ 16
探@@ 16
早@@ 16
果@@ 16
極@@ 16
榮@@ 16
欢@@ 16
步@@ 16
洲@@ 16
淑@@ 16
灣@@ 16
然@@ 16
照@@ 16
瑞@@ 16
用@@ 16
留@@ 16
發@@ 16
祝@@ 16
竜@@ 16
竹@@ 16
総@@ 16
總@@ 16
红@@ 16
船@@ 16
菜@@ 16
說@@ 16
説@@ 16
謎@@ 16
豊@@ 16
逆@@ 16
造@@ 16
遷@@ 16
鍾@@ 16
隋@@ 16
靈@@ 16
는 16
다 16
만@@ 16
심@@ 16
크@@ 16
파@@ 16
3,5 15
Alem@@ 15
Braun@@ 15
Bulgar@@ 15
Dies 15
Eigen@@ 15
Eug@@ 15
Ferdin@@ 15
Giov@@ 15
Hamil@@ 15
Haupt@@ 15
Hitler 15
However 15
Moy@@ 15
Nazi 15
Norman@@ 15
Qualif@@ 15
Rez@@ 15
Schi@@ 15
Schl@@ 15
Sos@@ 15
Stim@@ 15
Unter@@ 15
Wiener 15
Wisconsin 15
XVIII 15
aben 15
adel@@ 15
agement 15
alifor@@ 15
anh 15
anime 15
appeared 15
attemp@@ 15
ausen 15
azo 15
beginning 15
buch 15
champi@@ 15
championship 15
cht@@ 15
collaboration 15
confirm@@ 15
continued 15
dah@@ 15
debut 15
dida 15
diplom@@ 15
divid@@ 15
eigen@@ 15
enor@@ 15
enos 15
estro 15
estu@@ 15
eurs 15
exist@@ 15
federal 15
gek@@ 15
hali@@ 15
hau@@ 15
having 15
hof 15
ieved 15
ikia 15
inat@@ 15
incorpor@@ 15
industri@@ 15
industrial 15
innov@@ 15
interpret@@ 15
invol@@ 15
issen 15
izo 15
jard@@ 15
kum 15
kus 15
liga 15
links 15
mash@@ 15
moment 15
names 15
naz@@ 15
often 15
organis@@ 15
parts 15
pez 15
progr@@ 15
provid@@ 15
provided 15
pu 15
roman@@ 15
seau 15
sibl@@ 15
sich@@ 15
similar 15
sola 15
subsequ@@ 15
taken 15
theater 15
tras 15
use@@ 15
wann 15
yana 15
yaz@@ 15
yor 15
zog 15
º 15
¾ 15
Í 15
þ 15
ă@@ 15
ő@@ 15
ř 15
Ρ@@ 15
ακ@@ 15
αν@@ 15
κα@@ 15
З@@ 15
М@@ 15
ру@@ 15
ь 15
א 15
الس@@ 15
رَ@@ 15
ق 15
ى 15
া 15
ి@@ 15
ు@@ 15
พฤศจิ@@ 15
฿@@ 15
ာ 15
მ@@ 15
ხ@@ 15
ჽ 15
២ 15
ᡳ@@ 15
ṛ 15
ἰ@@ 15
《 15
き 15
ぐ@@ 15
ざ@@ 15
づ@@ 15
ア 15
ㄨ@@ 15
书@@ 15
亮@@ 15
倉@@ 15
倫@@ 15
共和@@ 15
半@@ 15
及@@ 15
哈@@ 15
嗣@@ 15
头@@ 15
夷@@ 15
奈@@ 15
尔@@ 15
尼@@ 15
幻@@ 15
提@@ 15
支@@ 15
改@@ 15
望@@ 15
机@@ 15
杜@@ 15
格@@ 15
樹@@ 15
毒@@ 15
浪@@ 15
潘@@ 15
牙@@ 15
珠@@ 15
璋@@ 15
田 15
督@@ 15
系@@ 15
芳@@ 15
菩@@ 15
蒙@@ 15
蜜@@ 15
语@@ 15
軍 15
連@@ 15
铁@@ 15
雍@@ 15
鹿@@ 15
黑@@ 15
거@@ 15
미@@ 15
애@@ 15
은@@ 15
이 15
재@@ 15
후 15
희@@ 15
􀂃 15
Cen@@ 14
Consejo 14
Copa 14
Description 14
During 14
Eduardo 14
Escu@@ 14
Famili@@ 14
Francia 14
Guadal@@ 14
Kip@@ 14
Kirch@@ 14
Klo@@ 14
Liver@@ 14
Mundial 14
Must@@ 14
Napo@@ 14
Papua 14
Politi@@ 14
Rek@@ 14
Roma 14
Seine 14
Span@@ 14
Spiel@@ 14
Stadt 14
Thu@@ 14
Turkana 14
Ung@@ 14
Wehr@@ 14
Zwe@@ 14
abila 14
according 14
added 14
allow 14
ansa 14
archit@@ 14
assist@@ 14
astronom@@ 14
atori@@ 14
auch 14
auff@@ 14
aume 14
awarded 14
bahn 14
batt@@ 14
because 14
bio 14
brother 14
changes 14
closed 14
confer@@ 14
conform@@ 14
crim@@ 14
daughter 14
decor@@ 14
dek 14
dest@@ 14
det 14
eim@@ 14
enas 14
endem@@ 14
endorf 14
enem@@ 14
erb@@ 14
espace 14
estim@@ 14
ffen 14
fie 14
forces 14
forma 14
fort@@ 14
gru@@ 14
guar@@ 14
hall@@ 14
houses 14
icos 14
idos 14
ifa 14
ift@@ 14
ilan 14
illet 14
indi 14
individual 14
isho 14
itos 14
itself 14
jah@@ 14
jazz 14
jou@@ 14
jour@@ 14
juni@@ 14
kop@@ 14
lac 14
macht 14
meister 14
mexic@@ 14
nad@@ 14
oles 14
ologne 14
onte 14
opin@@ 14
ortho@@ 14
oslav@@ 14
osu 14
oza 14
pero 14
pied 14
plays 14
police 14
prac@@ 14
prit 14
puls@@ 14
qualif@@ 14
registr@@ 14
religi@@ 14
results 14
roqu@@ 14
schw@@ 14
sek 14
sept 14
significant 14
sociation 14
success@@ 14
temps 14
tish 14
tsch@@ 14
usually 14
vide@@ 14
vig@@ 14
vive 14
voy@@ 14
vu 14
wah@@ 14
wur@@ 14
zis@@ 14
ż 14
ɡ@@ 14
Θ@@ 14
ία 14
ιν@@ 14
λι@@ 14
τη@@ 14
χ 14
ύ@@ 14
ών@@ 14
го@@ 14
ִ@@ 14
ח@@ 14
ט@@ 14
ל 14
ام@@ 14
را@@ 14
عبد 14
ون@@ 14
ܠ@@ 14
ނ@@ 14
महा@@ 14
मा@@ 14
र 14
ਕ@@ 14
ਾ@@ 14
ਿ@@ 14
โนโล@@ 14
ໍ@@ 14
ჶ@@ 14
រ 14
‑ 14
→@@ 14
⊕@@ 14
ⲁ@@ 14
こ 14
し 14
ぞ@@ 14
と 14
に 14
ぶ@@ 14
与@@ 14
义@@ 14
亭@@ 14
仔@@ 14
克@@ 14
兒@@ 14
共@@ 14
列@@ 14
到@@ 14
刺@@ 14
匡@@ 14
受@@ 14
右@@ 14
圣@@ 14
堯@@ 14
壽@@ 14
奉@@ 14
奖@@ 14
奴@@ 14
好@@ 14
嬪@@ 14
宗 14
岡@@ 14
崎@@ 14
干@@ 14
开@@ 14
強@@ 14
征@@ 14
律@@ 14
恵@@ 14
慧@@ 14
手 14
指@@ 14
村 14
柴@@ 14
梦@@ 14
次@@ 14
浙@@ 14
渡@@ 14
湘@@ 14
烏@@ 14
牛@@ 14
由@@ 14
私@@ 14
編@@ 14
节@@ 14
薛@@ 14
街@@ 14
要@@ 14
观@@ 14
計@@ 14
足@@ 14
載@@ 14
輝@@ 14
陆@@ 14
震@@ 14
霸@@ 14
韩@@ 14
魯@@ 14
鴻@@ 14
가 14
백@@ 14
삼@@ 14
을 14
Alpes 13
Arap@@ 13
Assemb@@ 13
Bev@@ 13
Bisch@@ 13
Cuba 13
Ef@@ 13
Ein 13
Eliz@@ 13
Ethiop@@ 13
Felipe 13
Frit@@ 13
Grab@@ 13
Haus 13
Hispania 13
Kriegs@@ 13
Machi 13
Mehr@@ 13
Ms@@ 13
Nh@@ 13
Partido 13
Salaam 13
Serbia 13
Siv@@ 13
Sta@@ 13
Valencia 13
Vladi@@ 13
Yugoslav@@ 13
Zentr@@ 13
Zimbab@@ 13
aday 13
addition 13
afor@@ 13
aje 13
akawa 13
almost 13
andes 13
antas@@ 13
appearance 13
appel 13
arily 13
army 13
atmos@@ 13
ayr@@ 13
bald 13
bang 13
bare 13
behind 13
bras@@ 13
cartes 13
certain 13
cet 13
changed 13
chef 13
clas@@ 13
classes 13
coach 13
comes 13
commerce 13
commercial 13
composition 13
considered 13
currently 13
dans 13
dered 13
diffic@@ 13
drei 13
egem@@ 13
eit@@ 13
elas 13
eos 13
equi@@ 13
eski 13
europ@@ 13
fest@@ 13
forced 13
garde 13
group@@ 13
hay 13
hus@@ 13
ickl@@ 13
illas 13
illustr@@ 13
invent@@ 13
iran 13
isme 13
issi@@ 13
jas 13
kana 13
kea 13
lai 13
lama 13
leist@@ 13
manufactur@@ 13
manus@@ 13
meng@@ 13
monum@@ 13
mot 13
oce 13
older 13
ondo@@ 13
partition 13
propag@@ 13
railway 13
recht 13
reti@@ 13
roi 13
schwe@@ 13
sell 13
senior 13
seri 13
serving 13
sey@@ 13
siz@@ 13
spap@@ 13
stel@@ 13
studi@@ 13
symbol@@ 13
takes 13
there@@ 13
tif 13
tradi@@ 13
transform@@ 13
trou@@ 13
ulia 13
uvent@@ 13
vit 13
wash@@ 13
wife 13
yet@@ 13
zim@@ 13
³@@ 13
´ 13
¹ 13
î@@ 13
ɴ 13
ˇ@@ 13
ˑ@@ 13
Α@@ 13
Ι@@ 13
Μ@@ 13
Φιλ@@ 13
ειν@@ 13
κλ@@ 13
κο@@ 13
στ@@ 13
ώ@@ 13
Ш@@ 13
б@@ 13
е 13
мо@@ 13
не 13
ри@@ 13
ַ@@ 13
ג@@ 13
ן@@ 13
פ@@ 13
الح@@ 13
سی@@ 13
قَ@@ 13
مو@@ 13
مي@@ 13
مِ@@ 13
ܘ@@ 13
ܪ@@ 13
ܫ@@ 13
ं 13
ङ@@ 13
ी@@ 13
ল@@ 13
ฦ 13
ิ่ม@@ 13
฿ 13
ໂ@@ 13
ໄ@@ 13
འ@@ 13
ེ@@ 13
ူ@@ 13
გ@@ 13
ឋ@@ 13
ឹ@@ 13
ៅ@@ 13
ḍ@@ 13
↑@@ 13
↔ 13
⟨@@ 13
』@@ 13
す 13
为@@ 13
亚@@ 13
便@@ 13
兴@@ 13
军@@ 13
刑@@ 13
劍@@ 13
品@@ 13
孟@@ 13
宏@@ 13
室@@ 13
容@@ 13
幸@@ 13
店@@ 13
待@@ 13
得@@ 13
必@@ 13
忍@@ 13
恐@@ 13
拓@@ 13
放@@ 13
斯@@ 13
旗@@ 13
映@@ 13
暗@@ 13
本 13
杨@@ 13
根@@ 13
桥@@ 13
殊@@ 13
段@@ 13
沖@@ 13
活@@ 13
淮@@ 13
深@@ 13
温@@ 13
熙@@ 13
生 13
申@@ 13
番@@ 13
登@@ 13
砂@@ 13
礼@@ 13
禮@@ 13
童@@ 13
純@@ 13
結@@ 13
襲@@ 13
象@@ 13
資@@ 13
邦@@ 13
郷@@ 13
鄧@@ 13
镇@@ 13
际@@ 13
隠@@ 13
顔@@ 13
马@@ 13
麟@@ 13
궁@@ 13
단@@ 13
말@@ 13
별@@ 13
송@@ 13
숙@@ 13
승@@ 13
평@@ 13
￼ 13
Afrika 12
Ago@@ 12
Amerika 12
Anto@@ 12
Bremen 12
Dar 12
Ej@@ 12
Enrique 12
Frei@@ 12
Grund@@ 12
Guerra 12
Hek@@ 12
Hy 12
Instituto 12
Ital@@ 12
Janu@@ 12
Kenya 12
Kunst 12
Maine 12
Meter 12
Ort@@ 12
Ruh@@ 12
Santi@@ 12
Serv@@ 12
Sus 12
Vak@@ 12
Vier@@ 12
Winter@@ 12
Yen@@ 12
Yoh@@ 12
acces@@ 12
adores 12
agua 12
aki@@ 12
anst@@ 12
arded 12
argent 12
artists 12
aters 12
atz 12
bara 12
benef@@ 12
bibli@@ 12
bien 12
bil 12
built 12
campaign 12
cara 12
correspond@@ 12
dad@@ 12
destruc@@ 12
deutsche 12
dram@@ 12
eci 12
eden@@ 12
editor 12
elen@@ 12
ellen 12
elos 12
emu 12
engo 12
esqu@@ 12
exter@@ 12
fah@@ 12
famous 12
featured 12
few 12
financial 12
further 12
guer@@ 12
gyp@@ 12
hem 12
himself 12
huo 12
ichen 12
icht 12
iler@@ 12
impres@@ 12
impro@@ 12
inden 12
individu@@ 12
ingly 12
install@@ 12
investig@@ 12
ischen 12
jen@@ 12
journ@@ 12
kem@@ 12
libre 12
lichen 12
lima 12
limit@@ 12
longer 12
mano 12
mee 12
metre 12
mg@@ 12
mobil@@ 12
monde 12
namo 12
neur 12
octo@@ 12
oise 12
otra 12
otz 12
places 12
produced 12
publication 12
rebel@@ 12
reich@@ 12
remain@@ 12
requi@@ 12
rique 12
separate 12
sett@@ 12
sos@@ 12
suj@@ 12
taire 12
taking 12
ted@@ 12
tek 12
teria 12
ticia 12
tige 12
tionn@@ 12
tracks 12
uer 12
ume@@ 12
umes 12
unde 12
ungen 12
unia 12
upe 12
vania 12
vita 12
vy@@ 12
wam@@ 12
weg 12
yab@@ 12
yans@@ 12
±@@ 12
É@@ 12
Ô 12
Ø@@ 12
÷@@ 12
đ@@ 12
ė 12
ţ 12
ʌ@@ 12
ʾ 12
ʾ@@ 12
˚ 12
˥@@ 12
̀@@ 12
̪@@ 12
Β@@ 12
Γ 12
μα 12
πο@@ 12
τ 12
Г 12
Е@@ 12
ар@@ 12
в 12
во@@ 12
д 12
ра@@ 12
у@@ 12
ן 12
اب@@ 12
الر@@ 12
بَ@@ 12
فَ@@ 12
محمد 12
ن 12
ं@@ 12
थ@@ 12
नि@@ 12
नी@@ 12
राज@@ 12
ै 12
ਰ@@ 12
ੰ@@ 12
พื้@@ 12
ც@@ 12
ញ@@ 12
ឧ@@ 12
ắ 12
ῆ@@ 12
∆ 12
○ 12
♡@@ 12
⟩ 12
く 12
ぼ@@ 12
ズ 12
下 12
丞@@ 12
亥@@ 12
優@@ 12
兄@@ 12
其@@ 12
切@@ 12
制@@ 12
卓@@ 12
危@@ 12
叉 12
君 12
咲@@ 12
國民@@ 12
團@@ 12
声@@ 12
夕@@ 12
奥@@ 12
完@@ 12
宫@@ 12
寒@@ 12
巨@@ 12
帥@@ 12
平 12
年 12
庄@@ 12
庆@@ 12
府 12
彩@@ 12
想@@ 12
懷@@ 12
料@@ 12
於@@ 12
施@@ 12
旅@@ 12
时@@ 12
暴@@ 12
杭@@ 12
浮@@ 12
湯@@ 12
熹@@ 12
珍@@ 12
病@@ 12
皇 12
睿@@ 12
祐@@ 12
笑@@ 12
粉@@ 12
絵@@ 12
綱@@ 12
織@@ 12
肅@@ 12
般@@ 12
茂@@ 12
藩@@ 12
蛇@@ 12
衡@@ 12
記 12
誠@@ 12
速@@ 12
邪@@ 12
钱@@ 12
频@@ 12
飯@@ 12
骨@@ 12
걸@@ 12
금@@ 12
덕@@ 12
래@@ 12
바@@ 12
석@@ 12
운@@ 12
은 12
타@@ 12
﻿ 12
.000 11
2,5 11
Berliner 11
Brasil 11
Bundesliga 11
Flug@@ 11
Frau@@ 11
Geh@@ 11
Ghana 11
Grupo 11
Hannover 11
Ingen@@ 11
Johann@@ 11
Kauf@@ 11
Kend@@ 11
Ligue 11
Lima 11
Museo 11
Nguy@@ 11
Origin@@ 11
Osman@@ 11
Oy 11
Par 11
Rafael 11
Renn@@ 11
Rica 11
Syria 11
Valle 11
Wald@@ 11
Wien 11
activities 11
adver@@ 11
agnie 11
albums 11
americ@@ 11
anco 11
aras@@ 11
arias 11
became 11
become 11
bek 11
bey@@ 11
bili@@ 11
bir 11
bire@@ 11
came 11
cera 11
chez 11
cil@@ 11
cina 11
coloni@@ 11
comb@@ 11
commission 11
commune 11
competition 11
conoc@@ 11
dedic@@ 11
designed 11
deutsch@@ 11
died 11
dik@@ 11
duc 11
duk@@ 11
eben@@ 11
eja 11
elde 11
endant 11
ense@@ 11
erre@@ 11
established 11
favor@@ 11
fica 11
grande 11
gruppe 11
hak 11
hie 11
however 11
icht@@ 11
iges 11
ilde 11
imbo 11
inay@@ 11
incre@@ 11
infan@@ 11
instead 11
isti 11
istre 11
jed@@ 11
kat 11
launched 11
lern 11
liche 11
lieb 11
located 11
loi 11
mak 11
mch@@ 11
mek@@ 11
nek 11
nhof 11
nou@@ 11
obst@@ 11
oren 11
orf 11
osha 11
partement 11
particular 11
performed 11
pik 11
previously 11
primer 11
rail@@ 11
rien 11
roman 11
rur@@ 11
saint 11
sana 11
schi@@ 11
schle@@ 11
sif 11
sti 11
stud@@ 11
success 11
thiop@@ 11
victory 11
villa 11
visit@@ 11
wale 11
wart 11
werk 11
west@@ 11
yav@@ 11
yor@@ 11
zem@@ 11
zil@@ 11
¥ 11
Þ 11
ê@@ 11
ø@@ 11
ĩ 11
ş@@ 11
ɑ 11
ʊ 11
ˊ@@ 11
Ο@@ 11
ι 11
ικ@@ 11
νη@@ 11
οπ@@ 11
τι@@ 11
τος 11
όν 11
Рес@@ 11
То@@ 11
Ч@@ 11
а 11
бе@@ 11
да@@ 11
ла@@ 11
ный 11
с 11
са@@ 11
ска 11
ский 11
ха@@ 11
ֶ@@ 11
ֹ@@ 11
أ@@ 11
الأ@@ 11
الم@@ 11
اه@@ 11
بُ@@ 11
بِ@@ 11
في 11
لِ@@ 11
ما 11
نَ@@ 11
ور@@ 11
چ@@ 11
ڠ 11
ی 11
ܬ@@ 11
ः 11
कु@@ 11
ति@@ 11
देवी 11
वा@@ 11
ॐ 11
ন@@ 11
ু@@ 11
্@@ 11
ਸ@@ 11
ச@@ 11
๎ 11
ဆ@@ 11
ữ 11
ỳ 11
ἐ@@ 11
ῦ@@ 11
  11
⅓ 11
ⵍ@@ 11
々@@ 11
』 11
お 11
け 11
た 11
て 11
ぬ@@ 11
゚ 11
ヶ@@ 11
乙@@ 11
井 11
亞@@ 11
他@@ 11
休@@ 11
俠@@ 11
偉@@ 11
兰@@ 11
再@@ 11
冬@@ 11
勢@@ 11
卿@@ 11
味@@ 11
圆@@ 11
坂@@ 11
坊@@ 11
坡@@ 11
奕@@ 11
姓@@ 11
姜@@ 11
峰@@ 11
幕@@ 11
庚@@ 11
徒@@ 11
悟@@ 11
意@@ 11
戒@@ 11
挑@@ 11
揚@@ 11
攻@@ 11
故@@ 11
敏@@ 11
晋@@ 11
案@@ 11
桐@@ 11
欽@@ 11
歲@@ 11
殷@@ 11
水 11
汗@@ 11
決@@ 11
津@@ 11
消@@ 11
淵@@ 11
溫@@ 11
滅@@ 11
灯@@ 11
狐@@ 11
狼@@ 11
略@@ 11
碧@@ 11
禹@@ 11
種@@ 11
突@@ 11
素@@ 11
終@@ 11
育@@ 11
自治@@ 11
莉@@ 11
莫@@ 11
蔣@@ 11
蔵@@ 11
襄@@ 11
视@@ 11
豹@@ 11
軌@@ 11
辭@@ 11
运@@ 11
錢@@ 11
锡@@ 11
雀@@ 11
雅@@ 11
静@@ 11
音 11
項@@ 11
類@@ 11
顺@@ 11
首@@ 11
鱼@@ 11
관@@ 11
국 11
나 11
는@@ 11
돈@@ 11
랑 11
복@@ 11
봉@@ 11
저@@ 11
직@@ 11
창@@ 11
？@@ 11
180@@ 10
Akadem@@ 10
Bey@@ 10
Bez@@ 10
Boliv@@ 10
Califor@@ 10
Christoph@@ 10
Congr@@ 10
Deux 10
Durch@@ 10
Elis@@ 10
Fes@@ 10
Gesch@@ 10
Haute 10
Hay 10
Kari@@ 10
Kih@@ 10
Macar@@ 10
Mara 10
Musik 10
Phi 10
Pia 10
Pour 10
Premio 10
Primera 10
Schn@@ 10
Schutz@@ 10
Sow@@ 10
Stuttgart 10
Uganda 10
abaj@@ 10
afr@@ 10
aft@@ 10
aji@@ 10
allowed 10
americana 10
antu 10
arri@@ 10
arten 10
asit@@ 10
barr@@ 10
bul 10
burger 10
champion 10
command@@ 10
competed 10
contro@@ 10
coul@@ 10
deal 10
decided 10
deleg@@ 10
denomin@@ 10
deo 10
difficul@@ 10
disc@@ 10
disco 10
ecke 10
enten 10
entire 10
erer 10
ergie 10
ersch@@ 10
exclus@@ 10
existence 10
faire 10
farm@@ 10
femme 10
funk@@ 10
herr@@ 10
honneur 10
hospit@@ 10
huy@@ 10
ifu@@ 10
income 10
introduc@@ 10
iten@@ 10
ivo 10
jana 10
kav@@ 10
kip@@ 10
km@@ 10
kuk 10
kup@@ 10
lak 10
larger 10
luk 10
mando 10
mascul@@ 10
mik@@ 10
ockey 10
offs 10
onio 10
perform@@ 10
popular@@ 10
porte 10
princi@@ 10
prior 10
quel 10
rej@@ 10
rence 10
rue 10
sala 10
schools 10
schul@@ 10
seh@@ 10
selves 10
signific@@ 10
songs 10
stations 10
successful 10
temp@@ 10
tiers 10
tiller@@ 10
tiv 10
tout 10
tradition 10
trains 10
trit@@ 10
ubic@@ 10
urt@@ 10
vel 10
vend@@ 10
verein 10
wala 10
wanda 10
whose 10
wie 10
winning 10
xico 10
zek@@ 10
zones 10
zuk@@ 10
zum 10
¬ 10
Å@@ 10
Ł@@ 10
Š@@ 10
ʼ@@ 10
Ν@@ 10
Σ 10
Ψ@@ 10
αι@@ 10
της 10
Ј@@ 10
Ж@@ 10
О 10
ве@@ 10
ди@@ 10
ки@@ 10
ко@@ 10
м 10
ро@@ 10
сти@@ 10
х 10
ц@@ 10
ца@@ 10
الج@@ 10
سي@@ 10
ك 10
لا 10
م 10
من 10
نا 10
وي@@ 10
ية 10
يُ@@ 10
پ@@ 10
ڤ@@ 10
ख@@ 10
् 10
ব@@ 10
ட@@ 10
ர@@ 10
ு@@ 10
మ@@ 10
ల@@ 10
ර@@ 10
ལ@@ 10
ྲ@@ 10
ဲ@@ 10
ბ@@ 10
ე@@ 10
ក 10
ង 10
ផ@@ 10
ៃ@@ 10
ៈ@@ 10
៌@@ 10
ḗ 10
ḷ 10
ṓ 10
ề 10
ủ 10
ứ 10
↑ 10
↗@@ 10
∈@@ 10
∑ 10
♡ 10
♪@@ 10
⟩@@ 10
ⲓ@@ 10
ⲛ@@ 10
ⲟ@@ 10
ち 10
つ 10
ま 10
ユ@@ 10
上 10
中國@@ 10
亜@@ 10
什@@ 10
介@@ 10
代 10
件@@ 10
众@@ 10
允@@ 10
元 10
光 10
典 10
協@@ 10
卷@@ 10
参@@ 10
史 10
圓@@ 10
场@@ 10
垣@@ 10
壇@@ 10
夫 10
妙@@ 10
安 10
実@@ 10
就@@ 10
屠@@ 10
島 10
己@@ 10
市 10
庭@@ 10
彼@@ 10
性@@ 10
感@@ 10
才@@ 10
敵@@ 10
時代 10
服@@ 10
朗@@ 10
朴@@ 10
東 10
歌 10
此@@ 10
气@@ 10
氣@@ 10
沈@@ 10
油@@ 10
泥@@ 10
淳@@ 10
滿@@ 10
澤@@ 10
焼@@ 10
煎@@ 10
爭@@ 10
班@@ 10
琪@@ 10
町@@ 10
異@@ 10
禁@@ 10
篇@@ 10
約@@ 10
維@@ 10
线@@ 10
翼@@ 10
胜@@ 10
航@@ 10
获@@ 10
葛@@ 10
薩@@ 10
藝@@ 10
藩 10
號@@ 10
蝶@@ 10
蟲@@ 10
衝@@ 10
被@@ 10
裕@@ 10
裴@@ 10
詩@@ 10
誕@@ 10
謙@@ 10
謝@@ 10
论@@ 10
话@@ 10
谢@@ 10
賊@@ 10
迎@@ 10
運@@ 10
部 10
里 10
錦@@ 10
鑑@@ 10
門 10
陽 10
隸@@ 10
霍@@ 10
頃@@ 10
飞@@ 10
馮@@ 10
高 10
魂@@ 10
鮮@@ 10
鼎@@ 10
齋@@ 10
각@@ 10
간@@ 10
빈 10
생@@ 10
서 10
즈@@ 10
지 10
철@@ 10
청@@ 10
티@@ 10
혜@@ 10
회@@ 10
효@@ 10
Afgh@@ 9
Arkansas 9
Bey 9
Bezir@@ 9
Bir 9
COVID 9
Centro 9
Depor@@ 9
Dresden 9
Eurovision 9
Fest@@ 9
Following 9
Heil@@ 9
Histori@@ 9
Ih@@ 9
Konstant@@ 9
Linc@@ 9
Luft@@ 9
Mt@@ 9
Nga 9
Nouv@@ 9
Siy@@ 9
Stif@@ 9
Tanz@@ 9
Tod 9
Town@@ 9
Uru@@ 9
Wach@@ 9
Wash@@ 9
XV@@ 9
Yay@@ 9
Yeni 9
abb@@ 9
acus@@ 9
adet 9
adil@@ 9
aises 9
alich@@ 9
alter 9
although 9
amor 9
anah@@ 9
arra 9
arrang@@ 9
arriv@@ 9
articles 9
assistant 9
auf 9
baj@@ 9
bau 9
baz@@ 9
bern@@ 9
bonne 9
bronze 9
canti@@ 9
carr@@ 9
cars 9
celebr@@ 9
cito 9
collabor@@ 9
companies 9
compens@@ 9
consider@@ 9
cultiv@@ 9
cultur@@ 9
decre@@ 9
defe@@ 9
doch 9
document@@ 9
east 9
either 9
enced 9
entre 9
estre 9
eten 9
etin 9
evin 9
fab@@ 9
film@@ 9
fourth 9
gos 9
grand@@ 9
grou@@ 9
hier 9
hoch@@ 9
homme 9
hospital 9
hud@@ 9
huu 9
icha 9
ifen 9
increase 9
iny@@ 9
isons 9
iw@@ 9
kali 9
kik@@ 9
kim 9
kirche 9
laborat@@ 9
lande 9
lao 9
lek@@ 9
lig 9
lina 9
lived 9
march@@ 9
miento 9
minister@@ 9
mite 9
ndi@@ 9
nous 9
occu@@ 9
olay@@ 9
opening 9
operations 9
ouvre 9
owned 9
paci@@ 9
parents 9
parte 9
petite 9
pier@@ 9
plaza 9
programs 9
prolong@@ 9
quan 9
redu@@ 9
reform 9
rum@@ 9
saba 9
secund@@ 9
served 9
sik@@ 9
spor@@ 9
succ@@ 9
tales 9
terms 9
terre 9
tions@@ 9
tivi@@ 9
township 9
tren@@ 9
uku@@ 9
usse 9
waz@@ 9
werke 9
ymnasium 9
zona 9
´@@ 9
Â 9
Ñ 9
Ö@@ 9
ń@@ 9
ź 9
Ż 9
ž@@ 9
ɣ@@ 9
ɯ@@ 9
ʈ@@ 9
̄@@ 9
̅@@ 9
̥ 9
Γ@@ 9
Φ@@ 9
άρ@@ 9
έρ@@ 9
ί 9
θη@@ 9
λόγ@@ 9
να@@ 9
ομ@@ 9
ου@@ 9
πα@@ 9
σκ@@ 9
ωρ@@ 9
В 9
Са@@ 9
У 9
Ш 9
г 9
евич 9
л 9
о 9
п@@ 9
т 9
то@@ 9
э 9
ѣ@@ 9
ר 9
الع@@ 9
الق@@ 9
ای@@ 9
وا 9
ܟ@@ 9
नम 9
पा@@ 9
पु@@ 9
री@@ 9
ম@@ 9
ర@@ 9
ా@@ 9
ຂ@@ 9
ນ 9
ໃ@@ 9
།@@ 9
ვ@@ 9
მ 9
ქ@@ 9
ឌ@@ 9
ឝ@@ 9
ឥ@@ 9
ᠠ@@ 9
ṯ@@ 9
ế@@ 9
ớ 9
ử 9
ὑ@@ 9
∘ 9
∨ 9
☉ 9
♭ 9
⟨ 9
『 9
さ 9
ず 9
せ 9
は 9
カ 9
ド 9
业@@ 9
亀@@ 9
令 9
健@@ 9
備@@ 9
像@@ 9
儿@@ 9
兩@@ 9
剛@@ 9
加@@ 9
務@@ 9
匈@@ 9
区 9
卒@@ 9
发@@ 9
句@@ 9
向@@ 9
啟@@ 9
团@@ 9
天 9
奖 9
姐@@ 9
嬪 9
対@@ 9
庸@@ 9
廷@@ 9
怖@@ 9
慎@@ 9
技@@ 9
掌@@ 9
收@@ 9
文 9
斎@@ 9
断@@ 9
昆@@ 9
晏@@ 9
术@@ 9
条 9
板@@ 9
棒@@ 9
森 9
沢@@ 9
漫@@ 9
漳@@ 9
熱@@ 9
片@@ 9
状@@ 9
玲@@ 9
現@@ 9
琳@@ 9
甫@@ 9
盧@@ 9
省 9
砕@@ 9
祿@@ 9
穎@@ 9
竇@@ 9
米@@ 9
翁@@ 9
耀@@ 9
而@@ 9
耳@@ 9
脱@@ 9
舊@@ 9
舜@@ 9
舟@@ 9
艺@@ 9
芙@@ 9
芝@@ 9
芸@@ 9
葉 9
葵@@ 9
虚@@ 9
虹@@ 9
覺@@ 9
談@@ 9
警@@ 9
记@@ 9
豐@@ 9
豪@@ 9
豫@@ 9
貢@@ 9
賜@@ 9
転@@ 9
进@@ 9
逢@@ 9
逸@@ 9
選@@ 9
邑@@ 9
金 9
闇@@ 9
防@@ 9
陛@@ 9
雄 9
集 9
靜@@ 9
願@@ 9
香 9
體@@ 9
鼠@@ 9
龐@@ 9
개@@ 9
그@@ 9
려@@ 9
메@@ 9
물@@ 9
식@@ 9
악@@ 9
어 9
엔@@ 9
위@@ 9
음@@ 9
자 9
주 9
준@@ 9
차@@ 9
프@@ 9
형@@ 9
 9
－@@ 9
5.000 8
Angola 8
Auf@@ 8
Bahn@@ 8
Bayern 8
Cathol@@ 8
Colombia 8
Como 8
Eig@@ 8
Fach@@ 8
Fuer@@ 8
Gast@@ 8
Guatemala 8
Hochschule 8
Internacional 8
Kent@@ 8
Kig@@ 8
Kran@@ 8
Mehmet 8
Mosk@@ 8
Pays 8
Pueb@@ 8
Schloss 8
Schwer@@ 8
Sein 8
Servic@@ 8
Sommer@@ 8
Tierra 8
Township 8
Verkehr@@ 8
Welt 8
actual 8
adora 8
aifa 8
algo 8
alles 8
amba@@ 8
ampi@@ 8
amt 8
annen 8
arro@@ 8
artisti@@ 8
atif 8
avec 8
bere@@ 8
biet@@ 8
cases 8
cias 8
cide 8
comme 8
como 8
conditions 8
consum@@ 8
deci@@ 8
destroy@@ 8
divi@@ 8
egal 8
einen 8
ekt 8
ellas 8
emble 8
emos 8
employ@@ 8
enden 8
energ@@ 8
entale 8
establ@@ 8
estas 8
expl@@ 8
fabri@@ 8
fahr@@ 8
failed 8
fak@@ 8
faz@@ 8
followed 8
fot@@ 8
franc@@ 8
generally 8
gericht 8
git@@ 8
gol 8
haa 8
hari@@ 8
honor@@ 8
iline 8
includes 8
indo 8
interpre@@ 8
intro@@ 8
islat@@ 8
itable 8
itali@@ 8
itions 8
jaw@@ 8
kuj@@ 8
laya 8
legisl@@ 8
lieu 8
lige 8
llam@@ 8
logr@@ 8
mez 8
ministr@@ 8
mittel@@ 8
monte 8
moved 8
municip@@ 8
municipal 8
municipality 8
nach 8
nach@@ 8
naci@@ 8
nicht 8
nne 8
noi 8
occident@@ 8
occup@@ 8
omba 8
ombo 8
onge@@ 8
ongo@@ 8
onie 8
oyn@@ 8
personnel 8
provincial 8
pru@@ 8
quer 8
rapid@@ 8
rather 8
recorded 8
remained 8
represented 8
respectiv@@ 8
retur@@ 8
riff 8
rir 8
sah@@ 8
schen 8
scored 8
several 8
shown 8
signed 8
siy@@ 8
soka 8
spons@@ 8
stelle 8
such@@ 8
sud 8
taine 8
teilung 8
tere 8
though 8
tier@@ 8
tival 8
tora 8
towards 8
trib@@ 8
trois 8
ungu 8
uvo 8
uw@@ 8
vier@@ 8
vile 8
vom 8
vu@@ 8
wach@@ 8
¿ 8
Ä@@ 8
È 8
ã@@ 8
û@@ 8
Ī 8
ů 8
ɒ 8
ʒ 8
ʿ@@ 8
̃@@ 8
̪ 8
Ψ 8
άν@@ 8
ή 8
δο@@ 8
ερ@@ 8
θε@@ 8
θος 8
οδ@@ 8
οφ@@ 8
υ 8
ων 8
Ма@@ 8
На@@ 8
Р 8
Ю@@ 8
Я@@ 8
ан@@ 8
бо@@ 8
вич 8
ж@@ 8
им@@ 8
ле@@ 8
ли@@ 8
ма@@ 8
ная 8
не@@ 8
о@@ 8
си@@ 8
со@@ 8
сто@@ 8
сь@@ 8
ти@@ 8
эн@@ 8
ө 8
ׁ@@ 8
כ@@ 8
ء@@ 8
الص@@ 8
ت 8
ج 8
ح 8
د 8
دي@@ 8
رة 8
ف 8
قُ@@ 8
لو@@ 8
مت 8
مُ@@ 8
ول@@ 8
يد 8
َّ 8
ܒ@@ 8
ܡ@@ 8
ܩ@@ 8
ँ@@ 8
ंद@@ 8
कर@@ 8
गो@@ 8
घ@@ 8
ने@@ 8
भाषा@@ 8
रह@@ 8
रि@@ 8
लि@@ 8
वर@@ 8
सं@@ 8
सत@@ 8
র@@ 8
ੁ@@ 8
ି@@ 8
ங@@ 8
ன@@ 8
ல@@ 8
್@@ 8
്@@ 8
්@@ 8
พร้อ@@ 8
๎@@ 8
๚@@ 8
ཁ@@ 8
པ@@ 8
ဂ@@ 8
ဃ@@ 8
უ 8
ჲ 8
ប 8
ម 8
យ 8
ៀ@@ 8
ំ 8
ṛ@@ 8
ằ 8
ợ 8
Ἰ@@ 8
‏@@ 8
⁠@@ 8
⌋ 8
ⲙ@@ 8
【@@ 8
あ 8
ぜ@@ 8
へ 8
ぽ@@ 8
を 8
ブ 8
ヲ@@ 8
世 8
中 8
二 8
们@@ 8
份@@ 8
侠@@ 8
倭@@ 8
僕@@ 8
儂@@ 8
儒@@ 8
儼@@ 8
关@@ 8
冠@@ 8
冰@@ 8
午@@ 8
卫@@ 8
历@@ 8
叔@@ 8
口 8
叶@@ 8
后 8
员@@ 8
咸@@ 8
哀@@ 8
員@@ 8
国家@@ 8
執@@ 8
報@@ 8
塞@@ 8
境@@ 8
娥@@ 8
媧@@ 8
宵@@ 8
家 8
寄@@ 8
察@@ 8
射@@ 8
将 8
岛@@ 8
差@@ 8
希@@ 8
広@@ 8
座@@ 8
廟@@ 8
弥@@ 8
從@@ 8
忘@@ 8
怒@@ 8
悲@@ 8
惑@@ 8
懐@@ 8
所 8
打@@ 8
护@@ 8
报@@ 8
拔@@ 8
拜@@ 8
敖@@ 8
有限@@ 8
末@@ 8
樓@@ 8
権@@ 8
横@@ 8
權@@ 8
歐@@ 8
武 8
汤@@ 8
汪@@ 8
浩@@ 8
溥@@ 8
瀬@@ 8
点@@ 8
独@@ 8
猿@@ 8
環@@ 8
皮@@ 8
監@@ 8
看@@ 8
県@@ 8
眼@@ 8
第 8
管@@ 8
範@@ 8
級@@ 8
索@@ 8
紹@@ 8
絕@@ 8
绪@@ 8
网@@ 8
罪@@ 8
羊@@ 8
群@@ 8
羲@@ 8
耶@@ 8
聯@@ 8
腳@@ 8
至@@ 8
苦@@ 8
萨@@ 8
蟲 8
表@@ 8
裏@@ 8
製@@ 8
誰@@ 8
讓@@ 8
財@@ 8
賀@@ 8
贝@@ 8
輔@@ 8
輪@@ 8
辰@@ 8
迪@@ 8
送@@ 8
運動@@ 8
邵@@ 8
郎 8
醫@@ 8
閃@@ 8
閣@@ 8
閩@@ 8
院 8
陶@@ 8
険@@ 8
青 8
響@@ 8
餅@@ 8
龍 8
건@@ 8
근@@ 8
기 8
내@@ 8
돌@@ 8
드@@ 8
들@@ 8
량@@ 8
목@@ 8
빠@@ 8
상 8
설@@ 8
암@@ 8
야 8
요 8
좋@@ 8
초@@ 8
화 8
@@ 8
－ 8
1.000 7
According 7
Alfre@@ 7
Alter 7
Ankara 7
Ark@@ 7
Atl@@ 7
Baden 7
Bahari 7
Bas 7
Bei@@ 7
Dezember 7
Eine 7
Erd@@ 7
Estado 7
Fot@@ 7
Galatasaray 7
Gew@@ 7
Grec@@ 7
Hern@@ 7
Jugend@@ 7
Kreis@@ 7
Loan 7
Mayor 7
Mittel@@ 7
Municipal@@ 7
Mw@@ 7
Paraguay 7
Peru 7
Por 7
Publi@@ 7
Queens@@ 7
Sovi@@ 7
Staats@@ 7
Sud 7
Sult@@ 7
Trung 7
Uy@@ 7
Verein 7
Wab@@ 7
Wahl@@ 7
Wali@@ 7
Wasser@@ 7
Wie 7
Zanzibar 7
Zeit@@ 7
aal@@ 7
abeth 7
additional 7
administr@@ 7
affen 7
afu 7
agno@@ 7
ajiri 7
akadem@@ 7
aliy@@ 7
anchi 7
angu 7
anii 7
anik@@ 7
appr@@ 7
arrive 7
artiller@@ 7
atur 7
awali 7
azim@@ 7
bea 7
biy@@ 7
bless@@ 7
bres 7
brig@@ 7
buildings 7
charac@@ 7
chini 7
chung 7
cier@@ 7
cipe 7
claim@@ 7
comi@@ 7
commer@@ 7
continue 7
cour 7
dici@@ 7
dif@@ 7
dipl@@ 7
dispos@@ 7
distinc@@ 7
divis@@ 7
dont 7
echa 7
elea 7
ellos 7
ensa 7
entales 7
entro 7
escu@@ 7
eso 7
etas 7
evangel@@ 7
fau@@ 7
fern 7
fte 7
hala 7
hali 7
honor 7
hup@@ 7
ikan@@ 7
iliano 7
important 7
incia 7
inco 7
increased 7
indu@@ 7
insan@@ 7
introduced 7
inu 7
itze 7
juli@@ 7
kamp@@ 7
khi@@ 7
kina 7
kung 7
lagen 7
latter 7
leben 7
leh@@ 7
leich@@ 7
licher 7
lywood 7
mama 7
mana 7
mark@@ 7
mars 7
matches 7
mern 7
mev@@ 7
mey@@ 7
mez@@ 7
milit@@ 7
mise 7
monaster@@ 7
monuments 7
mr@@ 7
msh@@ 7
muda 7
nete 7
newspap@@ 7
ngu@@ 7
niti@@ 7
north 7
onnes 7
otur@@ 7
performances 7
petit 7
plut@@ 7
politi@@ 7
politician 7
ported 7
practic@@ 7
prak@@ 7
pre 7
produce 7
promin@@ 7
realiz@@ 7
recog@@ 7
refer 7
richt 7
roul@@ 7
satz 7
scar 7
schen@@ 7
schutz 7
sdorf 7
simpl@@ 7
situation 7
sold 7
sona 7
terror@@ 7
tig 7
tivities 7
tous 7
types 7
ucky 7
ufu 7
vall@@ 7
venes 7
venir 7
waj@@ 7
wehr 7
yote 7
zas 7
zey@@ 7
§@@ 7
å@@ 7
þ@@ 7
ğ@@ 7
ľ 7
ũ@@ 7
ț 7
ɲ 7
ʁ 7
ʻ@@ 7
ˤ@@ 7
̀ 7
̰ 7
άκ@@ 7
δελφ@@ 7
δι@@ 7
ις 7
κτ@@ 7
λλ@@ 7
λογ@@ 7
νε@@ 7
ο 7
οι@@ 7
ρά@@ 7
ρί@@ 7
ρον 7
σαρ@@ 7
στο@@ 7
τί@@ 7
τα@@ 7
υπ@@ 7
φύ@@ 7
Є 7
І@@ 7
А 7
Ар@@ 7
Го@@ 7
К 7
Къ@@ 7
М 7
Росси@@ 7
Т 7
ва 7
ду@@ 7
ев@@ 7
з 7
ка 7
льная 7
ров@@ 7
ски 7
та@@ 7
ф 7
хо@@ 7
че@@ 7
ы 7
ё 7
ђ@@ 7
ә@@ 7
Ө@@ 7
ե@@ 7
ր@@ 7
ם@@ 7
ئ@@ 7
اء@@ 7
الد@@ 7
الك@@ 7
الي@@ 7
ام 7
ان 7
اور@@ 7
ة 7
تا@@ 7
تُ@@ 7
زي@@ 7
س 7
ض@@ 7
ع 7
عبد@@ 7
عل@@ 7
فر@@ 7
كُ@@ 7
مع@@ 7
مل@@ 7
ملا@@ 7
من@@ 7
يَ@@ 7
ڠ@@ 7
ܕ@@ 7
ަ@@ 7
ः@@ 7
को@@ 7
ञ@@ 7
ती@@ 7
दि@@ 7
बा@@ 7
बु@@ 7
यु@@ 7
रे@@ 7
ु 7
े@@ 7
ਹ@@ 7
ం@@ 7
్@@ 7
ಮ@@ 7
ි@@ 7
ษายน 7
ใกล@@ 7
๏ 7
ວ 7
ຮ@@ 7
་ 7
ྒ@@ 7
ဖ@@ 7
ု 7
ႈ@@ 7
ឆ@@ 7
វ 7
ឡ@@ 7
ា 7
៍@@ 7
᩠@@ 7
ḇ 7
Ṣ 7
ṯ 7
ể 7
ệ@@ 7
ụ 7
Ἐ@@ 7
ἱ@@ 7
ἶ@@ 7
ὄ@@ 7
ὐ@@ 7
ὕ@@ 7
ῶ@@ 7
ⁿ@@ 7
ℰ@@ 7
↘@@ 7
∀ 7
∅ 7
∧ 7
∨@@ 7
≤@@ 7
⋯ 7
★@@ 7
ⲕ@@ 7
ⵎ@@ 7
げ@@ 7
そ 7
わ 7
ゥ 7
ウ 7
キ 7
グ 7
ゾ@@ 7
ヌ@@ 7
ロ 7
ㄣ@@ 7
ㄥ@@ 7
㋮@@ 7
个@@ 7
中华@@ 7
丽@@ 7
乡@@ 7
亡@@ 7
京 7
仙 7
体 7
依@@ 7
倩@@ 7
偵@@ 7
児@@ 7
具@@ 7
凌@@ 7
凤@@ 7
凰@@ 7
刀 7
刻@@ 7
动@@ 7
努@@ 7
勝 7
勳@@ 7
协@@ 7
占@@ 7
名 7
吾@@ 7
员 7
呪@@ 7
喀@@ 7
団 7
國 7
型@@ 7
堀@@ 7
塘@@ 7
夢 7
大学 7
嬰@@ 7
存@@ 7
宛@@ 7
宮 7
宿@@ 7
寺 7
専@@ 7
尉 7
導@@ 7
展@@ 7
嵐@@ 7
巾@@ 7
幽@@ 7
弟@@ 7
微@@ 7
恆@@ 7
情 7
惟@@ 7
應@@ 7
戚@@ 7
拯@@ 7
持@@ 7
操@@ 7
散@@ 7
新加@@ 7
方 7
星 7
晴@@ 7
書 7
杰@@ 7
极@@ 7
械@@ 7
欣@@ 7
歷@@ 7
求@@ 7
汴@@ 7
沒@@ 7
沛 7
流 7
浄@@ 7
涙@@ 7
潤@@ 7
激@@ 7
灵@@ 7
牌@@ 7
牡@@ 7
獅@@ 7
琴@@ 7
瓊@@ 7
発@@ 7
盤@@ 7
目 7
祁@@ 7
祭@@ 7
禅@@ 7
空 7
第@@ 7
第三@@ 7
節 7
経@@ 7
緒@@ 7
編 7
縄@@ 7
罠@@ 7
耿@@ 7
聚@@ 7
職@@ 7
股@@ 7
致@@ 7
色 7
苗@@ 7
茶 7
药@@ 7
莽@@ 7
蓉@@ 7
薇@@ 7
虫 7
融@@ 7
観@@ 7
角 7
訓@@ 7
説 7
譚@@ 7
貫@@ 7
賭@@ 7
車 7
退@@ 7
邓@@ 7
酒@@ 7
野 7
錄@@ 7
鐘@@ 7
閻@@ 7
隊 7
零@@ 7
露@@ 7
顏@@ 7
顧@@ 7
飯 7
饶@@ 7
鲁@@ 7
鲜@@ 7
鶴@@ 7
겸@@ 7
과@@ 7
귀@@ 7
까@@ 7
난@@ 7
내 7
녀@@ 7
누@@ 7
대 7
더@@ 7
디@@ 7
령@@ 7
로 7
를 7
모@@ 7
몰@@ 7
버@@ 7
베@@ 7
불@@ 7
브@@ 7
비 7
송 7
울@@ 7
원 7
을@@ 7
키@@ 7
항@@ 7
행@@ 7
ａ@@ 7
Aires 6
Akademie 6
Arbeit@@ 6
Asoci@@ 6
Ayr@@ 6
Bei 6
Buenos 6
Burg 6
Diy@@ 6
Ecu@@ 6
Festiv@@ 6
Frau 6
Guerre 6
Hindi 6
Hoch@@ 6
Ivoire 6
Janeiro 6
Kamer@@ 6
Krieg@@ 6
Kultur@@ 6
Musik@@ 6
Oly@@ 6
Schleswig 6
Schweizer 6
Seh@@ 6
Singapo@@ 6
Situ@@ 6
Staat@@ 6
Stad@@ 6
Tanzania 6
Tham 6
Tsch@@ 6
Um 6
Unternehmen 6
Uruguay 6
Waz@@ 6
Yard@@ 6
Yunan 6
Zur 6
aam 6
abab@@ 6
acab@@ 6
accep@@ 6
altitude 6
ambia 6
ancia 6
approximately 6
arac@@ 6
arrondissement 6
assur@@ 6
atique 6
autor@@ 6
autre 6
autres 6
avent@@ 6
awe 6
ayak@@ 6
ayna 6
azz 6
baller 6
baseball 6
bases 6
baya 6
betr@@ 6
bez@@ 6
bezirk 6
bom 6
bras 6
combat 6
compil@@ 6
comte 6
consult@@ 6
conven@@ 6
crick@@ 6
critic@@ 6
daf@@ 6
dau@@ 6
ded@@ 6
definiti@@ 6
dej@@ 6
dern 6
ders@@ 6
descri@@ 6
developed 6
distribu@@ 6
doa 6
duras 6
earlier 6
ecto 6
ecu@@ 6
edly 6
elected 6
emas 6
emba 6
emiti@@ 6
enen 6
enfr@@ 6
enso 6
entered 6
erte 6
erung 6
eser@@ 6
eshwa 6
etts 6
euse 6
ezi 6
fabric@@ 6
families 6
geri 6
ghi 6
gien 6
graf@@ 6
grup@@ 6
gues 6
haut 6
hava 6
haya 6
heits@@ 6
hek@@ 6
hockey 6
ibi 6
ichte 6
ideas 6
igos 6
inclin@@ 6
influence 6
ingen@@ 6
internation@@ 6
jet@@ 6
joined 6
jos 6
jour 6
kale 6
kam 6
khi 6
kiye 6
klin 6
kura 6
langen 6
larg@@ 6
leng@@ 6
liament 6
liches 6
lir 6
luch@@ 6
maya 6
mbal@@ 6
moto 6
muz@@ 6
nden 6
noted 6
ober@@ 6
odi 6
oja 6
okrati@@ 6
ologique 6
ombe 6
onya 6
opened 6
operated 6
origin@@ 6
origine 6
ouvern@@ 6
pale 6
pant@@ 6
partem@@ 6
pein@@ 6
philos@@ 6
pierre 6
pili 6
pios 6
platz 6
poco 6
pok@@ 6
politik 6
pour@@ 6
ppi 6
prison 6
privil@@ 6
promotion 6
provin@@ 6
publik 6
quarti@@ 6
rais 6
referred 6
reported 6
result@@ 6
sah 6
scheid@@ 6
schrift 6
sehen 6
sek@@ 6
sevi@@ 6
sied@@ 6
sind 6
sogen@@ 6
south 6
sozial@@ 6
spek@@ 6
stad@@ 6
started 6
starting 6
suite 6
tad 6
teil 6
terie 6
throughout 6
timents 6
tiques 6
tiy@@ 6
tof@@ 6
trop 6
uela 6
ulan 6
unu 6
upo 6
ustri@@ 6
verb@@ 6
versions 6
vez 6
vos 6
wali 6
yani 6
yay@@ 6
ycidae 6
yol 6
yse 6
yum@@ 6
zeit 6
 6
¬@@ 6
Þ@@ 6
ý@@ 6
ě@@ 6
ġ 6
Ħ 6
ň@@ 6
ũ 6
ŭ@@ 6
ű 6
ǒ@@ 6
ɓ@@ 6
ɨ@@ 6
ʂ@@ 6
ʌ 6
ʲ@@ 6
ˌ@@ 6
˧@@ 6
Α 6
Η@@ 6
Θε@@ 6
έπ@@ 6
ήν@@ 6
ίν@@ 6
αί@@ 6
αβ@@ 6
αμ@@ 6
απ@@ 6
ας 6
ατ@@ 6
βι@@ 6
γράφ@@ 6
δε@@ 6
δρο@@ 6
θύ@@ 6
κύ@@ 6
λα@@ 6
ορ@@ 6
πό@@ 6
ρος 6
σί@@ 6
των 6
Ё 6
Ал@@ 6
Бела@@ 6
Бо@@ 6
Во@@ 6
Й 6
Кара@@ 6
Л 6
С 6
Ы@@ 6
Ь 6
Э@@ 6
га@@ 6
де@@ 6
ды@@ 6
лы@@ 6
ль@@ 6
ме@@ 6
миро@@ 6
мя@@ 6
от@@ 6
стан@@ 6
ур@@ 6
ф@@ 6
це@@ 6
ч 6
ң@@ 6
ӣ 6
ո@@ 6
أبو 6
اء 6
اد 6
اس@@ 6
الإسلا@@ 6
الحدي@@ 6
العربية 6
الف@@ 6
الن@@ 6
انی@@ 6
ب 6
با@@ 6
بر@@ 6
بن@@ 6
تح@@ 6
دی@@ 6
شا@@ 6
شه@@ 6
علم 6
ل 6
ما@@ 6
نا@@ 6
ند@@ 6
نُ@@ 6
نی@@ 6
وال@@ 6
يم@@ 6
ٍ 6
ۇ@@ 6
ंग@@ 6
एक 6
कि@@ 6
गु@@ 6
च 6
छ@@ 6
जय@@ 6
टा@@ 6
ठ@@ 6
दे@@ 6
पर@@ 6
मं@@ 6
मो@@ 6
ली 6
व 6
वी@@ 6
वेद@@ 6
शा@@ 6
सु@@ 6
़ 6
ि@@ 6
ृ@@ 6
ং@@ 6
ক@@ 6
ਜ@@ 6
ਮ@@ 6
ਲ@@ 6
த@@ 6
ள@@ 6
் 6
య@@ 6
ీ@@ 6
ಕ@@ 6
ಾ@@ 6
ා@@ 6
ຖ@@ 6
ໝ@@ 6
ཀ@@ 6
ត 6
ទ 6
ᠨ@@ 6
ᠩ@@ 6
ḇ@@ 6
ḫ 6
ẓ 6
ổ@@ 6
ộ@@ 6
ὀ@@ 6
  6
‪ 6
‬ 6
♥@@ 6
♯ 6
ⲣ@@ 6
ⵉ@@ 6
な 6
ゅ@@ 6
ゥ@@ 6
シ 6
タ 6
ヂ@@ 6
ヅ@@ 6
リ 6
ㄕ@@ 6
专@@ 6
丰@@ 6
乘@@ 6
乞@@ 6
也 6
争@@ 6
事 6
优@@ 6
伟@@ 6
倒@@ 6
候@@ 6
兆@@ 6
全国@@ 6
共产@@ 6
兵 6
円@@ 6
凡@@ 6
剑@@ 6
副@@ 6
勒@@ 6
单@@ 6
取@@ 6
变@@ 6
启@@ 6
呼@@ 6
哥@@ 6
唱@@ 6
問@@ 6
喜 6
單@@ 6
嘴@@ 6
器@@ 6
因@@ 6
垂@@ 6
壬@@ 6
夜 6
大陆 6
央@@ 6
契@@ 6
妹@@ 6
姑@@ 6
姚@@ 6
姿@@ 6
娱@@ 6
媚@@ 6
媛@@ 6
孤@@ 6
学 6
宇 6
宪@@ 6
宰@@ 6
寇@@ 6
寝@@ 6
岐@@ 6
岑@@ 6
岩@@ 6
席@@ 6
强@@ 6
弾@@ 6
彥@@ 6
怀@@ 6
恒@@ 6
愛 6
憂@@ 6
戊@@ 6
戌@@ 6
戦 6
扶@@ 6
折@@ 6
招@@ 6
排@@ 6
推@@ 6
救@@ 6
敢@@ 6
敦@@ 6
旦@@ 6
旭@@ 6
暎@@ 6
暹@@ 6
木 6
朵@@ 6
柏@@ 6
梵@@ 6
検@@ 6
楼@@ 6
様@@ 6
檜@@ 6
歩@@ 6
毅@@ 6
氏 6
沛@@ 6
沩@@ 6
法 6
洗@@ 6
海 6
涛@@ 6
湛@@ 6
滷@@ 6
演 6
澳@@ 6
炳@@ 6
熊@@ 6
熟@@ 6
燈@@ 6
牧@@ 6
狸@@ 6
猛@@ 6
猪@@ 6
猫@@ 6
猿 6
率@@ 6
甜@@ 6
産@@ 6
电@@ 6
皆@@ 6
益@@ 6
盟@@ 6
盡@@ 6
眠@@ 6
着@@ 6
石 6
砲@@ 6
碩@@ 6
章 6
符@@ 6
第一@@ 6
籠@@ 6
粹@@ 6
粿@@ 6
納@@ 6
綏@@ 6
緣 6
组@@ 6
缺@@ 6
考@@ 6
芒@@ 6
芬@@ 6
芭@@ 6
花 6
荊@@ 6
荒@@ 6
莆@@ 6
莲@@ 6
蒲@@ 6
蓝@@ 6
蓬@@ 6
藍@@ 6
虎 6
衍@@ 6
覇@@ 6
視@@ 6
见@@ 6
許 6
該@@ 6
语 6
说@@ 6
请@@ 6
豆 6
質@@ 6
贊@@ 6
轉@@ 6
过@@ 6
迷@@ 6
這@@ 6
過@@ 6
適@@ 6
邯@@ 6
郑@@ 6
都 6
酉@@ 6
配@@ 6
鈴@@ 6
鋼@@ 6
钟@@ 6
锋@@ 6
陀@@ 6
限@@ 6
陵 6
雞@@ 6
難@@ 6
雯@@ 6
零 6
霊@@ 6
霧@@ 6
鞍@@ 6
頊@@ 6
食 6
饼@@ 6
馬 6
験@@ 6
驚@@ 6
鳴@@ 6
鴨@@ 6
鸡@@ 6
麵@@ 6
麺 6
麺@@ 6
감@@ 6
난 6
너@@ 6
눈@@ 6
도 6
드 6
등@@ 6
라 6
레@@ 6
렬@@ 6
룡@@ 6
림@@ 6
묘@@ 6
민 6
밀@@ 6
발@@ 6
배@@ 6
선 6
성 6
속@@ 6
열@@ 6
옥@@ 6
육@@ 6
인 6
일 6
적@@ 6
제 6
천 6
춘@@ 6
통@@ 6
환@@ 6
훈@@ 6
@@ 6
@@ 6
️@@ 6
／@@ 6
ｔ@@ 6
Allem@@ 5
Anh 5
Bahnhof 5
Belgique 5
Canadi@@ 5
Carrera 5
Chrysomelidae 5
ESCO 5
Futbol 5
Guin@@ 5
Hilfe 5
Hinter@@ 5
Hoa 5
Holz@@ 5
Hymenoptera 5
Isra@@ 5
Israeli 5
Juli 5
Kama 5
Klasse 5
Klein@@ 5
Kongo 5
Ley 5
Mp@@ 5
Orden 5
Paragu@@ 5
Pero 5
Platz 5
Presidente 5
Sainte 5
Schiff 5
Sept@@ 5
Sommer 5
Tier@@ 5
Venezuela 5
Verk@@ 5
Wissen@@ 5
abara 5
accomp@@ 5
adal@@ 5
affaires 5
aktion 5
alif@@ 5
aliforni@@ 5
alim@@ 5
aliye@@ 5
allow@@ 5
alta 5
altung 5
ambigu@@ 5
ambu@@ 5
ansi 5
anzi 5
anzo 5
aret@@ 5
arios 5
arka 5
asse@@ 5
atas@@ 5
atik 5
auen 5
author 5
avu 5
ayar@@ 5
baba 5
becoming 5
cai 5
campa@@ 5
cao 5
cathol@@ 5
cela 5
celles 5
chter 5
cim@@ 5
ciones 5
compan@@ 5
contains 5
contribu@@ 5
contribut@@ 5
cual 5
deter@@ 5
dienst 5
dini 5
doctor@@ 5
dung 5
dungs@@ 5
earned 5
eden 5
efforts 5
ehem@@ 5
eht 5
eint 5
elik 5
embe 5
empres@@ 5
entre@@ 5
erne@@ 5
especially 5
etk@@ 5
ewa 5
fang@@ 5
feh@@ 5
final@@ 5
fond@@ 5
frances@@ 5
furt 5
gali@@ 5
ged@@ 5
gef@@ 5
gemein@@ 5
guerre 5
hasa 5
hommes 5
idente 5
internationale 5
involved 5
isel 5
islas 5
isra@@ 5
istas 5
istique 5
istische 5
jeu 5
jeune 5
kent 5
leva 5
libro 5
lichkeit 5
lieg@@ 5
likely 5
lista 5
lten 5
maison 5
malar@@ 5
marc@@ 5
married 5
mau@@ 5
maz 5
mji 5
muz 5
naf@@ 5
nah@@ 5
nek@@ 5
ngo@@ 5
noch 5
novel@@ 5
occasion 5
occupation 5
offered 5
ohne 5
onales 5
ordre 5
oteca 5
participation 5
parties 5
partir 5
passage 5
pays 5
persona 5
phong 5
pont 5
portant 5
premier 5
prix 5
programme 5
propos@@ 5
quartier 5
quatre 5
raison 5
retired 5
rural 5
rut@@ 5
sage 5
schaften 5
sche@@ 5
seasons 5
seig@@ 5
sens 5
serie 5
siempre 5
signe 5
siti@@ 5
soit 5
soy@@ 5
students 5
supported 5
tained 5
tarak@@ 5
terrain 5
teurs 5
town@@ 5
tros 5
uelle 5
ulaire 5
uma@@ 5
umia 5
unas 5
undan 5
ungo 5
usta@@ 5
uzi 5
uzo 5
vak@@ 5
vard@@ 5
vek@@ 5
venue 5
walt 5
who@@ 5
yek@@ 5
yem@@ 5
zeug@@ 5
zig 5
zor@@ 5
zus@@ 5
¥@@ 5
© 5
Â@@ 5
Æ@@ 5
Í@@ 5
ą@@ 5
ĩ@@ 5
ĭ 5
ň 5
Ő 5
Ş@@ 5
ƒ 5
ǎ@@ 5
ǫ 5
ɒ@@ 5
ɕ 5
ɗ@@ 5
ɡ 5
ɲ@@ 5
ɴ@@ 5
ɹ@@ 5
ɾ 5
ʏ@@ 5
̄ 5
͡ 5
Β 5
άγ@@ 5
έλ@@ 5
έν@@ 5
ίκ@@ 5
αδ@@ 5
αθ@@ 5
αλ@@ 5
γαλ@@ 5
εί@@ 5
εδ@@ 5
ει 5
εν@@ 5
ζ 5
κά@@ 5
κερ@@ 5
κος 5
κου@@ 5
μά@@ 5
μέ@@ 5
μο@@ 5
ού@@ 5
πι@@ 5
πλ@@ 5
πολι@@ 5
πος 5
ργ@@ 5
ριστ@@ 5
ρκ@@ 5
ρον@@ 5
τικός 5
τρα 5
τρο@@ 5
τό@@ 5
φυ@@ 5
όσ@@ 5
Ан@@ 5
Б 5
Бе@@ 5
Влади@@ 5
Д 5
До@@ 5
Е 5
З 5
Ка@@ 5
Ко@@ 5
Н 5
Ор@@ 5
П 5
Про@@ 5
Со@@ 5
Соци@@ 5
Ф 5
Хер@@ 5
али@@ 5
б 5
би@@ 5
до@@ 5
жа@@ 5
же@@ 5
йн 5
ке@@ 5
ко 5
ку@@ 5
ла 5
мен@@ 5
ор@@ 5
ос@@ 5
п 5
публи@@ 5
се@@ 5
ски@@ 5
ской 5
ст@@ 5
ство 5
ство@@ 5
у 5
ш 5
ша@@ 5
ё@@ 5
ї@@ 5
ҷ@@ 5
ә 5
ի@@ 5
լ@@ 5
ն@@ 5
ד 5
ם 5
צ@@ 5
ש 5
اف@@ 5
افغ@@ 5
الإ@@ 5
به@@ 5
در@@ 5
دُ@@ 5
ری@@ 5
سلط@@ 5
سُ@@ 5
ش 5
علی 5
ـ@@ 5
في@@ 5
لي@@ 5
لی@@ 5
مان 5
مدينة 5
مه@@ 5
وق@@ 5
ولي@@ 5
وم 5
ً@@ 5
ٌ 5
ّ 5
کی@@ 5
گ@@ 5
ە@@ 5
۱@@ 5
ܢ@@ 5
आ@@ 5
इ@@ 5
की 5
कै@@ 5
जि@@ 5
त 5
ता 5
दा@@ 5
दी@@ 5
मल@@ 5
मी@@ 5
मु@@ 5
मे@@ 5
री 5
रु@@ 5
ल 5
ला@@ 5
ले@@ 5
वै@@ 5
सा@@ 5
हा@@ 5
हि@@ 5
ार@@ 5
। 5
গ@@ 5
ঙ@@ 5
ਨ@@ 5
ਬ@@ 5
ழ@@ 5
ூ@@ 5
ை 5
న@@ 5
వ@@ 5
ಬ@@ 5
ರ@@ 5
ಿ@@ 5
ත@@ 5
ම@@ 5
ල@@ 5
ස@@ 5
ດ 5
ཆ@@ 5
ཙ@@ 5
ྐ@@ 5
ံ 5
ឃ@@ 5
ស 5
ៈ 5
៕@@ 5
៣ 5
ᠵ@@ 5
ᡠ@@ 5
ᡤ@@ 5
ᡵ@@ 5
ḷ@@ 5
ṁ 5
Ṭ 5
ἡ 5
ὁ 5
ῥ@@ 5
 @@ 5
 @@ 5
‒ 5
― 5
„ 5
‡@@ 5
 @@ 5
‰ 5
›@@ 5
⁠ 5
€@@ 5
ℓ@@ 5
℞ 5
⅔ 5
∃ 5
∆@@ 5
∇ 5
∉ 5
√@@ 5
∫@@ 5
⌊@@ 5
◌@@ 5
●@@ 5
ⲥ@@ 5
ⵏ 5
ⵓ@@ 5
ⵜ@@ 5
が 5
み 5
も 5
ろ 5
゚@@ 5
ェ 5
エ 5
ケ 5
コ 5
ジ 5
ソ 5
ッ 5
ツ 5
ビ 5
ㄓ@@ 5
不 5
之 5
乱 5
二十@@ 5
伤@@ 5
伶@@ 5
似@@ 5
住@@ 5
佬@@ 5
個@@ 5
假@@ 5
傳 5
僧@@ 5
冀@@ 5
冒@@ 5
农@@ 5
冥@@ 5
冯@@ 5
凱@@ 5
刃 5
刃@@ 5
勤@@ 5
千 5
卍@@ 5
卑@@ 5
卜@@ 5
司 5
告@@ 5
哦@@ 5
営@@ 5
図@@ 5
图@@ 5
圍@@ 5
堂 5
堅@@ 5
墓@@ 5
壁@@ 5
复@@ 5
大學 5
失@@ 5
妮@@ 5
妻 5
妻@@ 5
姫 5
娘 5
娟@@ 5
嬌@@ 5
孩@@ 5
定 5
实@@ 5
害@@ 5
寅@@ 5
實@@ 5
將 5
專@@ 5
尾 5
嶽@@ 5
巳@@ 5
巻@@ 5
帝 5
带@@ 5
師 5
帯@@ 5
帰@@ 5
廢@@ 5
廬@@ 5
弁@@ 5
式 5
弹@@ 5
彰@@ 5
很@@ 5
従@@ 5
徹@@ 5
心 5
快@@ 5
恨@@ 5
悼@@ 5
愍@@ 5
戟@@ 5
戯@@ 5
扇@@ 5
扬@@ 5
振@@ 5
換@@ 5
撫@@ 5
教 5
斬@@ 5
日本 5
昇@@ 5
明 5
易 5
是 5
晶@@ 5
暮@@ 5
曆@@ 5
更@@ 5
最後@@ 5
朧@@ 5
杉@@ 5
柔@@ 5
树@@ 5
棚@@ 5
樊@@ 5
標@@ 5
橫@@ 5
檀@@ 5
欲@@ 5
止@@ 5
歳@@ 5
汝@@ 5
江 5
沉@@ 5
泉 5
泽@@ 5
浅@@ 5
济@@ 5
浜@@ 5
浴@@ 5
涯@@ 5
淀@@ 5
滑@@ 5
漁@@ 5
潭@@ 5
澄@@ 5
濃@@ 5
灃@@ 5
火 5
焦@@ 5
燃@@ 5
營@@ 5
爺@@ 5
版 5
牟@@ 5
玫@@ 5
现@@ 5
珪 5
珪@@ 5
琰@@ 5
瑩@@ 5
瑰@@ 5
瓜@@ 5
瓦@@ 5
甄@@ 5
甲 5
畅@@ 5
留 5
疾@@ 5
癸@@ 5
盂@@ 5
盈@@ 5
盒@@ 5
盛 5
盟 5
眉@@ 5
瞿@@ 5
矢@@ 5
研究@@ 5
硬@@ 5
示@@ 5
祺@@ 5
禄@@ 5
禑@@ 5
禪@@ 5
禵@@ 5
秋 5
穀@@ 5
笛@@ 5
策@@ 5
算@@ 5
篇 5
篠@@ 5
粵@@ 5
紂@@ 5
紙@@ 5
細@@ 5
絲@@ 5
網@@ 5
線 5
繭@@ 5
繼@@ 5
纘@@ 5
纪@@ 5
绝@@ 5
统@@ 5
翠@@ 5
翰@@ 5
聲@@ 5
肃@@ 5
脩@@ 5
與@@ 5
興 5
舍@@ 5
菜 5
萧@@ 5
著@@ 5
蓉 5
蕃@@ 5
薄@@ 5
薊@@ 5
薔@@ 5
蚝@@ 5
衆@@ 5
衣 5
袖@@ 5
裂@@ 5
装@@ 5
訢@@ 5
詠@@ 5
詮@@ 5
誅@@ 5
調@@ 5
记 5
谭@@ 5
豚@@ 5
豬@@ 5
贤@@ 5
赖@@ 5
路 5
轨@@ 5
达@@ 5
迦@@ 5
遲@@ 5
遺@@ 5
邳@@ 5
郷 5
鄚@@ 5
醉@@ 5
采@@ 5
釋@@ 5
針@@ 5
銅@@ 5
閔@@ 5
閭@@ 5
阁@@ 5
队@@ 5
阴@@ 5
離@@ 5
霖@@ 5
霞@@ 5
領@@ 5
頡@@ 5
领@@ 5
颜@@ 5
飄@@ 5
鬼 5
鷹@@ 5
鹤@@ 5
麦@@ 5
齡@@ 5
게@@ 5
곤@@ 5
날@@ 5
녕@@ 5
늘@@ 5
담@@ 5
당@@ 5
데@@ 5
머@@ 5
먼@@ 5
번@@ 5
변@@ 5
빈@@ 5
술@@ 5
슈@@ 5
썸@@ 5
알@@ 5
없@@ 5
에 5
와 5
와@@ 5
월@@ 5
종 5
총@@ 5
친@@ 5
칠@@ 5
터@@ 5
테@@ 5
트 5
팔@@ 5
퍼@@ 5
풍@@ 5
피@@ 5
해 5
허@@ 5
Ｅ@@ 5
ｉ@@ 5
ｏ@@ 5
ｕ@@ 5
10.000 4
Alab@@ 4
Although 4
Armee 4
Bere@@ 4
Biblia 4
Castilla 4
Cerambycidae 4
Chuo 4
Dans 4
Deutschen 4
Doppel@@ 4
Ecuador 4
Estudi@@ 4
Fahr@@ 4
Famil@@ 4
Gatt@@ 4
Hata 4
Irel@@ 4
Jahres 4
Karnataka 4
Kongr@@ 4
Kuv@@ 4
Landkreis 4
Leben 4
Lebens@@ 4
Lincol@@ 4
Lt@@ 4
Mitte 4
Muhammed 4
Nigeria 4
Nint@@ 4
Nyan@@ 4
Olimpi@@ 4
Ouest 4
Produk@@ 4
Quan 4
Rang 4
Reino 4
Royaume 4
Sachsen 4
Segunda 4
Suisse 4
Trab@@ 4
Tuy 4
Une 4
Universidad 4
Verlag 4
Waj@@ 4
Zeit 4
abandon@@ 4
abei 4
aciones 4
adhi 4
afi 4
afu@@ 4
aham@@ 4
aison 4
alem@@ 4
alise 4
aliza 4
ambas 4
amua 4
anach@@ 4
andan 4
andere 4
angen 4
arse 4
asik 4
asili 4
astron@@ 4
athol@@ 4
atini 4
atoire 4
atta@@ 4
basketball 4
beaucoup 4
becom@@ 4
bild 4
cambi@@ 4
captur@@ 4
career 4
causa 4
celle 4
census 4
chos 4
cion@@ 4
clubs 4
comprom@@ 4
corps 4
cours 4
dado 4
dak@@ 4
debut@@ 4
defeated 4
desp@@ 4
deur 4
deutscher 4
deux 4
dibu@@ 4
dient 4
distingu@@ 4
dok@@ 4
dres 4
earch 4
eben 4
efe 4
efu 4
egio 4
egos 4
ehir 4
eines 4
elabor@@ 4
elections 4
ellschaft 4
empl@@ 4
emplo@@ 4
entos 4
enzi 4
escal@@ 4
eures 4
existe 4
fait 4
fallen 4
fand 4
febr@@ 4
fils 4
founded 4
gare 4
gart 4
hadi@@ 4
hata 4
heit@@ 4
histoire 4
historique 4
husband 4
ichten 4
ilik 4
ilim@@ 4
imini 4
importance 4
impos@@ 4
imu 4
incor@@ 4
ingt 4
inspir@@ 4
inti@@ 4
iques 4
irani 4
isim@@ 4
issant 4
kah@@ 4
kais@@ 4
kama 4
khu@@ 4
kleri 4
koa 4
kud@@ 4
lado 4
landa 4
lanz@@ 4
leitung 4
lemente 4
lere 4
leurs 4
lieutenant 4
lui 4
mais 4
minut@@ 4
mpi@@ 4
musique 4
nde@@ 4
nj@@ 4
numerous 4
nun 4
ofu 4
oires 4
onships 4
opposition 4
orden 4
orod@@ 4
otro 4
owa 4
parlam@@ 4
passed 4
pendant 4
period@@ 4
plans 4
poder@@ 4
pointed 4
polic@@ 4
polici@@ 4
populaire 4
poss@@ 4
previ@@ 4
professi@@ 4
program@@ 4
quant 4
quier 4
quy 4
raised 4
raum 4
reconn@@ 4
refu@@ 4
reib@@ 4
rejo@@ 4
rek@@ 4
relev@@ 4
remains 4
reo 4
returned 4
reun@@ 4
riff@@ 4
schluss 4
selec@@ 4
sement 4
semi 4
senc@@ 4
sich 4
signi@@ 4
sino 4
sita 4
sold@@ 4
solic@@ 4
sport@@ 4
statt 4
steh@@ 4
stil@@ 4
surround@@ 4
symb@@ 4
tena 4
tische 4
toire 4
topr@@ 4
trang 4
trouv@@ 4
udi 4
ulares 4
ularly 4
umani 4
umika 4
unca 4
unden 4
urch 4
usu@@ 4
utiliz@@ 4
vement 4
vik@@ 4
vili@@ 4
wali@@ 4
weeks 4
wenn 4
yok 4
zwe@@ 4
 4
 4
 4
¢@@ 4
£@@ 4
µ@@ 4
Ç@@ 4
Ê 4
Ë 4
ï@@ 4
Č@@ 4
Độ 4
Ē@@ 4
Ĕ 4
ĕ 4
ĭ@@ 4
ņ 4
ņ@@ 4
Œ 4
œ@@ 4
ř@@ 4
Ś@@ 4
Ŝ@@ 4
Ţ 4
ơ@@ 4
ǚ 4
ɚ@@ 4
ɣ 4
ɦ@@ 4
ɽ 4
ɾ@@ 4
ʂ 4
ʕ 4
́ 4
̂ 4
̌ 4
Μ 4
άλλ@@ 4
ίδ@@ 4
ίλ@@ 4
ανθ@@ 4
αρ@@ 4
ασ@@ 4
αυ@@ 4
αχ@@ 4
βί@@ 4
βασ@@ 4
βλ@@ 4
γκ@@ 4
γυμ@@ 4
δέν@@ 4
ημ@@ 4
θέ@@ 4
ιμ@@ 4
ιπ@@ 4
κορ@@ 4
κυ@@ 4
κύκλ@@ 4
λέ@@ 4
λί@@ 4
μή@@ 4
μβ@@ 4
με@@ 4
μι@@ 4
μος 4
μπο@@ 4
παρ@@ 4
ρύ@@ 4
σπ@@ 4
στή@@ 4
στερ@@ 4
σφ@@ 4
τα 4
τε@@ 4
τικ@@ 4
υγ@@ 4
υρ@@ 4
υσ@@ 4
χαρ@@ 4
І 4
Ћ@@ 4
Ў 4
Ба@@ 4
Би@@ 4
Воло@@ 4
Государ@@ 4
Де@@ 4
Ди@@ 4
Ж 4
Й@@ 4
Ман@@ 4
Ми@@ 4
Ни@@ 4
Никола@@ 4
Но@@ 4
Ново@@ 4
При@@ 4
Ра@@ 4
СК@@ 4
Су@@ 4
Та@@ 4
Тат@@ 4
Ту@@ 4
Фу@@ 4
Ц 4
Ч 4
Ше@@ 4
Ы 4
аль@@ 4
ате@@ 4
бал@@ 4
город@@ 4
гу@@ 4
ен@@ 4
зе@@ 4
зо@@ 4
исто@@ 4
кий 4
кино@@ 4
ков@@ 4
комитет 4
къ@@ 4
лет 4
лю@@ 4
му@@ 4
мы@@ 4
ник@@ 4
нин@@ 4
нов 4
нов@@ 4
ное 4
ной 4
ны@@ 4
ным 4
об@@ 4
пи@@ 4
по 4
по@@ 4
рь 4
рё@@ 4
ска@@ 4
слав 4
сы@@ 4
ты 4
ул@@ 4
фи@@ 4
цар@@ 4
щ@@ 4
ъ@@ 4
ю 4
њ@@ 4
ў@@ 4
Ґ 4
Ғ 4
ғ@@ 4
Қ@@ 4
қ@@ 4
Ү@@ 4
ү 4
ӑ@@ 4
յ@@ 4
ס@@ 4
ء 4
أم@@ 4
اج@@ 4
ار 4
اع@@ 4
الب@@ 4
البح@@ 4
التح@@ 4
الث@@ 4
الرا@@ 4
الش@@ 4
المق@@ 4
اله@@ 4
اني 4
اي@@ 4
بل@@ 4
بو@@ 4
بيد 4
تق@@ 4
تي@@ 4
جا@@ 4
جه@@ 4
حي@@ 4
خ 4
خان@@ 4
درا@@ 4
دش@@ 4
رس@@ 4
رية 4
رير 4
سع@@ 4
سلطان 4
سو@@ 4
شی@@ 4
على 4
علي 4
قرا@@ 4
كل 4
لل@@ 4
لی 4
مار@@ 4
مر@@ 4
ني@@ 4
نگ@@ 4
هة 4
هم 4
وس@@ 4
وف@@ 4
ول 4
وم@@ 4
ون 4
وه@@ 4
يه 4
ٰ@@ 4
ڬ@@ 4
یا 4
ین@@ 4
ँ 4
अम@@ 4
ओ@@ 4
काम@@ 4
के@@ 4
गा 4
गा@@ 4
जन@@ 4
जा@@ 4
डा@@ 4
ढ@@ 4
ण 4
णि@@ 4
ति 4
ते 4
था@@ 4
थु@@ 4
दु@@ 4
धि@@ 4
न 4
नाथ 4
नु@@ 4
पार@@ 4
पि@@ 4
बि@@ 4
बो@@ 4
भ@@ 4
भी@@ 4
मा 4
मार@@ 4
मि@@ 4
मी 4
यो@@ 4
रिया@@ 4
रू@@ 4
ली@@ 4
वार@@ 4
वे@@ 4
सू@@ 4
से@@ 4
हर@@ 4
ही@@ 4
ট@@ 4
ত@@ 4
য@@ 4
শ@@ 4
স@@ 4
ি@@ 4
ী@@ 4
ে@@ 4
ਗ@@ 4
ਤ@@ 4
ਦ@@ 4
ਰ 4
ਾ 4
ੀ@@ 4
ଡ@@ 4
ଶ@@ 4
ய@@ 4
ற@@ 4
ொ@@ 4
చ@@ 4
త@@ 4
ప@@ 4
ై@@ 4
ಂ@@ 4
ೂ@@ 4
മ@@ 4
ാ@@ 4
ി@@ 4
ං@@ 4
ක@@ 4
න@@ 4
ා 4
พฤศ@@ 4
ງ 4
ຜ@@ 4
ຣ 4
ີ 4
໌@@ 4
ໜ@@ 4
ཕ@@ 4
ྣ@@ 4
တ 4
ဓ@@ 4
ၼ@@ 4
ႆ@@ 4
ი 4
რ 4
ხ 4
ჲ@@ 4
ት@@ 4
ይ@@ 4
ើ@@ 4
់ 4
ᠣ@@ 4
ḏ 4
ḏ@@ 4
ḵ@@ 4
ṟ 4
ẽ 4
ổ 4
ỗ 4
ứ@@ 4
ự 4
ỹ 4
ἔ@@ 4
Ἡ@@ 4
ἵ@@ 4
ὅ@@ 4
₂ 4
₩ 4
₹ 4
℃@@ 4
℉@@ 4
ℓ 4
№ 4
™@@ 4
↓ 4
↓@@ 4
↦ 4
⇌ 4
∂@@ 4
∃@@ 4
∗ 4
∩ 4
≠@@ 4
≪ 4
⋅ 4
⌊ 4
☃@@ 4
♠@@ 4
♣@@ 4
ⲏ@@ 4
ⲧ@@ 4
ⴰ 4
ⵢ@@ 4
々 4
〈 4
〉 4
】 4
〖@@ 4
〗@@ 4
ぁ 4
ぁ@@ 4
で 4
ね 4
ふ 4
よ 4
ゐ 4
ゼ 4
マ 4
ヶ 4
ㄇ@@ 4
ㄉ@@ 4
ㄢ@@ 4
ㅇ@@ 4
ㅊ 4
丈@@ 4
三十@@ 4
中华人民@@ 4
乃@@ 4
乌@@ 4
九 4
云 4
互@@ 4
亦@@ 4
仇@@ 4
仔 4
付@@ 4
仰@@ 4
伝 4
伽@@ 4
佑@@ 4
佗@@ 4
佛 4
供@@ 4
係@@ 4
俠 4
偏@@ 4
側@@ 4
偷@@ 4
催@@ 4
傷@@ 4
公 4
写@@ 4
凉@@ 4
刊@@ 4
劇 4
劍 4
助@@ 4
化 4
升@@ 4
卦@@ 4
去 4
召@@ 4
台 4
号 4
吧@@ 4
含@@ 4
吸@@ 4
吹@@ 4
唯@@ 4
喇@@ 4
喰@@ 4
嚳@@ 4
围@@ 4
国 4
均@@ 4
坑@@ 4
坛@@ 4
坤@@ 4
埔@@ 4
場 4
墨@@ 4
士 4
壮@@ 4
处@@ 4
夏 4
太 4
奘@@ 4
奪@@ 4
妃 4
妠@@ 4
妲@@ 4
妹 4
姆@@ 4
委員@@ 4
娃@@ 4
婉@@ 4
婚@@ 4
媒@@ 4
媽@@ 4
孫 4
守 4
宝 4
宣 4
寧 4
尊 4
尖@@ 4
尧@@ 4
尸@@ 4
尽@@ 4
屈@@ 4
屍@@ 4
属@@ 4
嶺@@ 4
巡@@ 4
巧@@ 4
己 4
帖 4
幹@@ 4
庁 4
应@@ 4
底@@ 4
廉@@ 4
廖@@ 4
弓@@ 4
弱@@ 4
弾 4
彡@@ 4
彦@@ 4
彬@@ 4
徵@@ 4
德 4
志 4
応@@ 4
忽@@ 4
总@@ 4
息@@ 4
悅@@ 4
悠@@ 4
惇@@ 4
戎@@ 4
成 4
戴@@ 4
扁@@ 4
才 4
抱@@ 4
拳 4
拼@@ 4
拿@@ 4
捷@@ 4
掌 4
支 4
政治@@ 4
故事 4
散 4
旋@@ 4
旻@@ 4
昊@@ 4
晓@@ 4
暠@@ 4
朱 4
杏@@ 4
束@@ 4
枕@@ 4
柱@@ 4
桜 4
條 4
棟@@ 4
棠@@ 4
楂@@ 4
榜@@ 4
構@@ 4
槍@@ 4
橋 4
橘@@ 4
檢@@ 4
欧@@ 4
歸@@ 4
殿 4
母 4
汕@@ 4
汾@@ 4
沢 4
津 4
液@@ 4
淨@@ 4
清 4
渠@@ 4
湖 4
満@@ 4
满@@ 4
滨@@ 4
滴@@ 4
潁@@ 4
濬@@ 4
瀋@@ 4
瀛@@ 4
灘@@ 4
灰@@ 4
煙@@ 4
煬@@ 4
燈 4
燒@@ 4
爱 4
爵@@ 4
牙 4
犯@@ 4
狂@@ 4
珊@@ 4
瑛@@ 4
瑾@@ 4
璃@@ 4
璧@@ 4
瓘@@ 4
瓶@@ 4
男 4
町 4
畢@@ 4
畫@@ 4
當@@ 4
畿@@ 4
疑@@ 4
疫@@ 4
相 4
真 4
磨@@ 4
礽@@ 4
票@@ 4
禍@@ 4
稲@@ 4
稽@@ 4
穴@@ 4
窮@@ 4
筆@@ 4
簡@@ 4
簾@@ 4
籍@@ 4
紀 4
給@@ 4
經 4
継@@ 4
綠@@ 4
綿@@ 4
續@@ 4
约@@ 4
纳@@ 4
绍@@ 4
羌@@ 4
美 4
義 4
習@@ 4
聡@@ 4
肥@@ 4
背@@ 4
能 4
脫@@ 4
腐@@ 4
腰@@ 4
腹@@ 4
膽@@ 4
臘@@ 4
至 4
舎@@ 4
艦@@ 4
艾 4
艾@@ 4
苑@@ 4
茨@@ 4
菊@@ 4
菱@@ 4
萃@@ 4
萝@@ 4
蒼@@ 4
蕉 4
薬@@ 4
虚 4
虞@@ 4
行 4
補@@ 4
裳@@ 4
褚@@ 4
訶@@ 4
試@@ 4
誌@@ 4
誘@@ 4
謀@@ 4
議 4
變 4
许@@ 4
设@@ 4
话 4
谷 4
貓@@ 4
負@@ 4
賈@@ 4
賞@@ 4
贞@@ 4
趣@@ 4
跡@@ 4
跳@@ 4
蹟@@ 4
身 4
车@@ 4
转@@ 4
辺@@ 4
选@@ 4
透@@ 4
造 4
遂@@ 4
遇@@ 4
遍@@ 4
達 4
遙@@ 4
遜@@ 4
還@@ 4
郢@@ 4
郾@@ 4
鄂@@ 4
醇@@ 4
重 4
量@@ 4
鈿@@ 4
錫@@ 4
鎧@@ 4
银@@ 4
锦@@ 4
間 4
间@@ 4
阖@@ 4
阜@@ 4
阳 4
陪@@ 4
隐@@ 4
隱@@ 4
雁@@ 4
雜@@ 4
電視@@ 4
霆@@ 4
震 4
霜@@ 4
鞠@@ 4
須@@ 4
頌@@ 4
題@@ 4
顓@@ 4
顕@@ 4
须@@ 4
飲@@ 4
養@@ 4
骄 4
鳌@@ 4
鶯@@ 4
鸣@@ 4
麼@@ 4
默@@ 4
黛@@ 4
龜@@ 4
갑@@ 4
게 4
교 4
군 4
권@@ 4
김 4
꽃@@ 4
네@@ 4
달@@ 4
두@@ 4
떡@@ 4
러@@ 4
런@@ 4
론@@ 4
류@@ 4
르@@ 4
맨@@ 4
면@@ 4
물 4
법@@ 4
병@@ 4
본@@ 4
봄@@ 4
빅@@ 4
빛@@ 4
삐@@ 4
새@@ 4
수 4
숨@@ 4
스 4
실@@ 4
싶@@ 4
안 4
엄@@ 4
엘@@ 4
엠@@ 4
역@@ 4
온@@ 4
워@@ 4
익@@ 4
있@@ 4
진 4
차 4
채@@ 4
처@@ 4
커@@ 4
탕@@ 4
투@@ 4
특@@ 4
틴@@ 4
플@@ 4
한 4
할@@ 4
향@@ 4
흥@@ 4
 4
 4
@@ 4
＆@@ 4
１ 4
； 4
＜@@ 4
＞@@ 4
Ｃ@@ 4
］@@ 4
ｅ@@ 4
0,5 3
1,5 3
Afrique 3
Akad@@ 3
Aleks@@ 3
Alit@@ 3
Alman@@ 3
Auf 3
Ayn@@ 3
Besch@@ 3
Bis 3
Bretagne 3
Burundi 3
Champi@@ 3
Conse@@ 3
Demokrati@@ 3
Despite 3
Dola 3
Entre 3
Escuela 3
Ethiopia 3
Fernseh@@ 3
Feuer@@ 3
Gord@@ 3
Grenze 3
Grup 3
Grupp@@ 3
Hiv@@ 3
Kapit@@ 3
Kinder 3
Kloster 3
Kommun@@ 3
Kreis 3
Kreuz@@ 3
Lauf@@ 3
Lig 3
Lond@@ 3
Massachus@@ 3
Meister 3
Mungu 3
Nair@@ 3
Ngo@@ 3
Nhi@@ 3
Ninh 3
Norden 3
Nouvelle 3
Orta 3
Parlam@@ 3
Phong 3
Polen 3
Privat@@ 3
Rais 3
Regierungs@@ 3
Rund@@ 3
Selb@@ 3
Sevilla 3
Sez@@ 3
Sicher@@ 3
Sie 3
Sieg 3
Sohn 3
Sous 3
Stutt@@ 3
Teil 3
Uk@@ 3
Una 3
Unter 3
Waf@@ 3
Werk@@ 3
Werke 3
Wieder@@ 3
Zentrum 3
`@@ 3
abs@@ 3
accu@@ 3
acto 3
afin 3
ahlen 3
ahn@@ 3
aidia 3
alik@@ 3
aliste 3
already 3
amii 3
ammlung 3
anay@@ 3
angaz@@ 3
anglais 3
announc@@ 3
appel@@ 3
arifa 3
assass@@ 3
assez 3
atac@@ 3
atem@@ 3
awala 3
ayud@@ 3
bele 3
beri 3
bisher 3
caused 3
centrale 3
chac@@ 3
chanson 3
chaque 3
chim 3
chuy@@ 3
ciales 3
claimed 3
coi 3
comment@@ 3
commerci@@ 3
conclu@@ 3
conflic@@ 3
conom@@ 3
consid@@ 3
contre 3
costa 3
couple 3
criv@@ 3
culo 3
dari 3
daugh@@ 3
deutsch 3
deutschen 3
dido 3
dific@@ 3
digt 3
dire 3
dire@@ 3
disci@@ 3
diye 3
drit@@ 3
durch 3
ehe 3
einem 3
einte 3
ekonom@@ 3
ekte 3
elektr@@ 3
elte 3
ematik 3
embre 3
enca 3
encour@@ 3
enea 3
engen@@ 3
engi 3
erras 3
erst 3
erste 3
esas 3
essenti@@ 3
etos 3
etten 3
exclusiv@@ 3
ezo 3
facil@@ 3
famille 3
favor 3
festiv@@ 3
feu@@ 3
fico 3
fille 3
finale 3
fique 3
flan@@ 3
forte 3
forts 3
frau 3
fut 3
gabe 3
geber 3
gesetz@@ 3
gesti@@ 3
gouvernement 3
gran 3
grenz@@ 3
guerra 3
haline 3
hasta 3
hija 3
househ@@ 3
hoy 3
htt@@ 3
huri 3
ifs 3
igt 3
ihr 3
ilen 3
ilik@@ 3
imani 3
inaug@@ 3
inaugur@@ 3
inici@@ 3
interior 3
irik@@ 3
ishia 3
isinin 3
ispi@@ 3
issu@@ 3
issues 3
iza 3
jamais 3
jeun@@ 3
jina 3
jours 3
juu 3
kalan 3
kanda 3
kati@@ 3
kek 3
kend@@ 3
kich@@ 3
killed 3
kleine 3
kuch@@ 3
kumi 3
kuu 3
kwa 3
lanc@@ 3
lange 3
leaving 3
leit@@ 3
lek 3
leti 3
linal@@ 3
lucha 3
luy@@ 3
mada 3
magaz@@ 3
manifest@@ 3
manufac@@ 3
mayor 3
mento 3
mf@@ 3
mita 3
mitt@@ 3
modific@@ 3
months 3
mostly 3
mucho 3
munici@@ 3
neas 3
neces@@ 3
noche 3
nok@@ 3
ocur@@ 3
ograf@@ 3
okea 3
ologiques 3
olu 3
olympi@@ 3
originally 3
osas 3
otros 3
oughout 3
ouver@@ 3
pek 3
plata 3
podr@@ 3
politique 3
portes 3
poste 3
proces@@ 3
propi@@ 3
quay 3
quier@@ 3
rait 3
renov@@ 3
retour 3
rugby 3
runs 3
sait 3
sanat 3
sau 3
schaf@@ 3
schafts@@ 3
schloss 3
schn@@ 3
seine 3
seul@@ 3
sis@@ 3
sistema 3
situ@@ 3
sorg@@ 3
sous 3
sovi@@ 3
spent 3
suy 3
tait 3
tay 3
teil@@ 3
tener 3
tep@@ 3
teren 3
travail 3
travers@@ 3
tungs@@ 3
turas 3
turned 3
tuy 3
tuy@@ 3
umma 3
umri 3
unos 3
urba@@ 3
usage 3
verband 3
verdi 3
verz@@ 3
villes 3
vue 3
wani 3
wanza 3
werk@@ 3
wez@@ 3
wich@@ 3
worked 3
wrote 3
yake 3
yana@@ 3
yard@@ 3
yeri 3
ymnasi@@ 3
zeu@@ 3
zey 3
zoni 3
¢ 3
¹@@ 3
¼@@ 3
¿@@ 3
Á@@ 3
Ð@@ 3
Ñ@@ 3
Û 3
Ü@@ 3
Ý 3
Ă@@ 3
Đô 3
Ē 3
ė@@ 3
Ĥ@@ 3
Ĵ@@ 3
Ņ 3
ŏ@@ 3
ţ@@ 3
Ū 3
Ŭ@@ 3
Ű 3
ſ 3
ƴ 3
ǀ@@ 3
ǃ 3
ǣ 3
ǰ 3
ɟ 3
ɟ@@ 3
ɨ 3
ɯ 3
ɰ@@ 3
ɳ 3
ɹ 3
ɻ 3
ʑ 3
ʱ@@ 3
ˠ 3
˨@@ 3
˩ 3
̈@@ 3
̊ 3
̎@@ 3
̏ 3
̯@@ 3
͘ 3
Ά@@ 3
Ί@@ 3
Αιγ@@ 3
Αν@@ 3
Βερ@@ 3
Δι@@ 3
Ελληνική 3
Κυ@@ 3
Μέγ@@ 3
Μακεδ@@ 3
Νέ@@ 3
Πά@@ 3
Σω@@ 3
άλ@@ 3
άνω 3
άπ@@ 3
έρας 3
ίγ@@ 3
αίν@@ 3
αλλ@@ 3
ανή@@ 3
αξ@@ 3
αργ@@ 3
βα@@ 3
βο@@ 3
γέν@@ 3
γελ@@ 3
γραφ@@ 3
δε 3
δος 3
δρ@@ 3
δω@@ 3
δό@@ 3
εβ@@ 3
ελι@@ 3
εφ@@ 3
εύ@@ 3
ηλε@@ 3
θαν@@ 3
θυ@@ 3
ιά 3
ιν 3
κέν@@ 3
κίν@@ 3
καιν@@ 3
καν@@ 3
κοσμ@@ 3
λευ@@ 3
λιος 3
λος 3
μεν@@ 3
μη@@ 3
μον@@ 3
μπ@@ 3
νά@@ 3
νέ@@ 3
νω@@ 3
ξι@@ 3
ολ@@ 3
ολόγ@@ 3
οσ@@ 3
ουσ@@ 3
πί@@ 3
παιδ@@ 3
πατ@@ 3
πολυ@@ 3
ρή@@ 3
ρία 3
ρη@@ 3
σσ@@ 3
στά@@ 3
σύν@@ 3
τέ@@ 3
τήρ@@ 3
τηρ@@ 3
τοκ@@ 3
τρ@@ 3
τρι@@ 3
τυ@@ 3
τω 3
τω@@ 3
υν@@ 3
φέρ@@ 3
φι@@ 3
φιλ@@ 3
φω@@ 3
ψ 3
ψευ@@ 3
όδ@@ 3
όκ@@ 3
όρ@@ 3
Ѓ@@ 3
Ў@@ 3
Анто@@ 3
Вели@@ 3
Гор@@ 3
Да@@ 3
Казах@@ 3
Ки@@ 3
Македо@@ 3
Пет@@ 3
По@@ 3
РС@@ 3
Република 3
Республики 3
Роди@@ 3
Сла@@ 3
Федера@@ 3
Фё@@ 3
Х 3
Щ 3
Щ@@ 3
Ъ 3
Ь@@ 3
Э 3
ав@@ 3
ак@@ 3
ал@@ 3
ат@@ 3
ба 3
бю@@ 3
виде@@ 3
ге 3
глав@@ 3
гно@@ 3
гор@@ 3
гра@@ 3
град@@ 3
дж@@ 3
дра@@ 3
дь@@ 3
ж 3
жи@@ 3
за@@ 3
зи@@ 3
кра@@ 3
лей@@ 3
лен@@ 3
ло 3
ло@@ 3
лу@@ 3
мат@@ 3
мет@@ 3
национа@@ 3
ными 3
опера@@ 3
пу@@ 3
публика@@ 3
пы@@ 3
рев@@ 3
рен@@ 3
рий 3
руб@@ 3
ск@@ 3
сло@@ 3
спо@@ 3
стан 3
тан 3
телевизи@@ 3
уго@@ 3
ху@@ 3
ц 3
ция 3
чи@@ 3
чка 3
ша 3
ше@@ 3
эро@@ 3
ю@@ 3
язы@@ 3
ѓ@@ 3
і 3
ў 3
ѣ 3
ғ 3
һ@@ 3
Ө 3
բ@@ 3
գ@@ 3
ը@@ 3
թ@@ 3
կ@@ 3
ք@@ 3
ׂ@@ 3
ב 3
ז@@ 3
ח 3
כ 3
ס 3
آب 3
أحمد 3
ؤ@@ 3
ادی@@ 3
اری 3
از@@ 3
اش@@ 3
اط@@ 3
اك@@ 3
الت@@ 3
الجزائ@@ 3
الخ@@ 3
الدين 3
الرحمن 3
الرياض@@ 3
الز@@ 3
السي@@ 3
العزيز 3
الفلسط@@ 3
الملك 3
الوطنية 3
اه 3
بار@@ 3
بان@@ 3
بر 3
بلا@@ 3
بور@@ 3
بي@@ 3
بيت 3
بی@@ 3
ث 3
جب@@ 3
جمعية 3
جن@@ 3
حركة 3
حی@@ 3
دا@@ 3
دو@@ 3
ر 3
راً 3
رب@@ 3
رو@@ 3
رين 3
رُ@@ 3
سل@@ 3
سلي@@ 3
سين@@ 3
شری@@ 3
شع@@ 3
ض 3
ط 3
عد@@ 3
عط@@ 3
عم@@ 3
عمر 3
عن 3
عی@@ 3
غ 3
ــ@@ 3
فی@@ 3
قر@@ 3
قی@@ 3
كري@@ 3
لكرة 3
له@@ 3
لي 3
لِ 3
مان@@ 3
مرو@@ 3
مست@@ 3
مص@@ 3
مطار 3
هار@@ 3
هد 3
وا@@ 3
واح@@ 3
وب@@ 3
ود@@ 3
وری 3
ير@@ 3
يش@@ 3
يو 3
يو@@ 3
ً 3
٨ 3
ک 3
گا@@ 3
گر@@ 3
ھ@@ 3
یر 3
یع@@ 3
ތ@@ 3
ލ@@ 3
ް@@ 3
ߌ@@ 3
ࡀ@@ 3
आर@@ 3
ऋ@@ 3
क 3
कम@@ 3
का 3
कार@@ 3
ग 3
ङ 3
चार 3
चार@@ 3
जी@@ 3
जु@@ 3
डि@@ 3
णा 3
ती 3
तु@@ 3
नव@@ 3
नी 3
नेपाल 3
प 3
भो@@ 3
मन@@ 3
या 3
रम@@ 3
राम@@ 3
लो@@ 3
ळ@@ 3
वं@@ 3
वन@@ 3
शि@@ 3
शु@@ 3
स 3
सि@@ 3
सिंह 3
हू@@ 3
ा 3
ा@@ 3
ु@@ 3
ौ@@ 3
१ 3
५ 3
আ@@ 3
চ@@ 3
র 3
ਖ@@ 3
ਘ 3
ਪ@@ 3
਼@@ 3
ੇ@@ 3
જ@@ 3
ી 3
ଦ@@ 3
ନ@@ 3
ମ@@ 3
଼@@ 3
ା 3
ା@@ 3
ி 3
ோ@@ 3
జ@@ 3
ద@@ 3
ె@@ 3
ో@@ 3
ಯ@@ 3
ಲ@@ 3
ಶ@@ 3
ೊ@@ 3
ന@@ 3
പ@@ 3
ප@@ 3
ශ@@ 3
ී 3
๛@@ 3
ະ 3
າ 3
ຶ@@ 3
ཅ@@ 3
ཇ@@ 3
ཉ@@ 3
ྤ@@ 3
ྫ@@ 3
ླ@@ 3
ဏ@@ 3
ရ 3
ီ 3
ၵ@@ 3
ა 3
ლ 3
ს 3
ላ@@ 3
ሥ@@ 3
ኀ@@ 3
ዳ@@ 3
ថ 3
ឦ@@ 3
ិ 3
ឺ@@ 3
ែ 3
្ 3
៚ 3
ᠪ@@ 3
ᠮ@@ 3
ᠰ@@ 3
ᡥ@@ 3
ᨦ@@ 3
ᩣ 3
ᩨ@@ 3
ᩮ@@ 3
ᴇ@@ 3
ḗ@@ 3
Ḥ@@ 3
ẩ 3
Ẽ 3
ỉ 3
ị@@ 3
ọ@@ 3
ừ 3
ữ@@ 3
ỳ@@ 3
ἀ 3
ἁ@@ 3
Ἁ@@ 3
Ἄ@@ 3
ἑ@@ 3
ἴ@@ 3
Ἴ@@ 3
ὔ@@ 3
‐ 3
―@@ 3
‖@@ 3
  3
⁣ 3
ⁿ 3
₩@@ 3
ℝ@@ 3
℞@@ 3
K@@ 3
ℰ 3
ℵ 3
ℵ@@ 3
Ⅰ 3
Ⅱ@@ 3
←@@ 3
⇒ 3
∅@@ 3
∝ 3
≈@@ 3
≥@@ 3
⌈@@ 3
⌉ 3
▉@@ 3
♂@@ 3
♦@@ 3
⠁@@ 3
⠅@@ 3
⠊@@ 3
ⲉ@@ 3
ⲓ 3
ⲩ@@ 3
ⲭ@@ 3
ⵛ@@ 3
〃 3
ぃ@@ 3
づ 3
ぬ 3
ば 3
ぱ@@ 3
む 3
め 3
や 3
れ 3
ゑ 3
ゖ@@ 3
ォ 3
オ 3
ガ 3
ヂ 3
ナ 3
プ 3
メ 3
ラ 3
ヽ@@ 3
ㄅ@@ 3
ㄈ@@ 3
ㄒ@@ 3
ㄙ@@ 3
ㄛ@@ 3
万 3
丕@@ 3
两@@ 3
临@@ 3
丸 3
主 3
久 3
乳@@ 3
亨@@ 3
亩@@ 3
亲@@ 3
仁 3
介 3
仏@@ 3
仕@@ 3
代表@@ 3
仲 3
伍@@ 3
伐@@ 3
伴@@ 3
但@@ 3
低@@ 3
佘@@ 3
佩@@ 3
例@@ 3
侑@@ 3
侵@@ 3
信 3
倚@@ 3
借@@ 3
偏 3
做@@ 3
傘@@ 3
傲@@ 3
働 3
充@@ 3
兆 3
兎@@ 3
兮@@ 3
共和 3
养@@ 3
兼@@ 3
円 3
准@@ 3
凝@@ 3
则@@ 3
利 3
别@@ 3
劈@@ 3
办@@ 3
加 3
务@@ 3
勉@@ 3
勋@@ 3
動 3
勸@@ 3
北 3
匠@@ 3
區 3
十 3
卒 3
協 3
南 3
博 3
卢@@ 3
厚@@ 3
厥@@ 3
厦@@ 3
厲@@ 3
参 3
又@@ 3
只@@ 3
可以 3
吃@@ 3
吉 3
吻@@ 3
呉@@ 3
和 3
品 3
哭@@ 3
唄 3
喬@@ 3
嗓@@ 3
嘏@@ 3
嘗@@ 3
嘘@@ 3
嘛@@ 3
噴@@ 3
噶@@ 3
团 3
困@@ 3
圆 3
圉@@ 3
圏 3
園 3
圖@@ 3
圭@@ 3
坂 3
均 3
坪@@ 3
垓@@ 3
域@@ 3
塾@@ 3
增@@ 3
壯@@ 3
大 3
奇 3
奐@@ 3
奔@@ 3
套@@ 3
奢@@ 3
奮@@ 3
妤@@ 3
姉@@ 3
婁@@ 3
婦@@ 3
嫔@@ 3
嫦@@ 3
嬢@@ 3
孺@@ 3
宴@@ 3
宸@@ 3
宾@@ 3
寂@@ 3
寸 3
对@@ 3
导@@ 3
寿 3
對@@ 3
小 3
尚 3
届 3
屋 3
層@@ 3
履@@ 3
岁@@ 3
岷@@ 3
岸@@ 3
峰 3
峽@@ 3
崎 3
崖@@ 3
嶋 3
嶺 3
巣@@ 3
已@@ 3
帕@@ 3
帚@@ 3
帳@@ 3
庁@@ 3
序@@ 3
庙@@ 3
庶@@ 3
康 3
廈@@ 3
廊@@ 3
廌@@ 3
廓@@ 3
异@@ 3
引@@ 3
弗@@ 3
彌@@ 3
役@@ 3
往@@ 3
復 3
微 3
必 3
忠 3
忻@@ 3
怡@@ 3
恕@@ 3
悝@@ 3
愼@@ 3
戀 3
戀@@ 3
戏@@ 3
我 3
戶@@ 3
房 3
抄@@ 3
把@@ 3
抜@@ 3
抹@@ 3
押@@ 3
拍@@ 3
括@@ 3
拾 3
拾@@ 3
掃@@ 3
接@@ 3
搖@@ 3
搜@@ 3
搭@@ 3
摘@@ 3
撞@@ 3
撮@@ 3
撰@@ 3
操 3
擎@@ 3
攝@@ 3
整@@ 3
敷@@ 3
文化 3
斉@@ 3
斋@@ 3
斌@@ 3
斷@@ 3
旧@@ 3
旽@@ 3
昌 3
昏@@ 3
春 3
昧@@ 3
昱@@ 3
昼@@ 3
晃 3
曉@@ 3
曙@@ 3
朝 3
札@@ 3
来 3
杯@@ 3
松 3
林 3
果 3
架@@ 3
染@@ 3
査@@ 3
格 3
桀@@ 3
桐 3
桜@@ 3
桶@@ 3
條@@ 3
梧@@ 3
梶@@ 3
棉@@ 3
棋@@ 3
棣@@ 3
楊 3
楞@@ 3
榎@@ 3
槐@@ 3
樂 3
樞@@ 3
樣@@ 3
橙@@ 3
檔@@ 3
欠@@ 3
歇@@ 3
死 3
氐@@ 3
民國 3
永 3
汜 3
汜@@ 3
沔@@ 3
沟@@ 3
沧@@ 3
治 3
沼@@ 3
泗@@ 3
泳@@ 3
洁@@ 3
洪 3
浸@@ 3
涵@@ 3
淄@@ 3
淇@@ 3
淍@@ 3
淚@@ 3
淡@@ 3
淸@@ 3
渊@@ 3
渚@@ 3
渤@@ 3
渭@@ 3
湾 3
湾@@ 3
溝@@ 3
溧@@ 3
滇@@ 3
滋@@ 3
漠@@ 3
漫 3
潜@@ 3
澪@@ 3
濮@@ 3
灘 3
灼@@ 3
災@@ 3
炭@@ 3
烙@@ 3
烤@@ 3
热@@ 3
煖@@ 3
煲@@ 3
燧@@ 3
爪@@ 3
爷@@ 3
物 3
状 3
狗@@ 3
狙@@ 3
狩@@ 3
狮@@ 3
猴@@ 3
獣 3
獸@@ 3
玖@@ 3
环@@ 3
玺@@ 3
珍 3
琅@@ 3
理 3
瑞 3
瑟@@ 3
界 3
疆@@ 3
的 3
皇帝 3
皖@@ 3
皮 3
盆@@ 3
盗@@ 3
盘@@ 3
眞@@ 3
眾@@ 3
睢@@ 3
知 3
短@@ 3
研@@ 3
碓@@ 3
碣@@ 3
磐@@ 3
示 3
祚@@ 3
福 3
禛@@ 3
禥@@ 3
离@@ 3
秉@@ 3
稿@@ 3
穹@@ 3
窦@@ 3
立 3
笙@@ 3
第二@@ 3
筑@@ 3
策 3
筠@@ 3
简@@ 3
米 3
粿 3
糕@@ 3
紅 3
経 3
絶@@ 3
続@@ 3
綺@@ 3
綾@@ 3
緋@@ 3
緯@@ 3
練@@ 3
纥@@ 3
纲@@ 3
经 3
继@@ 3
缅@@ 3
缘 3
罕@@ 3
羅 3
羡@@ 3
群 3
羯@@ 3
羽 3
翅@@ 3
翔@@ 3
翡@@ 3
耆@@ 3
聊@@ 3
联@@ 3
聖 3
聞 3
聶@@ 3
聿@@ 3
肇@@ 3
脳@@ 3
腊@@ 3
腐 3
腕@@ 3
腾@@ 3
膜@@ 3
臣 3
臥@@ 3
臭@@ 3
舒@@ 3
良 3
苍@@ 3
茂 3
茅@@ 3
茉@@ 3
茜@@ 3
茫@@ 3
荀@@ 3
莒@@ 3
莱@@ 3
菅@@ 3
菓@@ 3
萊@@ 3
萍@@ 3
落 3
葬@@ 3
蓋@@ 3
薯 3
薯@@ 3
藤 3
虜@@ 3
虹 3
蛭@@ 3
蛮@@ 3
蝦@@ 3
蝴@@ 3
行政@@ 3
街 3
衙@@ 3
衞@@ 3
衮@@ 3
袈@@ 3
袞@@ 3
裁@@ 3
西 3
覃@@ 3
解 3
解放@@ 3
訂@@ 3
訊@@ 3
討@@ 3
詔@@ 3
講@@ 3
譜@@ 3
讓 3
计@@ 3
讯@@ 3
词@@ 3
谐@@ 3
貂@@ 3
貌@@ 3
貝@@ 3
貨@@ 3
賀 3
賁@@ 3
賦@@ 3
货 3
赢@@ 3
超 3
趾@@ 3
跋@@ 3
跨@@ 3
踏@@ 3
蹇@@ 3
蹴@@ 3
軾@@ 3
轍@@ 3
轟@@ 3
载@@ 3
辅@@ 3
辦@@ 3
辯@@ 3
辰 3
边@@ 3
连@@ 3
逃@@ 3
途@@ 3
速 3
遥@@ 3
遭@@ 3
遮@@ 3
邰@@ 3
郝@@ 3
郸@@ 3
鄒@@ 3
酷@@ 3
醯@@ 3
釵@@ 3
鉴@@ 3
銭@@ 3
録 3
録@@ 3
鏡@@ 3
铜@@ 3
長 3
閑@@ 3
闔@@ 3
闽@@ 3
闾@@ 3
附@@ 3
降@@ 3
陕@@ 3
除@@ 3
隅@@ 3
隆 3
階@@ 3
障@@ 3
雀 3
雉@@ 3
雑@@ 3
雛@@ 3
雨 3
雪 3
雲 3
雷 3
霊 3
霓@@ 3
静 3
面 3
鞋 3
音乐 3
韶@@ 3
頂@@ 3
順 3
頤@@ 3
顒@@ 3
類 3
顶@@ 3
飛 3
餅 3
館 3
饭@@ 3
驃@@ 3
骨 3
體 3
髪@@ 3
魁@@ 3
魄@@ 3
魚 3
鯀@@ 3
鯰@@ 3
鳥 3
鴉@@ 3
鵜@@ 3
鵬@@ 3
鵰@@ 3
鷹 3
鸠@@ 3
鹵@@ 3
麟 3
黍@@ 3
鼓@@ 3
鼻@@ 3
齊 3
龄@@ 3
龔@@ 3
龙 3
龟@@ 3
간 3
개 3
검@@ 3
것@@ 3
구 3
규@@ 3
급@@ 3
길@@ 3
꺼@@ 3
남 3
너 3
널 3
넘 3
넘@@ 3
놀@@ 3
뉴@@ 3
당 3
덤@@ 3
디 3
따@@ 3
란@@ 3
람@@ 3
례@@ 3
를@@ 3
름@@ 3
린@@ 3
마 3
막@@ 3
매@@ 3
먹@@ 3
면 3
몽@@ 3
무 3
문 3
뮤@@ 3
뱅@@ 3
봐 3
봐@@ 3
붐@@ 3
사 3
손@@ 3
솔@@ 3
쇼@@ 3
습@@ 3
시 3
쌍@@ 3
앤@@ 3
억@@ 3
언@@ 3
왕 3
욱@@ 3
율@@ 3
으@@ 3
입 3
잉@@ 3
작@@ 3
잘@@ 3
장 3
저 3
조 3
족@@ 3
좌@@ 3
짝@@ 3
찬@@ 3
추@@ 3
축@@ 3
침@@ 3
캠@@ 3
터 3
페@@ 3
품@@ 3
피 3
필@@ 3
했@@ 3
혁@@ 3
호 3
혼@@ 3
히 3
히@@ 3
@@ 3
@@ 3
１@@ 3
５ 3
？ 3
Ｈ@@ 3
Ｉ@@ 3
Ｏ@@ 3
Ｓ@@ 3
Ｔ@@ 3
［@@ 3
ｃ@@ 3
ｌ@@ 3
ｍ@@ 3
𐩽@@ 3
𐩿@@ 3
𐬀@@ 3
𐭥@@ 3
𑁆@@ 3
𑂲@@ 3
𝐏@@ 3
𝐨@@ 3
𝐫@@ 3
Alemania 2
Allemagne 2
Anadolu 2
Anf@@ 2
Angleterre 2
Arbeits@@ 2
Aun@@ 2
Beledi@@ 2
Benjam@@ 2
Campeonato 2
Ces 2
Chama 2
Chine 2
Ciud@@ 2
Comme 2
Congreso 2
Dienst@@ 2
Dokum@@ 2
Eins@@ 2
Entwicklung 2
Ereb@@ 2
Erk@@ 2
Estados 2
Eyl@@ 2
Febru@@ 2
Fener@@ 2
Frankreich 2
Gebi@@ 2
Geg@@ 2
Gegen@@ 2
Gemein@@ 2
Gesamt@@ 2
Geschichte 2
Giang 2
Gobierno 2
Grenz@@ 2
Halk 2
Hier 2
Ichneumonidae 2
Ihre 2
Imperio 2
Jahre 2
Japon 2
Jimbo 2
Juni 2
Kanada 2
Khi 2
Khu 2
Kich@@ 2
Konz@@ 2
Lage 2
Landes 2
Leip@@ 2
Leiter 2
Londra 2
Mais 2
Meister@@ 2
Migu@@ 2
Minnes@@ 2
Misri 2
Mississi@@ 2
Mit 2
Muhar@@ 2
Mutter 2
Nach 2
Nairobi 2
Noctuidae 2
Okul@@ 2
Orts@@ 2
Osten 2
Pennsyl@@ 2
Poliz@@ 2
Punk@@ 2
Rolle 2
Sau 2
Schule 2
Schwe@@ 2
Sied@@ 2
Sozial@@ 2
Spiel 2
Sprache 2
Staff@@ 2
Stoc@@ 2
Tanganyika 2
Tiy@@ 2
Topl@@ 2
Trong 2
Ufa 2
Unido 2
Unidos 2
Urugu@@ 2
Vor 2
Wahl 2
Wasser 2
Weit@@ 2
Werk 2
Wirtschafts@@ 2
Woh@@ 2
Zug@@ 2
aband@@ 2
acak@@ 2
acional 2
acqui@@ 2
adini 2
aguas 2
ailleurs 2
akini 2
akt@@ 2
alama 2
alara 2
alement 2
alish@@ 2
alismus 2
alista 2
alte 2
altitu@@ 2
ambos 2
amento 2
amt@@ 2
angla@@ 2
anistan 2
annte 2
anten 2
antigua 2
appear@@ 2
arbeit@@ 2
asist@@ 2
asyon 2
atiques 2
atisti@@ 2
ativo 2
atro 2
aujour@@ 2
auti 2
avant 2
bado 2
banda 2
beit@@ 2
besi@@ 2
bew@@ 2
bildung 2
blanco 2
bord 2
breit@@ 2
brought 2
campe@@ 2
canton 2
casa 2
cerc@@ 2
chama 2
chas 2
chte 2
chuo 2
classe 2
comman@@ 2
composed 2
compr@@ 2
compte 2
comun@@ 2
condu@@ 2
conten@@ 2
criti@@ 2
critique 2
cultura 2
deniz 2
deren 2
derniers 2
descend@@ 2
described 2
dessen 2
devant 2
divers 2
donn@@ 2
dua 2
ectos 2
ectura 2
ehen 2
einmal 2
empe@@ 2
emple@@ 2
empre 2
encial 2
enek@@ 2
enfants 2
enl@@ 2
ennen 2
ensemble 2
enton@@ 2
entren@@ 2
erei 2
erini 2
esos 2
estos 2
etzt 2
eventually 2
famil@@ 2
fass@@ 2
fed@@ 2
ficie 2
ficio 2
fik@@ 2
fois 2
fonc@@ 2
forsch@@ 2
frei@@ 2
fuera 2
gab 2
ganz 2
geht 2
gende 2
gesellschaft 2
grab@@ 2
grado 2
hale 2
hariki 2
hastal@@ 2
haup@@ 2
heb@@ 2
heu@@ 2
hif@@ 2
hiki 2
historia 2
hiwa 2
hors 2
hosp@@ 2
ibar 2
iben 2
ichts@@ 2
idades 2
ieder 2
ieron 2
ierte 2
iglesia 2
igung 2
ihe 2
ikali 2
ildi 2
ileri 2
ilien 2
imz@@ 2
initially 2
innen 2
isiones 2
issement 2
issen@@ 2
jini 2
kann 2
kari@@ 2
kathol@@ 2
keine 2
keit 2
kendi 2
khai 2
kij@@ 2
kodi 2
koy@@ 2
kreich 2
kreis 2
kte 2
kten 2
kua 2
kuf@@ 2
kurdu 2
kurum@@ 2
kush@@ 2
kuw@@ 2
kuz@@ 2
laka 2
langue 2
lares 2
lege 2
lequel 2
lieder 2
liko 2
lili@@ 2
lise 2
livre 2
luk@@ 2
luz 2
madan 2
mainly 2
maire 2
maji 2
mang 2
marque 2
mayo 2
meil@@ 2
meister@@ 2
mek 2
menor 2
merc@@ 2
mif@@ 2
militaire 2
mito 2
mort 2
mt 2
nacionales 2
nda 2
neh@@ 2
nern 2
nord@@ 2
nten 2
oben 2
occas@@ 2
ocho 2
okul@@ 2
onu 2
onyme 2
oran@@ 2
orden@@ 2
osos 2
ovu 2
pande 2
paro@@ 2
parti 2
particularly 2
plaz@@ 2
pobl@@ 2
pou@@ 2
premiers 2
preuve 2
produ@@ 2
profes@@ 2
provide 2
puis 2
puiss@@ 2
rar 2
regel@@ 2
reli 2
relig@@ 2
religie@@ 2
rend 2
retim 2
riwa 2
rouge 2
saire 2
salle 2
sanat@@ 2
sant@@ 2
sao 2
sasa 2
sawa 2
schwar@@ 2
sede 2
seinen 2
seiner 2
seli 2
semb@@ 2
septi@@ 2
setzung 2
seurs 2
sinh 2
sionn@@ 2
siri 2
siz 2
sobre 2
sometimes 2
sont 2
spiel 2
sprech@@ 2
statisti@@ 2
strecke 2
strum@@ 2
suggest@@ 2
table@@ 2
tano 2
tanto 2
tecn@@ 2
teh@@ 2
teki 2
telle 2
tema 2
territoire 2
territori@@ 2
tete 2
theo 2
ticas 2
ticos 2
tiem@@ 2
tillo 2
timest@@ 2
todo 2
tourn@@ 2
tours 2
tradition@@ 2
tragen 2
trat 2
trata 2
travers 2
trik 2
trique 2
tware 2
umlu 2
una@@ 2
usal@@ 2
uzak@@ 2
varias 2
veaux 2
victoire 2
vida 2
viel 2
vient 2
voix 2
vur@@ 2
waf@@ 2
wahili 2
waka 2
wango 2
wanja 2
wao 2
wap@@ 2
wech@@ 2
wei@@ 2
weise 2
weng@@ 2
wezi 2
ximo 2
yeni 2
zeichen 2
zeit@@ 2
zentr@@ 2
zentrum 2
zeug 2
ziy@@ 2
zug@@ 2
 2
¡@@ 2
¨ 2
À@@ 2
È@@ 2
Ê@@ 2
Ò@@ 2
Ó@@ 2
Ô@@ 2
çı 2
öğ@@ 2
üç@@ 2
ÿ 2
Ā@@ 2
Ć 2
Ĉ 2
ę@@ 2
Ĝ 2
ĝ 2
ġ@@ 2
ģ 2
Ĥ 2
Ħ@@ 2
ĵ 2
Ķ 2
Ń 2
ŕ 2
Ţ@@ 2
ť 2
Ŧ@@ 2
Ŭ 2
ů@@ 2
Ű@@ 2
ű@@ 2
ŵ 2
ź@@ 2
Ž@@ 2
Ơ@@ 2
Ƣ 2
ƣ 2
Ư@@ 2
ǫ@@ 2
ǰ@@ 2
Ț@@ 2
ɐ 2
ɓ 2
ɜ@@ 2
ɦ 2
ɭ 2
ɵ 2
ɸ@@ 2
ʀ 2
ʁ@@ 2
ʋ@@ 2
ʏ 2
ʑ@@ 2
ʕ@@ 2
ʦ@@ 2
ʲ 2
ʹ 2
ʽ 2
ˁ 2
ˑ 2
˚@@ 2
˝ 2
˥ 2
˩@@ 2
̃ 2
̌@@ 2
̥@@ 2
̧ 2
̩ 2
̩@@ 2
̯ 2
̰@@ 2
͜ 2
Αθλ@@ 2
Απ@@ 2
Ε 2
Εθνικό 2
Ζ@@ 2
Καλ@@ 2
Κωνσταντιν@@ 2
Κύ@@ 2
Λε@@ 2
Μερ@@ 2
Μιχαήλ 2
Ξ@@ 2
Πα@@ 2
Παλαι@@ 2
Πο@@ 2
Σά@@ 2
Σα@@ 2
Σαρ@@ 2
Τ 2
Υ 2
Υ@@ 2
Υπ@@ 2
Χρ@@ 2
ά 2
άνα@@ 2
άνδ@@ 2
άνη 2
άσ@@ 2
άστ@@ 2
άφ@@ 2
έκα 2
έφ@@ 2
ήμ@@ 2
ήρ@@ 2
ήτ@@ 2
ίδα 2
ίνη 2
αγορ@@ 2
αν 2
ανα@@ 2
ανο@@ 2
αρι@@ 2
αρκ@@ 2
αρχ@@ 2
αρχιτεκτον@@ 2
ατρ@@ 2
αύ@@ 2
βα 2
βαρ@@ 2
γλ@@ 2
γνω@@ 2
δί@@ 2
δια@@ 2
διαβ@@ 2
διασ@@ 2
δρόμ@@ 2
δυ@@ 2
δύνα@@ 2
δών 2
εία 2
είχ@@ 2
εγκ@@ 2
ειδ@@ 2
εικ@@ 2
ειρ@@ 2
επ@@ 2
επι@@ 2
εσ@@ 2
ηδ@@ 2
ηλ@@ 2
ηλεκτρον@@ 2
ημι@@ 2
ησι@@ 2
ητ@@ 2
θέν@@ 2
θα 2
ια 2
ιγ@@ 2
ιστ@@ 2
ιχ@@ 2
καθολ@@ 2
και 2
κατα@@ 2
κι@@ 2
κρατ@@ 2
κό@@ 2
λει 2
λευθερ@@ 2
λευκ@@ 2
λεύ@@ 2
λη@@ 2
λιο@@ 2
λις 2
λύ@@ 2
μέν@@ 2
μία 2
μακ@@ 2
μακρ@@ 2
μαλ@@ 2
μαν@@ 2
μαχ@@ 2
μει@@ 2
μετα@@ 2
μν@@ 2
μονα@@ 2
μορ@@ 2
μορφ@@ 2
μυ@@ 2
μό@@ 2
ναι 2
νη 2
νο 2
νο@@ 2
νομ@@ 2
ντ@@ 2
νυ@@ 2
νύ@@ 2
νώ@@ 2
οβ@@ 2
ογ@@ 2
οειδ@@ 2
οι 2
ολογ@@ 2
ονία 2
οπο@@ 2
ορι@@ 2
ορο@@ 2
οτ@@ 2
ου 2
οχ@@ 2
πάρ@@ 2
πέ@@ 2
παί@@ 2
παλαι@@ 2
παν@@ 2
παρά 2
περί@@ 2
πιστ@@ 2
πλατ@@ 2
πλη@@ 2
ποικ@@ 2
πολ@@ 2
πρ@@ 2
προ 2
πτ@@ 2
πυ@@ 2
πύ@@ 2
ρίγκ@@ 2
ρα 2
ριν@@ 2
ριστο@@ 2
ροφ@@ 2
ρυ@@ 2
ρό@@ 2
σία 2
σιος 2
σμός 2
σο@@ 2
στήρ@@ 2
στη@@ 2
στις 2
συ@@ 2
συν@@ 2
σω@@ 2
τέκ@@ 2
τή@@ 2
ταμ@@ 2
ταυ@@ 2
ταχ@@ 2
τη 2
το 2
τολ@@ 2
τον@@ 2
τοπ@@ 2
του@@ 2
τού@@ 2
υμ@@ 2
υπο@@ 2
φαλ@@ 2
φος 2
χα@@ 2
χι@@ 2
ως 2
ό 2
όμ@@ 2
όπο@@ 2
όρος 2
όχ@@ 2
ύγ@@ 2
ών 2
ώπ@@ 2
ϑ 2
Ϝ 2
ϩ@@ 2
ϫ@@ 2
Ё@@ 2
Ђ@@ 2
Ѕ@@ 2
Џ@@ 2
Авто@@ 2
Ад@@ 2
Ай@@ 2
Алек@@ 2
Анато@@ 2
Андре@@ 2
Анна 2
Ата@@ 2
Благо@@ 2
Бу@@ 2
Българ@@ 2
Вар@@ 2
Васи@@ 2
Василь@@ 2
Ве@@ 2
Ви@@ 2
Вла@@ 2
Воз@@ 2
Все@@ 2
Ген@@ 2
Гос@@ 2
Ду@@ 2
За@@ 2
Зо@@ 2
Ива@@ 2
Иван 2
Ир@@ 2
Ис@@ 2
Кате@@ 2
Кол@@ 2
Ком@@ 2
Коро@@ 2
Ли@@ 2
Лу@@ 2
Лю@@ 2
Макси@@ 2
Мария 2
Ме@@ 2
Международ@@ 2
Мен@@ 2
Министер@@ 2
Мон@@ 2
Му@@ 2
Национа@@ 2
Пе@@ 2
Пер@@ 2
Пи@@ 2
Под@@ 2
Поли@@ 2
Ро@@ 2
ССР 2
Се@@ 2
Сер@@ 2
Серге@@ 2
Си@@ 2
Сло@@ 2
Совет@@ 2
Сою@@ 2
Те@@ 2
Теле@@ 2
Три@@ 2
Фин@@ 2
Це@@ 2
Ъ@@ 2
Ю 2
авиа@@ 2
автоно@@ 2
ад@@ 2
актив@@ 2
алистиче@@ 2
ари 2
ать 2
бар@@ 2
бит@@ 2
буду@@ 2
бы@@ 2
быть 2
вание 2
вар@@ 2
вен@@ 2
визи@@ 2
вин 2
вой 2
вой@@ 2
въ@@ 2
вы@@ 2
вых 2
гар@@ 2
ге@@ 2
ги@@ 2
гим@@ 2
гой 2
гори@@ 2
государствен@@ 2
граждан@@ 2
да 2
дар 2
дер@@ 2
джи@@ 2
дий 2
дин 2
дов@@ 2
дол@@ 2
дор 2
ев 2
ед@@ 2
ей 2
ене@@ 2
ента@@ 2
ер 2
ер@@ 2
ет@@ 2
жур@@ 2
зем@@ 2
зна@@ 2
ите@@ 2
итель@@ 2
йская 2
канал 2
кни@@ 2
кор@@ 2
край@@ 2
крат@@ 2
лий 2
лич@@ 2
лов 2
лов@@ 2
лович 2
ль 2
ля@@ 2
магни@@ 2
мас@@ 2
мер@@ 2
мир 2
мон@@ 2
мпи@@ 2
нал 2
нан@@ 2
нар@@ 2
нари@@ 2
ни 2
ните@@ 2
нию 2
нович 2
ну@@ 2
ных 2
оборо@@ 2
олимпи@@ 2
он 2
они 2
оп@@ 2
ору@@ 2
пар@@ 2
пе@@ 2
пла@@ 2
пло@@ 2
пре@@ 2
при@@ 2
про@@ 2
простран@@ 2
публикан@@ 2
ра 2
ради@@ 2
радио@@ 2
рал@@ 2
рами@@ 2
рат 2
рез@@ 2
рус@@ 2
ря@@ 2
ситуа@@ 2
ско@@ 2
ское 2
сла@@ 2
слав@@ 2
следо@@ 2
сми@@ 2
сна@@ 2
спу@@ 2
ств 2
ственного 2
стви@@ 2
стре@@ 2
ступ@@ 2
су@@ 2
сь 2
тар 2
тво@@ 2
теле@@ 2
тер@@ 2
тов@@ 2
ту 2
ты@@ 2
тя@@ 2
ул 2
хот@@ 2
храни@@ 2
ца 2
центр 2
ции 2
ча@@ 2
чай@@ 2
чит@@ 2
чита@@ 2
чна 2
чь 2
ши@@ 2
шин@@ 2
щ 2
ща@@ 2
щи@@ 2
ям 2
ян 2
ёт 2
љ@@ 2
ќ@@ 2
Ѡ@@ 2
ѡ@@ 2
Ѳ@@ 2
Ѵ@@ 2
ѹ@@ 2
Ҁ 2
Ґ@@ 2
ґ@@ 2
Ғ@@ 2
Җ@@ 2
қ 2
Ң 2
Ң@@ 2
ң 2
Ҫ 2
Ү 2
ұ@@ 2
ҳ@@ 2
Һ 2
Һ@@ 2
Ә 2
Ә@@ 2
Ա@@ 2
դ@@ 2
զ@@ 2
է@@ 2
ժ@@ 2
խ@@ 2
ղ@@ 2
ջ@@ 2
տ@@ 2
ֲ@@ 2
ּ 2
ך@@ 2
ץ 2
آل 2
أش@@ 2
أن 2
أي@@ 2
إل@@ 2
إلى 2
ئ 2
ابن 2
ابو 2
اتح@@ 2
احمد 2
ادية 2
اس 2
اسلا@@ 2
اص@@ 2
اق 2
ال 2
الآ@@ 2
الأر@@ 2
الأول 2
الاتحاد 2
الاح@@ 2
الة 2
الجزيرة 2
الدي@@ 2
الروا@@ 2
السع@@ 2
الض@@ 2
الط@@ 2
العظ@@ 2
الغ@@ 2
اللغة 2
المج@@ 2
المح@@ 2
المع@@ 2
المن@@ 2
الو@@ 2
الوطني 2
الی 2
انقلاب 2
اي 2
اً 2
اک@@ 2
بح@@ 2
برو@@ 2
بری@@ 2
بل 2
بنت 2
بند@@ 2
بول@@ 2
بیب 2
ةً 2
تر@@ 2
ترا@@ 2
تع@@ 2
تف@@ 2
ته 2
ته@@ 2
تون@@ 2
تِ 2
تی 2
جر@@ 2
جمهورية 2
جنوب 2
جي@@ 2
جی@@ 2
حة 2
حر@@ 2
حزب 2
حسين 2
حك@@ 2
خالد 2
خام@@ 2
خلا@@ 2
خی@@ 2
دار@@ 2
دان 2
ده 2
دولة 2
دھ@@ 2
راج 2
رام 2
رخ 2
رسول 2
رق@@ 2
روا@@ 2
ري 2
زبان 2
زية 2
سا@@ 2
سام@@ 2
سب@@ 2
سط@@ 2
سك@@ 2
سلام 2
سن@@ 2
سى 2
سيد 2
سير 2
سی 2
سید 2
شاع@@ 2
شبه 2
شر@@ 2
شري@@ 2
شمس 2
ص 2
صر 2
صف@@ 2
صی@@ 2
ضل@@ 2
ضي@@ 2
طرا@@ 2
طل@@ 2
طي@@ 2
طية 2
ظ 2
ظ@@ 2
عاد@@ 2
عباس 2
عثمان 2
علوم 2
علی@@ 2
عي@@ 2
عيد 2
عُ@@ 2
غي@@ 2
فة 2
فل@@ 2
فو@@ 2
قال 2
قد@@ 2
قص@@ 2
قل@@ 2
قوب 2
كام@@ 2
كر@@ 2
كو@@ 2
كي@@ 2
لام 2
لة 2
لش@@ 2
ماً 2
مت@@ 2
مح@@ 2
مد@@ 2
مر 2
مراد 2
مسجد 2
مسلم 2
مط@@ 2
مك@@ 2
مهورية 2
می 2
می@@ 2
میر@@ 2
نت@@ 2
ندر 2
ندي 2
نط@@ 2
نق@@ 2
نية 2
ها@@ 2
هي@@ 2
وار@@ 2
واصل 2
والح@@ 2
وت@@ 2
ودي@@ 2
وري 2
وطن 2
وو@@ 2
وی@@ 2
يا 2
يس@@ 2
يق@@ 2
ين 2
يني@@ 2
ًا 2
ٌ@@ 2
ٖ@@ 2
١@@ 2
ٰ 2
پر@@ 2
چ 2
ڑ@@ 2
ڤ 2
کور@@ 2
کھ@@ 2
کی 2
ڪ@@ 2
گ 2
ڽ 2
ہ@@ 2
ۆ@@ 2
ۋ@@ 2
ۗ 2
۳@@ 2
۵ 2
۷ 2
۷@@ 2
ܗ 2
ܗ@@ 2
ܛ@@ 2
ܝ 2
ܣ@@ 2
ܥ@@ 2
ܦ@@ 2
݂@@ 2
ݢ 2
މ@@ 2
ދ@@ 2
ަ 2
ި@@ 2
ު 2
ߊ@@ 2
ߞ@@ 2
ߣ@@ 2
ࡉ@@ 2
ंगल 2
अन@@ 2
अर@@ 2
आदि 2
ई@@ 2
करा@@ 2
कल@@ 2
काल@@ 2
कृ@@ 2
कौ@@ 2
ख 2
खा 2
खो@@ 2
गण@@ 2
गौ@@ 2
चि@@ 2
चे@@ 2
ज 2
जन 2
टी@@ 2
डो@@ 2
तक 2
तीन 2
तु 2
थ 2
द 2
दा 2
देव 2
देव@@ 2
ध 2
धा@@ 2
धार@@ 2
धी@@ 2
धू@@ 2
नग@@ 2
ना 2
नाइट 2
नो@@ 2
पान 2
पू@@ 2
पृ@@ 2
फ@@ 2
फू@@ 2
बहुत 2
बा 2
भग@@ 2
भार@@ 2
भारतीय 2
भि@@ 2
भु@@ 2
मन 2
मह@@ 2
मान 2
मानी 2
माल 2
मुख@@ 2
मू@@ 2
मै@@ 2
मैं 2
याय@@ 2
यी 2
ये@@ 2
यौ@@ 2
रत@@ 2
रव 2
राम 2
रीय 2
रो@@ 2
ला 2
वज@@ 2
वय@@ 2
वस@@ 2
विक@@ 2
विष@@ 2
वी 2
शिव@@ 2
शी@@ 2
ष 2
सम@@ 2
समा@@ 2
सर@@ 2
सव 2
सा 2
सात 2
साम@@ 2
सी 2
सौ@@ 2
हज@@ 2
हो@@ 2
िया 2
िया@@ 2
ी 2
ो@@ 2
॥ 2
०० 2
१@@ 2
অ@@ 2
ই@@ 2
উ@@ 2
ছ@@ 2
জ@@ 2
দ@@ 2
ধ@@ 2
ন 2
ফ@@ 2
ম 2
ল 2
ষ@@ 2
হ@@ 2
৳ 2
ਆ@@ 2
ਇ@@ 2
ਓ 2
ਯ@@ 2
ੀ 2
ੂ 2
ੋ@@ 2
੍@@ 2
ੱ@@ 2
ગ@@ 2
ત@@ 2
ય 2
ર@@ 2
લ@@ 2
વ@@ 2
ા@@ 2
ଓ@@ 2
ଗ@@ 2
ଛ@@ 2
ର@@ 2
ଲ@@ 2
ହ@@ 2
ୀ@@ 2
୍@@ 2
இ@@ 2
க 2
ந@@ 2
வ@@ 2
ு 2
ெ@@ 2
ே 2
ே@@ 2
ை@@ 2
క 2
గ@@ 2
ట@@ 2
డ@@ 2
త 2
బ@@ 2
మ 2
ళ@@ 2
స@@ 2
హ@@ 2
ా 2
ి 2
ే 2
ో 2
ಗ@@ 2
ಟ@@ 2
ದ@@ 2
ನ@@ 2
ಭ@@ 2
ರ 2
ವ@@ 2
ಹ@@ 2
ಾ 2
ು@@ 2
ೆ@@ 2
ം@@ 2
ഐ@@ 2
ക 2
ട@@ 2
ര@@ 2
വ@@ 2
ശ@@ 2
ീ@@ 2
ව@@ 2
හ@@ 2
ේ@@ 2
มกรา@@ 2
รวรร@@ 2
ี่ปุ่น 2
๏@@ 2
ກ 2
໌ 2
ཏ@@ 2
ཐ@@ 2
ཛ@@ 2
ཞ@@ 2
ཤ@@ 2
ྗ@@ 2
ྟ@@ 2
ྩ@@ 2
ྭ@@ 2
ဉ@@ 2
ဦ@@ 2
ိ 2
ူ 2
္ 2
ၾ@@ 2
ႊ@@ 2
თ 2
კ@@ 2
ღ@@ 2
ყ@@ 2
შ@@ 2
ძ@@ 2
ም@@ 2
ሪ 2
ራ@@ 2
ር@@ 2
ስ@@ 2
ቀ@@ 2
ተ 2
ን@@ 2
ኢ@@ 2
ኤ@@ 2
እ@@ 2
ው@@ 2
የ@@ 2
ያ 2
ዮ@@ 2
ግ@@ 2
ጵ@@ 2
ᓄ@@ 2
ច 2
ធ 2
ឯ@@ 2
ូ 2
៚@@ 2
៤ 2
៦ 2
៩ 2
ᠨ 2
ᥑ@@ 2
ᥣ@@ 2
ᥫ@@ 2
ᨶ@@ 2
ᨾ@@ 2
ᨿ@@ 2
ᩁ@@ 2
ᩃ@@ 2
ᩐ@@ 2
ᩩ@@ 2
ᮧ@@ 2
ᵑ@@ 2
ᵻ 2
Ḍ@@ 2
ḵ 2
Ṣ@@ 2
Ṭ@@ 2
ṳ@@ 2
ṵ 2
ề@@ 2
ồ@@ 2
ở 2
ụ@@ 2
ừ@@ 2
ử@@ 2
ỹ@@ 2
Ἔ@@ 2
ἠ@@ 2
ἡ@@ 2
ἤ@@ 2
ἧ@@ 2
ἷ@@ 2
ὖ@@ 2
ὴ@@ 2
ὸ@@ 2
ᾱ 2
ᾱ@@ 2
ᾶ@@ 2
ῃ@@ 2
ῑ@@ 2
Ῥ@@ 2
ῳ@@ 2
‏ 2
‐@@ 2
‧@@ 2
″@@ 2
‿@@ 2
⁄@@ 2
₱@@ 2
ℏ@@ 2
ℑ 2
ℙ@@ 2
ℜ 2
ℜ@@ 2
ℝ 2
Ⅱ 2
↔@@ 2
↘ 2
∀@@ 2
∂ 2
∎ 2
∝@@ 2
∥@@ 2
∧@@ 2
∪ 2
∫ 2
∴ 2
⊿@@ 2
① 2
▢@@ 2
▼@@ 2
◇@@ 2
◦ 2
☃ 2
☮@@ 2
♀ 2
♇@@ 2
♯@@ 2
⚡@@ 2
⚪@@ 2
⚫@@ 2
⠃@@ 2
⠉@@ 2
⠋@@ 2
⠑@@ 2
⠓@@ 2
⠕@@ 2
⠙@@ 2
⠚@@ 2
ⲁ 2
ⲉ 2
ⲙ 2
Ⲡ@@ 2
ⲫ@@ 2
ⲱ@@ 2
ⴱ@@ 2
ⴳ@@ 2
ⵄ@@ 2
ⵏ@@ 2
ⵙ@@ 2
ⵜ 2
〉@@ 2
ぅ@@ 2
ぇ 2
ぉ@@ 2
ぐ 2
ご 2
じ 2
だ 2
び 2
ぴ@@ 2
ぶ 2
ゕ@@ 2
ゝ 2
ゞ@@ 2
ァ 2
サ 2
セ 2
テ 2
ノ 2
モ 2
ワ 2
ヵ 2
ㄍ@@ 2
ㄐ@@ 2
ㄑ@@ 2
ㄔ@@ 2
ㄗ@@ 2
ㄜ@@ 2
ㄝ@@ 2
ㄟ@@ 2
ㅅ 2
ㅇ 2
ㅈ 2
ㅍ 2
ㅣ 2
ㇰ 2
㔻 2
㬎@@ 2
一 2
丑@@ 2
且@@ 2
丕 2
世界 2
並@@ 2
丹 2
丼 2
丼@@ 2
举@@ 2
乎@@ 2
乡 2
买@@ 2
乳 2
事件 2
于 2
五 2
亥 2
享@@ 2
亶@@ 2
以 2
仪 2
企@@ 2
休 2
会 2
伦@@ 2
似 2
余 2
你 2
佮@@ 2
佰@@ 2
佶@@ 2
使 2
侣@@ 2
保 2
修 2
俺@@ 2
倉 2
個 2
倍@@ 2
倎@@ 2
倪@@ 2
值@@ 2
偃@@ 2
停@@ 2
傕@@ 2
傾@@ 2
像 2
僮@@ 2
僵@@ 2
儉@@ 2
優 2
允 2
兄 2
兖@@ 2
兜@@ 2
入 2
八 2
兽@@ 2
内 2
冈@@ 2
册@@ 2
军 2
冤@@ 2
冷@@ 2
净@@ 2
凈@@ 2
凑@@ 2
几@@ 2
凪@@ 2
凯@@ 2
凰 2
凱 2
分 2
刈@@ 2
创@@ 2
判@@ 2
制 2
刷@@ 2
刹@@ 2
刻 2
剌@@ 2
前 2
剑 2
割@@ 2
創@@ 2
劉 2
功 2
労 2
勐@@ 2
勖@@ 2
勘@@ 2
勢 2
勣@@ 2
勳 2
匪 2
単 2
単@@ 2
卯@@ 2
即@@ 2
卵@@ 2
卷 2
厂@@ 2
厳@@ 2
叁@@ 2
參@@ 2
友 2
叮@@ 2
可 2
台灣 2
叻@@ 2
各 2
吒@@ 2
吕@@ 2
吗@@ 2
吞@@ 2
吹 2
吻 2
呣@@ 2
周 2
咕@@ 2
咖@@ 2
咫@@ 2
咱@@ 2
哪@@ 2
哮@@ 2
唄@@ 2
唇@@ 2
唔@@ 2
啓@@ 2
善 2
喋@@ 2
喪@@ 2
嗯@@ 2
嘉 2
噠@@ 2
嚕@@ 2
囊@@ 2
囍 2
园 2
固 2
固@@ 2
圃@@ 2
圧@@ 2
在 2
地方 2
地球 2
圳@@ 2
址@@ 2
坊 2
坐@@ 2
坚@@ 2
型 2
垢@@ 2
埃@@ 2
域 2
堆@@ 2
堪@@ 2
報 2
堺@@ 2
塀 2
塚 2
塚@@ 2
塵@@ 2
境 2
墓 2
墙@@ 2
墩@@ 2
墮@@ 2
墳@@ 2
売@@ 2
壹@@ 2
备@@ 2
夔@@ 2
大会 2
央 2
失 2
夺@@ 2
奄@@ 2
奈 2
奏 2
奸@@ 2
好 2
如 2
妝@@ 2
妾@@ 2
姊@@ 2
委@@ 2
委员@@ 2
姬 2
姻@@ 2
娑@@ 2
娛@@ 2
娡@@ 2
婕@@ 2
婦 2
嫻@@ 2
嬴@@ 2
孚@@ 2
孝 2
季 2
宅@@ 2
宕@@ 2
官 2
宙 2
实 2
実 2
害 2
宴 2
宵 2
寓@@ 2
寛@@ 2
審@@ 2
寬@@ 2
寵@@ 2
对 2
寻@@ 2
尋@@ 2
尘@@ 2
尙@@ 2
尺@@ 2
尼 2
层@@ 2
居 2
届@@ 2
屏@@ 2
屑@@ 2
岡 2
岩 2
岳 2
峇@@ 2
峨@@ 2
峪@@ 2
峯@@ 2
嵩@@ 2
嶋@@ 2
嶲@@ 2
巅@@ 2
巛 2
巢@@ 2
左 2
巫@@ 2
巷 2
巻 2
布 2
希 2
帛@@ 2
帶@@ 2
常 2
幕 2
幢@@ 2
幣 2
幣@@ 2
干 2
并@@ 2
幼@@ 2
幾 2
序 2
庐@@ 2
库@@ 2
庞@@ 2
座 2
廕@@ 2
廠@@ 2
廩@@ 2
延 2
弐 2
弐@@ 2
弔@@ 2
強 2
弼@@ 2
归@@ 2
当 2
彗@@ 2
彝@@ 2
彪@@ 2
影 2
影響 2
律 2
後 2
徒 2
従 2
忙@@ 2
怦@@ 2
性 2
惊@@ 2
惡@@ 2
惲 2
想 2
惶@@ 2
愉@@ 2
愕 2
愿@@ 2
慄@@ 2
慕@@ 2
慰@@ 2
憐@@ 2
懷 2
戈@@ 2
戒 2
战 2
戲@@ 2
戸 2
扌 2
扎@@ 2
扣@@ 2
找@@ 2
抄 2
报 2
拂@@ 2
拐@@ 2
拡@@ 2
挙 2
授@@ 2
採@@ 2
探 2
掲@@ 2
掾@@ 2
揆@@ 2
描@@ 2
插@@ 2
揭@@ 2
援@@ 2
摂@@ 2
摄@@ 2
撒 2
據@@ 2
擲@@ 2
攕@@ 2
攸@@ 2
改 2
攻 2
效@@ 2
敎@@ 2
敕@@ 2
数@@ 2
斈@@ 2
斑@@ 2
斛@@ 2
斩@@ 2
於 2
旁 2
旬@@ 2
旻 2
旼@@ 2
昉@@ 2
昩@@ 2
昭 2
昺@@ 2
晁@@ 2
晃@@ 2
晚@@ 2
晟@@ 2
晴 2
暉@@ 2
暑@@ 2
暖@@ 2
暢@@ 2
曖@@ 2
曜@@ 2
曲 2
更 2
曼@@ 2
曽 2
朂@@ 2
會 2
有限公司 2
朋@@ 2
朗 2
望 2
末 2
权@@ 2
枫@@ 2
染 2
查@@ 2
柿@@ 2
栄@@ 2
栏@@ 2
栗@@ 2
案 2
桑@@ 2
梅 2
梨 2
棧@@ 2
棲@@ 2
植@@ 2
楓@@ 2
楨@@ 2
業 2
楷 2
楷@@ 2
楼 2
楽 2
榔@@ 2
榴@@ 2
様 2
槻@@ 2
樓 2
機 2
機場 2
檸@@ 2
櫃@@ 2
歙@@ 2
止 2
歯@@ 2
歳 2
残@@ 2
殤@@ 2
毕@@ 2
毗@@ 2
毘@@ 2
民 2
氷@@ 2
汀@@ 2
汇@@ 2
池 2
汶@@ 2
汽@@ 2
沁@@ 2
沂@@ 2
沐@@ 2
没@@ 2
沱@@ 2
沼 2
況@@ 2
泊@@ 2
泡@@ 2
泪@@ 2
洵@@ 2
洼@@ 2
浒@@ 2
润@@ 2
涩@@ 2
涪@@ 2
液 2
涿@@ 2
淞@@ 2
淩@@ 2
混@@ 2
淹@@ 2
済@@ 2
渉@@ 2
減 2
渡 2
游 2
源 2
準@@ 2
滕@@ 2
滝@@ 2
滩@@ 2
滸@@ 2
漪@@ 2
潔 2
潔@@ 2
潘 2
潛@@ 2
潟@@ 2
潮 2
澂@@ 2
澤 2
澮@@ 2
濛@@ 2
濟 2
濤@@ 2
濱@@ 2
濶@@ 2
瀬 2
灯 2
灰 2
灾@@ 2
炎 2
炮@@ 2
炸@@ 2
烟@@ 2
焉@@ 2
焕@@ 2
焢@@ 2
然 2
煌@@ 2
煮@@ 2
熙 2
熾@@ 2
爌@@ 2
爸@@ 2
爹@@ 2
牆@@ 2
片 2
牖@@ 2
牧 2
犀@@ 2
犛@@ 2
献@@ 2
獨@@ 2
玖 2
玛@@ 2
玩@@ 2
珈@@ 2
珉@@ 2
班 2
球 2
琉@@ 2
琦@@ 2
琴 2
瑀@@ 2
瑋@@ 2
瑜@@ 2
瑠@@ 2
瑰 2
璆@@ 2
璇@@ 2
璋 2
璠@@ 2
璽 2
瓏@@ 2
瓚@@ 2
甌@@ 2
產@@ 2
甦@@ 2
男子 2
畝@@ 2
症@@ 2
痴@@ 2
療@@ 2
白 2
百 2
皋@@ 2
盐@@ 2
监@@ 2
監 2
直 2
盼@@ 2
盾@@ 2
眉 2
県 2
眼 2
睡@@ 2
督 2
瞞@@ 2
瞻@@ 2
矣@@ 2
研 2
破 2
硕@@ 2
碎@@ 2
碗@@ 2
確@@ 2
祀@@ 2
祇@@ 2
祖 2
祜@@ 2
祠@@ 2
禕 2
禕@@ 2
禺@@ 2
私 2
秒@@ 2
秘 2
积@@ 2
移@@ 2
稜@@ 2
種 2
穰@@ 2
穷@@ 2
穿@@ 2
竜 2
竺@@ 2
笔@@ 2
笠@@ 2
第十@@ 2
笼@@ 2
筋@@ 2
筒@@ 2
答@@ 2
箕@@ 2
箱@@ 2
篆@@ 2
築@@ 2
篤@@ 2
簡 2
簿 2
簿@@ 2
粄@@ 2
粉 2
粗@@ 2
粥 2
粧@@ 2
精 2
糋@@ 2
約 2
紗@@ 2
紘@@ 2
素 2
組 2
絳@@ 2
綫@@ 2
網 2
緑@@ 2
緣@@ 2
縁@@ 2
繁@@ 2
繊@@ 2
纒@@ 2
级@@ 2
纯@@ 2
结@@ 2
络@@ 2
绣@@ 2
续@@ 2
绿@@ 2
编@@ 2
羋@@ 2
羌 2
羚@@ 2
羿@@ 2
翔 2
翟@@ 2
者 2
耦@@ 2
耳 2
耽@@ 2
聂@@ 2
聯 2
聰@@ 2
聽@@ 2
肆@@ 2
肉 2
肖@@ 2
肝@@ 2
肯@@ 2
肺@@ 2
胡 2
胤 2
胸@@ 2
腸@@ 2
腺 2
膏@@ 2
臺 2
舉@@ 2
舌 2
舒 2
舟 2
艸@@ 2
芝 2
芦@@ 2
芸 2
苗 2
苟@@ 2
若 2
英 2
茗@@ 2
茲@@ 2
草 2
荐@@ 2
荘@@ 2
荧@@ 2
荷@@ 2
荼@@ 2
莘@@ 2
菊 2
菠@@ 2
華 2
营@@ 2
萬 2
葛 2
葫@@ 2
葺@@ 2
蒋@@ 2
蒸@@ 2
蓬 2
蓮 2
蔚@@ 2
蔵 2
蕉@@ 2
薪@@ 2
藥@@ 2
藻@@ 2
蘇 2
蘋@@ 2
蘭 2
虐@@ 2
虔@@ 2
虛@@ 2
號 2
蛇 2
蛍@@ 2
蛛@@ 2
蛟@@ 2
蛤@@ 2
蜘@@ 2
蜜 2
螢@@ 2
螺@@ 2
蟒@@ 2
蠡@@ 2
蠻@@ 2
血 2
衎@@ 2
術 2
衛 2
表 2
袍@@ 2
裁 2
裟@@ 2
裸@@ 2
覆@@ 2
見 2
覚@@ 2
覧@@ 2
规@@ 2
觉@@ 2
言 2
訟@@ 2
詞 2
詠 2
詩 2
誅 2
誉@@ 2
誌 2
誠 2
誡@@ 2
說 2
読@@ 2
諦@@ 2
諶@@ 2
謎 2
謐@@ 2
譞@@ 2
警 2
譬@@ 2
譲@@ 2
護 2
讀@@ 2
让@@ 2
训@@ 2
议@@ 2
证@@ 2
诗@@ 2
诛@@ 2
诸@@ 2
调@@ 2
豈@@ 2
豌@@ 2
象 2
貨 2
貴 2
賓@@ 2
賞 2
賣@@ 2
賤@@ 2
賽@@ 2
贡@@ 2
财@@ 2
贺@@ 2
贾@@ 2
资@@ 2
赞@@ 2
赫@@ 2
赴@@ 2
起 2
足 2
跃@@ 2
跑@@ 2
距@@ 2
跟@@ 2
踊@@ 2
踋 2
踐@@ 2
蹤@@ 2
転 2
軫 2
輔 2
輩@@ 2
輯@@ 2
輸 2
轩@@ 2
轼@@ 2
辉@@ 2
辖@@ 2
辜@@ 2
辞@@ 2
辟@@ 2
辣@@ 2
辯 2
辺 2
辻@@ 2
辽@@ 2
迅@@ 2
返@@ 2
远@@ 2
迫@@ 2
迷 2
逆 2
逍@@ 2
連 2
週@@ 2
違@@ 2
遣@@ 2
避@@ 2
邇@@ 2
邈 2
邈@@ 2
邊@@ 2
邑 2
邕 2
邕@@ 2
那 2
邱@@ 2
部队 2
郿@@ 2
鄱@@ 2
酒 2
酢@@ 2
酥@@ 2
酱@@ 2
酸@@ 2
醋@@ 2
醒@@ 2
釈@@ 2
释@@ 2
量 2
針 2
釣@@ 2
鈺@@ 2
鉤 2
銃 2
銃@@ 2
銅 2
銘@@ 2
錄 2
錕@@ 2
錯@@ 2
鍵@@ 2
鎌@@ 2
鎖@@ 2
鎬@@ 2
鎭@@ 2
鎮 2
钟 2
钦@@ 2
销@@ 2
错@@ 2
镇 2
閃 2
開 2
閏@@ 2
閒@@ 2
関 2
閥@@ 2
闕@@ 2
闭@@ 2
问@@ 2
阝 2
阪 2
阿 2
陝@@ 2
陞@@ 2
陣@@ 2
陰 2
随@@ 2
隕@@ 2
隗@@ 2
隻@@ 2
雌@@ 2
雎@@ 2
雛 2
雞 2
雾@@ 2
靑@@ 2
非 2
革 2
鞅@@ 2
鞏@@ 2
鞘@@ 2
韦@@ 2
韭@@ 2
音樂 2
音樂@@ 2
預@@ 2
頓@@ 2
頻@@ 2
顥@@ 2
项@@ 2
颍@@ 2
颐@@ 2
颛@@ 2
额@@ 2
風 2
飢@@ 2
飩@@ 2
飼 2
飼@@ 2
餓@@ 2
餜@@ 2
饉@@ 2
饌@@ 2
馍@@ 2
馭@@ 2
駅 2
駐@@ 2
駒@@ 2
駕@@ 2
駙@@ 2
駿@@ 2
騰@@ 2
驍@@ 2
驕 2
驪@@ 2
骜@@ 2
髻@@ 2
鬥@@ 2
鬱 2
鬱@@ 2
鬻@@ 2
魂 2
魔 2
魠@@ 2
鮑@@ 2
鮒@@ 2
鯉@@ 2
鰻@@ 2
鳩@@ 2
鴛@@ 2
鷲@@ 2
鸟@@ 2
鸭@@ 2
鹗@@ 2
麒@@ 2
麗 2
麥@@ 2
麵 2
麻 2
麿@@ 2
黑 2
鼎 2
齒@@ 2
齮 2
ꜣ@@ 2
ꤢ@@ 2
ꨌ@@ 2
ꩌ@@ 2
갈 2
감 2
값 2
같@@ 2
걷@@ 2
견@@ 2
결@@ 2
경 2
곁@@ 2
곡 2
골@@ 2
관 2
균@@ 2
그 2
극@@ 2
글@@ 2
금 2
까 2
깽@@ 2
께@@ 2
끄@@ 2
끼@@ 2
넌 2
녀 2
년@@ 2
농@@ 2
높@@ 2
느@@ 2
능@@ 2
단 2
더 2
돌 2
된@@ 2
듯@@ 2
땀 2
때@@ 2
뛰@@ 2
띠@@ 2
락@@ 2
랄@@ 2
럼@@ 2
려 2
력 2
렴@@ 2
록@@ 2
릉 2
립@@ 2
말 2
맘@@ 2
맙@@ 2
망@@ 2
멀@@ 2
멋@@ 2
멜@@ 2
몬@@ 2
묵@@ 2
미 2
박 2
받@@ 2
발 2
밥@@ 2
벽@@ 2
별 2
보 2
복 2
붉@@ 2
블 2
빌@@ 2
빼@@ 2
쁘@@ 2
산 2
삼 2
생 2
석 2
션@@ 2
숙 2
술 2
숭@@ 2
쉬@@ 2
슬 2
슬@@ 2
앉@@ 2
않@@ 2
앙@@ 2
애 2
양 2
얼@@ 2
업@@ 2
영 2
왔@@ 2
왜@@ 2
외@@ 2
운 2
월 2
웬@@ 2
윙@@ 2
유 2
윤 2
융@@ 2
입@@ 2
잘 2
잠 2
쟁@@ 2
전 2
절@@ 2
점@@ 2
젓@@ 2
젝@@ 2
죽@@ 2
준 2
줘@@ 2
증@@ 2
집@@ 2
짠@@ 2
창 2
첫@@ 2
체@@ 2
카@@ 2
케@@ 2
콘@@ 2
쿠@@ 2
쿵@@ 2
킬 2
킹@@ 2
탐@@ 2
토@@ 2
톨@@ 2
틸@@ 2
팩@@ 2
편@@ 2
폐@@ 2
표@@ 2
핑@@ 2
하 2
함@@ 2
합@@ 2
항 2
헤@@ 2
협@@ 2
회 2
훈 2
훤@@ 2
흥 2
 2
 2
 2
@@ 2
@@ 2
ﭺ 2
＃ 2
０ 2
２ 2
２@@ 2
６ 2
７ 2
Ａ@@ 2
Ｋ@@ 2
Ｒ@@ 2
Ｗ@@ 2
Ｙ@@ 2
Ｚ@@ 2
［ 2
ｈ@@ 2
ｋ@@ 2
ｎ@@ 2
ｒ@@ 2
ｓ@@ 2
ｗ@@ 2
ｙ@@ 2
｜@@ 2
｡@@ 2
� 2
𐩬@@ 2
𐬁@@ 2
𐬎@@ 2
𐭲@@ 2
𑀓@@ 2
𑀭@@ 2
𑀸@@ 2
𑂏@@ 2
𑂡@@ 2
𑂧@@ 2
𑄢@@ 2
𑄨@@ 2
𑄳@@ 2
𑄴@@ 2
𑱵@@ 2
𑲆@@ 2
𑵵@@ 2
𑵶@@ 2
𑶋@@ 2
𑶕@@ 2
𒀭@@ 2
𒆠 2
𖬤@@ 2
𖬲@@ 2
𝐄@@ 2
𝐑@@ 2
𝐜@@ 2
𝐞@@ 2
𝐣@@ 2
𝐭 2
𝜃@@ 2
𞤭@@ 2
🟢 2
2.000 1
ABD 1
Abgeord@@ 1
Adem@@ 1
Ahmet 1
Alman 1
Almanya 1
Als 1
Amerik@@ 1
Amt 1
Anw@@ 1
Arbeit 1
Architek@@ 1
Asya 1
Auch 1
Avec 1
Azerbay@@ 1
Bau 1
Begriff 1
Beruf@@ 1
Beschreibung 1
Bezieh@@ 1
Bien 1
Bonde 1
Buch 1
Bwana 1
Cette 1
Cumhur@@ 1
Denk@@ 1
Devlet@@ 1
Diese 1
Direk@@ 1
Dort 1
Drit@@ 1
Durch 1
Ehe 1
Ende 1
Erst@@ 1
Espagne 1
Familie 1
Feb@@ 1
Finanz@@ 1
Forschungs@@ 1
Fue 1
Gemeinde@@ 1
Gemeinden 1
Genel 1
Geometr@@ 1
Gleich@@ 1
Grund 1
Guatem@@ 1
Halb@@ 1
Haup@@ 1
Hii 1
Ils 1
Insel 1
Italie 1
Jeux 1
Jina 1
Juegos 1
Kale 1
Kateg@@ 1
Kif@@ 1
Kilometer 1
Kinh 1
Kiswahili 1
Kombe 1
Komit@@ 1
Kore 1
Kultur 1
Landes@@ 1
Linie 1
Liste 1
Literatur 1
Londres 1
Maji 1
Menschen 1
Merkezi 1
Mf@@ 1
Mji 1
Munici@@ 1
Nachbar@@ 1
Ngh@@ 1
Noctu@@ 1
Oficina 1
Ort 1
Ortsteil 1
Parte@@ 1
Partei 1
Partisi 1
Pendant 1
Philadel@@ 1
Politik 1
Posteri@@ 1
Preis 1
Regel 1
Regierung 1
Regional@@ 1
Reihe 1
Rennen 1
Runde 1
Russ@@ 1
Schiff@@ 1
Schlacht 1
Schrif@@ 1
Seconde 1
Seit 1
Shule 1
Sociedad 1
Spiele 1
Stil 1
Strecke 1
Tarafa 1
Teil@@ 1
Titel 1
Tuzo 1
Umoja 1
Umw@@ 1
Veranst@@ 1
Verein@@ 1
Verfass@@ 1
Watu 1
Weg 1
Westen 1
Wilaya 1
Yap@@ 1
Zahl 1
Zum 1
Zusammen@@ 1
abier@@ 1
ablement 1
abord 1
abril 1
achama 1
achsen 1
achus@@ 1
acion@@ 1
acteur 1
adhim@@ 1
adili 1
afan@@ 1
afir@@ 1
agit 1
ahada 1
aile 1
ajes 1
ajou@@ 1
akter@@ 1
akula 1
alcal@@ 1
aliment@@ 1
alismo 1
aliwa 1
alme 1
alre@@ 1
alten 1
altungs@@ 1
amani 1
amente 1
americano 1
ammen 1
ancak 1
ancien 1
ancienne 1
anciens 1
andao 1
anderen 1
andika 1
anisha 1
ansas 1
apti@@ 1
aray 1
arbeit 1
arca 1
arla 1
arron@@ 1
artist@@ 1
askeri 1
ateurs 1
atwa 1
aussi 1
avait 1
avoir 1
ayd@@ 1
azam@@ 1
babu 1
bahari 1
bajo 1
barrio 1
basket@@ 1
besch@@ 1
betrieb@@ 1
beyaz 1
binh 1
biri 1
bisch@@ 1
brachte 1
bruch 1
bunden 1
buts 1
cabeza 1
cada 1
cadre 1
capitale 1
cargo 1
carre@@ 1
carte 1
centro 1
cero 1
cette 1
cez@@ 1
cierto 1
cir 1
ciudades 1
comand@@ 1
commenc@@ 1
communes 1
connu 1
consin 1
contra 1
corresp@@ 1
crec@@ 1
crita 1
cual@@ 1
cuer@@ 1
culas 1
culos 1
cump@@ 1
cung 1
curs@@ 1
daha 1
dair 1
damal@@ 1
damit 1
defensa 1
demand@@ 1
dicha 1
dico 1
diente 1
diese 1
diesen 1
difer@@ 1
digung 1
dissement 1
dix 1
dney 1
dola 1
donde 1
dort 1
ducation 1
eckt 1
ectif 1
edad 1
edrich 1
eher 1
ehri 1
eich@@ 1
einture 1
einz@@ 1
ejeo 1
elik@@ 1
ellement 1
emaji 1
embar@@ 1
embargo 1
emein@@ 1
emek@@ 1
emente 1
endas 1
engag@@ 1
ennung 1
ensatz 1
enseign@@ 1
entras 1
entw@@ 1
erfol@@ 1
erse 1
erster 1
esab@@ 1
escri@@ 1
espec@@ 1
especial 1
essee 1
estat@@ 1
etik 1
etler 1
ettbewer@@ 1
etwa 1
etwas 1
evento 1
eviz@@ 1
existi@@ 1
eyal@@ 1
eyen 1
fahren 1
fahrt 1
fais@@ 1
faisant 1
familia 1
ferrovi@@ 1
firma 1
folge 1
fonctionn@@ 1
fonso 1
ften 1
fue 1
fuer@@ 1
fuerza 1
futbol 1
futbol@@ 1
galak@@ 1
gauche 1
gaz 1
geben 1
gebi@@ 1
gebiet 1
geg@@ 1
gegen@@ 1
gemeinde 1
geord@@ 1
gesch@@ 1
geschichte 1
gez@@ 1
giao 1
gibt 1
gid@@ 1
gique 1
gleich 1
gleich@@ 1
gleichen 1
gouvern@@ 1
grands 1
greso 1
groupe 1
grub@@ 1
grup 1
gus@@ 1
haben 1
haber 1
hadi 1
halten 1
hatari 1
hatte 1
hatten 1
hayo 1
helped 1
hicho 1
hijos 1
hindi 1
historiques 1
hizmet@@ 1
hizo 1
huru 1
ibles 1
ibt 1
ichts 1
iciones 1
icios 1
icklung 1
idari 1
ieh@@ 1
iente 1
ieren 1
iert 1
ierung 1
igkeit 1
ihre 1
ihrer 1
ikal@@ 1
ikation 1
iliy@@ 1
illos 1
imonio 1
import@@ 1
inan@@ 1
indig@@ 1
industrie 1
ingres@@ 1
insan 1
interes@@ 1
irse 1
isierung 1
isla 1
ispo 1
istik 1
istiques 1
italiano 1
italien 1
itwa 1
izm 1
jefe 1
jeres 1
jiji 1
jimbo 1
jinal 1
juin 1
kaf@@ 1
kani 1
kataba 1
kati 1
kazi 1
kent@@ 1
keti 1
khu 1
kike 1
krieg@@ 1
kujit@@ 1
kuna 1
kunde 1
kundi 1
kurz 1
kuto@@ 1
kuwa 1
lauf@@ 1
layan 1
legen 1
lehr@@ 1
leicht 1
lengu@@ 1
letzte 1
lichkeiten 1
liegen 1
limpi@@ 1
linie 1
llev@@ 1
lors 1
lugar 1
lungen 1
lungs@@ 1
luss 1
machte 1
madre 1
mains 1
mambo 1
mannschaft 1
manos 1
marqu@@ 1
mbH 1
medio 1
mehr 1
mehr@@ 1
mej@@ 1
mekte@@ 1
meleri 1
membres 1
meni 1
menos 1
mercado 1
mesi 1
mesure 1
mettre 1
meyen 1
milieu 1
militares 1
minin 1
mique 1
moderne 1
moins 1
momento 1
mouv@@ 1
mpicos 1
mtu 1
muerte 1
muh@@ 1
mundo 1
nahmen 1
nationalen 1
ndan 1
neten 1
neu 1
neuen 1
ngay 1
nhau 1
nhi@@ 1
niversit@@ 1
nombre 1
notable 1
nouveau 1
nouveaux 1
nouvelle 1
nung 1
nungen 1
nur 1
obra 1
obten@@ 1
occidental 1
ografia 1
ographie 1
ologische 1
only@@ 1
onnat 1
onnen 1
ordnung 1
orta@@ 1
osto 1
otball 1
otras 1
ouest 1
outre 1
ouverneur 1
oyun 1
oyun@@ 1
parenti@@ 1
particu@@ 1
particulier 1
partie 1
paso 1
passe 1
pendiente 1
personne 1
peu 1
peut 1
planta 1
politiques 1
polon@@ 1
portu@@ 1
presid@@ 1
principale 1
produk@@ 1
professionn@@ 1
propia 1
propre 1
protagon@@ 1
provincia 1
provo@@ 1
pueblo 1
puis@@ 1
punk@@ 1
punkt 1
punto 1
quand 1
qued@@ 1
quelle 1
quement 1
quy@@ 1
rangi 1
recher@@ 1
recherche 1
record@@ 1
recu@@ 1
reempl@@ 1
reste 1
revel@@ 1
rieben 1
riere 1
risto 1
ruh@@ 1
rund 1
russ@@ 1
sahi@@ 1
schaft@@ 1
schein@@ 1
schnit@@ 1
schon 1
schri@@ 1
schriften 1
schutz@@ 1
sech@@ 1
secu@@ 1
segu@@ 1
seinem 1
seis 1
seite 1
selbst 1
seln 1
septembre 1
seulement 1
seur 1
sifa 1
singi 1
sitz 1
sitz@@ 1
sociales 1
soll 1
sols 1
sowie 1
spiel@@ 1
spiele 1
spor 1
sprach@@ 1
stark 1
stated 1
stehen 1
stellen 1
steller 1
stellung 1
sterdam 1
struk@@ 1
suivant 1
superficie 1
taille 1
taines 1
tante 1
tarde 1
tario 1
tarz@@ 1
tatu 1
tehsil 1
telef@@ 1
telev@@ 1
tels 1
tement 1
tenir 1
tepe 1
terres 1
thanh 1
thode 1
ticamente 1
tiene 1
tifs 1
tiki 1
timent 1
timi 1
timm@@ 1
tinh 1
tionen 1
tisch 1
tischen 1
titre 1
titul@@ 1
tlich 1
tnis 1
tober 1
toda 1
tores 1
toujours 1
toutes 1
trabaj@@ 1
trai 1
tranh 1
trao 1
trouve 1
tungen 1
ucion@@ 1
ucu 1
uerto 1
ufen 1
ufu@@ 1
uldu 1
ulit@@ 1
ulus@@ 1
umbe 1
umbu@@ 1
universit@@ 1
uppen 1
uras 1
uridad 1
usiana 1
uwe@@ 1
uyar@@ 1
vain@@ 1
veh@@ 1
verein@@ 1
veren 1
verk@@ 1
vertr@@ 1
vertret@@ 1
victoria 1
viennent 1
villages 1
vip@@ 1
vista 1
vivi@@ 1
voie 1
voll@@ 1
vuel@@ 1
vya 1
waren 1
wegen 1
wegung 1
weil 1
weit@@ 1
weiter 1
welche 1
werden 1
wert 1
whom 1
wieder@@ 1
wieg@@ 1
wird 1
wirk@@ 1
wirt@@ 1
wirtschaft 1
wissen@@ 1
woh@@ 1
woll@@ 1
yako 1
yao 1
yarat@@ 1
yenne 1
yesi 1
yeye 1
yonel 1
zaman 1
zeh@@ 1
zehn 1
zeich@@ 1
zeng@@ 1
zug 1
zul@@ 1
zuri 1
zwar 1
zwischen 1
@@ 1
 1
 1
@@ 1
 1
@@ 1
@@ 1
 1
 1
 1
¦ 1
¦@@ 1
ª 1
¯ 1
¶ 1
¸ 1
º@@ 1
¾@@ 1
Ã 1
Ã@@ 1
Ë@@ 1
Ì 1
Î@@ 1
Ï 1
Ð 1
Ò 1
Ù 1
Ú@@ 1
õ@@ 1
üş 1
üş@@ 1
Ă 1
Ĉ@@ 1
ĉ 1
ĉ@@ 1
Ċ@@ 1
Ď 1
Ď@@ 1
ď 1
ď@@ 1
đá 1
đó 1
đồ 1
độ 1
ĕ@@ 1
Ė 1
Ĝ@@ 1
ĝ@@ 1
Ğ 1
Ġ 1
ĥ@@ 1
Ĩ 1
Ī@@ 1
Ĭ 1
į@@ 1
İ@@ 1
ığı 1
ış 1
Ĳ 1
ĳ 1
ĵ@@ 1
ķ 1
ķ@@ 1
ĸ 1
ĺ 1
Ļ 1
ļ 1
Ľ 1
ľ@@ 1
Ň@@ 1
Œ@@ 1
ŗ 1
Ř@@ 1
Ŝ 1
ŝ@@ 1
Ť 1
ť@@ 1
Ŧ 1
ŧ 1
Ũ 1
Ů 1
Ų 1
ų 1
ų@@ 1
ż@@ 1
ſ@@ 1
Ƅ 1
ƅ@@ 1
Ɔ 1
Ǝ 1
Ǝ@@ 1
Ə 1
Ɛ@@ 1
Ɵ 1
ƭ@@ 1
Ư 1
ƴ@@ 1
Ƶ 1
ƶ 1
ǃ@@ 1
ǈ 1
Ǎ 1
Ǒ 1
Ǔ 1
ǘ 1
ǘ@@ 1
ǜ 1
ǝ 1
ǝ@@ 1
Ǧ 1
ǧ@@ 1
ǵ 1
Ț 1
Ȟ@@ 1
ȟ 1
ȟ@@ 1
Ȩ 1
ȩ@@ 1
ȯ 1
Ȳ 1
ȳ@@ 1
ȵ@@ 1
ɐ@@ 1
ɖ 1
ɖ@@ 1
ɗ 1
ɜ 1
ɤ 1
ɤ@@ 1
ɫ 1
ɬ@@ 1
ɭ@@ 1
ɮ@@ 1
ɰ 1
ɳ@@ 1
ɵ@@ 1
ɷ 1
ɻ@@ 1
ʀ@@ 1
ʅ 1
ʅ@@ 1
ʈ 1
ʉ@@ 1
ʋ 1
ʍ 1
ʐ 1
ʙ 1
ʤ 1
ʨ@@ 1
ʱ 1
ʷ 1
ʷ@@ 1
ʹ@@ 1
ʽ@@ 1
ˁ@@ 1
ˆ 1
ˆ@@ 1
ˉ@@ 1
˛ 1
ˤ 1
ˮ 1
̆@@ 1
̇ 1
̎ 1
̑ 1
̒ 1
̚ 1
̞ 1
̞@@ 1
̠ 1
̠@@ 1
̡ 1
̣@@ 1
̧@@ 1
̹@@ 1
΄ 1
Ένω@@ 1
Ό@@ 1
ΐ@@ 1
Αγ@@ 1
Αι@@ 1
Αλέξ@@ 1
Αλεξ@@ 1
Αμπ@@ 1
Ανδρ@@ 1
Αργ@@ 1
Βασ@@ 1
Βασιλ@@ 1
Βεν@@ 1
Γαλ@@ 1
Γιάν@@ 1
Δήμ@@ 1
Δημ@@ 1
Δημή@@ 1
ΕΚ 1
Εκ@@ 1
Ελλ@@ 1
Ελλάδος 1
Ελλην@@ 1
Επ@@ 1
Επισ@@ 1
Εταιρ@@ 1
Ευ@@ 1
Η 1
Ιερ@@ 1
Ισ@@ 1
Ιω@@ 1
Κ 1
Κέν@@ 1
Κέρ@@ 1
Κα@@ 1
Καλλ@@ 1
Καρ@@ 1
Κατά 1
Κοιν@@ 1
Κομ@@ 1
Κορ@@ 1
Κρή@@ 1
Κωνσταντινού@@ 1
Κό@@ 1
Μαρ@@ 1
Μαυ@@ 1
Μεγ@@ 1
Μεγάλ@@ 1
Μητ@@ 1
Μιχ@@ 1
Νέα 1
Να@@ 1
Νε@@ 1
Νό@@ 1
Ξ 1
Ο 1
Οικ@@ 1
Π 1
Παν@@ 1
Παπ@@ 1
Παρ@@ 1
Περ@@ 1
Σ. 1
Σί@@ 1
Στά@@ 1
Στρ@@ 1
Συμ@@ 1
Συν@@ 1
Σύν@@ 1
Τα 1
Φ 1
Φίλιπ@@ 1
Φρειδερ@@ 1
Χαλ@@ 1
Χρυσ@@ 1
άβ@@ 1
άζ@@ 1
άθ@@ 1
άλη 1
άν 1
άνδρ@@ 1
άνης 1
άρι@@ 1
άρκ@@ 1
άρτη@@ 1
άς 1
έ 1
έας 1
έβ@@ 1
έγ@@ 1
έδ@@ 1
έκ@@ 1
έλος 1
έμ@@ 1
έρα 1
ές 1
ήγ@@ 1
ήλ@@ 1
ήν 1
ήνη 1
ής 1
ήτης 1
ήχ@@ 1
ίας 1
ίζ@@ 1
ίκη 1
ίν 1
ίου 1
ίσ@@ 1
ίστ@@ 1
ίτες 1
ίωμα 1
ίων 1
ανασ@@ 1
ανατολ@@ 1
ανδ@@ 1
ανν@@ 1
αντ@@ 1
αντα@@ 1
αντι@@ 1
αξι@@ 1
από 1
αρ 1
αρχι@@ 1
ασμ@@ 1
αστερ@@ 1
αφ@@ 1
αϊ@@ 1
βά@@ 1
βέρ@@ 1
βαθ@@ 1
βασίλ@@ 1
βη@@ 1
βιβλ@@ 1
βολ@@ 1
βολή 1
γά@@ 1
γή@@ 1
γεν@@ 1
γεω@@ 1
γι 1
γι@@ 1
γλωσσ@@ 1
γλώσ@@ 1
γρα@@ 1
γραφή 1
γραφία 1
δέ@@ 1
δέχ@@ 1
δήμος 1
δία 1
δίν@@ 1
δίσ@@ 1
δεσμ@@ 1
δη@@ 1
δημ@@ 1
διαγων@@ 1
διακ@@ 1
δικ@@ 1
δοκ@@ 1
δού@@ 1
δρά@@ 1
δυναμ@@ 1
δύ@@ 1
είδ@@ 1
είς 1
εια 1
ειλ@@ 1
ειο@@ 1
εκ@@ 1
εκδ@@ 1
ελλ@@ 1
εμφ@@ 1
εν 1
εξ@@ 1
επί@@ 1
επίσ@@ 1
επισκ@@ 1
επιστήμ@@ 1
εργ@@ 1
ερι@@ 1
ες 1
ευ@@ 1
εφαλ@@ 1
εχ@@ 1
ζω@@ 1
ηγ@@ 1
ημα 1
ην@@ 1
ηρε@@ 1
ησ@@ 1
ητική 1
θάλασ@@ 1
θάνα@@ 1
θαλ@@ 1
θεν@@ 1
θερ@@ 1
θεραπ@@ 1
θερμ@@ 1
θεωρ@@ 1
θεωρία 1
θεώρ@@ 1
θν@@ 1
θρ@@ 1
θρω@@ 1
θυμ@@ 1
θω@@ 1
ιακ@@ 1
ιζ@@ 1
ική 1
ικής 1
ικός 1
ιλ@@ 1
ιλι@@ 1
ινή 1
ιον@@ 1
ιος 1
ισ@@ 1
ισμός 1
ισσ@@ 1
ιστική 1
ιστο@@ 1
ισχ@@ 1
ιτ@@ 1
καθαρ@@ 1
καλλ@@ 1
κανον@@ 1
καρ@@ 1
καρι@@ 1
κας 1
κατ@@ 1
κεφ@@ 1
κη@@ 1
κης 1
κλει@@ 1
κοιν@@ 1
κολ@@ 1
κοπ@@ 1
κοπος 1
κράτος 1
κρί@@ 1
κραν@@ 1
κτη@@ 1
κυκλ@@ 1
κόρ@@ 1
κόσ@@ 1
λά@@ 1
λει@@ 1
λεκ@@ 1
λεπ@@ 1
μένη 1
μέσ@@ 1
μαγ@@ 1
μαζ@@ 1
μαρ@@ 1
ματ@@ 1
ματο@@ 1
μεγ@@ 1
μελ@@ 1
μελέτη 1
μερ@@ 1
μεσ@@ 1
μη 1
μηχαν@@ 1
μικρ@@ 1
μιλ@@ 1
μο 1
μορφή 1
μου 1
μουν@@ 1
μφ@@ 1
μύ@@ 1
να 1
ναυ@@ 1
νεκ@@ 1
νερό 1
νης 1
νι@@ 1
νό@@ 1
νόμ@@ 1
ξέν@@ 1
ξε@@ 1
οί@@ 1
ογεν@@ 1
ολογία 1
οντ@@ 1
οξ@@ 1
ορού@@ 1
οσοφ@@ 1
οστ@@ 1
ουλ@@ 1
ους 1
ουσα 1
ούδ@@ 1
π. 1
πέντε 1
παιδιά 1
παρά@@ 1
παρα@@ 1
περι@@ 1
πλευρά 1
πν@@ 1
ποδ@@ 1
πολιτικός 1
πομπ@@ 1
πον@@ 1
πορ@@ 1
ποταμ@@ 1
που@@ 1
πού@@ 1
προ@@ 1
πρόσ@@ 1
πρώ@@ 1
πως 1
πόλε@@ 1
ρά 1
ρέ@@ 1
ρίζ@@ 1
ρίς 1
ρίσκ@@ 1
ραβ@@ 1
ραγ@@ 1
ρακ@@ 1
ρατ@@ 1
ραφ@@ 1
ργαν@@ 1
ρε@@ 1
ριος 1
ρισκ@@ 1
ρου@@ 1
ρυθμ@@ 1
ρω@@ 1
σε@@ 1
σκλη@@ 1
σκοπ@@ 1
σσαλ@@ 1
στήρι@@ 1
στής 1
στεν@@ 1
στρα@@ 1
στρατηγ@@ 1
συμ@@ 1
σχ@@ 1
σωτερ@@ 1
σύ@@ 1
τά 1
τά@@ 1
τέλε@@ 1
τέχ@@ 1
ταγμα 1
ται 1
τεία 1
τερα 1
τες 1
τική 1
τιν@@ 1
τον 1
του 1
τρα@@ 1
τραγ@@ 1
τρια 1
τρό@@ 1
ττα@@ 1
τύ@@ 1
υβ@@ 1
υζ@@ 1
υθ@@ 1
υφ@@ 1
φή 1
φίλ@@ 1
φθ@@ 1
φρ@@ 1
φυλ@@ 1
φυσ@@ 1
φων@@ 1
φωτο@@ 1
χή 1
χεί@@ 1
χη 1
χος 1
χρυσ@@ 1
ωλ@@ 1
ωμα 1
ωνίας 1
ωνική 1
ϊ@@ 1
όγ@@ 1
όδο@@ 1
όλ@@ 1
όλε@@ 1
όμα 1
όμεν@@ 1
όνα 1
όνες 1
όντων 1
όπ@@ 1
όρι@@ 1
όσια 1
ότ@@ 1
ύ 1
ύρια 1
ώνυ@@ 1
ώνυμ@@ 1
ώς 1
ϐ@@ 1
ϒ@@ 1
Ϙ@@ 1
ϙ@@ 1
Ϝ@@ 1
ϟ 1
Ϡ 1
ϣ@@ 1
ϥ@@ 1
Ϩ@@ 1
ϩ 1
Ϯ@@ 1
ϯ 1
ϱ 1
ϲ@@ 1
ϵ 1
Ϸ 1
Ϸ@@ 1
ϸ 1
Ϲ@@ 1
Ϻ 1
Є@@ 1
Ї@@ 1
Љ@@ 1
Њ@@ 1
Ћ 1
Ќ@@ 1
Џ 1
Аб@@ 1
Ам@@ 1
Андрей 1
Ау@@ 1
Бай@@ 1
Бал@@ 1
Бан@@ 1
Бар@@ 1
Бел@@ 1
Бело@@ 1
Бер@@ 1
Бли@@ 1
Бол@@ 1
Боль@@ 1
Бори@@ 1
Бри@@ 1
Бур@@ 1
ВС 1
Ва@@ 1
Василий 1
Великой 1
Владимир 1
Вой@@ 1
Ге@@ 1
Гене@@ 1
Ги@@ 1
Гро@@ 1
Гру@@ 1
Гу@@ 1
Дани@@ 1
Джо@@ 1
Джу@@ 1
Доб@@ 1
Дон@@ 1
Дра@@ 1
Евро@@ 1
Ер@@ 1
Же@@ 1
Жи@@ 1
Зе@@ 1
Зем@@ 1
Из@@ 1
Интер@@ 1
Ио@@ 1
Йо@@ 1
КП@@ 1
Ката@@ 1
Кле@@ 1
Констан@@ 1
Красно@@ 1
Кру@@ 1
Ку@@ 1
Ле@@ 1
Ленин@@ 1
Мал@@ 1
Мар@@ 1
Миха@@ 1
Михай@@ 1
Мо@@ 1
Мол@@ 1
Мор@@ 1
Москва 1
Не@@ 1
Николай 1
Об@@ 1
Олимпи@@ 1
Отечественной 1
Пав@@ 1
Пара@@ 1
Пере@@ 1
Пло@@ 1
Пра@@ 1
Пре@@ 1
Пър@@ 1
РФ 1
России 1
Ру@@ 1
СС 1
Сан@@ 1
Сара@@ 1
Сергей 1
Ско@@ 1
Смо@@ 1
Сол@@ 1
Спе@@ 1
Ста@@ 1
Так 1
Тома@@ 1
Укра@@ 1
Ха@@ 1
Хан@@ 1
Хар@@ 1
Хи@@ 1
Ху@@ 1
Центра@@ 1
Чер@@ 1
Черно@@ 1
Чу@@ 1
Ша@@ 1
Эр@@ 1
Ян@@ 1
авиацион@@ 1
аври@@ 1
ам@@ 1
анд@@ 1
арми@@ 1
ата@@ 1
бан@@ 1
бед@@ 1
би 1
бла@@ 1
благо@@ 1
бра@@ 1
бри@@ 1
бу@@ 1
ван 1
вании 1
ват@@ 1
вата 1
вед@@ 1
вет 1
вза@@ 1
вид@@ 1
вил 1
вин@@ 1
води@@ 1
вое 1
военно@@ 1
воло@@ 1
вом 1
вра@@ 1
вре@@ 1
вто@@ 1
выбо@@ 1
ган 1
ган@@ 1
гел 1
гер@@ 1
ги 1
говор@@ 1
гол 1
гражда@@ 1
гро@@ 1
гу 1
гун@@ 1
дан 1
дате@@ 1
де 1
дей 1
дела@@ 1
держа@@ 1
джа@@ 1
ди 1
дина@@ 1
дия 1
до 1
дов 1
дове@@ 1
дой 1
дон 1
др 1
дро@@ 1
душ@@ 1
дь 1
евна 1
ек@@ 1
ем@@ 1
ент@@ 1
ера 1
ета 1
жав@@ 1
жава 1
жан@@ 1
жда 1
жде@@ 1
ждения 1
жени@@ 1
жо@@ 1
жу@@ 1
за 1
забо@@ 1
зан@@ 1
зар@@ 1
зен@@ 1
зер@@ 1
зу@@ 1
зы@@ 1
извест@@ 1
им 1
име@@ 1
ин@@ 1
использо@@ 1
ит@@ 1
ита 1
ита@@ 1
йский 1
йской 1
кан@@ 1
кат@@ 1
кате@@ 1
кен@@ 1
кин@@ 1
кое 1
кой@@ 1
кол@@ 1
коло@@ 1
ком@@ 1
компа@@ 1
комплекс 1
комуни@@ 1
кон@@ 1
кораб@@ 1
крас@@ 1
кре@@ 1
кру@@ 1
ку 1
лага 1
ле 1
лев@@ 1
лей 1
лена 1
ли 1
лик@@ 1
лин@@ 1
лица 1
лна 1
лова 1
лод@@ 1
лом 1
лы 1
лый 1
льный 1
льский 1
любов@@ 1
лё@@ 1
ма 1
мал@@ 1
ман 1
мани@@ 1
мар@@ 1
меда@@ 1
мей@@ 1
ми 1
мили@@ 1
мит@@ 1
моде@@ 1
моло@@ 1
мя 1
над@@ 1
най 1
наро@@ 1
недо@@ 1
ней 1
нем 1
немец@@ 1
нение 1
нер@@ 1
ние 1
ники 1
нин 1
нис 1
ница 1
ници@@ 1
нови@@ 1
ному 1
нос@@ 1
ност 1
ност@@ 1
ну 1
ны 1
ные 1
ня@@ 1
оба@@ 1
област@@ 1
образ@@ 1
объеди@@ 1
од@@ 1
одно@@ 1
ок@@ 1
окру@@ 1
округ 1
ол@@ 1
он@@ 1
онов 1
освобо@@ 1
от 1
па 1
па@@ 1
парти@@ 1
пей@@ 1
пера@@ 1
площа@@ 1
побе@@ 1
пов 1
пов@@ 1
под@@ 1
подвод@@ 1
поз@@ 1
пол@@ 1
поле@@ 1
поли@@ 1
полу@@ 1
порт 1
послед@@ 1
превра@@ 1
прие@@ 1
провод@@ 1
програ@@ 1
производ@@ 1
пут@@ 1
пя@@ 1
рав@@ 1
разме@@ 1
ран 1
рах 1
ред@@ 1
рес@@ 1
рий@@ 1
рин@@ 1
рина 1
рите@@ 1
рих 1
рова 1
рович 1
рода 1
рон@@ 1
рос@@ 1
росси@@ 1
[...]
