the 153341711
, 143961830
. 127356614
of 84968855
and 74223177
in 66505408
&quot; 57075854
to 51256674
a 51065593
was 31681036
@-@ 28215936
The 25680845
is 24592026
on 23138511
ed 22389670
) 21842243
( 21815566
ing 20816637
as 20580953
for 20319936
by 17995717
with 17642440
&apos;s 15730555
an 15709914
at 15371877
that 14075220
from 12754559
s 11843146
es 11719235
his 11207769
y 10443215
In 10195014
he 9363939
or 9175244
it 8772128
re@@ 8607060
were 8304395
al 8163237
are 8075103
ation 7771093
which 7471490
ers 6874454
s@@ 6870464
He 6783224
er 6657674
be 6482372
S@@ 6150974
also 6124390
ated 6113392
; 6111639
had 6089932
in@@ 6080253
one 6055457
: 5925151
ate 5755534
– 5673399
has 5665825
its 5652606
first 5488686
w@@ 5381615
C@@ 5296603
t 5199285
f@@ 5167808
It 4915315
D@@ 4880740
ly 4848754
their 4836792
R@@ 4706079
P@@ 4607828
L@@ 4586511
ent 4547680
M@@ 4537615
who 4525757
T@@ 4518706
not 4509305
her 4489824
B@@ 4442445
but 4336136
p@@ 4323272
H@@ 4295632
F@@ 4286714
e@@ 4254872
ted 4254571
ch@@ 4197674
h@@ 4178048
G@@ 4121243
N@@ 4116481
W@@ 4107497
e 4049089
two 4027352
d@@ 4025059
t@@ 4024956
have 4020441
all 3970614
c@@ 3934844
ts 3914555
this 3901416
th@@ 3900409
th 3896677
d 3882247
g@@ 3851371
A@@ 3850648
al@@ 3841706
been 3777123
&apos; 3773976
st@@ 3701934
en@@ 3690780
ary 3671724
k 3645384
K@@ 3631416
b@@ 3624018
ally 3608181
ar 3601206
r@@ 3565433
c 3549514
A 3527351
un@@ 3488615
time 3469161
age 3460770
after 3448408
tion 3428159
E@@ 3342638
el@@ 3337819
ity 3333429
y@@ 3320332
dis@@ 3304769
sh@@ 3214281
ad@@ 3207909
h 3152770
ar@@ 3146393
other 3139090
they 3119463
et 3105118
ations 3082784
ex@@ 3074386
de 3028013
el 3012541
ic 3008379
als 3006907
tr@@ 3003557
into 3003063
1 2998186
co@@ 2938554
n@@ 2935277
k@@ 2906230
de@@ 2896371
us 2893554
est 2876764
o@@ 2865447
she 2857414
l@@ 2827632
or@@ 2805507
O@@ 2803341
ac@@ 2791481
J@@ 2787345
on@@ 2770517
V@@ 2759588
l 2735746
an@@ 2725605
con@@ 2713204
more 2702153
ting 2685997
out 2674693
used 2665961
as@@ 2661986
le@@ 2647274
up 2625425
over 2614473
% 2607027
On 2599290
2 2595279
ence 2587791
w 2582929
ine 2557443
New 2547758
ve 2539788
would 2534197
when 2528611
years 2527559
m 2521617
able 2517919
where 2516691
er@@ 2500793
ro@@ 2485113
ter 2453770
/ 2452128
n 2445558
o 2424682
lo@@ 2422148
This 2412673
during 2394560
tions 2390455
ans 2378475
year 2367947
ings 2367091
le 2359171
new 2354640
v@@ 2346414
ul@@ 2337941
en 2334198
ical 2333994
ist 2333455
season 2323139
only 2323023
com@@ 2319454
am@@ 2315631
ment 2315251
m@@ 2315082
ap@@ 2314897
at@@ 2302550
Ch@@ 2300043
ur@@ 2297205
se@@ 2288194
son 2273972
ic@@ 2267207
im@@ 2264709
between 2263050
ag@@ 2259688
I 2229072
i 2215835
three 2215702
li@@ 2211303
under 2202998
ance 2198010
made 2197585
ents 2195183
po@@ 2186673
him 2150604
later 2141876
then 2141185
it@@ 2129151
3 2122894
most 2112825
ant 2111718
United 2108872
ous 2103459
can 2102428
ph@@ 2092680
I@@ 2092185
ating 2087790
&amp; 2085483
em@@ 2081292
known 2079693
well 2071395
such 2068052
um 2064619
p 2062516
part 2059211
man 2057400
i@@ 2051341
about 2047853
j@@ 2040505
American 2037739
ks 2022079
became 1999807
ty 1998691
team 1985424
der 1984659
University 1984465
for@@ 1981267
She 1965672
ot@@ 1949542
per@@ 1940604
born 1937829
U@@ 1926821
than 1926016
il@@ 1918264
bo@@ 1916597
ons 1909810
es@@ 1904467
is@@ 1898857
a@@ 1896100
land 1885865
et@@ 1879970
including 1867589
ec@@ 1842443
being 1841382
di@@ 1840974
film 1840538
ti@@ 1840088
there 1836659
id@@ 1828853
am 1827090
4 1825488
ia 1817444
us@@ 1808181
ch 1807116
ol@@ 1800486
x 1795486
se 1792511
some 1782148
ass@@ 1774132
ad 1765712
while 1764284
pre@@ 1761792
second 1760170
qu@@ 1758919
inter@@ 1756559
work 1755082
br@@ 1754545
through 1752221
red 1740104
against 1728918
Al@@ 1727662
led 1724925
be@@ 1721441
name 1716954
end 1715992
oc@@ 1707274
ab@@ 1698835
ay 1693966
After 1690030
op@@ 1687760
ure 1686215
ates 1677825
ors 1674600
ed@@ 1658795
before 1656148
ton 1649930
rec@@ 1645410
Re@@ 1638890
many 1638292
Y@@ 1629284
ice 1626308
Th@@ 1617674
family 1617081
played 1614883
5 1614345
u 1612012
them 1610946
no 1610171
str@@ 1603668
until 1603361
les 1601796
g 1600677
z@@ 1599383
res@@ 1597762
ish 1593712
World 1587913
ess 1582806
both 1582117
ely 1581804
Con@@ 1576750
te@@ 1571437
ir@@ 1568510
people 1565596
ative 1564136
use 1563581
way 1563010
ter@@ 1560821
States 1548678
ite 1546034
tri@@ 1542831
u@@ 1539520
album 1536603
Z@@ 1534874
ver@@ 1532322
6 1532203
life 1519770
Sh@@ 1518485
fin@@ 1513734
National 1511139
sp@@ 1504621
released 1502510
me@@ 1494389
day 1486243
ner 1480591
par@@ 1475033
number 1461014
mar@@ 1460913
In@@ 1456469
series 1453075
side 1452730
b 1452505
ak@@ 1444720
so 1444365
As 1442269
won 1441660
to@@ 1439064
om@@ 1438607
su@@ 1436438
area 1434417
pl@@ 1431603
Mar@@ 1429508
may 1423657
four 1418053
called 1413130
school 1412161
ters 1410891
Tr@@ 1402861
low 1400909
he@@ 1400677
May 1391242
ties 1386769
ets 1382955
ie 1372445
pr@@ 1371649
um@@ 1368794
ri@@ 1367561
ent@@ 1366256
est@@ 1363696
March 1363460
state 1362255
os@@ 1360052
fac@@ 1358922
ut@@ 1358357
amp 1356387
0s 1354269
ard 1351060
old 1349229
September 1348712
3@@ 1342342
January 1342098
pe@@ 1341420
id 1337572
te 1322901
June 1322042
career 1318327
end@@ 1318170
7 1317279
October 1316170
several 1313526
10 1312232
following 1310073
July 1308148
same 1308005
av@@ 1307729
city 1307678
place 1306455
early 1303542
line 1297234
&apos;@@ 1292991
Ar@@ 1288896
August 1286241
John 1286227
ement 1281435
8 1277399
School 1277133
April 1272613
gr@@ 1269486
form 1269379
ory 1268672
South 1268247
Br@@ 1267570
sur@@ 1264550
game 1263916
found 1262804
our 1258838
based 1258123
ected 1257973
They 1257085
ds 1252380
ob@@ 1250502
ies 1249435
began 1243808
November 1241229
these 1236125
ge 1234756
since 1231638
will 1229242
back 1227287
December 1225753
ved 1223631
His 1218594
gu@@ 1214859
mon@@ 1213648
we@@ 1212795
ics 1211030
Com@@ 1202699
ick@@ 1198692
reg@@ 1197678
St@@ 1196157
Co@@ 1195520
located 1194650
sub@@ 1192621
group 1190025
cre@@ 1189162
County 1189154
very 1186460
4@@ 1184251
x@@ 1182041
ow@@ 1180496
eng@@ 1178614
now 1178485
named 1173675
ath@@ 1172350
ian 1171390
held 1167553
per 1163464
former 1161359
und@@ 1161117
ci@@ 1158903
do@@ 1157344
aw@@ 1154370
man@@ 1153515
int@@ 1152288
17@@ 1151065
ley 1150896
rel@@ 1148069
At 1146743
9 1144826
took 1142629
mo@@ 1139877
War 1139744
tic 1139082
fe@@ 1137709
gi@@ 1137530
ect 1136194
York 1134886
$ 1132956
town 1131646
ise 1130465
government 1129584
ne@@ 1128872
- 1128792
ants 1128188
ited 1125120
ning 1123435
pos@@ 1116428
member 1114220
An@@ 1113544
There 1113213
car@@ 1111142
State 1108453
dec@@ 1107500
February 1105704
ig@@ 1105072
like 1104232
ran@@ 1102342
sion 1102105
high 1100771
dr@@ 1097681
League 1097458
British 1097267
each 1096797
City 1095266
population 1094437
ves 1090775
century 1090641
music 1090069
Car@@ 1089664
ess@@ 1089173
own 1085110
ens 1083077
ong@@ 1082770
served 1082698
sec@@ 1081551
vi@@ 1079739
off 1078718
Par@@ 1077461
ber@@ 1075506
ying 1073628
bi@@ 1073244
play 1073030
ion 1071919
built 1071143
company 1068510
2010 1067788
station 1066595
under@@ 1064900
set 1063991
any 1063894
min@@ 1061713
ology 1061282
king 1060561
’ 1060132
gre@@ 1059462
ight 1058486
os 1057144
pi@@ 1057088
ects 1056769
ists 1055076
20 1051910
wor@@ 1051268
ended 1050347
sc@@ 1049552
song 1048659
ach@@ 1045958
Le@@ 1045692
ce 1040531
mer@@ 1040272
However 1039683
received 1035671
12 1035073
tics 1033330
home 1031826
ore 1031193
did 1030562
ang@@ 1028165
produc@@ 1027920
men 1027839
ell 1027766
around 1027541
od 1022687
cr@@ 1022589
field 1022148
ain 1019523
af@@ 1019034
re 1018671
den 1017778
moved 1016717
ship 1011945
Be@@ 1008933
could 1008615
2011 1007241
North 1006914
main 1004851
ou@@ 1002043
due 998712
18 997674
inc@@ 997504
si@@ 995747
ained 994491
Col@@ 993877
5@@ 993499
ing@@ 993264
ism 993199
eg@@ 992588
ages 985713
Bar@@ 985585
od@@ 984728
long 981988
ish@@ 980238
species 979518
16@@ 975420
ach 971961
.@@ 971875
single 970296
art 970115
ars 969690
2012 968352
system 967714
col@@ 967322
vis@@ 966487
using 965794
left 964949
Pr@@ 964165
15 963503
local 962993
public 961860
along 959055
ins 958341
De@@ 957055
History 955761
band 955589
During 953708
over@@ 953304
died 952849
sol@@ 951236
2014 950508
published 947769
up@@ 946269
members 945000
C 944998
ale 943692
five 943530
ni@@ 941528
building 937997
tical 937620
off@@ 937153
2013 935764
ev@@ 935722
2016 934368
ture 934232
club 933328
ann@@ 931860
2015 931737
B 928730
said 928255
include 927973
ho@@ 926473
lin@@ 925945
west 924959
final 923378
within 923066
enti@@ 922114
acc@@ 918625
Ex@@ 916243
gro@@ 915617
ana 915399
cap@@ 912052
Mc@@ 908788
2008 908749
2009 907414
ards 905786
ati@@ 904682
ak 903944
large 903515
because 902582
trans@@ 900937
down 900557
ick 900057
hi@@ 899665
L 897931
ten@@ 897448
world 893738
ace 893634
il 891248
Ad@@ 891189
ali@@ 890465
no@@ 889127
Ro@@ 887804
O 887492
wh@@ 886482
2018 886135
sho@@ 885436
included 884585
cont@@ 883791
fied 882061
2017 882032
do 881462
third 879604
village 879259
ay@@ 877043
R 876984
11 876858
ently 874245
ru@@ 872805
def@@ 872597
30 871981
ade 871508
ack@@ 870299
ding 864385
2019 864283
ah@@ 863875
small 863294
bor@@ 863061
D 862667
For 858803
water 858719
pro@@ 857140
des@@ 856126
ep@@ 854767
aged 854211
election 853819
6@@ 853016
pres@@ 849850
Se@@ 848842
ator 848248
ue 847754
2007 847614
College 847356
ats 846003
French 845542
and@@ 843078
show 843068
ns 842977
national 841910
children 841319
co 840918
ici@@ 840879
so@@ 840068
2006 839949
ey 839828
her@@ 839031
att@@ 837427
death 835366
ked 834982
tic@@ 833301
wn 831465
9@@ 830483
last 830291
16 830147
ong 829104
ass 828014
football 827846
father 825044
if 824605
Per@@ 823861
7@@ 823142
tim@@ 821629
T 820758
For@@ 820555
cl@@ 820322
la@@ 819970
og@@ 818886
dem@@ 818844
&#93; 817854
&#91; 817208
tor@@ 816231
the@@ 815609
house 815560
English 815497
2020 813354
West 812900
wing 809721
ce@@ 809628
those 809375
14 807095
la 804800
ant@@ 804212
history 803878
million 803351
Ne@@ 802348
still 801789
au@@ 801657
ge@@ 800529
ality 800351
District 799437
25 798827
19 798292
women 797679
book 796207
Gr@@ 795996
even 795608
site 794631
view 792360
war 791731
German 791340
8@@ 791270
El@@ 790536
ry 790422
cur@@ 790389
st 788757
Gu@@ 787950
ik@@ 787152
Am@@ 786464
another 786140
tor 785676
II 784082
bre@@ 782396
f 780749
service 780171
bl@@ 778575
ales 777725
ok@@ 777602
arr@@ 777032
ra@@ 776775
original 776310
ot 775967
gen@@ 774329
r 773887
— 773734
prot@@ 773207
major 772635
order 772508
ol 771904
13 771182
anc@@ 770281
late 769823
fl@@ 769201
ences 768180
ens@@ 767795
tw@@ 767639
district 767556
International 766706
what 766565
win 765788
sive 765086
S 764635
often 763842
act 762308
z 759757
tain 759533
near 758724
River 758203
U.S. 756660
London 756057
went 755616
not@@ 755537
cor@@ 754999
bel@@ 754807
15@@ 754765
top 754135
ov@@ 753978
ver 753896
ection 753553
north 752948
tre@@ 752756
When 751919
ta 748790
ang 748227
Man@@ 747782
different 747781
ses 747485
und 747108
17 746782
less 744730
works 744472
Mor@@ 744276
air@@ 743106
established 741503
ety 741294
Mon@@ 741088
ell@@ 740726
bur@@ 740393
unc@@ 740286
let@@ 739146
oper@@ 737656
ase 736441
games 735875
ast 734651
country 734055
war@@ 733917
announced 733840
again 732572
sed 732218
best 732156
All 731661
light 728402
House 728216
leg@@ 727394
F 727341
ke@@ 726797
head 726619
ments 725560
op 725169
record 724876
ements 724860
out@@ 724708
Cup 722138
uc@@ 721631
ere 720905
els 720807
south 720074
ful 719386
position 718525
app@@ 717641
started 717081
bro@@ 715934
ency 715663
24 715387
US 714898
medi@@ 714672
six 713708
vari@@ 712602
mat@@ 712537
ered 711927
mis@@ 711357
title 710454
ist@@ 710209
role 710181
ina 709351
road 708821
One 708103
Bo@@ 706565
fa@@ 706443
joined 706022
exp@@ 705774
Sch@@ 704086
He@@ 703045
port 702827
ai 702437
ma@@ 701511
law 701351
Ab@@ 700557
all@@ 699935
igh@@ 699915
elec@@ 699436
period 698628
tors 698241
round 698023
ler 697918
tro@@ 697476
_ 696802
came 695729
ear@@ 695419
ography 695370
present 695067
air 693857
worked 693741
tur@@ 693316
just 690817
E 690467
eb@@ 690082
21 689270
ke 689086
ual 688569
der@@ 688115
2@@ 686166
Nor@@ 686146
gradu@@ 685778
ur 684872
tive 684677
much 684537
ough 684237
support 684134
0 682651
married 681139
win@@ 678358
produced 678125
Sw@@ 677969
ane 676827
Bur@@ 675819
among 675530
coun@@ 674893
non 672895
P 672836
2005 670683
action 669882
du@@ 668541
ire 668368
ah 667643
power 666052
make 665665
ines 665447
ford 662999
sch@@ 662245
2021 661906
England 659993
wrote 658636
M 658361
ill@@ 658202
development 657836
eff@@ 656644
become 656416
player 655984
having 655769
described 655707
given 655628
vers 655440
sel@@ 654230
ack 653490
fo@@ 652970
total 652563
Di@@ 652383
En@@ 651088
ste@@ 650779
pur@@ 650602
hol@@ 649960
general 649692
ities 648930
ain@@ 648746
next 648495
version 648101
community 647961
ems 647672
Or@@ 647519
These 647185
continued 646735
Har@@ 646459
European 646063
da 645880
production 645723
returned 644881
Qu@@ 644590
low@@ 643336
comp@@ 642407
Park 642337
various 642226
sup@@ 641696
ends 640997
ground 639851
try 639075
written 639037
others 638489
General 638358
right 638233
dri@@ 637405
head@@ 637301
get 637156
political 636801
point 636341
East 636325
formed 634392
go@@ 634324
elected 634319
created 633705
William 633510
2000 633063
ir 632835
dra@@ 631967
ward 631008
From 630719
comm@@ 629892
22 629643
ile 629226
Bel@@ 628739
ately 627831
iv@@ 626126
loc@@ 625736
half 625586
Cr@@ 625557
contr@@ 623800
2004 622954
Hol@@ 622496
ving 622293
me 621800
arm@@ 620900
inn@@ 620237
if@@ 619157
sk@@ 618253
Cor@@ 617903
take 616021
ically 615576
Church 615275
23 611013
times 610812
inv@@ 610146
Party 609811
ese 609646
ash@@ 609396
quar@@ 608688
India 608397
Australia 607012
ps 606060
ling 605970
un 605915
ness 605764
appro@@ 604920
days 604725
formula 604369
change 603723
mov@@ 603706
ances 603392
level 603385
yr@@ 602658
however 602401
church 602393
im 602307
By 602291
N 602135
founded 601426
ren@@ 600788
= 600720
! 600640
appe@@ 600560
100 600169
ake 599544
opened 599431
Council 599173
ff@@ 598873
por@@ 598052
Lo@@ 597551
ways 597208
few 594821
Army 594454
According 594348
France 594212
ins@@ 593880
High 593535
students 593184
Street 592819
pain@@ 592704
det@@ 589921
sett@@ 588772
fr@@ 588409
ods 588105
ther@@ 587847
Ed@@ 587721
ma 586639
ability 585920
ya 584829
ep 583957
ne 583366
aff@@ 583065
military 582788
Sp@@ 582554
form@@ 582075
match 581354
James 579566
cri@@ 579389
ending 579097
signed 579023
Division 578057
King 577431
party 577396
mas@@ 577241
region 577074
ten 576284
appeared 576063
George 576056
appointed 575811
without 575544
pen@@ 575407
dev@@ 575175
east 574817
Pol@@ 574457
conn@@ 574423
ches 572818
ast@@ 572727
X@@ 572283
Me@@ 571296
Un@@ 571006
era 570705
ories 570329
San 569402
v 569363
spe@@ 568791
har@@ 568526
rac@@ 568112
flo@@ 567702
sw@@ 567646
event 566660
part@@ 566384
TV 566081
ney 565688
az@@ 565444
television 565076
making 564911
St. 564825
run 562525
lost 561837
cast 561286
considered 560012
Li@@ 559647
ave 559406
attemp@@ 558968
tly 558803
together 558778
President 557882
professional 557624
bar@@ 557409
recorded 557340
California 557325
Cl@@ 557019
iz@@ 556991
short 556074
Sen@@ 555694
ws 554825
Bi@@ 554369
U 553069
Q@@ 551145
full 550946
ill 550936
lands 550770
land@@ 550612
America 550498
eh@@ 550456
alls 550243
case 549884
tu@@ 548895
28 548889
international 548657
working 547975
Canada 547502
ological 547467
ene 547370
ested 546950
language 546357
26 546061
cons@@ 545084
Ac@@ 544983
cu@@ 544963
track 544699
education 544483
debut 543939
Her@@ 543925
pass@@ 543707
alist 543650
style 543605
wer 542696
ature 541934
ational 541728
research 541646
ok 541125
2003 541113
27 540934
&apos;t 540155
Ph@@ 539488
jo@@ 539430
ligh@@ 537701
story 537535
ta@@ 537187
bas@@ 536771
program 536469
ever 536403
ective 535921
class 535910
nor@@ 535511
ders 535442
bir@@ 534544
we 533460
arch@@ 532091
tional 531801
ug@@ 531737
ville 530953
ean 530807
Rec@@ 530800
ka 530784
Association 530412
gener@@ 529926
na 529712
further 529545
ests 529406
wife 529291
ther 529285
With 528475
activ@@ 528117
developed 527940
spec@@ 527707
ops 527642
Wor@@ 527321
Gre@@ 527024
near@@ 526914
val@@ 526616
adv@@ 525701
acy 525016
pp@@ 524641
ental 524418
our@@ 524402
ples 524054
mor@@ 524001
body 523463
mem@@ 523143
ures 523137
ek@@ 522406
important 522130
Early 521687
Union 521606
ker 521243
playing 521039
ili@@ 520925
Pro@@ 520813
agre@@ 520631
2002 520569
video 520408
stat@@ 519439
anti@@ 518633
Dr@@ 518577
term 518469
identi@@ 518244
points 517928
wide 517304
areas 516162
hand@@ 515874
While 514877
Ber@@ 514544
uses 514485
unds 514185
ishing 513314
organiz@@ 512688
release 512674
ind@@ 512583
teams 511954
trav@@ 511862
ble 511783
cas@@ 511285
can@@ 511184
eded 510876
sig@@ 510836
league 510799
adi@@ 510488
ides 510482
ished 509952
result 509863
2001 509826
lead 509193
away 509135
Royal 508832
mi@@ 508811
0.@@ 507635
Indian 505977
business 505420
office 505233
Australian 505029
addition 504664
des 504573
Mo@@ 504417
10@@ 504032
oth@@ 503990
ra 502314
oll@@ 501911
ard@@ 501839
ots 501717
particip@@ 501525
G 501323
“ 501247
control 501185
bil@@ 500959
ail@@ 500475
” 499640
ari@@ 499565
sing 497874
director 497433
14@@ 497412
every 497129
vent@@ 496540
suff@@ 495906
amb@@ 495886
Str@@ 495001
high@@ 494936
ored 493774
lies 493567
ned 493518
We@@ 493477
vot@@ 493274
Pl@@ 493153
ably 493145
29 492563
popular 492300
fi@@ 491809
ef@@ 491796
although 491485
average 491389
common 491056
similar 490675
Award 490078
ering 489733
Championship 489625
Club 489220
list 488872
mother 488355
example 486759
design 486576
prov@@ 485613
tion@@ 485470
social 485300
Germany 485164
ole 484980
lead@@ 484774
ought 484704
Mus@@ 484606
Ste@@ 484464
cer@@ 482598
ext@@ 481752
First 481730
yl@@ 481710
resid@@ 481617
put 481430
construction 480730
taken 480116
ded 479929
50 479392
13@@ 479347
cop@@ 479310
across 478869
ised 478762
lar@@ 478695
equ@@ 477855
himself 477619
hor@@ 477333
daughter 477116
key 477088
Music 476403
lot 476298
race 476257
wat@@ 475788
president 475558
techn@@ 475183
project 474879
cle@@ 474756
live 474236
ime 473580
finished 473396
bu@@ 473277
ply 473216
struc@@ 473155
ster 472849
Ge@@ 472636
events 471586
David 471518
go 471260
ino 470899
China 470488
services 469849
foc@@ 469773
Road 469723
Po@@ 469159
Company 468933
ti 468350
living 468345
covered 468042
voc@@ 466967
... 466049
gt 466030
ser@@ 465362
aching 464085
wo@@ 463952
sold 463119
stre@@ 461925
pu@@ 461873
ica 461306
mak@@ 461093
though 460201
Tur@@ 460043
tit@@ 459922
lu@@ 459903
ign@@ 459532
Pe@@ 459456
forms 459231
self 458618
lt 458517
ref@@ 457996
ular 457491
dic@@ 457443
Central 457340
em 456219
Court 455997
soci@@ 455515
Jo@@ 455424
Some 454685
how 454592
rest@@ 454304
Group 454264
direc@@ 453377
1999 453215
sa@@ 453046
Europe 452597
designed 452468
ath 452355
stage 452327
ands 451719
months 451610
Bal@@ 451586
bers 451261
free 449634
Ver@@ 449358
prob@@ 449147
oy@@ 449086
followed 448989
utive 448984
available 448748
gave 448554
requ@@ 448292
Bas@@ 447366
Thomas 447032
ison 446843
saw 446474
provid@@ 446355
never 445990
stor@@ 445958
fre@@ 445426
wid@@ 445229
hom@@ 444898
completed 444415
cus@@ 443912
mid@@ 443460
Japanese 443341
vo@@ 443265
tom@@ 443072
experi@@ 442927
represent@@ 442562
Robert 441642
active 441524
40 441162
performed 440964
1.@@ 440918
sent 440346
Ma@@ 440293
section 440154
carri@@ 439908
open 439786
tures 439532
ized 439315
broad@@ 439038
ony 438916
Japan 438894
official 438824
coach 438702
once 438614
white 438336
K 438149
remained 438084
sou@@ 437577
31 437443
ices 437143
current 436883
aves 436466
Air 436436
see 436329
fund@@ 436150
largest 435919
mot@@ 435719
seven 435526
character 435467
gl@@ 435351
med@@ 434982
ces 434681
Ho@@ 434522
young 433682
reported 433591
UK 433560
modern 433256
Washington 433246
ential 433027
An 432248
Charles 431953
leading 431771
tel@@ 431298
Fin@@ 431225
ater 431017
ays 430694
Her 430619
ury 430616
should 430285
Center 430044
ama 429926
Hall 429788
Mal@@ 429553
vic@@ 429356
design@@ 429302
eds 429184
Su@@ 429120
tho@@ 428348
originally 427596
Western 427467
sions 426914
songs 426634
aining 426488
wood 426345
vel@@ 426250
ied 426243
row 425774
coll@@ 425463
conduc@@ 424933
players 424842
ington 424791
Other 424558
rece@@ 424334
0,000 424298
board 424031
1998 424025
fore 423174
great 422556
Department 422349
seen 421963
ban@@ 421800
process 421576
tal@@ 420690
directed 420408
law@@ 420373
So@@ 420346
den@@ 420317
X 420204
tar@@ 420086
wed 420051
vie@@ 420047
Russian 420024
V 420015
men@@ 419936
return 419778
fri@@ 419633
Paul 419594
Institute 419426
inal 419394
performance 419187
bus@@ 419186
refer 419183
liter@@ 419140
20@@ 419119
brother 419001
ost 418990
lower 418919
continu@@ 418755
western 418731
Leg@@ 418717
groups 418340
currently 418262
study 418139
govern@@ 417898
owned 417780
Although 417618
Since 417359
post 417033
cho@@ 416886
Mac@@ 416693
features 416573
ano 416235
includes 415743
W 415438
ense 414056
ze 413758
Chinese 413553
eight 413468
vely 413430
tural 413265
via 413251
ek 412994
ata 412886
zed 412840
throughout 412781
anted 412765
car 412602
Min@@ 412265
om 412088
training 411933
ades 411896
listed 411594
househ@@ 411386
Canadian 411267
Island 410845
igned 410187
front 410156
placed 409881
whe@@ 409791
elling 409660
ills 409517
mission 409223
Society 408969
does 408789
ara 408631
ly@@ 408469
help 408229
1996 408074
ged 407934
Inter@@ 407725
forces 407633
tan@@ 406908
featured 406907
resp@@ 406351
fir@@ 406202
writer 405959
histori@@ 405913
ones 405748
Pri@@ 405436
mer 405298
ani 405281
ased 405245
ball 405175
awarded 405154
fication 405141
mission@@ 404433
African 404377
sen@@ 403635
atic 403604
ains 403422
successful 403232
involved 403069
ber 403055
prim@@ 402972
esses 402956
moun@@ 402899
usually 402770
1997 402333
Pal@@ 402232
come 401742
kno@@ 401031
pat@@ 400971
range 400536
ans@@ 400010
information 399748
meth@@ 399733
stated 399716
eventually 399559
inst@@ 399461
episode 398851
schools 398243
Minister 397560
concer@@ 397510
respon@@ 397284
phys@@ 397101
shi@@ 396910
recogni@@ 396818
court 396654
good 396551
Cro@@ 396303
ched 396213
vers@@ 395867
spo@@ 395310
prom@@ 395252
fire 395113
pe 394909
Its 394285
ha@@ 393497
ae 393345
ee 393153
1st 393137
sil@@ 393060
degree 392997
pic@@ 392757
kh@@ 392724
human 392266
dro@@ 392115
ven@@ 392101
ub@@ 392045
offici@@ 391845
ft 391566
some@@ 391543
you 391444
outh 391359
Academy 391217
central 391170
added 391168
fer@@ 390526
countries 390481
amp@@ 390271
As@@ 390056
propos@@ 389566
ads 389007
force 388759
Act 388509
cro@@ 388406
ms 387591
fic 387500
sus@@ 387373
replaced 387239
refer@@ 387180
Kar@@ 387116
close 386907
aries 386738
Is@@ 386629
del@@ 386422
di 386319
neg@@ 386195
ports 386193
los@@ 385988
black 385871
New@@ 385746
families 385547
ously 385544
promot@@ 385503
views 385477
Mer@@ 385437
fil@@ 385312
Women 385310
ts@@ 384976
winning 384883
Si@@ 384821
Tri@@ 384415
ith 384411
nomin@@ 384411
au 384391
say@@ 384176
kers 384099
exten@@ 384054
fol@@ 383959
Ser@@ 383811
pot@@ 383602
ators 383369
media 383351
competition 382909
emb@@ 382860
fourth 382852
consist@@ 382717
related 382597
char@@ 382262
isi@@ 382174
Sal@@ 382150
Ang@@ 382039
private 381895
Africa 381616
special 381394
either 381250
lock 381059
eign 380870
1995 380622
possible 380571
H 380028
ote 379924
parts 379683
viol@@ 379328
lat@@ 379217
Spanish 378951
ys 378648
previous 378574
Fr@@ 378358
provided 378255
pri@@ 377959
ident 377820
police 377806
ority 377454
exec@@ 376949
1992 376479
constitu@@ 376246
ori@@ 375982
college 375458
ail 375399
center 375195
eas@@ 374902
reached 374839
met@@ 374733
killed 374705
Great 374680
1994 374549
radio 374398
km 374345
2.@@ 374093
enn@@ 373591
Kr@@ 373588
eme 373448
Lake 373377
1,@@ 373245
ech 372624
must 372461
ids 371937
least 371624
bri@@ 371559
ap 371511
Fre@@ 371460
To 371322
List 371179
cent@@ 371053
Italian 370974
Michael 370876
cat@@ 370775
Mil@@ 370346
aj@@ 370084
Rom@@ 369705
states 368913
ken 368775
Best 368586
person 368519
ena 368043
above 367962
type 367656
rights 367624
lear@@ 367622
super@@ 367589
plays 367373
writing 367252
nam@@ 367241
host@@ 367178
Henry 367096
tary 367041
dam@@ 366990
fully 366832
attended 366556
ich 366494
mag@@ 366491
ships 366427
ib@@ 366403
division 366400
tis@@ 366385
ud@@ 366350
eth@@ 366300
cour@@ 366078
que 366021
scored 366017
esti@@ 365964
olog@@ 365688
aircraft 365277
enced 365166
thre@@ 364947
Football 364873
Je@@ 364648
introduced 364422
fif@@ 364402
candid@@ 364313
Republic 364301
combin@@ 364262
upon 363767
Cal@@ 363603
phot@@ 363478
older 363360
pped 362382
rock 362376
attack 362237
plat@@ 361423
space 361068
changed 360771
yn@@ 360735
compar@@ 360702
Im@@ 360653
room 360623
12@@ 360596
educ@@ 360282
Mas@@ 360094
railway 360001
ells 359855
Gal@@ 359723
campaign 359659
meas@@ 359384
decided 359351
St 359190
Del@@ 359120
river 358712
ung@@ 358422
ret@@ 358306
contract 357785
mid 357776
cell@@ 357504
shire 357344
indic@@ 357186
mitted 357027
Awards 356371
tribut@@ 356277
shows 356135
White 355957
Career 355883
ush@@ 355603
Hon@@ 355497
amed 355343
night 355216
size 355022
anim@@ 354748
Go@@ 354687
books 354517
Ag@@ 354276
Bro@@ 354085
Bor@@ 353897
dom@@ 353526
auth@@ 353440
pan@@ 353367
female 353315
ab 353197
census 353125
Mag@@ 353101
Ireland 353024
1990 352844
ha 352720
1993 352579
ights 352434
Hor@@ 352321
Res@@ 352244
enc@@ 352215
A. 351605
films 351241
ide 350831
Fl@@ 350820
1991 350586
construc@@ 350526
ba@@ 350431
defeated 350279
standing 350002
Pre@@ 349730
establ@@ 349667
found@@ 349610
sy@@ 349313
Museum 349293
Saint 349103
Trans@@ 348873
my 348801
squ@@ 348759
star@@ 348534
Texas 348322
ey@@ 348206
market 348193
ution 348166
hy@@ 348070
success 347915
rol@@ 347899
Wil@@ 347866
previously 347582
ece 347536
goal 347319
tour@@ 347135
arri@@ 346748
La 346745
ran 346573
model 346538
represented 346347
start 345857
dres@@ 345810
uni@@ 345498
To@@ 345323
Kingdom 345061
rather 344845
Following 344592
instead 344514
ala 344461
tournament 344384
ograph@@ 344366
Education 344345
Christian 344271
serv@@ 344247
met 343966
buildings 343850
Two 343765
arian 343066
pap@@ 343065
studio 342988
Mad@@ 342824
ily 342735
FC 342603
regular 342135
eter@@ 341978
eti@@ 341675
Gar@@ 341549
organization 341524
exist@@ 341434
urity 341332
whose 341059
gir@@ 340991
frequ@@ 340648
provide 340498
any@@ 340442
Black 340363
At@@ 340309
Te@@ 340227
Cur@@ 339954
stand@@ 339932
ges 339900
obj@@ 339746
strong 339709
move 339303
aft 338974
jur@@ 338753
behind 338451
Peter 338417
plann@@ 338047
lived 337987
arily 337876
Pi@@ 337649
taking 337641
legal 337591
purch@@ 337487
iti@@ 337335
shar@@ 337012
week 336894
brought 336716
almost 336705
accoun@@ 336612
health 336513
Roman 336470
ord@@ 336436
stone 336153
ve@@ 336085
Government 336073
ilities 336041
neigh@@ 335644
lan@@ 335448
Art 335175
defin@@ 335137
ams 335091
closed 335004
Los 334971
novel 334787
Bot@@ 334441
lines 334205
scre@@ 334205
sible 333772
hip 333410
data 333111
reve@@ 332699
Mur@@ 332581
mental 332514
Paris 332504
thing 332398
Grand 332028
ye@@ 331801
ame 331280
On@@ 331111
movement 331089
reduc@@ 330951
ust 330375
tric 330176
verse 329963
put@@ 329633
Committee 329602
hood 329273
ash 329166
Catholic 329145
formation 328805
Later 328681
units 328619
fle@@ 328596
oni@@ 328485
imp@@ 328242
sequ@@ 328185
trac@@ 328113
base 328049
compl@@ 327988
ov 327923
soon 327907
appear@@ 327841
approximately 327793
Championships 327713
significant 327446
Soviet 327321
Mary 327306
ils 326766
date 326723
atives 326634
pul@@ 326552
outside 326456
ope 326424
ading 326323
structure 325815
duc@@ 325603
Reg@@ 325439
Zealand 325081
1989 324937
oph@@ 324846
ords 324666
aled 324465
prof@@ 324306
syn@@ 324262
allowed 324255
ky 324108
hon@@ 323632
ym@@ 323555
northern 323502
ls 323368
Smith 323152
scor@@ 323089
ond@@ 322966
ock 322856
hu@@ 322812
dition 322719
primary 322675
investig@@ 322674
Gi@@ 322420
especially 322377
uk@@ 322260
industry 322136
Fi@@ 322112
sa 321610
runs 321600
yp@@ 321492
Life 321422
ort@@ 321284
Sur@@ 321208
pol@@ 321124
art@@ 321083
Du@@ 321054
wers 320731
elled 320524
too 320267
interest 320175
Ger@@ 320162
influ@@ 319898
ler@@ 319794
mit 319773
environ@@ 319679
southern 319349
Red 319259
mix@@ 318797
acks 318770
cover 318646
ger 318505
Dis@@ 318130
disambiguation 317748
remain@@ 316888
mur@@ 316699
Bl@@ 316611
course 316366
forced 316236
summer 316182
word 316140
sm@@ 316138
cul@@ 316055
rest 316054
mit@@ 315831
ā@@ 315821
son@@ 315735
lied 315672
island 315667
ette 315226
1988 315175
Richard 315000
woman 314962
ki 314519
expl@@ 314453
War@@ 314223
beginning 314061
fall 314046
&#124; 314005
wal@@ 313957
Olympics 313791
bed 313638
institu@@ 313633
spent 313553
vol@@ 313459
60 313005
Wal@@ 313001
No. 312797
wards 312604
capital 312587
operation 312344
artist 312066
leader 311981
Bay 311848
kin@@ 311731
systems 311716
tra 311642
onal 311503
dered 311236
itself 311197
theast 311025
ada 310868
Arts 310804
gar@@ 310804
Virginia 310767
Sim@@ 310678
bran@@ 310617
defe@@ 310595
highest 310230
studies 310131
hit 310118
num@@ 310084
opp@@ 309951
versi@@ 309830
face 309807
q@@ 309569
tain@@ 309490
Summer 309442
entr@@ 309317
Most 309202
allow@@ 309177
0@@ 309051
Festival 309018
little 308927
Chicago 308888
ason 308811
erg@@ 308785
whom 308696
sea 308510
ini 308435
domin@@ 308328
rem@@ 308290
Em@@ 308150
location 308053
rup@@ 307839
doc@@ 307546
typ@@ 307510
ew@@ 307457
towards 307318
ather 307259
text 307242
á@@ 306993
sometimes 306865
oppos@@ 306793
proj@@ 306377
yo@@ 306129
Bre@@ 305936
ican 305873
ven 305718
aught 305529
Second 305505
traditional 305312
ough@@ 305075
excep@@ 305068
independent 305041
county 304815
Records 304122
park 304037
inf@@ 303847
main@@ 303817
plant 303668
ols 303473
higher 303406
eter 303393
child 303193
cli@@ 303132
opening 303098
ca 303070
Tre@@ 303016
magazine 302879
3.@@ 302767
far 302675
incre@@ 302650
length 302548
istic 302517
operations 302485
hand 302420
ac 302372
loss 302307
quali@@ 302301
develop@@ 302116
suggest@@ 302091
18@@ 302074
generally 301984
Sec@@ 301915
anced 301845
appearance 301692
bridge 301676
ris@@ 301373
running 301168
studied 301132
wr@@ 300821
Force 300806
seat 300622
Film 300324
second@@ 300321
route 300315
Sol@@ 300124
according 300027
Fo@@ 299858
commun@@ 299728
ery 299605
oti@@ 299480
noted 299472
dle 299400
culture 299232
army 299105
lab@@ 299098
launched 299060
thus 298892
rul@@ 298752
differ@@ 298730
Med@@ 298683
hibi@@ 298602
network 298527
natural 298424
000 298367
Can@@ 298112
dy 297980
# 297967
aking 297926
ff 297709
1987 297522
ita 297397
Cas@@ 297353
entered 297319
ners 297291
airs 297211
collection 297168
classi@@ 296942
future 296633
ike 296554
ari 296530
Italy 296451
anded 296140
ister@@ 296095
ham 296067
rap@@ 296044
real 295824
rit@@ 295695
idential 295675
below 295624
ea 295596
J. 295574
going 295312
required 295264
money 295240
nec@@ 295020
mod@@ 294814
ais@@ 294806
friend 294721
genus 294703
issues 294624
You 294502
bat@@ 294467
Games 294391
fel@@ 294350
bes 294248
emati@@ 294110
hel@@ 294026
alism 294020
Sil@@ 293867
Not@@ 293618
territ@@ 293457
Navy 293196
Mexico 293054
1986 292782
fiel@@ 292748
wer@@ 292649
teen 292614
ond 292593
month 292495
conf@@ 292491
Hill 292474
va 292434
let 292329
bot@@ 292071
ao 291997
lim@@ 291889
Kh@@ 291863
mark 290861
Ros@@ 290804
means 290712
practice 290639
tour 290389
Pres@@ 290310
ues 290073
canc@@ 290054
Battle 289942
Many 289938
matches 289873
ys@@ 289499
1984 289426
fort 289242
Char@@ 289126
500 289115
ior 289070
operated 288961
berg 288805
ern@@ 288802
care 288798
histor@@ 288731
newspap@@ 288666
sti@@ 288553
sum@@ 288394
65 288284
Rel@@ 288179
earlier 288002
senior 287994
eption 287960
Northern 287928
Angeles 287833
prepar@@ 287664
changes 287588
invol@@ 287588
centre 287162
anti 287142
ules 286990
tioned 286802
property 286696
spir@@ 286692
Loc@@ 286659
Play@@ 286533
passed 286480
economic 286322
complete 286280
Liber@@ 286272
results 286062
employ@@ 286035
cases 285812
Indi@@ 285797
treat@@ 285792
adop@@ 285717
van 285434
lion 285404
gold 285316
If 285160
Lu@@ 285156
1980 285058
Sc@@ 284788
elt 284759
lers 284677
hum@@ 284306
companies 284297
1985 284154
saf@@ 284121
pil@@ 284109
Ap@@ 283980
aliz@@ 283952
increased 283774
individual 283712
Mat@@ 283664
Ri@@ 283642
list@@ 283574
singer 283276
Russia 283172
associated 282969
spr@@ 282965
selected 282827
victory 282659
Do@@ 282638
becoming 282631
Bir@@ 282606
scienti@@ 282557
numerous 282492
estim@@ 282491
za 282446
cent 282388
expres@@ 282066
dre@@ 281966
eer 281948
ger@@ 281918
observ@@ 281815
Vi@@ 281810
ching 281808
é 281741
reser@@ 281734
speci@@ 281524
ye 281376
vention 281359
majority 281226
already 281170
Es@@ 280783
urs 280777
Day 280714
academ@@ 280598
sal@@ 280289
limited 280251
anci@@ 279978
declar@@ 279914
decision 279879
dep@@ 279680
Mah@@ 279576
Greek 279533
Far@@ 279377
author 279347
iled 279268
ie@@ 279093
porting 279068
jud@@ 278990
Bul@@ 278942
manager 278882
ner@@ 278743
contains 278709
Joseph 278685
oma 278552
find 278493
competed 278285
difficul@@ 278195
compos@@ 278107
activities 277923
ording 277697
Pan@@ 277519
ket 277299
bs 277296
kil@@ 277226
destroy@@ 276758
ump@@ 276611
initially 276543
caused 276306
2nd 276242
cher 276008
ayed 275989
edi@@ 275934
tory 275932
econom@@ 275866
serving 275816
public@@ 275814
commercial 275801
shot 275751
weight 275599
figh@@ 275590
award 275522
cros@@ 275467
chi@@ 275209
love 275196
unit 275119
don@@ 275032
aning 274898
income 274662
aus@@ 274494
power@@ 274463
emp@@ 274393
guit@@ 274282
Val@@ 274280
lem@@ 274237
bul@@ 274217
food 274200
issue 274194
Cre@@ 273991
terms 273956
hi 273770
annual 273638
student 273369
ster@@ 273285
Board 273255
kl@@ 273188
actions 273182
pose 273167
gs 273011
ference 272866
supported 272741
occ@@ 272625
certain 272481
Por@@ 272443
q 272414
Irish 272143
person@@ 272096
1983 272022
Kor@@ 271958
aring 271909
coming 271868
personal 271594
trade 271586
nine 271365
access 271300
Eng@@ 271242
actor 271146
ives 271058
mostly 271048
retired 271047
marri@@ 271001
blo@@ 270910
issu@@ 270903
staff 270893
-@@ 270702
Wales 270682
artists 270667
Florida 270600
rate 270552
Sir 270396
sex 270199
eastern 270047
incorpor@@ 270038
Route 270019
ising 269883
amm@@ 269882
goals 269834
Service 269738
additional 269726
isions 269670
4.@@ 269653
buil@@ 269525
celebr@@ 269503
+ 269469
standard 269289
ached 269250
fic@@ 269107
sem@@ 269088
better 269035
200 268972
ung 268812
vehic@@ 268679
lic@@ 268627
new@@ 268617
mp@@ 268574
characters 268386
impro@@ 268310
Pacific 268254
journ@@ 268233
chief 268185
Ke@@ 268162
ific@@ 267979
municipality 267972
university 267590
ease 267512
Research 267491
termin@@ 267310
elections 267291
1982 267271
particularly 267184
80 266664
native 266661
thought 266619
cred@@ 266552
past 266423
ani@@ 266420
edy 266206
acked 266056
fact 266055
acts 266050
sim@@ 265904
ai@@ 265790
divid@@ 265665
author@@ 265341
aches 265297
ring 265158
ania 265095
Southern 265058
Er@@ 265055
mul@@ 264976
sign@@ 264815
husband 264761
Assembly 264613
ores 264524
Arch@@ 264523
edition 264419
immedi@@ 264245
test 264197
claimed 264189
rd 264117
batt@@ 263739
religious 263629
surround@@ 263560
aging 262984
cel@@ 262964
officer 262654
Commun@@ 262583
olds 262582
Valley 262549
1979 262444
Govern@@ 262383
plan 262118
management 262095
ome@@ 262068
entire 261822
ax@@ 261819
parents 261774
character@@ 261460
bal@@ 261443
45 261442
famous 261286
1972 261177
test@@ 260873
mil@@ 260827
hal@@ 260561
create 260463
Tro@@ 260326
subsequently 260322
die 260295
orial 260287
Year 260051
une 259958
Congress 259942
tern 259914
ept 259895
airman 259761
politician 259707
ership 259692
ett 259546
Louis 259520
give 259454
ises 259390
That 259239
Public 259135
remains 258820
championship 258807
Gen@@ 258591
Parliament 258544
feature 258511
Al 258509
evidence 258484
writ@@ 258310
lo 258234
medical 258201
engine 258192
publ@@ 257747
Comm@@ 257444
ived 257324
transfer@@ 257184
battle 257067
Elec@@ 256997
hav@@ 256973
? 256955
Lab@@ 256953
arch 256916
programs 256671
status 256633
grand@@ 256587
earned 256527
relationship 256506
science 256449
Spain 256444
hours 256434
raised 256396
sons 256234
suc@@ 256070
ange 256057
musical 255976
turn 255951
eding 255925
Province 255802
prec@@ 255724
names 255668
clos@@ 255585
today 255166
ums 254895
ple@@ 254786
six@@ 254697
Jewish 254579
func@@ 254292
deli@@ 254241
ineering 254146
promin@@ 254132
report 253777
illing 253703
Old 253702
tes 253689
70 253321
19th 253265
1976 253257
Christ@@ 253228
Commission 253225
score 253048
edly 253023
sports 252919
1981 252911
Tor@@ 252868
Oc@@ 252840
ome 252838
Law 252699
35 252537
serve 252338
door 252093
sister 252084
1974 252049
don 251986
plan@@ 251982
allow 251947
particular 251933
Their 251901
helped 251806
1945 251695
got 251634
beg@@ 251632
fas@@ 251582
tou@@ 251549
Democratic 251452
alized 251359
Bet@@ 251322
erry 251259
referred 251010
star 250968
hap@@ 250878
follow@@ 250870
weeks 250804
ectiv@@ 250790
Times 250783
tiv@@ 250663
presented 250586
manufactur@@ 250503
ingly 250429
io 250413
emplo@@ 250274
back@@ 250260
conver@@ 250203
1970 250066
far@@ 250040
meeting 250038
Martin 249844
larger 249831
eth 249684
Mid@@ 249660
Wo@@ 249458
1968 249435
ict 249377
ki@@ 249173
instrum@@ 249091
Science 249059
Railway 249015
there@@ 248851
caus@@ 248778
material 248750
1@@ 248738
1975 248700
asked 248635
shown 248471
energy 248442
turned 248378
D. 248360
believed 248162
table 248151
1978 248150
likely 248101
response 248092
individu@@ 247782
complex 247669
sky 247654
Despite 247586
tained 247474
Queen 247461
minutes 247376
Empire 247206
unter@@ 247133
descri@@ 246651
failed 246456
Chil@@ 246362
ize 246295
seasons 246254
leaving 246032
chall@@ 245967
retur@@ 245763
longer 245758
deal 245742
stations 245718
claim@@ 245715
Green 245674
Sub@@ 245576
basketball 245485
mach@@ 245263
competi@@ 245179
bish@@ 245109
specific 244953
Pen@@ 244928
Ev@@ 244765
ez@@ 244741
ites 244666
bury 244559
Gl@@ 244504
5.@@ 244501
ella 244466
esh 244445
Vol@@ 244427
aired 244285
composed 244233
,000 244095
90 244048
du 244014
ening 243962
acquired 243954
ink 243700
Line 243533
CA@@ 243528
lement 243461
People 243327
Den@@ 243162
Personal 243128
surface 243069
Lord 243056
increase 243019
ez 242776
takes 242557
III 242508
lem 242405
yer 242214
Eastern 241981
policy 241926
Spr@@ 241919
cover@@ 241893
houses 241719
But 241625
footballer 241432
multiple 241402
financial 241362
fight 241357
themselves 241327
web@@ 241283
thr@@ 241241
Est@@ 241032
Big 240920
ox@@ 240863
offered 240820
1973 240806
theory 240776
cost 240762
wns 240746
Secre@@ 240736
charg@@ 240687
1977 240686
Conference 240442
cal@@ 240370
alled 240306
mainly 240216
Town 240207
need 240015
regional 240013
estr@@ 239949
federal 239922
atis@@ 239875
Chief 239829
Series 239765
lam@@ 239763
Gro@@ 239535
latter 239529
document@@ 239521
sional 239271
alli@@ 239226
usi@@ 239141
eld 238916
starting 238862
BC 238696
Edward 238628
eau 238551
aces 238473
sen 238305
vote 238176
chap@@ 238157
Au@@ 238059
aller 237995
inj@@ 237836
ial 237789
ider 237704
Off@@ 237554
Radio 237462
idae 237395
hib@@ 237367
Station 237279
blu@@ 237219
Carolina 237084
1971 236999
source 236903
subject 236883
tun@@ 236854
oh@@ 236650
err@@ 236469
iev@@ 236377
ju@@ 236335
male 236073
fu@@ 236061
direct 236043
Swe@@ 235972
US@@ 235713
down@@ 235439
Prot@@ 235432
premi@@ 235209
ign 235170
thy 235062
1969 234994
Star 234957
effect 234720
sit@@ 234714
ysis 234604
gun@@ 234491
Ot@@ 234447
acher 234357
Britain 234141
Poland 233845
cities 233816
pa@@ 233791
probl@@ 233716
sched@@ 233571
Bow@@ 233529
chem@@ 233456
separate 233353
Ni@@ 233351
eral 233283
master 233096
cultural 233088
desp@@ 232866
conv@@ 232656
break 232643
itz@@ 232588
1980s 232384
integr@@ 232332
train 232305
categ@@ 232045
yc@@ 232045
ali 231936
Sa@@ 231897
Dutch 231896
ero 231776
with@@ 231683
Wi@@ 231610
Sam@@ 231461
dedic@@ 231281
Team 231231
Des@@ 231135
mir@@ 231110
press@@ 231056
ora 230913
cin@@ 230900
distinc@@ 230722
ose 230711
gel@@ 230595
temper@@ 230547
department 230428
atr@@ 230401
play@@ 230382
inten@@ 230375
ive 230370
32 230335
press 230302
1967 230207
ault 230181
separ@@ 230177
Brown 230174
Lee 230089
civil 230008
speed 229976
audi@@ 229917
prior 229864
tracks 229747
worth 229659
crip@@ 229643
influence 229635
square 229588
unk@@ 229551
done 229496
6.@@ 229356
nership 229331
C. 229234
contribut@@ 229081
7.@@ 229014
Ben@@ 228794
gency 228709
get@@ 228468
class@@ 228411
arrang@@ 228396
Bank 228293
arding 228236
197@@ 228123
ae@@ 227791
professor 227657
ieve 227231
initi@@ 227215
complet@@ 227108
She@@ 226566
publican 226522
burg 226277
20th 226250
Man 226181
Ram@@ 225932
peri@@ 225897
log@@ 225856
ition 225815
cil 225789
prison@@ 225764
determin@@ 225743
pal@@ 225698
pas@@ 225644
conditions 225361
£ 225121
1964 225057
rom@@ 225046
Open 225024
j 225005
model@@ 224858
bank 224501
sing@@ 224306
Prince 224244
ester 224151
les@@ 224052
stand 223963
ty@@ 223879
asi@@ 223722
Dr. 223704
records 223594
ide@@ 223533
ine@@ 223386
Creek 223296
asing 223236
administrative 223082
Dem@@ 223035
Love 222711
news 222670
Cam@@ 222666
Another 222643
dies 222598
Asian 222422
Under 222296
wth 222225
ket@@ 222170
mine 222087
sound 222076
unter 222049
ause 221987
lit 221776
75 221620
ban 221464
hold 221257
We 221123
Y 220964
yth@@ 220646
mu@@ 220489
uter 220378
uch@@ 220236
2022 220205
Vo@@ 220151
Scotland 220059
tres 219988
transl@@ 219959
Pennsylvania 219854
Bec@@ 219807
tin 219509
contribu@@ 219458
oid 219382
Wat@@ 219365
tains 219256
Kn@@ 219101
ko 219025
Sy@@ 219019
Theatre 218997
hab@@ 218926
2,@@ 218894
cut 218892
plans 218675
div@@ 218537
30@@ 218478
ape 218466
199@@ 218383
til@@ 218356
Os@@ 218355
mechan@@ 218312
essed 218298
aci@@ 218288
ization 218114
ille 218013
poli@@ 217938
esis 217787
comes 217749
depend@@ 217742
tempor@@ 217687
1965 217536
Latin 217462
portr@@ 217367
odes 217343
Mark 217333
tra@@ 217145
pon@@ 217074
idea 217020
libr@@ 216997
lay@@ 216949
fish 216777
wall 216759
dru@@ 216743
Development 216478
province 216304
tiz@@ 216230
Jones 216226
graph@@ 216047
cial 216002
rural 215865
Win@@ 215777
consider@@ 215715
Tom@@ 215432
.C. 215355
pun@@ 215188
eli@@ 215103
oke 215092
ark@@ 214989
Wh@@ 214908
ati 214836
pati@@ 214601
anal@@ 214560
tered 214534
Order 214505
heavy 214375
1960 214233
Sar@@ 214075
enty 213995
prop@@ 213912
elimin@@ 213895
1966 213786
ston 213777
function 213633
Foundation 213629
ever@@ 213607
Men 213559
cir@@ 213553
pre 213363
br 213212
abl@@ 213113
cause 212999
benef@@ 212978
annel 212894
eri@@ 212882
diers 212660
farm@@ 212577
No@@ 212531
ually 212510
25@@ 212488
Michigan 212388
onn@@ 212387
atory 212326
ails 212210
Nav@@ 212202
run@@ 212178
Boston 212156
orig@@ 212045
dens@@ 212011
Mu@@ 211805
positive 211791
1944 211662
alis@@ 211627
sl@@ 211469
Civil 211466
Egyp@@ 211455
musici@@ 211335
toral 211305
adul@@ 211303
value 211238
mus@@ 211208
196@@ 211128
God 211071
Health 211043
oil 211017
fem@@ 210999
Fe@@ 210904
double 210898
vey 210887
oms 210872
ura 210806
Centre 210771
escap@@ 210575
editor 210470
ths 210172
produce 210007
aling 209995
oking 209870
ć 209858
Francisco 209836
Ohio 209694
places 209692
burgh 209489
nature 209438
Ur@@ 209375
64 209352
dou@@ 209254
Hal@@ 209171
amount 209136
capac@@ 209037
Cy@@ 208863
19@@ 208831
week@@ 208749
pair 208734
Dar@@ 208727
Young 208709
confirm@@ 208392
bert 208037
Def@@ 208000
offic@@ 207978
spre@@ 207971
union 207885
mol@@ 207790
Bish@@ 207761
itation 207684
wel@@ 207660
anth@@ 207630
ef 207576
ja 207521
Pas@@ 207438
Tour@@ 207391
ait 207358
captur@@ 207336
agu@@ 207328
ji 207292
M. 207260
ensive 207222
situ@@ 207201
accep@@ 207194
Dan@@ 207186
Johnson 207093
yard 207059
distr@@ 207005
of@@ 206937
Rich@@ 206920
Asia 206784
No 206737
3,@@ 206684
oks 206546
Hy@@ 206444
Bud@@ 206293
Scottish 206103
seri@@ 206055
tom 206032
cross 205930
revol@@ 205804
Director 205611
J 205432
mm 205426
Hel@@ 205379
Chi@@ 205069
ut 205050
cription 204962
hospital 204930
Mont@@ 204909
asp@@ 204868
wil@@ 204858
ledge 204575
refl@@ 204293
Hu@@ 204164
preser@@ 204103
Major 204014
Sea 203731
Mel@@ 203692
autom@@ 203609
ided 203538
vice 203467
clim@@ 203389
Ham@@ 203329
Israel 203314
stars 203241
onstr@@ 203150
Ir@@ 203139
Alexander 203057
adron 203011
res 202996
8.@@ 202947
pros@@ 202878
epis@@ 202856
continue 202749
Williams 202702
elle 202587
proc@@ 202424
reco@@ 202400
enger 202360
Fac@@ 202271
AR@@ 201985
label 201947
rement 201892
iting 201854
Ban@@ 201832
ro 201663
Georgia 201532
Jud@@ 201465
ulation 201393
idge 201264
Nov@@ 201167
vir@@ 201054
eo 200970
notable 200731
qui@@ 200651
ours 200545
flu@@ 200534
Three 200435
ona 200415
Han@@ 200293
Office 200221
Vic@@ 200215
Lou@@ 200204
Avenue 200151
ich@@ 200101
CD 200034
stop 199956
Mari@@ 199922
regul@@ 199776
dar@@ 199701
hard 199655
Highway 199572
Columbia 199475
rid@@ 199440
ola 199357
patr@@ 199310
box 199178
Back@@ 199111
chart 199083
ret 199065
West@@ 199032
relati@@ 198986
El 198903
sent@@ 198880
portun@@ 198814
organis@@ 198809
Ol@@ 198762
1963 198744
stream 198671
len@@ 198605
1962 198546
film@@ 198488
44 198433
Ul@@ 198433
Econom@@ 198292
bon 198142
minor 198007
plic@@ 197823
traf@@ 197812
AS@@ 197806
now@@ 197648
aker 197625
Fort 197512
Family 197454
ree 197425
Athle@@ 197359
enci@@ 197319
irs 197307
yon@@ 197161
Spe@@ 197134
cost@@ 197072
Cap@@ 197063
rou@@ 197063
port@@ 196985
33 196957
Super@@ 196951
Bill 196738
parish 196727
uss@@ 196574
Tod@@ 196558
basis 196439
occas@@ 196399
ski 196374
tex@@ 196314
Ti@@ 196312
pression 196182
Middle 196057
1942 196026
ordin@@ 196022
eman 195894
ging 195854
1948 195793
sites 195750
marine 195656
ight@@ 195650
plac@@ 195636
Mi@@ 195548
strateg@@ 195539
Super 195510
administration 195375
Corps 195246
distance 195127
istr@@ 194854
parti@@ 194815
champi@@ 194670
My 194454
itage 194302
sts 194093
Shi@@ 194055
singles 193992
Sydney 193935
spi@@ 193886
Hospital 193879
tas@@ 193869
long@@ 193704
urn@@ 193659
cla@@ 193650
ute 193550
eing 193426
nation 193421
aya 193412
illed 193407
assist@@ 193077
bac@@ 193071
assistant 192998
hot@@ 192835
BBC 192753
Dor@@ 192602
drama 192452
Whit@@ 192449
ple 192353
yet 192336
Tour 192241
ago 192110
Thr@@ 192085
ric@@ 191970
ping 191924
Jer@@ 191921
positions 191918
ital 191909
tern@@ 191799
Historic 191782
alg@@ 191712
extr@@ 191694
ment@@ 191678
Coast 191656
sibil@@ 191641
color 191592
36 191589
yle 191502
cru@@ 191456
1940 191387
Ash@@ 191337
News 191232
oto 191097
Ven@@ 191055
essor 191032
efforts 190995
1941 190929
unger 190658
agricul@@ 190651
featur@@ 190554
Lat@@ 190519
Tam@@ 190482
RA@@ 190478
prin@@ 190469
initial 190365
enter@@ 190314
Ministr@@ 190215
ł@@ 190212
Cle@@ 190109
1961 190093
relations 190086
cars 190016
Lin@@ 190005
ow 189895
Nati@@ 189771
ld@@ 189756
aks 189573
Jack 189511
1939 189482
Of 189437
9.@@ 189432
B. 189395
Sund@@ 189393
oth 189365
kn@@ 189221
critic@@ 189177
respectiv@@ 189151
Little 189149
Ra@@ 189133
grade 189066
repe@@ 188794
ible 188744
set@@ 188668
1946 188578
lin 188518
del 188483
heav@@ 188471
conserv@@ 188269
ze@@ 188220
mel@@ 188168
inger 188124
Blue 188048
ady 188012
esc@@ 187993
Bol@@ 187925
Sho@@ 187925
charge 187836
mand@@ 187793
arts 187753
Federal 187605
occu@@ 187590
ingham 187536
itch 187518
castle 187428
langu@@ 187333
ij@@ 187287
imm@@ 187266
gen 187143
osp@@ 187008
E. 187006
dh@@ 186842
visit@@ 186830
Jersey 186504
pay@@ 186449
1956 186371
Olympic 186183
bus 186131
Dev@@ 186118
ace@@ 186054
Buil@@ 186018
types 185984
bles 185959
Coun@@ 185946
00@@ 185919
explo@@ 185885
comment@@ 185833
Mem@@ 185828
clubs 185700
Illinois 185674
perman@@ 185662
rati@@ 185514
IS@@ 185504
crick@@ 185503
trad@@ 185490
arg@@ 185331
von 185299
anian 185298
lie 185276
article 185239
philosoph@@ 185223
ead 185193
popul@@ 185136
1943 185071
AC@@ 184983
ases 184917
Fur@@ 184892
34 184868
nucle@@ 184716
gun 184708
stri@@ 184692
umb@@ 184555
wa 184462
cs 184444
cy@@ 184303
yst@@ 184199
laun@@ 184134
lery 184091
attention 184078
session 184070
hur@@ 184047
Scott 184026
cine 183982
ald 183918
elev@@ 183892
enge 183837
Dec@@ 183808
ief 183675
S. 183674
Post 183664
vent 183653
arded 183579
contempor@@ 183485
pay 183433
Jean 183328
format 183204
cerem@@ 183167
Victoria 183091
museum 183012
miles 182995
boy@@ 182986
evol@@ 182925
entry 182861
W. 182806
independ@@ 182801
North@@ 182781
ech@@ 182763
bit 182752
Represent@@ 182683
Earth 182643
Airport 182566
Arab@@ 182514
Justice 182379
contro@@ 182362
Berlin 182288
mittee 182237
1950 182224
enz@@ 182212
Rock 182139
uck 182133
perform@@ 182123
bloc@@ 182021
astr@@ 182003
streng@@ 181751
Conserv@@ 181730
ame@@ 181709
1958 181702
Camp@@ 181658
phy 181636
Supre@@ 181504
online 181386
wa@@ 181276
my@@ 181209
Pat@@ 181119
tran@@ 181033
Frank 181022
San@@ 180973
Sand@@ 180972
1947 180849
38 180556
tig@@ 180547
ous@@ 180503
li 180455
ancy 180426
1959 180359
Sus@@ 180316
H. 180105
migr@@ 180103
ila 179845
Sever@@ 179744
ask@@ 179666
Poli@@ 179664
iss 179640
distribution 179458
spons@@ 179452
Air@@ 179338
stein 179291
reti@@ 179283
ord 179241
sources 179235
Brig@@ 179130
minister 179112
Medi@@ 178960
Mul@@ 178828
cell 178809
was@@ 178763
direction 178595
programm@@ 178448
exper@@ 178404
Ha@@ 178385
Kong 178252
other@@ 178135
Iran 178119
Mount 178091
post@@ 178006
My@@ 178003
Corporation 177854
FM 177820
gres@@ 177735
cle 177678
Cri@@ 177636
semi 177619
Mir@@ 177495
Hong 177436
resul@@ 177235
dance 177221
lif@@ 177112
acqu@@ 177111
Sto@@ 177037
gas 177004
Mos@@ 176990
eling 176964
sever@@ 176963
bar 176853
alter@@ 176820
actu@@ 176739
Kir@@ 176704
Phil@@ 176688
psych@@ 176662
1957 176645
collec@@ 176604
ni 176525
cep@@ 176509
Red@@ 176503
sey 176467
cut@@ 176276
Ko@@ 176233
Squ@@ 176161
say 176078
Tel@@ 175953
ko@@ 175855
crim@@ 175824
concept 175765
proper@@ 175753
success@@ 175729
alm@@ 175674
Islands 175623
Bat@@ 175492
Massachusetts 175472
practic@@ 175417
All@@ 175299
sian 175298
Ren@@ 175117
casting 175080
introduc@@ 174956
unt 174920
amin@@ 174656
campus 174645
yn 174637
je@@ 174615
pit@@ 174585
fix@@ 174569
Sel@@ 174549
Sports 174431
metal 174421
Stadium 174362
docum@@ 174360
equip@@ 174307
aka 174292
edom 174131
cript 174018
Korea 173920
Ru@@ 173870
conclu@@ 173869
37 173851
nar@@ 173645
ule 173635
loy@@ 173626
tis 173616
materi@@ 173573
code 173515
deb@@ 173505
result@@ 173495
Cir@@ 173419
Kal@@ 173415
ecture 173306
enem@@ 173191
camp 173165
ieved 173080
Time 173006
concentr@@ 172950
Star@@ 172929
Elizabeth 172899
Professor 172716
ader 172716
sexual 172688
prison 172684
Tom 172683
kins 172635
ort 172603
ween 172465
Dun@@ 172399
Chap@@ 172379
Uni@@ 172345
sto@@ 172299
1952 172293
clo@@ 172293
uz@@ 172138
albums 172095
ou 172055
regi@@ 171980
ires 171594
sibl@@ 171594
Home 171504
Pakistan 171426
Born 171403
Blo@@ 171314
ex 171258
iss@@ 171246
Santa 171199
urban 171122
Progr@@ 170989
parties 170932
1949 170873
Gil@@ 170809
pend@@ 170793
ament@@ 170735
image 170714
encour@@ 170699
ume 170694
1955 170643
Library 170538
Duke 170536
ck 170458
Ob@@ 170320
Mun@@ 170156
habit@@ 169994
Constitu@@ 169940
old@@ 169899
R. 169861
Milit@@ 169859
ela 169785
fast 169650
peti@@ 169624
Luc@@ 169553
pon 169544
legisl@@ 169531
Final 169499
rot@@ 169408
Independ@@ 169407
radi@@ 169402
performances 169369
secre@@ 169360
odi@@ 169353
pop 169164
instruc@@ 169156
Police 169119
Shar@@ 169087
mond 169058
nati@@ 168960
Don 168917
mb@@ 168778
champion 168763
Top 168699
solo 168631
Fel@@ 168573
mut@@ 168547
ert 168525
mann 168483
digital 168449
gin 168354
ema 168336
28@@ 168309
hard@@ 168026
signific@@ 167994
Cul@@ 167976
sav@@ 167810
Atlantic 167784
anger 167784
Juli@@ 167669
The@@ 167643
assemb@@ 167636
Mol@@ 167469
subst@@ 167439
Toronto 167417
versions 167403
lec@@ 167384
1954 167372
IV 167337
sculp@@ 167221
surviv@@ 167180
dist@@ 167120
core 167011
cal 166934
Hav@@ 166881
sym@@ 166783
ect@@ 166749
s. 166614
resol@@ 166331
che@@ 166076
enter 165930
Joe 165872
nation@@ 165843
figure 165816
yan 165798
Aff@@ 165725
mouth 165694
Clar@@ 165548
cab@@ 165548
minute 165501
Sha@@ 165390
Brazil 165194
cip@@ 165173
00 165147
pied 165112
1953 165109
De 165068
Moh@@ 164957
rey 164932
Sou@@ 164866
join@@ 164739
liber@@ 164695
Cross 164675
desc@@ 164619
adver@@ 164593
Jam@@ 164562
seg@@ 164561
couple 164546
forc@@ 164519
Media 164273
sin@@ 164194
Ontario 164104
appar@@ 164018
top@@ 163979
Sing@@ 163909
Nations 163814
archit@@ 163683
Ty@@ 163558
Don@@ 163557
una 163552
AC 163547
Jackson 163490
wealth 163438
background 163405
rej@@ 163377
Ly@@ 163353
Que@@ 163307
mun@@ 163261
tol@@ 163220
och@@ 163164
Sav@@ 163011
qualif@@ 162969
š@@ 162960
attle 162938
colum@@ 162868
Arthur 162865
Lev@@ 162851
anda 162809
cav@@ 162795
las@@ 162739
Bridge 162733
ograp@@ 162664
roc@@ 162610
fav@@ 162563
Sk@@ 162502
Rail@@ 162472
Pit@@ 162470
gian 162441
55 162187
48 162124
í@@ 162091
perial 161946
ody 161862
Som@@ 161822
but@@ 161758
Americ@@ 161581
42 161550
CO@@ 161520
ensus 161498
Sem@@ 161421
illa 161312
1918 161279
lake 161235
Me 161193
P. 161175
Rome 160952
portation 160834
e.@@ 160713
Premier 160634
Christi@@ 160621
Social 160534
association 160527
suit 160494
Philadelphia 160492
ray 160469
maxim@@ 160393
Lang@@ 160340
Game 160321
actr@@ 160243
Laur@@ 159968
iment 159741
Show 159721
legi@@ 159719
iy@@ 159706
1951 159619
ligence 159597
eph@@ 159518
Over@@ 159434
yl 159418
rep@@ 159276
expan@@ 159268
uth 159064
bit@@ 159038
USA 158970
fig@@ 158905
ima 158849
ó@@ 158831
volun@@ 158822
enh@@ 158821
ped 158819
1936 158722
ision 158668
Sher@@ 158567
Township 158516
Tal@@ 158496
‘ 158483
experim@@ 158479
acial 158475
Long 158468
resist@@ 158375
becom@@ 158349
pel@@ 158321
vin@@ 158254
Cer@@ 157974
Mex@@ 157945
che 157919
Rus@@ 157902
Vill@@ 157845
Book 157834
boy 157820
corpor@@ 157721
gal@@ 157574
Bos@@ 157556
300 157473
emer@@ 157472
dia 157468
kin 157467
Regiment 157432
ications 157429
1920 157329
onia 157216
Buc@@ 157204
tail 157197
Over 157168
Out@@ 157148
uy@@ 156991
festival 156956
ember 156931
restric@@ 156899
Turk@@ 156881
1938 156836
osen 156819
greg@@ 156771
cou@@ 156736
wan@@ 156706
Conn@@ 156477
Sm@@ 156426
implement@@ 156373
195@@ 156309
awa 156309
feder@@ 156293
Sun 156200
yel@@ 156156
Community 156138
Wilson 156121
ado 156104
villages 155965
mark@@ 155946
Haw@@ 155904
But@@ 155873
zen 155855
folk 155849
print 155793
Mr. 155699
wan 155529
Ran@@ 155495
ben@@ 155439
39 155379
line@@ 155375
Lan@@ 155352
Op@@ 155283
opposition 155263
intern@@ 155253
igg@@ 155115
rail@@ 155076
ku@@ 155072
mont 155014
compon@@ 155010
cam@@ 154964
comman@@ 154918
4,@@ 154843
Billboard 154833
adap@@ 154796
command@@ 154749
Sun@@ 154721
Ira@@ 154656
Ta@@ 154656
mig@@ 154650
Vir@@ 154574
atre 154489
ato 154435
tradition 154421
unique 154365
Captain 154339
ister 154298
nel 154244
Pur@@ 154207
Bu@@ 154114
alternati@@ 154090
SR 153964
lim 153957
Mit@@ 153816
centr@@ 153785
Land@@ 153764
Democ@@ 153730
lis 153692
Ter@@ 153662
Arm@@ 153607
ion@@ 153539
Islam@@ 153445
Daniel 153414
Mot@@ 153387
accomp@@ 153339
mile 153217
ø@@ 153190
novel@@ 153182
borough 153093
Emper@@ 153054
facil@@ 153036
ables 152939
augh@@ 152843
applic@@ 152825
abol@@ 152763
hr@@ 152703
oes 152685
Lady 152636
Sum@@ 152617
Like 152561
correspond@@ 152550
tax@@ 152546
Z 152534
41 152397
Andrew 152366
é@@ 152343
baseball 152331
Technology 152321
Sab@@ 152320
inform@@ 152313
adj@@ 152290
400 151954
Stu@@ 151934
Cour@@ 151839
apo@@ 151830
electr@@ 151827
software 151756
Tar@@ 151662
Cel@@ 151631
Reser@@ 151628
Business 151611
gol@@ 151584
ions 151541
collabor@@ 151522
mas 151514
compr@@ 151500
Fran@@ 151477
Av@@ 151462
29@@ 151369
trains 151352
La@@ 151344
Roc@@ 151279
classes 151268
Special 151256
occer 151227
ham@@ 151222
big 151213
mess@@ 151188
cy 151134
sn@@ 151059
rea 151047
aim@@ 150781
decor@@ 150753
associ@@ 150740
situation 150650
nin@@ 150514
Mov@@ 150492
Batt@@ 150491
Death 150488
Taylor 150471
aw 150416
pper 150305
Register 150293
Field 150280
Q 150240
eces 150166
Port 150105
Der@@ 150094
wit@@ 150056
aun@@ 150051
Aus@@ 150041
Ker@@ 150007
expos@@ 149952
eck 149888
1919 149850
Oxford 149779
enes 149704
Mike 149701
Il@@ 149660
1937 149627
tier 149604
asons 149475
promotion 149445
len 149391
IC@@ 149321
tle 149194
Maria 149109
illustr@@ 149028
South@@ 149023
24@@ 148911
Dur@@ 148847
Castle 148745
fres@@ 148734
ution@@ 148734
act@@ 148710
ba 148661
Lar@@ 148596
disco@@ 148537
eller 148502
Medical 148378
did@@ 148360
CD@@ 148347
Dav@@ 148221
stra@@ 148195
Mountain 148109
Fri@@ 147886
stock 147867
And 147837
cit@@ 147707
nes 147668
Ther@@ 147654
Golden 147597
52 147594
nu@@ 147567
din@@ 147468
dom 147366
47 147329
present@@ 147324
tries 147269
placement 147247
edral 147240
Tow@@ 147155
85 147135
ional 147080
bin@@ 147032
Bab@@ 146985
lig@@ 146963
tric@@ 146917
ebr@@ 146885
ier 146775
sac@@ 146757
industrial 146586
abandon@@ 146510
Van 146425
Le 146422
confl@@ 146397
dit 146394
oa 146346
ingu@@ 146299
af 146274
Four 146265
Wood@@ 146237
compet@@ 146229
brand 146202
Francis 146190
FL 146146
colon@@ 145964
ographi@@ 145878
Cat@@ 145844
itable 145831
modi@@ 145802
Tim@@ 145629
Press 145493
1930 145450
restaur@@ 145413
Junior 145373
gene 145344
publication 145329
temple 145180
enni@@ 145179
transport 145121
clus@@ 145118
Met@@ 145093
Master 145057
micro@@ 144965
osis 144811
favor@@ 144699
band@@ 144265
e. 144254
ium 144124
Gul@@ 144098
Kur@@ 143961
° 143627
fer 143624
oration 143536
1917 143395
transfer 143262
1914 143246
Beach 143235
Davis 143080
Chris 142912
Lor@@ 142898
disc@@ 142806
subsequ@@ 142695
curr@@ 142687
math@@ 142660
cus 142441
Journal 142332
1935 142313
bud@@ 142295
Federation 142233
ō@@ 142220
inet 142152
net@@ 142093
architecture 142062
comple@@ 142000
1933 141956
joint 141937
Region 141912
ilian 141892
venue 141842
Corn@@ 141835
box@@ 141827
concert 141817
ball@@ 141708
NCAA 141675
rang@@ 141618
Network 141547
Tai@@ 141546
missions 141472
net 141417
edit@@ 141414
tropical 141404
51 141373
Cop@@ 141348
aily 141347
Minnesota 141330
49 141252
org@@ 141220
dol@@ 141206
Ku@@ 141072
ett@@ 141048
agent 141043
Vis@@ 141035
Barr@@ 141011
ih@@ 141004
begin 140834
cycle 140834
bomb@@ 140822
aster 140560
hydro@@ 140557
kar@@ 140391
Donald 140381
principal 140350
itor 140307
lag 140192
elor 140147
Hum@@ 140125
oon 140087
Hay@@ 140084
esh@@ 140056
path@@ 139987
vil 139930
Hug@@ 139686
Mill@@ 139450
ager 139420
aul@@ 139407
amber 139199
progr@@ 139175
onic 139174
Princ@@ 139154
affa@@ 139125
analy@@ 139125
cum@@ 139046
riv@@ 139016
Co 139014
L. 138993
g. 138978
Inc. 138911
43 138883
ural 138790
ept@@ 138782
pers 138767
nav@@ 138749
EP 138666
plant@@ 138659
ix 138615
protection 138527
bian 138515
rif@@ 138437
stitut@@ 138395
Dou@@ 138335
ida 138319
Dow@@ 138267
1928 138260
ny 138260
inde@@ 138121
46 138057
onom@@ 137975
Bob 137952
Hur@@ 137801
1929 137774
volume 137765
isher 137744
distingu@@ 137651
oud 137574
ador 137534
thin 137502
FA 137489
beau@@ 137316
AA 137216
Dep@@ 137193
System 137172
mayor 137048
intel@@ 136959
č@@ 136673
fiction 136643
onto 136598
Steve 136541
aga 136540
Gold 136500
weg@@ 136467
54 136432
subj@@ 136394
Forest 136318
95 136190
sport 136143
Kansas 136128
ira 136012
ush 136005
normal 136004
Mosco@@ 135985
Refer@@ 135963
1934 135947
ES@@ 135865
origin@@ 135836
Mak@@ 135741
Green@@ 135707
lob@@ 135653
card 135609
var@@ 135587
Jr 135564
ird 135533
FI@@ 135481
Melbourne 135450
priv@@ 135318
articles 135307
66 135093
Description 135059
bronze 135031
26@@ 134821
ock@@ 134791
si 134737
Missouri 134708
CA 134690
Gor@@ 134659
nh@@ 134655
hockey 134644
ht 134631
amo@@ 134432
Fox 134312
Jan@@ 134308
Raj@@ 134287
grav@@ 134278
az 134239
thi@@ 134226
lik@@ 134107
Publ@@ 134106
pa 134105
fun@@ 134094
Sul@@ 134093
11@@ 134062
fru@@ 134060
global 133982
Memorial 133979
urg@@ 133978
Rev@@ 133949
May@@ 133937
oz@@ 133907
olar@@ 133777
polis 133765
aur@@ 133724
sburg 133664
organ@@ 133541
aki 133538
Organ@@ 133511
Jim 133503
Stephen 133471
Country 133407
vor@@ 133344
Lewis 133296
Night 133241
orch@@ 133137
Direc@@ 133075
Wisconsin 133065
agon 133048
Cape 132983
Satur@@ 132970
rail 132959
Bon@@ 132951
ares 132924
ces@@ 132906
requi@@ 132823
72 132787
sector 132690
Ful@@ 132663
á 132612
Black@@ 132609
simple 132516
Af@@ 132507
Moun@@ 132506
Liv@@ 132501
Power 132482
phase 132368
uf@@ 132309
Produc@@ 132267
1932 132159
More 132144
chil@@ 132120
narr@@ 132112
coordin@@ 132024
NFL 131996
Live 131970
Profes@@ 131924
Mich@@ 131915
1924 131868
BA 131823
virtu@@ 131792
juni@@ 131760
minister@@ 131722
Project 131637
AT@@ 131601
F. 131527
ado@@ 131424
Ba@@ 131359
ito 131311
dings 131296
jus@@ 131280
56 131242
nament 131225
dig@@ 131105
Az@@ 130892
Gra@@ 130875
criti@@ 130857
tronic 130721
200@@ 130713
ello 130682
Tun@@ 130584
Point 130529
Dom@@ 130442
Sciences 130424
Sup@@ 130423
Queensland 130401
1922 130382
atus 130357
Portu@@ 130303
ilit@@ 130272
umes 130268
Television 130234
non@@ 130220
Bran@@ 130207
application 130167
succ@@ 130132
Philippines 130030
Production 130013
Ath@@ 130005
53 129990
Alb@@ 129973
ō 129954
Is 129942
camp@@ 129791
atten@@ 129743
Studi@@ 129740
Vietnam 129733
Plan@@ 129700
Fal@@ 129660
ck@@ 129559
tile 129462
plas@@ 129451
cot@@ 129441
aham 129415
poly@@ 129372
Gol@@ 129350
int 129303
86 129292
Pot@@ 129286
rich 129257
contact 129162
jum@@ 129159
ier@@ 129130
atures 128945
isl@@ 128785
Tak@@ 128778
1927 128686
Hung@@ 128612
ros@@ 128607
Tennessee 128598
88 128538
decre@@ 128524
enna 128412
icul@@ 128315
ga 128256
foot@@ 128249
1921 128241
Hamp@@ 128225
Kil@@ 128147
Channel 128137
lam 128116
Song 128113
uv@@ 128112
Land 128084
aten@@ 127999
Tw@@ 127900
Cath@@ 127899
eps 127881
PA 127847
Ak@@ 127780
Manchester 127757
Cambridge 127645
Khan 127511
ico 127487
ev 127482
1912 127459
01 127440
ul 127416
76 127384
1931 127367
oo 127364
royal 127353
ost@@ 127272
sh 127258
eta 127215
Cent@@ 126994
Lie@@ 126935
consum@@ 126903
porter 126858
58 126684
Hom@@ 126584
protein 126551
Maryland 126512
ont@@ 126487
Men@@ 126460
Ca@@ 126396
Indiana 126372
existence 126357
G. 126354
chor@@ 126322
Ever@@ 126272
Infan@@ 126193
bom@@ 126155
COVID 126103
rugby 126051
nis 125980
62 125958
Beng@@ 125917
LA 125906
Colorado 125869
simul@@ 125763
Fle@@ 125757
77 125708
Services 125661
titu@@ 125656
Pun@@ 125460
57 125414
by@@ 125384
1925 125350
islat@@ 125342
Hot 125297
Austria 125067
han 124967
viv@@ 124945
Ye@@ 124694
Armen@@ 124679
ER@@ 124679
Cra@@ 124670
combat 124660
Soci@@ 124615
SA@@ 124593
eval 124570
prac@@ 124567
1923 124480
fal@@ 124454
prise 124355
circul@@ 124272
ele 124223
teri@@ 124167
Pin@@ 124164
63 124015
Clin@@ 123991
Ju@@ 123935
Yor@@ 123884
ik 123882
1926 123856
honor 123810
Harry 123797
infr@@ 123739
AI@@ 123705
Sau@@ 123704
DC 123630
theor@@ 123532
isa 123458
SA 123422
Albert 123382
debut@@ 123358
Arizona 123335
ein@@ 123312
itz 123246
Blu@@ 123230
Lak@@ 123219
78 123158
contin@@ 123031
1910 122868
els@@ 122779
1916 122664
NH@@ 122612
Bah@@ 122610
Plat@@ 122557
phone 122501
Walter 122493
AP@@ 122480
correc@@ 122404
6,@@ 122311
Revolution 122307
tem@@ 122264
realiz@@ 122261
67 122157
ularly 122147
pes 122122
Nich@@ 122113
1915 122062
Sri 122055
Entertainment 121985
ague 121985
Gh@@ 121934
communic@@ 121815
gar 121765
clu@@ 121747
avi@@ 121661
minim@@ 121585
extrem@@ 121566
193@@ 121503
án 121497
Bri@@ 121456
99 121437
aver@@ 121383
chang@@ 121372
Oregon 121352
Stud@@ 121351
kat@@ 121313
bi 121260
61 121211
Dre@@ 121195
dor@@ 121033
franch@@ 121029
zone 120928
Management 120897
igh 120882
religion 120874
popular@@ 120848
59 120791
68 120738
lad@@ 120724
Ali 120723
perf@@ 120701
Human 120666
equival@@ 120626
abad 120605
Wol@@ 120560
Miller 120527
OS 120447
MP 120443
solution 120353
Broad@@ 120330
anni@@ 120324
Ford 120211
question 120106
hips 120003
page 119923
Initi@@ 119905
Sin@@ 119903
parall@@ 119902
Winter 119879
Lam@@ 119840
diam@@ 119767
Miss 119740
ota 119739
programme 119686
Head 119629
ei 119623
Tu@@ 119606
84 119563
bour@@ 119405
cycl@@ 119401
Nag@@ 119344
Cab@@ 119198
Singapore 119197
Agr@@ 119047
aly@@ 119026
81 119022
1900 119021
umin@@ 118965
vid@@ 118962
ror 118951
redu@@ 118950
83 118864
Peter@@ 118751
Tit@@ 118741
T. 118682
pion@@ 118669
27@@ 118633
Earl 118626
Rol@@ 118602
habitants 118543
Hin@@ 118514
event@@ 118330
tend@@ 118306
* 118300
74 118296
importance 118219
chi 118210
Prim@@ 118183
Rot@@ 118084
bor 118065
blin 118057
dyn@@ 117970
What 117928
iller 117879
po 117866
rain 117835
refu@@ 117832
Ukraine 117800
High@@ 117768
Pap@@ 117756
71 117723
Rob@@ 117691
aqu@@ 117660
municipal 117531
Rem@@ 117501
ement@@ 117500
vision 117458
consid@@ 117434
ses@@ 117388
ami 117370
gh@@ 117295
Tony 117276
Regional 117238
pris@@ 117237
Design 117200
mal@@ 117184
offs 117132
inning 117092
tia 117072
Kam@@ 117034
diplom@@ 116874
87 116833
nom@@ 116788
82 116778
tie 116637
mal 116426
sell 116341
multi@@ 116304
Main 116295
fur@@ 116279
ony@@ 116239
invas@@ 116182
releas@@ 116094
Temple 115998
aten 115979
MA 115976
69 115858
bey 115839
rant 115758
bon@@ 115745
Kentucky 115734
eton 115713
Howard 115687
Free 115626
Brad@@ 115576
king@@ 115543
edo 115500
su 115457
AD 115327
Ann@@ 115209
Stor@@ 115155
fan 115038
them@@ 114912
Hockey 114899
sug@@ 114886
ova 114837
SE@@ 114834
sam@@ 114822
Arti@@ 114764
AM@@ 114713
1913 114644
vili@@ 114633
Hamilton 114631
1911 114618
dimen@@ 114556
CE 114532
antage 114503
TA 114471
mos@@ 114429
bal 114348
ideas 114247
oni 114231
Square 114225
A.@@ 114196
personnel 114180
lav@@ 114170
MS 114096
Geor@@ 114044
Braz@@ 114013
Kan@@ 113922
Nar@@ 113904
Div@@ 113901
onel 113832
Oper@@ 113823
Card@@ 113803
Administration 113663
Anne 113663
Tan@@ 113660
sk 113538
lit@@ 113459
asc@@ 113455
79 113428
crimin@@ 113415
Web@@ 113380
process@@ 113306
ava 113281
ris 113245
Ben 113211
lar 113085
animal 113057
gers 112902
Bay@@ 112873
Operation 112818
Israeli 112815
Marine 112723
lus@@ 112693
Fu@@ 112669
Techn@@ 112591
tific@@ 112590
dram@@ 112579
By@@ 112575
CI@@ 112542
SS 112503
Trin@@ 112445
S.@@ 112322
med 112280
bec 112259
Jac@@ 112200
arti@@ 112193
.com 112174
ons@@ 112146
dale 112117
73 112103
Brook@@ 112090
hat@@ 112048
stead 111854
I. 111827
sat@@ 111823
ori 111755
Prix 111670
ames 111654
thor@@ 111599
ón 111597
hen@@ 111494
IN@@ 111350
Houston 111289
Patrick 111260
Scot@@ 111234
sula 111174
pool 111120
dam 110970
1908 110941
quot@@ 110860
illy 110840
elli 110821
valu@@ 110675
Rober@@ 110636
kr@@ 110606
Stone 110584
coloni@@ 110517
opera 110506
ua 110484
Domin@@ 110434
Fame 110425
Ukr@@ 110320
Light 110307
Cem@@ 110263
Nic@@ 110245
Rho@@ 110238
Rural 110227
Palest@@ 110163
Simon 110108
Diego 110006
5,000 109998
exerc@@ 109984
DS 109941
Hotel 109884
Brian 109786
Rab@@ 109770
Rad@@ 109758
Space 109710
neur@@ 109656
deleg@@ 109655
Iowa 109536
Coll@@ 109485
Ky@@ 109470
mi 109365
Ball@@ 109338
eng 109328
Na@@ 109323
eball 109298
sus 109193
pin@@ 109191
tha 109180
Eur@@ 109163
Hil@@ 109127
iliz@@ 109037
rig@@ 109008
Champ@@ 108947
indi@@ 108918
conse@@ 108911
Cav@@ 108865
DVD 108861
isol@@ 108776
orient@@ 108748
Out 108659
Slo@@ 108605
discipl@@ 108589
tab@@ 108565
Dal@@ 108500
interior 108490
Samuel 108428
journal 108406
sion@@ 108402
impres@@ 108401
ji@@ 108396
lum 108386
AN@@ 108355
angle 108274
plus 108260
Fer@@ 108228
dat@@ 108213
democ@@ 108169
Port@@ 108119
enses 108001
ig 107953
Kat@@ 107940
Rap@@ 107844
yan@@ 107842
SC 107727
sun@@ 107706
Harr@@ 107681
UN@@ 107618
rat 107570
Anderson 107560
composition 107552
Frederick 107535
ika 107379
sor@@ 107291
Rugby 107287
AM 107257
aria 107246
eh 107153
Hen@@ 107099
pand@@ 107080
dren 106993
ski@@ 106992
craft 106870
Anthony 106862
05 106833
96 106786
chester 106783
oir 106746
adapt@@ 106730
Inv@@ 106729
Fair@@ 106699
actual 106616
K. 106603
ust@@ 106443
utenant 106398
techniques 106356
fron@@ 106332
amer@@ 106251
organisation 106216
Sam 106206
Archit@@ 106142
Alabama 106116
grad@@ 106084
Jesus 106010
So 106007
motor@@ 106000
eran 105992
ein 105968
consult@@ 105945
Modern 105901
7,@@ 105898
ologies 105875
Pic@@ 105865
eston 105832
Mayor 105775
Tokyo 105744
Fol@@ 105726
Bach@@ 105690
Leon@@ 105542
pur 105511
Pro 105477
Ah@@ 105462
tot@@ 105423
kel@@ 105412
Philip 105344
92 105313
bass@@ 105293
Magazine 105268
bile 105248
que@@ 105234
carr@@ 105218
piano 105216
Dol@@ 105211
Juan 105205
ported 105164
Form@@ 105115
eland 105071
theater 105053
een 105046
Lincoln 105033
ny@@ 105020
osa 104956
08 104947
osph@@ 104899
eye 104820
Beau@@ 104812
diction 104773
fe 104728
Hollywood 104717
Allen 104715
Mand@@ 104705
pro 104669
burn 104578
Nev@@ 104528
Douglas 104525
Greg@@ 104522
Stan@@ 104474
Tas@@ 104381
Argentina 104339
50@@ 104327
vin 104285
dian 104267
Christ 104262
Clark 104249
09 104243
Ind@@ 104242
lyn 104189
rates 104133
nia 104117
troit 104026
dio 103881
acu@@ 103860
conqu@@ 103749
campa@@ 103732
bad 103699
renov@@ 103688
Leb@@ 103661
ä@@ 103601
opin@@ 103580
satis@@ 103580
alition 103539
Law@@ 103522
vac@@ 103459
sub 103444
Orig@@ 103408
circu@@ 103390
zi@@ 103383
bt 103378
ker@@ 103366
thu@@ 103342
Reb@@ 103325
Adam 103321
bay 103288
Band 103269
hin@@ 103256
1905 103163
alp@@ 103154
eas 103151
rebel@@ 103145
Miami 103117
Kin@@ 103053
mes 103008
Chall@@ 102971
links 102943
sal 102913
Puerto 102843
reci@@ 102835
toman 102825
Mississippi 102710
collaboration 102675
rent 102626
eur 102517
lov@@ 102467
proced@@ 102445
figur@@ 102416
Bron@@ 102404
Fire 102399
98 102324
Gordon 102276
r. 102268
ode 102259
arriv@@ 102242
eu@@ 102210
ped@@ 102165
const@@ 102144
angers 102125
deter@@ 102062
honor@@ 101990
provincial 101988
atom@@ 101987
jazz 101971
ves@@ 101971
Pad@@ 101931
Antonio 101858
07 101847
Ga@@ 101811
acid 101703
install@@ 101680
Histor@@ 101678
ful@@ 101545
imb@@ 101521
ri 101493
1906 101483
Hawai@@ 101437
natur@@ 101409
Cin@@ 101329
gas@@ 101274
siz@@ 101241
King@@ 101240
ip@@ 101190
Nam@@ 101150
Ci@@ 101132
Marie 101105
Kon@@ 101097
Doctor 101070
Rose 101044
norm@@ 101030
Singles 101020
commission 100864
ques@@ 100859
Territ@@ 100849
1907 100770
onds 100753
abor@@ 100733
Pa@@ 100678
ffer@@ 100668
Montre@@ 100624
Up 100601
Ki@@ 100562
97 100410
Lanc@@ 100364
ami@@ 100348
ender 100198
stati@@ 100192
1909 100168
rend@@ 100103
idi@@ 100063
ius 99921
ensis 99901
communication 99829
tac@@ 99797
eva 99771
PC 99685
Emer@@ 99632
150 99624
wen@@ 99614
onym@@ 99587
equi@@ 99479
CC 99455
egr@@ 99346
89 99341
olar 99220
calcul@@ 99210
Water@@ 99202
Harvard 99191
trou@@ 99174
8,@@ 99140
Hungary 99131
justice 99064
Rh@@ 99048
Metropolit@@ 98998
dur@@ 98977
Bell 98976
His@@ 98950
Saf@@ 98885
consol@@ 98799
Associ@@ 98793
Banglad@@ 98777
Matthe@@ 98735
mac@@ 98674
isch@@ 98670
Moore 98627
CS@@ 98612
93 98543
consci@@ 98522
jour@@ 98450
san@@ 98416
princip@@ 98311
Not 98309
lins 98270
poem 98267
crisis 98220
Kim 98199
Jos@@ 98080
oty@@ 98056
jo 98045
Bus@@ 98042
wick 98025
Anna 98000
Industri@@ 97995
anna 97952
simil@@ 97938
CEO 97913
ML@@ 97865
abr@@ 97828
chant 97732
pot 97717
ott 97656
concep@@ 97655
Vil@@ 97566
Son@@ 97526
hun@@ 97516
See 97489
ax 97458
mill@@ 97410
bad@@ 97406
1904 97365
aja 97309
polici@@ 97289
Hard@@ 97217
Tran@@ 97212
alo 97175
94 97167
arry 97146
Connecticut 97100
naval 97060
ton@@ 97011
explor@@ 96996
Avi@@ 96916
alu@@ 96893
compil@@ 96853
Syn@@ 96828
1,000 96792
91 96770
Liter@@ 96763
04 96740
Les@@ 96725
mans 96684
chen 96662
zo 96661
aus 96628
Sci@@ 96610
aud 96594
Wall@@ 96563
Tol@@ 96560
Internet 96534
slo@@ 96528
Eu@@ 96519
Kol@@ 96513
Willi@@ 96483
idel@@ 96476
Doc@@ 96361
aissance 96357
wich 96340
Mr@@ 96338
oper 96323
poss@@ 96297
lip@@ 96260
aut@@ 96255
chron@@ 96255
Good 96106
Ay@@ 96031
aud@@ 96028
township 96015
Var@@ 95969
5,@@ 95964
aff 95885
Gard@@ 95858
Bern@@ 95837
Margaret 95828
06 95798
Hun@@ 95745
Ori@@ 95724
announc@@ 95684
Natur@@ 95639
Under@@ 95628
invent@@ 95537
ais 95308
ST@@ 95280
vet@@ 95269
Atlanta 95217
human@@ 95203
DNA 95135
Aut@@ 95119
Tig@@ 95056
innov@@ 95049
ando 94992
NBA 94942
CC@@ 94899
dier 94894
Indonesia 94869
bol@@ 94866
diff@@ 94850
wi@@ 94822
Dam@@ 94818
1902 94797
ete 94778
ABC 94724
agr@@ 94719
enth@@ 94718
fs 94676
red@@ 94637
Rand@@ 94571
Lyn@@ 94569
grap@@ 94565
dioc@@ 94529
eri 94477
Beg@@ 94473
600 94434
acces@@ 94402
Hus@@ 94367
commune 94342
1901 94301
MP@@ 94285
led@@ 94225
Portugal 94204
ów 94144
Flor@@ 94128
Lim@@ 94101
God@@ 94085
Ray 94076
bin 94053
dows 94047
tro 93985
daugh@@ 93937
Max 93901
José 93888
Now 93855
stud@@ 93853
Broadway 93813
harmon@@ 93794
Kath@@ 93732
Meth@@ 93631
occupation 93604
industri@@ 93591
Ret@@ 93540
Ear@@ 93441
Nat@@ 93371
note 93371
stitu@@ 93355
Vari@@ 93343
Got@@ 93328
Lawrence 93324
1903 93210
reform 93185
ley@@ 93169
Sym@@ 93168
Cos@@ 93159
alia 93151
Shak@@ 93042
02 93040
lars 93008
alogue 92986
Ryan 92962
Cu@@ 92953
Global 92932
igner 92891
illi@@ 92838
Kenn@@ 92817
Fut@@ 92736
ula 92735
sens@@ 92672
AS 92549
rev@@ 92521
PS 92510
Num@@ 92485
Liverpool 92456
Dy@@ 92450
Maj@@ 92439
Mach@@ 92410
kshire 92399
Boy@@ 92381
uri 92296
Acc@@ 92229
Champions 92199
Walker 92160
Pear@@ 92112
argum@@ 92111
Malaysia 92107
ks@@ 91935
03 91842
Nazi 91836
Epis@@ 91777
oral 91755
Rog@@ 91744
ö@@ 91729
Good@@ 91672
recog@@ 91668
veget@@ 91666
loyd 91638
je 91624
brig@@ 91614
ools 91605
iro 91584
omb@@ 91559
liament 91549
Alan 91539
É@@ 91516
Harris 91498
esp@@ 91466
fit 91446
gy 91424
Buff@@ 91422
800 91393
Classi@@ 91390
sanc@@ 91376
allas 91365
ogen@@ 91350
Gold@@ 91306
lav 91305
rein@@ 91294
Brun@@ 91222
vide@@ 91211
Patr@@ 91116
expression 91101
Ken@@ 91082
val 91046
ram@@ 90974
bab@@ 90705
Basket@@ 90695
succes@@ 90680
Pow@@ 90671
hou 90661
bed@@ 90566
rain@@ 90523
Eric 90521
Eli@@ 90509
Alber@@ 90474
sand@@ 90437
diagn@@ 90407
tal 90404
Abr@@ 90396
Joh@@ 90310
Pau@@ 90307
alt@@ 90250
Phys@@ 90248
yal@@ 90234
aster@@ 90194
onal@@ 90102
Studios 90097
frag@@ 89991
Culture 89973
arren 89949
technique 89938
recep@@ 89904
Orchestra 89896
interpre@@ 89797
oy 89791
ament 89684
SP@@ 89653
anch@@ 89637
Gran@@ 89588
adi 89491
Bad@@ 89456
alco@@ 89421
mar 89308
AD@@ 89285
hyp@@ 89274
occup@@ 89125
Hud@@ 89118
Bak@@ 89113
aux 89059
Kit@@ 89004
cos@@ 88879
ă@@ 88850
hai 88846
Jordan 88836
Alliance 88790
trol@@ 88750
destruc@@ 88729
Id@@ 88688
destin@@ 88632
Crim@@ 88616
Wes@@ 88612
aro@@ 88572
Disney 88568
anz@@ 88557
Your 88502
Kelly 88492
lose 88488
Ross 88485
Guar@@ 88372
monum@@ 88361
Kennedy 88345
Math@@ 88343
ega 88308
Front 88270
fus@@ 88226
Sig@@ 88200
Carl 88191
nch@@ 88175
Morgan 88141
Cot@@ 88093
Bapti@@ 88080
Mis@@ 88064
uli@@ 87977
Wild@@ 87944
Pet@@ 87897
Kevin 87874
Mes@@ 87846
Anti@@ 87838
Grant 87822
sul@@ 87777
Wy@@ 87761
alog@@ 87733
ateur 87729
aceae 87689
Hi@@ 87653
10.@@ 87637
bet@@ 87629
Pon@@ 87610
Deb@@ 87544
artisti@@ 87503
tari@@ 87445
las 87420
CH@@ 87418
reli@@ 87372
propor@@ 87362
ph 87338
asis 87283
Ltd 87230
aph@@ 87210
Sat@@ 87151
Li 87118
Ig@@ 86961
Jane 86910
AF 86905
cyc@@ 86834
Bag@@ 86799
mass@@ 86787
Nep@@ 86764
ū@@ 86667
thel@@ 86570
vement 86561
10,000 86543
Wel@@ 86541
pron@@ 86540
Thompson 86495
Origin@@ 86494
Sac@@ 86401
Tot@@ 86330
1898 86298
Vik@@ 86297
Kos@@ 86295
Chart 86285
conc@@ 86266
manus@@ 86206
partic@@ 86185
dial@@ 86181
Glas@@ 86160
Roger 86158
Sarah 86153
AB@@ 86097
terror@@ 86085
NE@@ 86042
Rio 86027
Pom@@ 86025
hid@@ 85992
ges@@ 85960
Gun@@ 85957
RO@@ 85950
ampton 85935
architec@@ 85891
anga 85830
Boul@@ 85825
Hir@@ 85817
etta 85774
Boys 85766
DP 85729
Patri@@ 85677
Russell 85668
andi@@ 85654
ambi@@ 85640
tam@@ 85635
AP 85609
UC@@ 85548
Gener@@ 85527
Rid@@ 85511
km2 85486
Dan 85476
visible 85464
ingen 85436
Wa@@ 85391
Mik@@ 85370
van@@ 85364
Opera 85353
Metro 85348
anne 85348
idence 85260
Roman@@ 85258
í 85205
Bob@@ 85164
Cari@@ 85148
artiller@@ 85116
progres@@ 85112
span 85098
bot 85082
Net@@ 85059
Tem@@ 85018
Kent 84992
ege 84974
acre 84964
record@@ 84927
zy@@ 84919
App@@ 84882
Trump 84881
Trav@@ 84825
Well@@ 84821
cha 84806
absor@@ 84773
mo 84732
Bil@@ 84705
ér@@ 84687
concre@@ 84682
iti 84642
Benn@@ 84509
Long@@ 84469
Ka@@ 84441
orph@@ 84435
oman 84407
ouse 84345
BS 84327
Alexand@@ 84311
genre 84308
bai 84249
bach 84196
Assist@@ 84121
til 84014
Chem@@ 83985
Austin 83913
1899 83906
Stewart 83904
End 83854
ander@@ 83817
Adel@@ 83784
Arkansas 83758
lan 83755
zi 83689
Real 83688
Ing@@ 83615
sition 83611
v. 83587
IM@@ 83559
aide 83538
Bruce 83529
Hab@@ 83482
NS@@ 83479
Pierre 83472
bat 83451
Jack@@ 83438
Campbell 83429
Brothers 83419
bie 83395
imal 83386
usion 83377
femin@@ 83344
Speci@@ 83271
relation 83259
Daily 83232
V. 83232
web 83204
lip 83172
eria 83109
zz@@ 83106
arc@@ 83079
Nelson 83065
auto@@ 83061
neutr@@ 83027
has@@ 83016
Adams 82965
professi@@ 82915
Bes@@ 82832
Alex 82821
Ali@@ 82803
Cher@@ 82786
1890 82770
Express 82708
itt 82676
ud 82649
rad@@ 82628
Dance 82626
iden 82625
M.@@ 82610
lia 82472
Contin@@ 82463
hospit@@ 82454
mari@@ 82394
onships 82379
lah 82347
BI 82336
uke 82309
rich@@ 82265
eum 82208
Franklin 82191
Girls 82185
Gib@@ 82172
osh@@ 82100
Che@@ 82071
kid@@ 82043
Lib@@ 82031
Christopher 82004
Wit@@ 81999
MI@@ 81994
adr@@ 81987
Heart 81977
tin@@ 81973
trol 81937
wen 81851
eck@@ 81839
m. 81820
iger 81740
Dave 81732
Four@@ 81719
Mission 81656
Uta@@ 81638
Robinson 81617
Hop@@ 81605
Yan@@ 81596
yg@@ 81587
oli@@ 81569
polog@@ 81523
graphi@@ 81492
bes@@ 81484
moder@@ 81466
phon@@ 81462
Sax@@ 81452
Cros@@ 81443
liz@@ 81429
Way 81375
pedi@@ 81294
RC 81280
Wright 81260
rid 81243
1896 81184
tel 81161
Lind@@ 81124
itu@@ 81060
olas 80993
RA 80952
opo@@ 80948
favor 80936
istan 80932
Norman 80925
Spir@@ 80835
tre 80826
guar@@ 80815
dynam@@ 80811
quanti@@ 80673
ations@@ 80670
bol 80666
Ze@@ 80653
Just 80605
ector 80588
ample 80545
Astr@@ 80543
impl@@ 80524
CBS 80485
Azer@@ 80475
Alfred 80437
interpret@@ 80403
ante 80402
Vel@@ 80341
Sour@@ 80310
key@@ 80238
1895 80157
eins 80148
CP@@ 80138
lieutenant 80116
Stre@@ 80067
tribu@@ 80051
Pil@@ 79997
tainment 79974
Daw@@ 79961
Sor@@ 79916
xi@@ 79912
NBC 79908
Pu@@ 79891
ovo 79793
cm 79786
Eth@@ 79777
UEFA 79777
Ann 79774
ectu@@ 79769
Bang@@ 79751
participation 79731
Pir@@ 79689
din 79678
Racing 79644
attr@@ 79609
agan 79593
DA 79573
250 79485
fos@@ 79430
hydr@@ 79315
Sid@@ 79302
Theater 79231
Place 79202
ser 79189
Marshall 79126
cultiv@@ 79116
Ji@@ 79093
Stanley 79019
atri@@ 79015
atia 79006
assass@@ 79005
Who 78996
1897 78981
Sound 78946
lev@@ 78925
tak@@ 78918
lier 78894
oe 78887
Cham@@ 78865
inspir@@ 78860
Yo@@ 78854
Arn@@ 78835
ng@@ 78822
rie 78812
infan@@ 78798
aven 78782
eff 78758
pha 78721
Jimmy 78691
How@@ 78655
monaster@@ 78563
ayan 78560
FIFA 78502
Bom@@ 78451
Kum@@ 78334
versit@@ 78278
Boy 78277
1000 78276
endem@@ 78197
alt 78193
Wrestling 78128
atmos@@ 78071
AL@@ 78057
cho 78053
Cum@@ 78040
Carter 78015
LP 77986
vive 77977
Carlos 77899
aer@@ 77893
Brit@@ 77834
anger@@ 77734
aha 77713
kan 77701
lon 77698
Victor 77687
Sain@@ 77659
Matt 77641
Distribu@@ 77614
Kel@@ 77595
Go 77553
oria 77504
aug@@ 77489
iterran@@ 77480
positi@@ 77462
uss 77378
Cla@@ 77362
Roy 77361
bo 77302
fro@@ 77291
capit@@ 77253
rapid@@ 77230
abs@@ 77227
map@@ 77201
sexu@@ 77193
ci 77158
Rod@@ 77152
grand 77122
Girl 77118
Iron 77117
fall@@ 77068
Lov@@ 77023
9,@@ 76994
presid@@ 76983
Billy 76953
Bru@@ 76939
Tim 76927
sid@@ 76918
aine 76807
Pak@@ 76786
Strat@@ 76703
aire 76685
ump 76659
Kas@@ 76560
1893 76500
Dod@@ 76473
Neg@@ 76405
Nick 76312
Limited 76269
heim 76255
Serbia 76252
gn@@ 76201
Ry@@ 76196
ken@@ 76176
use@@ 76167
may@@ 76120
ild 76081
Moon 76057
Pul@@ 76056
2,000 76050
mode 76035
Eas@@ 76022
AF@@ 76018
Categ@@ 75951
nit@@ 75930
tron@@ 75902
B.@@ 75857
å@@ 75826
alis 75807
uk 75805
Priv@@ 75791
tent@@ 75761
Windows 75760
national@@ 75624
Din@@ 75598
yd@@ 75573
Muhammad 75566
1889 75524
visi@@ 75487
1894 75457
Madrid 75427
rier 75396
insec@@ 75394
Mong@@ 75390
Down 75369
Canal 75360
1892 75349
commenc@@ 75335
moment 75258
gros@@ 75247
anese 75164
mail 75127
grave 75123
SS@@ 75056
Arc@@ 75022
align 74994
Blan@@ 74927
radic@@ 74888
Las 74882
hatt@@ 74876
igu@@ 74804
bos@@ 74723
Log@@ 74694
Om@@ 74657
iles 74656
emper@@ 74654
dan 74652
Kno@@ 74646
mom@@ 74638
Benjamin 74600
Afghanistan 74599
Hul@@ 74589
Alli@@ 74577
motor 74574
PS@@ 74549
Will 74542
enberg 74502
specif@@ 74482
Has@@ 74432
ée 74430
Argent@@ 74358
Last 74350
Municipal@@ 74343
rar@@ 74343
kg 74315
RE@@ 74256
Sof@@ 74146
ont 74085
ini@@ 74078
CE@@ 74066
194@@ 74031
1885 74020
disput@@ 74006
scope 74006
urs@@ 73990
Philipp@@ 73961
agon@@ 73919
lave 73881
iki 73874
Nigeria 73815
pole 73785
Lag@@ 73775
relev@@ 73763
Bush 73743
Johnny 73706
alb@@ 73579
Wind@@ 73551
Ferr@@ 73522
liv@@ 73504
colspan 73463
Meg@@ 73422
Nik@@ 73354
acle 73270
emen 73260
Ok@@ 73248
vo 73245
Bed@@ 73230
ag 73197
Comput@@ 73116
Aqu@@ 73091
1891 73086
Rico 73080
Gary 73069
Chile 73024
Back 73015
orn 73005
vill@@ 72999
Fil@@ 72907
Jan 72900
LC 72871
vul@@ 72836
igr@@ 72817
assi@@ 72785
administr@@ 72779
Revol@@ 72762
Da@@ 72715
impos@@ 72625
usalem 72625
estra 72621
esa 72617
Hand@@ 72603
Vas@@ 72588
Pav@@ 72573
inaug@@ 72545
hil 72505
PC@@ 72463
nat@@ 72428
1888 72404
Nu@@ 72378
Syst@@ 72357
Arena 72342
Fili@@ 72319
Maine 72284
Shel@@ 72272
Yu@@ 72229
CN@@ 72184
iness 72164
Liga 72144
cia 72126
embr@@ 72098
suppl@@ 72052
dy@@ 71981
tradi@@ 71964
anny 71937
eline 71909
sson 71867
Lis@@ 71852
Tib@@ 71790
agen 71752
Run@@ 71646
Ep@@ 71642
Karl 71565
leng@@ 71547
ouver 71516
Academ@@ 71457
uh@@ 71398
Charlie 71390
yes 71373
Austr@@ 71355
Jason 71288
Terr@@ 71252
rop@@ 71244
Warner 71160
Phoen@@ 71122
Alice 71110
asa 71065
internation@@ 71048
quir@@ 71001
EU 70976
sung 70970
Brand@@ 70952
N. 70951
Maur@@ 70938
Ern@@ 70934
Thor@@ 70930
fici@@ 70910
iri 70822
yo 70816
itions 70783
sel 70768
Prom@@ 70738
Milan 70730
aborat@@ 70725
Andy 70722
Dist@@ 70627
BM@@ 70621
patri@@ 70574
Len@@ 70549
ongo@@ 70509
Gir@@ 70478
bach@@ 70452
1865 70447
Xi@@ 70421
1.5 70402
RI@@ 70380
1880 70375
lor@@ 70370
front@@ 70319
onlyinclude 70229
Bla@@ 70222
× 70190
Od@@ 70164
princi@@ 70143
Baker 70135
Bod@@ 70131
Jar@@ 70127
ana@@ 70124
pet@@ 70096
ī@@ 70086
Digital 70084
Eri@@ 70002
Andre@@ 69920
Maz@@ 69920
iler 69916
Let@@ 69805
esse 69762
Obl@@ 69713
lance 69684
og 69663
ão 69643
Nad@@ 69624
autonom@@ 69533
Amaz@@ 69520
shu@@ 69485
Sad@@ 69458
Yel@@ 69451
Orange 69406
â@@ 69398
Ari@@ 69377
ratic 69373
abo@@ 69363
elen 69351
1864 69337
municip@@ 69321
iser 69277
1887 69271
1870 69192
TC 69186
Stars 69158
ques 69105
Kl@@ 69043
Charlotte 69004
Zh@@ 68925
NA 68913
four@@ 68892
Det@@ 68882
Ale@@ 68854
1861 68747
tee 68676
uma 68560
Et@@ 68553
née 68520
Nak@@ 68462
param@@ 68375
tica 68352
Roy@@ 68343
sev@@ 68312
Nig@@ 68293
Gam@@ 68257
eto 68256
Adri@@ 68254
lard 68224
quit@@ 68221
Jus@@ 68177
aro 68175
23@@ 68154
Songs 68119
Wayne 68119
ener 68062
servat@@ 67976
Up@@ 67968
vec@@ 67958
pag@@ 67940
oga 67928
icia 67858
agement 67823
gether 67801
Person@@ 67756
vern@@ 67754
aj 67741
Vie@@ 67712
Ass@@ 67707
1886 67694
exclusiv@@ 67683
iden@@ 67680
voy@@ 67671
Pass@@ 67660
− 67643
barr@@ 67585
Fred 67579
VI 67574
Cad@@ 67553
1862 67518
inn 67516
bic@@ 67494
nes@@ 67483
ras@@ 67470
Fem@@ 67456
Story 67310
YouTube 67308
rive 67290
Municipal 67276
Sport 67269
oughout 67235
1863 67218
onder@@ 67204
ista 67180
ron@@ 67179
SO@@ 67162
Guinea 67090
commerci@@ 67073
gri@@ 67048
sang 67039
Bau@@ 66964
oul 66941
tend 66929
700 66919
Hart@@ 66919
Nur@@ 66916
Van@@ 66916
acter@@ 66909
laborat@@ 66890
embran@@ 66889
ogr@@ 66846
Day@@ 66841
Max@@ 66810
120 66807
ate@@ 66791
Ian 66769
tap@@ 66768
40@@ 66697
phil@@ 66682
Studio 66667
Palm@@ 66662
passage 66650
pointed 66632
12.@@ 66613
Aer@@ 66575
fantas@@ 66570
1884 66536
ation@@ 66535
aska 66525
Tul@@ 66519
bind@@ 66512
nant 66493
lak@@ 66382
xon 66357
Griff@@ 66348
ardo 66299
ž@@ 66275
Glo@@ 66248
Diam@@ 66247
dium 66244
Kap@@ 66228
kul@@ 66197
GA 66155
con 66153
oblig@@ 66123
hat 66013
olo@@ 66010
Slov@@ 65995
Charl@@ 65991
ache 65987
nas@@ 65962
Gmina 65927
soft 65900
apon 65891
bili@@ 65887
kes@@ 65887
AT 65846
round@@ 65814
1881 65783
Video 65732
Sak@@ 65701
cular 65696
Universal 65695
Mob@@ 65692
Hat@@ 65658
rel 65651
confer@@ 65624
Steph@@ 65611
cath@@ 65586
ble@@ 65581
Rou@@ 65542
stan 65529
Dakota 65497
LG@@ 65495
isti@@ 65472
symbol@@ 65455
11.@@ 65424
voir 65304
Pel@@ 65271
kw@@ 65237
aint 65226
ili 65168
phy@@ 65107
rog@@ 65104
Sky 65100
kar 65093
Syria 65079
tant 65075
Arg@@ 65033
Code 64990
tan 64960
IS 64957
att 64947
aise 64945
metre 64934
Jonathan 64925
agin@@ 64915
Mic@@ 64911
festiv@@ 64889
asi 64846
venti@@ 64836
famili@@ 64833
Oli@@ 64824
Standard 64805
Enter@@ 64792
ș@@ 64753
MC 64750
Cast@@ 64745
flan@@ 64734
Type 64726
elly 64691
etr@@ 64680
Sah@@ 64667
wak@@ 64627
Isa@@ 64616
Carol@@ 64605
Scar@@ 64592
ainer 64580
Stand@@ 64506
univers@@ 64505
Barbara 64500
Cuba 64485
udi@@ 64394
iture 64377
agn@@ 64334
Be 64303
kes 64301
occasion 64274
hem@@ 64230
compens@@ 64182
Beh@@ 64143
kit@@ 64142
conven@@ 64124
Ant@@ 64106
eron 64098
Fro@@ 64078
ente 64047
Bou@@ 63987
1882 63978
han@@ 63968
ho 63946
Fa@@ 63940
ME@@ 63867
hop 63832
Post@@ 63818
iff 63728
fam@@ 63711
ui 63685
lowing 63681
Ple@@ 63599
Peru 63597
ann 63518
som@@ 63497
Seg@@ 63451
nik 63451
chan@@ 63439
intr@@ 63409
dal@@ 63387
CS 63355
C.@@ 63323
prol@@ 63277
Alaska 63274
propag@@ 63270
oi 63253
Mass@@ 63208
Catherine 63156
ulu 63137
cargo 63093
Jacob 63031
gam@@ 63009
tif@@ 62986
Sz@@ 62980
Malay@@ 62953
isation 62943
sters 62926
absol@@ 62897
MS@@ 62867
August@@ 62853
nd@@ 62771
hau@@ 62735
oug@@ 62732
cad@@ 62729
TV@@ 62693
etti 62666
egas 62652
canal 62579
iga 62566
ave@@ 62547
Comp@@ 62534
suspen@@ 62509
Cru@@ 62497
rat@@ 62492
ustry 62454
eno 62443
IP 62423
tiller@@ 62393
NO@@ 62343
Rud@@ 62327
Model 62325
reven@@ 62244
hang 62239
gau@@ 62227
motiv@@ 62211
ebo@@ 62194
ú@@ 62171
ander 62138
LE@@ 62109
Ton@@ 62105
tag@@ 62077
Found@@ 62053
Capit@@ 61998
Constant@@ 61992
gio 61989
1883 61931
gence 61907
Oliver 61841
Stil@@ 61806
eur@@ 61789
Radi@@ 61788
sist@@ 61778
Barcelona 61742
endant 61724
elem@@ 61723
Š@@ 61681
Spar@@ 61637
Dark 61636
1871 61635
Int@@ 61621
Vit@@ 61575
John@@ 61574
Boh@@ 61572
Do 61533
astronom@@ 61512
proxim@@ 61504
Ric@@ 61491
spect@@ 61484
Jay 61473
IC 61457
1876 61437
Buch@@ 61376
Bog@@ 61361
1860 61271
Mut@@ 61251
2.5 61243
Apple 61188
utiliz@@ 61187
1878 61181
gues 61161
tradition@@ 61158
Iv@@ 61147
Hans 61109
Sl@@ 61107
Luis 61029
trag@@ 61006
wn@@ 60989
esi@@ 60985
auc@@ 60950
mad@@ 60948
Aur@@ 60947
Bernard 60882
mula 60858
kir@@ 60828
zant@@ 60783
Les 60782
Colombia 60764
Microsoft 60696
TE@@ 60647
Dead 60643
Shir@@ 60641
Yam@@ 60626
Kab@@ 60599
tru@@ 60547
magaz@@ 60540
olo 60521
owski 60520
deci@@ 60497
kilom@@ 60487
Afr@@ 60440
BT 60427
mon 60422
registr@@ 60385
rab@@ 60381
aco 60342
cian 60289
DE@@ 60267
Key@@ 60246
ener@@ 60227
Herbert 60221
gend 60113
DJ 60077
Vincent 60072
Bell@@ 60017
bases 59990
cos 59974
ennis 59945
aters 59941
altar 59892
Naz@@ 59853
Tex@@ 59816
olm 59765
mant@@ 59693
Costa 59626
tt@@ 59616
IT@@ 59548
RT 59529
Mart@@ 59500
Dru@@ 59463
Hem@@ 59447
tum@@ 59412
RS 59361
Jazz 59352
Cho@@ 59341
forman@@ 59338
com 59303
Rub@@ 59294
Gur@@ 59278
haz@@ 59268
Kom@@ 59264
ref 59195
dil@@ 59166
tz 59159
Pictures 59145
Cathol@@ 59134
Ele@@ 59110
eting 59095
tir@@ 59082
Jur@@ 59041
tim 58986
1867 58965
ministr@@ 58955
à 58915
gang 58900
1872 58888
Lit@@ 58866
J.@@ 58777
vor 58771
py@@ 58747
1875 58734
gran@@ 58734
Nas@@ 58727
Pop@@ 58726
mir 58690
Ten@@ 58678
Chron@@ 58648
ñ@@ 58624
kan@@ 58616
drome 58612
Princip@@ 58609
usage 58607
Kenya 58593
1879 58522
ento 58514
Theod@@ 58483
Nap@@ 58444
virus 58436
Wag@@ 58409
conflic@@ 58399
Main@@ 58360
Lot@@ 58304
Rah@@ 58225
horiz@@ 58123
mund 58117
stell@@ 58113
Tenn@@ 58063
syst@@ 58026
Bour@@ 58003
1868 57970
Zi@@ 57942
limit@@ 57843
ska 57838
enburg 57780
reun@@ 57736
gan 57710
open@@ 57666
Alger@@ 57650
Tax@@ 57645
encer 57644
USS 57627
AR 57566
Antar@@ 57559
mes@@ 57498
crit@@ 57458
Plan 57418
a.@@ 57394
Rock@@ 57360
Bra@@ 57351
Haz@@ 57334
ude 57331
oba 57330
import@@ 57310
Napole@@ 57274
ej@@ 57230
Album 57203
syl@@ 57188
Poly@@ 57187
1874 57184
Abu 57163
inaugur@@ 57155
Sport@@ 57147
sort 57144
politi@@ 57130
Ober@@ 57098
san 57071
Gas@@ 57034
Had@@ 57027
tar 56966
1873 56940
mili@@ 56933
Cass@@ 56913
ift 56905
firm@@ 56833
Bun@@ 56792
1877 56791
inclus@@ 56789
ext 56787
mati@@ 56784
explic@@ 56763
aba 56757
eve 56748
ric 56740
13.@@ 56702
São 56671
1866 56635
€ 56624
Philos@@ 56620
Hz 56545
efs 56530
Sultan 56514
ović 56498
Sn@@ 56476
ling@@ 56413
Pedro 56390
das 56386
ashi 56340
plex 56298
0,@@ 56296
iker 56251
nak@@ 56245
entre@@ 56235
Yugoslav@@ 56197
Bulgar@@ 56177
elo 56170
nov@@ 56135
Mod@@ 56032
bid@@ 56017
lun@@ 56001
verte@@ 55990
oll 55959
illo 55957
Can 55944
Kaz@@ 55926
Amsterdam 55901
tus 55775
ido 55769
yi 55745
bak@@ 55721
Ras@@ 55717
hua 55671
Comics 55615
esia 55560
hul@@ 55554
Indon@@ 55536
Pier@@ 55532
Play 55410
ogen 55310
vit@@ 55281
Sud@@ 55272
da@@ 55249
Pra@@ 55194
ń@@ 55174
addi@@ 55094
Bac@@ 55064
essenti@@ 55060
ult@@ 55044
wir@@ 55021
Eg@@ 54972
Sierra 54958
Rav@@ 54921
sun 54920
retr@@ 54844
fli@@ 54816
Hut@@ 54808
.S. 54671
ustr@@ 54654
Syl@@ 54588
Vid@@ 54563
aron 54552
Psych@@ 54524
gom@@ 54510
agog@@ 54481
internet 54469
Band@@ 54468
uld 54414
athan 54393
Amer@@ 54377
oli 54338
deriv@@ 54335
Columb@@ 54319
RT@@ 54317
esser 54311
Manuel 54248
1869 54230
CO 54221
studi@@ 54203
gor@@ 54193
Administr@@ 54167
IA 54159
Tradi@@ 54138
atur@@ 54135
Robin 54131
ín 54124
ammed 54112
dex 54068
mad 54066
1848 54062
Ny@@ 54003
WW@@ 53992
sil 53984
uki 53975
Tir@@ 53914
Provin@@ 53867
35@@ 53860
3D 53813
Fir@@ 53804
Sir@@ 53793
ng 53793
tice 53772
Petr@@ 53768
æ@@ 53747
• 53717
tours 53716
Ghana 53702
uti@@ 53701
Thi@@ 53691
eni 53662
Imp@@ 53660
ry@@ 53657
Py@@ 53634
AN 53615
descend@@ 53615
coup 53601
rum@@ 53597
vis 53576
Will@@ 53570
ampa 53552
uru 53550
achi 53528
Mann@@ 53515
kov 53515
jer@@ 53489
Ox@@ 53439
… 53434
omo 53387
L.@@ 53379
Guy 53372
fes@@ 53335
fa 53307
condi@@ 53257
mani@@ 53241
iko 53235
geb@@ 53201
Shu@@ 53194
Pay@@ 53191
Fun@@ 53168
otes 53068
ester@@ 53059
tes@@ 53013
Venezuela 52972
Bad 52958
14.@@ 52929
Viet@@ 52870
clar@@ 52867
MO@@ 52826
adu@@ 52821
amo 52789
retir@@ 52771
Augus@@ 52759
Anim@@ 52758
1850 52719
emia 52716
Han 52680
RNA 52651
Hitler 52605
Stat@@ 52598
Bis@@ 52401
ç@@ 52390
tropolit@@ 52334
Emil@@ 52304
ender@@ 52303
och 52270
liqu@@ 52249
Parti@@ 52230
Jes@@ 52193
Isab@@ 52151
princ@@ 52131
Mey@@ 52116
vas@@ 52108
Sic@@ 52096
olia 52093
Villa 52072
entation 52043
tang@@ 52038
anus 52029
alle@@ 52005
got@@ 51973
dies@@ 51930
Toy@@ 51914
Rach@@ 51910
altitude 51884
evo 51859
meter 51834
acht 51828
Motor@@ 51808
ör@@ 51690
ith@@ 51670
opsis 51652
Audi@@ 51630
Rat@@ 51597
onna 51538
ario 51497
Leo 51493
eus 51490
Fas@@ 51476
Beat@@ 51451
obi@@ 51429
EM@@ 51424
Jacques 51363
Tab@@ 51353
aman 51298
bell 51285
ku 51270
Google 51268
E.@@ 51234
turn@@ 51228
elia 51158
ensi@@ 51156
eder@@ 51155
Fall 51089
espe@@ 51082
GM 51075
Gau@@ 51066
Motor 51047
Ma 51044
IT 51025
VP 50962
ehr@@ 50945
haus@@ 50927
igher 50921
orn@@ 50890
emat@@ 50880
Fres@@ 50871
bel 50830
alum@@ 50761
Cruz 50708
cord 50685
Lav@@ 50659
dir@@ 50641
elabor@@ 50594
Institu@@ 50574
Suz@@ 50560
AL 50529
app 50503
superior 50461
60@@ 50440
Pos@@ 50432
Amat@@ 50427
IP@@ 50362
tag 50349
Dame 50319
Dream 50220
Tat@@ 50217
town@@ 50175
Sony 50135
archi@@ 50119
eign@@ 50113
Pep@@ 50112
PE@@ 50097
ers@@ 50052
1857 50015
rus@@ 49996
Alter@@ 49993
HMS 49975
Lem@@ 49970
alan 49926
1859 49884
Test@@ 49841
Hot@@ 49766
Emp@@ 49714
flav@@ 49702
Map@@ 49687
logo 49681
cali@@ 49611
Pop 49546
Stockh@@ 49530
Eff@@ 49511
MTV 49504
best@@ 49500
atra 49475
Raymond 49452
DO@@ 49445
estig@@ 49443
Clu@@ 49416
Fantas@@ 49391
enne 49361
ria 49330
Dro@@ 49318
terior 49317
Sign@@ 49313
Jon@@ 49309
Was@@ 49286
Sant@@ 49284
ó 49282
nan 49260
diz@@ 49246
zer 49174
sin 49125
appr@@ 49124
80@@ 49097
ilk 49022
ident@@ 49010
ante@@ 48990
Pod@@ 48989
edonia 48987
manif@@ 48985
tec@@ 48949
Kun@@ 48943
ovi@@ 48915
Stal@@ 48887
pig@@ 48852
Gaz@@ 48850
Ast@@ 48849
milit@@ 48788
jar@@ 48763
Angel 48754
coc@@ 48754
Cant@@ 48725
doctor@@ 48680
Ng@@ 48671
Fab@@ 48649
aye 48642
icas 48616
privil@@ 48600
zo@@ 48595
ii 48593
DF 48565
ingo 48558
Vin@@ 48534
Gabriel 48510
Sieg@@ 48469
omon 48459
Congo 48432
Chr@@ 48371
Aj@@ 48367
phi@@ 48317
tiles 48309
ę@@ 48296
kal@@ 48278
Mars 48269
aut 48267
Die 48263
Lac@@ 48213
Thom@@ 48187
bra 48185
Cec@@ 48179
eli 48179
Feder@@ 48172
enda 48165
isha 48158
coron@@ 48152
igan 48149
NAS@@ 48132
eler 48131
Dani@@ 48125
los 48112
cio 48108
TS 48019
cens@@ 47997
R.@@ 47987
gi 47974
tico 47966
fier 47930
Oscar 47895
anj@@ 47890
Airlines 47879
Dum@@ 47808
Films 47803
Grammy 47754
aa 47720
Hamburg 47633
ayo 47610
Otto 47601
dis 47591
Vladimir 47570
neo 47558
Mam@@ 47556
ë@@ 47550
Marsh@@ 47536
1854 47380
sar@@ 47378
igi@@ 47370
nic@@ 47356
sciences 47293
na@@ 47281
gan@@ 47234
wald 47212
ango 47203
Hind@@ 47182
aca 47156
sch 47149
mic@@ 47112
iter 47056
ffe 47025
1855 47008
min 47008
aven@@ 46998
ibn 46967
aving 46963
aza 46955
cog@@ 46922
Ib@@ 46918
Rac@@ 46912
genes 46907
ā 46850
denomin@@ 46848
Viol@@ 46838
manufac@@ 46794
PO@@ 46789
Hit@@ 46773
Serie 46761
Gri@@ 46740
har 46731
avi 46627
Kazak@@ 46611
pir@@ 46574
abe 46565
manga 46554
abi 46542
chr@@ 46530
Maurice 46514
prince 46514
1856 46508
Wolf 46475
arrive 46462
cau@@ 46445
inge 46428
VA 46380
Jak@@ 46362
1858 46337
tn@@ 46333
Apol@@ 46277
adem@@ 46274
Alex@@ 46250
ettes 46239
IE@@ 46215
Ja@@ 46214
Rolling 46135
pen 46134
Population 46117
Marvel 46092
ois 46067
ego 46052
adil@@ 46017
Kle@@ 46008
AB 45998
fallen 45979
Termin@@ 45967
15.@@ 45950
Nan@@ 45918
Kot@@ 45897
Friedrich 45874
enf@@ 45874
propri@@ 45840
Miguel 45827
rag@@ 45825
110 45824
22@@ 45808
H.@@ 45803
profes@@ 45800
Kis@@ 45797
uel@@ 45786
Ster@@ 45778
chen@@ 45752
AG 45732
ark 45732
tip 45718
day@@ 45715
hes@@ 45706
evi@@ 45690
edr@@ 45652
protagon@@ 45628
age@@ 45574
Rein@@ 45561
ère 45544
Name 45523
ago@@ 45520
maj@@ 45501
ople 45486
atar 45461
Kim@@ 45446
Chev@@ 45431
Ax@@ 45384
ross 45367
rez 45355
frac@@ 45297
Mang@@ 45268
tent 45241
Mess@@ 45224
Mario 45180
Sebasti@@ 45174
prises 45160
constr@@ 45147
xi 45138
iter@@ 45056
Johann 45040
Wilhelm 45035
101 45021
gli@@ 45010
anime 45003
gin@@ 45000
kov@@ 44997
Gan@@ 44990
presti@@ 44979
pad@@ 44927
alar@@ 44884
Louise 44862
ecu@@ 44813
1840 44783
Ec@@ 44772
Facebook 44771
dez 44751
Paulo 44749
1851 44734
Franc@@ 44697
AE@@ 44687
lac@@ 44685
AV@@ 44676
ique 44651
Suc@@ 44645
Monum@@ 44641
Gab@@ 44612
usa 44574
Grande 44571
3.5 44544
Luci@@ 44543
D.@@ 44515
Wak@@ 44515
Uganda 44500
Carr@@ 44483
fest@@ 44480
util@@ 44464
oles 44434
Dig@@ 44433
Mac 44387
16.@@ 44367
PM 44355
HD 44340
EC@@ 44325
Lon@@ 44315
ife 44315
Micro@@ 44314
IG@@ 44304
Anton@@ 44268
Lau@@ 44254
andra 44254
François 44237
jan 44224
umi 44211
Educ@@ 44185
Sev@@ 44046
dial 44035
liner 44030
orium 43966
Hali@@ 43946
nus 43932
Miss@@ 43922
omer@@ 43897
Top@@ 43836
anno@@ 43817
Say@@ 43810
wake 43809
NAT@@ 43804
aler 43750
NASA 43744
pson 43701
sur 43698
fis@@ 43690
Jag@@ 43659
ū 43639
1852 43632
codice 43628
Fig@@ 43576
feld 43567
900 43551
Herz@@ 43517
Aires 43502
pec@@ 43489
west@@ 43447
Buenos 43423
EC 43397
49@@ 43391
sof@@ 43361
tut@@ 43292
corps 43284
pedia 43205
comb@@ 43189
isi 43189
avier 43169
Penn@@ 43114
comprom@@ 42972
Ray@@ 42968
VII 42963
omin@@ 42919
Fam@@ 42912
idi 42906
yon 42903
Tag@@ 42879
cel 42858
Bill@@ 42850
Dic@@ 42830
Lucas 42815
1853 42786
Fon@@ 42785
SM 42738
etz@@ 42723
Lad@@ 42686
Ach@@ 42667
aque 42661
Exper@@ 42635
Son 42606
anes 42593
olan 42583
Esp@@ 42571
Grim@@ 42560
abil@@ 42535
Benedi@@ 42494
ía 42490
SN@@ 42487
rh@@ 42445
AG@@ 42429
bis@@ 42422
17.@@ 42413
CP 42363
130 42347
hik@@ 42304
Hass@@ 42303
gestion 42293
tu 42278
Marc 42238
pale 42232
Journ@@ 42189
Compan@@ 42175
Hindi 42173
Autom@@ 42140
ras 42100
1849 42083
Shin@@ 42057
ü@@ 42056
ishi 42045
DI 42031
oro 42024
appen 41985
anta 41971
osaur@@ 41955
Franco 41940
verl@@ 41939
oven 41880
stan@@ 41875
Pok@@ 41851
Ahmed 41840
PR@@ 41826
Jun@@ 41792
I.@@ 41741
dispos@@ 41723
eb 41712
seud@@ 41712
Rodr@@ 41685
Zo@@ 41627
180 41601
eira 41591
apa 41538
Abdul@@ 41505
pino 41496
mini 41468
wash@@ 41423
eda 41393
Ferdinand 41385
Rhy@@ 41382
grou@@ 41372
hier@@ 41368
Chelsea 41365
SE 41362
1847 41347
trop@@ 41330
Um@@ 41311
Zimbab@@ 41307
ichi 41276
orb@@ 41268
bau@@ 41256
quot 41248
Giovanni 41236
ux 41147
Santiago 41119
ī 41071
inae 41066
{ 41038
201@@ 41007
eleg@@ 40981
Him@@ 40975
Evangel@@ 40957
VI@@ 40940
Town@@ 40935
IX 40921
Prof@@ 40904
gest@@ 40831
apar@@ 40820
GB 40789
igo 40788
engag@@ 40751
ider@@ 40740
SD 40735
haw@@ 40719
Anth@@ 40712
Prov@@ 40711
oci@@ 40692
diver@@ 40678
imen 40646
Catal@@ 40633
š 40628
tham 40620
onald 40610
urg 40567
Luxemb@@ 40551
Fernando 40520
Ses@@ 40511
Twitter 40484
urb@@ 40476
sar 40472
oshi 40454
conten@@ 40453
etes 40442
Franz 40410
inus 40406
Sag@@ 40402
Cou@@ 40394
fort@@ 40381
Frank@@ 40354
Berg@@ 40321
definiti@@ 40314
onne 40300
eses 40290
aji 40260
ML 40246
Coc@@ 40219
eim 40215
1846 40209
IF@@ 40165
.. 40134
Premi@@ 40110
ator@@ 40041
100@@ 39988
Chin@@ 39964
ombi@@ 39941
Nikol@@ 39928
Nintendo 39880
alog 39868
ár@@ 39854
1,0@@ 39831
II@@ 39812
kel 39811
vi 39803
erst@@ 39739
enko 39736
FO@@ 39714
Popular 39709
Lt@@ 39704
physi@@ 39680
Jose@@ 39651
org 39651
Meh@@ 39650
icus 39630
pler 39623
XI 39555
Tou@@ 39537
18.@@ 39520
ś@@ 39515
Sudan 39490
yu 39490
Java 39480
ism@@ 39450
Freder@@ 39434
Schwar@@ 39402
cer 39355
uta 39331
PP@@ 39309
stant@@ 39297
PlayStation 39280
Kad@@ 39278
nt 39263
Lic@@ 39256
33@@ 39254
etto 39239
oss 39234
oun 39233
Film@@ 39197
Nob@@ 39174
\ 39140
nam 39116
Inn@@ 39114
elles 39102
Vor@@ 39100
ube 39082
hous@@ 39063
modern@@ 39057
uni 39020
alisation 39011
20.@@ 38989
IBM 38983
én@@ 38968
1812 38949
German@@ 38881
terrain 38879
FF 38861
1830 38823
SI@@ 38823
approxim@@ 38814
zones 38800
immer 38795
mel 38794
Frances@@ 38786
Rum@@ 38769
DE 38732
steri@@ 38720
1845 38716
esta 38704
dad 38695
Hid@@ 38670
Rest@@ 38664
Gel@@ 38652
ats@@ 38647
Lud@@ 38619
oca 38583
Martin@@ 38576
Andr@@ 38575
23.@@ 38570
és 38569
Plaza 38567
eka 38552
125 38542
ainst 38429
Dir@@ 38420
Clau@@ 38418
Chal@@ 38416
emble 38416
aran 38405
Agu@@ 38318
iner 38313
Arsenal 38308
ede 38275
P.@@ 38233
ater@@ 38218
azi 38209
circ@@ 38186
symb@@ 38181
Am 38179
itter 38177
Itali@@ 38176
Fern@@ 38172
Mom@@ 38151
infer@@ 38138
Dipl@@ 38129
Henri 38093
1800 38072
senti@@ 38058
selec@@ 37946
45@@ 37944
flor@@ 37936
ensemble 37918
Yug@@ 37912
imi@@ 37890
eci@@ 37879
Hein@@ 37858
Lec@@ 37854
19.@@ 37848
Maxim@@ 37804
Michel 37800
HC 37781
thi 37725
Chor@@ 37717
sha 37694
lis@@ 37645
introdu@@ 37621
rad 37582
Frankfurt 37562
extra@@ 37551
1837 37533
Sas@@ 37531
Gren@@ 37476
esi 37459
iz 37436
Rep@@ 37424
Gom@@ 37405
Gramm@@ 37392
chin@@ 37390
Riv@@ 37332
ju 37300
lara 37290
bun@@ 37284
ilia 37272
isten 37260
lag@@ 37244
liga 37182
Ł@@ 37179
sult@@ 37175
25.@@ 37173
24.@@ 37163
34@@ 37162
terr@@ 37156
Syr@@ 37138
Stein@@ 37124
WWE 37103
sad@@ 37074
1500 37057
36@@ 37044
oka 37036
blan@@ 36995
cant@@ 36993
Eurovision 36989
sab@@ 36989
ias 36986
larg@@ 36964
Notre 36938
uri@@ 36911
fin 36906
polic@@ 36872
hir 36848
pod@@ 36774
avia 36762
endr@@ 36747
idad 36739
350 36727
ix@@ 36718
ahn 36701
Cha@@ 36699
yat@@ 36681
vil@@ 36678
1841 36643
ologi@@ 36622
dorf 36550
Olympi@@ 36546
uer@@ 36536
27.@@ 36524
aux@@ 36518
140 36500
María 36490
awi 36488
160 36478
Claude 36468
ning@@ 36463
unci@@ 36461
2.0 36455
70@@ 36407
sex@@ 36378
1844 36371
ui@@ 36340
olf 36328
eppe 36293
gang@@ 36291
erie 36251
quet 36232
VIII 36220
ecti@@ 36203
Cand@@ 36186
inos 36185
Hall@@ 36159
1838 36153
Boliv@@ 36149
numer@@ 36094
reconn@@ 36075
imi 36062
Lyon 36055
va@@ 36046
26.@@ 36028
Las@@ 35977
Nicol@@ 35972
manuel 35971
1836 35969
eti 35969
ec 35954
Gonz@@ 35908
Copa 35881
fen@@ 35881
Leh@@ 35864
ados 35828
urt 35820
berger 35816
elin 35807
Sap@@ 35768
finale 35722
ron 35703
1839 35674
avail@@ 35671
Monte 35653
uka 35641
ré@@ 35595
kon@@ 35582
par 35575
Boeing 35552
vig@@ 35542
telev@@ 35535
Ou@@ 35525
Uz@@ 35520
cen@@ 35511
asia 35501
Fron@@ 35485
betr@@ 35468
Flam@@ 35410
quer@@ 35381
Hak@@ 35374
orum 35372
ca@@ 35340
grad 35303
37@@ 35300
hut@@ 35274
gia 35203
sia 35203
Kul@@ 35181
F.@@ 35175
uli 35136
Part@@ 35135
Afgh@@ 35121
Wid@@ 35112
var 35095
Ein@@ 35082
anie 35081
38@@ 35067
1842 35054
amba 35036
inda 35036
isons 35029
Pac@@ 34940
veloc@@ 34933
ourg 34887
är@@ 34857
André 34853
TH@@ 34835
360 34813
21.@@ 34809
stanbul 34801
illon 34773
Kus@@ 34765
cher@@ 34753
neces@@ 34751
oux 34749
hist@@ 34747
1832 34746
GP@@ 34726
oko 34706
Č@@ 34705
ayn@@ 34689
ammad 34669
22.@@ 34667
lug@@ 34616
Rosa 34610
Andrea 34607
ATP 34580
TO@@ 34568
Salvador 34506
1835 34488
Dut@@ 34465
Carlo 34454
pus 34437
Mau@@ 34409
Software 34393
commerce 34387
Wis@@ 34384
zar@@ 34357
enzo 34348
lu 34342
188@@ 34334
nu 34322
1843 34313
unge 34303
Web 34297
bek@@ 34292
Lom@@ 34288
stadt 34285
imo 34265
apos@@ 34264
Hub@@ 34263
ogo 34262
inger@@ 34228
temp@@ 34218
uro 34204
hir@@ 34182
endra 34174
Gros@@ 34130
CN 34127
jug@@ 34108
hil@@ 34104
Ethiopia 34082
assur@@ 34038
Hugo 34013
LO@@ 33991
Pand@@ 33978
distribu@@ 33923
Chel@@ 33920
za@@ 33873
Gru@@ 33869
Concep@@ 33860
tivities 33832
religi@@ 33771
Nacional 33723
ka@@ 33720
IO@@ 33702
ool 33693
Herr@@ 33687
mobil@@ 33684
Kid@@ 33631
Ecuador 33608
Single 33582
Santos 33573
ilo 33560
kab@@ 33526
alli 33514
National@@ 33510
sche 33496
anan 33414
Koh@@ 33406
andro 33394
HP 33389
Dj@@ 33334
inga 33329
vet 33328
,@@ 33318
BO@@ 33314
Nord@@ 33290
eros 33231
inas 33199
millions 33177
tad@@ 33170
arist@@ 33143
eine 33124
è@@ 33102
Europ@@ 33101
ael 33098
plo@@ 33068
aden 33065
dul@@ 33031
fut@@ 33024
amen 32988
11,@@ 32946
ufac@@ 32926
Alt@@ 32922
DR 32916
Euro 32916
bourne 32904
ps@@ 32888
Hoff@@ 32853
enor@@ 32796
CF 32776
vide 32760
Bug@@ 32744
Julius 32683
www.@@ 32656
anos 32649
fabric@@ 32641
lau@@ 32639
monuments 32639
Zar@@ 32638
Wer@@ 32620
105 32599
Roh@@ 32570
Program@@ 32553
Yar@@ 32546
Feli@@ 32530
² 32449
1815 32427
dice 32417
Monte@@ 32416
sul 32370
T.@@ 32347
financi@@ 32347
adol@@ 32343
Kem@@ 32330
bourg 32323
Del 32290
polit@@ 32237
khe@@ 32190
perior 32183
vas 32156
Lap@@ 32144
Inf@@ 32142
Mé@@ 32130
egal 32113
isia 32086
imin@@ 32057
And@@ 32027
por 32020
ern 32018
Venez@@ 32014
120@@ 31995
otr@@ 31987
Nobel 31969
ubil@@ 31967
had@@ 31931
SI 31930
fried 31920
Marco 31893
Hous@@ 31892
Ludwig 31882
tri 31872
39@@ 31849
Inst@@ 31840
División 31823
atin 31806
aun 31798
ás 31782
Sep@@ 31759
compan@@ 31727
Ris@@ 31725
bas 31690
1814 31646
atu 31640
beck 31637
Fund@@ 31620
189@@ 31578
azar@@ 31545
ña 31541
Budap@@ 31530
ular@@ 31507
él@@ 31488
artic@@ 31480
1834 31471
dar 31466
Hey@@ 31433
vier 31412
ț@@ 31408
Canadi@@ 31402
iva 31388
alie 31368
esto 31361
gul@@ 31357
Da 31355
Minister@@ 31354
cup@@ 31337
agi@@ 31306
It@@ 31303
premier 31258
Moz@@ 31243
aband@@ 31241
ř@@ 31231
Ernst 31216
Gem@@ 31216
ulus 31202
Heinrich 31179
sour@@ 31125
onga 31120
Vog@@ 31115
fran@@ 31112
mus 31109
uba 31106
Fat@@ 31038
~ 31021
coul@@ 31020
Tap@@ 31014
Metal 31005
Kob@@ 30991
quez 30943
eder 30914
auer 30911
isine 30908
ð@@ 30905
Bibli@@ 30902
eca 30899
Neur@@ 30868
Chic@@ 30863
Tah@@ 30849
milli@@ 30846
Bass@@ 30828
avy@@ 30813
Hern@@ 30802
igi 30792
Raf@@ 30751
sep@@ 30748
1831 30737
1820 30728
bu 30716
ampli@@ 30666
XX@@ 30650
derni@@ 30648
xe 30642
Ner@@ 30635
annes 30634
cht 30588
erc@@ 30573
matr@@ 30560
GT 30538
emi 30525
N.@@ 30520
ON@@ 30512
Fried@@ 30457
saint 30457
agua 30455
Stra@@ 30437
Janeiro 30417
omi 30400
Ander@@ 30364
fi 30345
andi 30336
alien 30310
ischer 30309
Kö@@ 30295
Dim@@ 30280
Wander@@ 30265
Uruguay 30264
Tag 30263
Corpor@@ 30248
1833 30228
Phili@@ 30225
entum 30217
nd 30207
Yak@@ 30198
sam 30174
eres 30169
Kre@@ 30162
Ž@@ 30153
oz 30149
750 30128
unda 30118
dos@@ 30115
3000 30096
sert 30092
} 30090
Rak@@ 30076
Iz@@ 30061
itzer 30048
Vall@@ 30041
lati@@ 30002
zen@@ 29987
öl@@ 29972
rug@@ 29968
wo 29957
ą@@ 29919
aman@@ 29915
Kurt 29903
ellen@@ 29875
yar@@ 29811
190@@ 29806
Ey@@ 29781
ambia 29779
rod@@ 29771
atum 29767
Pyr@@ 29753
bou@@ 29753
Ard@@ 29719
Georges 29678
tos 29678
ön@@ 29647
SV 29632
kor@@ 29625
oso 29624
Ut@@ 29613
90@@ 29598
antes 29577
incor@@ 29541
-- 29538
Rit@@ 29535
179@@ 29523
Laz@@ 29516
rim 29515
Asi@@ 29500
ń 29495
ien 29489
én 29469
ben 29464
Madag@@ 29450
sie 29443
lung 29441
Karnataka 29417
ahi 29380
Extr@@ 29363
tori@@ 29340
Anton 29314
pens@@ 29314
hen 29269
Leipzig 29264
aç@@ 29242
75@@ 29236
102 29234
Rica 29217
Bach 29216
Á@@ 29188
neum@@ 29187
endi@@ 29176
alian 29159
Gö@@ 29149
Baz@@ 29119
dem 29112
Sti@@ 29107
comment 29095
dos 29094
IB@@ 29091
kata 29086
erine 29071
avo 29061
Bin@@ 29054
ige 29040
obst@@ 29005
UNESCO 28989
isis 28952
Zam@@ 28934
sberg 28873
him@@ 28841
eu 28838
10,@@ 28816
spor@@ 28800
1825 28797
zu 28796
dose 28786
Plus 28777
Fen@@ 28773
Lep@@ 28760
Milli@@ 28748
Guadal@@ 28740
ono 28735
47@@ 28724
bless@@ 28715
zam@@ 28625
Grou@@ 28605
bunal 28576
alit@@ 28565
lut@@ 28559
ino@@ 28538
Il 28527
nier 28524
aris 28497
pos 28493
yak@@ 28489
afe 28474
Tanzania 28468
Santo 28455
kho@@ 28453
Fe 28430
terres@@ 28428
García 28418
heim@@ 28405
contributor 28388
1821 28382
α 28365
lio 28364
agne 28352
ativ@@ 28349
fabri@@ 28338
inson 28330
erek 28313
Congr@@ 28307
Centr@@ 28303
Fort@@ 28303
fon@@ 28299
187@@ 28291
hus@@ 28285
azz@@ 28272
transform@@ 28266
onnes 28240
Jul@@ 28235
utili@@ 28235
alla 28228
Bit@@ 28220
Burg@@ 28218
Tes@@ 28201
Kay@@ 28144
chu@@ 28141
demand@@ 28123
kad@@ 28096
Denis 28089
1828 28085
Jorge 28082
Hau@@ 28077
UTC 28077
lor 28076
uo 28070
Prin@@ 28061
Neu@@ 28018
Amp@@ 27998
azar 27995
Bruno 27981
brahim 27981
ï@@ 27961
enta 27945
Leopol@@ 27926
Eisen@@ 27914
wag@@ 27907
Ble@@ 27891
Wad@@ 27888
edi 27886
Gle@@ 27881
Anat@@ 27880
Castro 27873
Papua 27844
forts 27817
templ@@ 27810
amar@@ 27761
Sá@@ 27741
Guatemala 27728
Infr@@ 27715
Ō@@ 27701
1810 27690
TP 27674
GC 27633
pp 27619
Galax@@ 27602
1824 27599
metr@@ 27592
uno 27584
1829 27533
ć@@ 27510
450 27506
nik@@ 27495
lon@@ 27494
solic@@ 27484
Lew@@ 27483
104 27477
utt@@ 27467
Tech@@ 27466
arius 27437
midt 27422
Mann 27409
yor 27404
fan@@ 27394
ste 27391
tz@@ 27355
idar@@ 27348
Pam@@ 27323
Wir@@ 27300
Arist@@ 27284
Ord@@ 27274
etz 27245
Mercedes 27243
Mary@@ 27228
Tok@@ 27228
vera 27228
idental 27214
music@@ 27172
HT@@ 27154
anas 27142
canton 27108
ologne 27097
ès 27077
tras@@ 27073
Canton 27061
aller@@ 27047
Kah@@ 27028
Nah@@ 27009
Rafael 26969
othe@@ 26969
Roberto 26963
pi 26953
án@@ 26938
Bret@@ 26884
sten 26882
wes@@ 26864
Salv@@ 26860
Linux 26856
1813 26854
este 26853
Histori@@ 26849
itar 26845
46@@ 26844
sz@@ 26799
Organisation 26783
integ@@ 26776
Chi 26748
Art@@ 26723
gem@@ 26699
ient 26695
Adolf 26655
Georg 26638
eurs 26595
Nicolas 26590
kis@@ 26587
ophie 26567
Sonn@@ 26519
toire 26517
Baden 26509
asse 26496
Ethiop@@ 26494
attach@@ 26481
Hip@@ 26478
sport@@ 26477
vert 26464
AK@@ 26455
1826 26449
Ç@@ 26430
Ped@@ 26415
asha 26409
modific@@ 26392
NS 26384
103 26371
Deutsche 26364
ahl 26364
ë 26323
Us@@ 26299
anza 26296
Asp@@ 26289
EN@@ 26266
Wan@@ 26255
elt@@ 26246
flora 26231
Flu@@ 26223
ls@@ 26201
beit 26188
Fall@@ 26187
dir 26186
izer 26184
xa 26179
ö 26176
1818 26162
vie 26134
Lok@@ 26128
kus 26126
Yas@@ 26119
ambigu@@ 26113
ostr@@ 26111
Ś@@ 26103
Ana 26095
raf@@ 26089
Philippe 26081
Johannes 26080
tren@@ 26061
Lug@@ 26060
Mar 26054
anya 26054
48@@ 26045
Hermann 25992
hiz@@ 25986
sta 25966
ahr@@ 25965
Toul@@ 25959
dre 25932
dé@@ 25929
Sach@@ 25920
Bundesliga 25908
108 25898
ô@@ 25897
dot@@ 25886
170 25868
Europa 25840
ʻ@@ 25776
alan@@ 25733
ém@@ 25723
nou@@ 25716
44@@ 25691
Wein@@ 25688
clas@@ 25667
iner@@ 25616
awa@@ 25611
Kak@@ 25597
Pablo 25595
106 25554
ren 25488
Yah@@ 25469
Moder@@ 25463
Kut@@ 25457
zin@@ 25449
Alberto 25443
Lima 25439
orio 25439
vend@@ 25437
phia 25429
1806 25399
López 25386
1801 25365
55@@ 25361
ril 25339
ʼ@@ 25334
Kav@@ 25324
aines 25323
Song@@ 25320
65@@ 25310
metro 25307
wi 25307
Tang@@ 25295
orer 25272
bio 25268
emann 25254
bis 25249
220 25202
sis 25199
1827 25190
evangel@@ 25185
ockey 25176
bei 25160
1816 25159
fo 25142
109 25136
124@@ 25134
185@@ 25120
afor@@ 25112
Develop@@ 25111
ob 25087
UR@@ 25071
111 25050
186@@ 25044
bra@@ 25032
EE 25005
ru 24877
mascul@@ 24861
Mih@@ 24790
hak@@ 24781
tish 24779
ennes 24772
González 24730
egu@@ 24730
1819 24718
1803 24713
Aug@@ 24701
tales 24679
Mab@@ 24675
ondo 24651
qua 24626
Mark@@ 24592
115 24584
ysi@@ 24582
1822 24578
Apo@@ 24573
Winter@@ 24567
Lé@@ 24561
Materi@@ 24561
Aleksand@@ 24545
ür@@ 24518
hiv@@ 24517
5000 24515
ebe 24504
Tos@@ 24503
elop@@ 24482
Doug@@ 24466
otte 24458
jan@@ 24457
irat@@ 24447
DV@@ 24411
ISO 24367
pendi@@ 24349
β 24328
½ 24319
135 24312
ór@@ 24280
1823 24266
escal@@ 24259
Lig@@ 24257
mise 24250
Di 24243
Hydro@@ 24238
trong 24229
sein 24226
Orch@@ 24225
dae 24213
Valencia 24204
eber@@ 24186
Instrum@@ 24166
1809 24153
ei@@ 24138
leb@@ 24130
Dad@@ 24129
ymn@@ 24114
ă 24099
Android 24084
Angola 24080
128 24066
einer 24066
Bres@@ 24035
oc 24023
mang@@ 24008
phyl@@ 23994
Crist@@ 23987
112 23972
rim@@ 23965
hara 23947
eras 23944
Roma 23924
Cao 23916
etti@@ 23903
yu@@ 23863
Dresden 23843
Kamp@@ 23843
dipl@@ 23838
Primera 23834
Rey 23832
uj@@ 23828
muda 23798
zan 23787
Rudolf 23778
12,@@ 23771
Kho@@ 23767
inclin@@ 23721
dan@@ 23713
allo 23691
entin 23687
cide 23680
Luf@@ 23667
illes 23656
107 23652
Distr@@ 23650
1793 23625
1817 23624
Alg@@ 23618
1808 23612
Schne@@ 23609
Tay@@ 23607
d. 23563
Zen@@ 23560
revel@@ 23471
aku 23458
Jum@@ 23454
proces@@ 23406
Dest@@ 23397
Stur@@ 23396
Der 23389
Nom@@ 23368
Bras@@ 23366
sau@@ 23363
mim@@ 23360
Antoine 23335
ische 23293
rik 23274
Vy@@ 23273
Wiki@@ 23266
oda 23243
Cerambycidae 23234
1807 23214
aber 23201
Wolf@@ 23194
43@@ 23185
SK 23180
1794 23127
1798 23126
1795 23125
Poc@@ 23119
Na 23117
Ö@@ 23109
lang 23108
León 23101
isch 23099
ilg@@ 23082
1804 23080
s.@@ 23060
conform@@ 23044
pes@@ 23037
tat@@ 23031
ě@@ 23015
1805 23014
hip@@ 23012
iche 23003
Chir@@ 23001
alter 22985
Bask@@ 22975
eg 22974
para 22950
eke 22947
1811 22944
kom@@ 22938
zer@@ 22938
Johann@@ 22937
ño 22921
afé 22919
Sey@@ 22913
ène 22882
Obj@@ 22880
ambul@@ 22877
Dak@@ 22854
lich@@ 22846
Italia 22840
Sali@@ 22809
ís 22760
Peti@@ 22734
zon@@ 22732
eco 22730
ż@@ 22705
ères 22687
BN 22684
volution 22666
Era 22652
alise 22633
eshi 22629
tas 22629
Sib@@ 22611
arp@@ 22609
Yun@@ 22605
ortho@@ 22598
aland 22589
Volks@@ 22584
omy@@ 22575
itas 22569
Proj@@ 22524
hem 22504
Hosp@@ 22478
ahl@@ 22475
miz@@ 22431
irk 22419
1790 22400
zu@@ 22381
techni@@ 22375
hao 22369
tari 22352
mos 22349
onde 22316
ê@@ 22312
angi 22302
amen@@ 22282
57@@ 22261
final@@ 22260
enin 22258
Du 22238
raine 22233
Schw@@ 22195
ften 22150
witz 22150
spap@@ 22128
1802 22121
Paraguay 22117
orit@@ 22098
Pueb@@ 22077
1792 22067
Soc@@ 22063
http 22063
besi@@ 22052
kum@@ 22038
Gabri@@ 22020
ás@@ 22016
uch 22013
ako 21989
orr@@ 21967
180@@ 21934
gens 21925
Andreas 21866
acia 21865
bec@@ 21859
Estr@@ 21858
Moy@@ 21857
fu 21847
Rodríguez 21844
cultur@@ 21843
Juni@@ 21817
enario 21806
End@@ 21791
Yer@@ 21791
uca 21789
Ide@@ 21787
1789 21757
attribu@@ 21746
Vig@@ 21741
Must@@ 21734
Elisabeth 21728
Alfonso 21727
acer@@ 21700
Å@@ 21699
abri@@ 21669
ación 21659
Spi@@ 21656
ongo 21647
Đ@@ 21642
Gustav 21592
iller@@ 21521
kara 21497
enia 21496
Yes@@ 21490
unga 21482
Kie@@ 21467
Zel@@ 21443
Maf@@ 21428
Kend@@ 21413
Das 21408
Jah@@ 21405
ilio 21393
oj@@ 21381
uda 21343
culp@@ 21330
suite 21308
verg@@ 21299
Sok@@ 21290
Marse@@ 21287
13,@@ 21286
113 21263
Stuttgart 21263
kam@@ 21260
Sph@@ 21251
duras 21232
Von 21226
ympi@@ 21225
1799 21207
ausen 21203
quin@@ 21184
René 21177
wol@@ 21114
kol@@ 21113
Zu@@ 21112
XII 21073
rol 21072
adan 21043
Jor@@ 21032
119@@ 21004
Stand 20979
signi@@ 20967
Sovi@@ 20933
apo 20919
Nord 20892
Ek@@ 20885
oides 20863
reas 20834
Roll@@ 20831
ège 20817
ao@@ 20813
ouv@@ 20790
sta@@ 20759
Hoh@@ 20755
bli@@ 20738
tique 20734
namo 20731
tul@@ 20730
240 20687
a. 20666
estu@@ 20652
Reich@@ 20642
Josef 20613
esch@@ 20594
1797 20592
tard 20581
115@@ 20577
ya@@ 20572
Eug@@ 20537
march@@ 20509
gil@@ 20480
bay@@ 20474
Pérez 20451
č 20428
ney@@ 20427
Jung@@ 20417
ifs 20406
rak@@ 20406
qui 20390
Pach@@ 20383
abu 20377
ald@@ 20376
lywood 20375
Bé@@ 20337
kur@@ 20333
Eb@@ 20321
Sek@@ 20318
Jew@@ 20316
Reich 20314
grab@@ 20308
56@@ 20303
114 20251
anterior 20247
Mec@@ 20240
ms@@ 20240
117 20236
illas 20235
jana 20224
Ré@@ 20217
mil 20199
merc@@ 20178
184@@ 20176
ois@@ 20169
rio 20142
Panz@@ 20119
wanda 20118
Liz@@ 20053
14,@@ 20046
Libr@@ 20043
Isra@@ 20033
Con 20030
Ha 20028
ina@@ 20025
raz@@ 20022
Fritz 20021
opter@@ 20015
bek 20009
ú 19983
prolong@@ 19973
123 19953
Val 19941
añ@@ 19925
Nec@@ 19913
16,@@ 19897
Colomb@@ 19894
uz 19889
bia 19882
· 19879
eux 19866
Olymp@@ 19861
68@@ 19826
revision 19823
aison 19757
127 19754
Way@@ 19750
aden@@ 19746
Kro@@ 19726
yana 19711
lidae 19676
Atlé@@ 19671
posterior 19658
dispar@@ 19644
1200 19623
121 19622
Vinc@@ 19537
strat@@ 19530
avant 19513
Gó@@ 19491
uga 19488
K.@@ 19487
tane 19475
loss@@ 19470
Chrys@@ 19467
individ@@ 19467
https 19458
École 19440
aper@@ 19425
deo 19398
allen 19386
122 19381
1600 19376
má@@ 19373
ál@@ 19370
invit@@ 19358
Atlan@@ 19353
alus 19352
Kag@@ 19348
oft 19328
mina 19303
arios 19298
für 19297
kle@@ 19285
phe 19276
nie 19273
Schul@@ 19258
asti@@ 19256
Pho@@ 19255
ders@@ 19247
yk@@ 19231
116 19227
Phone 19222
1791 19217
opus 19209
Des 19203
Dau@@ 19201
chef 19193
Ins@@ 19190
190 19178
aret 19174
118@@ 19163
ince 19155
Hof@@ 19146
arra 19139
berg@@ 19136
tiers 19134
53@@ 19114
Phi 19087
Salz@@ 19072
axe 19058
jun@@ 19054
anum 19035
126 19032
osi 19030
emas 19009
ü 18986
210 18975
î@@ 18963
Siv@@ 18961
burg@@ 18944
rech@@ 18903
isp@@ 18896
175 18882
protest@@ 18874
ä 18864
17,@@ 18856
Ál@@ 18832
15,@@ 18820
ý 18796
partition 18780
124 18762
dea 18743
mash@@ 18740
pas 18740
oza 18734
asser 18732
Anh@@ 18700
Kop@@ 18696
vania 18688
vat@@ 18679
XIII 18663
villa 18662
arina 18619
Lincol@@ 18605
Wah@@ 18574
õ@@ 18561
Kri@@ 18549
ē@@ 18531
ision@@ 18529
Qualif@@ 18522
tige 18511
118 18507
You@@ 18507
ios 18496
58@@ 18494
Restaur@@ 18468
semble 18462
font 18458
ég@@ 18456
Su 18448
urban@@ 18446
chez 18435
ün@@ 18421
Form 18387
dav@@ 18360
Chu@@ 18350
Lo 18313
Grec@@ 18291
Muh@@ 18284
Es 18246
uf 18233
mani 18194
eles 18172
′ 18160
Fren@@ 18154
arro@@ 18153
Werner 18150
ande 18149
otom@@ 18141
@ 18095
Dah@@ 18094
sei 18090
Den 18084
Wen@@ 18080
Martínez 18052
USD 18051
uku 18047
Gut@@ 18045
Fernández 18030
toria 18027
Margar@@ 18020
Haf@@ 18016
59@@ 17996
ş@@ 17978
pour 17977
Xu@@ 17966
benz@@ 17961
berto 17960
geh@@ 17947
Neb@@ 17936
ø 17921
230 17913
isco 17888
XV 17887
yas@@ 17880
Version 17876
Pseud@@ 17861
ici 17850
arn 17847
Hay 17834
anto 17834
Nis@@ 17810
bare 17794
67@@ 17754
bre 17750
» 17741
udo 17717
beginn@@ 17716
onale 17702
éli@@ 17698
Dres@@ 17672
Fé@@ 17670
Oy@@ 17665
NCA@@ 17659
Ligue 17658
communes 17631
Wolfgang 17602
Gott@@ 17591
guer@@ 17590
alier 17582
hausen 17566
pour@@ 17557
119 17552
eger 17522
Ef@@ 17519
Si 17515
Bremen 17497
kay@@ 17491
umba 17491
k.@@ 17488
Fati@@ 17473
yar 17460
Pek@@ 17450
66@@ 17445
urus 17445
isto 17439
ymnasium 17420
23,@@ 17385
« 17380
costa 17358
Haus@@ 17346
hep@@ 17345
enst@@ 17320
quel@@ 17320
Ş@@ 17319
icio 17315
poin@@ 17306
orie 17304
illi 17302
Zürich 17291
lib@@ 17289
Eduardo 17264
nin 17247
plu@@ 17246
Hyp@@ 17236
Ø@@ 17229
dici@@ 17227
117@@ 17220
Bahn 17220
Württemberg 17185
Nel@@ 17165
Pf@@ 17164
99@@ 17137
tivo 17132
enas 17122
ə@@ 17092
edia 17059
arab@@ 17017
XIV 17015
astron@@ 16978
rom 16968
Segunda 16962
113@@ 16955
ceph@@ 16954
andan 16931
18,@@ 16925
trat@@ 16923
onda 16922
ź 16919
aires 16917
alle 16897
enz 16896
edra 16887
Kaiser 16871
550 16847
Tek@@ 16844
üt@@ 16844
129 16832
145 16818
essen 16817
nen 16816
garde 16778
Eis@@ 16772
seu@@ 16768
paci@@ 16756
Ost@@ 16753
tum 16740
Gran 16736
än@@ 16721
320 16690
inen 16679
augment@@ 16656
anl@@ 16635
20,@@ 16628
ros 16627
jas 16620
Berg 16578
yen 16577
ladi@@ 16573
XVI 16567
stil@@ 16566
troph@@ 16542
Franç@@ 16540
sag@@ 16534
Harv@@ 16525
Baba 16523
Universit@@ 16511
Gymnasium 16489
canti@@ 16473
650 16470
anco 16430
echt 16426
corresp@@ 16424
Wrest@@ 16421
Yaz@@ 16398
apr@@ 16372
132 16371
nac@@ 16369
Soh@@ 16341
nis@@ 16337
vez 16336
116@@ 16327
eki 16322
् 16304
erra 16303
--@@ 16295
Ere@@ 16280
ole@@ 16280
tienne 16274
114@@ 16254
sement 16252
esha 16249
diffus@@ 16246
En 16245
Sa 16245
→ 16234
ted@@ 16233
uvent@@ 16233
mah@@ 16227
Ich@@ 16226
lea 16221
inden 16218
kina 16203
Müller 16201
ș 16200
gus@@ 16197
manifest@@ 16190
fest 16169
ambo 16166
Thé@@ 16159
Quer@@ 16156
Esc@@ 16149
adas 16148
Hr@@ 16139
155 16076
Jim@@ 16058
tera 16041
zon 16041
Chu 16027
XX 16027
Biz@@ 15988
dest@@ 15963
Martín 15959
roman@@ 15950
tura 15950
atrice 15917
bahn 15917
oya 15911
bao 15907
270 15898
deg@@ 15885
fines 15874
260 15841
nig@@ 15826
Alej@@ 15815
nationale 15789
Sainte 15765
wagen 15765
amu 15758
tista 15743
bil 15732
1700 15726
tidae 15726
280 15708
Teatro 15704
Casa 15687
endorf 15679
Ba 15672
Castil@@ 15671
Ban 15670
SG 15662
xin 15630
tras 15614
uti 15592
Laurent 15569
egel 15539
entes 15526
ajo 15503
rah@@ 15477
aras@@ 15459
Minn@@ 15456
amor@@ 15444
Bib@@ 15443
ayr@@ 15435
oti 15433
simpl@@ 15419
Québec 15417
Mün@@ 15401
mann@@ 15396
aban 15391
Mim@@ 15325
onen 15309
lus 15307
gaz@@ 15305
Sur 15288
gu 15284
Inh@@ 15283
Mek@@ 15275
éc@@ 15271
tenant 15260
μ@@ 15260
nez 15249
19,@@ 15237
âteau 15218
icum 15215
alc@@ 15212
ende 15211
Alexandre 15209
mara 15199
Un 15179
hay@@ 15173
oine 15120
aup@@ 15118
bibli@@ 15115
mez 15115
ime@@ 15104
sap@@ 15104
indu@@ 15103
KK 15088
ebook 15083
Uy@@ 15030
lich 15019
Hamb@@ 15017
Famili@@ 15014
arak 15009
Aster@@ 15000
encia 14985
Enrique 14975
nm 14970
partment 14963
és@@ 14960
uto 14956
dig 14951
ción 14938
zia 14915
lang@@ 14912
undo 14906
Seb@@ 14904
adio 14904
omp@@ 14900
Dé@@ 14896
Universidad 14889
rés 14886
isen 14876
sak@@ 14836
yer@@ 14823
bah@@ 14802
Sin 14796
ël 14762
exclus@@ 14755
pays 14747
zar 14745
acha 14730
adel@@ 14681
hui 14670
ulia 14669
endi 14658
Rug@@ 14614
onc@@ 14598
330 14583
Ż@@ 14581
à@@ 14571
Nou@@ 14569
quel 14553
disco 14544
tur 14530
erre 14528
Wash@@ 14523
chia 14519
critique 14495
sol 14489
ça 14478
its@@ 14456
opa 14456
tav@@ 14444
vel 14405
enga 14399
mam@@ 14368
mitt@@ 14366
Depor@@ 14352
etc. 14349
obi 14348
chs 14345
22,@@ 14328
umen 14328
haus 14315
äl@@ 14303
hall@@ 14301
Río 14281
ő@@ 14267
divis@@ 14261
Felipe 14259
Sta@@ 14237
plaza 14236
BK 14234
upe 14228
sten@@ 14224
Campeonato 14220
21,@@ 14217
Ó@@ 14204
hin 14166
anca 14150
Seine 14142
Cô@@ 14129
Düssel@@ 14127
å 14115
atori@@ 14113
té 14074
Sich@@ 14068
anni 14064
commen@@ 14060
kop@@ 14055
éri@@ 14025
amia 14013
wart 14011
cas 14001
gru@@ 13993
finaliz@@ 13984
Stadi@@ 13983
état 13944
Edu@@ 13930
Kauf@@ 13914
ogne 13911
Institut 13910
Alfre@@ 13905
owa 13898
arse 13882
acio 13876
Ya 13875
152 13869
ede@@ 13841
ehr 13823
pom@@ 13818
Urugu@@ 13794
yok@@ 13783
Ges@@ 13773
portant 13763
eiro 13747
Wehr@@ 13715
ées 13713
Gest@@ 13697
folia 13693
taine 13669
ʿ@@ 13660
atu@@ 13659
vy@@ 13656
Feld@@ 13652
Sol 13627
Ili@@ 13625
Mustafa 13604
Bundes@@ 13602
ò 13600
oja 13586
Bayern 13575
oire 13565
estro 13554
Sé@@ 13551
sir@@ 13542
refle@@ 13522
ival@@ 13517
alto 13516
Eliz@@ 13513
Fré@@ 13493
afa 13478
kun@@ 13470
Zer@@ 13457
Cen@@ 13455
ebu 13453
ophyl@@ 13421
Serv@@ 13411
lé@@ 13402
Spor@@ 13373
sans 13362
Æ@@ 13359
eza 13357
rang 13312
Minh 13273
GmbH 13249
NGC 13240
Gusta@@ 13235
onte 13211
đ@@ 13204
relativ@@ 13194
oise 13187
mis 13181
iba 13170
altitu@@ 13164
idas 13164
Kaf@@ 13162
lieu 13154
laz@@ 13152
sage 13140
erk@@ 13138
seau 13131
Bez@@ 13128
lik 13127
ül@@ 13124
Wilhel@@ 13106
25,@@ 13099
ombe 13098
mez@@ 13093
wig 13072
§ 13071
aat 13064
Jug@@ 13062
sala 13049
enant 13042
† 13037
ité 13029
Ehr@@ 13028
26,@@ 13019
vio 13007
Mai 12996
mut 12974
Engl@@ 12966
Reichs@@ 12962
vivi@@ 12942
selves 12937
onz@@ 12932
utz 12925
Kant@@ 12909
Nam 12908
kap@@ 12904
lique 12893
pu 12881
Áng@@ 12872
rejo@@ 12861
evi 12854
ulo 12853
eil@@ 12830
21@@ 12824
aina 12823
iku 12821
tech@@ 12815
Regi@@ 12803
Î@@ 12803
arte 12791
wand@@ 12784
Bek@@ 12777
angel@@ 12769
ác@@ 12768
Loire 12740
Nach@@ 12729
hr 12729
okia 12722
Ú@@ 12709
hab 12680
sali@@ 12680
drei 12676
Haute 12655
4000 12654
Hier@@ 12647
straße 12641
ône 12633
gut 12614
topl@@ 12604
usi 12603
aifa 12598
propose 12596
uso 12579
tem 12566
eil 12550
É 12546
km@@ 12539
ías 12524
alen 12516
Zw@@ 12502
iso 12493
engo 12492
Ó 12459
Córdoba 12452
endo 12452
kt 12452
dient 12449
Graf@@ 12447
ait@@ 12440
nea 12432
± 12430
kö@@ 12428
Assemb@@ 12425
König@@ 12385
gel 12385
öh@@ 12379
Valle 12378
roqu@@ 12365
Viz@@ 12358
utu 12358
év@@ 12358
sovi@@ 12345
ł 12343
provoc@@ 12323
lie@@ 12321
uel 12317
anot@@ 12297
endel@@ 12285
Montr@@ 12270
sif 12266
América 12253
persona 12252
Hai 12247
chev@@ 12238
ė 12232
ange@@ 12222
tir 12217
24,@@ 12211
alth 12190
Centro 12182
tien 12177
sey@@ 12168
ández 12168
kus@@ 12166
malar@@ 12163
divers 12141
empl@@ 12129
optera 12106
pio 12085
pal 12079
travers@@ 12079
yat 12079
bern@@ 12065
bonne 12057
27,@@ 12038
Festiv@@ 12015
Para 12003
SPD 11996
1300 11991
aku@@ 11972
bron@@ 11969
380 11942
iken 11933
eren 11923
hay 11884
disci@@ 11860
Ankara 11852
abi@@ 11845
Ruh@@ 11837
Unter@@ 11837
Dies@@ 11825
Heil@@ 11822
afi 11814
sdorf 11796
Kara 11787
Bev@@ 11786
Gün@@ 11786
embar@@ 11783
ometr@@ 11774
macht 11766
Schleswig 11765
Norte 11746
his@@ 11743
Société 11741
kaya 11719
Fak@@ 11692
imar@@ 11683
Mez@@ 11676
è 11662
Ā@@ 11661
emo 11646
jaw@@ 11639
icos 11636
ı@@ 11628
esen 11619
tai 11605
paral@@ 11588
eig@@ 11564
jam@@ 11561
quay 11560
yap@@ 11560
bul 11553
Nairobi 11511
atz 11511
Ort@@ 11499
muz@@ 11488
roy@@ 11472
enti 11464
riff 11461
thu 11454
Ung@@ 11446
México 11427
indi 11424
auf@@ 11418
Bey 11412
estruc@@ 11406
wam@@ 11404
iste 11398
maf@@ 11389
duk@@ 11385
mont@@ 11371
maz@@ 11358
Renn@@ 11319
program@@ 11305
Trich@@ 11301
ose@@ 11299
Kib@@ 11296
iku@@ 11283
iwa 11277
abb@@ 11261
igne 11255
ṣ@@ 11241
1400 11230
doch 11220
alar 11206
naci@@ 11187
omba 11180
atos 11179
teur 11178
argent 11176
wad@@ 11170
cola 11168
eim@@ 11159
isse 11156
lage 11154
Tari@@ 11140
scar 11121
ß 11089
onship 11084
éal 11079
bara 11073
üb@@ 11070
Vladi@@ 11067
assen 11050
Ai 11030
Rhein@@ 11028
ḥ@@ 11016
sci@@ 11004
usha 10995
Schl@@ 10994
leist@@ 10993
Klo@@ 10992
Dar 10985
Wur@@ 10985
Kirch@@ 10983
adam@@ 10973
Arth@@ 10958
Académie 10954
Brasil 10949
Singapo@@ 10939
ilde 10930
Kais@@ 10928
Dop@@ 10907
ôme 10905
arrondissement 10901
hala 10896
bez@@ 10889
Gör@@ 10887
ffen 10878
tah@@ 10857
pers@@ 10854
azo 10850
verb@@ 10833
anthus 10831
chn@@ 10822
ß@@ 10804
″ 10787
kim@@ 10778
umbo 10762
Inform@@ 10754
Dollar 10746
hof 10744
bres 10740
champ@@ 10731
schule 10711
Ciudad 10703
lil@@ 10700
Git@@ 10693
inci 10691
scher 10658
Cá@@ 10654
iki@@ 10643
Loan 10638
Guillaume 10635
phi 10631
érie 10623
eaux 10616
tet 10605
bey@@ 10592
eget@@ 10589
Univers@@ 10588
elos 10586
ikan@@ 10574
ė@@ 10567
ṭ@@ 10555
umi@@ 10546
gos 10528
inde 10512
Deutsch@@ 10497
fern 10493
bir 10482
atz@@ 10481
י@@ 10480
UE@@ 10464
kas@@ 10462
egen 10454
verw@@ 10431
utilis@@ 10427
mich@@ 10419
Hoch@@ 10405
wala 10402
ecia 10386
Ayr@@ 10376
Wald@@ 10376
fak@@ 10376
mot 10367
Schi@@ 10363
`@@ 10342
dil 10336
ld 10334
imba 10329
yaz@@ 10329
kari 10320
kt@@ 10318
Rez@@ 10300
auff@@ 10292
ayi 10291
zw@@ 10271
cu 10266
atur 10241
zel@@ 10235
fen 10233
Papa 10217
Mia 10216
obr@@ 10212
yam@@ 10182
Braun@@ 10173
sang@@ 10173
uela 10162
franc@@ 10154
mens@@ 10148
omen 10137
inh 10115
cic@@ 10111
brun@@ 10102
pia 10102
Museo 10085
Kinder@@ 10078
Ecu@@ 10075
nun 10053
who@@ 10048
ğ@@ 10042
ţ@@ 10042
recht 10041
tiques 10040
burger 10038
itr@@ 10033
ickl@@ 10032
ilan 10030
det 10006
eko 10002
inz@@ 9998
Wab@@ 9991
Situ@@ 9988
baz@@ 9985
kim 9974
Elek@@ 9973
isses 9971
Politi@@ 9969
ück 9959
Ago@@ 9952
İ@@ 9943
Paragu@@ 9923
achen 9904
sai 9884
inner@@ 9879
Grab@@ 9849
âtre 9848
bald 9837
ray@@ 9834
zin 9816
Lü@@ 9805
Probl@@ 9774
fah@@ 9772
ismo 9772
oyn@@ 9772
oder 9762
Hist@@ 9743
nos 9725
ì 9718
ingen@@ 9671
ŏ@@ 9669
Nguyễn 9661
Telev@@ 9640
awe 9640
Lai 9639
tero 9631
etts 9617
undi 9617
meister 9614
Lux@@ 9591
ien@@ 9588
ṇ@@ 9580
timents 9555
Kik@@ 9550
illet 9547
ý@@ 9544
ingia 9526
் 9512
Napo@@ 9486
│ 9481
icht 9472
erh@@ 9461
Nieder@@ 9460
tigen 9459
yal 9442
inin 9439
commence 9433
orf 9425
riff@@ 9424
esper@@ 9418
vir 9414
Instituto 9399
jet@@ 9397
Kup@@ 9394
dur 9389
mf@@ 9385
Coupe 9375
Kran@@ 9366
egem@@ 9335
Spiel@@ 9332
luk 9330
Université 9323
ded@@ 9316
sich@@ 9315
aises 9314
ו@@ 9300
istem@@ 9276
^ 9272
algo 9272
Rund@@ 9266
Stoc@@ 9259
gal 9258
ppe 9257
arias 9237
España 9236
anak@@ 9233
marqu@@ 9221
Lö@@ 9218
giz@@ 9218
ún 9217
leur 9216
ambi 9213
yen@@ 9212
Desp@@ 9200
enk@@ 9198
udi 9195
echo 9189
Mara 9170
naz@@ 9168
statisti@@ 9165
ungs@@ 9159
sti 9158
pis@@ 9144
utz@@ 9139
igen 9138
elas 9133
efe 9132
plut@@ 9078
Erebidae 9075
wah@@ 9065
Ame@@ 9045
Theo 9045
Schn@@ 9033
2500 9032
Kent@@ 8991
cid@@ 8984
aji@@ 8982
Guin@@ 8972
tels 8969
zt 8961
opol@@ 8940
pant@@ 8934
klin 8919
Vita 8915
itung 8895
Haupt@@ 8883
Como 8880
regres@@ 8876
aum 8857
daf@@ 8848
ip 8828
eigen@@ 8827
Se 8822
estre 8822
Geb@@ 8818
Anc@@ 8812
condu@@ 8792
ouvre 8790
Kiy@@ 8782
azu 8777
Ital@@ 8771
Actu@@ 8766
Queens@@ 8751
enden 8751
zur 8747
Stad@@ 8746
Califor@@ 8744
Graf 8741
fond@@ 8733
kam 8723
noch 8720
alam@@ 8716
nom 8715
gyp@@ 8708
iran 8704
erer 8699
dans 8671
erin 8664
Anto@@ 8657
ingi@@ 8641
kent 8637
Ș@@ 8633
kat 8618
entren@@ 8612
Christoph@@ 8607
Jesús 8602
cole 8592
lois 8590
tros 8590
Ü@@ 8585
éra 8585
ı 8584
rue 8578
Occ@@ 8555
group@@ 8546
tig 8542
onidae 8540
Dek@@ 8535
Tanz@@ 8529
wich@@ 8514
iler@@ 8486
neu@@ 8484
ío 8475
Wür@@ 8466
rö@@ 8454
Thu@@ 8445
Sü@@ 8443
ateurs 8438
jah@@ 8433
zur@@ 8431
pop@@ 8425
kip@@ 8422
Geometridae 8415
lichen 8415
Mart 8403
alta 8396
Nür@@ 8382
tima 8379
tung 8369
auch@@ 8364
ata@@ 8362
americana 8357
ellen 8350
veau 8334
Position 8328
Bey@@ 8325
amos 8322
aille 8316
Yen@@ 8290
fili@@ 8283
Gord@@ 8252
umo 8252
Sow@@ 8242
haf@@ 8235
mw@@ 8222
Vak@@ 8213
Ab 8198
zem@@ 8192
aki@@ 8182
ellas 8177
Ent@@ 8173
tek 8172
dik@@ 8168
hio 8167
hie 8161
unde 8161
début 8159
istas 8152
Giov@@ 8139
brach@@ 8130
dek 8130
Ave@@ 8113
Í@@ 8108
uko 8105
Jap@@ 8090
Munici@@ 8085
Guatem@@ 8080
Academia 8069
eon@@ 8063
aum@@ 8060
oras 8055
kav@@ 8053
jos 8039
vière 8036
icro@@ 8003
ehem@@ 8001
tiva 8001
Nueva 7996
Virgin@@ 7993
tam 7957
quan 7956
ól@@ 7944
kre@@ 7943
Tier@@ 7940
formes 7933
wani 7930
Fest@@ 7924
bois 7918
Burundi 7916
yla 7914
ã@@ 7914
auf 7912
rem 7895
cara 7893
enos 7892
sine 7892
û@@ 7891
antu 7882
Quan 7880
trich@@ 7878
stad@@ 7877
jit@@ 7874
schaft 7874
hak 7863
oku@@ 7863
Erd@@ 7845
ét@@ 7835
ät@@ 7820
lina 7814
emba 7811
oğlu 7799
philos@@ 7796
Ni 7777
kut@@ 7777
nad@@ 7761
Apr@@ 7754
mite 7749
aham@@ 7732
Guill@@ 7728
perten@@ 7723
Historia 7716
aft@@ 7714
weg 7712
Nh@@ 7711
Wach@@ 7709
lub 7696
wana 7686
kum 7681
tik 7680
osha 7675
1. 7666
wie 7662
issen 7655
sept 7651
Sos@@ 7643
Sud 7641
Est 7637
pf@@ 7635
eos 7633
Alem@@ 7630
Geh@@ 7627
etas 7626
lek@@ 7626
Wiener 7622
Für@@ 7611
Españ@@ 7607
Rek@@ 7605
Landes@@ 7598
Wien 7591
Nguy@@ 7589
aday 7585
mau@@ 7583
Gü@@ 7568
kali 7559
ép@@ 7558
empres@@ 7549
Öz@@ 7546
lez 7542
tier@@ 7537
oten 7536
brit@@ 7524
rique 7503
Mal 7494
ös@@ 7491
opo 7487
α@@ 7486
aí@@ 7484
Grupo 7475
üm@@ 7469
aliy@@ 7467
ê 7455
unat@@ 7426
lieb 7425
eden@@ 7420
Ark@@ 7410
mai 7408
iny@@ 7402
ò@@ 7392
Grund@@ 7379
uten 7371
venes 7371
µ@@ 7371
itali@@ 7364
onie 7358
Rus 7354
elek@@ 7353
yab@@ 7346
aben 7329
orden 7329
ug 7329
neur 7325
aje 7320
austr@@ 7320
isel 7318
uer 7317
furt 7294
Elis@@ 7291
zog 7285
nach 7277
Konstant@@ 7274
otra 7270
aill@@ 7268
uza 7266
ücken 7261
ù 7249
Regional@@ 7245
Mb@@ 7243
XVIII 7242
avent@@ 7241
lí@@ 7208
puls@@ 7201
tarak@@ 7191
ungen 7190
taire 7188
üh@@ 7185
Kunst@@ 7180
Þ@@ 7175
Paci@@ 7172
hier 7170
liche 7168
tish@@ 7155
teri 7141
agno@@ 7130
wali 7128
itos 7117
Mei 7110
gazet@@ 7104
nay 7104
zek@@ 7102
petite 7099
ampi@@ 7091
kri@@ 7087
Ä@@ 7059
Noctuidae 7057
Ener@@ 7056
tehsil 7053
Hamil@@ 7051
bras 7033
alem@@ 7031
yol@@ 7029
Hannover 7014
Mw@@ 7013
eler@@ 7011
ayak@@ 7009
porte 7007
izi 6988
cera 6981
graf@@ 6975
198@@ 6974
werk 6965
dini 6963
Sevilla 6960
venir 6954
Dok@@ 6939
hii 6939
afr@@ 6938
git@@ 6934
Lan 6926
iten@@ 6924
azine 6912
Sie@@ 6910
Herb@@ 6901
platz 6897
Kip@@ 6883
eño 6881
tek@@ 6879
sens 6874
Guerra 6858
imler 6851
eski 6849
ayar@@ 6846
tín 6846
kana 6845
andes 6836
nj@@ 6831
schwe@@ 6806
erb@@ 6792
odo 6791
tik@@ 6788
Internacional 6784
qu 6784
rence 6770
大@@ 6767
ifu 6763
stark 6757
Una 6753
mé@@ 6746
prit 6744
egio 6741
atura 6738
dér@@ 6720
Alpes 6706
Alman@@ 6703
amani 6699
buts 6684
dire 6684
tsch@@ 6675
recuper@@ 6666
cet 6661
herr@@ 6658
2. 6654
deur 6653
Liver@@ 6649
Musik 6647
ewa 6641
mana 6635
Uch@@ 6630
estar 6623
Tam 6620
tay@@ 6619
bé 6608
isches 6607
hud@@ 6604
Süd@@ 6600
mec@@ 6593
aub@@ 6589
Señ@@ 6579
leh@@ 6576
Arsen@@ 6575
ç 6573
ibu 6572
ombo 6569
odi 6566
leri 6563
èse 6561
Sov@@ 6553
lı 6553
isión 6548
Zwe@@ 6545
wehr 6542
Pé@@ 6540
Kari@@ 6524
ón@@ 6520
indo 6497
uw@@ 6491
ő 6488
Groß@@ 6485
ève 6480
Nouvelle 6478
Fot@@ 6468
ô 6466
gebr@@ 6463
Mosk@@ 6462
yav@@ 6455
aş@@ 6446
fie 6444
kia 6443
paro@@ 6440
ngh@@ 6432
çon 6421
endro@@ 6420
Frit@@ 6418
insan@@ 6411
Waz@@ 6410
ž 6408
Elle 6407
evin 6407
istin 6405
gemeinde 6404
anay@@ 6392
arca 6385
γ 6380
auch 6379
ensa 6378
gart 6375
mak 6370
publi@@ 6363
seur 6363
Oly@@ 6359
adores 6355
pak@@ 6350
Trab@@ 6342
umu 6331
.-@@ 6328
oslav@@ 6321
protég@@ 6312
Musik@@ 6310
né 6309
Diy@@ 6308
ancia 6308
elen@@ 6298
nek 6288
khi 6287
‑ 6280
Né@@ 6267
ş 6265
ologie 6264
Rech@@ 6260
ã 6256
Stadt@@ 6254
asim@@ 6250
funk@@ 6249
Zanzibar 6245
jia 6239
Mp@@ 6238
dad@@ 6234
́ 6232
ablo 6227
Gesellschaft 6206
lak 6204
192@@ 6203
trib@@ 6200
erte 6184
Au 6174
wann 6170
enen 6169
clav@@ 6166
tei 6166
eş@@ 6161
anchi 6155
lai 6155
führer 6154
izo 6143
zis@@ 6140
cathol@@ 6132
Unión 6130
Klein@@ 6125
Hö@@ 6123
jap@@ 6109
olay@@ 6105
Stif@@ 6096
èle 6077
Dez@@ 6074
lieg@@ 6074
apti@@ 6071
barrio 6070
ın 6068
ustri@@ 6051
tere 6041
Best@@ 6040
ön 6037
Öster@@ 6033
zig 6028
issi@@ 6022
heit 6019
üs@@ 6019
endas 6015
Akad@@ 6012
ondo@@ 5998
lac 5995
akawa 5982
Heim@@ 5961
Berliner 5960
unas 5959
lista 5956
yani 5950
Este 5946
Hochschule 5921
chini 5910
ecke 5910
ppi 5910
´ 5909
tés 5908
rek@@ 5907
stein@@ 5903
hasa 5897
zas 5897
stir 5881
Erz@@ 5877
anach@@ 5870
iza 5868
una@@ 5868
Stim@@ 5856
sych@@ 5852
embargo 5849
hali 5846
fab@@ 5844
imbo 5843
monde 5822
waf@@ 5807
bé@@ 5802
onio 5792
Estudi@@ 5791
ansa 5791
soy@@ 5777
sche@@ 5776
Rö@@ 5775
Partido 5771
antas@@ 5767
aï@@ 5766
Champi@@ 5763
ר@@ 5763
ņ@@ 5761
æ 5759
Bas 5750
bere@@ 5750
cadre 5740
Schwe@@ 5739
----@@ 5737
unu 5733
érieure 5733
Premio 5726
Vier@@ 5722
mern 5718
nig 5716
Ḥ@@ 5705
pero 5682
eja 5681
adhi 5676
א@@ 5661
fig 5660
lemente 5658
ahn@@ 5657
hava 5649
ա@@ 5646
Ih@@ 5638
nah@@ 5635
tillo 5631
Santi@@ 5630
ň 5630
xim@@ 5629
äs@@ 5625
、 5610
oren 5606
Staats@@ 5594
Feb@@ 5589
Galatasaray 5579
aume 5573
mee 5571
Stell@@ 5556
ibi 5549
Yoh@@ 5546
éd@@ 5543
ème 5541
entos 5539
ché 5536
anz 5534
baller 5516
ré 5511
éro@@ 5511
Bü@@ 5510
uren 5510
eit@@ 5509
¥ 5501
íos 5501
inu 5500
sola 5495
Publi@@ 5488
cula 5471
azz 5469
Köln 5467
abra 5459
Kriegs@@ 5438
λ 5436
sik@@ 5422
sek 5419
bang 5416
π 5412
XIX 5409
kaz@@ 5396
mm@@ 5381
leben 5379
isti 5377
usse 5375
Dich@@ 5369
Parti 5369
usu 5362
portes 5352
Ej@@ 5346
iw@@ 5346
Ein 5344
ź@@ 5341
yans@@ 5326
Macar@@ 5319
aña 5314
Siy@@ 5308
éo 5305
Seh@@ 5300
村 5300
β@@ 5296
onnat 5292
schen 5292
Mehr@@ 5291
ð 5287
Kreuz@@ 5282
avu 5278
lig 5277
XVII 5269
stel@@ 5262
ög@@ 5259
Nair@@ 5242
istes 5241
qué 5241
Bö@@ 5237
yor@@ 5237
Lê 5227
table@@ 5227
xu@@ 5217
affen 5211
uu 5207
leo 5198
Mehmet 5195
buch 5192
éch@@ 5191
nhof 5186
fera 5180
Uk@@ 5172
Bei 5170
château 5162
Grün@@ 5161
hari@@ 5155
française 5147
taş 5141
œ@@ 5140
ense@@ 5132
asse@@ 5126
onge@@ 5122
Durant 5120
iliano 5117
donn@@ 5115
adora 5112
èque 5112
Schwer@@ 5109
laya 5109
General@@ 5107
novi@@ 5106
Yard@@ 5102
aka@@ 5102
Müh@@ 5100
izi@@ 5096
dó@@ 5095
Sociedad 5091
Funk@@ 5079
chos 5075
iten 5075
Tierra 5073
dung 5069
quier 5067
secu@@ 5067
₹ 5065
mars 5063
Uru@@ 5057
lern 5055
Deutschland 5043
Schloss 5042
atif 5042
consecu@@ 5037
Rä@@ 5036
ungo 5036
Bu 5032
מ@@ 5029
Sist@@ 5025
Fútbol 5023
Tube 5022
eso 5021
gesch@@ 5018
Gé@@ 5017
c. 5008
lares 5004
doğan 4999
agnie 4998
Sult@@ 4997
ónica 4994
Tsch@@ 4989
emu 4989
anh 4984
σ 4984
envoy@@ 4981
äh@@ 4979
lanc@@ 4972
Ivoire 4968
estas 4967
Verlag 4966
kön@@ 4957
deu@@ 4955
rég@@ 4948
mano 4946
Kig@@ 4945
asit@@ 4942
Wasser@@ 4940
Straße 4937
kend@@ 4933
omel@@ 4933
hoch@@ 4922
eten 4919
yay@@ 4917
Pays 4916
dern 4916
zor@@ 4916
ivo 4915
fusi@@ 4902
eden 4901
bü@@ 4895
mé 4895
ε 4895
bau 4894
Gruppe 4893
3. 4886
gü@@ 4884
Frei@@ 4883
kwa 4879
angu 4874
Holz@@ 4872
yet@@ 4863
wap@@ 4858
Andro@@ 4839
tad 4837
Carrera 4818
Qué@@ 4818
divi@@ 4816
äm@@ 4816
kio 4815
marque 4815
‐ 4814
anah@@ 4802
arten 4795
département 4792
gol 4792
ngu@@ 4783
Salaam 4782
iß@@ 4778
ulan 4777
verein 4777
inco 4775
monte 4775
dak@@ 4771
hac@@ 4769
Bisch@@ 4759
Zeit@@ 4757
anzi 4752
etten 4741
μ 4741
ω 4737
Fenerbahçe 4734
ischen 4732
waka 4730
Staff@@ 4727
nuc@@ 4726
seig@@ 4725
mik@@ 4719
州 4699
iç@@ 4698
Aun@@ 4697
ē 4697
hosp@@ 4695
endre 4694
inay@@ 4693
schrift 4691
Hek@@ 4684
Văn 4682
ubic@@ 4681
ב@@ 4680
embe 4678
amt 4675
kani 4675
≤ 4670
anst@@ 4663
elde 4657
huy@@ 4655
jen@@ 4650
ï 4646
maz 4638
kreis 4633
Wali@@ 4632
zil@@ 4631
ל@@ 4630
і@@ 4627
cá@@ 4622
ém 4617
tif 4608
pewa 4606
Fach@@ 4602
waj@@ 4599
pera 4597
„ 4594
Schles@@ 4591
ân 4589
Haus 4582
premiers 4570
tof@@ 4570
sé@@ 4568
ḍ@@ 4566
enca 4565
Span@@ 4551
cartes 4549
4. 4548
imini 4547
ingi 4545
wahili 4542
eben 4541
äger 4541
Ḩ@@ 4539
edad 4532
Δ@@ 4525
Bình 4515
gö@@ 4512
är 4511
ağ@@ 4509
Gast@@ 4498
Mittel@@ 4497
ße 4497
iria 4480
Ć@@ 4480
cina 4479
pier@@ 4477
ın@@ 4475
Việt 4473
Universität 4471
etu 4470
Trần 4457
Im 4445
proven@@ 4445
uzi 4444
ukw@@ 4443
Sơn 4439
baj@@ 4438
jed@@ 4438
esqu@@ 4437
Bir 4436
spor 4434
Thanh 4432
kah@@ 4430
№ 4423
pendiente 4421
trit@@ 4406
ım 4400
för@@ 4397
tena 4396
ús@@ 4390
atta@@ 4381
orta 4376
lek 4373
rá@@ 4370
ín@@ 4368
zim@@ 4365
³ 4363
Arap@@ 4356
ık 4347
edil@@ 4341
erste 4330
Ahmet 4328
ungu 4318
ì@@ 4314
cil@@ 4306
encore 4303
≥ 4303
eser@@ 4297
mt@@ 4296
wiki 4294
Woh@@ 4290
sana 4288
Norman@@ 4280
Lehr@@ 4278
lige 4275
Ö 4274
iges 4271
Osman@@ 4266
hali@@ 4260
sous 4258
atür@@ 4254
egos 4244
âte@@ 4244
Suisse 4243
kura 4239
ος 4230
seh@@ 4225
ucky 4224
wur@@ 4221
Atl@@ 4217
Escuela 4214
adet 4210
ezi 4210
reo 4204
Histoire 4203
sos@@ 4199
ký 4198
ğ 4195
ambre 4181
ש@@ 4181
íncipe 4176
ık@@ 4176
Castilla 4173
mab@@ 4173
Estado 4172
Russ@@ 4170
sept@@ 4164
entre 4161
İzmir 4161
anat@@ 4156
ů@@ 4151
Frau@@ 4148
ー@@ 4145
Sonder@@ 4144
Alter 4141
unia 4139
ndi@@ 4136
ś 4135
sera 4132
idos 4130
alya 4129
rir 4122
çal@@ 4121
chas 4115
Beş@@ 4114
þ@@ 4114
pendant 4112
wali@@ 4110
cht@@ 4107
ête 4098
ús 4098
jou@@ 4093
üc@@ 4091
Finale 4088
iye 4088
δ 4085
് 4083
Amt 4073
lors 4072
atik 4062
Tanganyika 4061
fica 4060
θ 4059
ume@@ 4052
München 4050
bom 4047
dah@@ 4047
ispo 4044
Wahl@@ 4035
anzo 4023
Yay@@ 4019
ה@@ 4018
haya 4016
tiy@@ 4014
forte 4013
rí@@ 4012
Kreis 4010
া@@ 3999
Krieg@@ 3989
schen@@ 3985
úa 3985
angen 3980
envir@@ 3979
ütz@@ 3969
oteca 3960
vik@@ 3953
ň@@ 3953
Conseil 3951
ambu@@ 3950
DDR 3946
ḩ@@ 3946
Gül@@ 3942
Pia 3942
neh@@ 3940
homme 3937
isim@@ 3933
sau 3932
nek@@ 3931
ßen 3931
Ley 3928
huri 3925
yse 3918
ù@@ 3915
rien 3908
constru@@ 3904
éni@@ 3904
נ@@ 3890
reich 3889
ț 3887
Kunst 3879
osu 3876
ejec@@ 3873
trik 3865
kirche 3861
isra@@ 3859
europ@@ 3854
Ce 3852
ví@@ 3848
japon@@ 3816
amor 3815
prak@@ 3814
Luft@@ 3811
¼ 3810
illos 3808
yote 3807
kuk 3805
Hü@@ 3802
bele 3792
Ferdin@@ 3789
Tod 3787
ǎ@@ 3784
® 3783
Å 3780
Führ@@ 3772
Lig 3768
kub@@ 3767
Waj@@ 3757
schi@@ 3756
Quang 3755
äng@@ 3755
msh@@ 3754
Kapit@@ 3752
año 3748
pá@@ 3745
kale 3739
ə 3739
roi 3730
Muhammed 3722
igos 3722
ück@@ 3713
honneur 3711
ifa 3705
Fuer@@ 3704
ñas 3696
fang@@ 3687
ücke 3687
mek@@ 3677
Ms@@ 3675
Produ@@ 3674
primer 3673
lui 3672
lama 3668
ν 3661
Pub@@ 3660
eci 3659
reib@@ 3659
grande 3658
kem@@ 3658
Gia 3654
Famil@@ 3653
atro 3650
doba 3639
meng@@ 3636
icha 3634
aciones 3632
Yıl@@ 3630
sociation 3630
dida 3625
sanat@@ 3622
emos 3611
eñ@@ 3611
autor@@ 3609
aş 3609
ngo@@ 3608
gruppe 3603
vier@@ 3603
spiel 3602
xima 3599
dido 3598
mains 3595
İstanbul 3590
espace 3587
─ 3584
yard@@ 3583
Deux 3580
leit@@ 3579
onu 3574
dej@@ 3573
sah@@ 3573
locales 3568
imiento 3565
bem@@ 3560
Hispania 3556
mita 3556
ır@@ 3547
schw@@ 3543
kamp@@ 3542
mando 3542
tepe 3538
indig@@ 3537
tep@@ 3537
φ 3534
1,2 3533
alim@@ 3532
pik 3525
isme 3524
ς 3524
forma 3522
Mississi@@ 3520
lá 3518
át 3518
Kreis@@ 3516
ichen 3514
hif@@ 3512
ativa 3510
ezo 3508
maya 3508
vu 3507
icht@@ 3506
ekt 3501
àn 3501
¡ 3500
î 3500
jard@@ 3496
yum 3494
ober@@ 3490
Quảng 3488
ogle 3488
quer 3487
5. 3485
ément 3484
ır 3481
abaj@@ 3477
ería 3475
Sommer@@ 3472
cual 3472
milieu 3469
roman 3465
∞ 3464
éré@@ 3463
aal@@ 3457
olu 3453
vak@@ 3452
Süper 3447
Guerre 3440
acqui@@ 3440
soll 3437
köy 3436
Ingen@@ 3433
Consejo 3429
ör 3422
reich@@ 3421
sortie 3420
ệm 3420
0.000 3419
Kü@@ 3418
Ouest 3416
libre 3414
Schiff 3399
Mär@@ 3398
öy 3397
の@@ 3396
ersch@@ 3395
seri 3391
fot@@ 3390
öz@@ 3389
ême 3387
weit@@ 3384
Olimpi@@ 3376
umia 3376
lege 3371
grup@@ 3370
Francia 3369
º 3369
Stadt 3366
â 3365
Por 3364
aray 3364
elik 3359
teria 3357
otz 3350
avec 3338
kup@@ 3335
Situation 3334
eln 3334
miento 3322
ilim@@ 3321
sek@@ 3319
envi@@ 3310
ŭ@@ 3310
atique 3306
urch 3301
tivi@@ 3297
ṃ@@ 3296
öd@@ 3281
Alab@@ 3276
cim@@ 3276
Ninh 3275
ération 3274
Ω 3268
gemein@@ 3267
afric@@ 3262
huo 3262
δ@@ 3253
iline 3249
中@@ 3245
né@@ 3243
Kich@@ 3242
ě 3242
änder 3238
Kultur@@ 3234
deutsche 3234
valor 3230
Par 3229
För@@ 3220
Iglesia 3220
ieder 3219
curs@@ 3217
dix 3217
pierre 3212
chim 3207
vile 3200
ciones 3198
ergie 3198
hata 3195
minut@@ 3194
terre 3194
temps 3192
ế 3192
Ör@@ 3190
Verte@@ 3185
zwe@@ 3184
upo 3182
Bien 3181
hadi@@ 3180
ís@@ 3179
abeth 3171
hale 3169
fed@@ 3166
天@@ 3166
wale 3165
ி@@ 3162
Fes@@ 3160
evento 3159
werke 3157
Sied@@ 3155
zum 3150
uku@@ 3148
gilt 3147
С@@ 3143
ür 3141
ה 3136
8. 3134
bras@@ 3127
ticia 3127
podr@@ 3123
eña 3122
xo@@ 3122
alifor@@ 3118
noi 3113
ün 3112
hoy 3111
ünde 3104
Đại 3099
Sommer 3096
öm@@ 3096
n.@@ 3091
Akadem@@ 3084
sis@@ 3083
Δ 3072
tores 3071
arac@@ 3067
duc 3067
azim@@ 3063
lima 3057
κ@@ 3057
dif@@ 3055
Hoa 3051
Burg 3049
gew@@ 3042
zoni 3042
Mül@@ 3039
äd@@ 3039
ע@@ 3035
issen@@ 3033
igt 3028
baba 3026
Kör@@ 3024
urt@@ 3024
amba@@ 3023
dau@@ 3022
period@@ 3020
Bezir@@ 3017
ift@@ 3016
ät 3016
ṛ@@ 3016
Afrika 3011
Platz 3010
baya 3010
cours 3009
iyi 3006
lö@@ 3003
tay 3002
க@@ 3001
años 2999
enzi 2994
rée 2992
uras 2992
acab@@ 2990
Dies 2984
beri 2982
fils 2972
guerre 2968
Kongo 2966
ḥ 2966
Entre 2963
Meter 2963
büt@@ 2957
enten 2953
langen 2947
Pour 2941
statt 2941
‡ 2941
Auf@@ 2940
effectu@@ 2934
èg@@ 2933
Perú 2927
kud@@ 2925
李@@ 2925
aam 2924
ged@@ 2924
occident@@ 2923
serie 2922
tí@@ 2922
bien 2921
≈ 2921
lande 2920
ehe 2917
haci@@ 2915
Ț@@ 2913
inat@@ 2904
kung 2904
γ@@ 2903
Schiff@@ 2902
dissement 2902
Oreg@@ 2901
dok@@ 2901
ansi 2895
mtDNA 2892
isho 2890
loi 2890
vida 2889
provin@@ 2887
mundo 2886
ète 2883
abara 2877
Bei@@ 2875
luk@@ 2872
zh 2872
vos 2871
山@@ 2871
Escu@@ 2866
euse 2866
Kale 2863
walt 2859
mül@@ 2858
Asociación 2853
semb@@ 2853
faire 2850
ferro@@ 2850
Bür@@ 2848
yol 2848
atini 2841
cion@@ 2841
celles 2840
ʾ@@ 2840
и 2839
nach@@ 2838
ρ 2838
ograf@@ 2835
İn@@ 2835
Welt 2834
zona 2832
nim@@ 2831
verdi 2831
liches 2830
olan@@ 2829
üd@@ 2822
polé@@ 2821
dair 2818
iş@@ 2817
eben@@ 2816
Α@@ 2815
sah 2813
ecto 2811
engi 2811
grub@@ 2811
trop 2810
cias 2809
Mundial 2808
ż 2807
muj@@ 2806
ên 2805
dific@@ 2803
đe 2803
Akademie 2794
afin 2794
tán 2792
Flug@@ 2788
naf@@ 2784
ד@@ 2784
bew@@ 2783
¢ 2781
ám@@ 2777
Privat@@ 2773
adém@@ 2773
ン@@ 2773
intro@@ 2771
ouver@@ 2764
atem@@ 2763
nur 2763
6. 2762
armes 2761
amac@@ 2759
на 2759
ikal@@ 2756
Tür@@ 2754
siti@@ 2751
musique 2750
enton@@ 2748
khi@@ 2748
А@@ 2738
р@@ 2737
Ufa 2734
appel 2733
Barcel@@ 2731
王@@ 2729
élé@@ 2727
্ 2727
pueblo 2725
most@@ 2716
œur 2715
ammen 2712
itze 2705
hup@@ 2703
femme 2701
tora 2700
ghi 2699
Linc@@ 2698
Garc@@ 2697
emple 2694
Wam@@ 2692
klasse 2691
Rolle 2689
ww@@ 2689
kazi 2681
üz@@ 2681
Gök@@ 2680
amento 2680
bier@@ 2676
η 2674
zus@@ 2670
vita 2665
akadem@@ 2661
Staat@@ 2660
alif@@ 2660
Servic@@ 2659
giy@@ 2655
siz 2653
Ét@@ 2649
jeune 2648
argent@@ 2646
ión 2646
atwa 2645
bora 2640
lili@@ 2638
such@@ 2637
ük@@ 2631
chter 2630
jour 2628
atas@@ 2621
Gesch@@ 2620
XV@@ 2620
， 2620
plaz@@ 2617
Anh 2614
ibar 2613
dari 2610
Khánh 2609
prix 2604
Giang 2602
äf@@ 2602
Aş@@ 2600
awala 2593
pont 2592
teh@@ 2592
Hà 2591
cier@@ 2590
leich@@ 2588
σ@@ 2583
acias 2581
ôn 2577
König 2574
imu 2573
ļ@@ 2572
ן 2572
nh 2570
Hinter@@ 2568
études 2565
eyi 2563
imani 2560
onné 2556
anik@@ 2555
français 2553
terie 2550
êt 2550
engl@@ 2549
troupes 2549
ólica 2548
orod@@ 2544
geri 2540
enso 2539
utsch@@ 2539
ř 2539
islas 2532
ınar 2530
த@@ 2530
Eins@@ 2528
Rang 2528
leurs 2526
uelle 2526
cada 2524
Oy 2523
ם 2522
rière 2521
Feuer@@ 2516
produ@@ 2515
itement 2514
thé@@ 2514
Ñ@@ 2514
Hymen@@ 2511
hoa 2506
comte 2504
etos 2504
7. 2503
etin 2499
INSE@@ 2497
riere 2497
rut@@ 2496
té@@ 2494
utar@@ 2493
ıy@@ 2492
∈ 2490
Kinder 2488
Ngo@@ 2488
ʼ 2486
ு@@ 2486
Sä@@ 2484
éta@@ 2484
Hòa 2483
kuz@@ 2482
Zu 2481
ą 2478
Geg@@ 2473
三@@ 2473
americ@@ 2472
י 2466
南@@ 2466
chung 2465
licher 2465
ா@@ 2465
äch@@ 2464
ünden 2461
pré@@ 2455
sino 2449
contra 2447
ľ@@ 2447
auté 2445
Comité 2436
ṅ@@ 2434
文@@ 2430
äuser 2428
él 2426
Amér@@ 2417
Nr. 2416
undu 2414
ת 2414
ħ@@ 2412
་ 2412
wach@@ 2411
Frau 2404
Muhar@@ 2402
puis 2400
sied@@ 2400
Đức 2399
sud 2390
mg@@ 2387
Σ@@ 2387
tür@@ 2386
chac@@ 2383
auen 2376
κ 2374
ifu@@ 2371
Pennsyl@@ 2370
zey 2370
Staffel 2366
Kama 2360
username 2360
tout 2352
Preis 2349
mr@@ 2347
О@@ 2346
Mt@@ 2345
rur@@ 2342
atisti@@ 2341
τ@@ 2338
Tây 2335
Dör@@ 2332
aşa 2330
ónimo 2328
Schule 2327
Waf@@ 2327
Köl@@ 2323
Σ 2323
ח@@ 2322
в 2321
ა@@ 2321
ennen 2320
hadi 2318
Eig@@ 2313
ños 2310
ј@@ 2310
ticos 2299
Más 2285
Schutz@@ 2285
abila 2285
新@@ 2282
k. 2279
onya 2278
dua 2273
usta@@ 2273
金@@ 2272
Verkehr@@ 2270
dée 2270
pru@@ 2267
veh@@ 2262
π@@ 2260
lée 2259
teilung 2251
9. 2250
Gew@@ 2245
afu 2244
Phú 2243
aguas 2242
eines 2242
ehir 2241
一@@ 2241
Une 2240
` 2239
artistes 2239
н@@ 2239
ayd@@ 2237
ún@@ 2236
schl@@ 2235
schluss 2232
vit 2232
vé@@ 2232
ıl@@ 2232
Landes 2229
Olí@@ 2228
abab@@ 2228
Nouv@@ 2227
Er 2222
République 2222
Zentr@@ 2221
ilien 2221
jina 2221
éré 2221
orden@@ 2217
Geschichte 2215
koa 2215
tiv 2215
muz 2212
nde@@ 2212
Yap@@ 2211
Zeit 2207
nung 2207
dado 2206
mexic@@ 2206
óm@@ 2205
ε@@ 2204
histoire 2203
ét 2201
子 2201
iques 2198
première 2198
inclu@@ 2193
athol@@ 2192
fico 2187
ilen 2187
affaires 2184
Blü@@ 2182
Sold@@ 2179
manos 2173
н 2172
פ@@ 2171
ר 2171
emiti@@ 2169
über 2169
Entw@@ 2168
Um 2168
й 2167
Lý 2163
Wissen@@ 2158
а 2158
schul@@ 2154
nje 2152
lado 2150
ymnasi@@ 2150
cito 2149
★ 2149
kek 2147
müh@@ 2146
schutz 2140
dienst 2136
alik@@ 2135
causa 2132
ativo 2131
deutscher 2131
sionn@@ 2130
₱ 2127
passe 2126
verband 2123
ק@@ 2123
petit 2122
್ 2121
Phong 2120
entale 2119
ր@@ 2119
pok@@ 2118
Zug@@ 2116
Grupp@@ 2115
ո@@ 2115
Kazi 2113
Werke 2111
alcal@@ 2110
tiki 2110
Nga 2107
dola 2107
cipe 2106
quier@@ 2105
forme 2095
Sez@@ 2094
ћ 2093
日@@ 2093
Κ@@ 2092
tener 2088
Ε@@ 2088
ím@@ 2086
Welt@@ 2085
arqu@@ 2083
rapport 2083
z. 2081
Bretagne 2080
arron@@ 2080
uzo 2080
schaften 2079
jini 2078
áng 2078
ương 2078
ον 2078
gesellschaft 2077
schaf@@ 2076
р 2071
bire@@ 2070
onnen 2070
ük 2067
к 2064
Dương 2061
Tông 2056
étr@@ 2056
כ@@ 2056
vu@@ 2051
ர@@ 2051
Kih@@ 2048
Schweizer 2048
quy 2047
Doğ@@ 2045
À 2045
Leben 2044
schn@@ 2043
λ@@ 2043
feh@@ 2040
ˈ@@ 2039
《 2039
¾ 2036
》 2036
República 2034
bán 2034
fik@@ 2033
ismus 2033
小@@ 2033
高@@ 2033
Presidente 2032
в@@ 2027
cela 2026
ofu 2026
Rom 2025
Baş@@ 2024
yum@@ 2024
ŋ@@ 2024
nú@@ 2022
eshwa 2020
vient 2019
waz@@ 2017
Norden 2015
entro 2015
่ 2015
西@@ 2015
ichte 2013
Werk@@ 2012
ת@@ 2009
fait 2008
çi 2008
ν@@ 2006
4,5 2003
ehri 2002
nok@@ 1998
Gür@@ 1997
fau@@ 1996
Afrique 1993
ufu 1993
် 1993
identific@@ 1992
biy@@ 1990
mek 1990
Meister 1985
Lauf@@ 1983
Mf@@ 1983
niti@@ 1983
ť@@ 1983
Benjam@@ 1982
Nyan@@ 1982
städ@@ 1982
Punk@@ 1981
я 1981
Â@@ 1980
Hồ 1976
teurs 1976
thiop@@ 1976
änger 1976
fé@@ 1975
pez 1973
sede 1972
이@@ 1972
çe 1970
д@@ 1970
agit 1967
etk@@ 1966
ónom@@ 1964
alista 1963
richt 1961
Kommun@@ 1960
Verein 1959
vall@@ 1958
Đồng 1956
Klasse 1955
celle 1955
海@@ 1955
neas 1954
voix 1954
inti@@ 1953
Ağ@@ 1952
escu@@ 1951
kua 1951
Orts@@ 1950
parte 1950
Poliz@@ 1949
deux 1946
tions@@ 1946
ל 1944
Mitte 1942
roul@@ 1942
veren 1942
Hoàng 1941
einen 1940
sant@@ 1939
Beledi@@ 1938
Τ@@ 1936
tionn@@ 1935
pris 1933
uş@@ 1928
τ 1927
nne 1926
instal@@ 1925
quarti@@ 1924
東@@ 1924
・ 1923
а@@ 1922
Tân 1918
.000 1916
arka 1914
onales 1913
osas 1913
estos 1912
kanda 1912
Gatt@@ 1907
mey@@ 1906
yana@@ 1904
zeug@@ 1901
ám 1901
Cór@@ 1900
éné@@ 1900
hö@@ 1894
ède 1894
ų 1893
™ 1893
Sus 1890
olympi@@ 1888
イ@@ 1888
afu@@ 1887
ạc 1885
demi 1882
的@@ 1882
heb@@ 1881
heits@@ 1881
В@@ 1881
déc@@ 1878
kik@@ 1878
comi@@ 1877
gaz 1877
3,5 1869
ız 1868
encias 1866
vai 1859
khu@@ 1858
ப@@ 1857
zun@@ 1856
bea 1855
fiz@@ 1853
с@@ 1851
太@@ 1851
ül 1850
Xuân 1848
lere 1848
alı 1841
Λ@@ 1839
л@@ 1838
ım@@ 1837
ե@@ 1836
山 1836
Ngô 1835
ịnh 1835
zeit 1833
censo 1832
hek@@ 1830
м@@ 1830
ம@@ 1830
şehir 1828
ùng 1827
Kır@@ 1826
siy@@ 1826
teil 1826
timestamp 1821
ähr@@ 1818
adal@@ 1817
Dorf@@ 1815
人 1815
vom 1814
ι 1814
ÿ@@ 1813
zul@@ 1812
Mü@@ 1811
enl@@ 1811
annen 1809
général 1809
வ@@ 1809
ayna 1808
istère 1808
rév@@ 1808
mento 1807
oran@@ 1806
óg@@ 1806
子@@ 1803
luch@@ 1802
bezirk 1801
sä@@ 1801
Kuv@@ 1800
Verk@@ 1800
Topl@@ 1799
θ@@ 1798
Kamer@@ 1797
amini 1794
ός 1792
İs@@ 1791
universit@@ 1790
И@@ 1788
Bahnhof 1787
aliste 1787
usu@@ 1785
üm 1785
้ 1784
安@@ 1782
como 1778
ский 1775
ikia 1774
к@@ 1774
maison 1773
у@@ 1769
emple@@ 1767
historique 1767
Église 1767
Göl@@ 1764
Sept@@ 1764
nouveau 1762
Π@@ 1761
eté 1760
ình 1759
Türk 1757
hô@@ 1757
Kif@@ 1756
Landkreis 1756
ajiri 1752
khu 1752
innen 1751
éti@@ 1751
Philadel@@ 1750
mt 1749
ס@@ 1748
ি@@ 1746
田@@ 1744
Büh@@ 1743
kü@@ 1743
jeres 1741
villes 1737
Sohn 1735
mch@@ 1732
Ο@@ 1730
ologique 1727
alles 1724
Erk@@ 1722
。 1720
ব@@ 1719
bali 1718
Γ 1717
ộc 1716
Fuß@@ 1714
pande 1714
unca 1714
gesti@@ 1713
ası 1712
sona 1712
okul@@ 1711
ǫ@@ 1707
aret@@ 1705
Định 1703
ка 1702
ه 1702
fonso 1701
平@@ 1701
unden 1699
ambas 1698
fique 1696
М@@ 1696
َ@@ 1696
人@@ 1695
本@@ 1695
Preu@@ 1692
anii 1691
pek 1691
être 1690
atac@@ 1689
Über@@ 1688
ه@@ 1688
sawa 1684
← 1684
Mỹ 1683
Ι@@ 1682
ス@@ 1682
Trung 1681
bord 1681
ecken 1678
pek@@ 1678
depor@@ 1677
culo 1676
ài 1676
Ţ@@ 1676
hili 1675
otur@@ 1675
kaf@@ 1673
öch@@ 1673
gid@@ 1672
ến 1672
¿ 1671
nicht 1670
් 1669
dır@@ 1668
üş@@ 1667
ь 1666
faz@@ 1665
entales 1659
úl@@ 1659
П@@ 1658
ი@@ 1657
● 1652
auti 1651
ǔ 1651
Frauen 1649
Bắc 1647
王 1647
oires 1643
ρ@@ 1643
Arbeit@@ 1641
nde 1641
nous 1640
mada 1639
ào 1639
ajes 1638
gef@@ 1638
ви@@ 1638
е 1637
上@@ 1637
Meister@@ 1634
isiones 1634
Ṣ@@ 1633
Bau 1632
Châu 1632
ŵ@@ 1632
Lond@@ 1631
Wahl 1630
issant 1629
sich 1628
র@@ 1628
awali 1627
octo@@ 1627
cedes 1625
ω@@ 1625
arı 1624
kuh@@ 1624
û 1621
başı 1620
ъ 1620
À@@ 1619
üst@@ 1617
⟩ 1617
àng 1614
kari@@ 1613
strum@@ 1611
lir 1609
akula 1608
ġ@@ 1608
К@@ 1608
huru 1607
郎 1607
ución 1605
kunde 1604
bruch 1603
feu@@ 1603
Türk@@ 1602
asili 1602
Bere@@ 1600
cero 1600
cour 1598
w.@@ 1597
für@@ 1596
Auf 1595
2,5 1592
Janu@@ 1592
écn@@ 1592
tische 1591
ッ@@ 1591
là 1590
vard@@ 1590
Buch 1588
т 1588
武@@ 1588
ographie 1586
ָ@@ 1585
Cep@@ 1584
issent 1584
Μ@@ 1577
Deutschen 1575
vista 1574
haber 1573
kama 1573
⟨ 1572
casa 1566
landa 1566
之@@ 1565
Haup@@ 1564
akt@@ 1560
umri 1559
ּ@@ 1559
ị 1559
öff@@ 1558
Ayn@@ 1557
Allem@@ 1556
Thị 1554
irik@@ 1552
seurs 1552
Sieg 1551
bajo 1551
zaman 1547
umbe 1546
э@@ 1546
ক@@ 1546
lucha 1545
terres 1544
oyun@@ 1541
ağ 1540
chte 1540
國@@ 1539
ikit@@ 1537
saba 1536
Verein@@ 1535
ն@@ 1534
lanz@@ 1532
Thái 1530
η@@ 1529
ш@@ 1529
seinen 1528
Lebens@@ 1525
kea 1524
ehen 1523
obra 1523
amii 1521
ο@@ 1521
Bảo 1517
suj@@ 1517
Halb@@ 1516
Doppel@@ 1515
eher 1514
― 1514
einem 1513
risto 1512
umma 1512
ác 1511
erini 1510
ôt 1509
yao 1508
elik@@ 1507
hija 1506
État 1501
ximo 1500
Т@@ 1500
édi@@ 1497
市 1497
saire 1496
Bahn@@ 1495
Hy 1495
meni 1495
üng@@ 1492
kuf@@ 1491
ağı 1487
江@@ 1486
rivière 1484
elea 1483
kiş@@ 1482
ː@@ 1482
pata 1481
só@@ 1481
oría 1480
Böl@@ 1479
Futbol 1479
ọ 1478
eint 1477
ŋ 1476
rar 1475
ル@@ 1475
家@@ 1475
Ü 1473
ג@@ 1473
Д@@ 1472
ն 1468
ℓ 1467
ラ@@ 1466
aç 1465
wert 1463
с 1463
russ@@ 1462
dont 1461
Jugend@@ 1459
Yeni 1457
Α 1457
Durante 1455
Migu@@ 1455
♭ 1455
satz 1454
Sozial@@ 1453
ường 1453
т@@ 1453
ttem@@ 1452
Turkana 1450
ʽ@@ 1448
sorg@@ 1446
embre 1443
gran 1443
origine 1442
uma@@ 1442
Verwaltungs@@ 1441
gericht 1441
о@@ 1441
ước 1439
χ@@ 1438
д 1438
espec@@ 1437
phong 1437
⋅ 1437
ará 1436
schle@@ 1436
dres 1435
eich@@ 1430
muh@@ 1430
） 1429
mali 1428
вич 1428
ச@@ 1428
ь@@ 1425
書@@ 1425
Φ@@ 1424
Sachsen 1423
unos 1423
schafts@@ 1422
神@@ 1422
rangi 1421
soka 1420
Leip@@ 1419
Büyük@@ 1415
Ṭ@@ 1415
kuj@@ 1414
spiele 1412
Bürger@@ 1411
lieder 1410
‍ 1410
ի@@ 1409
ാ@@ 1409
Hải 1408
Kızıl@@ 1407
ы@@ 1406
Ī@@ 1404
territori@@ 1403
Chrysomelidae 1402
У@@ 1402
fand 1400
з@@ 1399
র 1399
Pero 1398
ль@@ 1398
aiss@@ 1396
ifen 1396
º@@ 1395
õ 1395
河@@ 1395
timi 1394
istische 1392
北@@ 1392
wär@@ 1391
ucion@@ 1389
リ@@ 1389
ũng 1388
Belgique 1385
Kür@@ 1385
oben 1385
puer@@ 1385
е@@ 1385
Kỳ 1383
geg@@ 1382
lao 1382
izin 1380
Deniz 1379
ohne 1379
ː 1379
americano 1374
和@@ 1373
Quốc 1371
forsch@@ 1371
Denk@@ 1370
ʿ 1370
Đông 1369
Aus 1368
ე@@ 1368
igung 1367
Ø 1365
yü@@ 1362
Öl@@ 1361
erre@@ 1360
tival 1360
lagen 1359
ăng 1359
Buna 1357
segu@@ 1357
dö@@ 1356
fahr@@ 1356
fahrt 1355
ói 1354
ْ@@ 1354
ി@@ 1354
Г@@ 1351
Regierungs@@ 1350
mals 1350
kich@@ 1349
Yên 1348
siè@@ 1348
udur 1346
tuy@@ 1345
Fahr@@ 1344
kati@@ 1344
afir@@ 1343
ম@@ 1342
Adem@@ 1341
êtes 1340
nden 1338
personas 1338
明@@ 1338
ţ 1336
echa 1335
Thành 1334
altung 1334
国@@ 1334
ieron 1332
Dans 1330
Jeux 1330
weil 1328
yem@@ 1328
È@@ 1328
ần 1327
≠ 1327
energ@@ 1326
Künst@@ 1323
ocho 1322
conoc@@ 1321
greso 1321
ría 1321
ammlung 1320
ESCO 1319
hé@@ 1319
deren 1318
völ@@ 1317
adini 1316
chanson 1316
ம 1315
geschichte 1314
ihr 1313
mün@@ 1313
ская 1313
bö@@ 1312
luy@@ 1306
ológico 1306
Kirche 1305
ಾ@@ 1305
Nha 1304
ǐ 1304
์ 1304
angeb@@ 1303
Φ 1303
대@@ 1303
Män@@ 1302
engen@@ 1301
politik 1301
ái 1301
ַ@@ 1301
yeri 1300
Wirt@@ 1299
Grenz@@ 1298
Phạm 1297
leva 1297
ận 1296
劉@@ 1296
א 1295
rouge 1294
Kateg@@ 1293
maî@@ 1293
ക@@ 1289
Wieder@@ 1288
osos 1287
ʔ@@ 1287
ḫ@@ 1286
hiệu 1285
ông 1285
haa 1283
oldu@@ 1283
rais 1283
abras 1282
atika 1282
más 1282
五@@ 1282
gare 1280
utilisation 1279
Р@@ 1279
llev@@ 1278
ט@@ 1278
bado 1277
bür@@ 1276
İz@@ 1276
carte 1275
公@@ 1275
Höh@@ 1274
uerto 1274
φ@@ 1274
Zür@@ 1273
teren 1273
ва 1271
ட@@ 1271
Anadolu 1269
insel 1266
bisher 1265
recherche 1265
ılar 1264
̄ 1263
ِ@@ 1263
tema 1262
yük 1262
道@@ 1262
derg@@ 1260
aile 1258
siri 1258
ambos 1256
umbu@@ 1256
été 1256
Weit@@ 1255
akini 1254
ւ@@ 1254
ellos 1253
г@@ 1251
wegen 1250
林@@ 1249
м 1248
iliy@@ 1247
mama 1247
Kati 1243
Б@@ 1243
ilik 1242
ц@@ 1242
Sous 1241
ología 1241
й@@ 1241
ảo 1241
erras 1240
ψ 1240
Schauspi@@ 1239
不@@ 1239
littér@@ 1238
ي 1236
რ@@ 1236
deutsch@@ 1235
張@@ 1233
Eine 1232
contre 1232
ク@@ 1231
Bis 1230
і 1230
城 1230
1,5 1229
incia 1229
umani 1228
ę 1228
Tä@@ 1227
ー 1227
ístico 1226
mbal@@ 1225
uwe@@ 1225
anderen 1224
ἀ@@ 1224
Irel@@ 1223
alte 1223
echos 1223
änd@@ 1223
Armee 1222
óa 1222
öne@@ 1221
​ 1221
Ende 1220
stelle 1220
ķ@@ 1220
Ľ@@ 1220
Gemein@@ 1219
Jahr@@ 1218
Rais 1217
âm 1217
元@@ 1217
ıl 1216
zuk@@ 1215
Zur 1214
idente 1213
äus@@ 1213
צ@@ 1211
白@@ 1211
achsen 1210
ticas 1209
erfol@@ 1207
Sein 1206
ű@@ 1206
х@@ 1206
enst 1205
portu@@ 1205
wei@@ 1204
Gleich@@ 1202
deutschen 1202
kiye 1202
laka 1202
alité 1201
евич 1200
ajwa 1199
Phúc 1198
ে@@ 1198
Ἀ@@ 1198
hiwa 1197
Hymenoptera 1196
Ν@@ 1196
ְ@@ 1196
juli@@ 1194
Ngọc 1193
ů 1192
Н@@ 1192
erei 1191
ziy@@ 1189
石@@ 1189
Première 1188
Œ@@ 1187
ു@@ 1187
kuch@@ 1186
internationale 1185
ア@@ 1185
rés@@ 1184
Е@@ 1183
ạng 1183
Hiv@@ 1181
moto 1178
uyên 1178
Unidos 1177
Unter 1177
া 1177
ト@@ 1177
ꞌ@@ 1175
dül@@ 1174
의 1174
chemin 1173
grund 1173
cinéma 1172
Orden 1171
­ 1171
ح@@ 1171
mej@@ 1170
部@@ 1170
ités 1169
Kül@@ 1168
ihe 1168
isant 1168
사@@ 1168
ulaire 1167
ய@@ 1166
ustos 1165
femmes 1164
我@@ 1164
banda 1162
vain@@ 1162
☆ 1162
（ 1162
cán@@ 1161
waw@@ 1161
п@@ 1161
ellschaft 1160
angwa 1159
istre 1159
út 1158
ấn 1158
馬@@ 1157
ích 1156
и@@ 1156
त 1156
ŭ 1155
‰ 1155
陳@@ 1155
Amerika 1154
ро@@ 1154
Nä@@ 1152
ÿ 1152
ibles 1151
у 1151
్ 1151
Vĩnh 1150
hors 1150
ishwa 1148
đ 1148
sao 1147
十@@ 1147
erung 1146
ко@@ 1146
aría 1145
Β@@ 1145
Sicher@@ 1144
о 1144
dungs@@ 1142
yako 1142
ış@@ 1142
ರ@@ 1142
ennent 1141
ʾ 1141
ζ 1140
fille 1137
schwar@@ 1136
wanza 1136
wezi 1136
Leiter 1135
ர 1135
COVI@@ 1133
urdu 1132
Minnes@@ 1131
ִ@@ 1131
livre 1130
ли@@ 1130
Geometr@@ 1128
kent@@ 1128
ί@@ 1127
ва@@ 1127
下@@ 1127
ilik@@ 1126
werk@@ 1126
có@@ 1124
ன 1124
い@@ 1124
zeh@@ 1123
đi@@ 1123
atoire 1122
ল@@ 1122
χ 1120
Forschungs@@ 1119
Alit@@ 1117
dico 1117
sita 1117
spek@@ 1117
Sau 1116
kush@@ 1116
ệ 1115
erster 1114
otball 1113
đa 1113
famil@@ 1112
シ@@ 1112
llam@@ 1111
êu 1111
ن@@ 1111
ieh@@ 1109
ι@@ 1108
ر@@ 1108
ız@@ 1107
partement 1106
zeit@@ 1106
aliza 1105
। 1104
ạnh 1103
光@@ 1102
ἐ@@ 1100
lerin 1099
प 1099
ু@@ 1098
señ@@ 1097
zey@@ 1097
Asoci@@ 1096
reno 1096
ailleurs 1095
dirig@@ 1094
écol@@ 1094
ƒ 1094
alich@@ 1093
zug@@ 1093
êm 1093
道 1093
zug 1092
ი 1092
Flü@@ 1091
Sanat@@ 1091
quand 1091
óng 1091
Hưng 1090
mort 1090
Γ@@ 1090
estat@@ 1089
pios 1089
ни@@ 1089
etler 1087
Nguyên 1086
esos 1085
grá@@ 1085
tario 1085
水@@ 1085
⅓ 1084
на@@ 1083
générale 1082
ätte 1082
ლ@@ 1082
Lage 1081
criv@@ 1080
trao 1080
İl@@ 1080
ǒ@@ 1079
ḷ@@ 1079
Hata 1078
ン 1078
Über 1077
Orta 1076
acto 1076
mz@@ 1075
ieren 1074
ش@@ 1074
б@@ 1073
Chí 1072
comun@@ 1068
sevi@@ 1067
ра@@ 1067
besch@@ 1066
empre 1066
uş 1066
мо@@ 1066
dió 1065
Vũ 1064
ξ 1064
direk@@ 1063
fäl@@ 1063
ন 1063
ন@@ 1063
Chama 1062
esas 1062
mang 1062
punk@@ 1061
Eigen@@ 1060
ächs@@ 1060
acus@@ 1059
reste 1059
sö@@ 1059
logr@@ 1057
okrati@@ 1057
Ħ@@ 1057
Genç@@ 1056
ла@@ 1056
四@@ 1055
ización 1053
Tage 1052
Chuo 1051
sols 1051
jeu 1050
militaire 1048
marc@@ 1047
école 1046
Zentrum 1044
ıç@@ 1044
ätten 1043
س@@ 1042
ко 1041
ри@@ 1041
thay 1039
Wie 1038
acı 1038
ayud@@ 1038
umwa 1037
ב 1037
reli 1036
म@@ 1036
ṃ 1036
Drit@@ 1035
̀ 1035
Demokrati@@ 1033
ouverneur 1032
Städ@@ 1031
américa 1031
arlo 1031
aî@@ 1031
idades 1031
¹ 1031
ď@@ 1031
区 1031
anten 1029
diffic@@ 1029
̱ 1029
د@@ 1029
ز@@ 1029
της 1028
Noctu@@ 1027
Selb@@ 1027
Tuy 1027
khai 1026
stellung 1026
inici@@ 1023
partici@@ 1023
ulares 1023
appel@@ 1021
vip@@ 1021
kila 1020
zentrum 1020
dney 1019
üre@@ 1019
ч@@ 1019
undan 1018
fédér@@ 1017
évision 1017
ánh 1016
Thiên 1015
김@@ 1015
gé@@ 1014
κα@@ 1014
門@@ 1013
Kwa 1012
ezas 1012
ǐ@@ 1012
ancı 1011
kalan 1011
uzak@@ 1011
я@@ 1011
sobre 1010
г 1008
ispi@@ 1007
voi 1005
ي@@ 1005
dedi@@ 1004
taines 1004
Paşa 1003
Λ 1003
во@@ 1003
ි@@ 1003
langue 1002
ז@@ 1002
ный 1001
uç@@ 1000
exter@@ 999
ы 999
ல@@ 999
成@@ 997
Häl@@ 996
entw@@ 996
amiento 995
通@@ 995
Ses 994
mais 994
u. 994
محمد 994
canadi@@ 993
정@@ 993
koy@@ 992
ística 992
ης 991
Kloster 990
mayo 990
yok 990
verk@@ 989
र 988
ων 986
ло@@ 985
Í 984
atiques 983
historia 983
Đi@@ 983
タ@@ 980
二@@ 980
ɛ@@ 979
Weg 978
Tham 977
evu 976
ocur@@ 976
équ@@ 976
ب@@ 976
花@@ 976
biri 975
père 974
ẓ@@ 974
raum 973
mujer 972
Ə@@ 972
ре@@ 972
ḳ@@ 972
meister@@ 971
ª 970
स 970
Kirchen@@ 968
Zus@@ 968
بن 968
श 968
ত@@ 968
Jimbo 967
長@@ 967
modo 965
üf@@ 965
ǔ@@ 965
ര@@ 965
Krieg 964
sitio 963
한@@ 963
Công 962
trois 961
Ül@@ 961
telle 960
hér@@ 959
र@@ 959
encial 958
allem@@ 957
úbl@@ 957
≡ 957
♯ 957
ία 956
día 955
alara 954
kiz@@ 954
正@@ 954
adiri 953
erten 953
haut 953
titul@@ 953
Anf@@ 951
縣 951
ayant 950
äu@@ 950
マ@@ 950
pou@@ 949
Ř@@ 949
imz@@ 948
ları 948
uvu 948
八@@ 948
tér@@ 945
յ@@ 945
anglais 944
anlı 944
ènes 944
학@@ 944
Kore 943
amente 943
sinh 943
Ми@@ 943
ல 943
äts@@ 942
方@@ 942
ع@@ 941
parc 940
régi@@ 940
Ρ@@ 940
basket@@ 939
cette 939
osto 938
sahi@@ 938
áo 938
auteur 937
irani 937
poder@@ 937
ṭ 937
Stutt@@ 936
lido 936
社 936
II. 935
地@@ 935
Mit 934
pein@@ 934
áp 934
öß@@ 933
ο 933
ロ@@ 933
técn@@ 932
xico 932
স@@ 932
cao 931
parec@@ 931
З@@ 930
ו 930
川@@ 930
linde 929
seul@@ 929
tä@@ 929
υ@@ 929
Früh@@ 928
ahlen 928
ền 927
tante 926
vek@@ 926
ма@@ 926
guerra 925
sehen 925
生@@ 925
esab@@ 924
Tiy@@ 923
ış 923
青@@ 922
Juli 921
ĩ 921
aktion 920
cai 920
elte 920
uvo 919
学@@ 918
美@@ 918
Kultur 917
女@@ 916
но@@ 915
德@@ 915
especial 914
tecn@@ 914
déj@@ 913
seine 913
Л@@ 912
verein@@ 911
ك@@ 911
و 911
inan@@ 910
ка@@ 909
カ@@ 909
droit 908
èmes 906
şe 906
ɛ 906
ле@@ 906
阿@@ 906
年@@ 905
aliye@@ 904
Ț 904
ジ@@ 904
ologische 903
unid@@ 903
Dorf 902
pueb@@ 902
otros 901
ť 901
Massachus@@ 900
haup@@ 898
nord 898
ạch 898
ὶ 898
öst@@ 897
л 896
alismo 894
trai 893
Mwan@@ 892
conom@@ 891
cı 891
turas 891
usal@@ 891
Χ@@ 891
Ко@@ 891
ная 891
kuna 890
kır@@ 889
trat 889
üç@@ 889
ं 889
し@@ 889
mpi@@ 888
enea 887
ு 887
郡 887
óc 886
örd@@ 886
до@@ 885
‌ 885
Wais@@ 884
drit@@ 884
rä@@ 884
ж@@ 884
Schweiz 883
àu 883
lü 882
ɔ@@ 882
福@@ 882
aître 881
asik 879
ectura 879
publique 879
taki 879
érieur 878
‎ 877
사 877
peu 876
weng@@ 876
Arbeits@@ 874
wissen@@ 874
ி 874
Ermen@@ 873
Nisan 873
Türkiye 873
moderne 873
octu@@ 873
çu 873
य@@ 873
ɪ@@ 872
kund@@ 871
munici@@ 871
় 871
ahidi 870
edrich 869
ل@@ 868
な@@ 867
départem@@ 866
maire 866
Cuando 865
Osten 864
Teil@@ 864
rép@@ 864
原@@ 864
Werk 863
fü@@ 863
レ@@ 863
ucu 862
า@@ 862
Tiên 861
xã 861
vue 860
οι 860
ầu 860
ῖ@@ 860
alizado 859
ს@@ 859
Ciud@@ 858
ɔ 858
ῶ@@ 858
民@@ 858
coloc@@ 857
oce 857
1.000 854
氏 854
alme 853
raison 853
arla 851
pobl@@ 851
respons@@ 851
ôle 851
ా@@ 851
有@@ 851
propi@@ 849
ර@@ 848
∗ 848
」 848
Lâm 847
amt@@ 847
prati@@ 847
同@@ 846
皇@@ 846
étés 845
त@@ 845
문@@ 845
Zanz@@ 844
├ 844
都@@ 844
م@@ 843
க 843
στ@@ 842
ũ@@ 841
ಿ@@ 841
Proz@@ 839
kati 838
parentid 838
woh@@ 838
「 838
～ 838
ო@@ 837
iente 836
ʔ 836
ỳ@@ 836
Aleks@@ 835
achus@@ 835
法@@ 835
içi 834
行@@ 834
ersten 833
frau 833
ografia 833
Ön@@ 833
wenn 832
̃ 832
陽 832
lü@@ 831
Š 831
ằng 831
ục 831
Ū@@ 830
Republik 829
gek@@ 829
kais@@ 829
sind 829
τος 829
ơ 828
व@@ 828
gabe 827
ας 827
ṣ 827
会 827
川 827
Dort 826
Ngh@@ 826
istique 825
İsk@@ 825
陽@@ 825
Sie 824
gali@@ 824
vér@@ 824
не 824
démoc@@ 823
古@@ 822
ư 821
Anw@@ 819
Spiel 819
立@@ 819
élec@@ 818
த 818
野@@ 818
trata 817
irse 816
ʰ@@ 816
น@@ 816
城@@ 816
京@@ 815
清@@ 815
ла 813
義@@ 813
andao 812
ĩnh 812
---- 811
pili 811
か@@ 811
南 810
永@@ 810
Machi 809
Ē@@ 809
ρος 809
Amts@@ 808
tó 807
го@@ 807
по@@ 807
য 807
ου 806
د 806
平 806
Als 805
Gemeinde 805
¬ 805
По@@ 805
thode 804
ıs@@ 804
scheid@@ 803
中国@@ 803
lise 802
eneo 801
iones 801
Unido 800
lisi 800
secund@@ 800
ان 800
Comme 799
âce 798
Gegen@@ 797
daha 797
emente 797
kote 797
А 797
ất 796
près 795
С 795
木@@ 795
kij@@ 793
нов 793
polon@@ 792
կ@@ 792
ד 791
書 791
cré@@ 790
ogoro 790
百@@ 790
betrieb@@ 788
ãi 787
ơn 787
と@@ 787
东@@ 787
durch 786
ihr@@ 786
trag 786
ände 786
σι@@ 786
尚@@ 786
noche 785
Ò@@ 785
⁠ 785
Mais 784
न@@ 784
़ 783
ド@@ 783
Rück@@ 782
Θ@@ 781
지@@ 779
य 778
urba@@ 777
Partei 776
junto 776
武 776
Leist@@ 775
rait 775
ǃ@@ 775
Chine 774
Ž 773
hombre 772
üler 772
şi 772
ба@@ 772
ာ@@ 772
lief 771
viel 771
Nghệ 770
óp@@ 770
hapa 769
much@@ 769
田 769
acak@@ 767
idari 767
Ló@@ 766
oğ@@ 766
˚ 766
да 766
愛@@ 766
beit@@ 765
diye 764
Ц@@ 764
‚ 764
心@@ 764
gün 763
icios 763
ج@@ 763
ා@@ 763
周@@ 763
alama 761
ത@@ 761
会@@ 761
た@@ 760
ết 759
寺 759
unidad 758
無@@ 758
politique 757
ன@@ 757
ách 756
το@@ 756
省 756
龍@@ 756
lés 755
ánico 755
و@@ 755
성@@ 755
gez@@ 754
parti 754
ệu 754
cé@@ 753
ди@@ 753
ം 753
아@@ 753
ق@@ 752
മ@@ 752
社@@ 752
autres 751
Ма@@ 751
真@@ 751
Heimat@@ 750
न 750
フ@@ 750
schloss 749
म 749
ਾ@@ 749
華@@ 749
Thủy 748
cambi@@ 748
fér@@ 748
ouvrage 748
änge 748
Đo@@ 748
imonio 747
ạn 747
nouvelle 746
ģ@@ 746
黃@@ 746
Wirtschafts@@ 745
то@@ 745
länd@@ 744
otras 744
ñ 744
ん@@ 744
合@@ 744
führung 743
ovu 743
ง@@ 743
九@@ 743
derecho 742
sold@@ 742
úc 742
₂ 742
inah@@ 741
jours 741
steller 741
Β 741
ნ@@ 741
ehir@@ 740
istik 740
minin 740
çı 740
bahn@@ 739
puesta 739
tous 739
zeng@@ 739
fach 737
familia 737
Österreich 736
দ@@ 736
യ@@ 736
ommen 735
Hán 734
abei 734
տ@@ 734
ေ@@ 733
ẹ 733
communauté 732
テ@@ 732
Hồng 731
finales 731
‒ 731
국@@ 731
ären 730
ύ@@ 730
comme 729
confi@@ 729
dizi 729
ʷ@@ 729
aliforni@@ 728
teil@@ 728
ό@@ 727
не@@ 727
生 727
Π 726
ει@@ 726
ска 726
eure 724
Baad@@ 723
directeur 723
enek@@ 723
ológ@@ 723
lauf 722
сь@@ 722
侍@@ 722
楊@@ 722
lichkeit 720
struk@@ 720
ämp@@ 720
ف@@ 720
Carrière 718
einte 718
veaux 718
വ@@ 718
₩ 718
mambo 717
spiel@@ 717
ర@@ 717
Prä@@ 716
chú 716
lors@@ 716
司@@ 715
國 715
òn 714
з 714
àm 713
Х@@ 713
travers 712
üçük 712
ệt 712
ὐ@@ 712
Ω@@ 711
ى 711
င 711
ṟ@@ 711
có 710
х 710
Reino 709
onnement 709
中 709
동@@ 709
isla 708
qued@@ 708
Yaş@@ 707
ски 707
ス 707
elten 706
jeun@@ 706
港@@ 706
relig@@ 705
wech@@ 705
ỗ 705
이 705
denk@@ 704
élém@@ 704
ή 704
ев 704
ന@@ 704
industrie 703
ʃ@@ 703
На@@ 702
고@@ 702
Esta 701
cultura 701
ά@@ 701
क 701
द 701
gén@@ 700
onyme 697
souri 697
ة 697
خ@@ 697
მ@@ 697
та 696
藤@@ 696
প@@ 695
ვ@@ 695
工@@ 695
기@@ 695
unzi 694
ру@@ 694
軍 694
리@@ 694
einture 693
iento 693
lég@@ 693
͡ 693
aliment@@ 692
bila 692
yesi 692
Η@@ 692
politiques 691
ков 691
supérieur 690
birliği 689
donne 689
ätz@@ 689
ве@@ 689
星@@ 689
babu 688
시@@ 688
grandes 687
പ@@ 687
香@@ 687
Zum 686
ıca 686
του 686
э 686
州@@ 684
Congreso 683
enfants 683
ে 683
乡 683
Kult@@ 682
₦ 682
gique 681
medio 681
sión 681
∆ 681
iben 679
有限公司 679
部 678
台@@ 677
Bà 676
frances@@ 676
ữ 676
世@@ 676
bâ@@ 675
erne@@ 674
febr@@ 674
ව@@ 674
alten 673
kuli@@ 673
áneo 673
Ка@@ 673
20. 672
meli 672
ǀ@@ 672
空@@ 672
ا 671
ección 670
gebi@@ 670
ühr@@ 670
де@@ 670
Forsch@@ 669
Я@@ 669
Jahre 668
Londres 668
ít 668
Département 667
schreib@@ 667
̓ 667
Imperio 666
Italie 666
月@@ 666
ற@@ 665
Trường 664
Tự 664
pler@@ 664
tière 664
hommes 663
© 663
бо@@ 663
ẕ@@ 663
ை@@ 662
lungen 661
menos 661
ை 661
镇 661
ört@@ 660
ắ@@ 660
Güney 659
ま@@ 659
學@@ 659
erse 658
seli 658
ник 658
း@@ 658
schaft@@ 657
voz 656
َ 656
ambiguation 655
ruh@@ 655
ವ@@ 655
ện 655
Bonde 654
kez@@ 654
leitung 654
са@@ 654
⅔ 654
ıf@@ 653
за@@ 653
神 653
cierto 652
empe@@ 652
uppen 652
ನ@@ 652
ǎ 651
avril 650
后 650
poste 649
äre 649
ми@@ 649
ः 649
្ 649
ζ@@ 648
မ@@ 648
コ@@ 648
Mutter 647
ρι@@ 647
∂ 647
île 646
، 646
trouv@@ 645
òng 645
αν@@ 645
ಕ@@ 645
Hội 644
ública 644
ш 644
科@@ 644
mois 643
Phương 642
autre 642
ánica 642
Э@@ 642
ки 642
॥ 642
春@@ 642
ال@@ 641
ت@@ 641
ந@@ 641
puis@@ 640
ónico 640
Ġ@@ 640
Gesamt@@ 639
industr@@ 639
yek@@ 639
ichten 638
ミ@@ 638
ти@@ 637
dır 636
黄@@ 636
Nhân 635
TCN 635
10.000 634
Nach 634
wao 634
♦ 634
建@@ 634
öne 633
ŷ@@ 633
ικ@@ 633
ֹ@@ 633
千@@ 633
م 632
19. 631
Kinh 631
Für 630
Komit@@ 630
üz 630
ıklı 630
六@@ 630
blanco 629
curso 629
célè@@ 629
Ж@@ 629
մ@@ 629
文 629
calle 628
ingt 628
ս@@ 628
キ@@ 628
ammen@@ 627
leich 627
ル 627
明 627
iğ@@ 626
tierra 626
Bağ@@ 625
ợi 625
mex@@ 624
ч 624
信@@ 624
松@@ 624
一 623
市@@ 623
會 623
και 622
∨ 622
하@@ 622
lange 621
га@@ 621
Auch 620
région 620
éx@@ 620
Menschen 619
gó@@ 619
träge 619
り@@ 619
史@@ 619
tisch 618
tlich 618
üssel@@ 618
Ра@@ 618
प@@ 618
ക 618
après 617
iteur 617
präs@@ 617
ática 617
義 617
gauche 616
paso 616
ξ@@ 616
та@@ 616
lık 615
wenda 615
ї@@ 615
Ọ@@ 615
campo 614
klär@@ 614
provo@@ 614
ль 614
হ@@ 614
ográ@@ 613
パ@@ 613
宣@@ 613
avyo@@ 612
efu 612
eyal@@ 612
lerini 612
स@@ 612
教@@ 612
Č 611
ἰ@@ 611
Jahr 610
Vương 610
timest@@ 610
travail 610
си@@ 609
ẩn 609
tête 608
ğr@@ 608
mondi@@ 607
Бо@@ 607
う@@ 607
Grund 606
aße 606
̧ 606
baji 605
ähn@@ 605
̲ 605
ბ@@ 605
御@@ 605
Kuna 604
dass 604
ufu@@ 604
да@@ 604
те@@ 604
ouvr@@ 603
quant 603
rôle 603
サ@@ 603
인@@ 603
Wasser 602
issement 602
kuk@@ 602
mev@@ 602
ি 602
全@@ 602
自@@ 602
Spä@@ 601
ición 601
ihn 601
со@@ 601
ի 601
anlar 600
ന 600
オ@@ 600
나@@ 600
Eyl@@ 599
Ministerio 599
scène 599
М 599
ủ 599
バ@@ 599
物@@ 599
다 599
Ф@@ 598
ම@@ 598
주@@ 598
médi@@ 597
üs 597
5.000 596
Architek@@ 596
хо@@ 596
ු@@ 596
↑ 596
い 596
Firma 595
Württem@@ 595
О 595
द@@ 595
afan@@ 594
수@@ 594
Así 593
arbeit@@ 593
queda 593
weit 593
Θ 593
neu 592
ெ@@ 592
⊆ 592
ematik 591
吉@@ 591
신@@ 591
조@@ 591
esine 590
mif@@ 590
tart@@ 590
Ле@@ 590
ABD 589
padre 589
thern 589
ſ@@ 589
ട@@ 589
院 588
Amerik@@ 587
keit 587
schied 587
Ψ 587
عبد 587
უ@@ 587
cuer@@ 586
少@@ 586
玉@@ 586
sont 585
über@@ 585
За@@ 585
化@@ 585
tober 584
ো@@ 584
ု@@ 584
ナ@@ 584
式@@ 584
ස@@ 583
ữu 583
代@@ 583
公 583
Pacífico 582
kräf@@ 582
otro 582
ugen@@ 582
yoğ@@ 582
ῆ@@ 582
天 582
Anglet@@ 581
Kilom@@ 581
ancien 581
cional 581
graphie 581
kann 581
জ@@ 581
ಮ@@ 581
bí 580
hakk@@ 580
ਰ@@ 580
ိ@@ 580
ọng 580
Erst@@ 579
Ա@@ 579
朝@@ 579
ectos 578
franç@@ 578
grands 578
ǁ@@ 578
Ш@@ 578
서@@ 578
Ligi 577
orado 577
ũ 577
Okul@@ 576
legen 576
orta@@ 576
üst 576
ಗ@@ 576
张@@ 576
Ejército 575
па@@ 575
ḵ@@ 575
宗@@ 575
리 575
tourn@@ 574
Õ@@ 574
الله 574
आ@@ 574
♥ 574
唐@@ 574
indre 573
mée 573
부@@ 573
armée 572
luz 572
Ḫ@@ 572
常@@ 572
dete 571
ficio 571
Literatur 570
akati 570
nete 570
sogen@@ 570
ính 570
kodi 568
ა 568
ک@@ 567
ப 567
acional 566
tionen 566
重@@ 566
Höhe 565
einz@@ 565
ду@@ 565
व 565
き@@ 565
Besch@@ 564
Rechts@@ 564
alre@@ 564
را@@ 564
ṯ@@ 564
기 564
iş 563
В 563
エ@@ 563
ニ@@ 563
龙@@ 563
Mch@@ 562
español 562
÷ 562
ни 562
さ@@ 562
定@@ 562
行 562
Thánh 561
Verw@@ 561
itié 561
ल@@ 561
ว@@ 561
ῦ@@ 561
ら@@ 561
主@@ 561
Insel 560
kı 559
ġ 559
漢@@ 559
Nint@@ 558
edades 558
entaire 558
士 558
bisch@@ 557
英@@ 557
modèle 556
Ба@@ 556
Ю@@ 556
ャ@@ 556
zial@@ 555
änder@@ 555
क@@ 555
가@@ 555
fte 554
Kön@@ 553
Са@@ 553
ِ 553
doa 552
ihm 552
trique 552
朱@@ 552
羅@@ 552
선@@ 552
Stelle 551
ichts@@ 551
га 551
ަ@@ 551
บ@@ 551
お@@ 551
に@@ 551
事@@ 551
Amérique 550
haline 550
ра 550
ग@@ 550
华@@ 550
flü@@ 549
muerte 549
Maji 548
trä@@ 548
¨ 548
या@@ 548
廣@@ 548
Cumhuriy@@ 547
士@@ 547
多@@ 547
10. 546
devant 546
pologie 546
ừa 546
ص@@ 545
tete 544
бе@@ 544
ి@@ 544
ウ@@ 544
ια 543
atao 542
dès 542
gré 542
maji 542
suivant 542
но 542
∧ 542
出@@ 542
Devlet 541
emein@@ 541
ಂ@@ 541
記 541
站 540
ɑ@@ 539
Ј@@ 539
њ@@ 539
ത 539
： 539
Bruder 538
Η 538
έ@@ 538
ක@@ 538
保@@ 538
堂 538
curité 537
ycidae 537
zeich@@ 537
গ@@ 537
도@@ 537
nda 536
où 536
宗 536
liwa 535
étique 535
அ@@ 535
madan 534
èn 534
ು@@ 534
ല@@ 534
න 534
ọ@@ 534
Venedi@@ 533
gebiet 533
ĕ@@ 533
ма 533
మ@@ 533
trieb@@ 532
ц 532
ק 532
德 532
Từ 531
ayı 531
ca. 531
nern 531
თ@@ 531
夫 531
Juni 530
bürger@@ 530
centrale 530
oeste 530
sozial@@ 530
ਿ@@ 530
Vater 529
ecek 529
ierra 529
б 529
रा@@ 529
ới 529
acion@@ 528
anı 528
ationen 528
pequ@@ 528
üne 528
徐@@ 528
Italien 527
Ķ@@ 527
민@@ 527
nten 526
ม@@ 526
자@@ 526
aşı 525
ciales 525
tware 525
ُ@@ 525
ত 525
ordnung 524
sitz@@ 524
Ş 524
ψ@@ 524
III. 523
cuatro 523
ví 523
ôi 523
че@@ 523
ש 523
ی 523
海 523
heit@@ 522
théâtre 522
ulus@@ 522
ʃ 522
ֵ@@ 522
alish@@ 521
wili 521
プ@@ 521
Ordu 520
baja 520
está 520
Ε 520
あ@@ 520
ん 520
忠@@ 520
是@@ 520
opér@@ 519
पा@@ 519
七@@ 519
之 519
吳@@ 519
hindi 518
mehr 518
partido 518
yeni 518
ق 518
ण@@ 518
龍 518
ablement 517
régu@@ 517
ر 517
আ@@ 517
名@@ 517
Studium 516
kül@@ 516
mbH 516
yine 516
मा@@ 516
井@@ 516
원@@ 516
anische 515
ordre 515
wango 515
œuvre 515
ί 515
μα 515
Ку@@ 515
за 515
ు@@ 515
ತ@@ 515
利@@ 515
沙@@ 515
isée 514
populaire 514
çek 514
梁@@ 514
jeni 513
kadar 513
maç@@ 513
ßer@@ 513
博@@ 513
夏@@ 513
法 513
partem@@ 512
tano 512
çek@@ 512
ний 512
ල@@ 512
昭@@ 512
马@@ 512
Bahari 511
torno 511
ட 511
村@@ 511
東 511
huwa 510
ığ@@ 510
り 510
전@@ 510
italiano 509
nuevo 509
partam@@ 509
êts 509
ا@@ 509
ே@@ 509
Υ@@ 508
ण 508
상@@ 508
Kilometer 507
seis 507
sü@@ 507
ígen@@ 507
ή@@ 507
ağı@@ 506
charac@@ 506
spéci@@ 506
verkehr 506
Ч@@ 506
kleine 505
غ@@ 505
अ@@ 505
Eurov@@ 504
muss 504
ар@@ 504
胡@@ 504
경@@ 504
duy@@ 503
ё@@ 503
安 503
fois 502
hör@@ 502
quartier 502
uyền 502
нович 502
デ@@ 502
guez 501
wür@@ 501
zeichen 501
êque 501
ου@@ 501
Liên 500
mê@@ 500
ıt 500
Мо@@ 500
dire@@ 499
fá@@ 499
ள@@ 499
ắc 499
ィ@@ 499
11. 498
baş@@ 498
wegung 498
ط@@ 498
ோ@@ 498
Desde 497
İş@@ 497
άν@@ 497
Го@@ 497
공@@ 497
화@@ 497
ouvern@@ 496
üt 496
主 496
sech@@ 495
öster@@ 495
αρ@@ 495
во 495
ب 495
兵@@ 495
Yük@@ 494
sebe@@ 494
ρο@@ 494
Не@@ 494
ە@@ 494
는 494
도 494
entras 493
gegen 493
huu 493
ด@@ 493
も@@ 493
nord@@ 492
voie 492
чи@@ 492
ह@@ 492
ದ@@ 492
ು 492
ahada 491
ن 491
ി 491
ụ 491
autour 490
posta 490
sitz 490
todo 490
〜 490
る 490
Бе@@ 489
ರ 489
こ@@ 489
ト 489
宮@@ 489
주 489
habe 488
quatre 488
っ@@ 488
entí@@ 487
ан@@ 487
ме@@ 487
ров 487
వ@@ 487
Ḳ@@ 487
ilir 486
kommen 486
tiene 486
Ν 486
ακ@@ 486
ֶ@@ 486
Ẓ@@ 486
└ 486
る@@ 486
Betrieb@@ 485
Febru@@ 485
alement 485
τα 485
ф@@ 485
ブ@@ 484
技@@ 484
Hanno@@ 483
ût 483
К 483
শ@@ 482
島@@ 482
ducation 481
vur@@ 481
ẵ@@ 481
く@@ 481
光 481
手@@ 481
津@@ 481
우@@ 481
ﬁ@@ 481
ע 480
ả 480
ダ@@ 480
你@@ 480
영@@ 480
장@@ 480
Ichneumonidae 479
deutsch 479
famille 479
igkeit 479
isé 479
naye 479
Dienst@@ 478
Sprache 478
歌@@ 478
陈@@ 478
nacional 477
ĭ 477
ρα@@ 477
се@@ 477
ạ 477
제@@ 477
Büyük 476
matéri@@ 476
punkt 476
verz@@ 476
zentr@@ 476
ά 476
αλ@@ 476
ಿ 476
Ereb@@ 475
caso 475
ли 475
वा@@ 475
は@@ 475
gende 474
mente 474
steh@@ 474
wirt@@ 474
Ì@@ 474
était 474
ку@@ 474
ր 474
在@@ 474
志@@ 474
12. 473
maal@@ 473
ล@@ 473
ရ@@ 473
事 473
特@@ 473
eht 472
isinin 472
mannschaft 472
zeug 472
軍@@ 472
lte 471
unza 471
老@@ 471
achten 470
presse 470
schutz@@ 470
ἄ@@ 470
الح@@ 469
』 469
21. 468
Nội 468
Trương 468
durum 468
iert 468
Ð@@ 468
昌@@ 468
น 467
『 467
風@@ 467
bild 466
neue 466
ಸ@@ 466
ộ 466
ió 465
wird 465
න@@ 465
⁄ 465
孫@@ 465
水 465
kiwa 464
libro 464
ст@@ 464
ย@@ 464
外@@ 464
Nhật 463
cerc@@ 463
ellik@@ 463
ĩ@@ 463
Со@@ 463
ก@@ 463
陵 463
️ 463
Vor 462
kâ@@ 462
ıc@@ 462
ες 462
ਸ@@ 462
ち@@ 462
門 462
Biblia 461
Finanz@@ 460
días 460
ılı 460
დ@@ 460
kte 459
metros 459
médec@@ 459
या 459
ⴰ@@ 459
仁@@ 459
fut 458
novela 458
voll@@ 458
wez@@ 458
ం@@ 458
が@@ 458
チ@@ 458
館 458
Fernseh@@ 457
fass@@ 457
hesh@@ 457
wohl 457
س 457
ष 457
ュ@@ 457
雄 457
마@@ 457
무@@ 457
duy 456
hangi 456
s&apos; 456
τι@@ 456
љ@@ 456
َّ@@ 456
侯 456
县 456
理@@ 456
興@@ 456
교 456
Departamento 455
오@@ 455
Beruf@@ 454
angaz@@ 454
triz 454
werden 454
étude 454
Де@@ 454
ள 454
趙@@ 454
Dokum@@ 453
baş 453
tabia 453
timm@@ 453
ồng 453
知@@ 453
어@@ 453
원 453
Espagne 452
Pfarr@@ 452
chten 452
seit@@ 452
ги@@ 452
ciudad 451
̥ 451
Ι 451
би@@ 451
Kiswahili 450
andır@@ 450
ď 450
آ@@ 450
सु@@ 450
Arbeit 449
ebil@@ 449
üş 449
Ō 449
И 449
พระ@@ 449
Dağ@@ 448
рович 448
న@@ 448
路 448
音@@ 448
kli 447
tü 447
cô@@ 446
etwa 446
historiques 446
Á 446
ज 446
景@@ 446
鄭@@ 446
소@@ 446
mip@@ 445
muer@@ 445
ม 445
原 445
þ 444
ĩa 444
θε@@ 444
ُ 444
ḍ 444
ắng 444
ếu 444
↔ 444
ων@@ 443
ار@@ 443
ज@@ 443
思@@ 443
박@@ 443
ahora 442
génér@@ 442
tiempo 442
գ@@ 442
ग 442
章@@ 442
deş@@ 441
yarat@@ 441
économ@@ 441
Ο 441
να 441
भ@@ 441
ῦ 441
长@@ 441
zuri 440
αι@@ 440
ங 440
グ@@ 440
Familie 439
الع@@ 439
ला 439
Ortste@@ 438
durant 438
saat 438
seph 438
signe 438
Υ 438
ט 438
島 438
左@@ 438
聖@@ 438
Gobierno 437
liste 437
Ар@@ 437
ều 437
kundi 436
ética 436
ώ@@ 436
တ@@ 436
ảnh 436
Dunia 435
का@@ 435
ल 435
က@@ 435
ὸ@@ 435
飛@@ 435
ildi 434
úy 434
ού@@ 434
το 434
До@@ 434
য@@ 434
相@@ 434
鳳@@ 434
ancak 433
eckt 433
ɣ@@ 433
ερ@@ 433
經 433
Politik 432
ɪ 432
री 432
ক 432
ải 432
Konz@@ 431
eleri 431
entrée 431
kör@@ 431
taifa 431
ľ 431
使 431
土@@ 431
家 431
政@@ 431
igte 430
oyun 430
ъ@@ 430
ю 430
ح 430
萬@@ 430
chré@@ 429
ganz@@ 429
imientos 429
recher@@ 429
ী 429
ు 429
∴ 429
amua 428
frica 428
ɨ@@ 428
թ@@ 428
韓@@ 428
Durch@@ 427
alismus 427
口@@ 427
業@@ 427
雲@@ 427
구@@ 427
cité 426
uncu 426
క@@ 426
可@@ 426
스@@ 426
iliz 425
ల@@ 425
muy 424
Đ 424
І@@ 424
แ@@ 424
作@@ 424
Umw@@ 423
alidad 423
allem 423
dibu@@ 423
malar 423
todos 423
ガ@@ 423
駅 423
Ort 422
häl@@ 422
ши@@ 422
वि@@ 422
Ceramb@@ 421
acomp@@ 421
kuv@@ 421
mua 421
topr@@ 421
üge 421
ŏ 421
ان@@ 421
宮 421
연@@ 421
유@@ 421
posición 420
âu 420
να@@ 420
ل 420
দ 420
林 420
deniz 419
earch 419
mère 419
vya 419
ное 419
الم@@ 419
پ@@ 419
édition 418
Т 418
ство 418
里@@ 418
tischen 417
édé 417
ǫ 417
αυ@@ 417
ον@@ 417
志 417
株@@ 417
Ď@@ 416
ци@@ 416
ṉ@@ 416
passé 415
Ô@@ 415
éctr@@ 415
Fener@@ 414
Herrschaft 414
mujeres 414
Ро@@ 414
℃ 414
時@@ 414
medios 413
professionn@@ 413
ки@@ 413
寶 413
年 413
竹@@ 413
Biographie 412
enseign@@ 412
hijo 412
⊕ 412
北京@@ 412
λι@@ 411
Հ@@ 411
أ@@ 411
ོ@@ 411
育@@ 411
Kız@@ 410
Raum 410
abril 410
commer@@ 410
ار 410
會@@ 410
湖@@ 410
heu@@ 409
ׁ@@ 409
ی@@ 409
Tử 408
ajou@@ 408
bande 408
ufen 408
viel@@ 408
xième 408
ùi 408
চ@@ 408
内@@ 408
所 408
曹@@ 408
語 408
보@@ 408
Schrif@@ 407
música 407
Пет@@ 407
ា@@ 407
如@@ 407
路@@ 407
Eğ@@ 406
musée 406
ħ 406
ĭ@@ 406
ә@@ 406
將@@ 406
魏@@ 406
Pologne 405
préf@@ 405
taus@@ 405
πο@@ 405
୍ 405
ản 405
Bürgermeister 404
ases@@ 404
hizi 404
ध@@ 404
ẹ@@ 404
ốc 404
ク 404
Thủ 403
unkt 403
̍ 403
ך 403
口 403
銀@@ 403
集 403
Arap 402
Kristo 402
Lương 402
Parte@@ 402
yenne 402
İ 402
լ@@ 402
ང 402
伊@@ 402
学校 402
divers@@ 401
kumi 401
verkehr@@ 401
Şir@@ 401
Во@@ 401
кий 401
са 401
ف 401
ặng 401
花 401
sociales 400
tanto 400
öğ@@ 400
chama 399
λλ@@ 399
ат@@ 399
富@@ 399
kathol@@ 398
poco 398
tá 398
út@@ 398
Θε@@ 398
ར@@ 398
∩ 398
Saison 397
ambazo 397
ció 397
kü 397
lauf@@ 397
Đạo 397
У 397
ಯ@@ 397
ハ@@ 397
史 397
wissenschaft@@ 396
Ζ@@ 396
元 396
樂@@ 396
일@@ 396
υ 395
пи@@ 395
ী@@ 395
ి 395
ප@@ 395
れ@@ 395
Conse@@ 394
menor 394
vuel@@ 394
érique 394
فر@@ 394
江 394
火@@ 394
Trong 393
décor@@ 393
hilo 393
ур@@ 393
ử@@ 393
等@@ 393
衛@@ 393
ungwa 392
İm@@ 392
း 392
ὰ 392
成 392
智@@ 392
riwa 391
ultad 391
ű 391
Си@@ 391
اب@@ 391
ා 391
ịa 391
ビ@@ 391
何@@ 391
ceux 390
wana@@ 390
ʰ 390
ந 390
ද@@ 390
族@@ 390
郭@@ 390
Dola 389
Grup 389
usawa 389
zieh@@ 389
ưởng 389
пе@@ 389
چ@@ 389
frei@@ 388
vía 388
zwei 388
ск@@ 388
つ@@ 388
宋@@ 388
流@@ 388
anges@@ 387
déf@@ 387
elektr@@ 387
torneo 387
вая 387
إ@@ 387
미@@ 387
！ 387
Asya 386
hasta 386
ћ@@ 386
前@@ 386
球@@ 386
谷@@ 386
Westen 385
artist@@ 385
ċ@@ 385
ха@@ 385
հ@@ 385
mittel@@ 384
schie@@ 384
ّ@@ 384
อง@@ 384
み@@ 384
君 384
好@@ 384
官@@ 384
comand@@ 383
déjà 383
τα@@ 383
ло 383
ना@@ 383
ള@@ 383
ḏ@@ 383
산@@ 383
Hiệp 382
avoir 382
canción 382
ingana 382
quelle 382
ıcı 382
ǝ@@ 382
ɨ 382
рий 382
帝 382
🏴 382
Militär@@ 381
Thế 381
terci@@ 381
ρα 381
ү@@ 381
ூ@@ 381
París 380
alización 380
madre 380
Су@@ 380
ા@@ 380
ழ@@ 380
女 380
宇@@ 380
秀@@ 380
Unis 379
particulier 379
strecke 379
wirtschaft 379
бу@@ 379
ח 379
ס 379
ය@@ 379
盧@@ 379
󠁿 379
13. 378
Бу@@ 378
ор@@ 378
ය 378
第@@ 378
을 378
alités 377
gab 377
сто@@ 377
ө@@ 377
て@@ 377
洪@@ 377
Jina 376
dessin@@ 376
önc@@ 376
ıt@@ 376
̪ 376
ιν@@ 376
ти 376
⊗ 376
昌 376
玄@@ 376
ografía 375
äß@@ 375
Đài 375
пу@@ 375
گ@@ 375
ता@@ 375
ল 375
비@@ 375
14. 374
fiel 374
jeunes 374
ŷ 374
ȟ@@ 374
ɑ 374
േ@@ 374
ส@@ 374
ổ 374
cir 373
société 373
άρ@@ 373
ал@@ 373
ك 373
გ@@ 373
刘@@ 373
antik 372
şu 372
ʊ@@ 372
Но@@ 372
ảng 372
乐@@ 372
那@@ 372
imoine 371
mji 371
Ý@@ 371
သ@@ 371
孝@@ 371
eyen 370
réc@@ 370
µ 370
ìn 370
श@@ 370
ಲ@@ 370
ร@@ 370
ống 370
字@@ 370
altı 369
künst@@ 369
muş 369
ép 369
ро 369
₨ 369
メ@@ 369
国 369
良@@ 369
fach@@ 368
kili@@ 368
ις 368
п 368
君@@ 368
師@@ 368
河 368
開@@ 368
지 368
Kanada 367
diente 367
Про@@ 367
Я 367
ца 367
延@@ 367
Thượng 366
droits 366
essee 366
ficas 366
neş 366
όν@@ 366
杨@@ 366
동 366
daki 365
victoria 365
ían 365
лович 365
溪@@ 365
集@@ 365
군 365
세@@ 365
16. 364
adele 364
ganda 364
obras 364
阳@@ 364
의@@ 364
ulit@@ 363
ático 363
П 363
Пе@@ 363
ട 363
√ 363
∪ 363
万@@ 363
gesetz@@ 362
杜@@ 362
院@@ 362
라@@ 362
여@@ 362
große 361
sí 361
Ве@@ 361
То@@ 361
про@@ 361
ское 361
ट 361
วั@@ 361
န 361
ြ@@ 361
康@@ 361
bağ@@ 360
च@@ 360
ண 360
ს 360
力@@ 360
區 360
右@@ 360
천@@ 360
nueva 359
όν 359
⇒ 359
kuwa 358
río 358
santé 358
tesi 358
̣ 358
λε@@ 358
Па@@ 358
ས@@ 358
♠ 358
kuw@@ 357
ologiques 357
ưng 357
ượng 357
ਦ@@ 357
კ@@ 357
以@@ 357
15. 356
Straßen@@ 356
arifa 356
clás@@ 356
destr@@ 356
⊂ 356
佛@@ 356
18. 355
Estados 355
jiji 355
même 355
personn@@ 355
ди 355
ਾ 355
수 355
comer@@ 354
vì 354
Ê@@ 354
█ 354
中國@@ 354
崔@@ 354
wiesen 353
zile 353
ǂ@@ 353
εν@@ 353
ше@@ 353
ْ 353
ノ@@ 353
crita 352
quien 352
usiana 352
église 352
Се@@ 352
по 352
ча@@ 352
ذ@@ 352
ồn 352
ム@@ 352
合 352
泰@@ 352
남@@ 352
씨 352
Avec 351
Hier 351
cá 351
okea 351
ασ@@ 351
الق@@ 351
Partisi 350
andere 350
classe 350
δι@@ 350
في 350
ứ 350
巴@@ 350
가 350
ekte 349
ligne 349
orité 349
traduc@@ 349
̂ 349
зна@@ 349
ля@@ 349
ག@@ 349
先@@ 349
航@@ 349
안@@ 349
edern 348
firma 348
partie 348
étu@@ 348
ня 348
aparec@@ 347
ekani 347
nisse 347
រ@@ 347
Ἰ@@ 347
和 347
慶@@ 347
왕@@ 347
esho 346
wieder 346
ydi 346
τρ@@ 346
гу@@ 346
का 346
ब@@ 346
ල 346
加@@ 346
culos 345
erischen 345
etzt 345
ري@@ 345
ಪ@@ 345
丸 345
語@@ 345
진@@ 345
17. 344
Angleterre 344
fue 344
jimbo 344
Ан@@ 344
лу@@ 344
인 344
Hạ 343
äuf@@ 343
佐@@ 343
歌 343
Khu 342
outre 342
particu@@ 342
tü@@ 342
Üniversitesi 342
ʷ 342
ть 342
อ@@ 342
₁ 342
Abgeord@@ 341
ficos 341
ılık 341
των 341
ша 341
ನ 341
心 341
本 341
Linie 340
jeux 340
rund 340
tör@@ 340
ت 340
ೆ 340
モ@@ 340
承@@ 340
賀@@ 340
Wirtschaft 339
allemand 339
biet 339
èo 339
ста@@ 339
ـ@@ 339
री@@ 339
源@@ 339
plata 338
Мар@@ 338
ى@@ 338
ẩm 338
坪@@ 338
蘇@@ 338
都 338
haben 337
ен@@ 337
ной 337
回@@ 337
柳@@ 337
2.000 336
développement 336
ihre 336
ής 336
ョ@@ 336
夫@@ 336
妃 336
广@@ 336
서 336
Gonzá@@ 335
Jahres 335
schnitt 335
ков@@ 335
нов@@ 335
रा 335
ା@@ 335
曲 335
armas 334
lider@@ 334
αγ@@ 334
Ки@@ 334
го 334
夜@@ 334
enfr@@ 333
ilçe 333
insan 333
tnis 333
ղ@@ 333
Titel 332
coi 332
layan 332
tungs@@ 332
վ@@ 332
波@@ 332
麻@@ 332
Allemagne 331
amoja 331
esini 331
seul 331
اس@@ 331
ট@@ 331
한 331
Liste 330
marché 330
meil@@ 330
ών 330
му@@ 330
су@@ 330
ति 330
ண@@ 330
ụ@@ 330
す@@ 330
寶@@ 330
最@@ 330
Bwana 329
Verfass@@ 329
breit@@ 329
cél@@ 329
gebung 329
stän@@ 329
స@@ 329
守@@ 329
治@@ 329
者 329
asker@@ 328
geht 328
konn@@ 328
ográfica 328
đồng 328
Александр 328
из@@ 328
лов 328
ड 328
ḷ 328
分@@ 328
huko 327
kamen 327
réalis@@ 327
Մ@@ 327
虎@@ 327
Bộ 326
Ortsteil 326
alipo@@ 326
iriki 326
izm 326
leti 326
गा@@ 326
ხ@@ 326
大学 326
美 326
Ces 325
Gemeinde@@ 325
halk@@ 325
vertr@@ 325
ров@@ 325
ست@@ 325
ொ@@ 325
Ḍ@@ 325
度@@ 325
范@@ 325
Kı@@ 324
heures 324
uç 324
États 324
Ô 324
ρά@@ 324
ं@@ 324
ভ@@ 324
ಹ@@ 324
ပ@@ 324
ḗ@@ 324
ワ@@ 324
研究@@ 324
葉@@ 324
자 324
Unternehmen 323
arş@@ 323
elerin 323
épo@@ 323
नि@@ 323
ง 323
fuer@@ 322
salle 322
wilaya 322
τον 322
Му@@ 322
च 322
Ṛ@@ 322
嘉@@ 322
－ 322
führ@@ 321
geber 321
krieg@@ 321
unun 321
ष@@ 321
བ@@ 321
강@@ 321
année 320
centro 320
kein 320
mét@@ 320
premières 320
ελ@@ 320
μα@@ 320
ны 320
ला@@ 320
ु 320
ప@@ 320
හ@@ 320
ὸ 320
を@@ 320
仁 320
红@@ 320
uridad 319
αμ@@ 319
Д 319
ੀ 319
ீ@@ 319
洋@@ 319
Bischof 318
agric@@ 318
grund@@ 318
lehr@@ 318
télé@@ 318
τη 318
жи@@ 318
▪ 318
信 318
影@@ 318
Innen@@ 317
Juegos 317
Müzik 317
grâce 317
ıf 317
гор@@ 317
ṯ 317
Oficina 316
indépend@@ 316
Ψ@@ 316
Ва@@ 316
ش 316
ත@@ 316
produk@@ 315
tiem@@ 315
ா 315
双@@ 315
府 315
摩@@ 315
西 315
要@@ 315
Direk@@ 314
Kongr@@ 314
klass@@ 314
Ру@@ 314
ба 314
ные 314
عبد@@ 314
ố 314
仙@@ 314
野 314
장 314
Lưu 313
wany@@ 313
зо@@ 313
ми 313
وَ@@ 313
वर 313
∙ 313
商@@ 313
泉@@ 313
Après 312
ologischen 312
सा@@ 312
ਹ@@ 312
∅ 312
久@@ 312
直@@ 312
arbeit 311
hombres 311
siones 311
ʹ@@ 311
ю@@ 311
府@@ 311
町 311
바@@ 311
cuar@@ 310
eures 310
letzte 310
mito 310
siempre 310
sử 310
Укра@@ 310
ин@@ 310
के 310
은 310
abier@@ 309
inté@@ 309
mejor 309
prä@@ 309
ि 309
ਕ@@ 309
星 309
dép@@ 308
engwa 308
eviz@@ 308
ouvent 308
Δι@@ 308
مو@@ 308
कर 308
ੰ@@ 308
గ@@ 308
ก 308
ས 308
Ἐ@@ 308
ボ@@ 308
克@@ 308
氏@@ 308
蔡@@ 308
다@@ 308
Sır@@ 307
horas 307
municipio 307
nombre 307
nö@@ 307
¶ 307
ץ 307
റ@@ 307
ท@@ 307
情@@ 307
能@@ 307
見@@ 307
Quân 306
minde 306
permi@@ 306
teş@@ 306
österreich@@ 306
後@@ 306
梅@@ 306
chữ 305
vención 305
ίας 305
Та@@ 305
ского 305
զ@@ 305
պ@@ 305
♣ 305
人民@@ 305
言 305
conseil 304
très 304
̤ 304
же@@ 304
ಬ@@ 304
ห@@ 304
ズ 304
비 304
juin 303
jwa 303
wanyama 303
من 303
े 303
ợ 303
dör@@ 302
española 302
groupe 302
limpi@@ 302
बा@@ 302
う 302
勝@@ 302
태@@ 302
Arnav@@ 301
Pendant 301
leş@@ 301
ст 301
ತ 301
大 301
蕭@@ 301
cez@@ 300
ishia 300
ordu 300
seiner 300
âge 300
̯ 300
ρί@@ 300
ция 300
号 300
姓 300
赤@@ 300
ichts 299
sozi@@ 299
yonel 299
ριος 299
Р 299
то 299
ย 299
ွ@@ 299
善@@ 299
mesi 298
partes 298
ʀ 298
ʊ 298
Κ 298
зи@@ 298
็ 298
შ@@ 298
園 298
越@@ 298
명@@ 298
ciné@@ 297
hiki 297
ब 297
્ 297
ḵ 297
ẓ 297
方 297
親@@ 297
Teil 296
angla@@ 296
dawa 296
heute 296
série 296
Алек@@ 296
ين 296
學 296
弘@@ 296
木 296
鎮@@ 296
양@@ 296
Dân 295
Hilfe 295
aliwa 295
andika 295
biet@@ 295
nouvelles 295
sprach@@ 295
ɡ@@ 295
ан 295
ث@@ 295
ور 295
交@@ 295
台 295
次@@ 295
Cộng 294
gien 294
kuu 294
lý 294
quy@@ 294
ισ@@ 294
স 294
也 294
達@@ 294
ambao 293
buni 293
jamais 293
schwer@@ 293
uyết 293
ƒ@@ 293
ति@@ 293
ോ@@ 293
ග@@ 293
臺@@ 293
陸@@ 293
그@@ 293
회 293
soit 292
Да@@ 292
Ме@@ 292
ية 292
প 292
സ@@ 292
春 292
桥@@ 292
者@@ 292
성 292
Esto 291
conjunto 291
fich@@ 291
recht@@ 291
économique 291
ско 291
ту@@ 291
ӏ@@ 291
رو@@ 291
› 291
현@@ 291
Daha 290
taille 290
ği 290
ατ@@ 290
Га@@ 290
की 290
ച@@ 290
よ@@ 290
22. 289
Doğu 289
Historique 289
cristi@@ 289
crit 289
país 289
stieg 289
và 289
ङ 289
ಲ 289
ở 289
セ@@ 289
校@@ 289
해@@ 289
occidental 288
εύ@@ 288
нови@@ 288
இ@@ 288
ற 288
ஸ 288
云@@ 288
秋@@ 288
Hậu 287
autor 287
irika 287
prépar@@ 287
toujours 287
̨ 287
∇ 287
容@@ 287
电@@ 287
산 287
스 287
Eski 286
tipi 286
ǵ@@ 286
уез@@ 286
الش@@ 286
مَ@@ 286
で@@ 286
居@@ 286
許@@ 286
音 286
에@@ 286
Polen 285
Runde 285
cü 285
seln 285
édo@@ 285
απ@@ 285
ев@@ 285
कु@@ 285
ェ@@ 285
宝@@ 285
고 285
상 285
전 285
gobern@@ 284
ibt 284
ısı 284
σκ@@ 284
це@@ 284
اد@@ 284
け@@ 284
ド 284
友@@ 284
命@@ 284
毛@@ 284
華 284
里 284
acak 283
denen 283
ɾ@@ 283
ї 283
ध 283
極@@ 283
Misri 282
ekler 282
̌ 282
خان 282
ܝ@@ 282
ना 282
ゃ@@ 282
傳 282
来@@ 282
Thông 281
Ğ@@ 281
λα@@ 281
Ре@@ 281
ೆ@@ 281
ὁ 281
卿 281
師 281
流 281
黑@@ 281
aussi 280
linal@@ 280
migu@@ 280
ıs 280
κλ@@ 280
мен@@ 280
ница 280
об@@ 280
բ@@ 280
ḫ 280
ập 280
∼ 280
体@@ 280
雄@@ 280
bà 279
harek@@ 279
Περ@@ 279
ιος 279
ри 279
сти@@ 279
ф 279
الن@@ 279
ި@@ 279
ய 279
ร 279
ქ@@ 279
石 279
중@@ 279
camino 278
ciona 278
difer@@ 278
teatro 278
ного 278
އ@@ 278
帝@@ 278
Rennen 277
carre@@ 277
tifs 277
woll@@ 277
Ду@@ 277
Иван 277
Н 277
кови@@ 277
ދ@@ 277
∠ 277
丁@@ 277
吉 277
察@@ 277
岩@@ 277
敬@@ 277
25. 276
Utur@@ 276
emek@@ 276
histór@@ 276
étudi@@ 276
œ 276
ɣ 276
ता 276
လ@@ 276
三 276
拳 276
국 276
로 276
Yüz@@ 275
corri@@ 275
etik 275
при@@ 275
ạt 275
超@@ 275
頭@@ 275
Zusammen@@ 274
böl@@ 274
lungs@@ 274
yoy@@ 274
ير 274
ਮ@@ 274
త@@ 274
ค 274
ソ@@ 274
協@@ 274
최@@ 274
angeg@@ 273
induzi 273
kuto@@ 273
monta@@ 273
óric@@ 273
άς 273
πλ@@ 273
ния 273
ع 273
ტ@@ 273
今@@ 273
手 273
牛@@ 273
連@@ 273
haki 272
hizo 272
zäh@@ 272
ер@@ 272
ж 272
ম 272
淮@@ 272
街道 272
juu 271
versch@@ 271
önem@@ 271
Ā 271
Владимир 271
те 271
ג 271
مي@@ 271
า 271
ไ@@ 271
∘ 271
祖 271
enname 270
iligen 270
ăn 270
̠ 270
ке 270
ף 270
າ@@ 270
አ@@ 270
ツ@@ 270
正 270
Meisterschaft 269
dessus 269
insi 269
ität 269
tivos 269
wahi 269
áy 269
ос@@ 269
ല 269
ျ@@ 269
や@@ 269
草@@ 269
hát 268
sterdam 268
θος 268
Ս@@ 268
ර 268
ỏ 268
₯ 268
喜@@ 268
報 268
比@@ 268
祖@@ 268
英 268
黎@@ 268
formación 267
grün@@ 267
Ни@@ 267
ге@@ 267
си 267
অ@@ 267
പ 267
ật 267
令 267
仲@@ 267
內@@ 267
Fußball@@ 266
Parlam@@ 266
ebt 266
enheit 266
ileri 266
iç 266
provincia 266
toda 266
Τ 266
ша@@ 266
شا@@ 266
ނ@@ 266
ಡ@@ 266
ケ@@ 266
日 266
bunden 265
շ@@ 265
ム 265
伯@@ 265
動@@ 265
壽@@ 265
程@@ 265
Männer 264
ancienne 264
mü@@ 264
publik 264
Ő@@ 264
ʒ 264
ੁ@@ 264
ại 264
し 264
地 264
禮@@ 264
翔 264
蘭@@ 264
郎@@ 264
23. 263
Japon 263
azini 263
posible 263
tisha 263
yolu 263
ày 263
İk@@ 263
ευ@@ 263
хи@@ 263
عَ@@ 263
لو@@ 263
ದ 263
ễ@@ 263
ễn 263
circons@@ 262
domaine 262
isini 262
preu@@ 262
ǒ 262
άκ@@ 262
сла@@ 262
դ@@ 262
ց@@ 262
علي 262
ე 262
ን@@ 262
ồ 262
ἔ@@ 262
じ@@ 262
基@@ 262
尾@@ 262
陵@@ 262
馬 262
魔@@ 262
대 262
Гор@@ 261
ẻ 261
為@@ 261
男@@ 261
fuerte 260
gleich@@ 260
jewe@@ 260
tient 260
wasi@@ 260
ˌ@@ 260
άλ@@ 260
Дмит@@ 260
Ста@@ 260
Ха@@ 260
ام@@ 260
ند@@ 260
ު@@ 260
寧@@ 260
校 260
沈@@ 260
秦@@ 260
Hristi@@ 259
bringen 259
gäng@@ 259
ografie 259
onóm@@ 259
primera 259
retour 259
ке@@ 259
ਲ@@ 259
ෙ@@ 259
丹@@ 259
修@@ 259
塘@@ 259
爱@@ 259
에 259
Uhr 258
Zahl 258
okana 258
È 258
αβ@@ 258
اد 258
ર@@ 258
于@@ 258
无@@ 258
電@@ 258
风@@ 258
Produk@@ 257
americanos 257
ayır@@ 257
huyện 257
Ä 257
écu@@ 257
слав 257
ख@@ 257
深@@ 257
紀@@ 257
雅@@ 257
과 257
န@@ 256
你 256
場 256
術@@ 256
足@@ 256
Kupası 255
asyon 255
quán 255
Ла@@ 255
ђ@@ 255
ద@@ 255
公司 255
7,5 254
Wohn@@ 254
européenne 254
zwa 254
Đế 254
ικός 254
мир 254
أحمد 254
بر@@ 254
ậu 254
⅛ 254
だ@@ 254
曲@@ 254
로@@ 254
Japón 253
ardhi 253
mayan 253
religie@@ 253
ʒ@@ 253
الس@@ 253
يد 253
ὀ@@ 253
二 253
局 253
桂@@ 253
灣@@ 253
chaî@@ 252
ους 252
Б 252
Г 252
با@@ 252
ਨ@@ 252
月 252
术@@ 252
章 252
色@@ 252
호 252
dalg@@ 251
hiện 251
mehr@@ 251
siglo 251
σα 251
ў@@ 251
الد@@ 251
ون 251
ක 251
ối 251
紅@@ 251
觀@@ 251
貴@@ 251
门@@ 251
鬼@@ 251
아 251
d&apos; 250
presidente 250
tekn@@ 250
πι@@ 250
ской 250
ป@@ 250
典 250
寧 250
戦@@ 250
노@@ 250
랑@@ 250
부 250
hamia 249
zwischen 249
αν 249
λος 249
Александ@@ 249
СССР 249
ال 249
بي@@ 249
ਤ@@ 249
ピ@@ 249
上 249
岡@@ 249
愛 249
良 249
connu 248
linie 248
peut 248
schriften 248
stoff@@ 248
¦ 248
ıp 248
ʻ 248
άγ@@ 248
εία 248
ό 248
ز 248
لل@@ 248
ް@@ 248
ಳ@@ 248
ửa 248
屋@@ 248
崇@@ 248
普@@ 248
雪@@ 248
백@@ 248
Schrift@@ 247
chí 247
derung 247
idée 247
liegen 247
unión 247
ет@@ 247
ных 247
ܐ 247
ำ@@ 247
中心 247
将@@ 247
論 247
間@@ 247
ligi 246
Độ 246
ры@@ 246
مان 246
ली 246
ḻ@@ 246
ầm 246
わ@@ 246
布@@ 246
想@@ 246
羅 246
Halk 245
así 245
catég@@ 245
ßen@@ 245
üzel 245
ĝ@@ 245
Μ 245
لَ@@ 245
ং@@ 245
ஆ@@ 245
ṁ 245
奇@@ 245
grenz@@ 244
piè@@ 244
taux 244
telef@@ 244
τη@@ 244
ώ 244
ँ@@ 244
ực 244
ℳ 244
ァ@@ 244
삼@@ 244
getr@@ 243
hiyo 243
péri@@ 243
temas 243
tı 243
į 243
Влади@@ 243
މ@@ 243
ි 243
イ 243
若@@ 243
라 243
재@@ 243
setzung 242
Ви@@ 242
لا@@ 242
ὑ@@ 242
男 242
米@@ 242
Jahren 241
huit 241
quốc 241
αί@@ 241
ολ@@ 241
τε@@ 241
ские 241
щ@@ 241
من@@ 241
െ@@ 241
ển 241
吴@@ 241
紫@@ 241
니@@ 241
당 241
위@@ 241
Jahrhunderts 240
Spiele 240
almente 240
annt 240
pén@@ 240
uzun@@ 240
Æ 240
Рус@@ 240
ན 240
ṁ@@ 240
ức 240
惠@@ 240
興 240
隆@@ 240
Eylül 239
bildung 239
deut@@ 239
lük 239
prendre 239
teile 239
μος 239
νη 239
Никола@@ 239
ئ@@ 239
को 239
ẽ@@ 239
食@@ 239
시 239
europé@@ 238
zös@@ 238
ǣ@@ 238
нова 238
ो 238
ೀ@@ 238
အ@@ 238
任@@ 238
記@@ 238
kez 237
με@@ 237
аль@@ 237
الج@@ 237
선 237
Umoja 236
alität 236
doğ@@ 236
marca 236
versu@@ 236
ätze 236
ört 236
Ρ 236
Алексе@@ 236
الك@@ 236
ུ@@ 236
ာ 236
北 236
省@@ 236
谷 236
長 236
창@@ 236
alık 235
frère 235
seines 235
tigkeit 235
tigung 235
toute 235
yali@@ 235
έν@@ 235
μέ@@ 235
Лю@@ 235
الأ@@ 235
مح@@ 235
ک 235
ރ@@ 235
ൂ@@ 235
ම 235
ếng 235
ベ@@ 235
幸@@ 235
晉@@ 235
民 235
空 235
角@@ 235
雙@@ 235
Está 234
Russie 234
gelen@@ 234
titre 234
ως 234
ర 234
ว 234
入@@ 234
半@@ 234
向@@ 234
振@@ 234
罗@@ 234
estren@@ 233
firme 233
suz 233
ս 233
नी 233
ह 233
ব 233
ひ@@ 233
学院 233
洲@@ 233
習@@ 233
街 233
頭 233
30. 232
Durch 232
Géographie 232
grado 232
kämp@@ 232
meden 232
ouest 232
rı 232
З 232
Ли@@ 232
اني 232
শ 232
ต 232
ห 232
စ@@ 232
့ 232
別@@ 232
呂@@ 232
慕@@ 232
拉@@ 232
Jahrhundert 231
jefe 231
odio 231
 231
écr@@ 231
Şark@@ 231
ρε@@ 231
τερ@@ 231
зе@@ 231
ڤ@@ 231
ड@@ 231
ಕ 231
ር@@ 231
ṛ 231
補@@ 231
護@@ 231
adı 230
akazi 230
crí@@ 230
desde 230
parlam@@ 230
sicht 230
zao 230
étab@@ 230
ѣ@@ 230
الر@@ 230
لي@@ 230
ೇ@@ 230
字 230
錢 230
distrito 229
giai 229
weka 229
εις 229
οί 229
лов@@ 229
ман 229
он 229
он@@ 229
от@@ 229
ք@@ 229
ז 229
ض@@ 229
مر@@ 229
ད@@ 229
ှ@@ 229
兴@@ 229
橋 229
殿 229
Ihr 228
depuis 228
dernier 228
mique 228
président 228
schon 228
üy@@ 228
ην@@ 228
أَ@@ 228
ام 228
ور@@ 228
जा@@ 228
ळ@@ 228
意@@ 228
船@@ 228
起@@ 228
順@@ 228
cinq 227
lleg@@ 227
obispo 227
pér@@ 227
yeye 227
άσ@@ 227
υρ@@ 227
Иванович 227
рова 227
मे@@ 227
จ@@ 227
〉 227
中華@@ 227
得@@ 227
臣 227
隊 227
꞉ 227
Entwicklung 226
Nhi@@ 226
folg@@ 226
uzun 226
verbind@@ 226
Χ 226
εί@@ 226
Красно@@ 226
ਜ@@ 226
ᾶ@@ 226
↓ 226
ホ@@ 226
ラ 226
園@@ 226
尉 226
治 226
而@@ 226
關@@ 226
평@@ 226
Müs@@ 225
Oktober 225
erst 225
ihrer 225
wais@@ 225
κο@@ 225
μι@@ 225
Николай 225
евна 225
ля 225
ние 225
ска@@ 225
化 225
奉@@ 225
忠 225
念@@ 225
清 225
Gebi@@ 224
recu@@ 224
suiv@@ 224
travaux 224
ци 224
״ 224
ما@@ 224
ต@@ 224
ὄ@@ 224
‹ 224
そ@@ 224
舞@@ 224
苏@@ 224
Bunun 223
πος 223
ви 223
қ@@ 223
ते 223
ा 223
ড 223
མ@@ 223
က 223
吏@@ 223
言@@ 223
어 223
İsp@@ 222
ʲ@@ 222
υλ@@ 222
кова 222
лен@@ 222
है 222
ର@@ 222
ི@@ 222
业@@ 222
命 222
貞@@ 222
Ξ@@ 221
ει 221
сло@@ 221
दा@@ 221
ਗ@@ 221
經@@ 221
金 221
靈@@ 221
飞@@ 221
교@@ 221
호@@ 221
casi 220
kommt 220
lesia 220
performan@@ 220
yó 220
ùy 220
ধ@@ 220
ო 220
た 220
ろ@@ 220
endung 219
estado 219
también 219
Рес@@ 219
де 219
الب@@ 219
ộng 219
き 219
ズ@@ 219
佳@@ 219
甲@@ 219
面@@ 219
鮮@@ 219
Có 218
emaji 218
norte 218
origen 218
έρ@@ 218
κύ@@ 218
Михай@@ 218
вер@@ 218
до 218
ит@@ 218
сь 218
ਬ@@ 218
〈 218
ポ@@ 218
堂@@ 218
寺@@ 218
湾@@ 218
用@@ 218
盛@@ 218
청@@ 218
escri@@ 217
ismi 217
kın 217
moja 217
Âu 217
χος 217
Лу@@ 217
це 217
उ@@ 217
ਰ 217
મ@@ 217
井 217
傳@@ 217
军@@ 217
戶@@ 217
藏@@ 217
雷@@ 217
용@@ 217
enero 216
kauf@@ 216
resto 216
waren 216
Ú 216
Л 216
ле 216
ռ@@ 216
ای@@ 216
ත 216
พ@@ 216
め@@ 216
ネ@@ 216
孔@@ 216
泉 216
真 216
近@@ 216
進@@ 216
Parlament@@ 215
Regel 215
Tiene 215
encuentr@@ 215
prés@@ 215
жа@@ 215
ช@@ 215
္ 215
ḏ 215
⊥ 215
ゴ@@ 215
下 215
asist@@ 214
aujour@@ 214
ekwa 214
huy 214
istischen 214
¯ 214
Đào 214
ǧ@@ 214
лы@@ 214
ք 214
ခ@@ 214
京 214
初@@ 214
錢@@ 214
鹿@@ 214
Cet 213
Ulus@@ 213
ansas 213
faite 213
gleich 213
hijos 213
océ@@ 213
thư 213
versiones 213
Ç 213
ɡ 213
ʕ@@ 213
ती 213
健@@ 213
哈@@ 213
精@@ 213
首@@ 213
과@@ 213
화 213
années 212
faa 212
ificación 212
selb@@ 212
οδ@@ 212
Че@@ 212
є@@ 212
ج 212
وا@@ 212
話 212
車 212
정 212
Kanton 211
jüd@@ 211
minh 211
papel 211
wieg@@ 211
ʉ 211
πρ@@ 211
вна 211
ева 211
рус@@ 211
чка 211
الت@@ 211
ৰ@@ 211
ਪ@@ 211
∀ 211
利 211
功@@ 211
所@@ 211
hâ@@ 210
poder 210
ċ 210
̈ 210
ική 210
է@@ 210
نا 210
学 210
森@@ 210
福 210
24. 209
déput@@ 209
perio 209
septi@@ 209
verano 209
Đường 209
εια 209
кин 209
ล 209
₤ 209
司 209
斯@@ 209
� 209
ashara 208
düz@@ 208
oloj@@ 208
parque 208
russe 208
trang 208
tür 208
ãn 208
Сер@@ 208
йн 208
ских 208
ই@@ 208
え@@ 208
橋@@ 208
童@@ 208
digung 207
į@@ 207
œuvres 207
ав@@ 207
ды 207
сть 207
ха 207
ट@@ 207
दि@@ 207
मा 207
ổi 207
♂ 207
反@@ 207
威@@ 207
爾@@ 207
禮 207
臨@@ 207
際@@ 207
黒@@ 207
학 207
Stil 206
elektron@@ 206
españ@@ 206
gör@@ 206
wirtschaft@@ 206
último 206
ười 206
थ@@ 206
₴ 206
ど@@ 206
中学 206
圖 206
모@@ 206
예@@ 206
행@@ 206
Fue 205
Wilaya 205
abhäng@@ 205
atı 205
gesi 205
şi@@ 205
Е 205
России 205
Сто@@ 205
ак@@ 205
الل@@ 205
نا@@ 205
ਵ@@ 205
അ@@ 205
ണ 205
與@@ 205
茶@@ 205
郡@@ 205
铁@@ 205
내@@ 205
를 205
만@@ 205
Tras 204
nhi@@ 204
nouveaux 204
tarde 204
teki 204
Ал@@ 204
Ша@@ 204
шка 204
Қ@@ 204
ري 204
وال@@ 204
ේ@@ 204
世界@@ 204
孟@@ 204
學校 204
律@@ 204
易@@ 204
目@@ 204
豆@@ 204
阮@@ 204
anciens 203
bilin@@ 203
encu@@ 203
ορ@@ 203
Пу@@ 203
ды@@ 203
الف@@ 203
रि@@ 203
ོ 203
ḳ 203
夢@@ 203
康 203
形@@ 203
由@@ 203
광@@ 203
윤@@ 203
liko 202
mouvement 202
zeuge 202
établ@@ 202
εν 202
νης 202
οι@@ 202
ρον 202
от 202
ات 202
ି@@ 202
య@@ 202
♀ 202
代 202
樂 202
源 202
烏@@ 202
線 202
anistan 201
cabeza 201
endet 201
konum@@ 201
ndio 201
êng 201
цы 201
الدين 201
شه@@ 201
การ@@ 201
ស@@ 201
ẽ 201
ời 201
Ἄ@@ 201
ア 201
拔@@ 201
街@@ 201
通 201
錄 201
계@@ 201
Außen@@ 200
compagnie 200
dür@@ 200
gelen 200
ikuu 200
Сергей 200
Ти@@ 200
घ@@ 200
ท 200
ት 200
て 200
官 200
彭@@ 200
演@@ 200
濟@@ 200
虎 200
￥ 200
akter@@ 199
montr@@ 199
yapan 199
éroï@@ 199
évrier 199
͟ 199
ομ@@ 199
Гри@@ 199
льный 199
ман@@ 199
ḇ@@ 199
ột 199
理 199
画@@ 199
abord 198
campagne 198
şir@@ 198
ै 198
ச 198
സ 198
ọc 198
令@@ 198
机@@ 198
死@@ 198
거@@ 198
ikali 197
largo 197
nacionales 197
viles 197
κος 197
Би@@ 197
կ 197
ะ@@ 197
其@@ 197
报 197
相 197
鐵@@ 197
doğdu 196
ingres@@ 196
puiss@@ 196
èles 196
Ŭ@@ 196
την 196
При@@ 196
лю@@ 196
دی 196
ستان 196
ค@@ 196
燕@@ 196
瑞@@ 196
荊@@ 196
은@@ 196
anzia 195
azama 195
ennt 195
fuera 195
juego 195
nte 195
opération 195
parenti@@ 195
ря@@ 195
ты 195
Վ@@ 195
می@@ 195
ള 195
บ 195
ṓ@@ 195
謝@@ 195
麗@@ 195
Một 194
hewa 194
nungen 194
Κύ@@ 194
Пре@@ 194
ी 194
எ@@ 194
መ@@ 194
ⵉ@@ 194
步@@ 194
紀 194
袁@@ 194
음@@ 194
Reihe 193
Vertr@@ 193
elección 193
nunca 193
ре 193
ܘ@@ 193
ೂ@@ 193
ං@@ 193
中央@@ 193
戸@@ 193
支@@ 193
教 193
莫@@ 193
제 193
27. 192
Ichneum@@ 192
Nhà 192
ierte 192
nouv@@ 192
preuve 192
stamm@@ 192
texte 192
vyo@@ 192
дивизия 192
миро@@ 192
الص@@ 192
در 192
سي@@ 192
ܪ@@ 192
ާ@@ 192
าน@@ 192
定 192
池@@ 192
개@@ 192
ﺍ@@ 192
fahren 191
façon 191
filmi 191
klein@@ 191
tuy 191
vingt 191
ält 191
érée 191
ʉ@@ 191
Те@@ 191
чу@@ 191
मु@@ 191
ば@@ 191
俊@@ 191
桃@@ 191
版@@ 191
諸@@ 191
진 191
mismo 190
trieb 190
ησ@@ 190
Ге@@ 190
Никола 190
се 190
ско@@ 190
ود 190
ون@@ 190
सं@@ 190
ീ@@ 190
の 190
ゲ@@ 190
務@@ 190
宜@@ 190
店 190
条@@ 190
果@@ 190
根@@ 190
版 190
韋@@ 190
neuen 189
époque 189
έλ@@ 189
ργ@@ 189
ֲ@@ 189
رَ@@ 189
علی 189
نس@@ 189
भा@@ 189
मन 189
में 189
ങ 189
ു 189
เจ 189
ფ@@ 189
ስ@@ 189
【 189
】 189
使@@ 189
博 189
香 189
Dreh@@ 188
âng 188
écriv@@ 188
óm 188
ʌ@@ 188
Ди@@ 188
ց 188
খ@@ 188
※ 188
尼@@ 188
峰 188
庄@@ 188
구 188
치@@ 188
ensatz 187
fútbol 187
sieben 187
stellen 187
γι@@ 187
Михаил 187
ства 187
тов 187
ન@@ 187
ే@@ 187
ḩ 187
大學 187
泰 187
浦@@ 187
茂@@ 187
酒@@ 187
馮@@ 187
Produktion 186
ativas 186
matrimonio 186
médic@@ 186
neden 186
Égl@@ 186
ছ@@ 186
ู 186
ἴ@@ 186
ら 186
守 186
曾@@ 186
潘@@ 186
신 186
일 186
0,5 185
arrière 185
ekonom@@ 185
machen 185
schrif@@ 185
tungen 185
volon@@ 185
ây 185
ètre 185
đi 185
ưa 185
πολι@@ 185
ча 185
ә 185
أبو 185
को@@ 185
रु@@ 185
െ 185
බ@@ 185
ⁿ 185
か 185
機@@ 185
浙@@ 185
造@@ 185
遠@@ 185
방@@ 185
acción 184
dài 184
joto 184
setz@@ 184
ŝ@@ 184
І 184
Василь@@ 184
कर@@ 184
僕@@ 184
共@@ 184
尔@@ 184
益@@ 184
종@@ 184
황@@ 184
👩 184
Beschreibung 183
Thống 183
achama 183
renom@@ 183
toàn 183
traite 183
ɕ@@ 183
μά@@ 183
ρυ@@ 183
Գ@@ 183
ّ 183
सन 183
ძ@@ 183
ậm 183
宁@@ 183
解@@ 183
雲 183
회@@ 183
👨 183
Agosti 182
only@@ 182
pró@@ 182
rend 182
Ż 182
σσ@@ 182
τά@@ 182
اي@@ 182
ने 182
动@@ 182
园 182
情 182
新 182
赵@@ 182
防@@ 182
靜@@ 182
風 182
덕@@ 182
Ils 181
adhim@@ 181
compte 181
lục 181
moins 181
municipal@@ 181
évêque 181
ösung 181
υπ@@ 181
ны@@ 181
сы 181
фи@@ 181
حسن 181
े@@ 181
ੀ@@ 181
ข@@ 181
₽ 181
刀 181
发@@ 181
熊@@ 181
薛@@ 181
际@@ 181
후 181
Alman 180
Cổ 180
dân 180
gibt 180
heiten 180
leme 180
lieder@@ 180
lugar 180
objet 180
weiter 180
zake 180
Ά@@ 180
περ@@ 180
ван@@ 180
ј 180
الخ@@ 180
يا 180
विद 180
ೋ@@ 180
ദ@@ 180
วง@@ 180
助 180
政 180
未@@ 180
菜 180
術 180
요 180
Cơ 179
fais@@ 179
idadi 179
política 179
Ċ@@ 179
μπ@@ 179
ογ@@ 179
οφ@@ 179
ται 179
Пав@@ 179
உ@@ 179
ಜ@@ 179
ද 179
ැ@@ 179
ὴ@@ 179
ヤ@@ 179
制@@ 179
Kuu 178
Namen 178
afiri 178
landais 178
tél@@ 178
văn 178
İr@@ 178
γκ@@ 178
اش@@ 178
دي 178
থ@@ 178
ষ 178
డ@@ 178
客@@ 178
感@@ 178
打@@ 178
維@@ 178
股@@ 178
면 178
승@@ 178
bò 177
frente 177
ikation 177
سر@@ 177
ख 177
मि@@ 177
ด 177
ỷ 177
座 177
身@@ 177
速@@ 177
alisi@@ 176
diput@@ 176
ensuite 176
pièces 176
previ@@ 176
westen 176
̆ 176
Гра@@ 176
Сте@@ 176
ск 176
ּ 176
احمد 176
महा@@ 176
এ@@ 176
മ 176
ര 176
介 176
儀 176
唱@@ 176
恩@@ 176
總@@ 176
車@@ 176
陰@@ 176
단 176
순@@ 176
29. 175
Danh 175
dicha 175
jahr 175
kesi 175
theo 175
ίσ@@ 175
стрел@@ 175
राम 175
ො@@ 175
ἱ@@ 175
侯@@ 175
勝 175
姚@@ 175
尾 175
战@@ 175
格@@ 175
楚@@ 175
樹 175
派 175
聲@@ 175
蒙@@ 175
鄧@@ 175
Hàn 174
Tổ 174
lık@@ 174
miş 174
seit 174
stehen 174
wahl 174
yalı 174
θη@@ 174
οχ@@ 174
Дра@@ 174
Хо@@ 174
гъ@@ 174
سى 174
दे@@ 174
ḱ@@ 174
せ@@ 174
头@@ 174
茶 174
隆 174
경 174
불@@ 174
Irak 173
ekana 173
ilç@@ 173
sasa 173
álisis 173
äischen 173
μεν@@ 173
ён@@ 173
في@@ 173
مه@@ 173
ول@@ 173
वा 173
ੇ 173
与@@ 173
名 173
密@@ 173
玉 173
雨@@ 173
등@@ 173
울@@ 173
Người 172
eğ@@ 172
güc@@ 172
wahr@@ 172
мов 172
ня@@ 172
तु@@ 172
ુ@@ 172
นา@@ 172
ờ 172
み 172
姬 172
季@@ 172
洛@@ 172
线 172
葛@@ 172
두@@ 172
홍@@ 172
amı 171
ledi 171
regel@@ 171
siete 171
toutes 171
اس 171
يل 171
ڠ 171
ழ 171
న 171
ජ@@ 171
ยา@@ 171
ี@@ 171
เ@@ 171
ზ@@ 171
‛ 171
ザ@@ 171
再@@ 171
渡@@ 171
現@@ 171
秘@@ 171
羽@@ 171
齊@@ 171
관@@ 171
나 171
dann 170
donde 170
huku 170
kendi 170
Фе@@ 170
ве 170
Կ@@ 170
ա 170
بو@@ 170
رة 170
ते@@ 170
ମ@@ 170
ස 170
สุ@@ 170
力 170
塔@@ 170
屋 170
崎@@ 170
龙 170
26. 169
afrika 169
bió 169
dogo 169
politische 169
schein@@ 169
sür@@ 169
óvenes 169
üp 169
ў 169
ӕ@@ 169
اء 169
दु@@ 169
हा@@ 169
ṇ 169
グ 169
來@@ 169
放@@ 169
段@@ 169
금@@ 169
통@@ 169
Dünya 168
interpr@@ 168
longu@@ 168
législ@@ 168
ɲ 168
Αν@@ 168
άδ@@ 168
ές 168
Росси@@ 168
бра@@ 168
нин 168
بی@@ 168
مة 168
ག 168
ར 168
ီ@@ 168
በ@@ 168
Ḵ@@ 168
典@@ 168
望@@ 168
汉@@ 168
珠@@ 168
終@@ 168
铁路 168
partidos 167
wuch@@ 167
çı@@ 167
ɓ@@ 167
ημ@@ 167
παρ@@ 167
όπουλος 167
ед@@ 167
фо@@ 167
ી 167
ྱ@@ 167
す 167
东 167
伏@@ 167
刑@@ 167
师@@ 167
登@@ 167
秀 167
豊@@ 167
賢@@ 167
영 167
； 167
Năm 166
Ziwa 166
beim 166
especi@@ 166
keti 166
représent@@ 166
selon 166
΄ 166
Καρ@@ 166
Ива@@ 166
Ор@@ 166
Ча@@ 166
сан@@ 166
ލ@@ 166
ក@@ 166
⁺ 166
ふ@@ 166
我 166
联@@ 166
高 166
ꜣ@@ 166
역 166
aéri@@ 165
ngữ 165
Бела@@ 165
сте@@ 165
می 165
জ 165
₫ 165
就@@ 165
岳@@ 165
戦 165
業 165
irken 164
karar@@ 164
keine 164
préc@@ 164
suces@@ 164
zili@@ 164
ʹ 164
̩ 164
τυ@@ 164
Жи@@ 164
Чер@@ 164
ван 164
тан@@ 164
фе@@ 164
ما 164
ಣ@@ 164
ണ@@ 164
รั@@ 164
伯 164
勇@@ 164
团@@ 164
快@@ 164
早@@ 164
松 164
蒲@@ 164
襄@@ 164
akili 163
connue 163
ellement 163
irler 163
isième 163
kten 163
tido 163
ına 163
οσ@@ 163
ку 163
чи 163
ья 163
تر@@ 163
ܡ@@ 163
ಪ 163
ลา@@ 163
ừng 163
医@@ 163
品 163
彦 163
董@@ 163
관 163
타@@ 163
Nutz@@ 162
Phật 162
Yunan 162
quân 162
règ@@ 162
рина 162
به 162
سی@@ 162
گا@@ 162
ने@@ 162
ஜ@@ 162
త 162
Ἑ@@ 162
伝@@ 162
夷 162
性@@ 162
懷@@ 162
经@@ 162
落@@ 162
indwa 161
pouvoir 161
quelques 161
seite 161
wanja 161
Ζ 161
доро@@ 161
мы@@ 161
ности 161
مع@@ 161
हि@@ 161
ବ@@ 161
ผ@@ 161
สร@@ 161
ὕ@@ 161
恭@@ 161
横@@ 161
物 161
自治@@ 161
문 161
🏻 161
Không 160
Maisha 160
besser@@ 160
dayan@@ 160
ingira 160
tipo 160
οπ@@ 160
Ком@@ 160
Х 160
гра@@ 160
дар 160
بن@@ 160
ܲ@@ 160
मो@@ 160
မ 160
ấm 160
ご@@ 160
共和@@ 160
珠 160
統@@ 160
遊@@ 160
dön@@ 159
nchi 159
principales 159
sistema 159
université 159
İkinci 159
ˁ@@ 159
Сла@@ 159
льная 159
حي@@ 159
ञ 159
ಯ 159
ນ@@ 159
ể 159
ỉ@@ 159
ゆ@@ 159
ヒ@@ 159
兰@@ 159
时@@ 159
皇 159
議@@ 159
단@@ 159
Müz@@ 158
amientos 158
idir 158
iendo 158
meilleur 158
yıl 158
đàn 158
ırı 158
ίν@@ 158
τρι@@ 158
ای 158
गो@@ 158
ạo 158
↦ 158
ペ@@ 158
书@@ 158
指@@ 158
第一@@ 158
翰@@ 158
트 158
31. 157
anischen 157
intégr@@ 157
lassen 157
reiche 157
teor@@ 157
watu 157
Ông 157
ùa 157
κά@@ 157
μαν@@ 157
τί@@ 157
Вла@@ 157
ато@@ 157
лий 157
ян@@ 157
دي@@ 157
रे@@ 157
से 157
ಶ 157
අ@@ 157
ảy 157
ớ@@ 157
余@@ 157
叶@@ 157
后@@ 157
品@@ 157
徳@@ 157
朴@@ 157
皇帝 157
陶@@ 157
🏼 157
accu@@ 156
letz@@ 156
mızı 156
nahme 156
segunda 156
seule 156
sprech@@ 156
taş@@ 156
ίδης 156
καλ@@ 156
υν@@ 156
вы@@ 156
нь 156
ху@@ 156
छ@@ 156
ર 156
ὲ 156
₪ 156
ギ@@ 156
孙@@ 156
房@@ 156
拓@@ 156
衛 156
說@@ 156
🏾 156
Staaten 155
dort 155
libros 155
lığı 155
présent@@ 155
tự 155
ĕ 155
вый 155
ге 155
кра@@ 155
къ@@ 155
մ 155
الآ@@ 155
دا@@ 155
ු 155
ป 155
ั 155
ብ@@ 155
他@@ 155
坡@@ 155
尹@@ 155
开@@ 155
引 155
甘@@ 155
胡 155
至@@ 155
衣@@ 155
鉄@@ 155
Bedeutung 154
derec@@ 154
griech@@ 154
groß@@ 154
igual 154
áu 154
ɗ@@ 154
Κα@@ 154
δρ@@ 154
όρ@@ 154
Гу@@ 154
انی 154
ु@@ 154
উ@@ 154
ୁ@@ 154
ల 154
ಭ@@ 154
റ 154
། 154
ည 154
ន@@ 154
世 154
场 154
夷@@ 154
慧@@ 154
洞@@ 154
詩@@ 154
酒 154
북@@ 154
현 154
🏿 154
ainsi 153
alidades 153
conocido 153
[...]
