۔ 1107595
کے 1043958
میں 924272
، 848254
کی 807593
ہے 704059
اور 645591
سے 511982
کا 499620
نے 387047
اس 368755
پر 325514
کو 321660
ایک 312979
ہیں 219941
) 208652
( 204095
ان 197212
. 194730
جو 184020
یہ 179521
کیا 164165
کہ 151450
و 145843
تھا 144113
&quot; 143715
واقع 136987
بھی 133887
کر 128608
ک@@ 126082
وہ 111910
س@@ 109800
تھے 108373
@-@ 105482
گ@@ 105036
ن@@ 104553
یا 104239
ی@@ 104062
پ@@ 103050
لیے 99619
ہ 98505
وں 98322
گیا 96724
ہ@@ 94716
م@@ 92161
ر@@ 87050
بعد 83509
ب@@ 82820
ڈ@@ 82054
: 81598
و@@ 79011
چ@@ 78372
ک 78024
ل@@ 77566
ری@@ 76382
ز@@ 76193
ٹ 75477
جس 73931
ے 73531
می@@ 73507
د@@ 73234
ان@@ 72926
ج@@ 71560
ش@@ 71521
سی@@ 71368
ہو 71174
آبادی 70956
ای@@ 70469
ا 69424
ٹ@@ 69310
بی@@ 69188
بن 68979
تھی 68524
آ@@ 68222
ساتھ 67150
ی 66908
س 66091
نہیں 65709
ح@@ 64850
م 64068
مجموعی 61820
افراد 61395
کی@@ 61280
کرنے 61174
ع@@ 60774
; 59939
ہی 59760
تک 59668
دیا 59468
اپنے 58719
تفصیلات 58629
ار@@ 58174
ف@@ 58054
ت 57812
مشتمل 57796
&amp; 57439
ل 56890
ت@@ 56733
جاتا 56585
دی 56242
ا@@ 56240
طور 55996
ائی 55812
کاؤنٹی 55743
تو 54331
ق@@ 54036
ہوئے 53990
وی@@ 52361
رو@@ 52229
بر@@ 52145
ری 51462
آپ 50912
پی@@ 50757
را@@ 50519
من@@ 50278
د 50249
ر 49512
لی@@ 49229
پاکستان 49125
کر@@ 48636
نہ 48601
نام 48288
خ@@ 47899
ہوا 47374
ال@@ 47309
لی 46847
ز 46593
تی 46267
اس@@ 46059
متحدہ 45813
نی@@ 45705
ن 45408
ش 43851
دی@@ 43632
شہر 43219
یں 42961
اللہ 42291
ڈ 41772
تا 41361
گئے 40827
زیادہ 40394
ضلع 40259
امریکا 40196
ب 40052
ور 40010
انہوں 39922
اپنی 39748
سی 39696
ین 39462
انی 39358
ور@@ 39243
علاقہ 39104
لے 38955
سطح 38869
شپ 38721
جب 38436
ریاستہائے 37871
لا@@ 37610
کھ@@ 37470
گئی 37143
دو 36897
ام@@ 36645
میٹر 36626
حاصل 36074
محمد 35871
ص@@ 35754
لیکن 35703
کرتے 35397
نا 35358
مربع 35345
ڈی@@ 34931
رقبہ 34672
ہوئی 34599
ٹاؤن 34572
کو@@ 34446
سر@@ 34398
نا@@ 33952
ٹی@@ 33889
پر@@ 33878
وا@@ 33874
نی 33822
مو@@ 33794
ِ 33776
بہت 33536
بلندی 33427
سب 33284
رہ 33021
کیلومیٹر 32807
ہو@@ 32762
ط@@ 32760
ار 32679
اسے 32633
غ@@ 32518
بھ@@ 32438
ات 32123
ون@@ 31897
سال 31687
وقت 31547
ٹی 31341
کہا 31189
لو@@ 31156
لا 30978
فی@@ 30934
تے 30534
پہلے 30462
ہونے 30437
جی@@ 30361
شامل 30262
ہوتا 30216
اب@@ 30098
ہی@@ 30059
ف 30027
والے 29948
کچھ 29939
/ 29549
کسی 29392
وی 29380
ق 29127
اسی 28975
رہے 28827
gt 28612
دہ 28577
تی@@ 28533
ائ@@ 28521
اد@@ 28482
خان 28470
lt 28446
او@@ 28440
جن 28066
با@@ 27966
وجہ 27888
مح@@ 27627
اری 27517
آباد 27217
ہر 27163
تھ@@ 27008
ئ@@ 26978
مع@@ 26768
اں 26745
بی 26681
کام 26629
شی@@ 26607
مر@@ 26565
سو@@ 26409
گر@@ 26111
طرح 26087
جنگ 25742
ج 25643
‘ 25626
حکومت 25507
رہائشی 25380
در@@ 25356
علی 25053
ول@@ 24986
ون 24986
ال 24942
ما@@ 24924
اب 24917
چی@@ 24709
می 24241
دور 24059
فر@@ 24040
ائی@@ 24034
سٹ@@ 24034
لیا 23996
ھ 23967
زی@@ 23949
طرف 23825
سو 23760
حضرت 23747
دے 23702
نگ 23422
نو@@ 23141
ٹر 23112
دھ@@ 23033
سمندر 23033
گ 22970
گی@@ 22908
اف@@ 22739
اہ@@ 22716
انے 22673
کوئی 22640
مش@@ 22596
خلاف 22556
3@@ 22553
انہ 22463
چ 22337
شاہ 22323
ست@@ 22294
سن 22151
کم 22148
جو@@ 21936
استعمال 21898
چھ@@ 21888
مطابق 21850
دار 21768
اک@@ 21706
زبان 21700
ائے 21654
نگ@@ 21586
یوں 21495
فلم 21493
ات@@ 21486
’ 21464
انہیں 21455
ول 21419
شن 21338
تعلیم 20971
بھارت 20887
ام 20724
اش@@ 20632
ذ@@ 20602
یر 20572
تمام 20482
شروع 20374
صوبہ 20363
پیدا 20274
ي@@ 20124
رہا 19934
والی 19870
زندگی 19860
اور@@ 19825
کار@@ 19578
پ 19539
ك@@ 19478
ھ@@ 19449
گھ@@ 19320
پھر 19272
ڈی 18964
گو@@ 18941
مار@@ 18933
جن@@ 18902
ع 18873
ہم 18864
تھیں 18860
گی 18858
لئے 18852
تر@@ 18796
ث@@ 18734
یت 18680
وری 18676
دوران 18653
ض@@ 18605
ي 18559
انا 18502
4@@ 18458
نک@@ 18458
پور 18438
سن@@ 18413
مل@@ 18397
لہ 18393
عام 18305
تو@@ 18250
- 18227
مقام 18220
صرف 18188
بے 18119
گا 18086
اسلام 18029
ملک 17979
کرکٹ 17964
آر@@ 17908
مشہور 17863
کتاب 17797
یہاں 17747
غیر 17638
کیے 17616
دو@@ 17551
مہ 17505
جاتی 17498
کئی 17493
تین 17455
ہوتی 17331
پیش 17327
خود 17307
ند@@ 17284
جہاں 17283
کس 17259
بو@@ 17161
اے 17076
را 17045
کرنا 17033
کرتا 17000
بات 16992
ڑ 16974
لوگوں 16959
ٹن 16909
مختلف 16865
چو@@ 16842
سر 16806
ڑ@@ 16800
کار 16796
وب@@ 16765
عبد 16732
توں 16670
موجود 16670
تاریخ 16655
جا 16634
ہوں 16607
فی 16560
جائے 16473
حصہ 16385
&#124; 16312
امام 16255
اص@@ 16179
وس@@ 16164
الی 16150
اپ@@ 16144
ما 16123
دنیا 16065
عمر 16058
9@@ 16045
6@@ 15982
دن 15963
فرانسیسی 15818
5@@ 15805
مان@@ 15720
قائم 15672
دوسرے 15657
سم@@ 15656
اہم 15653
بن@@ 15605
رین 15594
8@@ 15587
پہلی 15584
اج@@ 15557
ابن 15443
7@@ 15393
آف 15367
سینٹ 15319
ہوائی 15294
احمد 15277
دونوں 15222
ریاست 15195
بہ@@ 15108
ِ@@ 15069
ح 15040
کل 14979
وفات 14927
اح@@ 14926
&#93; 14925
لینڈ 14922
پی 14829
الدین 14827
2 14818
دریا 14798
جانے 14744
تا@@ 14737
بین 14722
اردو 14655
جنوبی 14650
&#91; 14592
قی@@ 14564
ٹھ@@ 14527
علاوہ 14452
مد@@ 14372
ٹر@@ 14348
مت 14324
سک@@ 14323
1 14321
یعنی 14316
ہزار 14291
اتی 14268
مس@@ 14250
بڑے 14197
فہرست 14170
نڈ@@ 14152
پو@@ 14142
of 14140
وار 14117
ابو 14097
؛ 14095
کن@@ 14067
مہ@@ 14013
است@@ 13971
بار 13963
تع@@ 13946
مت@@ 13944
ظ@@ 13941
اد 13902
&apos; 13867
بل@@ 13855
پھ@@ 13845
مج@@ 13843
پاس 13789
جی 13757
فوج 13749
دیگر 13745
3 13647
رہی 13587
خ 13570
علیہ 13438
سلطنت 13397
یونیورسٹی 13397
سید 13389
اگر 13365
جیسے 13360
اسٹیشن 13346
بڑا 13297
لوگ 13266
ء 13209
بڑی 13198
ہندوستان 13189
وم@@ 13178
وا 13174
مص@@ 13168
ایران 13140
ہر@@ 13125
علم 13107
ہوتے 12981
جبکہ 12979
هٔ 12955
ؤ 12931
از@@ 12921
, 12890
مان 12813
تر 12802
خاندان 12767
روں 12758
نس@@ 12722
وال@@ 12721
صدی 12718
خواتین 12702
عمل 12654
اڈا 12651
برا@@ 12592
الی@@ 12553
2@@ 12523
ئی 12502
دا@@ 12468
ریلوے 12410
من 12387
دوسری 12383
قومی 12377
شمالی 12361
رات 12349
4 12213
ئر 12207
سل@@ 12190
مگر 12173
لو 12123
خاص 12078
جاری 12073
صدر 12062
اپنا 12052
رے 12030
جان@@ 12029
پرو@@ 12017
جھ@@ 12002
حی@@ 12001
مغربی 11996
ارہ 11993
بیان 11973
وت@@ 11973
بارے 11936
جاتے 11933
وج@@ 11887
بد@@ 11857
عدد 11853
اگ@@ 11850
کل@@ 11847
گن 11847
پنجاب 11836
ابتدائی 11773
درمیان 11738
ٹو@@ 11727
آئی 11719
0ء 11668
سکتا 11654
شی 11651
اع@@ 11599
بنا 11593
تعلق 11578
چار 11522
ٹیسٹ 11512
ۃ 11481
بار@@ 11471
6 11469
جسے 11452
آغاز 11439
فرانس 11407
والا 11386
کرتی 11350
تاہم 11339
201@@ 11337
مک@@ 11333
والد 11333
قی 11332
کا@@ 11328
نیو 11282
یو@@ 11273
بہ 11263
علاقے 11259
از 11229
الم@@ 11218
سٹ 11217
200@@ 11205
لگ@@ 11179
حسین 11144
5 11143
ڑی 11135
7ء 11134
نظر 11127
َ@@ 11117
کن 11092
لائ@@ 11078
انگ@@ 11061
1ء 11022
کردار 10954
کالج 10935
ستان 10908
ئے 10857
ؓ 10840
تق@@ 10840
الاقوامی 10827
جر@@ 10818
ٹا 10787
اسٹ@@ 10771
گھر 10755
تعمیر 10752
امریکی 10745
ادہ 10744
وار@@ 10675
گاؤں 10646
سیاسی 10633
ٹیم 10629
رہ@@ 10585
گے 10573
سا@@ 10572
لوں 10572
موں 10553
یم 10553
مین 10542
منٹ 10494
انوں 10453
سپ@@ 10407
ند 10395
ٹس 10383
عرب 10379
ُ@@ 10379
تعداد 10373
وف@@ 10367
مق@@ 10336
– 10328
ویں 10319
انگریزی 10302
8 10301
چین 10297
صاحب 10293
7 10284
نظ@@ 10281
جگہ 10270
نڈ 10264
ارت 10242
ممالک 10217
لڑ@@ 10196
6ء 10185
17@@ 10179
5ء 10179
شادی 10178
مسجد 10156
2ء 10142
شر@@ 10138
پیدائش 10111
ادا 10055
کیونکہ 10055
پری@@ 10052
الح@@ 10051
اط@@ 10042
شیخ 10015
فل@@ 10015
مسلم 9997
یل 9981
زی 9973
نٹ 9958
ابی 9938
مکمل 9927
اق@@ 9923
ڈا 9914
1,@@ 9909
کہتے 9836
اسلامی 9834
9 9819
“ 9803
عل@@ 9796
ادی 9776
قریب 9759
لاہور 9743
ں 9735
مل 9717
رس@@ 9684
نق@@ 9678
ذریعہ 9667
گری@@ 9658
وزیر 9652
دین 9648
نس 9645
4ء 9630
آئ@@ 9629
خی@@ 9614
انڈ@@ 9609
حیثیت 9588
20 9585
ط 9576
ایا 9550
ه@@ 9548
یونین 9541
کہ@@ 9539
20@@ 9521
روس 9502
اٹھ@@ 9492
16@@ 9486
قبل 9481
عربی 9458
سلطان 9409
نج@@ 9409
مشرقی 9404
عی@@ 9368
ولی@@ 9368
فری@@ 9361
جہ@@ 9351
وم 9321
ڑے 9312
مولانا 9290
فار@@ 9256
مدد 9233
قدیم 9228
آئے 9215
ۂ 9203
کش@@ 9158
جے 9151
ص 9146
بح@@ 9133
زمین 9109
ہار@@ 9107
الینوائے 9104
ے@@ 9099
رکھا 9092
نام@@ 9092
کلی@@ 9070
15@@ 9068
13@@ 9063
پڑ@@ 9049
ایس 9046
قتل 9037
نظام 9026
عظیم 9023
اروں 9010
ْ@@ 8999
شائع 8997
یات 8983
فرمایا 8979
تص@@ 8973
حملہ 8960
نو 8924
کان@@ 8915
ولی 8866
وہاں 8837
” 8832
کری@@ 8821
9ء 8763
بلکہ 8759
علاقوں 8754
واپس 8752
ّ@@ 8750
آیا 8736
ذکر 8720
غ 8706
گرا@@ 8705
اختیار 8701
رت 8692
نوں 8689
کرو@@ 8678
تم@@ 8669
بعض 8665
نش@@ 8656
ختم 8655
مست@@ 8620
شا@@ 8600
زہ 8593
تحریک 8576
فتح 8568
بنایا 8551
میچ 8529
شخص 8525
فوجی 8516
قرآن 8493
مال@@ 8482
199@@ 8477
تب@@ 8455
10 8451
وس 8449
انی@@ 8438
ریہ 8421
تھ 8411
جا@@ 8406
نیا 8404
عبد@@ 8363
عت 8361
لم 8355
دینے 8327
پہلا 8312
مب@@ 8301
صح@@ 8295
اعظم 8291
کوشش 8257
اء 8242
ڑا 8236
تقسیم 8229
جانب 8218
حکم 8192
وال 8192
رام 8182
مزید 8162
برطانوی 8150
جان 8149
یون@@ 8138
پاکستانی 8130
ایم 8127
کور@@ 8124
رسول 8114
انھوں 8111
دست@@ 8093
رنز 8083
قابل 8072
وق@@ 8065
وغیرہ 8038
لکھا 8033
خدمات 8031
اہل 8020
آخری 8014
سان 8012
حسن 7978
وے 7969
گئیں 7969
اسکول 7947
بری@@ 7939
رو 7936
اون@@ 7923
خان@@ 7917
8ء 7915
14@@ 7914
تیار 7914
کاونٹی 7903
مرا@@ 7900
بھائی 7899
نٹ@@ 7898
مارچ 7894
ترکی 7886
پانی 7886
گز@@ 7875
پانچ 7869
پڑھ@@ 7866
كاونٹي 7862
كاؤنٹي 7861
نز 7852
اُ@@ 7847
خو@@ 7836
مز@@ 7824
جمہوریہ 7818
بولا 7805
مذ@@ 7798
چی 7794
دان 7784
ترین 7781
قرار 7779
آج 7776
سکتے 7773
ري@@ 7765
چند 7752
قہ 7730
دل 7727
انس@@ 7721
آب@@ 7693
در 7689
این 7686
بنیاد 7686
بڑھ@@ 7684
انجام 7662
عم@@ 7649
ایسے 7639
فو@@ 7631
قسم 7602
سائ@@ 7554
کبھی 7552
شت 7547
خیال 7544
کراچی 7542
چل@@ 7541
مسلمانوں 7540
شہ@@ 7538
خدا 7532
نار@@ 7519
ض 7505
دار@@ 7493
گو 7493
بر 7479
بال@@ 7478
ترقی 7468
قر@@ 7467
موجودہ 7452
ٹری@@ 7447
مرکزی 7425
گاہ 7425
شمار 7414
198@@ 7406
اسک@@ 7405
متعلق 7404
الہ 7400
کنساس 7397
پور@@ 7388
عب@@ 7383
حق 7379
عالم 7365
تم 7336
دیتے 7336
197@@ 7322
کونسل 7313
آزاد 7301
ٹو 7301
3ء 7296
تحت 7280
مینیسوٹا 7260
چھ 7259
لفظ 7256
سندھ 7254
حدیث 7252
وان 7249
بادشاہ 7234
عالمی 7229
ؤ@@ 7218
ایسا 7214
آزادی 7210
کرکے 7210
مور@@ 7208
کھی@@ 7206
بنیادی 7200
اہ 7187
جات 7182
ذیل 7181
دس 7177
اگست 7169
موت 7169
ژ@@ 7166
0@@ 7139
مقامی 7138
قیام 7136
یو 7135
سب@@ 7122
سلسلہ 7120
متعدد 7113
اول 7105
گروپ 7104
پارٹی 7096
سرکاری 7093
ود 7089
ادب 7088
انڈیانا 7084
داد 7084
سا 7079
تن@@ 7078
مار 7073
آخر 7068
رکھنے 7064
خط@@ 7049
امی@@ 7038
قانون 7036
12 7029
طی@@ 7029
رکھتے 7028
15 7026
جنوری 7017
ائل 7006
سفر 7003
ظاہر 6992
سنگھ 6990
ٰ 6963
مشی 6953
اصل 6936
کٹ 6935
پھی@@ 6929
000 6928
بول@@ 6922
شو@@ 6917
عی 6916
زیر 6914
آن@@ 6912
مپ@@ 6909
پوری 6904
ہند 6896
اکتوبر 6887
میر 6882
مسلمان 6878
دسمبر 6874
قبضہ 6870
ارے 6865
اخ@@ 6861
ایڈ@@ 6851
سین 6850
ث 6838
دوبارہ 6826
جون 6795
رح@@ 6789
ہا 6782
انتخابات 6774
فق@@ 6761
مئی 6757
ذریعے 6741
لز 6736
ذ 6732
بیٹے 6731
امی 6725
کافی 6723
ك 6719
اسٹی@@ 6717
ہاتھ 6715
فن 6714
گا@@ 6714
اعلان 6699
کیں 6692
بنائے 6673
داری 6673
پہ@@ 6670
جدید 6669
ستمبر 6661
مون@@ 6648
شمال 6647
فہ 6647
رکن 6642
تیں 6636
پار@@ 6636
اتے 6615
قوم 6613
َ 6611
بھارتی 6604
جولائی 6592
بھی@@ 6577
درجہ 6567
صورت 6566
ڈر 6565
جانا 6560
کال@@ 6550
بچ@@ 6548
نومبر 6507
19@@ 6503
دہلی 6500
لاطینی 6497
منتخب 6488
آسٹریلیا 6482
ملا 6477
بہترین 6475
سامنے 6469
کس@@ 6461
ڈھ@@ 6452
مذہبی 6437
عوامی 6434
کیریئر 6432
شام 6419
رب@@ 6408
11 6407
اکثر 6404
میری 6400
جرمنی 6398
لندن 6397
زر@@ 6390
ٰ@@ 6388
گن@@ 6383
آنے 6380
بنانے 6372
ﷺ 6363
الق@@ 6351
تح@@ 6341
بند@@ 6333
اسمبلی 6315
194@@ 6290
بل 6288
شکست 6285
ایسی 6279
چکے 6279
ڈاکٹر 6275
جنوب 6269
تف@@ 6262
وز@@ 6252
دیں 6250
روسی 6228
وائ@@ 6221
اپریل 6218
نم@@ 6206
وو@@ 6202
19 6194
فارسی 6179
انتقال 6172
گر 6169
جنگ@@ 6166
نامہ 6163
اثر 6162
اول@@ 6161
سان@@ 6144
برطانیہ 6140
پس 6139
بطور 6136
ندر 6135
؟ 6131
دا 6126
ؤں 6123
ائیں 6120
کریں 6103
14 6098
تش@@ 6093
آ 6082
سوویت 6080
تھی@@ 6078
فروری 6078
مقرر 6078
تقریباً 6070
جامعہ 6064
جہ 6063
کرے 6058
کوں 6052
ادی@@ 6046
تحصیل 6043
ندی 6042
لکھ@@ 6039
ائر 6035
کیوں 6031
فر 6025
جنرل 6020
قبول 6018
سین@@ 6017
عات 6012
وي@@ 5999
سکے 5995
فرا@@ 5985
حر@@ 5977
کامیاب 5977
دوں 5976
دیکھ@@ 5969
رائے 5964
لات 5964
الن@@ 5961
30 5956
مز 5956
نئی 5948
بند 5944
196@@ 5940
تاریخی 5917
ڈے 5915
کاری 5914
25 5913
الب@@ 5908
دہائی 5908
ين@@ 5904
دیکھا 5903
پسند 5902
مر 5890
عہد 5879
شاہ@@ 5878
ائن 5866
2,@@ 5861
مي@@ 5854
وب 5853
اخت@@ 5851
ٹاون 5841
اٹ@@ 5836
بچوں 5835
رائ@@ 5834
195@@ 5830
اک 5828
10@@ 5821
كي@@ 5820
امیر 5819
16 5816
لي@@ 5809
شاعری 5808
18 5804
روایت 5804
ڈو 5781
خوا@@ 5780
ہوئیں 5769
چنانچہ 5764
السلام 5763
غز@@ 5757
خانہ 5755
حالات 5751
فض@@ 5751
مرکز 5749
کول@@ 5746
شاہی 5745
يا 5737
صف@@ 5736
شریف 5735
الا 5733
شاعر 5717
مذہب 5703
الع@@ 5683
انگ 5680
ڈو@@ 5679
آئیووا 5676
ترک 5674
صلی 5672
اندر 5662
13 5661
جماعت 5647
اِ@@ 5637
12@@ 5636
شکل 5634
جر 5632
پہنچ@@ 5629
بھر 5627
18@@ 5626
سیاست 5615
غلام 5614
چھوٹا 5606
راج 5604
جائ@@ 5603
نتیجے 5599
قب@@ 5590
بنی 5588
ملی 5579
مث@@ 5572
موقع 5572
مشرق 5565
روز 5563
دع@@ 5562
رنگ 5553
فیصد 5552
اسرائیل 5551
اي@@ 5547
17 5546
رون 5546
انداز 5543
فٹ 5542
ائیوں 5538
سکتی 5538
_ 5534
افغانستان 5522
معلوم 5521
تد@@ 5520
قصبہ 5520
حال 5512
جل@@ 5510
فت@@ 5504
مف@@ 5502
نئے 5500
او 5499
یاں 5499
کنی@@ 5498
کردہ 5492
الگ 5487
شدہ 5487
حصے 5479
اِس 5470
.@@ 5452
ڈن 5445
اف 5441
تاکہ 5435
اگرچہ 5432
یہی 5432
کلا@@ 5423
چان@@ 5402
نف@@ 5380
کلومیٹر 5380
الت@@ 5355
درج 5353
نل 5347
روز@@ 5341
دریائے 5337
انسان 5335
زب@@ 5329
داخل 5323
لان@@ 5322
لیگ 5310
ٹری 5304
اُس 5289
فیصلہ 5288
پڑا 5288
پا 5286
نمبر 5277
انسانی 5276
ہندو 5274
ڑوں 5255
اوہائیو 5246
پائی 5246
لس 5241
چکی 5232
ترجمہ 5227
کت@@ 5227
حد 5221
مط@@ 5216
کشن 5206
سات 5200
علامت 5195
گرد 5194
الر@@ 5193
حقوق 5187
کردیا 5185
آر 5174
تہ@@ 5164
امن 5163
چار@@ 5161
مصر 5147
خواجہ 5140
جواب 5137
برو@@ 5131
کون@@ 5129
یز 5123
فراہم 5119
دیے 5109
قل@@ 5106
ایل 5105
اج 5104
مے 5102
مری@@ 5100
T@@ 5096
دکھ@@ 5092
دہ@@ 5091
والوں 5088
جمع 5087
فت 5081
کتب 5078
رکھی 5077
ہندوستانی 5066
باہر 5063
کرا@@ 5057
اض@@ 5054
ارا 5053
مقصد 5051
اُن 5040
معروف 5038
کمپنی 5038
چر 5033
اداکارہ 5032
میل 5023
زمانے 5019
ست 5016
ئی@@ 5013
وسلم 4999
بت 4996
لر 4996
ٹے 4996
مراد 4993
تب 4965
ویل 4959
ادارہ 4946
سابق 4936
لگا 4925
اجازت 4922
محل 4920
دوسرا 4918
سہ@@ 4918
باوجود 4916
زم 4910
24 4904
سیریز 4903
وسطی 4884
مول@@ 4878
ثابت 4873
قلعہ 4869
گرو@@ 4866
چاہ@@ 4864
مرتبہ 4862
تشکیل 4858
21 4852
باب 4848
حمایت 4848
عوام 4841
1@@ 4835
ئن 4834
اتحاد 4828
مال 4824
باقی 4820
تنظیم 4819
واشنگٹن 4819
22 4813
لال 4813
حملے 4810
چھوڑ 4809
پردیش 4805
قص@@ 4802
ضرورت 4801
برائے 4799
کٹ@@ 4796
قری@@ 4793
ہونا 4777
بغیر 4775
تعلیمی 4774
مات 4773
ونا 4771
مغرب 4764
عہ 4762
میہ 4754
فیلڈ 4752
تیس 4751
زمانہ 4746
ونی 4742
یہودی 4738
مدینہ 4728
فور@@ 4723
ادر 4718
وف 4704
منتقل 4701
مقابلہ 4700
کیلیفورنیا 4694
لن 4693
شیا 4688
ئر@@ 4687
23 4683
ﺎ@@ 4660
سمجھا 4656
لار@@ 4649
علامہ 4648
کشمیر 4647
دیتا 4644
ورا@@ 4638
تج@@ 4636
ضی 4636
انگلینڈ 4629
با 4626
ہری 4624
کمیون 4619
سمجھ@@ 4618
خدمت 4609
روا@@ 4596
رکھ@@ 4596
ى 4594
ہائی 4593
سٹی@@ 4590
شن@@ 4586
راج@@ 4579
صی@@ 4579
الفاظ 4578
سور@@ 4577
ﺍ@@ 4576
کھیل 4574
طر@@ 4572
کھلاڑی 4567
بش@@ 4565
ایہ 4563
سری 4561
اکی@@ 4559
حالت 4558
وسی 4553
193@@ 4543
Saint 4543
ستی 4542
چا 4539
اؤ@@ 4532
ارات 4528
خلافت 4522
باز 4518
ریس 4509
پاک 4509
جڑواں 4508
ء@@ 4506
بغاوت 4499
ندھ@@ 4496
چلے 4494
اعلیٰ 4492
ماں 4489
نماز 4486
کان 4483
واں 4481
امت 4479
فلموں 4479
ين 4479
بری 4478
شہ 4478
تہ 4477
لین 4474
! 4473
میرے 4468
چکا 4467
علا@@ 4466
ٹل 4464
رک 4452
عہ@@ 4452
نسی 4452
اتا 4439
آگے 4430
یورپ 4423
رس 4417
چھوٹے 4416
لت 4415
انص@@ 4408
سکا 4408
گول@@ 4403
ناول 4399
ران 4397
سينٹ 4394
نر 4394
علوم 4390
ٹیلی 4390
26 4385
بیر 4383
ایف 4381
افواج 4379
ڈز 4379
اولاد 4377
ٹھ 4374
حلقہ 4373
جلد 4372
خلی@@ 4372
ڑھ@@ 4371
3,@@ 4367
معنی 4367
تعلقات 4366
حوالے 4365
میدان 4363
اتح@@ 4360
عمو@@ 4356
تخ@@ 4354
ایوارڈ 4349
ٹوں 4349
بع@@ 4348
طاقت 4348
تربیت 4343
سنہ 4342
ہوگا 4342
مخ@@ 4340
کامیابی 4333
سماجی 4330
رہتے 4321
سخت 4314
تبدیل 4313
تھو@@ 4313
تقری@@ 4308
نیٹ 4299
نسل 4298
رہنے 4297
سط@@ 4296
اؤ 4295
متاثر 4290
بلا@@ 4288
ملا@@ 4288
خاتون 4286
ماری 4284
= 4279
دیکھ 4279
گار 4273
ٹک 4269
انتہائی 4263
مغ@@ 4263
روم 4262
سرگر@@ 4262
دری 4261
نہایت 4259
عد@@ 4254
پنسلوانیا 4250
حم@@ 4242
ولادت 4239
پولینڈ 4239
28 4237
جرمن 4236
27 4235
سائنس 4234
ریٹ@@ 4229
ماس@@ 4228
اضافہ 4223
نور 4222
رف 4218
ادبی 4217
زے 4217
مصنف 4214
باعث 4211
نامی 4209
كي 4208
گڑھ 4207
سہ 4201
حقیقت 4195
نقل 4194
اند@@ 4193
جنہوں 4192
مملکت 4187
وطن 4186
کہانی 4182
رن 4176
چھو@@ 4171
عثمانی 4169
ڈرا@@ 4164
ہدایت 4157
افی 4155
نیشنل 4149
اؤں 4142
کش 4140
بتایا 4139
انت@@ 4136
لینے 4133
واقعہ 4130
انھیں 4122
the 4119
ذیلی 4118
زوں 4118
طہ 4118
کپ 4117
بلند 4115
علمی 4113
الج@@ 4112
گل 4111
قیادت 4109
خار@@ 4106
گور@@ 4104
لاس 4097
1.@@ 4090
موسیقی 4087
بان@@ 4083
کلاس 4079
جیسا 4078
چونکہ 4077
بندی 4076
لگے 4073
رض@@ 4069
گنتی 4066
ﮐ@@ 4066
پک@@ 4063
َّ@@ 4057
مثال 4056
خط 4053
علی@@ 4050
یاد 4045
ہلاک 4043
محبت 4040
چینی 4037
بانی 4035
وسیع 4035
مالک 4033
فائ@@ 4027
داروں 4025
سعودی 4023
کہلا@@ 4021
مابین 4019
بیٹی 4017
ولا 4017
خر@@ 4015
انڈیا 4014
جنسی 4010
Canton 4008
ریوں 4004
عراق 4001
منظر 3997
واقعات 3997
ود@@ 3996
رش@@ 3994
لاکھ 3992
رج@@ 3990
ه 3989
2.@@ 3988
ڈل 3985
آمد 3977
روزہ 3976
وز 3971
محمود 3968
حوالہ 3962
راب 3962
شک@@ 3960
مہم 3955
انات 3951
اقبال 3944
پہنچ 3944
نما 3943
قدر 3940
بنگلہ 3939
اعزاز 3934
ای 3934
دیش 3932
e 3925
مختار 3924
وات 3921
بنے 3918
حک@@ 3917
نگر 3912
الف@@ 3911
برگ 3908
مسائل 3904
ویسٹ 3903
شریک 3902
مجھے 3902
ٹرو@@ 3899
اضلاع 3898
چر@@ 3895
حض@@ 3890
پورے 3886
پے 3883
جارجیا 3878
بت@@ 3868
تسلیم 3868
الش@@ 3864
میوں 3858
ماہ 3857
یک 3857
مکہ 3856
عقی@@ 3852
عددی 3850
معاش@@ 3849
طویل 3844
معی@@ 3839
کھیل@@ 3835
29 3831
سي@@ 3831
اوی@@ 3829
شہروں 3826
جار@@ 3821
امات 3817
نبی 3817
بجائے 3814
ورلڈ 3813
سلا@@ 3812
کوٹ 3807
جزیرہ 3805
جائیں 3795
ایرانی 3793
ٹنگ 3791
ہسپانوی 3791
واضح 3789
ترا@@ 3788
ریت 3787
پان@@ 3786
تقریبا 3780
ميں 3780
سردار 3779
28@@ 3775
راہ 3774
پیر 3774
چاہیے 3774
ُ 3772
ذمہ 3770
ني@@ 3770
ؒ 3769
نز@@ 3769
افریقہ 3767
0 3762
وک 3762
سال@@ 3759
کلام 3759
قبیلہ 3758
ٹیکساس 3752
لکھی 3751
پل 3751
حل 3750
سلو@@ 3750
ریل 3749
ٰی 3749
29@@ 3747
عباس 3746
عمر@@ 3738
ہندی 3738
لحاظ 3737
لیہ 3732
رم 3730
ید 3729
چل 3728
نظاموں 3726
پارلی@@ 3726
25@@ 3725
اك@@ 3725
0.@@ 3720
آل 3718
لیل 3718
چے 3716
نگار 3712
شہری 3711
رق@@ 3710
شہز@@ 3710
40 3709
بي@@ 3708
شیر 3708
شع@@ 3707
پولیس 3707
انتخاب 3704
پایا 3701
شکار 3700
پول@@ 3696
چلا 3695
واق@@ 3694
شعب@@ 3692
ہا@@ 3691
ادات 3687
مظ@@ 3686
بلحاظ 3685
خلیفہ 3685
مقابلے 3683
زید 3681
سام@@ 3680
والدہ 3680
میڈی@@ 3677
مقبول 3676
آٹھ 3671
ارف 3666
اق 3666
50 3660
24@@ 3658
تحریر 3657
اینڈ 3655
نمایاں 3654
غی@@ 3652
in 3651
وص@@ 3651
کینیڈا 3650
یار 3649
اہمیت 3648
نوا@@ 3648
فرسٹ 3642
کتابیں 3641
دان@@ 3640
جاپان 3638
ملکی 3634
کت 3634
محفوظ 3631
نت 3627
علما 3620
لیں 3620
3.@@ 3618
ریات 3616
توجہ 3614
اقوام 3608
ریا 3608
یورپی 3605
رکھتا 3601
زیر@@ 3601
مضامین 3601
دروا@@ 3596
صوبے 3596
ریکارڈ 3593
مسیح 3593
پش@@ 3592
ھی 3592
خد@@ 3590
خت 3589
وادی 3589
مطلب 3587
فلمی 3586
گروہ 3586
بیعت 3585
حکمران 3585
ورہ 3584
گلو@@ 3584
مین@@ 3582
192@@ 3577
ڈگری 3575
نیز 3574
رہیں 3569
سوی@@ 3568
ایشیا 3559
وسکونسن 3559
بہتر 3555
مقامات 3555
نور@@ 3554
ابھی 3552
لڑائی 3552
صحیح 3549
County 3545
فورڈ 3545
مخصوص 3545
ﮯ 3545
حیات 3544
بچے 3543
جیت 3537
لائی 3533
کری 3531
سنگ@@ 3529
آتا 3528
گورنر 3528
پیمانے 3527
یاد@@ 3526
-@@ 3525
تحقیق 3525
جذ@@ 3525
اما 3524
شیعہ 3523
ہمیشہ 3520
صر 3518
دل@@ 3517
30@@ 3515
في@@ 3509
کردی 3508
زبانوں 3506
معاہدے 3506
ہجرت 3504
بنائی 3502
شوں 3501
سٹر 3499
موسم 3498
لہ@@ 3496
انیوں 3494
بیٹا 3494
2018 3492
تحری@@ 3492
ريلوے 3489
کمان@@ 3488
نص@@ 3487
وڈ 3487
گار@@ 3486
جسم 3485
ابراہیم 3482
اظہار 3482
یوسف 3481
بیس 3480
تناز@@ 3476
مجموعہ 3473
ماہر 3470
الو@@ 3468
رد 3468
چھوٹی 3465
ذہ@@ 3463
واحد 3463
اث@@ 3459
26@@ 3456
آتے 3455
الم 3449
دور@@ 3449
مہی@@ 3447
اسٹيشن 3446
کام@@ 3446
پورا 3445
اوسط 3442
ضروری 3442
شہرت 3441
صحت 3435
ہار 3435
تال 3431
عمارت 3431
انکار 3430
لف@@ 3430
ممتاز 3429
بلے 3426
تل@@ 3420
دائ@@ 3418
ذاتی 3416
معاہدہ 3416
کوش@@ 3416
مجھ 3406
جوا@@ 3404
لائن 3399
پہاڑ 3399
اسلا@@ 3396
یارک 3392
نواب 3387
کنٹرول 3387
سمیت 3385
بز@@ 3383
بال 3376
پیچھے 3376
معلومات 3375
چیز 3374
مرح@@ 3373
ڑیوں 3372
رار 3371
فرم@@ 3370
لن@@ 3370
مختصر 3370
مظاہ@@ 3370
نتیجہ 3369
عن@@ 3363
عیسوی 3361
قانونی 3361
مانی 3361
فا@@ 3360
طریقہ 3359
كے 3359
پروگرام 3359
کاروں 3356
تجرب@@ 3352
عے 3349
اٹ 3346
رتی 3346
سویں 3345
ورجینیا 3345
مبنی 3344
تباہ 3338
دولت 3337
الیہ 3335
شخصیت 3335
روڈ 3326
یس 3326
دت 3324
دیوں 3324
زندہ 3324
دگی 3322
پنجابی 3322
جنگی 3319
وت 3318
اقتدار 3316
خطر@@ 3316
ثر 3314
سفی@@ 3313
یونانی 3313
بیوی 3310
جہاز 3309
کہیں 3308
شین 3306
آیت 3304
4.@@ 3301
انقلاب 3300
دھی 3299
کتابوں 3297
قات 3296
ْ 3294
h 3293
الس@@ 3292
ثقافت 3288
میاں 3285
باپ 3282
سارے 3282
اچھ@@ 3280
دھ 3280
امل 3278
سل 3277
وک@@ 3277
31 3276
سما@@ 3269
الیس 3266
کھوں 3266
وجود 3256
وٹ 3253
برس 3251
مؤ@@ 3251
مبر 3250
نصف 3247
ولوں 3247
انعام 3243
باش@@ 3243
کھیلے 3242
District 3238
منی 3235
طالب 3232
پن 3229
سعید 3228
دورہ 3226
ندوں 3220
عبداللہ 3219
وہ@@ 3219
عرصہ 3218
بینک 3216
کاروب@@ 3213
شہید 3212
ہنگ@@ 3210
ولا@@ 3207
an 3204
نسب 3202
ریاستوں 3199
قائد 3199
نک 3197
سلسلے 3191
پیغ@@ 3191
لان 3190
ابی@@ 3188
حافظ 3188
آواز 3187
لیک 3187
پورٹ 3184
عرصے 3181
ہاں 3181
روانہ 3179
ایڈی@@ 3177
چش@@ 3176
زن 3175
شا 3174
ایچ 3173
وَ@@ 3172
کشی 3171
ملین 3169
مول 3168
دیق 3165
ونگ 3165
عر@@ 3162
متح@@ 3162
بلی@@ 3159
تصور 3159
سٹی 3159
طرز 3157
ملتا 3154
محکمہ 3152
ندہ 3150
27@@ 3148
L@@ 3144
ﯿ@@ 3142
بیت 3140
پرا@@ 3137
کین 3136
خلا@@ 3135
ایک@@ 3134
حہ 3130
مقد@@ 3130
يك@@ 3130
پارک 3128
اوپر 3127
شرح 3127
لکھتے 3127
پروفیسر 3126
کرم 3125
انتظ@@ 3124
جگ@@ 3120
بڑھ 3117
پہنچا 3117
كو@@ 3116
مندرجہ 3114
کھیلا 3113
کھ 3110
راست 3109
کریم 3109
بننے 3108
کوئ@@ 3102
الحکومت 3101
معام@@ 3101
دوم 3100
عورت 3099
مطالعہ 3099
ئ 3097
4,@@ 3096
اؤن@@ 3096
وض@@ 3095
الرحمن 3093
زور 3092
شرکت 3092
بج@@ 3090
خت@@ 3090
يو@@ 3089
کاش@@ 3088
D@@ 3086
ملے 3086
منصوبہ 3083
ویب 3081
خری@@ 3080
مرزا 3080
ونی@@ 3080
مائ@@ 3075
نیوزی 3075
کیم@@ 3073
امیہ 3071
زار 3071
مری 3071
فرماتے 3070
چک 3070
لنکا 3069
بھیجا 3068
درا@@ 3068
جد 3062
60 3061
تار@@ 3061
ینی 3060
ہویں 3059
شان 3058
لایا 3058
بات@@ 3055
نمائندگی 3054
ہمارے 3053
وکٹیں 3052
کمی 3051
اخبار 3048
اداکار 3044
تلاش 3042
سیزن 3035
بخش 3033
انج@@ 3031
لوک 3030
معاشی 3029
اصطلاح 3025
الل@@ 3025
رک@@ 3025
پائے 3025
مینی@@ 3024
امور 3023
100 3022
نجی 3022
حصوں 3015
سربراہ 3014
جاسکتا 3013
مدرسہ 3008
ابتدا 3006
بوس@@ 3006
بوں 3005
تک@@ 3002
اسب 3001
داخ@@ 3001
سنچ@@ 3001
دریافت 2998
شے 2998
صاح@@ 2998
انتظام 2997
ثقافتی 2997
سامنا 2993
قبائل 2991
پال 2990
روایات 2989
فضل 2985
کہنا 2984
اخلا@@ 2982
نقصان 2978
استاد 2976
رت@@ 2976
افری@@ 2975
ہند@@ 2972
تحقی@@ 2968
خبر 2968
ہیپلو 2968
تخت 2966
آلہ 2965
خرا@@ 2965
اپ 2964
مشترکہ 2964
یہو@@ 2963
شدید 2962
تجارت 2961
خصوصی 2961
رہتا 2958
سبب 2957
زائد 2956
امریکہ 2955
مرد 2955
گل@@ 2953
2019 2952
دانوں 2952
سول@@ 2951
جنا@@ 2950
آدمی 2948
بنگ@@ 2947
سنت 2946
انجی@@ 2944
دم 2944
روایتی 2942
بول 2941
ممکن 2940
مالی 2938
چہ 2936
رز 2934
5.@@ 2931
حد@@ 2930
صد@@ 2930
العلوم 2929
عہدے 2925
سالوں 2924
فاص@@ 2923
ترتیب 2922
لگایا 2921
اتر 2918
عملی 2917
عثمان 2914
درس 2913
فقہ 2911
ازاں 2910
ادارے 2905
مجبور 2904
متی 2901
آن 2900
قد@@ 2900
ﻣ@@ 2898
سنبھ@@ 2895
رب 2894
وو 2894
باغ@@ 2893
دیر 2890
جز@@ 2889
سڑ@@ 2889
تس@@ 2888
اکبر 2887
اری@@ 2885
ﻮ@@ 2884
برقرار 2883
زا 2883
6.@@ 2882
بیشتر 2882
راس 2881
کیرولائنا 2879
بیٹھ@@ 2877
دھا 2876
باب@@ 2875
S@@ 2874
ویژن 2874
راستہ 2873
ائي 2872
سون@@ 2872
وق 2872
% 2868
سوں 2867
سیوں 2864
شہنشاہ 2863
قاضی 2863
ایشی@@ 2862
دست 2860
K@@ 2859
انیہ 2859
ناکام 2859
تشدد 2858
دي@@ 2858
عدالت 2856
میر@@ 2854
بدھ 2853
يل 2852
قید 2849
کور 2849
اگلے 2847
عین 2847
صوبائی 2846
فرد 2846
اننگز 2845
دری@@ 2843
قط@@ 2843
2013 2842
مضبوط 2841
گرفتار 2839
پیشہ 2834
خون 2831
کمیونٹی 2831
ڈیم 2830
طے 2824
تاب@@ 2822
ساس 2822
ران@@ 2821
70 2820
اح 2819
بلوچستان 2815
تیز 2811
35 2810
وسط 2809
ns 2808
الد@@ 2806
مَ@@ 2804
دینا 2803
ذات 2802
جمع@@ 2800
کرکٹر 2800
رضا 2798
نظم 2797
جام@@ 2795
رہنما 2791
ازی 2790
تجارتی 2789
model 2788
اعلی 2785
دہشت 2785
کرو 2785
قت 2783
لَ@@ 2782
پہنچے 2782
تعریف 2781
رکھ 2781
کمیٹی 2781
مزاح@@ 2780
لڈ 2778
الص@@ 2777
وط@@ 2774
کنارے 2774
حالانکہ 2773
اہے 2772
مخالف 2771
مض@@ 2769
ہمی 2769
7.@@ 2768
انٹرنیشنل 2768
format 2767
بہار 2765
contributor 2764
timestamp 2764
بق@@ 2764
مغل 2763
وابستہ 2763
عق@@ 2762
کوڈ 2758
عش@@ 2755
فوجیوں 2753
ہاتھوں 2753
پین 2751
سپر@@ 2749
عظ@@ 2747
80 2746
مند 2746
طلب 2743
مشکل 2742
راستے 2740
M@@ 2738
کث@@ 2738
زمرہ 2737
موضوع 2736
نان@@ 2736
‌ 2736
پڑے 2734
کانگریس 2734
لکھے 2730
روشنی 2729
شری@@ 2727
تفسیر 2726
پتہ 2721
کلب 2721
A@@ 2720
حکوم@@ 2719
وش 2719
ہجری 2718
8.@@ 2716
ویٰ 2716
رخ 2715
گان 2711
ٹرز 2707
کمیون@@ 2707
حکمرانی 2705
عز@@ 2705
ملاقات 2702
گلی@@ 2701
ٹائ@@ 2699
پیرو@@ 2699
سنی 2697
وہی 2697
مسوری 2695
طاق@@ 2694
نظریہ 2692
مستقل 2691
نیو@@ 2690
آز@@ 2688
username 2686
اون 2686
طلبہ 2686
جون@@ 2683
ائم 2681
افس@@ 2680
9.@@ 2677
190@@ 2676
بہن 2676
H@@ 2675
جزی@@ 2675
سرحد 2674
حی 2672
بط 2671
بنگال 2670
br 2669
دش@@ 2669
نامزد 2669
کوس@@ 2668
فیض 2665
موسیٰ 2665
رکھتی 2661
لگ 2661
راجا 2660
شعبہ 2660
وع@@ 2658
احت 2656
P@@ 2654
خوش 2653
پرستی 2653
سابقہ 2652
مسل@@ 2649
حیدرآباد 2648
عطا 2648
and 2647
تبدیلی 2647
دیتی 2644
رضی 2642
نٹی 2641
انٹر@@ 2640
کٹر 2640
باغ 2639
مرو@@ 2639
دلچ@@ 2638
فین 2638
نیچے 2637
پن@@ 2635
ابھ@@ 2630
فات 2629
میچوں 2629
نوازا 2629
برابر 2628
ہوگئے 2628
ڈری@@ 2627
محدود 2625
ناک 2623
ڑنے 2620
بحیرہ 2618
جنہیں 2618
اختتام 2616
بارہ 2613
حال@@ 2613
پناہ 2612
دنوں 2611
نج 2611
نائ@@ 2610
عور@@ 2609
اعداد 2606
ویل@@ 2606
ٹیاں 2606
اباد 2602
خیبر 2600
B@@ 2599
لغ@@ 2597
دینی 2596
میڈیا 2594
ورا 2594
ابل 2593
باد 2592
ڈیو 2591
ٹہ 2589
یافتہ 2588
مبارک 2586
زن@@ 2585
نسبت 2583
مینی 2582
انتظامی 2581
سزا 2581
منعقد 2581
اتھ 2579
نت@@ 2576
5,@@ 2575
الز@@ 2575
سند 2574
اوری@@ 2570
ہرا 2570
ہوکر 2569
یمن 2569
تیہ 2565
پلی@@ 2565
اوی 2564
تعالیٰ 2564
دوست 2563
مزار 2563
منسو@@ 2561
گیند 2560
تری 2559
میرا 2559
الے 2558
یاب 2558
ساری 2557
ں@@ 2557
بلدیہ 2555
دف@@ 2555
x 2552
مور 2551
بور@@ 2549
2018ء 2547
mtDNA 2546
نزدیک 2544
انگلستان 2542
آئین 2541
بالکل 2541
بنت 2540
وزی@@ 2539
خطے 2536
فلو@@ 2535
جھیل 2532
قو@@ 2530
روک@@ 2528
ماد@@ 2528
فلسطین 2527
معمولی 2526
سف@@ 2525
لہذا 2525
90 2524
سلیمان 2523
مخالفت 2523
آب 2520
دفاع 2520
آتی 2516
2015 2515
مندر 2512
نما@@ 2512
تن 2511
فوج@@ 2510
2013ء 2507
كا 2505
ویت 2504
چلی 2503
comment 2502
گوں 2502
بورڈ 2501
بیرونی 2499
19ء 2498
لائے 2497
2014 2496
اقد@@ 2496
فرق 2496
کون 2496
خود@@ 2495
ارکان 2491
تنقید 2491
اضی 2490
حج@@ 2489
ملتان 2489
ایت 2486
دعوت 2486
گان@@ 2486
لنگ 2485
جامع 2484
کستان 2484
کمال 2482
سکی 2481
جم@@ 2480
بازی 2478
تصنیف 2478
ير@@ 2477
گھو@@ 2477
G@@ 2476
مدت 2475
لم@@ 2474
حاضر 2473
نڈر 2473
بیگم 2471
کمپ@@ 2469
ﯽ 2469
بخ@@ 2466
وکٹ 2466
پسند@@ 2465
خوش@@ 2463
کم@@ 2459
6,@@ 2457
آبشار 2457
راک 2457
الزام 2456
بازار 2456
اداکاری 2455
وان@@ 2451
اختلاف 2450
دفتر 2450
روک 2450
اشاعت 2449
قاد@@ 2448
لانے 2448
لوی 2448
تفصی@@ 2445
اموں 2442
اداروں 2441
مجلس 2440
ناف@@ 2440
کارکردگی 2440
وش@@ 2439
سعد 2438
ثانی 2437
حامل 2436
اوقات 2435
اصول 2432
پرست 2432
بادشاہ@@ 2431
مثلاً 2431
یاء 2430
اورا@@ 2429
تیسری 2428
شار@@ 2428
مقدس 2427
جاپانی 2426
سورج 2425
ملتی 2425
بحری 2422
شماری 2422
لیت 2422
یور@@ 2422
وح@@ 2421
وزارت 2418
مدر@@ 2417
سنگ 2415
ً 2415
ہن@@ 2415
مونٹ@@ 2414
مرے 2413
نہ@@ 2413
عبادت 2411
حلق@@ 2410
تعاون 2408
یاتی 2408
یے 2408
Gmina 2404
پابندی 2404
ساز 2402
بلو@@ 2400
معاو@@ 2400
زبر@@ 2399
لقب 2397
شخصیات 2395
کارپو@@ 2395
ثہ 2394
حضور 2392
Q@@ 2391
شد 2391
۱@@ 2390
جنھوں 2387
سٹن 2387
اندازہ 2386
ذرائع 2386
کھا 2386
اکثریت 2385
خل@@ 2385
نوی 2385
پہ 2385
w@@ 2384
لح@@ 2383
N@@ 2379
پیداوار 2379
دانی 2377
اعتبار 2376
مضمون 2375
ایس@@ 2374
محسوس 2372
گورن@@ 2371
خیر 2370
formula 2369
سرب@@ 2369
کثیر 2369
پچ@@ 2365
بد 2364
فروغ 2364
لشکر 2364
منسلک 2364
ہان 2364
32 2361
سع@@ 2361
بو 2360
رل 2359
ین@@ 2356
مد 2355
برج 2352
يو 2352
يں 2352
کوریا 2352
فری 2351
قوت 2349
خطاب 2348
اقسام 2347
عص@@ 2344
مفتی 2344
اڑ@@ 2342
جیسی 2342
تخلیق 2339
سائٹ 2339
لمب@@ 2339
بزرگ 2338
شید 2338
صوبوں 2338
نصی@@ 2336
فیصل 2335
لیتے 2334
تمہ@@ 2332
قول 2329
20ء 2328
s 2327
سنی@@ 2326
قبر@@ 2326
ابہ@@ 2323
پہن@@ 2323
حقیقی 2321
چیف 2320
شوہر 2318
بلغ@@ 2317
2008 2315
شتہ 2315
مارا 2315
گزر@@ 2315
حاج@@ 2313
اغ@@ 2312
الغ@@ 2312
ـ 2312
نائب 2311
75 2306
مطالبہ 2304
زي@@ 2302
رہتی 2299
زر 2299
45 2298
parentid 2298
دشمن 2298
جزائر 2296
جنس 2296
سج@@ 2296
فکر 2296
سکھ 2295
موا@@ 2295
اوائل 2294
راء 2294
ریاستی 2294
زل 2293
تذکرہ 2291
صنع@@ 2291
ملازمت 2291
ووڈ 2291
ہوگی 2291
فتہ 2290
انگریزوں 2289
کمز@@ 2289
درخواست 2288
33 2287
لیز 2287
بص@@ 2285
کے@@ 2284
کیم 2283
نيو 2281
a 2278
ڈراما 2278
قاب@@ 2277
مردم 2276
میم 2276
ڈیا 2275
نشان 2274
الحق 2273
پہاڑی 2273
لز@@ 2272
جغرا@@ 2271
مسلسل 2271
تہذیب 2270
مخت@@ 2270
کنالوجی 2270
رقم 2269
سوم 2266
دفعہ 2264
مسی@@ 2264
اعی 2263
ایئر 2262
2012 2257
محافظ@@ 2257
علاقائی 2256
ریڈیو 2255
ایمان 2254
آذربائیجان 2253
شہادت 2253
منظور 2253
بس 2252
آگ 2246
محض 2246
ہد@@ 2246
آرمی 2245
آثار 2241
سرا@@ 2240
مُ@@ 2239
تشریف 2238
نان 2238
والدین 2238
مقیم 2235
بابا 2233
2010 2232
بیب 2232
سلی@@ 2232
چک@@ 2232
ساحل 2231
کین@@ 2231
خوبصورت 2227
غازی 2226
وید 2226
چن 2226
de 2224
باقاعدہ 2224
تجویز 2223
36 2221
اض 2219
زو 2219
معاشرے 2219
y 2217
پشاور 2217
تلا@@ 2215
پہا@@ 2214
یقین 2214
عکس 2213
افت 2212
طل@@ 2212
امہ 2210
ٹنے 2210
34 2209
بغداد 2209
ساز@@ 2208
عدم 2208
سرم@@ 2206
عنوان 2206
لف 2205
آسٹریا 2204
خانے 2204
لوٹ 2204
سوان@@ 2203
غل@@ 2203
لِ 2203
فیہ 2202
بورو 2201
روج 2200
طب@@ 2200
ڈالر 2200
باد@@ 2199
ہن 2199
ادے 2198
قین 2198
روف 2197
سار@@ 2197
عثمانیہ 2196
الخ@@ 2195
ولت 2195
ٹھی 2195
مسیحی 2193
رپورٹ 2192
عیس@@ 2192
رئ@@ 2191
دیو@@ 2190
سفار@@ 2190
اچھی 2189
معاملات 2189
آس@@ 2188
منہ 2187
قدم 2185
لینا 2185
اوا 2181
فران@@ 2181
بلیو 2177
تیزی 2175
آسٹ@@ 2174
زخمی 2174
اکیڈمی 2171
قبیلے 2170
ڈویژن 2169
2017 2168
انڈین 2168
طریقے 2168
فلس@@ 2168
روحانی 2167
ڈال@@ 2166
لي 2164
سي 2163
پزیر 2162
ملی@@ 2161
ندے 2160
رہائش 2159
صاف 2159
7,@@ 2158
ماؤنٹ 2158
صحابہ 2156
مشاہ@@ 2156
2016 2155
دستاوی@@ 2153
شناخت 2153
نمائند@@ 2153
گزی@@ 2153
تحفظ 2152
اریہ 2151
سوس@@ 2149
جارج 2148
سامان 2147
شو 2147
چاہتے 2147
C@@ 2145
آپ@@ 2145
ایئرپورٹ 2145
ذا 2145
رنگ@@ 2144
ضاب@@ 2144
امتی@@ 2142
ستوں 2142
لاحات 2142
سز 2141
جاس@@ 2137
سرو@@ 2137
٪ 2136
باری 2134
صنعت 2134
سونے 2133
میونسپل 2133
یک@@ 2133
ماہ@@ 2132
جوی@@ 2129
کھانے 2129
بالا 2128
شہرستان 2127
غور 2126
شاید 2125
جلال 2124
راہ@@ 2124
شمولیت 2123
عط@@ 2121
قا 2121
ہائے 2121
العزیز 2119
فروخت 2118
باؤ@@ 2117
پتھر 2117
بخاری 2116
ﺮ@@ 2114
خز@@ 2113
الات 2112
الک@@ 2111
خالد 2110
لاح@@ 2109
صبح 2108
نکل 2108
آئیں 2104
دائیں 2104
نسلی 2104
بھو@@ 2103
عمرو 2103
واپسی 2103
بدر 2102
مای@@ 2102
پالیسی 2101
الت 2099
شرا@@ 2099
صلاحیت 2099
ریب 2098
مند@@ 2097
ورک 2096
ہمیں 2096
جما@@ 2095
دربار 2095
گجرات 2095
دیکھنے 2094
سالہ 2094
شور 2094
یٰ 2094
تِ 2092
جیک@@ 2092
تاج 2090
اطلاع 2089
لک@@ 2088
وبا 2088
ہرے 2088
2011 2086
غالب 2085
لاح 2085
نشانہ 2085
ہٹ 2085
حرکت 2084
39 2082
ہزاروں 2081
گوا@@ 2080
فائدہ 2079
قائ@@ 2076
ادیوں 2074
اہی 2074
دارالحکومت 2073
فیت 2072
38 2071
ادھ@@ 2071
خام@@ 2071
ہے@@ 2071
ومن@@ 2070
پند@@ 2069
بنو 2068
بائ@@ 2064
37 2063
پلا@@ 2062
O@@ 2061
آغ@@ 2061
براہ 2061
احتج@@ 2060
شاد 2060
بولی 2059
ٹورنامنٹ 2058
ڈیبیو 2058
الوی 2057
2008ء 2056
شان@@ 2056
حص@@ 2055
شاخ 2055
فن@@ 2055
قیمت 2054
نوجوان 2053
اسم 2052
بالآخر 2050
آمد@@ 2049
فون 2049
ہوم 2048
لیوں 2047
دون@@ 2046
اتفاق 2044
اظ@@ 2043
ریلوی 2043
صور@@ 2042
سپی 2040
بک 2039
انت 2038
نگی 2038
روح 2037
سازی 2037
فارس 2036
مراہ 2036
نیوں 2036
ربی@@ 2035
عالم@@ 2034
موجودگی 2034
پرت@@ 2034
گون 2034
اسکور 2033
خصوصیات 2033
مقبر@@ 2033
جانی 2032
حروف 2032
سفید 2032
ارک 2031
آہستہ 2030
بدل 2029
فار 2029
دوس@@ 2027
داخلہ 2026
انقلا@@ 2025
بٹ@@ 2025
یکم 2024
ریٹ 2023
میٹر@@ 2023
مہاراش@@ 2020
ٹاؤنشپ 2020
آؤٹ 2019
پٹ@@ 2019
تصانیف 2018
مہار@@ 2018
جعفر 2016
یقی@@ 2016
ساتھی 2015
ورڈ 2015
نکل@@ 2014
ير 2014
غلط 2013
پختونخوا 2012
بحر 2011
حفاظت 2011
بچپن 2009
ساؤ@@ 2008
لب@@ 2008
ملکہ 2008
سوال 2007
فلپائن 2007
مردوں 2007
پائ@@ 2006
8,@@ 2005
ڈائریکٹر 2003
ہل 2002
فائز 2000
بحث 1999
جیل 1999
ہوگئی 1999
ہل@@ 1997
افغان 1996
مقدار 1996
ہوگیا 1996
اذ 1995
قدرتی 1995
سرزمین 1993
وفاقی 1993
انڈیز 1992
متعارف 1992
نیویارک 1992
ممبئی 1989
سکر@@ 1988
نوبل 1987
ٹک@@ 1987
ہد 1987
پون@@ 1986
200 1984
دستخط 1984
کوہ 1984
حج 1983
پہچ@@ 1983
بھر@@ 1981
رفتار 1981
میکسیکو 1981
جدوجہد 1980
ڈکوٹا 1979
کھلا@@ 1978
مسیسپی 1977
سمجھتے 1976
مپشائر 1975
سلیم 1973
آئرلینڈ 1972
جمہ@@ 1972
وہیں 1972
ریڈ 1971
ادت 1970
مسلح 1970
پاشا 1970
اسماعیل 1969
پا@@ 1969
اثرات 1968
کیٹ 1968
گھر@@ 1968
یہودیوں 1968
بلوچ 1967
خواہش 1967
شعر 1967
ٹینی@@ 1967
بکر 1966
دراصل 1966
ظم 1966
ماؤنٹین 1965
چرچ 1964
کہہ 1964
تبلی@@ 1963
جم 1962
علاج 1962
فرنس 1962
پبل@@ 1961
کپتان 1960
عَ@@ 1959
ﻧ@@ 1958
لين@@ 1957
500 1956
خش@@ 1955
اً 1953
لیس 1953
وین 1951
سربراہی 1950
قوانین 1950
کیل 1950
دورے 1949
فس@@ 1949
تیسرے 1948
رابط@@ 1948
65 1947
رسم 1947
منظ@@ 1947
حملوں 1946
خاتمہ 1945
رض 1945
مسئلہ 1944
ائیس 1943
ثبوت 1943
R@@ 1940
بہادر 1940
كر@@ 1940
نگٹن 1939
تھائی 1938
منگ@@ 1938
ٹیوٹ 1937
کمیشن 1936
البتہ 1935
مرک@@ 1935
اتنا 1934
زیشن 1934
منصوبے 1934
مقب@@ 1933
یحی@@ 1930
سکیں 1929
ڈال 1929
t 1928
برصغیر 1928
شمس 1925
شیں 1925
55 1923
2020 1921
رانی 1921
لون@@ 1920
نر@@ 1920
نٹن 1918
متعلقہ 1917
کینٹکی 1917
ﻭ@@ 1917
اعز@@ 1916
جانوروں 1916
کولمبیا 1915
کربلا 1910
شل 1909
تصویر 1908
حول 1908
خاتمے 1908
دبا@@ 1908
قبرص 1908
وایا 1908
پنڈی 1908
احادیث 1907
يني@@ 1907
انیں 1906
محاص@@ 1906
فا 1905
خاص@@ 1904
ظ 1904
کیوب@@ 1904
قاسم 1901
پوس@@ 1901
اطلا@@ 1899
زیز 1899
9,@@ 1898
اسرائیلی 1898
کنگ 1898
الجزائر 1896
فورس 1894
آپریشن 1893
ورش 1892
42 1891
صوفی 1891
ماہرین 1891
ہاش@@ 1890
کوفہ 1888
سندھی 1887
2009 1886
تکمیل 1885
ذر 1885
Ch@@ 1880
آگ@@ 1880
ذی@@ 1880
کرلی 1880
تنظی@@ 1879
پوچھا 1878
پیرس 1878
نگا 1877
کٹی@@ 1877
نگرانی 1875
ڈھان@@ 1871
کرایا 1870
سام 1869
خر 1868
کارروائی 1867
189@@ 1866
انگریز 1866
توان@@ 1865
نع@@ 1865
حصول 1864
لکھن@@ 1863
داد@@ 1862
مارشل 1862
2007 1861
اتذ@@ 1861
ڑھ 1861
پیش@@ 1859
کرام 1858
نیپال 1857
انس 1855
عرض 1855
خوف 1854
اَ@@ 1853
استح@@ 1852
ؑ 1850
دید 1850
سخ@@ 1850
جع@@ 1849
خال@@ 1849
کمپیوٹر 1849
سز@@ 1848
ہتھیار 1848
عمران 1847
سالانہ 1846
فرائ@@ 1844
سلط@@ 1843
فاطمہ 1841
مہاج@@ 1841
قطب 1840
ہاؤ@@ 1840
ﺎ 1840
اذ@@ 1839
صفحات 1837
قدر@@ 1836
ضد 1834
مائی 1834
دفن 1831
52 1829
نواز 1828
پي@@ 1828
عمان 1824
44 1823
دعا 1823
عائ@@ 1822
فیص@@ 1822
ہندو@@ 1821
ہسپ@@ 1819
ژن 1818
eh 1814
مواد 1814
اني 1812
خف@@ 1809
پولی@@ 1807
al 1804
امتح@@ 1804
ہلا@@ 1803
48 1801
ضر@@ 1800
ناز@@ 1800
درست 1799
مم@@ 1798
41 1796
قبض@@ 1796
منظم 1796
ﮨ@@ 1795
47 1792
85 1790
on 1789
سمت 1789
الاب@@ 1788
ستہ 1787
عار 1785
عائد 1784
ﺳ@@ 1784
نسخ@@ 1783
ﺭ@@ 1781
بس@@ 1777
فرار 1777
خی 1774
روش@@ 1774
مِ@@ 1774
قل 1772
La 1770
58 1769
abad 1763
شر 1763
بع 1762
اقتص@@ 1759
لس@@ 1759
قرب@@ 1758
ورو 1758
56 1757
اش 1757
ساح@@ 1756
غزل 1754
188@@ 1751
ري 1750
لل@@ 1750
حام@@ 1748
عار@@ 1748
بلا 1747
ریلو@@ 1746
مدی@@ 1743
مارے 1742
43 1741
سك@@ 1741
ٔ 1740
57 1739
معر@@ 1739
صف 1738
کاؤن@@ 1738
نتی@@ 1737
انتخ@@ 1736
ar 1735
بلی 1731
53 1730
بغ@@ 1728
الاس@@ 1724
ائنات 1718
سات@@ 1718
86 1713
ﺑ@@ 1713
95 1711
صاد@@ 1706
مسعود 1704
46 1703
23@@ 1701
حان 1700
سلام 1699
54 1694
رونی 1694
وك@@ 1691
2006 1690
ّ 1689
72 1688
مصنف@@ 1687
61 1686
موضوعات 1686
2021 1685
رف@@ 1685
ماً 1685
سیع 1684
نط@@ 1681
00@@ 1676
J@@ 1676
طالبان 1676
ملائ@@ 1676
87 1675
تسل@@ 1672
نتائج 1671
مانیہ 1669
تاب 1668
ریز 1668
وقوع 1664
دوار 1663
99 1661
الط@@ 1661
بون@@ 1660
عام@@ 1659
تنا@@ 1658
d 1654
51 1651
حت 1650
جلا@@ 1649
حس@@ 1649
49 1647
حمل 1645
مستقبل 1645
خوب@@ 1644
شار 1644
62 1639
ہسپان@@ 1639
صل 1638
سول 1637
اندا@@ 1636
شاع@@ 1635
راف 1632
رن@@ 1630
استن@@ 1629
لاز@@ 1627
زون 1620
الله 1618
​ 1618
غلا@@ 1617
64 1613
68 1613
مالي 1613
آخ@@ 1611
عمل@@ 1611
88 1610
مرہ 1610
عد 1609
اطر 1608
سور 1608
فرو@@ 1608
Z 1607
63 1604
امر 1599
2000 1598
اوہ@@ 1597
طب 1597
عرا@@ 1597
ﯾ@@ 1596
جرا@@ 1592
اعت 1590
فل 1587
وري 1586
گرام 1586
لوب 1585
المل@@ 1582
بان 1581
ہز@@ 1581
جوع 1579
سوٹا 1579
عرب@@ 1578
تز@@ 1577
راً 1577
شعر@@ 1576
مس 1576
اجد 1575
وند 1574
تور 1573
زرا@@ 1572
سم 1572
66 1571
زائ@@ 1570
59 1568
وروں 1566
ہور 1563
78 1562
c 1562
متع@@ 1561
نغ@@ 1561
عامر 1556
الْ@@ 1555
E@@ 1554
دما@@ 1551
درو@@ 1550
96 1547
جمال 1547
حار@@ 1546
74 1545
83 1545
حزب 1544
ترج@@ 1543
حاق 1542
185@@ 1540
I@@ 1540
تاج@@ 1539
الرح@@ 1533
73 1532
بط@@ 1532
رَ@@ 1531
سند@@ 1530
یع@@ 1530
ﺗ@@ 1529
84 1528
W@@ 1527
نمو@@ 1527
حات 1526
i 1525
أَ@@ 1524
ؔ 1523
نگز 1523
خبر@@ 1521
92 1518
ڈاک@@ 1518
صلا@@ 1517
77 1516
عب 1516
سیر 1515
جد@@ 1514
افت@@ 1513
توا@@ 1513
ائد 1512
باس@@ 1510
98 1509
صوب@@ 1507
93 1505
حدود 1505
76 1504
97 1504
چوں 1504
امری@@ 1502
سين 1502
67 1501
الين@@ 1498
يون@@ 1498
81 1497
بِ@@ 1494
دث 1493
لاب 1493
ادم 1492
300 1491
F@@ 1491
يم 1491
امین 1490
تبا@@ 1490
عاش@@ 1489
94 1488
كون@@ 1485
ترو@@ 1481
+ 1479
69 1479
مجموع@@ 1479
تمل 1477
مون 1475
پاب@@ 1474
حکمر@@ 1472
ناصر 1470
طبق@@ 1469
نمائ@@ 1469
h@@ 1467
نشر 1467
اعتماد 1466
قدی@@ 1465
V@@ 1464
تَ@@ 1463
an@@ 1462
يانا 1462
ar@@ 1460
wiki 1458
تون@@ 1457
عث@@ 1457
03 1456
82 1455
text 1452
ارس 1452
افر 1450
بزر@@ 1449
فس 1448
71 1444
مي 1444
187@@ 1442
مو 1441
حاب 1440
سُ@@ 1438
تیسر@@ 1436
نساس 1436
افع 1433
مسا@@ 1433
1,0@@ 1428
طریق@@ 1428
0,@@ 1427
Rural 1427
کمی@@ 1426
ازات 1425
تور@@ 1425
وض 1424
2005 1422
شرو@@ 1422
جات@@ 1421
91 1420
ضل 1420
89 1419
حساب 1419
جاسک@@ 1410
d@@ 1408
تض@@ 1408
شائر 1408
05 1407
حاد@@ 1407
کیرو@@ 1407
الف 1400
جناح 1399
ریاست@@ 1399
راز 1398
صوف@@ 1396
ورت 1394
2004 1392
رومان@@ 1392
وزن 1392
09 1391
درمی@@ 1391
احترا@@ 1390
صل@@ 1390
علماء 1390
79 1389
ext 1389
ye 1386
میت 1386
revision 1384
ارب 1384
186@@ 1383
اعتراف 1383
برا 1383
ikit@@ 1381
I 1380
حي@@ 1377
دي 1377
ظاہ@@ 1375
1990 1374
al@@ 1374
z@@ 1374
سوا 1373
بوت 1370
خطوط 1369
نات 1369
e@@ 1367
دیہ 1367
ity 1365
فلسط@@ 1364
y@@ 1362
دب@@ 1362
دُ@@ 1360
وري@@ 1355
شرف 1351
تھر 1350
حصار 1350
خص@@ 1349
خصوص@@ 1348
سون 1347
يم@@ 1346
فاس@@ 1345
نوع 1345
ٹي 1344
‎ 1344
باء 1343
اط 1342
02 1340
ناہ 1339
04 1338
منصور 1337
ﮧ 1337
j@@ 1336
06 1334
کامی@@ 1334
07 1331
تعلی@@ 1331
سیم 1331
01 1326
township 1324
q 1323
ربی 1323
لب 1322
ساف@@ 1320
گری 1320
سس 1316
فال@@ 1313
a@@ 1312
توقع 1312
وصول 1311
ائع 1309
جمہو@@ 1309
وسائل 1308
متا@@ 1307
s@@ 1305
توب@@ 1304
* 1302
Z@@ 1301
سلم 1300
لبنان 1292
08 1290
مرض 1289
ڈائ@@ 1289
البر@@ 1288
قد 1288
منا 1285
صن@@ 1284
مبر@@ 1283
نوج@@ 1281
وول@@ 1281
الحسن 1277
تي 1277
آسٹری@@ 1276
ﻟ@@ 1275
ﻨ@@ 1275
فَ@@ 1273
ائب 1272
بوب 1270
دمشق 1270
ارك 1269
ستر 1269
راض@@ 1268
وص 1268
پنج@@ 1268
کپ@@ 1268
The 1266
خلف@@ 1266
باً 1264
ونت 1262
آہ@@ 1259
تي@@ 1259
تبدی@@ 1258
رمض@@ 1258
جنوب@@ 1256
فات@@ 1252
آدم 1249
دد 1249
زند@@ 1249
ارد 1248
لق 1248
کسی@@ 1248
اص 1246
موسی@@ 1245
داب 1243
تون 1241
بَ@@ 1240
شب@@ 1238
است 1236
خصوصی@@ 1231
لِ@@ 1229
بارات 1227
عناصر 1227
آد@@ 1226
مام 1222
مواقع 1220
2003 1218
واز 1218
اجتماع@@ 1215
تاری@@ 1212
رسم@@ 1212
بورن 1210
عظم 1210
ٹور@@ 1208
عون 1207
قات@@ 1206
مجمع 1203
مقاب@@ 1203
جي@@ 1200
تغ@@ 1198
اشترا@@ 1197
ائف 1193
منزل 1193
جاب@@ 1189
es 1188
la 1187
غر 1187
تش 1186
لام 1186
الث@@ 1184
رُ@@ 1184
ﮟ 1184
ضل@@ 1183
وکٹ@@ 1182
b@@ 1178
انيا 1178
بنی@@ 1177
فلا@@ 1177
ﺟ@@ 1177
قان 1176
دف 1175
دیث 1175
غم 1173
تخلی@@ 1170
طل 1170
0,000 1168
ﻠ@@ 1168
p@@ 1167
ﺩ@@ 1167
سوس 1166
400 1165
ينا 1165
غذ@@ 1163
2002 1159
ing 1159
المن@@ 1159
انو 1158
ثیت 1157
ترا 1156
فعال 1156
واب 1156
فعل 1154
قوب 1154
وي 1154
طری@@ 1153
پنسلو@@ 1153
q@@ 1151
ﺮ 1150
شنل 1149
تبادل 1148
عصر 1148
مطالع@@ 1148
نَ@@ 1147
وقف 1147
شي@@ 1146
1980 1145
موق@@ 1144
كل@@ 1143
مع 1141
مات@@ 1139
بڑ@@ 1137
جاد 1136
ﺭ 1134
طلاق 1133
ذر@@ 1132
ہج@@ 1131
طف@@ 1129
ئي 1128
ناس@@ 1128
ــ@@ 1127
قطر 1127
Bo@@ 1124
سعود 1124
en 1121
ایوار@@ 1121
في 1121
Sh@@ 1120
ظر 1120
منصب 1120
اصط@@ 1119
A 1115
انگل@@ 1115
صد 1115
١@@ 1115
فرض 1113
ﭘ@@ 1113
لط@@ 1108
الذ@@ 1103
كول@@ 1103
ﻤ@@ 1103
o@@ 1099
مبئی 1099
حسب 1098
ation 1096
in@@ 1096
بنا@@ 1096
is 1095
المعروف 1095
er 1092
قق 1092
Y@@ 1091
ائز 1091
محتر@@ 1090
ﮭ@@ 1089
ویر 1088
بُ@@ 1087
خارج 1087
فنون 1086
وث@@ 1086
خذ 1085
رش 1085
u 1083
,@@ 1082
to 1080
مانے 1080
إ@@ 1079
34@@ 1078
راض 1077
لوس 1077
صالح 1075
U@@ 1073
ed 1072
يس 1072
المق@@ 1069
et 1065
t@@ 1064
1945 1062
قر 1062
پالی@@ 1062
2001 1060
n@@ 1060
صول 1060
ماء 1058
القرآن 1057
فان 1057
184@@ 1055
33@@ 1055
الي@@ 1054
غر@@ 1052
ادي 1050
كين@@ 1047
قوم@@ 1045
ائط 1043
ربي 1043
مایا 1042
اعترا@@ 1041
قبہ 1041
الان@@ 1040
کتاب@@ 1040
ref 1033
وما 1032
منت@@ 1030
منز@@ 1030
at 1029
ناق@@ 1028
C 1027
اء@@ 1026
11@@ 1024
المع@@ 1022
لت@@ 1022
كار@@ 1021
پخت@@ 1021
أ@@ 1016
صار@@ 1015
لیم 1012
دات 1011
۲@@ 1008
بون 1004
ناد@@ 1002
... 1000
الخص@@ 1000
یونیور@@ 1000
ني 999
جب@@ 997
v@@ 996
جارج@@ 993
جين@@ 992
رائی@@ 992
قرا@@ 990
k@@ 987
پاک@@ 986
اضاف@@ 985
o 984
زات 984
كو 984
c@@ 981
k 981
موض@@ 980
re@@ 978
اسم@@ 978
دخل 978
بي 977
تل 977
فظ 977
نفس 974
ورات 974
واب@@ 972
l 970
زد 968
نسل@@ 966
فح@@ 963
— 962
ایئر@@ 961
قطع 959
کاررو@@ 959
حاض@@ 957
طان 957
ِّ@@ 955
انڈی@@ 954
اگر@@ 954
1970 953
b 953
یرہ 953
بوط 951
قَ@@ 951
رخ@@ 950
1992 945
زخ@@ 945
لون 945
ag@@ 944
1991 943
1999 942
بائل 942
يري 942
علي 941
ch@@ 940
150 938
اوق@@ 937
صیل 932
التر@@ 931
i@@ 929
جل 929
تاح 927
انیا 925
ریف 925
1960 923
ah 923
قبی@@ 923
10.@@ 921
وج 920
1950 919
g@@ 918
Municipal@@ 917
as@@ 917
تخت@@ 917
حق@@ 916
داء 916
فص@@ 916
الخط 912
خراج 911
1947 909
ثت 909
ويل 909
n 906
منص@@ 906
صال 905
غال@@ 905
ناب@@ 905
باح@@ 903
مدار 902
ستر@@ 901
us 900
ندا 900
روای@@ 899
شائ@@ 896
يات 895
آپری@@ 894
ًا 893
کینی@@ 892
کیری@@ 890
كس 888
يَ@@ 888
ﻋ@@ 887
le 885
om@@ 882
مبار@@ 878
1998 877
ia 875
f@@ 874
نون 874
ـ@@ 873
or 872
عرف 872
ستانی 866
00 864
» 864
l@@ 859
ﺘ@@ 859
نوب@@ 857
سين@@ 856
600 855
as 855
district 855
مسئ@@ 854
مخالف@@ 853
صلاح 850
m@@ 848
اسما@@ 848
الحال 848
فاق 844
الا@@ 843
اداک@@ 841
زان 841
وسط@@ 837
جاپ@@ 836
قلب 836
وظ@@ 835
United 834
تیب 834
مشر@@ 834
1989 833
قض@@ 832
جاج 831
1997 830
عن 829
قي@@ 826
800 824
لمح@@ 822
en@@ 821
دوا@@ 819
minor 816
الام@@ 815
جور@@ 814
وامی 814
1940 811
وصی@@ 811
يد 810
انق@@ 808
ﷲ 808
اع 807
قوا@@ 807
am@@ 806
municipality 806
m 805
1996 804
ماؤ@@ 804
پوچھ@@ 804
الدين 803
دول@@ 802
طینی 802
غا 802
قائق 800
ئیں 798
1918 796
يت 795
ic 793
تُ@@ 792
عل 789
ad@@ 787
كري@@ 787
دوا 786
فور 782
کرہ 781
گایا 781
r@@ 780
سلسل@@ 780
B 778
1993 776
مالك 776
ولد 776
sur 774
ملت 774
g 773
رر 773
1920 770
ومن 770
روت 768
۰@@ 768
States 765
طالب@@ 764
12.@@ 763
Ohio 762
esh@@ 762
انتق@@ 762
Ar@@ 761
T 759
ارض 759
250 758
ادل 758
جدا 757
يلي 757
کارڈ 757
مطالب@@ 756
دوب@@ 754
ah@@ 752
ضم 752
700 749
ثق@@ 749
منع 749
Kh@@ 748
10,@@ 746
1941 746
40@@ 746
11.@@ 745
جبل 744
} 743
مقابل 742
افظ 740
سوی 739
la@@ 737
وث 736
1988 735
el@@ 732
14.@@ 729
ٍ 729
كر 728
13.@@ 727
aj@@ 727
بوت@@ 725
ضاء 723
واج 723
راست@@ 721
ﺪ@@ 721
پیدائ@@ 718
ابہ 716
ة 716
ۃ@@ 715
كور@@ 714
ومات 713
افغ@@ 712
1939 711
ur@@ 711
ٌ 711
1971 710
ul@@ 710
لك@@ 710
1944 709
r 709
name 708
ya 708
۹@@ 708
رين 707
am 705
E 704
بين@@ 704
باح 703
فورنيا 703
p 702
« 702
تہذی@@ 702
مناس@@ 701
ؐ 700
1995 699
# 698
ريك@@ 697
شہر@@ 697
180@@ 695
1948 694
sh@@ 693
th@@ 693
الاع@@ 690
ة@@ 690
تصنی@@ 690
um 689
كان@@ 689
ﮩ@@ 688
by 686
u@@ 686
120 685
ate 685
العلماء 685
ﻮ 684
راد 683
ابت@@ 682
واخر 682
1994 681
تعل@@ 681
L 680
ولو 680
Mar@@ 679
un@@ 678
ثار 678
on@@ 676
علاق@@ 676
1000 673
آئر@@ 673
اري 673
افات 673
ضر 673
ۓ 673
ak 672
ابت 672
وضع 672
دري@@ 671
لائنا 671
ومت 671
2022 670
village 669
11,@@ 668
1930 668
22@@ 668
D 668
اه@@ 668
جنھ@@ 668
امر@@ 667
اوت 667
جڑ@@ 665
بري@@ 664
ﺣ@@ 663
متعل@@ 662
مين 661
x@@ 660
يني 659
ﮞ 659
es@@ 657
Al@@ 656
ad 654
179@@ 653
الاح@@ 653
R 652
واس@@ 651
جال 649
1984 648
O 648
er@@ 648
1986 647
الك@@ 644
جوم 643
طق 643
35@@ 642
ساب@@ 642
ﮔ@@ 642
التح@@ 641
جه@@ 641
لاً 641
1979 640
تصل 640
قاع@@ 640
۳@@ 640
صحی@@ 638
فتا@@ 637
معاہ@@ 637
فري@@ 636
os@@ 635
ra@@ 634
ستون 634
مود 633
ﺴ@@ 633
لق@@ 632
لاد 631
نوم@@ 631
وع 631
,000 630
المر@@ 629
جع 629
دون 629
ay 628
kh@@ 628
الب 627
تذ@@ 627
ملح@@ 627
1985 625
{ 624
36@@ 623
50@@ 621
پیدا@@ 621
N 620
il@@ 620
قبال 620
17.@@ 619
New 618
أت 618
وتم 618
فصل 617
محک@@ 617
كُ@@ 616
گم 616
امين 615
فاط@@ 615
12,@@ 614
روح@@ 614
زمان@@ 614
مًا 614
ﺷ@@ 614
لش@@ 613
.com 612
16.@@ 612
روا 612
ow@@ 611
f 610
1987 609
us@@ 609
بتا@@ 609
دود 609
ﺋ@@ 609
is@@ 607
ﻥ 607
تبر 606
فیسر 606
الي 605
1975 604
1919 603
48@@ 603
ماث@@ 601
وامل 601
حجم 600
at@@ 598
ab@@ 597
1974 595
1942 594
ً@@ 594
el 592
ang@@ 591
station 590
هم 590
ورد 590
1982 589
٭ 589
lu 588
شخص@@ 588
1978 587
az@@ 587
ماب@@ 586
1983 585
تول@@ 585
علي@@ 585
وسف 584
مسر@@ 582
مشق 582
ty 580
An@@ 579
لور@@ 578
حب 577
فو 577
اتب 575
وغ@@ 575
فق 574
for 572
يك 572
38@@ 571
ak@@ 571
جي 569
شف@@ 569
مه@@ 568
1973 567
مثل 565
اکث@@ 564
1917 563
ph@@ 563
ﻗ@@ 563
15.@@ 562
رغ@@ 562
طرا@@ 562
av@@ 561
or@@ 561
www.@@ 561
قُ@@ 561
تان 559
وحد@@ 559
٫ 558
60@@ 556
G 554
le@@ 554
z 554
سد 554
13,@@ 553
اتي 553
ربط 553
1956 551
F 550
المص@@ 550
نُ@@ 550
1967 549
1969 549
II 549
Ol@@ 548
صب 548
37@@ 547
ang 547
1972 545
كن 545
ot@@ 544
سرطان 542
مك@@ 542
َّ 542
18.@@ 541
قان@@ 540
۵@@ 540
۸@@ 540
oc@@ 537
… 537
ﺖ 537
1914 536
X 536
لول 536
Airport 535
مسي@@ 535
ur 534
زي 533
طلا@@ 533
نقص@@ 533
1981 532
قبل@@ 531
واد 531
ﻌ@@ 528
International 525
ثقاف@@ 525
130 520
توق@@ 520
ٸ@@ 520
۰ 520
45@@ 519
ol@@ 519
اؤن 519
روب 519
39@@ 518
ay@@ 517
اجتماع 517
الاق@@ 517
1949 516
کولمب@@ 516
19.@@ 515
ated 514
ou@@ 514
1976 513
1977 513
80@@ 513
tr@@ 513
° 513
كلا@@ 513
1946 512
طول 512
du 511
؁ 510
urban 509
عم 509
ﮑ@@ 509
In@@ 508
ثم 508
110 507
1965 507
900 507
List 507
1958 506
صغیر 505
النساء 504
طر 504
معد@@ 504
14,@@ 503
وام 503
124@@ 502
اجات 502
49@@ 501
S 501
im@@ 500
٢@@ 500
1936 499
يل@@ 498
1962 497
۷@@ 497
Par@@ 496
ge@@ 496
اث 496
صور 496
وخ@@ 496
65@@ 495
لند@@ 495
افظ@@ 494
ed@@ 493
Province 492
بح 492
شای@@ 492
DI 491
ائیو 491
اشا 491
باقاع@@ 491
ذو 491
M 490
سيد 490
be 489
● 489
مانوں 487
ol 486
ضمن 486
فرانسی@@ 486
ine 485
ارتی 484
20.@@ 483
بيا 483
قي 483
مين@@ 483
واج@@ 483
16,@@ 482
ﺒ@@ 482
ﺧ@@ 482
Regional 481
ash@@ 481
180 480
th 480
انتش@@ 480
ﻓ@@ 478
H 475
ir@@ 474
de@@ 473
town 473
140 471
Sof@@ 471
لاحق 471
ic@@ 470
حفاظ@@ 470
1957 469
1968 469
् 469
46@@ 467
ers 467
ir 467
آذ@@ 467
خواہ@@ 467
باق 466
خات@@ 466
فع 466
فورنیا 465
170 464
ولوج@@ 464
1964 463
47@@ 463
ical 462
به@@ 462
۴@@ 462
كلي@@ 461
1963 460
ain 459
ویز 459
160 458
Re@@ 458
ّل 458
ٗ 457
city 456
15,@@ 455
1935 455
eh@@ 455
داف 455
ملاز@@ 455
لد 454
ac@@ 453
https 453
حز@@ 453
codice 452
راہی 452
ڈائری@@ 452
ti@@ 451
فاق@@ 451
وارد 451
1943 450
عا 449
ab 447
• 447
والم@@ 446
Bar@@ 445
it 445
صر@@ 445
واع 445
iv@@ 444
ﺪ 444
فع@@ 443
1953 442
ﻦ 442
V 440
الناس 440
لًا 439
واح@@ 439
ﯼ 439
101 438
120@@ 438
Maz@@ 438
تس 438
Ab@@ 437
شنا@@ 436
Central 435
ﺕ 435
Tr@@ 434
it@@ 434
j 434
قال 434
دخ@@ 433
۶@@ 433
ابات 432
المؤ@@ 432
ممل@@ 432
ﻡ 432
li@@ 431
tion 430
المبار@@ 430
Mor@@ 429
amp 428
ناء 428
ﺁ@@ 428
بين 427
واپ@@ 427
1937 426
be@@ 426
ent 426
المح@@ 426
غان 426
68@@ 425
ous 425
ثناء 425
نشا@@ 425
1951 424
Jar@@ 423
ł@@ 423
1952 422
70@@ 422
باع@@ 422
ec@@ 421
P 419
حل@@ 419
٣@@ 419
350 417
عُ@@ 417
ﮦ 417
1912 416
1959 416
Republic 416
1938 415
جرات 415
صار 415
لاء 415
1961 413
بلغ 413
20,@@ 411
يس@@ 411
IC@@ 410
Th@@ 410
1933 409
44@@ 409
الفر@@ 409
حسين 409
ولي@@ 409
17,@@ 408
em@@ 408
متوسط 408
http 407
كل 407
1954 406
ﺍ 406
125 405
1921 405
III 405
ans 405
ary 405
حت@@ 405
67@@ 404
ana 404
ap@@ 404
طن 404
المسل@@ 403
رال 403
are 402
et@@ 402
ni@@ 402
ۡ@@ 402
نوف@@ 401
55@@ 400
75@@ 400
U 400
؍ 400
عاد 400
توم@@ 399
ثن@@ 399
115@@ 398
Dar@@ 398
\ 398
ضات 398
باط 397
‏ 397
نح@@ 396
id@@ 395
يز 395
23.@@ 394
Sainte 394
ani 394
aw@@ 393
st@@ 393
59@@ 392
les 392
كرا@@ 392
۲ 392
58@@ 391
Car@@ 391
اقی 391
علیٰ 391
ها 391
1966 390
K 390
$ 389
enti@@ 389
ﻞ 389
me@@ 388
105 386
se@@ 386
الث 386
برطان@@ 386
21.@@ 385
te 385
يان 385
21@@ 384
24.@@ 384
1955 382
الرا@@ 382
وست@@ 381
102 380
ژ 380
ów 379
تلق@@ 379
مدي@@ 378
ّا 378
57@@ 377
ولي 377
X@@ 376
1934 375
22.@@ 375
Lo@@ 375
um@@ 375
Mon@@ 374
di@@ 374
é 374
66@@ 373
اعل 373
age 372
18,@@ 371
with 371
موج@@ 371
ى@@ 371
1932 370
غالب@@ 370
ﺱ 370
.. 369
99@@ 369
elle 369
ub@@ 369
un 369
يش@@ 369
land 368
ro@@ 368
نحو 368
ie 366
راع 366
قامت 366
25.@@ 365
andi 365
w 363
جار 363
يخ 363
يُ@@ 363
ﭼ@@ 363
Region 361
tu@@ 361
ﺯ@@ 361
des 360
طي@@ 360
پائن 360
1913 359
واض@@ 359
کیلی@@ 359
114@@ 357
اله@@ 357
90@@ 356
di 356
الوج@@ 356
۱ 356
117@@ 355
1922 355
Con@@ 355
حوال@@ 355
ology 354
الأ@@ 354
ﻲ 354
au@@ 353
ve 353
۳ 353
qu@@ 352
ﻴ@@ 352
De@@ 351
af@@ 351
19,@@ 350
220 350
امي 350
27.@@ 349
108 347
240 347
5000 347
اك 347
1931 346
id 346
لار 346
43@@ 345
one 345
se 345
تجاو@@ 345
كن@@ 345
ﻢ 345
ri@@ 344
W 343
br@@ 343
والح@@ 343
Qu@@ 342
مير 342
وين 342
ريا 341
كام@@ 341
104 340
باتات 340
Ro@@ 339
کمپیو@@ 339
ai 338
ik@@ 338
Am@@ 337
ice 337
كت 337
ليس 337
ٓ@@ 337
1929 336
lo@@ 336
فول@@ 336
Iowa 335
po@@ 335
برت 335
قت@@ 335
پیچھ@@ 335
ڈکو@@ 335
ﻝ 335
California 334
عان 334
٠@@ 334
115 333
og@@ 333
ov@@ 333
تط@@ 333
فقط 333
ish 332
ﺤ@@ 332
190 331
56@@ 330
Br@@ 330
Kar@@ 329
ac 329
· 329
العل@@ 329
تونس 329
رج 329
لبن@@ 329
لوا 329
100@@ 328
NA 328
South 328
ari 328
eg@@ 328
territ@@ 328
1924 327
As@@ 326
ent@@ 326
ka 326
بور 326
فرنس@@ 326
‍ 326
1500 325
رية 325
شتر 325
عي@@ 325
كتاب 325
وين@@ 324
ard 323
os 323
106 322
no@@ 322
ne 321
٩@@ 321
ﻼ@@ 321
👈 321
155 320
360 320
il 320
ton 319
٢ 319
107 318
114 318
Minnesota 318
ism 318
iz@@ 318
v 318
يون 318
109 317
ci@@ 317
رؤ@@ 317
۵ 317
112 316
122 316
126 316
Com@@ 316
طان@@ 316
25,@@ 315
450 315
فان@@ 315
كرو@@ 314
میون@@ 314
يت@@ 313
116@@ 312
na 312
به 312
فہر@@ 312
commune 311
الض@@ 311
وني 311
128 310
ali 310
135 308
da 308
re 308
بًا 308
23,@@ 307
ma@@ 306
قع 306
to@@ 305
وُ@@ 305
118@@ 304
53@@ 304
Y 304
میونسپ@@ 304
103 303
3000 303
Se@@ 303
ing@@ 303
ère 303
Sa@@ 302
شخ@@ 302
شي 302
۴ 302
تمد 301
ندي 300
1915 299
ory 299
على 299
116 298
2.5 298
21,@@ 298
and@@ 298
ta 298
خي@@ 298
كت@@ 298
Be@@ 297
26.@@ 296
260 296
that 296
طار 296
124 295
22,@@ 295
لاف 295
129 294
Moh@@ 294
العظ@@ 293
عض@@ 293
280 292
Gu@@ 292
man 292
railway 292
البل@@ 291
الوجی 291
نيا 291
واست@@ 291
وك 291
نوائے 290
ian 289
orial 289
י@@ 289
نف 289
يوسف 289
ﷺ@@ 289
121 288
Ne@@ 288
St@@ 288
ig@@ 288
ہید 288
1857 287
320 287
ant 287
yn@@ 287
175 286
1916 286
Ger@@ 286
co@@ 286
ts 286
ut@@ 286
132 285
210 285
au 285
gh@@ 285
واش@@ 285
1.5 284
230 284
270 284
اي 284
حقی@@ 284
زيد 284
1923 283
الآ@@ 283
do@@ 282
est@@ 282
المج@@ 282
شري@@ 282
ﺠ@@ 282
Ali 281
Es@@ 281
مولی 281
ہاتھ@@ 281
Man@@ 280
ter@@ 280
ver@@ 280
يز@@ 280
ﺅ@@ 280
1926 279
الحک@@ 279
بالع@@ 279
117 278
od@@ 278
Township 277
ber@@ 277
was 277
ā@@ 277
يران 277
ﺩ 277
1900 276
ach@@ 276
bi@@ 276
ter 276
رہائ@@ 276
24,@@ 275
dis@@ 275
É@@ 275
ہتھ@@ 275
ﮏ 275
119@@ 274
Martin 274
ﮕ@@ 274
111 273
ong@@ 273
انھ@@ 273
رجال 273
۷ 273
123 272
Co@@ 272
Per@@ 272
Sal@@ 272
ob@@ 272
مة 272
يكا 272
113 271
118 271
Bel@@ 271
Is@@ 271
co 271
الجام@@ 271
ﺻ@@ 271
113@@ 270
26,@@ 270
Mal@@ 269
هر 269
ence 268
ong 268
لل 267
145 266
te@@ 266
تاريخ 266
قلال 266
Sar@@ 265
عمال 265
واء 265
ٹرول 265
ہمی@@ 265
community 264
dom@@ 264
ons 264
poem 264
وصف 264
ﻘ@@ 264
750 263
North 263
pr@@ 263
ville 263
تبع 263
330 262
Khan 262
داً 262
City 261
é@@ 261
ایاں 261
ٖ@@ 261
ڪ@@ 261
۶ 261
119 260
27,@@ 260
ali@@ 260
est 260
ie@@ 260
ina 260
region 260
وتر 260
يع@@ 260
he@@ 259
اتفاق@@ 259
المد@@ 259
عضو 259
Ver@@ 258
ex@@ 258
ابتد@@ 258
ابع 258
ﻻ@@ 257
1,000 256
ch 256
per@@ 256
المش@@ 256
حیدر@@ 256
ده 256
1878 255
1905 255
ته@@ 255
1910 254
ki 254
no 254
شرق 254
1925 253
موجو@@ 253
Col@@ 252
from 252
top 252
ze@@ 252
النا@@ 252
مذہ@@ 252
Ho@@ 251
Le@@ 251
ev@@ 251
آذرب@@ 251
كوم@@ 251
۸ 251
Bol@@ 250
ance 250
har@@ 250
ille 250
1927 249
ure 249
ו@@ 249
خلي@@ 249
عقد 249
1928 248
ign@@ 248
level 248
op@@ 248
ra 248
هد 248
وّ@@ 248
si@@ 247
والد@@ 247
وفر 247
Has@@ 246
India 246
؎ 246
نیوی@@ 246
ولات 246
Pr@@ 245
hi@@ 245
ics 245
tic 245
البا@@ 245
مرتب@@ 245
1908 244
Tol@@ 244
bot 244
لين 244
يرا 244
یاف@@ 244
1870 243
1911 243
En@@ 243
Mont@@ 243
ari@@ 243
ati@@ 243
den 243
ey@@ 243
الور@@ 243
650 242
كان 242
eb@@ 241
ly 241
tri@@ 241
حدي@@ 241
دفت@@ 241
مرات 241
1848 240
1890 240
Pakistan 240
des@@ 240
incorpor@@ 240
li 240
ne@@ 240
أ 240
دين 240
رك@@ 240
Jean 239
all 239
القر@@ 239
ﺸ@@ 239
1907 238
ill@@ 238
ru@@ 238
المدارس 238
١ 238
Air 237
Ph@@ 237
ce 237
له 237
ﻔ@@ 237
152 236
1880 236
ok@@ 236
درخوا@@ 236
ai@@ 235
550 234
Ag@@ 234
غل 234
٣ 234
Bur@@ 233
ez@@ 233
حك@@ 233
ذری@@ 233
سيم 233
هن@@ 233
Bal@@ 232
127 231
China 231
che 231
ala 230
du@@ 230
حرب 230
Mo@@ 229
uc@@ 229
á@@ 229
المس@@ 229
Ur@@ 228
West 228
ica 228
العرب 228
اند 228
عداد 228
3.5 227
Li@@ 227
Pal@@ 227
ania 227
zy@@ 227
اسرائی@@ 227
الحر@@ 227
العلم 227
المت@@ 227
سري@@ 227
1860 226
Ah@@ 226
Chap@@ 226
lu@@ 226
onom@@ 226
ran@@ 226
الوط@@ 226
معظم 226
۹ 226
ﻭ 226
1909 225
World 225
gi@@ 225
od 225
متر 225
٤@@ 225
Department 224
Jersey 224
رة 224
سوي@@ 224
Di@@ 223
Pierre 223
Vo@@ 223
ha 223
yr@@ 223
IS@@ 222
com@@ 222
iy@@ 221
المست@@ 221
ومح@@ 221
يب 221
٠ 221
Aut@@ 220
que 220
ﺐ 220
Bor@@ 219
ملك 219
يار 218
1897 217
Gar@@ 217
ann@@ 217
ba@@ 217
hi 217
تد 217
تمث@@ 217
London 216
area 216
1895 215
Cor@@ 215
ès 215
man@@ 214
الخط@@ 214
5,000 213
county 213
ؒ@@ 212
٦@@ 212
1200 211
Sea 211
ji 211
org 211
ﻬ@@ 211
1876 210
4000 210
Or@@ 210
University 209
بوا@@ 209
زوج@@ 209
া@@ 209
1901 208
? 208
Ex@@ 208
ins 208
المنا@@ 208
ﺰ@@ 208
Gr@@ 207
Inter@@ 207
Ma@@ 207
borough 207
ca 207
mar@@ 207
کاون@@ 207
ency 206
Japan 205
ath@@ 205
ish@@ 205
المث@@ 205
نع 205
پختون@@ 205
1906 204
Har@@ 204
ile 204
uy@@ 204
Bag@@ 203
ect 203
mon@@ 203
دين@@ 203
ﭖ 203
1812 202
380 202
Ad@@ 202
1896 201
Char@@ 201
con@@ 201
العالم 201
روع 201
Kal@@ 200
Mah@@ 200
end@@ 200
المغ@@ 200
غير 200
ليل 200
ورة 199
ٴ 199
1877 198
1904 198
em 198
ho@@ 198
ma 198
vi@@ 198
أُ@@ 198
نٹین 198
1898 197
Me@@ 197
par@@ 197
za 197
ولم 197
Su@@ 196
aska 196
ge 196
ite 196
its 196
اسي 196
ضع@@ 196
Bi@@ 195
ais 195
﴾ 195
She@@ 194
ents 194
mi@@ 194
1800 193
Ber@@ 193
National 193
der 193
sp@@ 193
سلي@@ 193
Her@@ 192
eng@@ 192
gu@@ 192
je@@ 192
ore 192
pi@@ 192
الات@@ 192
Bas@@ 191
Park 191
adi@@ 191
az 191
1899 190
For@@ 190
Rom@@ 190
mo@@ 189
ant@@ 188
ara 188
AC@@ 187
Po@@ 187
San 187
ages 187
ecture 187
ek@@ 187
ion 187
str@@ 187
â@@ 187
الرو@@ 187
واصل 187
کردگی 187
pl@@ 186
son 186
البي@@ 186
القض@@ 186
10,000 185
Sha@@ 185
our 185
مير@@ 185
وادي 185
﴿ 185
Cr@@ 184
Mas@@ 184
ابراہ@@ 184
الفت@@ 184
ﺌ@@ 184
ﻳ@@ 184
1830 183
Pennsylvania 183
als 183
ash 183
الجن@@ 183
ﮢ@@ 182
CO@@ 181
نقاط 181
يوم 181
ٖ 181
پیو@@ 181
ﮬ@@ 181
Pre@@ 180
ey 180
hip 180
ta@@ 180
بناء 180
سكي 180
٥ 180
ﻃ@@ 180
1882 179
2,000 179
Gen@@ 179
Mac@@ 179
bo@@ 179
human 179
ick@@ 179
وتع@@ 179
کینٹ@@ 179
1892 178
Go@@ 178
Mi@@ 178
Mos@@ 178
able 178
ahr@@ 178
ane 178
ebr@@ 178
ji@@ 178
language 178
ó@@ 178
ؓ@@ 178
عاد@@ 178
٧ 178
الظ@@ 177
ية 177
ens 176
gr@@ 176
wer 176
آذربائی@@ 176
السل@@ 176
بلاد 176
ha@@ 175
وير 175
ek 174
ment 174
تت@@ 174
سى 174
فتار 174
٦ 174
ﮍ@@ 174
ﺏ 174
1881 173
1894 173
Mus@@ 173
Pro@@ 173
Q 173
Ta@@ 173
البحر 173
بذ@@ 173
بك@@ 173
قب 173
2.0 172
Airlines 172
Cro@@ 172
section 172
المط@@ 172
ريك 172
٨@@ 172
1871 171
1902 171
Kingdom 171
main 171
ָ@@ 171
كار 171
٤ 171
Tar@@ 170
ale 170
ass@@ 170
ative 170
ings 170
è@@ 170
أبو 170
نى 170
ess 169
ola 169
غرب 169
كم 169
٧@@ 169
ٹیکس@@ 169
1903 168
AD 168
In 168
administrative 168
all@@ 168
aux 168
pe@@ 168
العمل 168
ديا 168
شه@@ 168
مرك@@ 168
ہیپ@@ 168
1815 167
1887 167
Au@@ 167
Un@@ 167
gen@@ 167
sett@@ 167
uk@@ 167
AR@@ 166
Mir@@ 166
Ru@@ 166
ell@@ 166
han 166
lands 166
تها 166
يش 166
٥@@ 166
Em@@ 165
تين 165
ﻄ@@ 165
1884 164
ard@@ 164
ographi@@ 164
ti 164
uz@@ 164
التف@@ 164
الوقت 164
عود 164
فوق 164
DNA 163
Wisconsin 163
الح 163
ويت 163
England 162
ast@@ 162
ind@@ 162
العزيز 162
تك@@ 162
جيم@@ 162
حفا@@ 162
Arab@@ 161
Arch@@ 161
a.@@ 161
hu@@ 161
province 161
su@@ 161
ר@@ 161
ﮮ 161
---- 160
At@@ 160
Cl@@ 160
aire 160
era 160
local 160
und 160
ويك@@ 160
کانگری@@ 160
1879 159
East 159
hal@@ 159
سعو@@ 159
نه@@ 159
والي 159
Az@@ 158
He@@ 158
Le 158
River 158
ada 158
ama 158
lin@@ 158
mu@@ 158
ze 158
ثلاث@@ 158
شخصی@@ 158
يشن 158
ٌ@@ 158
Sey@@ 157
arch@@ 157
has 157
sa@@ 157
tions 157
وه@@ 157
2500 156
Cal@@ 156
ammad 156
ano 156
cr@@ 156
ley 156
ּ@@ 156
1886 155
1891 155
Pi@@ 155
type 155
מ@@ 155
ره 155
میکسی@@ 155
ﺼ@@ 155
Nor@@ 154
Ri@@ 154
car@@ 154
் 154
CA@@ 153
Islands 153
tics 153
were 153
اريو 153
بيت 153
عیل 153
وسي@@ 153
1864 152
El@@ 152
People 152
Sau@@ 152
ku@@ 152
mer@@ 152
وجد 152
وح 152
1856 151
1885 151
Sol@@ 151
bar@@ 151
تمر 151
1813 150
Cy@@ 150
Pl@@ 150
Shu@@ 150
sk@@ 150
so@@ 150
sub@@ 150
ريم 150
سكو 150
عي 150
هن 150
ﻀ@@ 150
1814 149
Air@@ 149
Lan@@ 149
im 149
ot 149
tan@@ 149
ther@@ 149
ę@@ 149
خص 149
عشر 149
Gre@@ 148
Lang@@ 148
Mississippi 148
Si@@ 148
ata 148
ep@@ 148
lam@@ 148
ten@@ 148
بني 148
عة 148
ٔ@@ 148
٨ 148
Al 147
Gal@@ 147
Hu@@ 147
Ser@@ 147
country 147
end 147
this 147
va 147
لوے 147
ماني 147
٬ 147
ۡ 147
1850 146
Ac@@ 146
Gol@@ 146
IN@@ 146
ist@@ 146
uch@@ 146
الثق@@ 146
الرجال 146
نفس@@ 146
ess@@ 145
ue 145
تقد 145
سوق 145
هر@@ 145
ڙ@@ 145
BC 144
Ham@@ 144
J 144
ain@@ 144
ations 144
inter@@ 144
me 144
up@@ 144
́ 144
ؔ@@ 144
بير 144
1889 143
ality 143
ist 143
state 143
time 143
أبي 143
العالم@@ 143
وأ@@ 143
← 143
1893 142
Val@@ 142
York 142
ao 142
do 142
go@@ 142
not 142
الشر@@ 142
بيل 142
ٍ@@ 142
AS@@ 141
ou 141
ud@@ 141
كتب 141
يوس 141
1867 140
Far@@ 140
State 140
ug@@ 140
أن 140
1888 139
Ku@@ 139
Lab@@ 139
Mol@@ 139
Str@@ 139
ford 139
obj@@ 139
א@@ 139
بير@@ 139
ةً 139
bu@@ 138
chi 138
elec@@ 138
government 138
ix 138
style 138
المه@@ 138
دير 138
٩ 138
UN@@ 137
anc@@ 137
ast 137
und@@ 137
way 137
تخص@@ 137
مندر@@ 137
1700 136
Shar@@ 136
U.S. 136
air@@ 136
ell 136
min@@ 136
ost 136
ties 136
وتق@@ 136
وني@@ 136
Tal@@ 135
^ 135
fac@@ 135
ise 135
lah 135
ly@@ 135
sa 135
ys@@ 135
اعتم@@ 135
ايا 135
غار@@ 135
ﭽ@@ 135
ﻑ 135
ﻫ@@ 135
Cas@@ 134
Pe@@ 134
So@@ 134
Sw@@ 134
ator 134
her@@ 134
ib@@ 134
onne 134
ə@@ 134
سير 134
پنس@@ 134
র@@ 134
Indian 133
mad 133
world 133
ér@@ 133
ديم 133
ﭩ@@ 133
Juli@@ 132
Mad@@ 132
arr@@ 132
dan 132
ette 132
oph@@ 132
res@@ 132
rural 132
ve@@ 132
ä@@ 132
اوي 132
اکیڈ@@ 132
فة 132
يف@@ 132
Santa 131
del 131
field 131
mad@@ 131
mont 131
om 131
ש@@ 131
تحمل 131
عليه 131
Ali@@ 130
ans@@ 130
ets 130
lem@@ 130
pre@@ 130
states 130
الشع@@ 130
-- 129
1849 129
Chi@@ 129
College 129
IV 129
John 129
Sub@@ 129
amb@@ 129
bor@@ 129
كاون@@ 129
كوك@@ 129
موا 129
ٗ@@ 129
Tur@@ 128
he 128
ita 128
pa@@ 128
si 128
ś@@ 128
تعليم 128
غرا@@ 128
موسي@@ 128
--@@ 127
1858 127
AN@@ 127
Av@@ 127
Korea 127
Kur@@ 127
ל@@ 127
انگری@@ 127
سيا 127
1840 126
CC 126
aj 126
cities 126
for@@ 126
ja 126
ni 126
ְ@@ 126
اعد 126
العصر 126
ٽ@@ 126
1873 125
Ab 125
Laurent 125
ace 125
ase 125
net@@ 125
ul 125
uv@@ 125
ؑ@@ 125
اه 125
ਰ@@ 125
ﮫ 125
1300 124
Ang@@ 124
Sav@@ 124
ens@@ 124
jan 124
tes 124
ym@@ 124
ב@@ 124
المخت@@ 124
تري@@ 124
1861 123
AM@@ 123
Ban@@ 123
Kor@@ 123
Lin@@ 123
Mag@@ 123
Sy@@ 123
Time 123
ean 123
ough 123
we@@ 123
ה@@ 123
بيع 123
عين 123
مجھ@@ 123
Min@@ 122
division 122
ere 122
ight 122
sion 122
trans@@ 122
ה 122
ازت 122
اللغ@@ 122
صحي@@ 122
1875 121
Ba@@ 121
اضي 121
زين 121
1804 120
Ha@@ 120
Loire 120
Sel@@ 120
ates 120
comp@@ 120
ograph@@ 120
ères 120
ةٍ 120
كاؤن@@ 120
كات@@ 120
يق@@ 120
Mari@@ 119
Sur@@ 119
der@@ 119
include 119
ino 119
lar 119
ome 119
tical 119
سلک 119
يول@@ 119
﻿ 119
Hil@@ 118
Kr@@ 118
tic@@ 118
× 118
ō@@ 118
بعنوان 118
كين 118
لما 118
مارس 118
ٴ@@ 118
Islam@@ 117
Ra@@ 117
ba 117
bas@@ 117
istan 117
ular 117
ura 117
السع@@ 117
رك 117
ﺨ@@ 117
1400 116
1839 116
1872 116
Ben@@ 116
Ge@@ 116
Lar@@ 116
Lu@@ 116
No@@ 116
Pol@@ 116
ds 116
ement 116
ire 116
ng@@ 116
tric 116
المز@@ 116
ﺲ 116
￼ 116
1600 115
Bu@@ 115
Sp@@ 115
dr@@ 115
sc@@ 115
tel@@ 115
ִ@@ 115
بالم@@ 115
غي@@ 115
ﺿ@@ 115
1865 114
It 114
Poland 114
Pun@@ 114
Trans@@ 114
Tri@@ 114
ally 114
arg@@ 114
bot@@ 114
if@@ 114
system 114
ائق 114
نزدی@@ 114
ومي 114
ݨ 114
ਾ@@ 114
་ 114
ﻏ@@ 114
ﻱ 114
AT@@ 113
Gro@@ 113
Lam@@ 113
Mur@@ 113
Russia 113
ks 113
sk 113
جمي@@ 113
يه@@ 113
ﺅ 113
bl@@ 112
ush@@ 112
قري@@ 112
্ 112
anti@@ 111
department 111
hir 111
oma 111
wa 111
القص@@ 111
بيد 111
دائرة 111
فين@@ 111
− 111
1828 110
1859 110
1862 110
1883 110
Bon@@ 110
Dr@@ 110
Kam@@ 110
Tom@@ 110
ade 110
cell@@ 110
hou 110
lar@@ 110
ting 110
use 110
ye@@ 110
أن@@ 110
المخ@@ 110
خرج 110
كون 110
مه 110
1838 109
Bah@@ 109
IM@@ 109
Lake 109
Mat@@ 109
Peru 109
Sul@@ 109
line 109
osis 109
people 109
Fer@@ 108
Lag@@ 108
Nord 108
RA@@ 108
UTC 108
Vil@@ 108
cas@@ 108
inc@@ 108
langu@@ 108
ole 108
oth@@ 108
ted 108
ą@@ 108
الثاني 108
ته 108
ربع 108
1832 107
1853 107
Beau@@ 107
Georges 107
OS 107
RE@@ 107
burg 107
their 107
yg@@ 107
ˈ@@ 107
ַ@@ 107
وَّ@@ 107
ﻒ 107
1863 106
Ko@@ 106
Ni@@ 106
Pan@@ 106
have 106
onn@@ 106
العلا@@ 106
يف 106
ٹورنام@@ 106
1866 105
AL@@ 105
Du@@ 105
San@@ 105
ban 105
bar 105
ij@@ 105
ré@@ 105
tor 105
الروا@@ 105
بیو 105
تام 105
خوا 105
والع@@ 105
1806 104
Elec@@ 104
Empire 104
Maryland 104
Paul 104
Vi@@ 104
bi 104
iti@@ 104
ko 104
more 104
over 104
port 104
pur 104
zi@@ 104
دة 104
سوف 104
شك@@ 104
وة 104
1826 103
1846 103
1851 103
1869 103
St. 103
To@@ 103
action 103
col@@ 103
eti@@ 103
فاظ 103
Hy@@ 102
Im@@ 102
Sam@@ 102
adi 102
ave 102
fl@@ 102
ham 102
inn@@ 102
lat@@ 102
nes 102
oh@@ 102
ؤٹ 102
الاست@@ 102
خل 102
صي@@ 102
قاء 102
ﭨ@@ 102
Mer@@ 101
Nas@@ 101
Reg@@ 101
Sad@@ 101
enne 101
oli 101
oy@@ 101
á 101
الصح@@ 101
ديل 101
″ 101
 101
1834 100
1854 100
Land@@ 100
Stadium 100
aki 100
ass 100
eli@@ 100
esh 100
ke@@ 100
ler@@ 100
pol@@ 100
yn 100
اظ 100
جاء 100
Cap@@ 99
English 99
Il@@ 99
LC 99
Sab@@ 99
Union 99
Wi@@ 99
alist 99
appe@@ 99
gar@@ 99
ological 99
rah@@ 99
ry 99
ways 99
ë@@ 99
النف@@ 99
ضي@@ 99
1831 98
Soci@@ 98
ail@@ 98
ene 98
int@@ 98
ju@@ 98
ke 98
ner 98
non 98
ut 98
yan 98
you 98
ć 98
بعض@@ 98
جديد 98
لك 98
ماي@@ 98
مشار@@ 98
1821 97
1835 97
Ash@@ 97
SA@@ 97
The@@ 97
eu@@ 97
ée 97
الشمس 97
تمع 97
دز 97
وزير 97
1790 96
1818 96
1820 96
1845 96
COVID 96
Del@@ 96
Dow@@ 96
Gul@@ 96
Lou@@ 96
arm@@ 96
ik 96
ord@@ 96
population 96
tro@@ 96
wid@@ 96
اة 96
ٕ@@ 96
ۖ 96
1874 95
Can@@ 95
Do@@ 95
Fre@@ 95
Now 95
Sch@@ 95
Swe@@ 95
Tor@@ 95
also 95
ena 95
fi@@ 95
ih@@ 95
ok 95
ont 95
ts@@ 95
which 95
í@@ 95
جزء 95
وزي@@ 95
يمي 95
1809 94
1868 94
Council 94
US@@ 94
ack@@ 94
alism 94
ational 94
emati@@ 94
ff@@ 94
single 94
tor@@ 94
van 94
الجز@@ 94
تج 94
هـ 94
ٹاؤن@@ 94
1799 93
ES@@ 93
Fi@@ 93
Island 93
Ju@@ 93
Que@@ 93
iki@@ 93
ors 93
pos@@ 93
yl@@ 93
š@@ 93
المُ@@ 93
تقد@@ 93
لة 93
₹ 93
ﮪ 93
Dis@@ 92
Fo@@ 92
Haute 92
Mid@@ 92
SA 92
Western 92
ault 92
bec 92
cre@@ 92
ea 92
form 92
ora 92
other 92
ous@@ 92
per 92
المغرب 92
حدث 92
هل 92
ি@@ 92
Bad@@ 91
Bos@@ 91
Fin@@ 91
Games 91
Pas@@ 91
Tak@@ 91
acc@@ 91
ach 91
can 91
dec@@ 91
ki@@ 91
ren@@ 91
try 91
البح@@ 91
التص@@ 91
لى 91
ڊ@@ 91
La@@ 90
Res@@ 90
act 90
agne 90
ating 90
enc@@ 90
ham@@ 90
ington 90
lan@@ 90
low 90
mir 90
nor@@ 90
ography 90
var 90
wi@@ 90
ône 90
الإ@@ 90
السي@@ 90
تدار 90
ديد 90
ليون 90
هو 90
ਸ@@ 90
Ak@@ 89
Bab@@ 89
Er@@ 89
Great 89
History 89
Lac@@ 89
Mil@@ 89
NS@@ 89
Pu@@ 89
US 89
Vill@@ 89
ater 89
fa@@ 89
st 89
tienne 89
تنظيم 89
طلق 89
️ 89
1855 88
Ou@@ 88
System 88
TV 88
Wor@@ 88
ability 88
ap 88
aza 88
cel@@ 88
ide 88
most 88
ran 88
space 88
إن 88
1789 87
Bay@@ 87
Beng@@ 87
Cat@@ 87
Ed@@ 87
Egyp@@ 87
Hor@@ 87
Ray@@ 87
Sil@@ 87
ars 87
aye 87
ko@@ 87
lam 87
life 87
loc@@ 87
mag@@ 87
mas@@ 87
number 87
pedi@@ 87
war 87
أس@@ 87
ادیث 87
رًا 87
نه 87
نين 87
ਦ@@ 87
1801 86
1847 86
André 86
Bak@@ 86
Bey@@ 86
Gi@@ 86
Hol@@ 86
Jon@@ 86
Oc@@ 86
Spain 86
ae 86
amm@@ 86
awa 86
aya 86
constitu@@ 86
kar@@ 86
nucle@@ 86
pp@@ 86
yk@@ 86
נ@@ 86
اعتب@@ 86
الحديث 86
جين 86
صنا@@ 86
़ 86
ক@@ 86
ﭙ@@ 86
ﯽ@@ 86
1837 85
Gor@@ 85
VI 85
ban@@ 85
cs 85
dar@@ 85
ental 85
ili@@ 85
io 85
lement 85
nam@@ 85
ny 85
ories 85
til@@ 85
تؤ@@ 85
دفع 85
كث@@ 85
1810 84
1817 84
A. 84
Jan@@ 84
Muhammad 84
SE@@ 84
Valley 84
apo@@ 84
ath 84
ert 84
fe@@ 84
king 84
ler 84
parish 84
بالت@@ 84
ੀ 84
ﻊ 84
1829 83
1842 83
Est 83
Hal@@ 83
House 83
Hungary 83
Ji@@ 83
Las 83
Mu@@ 83
PO@@ 83
Wo@@ 83
aur@@ 83
bers 83
coun@@ 83
fication 83
ome@@ 83
Ś@@ 83
إلى 83
المرا@@ 83
بة 83
مى 83
ميل 83
1844 82
AC 82
Fas@@ 82
Lat@@ 82
RO@@ 82
Ram@@ 82
Tw@@ 82
We@@ 82
atis@@ 82
don 82
fer@@ 82
log@@ 82
medi@@ 82
s.@@ 82
will 82
Ł@@ 82
ע@@ 82
مني 82
1807 81
AB@@ 81
Azer@@ 81
CA 81
CI@@ 81
Kah@@ 81
Nar@@ 81
RNA 81
ST@@ 81
Var@@ 81
core 81
countries 81
duc@@ 81
ip 81
net 81
ost@@ 81
rate 81
sive 81
ski 81
unc@@ 81
well 81
yp@@ 81
الإم@@ 81
تأ@@ 81
زيل 81
قوق 81
يكي 81
ﮈ@@ 81
ﺀ 81
ﺯ 81
ﻈ@@ 81
Ay@@ 80
Champ@@ 80
DA 80
Des@@ 80
El 80
My@@ 80
NE@@ 80
Por@@ 80
Road 80
Som@@ 80
Ti@@ 80
ae@@ 80
cl@@ 80
class 80
had 80
his 80
ids 80
ila 80
institu@@ 80
mor@@ 80
ness 80
oni@@ 80
out 80
sch@@ 80
ser@@ 80
two 80
ver 80
č@@ 80
الجما@@ 80
سرائ@@ 80
لوك 80
ﷲ@@ 80
Bro@@ 79
Jam@@ 79
Meh@@ 79
VII 79
electr@@ 79
eter 79
hol@@ 79
ich@@ 79
ick 79
ison 79
mat@@ 79
olog@@ 79
pen@@ 79
row 79
ual 79
une 79
wor@@ 79
ég@@ 79
البرو@@ 79
تکمی@@ 79
طلاح 79
عرص@@ 79
مباش@@ 79
هي@@ 79
ਿ@@ 79
ﭦ 79
CEO 78
Est@@ 78
Ir@@ 78
Kas@@ 78
Rah@@ 78
ax@@ 78
berg 78
chi@@ 78
ization 78
kina 78
poly@@ 78
pu@@ 78
the@@ 78
they 78
ابق 78
الجزائ@@ 78
المف@@ 78
النس@@ 78
باست@@ 78
بالن@@ 78
تست@@ 78
تعلم 78
ريف 78
طبي@@ 78
لاند 78
ব@@ 78
․ 78
🔹 78
AI@@ 77
DP 77
ER@@ 77
astr@@ 77
cell 77
ici@@ 77
ies 77
ira 77
ung@@ 77
urdu 77
ת 77
الملك 77
حدو@@ 77
عند 77
مارك 77
ميم 77
ينا@@ 77
ন 77
ﮌ@@ 77
ﺫ@@ 77
Gir@@ 76
Hill 76
Mé@@ 76
Nov@@ 76
Sim@@ 76
Sor@@ 76
Vir@@ 76
achi 76
ago 76
ati 76
aus@@ 76
ber 76
ente 76
fre@@ 76
histori@@ 76
ier@@ 76
inf@@ 76
mis@@ 76
oux 76
ps 76
quot 76
rec@@ 76
án 76
حمل@@ 76
دًا 76
1819 75
American 75
Fl@@ 75
Les 75
Loc@@ 75
ME@@ 75
MO@@ 75
Na@@ 75
RC 75
begin 75
bur@@ 75
cu@@ 75
function 75
hr@@ 75
illy 75
pe 75
tive 75
tra 75
yc@@ 75
إل@@ 75
روي@@ 75
ظل 75
ਤ@@ 75
1795 74
1824 74
British 74
Kan@@ 74
Sc@@ 74
Shir@@ 74
Vol@@ 74
ains 74
ange 74
ask@@ 74
cri@@ 74
cur@@ 74
ona 74
pro@@ 74
public 74
set 74
uh@@ 74
ven@@ 74
£ 74
ī@@ 74
افي 74
التع@@ 74
الشيخ 74
تاريخ@@ 74
ريد 74
قاً 74
وط 74
وى 74
ۂ@@ 74
1836 73
Bat@@ 73
CH@@ 73
Ca@@ 73
Fal@@ 73
Te@@ 73
XI 73
cin@@ 73
ding 73
ern@@ 73
ines 73
ini 73
mer 73
och@@ 73
oz@@ 73
ri 73
ron@@ 73
site 73
war@@ 73
we 73
ֹ@@ 73
ارتفاع 73
التن@@ 73
وء 73
۞ 73
ﮯ@@ 73
1803 72
1833 72
Anti@@ 72
Cer@@ 72
Mak@@ 72
PS 72
Pri@@ 72
Seine 72
`@@ 72
ami 72
ble 72
dex 72
dia 72
div@@ 72
ft 72
hab@@ 72
isi@@ 72
list 72
national 72
ning 72
tim@@ 72
tur@@ 72
zi 72
ń@@ 72
ם 72
أم@@ 72
التار@@ 72
تصف 72
ستي@@ 72
٘ 72
1793 71
Bri@@ 71
Colombia 71
Der@@ 71
George 71
Gl@@ 71
IO@@ 71
Je@@ 71
Maurice 71
Nag@@ 71
Portugal 71
Sz@@ 71
This 71
Vis@@ 71
art 71
bat 71
dev@@ 71
ebo@@ 71
ee 71
eth@@ 71
gl@@ 71
ital 71
place 71
sur@@ 71
tig@@ 71
uri 71
ux 71
ā 71
اله 71
ترك@@ 71
جورج 71
مرت 71
ولاية 71
ڏ@@ 71
ڙ 71
Asian 70
Bl@@ 70
Dom@@ 70
European 70
Hel@@ 70
Kol@@ 70
Liv@@ 70
MI@@ 70
Metropolit@@ 70
Rec@@ 70
Ste@@ 70
Sud 70
Tro@@ 70
book 70
cor@@ 70
ential 70
fr@@ 70
ga 70
ht 70
ine@@ 70
ond@@ 70
sy@@ 70
thu@@ 70
ud 70
مشتر@@ 70
وتر@@ 70
وفي 70
ٶ 70
1792 69
1843 69
1852 69
Bou@@ 69
CC@@ 69
Company 69
Division 69
Hey@@ 69
IE@@ 69
Koh@@ 69
Michel 69
Tu@@ 69
ag 69
alm@@ 69
app@@ 69
gene 69
inde@@ 69
ins@@ 69
land@@ 69
nia 69
onde 69
ori@@ 69
so 69
sol@@ 69
tion@@ 69
wo 69
wood 69
السلط@@ 69
تقدم 69
حي 69
عاب 69
كيل 69
ويلي@@ 69
يب@@ 69
ﮎ 69
ﻖ 69
1791 68
1825 68
3D 68
AK@@ 68
Ap@@ 68
Cre@@ 68
Dur@@ 68
Sing@@ 68
Turk@@ 68
Wal@@ 68
aine 68
atic 68
bel@@ 68
esia 68
ich 68
pper 68
sous 68
table 68
النوع 68
مبي@@ 68
مقاط@@ 68
وصل 68
ومي@@ 68
ې 68
ー@@ 68
1805 67
AM 67
AP@@ 67
Denis 67
Gur@@ 67
Human 67
IX 67
Kus@@ 67
PA 67
Rh@@ 67
SO@@ 67
School 67
att@@ 67
e.@@ 67
ef@@ 67
esis 67
ger@@ 67
hy@@ 67
mun@@ 67
old 67
our@@ 67
ov 67
rol@@ 67
tier 67
ung 67
wan 67
who 67
ys 67
يمي@@ 67
਼ 67
ﺝ 67
1808 66
1827 66
Aer@@ 66
Af@@ 66
Armen@@ 66
CD 66
Camp@@ 66
Cir@@ 66
Dam@@ 66
Kon@@ 66
Ouest 66
War 66
William 66
aff@@ 66
agu@@ 66
any 66
blo@@ 66
cop@@ 66
eng 66
eo 66
group 66
iss@@ 66
oa 66
oll@@ 66
tis@@ 66
up 66
view 66
ן 66
البط@@ 66
الیٰ 66
شہن@@ 66
مركز 66
ورك 66
ۓ@@ 66
ﻐ@@ 66
@ 65
Agu@@ 65
BN 65
Bre@@ 65
Don@@ 65
Eastern 65
Gh@@ 65
Med@@ 65
Mel@@ 65
amp@@ 65
arrondissement 65
change 65
del@@ 65
din 65
elles 65
ely 65
ez 65
inal 65
men 65
my 65
onlyinclude 65
privil@@ 65
ro 65
rul@@ 65
ster@@ 65
than 65
uk 65
val@@ 65
أح@@ 65
أخ@@ 65
دول 65
ديو 65
يث 65
ٱ@@ 65
ﺬ@@ 65
AN 64
Bank 64
Chinese 64
Development 64
Econom@@ 64
Louis 64
Mand@@ 64
ame@@ 64
arab@@ 64
azi 64
bal@@ 64
bon 64
cle 64
dar 64
ection 64
ider 64
ney 64
org@@ 64
osh@@ 64
por@@ 64
sar@@ 64
tar@@ 64
í 64
ד@@ 64
الموس@@ 64
فلسطين 64
موال@@ 64
ناك 64
يه 64
ম@@ 64
ਹ@@ 64
ி@@ 64
ﭔ@@ 64
0s 63
1798 63
1841 63
DF 63
Grand 63
Jo@@ 63
Pen@@ 63
Ukraine 63
Washington 63
bad 63
dyn@@ 63
ech 63
ese 63
ingen 63
ium 63
men@@ 63
mut@@ 63
ock 63
pa 63
prot@@ 63
rom@@ 63
shire 63
una 63
ves 63
would 63
ç@@ 63
ż@@ 63
بلوچ@@ 63
مؤس@@ 63
مجال 63
هما 63
। 63
স@@ 63
AS 62
Cam@@ 62
Carolina 62
Dec@@ 62
IC 62
Indi@@ 62
James 62
ML 62
Maur@@ 62
Missouri 62
NO@@ 62
Women 62
ait 62
cer@@ 62
ences 62
gan 62
ho 62
ida 62
ority 62
out@@ 62
pap@@ 62
reg@@ 62
res 62
sec@@ 62
ture 62
uter 62
wh@@ 62
ə 62
أهل 62
تين@@ 62
جري@@ 62
ذي 62
وعات 62
ونات 62
◼ 62
ﺛ@@ 62
ﺦ 62
App@@ 61
Baba 61
Bay 61
Bil@@ 61
But@@ 61
Chal@@ 61
Cur@@ 61
Mot@@ 61
Northern 61
Pot@@ 61
Saf@@ 61
Ter@@ 61
bas 61
but 61
edral 61
eri 61
ever 61
fin@@ 61
fo@@ 61
gre@@ 61
itz@@ 61
mal@@ 61
of@@ 61
qui@@ 61
ros@@ 61
tem@@ 61
ters 61
tw@@ 61
via 61
xi@@ 61
za@@ 61
å@@ 61
él@@ 61
إن@@ 61
المدر@@ 61
تنظ@@ 61
جة 61
ু@@ 61
ਮ@@ 61
Chile 60
Dor@@ 60
Marie 60
Naz@@ 60
New@@ 60
Ori@@ 60
Pak@@ 60
Party 60
Prot@@ 60
Sultan 60
Tre@@ 60
War@@ 60
anga 60
atr@@ 60
bal 60
bert 60
bro@@ 60
cal@@ 60
cap@@ 60
court 60
emb@@ 60
first 60
following 60
ng 60
sen@@ 60
sw@@ 60
vo@@ 60
wan@@ 60
­ 60
الموا@@ 60
بالف@@ 60
عنه 60
هي 60
া 60
ਾ 60
AD@@ 59
IT@@ 59
Is 59
Leg@@ 59
Mes@@ 59
Plan@@ 59
Sem@@ 59
Wy@@ 59
acid 59
ais@@ 59
ales 59
ature 59
aw 59
enn@@ 59
hai 59
ineering 59
kan 59
kin@@ 59
lan 59
les@@ 59
million 59
onia 59
only 59
ort 59
tel 59
ust 59
vol@@ 59
ת@@ 59
البرا@@ 59
واسع 59
وقد 59
يوم@@ 59
আ@@ 59
ল@@ 59
1811 58
Cou@@ 58
General 58
IS 58
Lav@@ 58
MS 58
Mul@@ 58
Pon@@ 58
Power 58
Sak@@ 58
Sen@@ 58
St 58
TE@@ 58
Zar@@ 58
ack 58
acy 58
aga 58
air 58
anim@@ 58
anj@@ 58
atom@@ 58
istic 58
ists 58
ky 58
ote 58
team 58
techn@@ 58
very 58
أص@@ 58
دى 58
ذكر 58
لمان 58
هذ@@ 58
يح@@ 58
ো@@ 58
ਕ@@ 58
ਲ@@ 58
1802 57
Ari@@ 57
Blo@@ 57
Cape 57
Green 57
King 57
Lim@@ 57
M. 57
Mem@@ 57
Mexico 57
Nic@@ 57
Nigeria 57
Pom@@ 57
Py@@ 57
Soviet 57
Ul@@ 57
Wil@@ 57
dissement 57
ense 57
ew@@ 57
hor@@ 57
ima 57
kr@@ 57
let 57
lier 57
light 57
ox@@ 57
ret 57
sel@@ 57
su 57
tors 57
uni@@ 57
vis@@ 57
~ 57
ón 57
ū@@ 57
כ@@ 57
أحمد 57
أو 57
البلاد 57
العق@@ 57
وجہد 57
୍ 57
్ 57
Asia 56
CP 56
Coast 56
Fr@@ 56
France 56
French 56
Fu@@ 56
Ful@@ 56
Ind@@ 56
LO@@ 56
Life 56
PC@@ 56
Sir 56
Street 56
Vie@@ 56
ana@@ 56
aran 56
aro@@ 56
aul@@ 56
been 56
ery 56
ill 56
leg@@ 56
san 56
sil 56
under 56
verse 56
web 56
xi 56
zar 56
ֶ@@ 56
الشرق 56
انیف 56
بالق@@ 56
ريق 56
زيز 56
سيدي 56
يين 56
್ 56
1816 55
1822 55
A.@@ 55
Do 55
EC@@ 55
IA 55
Ke@@ 55
Lap@@ 55
Mam@@ 55
Mc@@ 55
Rem@@ 55
Ros@@ 55
Sum@@ 55
Territ@@ 55
agn@@ 55
bil@@ 55
bol@@ 55
cul@@ 55
day 55
eign 55
face 55
formation 55
fort 55
ier 55
igh@@ 55
ites 55
mir@@ 55
mus@@ 55
ori 55
ray 55
red 55
rit@@ 55
tin 55
uf@@ 55
wn 55
work 55
ח@@ 55
פ@@ 55
ارة 55
اليا 55
سنة 55
عرض@@ 55
قه 55
هذا 55
وقال 55
ਨ@@ 55
市 55
ﺡ 55
Act 54
As 54
Beh@@ 54
Bud@@ 54
Ci@@ 54
DC 54
Gran@@ 54
Log@@ 54
Maj@@ 54
North@@ 54
TH@@ 54
White 54
about 54
ake 54
ann 54
ants 54
anz@@ 54
ark@@ 54
ella 54
ff 54
flu@@ 54
hem@@ 54
ign 54
ker 54
lim 54
lo 54
money 54
ota 54
phot@@ 54
schools 54
soci@@ 54
son@@ 54
ws 54
ées 54
اره 54
النظ@@ 54
تقري@@ 54
حة 54
فين 54
هنري 54
1823 53
Assembly 53
Baz@@ 53
Cel@@ 53
Church 53
Comput@@ 53
FI@@ 53
Fir@@ 53
Guinea 53
Ker@@ 53
Op@@ 53
Oxford 53
RI@@ 53
Rich@@ 53
Uni@@ 53
aa 53
bury 53
data 53
date 53
els 53
emp@@ 53
energy 53
enz@@ 53
known 53
math@@ 53
ow 53
second 53
sex 53
ska 53
stein 53
teri@@ 53
vière 53
wat@@ 53
years 53
غو 53
قة 53
محافظة 53
ੰ@@ 53
ﺶ 53
Day 52
Henry 52
Hon@@ 52
May@@ 52
R. 52
Rad@@ 52
Rel@@ 52
SS 52
Shi@@ 52
abi 52
ands 52
ani@@ 52
arak 52
bat@@ 52
cy@@ 52
esc@@ 52
ex 52
ful 52
ges 52
go 52
hat@@ 52
ities 52
las 52
lines 52
met@@ 52
now 52
ond 52
oni 52
ony 52
pel@@ 52
sky 52
tan 52
theory 52
tis 52
ula 52
ures 52
ń 52
ترك 52
لأ@@ 52
نة 52
ﻩ 52
1st 51
AT 51
America 51
Chil@@ 51
Cum@@ 51
Cô@@ 51
DE@@ 51
De 51
Federal 51
Florida 51
For 51
Gil@@ 51
How@@ 51
Mob@@ 51
Mong@@ 51
Rus@@ 51
Tun@@ 51
Xi@@ 51
af 51
alan 51
amo@@ 51
background 51
bridge 51
car 51
civil 51
ece 51
ein 51
fic 51
ked 51
lim@@ 51
nin 51
onal 51
organ@@ 51
programm@@ 51
tal@@ 51
title 51
ö@@ 51
خلال 51
عه 51
هار@@ 51
ন@@ 51
র 51
ﺜ@@ 51
Ard@@ 50
CD@@ 50
CE@@ 50
D. 50
FL 50
Government 50
Mau@@ 50
Neu@@ 50
Os@@ 50
PS@@ 50
Pod@@ 50
Prov@@ 50
Rev@@ 50
Town 50
agon 50
ahi 50
ail 50
aman 50
amar@@ 50
asi@@ 50
crick@@ 50
current 50
den@@ 50
during 50
ected 50
edi@@ 50
ems 50
graph@@ 50
has@@ 50
ights 50
into 50
je 50
killed 50
lig@@ 50
mp@@ 50
new 50
peri@@ 50
power 50
them 50
thi 50
tiv@@ 50
university 50
ush 50
vi 50
water 50
ying 50
ː 50
Рес@@ 50
ская 50
ֵ@@ 50
الأح@@ 50
النظر 50
فيد 50
ورجی@@ 50
يج@@ 50
يع 50
க@@ 50
ﭧ 50
AA 49
AF 49
An 49
Bir@@ 49
Centre 49
Cos@@ 49
First 49
Ga@@ 49
Hab@@ 49
Hat@@ 49
Hin@@ 49
IP 49
Ireland 49
Juan 49
Key@@ 49
LE@@ 49
Mey@@ 49
My 49
Nations 49
Nu@@ 49
Port 49
Raj@@ 49
Red 49
UR@@ 49
West@@ 49
aba 49
against 49
ato 49
aum 49
capital 49
equ@@ 49
estim@@ 49
even 49
ili 49
independent 49
isions 49
ith 49
last 49
law 49
micro@@ 49
ms 49
ont@@ 49
oper@@ 49
oto 49
pot@@ 49
school 49
sti@@ 49
total 49
ui 49
ury 49
î@@ 49
حيد 49
خطط 49
سجل 49
وفي@@ 49
ত@@ 49
ਸ 49
ା@@ 49
1794 48
Aur@@ 48
Bus@@ 48
DE 48
Dav@@ 48
Dou@@ 48
Group 48
IP@@ 48
Institute 48
Kho@@ 48
LA 48
Met@@ 48
Sus@@ 48
abl@@ 48
agr@@ 48
aliz@@ 48
body 48
ces 48
dy 48
eau 48
ello 48
erg@@ 48
esti@@ 48
etr@@ 48
eu 48
eux 48
han@@ 48
ichi 48
ide@@ 48
igu@@ 48
iri 48
ods 48
pedia 48
sal@@ 48
science 48
side 48
ster 48
tar 48
tom@@ 48
ty@@ 48
ua 48
½ 48
الة 48
الذي 48
الري@@ 48
الشرق@@ 48
رير 48
وله 48
ݙ@@ 48
ে@@ 48
ਪ@@ 48
﷤ 48
ﻪ 48
Center 47
HT@@ 47
Long@@ 47
Main 47
One 47
Pap@@ 47
Phys@@ 47
Royal 47
Sho@@ 47
Sin@@ 47
ame 47
ats 47
bin@@ 47
bir@@ 47
cad@@ 47
canton 47
chem@@ 47
ches 47
das 47
eter@@ 47
gu 47
gues 47
itage 47
ket 47
mi 47
own 47
pak@@ 47
press@@ 47
tol@@ 47
tum@@ 47
value 47
van@@ 47
vel@@ 47
¿ 47
én@@ 47
і@@ 47
النق@@ 47
انه 47
جري 47
ريات 47
مخص@@ 47
مطار 47
يق 47
ٶ@@ 47
′ 47
ﺹ 47
All 46
Asi@@ 46
Commun@@ 46
Dem@@ 46
Fe@@ 46
God 46
Nev@@ 46
Pat@@ 46
Press 46
Rab@@ 46
Sah@@ 46
Sec@@ 46
Tah@@ 46
Vel@@ 46
XVI 46
aci@@ 46
after 46
article 46
atia 46
century 46
down 46
eas@@ 46
ech@@ 46
eph@@ 46
illa 46
munici@@ 46
ols 46
ope 46
order 46
oug@@ 46
ple@@ 46
sey 46
uf 46
uss@@ 46
ó 46
Ż@@ 46
י 46
؂ 46
بالح@@ 46
فقد 46
ماك@@ 46
هب 46
ٲ@@ 46
ې@@ 46
ۚ 46
ਵ@@ 46
Africa 45
All@@ 45
Association 45
B. 45
B.@@ 45
Blan@@ 45
Bot@@ 45
Cant@@ 45
Categ@@ 45
Dan@@ 45
Dev@@ 45
Div@@ 45
E. 45
Gold 45
Jer@@ 45
On@@ 45
Pir@@ 45
Tam@@ 45
Tran@@ 45
ado 45
aft 45
anne 45
dem@@ 45
differ@@ 45
doc@@ 45
dol@@ 45
ear@@ 45
ects 45
eri@@ 45
eth 45
gold 45
har 45
her 45
history 45
lab@@ 45
ogne 45
op 45
phys@@ 45
ping 45
point 45
sin@@ 45
some 45
tab@@ 45
tal 45
wealth 45
à 45
âte@@ 45
ô@@ 45
û@@ 45
ē@@ 45
جه 45
شف 45
عيد 45
قًا 45
كثير 45
ﻪ@@ 45
Bridge 44
C.@@ 44
CE 44
Congo 44
Fort 44
Gaz@@ 44
II@@ 44
Kat@@ 44
Las@@ 44
M.@@ 44
Mach@@ 44
Men@@ 44
Mount 44
Nam@@ 44
SI 44
Sain@@ 44
You 44
aja 44
alia 44
anian 44
aria 44
art@@ 44
ave@@ 44
colspan 44
da@@ 44
ero 44
gen 44
ides 44
ior 44
mechan@@ 44
mes 44
mes@@ 44
military 44
orr@@ 44
pal@@ 44
sian 44
spec@@ 44
ten 44
wa@@ 44
year 44
yst@@ 44
ão 44
ō 44
ž@@ 44
р@@ 44
ׁ@@ 44
ק@@ 44
شهر 44
ੇ 44
ﮉ@@ 44
ﹰ 44
ﺰ 44
ﻇ@@ 44
ﻉ 44
� 44
Ann@@ 43
Germany 43
I.@@ 43
Iv@@ 43
Just 43
Man 43
Nav@@ 43
Num@@ 43
Of 43
Paris 43
Philos@@ 43
Pur@@ 43
Sat@@ 43
VIII 43
abr@@ 43
ami@@ 43
any@@ 43
aut 43
between 43
bre@@ 43
dom 43
ec 43
gro@@ 43
ico 43
iki 43
ize 43
ken@@ 43
let@@ 43
mac@@ 43
na@@ 43
ois 43
plas@@ 43
refer@@ 43
sup@@ 43
uni 43
vir@@ 43
web@@ 43
yth@@ 43
± 43
ôme 43
إذا 43
الحرب 43
الرق@@ 43
انستان 43
ثي 43
مما 43
ٸ 43
ह@@ 43
है 43
ੁ@@ 43
県 43
ﮓ 43
AP 42
Abu 42
Astr@@ 42
Avi@@ 42
BA 42
Bul@@ 42
C. 42
Christoph@@ 42
Cour@@ 42
Cruz 42
Cup 42
H. 42
Highway 42
Hur@@ 42
I. 42
Joseph 42
Ki@@ 42
Lé@@ 42
Middle 42
Obl@@ 42
Southern 42
Spr@@ 42
Standard 42
Victoria 42
Zi@@ 42
ado@@ 42
ados 42
age@@ 42
asa 42
development 42
ect@@ 42
educ@@ 42
ingham 42
istr@@ 42
lin 42
lon 42
ments 42
mul@@ 42
neigh@@ 42
news 42
ode 42
organization 42
plat@@ 42
produc@@ 42
see 42
small 42
special 42
ulation 42
ém@@ 42
ος 42
ר 42
السر@@ 42
المثال 42
طرق 42
عبر 42
وروب@@ 42
ਗ@@ 42
් 42
 42
Aj@@ 41
Blue 41
Cher@@ 41
Fron@@ 41
GC 41
Hum@@ 41
Land 41
No 41
PE@@ 41
Robert 41
S.@@ 41
SP@@ 41
SR 41
Super@@ 41
Ven@@ 41
back 41
bes 41
cal 41
che@@ 41
cont@@ 41
death 41
ders 41
dic@@ 41
direct 41
eme 41
ements 41
font 41
gener@@ 41
him 41
ju 41
lis 41
mur@@ 41
neg@@ 41
neur@@ 41
pul@@ 41
sh 41
stan 41
ston 41
tional 41
yd@@ 41
ysis 41
æ@@ 41
ț 41
ؐ@@ 41
إلا 41
الاخت@@ 41
الداخ@@ 41
الكبير 41
عسك@@ 41
قام 41
یووا 41
ਰ 41
ு@@ 41
ﻼ 41
CS@@ 40
FA 40
Hay@@ 40
High 40
J. 40
Jah@@ 40
MP@@ 40
Neg@@ 40
No. 40
Nur@@ 40
On 40
Ren@@ 40
Rock 40
Ré@@ 40
S. 40
Sk@@ 40
Syn@@ 40
VI@@ 40
aka 40
align 40
amu 40
aug@@ 40
bs 40
ce@@ 40
cha 40
con 40
cultural 40
dens@@ 40
ester 40
hin@@ 40
hood 40
ial 40
ime 40
ip@@ 40
ito 40
jus@@ 40
las@@ 40
ling 40
mel@@ 40
mit 40
mit@@ 40
mot@@ 40
nom@@ 40
osa 40
others 40
play 40
pur@@ 40
radi@@ 40
shi@@ 40
wo@@ 40
ş@@ 40
ؕ 40
اعي 40
تعرض 40
حاء 40
غري@@ 40
غير@@ 40
كز 40
نسي@@ 40
وقع 40
ம@@ 40
ர@@ 40
⇽ 40
ﭜ@@ 40
Arm@@ 39
Award 39
Bang@@ 39
Bis@@ 39
Dakota 39
Den@@ 39
Free 39
German 39
Hus@@ 39
Jan 39
Kab@@ 39
Kaz@@ 39
Lincoln 39
Nan@@ 39
Off@@ 39
Old 39
Organ@@ 39
Pres@@ 39
Priv@@ 39
Public 39
Rand@@ 39
Tan@@ 39
Tem@@ 39
Tir@@ 39
alp@@ 39
atory 39
bus@@ 39
cat@@ 39
center 39
chen@@ 39
cher 39
ease 39
ei 39
eli 39
entr@@ 39
fan 39
gency 39
illon 39
kno@@ 39
mail 39
mol@@ 39
mond 39
ner@@ 39
ny@@ 39
played 39
prof@@ 39
rights 39
sequ@@ 39
sho@@ 39
stat@@ 39
sub 39
there 39
tho@@ 39
tu 39
ule 39
urg 39
vers 39
when 39
ár@@ 39
Š@@ 39
э@@ 39
ג@@ 39
ז@@ 39
ל 39
الأر@@ 39
الجمع@@ 39
بعة 39
رجل 39
ضع 39
وتح@@ 39
وتش@@ 39
ودي@@ 39
يخ@@ 39
܂ 39
த@@ 39
Chem@@ 38
Education 38
FO@@ 38
Fair@@ 38
H.@@ 38
Jac@@ 38
Kel@@ 38
King@@ 38
Kos@@ 38
Laur@@ 38
Municipal 38
Nicolas 38
Plat@@ 38
Sid@@ 38
Social 38
UC@@ 38
Wh@@ 38
XV 38
Yam@@ 38
Yu@@ 38
Zh@@ 38
ads 38
asti@@ 38
ava 38
ax 38
ays 38
bit 38
code 38
college 38
control 38
force 38
gas 38
gin 38
itor 38
iz 38
key 38
mil@@ 38
mod@@ 38
nay 38
prob@@ 38
put 38
right 38
sam 38
sin 38
syn@@ 38
té 38
ute 38
vo 38
Ç@@ 38
är@@ 38
Ş@@ 38
ա@@ 38
سيس 38
كات 38
وفق 38
ياب@@ 38
ਂ 38
☆ 38
1797 37
Black 37
Book 37
CO 37
Canada 37
Commission 37
David 37
FC 37
Franklin 37
G. 37
Hom@@ 37
ISO 37
KK 37
Kav@@ 37
L. 37
Lak@@ 37
Law 37
MA 37
Pos@@ 37
Radi@@ 37
SC 37
Sci@@ 37
Sir@@ 37
Society 37
Sun@@ 37
TO@@ 37
Tai@@ 37
V. 37
Vas@@ 37
W. 37
arch 37
areas 37
arian 37
bri@@ 37
by@@ 37
can@@ 37
cine 37
ck 37
dan@@ 37
dh@@ 37
dier 37
dir 37
dou@@ 37
dra@@ 37
ef 37
entin 37
ett 37
gel@@ 37
ican 37
idi 37
ken 37
mar 37
min 37
nan 37
omb@@ 37
oth 37
partic@@ 37
ples 37
polis 37
prim@@ 37
sign@@ 37
stone 37
sz@@ 37
urs 37
uz 37
vili@@ 37
vor@@ 37
worth 37
zor@@ 37
âteau 37
ï@@ 37
ɛ@@ 37
الطب 37
بما 37
جماعة 37
حتى 37
درت 37
فورد 37
قلي@@ 37
وغير@@ 37
ੋ@@ 37
ா@@ 37
ﭺ 37
ﻻ 37
AG@@ 36
African 36
Alpes 36
Barr@@ 36
Bau@@ 36
Cari@@ 36
Cath@@ 36
Cent@@ 36
Charles 36
Cla@@ 36
Corporation 36
Din@@ 36
Dod@@ 36
Domin@@ 36
Hamp@@ 36
Han@@ 36
Hau@@ 36
Indonesia 36
Internet 36
Iran 36
Kin@@ 36
Lib@@ 36
Ly@@ 36
Nak@@ 36
Ot@@ 36
Pau@@ 36
Ran@@ 36
Ras@@ 36
SI@@ 36
SS@@ 36
Sand@@ 36
Science 36
Tib@@ 36
Tim@@ 36
Virginia 36
Wayne 36
aceae 36
aches 36
alb@@ 36
alls 36
aun@@ 36
aves 36
bac@@ 36
bei 36
cir@@ 36
eck@@ 36
effect 36
engine 36
ennes 36
house 36
if 36
kam@@ 36
ledge 36
lem 36
len@@ 36
may 36
meth@@ 36
och 36
oid 36
oli@@ 36
ombe 36
ones 36
oo 36
ough@@ 36
oul 36
outh 36
ouv@@ 36
pas 36
plic@@ 36
sea 36
sil@@ 36
test 36
tre 36
vet@@ 36
yan@@ 36
án@@ 36
ór@@ 36
أم 36
المجمو@@ 36
فيل 36
ڄ@@ 36
ۤ 36
र 36
শ@@ 36
ﻢ@@ 36
And 35
Army 35
Battle 35
Bres@@ 35
CN@@ 35
Cham@@ 35
Clin@@ 35
Earth 35
Eng@@ 35
Flor@@ 35
Green@@ 35
Haz@@ 35
Luc@@ 35
Medi@@ 35
P. 35
Peter 35
Regi@@ 35
Richard 35
Rud@@ 35
Station 35
Ty@@ 35
USA 35
Uz@@ 35
ande 35
audi@@ 35
avi@@ 35
canc@@ 35
contr@@ 35
cyc@@ 35
din@@ 35
dium 35
edom 35
eff@@ 35
eine 35
enberg 35
ety 35
fol@@ 35
fourth 35
hav@@ 35
inh 35
ived 35
liter@@ 35
los@@ 35
mal 35
nik 35
not@@ 35
page 35
path@@ 35
philosoph@@ 35
political 35
popul@@ 35
press 35
rel 35
sar 35
self 35
standard 35
these 35
three 35
ton@@ 35
vention 35
ward 35
ène 35
ë 35
الدم 35
العمال 35
العمر 35
الفل@@ 35
القلب 35
محفو@@ 35
وهو 35
ښ@@ 35
ڪ 35
ल@@ 35
स 35
হ@@ 35
ମ@@ 35
ର@@ 35
ང 35
ﻕ 35
ﻦ@@ 35
CP@@ 34
Cop@@ 34
Dy@@ 34
Global 34
Haw@@ 34
He 34
IB@@ 34
Kn@@ 34
LG@@ 34
Liber@@ 34
Madag@@ 34
Maine 34
ON@@ 34
Pad@@ 34
Ple@@ 34
Pul@@ 34
Red@@ 34
Sag@@ 34
Sic@@ 34
They 34
Thomas 34
Tour@@ 34
UK 34
WW@@ 34
Win@@ 34
XIII 34
ades 34
amba 34
ams 34
ancy 34
around 34
asse 34
aud@@ 34
based 34
come 34
cript 34
dal@@ 34
det@@ 34
ective 34
ector 34
ells 34
ema 34
emia 34
fil@@ 34
fru@@ 34
gar 34
gi 34
head 34
indi@@ 34
ion@@ 34
jer@@ 34
ks@@ 34
long 34
mine 34
omo 34
original 34
rati@@ 34
rea 34
scope 34
sen 34
ser 34
ship 34
spir@@ 34
star 34
tropolit@@ 34
used 34
val 34
yi 34
yo 34
zan 34
ê@@ 34
ö 34
ú@@ 34
ī 34
м@@ 34
н 34
آيت 34
امة 34
بها 34
حصل 34
طات 34
للو@@ 34
ٓ 34
ړ@@ 34
ݨ@@ 34
न 34
জ@@ 34
ਬ@@ 34
ப@@ 34
2nd 33
Afghanistan 33
Agr@@ 33
Ahmed 33
Alb@@ 33
Community 33
Constitu@@ 33
Dal@@ 33
Ecuador 33
Eth@@ 33
Fa@@ 33
Fon@@ 33
Grande 33
Had@@ 33
Hak@@ 33
IT 33
Id@@ 33
Ja@@ 33
Kad@@ 33
Kit@@ 33
Kom@@ 33
MS@@ 33
Mary 33
Mill@@ 33
Museum 33
N. 33
PP@@ 33
Poli@@ 33
Publ@@ 33
Rock@@ 33
Seg@@ 33
Sm@@ 33
Sou@@ 33
TA 33
Tot@@ 33
Trin@@ 33
Tul@@ 33
Val 33
Vall@@ 33
alg@@ 33
blin 33
cus 33
direc@@ 33
economic 33
edonia 33
fran@@ 33
fu@@ 33
get 33
hom@@ 33
ii 33
ld@@ 33
like 33
mani 33
mental 33
mill@@ 33
nh@@ 33
now@@ 33
obi@@ 33
pil@@ 33
rel@@ 33
sburg 33
sexual 33
sou@@ 33
ste@@ 33
story 33
tag@@ 33
ther 33
tt@@ 33
uli 33
under@@ 33
unit 33
ution 33
var@@ 33
vari@@ 33
wal@@ 33
win 33
wns 33
women 33
yl 33
ín 33
ü@@ 33
ă@@ 33
х@@ 33
التق@@ 33
الفي@@ 33
النو@@ 33
سمبر 33
لقد 33
ڳ@@ 33
म@@ 33
ारा 33
প@@ 33
ੂ@@ 33
ﺚ 33
AR 32
Australia 32
Bes@@ 32
Bour@@ 32
Che@@ 32
Crim@@ 32
Cu@@ 32
DO@@ 32
Edward 32
Eff@@ 32
Ev@@ 32
Fam@@ 32
GB 32
Hamilton 32
Industri@@ 32
Library 32
Lor@@ 32
Math@@ 32
Pin@@ 32
Point 32
SE 32
See 32
Slo@@ 32
Sok@@ 32
Sour@@ 32
Sri 32
Tel@@ 32
To 32
act@@ 32
aqu@@ 32
azar 32
char@@ 32
common 32
cos@@ 32
eb 32
egr@@ 32
ela 32
eland 32
eld 32
int 32
isti@@ 32
jan@@ 32
jo@@ 32
kin 32
lag 32
low@@ 32
new@@ 32
num@@ 32
off@@ 32
osph@@ 32
pan@@ 32
part 32
post 32
pres@@ 32
regional 32
resp@@ 32
stor@@ 32
thi@@ 32
trib@@ 32
vil@@ 32
wala 32
west 32
ø@@ 32
публика 32
أر@@ 32
التي 32
العام 32
طي 32
كالي@@ 32
كبير 32
ليف 32
ۀ 32
গ@@ 32
ੱ@@ 32
☃ 32
ﮅ@@ 32
🐢 32
----@@ 31
AE@@ 31
AL 31
Boh@@ 31
Boul@@ 31
Bru@@ 31
Christ@@ 31
Europe 31
Gan@@ 31
Hen@@ 31
K. 31
Ka@@ 31
Kir@@ 31
May 31
Milit@@ 31
Name 31
Not@@ 31
PC 31
RA 31
RS 31
Rou@@ 31
Shak@@ 31
That 31
Wat@@ 31
aco 31
active 31
andi@@ 31
avi 31
ayi 31
bian 31
bin 31
comm@@ 31
eds 31
emat@@ 31
esi 31
ev 31
fal@@ 31
fe 31
genes 31
grav@@ 31
idi@@ 31
ike 31
imb@@ 31
ingu@@ 31
international 31
ited 31
kel@@ 31
mand@@ 31
modern 31
operation 31
parti@@ 31
period 31
po 31
position 31
ram@@ 31
social 31
struc@@ 31
support 31
tain 31
tain@@ 31
theor@@ 31
third 31
tica 31
uj@@ 31
ules 31
ult@@ 31
ust@@ 31
western 31
ève 31
А@@ 31
ский 31
أي 31
أي@@ 31
ادة 31
حكم 31
صلاح@@ 31
للا@@ 31
ٻ@@ 31
ফ@@ 31
ਜ@@ 31
ੇ@@ 31
ರ@@ 31
ﻆ 31
AF@@ 30
Academy 30
Aff@@ 30
Alli@@ 30
Austria 30
Comm@@ 30
Cra@@ 30
Day@@ 30
Dol@@ 30
Dé@@ 30
Four 30
Francisco 30
Gard@@ 30
Golden 30
Int@@ 30
Ky@@ 30
Lau@@ 30
Les@@ 30
Ob@@ 30
Olympi@@ 30
Pacific 30
Paraguay 30
Prof@@ 30
Progr@@ 30
Rio 30
Service 30
Stu@@ 30
Syria 30
TS 30
Tag@@ 30
Tat@@ 30
Ther@@ 30
Tit@@ 30
Tour 30
Up@@ 30
Wood@@ 30
agua 30
aise 30
ald 30
aph@@ 30
arc@@ 30
band 30
being 30
cel 30
charge 30
chia 30
defin@@ 30
die 30
dri@@ 30
dé@@ 30
een 30
ej@@ 30
enty 30
ep 30
eral 30
erre 30
esa 30
ett@@ 30
fiel@@ 30
former 30
heim 30
hen@@ 30
home 30
hur@@ 30
ider@@ 30
ized 30
kan@@ 30
kl@@ 30
km 30
kö@@ 30
list@@ 30
may@@ 30
oke 30
olia 30
ph 30
ports 30
published 30
ses 30
sim@@ 30
such 30
sum@@ 30
tak@@ 30
tile 30
transl@@ 30
using 30
wr@@ 30
а@@ 30
и 30
о 30
العرا@@ 30
الكتاب 30
اللا@@ 30
المي@@ 30
بلدية 30
جزء@@ 30
ذك@@ 30
سياسي 30
فير 30
فيه 30
مجمو@@ 30
مشروع 30
يض@@ 30
ۤ@@ 30
ज 30
ம 30
് 30
ﮠ 30
ﮧ@@ 30
ﺢ 30
BS 29
Band 29
Boy@@ 29
Bran@@ 29
By@@ 29
Cab@@ 29
Club 29
DS 29
EM@@ 29
EN@@ 29
Eu@@ 29
Ey@@ 29
Fac@@ 29
Gel@@ 29
Herz@@ 29
Hydro@@ 29
January 29
Kul@@ 29
Landes 29
Lon@@ 29
Lord 29
Los 29
March 29
Mehr@@ 29
Mich@@ 29
Mis@@ 29
NH@@ 29
Nep@@ 29
Orig@@ 29
Pa@@ 29
Pay@@ 29
Prince 29
Puerto 29
RT 29
Rot@@ 29
Ry@@ 29
Second 29
Son@@ 29
South@@ 29
Technology 29
There 29
XX@@ 29
acks 29
ader 29
aks 29
anci@@ 29
anda 29
arren 29
arti@@ 29
asi 29
asp@@ 29
aud 29
ayan 29
bach 29
bank 29
chan@@ 29
conn@@ 29
cou@@ 29
curr@@ 29
dat@@ 29
dig@@ 29
eer 29
els@@ 29
family 29
ger 29
hydro@@ 29
jo 29
kar 29
ker@@ 29
lard 29
lock 29
mach@@ 29
nation 29
off 29
ogen@@ 29
opo@@ 29
ovi@@ 29
part@@ 29
qu 29
ras@@ 29
rem@@ 29
stadt 29
sul@@ 29
tern 29
tre@@ 29
tus 29
ues 29
ulu 29
vec@@ 29
won 29
ía 29
к 29
ס@@ 29
الأس@@ 29
شمول@@ 29
ظه@@ 29
فه 29
وإ@@ 29
ە@@ 29
म 29
ன 29
ར@@ 29
： 29
AB 28
Acc@@ 28
Ach@@ 28
Argentina 28
August 28
Band@@ 28
Bin@@ 28
Black@@ 28
Brun@@ 28
Columbia 28
Cot@@ 28
Davis 28
Express 28
Field 28
Forest 28
Gem@@ 28
HP 28
Hav@@ 28
High@@ 28
Ira@@ 28
Kno@@ 28
Lee 28
Lev@@ 28
MC 28
Maria 28
Mit@@ 28
Oregon 28
Palest@@ 28
President 28
Sac@@ 28
Sep@@ 28
Shel@@ 28
Space 28
Spir@@ 28
Um@@ 28
Venezuela 28
Vic@@ 28
Wah@@ 28
Wiki@@ 28
Yan@@ 28
Yar@@ 28
aca 28
acu@@ 28
aille 28
amer@@ 28
angi 28
anti 28
ator@@ 28
before 28
brahim 28
bu 28
cep@@ 28
cli@@ 28
color 28
crip@@ 28
econom@@ 28
eira 28
ele 28
eti 28
eto 28
free 28
fus@@ 28
hua 28
ict 28
ific@@ 28
illo 28
ils 28
inger 28
iran 28
isa 28
itation 28
ius 28
just 28
lers 28
lev@@ 28
lic@@ 28
many 28
mark 28
movement 28
nav@@ 28
odi@@ 28
oks 28
ovo 28
pas@@ 28
positive 28
process 28
rat 28
ron 28
san@@ 28
tia 28
tro 28
tural 28
uli@@ 28
umb@@ 28
ump@@ 28
vent@@ 28
works 28
yal@@ 28
² 28
â 28
éli@@ 28
ñ@@ 28
צ@@ 28
ابة 28
اعات 28
الدي@@ 28
السو@@ 28
العراق 28
تتبع 28
تحقيق 28
دوري 28
رأس 28
قى 28
وجه 28
څ@@ 28
۽ 28
۾ 28
ਨ 28
ਲ 28
క@@ 28
ོ@@ 28
ﭤ@@ 28
ﮂ@@ 28
Amer@@ 27
Big 27
Clark 27
Coun@@ 27
Cri@@ 27
Def@@ 27
Dr. 27
Fres@@ 27
Hem@@ 27
Ken@@ 27
Kil@@ 27
Kot@@ 27
Modern 27
Mountain 27
Nob@@ 27
PR@@ 27
Phil@@ 27
Pier@@ 27
Railway 27
Rap@@ 27
Salvador 27
Sig@@ 27
Smith 27
Studi@@ 27
São 27
Thi@@ 27
Three 27
Tow@@ 27
Wa@@ 27
XII 27
abor@@ 27
ahl@@ 27
alis@@ 27
anth@@ 27
ards 27
ares 27
auth@@ 27
bom@@ 27
bul@@ 27
census 27
cil 27
cy 27
dru@@ 27
eni 27
ering 27
fied 27
gas@@ 27
gian 27
haz@@ 27
hep@@ 27
ications 27
iliz@@ 27
ills 27
ix@@ 27
lot 27
make 27
minute 27
mo 27
natural 27
ned 27
network 27
oll 27
oro 27
ova 27
pin@@ 27
port@@ 27
production 27
proj@@ 27
prop@@ 27
ques 27
rac@@ 27
say 27
sciences 27
sig@@ 27
since 27
tax@@ 27
urn@@ 27
where 27
win@@ 27
yer 27
zed 27
êt 27
ğ@@ 27
ы@@ 27
جامعة 27
ذلك 27
كتي@@ 27
متاز 27
هذه 27
يست@@ 27
يكن 27
ۙ 27
त 27
দ@@ 27
ল 27
ী 27
ਜ 27
੍ 27
ა@@ 27
Atlan@@ 26
BO@@ 26
Bec@@ 26
Brown 26
Business 26
By 26
Bé@@ 26
Chel@@ 26
Chev@@ 26
Comp@@ 26
Democratic 26
F. 26
Fol@@ 26
Fran@@ 26
Hun@@ 26
Iz@@ 26
Kak@@ 26
Kum@@ 26
Lawrence 26
Lyon 26
Micro@@ 26
Mun@@ 26
Nat@@ 26
Natur@@ 26
News 26
Ny@@ 26
Out@@ 26
Pel@@ 26
Post 26
Rob@@ 26
Russian 26
Sow@@ 26
Spanish 26
Sud@@ 26
Sup@@ 26
T.@@ 26
Tanzania 26
Tas@@ 26
Web@@ 26
Ye@@ 26
ace@@ 26
ador 26
agent 26
aling 26
ben@@ 26
bo 26
bra@@ 26
cant@@ 26
dari 26
dian 26
don@@ 26
double 26
exp@@ 26
fa 26
fab@@ 26
gan@@ 26
hap@@ 26
hum@@ 26
ices 26
illing 26
ina@@ 26
isia 26
ister@@ 26
jur@@ 26
khi 26
lion 26
los 26
member 26
mov@@ 26
my@@ 26
nov@@ 26
oi 26
olan 26
ony@@ 26
oun 26
ply 26
pression 26
prov@@ 26
ref@@ 26
sac@@ 26
saw 26
squ@@ 26
sym@@ 26
ube 26
unds 26
union 26
uth 26
yon@@ 26
yu@@ 26
Ö@@ 26
ás@@ 26
أد@@ 26
اكم 26
الإسلام 26
البار@@ 26
العش@@ 26
القانون 26
القط@@ 26
المب@@ 26
الوز@@ 26
بريل 26
ظهر 26
فإن 26
قين 26
كامل 26
ڌ@@ 26
क@@ 26
न@@ 26
ನ@@ 26
‬ 26
√ 26
 26
ﮒ 26
ABC 25
Ast@@ 25
BM@@ 25
Bet@@ 25
Bod@@ 25
Chin@@ 25
Corn@@ 25
Douglas 25
Ep@@ 25
Gau@@ 25
Haf@@ 25
IF@@ 25
Israel 25
Leb@@ 25
Lig@@ 25
Line 25
Luis 25
Marse@@ 25
Mom@@ 25
Nah@@ 25
Ok@@ 25
Palm@@ 25
Produc@@ 25
RT@@ 25
SD 25
SM 25
Sports 25
T. 25
Tab@@ 25
We 25
XVIII 25
Ze@@ 25
aji 25
angle 25
base 25
bile 25
board 25
both 25
building 25
business 25
chron@@ 25
dies 25
edi 25
elli 25
enni@@ 25
eta 25
evi@@ 25
feder@@ 25
gor@@ 25
hel@@ 25
him@@ 25
ident 25
ista 25
iti 25
itz 25
later 25
lieu 25
lob@@ 25
lor@@ 25
lower 25
mak@@ 25
mission 25
mittee 25
municip@@ 25
ogr@@ 25
onic 25
ords 25
otte 25
oy 25
pat@@ 25
plan@@ 25
plex 25
ret@@ 25
rey 25
sia 25
sing 25
sm@@ 25
status 25
sun 25
sus 25
tres 25
urg@@ 25
urity 25
urt 25
uses 25
ved 25
vehic@@ 25
villages 25
wing 25
word 25
yo@@ 25
zer@@ 25
Á@@ 25
å 25
és 25
ð@@ 25
ú 25
ı 25
ź@@ 25
ɔ@@ 25
א 25
الاتحاد 25
التج@@ 25
الثالث 25
بلح@@ 25
تبة 25
تعمل 25
دية 25
له@@ 25
ها@@ 25
य@@ 25
१ 25
ঙ 25
় 25
ా@@ 25
ಿ@@ 25
€ 25
↑ 25
﷫ 25
ﺵ 25
.S. 24
Anton@@ 24
Aqu@@ 24
Argent@@ 24
Art 24
Bac@@ 24
Ben 24
Bish@@ 24
Clar@@ 24
Committee 24
Dad@@ 24
Dun@@ 24
E.@@ 24
EU 24
FIFA 24
Fe 24
Grant 24
Gun@@ 24
Harr@@ 24
Hind@@ 24
Kay@@ 24
Lie@@ 24
Medical 24
Moun@@ 24
Moz@@ 24
Nad@@ 24
Pic@@ 24
Queen 24
Revolution 24
Sev@@ 24
Square 24
Sun 24
Two 24
VA 24
Van 24
access 24
actions 24
ading 24
aly@@ 24
apa 24
ation@@ 24
atus 24
bek@@ 24
books 24
bor 24
consci@@ 24
construction 24
cular 24
def@@ 24
dered 24
design@@ 24
distr@@ 24
domin@@ 24
drome 24
eck 24
enburg 24
enci@@ 24
err@@ 24
erry 24
eus 24
extr@@ 24
frequ@@ 24
fri@@ 24
general 24
gom@@ 24
ien 24
ilian 24
ily 24
included 24
intern@@ 24
ka@@ 24
kal@@ 24
lang 24
led 24
less 24
lied 24
liz@@ 24
mah@@ 24
major 24
met 24
ogen 24
ord 24
orig@@ 24
pay@@ 24
proc@@ 24
rd 24
recogni@@ 24
regi@@ 24
regul@@ 24
serv@@ 24
several 24
shu@@ 24
sions 24
sor@@ 24
spe@@ 24
sula 24
usa 24
various 24
versi@@ 24
vor 24
wi 24
zam@@ 24
à@@ 24
ô 24
š 24
ς 24
й 24
الحض@@ 24
الزي@@ 24
الطب@@ 24
العربي 24
القي@@ 24
تخب 24
جيل 24
كما 24
ليب 24
مج 24
ٕ 24
क 24
टो 24
द@@ 24
दूर 24
य 24
ੀ@@ 24
♦ 24
Abr@@ 23
Alexander 23
Amaz@@ 23
Bad 23
Bell 23
Castil@@ 23
Cha@@ 23
Da@@ 23
Dre@@ 23
Federation 23
Force 23
Fri@@ 23
Gabriel 23
Gom@@ 23
Guatemala 23
Hard@@ 23
Independ@@ 23
Leon@@ 23
Li 23
Little 23
Love 23
Mass@@ 23
Port@@ 23
Prim@@ 23
Rez@@ 23
Sever@@ 23
Sto@@ 23
Sur 23
Sym@@ 23
Texas 23
Vit@@ 23
Was@@ 23
Water@@ 23
Wel@@ 23
Yun@@ 23
aban 23
aining 23
alar 23
alar@@ 23
alized 23
alli@@ 23
alu@@ 23
ament 23
ander 23
anus 23
ark 23
asc@@ 23
assi@@ 23
astronom@@ 23
ate@@ 23
ators 23
azar@@ 23
chu@@ 23
cial 23
complex 23
eman 23
etes 23
far@@ 23
fos@@ 23
gn@@ 23
hist@@ 23
identi@@ 23
imal 23
imm@@ 23
including 23
ird 23
itu@@ 23
kil@@ 23
king@@ 23
kir@@ 23
kon@@ 23
lie 23
lit@@ 23
made 23
media 23
mid@@ 23
municipal 23
museum 23
nd@@ 23
normal 23
oe 23
oire 23
oka 23
ordin@@ 23
oti@@ 23
over@@ 23
plant@@ 23
quar@@ 23
records 23
rière 23
sab@@ 23
series 23
stan@@ 23
tas@@ 23
then 23
times 23
trol@@ 23
usi@@ 23
video 23
while 23
wich 23
zone 23
Ü@@ 23
ör@@ 23
ș@@ 23
т@@ 23
ֲ@@ 23
اجتم@@ 23
الأخ@@ 23
الشعب@@ 23
القرن 23
المعر@@ 23
المك@@ 23
الولا@@ 23
خدم 23
شارك 23
فاع 23
فيا 23
لاع 23
وكان 23
ّة 23
ٽ 23
য 23
வ@@ 23
 23
ﻛ@@ 23
.C. 22
20th 22
Alber@@ 22
Ale@@ 22
Alt@@ 22
Amp@@ 22
Anne 22
Antar@@ 22
Arthur 22
Ax@@ 22
Bern@@ 22
Bretagne 22
Bulgar@@ 22
CS 22
Chu@@ 22
Cle@@ 22
Code 22
Dig@@ 22
FF 22
Fel@@ 22
Fil@@ 22
Flu@@ 22
Gold@@ 22
Gö@@ 22
Hall 22
Hi@@ 22
Home 22
Ing@@ 22
Jacques 22
June 22
L.@@ 22
League 22
Liter@@ 22
Lot@@ 22
Ltd 22
Lud@@ 22
Mal 22
Management 22
Mar 22
Mic@@ 22
NS 22
Nicol@@ 22
Om@@ 22
Peti@@ 22
Roy@@ 22
SN@@ 22
Satur@@ 22
Sciences 22
Secre@@ 22
Sher@@ 22
Star@@ 22
Story 22
Sé@@ 22
Van@@ 22
Yen@@ 22
Zealand 22
` 22
acter@@ 22
activ@@ 22
aer@@ 22
afa 22
aill@@ 22
articles 22
asis 22
aster 22
aught 22
aus 22
ayo 22
bus 22
central 22
ces@@ 22
chester 22
com 22
dale 22
depend@@ 22
different 22
dit 22
dition 22
dos 22
dre@@ 22
edo 22
embran@@ 22
este 22
hiv@@ 22
ika 22
inst@@ 22
kg 22
ku 22
lay@@ 22
lia 22
liber@@ 22
lit 22
live 22
located 22
mann 22
mb@@ 22
med 22
mem@@ 22
nar@@ 22
nu@@ 22
onal@@ 22
oon 22
pain@@ 22
park 22
person 22
ple 22
popular 22
pri@@ 22
publi@@ 22
roc@@ 22
rup@@ 22
sam@@ 22
sav@@ 22
sey@@ 22
sing@@ 22
sit@@ 22
sites 22
software 22
stead 22
stop 22
tains 22
tam@@ 22
tern@@ 22
thr@@ 22
through 22
tigen 22
tory 22
uma 22
ump 22
uta 22
vis 22
what 22
yar 22
zo@@ 22
Î@@ 22
ément 22
öl@@ 22
ź 22
ʃ@@ 22
г@@ 22
ный 22
أع@@ 22
إ 22
الحدود 22
الحكم 22
الشه@@ 22
المسلمين 22
سمي 22
قوان@@ 22
لاست@@ 22
لها 22
ونکہ 22
يط 22
ڤ@@ 22
ڻ 22
का 22
ਆ@@ 22
ਭ@@ 22
ತ@@ 22
ි@@ 22
ე@@ 22
山@@ 22
ﭻ 22
ﮄ@@ 22
Adam 21
Banglad@@ 21
Beach 21
Bell@@ 21
Bill 21
Brazil 21
Buff@@ 21
Cast@@ 21
Court 21
Cross 21
DR 21
Distr@@ 21
EP 21
Ele@@ 21
Foundation 21
Fut@@ 21
Google 21
Got@@ 21
Health 21
Hip@@ 21
Hul@@ 21
IG@@ 21
Ig@@ 21
Italy 21
Jun@@ 21
Justice 21
Kaf@@ 21
Kis@@ 21
Kut@@ 21
Kö@@ 21
Latin 21
Lis@@ 21
Ma 21
Mars 21
Meth@@ 21
Michael 21
Morgan 21
Oper@@ 21
Order 21
Organisation 21
P.@@ 21
Philippines 21
Pil@@ 21
Post@@ 21
Princ@@ 21
Psych@@ 21
Rav@@ 21
Rid@@ 21
Sach@@ 21
Say@@ 21
Siy@@ 21
Temple 21
UNESCO 21
Vari@@ 21
Vin@@ 21
Whit@@ 21
Wind@@ 21
XIV 21
Zam@@ 21
administration 21
agan 21
ago@@ 21
alla 21
alle 21
anced 21
ango 21
author 21
bet@@ 21
born 21
bos@@ 21
carr@@ 21
ck@@ 21
coloni@@ 21
ein@@ 21
elected 21
elling 21
ement@@ 21
emi 21
ento 21
film 21
game 21
great 21
had@@ 21
hand 21
hang 21
hay@@ 21
histor@@ 21
icia 21
icul@@ 21
igh 21
inv@@ 21
ité 21
kad@@ 21
law@@ 21
lip 21
mara 21
mission@@ 21
otr@@ 21
ought 21
ourg 21
pha 21
plo@@ 21
progr@@ 21
protein 21
pun@@ 21
record 21
record@@ 21
research 21
result 21
rif@@ 21
start 21
termin@@ 21
tha 21
trac@@ 21
trav@@ 21
udi@@ 21
ulan 21
usha 21
veloc@@ 21
version 21
vin@@ 21
ét@@ 21
ì 21
ım 21
Ō@@ 21
ʁ@@ 21
α 21
π 21
д@@ 21
к@@ 21
ка 21
с@@ 21
اته 21
افة 21
الأن@@ 21
الإسلا@@ 21
المسي@@ 21
المض@@ 21
برنامج 21
بسبب 21
ثي@@ 21
داث 21
رئيس 21
رياض@@ 21
لدي@@ 21
ودي 21
ګ@@ 21
ে 21
ਅ@@ 21
ਤ 21
ସ@@ 21
ା 21
ୁ@@ 21
ನ 21
ი 21
რ@@ 21
大@@ 21
ﺾ 21
Alaska 20
Anth@@ 20
Arg@@ 20
Bit@@ 20
Braz@@ 20
Bug@@ 20
Castle 20
Channel 20
Christian 20
Co 20
Contin@@ 20
Country 20
D.@@ 20
Death 20
Dic@@ 20
Digital 20
Distribu@@ 20
Dj@@ 20
Ec@@ 20
Elizabeth 20
Emp@@ 20
Emper@@ 20
Fak@@ 20
Film 20
Four@@ 20
Gab@@ 20
Gra@@ 20
Ha 20
Inv@@ 20
Kap@@ 20
LP 20
Luxemb@@ 20
Marshall 20
Me 20
Model 20
Most 20
Mut@@ 20
NAT@@ 20
Nap@@ 20
Open 20
Ox@@ 20
Pav@@ 20
Research 20
Sant@@ 20
Services 20
Slov@@ 20
Spe@@ 20
Stor@@ 20
Taylor 20
Tex@@ 20
These 20
Thr@@ 20
Vietnam 20
XX 20
Year 20
ables 20
adv@@ 20
alam@@ 20
alif@@ 20
alt@@ 20
ambi@@ 20
apar@@ 20
asia 20
atra 20
aut@@ 20
bra 20
cer 20
cle@@ 20
conduc@@ 20
contin@@ 20
cot@@ 20
culture 20
ded 20
design 20
does 20
ectiv@@ 20
emen 20
erie 20
ers@@ 20
esser 20
ester@@ 20
eum 20
far 20
fer 20
flo@@ 20
hat 20
hausen 20
imi 20
irs 20
kers 20
largest 20
ley@@ 20
ligh@@ 20
ment@@ 20
nam 20
names 20
nel 20
olar 20
ons@@ 20
ose 20
phone 20
pi 20
poli@@ 20
process@@ 20
psych@@ 20
rap@@ 20
rez 20
rich@@ 20
scre@@ 20
secre@@ 20
sem@@ 20
serving 20
source 20
speci@@ 20
star@@ 20
super@@ 20
test@@ 20
theast 20
tice 20
tom 20
took 20
traf@@ 20
tures 20
ui@@ 20
ume 20
usion 20
voc@@ 20
wel@@ 20
writ@@ 20
wth 20
xin 20
ya@@ 20
yar@@ 20
yes 20
zar@@ 20
zer 20
zu@@ 20
çon 20
éc@@ 20
ê 20
õ@@ 20
ǎ@@ 20
ɪ@@ 20
р 20
؀ 20
العث@@ 20
العربية 20
العص@@ 20
اللو@@ 20
تقل 20
تلك 20
فيها 20
قرر 20
لعب 20
هند@@ 20
هيم 20
وبة 20
وبد@@ 20
چنان@@ 20
प 20
र@@ 20
श 20
দ 20
ੈ@@ 20
ି@@ 20
ག 20
◾ 20
 20
ﻡ@@ 20
Aires 19
Alger@@ 19
Angola 19
Antoine 19
BBC 19
Biz@@ 19
Cad@@ 19
Charlotte 19
Chor@@ 19
Cuba 19
Dar 19
Deb@@ 19
Era 19
Fat@@ 19
February 19
Form@@ 19
From 19
Front 19
Gener@@ 19
Gib@@ 19
Guar@@ 19
Heil@@ 19
Kun@@ 19
Lyn@@ 19
Mang@@ 19
Mov@@ 19
Music 19
Network 19
Neur@@ 19
Paulo 19
Real 19
Some 19
Star 19
Terr@@ 19
Web 19
Wes@@ 19
Windows 19
adan 19
agen 19
aha 19
aking 19
alis 19
alle@@ 19
aman@@ 19
ames 19
anger 19
ardo 19
arri@@ 19
ativ@@ 19
augh@@ 19
autonom@@ 19
avia 19
awi 19
aí@@ 19
became 19
because 19
bed 19
bit@@ 19
black 19
box 19
called 19
chil@@ 19
cho@@ 19
ci 19
cit@@ 19
cla@@ 19
const@@ 19
cription 19
cut@@ 19
democ@@ 19
docum@@ 19
dur@@ 19
eas 19
eastern 19
ehr 19
embr@@ 19
entum 19
eva 19
ference 19
fier 19
form@@ 19
gal@@ 19
ges@@ 19
gir@@ 19
given 19
good 19
gs 19
hospit@@ 19
hut@@ 19
idae 19
idge 19
industry 19
ink 19
isi 19
jar@@ 19
kara 19
med@@ 19
near 19
nec@@ 19
og 19
oj@@ 19
omon 19
open 19
ores 19
oria 19
other@@ 19
oty@@ 19
oud 19
owa 19
pic@@ 19
power@@ 19
princip@@ 19
rain 19
rant 19
ry@@ 19
say@@ 19
scienti@@ 19
sed 19
sept@@ 19
tif@@ 19
toral 19
umin@@ 19
uru 19
virus 19
wall 19
white 19
yu 19
zo 19
§ 19
ège 19
én 19
ña 19
ön@@ 19
ć@@ 19
Č@@ 19
ƒ 19
Φ 19
Соци@@ 19
ба@@ 19
у@@ 19
ы 19
أش@@ 19
اللي@@ 19
باسم 19
بنى 19
ثلاث 19
قيم 19
كال 19
كانت 19
لكل 19
والص@@ 19
ग 19
व@@ 19
वा@@ 19
स@@ 19
ি 19
ਟ 19
ச@@ 19
ட@@ 19
ి@@ 19
ཁ@@ 19
⁄ 19
ﮌ 19
ﮟ@@ 19
ﺕ@@ 19
Arth@@ 18
Autom@@ 18
Be 18
Buenos 18
CN 18
Dah@@ 18
Die 18
Ein@@ 18
Fur@@ 18
Greek 18
Hawai@@ 18
Hir@@ 18
Hit@@ 18
Howard 18
Isa@@ 18
Jak@@ 18
Janeiro 18
Java 18
Jr 18
Jud@@ 18
Jus@@ 18
Kong 18
Lad@@ 18
Limited 18
Meg@@ 18
Mik@@ 18
Minister 18
Nom@@ 18
Not 18
Office 18
Other 18
Pet@@ 18
Rak@@ 18
Ray 18
Reb@@ 18
Reser@@ 18
Roman 18
Summer 18
Tang@@ 18
Ten@@ 18
Ukr@@ 18
Universal 18
Vid@@ 18
Vincent 18
Way 18
Yer@@ 18
ache 18
ague 18
aissance 18
amii 18
ampton 18
anal@@ 18
ances 18
ando 18
anna 18
ante 18
arts 18
ashi 18
ason 18
ats@@ 18
ayn@@ 18
bai 18
bourg 18
bron@@ 18
ca@@ 18
calcul@@ 18
cam@@ 18
capit@@ 18
case 18
charg@@ 18
chen 18
circu@@ 18
commun@@ 18
cycle 18
digital 18
dor@@ 18
down@@ 18
dul@@ 18
ehr@@ 18
eller 18
elo 18
eno 18
environ@@ 18
erk@@ 18
esse 18
every 18
evo 18
example 18
facil@@ 18
fu 18
full 18
get@@ 18
gradu@@ 18
guer@@ 18
high 18
iger 18
igi@@ 18
independ@@ 18
island 18
ives 18
lake 18
lip@@ 18
loyd 18
lui 18
lum 18
lé@@ 18
multiple 18
neutr@@ 18
nic@@ 18
offici@@ 18
olm 18
oman 18
par 18
pole 18
pose 18
proper@@ 18
ps@@ 18
que@@ 18
reser@@ 18
rest 18
ross 18
sel 18
sha 18
som@@ 18
systems 18
thing 18
tie 18
top@@ 18
tos 18
tran@@ 18
tru@@ 18
until 18
usalem 18
ven 18
verg@@ 18
vie@@ 18
von 18
wil@@ 18
yle 18
zon 18
év@@ 18
ý@@ 18
ın 18
ν@@ 18
ον 18
М@@ 18
У@@ 18
в@@ 18
на 18
أل@@ 18
أولاد 18
الإسلامية 18
البحث 18
بأ@@ 18
تدري@@ 18
توي 18
ثة 18
نوان 18
والش@@ 18
والك@@ 18
ڻ@@ 18
की 18
ख 18
ज@@ 18
ण 18
ब@@ 18
हम@@ 18
ফ 18
ম 18
ী@@ 18
ਿ 18
ବ@@ 18
ய@@ 18
ு 18
ಗ@@ 18
ྫ@@ 18
თ@@ 18
ი@@ 18
∗ 18
 18
ﺖ@@ 18
ﻚ@@ 18
ﻞ@@ 18
Abdul@@ 17
Afr@@ 17
Albert 17
And@@ 17
Arc@@ 17
Ath@@ 17
Austr@@ 17
Australian 17
Bla@@ 17
Bog@@ 17
Bom@@ 17
Brit@@ 17
Cambridge 17
Canal 17
Christ 17
Chron@@ 17
Civil 17
Conn@@ 17
Corps 17
Daw@@ 17
December 17
Deux 17
End 17
Feder@@ 17
GP@@ 17
German@@ 17
Gut@@ 17
Hand@@ 17
Hong 17
Hz 17
Ib@@ 17
K.@@ 17
Lady 17
Lanc@@ 17
Long 17
Lug@@ 17
Madrid 17
Map@@ 17
Muh@@ 17
Nam 17
Navy 17
Nis@@ 17
Ontario 17
PM 17
Pam@@ 17
Pit@@ 17
Prin@@ 17
Pyr@@ 17
Rome 17
Russell 17
Scott 17
Sierra 17
Sign@@ 17
Soh@@ 17
Song 17
Stan@@ 17
Suz@@ 17
TC 17
Tax@@ 17
Tay@@ 17
Tek@@ 17
Test@@ 17
Tig@@ 17
Viol@@ 17
Wak@@ 17
Wall@@ 17
What 17
Wilson 17
Yah@@ 17
You@@ 17
abol@@ 17
afr@@ 17
alog@@ 17
anan 17
ao@@ 17
ape 17
asing 17
ather 17
atur 17
beau@@ 17
become 17
bon@@ 17
bour@@ 17
class@@ 17
coll@@ 17
cons@@ 17
cum@@ 17
did 17
dil@@ 17
divid@@ 17
dres@@ 17
ecti@@ 17
edia 17
edr@@ 17
edy 17
eil 17
ept@@ 17
established 17
ete 17
eton 17
eval 17
expres@@ 17
fic@@ 17
fish 17
fon@@ 17
gia 17
gio 17
global 17
ground 17
hil 17
ically 17
indi 17
ini@@ 17
ische 17
ished 17
ishi 17
ism@@ 17
ket@@ 17
kor@@ 17
left 17
lik 17
lik@@ 17
line@@ 17
market 17
matches 17
medical 17
mic@@ 17
mm 17
mos@@ 17
multi@@ 17
nati@@ 17
ock@@ 17
official 17
oga 17
ograp@@ 17
ops 17
ored 17
osp@@ 17
ots 17
partition 17
phon@@ 17
pot 17
print 17
pron@@ 17
rat@@ 17
ratic 17
recep@@ 17
religious 17
ria 17
ris 17
river 17
ru 17
seat 17
separ@@ 17
service 17
shar@@ 17
size 17
songs 17
sons 17
study 17
suff@@ 17
tari@@ 17
tary 17
temper@@ 17
tempor@@ 17
tific@@ 17
tin@@ 17
tit@@ 17
today 17
tric@@ 17
uba 17
umi 17
unda 17
uro 17
utive 17
vers@@ 17
wick 17
wide 17
ür@@ 17
ʻ@@ 17
Ка@@ 17
а 17
л@@ 17
ш@@ 17
ט@@ 17
أحد 17
أس 17
أق@@ 17
أه@@ 17
الثلا@@ 17
تشار@@ 17
عبة 17
عًا 17
قيق 17
كة 17
مؤسسة 17
مدينة 17
مية 17
والأ@@ 17
ټ@@ 17
ڊ 17
ڌ 17
ۍ 17
अ@@ 17
का@@ 17
छ@@ 17
दु@@ 17
फ 17
ਚ@@ 17
ੜ@@ 17
ર@@ 17
க 17
த 17
ந@@ 17
ತ 17
ು 17
ს@@ 17
ḥ@@ 17
ン@@ 17
海@@ 17
 17
ﺽ 17
ﻥ@@ 17
Administr@@ 16
Alexand@@ 16
Andr@@ 16
Anh@@ 16
Ant@@ 16
At 16
Atlantic 16
Augus@@ 16
Ave@@ 16
Bach@@ 16
Ball@@ 16
Bas 16
Beg@@ 16
Bernard 16
Bra@@ 16
CF 16
Chief 16
Coll@@ 16
Det@@ 16
Dist@@ 16
Doc@@ 16
Dutch 16
EE 16
Eli@@ 16
Esp@@ 16
F.@@ 16
Fen@@ 16
Fro@@ 16
Gam@@ 16
Giovanni 16
God@@ 16
Gren@@ 16
Gó@@ 16
Han 16
However 16
Jag@@ 16
Johann@@ 16
July 16
Law@@ 16
Lom@@ 16
ML@@ 16
Main@@ 16
Men 16
Mex@@ 16
Monte 16
Net@@ 16
Nig@@ 16
Night 16
Nou@@ 16
Parliament 16
Play@@ 16
Poly@@ 16
Project 16
Prom@@ 16
Ret@@ 16
Roc@@ 16
Rog@@ 16
Roma 16
Rose 16
Roy 16
Sap@@ 16
Scot@@ 16
Serbia 16
Sib@@ 16
Speci@@ 16
Su 16
Tari@@ 16
UE@@ 16
Valle 16
Vig@@ 16
Wad@@ 16
Who 16
Will 16
Yak@@ 16
ably 16
abri@@ 16
aces 16
acha 16
acqu@@ 16
aff 16
airs 16
almost 16
alo 16
alt 16
ammed 16
anch@@ 16
anes 16
anya 16
apr@@ 16
aro 16
atar 16
atin 16
aver@@ 16
ayr@@ 16
bab@@ 16
berg@@ 16
cav@@ 16
cent@@ 16
commercial 16
conver@@ 16
corpor@@ 16
could 16
course 16
cro@@ 16
dam 16
dro@@ 16
due 16
eim 16
ends 16
enge 16
ered 16
eron 16
essor 16
etta 16
etz@@ 16
expression 16
ext@@ 16
fact 16
father 16
fig@@ 16
final 16
fis@@ 16
fix@@ 16
football 16
found@@ 16
gemeinde 16
gol@@ 16
grap@@ 16
grave 16
hand@@ 16
hara 16
held 16
hui 16
idence 16
iga 16
igg@@ 16
ight@@ 16
ilan 16
illes 16
important 16
inas 16
includes 16
inge 16
iro 16
isch 16
isl@@ 16
itch 16
ith@@ 16
kas@@ 16
kent 16
kur@@ 16
lad@@ 16
lav 16
mas 16
meter 16
nas@@ 16
née 16
officer 16
olo 16
otes 16
pass@@ 16
pend@@ 16
pia 16
près 16
ree 16
rik 16
road 16
rod@@ 16
rot@@ 16
rou@@ 16
rés 16
sat@@ 16
sens@@ 16
shows 16
subst@@ 16
technique 16
techniques 16
thor@@ 16
tiques 16
tot@@ 16
trade 16
transport 16
tries 16
tron@@ 16
tun@@ 16
uka 16
uti@@ 16
vin 16
wen@@ 16
éri@@ 16
ě@@ 16
İ@@ 16
ın@@ 16
ʿ@@ 16
β 16
ός 16
в 16
ми 16
н@@ 16
ная 16
т 16
ד 16
أما 16
أمر 16
إبراهيم 16
ارًا 16
التعل@@ 16
الخار@@ 16
الدراسات 16
الذين 16
الساد@@ 16
السنة 16
السوي@@ 16
الشمال 16
الماء 16
النه@@ 16
انية 16
ضة 16
لهم 16
هة 16
هول@@ 16
وليس 16
ܐ 16
जी 16
त@@ 16
ता@@ 16
ब 16
री 16
ला 16
व 16
ु 16
ા@@ 16
ର 16
ఖ@@ 16
మ@@ 16
ದ@@ 16
ಮ@@ 16
བ@@ 16
⭐ 16
の 16
ス@@ 16
天@@ 16
ﭖ@@ 16
ﭴ@@ 16
ﮀ@@ 16
ﺙ 16
🌺 16
19th 15
AG 15
Administration 15
Adri@@ 15
Afgh@@ 15
Arn@@ 15
Arts 15
Aun@@ 15
BT 15
Best 15
Bib@@ 15
Burundi 15
Can 15
Capit@@ 15
Cem@@ 15
Charl@@ 15
Chr@@ 15
Christi@@ 15
Classi@@ 15
Creek 15
Dep@@ 15
Dim@@ 15
Direc@@ 15
Down 15
Early 15
Fem@@ 15
François 15
Frederick 15
Geor@@ 15
Good 15
HC 15
Iron 15
Kre@@ 15
Laz@@ 15
Let@@ 15
Light 15
Lit@@ 15
Luf@@ 15
Malaysia 15
Maxim@@ 15
Media 15
Metro 15
Moore 15
N.@@ 15
Nach@@ 15
Nich@@ 15
Norte 15
Ober@@ 15
Pass@@ 15
Pedro 15
Provin@@ 15
R.@@ 15
Ross 15
Rum@@ 15
Sax@@ 15
Special 15
Strat@@ 15
Techn@@ 15
Tod@@ 15
Unión 15
Wan@@ 15
Willi@@ 15
Wis@@ 15
Young 15
accoun@@ 15
adel@@ 15
aden@@ 15
aged 15
agre@@ 15
aham 15
ahn 15
alan@@ 15
aland 15
alit@@ 15
anta 15
anza 15
apon 15
aries 15
attemp@@ 15
bad@@ 15
beck 15
ben 15
best 15
bio 15
burn 15
cho 15
cia 15
clus@@ 15
compl@@ 15
cord 15
coron@@ 15
crim@@ 15
dam@@ 15
degree 15
diction 15
doba 15
dorf 15
dynam@@ 15
early 15
eaux 15
eber@@ 15
election 15
empl@@ 15
ender@@ 15
endi 15
enter@@ 15
esp@@ 15
eur@@ 15
feld 15
financial 15
five 15
fle@@ 15
found 15
ged 15
ging 15
gol 15
govern@@ 15
groups 15
half 15
hari@@ 15
head@@ 15
hold 15
hon@@ 15
hyp@@ 15
ied 15
ig 15
income 15
kab@@ 15
kul@@ 15
lak@@ 15
lave 15
legal 15
lery 15
ligence 15
little 15
mani@@ 15
mel 15
mom@@ 15
native 15
nch@@ 15
nit@@ 15
non@@ 15
numer@@ 15
né 15
oci@@ 15
oja 15
oral 15
othe@@ 15
ović 15
pes 15
phy@@ 15
police 15
pon 15
pre 15
program 15
promot@@ 15
quan 15
rather 15
refl@@ 15
regular 15
represent@@ 15
rh@@ 15
rich 15
rid 15
rie 15
ris@@ 15
s. 15
saf@@ 15
said 15
sch 15
sert 15
short 15
sid@@ 15
sine 15
sta@@ 15
streng@@ 15
sts 15
sun@@ 15
sus@@ 15
tai 15
tex@@ 15
thre@@ 15
tou@@ 15
tras@@ 15
tribu@@ 15
tronic 15
trop@@ 15
unk@@ 15
va@@ 15
vey 15
vier 15
vit@@ 15
wali 15
wani 15
ween 15
zen@@ 15
zz@@ 15
ède 15
ɑ 15
φ@@ 15
Совет@@ 15
е 15
ни 15
э 15
я@@ 15
і 15
أنه 15
إليه 15
ائيات 15
اعة 15
الأص@@ 15
التاريخ 15
الخاص 15
جزاء 15
غة 15
لية 15
مرة 15
ولى 15
يؤ@@ 15
ः 15
बा@@ 15
या 15
श@@ 15
ং@@ 15
ই@@ 15
ক 15
ੈ 15
ପ@@ 15
ି 15
ெ@@ 15
ை@@ 15
ర@@ 15
ల@@ 15
ಾ@@ 15
ೆ 15
න 15
ර@@ 15
ས@@ 15
ლ@@ 15
ო@@ 15
ṭ@@ 15
ッ@@ 15
ン 15
ー 15
 15
ﮭ 15
﷾ 15
0.000 14
Alabama 14
Alan 14
Ass@@ 14
Bed@@ 14
Berlin 14
Bez@@ 14
Bob@@ 14
Britain 14
Buc@@ 14
Buch@@ 14
Ciudad 14
Culture 14
Daniel 14
Design 14
Don 14
Dream 14
EC 14
Et@@ 14
Ever@@ 14
Family 14
Ferdinand 14
Gas@@ 14
Ges@@ 14
Ghana 14
Good@@ 14
Henri 14
His@@ 14
Hug@@ 14
If 14
Inc. 14
Inf@@ 14
Jesus 14
Jordan 14
Kent 14
Kip@@ 14
Linux 14
Mark 14
Marsh@@ 14
Mek@@ 14
Microsoft 14
Ministr@@ 14
Miss@@ 14
Mod@@ 14
Moon 14
Ner@@ 14
Ng@@ 14
Nik@@ 14
October 14
Olympic 14
Over@@ 14
Patr@@ 14
Patri@@ 14
Princip@@ 14
Raf@@ 14
Rho@@ 14
Sa 14
She 14
Sky 14
Stat@@ 14
Stephen 14
Sund@@ 14
Super 14
Television 14
Tok@@ 14
Up 14
Video 14
Vik@@ 14
Wol@@ 14
Yel@@ 14
Yor@@ 14
Zo@@ 14
adr@@ 14
agog@@ 14
ails 14
alter@@ 14
amber 14
ampa 14
anni@@ 14
aven 14
aç@@ 14
añ@@ 14
aş@@ 14
baz@@ 14
bey 14
bia 14
blu@@ 14
bt 14
conf@@ 14
cos 14
cour@@ 14
cross 14
cus@@ 14
cá@@ 14
developed 14
dial 14
eca 14
ectu@@ 14
eda 14
eder@@ 14
ei@@ 14
encia 14
ended 14
ender 14
endra 14
enf@@ 14
ensi@@ 14
entes 14
estr@@ 14
exec@@ 14
fall 14
four 14
geb@@ 14
gö@@ 14
hab 14
habitants 14
hadi 14
hak 14
hil@@ 14
hockey 14
hr 14
ias 14
ift 14
ilg@@ 14
image 14
imp@@ 14
information 14
infr@@ 14
inga 14
ingo 14
integr@@ 14
internet 14
inus 14
ised 14
ishing 14
ision 14
isse 14
issi@@ 14
iterran@@ 14
jun@@ 14
kap@@ 14
kazi 14
kes@@ 14
kn@@ 14
kol@@ 14
late 14
lead@@ 14
leader 14
lus@@ 14
meas@@ 14
mm@@ 14
moun@@ 14
mouth 14
nant 14
nes@@ 14
neu@@ 14
next 14
north 14
ogo 14
organiz@@ 14
orn 14
ouver 14
oz 14
perial 14
play@@ 14
quanti@@ 14
red@@ 14
related 14
rent 14
respon@@ 14
response 14
return 14
ric@@ 14
rol 14
sie 14
sis 14
some@@ 14
sovi@@ 14
stanbul 14
stre@@ 14
strong 14
syl@@ 14
take 14
teams 14
tiers 14
tière 14
uer@@ 14
uss 14
verte@@ 14
vil 14
viol@@ 14
wer@@ 14
wn@@ 14
writing 14
yat 14
ysi@@ 14
zu 14
ä 14
éch@@ 14
öy 14
ő@@ 14
ɡ@@ 14
ɪ 14
ʊ 14
ː@@ 14
Χ@@ 14
β@@ 14
δ@@ 14
κ@@ 14
С@@ 14
з@@ 14
я 14
қ@@ 14
ү@@ 14
ו 14
ءة 14
أغ@@ 14
أف@@ 14
ألف 14
إبرا@@ 14
الاسم 14
الجنوب 14
الرئ@@ 14
الطبي@@ 14
الكل@@ 14
تصنيف 14
ذج 14
سوريا 14
طريق 14
فية 14
كبي@@ 14
كريست@@ 14
مانيا 14
مكان 14
مناطق 14
نوات 14
هاب 14
والث@@ 14
आ@@ 14
ता 14
ति@@ 14
द 14
रा@@ 14
हि@@ 14
ु@@ 14
ভ@@ 14
ਖ@@ 14
ਟ@@ 14
କ@@ 14
ා@@ 14
ු@@ 14
უ@@ 14
Ἰ@@ 14
‑ 14
国 14
本@@ 14
ﮁ@@ 14
ﮝ@@ 14
ﮡ 14
ﯼ@@ 14
🌹 14
AV@@ 13
Ankara 13
Audi@@ 13
August@@ 13
BI 13
Bass@@ 13
Board 13
Boliv@@ 13
Born 13
Bret@@ 13
Broad@@ 13
Bush 13
Campbell 13
Cass@@ 13
Centr@@ 13
Chelsea 13
Chir@@ 13
Cin@@ 13
Congress 13
Constant@@ 13
Cros@@ 13
Cru@@ 13
Diam@@ 13
ESCO 13
Exper@@ 13
Fab@@ 13
Franç@@ 13
Fried@@ 13
Friedrich 13
Game 13
Govern@@ 13
Gros@@ 13
His 13
Histor@@ 13
Hospital 13
Il 13
Israeli 13
Jorge 13
Jose@@ 13
Jum@@ 13
Jur@@ 13
Kag@@ 13
Last 13
Leh@@ 13
Leo 13
Live 13
MP 13
Many 13
Marc 13
Martin@@ 13
Mec@@ 13
Michigan 13
Montr@@ 13
Monum@@ 13
Par 13
Parti@@ 13
Pra@@ 13
Rat@@ 13
Rein@@ 13
Reino 13
Ris@@ 13
Sali@@ 13
Santo 13
Seb@@ 13
September 13
Series 13
Singapore 13
Sn@@ 13
Sov@@ 13
Suc@@ 13
Termin@@ 13
Tou@@ 13
Viz@@ 13
Vor@@ 13
Wales 13
Well@@ 13
When 13
Yaz@@ 13
Yo@@ 13
acked 13
adol@@ 13
afi 13
aging 13
aled 13
alli 13
altar 13
ament@@ 13
amin@@ 13
anco 13
anded 13
ander@@ 13
anos 13
atur@@ 13
auf 13
autom@@ 13
available 13
away 13
bak@@ 13
bau@@ 13
bay 13
below 13
ble@@ 13
bol 13
boy@@ 13
bres 13
capac@@ 13
chin@@ 13
ching 13
circul@@ 13
cm 13
conqu@@ 13
dav@@ 13
dek 13
dial@@ 13
dio 13
dis 13
dle 13
east 13
eci@@ 13
edit@@ 13
eins 13
elen 13
emer@@ 13
ently 13
eran 13
esi@@ 13
explo@@ 13
fen@@ 13
ffer@@ 13
fici@@ 13
grad 13
gy 13
hak@@ 13
hard 13
health 13
hibi@@ 13
ided 13
igo 13
ilia 13
iller 13
inos 13
ister 13
iting 13
iva 13
jam@@ 13
jaw@@ 13
jum@@ 13
kat@@ 13
kho@@ 13
lag@@ 13
large 13
lars 13
least 13
libr@@ 13
ling@@ 13
lis@@ 13
mab@@ 13
mari@@ 13
marine 13
master 13
material 13
members 13
mon 13
motor 13
nation@@ 13
nu 13
oba 13
oko 13
olo@@ 13
omer@@ 13
onder@@ 13
orient@@ 13
orit@@ 13
ouse 13
parts 13
plant 13
practice 13
present 13
pson 13
rad 13
ric 13
rig@@ 13
ring 13
sdorf 13
servat@@ 13
should 13
sion@@ 13
sl@@ 13
solution 13
south 13
stand@@ 13
standing 13
started 13
stati@@ 13
stell@@ 13
structure 13
tad@@ 13
taine 13
tes@@ 13
tique 13
tn@@ 13
tournament 13
train 13
tribut@@ 13
unt 13
uzi 13
ving 13
vision 13
xe 13
yat@@ 13
zem@@ 13
zw@@ 13
¥ 13
¼ 13
École 13
ál@@ 13
î 13
ē 13
œ@@ 13
ū 13
ż 13
ɾ@@ 13
ʼ@@ 13
ο 13
σ@@ 13
Д@@ 13
ла@@ 13
ра 13
ра@@ 13
с 13
ш 13
ь@@ 13
ї@@ 13
ј@@ 13
ի@@ 13
ע 13
ءات 13
أث@@ 13
أج@@ 13
أك@@ 13
الأم@@ 13
المدار@@ 13
اهرة 13
بالك@@ 13
تمبر 13
توماس 13
دولة 13
سة 13
سية 13
كندي 13
ملة 13
والت@@ 13
وعلى 13
يدة 13
ينة 13
ۢ 13
कु@@ 13
ग@@ 13
ना 13
ल 13
सु@@ 13
চ@@ 13
ਗ 13
ੁ 13
ੌ@@ 13
ହ@@ 13
େ@@ 13
ல@@ 13
ම@@ 13
ව@@ 13
タ@@ 13
モ@@ 13
新@@ 13
日@@ 13
 13
After 12
Am 12
Asp@@ 12
Berg@@ 12
Blu@@ 12
Boston 12
Bron@@ 12
Canadian 12
Clau@@ 12
Costa 12
Cul@@ 12
Dan 12
Democ@@ 12
Dro@@ 12
Du 12
Dum@@ 12
Ear@@ 12
Elle 12
Emer@@ 12
Entertainment 12
Eur@@ 12
FM 12
Facebook 12
Francis 12
Girl 12
HD 12
HMS 12
Hall@@ 12
Hass@@ 12
Heart 12
Hid@@ 12
Hier@@ 12
Hot@@ 12
Initi@@ 12
Institu@@ 12
It@@ 12
Italian 12
Jackson 12
Joh@@ 12
Johannes 12
Johnson 12
José 12
Kid@@ 12
Kl@@ 12
Kob@@ 12
Lem@@ 12
Len@@ 12
Like 12
Lü@@ 12
Mac 12
Master 12
Max@@ 12
Mess@@ 12
Miguel 12
Montre@@ 12
Mosco@@ 12
Motor@@ 12
Mr. 12
Nec@@ 12
Norman 12
Nouvelle 12
Obj@@ 12
Operation 12
Orange 12
Papua 12
Partido 12
Philipp@@ 12
Pé@@ 12
Radio 12
Ric@@ 12
Riv@@ 12
Rol@@ 12
Salv@@ 12
Sas@@ 12
Si 12
Software 12
Stone 12
Stre@@ 12
Syst@@ 12
Sü@@ 12
Tom 12
Top@@ 12
Trav@@ 12
Type 12
Under@@ 12
Walker 12
Williams 12
With 12
Wright 12
XVII 12
Your 12
Zen@@ 12
abab@@ 12
abe 12
ained 12
aker 12
alie 12
allas 12
ambre 12
amo 12
ampli@@ 12
application 12
appro@@ 12
archi@@ 12
arn 12
atos 12
att 12
aup@@ 12
bara 12
bay@@ 12
bek 12
bie 12
bre 12
brother 12
bun@@ 12
carri@@ 12
concentr@@ 12
craft 12
cut 12
dea 12
diff@@ 12
duras 12
each 12
education 12
eling 12
ellen@@ 12
emo 12
ende 12
ending 12
engi 12
engl@@ 12
ening 12
ensis 12
escap@@ 12
ested 12
ests 12
eur 12
event@@ 12
fam@@ 12
ffe 12
fi 12
forces 12
frag@@ 12
fund@@ 12
gam@@ 12
graphi@@ 12
gun 12
habit@@ 12
haf@@ 12
hard@@ 12
hin 12
hop 12
hud@@ 12
hus@@ 12
hydr@@ 12
iden 12
idential 12
interpre@@ 12
ique 12
iş@@ 12
jap@@ 12
lara 12
lav@@ 12
lear@@ 12
length 12
listed 12
living 12
lost 12
love 12
luch@@ 12
magazine 12
main@@ 12
management 12
march@@ 12
match 12
mili@@ 12
minim@@ 12
night 12
nis@@ 12
nj@@ 12
office 12
olar@@ 12
omy@@ 12
onna 12
ose@@ 12
para 12
party 12
person@@ 12
places 12
plan 12
policy 12
prin@@ 12
propor@@ 12
quir@@ 12
ras 12
reci@@ 12
relation 12
religion 12
repe@@ 12
report 12
requ@@ 12
rier 12
run 12
sau@@ 12
sberg 12
seg@@ 12
sep@@ 12
song 12
sound 12
sources 12
spor@@ 12
stock 12
stream 12
tas 12
those 12
throughout 12
tico 12
tioned 12
tiz@@ 12
tle 12
toman 12
tri 12
trol 12
typ@@ 12
ulus 12
ums 12
unci@@ 12
unga 12
unter 12
verdi 12
versit@@ 12
vid@@ 12
voir 12
vul@@ 12
wak@@ 12
was@@ 12
working 12
yal 12
yet 12
zel@@ 12
© 12
ás 12
äl@@ 12
éré 12
êque 12
ì@@ 12
íos 12
ño 12
ı@@ 12
ɔ 12
̃ 12
Β@@ 12
Σ@@ 12
ή 12
ει@@ 12
λ@@ 12
μ@@ 12
ρ 12
Г@@ 12
И@@ 12
К@@ 12
али@@ 12
ви@@ 12
ж@@ 12
коно@@ 12
льный 12
м 12
о@@ 12
рай@@ 12
у 12
ч@@ 12
ե@@ 12
ո@@ 12
ֱ@@ 12
ב 12
ך@@ 12
؏ 12
الأولى 12
الجسم 12
الدرا@@ 12
الشيو@@ 12
الكبرى 12
المدينة 12
المشار@@ 12
الموج@@ 12
انة 12
تصني@@ 12
توفي 12
حين 12
خرى 12
ريض 12
سبيل 12
شة 12
طاني 12
عية 12
فيات 12
كانوا 12
مايو 12
منه 12
منها 12
يرة 12
َّة 12
ٿ@@ 12
ं 12
ऐ 12
कर 12
जहाँ 12
टी 12
तान 12
ने 12
पा@@ 12
भ@@ 12
मा@@ 12
ली 12
গ 12
ত 12
ਕ 12
ਬ 12
ତ@@ 12
ు 12
ು@@ 12
ക@@ 12
ල@@ 12
ད@@ 12
ა 12
ṣ@@ 12
ῖ@@ 12
の@@ 12
ケ@@ 12
地方 12
 12
ﭠ@@ 12
ﮍ 12
ﮘ@@ 12
ﺞ 12
ﺺ 12
🐱 12
🔸 12
Adams 11
Alliance 11
Angeles 11
Anim@@ 11
Antonio 11
Arist@@ 11
Aug@@ 11
Aus@@ 11
Bibli@@ 11
Bow@@ 11
Bun@@ 11
Card@@ 11
Cav@@ 11
Cho@@ 11
Coc@@ 11
Concep@@ 11
Córdoba 11
DVD 11
Dark 11
Das 11
Dead 11
Dir@@ 11
Dru@@ 11
Emil@@ 11
End@@ 11
Eri@@ 11
Fernando 11
Fili@@ 11
Football 11
Form 11
GA 11
Georg 11
Hali@@ 11
Hay 11
Him@@ 11
Indiana 11
Inh@@ 11
Inn@@ 11
Ins@@ 11
Itali@@ 11
J.@@ 11
Jack 11
Jones 11
Jos@@ 11
Journal 11
Kamp@@ 11
Karl 11
Kath@@ 11
Kenya 11
Kro@@ 11
Lewis 11
Lic@@ 11
Lov@@ 11
Magazine 11
Major 11
María 11
Max 11
Mez@@ 11
Miller 11
Moy@@ 11
Nati@@ 11
Od@@ 11
Out 11
Pac@@ 11
Pand@@ 11
Pear@@ 11
Portu@@ 11
Pow@@ 11
Pro 11
Revol@@ 11
Roh@@ 11
Río 11
Santiago 11
Ses@@ 11
Siv@@ 11
Sl@@ 11
TP 11
Tech@@ 11
Thor@@ 11
Times 11
Ton@@ 11
Tos@@ 11
Uch@@ 11
Vy@@ 11
Wehr@@ 11
Xu@@ 11
above 11
acio 11
acre 11
aden 11
ager 11
aifa 11
ambia 11
angu 11
aning 11
anl@@ 11
another 11
anı 11
architecture 11
arius 11
aten 11
ater@@ 11
atri@@ 11
atu 11
auto@@ 11
aux@@ 11
ball 11
basis 11
bir 11
burgh 11
but@@ 11
came 11
character 11
chr@@ 11
cip@@ 11
cog@@ 11
colum@@ 11
combin@@ 11
complete 11
deg@@ 11
dep@@ 11
deriv@@ 11
dimen@@ 11
distribution 11
done 11
dy@@ 11
eding 11
edra 11
ega 11
eki 11
eles 11
elled 11
encer 11
enta 11
entales 11
enth@@ 11
ept 11
eses 11
esses 11
estre 11
exist@@ 11
famous 11
few 11
fo 11
foc@@ 11
folk 11
follow@@ 11
hem 11
high@@ 11
ible 11
idad 11
idar@@ 11
ido 11
ieve 11
iler 11
illi@@ 11
inde 11
influ@@ 11
influence 11
iny@@ 11
ises 11
isha 11
isher 11
isto 11
its@@ 11
itself 11
ive 11
jah@@ 11
k.@@ 11
kali 11
kat 11
kom@@ 11
kus@@ 11
leb@@ 11
legi@@ 11
len 11
lies 11
liv@@ 11
lov@@ 11
loy@@ 11
ls 11
mai 11
mak 11
map@@ 11
means 11
migr@@ 11
model@@ 11
mund 11
mé@@ 11
n.@@ 11
named 11
narr@@ 11
obr@@ 11
observ@@ 11
ody 11
offered 11
oil 11
oir 11
olas 11
oms 11
onga 11
onie 11
orb@@ 11
oshi 11
ours 11
phy 11
physi@@ 11
plac@@ 11
polit@@ 11
polog@@ 11
pon@@ 11
possible 11
produced 11
provid@@ 11
provincial 11
pu 11
put@@ 11
real 11
reduc@@ 11
refu@@ 11
resist@@ 11
runs 11
sist@@ 11
species 11
sta 11
ste 11
sto@@ 11
stri@@ 11
syst@@ 11
tera 11
tim 11
topl@@ 11
trad@@ 11
udo 11
unter@@ 11
ution@@ 11
vely 11
vez 11
vide 11
vot@@ 11
weight 11
yak@@ 11
yas@@ 11
zen 11
zis@@ 11
zon@@ 11
än@@ 11
ç 11
èg@@ 11
ól@@ 11
ün@@ 11
Ā@@ 11
ır@@ 11
ŋ 11
ś 11
Ž@@ 11
ʃ 11
̞ 11
Θ@@ 11
αγ@@ 11
γ@@ 11
η 11
θ@@ 11
στ@@ 11
Ал@@ 11
Ко@@ 11
Ма@@ 11
Н@@ 11
Са@@ 11
б@@ 11
де@@ 11
е@@ 11
з 11
за@@ 11
на@@ 11
но 11
но@@ 11
ск 11
ское 11
сп@@ 11
ство 11
ха@@ 11
ческий 11
ь 11
Қ@@ 11
ն 11
ր@@ 11
ַ 11
ئات 11
الأمير 11
الجزء 11
الدولي 11
الصنا@@ 11
المجلس 11
امه 11
انکہ 11
اوية 11
اية 11
بية 11
تكون 11
توبر 11
جميع 11
زية 11
سياس@@ 11
طة 11
عهد 11
ماك 11
نيات 11
نية 11
يص@@ 11
ينات 11
ڳ 11
ۗ 11
ۭ 11
को 11
ड 11
ना@@ 11
प@@ 11
मंदिर 11
या@@ 11
राज 11
लाई 11
ष 11
सं@@ 11
सि@@ 11
ব 11
ৰ@@ 11
ਯ@@ 11
ੲ@@ 11
ગ@@ 11
ଗ@@ 11
ଦ@@ 11
ட 11
ப 11
ள@@ 11
ద@@ 11
ా 11
ಂ@@ 11
ವ@@ 11
ಸ@@ 11
ೇ@@ 11
ල 11
ḥ 11
→ 11
⋅ 11
✅ 11
ア@@ 11
ポ@@ 11
ﺱ@@ 11
ﻝ@@ 11
ﻩ@@ 11
.-@@ 10
Anat@@ 10
Apo@@ 10
Apol@@ 10
Archit@@ 10
Associ@@ 10
Awards 10
Barcelona 10
Berg 10
Bir 10
Brig@@ 10
Brook@@ 10
Carl 10
DV@@ 10
Daily 10
Dak@@ 10
Dame 10
Dez@@ 10
Enter@@ 10
Es 10
Estado 10
Feli@@ 10
Fox 10
Frank 10
Fré@@ 10
Fund@@ 10
Go 10
Gran 10
Guadal@@ 10
Hart@@ 10
Her 10
IBM 10
Iglesia 10
Johann 10
Kara 10
Kem@@ 10
Kenn@@ 10
Kim 10
León 10
Lind@@ 10
Mann@@ 10
Mr@@ 10
Mustafa 10
NAS@@ 10
NASA 10
Neb@@ 10
Nord@@ 10
Ost@@ 10
Pep@@ 10
Personal 10
Philippe 10
Phoen@@ 10
Police 10
Quer@@ 10
Rico 10
Rodr@@ 10
Run@@ 10
République 10
Schw@@ 10
Sied@@ 10
Simon 10
Son 10
Stanley 10
Sydney 10
TV@@ 10
Tokyo 10
Toy@@ 10
Universit@@ 10
Us@@ 10
Ut@@ 10
Vak@@ 10
Von 10
Wild@@ 10
Will@@ 10
XIX 10
Zw@@ 10
academ@@ 10
aching 10
acial 10
agricul@@ 10
ako 10
alim@@ 10
amount 10
andan 10
andra 10
anese 10
angel@@ 10
annel 10
apo 10
apos@@ 10
ario 10
arp@@ 10
ata@@ 10
avo 10
ağ@@ 10
bah@@ 10
beg@@ 10
bes@@ 10
better 10
big 10
boy 10
bud@@ 10
categ@@ 10
cau@@ 10
centre 10
certain 10
chap@@ 10
church 10
clim@@ 10
colon@@ 10
company 10
comple@@ 10
conserv@@ 10
continu@@ 10
dad 10
dem 10
deo 10
dez 10
diam@@ 10
dil 10
dir@@ 10
door 10
dre 10
eded 10
enas 10
enes 10
enh@@ 10
enin 10
enna 10
erh@@ 10
eria 10
establ@@ 10
etti 10
experi@@ 10
figur@@ 10
fore 10
fro@@ 10
ful@@ 10
func@@ 10
gel 10
gli@@ 10
hib@@ 10
hir@@ 10
icas 10
idental 10
ief 10
igi 10
igne 10
iken 10
ilk 10
illi 10
inda 10
ingt 10
inn 10
irat@@ 10
issu@@ 10
ition 10
jed@@ 10
jia 10
jou@@ 10
kun@@ 10
lance 10
lif@@ 10
lins 10
long@@ 10
mark@@ 10
maz 10
mile 10
modi@@ 10
moved 10
nat@@ 10
nature 10
neo 10
never 10
ogle 10
old@@ 10
ologies 10
omin@@ 10
open@@ 10
opp@@ 10
pair 10
patri@@ 10
plann@@ 10
plus 10
points 10
prepar@@ 10
princi@@ 10
pris@@ 10
prise 10
private 10
probl@@ 10
propos@@ 10
provide 10
puls@@ 10
pus 10
qua 10
range 10
reas 10
ren 10
rest@@ 10
rive 10
role 10
saint 10
sal 10
sche 10
sci@@ 10
second@@ 10
sein 10
ships 10
sional 10
slo@@ 10
spo@@ 10
still 10
suc@@ 10
tad 10
tav@@ 10
tei 10
tek 10
television 10
tered 10
term 10
thus 10
tour@@ 10
traditional 10
uca 10
uch 10
ude 10
uld 10
umen 10
umes 10
units 10
ural 10
uri@@ 10
uti 10
valu@@ 10
ves@@ 10
vic@@ 10
whose 10
with@@ 10
within 10
written 10
wrote 10
yard 10
yel@@ 10
Å@@ 10
çe 10
ío 10
ü 10
üm@@ 10
ık@@ 10
ř@@ 10
şe 10
ʊ@@ 10
α@@ 10
ρ@@ 10
Со@@ 10
Х@@ 10
автоно@@ 10
алистиче@@ 10
ва 10
д 10
ка@@ 10
край 10
ль@@ 10
сы 10
та 10
ц@@ 10
чи@@ 10
ҳ@@ 10
ә@@ 10
ּ 10
ח 10
أخذ 10
الأول 10
الحي@@ 10
الدول 10
المملكة 10
النظام 10
الوصول 10
اليمن 10
تعد 10
دها 10
ضى 10
غيل 10
فاز 10
كندا 10
للح@@ 10
للم@@ 10
هام 10
ٙ@@ 10
ڀ@@ 10
ܝ@@ 10
आज 10
चो@@ 10
ड@@ 10
दुनिया 10
ध@@ 10
मा 10
मे@@ 10
लय 10
वालों 10
सा@@ 10
हिं@@ 10
ा@@ 10
२ 10
খ@@ 10
জ 10
ਵ 10
ତ 10
ନ 10
ை 10
త@@ 10
న@@ 10
ర 10
ಕ@@ 10
ග@@ 10
ბ@@ 10
მ@@ 10
ṇ@@ 10
↵ 10
█ 10
ト@@ 10
中国@@ 10
国@@ 10
 10
ﭝ@@ 10
ﭡ@@ 10
ﮃ@@ 10
ﻂ 10
ﻅ 10
ﻰ 10
ﻲ@@ 10
.000 9
Academ@@ 9
Aleksand@@ 9
Alfred 9
Alg@@ 9
Allen 9
Andrew 9
Ann 9
Another 9
Apple 9
April 9
Baden 9
Baker 9
Bapti@@ 9
Batt@@ 9
Benn@@ 9
Brad@@ 9
Braun@@ 9
Brothers 9
Buil@@ 9
But 9
Cao 9
Catherine 9
Dance 9
Del 9
Di 9
Diego 9
Diy@@ 9
Doctor 9
Donald 9
During 9
Educ@@ 9
Ent@@ 9
Entre 9
Ethiopia 9
Fig@@ 9
Frances@@ 9
Frank@@ 9
Freder@@ 9
Fun@@ 9
Für@@ 9
Galax@@ 9
Glas@@ 9
Guillaume 9
Harvard 9
Head 9
Hockey 9
Hot 9
Hous@@ 9
Hung@@ 9
Inst@@ 9
Instrum@@ 9
Irish 9
Jack@@ 9
Julius 9
Juni@@ 9
König@@ 9
Lec@@ 9
Lew@@ 9
Maf@@ 9
Mara 9
Marine 9
Mark@@ 9
Martín 9
Massachusetts 9
Memorial 9
NGC 9
Oli@@ 9
Over 9
Pach@@ 9
Paşa 9
Person@@ 9
Philip 9
Program@@ 9
Rach@@ 9
Rail@@ 9
Scotland 9
Seh@@ 9
So 9
Song@@ 9
Stoc@@ 9
Stockh@@ 9
Tür@@ 9
Venez@@ 9
Wer@@ 9
Wit@@ 9
aal@@ 9
abu 9
ación 9
actor 9
adop@@ 9
adul@@ 9
ady 9
agon@@ 9
ainer 9
alian 9
alog 9
ambo 9
ambul@@ 9
analy@@ 9
annes 9
antu 9
anum 9
aras@@ 9
arca 9
aris 9
arry 9
ases 9
aster@@ 9
ası 9
ately 9
athan 9
atives 9
back@@ 9
bed@@ 9
bel 9
bid@@ 9
bran@@ 9
built 9
casting 9
cath@@ 9
caus@@ 9
cent 9
changes 9
character@@ 9
characters 9
child 9
ción 9
classi@@ 9
clu@@ 9
coc@@ 9
compar@@ 9
composition 9
consol@@ 9
conv@@ 9
crimin@@ 9
criti@@ 9
days 9
declar@@ 9
deli@@ 9
destruc@@ 9
disc@@ 9
discipl@@ 9
edition 9
egal 9
elia 9
elly 9
elor 9
elt 9
ember 9
encour@@ 9
endel@@ 9
endr@@ 9
ener@@ 9
ensus 9
eppe 9
esta 9
eston 9
eting 9
etto 9
etz 9
eurs 9
euse 9
ever@@ 9
evol@@ 9
excep@@ 9
eye 9
figh@@ 9
finished 9
foot@@ 9
formed 9
fron@@ 9
front 9
fs 9
gang@@ 9
gers 9
grade 9
gres@@ 9
hay 9
heim@@ 9
hen 9
hier@@ 9
highest 9
hiz@@ 9
host@@ 9
how 9
icro@@ 9
icum 9
idea 9
ife 9
ige 9
ilo 9
imi@@ 9
inj@@ 9
instrum@@ 9
inten@@ 9
interest 9
involved 9
inz@@ 9
ions 9
iss 9
joined 9
journ@@ 9
justice 9
kes 9
kid@@ 9
label 9
macht 9
mati@@ 9
mitted 9
mos 9
much 9
music 9
nak@@ 9
nis 9
nm 9
note 9
oc 9
occ@@ 9
oles 9
ologne 9
olu 9
onds 9
onel 9
ongo@@ 9
online 9
opol@@ 9
organis@@ 9
orph@@ 9
oven 9
pag@@ 9
parall@@ 9
past 9
performance 9
pet@@ 9
phase 9
pler 9
pos 9
prec@@ 9
primary 9
prom@@ 9
pros@@ 9
publ@@ 9
quali@@ 9
ques@@ 9
qui 9
quot@@ 9
rab@@ 9
race 9
rates 9
rej@@ 9
religi@@ 9
resid@@ 9
resol@@ 9
rique 9
sap@@ 9
semi 9
serve 9
sexu@@ 9
sir@@ 9
six 9
sport 9
spre@@ 9
square 9
staff 9
stand 9
student 9
tag 9
tent@@ 9
terre 9
there@@ 9
thin 9
ths 9
tista 9
tra@@ 9
treat@@ 9
tropical 9
uck 9
ular@@ 9
unger 9
ungs@@ 9
uno 9
uo 9
upon 9
usi 9
vas@@ 9
vill@@ 9
volution 9
w.@@ 9
wald 9
wards 9
wed 9
wen 9
writer 9
yap@@ 9
yaz@@ 9
yen 9
yol@@ 9
zin 9
Église 9
ác@@ 9
æ 9
ça 9
ð 9
ò@@ 9
ún 9
ý 9
ır 9
ɛ 9
ʼ 9
Π@@ 9
άν@@ 9
αν@@ 9
ε 9
ι 9
κα@@ 9
Р@@ 9
Ре@@ 9
Т@@ 9
Та@@ 9
Укра@@ 9
ал@@ 9
бли@@ 9
да 9
къ@@ 9
л 9
не@@ 9
округ 9
публи@@ 9
публика@@ 9
ре@@ 9
ש 9
إنه 9
الأرض 9
الجزيرة 9
الحصول 9
الحكوم@@ 9
الهند 9
الية 9
بإ@@ 9
بحت 9
بيض 9
تركي@@ 9
ثلا@@ 9
جاه 9
جنة 9
سكان@@ 9
شخاص 9
طلح 9
عتبر 9
فرة 9
قية 9
كرة 9
لإ@@ 9
لكن 9
معدل 9
مكن 9
منذ 9
منهم 9
نشاء 9
هام@@ 9
يكون 9
څ 9
ډ@@ 9
ܕ@@ 9
ܘ@@ 9
ंग@@ 9
उ@@ 9
और 9
के 9
के@@ 9
च 9
जा@@ 9
तुम 9
दा@@ 9
महा@@ 9
रा 9
रु@@ 9
वि@@ 9
हम 9
हिमा@@ 9
॥ 9
१@@ 9
ড 9
য@@ 9
ূ@@ 9
ਇ@@ 9
ਘ 9
ਦ 9
ଜ@@ 9
ୀ 9
େ 9
எ@@ 9
ற@@ 9
ள 9
ழ@@ 9
ி 9
ே@@ 9
ோ@@ 9
ల 9
ు@@ 9
ಯ@@ 9
ಲ@@ 9
ೋ@@ 9
മ@@ 9
ി@@ 9
ක@@ 9
න@@ 9
හ@@ 9
ུ@@ 9
ვ@@ 9
Ἑ@@ 9
₨ 9
┈ 9
ⴰ@@ 9
ス 9
东 9
國 9
島@@ 9
 9
 9
 9
 9
ﮈ 9
ﮣ@@ 9
ﺥ 9
🐰 9
💥 9
According 8
Alman@@ 8
Anderson 8
Angel 8
Anna 8
Arena 8
Arti@@ 8
Aster@@ 8
Ba 8
Back 8
Barbara 8
Bundes@@ 8
Carlos 8
Cec@@ 8
Chic@@ 8
Chicago 8
Da 8
Der 8
Dest@@ 8
Develop@@ 8
Disney 8
Dut@@ 8
Eas@@ 8
Estr@@ 8
Fantas@@ 8
Fati@@ 8
Festival 8
Greg@@ 8
Gri@@ 8
Guy 8
Harris 8
Histori@@ 8
Hollywood 8
Houston 8
Hr@@ 8
Hud@@ 8
Ich@@ 8
Ide@@ 8
Illinois 8
Isab@@ 8
Jap@@ 8
John@@ 8
Jug@@ 8
Jung@@ 8
Junior 8
Kazak@@ 8
Kik@@ 8
Kle@@ 8
Köy 8
Libr@@ 8
Luci@@ 8
Matthe@@ 8
Monte@@ 8
Munici@@ 8
Na 8
Occ@@ 8
Olympics 8
Ord@@ 8
Peter@@ 8
Place 8
Plan 8
Poc@@ 8
Pok@@ 8
Pop@@ 8
Population 8
Presidente 8
Production 8
Professor 8
Refer@@ 8
Rober@@ 8
Rub@@ 8
Sek@@ 8
Shin@@ 8
Sich@@ 8
Sieg@@ 8
Stand@@ 8
Stewart 8
Sudan 8
Syl@@ 8
Sá@@ 8
Tap@@ 8
Tes@@ 8
Thu@@ 8
Tradi@@ 8
Wald@@ 8
Wen@@ 8
While 8
Wid@@ 8
Yas@@ 8
Zanzibar 8
Zu@@ 8
abi@@ 8
abil@@ 8
aborat@@ 8
adu@@ 8
agin@@ 8
aim@@ 8
aines 8
aku 8
aku@@ 8
along 8
amen 8
anas 8
anlar 8
announced 8
approximately 8
arding 8
arina 8
artic@@ 8
aten@@ 8
atures 8
ausen 8
author@@ 8
award 8
bases 8
bez@@ 8
bic@@ 8
bourne 8
break 8
camp 8
care 8
centr@@ 8
chief 8
children 8
clos@@ 8
club 8
communic@@ 8
confl@@ 8
construc@@ 8
contains 8
coordin@@ 8
correspond@@ 8
crisis 8
deal 8
defeated 8
denomin@@ 8
dings 8
diz@@ 8
dows 8
dram@@ 8
dur 8
e. 8
editor 8
eg 8
ego 8
eler 8
ener 8
enia 8
enses 8
entry 8
enz 8
erra 8
esto 8
event 8
events 8
evin 8
eza 8
feature 8
feh@@ 8
fel@@ 8
fight 8
followed 8
food 8
fur@@ 8
future 8
gang 8
gence 8
give 8
grad@@ 8
gros@@ 8
grou@@ 8
gus@@ 8
hasa 8
having 8
heavy 8
hit 8
hot@@ 8
however 8
hup@@ 8
hô@@ 8
ibn 8
icos 8
icus 8
igan 8
iller@@ 8
illet 8
inform@@ 8
intel@@ 8
ios 8
isch@@ 8
ismo 8
itr@@ 8
jana 8
jud@@ 8
kam 8
kari 8
kaya 8
key@@ 8
kins 8
kitab@@ 8
kov@@ 8
kw@@ 8
laborat@@ 8
ld 8
lea 8
location 8
loss@@ 8
ls@@ 8
lug@@ 8
lus 8
lı 8
maison 8
mans 8
materi@@ 8
mostly 8
msh@@ 8
muj@@ 8
nad@@ 8
national@@ 8
ngu@@ 8
nier 8
nig@@ 8
né@@ 8
oca 8
offic@@ 8
ois@@ 8
ongo 8
onym@@ 8
ools 8
ort@@ 8
orum 8
oti 8
ously 8
ouvre 8
owski 8
pad@@ 8
param@@ 8
patr@@ 8
phe 8
players 8
pp 8
programs 8
public@@ 8
quet 8
rar 8
rece@@ 8
refle@@ 8
reich 8
rem 8
restric@@ 8
retr@@ 8
rev@@ 8
rien 8
rog@@ 8
roman@@ 8
rop@@ 8
round 8
ré 8
rép@@ 8
sad@@ 8
same 8
sang 8
sei 8
sent 8
separate 8
session 8
she 8
sibil@@ 8
sible 8
ski@@ 8
sof@@ 8
sour@@ 8
sports 8
sson 8
sten 8
strat@@ 8
strateg@@ 8
students 8
tac@@ 8
tah@@ 8
taken 8
tang@@ 8
tant 8
tham 8
thought 8
thy 8
tik 8
too 8
tum 8
tz@@ 8
ubil@@ 8
undi 8
univers@@ 8
ustry 8
vac@@ 8
vat@@ 8
vent 8
vera 8
vig@@ 8
virtu@@ 8
visible 8
wand@@ 8
whe@@ 8
without 8
yer@@ 8
yon 8
zeh@@ 8
zur 8
´ 8
Æ@@ 8
ßen 8
ême 8
ís 8
óng 8
üd@@ 8
č 8
ık 8
ɐ 8
ɦ 8
ʒ 8
Α@@ 8
Κ@@ 8
Λ@@ 8
Ν@@ 8
ά 8
η@@ 8
θ 8
ν 8
π@@ 8
τ@@ 8
το 8
υ@@ 8
ω 8
Авто@@ 8
Б@@ 8
Ба@@ 8
В@@ 8
Кав@@ 8
Но@@ 8
О@@ 8
Чу@@ 8
аль@@ 8
ар@@ 8
га@@ 8
до@@ 8
й@@ 8
круг 8
ла 8
ма@@ 8
ре 8
фе@@ 8
ч 8
ө@@ 8
յ@@ 8
ն@@ 8
ׁ 8
ק 8
؃ 8
ؕ@@ 8
أول 8
ئة 8
ائج 8
الاقتص@@ 8
التجار@@ 8
التش@@ 8
الخلي@@ 8
الهي@@ 8
اليوم 8
تمي 8
تهم 8
جزيرة 8
جيش 8
حيث 8
رها 8
زة 8
شكل 8
ظهور 8
فيما 8
قاعدة 8
قبة 8
كتب@@ 8
لويس 8
مانية 8
مسؤ@@ 8
نهر 8
وأن 8
والده 8
ولدت 8
ويات 8
وية 8
يرات 8
ځ@@ 8
ڄ 8
ڇ@@ 8
ڠ 8
ۆ@@ 8
ܢ@@ 8
ञ 8
ति 8
नि@@ 8
पि@@ 8
फिर 8
मी@@ 8
मृ@@ 8
वी 8
शे@@ 8
से 8
ा 8
ारी 8
ी 8
ो 8
অ@@ 8
স 8
ਂ@@ 8
ਐ@@ 8
ਡ@@ 8
ં@@ 8
କ 8
ଭ@@ 8
ୋ@@ 8
அ@@ 8
ர 8
ா 8
జ@@ 8
స@@ 8
ാ@@ 8
ു@@ 8
ද 8
ය@@ 8
ර 8
ස@@ 8
ා 8
མ 8
ས 8
ქ@@ 8
ἀ@@ 8
✔ 8
ウ@@ 8
チ@@ 8
人 8
劇@@ 8
和@@ 8
場@@ 8
字 8
安@@ 8
岡@@ 8
湾 8
版@@ 8
百@@ 8
省 8
高@@ 8
이 8
 8
 8
ﭕ@@ 8
ﮙ@@ 8
ﺏ@@ 8
ﻎ 8
ﻜ@@ 8
🔘 8
1980s 7
Ana 7
Arkansas 7
Atl@@ 7
BK 7
Bek@@ 7
Captain 7
Carol@@ 7
Carr@@ 7
Carter 7
Championship 7
Christopher 7
Claude 7
Colomb@@ 7
Conference 7
Connecticut 7
Deutsch@@ 7
Ef@@ 7
Eug@@ 7
Extr@@ 7
GM 7
Georgia 7
Glo@@ 7
Grab@@ 7
Guin@@ 7
Gü@@ 7
Gül@@ 7
Hamburg 7
Harry 7
Hispania 7
Hitler 7
Hop@@ 7
Hub@@ 7
INSE@@ 7
Ili@@ 7
Italia 7
Jewish 7
Journ@@ 7
Liz@@ 7
Lux@@ 7
MTV 7
Malay@@ 7
Manchester 7
Margar@@ 7
Mart@@ 7
Materi@@ 7
Metal 7
Miami 7
Milan 7
Mission 7
Moder@@ 7
Museo 7
Notre 7
Olymp@@ 7
Opera 7
Oy@@ 7
Pays 7
Penn@@ 7
Phone 7
Rac@@ 7
Raymond 7
Rep@@ 7
República 7
Rhein@@ 7
Roger 7
Roman@@ 7
Rosa 7
Route 7
Scar@@ 7
Schwar@@ 7
Scottish 7
Squ@@ 7
Sti@@ 7
Stil@@ 7
Stud@@ 7
Supre@@ 7
Syr@@ 7
Tennessee 7
Theatre 7
Top 7
Toul@@ 7
Türk@@ 7
UEFA 7
Uganda 7
Un 7
Valencia 7
Victor 7
Vladi@@ 7
WWE 7
Wag@@ 7
Waz@@ 7
Yeni 7
Yugoslav@@ 7
Zel@@ 7
aber 7
absor@@ 7
accomp@@ 7
acia 7
acle 7
acquired 7
actual 7
adam@@ 7
addi@@ 7
adem@@ 7
again 7
aint 7
aji@@ 7
algo 7
alien 7
aller 7
aller@@ 7
anny 7
ansi 7
anterior 7
antes 7
app 7
aring 7
army 7
asons 7
association 7
atmos@@ 7
attr@@ 7
atum 7
ayed 7
aña 7
ball@@ 7
band@@ 7
best@@ 7
bil 7
bonne 7
box@@ 7
bunal 7
canal 7
cases 7
cen@@ 7
changed 7
chant 7
ched 7
cher@@ 7
cian 7
communication 7
complet@@ 7
compos@@ 7
conc@@ 7
concept 7
condi@@ 7
cost 7
cover@@ 7
critic@@ 7
cultiv@@ 7
cup@@ 7
currently 7
cycl@@ 7
deb@@ 7
ded@@ 7
dest@@ 7
disambiguation 7
dose 7
dren 7
ead 7
ede 7
egem@@ 7
ehir 7
ehri 7
eight 7
eign@@ 7
elections 7
elev@@ 7
elimin@@ 7
eline 7
elos 7
enced 7
endi@@ 7
entation 7
equival@@ 7
eshi 7
essed 7
estra 7
eventually 7
expan@@ 7
exper@@ 7
exten@@ 7
extrem@@ 7
fas@@ 7
female 7
femin@@ 7
fen 7
fes@@ 7
flav@@ 7
française 7
got@@ 7
haw@@ 7
hid@@ 7
hul@@ 7
human@@ 7
iba 7
ild 7
iled 7
iles 7
ilik 7
imo 7
inclu@@ 7
increase 7
indic@@ 7
industrial 7
intr@@ 7
introduced 7
inu 7
ires 7
isation 7
isco 7
isol@@ 7
itali@@ 7
iwa 7
iye 7
izi@@ 7
jen@@ 7
kana 7
kav@@ 7
kay@@ 7
kia 7
kilom@@ 7
km2 7
kov 7
kshire 7
ları 7
lead 7
lec@@ 7
lez 7
lieutenant 7
logo 7
madan 7
male 7
manufactur@@ 7
marri@@ 7
maxim@@ 7
maz@@ 7
mens@@ 7
mez 7
mobil@@ 7
ms@@ 7
mt@@ 7
nationale 7
need 7
neum@@ 7
newspap@@ 7
ngh@@ 7
notable 7
nus 7
oes 7
often 7
ole@@ 7
ometr@@ 7
omi 7
onald 7
onc@@ 7
once 7
oper 7
orium 7
orn@@ 7
osha 7
oss 7
ostr@@ 7
outside 7
oğlu 7
ped@@ 7
perior 7
personal 7
peti@@ 7
phi@@ 7
placement 7
playing 7
plays 7
positi@@ 7
pped 7
prit 7
project 7
protection 7
py@@ 7
quier 7
radio 7
rag@@ 7
rak@@ 7
rang 7
received 7
relations 7
release 7
requi@@ 7
reun@@ 7
ril 7
room 7
ror 7
run@@ 7
sai 7
sak@@ 7
sala 7
sand@@ 7
senti@@ 7
set@@ 7
sex@@ 7
show 7
situ@@ 7
six@@ 7
sos@@ 7
span 7
stars 7
starting 7
stated 7
stitut@@ 7
subj@@ 7
symb@@ 7
tap@@ 7
teh@@ 7
tien 7
tir@@ 7
tish@@ 7
tly 7
together 7
tradi@@ 7
transfer 7
tras 7
troit 7
tsch@@ 7
tul@@ 7
types 7
ulo 7
una@@ 7
unas 7
urt@@ 7
volume 7
vu 7
wana 7
wanda 7
week 7
went 7
woman 7
ww@@ 7
yab@@ 7
yav@@ 7
zin@@ 7
zur@@ 7
Í@@ 7
Ú@@ 7
ã 7
ã@@ 7
ème 7
ém 7
éni@@ 7
éro@@ 7
ël 7
ï 7
ónom@@ 7
ör 7
ös@@ 7
ø 7
üst@@ 7
ım@@ 7
ş 7
ǐ 7
ɣ@@ 7
ʈ 7
Ι@@ 7
ία 7
ας 7
ηθ@@ 7
ισ@@ 7
ρι@@ 7
τος 7
З@@ 7
Къ@@ 7
П@@ 7
При@@ 7
Ц@@ 7
бе@@ 7
бо@@ 7
ва@@ 7
вер@@ 7
ло@@ 7
мо 7
ни@@ 7
ской 7
стан 7
ти 7
ци@@ 7
ә 7
ָ 7
ֻ@@ 7
ׂ@@ 7
ט 7
ס 7
آسيا 7
أخرى 7
إي@@ 7
الأق@@ 7
الأكبر 7
الأمر 7
الاحترا@@ 7
البري@@ 7
الجه@@ 7
الحدي@@ 7
الرابع 7
الشعب 7
المتح@@ 7
انته@@ 7
تقوم 7
جرة 7
خة 7
رئي@@ 7
ربة 7
رواية 7
صة 7
ظة 7
عامة 7
عدة 7
عليها 7
قوة 7
مصطلح 7
معسكر 7
مقرا@@ 7
نها 7
هات 7
ولكن 7
ولها 7
ٝ 7
ۈ@@ 7
ݜ@@ 7
ݢ@@ 7
कल 7
कि 7
गु@@ 7
गो@@ 7
छ 7
जिद 7
नी 7
ने@@ 7
मन 7
मस 7
महल 7
मी 7
मो@@ 7
ला@@ 7
सर 7
ृ@@ 7
े@@ 7
উ@@ 7
ণ@@ 7
ਏ 7
ਫ@@ 7
ਮ 7
ੋ 7
દ@@ 7
ય@@ 7
ા 7
ુ@@ 7
ଣ@@ 7
ଦ 7
ନ@@ 7
ଲ@@ 7
ଶ@@ 7
ங 7
ன@@ 7
ం@@ 7
అ@@ 7
క 7
ಪ@@ 7
ಲ 7
ಿ 7
ೆ@@ 7
ද@@ 7
า@@ 7
མ@@ 7
ნ@@ 7
ḍ@@ 7
Ḥ@@ 7
ṯ 7
ἡ 7
ῆ@@ 7
ⵉ@@ 7
シ@@ 7
ド@@ 7
ニ 7
ラ@@ 7
中@@ 7
人民@@ 7
台@@ 7
四@@ 7
子 7
朝 7
民@@ 7
清@@ 7
神@@ 7
禮 7
西@@ 7
 7
 7
ﮉ 7
ﺆ@@ 7
ﺔ@@ 7
ﻖ@@ 7
Adel@@ 6
Ame@@ 6
Amsterdam 6
Android 6
Apr@@ 6
Arap@@ 6
Art@@ 6
Assist@@ 6
Avenue 6
Back@@ 6
Barcel@@ 6
Bob 6
Boy 6
Brand@@ 6
Bruce 6
Bu 6
Budap@@ 6
Chall@@ 6
Champions 6
Deutsche 6
Dipl@@ 6
Duke 6
Ethiop@@ 6
Fall@@ 6
Fire 6
Fle@@ 6
Geb@@ 6
GmbH 6
Grim@@ 6
Grund@@ 6
Guill@@ 6
Gustav 6
Hai 6
Hermann 6
Hyp@@ 6
Imp@@ 6
Jacob 6
Johnny 6
Jul@@ 6
Kim@@ 6
Kreis 6
Kreuz@@ 6
Lima 6
Lond@@ 6
Louise 6
Lucas 6
Ludwig 6
Macar@@ 6
Mai 6
Marco 6
Mih@@ 6
Milli@@ 6
Mitte 6
México 6
Nobel 6
Osman@@ 6
Paci@@ 6
Para 6
Partisi 6
Ped@@ 6
Pf@@ 6
Phili@@ 6
Pho@@ 6
Plus 6
Popular 6
Profes@@ 6
Republik 6
Rhy@@ 6
Robin 6
Rod@@ 6
Rugby 6
Ruh@@ 6
Ryan 6
Sam 6
Soc@@ 6
Sound 6
Sph@@ 6
Sport@@ 6
Stim@@ 6
Stra@@ 6
Sult@@ 6
Their 6
Thompson 6
Uruguay 6
VP 6
Villa 6
Walter 6
Wir@@ 6
Yay@@ 6
YouTube 6
Zimbab@@ 6
abo@@ 6
acher 6
across 6
acts 6
adas 6
added 6
addition 6
aircraft 6
airman 6
aison 6
aje 6
ald@@ 6
alth 6
ambi 6
among 6
anah@@ 6
anca 6
anot@@ 6
anted 6
anto 6
aper@@ 6
aret 6
arily 6
asse@@ 6
assemb@@ 6
assist@@ 6
athol@@ 6
atre 6
atür@@ 6
auch@@ 6
aum@@ 6
aume 6
aven@@ 6
avent@@ 6
average 6
azz@@ 6
bang 6
becoming 6
berger 6
bibli@@ 6
bind@@ 6
bis@@ 6
bles 6
cali@@ 6
camp@@ 6
card 6
cast 6
cerem@@ 6
chs 6
cio 6
clo@@ 6
collec@@ 6
combat 6
compr@@ 6
conse@@ 6
dah@@ 6
dans 6
daughter 6
decor@@ 6
desp@@ 6
destroy@@ 6
devant 6
develop@@ 6
died 6
distance 6
eco 6
efs 6
ege 6
eil@@ 6
eing 6
elop@@ 6
emba 6
employ@@ 6
endant 6
enger 6
enter 6
eon@@ 6
eption 6
esch@@ 6
especially 6
estig@@ 6
europ@@ 6
experim@@ 6
failed 6
fau@@ 6
federal 6
fiction 6
fif@@ 6
find 6
flor@@ 6
forms 6
français 6
friend 6
fun@@ 6
fut@@ 6
gave 6
gens 6
genus 6
gos 6
grand 6
gri@@ 6
help 6
higher 6
hospital 6
huri 6
icht 6
idel@@ 6
iev@@ 6
igned 6
igr@@ 6
ikan@@ 6
iko 6
illas 6
illustr@@ 6
ime@@ 6
impl@@ 6
incre@@ 6
iner 6
iner@@ 6
iness 6
integ@@ 6
invas@@ 6
ional 6
iser 6
ising 6
iso 6
issue 6
istem@@ 6
istère 6
itas 6
itung 6
izer 6
joint 6
kata 6
kaz@@ 6
kel 6
khi@@ 6
km@@ 6
kop@@ 6
lati@@ 6
led@@ 6
leist@@ 6
lek@@ 6
lib@@ 6
limited 6
links 6
lois 6
lyn 6
making 6
meeting 6
merc@@ 6
metr@@ 6
mez@@ 6
midt 6
mik@@ 6
mil 6
milit@@ 6
mus 6
must 6
mw@@ 6
nac@@ 6
nah@@ 6
naval 6
naz@@ 6
nik@@ 6
northern 6
nou@@ 6
obi 6
oda 6
oise 6
oking 6
older 6
ombi@@ 6
onda 6
ool 6
opa 6
operated 6
ople 6
opo 6
optera 6
orio 6
otom@@ 6
ott 6
ouvern@@ 6
oza 6
pay 6
pendi@@ 6
pied 6
pig@@ 6
por 6
pour 6
preser@@ 6
princ@@ 6
priv@@ 6
profes@@ 6
professional 6
progres@@ 6
pré@@ 6
quel@@ 6
quin@@ 6
quit@@ 6
raf@@ 6
rang@@ 6
rar@@ 6
rek@@ 6
relativ@@ 6
rep@@ 6
result@@ 6
riv@@ 6
rock 6
rée 6
sah@@ 6
sana 6
scor@@ 6
services 6
ses@@ 6
similar 6
sols 6
spr@@ 6
stage 6
sti 6
sul 6
sung 6
tail 6
teen 6
tek@@ 6
templ@@ 6
terr@@ 6
terror@@ 6
themselves 6
til 6
tiles 6
toria 6
troph@@ 6
tz 6
ubic@@ 6
uda 6
uel 6
uel@@ 6
uku 6
ulia 6
urs@@ 6
usage 6
usse 6
ustr@@ 6
venue 6
vern@@ 6
vert 6
vik@@ 6
wad@@ 6
xima 6
yine 6
young 6
zia 6
zul@@ 6
³ 6
Öster@@ 6
àn 6
àng 6
ân 6
âtre 6
äre 6
éal 6
ép@@ 6
ên 6
ête 6
ù@@ 6
ún@@ 6
û 6
ül@@ 6
ünde 6
üsü 6
ą 6
ıl@@ 6
ł 6
ŋ@@ 6
ǒ@@ 6
ț@@ 6
ȝ 6
ɫ@@ 6
ʁ 6
ʒ@@ 6
ʾ 6
ˌ@@ 6
̄ 6
Ε@@ 6
Κα@@ 6
Λευ@@ 6
Μ@@ 6
Σ 6
ά@@ 6
ί@@ 6
λε@@ 6
μ 6
ο@@ 6
το@@ 6
ω@@ 6
Ар@@ 6
Га@@ 6
Казах@@ 6
Ми@@ 6
Мо@@ 6
Му@@ 6
По@@ 6
ССР 6
Э@@ 6
ан 6
ан@@ 6
би@@ 6
ве@@ 6
во 6
во@@ 6
да@@ 6
ев 6
каз@@ 6
кло@@ 6
му@@ 6
об@@ 6
п@@ 6
па@@ 6
пе@@ 6
ри@@ 6
ров@@ 6
ст@@ 6
сти@@ 6
сы@@ 6
та@@ 6
тар 6
те@@ 6
ти@@ 6
то@@ 6
х 6
ъ 6
լ@@ 6
կ@@ 6
մ@@ 6
տ@@ 6
ְ 6
أة 6
أو@@ 6
ابه 6
اتهم 6
ارية 6
الآن 6
الأف@@ 6
الأمم 6
التاسع 6
الجامعة 6
الجنوب@@ 6
الخي@@ 6
الرغم 6
العض@@ 6
المعد@@ 6
الوسط 6
الوسطى 6
بهم 6
تمت 6
تميز 6
ثلاثة 6
جمعية 6
حالي@@ 6
خيرة 6
داية 6
زب 6
سكر 6
سيتي 6
شيء 6
طية 6
قيقة 6
لترا 6
للإ@@ 6
مدرسة 6
معه 6
مكان@@ 6
نادي 6
واحدة 6
وسکون@@ 6
ولة 6
وهذا 6
وهي 6
يها 6
يًا 6
ٺ@@ 6
ځ 6
ڠ@@ 6
ۗ@@ 6
۟ 6
ܐ@@ 6
ܪ@@ 6
ަ@@ 6
ं@@ 6
अक 6
खों 6
गर 6
चार 6
जि@@ 6
ट 6
तब 6
तर@@ 6
ती 6
दा 6
दास 6
दी@@ 6
नार 6
पुरा@@ 6
मु@@ 6
रुद 6
रे 6
वारा 6
सा 6
सिंह 6
हमारे 6
हिन 6
ी@@ 6
ै 6
ধ@@ 6
ਆ 6
ਇ 6
ਣ 6
ਥ@@ 6
ਧ@@ 6
ੜ 6
ન@@ 6
સ@@ 6
ી@@ 6
ો 6
ଙ 6
ଚ@@ 6
ଵ@@ 6
ୂ@@ 6
ந 6
ய 6
ூ@@ 6
ం 6
ద 6
ప@@ 6
ದ 6
ಶ 6
ೀ@@ 6
ം 6
ന 6
മ 6
ല@@ 6
ජ@@ 6
ප@@ 6
ෙ@@ 6
ේ@@ 6
ག@@ 6
ད 6
ར 6
ལ@@ 6
ྱ@@ 6
် 6
ḇ@@ 6
ḏ 6
ṃ@@ 6
Ἄ@@ 6
ῶ@@ 6
† 6
⁦ 6
⁩ 6
⃣ 6
≈ 6
≥ 6
─ 6
▪ 6
✨ 6
❤ 6
ィ@@ 6
マ 6
ュ@@ 6
三@@ 6
上@@ 6
中國@@ 6
之@@ 6
区 6
南@@ 6
和 6
寺 6
州 6
帝 6
師 6
李@@ 6
江@@ 6
田 6
福@@ 6
科 6
語 6
軍 6
 6
 6
 6
 6
 6
 6
 6
ﭗ 6
ﭰ@@ 6
ﮞ@@ 6
ﺐ@@ 6
ﻙ@@ 6
💙 6
📌 6
Ahmet 5
Ai 5
Although 5
Andreas 5
Anthony 5
Ban 5
Baş@@ 5
Benedi@@ 5
Boys 5
Bras@@ 5
Brasil 5
Broadway 5
Carlo 5
Cen@@ 5
Charlie 5
Chris 5
Colorado 5
Columb@@ 5
Como 5
Compan@@ 5
Cumhuriyeti 5
Dani@@ 5
Desp@@ 5
Durant 5
Eisen@@ 5
En 5
Ere@@ 5
Ern@@ 5
Esc@@ 5
Euro 5
Europa 5
Fach@@ 5
Fame 5
Felipe 5
Final 5
Flam@@ 5
Fot@@ 5
Franz 5
Git@@ 5
Gé@@ 5
Haus@@ 5
Herbert 5
Hist@@ 5
Hugo 5
Hut@@ 5
Höhe 5
Hü@@ 5
Infr@@ 5
Instituto 5
Its 5
Japanese 5
Joe 5
Jor@@ 5
Kais@@ 5
Kongo 5
Kop@@ 5
Kri@@ 5
Lep@@ 5
Lo 5
Margaret 5
Mehmet 5
More 5
Motor 5
Mw@@ 5
NBC 5
Nelson 5
Nh@@ 5
Ni 5
Nieder@@ 5
Nueva 5
Pek@@ 5
Petr@@ 5
Prix 5
Proj@@ 5
Pueb@@ 5
Reich@@ 5
Represent@@ 5
Rica 5
Sebasti@@ 5
Since 5
Single 5
Sos@@ 5
Spar@@ 5
Süd@@ 5
Tanganyika 5
Thom@@ 5
Tierra 5
Tim 5
Toronto 5
Tây 5
Türk 5
Türkiye 5
Vog@@ 5
Wab@@ 5
Wein@@ 5
Winter 5
Ya 5
Yes@@ 5
Zer@@ 5
aat 5
according 5
ached 5
acht 5
activities 5
aday 5
adron 5
ael 5
aft@@ 5
aina 5
ainst 5
aiss@@ 5
ait@@ 5
ajo 5
aki@@ 5
alc@@ 5
alen 5
aliy@@ 5
alta 5
alternati@@ 5
alı 5
amani 5
ambu@@ 5
amed 5
andro 5
arra 5
arte 5
asha 5
asked 5
associ@@ 5
attack 5
atura 5
atz@@ 5
auc@@ 5
ağı 5
baj@@ 5
battle 5
bish@@ 5
biy@@ 5
bli@@ 5
bloc@@ 5
broad@@ 5
cab@@ 5
celle 5
cens@@ 5
cet 5
chor@@ 5
château 5
classes 5
coach 5
collection 5
coming 5
compon@@ 5
conditions 5
confirm@@ 5
consist@@ 5
cu 5
dad@@ 5
dance 5
deleg@@ 5
diers 5
diplom@@ 5
directed 5
doctor@@ 5
ebu 5
eff 5
egen 5
egu@@ 5
eka 5
eke 5
emu 5
enca 5
enden 5
ennis 5
ensemble 5
enst@@ 5
epis@@ 5
eras 5
ern 5
ership 5
erst@@ 5
esha 5
espe@@ 5
evento 5
eş@@ 5
famili@@ 5
fan@@ 5
fast 5
figure 5
films 5
fir@@ 5
fli@@ 5
flora 5
forced 5
fort@@ 5
frac@@ 5
gem@@ 5
gestion 5
got 5
grande 5
gul@@ 5
harmon@@ 5
haus@@ 5
heit 5
himself 5
hindi 5
hizi 5
hof 5
horiz@@ 5
hun@@ 5
iche 5
ichen 5
iden@@ 5
iker 5
iku 5
iliano 5
imiento 5
inae 5
infer@@ 5
initial 5
ino@@ 5
inson 5
instruc@@ 5
invent@@ 5
irani 5
irk 5
ismus 5
isons 5
itt 5
ival@@ 5
izi 5
izo 5
jas 5
jug@@ 5
kaf@@ 5
kah@@ 5
kale 5
khe@@ 5
kis@@ 5
kle@@ 5
lac@@ 5
ladi@@ 5
lak 5
launched 5
laz@@ 5
leading 5
leaving 5
lie@@ 5
longer 5
manuel 5
metal 5
mid 5
millions 5
mina 5
mini 5
minister@@ 5
mix@@ 5
mode 5
moment 5
muh@@ 5
má@@ 5
namo 5
nd 5
nek 5
nership 5
nie 5
ning@@ 5
nomin@@ 5
nos 5
noted 5
nuc@@ 5
numerous 5
ob 5
occu@@ 5
odo 5
ologie 5
omen 5
onto 5
oppos@@ 5
oras 5
ortho@@ 5
osen 5
osi 5
oso 5
oyn@@ 5
particularly 5
parties 5
pec@@ 5
pierre 5
pio 5
pit@@ 5
portun@@ 5
prac@@ 5
present@@ 5
prison@@ 5
promin@@ 5
property 5
proxim@@ 5
publican 5
puis 5
rad@@ 5
rail 5
rain@@ 5
ray@@ 5
raz@@ 5
rebel@@ 5
recht 5
relationship 5
released 5
rement 5
represented 5
results 5
revol@@ 5
rio 5
rom 5
ros 5
running 5
sag@@ 5
sanc@@ 5
sang@@ 5
scher 5
scored 5
season 5
seen 5
seh@@ 5
seri 5
sever@@ 5
shown 5
signific@@ 5
simul@@ 5
sister 5
siz 5
sol 5
sold 5
soon 5
specific 5
speed 5
stations 5
steri@@ 5
stra@@ 5
studies 5
success 5
suit 5
suppl@@ 5
surface 5
suspen@@ 5
tainment 5
tam 5
tard 5
tem 5
tent 5
terms 5
though 5
tik@@ 5
tillo 5
tir 5
titu@@ 5
tof@@ 5
trag@@ 5
trong 5
tín 5
uela 5
ug 5
ume@@ 5
umu 5
unique 5
utenant 5
vel 5
verl@@ 5
vice 5
vir 5
visi@@ 5
visit@@ 5
weg@@ 5
xa 5
yam@@ 5
yana 5
zaman 5
zas 5
zh 5
zones 5
 5
µ@@ 5
Ét@@ 5
État 5
Þ@@ 5
át 5
änder 5
äs@@ 5
éré@@ 5
ét 5
ön 5
üz@@ 5
ă 5
ġ@@ 5
İsk@@ 5
İstanbul 5
ıca 5
ış@@ 5
ķ@@ 5
ő 5
ɑ@@ 5
ɖ 5
ɦ@@ 5
ɲ@@ 5
ʹ 5
ʹ@@ 5
ʾ@@ 5
̥ 5
Υ@@ 5
άρ@@ 5
έλ@@ 5
γκ@@ 5
δία 5
ε@@ 5
ιο 5
κω@@ 5
λ 5
λι@@ 5
ου 5
πολι@@ 5
ρος 5
σία 5
τι@@ 5
ων 5
ό@@ 5
Аб@@ 5
Ала@@ 5
Ж@@ 5
Ра@@ 5
Российской 5
Су@@ 5
Ха@@ 5
Я@@ 5
ата@@ 5
г 5
гу@@ 5
дар@@ 5
евич 5
за 5
и@@ 5
йн 5
ки 5
ку@@ 5
ле@@ 5
ли@@ 5
ма 5
ме@@ 5
ми@@ 5
мир 5
мо@@ 5
мы@@ 5
ний 5
ос@@ 5
ру@@ 5
са@@ 5
си@@ 5
ск@@ 5
сла@@ 5
сто 5
тия 5
ты 5
ур@@ 5
хан@@ 5
ху@@ 5
ша 5
ши 5
ё@@ 5
ғ@@ 5
ւ@@ 5
ך 5
أكثر 5
أمين 5
أيام 5
إص@@ 5
اتها 5
اعدة 5
افية 5
الأد@@ 5
الأغ@@ 5
الإل@@ 5
الإي@@ 5
الجوية 5
السعودية 5
الشمالية 5
العاصمة 5
العالمية 5
العليا 5
الغربي 5
الفلسط@@ 5
القدم 5
القدي@@ 5
المرض 5
المركز 5
اليد 5
بأن 5
براط@@ 5
برى 5
جية 5
حركة 5
حية 5
درة 5
سابقاً 5
سمية 5
سنوات 5
طرة 5
غيرة 5
قرية 5
كاتب 5
كريك@@ 5
للت@@ 5
نفسه 5
والإ@@ 5
والذي 5
وبعد 5
ودة 5
ورية 5
ومة 5
ينيات 5
ٻ 5
ڃ@@ 5
ډ 5
ڍ@@ 5
ڤ 5
ڬ@@ 5
ڭ 5
ۙ@@ 5
ܠ@@ 5
ܫ@@ 5
ܬ@@ 5
ܵ@@ 5
ݙ 5
އ@@ 5
މ@@ 5
ި@@ 5
ު@@ 5
ँ@@ 5
अत 5
अम@@ 5
इस 5
कि@@ 5
कोट 5
ख@@ 5
घ@@ 5
च@@ 5
चित 5
जन 5
जी@@ 5
ञा@@ 5
ट@@ 5
ठ@@ 5
ण@@ 5
तम 5
थ 5
दर 5
दि@@ 5
दी 5
देव 5
धर 5
पर 5
भारत 5
में 5
रम 5
राम 5
राम@@ 5
रू 5
रो@@ 5
लक 5
ले 5
शन 5
शान 5
शि@@ 5
सी 5
ह 5
हे@@ 5
ार@@ 5
ि 5
ि@@ 5
िला 5
ू 5
े 5
ौ@@ 5
२@@ 5
ও@@ 5
ঞ 5
ট 5
শ 5
হ 5
ু 5
ਣ@@ 5
ે 5
્ 5
ଁ 5
ଂ@@ 5
ଓ 5
ଡ 5
ଥ@@ 5
ଧ@@ 5
ପ 5
ଯ@@ 5
ଳ@@ 5
ଷ 5
ସ 5
଼ 5
ୀ@@ 5
ୁ 5
ୟ@@ 5
ஜ@@ 5
ண@@ 5
ற 5
గ@@ 5
త 5
య@@ 5
వ@@ 5
హ 5
హ@@ 5
ి 5
ీ 5
ಬ@@ 5
ರ 5
ಹ@@ 5
ത@@ 5
യ@@ 5
വ@@ 5
ත 5
ལ 5
ོ 5
ྒ@@ 5
კ@@ 5
ტ@@ 5
ჭ@@ 5
ხ@@ 5
ṛ@@ 5
Ἀ@@ 5
Ἡ@@ 5
ῦ 5
‛ 5
⅛ 5
↓ 5
↔ 5
┄ 5
■ 5
♥ 5
ⵔ@@ 5
《 5
イ@@ 5
ジ@@ 5
デ@@ 5
ト 5
バ@@ 5
マ@@ 5
ミ@@ 5
ル@@ 5
レ@@ 5
下 5
会@@ 5
信@@ 5
华@@ 5
南 5
回@@ 5
基@@ 5
大 5
富@@ 5
東@@ 5
水 5
江 5
王 5
理 5
白@@ 5
级 5
西 5
都@@ 5
金@@ 5
의 5
 5
 5
 5
 5
 5
 5
ﺀ@@ 5
ﺓ@@ 5
ﺬ 5
ﻍ 5
🏆 5
👉 5
1,5 4
7. 4
Actu@@ 4
Adolf 4
Ago@@ 4
Alex@@ 4
Alman 4
Anc@@ 4
Andy 4
Auch 4
Ağ@@ 4
Bey 4
Bill@@ 4
Boeing 4
Burg@@ 4
Bắc 4
Bộ 4
CBS 4
Castilla 4
Catal@@ 4
Centro 4
Chi 4
Conserv@@ 4
Corpor@@ 4
Crist@@ 4
DJ 4
Dau@@ 4
Dek@@ 4
Demokrati@@ 4
Dres@@ 4
Eb@@ 4
Edu@@ 4
Ek@@ 4
Eric 4
Europ@@ 4
Famili@@ 4
Fernández 4
Ferr@@ 4
Fes@@ 4
Ford 4
Frankfurt 4
Fé@@ 4
GT 4
Geschichte 4
Gramm@@ 4
Gru@@ 4
Gusta@@ 4
Hamb@@ 4
Hans 4
Hoh@@ 4
Ian 4
Indon@@ 4
Institut 4
Jahr@@ 4
Jane 4
Jazz 4
Jeux 4
Jim@@ 4
Jonathan 4
Kelly 4
Kend@@ 4
Kiy@@ 4
Krieg@@ 4
Leben 4
Leipzig 4
Leopol@@ 4
Lincol@@ 4
Lok@@ 4
Londres 4
Mary@@ 4
Mim@@ 4
Miss 4
Mül@@ 4
NCA@@ 4
National@@ 4
Orch@@ 4
Osmanlı 4
Pablo 4
Panz@@ 4
Patrick 4
Phi 4
Philadelphia 4
Pictures 4
Play 4
Plaza 4
Preu@@ 4
Pub@@ 4
Rais 4
René 4
Rest@@ 4
Rit@@ 4
Rolling 4
Rudolf 4
SK 4
SV 4
Samuel 4
Sarah 4
Savaşı 4
Serv@@ 4
Show 4
Sin 4
Staats@@ 4
Stal@@ 4
Stand 4
Theod@@ 4
USD 4
Unter@@ 4
Verte@@ 4
Viet@@ 4
Vinc@@ 4
Việt 4
Vladimir 4
Wander@@ 4
Way@@ 4
Welt 4
Wilhel@@ 4
Wilhelm 4
Wolf 4
Yıl@@ 4
abier@@ 4
absol@@ 4
accep@@ 4
achen 4
actu@@ 4
afe 4
afu@@ 4
agi@@ 4
ahl 4
ahn@@ 4
aily 4
aises 4
alik@@ 4
alled 4
allo 4
allow 4
allow@@ 4
alogue 4
although 4
altitude 4
alus 4
amia 4
amos 4
ampi@@ 4
anak@@ 4
animal 4
anno@@ 4
ansa 4
anst@@ 4
appearance 4
applic@@ 4
appointed 4
aray 4
arist@@ 4
aron 4
ará 4
arş@@ 4
asser 4
ativa 4
atta@@ 4
auer 4
ause 4
avier 4
aving 4
avu 4
awarded 4
azu 4
aï@@ 4
ağ 4
aşa 4
bao 4
bass@@ 4
becom@@ 4
benef@@ 4
blan@@ 4
bois 4
brun@@ 4
bul 4
bé@@ 4
campaign 4
campus 4
cas 4
castle 4
celebr@@ 4
ceph@@ 4
chart 4
chev@@ 4
chn@@ 4
cht 4
cim@@ 4
close 4
comman@@ 4
commerce 4
companies 4
competed 4
concer@@ 4
consid@@ 4
considered 4
consult@@ 4
consum@@ 4
continue 4
continued 4
cost@@ 4
coul@@ 4
cover 4
covered 4
create 4
created 4
cula 4
cultur@@ 4
có@@ 4
d. 4
dae 4
day@@ 4
defe@@ 4
dej@@ 4
dern 4
desc@@ 4
described 4
det 4
determin@@ 4
diagn@@ 4
did@@ 4
dispos@@ 4
disput@@ 4
dist@@ 4
divis@@ 4
document@@ 4
dö@@ 4
ebe 4
ebook 4
eces 4
echo 4
egas 4
egos 4
einer 4
eiro 4
elen@@ 4
elin 4
enda 4
endorf 4
enem@@ 4
enk@@ 4
enko 4
ensa 4
entale 4
enti 4
entre@@ 4
enzo 4
eres 4
erne@@ 4
eros 4
erte 4
esen 4
fav@@ 4
fest@@ 4
financi@@ 4
fond@@ 4
formes 4
für 4
gare 4
gebung 4
gesch@@ 4
gran@@ 4
gru@@ 4
gü@@ 4
hac@@ 4
hesh@@ 4
hija 4
hip@@ 4
histór@@ 4
husband 4
ibi 4
ideas 4
igner 4
iler@@ 4
ilien 4
ilit@@ 4
ilities 4
imar@@ 4
imen 4
importance 4
inci 4
individual 4
indu@@ 4
inin 4
initi@@ 4
internation@@ 4
introduc@@ 4
invol@@ 4
ision@@ 4
isiones 4
itable 4
itar 4
itter 4
iw@@ 4
iza 4
iç@@ 4
kalan 4
kim 4
kiye 4
kri@@ 4
kum 4
kum@@ 4
kup@@ 4
kus 4
köy 4
lac 4
legisl@@ 4
leri 4
lerin 4
lig 4
lil@@ 4
lio 4
loi 4
lon@@ 4
majority 4
mam@@ 4
mann@@ 4
mant@@ 4
married 4
mass@@ 4
mau@@ 4
mess@@ 4
metre 4
mich@@ 4
miles 4
minister 4
mont@@ 4
months 4
mr@@ 4
mé 4
mün@@ 4
naye 4
nea 4
near@@ 4
neh@@ 4
nen 4
nicht 4
nun 4
odes 4
okia 4
oku@@ 4
olf 4
ologi@@ 4
omp@@ 4
ondo 4
onen 4
ophie 4
orf 4
origin@@ 4
orod@@ 4
pal 4
particip@@ 4
particular 4
passed 4
ped 4
pen 4
pers 4
phia 4
pino 4
plans 4
polé@@ 4
pool 4
ported 4
posterior 4
prince 4
pro 4
programme 4
publication 4
publik 4
purch@@ 4
quer@@ 4
quez 4
radic@@ 4
rail@@ 4
raine 4
reached 4
reco@@ 4
recog@@ 4
recorded 4
reform 4
registr@@ 4
relati@@ 4
remain@@ 4
required 4
reven@@ 4
route 4
royal 4
rug@@ 4
rég@@ 4
rés@@ 4
sans 4
sche@@ 4
selec@@ 4
seri@@ 4
sev@@ 4
sibl@@ 4
sinh 4
sition 4
statisti@@ 4
sult@@ 4
superior 4
tained 4
taines 4
taire 4
tec@@ 4
tehsil 4
temple 4
terior 4
thel@@ 4
toire 4
tour 4
tradition 4
training 4
trich@@ 4
trop 4
turn 4
tá 4
ually 4
udi 4
uerto 4
uke 4
umi@@ 4
umo 4
upe 4
urch 4
use@@ 4
usu 4
usu@@ 4
util@@ 4
utz 4
uu 4
v. 4
vall@@ 4
vas 4
vend@@ 4
versions 4
vio 4
voix 4
vu@@ 4
wali@@ 4
wers 4
west@@ 4
wife 4
wit@@ 4
xon 4
xu@@ 4
yans@@ 4
zil@@ 4
zt 4
¤ 4
Ó 4
Ör@@ 4
Über@@ 4
ám@@ 4
áng 4
áo 4
äd@@ 4
ät@@ 4
éd@@ 4
édé 4
érie 4
ís@@ 4
ôle 4
ög@@ 4
ù 4
üm 4
üs@@ 4
þ@@ 4
Đ@@ 4
Đài 4
Đại 4
Ğ@@ 4
İ 4
ıdır 4
ıl 4
ılar 4
ıs@@ 4
ŏ 4
ș 4
ɐ@@ 4
ɒ@@ 4
ɣ 4
ɽ@@ 4
ʌ@@ 4
ʰ 4
ʱ 4
˚ 4
̔ 4
̕ 4
̪ 4
Αρ@@ 4
Γ@@ 4
Δ 4
Δ@@ 4
Τ@@ 4
αί@@ 4
αι@@ 4
αμ@@ 4
αρ@@ 4
γ 4
δρόμ@@ 4
εία 4
ζ@@ 4
ην@@ 4
ια 4
κι 4
μα 4
μα@@ 4
ξ 4
οι 4
οπ@@ 4
ου@@ 4
ού@@ 4
πτ@@ 4
ρα 4
ριστ@@ 4
σα 4
σι@@ 4
της 4
του 4
φ 4
χ@@ 4
ύ@@ 4
ώ@@ 4
І@@ 4
Ј@@ 4
Ад@@ 4
Бал@@ 4
Бе@@ 4
Бо@@ 4
Мар@@ 4
На@@ 4
Народ@@ 4
Пер@@ 4
Петро@@ 4
Република 4
Си@@ 4
Федерации 4
Че@@ 4
Ш@@ 4
Ю@@ 4
ба 4
би 4
бу@@ 4
воен@@ 4
ге@@ 4
ди 4
до 4
ду@@ 4
дя@@ 4
зат 4
из@@ 4
йская 4
ке@@ 4
лия 4
лс 4
ман@@ 4
ор@@ 4
по 4
рат 4
рия 4
ро@@ 4
ры@@ 4
ст 4
сь@@ 4
ть 4
цар@@ 4
ция 4
эн@@ 4
ї 4
љ@@ 4
ѣ@@ 4
һ@@ 4
Հ@@ 4
ֹ 4
ֿ@@ 4
ג 4
ז 4
ץ 4
أربعة 4
أست@@ 4
أكتوبر 4
أول@@ 4
ائية 4
ادية 4
اسة 4
اصة 4
الأط@@ 4
الأي@@ 4
الثورة 4
الجديد 4
الجديدة 4
الحزب 4
الحياة 4
الشب@@ 4
الصي@@ 4
العالمي 4
العامة 4
العلمية 4
القان@@ 4
اللغة 4
المحي@@ 4
المرك@@ 4
المعلومات 4
الوطني 4
امية 4
بالأ@@ 4
بحاث 4
بدأ 4
بطة 4
تأث@@ 4
جمهورية 4
ديدة 4
زمة 4
زيادة 4
ستة 4
سطس 4
سلسلة 4
سمة 4
سمى 4
طوي@@ 4
عنها 4
عها 4
كذلك 4
كية 4
كيلو@@ 4
مشيخ@@ 4
مشيخة 4
هناك 4
وذلك 4
ولكن@@ 4
ومع 4
ونة 4
ياً 4
ينية 4
ٱ 4
ڏ 4
ړ 4
ږ@@ 4
ښ 4
ڱ 4
ۇ@@ 4
ۋ@@ 4
ۖ@@ 4
ܛ@@ 4
ܳ@@ 4
ު 4
ऋ@@ 4
कथा@@ 4
कर@@ 4
गढ 4
गा@@ 4
ङ 4
जन@@ 4
जा 4
झ@@ 4
टूबर 4
ढ@@ 4
णा 4
तक 4
ते@@ 4
दुर 4
देव@@ 4
दै@@ 4
दो@@ 4
धी 4
नव@@ 4
नाग@@ 4
नौ@@ 4
पण 4
पुर 4
पूर 4
पो@@ 4
भारतीय 4
भो@@ 4
मन@@ 4
मान 4
रति@@ 4
रवा@@ 4
राज@@ 4
रि@@ 4
री@@ 4
रो 4
लाल 4
लो 4
विश 4
विष 4
वेद 4
ष@@ 4
सी@@ 4
हार 4
हु@@ 4
हो@@ 4
॰ 4
ঙ@@ 4
ছ@@ 4
ট@@ 4
থ@@ 4
প 4
ਖ 4
ਘ@@ 4
ਠ@@ 4
ਹ 4
ੂ 4
ડ@@ 4
ણ 4
મ@@ 4
હ@@ 4
ଇ@@ 4
ଏ@@ 4
ଜ 4
ଞ 4
ବ 4
ଶ 4
ୃ@@ 4
ஆ@@ 4
இ@@ 4
ல 4
ழ 4
ீ 4
డ@@ 4
బ@@ 4
శ 4
స 4
ూ@@ 4
ె 4
ే@@ 4
ಕ 4
ಗ 4
ಶ@@ 4
ಾ 4
ട@@ 4
ണ@@ 4
ං@@ 4
ඩ@@ 4
ම 4
ය 4
ේ 4
ො@@ 4
ง 4
่ 4
้ 4
ཀ@@ 4
ན 4
ི@@ 4
ུ 4
ེ 4
ྲ@@ 4
န 4
დ@@ 4
პ@@ 4
ს 4
ც@@ 4
አ@@ 4
ገ@@ 4
រ@@ 4
ḏ@@ 4
ṯ@@ 4
Ἐ@@ 4
‫ 4
№ 4
∛ 4
✿ 4
ⲁ@@ 4
ⵍ@@ 4
ⵎ@@ 4
ⵏ@@ 4
》 4
ア 4
ェ@@ 4
ク 4
ク@@ 4
コ@@ 4
ル 4
・ 4
中央@@ 4
主 4
京@@ 4
仁 4
体@@ 4
兵 4
军 4
北 4
北@@ 4
历 4
原 4
发@@ 4
周@@ 4
夏 4
宮@@ 4
尾 4
山 4
島 4
川@@ 4
工@@ 4
帝@@ 4
广@@ 4
文@@ 4
星@@ 4
曆 4
月@@ 4
木@@ 4
洋 4
海 4
漫@@ 4
熊 4
特@@ 4
球@@ 4
琉@@ 4
田@@ 4
祖 4
老@@ 4
者 4
行政@@ 4
豆@@ 4
运动 4
道 4
長@@ 4
青@@ 4
馬@@ 4
龍 4
가@@ 4
강@@ 4
국@@ 4
민@@ 4
아@@ 4
원 4
조@@ 4
 4
 4
 4
 4
 4
 4
 4
 4
 4
 4
 4
 4
 4
ﭥ@@ 4
ﭹ@@ 4
ﮰ 4
ﮱ 4
ﺁ 4
ﺊ 4
ﻵ@@ 4
2,5 3
2. 3
4,5 3
5.000 3
ATP 3
Academia 3
Alem@@ 3
Alter@@ 3
Amat@@ 3
Americ@@ 3
América 3
Ander@@ 3
Andre@@ 3
Andrea 3
Arap 3
Arsen@@ 3
Athle@@ 3
Au 3
Ayn@@ 3
Best@@ 3
Bien 3
Billy 3
Ble@@ 3
Brian 3
Buch 3
Büyük 3
Büyük@@ 3
Cand@@ 3
Casa 3
Castro 3
Catholic 3
Championships 3
Chu 3
Cá@@ 3
Daha 3
Dave 3
Dok@@ 3
Dollar 3
Dop@@ 3
Düssel@@ 3
Eg@@ 3
Ehr@@ 3
Ein 3
Ej@@ 3
Elisabeth 3
Ener@@ 3
Epis@@ 3
Erd@@ 3
Escu@@ 3
Españ@@ 3
Eurovision 3
Fall 3
Feld@@ 3
Fern@@ 3
Films 3
Flug@@ 3
Following 3
Found@@ 3
Franc@@ 3
Franco 3
Frei@@ 3
Gabri@@ 3
Gary 3
Gast@@ 3
Girls 3
Gle@@ 3
Gordon 3
Griff@@ 3
Grou@@ 3
Hein@@ 3
Heinrich 3
Hern@@ 3
Herr@@ 3
Historia 3
Historic 3
Hosp@@ 3
Hük@@ 3
Ih@@ 3
Infan@@ 3
Inform@@ 3
Ingen@@ 3
Isra@@ 3
Jay 3
Jew@@ 3
Kama 3
Kari@@ 3
Kauf@@ 3
Kent@@ 3
Kentucky 3
Kultur@@ 3
Kup@@ 3
Lan 3
Lebens@@ 3
Liverpool 3
Luft@@ 3
Mab@@ 3
Mayor 3
Mike 3
Minh 3
Minister@@ 3
Muhammed 3
Müller 3
Nacional 3
Napo@@ 3
Nazi 3
Nel@@ 3
Né@@ 3
Ordu 3
Oscar 3
Otto 3
Philadel@@ 3
Politi@@ 3
Pop 3
Queens@@ 3
Queensland 3
Rafael 3
Rek@@ 3
Rey 3
Roll@@ 3
Royaume 3
Rug@@ 3
Rä@@ 3
SG 3
SPD 3
Salz@@ 3
Santos 3
Schwer@@ 3
Selb@@ 3
Sevilla 3
Sie@@ 3
Sol 3
Spor@@ 3
Sport 3
Ster@@ 3
Steve 3
Studios 3
Stur@@ 3
Sus 3
Sä@@ 3
Team 3
Tiên 3
Trich@@ 3
Trung 3
Twitter 3
Under 3
Université 3
Uru@@ 3
Uta@@ 3
Uy@@ 3
Version 3
Vier@@ 3
Volks@@ 3
Waf@@ 3
Waj@@ 3
Wali@@ 3
Warner 3
Wiener 3
Winter@@ 3
Wolfgang 3
Wür@@ 3
Württemberg 3
Yap@@ 3
Yug@@ 3
Zeit 3
Zeit@@ 3
abandon@@ 3
abara 3
abb@@ 3
abras 3
acer@@ 3
acias 3
adap@@ 3
additional 3
adil@@ 3
adj@@ 3
affa@@ 3
afor@@ 3
afrika 3
ajes 3
ajwa 3
aka@@ 3
akawa 3
alco@@ 3
alier 3
aliment@@ 3
alise 3
alition 3
aliye@@ 3
alles 3
allowed 3
already 3
alto 3
ample 3
amt 3
ancak 3
anchi 3
ancia 3
angeb@@ 3
anger@@ 3
anie 3
anistan 3
anni 3
anthus 3
anzi 3
appar@@ 3
appeared 3
approxim@@ 3
aque 3
arded 3
argum@@ 3
arro@@ 3
arse 3
arten 3
arı 3
ased 3
assistant 3
associated 3
ateur 3
ations@@ 3
attle 3
atu@@ 3
aub@@ 3
auen 3
aun 3
austr@@ 3
awala 3
ayd@@ 3
ayı 3
azo 3
aître 3
año 3
aş 3
aşı 3
baba 3
bare 3
baş@@ 3
began 3
beginning 3
behind 3
bell 3
bern@@ 3
bey@@ 3
bomb@@ 3
bou@@ 3
brit@@ 3
buildings 3
büt@@ 3
cadre 3
cause 3
celles 3
chall@@ 3
chang@@ 3
chte 3
cide 3
claim@@ 3
clar@@ 3
closed 3
coloc@@ 3
comes 3
commerci@@ 3
concep@@ 3
conoc@@ 3
contact 3
contribu@@ 3
contribut@@ 3
contro@@ 3
correc@@ 3
cred@@ 3
cros@@ 3
cru@@ 3
daf@@ 3
dak@@ 3
decided 3
departamento 3
ders@@ 3
descend@@ 3
designed 3
deur 3
deutscher 3
dice 3
distinc@@ 3
distingu@@ 3
diver@@ 3
dres 3
département 3
dér@@ 3
dül@@ 3
dır@@ 3
echt 3
eci 3
ecu@@ 3
edad 3
eder 3
egel 3
eger 3
eget@@ 3
eim@@ 3
either 3
elek@@ 3
elem@@ 3
elik 3
eln 3
emann 3
emas 3
embre 3
enen 3
enten 3
entos 3
entre 3
eos 3
eps 3
erc@@ 3
erin 3
esos 3
espace 3
esper@@ 3
estas 3
estruc@@ 3
eve 3
evi 3
evidence 3
exclus@@ 3
existence 3
expos@@ 3
extra@@ 3
ezi 3
families 3
farm@@ 3
fem@@ 3
femme 3
feu@@ 3
fit 3
folia 3
franç@@ 3
fried 3
further 3
games 3
gaz@@ 3
geh@@ 3
gibi 3
giz@@ 3
graf@@ 3
grand@@ 3
greg@@ 3
grá@@ 3
gun@@ 3
gén@@ 3
gó@@ 3
hao 3
hava 3
heav@@ 3
heb@@ 3
hio 3
hips 3
histoire 3
hoch@@ 3
honneur 3
househ@@ 3
houses 3
ibu 3
ici 3
ident@@ 3
ien@@ 3
ient 3
ieved 3
ifa 3
ifs 3
ifu 3
ihe 3
ilçe 3
imbo 3
impro@@ 3
incia 3
inden 3
inet 3
inger@@ 3
ingi 3
inning 3
instead 3
interior 3
interpret@@ 3
inté@@ 3
iria 3
isen 3
isis 3
isra@@ 3
issen 3
isses 3
istin 3
iter 3
jamais 3
jina 3
juni@@ 3
junto 3
k. 3
kamp@@ 3
khai 3
khu 3
khu@@ 3
kim@@ 3
kit@@ 3
kiş@@ 3
koş@@ 3
kut@@ 3
kuz@@ 3
kwa 3
ký 3
lande 3
lang@@ 3
langen 3
lao 3
leh@@ 3
lek 3
leng@@ 3
leur 3
liament 3
lich@@ 3
liche 3
liga 3
liqu@@ 3
lived 3
lose 3
luk 3
lun@@ 3
maf@@ 3
maj@@ 3
mana 3
mang 3
mang@@ 3
manifest@@ 3
mec@@ 3
mee 3
mehr 3
meil@@ 3
mern 3
metro 3
mf@@ 3
milli@@ 3
mis 3
mite 3
mitt@@ 3
moder@@ 3
modern@@ 3
monaster@@ 3
monde 3
monum@@ 3
most@@ 3
mother 3
motiv@@ 3
mula 3
mut 3
muz@@ 3
mış 3
naci@@ 3
nek@@ 3
neu 3
ney@@ 3
nez 3
nord@@ 3
norm@@ 3
nous 3
novel@@ 3
nt 3
oblig@@ 3
odi 3
oft 3
okul@@ 3
olds 3
olympi@@ 3
olympiques 3
onnes 3
ono 3
onstr@@ 3
onte 3
onu 3
onz@@ 3
operations 3
ophyl@@ 3
opin@@ 3
opus 3
oran@@ 3
oration 3
orden 3
organisation 3
orta 3
osu 3
oya 3
pand@@ 3
partam@@ 3
partido 3
pek 3
perf@@ 3
perman@@ 3
pers@@ 3
perten@@ 3
pir@@ 3
pod@@ 3
poin@@ 3
pointed 3
pom@@ 3
pop 3
portation 3
porting 3
poss@@ 3
post@@ 3
presented 3
previously 3
primer 3
prior 3
prol@@ 3
provincia 3
qualif@@ 3
quer 3
quy@@ 3
quốc 3
raised 3
raum 3
rech@@ 3
redu@@ 3
referred 3
remained 3
reve@@ 3
rir 3
roman 3
roy@@ 3
rue 3
rugby 3
rus@@ 3
rá@@ 3
réc@@ 3
régi@@ 3
saba 3
sahi@@ 3
saire 3
sali@@ 3
schaf@@ 3
sched@@ 3
schwe@@ 3
sector 3
selected 3
senior 3
sent@@ 3
served 3
seu@@ 3
seven 3
signed 3
significant 3
sik@@ 3
singer 3
siy@@ 3
sn@@ 3
sola 3
specif@@ 3
spect@@ 3
spent 3
spi@@ 3
spons@@ 3
stad@@ 3
stant@@ 3
suite 3
surround@@ 3
taking 3
tari 3
tay 3
tay@@ 3
techni@@ 3
tee 3
tema 3
temp@@ 3
tend@@ 3
tepe 3
teri 3
terie 3
tero 3
tima 3
timents 3
tish 3
tiy@@ 3
tours 3
towards 3
town@@ 3
tracks 3
transform@@ 3
tung 3
tura 3
tut@@ 3
ufac@@ 3
uga 3
uki 3
urb@@ 3
urban@@ 3
uren 3
uto 3
utt@@ 3
uwe@@ 3
vania 3
vet 3
views 3
villa 3
viv@@ 3
volun@@ 3
voy@@ 3
ví@@ 3
wah@@ 3
wahili 3
waj@@ 3
wes@@ 3
wie 3
worked 3
xim@@ 3
xo@@ 3
yani 3
yao 3
yay@@ 3
yaş@@ 3
ydi 3
yen@@ 3
ymn@@ 3
yok@@ 3
zek@@ 3
zentrum 3
zile 3
zus@@ 3
Ál@@ 3
Â@@ 3
È@@ 3
Ó@@ 3
Ö 3
Öz@@ 3
Ü 3
Üniversitesi 3
äm@@ 3
är 3
è 3
ète 3
és@@ 3
éti@@ 3
été 3
être 3
ías 3
ín@@ 3
ò 3
ón@@ 3
öh@@ 3
úa 3
üb@@ 3
üh@@ 3
ük@@ 3
ür 3
üş@@ 3
Ć@@ 3
Đông 3
đa 3
Ē@@ 3
ě 3
ğ 3
ĩ@@ 3
Ī@@ 3
İs@@ 3
İz@@ 3
ısı 3
ıt 3
ıy@@ 3
ız 3
ız@@ 3
ış 3
ň@@ 3
Ş 3
ŭ 3
ų 3
ž 3
Ə@@ 3
ǐ@@ 3
ɓ 3
ʋ@@ 3
ʎ@@ 3
ʘ 3
Α 3
Δημοκρατία 3
Ζ@@ 3
Θε@@ 3
Λε@@ 3
Ο@@ 3
Παρ@@ 3
Σω@@ 3
Φιλ@@ 3
άδ@@ 3
άκ@@ 3
άπ@@ 3
ή@@ 3
ίας 3
αβ@@ 3
αρ 3
αστ@@ 3
αφ@@ 3
βρα@@ 3
εί@@ 3
εια 3
εν@@ 3
εχ@@ 3
θάλασσα 3
ι@@ 3
ιά 3
ις 3
μά@@ 3
με@@ 3
να@@ 3
ξ@@ 3
ούς 3
ρα@@ 3
ρο@@ 3
ρον 3
τε@@ 3
τερ@@ 3
τη 3
τη@@ 3
τρ@@ 3
τρι@@ 3
υζ@@ 3
ων@@ 3
Александ@@ 3
Бу@@ 3
Бур@@ 3
Ви@@ 3
Г 3
Да@@ 3
За 3
За@@ 3
Ин@@ 3
Ис@@ 3
Кам@@ 3
Кар@@ 3
Кра@@ 3
Красно@@ 3
Л@@ 3
Ле@@ 3
Май@@ 3
П 3
Пре@@ 3
Рос@@ 3
России 3
С 3
Север@@ 3
Ту@@ 3
У 3
Федера@@ 3
Хер@@ 3
Цент@@ 3
Ч@@ 3
Чер@@ 3
ам@@ 3
б 3
вание 3
ват@@ 3
вет 3
вина 3
ге 3
года 3
де 3
дия 3
ен@@ 3
жи@@ 3
зи@@ 3
зиден@@ 3
зо@@ 3
исто@@ 3
ита 3
ите@@ 3
йский 3
ки@@ 3
кий 3
ко@@ 3
кра@@ 3
ли 3
линия 3
лы@@ 3
ль 3
льский 3
мен@@ 3
му 3
не 3
ной 3
ные 3
област 3
окру@@ 3
оло@@ 3
он 3
от 3
пад@@ 3
рал 3
револю@@ 3
ред 3
рий 3
рович 3
рус@@ 3
рь@@ 3
си 3
сия 3
ски 3
ста@@ 3
стана 3
сто@@ 3
стро@@ 3
сть 3
су@@ 3
тив@@ 3
ты@@ 3
ф 3
хан 3
хар@@ 3
хи@@ 3
цкий 3
чат@@ 3
че 3
чи 3
чка 3
чный 3
чо@@ 3
ше@@ 3
ым 3
ю 3
ю@@ 3
ѝ 3
ў@@ 3
қ 3
ҡ@@ 3
ң@@ 3
ұ@@ 3
Ӏ@@ 3
Ө@@ 3
Տ@@ 3
գ@@ 3
զ@@ 3
ղ@@ 3
պ@@ 3
ր 3
ֿ 3
؜ 3
أكبر 3
أمام 3
أولا@@ 3
أيضا 3
أيضاً 3
ؤلاء 3
إسرائيل 3
إليها 3
ارتف@@ 3
الإعلا@@ 3
الإن@@ 3
البشر@@ 3
البعض 3
التاس@@ 3
الثالثة 3
الخامس 3
الدولة 3
الزرا@@ 3
الساح@@ 3
السك@@ 3
الطريق 3
العائ@@ 3
العسك@@ 3
الغذ@@ 3
الكث@@ 3
المتحدة 3
المرأة 3
المسر@@ 3
المشا@@ 3
المشتر@@ 3
المنطقة 3
النباتات 3
الهند@@ 3
الوزراء 3
تأس@@ 3
تحدث 3
تقديم 3
تقع 3
تلال 3
تمثل 3
جهاز 3
حلة 3
حياة 3
خفض 3
خمسة 3
دوية 3
ذهب 3
راضي 3
ربية 3
رته 3
روبرت 3
سمح 3
شركة 3
طفال 3
عشرة 3
عشرين 3
علومات 3
غط 3
قصة 3
كترو@@ 3
كتور 3
لأن 3
لاعب 3
لتح@@ 3
لمد@@ 3
معركة 3
ملكة 3
منطقة 3
منية 3
مها 3
مهورية 3
نسبة 3
نهاية 3
هيئة 3
وفاة 3
وكانت 3
يعرف 3
ټ 3
ڇ 3
ڦ 3
ګ 3
ۜ@@ 3
ܓ@@ 3
ܡ@@ 3
ܣ@@ 3
ކ@@ 3
ވ@@ 3
ލ@@ 3
ސ@@ 3
ंग 3
ंत 3
अधि@@ 3
अव@@ 3
आन 3
ई 3
ई@@ 3
ऐ@@ 3
ओ 3
करण 3
कृष 3
चन 3
चल 3
जय 3
जर 3
जु@@ 3
टी@@ 3
टे@@ 3
ठी 3
णु 3
तानी 3
तु@@ 3
तू@@ 3
ते 3
था@@ 3
थी 3
दान 3
दार 3
दे@@ 3
देवी 3
देश 3
दोलन 3
ध 3
नग@@ 3
निर 3
नी@@ 3
नो 3
पद 3
पी@@ 3
पै@@ 3
बाद 3
बि@@ 3
भा@@ 3
मण 3
मर 3
मरा@@ 3
मि@@ 3
मुंबई 3
मू@@ 3
मै@@ 3
यस 3
यु@@ 3
यू@@ 3
ये@@ 3
यो@@ 3
योग 3
रत 3
रह 3
राजा 3
रात 3
रिया@@ 3
लम 3
लस 3
लि 3
लि@@ 3
लिए 3
ले@@ 3
ळ@@ 3
वंश 3
वन 3
वस 3
वा 3
वै@@ 3
शक 3
शी 3
षा 3
षेत 3
संत 3
सत 3
सो@@ 3
हा@@ 3
हो 3
ान 3
ित 3
िया 3
ूर 3
ै@@ 3
ঁ@@ 3
খ 3
থ 3
ষ@@ 3
ো 3
৭@@ 3
ਈ 3
ਉ 3
ਏ@@ 3
ં 3
ક@@ 3
ણ@@ 3
દ 3
ન 3
પ@@ 3
લ@@ 3
ી 3
ો@@ 3
ଅ@@ 3
ଆ@@ 3
ଇ 3
ଲ 3
ଳ 3
ୟ 3
உ@@ 3
ஸ@@ 3
ீ@@ 3
ொ@@ 3
ఆ@@ 3
చ@@ 3
ట@@ 3
ణ 3
ధ 3
న 3
ప 3
ష 3
ీ@@ 3
ో@@ 3
ಅ@@ 3
ಎ@@ 3
ಜ@@ 3
ಟ@@ 3
ಡ@@ 3
ಧ@@ 3
ಷ@@ 3
ക 3
ത 3
ന@@ 3
പ 3
ര@@ 3
ല 3
ള@@ 3
ി 3
අ@@ 3
ක 3
ච@@ 3
ත@@ 3
ධ@@ 3
ව 3
ස 3
ී 3
ෝ@@ 3
ก 3
ป@@ 3
ย@@ 3
། 3
ང@@ 3
ཐ@@ 3
ཕ@@ 3
ཤ@@ 3
ི 3
ྐ@@ 3
ྗ@@ 3
ྩ@@ 3
မ@@ 3
ာ 3
გ@@ 3
ფ@@ 3
ል 3
መ@@ 3
ማ@@ 3
ሥ@@ 3
ን@@ 3
የ@@ 3
ግ@@ 3
ᱷ@@ 3
ḵ 3
ḵ@@ 3
ṭ 3
ả@@ 3
ỉ@@ 3
ἄ@@ 3
ἔ@@ 3
Ἠ@@ 3
ὐ@@ 3
ὶ 3
ᾶ@@ 3
ῦ@@ 3
‐ 3
‒ 3
∆ 3
╌ 3
ⲟ@@ 3
ⲱ@@ 3
ⴳ@@ 3
ⴷ@@ 3
ⴻ@@ 3
ⵏ 3
ⵔ 3
ⵜ@@ 3
と 3
と@@ 3
ん 3
ィ 3
イ 3
エ 3
エ@@ 3
オ 3
カ@@ 3
キ@@ 3
グ 3
タ 3
テ@@ 3
ド 3
ナ@@ 3
ネ@@ 3
プ 3
ョ@@ 3
リ 3
リ@@ 3
一 3
一@@ 3
中国 3
九@@ 3
井@@ 3
仑 3
佐@@ 3
保 3
元 3
共和@@ 3
兵@@ 3
农@@ 3
分@@ 3
北京@@ 3
取@@ 3
口 3
台 3
吉 3
吉@@ 3
喀@@ 3
喇@@ 3
壇 3
大学 3
天 3
太@@ 3
奈@@ 3
宁@@ 3
官@@ 3
峡 3
崎@@ 3
式@@ 3
徳@@ 3
志 3
忠 3
总@@ 3
愛 3
政@@ 3
方@@ 3
昆@@ 3
明 3
明@@ 3
星 3
時 3
時@@ 3
朱 3
朱@@ 3
東 3
松@@ 3
毛@@ 3
水@@ 3
汗 3
沖@@ 3
治@@ 3
津 3
湖@@ 3
球 3
的@@ 3
皇 3
直@@ 3
真 3
真@@ 3
知@@ 3
神 3
紅@@ 3
維@@ 3
編@@ 3
縄@@ 3
红@@ 3
聖@@ 3
記 3
話 3
賀@@ 3
贵@@ 3
農@@ 3
野@@ 3
门 3
陰@@ 3
雀@@ 3
麻@@ 3
黑@@ 3
龙@@ 3
국 3
기@@ 3
나@@ 3
도 3
로 3
로@@ 3
리 3
선 3
어 3
인@@ 3
정@@ 3
한 3
한@@ 3
 3
 3
 3
 3
 3
 3
 3
 3
 3
 3
 3
 3
 3
 3
 3
 3
 3
 3
 3
 3
ﮦ@@ 3
ﺃ@@ 3
ﺄ 3
ﺉ 3
ﺔ 3
ﺝ@@ 3
ﻊ@@ 3
ﻑ@@ 3
ﻱ@@ 3
𐭠@@ 3
🇰 3
🇵 3
🌲 3
🏏 3
👇 3
1. 2
1.000 2
10.000 2
3. 2
9. 2
Afrique 2
Alberto 2
Alex 2
Alexandre 2
Anton 2
Arizona 2
Ark@@ 2
Arsenal 2
Aş@@ 2
Bağ@@ 2
Bei@@ 2
Benjam@@ 2
Bev@@ 2
Bizans 2
Bremen 2
Büh@@ 2
Clu@@ 2
Cumhuriy@@ 2
Den 2
Des 2
Description 2
Despite 2
Deutschland 2
Devleti 2
Dies@@ 2
Director 2
Doug@@ 2
Doğ@@ 2
Dresden 2
Earl 2
Eduardo 2
Eigen@@ 2
Eis@@ 2
Enrique 2
Erz@@ 2
España 2
Estados 2
Este 2
Evangel@@ 2
Eğ@@ 2
Fahr@@ 2
Famil@@ 2
Film@@ 2
Finanz@@ 2
Francia 2
Fred 2
Fren@@ 2
Garc@@ 2
García 2
Gemein@@ 2
General@@ 2
Genç@@ 2
Giov@@ 2
González 2
Gott@@ 2
Graf 2
Grec@@ 2
Groß@@ 2
Gök@@ 2
Gör@@ 2
Halk 2
Hindi 2
Histoire 2
Hiv@@ 2
Hoch@@ 2
Hof@@ 2
Hotel 2
Hà 2
Häl@@ 2
Hö@@ 2
Hạ 2
Ital@@ 2
Italie 2
Ivoire 2
Jason 2
Jes@@ 2
Jimmy 2
Kaiser 2
Kamer@@ 2
Kansas 2
Kant@@ 2
Kasım 2
Kennedy 2
Kevin 2
Kig@@ 2
Kinder 2
Konstant@@ 2
Kran@@ 2
Kreis@@ 2
Kriegs@@ 2
Kuzey 2
Köl@@ 2
Kıbrıs 2
Kır@@ 2
Liver@@ 2
Lt@@ 2
López 2
Lö@@ 2
Mario 2
Mart 2
Martínez 2
Matt 2
Mb@@ 2
Melbourne 2
Meter 2
Mt@@ 2
Muhar@@ 2
Must@@ 2
Mär@@ 2
Müh@@ 2
Mısır 2
NBA 2
NFL 2
Nach 2
Nairobi 2
Napole@@ 2
Nga 2
Nikol@@ 2
Ninh 2
Norden 2
November 2
Part@@ 2
Posteri@@ 2
Premi@@ 2
Pseud@@ 2
Regierung 2
Regierungs@@ 2
Regiment 2
Register 2
Renn@@ 2
Roberto 2
Rodríguez 2
Schleswig 2
Schne@@ 2
Schutz@@ 2
Schweiz 2
Señ@@ 2
Sist@@ 2
Songs 2
Spi@@ 2
Sta@@ 2
Stad@@ 2
Stein@@ 2
Steph@@ 2
Studio 2
Stuttgart 2
Tanz@@ 2
Theater 2
Tony 2
Town@@ 2
Trab@@ 2
Trump 2
Trần 2
Tube 2
Una 2
Unidos 2
Universidad 2
Verlag 2
Wasser@@ 2
Werner 2
Wien 2
Wolf@@ 2
Wur@@ 2
Yard@@ 2
Yoh@@ 2
Yunan 2
Yüz@@ 2
Zanz@@ 2
Zentr@@ 2
Zu 2
Zug@@ 2
Zur 2
a. 2
aam 2
abaj@@ 2
abord 2
acak 2
acqui@@ 2
actr@@ 2
adal@@ 2
adhi 2
adio 2
adores 2
affen 2
afric@@ 2
ahidi 2
aide 2
aires 2
aları 2
album 2
alem@@ 2
aler 2
alich@@ 2
aliza 2
allen 2
alme 2
amba@@ 2
ambigu@@ 2
amen@@ 2
americana 2
amor@@ 2
ancı 2
andes 2
ange@@ 2
angen 2
angers 2
anime 2
annual 2
ante@@ 2
anz 2
appel 2
apti@@ 2
arac@@ 2
architec@@ 2
argent@@ 2
arias 2
arqu@@ 2
arrang@@ 2
arron@@ 2
asit@@ 2
assass@@ 2
atro 2
atten@@ 2
attribu@@ 2
avant 2
awali 2
axe 2
azam@@ 2
aç 2
aî@@ 2
bach@@ 2
barr@@ 2
believed 2
benz@@ 2
bezirk 2
bili@@ 2
burg@@ 2
burger 2
bé 2
bü@@ 2
candid@@ 2
captur@@ 2
career 2
chac@@ 2
champion 2
chez 2
cht@@ 2
chú 2
cic@@ 2
cid@@ 2
cier@@ 2
cipe 2
circ@@ 2
cité 2
claimed 2
comb@@ 2
commen@@ 2
comment@@ 2
communes 2
competi@@ 2
completed 2
comprom@@ 2
concre@@ 2
confer@@ 2
connue 2
coup 2
cours 2
crito 2
culo 2
culp@@ 2
cá 2
dağ@@ 2
decre@@ 2
derni@@ 2
descri@@ 2
deu@@ 2
deutsch 2
deutsch@@ 2
deutsche 2
deux 2
diffus@@ 2
dig 2
dik@@ 2
dioc@@ 2
dipl@@ 2
director 2
disco@@ 2
distribu@@ 2
diye 2
doch 2
dola 2
dot@@ 2
doğan 2
drama 2
déj@@ 2
départem@@ 2
dó@@ 2
düny@@ 2
ede@@ 2
eden@@ 2
eher 2
eig@@ 2
eigen@@ 2
eines 2
eit@@ 2
eja 2
eko 2
ekt 2
elas 2
elección 2
eleg@@ 2
eler@@ 2
elik@@ 2
ellen 2
elt@@ 2
embe 2
enant 2
endo 2
enga 2
enl@@ 2
enos 2
ensive 2
entire 2
entras 2
entro 2
equip@@ 2
erek 2
esab@@ 2
escu@@ 2
eser@@ 2
eski 2
español 2
essen 2
essenti@@ 2
estro 2
etas 2
etin 2
etos 2
etti@@ 2
eure 2
ewa 2
exerc@@ 2
expl@@ 2
explor@@ 2
eyal@@ 2
eño 2
fah@@ 2
fak@@ 2
famil@@ 2
fang@@ 2
featur@@ 2
fin 2
fique 2
fire 2
firm@@ 2
forc@@ 2
forma 2
forman@@ 2
four@@ 2
fäl@@ 2
fé@@ 2
för@@ 2
fútbol 2
g. 2
gal 2
gau@@ 2
gauche 2
gazet@@ 2
gend 2
genre 2
gil@@ 2
git@@ 2
goals 2
going 2
guerre 2
gut 2
hacer 2
hadi@@ 2
hala 2
hali 2
hatt@@ 2
hau@@ 2
haya 2
hes@@ 2
hif@@ 2
hik@@ 2
his@@ 2
hoa 2
honor 2
hours 2
hous@@ 2
huy@@ 2
hö@@ 2
ibar 2
icio 2
idas 2
idos 2
iente 2
iff 2
ift@@ 2
ifu@@ 2
igen 2
igher 2
ihrer 2
ikal@@ 2
ilen 2
iline 2
illed 2
imba 2
imin@@ 2
immedi@@ 2
imonio 2
ince 2
indo 2
industri@@ 2
inen 2
ingen@@ 2
ingi@@ 2
ingia 2
ingly 2
innen 2
inner@@ 2
insan@@ 2
insec@@ 2
inspir@@ 2
internationale 2
inti@@ 2
investig@@ 2
iques 2
ischen 2
ischer 2
isel 2
isho 2
isine 2
islat@@ 2
isme 2
istische 2
iter@@ 2
itions 2
iture 2
ivo 2
iyi 2
izaji 2
izm 2
içi 2
japon@@ 2
jeu 2
jini 2
join@@ 2
jour 2
jour@@ 2
journal 2
kati@@ 2
kend@@ 2
kich@@ 2
kio 2
kre@@ 2
kreis 2
kt 2
kt@@ 2
kuj@@ 2
kura 2
kâ@@ 2
kül@@ 2
kı@@ 2
kır@@ 2
lai 2
larg@@ 2
lau@@ 2
league 2
leben 2
lemente 2
leo 2
lerine 2
leurs 2
leva 2
lich 2
licher 2
liches 2
ligi 2
lina 2
lique 2
liği 2
logr@@ 2
lowing 2
luk@@ 2
lut@@ 2
lywood 2
lö@@ 2
mainly 2
maire 2
manager 2
manus@@ 2
manı 2
marque 2
matr@@ 2
meden 2
mek 2
mesi 2
mev@@ 2
mey@@ 2
minut@@ 2
minutes 2
missions 2
miz@@ 2
monte 2
month 2
monuments 2
mot 2
mt 2
much@@ 2
muda 2
musical 2
muz 2
nach@@ 2
naf@@ 2
nament 2
nin@@ 2
nine 2
noch 2
novel 2
occasion 2
occer 2
occident@@ 2
occupation 2
ografia 2
oine 2
okrati@@ 2
oldu@@ 2
omba 2
omel@@ 2
onge@@ 2
onnat 2
opened 2
opening 2
opsis 2
opter@@ 2
ording 2
ordu 2
orer 2
orie 2
oslav@@ 2
oteca 2
oten 2
oyun@@ 2
padre 2
pale 2
papel 2
paral@@ 2
pati@@ 2
pens@@ 2
perform@@ 2
performances 2
pero 2
personnel 2
peu 2
pez 2
phi 2
phil@@ 2
pik 2
placed 2
player 2
pobl@@ 2
pok@@ 2
polic@@ 2
politi@@ 2
pont 2
pop@@ 2
portant 2
porter 2
portes 2
portr@@ 2
ppe 2
practic@@ 2
prak@@ 2
presid@@ 2
prises 2
prison 2
proced@@ 2
professor 2
propag@@ 2
provided 2
provin@@ 2
präs@@ 2
quant 2
quay 2
quel 2
qué 2
r. 2
rais 2
rapid@@ 2
realiz@@ 2
refer 2
regres@@ 2
relig@@ 2
reno 2
renov@@ 2
reo 2
replaced 2
reported 2
respectiv@@ 2
returned 2
rim 2
roqu@@ 2
roul@@ 2
round@@ 2
rut@@ 2
région 2
rí@@ 2
rö@@ 2
sage 2
sant@@ 2
scar 2
schaft 2
scheid@@ 2
schen 2
schule 2
score 2
sculp@@ 2
seau 2
seine 2
selb@@ 2
semble 2
sens 2
seud@@ 2
sif 2
sis@@ 2
situation 2
siè@@ 2
sometimes 2
southern 2
spap@@ 2
stelle 2
sten@@ 2
studied 2
studio 2
succ@@ 2
successful 2
symbol@@ 2
sé@@ 2
só@@ 2
table@@ 2
takes 2
taş@@ 2
teil 2
teilung 2
tena 2
tenant 2
tere 2
terres@@ 2
territori@@ 2
tet 2
teş@@ 2
them@@ 2
thiop@@ 2
thuộc 2
thé@@ 2
ticia 2
tif 2
tiv 2
tivi@@ 2
topr@@ 2
track 2
trains 2
tur 2
turned 2
tés 2
tỉnh 2
u. 2
ularly 2
umba 2
unden 2
undu 2
unia 2
unidad 2
universit@@ 2
unos 2
uso 2
uvent@@ 2
uğ@@ 2
uğr@@ 2
uş@@ 2
veget@@ 2
venti@@ 2
verz@@ 2
vida 2
vie 2
viel 2
vit 2
voie 2
voire 2
vy@@ 2
vé@@ 2
wake 2
wam@@ 2
wart 2
weeks 2
weg 2
wegen 2
weil 2
who@@ 2
wich@@ 2
wig 2
winning 2
wir@@ 2
witz 2
wür@@ 2
xung 2
yok 2
yü@@ 2
yıl 2
zant@@ 2
ziy@@ 2
zun@@ 2
¡ 2
¢ 2
® 2
¾ 2
À@@ 2
Á 2
Ä@@ 2
É 2
Égl@@ 2
Ông 2
Ø@@ 2
ào 2
ái 2
âce 2
ächs@@ 2
äh@@ 2
änd@@ 2
äng@@ 2
ät 2
çek@@ 2
çi 2
çı@@ 2
èn 2
èque 2
èse 2
école 2
économ@@ 2
éné@@ 2
éo 2
équ@@ 2
éra 2
êts 2
êu 2
ìn 2
ñ 2
ñas 2
óm@@ 2
öd@@ 2
örd@@ 2
öster@@ 2
öz@@ 2
÷ 2
ús 2
út@@ 2
ût 2
über 2
ück 2
ücken 2
ük 2
üssel@@ 2
Đạo 2
Đế 2
ĕ@@ 2
ė 2
ĝ@@ 2
ğr@@ 2
ĭ@@ 2
ınar 2
ıp 2
œur 2
Ř@@ 2
ŝ@@ 2
şeh@@ 2
şehir 2
şir@@ 2
Š 2
ũ@@ 2
Ū@@ 2
ǎ 2
ǔ 2
ǔ@@ 2
Ǧ@@ 2
ǧ@@ 2
ɒ 2
ɕ@@ 2
ɠ 2
ɡ 2
ɨ@@ 2
ɫ 2
ɯ 2
ɯ@@ 2
ɹ@@ 2
ɽ 2
ʂ 2
ʑ 2
ʔ 2
ʰ@@ 2
ʱ@@ 2
ʲ@@ 2
ʿ 2
̌ 2
͘ 2
͡ 2
Ά@@ 2
Β 2
Βασιλ@@ 2
Δι@@ 2
Κρή@@ 2
Κωνσταντ@@ 2
Λ 2
Μά@@ 2
Μαλ@@ 2
Μεγάλ@@ 2
Νέα 2
Ξ@@ 2
Παλαι@@ 2
Σαλ@@ 2
Στρατ@@ 2
Φ@@ 2
άβ@@ 2
έ@@ 2
έκ@@ 2
ής 2
ίγ@@ 2
ίδης 2
ίκ@@ 2
ίν@@ 2
ίνη 2
ίου 2
αθ@@ 2
ακ@@ 2
αλ@@ 2
αλλ@@ 2
αντ@@ 2
ανός 2
απ 2
αρχος 2
ατ@@ 2
αυ@@ 2
αϊ@@ 2
βί@@ 2
γράφ@@ 2
δ 2
δι@@ 2
δο@@ 2
δρα 2
ει 2
ελ@@ 2
επ@@ 2
ερ@@ 2
ετ 2
εύ@@ 2
ζωή 2
ησ@@ 2
ησι@@ 2
ικ@@ 2
ιλ@@ 2
και 2
κας 2
κλη@@ 2
λάβ@@ 2
λα@@ 2
λεκ@@ 2
λις 2
λλην@@ 2
λογία 2
λόγ@@ 2
μή@@ 2
μαθ@@ 2
μεγάλη 2
μεν@@ 2
μν@@ 2
μος 2
νη 2
νης 2
νω@@ 2
ξης 2
οί 2
οδος 2
ομ@@ 2
ον@@ 2
παλαι@@ 2
πατ@@ 2
πεί@@ 2
πο@@ 2
πος 2
πό@@ 2
ρά@@ 2
ραγ@@ 2
ρε@@ 2
ρη@@ 2
ροπ@@ 2
ρου 2
ρυ@@ 2
ρό@@ 2
ρύ@@ 2
σ 2
σκ@@ 2
σο@@ 2
στον 2
τή@@ 2
του@@ 2
τυ@@ 2
τω@@ 2
υπ@@ 2
φερ@@ 2
ψ@@ 2
ωβ@@ 2
ωμένη 2
ό 2
όπος 2
ύρ@@ 2
ώς 2
Ў@@ 2
А 2
Ав@@ 2
Алексе@@ 2
Ари@@ 2
Ата@@ 2
Бела@@ 2
България 2
В 2
ВМ@@ 2
Вла@@ 2
Во@@ 2
Воен@@ 2
Восто@@ 2
Вы@@ 2
Ге@@ 2
Глав@@ 2
Гор@@ 2
Дж@@ 2
Е@@ 2
Ев@@ 2
Иль@@ 2
Ир@@ 2
Кара@@ 2
Кари@@ 2
Ки@@ 2
Кир@@ 2
Кон@@ 2
Коро@@ 2
Кры@@ 2
Ку@@ 2
Ла@@ 2
Лю@@ 2
Мин@@ 2
Москов@@ 2
О 2
Ок@@ 2
Ор@@ 2
Пет@@ 2
Петер@@ 2
Пол@@ 2
РС@@ 2
Республики 2
Ри@@ 2
Росси@@ 2
Рус@@ 2
Сан 2
Сте@@ 2
Тер@@ 2
Тур@@ 2
Ф 2
Фе@@ 2
Фин@@ 2
Хо@@ 2
Юж@@ 2
авто@@ 2
ак@@ 2
археологи@@ 2
ат@@ 2
барди@@ 2
берг 2
бла@@ 2
българско 2
вал 2
ван 2
вин@@ 2
вич 2
вка 2
войск 2
восто@@ 2
вых 2
го 2
го@@ 2
гол 2
гора 2
дар 2
дел 2
дж@@ 2
джа@@ 2
ди@@ 2
дий 2
дри@@ 2
ду 2
ев@@ 2
евна 2
ене@@ 2
жа 2
зали@@ 2
зе@@ 2
зи 2
зия 2
значения 2
зы@@ 2
из 2
им 2
ин@@ 2
истории 2
каз 2
кан@@ 2
кая 2
ке 2
кла@@ 2
ко 2
ков 2
ков@@ 2
кова 2
кого 2
коло@@ 2
кот@@ 2
л. 2
лен@@ 2
ло 2
лы 2
льная 2
лян@@ 2
май@@ 2
мед 2
мени@@ 2
мия 2
мов 2
мор@@ 2
море 2
наро@@ 2
нен@@ 2
ник 2
нин 2
ния 2
ное 2
ны 2
ны@@ 2
област@@ 2
области 2
область 2
обо@@ 2
обра@@ 2
она@@ 2
оп@@ 2
офи@@ 2
п 2
по@@ 2
права 2
пре@@ 2
при@@ 2
пу@@ 2
ран@@ 2
река 2
рен@@ 2
република 2
ри 2
риа@@ 2
ро 2
род@@ 2
са 2
сво@@ 2
ска 2
ска@@ 2
ские 2
ского 2
сло@@ 2
сон 2
сса@@ 2
стан@@ 2
ствен@@ 2
тая 2
тина 2
ту@@ 2
тура 2
тя@@ 2
уго@@ 2
ум@@ 2
ун@@ 2
фа 2
фан@@ 2
федера@@ 2
ха 2
хо@@ 2
ц 2
це@@ 2
цер@@ 2
цо@@ 2
цы 2
ча@@ 2
че@@ 2
чина 2
чная 2
чни 2
чно 2
ше 2
шие 2
щина 2
ъ@@ 2
ье 2
января 2
яр@@ 2
ѐ@@ 2
ћ 2
ҧ@@ 2
ӈ@@ 2
ӣ 2
ӯ@@ 2
Կ@@ 2
Մ@@ 2
Ս@@ 2
ա 2
բ@@ 2
թ@@ 2
ի 2
ծ 2
հ@@ 2
ճ 2
յ 2
ռ@@ 2
ս@@ 2
վ@@ 2
և 2
ף 2
؈ 2
أبر@@ 2
أصل 2
أعم@@ 2
أفضل 2
أنهم 2
أنواع 2
أوائل 2
أور@@ 2
إدارة 2
إذ 2
ائرة 2
احة 2
ادرة 2
ارنة 2
اسية 2
اقة 2
الأخرى 2
الأل@@ 2
الأول@@ 2
الإص@@ 2
الإيط@@ 2
الاشترا@@ 2
البحرية 2
البريطاني 2
التشري@@ 2
الثة 2
الحديثة 2
الديمقرا@@ 2
السياسي 2
العسكرية 2
العمل@@ 2
العملية 2
الغربية 2
الفرنسية 2
الفريق 2
الكه@@ 2
المؤس@@ 2
المرحلة 2
المصرية 2
المغربية 2
المواد 2
النواب 2
الها 2
الوطنية 2
اولة 2
بالإ@@ 2
بـ 2
بيرة 2
بيلة 2
تطبي@@ 2
تغي@@ 2
توضي@@ 2
جوائز 2
جيمس 2
حالة 2
حصاء 2
دراسة 2
درجة 2
راتي@@ 2
روفة 2
سبة 2
سطة 2
سكان 2
ضية 2
طريقة 2
عامي 2
عبارة 2
عراض 2
فريق@@ 2
قلة 2
قوات 2
كلمة 2
كلية 2
كمة 2
لدى 2
لسنة 2
لغة 2
للغ@@ 2
لهذا 2
ماية 2
مدة 2
معهد 2
مليون 2
منح 2
منظمة 2
ناة 2
نطاق 2
نظرية 2
نوفمبر 2
هوم 2
والسك@@ 2
ودية 2
وكذلك 2
ولية 2
ونية 2
يتم 2
يقع 2
يمية 2
يوجد 2
يونيو 2
يّة 2
ٛ@@ 2
ٺ 2
ڀ 2
ڃ 2
ڎ 2
ږ 2
ڟ 2
ڦ@@ 2
ڼ 2
ڼ@@ 2
ۄ@@ 2
ە 2
ۜ 2
ܚ@@ 2
ܠ 2
ܥ@@ 2
ݜ 2
ݢ 2
ݰ@@ 2
ރ@@ 2
ބ@@ 2
ދ@@ 2
ީ@@ 2
ެ@@ 2
ް@@ 2
ࠉ@@ 2
ࠓ@@ 2
ࠜ@@ 2
ंट 2
अगस 2
अधिकारी 2
अन 2
अस 2
आका@@ 2
आकार 2
आग@@ 2
आगे 2
इ@@ 2
उ 2
उद 2
ऊ@@ 2
ओ@@ 2
कन 2
कल@@ 2
किस 2
किसी 2
कॉ@@ 2
को@@ 2
खण 2
खर 2
खा 2
खान 2
खु@@ 2
गण@@ 2
गल 2
गा 2
गांधी 2
घा@@ 2
चंद 2
चक 2
चा@@ 2
ची 2
चौ@@ 2
छु@@ 2
जय@@ 2
जान 2
जिन 2
जिला 2
जुलाई 2
जून 2
टो@@ 2
ठ 2
ठा@@ 2
डल 2
डो@@ 2
ढ 2
णि@@ 2
तन 2
तर 2
तार 2
तिक 2
तित 2
ती@@ 2
तुर 2
तो@@ 2
थ@@ 2
थि@@ 2
दन 2
दम 2
दीन 2
दृश 2
दे 2
देश@@ 2
धा@@ 2
धि 2
धि@@ 2
नदी 2
नया 2
नाथ 2
नाम@@ 2
नै@@ 2
नो@@ 2
पं@@ 2
पंच@@ 2
पत 2
पति 2
पह@@ 2
पात 2
पानी 2
पी 2
पु@@ 2
पू@@ 2
पूजा 2
फ@@ 2
बंध 2
बढ 2
बना@@ 2
बर 2
बा 2
बो@@ 2
भ 2
भाई 2
भाषा 2
मं@@ 2
मंग@@ 2
मत 2
मद 2
मध 2
मानव 2
मुहम 2
मूर 2
यत 2
यही 2
यालय 2
यास 2
यि@@ 2
युग 2
रखा 2
रज 2
रती 2
रदेश 2
रस 2
रह@@ 2
रानी 2
रामा@@ 2
राव@@ 2
राह 2
रिस 2
रूप 2
रे@@ 2
ऱ 2
लता 2
लिक 2
लित 2
लिन 2
लिया 2
लु@@ 2
लो@@ 2
लोक 2
लोक@@ 2
वत 2
वरी 2
वविद 2
वार 2
वाल 2
वाला 2
वासी 2
विकास 2
विद 2
वे@@ 2
शब 2
शा 2
शा@@ 2
शाली 2
शाह 2
शी@@ 2
शु@@ 2
शुरू 2
संग 2
संघ 2
संस 2
सद 2
सभी 2
सम 2
सम@@ 2
सव 2
सार 2
सिद 2
सुन 2
सै@@ 2
हत 2
हरि@@ 2
हल 2
हा 2
हाल 2
हिंदी 2
हुआ 2
ार 2
ो@@ 2
ौर 2
ॐ 2
० 2
३ 2
४ 2
८ 2
ও 2
ঘ@@ 2
চ 2
ঝ@@ 2
ঠ@@ 2
ঢ@@ 2
ণ 2
ধ 2
ষ 2
৬ 2
৷ 2
ਉ@@ 2
ਛ@@ 2
ਡ 2
ਧ 2
ਪ 2
ਫ 2
੧ 2
ੰ 2
ઓ@@ 2
છ@@ 2
જ@@ 2
ટ@@ 2
ઢ@@ 2
ત@@ 2
ફ@@ 2
બ@@ 2
મ 2
ય 2
શ@@ 2
સ 2
હ 2
િ@@ 2
ે@@ 2
ଂ 2
ଅ 2
ଆ 2
ଉ@@ 2
ଖ 2
ଖ@@ 2
ଗ 2
ଟ@@ 2
ଡ@@ 2
ଢ@@ 2
ମ 2
ଷ@@ 2
ୋ 2
ஃ@@ 2
ண 2
ஹ@@ 2
ே 2
ః 2
ఖ 2
గ 2
ఝ@@ 2
ట 2
ఠ@@ 2
బ 2
శ@@ 2
ష@@ 2
ూ 2
ృ 2
ౄ 2
ె@@ 2
ే 2
ై 2
ొ 2
ో 2
ౌ 2
ಟ 2
ಣ 2
ಭ@@ 2
ಮ 2
ಯ 2
ಳ@@ 2
ಷ 2
ೂ@@ 2
ೊ@@ 2
ೌ@@ 2
ഗ@@ 2
ണ 2
ധ@@ 2
പ@@ 2
ബ@@ 2
ര 2
സ 2
ീ@@ 2
ൂ@@ 2
ൃ@@ 2
െ@@ 2
േ@@ 2
ോ@@ 2
ർ 2
ർ@@ 2
ණ@@ 2
ශ 2
ෂ 2
ෂ@@ 2
ී@@ 2
ช@@ 2
ด 2
ท@@ 2
น 2
น@@ 2
นา@@ 2
ส 2
ะ@@ 2
ำ@@ 2
์ 2
ແ@@ 2
ཁ 2
པ@@ 2
ཚ@@ 2
ཞ@@ 2
འ@@ 2
ཡ@@ 2
ཧ@@ 2
ཱ 2
ཱ@@ 2
ྤ@@ 2
ྲ 2
တ@@ 2
ိ@@ 2
ေ@@ 2
့ 2
ြ@@ 2
ზ@@ 2
ო 2
შ@@ 2
ჩ@@ 2
ሀ@@ 2
ለ@@ 2
ሌ 2
ም 2
ር@@ 2
ሳ@@ 2
ተ 2
ኩ@@ 2
ወ@@ 2
ደ@@ 2
ទ@@ 2
ន 2
ព 2
ភ@@ 2
ស@@ 2
ា@@ 2
ិ@@ 2
្ 2
ḗ@@ 2
Ḫ@@ 2
Ḵ@@ 2
ḻ@@ 2
ṃ 2
Ṣ@@ 2
Ṭ@@ 2
Ṯ@@ 2
ẓ@@ 2
ần 2
ẫu 2
ẽ@@ 2
ồ 2
ἐ@@ 2
ἡ@@ 2
ἱ@@ 2
ὁ 2
ὁ@@ 2
Ὀ@@ 2
ὰ 2
ὲ@@ 2
― 2
‚ 2
‮ 2
ⁿ 2
↺ 2
∞ 2
≠ 2
≤ 2
┅ 2
♂ 2
♠ 2
♣ 2
⚦ 2
✍ 2
✦ 2
❀ 2
❂ 2
⬇ 2
ⲓ@@ 2
ⲩ@@ 2
ⴱ 2
ⴼ 2
ⴽ@@ 2
ⵖ@@ 2
ⵜ 2
、 2
い 2
い@@ 2
え@@ 2
お 2
ぎ 2
ぐ 2
さ 2
さ@@ 2
た@@ 2
ち 2
な 2
ば 2
み 2
ら@@ 2
り 2
ウ 2
オ@@ 2
ギ@@ 2
ゴ@@ 2
サ 2
ザ@@ 2
ズ 2
ソ@@ 2
チ 2
ッ 2
ツ@@ 2
ニ@@ 2
ネ 2
ハ 2
ビ@@ 2
ブ@@ 2
ム 2
ヤ 2
ロ@@ 2
世@@ 2
中 2
中华@@ 2
中华人民@@ 2
中心 2
主席 2
乳 2
事 2
二 2
云 2
云@@ 2
五@@ 2
亦@@ 2
代 2
伊@@ 2
传@@ 2
体 2
余@@ 2
佛@@ 2
你 2
俗 2
備 2
僧 2
光@@ 2
児@@ 2
党 2
八@@ 2
公 2
公@@ 2
兰 2
兰@@ 2
兴 2
出@@ 2
函 2
刘@@ 2
別@@ 2
副 2
力 2
加@@ 2
动@@ 2
務@@ 2
勝 2
北部 2
千@@ 2
卜 2
口@@ 2
古 2
可@@ 2
史 2
合 2
合@@ 2
吗 2
君 2
周 2
哈@@ 2
哨@@ 2
唐 2
國@@ 2
團@@ 2
在@@ 2
地 2
地@@ 2
埃@@ 2
城 2
城@@ 2
基 2
報 2
士@@ 2
夜@@ 2
大会 2
夫@@ 2
头 2
妈 2
妈@@ 2
委員@@ 2
婆@@ 2
子@@ 2
孫@@ 2
安 2
定@@ 2
宜@@ 2
小@@ 2
尔@@ 2
局 2
岐@@ 2
川 2
工程 2
巴 2
年 2
庁 2
府 2
府@@ 2
座 2
廣@@ 2
強@@ 2
形@@ 2
徵@@ 2
德 2
忍@@ 2
快@@ 2
愛@@ 2
懷@@ 2
成@@ 2
戸@@ 2
手@@ 2
拉 2
拉@@ 2
指@@ 2
搜@@ 2
政 2
文 2
斯 2
族 2
时@@ 2
时间 2
旺@@ 2
景@@ 2
暨 2
會@@ 2
有限公司 2
李 2
林 2
枢@@ 2
标 2
株@@ 2
森 2
森@@ 2
楊 2
榔@@ 2
樂@@ 2
標@@ 2
歌@@ 2
正 2
正@@ 2
気 2
汉@@ 2
沙@@ 2
河 2
河@@ 2
法 2
法@@ 2
波 2
津@@ 2
洲 2
涂 2
消@@ 2
準@@ 2
满@@ 2
潟@@ 2
灣 2
火 2
灭@@ 2
炮 2
熊@@ 2
爆@@ 2
片@@ 2
玄@@ 2
王@@ 2
甘@@ 2
甲@@ 2
电@@ 2
画 2
疆 2
的 2
皇@@ 2
相 2
盼@@ 2
省@@ 2
石@@ 2
社@@ 2
秋@@ 2
立@@ 2
紀@@ 2
繁@@ 2
绍@@ 2
维@@ 2
署 2
義 2
義@@ 2
羽 2
耶@@ 2
肃 2
肥 2
胡@@ 2
舶 2
船 2
良@@ 2
花 2
花@@ 2
范@@ 2
茨@@ 2
萨 2
葉@@ 2
蒲 2
藏@@ 2
虎@@ 2
融@@ 2
西部 2
覽 2
觀 2
記@@ 2
語@@ 2
諸@@ 2
诸@@ 2
豊@@ 2
走@@ 2
越@@ 2
車 2
転 2
近@@ 2
通@@ 2
逸@@ 2
部 2
部@@ 2
鄭 2
里 2
錄 2
长@@ 2
関@@ 2
閩@@ 2
问 2
阗 2
阜@@ 2
阴 2
陕@@ 2
陛@@ 2
院@@ 2
隸@@ 2
雄 2
集@@ 2
雷@@ 2
静@@ 2
頭 2
顶@@ 2
風@@ 2
香港 2
馬 2
騎@@ 2
马 2
马@@ 2
骂 2
體@@ 2
魏 2
鳥@@ 2
鹿@@ 2
麻 2
黃@@ 2
黒@@ 2
黨 2
龍@@ 2
ꦝ@@ 2
ꦧ@@ 2
ꦸ@@ 2
게@@ 2
고@@ 2
금@@ 2
길@@ 2
내@@ 2
년 2
는 2
다 2
대@@ 2
라 2
려 2
마@@ 2
만@@ 2
빛@@ 2
산 2
삼@@ 2
서@@ 2
성 2
세 2
신@@ 2
에 2
오@@ 2
우@@ 2
은 2
은@@ 2
임 2
자 2
자@@ 2
트@@ 2
하@@ 2
화 2
 2
 2
 2
 2
 2
 2
 2
 2
 2
 2
 2
 2
 2
 2
 2
 2
 2
 2
 2
 2
ﭞ 2
ﭣ 2
ﭳ 2
ﭵ@@ 2
ﮅ 2
ﮋ@@ 2
ﮏ@@ 2
ﮖ 2
ﮜ@@ 2
﷜ 2
﷟ 2
﷽ 2
﷿ 2
ﺗ 2
ﺡ@@ 2
ﺫ 2
ﺲ@@ 2
ﺽ@@ 2
ﺿ 2
ﻁ 2
ﻉ@@ 2
ﻎ@@ 2
（ 2
🌴 2
🐑 2
👩 2
💢 2
🕋 2
😃 2
😓 2
😔 2
😸 2
🚗 2
🤓 2
🦋 2
0er 1
1,2 1
12. 1
14. 1
2.000 1
3,5 1
4. 1
8. 1
Afrika 1
Akadem@@ 1
Alab@@ 1
Alej@@ 1
Alemania 1
Alfre@@ 1
Alice 1
Alit@@ 1
Allem@@ 1
Alter 1
Amér@@ 1
Anadolu 1
Andro@@ 1
Arbeit@@ 1
Asoci@@ 1
Assemb@@ 1
Atlanta 1
Ayr@@ 1
Bach 1
Bahn@@ 1
Bayern 1
Beat@@ 1
Belgique 1
Bere@@ 1
Berliner 1
Beş@@ 1
Birliği 1
Bisch@@ 1
Bruder 1
Bruno 1
Bundesliga 1
Bình 1
Bö@@ 1
Böl@@ 1
Califor@@ 1
Carrera 1
Chart 1
Chrys@@ 1
Châu 1
Comité 1
Comme 1
Con 1
Congr@@ 1
Conse@@ 1
Copa 1
Cumhur@@ 1
Công 1
Cộng 1
Danh 1
Dans 1
Dağ@@ 1
Deniz 1
Departamento 1
Devlet 1
Dich@@ 1
Dies 1
Durante 1
Dân 1
Département 1
Dương 1
Eine 1
Eins@@ 1
Elek@@ 1
Elis@@ 1
Ende 1
Entwicklung 1
Er 1
Ermen@@ 1
Ernst 1
Eski 1
Feb@@ 1
Fenerbahçe 1
Ferdin@@ 1
Festiv@@ 1
Forschungs@@ 1
Fort@@ 1
Frau@@ 1
Fritz 1
Fuer@@ 1
Futbol 1
Fußball@@ 1
Gatt@@ 1
Geh@@ 1
Geografía 1
Geometr@@ 1
Gesch@@ 1
Gest@@ 1
Gleich@@ 1
Gobierno 1
Gonz@@ 1
Gord@@ 1
Graf@@ 1
Grammy 1
Grenz@@ 1
Guerra 1
Guerre 1
Gymnasium 1
Göl@@ 1
Halb@@ 1
Hamil@@ 1
Hanno@@ 1
Harv@@ 1
Haup@@ 1
Hek@@ 1
Herb@@ 1
Historique 1
Hochschule 1
Hoff@@ 1
Holz@@ 1
Hymenoptera 1
Hồng 1
Hội 1
Im 1
Imperio 1
Insel 1
Internacional 1
Jamhuri 1
Jim 1
Josef 1
Juni 1
Kale 1
Kapit@@ 1
Kati 1
Kazi 1
Kib@@ 1
Kich@@ 1
Kie@@ 1
Kif@@ 1
Komit@@ 1
Kommun@@ 1
Kore 1
Krieg 1
Kuna 1
Kunst@@ 1
Kurt 1
Kuv@@ 1
König 1
Kü@@ 1
Kül@@ 1
Kür@@ 1
Kıbr@@ 1
Kỳ 1
Lage 1
Landes@@ 1
Landkreis 1
Later 1
Lauf@@ 1
Ley 1
Linc@@ 1
Ló@@ 1
Machi 1
Magharibi 1
Manuel 1
Meister@@ 1
Merkez 1
Merkez@@ 1
Mf@@ 1
Mia 1
Minn@@ 1
Mittel@@ 1
Mosk@@ 1
Mp@@ 1
Mutter 1
Män@@ 1
Mün@@ 1
Mỹ 1
Nair@@ 1
Nguyên 1
Nguyễn 1
Ngô 1
Nick 1
Norman@@ 1
Nr. 1
Nür@@ 1
Nội 1
Olimpi@@ 1
Oliver 1
Oreg@@ 1
Ort@@ 1
Papa 1
Parti 1
Pero 1
Perú 1
Pháp 1
Phú 1
Phạm 1
Phật 1
Poliz@@ 1
Premier 1
Première 1
Pérez 1
Qualif@@ 1
Quang 1
Racing 1
Rang 1
Rech@@ 1
Reich 1
Reichs@@ 1
Restaur@@ 1
Robinson 1
Rus 1
Sachsen 1
Salaam 1
Santi@@ 1
Schi@@ 1
Schiff@@ 1
Schles@@ 1
Schloss 1
Schrif@@ 1
Schweizer 1
Se 1
Seit 1
Ses 1
Shule 1
Sieg 1
Sociedad 1
Sold@@ 1
Sonder@@ 1
Sony 1
Span@@ 1
Spiel@@ 1
Stadt 1
Stars 1
Stell@@ 1
Stif@@ 1
Suisse 1
Tag 1
Tam 1
Teatro 1
Teil 1
Teil@@ 1
Tenn@@ 1
Tham 1
Theo 1
Thánh 1
Thé@@ 1
Tier@@ 1
Tochter 1
Tod 1
Topl@@ 1
Trường 1
Tsch@@ 1
Turkana 1
Tä@@ 1
Ufa 1
Ulus@@ 1
Uluslararası 1
Une 1
Ung@@ 1
Univers@@ 1
Universität 1
Utur@@ 1
Vertr@@ 1
Văn 1
Vương 1
Wach@@ 1
Wahl@@ 1
Wash@@ 1
Weg 1
Welt@@ 1
Weltkrieg 1
Werke 1
Wieder@@ 1
Wirtschafts@@ 1
Wissen@@ 1
Woh@@ 1
Wohn@@ 1
Wrest@@ 1
Wrestling 1
XV@@ 1
Ziel 1
Zwe@@ 1
Zür@@ 1
Zürich 1
abila 1
abril 1
acak@@ 1
acaktır 1
acces@@ 1
achten 1
aciones 1
adamu 1
adapt@@ 1
adele 1
adlı 1
administr@@ 1
adora 1
adver@@ 1
adına 1
afin 1
afu 1
afé 1
agement 1
agit 1
agno@@ 1
agric@@ 1
aguas 1
ahada 1
aham@@ 1
ahora 1
aient 1
ainsi 1
aired 1
akt@@ 1
alara 1
alcal@@ 1
alisation 1
aliste 1
alité 1
allí 1
alte 1
alten 1
alter 1
altung 1
altı 1
altında 1
alya 1
ambalo 1
amento 1
amini 1
amua 1
amér@@ 1
améric@@ 1
anach@@ 1
anat@@ 1
ancien 1
anderen 1
angla@@ 1
anh 1
anlı 1
anlığı 1
announc@@ 1
antage 1
antas@@ 1
antiguo 1
antik 1
anın 1
août 1
appear@@ 1
appen 1
araç@@ 1
aret@@ 1
arka 1
arla 1
arlar 1
arlo 1
armes 1
arrive 1
artist 1
artisti@@ 1
artists 1
artık 1
asili 1
asim@@ 1
assez 1
asının 1
atao 1
atif 1
ativas 1
ativo 1
ativos 1
atori@@ 1
atrice 1
attach@@ 1
attended 1
atwa 1
atz 1
auf@@ 1
auff@@ 1
autor 1
autres 1
avail@@ 1
awa@@ 1
awe 1
ayak@@ 1
ayar@@ 1
ayna 1
azim@@ 1
años 1
ağı@@ 1
aştır@@ 1
bahar@@ 1
bahn 1
baja 1
bajo 1
bali 1
baller 1
banda 1
baseball 1
bataille 1
batt@@ 1
batı 1
bağ@@ 1
başkanı 1
beit@@ 1
bele 1
beledi@@ 1
bem@@ 1
bere@@ 1
beri 1
berto 1
betrieb@@ 1
bier@@ 1
bis 1
bless@@ 1
boş@@ 1
brand 1
bras@@ 1
brig@@ 1
brought 1
bruch 1
buch 1
bào 1
bö@@ 1
bütün 1
büyü@@ 1
c. 1
ca. 1
campa@@ 1
canti@@ 1
cara 1
cargo 1
cars 1
causa 1
caused 1
cerc@@ 1
cero 1
cette 1
champ@@ 1
chas 1
chini 1
chiến 1
ché 1
chống 1
chủ 1
chữ 1
cias 1
cir 1
ciudad 1
ció 1
clas@@ 1
clav@@ 1
clubs 1
clás@@ 1
cola 1
collabor@@ 1
collaboration 1
comi@@ 1
commission 1
compet@@ 1
competition 1
compil@@ 1
composed 1
conclu@@ 1
conform@@ 1
consider@@ 1
constr@@ 1
constru@@ 1
contempor@@ 1
contra 1
contract 1
conven@@ 1
costa 1
crit@@ 1
cultura 1
curité 1
curs@@ 1
cı 1
cờ 1
dado 1
debut 1
decision 1
definiti@@ 1
deniz 1
depuis 1
dessen 1
destin@@ 1
deuxième 1
değ@@ 1
dici@@ 1
dida 1
dienst 1
dieses 1
difficul@@ 1
différentes 1
direction 1
direk@@ 1
disco 1
dispar@@ 1
distrito 1
divers 1
divi@@ 1
diğ@@ 1
dok@@ 1
donn@@ 1
donne 1
drei 1
droit 1
dung 1
dunia 1
durch 1
duy@@ 1
dài 1
dès 1
déjà 1
démoc@@ 1
dön@@ 1
dü 1
earch 1
earlier 1
eben 1
eben@@ 1
ección 1
ecek@@ 1
ecia 1
ecke 1
eden 1
edly 1
efe 1
effectu@@ 1
ehe 1
ehem@@ 1
eint 1
ekana 1
elabor@@ 1
elde 1
elektr@@ 1
eleri 1
emper@@ 1
emplo@@ 1
encial 1
endas 1
endem@@ 1
endre 1
energ@@ 1
enero 1
enfr@@ 1
engo 1
enor@@ 1
enst 1
entaire 1
enton@@ 1
entw@@ 1
enzi 1
episode 1
equi@@ 1
erb@@ 1
eren 1
erer 1
erre@@ 1
eröff@@ 1
esine 1
eso 1
españ@@ 1
española 1
espè@@ 1
espèces 1
esqu@@ 1
estu@@ 1
etc. 1
etten 1
ettiği 1
etts 1
etu 1
etwa 1
eté 1
européenne 1
evangel@@ 1
explic@@ 1
exter@@ 1
ezas 1
eña 1
fabri@@ 1
faire 1
faite 1
fall@@ 1
fantas@@ 1
fass@@ 1
favor@@ 1
faz@@ 1
featured 1
febr@@ 1
fed@@ 1
fera 1
fest 1
festiv@@ 1
festival 1
fica 1
fich@@ 1
ficos 1
fie 1
fig 1
fili@@ 1
fille 1
film@@ 1
fils 1
finden 1
flan@@ 1
forte 1
fot@@ 1
founded 1
franc@@ 1
franch@@ 1
fres@@ 1
front@@ 1
fte 1
ften 1
fully 1
furt 1
fá@@ 1
führen 1
fül@@ 1
fün@@ 1
garde 1
gart 1
gaz 1
ged@@ 1
geg@@ 1
gegen 1
gegen@@ 1
gek@@ 1
gemein@@ 1
genç 1
gesellschaft 1
gesi 1
gether 1
gez@@ 1
geç@@ 1
gin@@ 1
giy@@ 1
gobernador 1
gouvernement 1
group@@ 1
guar@@ 1
gyp@@ 1
gé@@ 1
générale 1
gül@@ 1
gün@@ 1
habe 1
haben 1
haci@@ 1
hakk@@ 1
hali@@ 1
halk@@ 1
hamia 1
hangi 1
hata 1
hek@@ 1
helped 1
heraus@@ 1
herr@@ 1
hie 1
hier 1
historia 1
hizo 1
hommes 1
horas 1
hosp@@ 1
htt@@ 1
huo 1
huy 1
huyện 1
hâ@@ 1
häl@@ 1
hér@@ 1
hòa 1
hör@@ 1
icht@@ 1
ichte 1
ichten 1
ickl@@ 1
idades 1
idari 1
idir 1
ierra 1
iges 1
igt 1
igten 1
igung 1
ihres 1
iku@@ 1
ilde 1
ildi 1
ileri 1
ilio 1
ilir 1
illos 1
ilç@@ 1
imani 1
iment 1
imientos 1
immer 1
impos@@ 1
imu 1
inah@@ 1
inat@@ 1
inaug@@ 1
inaugur@@ 1
inay@@ 1
inclin@@ 1
incor@@ 1
innov@@ 1
install@@ 1
intro@@ 1
iones 1
irik@@ 1
iriki 1
isches 1
ishia 1
isierung 1
isim@@ 1
isième 1
isión 1
ispo 1
issues 1
iste 1
isten 1
istes 1
isti 1
istischen 1
iten@@ 1
iteur 1
itos 1
itzer 1
ités 1
iß@@ 1
iç 1
ió 1
ión 1
iğ@@ 1
jard@@ 1
jet@@ 1
jeux 1
juillet 1
juli@@ 1
kalm@@ 1
kama 1
kani 1
kann 1
kari@@ 1
karne 1
kesi 1
kez 1
kik@@ 1
kili@@ 1
kip@@ 1
kiz@@ 1
klin 1
kmale 1
koa 1
kommen 1
kommt 1
kote 1
kua 1
kuk 1
kush@@ 1
kämp@@ 1
kü@@ 1
kün@@ 1
kıl@@ 1
lama 1
landa 1
langue 1
lanz@@ 1
larda 1
larger 1
ların 1
latter 1
laun@@ 1
laya 1
layan 1
lege 1
lere 1
lichen 1
lichkeit 1
likely 1
lili@@ 1
limit@@ 1
liner 1
linie 1
lir 1
lise 1
lisi 1
lista 1
liste 1
liwa 1
lors@@ 1
loss 1
luğu 1
là 1
lük 1
lık 1
lık@@ 1
lığı 1
mada 1
madre 1
magaz@@ 1
mals 1
mando 1
manif@@ 1
mannschaft 1
manufac@@ 1
marca 1
mars 1
marzo 1
mash@@ 1
maß@@ 1
mch@@ 1
medio 1
meng@@ 1
meni 1
mento 1
merkezi 1
mexic@@ 1
milieu 1
mim@@ 1
mittel@@ 1
miş 1
miş@@ 1
modific@@ 1
mois 1
municipio 1
mz@@ 1
mà 1
mê@@ 1
môn 1
mü@@ 1
müc@@ 1
mül@@ 1
nach 1
nahe 1
natur@@ 1
neces@@ 1
ners 1
neue 1
neur 1
neği 1
ngo@@ 1
ngữ 1
nh 1
nhof 1
nig 1
nim@@ 1
nne 1
nom 1
nommen 1
nord 1
nouvelle 1
novi@@ 1
nten 1
nur 1
nú@@ 1
nın 1
ober@@ 1
obst@@ 1
ocasi@@ 1
occas@@ 1
occup@@ 1
ocho 1
octo@@ 1
océ@@ 1
oder 1
ogoro 1
ograf@@ 1
oires 1
okeo 1
olay@@ 1
olojik 1
ombo 1
onale 1
onales 1
ondo@@ 1
onio 1
onné 1
opera 1
opposition 1
ordnung 1
originally 1
orta@@ 1
osaur@@ 1
otra 1
otur@@ 1
outre 1
ouvent 1
ouver@@ 1
owned 1
oyun 1
oğ@@ 1
paci@@ 1
pande 1
parc 1
parenti@@ 1
parents 1
parte 1
parti 1
pasado 1
paso 1
passage 1
pek@@ 1
performed 1
pes@@ 1
pewa 1
pf@@ 1
phyl@@ 1
phố 1
piano 1
pis@@ 1
platz 1
pler@@ 1
polici@@ 1
politik 1
populaire 1
popular@@ 1
prati@@ 1
premier 1
president 1
preuve 1
principal 1
prix 1
produ@@ 1
produce 1
professi@@ 1
program@@ 1
promotion 1
propose 1
protég@@ 1
prés@@ 1
publié 1
puer@@ 1
quartier 1
quier@@ 1
quy 1
rağ@@ 1
recherche 1
recht@@ 1
reconn@@ 1
región 1
reich@@ 1
rein@@ 1
releas@@ 1
remains 1
rence 1
rend@@ 1
reste 1
retur@@ 1
revel@@ 1
riere 1
riff@@ 1
rum@@ 1
rur@@ 1
rä@@ 1
rév@@ 1
sao 1
schen@@ 1
schluss 1
schnit@@ 1
schrift 1
schwar@@ 1
sebe@@ 1
sede 1
segu@@ 1
sehr 1
seig@@ 1
seinen 1
seiner 1
seis 1
selbst 1
sell 1
shot 1
sied@@ 1
simil@@ 1
simpl@@ 1
simple 1
siri 1
siti@@ 1
siyas@@ 1
siz@@ 1
sociation 1
soft 1
soit 1
solic@@ 1
solo 1
sonra 1
sort 1
sozi@@ 1
sozial@@ 1
staat@@ 1
statt 1
stein@@ 1
stel@@ 1
stellen 1
sters 1
stil@@ 1
stir 1
stitu@@ 1
strum@@ 1
studi@@ 1
städ@@ 1
stän@@ 1
subject 1
subsequently 1
succes@@ 1
success@@ 1
sud 1
sug@@ 1
suggest@@ 1
suj@@ 1
supported 1
surviv@@ 1
sí 1
sông 1
sö@@ 1
sü@@ 1
sık@@ 1
taki 1
tario 1
taus@@ 1
taş 1
tech@@ 1
telev@@ 1
tels 1
temps 1
teria 1
territoires 1
teur 1
teurs 1
theater 1
theo 1
thu 1
thành 1
thí 1
thị 1
thổ 1
ticas 1
tidae 1
tido 1
tiem@@ 1
tiene 1
tige 1
tiki 1
timi 1
tionn@@ 1
tischen 1
tisha 1
tiva 1
tivities 1
tiş@@ 1
tober 1
tori@@ 1
toujours 1
tourn@@ 1
tous 1
toute 1
tradition@@ 1
tradu@@ 1
transfer@@ 1
trat 1
trat@@ 1
trik 1
tros 1
trouv@@ 1
trực 1
ttem@@ 1
tungs@@ 1
turas 1
turn@@ 1
tuy@@ 1
tä@@ 1
té@@ 1
tí@@ 1
tôi 1
tü@@ 1
tür 1
tür@@ 1
tır 1
tướng 1
udur 1
uelle 1
ufu 1
uku@@ 1
ukumu 1
ukw@@ 1
ulaire 1
ulus@@ 1
uma@@ 1
umia 1
umma 1
uncu 1
undo 1
unge 1
ungo 1
ungu 1
université 1
unu 1
unza 1
urus 1
usiana 1
ustos 1
usually 1
utar@@ 1
utsch@@ 1
utu 1
utz@@ 1
uvent 1
uw@@ 1
uyla 1
uyền 1
uza 1
uzun 1
uç@@ 1
uğu 1
uş 1
vai 1
vard@@ 1
veaux 1
veh@@ 1
vement 1
venes 1
venir 1
verb@@ 1
verein@@ 1
verk@@ 1
versu@@ 1
victory 1
vient 1
vier@@ 1
vista 1
vita 1
vive 1
vivi@@ 1
voll@@ 1
vos 1
vote 1
vue 1
vur@@ 1
ví 1
vô 1
wach@@ 1
wag@@ 1
wahi 1
wahr@@ 1
wais@@ 1
waka 1
wale 1
walt 1
wann 1
wanza 1
wao 1
wash@@ 1
waw@@ 1
waz@@ 1
week@@ 1
wenda 1
wezi 1
whom 1
wieder 1
wiesen 1
woh@@ 1
wol@@ 1
wur@@ 1
xã 1
yakın 1
yana@@ 1
yaşam@@ 1
yerek 1
yeri 1
yla 1
ympi@@ 1
yol 1
yolu 1
yor 1
yor@@ 1
yoğ@@ 1
yön@@ 1
yük 1
yüksel@@ 1
yüz@@ 1
yıldız@@ 1
zaman@@ 1
zeitig 1
zeng@@ 1
zim@@ 1
zona 1
zonas 1
zust@@ 1
zwei 1
 1
¦ 1
¨ 1
¬ 1
¯ 1
¶ 1
¹ 1
À 1
Ã 1
Ç 1
États 1
Ì@@ 1
Í 1
Ñ@@ 1
Öl@@ 1
Österreich 1
Þ 1
ß 1
ài 1
ám 1
ánica 1
äch@@ 1
äf@@ 1
ähr@@ 1
änge 1
äts@@ 1
ätte 1
ätten 1
çok 1
çı 1
édi@@ 1
église 1
érieure 1
était 1
état 1
étique 1
étr@@ 1
études 1
évision 1
ích 1
íncipe 1
ística 1
òn 1
óg@@ 1
óm 1
ôn 1
öch@@ 1
öff@@ 1
öm@@ 1
öst@@ 1
österreich@@ 1
ösung 1
öğ@@ 1
ús@@ 1
über@@ 1
ün 1
üne 1
üre@@ 1
ürl@@ 1
üstü 1
üt 1
üt@@ 1
ütz@@ 1
üç@@ 1
üçük 1
ÿ 1
ĉ 1
ċ@@ 1
Định 1
Đồng 1
Độ 1
Đức 1
đo@@ 1
đạo 1
đảo 1
Ĕ@@ 1
ė@@ 1
Ğ 1
ği 1
ğin 1
ğu 1
İkinci 1
İr@@ 1
İzmir 1
İş@@ 1
ıc@@ 1
ıcı 1
ımı 1
ından 1
ını 1
ızca 1
ığ@@ 1
ığın 1
ĵ 1
Ķ@@ 1
ļ@@ 1
ľ@@ 1
ň 1
Ő@@ 1
œ 1
ř 1
Şark@@ 1
Şir@@ 1
şi 1
şid@@ 1
ŭ@@ 1
ů 1
ư 1
Ǎ@@ 1
ǰ@@ 1
Ș@@ 1
ɕ 1
ɖ@@ 1
ɗ 1
ɤ@@ 1
ɨ 1
ɭ@@ 1
ɳ 1
ɳ@@ 1
ɴ 1
ɴ@@ 1
ɹ 1
ʀ 1
ʀ@@ 1
ʂ@@ 1
ʄ 1
ʈ@@ 1
ʋ 1
ʏ 1
ʏ@@ 1
ʑ@@ 1
ʖ 1
ʡ@@ 1
ʧ 1
ʲ 1
ʷ 1
ˀ@@ 1
ˁ@@ 1
ˈ 1
ˌ 1
ˮ 1
̀ 1
̈ 1
̯ 1
΄ 1
Ί@@ 1
Ό@@ 1
ΐ@@ 1
Αγίας 1
Αγίου 1
Αερ@@ 1
Αθλ@@ 1
Αιγ@@ 1
Ανατολ@@ 1
Βασίλ@@ 1
Βορ@@ 1
Βου@@ 1
Γ 1
Γε@@ 1
Δημή@@ 1
Διεθν@@ 1
Ελληνική 1
Ευρωπαϊκ@@ 1
Η@@ 1
Θεσσαλ@@ 1
Ιν@@ 1
Ιωάννη 1
Ιωάννης 1
Κά@@ 1
Κέν@@ 1
Καζ@@ 1
Καλλ@@ 1
Κατα@@ 1
Κο@@ 1
Κορ@@ 1
Κωνσταντινού@@ 1
Κό@@ 1
Κύπρου 1
Λι@@ 1
Λου@@ 1
Μέ@@ 1
Μέγ@@ 1
Μα@@ 1
Μακεδ@@ 1
Μαν@@ 1
Μαρία 1
Με@@ 1
Μιχαήλ 1
Μον@@ 1
Νε@@ 1
Πα@@ 1
Παν@@ 1
Πανεπιστήμιο 1
Πε@@ 1
Περ@@ 1
Περι@@ 1
Πλ@@ 1
Προ@@ 1
Πρω@@ 1
Ρ@@ 1
Σο@@ 1
Στέ@@ 1
Συ@@ 1
Τρί@@ 1
Φίλιπ@@ 1
Χαρ@@ 1
Ω 1
Ω@@ 1
άγ@@ 1
άδες 1
άζοντας 1
άκης 1
άλ@@ 1
άλασ@@ 1
άλογ@@ 1
άλυ@@ 1
άνης 1
άνθρω@@ 1
άνω 1
άρ 1
άρχης 1
άς 1
άσης 1
άφ@@ 1
έ 1
έδ@@ 1
έπ@@ 1
έρ@@ 1
έρα 1
έσ@@ 1
ήλ 1
ήνη 1
ήρ@@ 1
ήσ@@ 1
ίβ@@ 1
ίδας 1
ίδι@@ 1
ίκος 1
ίλ@@ 1
ίπ@@ 1
ίων 1
αία 1
αίας 1
αίνει 1
αίου 1
αδ@@ 1
αιρε@@ 1
ακόμα 1
ανία 1
ανα@@ 1
ανδρ@@ 1
αντί 1
αντι 1
απ@@ 1
ασ@@ 1
ασσ@@ 1
αχ@@ 1
βα 1
βα@@ 1
βη@@ 1
βι@@ 1
γέν@@ 1
γεω@@ 1
γιος 1
γρήγ@@ 1
δά@@ 1
δε 1
δη 1
δη@@ 1
δης 1
διά 1
διαί@@ 1
διαβ@@ 1
δική 1
είου 1
εγ@@ 1
εδ@@ 1
ειακή 1
ειες 1
ειο 1
εκκλησία 1
ελεύθερ@@ 1
εμ@@ 1
εμβ@@ 1
εν 1
ερ 1
ερχ@@ 1
ετα@@ 1
ευ@@ 1
εφ@@ 1
ηγ@@ 1
ημερ@@ 1
ην 1
ητικό 1
θάλασ@@ 1
θέ@@ 1
θή@@ 1
θε@@ 1
θερ@@ 1
θη@@ 1
θμ@@ 1
θν@@ 1
θος 1
θρ@@ 1
θυ@@ 1
ιάς 1
ιακ@@ 1
ιγ@@ 1
ιδ@@ 1
ικό 1
ικός 1
ιν@@ 1
ιοι 1
ιπ@@ 1
ιτ@@ 1
ιχ@@ 1
κα 1
καθε@@ 1
κατα@@ 1
κατε@@ 1
κε@@ 1
κερ@@ 1
κεφ@@ 1
κι@@ 1
κλ@@ 1
κλει@@ 1
κο@@ 1
κον@@ 1
κραν@@ 1
λά@@ 1
λί@@ 1
λαμβ@@ 1
λει@@ 1
λειτουργία 1
λευθερ@@ 1
λη 1
λιος 1
λλ@@ 1
λο 1
λυ@@ 1
λυμπ@@ 1
μένα 1
μένη 1
μακ@@ 1
μαχ@@ 1
μβ@@ 1
με 1
μενο 1
μερ@@ 1
μεσ@@ 1
μετ@@ 1
μη 1
μι@@ 1
μμ@@ 1
μο 1
μονα@@ 1
μφ@@ 1
μύ@@ 1
να 1
νες 1
νησί 1
νησι@@ 1
νι@@ 1
νικ@@ 1
νο@@ 1
νόμ@@ 1
ξη 1
ολ@@ 1
ολόγ@@ 1
ονία 1
ορ@@ 1
ορθ@@ 1
ορο@@ 1
ουδ@@ 1
ουν 1
ους 1
ού 1
ούλ@@ 1
παί@@ 1
παίρν@@ 1
παιδ@@ 1
παρά 1
περ@@ 1
περισσ@@ 1
περιστ@@ 1
περιφέρ@@ 1
πλ@@ 1
ποι@@ 1
πολλ@@ 1
πολυ@@ 1
προσ@@ 1
πόλε@@ 1
ράς 1
ρέ@@ 1
ρί@@ 1
ρίσ@@ 1
ραβ@@ 1
ρακ@@ 1
ραν 1
ραν@@ 1
ραφ@@ 1
ργ@@ 1
ριά 1
ρισ@@ 1
ριστο@@ 1
ροι 1
ρον@@ 1
ροφή 1
ρω@@ 1
ς@@ 1
σί@@ 1
σε@@ 1
σεις 1
σημαν@@ 1
σμ@@ 1
σου@@ 1
σσ@@ 1
στήρι@@ 1
στα@@ 1
συ@@ 1
σφ@@ 1
σχ@@ 1
τ 1
τέ@@ 1
τί@@ 1
τα 1
τα@@ 1
την 1
τι 1
τικ@@ 1
τική 1
τικό 1
τικός 1
τις 1
τολή 1
τον 1
τουργ@@ 1
τούν 1
τραγ@@ 1
τρια 1
τρο 1
τσι@@ 1
τυχ@@ 1
των 1
τός 1
τώ 1
υ 1
υγ@@ 1
υδ@@ 1
υκ@@ 1
υρ@@ 1
υσ@@ 1
φάν@@ 1
φαν@@ 1
φιλοσοφ@@ 1
φορά 1
φος 1
φων@@ 1
φύ@@ 1
χαλ@@ 1
χαρ@@ 1
χει@@ 1
χη 1
χο 1
χρόν@@ 1
χωριά 1
χώ@@ 1
χώρ@@ 1
ωγ@@ 1
ωλ@@ 1
ωνα 1
όδ@@ 1
όδο@@ 1
όκ@@ 1
όλοι 1
όμ@@ 1
όν 1
όν@@ 1
όνια 1
όνομ@@ 1
όπ@@ 1
όρ@@ 1
όρος 1
ότα@@ 1
ότητα 1
όφ@@ 1
ύγ@@ 1
ύλ@@ 1
ύν@@ 1
ώ 1
ώδ@@ 1
ών@@ 1
ώνα 1
ώρ@@ 1
Ϩ@@ 1
Є 1
Ак@@ 1
Александр 1
Александра 1
Ан@@ 1
Бай@@ 1
Бан@@ 1
Бело@@ 1
Би@@ 1
Бол@@ 1
Бы@@ 1
ВС 1
Ва@@ 1
Вален@@ 1
Варна 1
Велико@@ 1
Влади@@ 1
Во 1
Воро@@ 1
Вто@@ 1
Въз@@ 1
Го@@ 1
Гра@@ 1
Гро@@ 1
Дани@@ 1
Дар@@ 1
Дмит@@ 1
Ду@@ 1
Ер@@ 1
Жи@@ 1
З 1
Запад@@ 1
Зем@@ 1
Им@@ 1
Институ@@ 1
К 1
Кал@@ 1
Каро@@ 1
Ке@@ 1
Кита@@ 1
Кор@@ 1
Крас@@ 1
Кри@@ 1
Кръ@@ 1
Лай@@ 1
Лит@@ 1
Македо@@ 1
Мал@@ 1
Ман@@ 1
Мария 1
Ме@@ 1
Мето@@ 1
Мини@@ 1
Мол@@ 1
Мон@@ 1
Мор@@ 1
Москва 1
Национа@@ 1
Не@@ 1
Ни@@ 1
Никола 1
Но 1
Ну@@ 1
Отече@@ 1
Па@@ 1
Пат@@ 1
Пе@@ 1
Пи@@ 1
Поль@@ 1
Пра@@ 1
При 1
Про@@ 1
Пу@@ 1
Пър@@ 1
РО 1
Рабо@@ 1
Ру@@ 1
СССР 1
Санкт 1
Сара@@ 1
Се@@ 1
Сло@@ 1
Совета 1
Ста@@ 1
Стара 1
Т 1
Тат@@ 1
Те 1
Ти@@ 1
То@@ 1
Тра@@ 1
Тро@@ 1
Фо@@ 1
Фу@@ 1
Фё@@ 1
Хай@@ 1
Хан@@ 1
Ху@@ 1
Центра@@ 1
Цер@@ 1
Ч 1
Черно@@ 1
Ш 1
Шар@@ 1
Ши@@ 1
Шу@@ 1
Ы@@ 1
Э 1
Эр@@ 1
Ю 1
Я 1
аб@@ 1
ав@@ 1
аври@@ 1
ай@@ 1
ана 1
ана@@ 1
анд@@ 1
ани@@ 1
ап@@ 1
апреля 1
ар 1
ара 1
армия 1
архите@@ 1
архитек@@ 1
ата 1
ати 1
ать 1
ау@@ 1
бай@@ 1
бал@@ 1
бан 1
бан@@ 1
бар@@ 1
безо@@ 1
бит@@ 1
бло@@ 1
боль@@ 1
бра@@ 1
бре@@ 1
бу 1
бур@@ 1
бург@@ 1
бъ@@ 1
бы@@ 1
был 1
вале@@ 1
вался 1
вари@@ 1
вати@@ 1
вая 1
ве 1
вен@@ 1
вени 1
версите@@ 1
вза@@ 1
ви 1
висо@@ 1
вия 1
вна 1
внутрен@@ 1
вобо@@ 1
вод@@ 1
воз@@ 1
вой 1
война 1
войска 1
вра@@ 1
вро@@ 1
вский 1
встре@@ 1
вя@@ 1
га 1
ган 1
ган@@ 1
гат 1
гель@@ 1
ген@@ 1
ги 1
ги@@ 1
гин@@ 1
гла 1
годишна 1
госу@@ 1
государствен@@ 1
гра@@ 1
графи@@ 1
гро@@ 1
група 1
гу 1
губер@@ 1
дан 1
дан@@ 1
деж@@ 1
дей 1
декабря 1
дение 1
держ@@ 1
джи@@ 1
дии 1
дин 1
доб@@ 1
дов@@ 1
дове@@ 1
договор 1
дом 1
дор 1
душ@@ 1
дь 1
ева 1
ево 1
ед@@ 1
ек@@ 1
емые 1
ента@@ 1
ж 1
же 1
жение 1
жество 1
жизнь 1
закон@@ 1
зан 1
зан@@ 1
зано 1
зви@@ 1
зе 1
зем@@ 1
зии 1
зо 1
зу@@ 1
изда@@ 1
ил 1
им@@ 1
има 1
ино@@ 1
ис@@ 1
использо@@ 1
ита@@ 1
ителен 1
ительно 1
ити 1
йн@@ 1
каза@@ 1
как@@ 1
камен@@ 1
кан 1
кана@@ 1
кар 1
кар@@ 1
кафе@@ 1
ках 1
кен@@ 1
кина 1
кия 1
кня@@ 1
ком@@ 1
командо@@ 1
коми@@ 1
кон@@ 1
кор@@ 1
космиче@@ 1
крат@@ 1
кресть@@ 1
кри@@ 1
кс@@ 1
кси@@ 1
ктор 1
ку 1
куль@@ 1
культуры 1
лан 1
лат@@ 1
ле 1
лев@@ 1
лек@@ 1
лем 1
лена 1
ление 1
лес 1
лет 1
лка 1
лла 1
лли@@ 1
лов@@ 1
лова 1
лович 1
лство 1
лу 1
лъ@@ 1
льно 1
льного 1
льные 1
лю@@ 1
ля 1
ля@@ 1
мал@@ 1
малка 1
ман 1
мар@@ 1
мат@@ 1
материа@@ 1
ме 1
мел@@ 1
мет@@ 1
мир@@ 1
мите 1
много 1
мпи@@ 1
музи@@ 1
народ@@ 1
нас 1
нер@@ 1
нет 1
низа@@ 1
нии 1
ник@@ 1
ники 1
нина 1
них 1
ницы 1
нов 1
нов@@ 1
нович 1
нового 1
ного 1
нос@@ 1
ности 1
нь 1
ня@@ 1
обла@@ 1
общ@@ 1
объек@@ 1
ография 1
округа 1
он@@ 1
она 1
они@@ 1
ора 1
остров 1
още 1
па 1
памят@@ 1
пан@@ 1
пара@@ 1
пат@@ 1
пер@@ 1
писа@@ 1
пов 1
полу@@ 1
поль@@ 1
пост 1
поэ@@ 1
пр@@ 1
пра@@ 1
прав@@ 1
предостав@@ 1
преме@@ 1
природ@@ 1
провинции 1
проце@@ 1
публикан@@ 1
пут@@ 1
район@@ 1
ран 1
распо@@ 1
рато@@ 1
реда@@ 1
рез@@ 1
рей 1
рес@@ 1
рик 1
рина 1
рите@@ 1
рова@@ 1
род 1
рода 1
рон 1
ру 1
самого 1
сан@@ 1
сва@@ 1
свобо@@ 1
се 1
се@@ 1
себя 1
семейството 1
сер@@ 1
ских 1
ския 1
ско 1
ском 1
скус@@ 1
слав@@ 1
сли@@ 1
сни@@ 1
соб@@ 1
сов@@ 1
совет 1
совет@@ 1
сово 1
спе@@ 1
спу@@ 1
сс 1
ста 1
станов@@ 1
стат@@ 1
ства 1
ственной 1
стена 1
сти 1
ститу@@ 1
стр 1
стра@@ 1
ступа@@ 1
сты 1
сты@@ 1
су 1
сул@@ 1
със 1
сь 1
ся 1
ся@@ 1
те 1
тела 1
тет 1
теше@@ 1
тии 1
тин 1
тно@@ 1
то 1
тов 1
том 1
том@@ 1
тор 1
тори 1
трудо@@ 1
туры 1
ть@@ 1
тё@@ 1
ул@@ 1
управ@@ 1
управление 1
уро@@ 1
ф@@ 1
фа@@ 1
флот 1
фо@@ 1
фронт 1
хи 1
хо 1
цар 1
цей 1
цен@@ 1
ци 1
цией 1
ците 1
чен@@ 1
чено 1
чер@@ 1
чески 1
ческие 1
чин 1
чо 1
чу@@ 1
ша@@ 1
шан@@ 1
шва 1
шев 1
шей 1
шел 1
шин@@ 1
шки 1
шко 1
щ 1
ще 1
щения 1
ый 1
ьи 1
ьо@@ 1
ья 1
эй@@ 1
эк@@ 1
этой 1
ям 1
ян 1
ян@@ 1
ят 1
ём@@ 1
ёт 1
њ@@ 1
ћ@@ 1
ќ 1
ў 1
Ғ@@ 1
ғ 1
ҙ@@ 1
ҟ@@ 1
ң 1
Ү@@ 1
ҷ@@ 1
ҹ@@ 1
ӏ@@ 1
ӑ@@ 1
ӕ 1
Ә@@ 1
ө 1
Ա@@ 1
Ե@@ 1
Թ@@ 1
Լ@@ 1
Խ@@ 1
Ղ@@ 1
Վ@@ 1
դ@@ 1
զ 1
թ 1
ժ@@ 1
ճ@@ 1
մ 1
շ@@ 1
ս 1
ց@@ 1
ւ 1
ք 1
ք@@ 1
օ@@ 1
֔ 1
֜ 1
֣ 1
֨ 1
֫ 1
ֳ@@ 1
־ 1
ן@@ 1
؊ 1
ؙ@@ 1
ؚ@@ 1
ؠ@@ 1
آخرين 1
أجل 1
أحي@@ 1
أشهر 1
أعل@@ 1
أغسطس 1
أفراد 1
أند@@ 1
أنش@@ 1
أنها 1
أواخر 1
أوب@@ 1
أوروبا 1
أيضًا 1
إج@@ 1
إحدى 1
إسبانيا 1
إضافة 1
إنشاء 1
ئية 1
استخدام 1
اطق 1
الأطفال 1
الأعمال 1
الأك@@ 1
الأه@@ 1
الإج@@ 1
الإسرائ@@ 1
الإنترنت 1
الإنجليزية 1
الاجتماع@@ 1
البداية 1
البريطانية 1
التالي 1
التالية 1
الثانية 1
الجان@@ 1
الجنوبية 1
الحالات 1
الخارجية 1
الخاصة 1
الخام@@ 1
الداخلية 1
الدرجة 1
الدفاع 1
الدينية 1
الرئيس 1
السابقة 1
السري@@ 1
السلطة 1
السياس@@ 1
السين@@ 1
الشرقية 1
الشركة 1
الصغيرة 1
العديد 1
العلاج 1
القديمة 1
القرية 1
الكت@@ 1
المجتمع 1
المجموعة 1
المدرسة 1
الملك@@ 1
الموجودة 1
الموقع 1
الوسط@@ 1
اليون@@ 1
املة 1
انتقل 1
اهدة 1
باريس 1
بشكل 1
بعدها 1
تجات 1
تحديد 1
ترنت 1
تشمل 1
تصميم 1
تنفي@@ 1
توضيح 1
تية 1
جديدة 1
حدة 1
حدى 1
حكومة 1
خاصة 1
ددة 1
دورة 1
روسيا 1
ريقة 1
سبتمبر 1
ستخد@@ 1
صناعة 1
ضافة 1
طانيا 1
طيع 1
عاماً 1
عاية 1
عضاء 1
عملية 1
عندما 1
فرقة 1
فريق 1
فريقيا 1
فقة 1
فيلم 1
قها 1
كتابة 1
لجنة 1
لفة 1
لفزي@@ 1
لكنه 1
لندا 1
لندي 1
لومیٹر 1
ليين 1
مباشرة 1
مجلة 1
مجموعة 1
معهم 1
مواليد 1
ناحية 1
نامج 1
نجلي@@ 1
ندما 1
ندية 1
نوعة 1
والتي 1
وزارة 1
وفاته 1
ومية 1
وهناك 1
ويورك 1
يبلغ 1
يتبع 1
يته 1
يجب 1
يشير 1
يعمل 1
يفة 1
يمكن 1
ٚ 1
ٛ 1
ٮ@@ 1
ٷ 1
ٷ@@ 1
ٿ 1
ڋ 1
ڍ 1
ڨ@@ 1
ڮ 1
ڱ@@ 1
ڹ 1
ۀ@@ 1
ۆ 1
ۇ 1
ۉ@@ 1
ۍ@@ 1
ێ@@ 1
ۏ 1
ۑ 1
ۘ 1
ۛ 1
۝ 1
ۢ@@ 1
ۦ 1
ۨ 1
ۨ@@ 1
ۯ 1
ۿ 1
ܖ 1
ܗ@@ 1
ܘ 1
ܙ@@ 1
ܚ 1
ܟ@@ 1
ܡ 1
ܢ 1
ܣ 1
ܥ 1
ܦ@@ 1
ܩ@@ 1
ܪ 1
ܶ@@ 1
ܸ@@ 1
ܹ@@ 1
ܼ@@ 1
ܽ@@ 1
ݒ 1
ݘ 1
ހ@@ 1
ޔ@@ 1
ޖ@@ 1
ޤ@@ 1
ާ 1
ާ@@ 1
ި 1
ީ 1
ޫ@@ 1
ް 1
ࠂ@@ 1
ࠄ@@ 1
ࠆ@@ 1
ࠌ 1
ࠝ@@ 1
ࠟ@@ 1
ࣿ 1
ࣿ@@ 1
ँ 1
ंगा 1
ंगे 1
ंच@@ 1
ंड@@ 1
ंडर 1
ंडी 1
ंडे@@ 1
ंद@@ 1
अं@@ 1
अंग 1
अंग@@ 1
अंतरराष 1
अका@@ 1
अथ@@ 1
अद 1
अन@@ 1
अनि@@ 1
अनु@@ 1
अप@@ 1
अपने 1
अफ 1
अब 1
अभ@@ 1
अभि@@ 1
अम 1
अर@@ 1
अल 1
अली 1
अस@@ 1
अहम@@ 1
आँ@@ 1
आंदोलन 1
आत 1
आध@@ 1
आर 1
इं@@ 1
इंडिया 1
इच 1
इन 1
ईश 1
उड 1
उत 1
उदाहरण 1
उप@@ 1
उपा@@ 1
ऊ 1
ऊर 1
ए@@ 1
एं 1
एंड 1
एवं 1
एस 1
एस@@ 1
ऑक 1
कत 1
कथा 1
कम@@ 1
करा@@ 1
कहा 1
कहानी 1
काओं 1
काम@@ 1
कार 1
कार@@ 1
काल 1
काल@@ 1
काव 1
किल 1
कुमा@@ 1
कुमार 1
कुर 1
कृ@@ 1
केश 1
कै@@ 1
कोण 1
कौ@@ 1
खा@@ 1
खो@@ 1
गं@@ 1
गंगा 1
गए 1
गठन 1
गया 1
गाँव 1
गि@@ 1
गुप 1
गुरु@@ 1
गे@@ 1
गौ@@ 1
घ 1
घाट 1
चर 1
चि@@ 1
चू@@ 1
चे@@ 1
चै@@ 1
छत 1
छा@@ 1
छी 1
छे@@ 1
छो@@ 1
छोटा 1
छोड 1
जग@@ 1
जनता 1
जना 1
जल@@ 1
जहा@@ 1
जीत 1
जीव 1
जीवन 1
जै@@ 1
जैन 1
जो 1
झ 1
झील 1
ञ@@ 1
टर 1
टा@@ 1
टि 1
टू@@ 1
टे 1
टेक 1
डम 1
डा 1
डि@@ 1
डिया 1
डी 1
डे@@ 1
णा@@ 1
णी 1
णु@@ 1
तः 1
तथा 1
तरण 1
तिम 1
तीर 1
तु 1
तृ@@ 1
तो 1
थक 1
थन 1
थान 1
दय 1
दि 1
दित 1
दिन 1
दिया 1
दु 1
दू 1
दू@@ 1
देते 1
दो 1
दों 1
दौर 1
धा 1
धान 1
धू@@ 1
धो@@ 1
नंद 1
नगर 1
नज 1
नपुर 1
नवा@@ 1
नां@@ 1
नाइटेड 1
नाटक 1
नाम 1
नारायण 1
निकों 1
निया 1
निष 1
निस 1
नु@@ 1
नेपाल 1
पक 1
पढ 1
पन 1
पना 1
पर@@ 1
पश 1
पा 1
पार 1
पुत 1
पुनर 1
पुरी 1
पुस 1
पृ@@ 1
पृथ 1
फा@@ 1
फि@@ 1
बं@@ 1
बंध@@ 1
बच 1
बच@@ 1
बचा@@ 1
बड 1
बत 1
बद@@ 1
बन 1
बन@@ 1
बहु@@ 1
बाज 1
बाल 1
बाहर 1
बिन 1
बिहार 1
बु@@ 1
बे@@ 1
बै@@ 1
भगवान 1
भर 1
भव 1
भव@@ 1
भविष 1
भार@@ 1
भी 1
भूमि@@ 1
मत@@ 1
मनो@@ 1
मल 1
मह@@ 1
महाराष 1
महि@@ 1
माता 1
मान@@ 1
मानक 1
मार 1
माल 1
मास 1
मिक 1
मिला 1
मुख 1
मुस 1
मृत 1
मे 1
मौ@@ 1
यद 1
यन 1
याग 1
यान 1
येक 1
रंग 1
रक 1
रख@@ 1
रत@@ 1
रता 1
रति 1
रथ@@ 1
रदर 1
रमण 1
रमा@@ 1
रल 1
रव 1
रहने 1
रां@@ 1
राइ@@ 1
राक 1
राजस 1
राण@@ 1
रान 1
राब 1
रार 1
राष 1
राह@@ 1
रि 1
रिक 1
रिका 1
रिज 1
रीन 1
रीय 1
रु 1
रुप@@ 1
रू@@ 1
रेक 1
रेज 1
रेन 1
रेम 1
रेल 1
रोज 1
ऱ@@ 1
लख@@ 1
लग 1
लत 1
लर 1
लाह 1
लिम 1
लिय@@ 1
ली@@ 1
लू 1
लों 1
लौ@@ 1
वज 1
वन@@ 1
वय@@ 1
वर 1
वर@@ 1
वली 1
वह 1
वाक 1
वार@@ 1
वि 1
विक 1
विजय 1
विध 1
विध@@ 1
विन 1
विभाग 1
विशे@@ 1
वी@@ 1
वेद@@ 1
शं@@ 1
शर 1
शरीर 1
शस 1
शाही 1
शिक 1
शिव@@ 1
शुक 1
शू@@ 1
षक 1
षि 1
षि@@ 1
संख 1
संगीत 1
संयुक 1
संसद 1
सक 1
सन 1
सब@@ 1
सभा 1
समुद 1
सर@@ 1
सरकार 1
सल@@ 1
सह@@ 1
सहयोग 1
सागर 1
साम@@ 1
सामान 1
सिं@@ 1
सिन 1
सीसी 1
सुन@@ 1
हन 1
हर 1
हरे 1
हिंदू 1
हित 1
ही 1
हुए 1
हे 1
होता 1
ऽ@@ 1
ारि@@ 1
ारे 1
िया@@ 1
ियो@@ 1
िल 1
ीन 1
ृत 1
ौ 1
॒ 1
०० 1
१० 1
२० 1
३@@ 1
५ 1
५@@ 1
७ 1
९@@ 1
ং 1
ই 1
এ@@ 1
ঐ@@ 1
ঞ@@ 1
ৃ@@ 1
ৈ@@ 1
ৌ@@ 1
ৎ@@ 1
৬@@ 1
ৰ 1
ৱ@@ 1
ਈ@@ 1
ਊ 1
ਐ 1
ਝ@@ 1
ਢ@@ 1
ਥ 1
ਭ 1
੨ 1
੩ 1
੪ 1
ੴ 1
આ@@ 1
ઇ@@ 1
ક 1
ખ 1
ખ@@ 1
ચ@@ 1
જ 1
ઠ@@ 1
ત 1
થ@@ 1
ધ@@ 1
પ 1
ભ@@ 1
ર 1
લ 1
ળ@@ 1
વ@@ 1
શ 1
ૂ@@ 1
ଏ 1
ଓ@@ 1
ଚ 1
ଛ@@ 1
ଝ@@ 1
ଠ 1
ଠ@@ 1
ଣ 1
ଧ 1
ଵ 1
ହ 1
ୌ@@ 1
ୱ@@ 1
ஈ@@ 1
ச 1
ஶ 1
ஸ 1
ோ 1
ఇ@@ 1
ఘ@@ 1
జ 1
ణ@@ 1
థ 1
ృ@@ 1
ై@@ 1
ొ@@ 1
ಝ@@ 1
ಞ@@ 1
ಣ@@ 1
ಧ 1
ಪ 1
ಭ 1
ಸ 1
ೀ 1
ೂ 1
ೃ@@ 1
೯@@ 1
ം@@ 1
അ@@ 1
ആ@@ 1
ഇ@@ 1
എ@@ 1
ഗ 1
ഘ@@ 1
ച 1
ച@@ 1
ജ@@ 1
ദ 1
റ@@ 1
ശ 1
ശ@@ 1
ഷ 1
ഷ@@ 1
സ@@ 1
ഹ@@ 1
െ 1
ൊ@@ 1
ൻ 1
ජ 1
ට 1
ට@@ 1
ප 1
බ 1
බ@@ 1
භ@@ 1
ශ@@ 1
ළ@@ 1
ි 1
ු 1
ก@@ 1
กอ 1
กา@@ 1
ค@@ 1
คุ@@ 1
ง@@ 1
งค@@ 1
จ@@ 1
จักร@@ 1
จุ@@ 1
ช 1
ซิ 1
ฌ@@ 1
ญ@@ 1
ณ 1
ตร 1
ตา@@ 1
ตำ@@ 1
ถ 1
ถ@@ 1
ท 1
ทร@@ 1
บ@@ 1
บาง@@ 1
ป 1
ปริ@@ 1
ผ@@ 1
พิ@@ 1
ภิ@@ 1
มนตรี 1
มพ@@ 1
มั@@ 1
มา 1
ย 1
ยี 1
รัก 1
ราช@@ 1
ล 1
ลักษ@@ 1
ลา@@ 1
ลิ@@ 1
ว 1
วั@@ 1
วี 1
ษ 1
ษ@@ 1
ส@@ 1
สมุ@@ 1
ห@@ 1
ฬ@@ 1
อ 1
อง@@ 1
อา 1
อาณา@@ 1
ฮ@@ 1
ัก@@ 1
ัน@@ 1
ิ 1
ิ@@ 1
ิน 1
ิม 1
ี@@ 1
ุ 1
ุ@@ 1
ู 1
เ@@ 1
เกา@@ 1
เต@@ 1
เท@@ 1
แด@@ 1
แพร@@ 1
แส@@ 1
โ@@ 1
ไทย 1
ກ@@ 1
ຂ@@ 1
ງ 1
ທ@@ 1
ນ 1
ນ@@ 1
ວ@@ 1
ສ@@ 1
າ 1
າ@@ 1
ເ 1
້ 1
ໍ 1
ཆ@@ 1
པ 1
བ 1
ཙ@@ 1
འ 1
ྔ@@ 1
ྟ@@ 1
ྡ@@ 1
ྣ@@ 1
ྦ@@ 1
ྭ@@ 1
ྷ 1
ྷ@@ 1
က@@ 1
ခ@@ 1
င@@ 1
စ@@ 1
ပ@@ 1
သ@@ 1
ု 1
ု@@ 1
ံ@@ 1
ျ@@ 1
ე 1
ჰ@@ 1
ჶ@@ 1
ሃ@@ 1
ል@@ 1
ሎ@@ 1
ሠ 1
ሪ@@ 1
ራ 1
ሰ@@ 1
ስ@@ 1
ሶ@@ 1
ሼ 1
ሽ 1
በ@@ 1
ባ 1
ብ@@ 1
ቦ@@ 1
ት 1
ት@@ 1
ኃ@@ 1
ነ@@ 1
ኛ 1
ኝ 1
ኢ@@ 1
ኤ@@ 1
ክ@@ 1
ኵ@@ 1
ዐ@@ 1
ዕ@@ 1
ዛ 1
ዝ 1
ያ 1
ያ@@ 1
ይ@@ 1
ዮ@@ 1
ዳ@@ 1
ጀ@@ 1
ጉ@@ 1
ጵ@@ 1
ጽ@@ 1
ፈ 1
ፋ@@ 1
គ@@ 1
ង 1
ច@@ 1
ជ 1
ឌ@@ 1
ណ 1
ត 1
ត@@ 1
ន@@ 1
ប@@ 1
វ@@ 1
ហ@@ 1
ឥ@@ 1
ឰ@@ 1
ា 1
ុ@@ 1
ូ@@ 1
េ@@ 1
ែ@@ 1
ះ@@ 1
ᠠ@@ 1
ᠡ@@ 1
ᠢ@@ 1
ᠦ 1
ᠦ@@ 1
ᠨ 1
ᠬ@@ 1
ᠯ@@ 1
ᠲ@@ 1
ᠵ@@ 1
ᠺ@@ 1
ᱜ@@ 1
ᱝ@@ 1
ᵻ@@ 1
Ḍ@@ 1
ḗ 1
ḡ@@ 1
ḫ@@ 1
Ḳ@@ 1
ḳ@@ 1
ḷ 1
ṁ 1
ṅ@@ 1
ṇ 1
ṉ 1
ṓ@@ 1
Ṛ@@ 1
Ṣ 1
ṣ 1
ṳ 1
ẑ 1
Ẓ@@ 1
ẓ 1
ẖ 1
ập 1
ắc 1
ẹ@@ 1
ế 1
ết 1
ịnh 1
ọ@@ 1
ọng 1
ổ 1
ộc 1
ức 1
ỳ@@ 1
ἑ@@ 1
ἕ@@ 1
ἶ@@ 1
Ἱ@@ 1
ὄ@@ 1
Ὄ@@ 1
ὔ@@ 1
Ὑ@@ 1
Ὠ@@ 1
ὴ 1
ᾰ 1
ᾱ 1
Ᾰ@@ 1
Ᾱ@@ 1
᾿ 1
ῃ@@ 1
ῑ@@ 1
Ῥ@@ 1
ῳ@@ 1
ῴ@@ 1
„ 1
‡ 1
‿ 1
⁰ 1
₦ 1
₩ 1
₪ 1
₴ 1
₺ 1
₽ 1
℃ 1
℅ 1
⅔ 1
⅞ 1
⇩ 1
∕ 1
∫ 1
≋ 1
≡ 1
⊰ 1
⊱ 1
⎘ 1
○ 1
◦ 1
☀ 1
☜ 1
☞ 1
☠ 1
♀ 1
♙ 1
♟ 1
♯ 1
⚢ 1
⚣ 1
⚧ 1
✂ 1
✕ 1
➀ 1
➁ 1
➂ 1
➃ 1
➄ 1
➅ 1
➆ 1
➇ 1
➈ 1
➉ 1
ⲁ 1
ⲉ 1
ⲏ@@ 1
Ⲑ@@ 1
ⲑ@@ 1
ⲓ 1
Ⲕ@@ 1
ⲕ 1
ⲕ@@ 1
Ⲙ@@ 1
ⲙ@@ 1
Ⲡ@@ 1
ⲡ@@ 1
ⲣ 1
ⲣ@@ 1
ⲧ 1
Ⲭ@@ 1
ⴰ 1
ⴼ@@ 1
ⵓ@@ 1
ⵙ@@ 1
。 1
あ@@ 1
う@@ 1
か 1
か@@ 1
が 1
ぐ@@ 1
こ@@ 1
し 1
し@@ 1
そ 1
つ 1
で@@ 1
な@@ 1
ぬ 1
は 1
び 1
ふ 1
ふ@@ 1
ま@@ 1
も@@ 1
や 1
ら 1
り@@ 1
る 1
を@@ 1
ェ 1
グ@@ 1
ケ 1
サ@@ 1
ザ 1
ジ 1
ズ@@ 1
セ@@ 1
ダ@@ 1
ツ 1
デ 1
ノ@@ 1
ハ@@ 1
バ 1
パ@@ 1
ピ 1
ピ@@ 1
フ 1
プ@@ 1
ベ@@ 1
ペ@@ 1
ホ 1
ポ 1
メ 1
ャ 1
ュ 1
ヨ@@ 1
ラ 1
ロ 1
ㇽ 1
七 1
七@@ 1
万 1
三 1
上 1
下@@ 1
不@@ 1
世纪 1
业@@ 1
东@@ 1
中國 1
中華@@ 1
丸 1
丹@@ 1
主@@ 1
丽 1
之 1
乌@@ 1
习@@ 1
乡 1
乡@@ 1
书记 1
乱 1
亂 1
了@@ 1
争 1
事@@ 1
二@@ 1
于 1
于@@ 1
互@@ 1
亥 1
亦 1
亮 1
人@@ 1
仁@@ 1
仍 1
仏@@ 1
仕 1
仙 1
仙@@ 1
代@@ 1
代表 1
代表@@ 1
令@@ 1
份@@ 1
会 1
位@@ 1
佩@@ 1
使 1
例@@ 1
供@@ 1
価@@ 1
侯 1
俠@@ 1
俥 1
修 1
俺 1
倍@@ 1
借@@ 1
倫 1
倭 1
偉 1
傌 1
備@@ 1
儀 1
儒 1
儒@@ 1
元@@ 1
党@@ 1
全@@ 1
全国@@ 1
共产@@ 1
具 1
典 1
养@@ 1
兼@@ 1
内@@ 1
冒 1
冰 1
冰@@ 1
冷@@ 1
准 1
函@@ 1
列@@ 1
初 1
利 1
利@@ 1
别@@ 1
券@@ 1
前@@ 1
劉 1
劉@@ 1
力@@ 1
办@@ 1
功 1
务@@ 1
勇@@ 1
勒 1
勲 1
包@@ 1
化@@ 1
医 1
医@@ 1
十@@ 1
半@@ 1
卍 1
华 1
卐 1
卒 1
南京 1
南省 1
博@@ 1
卷@@ 1
厂@@ 1
历@@ 1
原@@ 1
厥 1
厦 1
厳@@ 1
县@@ 1
叉 1
受@@ 1
古@@ 1
可 1
叶@@ 1
号 1
司@@ 1
各@@ 1
名 1
名@@ 1
后 1
后@@ 1
向@@ 1
吳 1
吳@@ 1
吴@@ 1
吾 1
告 1
呦 1
呦@@ 1
呼@@ 1
命 1
命@@ 1
咨 1
哀 1
品@@ 1
哥 1
哭 1
唐@@ 1
問@@ 1
善 1
喜@@ 1
器 1
嚴 1
园 1
围@@ 1
国家 1
圆 1
園 1
圖 1
地球 1
坑@@ 1
坡 1
坤 1
垂 1
域 1
執@@ 1
培@@ 1
埼@@ 1
堂 1
堅 1
塔@@ 1
塚 1
墓 1
士 1
変 1
夏@@ 1
多@@ 1
夫 1
央@@ 1
女 1
女@@ 1
奶 1
好@@ 1
妃 1
妻@@ 1
委员@@ 1
姫 1
娥 1
婚 1
婷 1
婷@@ 1
媒@@ 1
媛@@ 1
嫁 1
嬴@@ 1
孔 1
孛 1
学 1
学@@ 1
孩@@ 1
學 1
宇@@ 1
官 1
客@@ 1
宮 1
宰@@ 1
家 1
家@@ 1
宿@@ 1
察@@ 1
寧 1
寶 1
寿 1
将 1
將 1
導@@ 1
小 1
尚@@ 1
尼 1
尼@@ 1
屋@@ 1
展@@ 1
属 1
屠@@ 1
屿 1
岛 1
岡 1
岩@@ 1
岸@@ 1
峡@@ 1
嶺@@ 1
嶼 1
州@@ 1
巨@@ 1
巴@@ 1
帅 1
师@@ 1
帝国 1
帥 1
带 1
幌@@ 1
干 1
年@@ 1
幻@@ 1
広@@ 1
庄 1
度@@ 1
庫@@ 1
康 1
廊 1
建@@ 1
引@@ 1
弘 1
弘@@ 1
張 1
強 1
强 1
彩@@ 1
從@@ 1
御@@ 1
徽 1
忍 1
忠@@ 1
念 1
恋 1
息 1
息@@ 1
惠@@ 1
惹 1
感@@ 1
慈@@ 1
慕@@ 1
慶 1
战@@ 1
战争 1
戦 1
戰爭 1
戸 1
所 1
所@@ 1
扇@@ 1
手 1
打@@ 1
托 1
技@@ 1
报 1
报@@ 1
抳 1
拳@@ 1
捏 1
揆@@ 1
揚@@ 1
摩@@ 1
撃@@ 1
撒@@ 1
播@@ 1
攻@@ 1
放@@ 1
敏 1
教 1
斯@@ 1
新 1
新加坡 1
方 1
旅 1
日本 1
旧@@ 1
春@@ 1
昭@@ 1
显@@ 1
晋@@ 1
晶@@ 1
智 1
暫@@ 1
曆@@ 1
書 1
書@@ 1
曼 1
月 1
有限@@ 1
朗 1
朝@@ 1
木 1
末 1
札@@ 1
来 1
来@@ 1
松 1
板 1
林@@ 1
枚 1
柔@@ 1
栃@@ 1
标@@ 1
校 1
核@@ 1
根@@ 1
格 1
桃 1
桥 1
梦 1
梨@@ 1
棋 1
楊@@ 1
業@@ 1
楽 1
槎 1
槟@@ 1
樓 1
樹@@ 1
橋 1
橋@@ 1
檳@@ 1
次 1
次@@ 1
歓 1
步@@ 1
歼 1
殊 1
殖@@ 1
殲 1
氏 1
汗@@ 1
汤@@ 1
汪@@ 1
沈@@ 1
沒 1
沙 1
没 1
沢@@ 1
泉 1
波@@ 1
泥 1
泽@@ 1
洋@@ 1
洪 1
流 1
浙@@ 1
浩@@ 1
浪@@ 1
涯 1
淸@@ 1
清朝 1
渤@@ 1
温@@ 1
港@@ 1
湯@@ 1
源 1
溝 1
滋@@ 1
滝 1
滿 1
演@@ 1
漢@@ 1
漿 1
澤@@ 1
濟 1
瀛 1
灣@@ 1
炮@@ 1
為 1
烏@@ 1
焚@@ 1
然 1
熙@@ 1
熱@@ 1
熹 1
燈 1
燕@@ 1
版 1
物 1
物@@ 1
犬@@ 1
独 1
猪 1
猿@@ 1
玉@@ 1
环@@ 1
班 1
瑕 1
瑞 1
瑞@@ 1
環@@ 1
生 1
町@@ 1
畦 1
番 1
畫 1
畵 1
畿@@ 1
疆@@ 1
痛 1
痴 1
發@@ 1
白 1
百 1
皆 1
盘@@ 1
盛@@ 1
監 1
目@@ 1
直 1
県@@ 1
着@@ 1
砲 1
確 1
磐 1
礼 1
社 1
祁@@ 1
禧@@ 1
禹@@ 1
秋 1
种 1
科@@ 1
秦@@ 1
稹 1
稿 1
空 1
空@@ 1
突@@ 1
立 1
章 1
競@@ 1
第@@ 1
第一@@ 1
等@@ 1
简 1
简@@ 1
簡 1
簡@@ 1
类@@ 1
経 1
結@@ 1
統@@ 1
絵 1
継 1
緑@@ 1
編 1
總@@ 1
红 1
纽@@ 1
细@@ 1
统@@ 1
综@@ 1
罗 1
羅 1
群@@ 1
習@@ 1
聘@@ 1
聞 1
聞@@ 1
肉@@ 1
股@@ 1
腕 1
自治@@ 1
興 1
舊@@ 1
航 1
船@@ 1
良 1
色@@ 1
艾@@ 1
节 1
芬 1
苏 1
苦@@ 1
英 1
英@@ 1
茂@@ 1
茅 1
菅 1
華@@ 1
菱@@ 1
菽 1
萝@@ 1
萬@@ 1
蒙古 1
蔔 1
蔡@@ 1
薄@@ 1
薩@@ 1
藤 1
蘇 1
蘇@@ 1
蘭 1
蘭@@ 1
蘿@@ 1
蜀 1
螽 1
行 1
行@@ 1
術 1
街 1
衡 1
衣 1
表@@ 1
袁 1
袁@@ 1
被@@ 1
裂@@ 1
裕@@ 1
裸@@ 1
襲 1
西北 1
西南 1
覇@@ 1
解放@@ 1
計@@ 1
訪@@ 1
訶 1
証@@ 1
詞 1
詩 1
誕 1
誠 1
談 1
護@@ 1
计 1
话 1
谷 1
象 1
貢 1
貧@@ 1
賤@@ 1
贅 1
贝@@ 1
赤@@ 1
越 1
越南 1
路@@ 1
蹦 1
蹦@@ 1
軸@@ 1
轮@@ 1
辖@@ 1
辛@@ 1
辞 1
达@@ 1
远@@ 1
逆@@ 1
透@@ 1
通 1
進 1
進@@ 1
遇 1
運@@ 1
運動 1
道@@ 1
達 1
遠 1
遥 1
遭@@ 1
遷 1
那@@ 1
邦 1
邵@@ 1
郎 1
鄭@@ 1
里@@ 1
重 1
重@@ 1
量 1
金 1
鈴@@ 1
鉄 1
鐵@@ 1
铁@@ 1
锐 1
锦@@ 1
镇 1
镕@@ 1
門 1
間 1
阪@@ 1
阳 1
阴@@ 1
阿@@ 1
际@@ 1
陈@@ 1
陳@@ 1
陸@@ 1
険 1
陽 1
陽@@ 1
隆 1
隆@@ 1
隊 1
隧@@ 1
集 1
雜@@ 1
雲 1
霊 1
青 1
面@@ 1
革@@ 1
靴 1
韓@@ 1
音 1
預@@ 1
願@@ 1
類 1
顯 1
额@@ 1
風 1
风@@ 1
食@@ 1
館 1
香@@ 1
鬆 1
鬼@@ 1
魔@@ 1
魯@@ 1
鯀@@ 1
鲁@@ 1
鸦@@ 1
鹏@@ 1
黄 1
黙 1
齊 1
齐 1
齐@@ 1
ꜣ 1
ꦂ 1
ꦕ@@ 1
ꦤ 1
ꦫ@@ 1
ꦶ@@ 1
꧀ 1
계 1
고 1
과 1
광 1
구@@ 1
근@@ 1
금 1
기 1
깃@@ 1
난 1
내 1
노@@ 1
다@@ 1
데@@ 1
도@@ 1
두 1
두@@ 1
드@@ 1
득@@ 1
들@@ 1
뜻 1
뜻@@ 1
라@@ 1
락@@ 1
란@@ 1
랙@@ 1
랜 1
럭@@ 1
력@@ 1
론 1
름@@ 1
리@@ 1
림 1
만 1
맘 1
몸@@ 1
문@@ 1
뭉@@ 1
밀@@ 1
바@@ 1
반@@ 1
받@@ 1
백@@ 1
법 1
법@@ 1
보@@ 1
부@@ 1
블@@ 1
사@@ 1
상@@ 1
서 1
선@@ 1
설@@ 1
성@@ 1
세@@ 1
센 1
솟@@ 1
수@@ 1
스 1
스@@ 1
슬@@ 1
시@@ 1
안 1
안@@ 1
앞@@ 1
어@@ 1
억@@ 1
업 1
없@@ 1
여@@ 1
영@@ 1
온 1
왕@@ 1
운 1
울 1
원@@ 1
유 1
으@@ 1
을 1
의@@ 1
이@@ 1
인 1
재@@ 1
전@@ 1
제@@ 1
주 1
진 1
진@@ 1
징@@ 1
찬@@ 1
천@@ 1
철@@ 1
쳐 1
쳐@@ 1
침@@ 1
키@@ 1
타@@ 1
펜@@ 1
표@@ 1
하 1
합@@ 1
호 1
화@@ 1
후 1
힘 1
 1
 1
 1
 1
 1
 1
 1
 1
 1
 1
 1
 1
 1
 1
 1
 1
 1
 1
 1
 1
 1
 1
 1
 1
 1
 1
 1
 1
 1
 1
 1
 1
 1
 1
 1
 1
 1
 1
 1
 1
 1
 1
 1
 1
 1
 1
 1
 1
 1
 1
 1
 1
 1
 1
 1
 1
 1
 1
ﭘ 1
ﭪ 1
ﭻ@@ 1
ﮓ@@ 1
ﮮ@@ 1
﷞ 1
﷢ 1
﷭ 1
﷯ 1
ﷻ 1
ﹶ@@ 1
ﹺ@@ 1
ﺂ@@ 1
ﺄ@@ 1
ﺇ@@ 1
ﺓ 1
ﺢ@@ 1
ﺦ@@ 1
ﺵ@@ 1
ﺸ 1
ﺹ@@ 1
ﺾ@@ 1
ﻁ@@ 1
ﻍ@@ 1
ﻒ@@ 1
ﻕ@@ 1
ﻯ@@ 1
！ 1
） 1
， 1
－ 1
５@@ 1
＜ 1
＞ 1
･ 1
𐀅@@ 1
𐀍@@ 1
𐀒@@ 1
𐀙 1
𐀪@@ 1
𐒆@@ 1
𐒈@@ 1
𐒐@@ 1
𐒑@@ 1
𐒖 1
𐒘@@ 1
𐒛@@ 1
𐒝@@ 1
𐡀 1
𐣠 1
𐣠@@ 1
𐣡@@ 1
𐣣@@ 1
𐣩@@ 1
𐤀 1
𐤓@@ 1
𐤔 1
𐤔@@ 1
𐤕@@ 1
𐩩 1
𐩫@@ 1
𐩬@@ 1
𐩵@@ 1
𐭠 1
𐭥@@ 1
𐭧@@ 1
𐭩 1
𐭩@@ 1
𐭪 1
𐭫@@ 1
𐭬@@ 1
𐭭@@ 1
𐭲@@ 1
𒂟 1
𒈥@@ 1
𒋾@@ 1
𒌅 1
🌃 1
🌍 1
🌷 1
🍁 1
🍞 1
🎉 1
🎞 1
🏁 1
🏻 1
🐅 1
🐊 1
🐍 1
🐘 1
📃 1
📅 1
📖 1
📚 1
📞 1
🔪 1
🖍 1
🗞 1
😊 1
😜 1
😡 1
😼 1
🚫 1
🤲 1
🥛 1
🧘 1
