, 40383438
. 38851325
в 23973851
и 16774101
на 9884399
@-@ 9276523
) 8384807
( 8361292
— 7948827
с 7288929
« 7199178
» 7195185
В 5842455
года 4643830
&quot; 4295802
к 3941556
не 3712335
ной 3643948
по@@ 3527599
году 3503865
у@@ 3480729
м 3450389
по 3425673
с@@ 3284501
л 3240699
ль@@ 3199532
ных 3198551
на@@ 3007141
ли 2981073
не@@ 2969898
т 2932041
в@@ 2889852
ла 2857128
из 2842356
но 2806903
у 2781332
ре@@ 2724319
за@@ 2718800
ли@@ 2696462
ского 2683749
ного 2637919
ный 2632690
ской 2608754
ы 2592672
о@@ 2570606
до@@ 2560489
е 2556917
ни@@ 2489062
д@@ 2478352
: 2446409
ки 2442844
й 2425660
ные 2418379
т@@ 2383199
м@@ 2373437
был 2347262
про@@ 2317258
ский 2316158
а 2295721
со@@ 2280404
ка 2274574
ш@@ 2273387
я 2264628
при@@ 2238745
ро@@ 2221742
вы@@ 2163172
э@@ 2159408
за 2093686
н 2091375
от 2089159
что 2073403
но@@ 2065829
к@@ 2056219
ле@@ 2049476
та 2040125
ко@@ 2038791
С@@ 2028923
мо@@ 2020604
во@@ 1979899
ра@@ 1962044
л@@ 1948687
ж@@ 1938751
н@@ 1909045
ка@@ 1881979
й@@ 1874523
о 1866624
А@@ 1862453
ти@@ 1837241
де@@ 1830746
ри@@ 1826243
О@@ 1823619
ве@@ 1800215
ная 1797090
ет 1794188
х 1783010
ло@@ 1761981
ви@@ 1761831
р 1754658
б@@ 1749679
от@@ 1742206
его 1730272
ном 1728111
то@@ 1715156
для 1708347
д 1706083
ва@@ 1700622
и@@ 1699371
пере@@ 1685732
г@@ 1668192
а@@ 1665313
как 1653744
з@@ 1653430
он 1647876
го@@ 1642335
ма@@ 1612130
; 1590221
ль 1586619
те@@ 1574503
до 1574294
ции 1565517
ме@@ 1548005
ди@@ 1547683
ным 1536654
ю 1529748
ми 1527507
ч@@ 1497805
У@@ 1491844
ра 1490818
се@@ 1482937
И@@ 1457048
В@@ 1456837
нии 1455607
р@@ 1453686
лся 1451594
ния 1450047
п@@ 1439747
си@@ 1435339
ке 1409385
я@@ 1405307
та@@ 1394465
чи@@ 1392345
ное 1374171
да@@ 1360665
га@@ 1353186
ть 1352484
го 1340157
да 1335491
па@@ 1334312
г 1333241
том 1323296
ний 1317042
ских 1314086
Э@@ 1310867
ь@@ 1306327
ру@@ 1284102
ь 1282450
ми@@ 1265184
ны 1260512
ст@@ 1259881
ла@@ 1251043
су@@ 1248270
бо@@ 1247987
С 1240788
че@@ 1231406
К@@ 1229806
х@@ 1228391
е@@ 1224286
ф@@ 1221805
под@@ 1216498
ская 1194242
са@@ 1184698
бе@@ 1174201
П@@ 1173994
хо@@ 1171555
раз@@ 1167519
об@@ 1160471
во 1157850
ба@@ 1135059
также 1132669
Д@@ 1129403
ности 1125432
же 1122412
ется 1112273
ло 1106786
ском 1090957
ан@@ 1083213
са 1075587
де 1073902
ства 1068394
ё@@ 1063083
ков 1059333
сто@@ 1057609
ров 1057287
По@@ 1056070
ние 1046737
была 1044685
были 1038844
ку 1033750
ную 1031794
ку@@ 1031502
ма 1031422
ча@@ 1030605
Г@@ 1025655
ва 1022773
1 1019914
ром 1016396
жи@@ 1014098
ы@@ 1011261
ду@@ 996878
пи@@ 987295
было 979426
Б@@ 979323
ше@@ 976714
лись 975663
ют 973927
Т@@ 972617
ство 971594
лась 968413
из@@ 966824
ле 966618
те 966096
ты 963594
время 953158
вер@@ 940734
же@@ 937440
пре@@ 934180
ля@@ 928368
ать 926642
то 924543
или 922280
ги@@ 914671
М@@ 910556
ши@@ 907054
ить 903814
2 901292
пу@@ 889405
ста@@ 884739
му 880876
вой 877240
ин@@ 872164
при 862860
Ка@@ 859415
ными 858620
пе@@ 843418
тов 838650
зо@@ 833058
ц@@ 831974
́ 829146
сти@@ 826434
нию 825417
би@@ 821560
пер@@ 816288
Ко@@ 813792
На@@ 812638
га 810237
ность 809125
ды 807464
ю@@ 807280
ля 799298
лен@@ 797160
жа@@ 795266
це@@ 793529
ские 789994
лось 780307
ко 773884
Ма@@ 770319
му@@ 768262
ци@@ 765346
Н@@ 762668
ен@@ 758071
после 746740
ар@@ 746091
Л@@ 742923
3 735797
Р@@ 733962
ское 733375
ре 732235
ня@@ 731180
воз@@ 729377
аль@@ 728955
зи@@ 721632
рас@@ 709560
кой 708961
ту@@ 702570
На 699814
ник 695981
нов 695563
мен@@ 690203
ря@@ 689974
ме 689679
бу@@ 688419
ти 681729
ге@@ 680427
их 677101
А 673552
Ф@@ 673302
Е@@ 672083
ем 671136
ки@@ 671021
ры@@ 663874
вал 661503
она 660152
ат@@ 655542
под 655254
4 651078
По 649031
кон@@ 640031
области 634561
итель@@ 632929
з 628842
бы@@ 625233
ским 624070
ция 623045
цы 618195
ком 617072
/ 616565
стра@@ 616493
Ш@@ 614834
того 614525
ду 614112
ге 612980
ст 610938
% 609914
ления 609603
лей 607081
Со@@ 606007
ша@@ 598504
где 596875
Ку@@ 596557
её 593368
км 592557
лу@@ 591536
лет 590089
стро@@ 586037
который 584417
мы@@ 584333
них 583472
Х@@ 582069
ско@@ 581980
ха@@ 576681
пред@@ 575378
Са@@ 574686
вания 574283
вая 573003
За@@ 570668
ются 570264
мы 569692
более 567944
З@@ 566698
ников 563022
5 561261
со 560642
Се@@ 560431
ну@@ 558954
ей 557969
После 556700
ни 555685
рии 555563
зна@@ 552018
скую 542443
стал 541161
год 540449
это 539877
ры 539823
Я@@ 537546
ос@@ 536928
лю@@ 536660
нием 535379
ц 534945
дов 534869
фи@@ 533644
тре@@ 532888
6 532315
ска@@ 532246
Ар@@ 531721
гра@@ 531436
ит@@ 530783
К 529880
щи@@ 529530
сти 529030
ран@@ 528204
льно 527308
щ@@ 526813
льного 523473
цию 523187
ника 523068
льной 521529
сло@@ 521252
ща@@ 520036
России 514420
рен@@ 507715
является 506568
рова@@ 506348
вых 503431
бы 503150
мат@@ 502638
вать 502193
ван@@ 501414
дом 498274
ал@@ 495264
ур@@ 494989
льный 494077
Ле@@ 493678
ор@@ 493026
ление 490467
так 490413
ту 490369
ри 489713
Де@@ 489045
сть 488929
ск@@ 487362
которые 486335
ён 486200
ев 482216
жен@@ 479680
хи@@ 477492
эк@@ 476537
ца 476371
б 474933
тель@@ 474635
нов@@ 474072
пол@@ 471723
ров@@ 471299
Не@@ 470039
человек 469253
Ми@@ 468716
ья 468238
состоя@@ 467349
Ю@@ 466834
бра@@ 466279
состав 464536
ги 463213
Бо@@ 462428
ве 459614
кра@@ 459028
име@@ 458816
Ба@@ 456297
ней 454059
ак@@ 453768
льных 453164
8 452760
Про@@ 450455
ер@@ 448935
&amp; 446722
п 446676
10 446588
Пер@@ 445215
7 444485
лом 444480
ях 443487
зе@@ 442866
боль@@ 442055
ди 441656
Ре@@ 441500
вод@@ 439462
Го@@ 439105
рус@@ 438404
гу@@ 437899
вен@@ 436277
Си@@ 434776
Ро@@ 433689
лё@@ 432530
сов 430503
Та@@ 428594
только 427296
вые 427258
он@@ 426558
И 425943
вали 425618
города 424329
обще@@ 423890
лов 423120
ью 422118
мер@@ 420665
Ж@@ 418664
чи 418202
Ч@@ 416554
Мо@@ 416476
ствен@@ 416302
Ли@@ 415706
тан@@ 415625
фе@@ 413422
ет@@ 412155
ники 410492
17@@ 410117
высо@@ 409981
вого 409537
тра@@ 408703
дан@@ 408619
ён@@ 408472
ера 407833
ному 407076
тер@@ 407075
ста 406591
Су@@ 404059
При@@ 403745
СССР 403387
ман@@ 402513
ате@@ 400015
род@@ 398819
ке@@ 397750
ден@@ 397648
фо@@ 397417
жения 397303
цев 396964
отде@@ 395928
зы@@ 395830
войны 395790
фор@@ 395579
Бе@@ 395562
Ки@@ 395187
До@@ 395111
ев@@ 394486
ще@@ 394353
стве 394047
глав@@ 393626
авто@@ 391845
тор@@ 391641
кла@@ 390453
когда 389958
той 389687
вание 389102
се 388417
ата@@ 386622
Ме@@ 385413
сы 385142
цион@@ 384606
пло@@ 384562
него 384503
вил 384386
Па@@ 384311
лин@@ 384202
мая 384140
сси@@ 383337
То@@ 381990
этого 381858
О 381419
сте@@ 380987
воен@@ 380440
вым 380140
полу@@ 380049
они 379764
этом 379626
годах 379250
ход@@ 378300
рия 378179
лет@@ 376091
вы 373885
ком@@ 373844
кан@@ 373640
Но@@ 373507
ня 372543
ций 372236
сла@@ 371794
ис@@ 371060
ств 370495
ков@@ 369341
9 368933
сы@@ 368652
района 366976
использо@@ 366761
выпу@@ 365854
США 363950
тиче@@ 363524
ниче@@ 363029
История 362848
вич 362686
оста@@ 362159
Ра@@ 360607
против 358811
между 358479
лан@@ 358013
созда@@ 356000
фа@@ 355764
од@@ 355373
нача@@ 354994
стре@@ 354534
Биография 354393
це 354366
мой 353407
ч 352777
сель@@ 352388
составе 352310
кар@@ 351219
жение 351039
20 350456
ями 349989
лу 348597
зу@@ 348589
лен 348478
откры@@ 348052
мест@@ 347996
ство@@ 347810
ках 347453
части 347207
ье 346694
мира 345709
Он 344866
восто@@ 344863
тив@@ 343417
ёт 342422
гор@@ 341101
гла@@ 340912
рован@@ 340286
ок@@ 340001
15 339518
чной 339508
пла@@ 338902
евич 338662
ба 338337
лы 338159
реки 337602
вает 337532
мини@@ 337349
ших 336512
Кар@@ 336122
ато@@ 334536
извест@@ 334221
Ц@@ 332918
тя@@ 331760
вый 331105
уч@@ 329848
спо@@ 329225
которых 328888
ится 328501
ками 327998
годы 326199
обра@@ 326150
Га@@ 325634
12 325462
чтобы 325195
нения 324963
ро 323372
льные 322624
января 322155
следу@@ 321333
Бу@@ 320818
Вы@@ 320547
Му@@ 319276
стар@@ 318695
ником 318641
вед@@ 317545
все 317317
около 317259
16@@ 315654
им@@ 314980
Пре@@ 313220
3@@ 312794
представ@@ 312577
зан@@ 312124
ющий 312049
место 311959
Мар@@ 311574
лов@@ 311351
ха 311112
гре@@ 310977
Ан@@ 310926
поло@@ 310578
им 310529
свя@@ 310346
гу 309960
ж 309790
районе 309500
ему 309147
Ви@@ 308212
ём 307812
цен@@ 307010
июля 306885
жде@@ 305970
кре@@ 305313
яв@@ 305073
вое 304504
У 304468
Че@@ 303748
века 303206
ческих 302969
кры@@ 302480
скому 301847
сер@@ 301818
бер@@ 301094
Ве@@ 300502
г. 300407
вши@@ 299902
населения 299779
пра@@ 299651
зем@@ 299555
Пе@@ 298709
пар@@ 298150
М 298067
ати@@ 297220
теле@@ 296178
30 296157
пор@@ 295805
.@@ 295531
вой@@ 295430
чен@@ 294818
ким 294548
ск 294527
мар@@ 293862
ну 293754
соб@@ 293711
несколько 291908
истори@@ 291770
ством 291659
через 290804
сту@@ 290544
ющих 290448
послед@@ 290424
декабря 290401
пле@@ 290240
ещё 290159
работа@@ 290074
жда@@ 289966
сп@@ 289372
уже 288900
получил 288594
2010 288462
лем 288168
ступ@@ 287375
бли@@ 286858
Ге@@ 286735
располо@@ 286718
которой 286717
тен@@ 286101
ческой 286074
став@@ 285920
часть 285755
чно 285555
марта 285207
чем 285195
которая 284694
августа 283351
побе@@ 283068
занима@@ 282834
тия 282119
само@@ 281567
над 281548
рав@@ 281337
сентября 281172
ший 280735
4@@ 280469
ван 280414
Ру@@ 280313
мор@@ 279839
октября 279817
рий 279684
территории 279666
Ди@@ 279134
дии 278653
апреля 278588
спи@@ 278349
кор@@ 278323
па 277968
Да@@ 277956
Ха@@ 277955
ш 277607
своей 277427
груп@@ 277368
мя@@ 277330
тро@@ 277304
иг@@ 277031
18 276494
ительно 276446
вра@@ 276116
мов 275756
Ва@@ 275745
основ@@ 275272
одно@@ 275024
йской 274709
вала 274495
июня 274408
два 274320
11 273920
лич@@ 273397
испол@@ 273261
сво@@ 273235
может 273202
вом 272986
американ@@ 272780
доро@@ 272656
ше 272575
нение 271511
№ 271477
един@@ 271316
ву@@ 271060
один 270806
Ин@@ 270541
ита@@ 269764
шей 269489
дво@@ 269364
тур@@ 267442
хозяй@@ 267027
Ла@@ 266820
ят 266727
скими 266726
си 264974
16 263630
25 263394
ниях 263393
стан@@ 263321
других 263283
ждения 263175
лы@@ 263124
приня@@ 262924
затем 262906
три 262836
стов 262770
совет@@ 262721
луч@@ 262389
ено 262051
рабо@@ 261939
дения 261850
три@@ 261847
обо@@ 261661
каз@@ 261436
ез@@ 261389
бор@@ 260911
ите@@ 260575
ним 260344
ты@@ 260210
качестве 259741
ф 259551
П 259479
прав@@ 258924
ноября 258798
Ни@@ 257849
Население 257393
нами 257356
14 257132
Лу@@ 256915
группы 256732
встре@@ 255623
чер@@ 255409
Ста@@ 254942
кого 254759
находится 254714
Кон@@ 254546
льная 253954
район 253195
Во@@ 252981
чения 252382
вместе 252172
пя@@ 252133
эн@@ 252022
кол@@ 251725
доб@@ 250848
ору@@ 250444
ру 250331
поль@@ 249248
поли@@ 249189
февраля 248693
Те@@ 248692
ческого 248600
дей@@ 248197
сь 248064
ча 247650
нен@@ 247279
рей@@ 245756
дра@@ 245710
ющи@@ 245670
ственной 245332
13 245000
_ 244913
слу@@ 244394
сле@@ 244372
гово@@ 244304
I 244244
ких 243891
Однако 243825
ган@@ 242752
рой 242701
направ@@ 242684
15@@ 242607
ёр@@ 242207
17 241791
однако 241670
среди 241658
сом 240827
гру@@ 240677
участие 240677
От@@ 240262
окру@@ 240198
назва@@ 240155
ственно 239912
которого 239624
итель 239425
стат@@ 239397
няя 238964
кро@@ 238748
дер@@ 238664
составляет 238237
Н 237559
&#93; 237539
&#91; 237321
ся 236722
способ@@ 236561
5@@ 236450
- 236426
род 236425
йского 236109
дви@@ 235673
работал 235532
явля@@ 235205
ностью 234541
мати@@ 234295
щен@@ 233921
городе 233911
бе 233693
всех 233417
город 233268
вший 232919
ян@@ 232391
национа@@ 232257
период 231725
пря@@ 231652
числе 231129
вз@@ 230879
мет@@ 230705
0@@ 230206
ённых 229771
много@@ 229663
вается 229626
поч@@ 229379
шла 229273
Ти@@ 229149
тин@@ 228880
рин@@ 228874
двух 228797
вую 228366
начала 228342
ям 227811
логи@@ 227799
свою 227511
ству@@ 227283
осно@@ 227030
цией 226979
вос@@ 226752
Ло@@ 226433
начале 226386
вар@@ 226136
мом 225016
ав@@ 224769
все@@ 224568
соответ@@ 224514
строитель@@ 224055
быть 223993
грани@@ 223638
стала 223576
смо@@ 223558
мо 223491
19 223386
годов 223014
виде@@ 222915
тся 222434
ска 222265
льное 221888
этой 221471
жизни 221410
себя 221012
счита@@ 220225
ческий 219596
Ри@@ 219195
ско 219131
рай@@ 219098
йся 219027
установ@@ 218568
каза@@ 218542
ться 217883
пе 217738
ули@@ 217707
вя@@ 217564
цу 217080
шим 216650
коман@@ 216196
уда@@ 215734
армии 215582
использу@@ 215434
цент@@ 215396
своего 215278
нее 215180
гро@@ 215169
призна@@ 215053
название 214901
кий 214696
нах 214463
есть 214259
низ@@ 213938
росси@@ 213879
данным 213728
лек@@ 213716
называ@@ 213660
За 213367
современ@@ 212980
ед@@ 212865
времени 212559
ца@@ 212366
льным 212293
сты@@ 212090
шие 211493
участ@@ 211465
Би@@ 211461
ман 211218
шли 211163
6@@ 210463
графи@@ 210447
шёл 210320
мм 210297
шен@@ 209499
без 209269
всего 209112
При 208629
жил 208524
24 208310
2@@ 208279
дней 208145
ствует 207985
жа 207931
образо@@ 207243
немец@@ 207106
шта@@ 206915
Это 206529
актив@@ 206504
станов@@ 206450
йн 206430
чных 206376
коро@@ 206118
мина@@ 206092
имени 206000
Лю@@ 205995
конце 205938
науч@@ 205938
там 205891
работы 205814
метров 205694
село 205648
22 205367
21 205192
Бер@@ 204893
сме@@ 204722
деревня 204292
человека 204159
правитель@@ 204146
чь 204129
можно 204076
шая 204056
зе 203948
вто@@ 203881
рами 203752
цо@@ 203601
дости@@ 203509
прове@@ 203240
музы@@ 202989
Москов@@ 202862
2011 202759
чей 202485
ды@@ 202463
раз 202176
язы@@ 202164
Дж@@ 202147
Во 201818
Фран@@ 201801
бан@@ 201723
чего 201628
ческие 201543
опреде@@ 201486
стер@@ 201427
политиче@@ 201425
Север@@ 201363
еди@@ 201329
рах 201285
тру@@ 201213
гда 201005
ген@@ 200977
чу@@ 200835
ющие 200696
2012 200629
кие 200364
истории 200111
Хо@@ 199953
ем@@ 199577
Аль@@ 199513
систе@@ 199353
програм@@ 199168
жении 198960
7@@ 198897
тах 198825
писал 198655
сса 197915
мени@@ 197801
formula 197491
много 197304
год@@ 197276
ек@@ 196821
ер 196725
2008 196558
Д 196367
Об@@ 196229
административ@@ 196075
Пу@@ 195874
проце@@ 195756
S@@ 195745
горо@@ 195537
ственный 195482
2014 195350
2009 195228
Все@@ 195210
вин@@ 195183
Фи@@ 194960
работ@@ 194832
первый 194691
ница 194690
сс 194673
тами 194522
дой 194477
кни@@ 194178
государствен@@ 194051
зии 194008
ход 193724
Р 193554
gt 193519
постро@@ 193490
дь@@ 193443
тем 193253
Также 192373
ству 192366
23 192161
лены 192102
дне@@ 192093
дол@@ 192053
тор 192019
II 191953
имеет 191947
лена 191913
ёт@@ 191902
этот 191778
кая 191732
началь@@ 191043
Гу@@ 190963
лина 190888
выпол@@ 190793
ходит 190774
точ@@ 190408
связи 190122
вла@@ 190059
шего 190015
муниципа@@ 189948
игра@@ 189921
исследо@@ 189871
круп@@ 189581
коло@@ 189518
кри@@ 189403
сем@@ 189283
следо@@ 189215
бро@@ 189157
суще@@ 189119
Вер@@ 188645
гар@@ 188607
долж@@ 188581
меся@@ 188461
2007 188331
север@@ 188161
lt 187955
ша 187859
вана 187853
Ду@@ 187645
стиче@@ 187606
жена 187365
составля@@ 187178
Пет@@ 187140
ден 187099
2013 186885
све@@ 186773
2015 186619
зда@@ 186586
Ал@@ 186483
вался 186231
бое@@ 186198
об 186192
эта@@ 185745
8@@ 185038
ске 184921
вше@@ 184899
кур@@ 184855
лей@@ 184181
второй 184064
э 184054
тий 183981
Ком@@ 183957
нитель@@ 183946
° 183754
26 183284
лями 183183
Фе@@ 182724
ый 182532
террито@@ 182452
2006 182247
объ@@ 182224
рода 182170
ниями 181832
ходи@@ 181589
прави@@ 181531
Ша@@ 181226
дро@@ 180858
зы 180838
води@@ 180693
ителей 180412
пис@@ 180379
28 180139
2002 180002
город@@ 179913
туры 179765
14@@ 179619
йский 179548
ан 179453
гов 179404
Г 179368
еся 179321
Никола@@ 179159
зер@@ 179127
изда@@ 179057
ще 179055
част@@ 178947
она@@ 178904
международ@@ 178697
кли@@ 178663
зва@@ 178447
ины 178440
рок 178266
мии 178189
27 178063
сред@@ 177956
электро@@ 177837
стали 177340
ват@@ 177156
чный 176914
переписи 176883
100 176824
чет@@ 176751
чил 176173
вет@@ 176050
хся 176036
Его 175938
сон 175838
ун@@ 175834
своих 175779
тат@@ 175749
2016 175435
отме@@ 175435
бит@@ 175410
2000 175397
тора 175270
рак@@ 175072
производ@@ 174924
образом 174658
ителем 174654
чение 174466
лия 174274
буду@@ 174058
другие 174043
жи 173900
француз@@ 173765
ходе 173446
дли@@ 173383
сельского 173213
которое 172967
ника@@ 172875
переда@@ 172781
водо@@ 172387
числен@@ 172338
меня@@ 172299
Пи@@ 172251
игро@@ 172248
тных 172133
ху@@ 172067
Ту@@ 172032
над@@ 171819
цар@@ 171537
Ор@@ 171528
руковод@@ 171313
результате 171020
хоро@@ 170972
ью@@ 170892
кло@@ 170659
меда@@ 170567
рев@@ 170567
9@@ 170482
50 170285
нови@@ 170221
щения 170169
лии 170142
пара@@ 170141
ссии 170107
спе@@ 170106
владе@@ 170074
заня@@ 170063
сты 170035
коми@@ 169972
C 169903
собой 169895
котором 169839
вели@@ 169713
запа@@ 169638
фильм 169285
принима@@ 169244
одной 169233
сре@@ 169012
ющего 168898
ющим 168501
писа@@ 168100
получи@@ 168029
кова 168000
образ@@ 167711
центра 167612
рон@@ 167572
сотруд@@ 167391
M@@ 167285
нима@@ 167239
деся@@ 167127
диа@@ 167042
рес@@ 166958
течение 166891
… 166879
официаль@@ 166719
сен@@ 166537
ть@@ 166152
физи@@ 165984
роль 165961
одним 165942
лишь 165939
атов 165925
специаль@@ 165907
фак@@ 165860
² 165802
ых 165303
награ@@ 165294
чного 165034
Украины 164921
жё@@ 164653
Для 164298
стом 164286
13@@ 163684
пыта@@ 163604
рий@@ 163518
ши 163184
очень 163069
поселения 162905
казыва@@ 162720
хода 162718
вопро@@ 162654
анд@@ 162515
син@@ 162352
сня@@ 162347
Крас@@ 162339
утвер@@ 162185
2017 161987
проек@@ 161961
су 161570
посе@@ 161532
льном 161431
струк@@ 161429
гии 161377
прожи@@ 161359
преде@@ 161234
день 161082
кру@@ 160976
дия 160925
ней@@ 160916
ющей 160888
стоя@@ 160653
хи 160534
страны 160506
область 160394
рования 160273
живо@@ 160215
сторо@@ 160183
ССР 160109
шин@@ 160008
юго 159927
Российской 159641
вались 159640
сборной 159469
2005 159222
дате@@ 159040
Влади@@ 158964
лении 158613
The 158576
тов@@ 158364
шения 158354
ланд@@ 158338
филь@@ 158138
C@@ 157987
кт 157755
ждение 157750
вают 157463
29 157454
жены 157416
вид@@ 157293
ственных 157253
стра 157160
тие 156885
ити@@ 156765
ляется 156758
зыва@@ 156741
ктора 156709
сил 156636
право@@ 156618
40 156561
смерти 156488
северо 156472
уче@@ 156395
интер@@ 156205
мости 155905
Александр 155792
D@@ 155776
вате@@ 155775
ственного 155668
2018 155510
аться 155394
центра@@ 155257
2004 155202
Согласно 155157
тон 155012
государ@@ 154874
бере@@ 154821
начал 154796
Росси@@ 154790
сли 154569
оказа@@ 154498
Александ@@ 154475
опера@@ 154469
являются 154450
нет 154417
тар@@ 154398
ссо@@ 154261
тный 154255
запад@@ 154054
сбор@@ 154011
нам 153738
Бар@@ 153733
округа 153691
тё@@ 153570
Б 153547
оборо@@ 153511
дах 153285
дар@@ 153155
уча@@ 153154
сам 153074
объек@@ 153050
назначен 153045
кое 152988
разде@@ 152916
Свя@@ 152909
днее 152904
спор@@ 152792
кораб@@ 152436
играл 152399
пове@@ 152318
Ке@@ 152219
Кри@@ 152166
щих 152126
вших 152059
сни@@ 152042
ступил 152041
нь 151982
стри@@ 151939
P@@ 151923
остро@@ 151821
учё@@ 151709
комму@@ 151571
сов@@ 151429
ски 150978
ниям 150922
ред@@ 150857
1941 150615
кто@@ 150605
парти@@ 150459
завер@@ 150337
дами 150276
клу@@ 150258
фа 150252
мир@@ 150200
Ча@@ 150195
рез@@ 150189
Восто@@ 149957
2001 149936
месте 149690
свой 149591
кам 149404
обеспе@@ 149393
станции 149004
даже 148993
команды 148866
чные 148809
лах 148797
вало 148781
иде@@ 148492
ологи@@ 148456
ителя 148401
шую 148399
держа@@ 148233
Республики 148134
дру@@ 148117
гер@@ 148038
Ф 147679
жд@@ 147610
31 147608
разме@@ 147508
1990 147329
роди@@ 147283
первой 147251
иться 147144
муж@@ 146897
тому 146820
анти@@ 146768
2019 146676
центр 146350
предло@@ 146311
уз@@ 146297
ясь 146123
рию 146073
Бело@@ 146010
фон@@ 145765
выс@@ 145727
вре@@ 145700
председате@@ 145566
тат 145408
мента 145379
могут 145378
времен@@ 145367
Кор@@ 145153
служ@@ 145118
чле@@ 145008
мер 144962
чная 144857
церкви 144826
нова 144779
Л 144777
ляр@@ 144700
ряд 144656
ённые 144608
Пред@@ 144512
’ 144474
появи@@ 144473
кино@@ 144422
согла@@ 144194
тек@@ 144123
партии 144103
нем 144008
град@@ 144003
стороны 143957
ад@@ 143840
цами 143751
али@@ 143586
ева 143573
народ@@ 143423
вид 143047
наход@@ 143042
льную 142987
нар@@ 142925
важ@@ 142742
две 142654
пода@@ 142387
наук 142321
сс@@ 142207
оп@@ 142185
ё 141925
университета 141904
оло@@ 141883
Совет@@ 141826
англи@@ 141825
сч@@ 141519
свои 141407
глу@@ 141406
отноше@@ 141312
мето@@ 140996
Из 140963
ься 140924
компании 140899
искус@@ 140831
этих 140724
стей 140582
насел@@ 140561
T@@ 140283
клуб 140201
противо@@ 140031
общи@@ 140017
поэ@@ 139920
будет 139916
Юж@@ 139836
юж@@ 139760
закон@@ 139711
нер 139630
ровать 139486
отли@@ 139459
R@@ 139328
0 138904
сол@@ 138868
сок 138830
Ново@@ 138722
входи@@ 138576
музыка@@ 138553
поз@@ 138410
впервые 138394
ённый 138141
1944 138092
L@@ 137901
дела@@ 137866
менее 137856
ново@@ 137849
ся@@ 137830
обла@@ 137806
лли@@ 137710
дает 137467
бассе@@ 137422
География 137408
Хар@@ 137342
зада@@ 137067
F@@ 137043
ые 136942
Ио@@ 136880
Но 136638
ографи@@ 136633
рения 136621
N@@ 136600
моло@@ 136516
компози@@ 136426
най@@ 136202
личе@@ 136063
Национа@@ 135933
G@@ 135793
тон@@ 135776
дат@@ 135751
лод@@ 135740
техниче@@ 135632
лат@@ 135626
аре@@ 135584
форми@@ 135573
бур@@ 135555
например 135451
существо@@ 135422
ен 135241
ус 135077
золо@@ 135035
вари@@ 135030
спек@@ 135007
тно 134974
счит@@ 134959
B@@ 134932
возмож@@ 134921
мень@@ 134843
родился 134797
включа@@ 134794
фина@@ 134688
лой 134686
тех@@ 134393
обы@@ 134353
выми 134348
попа@@ 134328
тот 134270
писате@@ 134218
ье@@ 134204
бу 134202
Кроме 134020
ви 133959
мент 133837
Сер@@ 133767
жан@@ 133690
семье 133666
нос@@ 133664
Алексе@@ 133644
чемпионате 133497
риаль@@ 133364
мента@@ 133346
ницы 133277
изобра@@ 133168
щий 133139
лл 132937
объя@@ 132897
ванием 132707
гом 132631
сезона 132601
ора 132478
Ги@@ 132424
фици@@ 132375
промышлен@@ 132336
коне@@ 132210
0,@@ 132195
нала 132140
Франции 132086
Гор@@ 132023
Т 131955
назна@@ 131827
ства@@ 131693
группа 131538
либо 131515
голо@@ 131436
ъ@@ 131422
вшего 131393
туре 131387
образования 131381
Ленин@@ 131367
возвра@@ 131340
ждён 131204
лю 131013
звание 130946
Совета 130927
дет@@ 130879
благо@@ 130722
совет 130692
Европы 130662
2020 130478
пес@@ 130429
тил 130404
уни@@ 130379
берегу 130359
ровал 130299
количество 130249
! 130232
Мак@@ 130203
защит@@ 130116
расска@@ 130064
дина@@ 130060
находи@@ 130043
жителей 130038
яр@@ 130034
боле@@ 130031
уров@@ 130014
рь 129958
командо@@ 129707
дин@@ 129535
сторон@@ 129506
дебю@@ 129482
генера@@ 129311
хе@@ 129210
площа@@ 129146
шение 129090
зов 129084
перед 129041
дение 129027
если 128858
зах@@ 128832
рован 128647
женщин 128625
слова@@ 128543
ёр 128528
1999 128503
мон@@ 128474
древ@@ 128457
необходи@@ 128253
цкий 128244
пли@@ 128222
продолжа@@ 128188
освобо@@ 128142
вского 128043
никами 127981
вича 127904
села 127901
спа@@ 127884
стрел@@ 127866
br 127846
заве@@ 127841
Дже@@ 127804
поте@@ 127767
ья@@ 127767
– 127766
ток 127687
монасты@@ 127551
эф@@ 127439
ствии 127274
коллек@@ 127265
Ген@@ 127240
верну@@ 127218
че 127088
системы 127043
лением 126992
1945 126963
оз@@ 126961
тура 126933
онов 126854
щение 126782
учи@@ 126771
одного 126712
ву 126670
нович 126664
Ман@@ 126533
часто 126393
выступа@@ 126300
компа@@ 126280
дж@@ 126121
Основ@@ 126082
йских 125999
вов 125887
лами 125822
уро@@ 125816
нок 125773
селе@@ 125709
распростра@@ 125644
ност@@ 125642
действи@@ 125596
рю@@ 125391
сь@@ 125357
Родился 125148
всё 125115
ваться 125071
школы 124984
источ@@ 124970
1943 124846
обнару@@ 124763
E@@ 124729
пы 124727
гон@@ 124589
орга@@ 124571
результ@@ 124570
Входит 124549
воло@@ 124414
дву@@ 124399
четы@@ 124395
тной 124375
плат@@ 124343
проте@@ 124330
60 124298
окончил 124251
нина 124174
селе 124119
борь@@ 124089
бал@@ 123968
кило@@ 123919
большо@@ 123916
ёз@@ 123898
поме@@ 123896
молод@@ 123828
куль@@ 123825
10@@ 123703
крити@@ 123602
цов 123543
цей 123481
Государ@@ 123352
опублико@@ 123339
ску@@ 123300
альбом 123244
поддерж@@ 123181
ковой 123121
план@@ 123024
управления 123024
уго@@ 123016
совер@@ 122897
пора@@ 122895
ческое 122831
2003 122796
Чер@@ 122747
H@@ 122581
Германии 122560
кси@@ 122549
пут@@ 122501
Раз@@ 122488
прода@@ 122388
Мон@@ 122387
клю@@ 122381
ныне 122311
обе@@ 122236
художе@@ 122192
публи@@ 122082
служи@@ 122075
мате@@ 122047
празд@@ 121995
средне@@ 121852
подготов@@ 121826
почти 121816
Гер@@ 121777
До 121713
воро@@ 121686
пы@@ 121616
000 121537
организации 121424
нин@@ 121379
детей 121348
рович 121298
каж@@ 121289
ющая 121261
вский 121221
Санкт 121210
чается 121173
кими 121104
раб@@ 120988
меха@@ 120987
нуж@@ 120972
вновь 120796
титу@@ 120789
атом 120716
пу 120615
сад@@ 120489
типа 120489
чает 120449
эти 120381
факуль@@ 120311
заклю@@ 120255
Кры@@ 120243
власти 120004
широ@@ 119990
хотя 119939
тый 119917
культуры 119908
значитель@@ 119762
дере@@ 119758
игры 119751
Запад@@ 119693
нер@@ 119597
брига@@ 119594
представля@@ 119566
жизнь 119473
тер 119334
реб@@ 119186
Федерации 119185
Дмит@@ 119053
Од@@ 119042
Как 119021
худож@@ 118998
памят@@ 118932
честь 118919
Из@@ 118865
посвя@@ 118854
ктор 118846
рина 118795
начина@@ 118777
бю@@ 118720
крас@@ 118671
чемпионата 118603
Москве 118583
энер@@ 118541
информа@@ 118491
большой 118481
сю@@ 118395
хра@@ 118372
площадь 118353
W@@ 118247
больше 118246
мь@@ 118218
лено 118203
Тур@@ 118202
первые 118192
бург@@ 118084
имя 117910
класси@@ 117876
объеди@@ 117862
Вен@@ 117849
льского 117784
вет 117766
шло 117765
Аб@@ 117753
выбо@@ 117728
Она 117666
мен 117644
губернии 117580
общества 117522
пен@@ 117499
съ@@ 117480
взя@@ 117456
настоящее 117377
тео@@ 117323
значения 117214
геро@@ 117111
частности 117110
ческая 117077
гли 116979
теат@@ 116973
осуществ@@ 116897
шил 116849
людей 116721
ятся 116667
Рас@@ 116638
соста@@ 116628
A@@ 116551
дать 116508
предприя@@ 116508
ктором 116497
сса@@ 116393
льской 116373
стер 116324
исклю@@ 116305
ены 116292
обя@@ 116280
воору@@ 116191
британ@@ 116180
кин 116146
случа@@ 116141
социаль@@ 116049
Кур@@ 116014
Май@@ 116002
ита 115862
12@@ 115823
эле@@ 115808
вол@@ 115765
нём 115667
зу 115596
популяр@@ 115526
клуба 115472
генерал 115436
фу@@ 115390
организо@@ 115343
лях 115323
собствен@@ 115273
ставля@@ 115270
миче@@ 115264
многих 115182
простран@@ 115130
готов@@ 115110
евре@@ 115075
автомоби@@ 114862
слав@@ 114834
замест@@ 114782
прия@@ 114716
пан@@ 114682
чё@@ 114673
ступа@@ 114660
собы@@ 114594
так@@ 114562
стало 114516
интере@@ 114484
чески 114283
жен 114266
команди@@ 114252
зву@@ 114239
1980 114238
кти@@ 114070
миро@@ 114005
Моск@@ 113938
сохрани@@ 113785
соеди@@ 113720
второ@@ 113658
архи@@ 113613
оне 113516
транспор@@ 113309
мене@@ 113162
импера@@ 113144
деятельность 113107
момент 113048
1991 113014
щая 112965
полож@@ 112924
самолё@@ 112906
Рус@@ 112764
ян 112759
офи@@ 112693
би 112692
1992 112675
Эн@@ 112664
степени 112472
членом 112448
Гра@@ 112408
бир@@ 112311
ходят 112236
“ 112175
Глав@@ 112161
район@@ 112040
наиболее 111987
собра@@ 111944
основном 111917
стана 111907
бло@@ 111839
уста@@ 111797
работу 111760
льский 111742
мировой 111699
сан@@ 111687
различных 111627
сезоне 111596
профессиона@@ 111588
жур@@ 111427
успе@@ 111408
пун@@ 111377
независи@@ 111337
права 111313
требо@@ 111295
Уи@@ 111203
лев@@ 111180
ради@@ 111157
гов@@ 111011
дивизии 110978
большин@@ 110914
реги@@ 110898
XIX 110882
нес@@ 110843
вёр@@ 110837
временно 110830
нор@@ 110801
ностей 110784
Евро@@ 110777
Вол@@ 110742
Боль@@ 110732
хот@@ 110703
лка 110581
лок 110531
авиа@@ 110510
цкого 110409
шко@@ 110369
уме@@ 110352
должность 110318
Воз@@ 110311
входит 110299
вне@@ 110248
1942 110204
дире@@ 110196
проводи@@ 110151
Великой 110074
первого 110072
йн@@ 110070
регу@@ 110060
ходя@@ 109970
совета 109946
шем 109929
кресть@@ 109920
матче 109909
различ@@ 109878
пунк@@ 109823
Ши@@ 109793
недо@@ 109791
вле@@ 109729
зар@@ 109582
бри@@ 109552
s 109484
услови@@ 109456
ктов 109194
+ 109182
решение 109150
стью 109065
принял 108988
1960 108940
нескольких 108937
Отечественной 108924
вшие 108917
граждан@@ 108913
содержа@@ 108897
шу@@ 108875
поги@@ 108863
здесь 108807
канди@@ 108718
дал 108708
таких 108520
чемпи@@ 108509
Пар@@ 108488
1970 108485
литератур@@ 108365
мин@@ 108309
кин@@ 108291
Бы@@ 108184
своим 108169
ыва@@ 108029
лению 108026
вской 108025
тысяч 107956
Ива@@ 107938
шее 107913
лых 107859
хан@@ 107794
Так 107766
вили 107752
экономиче@@ 107705
Красно@@ 107655
создан@@ 107636
Поз@@ 107606
ступи@@ 107568
щие 107559
Ше@@ 107540
нал 107355
располага@@ 107315
бле@@ 107302
разработ@@ 107283
ствуют 107252
бой 107219
70 107148
своё 107078
гло@@ 107077
комплек@@ 107063
емых 106908
зон@@ 106877
новых 106862
лег@@ 106856
моря 106842
бин@@ 106828
дены 106816
экономи@@ 106741
действия 106729
украин@@ 106594
зма 106577
специали@@ 106557
рование 106498
Коро@@ 106453
внутрен@@ 106425
музе@@ 106413
ню 106308
инжен@@ 106171
ранее 106138
шед@@ 106138
Хи@@ 106109
Я 106074
примерно 106071
милли@@ 106027
верх@@ 106005
отсут@@ 105996
новой 105903
советский 105896
лин 105855
рует 105838
держи@@ 105821
сдела@@ 105670
80 105629
линии 105622
войск 105589
ствовал 105553
Рабо@@ 105506
щего 105345
технологи@@ 105187
веду@@ 105167
мена 105161
рово@@ 105161
джа@@ 105142
жено 105135
Фа@@ 105072
сам@@ 105037
футбо@@ 104977
совмест@@ 104955
„ 104925
мей@@ 104909
турни@@ 104909
помо@@ 104894
фильма 104834
бил 104793
проходи@@ 104749
логии 104722
первым 104713
измене@@ 104652
Сан@@ 104546
вшись 104515
1998 104413
участвовал 104386
дома 104371
допол@@ 104348
чу 104309
произо@@ 104299
персона@@ 104142
уез@@ 103971
бка 103888
Чи@@ 103860
тного 103789
симво@@ 103691
вила 103485
чемпиона@@ 103466
лла 103461
лий 103353
сою@@ 103324
формы 103267
наблю@@ 103260
Пере@@ 103226
самого 103208
трёх 103197
реда@@ 103089
пов 103074
тина 103072
участи@@ 103052
серии 103030
пти@@ 102967
названием 102955
чном 102861
число 102792
мно@@ 102698
приве@@ 102657
образование 102459
полага@@ 102433
пат@@ 102416
дивизи@@ 102415
Союза 102372
позволя@@ 102341
1930 102339
1994 102338
зи 102270
концер@@ 102235
дам 102225
1,@@ 102210
полка 102206
Нью 102165
us 102156
of 102074
новый 102018
отправ@@ 101952
Ак@@ 101937
лько 101914
н. 101911
1997 101871
емо@@ 101854
лер 101834
которую 101778
возрасте 101776
причи@@ 101722
кс 101695
которым 101671
прин@@ 101659
Пав@@ 101596
функ@@ 101527
Владимир 101500
ул 101476
1996 101404
посё@@ 101355
преж@@ 101346
III 101306
позже 101306
воды 101233
тировал 101213
1995 101166
Николай 101072
получила 101026
Сте@@ 101023
2021 101022
виде 100999
упомина@@ 100952
жением 100846
ут@@ 100804
дри@@ 100792
вышел 100773
очеред@@ 100662
влия@@ 100571
этому 100539
Ир@@ 100437
мину@@ 100437
Поль@@ 100435
ители 100430
ём@@ 100401
звез@@ 100369
учеб@@ 100354
ряда 100352
фото@@ 100350
мать 100339
квар@@ 100320
слож@@ 100319
Гре@@ 100290
убе@@ 100280
жо@@ 100259
лите@@ 100241
ссе 100210
Сем@@ 100168
Мин@@ 100155
Гри@@ 100016
помощ@@ 100016
полностью 100014
сын 99976
печат@@ 99950
Ос@@ 99900
V@@ 99822
нове@@ 99791
убий@@ 99781
1920 99779
нил 99516
пру@@ 99491
ию@@ 99392
городской 99320
сра@@ 99274
деятельности 99212
игр 99179
люб@@ 99161
мах 99152
вонача@@ 99126
Под@@ 99086
мас@@ 99085
деревни 99031
Казах@@ 98994
особ@@ 98992
спу@@ 98961
мощ@@ 98956
чёр@@ 98902
зая@@ 98888
вернулся 98797
провод@@ 98779
пробле@@ 98683
1993 98488
зал 98416
Центра@@ 98400
скоро@@ 98351
Пра@@ 98330
продол@@ 98168
исследовате@@ 98160
ённого 98137
показа@@ 98113
рей 98040
бар@@ 97939
уничто@@ 97903
вно 97817
гг 97721
юри@@ 97716
случае 97704
йна 97501
стен@@ 97369
Вели@@ 97328
ённой 97257
ил 97252
член 97249
закры@@ 97236
первых 97214
XX 97170
бург 97145
см 97094
лья@@ 97012
лович 97006
без@@ 96975
организа@@ 96945
йская 96928
дальней@@ 96904
лян@@ 96818
вну@@ 96806
япон@@ 96768
рь@@ 96709
конструк@@ 96644
имено@@ 96612
валась 96595
желез@@ 96578
федера@@ 96565
др 96532
зат@@ 96510
вян@@ 96459
вое@@ 96411
крат@@ 96400
тин 96390
получа@@ 96388
пись@@ 96361
женный 96350
сматри@@ 96347
контро@@ 96334
выра@@ 96316
городского 96314
многие 96309
знач@@ 96274
ник@@ 96158
млн 96127
Второй 96098
гори@@ 96070
Был 96064
нару@@ 96026
против@@ 96008
альбома 95945
железнодорож@@ 95922
мужчин 95825
&apos; 95824
еты 95723
тых 95710
провёл 95701
жений 95699
стр 95636
види@@ 95630
срав@@ 95585
гла 95516
уезда 95506
зако@@ 95494
мин 95446
уси@@ 95411
ётся 95406
прекра@@ 95316
ментов 95252
Петер@@ 95236
Когда 95071
Они 95032
вии 95032
Дан@@ 95015
щей 94987
менты 94980
соци@@ 94898
чат@@ 94882
1989 94857
чался 94846
35 94838
четыре 94826
места 94819
ох@@ 94818
артилле@@ 94775
империи 94718
пос@@ 94703
K@@ 94543
подоб@@ 94501
Международ@@ 94453
кино 94402
вдо@@ 94315
материа@@ 94286
руководством 94265
себе 94207
уве@@ 94205
хар@@ 94147
Чемпи@@ 94131
1950 94093
O@@ 94084
тные 93890
нового 93846
напа@@ 93824
отно@@ 93761
душ@@ 93718
дил 93639
фра@@ 93627
хов 93591
эй@@ 93546
тии 93496
Олимпийских 93428
некоторые 93406
основа@@ 93343
гри@@ 93253
гну@@ 93222
ствия 93216
лиза@@ 93129
1940 93119
плани@@ 93116
мян@@ 93103
Сре@@ 93087
полити@@ 93011
ката@@ 93008
некоторых 92961
Кла@@ 92936
движения 92902
произ@@ 92835
ара 92831
держ@@ 92763
связан@@ 92749
ваний 92655
еписко@@ 92648
Тру@@ 92600
помощью 92595
вор@@ 92575
круг 92573
шки 92564
Бра@@ 92503
шан@@ 92392
ап@@ 92350
Спи@@ 92345
приз@@ 92341
твер@@ 92319
куп@@ 92237
население 92174
выде@@ 92152
песни 92134
y 92101
реали@@ 92009
основе 91965
надц@@ 91820
йти 91750
Андре@@ 91673
= 91629
ствие 91614
зависи@@ 91556
веке 91532
произве@@ 91499
ино@@ 91424
дь 91419
нин 91388
присоеди@@ 91330
восстанов@@ 91326
дер 91285
треть@@ 91284
Ху@@ 91257
лова 91227
видов 91183
пас@@ 91112
чить 91092
Среди 91081
чки 91068
мя 91044
хов@@ 91032
церковь 91017
развития 90965
рал@@ 90914
рам 90894
ана 90891
поскольку 90888
Михай@@ 90767
сельсовета 90694
Тре@@ 90693
итальян@@ 90650
культур@@ 90544
Мат@@ 90403
государственного 90378
ито@@ 90239
Иван 90159
работ 90148
2,@@ 90092
кую 90067
завое@@ 90010
удалось 89970
Зе@@ 89870
кафед@@ 89848
жды 89841
включая 89802
рамках 89749
заво@@ 89685
лый 89677
тогда 89667
док 89652
сами 89577
чка 89539
сфер@@ 89509
длин@@ 89505
кня@@ 89452
ьи 89446
циях 89426
нией 89418
удо@@ 89371
Кан@@ 89369
лые 89277
Тро@@ 89267
вшей 89217
дороги 89182
мана 89139
протя@@ 88899
Василь@@ 88845
общ@@ 88837
арти@@ 88833
одна 88830
языка 88798
1918 88791
ран 88781
90 88769
восста@@ 88753
ху 88621
играх 88607
заме@@ 88566
расте@@ 88562
острова 88510
1939 88422
версии 88365
Пло@@ 88342
имеют 88302
Нор@@ 88298
тем@@ 88287
дин 88227
возгла@@ 88221
орде@@ 88217
бо 88203
академии 88185
Сто@@ 88128
млад@@ 88108
Затем 88056
выше 88056
инте@@ 88018
княз@@ 87996
сце@@ 87948
студен@@ 87926
реше@@ 87917
ую 87869
окончания 87849
Англи@@ 87832
друго@@ 87829
чным 87781
Вар@@ 87767
руко@@ 87735
другой 87717
ёж@@ 87674
компания 87612
деревне 87465
библиоте@@ 87432
корот@@ 87395
дат 87388
вода 87360
такие 87248
ене@@ 87242
ними 87186
стя 87171
маши@@ 87165
внеш@@ 87155
стан 87084
учре@@ 87079
полови@@ 87038
самых 86915
дел 86889
относ@@ 86852
Большо@@ 86719
коле@@ 86717
Ай@@ 86669
поле 86668
конца 86616
йском 86579
обычно 86578
Эр@@ 86495
арми@@ 86477
голов@@ 86407
Ст@@ 86389
казом 86378
поез@@ 86359
тирова@@ 86355
института 86266
лага@@ 86257
ано 86191
Администра@@ 86186
положение 86132
войска 86109
льными 86081
руется 86052
вариан@@ 85998
джи@@ 85987
расши@@ 85961
благодаря 85898
Сред@@ 85884
дале@@ 85862
тех 85857
медицин@@ 85850
Е 85845
река 85692
Хе@@ 85647
устрой@@ 85527
бом 85501
вод 85397
чины 85393
совершен@@ 85372
Дэ@@ 85332
Дру@@ 85306
I@@ 85285
тыс. 85267
? 85258
сообще@@ 85198
ря 85096
рая 85092
дю@@ 85076
актё@@ 84960
союз@@ 84955
Ок@@ 84904
университете 84876
моде@@ 84801
гия 84782
ственным 84728
Мор@@ 84715
шка 84696
низа@@ 84681
май@@ 84679
Фё@@ 84582
разу 84580
тай@@ 84544
гля@@ 84523
европей@@ 84514
A 84501
здание 84500
фон 84447
чением 84425
дели@@ 84398
мия 84372
фестива@@ 84280
поэтому 84265
чис@@ 84248
ческом 84180
дена 84112
шо@@ 84100
вета 83977
вати@@ 83972
настоя@@ 83907
дис@@ 83887
200 83830
пользо@@ 83829
выступи@@ 83816
степен@@ 83815
Пари@@ 83806
Кре@@ 83775
сли@@ 83765
упо@@ 83747
ими 83683
школу 83678
присут@@ 83647
мимо 83625
мире 83617
выступал 83608
тая 83603
рос@@ 83595
чик 83543
Тер@@ 83508
Амери@@ 83468
опы@@ 83438
работе 83435
цкой 83353
попы@@ 83352
школе 83352
тво@@ 83344
апре@@ 83314
архитек@@ 83283
став 83283
нали@@ 83266
ющее 83252
побед@@ 83244
жу@@ 83239
роли 83232
Кара@@ 83190
ана@@ 83188
кает 83086
перешёл 83053
двигате@@ 83029
безопас@@ 83009
зин@@ 82975
тивный 82973
оцен@@ 82929
тона 82916
пригла@@ 82908
моно@@ 82851
ландии 82798
кат@@ 82772
лож@@ 82754
чай@@ 82751
количе@@ 82732
прово@@ 82724
участво@@ 82696
происхо@@ 82691
юще@@ 82680
покин@@ 82591
1@@ 82548
вшая 82528
провинции 82519
радио@@ 82476
пози@@ 82458
лица 82421
самым 82310
ссе@@ 82241
ква@@ 82218
Шу@@ 82181
45 82177
коль@@ 82105
национальной 81990
реш@@ 81948
a 81941
жей 81936
чены 81899
вании 81849
соби@@ 81817
нат 81785
чен 81751
режи@@ 81739
Жи@@ 81731
Первый 81688
главным 81673
атам 81668
кина 81655
ваются 81654
тической 81650
анали@@ 81645
чное 81639
20@@ 81636
постав@@ 81615
З 81608
32 81577
вклю@@ 81499
храни@@ 81488
Акаде@@ 81474
края 81459
меж@@ 81397
позиции 81397
Иванович 81377
языке 81338
Гар@@ 81285
зации 81217
мир 81205
ался 81197
королев@@ 81177
округ 81173
формирова@@ 81163
1917 81131
кана@@ 81088
нем@@ 81087
команда 81023
полно@@ 81021
хом 80976
обви@@ 80936
согласно 80925
нике 80924
постоян@@ 80886
искусства 80847
земли 80773
ума 80745
тная 80678
ственные 80608
йки 80591
производства 80581
скры@@ 80548
секретар@@ 80456
поселение 80407
Мэ@@ 80397
разру@@ 80376
сной 80312
впоследствии 80154
лез@@ 80142
должен 80132
близ@@ 80108
частью 80068
два@@ 80048
тол@@ 80006
части@@ 79990
свобо@@ 79979
новые 79892
иностран@@ 79859
российский 79790
герцо@@ 79777
фер@@ 79766
происходит 79680
област@@ 79516
кров@@ 79510
гие 79479
христи@@ 79471
Зем@@ 79389
циона@@ 79358
сентябре 79352
ас@@ 79343
Кита@@ 79292
сия 79271
Окон@@ 79202
продук@@ 79183
присво@@ 79172
февра@@ 79167
предо@@ 79137
органи@@ 79074
кита@@ 79068
мнению 79051
вызва@@ 79032
язык 79008
щую 78870
сим@@ 78864
Сы@@ 78846
форма@@ 78838
Михаил 78810
полк 78800
Институ@@ 78769
создания 78708
ответ@@ 78618
стви@@ 78553
стран 78552
щен 78545
тые 78526
1988 78525
серебря@@ 78517
нему 78510
ент@@ 78487
крепо@@ 78465
свиде@@ 78439
уби@@ 78422
мета@@ 78280
ческим 78277
мае 78269
волости 78236
спорта 78189
всей 78167
завод 78166
карьеру 78161
баталь@@ 78133
− 78020
другими 78011
смер@@ 77973
дже@@ 77965
Верховного 77960
дово@@ 77947
Лон@@ 77886
дек@@ 77846
состоит 77800
лки 77778
неё 77770
избран 77767
става 77745
январе 77743
составляло 77720
Чу@@ 77709
отношения 77636
рова 77632
данных 77619
трене@@ 77610
театра 77601
риа@@ 77548
должности 77542
выстав@@ 77541
рим@@ 77516
постанов@@ 77431
Бал@@ 77379
the 77365
особенно 77361
целью 77333
профессор 77309
номе@@ 77291
Великобрита@@ 77253
имел 77203
ото@@ 77144
они@@ 77108
профессо@@ 77101
поддержи@@ 77085
строе@@ 77071
Джо@@ 77053
капита@@ 77031
метал@@ 77022
фек@@ 77017
фрон@@ 76949
марте 76894
ым 76843
деятель 76763
принадле@@ 76720
Ниж@@ 76700
Сергей 76663
зиден@@ 76638
рёх@@ 76630
кто 76522
чел 76491
образова@@ 76407
чена 76357
ори@@ 76331
вскоре 76318
вез@@ 76303
коммуны 76216
каз 76207
возра@@ 76201
нении 76176
аэро@@ 76141
именно 76131
Занима@@ 76092
гне@@ 76089
нан@@ 76085
температура 76082
дан 76067
сыграл 76017
Москва 75976
поро@@ 75890
еже@@ 75882
станция 75856
неболь@@ 75832
расположен 75830
сохра@@ 75812
выступ@@ 75811
дня 75782
сро@@ 75705
рез 75692
конкур@@ 75663
памя@@ 75636
посёлок 75584
ваны 75554
Пос@@ 75552
октябре 75546
короля 75541
занял 75507
КП@@ 75499
РФ 75490
продолж@@ 75488
РСФСР 75473
хии 75472
фильме 75464
государства 75462
инстру@@ 75449
жела@@ 75447
первом 75447
чие 75430
августе 75418
дре@@ 75389
Сан 75380
деб@@ 75360
мость 75329
юр@@ 75319
рее@@ 75288
карьер@@ 75279
декабре 75260
проект 75253
тки 75240
Италии 75215
следующие 75198
Петербур@@ 75197
снова 75150
остав@@ 75133
зано 75129
рядом 75115
институт 75112
семьи 75041
возможно 75025
альбо@@ 75022
чув@@ 74982
математи@@ 74977
Кра@@ 74952
священ@@ 74932
кажд@@ 74876
депут@@ 74858
поверх@@ 74854
Робер@@ 74829
тран@@ 74822
сток 74807
каче@@ 74806
сай@@ 74768
запре@@ 74752
дел@@ 74731
револю@@ 74713
возможность 74704
пита@@ 74680
семейства 74649
приобре@@ 74631
гося 74609
относится 74603
нюю 74602
имен@@ 74564
тур 74550
нению 74546
образу@@ 74535
том@@ 74525
право 74404
массо@@ 74403
противника 74401
озна@@ 74397
Же@@ 74376
ал 74341
on 74220
обре@@ 74211
этим 74208
микро@@ 74192
тюр@@ 74165
умер 74109
служил 74073
газ@@ 74064
преимуще@@ 74057
Бур@@ 74052
Этот 74050
ковского 74002
русской 73987
пехот@@ 73969
чита@@ 73949
команду 73923
расстоянии 73921
хро@@ 73917
подчи@@ 73880
ата 73877
рит 73840
опис@@ 73806
щена 73806
соревнова@@ 73796
65 73699
учения 73671
Фер@@ 73641
женщины 73629
Анто@@ 73616
челове@@ 73571
1938 73496
перееха@@ 73467
режиссё@@ 73467
Все 73454
футболь@@ 73449
Воен@@ 73441
находился 73431
неф@@ 73417
изо@@ 73402
Япо@@ 73346
емые 73339
ковых 73331
правления 73305
1937 73302
двумя 73297
контракт 73286
тата 73278
выигра@@ 73271
книги 73234
губер@@ 73231
зм 73226
востоку 73217
пит@@ 73188
достато@@ 73187
отца 73145
Виль@@ 73137
поня@@ 73116
повы@@ 73115
3,@@ 73085
рал 73079
чих 73041
вида 73040
мся 72970
управля@@ 72959
сборную 72901
Несмотря 72875
Екате@@ 72874
Украи@@ 72856
представляет 72773
вве@@ 72765
йские 72726
деж@@ 72710
крупней@@ 72701
проис@@ 72675
журнали@@ 72662
долларов 72657
рян@@ 72630
журна@@ 72603
лям 72591
1986 72581
фикации 72577
дино@@ 72576
ьера 72515
середине 72484
службу 72465
ющем 72438
i 72431
ски@@ 72425
православ@@ 72415
ните@@ 72412
уровнем 72400
состав@@ 72396
кле@@ 72379
Александра 72359
июле 72354
подразде@@ 72273
наро@@ 72257
церков@@ 72239
дя 72191
школа 72173
премии 72160
тела 72103
гель@@ 72082
Располо@@ 72068
испан@@ 72052
корпуса 72050
емый 72022
напис@@ 72009
75 71996
Гру@@ 71973
значение 71972
силы 71970
бор 71958
S 71946
западу 71923
алистиче@@ 71919
мской 71897
лес@@ 71877
Ря@@ 71843
нен 71824
1987 71822
V 71782
региона@@ 71777
вка 71772
двор@@ 71745
кладбище 71685
риал@@ 71643
1919 71627
операции 71587
проекта 71559
U@@ 71545
бело@@ 71497
цве@@ 71456
Джа@@ 71454
разви@@ 71450
обору@@ 71449
граф@@ 71337
психо@@ 71331
гой 71323
1985 71292
1946 71264
отец 71227
Испа@@ 71197
столи@@ 71194
разо@@ 71151
любо@@ 71141
час 71116
эпо@@ 71104
литера@@ 71089
Описание 71030
Сло@@ 70974
домаш@@ 70971
бок 70968
скон@@ 70908
жили 70907
Министер@@ 70820
сей@@ 70815
шах@@ 70811
Поли@@ 70793
гвардей@@ 70776
стро 70745
шо 70721
Им@@ 70658
36 70645
64 70643
хоронен 70621
ситуа@@ 70581
лед@@ 70577
дипло@@ 70573
бре@@ 70561
E 70560
подо@@ 70512
москов@@ 70482
нова@@ 70471
поряд@@ 70471
Зна@@ 70468
500 70457
университет 70381
37 70280
произведе@@ 70268
пор 70260
ау@@ 70242
известно 70242
камен@@ 70240
система 70225
дов@@ 70191
руб@@ 70181
природ@@ 70170
серта@@ 70141
традицион@@ 70132
избира@@ 70044
раун@@ 70033
&#124; 69984
33 69954
изи@@ 69939
B 69908
1965 69772
друг 69760
поле@@ 69664
запис@@ 69661
Ис@@ 69622
дор 69619
помощи 69558
сел@@ 69503
други@@ 69348
нико@@ 69309
Иль@@ 69245
Фор@@ 69180
оке@@ 69110
зей 69085
чин@@ 69052
карь@@ 69031
сен 68996
ябре 68979
рио@@ 68971
принци@@ 68931
АН 68927
дон@@ 68910
бъ@@ 68874
позволи@@ 68772
оби@@ 68764
отра@@ 68737
поста@@ 68734
лон@@ 68699
стату@@ 68693
т. 68630
1984 68531
чемпио@@ 68529
даль@@ 68465
Мари@@ 68462
ристи@@ 68446
свет@@ 68436
пизо@@ 68343
34 68310
доку@@ 68180
1979 68143
лью 67941
рат 67909
1966 67873
сто 67857
ам@@ 67738
вс@@ 67729
Син@@ 67713
Цер@@ 67682
Серге@@ 67671
институ@@ 67663
сыгра@@ 67655
38 67633
практи@@ 67633
c 67531
1968 67459
цвет@@ 67424
1975 67407
Ль@@ 67379
Пор@@ 67350
Ран@@ 67339
сона 67248
1926 67207
ордена 67187
ны@@ 67086
ери 67012
Джон 67003
СС 66979
Азербай@@ 66973
X 66864
1948 66850
удосто@@ 66838
лосо@@ 66727
пера@@ 66665
око@@ 66652
дерев@@ 66623
Бол@@ 66591
соз@@ 66550
бронзо@@ 66510
архите@@ 66486
евна 66450
Ам@@ 66402
карти@@ 66356
духов@@ 66335
зам@@ 66316
ане 66272
отве@@ 66215
рен 66190
особен@@ 66167
1963 66163
вато@@ 66161
цо 66159
рели@@ 66150
комитета 66144
отказа@@ 66143
1973 66137
Рес@@ 66118
училище 66106
лле@@ 66050
лиш@@ 66039
1976 66031
приме@@ 66001
практически 65934
лега@@ 65924
ари 65864
носи@@ 65815
тически 65808
макси@@ 65779
рил 65776
Воро@@ 65774
отличие 65713
бира@@ 65703
граф 65700
Извест@@ 65696
стой 65695
начало 65678
Дон@@ 65673
веще@@ 65672
1959 65649
кир@@ 65631
град 65559
1972 65486
похо@@ 65245
Пол@@ 65196
руп@@ 65123
хе 65085
впа@@ 65062
спеди@@ 65055
фронта 65009
писи 65000
президента 64992
стин@@ 64988
1971 64851
социа@@ 64836
1958 64818
Олимпи@@ 64812
1956 64797
Украин@@ 64705
Климат 64635
слав 64578
1982 64547
Исто@@ 64516
ску 64491
заслу@@ 64487
спорт@@ 64411
рин 64400
вёл 64399
Фин@@ 64380
тради@@ 64331
сезон 64296
демон@@ 64234
ограни@@ 64233
Благо@@ 64219
ато 64161
порт 64133
всем 64126
J@@ 64102
кам@@ 64100
пят@@ 64083
ково 64072
1974 63934
x 63924
Рай@@ 63880
синг@@ 63754
1929 63750
ид@@ 63702
лял 63676
увели@@ 63675
оце@@ 63605
тет 63579
вместо 63560
1983 63481
1978 63447
Член 63429
реша@@ 63423
управ@@ 63410
авиацион@@ 63399
самы@@ 63375
in 63314
ент 63312
Бел@@ 63310
бов 63259
1981 63244
фин@@ 63194
улица 63152
Воло@@ 63144
охра@@ 63124
1967 63121
стандар@@ 63027
копи@@ 62917
Филип@@ 62886
рик 62834
свобод@@ 62834
издате@@ 62765
демокра@@ 62761
гене@@ 62737
прото@@ 62691
1954 62666
1964 62652
1957 62601
маршру@@ 62572
вер 62560
жени@@ 62537
рато@@ 62519
рази@@ 62508
IV 62479
ниц 62474
Миха@@ 62447
00@@ 62446
стояние 62412
Тор@@ 62380
цер@@ 62368
Фо@@ 62333
ган 62319
фир@@ 62287
гна@@ 62259
1962 62253
тал 62252
клад@@ 62224
автор 62210
5,@@ 62181
рёх 62176
взаимо@@ 62172
маги@@ 62165
ог@@ 62149
дий 62141
1949 62124
дно 62079
мед@@ 62051
препода@@ 62051
повто@@ 62018
неде@@ 61984
внимание 61961
завода 61945
сте 61809
комп@@ 61790
дено 61731
турнира 61726
XVIII 61712
пл@@ 61629
1936 61563
Щ@@ 61507
1961 61478
законо@@ 61473
зиди@@ 61455
Кана@@ 61443
Народ@@ 61414
ключ@@ 61371
Тат@@ 61328
берг 61317
мало@@ 61296
рение 61278
e@@ 61168
характери@@ 61152
религиоз@@ 61144
творче@@ 61142
лан 61126
Макси@@ 61115
край@@ 61072
чо@@ 61054
вали@@ 61034
академи@@ 60986
1977 60957
спери@@ 60944
преподавате@@ 60884
Ат@@ 60872
епар@@ 60865
пост 60857
Фло@@ 60829
ёл 60791
Кам@@ 60729
графа 60719
уре@@ 60711
Кол@@ 60689
бран@@ 60629
de 60623
старо@@ 60523
рон 60508
Послед@@ 60505
вано 60442
1947 60390
лети@@ 60384
Стар@@ 60345
превра@@ 60307
кали@@ 60282
АТ@@ 60259
ченко 60255
лагер@@ 60191
ВС 60164
пору@@ 60138
защ@@ 60074
чия 60024
мел@@ 59995
гото@@ 59964
кисло@@ 59954
строй@@ 59925
1969 59924
метра@@ 59918
абсолю@@ 59897
t 59818
Бен@@ 59817
1935 59777
ум 59745
Сол@@ 59671
дор@@ 59618
Йор@@ 59526
мани@@ 59307
действ@@ 59279
42 59257
39 59252
L 59232
мигра@@ 59209
-@@ 59202
нео@@ 59185
развитие 59157
теше@@ 59146
зен@@ 59137
вро@@ 59134
йт 59070
роман@@ 59049
цик@@ 59037
шоу 58978
есте@@ 58958
Гене@@ 58948
футболист 58903
Хан@@ 58864
преду@@ 58753
принадлежа@@ 58740
разв@@ 58733
Пат@@ 58731
Авто@@ 58709
44 58700
говори@@ 58679
ена 58664
рё@@ 58653
Лин@@ 58604
G 58596
Прав@@ 58531
фан@@ 58529
Бри@@ 58488
Ев@@ 58485
кипа@@ 58409
дя@@ 58397
Це@@ 58384
духа 58382
Лат@@ 58369
движение 58353
фе 58289
ум@@ 58277
сей 58272
ати 58219
биз@@ 58206
дивизия 58186
пси@@ 58170
решения 58164
влияние 58143
6,@@ 58141
Изра@@ 58136
непосред@@ 58108
Смо@@ 58090
флота 58066
финансо@@ 58063
4,@@ 57998
Мария 57990
точки 57926
основате@@ 57915
нау@@ 57894
бой@@ 57885
фика@@ 57884
d@@ 57854
R 57835
вия 57819
множество 57791
T 57762
сор@@ 57755
номина@@ 57749
1924 57741
догово@@ 57728
стади@@ 57657
Соци@@ 57655
гражда@@ 57620
55 57602
зом 57550
вече@@ 57527
Сла@@ 57440
Тран@@ 57410
метро@@ 57409
показате@@ 57397
преми@@ 57396
дали 57387
Мно@@ 57315
1921 57283
Не 57250
фло@@ 57190
тыся@@ 57183
гин@@ 57179
шел 57143
30@@ 57109
D 57090
исто@@ 57088
моби@@ 57032
Сюжет 56993
мона@@ 56970
Нача@@ 56961
Бре@@ 56949
смотря 56903
периода 56902
нес 56895
Бли@@ 56881
чате@@ 56826
Анато@@ 56822
Георги@@ 56810
Евге@@ 56785
темпера@@ 56738
реак@@ 56734
сне@@ 56691
Три@@ 56663
Кав@@ 56661
сдел@@ 56650
y@@ 56604
стил 56575
нато@@ 56543
M 56517
спон@@ 56504
пон@@ 56477
c@@ 56418
химиче@@ 56409
чено 56373
свой@@ 56323
1922 56289
сед@@ 56262
труд@@ 56242
Петро@@ 56154
вей@@ 56113
лектри@@ 56097
Сле@@ 56047
земе@@ 55979
Э 55941
ровки 55941
1953 55880
кнове@@ 55842
которо@@ 55824
развити@@ 55793
оригина@@ 55786
мум 55778
гно@@ 55748
правило 55741
ново 55735
фектив@@ 55647
скло@@ 55640
48 55590
er 55580
300 55566
1928 55528
днев@@ 55509
категории 55417
записи 55385
Бори@@ 55377
самостоя@@ 55305
квали@@ 55285
Сим@@ 55275
скри@@ 55268
ец 55262
узна@@ 55243
d 55187
Афри@@ 55185
дела 55130
известен 55128
нена 55083
1955 55073
контра@@ 55063
лик@@ 54979
дей 54963
ктор@@ 54961
лог 54951
1934 54925
кампа@@ 54914
рд 54859
наме@@ 54819
замен@@ 54812
облада@@ 54765
1952 54762
скоре 54749
Университе@@ 54694
администра@@ 54650
твор@@ 54622
действие 54610
научно 54593
наслед@@ 54587
Сти@@ 54582
трудо@@ 54580
оте@@ 54573
Дне@@ 54519
вру@@ 54515
and 54503
характер@@ 54492
консер@@ 54471
ол@@ 54461
визи@@ 54425
жества 54407
код 54375
Бан@@ 54355
1932 54324
кс@@ 54310
пля@@ 54284
Гро@@ 54281
последовате@@ 54257
циони@@ 54235
1933 54218
наи@@ 54048
Андрей 54031
укра@@ 54026
Бор@@ 53973
Полу@@ 53971
ща 53963
Нар@@ 53960
конферен@@ 53957
Австра@@ 53940
рекор@@ 53912
студи@@ 53899
тика 53880
чар@@ 53859
зато@@ 53852
моти@@ 53813
одо@@ 53783
песен 53679
комен@@ 53645
1931 53643
1923 53593
цио@@ 53585
документа@@ 53581
коно@@ 53573
шен 53551
писан 53547
X@@ 53541
Лей@@ 53538
Обще@@ 53525
распо@@ 53474
аб@@ 53416
лища 53382
успеш@@ 53354
брат 53348
летия 53343
Тай@@ 53297
автоно@@ 53267
меди@@ 53260
педагоги@@ 53254
41 53167
Гон@@ 53077
лабо@@ 53056
позна@@ 53000
N 52961
числа 52922
o 52879
ред 52852
еха@@ 52701
мл@@ 52633
джан@@ 52630
кавале@@ 52591
вли@@ 52585
Ю 52530
транс@@ 52517
43 52477
Василий 52466
Йо@@ 52399
перио@@ 52396
Вин@@ 52341
КП 52333
зате@@ 52271
участник 52256
52 52193
производство 52116
тел 52106
Пен@@ 52100
науки 52077
военно 52021
лета 52014
47 52008
F 51995
e 51958
Шве@@ 51957
ната 51916
оконча@@ 51916
публики 51899
гат@@ 51884
поко@@ 51883
Дей@@ 51873
ун 51873
Кали@@ 51857
Чар@@ 51844
Тома@@ 51829
режисс@@ 51802
8,@@ 51799
1951 51765
гли@@ 51733
Гла@@ 51726
хо 51712
ремон@@ 51691
президент 51671
Вто@@ 51670
логия 51647
Сою@@ 51646
1927 51583
зали@@ 51579
кори@@ 51565
зон 51552
Ах@@ 51457
досто@@ 51408
орке@@ 51380
um 51349
просто 51307
гент@@ 51306
54 51291
бен@@ 51289
ровка 51283
Сара@@ 51275
Род@@ 51250
фигу@@ 51245
носите@@ 51235
85 51198
Джи@@ 51198
щее 51098
1925 51075
суб@@ 50989
жет 50928
O 50849
пило@@ 50810
комби@@ 50715
46 50710
мат 50702
явление 50661
жиз@@ 50621
удар@@ 50609
Нико@@ 50605
1914 50590
зан 50574
Автор 50550
акти@@ 50539
Под 50531
цеп@@ 50484
вин 50467
музей 50448
сек@@ 50433
произведения 50402
Стро@@ 50370
работа 50350
k 50308
Цент@@ 50301
25@@ 50283
7,@@ 50281
es 50232
28@@ 50224
бат@@ 50211
женщи@@ 50167
епископ 50137
като@@ 50092
тен 50044
Участ@@ 50041
армия 50041
Дани@@ 49974
нари@@ 49942
гате@@ 49932
тно@@ 49903
броне@@ 49839
тю@@ 49802
десь 49790
финан@@ 49772
Алек@@ 49726
бомбарди@@ 49679
Шар@@ 49655
кратно 49623
чина 49617
лиде@@ 49604
числе@@ 49597
департа@@ 49596
театра@@ 49529
храм 49528
amp 49501
Теле@@ 49437
сва@@ 49436
XVII 49389
51 49371
стка 49355
графия 49302
включ@@ 49236
герман@@ 49208
губерна@@ 49158
фабри@@ 49097
активно 49086
определя@@ 49007
море 48975
начи@@ 48949
зя@@ 48937
ing 48934
Виктор 48928
Кли@@ 48906
24@@ 48854
Z@@ 48811
жав@@ 48761
провин@@ 48758
кен@@ 48726
o@@ 48694
парт@@ 48665
тога@@ 48650
58 48637
щи 48599
имо@@ 48581
фамилия 48536
остров 48483
чит@@ 48464
гео@@ 48452
1905 48439
олимпи@@ 48427
купа@@ 48389
потреб@@ 48367
Бай@@ 48355
.. 48345
Ско@@ 48251
P 48203
купи@@ 48201
щем 48164
Лан@@ 48092
Клу@@ 48081
общество 48067
кг 48054
Спе@@ 48034
филосо@@ 48021
Кру@@ 47989
56 47961
дело 47961
et 47926
добав@@ 47925
s@@ 47913
Кир@@ 47912
62 47888
рата 47882
астро@@ 47817
философи@@ 47812
Село 47805
навли@@ 47752
консу@@ 47697
онат 47677
Коло@@ 47633
p@@ 47585
нич@@ 47581
лай@@ 47548
9,@@ 47517
53 47512
сть@@ 47503
континента@@ 47500
обнов@@ 47470
директор 47444
региона 47393
доби@@ 47371
фре@@ 47344
76 47343
мал@@ 47325
резер@@ 47310
собо@@ 47302
храма 47246
гол 47240
привле@@ 47162
говор@@ 47112
бед@@ 47098
Мол@@ 47058
ити 47057
нд 47055
кост@@ 47033
нало@@ 46983
Лит@@ 46978
линей@@ 46890
президен@@ 46888
окончате@@ 46883
обозна@@ 46817
люби@@ 46784
i@@ 46764
гвар@@ 46754
нас 46753
управление 46715
Фу@@ 46683
огром@@ 46644
Рим@@ 46635
форма 46610
Вла@@ 46596
бого@@ 46544
католиче@@ 46539
публика@@ 46537
Вале@@ 46484
00 46446
ордина@@ 46441
рана 46432
пи 46345
война 46338
Ара@@ 46316
пропа@@ 46262
Федера@@ 46259
Груп@@ 46211
Мер@@ 46189
72 46186
приблиз@@ 46166
сериала 46150
модели 46137
инду@@ 46110
мон 46087
раст@@ 46086
зрите@@ 46077
спорт 46045
гер 45997
атмо@@ 45982
Сар@@ 45978
чин 45916
высту@@ 45907
художник 45900
сии 45878
тера@@ 45857
сили 45829
печ@@ 45822
жерт@@ 45781
средства 45765
писание 45763
дата 45760
пто@@ 45752
стати@@ 45749
57 45748
населе@@ 45653
семей@@ 45648
вина 45647
мени 45615
циф@@ 45591
Мал@@ 45583
a@@ 45581
версия 45569
наси@@ 45543
1915 45539
49 45515
зия 45514
опас@@ 45513
Зи@@ 45506
Гос@@ 45479
сно 45439
пуска@@ 45415
Викто@@ 45397
поселе@@ 45380
Пан@@ 45255
осу@@ 45195
ари@@ 45158
космиче@@ 45154
мили@@ 45107
Ян@@ 45084
революцион@@ 45015
400 45012
ЦК 44995
82 44938
тан 44929
партия 44921
уст@@ 44904
l 44891
значи@@ 44889
жия 44876
Кро@@ 44854
Роди@@ 44834
гимна@@ 44828
емы@@ 44818
аври@@ 44811
пенси@@ 44759
ин 44752
форму@@ 44740
78 44715
кара@@ 44635
гле@@ 44615
сиг@@ 44578
след@@ 44475
дови@@ 44473
18@@ 44472
портре@@ 44464
корпус 44453
Бела@@ 44449
пока@@ 44416
Черно@@ 44391
окон@@ 44355
характеристи@@ 44303
предме@@ 44270
пов@@ 44196
ани@@ 44169
тури@@ 44168
бай@@ 44140
Х 44139
магази@@ 44064
Слу@@ 43996
оне@@ 43985
Ган@@ 43965
Мен@@ 43958
креп@@ 43921
b@@ 43834
юно@@ 43797
n 43789
Кал@@ 43783
Остро@@ 43756
Вален@@ 43745
ститу@@ 43732
финал 43732
­ 43725
засе@@ 43722
полков@@ 43688
ресур@@ 43675
дра 43659
изуча@@ 43643
63 43627
рис 43540
швед@@ 43533
разли@@ 43492
разно@@ 43487
жар@@ 43432
иска@@ 43375
Хор@@ 43367
основан 43355
фар@@ 43322
Павел 43313
сексу@@ 43295
дес@@ 43285
чета@@ 43262
ферен@@ 43194
рес 43163
построен 43143
инди@@ 43125
Нидер@@ 43121
концеп@@ 43116
тка 43110
Тю@@ 43109
Джей@@ 43107
команд@@ 43106
лес 43088
даря 43079
СК@@ 43053
68 43014
ай@@ 42986
Ана@@ 42974
игра 42951
предназна@@ 42857
XVI 42845
парла@@ 42830
роб@@ 42824
84 42800
Рей@@ 42793
95 42760
фла@@ 42750
67 42746
нец 42737
66 42735
86 42721
вести@@ 42721
мыш@@ 42699
констру@@ 42679
вай@@ 42667
мино@@ 42621
командир 42599
рито@@ 42577
усло@@ 42570
мина 42561
m 42549
стато@@ 42503
автор@@ 42461
Например 42361
инициати@@ 42298
метри@@ 42280
что@@ 42147
ств@@ 42131
зад 42112
ани 42109
88 42100
скан@@ 42097
следствие 42092
150 42063
гда@@ 42047
1912 42029
фи 41991
81 41975
61 41934
t@@ 41928
74 41911
29@@ 41882
престо@@ 41869
любов@@ 41828
жие 41810
is 41802
богат@@ 41800
n@@ 41794
финала 41791
страте@@ 41782
1913 41721
нологи@@ 41682
кон 41669
депу@@ 41652
секре@@ 41634
1.@@ 41606
ени 41600
ген 41594
теоре@@ 41581
избе@@ 41555
широко 41536
Рос@@ 41529
1910 41434
От 41433
Али@@ 41429
резуль@@ 41424
сков@@ 41402
волю@@ 41390
лист 41367
в. 41363
леген@@ 41363
f@@ 41357
Карл 41345
низи@@ 41318
метра 41278
эти@@ 41266
Бру@@ 41262
публикан@@ 41260
ента@@ 41234
щё 41229
лизи@@ 41165
Ричар@@ 41096
Ад@@ 41066
83 41020
59 41004
Ци@@ 40986
кой@@ 40969
жители 40963
In@@ 40917
Андже@@ 40915
друга 40894
an 40863
структура 40838
повре@@ 40827
Джор@@ 40814
71 40797
история 40775
лит@@ 40773
фран@@ 40756
кора@@ 40701
хан 40688
династи@@ 40601
вока@@ 40569
представители 40563
функции 40554
ряд@@ 40531
Григо@@ 40521
сан 40520
тивно 40482
вец 40431
77 40414
Дю@@ 40397
пери@@ 40382
постоянно 40361
Й@@ 40323
университе@@ 40310
тече@@ 40303
Само@@ 40255
p 40249
тип 40169
проб@@ 40119
Уча@@ 40118
моз@@ 40083
1916 40068
вероятно 40042
пото@@ 40021
изме@@ 39986
Авст@@ 39967
стойчи@@ 39948
фил@@ 39924
проду@@ 39913
ево 39871
87 39859
запад 39793
доли@@ 39784
обита@@ 39712
g@@ 39655
треб@@ 39626
Интер@@ 39597
бази@@ 39567
магни@@ 39546
Пла@@ 39481
26@@ 39413
Геор@@ 39404
парк 39399
книга 39383
73 39286
і@@ 39282
69 39270
успешно 39259
зло@@ 39231
кате@@ 39177
Брази@@ 39168
диалек@@ 39139
Впослед@@ 39099
хор@@ 39076
поя@@ 39059
которы@@ 39050
Хай@@ 39041
леги@@ 39028
реди@@ 39024
al 39016
$ 39007
трени@@ 38950
дека@@ 38945
Васи@@ 38918
рея 38885
Стра@@ 38840
стран@@ 38838
укреп@@ 38799
век 38798
регистри@@ 38734
дж 38703
фикация 38680
x@@ 38665
19@@ 38664
стаби@@ 38615
01 38591
Дар@@ 38533
вен 38484
комплекс 38464
полковник 38415
Доб@@ 38406
гале@@ 38389
услу@@ 38337
приток 38314
родо@@ 38304
стоит 38270
результат@@ 38051
зала 37997
мбо@@ 37936
турнир 37905
необ@@ 37856
сила 37825
Борис 37780
жество 37759
Кин@@ 37697
Ван@@ 37692
Американ@@ 37674
роман 37662
моне@@ 37636
Вене@@ 37612
двой@@ 37583
Фри@@ 37529
посо@@ 37527
Йорк 37466
джа 37414
защитник 37375
церемо@@ 37349
k@@ 37255
бол@@ 37241
отри@@ 37241
отряд 37202
араб@@ 37197
построена 37183
куро@@ 37152
рису@@ 37132
казате@@ 37086
секу@@ 37056
дисци@@ 37055
99 37053
посто@@ 37029
тари@@ 36993
Тан@@ 36981
1900 36960
мит@@ 36937
стру@@ 36931
жер@@ 36899
лично 36898
сви@@ 36867
коп@@ 36773
имуще@@ 36749
шена 36694
разнообраз@@ 36692
Мекси@@ 36681
Мит@@ 36675
Швейца@@ 36670
ia 36668
середи@@ 36635
кономи@@ 36633
индиви@@ 36626
ic@@ 36611
сова 36560
79 36546
Тео@@ 36411
1911 36408
ограниче@@ 36372
1000 36362
Кле@@ 36362
известна 36358
1907 36357
Там 36348
нера@@ 36308
това 36236
1906 36235
рих 36211
рите@@ 36175
стане 36172
парта@@ 36131
бах 36098
конфлик@@ 36051
Кни@@ 36035
арх@@ 35970
on@@ 35929
Британ@@ 35898
рам@@ 35887
сел 35806
избра@@ 35751
96 35721
пет@@ 35718
фамили@@ 35703
Ну@@ 35689
подвод@@ 35669
сна@@ 35652
нос 35607
1908 35590
лейтенан@@ 35519
фило@@ 35498
парламен@@ 35495
кан 35481
Ав@@ 35456
98 35449
лейтенант 35374
прив@@ 35362
ене 35298
клет@@ 35289
сий 35265
меня 35173
ждан@@ 35153
Анна 35107
Ала@@ 35099
1,5 35063
модер@@ 34972
посред@@ 34968
корпу@@ 34870
92 34831
издание 34806
снаб@@ 34790
забо@@ 34758
археологи@@ 34732
VI 34638
27@@ 34592
ар 34582
организация 34568
ковод@@ 34551
фронт 34518
характер 34498
фри@@ 34485
ул@@ 34464
австри@@ 34457
лон 34454
Ц 34422
рекла@@ 34422
щер@@ 34375
доне@@ 34370
дуар@@ 34364
постепенно 34322
зви@@ 34318
президент@@ 34286
вероя@@ 34268
мс 34205
план 34189
in@@ 34179
Джу@@ 34142
Бро@@ 34109
военно@@ 34003
чество 33989
лист@@ 33930
желе@@ 33906
брат@@ 33897
1904 33875
яко@@ 33822
гун@@ 33812
стен 33803
берт 33786
2022 33588
нис 33568
v@@ 33454
града 33394
97 33383
05 33378
Кай@@ 33376
Y@@ 33364
зни 33359
b 33328
актриса 33255
Герма@@ 33237
писана 33233
насе@@ 33197
Кат@@ 33194
сведения 33177
каза 33175
неу@@ 33152
вете 33110
канал 33109
K 33067
горе@@ 33058
линия 33039
джи 33028
мери@@ 32973
Анти@@ 32933
z@@ 32885
Европей@@ 32845
псевдо@@ 32815
офор@@ 32790
Португа@@ 32786
Ката@@ 32732
U 32714
1909 32697
ВМ@@ 32686
космо@@ 32683
стой@@ 32657
Орга@@ 32610
Зо@@ 32593
ите 32468
Пара@@ 32401
контак@@ 32394
иту@@ 32391
капитан 32357
прило@@ 32352
w@@ 32344
89 32315
яй@@ 32258
u 32166
деяте@@ 32165
вица 32131
тропи@@ 32115
конститу@@ 32076
дни 32050
предста@@ 32042
02 32022
Ари@@ 31993
обработ@@ 31925
медици@@ 31924
сул@@ 31893
эро@@ 31826
обучение 31824
фини@@ 31824
популя@@ 31817
дати@@ 31732
митрополи@@ 31644
Константин 31635
дон 31566
предостав@@ 31411
зона 31375
деятель@@ 31367
Хер@@ 31364
сериал 31361
at 31334
Авгу@@ 31310
93 31299
оче@@ 31294
бет 31287
ac@@ 31285
h 31260
стика 31256
зай@@ 31251
03 31249
латин@@ 31223
аген@@ 31212
94 31200
вел 31185
опи@@ 31157
91 31149
зана 31149
цу@@ 31111
en 31110
to 31078
Мини@@ 31078
успех 31065
вся@@ 31062
майор 31051
мет 31015
регион 31009
дар 30978
Еги@@ 30954
1897 30925
тит@@ 30890
контроли@@ 30881
W 30869
Колум@@ 30839
08 30823
опе@@ 30806
Кристи@@ 30783
07 30761
иденти@@ 30719
бина 30711
жат 30679
романа 30665
04 30582
лец 30535
пр 30506
Ита@@ 30499
ar 30475
тана 30443
рец 30413
Жан 30397
сена 30370
дорож@@ 30364
en@@ 30360
характе@@ 30348
Елиза@@ 30265
09 30241
кот@@ 30230
ничество 30189
600 30185
Джеймс 30147
йс 30135
Хол@@ 30127
H 30079
al@@ 30038
простра@@ 30029
юг 29956
120 29950
прито@@ 29843
седате@@ 29840
Пале@@ 29822
чело@@ 29812
ъ 29801
дет 29709
бом@@ 29697
Вал@@ 29643
лос 29621
Кате@@ 29615
Ау@@ 29609
солю@@ 29580
прие@@ 29567
отношение 29555
трен@@ 29511
мед 29509
скольку 29450
Tr@@ 29438
ch@@ 29419
публика 29369
1890 29345
щ 29291
цин@@ 29271
l@@ 29250
ито 29202
серия 29192
Ch@@ 29177
сорев@@ 29173
ис 29053
h@@ 29040
× 29017
06 28976
мост 28974
следовате@@ 28950
Константи@@ 28908
ада@@ 28884
дка 28862
Тра@@ 28857
сезо@@ 28818
Париж 28758
вест@@ 28746
госпо@@ 28744
акаде@@ 28723
Records 28717
дове@@ 28691
педаго@@ 28683
опа@@ 28665
дие 28640
веро@@ 28639
Верхов@@ 28620
er@@ 28575
el@@ 28552
Франция 28548
el 28523
or@@ 28498
ланд 28484
1903 28457
ar@@ 28413
XV 28401
телевизион@@ 28364
номер 28358
r@@ 28246
шно 28230
здра@@ 28223
1902 28216
има 28177
стоян@@ 28170
хозя@@ 28162
африкан@@ 28147
зация 28115
2,5 28092
an@@ 28006
сцена@@ 27964
бели 27955
2.@@ 27909
XX@@ 27896
щина 27822
250 27729
Дра@@ 27707
Германия 27645
актри@@ 27624
пада 27581
ООН 27574
зеф 27526
шни 27516
говор 27387
Re@@ 27385
юн@@ 27378
th@@ 27371
XIV 27356
дея@@ 27321
дент@@ 27277
m@@ 27236
смот@@ 27222
w 27206
достав@@ 27199
j@@ 27191
ци 27114
рена 27103
обу@@ 27089
Ер@@ 27057
ed 27046
мышлен@@ 27028
условия 27017
at@@ 27013
гон 26980
Марк 26904
кови@@ 26900
Произ@@ 26897
VII 26870
непре@@ 26811
иза 26804
степ@@ 26755
1901 26738
край 26669
Хри@@ 26657
XIII 26651
r 26646
тели 26566
тта 26546
сереб@@ 26522
Сю@@ 26392
зербай@@ 26391
la 26347
Вой@@ 26301
мпи@@ 26257
g 26234
испо@@ 26234
Югосла@@ 26225
z 26224
лев 26212
цели 26169
Обла@@ 26143
XII 26133
Тех@@ 26124
кви 26107
800 26065
Al@@ 26051
Мюн@@ 26019
света 26002
мю@@ 25992
Спа@@ 25872
ьо@@ 25829
мно 25793
u@@ 25768
St@@ 25701
Игра@@ 25699
мар 25683
ph@@ 25680
дина 25654
лага 25650
Меди@@ 25624
3.@@ 25505
пей@@ 25450
несколь@@ 25419
рую 25391
нк@@ 25369
еле@@ 25368
Констан@@ 25300
1896 25215
глава 25212
1880 25177
лище 25129
комитет 25066
туга@@ 25000
or 24984
1899 24937
Стру@@ 24924
близо@@ 24912
рами@@ 24906
изве@@ 24893
1898 24887
флот 24822
иници@@ 24805
ot@@ 24803
Между 24778
многи@@ 24734
зен 24713
лото 24701
конфли@@ 24616
конгре@@ 24588
убит 24511
ОО@@ 24483
4.@@ 24442
патриар@@ 24418
бия 24416
Пон@@ 24412
брон@@ 24385
Марга@@ 24381
запове@@ 24345
1870 24324
Елена 24321
прак@@ 24319
1860 24290
ави@@ 24279
om@@ 24259
йо@@ 24236
север 24212
am 24210
октя@@ 24192
ват 24188
Джордж 24144
Око@@ 24110
договор 24055
1895 24030
неме@@ 24027
програ@@ 24025
л. 24024
тни 23983
Константино@@ 23958
леку@@ 23918
атор 23858
оба@@ 23728
am@@ 23717
принце@@ 23716
Con@@ 23465
специ@@ 23455
дна 23437
Луи 23388
IX 23366
пад@@ 23356
хими@@ 23323
пом@@ 23321
ol@@ 23234
погре@@ 23207
византи@@ 23199
idae 23198
it@@ 23185
праз@@ 23142
os@@ 23102
сестра 23033
ine 23001
ation 22986
1859 22965
еро@@ 22960
цент 22914
ология 22893
акт@@ 22848
бух@@ 22809
информация 22776
# 22768
NGC 22765
сут@@ 22755
рак 22741
сфе@@ 22715
VIII 22695
as@@ 22672
бав@@ 22671
тена 22618
1892 22599
редактор 22580
oc@@ 22573
ок 22552
хва@@ 22501
Com@@ 22492
ФК 22473
Ш 22446
вобо@@ 22432
лис 22430
мата 22427
див 22402
et@@ 22351
брак 22325
кари@@ 22295
шев 22289
Sh@@ 22266
New 22231
Богороди@@ 22170
лс 22129
внима@@ 22119
оти@@ 22110
гола 22109
вза@@ 22106
Каро@@ 22087
Бран@@ 22059
били 22036
жда 21996
1885 21992
Вил@@ 21919
пуска 21897
5.@@ 21892
гора 21892
700 21825
An@@ 21810
кого@@ 21791
император 21781
Китай 21738
... 21678
матри@@ 21658
Billboard 21567
огра@@ 21562
ic 21547
130 21524
Роб@@ 21509
шко 21509
1894 21505
ul@@ 21480
Так@@ 21459
* 21458
1889 21453
щины 21435
империя 21411
скар 21399
вна 21390
франц@@ 21372
фли@@ 21361
1893 21357
дъ@@ 21313
Калифор@@ 21282
11@@ 21277
Th@@ 21233
Св 21159
ag@@ 21141
1878 21130
1891 21129
ers 21113
Music 21105
ae 21101
преда@@ 21087
яне 21087
отбо@@ 21086
вери@@ 21075
as 21010
World 20993
статисти@@ 20934
Ё@@ 20930
вата 20930
ит 20929
Пле@@ 20906
7.@@ 20905
Cr@@ 20890
публико@@ 20883
Хен@@ 20871
часа 20837
le 20829
проя@@ 20809
точно 20775
XI 20761
гим@@ 20761
мерно 20756
ad@@ 20740
ори 20714
йл 20710
син 20703
чень 20699
le@@ 20698
ню@@ 20660
бла@@ 20656
Гви@@ 20546
хия 20535
Фридрих 20509
23@@ 20471
es@@ 20461
ография 20436
1886 20378
1864 20342
Ar@@ 20341
6.@@ 20319
1862 20310
id@@ 20307
tr@@ 20291
110 20289
гат 20285
Ч 20276
кос@@ 20243
Уни@@ 20211
жка 20202
Италия 20190
кафе@@ 20179
1887 20178
лата 20156
ята 20146
дворец 20119
Лондон 20106
1877 20076
il@@ 20061
ro@@ 20014
1812 19943
1861 19932
1500 19885
см@@ 19873
Фридри@@ 19856
Q@@ 19852
бун@@ 19848
Br@@ 19843
топ@@ 19839
12,@@ 19786
сна 19772
is@@ 19752
комите@@ 19730
1884 19724
1863 19680
Windows 19598
контин@@ 19590
ос 19541
ate 19529
,@@ 19502
мокра@@ 19480
You 19446
истин@@ 19431
ti@@ 19405
OS 19381
кул@@ 19363
зави@@ 19330
8.@@ 19291
1888 19290
Co@@ 19285
позво@@ 19275
De@@ 19257
зани 19240
вена 19184
тря@@ 19156
политика 19104
кия 19077
Вай@@ 19072
чо 19069
ландия 19065
мах@@ 19061
него@@ 18956
Калифорния 18953
лате@@ 18908
Sp@@ 18889
Све@@ 18866
17,@@ 18842
след 18823
сент@@ 18746
1879 18719
200@@ 18694
сл 18694
лати@@ 18686
ie 18678
Христо@@ 18676
1873 18655
lo@@ 18629
Осман@@ 18618
1882 18562
Форму@@ 18535
ch 18528
3,5 18514
Софи@@ 18485
quot 18458
em@@ 18413
годи@@ 18412
10,@@ 18400
ica 18365
изобраз@@ 18360
политик 18360
бан 18304
кар 18287
творчество 18238
андар@@ 18229
Съ@@ 18184
ката 18181
9.@@ 18171
³ 18150
Par@@ 18132
1881 18131
ter 18128
зо 18124
der 18093
персо@@ 18083
1871 18079
it 18074
11,@@ 18063
ap@@ 18056
f 18043
ri@@ 18021
1876 18019
os 17992
Йе@@ 17972
ec@@ 17928
европе@@ 17907
Великобритания 17751
ur@@ 17729
дете@@ 17690
импе@@ 17686
место@@ 17683
Z 17673
Мла@@ 17640
1883 17631
Македо@@ 17605
12.@@ 17541
лектро@@ 17534
ране 17500
ve 17466
160 17465
провинция 17453
1865 17425
Сак@@ 17380
нав@@ 17344
AS@@ 17309
1867 17279
Car@@ 17250
Ex@@ 17245
Рим 17211
рано 17198
позиция 17167
us@@ 17158
служба 17149
10.@@ 17147
случай 17121
гни@@ 17108
чев 17081
13,@@ 17072
1868 17046
семейство 17044
1850 17026
140 17017
сериа@@ 17001
ed@@ 16967
море@@ 16957
ta 16949
180 16937
дома@@ 16932
1869 16886
0.@@ 16865
профе@@ 16842
голе@@ 16836
IS@@ 16826
религи@@ 16817
AR@@ 16775
1866 16741
1830 16739
1848 16709
точка 16700
пен 16693
йско 16690
Be@@ 16663
0,5 16601
ana 16573
Group 16561
Велико@@ 16490
ради 16472
age 16467
Отече@@ 16396
епархия 16379
1856 16355
Лай@@ 16351
Кари@@ 16348
хай@@ 16336
1872 16300
for 16297
Y 16284
da 16173
наре@@ 16170
re@@ 16159
община 16148
1875 16124
En@@ 16117
For@@ 16088
архе@@ 16085
бен 16053
Mon@@ 16052
насти@@ 16040
тна 16031
возраст@@ 15989
прину@@ 15964
патри@@ 15962
кове 15865
Bo@@ 15864
li@@ 15855
Mar@@ 15828
лд 15795
ata 15787
нами@@ 15738
He@@ 15732
1874 15731
сово 15718
1840 15696
тел@@ 15680
18,@@ 15668
one 15580
ig@@ 15567
op@@ 15544
International 15534
125 15530
могу@@ 15526
май 15476
ay 15404
санд@@ 15387
осе@@ 15329
сят 15313
пол 15300
йска 15277
st@@ 15245
ent 15239
3000 15221
av@@ 15218
остана@@ 15213
Спо@@ 15200
od@@ 15189
ване 15181
хт 15157
СА@@ 15148
офицер 15093
тар 15080
сми@@ 15059
расстоя@@ 15055
di@@ 15004
― 14996
Ph@@ 14969
ьо 14930
Qu@@ 14880
​ 14830
победа 14824
Саксо@@ 14810
хран@@ 14750
ссиона@@ 14748
Awards 14736
J 14724
хал@@ 14721
льян@@ 14704
каде@@ 14703
ad 14686
Берлин 14664
чко 14618
TV 14609
1858 14605
хард 14527
ета 14515
• 14506
DVD 14497
То 14494
Никола 14424
Love 14408
im@@ 14402
14,@@ 14338
350 14307
Кю@@ 14294
ina 14289
ly 14283
INSE@@ 14280
Le@@ 14273
1800 14260
og@@ 14193
105 14137
мага@@ 14097
ni@@ 14094
Мето@@ 14064
зар 14050
Меж@@ 14039
бя@@ 14039
лига 13995
ter@@ 13987
сина 13984
1857 13974
ког@@ 13961
11.@@ 13960
ir@@ 13877
ab@@ 13850
сколь@@ 13845
un@@ 13839
Se@@ 13824
Ro@@ 13818
ител@@ 13793
осман@@ 13748
двиг 13717
Димит@@ 13694
Hot 13692
прием@@ 13689
v 13681
4,5 13667
ent@@ 13640
март 13632
1855 13569
um@@ 13554
170 13535
теж@@ 13495
Стефа@@ 13466
900 13451
se 13409
Entertainment 13381
Gr@@ 13374
Канада 13373
1849 13360
1829 13356
Me 13347
CD 13326
гата 13324
Ad@@ 13323
est 13319
Ата@@ 13318
митрополит 13315
po@@ 13270
с. 13256
ru 13235
RA@@ 13229
80@@ 13168
сите@@ 13156
codice 13152
Распо@@ 13084
Col@@ 13078
Di@@ 13077
50@@ 13065
РС@@ 13040
Am@@ 13029
Times 13027
ell 13023
La 13001
страна 12995
15,@@ 12994
40@@ 12960
1854 12952
пехо@@ 12936
изя@@ 12922
1853 12916
ant 12899
.-@@ 12889
ясно 12865
te 12859
тира 12851
Un@@ 12813
тивен 12776
северо@@ 12729
Англия 12722
едва 12694
юго@@ 12652
man 12635
лаго@@ 12620
16,@@ 12611
CA@@ 12604
забра@@ 12583
5000 12527
co@@ 12523
Q 12520
Япония 12515
мла@@ 12473
души 12463
1852 12447
1820 12422
1842 12400
eg@@ 12395
des 12385
yr@@ 12315
тях 12310
катего@@ 12297
1834 12264
les 12253
Pr@@ 12241
пример 12240
ini 12219
ce 12203
Microsoft 12196
Испания 12182
иска 12182
ma 12178
und 12170
son 12165
Company 12154
Ac@@ 12148
35@@ 12139
101 12138
1814 12130
Ж 12118
to@@ 12111
1,2 12097
115@@ 12085
do@@ 12084
One 12062
ol 12047
Ma@@ 12027
1831 12019
наб@@ 12013
мож@@ 12003
inae 12002
vi@@ 11965
Фили@@ 11955
Mo@@ 11953
чна 11927
Str@@ 11899
1838 11893
Ун@@ 11888
ob@@ 11881
склю@@ 11872
ard 11869
ens 11865
na 11829
CO@@ 11809
имену@@ 11777
жина 11763
1836 11759
124@@ 11741
публику@@ 11741
My 11730
скус@@ 11701
ES@@ 11676
re 11654
tion 11634
1813 11623
преди@@ 11601
1846 11595
ty 11595
Cl@@ 11591
AM@@ 11589
TA 11583
Ne@@ 11561
qu@@ 11561
Or@@ 11534
450 11533
половина 11516
ел 11494
di 11461
Pro@@ 11460
била 11438
чат 11422
1851 11388
революцио@@ 11384
чета 11375
стани@@ 11374
de@@ 11358
38@@ 11348
1802 11346
гр 11344
1839 11337
пр@@ 11326
179@@ 11324
пое@@ 11309
напра@@ 11304
ati@@ 11262
135 11259
1847 11253
1837 11247
by 11228
т.@@ 11228
Air@@ 11219
1828 11217
19,@@ 11204
август 11203
лищ@@ 11201
120@@ 11174
дера@@ 11174
.com 11172
ор 11152
Cor@@ 11150
ale 11134
102 11129
all 11093
ai 11076
случаи 11058
1826 11049
1845 11044
така 11043
Per@@ 11041
бя 11028
om 10971
ure 10970
блиоте@@ 10955
само 10931
ak@@ 10925
ea 10914
академия 10900
em 10883
115 10875
eb@@ 10867
лна 10850
ческо 10846
ore 10843
най 10832
si@@ 10815
литература 10794
вмест@@ 10784
коре@@ 10755
7,5 10739
1844 10738
Air 10737
хер@@ 10726
городи@@ 10710
нея 10709
Lo@@ 10682
километра 10677
ensis 10676
ight 10632
1835 10609
Мек@@ 10600
Her@@ 10592
тя 10573
ut@@ 10572
GC 10558
per@@ 10544
лум@@ 10544
│ 10536
футбол 10512
ква 10511
th 10489
надле@@ 10485
We@@ 10481
Inter@@ 10470
1806 10468
1832 10465
az@@ 10464
Австралия 10464
1200 10446
tic 10437
1825 10436
20,@@ 10436
евро@@ 10431
Dr@@ 10430
дем 10423
1815 10389
пости@@ 10351
1817 10326
осуще@@ 10296
il 10274
104 10266
1841 10259
въ@@ 10259
Египет 10256
220 10253
pi@@ 10244
Te@@ 10219
гот@@ 10201
ts 10198
22@@ 10167
pl@@ 10148
id 10147
1810 10146
і 10125
In 10120
1843 10101
It 10093
Black 10079
1833 10077
1821 10065
ремо@@ 10047
1805 10041
Wor@@ 10038
FC 10028
вани 10026
ok@@ 10023
ang@@ 10005
108 10000
109 9990
Man@@ 9990
ik@@ 9988
ks 9978
AT@@ 9962
ice 9962
El@@ 9957
Ge@@ 9925
Hol@@ 9924
яну@@ 9915
ue 9903
нодорож@@ 9872
ge 9864
York 9858
Live 9823
ber@@ 9809
mo@@ 9807
Po@@ 9796
un 9791
103 9790
насо@@ 9781
ver@@ 9763
ite 9738
Стефан 9732
попу@@ 9727
ity 9719
1795 9717
Met@@ 9715
34@@ 9713
Do@@ 9711
1807 9708
au@@ 9694
1809 9677
ято 9674
Si@@ 9665
ach@@ 9649
122 9646
45@@ 9628
All 9623
37@@ 9622
106 9611
Gu@@ 9596
112 9543
гас 9520
има@@ 9517
1811 9507
Mor@@ 9482
PlayStation 9477
гина@@ 9476
ници@@ 9473
128 9462
Life 9449
onlyinclude 9440
á@@ 9439
36@@ 9432
ka 9428
American 9424
Elec@@ 9419
sh@@ 9405
сни 9402
Индия 9400
1827 9381
ain 9376
Fi@@ 9374
107 9364
рополи@@ 9352
ek@@ 9351
ance 9350
Обе@@ 9330
uc@@ 9321
Li@@ 9309
est@@ 9298
Bl@@ 9292
are 9290
145 9262
Ste@@ 9252
Sch@@ 9245
ST@@ 9230
1816 9220
ето 9217
BBC 9206
употре@@ 9206
1808 9205
ci@@ 9198
1793 9193
вале@@ 9190
Time 9187
ick@@ 9187
кото@@ 9181
Fl@@ 9172
33@@ 9156
Ver@@ 9145
ings 9140
пови@@ 9140
ьор@@ 9129
защита 9123
360 9116
1824 9093
Австрия 9093
YouTube 9086
ov@@ 9083
IN@@ 9071
ot 9066
bi@@ 9063
AP@@ 9054
AC@@ 9053
Rock 9046
→ 9033
Me@@ 9022
no@@ 9022
Mag@@ 9015
скоро 9014
US@@ 9013
1792 8993
Marvel 8985
So@@ 8985
119@@ 8971
111 8968
48@@ 8951
ey 8945
Dis@@ 8908
ist@@ 8895
ons 8888
od 8887
рите 8869
100@@ 8854
Tri@@ 8853
bo@@ 8838
цер 8829
60@@ 8821
j 8820
преки 8792
Pe@@ 8791
1803 8785
240 8785
24,@@ 8781
Min@@ 8780
1823 8778
Pl@@ 8777
гел 8777
ex@@ 8770
NE@@ 8766
PC 8757
1790 8751
ep@@ 8748
Америка 8729
зидент@@ 8720
Pol@@ 8687
152 8675
едо@@ 8665
ing@@ 8654
HD 8636
ake 8628
25,@@ 8627
ou@@ 8621
София 8620
1818 8616
1797 8611
Google 8610
1822 8609
ace 8591
ref 8563
1819 8559
кара 8530
ile 8527
” 8518
127 8515
ak 8501
114 8486
ton 8484
igh@@ 8473
Ы@@ 8473
1801 8461
750 8446
птица 8422
all@@ 8399
den 8391
ess 8384
лм 8379
br@@ 8373
еро 8372
ler 8367
ell@@ 8355
1804 8353
Corporation 8350
хри@@ 8344
align 8336
To@@ 8333
COVID 8324
MTV 8318
Sol@@ 8295
190 8292
кономиче@@ 8262
118@@ 8254
pr@@ 8254
116 8250
Турция 8238
124 8233
ary 8229
гане 8166
Club 8162
ath@@ 8147
39@@ 8144
iz@@ 8139
Много 8137
1799 8130
MS 8110
ER@@ 8104
und@@ 8104
126 8088
mar@@ 8087
3D 8070
Ag@@ 8052
DC 8038
мото 8029
Pi@@ 8024
Apple 8017
лип@@ 8016
{ 8011
113 8006
ics 7995
Ho@@ 7983
FI@@ 7979
if@@ 7963
1794 7954
1798 7946
ans 7940
Studios 7938
117 7931
box 7931
ver 7931
Ul@@ 7926
Bar@@ 7924
Mas@@ 7912
co 7910
yl@@ 7907
ion 7902
Airlines 7899
смя@@ 7893
ters 7888
par@@ 7884
be 7865
Те 7859
era 7847
Red 7839
114@@ 7836
ne 7832
Ser@@ 7827
land 7821
155 7815
Man 7814
Por@@ 7814
Hy@@ 7796
Nintendo 7786
ella 7783
ten 7772
висо@@ 7770
Cre@@ 7768
RE@@ 7768
ru@@ 7768
tic@@ 7768
68@@ 7766
26,@@ 7764
23,@@ 7742
li 7739
22,@@ 7737
550 7734
Fre@@ 7732
27,@@ 7731
230 7729
55@@ 7721
Open 7720
1600 7716
tu@@ 7714
No 7689
WWE 7683
65@@ 7682
ang 7676
хора 7676
Boeing 7658
Fe@@ 7658
Go@@ 7658
210 7649
Sony 7649
гария 7643
AC 7604
Top 7587
70@@ 7578
лимпи@@ 7574
Зав@@ 7573
hi@@ 7571
Европа 7561
Mus@@ 7560
ous 7560
4000 7557
СС@@ 7549
121 7535
123 7535
Mc@@ 7534
and@@ 7533
Son@@ 7512
Tom@@ 7508
117@@ 7507
лят 7495
ere 7493
· 7493
Games 7492
Бразилия 7488
ence 7482
no 7470
poem 7466
Ben@@ 7463
Linux 7452
46@@ 7446
македон@@ 7445
Award 7441
Tour 7434
ari 7427
USD 7418
ill@@ 7417
ical 7416
320 7414
затво@@ 7402
47@@ 7400
IM@@ 7399
MA 7397
PS 7386
Й 7376
ti 7369
yp@@ 7368
gr@@ 7362
Bank 7360
Mot@@ 7350
end@@ 7343
ator 7338
aw@@ 7337
подкреп@@ 7337
варя 7325
Ab@@ 7307
HMS 7295
te@@ 7293
Media 7288
Su@@ 7269
My@@ 7267
21,@@ 7266
116@@ 7265
As@@ 7259
Sim@@ 7259
SA@@ 7249
Bi@@ 7248
Star 7248
ow@@ 7246
ors 7209
Super 7199
Rolling 7195
1789 7194
Фил@@ 7193
Game 7169
Radio 7155
se@@ 7136
1791 7133
War@@ 7129
oph@@ 7125
ass@@ 7114
степенно 7084
чени 7079
1700 7076
175 7061
113@@ 7049
Mer@@ 7040
IC@@ 7019
ma@@ 7005
atus 7001
118 6998
AN@@ 6994
44@@ 6971
132 6968
IP 6963
между@@ 6960
хайм 6957
De 6954
Балкан@@ 6951
отбора 6946
награда 6943
sch@@ 6924
рани 6921
исторически 6920
ant@@ 6908
CD@@ 6907
Stone 6906
Har@@ 6867
mi@@ 6849
AD@@ 6847
Au@@ 6838
City 6837
чуж@@ 6836
650 6831
ep 6809
iv@@ 6802
Sk@@ 6797
тук 6796
ó@@ 6793
News 6789
Le 6786
BA 6779
ca 6775
so@@ 6769
129 6768
SP@@ 6757
ise 6754
colspan 6753
ra 6747
RO@@ 6745
Vol@@ 6736
ker 6736
ass 6713
BM@@ 6704
Tel@@ 6692
280 6678
ade 6678
gi@@ 6676
SA 6675
RI@@ 6666
ge@@ 6662
On@@ 6657
ain@@ 6652
ki 6643
Bur@@ 6635
EP 6627
ur 6624
IB@@ 6619
ема 6618
q 6616
Wi@@ 6615
Er@@ 6608
ens@@ 6602
ne@@ 6599
фал@@ 6582
IT@@ 6573
be@@ 6572
SS 6568
su@@ 6565
безо@@ 6560
стена 6548
Sw@@ 6545
Blue 6537
ys 6527
tions 6524
tri@@ 6523
Rec@@ 6516
ick 6507
Co 6503
Die 6503
ack@@ 6502
отбор 6499
do 6493
Bre@@ 6488
Tur@@ 6484
Mac@@ 6482
ā@@ 6478
National 6475
ino 6474
59@@ 6473
ner 6463
MI@@ 6458
Disney 6456
At@@ 6452
http 6445
Sc@@ 6444
43@@ 6420
ota 6406
вис@@ 6386
é@@ 6381
Team 6371
pe@@ 6369
Sil@@ 6366
oth@@ 6363
ay@@ 6358
Can@@ 6356
sp@@ 6352
Анг@@ 6347
Pin@@ 6338
ora 6337
style 6337
260 6325
SE@@ 6318
Sho@@ 6314
Net@@ 6313
Ел@@ 6305
шру@@ 6301
ML@@ 6298
бре 6264
~ 6255
ya 6242
la@@ 6236
IG@@ 6223
Азия 6220
ley 6217
out 6197
Mercedes 6194
UK 6184
2500 6181
Is 6175
é 6174
270 6170
ash 6161
ack 6160
119 6159
oes 6158
MP@@ 6150
BC 6146
380 6145
AT 6144
q@@ 6136
Fr@@ 6133
Ford 6131
РО 6131
58@@ 6128
ars 6125
me 6121
CA 6118
pen@@ 6118
90@@ 6117
Night 6116
Del@@ 6109
І@@ 6107
Ap@@ 6089
县 6079
tel 6061
af@@ 6051
US 6049
проти@@ 6048
tim@@ 6046
ps 6043
лиза 6040
ave 6035
ning 6031
ff@@ 6024
lin@@ 6018
Journal 6016
On 6016
tro@@ 6016
СР 6007
alis 6006
201@@ 6000
вят 5997
bl@@ 5990
www.@@ 5980
S.@@ 5970
ory 5969
Hor@@ 5964
eo 5964
du 5962
взи@@ 5962
Jo@@ 5960
15.@@ 5958
Your 5954
барди@@ 5951
end 5938
SS@@ 5936
he@@ 5934
All@@ 5932
A.@@ 5924
School 5921
im 5921
ase 5912
даго@@ 5910
ra@@ 5907
Pictures 5903
als 5900
sa 5897
ke 5888
enti@@ 5884
мерикан@@ 5880
tra 5868
Pro 5865
ist 5865
Im@@ 5862
AG 5860
ari@@ 5860
DE@@ 5857
SO@@ 5854
per 5854
Blo@@ 5850
ever 5849
330 5847
формата 5847
AB@@ 5843
ev@@ 5843
56@@ 5842
区 5828
49@@ 5826
der@@ 5824
me@@ 5823
iss@@ 5820
Big 5814
ub@@ 5809
53@@ 5793
Street 5783
com@@ 5783
вестник 5783
con@@ 5776
лите 5771
Res@@ 5766
aceae 5759
1300 5743
Френ@@ 5741
Of 5734
67@@ 5730
man@@ 5728
14.@@ 5724
UN@@ 5724
Cap@@ 5720
ah 5717
Ber@@ 5716
ML 5716
cr@@ 5715
Hal@@ 5707
ame@@ 5706
st 5704
консул 5704
стове 5701
AN 5689
Rot@@ 5678
Star@@ 5677
ото 5670
ales 5662
AS 5661
Wal@@ 5656
Eng@@ 5643
Super@@ 5643
Vir@@ 5643
Sec@@ 5642
шава 5635
cor@@ 5629
Cy@@ 5616
ә@@ 5599
госу@@ 5598
way 5594
Fox 5589
Play@@ 5587
ok 5586
str@@ 5585
йни 5581
io 5575
za 5560
20.@@ 5558
Down 5557
Seg@@ 5553
} 5550
aur@@ 5547
‘ 5545
Trans@@ 5543
ib@@ 5540
FM 5531
ero 5527
Швей@@ 5526
Ra@@ 5520
ano 5513
α 5508
Dre@@ 5507
Best 5505
ire 5503
Hon@@ 5500
No@@ 5500
варе 5498
mer@@ 5497
ja 5493
Es@@ 5491
Vi@@ 5490
with 5483
Kr@@ 5479
Gal@@ 5476
IC 5469
ir 5457
DS 5445
System 5441
AL@@ 5438
Fo@@ 5414
Up 5405
DA 5404
Out 5395
Grand 5394
ology 5388
name 5387
нически 5386
Op@@ 5385
почи@@ 5385
Vo@@ 5381
Ren@@ 5379
13.@@ 5374
Африка 5369
ting 5367
щите 5362
VI@@ 5358
our 5357
Cal@@ 5356
Art 5351
воде@@ 5351
A. 5341
Хайн@@ 5338
Comics 5337
Sm@@ 5333
CH@@ 5327
BN 5309
ah@@ 5309
que 5303
amb@@ 5296
Video 5287
ys@@ 5275
bus 5261
Sam@@ 5249
17.@@ 5248
ho@@ 5247
Go 5242
yc@@ 5229
ug@@ 5224
ax 5221
for@@ 5218
Leg@@ 5214
\ 5211
low 5203
lu@@ 5197
Android 5194
лиан@@ 5192
Studio 5170
ə@@ 5168
бите 5168
tor 5167
отво@@ 5157
Beat@@ 5156
Warner 5154
au 5149
Gen@@ 5148
Pal@@ 5147
We 5146
IBM 5141
1400 5131
cu@@ 5131
ones 5120
22.@@ 5116
ault 5112
ect 5110
Day 5107
Fin@@ 5101
ä@@ 5091
dr@@ 5081
ble 5080
Sun 5077
sk@@ 5074
Val@@ 5067
ATP 5059
ran@@ 5051
University 5046
ess@@ 5046
ong 5046
line 5044
AA 5043
ry 5037
Bal@@ 5036
дове 5036
Songs 5034
ds 5027
ann@@ 5026
ABC 5021
ena 5021
RS 5018
ken 5014
Bab@@ 5013
Lin@@ 5007
Don 5004
color 5003
ac 4989
Pan@@ 4987
min@@ 4987
авгу@@ 4987
Ltd 4980
Rom@@ 4968
mon@@ 4966
Mat@@ 4962
19.@@ 4953
Ke@@ 4953
ł@@ 4953
Des@@ 4947
Network 4947
UTC 4943
TE@@ 4934
ten@@ 4931
eh@@ 4928
Uni@@ 4927
une 4916
тове 4910
NO@@ 4909
ali@@ 4906
57@@ 4902
LC 4902
Gi@@ 4893
Fantas@@ 4881
anc@@ 4874
Ni@@ 4868
ѣ@@ 4862
port 4857
Boy 4856
Sur@@ 4856
ama 4856
AF@@ 4854
America 4854
сор 4854
King 4843
yn@@ 4843
Bel@@ 4841
die 4840
ab 4835
75@@ 4834
ura 4819
Eur@@ 4812
To 4810
Magazine 4804
итуа@@ 4795
HT@@ 4789
Press 4778
Mel@@ 4766
https 4766
Chart 4762
Ros@@ 4761
ek 4761
Ed@@ 4760
β 4759
Space 4758
21.@@ 4755
ways 4752
огро@@ 4746
Sal@@ 4745
eng@@ 4740
18.@@ 4733
its 4733
tel@@ 4728
John 4727
dia 4720
чни 4718
Av@@ 4714
Gl@@ 4713
ost 4706
ki@@ 4703
General 4697
Be 4696
China 4680
16.@@ 4676
нове 4675
ane 4674
Tro@@ 4673
ong@@ 4673
va 4671
Blu@@ 4669
вено 4654
Cas@@ 4647
Digital 4646
Tun@@ 4645
ta@@ 4623
Gar@@ 4622
ici@@ 4622
ap 4619
IP@@ 4618
Nor@@ 4615
Prot@@ 4613
½ 4608
AI@@ 4605
ara 4605
ko@@ 4600
Mi@@ 4599
ë@@ 4587
Ri@@ 4583
SM 4573
House 4571
Pri@@ 4557
up@@ 4557
CE@@ 4556
Gre@@ 4550
миш@@ 4547
Series 4544
els 4540
Global 4520
Tor@@ 4517
king 4517
che 4514
ums 4514
гимназия 4510
elle 4508
± 4506
Осве@@ 4501
тези 4500
able 4497
ast 4485
Pre@@ 4480
col@@ 4477
Gam@@ 4475
Wh@@ 4473
ola 4472
Em@@ 4471
PS@@ 4471
Rem@@ 4463
Ang@@ 4455
š@@ 4455
ated 4454
tor@@ 4450
25.@@ 4445
Kar@@ 4445
CI@@ 4443
aj@@ 4442
Show 4440
Mach@@ 4438
ada 4438
yth@@ 4438
High 4437
RT@@ 4431
Bul@@ 4430
Daily 4429
AM 4422
бище 4414
Win@@ 4413
AL 4412
del 4407
ili@@ 4407
Universal 4406
ISO 4405
lan@@ 4404
новь 4404
Post 4396
bes 4395
Facebook 4390
23.@@ 4389
Produc@@ 4382
Mad@@ 4377
mag@@ 4372
MC 4369
Ferr@@ 4362
ill 4353
ber 4347
Wrestling 4346
гласно 4346
IE@@ 4345
This 4338
ection 4335
osa 4331
air 4328
Mir@@ 4320
MS@@ 4315
беле@@ 4315
eli@@ 4311
Hel@@ 4310
Power 4309
art 4300
Toy@@ 4297
Ь@@ 4296
Park 4291
专@@ 4288
GP@@ 4281
ni 4278
Film 4276
Country 4275
from 4275
ord@@ 4275
ba@@ 4268
osaur@@ 4268
бата 4267
Tal@@ 4263
Чем@@ 4263
ae@@ 4261
ations 4259
ish 4258
.е. 4255
ye 4255
Alb@@ 4249
UC@@ 4245
text 4244
ster 4241
Wil@@ 4239
ida 4238
cer@@ 4230
White 4227
ala 4224
ex 4221
ez@@ 4219
основа 4219
ї@@ 4219
El 4218
Укра@@ 4217
left 4212
fa 4206
Center 4204
ems 4202
Nov@@ 4200
66@@ 4196
LE@@ 4196
І 4194
Line 4193
uk@@ 4193
няко@@ 4190
What 4188
background 4188
ette 4183
графиня 4177
ide 4175
day 4173
AR 4169
RT 4165
ider 4161
Band 4160
car@@ 4144
ud@@ 4142
Dance 4140
ich@@ 4136
27.@@ 4133
ich 4123
ights 4120
BS 4116
CP 4114
sc@@ 4113
United 4112
view 4112
ro 4110
Char@@ 4109
.н@@ 4101
mat@@ 4097
Reg@@ 4093
ates 4093
ните 4093
ei 4092
Express 4090
vil 4090
can@@ 4087
New@@ 4086
dy 4085
DJ 4076
26.@@ 4073
Championship 4072
ski 4072
Ен@@ 4072
бря 4070
Syst@@ 4065
cre@@ 4059
AP 4058
Science 4055
a.@@ 4050
Cent@@ 4048
idea 4039
ust 4032
oh@@ 4022
лени 4019
fin@@ 4018
orum 4017
wer@@ 4013
£ 4006
24.@@ 4001
Final 3999
time 3997
Royal 3996
ym@@ 3995
ita 3989
CBS 3988
ast@@ 3988
NBC 3987
vo 3987
Dead 3979
Ca@@ 3974
ү@@ 3968
tric 3965
ets 3952
Guar@@ 3951
CC@@ 3949
bu@@ 3947
€ 3944
ual 3937
ium 3936
oni@@ 3935
Ci@@ 3933
pp@@ 3932
CC 3929
ema 3929
ung@@ 3927
Филип 3925
лта 3924
Aer@@ 3919
illa 3918
Racing 3915
Rol@@ 3908
app@@ 3901
si 3901
Bir@@ 3899
NA 3898
Sa@@ 3891
Bad 3889
ef@@ 3888
Fac@@ 3880
гато 3871
org 3869
von 3869
CO 3866
Ti@@ 3865
Mob@@ 3863
ame 3860
mer 3856
ike 3855
net 3855
† 3854
Cam@@ 3853
ish@@ 3853
Software 3851
pe 3851
Meg@@ 3847
ser@@ 3831
cl@@ 3830
Cup 3827
TV@@ 3826
─ 3823
MO@@ 3819
Cro@@ 3818
icus 3811
EM@@ 3810
Bas@@ 3809
Festival 3806
ury 3803
Spe@@ 3799
sub@@ 3798
Mit@@ 3796
aus@@ 3795
ace@@ 3793
inc@@ 3790
tis 3787
dian 3785
ha 3785
ard@@ 3784
cur@@ 3777
TS 3776
Boys 3772
Les 3772
RC 3769
TO@@ 3767
ьор 3767
Home 3766
à 3766
ega 3765
Death 3762
ney 3760
í@@ 3756
Il@@ 3755
British 3753
маке@@ 3752
Bro@@ 3750
Can 3744
Mal@@ 3739
IS 3736
France 3734
Македония 3734
ie@@ 3728
Metal 3724
ach 3717
бив@@ 3716
gen@@ 3715
Like 3714
du@@ 3711
sol@@ 3709
Du@@ 3708
Ban@@ 3707
ash@@ 3707
Mac 3704
Ru@@ 3698
cap@@ 3694
2.0 3693
Dark 3693
Ever@@ 3693
псе@@ 3692
фут@@ 3692
tes 3691
chi@@ 3686
oy@@ 3686
ani 3684
op 3684
Little 3681
center 3681
Heart 3678
PO@@ 3677
SD 3676
ler@@ 3676
Bor@@ 3673
su 3671
ple 3664
ime 3662
ai@@ 3656
ays 3653
рове 3653
Sy@@ 3648
Amaz@@ 3646
Foundation 3646
PP@@ 3644
ment 3642
GM 3637
ze 3635
Je@@ 3633
ung 3631
iti@@ 3620
Dream 3617
NCAA 3617
cus 3613
Java 3609
Ur@@ 3607
amp@@ 3602
Girl 3601
стве@@ 3598
e.@@ 3597
Cin@@ 3589
dition 3588
ents 3584
ision 3583
inn@@ 3575
PA 3571
Sound 3571
Нова 3570
Cer@@ 3569
County 3566
Hu@@ 3561
War 3561
ME@@ 3557
vent@@ 3555
местообита@@ 3555
gu@@ 3553
po 3549
Sun@@ 3547
fr@@ 3547
Cur@@ 3546
uz@@ 3543
Limited 3534
ful 3534
Wat@@ 3532
ene 3531
Rel@@ 3524
ee 3521
ome@@ 3521
ins 3518
agon 3517
pos@@ 3517
eta 3516
That 3515
ona 3509
Mark 3508
AV@@ 3507
ff 3502
West 3498
go 3497
tics 3492
е. 3490
TP 3487
IT 3485
For 3484
що@@ 3482
ense 3478
ops 3477
Cir@@ 3476
ding 3472
San 3470
ko 3469
Liv@@ 3467
IA 3466
ith 3461
Singles 3459
tica 3454
Gro@@ 3453
Arts 3451
ori@@ 3451
Light 3450
M. 3450
Anim@@ 3448
cul@@ 3447
tur@@ 3446
DE 3444
oma 3444
Do 3443
ө@@ 3443
ke@@ 3442
SI@@ 3441
Japan 3439
Project 3439
ital 3439
WW@@ 3434
agr@@ 3433
CN@@ 3432
Coll@@ 3432
span 3428
Medi@@ 3423
ua 3422
aria 3419
field 3419
sa@@ 3418
Dol@@ 3417
Research 3415
CS@@ 3410
adi@@ 3409
SC 3408
ello 3408
чели 3407
hy@@ 3406
pa 3405
Queen 3404
del@@ 3401
ind@@ 3398
Loc@@ 3393
VA 3392
ა@@ 3392
LA 3391
pel@@ 3390
tro 3389
Plan@@ 3385
ech 3383
Play 3382
bar@@ 3381
USS 3378
ock 3376
ature 3374
tus 3374
Way 3371
Aut@@ 3370
ly@@ 3367
Dec@@ 3366
Is@@ 3365
ista 3358
Ty@@ 3354
anti@@ 3346
sy@@ 3346
нали 3345
ket 3344
we@@ 3342
Chil@@ 3339
ative 3338
top 3335
Good 3333
zi@@ 3331
London 3325
FO@@ 3322
Ju@@ 3321
Wo@@ 3317
ern@@ 3316
Pas@@ 3315
ail@@ 3309
ze@@ 3300
Sub@@ 3295
ts@@ 3294
I.@@ 3292
Oc@@ 3291
Channel 3287
AG@@ 3285
kar@@ 3282
Road 3280
Roc@@ 3280
P. 3274
pha 3274
mor@@ 3273
Young 3272
ines 3272
art@@ 3270
Classi@@ 3269
AB 3267
sion 3267
ement 3259
Fil@@ 3255
RA 3255
omo 3251
int@@ 3250
Lar@@ 3246
ian 3246
sche 3246
Green 3240
sung 3239
ели@@ 3237
Association 3236
Mil@@ 3236
ger 3235
милия 3235
своя 3232
ky 3231
lar@@ 3231
so 3225
Direc@@ 3222
Ы 3222
ends 3219
ö@@ 3217
Back 3216
Inst@@ 3213
sen 3213
подкре@@ 3212
Na@@ 3207
Mov@@ 3204
Rev@@ 3204
ven@@ 3199
Who 3191
вски 3191
Phone 3190
застра@@ 3188
Last 3186
Chr@@ 3185
Cat@@ 3182
Publ@@ 3181
ental 3173
PE@@ 3171
ix 3171
енен 3171
Christ@@ 3167
ut 3166
Sports 3165
ителен 3164
Girls 3160
row 3160
DO@@ 3159
ture 3159
Form@@ 3158
қ@@ 3157
Мексико 3156
ი@@ 3147
play 3141
Bu@@ 3136
aft 3136
Brothers 3133
ius 3133
over 3132
ця@@ 3132
GT 3131
Lu@@ 3130
LP 3129
Russia 3127
Fut@@ 3123
Industri@@ 3122
CS 3120
99@@ 3112
тег@@ 3112
pu@@ 3111
ft 3110
č@@ 3108
anus 3107
ies 3106
PC@@ 3104
Not@@ 3102
fo@@ 3101
Comput@@ 3100
Sky 3097
ula 3096
Cos@@ 3095
Hi@@ 3091
League 3086
eus 3086
Mid@@ 3082
Astr@@ 3078
bor@@ 3076
фести@@ 3074
ou 3071
The@@ 3070
нама@@ 3070
Tw@@ 3067
ische 3063
á 3063
Ali@@ 3059
Force 3059
M.@@ 3058
dis@@ 3056
fl@@ 3055
Tre@@ 3054
ba 3053
Ger@@ 3048
Society 3043
политически 3043
Kor@@ 3040
Song 3038
ight@@ 3038
NH@@ 3037
как@@ 3037
lo 3033
uch@@ 3029
II@@ 3024
yg@@ 3024
fli@@ 3022
AE@@ 3020
Columbia 3017
das 3013
tom@@ 3012
AF 3010
light 3009
ome 3009
olog@@ 3008
Fire 3000
elec@@ 2999
Micro@@ 2998
AD 2996
South 2995
LO@@ 2990
mac@@ 2988
роля 2988
иму@@ 2984
екс@@ 2983
Sou@@ 2981
E.@@ 2979
ster@@ 2979
ains 2978
oni 2976
very 2976
onn@@ 2974
itch 2972
May@@ 2969
DF 2967
onia 2967
ety 2966
Red@@ 2963
og 2962
rive 2962
учи 2962
Shi@@ 2960
vir@@ 2958
HP 2957
ness 2955
USA 2952
нски 2952
ico 2951
Los 2950
Fri@@ 2948
tronic 2947
Volks@@ 2938
ail 2938
Kn@@ 2937
Europe 2936
ids 2934
the@@ 2932
Book 2931
enn@@ 2928
D.@@ 2925
of@@ 2924
Ir@@ 2923
Paul 2922
ces 2920
Ze@@ 2918
berg 2918
Techn@@ 2916
D. 2914
Plat@@ 2914
St 2914
ole 2912
EN@@ 2911
Ob@@ 2910
act@@ 2909
Vis@@ 2905
Оби@@ 2900
con 2899
‑ 2898
fer@@ 2897
Black@@ 2896
rol@@ 2896
First 2895
Sab@@ 2890
Swe@@ 2889
ison 2889
eme 2888
MP 2885
Luc@@ 2880
craft 2879
por@@ 2876
La@@ 2875
loyd 2875
Kon@@ 2874
wagen 2873
Chall@@ 2872
erg@@ 2871
son@@ 2870
arr@@ 2868
eri 2862
ON@@ 2860
oo 2860
tal 2857
ans@@ 2854
Spr@@ 2852
kin 2851
TC 2848
гне 2848
Da@@ 2846
CP@@ 2839
ati 2837
tu 2835
ii 2834
cel@@ 2833
ey@@ 2833
amm@@ 2829
ny@@ 2825
ve@@ 2825
Gener@@ 2821
okia 2821
ote 2821
old 2818
wid@@ 2818
Pur@@ 2816
пред 2814
ima 2811
ези@@ 2802
Land 2795
sus 2794
Pap@@ 2785
pro@@ 2782
nam@@ 2781
ado@@ 2780
Mul@@ 2779
Great 2774
C.@@ 2769
Fu@@ 2769
List 2768
R.@@ 2767
Hall 2765
Sum@@ 2765
atr@@ 2764
our@@ 2764
North 2762
Pres@@ 2762
esis 2761
пата 2760
inus 2757
Ran@@ 2756
Eth@@ 2752
Off@@ 2752
eph@@ 2749
Bet@@ 2743
bre@@ 2743
Golden 2742
enge 2741
Cu@@ 2738
мни 2736
Lab@@ 2735
UR@@ 2734
wa 2731
des@@ 2729
Out@@ 2728
arch@@ 2728
Mak@@ 2727
Spir@@ 2724
ms 2724
GmbH 2723
low@@ 2721
Free 2720
ath 2720
una 2718
Pop 2717
Юго@@ 2715
Arc@@ 2709
mann 2709
Chev@@ 2708
Света 2707
Kom@@ 2706
ost@@ 2705
Rus@@ 2702
let@@ 2696
now 2692
sel@@ 2692
Television 2690
Comm@@ 2689
Enter@@ 2683
приема 2682
ech@@ 2679
NS 2675
ov 2673
fe@@ 2672
Ter@@ 2669
lock 2669
Beau@@ 2667
ants 2667
Ko@@ 2665
music 2663
tory 2663
Deutsche 2662
Type 2661
Gold 2660
res@@ 2660
ji 2657
ange 2654
ax@@ 2653
пис 2653
Cel@@ 2652
Moon 2648
Avi@@ 2646
Stu@@ 2646
asi@@ 2645
ez 2642
Dy@@ 2638
oll@@ 2634
State 2633
Web@@ 2633
rec@@ 2633
ī@@ 2631
′ 2630
мите 2629
tari 2628
type 2628
Vari@@ 2627
wn 2627
College 2625
Между@@ 2625
anth@@ 2623
Sof@@ 2621
Ga@@ 2618
kh@@ 2618
ody 2616
Sport 2614
Under@@ 2614
Lov@@ 2610
ond 2603
Now 2602
cript 2602
And 2601
ark@@ 2599
NS@@ 2597
Mur@@ 2596
Zo@@ 2596
Museum 2595
History 2594
PR@@ 2594
West@@ 2593
oto 2593
eter@@ 2590
God 2589
Model 2586
my 2584
Motor@@ 2579
inger 2579
key 2578
ato 2575
sti@@ 2575
Dor@@ 2574
ille 2572
Far@@ 2571
gin 2571
C. 2570
och@@ 2569
B.@@ 2568
тори 2567
§ 2565
David 2564
EC@@ 2559
Ev@@ 2559
arg@@ 2559
ila 2559
Dem@@ 2557
Der 2557
opsis 2557
Two 2556
Natur@@ 2554
less 2554
Stor@@ 2553
Syn@@ 2553
aga 2553
til@@ 2552
Square 2550
Vel@@ 2550
Union 2548
lat@@ 2548
Dev@@ 2547
Twitter 2547
Bon@@ 2546
ally 2545
Mem@@ 2544
месе@@ 2544
0.000 2543
lis 2543
пома@@ 2540
boy 2539
Fal@@ 2538
обеди@@ 2536
Radi@@ 2535
Hill 2534
yst@@ 2534
ე@@ 2534
People 2533
Arch@@ 2532
aster 2532
199@@ 2529
V. 2528
Kin@@ 2527
офици@@ 2527
Institute 2525
GA 2524
Hollywood 2523
opter@@ 2523
Island 2520
dic@@ 2519
European 2518
stein 2518
ures 2516
T.@@ 2515
ali 2514
пет 2513
DP 2511
arm@@ 2511
Service 2510
Satur@@ 2507
СШ@@ 2506
IF@@ 2501
Inv@@ 2501
Tod@@ 2500
ely 2498
ats 2497
ce@@ 2496
Angel 2495
ams 2492
VP 2488
Lot@@ 2481
министра@@ 2481
Rap@@ 2479
com 2479
Йохан 2479
pre@@ 2476
ета@@ 2475
Mes@@ 2474
Not 2471
Chem@@ 2468
Paris 2466
SE 2466
bat 2466
tho@@ 2466
Technology 2464
cal@@ 2462
tin 2460
21@@ 2457
her@@ 2457
ret 2457
unc@@ 2457
SN@@ 2449
ough 2448
van 2447
loc@@ 2446
ord 2446
Martin 2444
eth 2444
ž@@ 2444
rap@@ 2440
Am 2439
ling 2439
go@@ 2437
vo@@ 2436
Alice 2435
Ven@@ 2434
More 2432
жава 2432
прите@@ 2432
FA 2431
ishi 2430
ted 2429
ik 2427
Commun@@ 2425
lus@@ 2424
star 2422
било 2422
side 2419
Pa@@ 2417
wood 2416
тенан@@ 2416
Hom@@ 2410
eri@@ 2409
Human 2405
East 2404
ela 2404
active 2402
Kis@@ 2400
Liber@@ 2396
Sl@@ 2396
Lib@@ 2394
unter 2394
ѣ 2393
1. 2392
ga 2390
oth 2390
Films 2387
Gun@@ 2387
las 2386
Ham@@ 2384
BO@@ 2382
Nik@@ 2382
EE 2376
ying 2375
ater 2373
Academy 2372
Pop@@ 2371
Pit@@ 2367
iga 2366
nis 2364
tron@@ 2364
ide@@ 2363
Dom@@ 2361
ї 2361
Atlantic 2360
up 2358
Pun@@ 2355
ides 2355
bir@@ 2354
Office 2352
act 2352
egr@@ 2350
Earth 2349
hor@@ 2349
SI 2348
bo 2348
Sym@@ 2347
í 2347
Camp@@ 2346
Ful@@ 2344
Def@@ 2339
Master 2339
лния 2339
use 2337
form@@ 2336
ray 2336
sal@@ 2336
Pacific 2334
Mol@@ 2333
With 2333
Business 2332
aris 2332
mes 2331
Washington 2329
цел 2329
From 2328
ado 2328
ories 2328
Sav@@ 2327
Year 2327
ha@@ 2325
ito 2323
len@@ 2322
Internet 2321
rit@@ 2319
tig@@ 2317
сента 2316
tar@@ 2313
ties 2313
So 2311
tan@@ 2310
San@@ 2309
TH@@ 2308
house 2306
Family 2305
SR 2303
urus 2303
Web 2302
Management 2301
Ori@@ 2301
DV@@ 2300
ope 2300
aph@@ 2299
Sin@@ 2298
É@@ 2298
hin@@ 2297
æ@@ 2295
Story 2294
Fall 2293
----@@ 2292
isa 2292
Railway 2291
az 2291
uck 2290
Al 2287
Mu@@ 2286
yn 2286
ume 2284
Thr@@ 2283
amount 2283
hu@@ 2283
Chrys@@ 2282
Ba@@ 2277
Tow@@ 2277
Russian 2272
ror 2272
tical 2272
isi@@ 2270
Med@@ 2268
mod@@ 2266
Rad@@ 2265
беля@@ 2265
Iron 2263
Stre@@ 2262
Os@@ 2261
ny 2257
Kir@@ 2256
ald 2256
mas@@ 2256
bat@@ 2253
cin@@ 2253
trol 2253
Max 2252
Mic@@ 2252
char@@ 2252
Standard 2250
oides 2250
gar@@ 2249
nch@@ 2249
you 2249
Over 2248
Tou@@ 2247
Eu@@ 2245
Ь 2245
emp@@ 2244
0,000 2243
ego 2243
atum 2241
für 2240
Haw@@ 2239
ean 2239
Central 2237
190@@ 2236
Nav@@ 2232
Canada 2228
Just 2227
Point 2226
Tot@@ 2226
ew@@ 2222
right 2222
ғ@@ 2222
eum 2221
osp@@ 2220
Dro@@ 2219
sur@@ 2218
Pic@@ 2215
Dou@@ 2214
ლ@@ 2214
ony 2213
къ@@ 2213
oud 2211
Tim@@ 2210
ao 2210
k.@@ 2209
lin 2209
aci@@ 2208
ér@@ 2208
Ha@@ 2207
Party 2207
tom 2205
etta 2202
Old 2201
lum 2201
Pep@@ 2199
Chi@@ 2198
Rh@@ 2197
alm@@ 2197
H.@@ 2196
mel@@ 2196
Metro 2194
oria 2194
AK@@ 2193
Bom@@ 2193
But@@ 2190
enc@@ 2188
ros@@ 2188
edy 2185
地区 2184
Hotel 2183
cas@@ 2180
├ 2180
pal@@ 2179
Bell 2178
Arti@@ 2177
Ak@@ 2176
dings 2174
Fun@@ 2173
Š@@ 2170
198@@ 2169
hr@@ 2169
s.@@ 2167
val@@ 2167
win 2167
покри@@ 2165
зат 2163
ust@@ 2161
je 2158
DI 2155
Mod@@ 2155
IO@@ 2154
Est@@ 2153
Galax@@ 2153
Ind@@ 2153
ա@@ 2153
Sen@@ 2151
sen@@ 2151
Sel@@ 2150
Special 2147
Whit@@ 2146
eti@@ 2144
Ye@@ 2143
L.@@ 2141
lam@@ 2141
other 2140
å@@ 2140
Douglas 2139
Tran@@ 2139
Lim@@ 2138
Lat@@ 2137
ond@@ 2136
End 2135
ō@@ 2135
Run@@ 2134
Ta@@ 2133
Long 2130
ect@@ 2130
Cle@@ 2129
Michael 2129
ip@@ 2128
ng@@ 2128
ger@@ 2127
Motor 2125
Ly@@ 2124
war@@ 2124
sin@@ 2122
Diam@@ 2121
Фамилия 2117
Vic@@ 2116
Orig@@ 2114
ée 2113
Hum@@ 2108
itz 2108
сред 2106
живот 2104
Cru@@ 2100
енер@@ 2099
aus 2096
Public 2094
Pen@@ 2093
William 2092
dae 2092
rom@@ 2092
fer 2091
mit@@ 2090
don 2089
Cho@@ 2087
Prix 2087
James 2086
Chron@@ 2082
Ig@@ 2082
Fol@@ 2078
ci 2077
Ep@@ 2076
ty@@ 2076
ws 2073
down 2072
aven 2071
kr@@ 2067
Pok@@ 2065
ader 2065
ols 2065
Tour@@ 2063
mas 2063
ждане 2063
Ton@@ 2062
E. 2061
qui@@ 2061
Gold@@ 2059
ns 2059
alus 2058
ford 2057
leg@@ 2057
men 2054
Real 2052
Sund@@ 2052
CE 2047
ots 2047
well 2046
opus 2045
nik 2044
kl@@ 2043
Max@@ 2039
ods 2039
@ 2038
Shar@@ 2038
ier@@ 2038
Sem@@ 2036
Tokyo 2036
outh 2034
Men 2032
mu@@ 2032
Comp@@ 2030
los@@ 2030
estr@@ 2027
ă@@ 2026
mi 2024
Independ@@ 2022
edi@@ 2018
tive 2016
ington 2015
ins@@ 2014
ku@@ 2014
tis@@ 2014
ami 2013
As 2012
acle 2012
reg@@ 2012
Econom@@ 2011
wo@@ 2011
occ@@ 2010
When 2008
phy 2008
optera 2007
музи@@ 2007
ications 2005
ysis 2005
T. 2003
ache 2003
zy@@ 2002
Ple@@ 1999
att@@ 1999
Vill@@ 1997
dex 1996
Az@@ 1995
Cha@@ 1995
Opera 1994
-- 1993
oks 1993
ube 1987
Han@@ 1986
Hav@@ 1986
ld@@ 1986
iss 1985
ender 1983
Jean 1981
денти@@ 1981
â@@ 1980
erry 1978
`@@ 1977
iger 1976
Bos@@ 1975
Қ@@ 1974
Stars 1973
mm 1973
ier 1972
cher 1971
Design 1970
hi 1969
Tan@@ 1968
red 1967
Dar@@ 1964
He 1962
P.@@ 1962
elli 1957
Щ 1955
jo 1954
men@@ 1951
Плов@@ 1951
зае@@ 1951
западно 1951
Hand@@ 1949
Lep@@ 1949
Plus 1949
ality 1949
י@@ 1949
If 1948
Top@@ 1947
esc@@ 1947
lia 1947
EC 1945
Vog@@ 1945
Sar@@ 1941
Modern 1939
tiv@@ 1937
^ 1936
ova 1936
Math@@ 1935
Over@@ 1935
вите 1935
Batt@@ 1934
George 1934
anci@@ 1934
land@@ 1934
Autom@@ 1932
tia 1932
int 1931
Ram@@ 1929
uli@@ 1926
Дим@@ 1926
Sea 1925
atic 1925
Ball@@ 1921
2. 1920
Battle 1920
works 1917
Aus@@ 1916
ania 1916
Ol@@ 1915
pa@@ 1915
under@@ 1915
vol@@ 1915
don@@ 1914
icum 1913
Audi@@ 1912
NASA 1910
ext 1910
Glo@@ 1908
Sor@@ 1908
ś@@ 1907
fol@@ 1905
Album 1904
Sci@@ 1903
table 1903
отбра@@ 1903
ishing 1902
Poly@@ 1900
ein@@ 1900
olo@@ 1899
Fair@@ 1898
Lang@@ 1898
acy 1898
sey 1898
ux 1897
Angeles 1896
F.@@ 1896
Services 1896
Theatre 1896
dit 1895
emati@@ 1895
Chicago 1894
Contin@@ 1894
wi@@ 1892
he 1891
FF 1888
ç@@ 1887
Bot@@ 1883
Gaz@@ 1883
Robert 1883
Gh@@ 1881
Jazz 1878
რ@@ 1878
ira 1877
uss@@ 1876
Sat@@ 1875
Reb@@ 1874
Wol@@ 1874
йски 1874
air@@ 1872
ø@@ 1870
Dur@@ 1869
Солу@@ 1869
yd@@ 1867
zi 1867
har@@ 1866
tidae 1866
ו@@ 1866
Tit@@ 1865
bel@@ 1865
Mis@@ 1864
esp@@ 1864
Don@@ 1863
Land@@ 1863
ē@@ 1863
Om@@ 1862
ason 1861
inal 1861
head 1860
Head 1859
Rob@@ 1859
ante 1859
ck 1858
ebr@@ 1858
not@@ 1857
HC 1855
Tek@@ 1855
cle 1855
isti@@ 1855
world 1851
let 1850
oa 1850
ä 1846
gl@@ 1845
Van 1843
back 1843
enger 1841
section 1841
ther@@ 1841
ign@@ 1840
Lady 1839
did@@ 1839
Jum@@ 1838
Vie@@ 1838
Mario 1835
rel@@ 1835
Associ@@ 1834
Ray 1833
pol@@ 1830
Arm@@ 1828
Mars 1828
дите 1827
гнат 1826
Af@@ 1822
Arena 1821
ani@@ 1820
sil@@ 1820
yes 1820
ител 1820
Sn@@ 1819
ground 1819
Gol@@ 1818
vers@@ 1818
lem@@ 1815
alb@@ 1813
dom@@ 1813
mb@@ 1812
Cul@@ 1811
Mari@@ 1811
prise 1810
set 1810
епи@@ 1810
ump@@ 1809
Peter 1808
Cop@@ 1806
Fle@@ 1805
Summer 1804
mot@@ 1804
юли 1804
chi 1803
N.@@ 1799
Let@@ 1796
abr@@ 1795
Rhy@@ 1792
ady 1792
Ther@@ 1791
err@@ 1790
Imp@@ 1788
ologies 1788
Lev@@ 1787
ister 1787
Nu@@ 1784
Охри@@ 1784
Bol@@ 1782
Development 1782
Kal@@ 1780
Div@@ 1779
Gor@@ 1779
oft 1776
Trav@@ 1775
CN 1774
‰ 1774
Dam@@ 1773
Ret@@ 1772
lidae 1772
ush@@ 1772
oman 1771
DR 1770
Maz@@ 1770
ort 1770
tw@@ 1770
fi@@ 1769
Saint 1768
An 1766
ident 1765
州 1765
Bell@@ 1764
aun@@ 1762
ā 1762
Broad@@ 1759
yon@@ 1759
Maria 1758
win@@ 1758
khe@@ 1756
наги 1755
Hur@@ 1754
Prim@@ 1754
Williams 1754
core 1754
pf@@ 1754
unk@@ 1752
istr@@ 1751
Kur@@ 1749
Western 1749
try 1749
NAS@@ 1744
ente 1744
Beach 1743
Ass@@ 1742
cha 1742
Asia 1741
Got@@ 1741
verse 1740
tn@@ 1738
бря@@ 1738
Extr@@ 1736
Lor@@ 1736
ards 1736
pler 1735
≈ 1735
Cros@@ 1733
Empire 1733
Acc@@ 1731
att 1731
pan@@ 1729
ul 1729
Bus@@ 1727
Tak@@ 1727
cop@@ 1727
ü@@ 1726
Il 1725
Mosco@@ 1725
Като 1725
uf@@ 1724
Will 1722
Phys@@ 1721
not 1720
Tar@@ 1718
Four 1717
She 1717
ém@@ 1716
Lam@@ 1714
Thomas 1713
Van@@ 1712
tal@@ 1712
yle 1712
Ky@@ 1710
ute 1710
ville 1710
omy@@ 1708
правител@@ 1707
Ker@@ 1706
fa@@ 1706
ih@@ 1706
ink 1706
Bay 1705
Saf@@ 1705
Bat@@ 1703
arts 1703
сиона@@ 1703
River 1702
Pot@@ 1700
Under 1700
iy@@ 1700
aro 1698
bur@@ 1698
enta 1696
tion@@ 1696
гъ@@ 1696
Progr@@ 1695
iden 1695
ager 1694
Ann@@ 1693
Pon@@ 1691
Republic 1689
dium 1689
cho 1687
geh@@ 1687
Na 1686
aya 1686
den@@ 1686
nh@@ 1685
ste@@ 1684
ther 1683
we 1683
Fer@@ 1682
Hot@@ 1682
icul@@ 1682
Fe 1681
Roy@@ 1679
Brown 1678
ein 1677
Ec@@ 1676
tin@@ 1675
ept@@ 1674
off 1674
197@@ 1673
scope 1673
ј@@ 1673
кото 1672
Cri@@ 1670
Kat@@ 1670
Sac@@ 1670
uv@@ 1670
Das 1667
ava 1667
urs 1667
Capit@@ 1666
ischen 1665
oz@@ 1663
ais 1660
anger 1660
Bod@@ 1658
anda 1658
Ster@@ 1657
tre@@ 1657
Rock@@ 1655
nu@@ 1655
Phil@@ 1652
ush 1652
Good@@ 1651
night 1651
cal 1650
esti@@ 1650
Smith 1649
ska 1649
ves 1648
Apo@@ 1647
Sto@@ 1647
agu@@ 1647
odi@@ 1647
майка 1647
Fas@@ 1646
vers 1646
Dir@@ 1645
Госу@@ 1645
Pil@@ 1644
ika 1643
ism 1642
sur 1642
pot 1640
Sand@@ 1639
ə 1639
ites 1638
ks@@ 1638
can 1637
Него@@ 1637
lers 1636
Town 1635
Sph@@ 1634
194@@ 1632
Lou@@ 1631
ket@@ 1631
nom@@ 1631
френ@@ 1631
aire 1630
uy@@ 1629
ett 1628
ў@@ 1628
anced 1627
ori 1626
pes 1625
Anth@@ 1624
Pul@@ 1624
mus@@ 1624
Num@@ 1621
Sciences 1621
ū@@ 1619
augh@@ 1618
onidae 1617
xe 1616
aux 1615
Rosa 1614
Ath@@ 1613
Ox@@ 1613
ham 1610
är@@ 1610
series 1608
ais@@ 1607
Населе@@ 1605
вси@@ 1604
ele 1602
bas@@ 1601
Cad@@ 1600
Tem@@ 1600
gen 1599
fre@@ 1597
Dic@@ 1596
α@@ 1596
ör@@ 1595
ages 1594
ine@@ 1594
lery 1592
mark 1592
acks 1591
Mos@@ 1590
Centre 1589
inter@@ 1589
Bit@@ 1587
196@@ 1586
Squ@@ 1586
ი 1586
mo 1585
ree 1585
sim@@ 1584
Sau@@ 1581
alia 1581
ო@@ 1579
Inc. 1578
ont@@ 1578
tra@@ 1578
Mary 1577
yan@@ 1576
Alliance 1575
aka 1575
anz@@ 1575
Post@@ 1574
ineering 1574
var@@ 1574
peri@@ 1572
S. 1571
Conn@@ 1569
obi@@ 1569
ң 1569
gh@@ 1568
ery 1566
trol@@ 1566
Pseud@@ 1565
Sour@@ 1565
Stil@@ 1565
ami@@ 1564
ръ@@ 1563
Fam@@ 1560
Si 1560
ski@@ 1560
BI 1559
sson 1558
Three 1557
tre 1557
wat@@ 1557
шва 1557
action 1556
живота 1556
Che@@ 1555
Lit@@ 1555
aja 1555
Women 1554
pop 1551
Sig@@ 1550
group 1550
sky 1548
pon 1546
ban@@ 1545
ological 1545
γ 1544
Soci@@ 1543
aha 1543
onic 1543
Dod@@ 1542
ric@@ 1542
Avenue 1541
yi 1541
pin@@ 1540
Som@@ 1539
esta 1539
sz@@ 1539
vet 1539
zo 1538
Sup@@ 1535
duc@@ 1534
GB 1533
ˈ@@ 1533
struc@@ 1532
ads 1531
Gra@@ 1530
bun@@ 1530
iller 1530
Fall@@ 1529
mal@@ 1529
PM 1528
Production 1528
cast 1528
yo@@ 1527
entr@@ 1526
gre@@ 1523
oi 1523
Nam@@ 1522
бити@@ 1522
ng 1521
tern@@ 1520
ands 1519
urity 1518
even 1516
B. 1514
Daw@@ 1512
bro@@ 1511
Č@@ 1511
awa 1510
Laur@@ 1508
sec@@ 1505
английски 1505
Canadian 1504
Eff@@ 1504
India 1504
if 1504
under 1504
Bil@@ 1503
Od@@ 1503
vis@@ 1503
body 1502
more 1502
Santa 1501
ret@@ 1501
Texas 1500
ando 1500
Dan@@ 1499
Prom@@ 1499
Christian 1498
R. 1498
ser 1497
ton@@ 1497
193@@ 1496
ear@@ 1496
3. 1494
Pat@@ 1494
unds 1493
Hard@@ 1492
Louis 1492
Studi@@ 1492
Con 1491
nes 1491
serv@@ 1491
Mess@@ 1489
hal@@ 1489
188@@ 1486
kon@@ 1486
смет@@ 1486
Division 1485
Gir@@ 1485
owski 1485
ę@@ 1484
ords 1483
web 1483
App@@ 1482
After 1481
LG@@ 1480
Lon@@ 1480
апри@@ 1480
ox@@ 1478
ris 1478
bis@@ 1476
face 1475
mp@@ 1475
Strat@@ 1474
ert 1474
ě@@ 1474
sions 1473
J.@@ 1472
astr@@ 1472
san@@ 1472
Charles 1471
Der@@ 1471
inf@@ 1471
Patr@@ 1469
ulus 1467
itung 1465
onna 1465
eck 1464
work 1464
Berlin 1463
ili 1462
ses 1462
tera 1462
ects 1460
met@@ 1460
Pir@@ 1459
Dig@@ 1458
Mill@@ 1458
Arg@@ 1457
ń@@ 1457
Ash@@ 1456
Coun@@ 1454
Rho@@ 1454
cy 1454
Men@@ 1453
ship 1453
Revolution 1452
рени 1452
Buil@@ 1451
Junior 1450
Department 1449
non 1449
idi@@ 1448
tem@@ 1448
ido 1447
Ъ 1447
ese 1445
.C. 1444
ells 1444
вни 1441
яни 1441
Station 1439
ag 1439
sive 1438
You@@ 1437
ion@@ 1437
sig@@ 1436
She@@ 1434
Ki@@ 1433
Football 1432
bal@@ 1431
aborat@@ 1430
Doc@@ 1429
Rail@@ 1429
CF 1426
dis 1424
mic@@ 1424
lig@@ 1421
iki 1420
fil@@ 1419
own 1418
ң@@ 1418
Da 1417
California 1416
stream 1416
Log@@ 1415
Den@@ 1414
vin@@ 1413
chin@@ 1412
fac@@ 1412
Lee 1411
án 1411
ó 1411
G. 1409
bis 1409
--@@ 1408
nia 1408
Pear@@ 1407
sit@@ 1407
arius 1406
nov@@ 1406
ston 1406
wal@@ 1406
west 1406
cm 1405
kin@@ 1405
195@@ 1404
opo@@ 1404
Pay@@ 1402
ს@@ 1402
қ 1400
worth 1399
Bow@@ 1398
L. 1397
ple@@ 1397
bra 1395
ead 1395
pres@@ 1395
thi@@ 1395
endr@@ 1394
zu 1393
1,0@@ 1392
Mut@@ 1392
Yam@@ 1392
cat@@ 1391
round 1391
uth 1390
Emer@@ 1389
mit 1389
adr@@ 1388
Ble@@ 1387
Dow@@ 1387
1.5 1386
ett@@ 1386
ren@@ 1385
ode 1384
Scar@@ 1382
Valley 1382
orer 1382
Ka@@ 1381
Din@@ 1380
dren 1380
Wel@@ 1379
阳@@ 1379
Australian 1376
ú@@ 1376
ć 1376
Fran@@ 1375
U.S. 1375
formes 1373
onom@@ 1373
that 1373
180@@ 1372
Wit@@ 1372
Bri@@ 1369
oti@@ 1369
ão 1369
ird 1368
един 1368
ұ@@ 1368
At 1367
жени 1365
edom 1363
bert 1362
medi@@ 1362
Agr@@ 1361
Anti@@ 1361
Aur@@ 1361
Alter@@ 1360
Cour@@ 1360
North@@ 1360
form 1357
Fro@@ 1356
come 1355
Psych@@ 1354
Sport@@ 1354
ills 1354
Gib@@ 1353
dig@@ 1353
.S. 1352
pul@@ 1352
vel@@ 1352
Fa@@ 1351
pers 1351
гите 1351
треш@@ 1351
Rose 1350
Indi@@ 1349
SG 1348
There 1348
eria 1348
mil@@ 1348
sho@@ 1348
20th 1347
Mont@@ 1346
web@@ 1346
wor@@ 1345
Kingdom 1344
ask@@ 1344
sw@@ 1344
I. 1343
ating 1343
ческа 1343
dem@@ 1342
vor 1342
‎ 1342
Pac@@ 1341
aer@@ 1341
lor@@ 1341
ular 1340
self 1339
bian 1337
plex 1335
ischer 1334
fire 1332
org@@ 1332
Int@@ 1331
anum 1330
je@@ 1327
ban 1326
otr@@ 1326
ago 1325
є@@ 1325
Mountain 1324
Richard 1324
Kan@@ 1322
ister@@ 1321
ham@@ 1320
uma 1320
Sir@@ 1319
aff@@ 1319
enz@@ 1319
Social 1318
Bra@@ 1317
Mich@@ 1317
alt@@ 1317
lay@@ 1317
Христо 1317
oca 1316
Gran@@ 1314
Wa@@ 1313
192@@ 1311
Up@@ 1310
Boston 1309
Hip@@ 1309
bi 1309
афри@@ 1309
Tom 1307
af 1307
Jer@@ 1306
da@@ 1306
ri 1306
ball 1305
Kong 1304
Tu@@ 1304
Hil@@ 1303
Sz@@ 1303
Pu@@ 1302
bot 1302
ose 1302
Phili@@ 1301
Roll@@ 1301
Lake 1299
Terr@@ 1299
log@@ 1299
sor@@ 1299
ef 1297
ores 1297
Jay 1296
alls 1296
Alexander 1295
Orchestra 1295
dier 1295
дори 1295
crip@@ 1294
ré@@ 1293
SK 1291
Eas@@ 1290
ker@@ 1290
Orange 1289
God@@ 1288
Act 1287
bul@@ 1287
ift 1287
lam 1287
pri@@ 1287
Fel@@ 1286
Aqu@@ 1285
Shu@@ 1284
тото 1284
lit@@ 1283
thr@@ 1282
версите@@ 1282
ons@@ 1281
4. 1278
ather 1278
ij@@ 1278
esa 1277
ign 1277
zen 1277
Kit@@ 1276
ow 1276
xi@@ 1276
H. 1275
els@@ 1275
uld 1272
Bridge 1270
ë 1270
itar 1269
lev@@ 1267
los 1266
thing 1266
Mom@@ 1265
English 1264
life 1264
Born 1263
Hak@@ 1262
K.@@ 1262
data 1262
formation 1262
Ku@@ 1261
pp 1261
chr@@ 1259
eps 1259
FIFA 1258
ye@@ 1258
Hit@@ 1256
Juli@@ 1256
eld 1256
Bla@@ 1255
Pos@@ 1255
rup@@ 1255
Jack 1254
dor@@ 1254
Spar@@ 1253
yo 1252
Hen@@ 1251
2.5 1250
Meth@@ 1250
Yel@@ 1250
Tas@@ 1249
Theater 1249
lie 1249
pus 1249
нето 1249
ices 1248
ec 1247
plic@@ 1247
ă 1247
Tex@@ 1246
bil@@ 1246
Henry 1245
stone 1245
неско@@ 1245
ostr@@ 1243
imal 1242
Lac@@ 1241
ective 1241
long@@ 1241
Main@@ 1240
Var@@ 1240
Miss 1239
Blan@@ 1238
real 1237
南@@ 1237
Australia 1236
Code 1236
Kl@@ 1236
ward 1236
Bac@@ 1235
州@@ 1234
Kam@@ 1233
ą@@ 1233
Poc@@ 1232
Wrest@@ 1231
Southern 1230
израз@@ 1230
wan@@ 1229
сите 1229
Cross 1228
Prince 1227
зира 1225
Ast@@ 1224
any@@ 1224
bus@@ 1224
unt 1224
mis@@ 1222
ბ@@ 1222
now@@ 1221
vor@@ 1221
fe 1218
Dist@@ 1217
ails 1217
én@@ 1216
Cand@@ 1215
Rum@@ 1215
onder@@ 1215
volution 1215
bit 1214
Id@@ 1213
Princ@@ 1213
ón 1210
ild 1209
Lic@@ 1208
Moz@@ 1208
Sing@@ 1208
Tenn@@ 1207
Bud@@ 1206
eu@@ 1206
ː 1205
sts 1204
Milit@@ 1203
eine 1203
kw@@ 1203
lands 1201
isch@@ 1200
res 1200
ō 1200
Biz@@ 1199
Ten@@ 1199
lip@@ 1199
atra 1198
ches 1198
get 1197
wil@@ 1197
Xi@@ 1196
Ari@@ 1195
Mah@@ 1195
Pass@@ 1195
Pom@@ 1195
itu@@ 1195
sport 1192
bri@@ 1191
phone 1190
ento 1189
Ele@@ 1188
ades 1188
eer 1188
ju@@ 1188
ў 1188
Yor@@ 1187
itas 1186
pedia 1186
Георги 1186
aves 1185
bank 1185
Nak@@ 1183
his 1183
Fort@@ 1182
Nar@@ 1182
atis@@ 1182
out@@ 1182
Band@@ 1181
Kh@@ 1181
Place 1181
cho@@ 1181
star@@ 1181
Name 1180
och 1180
vic@@ 1180
Beh@@ 1179
By 1179
pedi@@ 1179
ron 1179
Hein@@ 1177
hab@@ 1177
мяна 1176
ვ@@ 1176
ario 1175
cli@@ 1175
gro@@ 1174
Archit@@ 1172
свеще@@ 1171
Crim@@ 1170
Ι@@ 1170
tura 1169
ner@@ 1167
viv@@ 1167
Yah@@ 1166
kins 1166
Hem@@ 1165
Joseph 1165
gn@@ 1165
amo@@ 1164
d. 1164
liz@@ 1164
omb@@ 1163
Fab@@ 1161
Py@@ 1161
itor 1161
ry@@ 1161
Clar@@ 1160
bit@@ 1159
Rub@@ 1158
aly@@ 1158
ho 1158
æ 1157
itz@@ 1156
pro 1156
лята 1156
Bau@@ 1155
wer 1155
Back@@ 1154
Gul@@ 1154
fic 1154
eau 1152
aco 1151
her 1150
Domin@@ 1148
,000 1147
tier 1147
º@@ 1147
arch 1146
sis 1146
Tech@@ 1145
ven 1145
Donald 1144
aki 1144
bie 1144
book 1144
ca@@ 1143
ungen 1143
Federation 1141
tol@@ 1141
Organ@@ 1140
ester 1139
kom@@ 1139
vi 1139
High@@ 1138
orium 1138
See 1137
ique 1136
mun@@ 1136
teri@@ 1136
ete 1135
eder@@ 1133
change 1132
FL 1131
Marie 1131
Victoria 1131
Chap@@ 1130
aks 1130
cep@@ 1130
gs 1130
мач 1130
Hyp@@ 1129
emb@@ 1129
rich@@ 1129
vit@@ 1129
нако 1129
Army 1128
ait 1128
mol@@ 1128
Was@@ 1127
chen 1126
cy@@ 1126
oper 1126
худо@@ 1126
א@@ 1126
Joe 1125
enia 1125
jo@@ 1125
lim@@ 1124
安@@ 1124
ffer@@ 1123
ig 1123
ques 1122
fu@@ 1121
š 1121
Health 1120
ainst 1120
тите 1120
Beg@@ 1119
illi@@ 1119
pur@@ 1119
3.5 1118
Long@@ 1118
ires 1118
nus 1118
sum@@ 1118
tempor@@ 1118
ading 1117
Thi@@ 1116
Has@@ 1115
Dun@@ 1114
Obj@@ 1113
ate@@ 1113
hip 1113
ony@@ 1112
ә 1112
Ot@@ 1111
via 1111
резу@@ 1111
ders 1110
lon 1110
kat@@ 1108
ologie 1108
porter 1108
тъ@@ 1108
Buc@@ 1107
into 1107
Alli@@ 1105
imler 1105
Стара 1105
eca 1104
gi 1103
än@@ 1103
ნ@@ 1103
iti 1102
Vor@@ 1100
len 1100
my@@ 1100
Ing@@ 1098
na@@ 1097
Ax@@ 1096
acc@@ 1096
gio 1096
lob@@ 1096
Oper@@ 1095
esia 1095
new 1095
бира 1095
Wan@@ 1093
din@@ 1093
value 1093
è@@ 1093
Jud@@ 1092
Maj@@ 1092
Yo@@ 1092
eur 1092
Mun@@ 1089
ational 1089
ý@@ 1089
Jones 1088
esi@@ 1088
Ric@@ 1087
Tes@@ 1087
Vit@@ 1087
eck@@ 1087
phy@@ 1087
anga 1086
ix@@ 1086
mf@@ 1086
тури 1086
Bru@@ 1085
bol@@ 1085
Johnson 1084
mail 1084
5. 1083
Sign@@ 1083
hai 1083
сата 1082
lag 1080
Bug@@ 1079
fal@@ 1079
net@@ 1079
road 1079
rot@@ 1079
თ@@ 1079
Lyn@@ 1078
kel@@ 1078
where 1078
Cab@@ 1077
uta 1077
ono 1076
abil@@ 1075
news 1074
ev 1073
загу@@ 1073
Fir@@ 1072
ont 1072
Kas@@ 1071
folia 1071
ji@@ 1071
Wild@@ 1070
point 1070
β@@ 1070
Liter@@ 1068
Map@@ 1068
dol@@ 1068
iva 1068
was 1068
Dav@@ 1067
illy 1067
lav@@ 1067
Francisco 1066
Tap@@ 1066
agon@@ 1066
ize 1066
Bay@@ 1065
Flam@@ 1065
asa 1065
ats@@ 1065
gal@@ 1065
sch 1065
Coc@@ 1064
dri@@ 1064
eller 1064
Phoen@@ 1063
vin 1063
ален 1063
ҡ@@ 1063
Green@@ 1062
South@@ 1062
ged 1062
mir@@ 1062
мъ@@ 1062
дава 1061
casting 1060
ls 1060
pon@@ 1060
rain 1060
cyc@@ 1059
ities 1059
ments 1058
ð@@ 1058
Gil@@ 1057
Profes@@ 1057
Revol@@ 1057
ku 1057
rac@@ 1057
tek 1057
Rich@@ 1055
vid@@ 1055
ż@@ 1055
Mand@@ 1054
media 1054
nor@@ 1054
Aff@@ 1052
Bun@@ 1052
Rog@@ 1052
ency 1052
etti 1052
ité 1052
phyl@@ 1052
ври 1051
Centr@@ 1050
Lem@@ 1050
oon 1050
езе@@ 1050
Lis@@ 1049
iro 1049
ographi@@ 1048
start 1048
oke 1047
pat@@ 1047
odes 1046
Morgan 1045
eds 1044
vention 1043
Brit@@ 1042
Day@@ 1042
Wes@@ 1042
bach 1042
pil@@ 1042
стои 1042
BT 1041
Jackson 1041
esse 1041
mus 1041
qua 1041
map@@ 1040
Castle 1039
Key@@ 1039
Mam@@ 1038
Pra@@ 1038
Sus@@ 1038
eter 1038
ous@@ 1038
burg 1037
hom@@ 1037
ustry 1037
Lanc@@ 1036
onen 1035
Hun@@ 1034
Las@@ 1032
Viol@@ 1032
rea 1032
uh@@ 1032
opp@@ 1031
rem@@ 1031
Boy@@ 1028
pper 1028
Education 1026
any 1026
cs 1026
uti@@ 1026
ère 1026
phil@@ 1025
vis 1025
Jac@@ 1024
ango 1024
doc@@ 1024
weight 1024
Jan@@ 1023
Order 1023
Ear@@ 1022
aa 1022
Δ@@ 1022
ingu@@ 1021
native 1021
tha 1021
Sha@@ 1020
gem@@ 1019
sm@@ 1018
ues 1018
Coast 1017
By@@ 1016
aro@@ 1015
Library 1014
Α@@ 1014
Italia 1013
nig@@ 1013
prim@@ 1013
ape 1012
eli 1012
sional 1011
Fron@@ 1010
Lan@@ 1010
Speci@@ 1010
bin@@ 1010
185@@ 1009
õ@@ 1009
Premier 1008
bot@@ 1008
ר@@ 1008
Cass@@ 1007
bia 1007
cell@@ 1007
ece 1007
ilia 1007
sons 1007
Soc@@ 1006
bury 1006
ron@@ 1005
iter 1004
vari@@ 1004
Dest@@ 1003
Pet@@ 1002
sem@@ 1002
dec@@ 1001
като 1001
Another 1000
Jam@@ 1000
Wolf 1000
pic@@ 1000
Latin 999
town 999
Second 998
aca 998
dem 998
él@@ 998
Pel@@ 997
chil@@ 997
ӏ@@ 997
Shin@@ 996
eni 996
Panz@@ 995
uk 994
asp@@ 993
Nati@@ 992
вече 992
מ@@ 992
tum 991
ween 991
Rand@@ 990
apo@@ 990
ned 990
var 990
″ 989
ieve 988
vil@@ 988
Emp@@ 987
Li 987
Northern 987
Eg@@ 986
Jr 985
Kol@@ 985
word 985
Det@@ 984
Ses@@ 984
Ö@@ 984
् 983
arc@@ 982
‒ 982
Carl 981
Maxim@@ 981
itation 981
вени 981
Ji@@ 980
States 980
enne 980
ô@@ 980
fen@@ 979
Andr@@ 978
Lord 978
rd 978
vul@@ 977
Scott 976
ր@@ 976
Sher@@ 975
urn@@ 975
by@@ 974
usa 973
Tol@@ 972
lec@@ 972
ule 972
és 972
Jesus 971
chan@@ 971
uri 971
Fem@@ 970
Tab@@ 970
this 970
Vita 969
nic@@ 969
amer@@ 968
lies 968
off@@ 968
Exper@@ 967
eu 967
asis 966
ა 966
agn@@ 965
ges 965
King@@ 964
÷ 964
onds 963
tan 963
Rou@@ 962
Suz@@ 962
Ale@@ 961
Instrum@@ 961
Ry@@ 961
bet@@ 960
metal 960
osis 960
CEO 959
Champ@@ 959
Bad@@ 958
buch 958
kan@@ 958
π 958
zo@@ 956
Priv@@ 955
Taylor 955
dar@@ 954
zur 954
bac@@ 952
187@@ 951
Vil@@ 951
ος 951
Eastern 950
away 950
ej@@ 949
ici 949
Church 948
esh 947
imi 947
mos@@ 946
olo 946
orn 946
tern 945
top@@ 945
Kle@@ 944
Sap@@ 943
elia 943
eno 943
isco 943
189@@ 942
Nat@@ 942
aut 942
живе@@ 942
Hop@@ 940
aker 940
spr@@ 940
Winter 939
les@@ 939
sk 938
ския 938
Gri@@ 937
kil@@ 936
yl 936
муници@@ 935
Neg@@ 934
elo 934
aul@@ 933
ów 933
Варна 933
tle 932
ú 932
aw 931
uki 931
öl@@ 931
Les@@ 930
fle@@ 928
Mé@@ 927
ל@@ 927
Plaza 926
begin 925
gency 925
˚ 925
dy@@ 924
eth@@ 924
Philos@@ 923
Test@@ 923
ε 923
Hong 922
Port 922
kul@@ 921
Голя@@ 921
һ@@ 921
Son 920
band 920
ka@@ 920
sap@@ 920
ҙ@@ 920
ering 919
master 919
rent 919
May 918
avi@@ 918
eva 918
mal 918
Той 918
En 917
Ober@@ 916
Pau@@ 916
eling 916
ember 916
fun@@ 916
pour 916
чва 916
asti@@ 915
Hug@@ 914
Water@@ 914
bal 913
cel 913
Geschichte 912
Simon 912
kal@@ 912
lad@@ 912
other@@ 912
Um@@ 911
kan 911
Bou@@ 910
Lag@@ 910
spir@@ 910
hat@@ 909
უ@@ 909
江@@ 909
Eli@@ 908
His 906
Nap@@ 905
Tam@@ 905
Deb@@ 904
ck@@ 904
py@@ 904
λ 904
186@@ 903
Dal@@ 903
dom 903
zz@@ 903
Her 902
Kad@@ 902
ann 902
mati@@ 902
vey 902
Board 901
Nas@@ 901
card 901
ool 901
Jag@@ 900
asc@@ 900
atom@@ 900
pot@@ 900
ש@@ 900
Daniel 898
fas@@ 898
184@@ 897
Nord@@ 897
enni@@ 897
Ε@@ 897
კ@@ 897
Mass@@ 896
edia 896
imb@@ 896
ī 896
Flu@@ 895
kor@@ 895
val 895
fic@@ 894
kers 894
rey 894
Elek@@ 893
ación 893
eman 893
ո@@ 893
Ras@@ 891
cial 891
ui 891
Culture 890
eki 890
oper@@ 890
ports 890
ump 890
└ 890
лъ@@ 889
Jane 888
Stadium 887
oir 887
tec@@ 887
Kil@@ 886
Major 886
gin@@ 886
imo 886
Zen@@ 885
ingo 885
Que@@ 883
Stand@@ 883
andi@@ 883
force 883
Bob 882
Cath@@ 882
Law 882
Premi@@ 882
ment@@ 882
xi 882
edo 881
iser 881
track 881
dro@@ 880
მ@@ 880
End@@ 879
ular@@ 879
Dim@@ 878
Stra@@ 878
like 878
ogr@@ 878
wh@@ 878
live 877
sia 877
fied 876
war 876
eign 875
Conference 874
fish 874
ram@@ 874
Version 873
elt 873
fore 873
werk 873
Bec@@ 872
Hat@@ 872
ave@@ 872
lab@@ 872
dal@@ 871
Rep@@ 870
ough@@ 870
umin@@ 870
Fur@@ 869
Thom@@ 869
Other 868
esi 868
Fig@@ 867
დ@@ 867
Victor 866
ismo 866
stre@@ 866
Kre@@ 865
Société 865
брой 865
eton 864
gia 863
Cra@@ 862
mont 862
tors 862
Adam 861
dea 861
ingen 861
isher 861
nament 861
Mik@@ 860
lati@@ 860
Rab@@ 859
ennis 859
hol@@ 859
kel 859
oy 859
water 858
Africa 857
Cot@@ 856
ography 856
десе@@ 856
ките 856
forman@@ 855
Forest 854
Frank 854
Plan 854
agen 854
tos 854
山@@ 854
郡 854
Championships 853
din 853
δ 853
ben 851
bs 851
ising 851
Nacional 850
Ni 850
UE@@ 850
phon@@ 850
Riv@@ 849
Deutsch@@ 848
aqu@@ 848
class 848
polis 847
tres 847
Art@@ 846
Medical 846
par 846
Dru@@ 845
Un 845
print 845
ár@@ 845
gether 844
nier 844
eci@@ 843
sh 843
西@@ 843
Flor@@ 842
acia 842
eti 842
mak@@ 842
година 842
мре@@ 842
ב@@ 842
bu 841
etes 841
inde@@ 841
plo@@ 841
Field 840
gir@@ 840
sing 840
Stat@@ 839
Syl@@ 839
iz 839
Community 838
Wiki@@ 838
Zi@@ 837
ation@@ 837
eng 837
Trich@@ 836
Cla@@ 835
Leon@@ 835
Sep@@ 835
yer 835
Marine 834
Miss@@ 834
Pf@@ 834
Poli@@ 834
bon@@ 834
elin 834
plan@@ 834
6. 833
Film@@ 833
Mission 833
Ach@@ 832
Gran 832
mula 832
SV 831
Tok@@ 831
lov@@ 831
ς 831
.000 830
Austr@@ 830
Irish 830
ö 830
Bibli@@ 829
ator@@ 829
lim 829
大@@ 829
ador 827
ceph@@ 827
een 827
s. 827
Sam 826
Stand 826
Vin@@ 826
chem@@ 826
gy 826
isch 826
version 826
Cham@@ 825
Kap@@ 825
pas@@ 825
wide 825
Europa 824
Kot@@ 824
府 824
ê@@ 823
nen 822
Develop@@ 821
fest 821
zer 821
Doctor 820
Nan@@ 820
Pierre 820
anthus 820
ysi@@ 820
ν 820
Fres@@ 819
ken@@ 819
Vik@@ 818
dé@@ 817
ungs@@ 817
anger@@ 816
eil 815
omi 815
ía 815
Neur@@ 814
Rid@@ 814
anne 814
qui 814
syl@@ 814
ür@@ 814
bers 813
cit@@ 813
Front 812
Indian 812
enf@@ 811
rier 811
ларов 811
plat@@ 810
udi@@ 810
Cou@@ 809
ras@@ 809
окол@@ 809
Wind@@ 808
rus@@ 808
tric@@ 808
Council 807
Ner@@ 807
film 807
ior 807
lus 807
Petr@@ 806
aud@@ 806
ording 806
perial 806
è 806
Cav@@ 805
Gem@@ 805
love 805
Christi@@ 804
Hab@@ 804
Karl 804
Lt@@ 804
Single 804
Temple 804
ps@@ 804
tural 804
yan 804
Pyr@@ 803
Rac@@ 803
prises 803
Kenn@@ 802
olia 802
They 801
plus 801
∙ 801
Milli@@ 800
Wood@@ 800
dur@@ 799
ements 799
nit@@ 799
lem 798
Grammy 797
J. 797
achi 797
uni@@ 797
деца 797
Den 796
Him@@ 796
ř@@ 796
Fat@@ 795
Peter@@ 795
cine 795
נ@@ 795
Lad@@ 794
ames 794
oli 794
ott 794
trav@@ 794
ý 794
fall 793
space 793
ulu 792
ה@@ 792
atur@@ 791
bon 791
án@@ 791
ł 791
← 791
Ein@@ 790
Jimmy 790
chen@@ 790
ider@@ 790
rif@@ 790
Scot@@ 788
prin@@ 788
Mike 787
proc@@ 787
England 786
lon@@ 786
station 786
Hospital 785
nav@@ 785
rock 785
ector 784
mec@@ 784
w.@@ 784
Ек@@ 784
ause 783
nd@@ 783
rop@@ 782
tam@@ 782
Á@@ 782
1st 781
Dut@@ 781
Las 781
child 781
idel@@ 781
line@@ 781
vec@@ 781
Wer@@ 780
Gas@@ 779
Main 779
aku 779
Barr@@ 778
Bran@@ 778
Et@@ 778
ority 778
week 778
ş@@ 778
Sti@@ 777
lion 777
wa@@ 777
avo 776
Pier@@ 775
Se 775
estruc@@ 775
Arthur 774
peti@@ 774
Some 773
aine 772
ease 772
umb@@ 772
Dé@@ 771
cia 771
liche 771
ufac@@ 771
Abr@@ 770
Professor 770
mar 770
state 770
eros 768
flu@@ 768
ien 768
min 768
Arab@@ 767
Johnny 767
Sid@@ 767
cent@@ 767
eles 767
stor@@ 767
Σ@@ 767
Lau@@ 766
alis@@ 766
ayo 766
izer 766
sl@@ 766
wing 766
Austin 765
Tos@@ 765
phi 765
Nic@@ 764
Sant@@ 763
anna 763
eto 763
wen@@ 763
Sak@@ 762
ს 762
Hydro@@ 761
illing 761
schrift 761
Jan 760
schaft 760
ution 760
Euro 759
Sul@@ 759
room 759
cos@@ 758
Jack@@ 756
anta 756
Rod@@ 755
aut@@ 755
Tony 754
coun@@ 754
gel@@ 754
ization 754
Nom@@ 753
ists 753
nik@@ 753
sta 753
Corn@@ 752
Prin@@ 752
Wir@@ 752
Tat@@ 751
eler 751
endi 751
idi 751
ե@@ 751
Nec@@ 750
sed 750
N. 749
ü 749
̯ 749
Zeit@@ 748
abri@@ 748
ahi 748
ben@@ 748
liv@@ 748
Chris 747
ebo@@ 747
egas 747
oli@@ 747
à@@ 747
Sierra 746
iko 746
kur@@ 746
Baz@@ 745
Captain 745
ith@@ 745
ophyl@@ 745
thin 745
dre@@ 744
isi 744
fur@@ 743
isp@@ 743
Amp@@ 742
Rio 742
Spi@@ 742
asse 742
oug@@ 742
ό@@ 742
Justice 741
ilk 741
sar@@ 741
spec@@ 741
Augus@@ 740
F. 740
Histor@@ 740
lins 740
systems 740
Bill 739
Europ@@ 739
alg@@ 739
sac@@ 739
som@@ 739
Pav@@ 738
Ç@@ 738
cri@@ 737
heim 736
legi@@ 736
lower 736
arti@@ 735
iri 735
sha 735
sters 735
обща 735
Asian 734
Walter 734
jas 734
Hay@@ 733
Pod@@ 733
micro@@ 733
stell@@ 733
ФСР 733
Eri@@ 732
oe 732
Arn@@ 731
Bak@@ 731
Eric 731
comp@@ 731
etz@@ 731
ules 731
lan 730
Grou@@ 729
Gau@@ 728
Histoire 728
Pach@@ 728
chester 728
hum@@ 728
isha 728
syn@@ 728
Inf@@ 727
asi 727
anti 726
mem@@ 726
Anna 725
blu@@ 725
Cast@@ 723
селище 723
Luf@@ 722
Person@@ 722
host@@ 722
press 722
Ο@@ 722
Police 721
def@@ 721
gun 721
ouse 721
radi@@ 721
Fame 720
Lind@@ 720
Memorial 720
auf 720
enh@@ 720
ustr@@ 720
wel@@ 720
Virginia 719
Wag@@ 719
park 719
Guy 718
Verlag 718
fus@@ 718
uke 718
usion 718
Ny@@ 717
Olymp@@ 717
dev@@ 717
sul@@ 717
î@@ 717
ност 717
Esp@@ 716
Duke 715
iliz@@ 715
Jos@@ 714
Michel 714
Ken@@ 712
Korea 712
March 712
Termin@@ 712
kus 712
Canal 711
Ok@@ 711
iting 711
Jung@@ 710
Steve 710
cht 710
hem 710
Hall@@ 709
dan 709
enberg 709
Nob@@ 708
Deutschland 707
Jus@@ 707
free 707
ците 707
Ay@@ 706
Pand@@ 705
Ray@@ 705
natur@@ 705
tut@@ 705
alo 704
ω 704
K. 703
prot@@ 703
van@@ 703
ŋ 703
Shak@@ 702
Sin 702
ball@@ 702
lang 702
rang 702
uo 702
Champions 701
Ré@@ 701
dur 701
far@@ 701
oll 701
proper@@ 701
ĕ@@ 701
γ@@ 701
Initi@@ 700
cos 700
hon@@ 700
neg@@ 700
pec@@ 700
tima 700
but 699
etto 699
igi@@ 699
lib@@ 699
Alex@@ 698
Cum@@ 698
Di 698
Jordan 698
Will@@ 697
ichi 697
äl@@ 697
Antonio 696
arp@@ 696
oid 696
ought 696
¼ 696
басе@@ 696
Oxford 695
sam@@ 695
NBA 694
amber 694
eas@@ 694
ples 694
alt 693
trop@@ 693
aba 692
trans@@ 692
ved 692
Brand@@ 691
Hir@@ 691
alp@@ 691
dans 691
erie 691
iff 691
nar@@ 691
que@@ 691
σ 691
Bed@@ 690
Epis@@ 690
Hud@@ 690
Len@@ 690
lot 690
system 690
tab@@ 690
Zealand 689
lio 689
oc 689
post 689
cio 688
ises 688
idge 687
ini@@ 687
Brad@@ 686
aliz@@ 686
onal@@ 686
® 686
uss 685
Albert 684
Brian 684
Kno@@ 684
Suc@@ 684
ancy 684
bar 684
enci@@ 684
esh@@ 684
anco 683
ges@@ 683
have 683
Historia 682
Ins@@ 682
Nord 682
Quer@@ 682
cla@@ 682
ern 682
7. 681
ils 681
rie 681
ն@@ 681
Sag@@ 680
cam@@ 680
宁@@ 680
nat@@ 679
ths 679
Ι 679
Ё 679
Kaz@@ 678
fri@@ 678
чрез 678
Edward 677
Neu@@ 677
Tag 677
ening 677
hiz@@ 677
igu@@ 677
pas 677
ste 677
test 677
til 677
8. 676
azz@@ 676
bra@@ 676
enter 676
lip 676
orph@@ 676
tain@@ 676
Friedrich 675
Ma 675
car 675
egel 675
occer 675
oking 675
ע@@ 675
გ@@ 675
Aster@@ 674
Ges@@ 674
How@@ 674
alli@@ 674
igo 674
single 674
cro@@ 673
japon@@ 673
rati@@ 673
este 672
ock@@ 672
event@@ 671
kol@@ 671
tique 671
port@@ 670
ext@@ 669
stan@@ 669
Gard@@ 668
Most 668
a. 668
ives 668
tico 668
wo 668
τ@@ 668
Trin@@ 667
ancia 667
mond 667
ява 667
9. 666
Lincoln 666
quar@@ 666
Hul@@ 665
Neb@@ 665
cip@@ 665
fes@@ 665
unge 665
Itali@@ 664
ander 664
ige 664
mes@@ 664
polit@@ 664
ο 664
Rein@@ 663
eron 663
pi 663
rod@@ 663
ако 663
Ant@@ 662
Joh@@ 662
Rat@@ 662
anny 662
ogo 662
has 661
Bob@@ 660
tit@@ 660
usi@@ 660
It@@ 659
board 659
gener@@ 659
igg@@ 659
pos 659
vier 659
Kun@@ 658
gol@@ 658
ial 658
kt 658
libr@@ 658
river 658
Cambridge 657
Ey@@ 657
Monum@@ 657
eur@@ 657
ï@@ 657
ː@@ 657
Germany 656
Mart@@ 656
Tul@@ 656
oro 656
име 656
got@@ 654
mon 654
ult@@ 654
ӑ@@ 654
Wy@@ 653
imp@@ 653
Kos@@ 652
Luci@@ 652
чело 652
城@@ 652
Dad@@ 651
Oli@@ 651
Wright 651
etr@@ 651
Boh@@ 650
Gru@@ 650
erra 650
атем 650
Dan 649
aham 649
ograph@@ 649
sult@@ 649
č 649
Cant@@ 648
Ja@@ 648
oga 648
sie 648
isches 647
δ@@ 647
Alan 646
Bern@@ 646
Elizabeth 646
Hans 646
ling@@ 646
music@@ 646
å 646
θ 646
μ 646
Berg@@ 645
amo 645
former 645
gan@@ 645
Monte 644
aj 644
cot@@ 644
za@@ 644
ската 644
Peti@@ 643
ende 643
major 642
unter@@ 642
Materi@@ 641
imi@@ 641
mad@@ 641
ñ@@ 641
Пловдив 641
Alex 640
amen 640
bil 640
equ@@ 640
isis 640
Ню 640
Israel 639
Tag@@ 639
ability 639
amin@@ 639
Apol@@ 638
Bes@@ 638
Pad@@ 638
alen 638
Sev@@ 637
aud 637
lau@@ 637
new@@ 637
Palm@@ 636
Sax@@ 636
Telev@@ 636
ablo 636
голя@@ 636
Cem@@ 635
Hung@@ 635
antes 635
pun@@ 635
Lav@@ 634
age@@ 634
elles 634
grap@@ 634
vie@@ 634
iles 633
seu@@ 633
ud 633
юни 633
Billy 632
auer 632
ede 632
ligh@@ 632
Liz@@ 631
Yu@@ 631
кови 631
Kel@@ 630
tar 630
über 630
aug@@ 629
bes@@ 629
elly 629
зва 629
Juan 628
dam@@ 628
mul@@ 628
pap@@ 628
ply 628
tot@@ 628
uni 628
Gesellschaft 627
Nach@@ 627
ashi 627
soci@@ 627
Airport 626
fo 626
École 626
φ 626
Middle 625
Roman 625
hard 625
uca 625
uno 625
седми@@ 625
José 624
abl@@ 624
Andrew 623
Cher@@ 623
Leh@@ 623
assi@@ 623
ledge 623
lik@@ 623
urg@@ 623
族@@ 623
Supre@@ 622
hood 622
ked 622
tak@@ 622
Nick 621
date 621
fast 621
ague 620
ching 620
cont@@ 620
vas@@ 620
Κ@@ 620
Florida 619
Grande 619
alist 619
ble@@ 619
eral 619
tional 619
Clu@@ 618
azar@@ 618
will 618
Du 617
endro@@ 617
hua 617
inst@@ 617
mission 617
ה 617
Gel@@ 616
Hus@@ 616
dio 616
eleg@@ 616
otes 616
Nag@@ 615
dh@@ 615
Ernst 614
Gab@@ 614
Zel@@ 614
hel@@ 614
lar 614
Ah@@ 613
dos 613
orn@@ 613
power 613
xa 613
andra 612
ardo 612
font 612
tif@@ 612
yon 612
μ@@ 612
стите 612
But 611
ater@@ 611
aç@@ 611
emat@@ 611
kir@@ 611
nati@@ 611
є 611
Davis 610
Stan@@ 610
Ukraine 610
ances 610
ph 610
º 610
の@@ 610
Jun@@ 609
Sach@@ 609
ecture 609
tt@@ 609
tz 609
Brun@@ 608
show 608
Sir 607
Wid@@ 607
aining 607
ias 607
poli@@ 607
едно@@ 607
nationale 606
Jon@@ 605
Miller 605
alog@@ 605
Fon@@ 604
Kim 604
ected 604
ligence 604
vie 604
Ü@@ 604
ტ@@ 604
kre@@ 603
ד@@ 603
alla 602
endi@@ 602
enes 602
mut@@ 602
super@@ 602
Kelly 601
Stein@@ 601
chia 601
● 601
alism 600
ymn@@ 600
Jur@@ 599
Pour 599
has@@ 599
ilio 599
med@@ 599
nes@@ 599
üt@@ 599
ebe 598
plas@@ 598
осъ@@ 598
anim@@ 597
atar 597
einer 597
thus 597
zen@@ 597
Iv@@ 596
Jim 596
edr@@ 596
led 596
rat 596
Bang@@ 595
Mr@@ 595
ded 595
tac@@ 595
ön@@ 595
ствено 595
чите 595
ն 595
Tig@@ 594
building 594
flav@@ 594
rant 594
Bron@@ 593
aise 593
lose 593
nel 593
Asi@@ 592
bey 592
flora 592
graph@@ 592
ombi@@ 592
voc@@ 592
ovo 591
san 591
sten 591
ás 591
η 591
Clin@@ 590
Slo@@ 590
Song@@ 590
lif@@ 590
σ@@ 590
ствен 590
Thor@@ 589
aces 589
hand@@ 589
ju 589
BK 588
Federal 588
Wall@@ 588
acher 588
aster@@ 588
mos 588
Dum@@ 587
tas@@ 587
wan 587
¹ 587
Operation 586
fel@@ 586
see 586
Committee 585
eux 585
views 585
་ 585
Brook@@ 584
Chinese 584
Wilhelm 584
eting 584
lic@@ 584
ovi@@ 584
thor@@ 584
平@@ 584
Bahn 583
aissance 583
che@@ 583
return 583
soft 583
tung 583
tures 583
anza 582
bau@@ 582
list 582
ég@@ 582
Highway 581
Proj@@ 581
press@@ 581
versi@@ 581
ября 581
Tax@@ 580
Wilson 580
imm@@ 580
kn@@ 580
orient@@ 580
ès 580
ქ@@ 580
Marc 579
Port@@ 579
Yan@@ 579
quit@@ 579
Court 578
Shel@@ 578
eff@@ 578
fort 578
mand@@ 578
ät@@ 578
Ide@@ 577
rid 577
ving 577
Inn@@ 576
Montre@@ 576
afe 576
arry 576
eka 576
ement@@ 576
hou 576
kun@@ 576
part 576
rh@@ 576
werke 576
Academ@@ 575
Carol@@ 575
Concep@@ 575
Marshall 575
NCA@@ 575
aking 575
bab@@ 575
ris@@ 575
tific@@ 575
tik 575
Aj@@ 574
Carlos 574
DNA 574
Democ@@ 574
andi 574
bin 574
inga 574
limited 574
wall 574
nas@@ 573
omer@@ 573
Diego 572
Greg@@ 572
alc@@ 572
anted 572
Brig@@ 571
attle 571
kov@@ 571
oss 571
Mount 570
bai 570
illo 570
osph@@ 570
Å 570
Bin@@ 569
Carlo 569
Chor@@ 569
ffen 569
tered 569
ı 569
Johann 568
fi 568
oj@@ 568
zer@@ 568
лни 568
Dave 567
code 567
flor@@ 567
inn 567
Rhein@@ 566
Well@@ 566
adi 566
asia 566
asons 566
ei@@ 566
fs 566
lied 566
sang@@ 566
Boul@@ 565
otte 564
virus 564
Asp@@ 563
Jak@@ 563
Roger 563
law 563
plan 563
Ә@@ 563
Schwar@@ 562
шата 562
中@@ 562
Manchester 561
Vas@@ 561
ended 561
lit 561
yu 561
Buff@@ 560
Metropolit@@ 560
Princip@@ 560
case 560
han 560
ogen@@ 560
poly@@ 560
Nich@@ 559
Ou@@ 559
gam@@ 559
neum@@ 559
stand 559
tain 559
Univers@@ 558
Ya 558
amba 558
ament 558
cant@@ 558
graf@@ 558
ì 558
İ@@ 558
ʰ@@ 558
Philip 557
allen 557
eland 557
ited 557
лно 557
Sain@@ 556
model 556
tir@@ 556
wr@@ 556
Въ@@ 556
Georgia 555
leri 555
uer@@ 555
ui@@ 555
Lap@@ 554
liber@@ 554
mani 554
Bis@@ 553
Sad@@ 553
Americ@@ 552
Frank@@ 552
Rit@@ 552
Vinc@@ 552
aber 552
angers 552
contr@@ 552
osh@@ 552
ę 552
Charlie 551
Harry 551
Sali@@ 551
ander@@ 551
ansa 551
ç 551
ín 551
говори 551
Institut 550
anos 550
orie 550
sid@@ 550
ß 550
κ@@ 550
And@@ 549
Cari@@ 549
Chir@@ 549
Dutch 549
ences 549
oso 549
Васил 548
African 547
Franz 547
had 547
las@@ 547
mental 547
≤ 547
Del 546
Institu@@ 546
Maf@@ 546
ün@@ 546
ą 546
ŋ@@ 546
Au 545
Hin@@ 545
hil 545
quer@@ 545
trac@@ 545
Nations 544
Part@@ 544
antas@@ 544
iki@@ 544
lu 544
nd 544
uza 544
dle 543
open 543
Law@@ 542
Tang@@ 542
mid@@ 542
mur@@ 542
nu 542
zum 542
天@@ 542
Early 541
Kim@@ 541
October 541
Prof@@ 541
oty@@ 541
sburg 541
them 541
ć@@ 541
Evangel@@ 540
Franc@@ 540
Mim@@ 540
Unter@@ 540
Carolina 539
These 539
aint 539
bor 539
Lo 538
Way@@ 538
ables 538
evo 538
August 537
Fund@@ 537
NAT@@ 537
oko 537
oz 537
自治@@ 537
German 536
Rund@@ 536
Stur@@ 536
bas 536
eco 536
aft@@ 535
ition 535
lard 535
onym@@ 535
пус@@ 535
Card@@ 534
Coupe 534
Orch@@ 534
Villa 534
bau 534
enti 534
éri@@ 534
дени 534
海@@ 534
Ben 533
Clark 533
Lux@@ 533
Reichs@@ 533
Sydney 533
Allen 532
Penn@@ 532
Yes@@ 532
abe 532
blo@@ 532
hard@@ 532
indi@@ 532
z. 532
Pow@@ 531
hir@@ 531
ht 531
₁ 531
aver@@ 530
mach@@ 530
rag@@ 530
senti@@ 530
̀ 530
Walker 529
haus 529
orr@@ 529
ric 529
sin 529
кива 529
Afr@@ 528
Atlan@@ 528
Lewis 528
Secre@@ 528
apa 528
coc@@ 528
esto 528
icia 528
orio 528
sequ@@ 528
ם 528
bile 527
break 527
pag@@ 527
species 527
strong 527
̄ 527
lyn 526
titu@@ 526
Π@@ 526
ת 526
ares 525
Harv@@ 524
Lig@@ 524
Otto 524
deg@@ 524
fication 524
lag@@ 524
wi 524
роден 524
Git@@ 523
cola 523
fon@@ 523
Ө@@ 523
⋅ 523
Universit@@ 522
enth@@ 522
liner 522
put 522
ū 522
π@@ 522
acer@@ 521
iner 521
лява 521
Bah@@ 520
Kul@@ 520
servat@@ 520
Chic@@ 519
French 519
cu 519
det@@ 519
itage 519
bli@@ 518
ener 518
igh 518
viol@@ 518
Academia 517
Corps 517
Miami 517
base 517
range 517
ross 516
东@@ 516
Elle 515
Lak@@ 515
airs 515
onal 515
Къ@@ 515
Broadway 514
ē 514
Σ 514
Alfred 513
Kab@@ 513
Nev@@ 513
ators 513
bic@@ 513
ole@@ 513
semble 513
ʼ@@ 513
新@@ 513
bed 512
cher@@ 512
enna 512
parti@@ 512
tag@@ 512
Ν@@ 512
Olympic 511
Popular 511
endo 511
law@@ 511
umi 511
Haz@@ 510
Nig@@ 510
elt@@ 510
loss@@ 510
oshi 510
ées 510
chart 509
cord 509
etz 509
ls@@ 509
rio 509
Casa 508
alar@@ 508
gres@@ 508
igher 508
inen 508
long 508
place 508
Moh@@ 507
hop 507
marine 507
stock 507
ù 507
set@@ 506
two 506
ʔ@@ 506
Τ@@ 506
Alexand@@ 505
Ba 505
Emper@@ 505
adel@@ 505
utive 505
corpor@@ 504
lac@@ 504
Compan@@ 503
Stanley 503
ata@@ 503
lich@@ 503
‐ 503
Ha 502
emi 502
opa 502
sex 502
ţ@@ 502
Bour@@ 501
Dipl@@ 501
berger 501
esper@@ 501
iste 501
stars 501
Christ 500
Distribu@@ 500
Juni@@ 500
Kid@@ 500
Lom@@ 500
Must@@ 500
Regional 500
arian 500
only 500
sou@@ 500
цар 500
北@@ 500
Heinrich 499
gar 499
album 498
Alt@@ 496
Sa 496
obr@@ 496
Ł@@ 496
Dies@@ 495
Ost@@ 495
bahn 495
hen 495
isten 495
ophie 495
oul 495
pet@@ 495
sel 495
spo@@ 495
ères 495
Μ@@ 495
omon 494
shire 494
ė 494
、 494
Ab 493
Anne 493
Kunst@@ 493
causa 493
mari@@ 493
͡ 493
Bag@@ 492
Ministr@@ 492
door 492
ingham 492
ór@@ 492
ן 492
Hid@@ 490
Wayne 490
eff 490
evi@@ 490
nam 490
zar@@ 490
lier 489
ograp@@ 489
public@@ 489
tou@@ 489
Mex@@ 488
Stephen 488
alog 488
arina 488
enz 488
ι 488
2nd 487
Mey@@ 487
Moder@@ 487
Slov@@ 487
boy@@ 487
kis@@ 487
omin@@ 487
Amer@@ 486
Had@@ 486
Δ 486
Athle@@ 485
Creek 485
Mann@@ 485
mini 485
ɛ@@ 485
city 484
emer@@ 484
entes 484
pay 484
Ann 483
Ent@@ 483
Ross 483
Samuel 483
Zh@@ 483
` 483
aires 483
dan@@ 483
front 483
song 483
американски 483
heit 482
zone 482
ο@@ 482
Bundes@@ 481
Lud@@ 481
ago@@ 481
bak@@ 481
eing 481
essor 481
jan@@ 481
Chin@@ 480
aries 480
ehr@@ 480
ful@@ 480
sberg 480
Maur@@ 479
Reser@@ 479
dance 479
Jar@@ 478
adem@@ 478
rig@@ 478
sun@@ 478
troit 478
ņ@@ 478
ȃ@@ 478
Rak@@ 477
atu 477
home 477
ino@@ 477
θ@@ 477
ρ 477
Rober@@ 476
alli 476
friend 476
met 476
then 476
va@@ 476
Dj@@ 475
Hockey 475
Steph@@ 475
about 475
elling 475
mir 475
sing@@ 475
Bog@@ 474
Theod@@ 474
brach@@ 474
m. 474
ál@@ 474
， 474
Egyp@@ 473
dale 473
jur@@ 473
Bruce 472
Grim@@ 472
Laz@@ 472
igi 472
position 472
Χ@@ 472
Bras@@ 471
Norman 471
alle 471
bre 471
hur@@ 471
sea 471
teen 471
versit@@ 471
ı@@ 471
Ӏ@@ 471
Adel@@ 470
Ludwig 470
avia 470
tun@@ 470
Libr@@ 469
Ord@@ 469
atia 469
austr@@ 469
aye 469
ging 469
hibi@@ 469
mode 469
sion@@ 469
stat@@ 469
wak@@ 469
Andre@@ 468
Sonn@@ 468
abor@@ 468
burgh 468
istic 468
itter 468
kno@@ 468
vet@@ 468
wen 468
ě 468
镇 468
Four@@ 467
elas 467
nak@@ 467
person@@ 467
District 466
afé 466
han@@ 466
main 466
Stud@@ 465
Von 465
ces@@ 465
isions 465
mash@@ 465
por 465
sat@@ 465
ados 464
gor@@ 464
ე 464
Dep@@ 463
Mart 463
Naz@@ 463
Scotland 463
ekt 463
iment 463
milit@@ 463
Berliner 462
Braz@@ 462
German@@ 462
dra@@ 462
ered 462
through 462
ya@@ 462
year 462
Jason 461
Kath@@ 461
Ris@@ 461
atri@@ 461
hil@@ 461
tari@@ 461
Zer@@ 460
frag@@ 460
mis 460
small 460
Brasil 459
Herr@@ 459
Jacques 459
Welt 459
ential 459
ers@@ 459
ettes 459
inning 459
lichen 459
red@@ 459
Papa 458
ible 458
pod@@ 458
ον 458
XV@@ 457
cent 457
emo 457
obj@@ 457
þ@@ 457
Λ@@ 457
Francis 456
uses 456
Geor@@ 455
Schne@@ 455
Yak@@ 455
hen@@ 455
ief 455
oder 455
武@@ 455
aven@@ 454
lea 454
ologi@@ 454
onde 454
video 454
Hut@@ 453
agin@@ 453
quin@@ 453
shot 453
ß@@ 453
Fen@@ 452
Kunst 452
zon@@ 452
王 452
Gramm@@ 451
Harr@@ 451
Personal 451
Scottish 451
eh 451
encer 451
gan 451
tent 451
Alg@@ 450
eda 450
leb@@ 450
Ere@@ 449
Gordon 449
Rud@@ 449
cell 449
gesch@@ 449
hold 449
Jug@@ 448
Mec@@ 448
alit@@ 448
tas 448
uru 448
други 448
Gle@@ 447
Navy 447
ican 447
istes 447
Charlotte 446
Kansas 446
enda 446
nt 446
vision 446
Ž@@ 446
Mark@@ 445
Roma 445
Yar@@ 445
area 445
dat@@ 445
mel 445
straße 445
xon 445
Toronto 444
Vig@@ 444
kt@@ 444
uj@@ 444
Ä@@ 444
Gan@@ 443
Harvard 443
Ireland 443
Schw@@ 443
than 443
they 443
ի@@ 443
Adri@@ 442
Robin 442
Soviet 442
care 442
inv@@ 442
isto 442
oka 442
rim@@ 442
spi@@ 442
Des 441
acht 441
eurs 441
isia 441
known 441
É 441
Jul@@ 440
Russell 440
c. 440
deutsche 440
elen 440
flo@@ 440
Fili@@ 439
Fort 439
burn 439
dir 439
dres@@ 439
Ohio 438
Salv@@ 438
ante@@ 438
isen 438
cir@@ 437
rad@@ 437
ȃ 437
ח@@ 437
Sol 436
aller 436
atur 436
shi@@ 436
öh@@ 436
ų 436
зата 436
ძ@@ 436
Franç@@ 435
Wak@@ 435
Willi@@ 435
mani@@ 435
ning@@ 435
rev@@ 435
ulation 435
vert 435
Winter@@ 434
game 434
minor 434
phot@@ 434
stan 434
té 434
ν@@ 434
ー@@ 434
Chief 433
Kob@@ 433
Patrick 433
allas 433
get@@ 433
uter 433
Уе@@ 433
Armen@@ 432
lara 432
roc@@ 432
ahl@@ 431
elek@@ 431
kad@@ 431
para 431
uz 431
Най 431
Instituto 430
Thé@@ 430
cut 430
ria 430
say 430
ð 430
bass@@ 429
onne 429
ר 429
Gros@@ 428
Uz@@ 428
cons@@ 428
eb 428
eg 428
enty 428
mine 428
put@@ 428
stop 428
Apr@@ 427
Dres@@ 427
Philadelphia 427
Pho@@ 427
Singapore 427
estra 427
size 427
vern@@ 427
DDR 426
Leo 426
ois 426
seg@@ 426
ê 426
Hr@@ 425
Harris 424
Mann 424
bos@@ 424
div@@ 424
Ş@@ 424
След 424
Bib@@ 423
Britain 423
Nep@@ 423
Parti@@ 423
kam@@ 423
led@@ 423
shar@@ 423
Conserv@@ 422
Dok@@ 422
Jewish 422
eil@@ 422
icio 422
jam@@ 422
nec@@ 422
sula 422
昌@@ 422
Anthony 421
Catal@@ 421
EU 421
Nur@@ 421
box@@ 421
lut@@ 421
aup@@ 420
pre 420
pression 420
Α 420
ү 420
nie 419
¾ 419
ò@@ 419
Ż@@ 419
Hugo 418
Sieg@@ 418
Syr@@ 418
qu 418
school 418
wiki 418
Administration 417
Arist@@ 417
Ern@@ 417
Gur@@ 417
Raf@@ 417
avi 417
cau@@ 417
ict 417
liter@@ 417
plant@@ 417
pros@@ 417
Zeit 416
histor@@ 416
lich 416
saw 416
û@@ 416
Amat@@ 415
Wis@@ 415
tie 415
umo 415
ɪ@@ 415
Cec@@ 414
Chel@@ 414
Hier@@ 414
Sebasti@@ 414
Vietnam 414
conn@@ 414
iler 414
imin@@ 414
urt 414
мача 414
כ@@ 414
Bill@@ 413
Civil 413
eira 413
list@@ 413
ped@@ 413
spe@@ 413
times 413
Ener@@ 412
Matthe@@ 412
aux@@ 412
dies 412
sta@@ 412
wick 412
Es 411
cus@@ 411
tur 411
ì@@ 411
յ@@ 411
Shir@@ 410
eras 410
hav@@ 410
პ@@ 410
erk@@ 409
honor@@ 409
irs 409
vat@@ 409
KK 408
Koh@@ 408
adet 408
ahn 408
eding 408
idad 408
mouth 408
sav@@ 408
uga 408
Chal@@ 407
Spor@@ 407
Turk@@ 407
aman 407
atures 407
ender@@ 407
nach 407
ored 407
ours 407
umia 407
én 407
gas 406
sti 406
thy 406
uka 406
ɛ 406
ρ@@ 406
Gom@@ 405
Landes@@ 405
aff 405
agi@@ 405
atin 405
eline 405
iness 405
page 405
schen 405
≥ 405
Bei@@ 404
François 404
Infan@@ 404
Manuel 404
Rugby 404
but@@ 404
ific@@ 404
most 404
tav@@ 404
ɔ@@ 404
ός 404
י 404
5,000 403
April 403
cad@@ 403
orch@@ 403
their 403
uro 403
ÿ@@ 403
ş 403
менти 403
Christopher 402
Ein 402
Ng@@ 402
Vid@@ 402
cou@@ 402
pen 402
tly 402
utt@@ 402
ž 402
Era 401
Fried@@ 401
Lec@@ 401
Rech@@ 401
ahr@@ 401
contin@@ 401
lave 401
ort@@ 401
oza 401
правят 401
ק@@ 401
ת@@ 401
Roy 400
Russ@@ 400
e. 400
emen 400
yard 400
Ρ@@ 400
（ 400
agne 399
apar@@ 399
estro 399
xo@@ 399
ө 399
Grant 398
Oscar 398
Regiment 398
Sur 398
olf 398
prop@@ 398
Route 397
Thompson 397
Ukr@@ 397
born 397
coordin@@ 397
ism@@ 397
num@@ 397
onale 397
tes@@ 397
wards 397
Ś@@ 397
Reich@@ 396
ande 396
cle@@ 396
eber@@ 396
kar 396
trag@@ 396
uda 396
פ@@ 396
Dame 395
Tai@@ 395
atz 395
reich@@ 395
rid@@ 395
tru@@ 395
ė@@ 395
λ@@ 395
ւ@@ 395
Commission 394
Kaiser 394
lug@@ 394
´ 394
води 394
Baker 393
Gö@@ 393
President 393
black 393
dorf 393
prom@@ 393
rel 393
sol 393
uli 393
vio 393
ț@@ 393
‌ 393
speed 392
tsch@@ 392
ș@@ 392
Government 391
Tim 391
bridge 391
Feli@@ 390
Griff@@ 390
Howard 390
Phi 390
kes 390
mé@@ 390
ob 390
oten 390
patr@@ 390
Carter 389
Jacob 389
alogue 389
ished 389
onda 389
φ@@ 389
ҳ@@ 389
portation 388
reo 388
rug@@ 388
source 388
Роден 388
Anderson 387
Andy 387
Luis 387
arte 387
icas 387
late 387
pool 387
tard 387
χ@@ 387
тази 387
ל 387
Roman@@ 386
high 386
produc@@ 386
standing 386
tem 386
Sah@@ 385
acre 385
ativ@@ 385
ouv@@ 385
Gut@@ 384
Ryan 384
bran@@ 384
fin 384
function 384
hatt@@ 384
jus@@ 384
may@@ 384
part@@ 384
radio 384
Benjamin 383
Moun@@ 383
Rav@@ 383
Werke 383
ammlung 383
anj@@ 383
asha 383
tran@@ 383
ζ 383
Auf@@ 382
Isa@@ 382
Madrid 382
bei 382
entum 382
multi@@ 382
over@@ 382
regi@@ 382
tour 382
âteau 382
Corpor@@ 381
Glas@@ 381
auc@@ 381
Eis@@ 380
Kamp@@ 380
auf@@ 380
gran@@ 380
ina@@ 380
ladi@@ 380
sian 380
ε@@ 380
Azer@@ 379
Stal@@ 379
avier 379
jar@@ 379
leh@@ 379
quet 379
tains 379
trong 379
路 379
） 379
angle 378
apon 378
domin@@ 378
ordin@@ 378
rad 378
sab@@ 378
won 378
ń 378
ω@@ 378
може 378
Isab@@ 377
Japanese 377
Sib@@ 377
aun 377
bek@@ 377
fran@@ 377
stri@@ 377
wn@@ 377
ś 377
Alaska 376
Congress 376
Moore 376
kri@@ 376
tul@@ 376
ĕ 376
Nelson 375
Sek@@ 375
elop@@ 375
pio 375
resp@@ 375
ò 375
‚ 375
Mexico 374
Zu@@ 374
fir@@ 374
nan 374
pass@@ 374
records 374
tz@@ 374
ӧ@@ 374
ennes 373
inger@@ 373
nos 373
otom@@ 373
ҡ 373
Carrera 372
him@@ 372
kov 372
uri@@ 372
utz 372
vir 372
yar@@ 372
рото 372
Leben 371
based 371
bez@@ 371
eces 371
embr@@ 371
française 371
för@@ 371
hist@@ 371
kab@@ 371
kit@@ 371
oration 371
Georg 370
anie 370
aza 370
jan 370
Aug@@ 369
NFL 369
Wales 369
agan 369
aten 369
centr@@ 369
ped 369
unda 369
vita 369
долф 369
Robinson 368
Wolf@@ 368
bec@@ 368
meth@@ 368
pia 368
public 368
tribu@@ 368
Fest@@ 367
Oy 367
bid@@ 367
erst@@ 367
maxim@@ 367
mm@@ 367
service 367
weg@@ 367
Iz@@ 366
Jor@@ 366
abol@@ 366
riv@@ 366
ley@@ 365
Grund@@ 364
Nicol@@ 364
Sic@@ 364
ael 364
ehr 364
ions 364
magazine 364
order 364
yar 364
ּ@@ 364
Pedro 363
Roberto 363
atory 363
cali@@ 363
ָ@@ 363
Constitu@@ 362
Hamilton 362
ana@@ 362
esch@@ 362
feld 362
ife 362
jit@@ 362
mill@@ 362
perf@@ 362
verl@@ 362
who 362
zin@@ 362
är 362
ő@@ 362
ҫ@@ 362
Bernard 361
Giovanni 361
Hymenoptera 361
Islands 361
chn@@ 361
quir@@ 361
ô 361
ɪ 361
Sud 360
ude 360
umba 360
were 360
Fern@@ 359
Laurent 359
atura 359
brun@@ 359
contempor@@ 359
illi 359
tat@@ 359
Å@@ 359
் 359
ἀ@@ 359
∞ 359
Alber@@ 358
Houston 358
Organisation 358
Stif@@ 358
Vincent 358
arren 358
athan 358
encia 358
undo 358
ène 358
Hart@@ 357
Schul@@ 357
Stockh@@ 357
lang@@ 357
n.@@ 357
sar 357
ṭ@@ 357
Patri@@ 356
europ@@ 356
pit@@ 356
rog@@ 356
rom 356
河@@ 356
gas@@ 355
ӗ@@ 355
შ@@ 355
cru@@ 354
eval 354
kho@@ 354
olas 354
othe@@ 354
tice 354
ḥ@@ 354
↑ 354
Esc@@ 353
Teatro 353
Ung@@ 353
neo 353
online 353
vy@@ 353
Bach@@ 352
Suisse 352
acter@@ 352
app 352
dot@@ 352
hip@@ 352
tori@@ 352
wie 352
Hub@@ 351
Wander@@ 351
aling 351
ark 351
bom@@ 351
gene 351
icht 351
Costa 350
Leb@@ 350
Musik@@ 350
cover 350
deutschen 350
good 350
lav 350
oda 350
oil 350
olm 350
others 350
univers@@ 350
Хайнрих 350
пъ@@ 350
Ich@@ 349
allo 349
anch@@ 349
match 349
mix@@ 349
oms 349
urs@@ 349
yk@@ 349
¡ 349
Anh@@ 348
Claude 348
Ian 348
Kazak@@ 348
Portugal 348
aron 348
bol 348
dru@@ 348
enburg 348
gers 348
sn@@ 348
some 348
县@@ 348
Dani@@ 347
Gary 347
Hermann 347
Sas@@ 347
blin 347
fan 347
̃ 347
Centro 346
borough 346
ener@@ 346
four 346
hof 346
ime@@ 346
ref@@ 346
â 346
Tir@@ 345
geb@@ 345
image 345
ongo 345
ź@@ 345
Assist@@ 344
Bass@@ 344
Chi 344
Kro@@ 344
Kultur@@ 344
Wiener 344
actions 344
chu@@ 344
dez 344
eger 344
emia 344
him 344
icro@@ 344
omen 344
pis@@ 344
test@@ 344
uel@@ 344
diction 343
team 343
της 343
Frances@@ 342
cic@@ 342
hang 342
Agu@@ 341
His@@ 341
Rug@@ 341
cula 341
erine 341
sei 341
umen 341
wes@@ 341
zel@@ 341
zia 341
兴@@ 341
Rah@@ 340
Staats@@ 340
Stad@@ 340
format 340
ran 340
rue 340
金@@ 340
2,000 339
André 339
Clau@@ 339
Hawai@@ 339
Jersey 339
itt 339
kop@@ 339
sci@@ 339
science 339
™ 339
⟩ 339
Henri 338
Sarah 338
edi 338
iter@@ 338
math@@ 338
mina 338
oba 338
ís 338
ɔ 338
定@@ 338
文@@ 338
Flug@@ 337
Funk@@ 337
Hass@@ 337
Hau@@ 337
Jes@@ 337
Kri@@ 337
Sud@@ 337
dar 337
estig@@ 337
má@@ 337
techn@@ 337
Assembly 336
Gabriel 336
amor 336
ampa 336
andro 336
anz 336
article 336
ensi@@ 336
fos@@ 336
histoire 336
scher 336
she 336
三@@ 336
德@@ 336
水@@ 336
Benn@@ 335
Kak@@ 335
ao@@ 335
esen 335
festiv@@ 335
nation 335
Ped@@ 334
meister 334
ring 334
run 334
König@@ 333
geschichte 333
midt 333
popul@@ 333
rich 333
Ü 333
Khan 332
Schl@@ 332
enses 332
exp@@ 332
iche 332
istan 332
kum@@ 332
nin 332
ois@@ 332
osi 332
vas 332
while 332
ça 332
ხ@@ 332
Buch@@ 331
Eug@@ 331
Jew@@ 331
Jonathan 331
adu@@ 331
agnie 331
dil@@ 331
educ@@ 331
kas@@ 331
новата 331
оръ@@ 331
10,000 330
Indonesia 330
atos 330
enko 330
isse 330
tribut@@ 330
ves@@ 330
Illinois 329
Infr@@ 329
cer 329
ched 329
enter@@ 329
itali@@ 329
make 329
ondo 329
pera 329
teri 329
María 328
club 328
ecia 328
hin 328
ros 328
Feder@@ 327
Martin@@ 327
Raj@@ 327
Tib@@ 327
kle@@ 327
used 327
wich 327
Ferdinand 326
Form 326
Gren@@ 326
Grupo 326
Register 326
anes 326
chor@@ 326
mov@@ 326
ograf@@ 326
жител@@ 326
ј 326
ի 326
---- 325
Educ@@ 325
comm@@ 325
inos 325
play@@ 325
tech@@ 325
tiva 325
Anton@@ 324
Campbell 324
Mang@@ 324
cab@@ 324
days 324
hem@@ 324
nea 324
tros 324
u. 324
1,000 323
Ali 323
Gesch@@ 323
Say@@ 323
Stell@@ 323
after 323
alan@@ 323
amar@@ 323
ester@@ 323
plac@@ 323
zu@@ 323
ül@@ 323
крал 323
ַ@@ 323
Geb@@ 322
Johannes 322
Schwe@@ 322
aging 322
aim@@ 322
ference 322
ided 322
ilo 322
kia 322
ners 322
yer@@ 322
Cape 321
Kais@@ 321
dir@@ 321
ectiv@@ 321
iza 321
ms@@ 321
pped 321
sep@@ 321
unde 321
vice 321
¬ 321
ás@@ 321
Carr@@ 320
Hoff@@ 320
RNA 320
Rest@@ 320
illet 320
kap@@ 320
sanc@@ 320
Barbara 319
Hoch@@ 319
grand 319
harmon@@ 319
igen 319
ily 319
Sta@@ 318
cen@@ 318
history 318
jer@@ 318
schule 318
was@@ 318
Argent@@ 317
Lawrence 317
etti@@ 317
phi@@ 317
rech@@ 317
âtre 317
њ@@ 317
Alabama 316
Director 316
Wien 316
bt 316
camp@@ 316
deo 316
docum@@ 316
expres@@ 316
maj@@ 316
number 316
tile 316
verein 316
10. 315
Franklin 315
Fred 315
Kus@@ 315
bles 315
double 315
essed 315
fiel@@ 315
hous@@ 315
inge 315
last 315
surviv@@ 315
tras@@ 315
ʻ@@ 315
Luft@@ 314
Probl@@ 314
asing 314
gun@@ 314
lik 314
ney@@ 314
usalem 314
î 314
市 314
Chu@@ 313
Graf@@ 313
digital 313
gens 313
yel@@ 313
emann 312
⟨ 312
Kent 311
arn 311
omp@@ 311
tex@@ 311
ʒ 311
нови 311
Ard@@ 310
Italy 310
acu@@ 310
afric@@ 310
dou@@ 310
ellen@@ 310
owa 310
post@@ 310
rep@@ 310
union 310
ʃ 310
ס@@ 310
临@@ 310
Chelsea 309
edition 309
ници 309
љ@@ 309
ӱ@@ 309
・ 309
Kevin 308
Süd@@ 308
aden 308
icht@@ 308
sign@@ 308
wake 308
χ 308
Emil@@ 307
alier 307
fera 307
foot@@ 307
illon 307
people 307
speci@@ 307
yak@@ 307
Ú@@ 307
тична 307
ც@@ 307
cup@@ 306
idos 306
piano 306
целия 306
Ү@@ 306
Fot@@ 305
Ital@@ 305
Malaysia 305
Miguel 305
cid@@ 305
gli@@ 305
got 305
ingi@@ 305
syst@@ 305
tax@@ 305
tri 305
Eb@@ 304
ahl 304
aler 304
azi 304
eve 304
gest@@ 304
iku 304
zam@@ 304
国@@ 304
Ek@@ 303
Hali@@ 303
Hind@@ 303
Hist@@ 303
Prov@@ 303
W. 303
Yard@@ 303
clav@@ 303
cog@@ 303
eppe 303
inda 303
loy@@ 303
mam@@ 303
ét@@ 303
брежи@@ 303
June 302
Nouvelle 302
Stewart 302
bay 302
cum@@ 302
dida 302
ized 302
studio 302
Found@@ 301
Freder@@ 301
Wein@@ 301
ellen 301
pend@@ 301
sich@@ 301
Barcelona 300
Dollar 300
Fritz 300
Mez@@ 300
Missouri 300
Nad@@ 300
best 300
down@@ 300
iten 300
lis@@ 300
ometr@@ 300
sym@@ 300
ubil@@ 300
ution@@ 300
Amsterdam 299
Hamburg 299
Rek@@ 299
figh@@ 299
ping 299
Bush 298
ako 298
aku@@ 298
enst@@ 298
eye 298
first 298
organ@@ 298
sal 298
too 298
zw@@ 298
ṣ@@ 298
Ef@@ 297
Haus 297
Marsh@@ 297
cav@@ 297
isme 297
rate 297
stitu@@ 297
tag 297
thi 297
yla 297
ör 297
̥ 297
永@@ 297
Marco 296
Oy@@ 296
Zar@@ 296
bay@@ 296
berg@@ 296
det 296
entry 296
made 296
pad@@ 296
temps 296
Copa 295
Lug@@ 295
Mia 295
indic@@ 295
sible 295
visible 295
ί@@ 295
Hz 294
Matt 294
Roh@@ 294
baba 294
inas 294
rez 294
yu@@ 294
林@@ 294
Hamp@@ 293
bel 293
folk 293
national 293
phia 293
sports 293
termin@@ 293
ه 293
España 292
Musik 292
atique 292
grande 292
sein 292
морска 292
َ@@ 292
Estr@@ 291
Their 291
blan@@ 291
odi 291
oire 291
publ@@ 291
äs@@ 291
Hous@@ 290
Program@@ 290
aving 290
usha 290
Josef 289
Kentucky 289
Lé@@ 289
aum 289
dam 289
mig@@ 289
slo@@ 289
stadt 289
äh@@ 289
ン@@ 289
Greek 288
Rodr@@ 288
ament@@ 288
bourg 288
ensa 288
etas 288
naz@@ 288
sak@@ 288
sound 288
tad@@ 288
tero 288
ʃ@@ 288
Γ@@ 288
↔ 288
行政@@ 288
都@@ 288
10.000 287
Gustav 287
Louise 287
bü@@ 287
ción 287
tend@@ 287
Свети 287
щат 287
Crist@@ 286
Mün@@ 286
anas 286
bio 286
eon@@ 286
ever@@ 286
gul@@ 286
hap@@ 286
mess@@ 286
mil 286
phys@@ 286
añ@@ 285
control 285
gericht 285
igner 285
ional 285
tee 285
there 285
what 285
що 285
川@@ 285
Anton 284
Argentina 284
Mosk@@ 284
Santo 284
squ@@ 284
tum@@ 284
vel 284
which 284
高@@ 284
5.000 283
Atlanta 283
edil@@ 283
fiction 283
ised 283
pose 283
rou@@ 283
tir 283
tische 283
ã 283
üm@@ 283
ία 283
Ъ@@ 283
Hoh@@ 282
Rach@@ 282
bah@@ 282
edra 282
iso 282
open@@ 282
path@@ 282
thu@@ 282
verw@@ 282
weg 282
¥ 282
Ó@@ 282
ť 282
чава 282
Adams 281
Lehr@@ 281
Pablo 281
Zw@@ 281
court 281
gence 281
tivo 281
uti 281
Є@@ 281
ћ 281
Ӏ 281
11. 280
Hof@@ 280
Margaret 280
Pam@@ 280
Thu@@ 280
anca 280
ive 280
lines 280
med 280
uto 280
éro@@ 280
Deutschen 279
Ichneumonidae 279
atre 279
ede@@ 279
erte 279
espe@@ 279
ision@@ 279
platz 279
stage 279
util@@ 279
Ҡ@@ 279
Lok@@ 278
Philippe 278
Raymond 278
Sever@@ 278
audi@@ 278
oci@@ 278
rat@@ 278
studi@@ 278
träge 278
v. 278
whe@@ 278
ι@@ 278
Iowa 277
Santiago 277
Sok@@ 277
alie 277
anto 277
ecti@@ 277
hips 277
iner@@ 277
key@@ 277
olar 277
tei 277
Ա@@ 277
տ@@ 277
Ander@@ 276
Andreas 276
Indiana 276
anni 276
hot@@ 276
pir@@ 276
sai 276
sten@@ 276
ulia 276
ña 276
τ 276
епо@@ 276
ἐ@@ 276
John@@ 275
Lucas 275
Mar 275
Mek@@ 275
Oliver 275
ident@@ 275
olar@@ 275
urg 275
ʼ 275
Ω 275
Austria 274
Dau@@ 274
Mau@@ 274
September 274
project 274
uba 274
Andrea 273
Wissen@@ 273
iterran@@ 273
phe 273
ren 273
title 273
train 273
կ@@ 273
Lie@@ 272
ained 272
dav@@ 272
perior 272
pris@@ 272
sag@@ 272
sto@@ 272
wald 272
ט@@ 272
晋@@ 272
Georges 271
abo@@ 271
atu@@ 271
dul@@ 271
inet 271
olan 271
say@@ 271
status 271
ù@@ 271
Una 270
bibli@@ 270
burger 270
just 270
Φ@@ 270
избо@@ 270
Entwicklung 269
Frederick 269
Maurice 269
deux 269
fru@@ 269
full 269
gu 269
gues 269
possible 269
seud@@ 269
stati@@ 269
suit 269
uku 269
undi 269
Edu@@ 268
Stadt@@ 268
gil@@ 268
homme 268
mund 268
timestamp 268
Æ@@ 268
ße 268
王@@ 268
Bruno 267
Fernando 267
För@@ 267
Journ@@ 267
Zentr@@ 267
itzer 267
κα@@ 267
Catholic 266
Herbert 266
Kop@@ 266
Liverpool 266
aland 266
been 266
comes 266
manuel 266
oren 266
rim 266
vom 266
Í@@ 266
ɑ@@ 266
Β@@ 266
ִ@@ 266
Inform@@ 265
conf@@ 265
ending 265
ographie 265
ologische 265
éc@@ 265
és@@ 265
ǎ@@ 265
Bish@@ 264
coron@@ 264
evi 264
haw@@ 264
international 264
old@@ 264
sus@@ 264
tiz@@ 264
tras 264
ø 264
上@@ 264
陵@@ 264
0s 263
Haus@@ 263
Museo 263
jun@@ 263
kunde 263
kö@@ 263
prit 263
r. 263
Ј@@ 263
Julius 262
Many 262
Portu@@ 262
apo 262
buil@@ 262
head@@ 262
ilian 262
inci 262
mai 262
prob@@ 262
yana@@ 262
Ce 261
Histori@@ 261
Pennsylvania 261
cour@@ 261
eston 261
fica 261
hut@@ 261
illustr@@ 261
orial 261
ël 261
Rey 260
alled 260
coming 260
enas 260
eres 260
iller@@ 260
its@@ 260
rab@@ 260
schaften 260
Öster@@ 260
ät 260
κ 260
итава 260
ג@@ 260
December 259
Kem@@ 259
Kö@@ 259
estar 259
lah 259
lie@@ 259
tail 259
「 259
Italian 258
Notre 258
Rome 258
aring 258
bad@@ 258
enden 258
jug@@ 258
mont@@ 258
offic@@ 258
teur 258
zeug@@ 258
ös@@ 258
」 258
Kennedy 257
Leipzig 257
Straße 257
Vall@@ 257
alth 257
arab@@ 257
eren 257
illed 257
inj@@ 257
pom@@ 257
thre@@ 257
unga 257
ων 257
ното 257
Cruz 256
Deux 256
Herb@@ 256
Jahr@@ 256
Kay@@ 256
Mw@@ 256
Sá@@ 256
Yun@@ 256
americana 256
bou@@ 256
fro@@ 256
physi@@ 256
scienti@@ 256
yat@@ 256
Ai 255
Benedi@@ 255
avec 255
faire 255
sist@@ 255
tige 255
wit@@ 255
ļ@@ 255
∈ 255
Ingen@@ 254
Oregon 254
Restaur@@ 254
atori@@ 254
aught 254
big 254
bour@@ 254
commun@@ 254
ege 254
eig@@ 254
kus@@ 254
once 254
oral 254
party 254
pes@@ 254
tores 254
ْ@@ 254
Michigan 253
Mong@@ 253
Serv@@ 253
Zur 253
bras 253
chang@@ 253
death 253
funk@@ 253
kshire 253
ogen 253
tiv 253
urban 253
ús@@ 253
ξ 253
イ@@ 253
子 253
Dakota 252
Kara 252
Nicolas 252
Produ@@ 252
São 252
aged 252
ayi 252
how 252
ober@@ 252
toria 252
when 252
Margar@@ 251
Politi@@ 251
Pub@@ 251
Tennessee 251
Tube 251
acts 251
eim 251
fili@@ 251
jed@@ 251
saf@@ 251
site 251
white 251
ativa 250
eaux 250
engine 250
grav@@ 250
nis@@ 250
obi 250
raine 250
א 250
Colorado 249
ampton 249
atik 249
ayr@@ 249
fu 249
hat 249
trad@@ 249
龙@@ 249
adas 248
aret 248
company 248
év@@ 248
του 248
шампи@@ 248
Dies 247
Mississippi 247
clar@@ 247
eza 247
ismus 247
kes@@ 247
ld 247
sup@@ 247
vida 247
нява 247
Arbeit@@ 246
August@@ 246
Lö@@ 246
Mittel@@ 246
ald@@ 246
angi 246
award 246
eke 246
ense@@ 246
ffe 246
isses 246
kg 246
sun 246
using 246
Antoine 245
Earl 245
Internacional 245
Rafael 245
bres 245
election 245
ied 245
modi@@ 245
pers@@ 245
üh@@ 245
Ε 245
взе@@ 245
München 244
ateur 244
contributor 244
eball 244
ept 244
gruppe 244
mans 244
may 244
nation@@ 244
philosoph@@ 244
such@@ 244
tiers 244
uch 244
ƞ 244
Kurt 243
While 243
antage 243
clus@@ 243
illes 243
kaz@@ 243
leur 243
né 243
quer 243
äm@@ 243
ְ@@ 243
城 243
Kum@@ 242
aller@@ 242
aten@@ 242
cole 242
eden@@ 242
iken 242
umi@@ 242
username 242
zem@@ 242
свят 242
ћ@@ 242
Monte@@ 241
aat 241
azz 241
extr@@ 241
sex@@ 241
writer 241
之@@ 241
alized 240
azar 240
bad 240
lub 240
prof@@ 240
scre@@ 240
sera 240
siè@@ 240
ս@@ 240
ِ@@ 240
石@@ 240
Bapti@@ 239
Desp@@ 239
actor 239
castle 239
comment 239
cut@@ 239
efe 239
eln 239
licher 239
Така 239
წ@@ 239
Nah@@ 238
Rudolf 238
apr@@ 238
bell 238
idar@@ 238
mara 238
production 238
rang@@ 238
rest@@ 238
ses@@ 238
session 238
such 238
yal@@ 238
ğ@@ 238
国 238
Heil@@ 237
Iran 237
Minnesota 237
Nouv@@ 237
alle@@ 237
ations@@ 237
dig 237
econom@@ 237
eines 237
g. 237
gom@@ 237
guit@@ 237
jum@@ 237
management 237
reas 237
rik 237
sitz@@ 237
steri@@ 237
tionn@@ 237
ҙ 237
⅓ 237
Antar@@ 236
Hymen@@ 236
hr 236
rak@@ 236
schi@@ 236
stad@@ 236
trat@@ 236
ác@@ 236
руски 236
Arizona 235
Jose@@ 235
abi 235
back@@ 235
bras@@ 235
tam 235
äd@@ 235
Θ@@ 235
Alberto 234
Frei@@ 234
Tah@@ 234
Wolfgang 234
cas 234
littér@@ 234
museum 234
nicht 234
philos@@ 234
princip@@ 234
pson 234
riere 234
xu@@ 234
ή 234
ψ 234
Adolf 233
Best@@ 233
Columb@@ 233
Españ@@ 233
argent@@ 233
epis@@ 233
esses 233
français 233
moder@@ 233
spap@@ 233
stein@@ 233
theory 233
uu 233
wol@@ 233
бва 233
太@@ 233
山 233
Occ@@ 232
aska 232
raz@@ 232
refer@@ 232
vera 232
Anc@@ 231
Arth@@ 231
Québec 231
Russie 231
acio 231
fier 231
mw@@ 231
sul 231
zon 231
宜@@ 231
ambo 230
eiro 230
histori@@ 230
idas 230
iker 230
little 230
mt@@ 230
oti 230
umbo 230
η@@ 230
добре 230
Alter 229
Brazil 229
Catherine 229
Im 229
Tradi@@ 229
beck 229
class@@ 229
entation 229
essen 229
ras 229
tena 229
wth 229
΄ 229
ниво 229
ӈ@@ 229
Gabri@@ 228
Kie@@ 228
Une 228
auto@@ 228
bec 228
dix 228
eos 228
non@@ 228
occident@@ 228
oise 228
polog@@ 228
Ø@@ 228
Über 228
üs@@ 228
￼ 228
Académie 227
Hai 227
alter 227
burg@@ 227
gian 227
gri@@ 227
iwa 227
journ@@ 227
lé@@ 227
monde 227
russ@@ 227
tek@@ 227
ège 227
Χ 227
ґ@@ 227
道 227
Ave@@ 226
Festiv@@ 226
Ichneum@@ 226
anal@@ 226
annes 226
figur@@ 226
iges 226
odo 226
sam 226
ɨ 226
ῶ@@ 226
Kah@@ 225
Mab@@ 225
Rö@@ 225
eas 225
ebook 225
erc@@ 225
hydro@@ 225
lun@@ 225
natural 225
ης 225
■ 225
Est 224
Mai 224
Trump 224
chte 224
dial 224
git@@ 224
igos 224
lieg@@ 224
oux 224
psych@@ 224
ril 224
sport@@ 224
voy@@ 224
ân 224
ã@@ 224
̓ 224
子@@ 224
12. 223
Aus 223
Nou@@ 223
activ@@ 223
americ@@ 223
atten@@ 223
evol@@ 223
feder@@ 223
gel 223
heim@@ 223
immer 223
olds 223
sik@@ 223
éli@@ 223
Pak@@ 222
aches 222
agre@@ 222
anian 222
camp 222
general 222
oun 222
oven 222
princ@@ 222
œ@@ 222
Η@@ 222
ските 222
Bevölkerung 221
Premio 221
beg@@ 221
ký 221
onga 221
tim 221
verband 221
wealth 221
äger 221
ז@@ 221
Zwe@@ 220
bern@@ 220
dre 220
gemein@@ 220
his@@ 220
icos 220
taire 220
udo 220
ística 220
öz@@ 220
Υ@@ 220
Famil@@ 219
Govern@@ 219
Kran@@ 219
cars 219
fahr@@ 219
ivo 219
jen@@ 219
sort 219
tet 219
uso 219
√ 219
Hamb@@ 218
Nikol@@ 218
Por 218
capit@@ 218
compl@@ 218
itable 218
nership 218
player 218
usse 218
ʕ@@ 218
усп@@ 218
ѧ@@ 218
մ@@ 218
ფ@@ 218
abi@@ 217
alan 217
annel 217
cost@@ 217
eler@@ 217
foc@@ 217
give 217
hau@@ 217
iba 217
ien@@ 217
turn@@ 217
ías 217
特@@ 217
Dah@@ 216
Famili@@ 216
Zam@@ 216
anni@@ 216
anot@@ 216
categ@@ 216
festival 216
hui 216
pop@@ 216
ů@@ 216
ӗ 216
ր 216
Ana 215
Frankfurt 215
July 215
Mara 215
Wisconsin 215
aching 215
auth@@ 215
conc@@ 215
einen 215
estre 215
integr@@ 215
Ö 215
ż 215
σι@@ 215
化@@ 215
Charl@@ 214
Ciudad 214
Feld@@ 214
Hey@@ 214
National@@ 214
Paulo 214
enzo 214
ilg@@ 214
integ@@ 214
ip 214
jos 214
osen 214
ème 214
。 214
厅 214
Jah@@ 213
Santos 213
Spanish 213
Territ@@ 213
Uruguay 213
Ut@@ 213
cours 213
drome 213
score 213
tienne 213
yor@@ 213
Š 213
Queens@@ 212
Werner 212
aban 212
acha 212
edit@@ 212
enen 212
niti@@ 212
onge@@ 212
pole 212
prov@@ 212
trich@@ 212
troph@@ 212
ête 212
υ@@ 212
дето 212
җ@@ 212
գ@@ 212
ὶ 212
ラ@@ 212
ambi@@ 211
fut@@ 211
grad 211
rail 211
venir 211
vu@@ 211
台@@ 211
13. 210
Ehr@@ 210
Gest@@ 210
November 210
Stadt 210
Sé@@ 210
berto 210
complex 210
compos@@ 210
km@@ 210
ships 210
sola 210
ónica 210
занти@@ 210
ղ@@ 210
家@@ 210
日@@ 210
长@@ 210
Gord@@ 209
aje 209
ché 209
design 209
erb@@ 209
fam@@ 209
hand 209
high@@ 209
kim@@ 209
lak@@ 209
lance 209
ppi 209
广@@ 209
Bé@@ 208
Gott@@ 208
Us@@ 208
adio 208
aka@@ 208
crit@@ 208
ership 208
imbo 208
ingia 208
isl@@ 208
kio 208
km 208
nm 208
rest 208
َ 208
ბ 208
ー 208
一@@ 208
元@@ 208
Reich 207
abra 207
deutscher 207
erre 207
features 207
gesellschaft 207
inde 207
lear@@ 207
ously 207
sil 207
зархи@@ 207
ӕ@@ 207
明@@ 207
aden@@ 206
aman@@ 206
isión 206
recht 206
sub 206
τος 206
14. 205
Beng@@ 205
Provin@@ 205
Welt@@ 205
bara 205
eder 205
izi@@ 205
mut 205
sau@@ 205
uer 205
upe 205
vide 205
Its 204
Seb@@ 204
amor@@ 204
apos@@ 204
taine 204
tracks 204
Η 204
ά@@ 204
οι 204
♭ 204
Kant@@ 203
chant 203
enor@@ 203
inden 203
intel@@ 203
ools 203
pain@@ 203
rem 203
suc@@ 203
vent 203
ép@@ 203
ύ@@ 203
Ғ@@ 203
桂@@ 203
Assemb@@ 202
Klo@@ 202
René 202
never 202
probl@@ 202
sand@@ 202
spect@@ 202
usi 202
utz@@ 202
ög@@ 202
ın 202
ʔ 202
̌ 202
лски 202
ният 202
い@@ 202
李@@ 202
Budap@@ 201
Grab@@ 201
angel@@ 201
contra 201
course 201
edral 201
given 201
ose@@ 201
quez 201
roy@@ 201
run@@ 201
zeit 201
µ@@ 201
ň 201
人 201
Bach 200
Dich@@ 200
Rez@@ 200
Sprache 200
Uta@@ 200
adron 200
aled 200
asser 200
direct 200
dist@@ 200
oine 200
sé@@ 200
yet 200
À 200
прави 200
₂ 200
乡 200
小@@ 200
Alexandre 199
Gew@@ 199
Hosp@@ 199
Vy@@ 199
jazz 199
onel 199
ól@@ 199
üb@@ 199
το@@ 199
строител@@ 199
ѧ 199
، 199
Eisen@@ 198
Pé@@ 198
academ@@ 198
afor@@ 198
alifor@@ 198
atz@@ 198
ichte 198
nature 198
next 198
pay@@ 198
pendi@@ 198
religi@@ 198
Γ 198
Stadi@@ 197
UEFA 197
Val 197
eci 197
endorf 197
family 197
gros@@ 197
lungen 197
̆ 197
ѐ@@ 197
Ե@@ 197
Für@@ 196
ayn@@ 196
bourne 196
cathol@@ 196
entin 196
estas 196
fit 196
uel 196
wir@@ 196
zar 196
ño 196
⊕ 196
川 196
Inh@@ 195
Sist@@ 195
Sov@@ 195
books 195
fres@@ 195
ingi 195
leitung 195
network 195
neur@@ 195
pu 195
visi@@ 195
vive 195
ル@@ 195
Dak@@ 194
Gün@@ 194
Haupt@@ 194
Venez@@ 194
Yer@@ 194
bek 194
gend 194
inclu@@ 194
lina 194
צ@@ 194
建@@ 194
Atl@@ 193
Islam@@ 193
Rus 193
Spain 193
aide 193
fig@@ 193
iev@@ 193
mah@@ 193
mann@@ 193
pens@@ 193
sir@@ 193
three 193
years 193
ő 193
ʰ 193
≠ 193
Abu 192
culture 192
hii 192
isti 192
leo 192
porte 192
porting 192
research 192
stand@@ 192
tap@@ 192
ه@@ 192
Groß@@ 191
Müller 191
chev@@ 191
forma 191
human 191
inco 191
kam 191
level 191
market 191
mau@@ 191
sans 191
sev@@ 191
six 191
vu 191
στ@@ 191
малка 191
⅔ 191
東@@ 191
通@@ 191
Jorge 190
Para 190
Pueb@@ 190
aines 190
ait@@ 190
cht@@ 190
cina 190
culp@@ 190
eget@@ 190
elen@@ 190
endra 190
enk@@ 190
ival@@ 190
mid 190
soon 190
ʒ@@ 190
мето 190
Һ@@ 190
Kirche 189
Soh@@ 189
Universidad 189
Wah@@ 189
Wilhel@@ 189
archi@@ 189
dini 189
far 189
hak@@ 189
kim 189
onald 189
story 189
ɑ 189
ξ@@ 189
义@@ 189
Denis 188
Fé@@ 188
chron@@ 188
coll@@ 188
fried 188
greg@@ 188
hid@@ 188
ouver 188
roi 188
social 188
ück 188
ȋ 188
̂ 188
↓ 188
≡ 188
Gonz@@ 187
II. 187
amos 187
language 187
nj@@ 187
Това 187
площ 187
℃ 187
黄@@ 187
Meh@@ 186
Nieder@@ 186
Türk 186
bach@@ 186
clu@@ 186
differ@@ 186
rur@@ 186
vot@@ 186
western 186
zor@@ 186
ɣ@@ 186
και 186
保@@ 186
和@@ 186
直@@ 186
阿@@ 186
Doug@@ 185
Haf@@ 185
Marse@@ 185
Philipp@@ 185
chini 185
ciones 185
ehem@@ 185
idence 185
stitut@@ 185
Leopol@@ 184
Melbourne 184
adul@@ 184
dad@@ 184
dep@@ 184
each 184
egu@@ 184
eko 184
eran 184
erek 184
eten 184
garde 184
grup@@ 184
mexic@@ 184
muz@@ 184
Þ@@ 184
ვ 184
》 184
Eine 183
Elisabeth 183
Ib@@ 183
Kreis@@ 183
brand 183
due 183
electr@@ 183
future 183
hit 183
main@@ 183
pati@@ 183
some@@ 183
suff@@ 183
ón@@ 183
õ 183
ά 183
Вилхе@@ 183
վ@@ 183
ṛ@@ 183
《 183
乐@@ 183
人@@ 183
Gusta@@ 182
Ontario 182
Schi@@ 182
alter@@ 182
anchi 182
artic@@ 182
classi@@ 182
diff@@ 182
durch 182
games 182
issi@@ 182
libre 182
mom@@ 182
tien 182
tik@@ 182
© 182
Alit@@ 181
Bez@@ 181
Dop@@ 181
Fren@@ 181
México 181
Paci@@ 181
Sich@@ 181
auch 181
cara 181
fest@@ 181
grade 181
ieder 181
jour 181
model@@ 181
ologique 181
onte 181
sciences 181
tour@@ 181
wissen@@ 181
ôme 181
Alej@@ 180
Dresden 180
Ira@@ 180
assen 180
entos 180
fen 180
fron@@ 180
pand@@ 180
verg@@ 180
ʿ@@ 180
ד 180
田@@ 180
Arsenal 179
Califor@@ 179
Since 179
ası 179
current 179
deb@@ 179
dek 179
dice 179
enga 179
fem@@ 179
ios 179
publi@@ 179
ün 179
‬ 179
ン 179
Geh@@ 178
dest@@ 178
identi@@ 178
nous 178
them@@ 178
vig@@ 178
ικ@@ 178
Señ@@ 177
Yas@@ 177
eben 177
fund@@ 177
gang 177
har 177
hib@@ 177
length 177
neu@@ 177
shu@@ 177
unia 177
wers 177
ň@@ 177
ź 177
ӄ@@ 177
ῆ@@ 177
Andro@@ 176
Cen@@ 176
Franco 176
Köln 176
Mär@@ 176
Publi@@ 176
chez 176
disco@@ 176
erei 176
fall@@ 176
lung 176
nac@@ 176
resol@@ 176
sell 176
uten 176
ñ 176
Β 176
ας 176
ου 176
Հ@@ 176
ṇ@@ 176
‡ 176
Akademie 175
ainer 175
aub@@ 175
band@@ 175
between 175
compar@@ 175
iny@@ 175
orig@@ 175
take 175
witz 175
zin 175
äng@@ 175
đ@@ 175
Ş 175
Ў 175
Kho@@ 174
Staat@@ 174
Viz@@ 174
alto 174
anst@@ 174
cion@@ 174
erung 174
mez@@ 174
musique 174
ray@@ 174
solo 174
songs 174
tiller@@ 174
ل@@ 174
リ@@ 174
20. 173
Lyon 173
Poland 173
aill@@ 173
analy@@ 173
anl@@ 173
beau@@ 173
erh@@ 173
ests 173
fan@@ 173
hir 173
performance 173
software 173
yana 173
ève 173
ρος 173
ن@@ 173
া@@ 173
华@@ 173
Bres@@ 172
Jap@@ 172
Kik@@ 172
Later 172
Schrif@@ 172
ajo 172
cover@@ 172
ecto 172
efs 172
embran@@ 172
famili@@ 172
hara 172
né@@ 172
offici@@ 172
onc@@ 172
quel@@ 172
wig 172
änder 172
Ə@@ 172
15. 171
aciones 171
imen 171
include 171
institu@@ 171
ÿ 171
Ѣ@@ 171
‏ 171
Guillaume 170
Gymnasium 170
Kag@@ 170
Su 170
ample 170
ayan 170
fig 170
journal 170
oles 170
wart 170
xima 170
étr@@ 170
ín@@ 170
ücke 170
Arkansas 169
Basket@@ 169
Fak@@ 169
Haute 169
Massachusetts 169
Municipal 169
carri@@ 169
escap@@ 169
gaz@@ 169
lage 169
lí@@ 169
pero 169
ural 169
would 169
ί 169
‭ 169
Berg 168
aş@@ 168
dram@@ 168
engo 168
mili@@ 168
onie 168
opin@@ 168
positi@@ 168
zan 168
Ø 168
ӣ 168
լ@@ 168
ք@@ 168
ב 168
庆@@ 168
湖@@ 168
行@@ 168
aning 167
anya 167
arding 167
aum@@ 167
cription 167
egen 167
iria 167
schn@@ 167
tere 167
upon 167
virtu@@ 167
García 166
Kut@@ 166
Verein@@ 166
aily 166
avent@@ 166
eim@@ 166
elem@@ 166
pak@@ 166
portun@@ 166
revol@@ 166
same 166
ération 166
носи 166
Chrysomelidae 165
Luxemb@@ 165
Nel@@ 165
Parliament 165
concer@@ 165
dens@@ 165
destruc@@ 165
legal 165
many 165
must 165
nom 165
nung 165
power@@ 165
ғ 165
ر@@ 165
春@@ 165
沙@@ 165
Anat@@ 164
Guinea 164
Liga 164
bir 164
entre 164
gold 164
iled 164
itr@@ 164
lek@@ 164
lois 164
noi 164
yat 164
ス@@ 164
泉@@ 164
Burg@@ 163
Origin@@ 163
Wur@@ 163
adores 163
aper@@ 163
atives 163
diers 163
emas 163
mando 163
mant@@ 163
program 163
ulo 163
̣ 163
Ο 163
школ@@ 163
Ұ@@ 163
ك@@ 163
ي 163
﻿ 163
Chile 162
Distr@@ 162
Regi@@ 162
Vladimir 162
Wash@@ 162
atrice 162
ently 162
graphi@@ 162
hausen 162
initi@@ 162
proj@@ 162
teria 162
writ@@ 162
zant@@ 162
و 162
ッ@@ 162
leben 161
vill@@ 161
Υ 161
ӧ 161
康@@ 161
Castro 160
Nueva 160
Primera 160
Town@@ 160
Vier@@ 160
held 160
igan 160
kay@@ 160
mich@@ 160
mik@@ 160
modern 160
nucle@@ 160
sever@@ 160
temp@@ 160
албу@@ 160
ア@@ 160
会@@ 160
Administr@@ 159
Estado 159
Milan 159
ellas 159
ergie 159
issue 159
istische 159
tad 159
tent@@ 159
umu 159
郊@@ 159
Ame@@ 158
Finale 158
Mih@@ 158
Province 158
Schloss 158
Sey@@ 158
did 158
fabri@@ 158
parentid 158
prol@@ 158
rá@@ 158
ww@@ 158
élé@@ 158
⁄ 158
五@@ 158
溪@@ 158
1.000 157
Cô@@ 157
Heim@@ 157
Hern@@ 157
Herz@@ 157
Napole@@ 157
Nis@@ 157
Wen@@ 157
acked 157
agog@@ 157
around 157
gew@@ 157
information 157
kari 157
rö@@ 157
tig 157
uvent@@ 157
yas@@ 157
yen@@ 157
zur@@ 157
ǝ 157
Ἀ@@ 157
白@@ 157
道@@ 157
Klein@@ 156
brig@@ 156
exec@@ 156
person 156
plant 156
protein 156
reich 156
sche@@ 156
sek@@ 156
sens@@ 156
theast 156
uren 156
vac@@ 156
without 156
ʊ@@ 156
د@@ 156
် 156
ზ@@ 156
六@@ 156
Afrika 155
González 155
Kauf@@ 155
acid 155
dynam@@ 155
enos 155
esser 155
hac@@ 155
hus@@ 155
nach@@ 155
serve 155
still 155
ubic@@ 155
veau 155
Ā@@ 155
şi 155
ална 155
ו 155
₽ 155
的@@ 155
Ago@@ 154
Region 154
Sü@@ 154
fab@@ 154
führer 154
historia 154
maz@@ 154
minut@@ 154
onstr@@ 154
schafts@@ 154
simil@@ 154
study 154
theater 154
ῖ@@ 154
梁@@ 154
神@@ 154
Colombia 153
Cuba 153
ESCO 153
Fré@@ 153
Nam 153
Universität 153
also 153
amt 153
before 153
cycle 153
elte 153
igr@@ 153
issen 153
itos 153
justice 153
lake 153
operation 153
short 153
sour@@ 153
vania 153
ğ 153
Ω@@ 153
ρο@@ 153
ჭ@@ 153
Bret@@ 152
Virgin@@ 152
amed 152
fici@@ 152
geri 152
large 152
lement 152
mass@@ 152
money 152
plu@@ 152
teurs 152
tista 152
äch@@ 152
üc@@ 152
ια 152
☉ 152
民@@ 152
清@@ 152
Actu@@ 151
Bü@@ 151
Cep@@ 151
Jahre 151
Jim@@ 151
axe 151
chter 151
development 151
famous 151
forme 151
forms 151
local 151
member 151
quel 151
record 151
sant@@ 151
éd@@ 151
ҷ@@ 151
本@@ 151
Fernández 150
Graf 150
Kinder@@ 150
Noctuidae 150
Rodríguez 150
UNESCO 150
Viet@@ 150
amento 150
atro 150
cular 150
done 150
encore 150
event 150
father 150
guerre 150
générale 150
private 150
sine 150
stellung 150
templ@@ 150
woman 150
Ál@@ 150
ει@@ 150
το 150
των 150
க@@ 150
ḥ 150
四@@ 150
汉@@ 150
Christoph@@ 149
Como 149
appen 149
aras@@ 149
articles 149
ağ@@ 149
canc@@ 149
canti@@ 149
jet@@ 149
jud@@ 149
march@@ 149
orb@@ 149
release 149
rol 149
schen@@ 149
seau 149
ľ@@ 149
夏@@ 149
Aires 148
Hochschule 148
Napo@@ 148
Schiff@@ 148
Sri 148
achen 148
during 148
find 148
liga 148
loi 148
note 148
priv@@ 148
said 148
sdorf 148
teilung 148
Λ 148
م@@ 148
市@@ 148
2.000 147
Kirch@@ 147
aina 147
bed@@ 147
genus 147
länd@@ 147
stra@@ 147
unit 147
ám 147
Φ 147
светов@@ 147
ционен 147
17. 146
Akadem@@ 146
Alman@@ 146
Kaf@@ 146
Lü@@ 146
Wald@@ 146
Wür@@ 146
amia 146
bien 146
fis@@ 146
infer@@ 146
kirche 146
mak 146
mechan@@ 146
observ@@ 146
older 146
pig@@ 146
pris 146
sang 146
schul@@ 146
ug 146
valu@@ 146
ún 146
û 146
隶@@ 146
Buenos 145
Frit@@ 145
Grec@@ 145
Lima 145
Maryland 145
Verein 145
adv@@ 145
alition 145
country 145
endel@@ 145
formed 145
imba 145
mr@@ 145
regul@@ 145
sept@@ 145
vide@@ 145
vik@@ 145
working 145
ète 145
ım 145
ש 145
九@@ 145
玉@@ 145
General@@ 144
Nigeria 144
Sold@@ 144
appar@@ 144
caus@@ 144
day@@ 144
division 144
gang@@ 144
gé@@ 144
human@@ 144
jou@@ 144
kara 144
laz@@ 144
liqu@@ 144
move 144
near 144
nomin@@ 144
oteca 144
points 144
terre 144
wur@@ 144
класи@@ 144
Afrique 143
Baba 143
Bek@@ 143
Constant@@ 143
Description 143
Moy@@ 143
affen 143
against 143
arra 143
gare 143
hier@@ 143
ikal@@ 143
provin@@ 143
reduc@@ 143
terr@@ 143
vos 143
ˌ@@ 143
να@@ 143
кият 143
か@@ 143
地@@ 143
Chu 142
Gegen@@ 142
Kinder 142
López 142
SPD 142
autom@@ 142
bao 142
bois 142
chap@@ 142
common 142
guer@@ 142
idential 142
mad 142
mens@@ 142
tries 142
ʷ 142
ֹ@@ 142
Ban 141
again 141
dimen@@ 141
elev@@ 141
great 141
inson 141
king@@ 141
kut@@ 141
lars 141
organiz@@ 141
usu 141
went 141
èle 141
ır@@ 141
ů 141
ή@@ 141
ρι@@ 141
公@@ 141
古@@ 141
Ark@@ 140
Bezir@@ 140
Kenya 140
cross 140
dad 140
droit 140
fight 140
iku@@ 140
imar@@ 140
kup@@ 140
mort 140
nah@@ 140
sent@@ 140
sibil@@ 140
sind 140
spiel 140
ám@@ 140
ön 140
乡@@ 140
仁@@ 140
Escuela 139
Gü@@ 139
Hitler 139
Isra@@ 139
Sä@@ 139
aben 139
assemb@@ 139
awa@@ 139
could 139
ectu@@ 139
energy 139
firm@@ 139
ically 139
irat@@ 139
iß@@ 139
ión 139
professor 139
sof@@ 139
tischen 139
use@@ 139
voir 139
харак@@ 139
թ@@ 139
և@@ 139
ע 139
湘@@ 139
16. 138
Platz 138
Tier@@ 138
Wad@@ 138
bud@@ 138
business 138
champ@@ 138
defin@@ 138
elor 138
erin 138
func@@ 138
général 138
hyp@@ 138
male 138
omba 138
opol@@ 138
rah@@ 138
revision 138
second 138
stel@@ 138
thé@@ 138
tér@@ 138
venti@@ 138
Î@@ 138
érie 138
Ս@@ 138
原@@ 138
19. 137
Giov@@ 137
Olympi@@ 137
Seine 137
acqu@@ 137
adora 137
anii 137
appe@@ 137
awi 137
const@@ 137
ellschaft 137
gö@@ 137
ikan@@ 137
kamp@@ 137
minim@@ 137
namo 137
nez 137
politique 137
seine 137
standard 137
term 137
zas 137
έ@@ 137
ҥ@@ 137
ب@@ 137
س@@ 137
口@@ 137
嘉@@ 137
18. 136
Castil@@ 136
Kör@@ 136
abu 136
amu 136
arias 136
astronom@@ 136
consol@@ 136
curr@@ 136
entale 136
erini 136
euse 136
grave 136
haz@@ 136
inform@@ 136
oja 136
osha 136
patri@@ 136
process 136
sich 136
yet@@ 136
àn 136
ür 136
ű@@ 136
ɨ@@ 136
ќ@@ 136
利@@ 136
吉@@ 136
Kup@@ 135
Lebens@@ 135
Loire 135
Salvador 135
altung 135
application 135
ausen 135
como 135
ensus 135
every 135
gut 135
hay@@ 135
heav@@ 135
ikit@@ 135
istas 135
opera 135
usta@@ 135
wär@@ 135
érieure 135
être 135
Θ 135
Ν 135
ζ@@ 135
θε@@ 135
тият 135
് 135
信@@ 135
惠@@ 135
镇@@ 135
Eduardo 134
Erd@@ 134
Gó@@ 134
Kultur 134
asse@@ 134
conv@@ 134
eş@@ 134
going 134
hun@@ 134
naci@@ 134
race 134
이@@ 134
Río 133
afr@@ 133
forsch@@ 133
juni@@ 133
prec@@ 133
solution 133
tary 133
tham 133
ül 133
ʲ 133
ό 133
Fuer@@ 132
Guerra 132
Hö@@ 132
anan 132
apti@@ 132
attack 132
being 132
effect 132
enin 132
fahrt 132
food 132
iques 132
k. 132
label 132
mez 132
ourg 132
rul@@ 132
sehen 132
stelle 132
zed 132
μα 132
ო 132
し@@ 132
不@@ 132
军 132
成@@ 132
23. 131
Bask@@ 131
Congr@@ 131
Entw@@ 131
Fahr@@ 131
Frau@@ 131
Menschen 131
espace 131
fait 131
paci@@ 131
raf@@ 131
sition 131
tish@@ 131
uko 131
Áng@@ 131
èque 131
ío 131
едно 131
ց@@ 131
侯 131
公 131
合@@ 131
津@@ 131
顺@@ 131
Enrique 130
Minister@@ 130
enant 130
fantas@@ 130
haf@@ 130
petit 130
quier 130
zog 130
ï 130
ɣ 130
Մ@@ 130
ḍ@@ 130
ク@@ 130
Hay 129
Kü@@ 129
Mp@@ 129
Pek@@ 129
Preu@@ 129
altar 129
ases 129
bea 129
colum@@ 129
constitu@@ 129
femme 129
fot@@ 129
kav@@ 129
leurs 129
need 129
oires 129
rés 129
uf 129
unger 129
verte@@ 129
éra 129
̍ 129
Ζ@@ 129
ѝ@@ 129
ト@@ 129
开@@ 129
福@@ 129
Departamento 128
February 128
Mt@@ 128
Schn@@ 128
alam@@ 128
alista 128
amen@@ 128
avy@@ 128
casa 128
commerce 128
direc@@ 128
dér@@ 128
fix@@ 128
giz@@ 128
nig 128
ví@@ 128
ın@@ 128
̈ 128
ح@@ 128
ჩ@@ 128
♯ 128
卫 128
粤@@ 128
阴@@ 128
Belgique 127
Conseil 127
Eurovision 127
Pakistan 127
Partido 127
Salz@@ 127
Studium 127
fort@@ 127
grad@@ 127
inner@@ 127
lanz@@ 127
portes 127
tropolit@@ 127
umes 127
xim@@ 127
éch@@ 127
öd@@ 127
ütz@@ 127
ρα@@ 127
Българ@@ 127
ֶ@@ 127
ὐ@@ 127
› 127
延@@ 127
Kav@@ 126
Schule 126
Tod 126
diffic@@ 126
emos 126
fif@@ 126
ilit@@ 126
mother 126
ople 126
original 126
seri@@ 126
studies 126
tainment 126
öm@@ 126
Тя 126
Ѣ 126
ع@@ 126
レ@@ 126
百@@ 126
長@@ 126
Comme 125
Hannover 125
König 125
Rico 125
aal@@ 125
access 125
adap@@ 125
ambi 125
cros@@ 125
final 125
forte 125
gus@@ 125
heb@@ 125
parall@@ 125
petite 125
yen 125
zek@@ 125
études 125
τα 125
птем@@ 125
ђ@@ 125
ف@@ 125
周@@ 125
尔@@ 125
Dek@@ 124
Kreuz@@ 124
Künst@@ 124
Maine 124
Span@@ 124
Wach@@ 124
Zürich 124
alu@@ 124
esha 124
eño 124
maz 124
mt 124
origine 124
rien 124
schw@@ 124
sent 124
stil@@ 124
tions@@ 124
ís@@ 124
ône 124
όν 124
Ў@@ 124
Има 124
ҥ 124
ӷ@@ 124
Cathol@@ 123
Er 123
Krieg@@ 123
Literatur 123
Nür@@ 123
Preis 123
Prä@@ 123
Sonder@@ 123
Stim@@ 123
alten 123
continu@@ 123
igne 123
minister@@ 123
rar@@ 123
steh@@ 123
treat@@ 123
yor 123
ßen 123
éni@@ 123
ǫ@@ 123
сигур@@ 123
ḫ@@ 123
シ@@ 123
國@@ 123
常@@ 123
马@@ 123
Anto@@ 122
Auf 122
Hü@@ 122
Kommun@@ 122
Puerto 122
Rural 122
République 122
Santi@@ 122
Stuttgart 122
Werk@@ 122
adam@@ 122
aters 122
bili@@ 122
dienst 122
echt 122
ematik 122
eses 122
hall@@ 122
progr@@ 122
ques@@ 122
region 122
rum@@ 122
tai 122
tiques 122
yok@@ 122
young 122
ück@@ 122
üd@@ 122
ψ@@ 122
ӑ 122
բ@@ 122
∅ 122
Frau 121
anat@@ 121
dial@@ 121
films 121
ihre 121
influ@@ 121
ingen@@ 121
later 121
organisation 121
sad@@ 121
square 121
sö@@ 121
zeug 121
ız 121
œur 121
ƒ 121
ʷ@@ 121
ҫ 121
ӄ 121
ـ@@ 121
⅛ 121
カ@@ 121
方@@ 121
花@@ 121
Erebidae 120
Historic 120
Mary@@ 120
Pérez 120
Sos@@ 120
agua 120
alta 120
appro@@ 120
ativo 120
auch@@ 120
elected 120
film@@ 120
front@@ 120
global 120
hydr@@ 120
mot 120
noch 120
numer@@ 120
ologne 120
princi@@ 120
progres@@ 120
trade 120
αν@@ 120
ού@@ 120
Є 120
่ 120
์ 120
◌ 120
21. 119
Bir 119
Malay@@ 119
Sociedad 119
Tsch@@ 119
Türkiye 119
batt@@ 119
diffus@@ 119
diver@@ 119
dos@@ 119
emu 119
etos 119
iden@@ 119
irk 119
liches 119
metr@@ 119
nad@@ 119
neue 119
process@@ 119
requ@@ 119
russe 119
sah@@ 119
summer 119
tradi@@ 119
trag 119
հ@@ 119
ὸ@@ 119
淮@@ 119
Baden 118
Buch 118
Seh@@ 118
Tay@@ 118
Valle 118
dik@@ 118
dyn@@ 118
fique 118
istin 118
loss 118
national@@ 118
present 118
recep@@ 118
result 118
rique 118
schl@@ 118
secre@@ 118
spek@@ 118
vak@@ 118
yal 118
ħ@@ 118
ǝ@@ 118
ي@@ 118
ẋ 118
ἰ@@ 118
Alem@@ 117
Alfre@@ 117
Engl@@ 117
Gé@@ 117
III. 117
Martín 117
Norte 117
Palest@@ 117
Sainte 117
anno@@ 117
aque 117
autor@@ 117
chs 117
elos 117
found 117
ived 117
izo 117
nin@@ 117
ongo@@ 117
ť@@ 117
ʊ 117
た@@ 117
远@@ 117
Poliz@@ 116
Punk@@ 116
Serie 116
Weg 116
Xu@@ 116
Yeni 116
eben@@ 116
eht 116
enso 116
eñ@@ 116
haus@@ 116
keit 116
lige 116
pays 116
season 116
sert 116
tora 116
vier@@ 116
Über@@ 116
ķ@@ 116
άρ@@ 116
ες 116
чето 116
な@@ 116
左@@ 116
Banglad@@ 115
Dans 115
Doppel@@ 115
Kriegs@@ 115
Mit 115
Verte@@ 115
Wasser@@ 115
ange@@ 115
artist 115
azo 115
collection 115
egio 115
enced 115
ensive 115
ersch@@ 115
lost 115
lés 115
thiop@@ 115
uw@@ 115
west@@ 115
zug 115
át 115
óm@@ 115
άν@@ 115
ον@@ 115
ών 115
стъ@@ 115
ър@@ 115
้ 115
と@@ 115
下@@ 115
木@@ 115
青@@ 115
Gör@@ 114
January 114
Más 114
Represent@@ 114
Vladi@@ 114
anese 114
clo@@ 114
comme 114
contre 114
diz@@ 114
eso 114
fé@@ 114
mim@@ 114
moun@@ 114
spor@@ 114
sych@@ 114
sä@@ 114
toral 114
wed 114
〉 114
以@@ 114
Düssel@@ 113
Ej@@ 113
Par 113
Sozial@@ 113
aille 113
amba@@ 113
arios 113
deutsch@@ 113
lui 113
nek 113
ngu@@ 113
nim@@ 113
seen 113
should 113
sos@@ 113
tür@@ 113
verb@@ 113
wad@@ 113
̱ 113
τι@@ 113
〈 113
馬@@ 113
대@@ 113
Architek@@ 112
Bu 112
Kend@@ 112
Lew@@ 112
alian 112
better 112
early 112
eption 112
moderne 112
onz@@ 112
orf 112
ović 112
released 112
stead 112
teil@@ 112
typ@@ 112
umma 112
Ç 112
ähr@@ 112
ȋ@@ 112
ʾ@@ 112
бива 112
ῦ 112
唐@@ 112
旗 112
Fes@@ 111
aises 111
chos 111
condi@@ 111
edonia 111
education 111
enem@@ 111
fact 111
imiento 111
inin 111
jana 111
miles 111
monum@@ 111
near@@ 111
phase 111
rates 111
thode 111
tous 111
tout 111
universit@@ 111
éti@@ 111
ř 111
ӕ 111
ֵ@@ 111
张@@ 111
藏@@ 111
25. 110
Han 110
Kapit@@ 110
Werk 110
alte 110
church 110
drei 110
echo 110
hoch@@ 110
iç@@ 110
jah@@ 110
lor 110
rain@@ 110
special 110
stanbul 110
subst@@ 110
vez 110
zim@@ 110
πο@@ 110
област 110
ῦ@@ 110
蒙@@ 110
22. 109
Arsen@@ 109
Ih@@ 109
Ili@@ 109
actu@@ 109
ambre 109
arist@@ 109
clos@@ 109
diam@@ 109
eins 109
eit@@ 109
exper@@ 109
fäl@@ 109
lac 109
magaz@@ 109
miz@@ 109
musical 109
nde 109
suj@@ 109
urb@@ 109
urt@@ 109
vertret@@ 109
éo 109
ǔ 109
ش@@ 109
ق@@ 109
‹ 109
る 109
村 109
松@@ 109
治@@ 109
泰@@ 109
门@@ 109
Grün@@ 108
Orts@@ 108
Sow@@ 108
Zu 108
abab@@ 108
acias 108
akadem@@ 108
archit@@ 108
ased 108
collec@@ 108
depend@@ 108
envir@@ 108
gos 108
lez 108
mais 108
nur 108
onto 108
osu 108
sous 108
spre@@ 108
writing 108
èse 108
ǐ 108
ασ@@ 108
ου@@ 108
цата 108
ׁ@@ 108
ス 108
思@@ 108
池@@ 108
洛@@ 108
Mutter 107
Selb@@ 107
afa 107
children 107
conduc@@ 107
dici@@ 107
disco 107
ecke 107
found@@ 107
half 107
iteur 107
lö@@ 107
ología 107
otur@@ 107
terie 107
these 107
women 107
xin 107
¿ 107
çon 107
üm 107
ίας 107
αλ@@ 107
αρ@@ 107
光@@ 107
Bremen 106
Cerambycidae 106
Comité 106
Kip@@ 106
Stoc@@ 106
aki@@ 106
alco@@ 106
along 106
beri 106
best@@ 106
eyi 106
graphie 106
had@@ 106
ince 106
isation 106
izin 106
kina 106
much 106
office 106
tend 106
trou@@ 106
unci@@ 106
yam@@ 106
þ 106
Този 106
терито@@ 106
филм 106
ӱ 106
د 106
► 106
ジ@@ 106
Bulgar@@ 105
Career 105
Entre 105
Guadal@@ 105
Né@@ 105
Ort@@ 105
Pays 105
Position 105
Privat@@ 105
bloc@@ 105
diplom@@ 105
eski 105
heavy 105
hiv@@ 105
ibi 105
industrial 105
kum 105
ppe 105
pron@@ 105
those 105
Österreich 105
ως 105
ώ@@ 105
い 105
Amt 104
Hungary 104
Pia 104
Trab@@ 104
architecture 104
bier@@ 104
có@@ 104
franc@@ 104
impl@@ 104
kat 104
lil@@ 104
lima 104
modo 104
oğlu 104
pier@@ 104
sey@@ 104
tane 104
tang@@ 104
tí@@ 104
wegung 104
zeich@@ 104
ǫ 104
ής 104
བ@@ 104
十@@ 104
宝@@ 104
無@@ 104
社 104
Colomb@@ 103
Ende 103
Ruh@@ 103
Türk@@ 103
bang 103
dung 103
historique 103
langue 103
lichkeit 103
oya 103
simul@@ 103
utsch@@ 103
voix 103
yav@@ 103
ģ@@ 103
αγ@@ 103
рият 103
ӈ 103
ル 103
凉@@ 103
Afgh@@ 102
Anadolu 102
Bö@@ 102
Madag@@ 102
Nobel 102
Papua 102
Spiel@@ 102
Woh@@ 102
aji 102
aliste 102
animal 102
associ@@ 102
cada 102
cá@@ 102
dah@@ 102
ecu@@ 102
eded 102
etu 102
five 102
ickl@@ 102
industri@@ 102
jard@@ 102
kön@@ 102
materi@@ 102
mek 102
nay 102
tah@@ 102
vé@@ 102
äu@@ 102
брита@@ 102
вото 102
昭@@ 102
Parte@@ 101
Sultan 101
Université 101
another 101
arri@@ 101
baz@@ 101
bron@@ 101
dered 101
dil 101
featur@@ 101
igung 101
kip@@ 101
parts 101
politik 101
propri@@ 101
royal 101
schwe@@ 101
simple 101
sug@@ 101
written 101
ɒ@@ 101
Περ@@ 101
птември 101
ח 101
ــ@@ 101
ى 101
生@@ 101
Congo 100
Gruppe 100
Krieg 100
Staff@@ 100
Uk@@ 100
akt@@ 100
cath@@ 100
cian 100
consci@@ 100
cost 100
deleg@@ 100
eden 100
endant 100
fico 100
hul@@ 100
ichten 100
inat@@ 100
inz@@ 100
names 100
nhof 100
quatre 100
rés@@ 100
sexu@@ 100
subj@@ 100
tif 100
transport 100
uela 100
zh 100
ακ@@ 100
ικός 100
телевизи@@ 100
ґ 100
ҕ@@ 100
һ 100
∠ 100
☆ 100
京@@ 100
关@@ 100
赣@@ 100
Gemein@@ 99
Nh@@ 99
Parti 99
Queensland 99
actr@@ 99
amac@@ 99
ambia 99
amente 99
aran 99
atiques 99
bind@@ 99
deutsch 99
document@@ 99
dó@@ 99
ewa 99
gleich@@ 99
indo 99
laun@@ 99
lieb 99
mg@@ 99
neur 99
quier@@ 99
structure 99
thel@@ 99
trois 99
Ó 99
Đ@@ 99
إ@@ 99
マ@@ 99
Braun@@ 98
Dr. 98
Rom 98
Zum 98
abaj@@ 98
ached 98
carr@@ 98
century 98
cera 98
different 98
groups 98
heits@@ 98
instrum@@ 98
jap@@ 98
lig 98
lista 98
livre 98
ockey 98
omel@@ 98
param@@ 98
pá@@ 98
roman 98
rég@@ 98
ticia 98
tip 98
weit@@ 98
èmes 98
ŭ 98
̊ 98
άς 98
դ@@ 98
ٌ 98
ி@@ 98
ོ@@ 98
ἄ@@ 98
ん 98
回@@ 98
固@@ 98
正@@ 98
24. 97
América 97
Nr. 97
República 97
Sie@@ 97
Verkehr@@ 97
atisti@@ 97
bé 97
finished 97
internationale 97
nant 97
opo 97
pek@@ 97
pru@@ 97
report 97
respon@@ 97
sala 97
tant 97
today 97
village 97
áng 97
über@@ 97
ɗ@@ 97
ων@@ 97
земи 97
исполь@@ 97
обек@@ 97
ӯ@@ 97
ج@@ 97
خ@@ 97
に@@ 97
八@@ 97
吴@@ 97
温@@ 97
真@@ 97
Biographie 96
Elis@@ 96
Müh@@ 96
Wehr@@ 96
Wie 96
accoun@@ 96
anderen 96
aï@@ 96
basketball 96
cinéma 96
conserv@@ 96
depuis 96
explo@@ 96
hay 96
hoa 96
hö@@ 96
inh 96
interest 96
issen@@ 96
mento 96
motor@@ 96
normal 96
pein@@ 96
poin@@ 96
pur 96
ré 96
serie 96
signed 96
urban@@ 96
with@@ 96
xico 96
zil@@ 96
Ї@@ 96
文 96
Kib@@ 95
León 95
Minn@@ 95
Sus 95
Vak@@ 95
Venezuela 95
abad 95
après 95
atac@@ 95
ately 95
etten 95
kid@@ 95
lead 95
migr@@ 95
orit@@ 95
prix 95
tier@@ 95
voi 95
werden 95
werk@@ 95
Â@@ 95
été 95
ır 95
ερ@@ 95
Северна 95
ט 95
万@@ 95
同@@ 95
女@@ 95
工@@ 95
有@@ 95
Grupp@@ 94
Montr@@ 94
arak 94
candid@@ 94
cide 94
conver@@ 94
does 94
einem 94
enten 94
fak@@ 94
gal 94
gegen 94
iş@@ 94
lande 94
là 94
manager 94
mano 94
neas 94
ortho@@ 94
past 94
pion@@ 94
tä@@ 94
vile 94
yaz@@ 94
Ú 94
Ō@@ 94
δι@@ 94
Ґ@@ 94
ը 94
։ 94
Ḥ@@ 94
ṃ 94
孝@@ 94
沧@@ 94
源@@ 94
达@@ 94
30. 93
Depor@@ 93
Renn@@ 93
Schwer@@ 93
Tierra 93
Zür@@ 93
adol@@ 93
alismus 93
auen 93
chas 93
endre 93
ería 93
hie 93
lek 93
oslav@@ 93
placement 93
struk@@ 93
ächs@@ 93
äts@@ 93
λι@@ 93
զ@@ 93
շ@@ 93
ま@@ 93
哈@@ 93
宣@@ 93
美@@ 93
Alpes 92
Estudi@@ 92
Holz@@ 92
Muh@@ 92
Siv@@ 92
Sohn 92
adan 92
adj@@ 92
chung 92
cil@@ 92
deur 92
exten@@ 92
gau@@ 92
ikia 92
innen 92
kaya 92
mundo 92
sexual 92
tay@@ 92
week@@ 92
Ñ 92
ɡ@@ 92
κλ@@ 92
ال@@ 92
ة 92
ნ 92
★ 92
ロ@@ 92
内@@ 92
学@@ 92
31. 91
Bau 91
Bretagne 91
Ceramb@@ 91
Forsch@@ 91
Johann@@ 91
Jugend@@ 91
Köl@@ 91
Martínez 91
Obl@@ 91
Sachsen 91
anded 91
arac@@ 91
atini 91
aş 91
baj@@ 91
barr@@ 91
cens@@ 91
discipl@@ 91
dö@@ 91
example 91
ibu 91
idental 91
ihr 91
illas 91
lak 91
macht 91
mark@@ 91
ombe 91
playing 91
retr@@ 91
transl@@ 91
unden 91
wag@@ 91
̪ 91
ק 91
ُ 91
别@@ 91
劉@@ 91
博@@ 91
曲@@ 91
Oly@@ 90
Rechts@@ 90
Schweiz 90
Tanz@@ 90
dak@@ 90
femmes 90
football 90
forc@@ 90
ichts@@ 90
ihrer 90
ités 90
jour@@ 90
lead@@ 90
mbH 90
mek@@ 90
oras 90
pair 90
poss@@ 90
quot@@ 90
scor@@ 90
sobre 90
technique 90
theor@@ 90
ungo 90
yeri 90
yol@@ 90
êt 90
ünde 90
Ē@@ 90
ħ 90
αι@@ 90
ελ@@ 90
υ 90
България 90
Лудвиг 90
年@@ 90
朝@@ 90
榆@@ 90
济@@ 90
郎 90
Democratic 89
Guill@@ 89
Guin@@ 89
Schweizer 89
Yay@@ 89
absol@@ 89
ahn@@ 89
alles 89
arten 89
bomb@@ 89
circul@@ 89
critic@@ 89
culo 89
eja 89
ennen 89
fille 89
fond@@ 89
genes 89
hommes 89
ilities 89
iw@@ 89
otra 89
prac@@ 89
response 89
scar 89
sens 89
total 89
trata 89
té@@ 89
uelle 89
zis@@ 89
تَ@@ 89
‿ 89
書@@ 89
水 89
苗@@ 89
Leip@@ 88
Population 88
acial 88
character 88
erer 88
help 88
historiques 88
ilde 88
kub@@ 88
leng@@ 88
nouvelle 88
ogle 88
ohne 88
pik 88
programm@@ 88
reser@@ 88
roman@@ 88
rut@@ 88
seur 88
seven 88
singer 88
tigen 88
εί@@ 88
λλ@@ 88
να 88
вайки 88
Ն@@ 88
ך 88
بن 88
․ 88
タ@@ 88
ド@@ 88
乌@@ 88
柳@@ 88
立@@ 88
钦@@ 88
Bey@@ 87
Guerre 87
Unión 87
Verk@@ 87
agent 87
alité 87
communic@@ 87
cycl@@ 87
enario 87
fed@@ 87
igt 87
intern@@ 87
kah@@ 87
lée 87
maison 87
partment 87
support 87
turn 87
villa 87
volume 87
yap@@ 87
ıl@@ 87
̅ 87
Δι@@ 87
εία 87
و@@ 87
ས 87
∆ 87
う@@ 87
り@@ 87
云@@ 87
佛@@ 87
宾@@ 87
汾@@ 87
潭@@ 87
绥@@ 87
自@@ 87
26. 86
Connecticut 86
Consejo 86
Erk@@ 86
Mal 86
Mayor 86
albums 86
besch@@ 86
conqu@@ 86
cred@@ 86
kem@@ 86
klasse 86
langu@@ 86
muda 86
orta 86
personal 86
qué 86
zt 86
Öz@@ 86
ǎ 86
ησι@@ 86
Қ 86
م 86
∴ 86
∼ 86
フ@@ 86
冈@@ 86
商@@ 86
巴@@ 86
苏@@ 86
Asociación 85
Canadi@@ 85
Gemeinde 85
Sie 85
Wab@@ 85
cias 85
crita 85
daf@@ 85
dau@@ 85
ders@@ 85
dioc@@ 85
franç@@ 85
gesetz@@ 85
iran 85
jeune 85
kreis 85
mang@@ 85
militaire 85
mission@@ 85
obra 85
oku@@ 85
policy 85
riff 85
secund@@ 85
table@@ 85
Ә 85
է@@ 85
ان 85
ὰ 85
う 85
会 85
作@@ 85
寺 85
河 85
軍 85
运@@ 85
한@@ 85
27. 84
Bev@@ 84
Felipe 84
Für 84
Kirchen@@ 84
Linc@@ 84
Mb@@ 84
Norman@@ 84
Schauspi@@ 84
Uganda 84
ampi@@ 84
came 84
cause 84
close 84
frequ@@ 84
guar@@ 84
making 84
politi@@ 84
pré@@ 84
roqu@@ 84
rouge 84
services 84
sis@@ 84
surface 84
toire 84
wap@@ 84
who@@ 84
Ét@@ 84
äf@@ 84
ém 84
éré@@ 84
évision 84
Č 84
ا 84
ས@@ 84
ん@@ 84
ト 84
也 84
土@@ 84
衡@@ 84
29. 83
Aleksand@@ 83
Burg 83
Canton 83
Perú 83
Valencia 83
alternati@@ 83
amii 83
ayed 83
colon@@ 83
comb@@ 83
emente 83
ested 83
hab 83
klin 83
schaft@@ 83
schle@@ 83
sif 83
since 83
ted@@ 83
terres@@ 83
together 83
traf@@ 83
Ñ@@ 83
ʁ@@ 83
Θε@@ 83
τη 83
гради 83
ز@@ 83
‛ 83
ち@@ 83
咸@@ 83
Escu@@ 82
Fati@@ 82
Geometr@@ 82
Kamer@@ 82
Lai 82
Meister 82
Muhammad 82
Tam 82
Verw@@ 82
broad@@ 82
combin@@ 82
community 82
consult@@ 82
covered 82
eté 82
missions 82
motor 82
norm@@ 82
orod@@ 82
prak@@ 82
rée 82
singles 82
wissenschaft@@ 82
ños 82
öch@@ 82
úl@@ 82
ˬ 82
̑ 82
Κ 82
ις 82
ρα 82
живее 82
司@@ 82
天 82
封@@ 82
徐@@ 82
이 82
28. 81
Fernseh@@ 81
Refer@@ 81
Rä@@ 81
alem@@ 81
algo 81
comment@@ 81
coul@@ 81
crimin@@ 81
disput@@ 81
drama 81
elde 81
fie 81
hes@@ 81
intr@@ 81
kent 81
ları 81
orden 81
ouvre 81
staff 81
wei@@ 81
wns 81
Õ@@ 81
ènes 81
éal 81
ɾ@@ 81
εύ@@ 81
οδ@@ 81
ҍ@@ 81
Վ@@ 81
ա 81
ت@@ 81
は@@ 81
り 81
宗 81
富@@ 81
月@@ 81
罗@@ 81
Erz@@ 80
Grenz@@ 80
Hispania 80
Jesús 80
Mül@@ 80
años 80
bonne 80
concert 80
hep@@ 80
häl@@ 80
lieder 80
most@@ 80
muerte 80
oce 80
osas 80
où 80
parte 80
tnis 80
trat 80
trit@@ 80
una@@ 80
wah@@ 80
yum 80
İn@@ 80
ʌ@@ 80
ρί@@ 80
щия 80
ӓ@@ 80
պ@@ 80
್ 80
ར@@ 80
ウ@@ 80
兰@@ 80
官@@ 80
行 80
襄@@ 80
Yoh@@ 79
alim@@ 79
bare 79
brit@@ 79
called 79
chief 79
cipe 79
communication 79
complete 79
cultur@@ 79
distr@@ 79
duk@@ 79
embre 79
empl@@ 79
events 79
eña 79
hoy 79
ichen 79
istik 79
iten@@ 79
laya 79
maf@@ 79
mobil@@ 79
municip@@ 79
neh@@ 79
role 79
semb@@ 79
subject 79
temper@@ 79
zieh@@ 79
zig 79
änder@@ 79
änge 79
édi@@ 79
ún@@ 79
üge 79
Œ@@ 79
̰ 79
ιν@@ 79
ρά@@ 79
Ѳ 79
ག@@ 79
丘@@ 79
丹@@ 79
丽@@ 79
堂 79
威@@ 79
波@@ 79
理@@ 79
～ 79
According 78
adver@@ 78
asked 78
college 78
dua 78
erste 78
ezi 78
hier 78
inti@@ 78
leich@@ 78
living 78
nek@@ 78
nou@@ 78
results 78
separ@@ 78
thu 78
wach@@ 78
état 78
üz@@ 78
Ž 78
έρ@@ 78
τα@@ 78
време 78
Ө 78
ס 78
თ 78
世@@ 78
二@@ 78
千@@ 78
國 78
張@@ 78
田 78
Amerika 77
Biblia 77
Denk@@ 77
Nazi 77
Township 77
Uch@@ 77
ammed 77
construction 77
enfants 77
experim@@ 77
hik@@ 77
lowing 77
naf@@ 77
newspap@@ 77
origin@@ 77
pologie 77
richt 77
sana 77
ticos 77
udi 77
ustri@@ 77
vivi@@ 77
ĭ 77
ɕ@@ 77
λε@@ 77
πι@@ 77
ق 77
っ@@ 77
多@@ 77
有限公司 77
生 77
Bür@@ 76
Feuer@@ 76
Mundial 76
armes 76
atika 76
avant 76
bezirk 76
cultural 76
destroy@@ 76
dok@@ 76
encial 76
environ@@ 76
experi@@ 76
hud@@ 76
icha 76
isons 76
iture 76
location 76
más 76
ografia 76
ologischen 76
ondo@@ 76
second@@ 76
stud@@ 76
trop 76
Ά@@ 76
Τ 76
αν 76
αυ@@ 76
οφ@@ 76
ρε@@ 76
начал@@ 76
҃ 76
ⴰ@@ 76
る@@ 76
將@@ 76
法@@ 76
街道 76
香@@ 76
사@@ 76
Afghanistan 75
Komit@@ 75
Schutz@@ 75
Tari@@ 75
Verfass@@ 75
asit@@ 75
battle 75
critique 75
dió 75
doch 75
esas 75
forces 75
frac@@ 75
für@@ 75
ged@@ 75
hors 75
manos 75
mile 75
mittel@@ 75
nine 75
portr@@ 75
resid@@ 75
schaf@@ 75
seri 75
tionen 75
utar@@ 75
ď@@ 75
ĩ 75
ız@@ 75
Το 75
Ψ 75
σκ@@ 75
ռ@@ 75
ب 75
َّ@@ 75
य 75
வ@@ 75
ိ@@ 75
が@@ 75
秦@@ 75
荆@@ 75
路@@ 75
铜@@ 75
나@@ 75
Arbeits@@ 74
Bayern 74
Indon@@ 74
Minister 74
Republik 74
Um 74
aison 74
applic@@ 74
ationen 74
aume 74
because 74
bâ@@ 74
central 74
determin@@ 74
divi@@ 74
encias 74
griech@@ 74
herr@@ 74
imini 74
jours 74
kuh@@ 74
kung 74
lama 74
lı 74
mente 74
pal 74
radic@@ 74
riff@@ 74
sali@@ 74
seiner 74
strateg@@ 74
suite 74
verein@@ 74
zona 74
zwe@@ 74
ομ@@ 74
τρ@@ 74
όν@@ 74
ώ 74
փ@@ 74
ম@@ 74
ན 74
ღ@@ 74
₤ 74
可@@ 74
忻@@ 74
益@@ 74
贵@@ 74
部 74
김@@ 74
아@@ 74
Arbeit 73
Beschreibung 73
Klasse 73
Loan 73
Ms@@ 73
Yaz@@ 73
anische 73
año 73
bild 73
chall@@ 73
champi@@ 73
comte 73
gyp@@ 73
ient 73
igned 73
iler@@ 73
insec@@ 73
instruc@@ 73
lanc@@ 73
mana 73
ngh@@ 73
nh 73
onyme 73
podr@@ 73
polon@@ 73
present@@ 73
prince 73
requi@@ 73
schriften 73
tesi 73
ucion@@ 73
ucky 73
utenant 73
utu 73
waz@@ 73
ände 73
ım@@ 73
ολ@@ 73
Ђ@@ 73
Կ@@ 73
Ր@@ 73
♂ 73
ナ@@ 73
侯@@ 73
帝 73
式@@ 73
省 73
麻@@ 73
Führ@@ 72
Gast@@ 72
Italie 72
Ouest 72
Sommer@@ 72
Sous 72
Tage 72
Tä@@ 72
Wirtschafts@@ 72
betrieb@@ 72
corps 72
cré@@ 72
distribution 72
editor 72
grand@@ 72
habit@@ 72
industrie 72
meas@@ 72
octo@@ 72
partic@@ 72
präs@@ 72
published 72
there@@ 72
ticas 72
unas 72
wird 72
ɡ 72
ατ@@ 72
ط@@ 72
ল@@ 72
த@@ 72
⊙ 72
て@@ 72
オ@@ 72
景@@ 72
Meter 71
Orden 71
Servic@@ 71
Städ@@ 71
Wahl@@ 71
andes 71
azu 71
changes 71
chanson 71
cil 71
constr@@ 71
deli@@ 71
eser@@ 71
fav@@ 71
feh@@ 71
govern@@ 71
gran 71
gru@@ 71
jeres 71
kül@@ 71
ordnung 71
rej@@ 71
relig@@ 71
sage 71
specific 71
stän@@ 71
techni@@ 71
ución 71
ulaire 71
unu 71
vehic@@ 71
wash@@ 71
zäh@@ 71
¦ 71
änd@@ 71
ük 71
ık 71
̲ 71
Εκ@@ 71
Μ 71
Ρ 71
ικής 71
колек@@ 71
нени 71
Ғ 71
ӳ 71
त 71
ི 71
ḱ@@ 71
ṣ 71
さ@@ 71
凤@@ 71
头@@ 71
寿@@ 71
梧@@ 71
港@@ 71
神 71
靖@@ 71
Sommer 70
asim@@ 70
chré@@ 70
compon@@ 70
ded@@ 70
develop@@ 70
dı 70
elled 70
fau@@ 70
feature 70
gaz 70
ilien 70
mab@@ 70
military 70
multiple 70
musici@@ 70
onnen 70
pendant 70
political 70
promot@@ 70
rend@@ 70
sont 70
teh@@ 70
óg@@ 70
ική 70
κο@@ 70
райони 70
ѓ@@ 70
Җ@@ 70
ք 70
ད@@ 70
♀ 70
あ@@ 70
お@@ 70
书@@ 70
克@@ 70
平 70
政@@ 70
潍@@ 70
矿@@ 70
郴@@ 70
Ahmed 69
Bas 69
Eins@@ 69
Frauen 69
Gül@@ 69
Jahr 69
Rica 69
Unter 69
arca 69
author@@ 69
aí@@ 69
bé@@ 69
bür@@ 69
deren 69
fü@@ 69
ieren 69
ift@@ 69
inu 69
italiano 69
matr@@ 69
ogne 69
olan@@ 69
rein@@ 69
relations 69
repe@@ 69
route 69
woh@@ 69
étés 69
ογ@@ 69
մ 69
مَ@@ 69
น@@ 69
ყ@@ 69
ṭ 69
き@@ 69
ラ 69
丰@@ 69
代@@ 69
庄@@ 69
心@@ 69
怀@@ 69
汕@@ 69
物@@ 69
Alfonso 68
Schles@@ 68
Wieder@@ 68
athol@@ 68
autres 68
betr@@ 68
deal 68
dej@@ 68
dies@@ 68
dows 68
exist@@ 68
expl@@ 68
guerra 68
influence 68
introduc@@ 68
isol@@ 68
jaw@@ 68
kana 68
leader 68
publique 68
reli@@ 68
sied@@ 68
stant@@ 68
vit 68
wand@@ 68
ª 68
µ 68
ış@@ 68
Ŋ 68
ſ@@ 68
ɐ 68
μέ@@ 68
μα@@ 68
ъл@@ 68
Ի@@ 68
Ո@@ 68
ك 68
ُ@@ 68
ம 68
འ@@ 68
ら@@ 68
テ@@ 68
右@@ 68
普@@ 68
次@@ 68
而@@ 68
語 68
邵@@ 68
院 68
Durch@@ 67
Eliz@@ 67
Früh@@ 67
Ley 67
Politik 67
Toul@@ 67
Yug@@ 67
abb@@ 67
alum@@ 67
auff@@ 67
campus 67
chac@@ 67
chef 67
construc@@ 67
duc 67
ectura 67
gabe 67
gemeinde 67
gradu@@ 67
health 67
isine 67
klär@@ 67
maî@@ 67
relati@@ 67
seat 67
sicht 67
sites 67
took 67
ême 67
êtes 67
ǐ@@ 67
ισ@@ 67
λόγ@@ 67
ους 67
Ј 67
ّ@@ 67
ک@@ 67
្ 67
ℓ 67
♥ 67
サ@@ 67
事@@ 67
女 67
浦@@ 67
皇@@ 67
省@@ 67
藤@@ 67
고@@ 67
Boliv@@ 66
Büh@@ 66
Peru 66
argum@@ 66
author 66
benef@@ 66
biy@@ 66
both 66
decor@@ 66
donn@@ 66
ften 66
gazet@@ 66
gü@@ 66
izi 66
lege 66
lywood 66
meng@@ 66
milli@@ 66
née 66
premi@@ 66
provid@@ 66
related 66
rä@@ 66
rí@@ 66
satz 66
sculp@@ 66
signi@@ 66
television 66
trik 66
wasi@@ 66
élec@@ 66
İstanbul 66
ɕ 66
έν@@ 66
Дъ@@ 66
малки 66
ر 66
こ@@ 66
キ@@ 66
伊@@ 66
杜@@ 66
氏@@ 66
连@@ 66
里@@ 66
지@@ 66
Bisch@@ 65
Ethiop@@ 65
Finanz@@ 65
agno@@ 65
airman 65
artists 65
ateurs 65
auté 65
comun@@ 65
correc@@ 65
cultura 65
geg@@ 65
hio 65
igkeit 65
ildi 65
ität 65
jeun@@ 65
kommen 65
kü@@ 65
league 65
mern 65
narr@@ 65
prepar@@ 65
schutz 65
spiele 65
tales 65
third 65
transfer 65
transfer@@ 65
waf@@ 65
¢ 65
Ä 65
Ô 65
ätze 65
éné@@ 65
ük@@ 65
üng@@ 65
üst@@ 65
ď 65
ŏ@@ 65
œ 65
ɲ 65
ʌ 65
αμ@@ 65
με@@ 65
планина 65
Ҳ@@ 65
র@@ 65
ர@@ 65
ტ 65
僮@@ 65
木 65
梅@@ 65
縣 65
绵@@ 65
许@@ 65
野@@ 65
Abdul@@ 64
Dar 64
Präs@@ 64
aji@@ 64
bunal 64
bürger@@ 64
dern 64
explic@@ 64
honor 64
idente 64
lagen 64
mujer 64
noche 64
ordre 64
politiques 64
pour@@ 64
proxim@@ 64
religion 64
sek 64
sprech@@ 64
statt 64
tof@@ 64
until 64
vend@@ 64
wehr 64
österreich@@ 64
út 64
ũ 64
ǔ@@ 64
ɜ 64
ˤ@@ 64
Ξ@@ 64
общо 64
ӓ 64
Գ@@ 64
ջ@@ 64
ւ 64
الله 64
غ@@ 64
محمد 64
း@@ 64
ὁ 64
₄ 64
の 64
コ@@ 64
中国@@ 64
壮@@ 64
星@@ 64
沂@@ 64
義@@ 64
교 64
국@@ 64
Bahnhof 63
Categ@@ 63
Heimat@@ 63
Israeli 63
Jahrhunderts 63
Kent@@ 63
Kül@@ 63
Olympics 63
Serbia 63
Syria 63
Tür@@ 63
agement 63
arbeit@@ 63
autre 63
comple@@ 63
dose 63
edad 63
engi 63
evangel@@ 63
famil@@ 63
fils 63
haben 63
hô@@ 63
investig@@ 63
joint 63
klass@@ 63
maire 63
meter 63
minister 63
onio 63
otz 63
veget@@ 63
verk@@ 63
volun@@ 63
wana 63
Æ 63
Í 63
ļ 63
Π 63
Παρ@@ 63
λα@@ 63
τά@@ 63
Крал@@ 63
морски 63
ӳ@@ 63
في 63
म@@ 63
ང 63
ာ@@ 63
ὑ@@ 63
く@@ 63
竹@@ 63
色@@ 63
谷@@ 63
Ayr@@ 62
Gleich@@ 62
Haup@@ 62
Kreis 62
Mei 62
Presidente 62
Verwaltungs@@ 62
andere 62
cet 62
cim@@ 62
enst 62
entales 62
ganz@@ 62
invol@@ 62
lique 62
meister@@ 62
mé 62
novel 62
ombo 62
program@@ 62
schwar@@ 62
siz 62
statisti@@ 62
takes 62
vip@@ 62
zus@@ 62
Á 62
Ör@@ 62
äischen 62
ément 62
ış 62
ʧ@@ 62
̦ 62
Αγ@@ 62
αβ@@ 62
ην@@ 62
πρ@@ 62
ѹ@@ 62
را@@ 62
ὸ 62
♦ 62
⦁ 62
ク 62
区@@ 62
双@@ 62
少@@ 62
臺@@ 62
部@@ 62
集@@ 62
魏@@ 62
Anf@@ 61
Eig@@ 61
Francia 61
abs@@ 61
adal@@ 61
anı 61
appel 61
cour 61
dée 61
ehen 61
fang@@ 61
hé@@ 61
incia 61
indi 61
moment 61
nord@@ 61
plays 61
rail@@ 61
recogni@@ 61
refl@@ 61
seig@@ 61
selec@@ 61
städ@@ 61
tête 61
wirtschaft 61
änger 61
ɐ@@ 61
̮ 61
самостояте@@ 61
Ҫ@@ 61
Ӱ 61
Պ@@ 61
կ 61
ץ 61
ن 61
چ@@ 61
্ 61
ྲ@@ 61
Ἐ@@ 61
ὴ@@ 61
⁰ 61
一 61
恩@@ 61
明 61
經 61
者@@ 61
華@@ 61
수@@ 61
Böl@@ 60
Dör@@ 60
Hinter@@ 60
Nint@@ 60
Sult@@ 60
administr@@ 60
anciens 60
argent 60
charge 60
combat 60
commercial 60
conform@@ 60
degree 60
emper@@ 60
iliano 60
island 60
luk 60
naval 60
nouveau 60
nuc@@ 60
persona 60
rais 60
sold@@ 60
trä@@ 60
ví 60
within 60
ämp@@ 60
ích 60
ôt 60
ʻ 60
Έ@@ 60
θος 60
μά@@ 60
μι@@ 60
οί 60
οπ@@ 60
дьо 60
پ@@ 60
ی 60
र 60
ლ 60
ṅ@@ 60
█ 60
ニ@@ 60
ノ@@ 60
主 60
宿@@ 60
肇@@ 60
話 60
雄@@ 60
리 60
Aş@@ 59
Campeonato 59
Demokrati@@ 59
Fach@@ 59
Ghana 59
Quan 59
Waz@@ 59
direk@@ 59
engl@@ 59
impres@@ 59
jeu 59
kuj@@ 59
positive 59
produk@@ 59
quali@@ 59
railway 59
resist@@ 59
situ@@ 59
six@@ 59
siz@@ 59
teams 59
thought 59
tán 59
¨ 59
äus@@ 59
çal@@ 59
économ@@ 59
öne 59
ġ@@ 59
ƶ 59
ɬ@@ 59
άγ@@ 59
Тази 59
въз@@ 59
комуни@@ 59
ското 59
Ү 59
া 59
ன@@ 59
ம@@ 59
ா@@ 59
မ@@ 59
ṃ@@ 59
ἔ@@ 59
♕ 59
ハ@@ 59
七@@ 59
上 59
伯@@ 59
日 59
朱@@ 59
法 59
郑@@ 59
； 59
Bürger@@ 58
Drit@@ 58
Ferdin@@ 58
Konstant@@ 58
Sudan 58
Teil 58
administration 58
angen 58
association 58
azine 58
bish@@ 58
calcul@@ 58
civil 58
claim@@ 58
crim@@ 58
entro 58
explor@@ 58
government 58
kik@@ 58
libro 58
müh@@ 58
ndi@@ 58
novel@@ 58
officer 58
otros 58
pied 58
plut@@ 58
publican 58
rar 58
regular 58
relation 58
rights 58
round@@ 58
siempre 58
sü@@ 58
tiles 58
trib@@ 58
uvo 58
walt 58
ào 58
çi 58
èg@@ 58
ǒ@@ 58
̇ 58
Ιερ@@ 58
άλ@@ 58
μου 58
την 58
Ң 58
ջ 58
الم@@ 58
ْ 58
ு 58
ు 58
า@@ 58
ུ@@ 58
ေ@@ 58
も@@ 58
れ@@ 58
之 58
了 58
史 58
崇@@ 58
德 58
我@@ 58
无@@ 58
書 58
洋@@ 58
空@@ 58
記 58
邑@@ 58
银@@ 58
韶@@ 58
Champi@@ 57
Chine 57
Jahrhundert 57
afi 57
aliy@@ 57
ambigu@@ 57
angu 57
concep@@ 57
concept 57
consum@@ 57
design@@ 57
distinc@@ 57
female 57
four@@ 57
gör@@ 57
hao 57
invent@@ 57
issement 57
izm 57
kea 57
manus@@ 57
maya 57
mee 57
nde@@ 57
nisse 57
ouver@@ 57
quelques 57
rière 57
réc@@ 57
sede 57
sozi@@ 57
territ@@ 57
ulares 57
wala 57
yü@@ 57
zentrum 57
école 57
ŭ@@ 57
ʲ@@ 57
ίου 57
αθ@@ 57
μος 57
τον 57
υπ@@ 57
υρ@@ 57
място 57
този 57
ӽ 57
յ 57
عَ@@ 57
من 57
ে 57
ு@@ 57
མ@@ 57
တ@@ 57
‍ 57
₴ 57
し 57
イ 57
デ@@ 57
バ@@ 57
名@@ 57
所 57
扬@@ 57
渭@@ 57
红@@ 57
良@@ 57
酒@@ 57
龍@@ 57
Janeiro 56
Mais 56
Sez@@ 56
agricul@@ 56
aktion 56
alien 56
ambul@@ 56
anzo 56
arse 56
associated 56
attr@@ 56
benz@@ 56
certain 56
competi@@ 56
district 56
ducation 56
dungs@@ 56
egal 56
elik 56
enea 56
esqu@@ 56
expos@@ 56
iones 56
isho 56
kati@@ 56
marc@@ 56
marqu@@ 56
material 56
neigh@@ 56
parti 56
polé@@ 56
practice 56
proced@@ 56
running 56
scheid@@ 56
schied@@ 56
ustos 56
élém@@ 56
ɯ 56
ʹ@@ 56
Ελλην@@ 56
ευ@@ 56
νη 56
ҳ 56
ӊ 56
ӽ@@ 56
ե 56
ص@@ 56
Ἰ@@ 56
ὴ 56
を@@ 56
ィ@@ 56
ャ@@ 56
主@@ 56
井@@ 56
字 56
字@@ 56
林 56
盐@@ 56
纳@@ 56
羅@@ 56
翼@@ 56
重@@ 56
阜@@ 56
陈@@ 56
도 56
Córdoba 55
Dez@@ 55
Geg@@ 55
Première 55
Regional@@ 55
ably 55
akter@@ 55
atif 55
bom 55
classes 55
coloni@@ 55
destin@@ 55
direction 55
enl@@ 55
feu@@ 55
following 55
gol 55
honneur 55
ibn 55
istique 55
jüd@@ 55
kais@@ 55
okrati@@ 55
onales 55
pino 55
record@@ 55
schools 55
semi 55
sozial@@ 55
tés 55
ume@@ 55
upo 55
usage 55
visit@@ 55
zeit@@ 55
étique 55
üş@@ 55
ŕ@@ 55
Ό@@ 55
Ε.@@ 55
άκ@@ 55
αί@@ 55
απ@@ 55
εν@@ 55
ικό 55
Ӧ 55
ג 55
ף 55
ان@@ 55
س 55
। 55
ன 55
ப@@ 55
ய@@ 55
ல@@ 55
င 55
ẽ 55
♖ 55
♣ 55
ブ@@ 55
出@@ 55
和 55
夷@@ 55
師 55
御@@ 55
手@@ 55
承@@ 55
锦@@ 55
陽 55
隆@@ 55
雁@@ 55
館 55
黎@@ 55
정@@ 55
Akad@@ 54
Armee 54
Yap@@ 54
accep@@ 54
anime 54
awe 54
brahim 54
coup 54
democ@@ 54
disc@@ 54
elektr@@ 54
ersten 54
furt 54
gid@@ 54
hours 54
illos 54
impro@@ 54
inten@@ 54
kua 54
laborat@@ 54
million 54
mite 54
mitted 54
movement 54
neuen 54
oyn@@ 54
population 54
premier 54
reib@@ 54
rek@@ 54
sett@@ 54
soit 54
tanto 54
tigung 54
vek@@ 54
wam@@ 54
wech@@ 54
wich@@ 54
ʕ 54
εν 54
Република 54
йския 54
џ@@ 54
җ 54
مُ@@ 54
ব@@ 54
র 54
ྱ@@ 54
家 54
抚@@ 54
施@@ 54
月 54
胡@@ 54
Así 53
Besch@@ 53
Halb@@ 53
Macar@@ 53
Meister@@ 53
Män@@ 53
Noctu@@ 53
Sept@@ 53
alismo 53
amt@@ 53
arı 53
atas@@ 53
aña 53
capital 53
celle 53
ciudad 53
continue 53
día 53
egem@@ 53
ehe 53
ekonom@@ 53
enca 53
entaire 53
erre@@ 53
etk@@ 53
fahren 53
igte 53
isel 53
mif@@ 53
même 53
nun 53
onnement 53
pez 53
quan 53
rece@@ 53
recherche 53
rement 53
reti@@ 53
señ@@ 53
tep@@ 53
tisch 53
vely 53
yab@@ 53
étude 53
į 53
ŏ 53
ſ 53
Ɔ 53
Μον@@ 53
ικά 53
њ 53
Լ@@ 53
ت 53
ാ@@ 53
ི@@ 53
ἡ@@ 53
₹ 53
♘ 53
ア 53
ガ@@ 53
元 53
前@@ 53
岩@@ 53
村@@ 53
芜@@ 53
蕭@@ 53
衛@@ 53
言@@ 53
邯@@ 53
리@@ 53
인@@ 53
하@@ 53
： 53
19th 52
Allemagne 52
Kari@@ 52
Osten 52
Philippines 52
Schiff 52
Situation 52
Việt 52
adop@@ 52
anischen 52
centre 52
dass 52
dido 52
excep@@ 52
exerc@@ 52
extrem@@ 52
geht 52
htt@@ 52
ichts 52
innov@@ 52
jia 52
kwa 52
leit@@ 52
lieu 52
minute 52
mitt@@ 52
nchini 52
pont 52
prä@@ 52
succ@@ 52
uras 52
uş@@ 52
Ê@@ 52
était 52
ús 52
ɓ@@ 52
ˍ@@ 52
εις 52
τική 52
Русия 52
ѳ@@ 52
ҍ 52
Ӳ 52
أ@@ 52
स 52
། 52
₇ 52
つ@@ 52
エ@@ 52
グ@@ 52
君@@ 52
宗@@ 52
廳 52
感@@ 52
楚@@ 52
盟 52
羅 52
郸@@ 52
門 52
饶@@ 52
Amérique 51
Angola 51
Betrieb@@ 51
Bien 51
Dünya 51
Ecu@@ 51
Geometridae 51
Imperio 51
Nga 51
Partei 51
Rück@@ 51
Siy@@ 51
Spiel 51
across 51
amini 51
annual 51
bord 51
celebr@@ 51
character@@ 51
confer@@ 51
conten@@ 51
create 51
declar@@ 51
dif@@ 51
distance 51
equi@@ 51
gek@@ 51
grab@@ 51
insan@@ 51
interpret@@ 51
juu 51
kali 51
mama 51
means 51
ministr@@ 51
mz@@ 51
nete 51
okul@@ 51
organization 51
perio 51
question 51
represent@@ 51
siti@@ 51
sovi@@ 51
superior 51
terior 51
ukw@@ 51
usu@@ 51
ède 51
ét 51
óm 51
Ț@@ 51
̠ 51
Αν@@ 51
εια 51
οι@@ 51
οσ@@ 51
ού 51
σα 51
τερ@@ 51
рява 51
чети@@ 51
ց 51
ش 51
ட@@ 51
్ 51
් 51
ြ@@ 51
ḷ@@ 51
ọ 51
ⁿ 51
₃ 51
♠ 51
〜 51
仁 51
城区 51
归@@ 51
後@@ 51
愛@@ 51
湛@@ 51
甘@@ 51
章@@ 51
赤@@ 51
기@@ 51
Bis 50
Cumhuriy@@ 50
Cá@@ 50
Italien 50
Jahren 50
Schleswig 50
above 50
anh 50
charg@@ 50
demi 50
dete 50
died 50
dire 50
egos 50
emba 50
endung 50
estim@@ 50
etts 50
few 50
fully 50
führung 50
génér@@ 50
haya 50
ifa 50
prati@@ 50
propag@@ 50
rebel@@ 50
received 50
reci@@ 50
regional 50
releas@@ 50
religie@@ 50
röm@@ 50
só@@ 50
turned 50
vista 50
voll@@ 50
waka 50
wegen 50
ymnasium 50
ández 50
äuser 50
él 50
ľ 50
ɬ 50
ɲ@@ 50
ʂ 50
άδ@@ 50
ιος 50
καλ@@ 50
οπο@@ 50
πος 50
една 50
лагат 50
цери 50
Բ@@ 50
ذ@@ 50
ون@@ 50
ர 50
ἱ@@ 50
☀ 50
ュ@@ 50
事 50
分@@ 50
局 50
岳@@ 50
帝@@ 50
斯@@ 50
株@@ 50
漢@@ 50
聖@@ 50
軍@@ 50
辽@@ 50
遵@@ 50
都 50
零@@ 50
鸡@@ 50
주 50
Alab@@ 49
Blü@@ 49
Eurov@@ 49
Flü@@ 49
Kuv@@ 49
Mitte 49
Pologne 49
adil@@ 49
alisation 49
circu@@ 49
empre 49
famille 49
farm@@ 49
führ@@ 49
gique 49
gén@@ 49
hockey 49
lir 49
olu 49
plaza 49
propos@@ 49
punk@@ 49
tario 49
telle 49
tival 49
tiy@@ 49
vér@@ 49
yem@@ 49
zwischen 49
È@@ 49
ái 49
âte@@ 49
éré 49
ˇ 49
άσ@@ 49
μον@@ 49
τη@@ 49
днеш@@ 49
макар 49
християн@@ 49
ս 49
ون 49
ེ@@ 49
က@@ 49
⁴ 49
に 49
ダ@@ 49
ド 49
充@@ 49
其@@ 49
士 49
外@@ 49
宮 49
密@@ 49
察@@ 49
島 49
布@@ 49
潮@@ 49
者 49
기 49
시@@ 49
Benjam@@ 48
Cuando 48
Dorf@@ 48
Forschungs@@ 48
Hek@@ 48
Kön@@ 48
Leist@@ 48
Linie 48
Osman@@ 48
Zus@@ 48
americano 48
among 48
arded 48
arqu@@ 48
bande 48
cases 48
county 48
création 48
endas 48
gebiet 48
kiz@@ 48
kör@@ 48
lungs@@ 48
municipal 48
mül@@ 48
ológ@@ 48
organis@@ 48
parlam@@ 48
recher@@ 48
resul@@ 48
tourn@@ 48
unca 48
unkt 48
vertr@@ 48
Ül@@ 48
öff@@ 48
úa 48
đ 48
ĝ@@ 48
ık@@ 48
ıl 48
Ș@@ 48
ɵ@@ 48
ˆ 48
Ψ@@ 48
τικ@@ 48
изку@@ 48
Ѳ@@ 48
վ 48
ײ@@ 48
الت@@ 48
ع 48
ܐ 48
ः 48
ா 48
た 48
ミ@@ 48
メ@@ 48
先@@ 48
原 48
在@@ 48
安 48
容@@ 48
江 48
海 48
烟@@ 48
那@@ 48
陇@@ 48
다 48
로 48
Alger@@ 47
Bedeutung 47
Bezieh@@ 47
Fútbol 47
Zug@@ 47
alar 47
alı 47
ancienne 47
ará 47
bere@@ 47
circ@@ 47
cito 47
clas@@ 47
command@@ 47
commune 47
costa 47
déc@@ 47
east 47
fah@@ 47
gart 47
hak 47
hala 47
hali@@ 47
iben 47
ilen 47
ingly 47
istischen 47
itions 47
kann 47
lai 47
luk@@ 47
minutes 47
ologiques 47
orden@@ 47
period 47
places 47
poco 47
popular 47
puer@@ 47
père 47
qued@@ 47
sita 47
tigkeit 47
town@@ 47
très 47
versions 47
victoria 47
vue 47
zentr@@ 47
ên 47
ím@@ 47
İ 47
Ř@@ 47
Ə 47
ʁ 47
ίων 47
αστ@@ 47
γκ@@ 47
θη@@ 47
μπ@@ 47
πλ@@ 47
ται 47
Ї 47
ѡ@@ 47
ز 47
ِ 47
ی@@ 47
त@@ 47
म 47
य@@ 47
ม@@ 47
อ@@ 47
ု@@ 47
よ@@ 47
ェ@@ 47
下 47
始@@ 47
師@@ 47
徽@@ 47
戦@@ 47
時@@ 47
泽@@ 47
稽@@ 47
陽@@ 47
雷@@ 47
風@@ 47
학@@ 47
Bei 46
Doğ@@ 46
Durch 46
Espagne 46
Iglesia 46
Kif@@ 46
Landes 46
Mü@@ 46
Philadel@@ 46
Tanzania 46
Theo 46
Yen@@ 46
ahlen 46
appeared 46
appel@@ 46
average 46
aî@@ 46
bul 46
centrale 46
denk@@ 46
director 46
exter@@ 46
familia 46
fois 46
incre@@ 46
internet 46
llam@@ 46
lá 46
members 46
north 46
onship 46
police 46
portant 46
saint 46
schnitt 46
strat@@ 46
suppl@@ 46
tá 46
wife 46
ycidae 46
àng 46
üz 46
ʂ@@ 46
γραμμα 46
преме@@ 46
ѫ 46
ҧ@@ 46
ז 46
الح@@ 46
ে@@ 46
ರ@@ 46
ು 46
ก@@ 46
ด@@ 46
ᠠ@@ 46
ốc 46
で@@ 46
地 46
廣@@ 46
教@@ 46
為@@ 46
相@@ 46
英@@ 46
藩 46
鄂@@ 46
陳@@ 46
사 46
장@@ 46
Ankara 45
Atlé@@ 45
Dienst@@ 45
Dokum@@ 45
Hiv@@ 45
Ligue 45
Stutt@@ 45
Wirt@@ 45
achsen 45
aday 45
aiss@@ 45
army 45
arrang@@ 45
bem@@ 45
brother 45
competition 45
conoc@@ 45
dico 45
doba 45
emplo@@ 45
etzt 45
evidence 45
favor@@ 45
femin@@ 45
frei@@ 45
grandes 45
horiz@@ 45
icios 45
ición 45
isra@@ 45
jamais 45
juli@@ 45
limit@@ 45
lık 45
mars 45
peu 45
pler@@ 45
poder@@ 45
première 45
sino 45
tish 45
wani 45
zial@@ 45
Église 45
ılar 45
̧ 45
ίσ@@ 45
είο 45
λος 45
νε@@ 45
τε@@ 45
όμ@@ 45
съю@@ 45
Ѵ 45
Ӈ 45
الج@@ 45
ত@@ 45
ర@@ 45
း 45
ṯ@@ 45
♗ 45
チ@@ 45
ム@@ 45
何@@ 45
兰 45
學@@ 45
本 45
联@@ 45
邢@@ 45
郎@@ 45
防@@ 45
黃@@ 45
龍 45
가@@ 45
신@@ 45
화@@ 45
Amér@@ 44
Bey 44
Eing@@ 44
Futbol 44
Gebi@@ 44
Produk@@ 44
Vater 44
aircraft 44
anten 44
bora 44
commer@@ 44
compil@@ 44
denen 44
derni@@ 44
déf@@ 44
elea 44
figure 44
heute 44
industry 44
kata 44
kleine 44
letzte 44
lieutenant 44
modern@@ 44
nungen 44
onnes 44
ouvr@@ 44
positions 44
protection 44
puis 44
redu@@ 44
sahi@@ 44
sched@@ 44
sources 44
sud 44
symbol@@ 44
tener 44
timm@@ 44
training 44
university 44
uzi 44
villes 44
wieder 44
ätten 44
ép 44
óng 44
ücken 44
ĭ@@ 44
Πρό@@ 44
για 44
κύ@@ 44
σία 44
σσ@@ 44
χος 44
Елизабет 44
групи 44
ствена 44
լ 44
أَ@@ 44
الن@@ 44
ܝ@@ 44
় 44
ย@@ 44
ེ 44
ჯ@@ 44
ẽ@@ 44
久@@ 44
于@@ 44
全@@ 44
口 44
史@@ 44
吉 44
士@@ 44
志 44
於@@ 44
昌 44
玄@@ 44
盘@@ 44
산@@ 44
의 44
Anw@@ 43
Aun@@ 43
Este 43
Jeux 43
Kult@@ 43
Sied@@ 43
ambas 43
anzi 43
arlo 43
atmos@@ 43
bildung 43
cai 43
clim@@ 43
derung 43
donne 43
elimin@@ 43
español 43
evin 43
faisant 43
fallen 43
fass@@ 43
faz@@ 43
gende 43
grands 43
independent 43
infr@@ 43
ingt 43
keiten 43
links 43
named 43
pant@@ 43
perman@@ 43
property 43
raum 43
strum@@ 43
types 43
tü@@ 43
units 43
unos 43
vière 43
völ@@ 43
È 43
ài 43
écn@@ 43
ôle 43
öst@@ 43
Αερ@@ 43
ει 43
εως 43
ματα 43
με 43
παρ@@ 43
σίας 43
συν@@ 43
υλ@@ 43
Љ@@ 43
днес 43
лска 43
Ѧ 43
״ 43
ار 43
فَ@@ 43
لَ@@ 43
ை 43
ོ 43
ὄ@@ 43
∗ 43
す 43
夜@@ 43
大 43
如@@ 43
忠@@ 43
氏 43
祖 43
言 43
设@@ 43
邑 43
郁@@ 43
郭@@ 43
风@@ 43
Allem@@ 42
Grup 42
Insel 42
Mehr@@ 42
Militär@@ 42
Mustafa 42
Nä@@ 42
Situ@@ 42
Zentrum 42
abras 42
affa@@ 42
assistant 42
avu 42
aç 42
ağı 42
cerem@@ 42
chten 42
curs@@ 42
deci@@ 42
earch 42
ebt 42
ekte 42
engen@@ 42
enheit 42
frau 42
huy@@ 42
iert 42
ilik 42
kaf@@ 42
kund@@ 42
official 42
onu 42
preser@@ 42
privil@@ 42
pueblo 42
rather 42
recorded 42
recu@@ 42
restaur@@ 42
rir 42
schein@@ 42
société 42
timents 42
tours 42
vai 42
vuel@@ 42
État 42
äre 42
çı@@ 42
üy@@ 42
üç@@ 42
ű 42
ƣ 42
ș 42
ʑ 42
έλ@@ 42
ικού 42
ορ@@ 42
ριστ@@ 42
ρω@@ 42
όσ@@ 42
служи 42
Դ@@ 42
Յ@@ 42
խ@@ 42
ئ@@ 42
رَ@@ 42
ست@@ 42
گ@@ 42
द 42
ন@@ 42
ச@@ 42
რ 42
‖ 42
∀ 42
せ@@ 42
だ@@ 42
ち 42
兵@@ 42
善@@ 42
夫 42
年 42
弘@@ 42
歌 42
瑞@@ 42
级 42
胜@@ 42
音@@ 42
공@@ 42
동@@ 42
안@@ 42
－ 42
ABD 41
Angleterre 41
Anh 41
Asoci@@ 41
Dorf 41
Gemeinde@@ 41
Liste 41
Mf@@ 41
Orta 41
Pero 41
Regierungs@@ 41
Segunda 41
Sevilla 41
Straßen@@ 41
Topl@@ 41
altungs@@ 41
américa 41
built 41
campagne 41
characters 41
château 41
conditions 41
cé@@ 41
dipl@@ 41
dispos@@ 41
economic 41
ehir@@ 41
eleri 41
episode 41
eshi 41
haut 41
individu@@ 41
koa 41
lili@@ 41
meni 41
mise 41
mü@@ 41
mün@@ 41
novi@@ 41
padre 41
schrif@@ 41
selves 41
steller 41
sí 41
taus@@ 41
toujours 41
toutes 41
tungen 41
tín 41
uç@@ 41
yse 41
áo 41
équ@@ 41
éta@@ 41
úbl@@ 41
ĩ@@ 41
Ī@@ 41
Ū@@ 41
ǰ@@ 41
ǵ@@ 41
ɯ@@ 41
ɾ 41
ʾ 41
θέ@@ 41
ιά 41
σε@@ 41
τι 41
изди@@ 41
смята 41
ър 41
Ґ 41
Һ 41
ӯ 41
ӷ 41
ծ@@ 41
ار@@ 41
ض@@ 41
نا 41
ক@@ 41
ি@@ 41
く 41
じ@@ 41
み@@ 41
ズ 41
中 41
中心 41
交@@ 41
拉@@ 41
牛@@ 41
番@@ 41
话 41
越@@ 41
郡@@ 41
集 41
라@@ 41
주@@ 41
Hanno@@ 40
Nguy@@ 40
Sicher@@ 40
Staaten 40
Uru@@ 40
Waf@@ 40
absor@@ 40
anak@@ 40
année 40
années 40
bey@@ 40
bruch 40
casos 40
cette 40
contact 40
contribu@@ 40
correspond@@ 40
countries 40
dado 40
eight 40
fédér@@ 40
hombre 40
hospit@@ 40
huru 40
ifs 40
impos@@ 40
inaugur@@ 40
iye 40
machen 40
marché 40
maç@@ 40
mehr 40
nouvelles 40
ouvern@@ 40
proces@@ 40
pén@@ 40
reco@@ 40
reve@@ 40
saire 40
seh@@ 40
umani 40
vard@@ 40
worked 40
xã 40
zey@@ 40
èn 40
ñas 40
ĸ@@ 40
ɜ@@ 40
ʀ 40
̩ 40
Κα@@ 40
Καλ@@ 40
γεν@@ 40
ηγ@@ 40
πό@@ 40
език 40
част 40
ът 40
ҭ@@ 40
מ 40
נ 40
آ@@ 40
الس@@ 40
ف 40
ې 40
ण 40
न@@ 40
प 40
য 40
ু@@ 40
ง@@ 40
ว@@ 40
ẹ 40
か 40
き 40
け@@ 40
す@@ 40
わ@@ 40
三 40
亭@@ 40
学 40
昆@@ 40
洪@@ 40
秀@@ 40
義 40
聊@@ 40
論 40
闽@@ 40
齐@@ 40
도@@ 40
미@@ 40
세@@ 40
우@@ 40
︎ 40
División 39
During 39
Lan 39
Sovi@@ 39
Thanh 39
Uy@@ 39
addi@@ 39
aired 39
allow 39
aret@@ 39
assist@@ 39
aujour@@ 39
beim 39
cartes 39
cities 39
closed 39
conse@@ 39
divers@@ 39
divis@@ 39
ecken 39
fik@@ 39
fiz@@ 39
gef@@ 39
gez@@ 39
goal 39
gouvernement 39
kommt 39
lég@@ 39
medical 39
muer@@ 39
neces@@ 39
offs 39
presented 39
seinen 39
signific@@ 39
simpl@@ 39
teil 39
teren 39
texte 39
todo 39
trieb@@ 39
tungs@@ 39
turas 39
yeni 39
zeuge 39
Ý@@ 39
öster@@ 39
ĉ@@ 39
Ľ@@ 39
ŕ 39
ˀ 39
Παν@@ 39
Τα 39
έ 39
κά@@ 39
κας 39
νης 39
през 39
ة@@ 39
ل 39
व 39
இ@@ 39
ു@@ 39
ပ@@ 39
῾ 39
ひ@@ 39
是@@ 39
浮@@ 39
美 39
蒲@@ 39
黔@@ 39
ꙗ 39
국 39
Baş@@ 38
Ecuador 38
Gatt@@ 38
Geographie 38
Höh@@ 38
Kati 38
Kongr@@ 38
Konz@@ 38
Meisterschaft 38
Nach 38
Urugu@@ 38
ampli@@ 38
anik@@ 38
architec@@ 38
bald 38
besonder@@ 38
desc@@ 38
démoc@@ 38
eign@@ 38
eure 38
gehen 38
gó@@ 38
including 38
istem@@ 38
lado 38
madre 38
neu 38
nö@@ 38
nú@@ 38
pale 38
practic@@ 38
profes@@ 38
refle@@ 38
registr@@ 38
ruh@@ 38
segu@@ 38
senior 38
siones 38
stehen 38
students 38
système 38
tay 38
timi 38
tı 38
veaux 38
verz@@ 38
yay@@ 38
yol 38
zwei 38
Öl@@ 38
ónom@@ 38
ört@@ 38
Ł 38
ǯ 38
ɵ 38
̨ 38
ΠΑ@@ 38
ημ@@ 38
καν@@ 38
κατ@@ 38
πά@@ 38
προ@@ 38
Ѕ 38
артиле@@ 38
вяр@@ 38
градове 38
ӹ 38
Վ 38
չ@@ 38
لا@@ 38
ما 38
॥ 38
দ@@ 38
ร@@ 38
့ 38
រ@@ 38
∪ 38
ら 38
ム 38
京 38
利 38
基@@ 38
場 38
孫@@ 38
宇@@ 38
宮@@ 38
島@@ 38
掖@@ 38
来@@ 38
歌@@ 38
武 38
汗 38
漳@@ 38
督 38
科@@ 38
老@@ 38
里 38
金 38
銀@@ 38
경@@ 38
소@@ 38
Als 37
Connecti@@ 37
Lincol@@ 37
Sieg 37
Umw@@ 37
acab@@ 37
acus@@ 37
annten 37
basis 37
calle 37
campo 37
complet@@ 37
concentr@@ 37
cuer@@ 37
divers 37
ebu 37
echa 37
employ@@ 37
enseign@@ 37
ensemble 37
gave 37
gien 37
idades 37
iline 37
important 37
landa 37
luy@@ 37
lü@@ 37
mch@@ 37
muj@@ 37
nne 37
nok@@ 37
pek 37
plann@@ 37
posta 37
prison 37
province 37
sau 37
schreib@@ 37
sold 37
spons@@ 37
states 37
stoff@@ 37
tiempo 37
tiki 37
trique 37
vain@@ 37
veh@@ 37
wirtschaft@@ 37
zul@@ 37
édition 37
ólica 37
üt 37
Ć@@ 37
Đ 37
Ō 37
Ƶ 37
ǣ@@ 37
ɓ 37
ˁ@@ 37
͜ 37
Καρ@@ 37
ετ@@ 37
πατ@@ 37
περί 37
πολι@@ 37
φιλ@@ 37
Ђ 37
ѫ@@ 37
Ң@@ 37
Ҥ 37
ӣ@@ 37
ӹ@@ 37
Տ@@ 37
դ 37
ا@@ 37
क 37
र@@ 37
श 37
স@@ 37
ന@@ 37
ฺ@@ 37
ལ 37
ḍ 37
ḳ@@ 37
ァ@@ 37
业@@ 37
乾@@ 37
佐@@ 37
使 37
典 37
力@@ 37
向@@ 37
大学 37
府@@ 37
拳 37
方 37
火@@ 37
燕@@ 37
線 37
花 37
茅@@ 37
野 37
陆@@ 37
雅@@ 37
黑@@ 37
Amerik@@ 36
Ağ@@ 36
Gesamt@@ 36
Hier 36
Machi 36
Oreg@@ 36
Paraguay 36
Proz@@ 36
Weit@@ 36
Württemberg 36
Zimbab@@ 36
acion@@ 36
afu@@ 36
agric@@ 36
ambu@@ 36
armée 36
bless@@ 36
capac@@ 36
dedic@@ 36
distingu@@ 36
erischen 36
essenti@@ 36
expan@@ 36
expression 36
extra@@ 36
grund 36
habe 36
having 36
ilan 36
istre 36
iyi 36
kale 36
kauf@@ 36
larg@@ 36
libros 36
luch@@ 36
médi@@ 36
nationalen 36
[...]
