۔ 1
کے 1
میں 1
، 1
کی 1
ہے 1
اور 1
سے 1
کا 1
نے 1
اس 1
پر 1
کو 1
ایک 1
ہیں 1
) 0.9436077664525281
( 0.9243253087314168
ان 1
. 0.166820076287917
جو 1
یہ 1
کیا 1
کہ 1
و 1
تھا 1
&quot; 0.34606055516997225
واقع 1
بھی 1
کر 1
ک@@ 1
وہ 1
س@@ 1
تھے 1
@-@ 0.4114253890557572
گ@@ 1
ن@@ 1
یا 1
ی@@ 1
پ@@ 1
لیے 1
ہ 1
وں 1
گیا 1
ہ@@ 1
م@@ 1
ر@@ 1
بعد 1
ب@@ 1
ڈ@@ 1
: 1
و@@ 1
چ@@ 1
ک 1
ل@@ 1
ری@@ 1
ز@@ 1
ٹ 1
جس 1
ے 1
می@@ 1
د@@ 1
ان@@ 1
ج@@ 1
ش@@ 1
سی@@ 1
ہو 1
آبادی 1
ای@@ 1
ا 1
ٹ@@ 1
بی@@ 1
بن 1
تھی 1
آ@@ 1
ساتھ 1
ی 1
س 1
نہیں 1
ح@@ 1
م 1
مجموعی 1
افراد 1
کی@@ 1
کرنے 1
ع@@ 1
; 1
ہی 1
تک 1
دیا 1
اپنے 1
تفصیلات 1
ار@@ 1
ف@@ 1
ت 1
مشتمل 1
&amp; 1
ل 1
ت@@ 1
جاتا 1
دی 1
ا@@ 1
طور 1
ائی 1
کاؤنٹی 1
تو 1
ق@@ 1
ہوئے 1
وی@@ 1
رو@@ 1
بر@@ 1
ری 1
آپ 1
پی@@ 1
را@@ 1
من@@ 1
د 1
ر 1
لی@@ 1
پاکستان 1
کر@@ 1
نہ 1
نام 1
خ@@ 1
ہوا 1
ال@@ 1
لی 1
ز 1
تی 1
اس@@ 1
متحدہ 1
نی@@ 1
ن 1
ش 1
دی@@ 1
شہر 1
یں 1
اللہ 1
ڈ 1
تا 1
گئے 1
زیادہ 1
ضلع 1
امریکا 1
ب 1
ور 1
انہوں 1
اپنی 1
سی 1
ین 1
انی 1
ور@@ 1
علاقہ 1
لے 1
سطح 1
شپ 1
جب 1
ریاستہائے 1
لا@@ 1
کھ@@ 1
گئی 1
دو 1
ام@@ 1
میٹر 1
حاصل 1
محمد 1
ص@@ 1
لیکن 1
کرتے 1
نا 1
مربع 1
ڈی@@ 1
رقبہ 1
ہوئی 1
ٹاؤن 1
کو@@ 1
سر@@ 1
نا@@ 1
ٹی@@ 1
پر@@ 1
وا@@ 1
نی 1
مو@@ 1
ِ 1
بہت 1
بلندی 1
سب 1
رہ 1
کیلومیٹر 1
ہو@@ 1
ط@@ 1
ار 1
اسے 1
غ@@ 1
بھ@@ 1
ات 1
ون@@ 1
سال 1
وقت 1
ٹی 1
کہا 1
لو@@ 1
لا 1
فی@@ 1
تے 1
پہلے 1
ہونے 1
جی@@ 1
شامل 1
ہوتا 1
اب@@ 1
ہی@@ 1
ف 1
والے 1
کچھ 1
/ 1
کسی 1
وی 1
ق 1
اسی 1
رہے 1
gt 1
دہ 1
تی@@ 1
ائ@@ 1
اد@@ 1
خان 1
lt 1
او@@ 1
جن 1
با@@ 1
وجہ 1
مح@@ 1
اری 1
آباد 1
ہر 1
تھ@@ 1
ئ@@ 1
مع@@ 1
اں 1
بی 1
کام 1
شی@@ 1
مر@@ 1
سو@@ 1
گر@@ 1
طرح 1
جنگ 1
ج 1
‘ 1
حکومت 1
رہائشی 1
در@@ 1
علی 1
ول@@ 1
ون 1
ال 1
ما@@ 1
اب 1
چی@@ 1
می 1
دور 1
فر@@ 1
ائی@@ 1
سٹ@@ 1
لیا 1
ھ 1
زی@@ 1
طرف 1
سو 1
حضرت 1
دے 1
نگ 1
نو@@ 1
ٹر 1
دھ@@ 1
سمندر 1
گ 1
گی@@ 1
اف@@ 1
اہ@@ 1
انے 1
کوئی 1
مش@@ 1
خلاف 1
3@@ 1
انہ 1
چ 1
شاہ 1
ست@@ 1
سن 1
کم 1
جو@@ 1
استعمال 1
چھ@@ 1
مطابق 1
دار 1
اک@@ 1
زبان 1
ائے 1
نگ@@ 1
یوں 1
فلم 1
ات@@ 1
’ 0.7658410111096698
انہیں 1
ول 1
شن 1
تعلیم 1
بھارت 1
ام 1
اش@@ 1
ذ@@ 1
یر 1
تمام 1
شروع 1
صوبہ 1
پیدا 1
ي@@ 1
رہا 1
والی 1
زندگی 1
اور@@ 1
کار@@ 1
پ 1
ك@@ 1
ھ@@ 1
گھ@@ 1
پھر 1
ڈی 1
گو@@ 1
مار@@ 1
جن@@ 1
ع 1
ہم 1
تھیں 1
گی 1
لئے 1
تر@@ 1
ث@@ 1
یت 1
وری 1
دوران 1
ض@@ 1
ي 1
انا 1
4@@ 1
نک@@ 1
پور 1
سن@@ 1
مل@@ 1
لہ 1
عام 1
تو@@ 1
- 0.8366820060909708
مقام 1
صرف 1
بے 1
گا 1
اسلام 1
ملک 1
کرکٹ 1
آر@@ 1
مشہور 1
کتاب 1
یہاں 1
غیر 1
کیے 1
دو@@ 1
مہ 1
جاتی 1
کئی 1
تین 1
ہوتی 1
پیش 1
خود 1
ند@@ 1
جہاں 1
کس 1
بو@@ 1
اے 1
را 1
کرنا 1
کرتا 1
بات 1
ڑ 1
لوگوں 1
ٹن 1
مختلف 1
چو@@ 1
سر 1
ڑ@@ 1
کار 1
وب@@ 1
عبد 1
توں 1
موجود 1
تاریخ 1
جا 1
ہوں 1
فی 1
جائے 1
حصہ 1
&#124; 1
امام 1
اص@@ 1
وس@@ 1
الی 1
اپ@@ 1
ما 1
دنیا 1
عمر 1
9@@ 1
6@@ 1
دن 1
فرانسیسی 1
5@@ 1
مان@@ 1
قائم 1
دوسرے 1
سم@@ 1
اہم 1
بن@@ 1
رین 1
8@@ 1
پہلی 1
اج@@ 1
ابن 1
7@@ 1
آف 1
سینٹ 1
ہوائی 1
احمد 1
دونوں 1
ریاست 1
بہ@@ 1
ِ@@ 1
ح 1
کل 1
وفات 1
اح@@ 1
&#93; 1
لینڈ 1
پی 1
الدین 1
2 0.5935916634554991
دریا 1
جانے 1
تا@@ 1
بین 1
اردو 1
جنوبی 1
&#91; 1
قی@@ 1
ٹھ@@ 1
علاوہ 1
مد@@ 1
ٹر@@ 1
مت 1
سک@@ 1
1 0.5148590005608176
یعنی 1
ہزار 1
اتی 1
مس@@ 1
بڑے 1
فہرست 1
نڈ@@ 1
پو@@ 1
of 0.044386340228659005
وار 1
ابو 1
؛ 1
کن@@ 1
مہ@@ 1
است@@ 1
بار 1
تع@@ 1
مت@@ 1
ظ@@ 1
اد 1
&apos; 0.402642037103823
بل@@ 1
پھ@@ 1
مج@@ 1
پاس 1
جی 1
فوج 1
دیگر 1
3 0.6626101017857488
رہی 1
خ 1
علیہ 1
سلطنت 1
یونیورسٹی 1
سید 1
اگر 1
جیسے 1
اسٹیشن 1
بڑا 1
لوگ 1
ء 1
بڑی 1
ہندوستان 1
وم@@ 1
وا 1
مص@@ 1
ایران 1
ہر@@ 1
علم 1
ہوتے 1
جبکہ 1
هٔ 1
ؤ 1
از@@ 1
, 0.010489495397484446
مان 1
تر 1
خاندان 1
روں 1
نس@@ 1
وال@@ 1
صدی 1
خواتین 1
عمل 1
اڈا 1
برا@@ 1
الی@@ 1
2@@ 1
ئی 1
دا@@ 1
ریلوے 1
من 1
دوسری 1
قومی 1
شمالی 1
رات 1
4 0.6867871053860186
ئر 1
سل@@ 1
مگر 1
لو 1
خاص 1
جاری 1
صدر 1
اپنا 1
رے 1
جان@@ 1
پرو@@ 1
جھ@@ 1
حی@@ 1
مغربی 1
ارہ 1
بیان 1
وت@@ 1
بارے 1
جاتے 1
وج@@ 1
بد@@ 1
عدد 1
اگ@@ 1
کل@@ 1
گن 1
پنجاب 1
ابتدائی 1
درمیان 1
ٹو@@ 1
آئی 1
0ء 1
سکتا 1
شی 1
اع@@ 1
بنا 1
تعلق 1
چار 1
ٹیسٹ 1
ۃ 1
بار@@ 1
6 0.7760007183345093
جسے 1
آغاز 1
فرانس 1
والا 1
کرتی 1
تاہم 1
201@@ 1
مک@@ 1
والد 1
قی 1
کا@@ 1
نیو 1
یو@@ 1
بہ 1
علاقے 1
از 1
الم@@ 1
سٹ 1
200@@ 1
لگ@@ 1
حسین 1
5 0.7255385583699873
ڑی 1
7ء 1
نظر 1
َ@@ 1
کن 1
لائ@@ 1
انگ@@ 1
1ء 1
کردار 1
کالج 1
ستان 1
ئے 1
ؓ 1
تق@@ 1
الاقوامی 1
جر@@ 1
ٹا 1
اسٹ@@ 1
گھر 1
تعمیر 1
امریکی 1
ادہ 1
وار@@ 1
گاؤں 1
سیاسی 1
ٹیم 1
رہ@@ 1
گے 1
سا@@ 1
لوں 1
موں 1
یم 1
مین 1
منٹ 1
انوں 1
سپ@@ 1
ند 1
ٹس 1
عرب 1
ُ@@ 1
تعداد 1
وف@@ 1
مق@@ 1
– 0.30312668586331926
ویں 1
انگریزی 1
8 0.8353079034955355
چین 1
صاحب 1
7 0.8271802683848634
نظ@@ 1
جگہ 1
نڈ 1
ارت 1
ممالک 1
لڑ@@ 1
6ء 1
17@@ 0.8223241663698442
5ء 1
شادی 1
مسجد 1
2ء 1
شر@@ 1
پیدائش 1
ادا 1
کیونکہ 1
پری@@ 1
الح@@ 1
اط@@ 1
شیخ 1
فل@@ 1
مسلم 1
یل 1
زی 1
نٹ 1
ابی 1
مکمل 1
اق@@ 1
ڈا 1
1,@@ 1
کہتے 1
اسلامی 1
9 0.9340866936664212
“ 0.46625408080587016
عل@@ 1
ادی 1
قریب 1
لاہور 1
ں 1
مل 1
رس@@ 1
نق@@ 1
ذریعہ 1
گری@@ 1
وزیر 1
دین 1
نس 1
4ء 1
آئ@@ 1
خی@@ 1
انڈ@@ 1
حیثیت 1
20 0.9925431451971921
ط 1
ایا 1
ه@@ 1
یونین 1
کہ@@ 1
20@@ 1
روس 1
اٹھ@@ 1
16@@ 0.9151984318035497
قبل 1
عربی 1
سلطان 1
نج@@ 1
مشرقی 1
عی@@ 1
ولی@@ 1
فری@@ 1
جہ@@ 1
وم 1
ڑے 1
مولانا 1
فار@@ 1
مدد 1
قدیم 1
آئے 1
ۂ 1
کش@@ 1
جے 1
ص 1
بح@@ 1
زمین 1
ہار@@ 1
الینوائے 1
ے@@ 1
رکھا 1
نام@@ 1
کلی@@ 1
15@@ 1
13@@ 1
پڑ@@ 1
ایس 1
قتل 1
نظام 1
عظیم 1
اروں 1
ْ@@ 1
شائع 1
یات 1
فرمایا 1
تص@@ 1
حملہ 1
نو 1
کان@@ 1
ولی 1
وہاں 1
” 1
کری@@ 1
9ء 1
بلکہ 1
علاقوں 1
واپس 1
ّ@@ 1
آیا 1
ذکر 1
غ 1
گرا@@ 1
اختیار 1
رت 1
نوں 1
کرو@@ 1
تم@@ 1
بعض 1
نش@@ 1
ختم 1
مست@@ 1
شا@@ 1
زہ 1
تحریک 1
فتح 1
بنایا 1
میچ 1
شخص 1
فوجی 1
قرآن 1
مال@@ 1
199@@ 1
تب@@ 1
10 0.6828696161243002
وس 1
انی@@ 1
ریہ 1
تھ 1
جا@@ 1
نیا 1
عبد@@ 1
عت 1
لم 1
دینے 1
پہلا 1
مب@@ 1
صح@@ 1
اعظم 1
کوشش 1
اء 1
ڑا 1
تقسیم 1
جانب 1
حکم 1
وال 1
رام 1
مزید 1
برطانوی 1
جان 1
یون@@ 1
پاکستانی 1
ایم 1
کور@@ 1
رسول 1
انھوں 1
دست@@ 1
رنز 1
قابل 1
وق@@ 1
وغیرہ 1
لکھا 1
خدمات 1
اہل 1
آخری 1
سان 1
حسن 1
وے 1
گئیں 1
اسکول 1
بری@@ 1
رو 1
اون@@ 1
خان@@ 1
8ء 1
14@@ 1
تیار 1
کاونٹی 1
مرا@@ 1
بھائی 1
نٹ@@ 1
مارچ 1
ترکی 1
پانی 1
گز@@ 1
پانچ 1
پڑھ@@ 1
كاونٹي 1
كاؤنٹي 1
نز 1
اُ@@ 1
خو@@ 1
مز@@ 1
جمہوریہ 1
بولا 1
مذ@@ 1
چی 1
دان 1
ترین 1
قرار 1
آج 1
سکتے 1
ري@@ 1
چند 1
قہ 1
دل 1
انس@@ 1
آب@@ 1
در 1
این 1
بنیاد 1
بڑھ@@ 1
انجام 1
عم@@ 1
ایسے 1
فو@@ 1
قسم 1
سائ@@ 1
کبھی 1
شت 1
خیال 1
کراچی 1
چل@@ 1
مسلمانوں 1
شہ@@ 1
خدا 1
نار@@ 1
ض 1
دار@@ 1
گو 1
بر 1
بال@@ 1
ترقی 1
قر@@ 1
موجودہ 1
ٹری@@ 1
مرکزی 1
گاہ 1
شمار 1
198@@ 1
اسک@@ 1
متعلق 1
الہ 1
کنساس 1
پور@@ 1
عب@@ 1
حق 1
عالم 1
تم 1
دیتے 1
197@@ 1
کونسل 1
آزاد 1
ٹو 1
3ء 1
تحت 1
مینیسوٹا 1
چھ 1
لفظ 1
سندھ 1
حدیث 1
وان 1
بادشاہ 1
عالمی 1
ؤ@@ 1
ایسا 1
آزادی 1
کرکے 1
مور@@ 1
کھی@@ 1
بنیادی 1
اہ 1
جات 1
ذیل 1
دس 1
اگست 1
موت 1
ژ@@ 1
0@@ 1
مقامی 1
قیام 1
یو 1
سب@@ 1
سلسلہ 1
متعدد 1
اول 1
گروپ 1
پارٹی 1
سرکاری 1
ود 1
ادب 1
انڈیانا 1
داد 1
سا 1
تن@@ 1
مار 1
آخر 1
رکھنے 1
خط@@ 1
امی@@ 1
قانون 1
12 0.7370276454056383
طی@@ 1
رکھتے 1
15 0.8073869615732597
جنوری 1
ائل 1
سفر 1
ظاہر 1
سنگھ 1
ٰ 1
مشی 1
اصل 1
کٹ 1
پھی@@ 1
000 1
بول@@ 1
شو@@ 1
عی 1
زیر 1
آن@@ 1
مپ@@ 1
پوری 1
ہند 1
اکتوبر 1
میر 1
مسلمان 1
دسمبر 1
قبضہ 1
ارے 1
اخ@@ 1
ایڈ@@ 1
سین 1
ث 1
دوبارہ 1
جون 1
رح@@ 1
ہا 1
انتخابات 1
فق@@ 1
مئی 1
ذریعے 1
لز 1
ذ 1
بیٹے 1
امی 1
کافی 1
ك 1
اسٹی@@ 1
ہاتھ 1
فن 1
گا@@ 1
اعلان 1
کیں 1
بنائے 1
داری 1
پہ@@ 1
جدید 1
ستمبر 1
مون@@ 1
شمال 1
فہ 1
رکن 1
تیں 1
پار@@ 1
اتے 1
قوم 1
َ 1
بھارتی 1
جولائی 1
بھی@@ 1
درجہ 1
صورت 1
ڈر 1
جانا 1
کال@@ 1
بچ@@ 1
نومبر 1
19@@ 1
دہلی 1
لاطینی 1
منتخب 1
آسٹریلیا 1
ملا 1
بہترین 1
سامنے 1
کس@@ 1
ڈھ@@ 1
مذہبی 1
عوامی 1
کیریئر 1
شام 1
رب@@ 1
11 0.7951919438669235
اکثر 1
میری 1
جرمنی 1
لندن 1
زر@@ 1
ٰ@@ 1
گن@@ 1
آنے 1
بنانے 1
ﷺ 1
الق@@ 1
تح@@ 1
بند@@ 1
اسمبلی 1
194@@ 1
بل 1
شکست 1
ایسی 1
چکے 1
ڈاکٹر 1
جنوب 1
تف@@ 1
وز@@ 1
دیں 1
روسی 1
وائ@@ 1
اپریل 1
نم@@ 1
وو@@ 1
19 0.9327648399505816
فارسی 1
انتقال 1
گر 1
جنگ@@ 1
نامہ 1
اثر 1
اول@@ 1
سان@@ 1
برطانیہ 1
پس 1
بطور 1
ندر 1
؟ 1
دا 1
ؤں 1
ائیں 1
کریں 1
14 0.8787792014848923
تش@@ 1
آ 1
سوویت 1
تھی@@ 1
فروری 1
مقرر 1
تقریباً 1
جامعہ 1
جہ 1
کرے 1
کوں 1
ادی@@ 1
تحصیل 1
ندی 1
لکھ@@ 1
ائر 1
کیوں 1
فر 1
جنرل 1
قبول 1
سین@@ 1
عات 1
وي@@ 1
سکے 1
فرا@@ 1
حر@@ 1
کامیاب 1
دوں 1
دیکھ@@ 1
رائے 1
لات 1
الن@@ 1
30 0.7524710463408485
مز 1
نئی 1
بند 1
196@@ 1
تاریخی 1
ڈے 1
کاری 1
25 0.8599380536688348
الب@@ 1
دہائی 1
ين@@ 1
دیکھا 1
پسند 1
مر 1
عہد 1
شاہ@@ 1
ائن 1
2,@@ 1
مي@@ 1
وب 1
اخت@@ 1
ٹاون 1
اٹ@@ 1
بچوں 1
رائ@@ 1
195@@ 1
اک 1
10@@ 1
كي@@ 1
امیر 1
16 0.8043014955651033
لي@@ 1
شاعری 1
18 0.7359411934195912
روایت 1
ڈو 1
خوا@@ 1
ہوئیں 1
چنانچہ 1
السلام 1
غز@@ 1
خانہ 1
حالات 1
فض@@ 1
مرکز 1
کول@@ 1
شاہی 1
يا 1
صف@@ 1
شریف 1
الا 1
شاعر 1
مذہب 1
الع@@ 1
انگ 1
ڈو@@ 1
آئیووا 1
ترک 1
صلی 1
اندر 1
13 0.8550271465002973
جماعت 1
اِ@@ 1
12@@ 1
شکل 1
جر 1
پہنچ@@ 1
بھر 1
18@@ 1
سیاست 1
غلام 1
چھوٹا 1
راج 1
جائ@@ 1
نتیجے 1
قب@@ 1
بنی 1
ملی 1
مث@@ 1
موقع 1
مشرق 1
روز 1
دع@@ 1
رنگ 1
فیصد 1
اسرائیل 1
اي@@ 1
17 0.8571961822605314
رون 1
انداز 1
فٹ 1
ائیوں 1
سکتی 1
_ 0.7707224342758662
افغانستان 1
معلوم 1
تد@@ 1
قصبہ 1
حال 1
جل@@ 1
فت@@ 1
مف@@ 1
نئے 1
او 1
یاں 1
کنی@@ 1
کردہ 1
الگ 1
شدہ 1
حصے 1
اِس 1
.@@ 0.6925962013970832
ڈن 1
اف 1
تاکہ 1
اگرچہ 1
یہی 1
کلا@@ 1
چان@@ 1
نف@@ 1
کلومیٹر 1
الت@@ 1
درج 1
نل 1
روز@@ 1
دریائے 1
انسان 1
زب@@ 1
داخل 1
لان@@ 1
لیگ 1
ٹری 1
اُس 1
فیصلہ 1
پڑا 1
پا 1
نمبر 1
انسانی 1
ہندو 1
ڑوں 1
اوہائیو 1
پائی 1
لس 1
چکی 1
ترجمہ 1
کت@@ 1
حد 1
مط@@ 1
کشن 1
سات 1
علامت 1
گرد 1
الر@@ 1
حقوق 1
کردیا 1
آر 1
تہ@@ 1
امن 1
چار@@ 1
مصر 1
خواجہ 1
جواب 1
برو@@ 1
کون@@ 1
یز 1
فراہم 1
دیے 1
قل@@ 1
ایل 1
اج 1
مے 1
مری@@ 1
T@@ 0.1313689447589389
دکھ@@ 1
دہ@@ 1
والوں 1
جمع 1
فت 1
کتب 1
رکھی 1
ہندوستانی 1
باہر 1
کرا@@ 1
اض@@ 1
ارا 1
مقصد 1
اُن 1
معروف 1
کمپنی 1
چر 1
اداکارہ 1
میل 1
زمانے 1
ست 1
ئی@@ 1
وسلم 1
بت 1
لر 1
ٹے 1
مراد 1
تب 1
ویل 1
ادارہ 1
سابق 1
لگا 1
اجازت 1
محل 1
دوسرا 1
سہ@@ 1
باوجود 1
زم 1
24 0.8343138456253362
سیریز 1
وسطی 1
مول@@ 1
ثابت 1
قلعہ 1
گرو@@ 1
چاہ@@ 1
مرتبہ 1
تشکیل 1
21 0.8302722248915456
باب 1
حمایت 1
عوام 1
1@@ 1
ئن 1
اتحاد 1
مال 1
باقی 1
تنظیم 1
واشنگٹن 1
22 0.89771554741203
لال 1
حملے 1
چھوڑ 1
پردیش 1
قص@@ 1
ضرورت 1
برائے 1
کٹ@@ 1
قری@@ 1
ہونا 1
بغیر 1
تعلیمی 1
مات 1
ونا 1
مغرب 1
عہ 1
میہ 1
فیلڈ 1
تیس 1
زمانہ 1
ونی 1
یہودی 1
مدینہ 1
فور@@ 1
ادر 1
وف 1
منتقل 1
مقابلہ 1
کیلیفورنیا 1
لن 1
شیا 1
ئر@@ 1
23 0.8989062677627164
ﺎ@@ 1
سمجھا 1
لار@@ 1
علامہ 1
کشمیر 1
دیتا 1
ورا@@ 1
تج@@ 1
ضی 1
انگلینڈ 1
با 1
ہری 1
کمیون 1
سمجھ@@ 1
خدمت 1
روا@@ 1
رکھ@@ 1
ى 1
ہائی 1
سٹی@@ 1
شن@@ 1
راج@@ 1
صی@@ 1
الفاظ 1
سور@@ 1
ﺍ@@ 1
کھیل 1
طر@@ 1
کھلاڑی 1
بش@@ 1
ایہ 1
سری 1
اکی@@ 1
حالت 1
وسی 1
193@@ 1
Saint 0.8824171372829461
ستی 1
چا 1
اؤ@@ 1
ارات 1
خلافت 1
باز 1
ریس 1
پاک 1
جڑواں 1
ء@@ 1
بغاوت 1
ندھ@@ 1
چلے 1
اعلیٰ 1
ماں 1
نماز 1
کان 1
واں 1
امت 1
فلموں 1
ين 1
بری 1
شہ 1
تہ 1
لین 1
! 0.9599240901397299
میرے 1
چکا 1
علا@@ 1
ٹل 1
رک 1
عہ@@ 1
نسی 1
اتا 1
آگے 1
یورپ 1
رس 1
چھوٹے 1
لت 1
انص@@ 1
سکا 1
گول@@ 1
ناول 1
ران 1
سينٹ 1
نر 1
علوم 1
ٹیلی 1
26 0.9460355339405733
بیر 1
ایف 1
افواج 1
ڈز 1
اولاد 1
ٹھ 1
حلقہ 1
جلد 1
خلی@@ 1
ڑھ@@ 1
3,@@ 1
معنی 1
تعلقات 1
حوالے 1
میدان 1
اتح@@ 1
عمو@@ 1
تخ@@ 1
ایوارڈ 1
ٹوں 1
بع@@ 1
طاقت 1
تربیت 1
سنہ 1
ہوگا 1
مخ@@ 1
کامیابی 1
سماجی 1
رہتے 1
سخت 1
تبدیل 1
تھو@@ 1
تقری@@ 1
نیٹ 1
نسل 1
رہنے 1
سط@@ 1
اؤ 1
متاثر 1
بلا@@ 1
ملا@@ 1
خاتون 1
ماری 1
= 0.8545577977920737
دیکھ 1
گار 1
ٹک 1
انتہائی 1
مغ@@ 1
روم 1
سرگر@@ 1
دری 1
نہایت 1
عد@@ 1
پنسلوانیا 1
حم@@ 1
ولادت 1
پولینڈ 1
28 0.9162113092263683
جرمن 1
27 0.9325361646164312
سائنس 1
ریٹ@@ 1
ماس@@ 1
اضافہ 1
نور 1
رف 1
ادبی 1
زے 1
مصنف 1
باعث 1
نامی 1
كي 1
گڑھ 1
سہ 1
حقیقت 1
نقل 1
اند@@ 1
جنہوں 1
مملکت 1
وطن 1
کہانی 1
رن 1
چھو@@ 1
عثمانی 1
ڈرا@@ 1
ہدایت 1
افی 1
نیشنل 1
اؤں 1
کش 1
بتایا 1
انت@@ 1
لینے 1
واقعہ 1
انھیں 1
the 0.007278018783885401
ذیلی 1
زوں 1
طہ 1
کپ 1
بلند 1
علمی 1
الج@@ 1
گل 1
قیادت 1
خار@@ 1
گور@@ 1
لاس 1
1.@@ 1
موسیقی 1
بان@@ 1
کلاس 1
جیسا 1
چونکہ 1
بندی 1
لگے 1
رض@@ 1
گنتی 1
ﮐ@@ 1
پک@@ 1
َّ@@ 1
مثال 1
خط 1
علی@@ 1
یاد 1
ہلاک 1
محبت 1
چینی 1
بانی 1
وسیع 1
مالک 1
فائ@@ 1
داروں 1
سعودی 1
کہلا@@ 1
مابین 1
بیٹی 1
ولا 1
خر@@ 1
انڈیا 1
جنسی 1
Canton 1
ریوں 1
عراق 1
منظر 1
واقعات 1
ود@@ 1
رش@@ 1
لاکھ 1
رج@@ 1
ه 1
2.@@ 1
ڈل 1
آمد 1
روزہ 1
وز 1
محمود 1
حوالہ 1
راب 1
شک@@ 1
مہم 1
انات 1
اقبال 1
پہنچ 1
نما 1
قدر 1
بنگلہ 1
اعزاز 1
ای 1
دیش 1
e 0.11296949150470771
مختار 1
وات 1
بنے 1
حک@@ 1
نگر 1
الف@@ 1
برگ 1
مسائل 1
ویسٹ 1
شریک 1
مجھے 1
ٹرو@@ 1
اضلاع 1
چر@@ 1
حض@@ 1
پورے 1
پے 1
جارجیا 1
بت@@ 1
تسلیم 1
الش@@ 1
میوں 1
ماہ 1
یک 1
مکہ 1
عقی@@ 1
عددی 1
معاش@@ 1
طویل 1
معی@@ 1
کھیل@@ 1
29 0.9396842264672653
سي@@ 1
اوی@@ 1
شہروں 1
جار@@ 1
امات 1
نبی 1
بجائے 1
ورلڈ 1
سلا@@ 1
کوٹ 1
جزیرہ 1
جائیں 1
ایرانی 1
ٹنگ 1
ہسپانوی 1
واضح 1
ترا@@ 1
ریت 1
پان@@ 1
تقریبا 1
ميں 1
سردار 1
28@@ 1
راہ 1
پیر 1
چاہیے 1
ُ 1
ذمہ 1
ني@@ 1
ؒ 1
نز@@ 1
افریقہ 1
0 0.6401053160319884
وک 1
سال@@ 1
کلام 1
قبیلہ 1
ٹیکساس 1
لکھی 1
پل 1
حل 1
سلو@@ 1
ریل 1
ٰی 1
29@@ 1
عباس 1
عمر@@ 1
ہندی 1
لحاظ 1
لیہ 1
رم 1
ید 1
چل 1
نظاموں 1
پارلی@@ 1
25@@ 1
اك@@ 1
0.@@ 1
آل 1
لیل 1
چے 1
نگار 1
شہری 1
رق@@ 1
شہز@@ 1
40 0.8521503347606884
بي@@ 1
شیر 1
شع@@ 1
پولیس 1
انتخاب 1
پایا 1
شکار 1
پول@@ 1
چلا 1
واق@@ 1
شعب@@ 1
ہا@@ 1
ادات 1
مظ@@ 1
بلحاظ 1
خلیفہ 1
مقابلے 1
زید 1
سام@@ 1
والدہ 1
میڈی@@ 1
مقبول 1
آٹھ 1
ارف 1
اق 1
50 0.7472434743194811
24@@ 1
تحریر 1
اینڈ 1
نمایاں 1
غی@@ 1
in 0.011074277714333919
وص@@ 1
کینیڈا 1
یار 1
اہمیت 1
نوا@@ 1
فرسٹ 1
کتابیں 1
دان@@ 1
جاپان 1
ملکی 1
کت 1
محفوظ 1
نت 1
علما 1
لیں 1
3.@@ 1
ریات 1
توجہ 1
اقوام 1
ریا 1
یورپی 1
رکھتا 1
زیر@@ 1
مضامین 1
دروا@@ 1
صوبے 1
ریکارڈ 1
مسیح 1
پش@@ 1
ھی 1
خد@@ 1
خت 1
وادی 1
مطلب 1
فلمی 1
گروہ 1
بیعت 1
حکمران 1
ورہ 1
گلو@@ 1
مین@@ 1
192@@ 1
ڈگری 1
نیز 1
رہیں 1
سوی@@ 1
ایشیا 1
وسکونسن 1
بہتر 1
مقامات 1
نور@@ 1
ابھی 1
لڑائی 1
صحیح 1
County 0.7118193236001535
فورڈ 1
مخصوص 1
ﮯ 1
حیات 1
بچے 1
جیت 1
لائی 1
کری 1
سنگ@@ 1
آتا 1
گورنر 1
پیمانے 1
یاد@@ 1
-@@ 0.9625632020146498
تحقیق 1
جذ@@ 1
اما 1
شیعہ 1
ہمیشہ 1
صر 1
دل@@ 1
30@@ 1
في@@ 1
کردی 1
زبانوں 1
معاہدے 1
ہجرت 1
بنائی 1
شوں 1
سٹر 1
موسم 1
لہ@@ 1
انیوں 1
بیٹا 1
2018 0.4867270259972604
تحری@@ 1
ريلوے 1
کمان@@ 1
نص@@ 1
وڈ 1
گار@@ 1
جسم 1
ابراہیم 1
اظہار 1
یوسف 1
بیس 1
تناز@@ 1
مجموعہ 1
ماہر 1
الو@@ 1
رد 1
چھوٹی 1
ذہ@@ 1
واحد 1
اث@@ 1
26@@ 1
آتے 1
الم 1
دور@@ 1
مہی@@ 1
اسٹيشن 1
کام@@ 1
پورا 1
اوسط 1
ضروری 1
شہرت 1
صحت 1
ہار 1
تال 1
عمارت 1
انکار 1
لف@@ 1
ممتاز 1
بلے 1
تل@@ 1
دائ@@ 1
ذاتی 1
معاہدہ 1
کوش@@ 1
مجھ 1
جوا@@ 1
لائن 1
پہاڑ 1
اسلا@@ 1
یارک 1
نواب 1
کنٹرول 1
سمیت 1
بز@@ 1
بال 1
پیچھے 1
معلومات 1
چیز 1
مرح@@ 1
ڑیوں 1
رار 1
فرم@@ 1
لن@@ 1
مختصر 1
مظاہ@@ 1
نتیجہ 1
عن@@ 1
عیسوی 1
قانونی 1
مانی 1
فا@@ 1
طریقہ 1
كے 1
پروگرام 1
کاروں 1
تجرب@@ 1
عے 1
اٹ 1
رتی 1
سویں 1
ورجینیا 1
مبنی 1
تباہ 1
دولت 1
الیہ 1
شخصیت 1
روڈ 1
یس 1
دت 1
دیوں 1
زندہ 1
دگی 1
پنجابی 1
جنگی 1
وت 1
اقتدار 1
خطر@@ 1
ثر 1
سفی@@ 1
یونانی 1
بیوی 1
جہاز 1
کہیں 1
شین 1
آیت 1
4.@@ 1
انقلاب 1
دھی 1
کتابوں 1
قات 1
ْ 1
h 0.19925541674631966
الس@@ 1
ثقافت 1
میاں 1
باپ 1
سارے 1
اچھ@@ 1
دھ 1
امل 1
سل 1
وک@@ 1
31 0.8710314277822814
سما@@ 1
الیس 1
کھوں 1
وجود 1
وٹ 1
برس 1
مؤ@@ 1
مبر 1
نصف 1
ولوں 1
انعام 1
باش@@ 1
کھیلے 1
District 1
منی 1
طالب 1
پن 1
سعید 1
دورہ 1
ندوں 1
عبداللہ 1
وہ@@ 1
عرصہ 1
بینک 1
کاروب@@ 1
شہید 1
ہنگ@@ 1
ولا@@ 1
an 0.03475220415657522
نسب 1
ریاستوں 1
قائد 1
نک 1
سلسلے 1
پیغ@@ 1
لان 1
ابی@@ 1
حافظ 1
آواز 1
لیک 1
پورٹ 1
عرصے 1
ہاں 1
روانہ 1
ایڈی@@ 1
چش@@ 1
زن 1
شا 1
ایچ 1
وَ@@ 1
کشی 1
ملین 1
مول 1
دیق 1
ونگ 1
عر@@ 1
متح@@ 1
بلی@@ 1
تصور 1
سٹی 1
طرز 1
ملتا 1
محکمہ 1
ندہ 1
27@@ 1
L@@ 0.08029267076893895
ﯿ@@ 1
بیت 1
پرا@@ 1
کین 1
خلا@@ 1
ایک@@ 1
حہ 1
مقد@@ 1
يك@@ 1
پارک 1
اوپر 1
شرح 1
لکھتے 1
پروفیسر 1
کرم 1
انتظ@@ 1
جگ@@ 1
بڑھ 1
پہنچا 1
كو@@ 1
مندرجہ 1
کھیلا 1
کھ 1
راست 1
کریم 1
بننے 1
کوئ@@ 1
الحکومت 1
معام@@ 1
دوم 1
عورت 1
مطالعہ 1
ئ 1
4,@@ 1
اؤن@@ 1
وض@@ 1
الرحمن 1
زور 1
شرکت 1
بج@@ 1
خت@@ 1
يو@@ 1
کاش@@ 1
D@@ 0.07912906892051932
ملے 1
منصوبہ 1
ویب 1
خری@@ 1
مرزا 1
ونی@@ 1
مائ@@ 1
نیوزی 1
کیم@@ 1
امیہ 1
زار 1
مری 1
فرماتے 1
چک 1
لنکا 1
بھیجا 1
درا@@ 1
جد 1
60 0.9034109126751558
تار@@ 1
ینی 1
ہویں 1
شان 1
لایا 1
بات@@ 1
نمائندگی 1
ہمارے 1
وکٹیں 1
کمی 1
اخبار 1
اداکار 1
تلاش 1
سیزن 1
بخش 1
انج@@ 1
لوک 1
معاشی 1
اصطلاح 1
الل@@ 1
رک@@ 1
پائے 1
مینی@@ 1
امور 1
100 0.5905914250073383
نجی 1
حصوں 1
سربراہ 1
جاسکتا 1
مدرسہ 1
ابتدا 1
بوس@@ 1
بوں 1
تک@@ 1
اسب 1
داخ@@ 1
سنچ@@ 1
دریافت 1
شے 1
صاح@@ 1
انتظام 1
ثقافتی 1
سامنا 1
قبائل 1
پال 1
روایات 1
فضل 1
کہنا 1
اخلا@@ 1
نقصان 1
استاد 1
رت@@ 1
افری@@ 1
ہند@@ 1
تحقی@@ 1
خبر 1
ہیپلو 1
تخت 1
آلہ 1
خرا@@ 1
اپ 1
مشترکہ 1
یہو@@ 1
شدید 1
تجارت 1
خصوصی 1
رہتا 1
سبب 1
زائد 1
امریکہ 1
مرد 1
گل@@ 1
2019 0.4435550391111108
دانوں 1
سول@@ 1
جنا@@ 1
آدمی 1
بنگ@@ 1
سنت 1
انجی@@ 1
دم 1
روایتی 1
بول 1
ممکن 1
مالی 1
چہ 1
رز 1
5.@@ 1
حد@@ 1
صد@@ 1
العلوم 1
عہدے 1
سالوں 1
فاص@@ 1
ترتیب 1
لگایا 1
اتر 1
عملی 1
عثمان 1
درس 1
فقہ 1
ازاں 1
ادارے 1
مجبور 1
متی 1
آن 1
قد@@ 1
ﻣ@@ 1
سنبھ@@ 1
رب 1
وو 1
باغ@@ 1
دیر 1
جز@@ 1
سڑ@@ 1
تس@@ 1
اکبر 1
اری@@ 1
ﻮ@@ 1
برقرار 1
زا 1
6.@@ 1
بیشتر 1
راس 1
کیرولائنا 1
بیٹھ@@ 1
دھا 1
باب@@ 1
S@@ 0.05955152396642109
ویژن 1
راستہ 1
ائي 1
سون@@ 1
وق 1
% 0.13213765554513396
سوں 1
سیوں 1
شہنشاہ 1
قاضی 1
ایشی@@ 1
دست 1
K@@ 0.09058807875358434
انیہ 1
ناکام 1
تشدد 1
دي@@ 1
عدالت 1
میر@@ 1
بدھ 1
يل 1
قید 1
کور 1
اگلے 1
عین 1
صوبائی 1
فرد 1
اننگز 1
دری@@ 1
قط@@ 1
2013 0.37829871171080326
مضبوط 1
گرفتار 1
پیشہ 1
خون 1
کمیونٹی 1
ڈیم 1
طے 1
تاب@@ 1
ساس 1
ران@@ 1
70 0.9980098097082656
اح 1
بلوچستان 1
تیز 1
35 1
وسط 1
ns 0.7514430014176088
الد@@ 1
مَ@@ 1
دینا 1
ذات 1
جمع@@ 1
کرکٹر 1
رضا 1
نظم 1
جام@@ 1
رہنما 1
ازی 1
تجارتی 1
model 1
اعلی 1
دہشت 1
کرو 1
قت 1
لَ@@ 1
پہنچے 1
تعریف 1
رکھ 1
کمیٹی 1
مزاح@@ 1
لڈ 1
الص@@ 1
وط@@ 1
کنارے 1
حالانکہ 1
اہے 1
مخالف 1
مض@@ 1
ہمی 1
7.@@ 1
انٹرنیشنل 1
format 1
بہار 1
contributor 1
timestamp 1
بق@@ 1
مغل 1
وابستہ 1
عق@@ 1
کوڈ 1
عش@@ 1
فوجیوں 1
ہاتھوں 1
پین 1
سپر@@ 1
عظ@@ 1
80 0.9156584606708297
مند 1
طلب 1
مشکل 1
راستے 1
M@@ 0.07532299247952495
کث@@ 1
زمرہ 1
موضوع 1
نان@@ 1
‌ 1
پڑے 1
کانگریس 1
لکھے 1
روشنی 1
شری@@ 1
تفسیر 1
پتہ 1
کلب 1
A@@ 0.08975200403973478
حکوم@@ 1
وش 1
ہجری 1
8.@@ 1
ویٰ 1
رخ 1
گان 1
ٹرز 1
کمیون@@ 1
حکمرانی 1
عز@@ 1
ملاقات 1
گلی@@ 1
ٹائ@@ 1
پیرو@@ 1
سنی 1
وہی 1
مسوری 1
طاق@@ 1
نظریہ 1
مستقل 1
نیو@@ 1
آز@@ 1
username 1
اون 1
طلبہ 1
جون@@ 1
ائم 1
افس@@ 1
9.@@ 1
190@@ 1
بہن 1
H@@ 0.07529865981322224
جزی@@ 1
سرحد 1
حی 1
بط 1
بنگال 1
br 1
دش@@ 1
نامزد 1
کوس@@ 1
فیض 1
موسیٰ 1
رکھتی 1
لگ 1
راجا 1
شعبہ 1
وع@@ 1
احت 1
P@@ 0.0726474691274676
خوش 1
پرستی 1
سابقہ 1
مسل@@ 1
حیدرآباد 1
عطا 1
and 0.009495544612341816
تبدیلی 1
دیتی 1
رضی 1
نٹی 1
انٹر@@ 1
کٹر 1
باغ 1
مرو@@ 1
دلچ@@ 1
فین 1
نیچے 1
پن@@ 1
ابھ@@ 1
فات 1
میچوں 1
نوازا 1
برابر 1
ہوگئے 1
ڈری@@ 1
محدود 1
ناک 1
ڑنے 1
بحیرہ 1
جنہیں 1
اختتام 1
بارہ 1
حال@@ 1
پناہ 1
دنوں 1
نج 1
نائ@@ 1
عور@@ 1
اعداد 1
ویل@@ 1
ٹیاں 1
اباد 1
خیبر 1
B@@ 0.07023265846272393
لغ@@ 1
دینی 1
میڈیا 1
ورا 1
ابل 1
باد 1
ڈیو 1
ٹہ 1
یافتہ 1
مبارک 1
زن@@ 1
نسبت 1
مینی 1
انتظامی 1
سزا 1
منعقد 1
اتھ 1
نت@@ 1
5,@@ 1
الز@@ 1
سند 1
اوری@@ 1
ہرا 1
ہوکر 1
یمن 1
تیہ 1
پلی@@ 1
اوی 1
تعالیٰ 1
دوست 1
مزار 1
منسو@@ 1
گیند 1
تری 1
میرا 1
الے 1
یاب 1
ساری 1
ں@@ 1
بلدیہ 1
دف@@ 1
x 0.22451995031781122
مور 1
بور@@ 1
2018ء 1
mtDNA 1
نزدیک 1
انگلستان 1
آئین 1
بالکل 1
بنت 1
وزی@@ 1
خطے 1
فلو@@ 1
جھیل 1
قو@@ 1
روک@@ 1
ماد@@ 1
فلسطین 1
معمولی 1
سف@@ 1
لہذا 1
90 0.9704617101153392
سلیمان 1
مخالفت 1
آب 1
دفاع 1
آتی 1
2015 0.3321663547812
مندر 1
نما@@ 1
تن 1
فوج@@ 1
2013ء 1
كا 1
ویت 1
چلی 1
comment 1
گوں 1
بورڈ 1
بیرونی 1
19ء 1
لائے 1
2014 0.32396679195112715
اقد@@ 1
فرق 1
کون 1
خود@@ 1
ارکان 1
تنقید 1
اضی 1
حج@@ 1
ملتان 1
ایت 1
دعوت 1
گان@@ 1
لنگ 1
جامع 1
کستان 1
کمال 1
سکی 1
جم@@ 1
بازی 1
تصنیف 1
ير@@ 1
گھو@@ 1
G@@ 0.07272549995008809
مدت 1
لم@@ 1
حاضر 1
نڈر 1
بیگم 1
کمپ@@ 1
ﯽ 1
بخ@@ 1
وکٹ 1
پسند@@ 1
خوش@@ 1
کم@@ 1
6,@@ 1
آبشار 1
راک 1
الزام 1
بازار 1
اداکاری 1
وان@@ 1
اختلاف 1
دفتر 1
روک 1
اشاعت 1
قاد@@ 1
لانے 1
لوی 1
تفصی@@ 1
اموں 1
اداروں 1
مجلس 1
ناف@@ 1
کارکردگی 1
وش@@ 1
سعد 1
ثانی 1
حامل 1
اوقات 1
اصول 1
پرست 1
بادشاہ@@ 1
مثلاً 1
یاء 1
اورا@@ 1
تیسری 1
شار@@ 1
مقدس 1
جاپانی 1
سورج 1
ملتی 1
بحری 1
شماری 1
لیت 1
یور@@ 1
وح@@ 1
وزارت 1
مدر@@ 1
سنگ 1
ً 1
ہن@@ 1
مونٹ@@ 1
مرے 1
نہ@@ 1
عبادت 1
حلق@@ 1
تعاون 1
یاتی 1
یے 1
Gmina 1
پابندی 1
ساز 1
بلو@@ 1
معاو@@ 1
زبر@@ 1
لقب 1
شخصیات 1
کارپو@@ 1
ثہ 1
حضور 1
Q@@ 0.6902639044638358
شد 1
۱@@ 1
جنھوں 1
سٹن 1
اندازہ 1
ذرائع 1
کھا 1
اکثریت 1
خل@@ 1
نوی 1
پہ 1
w@@ 0.08056795636181506
لح@@ 1
N@@ 0.07535845816599275
پیداوار 1
دانی 1
اعتبار 1
مضمون 1
ایس@@ 1
محسوس 1
گورن@@ 1
خیر 1
formula 0.4043295567583744
سرب@@ 1
کثیر 1
پچ@@ 1
بد 1
فروغ 1
لشکر 1
منسلک 1
ہان 1
32 1
سع@@ 1
بو 1
رل 1
ین@@ 1
مد 1
برج 1
يو 1
يں 1
کوریا 1
فری 1
قوت 1
خطاب 1
اقسام 1
عص@@ 1
مفتی 1
اڑ@@ 1
جیسی 1
تخلیق 1
سائٹ 1
لمب@@ 1
بزرگ 1
شید 1
صوبوں 1
نصی@@ 1
فیصل 1
لیتے 1
تمہ@@ 1
قول 1
20ء 1
s 0.03538150652586249
سنی@@ 1
قبر@@ 1
ابہ@@ 1
پہن@@ 1
حقیقی 1
چیف 1
شوہر 1
بلغ@@ 1
2008 0.3073927040422653
شتہ 1
مارا 1
گزر@@ 1
حاج@@ 1
اغ@@ 1
الغ@@ 1
ـ 1
نائب 1
75 1
مطالبہ 1
زي@@ 1
رہتی 1
زر 1
45 0.9393764128758596
parentid 1
دشمن 1
جزائر 1
جنس 1
سج@@ 1
فکر 1
سکھ 1
موا@@ 1
اوائل 1
راء 1
ریاستی 1
زل 1
تذکرہ 1
صنع@@ 1
ملازمت 1
ووڈ 1
ہوگی 1
فتہ 1
انگریزوں 1
کمز@@ 1
درخواست 1
33 1
لیز 1
بص@@ 1
کے@@ 1
کیم 1
نيو 1
a 0.008705062732352189
ڈراما 1
قاب@@ 1
مردم 1
میم 1
ڈیا 1
نشان 1
الحق 1
پہاڑی 1
لز@@ 1
جغرا@@ 1
مسلسل 1
تہذیب 1
مخت@@ 1
کنالوجی 1
رقم 1
سوم 1
دفعہ 1
مسی@@ 1
اعی 1
ایئر 1
2012 0.2893210250630069
محافظ@@ 1
علاقائی 1
ریڈیو 1
ایمان 1
آذربائیجان 1
شہادت 1
منظور 1
بس 1
آگ 1
محض 1
ہد@@ 1
آرمی 1
آثار 1
سرا@@ 1
مُ@@ 1
تشریف 1
نان 1
والدین 1
مقیم 1
بابا 1
2010 0.23237768396965477
بیب 1
سلی@@ 1
چک@@ 1
ساحل 1
کین@@ 1
خوبصورت 1
غازی 1
وید 1
چن 1
de 0.005365703979320081
باقاعدہ 1
تجویز 1
36 1
اض 1
زو 1
معاشرے 1
y 0.018783740438247994
پشاور 1
تلا@@ 1
پہا@@ 1
یقین 1
عکس 1
افت 1
طل@@ 1
امہ 1
ٹنے 1
34 1
بغداد 1
ساز@@ 1
عدم 1
سرم@@ 1
عنوان 1
لف 1
آسٹریا 1
خانے 1
لوٹ 1
سوان@@ 1
غل@@ 1
لِ 1
فیہ 1
بورو 1
روج 1
طب@@ 1
ڈالر 1
باد@@ 1
ہن 1
ادے 1
قین 1
روف 1
سار@@ 1
عثمانیہ 1
الخ@@ 1
ولت 1
ٹھی 1
مسیحی 1
رپورٹ 1
عیس@@ 1
رئ@@ 1
دیو@@ 1
سفار@@ 1
اچھی 1
معاملات 1
آس@@ 1
منہ 1
قدم 1
لینا 1
اوا 1
فران@@ 1
بلیو 1
تیزی 1
آسٹ@@ 1
زخمی 1
اکیڈمی 1
قبیلے 1
ڈویژن 1
2017 0.31250336191768296
انڈین 1
طریقے 1
فلس@@ 1
روحانی 1
ڈال@@ 1
لي 1
سي 1
پزیر 1
ملی@@ 1
ندے 1
رہائش 1
صاف 1
7,@@ 1
ماؤنٹ 1
صحابہ 1
مشاہ@@ 1
2016 0.29087283568043426
دستاوی@@ 1
شناخت 1
نمائند@@ 1
گزی@@ 1
تحفظ 1
اریہ 1
سوس@@ 1
جارج 1
سامان 1
شو 1
چاہتے 1
C@@ 0.05462584535252052
آپ@@ 1
ایئرپورٹ 1
ذا 1
رنگ@@ 1
ضاب@@ 1
امتی@@ 1
ستوں 1
لاحات 1
سز 1
جاس@@ 1
سرو@@ 1
٪ 1
باری 1
صنعت 1
سونے 1
میونسپل 1
یک@@ 1
ماہ@@ 1
جوی@@ 1
کھانے 1
بالا 1
شہرستان 1
غور 1
شاید 1
جلال 1
راہ@@ 1
شمولیت 1
عط@@ 1
قا 1
ہائے 1
العزیز 1
فروخت 1
باؤ@@ 1
پتھر 1
بخاری 1
ﺮ@@ 1
خز@@ 1
الات 1
الک@@ 1
خالد 1
لاح@@ 1
صبح 1
نکل 1
آئیں 1
دائیں 1
نسلی 1
بھو@@ 1
عمرو 1
واپسی 1
بدر 1
مای@@ 1
پالیسی 1
الت 1
شرا@@ 1
صلاحیت 1
ریب 1
مند@@ 1
ورک 1
ہمیں 1
جما@@ 1
دربار 1
گجرات 1
دیکھنے 1
سالہ 1
شور 1
یٰ 1
تِ 1
جیک@@ 1
تاج 1
اطلاع 1
لک@@ 1
وبا 1
ہرے 1
2011 0.24958770439268804
غالب 1
لاح 1
نشانہ 1
ہٹ 1
حرکت 1
39 1
ہزاروں 1
گوا@@ 1
فائدہ 1
قائ@@ 1
ادیوں 1
اہی 1
دارالحکومت 1
فیت 1
38 1
ادھ@@ 1
خام@@ 1
ہے@@ 1
ومن@@ 1
پند@@ 1
بنو 1
بائ@@ 1
37 1
پلا@@ 1
O@@ 0.09216927512795585
آغ@@ 1
براہ 1
احتج@@ 1
شاد 1
بولی 1
ٹورنامنٹ 1
ڈیبیو 1
الوی 1
2008ء 1
شان@@ 1
حص@@ 1
شاخ 1
فن@@ 1
قیمت 1
نوجوان 1
اسم 1
بالآخر 1
آمد@@ 1
فون 1
ہوم 1
لیوں 1
دون@@ 1
اتفاق 1
اظ@@ 1
ریلوی 1
صور@@ 1
سپی 1
بک 1
انت 1
نگی 1
روح 1
سازی 1
فارس 1
مراہ 1
نیوں 1
ربی@@ 1
عالم@@ 1
موجودگی 1
پرت@@ 1
گون 1
اسکور 1
خصوصیات 1
مقبر@@ 1
جانی 1
حروف 1
سفید 1
ارک 1
آہستہ 1
بدل 1
فار 1
دوس@@ 1
داخلہ 1
انقلا@@ 1
بٹ@@ 1
یکم 1
ریٹ 1
میٹر@@ 1
مہاراش@@ 1
ٹاؤنشپ 1
آؤٹ 1
پٹ@@ 1
تصانیف 1
مہار@@ 1
جعفر 1
یقی@@ 1
ساتھی 1
ورڈ 1
نکل@@ 1
ير 1
غلط 1
پختونخوا 1
بحر 1
حفاظت 1
بچپن 1
ساؤ@@ 1
لب@@ 1
ملکہ 1
سوال 1
فلپائن 1
مردوں 1
پائ@@ 1
8,@@ 1
ڈائریکٹر 1
ہل 1
فائز 1
بحث 1
جیل 1
ہوگئی 1
ہل@@ 1
افغان 1
مقدار 1
ہوگیا 1
اذ 1
قدرتی 1
سرزمین 1
وفاقی 1
انڈیز 1
متعارف 1
نیویارک 1
ممبئی 1
سکر@@ 1
نوبل 1
ٹک@@ 1
ہد 1
پون@@ 1
200 0.7809313974524589
دستخط 1
کوہ 1
حج 1
پہچ@@ 1
بھر@@ 1
رفتار 1
میکسیکو 1
جدوجہد 1
ڈکوٹا 1
کھلا@@ 1
مسیسپی 1
سمجھتے 1
مپشائر 1
سلیم 1
آئرلینڈ 1
جمہ@@ 1
وہیں 1
ریڈ 1
ادت 1
مسلح 1
پاشا 1
اسماعیل 1
پا@@ 1
اثرات 1
کیٹ 1
گھر@@ 1
یہودیوں 1
بلوچ 1
خواہش 1
شعر 1
ٹینی@@ 1
بکر 1
دراصل 1
ظم 1
ماؤنٹین 1
چرچ 1
کہہ 1
تبلی@@ 1
جم 1
علاج 1
فرنس 1
پبل@@ 1
کپتان 1
عَ@@ 1
ﻧ@@ 1
لين@@ 1
500 0.7696002444984255
خش@@ 1
اً 1
لیس 1
وین 1
سربراہی 1
قوانین 1
کیل 1
دورے 1
فس@@ 1
تیسرے 1
رابط@@ 1
65 0.8516758869748928
رسم 1
منظ@@ 1
حملوں 1
خاتمہ 1
رض 1
مسئلہ 1
ائیس 1
ثبوت 1
R@@ 0.05445911472119693
بہادر 1
كر@@ 1
نگٹن 1
تھائی 1
منگ@@ 1
ٹیوٹ 1
کمیشن 1
البتہ 1
مرک@@ 1
اتنا 1
زیشن 1
منصوبے 1
مقب@@ 1
یحی@@ 1
سکیں 1
ڈال 1
t 0.04060068013786176
برصغیر 1
شمس 1
شیں 1
55 1
2020 0.3059455190760418
رانی 1
لون@@ 1
نر@@ 1
نٹن 1
متعلقہ 1
کینٹکی 1
ﻭ@@ 1
اعز@@ 1
جانوروں 1
کولمبیا 1
کربلا 1
شل 1
تصویر 1
حول 1
خاتمے 1
دبا@@ 1
قبرص 1
وایا 1
پنڈی 1
احادیث 1
يني@@ 1
انیں 1
محاص@@ 1
فا 1
خاص@@ 1
ظ 1
کیوب@@ 1
قاسم 1
پوس@@ 1
اطلا@@ 1
زیز 1
9,@@ 1
اسرائیلی 1
کنگ 1
الجزائر 1
فورس 1
آپریشن 1
ورش 1
42 1
صوفی 1
ماہرین 1
ہاش@@ 1
کوفہ 1
سندھی 1
2009 0.24926137307578913
تکمیل 1
ذر 1
Ch@@ 0.11044000036916603
آگ@@ 1
ذی@@ 1
کرلی 1
تنظی@@ 1
پوچھا 1
پیرس 1
نگا 1
کٹی@@ 1
نگرانی 1
ڈھان@@ 1
کرایا 1
سام 1
خر 1
کارروائی 1
189@@ 1
انگریز 1
توان@@ 1
نع@@ 1
حصول 1
لکھن@@ 1
داد@@ 1
مارشل 1
2007 0.2630973699114293
اتذ@@ 1
ڑھ 1
پیش@@ 1
کرام 1
نیپال 1
انس 1
عرض 1
خوف 1
اَ@@ 1
استح@@ 1
ؑ 1
دید 1
سخ@@ 1
جع@@ 1
خال@@ 1
کمپیوٹر 1
سز@@ 1
ہتھیار 1
عمران 1
سالانہ 1
فرائ@@ 1
سلط@@ 1
فاطمہ 1
مہاج@@ 1
قطب 1
ہاؤ@@ 1
ﺎ 1
اذ@@ 1
صفحات 1
قدر@@ 1
ضد 1
مائی 1
دفن 1
52 1
نواز 1
پي@@ 1
عمان 1
44 1
دعا 1
عائ@@ 1
فیص@@ 1
ہندو@@ 1
ہسپ@@ 1
ژن 1
eh 1
مواد 1
اني 1
خف@@ 1
پولی@@ 1
al 0.030929690721133298
امتح@@ 1
ہلا@@ 1
48 1
ضر@@ 1
ناز@@ 1
درست 1
مم@@ 1
41 1
قبض@@ 1
منظم 1
ﮨ@@ 1
47 1
85 1
on 0.017575339252710195
سمت 1
الاب@@ 1
ستہ 1
عار 1
عائد 1
ﺳ@@ 1
نسخ@@ 1
ﺭ@@ 1
بس@@ 1
فرار 1
خی 1
روش@@ 1
مِ@@ 1
قل 1
La 0.07213421597474562
58 1
abad 1
شر 1
بع 1
اقتص@@ 1
لس@@ 1
قرب@@ 1
ورو 1
56 1
اش 1
ساح@@ 1
غزل 1
188@@ 1
ري 1
لل@@ 1
حام@@ 1
عار@@ 1
بلا 1
ریلو@@ 1
مدی@@ 1
مارے 1
43 1
سك@@ 1
ٔ 1
57 1
معر@@ 1
صف 1
کاؤن@@ 1
نتی@@ 1
انتخ@@ 1
ar 0.051713349508900754
بلی 1
53 1
بغ@@ 1
الاس@@ 1
ائنات 1
سات@@ 1
86 1
ﺑ@@ 1
95 1
صاد@@ 1
مسعود 1
46 1
23@@ 1
حان 1
سلام 1
54 1
رونی 1
وك@@ 1
2006 0.2458444628665616
ّ 1
72 1
مصنف@@ 1
61 1
موضوعات 1
2021 0.345906118648855
رف@@ 1
ماً 1
سیع 1
نط@@ 1
00@@ 1
J@@ 0.0788121981479666
طالبان 1
ملائ@@ 1
87 1
تسل@@ 1
نتائج 1
مانیہ 1
تاب 1
ریز 1
وقوع 1
دوار 1
99 1
الط@@ 1
بون@@ 1
عام@@ 1
تنا@@ 1
d 0.05573930003714278
51 1
حت 1
جلا@@ 1
حس@@ 1
49 1
حمل 1
مستقبل 1
خوب@@ 1
شار 1
62 1
ہسپان@@ 1
صل 1
سول 1
اندا@@ 1
شاع@@ 1
راف 1
رن@@ 1
استن@@ 1
لاز@@ 1
زون 1
الله 1
​ 1
غلا@@ 1
64 0.8469095497761808
68 1
مالي 1
آخ@@ 1
عمل@@ 1
88 1
مرہ 1
عد 1
اطر 1
سور 1
فرو@@ 1
Z 1
63 1
امر 1
2000 0.2638732860245042
اوہ@@ 1
طب 1
عرا@@ 1
ﯾ@@ 1
جرا@@ 1
اعت 1
فل 1
وري 1
گرام 1
لوب 1
المل@@ 1
بان 1
ہز@@ 1
جوع 1
سوٹا 1
عرب@@ 1
تز@@ 1
راً 1
شعر@@ 1
مس 1
اجد 1
وند 1
تور 1
زرا@@ 1
سم 1
66 1
زائ@@ 1
59 1
وروں 1
ہور 1
78 1
c 0.0824136845376429
متع@@ 1
نغ@@ 1
عامر 1
الْ@@ 1
E@@ 0.05726987048024271
دما@@ 1
درو@@ 1
96 1
جمال 1
حار@@ 1
74 1
83 1
حزب 1
ترج@@ 1
حاق 1
185@@ 1
I@@ 0.09845266893659756
تاج@@ 1
الرح@@ 1
73 1
بط@@ 1
رَ@@ 1
سند@@ 1
یع@@ 1
ﺗ@@ 1
84 1
W@@ 0.05100676920399473
نمو@@ 1
حات 1
i 0.07351305616529759
أَ@@ 1
ؔ 1
نگز 1
خبر@@ 1
92 1
ڈاک@@ 1
صلا@@ 1
77 1
عب 1
سیر 1
جد@@ 1
افت@@ 1
توا@@ 1
ائد 1
باس@@ 1
98 1
صوب@@ 1
93 1
حدود 1
76 1
97 1
چوں 1
امری@@ 1
سين 1
67 1
الين@@ 1
يون@@ 1
81 1
بِ@@ 1
دث 1
لاب 1
ادم 1
300 0.9328275491953408
F@@ 0.043769129688573806
يم 1
امین 1
تبا@@ 1
عاش@@ 1
94 1
كون@@ 1
ترو@@ 1
+ 0.5418624080961695
69 1
مجموع@@ 1
تمل 1
مون 1
پاب@@ 1
حکمر@@ 1
ناصر 1
طبق@@ 1
نمائ@@ 1
h@@ 0.04653814522578491
نشر 1
اعتماد 1
قدی@@ 1
V@@ 0.05815899604488957
تَ@@ 1
an@@ 0.052356534445988874
يانا 1
ar@@ 0.05073787543463711
wiki 1
تون@@ 1
عث@@ 1
03 1
82 1
text 1
ارس 1
افر 1
بزر@@ 1
فس 1
71 1
مي 1
187@@ 1
مو 1
حاب 1
سُ@@ 1
تیسر@@ 1
نساس 1
افع 1
مسا@@ 1
1,0@@ 1
طریق@@ 1
0,@@ 0.5878427420083799
Rural 1
کمی@@ 1
ازات 1
تور@@ 1
وض 1
2005 0.24424556273022477
شرو@@ 1
جات@@ 1
91 1
ضل 1
89 1
حساب 1
جاسک@@ 1
d@@ 0.04103033432558342
تض@@ 1
شائر 1
05 1
حاد@@ 1
کیرو@@ 1
الف 1
جناح 1
ریاست@@ 1
راز 1
صوف@@ 1
ورت 1
2004 0.2530584322752052
رومان@@ 1
وزن 1
09 1
درمی@@ 1
احترا@@ 1
صل@@ 1
علماء 1
79 1
ext 1
ye 0.4966012646177928
میت 1
revision 1
ارب 1
186@@ 1
اعتراف 1
برا 1
ikit@@ 1
I 0.10834854431477749
حي@@ 1
دي 1
ظاہ@@ 1
1990 0.3424874479078268
al@@ 0.04332730010296274
z@@ 0.053372887996349545
سوا 1
بوت 1
خطوط 1
نات 1
e@@ 0.043543497400603634
دیہ 1
ity 0.1075278786777033
فلسط@@ 1
y@@ 0.05890826732183815
دب@@ 1
دُ@@ 1
وري@@ 1
شرف 1
تھر 1
حصار 1
خص@@ 1
خصوص@@ 1
سون 1
يم@@ 1
فاس@@ 1
نوع 1
ٹي 1
‎ 1
باء 1
اط 1
02 1
ناہ 1
04 1
منصور 1
ﮧ 1
j@@ 0.07266340924361363
06 1
کامی@@ 1
07 1
تعلی@@ 1
سیم 1
01 1
township 1
q 0.8034050004661273
ربی 1
لب 1
ساف@@ 1
گری 1
سس 1
فال@@ 1
a@@ 0.08054655857812815
توقع 1
وصول 1
ائع 1
جمہو@@ 1
وسائل 1
متا@@ 1
s@@ 0.023667857125222697
توب@@ 1
* 0.28387336373823613
Z@@ 0.07386007458392922
سلم 1
لبنان 1
08 1
مرض 1
ڈائ@@ 1
البر@@ 1
قد 1
منا 1
صن@@ 1
مبر@@ 1
نوج@@ 1
وول@@ 1
الحسن 1
تي 1
آسٹری@@ 1
ﻟ@@ 1
ﻨ@@ 1
فَ@@ 1
ائب 1
بوب 1
دمشق 1
ارك 1
ستر 1
راض@@ 1
وص 1
پنج@@ 1
کپ@@ 1
The 0.012793185251917196
خلف@@ 1
باً 1
ونت 1
آہ@@ 1
تي@@ 1
تبدی@@ 1
رمض@@ 1
جنوب@@ 1
فات@@ 1
آدم 1
دد 1
زند@@ 1
ارد 1
لق 1
کسی@@ 1
اص 1
موسی@@ 1
داب 1
تون 1
بَ@@ 1
شب@@ 1
است 1
خصوصی@@ 1
لِ@@ 1
بارات 1
عناصر 1
آد@@ 1
مام 1
مواقع 1
2003 0.26239077103161174
واز 1
اجتماع@@ 1
تاری@@ 1
رسم@@ 1
بورن 1
عظم 1
ٹور@@ 1
عون 1
قات@@ 1
مجمع 1
مقاب@@ 1
جي@@ 1
تغ@@ 1
اشترا@@ 1
ائف 1
منزل 1
جاب@@ 1
es 0.012558659022019799
la 0.006082298088865866
غر 1
تش 1
لام 1
الث@@ 1
رُ@@ 1
ﮟ 1
ضل@@ 1
وکٹ@@ 1
b@@ 0.03888648907161402
انيا 1
بنی@@ 1
فلا@@ 1
ﺟ@@ 1
قان 1
دف 1
دیث 1
غم 1
تخلی@@ 1
طل 1
0,000 0.6898398435780109
ﻠ@@ 1
p@@ 0.03408805112555424
ﺩ@@ 1
سوس 1
400 0.7945403055670631
ينا 1
غذ@@ 1
2002 0.24433340213176089
ing 0.014270359703060965
المن@@ 1
انو 1
ثیت 1
ترا 1
فعال 1
واب 1
فعل 1
قوب 1
وي 1
طری@@ 1
پنسلو@@ 1
q@@ 0.63260462670149
ﺮ 1
شنل 1
تبادل 1
عصر 1
مطالع@@ 1
نَ@@ 1
وقف 1
شي@@ 1
1980 0.36459733278240264
موق@@ 1
كل@@ 1
مع 1
مات@@ 1
بڑ@@ 1
جاد 1
ﺭ 1
طلاق 1
ذر@@ 1
ہج@@ 1
طف@@ 1
ئي 1
ناس@@ 1
ــ@@ 1
قطر 1
Bo@@ 0.19804401543335318
سعود 1
en 0.0061583886078927326
ایوار@@ 1
في 0.1287785167885226
Sh@@ 0.13807193352647693
ظر 1
منصب 1
اصط@@ 1
A 0.05778649794000535
انگل@@ 1
صد 1
١@@ 1
فرض 1
ﭘ@@ 1
لط@@ 1
الذ@@ 1
كول@@ 1
ﻤ@@ 1
o@@ 0.04824298414663549
مبئی 1
حسب 1
ation 0.025845438986880055
in@@ 0.025407532867349415
بنا@@ 1
is 0.010747429248059374
المعروف 1
er 0.012276675312466177
قق 1
Y@@ 0.10013091525761247
ائز 1
محتر@@ 1
ﮭ@@ 1
ویر 1
بُ@@ 1
خارج 1
فنون 1
وث@@ 1
خذ 1
رش 1
u 0.06905603209404788
,@@ 1
to 0.0055113443097898835
مانے 1
إ@@ 1
34@@ 1
راض 1
لوس 1
صالح 1
U@@ 0.07320113475977973
ed 0.012676554564287365
يس 1
المق@@ 1
et 0.011203939796602662
t@@ 0.02815323312588925
1945 0.3499710656892514
قر 1
پالی@@ 1
2001 0.22374096439881577
n@@ 0.03350402638789621
صول 1
ماء 1
القرآن 1
فان 1
184@@ 1
33@@ 1
الي@@ 1
غر@@ 1
ادي 1
كين@@ 1
قوم@@ 1
ائط 1
ربي 1
مایا 1
اعترا@@ 1
قبہ 1
الان@@ 1
کتاب@@ 1
ref 1
وما 1
منت@@ 1
منز@@ 1
at 0.015365348540481398
ناق@@ 1
C 0.14552273401480587
اء@@ 1
11@@ 1
المع@@ 1
لت@@ 1
كار@@ 1
پخت@@ 1
أ@@ 0.5320139798475049
صار@@ 1
لیم 1
دات 1
۲@@ 1
بون 1
ناد@@ 1
... 0.30967189158914293
الخص@@ 1
یونیور@@ 1
ني 1
جب@@ 1
v@@ 0.03916096932494827
جارج@@ 1
جين@@ 1
رائی@@ 1
قرا@@ 1
k@@ 0.03615366676656126
پاک@@ 1
اضاف@@ 1
o 0.027188498958712514
زات 1
كو 1
c@@ 0.0291504663870949
k 0.04593904235064158
موض@@ 1
re@@ 0.01770270048126826
اسم@@ 1
دخل 1
بي 1
تل 1
فظ 1
نفس 1
ورات 1
واب@@ 1
l 0.0351648830417813
زد 1
نسل@@ 1
فح@@ 1
— 0.02821323502604472
ایئر@@ 1
قطع 1
کاررو@@ 1
حاض@@ 1
طان 1
ِّ@@ 1
انڈی@@ 1
اگر@@ 1
1970 0.33412329320539186
b 0.10025362907640506
یرہ 1
بوط 1
قَ@@ 1
رخ@@ 1
1992 0.2770541211828263
زخ@@ 1
لون 1
ag@@ 0.04645898998836209
1991 0.28459601818351893
1999 0.22328571710675163
بائل 1
يري 1
علي 1
ch@@ 0.025186571921951176
150 0.884666292468751
اوق@@ 1
صیل 1
التر@@ 1
i@@ 0.04351447461390755
جل 1
تاح 1
انیا 1
ریف 1
1960 0.35996831400442575
ah 0.2430886848625362
قبی@@ 1
10.@@ 1
وج 1
1950 0.3927139971939861
g@@ 0.02880626045234966
Municipal@@ 1
as@@ 0.04553836284388611
تخت@@ 1
حق@@ 1
داء 1
فص@@ 1
الخط 1
خراج 1
1947 0.5329913341931333
ثت 1
ويل 1
n 0.045642317659495675
منص@@ 1
صال 1
غال@@ 1
ناب@@ 1
باح@@ 1
مدار 1
ستر@@ 1
us 0.038126425662651696
ندا 1
روای@@ 1
شائ@@ 1
يات 1
آپری@@ 1
ًا 1
کینی@@ 1
کیری@@ 1
كس 1
يَ@@ 1
ﻋ@@ 1
le 0.010158365653707169
om@@ 0.06322423376661337
مبار@@ 1
1998 0.22913425151266736
ia 0.05674334233081288
f@@ 0.023233627324023964
نون 1
ـ@@ 1
or 0.020856927384560443
عرف 1
ستانی 1
00 0.5906738878311542
» 0.02225735554081144
l@@ 0.027418448560985544
ﺘ@@ 1
نوب@@ 1
سين@@ 1
600 0.8929804987515948
as 0.008688464770948258
district 0.26348161345273496
مسئ@@ 1
مخالف@@ 1
صلاح 1
m@@ 0.03283973269166976
اسما@@ 1
الحال 1
فاق 1
الا@@ 1
اداک@@ 1
زان 1
وسط@@ 1
جاپ@@ 1
قلب 1
وظ@@ 1
United 0.10044018669539462
تیب 1
مشر@@ 1
1989 0.28108222095855956
قض@@ 1
جاج 1
1997 0.2356215415156082
عن 1
قي@@ 1
800 0.8996766555177749
لمح@@ 1
en@@ 0.020703270244636723
دوا@@ 1
minor 1
الام@@ 1
جور@@ 1
وامی 1
1940 0.39334802995336143
وصی@@ 1
يد 1
انق@@ 1
ﷲ 1
اع 1
قوا@@ 1
am@@ 0.04114592459732864
municipality 0.8189497195973754
m 0.04144222252968809
1996 0.22779762427257794
ماؤ@@ 1
پوچھ@@ 1
الدين 1
دول@@ 1
طینی 1
غا 1
قائق 1
ئیں 1
1918 0.47239693601595595
يت 1
ic 0.06442244459015992
تُ@@ 1
عل 1
ad@@ 0.03668438564038899
كري@@ 1
دوا 1
فور 1
کرہ 1
گایا 1
r@@ 0.024803935018727935
سلسل@@ 1
B 0.1085596892429729
1993 0.2448078524239068
مالك 1
ولد 1
sur 0.048198609344012794
ملت 1
g 0.06265617225372837
رر 1
1920 0.41116308323946976
ومن 1
روت 1
۰@@ 1
States 0.13013742847493598
طالب@@ 1
12.@@ 1
Ohio 0.7465662223113906
esh@@ 0.9258106400236427
انتق@@ 1
Ar@@ 0.06527540688548689
T 0.13639100814342706
ارض 1
250 0.9776027872354346
ادل 1
جدا 1
يلي 1
کارڈ 1
مطالب@@ 1
دوب@@ 1
ah@@ 0.10854868884291605
ضم 1
700 1
ثق@@ 1
منع 1
Kh@@ 0.388968191850049
10,@@ 1
1941 0.35029047604272623
40@@ 1
11.@@ 1
جبل 1
} 1
مقابل 1
افظ 1
سوی 1
la@@ 0.13108810453733136
وث 1
1988 0.2637525560115515
el@@ 0.028184808356002133
14.@@ 1
ٍ 1
كر 1
13.@@ 1
aj@@ 0.1719926186609371
بوت@@ 1
ضاء 1
واج 1
راست@@ 1
ﺪ@@ 1
پیدائ@@ 1
ابہ 1
ة 0.5693416067224588
ۃ@@ 1
كور@@ 1
ومات 1
افغ@@ 1
1939 0.354345831666296
ur@@ 0.03769140954626065
ٌ 1
1971 0.3212099562772659
ul@@ 0.0389111820458964
لك@@ 1
1944 0.3086198403104327
r 0.09326298753962066
name 0.10449664823892453
ya 0.08348036137211629
۹@@ 1
رين 1
am 0.03247677364788401
E 0.1265246946400648
بين@@ 1
باح 1
فورنيا 1
p 0.05892579783285494
« 0.018065331488527608
تہذی@@ 1
مناس@@ 1
ؐ 1
1995 0.2073410318852976
# 0.43254069079393304
ريك@@ 1
شہر@@ 1
180@@ 1
1948 0.3761882573367551
sh@@ 0.04524369285554724
th@@ 0.030234660203610927
الاع@@ 1
ة@@ 1
تصنی@@ 1
um 0.03307750899874401
كان@@ 1
ﮩ@@ 1
by 0.010229138338310684
u@@ 0.04007335478291346
120 0.9304958335960671
ate 0.028079425139151033
العلماء 1
ﻮ 1
راد 1
ابت@@ 1
واخر 1
1994 0.20283382359919408
تعل@@ 1
L 0.09875097966973491
ولو 1
Mar@@ 0.05399182757851817
un@@ 0.028506832685515154
ثار 1
on@@ 0.028869917847808086
علاق@@ 1
1000 0.6987261787375177
آئر@@ 1
اري 1
افات 1
ضر 1
ۓ 1
ak 0.12604319473612885
ابت 1
وضع 1
دري@@ 1
لائنا 1
ومت 1
2022 0.4179257406301197
village 0.15128203916946537
11,@@ 1
1930 0.35967807193482615
22@@ 1
D 0.10842704676983195
اه@@ 1
جنھ@@ 1
امر@@ 1
اوت 1
جڑ@@ 1
بري@@ 1
ﺣ@@ 1
متعل@@ 1
مين 1
x@@ 0.06592735272282768
يني 1
ﮞ 1
es@@ 0.03182706627251347
Al@@ 0.041986366108696875
ad 0.07169666895362312
179@@ 1
الاح@@ 1
R 0.10950840825761031
واس@@ 1
جال 1
1984 0.25779214389725896
O 0.10629105907686481
er@@ 0.018559819983048995
1986 0.251253644167284
الك@@ 0.8335836722593711
جوم 1
طق 1
35@@ 1
ساب@@ 1
ﮔ@@ 1
التح@@ 1
جه@@ 1
لاً 1
1979 0.2752191392061326
تصل 1
قاع@@ 1
۳@@ 1
صحی@@ 1
فتا@@ 1
معاہ@@ 1
فري@@ 1
os@@ 0.04919591771702584
ra@@ 0.11292910592073109
ستون 1
مود 1
ﺴ@@ 1
لق@@ 1
لاد 1
نوم@@ 1
وع 1
,000 0.652405754185522
المر@@ 1
جع 1
دون 1
ay 0.0711301090036916
kh@@ 0.16788295653044827
الب 1
تذ@@ 1
ملح@@ 1
1985 0.24897374976295888
{ 0.8534759259034387
36@@ 1
50@@ 0.8625203511243272
پیدا@@ 1
N 0.130159266140137
il@@ 0.03667190512961793
قبال 1
17.@@ 1
New 0.05219294913099702
أت 1
وتم 1
فصل 1
محک@@ 1
كُ@@ 1
گم 1
امين 1
فاط@@ 1
12,@@ 1
روح@@ 1
زمان@@ 1
مًا 1
ﺷ@@ 1
لش@@ 1
.com 0.9196722523655518
16.@@ 1
روا 1
ow@@ 0.10070319388399218
f 0.06513952851533107
1987 0.2354596988426772
us@@ 0.03632106658488145
بتا@@ 1
دود 1
ﺋ@@ 1
is@@ 0.028639169002349772
ﻥ 1
تبر 1
فیسر 1
الي 1
1975 0.2559498870795171
1919 0.39280209402800476
48@@ 1
ماث@@ 1
وامل 1
حجم 1
at@@ 0.03158134926410184
ab@@ 0.029510288113025227
1974 0.26442864920995507
1942 0.3019991064568861
ً@@ 1
el 0.006114542437909162
ang@@ 0.05284888765050894
station 0.12820209915848377
هم 0.9118017822413094
ورد 1
1982 0.24879241501511318
٭ 1
lu 1
شخص@@ 1
1978 0.262028914639502
az@@ 0.0838126524702356
ماب@@ 1
1983 0.24742553919539256
تول@@ 1
علي@@ 1
وسف 1
مسر@@ 1
مشق 1
ty 0.06880109574637268
An@@ 0.03975594838798382
لور@@ 1
حب 1
فو 1
اتب 1
وغ@@ 1
فق 1
for 0.007594566655532298
يك 1
38@@ 1
ak@@ 0.051956761232340165
جي 1
شف@@ 1
مه@@ 1
1973 0.2582163324947658
مثل 1
اکث@@ 1
1917 0.40583164391824017
ph@@ 0.03973398318900439
ﻗ@@ 1
15.@@ 1
رغ@@ 1
طرا@@ 1
av@@ 0.0502366313000938
or@@ 0.023484091019156567
www.@@ 1
قُ@@ 1
تان 1
وحد@@ 1
٫ 1
60@@ 1
G 0.12748521596378135
le@@ 0.028798946277275823
z 0.047624646588125076
سد 1
13,@@ 1
اتي 1
ربط 1
1956 0.3058749763386157
F 0.10939239581010789
المص@@ 1
نُ@@ 1
1967 0.26735281095765834
1969 0.26313241042189317
II 0.0941536365007758
Ol@@ 0.32793366041551736
صب 1
37@@ 1
ang 0.09285116491444192
1972 0.23367019099386696
كن 1
ot@@ 0.035127165498611286
سرطان 1
مك@@ 1
َّ 1
18.@@ 1
قان@@ 1
۵@@ 1
۸@@ 1
oc@@ 0.04176243800982334
… 0.2942153306672695
ﺖ 1
1914 0.378505465653946
X 0.16611203514466014
لول 1
Airport 0.7100942354991194
مسي@@ 1
ur 0.07415345959510945
زي 1
طلا@@ 1
نقص@@ 1
1981 0.22739347909598517
قبل@@ 1
واد 1
ﻌ@@ 1
International 0.1446166516827701
ثقاف@@ 1
130 1
توق@@ 1
ٸ@@ 1
۰ 1
45@@ 1
ol@@ 0.03246678360053462
اؤن 1
روب 1
39@@ 1
ay@@ 0.07687493321491662
اجتماع 1
الاق@@ 1
1949 0.29810177643355684
کولمب@@ 1
19.@@ 1
ated 0.022733136536188463
ou@@ 0.05060526410276904
1976 0.22823486202582147
1977 0.24128642610967463
80@@ 1
tr@@ 0.01909044011666318
° 0.18641190289364695
كلا@@ 1
1946 0.27449006109975976
طول 1
du 0.011230962436837001
؁ 1
urban 0.7942521134113336
عم 1
ﮑ@@ 1
In@@ 0.04378588790887343
ثم 1
110 1
1965 0.25595772708552544
900 1
List 0.35531856848059507
1958 0.2834569893812674
صغیر 1
النساء 1
طر 1
معد@@ 1
14,@@ 1
وام 1
124@@ 1
اجات 1
49@@ 1
S 0.0893816255545011
im@@ 0.026351258487281225
٢@@ 1
1936 0.3037790868690094
يل@@ 1
1962 0.26692434628539613
۷@@ 1
Par@@ 0.05784813715901316
ge@@ 0.04117641260168088
اث 1
صور 1
وخ@@ 1
65@@ 1
لند@@ 1
افظ@@ 1
ed@@ 0.039286351848204566
Province 0.48941514878569836
بح 1
شای@@ 1
DI 1
ائیو 1
اشا 1
باقاع@@ 1
ذو 1
M 0.09451657374135788
سيد 1
be 0.017840238136103373
● 1
مانوں 1
ol 0.09686028309805296
ضمن 1
فرانسی@@ 1
ine 0.026925018826131936
ارتی 1
20.@@ 1
بيا 1
قي 1
مين@@ 1
واج@@ 1
16,@@ 1
ﺒ@@ 1
ﺧ@@ 1
Regional 0.8515418581124851
ash@@ 0.1663959436106527
180 1
th 0.031314500677587016
انتش@@ 1
ﻓ@@ 1
H 0.1542259382408847
ir@@ 0.034320446098925796
de@@ 0.025289325713315557
town 0.11056256821012082
140 1
Sof@@ 0.8122900049409465
لاحق 1
ic@@ 0.028578815555005344
حفاظ@@ 1
1957 0.27891590949464495
1968 0.20903568955522317
् 0.014711724793165668
46@@ 1
ers 0.014082566859707487
ir 0.06163445133070697
آذ@@ 1
خواہ@@ 1
باق 1
خات@@ 1
فع 1
فورنیا 1
170 1
ولوج@@ 1
1964 0.230385027451605
47@@ 1
ical 0.05064993826365837
به@@ 1
۴@@ 1
كلي@@ 1
1963 0.24678003887625127
ain 0.07058151022044983
ویز 1
160 1
Re@@ 0.03655962313390339
ّل 1
ٗ 1
city 0.094510402558136
15,@@ 1
1935 0.3112005608100794
eh@@ 0.0781314823274739
داف 1
ملاز@@ 1
لد 1
ac@@ 0.02061724539296559
https 1
حز@@ 1
codice 1
راہی 1
ڈائری@@ 1
ti@@ 0.024961588021741667
فاق@@ 1
وارد 1
1943 0.2273122983521738
عا 1
ab 0.07741514816460628
• 0.8480607109547588
والم@@ 1
Bar@@ 0.06284449364647643
it 0.0110455103673523
صر@@ 1
واع 1
iv@@ 0.091907743446439
ﺪ 1
فع@@ 1
1953 0.2788148572779679
ﻦ 1
V 0.11052818241192452
الناس 1
لًا 1
واح@@ 1
ﯼ 1
101 1
120@@ 1
Maz@@ 0.7068209877079872
تس 1
Ab@@ 0.04702971762810595
شنا@@ 1
Central 0.20224798578922165
ﺕ 1
Tr@@ 0.03435216588829529
it@@ 0.020737059413971186
j 0.24218780654880023
قال 1
دخ@@ 1
۶@@ 1
ابات 1
المؤ@@ 1
ممل@@ 1
ﻡ 1
li@@ 0.02545267946743954
tion 0.02285183556761451
المبار@@ 1
Mor@@ 0.07941420170457422
amp 0.05347444710078248
ناء 1
ﺁ@@ 1
بين 0.844402936717167
واپ@@ 1
1937 0.2706699533144141
be@@ 0.023115873704821936
ent 0.012906268498169213
المح@@ 1
غان 1
68@@ 1
ous 0.04883140225865982
ثناء 1
نشا@@ 1
1951 0.281368755955396
Jar@@ 0.7990414817432239
ł@@ 0.2740166295408652
1952 0.254462803688359
70@@ 1
باع@@ 1
ec@@ 0.030492409110661017
P 0.09143744324019917
حل@@ 1
٣@@ 1
350 1
عُ@@ 1
ﮦ 1
1912 0.33076268262933006
1959 0.2404911207602036
Republic 0.30086425705845266
1938 0.23766577717491574
جرات 1
صار 1
لاء 1
1961 0.230800141465034
بلغ 1
20,@@ 1
يس@@ 1
IC@@ 0.42580240688451276
Th@@ 0.03859724086890719
1933 0.2533075799620062
44@@ 1
الفر@@ 1
حسين 1
ولي@@ 1
17,@@ 1
em@@ 0.024813591647178793
متوسط 1
http 1
كل 1
1954 0.24749557600524186
ﺍ 1
125 0.9976741579912768
1921 0.3186797152589177
III 0.1711899862886951
ans 0.02852973324347195
ary 0.028676496518980438
حت@@ 1
67@@ 1
ana 0.04101922668727734
ap@@ 0.02410096770698573
طن 1
المسل@@ 1
رال 1
are 0.012744950958960536
et@@ 0.027591014794496025
ni@@ 0.04365364556998507
ۡ@@ 1
نوف@@ 1
55@@ 1
75@@ 1
U 0.08856220988369953
؍ 1
عاد 1
توم@@ 1
ثن@@ 1
115@@ 1
Dar@@ 0.15297019392631356
\ 0.9906416390687766
ضات 1
باط 1
‏ 1
نح@@ 1
id@@ 0.025952641067451872
يز 1
23.@@ 1
Sainte 0.7553275275669552
ani 0.1536124840665484
aw@@ 0.06963340589492759
st@@ 0.01439802989992724
59@@ 1
les 0.007567715558860487
كرا@@ 1
۲ 1
58@@ 1
Car@@ 0.04715219341389512
اقی 1
علیٰ 1
ها 0.3642291697843265
1966 0.19940317762836143
K 0.11419504021103527
$ 0.07631843428396383
enti@@ 0.05409600889387416
ﻞ 1
me@@ 0.04701590939280593
105 1
se@@ 0.02971432553066132
الث 1
برطان@@ 1
21.@@ 1
te 0.010678101501235776
يان 1
21@@ 1
24.@@ 1
1955 0.23433737597451454
الرا@@ 1
وست@@ 1
102 1
ژ 1
ów 0.5556936296293128
تلق@@ 1
مدي@@ 1
ّا 1
57@@ 1
ولي 1
X@@ 0.07764523076336899
1934 0.2609584802267583
22.@@ 1
Lo@@ 0.09180926582069011
um@@ 0.027403494779680862
Mon@@ 0.05485835133306998
di@@ 0.01844194014381062
é 0.01293160572779255
66@@ 1
اعل 1
age 0.018125886985346343
18,@@ 1
with 0.005713600967702305
موج@@ 1
ى@@ 1
1932 0.2733677197892094
غالب@@ 1
ﺱ 1
.. 0.48558242223264
99@@ 1
elle 0.024851559082229868
ub@@ 0.09442289274893137
un 0.005869183173119882
يش@@ 1
land 0.03493743950196699
ro@@ 0.021541535353142658
نحو 1
ie 0.018355660995180965
راع 1
قامت 1
25.@@ 1
andi 1
w 0.0300768466201417
جار 1
يخ 1
يُ@@ 1
ﭼ@@ 1
Region 0.2649408262176063
tu@@ 0.06238359081236499
ﺯ@@ 1
des 0.004213346676702917
طي@@ 1
پائن 1
1913 0.3155522177065663
واض@@ 1
کیلی@@ 1
114@@ 1
اله@@ 1
90@@ 1
di 0.0891641720861904
الوج@@ 1
۱ 1
117@@ 1
1922 0.27723414850952277
Con@@ 0.032354219815855276
حوال@@ 1
ology 0.0874658121038436
الأ@@ 0.2757605914615973
ﻲ 1
au@@ 0.027807592017685293
ve 0.01664215388150759
۳ 1
qu@@ 0.019969357359322676
ﻴ@@ 1
De@@ 0.05687305889361313
af@@ 0.03763184611122552
19,@@ 1
220 1
امي 1
27.@@ 1
108 1
240 1
5000 1
اك 1
1931 0.2663797844018262
id 0.052927358703740775
لار 1
43@@ 1
one 0.013770859834376425
se 0.006505446034731175
تجاو@@ 1
كن@@ 1
ﻢ 1
ri@@ 0.030485236907279258
W 0.11436219737975116
br@@ 0.022950841000434194
والح@@ 1
Qu@@ 0.04808925749815989
مير 1
وين 1
ريا 1
كام@@ 1
104 1
باتات 1
Ro@@ 0.05397162966643248
کمپیو@@ 1
ai 0.0657173862403802
ik@@ 0.04008759560239765
Am@@ 0.05875030370706342
ice 0.038365544486422834
كت 1
ليس 1
ٓ@@ 1
1929 0.23685069608942835
lo@@ 0.022289688070791097
فول@@ 1
Iowa 0.6010655861166705
po@@ 0.021654298691393764
برت 1
قت@@ 1
پیچھ@@ 1
ڈکو@@ 1
ﻝ 1
California 0.1324580892283895
عان 1
٠@@ 1
115 1
og@@ 0.04565218353163135
ov@@ 0.05847402639294795
تط@@ 1
فقط 1
ish 0.053745151028090105
ﺤ@@ 1
190 1
56@@ 1
Br@@ 0.03183700881912408
Kar@@ 0.08103384308196004
ac 0.13324656750561212
· 0.06930775311522705
العل@@ 1
تونس 1
رج 1
لبن@@ 1
لوا 1
100@@ 1
NA 0.691360814784604
South 0.06530905410420147
ari 0.15651352324789247
eg@@ 0.031550102522723264
territ@@ 0.2701926025897132
1924 0.24567509137459986
As@@ 0.09320095014274754
ent@@ 0.016910533703637903
ka 0.07847881361906585
بور 1
فرنس@@ 1
‍ 1
1500 0.6504933823057847
رية 1
شتر 1
عي@@ 1
كتاب 1
وين@@ 1
ard 0.038984069273314666
os 0.010900780544379995
106 1
no@@ 0.04587763174743561
ne 0.02183310983211705
٩@@ 1
ﻼ@@ 1
👈 1
155 1
360 1
il 0.012836850381403926
ton 0.035976189178590585
٢ 1
107 1
114 1
Minnesota 0.4498339324614213
ism 0.08531499551233465
iz@@ 0.04787744439371647
v 0.06286986652059005
يون 1
109 1
ci@@ 0.02957156178896895
رؤ@@ 1
۵ 1
112 1
122 1
126 1
Com@@ 0.03836962162983067
طان@@ 1
25,@@ 1
450 1
فان@@ 1
كرو@@ 1
میون@@ 1
يت@@ 1
116@@ 1
na 0.05010246435306651
به 1
فہر@@ 1
commune 0.08510008067936689
الض@@ 1
وني 1
128 1
ali 0.19270783007071599
135 1
da 0.024396051212907072
re 0.02636773840651582
بًا 1
23,@@ 1
ma@@ 0.05004218740471711
قع 1
to@@ 0.031616337196046215
وُ@@ 1
118@@ 1
53@@ 1
Y 0.1931554952971966
میونسپ@@ 1
103 1
3000 0.7496724069647135
Se@@ 0.0423321824064736
ing@@ 0.034621195841912554
ère 0.05803685746304161
Sa@@ 0.1303991811769127
شخ@@ 1
شي 1
۴ 1
تمد 1
ندي 1
1915 0.2727120093959536
ory 0.05758457993618717
على 0.1306611474495702
116 1
2.5 0.9700308129672087
21,@@ 1
and@@ 0.03427125717282806
ta 0.026375566709012956
خي@@ 1
كت@@ 1
Be@@ 0.031081095499159977
26.@@ 1
260 1
that 0.005725376642378643
طار 1
124 1
22,@@ 1
لاف 1
129 1
Moh@@ 0.2886779370960985
العظ@@ 1
عض@@ 1
280 1
Gu@@ 0.050253677675241214
man 0.023494508964478165
railway 0.220782338899254
البل@@ 1
الوجی 1
نيا 1
واست@@ 1
وك 1
نوائے 1
ian 0.0613223374031792
orial 0.19581543854675423
י@@ 1
نف 1
يوسف 1
ﷺ@@ 1
121 1
Ne@@ 0.04518374830861489
St@@ 0.023265701143751937
ig@@ 0.021920208162091635
ہید 1
1857 0.6144349892923147
320 1
ant 0.012402430685769865
yn@@ 0.12244765564309738
175 1
1916 0.26882527413736607
Ger@@ 0.07431756050802088
co@@ 0.017721181588405376
ts 0.01417503005475297
ut@@ 0.028249262620548544
132 1
210 1
au 0.00963513200446233
gh@@ 0.30632843315261926
واش@@ 1
1.5 0.8032811070015006
230 1
270 1
اي 1
حقی@@ 1
زيد 1
1923 0.2279788322354296
الآ@@ 1
do@@ 0.03601487871577128
est@@ 0.02403873756183168
المج@@ 1
شري@@ 1
ﺠ@@ 1
Ali 0.37956850272805165
Es@@ 0.09693665937660367
مولی 1
ہاتھ@@ 1
Man@@ 0.05310659366430348
ter@@ 0.020165119084961075
ver@@ 0.010383625161652655
يز@@ 1
ﺅ@@ 1
1926 0.21553023111187147
الحک@@ 1
بالع@@ 1
117 1
od@@ 0.042449438229745444
Township 0.3627633895709694
ber@@ 0.025122686915728568
was 0.0023576362629423543
ā@@ 0.1552994358687277
يران 1
ﺩ 1
1900 0.22794664245694626
ach@@ 0.026420342451355616
bi@@ 0.027711209826661504
ter 0.01514715231853719
رہائ@@ 1
24,@@ 1
dis@@ 0.015580415482571127
É@@ 0.06500445680552107
ہتھ@@ 1
ﮏ 1
119@@ 0.9672733251482957
Martin 0.14275932898409102
ﮕ@@ 1
111 1
ong@@ 0.04969891247533388
انھ@@ 1
رجال 1
۷ 1
123 1
Co@@ 0.037559313148074994
Per@@ 0.0433498744612819
Sal@@ 0.07555056549431666
ob@@ 0.02836814227525691
مة 0.5062019888397444
يكا 1
113 1
118 1
Bel@@ 0.05819086499648057
Is@@ 0.0920345747321371
co 0.0435460032634
الجام@@ 1
ﺻ@@ 1
113@@ 1
26,@@ 1
Mal@@ 0.0665765802297932
هر 1
ence 0.02042891142079928
ong 0.06375229130824106
لل 1
145 1
te@@ 0.02470348476819078
تاريخ 1
قلال 1
Sar@@ 0.15745252746338792
عمال 1
واء 1
ٹرول 1
ہمی@@ 1
community 0.11080623944847354
dom@@ 0.10384740198693321
ons 0.021624598032671666
poem 0.5539945301527269
وصف 1
ﻘ@@ 1
750 0.9502780304677421
North 0.06475815997058032
pr@@ 0.021224214971847642
ville 0.04531552683387826
تبع 1
330 1
Khan 0.4218080779139129
داً 1
City 0.05316383761338406
é@@ 0.014117744198379942
ایاں 1
ٖ@@ 1
ڪ@@ 1
۶ 1
119 1
27,@@ 1
ali@@ 0.044789987626958065
est 0.004463210904995672
ie@@ 0.06319332029151976
ina 0.02994751354543179
region 0.11627197425668694
وتر 1
يع@@ 1
he@@ 0.030366745543134416
اتفاق@@ 1
المد@@ 1
عضو 1
Ver@@ 0.018559565740442548
ex@@ 0.012626805889744661
ابتد@@ 1
ابع 1
ﻻ@@ 1
1,000 0.6706453385425439
ch 0.022516943362682562
per@@ 0.01640517362257086
المش@@ 1
حیدر@@ 1
ده 1
1878 0.40857960349459976
1905 0.23756916813259238
ته@@ 1
1910 0.21054540341407846
ki 0.09085337833219702
no 0.017362084960625804
شرق 1
1925 0.19835640443434968
موجو@@ 1
Col@@ 0.04065500865698825
from 0.005368849932553429
top 0.08292132323576887
ze@@ 0.07976847171986723
النا@@ 1
مذہ@@ 1
Ho@@ 0.08917600774638854
Le@@ 0.03061475560374503
ev@@ 0.03228597263254114
آذرب@@ 1
كوم@@ 1
۸ 1
Bol@@ 0.17314470324569056
ance 0.020538603469742716
har@@ 0.07626109248628113
ille 0.061209694418542245
1927 0.19416244029479848
ure 0.025791290678501687
ו@@ 1
خلي@@ 1
عقد 1
1928 0.17470410907408906
ign@@ 0.052348198775034126
level 0.11126450143214793
op@@ 0.020917727645887854
ra 0.037345518759612464
هد 1
وّ@@ 1
si@@ 0.02027753299992906
والد@@ 1
وفر 1
Has@@ 0.3175849446086337
India 0.09728263228121332
؎ 1
نیوی@@ 1
ولات 1
Pr@@ 0.037785903772106076
hi@@ 0.037055831492279916
ics 0.050067780172823366
tic 0.05179100701774083
البا@@ 1
مرتب@@ 1
1908 0.23433537528620965
Tol@@ 0.289989490710511
bot 0.3127405263982017
لين 1
يرا 1
یاف@@ 1
1870 0.32114693497672087
1911 0.22543514231944392
En@@ 0.03920341516950093
Mont@@ 0.11848206807748823
ari@@ 0.05824010816806681
ati@@ 0.027047660195096634
den 0.004944846781130535
ey@@ 0.1019273115211922
الور@@ 1
650 1
كان 0.35805729375243056
eb@@ 0.025469866625464868
ly 0.012830073513445157
tri@@ 0.02625617745708439
حدي@@ 1
دفت@@ 1
مرات 1
1848 0.38642558310747516
1890 0.29412053318921505
Pakistan 0.31064197822375283
des@@ 0.02320258924644011
incorpor@@ 0.1649852582867979
li 0.09391197920732407
ne@@ 0.028666377338404263
أ 1
دين 1
رك@@ 1
Jean 0.07663953461534678
all 0.014888459600517372
القر@@ 1
ﺸ@@ 1
1907 0.24181305012865906
ill@@ 0.03914286135007965
ru@@ 0.03374999770280491
المدارس 1
١ 1
Air 0.11203074068462865
Ph@@ 0.05134062169605273
ce 0.0176835173973079
له 0.8255199464757427
ﻔ@@ 1
152 1
1880 0.32513083507819496
ok@@ 0.0430278823006102
درخوا@@ 1
ai@@ 0.10431783396230836
550 1
Ag@@ 0.09245360574558704
غل 1
٣ 1
Bur@@ 0.05520609844070097
ez@@ 0.08400946431378113
حك@@ 1
ذری@@ 1
سيم 1
هن@@ 1
Bal@@ 0.07104225190144929
127 1
China 0.0945119120519258
che 0.03505226815288129
ala 0.08280790257211547
du@@ 0.047778048069833594
حرب 1
Mo@@ 0.05797232342584901
uc@@ 0.04222931839805073
á@@ 0.03304055355843278
المس@@ 1
Ur@@ 0.07613890976787391
West 0.06156465609531622
ica 0.02966301098575958
العرب 1
اند 1
عداد 1
3.5 1
Li@@ 0.04549634133066793
Pal@@ 0.06366186138520744
ania 0.14643545920107323
zy@@ 0.23308944822653216
اسرائی@@ 1
الحر@@ 1
العلم 1
المت@@ 1
سري@@ 1
1860 0.34218973402091835
Ah@@ 0.292792206115429
Chap@@ 0.22356402576695156
lu@@ 0.04385871423501595
onom@@ 0.1934539956892097
ran@@ 0.029468567195390365
الوط@@ 1
معظم 1
۹ 1
ﻭ 1
1909 0.23631545044000554
World 0.0334609711319756
gi@@ 0.023368077454754648
od 0.05029262683765164
متر 1
٤@@ 1
Department 0.138083794652412
Jersey 0.24663726681516826
رة 0.40573218846929815
سوي@@ 1
Di@@ 0.029408794108538566
Pierre 0.1410717430669283
Vo@@ 0.15069082717588309
ha 0.0434693779078947
yr@@ 0.05974246393370678
IS@@ 0.16740526883158346
com@@ 0.01637431222129863
iy@@ 0.15340669103159205
المست@@ 0.9575115408206832
ومح@@ 1
يب 1
٠ 1
Aut@@ 0.10125547041137513
que 0.003309490142996863
ﺐ 1
Bor@@ 0.07263502339447547
ملك 1
يار 1
1897 0.2817011542483363
Gar@@ 0.07517477786754606
ann@@ 0.03151428798715711
ba@@ 0.054310462850350925
hi 0.13870807804434135
تد 1
تمث@@ 1
London 0.061798844310154616
area 0.04073397147940248
1895 0.2816957774932516
Cor@@ 0.0398846234855692
ès 0.0998559170922053
man@@ 0.023437273710678223
الخط@@ 1
5,000 0.4933737779535031
county 0.18959920500238378
ؒ@@ 1
٦@@ 1
1200 0.7561780519446887
Sea 0.24512851854722467
ji 0.1546943157021608
org 0.6850756160786744
ﻬ@@ 1
1876 0.3574739388693424
4000 1
Or@@ 0.03170235477823567
University 0.025382281602513122
بوا@@ 1
زوج@@ 1
া@@ 1
1901 0.2402237442997324
? 0.0891450876517316
Ex@@ 0.03304926629934885
ins 0.028061783166643078
المنا@@ 1
ﺰ@@ 1
Gr@@ 0.027165551876797277
Inter@@ 0.05251789833395386
Ma@@ 0.04677999020817936
borough 0.2989183206504296
ca 0.04302977824309823
mar@@ 0.017383330928639598
کاون@@ 1
ency 0.0759361953973187
Japan 0.10301333217741365
ath@@ 0.0320771105796601
ish@@ 0.045683129499388846
المث@@ 1
نع 1
پختون@@ 1
1906 0.2086365236929401
Har@@ 0.04982056011365585
ile 0.02787824181457576
uy@@ 0.12512550465747455
Bag@@ 0.35792551782531573
ect 0.04440055268166324
mon@@ 0.02157540454264008
دين@@ 1
ﭖ 1
1812 0.5027283118022927
380 1
Ad@@ 0.03467934391784155
1896 0.26114937505350094
Char@@ 0.0790309774945403
con@@ 0.009477887200717225
العالم 1
روع 1
Kal@@ 0.13021045226814737
Mah@@ 0.11753240656032746
end@@ 0.01749258012092812
المغ@@ 1
غير 0.5903439513025106
ليل 1
ورة 0.9522819392178516
ٴ 1
1877 0.3513016476105932
1904 0.211500444300209
em 0.03746849282682325
ho@@ 0.029634930854072178
ma 0.032306922060383374
vi@@ 0.01807052903056039
أُ@@ 1
نٹین 1
1898 0.24637452575170188
Me@@ 0.0417982425087093
par@@ 0.012833570627989871
za 0.048487885453501585
ولم 1
Su@@ 0.05217403890170375
aska 0.5655643732695417
ge 0.01892447264022169
ite 0.016553667573334804
its 0.008407566624969805
اسي 1
ضع@@ 1
Bi@@ 0.04638377218180567
ais 0.05611480052422629
﴾ 1
She@@ 0.17321982229021074
ents 0.016956745496667633
mi@@ 0.0310578708275933
1800 0.4218355774372392
Ber@@ 0.03259661236486982
National 0.030116714939842738
der 0.0014565540677469937
sp@@ 0.020830304363818785
سلي@@ 1
Her@@ 0.03308379272206391
eng@@ 0.02323865166932075
gu@@ 0.022963418686351208
je@@ 0.06685211732988673
ore 0.03342347662382759
pi@@ 0.0219330092435027
الات@@ 1
Bas@@ 0.057417985458578125
Park 0.061813685920640224
adi@@ 0.048362564173844345
az 0.09393833537717837
1899 0.2427026576896677
For@@ 0.03384467711975391
Rom@@ 0.07299469456054092
mo@@ 0.02015117510831269
ant@@ 0.02763527282592157
ara 0.05030026550247466
AC@@ 0.1661037368635617
Po@@ 0.049020099467933904
San 0.036365306883030975
ages 0.028888723385343897
ecture 0.1773155196140645
ek@@ 0.02939900250136019
ion 0.028729362401971385
str@@ 0.01914207305225219
â@@ 0.06435289290505292
الرو@@ 1
واصل 1
کردگی 1
pl@@ 0.015487196718343933
son 0.006962302899022502
البي@@ 1
القض@@ 1
10,000 0.5421420980427881
Sha@@ 0.22556931775568517
our 0.03133113443923518
مير@@ 1
وادي 1
﴿ 1
Cr@@ 0.043789291995052396
Mas@@ 0.06020882486713505
ابراہ@@ 1
الفت@@ 1
ﺌ@@ 1
ﻳ@@ 1
1830 0.3840248462947212
Pennsylvania 0.19170261147438636
als 0.0053372775568816845
ash 0.11325939439666961
الجن@@ 1
ﮢ@@ 1
CO@@ 0.149962296218935
نقاط 1
يوم 1
ٖ 1
پیو@@ 1
ﮬ@@ 1
Pre@@ 0.0759432905397557
ey 0.03890309605970931
hip 0.12861554696036556
ta@@ 0.041336003655635827
بناء 1
سكي 1
٥ 1
ﻃ@@ 1
1882 0.3017111429608669
2,000 0.5962573787997107
Gen@@ 0.07463725222094592
Mac@@ 0.07181290373190433
bo@@ 0.01802213943183192
human 0.12359772629325805
ick@@ 0.02820645416048949
وتع@@ 1
کینٹ@@ 1
1892 0.25923327616683167
Go@@ 0.0695158172433402
Mi@@ 0.08766020372565109
Mos@@ 0.1253086209237699
able 0.014114645707972774
ahr@@ 0.13506399436536112
ane 0.04185999431066512
ebr@@ 0.1253374196927005
ji@@ 0.25208676743946407
language 0.08836173430625377
ó@@ 0.03065336042832045
ؓ@@ 1
عاد@@ 1
٧ 1
الظ@@ 1
ية 0.10749244363733827
ens 0.014453359182193197
gr@@ 0.01635433099795536
wer 0.06994598243114147
آذربائی@@ 1
السل@@ 1
بلاد 1
ha@@ 0.06575940236391514
وير 1
ek 0.06576152833658747
ment 0.018060506638601984
تت@@ 1
سى 1
فتار 1
٦ 1
ﮍ@@ 1
ﺏ 1
1881 0.28606331014241154
1894 0.2527925768383855
Mus@@ 0.04860511143471422
Pro@@ 0.0406024930425491
Q 0.18173462344107838
Ta@@ 0.17059995280239262
البحر 1
بذ@@ 1
بك@@ 1
قب 1
2.0 0.7081387475259454
Airlines 0.49967980488731895
Cro@@ 0.07607942759884898
section 0.08517051833677167
المط@@ 1
ريك 1
٨@@ 1
1871 0.2678474711110653
1902 0.1963489938197147
Kingdom 0.1296067851586482
main 0.04059613625907694
ָ@@ 1
كار 1
٤ 1
Tar@@ 0.1282074056837679
ale 0.012982608913019427
ass@@ 0.015392744038621137
ative 0.023577645667844278
ings 0.01783566175111517
è@@ 0.044237248394150996
أبو 1
نى 1
ess 0.02439599330518009
ola 0.09415593234197508
غرب 1
كم 1
٧@@ 1
ٹیکس@@ 1
1903 0.19057068075575165
AD 0.28673990532806437
In 0.003746754600055752
administrative 0.17276109573867462
all@@ 0.02303467377599487
aux 0.01288526561061252
pe@@ 0.02174662103547282
العمل 1
ديا 1
شه@@ 1
مرك@@ 1
ہیپ@@ 1
1815 0.4197672597987398
1887 0.2671510366894278
Au@@ 0.05130496612983003
Un@@ 0.03720278470225169
gen@@ 0.020684419249608454
sett@@ 0.07714636149902586
uk@@ 0.05152981527223095
AR@@ 0.1092331622936256
Mir@@ 0.12534329257023102
Ru@@ 0.08704238649710232
ell@@ 0.021634656760882175
han 0.08002402309069101
lands 0.06462619262951566
تها 0.5936283453441235
يش 1
٥@@ 1
Em@@ 0.061988140102743096
تين 1
ﻄ@@ 1
1884 0.266977003334392
ard@@ 0.04014033229200068
ographi@@ 0.14040193819903465
ti 0.04616332547791997
uz@@ 0.07176808075441142
التف@@ 1
الوقت 1
عود 1
فوق 1
DNA 0.31394213875532173
Wisconsin 0.2587153674080381
الح 1
ويت 1
England 0.056444889630117685
ast@@ 0.04045313146843581
ind@@ 0.0397491461151449
العزيز 1
تك@@ 0.6741951908957993
جيم@@ 1
حفا@@ 1
Arab@@ 0.1622710082723082
Arch@@ 0.1011360242048805
a.@@ 0.4308969374790025
hu@@ 0.04829685135461547
province 0.10739798735511247
su@@ 0.01353310099195669
ר@@ 1
ﮮ 1
---- 1
At@@ 0.06233159843678554
Cl@@ 0.043401480681604716
aire 0.02378768332572117
era 0.016411364567328293
local 0.03861255416490116
und 0.0016337951034594916
ويك@@ 1
کانگری@@ 1
1879 0.2732361690303343
East 0.061409396026196515
hal@@ 0.03979985480476736
سعو@@ 1
نه@@ 1
والي 1
Az@@ 0.1542986491367827
He@@ 0.02858029888964078
Le 0.009474354042041624
River 0.04874029468539893
ada 0.010764106692599048
ama 0.04208216221715193
lin@@ 0.02549318231695381
mu@@ 0.055659548803736414
ze 0.04032274567380925
ثلاث@@ 1
شخصی@@ 1
يشن 1
ٌ@@ 1
Sey@@ 0.7525656684961876
arch@@ 0.04479002655703231
has 0.007524089359230041
sa@@ 0.03640204136820776
tions 0.013085780268916575
وه@@ 1
2500 1
Cal@@ 0.05241606589931211
ammad 0.8878468934904875
ano 0.02196598838298379
cr@@ 0.022260626030409385
ley 0.025580771275003602
ּ@@ 1
1886 0.2448135627332958
1891 0.2294537384940981
Pi@@ 0.05360480922962272
type 0.07382485618383772
מ@@ 1
ره 1
میکسی@@ 1
ﺼ@@ 1
Nor@@ 0.03325152761456105
Ri@@ 0.05828440307078888
car@@ 0.017197516894303405
் 1
CA@@ 0.09875930152596327
Islands 0.21789105514292845
tics 0.03825986692873316
were 0.004997253684706694
اريو 1
بيت 1
عیل 1
وسي@@ 1
1864 0.25147153014246176
El@@ 0.022135083586219385
People 0.15409073833517617
Sau@@ 0.14546095180971041
ku@@ 0.08228845392615422
mer@@ 0.019781692520074213
وجد 1
وح 1
1856 0.3247350566798977
1885 0.2184981705463863
Sol@@ 0.05747550404775069
bar@@ 0.025569565648741403
تمر 1
1813 0.4675364168023995
Cy@@ 0.11449916838766708
Pl@@ 0.03700364534329742
Shu@@ 0.5229352113218089
sk@@ 0.03533521842087533
so@@ 0.01875312556832951
sub@@ 0.022844925891853236
ريم 1
سكو 1
عي 0.8328227439569548
هن 1
ﻀ@@ 1
1814 0.40905443288898713
Air@@ 0.14603247958886198
Lan@@ 0.15239105302076603
im 0.004225975426064516
ot 0.030921172653675735
tan@@ 0.047209684845898305
ther@@ 0.050409295073221776
ę@@ 0.38279746936688247
خص 1
عشر 1
Gre@@ 0.05243103345554944
Lang@@ 0.09898034419589813
Mississippi 0.30500742756531873
Si@@ 0.05024959505822847
ata 0.03646767123778199
ep@@ 0.025588046656766204
lam@@ 0.048857891110514716
ten@@ 0.013682445721654201
بني 1
عة 0.2711602944165204
ٔ@@ 1
٨ 1
Al 0.05915858016526401
Gal@@ 0.0513749435494555
Hu@@ 0.07098688082390828
Ser@@ 0.044340730342517724
country 0.053299720972213194
end 0.015350569802995241
this 0.01022124357524933
va 0.03745167220608015
لوے 1
ماني 1
٬ 1
ۡ 1
1850 0.2526860132567398
Ac@@ 0.039652329420710536
Gol@@ 0.13381901464401277
IN@@ 0.1493703978263324
ist@@ 0.01865382904178513
uch@@ 0.04092648875998562
الثق@@ 1
الرجال 1
نفس@@ 1
ess@@ 0.021555507810020014
ue 0.016585175782446872
تقد 1
سوق 1
هر@@ 1
ڙ@@ 1
BC 0.1318941069930221
Ham@@ 0.09932669698855273
J 0.10163934068542337
ain@@ 0.03232959219653456
ations 0.008676063223639017
inter@@ 0.012419084636056923
me 0.017972010328808075
up@@ 0.02682498084570443
́ 0.0460007433054276
ؔ@@ 1
بير 1
1889 0.20468567052924186
ality 0.046984539162181184
ist 0.004271981081041431
state 0.028007604703870575
time 0.010561964733044327
أبي 1
العالم@@ 1
وأ@@ 0.2686511764993401
← 1
1893 0.20415986945769712
Val@@ 0.05338178866098971
York 0.023293241422769558
ao 0.0649463699894613
do 0.016849397814918326
go@@ 0.04113015996106629
not 0.008496132148734539
الشر@@ 1
بيل 1
ٍ@@ 1
AS@@ 0.10008949369504384
ou 0.014327794378006296
ud@@ 0.04772063624388937
كتب 1
يوس 1
1867 0.2422386192182116
Far@@ 0.06662442420413033
State 0.03190637532151936
ug@@ 0.03276335161560846
أن 0.12798405276747682
1888 0.21191267169963085
Ku@@ 0.147497071193458
Lab@@ 0.09058926868019349
Mol@@ 0.09572941312242744
Str@@ 0.02751906210979311
ford 0.043138944955826014
obj@@ 0.0591879727613638
א@@ 1
بير@@ 1
ةً 1
bu@@ 0.031970221530314424
chi 0.09653677905716565
elec@@ 0.04320729794716788
government 0.03327593973230964
ix 0.07751394449442449
style 0.052558462098277005
المه@@ 1
دير 1
٩ 1
UN@@ 0.17145061855338176
anc@@ 0.027230398239540394
ast 0.039757635677813125
und@@ 0.01790270883818114
way 0.022121314437719853
تخص@@ 1
مندر@@ 1
1700 0.621103770087568
Shar@@ 0.15823685438566887
U.S. 0.0473439105746252
air@@ 0.04021290515790659
ell 0.019072857660151914
min@@ 0.016331253692827088
ost 0.06895532605267383
ties 0.025677859838868687
وتق@@ 1
وني@@ 1
Tal@@ 0.1024068241621335
^ 1
fac@@ 0.020656282696302812
ise 0.014035980876799197
lah 0.27936693542962837
ly@@ 0.05287913657632133
sa 0.012214754948428693
ys@@ 0.06712247636732678
اعتم@@ 1
ايا 1
غار@@ 1
ﭽ@@ 1
ﻑ 1
ﻫ@@ 1
Cas@@ 0.05381187126023087
Pe@@ 0.0426030149669172
So@@ 0.043491273962766176
Sw@@ 0.04478011394788051
ator 0.03394444540734427
her@@ 0.016506500035794274
ib@@ 0.03103345039016203
onne 0.08659531245775219
ə@@ 0.7926138450918817
سير 1
پنس@@ 1
র@@ 1
Indian 0.06870068239939185
mad 0.4886262218198022
world 0.0397739206644148
ér@@ 0.02058634247619157
ديم 1
ﭩ@@ 1
Juli@@ 0.08675626340863792
Mad@@ 0.055548301122540965
arr@@ 0.02532755814014965
dan 0.09648608125742654
ette 0.03618861020432099
oph@@ 0.05382984396234732
res@@ 0.012931458425978853
rural 0.13885875227836064
ve@@ 0.04335341880939691
ä@@ 0.012944828997217475
اوي 1
اکیڈ@@ 1
فة 0.42995523690910903
يف@@ 1
Santa 0.07333177955837787
del 0.003545689173824088
field 0.03061116130043874
mad@@ 0.11180142528592893
mont 0.10048991003608315
om 0.04471838673607406
ש@@ 1
تحمل 1
عليه 1
Ali@@ 0.16098587165837203
ans@@ 0.039693378385033784
ets 0.01740607852571534
lem@@ 0.05709926753738191
pre@@ 0.01273461221574879
states 0.09556082804499252
الشع@@ 1
-- 0.5885634665964564
1849 0.29349846179509403
Chi@@ 0.08060255661964055
College 0.034198519465677424
IV 0.08176662570427268
John 0.019276256627761234
Sub@@ 0.08535004972740705
amb@@ 0.03285408858011556
bor@@ 0.02869226376379006
كاون@@ 1
كوك@@ 1
موا 1
ٗ@@ 1
Tur@@ 0.030528673008353394
he 0.003568866618150226
ita 0.03742570683384437
pa@@ 0.08598739464313147
si 0.03828033977540451
ś@@ 0.4072124569409241
تعليم 1
غرا@@ 1
موسي@@ 1
--@@ 1
1858 0.2845183376106135
AN@@ 0.15965036465245092
Av@@ 0.07964050634707878
Korea 0.18155600437733843
Kur@@ 0.05593042112318979
ל@@ 1
انگری@@ 1
سيا 1
1840 0.26017186012407073
CC 0.2383789559301519
aj 0.3107721417560594
cities 0.14651926768640974
for@@ 0.010924952375843872
ja 0.04603690891396348
ni 0.04569975522913653
ְ@@ 1
اعد 1
العصر 1
ٽ@@ 1
1873 0.22168470078109645
Ab 0.10919332914727979
Laurent 0.4044827024563988
ace 0.02519620671342283
ase 0.03005113785231433
net@@ 0.11897405479101925
ul 0.10641662952441068
uv@@ 0.08528822254853201
ؑ@@ 1
اه 1
ਰ@@ 1
ﮫ 1
1300 0.7039466623044965
Ang@@ 0.029719206030274004
Sav@@ 0.100902921896598
ens@@ 0.014181489450690766
jan 0.30829317022230623
tes 0.014071521477235725
ym@@ 0.055734956014683264
ב@@ 1
المخت@@ 1
تري@@ 1
1861 0.20472932994546345
AM@@ 0.1536726926528732
Ban@@ 0.07432222977332265
Kor@@ 0.05901612863135931
Lin@@ 0.06543608898774096
Mag@@ 0.03763303091614754
Sy@@ 0.06993558418889181
Time 0.1365795928983695
ean 0.05788005537374497
ough 0.045541181528855654
we@@ 0.015662578800988272
ה@@ 1
بيع 1
عين 1
مجھ@@ 1
Min@@ 0.034435351507969426
division 0.06128460205038955
ere 0.018206492908261346
ight 0.027939142311216296
sion 0.018965108888509594
trans@@ 0.018953093920172415
ה 1
ازت 1
اللغ@@ 1
صحي@@ 1
1875 0.21422435908552012
Ba@@ 0.11457062542143766
اضي 1
زين 1
1804 0.4747745787084682
Ha@@ 0.07925347921818444
Loire 0.2853176389373275
Sel@@ 0.0943863053907377
ates 0.016093804173402598
comp@@ 0.02553397232565929
ograph@@ 0.07313178303846866
ères 0.03903857543789492
ةٍ 1
كاؤن@@ 1
كات@@ 1
يق@@ 0.5923916711473529
Mari@@ 0.060737051979268354
Sur@@ 0.06310347051053716
der@@ 0.014340190672051079
include 0.03484596112233409
ino 0.02081757923938709
lar 0.04548472255272558
ome 0.06868890287090201
tical 0.03288468199057718
سلک 1
يول@@ 1
﻿ 1
Hil@@ 0.1011231366392416
Kr@@ 0.025548378436963153
tic@@ 0.025207307210554013
× 0.14247129944082942
ō@@ 0.09458301173305103
بعنوان 1
كين 1
لما 1
مارس 0.7904432430175047
ٴ@@ 1
Islam@@ 0.17805894913764778
Ra@@ 0.08465893844450124
ba 0.06002489180974087
bas@@ 0.022826205202371618
istan 0.15966554532741048
ular 0.04524572277353261
ura 0.037670043888736
السع@@ 1
رك 1
ﺨ@@ 1
1400 0.719168939086938
1839 0.326900377712723
1872 0.20940885433870104
Ben@@ 0.053951470173226206
Ge@@ 0.018974565244014988
Lar@@ 0.11222749574368117
Lu@@ 0.04304895178219776
No@@ 0.07216003597110239
Pol@@ 0.02908691667266908
ds 0.02239810416304234
ement 0.008923317815081043
ire 0.019756736863714822
ng@@ 0.04531483864330116
tric 0.08623980306520165
المز@@ 1
ﺲ 1
￼ 1
1600 0.4539516296563993
Bu@@ 0.08182605046795015
Sp@@ 0.02120713544465692
dr@@ 0.01663689002054477
sc@@ 0.02250555820503586
tel@@ 0.026111127914770473
ִ@@ 1
بالم@@ 1
غي@@ 0.9712731408361025
ﺿ@@ 1
1865 0.1925451807850751
It 0.0062311710480207165
Poland 0.13161983835230068
Pun@@ 0.147514327755328
Trans@@ 0.048118114585977194
Tri@@ 0.03512695170749316
ally 0.008469857361548903
arg@@ 0.07614413178740483
bot@@ 0.05617997672657352
if@@ 0.020224260910433393
system 0.029069385722776203
ائق 1
نزدی@@ 1
ومي 1
ݨ 1
ਾ@@ 1
་ 1
ﻏ@@ 1
ﻱ 1
AT@@ 0.1294056140545944
Gro@@ 0.05851740525250802
Lam@@ 0.11920537502468831
Mur@@ 0.05144151523952099
Russia 0.10630102419172115
ks 0.012039390668214044
sk 0.12812923458586456
جمي@@ 1
يه@@ 1
ﺅ 1
bl@@ 0.016340569918814878
ush@@ 0.07002512096354176
قري@@ 1
্ 1
anti@@ 0.024801982118432864
department 0.1309608098516745
hir 0.3812448777424534
oma 0.050848363281896965
wa 0.044539953254992326
القص@@ 1
بيد 1
دائرة 1
فين@@ 1
− 0.14520827336708594
1828 0.3529293262763708
1859 0.2173732001166939
1862 0.18846950701473741
1883 0.19126485261216308
Bon@@ 0.07814604884117217
Dr@@ 0.03067166612222655
Kam@@ 0.08751615085255349
Tom@@ 0.06916877975815225
ade 0.01786049425120026
cell@@ 0.06378477743118621
hou 0.21415289089917808
lar@@ 0.028717800193879123
ting 0.01081267643699651
use 0.014789890404284677
ye@@ 0.05979838779376256
أن@@ 0.33639627785145093
المخ@@ 1
خرج 1
كون 1
مه 1
1838 0.3034665845244284
Bah@@ 0.09939613981231345
IM@@ 0.18354202032923767
Lake 0.06531339449864437
Mat@@ 0.04559046127899956
Peru 0.3328975817400216
Sul@@ 0.11897442053972863
line 0.0208037251081405
osis 0.14290934118056983
people 0.01892185294749748
Fer@@ 0.0741166822248025
Lag@@ 0.12593379915095382
Nord 0.08455499816317305
RA@@ 0.08636010235813421
UTC 0.46507919625485145
Vil@@ 0.09405708904440908
cas@@ 0.02721352765708413
inc@@ 0.015333872513365683
langu@@ 0.153563244958961
ole 0.031587356008406606
oth@@ 0.030489908079377674
ted 0.006871193947428892
ą@@ 0.42283690651920663
الثاني 0.9826408029779681
ته 0.27406328976743694
ربع 1
1832 0.30557336952570946
1853 0.26090316676434366
Beau@@ 0.11769073038696364
Georges 0.1953354581099379
OS 0.1083175383768676
RE@@ 0.16998393229334396
burg 0.033380463532259576
their 0.006024905320668191
yg@@ 0.15933562718056388
ˈ@@ 1
ַ@@ 1
وَّ@@ 1
ﻒ 1
1863 0.18290206552848115
Ko@@ 0.05179606413065133
Ni@@ 0.053461187730568564
Pan@@ 0.05147423600762368
have 0.00717237906498678
onn@@ 0.025758058171951256
العلا@@ 1
يف 1
ٹورنام@@ 1
1866 0.15596644657673414
AL@@ 0.18999891433481458
Du@@ 0.0430883573469657
San@@ 0.05864158738014936
ban 0.06392530447399389
bar 0.04166907487439701
ij@@ 0.10060010891001529
ré@@ 0.008839057613092807
tor 0.01840702009529588
الروا@@ 1
بیو 1
تام 1
خوا 1
والع@@ 1
1806 0.3169525624644495
Elec@@ 0.07461150828870122
Empire 0.07463644673400013
Maryland 0.18120775446609688
Paul 0.03312311056676146
Vi@@ 0.0312892175039738
bi 0.11126417755000062
iti@@ 0.027262698672237472
ko 0.06030009392756116
more 0.01029032855953763
over 0.010372362315978953
port 0.027435347722181477
pur 0.20868788136125865
zi@@ 0.02996286585756806
دة 0.21379632533411858
سوف 1
شك@@ 1
وة 1
1826 0.3474912868522229
1846 0.2609647456549851
1851 0.24334235048924158
1869 0.1953030112935753
St. 0.032581578564016576
To@@ 0.030768817826902814
action 0.02858255244409979
col@@ 0.014071773290658797
eti@@ 0.03541951663650689
فاظ 1
Hy@@ 0.06482325203706486
Im@@ 0.04239872428482137
Sam@@ 0.058621321216388605
adi 0.17643439878898134
ave 0.03699508915470643
fl@@ 0.016650801048300978
ham 0.0673416442384356
inn@@ 0.023122065273892278
lat@@ 0.028008446674915425
nes 0.04772458227728684
oh@@ 0.04074477708790164
ؤٹ 1
الاست@@ 0.5740454042824112
خل 1
صي@@ 1
قاء 1
ﭨ@@ 1
Mer@@ 0.032208377750410196
Nas@@ 0.2409153860762522
Reg@@ 0.025054391875042645
Sad@@ 0.2373464076584624
enne 0.032501622788415244
oli 0.21842480395169286
oy@@ 0.03000902756883638
á 0.028939860061098374
الصح@@ 1
ديل 1
″ 1
 1
1834 0.2905177047190911
1854 0.22505453218093488
Land@@ 0.02643115474941514
Stadium 0.12808926078699118
aki 0.09687226153477288
ass 0.024747906036109185
eli@@ 0.04591114578445929
esh 0.09335191913317477
ke@@ 0.02489449281477825
ler@@ 0.019947653155716064
pol@@ 0.03560046410502813
yn 0.09592827013103851
اظ 1
جاء 1
Cap@@ 0.07412728207780303
English 0.0322106675971247
Il@@ 0.0789278086355608
LC 0.1866179960859981
Sab@@ 0.08920685306165604
Union 0.034388028289161585
Wi@@ 0.05788413878979321
alist 0.04403698969498961
appe@@ 0.044280705817977
gar@@ 0.031059341595481887
ological 0.04710887494361235
rah@@ 0.4362713639712374
ry 0.027869791200395018
ways 0.04194207858401005
ë@@ 0.17781670998512833
النف@@ 1
ضي@@ 1
1831 0.2927993320366161
Soci@@ 0.12417539084950414
ail@@ 0.0292682280931025
ene 0.015589975104842132
int@@ 0.015437385264559263
ju@@ 0.033923480734131956
ke 0.016359139816803658
ner 0.009458354736301338
non 0.02365921403407178
ut 0.035525825382752764
yan 0.10377831703683822
you 0.06407220916378552
ć 0.07483712837419476
بعض@@ 1
جديد 1
لك 1
ماي@@ 1
مشار@@ 1
1821 0.28553175165066613
1835 0.2674550418031008
Ash@@ 0.10058997233005182
SA@@ 0.11221943824658977
The@@ 0.04981680725898758
eu@@ 0.09953688030526678
ée 0.004920735706581534
الشمس 1
تمع 1
دز 1
وزير 1
1790 0.3362605941159561
1818 0.3186438838670903
1820 0.20486743407576477
1845 0.24689746846370766
COVID 0.1377736836663074
Del@@ 0.038670758140872036
Dow@@ 0.14045483611890452
Gul@@ 0.12989664356625483
Lou@@ 0.08234342430752727
arm@@ 0.024124773973894394
ik 0.03847744271768037
ord@@ 0.020594877069284933
population 0.018787760969284424
tro@@ 0.020032409158019123
wid@@ 0.04250892883283248
اة 1
ٕ@@ 1
ۖ 1
1874 0.17021735212933223
Can@@ 0.03974791388522942
Do@@ 0.040128181835583886
Fre@@ 0.02111095115771129
Now 0.22463660080738374
Sch@@ 0.0061454767041256835
Swe@@ 0.09509723854461272
Tor@@ 0.03336867279277656
also 0.004103771396751039
ena 0.02247769414258652
fi@@ 0.018510365763621094
ih@@ 0.04233769351718716
ok 0.034351122060821464
ont 0.01417563549552686
ts@@ 0.020377878163587628
which 0.0034642147891641383
í@@ 0.011210006693802196
جزء 1
وزي@@ 1
يمي 1
1809 0.34310745248949615
1868 0.16685665316356352
Council 0.04029476550018361
US@@ 0.0727288304103744
ack@@ 0.02230961446361423
alism 0.08495749287611216
ational 0.045988315237431084
emati@@ 0.056784883494975076
ff@@ 0.01592868518807066
single 0.024140427620849877
tor@@ 0.013869224496535586
van 0.04236353731934277
الجز@@ 1
تج 1
هـ 1
ٹاؤن@@ 1
1799 0.4059079090027196
ES@@ 0.0920242930133246
Fi@@ 0.04532529494701325
Island 0.04862930648733411
Ju@@ 0.04678719622384111
Que@@ 0.11895984333607243
iki@@ 0.8026683079968953
ors 0.0128137122157869
pos@@ 0.01095718814839932
yl@@ 0.02895227749390507
š@@ 0.06508878665256873
المُ@@ 1
تقد@@ 1
لة 0.1499116386139635
₹ 1
ﮪ 1
Dis@@ 0.03531643781045173
Fo@@ 0.05386269540858934
Haute 0.26116325241028887
Mid@@ 0.07491465306155046
SA 0.10454671109122232
Western 0.05308750645431975
ault 0.06749974358153875
bec 0.1729433723064397
cre@@ 0.013415590957113076
ea 0.02747518235147669
form 0.017266139210686354
ora 0.029107091126406838
other 0.007923796734699992
ous@@ 0.0894944641246429
per 0.014592546271348464
المغرب 1
حدث 1
هل 1
ি@@ 1
Bad@@ 0.1138231832023024
Bos@@ 0.07418898107226059
Fin@@ 0.030927170463931345
Games 0.07024883611111434
Pas@@ 0.048388841956527776
Tak@@ 0.08643119530054699
acc@@ 0.01582738138280642
ach 0.015381896447815117
can 0.01122716116330427
dec@@ 0.015668932869848388
ki@@ 0.0362469771864723
ren@@ 0.01571482747109526
try 0.03602574500638242
البح@@ 1
التص@@ 0.954206378665685
لى 1
ڊ@@ 1
La@@ 0.07902933654833821
Res@@ 0.04124787437182193
act 0.02895873218580015
agne 0.08474522362357516
ating 0.011617674318401397
enc@@ 0.024089416160129915
ham@@ 0.09116608426744462
ington 0.0437853219999728
lan@@ 0.02052700768786641
low 0.01600680284973004
mir 0.16875213371731054
nor@@ 0.023424570531435887
ography 0.034788910245073995
var 0.17107900296529654
wi@@ 0.07071812989688199
ône 0.1583758981806227
الإ@@ 0.1493406886934666
السي@@ 0.5319256573763953
تدار 1
ديد 0.8358805876830638
ليون 1
هو 0.08987403751624981
ਸ@@ 1
Ak@@ 0.04158630792141618
Bab@@ 0.08515657121845807
Er@@ 0.010125864666849014
Great 0.057643757393592045
History 0.024644551350541423
Lac@@ 0.199414718418639
Mil@@ 0.03538603825669134
NS@@ 0.13687275452203987
Pu@@ 0.07988772106531691
US 0.018830503104473355
Vill@@ 0.07240367684769507
ater 0.04005811978355366
fa@@ 0.020998633100218277
st 0.012943123760846944
tienne 0.17517013534724252
تنظيم 1
طلق 1
️ 1
1855 0.1984722458208329
Ou@@ 0.1729684670961932
System 0.08627589924468232
TV 0.030179203653186916
Wor@@ 0.03125797163752295
ability 0.040353297584666575
ap 0.039254257587076014
aza 0.09593139950236262
cel@@ 0.040260204536256
ide 0.029033836477430353
most 0.011321104425774045
ran 0.0618363451049121
space 0.06490621797092264
إن 0.77356829170606
1789 0.31199407646039606
Bay@@ 0.07536240104035882
Beng@@ 0.14826943154395317
Cat@@ 0.057687214792982215
Ed@@ 0.024058833847395992
Egyp@@ 0.10862365195007141
Hor@@ 0.033805919726592686
Ray@@ 0.3130191134055812
Sil@@ 0.03465355160460831
ars 0.020319746455814403
aye 0.104447658568126
ko@@ 0.03814365098407682
lam 0.11515321909898064
life 0.015426706731695506
loc@@ 0.018454512955507513
mag@@ 0.02834632224125518
mas@@ 0.020904938995680907
number 0.016182117906432487
pedi@@ 0.11135448820851841
war 0.004239801334469192
أس@@ 0.2580145475158854
ادیث 1
رًا 1
نه 1
نين 1
ਦ@@ 1
1801 0.3004538412457138
1847 0.21801443557913083
André 0.1460922175621057
Bak@@ 0.11723661450624263
Bey@@ 0.5993488579004066
Gi@@ 0.028046507645360996
Hol@@ 0.0210061715601051
Jon@@ 0.2390369783708191
Oc@@ 0.05042396271336894
Spain 0.08993910701491604
ae 0.029732143530281106
amm@@ 0.027971572172267617
awa 0.07715830211913666
aya 0.04910919866114903
constitu@@ 0.025868610002812046
kar@@ 0.03995584165889021
nucle@@ 0.10398419117899455
pp@@ 0.026665244673732314
yk@@ 0.45877460605425324
נ@@ 1
اعتب@@ 1
الحديث 1
جين 1
صنا@@ 1
़ 0.03562304650915417
ক@@ 1
ﭙ@@ 1
ﯽ@@ 1
1837 0.23162058120139925
Gor@@ 0.09019815673641396
VI 0.11916362446527522
ban@@ 0.025920913213786017
cs 0.07847519066967827
dar@@ 0.024039021535560454
ental 0.02358063207160127
ili@@ 0.018392029293444186
io 0.02154775810944065
lement 0.05596694807103628
nam@@ 0.027807385705030614
ny 0.09416340617697076
ories 0.036017310811923116
til@@ 0.03656061394885312
تؤ@@ 1
دفع 1
كث@@ 1
1810 0.25952432179626367
1817 0.30466544009758234
A. 0.04014279275463494
Jan@@ 0.09813315189693902
Muhammad 0.22479814233967432
SE@@ 0.09988381788512313
Valley 0.07463483790242535
apo@@ 0.05278607768435417
ath 0.039871947188843404
ert 0.01400403094437019
fe@@ 0.013345123886855409
king 0.019927197584080444
ler 0.009791128882852577
parish 0.11160496753696446
بالت@@ 1
ੀ 1
ﻊ 1
1829 0.26984136078629906
1842 0.2288787409070137
Est 0.15647806450994933
Hal@@ 0.04088929451192488
House 0.027070310254631847
Hungary 0.20129205061136504
Ji@@ 0.17047682899789884
Las 0.03138227117372194
Mu@@ 0.05385205947198869
PO@@ 0.26490483390790937
Wo@@ 0.04036100245844904
aur@@ 0.04073181600427255
bers 0.04597240416524151
coun@@ 0.032530315583802094
fication 0.038219635266982424
ome@@ 0.06811551572548162
Ś@@ 0.44352572644163224
إلى 0.047897001436084316
المرا@@ 1
بة 0.2371577367848653
مى 1
ميل 1
1844 0.22673336988950965
AC 0.07598977560497422
Fas@@ 0.1624161331853743
Lat@@ 0.05998077039310399
RO@@ 0.13891731106532512
Ram@@ 0.04820865011796391
Tw@@ 0.12442748018543744
We@@ 0.016178355198791735
atis@@ 0.06793871983399266
don 0.05393147967140296
fer@@ 0.012641076658188586
log@@ 0.04410541804844036
medi@@ 0.02061332166083298
s.@@ 0.48197946783418827
will 0.01695958480232797
Ł@@ 0.2656527441102966
ע@@ 1
مني 1
1807 0.3053516831495186
AB@@ 0.14289241102221784
Azer@@ 0.19160370457803252
CA 0.10213548194926025
CI@@ 0.10725014153954646
Kah@@ 0.42354232389762564
Nar@@ 0.09797987219338092
RNA 0.27716189593476404
ST@@ 0.12111793382907228
Var@@ 0.0961819041414089
core 0.1015611172115675
countries 0.05647570315304576
duc@@ 0.045269412776460474
ip 0.36285437480799193
net 0.04113445220435508
ost@@ 0.05663906250528835
rate 0.06443337130261492
sive 0.02497716685393789
ski 0.046427073180289484
unc@@ 0.024935067954857712
well 0.010137456913512815
yp@@ 0.034901498543782744
الإم@@ 1
تأ@@ 0.7715820809382127
زيل 1
قوق 1
يكي 1
ﮈ@@ 1
ﺀ 1
ﺯ 1
ﻈ@@ 1
Ay@@ 0.08508973611046017
Champ@@ 0.10387768663357615
DA 0.14314716441116646
Des@@ 0.0324663474191094
El 0.0056056163061633515
My@@ 0.06152764300129993
NE@@ 0.13401375992057263
Por@@ 0.032262377305636206
Road 0.04131831811978236
Som@@ 0.06925387966828328
Ti@@ 0.03833981420488714
ae@@ 0.07000797756789395
cl@@ 0.014120074686612393
class 0.039733103034832205
had 0.003573378004373125
his 0.0019427236095070936
ids 0.043963727692506366
ila 0.05284397213770649
institu@@ 0.03755153561322183
mor@@ 0.018547770000400376
ness 0.03356602353294942
oni@@ 0.027656545612354047
out 0.007413125220625694
sch@@ 0.0052940886539317306
ser@@ 0.011982371262749314
two 0.005404234729922581
ver 0.016653199718238823
č@@ 0.0693540593441562
الجما@@ 1
سرائ@@ 1
لوك 1
ﷲ@@ 1
Bro@@ 0.03790493476907086
Jam@@ 0.08490405998433123
Meh@@ 0.2560828212133059
VII 0.15170596067046369
electr@@ 0.09327777731088274
eter 0.026235659989336794
hol@@ 0.020934812505803695
ich@@ 0.016740890096165566
ick 0.01666127299770252
ison 0.030996404228144765
mat@@ 0.01710458582550331
olog@@ 0.026236299046473895
pen@@ 0.020172757437714506
row 0.0442216198418604
ual 0.023994385111105486
une 0.0024382066019733774
wor@@ 0.015927723201497476
ég@@ 0.030413800751501147
البرو@@ 1
تکمی@@ 1
طلاح 1
عرص@@ 1
مباش@@ 1
هي@@ 0.4116793052016073
ਿ@@ 1
ﭦ 1
CEO 0.1805800512846346
Est@@ 0.028751801518421147
Ir@@ 0.03777481410390144
Kas@@ 0.07919948829638143
Rah@@ 0.18981936796482035
ax@@ 0.04113388060598313
berg 0.019302298097435184
chi@@ 0.02968141976242612
ization 0.09265108131736438
kina 0.44522440300716154
poly@@ 0.09898664392636533
pu@@ 0.016428833087799695
the@@ 0.01803054208837572
they 0.0067945874549912785
ابق 1
الجزائ@@ 1
المف@@ 1
النس@@ 1
باست@@ 1
بالن@@ 1
تست@@ 1
تعلم 1
ريف 1
طبي@@ 0.9490968398241016
لاند 1
ব@@ 1
․ 1
🔹 1
AI@@ 0.11033756901232689
DP 0.1265425786206523
ER@@ 0.0949633081457053
astr@@ 0.05122665722714122
cell 0.11172195512106108
ici@@ 0.014912299508830752
ies 0.012204360664880896
ira 0.05495623032411593
ung@@ 0.017328169267387304
urdu 1
ת 1
الملك 1
حدو@@ 1
عند 0.5749494059977472
مارك 1
ميم 1
ينا@@ 1
ন 1
ﮌ@@ 1
ﺫ@@ 1
Gir@@ 0.09841059963532878
Hill 0.05494241551355764
Mé@@ 0.07859516508635632
Nov@@ 0.053315910817610876
Sim@@ 0.03731117384748745
Sor@@ 0.08553801861012537
Vir@@ 0.05950251958104933
achi 0.23165801691059978
ago 0.0506069359859669
ati 0.05903335251786149
aus@@ 0.00684190398136042
ber 0.025973926345176923
ente 0.00879936859190506
fre@@ 0.01918991064738531
histori@@ 0.03372069240500402
ier@@ 0.017874425171642744
inf@@ 0.027529303547591172
mis@@ 0.015029262054550137
oux 0.17327091514335097
ps 0.022336259783539963
quot 0.26201601303266175
rec@@ 0.0076216091352406135
án 0.01799105350707991
حمل@@ 1
دًا 1
1819 0.2803686624256822
American 0.009274463274838426
Fl@@ 0.01676239521007402
Les 0.008654751203120672
Loc@@ 0.04638851472998485
ME@@ 0.1722352342258629
MO@@ 0.21047270409989874
Na@@ 0.07534311954339602
RC 0.14449476961323593
begin 0.13554171529296458
bur@@ 0.018308593618046244
cu@@ 0.010621065290482666
function 0.09349210832546564
hr@@ 0.04300023278038162
illy 0.09435043556398823
pe 0.01683742817716944
tive 0.021005591276960504
tra 0.029634798773494817
yc@@ 0.051353599967805995
إل@@ 0.5222474900913933
روي@@ 1
ظل 1
ਤ@@ 1
1795 0.2892896101782397
1824 0.24718895640377028
British 0.017093567325993837
Kan@@ 0.045548081534645644
Sc@@ 0.046160968694159164
Shir@@ 0.21677064347494895
Vol@@ 0.033616650433237555
ains 0.024831108940161738
ange 0.04059224927057888
ask@@ 0.06863468545523138
cri@@ 0.02584350207435809
cur@@ 0.01631891068517942
ona 0.029939314148548068
pro@@ 0.010144093268693576
public 0.017547645495328903
set 0.017787827134454724
uh@@ 0.05398489727715581
ven@@ 0.016701577734753795
£ 0.07858876110138445
ī@@ 0.16392647052400644
افي 1
التع@@ 0.5688098347893608
الشيخ 1
تاريخ@@ 1
ريد 1
قاً 1
وط 1
وى 0.95778094214698
ۂ@@ 1
1836 0.20183981329040365
Bat@@ 0.04447051190035765
CH@@ 0.11764267263764991
Ca@@ 0.0686913010808842
Fal@@ 0.0714098260706577
Te@@ 0.022012582264535858
XI 0.19010635252295588
cin@@ 0.03140634831926961
ding 0.02060885533967312
ern@@ 0.01972702062436631
ines 0.01613180928427099
ini 0.020985950991981493
mer 0.017264184187118448
och@@ 0.056868971420524494
oz@@ 0.060766551171858356
ri 0.08009885104510851
ron@@ 0.06225868884278571
site 0.018589851863086437
war@@ 0.01928834886573844
we 0.02935995809149385
ֹ@@ 1
ارتفاع 1
التن@@ 1
وء 1
۞ 1
ﮯ@@ 1
1803 0.24161811589770485
1833 0.21716659561865145
Anti@@ 0.06496229036575454
Cer@@ 0.04164465259680303
Mak@@ 0.07561657536174873
PS 0.08692432755628275
Pri@@ 0.0318027852410577
Seine 0.05186028570994564
`@@ 0.7320617190611061
ami 0.0719113440584714
ble 0.021395464896058335
dex 0.1831776456974632
dia 0.04116588508852448
div@@ 0.05320193491468143
ft 0.0221403097830191
hab@@ 0.02577454027952246
isi@@ 0.017751969304348667
list 0.03924113367917757
national 0.018013448036409932
ning 0.01624039794848066
tim@@ 0.0134745056782149
tur@@ 0.011617297601944031
zi 0.0920569190681374
ń@@ 0.16592293596135962
ם 1
أم@@ 0.4708305533346076
التار@@ 1
تصف 1
ستي@@ 1
٘ 1
1793 0.23029548009555853
Bri@@ 0.05474536802529483
Colombia 0.1207456634340151
Der@@ 0.05161803712533437
George 0.023547939935601652
Gl@@ 0.03505479061922573
IO@@ 0.27714842562805514
Je@@ 0.028901502095416504
Maurice 0.14375491301910065
Nag@@ 0.09265914828768332
Portugal 0.08631280670456169
Sz@@ 0.08784247014824599
This 0.007916127286480815
Vis@@ 0.0794484722990792
art 0.012357403771769917
bat 0.09748135977419434
dev@@ 0.019828817255429402
ebo@@ 0.19592653363025267
ee 0.03142317892211662
eth@@ 0.03635375005290206
gl@@ 0.02098665214909846
ital 0.04866092875893435
place 0.010634483004844401
sur@@ 0.010102067178474686
tig@@ 0.02405521680925086
uri 0.10478434996169954
ux 0.032322145664204306
ā 0.23823299027493836
اله 1
ترك@@ 1
جورج 1
مرت 1
ولاية 0.6937996925523532
ڏ@@ 1
ڙ 1
Asian 0.08180566490456488
Bl@@ 0.023112827098584168
Dom@@ 0.04914684112807983
European 0.027556046135857354
Hel@@ 0.03505712380476499
Kol@@ 0.046846854217677786
Liv@@ 0.07765865144715238
MI@@ 0.12593138354355346
Metropolit@@ 0.12982158590941387
Rec@@ 0.024825844745583154
Ste@@ 0.017793083851399914
Sud 0.08069687870331928
Tro@@ 0.032622802702154875
book 0.023452321541331998
cor@@ 0.01037391580226254
ential 0.04237278948537877
fr@@ 0.012214759869946131
ga 0.03654146105721539
ht 0.07328072789268462
ine@@ 0.055410788491128696
ond@@ 0.02649673520592106
sy@@ 0.030374944857062203
thu@@ 0.1070345791179817
ud 0.06353788612406473
مشتر@@ 1
وتر@@ 1
وفي 0.2329769022073359
ٶ 1
1792 0.25353880575421966
1843 0.19815604654001162
1852 0.16518251854633814
Bou@@ 0.08100187177122715
CC@@ 0.12245118757091025
Company 0.03129588070382558
Division 0.02517641416590593
Hey@@ 0.25230465148271686
IE@@ 0.17210887912679762
Koh@@ 0.12622849650480789
Michel 0.09492898545433773
Tu@@ 0.07031979061170424
ag 0.08107726650846596
alm@@ 0.04102281647230054
app@@ 0.016731105059868485
gene 0.10349063433360273
inde@@ 0.06630293286942347
ins@@ 0.015271748432064585
land@@ 0.017566636362127856
nia 0.09817179189178808
onde 0.12481750004989117
ori@@ 0.016728591068258854
so 0.007280083907154692
sol@@ 0.009664825374144679
tion@@ 0.025073146477481805
wo 0.029423626918850778
wood 0.03646665162983646
السلط@@ 1
تقدم 1
حي 0.7938197103628657
عاب 1
كيل 1
ويلي@@ 1
يب@@ 1
ﮎ 1
ﻖ 1
1791 0.29784168517402754
1825 0.2167488655748148
3D 0.16391389860765943
AK@@ 0.31079653294772563
Ap@@ 0.03620098075819639
Cre@@ 0.04212666775459381
Dur@@ 0.0646602710639448
Sing@@ 0.0653846466807513
Turk@@ 0.10654733064525805
Wal@@ 0.026601561097657187
aine 0.026573769013652396
atic 0.04344565542365499
bel@@ 0.013185007435819875
esia 0.15016060341578066
ich 0.016999287619920714
pper 0.09707927075592665
sous 0.01557245360134562
table 0.060566295560668615
النوع 1
مبي@@ 1
مقاط@@ 1
وصل 1
ومي@@ 1
ې 1
ー@@ 1
1805 0.260104628834964
AM 0.10399980150034935
AP@@ 0.08115560203166255
Denis 0.1989735256955769
Gur@@ 0.18045978989893197
Human 0.12856332995114858
IX 0.1431910739820352
Kus@@ 0.24273252726118846
PA 0.09913371639536757
Rh@@ 0.05430507903434872
SO@@ 0.11948197039636822
School 0.012582064581496242
att@@ 0.012371684589739874
e.@@ 0.08191426964094367
ef@@ 0.013464012293444235
esis 0.06848758857912683
ger@@ 0.010694771097945938
hy@@ 0.03360497722733587
mun@@ 0.04489455441326133
old 0.01202574290054625
our@@ 0.024711858919139403
ov 0.030035591315317
rol@@ 0.034550691362526025
tier 0.05720863473763475
ung 0.0033532116719372108
wan 0.07986531179097414
who 0.0040323201695954625
ys 0.030609516606549002
يمي@@ 1
਼ 1
ﺝ 1
1808 0.2312623367284086
1827 0.2397275492725945
Aer@@ 0.11135627011107424
Af@@ 0.0677026852498504
Armen@@ 0.1024341543054486
CD 0.04728926912122606
Camp@@ 0.04256738879004112
Cir@@ 0.0634356210532787
Dam@@ 0.07841619779153354
Kon@@ 0.016023870828810884
Ouest 0.16238735975152024
War 0.015218463941617095
William 0.019920952184734397
aff@@ 0.015866147500358356
agu@@ 0.04259388466664021
any 0.016082349966571395
blo@@ 0.04200535026862479
cop@@ 0.025188724118274018
eng 0.08210303012550804
eo 0.025124864836265956
group 0.014959756936258957
iss@@ 0.022190601865968478
oa 0.06324879915423093
oll@@ 0.02169324881215103
tis@@ 0.021498506573692153
up 0.0066296327713956495
view 0.020674472521492303
ן 1
البط@@ 1
الیٰ 1
شہن@@ 1
مركز 0.42053150543372014
ورك 1
ۓ@@ 1
ﻐ@@ 1
@ 0.48559954749904377
Agu@@ 0.1454833620647873
BN 0.33883355923752817
Bre@@ 0.026042291336636936
Don@@ 0.049436814857820914
Eastern 0.06841225358656756
Gh@@ 0.09305652617336731
Med@@ 0.03326548655392312
Mel@@ 0.037535516470067115
amp@@ 0.019902961667881396
arrondissement 0.19261446950353292
change 0.025184694396676074
del@@ 0.021087879114617472
din 0.11145518360853879
elles 0.019781148143035342
ely 0.010941997361306579
ez 0.02446456756418994
inal 0.02828199604232171
men 0.009609013912121548
my 0.04110926627836313
onlyinclude 0.11539387290096353
privil@@ 0.15217720554051703
ro 0.022986379507905903
rul@@ 0.058056009157331855
ster@@ 0.02460042316103199
than 0.009048588133105455
uk 0.09699501181336416
val@@ 0.01622563756726445
أح@@ 0.6770199955582543
أخ@@ 0.6653546861261721
دول 1
ديو 1
يث 1
ٱ@@ 1
ﺬ@@ 1
AN 0.12825908500939773
Bank 0.05293928701487528
Chinese 0.041281861786393016
Development 0.07278335054754735
Econom@@ 0.06650242990636727
Louis 0.027780175421300166
Mand@@ 0.07769744429653362
ame@@ 0.055993982952821125
arab@@ 0.16135376635005005
azi 0.16229309099513367
bal@@ 0.02602699782242923
bon 0.04862213738493756
cle 0.04482633903618305
dar 0.058300207324360476
ection 0.019276809729243786
ider 0.036459797142182934
ney 0.023620949349016897
org@@ 0.04970436803534138
osh@@ 0.12246549659227324
por@@ 0.01355902625446741
sar@@ 0.09218973207302993
tar@@ 0.016635797950410813
í 0.028860431096256637
ד@@ 1
الموس@@ 1
فلسطين 1
موال@@ 1
ناك 1
يه 0.3969633705818237
ম@@ 1
ਹ@@ 1
ி@@ 1
ﭔ@@ 1
0s 0.012580734292635475
1798 0.2483378315898914
1841 0.1761318279393277
DF 0.1506997485684664
Grand 0.02652638559349978
Jo@@ 0.019181167257575293
Pen@@ 0.04369194612729969
Ukraine 0.08943352667313419
Washington 0.028349383783262225
bad 0.11393508272413484
dyn@@ 0.09978750573934296
ech 0.03640038868443069
ese 0.01398331335406449
ingen 0.02125445291159637
ium 0.04431167965328211
men@@ 0.010083098069934408
mut@@ 0.04372085725790501
ock 0.03687552797068319
pa 0.04657655703666779
prot@@ 0.013703867725436587
rom@@ 0.019325392563080905
shire 0.03811503464065391
una 0.0026045882852114947
ves 0.012199490715331777
would 0.0067709101593352965
ç@@ 0.01873291296882648
ż@@ 0.3304546962271059
بلوچ@@ 1
مؤس@@ 1
مجال 1
هما 0.44356987885208315
। 0.011102491183460302
স@@ 1
AS 0.08574105262343323
Cam@@ 0.03347358263834544
Carolina 0.05626480146711553
Dec@@ 0.04578597799098149
IC 0.12038805268910177
Indi@@ 0.032403444240454514
James 0.020209182307258045
ML 0.20211525835040037
Maur@@ 0.09092262649232526
Missouri 0.09709086375753574
NO@@ 0.13811688164988598
Women 0.03967552190191836
ait 0.009672004498506229
cer@@ 0.01466189250983101
ences 0.015965488762463943
gan 0.1441880310377302
ho 0.11897407488501799
ida 0.014320218174641148
ority 0.04307467219523589
out@@ 0.01993389498565762
pap@@ 0.02932861767425503
reg@@ 0.009206202663808154
res 0.018495607041490055
sec@@ 0.010429899407838212
ture 0.012125373138832945
uter 0.05687007203725761
wh@@ 0.018499553567583354
ə 1
أهل 1
تين@@ 1
جري@@ 0.974035548495474
ذي 1
وعات 1
ونات 1
◼ 1
ﺛ@@ 1
ﺦ 1
App@@ 0.11599235854486695
Baba 0.567720816151048
Bay 0.042611275271442
Bil@@ 0.02399248245660457
But@@ 0.06431223517106684
Chal@@ 0.19542792246175192
Cur@@ 0.03350249187780128
Mot@@ 0.04027304161136587
Northern 0.05386423297531972
Pot@@ 0.05556738510603108
Saf@@ 0.11245792841869756
Ter@@ 0.03945466364731897
bas 0.0969321402113598
but 0.0036455609955849864
edral 0.07643087897996395
eri 0.05185182982246925
ever 0.027173753259006464
fin@@ 0.007443462330571796
fo@@ 0.018300558569733755
gre@@ 0.012471603671836827
itz@@ 0.02335009762270085
mal@@ 0.016661326655985145
of@@ 0.017559123347566388
qui@@ 0.024464275281666493
ros@@ 0.051298059220087754
tem@@ 0.03447146147713851
ters 0.010045737745084863
tw@@ 0.01677797634492863
via 0.027887802967914363
xi@@ 0.09386354228806086
za@@ 0.12595907942395312
å@@ 0.11198774796109602
él@@ 0.020010793822689586
إن@@ 0.42632899816510034
المدر@@ 1
تنظ@@ 1
جة 0.6400758914999637
ু@@ 1
ਮ@@ 1
Chile 0.0637844609424538
Dor@@ 0.035913026633733344
Marie 0.043223869389177154
Naz@@ 0.14523589998831052
New@@ 0.03164738348047044
Ori@@ 0.052354431845938514
Pak@@ 0.1283434739294872
Party 0.024488693164950868
Prot@@ 0.03248789593683736
Sultan 0.1741454962169576
Tre@@ 0.02803427204241075
War@@ 0.028093143806709964
anga 0.09650667348691201
atr@@ 0.024647586562111204
bal 0.08139056885245684
bert 0.03179826280131377
bro@@ 0.018290937656398006
cal@@ 0.021974128701646577
cap@@ 0.012171864103968914
court 0.02985540215651108
emb@@ 0.022249408942730434
first 0.0029763484132569852
following 0.012476774723356242
ng 0.09686836138510689
sen@@ 0.015043808698946875
sw@@ 0.02181296804053981
vo@@ 0.012080810643466758
wan@@ 0.039552974806013746
­ 0.21028442457435567
الموا@@ 1
بالف@@ 1
عنه 1
هي 0.10661112293165283
া 1
ਾ 1
AD@@ 0.07582626699324034
IT@@ 0.1289755934131008
Is 0.09025433534406768
Leg@@ 0.02459362171127587
Mes@@ 0.06516800694587839
Plan@@ 0.04583479070658844
Sem@@ 0.047690616921913585
Wy@@ 0.12353179264379115
acid 0.13931061650220186
ais@@ 0.020788720106418548
ales 0.004576395557253785
ature 0.021808563784652107
aw 0.07423364423466045
enn@@ 0.012846949739645312
hai 0.03608906029860604
ineering 0.058315402657482064
kan 0.090868091943885
kin@@ 0.035622793369683485
lan 0.08278933836995586
les@@ 0.029124131155380453
million 0.019276874329619074
onia 0.03691845303871179
only 0.006908206202828665
ort 0.03205342383912365
tel 0.023941615147410313
ust 0.034614693655857544
vol@@ 0.013624338545196535
ת@@ 1
البرا@@ 1
واسع 1
وقد 0.17230127067521425
يوم@@ 1
আ@@ 1
ল@@ 1
1811 0.21819441151054572
Cou@@ 0.12539526920643163
General 0.017645947248196864
IS 0.12841092952429603
Lav@@ 0.10886965549855371
MS 0.07508820675378938
Mul@@ 0.05015460832040134
Pon@@ 0.07216332848428755
Power 0.08803074542986973
Sak@@ 0.0966239642961987
Sen@@ 0.017568949773417962
St 0.03322682609037267
TE@@ 0.11601141162439407
Zar@@ 0.14415169962111285
ack 0.018650102207774605
acy 0.027981373103045715
aga 0.041701987127143084
air 0.01863748699188466
anim@@ 0.024465959695638057
anj@@ 0.13527669056418357
atom@@ 0.0835217957632349
istic 0.05131254432348995
ists 0.014769329642711099
ky 0.03223825376627984
ote 0.020070308402089312
team 0.007828696795198119
techn@@ 0.022486139489684916
very 0.012919893772489801
أص@@ 0.4005775726642621
دى 1
ذكر 0.8601046184430278
لمان 1
هذ@@ 1
يح@@ 0.4812001011327592
ো@@ 1
ਕ@@ 1
ਲ@@ 1
1802 0.21543405687144318
Ari@@ 0.08649853025267967
Blo@@ 0.053040632617967674
Cape 0.10276039576542775
Green 0.04935905905493581
King 0.022507672604019067
Lim@@ 0.05893855047932234
M. 0.04254779130070492
Mem@@ 0.05590536324860627
Mexico 0.04706439070366516
Nic@@ 0.06527539823992815
Nigeria 0.13665547926905705
Pom@@ 0.07238288145737017
Py@@ 0.10936169050339148
Soviet 0.04693548610500826
Ul@@ 0.034717965965596835
Wil@@ 0.026099176537830834
dissement 0.2859888294160597
ense 0.02050100758039133
ew@@ 0.02867142140563915
hor@@ 0.020524695523187638
ima 0.03372546662392975
kr@@ 0.025045756961789047
let 0.040544247010238524
lier 0.062202536062302936
light 0.02036975947638851
ox@@ 0.03497680105924238
ret 0.04531595936063445
sel@@ 0.013354332727693272
su 0.0028343428069827
tors 0.020604962690157755
uni@@ 0.022871127465804983
vis@@ 0.009390500038427363
~ 0.19336079645079196
ón 0.010011130556359679
ū@@ 0.08919794837995552
כ@@ 1
أحمد 0.9207346070199639
أو 0.07325105167189323
البلاد 1
العق@@ 1
وجہد 1
୍ 1
్ 1
Asia 0.05612407408952376
CP 0.17161813120409117
Coast 0.07069161934650679
Fr@@ 0.014233604651508275
France 0.009845509839410196
French 0.0176658102815005
Fu@@ 0.043670676408128925
Ful@@ 0.06926660230738843
Ind@@ 0.0665839855509232
LO@@ 0.2053997374136127
Life 0.038300454677944164
PC@@ 0.10125816835169672
Sir 0.04437448950743523
Street 0.021962780468068346
Vie@@ 0.0940638914757244
ana@@ 0.13790391198740753
aran 0.14861256304770343
aro@@ 0.11769604586203206
aul@@ 0.060970230374749954
been 0.004038065132757618
ery 0.043606327183074105
ill 0.021417394353410422
leg@@ 0.012764032968872482
san 0.10207583092092505
sil 0.11503264162864414
under 0.006796638177139627
verse 0.02968714875280463
web 0.08320884756331906
xi 0.18370874230982923
zar 0.1552626620804834
ֶ@@ 1
الشرق 1
انیف 1
بالق@@ 1
ريق 1
زيز 1
سيدي 1
يين 0.2361328335231896
್ 1
1816 0.18499513081844376
1822 0.19783604969727783
A.@@ 0.07385629779503623
Do 0.10326192356994202
EC@@ 0.19263692623951548
IA 0.16115140230431674
Ke@@ 0.032903951433422785
Lap@@ 0.19463694623836839
Mam@@ 0.14606965011055612
Mc@@ 0.011975119036477558
Rem@@ 0.0601591479091338
Ros@@ 0.02189031057992687
Sum@@ 0.0558158641721018
Territ@@ 0.07940970574146994
agn@@ 0.03911256149614611
bil@@ 0.013462155979519141
bol@@ 0.05016223524388251
cul@@ 0.017672521060773026
day 0.00973880504568649
eign 0.038153563247171694
face 0.024351147621968376
formation 0.023951672427372662
fort 0.02461581619730534
ier 0.021186309231321913
igh@@ 0.018561055102462882
ites 0.023884461987178703
mir@@ 0.03437622257293242
mus@@ 0.019856185025534233
ori 0.06412225941874915
ray 0.0660833722794603
red 0.008145183459677343
rit@@ 0.01982246126119324
tin 0.0188039435231185
uf@@ 0.020091976308303006
wn 0.017310397460094457
work 0.008451802925618342
ח@@ 1
פ@@ 1
ارة 0.22224856263913156
اليا 1
سنة 0.18559952547399
عرض@@ 1
قه 1
هذا 0.12485269355697738
وقال 1
ਨ@@ 1
市 0.027575980082210478
ﺡ 1
Act 0.03442457838614507
As 0.010005410397036368
Beh@@ 0.059966167925559255
Bud@@ 0.050221770456808396
Ci@@ 0.04974316572851939
DC 0.06866727181108223
Gran@@ 0.05750959777155643
Log@@ 0.08782160240847896
Maj@@ 0.08956026854704222
North@@ 0.06458787286989698
TH@@ 0.213974547091154
White 0.03351902105997248
about 0.007161551126440215
ake 0.019306851707179527
ann 0.05560836429789291
ants 0.007088999334001327
anz@@ 0.019588657812948784
ark@@ 0.03270972710771279
ella 0.018154402443899455
ff 0.028071651356839727
flu@@ 0.035248977070909945
hem@@ 0.08944928186411398
ign 0.05826048869054155
ker 0.012660490786457458
lim 0.0795367245851623
lo 0.006087201071449623
money 0.04958353654944372
ota 0.03543201549788092
phot@@ 0.027826513052826143
schools 0.036853825904834596
soci@@ 0.0168874061093658
son@@ 0.016718219136736177
ws 0.023705747438026205
ées 0.006507264526737621
اره 0.7491667480348436
النظ@@ 1
تقري@@ 1
حة 0.1712552910216656
فين 0.9987026880510617
هنري 1
1823 0.1962013251398108
Assembly 0.053045680679610296
Baz@@ 0.21353708052302697
Cel@@ 0.04564161635206135
Church 0.022136736221852256
Comput@@ 0.12341750307257443
FI@@ 0.057057876780759076
Fir@@ 0.09933800467263612
Guinea 0.14270384906094818
Ker@@ 0.047108681058329195
Op@@ 0.031945176699244626
Oxford 0.06893944556182367
RI@@ 0.10535278438972777
Rich@@ 0.03264076792383876
Uni@@ 0.04649547858893436
aa 0.13732470814414977
bury 0.045084054547491634
data 0.03935031342009548
date 0.029005143086680056
els 0.008940669310187086
emp@@ 0.016701516441045606
energy 0.05776439538353931
enz@@ 0.01760386179931528
known 0.006934123148545021
math@@ 0.06096812676832865
ow 0.03572790980081548
second 0.007557071882120462
sex 0.04706603099634101
ska 0.11446009638375519
stein 0.021552546856337826
teri@@ 0.05363847433648113
vière 0.3532938032561289
wat@@ 0.027452159957827838
years 0.00571161903613483
غو 1
قة 0.1372529783638359
محافظة 0.7722249323963915
ੰ@@ 1
ﺶ 1
Day 0.04155434720178906
Henry 0.026594869500498115
Hon@@ 0.024807476069876377
May@@ 0.052933889271637495
R. 0.05429557574064376
Rad@@ 0.04549730082838796
Rel@@ 0.026136809736525303
SS 0.047621549288916626
Shi@@ 0.05214184983864912
abi 0.18846454253853928
ands 0.020690676449560824
ani@@ 0.03046565251398091
arak 0.10527278171079477
bat@@ 0.01937091091116404
cy@@ 0.053335490349897804
esc@@ 0.018313837227168037
ex 0.03984070689361509
ful 0.018837240563080487
ges 0.020766188871940913
go 0.0165705162946804
hat@@ 0.08456642862578996
ities 0.021336555677063575
las 0.0023836476064558547
lines 0.039384565010324446
met@@ 0.016716365734469427
now 0.01161096413411546
ond 0.02523371681192055
oni 0.05047668589085578
ony 0.029413426071764785
pel@@ 0.02202340773140461
sky 0.04146988294724859
tan 0.03379831094805911
theory 0.05807488885100316
tis 0.03844435078022536
ula 0.06798472825286635
ures 0.016229076909926726
ń 0.232775289944547
ترك 1
لأ@@ 0.6306768130130357
نة 0.3209340180836558
ﻩ 1
1st 0.03442342803995538
AT 0.1064816578803373
America 0.02269831113441692
Chil@@ 0.04284731338720724
Cum@@ 0.11441331449987818
Cô@@ 0.16119368481982627
DE@@ 0.09178270688260676
De 0.012801138433123117
Federal 0.056152433413869274
Florida 0.04049579797022164
For 0.015683426877389498
Gil@@ 0.044051873231332105
How@@ 0.12804249996911632
Mob@@ 0.09739354271409548
Mong@@ 0.11958744487183501
Rus@@ 0.046954277374233376
Tun@@ 0.04730871980155631
Xi@@ 0.11853652768170823
af 0.056342850052246304
alan 0.08097320440735559
amo@@ 0.05800915162218989
background 0.07562043014059419
bridge 0.0427994459241858
car 0.01706457177793774
civil 0.04127229602984895
ece 0.02309240560279911
ein 0.0023934468883928654
fic 0.0347154207220402
ked 0.01651904693163246
lim@@ 0.02621638825732557
nin 0.05013220464142671
onal 0.026995207235330634
organ@@ 0.028601269693099975
programm@@ 0.05242793363447271
tal@@ 0.01743354243002826
title 0.019455082859173318
ö@@ 0.008726655236056717
خلال 0.14485369627050074
عه 0.8018233374161493
هار@@ 0.7662161963716635
ন@@ 1
র 1
ﺜ@@ 1
Ard@@ 0.17528207782216532
CD@@ 0.046765776138928336
CE@@ 0.08328736188954983
D. 0.03676437269131435
FL 0.07885610177802825
Government 0.03931084523300909
Mau@@ 0.09387770783030927
Neu@@ 0.03919106709703183
Os@@ 0.027122633739457728
PS@@ 0.09134735716701041
Pod@@ 0.10435782515858878
Prov@@ 0.08128914848989593
Rev@@ 0.05328313216424552
Town 0.04710312603883638
agon 0.06423381517454846
ahi 0.23958215262035754
ail 0.02794660221151654
aman 0.15646607841951052
amar@@ 0.08654839106542993
asi@@ 0.02327705821819721
crick@@ 0.06922078501527831
current 0.03009405374079145
den@@ 0.010317553311715159
during 0.005687892990505525
ected 0.010777857906172823
edi@@ 0.017890061554767647
ems 0.01857788301167245
graph@@ 0.051474841021328606
has@@ 0.0815712268542054
ights 0.033929531479976474
into 0.0043498144764051346
je 0.030193822092860007
killed 0.03634588518220554
lig@@ 0.019064835909477655
mp@@ 0.025322642378155423
new 0.005723510834769782
peri@@ 0.0344574067021649
power 0.020150277394234764
them 0.00841796039840688
thi 0.08548908443053414
tiv@@ 0.019526886989446518
university 0.050805793534455114
ush 0.08684498223702376
vi 0.09761262594375059
water 0.015412827695910462
ying 0.012324992737712249
ː 1
Рес@@ 0.20320348666566274
ская 0.011365108578692024
ֵ@@ 1
الأح@@ 0.5356805414631192
النظر 1
فيد 0.8524001963938298
ورجی@@ 1
يج@@ 1
يع 0.808619959748491
க@@ 1
ﭧ 1
AA 0.0689200352737824
AF 0.09790909457523318
An 0.01842499778468123
Bir@@ 0.026931745390745682
Centre 0.0389349377239911
Cos@@ 0.07162170242979546
First 0.025209442544390795
Ga@@ 0.07628841592342826
Hab@@ 0.04741754583666481
Hat@@ 0.10598696184166294
Hin@@ 0.03949880516885055
IP 0.11557855039568289
Ireland 0.03564329205234116
Juan 0.028871349217669498
Key@@ 0.12952923123187585
LE@@ 0.10366237620442319
Mey@@ 0.10428048324742778
My 0.04655495504764018
Nations 0.0612054617095024
Nu@@ 0.05071224065377082
Port 0.060876962309121534
Raj@@ 0.06668159678252954
Red 0.030446526873630902
UR@@ 0.140199766203508
West@@ 0.02290434932604609
aba 0.010929671898997396
against 0.00771851427797767
ato 0.01742620860715482
aum 0.05554545133441247
capital 0.02662796132689414
equ@@ 0.024016368025935066
estim@@ 0.027174391985431805
even 0.016050455296063647
ili 0.05227630771771105
independent 0.04370017078652678
isions 0.03935744298357218
ith 0.024574423903914414
last 0.015568621836212812
law 0.018280704494418456
micro@@ 0.05992034656053008
ms 0.025096276386705158
ont@@ 0.03531796795427383
oper@@ 0.012488347959268615
oto 0.027623555025021646
pot@@ 0.01963453525673897
school 0.009376448817961604
sti@@ 0.012744922683670367
total 0.012808220061170713
ui 0.06850694899708222
ury 0.024490374131186852
î@@ 0.03661616503563361
حيد 1
خطط 1
سجل 1
وفي@@ 0.670958035477198
ত@@ 1
ਸ 1
ା@@ 1
1794 0.18747798461171
Aur@@ 0.0839330748777857
Bus@@ 0.050975302494738556
DE 0.14170402303492086
Dav@@ 0.04933129115973879
Dou@@ 0.05193031203025862
Group 0.023375568362818715
IP@@ 0.14031706148870643
Institute 0.026201132010142198
Kho@@ 0.2625052745766538
LA 0.07351922966470374
Met@@ 0.025942974614865458
Sus@@ 0.04667611270239156
abl@@ 0.035380806335261215
agr@@ 0.03412445378993256
aliz@@ 0.022597750882959865
body 0.02434604659786861
ces 0.009828784057156861
dy 0.030833175491496022
eau 0.013280371414057137
ello 0.02773927200522737
erg@@ 0.021140524953752245
esti@@ 0.015857628421450793
etr@@ 0.07121476604477066
eu 0.034230833897362055
eux 0.019621851246256334
han@@ 0.06849104402709828
ichi 0.15343323442274326
ide@@ 0.028595531984913377
igu@@ 0.037973481341255236
iri 0.09480841328214505
ods 0.02092051776439045
pedia 0.16151006287841232
sal@@ 0.013699140710000612
science 0.04255529778706879
side 0.00843670749130244
ster 0.013077293631857763
tar 0.04945991632090561
tom@@ 0.013320254885059092
ty@@ 0.030935125868974376
ua 0.028369183926381766
½ 0.2844891213629485
الة 0.24719122749134154
الذي 0.1035078567018832
الري@@ 0.7447382927833022
الشرق@@ 1
رير 0.6143811254068031
وله 0.7640403651664546
ݙ@@ 1
ে@@ 1
ਪ@@ 1
﷤ 1
ﻪ 1
Center 0.02442556255544149
HT@@ 0.2001701288982624
Long@@ 0.08765657606177601
Main 0.059070134551539186
One 0.01576713220482379
Pap@@ 0.03427624235192842
Phys@@ 0.09415704977327938
Royal 0.018845088891300602
Sho@@ 0.044532948350493415
Sin@@ 0.03461600890469903
ame 0.02263523496574564
ats 0.008869016638863636
bin@@ 0.03183972103885816
bir@@ 0.01719696891235614
cad@@ 0.04541476703782109
canton 0.08499073353608333
chem@@ 0.034911245210062926
ches 0.012199296254226458
das 0.0019247191370364508
eter@@ 0.024477998748682422
gu 0.33227276121542476
gues 0.07663843777860256
itage 0.055576435141087274
ket 0.03357072084544417
mi 0.03100505055664054
own 0.011264676382708063
pak@@ 0.25029964402164223
press@@ 0.04982909348268533
tol@@ 0.03621193740047906
tum@@ 0.12071521242596779
value 0.05744911232816111
van@@ 0.06591080645958337
vel@@ 0.01925946086047834
¿ 0.3023661745113988
én@@ 0.010769916278994065
і@@ 0.23286321334448004
النق@@ 0.6940748807387029
انه 1
جري 1
ريات 1
مخص@@ 1
مطار 1
يق 1
ٶ@@ 1
′ 0.27827194443373604
ﺹ 1
All 0.014716387475480836
Asi@@ 0.12083278600891803
Commun@@ 0.032661472413281226
Dem@@ 0.026364662144864832
Fe@@ 0.02836745967672095
God 0.054156527023469056
Nev@@ 0.07473299363103474
Pat@@ 0.03705334600607275
Press 0.06846278880011879
Rab@@ 0.06265001373537196
Sah@@ 0.1052520230754249
Sec@@ 0.028441171462290006
Tah@@ 0.19713043925842783
Vel@@ 0.06222207266204227
XVI 0.09849556223018267
aci@@ 0.01741047266162598
after 0.0036196117651036623
article 0.03988822202227842
atia 0.11943260985492753
century 0.011484851122090665
down 0.013450973965407755
eas@@ 0.03166975918340936
ech@@ 0.014679943508130597
eph@@ 0.056963196746686054
illa 0.022564919200357202
munici@@ 0.2111898483014069
ols 0.032559650117883115
ope 0.028684419607157178
order 0.016070663317617785
oug@@ 0.06365435969660127
ple@@ 0.025491367705514033
sey 0.05013172927438167
uf 0.07784072339932334
uss@@ 0.021793211626860154
ó 0.0022873055589416927
Ż@@ 0.39612852834403167
י 1
؂ 1
بالح@@ 1
فقد 0.41372814334764046
ماك@@ 1
هب 1
ٲ@@ 1
ې@@ 1
ۚ 1
ਵ@@ 1
Africa 0.03058369023121439
All@@ 0.02693589335859357
Association 0.01824893074916922
B. 0.023656420066834345
B.@@ 0.10085667223266656
Blan@@ 0.04778060007315558
Bot@@ 0.022336526206432932
Cant@@ 0.08992837689400789
Categ@@ 0.0942727295768917
Dan@@ 0.02784466688720373
Dev@@ 0.03819241683350828
Div@@ 0.06307332946376648
E. 0.04322215656690364
Gold 0.05667536696944412
Jer@@ 0.03517751704213133
On@@ 0.022691002777841758
Pir@@ 0.06643167215550358
Tam@@ 0.042124887663966215
Tran@@ 0.05853795929390028
ado 0.002254750595109994
aft 0.01884545344233568
anne 0.043931657658360754
dem@@ 0.008272664224692592
differ@@ 0.03738339942477265
doc@@ 0.024988192968261328
dol@@ 0.029438275713031908
ear@@ 0.015948685224083787
ects 0.011126641265684621
eri@@ 0.029689349793825794
eth 0.03573835085346798
gold 0.04166305187434386
har 0.18150889040866483
her 0.0024747117448643448
history 0.01521201594648883
lab@@ 0.02878945300274123
ogne 0.11814339107465967
op 0.014790334452913447
phys@@ 0.02740561486378938
ping 0.058200616724867205
point 0.014129554729133227
sin@@ 0.018305911440423345
some 0.006867712318215025
tab@@ 0.034486158652751356
tal 0.03281425617988575
wealth 0.06414422985581407
à 0.0007023942857449641
âte@@ 0.2702327128961279
ô@@ 0.02612705262402136
û@@ 0.048742296937748515
ē@@ 0.3143519156446106
جه 0.871005609539138
شف 1
عيد 1
قًا 0.9714001763131236
كثير 1
ﻪ@@ 1
Bridge 0.061610262884348906
C.@@ 0.0933961592692193
CE 0.07913285409058884
Congo 0.12639365615701695
Fort 0.042964627917096945
Gaz@@ 0.11208202195634619
II@@ 0.14353444436369173
Kat@@ 0.033330770717370076
Las@@ 0.11582912616196507
M.@@ 0.09017899091569889
Mach@@ 0.05107789458512025
Men@@ 0.030880929987596686
Mount 0.05441906884844536
Nam@@ 0.04439592898587236
SI 0.1912282714029038
Sain@@ 0.09977915443641361
You 0.02811452962433098
aja 0.04374394031027162
alia 0.06421285860357612
anian 0.061896956775267055
aria 0.01988149394735349
art@@ 0.01748137449949367
ave@@ 0.058269522036079525
colspan 0.0844462883632415
da@@ 0.07573327571002676
ero 0.012329916229596819
gen 0.008938755227685594
ides 0.015433195789602235
ior 0.030720970235133083
mechan@@ 0.0440009395891879
mes 0.015394324732526185
mes@@ 0.032371153152279813
military 0.020563645782070362
orr@@ 0.07674376965671388
pal@@ 0.01580401435285973
sian 0.06320182158568136
spec@@ 0.01910601779117698
ten 0.0021402896363056914
wa@@ 0.05010479541116012
year 0.00505122533415555
yst@@ 0.03549465187194102
ão 0.0635358384886649
ō 0.03593132465758152
ž@@ 0.07875471262552587
р@@ 0.0076644299094114675
ׁ@@ 1
ק@@ 1
شهر 0.9698524132536569
ੇ 1
ﮉ@@ 1
ﹰ 1
ﺰ 1
ﻇ@@ 1
ﻉ 1
� 1
Ann@@ 0.042654274141337184
Germany 0.023688603721641936
I.@@ 0.1477155053230694
Iv@@ 0.10767782485131831
Just 0.109846653940161
Man 0.029188258794256138
Nav@@ 0.029167057741617944
Num@@ 0.05444135549705912
Of 0.051675883780374805
Paris 0.010834344860229344
Philos@@ 0.06437236208562552
Pur@@ 0.0532136485127169
Sat@@ 0.0527943509828434
VIII 0.10390770782261001
abr@@ 0.027830919926644
ami@@ 0.03524919096666868
any@@ 0.027901118583915186
aut 0.01732783004846412
between 0.00517475862824559
bre@@ 0.007809129694514
dom 0.06738829624381228
ec 0.08612153876660573
gro@@ 0.011355875267941589
ico 0.009063347469556287
iki 0.04124581884597793
ize 0.03252473296293156
ken@@ 0.018846275996667414
let@@ 0.010023732544739608
mac@@ 0.04613014942770716
na@@ 0.06822862069858486
ois 0.04091736301929287
plas@@ 0.056252123513548566
refer@@ 0.021788074776847945
sup@@ 0.011892016095091213
uni 0.11800530762491676
vir@@ 0.029368984256542018
web@@ 0.04294610889674793
yth@@ 0.03169479162238436
± 0.31802764874378486
ôme 0.0814855372426742
إذا 0.4406374062959265
الحرب 0.35150073090516826
الرق@@ 1
انستان 1
ثي 1
مما 0.40785284293487095
ٸ 1
ह@@ 0.10252488835435884
है 0.010795789892813866
ੁ@@ 1
県 1
ﮓ 1
AP 0.0607727131122054
Abu 0.1308294424051933
Astr@@ 0.057929876017118034
Avi@@ 0.06956405720963475
BA 0.05519309962654923
Bul@@ 0.025131450763111306
C. 0.022357770599884075
Christoph@@ 0.22868310454480179
Cour@@ 0.043136428230269114
Cruz 0.07469544143947965
Cup 0.01303014727871078
H. 0.04174781671238369
Highway 0.04949491794714668
Hur@@ 0.05407435755663834
I. 0.028726349719094962
Joseph 0.02043078093104791
Ki@@ 0.03370100096138156
Lé@@ 0.06072470073546245
Middle 0.055106523465116436
Obl@@ 0.10531295514173204
Southern 0.03924623241600261
Spr@@ 0.019407997205068656
Standard 0.10014584259101275
Victoria 0.040956251640399594
Zi@@ 0.042506276314169346
ado@@ 0.05476841753283289
ados 0.004836047174723404
age@@ 0.09983766930259184
asa 0.04693701484300563
development 0.017361302837201522
ect@@ 0.020624902858191876
educ@@ 0.02663141110841732
ingham 0.045642021324019295
istr@@ 0.02959730858950308
lin 0.032857310859909165
lon 0.061040258807239005
ments 0.014680944948062399
mul@@ 0.028223931151459828
neigh@@ 0.03405636440026709
news 0.050231266622696676
ode 0.03226215691434138
organization 0.033454887532302614
plat@@ 0.017482149570540718
produc@@ 0.007767397824082944
see 0.016971456919931564
small 0.013163544428017674
special 0.029862322715892474
ulation 0.04031015211748882
ém@@ 0.020487393913014625
ος 0.023004090674591783
ר 1
السر@@ 1
المثال 0.9204853366587541
طرق 0.846152830344161
عبر 0.4791915714940677
وروب@@ 1
ਗ@@ 1
් 1
 1
Aj@@ 0.12191127882452438
Blue 0.04283326335908629
Cher@@ 0.08295857809745656
Fron@@ 0.1231724716679171
GC 0.15970053618092495
Hum@@ 0.036602200506413024
Land 0.02854624911816015
No 0.02489062089851576
PE@@ 0.11178542525353535
Robert 0.01442959919240914
S.@@ 0.0536496443472632
SP@@ 0.06285451667715272
SR 0.06037855823660968
Super@@ 0.030050520739387788
Ven@@ 0.03093267226262854
back 0.008780807045918479
bes 0.02117475569641266
cal 0.03710339750392218
che@@ 0.049456971692206905
cont@@ 0.00903809399288418
death 0.013267079871745774
ders 0.017445328435555765
dic@@ 0.011143889533792346
direct 0.04047174483200177
eme 0.018871197673139647
ements 0.008147503194421386
font 0.0651750383931364
gener@@ 0.014023903031675257
him 0.00511934570152547
ju 0.17155652675978753
lis 0.031716030036288576
mur@@ 0.024007223075892987
neg@@ 0.016623540214532714
neur@@ 0.049453908921089716
pul@@ 0.016997513825129013
sh 0.06988851424889717
stan 0.11067768562656495
ston 0.03781701609382491
tional 0.02023363841113725
yd@@ 0.06927402121521942
ysis 0.04453613776682587
æ@@ 0.1002492399336618
ț 0.9207705267568631
ؐ@@ 1
إلا 0.3684781561544389
الاخت@@ 0.8662634228949196
الداخ@@ 1
الكبير 1
عسك@@ 1
قام 0.4511883343105788
یووا 1
ਰ 1
ு@@ 1
ﻼ 1
CS@@ 0.061853878377313404
FA 0.048990805394607644
Hay@@ 0.04570996946213832
High 0.015952124397341505
J. 0.024626866183013994
Jah@@ 0.08770897660830382
MP@@ 0.06845049711354816
Neg@@ 0.06675140397948279
No. 0.03393825174339798
Nur@@ 0.111581480819374
On 0.0036766801656617446
Ren@@ 0.02299917535351851
Rock 0.03468342516600456
Ré@@ 0.02446979426187884
S. 0.03461111735791332
Sk@@ 0.03148262519823771
Syn@@ 0.034920163000017435
VI@@ 0.0871281595777153
aka 0.035436249112431234
align 0.06126946620673538
amu 0.25047220045136165
aug@@ 0.06143096135854695
bs 0.026679140169838165
ce@@ 0.010137096333626505
cha 0.021717851081690876
con 0.001679080128949323
cultural 0.036657075829458735
dens@@ 0.026835096733616216
ester 0.01971066953825814
hin@@ 0.02147831831788938
hood 0.03225364802351295
ial 0.03710942292047729
ime 0.013880432057642094
ip@@ 0.03984988825054052
ito 0.017811580073967204
jus@@ 0.023835911086222565
las@@ 0.04544846271789363
ling 0.01360519608664497
mel@@ 0.0209314846267395
mit 0.001296014861271506
mit@@ 0.010183471741658368
mot@@ 0.012146174085032413
nom@@ 0.02253674831564065
osa 0.019303475327683235
others 0.016981622188125888
play 0.009663820774851437
pur@@ 0.013779288723914845
radi@@ 0.03002436925874512
shi@@ 0.026400050617941075
wo@@ 0.016971158902337254
ş@@ 0.026833182232734818
ؕ 1
اعي 1
تعرض 1
حاء 1
غري@@ 0.8223245561712489
غير@@ 1
كز 0.8425888692974466
نسي@@ 1
وقع 1
ம@@ 1
ர@@ 1
⇽ 1
ﭜ@@ 1
Arm@@ 0.02765589022096631
Award 0.017505160523426717
Bang@@ 0.0860810905621494
Bis@@ 0.08057575665221324
Dakota 0.10527252118619145
Den@@ 0.02284771759846572
Free 0.06996605255517582
German 0.013149871823214393
Hus@@ 0.06536222497574759
Jan 0.06521512289341423
Kab@@ 0.05279880691015232
Kaz@@ 0.08626893229035604
Lincoln 0.06682016732470679
Nan@@ 0.11717825918098042
Off@@ 0.023896434151021415
Old 0.03605876100781236
Organ@@ 0.03380129199556629
Pres@@ 0.020871982858725144
Priv@@ 0.07524733133489277
Public 0.03663639683138079
Rand@@ 0.06376174456180074
Tan@@ 0.038885748673520425
Tem@@ 0.03540675095629539
Tir@@ 0.07554882314658516
alp@@ 0.052990333799536896
atory 0.04869024004976357
bus@@ 0.013766172858180912
cat@@ 0.013529581758193169
center 0.02251811482886709
chen@@ 0.04043016796203218
cher 0.010747858782502725
ease 0.03806183909403251
ei 0.019940542098281246
eli 0.06077938681398094
entr@@ 0.009538734430269792
fan 0.05693818814203753
gency 0.042974974198880064
illon 0.07108757471793968
kno@@ 0.025354474535519096
mail 0.10595321447658247
mol@@ 0.024947932639949186
mond 0.04112131534873736
ner@@ 0.01572644365970705
ny@@ 0.05378577037572481
played 0.006581405623153652
prof@@ 0.019033848837577652
rights 0.02878846063742619
sequ@@ 0.028394980549306614
sho@@ 0.011118891156780313
stat@@ 0.013860710446698024
sub 0.0761809357667361
there 0.005777159619334715
tho@@ 0.016509504108081725
tu 0.05562655987440597
ule 0.028371345652187643
urg 0.048337250249894596
vers 0.007576362984335269
when 0.004199442380828655
ár@@ 0.027377300095583333
Š@@ 0.07480010473243393
э@@ 0.004913751122314409
ג@@ 1
ז@@ 1
ל 1
الأر@@ 0.31644092273124824
الجمع@@ 1
بعة 0.5044651624794393
رجل 1
ضع 0.6173950705503083
وتح@@ 0.6418002468454472
وتش@@ 1
ودي@@ 1
يخ@@ 0.9889919176256914
܂ 1
த@@ 1
Chem@@ 0.04400220507884798
Education 0.028621475517224
FO@@ 0.13715350453213335
Fair@@ 0.07070009461799562
H.@@ 0.12545185984239954
Jac@@ 0.04379317642629748
Kel@@ 0.06330458241124773
King@@ 0.07271695030353392
Kos@@ 0.05425898701067525
Laur@@ 0.033938101681856264
Municipal 0.09265554234798917
Nicolas 0.08095144816020587
Plat@@ 0.025392012986217554
Sid@@ 0.07829733240192135
Social 0.048035580756940546
UC@@ 0.06115263607683172
Wh@@ 0.037377795656198545
XV 0.08562248297707528
Yam@@ 0.08609987093597461
Yu@@ 0.0853579852991307
Zh@@ 0.10108230677399935
ads 0.024659619055263513
asti@@ 0.04943936593715641
ava 0.03827438339367436
ax 0.05251048881018529
ays 0.020548859350854768
bit 0.041130589959840404
code 0.04305691198428749
college 0.027420901246153387
control 0.016931286384644893
force 0.021092378385194697
gas 0.037140527781710196
gin 0.0482435715295491
itor 0.04556304312462701
iz 0.06831812903767784
key 0.0193035400573831
mil@@ 0.02109031771478197
mod@@ 0.01902772506689242
nay 0.08017662831964556
prob@@ 0.01425443409443944
put 0.020386457883910854
right 0.015763307706143603
sam 0.07915321417311644
sin 0.01600624569202831
syn@@ 0.019700118762933233
té 0.015402580290784526
ute 0.018554302799817127
vo 0.02788603125932546
Ç@@ 0.03744452049450245
är@@ 0.01388239861443615
Ş@@ 0.054590580508095767
ա@@ 0.6284538614387842
سيس 0.68418271821741
كات 0.4074533941804362
وفق 1
ياب@@ 1
ਂ 1
☆ 1
1797 0.1616972954127875
Black 0.02182198632311934
Book 0.05341456987059013
CO 0.10346796202045191
Canada 0.013806045059123036
Commission 0.031661633421859375
David 0.013020052141530526
FC 0.01300084201675451
Franklin 0.08315624825537413
G. 0.048973921279609964
Hom@@ 0.03145777816619987
ISO 0.1634709642828997
KK 0.2418154122324926
Kav@@ 0.14206029828608843
L. 0.044682107008278474
Lak@@ 0.06019667936264603
Law 0.035717497697403254
MA 0.052846061893463615
Pos@@ 0.07351494410982351
Radi@@ 0.05410605583989171
SC 0.04053850814074311
Sci@@ 0.07339835474269626
Sir@@ 0.07816772378653997
Society 0.019832374622491607
Sun@@ 0.04461946613969824
TO@@ 0.13443748593668436
Tai@@ 0.05154289736430707
V. 0.03522148368514197
Vas@@ 0.06268103306728474
W. 0.03856000720263361
arch 0.035896169057225605
areas 0.019506642108371816
arian 0.028417661482885596
bri@@ 0.013866365283149128
by@@ 0.04638379733343273
can@@ 0.008759091318731139
cine 0.032920887671146565
ck 0.019536519776264954
dan@@ 0.04104563942530405
dh@@ 0.028823011080316898
dier 0.06765642544560797
dir 0.02825269790812944
dou@@ 0.017883249572962043
dra@@ 0.015102875360873198
ef 0.023504620764261724
entin 0.08088688995355107
ett 0.01915111013275076
gel@@ 0.006734904732918053
ican 0.02853766863505973
idi 0.05884565708722675
ken 0.006128694003754197
mar 0.031105239702232054
min 0.059186374083842454
nan 0.1141332418305217
omb@@ 0.04691960975560164
oth 0.04185097000355194
partic@@ 0.055312433565835845
ples 0.014017656650155868
polis 0.04266578894996569
prim@@ 0.010995143306451523
sign@@ 0.020125799294999674
stone 0.026781723511173458
sz@@ 0.09376204121161923
urs 0.01235350048863712
uz 0.059695197674594774
vili@@ 0.08424569509499238
vor@@ 0.005876257863970898
worth 0.03530442910282522
zor@@ 0.20484152443611256
âteau 0.13166035213655425
ï@@ 0.019527898371220258
ɛ@@ 1
الطب 1
بما 0.36245381680472366
جماعة 1
حتى 0.14858129778181386
درت 1
فورد 1
قلي@@ 0.5336823297845167
وغير@@ 1
ੋ@@ 1
ா@@ 1
ﭺ 1
ﻻ 1
AG@@ 0.1112310107388889
African 0.02332217095675557
Alpes 0.10499691554270756
Barr@@ 0.04027431196690737
Bau@@ 0.011398036372339222
Cari@@ 0.07501533399370248
Cath@@ 0.057915277504586464
Cent@@ 0.04943388871865193
Charles 0.012380995266277662
Cla@@ 0.0661597257105205
Corporation 0.040029121424871965
Din@@ 0.0534937339408416
Dod@@ 0.08753160190237899
Domin@@ 0.04153883296060858
Hamp@@ 0.0571708712668742
Han@@ 0.02513894390360365
Hau@@ 0.07898126656810604
Indonesia 0.07735134325973651
Internet 0.0478309334263157
Iran 0.04137792474245665
Kin@@ 0.02414665622509446
Lib@@ 0.038539774655199775
Ly@@ 0.033283543055658824
Nak@@ 0.07991355927832873
Ot@@ 0.027158967438697855
Pau@@ 0.04142524453097595
Ran@@ 0.03968203549080124
Ras@@ 0.07528630739895623
SI@@ 0.120687267138149
SS@@ 0.05947857311837996
Sand@@ 0.027085829128095196
Science 0.030663689675825976
Tib@@ 0.07506753553376082
Tim@@ 0.03857657728514128
Virginia 0.026034189388434093
Wayne 0.09874743863103581
aceae 0.028512869015149905
aches 0.030843081051763102
alb@@ 0.028343770923802913
alls 0.014649908849044293
aun@@ 0.031432977123905394
aves 0.015635333539992132
bac@@ 0.036736091452141885
bei 0.003028595834677929
cir@@ 0.030382957401847446
eck@@ 0.02288098124539634
effect 0.04147845547435807
engine 0.03739422214931624
ennes 0.02219826110751793
house 0.011320119954046335
if 0.010590206820170152
kam@@ 0.0680992960281226
ledge 0.04575279120117219
lem 0.02661467033694709
len@@ 0.012364169236189881
may 0.006801460274681998
meth@@ 0.023392752922133393
och 0.05093331545938911
oid 0.03707490311375196
oli@@ 0.05177139674153755
ombe 0.24621473844368952
ones 0.008505832788969674
oo 0.052215859690159044
ough@@ 0.02922575865094883
oul 0.06839870137785604
outh 0.022236929831307227
ouv@@ 0.02081045214208164
pas 0.006591521521056502
plic@@ 0.028884617327242207
sea 0.023059045656718468
sil@@ 0.014761732478623977
test 0.03056877605011631
tre 0.010695715998223915
vet@@ 0.06318969058293736
yan@@ 0.03894897027718113
án@@ 0.021401948695378013
ór@@ 0.031409744320599425
أم 1
المجمو@@ 1
فيل 1
ڄ@@ 1
ۤ 1
र 0.028386554840262514
শ@@ 1
ﻢ@@ 1
And 0.05683361698192379
Army 0.015041013039554808
Battle 0.030652787971683495
Bres@@ 0.09297514660422324
CN@@ 0.06410851541887617
Cham@@ 0.0642440194600289
Clin@@ 0.05715320142120102
Earth 0.044187785257881404
Eng@@ 0.018659414753926386
Flor@@ 0.03941609865248507
Green@@ 0.05201941918440009
Haz@@ 0.10478243798429471
Luc@@ 0.028352818078153826
Medi@@ 0.017274150037146902
P. 0.03771680794386489
Peter 0.015198791598730313
Regi@@ 0.14135549267478584
Richard 0.017681745218103447
Rud@@ 0.07957426648093179
Station 0.030210241959645966
Ty@@ 0.022910012431942607
USA 0.023672145246232398
Uz@@ 0.13428304417885153
ande 0.05899781042439753
audi@@ 0.027202064685176414
avi@@ 0.023924882489887507
canc@@ 0.02645094798975518
contr@@ 0.0071720566367954415
cyc@@ 0.0752507238064427
din@@ 0.02514165724614669
dium 0.05716210154959521
edom 0.04987353183455187
eff@@ 0.008618706511078744
eine 0.0017118680310319757
enberg 0.03767214465453091
ety 0.01244935391410522
fol@@ 0.014776742175200875
fourth 0.02490371054328322
hav@@ 0.02977731919828621
inh 0.05952213892132763
ived 0.03685756854454126
liter@@ 0.015505625883692788
los@@ 0.015926193390699023
mal 0.01659444851897413
nik 0.03310474307104385
not@@ 0.007075833813208696
page 0.04185626797647321
path@@ 0.05573535237288605
philosoph@@ 0.03951237796707618
political 0.014959089026525886
popul@@ 0.025551170614031112
press 0.03981850678567084
rel 0.09992669590220309
sar 0.10771894806911417
self 0.020177077292563357
standard 0.03142852042982025
these 0.007576687624181127
three 0.004300510262450846
ton@@ 0.026861824503860203
vention 0.021834738739738582
ward 0.014299732399970505
ène 0.023835911086222565
ë 0.14367931951710222
الدم 0.836230508974285
العمال 1
العمر 1
الفل@@ 0.9825902191829007
القلب 1
محفو@@ 1
وهو 0.1340472878300446
ښ@@ 1
ڪ 1
ल@@ 0.06594232610099782
स 0.013531840427686001
হ@@ 1
ମ@@ 1
ର@@ 1
ང 1
ﻕ 1
ﻦ@@ 1
CP@@ 0.07283767245492143
Cop@@ 0.039447786303998
Dy@@ 0.05471648524322406
Global 0.07079209535519021
Haw@@ 0.039335816677968594
He 0.0013619286105283587
IB@@ 0.1500002584794384
Kn@@ 0.023541401471962566
LG@@ 0.08399666572531282
Liber@@ 0.020023575858443308
Madag@@ 0.14251788504906965
Maine 0.07884960985275792
ON@@ 0.08472589673475343
Pad@@ 0.04400782247330983
Ple@@ 0.0771501941075395
Pul@@ 0.06274170304867853
Red@@ 0.026582531162559757
Sag@@ 0.10944524295660692
Sic@@ 0.08364956580198431
They 0.0073313484955287245
Thomas 0.012786279206468056
Tour@@ 0.02292381483373668
UK 0.019502378002219507
WW@@ 0.11236884114192891
Win@@ 0.024164306093446858
XIII 0.08449270902684027
ades 0.013196972035336953
amba 0.10262013366646885
ams 0.020174246015395542
ancy 0.039278488955579734
around 0.009001626270909655
asse 0.030105064832989553
aud@@ 0.03871475509383914
based 0.007347640445632713
come 0.022105218426937478
cript 0.046585045378521074
dal@@ 0.04069517724923132
det@@ 0.010354087905618314
ective 0.01569527726565069
ector 0.0771688167010465
ells 0.021703351466474546
ema 0.017585232572792042
emia 0.08624707873871706
fil@@ 0.010264615167381103
fru@@ 0.03695610882125527
gar 0.030119343946049357
gi 0.0698091679424216
head 0.01228691684703288
indi@@ 0.017403968740972293
ion@@ 0.02774940804865874
jer@@ 0.051624631665063724
ks@@ 0.019405308395299654
long 0.007708303486154834
mine 0.03224086707201995
omo 0.05888654854547788
original 0.009838170039111018
rati@@ 0.022764466495191434
rea 0.03439171730562002
scope 0.10353001056489741
sen 0.008482605141318985
ser 0.008190785802465508
ship 0.008952403000445272
spir@@ 0.02273465728651261
star 0.031658907129310285
tropolit@@ 0.08990270037427518
used 0.0034719767247402365
val 0.06733006997993528
yi 0.05514543504515818
yo 0.04230476414238969
zan 0.15206941420927925
ê@@ 0.014949812589247108
ö 0.10667482799757372
ú@@ 0.014404215944940431
ī 0.12036788502411104
м@@ 0.0036151588944824506
н 0.0038858277995549397
آيت 0.5570639894308195
امة 0.437796476181571
بها 0.2007191161744345
حصل 0.4090001754057318
طات 0.9110864756384758
للو@@ 0.8148370518629926
ٓ 1
ړ@@ 1
ݨ@@ 1
न 0.03181393170028526
জ@@ 1
ਬ@@ 1
ப@@ 1
2nd 0.03169323398797835
Afghanistan 0.08451072665969254
Agr@@ 0.0393103540835732
Ahmed 0.12469214246696149
Alb@@ 0.031840703841219
Community 0.051443118380025056
Constitu@@ 0.03144284385129563
Dal@@ 0.047946403983774116
Ecuador 0.09874500052969684
Eth@@ 0.05528848800210587
Fa@@ 0.06416112167124716
Fon@@ 0.054940795631316125
Grande 0.04128657624933239
Had@@ 0.08150476113645888
Hak@@ 0.10143992822824033
IT 0.10004928957061565
Id@@ 0.04971290621109741
Ja@@ 0.07035930656067323
Kad@@ 0.05812930810500344
Kit@@ 0.05039359982790996
Kom@@ 0.012543327748232138
MS@@ 0.0893793396101506
Mary 0.02089834122166244
Mill@@ 0.038062445924627215
Museum 0.017380174396511697
N. 0.08457188516339831
PP@@ 0.12488076319123392
Poli@@ 0.04466748646488932
Publ@@ 0.04501157062601664
Rock@@ 0.0837431194117552
Seg@@ 0.033109865968808154
Sm@@ 0.034882902859587936
Sou@@ 0.029853307301221675
TA 0.04083022815689868
Tot@@ 0.04678670184874379
Trin@@ 0.043343865136559
Tul@@ 0.08128829667179237
Val 0.0952175350856647
Vall@@ 0.07180616479225278
alg@@ 0.016559258968798635
blin 0.05160153197391257
cus 0.03481878955293413
direc@@ 0.01042056515683277
economic 0.03135082467248984
edonia 0.1258395305877768
fran@@ 0.03201960329525016
fu@@ 0.011437587182311484
get 0.012762645806178613
hom@@ 0.011397545522593925
ii 0.07542397828500445
ld@@ 0.04155157230584514
like 0.008057728848390379
mani 0.2602838468492058
mental 0.024922749464130988
mill@@ 0.05846810144745617
nh@@ 0.010211634483355434
now@@ 0.03658014656099003
obi@@ 0.08493829787308851
pil@@ 0.015440173564294344
rel@@ 0.005173827637038652
sburg 0.03312961369459363
sexual 0.041820575141844785
sou@@ 0.007514006013245798
ste@@ 0.007902940595566732
story 0.016636469301211227
tag@@ 0.03044055733321181
ther 0.012359417080574206
tt@@ 0.04159017365928741
uli 0.13369982695338675
under@@ 0.007598091008955171
unit 0.029502613548729024
ution 0.02151606113774136
var@@ 0.021213199479651442
vari@@ 0.007200145589288552
wal@@ 0.015827218024284218
win 0.010107724518789102
wns 0.03510951331558353
women 0.011256946860139337
yl 0.040154097069481226
ín 0.018961805022474968
ü@@ 0.006014487353996739
ă@@ 0.05861511052879932
х@@ 0.006532633758075102
التق@@ 0.37084414396335225
الفي@@ 0.3133848698638554
النو@@ 0.9212257527918452
سمبر 1
لقد 1
ڳ@@ 1
म@@ 0.0483288030402201
ारा 0.47398120375405545
প@@ 1
ੂ@@ 1
ﺚ 1
AR 0.07407909203966649
Australia 0.012492591549165702
Bes@@ 0.01270143876966618
Bour@@ 0.04741176202671294
Che@@ 0.06659124462319024
Crim@@ 0.07039360372419978
Cu@@ 0.0231663228485146
DO@@ 0.09578741471024366
Edward 0.0257917070538081
Eff@@ 0.06709560349743068
Ev@@ 0.022353627673385397
Fam@@ 0.08882447886686641
GB 0.06949546296945172
Hamilton 0.051474780290144094
Industri@@ 0.03705291502840527
Library 0.04594826035219717
Lor@@ 0.018942514431691714
Math@@ 0.03798736778830302
Pin@@ 0.03215729680391067
Point 0.04649323492351
SE 0.11211422755292762
See 0.04114317528559
Slo@@ 0.045702308359404364
Sok@@ 0.16874589693375278
Sour@@ 0.07209122952473464
Sri 0.05729608737339854
Tel@@ 0.02425868871405159
To 0.021122187707586924
act@@ 0.019263000608065073
aqu@@ 0.01522360437218453
azar 0.08579906127220338
char@@ 0.013357719826656435
common 0.017604223654632448
cos@@ 0.037068498162449795
eb 0.07355951485331139
egr@@ 0.02725456982719431
ela 0.016878473929301765
eland 0.051103974479459996
eld 0.01850504482226148
int 0.03106932263173126
isti@@ 0.01605010885501562
jan@@ 0.12342952585677001
jo@@ 0.01315880005013332
kin 0.030001513959038106
lag 0.01805442974344384
low@@ 0.012014526633085753
new@@ 0.03074008691091125
num@@ 0.020055922023840333
off@@ 0.006082168770493068
osph@@ 0.04923238995274352
pan@@ 0.012232557624723979
part 0.0036764183716399257
post 0.018585806578296355
pres@@ 0.006077729073540918
regional 0.02990588816268711
resp@@ 0.014023783192457236
stor@@ 0.016418021996019334
thi@@ 0.021537545305752387
trib@@ 0.0956865770072414
vil@@ 0.05267483825084879
wala 0.5463217086428973
west 0.009022911650721045
ø@@ 0.030469375867967347
публика 0.2769671585603668
أر@@ 0.24855015610688344
التي 0.03694873552552858
العام 0.23729604945187524
طي 0.6770523223498104
كالي@@ 1
كبير 0.3658944284822357
ليف 1
ۀ 1
গ@@ 1
ੱ@@ 1
☃ 1
ﮅ@@ 1
🐢 1
----@@ 0.6117947099672846
AE@@ 0.0955095418120576
AL 0.08435537234797244
Boh@@ 0.0545566273250032
Boul@@ 0.05018771786439533
Bru@@ 0.026599100398736215
Christ@@ 0.016304660435832837
Europe 0.011270093590210252
Gan@@ 0.06286659061755716
Hen@@ 0.03579560326917087
K. 0.051173941384617075
Ka@@ 0.04978015139048331
Kir@@ 0.02284707790668904
May 0.005929430102514729
Milit@@ 0.032292716452486256
Name 0.024608285394612572
Not@@ 0.017154874841946055
PC 0.04410271564469124
RA 0.06309134373478703
RS 0.06924966008796712
Rou@@ 0.034197321502734634
Shak@@ 0.05840283204677364
That 0.029713930462477705
Wat@@ 0.024558026761466685
aco 0.037635202252893796
active 0.017086978552492894
andi@@ 0.04951277482541116
avi 0.09283380198796326
ayi 0.31930072930490183
bian 0.054951358692179486
bin 0.045580447694428705
comm@@ 0.010854538845481543
eds 0.016905185462624484
emat@@ 0.0754767315876137
esi 0.022079523124186616
ev 0.03625961380874096
fal@@ 0.015288975457489914
fe 0.014492717793848425
genes 0.05150695849679174
grav@@ 0.031115572229609343
idi@@ 0.01467706497093115
ike 0.021706903566604874
imb@@ 0.03703436336863629
ingu@@ 0.03513953902401883
international 0.011404351332349334
ited 0.007467568011224514
kel@@ 0.02518949859682395
mand@@ 0.01679198162040101
modern 0.018688260670133135
operation 0.024480859977404876
parti@@ 0.012674440670785898
period 0.012081442008823965
po 0.023884671808050414
position 0.0074090474900786385
ram@@ 0.032832297623436084
social 0.012667470149117387
struc@@ 0.014045632876095764
support 0.01198468167090057
tain 0.010739458638871383
tain@@ 0.023192213375158706
theor@@ 0.051307190679659435
third 0.009596166953442509
tica 0.015571571084974128
uj@@ 0.11209016240509681
ules 0.01881387366625782
ult@@ 0.020075921501966396
ust@@ 0.019223759184986002
western 0.018279411272371388
ève 0.034152004345650265
А@@ 0.004044916444017069
ский 0.003638609869213214
أي 0.1420843699804681
أي@@ 0.3459592169770799
ادة 0.14743211084864605
حكم 0.8271201083774923
صلاح@@ 1
للا@@ 0.43844229811296526
ٻ@@ 1
ফ@@ 1
ਜ@@ 1
ੇ@@ 1
ರ@@ 1
ﻆ 1
AF@@ 0.06463516232729358
Academy 0.01762427758702082
Aff@@ 0.029495592814720906
Alli@@ 0.05783182176971563
Austria 0.043553294706254075
Comm@@ 0.024627700260687682
Cra@@ 0.04506806463849391
Day@@ 0.08661913856961505
Dol@@ 0.033350257592203454
Dé@@ 0.02388734683596551
Four 0.04739809540932948
Francisco 0.018199845343388452
Gard@@ 0.05871385999075265
Golden 0.0416988718768049
Int@@ 0.047272102933768566
Ky@@ 0.041852688721376784
Lau@@ 0.04467061298205956
Les@@ 0.03576856175522979
Ob@@ 0.017396181328052943
Olympi@@ 0.06503338674122208
Pacific 0.027199015456609115
Paraguay 0.11612418994395117
Prof@@ 0.04455625948284895
Progr@@ 0.031229899080687414
Rio 0.04607659461640739
Service 0.023676070019106394
Stu@@ 0.02374761865787917
Syria 0.10473701664159252
TS 0.08886518586488061
Tag@@ 0.04353104561331814
Tat@@ 0.06921059489489229
Ther@@ 0.032315921501422464
Tit@@ 0.025281806475194343
Tour 0.016766002456937875
Up@@ 0.084060181518045
Wood@@ 0.04067788151797867
agua 0.02660078004211514
aise 0.02300486696998179
ald 0.026788587967435076
aph@@ 0.0492438369679608
arc@@ 0.0371934887280016
band 0.0075302061983287105
being 0.004437253299423942
cel 0.05825560221038843
charge 0.028860313369124063
chia 0.08289575498349869
defin@@ 0.01641322909100894
die 0.0003733178559258067
dri@@ 0.011639068936470646
dé@@ 0.002180951949061416
een 0.04511329872715011
ej@@ 0.015245203421565623
enty 0.03686912544581319
ep 0.01220822093599508
eral 0.025360889763523974
erre 0.05504333015826768
esa 0.014637571031478907
ett@@ 0.018444371834523618
fiel@@ 0.026965904605660472
former 0.00657143577749343
heim 0.023234930667983378
hen@@ 0.05092686815075193
home 0.007878327201627563
hur@@ 0.03414382415215884
ider@@ 0.05407333631749072
ized 0.018498007138251032
kan@@ 0.01734973051142954
kl@@ 0.010320763293556067
km 0.0050177387316371665
kö@@ 0.04616865054880767
list@@ 0.01868245069265212
may@@ 0.045691842337806834
oke 0.03121083495403193
olia 0.09171769536271845
ph 0.05866501738899906
ports 0.015033068373973354
published 0.00862396337751702
ses 0.002853250030620599
sim@@ 0.014283392759188208
such 0.003843452345561139
sum@@ 0.016330659665244475
tak@@ 0.02448257346519097
tile 0.047947323694372
transl@@ 0.03630365759776148
using 0.00842565437581917
wr@@ 0.026371051216741027
а@@ 0.004425840554090838
и 0.0004246140891371821
о 0.004099507228732728
العرا@@ 1
الكتاب 0.7066762858320305
اللا@@ 0.33005788520442136
المي@@ 0.3639329426457685
بلدية 1
جزء@@ 1
ذك@@ 0.5883970858657545
سياسي 0.2789689225477965
فير 0.6373575913355345
فيه 0.2848854147585438
مجمو@@ 1
مشروع 0.8254777683947108
يض@@ 0.751951896754443
ۤ@@ 1
ज 0.03481101752274107
ம 1
് 1
ﮠ 1
ﮧ@@ 1
ﺢ 1
BS 0.05672212678850034
Band 0.0194450159512269
Boy@@ 0.05097663745577916
Bran@@ 0.035192239809727494
By@@ 0.04554739375732329
Cab@@ 0.030086792229153867
Club 0.009618664010924292
DS 0.043486974268820894
EM@@ 0.08258197167794729
EN@@ 0.11900558115193904
Eu@@ 0.03373405340064329
Ey@@ 0.12369469516604409
Fac@@ 0.02439715748705819
Gel@@ 0.023193299531796847
Herz@@ 0.03602823768829052
Hydro@@ 0.11033782893531649
January 0.005885217420594608
Kul@@ 0.06470349104835045
Landes 0.06570506644591492
Lon@@ 0.07311883367512897
Lord 0.024678410724096687
Los 0.005180049798613116
March 0.0057362810456173426
Mehr@@ 0.05643270339950044
Mich@@ 0.02508589584703564
Mis@@ 0.0331843686375738
NH@@ 0.041289476673394554
Nep@@ 0.07011022033642045
Orig@@ 0.041014931624327414
Pa@@ 0.021551607041145303
Pay@@ 0.08431930672572291
Prince 0.027943453943967515
Puerto 0.042217723890690284
RT 0.07026471537070451
Rot@@ 0.021389259828581933
Ry@@ 0.05485510247065857
Second 0.0236470256929075
Son@@ 0.025963482969541714
South@@ 0.04353198019303184
Technology 0.043150254073213205
There 0.007028857312723722
XX@@ 0.06288610444671246
acks 0.02268432729004767
ader 0.03088743794221232
aks 0.03585524177034114
anci@@ 0.014977464794055073
anda 0.018030753972463415
arren 0.05624845726820544
arti@@ 0.020353340219097817
asi 0.04582214132883598
asp@@ 0.019861114043438356
aud 0.031970348909088404
ayan 0.06324672970675431
bach 0.014772185194875555
bank 0.025847050989276532
chan@@ 0.02153617056694599
conn@@ 0.008563973512492364
cou@@ 0.012481358560733239
curr@@ 0.03388830405086458
dat@@ 0.02975251466204088
dig@@ 0.012842594473656753
eer 0.024473569436255706
els@@ 0.019418753421241813
family 0.004881440531394781
ger 0.008142124050000152
hydro@@ 0.035560020784180156
jo 0.012096138044386043
kar 0.08197671527165781
ker@@ 0.016460321600373837
lard 0.05593177299933654
lock 0.01702997734871238
mach@@ 0.018302936139402985
nation 0.03304403835162278
off 0.006118240878087977
ogen@@ 0.04970396775550414
opo@@ 0.05100195333065804
ovi@@ 0.058097329880064344
part@@ 0.009602184056144311
qu 0.01868184749382264
ras@@ 0.02601216385957158
rem@@ 0.009261998690503752
stadt 0.015044684025115431
sul@@ 0.041569033038248875
tern 0.012139590151096549
tre@@ 0.006817429073395409
tus 0.048963504693166716
ues 0.012066642651745035
ulu 0.05717364987828387
vec@@ 0.03889433569567025
won 0.005421531080634747
ía 0.0030224071400482794
к 0.0019020029887221958
ס@@ 1
الأس@@ 0.16547326501841841
شمول@@ 1
ظه@@ 0.7448946742619817
فه 0.7475706052150878
وإ@@ 0.20033952832299345
ە@@ 1
म 0.032417925667971116
ன 1
ར@@ 1
： 0.008431139556517343
AB 0.08337376239818745
Acc@@ 0.05294848812501344
Ach@@ 0.04122745775608851
Argentina 0.02597332643604168
August 0.004106953978163724
Band@@ 0.05228316035401901
Bin@@ 0.11195845854799126
Black@@ 0.040567021088883756
Brun@@ 0.03547208986651744
Columbia 0.028087432179708247
Cot@@ 0.04571106411506204
Davis 0.03669618836188468
Express 0.05787513294881001
Field 0.04014954770879707
Forest 0.045816395467870884
Gem@@ 0.033978109445361344
HP 0.10976622443340538
Hav@@ 0.028030203272301053
High@@ 0.04749596610413996
Ira@@ 0.045557505618604666
Kno@@ 0.05846051805194989
Lee 0.02203376738112142
Lev@@ 0.026671600477666813
MC 0.06724547995119659
Maria 0.018788034507283325
Mit@@ 0.013863407238526438
Oregon 0.05234481248809705
Palest@@ 0.05165041325868648
President 0.013476537844279686
Sac@@ 0.0463020718209973
Sep@@ 0.09796778134520834
Shel@@ 0.07419003468112689
Space 0.05056537659617081
Spir@@ 0.052769538863892046
Um@@ 0.0132208022038462
Venezuela 0.04625466652413148
Vic@@ 0.021136213753796186
Wah@@ 0.08484691165544814
Wiki@@ 0.14961434078889346
Yan@@ 0.06395643356624905
Yar@@ 0.11933043213257914
aca 0.031815117004211996
acu@@ 0.03261853797378942
aille 0.03650477179082787
amer@@ 0.023417018982177004
angi 0.23262908013585243
anti 0.019544103555611675
ator@@ 0.032358506484903043
before 0.004603795759351446
brahim 0.1460987186976428
bu 0.01664276707930817
cep@@ 0.022994299066204513
cli@@ 0.013347246837422775
color 0.021957727472869795
crip@@ 0.021700913041772005
econom@@ 0.021707206165884285
eira 0.0815082151648694
ele 0.01405762715949922
eti 0.04979144030427941
eto 0.019227775805712617
free 0.016674133415313347
fus@@ 0.024482128610580897
hua 0.0928360959490633
ict 0.029507934512107578
ific@@ 0.01940832610344543
illo 0.02729284584389812
ils 0.0064151337991525705
inger 0.015251874820993149
iran 0.4414129062345385
isa 0.023660334738590107
itation 0.021604689967314218
ius 0.03526385840702593
just 0.01098903997319898
lers 0.01534789844440632
lev@@ 0.026455805595787966
lic@@ 0.01615412730806575
many 0.0046481149032244155
mark 0.020477832894742126
movement 0.02297955811055542
nav@@ 0.015424482907351135
odi@@ 0.02125909529589307
oks 0.030180841252194102
ovo 0.056437291932873654
pas@@ 0.009207491584518645
positive 0.03166272995715671
process 0.01800650686085282
rat 0.023592269640262314
ron 0.07679274869639238
san@@ 0.016775061769359816
tia 0.03400671233103275
tro 0.02212340535513905
tural 0.015851216879339162
uli@@ 0.028572943282146632
umb@@ 0.020629045132293508
ump@@ 0.01885791955842977
vent@@ 0.011295691044570772
works 0.010015083436922109
yal@@ 0.05010808370996707
² 0.010241251195986205
â 0.26936387507986637
éli@@ 0.037548719326537514
ñ@@ 0.01858896278160272
צ@@ 1
ابة 0.17953580170571193
اعات 0.711368586521831
الدي@@ 0.5773683483922272
السو@@ 0.8348954662808981
العراق 0.7514141363191429
تتبع 0.6029470930378908
تحقيق 0.9549867466089821
دوري 0.920781360243465
رأس 0.9387826188539053
قى 0.7470762269216059
وجه 0.6105652970123
څ@@ 1
۽ 1
۾ 1
ਨ 1
ਲ 1
క@@ 1
ོ@@ 1
ﭤ@@ 1
ﮂ@@ 1
Amer@@ 0.05931803780525328
Big 0.022179152519520615
Clark 0.04992666881166667
Coun@@ 0.03307503309244659
Cri@@ 0.03205672605494179
Def@@ 0.02581988250339274
Dr. 0.020870772207721402
Fres@@ 0.06747657171423987
Hem@@ 0.057621671542375685
Ken@@ 0.04670648228984233
Kil@@ 0.03357979045259531
Kot@@ 0.08053243438463856
Modern 0.05518281666263745
Mountain 0.04109167340871249
Nob@@ 0.08786667083949859
PR@@ 0.08866025476948045
Phil@@ 0.024444166272609768
Pier@@ 0.06409866026164168
Railway 0.02611895167220361
Rap@@ 0.032316332854802066
Salvador 0.06869994976403801
Sig@@ 0.033400185165935944
Smith 0.016567585570070358
Studi@@ 0.020449734786688812
São 0.056579721162823636
Thi@@ 0.0327232476690731
Three 0.033349049079863684
Tow@@ 0.03861107087356135
Wa@@ 0.0455449744903399
XII 0.07726590422945864
abor@@ 0.0267572193922467
ahl@@ 0.022027328234155673
alis@@ 0.010418920238582853
anth@@ 0.021694486580425512
ards 0.006790555964638467
ares 0.013015311294139614
auth@@ 0.01904249057582514
bom@@ 0.03030233125751103
bul@@ 0.01394340060245941
census 0.020483929098733884
cil 0.0242538838383316
cy 0.032557559240069804
dru@@ 0.01887576680839085
eni 0.05036934107993094
ering 0.014439971789223472
fied 0.008258453663434027
gas@@ 0.03539922116861679
gian 0.024451066611467696
haz@@ 0.07551371532044171
hep@@ 0.1317284753594036
ications 0.0383948153711614
iliz@@ 0.040137798365102714
ills 0.01623008276876572
ix@@ 0.0682338852299576
lot 0.01272811172191437
make 0.011002061032734387
minute 0.038510292426090595
mo 0.014971787146240654
natural 0.01871783610104395
ned 0.014638679885459267
network 0.024466586300295846
oll 0.06062562245298067
oro 0.0313834686708743
ova 0.029506988422789916
pin@@ 0.018671221891642387
port@@ 0.00870663639625789
production 0.008595454108122616
proj@@ 0.014383719376454112
prop@@ 0.015834013403514216
ques 0.004253393047721852
rac@@ 0.0095192386822705
say 0.03440069253486789
sciences 0.05327493517451483
sig@@ 0.006972723715149032
since 0.005971611960938162
tax@@ 0.03246725119093522
urn@@ 0.020560352918722512
where 0.002912880370601681
win@@ 0.009047340539702258
yer 0.013950269754250347
zed 0.017757240956240053
êt 0.040076186054794904
ğ@@ 0.040047629030974564
ы@@ 0.007246128606056611
جامعة 0.18495795147245203
ذلك 0.05469010196263901
كتي@@ 1
متاز 1
هذه 0.05382881532672217
يست@@ 0.31971670211535635
يكن 0.6150226561116386
ۙ 1
त 0.01982549699838009
দ@@ 1
ল 1
ী 1
ਜ 1
੍ 1
ა@@ 0.48379788515655314
Atlan@@ 0.0671435386868771
BO@@ 0.10504427708778746
Bec@@ 0.022523957217244737
Brown 0.02236797511826741
Business 0.037783403467699345
By 0.011565666221021273
Bé@@ 0.06491972560147645
Chel@@ 0.11253576815057205
Chev@@ 0.0588390574923734
Comp@@ 0.03154773214859561
Democratic 0.027410924516758518
F. 0.030604661193692543
Fol@@ 0.01851806787274077
Fran@@ 0.013332317973654197
Hun@@ 0.037267221016952394
Iz@@ 0.08983810070689509
Kak@@ 0.14100543742016786
Kum@@ 0.06014279867567601
Lawrence 0.0549244154373657
Lyon 0.04953920226872311
Micro@@ 0.08683953594333847
Mun@@ 0.021550777993385718
Nat@@ 0.037175767234299585
Natur@@ 0.017639976197609538
News 0.029617273835574717
Ny@@ 0.06830073980738367
Out@@ 0.03532020143420967
Pel@@ 0.04029070209124564
Post 0.028640260936339007
Rob@@ 0.03178064492965
Russian 0.016607293862082144
Sow@@ 0.05451224371807993
Spanish 0.018475601438191984
Sud@@ 0.04419990644434633
Sup@@ 0.039428042118210604
T.@@ 0.11420534147595869
Tanzania 0.13660147961476735
Tas@@ 0.03918051513109096
Web@@ 0.02620167265428126
Ye@@ 0.044393085918236486
ace@@ 0.026142929708420748
ador 0.007106859604554201
agent 0.03451849356583105
aling 0.03279196219073671
ben@@ 0.011091569478014837
bo 0.028154163877570953
bra@@ 0.13303847541772607
cant@@ 0.031421754864053145
dari 0.7499210274472222
dian 0.05345391715098082
don@@ 0.011912548758272771
double 0.022790405816693313
exp@@ 0.0064433383592690865
fa 0.042984093473866336
fab@@ 0.3056850512433079
gan@@ 0.016253781929214586
hap@@ 0.02527955883491068
hum@@ 0.009613967985981343
ices 0.012290121784757706
illing 0.025741980834396112
ina@@ 0.15157790591764564
isia 0.14675236268108796
ister@@ 0.015492191125410348
jur@@ 0.011895838817499135
khi 0.012247510928106924
lion 0.020994049189631242
los 0.000754309811612396
member 0.006350970409616939
mov@@ 0.01031193359623527
my@@ 0.02704526288408676
nov@@ 0.03457674154564894
oi 0.03601089707070388
olan 0.017258490531808918
ony@@ 0.02845804757952089
oun 0.07380931126423444
ply 0.014766781694981494
pression 0.020475644668742337
prov@@ 0.01169424569241916
ref@@ 0.011047548797872751
sac@@ 0.0185169554702296
saw 0.015586363092420102
squ@@ 0.019160252830859727
sym@@ 0.032282352429393174
ube 0.07281250275737948
unds 0.012803513221100416
union 0.01915455860171192
uth 0.027915931902783186
yon@@ 0.02566092163007188
yu@@ 0.1566311725319468
Ö@@ 0.027532595196525258
ás@@ 0.028917231816938338
أد@@ 0.28156288298197135
اكم 0.5946781910322126
الإسلام 0.9182428951542597
البار@@ 0.8020083024305474
العش@@ 1
القانون 0.5052560856247178
القط@@ 0.5056524779606333
المب@@ 0.5777178449711571
الوز@@ 1
بريل 1
ظهر 0.23400842966254218
فإن 0.2538491672987232
قين 0.759887823524763
كامل 0.9778970197911779
ڌ@@ 1
क@@ 0.04422941073324832
न@@ 0.042737935568277825
ನ@@ 1
‬ 1
√ 1
 1
ﮒ 1
ABC 0.04937258695090787
Ast@@ 0.053645618139221043
BM@@ 0.0439819517194504
Bet@@ 0.015697806130899637
Bod@@ 0.03209724923564257
Chin@@ 0.06428833326096675
Corn@@ 0.02994079790350552
Douglas 0.041936235501541935
Ep@@ 0.042056279508554624
Gau@@ 0.041055313411100865
Haf@@ 0.045288927816558515
IF@@ 0.0892777517831747
Israel 0.022679117498568317
Leb@@ 0.03014642142934062
Lig@@ 0.04263147060891427
Line 0.023170370547591572
Luis 0.025948934649328174
Marse@@ 0.07337678887745173
Mom@@ 0.0721406030949094
Nah@@ 0.06908119586813861
Ok@@ 0.03747516929156696
Palm@@ 0.0550171947788654
Produc@@ 0.03247198240738723
RT@@ 0.05664653468938754
SD 0.07972808957077626
SM 0.07494086329683237
Sports 0.029803225424330466
T. 0.037026557443850534
Tab@@ 0.030467626842070782
We 0.026161945913834386
XVIII 0.052029968788903036
Ze@@ 0.012171710164995141
aji 0.09212506514581006
angle 0.04181892702871934
base 0.009629909296798803
bile 0.04397032063532588
board 0.015276725186860973
both 0.004302828760713348
building 0.007211122351560687
business 0.013343205880305133
chron@@ 0.043245096808254696
dies 0.015801580769092674
edi 0.06105367841388944
elli 0.02522813357656866
enni@@ 0.0323482517351222
eta 0.011351076435661783
evi@@ 0.06424713327734885
feder@@ 0.027147746289114944
gor@@ 0.05615934499834954
hel@@ 0.015762012880137927
him@@ 0.08461263244290107
ident 0.010900545854189165
ista 0.0071338342111367595
iti 0.04823069108947492
itz 0.012270739297926674
later 0.0031679515414197845
lieu 0.014822554250942905
lob@@ 0.023066958693956207
lor@@ 0.03799461922539964
lower 0.015728555605785736
mak@@ 0.011331849315823456
mission 0.010028259732709491
mittee 0.03718692863620057
municip@@ 0.042239471659879756
ogr@@ 0.03574236908403409
onic 0.04365886982951413
ords 0.016054785347268345
otte 0.032784465271331824
oy 0.04215327985023376
pat@@ 0.010958000238960782
plan@@ 0.009233769715742694
plex 0.05980830807197324
ret@@ 0.00905521080432028
rey 0.014946143511002093
sia 0.09289333892921883
sing 0.013124743592988247
sm@@ 0.016693572100105674
status 0.024932505442740876
sun 0.08478416231154348
sus 0.0036193228377382853
tres 0.006025186353416479
urg@@ 0.01921080824520271
urity 0.019124846250002533
urt 0.04822454970366405
uses 0.009431906230721179
ved 0.005528221102761774
vehic@@ 0.025078341214429752
villages 0.03225381970154598
wing 0.00826146355051372
word 0.020955935416485
yo@@ 0.01847750053710682
zer@@ 0.031217838314884547
Á@@ 0.029159073226968136
å 0.24183442373477787
és 0.0019705944706736992
ð@@ 0.09029352137988124
ú 0.038692025397073886
ı 0.01639361233045557
ź@@ 0.5540081731539743
ɔ@@ 1
א 1
الاتحاد 0.3391408671538557
التج@@ 0.6006229577673704
الثالث 0.44054999164144076
بلح@@ 1
تبة 0.4176103020497215
تعمل 0.7254518006448498
دية 0.1292825824134203
له@@ 0.7879184663268207
ها@@ 0.8962753839941696
य@@ 0.042779681403297416
१ 0.32600404431445906
ঙ 1
় 1
ా@@ 1
ಿ@@ 1
€ 0.06475550060470442
↑ 1
﷫ 1
ﺵ 1
.S. 0.08280680923971642
Anton@@ 0.06357724943492332
Aqu@@ 0.0431215670692597
Argent@@ 0.03440503295113591
Art 0.009795110739009991
Bac@@ 0.061009692991696195
Ben 0.033349917689255014
Bish@@ 0.027868500103620335
Clar@@ 0.025313940594027237
Committee 0.01819320727416425
Dad@@ 0.07388276714120061
Dun@@ 0.02642680865052482
E.@@ 0.05752498767499312
EU 0.04808054886626015
FIFA 0.04908376707467331
Fe 0.08643221136380558
Grant 0.05383934504691962
Gun@@ 0.04048542356127677
Harr@@ 0.04081874499671466
Hind@@ 0.09017786126651144
Kay@@ 0.09197885831307034
Lie@@ 0.026754922212682764
Medical 0.03930610426451529
Moun@@ 0.03919593059564982
Moz@@ 0.08671279080762756
Nad@@ 0.05529222497324491
Pic@@ 0.02996363620803562
Queen 0.02216175274663231
Revolution 0.03614186247595343
Sev@@ 0.09394622167113978
Square 0.04465604293272149
Sun 0.03112610341697788
Two 0.01762370805147107
VA 0.06947775599118063
Van 0.02494344891291756
access 0.023947642328291847
actions 0.017540713937215437
ading 0.018868607276649945
aly@@ 0.02618530184067791
apa 0.039800448505949444
ation@@ 0.047250532459952546
atus 0.01891824284633674
bek@@ 0.013728121573591856
books 0.01822878146209693
bor 0.04184926299931748
consci@@ 0.038851086078987386
construction 0.009323007614145612
cular 0.06940112990554696
def@@ 0.005974187405137339
dered 0.020965387848975076
design@@ 0.012359701427841046
distr@@ 0.02369729708882798
domin@@ 0.010439201709721995
drome 0.060386507477123576
eck 0.017278774683852714
enburg 0.026763347133388682
enci@@ 0.011656142351525269
err@@ 0.009426666418674276
erry 0.017146313388562817
eus 0.04900401164999301
extr@@ 0.010818850776539275
frequ@@ 0.018062801356377684
fri@@ 0.011683736124302423
general 0.006888937980950507
gom@@ 0.07603829281644843
ien 0.004963792212551543
ilian 0.03557505842483837
ily 0.017921482454290514
included 0.007394153437482507
intern@@ 0.03306649158144499
ka@@ 0.08089378064341933
kal@@ 0.0172676960913394
lang 0.016161216730790597
led 0.00377579855821578
less 0.008511098298184564
lied 0.01911892160898299
liz@@ 0.03435554489911947
mah@@ 0.07352501149134658
major 0.0074144093724106816
met 0.009653343581781968
ogen 0.01691943770978903
ord 0.022669727964948757
orig@@ 0.024554590760431583
pay@@ 0.019365646206799078
proc@@ 0.013937098827072801
rd 0.023211658158475684
recogni@@ 0.016450046370680402
regi@@ 0.014273816270037596
regul@@ 0.021399056155569727
serv@@ 0.008445777100747436
several 0.00497939406847575
shu@@ 0.06841943887500672
sions 0.01034556592588952
sor@@ 0.011130289717053755
spe@@ 0.010443083060729165
sula 0.03432095188761009
usa 0.031215181908445664
various 0.010179701763350372
versi@@ 0.013943869339012115
vor 0.00451682545328342
wi 0.1557038316441024
zam@@ 0.0790356357599757
à@@ 0.12641762764320172
ô 0.0368239417279515
š 0.07179248711380659
ς 0.03569283157533974
й 0.0025850674383883737
الحض@@ 0.874450527503109
الزي@@ 0.9527424294414424
الطب@@ 0.8786771949292786
العربي 0.49778563534139103
القي@@ 0.2816122788344278
تخب 1
جيل 0.6254193184091426
كما 0.0759244947309999
ليب 0.8236078212727496
مج 0.6418583511017328
ٕ 1
क 0.014125228243242713
टो 0.9373227940179415
द@@ 0.06145022721183549
दूर 0.5073168796769975
य 0.015058347057384153
ੀ@@ 1
♦ 1
Abr@@ 0.031731207658989236
Alexander 0.017557079780433464
Amaz@@ 0.0474230996219802
Bad 0.03273998843713951
Bell 0.043338918583726974
Castil@@ 0.07326244568145786
Cha@@ 0.0789410044935918
Da@@ 0.04042166918029404
Dre@@ 0.014930604477503962
Federation 0.039018427151227664
Force 0.016625723168173394
Fri@@ 0.01984352531815958
Gabriel 0.04827061853493382
Gom@@ 0.07906141572235029
Guatemala 0.07297347053356078
Hard@@ 0.03452422327856216
Independ@@ 0.027931970182852924
Leon@@ 0.027834657043346714
Li 0.04931942692570189
Little 0.02547030054503355
Love 0.018162797888842855
Mass@@ 0.032717102297957074
Port@@ 0.03748150294635017
Prim@@ 0.02299020496778537
Rez@@ 0.05860803959412473
Sever@@ 0.03013576592272004
Sto@@ 0.017633890955477058
Sur 0.021619933623842617
Sym@@ 0.03477422264426759
Texas 0.01364900668990984
Vit@@ 0.04006506359482606
Was@@ 0.06255440778981529
Water@@ 0.046698522173957806
Wel@@ 0.027181419918984467
Yun@@ 0.12346604966842296
aban 0.012164533295977255
aining 0.01367221528867756
alar 0.07365132495251993
alar@@ 0.036151072276765166
alized 0.024704882220892527
alli@@ 0.01385555899826771
alu@@ 0.0327140304778856
ament 0.039926820250871416
ander 0.04263507583178258
anus 0.042123076936039235
ark 0.04581732786650751
asc@@ 0.019848486529189854
assi@@ 0.029181171512620247
astronom@@ 0.0442254881463267
ate@@ 0.05240876856167329
ators 0.015291321486407055
azar@@ 0.062474025291684165
chu@@ 0.061239941852584474
cial 0.017667720032922555
complex 0.025146870426606262
eman 0.024491289504437623
etes 0.031677517223474796
far@@ 0.01247929125156323
fos@@ 0.034697077413789204
gn@@ 0.041782118683634
hist@@ 0.04469604918084423
identi@@ 0.007071243337990082
imal 0.031175059400462682
imm@@ 0.02243821303354757
including 0.003356512982484986
ird 0.04103713227119598
itu@@ 0.03240387358694939
kil@@ 0.015487411996411654
king@@ 0.05036745336058659
kir@@ 0.025043344454055285
kon@@ 0.006761639823325393
lie 0.014350151299186546
lit@@ 0.016559787619727144
made 0.0028460285664529844
media 0.01221288045342234
mid@@ 0.01332471801557502
municipal 0.026055349138192414
museum 0.026507516557440082
nd@@ 0.03301244828406612
normal 0.03380353425790896
oe 0.0494684176382048
oire 0.034869926192632496
oka 0.08595497738651245
ordin@@ 0.01609103181670673
oti@@ 0.014103480442658923
over@@ 0.006278774825460349
plant@@ 0.021105623691796558
quar@@ 0.008888861224071468
records 0.026184582120862564
rière 0.05184255492830712
sab@@ 0.02373955261028844
series 0.004153468975336877
stan@@ 0.030458772485803764
tas@@ 0.024209188209072238
then 0.0028429246172532127
times 0.00908193811915519
trol@@ 0.023247392978033597
usi@@ 0.015232086337853664
video 0.009540557529753857
while 0.003546768666515606
wich 0.044716444511831176
zone 0.018598865762796606
Ü@@ 0.048191614671831945
ör@@ 0.007145979826932999
ș@@ 0.05632829412986008
т@@ 0.002444784114473234
ֲ@@ 1
اجتم@@ 1
الأخ@@ 0.4325612059457122
الشعب@@ 0.5941365029373703
القرن 0.1504583275359102
المعر@@ 0.5631413239657791
المك@@ 0.3506292237382949
الولا@@ 0.553157957753297
خدم 0.6296892494986829
شارك 0.2341324121778057
فاع 1
فيا 0.4300990896315239
لاع 1
وكان 0.13395926620118076
ّة 0.29525020831404203
ٽ 1
য 1
வ@@ 1
 1
ﻛ@@ 1
.C. 0.02042811401488259
20th 0.025474852655678826
Alber@@ 0.03802794306403361
Ale@@ 0.04002950723771725
Alt@@ 0.02667892067144221
Amp@@ 0.080170819775759
Anne 0.026936111058539446
Antar@@ 0.05630664059413654
Arthur 0.02233066724554894
Ax@@ 0.06459451828517201
Bern@@ 0.023449710161948578
Bretagne 0.05937333210127273
Bulgar@@ 0.051112056762209215
CS 0.05754181672035389
Chu@@ 0.11863511978524523
Cle@@ 0.02221259475097657
Code 0.052035546958291004
Dig@@ 0.06049413718455227
FF 0.06167582121562807
Fel@@ 0.017889372285383474
Fil@@ 0.014561793582495073
Flu@@ 0.043943407064178784
Gold@@ 0.024383096923085188
Gö@@ 0.03005717858467984
Hall 0.011113128044438446
Hi@@ 0.02382644412654101
Home 0.02783962736237091
Ing@@ 0.027848803244823896
Jacques 0.02415998977938533
June 0.004511217920711817
L.@@ 0.06429406578548534
League 0.004391265594960125
Liter@@ 0.030453280110159832
Lot@@ 0.041862209723249146
Ltd 0.05369309485697851
Lud@@ 0.05175318422116442
Mal 0.028732600064086514
Management 0.035599547231568274
Mar 0.07129555758863478
Mic@@ 0.044983331725020774
NS 0.06623630453991934
Nicol@@ 0.05287811460714407
Om@@ 0.043433720937600874
Peti@@ 0.05006402648969343
Roy@@ 0.04744597871052836
SN@@ 0.05686438573779819
Satur@@ 0.034354331654548084
Sciences 0.03382455782506749
Secre@@ 0.019614647016716023
Sher@@ 0.02601529125475071
Star@@ 0.019968185834857804
Story 0.06022630814975198
Sé@@ 0.04333050749870345
Van@@ 0.04500357913429378
Yen@@ 0.2279956712595202
Zealand 0.017379049912599535
` 0.997177876027343
acter@@ 0.048212023645266375
activ@@ 0.007825297967022074
aer@@ 0.02729532947275252
afa 0.1536005249431712
aill@@ 0.031117358028189115
articles 0.03084663178122314
asis 0.04953448246342517
aster 0.030228169699283956
aught 0.01928208210421252
aus 0.0013616241972326595
ayo 0.03451065749020885
bus 0.015801079658800385
central 0.010503574602734694
ces@@ 0.012305332979525706
chester 0.03044632504811555
com 0.05856990092438853
dale 0.03995432544226988
depend@@ 0.02407215642301872
different 0.008005741188486529
dit 0.012159276206864007
dition 0.013019756582408951
dos 0.004304842662620767
dre@@ 0.010681753129694943
edo 0.022334408422116512
embran@@ 0.05363500882601092
este 0.004524405303603519
hiv@@ 0.18051944216961047
ika 0.017431518132258492
inst@@ 0.007666736661129309
kg 0.031220840717470364
ku 0.05516342162924593
lay@@ 0.022202154338195765
lia 0.02620243854387001
liber@@ 0.012946253719267586
lit 0.014556104981621123
live 0.011453586515748375
located 0.005019257934172156
mann 0.007387758092983312
mb@@ 0.012365981621527933
med 0.04523091963553389
mem@@ 0.008489226267938884
nar@@ 0.0264894912401774
nu@@ 0.010797395427602451
onal@@ 0.017883612667777108
oon 0.03626715173131632
pain@@ 0.01005875623690974
park 0.01435619236169262
person 0.01587349435785349
ple 0.019897650043385593
popular 0.01012093468938933
pri@@ 0.011465626377877854
publi@@ 0.02131515364399488
roc@@ 0.027706293596865425
rup@@ 0.011327052281320148
sam@@ 0.022888818905356458
sav@@ 0.01784461972027121
sey@@ 0.13057248176433256
sing@@ 0.01838177854981047
sit@@ 0.010866494408604216
sites 0.022529253755226682
software 0.03223201215441916
stead 0.04927692480085177
stop 0.028680949408982883
tains 0.019910593837929542
tam@@ 0.016922440563441273
tern@@ 0.017979123141646125
thr@@ 0.019617340966313155
through 0.0034131391446078374
tigen 0.01360448953798538
tory 0.019634741162698695
uma 0.02958943929812518
ump 0.06916574932760504
uta 0.025538294965072796
vis 0.04368675931357274
what 0.007787206004110361
yar 0.11339234670032124
zo@@ 0.05165025443774265
Î@@ 0.0693985875337563
ément 0.03829594891879613
öl@@ 0.011029803898899956
ź 0.15156317683182574
ʃ@@ 1
г@@ 0.0033016263722863057
ный 0.002275540890238271
أع@@ 0.36718215829235495
إ 1
الحدود 0.7798026910412706
الحكم 0.5601327826499062
الشه@@ 0.619285857559667
المسلمين 0.8158604790127152
سمي 1
قوان@@ 1
لاست@@ 0.8528606912397633
لها 0.10492203200959309
ونکہ 1
يط 0.772273700074729
ڤ@@ 1
ڻ 1
का 0.009793042708185862
ਆ@@ 1
ਭ@@ 1
ತ@@ 1
ි@@ 1
ე@@ 0.679544868846907
山@@ 0.014749396656702224
ﭻ 1
ﮄ@@ 1
Adam 0.03048373576305495
Banglad@@ 0.04625438630830211
Beach 0.02953700561899267
Bell@@ 0.04706451285735275
Bill 0.021183635924053097
Brazil 0.032748511817326686
Buff@@ 0.0418916651744342
Cast@@ 0.03753302972677173
Court 0.011859040438369384
Cross 0.02911485745625713
DR 0.0701499360450093
Distr@@ 0.03323200250330274
EP 0.023732678282338764
Ele@@ 0.04658135619166782
Foundation 0.02263267860557645
Fut@@ 0.0331134341405191
Google 0.04820353785390049
Got@@ 0.018007639363367692
Health 0.025093181418973935
Hip@@ 0.07762738459411538
Hul@@ 0.048731484489176136
IG@@ 0.04548757053376103
Ig@@ 0.026527532517483736
Italy 0.019073174830476998
Jun@@ 0.03443482533662533
Justice 0.026890155477284232
Kaf@@ 0.11007957092183986
Kis@@ 0.06356948578323833
Kut@@ 0.09723954014084309
Kö@@ 0.03966515394345044
Latin 0.023558008175922185
Lis@@ 0.033225061092858194
Ma 0.06310641583577555
Mars 0.061687629587560966
Meth@@ 0.04454111431247022
Michael 0.00899674665643468
Morgan 0.04438713019521203
Oper@@ 0.022715816345826857
Order 0.024178091873645113
Organisation 0.03769436381762241
P.@@ 0.07993772987162852
Philippines 0.0354983124692623
Pil@@ 0.023140651259422242
Post@@ 0.03245543326713846
Princ@@ 0.030145608874445184
Psych@@ 0.04440502864795327
Rav@@ 0.055345130568052396
Rid@@ 0.04731299649969106
Sach@@ 0.04817515062763731
Say@@ 0.06788703488226706
Siy@@ 0.27919742951507115
Temple 0.03763762803235165
UNESCO 0.07517840723846801
Vari@@ 0.024548117114734466
Vin@@ 0.05962204072460653
Whit@@ 0.02149163722101788
Wind@@ 0.03412638576952115
XIV 0.06003710714357422
Zam@@ 0.08187853753169437
administration 0.018215459254165067
agan 0.042952806313929275
ago@@ 0.038377460638653375
alla 0.0323416015054621
alle 0.009007530389339638
anced 0.01790784940082657
ango 0.03402641424291322
author 0.0204436183680137
bet@@ 0.021489137030554755
born 0.002864056065029181
bos@@ 0.027029011178916682
carr@@ 0.02756864928051393
ck@@ 0.01396657897467606
coloni@@ 0.028745528690384468
ein@@ 0.0017734325684490503
elected 0.009010024796325256
elling 0.013495363816737193
ement@@ 0.02164762982460678
emi 0.05449971237881156
ento 0.009770376117323065
film 0.002364668055274499
game 0.004438909143684005
great 0.013487226707540738
had@@ 0.11729975171768833
hand 0.016465454439037748
hang 0.029217954656962496
hay@@ 0.05739022519121367
histor@@ 0.011579988957304827
icia 0.025636575304003782
icul@@ 0.020302136027434654
igh 0.03612148665460234
inv@@ 0.006194682018695569
ité 0.0035391007158461535
kad@@ 0.04845889598248364
law@@ 0.01136963474651964
lip 0.04554364629297089
mara 0.04339121981779275
mission@@ 0.01370347419528354
otr@@ 0.05242988197432781
ought 0.011607993511897405
ourg 0.05732128729370774
pha 0.03803031937567896
plo@@ 0.05324994447821781
progr@@ 0.028364783781387685
protein 0.04030419402971684
pun@@ 0.016335299613048377
record 0.007206994724523234
record@@ 0.04638026387522058
research 0.010536585655478313
result 0.011198692219177277
rif@@ 0.029728684868415064
start 0.015880868041727406
termin@@ 0.008652961082650236
tha 0.029988998467405308
trac@@ 0.01244374846114788
trav@@ 0.008424977532793244
udi@@ 0.0372331012916644
ulan 0.1677949799089902
usha 0.28229427061149165
veloc@@ 0.11832746372182727
version 0.0065016477729872985
vin@@ 0.016456936821160277
ét@@ 0.006950242175195088
ì 0.07949826157285209
ım 0.03759290516562684
Ō@@ 0.09186837064997287
ʁ@@ 1
α 0.01231285457964201
π 0.09780087922245749
д@@ 0.0021411798523227245
к@@ 0.002524473634503846
ка 0.0022048601384267136
с@@ 0.0016073488145463772
اته 0.20980212791654243
افة 0.14401899548185682
الأن@@ 0.7625967877685589
الإسلا@@ 0.7612788193770419
المسي@@ 0.4006954922226652
المض@@ 0.577951077851646
برنامج 0.3856120726837784
بسبب 0.14722937417992774
ثي@@ 0.7141854925610014
داث 0.36657955824557387
رئيس 0.20585754320574143
رياض@@ 0.7710164641650881
لدي@@ 0.5005103819031649
ودي 0.6456578283181993
ګ@@ 1
ে 1
ਅ@@ 1
ਤ 1
ସ@@ 1
ା 1
ୁ@@ 1
ನ 1
ი 0.7459084641597119
რ@@ 0.7310531443066652
大@@ 0.003707455505953596
ﺾ 1
Alaska 0.05563933620893839
Anth@@ 0.05570469195558587
Arg@@ 0.03078518140651939
Bit@@ 0.056759847803750124
Braz@@ 0.04285848466402398
Bug@@ 0.07222525071882455
Castle 0.029137761030345585
Channel 0.033150911534421755
Christian 0.010532076105566328
Co 0.026845862634091187
Contin@@ 0.03950922922829517
Country 0.032296337602243964
D.@@ 0.06543864238694172
Death 0.02913978497249725
Dic@@ 0.04762311671217132
Digital 0.05099401064571912
Distribu@@ 0.03953214060039667
Dj@@ 0.0670493060626979
Ec@@ 0.039953527154049255
Elizabeth 0.023165449518429557
Emp@@ 0.0330160456740306
Emper@@ 0.02911629342641305
Fak@@ 0.044627479104838816
Film 0.007518997150939138
Four@@ 0.044817451938002094
Gab@@ 0.04809348092566578
Gra@@ 0.02062606921373843
Ha 0.05141854405385166
Inv@@ 0.0237523418763865
Kap@@ 0.018494494223167807
LP 0.043102708959571655
Luxemb@@ 0.04588534215531427
Marshall 0.04825646784051288
Me 0.020184673103645325
Model 0.054508765095078744
Most 0.01697007631889735
Mut@@ 0.034446176552687675
NAT@@ 0.07461460995919775
Nap@@ 0.053244324802324806
Open 0.01569691152741584
Ox@@ 0.04897716640647792
Pav@@ 0.03662900856697085
Research 0.016627254856103668
Sant@@ 0.032813619993427974
Services 0.035287555768899984
Slov@@ 0.05252486233774172
Spe@@ 0.012342191400946707
Stor@@ 0.03107124763719283
Taylor 0.025151297566468927
Tex@@ 0.020475295778638585
These 0.008218226891792139
Thr@@ 0.022304704799975966
Vietnam 0.03100659205357828
XX 0.025233806623610053
Year 0.019165561865114734
ables 0.007958777032983757
adv@@ 0.010239473943511724
alam@@ 0.12093169072283573
alif@@ 0.16855683685760234
alt@@ 0.007961786356264532
ambi@@ 0.02219107522624898
apar@@ 0.02326853709815181
asia 0.06675712361406863
atra 0.05643270339950044
aut@@ 0.009522494611660156
bra 0.038343385852183214
cer 0.024978731732076483
cle@@ 0.010661376284915026
conduc@@ 0.010305843287131857
contin@@ 0.01490656557915607
cot@@ 0.02449441253510109
culture 0.013020330223746344
ded 0.011218952989189143
design 0.010594088104167626
does 0.013294661948465247
ectiv@@ 0.01166248194388595
emen 0.02234299292274804
erie 0.015988954368296025
ers@@ 0.0345592465212205
esser 0.043984292864221786
ester@@ 0.03365623584625847
eum 0.039946796192053526
far 0.017276284181820187
fer 0.007062620219128193
flo@@ 0.008245799663929571
hat 0.0049319186467276935
hausen 0.037132036443486324
imi 0.03715328539477153
irs 0.013931865098473691
kers 0.012853545333232122
largest 0.012501734069320277
ley@@ 0.023516161184798146
ligh@@ 0.009978494671996654
ment@@ 0.012771341254517257
nam 0.028209929737268644
names 0.021196782023684534
nel 0.02300975236389141
olar 0.04038249875251924
ons@@ 0.010545089102388406
ose 0.01632865496141453
phone 0.02947715272185048
pi 0.07956199423055646
poli@@ 0.01446343854913005
process@@ 0.030709254217735925
psych@@ 0.019478248834866343
rap@@ 0.008616156321089304
rez 0.030563484347572098
rich@@ 0.00820413309844786
scre@@ 0.016041864598980254
secre@@ 0.018665974571493143
sem@@ 0.006912409985383049
serving 0.019746675030243657
source 0.016103966173421535
speci@@ 0.019016798381091226
star@@ 0.008750800613152579
super@@ 0.008317938620495268
test@@ 0.01494348970968161
theast 0.017333775519275976
tice 0.06635829478040668
tom 0.022605455066144906
took 0.004769821462861638
traf@@ 0.018269838651577264
tures 0.008501969663684486
ui@@ 0.04786176308538889
ume 0.01283914149966034
usion 0.03413634401717392
voc@@ 0.007913116310879584
wel@@ 0.014734554508392316
writ@@ 0.020673764789942695
wth 0.02415751861108872
xin 0.1218122547302433
ya@@ 0.1133910607228818
yar@@ 0.04337593618490196
yes 0.03166790421526544
zar@@ 0.046468673476318764
zer 0.02399532055846411
zu@@ 0.011669993680019435
çon 0.05837845038512211
éc@@ 0.01156675685486501
ê 0.04636635002701663
õ@@ 0.10409330540020847
ǎ@@ 0.5583186380556637
ɪ@@ 1
р 0.002754149390214792
؀ 1
العث@@ 0.3548709302790033
العربية 0.1878627783853849
العص@@ 0.3332919670309676
اللو@@ 0.7852637086433006
تقل 0.7309551610411101
تلك 0.1558454722674665
فيها 0.13140707571991045
قرر 0.7450350350447709
لعب 0.12762166139816353
هند@@ 0.6145657489889254
هيم 1
وبة 0.4072324116284142
وبد@@ 0.7572419406453378
چنان@@ 1
प 0.006032425451633827
र@@ 0.0228431141998447
श 0.03383035654087145
দ 1
ੈ@@ 1
ି@@ 1
ག 1
◾ 1
 1
ﻡ@@ 1
Aires 0.025873044323988178
Alger@@ 0.06943701763343792
Angola 0.10446143181445121
Antoine 0.046723003000363764
BBC 0.019108464911211525
Biz@@ 0.1116541018426218
Cad@@ 0.03828739438730499
Charlotte 0.040855869236117816
Chor@@ 0.04287643177640035
Cuba 0.038900287069972346
Dar 0.2579652277286067
Deb@@ 0.015075563361339136
Era 0.06749838625403985
Fat@@ 0.08694805299312496
February 0.004680882219966749
Form@@ 0.017323847022735237
From 0.007990483601305592
Front 0.03463518643800154
Gener@@ 0.01929045910000237
Gib@@ 0.04133634628003971
Guar@@ 0.03005065677753548
Heil@@ 0.026088400062949532
Kun@@ 0.02822634381562256
Lyn@@ 0.03649575329633728
Mang@@ 0.051006887921134704
Mov@@ 0.02289073114499011
Music 0.008044502947339115
Network 0.028291233733966782
Neur@@ 0.06226084112891264
Paulo 0.04917074258260496
Real 0.01944043689124533
Some 0.01123448476083791
Star 0.014723652694238497
Terr@@ 0.03391355392879058
Web 0.07222177723770629
Wes@@ 0.020636889409056766
Windows 0.025784968066995158
adan 0.06600807279527757
agen 0.007978093060827435
aha 0.038726696468918596
aking 0.01696027404256732
alis 0.02596901162722593
alle@@ 0.024842360413616316
aman@@ 0.050808802919499234
ames 0.02561161517475573
anger 0.01567635806091855
ardo 0.024482901263143318
arri@@ 0.011554279596036015
ativ@@ 0.033094266657093724
augh@@ 0.027384884237100796
autonom@@ 0.038115292790363624
avia 0.07018672709133854
awi 0.08907679510515855
aí@@ 0.0790180065231189
became 0.0025898730169456523
because 0.005731939082156371
bed 0.016277423352460435
bit@@ 0.015164476232251931
black 0.013102755446108824
box 0.01979594004906536
called 0.003662692402756356
chil@@ 0.020831719515015067
cho@@ 0.006792750735460721
ci 0.00883687873526981
cit@@ 0.012633655375003565
cla@@ 0.016153691995452052
const@@ 0.02150102767924394
cription 0.014280404609943514
cut@@ 0.022314181631305205
democ@@ 0.033725247089962676
docum@@ 0.015257993137258839
dur@@ 0.00809858666157292
eas 0.03009289658644179
eastern 0.019159059214409257
ehr 0.021733365914816755
embr@@ 0.030876069784094882
entum 0.046208771182038484
eva 0.026779209353911905
ference 0.01872794506188942
fier 0.0314688810220079
form@@ 0.0034291303716209635
gal@@ 0.00957843156535651
ges@@ 0.005460018815294598
gir@@ 0.010344940185737322
given 0.007877531411001134
good 0.012832196403948346
gs 0.013710922306234217
hospit@@ 0.045816887457563994
hut@@ 0.08721443706255934
idae 0.006858964403238381
idge 0.02052342175114021
industry 0.01605467987685876
ink 0.018199672726351323
isi 0.014899715099954093
jar@@ 0.05552371782213605
kara 0.11977191283957132
med@@ 0.007631480028135922
near 0.006801507647240507
nec@@ 0.014610548733665168
og 0.03467343251797819
oj@@ 0.05634739179855065
omon 0.06285301023536742
open 0.011444354296793392
ores 0.004606702144382602
oria 0.017734011185050563
other@@ 0.023005793145301514
oty@@ 0.029859970570410392
oud 0.02646770389176507
owa 0.10858392995140496
pic@@ 0.010661711960895203
power@@ 0.018652363090026953
princip@@ 0.03393487845803042
rain 0.030097441813066905
rant 0.01773728969582272
ry@@ 0.051833579783713876
say@@ 0.010364766483886291
scienti@@ 0.012702917036366512
sed 0.006988472042868966
sept@@ 0.16322139857921164
tif@@ 0.03061462154735119
toral 0.015669767670395865
umin@@ 0.019385590882631965
uru 0.05929990767550661
virus 0.045269236978377404
wall 0.020936610497459537
white 0.011684649602393632
yu 0.059718220243915036
zo 0.01491610156503648
§ 0.07171394053154317
ège 0.021753441409850766
én 0.02080486707747086
ña 0.015105539990674044
ön@@ 0.00919210485138616
ć@@ 0.09899634343558492
Č@@ 0.054087919506632734
ƒ 1
Φ 0.9667799279159053
Соци@@ 0.0846343053074578
ба@@ 0.00415682705449582
у@@ 0.001390455547251129
ы 0.001995229921939298
أش@@ 0.20880919046031504
اللي@@ 0.3293898934262405
باسم 0.20378278924250068
بنى 0.46139225520539107
ثلاث 0.39249800255313155
قيم 0.6378152940663963
كال 0.6049005993813587
كانت 0.048915411441990776
لكل 0.4502062594457192
والص@@ 0.7097224155755256
ग 0.027548552556808673
व@@ 0.03619009243993669
वा@@ 0.04472834478987962
स@@ 0.02815884273524975
ি 1
ਟ 1
ச@@ 1
ட@@ 1
ి@@ 1
ཁ@@ 1
⁄ 1
ﮌ 1
ﮟ@@ 1
ﺕ@@ 1
Arth@@ 0.20583287808751785
Autom@@ 0.03377574188600984
Be 0.048033848849868374
Buenos 0.02451057073524834
CN 0.06598406704050427
Dah@@ 0.05092961598434174
Die 0.0007829514933619682
Ein@@ 0.003504147407402216
Fur@@ 0.02016429065947025
Greek 0.01730159967173658
Hawai@@ 0.03888001466132469
Hir@@ 0.021167191980727054
Hit@@ 0.044084992508105575
Howard 0.02990945316032388
Isa@@ 0.04220951129024587
Jak@@ 0.03322451490123908
Janeiro 0.06050803534203198
Java 0.06085990912317513
Jr 0.028218947261492447
Jud@@ 0.01702376113649747
Jus@@ 0.018229627744217044
Kong 0.02087417467635868
Lad@@ 0.041932566815389316
Limited 0.048491793150247986
Meg@@ 0.030959711935781644
Mik@@ 0.022524187795417188
Minister 0.01112015263447938
Nom@@ 0.056445682999159925
Not 0.03853690004298597
Office 0.019927856383701988
Other 0.011328506795720327
Pet@@ 0.029745234020004428
Rak@@ 0.06017643365260775
Ray 0.03362695211029473
Reb@@ 0.024416077496430582
Reser@@ 0.02111755867810087
Roman 0.010931654062768543
Summer 0.014737664725606678
Tang@@ 0.0918673880900455
Ten@@ 0.03172841626453616
Ukr@@ 0.0338806572159519
Universal 0.04410678106859106
Vid@@ 0.050468780830350946
Vincent 0.039617176199421685
Way 0.04391774242244567
Yer@@ 0.08979018752515276
ache 0.01152343243385207
ague 0.02247591725833387
aissance 0.01428348420376025
amii 0.4396140448611689
ampton 0.04312478747166436
anal@@ 0.017850277524366114
ances 0.005584793615956624
ando 0.002440563668621596
anna 0.027081569903470794
ante 0.002547876693227945
arts 0.016685162068575593
ashi 0.044545503157161076
ason 0.014200874369273045
ats@@ 0.015746690955412528
ayn@@ 0.06307478842508643
bai 0.044395217131802486
bourg 0.018579835224928173
bron@@ 0.0855475522592584
ca@@ 0.023649740585594898
calcul@@ 0.029220712917403097
cam@@ 0.011337848825800509
capit@@ 0.016142295078914144
case 0.008585565997846652
charg@@ 0.01231611189953717
chen 0.003940427296579827
circu@@ 0.024480131325404615
commun@@ 0.0076799923812902035
cycle 0.026792857904052267
digital 0.023856880858150135
dor@@ 0.010920563196400411
down@@ 0.0204862944912953
dul@@ 0.04739104770565753
ehr@@ 0.01316393277586152
eller 0.012513201591017315
elo 0.016810366500701935
eno 0.01614266670681797
environ@@ 0.015296391508559147
erk@@ 0.011907373524099481
esse 0.0071624289685793315
every 0.009843316068191107
evo 0.031123438916419055
example 0.010055768122307098
facil@@ 0.024141549290379614
fu 0.11473062366178795
full 0.00881897874600214
get@@ 0.011184744281203885
gradu@@ 0.006393800947908135
guer@@ 0.04001639377185934
high 0.0044345560564739515
iger 0.007146598229872919
igi@@ 0.03314307676796461
independ@@ 0.020428910151729988
island 0.015480685963416748
ives 0.01339555148541792
lake 0.027872654337523926
lip@@ 0.022437080293634747
loyd 0.03522022682889603
lui 0.004791049049582614
lum 0.027579315676096818
lé@@ 0.014033270750240738
multiple 0.019845911413856342
neutr@@ 0.03376807366119
nic@@ 0.05655885795297355
offici@@ 0.0069521941893906725
olm 0.04325590512884306
oman 0.04080279659560366
par 0.0007470703140363197
pole 0.0279840521498492
pose 0.009242058309027515
proper@@ 0.027102654946852295
ps@@ 0.040022267067368056
que@@ 0.01706910983980383
reser@@ 0.013712875903800294
rest 0.014879470127246948
ross 0.0691366990291426
sel 0.01396396217001838
sha 0.08544777011376606
som@@ 0.013291623390774271
systems 0.014488991648585874
thing 0.014168244606759106
tie 0.027715737466401748
top@@ 0.019015391213747575
tos 0.007516260240259456
tran@@ 0.013318131477212777
tru@@ 0.02737794616700757
until 0.0030593412277746235
usalem 0.037526306698025556
ven 0.007383342149609044
verg@@ 0.023978440276678344
vie@@ 0.008467855473372952
von 0.00038779265121752807
wil@@ 0.014331905904625915
yle 0.014542825344956685
zon 0.09431584348638478
év@@ 0.01086008361608505
ý@@ 0.10764976008059986
ın 0.01028614409991083
ν@@ 0.015707636412403275
ον 0.05442227778193517
М@@ 0.004924754264380775
У@@ 0.003056361756939579
в@@ 0.0015889748290852414
на 0.00034329948971672966
أل@@ 0.12382478899253135
أولاد 0.45701031758612204
الإسلامية 0.46326482405615393
البحث 0.5576969447647939
بأ@@ 0.32700138646735183
تدري@@ 0.3790771401664312
توي 0.5322948498942577
ثة 0.17860020416545194
نوان 1
والش@@ 0.6804784154824554
والك@@ 0.671173363992199
ڻ@@ 1
की 0.006115716773458951
ख 0.09519755640867647
ज@@ 0.03904393224890981
ण 0.04050112477926999
ब@@ 0.03800192639208225
हम@@ 0.29568016932981633
ফ 1
ম 1
ী@@ 1
ਿ 1
ବ@@ 1
ய@@ 1
ு 1
ಗ@@ 1
ྫ@@ 1
თ@@ 1
ი@@ 0.42466610234252905
∗ 1
 1
ﺖ@@ 1
ﻚ@@ 1
ﻞ@@ 1
Abdul@@ 0.07316069549648944
Afr@@ 0.03402106305032816
Albert 0.01647361010124012
And@@ 0.03738242803151941
Arc@@ 0.03346912715913305
Ath@@ 0.018937158075111888
Austr@@ 0.014996628993072254
Australian 0.008729136593632548
Bla@@ 0.03873011937545797
Bog@@ 0.02859015658103222
Bom@@ 0.02657529245067484
Brit@@ 0.022911465044450637
Cambridge 0.025322750274763956
Canal 0.03287805146352728
Christ 0.029969601091620373
Chron@@ 0.03929247216023941
Civil 0.01728143984927254
Conn@@ 0.020314150940632457
Corps 0.0187819392414006
Daw@@ 0.038511643264034466
December 0.003774682237908607
Deux 0.04254607854663452
End 0.04077948526983562
Feder@@ 0.022422296438773946
GP@@ 0.06247197536553191
German@@ 0.04633569217592824
Gut@@ 0.03827095741664518
Hand@@ 0.0083772313548346
Hong 0.020246012421378752
Hz 0.04451494188415691
Ib@@ 0.04289925769539103
K.@@ 0.09989888559034037
Lady 0.02246946535041741
Lanc@@ 0.03116102786343758
Long 0.017804061897193836
Lug@@ 0.05648771675824435
Madrid 0.01371128729601719
Map@@ 0.05543394226595911
Muh@@ 0.10876347312471703
Nam 0.012587046920443365
Navy 0.013312984957147186
Nis@@ 0.13502688497417972
Ontario 0.021788889302746237
PM 0.06851631003515622
Pam@@ 0.06923054388578928
Pit@@ 0.01933509344298278
Prin@@ 0.025576473767820157
Pyr@@ 0.05439513720853504
Rome 0.016773377386043068
Russell 0.03709881305809836
Scott 0.017124711349030704
Sierra 0.03688186611330091
Sign@@ 0.03912202604458199
Soh@@ 0.08222807961061755
Song 0.019548557088421115
Stan@@ 0.026800224248556475
Suz@@ 0.04572913346073892
TC 0.03997557789298613
Tax@@ 0.03280452896503124
Tay@@ 0.09177967823015294
Tek@@ 0.07345632002865869
Test@@ 0.03402680672995408
Tig@@ 0.03098979167729762
Viol@@ 0.04314922916867008
Wak@@ 0.06394118441955039
Wall@@ 0.022420669717195942
What 0.031695164561102204
Wilson 0.020768294705557036
Yah@@ 0.0924643552887973
You@@ 0.10439618025512487
abol@@ 0.02137288598956423
afr@@ 0.050489119176253774
alog@@ 0.0200561064155918
anan 0.05608313961537655
ao@@ 0.13201218818307175
ape 0.014550113586010384
asing 0.02021008753525321
ather 0.013848507897389785
atur 0.02464529774126929
beau@@ 0.03218702819761399
become 0.007054710571164194
bon@@ 0.01687092789961227
bour@@ 0.01984829069350108
class@@ 0.011307988193541422
coll@@ 0.007024797979136835
cons@@ 0.005199498836349504
cum@@ 0.020992224558127767
did 0.004470891406837845
dil@@ 0.027958023159889055
divid@@ 0.016464599495821575
dres@@ 0.011899263518199671
ecti@@ 0.08196202107656855
edia 0.05241350913072334
edr@@ 0.016997370934269188
edy 0.015581666088686419
eil 0.01879320852677555
ept@@ 0.017473935730166062
established 0.0062486459511774005
ete 0.007645190903578609
eton 0.02487354514505553
eval 0.028293333097628583
expres@@ 0.01035559137091067
fic@@ 0.006731911885310476
fish 0.02043144128790919
fon@@ 0.008230779589719826
gia 0.00955919632457116
gio 0.022660585471012257
global 0.02646695625987636
ground 0.006980864230659916
hil 0.039090685140308
ically 0.007507884249680231
indi 0.19273274522071196
ini@@ 0.02592273961016734
ische 0.0019149288215163356
ished 0.00896440040774176
ishi 0.05352092628183488
ism@@ 0.02562015291621659
ket@@ 0.014030120664545722
kor@@ 0.015110036142144673
left 0.0047003124897829155
lik 0.02878347845122703
lik@@ 0.010707547861308817
line@@ 0.022768883110742773
market 0.013111530943251811
matches 0.01492478376566676
medical 0.017908126124852
mic@@ 0.041089622911871126
mm 0.009613514783477634
mos@@ 0.02036833057858053
multi@@ 0.017579364070932302
nati@@ 0.014825595786208614
ock@@ 0.01774449739340751
official 0.01053585582214027
oga 0.03833647307742013
ograp@@ 0.02071872704053171
ops 0.007793806439762811
ored 0.009308431083569239
osp@@ 0.015812498893265355
ots 0.007523762049909296
partition 0.036366551773753336
phon@@ 0.02362045098723371
pot 0.03430988074937876
print 0.021143120324601545
pron@@ 0.021743613741702694
rat@@ 0.039897133016452195
ratic 0.06640606225806243
recep@@ 0.03596003403962892
religious 0.017551143374407708
ria 0.05267915938098531
ris 0.026333444985648106
river 0.012549155887038746
ru 0.07534878560593876
seat 0.015378262229003428
separ@@ 0.012668295396419357
service 0.004414486365976787
shar@@ 0.013479915054373678
size 0.012816132629018345
songs 0.010746170919479346
sons 0.010403069991132326
study 0.011041262916818067
suff@@ 0.00722602084445059
tari@@ 0.023349189499272487
tary 0.012326744831419807
temper@@ 0.01420066410582339
tempor@@ 0.011989251146520118
tific@@ 0.018421513139943668
tin@@ 0.016261240140345964
tit@@ 0.0070288775256267385
today 0.018090036323808456
tric@@ 0.019411687309933062
uba 0.06197999770093813
umi 0.0518535983808202
unda 0.027445223251365062
uro 0.0267621625612595
utive 0.009980575391470504
vers@@ 0.004649556658022633
wick 0.03437297376613549
wide 0.008810212782062905
ür@@ 0.0064775425569013655
ʻ@@ 0.11108840346158701
Ка@@ 0.004874974090885114
а 0.0017805402253474822
л@@ 0.002078255905350018
ш@@ 0.0019269941620144546
ט@@ 1
أحد 0.12503662912144803
أس 0.3948558763244092
أق@@ 0.2982057245447774
أه@@ 0.16496825580244
الثلا@@ 0.351501970582997
تشار@@ 0.3253514870893153
عبة 0.2815602519465843
عًا 0.4660307618426223
قيق 0.37420148434360384
كة 0.07727301196947099
مؤسسة 0.5541008831040599
مدينة 0.08236248934933398
مية 0.08924069666086369
والأ@@ 0.1684328169482074
ټ@@ 1
ڊ 1
ڌ 1
ۍ 1
अ@@ 0.032502755451813636
का@@ 0.0428378105038079
छ@@ 0.14758382642625167
दु@@ 0.1526578406128092
फ 0.032033999184906015
ਚ@@ 1
ੜ@@ 1
ર@@ 1
க 1
த 1
ந@@ 1
ತ 1
ು 1
ს@@ 0.9084083848811609
ḥ@@ 0.22530293988085368
ン@@ 0.61115464575459
海@@ 0.008273601637812922
 1
ﺽ 1
ﻥ@@ 1
Administr@@ 0.0363692266319516
Alexand@@ 0.026333286045003217
Andr@@ 0.04405793536330676
Anh@@ 0.027474512844678986
Ant@@ 0.02064381202699961
At 0.003763374454178149
Atlantic 0.022562341834506436
Augus@@ 0.022241098897469877
Ave@@ 0.1596153203051942
Bach@@ 0.020453832359249993
Ball@@ 0.019616851831202157
Bas 0.046783889308279036
Beg@@ 0.013629711485086654
Bernard 0.028452437151330553
Bra@@ 0.03761596369580965
CF 0.048289155121440816
Chief 0.016873545497947055
Coll@@ 0.023491571669756458
Det@@ 0.02899454500592912
Dist@@ 0.03047608019909456
Doc@@ 0.02568345272775649
Dutch 0.018212167945626287
EE 0.058189404428261336
Eli@@ 0.027381573543173495
Esp@@ 0.018449212692760907
F.@@ 0.06269111080297408
Fen@@ 0.03074171139937556
Fro@@ 0.03435942293782577
Gam@@ 0.034460378693296406
Giovanni 0.03938013507737321
God@@ 0.02929336953532774
Gren@@ 0.03880466735942453
Gó@@ 0.05561763229297187
Han 0.043481848186868295
However 0.0041939750733666755
Jag@@ 0.03337943006282891
Johann@@ 0.05867774652637623
July 0.003327827664860861
Law@@ 0.031659217940934035
Lom@@ 0.04543577819318272
ML@@ 0.03139382305483168
Main@@ 0.027439435763211645
Men 0.01766302104466711
Mex@@ 0.013857154725177635
Monte 0.04200653904876788
Net@@ 0.023165277320269188
Nig@@ 0.04510462389999047
Night 0.022928612462606635
Nou@@ 0.05075116225088904
Parliament 0.016652131895780898
Play@@ 0.011716891533567276
Poly@@ 0.030667808899104327
Project 0.026451429088111374
Prom@@ 0.02603596740060856
Ret@@ 0.02618598287781973
Roc@@ 0.016219414430144085
Rog@@ 0.02852890319245523
Roma 0.02830238051054256
Rose 0.02637818345468944
Roy 0.03550788760028467
Sap@@ 0.05831072632677793
Scot@@ 0.031820851769192235
Serbia 0.04446791655851538
Sib@@ 0.06185738622500678
Speci@@ 0.04427028538459066
Su 0.0075585265994746855
Tari@@ 0.07477292096217893
UE@@ 0.14706819811306474
Valle 0.06033556672182902
Vig@@ 0.07250033509292729
Wad@@ 0.10021419435001329
Who 0.038888717044497534
Will 0.039002745930004634
Yak@@ 0.06716842683738247
ably 0.008820779560069828
abri@@ 0.026171845529007746
aces 0.011252105557604336
acha 0.07167729328923061
acqu@@ 0.014431194026389323
aff 0.036388943553401484
airs 0.013414602782654429
almost 0.012935042515371345
alo 0.02342635934934589
alt 0.010359084275486036
ammed 0.05426051419928835
anch@@ 0.032117645243902315
anes 0.02306717333838521
anya 0.05969985584792461
apr@@ 0.04717236822997522
aro 0.021599387925433942
atar 0.050209740203261195
atin 0.029332758491197188
aver@@ 0.019287057005535468
ayr@@ 0.04405571093406351
bab@@ 0.0310674421096186
berg@@ 0.023275885945787427
cav@@ 0.015577091197782746
cent@@ 0.008472604191170277
commercial 0.013780429008007437
conver@@ 0.011635987542964757
corpor@@ 0.02101095673114461
could 0.004317487922327602
course 0.009959811176323819
cro@@ 0.005754099573113371
dam 0.022994714578267586
dro@@ 0.008541858694171893
due 0.004153600323327753
eim 0.02084133546012314
ends 0.006179246786357238
enge 0.01648333754669545
ered 0.006079113664825361
eron 0.007543523688630537
essor 0.019113672732308393
etta 0.026115604776802494
etz@@ 0.006763564435136069
expression 0.02993923641095054
ext@@ 0.0064525040895974
fact 0.016231120406332507
father 0.005271302341163112
fig@@ 0.014595188707760633
final 0.003397975016100103
fis@@ 0.030850181124867794
fix@@ 0.01708465395531277
football 0.0043482454884531604
found@@ 0.012362993593751745
gemeinde 0.032338804749891994
gol@@ 0.010570638089892373
grap@@ 0.030925185463723973
grave 0.03288628796326275
hand@@ 0.004877588827997123
hara 0.10586797615253642
held 0.0037200550175323734
hui 0.01625434089332297
idence 0.023202605699026668
iga 0.02375441103089367
igg@@ 0.022961192998490518
ight@@ 0.018616338817298933
ilan 0.1184836967444852
illes 0.0208075408490184
important 0.006699031541451914
inas 0.014627337347193764
includes 0.010486515271498395
inge 0.028267722962636327
iro 0.019599139137956308
isch 0.003910647096563339
isl@@ 0.0169057792377435
itch 0.01760791811036386
ith@@ 0.038526766673926904
kas@@ 0.04247768170129955
kent 0.1399943900279858
kur@@ 0.007790548267626222
lad@@ 0.01255319349519408
lav 0.02765703650196942
mas 0.01534906319230169
meter 0.035515691849258645
nas@@ 0.0276593158606181
née 0.013881536143272694
officer 0.01655055598843064
olo 0.0220156285144478
otes 0.02967693665380289
pass@@ 0.004582076731118095
pend@@ 0.015567197946301268
pia 0.10124205609184987
près 0.0154652784372895
ree 0.019237392370266317
rik 0.0633216523014496
road 0.005916953950881766
rod@@ 0.043947431053045834
rot@@ 0.011706893756633514
rou@@ 0.009417814859425808
rés 0.024286776840728663
sat@@ 0.013197350094897255
sens@@ 0.028915374290670957
shows 0.011773456687945907
subst@@ 0.021866120539982548
technique 0.02241904323163579
techniques 0.02426111684918245
thor@@ 0.03130260057269875
tiques 0.024268539163642616
tot@@ 0.012038677751441544
trade 0.01590566957791534
transport 0.018924397255295832
tries 0.02807382561641976
tron@@ 0.01621483318549886
tun@@ 0.01312651422406071
uka 0.07008940311692229
uti@@ 0.011687356290257989
vin 0.020327468249013093
wen@@ 0.007447679563718917
éri@@ 0.005412984643165141
ě@@ 0.04782440879140371
İ@@ 0.021227370617964893
ın@@ 0.025917186931420026
ʿ@@ 0.09512744560487917
β 0.05379553112404353
ός 0.01708298158632938
в 0.0001676529011739777
ми 0.0026916832564448678
н@@ 0.0020987942262311824
ная 0.002422766490961076
т 0.0013280619354489882
ד 1
أما 0.16899427374296697
أمر 0.4478929437657508
إبراهيم 0.6047858560052922
ارًا 0.482464355327013
التعل@@ 0.6362731756193931
الخار@@ 0.522944404317653
الدراسات 0.4804983662138963
الذين 0.1143204371979399
الساد@@ 0.47039624422880627
السنة 0.4361616680218113
السوي@@ 0.43989969401312545
الشمال 0.5110008392155281
الماء 0.4532909262568497
النه@@ 0.19757835183507735
انية 0.07108867360601857
ضة 0.16672749790668673
لهم 0.3238513335230239
هة 0.16520599663834976
هول@@ 0.4469294371258122
وليس 0.5769538700373154
ܐ 1
जी 0.0850754668256962
त@@ 0.029066596259999456
ता@@ 0.054017323047483294
ब 0.03168980189155828
री 0.0301650718375371
ला 0.05056353481702916
व 0.013912034020886515
ु 0.1457076834392739
ા@@ 1
ର 1
ఖ@@ 1
మ@@ 1
ದ@@ 1
ಮ@@ 1
བ@@ 1
⭐ 1
の 0.3488107743222081
ス@@ 0.9983810446732674
天@@ 0.009917204053376472
ﭖ@@ 1
ﭴ@@ 1
ﮀ@@ 1
ﺙ 1
🌺 1
19th 0.016097295666564836
AG 0.020468405172323713
Administration 0.02500790143188222
Adri@@ 0.026822668352410567
Afgh@@ 0.09954592086436254
Arn@@ 0.019986525005598787
Arts 0.009700861979370388
Aun@@ 0.355858912684513
BT 0.041610636456446644
Best 0.009435195906880346
Bib@@ 0.066570787773767
Burundi 0.2163348147456388
Can 0.04550224541273089
Capit@@ 0.02903929189784875
Cem@@ 0.030034235107836284
Charl@@ 0.038546826836009386
Chr@@ 0.025630975563633692
Christi@@ 0.019512280761724766
Classi@@ 0.030743993193095356
Creek 0.015412310814338977
Dep@@ 0.022831383435086755
Dim@@ 0.05023448340635683
Direc@@ 0.016086912724410117
Down 0.03218787747608316
Early 0.007734176306829671
Fem@@ 0.030887236869139453
François 0.015459729007369553
Frederick 0.029209548902712913
Geor@@ 0.021600920717149228
Good 0.031839351904377006
HC 0.04739068164844677
Iron 0.039626451679866226
Kre@@ 0.01307279531067876
Laz@@ 0.06108121292628565
Let@@ 0.02806360484391517
Light 0.028595294586761598
Lit@@ 0.018780929726732044
Luf@@ 0.03084856696454354
Malaysia 0.035843789422728284
Maxim@@ 0.03131693573437915
Media 0.01605288244961025
Metro 0.03337502115309
Moore 0.028669253118355588
N.@@ 0.058440382088809716
Nach@@ 0.007317515452452908
Nich@@ 0.022233807204608443
Norte 0.029267234391583786
Ober@@ 0.004918343905818443
Pass@@ 0.021237421038836694
Pedro 0.017811541292439437
Provin@@ 0.026356182654894887
R.@@ 0.043646477461993446
Ross 0.03126045017269261
Rum@@ 0.026274071420101956
Sax@@ 0.0341265891485194
Special 0.02278521523452782
Strat@@ 0.03129824420669232
Techn@@ 0.015507557467056135
Tod@@ 0.014277085910139245
Unión 0.03064793189216008
Wan@@ 0.07910269866163441
Willi@@ 0.02886978551793697
Wis@@ 0.06335665580934946
Young 0.014130059116097268
accoun@@ 0.012106323158692334
adel@@ 0.026450605886015586
aden@@ 0.04807977175093793
aged 0.004773218279987854
agre@@ 0.007387722914303504
aham 0.019744649432052945
ahn 0.025300259435360073
alan@@ 0.02919578822098826
aland 0.1040138933576389
alit@@ 0.033103824458115154
anta 0.030789816193398212
anza 0.016863293145810577
apon 0.05723340249063599
aries 0.010174124784579509
attemp@@ 0.007311786012248379
bad@@ 0.030363767128869793
beck 0.036445827622302744
ben 0.0050414537537448656
best 0.005479989633379321
bio 0.03633381013729451
burn 0.03030886791152256
cho 0.003323651983384181
cia 0.01770928336809657
clus@@ 0.02193441698875883
compl@@ 0.005744883764144768
cord 0.021810438221972272
coron@@ 0.03911636997107848
crim@@ 0.019995025211772374
dam@@ 0.007831797400908343
degree 0.010371112565280364
diction 0.02646532434209932
doba 0.5537831495255607
dorf 0.014857832201429
dynam@@ 0.029725814449202335
early 0.003133701802956072
eaux 0.01489711887996253
eber@@ 0.03748904580354514
election 0.0047731013079107334
empl@@ 0.020373080946548945
ender@@ 0.028841082656859345
endi 0.06007905792211912
enter@@ 0.016942082809964967
esp@@ 0.005710985864954764
eur@@ 0.013662331084456903
feld 0.01230869936472756
financial 0.016913359697296883
five 0.004326494924228197
fle@@ 0.007563779488015712
found 0.003233705023247928
ged 0.009822538008798436
ging 0.007540604101911572
gol 0.047546030227670295
govern@@ 0.009753325454184244
groups 0.009726097788801126
half 0.006315942629308241
hari@@ 0.32824350713392125
head@@ 0.006346557921549077
hold 0.016981331367085538
hon@@ 0.010314569013732927
hyp@@ 0.026651391409480505
ied 0.009510289436056491
ig 0.008510257149328047
income 0.014874852596383669
kab@@ 0.03260742147494633
kul@@ 0.011308289791336516
lak@@ 0.04628436996328919
lave 0.03137146012375877
legal 0.010911211852757497
lery 0.019311814647761057
ligence 0.021860562154050602
little 0.013125358494863418
mani@@ 0.0259978538256899
mel 0.04159244203735769
mom@@ 0.028093867399278754
native 0.013890891112040183
nch@@ 0.01349469594983765
nit@@ 0.014541532787243289
non@@ 0.025263848539513606
numer@@ 0.03448800025629046
né 0.004870257992162555
oci@@ 0.04235827741884358
oja 0.10324723198696971
oral 0.03098598018526694
othe@@ 0.029380125719345142
ović 0.043248663414177026
pes 0.018838278322045432
phy@@ 0.031007355982744497
police 0.008868791600940583
pon 0.02017889749034673
pre 0.015270816333189441
program 0.007544192408660353
promot@@ 0.010015677260607153
quan 0.013734632871831541
rather 0.011755664349383488
refl@@ 0.017666525612334703
regular 0.010570959089441535
represent@@ 0.005205857633187975
rh@@ 0.022308871436495983
rich 0.018976192285617883
rid 0.034936642372440055
rie 0.018749420555279055
ris@@ 0.008431907296560423
s. 0.01687999547030408
saf@@ 0.013376947039571806
said 0.004396507447710772
sch 0.006606894252981879
sert 0.02319388909779298
short 0.007307436068002994
sid@@ 0.03576449593756704
sine 0.12203121732787733
sta@@ 0.02203141494921113
streng@@ 0.020196533425483613
sts 0.019343414370954402
sun@@ 0.020466152002941107
sus@@ 0.006307167605586049
tai 0.11742434881852817
tex@@ 0.010752986057163042
thre@@ 0.011069668044372916
tou@@ 0.011237608708207067
tras@@ 0.022192309341354965
tribu@@ 0.025270404131965428
tronic 0.027483754921220988
trop@@ 0.023005643317767246
unk@@ 0.008053338575363741
va@@ 0.048195910570608035
vey 0.014712149365853262
vier 0.006992464898531143
vit@@ 0.016783511043617277
wali 0.38330450214560885
wani 0.3061329498088311
ween 0.021779314297862624
zen@@ 0.019832631922321747
zz@@ 0.03324832624020121
ède 0.022163929352709593
ɑ 1
φ@@ 0.011332885426594939
Совет@@ 0.028727646736871698
е 0.0009168578749156703
ни 0.003924416138464956
э 0.0219635091333562
я@@ 0.002600673046349509
і 0.2926828151982678
أنه 0.06523512507808281
إليه 0.42802870891542405
ائيات 0.573425254787017
اعة 0.18304136500473428
الأص@@ 0.17859760468063016
التاريخ 0.24252845196535974
الخاص 0.442044995395633
جزاء 0.45401735402328697
غة 0.35031195121580955
لية 0.057501333310781104
مرة 0.10503691077259937
ولى 0.26856482878501586
يؤ@@ 0.4842242621517453
ः 0.3139578095176383
बा@@ 0.044360309553666204
या 0.020793155148394308
श@@ 0.043198419415913736
ং@@ 1
ই@@ 1
ক 1
ੈ 1
ପ@@ 1
ି 1
ெ@@ 1
ை@@ 1
ర@@ 1
ల@@ 1
ಾ@@ 1
ೆ 1
න 1
ර@@ 1
ས@@ 1
ლ@@ 0.567379989235094
ო@@ 0.7413888603218765
ṭ@@ 0.23438441019974743
ッ@@ 1
ン 0.31388553007411496
ー 0.26352956268254574
 1
ﮭ 1
﷾ 1
0.000 0.014559668039288202
Alabama 0.027780434434608064
Alan 0.026439406877043305
Ass@@ 0.03292191586237608
Bed@@ 0.01658964578701011
Berlin 0.005278573707470508
Bez@@ 0.020737012176221963
Bob@@ 0.025573147907083375
Britain 0.01575706846559051
Buc@@ 0.014784364716243012
Buch@@ 0.01308131540836508
Ciudad 0.029794191254024445
Culture 0.026929547051512095
Daniel 0.012250177354674908
Design 0.02315173791227891
Don 0.012658656063192504
Dream 0.04838723787732466
EC 0.04626223363511156
Et@@ 0.01509644777153175
Ever@@ 0.02021937491496293
Family 0.01709778625556215
Ferdinand 0.029941173625271808
Gas@@ 0.01779748027771285
Ges@@ 0.006701023208031985
Ghana 0.04724293092887258
Good@@ 0.02955934246157079
Henri 0.018854566608895
His@@ 0.027323319254279377
Hug@@ 0.017463276318334008
If 0.012735599137860607
Inc. 0.02448487650046119
Inf@@ 0.03783245483038249
Jesus 0.02700078168126777
Jordan 0.030227081772735528
Kent 0.03218961448589671
Kip@@ 0.22279308547239018
Linux 0.05117097634938349
Mark 0.010489558743551545
Marsh@@ 0.06356772158137383
Mek@@ 0.07080700212500059
Microsoft 0.02833257523374033
Ministr@@ 0.015741345053024543
Miss@@ 0.04240696184898587
Mod@@ 0.01181343730719535
Moon 0.03621011040301823
Ner@@ 0.039272071430020226
Ng@@ 0.018507495089321358
Nik@@ 0.024854874015712892
October 0.0028940001467403155
Olympic 0.01879025392691434
Over@@ 0.01960276215978457
Patr@@ 0.013457511305435467
Patri@@ 0.02855125324076469
Princip@@ 0.03585236212969014
Raf@@ 0.05481219158582308
Rho@@ 0.022349480830207515
Sa 0.01464551882718521
She 0.001928535679283281
Sky 0.03912997529309259
Stat@@ 0.03230729765046381
Stephen 0.02033894798302267
Sund@@ 0.017003280433145553
Super 0.012182508263774415
Television 0.02434776756340784
Tok@@ 0.06588474051342537
Up 0.0261702532292897
Video 0.02769779596144067
Vik@@ 0.022068986660940128
Wol@@ 0.013479273912121822
Yel@@ 0.03922808470842099
Yor@@ 0.019969762142887666
Zo@@ 0.03589112508409163
adr@@ 0.012881102677977136
agog@@ 0.021687721671870917
ails 0.01557564533194643
alter@@ 0.010987743193229888
amber 0.025007431821465153
ampa 0.03923211608177629
anni@@ 0.01915618517893583
aven 0.02742952872650945
aç@@ 0.015511535524903017
añ@@ 0.011955952419870236
aş@@ 0.025736761159632218
baz@@ 0.08283196319149032
bey 0.025367529533985023
bia 0.051481504970324
blu@@ 0.01363857367776458
bt 0.014616080767449647
conf@@ 0.005837604011819386
cos 0.0095555087420451
cour@@ 0.004346982915876979
cross 0.017252089061281384
cus@@ 0.00705260229960097
cá@@ 0.016694988387245122
developed 0.007226257395690636
dial 0.02692024201092593
eca 0.03129865476969637
ectu@@ 0.02073408385601459
eda 0.022095171373493188
eder@@ 0.011891782632409956
ei@@ 0.02257575115061742
encia 0.002819070219466387
ended 0.0036074984899954607
ender 0.0073701901828269155
endra 0.0340534277647688
enf@@ 0.0057843739027201
ensi@@ 0.02106018966050128
entes 0.003260032091340453
estr@@ 0.004384043730162332
exec@@ 0.01006387400929897
fall 0.007860883616607786
four 0.0026293180888543486
geb@@ 0.004719807328005615
gö@@ 0.035080124968475755
hab 0.05408687086749321
habitants 0.010952059900649527
hadi 0.2281864626162227
hak 0.17124476380789513
hil@@ 0.038140886988534496
hockey 0.018790808863755375
hr 0.029226454750952424
ias 0.013374203934842826
ift 0.028739974249756505
ilg@@ 0.056094385793602417
image 0.015781625883403427
imp@@ 0.005577435690019805
information 0.00820341910076329
infr@@ 0.019010709172153948
inga 0.05298412956890822
ingo 0.02561673479506533
integr@@ 0.009811684189670086
internet 0.040070530587160896
inus 0.032949194037470486
ised 0.007925098389199628
ishing 0.007198311123540148
ision 0.012085588756286167
isse 0.008649046794905595
issi@@ 0.12634231928678205
iterran@@ 0.027848119922452536
jun@@ 0.025788570923844047
kap@@ 0.015968308659642556
kazi 0.2860452210077481
kes@@ 0.02737641913823464
kn@@ 0.010439047086599415
kol@@ 0.019330883457322867
late 0.004915266275901351
lead@@ 0.007665812954207458
leader 0.011071101958603008
lus@@ 0.01020451349105039
meas@@ 0.01058413394319564
mm@@ 0.03574761704593421
moun@@ 0.009416005898803023
mouth 0.019823239794212306
nant 0.01472159372339417
nes@@ 0.0321866291160674
neu@@ 0.010500031684075423
next 0.00586114862838119
north 0.0050618410355687815
ogo 0.04286551072400775
organiz@@ 0.005397026231286579
orn 0.027974027021495193
ouver 0.031938888448379076
oz 0.032803384857569846
perial 0.018047878820225627
play@@ 0.014139737764528076
quanti@@ 0.024852932304528508
red@@ 0.013844779573400327
related 0.009946923262199692
rent 0.018558328486137525
respon@@ 0.008412093657742545
response 0.0153215345760382
return 0.008914782591445226
ric@@ 0.013350771026286378
rol 0.036728845953582445
sie 0.001254924542841291
sis 0.03595941636511219
some@@ 0.009700907994819673
sovi@@ 0.02483466272594413
stanbul 0.054105268283814824
stre@@ 0.0062283878223569214
strong 0.01048970285702739
syl@@ 0.04355756833975407
take 0.006165548276369572
teams 0.007280181090264078
tiers 0.031637670571991926
tière 0.03470761073141143
uer@@ 0.007534518152763119
uss 0.012730715041749444
verte@@ 0.02276001168281001
vil 0.01660436564948222
viol@@ 0.00585635624433458
wer@@ 0.003179945472860645
wn@@ 0.050725621116004815
writing 0.010297550797948361
yat 0.13792757856671026
ysi@@ 0.02995080471335864
zu 0.0006618037810673513
ä 0.05716706628684775
éch@@ 0.010785041358454454
öy 0.20734083856014587
ő@@ 0.11840698240034137
ɡ@@ 1
ɪ 1
ʊ 1
ː@@ 0.5373816891285762
Χ@@ 0.017873641154239537
β@@ 0.00945048079625256
δ@@ 0.011812340708603786
κ@@ 0.010500349372380195
С@@ 0.0017017583088728566
з@@ 0.002105614730396939
я 0.001526022736912348
қ@@ 0.9589448680154248
ү@@ 0.7270157150198832
ו 1
ءة 0.28600236137019824
أغ@@ 0.1255776157753094
أف@@ 0.23351844382000284
ألف 0.3479365220168981
إبرا@@ 1
الاسم 0.29687841352899963
الجنوب 0.4536612619809158
الرئ@@ 0.49328847649171803
الطبي@@ 0.2866681324299321
الكل@@ 0.4289874727013604
تصنيف 0.3257581294964934
ذج 0.29983973606420095
سوريا 0.49565820820168865
طريق 0.14136491462949105
فية 0.09607307025290432
كبي@@ 0.4264476675122214
كريست@@ 0.5319157753336221
مانيا 1
مكان 0.37291780009469633
مناطق 0.4009199243404123
نوات 0.4031639581338479
هاب 0.29810709976334576
والث@@ 0.4376429576486766
आ@@ 0.02780451216001024
ता 0.0274607033539977
ति@@ 0.07045937726452826
द 0.012341700621260067
रा@@ 0.02668595658711269
हि@@ 0.09996228121417665
ु@@ 0.14607635721930842
ভ@@ 1
ਖ@@ 1
ਟ@@ 1
କ@@ 1
ා@@ 1
ු@@ 1
უ@@ 0.9793636530449991
Ἰ@@ 1
‑ 0.2831807373020849
国 0.012963466920564664
本@@ 0.008423713392048858
ﮁ@@ 1
ﮝ@@ 1
ﮡ 1
ﯼ@@ 1
🌹 1
AV@@ 0.04473651480638347
Ankara 0.06205907979102292
Audi@@ 0.03265030898437907
August@@ 0.03221209560140139
BI 0.03018997518921997
Bass@@ 0.03311421482244764
Board 0.011860495303291344
Boliv@@ 0.036642203536617846
Born 0.018897643692354957
Bret@@ 0.05155434404803694
Broad@@ 0.024677178536324538
Bush 0.034876101382725844
Campbell 0.030914532487490032
Cass@@ 0.02346046788049649
Centr@@ 0.03756837466609106
Chelsea 0.05227891953254118
Chir@@ 0.04646032971261772
Cin@@ 0.016358150734379705
Congress 0.013102627997142898
Constant@@ 0.028831856012549978
Cros@@ 0.028560766830837192
Cru@@ 0.027697378594088568
Diam@@ 0.033090722109880136
ESCO 1
Exper@@ 0.030643021850600517
Fab@@ 0.02572871552807772
Franç@@ 0.027099224810933485
Fried@@ 0.012926985324874353
Friedrich 0.009987453115779654
Game 0.01597467710085811
Govern@@ 0.013084878215016646
Gros@@ 0.038431846925811704
His 0.0028840089336142484
Histor@@ 0.017388438845225347
Hospital 0.014059662226156322
Il 0.0010167375147727548
Israeli 0.03075628115206035
Jorge 0.03011099150358898
Jose@@ 0.033428041838304674
Jum@@ 0.0656470804411752
Jur@@ 0.018683402535881917
Kag@@ 0.09022567886031764
Last 0.03270694386336436
Leh@@ 0.020930273471316672
Leo 0.03622581060490542
Live 0.015096466140336095
MP 0.02124639905507486
Many 0.012105744355839372
Marc 0.028293598773579644
[...]
