, 1
. 1
в 1
и 1
на 1
@-@ 1
) 1
( 1
— 1
с 1
« 1
» 1
В 1
года 1
&quot; 0.31917419145824405
к 1
не 1
ной 1
по@@ 1
году 1
у@@ 1
м 1
по 1
с@@ 1
л 1
ль@@ 1
ных 1
на@@ 1
ли 1
не@@ 1
т 1
в@@ 1
ла 1
из 1
но 1
у 1
ре@@ 1
за@@ 1
ли@@ 1
ского 1
ного 1
ный 1
ской 1
ы 1
о@@ 1
до@@ 1
е 1
ни@@ 1
д@@ 1
: 1
ки 1
й 1
ные 1
т@@ 1
м@@ 1
был 1
про@@ 1
ский 1
а 1
со@@ 1
ка 1
ш@@ 1
я 1
при@@ 1
ро@@ 1
вы@@ 1
э@@ 1
за 1
н 1
от 1
что 1
но@@ 1
к@@ 1
ле@@ 1
та 1
ко@@ 1
С@@ 1
мо@@ 1
во@@ 1
ра@@ 1
л@@ 1
ж@@ 1
н@@ 1
ка@@ 1
й@@ 1
о 1
А@@ 1
ти@@ 1
де@@ 1
ри@@ 1
О@@ 1
ве@@ 1
ная 1
ет 1
х 1
ло@@ 1
ви@@ 1
р 1
б@@ 1
от@@ 1
его 1
ном 1
то@@ 1
для 1
д 1
ва@@ 1
и@@ 1
пере@@ 1
г@@ 1
а@@ 1
как 1
з@@ 1
он 1
го@@ 1
ма@@ 1
; 1
ль 1
те@@ 1
до 1
ции 1
ме@@ 1
ди@@ 1
ным 1
ю 1
ми 1
ч@@ 1
У@@ 1
ра 1
се@@ 1
И@@ 1
В@@ 1
нии 1
р@@ 1
лся 1
ния 1
п@@ 1
си@@ 1
ке 1
я@@ 1
та@@ 1
чи@@ 1
ное 1
да@@ 1
га@@ 1
ть 1
го 1
да 1
па@@ 1
г 1
том 1
ний 1
ских 1
Э@@ 1
ь@@ 1
ру@@ 1
ь 1
ми@@ 1
ны 1
ст@@ 1
ла@@ 1
су@@ 1
бо@@ 1
С 1
че@@ 1
К@@ 1
х@@ 1
е@@ 1
ф@@ 1
под@@ 1
ская 1
са@@ 1
бе@@ 1
П@@ 1
хо@@ 1
раз@@ 1
об@@ 1
во 1
ба@@ 1
также 1
Д@@ 1
ности 1
же 1
ется 1
ло 1
ском 1
ан@@ 1
са 1
де 1
ства 1
ё@@ 1
ков 1
сто@@ 1
ров 1
По@@ 1
ние 1
была 1
были 1
ку 1
ную 1
ку@@ 1
ма 1
ча@@ 1
Г@@ 1
ва 1
1 1
ром 1
жи@@ 1
ы@@ 1
ду@@ 1
пи@@ 1
было 1
Б@@ 1
ше@@ 1
лись 1
ют 1
Т@@ 1
ство 1
лась 1
из@@ 1
ле 1
те 1
ты 1
время 1
вер@@ 1
же@@ 1
пре@@ 1
ля@@ 1
ать 1
то 1
или 1
ги@@ 1
М@@ 1
ши@@ 1
ить 1
2 1
пу@@ 1
ста@@ 1
му 1
вой 1
ин@@ 1
при 1
Ка@@ 1
ными 1
пе@@ 1
тов 1
зо@@ 1
ц@@ 1
́ 1
сти@@ 1
нию 1
би@@ 1
пер@@ 1
Ко@@ 1
На@@ 1
га 1
ность 1
ды 1
ю@@ 1
ля 1
лен@@ 1
жа@@ 1
це@@ 1
ские 1
лось 1
ко 1
Ма@@ 1
му@@ 1
ци@@ 1
Н@@ 1
ен@@ 1
после 1
ар@@ 1
Л@@ 1
3 1
Р@@ 1
ское 1
ре 1
ня@@ 1
воз@@ 1
аль@@ 1
зи@@ 1
рас@@ 1
кой 1
ту@@ 1
На 1
ник 1
нов 1
мен@@ 1
ря@@ 1
ме 1
бу@@ 1
ти 1
ге@@ 1
их 1
А 1
Ф@@ 1
Е@@ 1
ем 1
ки@@ 1
ры@@ 1
вал 1
она 1
ат@@ 1
под 1
4 1
По 1
кон@@ 1
области 1
итель@@ 1
з 1
бы@@ 1
ским 1
ция 1
цы 1
ком 1
/ 0.8284104772660159
стра@@ 1
Ш@@ 1
того 1
ду 1
ге 1
ст 1
% 0.930732790321611
ления 1
лей 1
Со@@ 1
ша@@ 1
где 1
Ку@@ 1
её 1
км 1
лу@@ 1
лет 1
стро@@ 1
который 1
мы@@ 1
них 1
Х@@ 1
ско@@ 1
ха@@ 1
пред@@ 1
Са@@ 1
вания 1
вая 1
За@@ 1
ются 1
мы 1
более 1
З@@ 1
ников 1
5 1
со 1
Се@@ 1
ну@@ 1
ей 1
После 1
ни 1
рии 1
зна@@ 1
скую 1
стал 1
год 1
это 1
ры 1
Я@@ 1
ос@@ 1
лю@@ 1
нием 1
ц 1
дов 1
фи@@ 1
тре@@ 1
6 1
ска@@ 1
Ар@@ 1
гра@@ 1
ит@@ 1
К 1
щи@@ 1
сти 1
ран@@ 1
льно 1
щ@@ 1
льного 1
цию 1
ника 1
льной 1
сло@@ 1
ща@@ 1
России 1
рен@@ 1
является 1
рова@@ 1
вых 1
бы 1
мат@@ 1
вать 1
ван@@ 1
дом 1
ал@@ 1
ур@@ 1
льный 1
Ле@@ 1
ор@@ 1
ление 1
так 1
ту 1
ри 1
Де@@ 1
сть 1
ск@@ 1
которые 1
ён 1
ев 1
жен@@ 1
хи@@ 1
эк@@ 1
ца 1
б 1
тель@@ 1
нов@@ 1
пол@@ 1
ров@@ 1
Не@@ 1
человек 1
Ми@@ 1
ья 1
состоя@@ 1
Ю@@ 1
бра@@ 1
состав 1
ги 1
Бо@@ 1
ве 1
кра@@ 1
име@@ 1
Ба@@ 1
ней 1
ак@@ 1
льных 1
8 1
Про@@ 1
ер@@ 1
&amp; 0.9775958547414769
п 1
10 1
Пер@@ 1
7 1
лом 1
ях 1
зе@@ 1
боль@@ 1
ди 1
Ре@@ 1
вод@@ 1
Го@@ 1
рус@@ 1
гу@@ 1
вен@@ 1
Си@@ 1
Ро@@ 1
лё@@ 1
сов 1
Та@@ 1
только 1
вые 1
он@@ 1
И 1
вали 1
города 1
обще@@ 1
лов 1
ью 1
мер@@ 1
Ж@@ 1
чи 1
Ч@@ 1
Мо@@ 1
ствен@@ 1
Ли@@ 1
тан@@ 1
фе@@ 1
ет@@ 1
ники 1
17@@ 1
высо@@ 1
вого 1
тра@@ 1
дан@@ 1
ён@@ 1
ера 1
ному 1
тер@@ 1
ста 1
Су@@ 1
При@@ 1
СССР 1
ман@@ 1
ате@@ 1
род@@ 1
ке@@ 1
ден@@ 1
фо@@ 1
жения 1
цев 1
отде@@ 1
зы@@ 1
войны 1
фор@@ 1
Бе@@ 1
Ки@@ 1
До@@ 1
ев@@ 1
ще@@ 1
стве 1
глав@@ 1
авто@@ 1
тор@@ 1
кла@@ 1
когда 1
той 1
вание 1
се 1
ата@@ 1
Ме@@ 1
сы 1
цион@@ 1
пло@@ 1
него 1
вил 1
Па@@ 1
лин@@ 1
мая 1
сси@@ 1
То@@ 1
этого 1
О 1
сте@@ 1
воен@@ 1
вым 1
полу@@ 1
они 1
этом 1
годах 1
ход@@ 1
рия 1
лет@@ 1
вы 1
ком@@ 1
кан@@ 1
Но@@ 1
ня 1
ций 1
сла@@ 1
ис@@ 1
ств 1
ков@@ 1
9 1
сы@@ 1
района 1
использо@@ 1
выпу@@ 1
США 1
тиче@@ 1
ниче@@ 1
История 1
вич 1
оста@@ 1
Ра@@ 1
против 1
между 1
лан@@ 1
созда@@ 1
фа@@ 1
од@@ 1
нача@@ 1
стре@@ 1
Биография 1
це 1
мой 1
ч 1
сель@@ 1
составе 1
кар@@ 1
жение 1
20 1
ями 1
лу 1
зу@@ 1
лен 1
откры@@ 1
мест@@ 1
ство@@ 1
ках 1
части 1
ье 1
мира 1
Он 1
восто@@ 1
тив@@ 1
ёт 1
гор@@ 1
гла@@ 1
рован@@ 1
ок@@ 1
15 1
чной 1
пла@@ 1
евич 1
ба 1
лы 1
реки 1
вает 1
мини@@ 1
ших 1
Кар@@ 1
ато@@ 1
извест@@ 1
Ц@@ 1
тя@@ 1
вый 1
уч@@ 1
спо@@ 1
которых 1
ится 1
ками 1
годы 1
обра@@ 1
Га@@ 1
12 1
чтобы 1
нения 1
ро 1
льные 1
января 1
следу@@ 1
Бу@@ 1
Вы@@ 1
Му@@ 1
стар@@ 1
ником 1
вед@@ 1
все 1
около 1
16@@ 1
им@@ 1
Пре@@ 1
3@@ 0.9293433686094758
представ@@ 1
зан@@ 1
ющий 1
место 1
Мар@@ 1
лов@@ 1
ха 1
гре@@ 1
Ан@@ 1
поло@@ 1
им 1
свя@@ 1
гу 1
ж 1
районе 1
ему 1
Ви@@ 1
ём 1
цен@@ 1
июля 1
жде@@ 1
кре@@ 1
яв@@ 1
вое 1
У 1
Че@@ 1
века 1
ческих 1
кры@@ 1
скому 1
сер@@ 1
бер@@ 1
Ве@@ 1
г. 1
вши@@ 1
населения 1
пра@@ 1
зем@@ 1
Пе@@ 1
пар@@ 1
М 1
ати@@ 1
теле@@ 1
30 1
пор@@ 1
.@@ 1
вой@@ 1
чен@@ 1
ким 1
ск 1
мар@@ 1
ну 1
соб@@ 1
несколько 1
истори@@ 1
ством 1
через 1
сту@@ 1
ющих 1
послед@@ 1
декабря 1
пле@@ 1
ещё 1
работа@@ 1
жда@@ 1
сп@@ 1
уже 1
получил 1
2010 1
лем 1
ступ@@ 1
бли@@ 1
Ге@@ 1
располо@@ 1
которой 1
тен@@ 1
ческой 1
став@@ 1
часть 1
чно 1
марта 1
чем 1
которая 1
августа 1
побе@@ 1
занима@@ 1
тия 1
само@@ 1
над 1
рав@@ 1
сентября 1
ший 1
4@@ 0.9334996031591319
ван 1
Ру@@ 1
мор@@ 1
октября 1
рий 1
территории 1
Ди@@ 1
дии 1
апреля 1
спи@@ 1
кор@@ 1
па 1
Да@@ 1
Ха@@ 1
ш 1
своей 1
груп@@ 1
мя@@ 1
тро@@ 1
иг@@ 1
18 1
ительно 1
вра@@ 1
мов 1
Ва@@ 1
основ@@ 1
одно@@ 1
йской 1
вала 1
июня 1
два 1
11 1
лич@@ 1
испол@@ 1
сво@@ 1
может 1
вом 1
американ@@ 1
доро@@ 1
ше 1
нение 1
№ 1
един@@ 1
ву@@ 1
один 1
Ин@@ 1
ита@@ 1
шей 1
дво@@ 1
тур@@ 1
хозяй@@ 1
Ла@@ 1
ят 1
скими 1
си 1
16 1
25 1
ниях 1
стан@@ 1
других 1
ждения 1
лы@@ 1
приня@@ 1
затем 1
три 1
стов 1
совет@@ 1
луч@@ 1
ено 1
рабо@@ 1
дения 1
три@@ 1
обо@@ 1
каз@@ 1
ез@@ 1
бор@@ 1
ите@@ 1
ним 1
ты@@ 1
качестве 1
ф 1
П 1
прав@@ 1
ноября 1
Ни@@ 1
Население 1
нами 1
14 1
Лу@@ 1
группы 1
встре@@ 1
чер@@ 1
Ста@@ 1
кого 1
находится 1
Кон@@ 1
льная 1
район 1
Во@@ 1
чения 1
вместе 1
пя@@ 1
эн@@ 1
кол@@ 1
доб@@ 1
ору@@ 1
ру 1
поль@@ 1
поли@@ 1
февраля 1
Те@@ 1
ческого 1
дей@@ 1
сь 1
ча 1
нен@@ 1
рей@@ 1
дра@@ 1
ющи@@ 1
ственной 1
13 1
_ 1
слу@@ 1
сле@@ 1
гово@@ 1
I 0.6128607109175029
ких 1
Однако 1
ган@@ 1
рой 1
направ@@ 1
15@@ 0.9425073261740392
ёр@@ 1
17 1
однако 1
среди 1
сом 1
гру@@ 1
участие 1
От@@ 1
окру@@ 1
назва@@ 1
ственно 1
которого 1
итель 1
стат@@ 1
няя 1
кро@@ 1
дер@@ 1
составляет 1
Н 1
&#93; 1
&#91; 1
ся 1
способ@@ 1
5@@ 0.9327934177639936
- 0.3348912145072355
род 1
йского 1
дви@@ 1
работал 1
явля@@ 1
ностью 1
мати@@ 1
щен@@ 1
городе 1
бе 1
всех 1
город 1
вший 1
ян@@ 1
национа@@ 1
период 1
пря@@ 1
числе 1
вз@@ 1
мет@@ 1
0@@ 1
ённых 1
много@@ 1
вается 1
поч@@ 1
шла 1
Ти@@ 1
тин@@ 1
рин@@ 1
двух 1
вую 1
начала 1
ям 1
логи@@ 1
свою 1
ству@@ 1
осно@@ 1
цией 1
вос@@ 1
Ло@@ 1
начале 1
вар@@ 1
мом 1
ав@@ 1
все@@ 1
соответ@@ 1
строитель@@ 1
быть 1
грани@@ 1
стала 1
смо@@ 1
мо 1
19 1
годов 1
виде@@ 1
тся 1
ска 1
льное 1
этой 1
жизни 1
себя 1
счита@@ 1
ческий 1
Ри@@ 1
ско 1
рай@@ 1
йся 1
установ@@ 1
каза@@ 1
ться 1
пе 1
ули@@ 1
вя@@ 1
цу 1
шим 1
коман@@ 1
уда@@ 1
армии 1
использу@@ 1
цент@@ 1
своего 1
нее 1
гро@@ 1
призна@@ 1
название 1
кий 1
нах 1
есть 1
низ@@ 1
росси@@ 1
данным 1
лек@@ 1
называ@@ 1
За 1
современ@@ 1
ед@@ 1
времени 1
ца@@ 1
льным 1
сты@@ 1
шие 1
участ@@ 1
Би@@ 1
ман 1
шли 1
6@@ 0.9420935329078906
графи@@ 1
шёл 1
мм 1
шен@@ 1
без 1
всего 1
При 1
жил 1
24 1
2@@ 1
дней 1
ствует 1
жа 1
образо@@ 1
немец@@ 1
шта@@ 1
Это 1
актив@@ 1
станов@@ 1
йн 1
чных 1
коро@@ 1
мина@@ 1
имени 1
Лю@@ 1
конце 1
науч@@ 1
там 1
работы 1
метров 1
село 1
22 1
21 1
Бер@@ 1
сме@@ 1
деревня 1
человека 1
правитель@@ 1
чь 1
можно 1
шая 1
зе 1
вто@@ 1
рами 1
цо@@ 1
дости@@ 1
прове@@ 1
музы@@ 1
Москов@@ 1
2011 0.7907325398932664
чей 1
ды@@ 1
раз 1
язы@@ 1
Дж@@ 1
Во 1
Фран@@ 1
бан@@ 1
чего 1
ческие 1
опреде@@ 1
стер@@ 1
политиче@@ 1
Север@@ 1
еди@@ 1
рах 1
тру@@ 1
гда 1
ген@@ 1
чу@@ 1
ющие 1
2012 0.8430773970527096
кие 1
истории 1
Хо@@ 1
ем@@ 1
Аль@@ 1
систе@@ 1
програм@@ 1
жении 1
7@@ 0.924436346371173
тах 1
писал 1
сса 1
мени@@ 1
formula 1
много 1
год@@ 1
ек@@ 1
ер 1
2008 0.8568346232391137
Д 1
Об@@ 1
административ@@ 1
Пу@@ 1
проце@@ 1
S@@ 0.12235437370719507
горо@@ 1
ственный 1
2014 0.8298446711700292
2009 0.8462493726296785
Все@@ 1
вин@@ 1
Фи@@ 1
работ@@ 1
первый 1
ница 1
сс 1
тами 1
дой 1
кни@@ 1
государствен@@ 1
зии 1
ход 1
Р 1
gt 1
постро@@ 1
дь@@ 1
тем 1
Также 1
ству 1
23 1
лены 1
дне@@ 1
дол@@ 1
тор 1
II 1
имеет 1
лена 1
ёт@@ 1
этот 1
кая 1
началь@@ 1
Гу@@ 1
лина 1
выпол@@ 1
ходит 1
точ@@ 1
связи 1
вла@@ 1
шего 1
муниципа@@ 1
игра@@ 1
исследо@@ 1
круп@@ 1
коло@@ 1
кри@@ 1
сем@@ 1
следо@@ 1
бро@@ 1
суще@@ 1
Вер@@ 1
гар@@ 1
долж@@ 1
меся@@ 1
2007 0.8761112651617174
север@@ 1
lt 1
ша 1
вана 1
Ду@@ 1
стиче@@ 1
жена 1
составля@@ 1
Пет@@ 1
ден 1
2013 0.812415734500864
све@@ 1
2015 0.8043539339927331
зда@@ 1
Ал@@ 1
вался 1
бое@@ 1
об 1
эта@@ 1
8@@ 0.8935722638124933
ске 1
вше@@ 1
кур@@ 1
лей@@ 1
второй 1
э 1
тий 1
Ком@@ 1
нитель@@ 1
° 1
26 1
лями 1
Фе@@ 1
ый 1
террито@@ 1
2006 0.8720301465750397
объ@@ 1
рода 1
ниями 1
ходи@@ 1
прави@@ 1
Ша@@ 1
дро@@ 1
зы 1
води@@ 1
ителей 1
пис@@ 1
28 1
2002 1
город@@ 1
туры 1
14@@ 1
йский 1
ан 1
гов 1
Г 1
еся 1
Никола@@ 1
зер@@ 1
изда@@ 1
ще 1
част@@ 1
она@@ 1
международ@@ 1
кли@@ 1
зва@@ 1
ины 1
рок 1
мии 1
27 1
сред@@ 1
электро@@ 1
стали 1
ват@@ 1
чный 1
переписи 1
100 1
чет@@ 1
чил 1
вет@@ 1
хся 1
Его 1
сон 1
ун@@ 1
своих 1
тат@@ 1
2016 0.7698893148167593
отме@@ 1
бит@@ 1
2000 0.9621616570691754
тора 1
рак@@ 1
производ@@ 1
образом 1
ителем 1
чение 1
лия 1
буду@@ 1
другие 1
жи 1
француз@@ 1
ходе 1
дли@@ 1
сельского 1
которое 1
ника@@ 1
переда@@ 1
водо@@ 1
числен@@ 1
меня@@ 1
Пи@@ 1
игро@@ 1
тных 1
ху@@ 1
Ту@@ 1
над@@ 1
цар@@ 1
Ор@@ 1
руковод@@ 1
результате 1
хоро@@ 1
ью@@ 1
кло@@ 1
меда@@ 1
рев@@ 1
9@@ 0.796135970542304
50 1
нови@@ 1
щения 1
лии 1
пара@@ 1
ссии 1
спе@@ 1
владе@@ 1
заня@@ 1
сты 1
коми@@ 1
C 0.7844412352754949
собой 1
котором 1
вели@@ 1
запа@@ 1
фильм 1
принима@@ 1
одной 1
сре@@ 1
ющего 1
ющим 1
писа@@ 1
получи@@ 1
кова 1
образ@@ 1
центра 1
рон@@ 1
сотруд@@ 1
M@@ 0.13910149900828325
нима@@ 1
деся@@ 1
диа@@ 1
рес@@ 1
течение 1
… 1
официаль@@ 1
сен@@ 1
ть@@ 1
физи@@ 1
роль 1
одним 1
лишь 1
атов 1
специаль@@ 1
фак@@ 1
² 1
ых 1
награ@@ 1
чного 1
Украины 1
жё@@ 1
Для 1
стом 1
13@@ 1
пыта@@ 1
рий@@ 1
ши 1
очень 1
поселения 1
казыва@@ 1
хода 1
вопро@@ 1
анд@@ 1
син@@ 1
сня@@ 1
Крас@@ 1
утвер@@ 1
2017 0.758087693145292
проек@@ 1
су 1
посе@@ 1
льном 1
струк@@ 1
гии 1
прожи@@ 1
преде@@ 1
день 1
кру@@ 1
дия 1
ней@@ 1
ющей 1
стоя@@ 1
хи 1
страны 1
область 1
рования 1
живо@@ 1
сторо@@ 1
ССР 1
шин@@ 1
юго 1
Российской 1
вались 1
сборной 1
2005 0.902625689490148
дате@@ 1
Влади@@ 1
лении 1
The 0.04791066791894238
тов@@ 1
шения 1
ланд@@ 1
филь@@ 1
C@@ 0.12135850136066902
кт 1
ждение 1
вают 1
29 1
жены 1
вид@@ 1
ственных 1
стра 1
тие 1
ити@@ 1
ляется 1
зыва@@ 1
ктора 1
сил 1
право@@ 1
40 1
смерти 1
северо 1
уче@@ 1
интер@@ 1
мости 1
Александр 1
D@@ 0.12045700196121364
вате@@ 1
ственного 1
2018 0.6985704892131289
аться 1
центра@@ 1
2004 0.9344930904052505
Согласно 1
тон 1
государ@@ 1
бере@@ 1
начал 1
Росси@@ 1
сли 1
оказа@@ 1
Александ@@ 1
опера@@ 1
являются 1
нет 1
тар@@ 1
ссо@@ 1
тный 1
запад@@ 1
сбор@@ 1
нам 1
Бар@@ 1
округа 1
тё@@ 1
Б 1
оборо@@ 1
дах 1
дар@@ 1
уча@@ 1
сам 1
объек@@ 1
назначен 1
кое 1
разде@@ 1
Свя@@ 1
днее 1
спор@@ 1
кораб@@ 1
играл 1
пове@@ 1
Ке@@ 1
Кри@@ 1
щих 1
вших 1
сни@@ 1
ступил 1
нь 1
стри@@ 1
P@@ 0.1254903853262149
остро@@ 1
учё@@ 1
комму@@ 1
сов@@ 1
ски 1
ниям 1
ред@@ 1
1941 1
кто@@ 1
парти@@ 1
завер@@ 1
дами 1
клу@@ 1
фа 1
мир@@ 1
Ча@@ 1
рез@@ 1
Восто@@ 1
2001 1
месте 1
свой 1
кам 1
обеспе@@ 1
станции 1
даже 1
команды 1
чные 1
лах 1
вало 1
иде@@ 1
ологи@@ 1
ителя 1
шую 1
держа@@ 1
Республики 1
дру@@ 1
гер@@ 1
Ф 1
жд@@ 1
31 1
разме@@ 1
1990 1
роди@@ 1
первой 1
иться 1
муж@@ 1
тому 1
анти@@ 1
2019 0.7114322692580145
центр 1
предло@@ 1
уз@@ 1
ясь 1
рию 1
Бело@@ 1
фон@@ 1
выс@@ 1
вре@@ 1
председате@@ 1
тат 1
мента 1
могут 1
времен@@ 1
Кор@@ 1
служ@@ 1
чле@@ 1
мер 1
чная 1
церкви 1
нова 1
Л 1
ляр@@ 1
ряд 1
ённые 1
Пред@@ 1
’ 0.15573111535775933
появи@@ 1
кино@@ 1
согла@@ 1
тек@@ 1
партии 1
нем 1
град@@ 1
стороны 1
ад@@ 1
цами 1
али@@ 1
ева 1
народ@@ 1
вид 1
наход@@ 1
льную 1
нар@@ 1
важ@@ 1
две 1
пода@@ 1
наук 1
сс@@ 1
оп@@ 1
ё 1
университета 1
оло@@ 1
Совет@@ 1
англи@@ 1
сч@@ 1
свои 1
глу@@ 1
отноше@@ 1
мето@@ 1
Из 1
ься 1
компании 1
искус@@ 1
этих 1
стей 1
насел@@ 1
T@@ 0.10888425899833688
клуб 1
противо@@ 1
общи@@ 1
поэ@@ 1
будет 1
Юж@@ 1
юж@@ 1
закон@@ 1
нер 1
ровать 1
отли@@ 1
R@@ 0.11792453510285271
0 0.7672156218422841
сол@@ 1
сок 1
Ново@@ 1
входи@@ 1
музыка@@ 1
поз@@ 1
впервые 1
ённый 1
1944 1
L@@ 0.10601990053882411
дела@@ 1
менее 1
ново@@ 1
ся@@ 1
обла@@ 1
лли@@ 1
дает 1
бассе@@ 1
География 1
Хар@@ 1
зада@@ 1
F@@ 0.12135061300151449
ые 1
Ио@@ 1
Но 1
ографи@@ 1
рения 1
N@@ 0.13065429358083494
моло@@ 1
компози@@ 1
най@@ 1
личе@@ 1
Национа@@ 1
G@@ 0.12028344522023497
тон@@ 1
дат@@ 1
лод@@ 1
техниче@@ 1
лат@@ 1
аре@@ 1
форми@@ 1
бур@@ 1
например 1
существо@@ 1
ен 1
ус 1
золо@@ 1
вари@@ 1
спек@@ 1
тно 1
счит@@ 1
B@@ 0.10982254113588413
возмож@@ 1
мень@@ 1
родился 1
включа@@ 1
фина@@ 1
лой 1
тех@@ 1
обы@@ 1
выми 1
попа@@ 1
тот 1
писате@@ 1
ье@@ 1
бу 1
Кроме 1
ви 1
мент 1
Сер@@ 1
жан@@ 1
семье 1
нос@@ 1
Алексе@@ 1
чемпионате 1
риаль@@ 1
мента@@ 1
ницы 1
изобра@@ 1
щий 1
лл 1
объя@@ 1
ванием 1
гом 1
сезона 1
ора 1
Ги@@ 1
фици@@ 1
промышлен@@ 1
коне@@ 1
0,@@ 1
нала 1
Франции 1
Гор@@ 1
Т 1
назна@@ 1
ства@@ 1
группа 1
либо 1
голо@@ 1
ъ@@ 1
вшего 1
туре 1
образования 1
Ленин@@ 1
возвра@@ 1
ждён 1
лю 1
звание 1
Совета 1
дет@@ 1
благо@@ 1
совет 1
Европы 1
2020 0.6678253580772775
пес@@ 1
тил 1
уни@@ 1
берегу 1
ровал 1
количество 1
! 0.9219954163853873
Мак@@ 1
защит@@ 1
расска@@ 1
дина@@ 1
находи@@ 1
жителей 1
яр@@ 1
боле@@ 1
уров@@ 1
рь 1
командо@@ 1
дин@@ 1
сторон@@ 1
дебю@@ 1
генера@@ 1
хе@@ 1
площа@@ 1
шение 1
зов 1
перед 1
дение 1
если 1
зах@@ 1
рован 1
женщин 1
слова@@ 1
ёр 1
1999 1
мон@@ 1
древ@@ 1
необходи@@ 1
цкий 1
пли@@ 1
продолжа@@ 1
освобо@@ 1
вского 1
никами 1
вича 1
села 1
спа@@ 1
стрел@@ 1
br 1
заве@@ 1
Дже@@ 1
поте@@ 1
ья@@ 1
– 0.11289077270001956
ток 1
монасты@@ 1
эф@@ 1
ствии 1
коллек@@ 1
Ген@@ 1
верну@@ 1
че 1
системы 1
лением 1
1945 1
оз@@ 1
тура 1
онов 1
щение 1
учи@@ 1
одного 1
ву 1
нович 1
Ман@@ 1
часто 1
выступа@@ 1
компа@@ 1
дж@@ 1
Основ@@ 1
йских 1
вов 1
лами 1
уро@@ 1
нок 1
селе@@ 1
распростра@@ 1
ност@@ 1
действи@@ 1
рю@@ 1
сь@@ 1
Родился 1
всё 1
ваться 1
школы 1
источ@@ 1
1943 1
обнару@@ 1
E@@ 0.13894529063111055
пы 1
гон@@ 1
орга@@ 1
результ@@ 1
Входит 1
воло@@ 1
дву@@ 1
четы@@ 1
тной 1
плат@@ 1
проте@@ 1
60 1
окончил 1
нина 1
селе 1
борь@@ 1
бал@@ 1
кило@@ 1
большо@@ 1
ёз@@ 1
поме@@ 1
молод@@ 1
куль@@ 1
10@@ 0.9776049377524667
крити@@ 1
цов 1
цей 1
Государ@@ 1
опублико@@ 1
ску@@ 1
альбом 1
поддерж@@ 1
ковой 1
план@@ 1
управления 1
уго@@ 1
совер@@ 1
пора@@ 1
ческое 1
2003 0.8698648472935849
Чер@@ 1
H@@ 0.10384997585532761
Германии 1
кси@@ 1
пут@@ 1
Раз@@ 1
прода@@ 1
Мон@@ 1
клю@@ 1
ныне 1
обе@@ 1
художе@@ 1
публи@@ 1
служи@@ 1
мате@@ 1
празд@@ 1
средне@@ 1
подготов@@ 1
почти 1
Гер@@ 1
До 1
воро@@ 1
пы@@ 1
000 1
организации 1
нин@@ 1
детей 1
рович 1
каж@@ 1
ющая 1
вский 1
Санкт 1
чается 1
кими 1
раб@@ 1
меха@@ 1
нуж@@ 1
вновь 1
титу@@ 1
атом 1
пу 1
сад@@ 1
типа 1
чает 1
эти 1
факуль@@ 1
заклю@@ 1
Кры@@ 1
власти 1
широ@@ 1
хотя 1
тый 1
культуры 1
значитель@@ 1
дере@@ 1
игры 1
Запад@@ 1
нер@@ 1
брига@@ 1
представля@@ 1
жизнь 1
тер 1
реб@@ 1
Федерации 1
Дмит@@ 1
Од@@ 1
Как 1
худож@@ 1
памят@@ 1
честь 1
Из@@ 1
посвя@@ 1
ктор 1
рина 1
начина@@ 1
бю@@ 1
крас@@ 1
чемпионата 1
Москве 1
энер@@ 1
информа@@ 1
большой 1
сю@@ 1
хра@@ 1
площадь 1
W@@ 0.11910880587921349
больше 1
мь@@ 1
лено 1
Тур@@ 1
первые 1
бург@@ 1
имя 1
класси@@ 1
объеди@@ 1
Вен@@ 1
льского 1
вет 1
шло 1
Аб@@ 1
выбо@@ 1
Она 1
мен 1
губернии 1
общества 1
пен@@ 1
съ@@ 1
взя@@ 1
настоящее 1
тео@@ 1
значения 1
геро@@ 1
частности 1
ческая 1
гли 1
теат@@ 1
осуществ@@ 1
шил 1
людей 1
ятся 1
Рас@@ 1
соста@@ 1
A@@ 0.11591126392381577
дать 1
предприя@@ 1
ктором 1
сса@@ 1
льской 1
стер 1
исклю@@ 1
ены 1
обя@@ 1
воору@@ 1
британ@@ 1
кин 1
случа@@ 1
социаль@@ 1
Кур@@ 1
Май@@ 1
ита 1
12@@ 1
эле@@ 1
вол@@ 1
нём 1
зу 1
популяр@@ 1
клуба 1
генерал 1
фу@@ 1
организо@@ 1
лях 1
собствен@@ 1
ставля@@ 1
миче@@ 1
многих 1
простран@@ 1
готов@@ 1
евре@@ 1
автомоби@@ 1
слав@@ 1
замест@@ 1
прия@@ 1
пан@@ 1
чё@@ 1
ступа@@ 1
собы@@ 1
так@@ 1
стало 1
интере@@ 1
чески 1
жен 1
команди@@ 1
зву@@ 1
1980 1
кти@@ 1
миро@@ 1
Моск@@ 1
сохрани@@ 1
соеди@@ 1
второ@@ 1
архи@@ 1
оне 1
транспор@@ 1
мене@@ 1
импера@@ 1
деятельность 1
момент 1
1991 1
щая 1
полож@@ 1
самолё@@ 1
Рус@@ 1
ян 1
офи@@ 1
би 1
1992 1
Эн@@ 1
степени 1
членом 1
Гра@@ 1
бир@@ 1
ходят 1
“ 0.16147124352069464
Глав@@ 1
район@@ 1
наиболее 1
собра@@ 1
основном 1
стана 1
бло@@ 1
уста@@ 1
работу 1
льский 1
мировой 1
сан@@ 1
различных 1
сезоне 1
профессиона@@ 1
жур@@ 1
успе@@ 1
пун@@ 1
независи@@ 1
права 1
требо@@ 1
Уи@@ 1
лев@@ 1
ради@@ 1
гов@@ 1
дивизии 1
большин@@ 1
реги@@ 1
XIX 1
нес@@ 1
вёр@@ 1
временно 1
нор@@ 1
ностей 1
Евро@@ 1
Вол@@ 1
Боль@@ 1
хот@@ 1
лка 1
лок 1
авиа@@ 1
цкого 1
шко@@ 1
уме@@ 1
должность 1
Воз@@ 1
входит 1
вне@@ 1
1942 1
дире@@ 1
проводи@@ 1
Великой 1
первого 1
йн@@ 1
регу@@ 1
ходя@@ 1
совета 1
шем 1
кресть@@ 1
матче 1
различ@@ 1
пунк@@ 1
Ши@@ 1
недо@@ 1
вле@@ 1
зар@@ 1
бри@@ 1
s 0.04977873997811193
услови@@ 1
ктов 1
+ 1
решение 1
стью 1
принял 1
1960 1
нескольких 1
Отечественной 1
вшие 1
граждан@@ 1
содержа@@ 1
шу@@ 1
поги@@ 1
здесь 1
канди@@ 1
дал 1
таких 1
чемпи@@ 1
Пар@@ 1
1970 1
литератур@@ 1
мин@@ 1
кин@@ 1
Бы@@ 1
своим 1
ыва@@ 1
лению 1
вской 1
тысяч 1
Ива@@ 1
шее 1
лых 1
хан@@ 1
Так 1
вили 1
экономиче@@ 1
Красно@@ 1
создан@@ 1
Поз@@ 1
ступи@@ 1
щие 1
Ше@@ 1
нал 1
располага@@ 1
бле@@ 1
разработ@@ 1
ствуют 1
бой 1
70 1
своё 1
гло@@ 1
комплек@@ 1
емых 1
зон@@ 1
новых 1
лег@@ 1
моря 1
бин@@ 1
дены 1
экономи@@ 1
действия 1
украин@@ 1
зма 1
специали@@ 1
рование 1
Коро@@ 1
внутрен@@ 1
музе@@ 1
ню 1
инжен@@ 1
ранее 1
шед@@ 1
Хи@@ 1
Я 1
примерно 1
милли@@ 1
верх@@ 1
отсут@@ 1
новой 1
советский 1
лин 1
рует 1
держи@@ 1
сдела@@ 1
80 1
линии 1
войск 1
ствовал 1
Рабо@@ 1
щего 1
технологи@@ 1
веду@@ 1
мена 1
рово@@ 1
джа@@ 1
жено 1
Фа@@ 1
сам@@ 1
футбо@@ 1
совмест@@ 1
„ 0.2198920343043299
мей@@ 1
турни@@ 1
помо@@ 1
фильма 1
бил 1
проходи@@ 1
логии 1
первым 1
измене@@ 1
Сан@@ 1
вшись 1
1998 0.9001783437450996
участвовал 1
дома 1
допол@@ 1
чу 1
произо@@ 1
персона@@ 1
уез@@ 1
бка 1
Чи@@ 1
тного 1
симво@@ 1
вила 1
чемпиона@@ 1
лла 1
лий 1
сою@@ 1
формы 1
наблю@@ 1
Пере@@ 1
самого 1
трёх 1
реда@@ 1
пов 1
тина 1
участи@@ 1
серии 1
пти@@ 1
названием 1
чном 1
число 1
мно@@ 1
приве@@ 1
образование 1
полага@@ 1
пат@@ 1
дивизи@@ 1
Союза 1
позволя@@ 1
1930 1
1994 1
зи 1
концер@@ 1
дам 1
1,@@ 1
полка 1
Нью 1
us 0.1306905191703604
of 0.009533788096296495
новый 1
отправ@@ 1
Ак@@ 1
лько 1
н. 1
1997 0.9606551059556799
емо@@ 1
лер 1
которую 1
возрасте 1
причи@@ 1
кс 1
которым 1
прин@@ 1
Пав@@ 1
функ@@ 1
Владимир 1
ул 1
1996 0.9536892414038153
посё@@ 1
преж@@ 1
III 1
позже 1
воды 1
тировал 1
1995 1
Николай 1
получила 1
Сте@@ 1
2021 0.6662573080304722
виде 1
упомина@@ 1
жением 1
ут@@ 1
дри@@ 1
вышел 1
очеред@@ 1
влия@@ 1
этому 1
Ир@@ 1
мину@@ 1
Поль@@ 1
ители 1
ём@@ 1
звез@@ 1
учеб@@ 1
ряда 1
фото@@ 1
мать 1
квар@@ 1
слож@@ 1
Гре@@ 1
убе@@ 1
жо@@ 1
лите@@ 1
ссе 1
Сем@@ 1
Мин@@ 1
Гри@@ 1
помощ@@ 1
полностью 1
сын 1
печат@@ 1
Ос@@ 1
V@@ 0.11958614564121048
нове@@ 1
убий@@ 1
1920 1
нил 1
пру@@ 1
ию@@ 1
городской 1
сра@@ 1
деятельности 1
игр 1
люб@@ 1
мах 1
вонача@@ 1
Под@@ 1
мас@@ 1
деревни 1
Казах@@ 1
особ@@ 1
спу@@ 1
мощ@@ 1
чёр@@ 1
зая@@ 1
вернулся 1
провод@@ 1
пробле@@ 1
1993 1
зал 1
Центра@@ 1
скоро@@ 1
Пра@@ 1
продол@@ 1
исследовате@@ 1
ённого 1
показа@@ 1
рей 1
бар@@ 1
уничто@@ 1
вно 1
гг 1
юри@@ 1
случае 1
йна 1
стен@@ 1
Вели@@ 1
ённой 1
ил 1
член 1
закры@@ 1
первых 1
XX 1
бург 1
см 1
лья@@ 1
лович 1
без@@ 1
организа@@ 1
йская 1
дальней@@ 1
лян@@ 1
вну@@ 1
япон@@ 1
рь@@ 1
конструк@@ 1
имено@@ 1
валась 1
желез@@ 1
федера@@ 1
др 1
зат@@ 1
вян@@ 1
вое@@ 1
крат@@ 1
тин 1
получа@@ 1
пись@@ 1
женный 1
сматри@@ 1
контро@@ 1
выра@@ 1
городского 1
многие 1
знач@@ 1
ник@@ 1
млн 1
Второй 1
гори@@ 1
Был 1
нару@@ 1
против@@ 1
альбома 1
железнодорож@@ 1
мужчин 1
&apos; 0.08343114440741234
еты 1
тых 1
провёл 1
жений 1
стр 1
види@@ 1
срав@@ 1
гла 1
уезда 1
зако@@ 1
мин 1
уси@@ 1
ётся 1
прекра@@ 1
ментов 1
Петер@@ 1
Когда 1
Они 1
вии 1
Дан@@ 1
щей 1
менты 1
соци@@ 1
чат@@ 1
1989 1
чался 1
35 1
четыре 1
места 1
ох@@ 1
артилле@@ 1
империи 1
пос@@ 1
K@@ 0.09000122876020078
подоб@@ 1
Международ@@ 1
кино 1
вдо@@ 1
материа@@ 1
руководством 1
себе 1
уве@@ 1
хар@@ 1
Чемпи@@ 1
1950 1
O@@ 0.12698103780873832
тные 1
нового 1
напа@@ 1
отно@@ 1
душ@@ 1
дил 1
фра@@ 1
хов 1
эй@@ 1
тии 1
Олимпийских 1
некоторые 1
основа@@ 1
гри@@ 1
гну@@ 1
ствия 1
лиза@@ 1
1940 1
плани@@ 1
мян@@ 1
Сре@@ 1
полити@@ 1
ката@@ 1
некоторых 1
Кла@@ 1
движения 1
произ@@ 1
ара 1
держ@@ 1
связан@@ 1
ваний 1
еписко@@ 1
Тру@@ 1
помощью 1
вор@@ 1
круг 1
шки 1
Бра@@ 1
шан@@ 1
ап@@ 1
Спи@@ 1
приз@@ 1
твер@@ 1
куп@@ 1
население 1
выде@@ 1
песни 1
y 0.023259796598087554
реали@@ 1
основе 1
надц@@ 1
йти 1
Андре@@ 1
= 0.5811052868787571
ствие 1
зависи@@ 1
веке 1
произве@@ 1
ино@@ 1
дь 1
нин 1
присоеди@@ 1
восстанов@@ 1
дер 1
треть@@ 1
Ху@@ 1
лова 1
видов 1
пас@@ 1
чить 1
Среди 1
чки 1
мя 1
хов@@ 1
церковь 1
развития 1
рал@@ 1
рам 1
ана 1
поскольку 1
Михай@@ 1
сельсовета 1
Тре@@ 1
итальян@@ 1
культур@@ 1
Мат@@ 1
государственного 1
ито@@ 1
Иван 1
работ 1
2,@@ 1
кую 1
завое@@ 1
удалось 1
Зе@@ 1
кафед@@ 1
жды 1
включая 1
рамках 1
заво@@ 1
лый 1
тогда 1
док 1
сами 1
чка 1
сфер@@ 1
длин@@ 1
кня@@ 1
ьи 1
циях 1
нией 1
удо@@ 1
Кан@@ 1
лые 1
Тро@@ 1
вшей 1
дороги 1
мана 1
протя@@ 1
Василь@@ 1
общ@@ 1
арти@@ 1
одна 1
языка 1
1918 1
ран 1
90 1
восста@@ 1
ху 1
играх 1
заме@@ 1
расте@@ 1
острова 1
1939 1
версии 1
Пло@@ 1
имеют 1
Нор@@ 1
тем@@ 1
дин 1
возгла@@ 1
орде@@ 1
бо 1
академии 1
Сто@@ 1
млад@@ 1
Затем 1
выше 1
инте@@ 1
княз@@ 1
сце@@ 1
студен@@ 1
реше@@ 1
ую 1
окончания 1
Англи@@ 1
друго@@ 1
чным 1
Вар@@ 1
руко@@ 1
другой 1
ёж@@ 1
компания 1
деревне 1
библиоте@@ 1
корот@@ 1
дат 1
вода 1
такие 1
ене@@ 1
ними 1
стя 1
маши@@ 1
внеш@@ 1
стан 1
учре@@ 1
полови@@ 1
самых 1
дел 1
относ@@ 1
Большо@@ 1
коле@@ 1
Ай@@ 1
поле 1
конца 1
йском 1
обычно 1
Эр@@ 1
арми@@ 1
голов@@ 1
Ст@@ 1
казом 1
поез@@ 1
тирова@@ 1
института 1
лага@@ 1
ано 1
Администра@@ 1
положение 1
войска 1
льными 1
руется 1
вариан@@ 1
джи@@ 1
расши@@ 1
благодаря 1
Сред@@ 1
дале@@ 1
тех 1
медицин@@ 1
Е 1
река 1
Хе@@ 1
устрой@@ 1
бом 1
вод 1
чины 1
совершен@@ 1
Дэ@@ 1
Дру@@ 1
I@@ 0.1653109994257151
тыс. 1
? 1
сообще@@ 1
ря 1
рая 1
дю@@ 1
актё@@ 1
союз@@ 1
Ок@@ 1
университете 1
моде@@ 1
гия 1
ственным 1
Мор@@ 1
шка 1
низа@@ 1
май@@ 1
Фё@@ 1
разу 1
тай@@ 1
гля@@ 1
европей@@ 1
A 0.13227018501871518
здание 1
фон 1
чением 1
дели@@ 1
мия 1
фестива@@ 1
поэтому 1
чис@@ 1
ческом 1
дена 1
шо@@ 1
вета 1
вати@@ 1
настоя@@ 1
дис@@ 1
200 1
пользо@@ 1
выступи@@ 1
степен@@ 1
Пари@@ 1
Кре@@ 1
сли@@ 1
упо@@ 1
ими 1
школу 1
присут@@ 1
мимо 1
мире 1
выступал 1
тая 1
рос@@ 1
чик 1
Тер@@ 1
Амери@@ 1
опы@@ 1
работе 1
цкой 1
попы@@ 1
школе 1
тво@@ 1
апре@@ 1
архитек@@ 1
став 1
нали@@ 1
ющее 1
побед@@ 1
жу@@ 1
роли 1
Кара@@ 1
ана@@ 1
кает 1
перешёл 1
двигате@@ 1
безопас@@ 1
зин@@ 1
тивный 1
оцен@@ 1
тона 1
пригла@@ 1
моно@@ 1
ландии 1
кат@@ 1
лож@@ 1
чай@@ 1
количе@@ 1
прово@@ 1
участво@@ 1
происхо@@ 1
юще@@ 1
покин@@ 1
1@@ 1
вшая 1
провинции 1
радио@@ 1
пози@@ 1
лица 1
самым 1
ссе@@ 1
ква@@ 1
Шу@@ 1
45 1
коль@@ 1
национальной 1
реш@@ 1
a 0.009317837737244759
жей 1
чены 1
вании 1
соби@@ 1
нат 1
чен 1
режи@@ 1
Жи@@ 1
Первый 1
главным 1
атам 1
кина 1
ваются 1
тической 1
анали@@ 1
чное 1
20@@ 0.7837015776133383
постав@@ 1
З 1
32 1
вклю@@ 1
храни@@ 1
Акаде@@ 1
края 1
меж@@ 1
позиции 1
Иванович 1
языке 1
Гар@@ 1
зации 1
мир 1
ался 1
королев@@ 1
округ 1
формирова@@ 1
1917 1
кана@@ 1
нем@@ 1
команда 1
полно@@ 1
хом 1
обви@@ 1
согласно 1
нике 1
постоян@@ 1
искусства 1
земли 1
ума 1
тная 1
ственные 1
йки 1
производства 1
скры@@ 1
секретар@@ 1
поселение 1
Мэ@@ 1
разру@@ 1
сной 1
впоследствии 1
лез@@ 1
должен 1
близ@@ 1
частью 1
два@@ 1
тол@@ 1
части@@ 1
свобо@@ 1
новые 1
иностран@@ 1
российский 1
герцо@@ 1
фер@@ 1
происходит 1
област@@ 1
кров@@ 1
гие 1
христи@@ 1
Зем@@ 1
циона@@ 1
сентябре 1
ас@@ 1
Кита@@ 1
сия 1
Окон@@ 1
продук@@ 1
присво@@ 1
февра@@ 1
предо@@ 1
органи@@ 1
кита@@ 1
мнению 1
вызва@@ 1
язык 1
щую 1
сим@@ 1
Сы@@ 1
форма@@ 1
Михаил 1
полк 1
Институ@@ 1
создания 1
ответ@@ 1
стви@@ 1
стран 1
щен 1
тые 1
1988 0.9331056251595847
серебря@@ 1
нему 1
ент@@ 1
крепо@@ 1
свиде@@ 1
уби@@ 1
мета@@ 1
ческим 1
мае 1
волости 1
спорта 1
всей 1
завод 1
карьеру 1
баталь@@ 1
− 1
другими 1
смер@@ 1
дже@@ 1
Верховного 1
дово@@ 1
Лон@@ 1
дек@@ 1
состоит 1
лки 1
неё 1
избран 1
става 1
январе 1
составляло 1
Чу@@ 1
отношения 1
рова 1
данных 1
трене@@ 1
театра 1
риа@@ 1
должности 1
выстав@@ 1
рим@@ 1
постанов@@ 1
Бал@@ 1
the 0.00406520703552108
особенно 1
целью 1
профессор 1
номе@@ 1
Великобрита@@ 1
имел 1
ото@@ 1
они@@ 1
профессо@@ 1
поддержи@@ 1
строе@@ 1
Джо@@ 1
капита@@ 1
метал@@ 1
фек@@ 1
фрон@@ 1
марте 1
ым 1
деятель 1
принадле@@ 1
Ниж@@ 1
Сергей 1
зиден@@ 1
рёх@@ 1
кто 1
чел 1
образова@@ 1
чена 1
ори@@ 1
вскоре 1
вез@@ 1
коммуны 1
каз 1
возра@@ 1
нении 1
аэро@@ 1
именно 1
Занима@@ 1
гне@@ 1
нан@@ 1
температура 1
дан 1
сыграл 1
Москва 1
поро@@ 1
еже@@ 1
станция 1
неболь@@ 1
расположен 1
сохра@@ 1
выступ@@ 1
дня 1
сро@@ 1
рез 1
конкур@@ 1
памя@@ 1
посёлок 1
ваны 1
Пос@@ 1
октябре 1
короля 1
занял 1
КП@@ 1
РФ 1
продолж@@ 1
РСФСР 1
хии 1
фильме 1
государства 1
инстру@@ 1
жела@@ 1
первом 1
чие 1
августе 1
дре@@ 1
Сан 1
деб@@ 1
мость 1
юр@@ 1
рее@@ 1
карьер@@ 1
декабре 1
проект 1
тки 1
Италии 1
следующие 1
Петербур@@ 1
снова 1
остав@@ 1
зано 1
рядом 1
институт 1
семьи 1
возможно 1
альбо@@ 1
чув@@ 1
математи@@ 1
Кра@@ 1
священ@@ 1
кажд@@ 1
депут@@ 1
поверх@@ 1
Робер@@ 1
тран@@ 1
сток 1
каче@@ 1
сай@@ 1
запре@@ 1
дел@@ 1
револю@@ 1
возможность 1
пита@@ 1
семейства 1
приобре@@ 1
гося 1
относится 1
нюю 1
имен@@ 1
тур 1
нению 1
образу@@ 1
том@@ 1
право 1
массо@@ 1
противника 1
озна@@ 1
Же@@ 1
ал 1
on 0.021729998195719354
обре@@ 1
этим 1
микро@@ 1
тюр@@ 1
умер 1
служил 1
газ@@ 1
преимуще@@ 1
Бур@@ 1
Этот 1
ковского 1
русской 1
пехот@@ 1
чита@@ 1
команду 1
расстоянии 1
хро@@ 1
подчи@@ 1
ата 1
рит 1
опис@@ 1
щена 1
соревнова@@ 1
65 1
учения 1
Фер@@ 1
женщины 1
Анто@@ 1
челове@@ 1
1938 1
перееха@@ 1
режиссё@@ 1
Все 1
футболь@@ 1
Воен@@ 1
находился 1
неф@@ 1
изо@@ 1
Япо@@ 1
емые 1
ковых 1
правления 1
1937 1
двумя 1
контракт 1
тата 1
выигра@@ 1
книги 1
губер@@ 1
зм 1
востоку 1
пит@@ 1
достато@@ 1
отца 1
Виль@@ 1
поня@@ 1
повы@@ 1
3,@@ 1
рал 1
чих 1
вида 1
мся 1
управля@@ 1
сборную 1
Несмотря 1
Екате@@ 1
Украи@@ 1
представляет 1
вве@@ 1
йские 1
деж@@ 1
крупней@@ 1
проис@@ 1
журнали@@ 1
долларов 1
рян@@ 1
журна@@ 1
лям 1
1986 0.9334258770228239
фикации 1
дино@@ 1
ьера 1
середине 1
службу 1
ющем 1
i 0.1051012620912976
ски@@ 1
православ@@ 1
ните@@ 1
уровнем 1
состав@@ 1
кле@@ 1
Александра 1
июле 1
подразде@@ 1
наро@@ 1
церков@@ 1
дя 1
школа 1
премии 1
тела 1
гель@@ 1
Располо@@ 1
испан@@ 1
корпуса 1
емый 1
напис@@ 1
75 1
Гру@@ 1
значение 1
силы 1
бор 1
S 0.4002378431152802
западу 1
алистиче@@ 1
мской 1
лес@@ 1
Ря@@ 1
нен 1
1987 0.9181087650180452
V 0.5736805984644721
региона@@ 1
вка 1
двор@@ 1
кладбище 1
риал@@ 1
1919 1
операции 1
проекта 1
U@@ 0.14768395476884266
бело@@ 1
цве@@ 1
Джа@@ 1
разви@@ 1
обору@@ 1
граф@@ 1
психо@@ 1
гой 1
1985 0.941340845439903
1946 1
отец 1
Испа@@ 1
столи@@ 1
разо@@ 1
любо@@ 1
час 1
эпо@@ 1
литера@@ 1
Описание 1
Сло@@ 1
домаш@@ 1
бок 1
скон@@ 1
жили 1
Министер@@ 1
сей@@ 1
шах@@ 1
Поли@@ 1
гвардей@@ 1
стро 1
шо 1
Им@@ 1
36 1
64 1
хоронен 1
ситуа@@ 1
лед@@ 1
дипло@@ 1
бре@@ 1
E 0.39513206096852777
подо@@ 1
москов@@ 1
нова@@ 1
поряд@@ 1
Зна@@ 1
500 0.9143857980061207
университет 1
37 1
произведе@@ 1
пор 1
ау@@ 1
известно 1
камен@@ 1
система 1
дов@@ 1
руб@@ 1
природ@@ 1
серта@@ 1
традицион@@ 1
избира@@ 1
раун@@ 1
&#124; 0.8188382380685093
33 1
изи@@ 1
B 0.30058547543711245
1965 1
друг 1
поле@@ 1
запис@@ 1
Ис@@ 1
дор 1
помощи 1
сел@@ 1
други@@ 1
нико@@ 1
Иль@@ 1
Фор@@ 1
оке@@ 1
зей 1
чин@@ 1
карь@@ 1
сен 1
ябре 1
рио@@ 1
принци@@ 1
АН 1
дон@@ 1
бъ@@ 1
позволи@@ 1
оби@@ 1
отра@@ 1
поста@@ 1
лон@@ 1
стату@@ 1
т. 1
1984 0.899467380175168
чемпио@@ 1
даль@@ 1
Мари@@ 1
ристи@@ 1
свет@@ 1
пизо@@ 1
34 1
доку@@ 1
1979 0.9747961628985167
лью 1
рат 1
1966 1
сто 1
ам@@ 1
вс@@ 1
Син@@ 1
Цер@@ 1
Серге@@ 1
институ@@ 1
сыгра@@ 1
38 1
практи@@ 1
c 0.10727814582866231
1968 1
цвет@@ 1
1975 0.9474045409831203
Ль@@ 1
Пор@@ 1
Ран@@ 1
сона 1
1926 1
ордена 1
ны@@ 1
ери 1
Джон 1
СС 1
Азербай@@ 1
X 0.6661584439978129
1948 1
удосто@@ 1
лосо@@ 1
пера@@ 1
око@@ 1
дерев@@ 1
Бол@@ 1
соз@@ 1
бронзо@@ 1
архите@@ 1
евна 1
Ам@@ 1
карти@@ 1
духов@@ 1
зам@@ 1
ане 1
отве@@ 1
рен 1
особен@@ 1
1963 1
вато@@ 1
цо 1
рели@@ 1
комитета 1
отказа@@ 1
1973 1
Рес@@ 1
училище 1
лле@@ 1
лиш@@ 1
1976 0.9777363478251789
приме@@ 1
практически 1
лега@@ 1
ари 1
носи@@ 1
тически 1
макси@@ 1
рил 1
Воро@@ 1
отличие 1
бира@@ 1
граф 1
Извест@@ 1
стой 1
начало 1
Дон@@ 1
веще@@ 1
1959 1
кир@@ 1
град 1
1972 0.9294856582425455
похо@@ 1
Пол@@ 1
руп@@ 1
хе 1
впа@@ 1
спеди@@ 1
фронта 1
писи 1
президента 1
стин@@ 1
1971 0.9759391161743056
социа@@ 1
1958 1
Олимпи@@ 1
1956 1
Украин@@ 1
Климат 1
слав 1
1982 0.8995375200705241
Исто@@ 1
ску 1
заслу@@ 1
спорт@@ 1
рин 1
вёл 1
Фин@@ 1
тради@@ 1
сезон 1
демон@@ 1
ограни@@ 1
Благо@@ 1
ато 1
порт 1
всем 1
J@@ 0.09057373125282446
кам@@ 1
пят@@ 1
ково 1
1974 0.9417872771362987
x 0.17054324876774465
Рай@@ 1
синг@@ 1
1929 1
ид@@ 1
лял 1
увели@@ 1
оце@@ 1
тет 1
вместо 1
1983 0.8843470516000058
1978 0.938411564398618
Член 1
реша@@ 1
управ@@ 1
авиацион@@ 1
самы@@ 1
in 0.005712184629517097
ент 1
Бел@@ 1
бов 1
1981 0.8911172335828239
фин@@ 1
улица 1
Воло@@ 1
охра@@ 1
1967 1
стандар@@ 1
копи@@ 1
Филип@@ 1
рик 1
свобод@@ 1
издате@@ 1
демокра@@ 1
гене@@ 1
прото@@ 1
1954 1
1964 1
1957 1
маршру@@ 1
вер 1
жени@@ 1
рато@@ 1
рази@@ 1
IV 1
ниц 1
Миха@@ 1
00@@ 1
стояние 1
Тор@@ 1
цер@@ 1
Фо@@ 1
ган 1
фир@@ 1
гна@@ 1
1962 1
тал 1
клад@@ 1
автор 1
5,@@ 1
рёх 1
взаимо@@ 1
маги@@ 1
ог@@ 1
дий 1
1949 1
дно 1
мед@@ 1
препода@@ 1
повто@@ 1
неде@@ 1
внимание 1
завода 1
сте 1
комп@@ 1
дено 1
турнира 1
XVIII 1
пл@@ 1
1936 1
Щ@@ 1
1961 1
законо@@ 1
зиди@@ 1
Кана@@ 1
Народ@@ 1
ключ@@ 1
Тат@@ 1
берг 1
мало@@ 1
рение 1
e@@ 0.05832223043987967
характери@@ 1
религиоз@@ 1
творче@@ 1
лан 1
Макси@@ 1
край@@ 1
чо@@ 1
вали@@ 1
академи@@ 1
1977 0.9514083030443059
спери@@ 1
преподавате@@ 1
Ат@@ 1
епар@@ 1
пост 1
Фло@@ 1
ёл 1
Кам@@ 1
графа 1
уре@@ 1
Кол@@ 1
бран@@ 1
de 0.004349750965054421
старо@@ 1
рон 1
Послед@@ 1
вано 1
1947 1
лети@@ 1
Стар@@ 1
превра@@ 1
кали@@ 1
АТ@@ 1
ченко 1
лагер@@ 1
ВС 1
пору@@ 1
защ@@ 1
чия 1
мел@@ 1
гото@@ 1
кисло@@ 1
строй@@ 1
1969 0.9531944441026253
метра@@ 1
абсолю@@ 1
t 0.0376109834589331
Бен@@ 1
1935 1
ум 1
Сол@@ 1
дор@@ 1
Йор@@ 1
мани@@ 1
действ@@ 1
42 1
39 1
L 0.26391111643645343
мигра@@ 1
-@@ 0.5089002447802228
нео@@ 1
развитие 1
теше@@ 1
зен@@ 1
вро@@ 1
йт 1
роман@@ 1
цик@@ 1
шоу 1
есте@@ 1
Гене@@ 1
футболист 1
Хан@@ 1
преду@@ 1
принадлежа@@ 1
разв@@ 1
Пат@@ 1
Авто@@ 1
44 1
говори@@ 1
ена 1
рё@@ 1
Лин@@ 1
G 0.4214439080445804
Прав@@ 1
фан@@ 1
Бри@@ 1
Ев@@ 1
кипа@@ 1
дя@@ 1
Це@@ 1
духа 1
Лат@@ 1
движение 1
фе 1
ум@@ 1
сей 1
ати 1
биз@@ 1
дивизия 1
пси@@ 1
решения 1
влияние 1
6,@@ 1
Изра@@ 1
непосред@@ 1
Смо@@ 1
флота 1
финансо@@ 1
4,@@ 1
Мария 1
точки 1
основате@@ 1
нау@@ 1
бой@@ 1
фика@@ 1
d@@ 0.05041666023441335
R 0.29927719234224254
вия 1
множество 1
T 0.32057184830090857
сор@@ 1
номина@@ 1
1924 1
догово@@ 1
стади@@ 1
Соци@@ 1
гражда@@ 1
55 1
зом 1
вече@@ 1
Сла@@ 1
Тран@@ 1
метро@@ 1
показате@@ 1
преми@@ 1
дали 1
Мно@@ 1
1921 1
Не 1
фло@@ 1
тыся@@ 1
гин@@ 1
шел 1
30@@ 1
D 0.2850154204400067
исто@@ 1
моби@@ 1
Сюжет 1
мона@@ 1
Нача@@ 1
Бре@@ 1
смотря 1
периода 1
нес 1
Бли@@ 1
чате@@ 1
Анато@@ 1
Георги@@ 1
Евге@@ 1
темпера@@ 1
реак@@ 1
сне@@ 1
Три@@ 1
Кав@@ 1
сдел@@ 1
y@@ 0.07341401416230203
стил 1
нато@@ 1
M 0.33741479411623576
спон@@ 1
пон@@ 1
c@@ 0.05013446197051282
химиче@@ 1
чено 1
свой@@ 1
1922 1
сед@@ 1
труд@@ 1
Петро@@ 1
вей@@ 1
лектри@@ 1
Сле@@ 1
земе@@ 1
Э 1
ровки 1
1953 1
кнове@@ 1
которо@@ 1
развити@@ 1
оригина@@ 1
мум 1
гно@@ 1
правило 1
ново 1
фектив@@ 1
скло@@ 1
48 1
er 0.018615040542836817
300 1
1928 1
днев@@ 1
категории 1
записи 1
Бори@@ 1
самостоя@@ 1
квали@@ 1
Сим@@ 1
скри@@ 1
ец 1
узна@@ 1
d 0.05564884782714166
Афри@@ 1
дела 1
известен 1
нена 1
1955 1
контра@@ 1
лик@@ 1
дей 1
ктор@@ 1
лог 1
1934 1
кампа@@ 1
рд 1
наме@@ 1
замен@@ 1
облада@@ 1
1952 1
скоре 1
Университе@@ 1
администра@@ 1
твор@@ 1
действие 1
научно 1
наслед@@ 1
Сти@@ 1
трудо@@ 1
оте@@ 1
Дне@@ 1
вру@@ 1
and 0.0058155835934508935
характер@@ 1
консер@@ 1
ол@@ 1
визи@@ 1
жества 1
код 1
Бан@@ 1
1932 1
кс@@ 1
пля@@ 1
Гро@@ 1
последовате@@ 1
циони@@ 1
1933 1
наи@@ 1
Андрей 1
укра@@ 1
Бор@@ 1
Полу@@ 1
ща 1
Нар@@ 1
конферен@@ 1
Австра@@ 1
рекор@@ 1
студи@@ 1
тика 1
чар@@ 1
зато@@ 1
моти@@ 1
одо@@ 1
песен 1
комен@@ 1
1931 1
1923 1
цио@@ 1
документа@@ 1
коно@@ 1
шен 1
писан 1
X@@ 0.3424295983157323
Лей@@ 1
Обще@@ 1
распо@@ 1
аб@@ 1
лища 1
успеш@@ 1
брат 1
летия 1
Тай@@ 1
автоно@@ 1
меди@@ 1
педагоги@@ 1
41 1
Гон@@ 1
лабо@@ 1
позна@@ 1
N 0.3443603154206264
числа 1
o 0.04365899080006507
ред 1
еха@@ 1
мл@@ 1
джан@@ 1
кавале@@ 1
вли@@ 1
Ю 1
транс@@ 1
43 1
Василий 1
Йо@@ 1
перио@@ 1
Вин@@ 1
КП 1
зате@@ 1
участник 1
52 1
производство 1
тел 1
Пен@@ 1
науки 1
военно 1
лета 1
47 1
F 0.3193792742690351
e 0.04467781990198843
Шве@@ 1
ната 1
оконча@@ 1
публики 1
гат@@ 1
поко@@ 1
Дей@@ 1
ун 1
Кали@@ 1
Чар@@ 1
Тома@@ 1
режисс@@ 1
8,@@ 1
1951 1
гли@@ 1
Гла@@ 1
хо 1
ремон@@ 1
президент 1
Вто@@ 1
логия 1
Сою@@ 1
1927 1
зали@@ 1
кори@@ 1
зон 1
Ах@@ 1
досто@@ 1
орке@@ 1
um 0.07393448322107177
просто 1
гент@@ 1
54 1
бен@@ 1
ровка 1
Сара@@ 1
Род@@ 1
фигу@@ 1
носите@@ 1
85 1
Джи@@ 1
щее 1
1925 1
суб@@ 1
жет 1
O 0.2556416402880308
пило@@ 1
комби@@ 1
46 1
мат 1
явление 1
жиз@@ 1
удар@@ 1
Нико@@ 1
1914 1
зан 1
Автор 1
акти@@ 1
Под 1
цеп@@ 1
вин 1
музей 1
сек@@ 1
произведения 1
Стро@@ 1
работа 1
k 0.07062446806533632
Цент@@ 1
25@@ 0.6434623537607488
7,@@ 1
es 0.01581409708927073
28@@ 1
бат@@ 1
женщи@@ 1
епископ 1
като@@ 1
тен 1
Участ@@ 1
армия 1
Дани@@ 1
нари@@ 1
гате@@ 1
тно@@ 1
броне@@ 1
тю@@ 1
десь 1
финан@@ 1
Алек@@ 1
бомбарди@@ 1
Шар@@ 1
кратно 1
чина 1
лиде@@ 1
числе@@ 1
департа@@ 1
театра@@ 1
храм 1
amp 0.1880630749177163
Теле@@ 1
сва@@ 1
XVII 1
51 1
стка 1
графия 1
включ@@ 1
герман@@ 1
губерна@@ 1
фабри@@ 1
активно 1
определя@@ 1
море 1
начи@@ 1
зя@@ 1
ing 0.017947777070627086
Виктор 1
Кли@@ 1
24@@ 1
Z@@ 0.0831913019391939
жав@@ 1
провин@@ 1
кен@@ 1
o@@ 0.06402695796797697
парт@@ 1
тога@@ 1
58 1
щи 1
имо@@ 1
фамилия 1
остров 1
чит@@ 1
гео@@ 1
1905 1
олимпи@@ 1
купа@@ 1
потреб@@ 1
Бай@@ 1
.. 1
Ско@@ 1
P 0.32510875424207886
купи@@ 1
щем 1
Лан@@ 1
Клу@@ 1
общество 1
кг 1
Спе@@ 1
филосо@@ 1
Кру@@ 1
56 1
дело 1
et 0.015013736819355713
добав@@ 1
s@@ 0.02590960229605812
Кир@@ 1
62 1
рата 1
астро@@ 1
философи@@ 1
Село 1
навли@@ 1
консу@@ 1
онат 1
Коло@@ 1
p@@ 0.041521861582432304
нич@@ 1
лай@@ 1
9,@@ 1
53 1
сть@@ 1
континента@@ 1
обнов@@ 1
директор 1
региона 1
доби@@ 1
фре@@ 1
76 1
мал@@ 1
резер@@ 1
собо@@ 1
храма 1
гол 1
привле@@ 1
говор@@ 1
бед@@ 1
Мол@@ 1
ити 1
нд 1
кост@@ 1
нало@@ 1
Лит@@ 1
линей@@ 1
президен@@ 1
окончате@@ 1
обозна@@ 1
люби@@ 1
i@@ 0.06562557688347352
гвар@@ 1
нас 1
управление 1
Фу@@ 1
огром@@ 1
Рим@@ 1
форма 1
Вла@@ 1
бого@@ 1
католиче@@ 1
публика@@ 1
Вале@@ 1
00 1
ордина@@ 1
рана 1
пи 1
война 1
Ара@@ 1
пропа@@ 1
Федера@@ 1
Груп@@ 1
Мер@@ 1
72 1
приблиз@@ 1
сериала 1
модели 1
инду@@ 1
мон 1
раст@@ 1
зрите@@ 1
спорт 1
гер 1
атмо@@ 1
Сар@@ 1
чин 1
высту@@ 1
художник 1
сии 1
тера@@ 1
сили 1
печ@@ 1
жерт@@ 1
средства 1
писание 1
дата 1
пто@@ 1
стати@@ 1
57 1
населе@@ 1
семей@@ 1
вина 1
мени 1
циф@@ 1
Мал@@ 1
a@@ 0.08401519161458398
версия 1
наси@@ 1
1915 1
49 1
зия 1
опас@@ 1
Зи@@ 1
Гос@@ 1
сно 1
пуска@@ 1
Викто@@ 1
поселе@@ 1
Пан@@ 1
осу@@ 1
ари@@ 1
космиче@@ 1
мили@@ 1
Ян@@ 1
революцион@@ 1
400 1
ЦК 1
82 1
тан 1
партия 1
уст@@ 1
l 0.048657597720875946
значи@@ 1
жия 1
Кро@@ 1
Роди@@ 1
гимна@@ 1
емы@@ 1
аври@@ 1
пенси@@ 1
ин 1
форму@@ 1
78 1
кара@@ 1
гле@@ 1
сиг@@ 1
след@@ 1
дови@@ 1
18@@ 0.737586037950009
портре@@ 1
корпус 1
Бела@@ 1
пока@@ 1
Черно@@ 1
окон@@ 1
характеристи@@ 1
предме@@ 1
пов@@ 1
ани@@ 1
тури@@ 1
бай@@ 1
Х 1
магази@@ 1
Слу@@ 1
оне@@ 1
Ган@@ 1
Мен@@ 1
креп@@ 1
b@@ 0.043233817398885564
юно@@ 1
n 0.06609514197557097
Кал@@ 1
Остро@@ 1
Вален@@ 1
ститу@@ 1
финал 1
­ 1
засе@@ 1
полков@@ 1
ресур@@ 1
дра 1
изуча@@ 1
63 1
рис 1
швед@@ 1
разли@@ 1
разно@@ 1
жар@@ 1
иска@@ 1
Хор@@ 1
основан 1
фар@@ 1
Павел 1
сексу@@ 1
дес@@ 1
чета@@ 1
ферен@@ 1
рес 1
построен 1
инди@@ 1
Нидер@@ 1
концеп@@ 1
тка 1
Тю@@ 1
Джей@@ 1
команд@@ 1
лес 1
даря 1
СК@@ 1
68 1
ай@@ 1
Ана@@ 1
игра 1
предназна@@ 1
XVI 1
парла@@ 1
роб@@ 1
84 1
Рей@@ 1
95 1
фла@@ 1
67 1
нец 1
66 1
86 1
вести@@ 1
мыш@@ 1
констру@@ 1
вай@@ 1
мино@@ 1
командир 1
рито@@ 1
усло@@ 1
мина 1
m 0.06562712054387364
стато@@ 1
автор@@ 1
Например 1
инициати@@ 1
метри@@ 1
что@@ 1
ств@@ 1
зад 1
ани 1
88 1
скан@@ 1
следствие 1
150 1
гда@@ 1
1912 1
фи 1
81 1
61 1
t@@ 0.03310753794651764
74 1
29@@ 1
престо@@ 1
любов@@ 1
жие 1
is 0.012213353365157881
богат@@ 1
n@@ 0.03945218728042954
финала 1
страте@@ 1
1913 1
нологи@@ 1
кон 1
депу@@ 1
секре@@ 1
1.@@ 0.39054405863455627
ени 1
ген 1
теоре@@ 1
избе@@ 1
широко 1
Рос@@ 1
1910 1
От 1
Али@@ 1
резуль@@ 1
сков@@ 1
волю@@ 1
лист 1
в. 1
леген@@ 1
f@@ 0.03280821221527935
Карл 1
низи@@ 1
метра 1
эти@@ 1
Бру@@ 1
публикан@@ 1
ента@@ 1
щё 1
лизи@@ 1
Ричар@@ 1
Ад@@ 1
83 1
59 1
Ци@@ 1
кой@@ 1
жители 1
In@@ 0.10618612303242751
Андже@@ 1
друга 1
an 0.01319415931091231
структура 1
повре@@ 1
Джор@@ 1
71 1
история 1
лит@@ 1
фран@@ 1
кора@@ 1
хан 1
династи@@ 1
вока@@ 1
представители 1
функции 1
ряд@@ 1
Григо@@ 1
сан 1
тивно 1
вец 1
77 1
Дю@@ 1
пери@@ 1
постоянно 1
Й@@ 1
университе@@ 1
тече@@ 1
Само@@ 1
p 0.10166078808372754
тип 1
проб@@ 1
Уча@@ 1
моз@@ 1
1916 1
вероятно 1
пото@@ 1
изме@@ 1
Авст@@ 1
стойчи@@ 1
фил@@ 1
проду@@ 1
ево 1
87 1
запад 1
доли@@ 1
обита@@ 1
g@@ 0.037152926587021705
треб@@ 1
Интер@@ 1
бази@@ 1
магни@@ 1
Пла@@ 1
26@@ 1
Геор@@ 1
парк 1
книга 1
73 1
і@@ 1
69 1
успешно 1
зло@@ 1
кате@@ 1
Брази@@ 1
диалек@@ 1
Впослед@@ 1
хор@@ 1
поя@@ 1
которы@@ 1
Хай@@ 1
леги@@ 1
реди@@ 1
al 0.019930109724306703
$ 0.2339756750527099
трени@@ 1
дека@@ 1
Васи@@ 1
рея 1
Стра@@ 1
стран@@ 1
укреп@@ 1
век 1
регистри@@ 1
дж 1
фикация 1
x@@ 0.1164230770412862
19@@ 0.7797880804303057
стаби@@ 1
01 0.9904345225398304
Дар@@ 1
вен 1
комплекс 1
полковник 1
Доб@@ 1
гале@@ 1
услу@@ 1
приток 1
родо@@ 1
стоит 1
результат@@ 1
зала 1
мбо@@ 1
турнир 1
необ@@ 1
сила 1
Борис 1
жество 1
Кин@@ 1
Ван@@ 1
Американ@@ 1
роман 1
моне@@ 1
Вене@@ 1
двой@@ 1
Фри@@ 1
посо@@ 1
Йорк 1
джа 1
защитник 1
церемо@@ 1
k@@ 0.04076161409109725
бол@@ 1
отри@@ 1
отряд 1
араб@@ 1
построена 1
куро@@ 1
рису@@ 1
казате@@ 1
секу@@ 1
дисци@@ 1
99 1
посто@@ 1
тари@@ 1
Тан@@ 1
1900 1
мит@@ 1
стру@@ 1
жер@@ 1
лично 1
сви@@ 1
коп@@ 1
имуще@@ 1
шена 1
разнообраз@@ 1
Мекси@@ 1
Мит@@ 1
Швейца@@ 1
ia 0.07128814898286362
середи@@ 1
кономи@@ 1
индиви@@ 1
ic@@ 0.0667087439430984
сова 1
79 1
Тео@@ 1
1911 1
ограниче@@ 1
1000 1
Кле@@ 1
известна 1
1907 1
Там 1
нера@@ 1
това 1
1906 1
рих 1
рите@@ 1
стане 1
парта@@ 1
бах 1
конфлик@@ 1
Кни@@ 1
арх@@ 1
on@@ 0.04586264067752644
Британ@@ 1
рам@@ 1
сел 1
избра@@ 1
96 1
пет@@ 1
фамили@@ 1
Ну@@ 1
подвод@@ 1
сна@@ 1
нос 1
1908 1
лейтенан@@ 1
фило@@ 1
парламен@@ 1
кан 1
Ав@@ 1
98 1
лейтенант 1
прив@@ 1
ене 1
клет@@ 1
сий 1
меня 1
ждан@@ 1
Анна 1
Ала@@ 1
1,5 1
модер@@ 1
посред@@ 1
корпу@@ 1
92 1
издание 1
снаб@@ 1
забо@@ 1
археологи@@ 1
VI 1
27@@ 1
ар 1
организация 1
ковод@@ 1
фронт 1
характер 1
фри@@ 1
ул@@ 1
австри@@ 1
лон 1
Ц 1
рекла@@ 1
щер@@ 1
доне@@ 1
дуар@@ 1
постепенно 1
зви@@ 1
президент@@ 1
вероя@@ 1
мс 1
план 1
in@@ 0.023618106168204978
Джу@@ 1
Бро@@ 1
военно@@ 1
чество 1
лист@@ 1
желе@@ 1
брат@@ 1
1904 1
яко@@ 1
гун@@ 1
стен 1
берт 1
2022 0.6734705297093146
нис 1
v@@ 0.03928168039215717
града 1
97 1
05 0.9689765380845571
Кай@@ 1
Y@@ 0.09201855563281945
зни 1
b 0.1055323223547466
актриса 1
Герма@@ 1
писана 1
насе@@ 1
Кат@@ 1
сведения 1
каза 1
неу@@ 1
вете 1
канал 1
K 0.2982638453970773
горе@@ 1
линия 1
джи 1
мери@@ 1
Анти@@ 1
z@@ 0.03814136984874838
Европей@@ 1
псевдо@@ 1
офор@@ 1
Португа@@ 1
Ката@@ 1
U 0.22109535203402478
1909 1
ВМ@@ 1
космо@@ 1
стой@@ 1
Орга@@ 1
Зо@@ 1
ите 1
Пара@@ 1
контак@@ 1
иту@@ 1
капитан 1
прило@@ 1
w@@ 0.032611892499651816
89 1
яй@@ 1
u 0.061411393969149075
деяте@@ 1
вица 1
тропи@@ 1
конститу@@ 1
дни 1
предста@@ 1
02 1
Ари@@ 1
обработ@@ 1
медици@@ 1
сул@@ 1
эро@@ 1
обучение 1
фини@@ 1
популя@@ 1
дати@@ 1
митрополи@@ 1
Константин 1
дон 1
предостав@@ 1
зона 1
деятель@@ 1
Хер@@ 1
сериал 1
at 0.013930759196827593
Авгу@@ 1
93 1
оче@@ 1
бет 1
ac@@ 0.04254219215845145
h 0.05657460888189451
стика 1
зай@@ 1
03 1
латин@@ 1
аген@@ 1
94 1
вел 1
опи@@ 1
91 1
зана 1
цу@@ 1
en 0.005083168940370901
to 0.004716733224038481
Мини@@ 1
успех 1
вся@@ 1
майор 1
мет 1
регион 1
дар 1
Еги@@ 1
1897 1
тит@@ 1
контроли@@ 1
W 0.31779118658526195
Колум@@ 1
08 0.9397977026298387
опе@@ 1
Кристи@@ 1
07 0.9551649807548795
иденти@@ 1
бина 1
жат 1
романа 1
04 0.9451351444568876
лец 1
пр 1
Ита@@ 1
ar 0.02708469539016655
тана 1
рец 1
Жан 1
сена 1
дорож@@ 1
en@@ 0.022818975023248506
характе@@ 1
Елиза@@ 1
09 0.9284297992055178
кот@@ 1
ничество 1
600 1
Джеймс 1
йс 1
Хол@@ 1
H 0.3009004957872228
al@@ 0.028248700278199028
простра@@ 1
юг 1
120 1
прито@@ 1
седате@@ 1
Пале@@ 1
чело@@ 1
ъ 1
дет 1
бом@@ 1
Вал@@ 1
лос 1
Кате@@ 1
Ау@@ 1
солю@@ 1
прие@@ 1
отношение 1
трен@@ 1
мед 1
скольку 1
Tr@@ 0.06984818367182376
ch@@ 0.023496151093348797
публика 1
1890 1
щ 1
цин@@ 1
l@@ 0.02784401585580174
ито 1
серия 1
Ch@@ 0.051248510146114395
сорев@@ 1
ис 1
h@@ 0.027471445703685312
× 1
06 0.9435489884047897
мост 1
следовате@@ 1
Константи@@ 1
ада@@ 1
дка 1
Тра@@ 1
сезо@@ 1
Париж 1
вест@@ 1
госпо@@ 1
акаде@@ 1
Records 0.496278351264233
дове@@ 1
педаго@@ 1
опа@@ 1
дие 1
веро@@ 1
Верхов@@ 1
er@@ 0.024398964247225326
el@@ 0.03280654668575233
Франция 1
el 0.008766126914255927
or@@ 0.035612499411045
ланд 1
1903 1
ar@@ 0.02945109685559916
XV 1
телевизион@@ 1
номер 1
r@@ 0.026784702082343334
шно 1
здра@@ 1
1902 1
има 1
стоян@@ 1
хозя@@ 1
африкан@@ 1
зация 1
2,5 1
an@@ 0.029915881217780358
сцена@@ 1
бели 1
2.@@ 0.34345445508480005
XX@@ 1
щина 1
250 1
Дра@@ 1
Германия 1
актри@@ 1
пада 1
ООН 1
зеф 1
шни 1
говор 1
Re@@ 0.06549323922463092
юн@@ 1
th@@ 0.035647643490629176
XIV 1
дея@@ 1
дент@@ 1
m@@ 0.03146938727824852
смот@@ 1
w 0.06755504101546035
достав@@ 1
j@@ 0.04418659355952159
ци 1
рена 1
обу@@ 1
Ер@@ 1
ed 0.009517207358021198
мышлен@@ 1
условия 1
at@@ 0.04262264634171391
гон 1
Марк 1
кови@@ 1
Произ@@ 1
VII 1
непре@@ 1
иза 1
степ@@ 1
1901 1
край 1
Хри@@ 1
XIII 1
r 0.10550519574041292
тели 1
тта 1
сереб@@ 1
Сю@@ 1
зербай@@ 1
la 0.00401480185969255
Вой@@ 1
мпи@@ 1
g 0.06368818381104936
испо@@ 1
Югосла@@ 1
z 0.0675554525366319
лев 1
цели 1
Обла@@ 1
XII 1
Тех@@ 1
кви 1
800 0.9410226498104853
Al@@ 0.0498581158937836
Мюн@@ 1
света 1
мю@@ 1
Спа@@ 1
ьо@@ 1
мно 1
u@@ 0.044984483714620854
St@@ 0.062182233892921934
Игра@@ 1
мар 1
ph@@ 0.054224027300657306
дина 1
лага 1
Меди@@ 1
3.@@ 0.3748045609452169
пей@@ 1
несколь@@ 1
рую 1
нк@@ 1
еле@@ 1
Констан@@ 1
1896 1
глава 1
1880 1
лище 1
комитет 1
туга@@ 1
or 0.01780024183404284
1899 1
Стру@@ 1
близо@@ 1
рами@@ 1
изве@@ 1
1898 1
флот 1
иници@@ 1
ot@@ 0.04788076088890233
Между 1
многи@@ 1
зен 1
лото 1
конфли@@ 1
конгре@@ 1
убит 1
ОО@@ 1
4.@@ 0.41440541644566836
патриар@@ 1
бия 1
Пон@@ 1
брон@@ 1
Марга@@ 1
запове@@ 1
1870 1
Елена 1
прак@@ 1
1860 1
ави@@ 1
om@@ 0.052008651110064974
йо@@ 1
север 1
am 0.03328258862387792
октя@@ 1
ват 0.9231300496495115
Джордж 1
Око@@ 1
договор 1
1895 1
неме@@ 1
програ@@ 1
л. 1
тни 1
Константино@@ 1
леку@@ 1
атор 1
оба@@ 1
am@@ 0.03614339228975835
принце@@ 1
Con@@ 0.06406211213304012
специ@@ 1
дна 1
Луи 1
IX 1
пад@@ 1
хими@@ 1
пом@@ 1
ol@@ 0.043428570420351004
погре@@ 1
византи@@ 1
idae 0.25680391528456237
it@@ 0.033060539423826904
праз@@ 1
os@@ 0.053542248541424725
сестра 1
ine 0.038130015009970514
ation 0.01614248026877841
1859 1
еро@@ 1
цент 1
ология 1
акт@@ 1
бух@@ 1
информация 1
# 0.44152405646771115
NGC 1
сут@@ 1
рак 1
сфе@@ 1
VIII 1
as@@ 0.03359948081165189
бав@@ 1
тена 1
1892 1
редактор 1
oc@@ 0.052510899759695806
ок 1
хва@@ 1
Com@@ 0.08198774739854879
ФК 1
Ш 1
вобо@@ 1
лис 1
мата 1
див 1
et@@ 0.045851664543336716
брак 1
кари@@ 1
шев 1
Sh@@ 0.08237814355763923
New 0.056183637288051175
Богороди@@ 1
лс 1
внима@@ 1
оти@@ 1
гола 1
вза@@ 1
Каро@@ 1
Бран@@ 1
били 1
жда 1
1885 1
Вил@@ 1
пуска 1
5.@@ 0.4264105185478293
гора 1
700 1
An@@ 0.04475255238105539
кого@@ 1
император 1
Китай 1
... 0.20433922863566284
матри@@ 1
Billboard 0.7655075530623753
огра@@ 1
ic 0.052354623685292145
130 1
Роб@@ 1
шко 1
1894 1
ul@@ 0.035138049699265254
Так@@ 1
* 0.14134148021767298
1889 1
щины 1
империя 1
скар 1
вна 1
франц@@ 1
фли@@ 1
1893 1
дъ@@ 1
Калифор@@ 1
11@@ 0.7841982716708872
Th@@ 0.059844975065570835
Св 1
ag@@ 0.031039869214493865
1878 1
1891 1
ers 0.018967853463373215
Music 0.2745986767148812
ae 0.22277665537341643
преда@@ 1
яне 1
отбо@@ 1
вери@@ 1
as 0.0063509675028133854
World 0.09386165056588774
статисти@@ 1
Ё@@ 1
вата 1
ит 1
Пле@@ 1
7.@@ 0.44020943123255085
Cr@@ 0.15049398926818613
публико@@ 1
Хен@@ 1
часа 1
le 0.007112533583495381
проя@@ 1
точно 1
XI 1
гим@@ 1
мерно 1
ad@@ 0.028834317741786582
ори 1
йл 1
син 1
чень 1
le@@ 0.03210530435269273
ню@@ 1
бла@@ 1
Гви@@ 1
хия 1
Фридрих 1
23@@ 1
es@@ 0.029566459893453606
ография 1
1886 1
1864 1
Ar@@ 0.05218323095113476
6.@@ 0.4121775594041942
1862 1
id@@ 0.03985010659174773
tr@@ 0.02250538314398934
110 1
гат 1
Ч 1
кос@@ 1
Уни@@ 1
жка 1
Италия 1
кафе@@ 1
1887 1
лата 1
ята 1
дворец 1
Лондон 1
1877 1
il@@ 0.03541932112481256
ro@@ 0.03497105894448516
1812 1
1861 1
1500 1
см@@ 1
Фридри@@ 1
Q@@ 0.17356174754292886
бун@@ 1
Br@@ 0.05729871586157383
топ@@ 1
12,@@ 1
сна 1
is@@ 0.02779293522044932
комите@@ 1
1884 1
1863 1
Windows 0.8759113699507525
контин@@ 1
ос 1
ate 0.02386273603384762
,@@ 1
мокра@@ 1
You 0.3869248843002825
истин@@ 1
ti@@ 0.03204748235709202
OS 0.6281230735221754
кул@@ 1
зави@@ 1
8.@@ 0.4468372558823573
1888 0.9789679709534704
Co@@ 0.07992463565084762
позво@@ 1
De@@ 0.09380051862555061
зани 1
вена 1
тря@@ 1
политика 1
кия 1
Вай@@ 1
чо 1
ландия 1
мах@@ 1
него@@ 1
Калифорния 1
лате@@ 1
Sp@@ 0.10487042627110482
Све@@ 1
17,@@ 1
след 1
сент@@ 1
1879 1
200@@ 0.6909834092494727
сл 1
лати@@ 1
ie 0.027937983280204543
Христо@@ 1
1873 1
lo@@ 0.036897921781552157
Осман@@ 1
1882 1
Форму@@ 1
ch 0.048727690485201786
3,5 1
Софи@@ 1
quot 1
em@@ 0.033420437178540374
годи@@ 1
10,@@ 1
ica 0.07164013441247315
изобраз@@ 1
политик 1
бан 1
кар 1
творчество 1
андар@@ 1
Съ@@ 1
ката 0.9739157090737652
9.@@ 0.4696166034061926
³ 1
Par@@ 0.06333624935708353
1881 1
ter 0.029678749270079782
зо 1
der 0.004060744601673008
персо@@ 1
1871 0.938253368324306
it 0.013356359918955158
11,@@ 1
ap@@ 0.03214146359674856
f 0.057664588746441814
ri@@ 0.047744436487087455
1876 1
os 0.018088221024214264
Йе@@ 1
ec@@ 0.03877718678447428
европе@@ 1
Великобритания 1
ur@@ 0.028028949593204622
дете@@ 1
импе@@ 1
место@@ 1
Z 0.4091782898529701
Мла@@ 1
1883 1
Македо@@ 1
12.@@ 1
лектро@@ 1
ране 1
ve 0.02454854329473996
160 1
провинция 1
1865 0.9798705077595538
Сак@@ 1
нав@@ 1
AS@@ 0.3823037849969653
1867 0.9971182697225092
Car@@ 0.062298129484263
Ex@@ 0.08226312655164571
Рим 1
рано 1
позиция 1
us@@ 0.03052764853618161
служба 1
10.@@ 0.868166772156513
случай 1
гни@@ 1
чев 1
13,@@ 1
1868 1
семейство 1
1850 0.980995821780441
140 1
сериа@@ 1
ed@@ 0.040383719212233916
море@@ 1
ta 0.04483258469485349
180 1
дома@@ 1
1869 1
0.@@ 0.1688659741206425
профе@@ 1
голе@@ 1
IS@@ 0.39529501996567457
религи@@ 1
AR@@ 0.341809929903835
1866 0.8128105882913843
1830 1
1848 0.8858198841281761
точка 1
пен 1
йско 1
Be@@ 0.052160293543309824
0,5 1
ana 0.05031997119091607
Group 0.24701225763727172
Велико@@ 1
ради 1
age 0.023918405797912847
Отече@@ 1
епархия 1
1856 1
Лай@@ 1
Кари@@ 1
хай@@ 1
1872 0.9796106380207545
for 0.00643662001192624
Y 0.31943677462860354
da 0.03825392687499773
наре@@ 1
re@@ 0.008702892176381287
община 1
1875 0.9469165741728796
En@@ 0.07802081358692446
For@@ 0.0860762431526817
архе@@ 1
бен 1
Mon@@ 0.07058119485540762
насти@@ 1
тна 1
возраст@@ 1
прину@@ 1
патри@@ 1
кове 1
Bo@@ 0.08388318108365572
li@@ 0.02792455134575794
Mar@@ 0.037576615453681156
лд 1
ata 0.11728369790351596
нами@@ 1
He@@ 0.08547012430678681
1874 0.9337482724121403
сово 1
1840 1
тел@@ 1
18,@@ 1
one 0.018526339014874542
ig@@ 0.0353690826342008
op@@ 0.039155778235584957
International 0.12914810312922204
125 1
могу@@ 1
май 1
ay 0.0521809076372386
санд@@ 1
осе@@ 1
сят 1
пол 1
йска 1
st@@ 0.01663473956196658
ent 0.013745910100343267
3000 1
av@@ 0.040702516248783474
остана@@ 1
Спо@@ 1
od@@ 0.0695197840157279
ване 0.7509053411766982
хт 1
СА@@ 1
офицер 1
тар 1
сми@@ 1
расстоя@@ 1
di@@ 0.022049722616178928
― 1
Ph@@ 0.09752790688192087
ьо 1
Qu@@ 0.06266189313693406
​ 1
победа 1
Саксо@@ 1
хран@@ 1
ссиона@@ 1
Awards 0.27394506483728137
J 0.3210282096627689
хал@@ 1
льян@@ 1
каде@@ 1
ad 0.04812738690040574
Берлин 1
чко 1
TV 0.1516913665098519
1858 1
хард 1
ета 1
• 0.9067409423073086
DVD 0.5567907547540033
То 1
Никола 1
Love 0.3528978799709307
im@@ 0.022622115843843486
14,@@ 1
350 1
Кю@@ 1
ina 0.049213142275684116
ly 0.02266388522386864
INSE@@ 1
Le@@ 0.05207333808787742
1800 1
og@@ 0.05824236032016945
105 1
мага@@ 1
ni@@ 0.045741860952663214
Мето@@ 1
зар 1
Меж@@ 1
бя@@ 1
лига 1
ter@@ 0.030050588776978655
сина 1
1857 0.9963166740796111
ког@@ 1
11.@@ 0.9582956292928948
ir@@ 0.029972925427073097
ab@@ 0.020398775804918556
сколь@@ 1
un@@ 0.01733072710694378
Se@@ 0.05780846018263611
Ro@@ 0.06591024901056508
ител@@ 1
осман@@ 1
двиг 1
Димит@@ 1
Hot 0.6045847754311285
прием@@ 1
v 0.08118430411619318
4,5 1
ent@@ 0.021084631665894932
март 1
1855 1
um@@ 0.029545362138215563
170 1
теж@@ 1
Стефа@@ 1
900 0.9998368276070287
se 0.007522418200680464
Entertainment 0.5599795400040279
Gr@@ 0.05250261437746225
Канада 1
1849 1
1829 1
Me 0.4211665358711778
CD 0.29405643824091365
гата 1
Ad@@ 0.06855429830931012
est 0.00680163693657608
Ата@@ 1
митрополит 1
po@@ 0.025574934216432203
с. 1
ru 1
RA@@ 0.3270146505696987
80@@ 1
сите@@ 1
codice 1
Распо@@ 1
Col@@ 0.06319366991555736
Di@@ 0.05158213611335253
50@@ 0.5758855729231425
РС@@ 1
Am@@ 0.06806757301723494
Times 0.326202677038793
ell 0.054649537651234856
La 0.01577556708736751
страна 1
15,@@ 1
40@@ 0.7820350481224816
1854 0.9692429157030605
пехо@@ 1
изя@@ 1
1853 1
ant 0.016602001109269255
.-@@ 1
ясно 1
te 0.01061457141095431
тира 1
Un@@ 0.08572955047430329
тивен 1
северо@@ 1
Англия 1
едва 1
юго@@ 1
man 0.030328711726188
лаго@@ 1
16,@@ 1
CA@@ 0.24917140398245147
забра@@ 1
5000 1
co@@ 0.02312889600124876
Q 0.4104606468399895
Япония 1
мла@@ 1
души 1
1852 0.9936913314793843
1820 0.8720842224571849
1842 1
eg@@ 0.03559070851879345
des 0.004310776388047097
yr@@ 0.09924613522115901
тях 1
катего@@ 1
1834 1
les 0.007037146563674247
Pr@@ 0.0564999275721151
пример 1
ini 0.10576673990436102
ce 0.02715325036627473
Microsoft 0.8065672282321404
Испания 1
иска 1
ma 0.05948964918956719
und 0.0036955078899382635
son 0.013557430930066098
Company 0.16721944556952384
Ac@@ 0.09925537483504847
35@@ 0.9624195124828555
101 1
1814 1
Ж 1
to@@ 0.03748485382134739
1,2 1
115@@ 1
do@@ 0.04612765548479729
One 0.12208216885846805
ol 0.07197542835871028
Ma@@ 0.08158926234371519
1831 1
наб@@ 1
мож@@ 1
inae 0.8702699686302141
vi@@ 0.03258687703368029
Фили@@ 1
Mo@@ 0.09093386751843845
чна 1
Str@@ 0.07062588588404588
1838 1
Ун@@ 1
ob@@ 0.03699629253340584
склю@@ 1
ard 0.042799085428698716
ens 0.02906470935713513
na 0.056848462190366024
CO@@ 0.3014731933037817
имену@@ 1
жина 1
1836 1
124@@ 1
публику@@ 1
My 0.3453217110915753
скус@@ 1
ES@@ 0.3584869332564664
re 0.02976168588410558
tion 0.018417964407929033
1813 1
преди@@ 1
1846 0.9776122226391655
ty 0.04108040632407826
Cl@@ 0.09453287139722304
AM@@ 0.4542393930101822
TA 0.4495498080443799
Ne@@ 0.05426523978538185
qu@@ 0.019540756487847217
Or@@ 0.05208276367949468
450 1
половина 1
ел 1
di 0.08620372657238023
Pro@@ 0.08073120719287379
била 1
чат 1
1851 0.8863867854335001
революцио@@ 1
чета 1
стани@@ 1
de@@ 0.018089078532663054
38@@ 1
1802 1
гр 1
1839 1
пр@@ 1
179@@ 1
пое@@ 1
напра@@ 1
ati@@ 0.03742892429480959
135 1
1847 0.9461688816203367
1837 1
by 0.0049794153779583895
т.@@ 1
Air@@ 0.3403774905592419
1828 1
19,@@ 1
август 1
лищ@@ 1
120@@ 0.9890842895432764
дера@@ 1
.com 0.5298614357809939
ор 1
Cor@@ 0.061943448894818225
ale 0.02535189653209779
102 1
all 0.020591580519462256
ai 0.06450525183531843
случаи 1
1826 1
1845 0.9414878625234016
така 1
Per@@ 0.052635661332431256
бя 1
om 0.11285100947607941
ure 0.033912763084518016
блиоте@@ 1
само 1
ak@@ 0.02965112029731153
ea 0.09804499391643247
академия 1
em 0.06167264695277069
115 1
eb@@ 0.03427852629838761
лна 1
ческо 1
ore 0.05649025652106839
най 0.618620394695469
si@@ 0.026475200011470433
литература 1
вмест@@ 1
коре@@ 1
7,5 1
1844 0.9894564170305161
Air 0.15365980540301194
хер@@ 1
городи@@ 1
нея 1
Lo@@ 0.07846140469702864
километра 1
ensis 0.24802523932907938
ight 0.07301787584140329
1835 0.9729021475531624
Мек@@ 1
Her@@ 0.054609244666720916
тя 1
ut@@ 0.03115515929424306
GC 1
per@@ 0.020132983624371496
лум@@ 1
│ 0.3976739412979089
футбол 1
ква 1
th 0.02038872845839824
надле@@ 1
We@@ 0.06193182061760012
Inter@@ 0.07971888607057354
1806 1
1832 0.9964384395635929
az@@ 0.044640771950681835
Австралия 1
1200 1
tic 0.06610275940940923
1825 1
20,@@ 1
евро@@ 1
Dr@@ 0.08736690272015114
дем 1
1815 0.8569520303017445
пости@@ 1
1817 1
осуще@@ 1
il 0.012268601965570121
104 1
1841 0.9520618872395064
въ@@ 1
Египет 1
220 1
pi@@ 0.03493090595669275
Te@@ 0.09263334673190837
гот@@ 1
ts 0.015051046000056221
22@@ 1
pl@@ 0.0251926595763709
id 0.0463923927559138
1810 1
і 1
In 0.0067141447905526555
1843 0.9641128359793955
It 0.016431048062396852
Black 0.18061645011021712
1833 1
1821 0.9868473224885664
ремо@@ 1
1805 1
Wor@@ 0.1073746218969887
FC 0.10610165837927141
вани 1
ok@@ 0.05467610354589833
ang@@ 0.026675887349568807
108 1
109 1
Man@@ 0.05670346517735857
ik@@ 0.035359742717433085
ks 0.0317217661724764
AT@@ 0.35373454907056096
ice 0.033846773603723394
El@@ 0.04332681408644197
Ge@@ 0.04854202935408894
Hol@@ 0.07269256031293372
яну@@ 1
ue 0.033807317296821626
нодорож@@ 1
ge 0.028406690446612252
York 0.04834892280908594
Live 0.3538509290884681
ber@@ 0.02652776767001086
mo@@ 0.031197633393878505
Po@@ 0.07704108103520318
un 0.004631564115856115
103 1
насо@@ 1
ver@@ 0.010775695302288536
ite 0.024519066817977258
Стефан 1
попу@@ 1
ity 0.02281234735517628
1795 1
Met@@ 0.15912341290246187
34@@ 1
Do@@ 0.12377080783605607
1807 1
au@@ 0.022760186152195605
1809 1
ято 1
Si@@ 0.09870981905391633
ach@@ 0.027545687393024272
122 1
45@@ 1
All 0.09254902430770405
37@@ 1
106 1
Gu@@ 0.049379146599112786
112 1
гас 1
има@@ 1
1811 1
Mor@@ 0.05249630335992699
PlayStation 0.9527056594617214
гина@@ 1
ници@@ 1
128 1
Life 0.196728129981639
onlyinclude 0.5305212974861953
á@@ 0.0406789727568575
36@@ 1
ka 0.06800938767665762
American 0.03478712802816949
Elec@@ 0.2059035762870788
sh@@ 0.018289465673383246
сни 1
Индия 1
1827 1
ain 0.043072076228311745
Fi@@ 0.13808856965372043
107 1
рополи@@ 1
ek@@ 0.04392990757530451
ance 0.02289525168282023
Обе@@ 1
uc@@ 0.05140794603117278
Li@@ 0.055830693139825166
est@@ 0.02362590551135403
Bl@@ 0.09222564563623505
are 0.008763698644661257
145 1
Ste@@ 0.070507059407301
Sch@@ 0.017815302820554234
ST@@ 0.43190634343157003
1816 1
ето 0.7665027573424307
BBC 0.28485526360663654
употре@@ 1
1808 1
ci@@ 0.025582352525377335
1793 0.9942078011907421
вале@@ 1
Time 0.3148459290830547
ick@@ 0.04325600503623157
кото@@ 1
Fl@@ 0.061390298384150284
33@@ 0.9238736946639382
Ver@@ 0.019600257903497748
ings 0.028602140263041354
пови@@ 1
ьор@@ 1
защита 1
360 0.9432283246990657
1824 1
Австрия 1
YouTube 0.6267788302963027
ov@@ 0.047677414242628564
IN@@ 0.2854100383429528
ot 0.056305817502277866
bi@@ 0.02713540870561117
AP@@ 0.3395375211492442
AC@@ 0.24613213350334384
Rock 0.24002023323389013
→ 1
Me@@ 0.05729248534997114
no@@ 0.03838285061749025
Mag@@ 0.08281236259809639
скоро 1
US@@ 0.21266242712473807
1792 1
Marvel 0.9052668004649437
So@@ 0.08760432175035826
119@@ 1
111 1
48@@ 1
ey 0.05786690050253928
Dis@@ 0.10292089730454564
ist@@ 0.03391998567908801
ons 0.021696279943162703
od 0.05946784842523237
рите 0.826121461279462
100@@ 1
Tri@@ 0.08189297696726855
bo@@ 0.026534360512013713
цер 1
60@@ 0.7088569662264385
j 0.14885369838719323
преки 1
Pe@@ 0.08392478918037495
1803 0.9815414233728367
240 1
24,@@ 1
Min@@ 0.07432920340786295
1823 1
Pl@@ 0.06486534917365207
гел 1
ex@@ 0.012777561183283315
NE@@ 0.46109129276199345
PC 0.38797661031780695
1790 1
ep@@ 0.045203218584652066
Америка 1
зидент@@ 1
Pol@@ 0.06526143079859541
152 1
едо@@ 1
ing@@ 0.02949506103902604
HD 0.702882466849508
ake 0.09273601058276111
25,@@ 1
ou@@ 0.025303108965338886
София 1
1818 0.9484218708417512
1797 1
Google 0.6332369916093075
1822 1
ace 0.051797150743165286
ref 0.4853875616234138
1819 1
кара 1
ile 0.03478222520909712
” 0.03882639823043223
127 1
ak 0.04765141428537458
114 1
ton 0.02853676808466484
igh@@ 0.085888703092572
Ы@@ 1
1801 0.9842532324446203
750 1
птица 1
all@@ 0.034372578233452196
den 0.005078494941093102
ess 0.036131541133697265
лм 1
br@@ 0.01668601973703353
еро 1
ler 0.029092044884203347
ell@@ 0.032493919531328054
1804 1
Corporation 0.2856600122972869
хри@@ 1
align 0.3980867246262135
To@@ 0.07466531897914967
COVID 0.37116233159007817
MTV 0.7340763288298806
Sol@@ 0.09492883964919256
190 1
кономиче@@ 1
118@@ 1
pr@@ 0.019846285313137077
116 1
Турция 1
124 1
ary 0.017354493081633907
гане 1
Club 0.08127212547259846
ath@@ 0.038065666759354834
39@@ 0.9839967269689521
iz@@ 0.03658178799699783
Много 1
1799 1
MS 0.3244915349756125
ER@@ 0.30827286626441097
und@@ 0.03159872103667544
126 1
mar@@ 0.020235591300642685
3D 0.622232106255799
Ag@@ 0.0956467080826475
DC 0.31556807849177426
мото 1
Pi@@ 0.08331623294246192
Apple 0.5941742201364013
лип@@ 1
{ 0.33822162499107605
113 1
ics 0.04884848469174976
Ho@@ 0.08516249021092187
FI@@ 0.2635760754608936
if@@ 0.04220642031495987
1794 1
1798 1
ans 0.016657889583021213
Studios 0.44162403089470464
117 1
box 0.2532752305185597
ver 0.04936930110724268
Ul@@ 0.14606477165814347
Bar@@ 0.03339240785878481
Mas@@ 0.07767575540987681
co 0.03795119624058761
yl@@ 0.07382676690013946
ion 0.036242977171377644
Airlines 0.743285702464115
смя@@ 1
ters 0.03879602971971951
par@@ 0.015294552485286515
be 0.008537483902825299
Те 1
era 0.023993661655969667
Red 0.14739790303785025
114@@ 1
ne 0.015863836962564194
Ser@@ 0.07077774726071825
land 0.02212812058322439
155 1
Man 0.16077084033140546
Por@@ 0.09475158606750334
Hy@@ 0.14995861825767834
Nintendo 0.7636096982761845
ella 0.0785243066576952
ten 0.011252845780362376
висо@@ 1
Cre@@ 0.14559036752420693
RE@@ 0.38394892672592623
ru@@ 0.0328715810465399
tic@@ 0.049622064416257376
68@@ 1
26,@@ 1
23,@@ 1
li 0.09099216154515183
22,@@ 1
550 1
Fre@@ 0.051392292755129625
27,@@ 1
230 1
55@@ 1
Open 0.18418123243701234
1600 1
tu@@ 0.03980905365178006
No 0.14115322201322378
WWE 0.7076306834528442
65@@ 1
ang 0.038902471728272894
хора 1
Boeing 0.8957267843055395
Fe@@ 0.14283346813182102
Go@@ 0.08986016976681149
210 1
Sony 0.6876749561049712
гария 1
AC 0.2149514445037761
Top 0.22350045034924243
70@@ 0.8117712562552728
лимпи@@ 1
Зав@@ 1
hi@@ 0.034176112206193744
Европа 1
Mus@@ 0.06361892286955287
ous 0.025897048724614416
4000 1
СС@@ 1
121 1
123 1
Mc@@ 0.04905176400276101
and@@ 0.02582971066286578
Son@@ 0.20494364161469167
Tom@@ 0.1427661278286686
117@@ 1
лят 1
ere 0.033372463454076816
· 0.04718050084394526
Games 0.1755909843332898
Бразилия 1
ence 0.016986950448169398
no 0.015204972503190734
poem 0.49301843099009446
Ben@@ 0.10448308796788028
Linux 0.8992733562665199
46@@ 1
македон@@ 1
Award 0.10050030010498982
Tour 0.12539556163842505
ari 0.10666721375985695
USD 0.8789821281146083
ill@@ 0.036416569072083516
ical 0.02423445026763861
320 1
затво@@ 1
47@@ 1
IM@@ 0.38779042773161215
MA 0.32662593564453696
PS 0.27392071115963085
Й 1
ti 0.062117580931892555
yp@@ 0.09546606271095098
gr@@ 0.020384089049869596
Bank 0.1850573674017748
Mot@@ 0.14683019383258572
end@@ 0.01913392856368414
ator 0.05562479691061351
aw@@ 0.03881666300775546
подкреп@@ 1
варя 1
Ab@@ 0.023437957416211495
HMS 0.6267416875020599
te@@ 0.02018059675117292
Media 0.23864792355327658
Su@@ 0.05791521978794871
My@@ 0.1695664658099485
21,@@ 1
116@@ 1
As@@ 0.062138172164420344
Sim@@ 0.10731630944940798
SA@@ 0.25707931825540764
Bi@@ 0.05156326954524312
Star 0.17045343076946
ow@@ 0.03564151322609133
ors 0.029630705080939825
Super 0.19057465334981855
Rolling 0.7762940197063112
1789 0.845910118176118
Фил@@ 1
Game 0.2705788041723746
Radio 0.15079024271294647
se@@ 0.01635958810489129
1791 1
War@@ 0.1004366080784556
oph@@ 0.08727914373655182
ass@@ 0.0191908458815155
степенно 1
чени 1
1700 1
175 1
113@@ 1
Mer@@ 0.0672774282914278
IC@@ 0.2222704284212564
ma@@ 0.034188647422248857
atus 0.16741291589379143
118 1
AN@@ 0.2698816613083315
44@@ 1
132 1
IP 0.5192436282468453
между@@ 1
хайм 1
De 0.05221461402870931
Балкан@@ 1
отбора 1
награда 1
sch@@ 0.01364240071531581
рани 1
исторически 1
ant@@ 0.030293185273617306
CD@@ 0.1966503672823955
Stone 0.355090892137724
Har@@ 0.050148214420755774
mi@@ 0.03271959184329108
AD@@ 0.2702090998635158
Au@@ 0.06291569806007692
City 0.04159973809527369
чуж@@ 1
650 1
ep 0.08320339497799308
iv@@ 0.042054990554590964
Sk@@ 0.16217826320881235
тук 1
ó@@ 0.03491792363475699
News 0.23655633904939197
Le 0.012112963835204967
BA 0.2736818494275454
ca 0.04207252752034872
so@@ 0.02523117418248452
129 1
SP@@ 0.31998726417304946
ise 0.020925607202045126
colspan 0.4043362565852212
ra 0.03030886017234692
RO@@ 0.3543199873149507
Vol@@ 0.09197767015922491
ker 0.04721410371648871
ass 0.049679827321932254
BM@@ 0.36636038795277415
Tel@@ 0.1536386148413463
280 1
ade 0.0323563553626968
gi@@ 0.020660259076065748
SA 0.23182768811913074
RI@@ 0.4138124713724028
ge@@ 0.016470169568995392
On@@ 0.1010120348276016
ain@@ 0.04463072056124932
ki 0.07122578562984924
Bur@@ 0.046989979858636
EP 0.22888171914674732
ur 0.027426479027349054
IB@@ 0.9714954036623462
ема 1
q 0.1208454739033636
Wi@@ 0.11659378791852436
Er@@ 0.02240812977620807
ens@@ 0.022504420384379446
ne@@ 0.023494254542302882
фал@@ 1
IT@@ 0.4506326707725233
be@@ 0.010613052948704188
SS 0.18279043624144328
su@@ 0.01643519801969393
безо@@ 1
стена 1
Sw@@ 0.0655279063236471
Blue 0.2081765279656666
ys 0.089604939537635
tions 0.016194611524362017
tri@@ 0.02117696994858262
Rec@@ 0.06927140897996903
ick 0.04099557841483409
Co 0.2680138584292807
Die 0.008416590225226657
ack@@ 0.04612652725088607
отбор 1
do 0.022964337383790476
Bre@@ 0.07800191664525452
Tur@@ 0.046224548647162494
Mac@@ 0.07802167034177047
ā@@ 0.10934886663922265
National 0.030141490010480186
ino 0.033801874369396474
59@@ 1
ner 0.018582911634460533
MI@@ 0.36053269667094473
Disney 0.3072228327806997
At@@ 0.0753901869322174
http 1
Sc@@ 0.12125076737281207
43@@ 1
ota 0.1268787516852706
вис@@ 1
é@@ 0.010271921301064807
Team 0.11542487292556408
pe@@ 0.024577892175287743
Sil@@ 0.07606894972268208
oth@@ 0.053743565080546764
ay@@ 0.028191020458471182
Can@@ 0.0798137171067358
sp@@ 0.02042769560950603
Анг@@ 1
Pin@@ 0.19382253143174713
ora 0.06002933483537412
style 0.07236597758691596
260 1
SE@@ 0.22954914010865826
Sho@@ 0.18178607115850004
Net@@ 0.2810816901499875
Ел@@ 1
шру@@ 1
ML@@ 0.3847036275155677
бре 1
~ 0.6834072444177285
ya 0.021929357042736058
la@@ 0.033088194254502074
IG@@ 0.42142938407461283
Азия 1
ley 0.030413493048526922
out 0.017104372157319542
Mercedes 0.676268490870815
UK 0.10681782863910391
2500 1
Is 0.2907542364902288
é 0.00635005635747385
270 1
ash 0.114899426397804
ack 0.05930356891040446
119 1
oes 0.2776657022892278
MP@@ 0.3252989594821775
BC 0.17076980898640107
380 1
AT 0.39995887588800605
q@@ 0.10126017730926305
Fr@@ 0.04659909227949131
Ford 0.25098493345063866
РО 1
58@@ 1
ars 0.04274325417358429
me 0.0227696751269497
CA 0.23588913504284065
pen@@ 0.04670046560049487
90@@ 0.7877975197272846
Night 0.2691449895899048
Del@@ 0.07380182556939324
І@@ 1
Ap@@ 0.09749971628046247
县 0.1634436049016667
tel 0.0737654109680504
af@@ 0.019326826312528564
US 0.03821898226583779
проти@@ 1
tim@@ 0.03377095607682242
ps 0.053132727785081775
лиза 1
ave 0.06558017959731233
ning 0.04063592192003294
ff@@ 0.0304544665217795
lin@@ 0.02896264571127244
Journal 0.23499924325150992
On 0.016469863643759703
tro@@ 0.0374845507346909
СР 1
alis 0.2515533364358181
201@@ 0.572521789851168
вят 1
bl@@ 0.02605881080668253
www.@@ 0.7203735311120524
S.@@ 0.23900306136200297
ory 0.03430756143247395
Hor@@ 0.06946629584143697
eo 0.06804539944701529
du 0.003896632793525423
взи@@ 1
Jo@@ 0.05429505726435775
15.@@ 0.6309453652637966
Your 0.3873383729239157
барди@@ 1
end 0.018472349976732062
SS@@ 0.3023235564380536
he@@ 0.020730874696065032
All@@ 0.10692504863650068
A.@@ 0.2434935806130325
School 0.03318464462889067
im 0.004994674075004231
ase 0.0424636567707405
даго@@ 1
ra@@ 0.03138287039860212
Pictures 0.5297860240126153
als 0.005117960571858
sa 0.01588999742226373
ke 0.029319385645136208
enti@@ 0.02439032762659177
мерикан@@ 1
tra 0.06950281754839592
Pro 0.2539464447844915
ist 0.005211277728043505
Im@@ 0.07307000912311912
AG 0.2448461922677127
ari@@ 0.04195401397328621
DE@@ 0.3257956561201754
SO@@ 0.32251239850899227
per 0.027692655430687715
Blo@@ 0.16507136916376114
ever 0.0781876328047666
330 1
формата 1
AB@@ 0.3182505892081232
ev@@ 0.022399263512577816
56@@ 1
区 0.09116466463767102
49@@ 0.6590289110276367
der@@ 0.020913958262216627
me@@ 0.02102425765869979
iss@@ 0.05858020788540949
Big 0.1444789926757314
ub@@ 0.04441049649834464
53@@ 1
Street 0.06797593107209872
com@@ 0.012697774963454955
вестник 1
con@@ 0.008103490611828091
лите 0.6545613384910103
Res@@ 0.07930622888874744
aceae 0.13787195993985
1300 1
Френ@@ 1
Of 0.21009675022098764
67@@ 1
man@@ 0.01868829937243118
14.@@ 0.5260582965671049
UN@@ 0.21852936990891686
Cap@@ 0.12930192103800725
ah 0.04496321694933904
Ber@@ 0.028794275838162797
ML 0.5940253235283797
cr@@ 0.02431111183094414
Hal@@ 0.0844277551399393
ame@@ 0.15112542992316644
st 0.024731000959742136
консул 1
стове 1
AN 0.35350061963010054
Rot@@ 0.12641272365757983
Star@@ 0.15609826812534106
ото 1
ales 0.013075091126044111
AS 0.23950321696414942
Wal@@ 0.06630004826633061
Eng@@ 0.0904146139051374
Super@@ 0.1248181988516632
Vir@@ 0.1334566544335323
Sec@@ 0.10502171595329382
шава 1
cor@@ 0.024871421086662585
Cy@@ 0.12940328692337394
ә@@ 1
госу@@ 1
way 0.026935748340459562
Fox 0.23944924933794157
Play@@ 0.12346059503218282
ok 0.06047872821658011
str@@ 0.01702793822416129
йни 1
io 0.04222414560285218
za 0.0408751944465642
20.@@ 0.6838585473528949
Down 0.37061083928901634
Seg@@ 0.1690415137756456
} 0.2757187395615047
aur@@ 0.08171771353463553
‘ 0.12102752397639456
Trans@@ 0.07013330020446927
ib@@ 0.0383128287829323
FM 0.19978581711510648
ero 0.04629792438049991
Швей@@ 1
Ra@@ 0.1204504007917683
ano 0.02313810329861599
α 0.0971400541075516
Dre@@ 0.10766695419265526
Best 0.1042467778947038
ire 0.027953169501095654
Hon@@ 0.07874297462388254
No@@ 0.10296254468204544
варе 1
mer@@ 0.021318933706164823
ja 0.06008834383913927
Es@@ 0.05667815901335525
Vi@@ 0.04938929074017848
with 0.0025106734617248256
Kr@@ 0.03541162113088319
Gal@@ 0.05727755386433632
IC 0.32829336283903915
ir 0.02145958698960152
DS 0.25015039899652514
System 0.16167250154213872
AL@@ 0.303221272823972
Fo@@ 0.0953059849432688
Up 0.3118460809335727
DA 0.2978259708122845
Out 0.30828900052734315
Grand 0.06806891420746683
ology 0.03975197672570971
name 0.02369343053441191
нически 1
Op@@ 0.0976280599180598
почи@@ 1
Vo@@ 0.10948195684990357
Ren@@ 0.09297824426788852
13.@@ 0.45792963665950265
Африка 1
ting 0.0157110963491276
щите 1
VI@@ 0.3622965447866228
our 0.027054151421325834
Cal@@ 0.05383722300255998
Art 0.06543651491508483
воде@@ 1
A. 0.07657398142399428
Хайн@@ 1
Comics 0.4621275720855933
Sm@@ 0.17107895215403524
CH@@ 0.26335061877044397
BN 0.9142685907760559
ah@@ 0.022833840177034357
que 0.0023718784094284673
amb@@ 0.040286470382020205
Video 0.3232795889486932
ys@@ 0.07869673593418712
bus 0.1138879112929417
Sam@@ 0.09065245657406219
17.@@ 0.588741079904683
ho@@ 0.0234080704044159
Go 0.3504157633378806
yc@@ 0.10781920272897015
ug@@ 0.036498339938636784
ax 0.2202349245911192
for@@ 0.013469994296217019
Leg@@ 0.06511604333606542
\ 0.40325231455358185
low 0.027597976236226725
lu@@ 0.03008499400184772
Android 0.7962862463363295
лиан@@ 1
Studio 0.32055820845585004
ə@@ 1
бите 1
tor 0.027012132122545527
отво@@ 1
Beat@@ 0.44158643118393237
Warner 0.38357034341737717
au 0.0051773587866340365
Gen@@ 0.0642930774459531
Pal@@ 0.04312423347463327
We 0.1632790782200609
IBM 0.6260408259975462
1400 1
cu@@ 0.02165515364901764
ones 0.0361170482952483
22.@@ 0.6880146875463107
ault 0.11301126471565755
ect 0.033353127267385256
Day 0.1231321303044062
Fin@@ 0.051854331416222144
ä@@ 0.014866587714401788
dr@@ 0.021906843664809696
ble 0.045116997698991225
Sun 0.20053771204256562
sk@@ 0.03568033383622571
Val@@ 0.05700659072844188
ATP 0.44620705899778584
ran@@ 0.019621929314924267
University 0.018254872517347188
ess@@ 0.022356819617976212
ong 0.035828848227071886
line 0.028714614838381572
AA 0.21641275611527722
ry 0.04236436589675951
Bal@@ 0.046086561497504126
дове 1
Songs 0.32204656606112264
ds 0.028952470325701862
ann@@ 0.021751768824936405
ABC 0.30581044958964004
ena 0.035464124260586184
RS 0.3473862296298499
ken 0.024761451744422458
Bab@@ 0.14507937671583251
Lin@@ 0.07993895528239613
Don 0.13675195858787928
color 0.11831205755696418
ac 0.060478436795795294
Pan@@ 0.07261486261190442
min@@ 0.017838540858503133
авгу@@ 1
Ltd 0.3780493234815214
Rom@@ 0.057116725245719674
mon@@ 0.0157176353439504
Mat@@ 0.06215266649194017
19.@@ 0.6370681023127946
Ke@@ 0.0890341173992971
ł@@ 0.09640831662790625
Des@@ 0.06011089429388551
Network 0.22500786644901707
UTC 0.6850142881555022
TE@@ 0.3042287914505512
ten@@ 0.013572268106291668
eh@@ 0.02522440882561575
Uni@@ 0.1305244743981596
une 0.004512359564982101
тове 1
NO@@ 0.33845856917613565
ali@@ 0.025195461199600356
57@@ 0.9191929191204808
LC 0.28409708645432225
Gi@@ 0.047705684086210995
Fantas@@ 0.41272654441186307
anc@@ 0.028895598064178303
Ni@@ 0.07362681063299104
ѣ@@ 1
port 0.038261094747488934
Boy 0.3320392680374108
Sur@@ 0.07725289949992464
ama 0.03862137084328677
AF@@ 0.32317282883045967
America 0.06472196753595319
сор 1
King 0.05724020565262473
yn@@ 0.06185866743898855
Bel@@ 0.031009652328966873
die 0.0017906421129704458
ab 0.024959594764814314
75@@ 0.7435844996173182
ura 0.04637624866170136
Eur@@ 0.16234999522578805
To 0.0954765758023545
Magazine 0.2703018740453798
итуа@@ 1
HT@@ 0.654750296300364
Press 0.21697897511516134
Mel@@ 0.08263022399623678
https 0.9002725530468826
Chart 0.37069730249509514
Ros@@ 0.056714145217848136
ek 0.05382713969613045
Ed@@ 0.03931297427644946
β 0.5051540482967841
Space 0.2636649416298835
21.@@ 0.6452475611635234
ways 0.06027715895487637
огро@@ 1
Sal@@ 0.03935490812412897
eng@@ 0.017087409238061176
18.@@ 0.5679268154129564
its 0.006039088695483737
tel@@ 0.03203223309506849
John 0.0210486785873082
dia 0.08100481029119275
чни 0.6220130651364867
Av@@ 0.08880472116492275
Gl@@ 0.06975297142249604
ost 0.07153153888443366
ki@@ 0.056059816986171136
General 0.04269743809646595
Be 0.3903598233005476
China 0.057298048183007676
16.@@ 0.5020441795522541
нове 1
ane 0.03279938410853473
Tro@@ 0.06524686925573357
ong@@ 0.025361108067639283
va 0.035523350933185205
Blu@@ 0.1611935980081195
вено 1
Cas@@ 0.05584093030078331
Digital 0.3680296382050814
Tun@@ 0.1301092230379725
ta@@ 0.03167513886539814
Gar@@ 0.04786193038559084
ici@@ 0.02669307314086184
ap 0.06170120685006981
IP@@ 0.4219390439815571
Nor@@ 0.02972418613657324
Prot@@ 0.07492187372303688
½ 0.9011088527217651
AI@@ 0.2009239789219451
ara 0.03678230487155857
ko@@ 0.060385720036437704
Mi@@ 0.06786377102756105
ë@@ 0.25235322789965364
Ri@@ 0.05187642281439658
SM 0.42890919372860953
House 0.04455274901433717
Pri@@ 0.06026830139747581
up@@ 0.025309164771747144
CE@@ 0.2319665617727566
Gre@@ 0.04818807042388675
миш@@ 1
Series 0.12080142414184267
els 0.02282799674215907
Global 0.28966219045589153
Tor@@ 0.047430407092726376
king 0.031974647289942426
che 0.020408571686962373
ums 0.05233817483042811
гимназия 1
elle 0.009033706106185771
± 1
Осве@@ 1
тези 0.959710269609152
able 0.010612782148983533
ast 0.03886756268738427
Pre@@ 0.05655937301367797
col@@ 0.018220574428746177
Gam@@ 0.2969443350404042
Wh@@ 0.13290569588622933
ola 0.07471511124208492
Em@@ 0.05022547575319139
PS@@ 0.25020703207731837
Rem@@ 0.14771486463197614
Ang@@ 0.03185885644656408
š@@ 0.09372839312587829
ated 0.005859150621042603
tor@@ 0.019562292465001078
25.@@ 0.6469848443870748
Kar@@ 0.032664087040656625
CI@@ 0.17864762115160338
aj@@ 0.03133766113120954
Show 0.1475023326292121
Mach@@ 0.1560555005346746
ada 0.008996704085276886
yth@@ 0.09840285224153156
High 0.0529371283293956
RT@@ 0.30977353443176137
Bul@@ 0.07955814072969986
Daily 0.3414009839481798
AM 0.20921324603280816
бище 1
Win@@ 0.09430292748326123
AL 0.3731740576174432
del 0.0035470504725231907
ili@@ 0.02844175265655565
Universal 0.3340869634869031
ISO 0.6225486319082457
lan@@ 0.029964769341719932
новь 1
Post 0.14652344612306697
bes 0.06802996320815836
Facebook 0.4521648341349482
23.@@ 0.5752324758854237
Produc@@ 0.17276663586626964
Mad@@ 0.05511102189629817
mag@@ 0.04255959700778198
MC 0.32428568020327686
Ferr@@ 0.18239026884197232
ill 0.04978553505474963
ber 0.04439716630932755
Wrestling 0.2929727175199879
гласно 1
IE@@ 0.3352607873255892
This 0.014401672295799096
ection 0.03899496869277433
osa 0.06260152936324447
air 0.04154779939836834
Mir@@ 0.09808709593233174
MS@@ 0.36281910880783313
беле@@ 1
eli@@ 0.05925115887412438
Hel@@ 0.06466381306841955
Power 0.19910996068756195
art 0.022306005135836166
Toy@@ 0.391836819007188
Ь@@ 1
Park 0.04148000818043626
专@@ 0.24864762752264954
GP@@ 0.49612849876415677
ni 0.04637669238107866
Film 0.04806556538638236
Country 0.21050070079626163
from 0.0027080953810084693
ord@@ 0.02735047609162504
ba@@ 0.03186959550264723
osaur@@ 0.2663650544526648
бата 1
Tal@@ 0.09723825475142363
Чем@@ 1
ae@@ 0.11234309089841596
ations 0.007634375057894824
ish 0.020536709209829508
.е. 1
ye 0.045487810468326964
Alb@@ 0.12370682630899002
UC@@ 0.20822782285259592
text 0.09646390467219437
ster 0.03448885015736918
Wil@@ 0.058101379800320055
ida 0.029199028030815498
cer@@ 0.029841590538445133
White 0.07873821745772122
ala 0.045443809349139414
ex 0.09726730812630234
ez@@ 0.045455601188243815
основа 1
ї@@ 1
El 0.008794528935819626
Укра@@ 1
left 0.034763860003034594
fa 0.21206174830102675
Center 0.06545976801594934
ems 0.04667204774519092
Nov@@ 0.08851879180377724
66@@ 0.9710976452267873
LE@@ 0.2726300570845996
І 1
Line 0.11717227163850992
uk@@ 0.03863319359407669
няко@@ 1
What 0.2389058622651144
background 0.18882847390462476
ette 0.034227002506567065
графиня 1
ide 0.04114733793379001
day 0.02202240967375984
AR 0.29731412003408214
RT 0.3114053322456732
ider 0.07106829015393197
Band 0.08376225063784477
car@@ 0.013777981125951633
ud@@ 0.041876446955539895
Dance 0.2835500979599479
ich@@ 0.026134487134210942
27.@@ 0.6279128151449224
ich 0.03075128305490217
ights 0.08395311819429899
BS 0.24652586213436326
CP 0.392665429185073
sc@@ 0.023994359285141598
United 0.01474125146448495
view 0.03846603867223647
ro 0.04343040440135159
Char@@ 0.04829500500922306
.н@@ 1
mat@@ 0.026451468231107233
Reg@@ 0.0302896925665829
ates 0.01634855089325239
ните 0.08199461005097085
ei 0.0626659511049562
Express 0.259268753600093
vil 0.1467900360561604
can@@ 0.028860393090172805
New@@ 0.0645640621174697
dy 0.07874618861172838
DJ 0.2858774995952545
26.@@ 0.6120741527741829
Championship 0.0592888267660225
ski 0.06996217542226536
Ен@@ 1
бря 1
Syst@@ 0.13376852051039992
cre@@ 0.017630876981470193
AP 0.17833519780974333
Science 0.10397046782797041
a.@@ 0.33497703903063636
Cent@@ 0.1686310150900857
idea 0.10199188036119125
ust 0.070919870839459
oh@@ 0.04803143296287823
лени 1
fin@@ 0.014599412452306042
orum 0.3094926423291788
wer@@ 0.02718444471938021
£ 0.12842584242820446
24.@@ 0.5737557878184109
Final 0.14988827785915224
time 0.008784296949595032
Royal 0.047903314689826455
ym@@ 0.053717197410889005
ita 0.034812593617287155
CBS 0.2991345588489008
ast@@ 0.02970483643633895
NBC 0.3084096206762163
vo 0.0879022744794273
Dead 0.36051078798669256
Ca@@ 0.11266871462927677
ү@@ 1
tric 0.0885492930455826
ets 0.015757993030985854
Guar@@ 0.19008040648711585
CC@@ 0.21370715872264137
bu@@ 0.027267916904451423
€ 0.3153988412858644
ual 0.03569676089117891
ium 0.08311966313630599
oni@@ 0.04063413568994284
Ci@@ 0.10911960199814934
pp@@ 0.03639775802702609
CC 0.22693577423440958
ema 0.060853033343856756
ung@@ 0.026352119042516817
Филип 1
лта 1
Aer@@ 0.20134262188172367
illa 0.05752897527422384
Racing 0.22948780141567732
Rol@@ 0.10096343136229909
app@@ 0.02821268894508856
si 0.034821959473356895
Bir@@ 0.064197125722036
NA 0.251151897360567
Sa@@ 0.05022441714408347
Bad 0.16793978958721123
ef@@ 0.023289555343332803
Fac@@ 0.09819160048638716
гато 1
org 0.3903961691409761
von 0.002478383684200238
CO 0.33448300868245257
Ti@@ 0.05542666956770802
Mob@@ 0.22529264603168744
ame 0.055631353266773466
mer 0.027195563255252696
ike 0.08103205420397379
net 0.05860287157995065
† 0.05051721375867234
Cam@@ 0.06230059507614527
ish@@ 0.025598130895460196
Software 0.37211594906356865
pe 0.025778095030112025
Meg@@ 0.20154636626055572
ser@@ 0.01709114837906284
cl@@ 0.020142427174001307
Cup 0.03544404977629016
TV@@ 0.25181344509476794
─ 0.36222467595093816
MO@@ 0.3313290884422217
Cro@@ 0.050496518587785436
icus 0.2961576842515086
EM@@ 0.33575216557616255
Bas@@ 0.0341721143282236
Festival 0.05954512208788384
ury 0.056889857954838974
Spe@@ 0.07028656773153058
sub@@ 0.017228593032333105
Mit@@ 0.05625100265177501
aus@@ 0.010167619994349158
ace@@ 0.1149606480779522
inc@@ 0.01602548897172221
tis 0.08407277954584957
dian 0.23805041374561664
ha 0.021986813735870633
ard@@ 0.02761927482541496
cur@@ 0.024832449089728276
TS 0.34657352527442964
Boys 0.24748164758625124
Les 0.012958525659383336
RC 0.22162203420339993
TO@@ 0.42811932283387943
ьор 1
Home 0.14415965060837246
à 0.001747639565334139
ega 0.08185576797932488
Death 0.1662482344973939
ney 0.04145661479046759
í@@ 0.013194927601043157
Il@@ 0.0899461553642754
British 0.025849119011517305
маке@@ 1
Bro@@ 0.0538300663729356
Can 0.35219925580516376
Mal@@ 0.027593400170344565
IS 0.2534301088620487
France 0.019559880110858616
Македония 0.8530437558750897
ie@@ 0.027016485981273125
Metal 0.3353042274016896
ach 0.01871754555908788
бив@@ 1
gen@@ 0.013699248036230481
Like 0.17356353853303363
du@@ 0.022974989060070717
sol@@ 0.015471240228205833
Du@@ 0.04547599350615093
Ban@@ 0.06711346741728354
ash@@ 0.03827470829537875
Mac 0.3542751035226413
Ru@@ 0.05803097951295889
cap@@ 0.022335158701321238
2.0 0.4773137515320157
Dark 0.32148842377398307
Ever@@ 0.1616871714290882
псе@@ 1
фут@@ 1
tes 0.012468642355975787
chi@@ 0.04190329515191891
oy@@ 0.032681069151755726
ani 0.04289515508937665
op 0.03614970725967032
Little 0.12299367310940638
center 0.06366576311175086
Heart 0.2721568362866969
PO@@ 0.36415011778572015
SD 0.36400660700936405
ler@@ 0.021853222203302203
Bor@@ 0.036363179587690087
su 0.005429487005152829
ple 0.09970646282968326
ime 0.03794707733861306
ai@@ 0.048510177578419036
ays 0.05914104876190544
рове 1
Sy@@ 0.06211012665312341
Amaz@@ 0.22974860808042508
Foundation 0.11849805407483485
PP@@ 0.4315177459422376
ment 0.011251356635341407
GM 0.34955387136669924
ze 0.02766454809926526
Je@@ 0.044193003752530276
ung 0.005405142881412302
iti@@ 0.028302519217458025
Dream 0.3893698073656704
NCAA 0.18123540844816377
cus 0.11490431870323015
Java 0.3796098862517798
Ur@@ 0.03595252699226762
amp@@ 0.03291447899273746
Girl 0.26060873891563874
стве@@ 1
e.@@ 0.13282027825333817
Cin@@ 0.1364901509271669
dition 0.06360883295473505
ents 0.009321622947049782
ision 0.09298910424455951
inn@@ 0.02415843405646683
PA 0.16009722734453918
Sound 0.2518641628592247
Нова 1
Cer@@ 0.06181833699218887
County 0.02128394719238106
Hu@@ 0.05142532211978254
War 0.024479066724248294
ME@@ 0.2501388512904106
vent@@ 0.042852586089085744
местообита@@ 1
gu@@ 0.012649745879744413
po 0.08209425119674306
Sun@@ 0.12914832736486528
fr@@ 0.018438519899255087
Cur@@ 0.05829828413837326
uz@@ 0.04633729636579438
Limited 0.29317505229980706
ful 0.03823003370656765
Wat@@ 0.08402391341063133
ene 0.016730091657128753
Rel@@ 0.052988799086626084
ee 0.04658081321240629
ome@@ 0.08678839103265255
ins 0.014130910826176714
agon 0.13653027317298777
pos@@ 0.012335083778298459
eta 0.047729660393856836
That 0.10138783026844334
ona 0.042415359982562746
Mark 0.0788840036301469
AV@@ 0.37527545583298005
ff 0.05447096893496611
West 0.02816667344646389
go 0.03325759747363706
tics 0.026035667108584827
е. 1
TP 0.4524055779950483
IT 0.3265955566752559
For 0.031970113728350194
що@@ 1
ense 0.03735120379855083
ops 0.047659529781780854
Cir@@ 0.10051508235470082
ding 0.02923831272679099
San 0.02010498340531572
ko 0.060216858776095644
Liv@@ 0.11593120269519966
IA 0.31334823498896874
ith 0.051919845248962426
Singles 0.19533736269068855
tica 0.05189801797230876
Gro@@ 0.05349057752800163
Arts 0.0668849270176606
ori@@ 0.02494443585094403
Light 0.20030398897820595
M. 0.07726529674979958
Anim@@ 0.2714489583265992
cul@@ 0.03305422950519175
tur@@ 0.01656023107262844
DE 0.313749495441415
oma 0.04715918516245886
Do 0.19673247143122252
ө@@ 1
ke@@ 0.025547700745156363
SI@@ 0.35787064053841033
Japan 0.051674743197102836
Project 0.1725756877061506
ital 0.07065726717040188
WW@@ 0.3518469098174109
agr@@ 0.0731911572526513
CN@@ 0.19121865709424007
Coll@@ 0.15258516086671098
span 0.29756593673325116
Medi@@ 0.05052629964330239
ua 0.06055971750622876
aria 0.04617869632202739
field 0.02381461688692481
sa@@ 0.023621888474672587
Dol@@ 0.11449119533920274
Research 0.08527280669544275
CS@@ 0.15979086906021053
adi@@ 0.025734351125684684
SC 0.11251197934318834
ello 0.05896137814797791
чели 1
hy@@ 0.05109278242041839
pa 0.07551054520850936
Queen 0.09451322413580827
del@@ 0.032927892403231886
ind@@ 0.02485496619395375
Loc@@ 0.06285278654452714
VA 0.3027011149468063
ა@@ 1
LA 0.15733690260840355
pel@@ 0.04289917391625322
tro 0.08037598859694683
Plan@@ 0.07891277744294777
ech 0.05851187063578554
Play 0.2504781531461948
bar@@ 0.017051953824383615
USS 0.2849702583974597
ock 0.05915755825025313
ature 0.03723802926370545
tus 0.17290976998446278
Way 0.2520378611520827
Aut@@ 0.046350188804908356
ly@@ 0.03938449226998318
Dec@@ 0.07455367098094204
Is@@ 0.034099979287400814
ista 0.028581939177145313
Ty@@ 0.06578167071087472
anti@@ 0.02228192438505126
sy@@ 0.04338343751186865
нали 1
ket 0.07161543204294167
we@@ 0.01266859687221321
Chil@@ 0.08423691335879377
ative 0.013783159401916356
top 0.03274091685439079
Good 0.21586549872233912
zi@@ 0.02862321983769448
London 0.028369248956457593
FO@@ 0.37259238671315886
Ju@@ 0.0499594575471221
Wo@@ 0.04822273378667933
ern@@ 0.02672155679615062
Pas@@ 0.052727474059021964
ail@@ 0.02947866037280096
ze@@ 0.03115979701376785
Sub@@ 0.06530240061185986
ts@@ 0.021055414793572796
I.@@ 0.35049196529885457
Oc@@ 0.0577537587521863
Channel 0.1652293519361485
AG@@ 0.31322705513136817
kar@@ 0.04557244905475962
Road 0.05066141871017663
Roc@@ 0.10004643581622641
P. 0.10623096560896438
pha 0.1801297018127241
mor@@ 0.022617205485239465
Young 0.09265967806694317
ines 0.021548223075384114
art@@ 0.03879961195750246
Classi@@ 0.20414969981087935
AB 0.2997574165846631
sion 0.015122882503557117
ement 0.007458449557821042
Fil@@ 0.06454690235888924
RA 0.2017658993221523
omo 0.1708561263340472
int@@ 0.015245199836488919
Lar@@ 0.09439528576046957
ian 0.02052014451732164
sche 0.06282447586542
Green 0.08424804926816097
sung 0.223433783103353
ели@@ 1
Association 0.03919312687496
Mil@@ 0.03842009425747289
ger 0.027086978509094264
милия 1
своя 1
ky 0.053729043100875645
lar@@ 0.025148129177490524
so 0.010126474112151155
Direc@@ 0.1040232014813306
Ы 1
ends 0.03712117798914339
ö@@ 0.01639468042198144
Back 0.2673415285672818
Inst@@ 0.2866798604231351
sen 0.023896630632808752
подкре@@ 1
Na@@ 0.09687954366906325
Mov@@ 0.11637614888238863
Rev@@ 0.10275648277827468
ven@@ 0.02151668569021599
Who 0.23725146906311195
вски 1
Phone 0.614533051611825
застра@@ 1
Last 0.2454466540055037
Chr@@ 0.16504703719356456
Cat@@ 0.0631905203819265
Publ@@ 0.13103205824078576
ental 0.02624724443988162
PE@@ 0.26528764769805563
ix 0.05327572890616632
енен 1
Christ@@ 0.04981310853814431
ut 0.03425425685074093
Sports 0.11371314852007745
ителен 1
Girls 0.22989386166122994
row 0.052912799209881706
DO@@ 0.2910638944985173
ture 0.01840472609928002
Form@@ 0.08649597518557228
қ@@ 1
Мексико 1
ი@@ 1
play 0.022618419206515153
Bu@@ 0.06685246992595724
aft 0.03922358606422509
Brothers 0.22779054610070337
ius 0.11899152467215682
over 0.009295182541308447
ця@@ 1
GT 0.34999312796979504
Lu@@ 0.03466926464800932
LP 0.20549223892109278
Russia 0.08835616350662182
Fut@@ 0.14904880453142924
Industri@@ 0.10888098955009479
CS 0.24999252217414947
99@@ 0.7204493237661497
тег@@ 1
pu@@ 0.0195227659927806
ft 0.028524142408399716
č@@ 0.08086760743977689
anus 0.17271665666968822
ies 0.0146589088865709
PC@@ 0.17027152001720997
Not@@ 0.051344432462469655
fo@@ 0.027746094244774644
Comput@@ 0.2203044885937767
Sky 0.26569224558509225
ula 0.12209690642009063
Cos@@ 0.1367002419791287
Hi@@ 0.10073314111556392
League 0.01835053271824533
eus 0.19169040225002618
Mid@@ 0.0752692001446298
Astr@@ 0.12816031570870243
bor@@ 0.02038530582136078
фести@@ 1
ou 0.009285923023865892
The@@ 0.04712938110108844
нама@@ 1
Tw@@ 0.14066995657721176
ische 0.010268525867815029
á 0.026168959882802593
Ali@@ 0.11411692922238303
Force 0.06626011468738842
M.@@ 0.1906128891036792
dis@@ 0.005149455265826421
fl@@ 0.014849957030123165
Tre@@ 0.04263353954658504
ba 0.04681537979817927
Ger@@ 0.02360454009903002
Society 0.04877073823873321
политически 1
Kor@@ 0.04357973734375317
Song 0.10517982880345429
ight@@ 0.10644105197085775
NH@@ 0.13057855317370723
как@@ 1
lo 0.010175178765335484
uch@@ 0.025313402823078056
II@@ 0.30406135803554385
yg@@ 0.13601768075052825
fli@@ 0.20858355543635623
AE@@ 0.2862350751973094
Columbia 0.09095816945247501
das 0.0036692112345018566
tom@@ 0.02492004621455093
AF 0.18273882314527398
light 0.03208686212927845
ome 0.05194423819964021
olog@@ 0.02979997615197508
Fire 0.19114889039033306
elec@@ 0.028002324616518935
Micro@@ 0.3088807502842944
AD 0.15473465649734283
South 0.017760432979642377
LO@@ 0.3393755263082435
mac@@ 0.0963981760537872
роля 1
иму@@ 1
екс@@ 1
Sou@@ 0.08095048783014663
E.@@ 0.21789937987456331
ster@@ 0.03364886023838589
ains 0.029809482574844375
oni 0.08677112797704421
very 0.019751993780007183
onn@@ 0.02153625564204532
itch 0.09839196481781218
May@@ 0.09082521680771459
DF 0.21647464462908408
onia 0.05555554598596251
ety 0.03147923096777915
Red@@ 0.06944200993775393
og 0.1638996601184707
rive 0.14985430387055249
учи 1
Shi@@ 0.08917734159636562
vir@@ 0.060493927173696
HP 0.3597132162046161
ness 0.03701718986950919
USA 0.05977920328017843
нски 0.7582331553587672
ico 0.018530079054683776
Los 0.015692795655286106
Fri@@ 0.07630746138191878
tronic 0.16372576301994046
Volks@@ 0.07602336710194568
ail 0.04910208224924978
Kn@@ 0.06089492343636199
Europe 0.03185061175043461
ids 0.04820370107413372
the@@ 0.02019485517349765
Book 0.12772911972621195
enn@@ 0.018994408334102975
D.@@ 0.29474684798560685
of@@ 0.025094323917070768
Ir@@ 0.04229091668452995
Paul 0.02775366655087774
ces 0.01781105465035993
Ze@@ 0.042447935706695
berg 0.021519444938941385
Techn@@ 0.09060525552363669
D. 0.06418362709471737
Plat@@ 0.05828881959741377
St 0.0499200110060614
ole 0.025392157046713645
EN@@ 0.3711751177204082
Ob@@ 0.05046662235107809
act@@ 0.05238360156970048
Vis@@ 0.09776068701832602
Оби@@ 1
con 0.003618773591621462
‑ 1
fer@@ 0.013295999706993342
Black@@ 0.12664646659766737
rol@@ 0.04462937570756431
First 0.044510717803194495
Sab@@ 0.07812597829331427
Swe@@ 0.08685201738566936
ison 0.0338299908221516
eme 0.03970227975534032
MP 0.14260645749785597
Luc@@ 0.06993868426104835
craft 0.18454904577012832
por@@ 0.018150887528457945
La@@ 0.07571932633122629
loyd 0.17071198726592982
Kon@@ 0.020792561775259677
wagen 0.16042055831855262
Chall@@ 0.1348345875823287
erg@@ 0.03775748407400238
son@@ 0.02649594962568012
arr@@ 0.016388757680589075
eri 0.0729496422055069
ON@@ 0.21745890339374202
oo 0.12518425228848717
tal 0.062394891434001384
ans@@ 0.025981604108288366
Spr@@ 0.03936085656102193
kin 0.08022890664858941
TC 0.20404716401469322
гне 1
Da@@ 0.15142807969451208
CP@@ 0.1848547817529523
ati 0.066021130239743
tu 0.12197749766057643
ii 0.1971621960893794
cel@@ 0.03870394479671306
ey@@ 0.035462975087249306
amm@@ 0.02744006972358358
ny@@ 0.117461290258342
ve@@ 0.027668742753119008
Gener@@ 0.08603146621090497
okia 0.8104711800724256
ote 0.029118242963301063
old 0.015061763262556378
wid@@ 0.0372549867360728
Pur@@ 0.10490544049881034
пред 1
ima 0.04973447556102232
ези@@ 1
Land 0.05825353501578467
sus 0.012041018804937756
Pap@@ 0.060816726177448766
pro@@ 0.011351175979764046
nam@@ 0.02713062495258859
ado@@ 0.10918432251232088
Mul@@ 0.07205194520893357
Great 0.053747452887303426
C.@@ 0.17849305338394422
Fu@@ 0.06468717280178629
List 0.05799862148465475
R.@@ 0.24655981647788963
Hall 0.04172840628864131
Sum@@ 0.08425643694559087
atr@@ 0.03388788793004249
our@@ 0.030413502332901163
North 0.02026068524627555
Pres@@ 0.044173374259855507
esis 0.08474660027512058
пата 1
inus 0.19754660669430518
Ran@@ 0.09130253418507193
Eth@@ 0.13937869474344686
Off@@ 0.05042932596001737
eph@@ 0.10244383795538985
Bet@@ 0.0515183618924855
bre@@ 0.01483379343196197
Golden 0.11487530396067974
enge 0.08480844557708968
Cu@@ 0.05934477186043215
мни 1
Lab@@ 0.053312967287474596
UR@@ 0.23926075941470357
wa 0.032699166337403114
des@@ 0.007849152086023546
Out@@ 0.1116581726494283
arch@@ 0.023195640695217817
Mak@@ 0.08600902777068194
Spir@@ 0.15549326829313484
ms 0.041679110328181945
GmbH 0.17142819866310086
low@@ 0.03047942372058213
Free 0.14764914011815156
ath 0.03855360706964033
una 0.0033414381320068004
Pop 0.2276441057555304
Юго@@ 1
Arc@@ 0.16167364338563958
mann 0.027129953425331272
Chev@@ 0.1863062809314099
Света 1
Kom@@ 0.03068728024184589
ost@@ 0.05660320778509328
Rus@@ 0.07461147986623355
let@@ 0.01872309234054856
now 0.017905664547011573
sel@@ 0.01878959069719098
Television 0.1414718714606778
Comm@@ 0.0661446194694075
Enter@@ 0.22859753399674898
приема 1
ech@@ 0.025491194520376046
NS 0.24661488810943233
ov 0.0357713691834392
fe@@ 0.0126370497181224
Ter@@ 0.051632435359888956
lock 0.0468545121777097
Beau@@ 0.08810488898331462
ants 0.010420089565652763
Ko@@ 0.038886137386607234
music 0.019480555598690164
tory 0.07126144039461951
Deutsche 0.1213063339521161
Type 0.22457717290192383
Gold 0.10079788036096683
res@@ 0.0077528327143893535
ji 0.05828537317241961
ange 0.04349935211008045
ax@@ 0.04179468729216984
пис 1
Cel@@ 0.0684460860215856
Moon 0.2087942718946435
Avi@@ 0.1323610161780125
Stu@@ 0.06273500208371714
asi@@ 0.03676399501651465
ez 0.029663002800527288
Dy@@ 0.12815949412388003
oll@@ 0.025813887918898163
State 0.017873792678486652
Web@@ 0.0796382491376113
rec@@ 0.007856029761810858
ī@@ 0.17691523433565534
′ 0.4903481064097716
мите 0.8055951738517554
tari 0.48459124254148606
type 0.0373668828913546
Vari@@ 0.09230997195381307
wn 0.024649390694283218
College 0.020735410669012043
Между@@ 1
anth@@ 0.06312906980416319
Sof@@ 0.13621150947570265
Ga@@ 0.12295894418752047
kh@@ 0.020843723244447734
ody 0.10700534042059875
Sport 0.1337931689435612
Under@@ 0.16489904462404045
Lov@@ 0.17219601883525495
ond 0.037717135696156125
Now 0.18694779997494776
cript 0.10735587969790535
And 0.12748985507087274
ark@@ 0.0470611191819369
NS@@ 0.1204193842070566
Mur@@ 0.03527399074347074
Zo@@ 0.2027434502026197
Museum 0.0408265345574488
History 0.02140511797906233
PR@@ 0.26126591097223995
West@@ 0.036185373368767704
oto 0.043680417565230285
eter@@ 0.04029052243136836
God 0.09160734657631883
Model 0.21501021314444546
my 0.048862339561462284
Motor@@ 0.16074200750201253
inger 0.04197066891461259
key 0.03911170488945717
ato 0.027310381550308006
sti@@ 0.01995614326541865
Dor@@ 0.046049307575620806
ille 0.018757206320302793
Far@@ 0.036522841060276895
gin 0.09817947304087117
C. 0.0408668833472601
och@@ 0.059914945759550156
B.@@ 0.17470225003105774
тори 1
§ 0.29828347055198234
David 0.026906560061632494
EC@@ 0.2752677889264405
Ev@@ 0.05348099646133671
arg@@ 0.05111180960216678
ila 0.0505477938542776
Dem@@ 0.04379291781979873
Der 0.006725850498100019
opsis 0.11603160574194421
Two 0.05617316337066882
Natur@@ 0.05183181549581404
less 0.027010782265533374
Stor@@ 0.11961983592626058
Syn@@ 0.0667860719578745
aga 0.05492330933175132
til@@ 0.03275511427772626
Square 0.14350619904887554
Vel@@ 0.10381632310504603
Union 0.026389978973671516
lat@@ 0.02084826427769042
Dev@@ 0.06475889536463961
Twitter 0.2914154862130212
Bon@@ 0.05410636440782965
ally 0.005624156193652169
Mem@@ 0.07483567822461383
месе@@ 1
0.000 0.0793760717875618
lis 0.058890526921979505
пома@@ 1
boy 0.10892045669566826
Fal@@ 0.07445516262341613
обеди@@ 1
Radi@@ 0.11168372173255992
Hill 0.05480885355151442
yst@@ 0.06121226384100198
ე@@ 1
People 0.07700876380982714
Arch@@ 0.04753712539193109
aster 0.10473485395527546
199@@ 0.06469208481889625
V. 0.07215837392188164
Kin@@ 0.050692016886150465
офици@@ 1
Institute 0.041172721427302966
GA 0.2103667208748205
Hollywood 0.12045353524276868
opter@@ 0.3426260800072937
Island 0.03935067444363292
dic@@ 0.020401670366818923
European 0.029568051716990878
stein 0.030548400073102645
ures 0.023406593063773923
T.@@ 0.3420841633502526
ali 0.04668755500687902
пет 1
DP 0.12448620504152931
arm@@ 0.018798230446297057
Service 0.05930633973024906
Satur@@ 0.11804523724038286
СШ@@ 1
IF@@ 0.2743742898737508
Inv@@ 0.08925222030455811
Tod@@ 0.07134809597737095
ely 0.012518118669071402
ats 0.014029548318862082
ce@@ 0.018845218972707037
Angel 0.2516261393347741
ams 0.04418818178744531
VP 0.1904424644561581
Lot@@ 0.14277550183867393
министра@@ 1
Rap@@ 0.08915484170025374
com 0.2009943680344669
Йохан 1
pre@@ 0.007215555382185842
ета@@ 1
Mes@@ 0.08202798240880263
Not 0.16033689601943607
Chem@@ 0.08583242225411876
Paris 0.01851020706330768
SE 0.2651020778354251
bat 0.1018675527515122
tho@@ 0.031146731482301158
Technology 0.11044493182810791
cal@@ 0.026888240331363604
tin 0.02507514687687461
21@@ 0.6830156971871838
her@@ 0.009005792324442739
ret 0.05847114913205531
unc@@ 0.0225427953988736
SN@@ 0.1925860715212278
ough 0.027026784823958188
van 0.03290797381598557
loc@@ 0.015450696671385752
ord 0.06925659197691375
Martin 0.03800757483719467
eth 0.058100366504463534
ž@@ 0.13210881151137963
rap@@ 0.03136516780791604
Am 0.020074039370366527
ling 0.02473254013521873
go@@ 0.02103285269867036
vo@@ 0.014604789394403413
Alice 0.1615709182918459
Ven@@ 0.05494772710251208
More 0.13191233879334677
жава 1
прите@@ 1
FA 0.08946215981233496
ishi 0.23391741033382119
ted 0.004596018831531449
ik 0.029013885007920424
Commun@@ 0.05149901357767994
lus@@ 0.05285843024983499
star 0.06758614351393476
било 1
side 0.012657339882595644
Pa@@ 0.053740857492587474
wood 0.038127151577993776
тенан@@ 1
Hom@@ 0.061359129458124266
eri@@ 0.04751456401353993
Human 0.13946736250618672
East 0.027686362931211444
ela 0.03786390930537163
active 0.03954336292164111
Kis@@ 0.2218069048030365
Liber@@ 0.04215812382104148
Sl@@ 0.1738811698096844
Lib@@ 0.07689190085290872
unter 0.010792238131428537
ѣ 1
1. 0.030289295811890746
ga 0.03725027785197079
oth 0.0811469129247659
Films 0.16650732505651042
Gun@@ 0.1214635316253334
las 0.0032522967292473934
Ham@@ 0.049157314005224224
BO@@ 0.29640284635376396
Nik@@ 0.12766847104958884
EE 0.2651981669083394
ying 0.01743831853253172
ater 0.03186759222498717
Academy 0.04163055432865958
Pop@@ 0.11724360664596667
Pit@@ 0.08081353030086985
iga 0.1057650515699356
nis 0.03670416800327782
tron@@ 0.07183845744917607
ide@@ 0.04205652047043719
Dom@@ 0.049564821826304284
ї 1
Atlantic 0.10013440910317992
up 0.007046391292475675
Pun@@ 0.09155330936815265
ides 0.024626212213495875
bir@@ 0.025681333749380073
Office 0.07813957351535844
act 0.022555147960033745
egr@@ 0.05992714339522985
Earth 0.08910576424395832
hor@@ 0.02521807362480522
SI 0.31488819063125184
bo 0.07627832184503862
Sym@@ 0.10685277945398484
í 0.03157833897009076
Camp@@ 0.04521890535914284
Ful@@ 0.08708330882519302
Def@@ 0.06702965303951648
Master 0.09574010891827311
лния 0.6861975129498555
use 0.00935015305388597
form@@ 0.01255105818458003
ray 0.08427523736616226
sal@@ 0.019864459924840237
Pacific 0.06338450196268344
Mol@@ 0.048025197004610304
With 0.034760099501811165
Business 0.10198519382626181
aris 0.281691920759822
mes 0.02431291786654489
Washington 0.03126872719105793
цел 1
From 0.029205345957162183
ado 0.003468660399017253
ories 0.02942403924854771
Sav@@ 0.056656998392864935
Year 0.06682421647270469
ha@@ 0.026046056736929155
ito 0.030862022271162182
len@@ 0.02377319156387759
Internet 0.0926946032648072
rit@@ 0.02491768743095751
tig@@ 0.023399210040251906
сента 1
tar@@ 0.017909437408433784
ties 0.013000536345555347
So 0.04726883773923066
tan@@ 0.021810180977377202
San@@ 0.03850488390128891
TH@@ 0.2810462577657334
house 0.02161009866529963
Family 0.08454200993816416
SR 0.10205668894116902
urus 0.35919170599997385
Web 0.26864355243769145
Management 0.11219216172652087
Ori@@ 0.060111144431041395
DV@@ 0.3292678650972142
ope 0.042851990911577376
aph@@ 0.11372421275051268
Sin@@ 0.05061605267989329
É@@ 0.016174591722339628
hin@@ 0.03682530452440268
æ@@ 0.17023860861563192
Story 0.1910241534459362
Fall 0.11248621092222938
----@@ 1
isa 0.057975665512026556
Railway 0.06640944985682554
az 0.03361965473775915
uck 0.06725818157980912
Al 0.027444224825511114
Mu@@ 0.04431936295331875
yn 0.06568801723190218
ume 0.043816092003440055
Thr@@ 0.07638731547292076
amount 0.08303135981971736
hu@@ 0.020404429306437693
Chrys@@ 0.4222409214250198
Ba@@ 0.06456915544268386
Tow@@ 0.09794375228743996
Russian 0.04336459920649644
ror 0.12938208343191118
tical 0.018703126630378833
isi@@ 0.01666918843478898
Med@@ 0.03464443870284726
mod@@ 0.03386524575893014
Rad@@ 0.05932748097141066
беля@@ 1
Iron 0.18165692589468158
Stre@@ 0.06283296949552615
Os@@ 0.03661739180984296
ny 0.07498158173190884
Kir@@ 0.04972081584016717
ald 0.06031920631195278
mas@@ 0.01614396463230893
bat@@ 0.025022246204017235
cin@@ 0.028910971283216246
trol 0.15734419784286935
Max 0.07443896827215295
Mic@@ 0.13919748168660617
char@@ 0.02803753006194296
Standard 0.16260873099229536
oides 0.19111834166385017
gar@@ 0.02102484061564164
nch@@ 0.060587733781313574
you 0.043932838572482404
Over 0.10522576967538011
Tou@@ 0.08555527205660715
Eu@@ 0.07836506445414214
Ь 1
emp@@ 0.02107242432475787
0,000 0.039469141159473836
ego 0.07959405367278004
atum 0.15772791612239423
für 0.003308961490659647
Haw@@ 0.07772415937306029
ean 0.031432380339159544
Central 0.0310104408568937
190@@ 0.3598915840315106
Nav@@ 0.045248085986778805
Canada 0.024785481779953256
Just 0.1726343290493006
Point 0.09727077798144658
Tot@@ 0.09489090831220798
ew@@ 0.033355458715912355
right 0.027489302461177107
ғ@@ 1
eum 0.1340200495277802
osp@@ 0.061843069468003185
Dro@@ 0.11615922989403014
sur@@ 0.009390978213626016
Pic@@ 0.08303214029356751
Dou@@ 0.07181517489615352
ლ@@ 1
ony 0.03737536605748252
къ@@ 0.39993308364496594
oud 0.09258757577266555
Tim@@ 0.07099867989297912
ao 0.03014938278305468
k.@@ 0.4638251296792871
lin 0.05168892279499132
aci@@ 0.024915385665233564
ér@@ 0.010170657704956768
Ha@@ 0.04354625741396186
Party 0.026861184647456283
tom 0.07475731487680523
etta 0.10825008279607273
Old 0.0609357581548422
lum 0.10148495261131976
Pep@@ 0.18080814786296626
Chi@@ 0.04101674821970646
Rh@@ 0.05326778568549373
alm@@ 0.03900647552382839
H.@@ 0.2212758603748177
mel@@ 0.0342991654771071
Metro 0.1477299967592234
oria 0.06132618220906536
AK@@ 0.30893515492026374
Bom@@ 0.10318821919278925
But@@ 0.06920033220652073
enc@@ 0.01744363360028032
ros@@ 0.05505378806404967
edy 0.05996577045229341
地区 0.09405222510493005
Hotel 0.09747974089734666
cas@@ 0.016359140812111476
├ 0.47496167814371326
pal@@ 0.0233295102040616
Bell 0.12383250170108992
Arti@@ 0.0672290618565013
Ak@@ 0.030330931805598274
dings 0.08100889412327758
Fun@@ 0.1447336889787073
Š@@ 0.12559336408324734
198@@ 0.16717731266556662
hr@@ 0.03712752596002852
s.@@ 0.3964194286932662
val@@ 0.016109958044325422
win 0.019776581585684672
покри@@ 1
зат 1
ust@@ 0.04002679168801567
je 0.03891726269567323
DI 0.22281472842027106
Mod@@ 0.05441179076960088
IO@@ 0.2576068184073697
Est@@ 0.023656199536008813
Galax@@ 0.23278438761453274
Ind@@ 0.07679371952034819
ա@@ 1
Sen@@ 0.019412422150011863
sen@@ 0.016061768096155195
Sel@@ 0.05056235368046453
Special 0.09810548987280554
Whit@@ 0.06580638851668014
eti@@ 0.02197151680121081
Ye@@ 0.11022247237101558
L.@@ 0.1903058350503119
lam@@ 0.021059564596722383
other 0.00548214956258437
å@@ 0.11843684548065965
Douglas 0.10805768746686911
Tran@@ 0.08354233979325167
Lim@@ 0.06623439062173016
Lat@@ 0.046721199562852596
ond@@ 0.02410202145951813
End 0.15512057927640097
ō@@ 0.05117079654245399
Run@@ 0.14652616524154552
Ta@@ 0.06296852730939076
Long 0.06684966420917834
ect@@ 0.031208215587859196
Cle@@ 0.06439680684841412
Michael 0.02720152013131226
ip@@ 0.06350019312700338
ng@@ 0.024780968158304235
ger@@ 0.010104126864137555
Motor 0.13408274894395938
Ly@@ 0.05878650610191575
war@@ 0.016714802679267147
sin@@ 0.02573846105601236
Diam@@ 0.16369872262610566
Фамилия 1
Vic@@ 0.04775435622491203
Orig@@ 0.08984246609105494
ée 0.0031873613335918847
Hum@@ 0.05631880825488411
itz 0.03087047534393517
сред 0.5981195261487804
живот 0.8415674390032374
Cru@@ 0.13519647843402027
енер@@ 1
aus 0.003857810866920808
Public 0.05888720324741305
Pen@@ 0.0433699286307734
William 0.018811068082213347
dae 0.2845248619375946
rom@@ 0.019118440000598654
fer 0.022007302624636224
mit@@ 0.015846186331882645
don 0.041037883066298464
Cho@@ 0.1774737469330302
Prix 0.06523916538819706
James 0.020259743870328573
Chron@@ 0.14558636105993109
Ig@@ 0.07892876284794288
Fol@@ 0.04422953839135578
ci 0.028815059516052916
Ep@@ 0.10513783523667643
ty@@ 0.039960896761590314
ws 0.027138367209607214
down 0.018048487181313442
aven 0.1224186707466985
kr@@ 0.0270844041948142
Pok@@ 0.09936192209150528
ader 0.06589949136320387
ols 0.04367516841122571
Tour@@ 0.0415529696093595
mas 0.05925303274838246
ждане 0.9894204639996171
Ton@@ 0.09577378746400873
E. 0.059262159366812076
qui@@ 0.02464168904229298
Gold@@ 0.06839806018974423
ns 0.01636615861129224
alus 0.29312690067123714
ford 0.019017292140350587
leg@@ 0.01395956130306929
men 0.009035351329584149
Real 0.06288774498321975
Sund@@ 0.07475715989770854
CE 0.11089403044598163
ots 0.027017665326284506
well 0.007618194810499352
opus 0.2888590618383386
nik 0.05786962432543907
kl@@ 0.02094468722748495
Max@@ 0.1230487600924147
ods 0.02649984120633337
@ 0.47842481772563494
Shar@@ 0.07105954840430437
ier@@ 0.014271473148490563
Sem@@ 0.04920643799032279
Tokyo 0.09999432300700196
outh 0.03751491056218623
Men 0.06722617365891136
mu@@ 0.021328955244283663
Comp@@ 0.07387398649655959
los@@ 0.02754855296648081
estr@@ 0.018911078546755146
ă@@ 0.10837288811703828
mi 0.03987840786824745
Independ@@ 0.07364601277647417
edi@@ 0.021517732879945076
tive 0.016816725669216024
ington 0.029239221752745237
ins@@ 0.01327076278866646
ku@@ 0.032529231803055
tis@@ 0.01954547303768358
ami 0.06018910247837325
As 0.011095781502649286
acle 0.1096163003470629
reg@@ 0.008889734801760545
Econom@@ 0.06257694960681072
wo@@ 0.025439471706835717
occ@@ 0.04971096571974479
When 0.021260961806536527
phy 0.07250758510073445
optera 0.3244960165015088
музи@@ 1
ications 0.08563215562625116
ysis 0.06524764012413756
T. 0.08913656714876465
ache 0.038293895950372685
zy@@ 0.06151541932505773
Ple@@ 0.13706975544425298
att@@ 0.010986161248246968
Vill@@ 0.04856668718774637
dex 0.15370143223581995
Az@@ 0.058294175164829216
Cha@@ 0.20871039246278178
Opera 0.13865650672220778
-- 0.27898580003537077
oks 0.06435432204438014
ube 0.16880172808909757
Han@@ 0.04142938822434966
Hav@@ 0.05952386667524614
ld@@ 0.07500628483692973
iss 0.05673569001281576
ender 0.03114856266551388
Jean 0.018920848198903845
денти@@ 1
â@@ 0.020299534736337818
erry 0.04222070313426748
`@@ 0.6431785827751665
iger 0.023386449047243348
Bos@@ 0.048131443823776134
Қ@@ 1
Stars 0.14803867719824865
mm 0.03329938523712805
ier 0.02264059308196981
cher 0.016177200653411248
Design 0.09799747268248434
hi 0.0375651921299556
Tan@@ 0.05874023175293221
red 0.00866770924305388
Dar@@ 0.022487205169162233
He 0.0023367272969322525
P.@@ 0.22817705850248485
elli 0.05912386262100405
Щ 1
jo 0.024297667034474817
men@@ 0.009291863568292936
Плов@@ 1
зае@@ 1
западно 1
Hand@@ 0.028647911400772365
Lep@@ 0.19821826932446174
Plus 0.12153845058804483
ality 0.019076006216597254
י@@ 0.6129123609871305
If 0.05301539483677471
Top@@ 0.11340423133068303
esc@@ 0.020432278145419803
lia 0.06951244194130955
EC 0.19561952681489306
Vog@@ 0.10544228883818191
Sar@@ 0.03440557251835606
Modern 0.11950808951683248
tiv@@ 0.022546467809827206
^ 0.7081791889562427
ova 0.0633742093038635
Math@@ 0.06884837723492523
Over@@ 0.08133659630490447
вите 0.3890199717852268
Batt@@ 0.08939518166940771
George 0.019109390225760973
anci@@ 0.029797317675415068
land@@ 0.01466099507119674
Autom@@ 0.10919636084470342
tia 0.07034334463823272
int 0.05610753117703518
Ram@@ 0.033844399991553295
uli@@ 0.05883822598966599
Дим@@ 1
Sea 0.06696312646349845
atic 0.03671744960688708
Ball@@ 0.07061276166612596
2. 0.04553411774182235
Battle 0.05028645712510061
works 0.02043180234841634
Aus@@ 0.007973863314868357
ania 0.036886314869050106
Ol@@ 0.034165645226244
pa@@ 0.038407881340247294
under@@ 0.013126852392066846
vol@@ 0.01316515318963622
don@@ 0.02614952275404384
icum 0.3340963775417008
Audi@@ 0.14527999470630637
NASA 0.1921279896560144
ext 0.19253180059835676
Glo@@ 0.13674365085428253
Sor@@ 0.0643177710067343
ś@@ 0.18415399198554824
fol@@ 0.02397592960050895
Album 0.054563299240964175
Sci@@ 0.11375483998228612
table 0.05068534029665914
отбра@@ 1
ishing 0.029172423529280563
Poly@@ 0.10970255135005313
ein@@ 0.0047721311311314215
olo@@ 0.09322402364600675
Fair@@ 0.10631389742866039
Lang@@ 0.037893269058229796
acy 0.027306366736640903
sey 0.061942419926645974
ux 0.02574813123359573
Angeles 0.037228039479268435
F.@@ 0.22694897676881548
Services 0.10065711037919982
Theatre 0.059714410662919166
dit 0.0312504811352345
emati@@ 0.03416338825713284
Chicago 0.03490932923432836
Contin@@ 0.11274456298150815
wi@@ 0.04442024698701355
he 0.00156747548051278
FF 0.160404825124787
ç@@ 0.016711364663296913
Bot@@ 0.027875296181015995
Gaz@@ 0.14506743108635936
Robert 0.01974535908958838
Gh@@ 0.08081527310424565
Jazz 0.10722093922303642
რ@@ 1
ira 0.04000847465244403
uss@@ 0.026502683791191313
Sat@@ 0.06899666307341644
Reb@@ 0.07626264221267505
Wol@@ 0.053985885235273
йски 0.28031274497832886
air@@ 0.01648394923430163
ø@@ 0.053267469474012084
Dur@@ 0.05315995690764722
Солу@@ 1
yd@@ 0.09483818018918136
zi 0.07155657450855722
har@@ 0.01695005292072018
tidae 0.252217330169545
ו@@ 0.6585876081405153
Tit@@ 0.046983589498713896
bel@@ 0.010762574764901934
Mis@@ 0.06389240581292921
esp@@ 0.021149444672829542
Don@@ 0.042329586020018815
Land@@ 0.014661633757690504
ē@@ 0.40573255667434965
Om@@ 0.11074371895413122
ason 0.04387544137104287
inal 0.02413793112716285
head 0.020028101165287613
Head 0.10586845189638071
Rob@@ 0.06810241497734422
ante 0.00782908682875843
ck 0.02926414591584533
ebr@@ 0.03905756890294538
not@@ 0.011174268989408858
HC 0.1779979195983793
Tek@@ 0.24539826454741387
cle 0.038798087025047286
isti@@ 0.027748608944624796
world 0.01648476674690488
let 0.03929820381000145
oa 0.05303006025802587
ä 0.23037798039882532
gl@@ 0.016241559405003894
Van 0.057332730123833595
back 0.0117490184931796
enger 0.052417448303725335
section 0.027179626273144294
ther@@ 0.018552454928126023
ign@@ 0.011558833380146545
Lady 0.07289347232397467
did@@ 0.04034980560398462
Jum@@ 0.28553525514180894
Vie@@ 0.09278646463105775
Mario 0.11981665264330253
rel@@ 0.008560415958529235
Associ@@ 0.11319232487224047
Ray 0.10306761085670721
pol@@ 0.01940882976640976
Arm@@ 0.03871105706874427
Mars 0.1627807158543251
дите 0.7539513391058146
гнат 1
Af@@ 0.05592414035491178
Arena 0.12193989254039521
ani@@ 0.03181573756213147
sil@@ 0.022242492282451252
yes 0.08656343520240563
ител 0.4917862797233883
Sn@@ 0.16791011958389554
ground 0.022263000077288146
Gol@@ 0.04981006339335945
vers@@ 0.01480649666426947
lem@@ 0.023760453683624512
alb@@ 0.04264788802566789
dom@@ 0.021245728399217834
mb@@ 0.030386460174225607
Cul@@ 0.04726152560656622
Mari@@ 0.027562168198851905
prise 0.046216267314962665
set 0.012952257183360077
епи@@ 1
ump@@ 0.036374708433970455
Peter 0.023403348653776718
Cop@@ 0.062756522904287
Fle@@ 0.06162664365577821
Summer 0.0441406295521775
mot@@ 0.016314755717436416
юли 0.4076937589347613
chi 0.037651219486408136
N.@@ 0.21378486104153752
Let@@ 0.10111340279090801
abr@@ 0.03467719151625466
Rhy@@ 0.16416512079439122
ady 0.06457333173613725
Ther@@ 0.05774750553347655
err@@ 0.020951574718266214
Imp@@ 0.10525352120944792
ologies 0.0964722349709608
Lev@@ 0.05090999031795031
ister 0.043829991936768675
Nu@@ 0.05524480664554192
Охри@@ 1
Bol@@ 0.036828213854576096
Development 0.06067269473578853
Kal@@ 0.03457704369667853
Div@@ 0.07478388129542449
Gor@@ 0.05648559784472638
oft 0.06951682818061843
Trav@@ 0.10037663947015465
CN 0.19797298736360422
‰ 0.9961051660698701
Dam@@ 0.06308460397637995
Ret@@ 0.08712136881915922
lidae 0.252036772179485
ush@@ 0.0330572171982345
oman 0.12109382666628067
DR 0.1795966115424405
Maz@@ 0.08557683247509107
ort 0.028680667972694848
tw@@ 0.014495823361300054
fi@@ 0.010257690908404584
Saint 0.010187471992787973
An 0.01978527719558237
ident 0.02293895032875209
州 0.022648314487946006
Bell@@ 0.11922023571194446
aun@@ 0.045983960883738344
ā 0.17947012460324618
Broad@@ 0.10047073215857379
yon@@ 0.051928767036711516
Maria 0.03521320416019453
win@@ 0.017547345120765473
khe@@ 0.11143555128702419
наги 1
Hur@@ 0.06767169330328561
Prim@@ 0.05244688544658222
Williams 0.049235740437940996
core 0.06587740017253609
pf@@ 0.029890883972747407
unk@@ 0.028055448747000847
istr@@ 0.03684020258756593
Kur@@ 0.022955351058513266
Western 0.03010442985064322
try 0.020630921777998724
NAS@@ 0.22531192387774454
ente 0.006006239876303623
Beach 0.073524128244076
Ass@@ 0.12360508541927247
cha 0.02820914179771579
Asia 0.052187738756427716
Got@@ 0.04461719586133672
verse 0.027508344908882307
tn@@ 0.0605542945650533
бря@@ 1
Extr@@ 0.15366646487324218
Lor@@ 0.030658961725366144
ards 0.012998312427296764
pler 0.15289335271479768
≈ 1
Cros@@ 0.11476148377697576
Empire 0.03712724327470906
Acc@@ 0.09846066385759641
att 0.09111913309813842
pan@@ 0.019692791346457537
ul 0.043972927841346536
Bus@@ 0.05487451237006513
Tak@@ 0.049035873942342996
cop@@ 0.019637036720576595
ü@@ 0.009361119023758541
Il 0.0040121622271569925
Mosco@@ 0.07113590084181336
Като 0.88457668218757
uf@@ 0.018762035500952647
Will 0.12670488379624412
Phys@@ 0.10375779450356921
not 0.0030600064590182506
Tar@@ 0.038677756792933185
Four 0.08143037463993213
She 0.00703646143154519
ém@@ 0.024955586047694194
Lam@@ 0.05408004643390011
Thomas 0.019192874325925025
Van@@ 0.10543381871930807
tal@@ 0.01743151171978792
yle 0.04132148438848777
Ky@@ 0.07152498331949494
ute 0.024892580995248534
ville 0.008765874499517065
omy@@ 0.2812585922648863
правител@@ 1
Ker@@ 0.04531699039780136
fa@@ 0.011981154892039719
ih@@ 0.022658866496253233
ink 0.048863087693327
Bay 0.03555187955842163
Saf@@ 0.09448206220633848
Bat@@ 0.03094987261540949
arts 0.04719303740306839
сиона@@ 1
River 0.015633652444316484
Pot@@ 0.046284340025717574
Under 0.0583687195158861
iy@@ 0.03520867883306128
aro 0.068707042078956
bur@@ 0.012338815323472422
enta 0.028001641271651827
tion@@ 0.0183585686262214
гъ@@ 0.5955534933315707
Progr@@ 0.0527835916331325
iden 0.03257906275297867
ager 0.030362651058089725
Ann@@ 0.050219950278256535
Pon@@ 0.06300729229895145
Republic 0.0364322767085588
dium 0.08281407269027975
cho 0.011126034423390486
geh@@ 0.02953188719835841
Na 0.23684552097277378
aya 0.028713765846267038
den@@ 0.010354112409002096
nh@@ 0.015527686347922441
ste@@ 0.012004874576763584
ther 0.01877863802105038
we 0.020167859053065257
Fer@@ 0.03444709343958273
Hot@@ 0.11736780154007263
icul@@ 0.048621022926550815
Fe 0.18397227163233856
Roy@@ 0.10906040826635695
Brown 0.04313455598301766
ein 0.002340015946892198
Ec@@ 0.10074204269448317
tin@@ 0.0479030768479063
ept@@ 0.0514670160159938
off 0.01051108875640678
197@@ 0.041411722037145625
scope 0.15424679390637483
ј@@ 1
кото 0.7167357128991964
Cri@@ 0.05936089869883066
Kat@@ 0.03777338551806387
Sac@@ 0.08291167422146543
uv@@ 0.034000734196841936
Das 0.006313436829477738
ava 0.05021019189035224
urs 0.01657685466081601
Capit@@ 0.09700653832301978
ischen 0.003997595232823523
oz@@ 0.041348300960783985
ais 0.014221108284853234
anger 0.0409140059378977
Bod@@ 0.06376391947953267
anda 0.0307558058925375
Ster@@ 0.09240463702326676
tre@@ 0.011594864905461215
Rock@@ 0.12675040621656247
nu@@ 0.02421493194656575
Phil@@ 0.04469732559615173
ush 0.08616874183686148
Good@@ 0.1049456352744397
night 0.03632171498979264
cal 0.04462206111459084
esti@@ 0.01623436352025591
Smith 0.030186638703775612
ska 0.10720968710748478
ves 0.009496379176530966
Apo@@ 0.17558077994893426
Sto@@ 0.03770614086487177
agu@@ 0.03171287219623769
odi@@ 0.03733817781459155
майка 1
Fas@@ 0.09802068529258781
vers 0.009515553926044291
Dir@@ 0.11725820634184954
Госу@@ 1
Pil@@ 0.05420339186983061
ika 0.03887864476061912
ism 0.013111370581087856
sur 0.00303992857680117
pot 0.09958025646484617
Sand@@ 0.036817501173220316
ə 1
ites 0.021196956151350355
ks@@ 0.02788217295742105
can 0.006007471484978217
Него@@ 1
lers 0.026741812337154364
Town 0.04603548592662892
Sph@@ 0.23647956390193006
194@@ 0.12464148994628277
Lou@@ 0.04178537328565717
ket@@ 0.04020719035594127
nom@@ 0.027404749117162803
френ@@ 0.8304367182065413
aire 0.007209058855897423
uy@@ 0.029794879677243643
ett 0.02512295735022793
ў@@ 1
anced 0.04144851497051193
ori 0.056728875749008145
pes 0.06111477861639894
Anth@@ 0.1366886999069085
Pul@@ 0.09004764815728346
mus@@ 0.017463561854665244
Num@@ 0.061453658374436226
Sciences 0.07475431703329417
ū@@ 0.0759885267261525
augh@@ 0.06990891612616772
onidae 0.5431515999809711
xe 0.03815374592160656
aux 0.0036833585647105408
Rosa 0.13615099546587536
Ath@@ 0.05375905952039716
Ox@@ 0.1191150254372706
ham 0.03171090021687249
är@@ 0.017519955510730913
series 0.008640440232608203
ais@@ 0.016864434306792957
Населе@@ 1
вси@@ 1
ele 0.023976594870248898
bas@@ 0.009294181093403532
Cad@@ 0.09696986053787711
Tem@@ 0.04340252761510089
gen 0.009666891390178116
fre@@ 0.012002921302685054
Dic@@ 0.11453800739463246
α@@ 0.050528236880340235
ör@@ 0.014756514858475695
ages 0.0073254105121952386
ine@@ 0.03767218495879547
lery 0.06138060986457381
mark 0.034754031812737146
acks 0.0371585715224789
Mos@@ 0.033392943251043854
Centre 0.0376991168571121
inter@@ 0.0040753048697358745
Bit@@ 0.13609430694870917
196@@ 0.042267918196977526
Squ@@ 0.06059013225286677
ი 1
mo 0.02620763723646409
ree 0.05704019954607948
sim@@ 0.02247790714261096
Sau@@ 0.04519899615243399
alia 0.06915109085358594
ო@@ 1
Inc. 0.0828640043664842
ont@@ 0.03394501429966613
tra@@ 0.015715832804527683
Mary 0.029792040526503187
yan@@ 0.050994348695484415
Alliance 0.10215439462552645
aka 0.04168215237334062
anz@@ 0.017016949302734848
Post@@ 0.07294961684530499
ineering 0.046498404675361704
var@@ 0.030184786592281906
peri@@ 0.03232581323672902
S. 0.040602934023292306
Conn@@ 0.05611088032499519
obi@@ 0.12180520621782474
ң 1
gh@@ 0.050350175006057464
ery 0.03640328358633149
trol@@ 0.04731946443524238
Pseud@@ 0.16892534677632903
Sour@@ 0.106143400455051
Stil@@ 0.09178163910959962
ami@@ 0.0382840953258238
ръ@@ 0.22721841345140134
Fam@@ 0.130745295502851
Si 0.05373807569587503
ski@@ 0.0911697883955124
BI 0.10905164703068011
sson 0.08588572776170504
Three 0.05756243607929043
tre 0.013772946950495212
wat@@ 0.02404043639457688
шва 1
action 0.012853654288981227
живота 0.8466585417016872
Che@@ 0.09731625667530759
Lit@@ 0.05828390845093394
aja 0.04620674107955886
Women 0.029663054201938877
pop 0.04944113771765313
Sig@@ 0.057390291441121406
group 0.010455840231761866
sky 0.03685660463475154
pon 0.062290089741887975
ban@@ 0.014027495076072757
ological 0.02190805734559054
γ 0.494099897362511
Soci@@ 0.05850755019226628
aha 0.09456034684973012
onic 0.08088197918848354
Dod@@ 0.11296106963476438
ric@@ 0.0439440663382706
Avenue 0.05407852419717279
yi 0.07496426718442414
pin@@ 0.031776778557410616
Som@@ 0.039785019163354675
esta 0.012638538991920406
sz@@ 0.11756534469714872
vet 0.16967552767933367
zo 0.03604724535166169
Sup@@ 0.06977675806088794
duc@@ 0.025559423454184795
GB 0.10015721592150705
ˈ@@ 0.8950085752363497
struc@@ 0.02068394940092952
ads 0.02963700896860279
Gra@@ 0.04717107978367332
bun@@ 0.0714105700874045
iller 0.03110825523289906
Fall@@ 0.1299763278140009
mal@@ 0.012431882264013457
PM 0.18723547331675594
Production 0.07790309110700937
cast 0.021252398306672714
yo@@ 0.03368406647020011
entr@@ 0.0111088960188788
gre@@ 0.00926572229595877
oi 0.06318091926038884
Nam@@ 0.04589838227654865
бити@@ 1
ng 0.07362809286551193
tern@@ 0.0370897718227414
ands 0.018004056551684668
urity 0.03466276222544054
even 0.014786557121271485
B. 0.023724914513890225
Daw@@ 0.10309397375054762
bro@@ 0.013714021805690908
Č@@ 0.1298791862775025
awa 0.040458643672602046
Laur@@ 0.04022646739013691
sec@@ 0.00753220798862619
английски 1
Canadian 0.028155901007783243
Eff@@ 0.09480825597048372
India 0.017711350694164466
if 0.013171908169296642
under 0.0054293086691088914
Bil@@ 0.01760837046795174
Od@@ 0.09985365249489435
vis@@ 0.007366530706076755
body 0.022706170120170066
more 0.004419740617010462
Santa 0.025045825711591252
ret@@ 0.016192061421095087
Texas 0.02654442275443525
ando 0.006049780657524074
Dan@@ 0.027661581974935102
Prom@@ 0.07315205197442784
Christian 0.023515151037373914
R. 0.046751424777186294
ser 0.01073348437087543
ton@@ 0.03429182537470756
193@@ 0.06894311623029194
ear@@ 0.015789717715431157
3. 0.04354405857190441
Pat@@ 0.03592463956222388
unds 0.02191181200800588
Hard@@ 0.06711223199497297
Louis 0.01929402119030499
Studi@@ 0.033726722392112274
Con 0.0451196485300678
nes 0.020785788280889686
serv@@ 0.015625704057955412
Mess@@ 0.07993040279513684
hal@@ 0.011092263988236139
188@@ 0.25186013945972235
kon@@ 0.013005861907291756
смет@@ 1
Division 0.01613635642512032
Gir@@ 0.05754146155095265
owski 0.0860593754001732
ę@@ 0.11476894981531621
ords 0.02840599716426647
web 0.0660120804549683
App@@ 0.08460251611926835
After 0.0070526260125264965
LG@@ 0.11012415194021404
Lon@@ 0.11242676942471358
апри@@ 1
ox@@ 0.027044641574800878
ris 0.06862197863398371
bis@@ 0.07340006212229433
face 0.019456370218175114
mp@@ 0.022263455393844618
Strat@@ 0.09245120719704232
ert 0.007310567232916291
ě@@ 0.1330866899014391
sions 0.018917001039489432
J.@@ 0.08846282775749792
astr@@ 0.029208167771949598
san@@ 0.026296898146262522
Charles 0.015064788604637778
Der@@ 0.031907331277844
inf@@ 0.01586757008361007
Patr@@ 0.04218930522449182
ulus 0.16989034202028372
itung 0.04600690660821007
onna 0.10500189744848341
eck 0.031449060298637935
work 0.0066924219551613975
Berlin 0.016429126219137637
ili 0.04662022470556901
ses 0.004135171261908852
tera 0.06011774379876178
ects 0.010744163287991191
met@@ 0.013974087149252674
Pir@@ 0.06451577680315042
Dig@@ 0.12091872149128369
Mill@@ 0.050289406230327446
Arg@@ 0.0672077072740826
ń@@ 0.10098512325482226
Ash@@ 0.04511337119356174
Coun@@ 0.05328495338207885
Rho@@ 0.06958107848090453
cy 0.05244599203622356
Men@@ 0.030422278375965253
ship 0.011387604768228502
Revolution 0.06551111820219274
рени 0.8750744182964769
Buil@@ 0.055837486363300166
Junior 0.06257208948106692
Department 0.026624289861924035
non 0.01041053341908346
idi@@ 0.02042802985076843
tem@@ 0.024392659012884697
ido 0.007100572557221664
Ъ 1
ese 0.009544139776046847
.C. 0.040048978283399594
ells 0.0274891632797962
вни 0.9763201288370713
яни 1
Station 0.037084458235232494
ag 0.05055834624428655
sive 0.013200627721246128
You@@ 0.27096818713197934
ion@@ 0.035008195188730454
sig@@ 0.011037828307436048
She@@ 0.038214005018767844
Ki@@ 0.034318759872722614
Football 0.024941272044431653
bal@@ 0.017333274807796194
aborat@@ 0.10642718997012515
Doc@@ 0.06875492261953714
Rail@@ 0.05998847235048648
CF 0.12995433331784983
dis 0.10389709093969865
mic@@ 0.103598670069932
lig@@ 0.01613619414142196
iki 0.04068357948446725
fil@@ 0.012753318120473141
own 0.010114195249271832
ң@@ 1
Da 0.03904084120039354
California 0.016718211369081738
stream 0.0536866836372953
Log@@ 0.06896270304255463
Den@@ 0.02469579722656537
vin@@ 0.03304633644316882
chin@@ 0.03682478480663756
fac@@ 0.0064265070703199345
Lee 0.033136384234913906
án 0.009939950467206325
ó 0.002085989245040727
G. 0.055806747115694326
bis 0.0032771984930233394
--@@ 0.42919305190310575
nia 0.059964707381952025
Pear@@ 0.0908008914662555
sit@@ 0.020709154598949956
arius 0.17356655209274024
nov@@ 0.05595506656701793
ston 0.03872658240353261
wal@@ 0.02009262163759887
west 0.011800763461752878
cm 0.03225968644026741
kin@@ 0.025290600335579883
195@@ 0.048949471589104905
opo@@ 0.07405170754003082
Pay@@ 0.12296816971689792
ს@@ 1
қ 1
worth 0.03986855804157484
Bow@@ 0.03620824868942264
L. 0.05045016329330269
ple@@ 0.02307471378381735
bra 0.08027201010183167
ead 0.05611686317256464
pres@@ 0.00788294771757561
thi@@ 0.028002354053820257
endr@@ 0.0904140232262476
zu 0.0019577928759803797
1,0@@ 0.23933643044729727
Mut@@ 0.07188540870913426
Yam@@ 0.09481619802440494
cat@@ 0.014368291347405578
round 0.015835262283024364
uth 0.04460083013300501
Emer@@ 0.0780321382376843
mit 0.0013379270621486133
adr@@ 0.03813670578185785
Ble@@ 0.10873002529856601
Dow@@ 0.06073950615238287
1.5 0.11787342688548043
ett@@ 0.02540658248106076
ren@@ 0.0071151593222183295
ode 0.031720184524983375
Scar@@ 0.10300992996012422
Valley 0.03665402208672036
orer 0.123458418883555
Ka@@ 0.06644545006128819
Din@@ 0.06140199945612706
dren 0.09038330260779762
Wel@@ 0.04872804373777096
阳@@ 0.1907402847237353
Australian 0.02105543436707156
ú@@ 0.017363855877167975
ć 0.03134564375603494
Fran@@ 0.021011096424795456
U.S. 0.014250365119867018
formes 0.06573471293381869
onom@@ 0.035060405046236066
that 0.0007894536766620693
180@@ 0.3829093361246338
Wit@@ 0.047415908155594655
Bri@@ 0.031491982586913936
oti@@ 0.025028165542339283
ão 0.05917497936438853
ird 0.07319557576086563
един 0.16892444726663614
ұ@@ 1
At 0.009568479860492286
жени 0.30140616053987157
edom 0.05813436207277973
bert 0.0215099899765392
medi@@ 0.010189071143461797
Agr@@ 0.04847173673374951
Anti@@ 0.036656735804543115
Aur@@ 0.07133993914078886
Alter@@ 0.07024898355133294
Cour@@ 0.041725898164292514
North@@ 0.04862971599525737
form 0.007576630756930086
Fro@@ 0.08747895444363672
come 0.02626853197608386
Psych@@ 0.08599133223018893
Sport@@ 0.040012971596192264
ills 0.024263783455623966
Gib@@ 0.0884369934448877
dig@@ 0.017848346578496953
.S. 0.14102680958183864
pul@@ 0.01669380409813536
vel@@ 0.016500080874255522
Fa@@ 0.078817844292116
pers 0.05773799616853833
гите 0.9111534303002137
треш@@ 1
Rose 0.06669391179684117
Indi@@ 0.0210084797477405
SG 0.12720687925568805
There 0.009722919018865139
eria 0.061522278840665474
mil@@ 0.022297671781908078
sho@@ 0.011439107297741587
20th 0.0466248757478811
Mont@@ 0.01954606702335173
web@@ 0.04015028408944385
wor@@ 0.008068005614911498
Kingdom 0.030378041485321777
ask@@ 0.037213617101665424
sw@@ 0.014548474531738482
I. 0.027392853795612265
ating 0.00515609566167506
ческа 0.7135159697269401
dem@@ 0.0073396593009495865
vor 0.007514159457073997
‎ 0.9059882015454752
Pac@@ 0.1478358730904458
aer@@ 0.0497529973558715
lor@@ 0.061026518260787144
ular 0.015429823718296772
self 0.02300807603207381
bian 0.07104959164301271
plex 0.09603590371130741
ischer 0.009700128608855175
fire 0.026542238938144308
org@@ 0.030860335476480136
Int@@ 0.06281302007198569
anum 0.1694413937373559
je@@ 0.013753882674286306
ban 0.024061525605740756
otr@@ 0.09959421173682224
ago 0.02630568042504547
є@@ 1
Mountain 0.060331466052199835
Richard 0.01992939116975472
Kan@@ 0.02425523944643014
ister@@ 0.023463003016115935
ham@@ 0.039926774194286974
uma 0.053111425741010444
Sir@@ 0.08365969763340549
aff@@ 0.00943545691205344
enz@@ 0.013042405414380226
Social 0.04981844051863821
Bra@@ 0.09307810252233896
Mich@@ 0.03400212838646256
alt@@ 0.015613490172001669
lay@@ 0.03969677837070506
Христо 1
oca 0.07161550738794445
Gran@@ 0.04180180047482467
Wa@@ 0.06636220297430602
192@@ 0.60605888720579
Up@@ 0.11056077535720499
Boston 0.035884720143746524
Hip@@ 0.1463847444995195
bi 0.04182446002397033
афри@@ 1
Tom 0.03938349699903426
af 0.0431390335253319
Jer@@ 0.030456448165745997
da@@ 0.06735366490448139
ri 0.04280724529135852
ball 0.015820598086379256
Kong 0.045196699884048244
Tu@@ 0.039684952745032726
Hil@@ 0.03331531536586052
Sz@@ 0.04818763769430458
Pu@@ 0.03487780764240737
bot 0.04985182457183002
ose 0.031718467053346966
Phili@@ 0.08295228644666816
Roll@@ 0.17780925057561595
Lake 0.0231970438098467
Terr@@ 0.06950139964742531
log@@ 0.020818125620540705
sor@@ 0.01794558940624072
ef 0.024562851260999233
ores 0.009357953447527215
Jay 0.11489692287001145
alls 0.01570599351900038
Alexander 0.02948859064855786
Orchestra 0.08533961451271657
dier 0.07098504660939611
дори 0.6764417018103742
crip@@ 0.029917849320509442
ré@@ 0.0032365705871159386
SK 0.15808204404385193
Eas@@ 0.10678683581337993
ker@@ 0.021821371904697788
Orange 0.09754737608862644
God@@ 0.07069696602624165
Act 0.024457817157388585
bul@@ 0.01980303019725722
ift 0.07929205062252243
lam 0.05093109715939089
pri@@ 0.019985522826380546
Fel@@ 0.031200679813571115
Aqu@@ 0.06920230572405808
Shu@@ 0.1350127490704843
тото 1
lit@@ 0.02754935465294266
thr@@ 0.034120013540994996
версите@@ 1
ons@@ 0.02012519892346879
4. 0.043182241196451615
ather 0.031062373358816866
ij@@ 0.03654636679252041
esa 0.018561768961421164
ign 0.041151764804271615
zen 0.014947837541852978
Kit@@ 0.05832522442452922
ow 0.025645315572664352
xi@@ 0.05876466195485336
H. 0.037840914250274256
els@@ 0.025455110138719365
uld 0.10103113565131248
Bridge 0.05319336344475128
ë 0.1579032631847069
itar 0.07995342563342392
lev@@ 0.03573704714578709
los 0.0010918877618433253
thing 0.029727280995808455
Mom@@ 0.10994549787163362
English 0.012241265110123566
life 0.006667210283636093
Born 0.05493915045760276
Hak@@ 0.11692945090612916
K.@@ 0.22651294202172978
data 0.027943078983604572
formation 0.016367451317568827
Ku@@ 0.03994796268709273
pp 0.09001035789573013
chr@@ 0.0483318993848467
eps 0.06822777620996488
FIFA 0.07718911322906945
ye@@ 0.020374319201329164
Hit@@ 0.0924644158205065
Juli@@ 0.02460397646344763
eld 0.021645577362877956
Bla@@ 0.08587558193211364
Pos@@ 0.07478245907694084
rup@@ 0.01925133222875459
Jack 0.035425844845503825
dor@@ 0.02267653049324994
Spar@@ 0.07324177219751686
yo 0.046563510091656046
Hen@@ 0.043160388732971976
2.5 0.12233582070355016
Meth@@ 0.0795671855044734
Yel@@ 0.10544861105761406
Tas@@ 0.05632679778680782
Theater 0.0525047985469055
lie 0.023228526124489807
pus 0.12832265673685714
нето 0.33248498136584986
ices 0.017572314531599697
ec 0.07489934521344958
plic@@ 0.029846364145914156
ă 0.2356396647431738
Tex@@ 0.038091883713954944
bil@@ 0.009074967833774298
Henry 0.01896912549679216
stone 0.02687271730755847
неско@@ 1
ostr@@ 0.15595051304478225
imal 0.05034440086334554
Lac@@ 0.0834411223863824
ective 0.01706321085784355
long@@ 0.024019821191918204
Main@@ 0.06370061184090561
Var@@ 0.043988389173039474
Miss 0.05486568206775233
Blan@@ 0.0392547739122997
real 0.02360103590641902
南@@ 0.017921055711662602
Australia 0.014367488992105758
Code 0.08782213134955265
Kl@@ 0.020016131750334204
ward 0.015037343672463356
Bac@@ 0.0943834796669555
州@@ 0.10743089136141477
Kam@@ 0.02925462327544123
ą@@ 0.1458461849341076
Poc@@ 0.11509581424435954
Wrest@@ 0.2849523791929577
Southern 0.034303309629637166
израз@@ 1
wan@@ 0.024150129181781742
сите 0.7715434114044589
Cross 0.05091874979917405
Prince 0.0352922742129723
зира 0.49331623386724727
Ast@@ 0.07881400535957216
any@@ 0.02367376631043049
bus@@ 0.012861964535009299
unt 0.04476038400609475
mis@@ 0.007188974528780054
ბ@@ 1
now@@ 0.04042594653522653
vor@@ 0.005767996114542858
fe 0.01696019095945344
Dist@@ 0.06948628149066846
ails 0.04044418109371785
én@@ 0.008290590645230099
Cand@@ 0.13400722533003853
Rum@@ 0.0637505047713164
onder@@ 0.05295123144328653
volution 0.059765880595077356
bit 0.039241233125377466
Id@@ 0.05467225936860051
Princ@@ 0.052084679294014904
ón 0.006321597915096493
ild 0.06744874733564059
Lic@@ 0.10492729890755217
Moz@@ 0.13180037112668697
Sing@@ 0.034665200815221536
Tenn@@ 0.07706854170364032
Bud@@ 0.03347078497307223
eu@@ 0.03693911133329131
ː 1
sts 0.04641174149127262
Milit@@ 0.03741690952728646
eine 0.0017493207332626387
kw@@ 0.058771839272985564
lands 0.013918623937763391
isch@@ 0.013788272130933706
res 0.010653927912792863
ō 0.02922930544255786
Biz@@ 0.2149006764996314
Ten@@ 0.06330440079644031
lip@@ 0.04466574312848477
atra 0.10171726033675295
ches 0.009252953906691395
get 0.013783169039908692
wil@@ 0.028427185417463797
Xi@@ 0.08344169650761489
Ari@@ 0.054246478600460626
Mah@@ 0.020918878417403742
Pass@@ 0.05060087582579014
Pom@@ 0.04534686015089116
itu@@ 0.050348365945177394
sport 0.040377894189043584
bri@@ 0.01328839732435899
phone 0.052464824959739226
ento 0.016475961883379926
Ele@@ 0.07907921194329155
ades 0.013728920233877168
eer 0.029907969829122825
ju@@ 0.012240600014841266
ў 1
Yor@@ 0.050638309398589834
itas 0.07970539919138057
pedia 0.1203082484728349
Георги 0.4427649426316823
aves 0.01532600983103036
bank 0.031512728052354846
Nak@@ 0.07879297749483365
his 0.0008540022640510832
Fort@@ 0.10230603367910267
Nar@@ 0.04270770451877878
atis@@ 0.02920690361526605
out@@ 0.01131103721827576
Band@@ 0.0660703835387687
Kh@@ 0.0182697133625991
Place 0.08008385611425134
cho@@ 0.012569404652141658
star@@ 0.015388209179352292
Name 0.02793620151618509
och 0.04992034005470602
vic@@ 0.012375764021481233
Beh@@ 0.039095900079704066
By 0.015618500482443985
pedi@@ 0.04508630569507202
ron 0.09723968358550487
Hein@@ 0.06394649693592871
hab@@ 0.012542264215186338
мяна 1
ვ@@ 1
ario 0.009797714399995288
cli@@ 0.016682218149004224
gro@@ 0.009225858907826597
Archit@@ 0.05317143370436681
свеще@@ 1
Crim@@ 0.07721205900577197
Ι@@ 0.06565620365341923
tura 0.025231488101195902
ner@@ 0.014011105391944946
viv@@ 0.023779506020733508
Yah@@ 0.19293179425318013
kins 0.038868199916479315
Hem@@ 0.07456653548883245
Joseph 0.016878859737723476
gn@@ 0.06338928898513596
amo@@ 0.03953765104933152
d. 0.08114697775507321
liz@@ 0.04982600141903135
omb@@ 0.04406797384982429
Fab@@ 0.06887337068085517
Py@@ 0.0667298078960142
itor 0.041583571631510455
ry@@ 0.09523375206954543
Clar@@ 0.036528313602532704
bit@@ 0.027587946788064678
Rub@@ 0.07036609002600147
aly@@ 0.03772597852944732
ho 0.06656445977304534
æ 0.5390479027360486
itz@@ 0.013173323938087426
pro 0.03583844691768307
лята 1
Bau@@ 0.01088390492063506
wer 0.013663525943987101
Back@@ 0.0378968073443728
Gul@@ 0.04665832204991007
fic 0.023413486389468056
eau 0.009484595179637886
aco 0.04174355958934578
her 0.0018802574765074687
Domin@@ 0.039559666794095706
,000 0.03537567779386998
tier 0.029210028811450624
º@@ 0.42816577625877694
arch 0.03317863763446649
sis 0.08843730149677337
Tech@@ 0.08235910091147262
ven 0.013984065334103388
Donald 0.0448637876945479
aki 0.03306357313503692
bie 0.042782419271041414
book 0.011407694212657549
ca@@ 0.04488190040650889
ungen 0.0034225231509803513
Federation 0.05793879037903693
tol@@ 0.02621166805501735
Organ@@ 0.029471794537247183
ester 0.016716257946651384
kom@@ 0.012724926166284244
vi 0.06661462625436046
High@@ 0.05777776615519523
orium 0.07605326409176896
See 0.043680494055903935
ique 0.010753771922804264
mun@@ 0.02268559188702887
teri@@ 0.034311414584896775
ete 0.015200132286531732
eder@@ 0.02870621210704934
change 0.013056875895880806
FL 0.053353425819875004
Marie 0.024287126946687165
Victoria 0.032910821372352864
Chap@@ 0.033335663807534346
aks 0.04173660898130329
cep@@ 0.027675464676952647
gs 0.024309770998378447
мач 0.766697943338361
Hyp@@ 0.15932564367930427
emb@@ 0.01246245390993952
rich@@ 0.01378898725313401
vit@@ 0.03772122883162198
нако 1
Army 0.014433693053589998
ait 0.0052337071717451595
mol@@ 0.021503074100440327
Was@@ 0.09212410516683205
chen 0.0073334151473530085
cy@@ 0.03446830582830028
oper 0.05733083205409336
худо@@ 1
א@@ 0.659052028128479
Joe 0.03697052476726884
enia 0.17988296145516866
jo@@ 0.0137735484695827
lim@@ 0.017209131099425252
安@@ 0.02186186486640942
ffer@@ 0.04947082822256138
ig 0.018982093703300434
ques 0.005257145712821025
fu@@ 0.01156478802428913
š 0.10088858598186842
Health 0.03997252697939204
ainst 0.19812568513341297
тите 0.23795336217897378
Beg@@ 0.028431934322239203
illi@@ 0.05335970278410724
pur@@ 0.011473604455857512
3.5 0.15102346912318598
Long@@ 0.0624355622227923
ires 0.01582897832281075
nus 0.09456223853497316
sum@@ 0.01812922173961549
tempor@@ 0.02350357724974298
ading 0.026185635473135516
Thi@@ 0.04039936946311763
Has@@ 0.04296360511115637
Dun@@ 0.03662225027066307
Obj@@ 0.05651520925633551
ate@@ 0.07607741473897824
hip 0.0236968041417558
ony@@ 0.036336611552523254
ә 1
Ot@@ 0.024987854810654644
via 0.015124266566680256
резу@@ 1
ders 0.014062220264673776
lon 0.04822583930453232
kat@@ 0.030686421160248598
ologie 0.012233811248475578
porter 0.032830759696199495
тъ@@ 0.2657392315531053
Buc@@ 0.034895952691661083
into 0.0028635542410797004
Alli@@ 0.06380160332202717
imler 0.24984215217416675
Стара 1
eca 0.07402455439801052
gi 0.06786244694692603
än@@ 0.009552595562853435
ნ@@ 1
iti 0.0636791924767361
Vor@@ 0.00621021630970887
len 0.008773051177334656
my@@ 0.03415105159207654
Ing@@ 0.04152135629867303
na@@ 0.05205795772801967
Ax@@ 0.0967711049646674
acc@@ 0.005669794218857589
gio 0.04365561553283996
lob@@ 0.030168115836443077
Oper@@ 0.03535802514281117
esia 0.07247677639618247
new 0.003727415163491635
бира 0.527537363715366
Wan@@ 0.17497685234740026
din@@ 0.023402848350003762
value 0.03989856798031379
è@@ 0.008461602708709935
Jud@@ 0.030813214972356978
Maj@@ 0.054175808709714786
Yo@@ 0.07240770257980049
eur 0.007316316774057004
Mun@@ 0.026917432783859246
ational 0.015864781742932717
ý@@ 0.19824492158727852
Jones 0.028948496703704397
esi@@ 0.06664211840631744
Ric@@ 0.054417382514150556
Tes@@ 0.11443178361608908
Vit@@ 0.05666829383661286
eck@@ 0.02058626121486329
phy@@ 0.06733755973672842
anga 0.052237552547412705
ix@@ 0.08238729541612608
mf@@ 0.19657297013230143
тури 0.8390373681778978
Bru@@ 0.027764402731393086
bol@@ 0.02951571145307485
Johnson 0.030828527918441692
mail 0.08845750817264245
5. 0.03993878241368535
Sign@@ 0.07475431271327794
hai 0.01973609994009637
сата 0.7560275762032276
lag 0.018151431408698623
Bug@@ 0.117469496638815
fal@@ 0.015847935606483298
net@@ 0.03062829734804152
road 0.011877821075951384
rot@@ 0.0235339180520799
თ@@ 1
Lyn@@ 0.06201117612497022
kel@@ 0.02611826152749048
where 0.0034583492928780177
Cab@@ 0.03334565942266109
uta 0.03732934834576876
ono 0.09128319952232145
abil@@ 0.029414367869918138
news 0.03835393512168584
ev 0.037472897259926016
загу@@ 0.6267636427186832
Fir@@ 0.06014471931087748
ont 0.004757256320319104
Kas@@ 0.03244416853627599
folia 0.18619054401402754
ji@@ 0.045294869468124214
Wild@@ 0.05781963696901086
point 0.009998232050677682
β@@ 0.021525687511893293
Liter@@ 0.044177937045437966
Map@@ 0.10483385458162284
dol@@ 0.02081847273576702
iva 0.05920516154303262
was 0.0002702026432413315
Dav@@ 0.03272106312014196
illy 0.04008203603889918
lav@@ 0.04305420189061199
Francisco 0.01926710143176956
Tap@@ 0.11469237398213157
agon@@ 0.046083466948119635
ize 0.024035170791302785
Bay@@ 0.027507241622146558
Flam@@ 0.09514924731785761
asa 0.03552638516726073
ats@@ 0.027786780281632024
gal@@ 0.015989749108408342
sch 0.013967011708313059
Coc@@ 0.10013381397702707
dri@@ 0.012288208865853805
eller 0.022044883931798723
Phoen@@ 0.08422373303849767
vin 0.04033953434170112
ален 0.801704609879244
ҡ@@ 1
Green@@ 0.047181358115626494
South@@ 0.04765651003738755
ged 0.02072339438610437
mir@@ 0.019775803882585555
мъ@@ 0.15703105217405527
дава 0.2618190607554586
casting 0.04358122949768982
ls 0.020935879893791736
pon@@ 0.015475654410052744
rain 0.050214224414956085
cyc@@ 0.06822913656779872
ities 0.012935585483651518
ments 0.011006949155200663
ð@@ 0.11515850200596418
Gil@@ 0.027224877255349483
Profes@@ 0.03565884750070511
Revol@@ 0.05166151731526462
ku 0.07953662650491489
rac@@ 0.01109181900496365
tek 0.13226838331342103
Rich@@ 0.01935670744534618
vid@@ 0.025008780196647973
ż@@ 0.16768790742398057
Mand@@ 0.03820290520469564
media 0.016669180869460242
nor@@ 0.00816169033890687
Aff@@ 0.03085783823330873
Bun@@ 0.05492313182037115
Rog@@ 0.056136261419021165
ency 0.01153997595306034
etti 0.037758437065948704
ité 0.005273230689108035
phyl@@ 0.13205044434090318
ври 1
Centr@@ 0.09119652296034504
Lem@@ 0.0701802693163215
oon 0.05177237881534917
езе@@ 1
Lis@@ 0.049628450711427234
iro 0.03837276512595345
ographi@@ 0.0267428773931427
start 0.02362465762134176
oke 0.03250347531659827
pat@@ 0.01366352034414614
odes 0.02522044369687582
Morgan 0.06617982019132126
eds 0.016957039885670204
vention 0.019385523859551168
Brit@@ 0.04195541240518518
Day@@ 0.09039610861595407
Wes@@ 0.03377864515995452
bach 0.01580693468135853
pil@@ 0.014516739564531917
стои 1
BT 0.08674236308073614
Jackson 0.03471836045586704
esse 0.012330989889207855
mus 0.08438868971935157
qua 0.03153925824903418
map@@ 0.06955260780215639
Castle 0.045240063437305196
Key@@ 0.08243013751214638
Mam@@ 0.08273384352982764
Pra@@ 0.045303361598146054
Sus@@ 0.03010907064239212
eter 0.010258417556123934
ous@@ 0.03011510601455306
burg 0.009626319076068014
hom@@ 0.010659562131653815
ustry 0.11768007946898076
Lanc@@ 0.056835314527786306
onen 0.0163527389287624
Hun@@ 0.04428860788971701
Las@@ 0.08153003590779734
Viol@@ 0.07860262518203272
rea 0.03114411612224476
uh@@ 0.022435996609641504
opp@@ 0.018275310661128932
rem@@ 0.00979909459044587
Boy@@ 0.05406083566409189
pper 0.04384394278347263
Education 0.023033142163605323
any 0.007437658669687019
cs 0.02824602038490373
uti@@ 0.022337309177451758
ère 0.005844398498565292
phil@@ 0.05872524092712872
vis 0.06094602657943181
Jac@@ 0.03522467171481212
ango 0.049613918946981285
doc@@ 0.01693556032011501
weight 0.028992246225867272
Jan@@ 0.03566755560413032
Order 0.03515849009236587
Ear@@ 0.07164444780796016
aa 0.07944225391288325
Δ@@ 0.048011422096538435
ingu@@ 0.034543128996138664
native 0.02820080291159602
tha 0.04356717319268927
Sha@@ 0.03710595420751653
gem@@ 0.014605540046342992
sm@@ 0.02025466049312981
ues 0.012609640874460006
Coast 0.038330797196981445
By@@ 0.0477030121161376
aro@@ 0.06388111640583935
Library 0.043502998077588825
Α@@ 0.026571874210112388
Italia 0.05112328459519424
nig@@ 0.12077334552852392
prim@@ 0.008957387752389087
ape 0.025826586931438973
eli 0.047141632869412
sional 0.031304943229394366
Fron@@ 0.09116393753996199
Lan@@ 0.030804199610216618
Speci@@ 0.08391253678031024
bin@@ 0.020386544499929042
185@@ 0.22800284303477333
õ@@ 0.15910032443270403
Premier 0.029370780274129187
bot@@ 0.014789383472382237
ר@@ 0.5825819089001044
Cass@@ 0.05437506431465659
bia 0.11156249099951947
cell@@ 0.017389760916008343
ece 0.013574661930044361
ilia 0.07784179338905375
sons 0.018357714410417766
Soc@@ 0.10638413116948858
bury 0.025512246619661026
ron@@ 0.02555180375919836
iter 0.0193483603822691
vari@@ 0.006516421800783295
Dest@@ 0.118133633526875
Pet@@ 0.04951317144140743
sem@@ 0.01030667751124355
dec@@ 0.005126161866950214
като 0.02069901187749194
Another 0.035214041669800376
Jam@@ 0.03206205062983107
Wolf 0.08154047603892572
pic@@ 0.016713274674089864
Latin 0.033446158188578386
town 0.006944147144380549
Second 0.024259391695750827
aca 0.033843523084099054
dem 0.0011611956465581044
él@@ 0.009742388357928369
Pel@@ 0.04617855777925889
chil@@ 0.0326203357715867
ӏ@@ 1
Shin@@ 0.10226454255234173
eni 0.05559824554837747
Panz@@ 0.07813327101111421
uk 0.0443145698207208
asp@@ 0.020263675144771016
Nati@@ 0.025810196737397435
вече 0.2785630580663638
מ@@ 0.6594311578797281
tum 0.06389527425307494
ween 0.04299322811156948
Rand@@ 0.048386559825545
apo@@ 0.01853077565396003
ned 0.01598513396967033
var 0.05629026478403576
″ 0.34831529715954895
ieve 0.03150024176771643
vil@@ 0.04862217112690811
Emp@@ 0.04871612018409656
Li 0.06339028752570436
Northern 0.025983797883050327
Eg@@ 0.06321186112072542
Jr 0.046156866856101236
Kol@@ 0.019638376683080896
word 0.024614861037577193
Det@@ 0.053346366144728326
Ses@@ 0.1003232973601398
Ö@@ 0.03108838889257191
् 0.0009166014314328948
arc@@ 0.0363455799482872
‒ 1
Carl 0.03157803460566045
Maxim@@ 0.0613326387870913
itation 0.022560167620857798
вени 0.31120492984877063
Ji@@ 0.060237674204004645
States 0.004956050243982662
enne 0.009383634207532571
ô@@ 0.01694650052213762
fen@@ 0.02732351068426114
Andr@@ 0.08083383570528145
Lord 0.024811712908081523
rd 0.028210861946825247
vul@@ 0.05109340601878341
Scott 0.02932756795720285
ր@@ 1
Sher@@ 0.03441278087832314
urn@@ 0.022127546933118185
by@@ 0.03645096016641214
usa 0.037787516669185305
Tol@@ 0.034446847011687716
lec@@ 0.025953749032436173
ule 0.02107048434903905
és 0.002277996241682504
Jesus 0.05604381609089138
chan@@ 0.021488984405640697
uri 0.042804411354221174
Fem@@ 0.05980168713200468
Tab@@ 0.035287351639092183
this 0.0020052100455882414
Vita 0.32277247034255674
nic@@ 0.09150566253271468
amer@@ 0.02413311566683957
lies 0.014567026918364027
off@@ 0.005472400379742428
Exper@@ 0.0683158743477847
eu 0.02054747016782582
asis 0.06515850555613803
ა 1
agn@@ 0.02044670665048139
ges 0.011470238296370967
King@@ 0.055191360439986493
÷ 1
onds 0.04944439321971156
tan 0.018645438611563907
Rou@@ 0.03166320354772
Suz@@ 0.07764209981529568
Ale@@ 0.05230235304548342
Instrum@@ 0.06911919417218315
Ry@@ 0.054383842526159104
bet@@ 0.029303166576606806
metal 0.031233366689489468
osis 0.037566141762431525
CEO 0.06649133168682504
Champ@@ 0.03716918984360102
Bad@@ 0.03575987901967864
buch 0.054995462674348926
kan@@ 0.01650073074216122
π 0.1347739155492415
zo@@ 0.0672550302279739
Priv@@ 0.05512700755098413
Taylor 0.03585263716486105
dar@@ 0.008026910434133293
zur 0.00392904108582934
bac@@ 0.02897538763010057
187@@ 0.1896404902243628
Vil@@ 0.024684807519517106
ος 0.015511027106942318
Eastern 0.02982227554642474
away 0.014648237991827883
ej@@ 0.014359297695171528
ici 0.05144716303724146
Church 0.011785619636731706
esh 0.02635390369285528
imi 0.052623430663868785
mos@@ 0.03382864613810705
olo 0.038873684034309505
orn 0.05657243045141766
tern 0.011774962946800293
top@@ 0.029780888614724714
Kle@@ 0.028536547596521415
Sap@@ 0.10343440117011544
elia 0.07312399018862166
eno 0.025214378800211393
isco 0.19192178466957138
189@@ 0.17273380815498077
Nat@@ 0.04022898520001506
aut 0.011298338344438727
живе@@ 1
Hop@@ 0.057735647228905194
aker 0.0322986854745116
spr@@ 0.009981278268089934
Winter 0.040192139546840415
les@@ 0.013799696711056627
sk 0.03172310207155793
ския 0.04162223267402222
Gri@@ 0.04573384251707406
kil@@ 0.018776632304738444
yl 0.033990367566191
муници@@ 1
Neg@@ 0.046584398902655186
elo 0.026009185254351926
aul@@ 0.030300196774836894
ów 0.04078345958707323
Варна 0.8599308858850884
tle 0.04364453426433703
ú 0.04309723771586336
aw 0.034959076953644495
uki 0.06984599527643075
öl@@ 0.013897344185131073
Les@@ 0.03308919146675594
fle@@ 0.013932851805260979
Mé@@ 0.028587519183945923
ל@@ 0.6832409286240011
Plaza 0.07869457620633204
begin 0.04997093957596359
gency 0.03040612357002817
˚ 1
dy@@ 0.0743043558306262
eth@@ 0.014085413213869486
Philos@@ 0.041271145901843415
Test@@ 0.055281828937701394
ε 0.03740514862943368
Hong 0.03276816113410141
Port 0.03418450235616867
kul@@ 0.020690218526436783
Голя@@ 0.6698643910339924
һ@@ 1
Son 0.015129596051023179
band 0.006869734738152637
ka@@ 0.09320496828052735
sap@@ 0.14676553864122954
ҙ@@ 1
ering 0.014634878865645858
master 0.029305628802535136
rent 0.03637071206138822
May 0.005222456356649237
avi@@ 0.018693792684145706
eva 0.03863849133298964
mal 0.012957324537669849
Той 0.10463140233832278
En 0.0013100051902991193
Ober@@ 0.008937261539788192
Pau@@ 0.03144737555301433
eling 0.038565927192899724
ember 0.044064587463272034
fun@@ 0.012981201356942019
pour 0.0014235920128834122
чва 0.35523647567878974
asti@@ 0.035533831573112636
Hug@@ 0.03402876263240745
Water@@ 0.055529392395591536
bal 0.03697013205350107
cel 0.053031915225554074
Geschichte 0.010494544323549366
Simon 0.03440822032038755
kal@@ 0.019550025908179197
lad@@ 0.02132360964547241
other@@ 0.032954487967945346
Um@@ 0.012805403702043094
kan 0.04190668454242419
Bou@@ 0.03186935055583276
Lag@@ 0.03164918374801599
spir@@ 0.01812572494511612
hat@@ 0.04416665869516207
უ@@ 1
江@@ 0.034507865451843284
Eli@@ 0.04644863266029395
His 0.005978712481514027
Nap@@ 0.07223891780046947
Tam@@ 0.02525628607978154
Deb@@ 0.02137562329671934
ck@@ 0.017909608195385337
py@@ 0.08504449905284596
λ 0.052929806005085886
186@@ 0.2009023528999157
Dal@@ 0.03917944862665518
dom 0.04227330737217826
zz@@ 0.059927076371634434
Her 0.015922207845707033
Kad@@ 0.04749448352268589
ann 0.027698517632630693
mati@@ 0.02728502669211044
vey 0.026380911309444293
Board 0.02450682749493574
Nas@@ 0.06433220322502498
card 0.04516136102369971
ool 0.1664697860835302
Jag@@ 0.05619002610707782
asc@@ 0.023150464799649526
atom@@ 0.03869549037646029
pot@@ 0.010732998791006587
ש@@ 0.7037196372081
Daniel 0.023422592466912917
fas@@ 0.01656221556226229
184@@ 0.24411381996781722
Nord@@ 0.014057991782474986
enni@@ 0.03464292745964845
Ε@@ 0.029326940825708928
კ@@ 1
Mass@@ 0.0380581726095643
edia 0.08293746989290439
imb@@ 0.03193822256198586
ī 0.09535380654003675
Flu@@ 0.05347992780589674
kor@@ 0.023713457881034607
val 0.053013668286377644
fic@@ 0.010536371428847049
kers 0.0171134104853923
rey 0.0159171558758102
Elek@@ 0.05175967186911101
ación 0.001793788462564281
eman 0.028361150094646407
ո@@ 1
Ras@@ 0.055751805934351126
cial 0.020394083757744486
ui 0.037188254040794726
Culture 0.051202788766064176
eki 0.1645161671069821
oper@@ 0.006747626116557944
ports 0.013277425420125954
ump 0.08401119063781883
└ 0.33444781377472077
лъ@@ 0.16291572517822536
Jane 0.054072590096076185
Stadium 0.033896543277679596
oir 0.019266133840287296
tec@@ 0.04305461655443541
Kil@@ 0.03288238977306995
Major 0.02847286541129618
gin@@ 0.055761369634199885
imo 0.0550479763114489
Zen@@ 0.05733039053157645
ingo 0.04841671535426307
Que@@ 0.033697768180314246
Stand@@ 0.027135011755318978
andi@@ 0.04213078964245712
force 0.014593548163844058
Bob 0.03449707140395588
Cath@@ 0.0423879954943771
Law 0.025383971835688728
Premi@@ 0.040742385114485406
ment@@ 0.01677502775738085
xi 0.08686768013163679
edo 0.02667039160126376
iser 0.030384908377149737
track 0.012493298804364072
dro@@ 0.01398817043006895
მ@@ 1
End@@ 0.05140884898125003
ular@@ 0.03516002775926565
Dim@@ 0.08833715812458164
Stra@@ 0.04618786481032929
like 0.00637723680835002
ogr@@ 0.03747961268474679
wh@@ 0.007794039680236716
live 0.013593726245316285
sia 0.09800005751946776
fied 0.007971929487452876
war 0.001269118539273804
eign 0.01807998082750044
Conference 0.02641970176448869
fish 0.03134120096500631
ram@@ 0.027604883107915184
Version 0.057976968106714544
elt 0.008017470757318113
fore 0.01644017022732175
werk 0.019857758332220664
Bec@@ 0.022514756163599426
Hat@@ 0.05643232202836837
ave@@ 0.034464007548937324
lab@@ 0.016614659611564206
dal@@ 0.031102211846305232
Rep@@ 0.08943622509128701
ough@@ 0.021046157238303453
umin@@ 0.02646917197427452
Fur@@ 0.029037672040877066
Thom@@ 0.07588663464190769
Other 0.016269841506788747
esi 0.01841657267671887
Fig@@ 0.03628352002625434
დ@@ 1
Victor 0.04260812940381479
ismo 0.014750975678478582
stre@@ 0.01146780228913297
Kre@@ 0.022469082450923043
Société 0.06194840545103573
брой 0.5113465637317788
eton 0.03774777624475635
gia 0.01444947781001501
Cra@@ 0.038668804176004
mont 0.01969531906605013
tors 0.009272109284015844
Adam 0.037317196443644604
dea 0.08666440968307401
ingen 0.00864275322367573
isher 0.042959559670104924
nament 0.04988135942053203
Mik@@ 0.032111974493621014
lati@@ 0.09205079304496946
Rab@@ 0.034916780843281085
ennis 0.06947018635560148
hol@@ 0.0067713468378209464
kel 0.020013282944747326
oy 0.04327534864178642
water 0.007868773802946032
Africa 0.01734796792288989
Cot@@ 0.041745136386646536
ography 0.009845879092477543
десе@@ 0.3471492623703306
ките 0.08121510444618837
forman@@ 0.07845335119756157
Forest 0.04174354471677111
Frank 0.022762118083430292
Plan 0.05179833112529173
agen 0.010672661313723351
tos 0.010613389388219919
山@@ 0.017053335037213745
郡 0.06766554493758294
Championships 0.020269988503004415
din 0.043692195340818404
δ 0.407918419879389
ben 0.008510447713763495
bs 0.016904967687373037
ising 0.02366356780681515
Nacional 0.01748664531058997
Ni 0.24624681676095858
UE@@ 0.2389530188449674
phon@@ 0.03525462176192988
Riv@@ 0.06527344962189709
Deutsch@@ 0.046096312490625235
aqu@@ 0.012008607940310008
class 0.012536516123779836
polis 0.02913145768151181
tres 0.00607211664189275
Art@@ 0.06869781389311441
Medical 0.04138844668957009
par 0.001043817701107652
Dru@@ 0.03443335766995296
Un 0.01079454644615466
print 0.031356723974993214
ár@@ 0.017668324576971973
gether 0.09287330257328154
nier 0.026923940479385598
eci@@ 0.031424218779519265
sh 0.0429282227757233
西@@ 0.009779466016888252
Flor@@ 0.028279917738089005
acia 0.053255594254690466
eti 0.04474359558995286
mak@@ 0.011359877936481853
година 0.025720110001561484
мре@@ 0.5620234825120917
ב@@ 0.6029376400869626
bu 0.01488484789179894
etes 0.03457227269001617
inde@@ 0.024086479160097627
plo@@ 0.06387497644934835
Field 0.035955958782952054
gir@@ 0.013616853916983938
sing 0.013128728758011394
Stat@@ 0.05795460408684807
Syl@@ 0.05964735493642314
iz 0.04507383982969998
Community 0.03900957403669627
Wiki@@ 0.1352441161751313
Zi@@ 0.02525359111133198
ation@@ 0.04927064743627559
eng 0.031058575819018552
Trich@@ 0.13696952618198543
Cla@@ 0.045859912340252475
Leon@@ 0.03014553665504027
Sep@@ 0.08774912020731486
yer 0.012843438516286552
Marine 0.03405050728102315
Miss@@ 0.07578091138035649
Pf@@ 0.019196422029228683
Poli@@ 0.03368871374723061
bon@@ 0.024675157899743602
elin 0.08696748735269863
plan@@ 0.009166252668865942
6. 0.03234999890062354
Film@@ 0.026464503672939475
Mission 0.05232377977286621
Ach@@ 0.03657227459123339
Gran 0.04141470778999157
mula 0.06061879334225156
SV 0.04764611465180841
Tok@@ 0.11790590970403836
lov@@ 0.032891040217171895
ς 0.036897510752100265
.000 0.04308975315518766
Austr@@ 0.021821126093843516
Irish 0.02344870898839892
ö 0.07812097441042412
Bibli@@ 0.03471403033128808
ator@@ 0.02857408761510358
lim 0.036446926224815046
大@@ 0.004352602625802972
ador 0.006724644511749703
ceph@@ 0.18001589462230128
een 0.03712893262888642
s. 0.027755876175071782
Sam 0.041976817431324386
Stand 0.030443705309630576
Vin@@ 0.07029648112387561
chem@@ 0.018275979771451626
gy 0.05521986247139431
isch 0.006005299908378838
version 0.007608374783659458
Cham@@ 0.045252737616366084
Kap@@ 0.022738625450506054
pas@@ 0.008071708093552118
wide 0.012728271891116612
Europa 0.019658895814813872
Kot@@ 0.07369661785333348
府 0.03694697007710712
ê@@ 0.010770109977701628
nen 0.009678994321443425
Develop@@ 0.2233108538461251
fest 0.054635949733658595
zer 0.02938215081204298
Doctor 0.0461099537769369
Nan@@ 0.07386868404958556
Pierre 0.015440505815711679
anthus 0.18845227535900708
ysi@@ 0.05247589789081727
ν 0.03173095855208638
Fres@@ 0.06128407353245728
ken@@ 0.01068300910062126
Vik@@ 0.03850715984273935
dé@@ 0.001765828879396206
ungs@@ 0.003211999606220162
anger@@ 0.043420892075055804
eil 0.02686751488764349
omi 0.10623003369621373
ía 0.002525536497226782
Neur@@ 0.0800507544251463
Rid@@ 0.05487202988211824
anne 0.023686309676950342
qui 0.0014186888147257263
syl@@ 0.07597189361344632
ür@@ 0.00922954472566977
bers 0.013404934786945995
cit@@ 0.016099716448285756
Front 0.04423224428517071
Indian 0.012483460427428726
enf@@ 0.009972052091562817
rier 0.03601974459307413
ларов 1
plat@@ 0.010033456638484406
udi@@ 0.0429080961999977
Cou@@ 0.05230051203964129
ras@@ 0.021624860489176407
окол@@ 0.7778382795931229
Wind@@ 0.039213413551028406
rus@@ 0.04626912959715991
tric@@ 0.027515488208974287
Council 0.01029418468277125
Ner@@ 0.06784178939139744
film 0.002701941816110689
ior 0.016780916000501772
lus 0.08763117446171839
Petr@@ 0.04719865934870071
aud@@ 0.027368155564749343
ording 0.022795941230275535
perial 0.031000801196649597
è 0.08183773457316902
Cav@@ 0.03658317476127893
Gem@@ 0.029137478459220028
love 0.022878626709818512
Christi@@ 0.031204780161246535
Hab@@ 0.023188615600487923
Karl 0.018528475917585285
Lt@@ 0.1147075436970643
Single 0.057750731249935044
Temple 0.04305369457769122
ps@@ 0.05347960464636833
tural 0.013551003050488711
yan 0.025376956879732085
Pyr@@ 0.07708349592674482
Rac@@ 0.08807709454604713
prises 0.024956460139629055
Kenn@@ 0.031127603490726886
olia 0.07351775268237365
They 0.005137023279815875
plus 0.0022199832674734345
∙ 1
Milli@@ 0.03913186997970474
Wood@@ 0.0323670925523228
dur@@ 0.010135445260843144
ements 0.004722130833902307
nit@@ 0.02308811474309015
lem 0.01757236502647147
Grammy 0.0793396453025555
J. 0.014610362324162993
achi 0.07279759809979232
uni@@ 0.009516007672096026
деца 0.3150562456193607
Den 0.04202502539541404
Him@@ 0.058112354861426456
ř@@ 0.04836075237073795
Fat@@ 0.1095662833038195
Peter@@ 0.0291706210920969
cine 0.02107768974518805
נ@@ 0.6834644343849097
Lad@@ 0.055347598825051664
ames 0.03193607126507559
oli 0.05132219050832329
ott 0.040143701741468044
trav@@ 0.009479266711613575
ý 0.03179171763563556
fall 0.013256360306525966
space 0.017418725022513574
ulu 0.046669818233380574
ה@@ 0.6360236627547077
atur@@ 0.019324243436146422
bon 0.017898708372978193
án@@ 0.01400081573233879
ł 0.23014974842172678
← 1
Ein@@ 0.004573903150916664
Jimmy 0.05210154970288225
chen@@ 0.024412954772213624
ider@@ 0.042538955358809645
rif@@ 0.03337577732399009
Scot@@ 0.0468468990999243
prin@@ 0.019610085670118883
Mike 0.028867540372843184
proc@@ 0.013606697047986378
England 0.008146839426269531
lon@@ 0.06424722781149594
station 0.00507743170570959
Hospital 0.025312997837311238
nav@@ 0.012873525418445412
rock 0.012483690304621781
ector 0.053224207124342456
mec@@ 0.06052638908246175
w.@@ 1
Ек@@ 0.8312026863295611
ause 0.018975408575687903
nd@@ 0.033540002381303634
rop@@ 0.053701496786307194
tam@@ 0.017918007706743216
Á@@ 0.027199414518997614
1st 0.015697519181754414
Dut@@ 0.13219372421567538
Las 0.008785943938253327
child 0.020297651835033285
idel@@ 0.03292364215838056
line@@ 0.031209528559837454
vec@@ 0.03125066610285112
Wer@@ 0.01506813752062857
Gas@@ 0.029541339064698753
Main 0.029200202120839597
aku 0.12600566973983493
Barr@@ 0.02595015172198537
Bran@@ 0.0281571787893682
Et@@ 0.025012148546269413
ority 0.016095833093638833
week 0.017855227436706412
ş@@ 0.015541451390010959
Sti@@ 0.03225080159464013
lion 0.018690518329598713
wa@@ 0.02638090334607435
avo 0.07407143987794385
Pier@@ 0.055047163420438534
Se 0.008077395932748989
estruc@@ 0.06944367382369884
Arthur 0.023417900702882424
peti@@ 0.016415705490305944
Some 0.013608187402610395
aine 0.008976572013345669
ease 0.022454008849858216
umb@@ 0.016940369168664673
Dé@@ 0.018287416053492968
cia 0.027145544562788834
liche 0.0038085803785311676
ufac@@ 0.13863643211020538
Abr@@ 0.03169600682261608
Professor 0.018988981365391205
mar 0.01928482423353005
state 0.004484735850103581
eros 0.014858630861776901
flu@@ 0.014926826819979507
ien 0.0047241023848730865
min 0.036673991543299575
Arab@@ 0.02303004978199952
Johnny 0.051468739750161294
Sid@@ 0.04723546992829478
cent@@ 0.012090290178809424
eles 0.03105752972839317
stor@@ 0.01171326092229363
Σ@@ 0.014215378615043999
Lau@@ 0.03403995428444903
alis@@ 0.00879534182054097
ayo 0.03587010799079948
izer 0.14375201161851148
sl@@ 0.021593424508489733
wing 0.007530893547256644
Austin 0.05279979644402682
Tos@@ 0.08576607413140824
phi 0.09948567364188765
Nic@@ 0.026083750238010277
Sant@@ 0.03737705957164868
anna 0.03426299487304897
eto 0.015603095025408784
wen@@ 0.01057037194730456
Sak@@ 0.037896085583370924
ს 1
Hydro@@ 0.08695212582724678
illing 0.022455586479616006
schrift 0.027946730777071292
Jan 0.037943058863363396
schaft 0.005745936732761711
ution 0.01475463934688916
Euro 0.03505283285286354
Sul@@ 0.024689420869957145
room 0.01663497281638255
cos@@ 0.026180401115641152
Jack@@ 0.0498786855336695
anta 0.0463849913916512
Rod@@ 0.03586115674393519
aut@@ 0.010698822736909596
Tony 0.033277172163575786
coun@@ 0.008792475498889113
gel@@ 0.004081497873903542
ization 0.02670045020037335
Nom@@ 0.07078647497261263
ists 0.005703222418822884
nik@@ 0.10648476269477344
sta 0.03742346513587003
Corn@@ 0.02685596177360751
Prin@@ 0.03376641389515491
Wir@@ 0.021037069640238194
Tat@@ 0.05181543537246069
eler 0.020242797996079826
endi 0.09038636997275508
idi 0.03565131625355186
ե@@ 1
Nec@@ 0.10156491402963878
sed 0.008207840631970893
N. 0.05744296270063631
ü 0.022916600341309906
̯ 1
Zeit@@ 0.016482937922400978
abri@@ 0.036528997394831196
ahi 0.10785899709335577
ben@@ 0.009495605542252738
liv@@ 0.020966925440823108
Chris 0.0280526008201671
ebo@@ 0.061694626399477336
egas 0.04650875260378319
oli@@ 0.03205162935590386
à@@ 0.11861394730567748
Sierra 0.04838822056689862
iko 0.03192894338650342
kur@@ 0.01081095168196397
Baz@@ 0.09014209063443995
Captain 0.03459055369177726
ith@@ 0.053667851996799215
ophyl@@ 0.14618084553645452
thin 0.03639981655185219
dre@@ 0.010751326603019196
isi 0.01737858166623624
fur@@ 0.02519128166410701
isp@@ 0.064426768883555
Amp@@ 0.0811534855646111
Rio 0.03401095130449304
Spi@@ 0.03610957843929944
asse 0.019573781002760582
oug@@ 0.030628198902124173
ό@@ 0.024067946375363473
Justice 0.028299167527307153
ilk 0.023381362008404884
sar@@ 0.031841045576264965
spec@@ 0.009574775372560644
Augus@@ 0.030689118124772985
F. 0.025971507718058028
Histor@@ 0.029526437504855133
lins 0.037713703237111616
systems 0.017743306774456593
Bill 0.022217301304611393
Europ@@ 0.014027058927315794
alg@@ 0.01103688659283544
sac@@ 0.01567331120252596
som@@ 0.016252093709028036
Pav@@ 0.04037025708556542
Ç@@ 0.021670632554035514
cri@@ 0.0076571410504170994
heim 0.016977755107356246
legi@@ 0.025394360446064825
lower 0.013786380199688178
arti@@ 0.015361212684821957
iri 0.04336807337536872
sha 0.10502222130326401
sters 0.044913605170555496
обща 0.7689925782144896
Asian 0.025569935646346194
Walter 0.023072461012629063
jas 0.02776780606404838
Hay@@ 0.02497057891970734
Pod@@ 0.04571365314222451
micro@@ 0.026725572442248678
stell@@ 0.01905040924829641
ФСР 1
Eri@@ 0.04570438969779829
oe 0.04706058905737142
Arn@@ 0.029053342541365178
Bak@@ 0.02971634814142943
Eric 0.039766729697574825
comp@@ 0.004625644067492469
etz@@ 0.009195286332588547
ules 0.013207530807348928
lan 0.03055329304611527
Grou@@ 0.06574047379875748
Gau@@ 0.03568731968473477
Histoire 0.018527765039227765
Pach@@ 0.08976281639639014
chester 0.030054747102496317
hum@@ 0.008009121928375239
isha 0.06453945222563467
syn@@ 0.011233039971202988
Inf@@ 0.05881133812637364
asi 0.034283289381037016
anti 0.015089733964080334
mem@@ 0.008335381978039317
Anna 0.025464023224142818
blu@@ 0.02104718744201405
Cast@@ 0.03858745253471479
селище 0.7459422182582733
Luf@@ 0.044372454431453205
Person@@ 0.027101829693543533
host@@ 0.01544781041440711
press 0.024485630759411268
Ο@@ 0.033073453036270906
Police 0.031019626388518493
def@@ 0.005338138852025676
gun 0.028622772659247453
ouse 0.03424641792419585
radi@@ 0.01611664472474856
Fame 0.041680459724735074
Lind@@ 0.03380234705574637
Memorial 0.035469125807984656
auf 0.0010093740699932028
enh@@ 0.013194733253232277
ustr@@ 0.025514509596411987
wel@@ 0.015796913077385604
Virginia 0.015483474026494653
Wag@@ 0.0377848005046884
park 0.013969506466238492
Guy 0.05344079445573738
Verlag 0.06294721190067158
fus@@ 0.018702002521542183
uke 0.04353638484230721
usion 0.03658673377618232
Ny@@ 0.05636149730137102
Olymp@@ 0.0951595740734828
dev@@ 0.00595601300377835
sul@@ 0.030660214451669353
î@@ 0.015955200578307776
ност 0.04108163569185836
Esp@@ 0.024613246340246947
Duke 0.029248261467557067
iliz@@ 0.03171307903230926
Jos@@ 0.033441244049833896
Michel 0.029293694928775007
Ken@@ 0.03677014480203866
Korea 0.030348097730034135
March 0.004188304256874755
Termin@@ 0.058560523569926644
kus 0.051130204453393
Canal 0.04107525751850563
Ok@@ 0.03179981917221512
iting 0.027174450909120802
Jung@@ 0.0539334527647081
Steve 0.028236704595823038
cht 0.009029372754833186
hem 0.056345128394531874
Hall@@ 0.053585797141492114
dan 0.01542836140350548
enberg 0.02274395966646969
Nob@@ 0.06904756071048822
Deutschland 0.012428778524904363
Jus@@ 0.02133772275086463
free 0.012533134781604283
ците 0.07345867123344042
Ay@@ 0.022375060403096173
Pand@@ 0.0685907514368317
Ray@@ 0.07601637481809491
natur@@ 0.011139647326319856
tut@@ 0.041711512266603
alo 0.030752142930562814
ω 0.09291995676613836
K. 0.03463566003083385
prot@@ 0.004547684174417769
van@@ 0.02940304628026508
ŋ 1
Shak@@ 0.039494620958528945
Sin 0.018752528837006496
ball@@ 0.01997125726910145
lang 0.014074671261628107
rang 0.04655047452981116
uo 0.04786022788430386
Champions 0.04155280403880535
Ré@@ 0.012765664459269863
dur 0.09283692960775998
far@@ 0.011320796280176626
oll 0.047047668368462636
proper@@ 0.03149262966269324
ĕ@@ 1
γ@@ 0.01876843467441211
Initi@@ 0.027057176345681094
cos 0.014225933182863052
hon@@ 0.0143324125129903
neg@@ 0.008444502046426236
pec@@ 0.04381641912343156
tima 0.07700880177337133
but 0.0012418896995700388
etto 0.06381037069261257
igi@@ 0.038433484109648974
lib@@ 0.025906021971191708
Alex@@ 0.050436746961366345
Cum@@ 0.046794014215285624
Di 0.08570396150179457
Jordan 0.04503940631990943
Will@@ 0.04811426569000172
ichi 0.06673263428018052
äl@@ 0.008039036434686375
Antonio 0.01815989098121013
arp@@ 0.1069234142126236
oid 0.021359016397498157
ought 0.011451235364637147
¼ 0.8977210906839624
басе@@ 0.45976196689959414
Oxford 0.026953759665152108
sam@@ 0.02154828436682133
NBA 0.029874971511891835
amber 0.037012631918379606
eas@@ 0.014225518525975043
ples 0.00782240610245847
alt 0.013358074528553114
trop@@ 0.031713652003841325
aba 0.004590460038303472
trans@@ 0.003196524361939104
ved 0.0045508974137860505
Brand@@ 0.02480635002308414
Hir@@ 0.024223766816438435
alp@@ 0.027998444804796657
dans 0.0008036046150924085
erie 0.016452575662455903
iff 0.032010338531619754
nar@@ 0.02480415281671714
que@@ 0.019522913339893245
σ 0.2707116294582587
Bed@@ 0.024375101291672772
Epis@@ 0.03555289161477825
Hud@@ 0.0440636581165022
Len@@ 0.03666468427221748
lot 0.009679612194799877
system 0.005232685918446818
tab@@ 0.015746352082412957
Zealand 0.016209631745801322
lio 0.06898329107607276
oc 0.05703459458779014
post 0.01191158115803169
cio 0.01746943884347422
ises 0.00988071257931636
idge 0.022116389127809184
ini@@ 0.03125572120898228
Brad@@ 0.035688918720295046
aliz@@ 0.009610308312173323
onal@@ 0.0166083996543019
® 0.6218797080713352
uss 0.01855661677835349
Albert 0.01974863978095375
Brian 0.03336010576680104
Kno@@ 0.04266366978127517
Suc@@ 0.056344488003123784
ancy 0.023552670047187474
bar 0.00807527565257095
enci@@ 0.009886011435691832
esh@@ 0.024693518402352493
anco 0.057626717437861276
ges@@ 0.005838157882397758
have 0.0013738864566429931
Historia 0.018957848593437646
Ins@@ 0.031894374000489986
Nord 0.01589742613754554
Quer@@ 0.06734983825075444
cla@@ 0.017270775569705472
ern 0.0039023897502671497
7. 0.028121847776468586
ils 0.0046402751007714885
rie 0.0253794481411289
ն@@ 1
Sag@@ 0.0655634895791409
cam@@ 0.012750942166501977
宁@@ 0.09332827742262395
nat@@ 0.01986761922064077
ths 0.023471540527012513
Ι 0.45893007547292014
Ё 1
Kaz@@ 0.04481126097715183
fri@@ 0.009822412084693904
чрез 0.15667524386805523
Edward 0.016250178106975096
Neu@@ 0.01580155298383588
Tag 0.03061260532707472
ening 0.021412935660160837
hiz@@ 0.09512818147934081
igu@@ 0.015948934880012137
pas 0.0036861193405445234
ste 0.005654540191126333
test 0.017121529196769996
til 0.02437555590622003
8. 0.027642020219421925
azz@@ 0.05799908548611828
bra@@ 0.10408566717717359
enter 0.020682058272838984
lip 0.043806053869374265
orph@@ 0.03336747888868072
tain@@ 0.015059376991610538
Friedrich 0.015443172936747218
Ma 0.060730941417456163
car 0.006718498689687305
egel 0.044806626478038174
occer 0.030667079514099468
oking 0.025253726479728834
ע@@ 0.7315240432510194
გ@@ 1
Aster@@ 0.0769398903296361
Ges@@ 0.009600348365267615
How@@ 0.05058861200388147
alli@@ 0.012086254879612636
igo 0.023831278090497315
single 0.005147838122411719
cro@@ 0.00720044793983401
japon@@ 0.024975425676945228
rati@@ 0.013414860134265055
este 0.004109903574938567
ock@@ 0.02090185796020795
event@@ 0.03456203441733544
kol@@ 0.027631470999438537
tique 0.013111303052215948
port@@ 0.006426912570139575
ext@@ 0.008027210082321937
stan@@ 0.026417147845578068
Gard@@ 0.03903908944177536
Most 0.01688174866840595
a. 0.021779639715360764
ives 0.014802880875213456
tico 0.01036745598252121
wo 0.008475028550489113
τ@@ 0.016910907132130084
Trin@@ 0.026120314765529017
ancia 0.025544684925583323
mond 0.020955339117635717
ява 0.0939526959139516
9. 0.028012935801481995
Lincoln 0.03405195830262153
quar@@ 0.007657712642009774
Hul@@ 0.04612212020367402
Neb@@ 0.05960033012829139
cip@@ 0.01451164146785818
fes@@ 0.020072078498665567
unge 0.03681603955822355
Itali@@ 0.0451264027324731
ander 0.03674637049510067
ige 0.004537491985555105
mes@@ 0.014544916947956702
polit@@ 0.08311573648818475
ο 0.0038486887773901417
Rein@@ 0.027866650501367548
eron 0.009301746317738209
pi 0.07913943246518884
rod@@ 0.05448503870751724
ако 0.4474442033874869
Ant@@ 0.025466426177328087
Joh@@ 0.02993851044661706
Rat@@ 0.0458999110032891
anny 0.04603379886997681
ogo 0.06069040726023341
has 0.0009416831655122543
Bob@@ 0.035991018363806755
tit@@ 0.008119236724138222
usi@@ 0.013012432373855048
It@@ 0.06665814400278086
board 0.011986812843408025
gener@@ 0.006705294224756001
igg@@ 0.02820607137924081
pos 0.013825711068540763
vier 0.009141415178154654
Kun@@ 0.02915761924142545
gol@@ 0.012941772225751184
ial 0.018183387431811974
kt 0.0074091320122079835
libr@@ 0.01946793033337085
river 0.0144629318943136
Cambridge 0.029191667430221245
Ey@@ 0.08412330043740152
Monum@@ 0.039602376543426514
eur@@ 0.017825503748383674
ï@@ 0.010319323082729
ː@@ 0.8242026256443878
Germany 0.010755326777911849
Mart@@ 0.039629925748980145
Tul@@ 0.048303607306671464
oro 0.022725717207508617
име 0.21759158118714883
got@@ 0.031113795299000567
mon 0.048746204894897435
ult@@ 0.012607970528499457
ӑ@@ 1
Wy@@ 0.040825905329225906
imp@@ 0.00773991047238845
Kos@@ 0.027761621430632193
Luci@@ 0.04423742252527841
чело 0.6449410217588825
城@@ 0.027613947058629525
Dad@@ 0.05999410405672548
Oli@@ 0.02943874315654639
Wright 0.04656689505778841
etr@@ 0.028803654380113883
Boh@@ 0.03413879992414557
Gru@@ 0.034151192466965546
erra 0.06576913001053418
атем 1
Dan 0.04091604860687766
aham 0.025470920299892116
ograph@@ 0.011770474242171492
sult@@ 0.05210363487251875
č 0.10325306938905154
Cant@@ 0.03866280143614065
Ja@@ 0.04126545295528248
oga 0.04366375354728151
sie 0.0017268940312910144
isches 0.020784185913116555
δ@@ 0.016258267065661483
Alan 0.036422678644497004
Bern@@ 0.020517219814565602
Elizabeth 0.022300273488036232
Hans 0.01830492866096459
ling@@ 0.023371415242694024
music@@ 0.03137517685276573
å 0.18993089864687157
θ 0.1536750121477153
μ 0.05390340461304092
Berg@@ 0.017496351162977694
amo 0.03214267541053775
former 0.004201689165673612
gan@@ 0.012002400814326299
Monte 0.05056235231363892
aj 0.04743594944609196
cot@@ 0.023509985096716646
za@@ 0.0397024821910089
ската 0.024542765448408953
Peti@@ 0.043720107668232235
ende 0.004206986612017316
major 0.005899498739626401
unter@@ 0.003460317203853508
Materi@@ 0.043944282552511225
imi@@ 0.03412090986163023
mad@@ 0.016286900174611908
ñ@@ 0.012668184711099527
Пловдив 0.42775305301340766
Alex 0.037507380863044386
amen 0.017236408418207467
bil 0.09507493072893876
equ@@ 0.00933390545778394
isis 0.0881518420198761
Ню 0.3910579189974842
Israel 0.017265756395895667
Tag@@ 0.027650245091677114
ability 0.008717870269268938
amin@@ 0.01957517464813597
Apol@@ 0.0535556481943638
Bes@@ 0.007533858577258713
Pad@@ 0.024616660903627328
alen 0.013235796431760717
Sev@@ 0.07477504687035054
aud 0.020925133485871623
lau@@ 0.021462166043015072
new@@ 0.018227694706178778
Palm@@ 0.041809307200538076
Sax@@ 0.04323399491675817
Telev@@ 0.10452072485613834
ablo 0.12381616346987422
голя@@ 1
Cem@@ 0.03796569098081762
Hung@@ 0.033088544137536466
antes 0.0038018835348125573
pun@@ 0.014707994786205252
Lav@@ 0.03551436868659111
age@@ 0.04502897430890283
elles 0.005738704431943873
grap@@ 0.036584639098875854
vie@@ 0.008874881398472425
iles 0.015274008254389099
seu@@ 0.07765823014072198
ud 0.01711053846620537
юни 0.14236767552880514
Billy 0.04345776850117802
auer 0.012520692902205819
ede 0.025451090596253084
ligh@@ 0.009383163386278906
Liz@@ 0.06536604830986333
Yu@@ 0.042337693544826915
кови 0.588204222876209
Kel@@ 0.031309508936731505
tar 0.019338351656148847
über 0.0024426733303305357
aug@@ 0.028809228633403183
bes@@ 0.006068152586361655
elly 0.05703988750402992
зва 0.17188311739692505
Juan 0.011012474435458408
dam@@ 0.00975776741923859
mul@@ 0.012562210745770465
pap@@ 0.008838870420194125
ply 0.01061518636347914
tot@@ 0.01406899410086588
uni 0.051530906261626805
Gesellschaft 0.026620925665451833
Nach@@ 0.00910177875024044
ashi 0.04637847880770373
soci@@ 0.005832205309003572
Airport 0.024708110316392813
fo 0.03185948226418934
École 0.03759453843923217
φ 0.09622433692229339
Middle 0.02444355231495722
Roman 0.011297737910692473
hard 0.01471577925916666
uca 0.08125046512339303
uno 0.008440882377123938
седми@@ 0.5292868038358906
José 0.011308437592205896
abl@@ 0.013692993126330903
Andrew 0.02427070711172089
Cher@@ 0.037631859437152464
Leh@@ 0.029922452693325666
assi@@ 0.02356066976812972
ledge 0.023599539312589922
lik@@ 0.011680140604859945
urg@@ 0.01425399970280097
族@@ 0.0807818622392754
Supre@@ 0.02231408488496875
hood 0.014933716065640508
ked 0.00599253310707379
tak@@ 0.015114957112922905
Nick 0.04286283619106211
date 0.010113388428488178
fast 0.013689500312542967
ague 0.023075230590404918
ching 0.016975683271572967
cont@@ 0.004064420184872135
vas@@ 0.02306506314437336
Κ@@ 0.01399603834428966
Florida 0.01463389475484031
Grande 0.023081573013005563
alist 0.008191288309925993
ble@@ 0.015305402866096754
eral 0.015582538593544762
tional 0.009089623620828746
Clu@@ 0.04292222855604288
azar@@ 0.05019406973083311
will 0.0038008175136648222
Du 0.03587181668952127
endro@@ 0.05940089925548804
hua 0.061245765159325186
inst@@ 0.006396081373613485
mission 0.007363082872227285
ה 0.6121877473766114
Gel@@ 0.01466912409301872
Hus@@ 0.030796148809693183
dio 0.011834133490210588
eleg@@ 0.01441235122325301
otes 0.03410094951248048
Nag@@ 0.023919266097827224
dh@@ 0.01426399038390534
Ernst 0.030535691008123027
Gab@@ 0.04411802743829397
Zel@@ 0.06296204358596537
hel@@ 0.011522387364808664
lar 0.006980700152363009
Ah@@ 0.023649468862172358
dos 0.0035668913650293535
orn@@ 0.031150333931377998
power 0.007349259773870149
xa 0.05074133276200383
andra 0.06074126340933609
ardo 0.023506609593852004
font 0.02901399262035031
tif@@ 0.029414520225590945
yon 0.04782617555606001
μ@@ 0.01422330719166929
стите 0.20900123351830419
But 0.020020981779065118
ater@@ 0.022916950054948013
aç@@ 0.02017127328756898
emat@@ 0.044448602905519
kir@@ 0.01982153002219051
nati@@ 0.015868681916689237
є 1
Davis 0.02382977093577238
Stan@@ 0.028682790548133087
Ukraine 0.0258130140102589
ances 0.005629472208049858
ph 0.035604798245225465
º 0.029375005665155537
の@@ 0.5378834533860953
Jun@@ 0.02978823717239325
Sach@@ 0.041733552737436425
ecture 0.017189798564971298
tt@@ 0.02287506797070138
tz 0.03532460795446963
Brun@@ 0.022956979687820196
show 0.0054804671403415346
Sir 0.01431991886488477
Wid@@ 0.03593981317033979
aining 0.01073899362486456
ias 0.017271989174360187
poli@@ 0.013068250586561034
едно@@ 0.36560220289271944
nationale 0.013033392925089765
Jon@@ 0.050250018153514674
Miller 0.02905447617865622
alog@@ 0.021270118812586242
Fon@@ 0.02999474916600595
Kim 0.025102644227243256
ected 0.003871686716171062
ligence 0.026247435810835804
vie 0.011255582242313246
Ü@@ 0.03778629966910822
ტ@@ 1
kre@@ 0.013107190129772746
ד@@ 0.7019226911863335
alla 0.027648829095753093
endi@@ 0.012977184425224721
enes 0.013623509146304348
mut@@ 0.012435159287872704
super@@ 0.007448665500881159
Kelly 0.038869467348089735
Stein@@ 0.019598308332657417
chia 0.04964966035012687
● 0.9158257427960138
alism 0.016145988843070305
ymn@@ 0.11158670642771731
Jur@@ 0.025668082946335966
Pour 0.014682468535594458
has@@ 0.029142930779036316
ilio 0.040001537036001344
med@@ 0.007157539716995135
nes@@ 0.04113696220309396
üt@@ 0.009973616096299142
ebe 0.032733813730714344
plas@@ 0.023315252764634486
осъ@@ 0.5586631243354465
anim@@ 0.00749171842490426
atar 0.05606172859633094
einer 0.0016609763564992867
thus 0.015196791526524082
zen@@ 0.02352888308794838
Iv@@ 0.04458880094088879
Jim 0.025988964174889263
edr@@ 0.01775058495783841
led 0.0027880320787037212
rat 0.014953106834445277
Bang@@ 0.0392129625122914
Mr@@ 0.03662954129983799
ded 0.00993262169548019
tac@@ 0.032512070108920876
ön@@ 0.008565110472894696
ствено 0.23305685050677377
чите 0.5427850768189837
ն 1
Tig@@ 0.03231061500817036
building 0.00509590544434131
flav@@ 0.06827294943401706
rant 0.01651529953738148
Bron@@ 0.026900884496385707
aise 0.013537918331258121
lose 0.03210818554219064
nel 0.0203281770359675
Asi@@ 0.046467524823642824
bey 0.03200764147192357
flora 0.08095304014203779
graph@@ 0.018152937064325407
ombi@@ 0.0416351796431925
voc@@ 0.006968036868431074
ovo 0.03555636244963543
san 0.0321357841833585
sten 0.004171408347772741
ás 0.01470282428933983
η 0.004011261371217562
Clin@@ 0.028732997515760476
Slo@@ 0.025120129093557618
Song@@ 0.08200495542382857
lif@@ 0.02293461244510152
σ@@ 0.013216954912402025
ствен 0.4801324272631088
Thor@@ 0.03928162465454931
aces 0.012330536170522877
hand@@ 0.005340591724613907
ju 0.0738782681699372
BK 0.1310719837942334
Federal 0.01928541589374657
Wall@@ 0.023114719318777413
acher 0.013856237760695096
aster@@ 0.028403668844415232
mos 0.03571627574410678
Dum@@ 0.04873400168335825
tas@@ 0.01840549911737724
wan 0.02084588877501413
¹ 1
Operation 0.030845799054069166
fel@@ 0.009288291373549326
see 0.007044144875308743
Committee 0.013202078611029937
eux 0.007114017925421607
views 0.011677217479268712
་ 0.5510916484826194
Brook@@ 0.0304341695416071
Chinese 0.011210817116810315
Wilhelm 0.016857988849676393
eting 0.06721221221062158
lic@@ 0.010026747789905305
ovi@@ 0.03491853861185054
thor@@ 0.03410023166136139
平@@ 0.017502975743680593
Bahn 0.03946269903665362
aissance 0.013773852988017029
che@@ 0.020953922703994956
return 0.011049415470610963
soft 0.06634070351606809
tung 0.008212242761638308
tures 0.007373098511840496
anza 0.019494006613385868
bau@@ 0.007487764539485511
list 0.00943812097842343
ég@@ 0.006664778189562461
Highway 0.02039909291644678
Proj@@ 0.01979550045166724
press@@ 0.018347397203175988
versi@@ 0.010045567968726488
ября 1
Tax@@ 0.03340082638740684
Wilson 0.021114816596741647
imm@@ 0.016852538282608003
kn@@ 0.012874906504319921
orient@@ 0.015947602335109844
ès 0.008012056452671161
ქ@@ 1
Marc 0.03762706818428942
Port@@ 0.02813998048322937
Yan@@ 0.0394933966047777
quit@@ 0.015047762777395553
Court 0.009713370112064662
Shel@@ 0.04576707930355605
eff@@ 0.004232777925224257
fort 0.007695962392524103
mand@@ 0.009316458202414812
ät@@ 0.015696656655620842
Ide@@ 0.035049952802202536
rid 0.04013895542467589
ving 0.0072903241808675075
Inn@@ 0.02524301406855692
Montre@@ 0.03195294617720529
afe 0.04858869715305683
arry 0.035139582763446225
eka 0.06969583145659489
ement@@ 0.017686271038191707
hou 0.0334434946485728
kun@@ 0.030973150797119823
part 0.001967467507747399
rh@@ 0.025541729167882842
werke 0.03468945020174363
Academ@@ 0.05803982215908347
Carol@@ 0.03457809723446016
Concep@@ 0.051658645498151634
Marshall 0.041442122725190905
NCA@@ 0.15406742742321466
aking 0.015284416880281267
bab@@ 0.03331931853120461
ris@@ 0.009618661508865776
tific@@ 0.018561749220585403
tik 0.016929810014138912
Aj@@ 0.05102864217644503
Carlos 0.014854705657648957
DNA 0.032956954480530314
Democ@@ 0.02247086060940492
andi 0.0653496044997826
bin 0.02516012607633332
inga 0.065077204027822
limited 0.016374949908851653
wall 0.018843014087009263
nas@@ 0.02954764956803813
omer@@ 0.05500869495971528
Diego 0.022513809779896757
Greg@@ 0.02419387469657138
alc@@ 0.06699454966337558
anted 0.011102068535331848
Brig@@ 0.016633966977157126
attle 0.023584572242236902
kov@@ 0.044260685066278
oss 0.03048967036658712
Mount 0.021004929540739615
bai 0.04199744786746423
illo 0.016546969791323026
osph@@ 0.02614608515877837
Å 0.40052130451288576
Bin@@ 0.06816802839637745
Carlo 0.05443063804032711
Chor@@ 0.038341505267962886
ffen 0.025122197861176476
tered 0.02114739256963792
ı 0.011105190699474627
Johann 0.01425303841970773
fi 0.06397902491394555
oj@@ 0.0503709345363979
zer@@ 0.021135036243080295
лни 0.05921137301622717
Dave 0.03897664629806439
code 0.01913853190114636
flor@@ 0.03226771743778066
inn 0.029600199591382614
Rhein@@ 0.029608065507275225
Well@@ 0.03619145072112633
adi 0.029187054898932124
asia 0.056533643490403365
asons 0.029370928019201974
ei@@ 0.027218312302485063
fs 0.012429669403060692
lied 0.013423549779402478
sang@@ 0.04611525921491794
Boul@@ 0.02727557261630661
otte 0.02204169553639064
virus 0.040133987069355594
Asp@@ 0.05552241498468862
Jak@@ 0.031003466652817443
Roger 0.026328315175001376
law 0.006247716966339384
plan 0.00841150709075249
Ә@@ 1
Schwar@@ 0.021270340108903635
шата 0.576969088836272
中@@ 0.005405903376648997
Manchester 0.024957685450780476
Vas@@ 0.02834157537468147
ended 0.0042990858026922514
lit 0.011047507410161389
yu 0.05274100411718548
Buff@@ 0.0333367146528877
Metropolit@@ 0.030973996243808387
Princip@@ 0.04284705933471713
case 0.007947068774634858
han 0.008029962483284341
ogen@@ 0.028624873924359574
poly@@ 0.021171709160792227
Nich@@ 0.02470194305540098
Ou@@ 0.03277054171245988
gam@@ 0.03525243995117488
neum@@ 0.06863476076536346
stand 0.00606939925247245
tain 0.005760159546857242
Univers@@ 0.10662084940157669
Ya 0.07713396112842981
amba 0.050352922042345136
ament 0.02889105248181342
cant@@ 0.020092180412107873
graf@@ 0.022469718160419122
ì 0.06326055068628811
İ@@ 0.022063162825516642
ʰ@@ 1
Philip 0.030928366075222206
allen 0.01779997998819652
eland 0.02652209775684847
ited 0.003990112336795764
лно 0.06810240337244707
Sain@@ 0.03763792438210566
model 0.012366367390193813
tir@@ 0.011543507715158555
wr@@ 0.014552198029478849
Въ@@ 0.27966608154195355
Georgia 0.018151435477701542
leri 0.011759965992894033
uer@@ 0.008887814420199786
ui@@ 0.039664882168112606
Lap@@ 0.058654936518432454
liber@@ 0.009701539958492971
mani 0.1318706841258288
Bis@@ 0.034093386112082506
Sad@@ 0.03877859046389562
Americ@@ 0.02321190599462599
Frank@@ 0.036745686909141456
Rit@@ 0.03490986479900559
Vinc@@ 0.08505927932262651
aber 0.003817243085051421
angers 0.0249496341432372
contr@@ 0.0033635205917130232
osh@@ 0.03150454594493648
ę 1
Charlie 0.03912304368672687
Harry 0.022143505000227746
Sali@@ 0.0842723427865069
ander@@ 0.010362603790416437
ansa 0.24241506844547214
ç 0.03279251638131238
ín 0.00942111328712993
говори 0.4592773350443164
Institut 0.020735803817791446
anos 0.009947222662581136
orie 0.012019162899896768
sid@@ 0.039162508627453956
ß 0.00633481952149906
κ@@ 0.012279755941182968
And@@ 0.03603866621182356
Cari@@ 0.03413786351284631
Chir@@ 0.05873318418188945
Dutch 0.018616238403753912
ences 0.004204101905508837
oso 0.01223743952008539
Васил 0.3772782593029193
African 0.010546101603883074
Franz 0.020874078543360066
had 0.0007263067944893314
las@@ 0.01851294714669771
mental 0.01229698443839999
≤ 0.47484113316633264
Del 0.03688243400624079
Institu@@ 0.03899519221393298
Maf@@ 0.10196033485335053
ün@@ 0.00633888521501116
ą 0.8053660371200776
ŋ@@ 1
Au 0.00902681672785301
Hin@@ 0.013077725635920542
hil 0.03741704151836898
quer@@ 0.03741640765352876
trac@@ 0.009610230929298136
Nations 0.020243679358965996
Part@@ 0.0395138886007132
antas@@ 0.25932340182181873
iki@@ 0.1415816010396039
lu 0.030003645947661126
nd 0.0648136969157193
uza 0.18781257405871207
dle 0.014063134717045619
open 0.009733097696030311
Law@@ 0.03200006722156379
Tang@@ 0.08303843241301115
mid@@ 0.009343706817375978
mur@@ 0.00944355283061175
nu 0.061827134691614
zum 0.001559631952339783
天@@ 0.009997667841072762
Early 0.00829970821475851
Kim@@ 0.04993975220065736
October 0.0033254613158320103
Prof@@ 0.023950012791546797
oty@@ 0.025348494060124287
sburg 0.016174218178654706
them 0.0027081729775467987
ć@@ 0.08463049701771215
Evangel@@ 0.03210603084965706
Franc@@ 0.03196020836951155
Mim@@ 0.10527865145474331
Unter@@ 0.005462819462086623
Carolina 0.01456244935576974
These 0.006588510946061713
aint 0.03923086718013899
bor 0.028029059565523224
Lo 0.056932671168136204
Way@@ 0.14189262276392867
ables 0.006368506955808296
evo 0.027742289818181595
August 0.0023418851759488437
Fund@@ 0.02622674891467621
NAT@@ 0.05997380324057975
oko 0.05670099913215788
oz 0.037569171512264014
自治@@ 0.09318415715133775
German 0.005375257365474363
Rund@@ 0.03199211698331048
Stur@@ 0.04158029066912908
bas 0.02538733745884678
eco 0.045466693632604374
aft@@ 0.030833699931620582
ition 0.010205694665676751
lard 0.03078095234554535
onym@@ 0.021811089936691223
пус@@ 0.4055675480343614
Card@@ 0.026703084992529758
Coupe 0.02287874013343925
Orch@@ 0.052188763802350914
Villa 0.024552696160061782
bau 0.010004953531104767
enti 0.10806239076184483
éri@@ 0.005373383675816142
дени 0.10449848951409187
海@@ 0.007732117607140355
Ben 0.022072385493855918
Clark 0.029396754542320984
Lux@@ 0.14654898913751993
Reichs@@ 0.025435198829453096
Sydney 0.017820576639943197
Allen 0.028294230043410577
Penn@@ 0.06750387245038554
Yes@@ 0.13998222193175328
abe 0.015533745323627394
blo@@ 0.010075242509330387
hard@@ 0.018506173131730478
indi@@ 0.008102103430016645
z. 0.018771221450959576
Pow@@ 0.029113697925242384
hir@@ 0.06261685742116721
ht 0.01655259746777676
₁ 1
aver@@ 0.01903357521439142
mach@@ 0.00995435474820365
rag@@ 0.028152023956454657
senti@@ 0.03162072365618448
̀ 0.22426529843838608
Walker 0.034055825206812156
haus 0.01571281229111828
orr@@ 0.027510981464627566
ric 0.02718049879991673
sin 0.006628292359901039
кива 1
Afr@@ 0.031526462796611636
Atlan@@ 0.04072349359865298
Lewis 0.021951462213661694
Secre@@ 0.01401591422878529
apa 0.02610684832661593
coc@@ 0.03095321292339681
esto 0.015573079356744344
icia 0.01920313390434689
orio 0.018607322849578656
sequ@@ 0.011441655933623618
ם 0.6984806950854975
bile 0.02764071758289086
break 0.017551767642798356
pag@@ 0.023910871644907815
species 0.004342944745227596
strong 0.011753547352490974
̄ 1
lyn 0.029358284012356513
titu@@ 0.011572694478801304
Π@@ 0.014082740343103278
ת 0.6512955462863429
ares 0.007529102138960324
Harv@@ 0.1905158602786506
Lig@@ 0.0266433935134495
Otto 0.02254791344959152
deg@@ 0.07133305463876315
fication 0.0071775109267050476
lag@@ 0.010072809893564898
wi 0.1022650567814875
роден 0.1410738747489523
Git@@ 0.04004671371423329
cola 0.04996716982911627
fon@@ 0.007533463397404534
Ө@@ 1
⋅ 1
Universit@@ 0.026724606330296274
enth@@ 0.013477097316956954
liner 0.07101904322943374
put 0.00833207199088114
ū 0.03951102883178017
π@@ 0.012544539323678053
acer@@ 0.03245603115820686
iner 0.021409291101348045
лява 0.22585731475607285
Bah@@ 0.014114135160840644
Kul@@ 0.034625170898295934
servat@@ 0.023088442095202756
Chic@@ 0.08023199330922262
French 0.004869183733437182
cu 0.061473675890630596
det@@ 0.004700522879636365
itage 0.01827934368336231
bli@@ 0.026145596699505117
ener 0.009272042248406377
igh 0.026567478658233598
viol@@ 0.006445783381278967
Academia 0.04816977306676869
Corps 0.017012703678251195
Miami 0.027683927595826097
base 0.005923593635971876
range 0.010330576500977259
ross 0.05932716440646544
东@@ 0.011777953640961614
Elle 0.0034742165082231225
Lak@@ 0.024976350294081545
airs 0.01285412392636207
onal 0.008110089461912329
Къ@@ 0.44908257080139496
Broadway 0.03195242711354638
ē 0.39354970802944883
Σ 0.1586850464386282
Alfred 0.02249750798232086
Kab@@ 0.020692391525999897
Nev@@ 0.024842342527008194
ators 0.010149959045839515
bic@@ 0.030776606905846087
ole@@ 0.07691902848475726
semble 0.023304367862710448
ʼ@@ 0.14467682403620472
新@@ 0.007267637994362307
bed 0.01305827468431714
cher@@ 0.014909219265304936
enna 0.02761412967887906
parti@@ 0.006226743544524172
tag@@ 0.014061235981314408
Ν@@ 0.017470716468736408
Olympic 0.020436183697646822
Popular 0.04423725367684622
endo 0.0058336298411126985
law@@ 0.008231546400566976
umi 0.04658734533881582
Haz@@ 0.0456217559553556
Nig@@ 0.042954185728714706
elt@@ 0.02393556530421283
loss@@ 0.031801820727347885
oshi 0.05007566492147524
ées 0.001827144893255271
chart 0.020156395024421844
cord 0.022057028780721112
etz 0.018990673012265705
ls@@ 0.03806527631159822
rio 0.046997069821421204
Casa 0.04177601171664672
alar@@ 0.02380035659218396
gres@@ 0.016298804515801752
igher 0.07429065911526445
inen 0.017370864478532266
long 0.0034247223746858412
place 0.0022622291239906014
Moh@@ 0.014808737407630338
hop 0.045341382783180284
marine 0.014947277273457111
stock 0.019167064078980195
ù 0.06845088124071685
set@@ 0.01798481377474215
two 0.0010161343987384957
ʔ@@ 1
Τ@@ 0.013718427881917624
Alexand@@ 0.024778255796931773
Ba 0.04604499276232357
Emper@@ 0.021909579927346247
adel@@ 0.026553676890284945
utive 0.008821961596221247
corpor@@ 0.019719177963176317
lac@@ 0.0369628869976613
Compan@@ 0.08116581841147344
Stanley 0.03385475656058386
ata@@ 0.074887659279005
lich@@ 0.009431903285139943
‐ 0.5820070033987595
Ha 0.03853738111050264
emi 0.03890289485045501
opa 0.06628093067715335
sex 0.013270323738422995
ţ@@ 0.2726017534777629
Bour@@ 0.022120378515646837
Dipl@@ 0.03760648718290302
berger 0.020199914867629724
esper@@ 0.025682247010150004
iste 0.005049570537344227
stars 0.01849965597897928
Christ 0.02628275548731239
Distribu@@ 0.029479128565998523
Juni@@ 0.030920865216576866
Kid@@ 0.07606169553143986
Lom@@ 0.04241828762414326
Must@@ 0.10842612300641162
Regional 0.026314497945630403
arian 0.011429676341083467
only 0.0017405083692241094
sou@@ 0.0033853811830502584
цар 0.34245759672221115
北@@ 0.008663492551285736
Heinrich 0.016217787926538163
gar 0.01315934522162422
album 0.002046394137482163
Alt@@ 0.01791654583625432
Sa 0.015451576411949181
obr@@ 0.06717611960722122
Ł@@ 0.04799921264164671
Dies@@ 0.056833679457383636
Ost@@ 0.014549095486047998
bahn 0.011055038734533978
hen 0.03514221820137464
isten 0.0060942558413451635
ophie 0.018812382274180806
oul 0.02804479744734442
pet@@ 0.03108842561399822
sel 0.011429880826205175
spo@@ 0.009753487931539266
ères 0.00478875745102115
Μ@@ 0.012895389574755537
omon 0.048856219647554384
shire 0.00889219133083858
ė 0.14503609523727024
、 0.0008352055835159007
Ab 0.01281610002571009
Anne 0.01797997765866082
Kunst@@ 0.018691587160767787
causa 0.04385274738881375
mari@@ 0.012012127226973503
͡ 1
Bag@@ 0.02583358214891249
Ministr@@ 0.016475792878932725
door 0.015219103861513272
ingham 0.015921017384706103
ór@@ 0.012778259559073166
ן 0.6240689997522498
Hid@@ 0.040292488871941826
Wayne 0.040134506256439
eff 0.0321820787263466
evi@@ 0.03759480448702631
nam 0.020593766972001794
zar@@ 0.03397657954024599
lier 0.015889277951039962
ograp@@ 0.01775214114525688
public@@ 0.005302321136079214
tou@@ 0.01090355277856423
Mex@@ 0.012581604828645742
Stephen 0.021126569720707346
alog 0.04478261585548652
arina 0.04767298343742833
enz 0.011366850385286273
ι 0.01607708032004744
2nd 0.013924742043026366
Mey@@ 0.030912464965861367
Moder@@ 0.03386038581531864
Slov@@ 0.03818846663139393
boy@@ 0.016304112201917242
kis@@ 0.05843139527519866
omin@@ 0.034759985878764776
Amer@@ 0.03185509497910826
Had@@ 0.035826262278280965
Δ 0.11443089675870173
Athle@@ 0.01681278239806995
Creek 0.014838795037039111
Mann@@ 0.01580085817492133
mini 0.04689160478119986
ɛ@@ 0.7306810229781278
city 0.0029818099444548288
emer@@ 0.017350393261550568
entes 0.0033513835108338963
pay 0.020708950484989976
Ann 0.035100718455904
Ent@@ 0.008522760499985599
Ross 0.030027407888138038
Samuel 0.021800173354478446
Zh@@ 0.03835647215817259
` 0.7047440739556948
aires 0.004000667651958393
dan@@ 0.01595554829973869
front 0.008057326124669688
song 0.0035871953228403266
американски 0.2312376450575242
heit 0.008141433010512782
zone 0.011601330495693136
ο@@ 0.012309370610702197
Bundes@@ 0.00827479058133755
Lud@@ 0.03376705403765421
ago@@ 0.026209186882948297
bak@@ 0.024578816767488194
eing 0.019497113212769767
essor 0.017114548295304337
jan@@ 0.055499854198465995
Chin@@ 0.03684779390462779
aries 0.009688582429048338
ehr@@ 0.010447284676370166
ful@@ 0.031285231001280354
sberg 0.028181068933586042
Maur@@ 0.020926733244721735
Reser@@ 0.016737074335148254
dance 0.02021247382732805
Jar@@ 0.026849298323812214
adem@@ 0.0527284306494247
rig@@ 0.01978090134292399
sun@@ 0.01943080128404882
troit 0.02321165456751588
ņ@@ 0.364402454743019
ȃ@@ 1
Rak@@ 0.047668749690880544
atu 0.06847111684102643
home 0.00372502096762959
ino@@ 0.03432949105787159
θ@@ 0.012016639612942656
ρ 0.032050515319106986
Rober@@ 0.023975070692815997
alli 0.052346091474402154
friend 0.012934285638713636
met 0.005694737509785171
then 0.0017492191889767767
va@@ 0.04570902928736507
Dj@@ 0.04759975569192679
Hockey 0.022129552579839257
Steph@@ 0.0290367448743136
about 0.0018728649593468412
elling 0.009083106743019863
mir 0.026543745619467984
sing@@ 0.011813328586424574
Bog@@ 0.02376196479055246
Theod@@ 0.028076102231314855
brach@@ 0.07210107447181933
m. 0.01997943634573746
ál@@ 0.026404306118986504
， 0.00018005367592818696
Egyp@@ 0.017585111354461967
dale 0.025610573875265018
jur@@ 0.006437530483867004
Bruce 0.029970897713478977
Grim@@ 0.04114447076243199
Laz@@ 0.05752319576033276
igi 0.049989483606852875
position 0.003354448795802879
Χ@@ 0.017950223248153457
Bras@@ 0.03589478533245479
Norman 0.034274747212594756
alle 0.006009321736363025
bre 0.008693906310780711
hur@@ 0.01596329425307019
sea 0.008976650428031483
teen 0.012674096297734585
versit@@ 0.02995668364786702
ı@@ 0.01612498371291755
Ӏ@@ 1
Adel@@ 0.026222394666937474
Ludwig 0.019848198611136337
avia 0.051924387422430114
tun@@ 0.011477082220269306
Libr@@ 0.06637065597965582
Ord@@ 0.021898733913063538
atia 0.03634136365685921
austr@@ 0.022506020077764345
aye 0.016764627657044263
ging 0.007013938504976773
hibi@@ 0.011338905241848008
mode 0.024023935090877295
sion@@ 0.01637459809018607
stat@@ 0.0049573293879069235
wak@@ 0.02038185665620127
Andre@@ 0.03005906806056996
Sonn@@ 0.02781788073448835
abor@@ 0.01380798364432929
burgh 0.014438411983950905
istic 0.012323386866731746
itter 0.03625243976523693
kno@@ 0.009052965532567476
vet@@ 0.02448553137339878
wen 0.024927215127653644
ě 0.23048207770297516
镇 0.020774476758887613
Four@@ 0.031220718980165988
elas 0.033009808738587436
nak@@ 0.050077643325964386
person@@ 0.009346534154531556
District 0.004474960383625881
afé 0.04103006280999742
han@@ 0.01980797267750374
main 0.003289248216100171
Stud@@ 0.017275644122539267
Von 0.005559952226716835
ces@@ 0.007738005702737181
isions 0.011115444344414202
mash@@ 0.1552417075392496
por 0.0005615617483609116
sat@@ 0.011416172966898794
ados 0.0015883536263851358
gor@@ 0.031094534797631072
ე 1
Dep@@ 0.021000031352975675
Mart 0.05589353156550333
Naz@@ 0.03343264559581872
Scotland 0.01572022403910615
ekt 0.012908016382346022
iment 0.01151297898146221
milit@@ 0.011798421749916558
Berliner 0.027089155464214577
Braz@@ 0.029530482125768795
German@@ 0.03759718788783259
dra@@ 0.005609018300238069
ered 0.005220869181995326
through 0.0021310449300416903
ya@@ 0.07857981106392407
year 0.0015767871047508725
Jason 0.0350980371035226
Kath@@ 0.01802512846384405
Ris@@ 0.03677223416335525
atri@@ 0.02162936116907386
hil@@ 0.03749886626431111
tari@@ 0.01886282513019848
Zer@@ 0.0470547698475667
frag@@ 0.013330395874211799
mis 0.010413799321957486
small 0.0042874658395258974
Brasil 0.030045520276867577
Herr@@ 0.014608133728251984
Jacques 0.015009365737442151
Welt 0.022515365735120123
ential 0.00826584916869423
ers@@ 0.023641083945443286
ettes 0.020582377372671955
inning 0.02989030303249541
lichen 0.002003432708469347
red@@ 0.013513963047794453
Papa 0.08544842028458136
ible 0.013611690876249355
pod@@ 0.0419915520886312
ον 0.04136225663621157
XV@@ 0.11534630475022986
cent 0.01137260982927536
emo 0.050385166282770164
obj@@ 0.005787102359208034
þ@@ 0.39114212084943306
Λ@@ 0.01573060017515514
Francis 0.01691151040057154
uses 0.005116747051295948
Geor@@ 0.01952150602993774
Schne@@ 0.02870300277577685
Yak@@ 0.05716264665580149
hen@@ 0.02301962655592882
ief 0.014055106394115946
oder 0.0020245295574333314
武@@ 0.01855708569611332
aven@@ 0.022179361375957395
lea 0.03295953303518682
ologi@@ 0.037083543537705
onde 0.02447391540907225
video 0.005601407773055258
Hut@@ 0.04226703126371025
agin@@ 0.025284193578212235
quin@@ 0.024094540471610085
shot 0.01298102088678225
ß@@ 0.00600994004103082
Fen@@ 0.025893653452977852
Kunst 0.03223146485239981
zon@@ 0.07095579199814117
王 0.015728960383170294
Gramm@@ 0.06547057645966263
Harr@@ 0.022860921232817827
Personal 0.013626087672721998
Scottish 0.016550687593603376
eh 0.025358187535890808
encer 0.03228285187223515
gan 0.03128008151466934
tent 0.015004306408714906
Alg@@ 0.022769932575348237
eda 0.021163610029183728
leb@@ 0.01786468371308577
Ere@@ 0.03548329897965505
Gordon 0.024942590388677372
Rud@@ 0.030448311983888966
cell 0.019402836329201555
gesch@@ 0.0033175144971962878
hold 0.01513633150711575
Jug@@ 0.03881526784448038
Mec@@ 0.04969778015261944
alit@@ 0.029491722289146313
tas 0.012935703190318585
uru 0.04176637113930457
други 0.05929793433358056
Gle@@ 0.03422924618035389
Navy 0.010417926171318906
ican 0.010259798093777733
istes 0.00898991851511838
Charlotte 0.028602969790896767
Kansas 0.019569719546414052
enda 0.014760411965475737
nt 0.0163799547520671
vision 0.02010230739402483
Ž@@ 0.050779723469253635
Mark@@ 0.029941082037550127
Roma 0.0234630180364513
Yar@@ 0.056741850166023906
area 0.002494838197316418
dat@@ 0.013591786741732207
mel 0.036838071796360734
straße 0.009700168482853842
xon 0.035486545136299445
Toronto 0.01564380207723884
Vig@@ 0.060230078012623506
kt@@ 0.017794086159560997
uj@@ 0.047982655714647195
Ä@@ 0.009378820362394137
Gan@@ 0.02678584017049633
Harvard 0.024886967346754413
Ireland 0.009588545671919484
Schw@@ 0.008801930378770875
than 0.0018334353073136053
they 0.001147184955092074
ի@@ 1
Adri@@ 0.023559244983762283
Robin 0.03872259007388629
Soviet 0.010830899381612032
care 0.012105740709866667
inv@@ 0.003877309005607091
isto 0.04157521861965663
oka 0.049382965131858574
rim@@ 0.07045303025478489
spi@@ 0.00971216655268593
Des 0.012794522364648534
acht 0.0058940441753564865
eurs 0.00525479335755567
isia 0.07462901499199497
known 0.0017153222089458522
É 0.18507902977562216
Jul@@ 0.0347030273887276
Russell 0.028638288088471606
c. 0.11951895223222525
deutsche 0.013637801538251452
elen 0.012350570428030979
flo@@ 0.005395627030221478
Fili@@ 0.0202111917459509
Fort 0.012759927882041274
burn 0.026449666457972677
dir 0.009975219730697404
dres@@ 0.009143594688045318
Ohio 0.012740685042056986
Salv@@ 0.06764830585298741
ante@@ 0.035163932317662884
isen 0.020059756029647505
cir@@ 0.01097637438706547
rad@@ 0.016180507416241243
ȃ 1
ח@@ 0.6459985694801579
Sol 0.05030254750772898
aller 0.00679615387733609
atur 0.018830018383262915
shi@@ 0.00856166642050321
öh@@ 0.007342065245293667
ų 0.5236966316035099
зата 0.29341621305716403
ძ@@ 1
Franç@@ 0.027040621399514245
Wak@@ 0.04891508856355803
Willi@@ 0.02495982262129325
mani@@ 0.022470203197127416
ning@@ 0.018561333710589212
rev@@ 0.009006011800081898
ulation 0.012426995476758022
vert 0.033986886289389465
Winter@@ 0.023350886503116876
game 0.0027276983121090254
minor 0.016882933687509198
phot@@ 0.006652384225145552
stan 0.03495984235161687
té 0.005231978072659188
ν@@ 0.01127242117675988
ー@@ 0.33317809218242483
Chief 0.0135952066863045
Kob@@ 0.040488561632454866
Patrick 0.019022265762214538
allas 0.01633476226117652
get@@ 0.008005029414202312
uter 0.011820419761148433
Уе@@ 0.3802371626070228
Armen@@ 0.019971046977457104
lara 0.016309866662615455
roc@@ 0.01620217167239024
ahl@@ 0.010464323721050625
elek@@ 0.04567522767235043
kad@@ 0.029665490009802883
para 0.0008868081305541677
uz 0.02071758483957548
Най 0.13674319638565693
Instituto 0.028264548018921216
Thé@@ 0.029237642310852366
cut 0.014012669321555128
ria 0.039793491410133774
say 0.01631552335097467
ð 0.2676655519288193
bass@@ 0.014924812387665562
onne 0.00824633916564911
ר 0.6478792370534628
Gros@@ 0.037779887161895315
Uz@@ 0.049081247578759396
cons@@ 0.0038928455288257417
eb 0.029342388615686044
eg 0.019774174782919582
enty 0.015663025626878664
mine 0.012080296757171658
put@@ 0.00681083073136423
stop 0.016617627007667793
Apr@@ 0.14904428286755492
Dres@@ 0.04563739243192537
Philadelphia 0.017851580369041192
Pho@@ 0.10115617269151495
Singapore 0.02587167381155899
estra 0.019552215921425743
size 0.009579417401672037
vern@@ 0.01810711262264695
DDR 0.02285627668379982
Leo 0.03543494597882096
ois 0.012065357716912391
seg@@ 0.010148701175301922
ê 0.029457424442846658
Hr@@ 0.10022830805868806
Harris 0.027106698374136932
Mann 0.018552873016815553
bos@@ 0.016252276753886522
div@@ 0.009321500365547884
Ş@@ 0.018142395622933644
След 0.03405751269257662
Bib@@ 0.0561742003943803
Britain 0.014175295293986395
Nep@@ 0.030503804789012226
Parti@@ 0.015624239061191173
kam@@ 0.023848363615860766
led@@ 0.03095184749364094
shar@@ 0.009981647316528884
Conserv@@ 0.01579270238417321
Dok@@ 0.04623390952368022
Jewish 0.013110926160559429
eil@@ 0.015415679017808662
icio 0.012942695527277972
jam@@ 0.06055253174131014
nec@@ 0.009656723735245384
sula 0.017975399195262795
昌@@ 0.10724370917637756
Anthony 0.021632595245797925
Catal@@ 0.035548390724882174
EU 0.02514313400094436
Nur@@ 0.03504457768814292
box@@ 0.01792705652405981
lut@@ 0.020641729421168244
aup@@ 0.026961771945992377
pre 0.012728817043220375
pression 0.009842798041031008
Α 0.03396544098011438
ү 1
nie 0.01496943183882277
¾ 0.8888026697916048
ò@@ 0.09497762679401857
Ż@@ 0.10852981596809799
Hugo 0.030025698262755134
Sieg@@ 0.01572841047354311
Syr@@ 0.05397842326856102
qu 0.008011392116970011
school 0.0023781631584236084
wiki 0.21122255080264968
Administration 0.0207157838416931
Arist@@ 0.04454040942063253
Ern@@ 0.01517789366406186
Gur@@ 0.03350088639582991
Raf@@ 0.04881080841180273
avi 0.03727657606594479
cau@@ 0.0319612711912556
ict 0.013082201233459177
liter@@ 0.0054946180945089325
plant@@ 0.011389199594544082
pros@@ 0.012286451181696594
Zeit 0.004189309346587918
histor@@ 0.006824012446825508
lich 0.0017626700197429016
saw 0.007419042776621271
û@@ 0.013413369383218994
Amat@@ 0.027003956677960846
Wis@@ 0.05242746700660604
tie 0.019036508009059785
umo 0.06180988341927301
ɪ@@ 0.8662616161928501
Cec@@ 0.037455781681448586
Chel@@ 0.053593377775468215
Hier@@ 0.02595115827257947
Sebasti@@ 0.02367191450878011
Vietnam 0.019120925445901635
conn@@ 0.0036355436045456537
iler 0.010487033578490868
imin@@ 0.029363638958649733
urt 0.023803227373362195
мача 0.2227406949404325
כ@@ 0.6806467686161493
Bill@@ 0.04985305796057001
Civil 0.012497790830844568
eira 0.035883321358356854
list@@ 0.007651617723220106
ped@@ 0.01851013173019251
spe@@ 0.0053450010344818465
times 0.004850166815968603
Ener@@ 0.042303272102245694
Matthe@@ 0.024596208211649085
aux@@ 0.030207493545601666
dies 0.007747437525181943
[...]
