de 55521676
, 39494483
. 29948059
la 26326218
en 22419764
el 19418308
y 18746054
a 13849011
&quot; 12766760
que 11645127
del 9651761
los 9131970
se 7846906
un 6621301
por 6600689
una 6225857
con 6092096
es 5845622
os 5772311
las 5737152
) 5707209
( 5697634
o 5497811
ó 5359553
ado 5203065
su 5159073
al 5127377
as 4986237
ar 4130105
ación 3999045
como 3908915
para 3890829
El 3560055
ada 3434682
En 3068680
fue 3002609
@-@ 2987256
La 2851089
ía 2526503
re@@ 2424882
ados 2304831
más 2159799
no 2148446
: 2103453
í@@ 1956759
lo 1949532
an 1924655
c@@ 1920996
in@@ 1898102
ales 1887842
ando 1857871
era 1680764
sus 1679852
to 1632298
p@@ 1590182
ido 1547117
al@@ 1530071
ac@@ 1520755
con@@ 1517839
ente 1507988
an@@ 1487582
ta 1462527
; 1414736
C@@ 1411601
r@@ 1400196
ción 1396183
ar@@ 1375769
ón 1335837
encia 1328499
adas 1327976
aciones 1317558
dos 1308325
aron 1307533
ica 1307241
á@@ 1295891
ia 1280946
des@@ 1275275
entre 1271984
di@@ 1268402
es@@ 1257408
v@@ 1242965
ó@@ 1234383
P@@ 1219034
or@@ 1216342
l@@ 1213488
S@@ 1190058
o@@ 1165636
ano 1160103
u@@ 1153683
ana 1151936
M@@ 1115581
años 1115461
A@@ 1113825
le 1108274
aba 1108165
qu@@ 1082395
ex@@ 1079265
as@@ 1078133
s@@ 1075923
T@@ 1071459
L@@ 1056575
también 1054160
Los 1048792
ad@@ 1045207
ante 1041929
ico 1040211
ina 1038281
on@@ 1037508
tr@@ 1024229
en@@ 1022561
son 1019684
ec@@ 1019445
er@@ 1014552
d@@ 1013805
este 1010994
e@@ 1001846
e 1001482
g@@ 985410
b@@ 980155
t@@ 967449
año 956018
da 945263
D@@ 940786
n@@ 936970
entes 929700
er 926515
j@@ 916614
ent@@ 914802
hasta 909792
de@@ 908832
B@@ 904500
parte 903625
or 900930
E@@ 898065
esta 897812
antes 893409
at@@ 892916
ti@@ 892518
su@@ 890544
ida 888406
vi@@ 885533
amente 884167
ic@@ 883717
pero 882449
sobre 878146
im@@ 876300
it@@ 872279
do 870945
N@@ 870234
cu@@ 863003
R@@ 862681
O@@ 856723
donde 856284
« 848264
par@@ 848093
» 847520
ario 843204
per@@ 840949
ci@@ 835166
idad 834402
ha 832266
m@@ 830997
ador 829949
G@@ 829797
ista 829725
i@@ 821349
est@@ 821031
f@@ 820057
V@@ 812334
z@@ 809224
ser 797402
ab@@ 795885
desde 793310
A 790606
car@@ 790187
án 775006
ores 774400
oc@@ 770910
F@@ 769620
il@@ 766179
almente 764934
ino 759781
ag@@ 758557
am@@ 758296
ol@@ 755368
Se 752386
com@@ 750703
ro@@ 737346
is@@ 731888
H@@ 727998
ul@@ 725245
durante 715148
br@@ 711307
ch@@ 706056
% 703290
el@@ 699772
po@@ 697106
h@@ 696779
on 688537
endo 686494
un@@ 685811
us@@ 675876
ya 674741
ciudad 664329
cor@@ 659790
mar@@ 655184
a@@ 652510
em@@ 651800
tiene 649811
ca 646755
ap@@ 643729
1 639902
az@@ 633906
id@@ 633871
&apos; 632809
ero 630974
pi@@ 629566
J@@ 626974
ur@@ 626905
pre@@ 622187
rec@@ 622100
ión 619051
ciones 616477
Al@@ 613247
ían 612163
y@@ 611904
Las 611469
primera 606170
ones 604972
después 600830
había 597590
Ar@@ 596199
2 595976
io 595775
col@@ 595692
está 590002
os@@ 589920
tos 585743
é@@ 582614
pos@@ 580144
Con@@ 575394
ot@@ 575239
le@@ 571170
fueron 570584
dis@@ 562512
icos 562149
co 561780
eran 560342
bi@@ 556833
á 552784
San 552068
uno 548769
pr@@ 548136
/ 547250
gu@@ 546753
cuando 546439
primer 542698
Su 541293
co@@ 539108
ir@@ 531598
ter@@ 531226
otros 530954
eg@@ 529860
om@@ 529209
nombre 527259
inter@@ 527031
ena 522404
za 515345
tres 513719
forma 511348
ri@@ 510842
arse 509801
s 508276
sin 508222
cre@@ 508097
idos 507222
te 505782
ú@@ 504284
mismo 504087
entos 502600
población 502448
ir 502021
vez 501205
ev@@ 499128
jo 497873
icas 497392
3 496977
ig@@ 495219
ato 492849
amiento 490425
imiento 489988
ento 487225
aban 484587
ver@@ 482766
av@@ 480145
gran 479695
estr@@ 479396
eron 476935
l 476106
cual 475046
af@@ 472140
K@@ 470264
i 469677
puede 469502
&#93; 469092
&#91; 467656
adores 467593
Fue 467173
us 466147
U@@ 463977
is 463210
ismo 460064
ita 459402
op@@ 459085
li@@ 456175
aje 455948
Com@@ 453304
Mar@@ 451165
ese 449244
ed@@ 449080
te@@ 448517
I@@ 448362
et@@ 448097
familia 445769
encuentra 444433
tico 444024
re 443984
pl@@ 443353
Car@@ 443337
ías 443267
esa 437323
cas@@ 436172
tor@@ 434811
ora 434310
ura 434118
istas 434057
muy 433295
así 433017
lugar 430737
tica 429368
z 428570
An@@ 427632
4 426380
contra 423734
ven@@ 422467
ma 418726
va 418510
sido 417987
um@@ 417925
km 414857
ej@@ 413808
Es 413496
bajo 413181
res@@ 412270
enta 411898
encias 411465
ten@@ 411028
ro 410847
uso 409336
arios 408995
man@@ 406829
Tr@@ 405879
tras 405827
In@@ 405666
aria 404338
fund@@ 403117
aj@@ 402279
iz@@ 402066
- 400794
todo 399860
pas@@ 399632
of@@ 397722
Ch@@ 396704
equipo 395888
án@@ 395888
Estados 394881
mon@@ 393557
sal@@ 392035
siglo 391356
ito 390413
anos 388561
d 387987
junto 386563
in 383532
ella 382699
ber@@ 380542
tiempo 380509
eo 379304
Unidos 378465
les 377954
embargo 377752
cer@@ 375912
her@@ 375786
Est@@ 374254
The 372883
Z@@ 372204
esc@@ 371769
grupo 371511
estado 371178
eta 370812
gr@@ 370656
han 370559
5 369305
mayor 368584
ob@@ 367105
enc@@ 366615
W@@ 366135
pu@@ 365056
6 364871
eros 364682
ist@@ 361986
día 361678
cada 361423
Cor@@ 361221
tes 359513
der@@ 358062
fr@@ 357959
end@@ 357666
isión 357037
serie 356918
í 356803
tuvo 356386
trans@@ 356243
inc@@ 355803
edi@@ 351847
osa 351088
solo 350391
pres@@ 349310
todos 345948
España 345355
tor 344788
ra 344664
hab@@ 344457
Universidad 344414
contr@@ 344288
estaba 343724
tura 343718
u 343072
ant@@ 342248
idades 342185
represent@@ 342079
quien 341115
ni@@ 341008
De 340069
otras 339342
utiliz@@ 337851
mo 336706
ín 336428
Nacional 334742
entr@@ 334237
idas 334021
és 333925
reci@@ 333892
ares 332529
gan@@ 329164
siendo 328829
También 328402
produc@@ 328289
personas 326010
má@@ 325008
municipio 324785
na 324596
ut@@ 323180
sub@@ 322375
aunque 322096
mientras 321999
das 321975
ticas 318029
des 316652
tanto 316380
ea 316335
aqu@@ 316195
oso 315674
cos 315527
Por 315432
vida 314095
ara 313771
form@@ 313521
esp@@ 313399
x@@ 313163
aci@@ 312918
nuevo 312585
ran@@ 311961
ñ@@ 311312
I 311248
Al 310723
inos 310700
ja 310189
so@@ 309628
temporada 309448
país 308991
uc@@ 308827
hu@@ 308467
bas@@ 308234
sol@@ 307939
ár@@ 307046
ay@@ 306711
cion@@ 305860
able 305806
hacia 304812
ef@@ 304289
arr@@ 304081
estas 303155
ici@@ 302909
10 302640
go 302465
for@@ 301921
final 301897
min@@ 301359
og@@ 300726
bar@@ 300137
ata 299688
Y@@ 299620
7 299418
si 299002
bu@@ 298058
Re@@ 297301
to@@ 296446
gobierno 295733
can@@ 295424
ín@@ 294738
illa 294564
ce 293722
st@@ 293591
Gu@@ 293230
ña 292803
n 292521
au@@ 291621
álbum 291588
pe@@ 291362
tom@@ 291109
8 290938
general 290575
mayo 290297
fic@@ 290149
lleg@@ 290040
dec@@ 290021
m 289537
ología 289352
tri@@ 289341
tar@@ 289080
reg@@ 288974
ad 288511
Par@@ 288296
Juan 287958
vol@@ 287686
cat@@ 287324
tenía 287293
2010 287173
enero 286581
añ@@ 286415
ona 286336
marzo 286041
fi@@ 285738
ve 285232
octubre 284740
septiembre 283882
posición 283726
public@@ 283436
tur@@ 282434
pro@@ 282291
Sin 282088
edad 281944
do@@ 281578
historia 281335
cr@@ 280885
² 280859
película 280517
— 280512
julio 280373
total 280087
t 280078
varios 279642
enci@@ 279610
eto 279541
dio 278861
” 278023
cuatro 277816
“ 277700
ov@@ 277321
junio 276091
endi@@ 275884
ez 275580
Di@@ 275365
tu@@ 274940
sur 273991
eb@@ 273986
Historia 273965
él 273620
región 273338
r 272769
pal@@ 272677
3@@ 272470
&amp; 272450
prot@@ 272349
port@@ 272335
diciembre 272001
partido 272001
mi@@ 271877
gen@@ 271829
ser@@ 271708
ellos 271086
habitantes 270993
si@@ 270366
ga 270263
abril 270191
ju@@ 269998
ticos 269813
dem@@ 269474
ental 269472
Este 269419
agosto 269195
pos 268700
and@@ 268416
José 267759
ati@@ 267434
ect@@ 267241
Col@@ 267128
atr@@ 267020
cal@@ 266795
ens@@ 266622
dic@@ 266148
17@@ 265775
obra 264885
especie 264550
número 264043
entonces 263777
debido 263045
ama 262884
qui@@ 262850
encontr@@ 262328
ás 261972
aliz@@ 261230
noviembre 261163
ór@@ 260401
20 259456
Durante 259168
conocido 258809
algunos 258315
mundo 256952
pueden 256915
agua 256881
río 255639
ma@@ 254410
men@@ 253761
all@@ 253671
luego 253288
lí@@ 252631
ér@@ 252567
fun@@ 252544
gi@@ 250974
En@@ 250607
tores 250256
inici@@ 249767
través 249635
estos 249141
llev@@ 249089
k 248900
Or@@ 248764
cha 247168
so 247077
ución 246920
x 246900
lu@@ 246837
fer@@ 246736
et 246717
vo 246498
principal 246287
k@@ 246281
val@@ 246212
además 245080
Según 244874
ali@@ 244791
sistema 244594
4@@ 244385
prom@@ 244279
Per@@ 243962
norte 243494
cuenta 243074
cont@@ 242984
anas 242631
lo@@ 242515
present@@ 242296
aría 242156
febrero 241866
conoc@@ 241256
Su@@ 240974
banda 240879
ición 240849
16@@ 240229
presidente 240010
Esta 239989
err@@ 239783
Bar@@ 239488
15@@ 239257
of 238796
cur@@ 238757
9 238643
mu@@ 238480
guerra 238151
icio 237680
du@@ 237609
ru@@ 236841
oper@@ 236250
tas 236191
México 236102
ega 236052
sión 235471
otro 235360
15 234641
den@@ 234423
segundo 234285
fu@@ 234052
inas 233883
ello 233875
As@@ 233593
Mon@@ 233543
cap@@ 232325
hizo 231969
int@@ 231441
c 231340
partir 231305
cab@@ 231095
sec@@ 230805
medi@@ 230790
provincia 230672
siguiente 230503
ari@@ 229971
Qu@@ 229811
rom@@ 229761
trabajo 229593
Des@@ 228761
puesto 228582
od@@ 228401
lan@@ 228393
esti@@ 228387
tarde 228123
sem@@ 228066
12 227926
osas 227834
mat@@ 227601
unos 227179
esto 226957
zona 226793
fil@@ 226089
trat@@ 224785
cul@@ 223927
ala 223742
canción 223742
están 223657
direc@@ 223334
rey 222832
tad@@ 222757
tivo 222269
Para 222102
at 221660
bus@@ 221481
az 221312
cl@@ 221193
é 221150
én@@ 220348
cio 220249
segunda 220018
plan@@ 219776
30 218526
consider@@ 218442
estadounidense 218215
poco 218085
realiz@@ 218019
neg@@ 217999
ing 217929
actu@@ 217757
largo 217735
mo@@ 217689
extr@@ 217530
ece 217528
adi@@ 217177
ang@@ 217117
nacional 217106
ocup@@ 216682
Con 216564
tienen 216347
no@@ 216269
cá@@ 215646
Sal@@ 215520
estudi@@ 215453
ias 215445
dentro 215263
ería 214790
h 214569
ell@@ 214310
Santa 214289
2011 214067
nor@@ 213546
El@@ 213493
ne@@ 213370
ing@@ 213292
Nueva 213079
destac@@ 212738
lat@@ 212373
ep@@ 212177
señ@@ 212005
eza 211932
oeste 211841
Br@@ 211072
carrera 211022
prim@@ 210872
por@@ 210515
Am@@ 210089
ver 210051
Después 209900
um 209635
muerte 209619
María 209424
Un 208840
0 208797
neces@@ 208667
sa 208618
vis@@ 208609
Además 208539
.@@ 208298
anti@@ 208221
gener@@ 207758
autor@@ 207693
pin@@ 207490
Mor@@ 207489
versión 207214
continu@@ 207117
ecto 206825
super@@ 206388
ba@@ 206162
centro 206049
se@@ 205957
varias 205588
ota 205560
menos 205414
Una 205290
vari@@ 204995
momento 204740
nos 204712
ieron 204681
Ex@@ 204043
ra@@ 203976
obras 203914
– 203913
eció 202863
Guerra 202849
género 202605
ás@@ 202344
cel@@ 202161
vuel@@ 202161
tipo 201991
ces@@ 201799
9@@ 201638
ate 201132
be 200693
det@@ 200268
Mundial 200212
asi@@ 200140
medio 200083
Desde 200005
oma 199978
Es@@ 199896
tim@@ 199827
culo 199784
5@@ 199771
inf@@ 199495
ua 199458
Co@@ 199130
Tor@@ 199060
casa 199016
Tras 198865
eno 198814
lam@@ 198586
español 198429
época 198128
onia 197999
muchos 197911
cam@@ 197797
dió 197196
11 197100
16 197097
constru@@ 197042
grandes 197042
18 196857
nueva 196504
sur@@ 196444
iv@@ 196370
ancia 196125
hay 195895
one 195569
producción 195455
hijo 195341
atura 195123
bien 195115
ah@@ 195012
tel@@ 194724
comenzó 194340
mer@@ 194240
elo 194158
atos 194052
idi@@ 194019
lado 193786
ie 193592
lar@@ 193296
2012 193282
25 193181
último 193174
título 193040
ley 192905
No 192544
mayoría 192119
sig@@ 192021
misma 191742
anza 191692
otra 191114
metros 190971
hace 190864
ere 190739
ho@@ 190413
según 189935
del@@ 189424
Pr@@ 188749
inclu@@ 188708
fac@@ 188499
ular 188488
ño 188453
ques 188375
llam@@ 188207
jug@@ 188140
2014 188102
días 188100
importante 188095
Pal@@ 188022
cerca 187746
2015 187693
alidad 187628
ema 187271
música 186993
padre 186984
illo 186938
ori@@ 186841
grab@@ 186836
ativa 186796
Pol@@ 186648
14 186590
pen@@ 186578
Cr@@ 186480
Entre 186226
2008 185878
Ro@@ 185633
E 185490
itos 185489
poder 185320
il 185137
diferentes 185055
Cu@@ 184864
manera 184661
amb@@ 184470
orio 184414
2016 184373
agr@@ 184290
pul@@ 184125
activ@@ 184071
jas 183979
13 183909
tradi@@ 183904
localidad 183797
Madrid 183572
frente 183556
2013 183538
ándose 183217
w@@ 183083
hi@@ 183046
the 182849
mis@@ 182767
én 182761
dia 182404
caso 182393
acción 182277
ier@@ 182220
C 182068
B 181909
línea 181869
6@@ 181774
17 181745
ección 181624
Estado 181549
ectos 181465
Carlos 181274
mejor 181175
hecho 180944
nivel 180915
liber@@ 180675
segu@@ 180615
Francia 180380
2009 180363
primeros 180191
Can@@ 179817
adora 179765
pel@@ 179739
millones 179479
política 179477
ren@@ 179070
descu@@ 178991
espec@@ 178831
eras 178316
trabaj@@ 177965
2007 177960
organiz@@ 177877
man 177660
ble 177613
programa 177589
II 177423
construcción 177348
alcanz@@ 177320
cin@@ 176897
República 176764
Argentina 176761
pueblo 176755
crí@@ 176627
19 175984
comp@@ 175718
convirtió 175480
2000 175393
leg@@ 175160
mor@@ 174768
llamado 174717
juego 174543
not@@ 174500
8@@ 174332
7@@ 174267
und@@ 173555
rel@@ 173496
ejemplo 173466
denomin@@ 173215
Le@@ 172915
cho 172481
alg@@ 172480
der 171809
haber 171505
sim@@ 171111
cargo 170993
cional 170593
aza 170553
algunas 170442
pobl@@ 170420
and 170382
tan 170133
logr@@ 170083
jos 169432
cinco 169424
arias 169289
distrito 169223
ela 169137
veces 168981
Como 168945
ío 168940
Val@@ 168929
ellas 168731
Ver@@ 168694
les@@ 168678
ón@@ 168544
centr@@ 168139
apo@@ 168060
tam@@ 167842
2006 167652
ord@@ 167645
ual 167615
ima 167583
anz@@ 167455
bre 167097
todas 166859
ud 166834
2018 166545
tí@@ 166475
prop@@ 166433
Cal@@ 166415
hac@@ 166293
nu@@ 166283
capital 166231
Gr@@ 166189
Sh@@ 166158
ind@@ 166110
arm@@ 165991
club 165975
administr@@ 165811
Á@@ 165795
ine 165760
miembros 165701
establec@@ 165613
conocida 165426
cuales 165339
década 165320
finales 165082
24 165053
Man@@ 164716
desarrollo 164687
iendo 164577
son@@ 164556
habían 164034
punto 163915
mujeres 163611
conserv@@ 163469
celebr@@ 163059
oria 162502
def@@ 162374
compr@@ 162266
De@@ 162073
aus@@ 161840
dad 161643
ili@@ 161587
comun@@ 161555
declar@@ 161508
partidos 161506
ard@@ 161312
hacer 161130
fico 161089
dur@@ 160966
tamente 160908
21 160861
hum@@ 160771
ables 160681
oto 160620
Biografía 160477
Luis 160466
constitu@@ 160371
Un@@ 160236
Ber@@ 160080
ego 160070
orden 159957
2017 159609
ecu@@ 159576
pesar 159390
base 159213
º 159037
director 158914
actual 158726
zo 158681
cru@@ 158579
escu@@ 158345
ib@@ 158228
disput@@ 157976
ún 157703
oro 157684
ác@@ 157642
eci@@ 157607
Cat@@ 157527
interpret@@ 157175
ubicado 157119
tal@@ 156929
if@@ 156862
culos 156645
sus@@ 156569
estudio 156563
22 156291
voc@@ 156284
enas 156238
ago 156224
alt@@ 156198
mit@@ 156185
unas 155924
siguientes 155918
toda 155906
2@@ 155774
puer@@ 155774
ativo 155589
Francisco 155553
especies 155414
principales 155334
fl@@ 155036
estudios 154752
económ@@ 154679
anc@@ 154524
casi 154506
N 154455
Europa 153785
eles 153568
miembro 153415
bo@@ 153123
mar 153044
ol 152898
res 152862
acto 152690
Chile 152686
igo 152192
loc@@ 152051
Copa 152016
sin@@ 152012
Is@@ 151965
O 151927
ológ@@ 151913
ton 151876
osos 151736
inglés 151589
alista 151567
cas 151488
condado 151431
2019 151146
23 151142
có 151093
clasific@@ 151068
llegó 151049
desarroll@@ 151009
éxito 151009
fútbol 150976
dej@@ 150965
proyecto 150819
perman@@ 150669
enti@@ 150660
hombres 150586
área 150363
acuerdo 150269
bió 150163
aparec@@ 150095
Cuando 150093
Campeonato 150044
domin@@ 149787
den 149670
propi@@ 149521
eti@@ 149154
pes@@ 149088
parti@@ 149079
mad@@ 148848
cons@@ 148746
puntos 148570
có@@ 148485
mediante 148440
apar@@ 148439
g 148390
compl@@ 148377
Pro@@ 148235
fon@@ 148194
ase 148145
ins@@ 148095
tener 148047
din@@ 148005
irse 147870
obten@@ 147769
integr@@ 147635
países 147460
cualquier 147383
tiva 147328
uta 147227
ta@@ 147209
televisión 146890
dr@@ 146862
él@@ 146845
porte 146752
estilo 146676
C. 146675
dirig@@ 146531
Club 146385
ach@@ 146374
cambio 146114
2005 146044
mas@@ 145896
_ 145634
nac@@ 145599
comer@@ 145443
ez@@ 145408
isi@@ 145195
fuera 145137
estación 145096
técn@@ 144968
p 144921
britán@@ 144906
am 144883
vió 144595
var@@ 144586
X@@ 144569
tem@@ 144498
bur@@ 144448
ud@@ 144185
qued@@ 144168
ectiv@@ 144149
po 143972
Partido 143881
bl@@ 143866
tierra 143735
aca 143565
termin@@ 143474
emente 143465
fal@@ 143255
origin@@ 143157
depor@@ 143037
imientos 142863
isla 142659
Reg@@ 142653
ensa 142505
retir@@ 142464
amp@@ 142280
Ac@@ 142266
ge@@ 141814
bier@@ 141798
origen 141778
ola 141688
libro 141592
bor@@ 141322
pan@@ 141072
ye 140766
York 140528
b 140506
formación 140258
ió 140130
equipos 140119
aga 140001
Her@@ 139847
1.@@ 139819
tió 139719
esper@@ 139680
ense 139615
especi@@ 139530
indi@@ 139440
bal@@ 139429
militar 139199
ast@@ 139106
hom@@ 139024
papel 138981
anda 138832
asc@@ 138759
teriores 138609
titu@@ 138394
porque 138388
manos 138308
tras@@ 138269
sit@@ 138241
puesta 138188
$ 138107
recibió 138071
000 138051
Cas@@ 137860
ning@@ 137748
ún@@ 137269
elec@@ 137225
tra 136842
edificio 136465
ni 136358
28 136335
emp@@ 136041
tir 135990
pot@@ 135858
Antonio 135833
tal 135548
Alemania 135413
ofici@@ 135239
color 135199
ay 135196
iciones 135155
exist@@ 135146
Pedro 134901
mag@@ 134864
fin@@ 134831
grupos 134825
vers@@ 134299
relación 134247
polí@@ 134050
result@@ 134019
Sus 133916
patr@@ 133831
particip@@ 133690
cientí@@ 133628
Real 133543
fin 133511
dado 133427
bre@@ 133299
27 133081
alrededor 133047
2020 133043
última 133028
26 132803
estuvo 132762
Gal@@ 132684
Gran 132498
Cl@@ 132423
14@@ 132416
edición 132377
encuentran 132370
2004 132318
permi@@ 132316
cost@@ 132243
ba 132222
fici@@ 132051
oficial 132039
dar 131955
alto 131879
arquit@@ 131878
ambos 131856
ajes 131608
Vi@@ 131588
proceso 131492
arte 131403
ers 131318
ivo 131304
Bel@@ 131232
entemente 130990
S 130937
principalmente 130846
me 130830
elecciones 130701
expres@@ 130607
público 130379
habit@@ 130339
compos@@ 130313
superficie 130301
met@@ 130167
iglesia 130078
canciones 130014
T 129936
unidad 129899
enz@@ 129883
sac@@ 129877
fica 129868
amp 129858
División 129619
Ed@@ 129524
lista 129443
General 129290
ganó 129080
principios 128985
mucho 128901
th@@ 128885
empresa 128869
institu@@ 128828
servicio 128641
incluso 128582
0.@@ 128566
estaban 128476
estar 128367
tic@@ 128293
territorio 128165
colabor@@ 127837
D 127783
gol@@ 127732
ub@@ 127269
dieron 127173
disco 127069
meses 127002
ampli@@ 126997
rit@@ 126948
To@@ 126942
dice 126890
sería 126826
Pl@@ 126800
importantes 126761
sino 126669
Nu@@ 126662
llamada 126488
nacionales 126406
mot@@ 126239
Reino 126120
50 126114
dol@@ 126075
complet@@ 126029
oni@@ 126024
V 125998
he@@ 125959
cop@@ 125845
dido 125826
contin@@ 125631
gen 125533
Camp@@ 125400
ne 125342
ger@@ 125172
ill@@ 125168
eng@@ 125082
igu@@ 125074
cripción 125032
icia 125004
0,@@ 124901
curso 124900
ed 124863
Nor@@ 124835
enfrent@@ 124800
emb@@ 124779
uel@@ 124684
cabo 124611
agu@@ 124565
refer@@ 124470
bol@@ 124410
Jo@@ 124235
tivos 124231
isiones 124128
propio 124085
registr@@ 123922
pasó 123904
liter@@ 123903
político 123886
vent@@ 123878
asoci@@ 123859
par 123808
América 123785
seis 123709
gar@@ 123577
100 123258
L 123199
tera 123039
St@@ 122974
ática 122969
Unión 122853
internacional 122840
ite 122840
blan@@ 122814
diseñ@@ 122804
campo 122673
ética 122562
ejército 122539
onales 122532
Esp@@ 122470
que@@ 122448
distribu@@ 122289
finalmente 122217
pol@@ 122184
ónica 122021
Em@@ 121873
término 121800
dir@@ 121760
R 121745
tir@@ 121726
muchas 121716
Fin@@ 121617
ades 121576
Ma@@ 121492
mes 121316
escrit@@ 121309
original 121257
prob@@ 120981
Primera 120881
tero 120853
famili@@ 120843
Liga 120756
medios 120751
M 120730
che 120719
densidad 120616
Ci@@ 120613
Norte 120610
isti@@ 120376
eño 120368
musical 120161
enda 120149
be@@ 120114
Segunda 119993
fall@@ 119886
cuer@@ 119846
fuer@@ 119822
sum@@ 119736
eso 119681
natur@@ 119666
aplic@@ 119564
Buenos 119507
conjunto 119328
29 119259
etas 119185
cuerpo 118895
iones 118804
icamente 118742
sab@@ 118736
separ@@ 118632
debe 118581
afir@@ 118494
ende 118471
Aires 118435
ug@@ 118396
John 118190
sede 118164
Mal@@ 118081
dist@@ 117985
alm@@ 117720
siempre 117700
mand@@ 117600
ca@@ 117454
Rec@@ 117234
departamento 117174
Be@@ 117037
v 116962
ingres@@ 116780
ila 116719
Se@@ 116580
ete 116545
Internacional 116445
protagon@@ 116360
francés 116344
jun@@ 116182
camp@@ 116168
madre 116073
cad@@ 116012
cli@@ 115973
aut@@ 115946
movimiento 115924
acio 115923
2003 115899
idente 115898
obtuvo 115834
tro 115828
derrot@@ 115815
Aunque 115780
sólo 115773
ios 115767
ae 115749
soci@@ 115699
avi@@ 115692
Po@@ 115607
edit@@ 115597
alización 115553
° 115553
tend@@ 115380
ático 115367
ern@@ 115307
observ@@ 115277
Ab@@ 115242
deb@@ 115168
Manuel 115165
prec@@ 115127
resto 115123
compañía 115104
vic@@ 114996
Fr@@ 114949
posteriormente 114850
mujer 114803
genes 114772
regres@@ 114757
oras 114756
Lu@@ 114718
elección 114632
sta 114511
frecu@@ 114401
Sur 114400
media 114269
bo 114148
acc@@ 114095
sen@@ 113968
comunic@@ 113930
Sol@@ 113860
ce@@ 113854
Te@@ 113784
hijos 113768
alla 113749
azo 113710
car 113649
pequeñ@@ 113626
religi@@ 113624
seg@@ 113558
uro 113473
Iglesia 113456
pa 113394
ará 113379
éndose 113352
prác@@ 113333
13@@ 113320
entren@@ 113296
realizó 113282
Italia 113127
primero 113106
uer@@ 113084
Cam@@ 113012
categoría 112981
turas 112889
ph@@ 112868
cultura 112736
Ros@@ 112723
grá@@ 112596
nombrado 112471
40 112458
igual 112231
til@@ 112216
Ser@@ 112208
signific@@ 112175
naci@@ 112116
Esto 112093
central 111977
aún 111862
comenz@@ 111807
Ram@@ 111557
mem@@ 111520
viol@@ 111481
ización 111415
especialmente 111335
aya 111328
ng@@ 111238
chas 111183
bot@@ 111181
enso 111020
difer@@ 110941
argent@@ 110859
Inter@@ 110856
bat@@ 110760
2001 110717
don@@ 110621
cant@@ 110617
rev@@ 110581
anterior 110509
cit@@ 110433
presid@@ 110390
Ri@@ 110358
fuerzas 110273
social 110242
eses 110203
Deb@@ 110191
mb@@ 110186
abandon@@ 110166
ü@@ 110130
publicado 110111
Ter@@ 110098
sí 110085
fo 110070
hija 110022
med@@ 110006
mal@@ 109981
alta 109914
Ju@@ 109907
P 109878
local 109876
Ciudad 109851
ám@@ 109829
me@@ 109795
abr@@ 109764
hoy 109645
ráp@@ 109452
edo 109451
Mag@@ 109406
española 109330
único 109329
organización 109311
sir@@ 109282
instal@@ 109277
elimin@@ 109257
vot@@ 109216
histori@@ 109137
illas 109113
gal@@ 109086
bir 108910
tempor@@ 108897
tan@@ 108704
secre@@ 108697
miento 108654
exten@@ 108547
ubicada 108487
2002 108371
batalla 108328
For@@ 108304
profes@@ 108226
inten@@ 108082
Barcelona 107942
amos 107921
ion@@ 107913
into 107905
resultado 107888
censo 107838
cia 107832
Instituto 107693
pedi@@ 107641
período 107632
hermano 107624
-@@ 107585
dirección 107576
control 107539
aja 107479
aer@@ 107434
artí@@ 107415
gri@@ 107397
Mu@@ 107370
Tur@@ 107262
lev@@ 107245
ene 107089
reconoc@@ 107045
ál@@ 107008
determin@@ 107007
Santiago 106994
París 106845
ayud@@ 106809
ler@@ 106748
compañ@@ 106731
jugador 106676
moder@@ 106613
ter 106529
incluyendo 106508
jur@@ 106500
conc@@ 106473
proy@@ 106468
relacion@@ 106341
distint@@ 106233
bri@@ 106224
profesional 106183
europ@@ 106074
lanz@@ 105931
ign@@ 105924
traslad@@ 105882
aco 105877
estructura 105855
caus@@ 105663
mur@@ 105618
X 105607
Cer@@ 105383
F 105329
escuela 105327
tiv@@ 105318
sencillo 105309
pon@@ 105305
Geografía 105249
tema 105240
asesin@@ 105228
funcion@@ 105221
Pas@@ 105030
Ad@@ 104996
amar@@ 104985
jer@@ 104804
Ir@@ 104768
ví@@ 104708
investigación 104706
investig@@ 104558
dir 104537
aliza 104530
vel@@ 104530
Bal@@ 104523
candid@@ 104502
revista 104348
nombr@@ 104317
oblig@@ 104242
inform@@ 104212
gos 104185
ue 104144
consecu@@ 104081
propor@@ 104052
U 103957
Pe@@ 103937
unci@@ 103816
isten 103815
hombre 103809
ús@@ 103757
iles 103715
caracter@@ 103689
óm@@ 103688
Lo@@ 103406
31 103396
graf@@ 103335
visit@@ 103318
modo 103272
fot@@ 103182
Hu@@ 103179
1990 103140
obj@@ 103123
comien@@ 103041
fecha 102985
torneo 102896
ística 102880
templ@@ 102860
Me@@ 102820
llegar 102786
defin@@ 102776
paso 102727
2021 102535
acional 102323
ton@@ 102213
sea 102066
conten@@ 102037
idae 102006
sali@@ 101908
dedic@@ 101907
asa 101848
Pi@@ 101798
cri@@ 101682
ces 101620
! 101599
iller@@ 101565
antiguo 101525
inde@@ 101461
actividad 101400
apoyo 101391
Juegos 101374
doc@@ 101299
Fu@@ 101290
ave 101283
rup@@ 101216
1999 101149
estro 101127
usa 101074
formula 101051
tro@@ 101036
vec@@ 101035
incorpor@@ 101034
datos 101031
ust@@ 101006
nav@@ 100973
uch@@ 100905
onal 100805
francesa 100717
É@@ 100701
orial 100589
logo 100582
ret@@ 100510
actualmente 100486
llevó 100413
nació 100406
ól@@ 100403
mej@@ 100328
óp@@ 100293
decir 100276
amientos 100155
capit@@ 100115
orden@@ 100068
... 99929
correspon@@ 99899
lar 99897
sh@@ 99826
Perú 99735
ale 99696
popular 99685
mostr@@ 99497
ahora 99426
modelo 99376
espacio 99337
comunidad 99331
str@@ 99268
superior 99256
ard 99178
priv@@ 99178
emple@@ 99174
algo 99158
ografía 99126
adio 99107
ira 99098
pues 98985
Th@@ 98938
leo 98916
hor@@ 98846
Luego 98801
pat@@ 98777
servicios 98752
abilidad 98726
derecho 98721
cial 98716
estat@@ 98674
ont@@ 98626
Bo@@ 98601
act@@ 98470
univers@@ 98465
Miguel 98453
ativas 98423
resp@@ 98396
eda 98360
aparece 98318
Mer@@ 98296
pil@@ 98293
cine 98169
Mat@@ 98074
cip@@ 98073
once 98055
alem@@ 98052
personal 98041
Mur@@ 98018
ciudades 97991
Go@@ 97976
elegido 97950
joven 97938
mas 97937
ayo 97920
pens@@ 97911
problemas 97887
figur@@ 97878
lin@@ 97819
histór@@ 97812
Mo@@ 97653
w 97583
Nav@@ 97424
participó 97394
gar 97372
presión 97322
ge 97252
Jun@@ 97247
real 97221
san@@ 97046
situada 97024
cambi@@ 97022
interior 96977
ís@@ 96964
Fl@@ 96945
anci@@ 96871
inv@@ 96866
autor 96853
fus@@ 96769
posible 96686
Bur@@ 96662
creación 96524
Feder@@ 96502
ey 96493
deci@@ 96461
iva 96142
personaje 96010
elas 96000
encarg@@ 95996
rá@@ 95988
mil@@ 95972
información 95930
cic@@ 95816
vieron 95767
Si 95740
arra 95734
aves 95726
Centro 95587
acer@@ 95556
Gobierno 95548
primeras 95438
Cul@@ 95339
ocur@@ 95310
pendiente 95273
ace 95246
descri@@ 95230
orr@@ 95192
propia 95028
única 94985
rem@@ 94909
Museo 94888
Unido 94885
pun@@ 94875
capacidad 94804
iti@@ 94803
ai 94799
campeón 94790
fís@@ 94762
diseño 94755
pe 94715
dest@@ 94698
menor 94696
Seg@@ 94659
cantante 94630
apa 94627
baj@@ 94528
ch 94508
puestos 94489
ficos 94465
Cá@@ 94420
ais@@ 94420
anunció 94412
logró 94377
Río 94340
Ne@@ 94337
estim@@ 94301
Áng@@ 94294
Pan@@ 94266
proc@@ 94254
aproximadamente 94207
mol@@ 94101
teri@@ 93956
Mad@@ 93920
Tri@@ 93755
edades 93753
asp@@ 93711
escri@@ 93676
dijo 93612
greso 93552
negoci@@ 93469
ang 93448
estra 93403
ría 93360
titul@@ 93325
Consejo 93319
neas 93259
ini 93166
ance 93163
victoria 93130
oy@@ 93101
recuper@@ 93075
bres 93069
actor 92985
Premio 92961
ardo 92950
japon@@ 92932
Escuela 92931
ablemente 92828
ak@@ 92787
lic@@ 92775
situación 92616
casos 92610
úa 92584
mé@@ 92531
raz@@ 92517
ell 92491
nunca 92471
1998 92426
Inglaterra 92424
regi@@ 92410
10@@ 92402
jus@@ 92357
Demografía 92328
objetivo 92315
dida 92282
f 92271
calle 92214
publicó 92149
Más 92146
nuevos 92139
III 92116
natural 92102
imp@@ 91977
envi@@ 91947
alismo 91902
60 91846
Japón 91791
proces@@ 91781
sigue 91743
Bor@@ 91732
encial 91730
ik@@ 91651
allas 91640
temas 91573
texto 91544
itar 91524
fam@@ 91503
Brasil 91488
Sch@@ 91473
común 91390
alemán 91385
ográ@@ 91381
cuar@@ 91377
ambi@@ 91341
Pero 91267
acia 91265
acu@@ 91184
allí 91182
isa 91100
resid@@ 91028
suces@@ 91006
mos 90917
volvió 90861
red@@ 90832
cir 90812
establ@@ 90797
Juli@@ 90758
cantidad 90739
desc@@ 90719
áticos 90719
1,@@ 90603
Colombia 90598
mara 90569
partes 90549
tenían 90512
Estudi@@ 90487
abaj@@ 90464
principio 90455
China 90444
igos 90409
misión 90352
íos 90340
vas 90285
dó@@ 90279
especial 90185
concep@@ 90149
abier@@ 90103
conoce 90103
tercer 90081
tad 90079
2.@@ 90077
Vir@@ 89906
docum@@ 89897
división 89879
nea 89858
pequeño 89835
positi@@ 89782
ao 89770
monta@@ 89715
cias 89660
rea 89632
acciones 89631
rez 89587
trata 89579
limit@@ 89567
elementos 89538
80 89411
uni@@ 89402
Med@@ 89395
Ejército 89382
diversos 89350
Mi@@ 89343
últimos 89294
1980 89285
decidió 89280
di 89207
mexic@@ 89146
plat@@ 89082
Londres 89079
uz@@ 89065
intent@@ 89048
mano 88984
Está 88917
design@@ 88871
ide@@ 88824
expl@@ 88797
onal@@ 88716
escribió 88712
costa 88656
Y 88655
periodo 88610
Sp@@ 88450
band@@ 88450
Bat@@ 88430
enes 88419
cristi@@ 88416
ben 88387
etos 88385
fuerza 88366
tar 88346
mando 88310
dom@@ 88301
selección 88288
campaña 88278
altura 88229
icios 88186
sil@@ 88143
Distribución 88114
muestra 88114
ou@@ 88105
cionales 87972
Cab@@ 87888
mus@@ 87888
erse 87885
ote 87798
ender 87766
derechos 87715
grande 87691
Fernando 87679
anes 87659
situado 87653
juegos 87639
esposa 87638
ve@@ 87629
antigu@@ 87621
bos@@ 87540
arca 87535
tropas 87504
antigua 87475
actividades 87434
fut@@ 87411
planta 87353
fir@@ 87343
ajo 87316
1996 87309
cali@@ 87206
ativos 87203
acompañ@@ 87180
tido 87135
consid@@ 87112
óric@@ 87025
influ@@ 87009
0@@ 86998
eve 86937
participación 86909
ocho 86895
alu@@ 86865
vivi@@ 86807
firm@@ 86737
oles 86697
prepar@@ 86673
go@@ 86667
Mil@@ 86664
Dis@@ 86563
muer@@ 86522
mez@@ 86439
presencia 86422
viv@@ 86351
Ger@@ 86323
Bi@@ 86321
Así 86294
zonas 86294
mant@@ 86276
áreas 86275
incluye 86223
ectura 86188
nuevas 86080
crec@@ 85991
Hab@@ 85950
tros 85950
Pa@@ 85717
Ob@@ 85667
inst@@ 85642
acab@@ 85561
Ori@@ 85484
Liber@@ 85452
haci@@ 85449
Mc@@ 85399
pendi@@ 85399
libre 85361
endas 85183
frica 85148
tuvieron 85139
Medi@@ 85132
Censo 85115
ango 85059
izquier@@ 85054
longitud 84990
1997 84977
ania 84964
lea 84909
som@@ 84875
estren@@ 84866
tific@@ 84853
formas 84794
clase 84789
sitio 84784
bil@@ 84760
Ben@@ 84757
grado 84755
oca 84750
ka 84748
vía 84735
infer@@ 84648
clás@@ 84563
ayectoria 84455
dicho 84442
Prim@@ 84415
tig@@ 84384
profesor 84371
1995 84345
ice 84332
Carrera 84315
parec@@ 84302
acept@@ 84290
películas 84214
atac@@ 84087
mente 84082
arlo 83964
vos 83955
bles 83938
compuesto 83932
ólica 83908
Der@@ 83888
Rom@@ 83831
bel@@ 83724
comuna 83673
idea 83649
vio 83588
siete 83579
1992 83544
conqu@@ 83509
land@@ 83487
mento 83431
pública 83417
70 83328
reempl@@ 83311
compar@@ 83294
novela 83263
art@@ 83172
causa 83132
tercera 83034
flu@@ 82984
competi@@ 82953
ticamente 82944
partici@@ 82914
yó 82877
ific@@ 82831
jefe 82789
desarrol@@ 82779
tora 82769
ígen@@ 82759
ven 82726
au 82712
tab@@ 82695
eñ@@ 82683
teatro 82650
Ag@@ 82572
sp@@ 82535
ezas 82510
ron@@ 82462
persona 82409
G 82405
imagen 82378
2,@@ 82348
ee 82300
referencia 82280
sociedad 82269
ayuda 82248
cuyo 82089
person@@ 82044
Gi@@ 82003
financi@@ 81974
XIX 81964
dar@@ 81896
1994 81834
12@@ 81807
fabric@@ 81781
California 81748
conduc@@ 81663
tamaño 81656
vid@@ 81630
tul@@ 81624
ti 81544
Vic@@ 81537
quienes 81519
mitad 81377
fol@@ 81337
eleg@@ 81331
personajes 81313
cierto 81305
fuerte 81275
noche 81269
lucha 81218
menudo 81200
period@@ 81160
ubic@@ 81106
= 81093
len@@ 81089
chos 81027
chil@@ 81014
ísticas 80975
Sil@@ 80952
ur 80951
Tom@@ 80913
similar 80845
aller@@ 80740
auto@@ 80611
autom@@ 80609
perteneciente 80537
inaugur@@ 80504
Estos 80491
matrimonio 80464
ision@@ 80449
León 80432
Por@@ 80427
ª 80408
podría 80400
per 80354
niños 80319
peri@@ 80303
ult@@ 80296
jud@@ 80290
Europ@@ 80261
van 80233
pad@@ 80232
gracias 80231
pudo 80195
eos 80156
Pu@@ 80155
luz 80153
Mientras 80152
XX 80085
ilio 80076
finaliz@@ 80070
ilit@@ 80065
prueba 80035
mercado 80010
ines 79989
Central 79980
forme 79938
clar@@ 79891
realizar 79883
tales 79819
públ@@ 79796
artís@@ 79749
pequeña 79730
provoc@@ 79721
comple@@ 79716
atur@@ 79704
ocasiones 79699
divi@@ 79698
Aut@@ 79642
femen@@ 79641
adel@@ 79586
aire 79569
igió 79555
plic@@ 79530
quedó 79454
pá@@ 79448
1970 79394
edra 79352
ú 79326
Er@@ 79312
let@@ 79289
experim@@ 79286
mediados 79267
Imperio 79260
Posteriormente 79223
restaur@@ 79216
puls@@ 79201
He@@ 79150
gas 79083
diversas 79068
presenta 78974
Ti@@ 78913
radi@@ 78789
it 78654
García 78653
libros 78602
medida 78595
sobre@@ 78504
actualidad 78467
unión 78463
ul 78399
edió 78345
aprob@@ 78331
apareció 78233
dor@@ 78186
1991 78180
liga 78175
tot@@ 78168
premio 78096
carr@@ 78063
Q@@ 78054
cuadr@@ 78014
mov@@ 77999
San@@ 77962
ím@@ 77950
excep@@ 77930
interés 77926
función 77907
educación 77841
elev@@ 77822
ológico 77801
aña 77732
dico 77704
Actualmente 77651
españ@@ 77613
anto 77591
lleva 77572
Tiene 77561
ejec@@ 77490
Gran@@ 77483
mencion@@ 77448
alizado 77395
yo 77386
gio 77378
Har@@ 77372
egio 77341
adquir@@ 77339
construy@@ 77288
razas 77285
plantas 77281
artistas 77275
fe@@ 77253
tre 77249
90 77225
diferencia 77220
Fútbol 77199
encuentr@@ 77188
Sud@@ 77156
oría 77120
ministro 77108
emos 77102
identific@@ 77102
lares 77099
fran@@ 77091
ónom@@ 76982
Ur@@ 76903
ich 76862
vir@@ 76850
aten@@ 76769
trabajos 76741
ior 76734
Venezuela 76675
odi@@ 76607
enfermed@@ 76600
gt 76592
tecn@@ 76580
lengu@@ 76518
episodio 76514
imen 76497
ein@@ 76493
ener 76466
ónico 76436
tario 76409
Ha 76405
ler 76385
mundial 76384
David 76367
secu@@ 76267
prove@@ 76201
Congreso 76189
Hol@@ 76180
Gar@@ 76171
adop@@ 76098
cm 76095
etapa 76068
eri@@ 76018
murió 76007
abor@@ 75958
ximo 75945
Du@@ 75904
numer@@ 75902
diendo 75891
horas 75889
evo 75836
mec@@ 75811
Cruz 75798
Ho@@ 75795
Li@@ 75774
unió 75755
lanzado 75752
metro 75734
Roma 75730
queda 75676
ole 75650
viaj@@ 75648
zar 75613
1993 75612
Ni@@ 75606
Si@@ 75567
istr@@ 75518
ner 75474
medalla 75461
id 75460
sel@@ 75373
américa 75357
obispo 75347
ban@@ 75291
sex@@ 75290
jugó 75285
gobernador 75256
emiti@@ 75242
Festival 75217
pertenec@@ 75118
Dr@@ 75117
rí@@ 75097
tit@@ 75092
red 75076
Arm@@ 75055
itas 74798
mejores 74795
mús@@ 74780
ingen@@ 74755
canal 74750
gl@@ 74741
polic@@ 74581
invit@@ 74563
energía 74559
honor 74472
revel@@ 74417
uy@@ 74368
ataque 74366
Constitu@@ 74331
bol 74324
geográfica 74306
ciales 74202
H 74141
Hon@@ 74134
cuya 74082
enses 74068
echa 74035
estruc@@ 74028
Pres@@ 74001
ánica 73992
Oficina 73989
rech@@ 73970
guit@@ 73943
la@@ 73920
Fer@@ 73883
Rusia 73871
gira 73836
vig@@ 73817
cal 73798
valor 73754
ele 73725
vide@@ 73606
electr@@ 73561
diput@@ 73523
defensa 73504
permite 73470
3.@@ 73432
ánico 73343
presentó 73299
sor@@ 73281
Bol@@ 73254
mp@@ 73213
’ 73168
cabeza 73167
ábit@@ 73156
características 73144
ami@@ 73092
aument@@ 73077
lugares 73073
vir 73071
ció 73054
contribu@@ 73046
ram@@ 73035
ticia 73012
model@@ 72972
Del 72959
mpicos 72958
mil 72923
plaza 72923
dirigida 72912
relaciones 72896
influencia 72890
kilómetros 72890
econom@@ 72884
lt 72881
actriz 72871
neo 72868
baja 72866
carre@@ 72849
lig@@ 72840
amento 72825
eja 72773
barrio 72710
formar 72685
fase 72623
Dom@@ 72592
significa 72519
clu@@ 72492
Academia 72490
amo 72468
comand@@ 72435
ingo 72352
Res@@ 72281
ustr@@ 72281
conven@@ 72231
So@@ 72204
conver@@ 72200
ños 72193
armas 72177
indic@@ 72155
conoci@@ 72113
propiedad 72104
Del@@ 72094
frontera 72082
manten@@ 72063
Lor@@ 72049
Hor@@ 72037
americanos 72020
usu@@ 71998
alidades 71886
coloc@@ 71873
Bu@@ 71872
temper@@ 71807
olo 71797
video 71776
distancia 71724
importancia 71642
cultur@@ 71634
incluyen 71620
dejó 71546
pró@@ 71541
ónimo 71495
anim@@ 71471
ucion@@ 71464
intel@@ 71455
formó 71334
eca 71318
tista 71291
ans 71268
1989 71233
favor@@ 71222
ras@@ 71204
Casa 71184
pec@@ 71174
déc@@ 71124
alcal@@ 71122
etc. 71119
produ@@ 71105
secund@@ 71060
verano 71037
Pre@@ 71016
Tierra 71002
tierras 70994
jugadores 70960
abe 70921
lab@@ 70907
material 70869
torno 70865
mir@@ 70747
Jorge 70744
diez 70736
vista 70643
óg@@ 70631
inició 70601
trabajó 70551
futbolista 70544
camino 70424
ém@@ 70424
respecto 70407
iente 70366
tillo 70347
terminó 70314
Mac@@ 70311
pag@@ 70281
sociales 70179
cier@@ 70143
gir@@ 70117
úl@@ 70107
dicha 70059
reduc@@ 70020
suc@@ 69997
sector 69972
New 69959
ficas 69952
Min@@ 69925
respectiv@@ 69891
+ 69858
conflic@@ 69834
uras 69813
condiciones 69790
embar@@ 69759
generalmente 69737
comercial 69736
aparición 69733
ext@@ 69694
ede 69683
eter@@ 69677
FC 69633
const@@ 69591
&#124; 69535
debut 69533
instrum@@ 69527
log@@ 69486
ñas 69475
siones 69442
mes@@ 69429
poder@@ 69416
unc@@ 69416
esas 69414
asist@@ 69413
Saint 69384
minutos 69374
Olí@@ 69359
1@@ 69303
carácter 69285
ok@@ 69285
1960 69270
entrada 69232
Ay@@ 69228
perió@@ 69225
calidad 69222
combin@@ 69188
dan 69172
urs@@ 69152
Leg@@ 69143
Chi@@ 69132
aguas 69129
campeonato 69125
Sim@@ 69084
obst@@ 69069
mul@@ 69032
convirti@@ 69013
ficamente 69001
egr@@ 68988
blanco 68920
sistemas 68915
portes 68912
illos 68908
lad@@ 68862
escritor 68819
Cap@@ 68681
arg@@ 68647
considerado 68637
requ@@ 68632
crit@@ 68623
acus@@ 68619
eléctr@@ 68591
abri@@ 68527
Patr@@ 68526
ré@@ 68505
locales 68487
tribu@@ 68422
Mas@@ 68420
demostr@@ 68407
mm 68358
35 68354
organ@@ 68280
goles 68202
comi@@ 68187
500 68177
acceso 68111
pasado 68101
combate 68096
tesis 68095
aur@@ 68079
consegu@@ 68063
hici@@ 68059
tru@@ 68056
ech@@ 68049
bio 68029
land 68003
Bre@@ 67953
ibles 67924
ens 67914
did@@ 67881
anco 67825
estig@@ 67784
unidades 67727
Fil@@ 67700
hib@@ 67684
propu@@ 67672
gobern@@ 67640
Señ@@ 67638
parque 67599
lanzó 67568
Españ@@ 67566
amen@@ 67547
rock 67531
trabajar 67515
artista 67473
desempeñ@@ 67409
inmedi@@ 67402
eña 67384
productos 67352
marca 67344
todavía 67320
frag@@ 67293
up@@ 67282
semana 67262
Vill@@ 67198
vin@@ 67145
bes 67090
blo@@ 67087
seguridad 67021
convertir@@ 67015
Algunos 67010
ciona 66990
20@@ 66973
inal 66956
ciertos 66942
ah 66925
xima 66886
sentido 66857
ment@@ 66853
put@@ 66849
realidad 66848
A. 66836
apr@@ 66778
militares 66762
ates 66676
sup@@ 66675
aro 66665
consiguió 66662
otorg@@ 66591
municipal 66575
Australia 66566
cump@@ 66557
dedi@@ 66503
Vil@@ 66475
ístico 66447
nuevamente 66440
imo 66403
fines 66400
crear 66398
experi@@ 66380
tra@@ 66292
emper@@ 66281
quit@@ 66141
Mun@@ 66139
revol@@ 66137
200 66116
ile 66111
aud@@ 66100
descrita 66030
ocasi@@ 66012
clas@@ 65950
iliz@@ 65936
anta 65913
conv@@ 65908
feder@@ 65870
ultad 65865
ses@@ 65851
radio 65848
1988 65831
Ley 65812
Enrique 65796
Fund@@ 65787
enseñ@@ 65773
coordenadas 65757
ich@@ 65727
mana 65722
humanos 65713
taron 65713
Bas@@ 65704
tó 65657
civil 65645
Martín 65635
creó 65605
echo 65590
ciudad@@ 65558
ick 65539
Lat@@ 65536
inspir@@ 65492
voz 65467
ibilidad 65464
corri@@ 65451
India 65440
selec@@ 65407
iento 65383
líder 65366
esos 65359
refle@@ 65355
adapt@@ 65352
materi@@ 65340
cent@@ 65339
americano 65295
ore 65294
etes 65279
fá@@ 65270
eria 65255
ava 65247
itali@@ 65237
nam@@ 65234
Grupo 65211
impres@@ 65189
contrato 65176
uerto 65111
? 65100
eli@@ 65087
restos 65070
entales 65069
versiones 65049
lia 64973
Mont@@ 64972
lanzamiento 64958
regul@@ 64949
idamente 64928
produjo 64904
recib@@ 64894
coc@@ 64892
list@@ 64864
aw@@ 64832
iza 64821
empezó 64800
cambios 64732
ambas 64657
abra 64649
ism@@ 64622
ificación 64598
empresas 64528
cil 64508
arqu@@ 64496
Pablo 64461
leng@@ 64459
atori@@ 64439
vac@@ 64365
toral 64279
educ@@ 64274
fig@@ 64218
Jus@@ 64209
Ren@@ 64205
iro 64132
Kr@@ 64131
ax@@ 64124
Asociación 64116
realizado 64115
cantón 64111
escrito 64108
pueb@@ 64098
italiano 64096
Jesús 64080
Puerto 64074
programas 64005
teoría 63990
álisis 63987
traduc@@ 63980
jóvenes 63973
1985 63940
islas 63932
tex@@ 63911
sufici@@ 63898
Costa 63892
encontrar 63879
Sin@@ 63817
popul@@ 63811
IV 63805
debut@@ 63751
1987 63622
div@@ 63621
cuarto 63615
utiliza 63615
Hum@@ 63614
velocidad 63609
sufri@@ 63574
1986 63567
Az@@ 63553
mayores 63540
Mari@@ 63535
enem@@ 63523
Ministerio 63492
til 63492
guar@@ 63486
numerosos 63473
tec@@ 63453
gradu@@ 63398
Blan@@ 63396
modific@@ 63345
conf@@ 63243
cultural 63235
lider@@ 63221
reo 63214
edral 63197
dal@@ 63165
Ang@@ 63114
ass@@ 63078
ulares 63073
eco 63032
dad@@ 63020
roqu@@ 62952
Fi@@ 62951
lido 62906
áneo 62894
Mos@@ 62707
formado 62693
Pacífico 62683
Anti@@ 62611
ong@@ 62610
Os@@ 62574
ak 62550
sold@@ 62550
iso 62547
vención 62527
vas@@ 62484
ov 62334
dif@@ 62331
entreg@@ 62327
cán@@ 62314
abras 62303
by 62299
cero 62247
K 62237
dific@@ 62226
Castilla 62096
amor 62082
plata 62070
luch@@ 62010
evol@@ 61983
rac@@ 61908
solic@@ 61906
ide 61873
industr@@ 61852
favor 61806
uto 61799
existe 61782
crito 61760
edr@@ 61740
bul@@ 61734
crita 61698
Mir@@ 61687
itor 61569
particular 61522
onom@@ 61513
nov@@ 61509
Sen@@ 61494
bra 61492
perten@@ 61487
concentr@@ 61458
yes 61453
Parti@@ 61430
ion 61427
At@@ 61423
tron@@ 61354
viles 61343
ros@@ 61287
cola 61280
ps@@ 61260
W 61234
marc@@ 61182
Agu@@ 61181
anot@@ 61153
Presidente 61099
adém@@ 61061
via 61038
urb@@ 61021
bon@@ 60872
Fac@@ 60848
Jer@@ 60826
1984 60818
Teatro 60784
1982 60767
pis@@ 60730
perf@@ 60726
veh@@ 60702
pio 60672
íncipe 60672
elabor@@ 60562
ectu@@ 60560
ans@@ 60543
Dec@@ 60535
López 60473
premi@@ 60452
teriormente 60436
mina 60403
Av@@ 60380
1983 60362
americana 60344
Mel@@ 60283
Esc@@ 60271
Vol@@ 60253
rein@@ 60148
Elec@@ 60096
equ@@ 60076
mi 60048
deo 59982
ki 59947
audi@@ 59922
médi@@ 59899
ples 59890
ani 59833
hist@@ 59801
Hay 59777
posterior 59744
var 59708
mel@@ 59666
umin@@ 59666
evento 59633
ost@@ 59592
aver@@ 59583
eder@@ 59579
Fuer@@ 59528
4.@@ 59513
serv@@ 59512
tiz@@ 59464
és@@ 59447
ís 59438
animales 59425
probl@@ 59393
elos 59359
compet@@ 59339
Oc@@ 59321
har@@ 59310
motor 59282
ement@@ 59274
decor@@ 59273
bar 59229
situ@@ 59208
32 59184
dig@@ 59177
Le 59151
Tol@@ 59122
estu@@ 59061
berg 59053
enario 59046
retr@@ 59045
Ste@@ 59025
All@@ 59022
gas@@ 59011
3,@@ 58992
Gan@@ 58990
eas 58971
adamente 58957
Tem@@ 58926
eh@@ 58906
cerc@@ 58845
comb@@ 58835
Kar@@ 58804
ac 58760
Alej@@ 58729
mac@@ 58658
enca 58647
Sociedad 58638
ly 58622
oteca 58598
curs@@ 58595
ip@@ 58589
andro 58563
Ál@@ 58539
destin@@ 58512
Ali@@ 58508
rebel@@ 58507
dul@@ 58477
portu@@ 58452
dibu@@ 58430
ejempl@@ 58414
ros 58389
ic 58362
carri@@ 58324
Trans@@ 58312
aran 58302
oa 58261
j 58255
ebr@@ 58247
45 58147
arc@@ 58135
James 58126
plaz@@ 58118
cina 58076
Educ@@ 57987
exp@@ 57981
Cre@@ 57946
Revol@@ 57919
individu@@ 57910
age 57873
conform@@ 57805
orient@@ 57804
gol 57792
edia 57786
Men@@ 57642
ley@@ 57606
bom@@ 57586
circ@@ 57533
est 57529
fen@@ 57486
onto 57476
Valencia 57454
all 57424
tin@@ 57422
Prov@@ 57412
gesti@@ 57412
Depor@@ 57360
esqu@@ 57358
munici@@ 57330
Mol@@ 57319
Distr@@ 57291
ecia 57227
prueb@@ 57174
Ven@@ 57157
Soci@@ 57093
arro@@ 57029
ot 56993
ari 56947
independ@@ 56938
erc@@ 56910
cara 56890
sent@@ 56785
Sá@@ 56701
Fre@@ 56665
emas 56625
1979 56616
eral 56577
resol@@ 56555
occidental 56545
mal 56539
Mus@@ 56500
tran@@ 56497
cer 56462
condi@@ 56462
peti@@ 56412
Cur@@ 56398
compon@@ 56335
75 56307
pios 56298
terior 56270
escap@@ 56256
ann@@ 56254
González 56251
1976 56177
expan@@ 56117
provin@@ 56116
sula 56061
ital 56054
tima 56046
ong 55978
Felipe 55938
Sar@@ 55880
ensi@@ 55880
uma 55872
hall@@ 55799
resist@@ 55798
Santo 55792
sa@@ 55777
Córdoba 55734
colum@@ 55722
ty 55649
ade 55590
conse@@ 55552
Rel@@ 55549
music@@ 55505
dé@@ 55466
adr@@ 55448
afor@@ 55424
ant 55386
Im@@ 55375
mite 55368
Sant@@ 55247
redu@@ 55186
are 55156
1950 55127
his@@ 55082
pér@@ 55071
William 55014
deriv@@ 54996
adol@@ 54893
Super@@ 54841
explic@@ 54797
gió 54784
pant@@ 54773
1978 54708
ordin@@ 54707
alim@@ 54669
ex 54659
Aer@@ 54542
nati@@ 54541
definiti@@ 54530
lob@@ 54467
Str@@ 54461
1973 54457
tol@@ 54412
Paul 54364
ilo 54364
Ol@@ 54358
eva 54353
Departamento 54330
Robert 54330
1981 54314
Sa@@ 54311
tiem@@ 54289
ani@@ 54240
pap@@ 54208
allo 54066
dici@@ 54066
arch@@ 54064
ster 54059
captur@@ 54057
ible 53998
uvo 53882
embr@@ 53871
previ@@ 53871
incia 53866
And@@ 53865
austr@@ 53846
Don 53816
tis@@ 53754
amer@@ 53747
partic@@ 53701
fas@@ 53690
reser@@ 53665
oz 53657
ks 53633
emo 53627
iga 53590
argum@@ 53573
olog@@ 53556
1975 53525
aliment@@ 53519
onde 53497
Ra@@ 53458
clav@@ 53431
Hi@@ 53421
ped@@ 53391
program@@ 53386
alar@@ 53383
Ru@@ 53366
duc@@ 53302
altitu@@ 53300
pur@@ 53284
qué 53218
acter@@ 53203
web 53173
Rey 53124
nú@@ 53110
usi@@ 53065
Munici@@ 53052
introduc@@ 53049
quin@@ 53030
AR@@ 53013
Diego 52954
monum@@ 52945
ke 52885
nat@@ 52794
une 52794
sang@@ 52778
enf@@ 52766
33 52764
gran@@ 52761
imonio 52755
die 52675
títul@@ 52556
tante 52521
plan 52512
oh@@ 52506
alter@@ 52503
isl@@ 52481
confirm@@ 52467
ane 52459
Fernández 52449
uo 52419
Rodríguez 52410
isto 52395
produce 52353
mig@@ 52274
umen 52159
1977 52079
ville 52076
TV 52053
Tod@@ 52015
Orden 51982
ick@@ 51866
motiv@@ 51865
Secre@@ 51810
Luc@@ 51753
George 51678
Pin@@ 51678
dispar@@ 51554
interpre@@ 51554
reun@@ 51456
Ig@@ 51445
sovi@@ 51429
ond@@ 51423
comprom@@ 51369
aces 51336
exter@@ 51290
territori@@ 51266
may@@ 51241
anunci@@ 51237
ai@@ 51190
vil 51184
etr@@ 51181
Comp@@ 51177
dot@@ 51173
aí@@ 51170
1974 51143
absol@@ 51088
hab 51078
omo 51039
Do@@ 50984
cos@@ 50984
aster@@ 50976
frances@@ 50975
alb@@ 50953
astr@@ 50938
jard@@ 50920
crip@@ 50919
nch@@ 50811
cum@@ 50777
ino@@ 50734
arri@@ 50727
benef@@ 50724
prov@@ 50667
desp@@ 50654
onel 50648
Era 50595
Alfonso 50575
Sab@@ 50565
imb@@ 50532
36 50529
siguió 50522
Has@@ 50521
Ge@@ 50513
larg@@ 50457
Sem@@ 50407
cula 50404
podr@@ 50399
éc@@ 50392
lec@@ 50386
nomin@@ 50362
1972 50311
sola 50259
Villa 50253
ombi@@ 50222
ker 50113
pic@@ 50084
Neg@@ 49995
Alg@@ 49953
nombres 49900
Cant@@ 49883
ek@@ 49854
ff@@ 49853
escal@@ 49833
1968 49821
mascul@@ 49804
34 49791
Bl@@ 49789
erte 49779
Guar@@ 49747
Inv@@ 49727
interes@@ 49723
dea 49708
Jean 49707
ox@@ 49702
frac@@ 49677
merc@@ 49668
lama 49498
Ten@@ 49484
Direc@@ 49401
Portugal 49391
Alberto 49335
conclu@@ 49256
identi@@ 49222
ine@@ 49222
elle 49201
rot@@ 49186
orn@@ 49061
Pueb@@ 49015
vierte 49012
ases@@ 48986
ensis 48986
crisis 48966
renov@@ 48942
tis 48923
norm@@ 48922
XVIII 48915
integ@@ 48899
coloni@@ 48895
Lo 48882
ent 48882
lem@@ 48880
Sec@@ 48845
uela 48844
paci@@ 48841
Pérez 48827
Bern@@ 48781
CO@@ 48781
ts 48774
World 48712
Popular 48642
gun@@ 48616
ric@@ 48431
sigui@@ 48431
mod@@ 48402
Occ@@ 48361
circul@@ 48331
Salvador 48314
Lin@@ 48255
anj@@ 48239
Son 48236
rod@@ 48220
Ric@@ 48217
cus@@ 48200
confi@@ 48151
epis@@ 48147
ons 48142
No@@ 48138
parlam@@ 48121
hal@@ 48113
bibli@@ 48102
Uruguay 48101
alo 48099
iste 48095
vier@@ 48016
art 47986
firme 47948
Lima 47946
Valle 47930
plant@@ 47874
Isab@@ 47837
65 47825
38 47811
We@@ 47805
Radio 47740
azar 47705
sos@@ 47696
isp@@ 47675
Organ@@ 47634
1969 47627
Poc@@ 47575
0.000 47562
volun@@ 47492
1930 47481
invol@@ 47434
Serv@@ 47416
ten 47382
Sevilla 47324
atus 47295
5.@@ 47213
pera 47180
ford 47060
udi@@ 47037
rio 47035
Rafael 47010
hid@@ 46996
aper@@ 46995
dispon@@ 46923
arla 46904
yr@@ 46895
oti@@ 46885
hel@@ 46884
Civil 46826
uvent@@ 46822
oci@@ 46809
urban@@ 46806
flor@@ 46760
6.@@ 46756
Michael 46719
Din@@ 46699
Asia 46673
términ@@ 46642
empez@@ 46633
concre@@ 46552
ath@@ 46542
ger 46540
reno 46535
1940 46531
emat@@ 46512
IN@@ 46505
izo 46459
don 46433
alum@@ 46428
firma 46413
empres@@ 46371
ilidad 46361
lara 46357
plac@@ 46329
ches 46320
XVI 46307
olas 46230
37 46229
1971 46214
Nov@@ 46207
trop@@ 46128
em 46119
Ó@@ 46081
ui@@ 46069
confer@@ 46043
je 46024
villa 46022
Comité 46021
abil@@ 46016
rest@@ 46000
ige 45996
ime 45992
bal 45962
oj@@ 45962
Records 45947
Crist@@ 45946
rég@@ 45842
Tar@@ 45818
bras 45810
introdu@@ 45791
D. 45790
quez 45782
iba 45684
1945 45680
Plaza 45675
Federal 45661
Martínez 45657
Tel@@ 45654
Hom@@ 45647
mens@@ 45638
Sur@@ 45596
lag@@ 45585
alternati@@ 45562
1967 45438
ey@@ 45411
Loc@@ 45400
von 45371
Eduardo 45367
City 45343
Categ@@ 45326
li 45300
CA@@ 45292
men 45272
hier@@ 45268
bras@@ 45213
Sol 45113
incluy@@ 45111
cav@@ 45106
enos 45106
adul@@ 45087
coron@@ 45078
Arg@@ 45035
Nic@@ 45025
Washington 44936
1936 44915
condu@@ 44880
oz@@ 44847
Vel@@ 44826
universit@@ 44750
ferro@@ 44740
respons@@ 44720
Austria 44675
Tour 44610
League 44589
ono 44585
sti@@ 44535
Ministr@@ 44485
sala 44478
onen 44415
Mar 44369
bunal 44339
nia 44339
sexu@@ 44332
5,@@ 44321
bau@@ 44276
senti@@ 44214
capac@@ 44189
Castil@@ 44187
ner@@ 44179
dimen@@ 44152
Boliv@@ 44101
democ@@ 44097
rum@@ 44079
Ecuador 44078
Charles 44038
Zar@@ 44029
contempor@@ 44005
ace@@ 43998
fa@@ 43992
mont@@ 43984
veget@@ 43981
estadounid@@ 43980
osis 43945
regular 43942
sé@@ 43917
1964 43904
Administr@@ 43901
ail@@ 43827
lit@@ 43821
55 43803
gin@@ 43782
simil@@ 43674
4,@@ 43622
proced@@ 43587
elen 43586
rés 43554
Pen@@ 43438
gén@@ 43426
Bon@@ 43416
paral@@ 43394
mut@@ 43333
fich@@ 43319
im 43304
42 43288
Sierra 43287
emia 43270
1966 43226
orit@@ 43223
insec@@ 43204
radic@@ 43201
Ant@@ 43191
Bot@@ 43164
ation 43156
Sig@@ 43126
64 43119
hol@@ 43107
Ul@@ 43101
vo@@ 43077
mun@@ 43055
dev@@ 43019
Cro@@ 43018
rep@@ 42964
Guadal@@ 42951
erra 42919
Dem@@ 42904
Bibli@@ 42888
CD 42882
Mov@@ 42875
00 42872
Jug@@ 42798
och@@ 42797
Ja@@ 42757
Hel@@ 42711
ski 42701
quer@@ 42687
Produc@@ 42636
je@@ 42598
Daniel 42489
48 42487
Def@@ 42484
acial 42405
Cel@@ 42367
Media 42366
Ana 42356
Thomas 42342
Ph@@ 42337
agricul@@ 42333
narr@@ 42333
relev@@ 42308
entro 42288
Agr@@ 42229
Ke@@ 42187
6,@@ 42176
1965 42164
300 42145
chi@@ 42127
dram@@ 42097
multi@@ 42096
avier 42063
explor@@ 42011
om 41944
pron@@ 41939
1920 41888
7.@@ 41849
Democ@@ 41823
sen 41815
refu@@ 41811
ula 41797
39 41790
iden 41787
85 41746
fo@@ 41719
Sebasti@@ 41670
egas 41670
Ej@@ 41642
fe 41612
diente 41610
Rein@@ 41601
undo 41586
F. 41583
uf@@ 41532
barr@@ 41507
Dor@@ 41498
Gó@@ 41498
Israel 41486
yen 41478
Mayor 41468
ash@@ 41466
Prot@@ 41440
resul@@ 41405
éro@@ 41388
cé@@ 41372
Cuba 41349
ow@@ 41337
diplom@@ 41322
sexual 41319
metal 41298
yl@@ 41271
bic@@ 41261
Wil@@ 41248
Pon@@ 41178
duras 41129
cir@@ 41110
umb@@ 41099
1962 41090
avent@@ 41079
deleg@@ 41060
far@@ 41036
disco@@ 41028
uli@@ 41018
ain 41015
ster@@ 40904
52 40896
ata@@ 40866
document@@ 40833
uk@@ 40832
25@@ 40829
Peter 40784
simpl@@ 40700
mula 40697
amor@@ 40692
tural 40664
Estr@@ 40657
Sist@@ 40625
1963 40614
cél@@ 40609
Nicol@@ 40606
Guatemala 40593
Flor@@ 40591
erg@@ 40578
Pad@@ 40573
cerem@@ 40548
legisl@@ 40547
inn@@ 40517
virtu@@ 40517
ament@@ 40508
1939 40505
pod@@ 40484
fa 40455
ou 40452
44 40448
iy@@ 40446
ideas 40396
ence 40361
ie@@ 40335
ográfica 40314
q@@ 40255
Premi@@ 40212
Sovi@@ 40200
Econom@@ 40194
cla@@ 40184
fan@@ 40166
culas 40158
8.@@ 40135
ko 40098
Vall@@ 40066
Hern@@ 40059
ess@@ 40031
tari@@ 39994
enzo 39988
ener@@ 39970
00@@ 39964
sten@@ 39962
Roc@@ 39943
ste 39940
7,@@ 39906
AD@@ 39888
# 39866
fera 39832
Lag@@ 39831
Leon@@ 39816
Bos@@ 39815
¿ 39814
th 39805
Tro@@ 39771
ég@@ 39769
Music 39764
ake 39761
On@@ 39740
Wal@@ 39739
osaur@@ 39737
Pat@@ 39621
ulo 39614
vie@@ 39550
elem@@ 39549
Eu@@ 39531
corresp@@ 39485
Sam@@ 39429
Gl@@ 39426
can 39381
53 39376
zas 39363
enor@@ 39336
ple 39331
ire 39315
poli@@ 39232
Dar@@ 39221
abl@@ 39194
rol@@ 39180
senc@@ 39170
ago@@ 39134
alia 39133
pros@@ 39109
Grec@@ 39102
Gre@@ 39038
unda 39032
Cir@@ 39021
ater@@ 39006
mez 38964
Form@@ 38955
1958 38936
ok 38934
41 38839
ras 38831
extra@@ 38826
Profes@@ 38817
perial 38775
ple@@ 38762
Met@@ 38726
formes 38712
ain@@ 38674
ney 38674
47 38664
Sir@@ 38662
J. 38642
fach@@ 38642
Far@@ 38624
riv@@ 38607
oni 38587
Son@@ 38583
Grande 38570
Sub@@ 38528
Gener@@ 38507
Mes@@ 38503
pop 38470
nez 38469
cil@@ 38454
oides 38444
Hun@@ 38405
canc@@ 38399
Ya 38383
Brit@@ 38377
vor@@ 38376
amin@@ 38375
od 38370
ieren 38351
1944 38314
field 38260
Ca@@ 38245
musul@@ 38242
Catal@@ 38239
manifest@@ 38233
30@@ 38210
fis@@ 38205
ette 38160
lov@@ 38089
micro@@ 38083
Monte@@ 38068
Bro@@ 38029
umo 37982
ber 37954
43 37953
hon@@ 37923
Martin 37899
transform@@ 37893
ry 37854
1941 37849
responsable 37844
Tax@@ 37825
series 37808
ilia 37804
ical 37763
XVII 37761
elli 37760
ison 37730
51 37710
Vas@@ 37690
1956 37686
vil@@ 37676
categ@@ 37631
aceae 37627
númer@@ 37609
milit@@ 37595
Pel@@ 37587
Richard 37579
struc@@ 37539
1948 37515
1961 37491
libr@@ 37459
decre@@ 37446
cot@@ 37385
Pun@@ 37367
bern@@ 37360
consist@@ 37357
recep@@ 37351
avo 37341
cau@@ 37323
stein 37308
hem@@ 37280
telev@@ 37269
8,@@ 37251
enn@@ 37243
Ast@@ 37222
dez 37209
Alb@@ 37178
Mis@@ 37128
bit@@ 37098
cep@@ 37081
m. 37062
landa 37042
br 37022
ferrovi@@ 37005
ativ@@ 36994
Char@@ 36985
S.@@ 36983
orado 36974
ure 36959
opin@@ 36931
56 36907
ille 36897
estre 36896
nd@@ 36892
progres@@ 36867
record@@ 36836
ings 36831
idental 36820
Maria 36799
suj@@ 36791
cord 36768
Gol@@ 36763
Barr@@ 36733
ional 36731
Oli@@ 36716
tropical 36699
pier@@ 36668
umes 36628
consol@@ 36626
ograf@@ 36621
mach@@ 36579
for 36572
Uni@@ 36562
tes@@ 36562
vive 36531
comport@@ 36480
Victoria 36473
ō@@ 36468
fron@@ 36462
gel@@ 36462
54 36440
46 36430
SS 36419
400 36396
consiste 36394
95 36386
transfer@@ 36369
étr@@ 36356
tiles 36342
discipl@@ 36321
migr@@ 36312
Red 36298
últim@@ 36294
Rica 36278
icul@@ 36256
Me 36232
Laur@@ 36209
72 36203
agon@@ 36199
28@@ 36184
Dur@@ 36169
alc@@ 36156
eur@@ 36145
human@@ 36117
manif@@ 36105
pir@@ 36104
Atlé@@ 36100
industri@@ 36089
sat@@ 36076
78 36071
mos@@ 36071
nucle@@ 36011
68 36003
ets 36003
industrial 35979
yn@@ 35968
herr@@ 35961
cens@@ 35955
altar 35945
ali 35905
1959 35895
mann 35883
distr@@ 35869
nit@@ 35837
colon@@ 35829
Tan@@ 35822
You 35799
destruc@@ 35791
novel@@ 35790
Dr. 35776
ben@@ 35752
bus 35745
1957 35736
enden 35736
Mich@@ 35685
ét@@ 35650
58 35621
Aqu@@ 35608
arti@@ 35604
ish@@ 35603
1955 35600
Hist@@ 35595
lav@@ 35595
88 35554
49 35521
rus@@ 35499
Lim@@ 35484
ular@@ 35450
Park 35439
1943 35433
obje@@ 35406
íses 35381
construc@@ 35367
Milit@@ 35364
57 35283
Municipal 35277
Pir@@ 35270
‘ 35266
Capit@@ 35244
Fili@@ 35222
ices 35188
ides 35188
mam@@ 35178
hidro@@ 35160
76 35156
62 35151
66 35133
1942 35120
atri@@ 35097
86 35091
Plan@@ 35090
Hal@@ 35087
reco@@ 35085
ins 35030
tín 35014
encu@@ 35012
Mot@@ 35011
Telev@@ 34997
ican 34971
proven@@ 34942
Bog@@ 34935
J 34927
Jac@@ 34911
erras 34901
prof@@ 34901
obr@@ 34887
VI 34859
enfer@@ 34847
regional 34809
relativ@@ 34716
Fon@@ 34701
Ban@@ 34625
Oper@@ 34617
Supre@@ 34595
bert 34587
sk@@ 34583
Man 34512
Natur@@ 34496
ki@@ 34433
67 34413
Rev@@ 34386
Parlam@@ 34382
63 34350
onda 34317
ender@@ 34312
Mario 34302
Au@@ 34282
fili@@ 34277
bir@@ 34272
Mah@@ 34259
Texas 34254
Lar@@ 34234
otom@@ 34234
char@@ 34222
Var@@ 34215
Canal 34195
ack@@ 34175
mom@@ 34175
1946 34170
hospital 34157
siti@@ 34146
UN@@ 34144
Tal@@ 34089
egos 34081
Social 34056
du 34056
fér@@ 34031
kh@@ 34017
respon@@ 34007
ō 33987
74 33969
enl@@ 33959
gus@@ 33958
1952 33941
ill 33934
mix@@ 33933
1949 33922
Vie@@ 33922
Hospital 33904
relig@@ 33888
ung 33880
9,@@ 33815
aman@@ 33806
sch@@ 33785
só@@ 33771
AC@@ 33754
ys 33754
acion@@ 33740
Lib@@ 33707
AS@@ 33690
Fall@@ 33670
83 33589
vul@@ 33580
01 33542
77 33528
tia 33472
1954 33442
Ari@@ 33380
Bau@@ 33380
EE 33354
Gen@@ 33336
org@@ 33330
tav@@ 33307
ges@@ 33285
59 33272
1938 33270
Ing@@ 33260
82 33253
84 33222
Cop@@ 33219
Domin@@ 33210
perior 33205
Af@@ 33202
87 33138
1937 33135
1947 33114
1953 33100
Zel@@ 33080
equip@@ 33069
echos 33047
Atl@@ 33046
mani@@ 33043
Tre@@ 33042
grav@@ 33035
dedor 33032
Cast@@ 33027
hot@@ 32984
ES@@ 32976
udo 32973
Il@@ 32953
afric@@ 32923
9.@@ 32893
Je@@ 32863
Serie 32858
ts@@ 32847
march@@ 32833
Nar@@ 32792
álb@@ 32764
Love 32761
Tam@@ 32751
29@@ 32739
Roberto 32716
RA@@ 32683
Rock 32683
B. 32679
Chicago 32669
ith 32662
terr@@ 32643
bin@@ 32562
24@@ 32554
American 32552
Florida 32488
nas@@ 32452
partam@@ 32442
und 32425
Paraguay 32420
18@@ 32385
distingu@@ 32376
ung@@ 32371
aven@@ 32370
61 32363
May@@ 32362
correc@@ 32318
ha@@ 32305
over 32300
empl@@ 32280
versi@@ 32280
Lee 32274
ington 32262
Concep@@ 32236
ā@@ 32236
simple 32226
nes 32201
Henry 32195
igi@@ 32190
92 32171
Indi@@ 32168
Bir@@ 32154
71 32153
xim@@ 32151
Augus@@ 32133
écn@@ 32133
ors 32122
Lic@@ 32103
cera 32098
81 32059
coordin@@ 32051
99 32016
Hid@@ 32013
sal 32004
patri@@ 31979
verse 31977
polis 31950
.C. 31936
IS@@ 31934
oth@@ 31915
2022 31907
ek 31898
ablo 31891
ial 31884
fru@@ 31771
ight 31717
liz@@ 31710
Mé@@ 31694
tin 31692
eon@@ 31681
69 31680
Frances@@ 31680
1931 31670
disponible 31652
Joseph 31645
Santos 31629
monaster@@ 31622
Smith 31614
Eur@@ 31607
cú 31564
College 31528
Ferr@@ 31525
itud 31515
éx@@ 31507
M. 31491
cel 31466
Bil@@ 31435
Dol@@ 31403
igen 31401
1933 31370
05 31358
consum@@ 31358
Nat@@ 31327
Ap@@ 31320
requi@@ 31302
nm 31298
ais 31284
Fe 31207
uj@@ 31197
73 31170
federal 31158
tric@@ 31153
sub 31145
pa@@ 31120
corpor@@ 31109
Tab@@ 31104
ise 31103
Sand@@ 31092
Escu@@ 31056
piano 31056
omb@@ 31026
agin@@ 30990
ump@@ 30982
XIII 30981
ling@@ 30974
79 30944
S. 30939
Pot@@ 30935
Provin@@ 30923
98 30916
its 30915
09 30914
Bah@@ 30890
yen@@ 30887
Bul@@ 30867
exclusiv@@ 30865
ms@@ 30847
ps 30829
haya 30792
cultiv@@ 30782
ji 30776
ky 30764
ien 30735
n.@@ 30700
Rosa 30654
circu@@ 30641
Hy@@ 30635
ame 30625
lus@@ 30612
pion@@ 30594
Ha@@ 30590
Don@@ 30584
ini@@ 30574
oll@@ 30571
Inf@@ 30538
ífico 30518
presti@@ 30501
Maur@@ 30478
02 30464
ash 30436
Universit@@ 30410
Independ@@ 30377
1934 30366
1951 30350
Castro 30293
ão 30287
Ah@@ 30279
practic@@ 30267
equival@@ 30260
popular@@ 30247
Monte 30243
Arch@@ 30228
¡ 30218
ume 30217
festival 30216
26@@ 30193
na@@ 30191
servat@@ 30182
st 30143
sol 30121
Cari@@ 30112
04 30111
Fran@@ 30031
alog@@ 30023
Mex@@ 30010
rut@@ 29995
terres@@ 29995
einte 29982
ova 29969
alfab@@ 29940
rol 29929
Ba@@ 29878
Gir@@ 29872
provincial 29869
sul@@ 29857
impl@@ 29856
encer 29847
lir 29841
aber 29837
96 29836
trac@@ 29814
endr@@ 29809
Gor@@ 29807
08 29791
Herr@@ 29781
ary 29774
dil@@ 29772
Chil@@ 29763
uri 29727
aproxim@@ 29707
1935 29696
film@@ 29695
Ú@@ 29683
air@@ 29677
St 29645
oza 29597
Pil@@ 29592
espos@@ 29575
depend@@ 29562
Ev@@ 29557
Rol@@ 29554
pati@@ 29550
School 29508
Ingen@@ 29494
EP 29462
uv@@ 29453
1929 29449
All 29443
implement@@ 29411
Bus@@ 29382
ach 29363
1932 29360
vera 29347
Centr@@ 29336
ri 29321
kl@@ 29302
Som@@ 29276
06 29270
XX@@ 29249
dro@@ 29211
Greg@@ 29205
Fem@@ 29196
zar@@ 29192
Pap@@ 29168
Pau@@ 29158
Libr@@ 29152
1918 29148
03 29127
dola 29111
à 29098
tag@@ 29089
VII 29082
bases 29054
pri@@ 29005
ff 28998
fle@@ 28957
Billboard 28931
naval 28926
Argent@@ 28919
Rus@@ 28917
notable 28915
digital 28907
07 28856
ame@@ 28841
opsis 28841
fusi@@ 28830
ometr@@ 28825
93 28818
fres@@ 28786
Wor@@ 28730
.. 28700
los@@ 28655
mita 28651
Clar@@ 28649
š@@ 28603
asim@@ 28596
Rob@@ 28582
chó 28566
oral 28557
fes@@ 28553
ack 28538
lis 28497
atu@@ 28491
lut@@ 28484
hip@@ 28461
ái 28429
1928 28424
neur@@ 28408
ars 28376
explo@@ 28341
Sac@@ 28323
Royal 28304
Rum@@ 28302
Louis 28296
chi 28294
dan@@ 28267
gres@@ 28252
tel 28250
uda 28250
Tu@@ 28238
Lam@@ 28219
UC@@ 28201
bah@@ 28188
extrem@@ 28179
Cy@@ 28150
alles 28150
uridad 28138
Apo@@ 28128
fre@@ 28090
onn@@ 28086
erry 28064
tasa 28061
Franco 28053
Lug@@ 28053
Gabriel 28049
National 28048
bes@@ 28020
ess 27984
dy 27952
igr@@ 27907
hi 27902
mill@@ 27894
19@@ 27874
Cru@@ 27870
aki 27850
dat@@ 27847
Not@@ 27826
Fo@@ 27815
Ham@@ 27815
monte 27814
instruc@@ 27809
97 27799
doctor@@ 27795
ded@@ 27784
bac@@ 27772
bas 27770
lor@@ 27742
Internet 27711
94 27701
tic 27670
1000 27661
91 27637
matr@@ 27628
* 27626
Ale@@ 27606
Rod@@ 27605
invent@@ 27585
well 27584
Blo@@ 27534
Sel@@ 27515
ati 27507
software 27500
Jose@@ 27485
esia 27481
plas@@ 27479
XV 27458
King 27442
legal 27441
Carolina 27439
visi@@ 27427
Sc@@ 27420
miles 27412
.000 27410
Gil@@ 27399
New@@ 27397
awa 27380
Doctor 27374
océ@@ 27359
1914 27356
Pic@@ 27351
acces@@ 27347
Lev@@ 27296
teor@@ 27282
front@@ 27281
afé 27276
enen 27264
emer@@ 27259
Black 27240
Sus@@ 27237
een 27230
vide 27221
89 27218
West 27214
municip@@ 27212
festiv@@ 27210
Vo@@ 27204
eler@@ 27203
sens@@ 27180
impos@@ 27164
erre 27141
NBA 27132
marqu@@ 27109
inclin@@ 27099
XII 27053
1919 27049
ics 27043
Adri@@ 27004
Dest@@ 26997
global 26989
canadi@@ 26944
fel@@ 26909
ć 26891
aun 26884
Street 26883
ambigu@@ 26828
exper@@ 26826
desempe@@ 26824
q 26824
apos@@ 26812
1910 26811
Publ@@ 26810
CI@@ 26799
onte 26796
eri 26780
tax@@ 26768
asia 26765
olar 26731
sc@@ 26730
Dan@@ 26725
sion@@ 26687
king 26674
existi@@ 26661
1924 26648
E. 26635
1917 26604
Haw@@ 26559
iller 26555
modern@@ 26541
ester@@ 26528
Cos@@ 26462
La@@ 26431
win 26366
otr@@ 26326
Fal@@ 26309
Rico 26304
Buc@@ 26285
Rem@@ 26282
acias 26272
igh@@ 26272
Lis@@ 26260
ON@@ 26240
tu 26231
International 26209
médic@@ 26203
ke@@ 26199
iss@@ 26171
lan 26147
E.@@ 26116
Pri@@ 26110
ix 26062
Jack 26055
OS 25988
Gro@@ 25973
R. 25953
lun@@ 25932
150 25915
Company 25896
satis@@ 25896
our 25881
individual 25870
1925 25860
absor@@ 25848
Mit@@ 25844
CE@@ 25837
off 25820
mic@@ 25818
vit@@ 25785
cog@@ 25780
ear@@ 25776
600 25738
War@@ 25735
1927 25690
Ko@@ 25607
terror@@ 25592
ih@@ 25581
alianza 25575
eval 25554
AN@@ 25548
Ern@@ 25539
Lit@@ 25537
ory 25536
DVD 25529
umba 25522
normal 25508
rig@@ 25497
ép@@ 25489
campe@@ 25478
crimin@@ 25439
Plat@@ 25433
Contin@@ 25417
Metropolit@@ 25404
ab 25387
AC 25371
suspen@@ 25370
1912 25359
Super 25355
Hen@@ 25340
My@@ 25333
roc@@ 25331
ys@@ 25319
1922 25301
rural 25281
quel@@ 25258
abol@@ 25257
import@@ 25250
cré@@ 25244
Gonz@@ 25241
tion 25223
san 25198
Kir@@ 25185
disc@@ 25144
ut 25134
berto 25129
Clau@@ 25110
aller 25100
Cin@@ 25099
cual@@ 25084
P. 25077
Mul@@ 25056
itu@@ 25040
incre@@ 25037
ogr@@ 25014
Ind@@ 25011
editor 25009
dep@@ 24986
efe 24964
els 24953
27@@ 24949
ope 24944
eder 24941
1926 24939
artiller@@ 24933
ity 24931
IC@@ 24918
Mary 24901
alar 24896
Rich@@ 24864
ons@@ 24860
critic@@ 24841
Star 24836
ett 24816
isra@@ 24808
Rub@@ 24778
vern@@ 24777
1923 24771
innov@@ 24761
SO@@ 24756
ui 24737
bet@@ 24710
Han@@ 24661
zant@@ 24648
atro 24643
Z 24642
eger 24639
Director 24632
Rodr@@ 24605
Vit@@ 24571
tap@@ 24552
ince 24543
ally 24536
800 24535
Doc@@ 24498
lim@@ 24491
Brown 24489
Fun@@ 24476
show 24439
Constant@@ 24433
aka 24408
va@@ 24403
ambia 24378
Ta@@ 24375
TA 24371
Van 24361
grave 24357
Ib@@ 24308
• 24298
Jur@@ 24295
animal 24289
venir 24282
ites 24280
Í@@ 24256
foc@@ 24251
mer 24237
sar@@ 24235
old 24233
1900 24232
ester 24207
als 24193
Wat@@ 24189
FI@@ 24164
ko@@ 24162
Regional 24153
pez 24141
Fe@@ 24125
spir@@ 24121
ús 24114
Miss 24081
úbl@@ 24063
Pierre 24055
itz 24048
ble@@ 24043
oph@@ 24043
ander@@ 24037
Fab@@ 24032
rap@@ 24013
culp@@ 23995
rar 23984
deu@@ 23974
otes 23973
Monum@@ 23963
Hugo 23954
ider 23951
ander 23933
ori 23920
Den@@ 23912
ampa 23904
cen@@ 23883
trav@@ 23882
pers@@ 23862
éli@@ 23827
Radi@@ 23811
1921 23800
Vis@@ 23792
yn 23790
bado 23777
onio 23772
My 23764
aband@@ 23756
renom@@ 23756
acha 23744
pp@@ 23709
XIV 23683
Red@@ 23637
top@@ 23633
bec@@ 23626
DC 23603
ei 23597
SE@@ 23540
Sw@@ 23527
lin 23515
Riv@@ 23479
agn@@ 23477
Trin@@ 23421
perteneci@@ 23418
territ@@ 23387
ray@@ 23379
United 23367
perio 23366
Hur@@ 23354
ters 23327
aft 23315
tuy@@ 23310
Aur@@ 23305
aux@@ 23301
fur@@ 23280
oga 23277
map@@ 23274
Frank 23273
AM 23259
gó@@ 23251
icha 23237
gia 23220
Zam@@ 23218
alco@@ 23202
Mark 23194
Tom 23189
Jones 23184
São 23184
islat@@ 23167
data 23161
intern@@ 23128
Christ@@ 23117
tropolit@@ 23109
nó 23105
bu 23102
way 23079
Pom@@ 23078
eira 23063
Sor@@ 23024
Iz@@ 22999
a.@@ 22999
princ@@ 22963
gru@@ 22962
long@@ 22961
consci@@ 22942
Marco 22936
ho 22919
ández 22910
publ@@ 22889
ats 22887
One 22885
propag@@ 22866
AM@@ 22824
Jam@@ 22823
alis@@ 22820
SA 22807
wood 22802
uca 22764
kio 22762
US@@ 22711
vania 22707
ami 22705
Sk@@ 22700
Tim@@ 22693
pas 22691
RE@@ 22682
AP@@ 22657
spec@@ 22655
Sau@@ 22647
hin@@ 22640
destr@@ 22638
Georgia 22633
Bri@@ 22617
Wo@@ 22600
Americ@@ 22595
Jim@@ 22590
1913 22574
etti 22573
rati@@ 22552
Grand 22510
ä@@ 22502
burg 22495
Astr@@ 22485
exclus@@ 22484
ock 22481
Cent@@ 22476
US 22470
ass 22454
line@@ 22445
A.@@ 22435
mati@@ 22432
ku@@ 22431
Scott 22425
trol@@ 22424
pré@@ 22422
Jackson 22417
zi 22362
Avi@@ 22357
play@@ 22347
jam@@ 22336
Paulo 22322
Princip@@ 22322
ública 22319
č@@ 22313
Tak@@ 22312
L. 22293
laborat@@ 22290
Hil@@ 22289
anch@@ 22287
tang@@ 22269
ante@@ 22268
expos@@ 22267
prolong@@ 22242
Brig@@ 22232
Rot@@ 22213
ider@@ 22209
Disney 22207
ast 22207
ondo 22207
ze@@ 22193
ister@@ 22189
diagn@@ 22187
Virginia 22163
xi@@ 22162
Williams 22123
fantas@@ 22117
elt@@ 22112
ité 22094
odo 22084
rif@@ 22061
Franc@@ 22051
Liter@@ 22038
post@@ 22023
XI 22020
IX 22001
Ty@@ 21998
kar@@ 21998
Big 21997
anal@@ 21978
ves 21973
Times 21966
bis@@ 21948
inco 21931
bil 21924
irat@@ 21924
Sum@@ 21920
sky 21900
Entertainment 21891
Op@@ 21844
gan 21829
Plan 21806
adap@@ 21795
Mach@@ 21763
diver@@ 21740
bia 21738
egu@@ 21716
tion@@ 21669
1911 21659
reas 21659
Bet@@ 21645
pre 21643
onóm@@ 21637
ER@@ 21617
Pach@@ 21610
low 21584
horiz@@ 21575
Bay@@ 21572
ij@@ 21571
1916 21559
bro@@ 21533
relati@@ 21523
Lan@@ 21520
Actu@@ 21501
esis 21500
preser@@ 21492
Refer@@ 21486
rar@@ 21486
Tran@@ 21481
hur@@ 21476
ector 21468
Spr@@ 21452
zo@@ 21447
ques@@ 21440
250 21422
oya 21393
Final 21392
Amaz@@ 21372
Bru@@ 21372
VIII 21371
femin@@ 21363
1915 21359
alis 21352
manus@@ 21339
anga 21308
ling 21284
Sof@@ 21269
protest@@ 21259
intr@@ 21256
he 21245
Mill@@ 21241
Star@@ 21241
quier@@ 21240
nom@@ 21212
ort@@ 21206
CA 21172
I. 21153
greg@@ 21153
Hall 21149
Mod@@ 21138
Bad@@ 21137
House 21101
legi@@ 21073
sk 21073
Iv@@ 21058
see 21057
avia 21052
Bab@@ 21049
Max 21037
Progr@@ 21010
enter@@ 20982
Eli@@ 20980
AN 20979
etta 20935
jar@@ 20930
him@@ 20912
cus 20900
ck 20897
bili@@ 20893
ous 20878
Gas@@ 20875
Pos@@ 20867
s. 20863
Mem@@ 20849
out 20848
asi 20845
Hollywood 20838
Reb@@ 20827
But@@ 20800
Int@@ 20800
proxim@@ 20798
ham 20791
sist@@ 20779
Alem@@ 20774
AT@@ 20766
portun@@ 20763
ist 20759
sing@@ 20758
pand@@ 20746
privil@@ 20746
Young 20739
Et@@ 20736
compens@@ 20732
BA 20729
Center 20685
kin 20684
dial@@ 20682
cular 20658
Sing@@ 20640
adu@@ 20635
prol@@ 20615
ball@@ 20608
Sav@@ 20588
azar@@ 20547
Alexander 20478
autonom@@ 20455
ish 20454
yp@@ 20452
Sm@@ 20444
rat@@ 20418
recog@@ 20417
ap 20414
Dic@@ 20408
1908 20399
Ly@@ 20382
Joe 20375
AS 20373
fos@@ 20368
SA@@ 20366
Wi@@ 20363
virus 20350
ym@@ 20337
In 20319
mari@@ 20306
archi@@ 20299
Suc@@ 20280
ji@@ 20279
Ran@@ 20257
Na@@ 20241
1905 20234
West@@ 20233
ly@@ 20233
nar@@ 20228
espe@@ 20220
artic@@ 20217
N.@@ 20216
grad@@ 20208
Chris 20199
Palm@@ 20197
ieve 20194
Guinea 20186
Live 20186
Carr@@ 20165
astronom@@ 20165
Walter 20163
It 20162
pes 20148
Alfre@@ 20147
Audi@@ 20146
H. 20109
White 20101
Ford 20089
neutr@@ 20083
Arn@@ 20081
Boston 20065
ax 20060
eth 20059
inger 20042
elia 20028
triz 20013
Top 20008
osp@@ 20007
usal@@ 19995
curr@@ 19989
huy@@ 19973
rad@@ 19944
ogen@@ 19915
ł@@ 19904
yar 19880
Hot 19879
Kn@@ 19866
sever@@ 19829
ze 19829
gn@@ 19825
iner@@ 19825
lati@@ 19823
ances 19812
scar 19811
Maz@@ 19796
bao 19784
Cad@@ 19770
ci 19769
ø@@ 19763
occident@@ 19756
Ku@@ 19754
Johnson 19735
Tes@@ 19718
ika 19683
Abr@@ 19674
Chap@@ 19671
Jar@@ 19666
ush@@ 19631
occ@@ 19626
Football 19619
Fig@@ 19618
yan 19596
opa 19594
Hay@@ 19590
canti@@ 19589
jazz 19575
Extr@@ 19566
perí@@ 19564
Famil@@ 19563
She@@ 19561
Tit@@ 19561
Edward 19548
Team 19527
alre@@ 19522
Win@@ 19521
Clu@@ 19506
Cle@@ 19505
Div@@ 19488
xa 19466
Ball@@ 19454
Card@@ 19443
r. 19433
Lucas 19423
we@@ 19422
C.@@ 19412
Ep@@ 19412
eces 19401
Vietnam 19394
ald 19394
TV@@ 19365
Lig@@ 19329
urg@@ 19327
amba 19314
PC 19309
calcul@@ 19308
ier 19301
eter 19295
Dev@@ 19290
Les 19289
manga 19281
Show 19269
Pod@@ 19264
Gab@@ 19257
.com 19256
Marie 19245
ean 19243
arist@@ 19226
NA 19212
Fox 19211
berg@@ 19201
tori@@ 19183
Kat@@ 19164
Que@@ 19154
cho@@ 19154
1906 19141
Columbia 19140
oy 19133
1909 19131
lio 19123
azi 19119
… 19108
drama 19098
alle 19086
Kal@@ 19077
minister@@ 19074
Industri@@ 19046
acuer@@ 19032
ath 19030
ö@@ 19028
Pep@@ 18992
hun@@ 18991
Universal 18979
Dre@@ 18978
ian 18971
Hill 18970
inclus@@ 18970
Fron@@ 18947
ident@@ 18947
Kh@@ 18946
UR@@ 18941
1907 18940
ev 18926
set@@ 18909
DE@@ 18898
Lav@@ 18898
zu@@ 18896
Prom@@ 18870
honor@@ 18868
eren 18843
né@@ 18838
Sho@@ 18821
ange 18821
Nom@@ 18818
ste@@ 18806
fer 18795
ault 18786
alp@@ 18781
Kor@@ 18770
º@@ 18766
ds 18758
Pro 18747
Ciud@@ 18719
clus@@ 18714
Ben 18709
limpi@@ 18704
pet@@ 18693
Kur@@ 18681
cro@@ 18666
gem@@ 18658
Windows 18643
ston 18638
ome 18625
lie 18616
tif@@ 18616
zi@@ 18610
Metro 18588
Anna 18585
Pur@@ 18583
Fut@@ 18577
Moh@@ 18573
hospit@@ 18563
Mic@@ 18561
Township 18561
jo@@ 18558
my 18548
Air@@ 18535
Emp@@ 18522
kins 18522
Pit@@ 18512
Kon@@ 18511
mont 18498
wa 18491
1904 18485
Illinois 18432
Mid@@ 18412
intér@@ 18395
University 18392
aux 18390
Mike 18352
polog@@ 18334
Bob 18320
Albert 18318
1890 18308
River 18301
esen 18300
inda 18298
Janeiro 18294
rab@@ 18275
set 18268
umbo 18257
Wilson 18249
compil@@ 18248
Log@@ 18244
rog@@ 18244
infan@@ 18241
Band@@ 18220
Tai@@ 18215
Pam@@ 18199
ministr@@ 18181
cher 18177
Boh@@ 18176
Time 18157
ik 18155
tical 18151
las@@ 18149
Nev@@ 18137
Whit@@ 18134
Lab@@ 18124
rur@@ 18124
Margar@@ 18114
Ash@@ 18106
arina 18099
tern@@ 18093
anti 18073
Peter@@ 18062
Origin@@ 18056
demand@@ 18056
Represent@@ 18032
aham 18024
700 18018
Oscar 18010
imi@@ 18008
DA 18004
120 17979
ado@@ 17971
uga 17963
Christian 17962
contro@@ 17961
aum@@ 17946
Sic@@ 17944
igan 17940
yc@@ 17939
tribut@@ 17938
Miami 17931
event@@ 17920
brig@@ 17917
ning 17916
RO@@ 17913
Bow@@ 17890
Ak@@ 17887
Wrestling 17887
Kim 17883
1903 17872
G. 17853
atar 17853
Art 17845
PS@@ 17838
dens@@ 17824
Tony 17814
alan@@ 17770
seud@@ 17758
gul@@ 17757
Arthur 17756
ies 17742
Jos@@ 17734
Dam@@ 17732
ator 17732
FA 17722
Termin@@ 17721
ding 17715
Conserv@@ 17701
Life 17701
itz@@ 17691
Hir@@ 17684
Tig@@ 17683
tradu@@ 17683
BBC 17651
ae@@ 17643
ye@@ 17629
Corn@@ 17628
PC@@ 17622
Fri@@ 17603
franc@@ 17602
Person@@ 17599
box@@ 17582
nde 17579
individ@@ 17572
Brian 17569
UEFA 17567
Quer@@ 17541
Tir@@ 17533
sia 17530
Ken@@ 17508
orb@@ 17491
Hitler 17489
Steve 17486
Ot@@ 17484
Jan@@ 17483
Territ@@ 17479
Q 17477
cle@@ 17468
descend@@ 17465
CN@@ 17449
tidae 17440
egal 17428
van@@ 17418
Eng@@ 17416
ife 17383
è@@ 17375
kr@@ 17362
Meg@@ 17361
1902 17356
Bill 17331
trib@@ 17331
Jor@@ 17329
ond 17321
jeres 17315
IM@@ 17309
Fel@@ 17299
Harry 17298
restric@@ 17293
Ohio 17249
top 17247
Mak@@ 17245
bury 17236
correspond@@ 17232
1880 17231
polici@@ 17228
Dich@@ 17216
Kaz@@ 17213
Us@@ 17167
Kong 17145
iz 17137
tus 17127
oja 17111
tre@@ 17099
Sul@@ 17083
Carl 17081
Jud@@ 17080
Ga@@ 17065
Cum@@ 17063
High 17062
ns 17049
ig 17037
â@@ 17018
Dir@@ 16994
laz@@ 16988
Vid@@ 16987
gor@@ 16984
ules 16982
Mercedes 16979
ural 16975
Sha@@ 16958
tas@@ 16952
flora 16936
bun@@ 16912
asis 16885
sson 16858
Top@@ 16842
ost 16836
shire 16808
lis@@ 16802
― 16798
lez 16797
end 16778
Papa 16773
Beau@@ 16738
Dav@@ 16735
port 16730
telef@@ 16726
Sun@@ 16721
Taylor 16718
enne 16708
Land@@ 16700
Kan@@ 16690
empe@@ 16682
Green 16677
Racing 16668
ont 16660
Air 16659
1898 16651
Hotel 16649
Karl 16638
len 16618
ref@@ 16609
Situ@@ 16606
ept@@ 16586
ome@@ 16584
Cav@@ 16553
olia 16547
North 16546
Dal@@ 16541
Ki@@ 16535
adver@@ 16500
Society 16489
Reser@@ 16488
Ful@@ 16487
ny@@ 16483
1870 16470
divers@@ 16463
sey 16460
Viz@@ 16459
Mart@@ 16444
heb@@ 16437
ken 16433
quir@@ 16429
op 16425
AP 16420
tér@@ 16417
aden@@ 16387
side 16380
Lang@@ 16378
MS 16374
Bec@@ 16370
Pak@@ 16365
qui 16353
embran@@ 16348
test@@ 16345
gest@@ 16337
ther 16331
oder 16301
ham@@ 16268
tha 16251
use 16235
bi 16210
AL@@ 16204
tut@@ 16192
Shi@@ 16190
mond 16177
Blue 16175
Bé@@ 16174
Island 16173
COVID 16151
His@@ 16150
Spe@@ 16136
MI@@ 16112
the@@ 16111
America 16106
1901 16105
Rab@@ 16100
Emper@@ 16092
ei@@ 16085
Roger 16064
V. 16050
Davis 16049
ingu@@ 16046
Les@@ 16040
Petr@@ 16032
promin@@ 16009
T. 16004
visible 16002
PR@@ 15994
South 15988
amen 15977
americ@@ 15970
Cand@@ 15966
energ@@ 15942
1895 15932
inae 15922
DE 15921
MA 15921
anime 15909
Napole@@ 15906
ingen 15905
VI@@ 15897
éd@@ 15873
Alber@@ 15853
200@@ 15843
Mand@@ 15843
kg 15841
Sher@@ 15823
evi@@ 15805
fort 15805
onna 15801
Indonesia 15798
lemente 15796
LE@@ 15779
sam@@ 15770
Sy@@ 15766
Fol@@ 15747
atis@@ 15739
gre@@ 15739
Hong 15724
Serbia 15724
naz@@ 15718
Bran@@ 15708
nh@@ 15702
Night 15687
W. 15687
ves@@ 15674
pino 15671
sant@@ 15667
rir 15665
Series 15661
Jersey 15650
CD@@ 15649
ū@@ 15646
elles 15645
aus 15638
flan@@ 15632
Shar@@ 15628
LA 15620
Mec@@ 15618
Conn@@ 15601
Hub@@ 15577
Institu@@ 15567
1899 15566
Phil@@ 15566
Stone 15554
Tot@@ 15538
Ret@@ 15537
Ann@@ 15525
Cec@@ 15524
Fern@@ 15513
eres 15501
anth@@ 15493
mir 15487
11@@ 15475
hard@@ 15468
lip 15463
onga 15432
edonia 15427
Samuel 15426
Arizona 15420
Irak 15386
Rio 15359
Rugby 15358
Maj@@ 15357
Ker@@ 15353
Play@@ 15353
ique 15352
Sou@@ 15332
Marvel 15331
Kam@@ 15328
much@@ 15322
ep 15312
farm@@ 15312
jan 15312
Cot@@ 15311
zan 15307
Nag@@ 15301
uz 15300
Group 15299
Moder@@ 15296
ting 15283
Wol@@ 15279
eus 15264
ium 15255
esse 15234
Arti@@ 15223
WWE 15212
1897 15197
drome 15197
Bou@@ 15196
Anton@@ 15195
Jacques 15195
Chrysomelidae 15194
Rog@@ 15193
kil@@ 15177
LP 15175
tho@@ 15169
Palest@@ 15163
eau 15159
Lake 15145
Donald 15142
Tun@@ 15121
oli@@ 15113
Pop@@ 15108
50@@ 15099
ambre 15094
Liv@@ 15091
upe 15088
Pav@@ 15087
1896 15077
any@@ 15074
ris 15065
war@@ 15064
oli 15053
Ever@@ 15045
rug@@ 15045
sof@@ 15017
eer 14997
iko 14984
bach 14979
Down 14972
recu@@ 14968
ark@@ 14956
1860 14953
wan@@ 14945
kin@@ 14939
esi@@ 14927
Rad@@ 14925
ubil@@ 14922
ny 14920
Boy@@ 14874
amm@@ 14874
Simon 14870
Bom@@ 14864
IC 14858
Premier 14858
Hier@@ 14848
omer@@ 14840
Alpes 14833
FIFA 14820
1889 14811
eck 14811
Lewis 14795
lé@@ 14793
anne 14782
sm@@ 14780
Ped@@ 14778
Pet@@ 14778
play 14773
Cup 14764
eman 14761
ache 14759
Massachusetts 14757
illy 14741
afr@@ 14731
Ze@@ 14730
Bulgar@@ 14716
ket@@ 14703
gam@@ 14693
Bell@@ 14685
NE@@ 14682
ongo 14670
Colorado 14654
Mik@@ 14654
anna 14648
Lord 14646
dial 14643
Bes@@ 14638
uti@@ 14626
Rap@@ 14609
1891 14600
vin 14595
sul 14592
Got@@ 14585
idel@@ 14578
Giovanni 14575
SC 14574
ère 14573
trag@@ 14565
épo@@ 14561
Armen@@ 14557
Microsoft 14555
TE@@ 14554
ald@@ 14550
acre 14541
Alex 14540
aff@@ 14533
Isa@@ 14529
Day 14526
ges 14525
hay@@ 14522
vér@@ 14521
Bob@@ 14516
Imp@@ 14502
deg@@ 14502
lam 14496
Let@@ 14492
,@@ 14487
Yam@@ 14479
Port@@ 14463
andra 14461
pler 14444
AA 14439
fort@@ 14438
AB@@ 14435
diz@@ 14429
10.@@ 14418
mental 14402
ban 14395
´ 14395
Elizabeth 14394
Hip@@ 14389
Terr@@ 14389
Cham@@ 14378
Princ@@ 14370
Championship 14365
rop@@ 14332
1888 14330
RI@@ 14317
Lac@@ 14305
Hans 14304
erie 14294
ager 14285
hy@@ 14277
af 14255
Leopol@@ 14252
part@@ 14242
bara 14232
Coc@@ 14228
× 14215
atra 14208
Bak@@ 14202
yar@@ 14199
derni@@ 14183
dos@@ 14179
Web@@ 14178
Union 14175
Van@@ 14173
ever 14168
iki 14168
ech 14167
Net@@ 14165
urn@@ 14159
Association 14151
uck 14142
ays 14140
osh@@ 14113
Yugoslav@@ 14112
agan 14105
sistem@@ 14101
Adam 14087
inga 14084
pedia 14076
Dist@@ 14070
Pek@@ 14068
Little 14066
Congo 14061
lieg@@ 14034
aun@@ 14024
ren 14023
à@@ 14018
AT 14015
ague 14002
François 13995
Infan@@ 13988
ted@@ 13963
Sir 13944
ius 13940
oven 13921
Hard@@ 13920
Boys 13919
tent@@ 13919
1893 13912
Sam 13912
vers 13911
app@@ 13908
1500 13894
aug@@ 13894
ike 13888
uh@@ 13888
academ@@ 13869
oi 13860
tw@@ 13856
enfr@@ 13846
Stu@@ 13826
hr@@ 13825
Lem@@ 13824
East 13823
anus 13818
lave 13815
novi@@ 13815
att@@ 13806
Da@@ 13803
hes@@ 13794
Eric 13781
Ort@@ 13777
ée 13776
futbol@@ 13765
mis 13759
Awards 13752
heim 13732
PS 13731
ès 13711
g. 13704
Nintendo 13702
Luci@@ 13697
km@@ 13697
Sto@@ 13696
astron@@ 13668
iten 13666
Shak@@ 13663
c. 13662
Nam@@ 13654
dam@@ 13654
with 13648
Brun@@ 13646
low@@ 13645
eu 13642
Tex@@ 13641
vé@@ 13633
Joh@@ 13626
Cass@@ 13625
nic@@ 13620
nec@@ 13604
sis 13601
1892 13599
1800 13593
1868 13585
isco 13585
Blu@@ 13581
Hug@@ 13580
Num@@ 13579
1885 13577
rugby 13545
MTV 13539
ingham 13495
Alan 13491
Arab@@ 13484
Ray 13466
lima 13454
Bag@@ 13445
Mam@@ 13436
eller 13434
stant@@ 13431
Friedrich 13429
1894 13423
1886 13422
Kit@@ 13418
Lov@@ 13417
It@@ 13409
eu@@ 13409
Sony 13403
bomb@@ 13401
over@@ 13385
RA 13375
pi 13375
Sport 13373
Austr@@ 13360
Game 13354
che@@ 13348
ril 13336
etz@@ 13325
ert 13319
Atlanta 13313
Dun@@ 13312
ST@@ 13306
Han 13295
ken@@ 13286
lip@@ 13278
Toronto 13275
row 13275
orum 13270
Bras@@ 13237
Afr@@ 13228
Sat@@ 13226
dri@@ 13218
Wood@@ 13216
Corporation 13212
aud 13211
Jim 13209
uki 13209
Kansas 13204
Sep@@ 13193
YouTube 13182
iliano 13181
Ka@@ 13179
Ky@@ 13173
atom@@ 13167
CS@@ 13162
Wh@@ 13160
ray 13155
infr@@ 13146
even 13135
Sport@@ 13132
Douglas 13123
1884 13103
film 13100
Jan 13099
divid@@ 13089
veloc@@ 13089
Anderson 13084
alit@@ 13081
ili 13081
Chall@@ 13078
progr@@ 13078
olo@@ 13073
Gri@@ 13051
ury 13051
under@@ 13050
CF 13048
{ 13045
campus 13036
ABC 13034
1879 13025
lac@@ 13022
zam@@ 13010
Azer@@ 13007
Oxford 12994
Stephen 12992
Studios 12963
Beach 12961
mang@@ 12958
Pul@@ 12946
kov 12918
Jr 12915
Ry@@ 12912
agre@@ 12910
Hamb@@ 12895
ör@@ 12889
900 12879
verte@@ 12877
Kin@@ 12876
terci@@ 12871
Ner@@ 12866
Broadway 12865
Jes@@ 12859
Minnesota 12843
1887 12842
opera 12838
fri@@ 12829
ii 12820
lot 12820
sw@@ 12816
MP@@ 12814
uel 12805
ū 12801
Lincoln 12799
Sun 12793
Crim@@ 12792
AL 12790
Salv@@ 12787
Andrea 12779
12,@@ 12773
Francis 12773
God@@ 12772
Id@@ 12772
eld 12766
ask@@ 12764
enberg 12763
Biblia 12754
live 12747
Him@@ 12743
Asi@@ 12730
igg@@ 12725
divis@@ 12716
Johann 12706
FM 12700
Fa@@ 12699
entí@@ 12694
Andrew 12693
simul@@ 12676
Lyn@@ 12662
On 12652
1850 12645
uth 12641
ole@@ 12631
hir@@ 12625
Ges@@ 12619
1881 12616
1876 12595
12.@@ 12587
BM@@ 12586
Indiana 12571
Patri@@ 12543
eng 12542
ix@@ 12540
roy@@ 12532
Kos@@ 12529
iler 12526
Viol@@ 12520
dem 12517
Fort 12511
Cri@@ 12508
iny@@ 12504
Lou@@ 12501
Itali@@ 12499
1871 12486
own 12486
alli@@ 12482
yan@@ 12477
tiller@@ 12464
Road 12463
tions 12462
offs 12455
Rand@@ 12452
Alfred 12451
aul@@ 12447
Maxim@@ 12444
Gold@@ 12432
gi 12430
Nelson 12426
thi@@ 12421
Bach@@ 12420
Kevin 12420
Miller 12420
Zo@@ 12420
ort 12412
ð@@ 12391
10,@@ 12388
Johnny 12388
ate@@ 12370
Ef@@ 12364
Michel 12358
PA 12355
eli 12354
ë@@ 12349
11.@@ 12347
tum@@ 12342
Bruce 12340
www.@@ 12334
Nick 12331
K. 12323
Video 12316
Rose 12314
Tradi@@ 12313
AI@@ 12308
Gam@@ 12307
gü@@ 12306
Ele@@ 12305
icus 12305
kel@@ 12297
1878 12288
Gh@@ 12287
Junior 12281
bot 12279
Victor 12271
Warner 12265
Howard 12256
neum@@ 12250
Emil@@ 12248
Jimmy 12243
air 12240
seri@@ 12240
1882 12236
Evangel@@ 12236
key 12230
adi 12224
sel 12220
Vari@@ 12211
ust 12211
Mass@@ 12210
Fantas@@ 12206
uke 12194
State 12193
Brook@@ 12190
Ecu@@ 12190
23@@ 12183
Long 12181
cito 12164
dav@@ 12162
Nik@@ 12159
tés 12151
worth 12151
Cla@@ 12148
ord 12147
quel 12143
1864 12142
Allen 12140
enh@@ 12139
ew@@ 12139
alle@@ 12135
ashi 12128
Gun@@ 12118
Hem@@ 12116
uss@@ 12110
1883 12107
Epis@@ 12104
Black@@ 12096
CC@@ 12095
laya 12065
Boy 12062
Juni@@ 12061
Andr@@ 12060
let 12058
lock 12053
Cra@@ 12049
Chu@@ 12048
bé@@ 12047
cy 12022
Arts 12016
Anthony 12013
Ali 12007
Dy@@ 12003
ME@@ 12000
1865 11994
cup@@ 11992
Lau@@ 11983
Len@@ 11980
Aus@@ 11974
Arist@@ 11968
Ras@@ 11967
Montre@@ 11965
sept@@ 11965
day 11956
Lom@@ 11951
Harr@@ 11944
3000 11925
Arc@@ 11915
Eri@@ 11901
1830 11896
iter@@ 11892
1848 11891
Long@@ 11890
internet 11889
lyn 11888
Rober@@ 11887
ux 11887
post 11882
EM@@ 11877
Bell 11869
andi@@ 11868
ises 11861
nad@@ 11860
André 11858
Paris 11852
uri@@ 11852
ases 11836
Kom@@ 11834
Sid@@ 11832
urs 11830
rich 11825
ret 11824
Arena 11815
1840 11814
inaug@@ 11810
Lady 11796
Bis@@ 11792
isis 11785
1867 11780
Tap@@ 11771
Comics 11769
yer@@ 11764
ispo 11760
Inst@@ 11748
hil@@ 11748
London 11743
LG@@ 11736
lum 11726
Bay 11718
1873 11715
Cambridge 11715
box 11713
Max@@ 11711
enia 11710
ws 11710
AR 11705
Moz@@ 11703
Kl@@ 11702
Dou@@ 11686
invas@@ 11686
line 11671
ficio 11667
ATP 11663
grup@@ 11660
hard 11639
Ton@@ 11635
oe 11630
1861 11626
oo 11617
ovi@@ 11616
Morgan 11593
Go 11580
promovi@@ 11576
promot@@ 11573
Adel@@ 11564
bab@@ 11558
chin@@ 11558
Film 11551
1,5 11549
Gom@@ 11549
Queen 11549
1875 11542
idar@@ 11542
Moore 11535
afa 11528
enni@@ 11526
Pier@@ 11523
Is 11513
ç@@ 11510
yer 11508
1872 11507
Google 11505
sult@@ 11500
Tos@@ 11499
Satur@@ 11498
more 11495
polit@@ 11493
1869 11488
Gru@@ 11480
house 11479
ail 11474
40@@ 11461
stan@@ 11449
té 11448
PlayStation 11445
Bac@@ 11434
iter 11429
110 11427
ther@@ 11427
Eurov@@ 11421
ft 11415
Jane 11410
Anim@@ 11406
Bank 11406
Hus@@ 11406
Eg@@ 11405
Up 11405
dney 11403
sible 11399
net 11395
enger 11388
Sag@@ 11379
Houston 11377
oper 11374
anny 11372
agon 11366
eni 11366
Pop 11362
a. 11353
180 11348
1863 11335
Digital 11333
1874 11331
Ryan 11330
Your 11325
Henri 11321
prin@@ 11318
Beat@@ 11316
lins 11315
3D 11311
Kas@@ 11307
IT@@ 11305
consult@@ 11304
opo@@ 11298
Vig@@ 11297
Yo@@ 11283
Men 11280
Kenn@@ 11279
News 11275
ator@@ 11264
lav 11261
Sak@@ 11255
Clark 11250
ria 11236
any 11234
Green@@ 11233
ogo 11204
tun@@ 11204
Corpor@@ 11200
ights 11199
ovo 11193
Clin@@ 11190
thr@@ 11184
pro 11182
SP@@ 11181
nik 11179
Fro@@ 11170
abad 11166
11,@@ 11164
Matt 11156
Vin@@ 11154
umi 11154
Conse@@ 11153
ube 11147
verg@@ 11144
ball 11135
Scar@@ 11131
Kol@@ 11130
eden 11126
fest@@ 11126
ents 11123
13,@@ 11121
troit 11119
amo@@ 11115
Harvard 11113
Lind@@ 11113
ž@@ 11110
afu@@ 11109
Stan@@ 11107
bie 11084
utili@@ 11083
achi 11082
Ji@@ 11069
Pac@@ 11069
1857 11068
Billy 11061
1866 11060
liv@@ 11060
ister 11058
Alt@@ 11052
inus 11050
Tul@@ 11045
Journal 11044
PE@@ 11044
sibil@@ 11044
fiel 11042
Open 11039
ots 11036
130 11029
ells 11025
we 11022
core 11015
Charlie 11002
BC 10972
ops 10971
git@@ 10960
5.000 10959
Franklin 10950
Sah@@ 10949
sterdam 10949
1877 10941
\ 10933
Rolling 10930
back 10903
1862 10899
off@@ 10899
Anne 10898
Dan 10882
apo 10881
AF@@ 10870
Dep@@ 10866
Athle@@ 10865
trol 10860
Andre@@ 10855
hatt@@ 10853
hip 10840
Amp@@ 10837
Iowa 10836
Lot@@ 10824
Girl 10817
ann 10817
Kennedy 10802
Gordon 10801
Champ@@ 10798
Fir@@ 10796
Apple 10795
Oliver 10792
ery 10790
ran 10786
mito 10785
I.@@ 10783
IA 10781
ck@@ 10774
gh@@ 10773
Dakota 10760
nis 10757
Grab@@ 10746
Od@@ 10744
å@@ 10744
Patrick 10743
Nigeria 10741
stre@@ 10734
Lep@@ 10727
Yu@@ 10725
bé 10720
erten 10718
quet 10715
Creek 10694
Gib@@ 10690
Stal@@ 10690
Hul@@ 10678
Kil@@ 10670
Yor@@ 10669
ibn 10669
wer@@ 10669
Kie@@ 10658
ichi 10653
} 10649
aborat@@ 10648
IE@@ 10643
Autom@@ 10641
elt 10638
time 10630
impro@@ 10625
AE@@ 10623
sy@@ 10623
N. 10619
DS 10612
Nak@@ 10604
alan 10599
Chr@@ 10592
aut 10592
nen 10591
CP@@ 10583
Om@@ 10582
Cher@@ 10578
yo@@ 10577
1810 10572
up 10571
Mut@@ 10565
hou 10565
Boul@@ 10563
wal@@ 10557
http 10555
loyd 10554
1820 10547
ateur 10535
DJ 10534
Fle@@ 10531
Sie@@ 10527
Yan@@ 10524
Home 10518
crim@@ 10517
Gra@@ 10512
Nad@@ 10511
Sarah 10511
Hav@@ 10508
Ober@@ 10503
Nich@@ 10501
aw 10497
Otto 10492
pus 10489
Kelly 10483
té@@ 10471
Russell 10455
sequ@@ 10454
Las@@ 10453
TC 10450
Abu 10438
ker@@ 10438
eff 10434
blu@@ 10431
wich 10428
ough 10418
ms 10416
Chin@@ 10415
ards 10414
anca 10406
odio 10397
160 10394
Wisconsin 10384
omin@@ 10382
0,000 10378
evangel@@ 10371
wat@@ 10370
Hz 10365
Wes@@ 10364
ec 10360
ormente 10355
Nikol@@ 10341
bec 10340
Network 10332
iri 10331
Ross 10327
Christopher 10324
· 10311
oke 10300
GT 10296
1833 10293
1812 10292
Willi@@ 10286
Old 10283
etto 10283
maya 10283
Wit@@ 10276
Pictures 10274
Rou@@ 10271
pson 10263
Alex@@ 10258
min 10255
yle 10254
NO@@ 10250
USA 10244
Benn@@ 10240
1821 10234
vis 10234
Test@@ 10225
14,@@ 10220
Die 10216
Jon@@ 10212
Dani@@ 10211
D.@@ 10210
tano 10210
R.@@ 10208
nig@@ 10206
France 10203
zor@@ 10198
ures 10197
vey 10194
Fur@@ 10189
ses 10187
net@@ 10185
Rh@@ 10182
Wall@@ 10170
ă@@ 10170
125 10164
RC 10152
Hamilton 10150
Tw@@ 10150
maf@@ 10147
ML@@ 10138
Wilhelm 10136
We 10132
concer@@ 10117
Stor@@ 10116
ody 10116
engo 10115
igh 10107
AD 10105
Institute 10095
vu@@ 10092
1859 10085
Grammy 10079
Angel 10073
lers 10069
The@@ 10066
René 10063
eton 10061
Ple@@ 10060
eas@@ 10060
Franz 10058
Will 10048
80@@ 10042
gro@@ 10035
Power 10026
Song 10020
Can 10012
ality 10012
Rho@@ 10011
Neu@@ 10008
anger 10006
Carter 10005
Gard@@ 9998
chu@@ 9992
idge 9990
ett@@ 9977
Lon@@ 9972
16,@@ 9969
tena 9965
ket 9962
2,5 9961
Jason 9958
igi 9957
Chev@@ 9951
bs 9945
Thi@@ 9941
da@@ 9938
140 9937
Emer@@ 9933
Cour@@ 9932
Gau@@ 9930
quot 9924
uk 9924
Andy 9923
alls 9906
Xi@@ 9904
Austin 9902
enga 9899
Ok@@ 9893
org 9887
ska 9883
Det@@ 9882
arren 9878
alus 9866
350 9860
ffer@@ 9856
Valley 9855
Bla@@ 9854
wen 9854
³ 9853
iev@@ 9847
13.@@ 9840
Portu@@ 9840
lina 9837
Who 9831
optera 9823
Feli@@ 9813
Lyon 9808
oth 9805
iss 9804
Do 9798
ow 9798
tics 9779
1858 9770
kan@@ 9770
xi 9765
Adams 9761
lidae 9761
equi@@ 9760
oshi 9756
Twitter 9754
Nob@@ 9752
aa 9749
repe@@ 9748
Gur@@ 9746
1856 9743
Geor@@ 9736
pha 9721
vet@@ 9716
Kath@@ 9709
ein 9709
unt 9707
Coll@@ 9706
Diam@@ 9705
Martin@@ 9704
Bruno 9691
e.@@ 9688
British 9686
BT 9679
Out 9675
nan 9675
yi 9672
Lak@@ 9669
sho@@ 9666
Sz@@ 9662
Brad@@ 9659
ills 9659
chen 9658
sar 9655
Trav@@ 9653
Daw@@ 9652
ngu@@ 9647
Pseud@@ 9639
Gabri@@ 9630
rat 9621
Nec@@ 9617
Theatre 9610
Suz@@ 9606
arry 9595
aven 9594
court 9586
Brand@@ 9584
ids 9583
M.@@ 9582
SI@@ 9572
1854 9569
Fas@@ 9568
North@@ 9555
Luxemb@@ 9551
Aj@@ 9548
Š@@ 9547
HD 9545
Flam@@ 9542
1814 9534
Bad 9529
aj 9529
also 9526
Walker 9525
acy 9515
Alice 9514
Ye@@ 9512
Pay@@ 9510
lem 9510
1855 9508
Dig@@ 9508
Post 9507
onne 9506
Biz@@ 9492
Amér@@ 9491
Alaska 9488
Ray@@ 9477
ants 9470
AF 9469
ag 9467
atem@@ 9467
Il 9464
Band 9455
CH@@ 9454
geb@@ 9452
Airlines 9449
Fres@@ 9448
Bernard 9446
esh 9441
from 9436
IS 9427
ment 9423
Channel 9419
Roy@@ 9411
umi@@ 9411
VA 9404
Dro@@ 9401
raf@@ 9399
Raf@@ 9390
uza 9386
ng 9384
Jonathan 9372
eth@@ 9366
Marc 9357
Benjamin 9356
Micro@@ 9349
toman 9347
Wag@@ 9346
Che@@ 9344
Sports 9344
yst@@ 9338
Dance 9337
seu@@ 9326
Roy 9325
Liverpool 9324
Restaur@@ 9323
tech@@ 9323
fan 9321
Ñ@@ 9320
Municipal@@ 9315
rie 9315
Harris 9314
Hud@@ 9310
Tim 9310
Dave 9309
eppe 9304
15,@@ 9302
eti 9298
Raj@@ 9296
but@@ 9292
King@@ 9282
IP 9280
folk 9280
ty@@ 9276
tz 9252
stone 9240
opo 9236
14.@@ 9231
Carlo 9229
CBS 9228
oes 9217
chester 9207
Fair@@ 9205
Gé@@ 9204
5000 9199
1851 9189
IG@@ 9184
sch 9184
boy 9175
ror 9169
120@@ 9166
ords 9166
Naz@@ 9162
Asoci@@ 9156
Matthe@@ 9155
CC 9150
Press 9146
owski 9138
1842 9133
Sali@@ 9130
ady 9129
1835 9127
õ@@ 9126
folia 9121
Berg@@ 9119
UTC 9118
view 9117
lug@@ 9116
Of 9115
Wa@@ 9107
Um@@ 9100
Nan@@ 9090
Dead 9089
Claude 9082
Wayne 9080
Co 9079
ater 9079
BI 9078
ancy 9070
Marshall 9068
EN@@ 9066
Né@@ 9066
Good@@ 9063
uba 9062
Lec@@ 9060
Prin@@ 9059
Award 9058
bin 9058
Jacob 9055
Robin 9052
ective 9051
deli@@ 9050
risto 9049
sun@@ 9048
Jap@@ 9047
za@@ 9047
ted 9039
Mom@@ 9035
Angeles 9021
Lie@@ 9018
To 9016
1825 9014
Exper@@ 9006
chen@@ 9004
Swe@@ 9001
Li 8994
lier 8984
60@@ 8982
bis 8978
Ax@@ 8977
ams 8974
Sad@@ 8970
imal 8961
Pear@@ 8960
Bud@@ 8957
Dow@@ 8957
Di 8950
Georges 8950
cim@@ 8938
101 8937
FO@@ 8936
NASA 8935
agi@@ 8935
124@@ 8931
Wright 8931
1853 8928
very 8926
param@@ 8910
Be 8908
ennis 8906
enz 8904
augh@@ 8898
CE 8896
Linux 8892
Women 8890
sep@@ 8890
Golden 8889
PO@@ 8887
yg@@ 8884
ennes 8882
hop 8877
sional 8877
ostr@@ 8873
ric 8871
yth@@ 8866
Nobel 8865
mund 8865
nes@@ 8853
Magazine 8852
Bien 8848
Nas@@ 8847
Hop@@ 8842
Global 8841
aster 8837
Leo 8835
atum 8835
Shin@@ 8834
35@@ 8833
cle 8831
oks 8825
Hamp@@ 8816
eiro 8809
Mac 8807
dis 8805
gs 8804
Khan 8794
our@@ 8785
plut@@ 8781
Shel@@ 8773
din 8773
fab@@ 8766
esi 8763
Alter@@ 8762
oba 8752
cide 8739
Post@@ 8738
Rud@@ 8738
ated 8734
ders 8734
Metal 8732
ks@@ 8731
1845 8728
aden 8726
kiló@@ 8724
Square 8722
RS 8716
ambul@@ 8716
Best 8712
oman 8712
roman@@ 8709
1847 8707
1834 8704
món 8704
är@@ 8702
alif@@ 8701
ight@@ 8701
metr@@ 8701
UK 8697
1852 8688
Baden 8688
ely 8687
iler@@ 8685
https 8684
eph@@ 8682
Lanc@@ 8677
tz@@ 8670
empre 8665
Good 8664
Heinrich 8651
aris 8648
Soc@@ 8644
Hin@@ 8637
17,@@ 8631
Grant 8630
ues 8630
unk@@ 8628
Dark 8623
Benedi@@ 8621
Buff@@ 8609
deter@@ 8609
Museum 8599
idi 8593
1849 8587
Acc@@ 8587
diam@@ 8587
Games 8586
ères 8585
itt 8582
Jordan 8581
ement 8581
BS 8580
phy 8579
Tas@@ 8578
Lawrence 8574
ref 8571
Mong@@ 8570
iger 8568
liqu@@ 8567
feld 8559
zy@@ 8559
attle 8551
rique 8539
MO@@ 8538
This 8538
sh 8538
vi 8528
hil 8513
ī@@ 8510
Shir@@ 8501
unca 8492
Girls 8491
Kis@@ 8490
ness 8488
Port 8487
2.000 8481
Say@@ 8478
aine 8478
unter 8477
Pand@@ 8476
tier 8474
NBC 8473
Dod@@ 8471
201@@ 8469
Toy@@ 8469
MC 8465
Jazz 8463
Boeing 8458
æ@@ 8458
Academy 8456
Bra@@ 8456
Charlotte 8454
dale 8449
1824 8448
ilde 8445
1836 8443
Syl@@ 8441
bit 8434
Zh@@ 8433
sche 8427
Ox@@ 8426
Robinson 8423
wer 8421
J.@@ 8416
Manchester 8415
Bour@@ 8411
ois 8406
Inform@@ 8403
actr@@ 8403
town 8400
non 8396
Mau@@ 8390
IP@@ 8385
Spir@@ 8385
yu 8379
360 8372
Cho@@ 8362
Thor@@ 8361
maz@@ 8360
Sea 8357
Kle@@ 8349
Nati@@ 8349
Chic@@ 8346
Mez@@ 8344
tier@@ 8344
Gü@@ 8341
venti@@ 8339
1823 8338
haz@@ 8338
Rach@@ 8336
minim@@ 8336
ingi@@ 8335
lés 8335
obi@@ 8334
indu@@ 8330
oud 8330
Point 8327
pit@@ 8327
Carol@@ 8326
criti@@ 8320
vill@@ 8310
chor@@ 8306
L.@@ 8303
kur@@ 8298
Chal@@ 8293
16.@@ 8291
1846 8291
1837 8280
1839 8278
esh@@ 8278
HMS 8275
tren@@ 8269
princip@@ 8263
CO 8262
kat@@ 8261
bor 8258
Hat@@ 8256
rid 8250
Kel@@ 8247
Tow@@ 8246
Java 8241
ï@@ 8241
Alexand@@ 8238
Alabama 8235
annes 8229
Maurice 8228
Way 8228
ô@@ 8226
Ec@@ 8225
Philip 8220
Gary 8215
outh 8215
Ach@@ 8210
aha 8206
bran@@ 8206
eme 8206
cher@@ 8204
ls 8198
Play 8196
dam 8195
ect 8194
nus 8192
stadt 8189
aye 8186
ouse 8184
sex 8181
System 8175
Beg@@ 8173
Jul@@ 8171
ful 8171
Tag@@ 8167
Fot@@ 8164
Hit@@ 8144
ations 8140
eur 8137
Phoen@@ 8132
Stanley 8131
wald 8129
vor 8124
1844 8122
urus 8121
her 8117
Ein@@ 8111
stitut@@ 8111
1815 8110
teria 8105
15.@@ 8092
Steph@@ 8090
wick 8089
Pow@@ 8084
aska 8080
bul 8074
Cha@@ 8071
Kab@@ 8071
numér@@ 8069
Sup@@ 8063
Rep@@ 8060
750 8049
bon 8048
Iron 8047
Memorial 8040
Baz@@ 8039
eston 8035
105 8033
Lad@@ 8025
Tier@@ 8015
onder@@ 8012
yl 8012
DO@@ 8009
Pok@@ 8009
aque 8006
vend@@ 8004
act 8003
War 7984
Moon 7978
alt 7976
Great 7974
Mey@@ 7974
1811 7971
1838 7967
Jay 7965
lard 7960
Tou@@ 7957
EC@@ 7952
LC 7950
Town 7944
hockey 7939
Saf@@ 7938
ř@@ 7928
Trump 7927
eck@@ 7918
What 7916
SN@@ 7911
ku 7903
kov@@ 7901
Kent 7897
dra@@ 7896
1200 7890
Thompson 7887
com 7885
atmos@@ 7884
Dipl@@ 7876
Tennessee 7875
borough 7872
embre 7872
Heart 7867
Nicolas 7865
fli@@ 7864
1841 7862
wi@@ 7860
aina 7855
isi 7846
Buil@@ 7845
incor@@ 7842
pig@@ 7838
Under@@ 7836
AG@@ 7835
att 7833
sion 7831
Sever@@ 7830
dispos@@ 7830
Facebook 7827
prac@@ 7822
Campbell 7821
1822 7819
hosp@@ 7819
€ 7818
dose 7814
Science 7813
municipal@@ 7811
Jack@@ 7809
yd@@ 7808
F.@@ 7807
ection 7806
Television 7803
éri@@ 7802
omp@@ 7798
Studio 7794
Orange 7793
Fen@@ 7791
Division 7789
Gaz@@ 7779
Beng@@ 7778
Madag@@ 7777
Margaret 7770
Gul@@ 7767
Vor@@ 7766
Ian 7765
has@@ 7762
Bod@@ 7761
Bun@@ 7759
Tib@@ 7757
imi 7757
Yel@@ 7756
ów 7749
ott 7746
xon 7745
wan 7743
wo@@ 7743
ols 7742
shows 7740
aç@@ 7737
1843 7734
Vik@@ 7731
hep@@ 7719
zu 7709
iti 7707
yon@@ 7704
Wy@@ 7700
dium 7698
onc@@ 7698
Stewart 7696
cut@@ 7696
Chir@@ 7691
Herz@@ 7681
As 7676
Vincent 7676
sil 7655
LO@@ 7654
tour 7652
Gros@@ 7650
sid@@ 7649
Opera 7645
Univers@@ 7644
Thom@@ 7642
RT@@ 7641
1808 7635
amia 7624
1813 7623
Space 7619
Ludwig 7616
maj@@ 7616
Melbourne 7615
ward 7612
ê@@ 7611
Maryland 7609
Stadium 7608
tt@@ 7594
H.@@ 7593
aph@@ 7590
Arkansas 7586
B.@@ 7583
itch 7582
zur@@ 7581
SM 7578
burgh 7576
Pra@@ 7575
17.@@ 7572
orn 7568
18,@@ 7563
lon 7561
Brothers 7559
Anth@@ 7554
ana@@ 7554
Sas@@ 7553
Grim@@ 7548
Ses@@ 7544
ović 7540
ulia 7539
oko 7532
SD 7531
Death 7529
Uta@@ 7515
GB 7514
AG 7512
reti@@ 7511
Guy 7496
Kap@@ 7494
Sky 7490
450 7489
ien@@ 7488
Budap@@ 7477
ader 7476
Ath@@ 7474
ry@@ 7474
Hot@@ 7468
1600 7462
ony 7459
eim 7457
Rat@@ 7456
Zu@@ 7453
Dim@@ 7452
tri 7450
Gel@@ 7448
TO@@ 7447
tof@@ 7444
ça 7442
uni 7441
semi 7439
Galax@@ 7434
1826 7432
Bush 7428
Sn@@ 7426
Commun@@ 7424
RT 7420
zz@@ 7419
Bed@@ 7415
170 7414
sev@@ 7414
Lé@@ 7412
Rid@@ 7411
Anat@@ 7409
manuel 7404
Py@@ 7398
Cou@@ 7396
Sl@@ 7392
ture 7388
Art@@ 7386
Ann 7377
Tour@@ 7376
Bach 7373
Lap@@ 7373
Sap@@ 7372
Cros@@ 7370
oux 7369
pp 7369
reli@@ 7368
USS 7362
ends 7358
kir@@ 7358
ld@@ 7357
Apr@@ 7356
BO@@ 7356
Bres@@ 7356
Norman 7355
Kim@@ 7352
oda 7346
tac@@ 7340
eber@@ 7338
val 7338
0s 7337
Rock@@ 7337
stat@@ 7326
acomp@@ 7322
vik@@ 7321
Ontario 7319
Cen@@ 7318
Sound 7313
Angola 7310
angers 7308
P.@@ 7299
Cór@@ 7297
inge 7293
Songs 7291
Priv@@ 7289
ait 7286
enge 7283
kel 7283
Sund@@ 7277
Map@@ 7274
Express 7273
Dum@@ 7272
Last 7267
dre@@ 7264
1829 7262
TS 7259
Toul@@ 7254
fé@@ 7251
opp@@ 7245
Chart 7244
ef 7240
CP 7238
Fred 7237
DI 7235
Theod@@ 7230
Comput@@ 7219
ods 7211
1831 7207
Nep@@ 7202
now 7202
codice 7200
ron 7196
ph 7195
GP@@ 7194
SS@@ 7193
County 7189
Laz@@ 7182
USD 7176
ision 7175
Ernst 7169
Schwar@@ 7165
1828 7163
Adolf 7163
Reich 7163
Venez@@ 7161
Ster@@ 7160
hibi@@ 7153
Latin 7151
Rav@@ 7149
Bang@@ 7147
Out@@ 7146
Bask@@ 7145
dh@@ 7138
ree 7138
Wur@@ 7136
miz@@ 7136
South@@ 7128
ave@@ 7126
lands 7126
20.@@ 7124
Sci@@ 7119
now@@ 7118
1832 7116
Georg 7114
Herbert 7110
oug@@ 7107
Da 7105
CN 7103
ishi 7103
PP@@ 7099
alen 7097
3,5 7092
ndi@@ 7089
He 7084
Water@@ 7078
Bundesliga 7072
jed@@ 7072
Research 7071
enko 7071
cela 7065
ulan 7065
Baker 7064
Kentucky 7064
ums 7064
Math@@ 7057
Aleksand@@ 7054
GM 7049
dorf 7048
kan 7047
Bron@@ 7046
Japan 7045
iria 7036
daf@@ 7030
For 7024
hat@@ 7023
That 7017
Yar@@ 7017
Light 7016
ina@@ 7015
Ny@@ 7014
Day@@ 7013
Zi@@ 7013
ouver 7011
ats@@ 7009
ense@@ 7009
18.@@ 7008
Ma 7008
wen@@ 7007
öl@@ 7007
Zen@@ 7005
ires 6995
Muhammad 6994
enten 6993
ever@@ 6991
Gold 6990
ecti@@ 6989
An 6988
s.@@ 6988
Glo@@ 6981
zen 6976
Program@@ 6974
36@@ 6967
bek@@ 6965
First 6962
tern 6961
istan 6952
Kurt 6950
Back 6948
anum 6948
ML 6945
46@@ 6944
Force 6943
Mob@@ 6931
avi 6931
olan 6931
SE 6929
Wel@@ 6928
abi 6928
119@@ 6924
agog@@ 6923
34@@ 6915
azz@@ 6915
orig@@ 6912
Connecticut 6911
Wiki@@ 6911
Well@@ 6905
Gem@@ 6898
dae 6894
33@@ 6888
37@@ 6888
ka@@ 6886
Dé@@ 6883
int 6882
AV@@ 6879
Dres@@ 6869
wards 6868
May 6864
ways 6859
19,@@ 6853
Arsenal 6848
Tat@@ 6847
IF@@ 6841
Web 6838
bay@@ 6836
ön@@ 6832
unter@@ 6830
Master 6828
Panz@@ 6828
oc 6828
Griff@@ 6825
tric 6825
spe@@ 6824
IBM 6822
alli 6821
dian 6821
occer 6820
Like 6815
20,@@ 6813
bad 6811
Line 6810
Hart@@ 6809
burn 6809
Story 6806
Avenue 6805
facil@@ 6799
casting 6798
eh 6794
Hein@@ 6793
ités 6791
Bug@@ 6790
diese 6790
− 6786
Glas@@ 6781
temp@@ 6781
hua 6780
Liz@@ 6774
ather 6773
lif@@ 6770
Kun@@ 6765
ime@@ 6756
Maine 6754
ems 6749
Shu@@ 6747
down 6746
toria 6745
illi@@ 6742
bud@@ 6740
nier 6733
finanz@@ 6730
WW@@ 6728
UNESCO 6725
Volks@@ 6725
Sri 6722
Peti@@ 6720
rej@@ 6716
év@@ 6715
Tah@@ 6704
bay 6704
Had@@ 6700
imbo 6700
š 6697
Stars 6696
NS@@ 6692
gy 6690
bach@@ 6689
Dream 6688
lah 6684
og 6680
clim@@ 6679
BN 6678
eine 6674
Ide@@ 6670
Thr@@ 6669
ive 6651
berger 6650
star@@ 6646
Antoine 6643
ilan 6642
Syst@@ 6637
1816 6624
NH@@ 6622
Santi@@ 6622
gin 6620
indo 6620
erer 6619
45@@ 6607
Films 6607
kad@@ 6607
web@@ 6605
1817 6598
ough@@ 6594
pers 6594
sand@@ 6592
Bapti@@ 6579
plo@@ 6578
Pass@@ 6573
Raymond 6572
ift 6569
MP 6566
Kot@@ 6565
enin 6562
Run@@ 6558
util@@ 6558
Eth@@ 6557
Hermann 6556
Land 6552
ape 6544
omi 6534
Histori@@ 6533
han@@ 6532
wn 6530
Conference 6525
1819 6516
kon@@ 6514
vier 6512
oka 6510
Bit@@ 6507
xe 6505
gom@@ 6504
T.@@ 6497
How@@ 6495
Roman@@ 6489
ose 6489
Ord@@ 6488
win@@ 6486
115@@ 6483
elly 6478
light 6478
Poli@@ 6477
ris@@ 6474
say@@ 6474
DP 6472
ici 6469
iche 6466
uld 6464
Fire 6459
come 6459
Family 6457
Wind@@ 6455
hus@@ 6450
ains 6447
MS@@ 6444
Leipzig 6443
Leb@@ 6440
118@@ 6438
tak@@ 6432
Sainte 6431
UE@@ 6429
endi 6422
Uz@@ 6416
ène 6414
verb@@ 6410
sech@@ 6407
19.@@ 6405
End 6403
kal@@ 6401
Haz@@ 6400
emati@@ 6400
21.@@ 6380
stor@@ 6380
Barbara 6378
α 6376
Law@@ 6373
1809 6367
ful@@ 6354
38@@ 6353
album 6353
xico 6352
ony@@ 6348
onz@@ 6348
Two 6345
sou@@ 6343
ò@@ 6338
Off@@ 6336
haus@@ 6333
country 6328
1827 6327
II@@ 6324
uses 6324
Spor@@ 6318
Cross 6316
Mang@@ 6315
lau@@ 6315
asha 6311
1.5 6308
Summer 6306
Frederick 6305
you 6302
lit 6301
onald 6301
afe 6299
ature 6298
ń@@ 6292
cht 6291
isher 6290
wh@@ 6290
main 6289
2.0 6285
Daily 6284
star 6279
Ey@@ 6278
Europe 6276
inde 6276
aret 6274
pris@@ 6271
Tay@@ 6269
Prince 6255
ischer 6255
ring 6252
opter@@ 6250
chan@@ 6248
uer 6248
102 6247
final@@ 6247
lang@@ 6246
paro@@ 6245
135 6244
Hoh@@ 6241
ael 6238
eds 6234
eb 6230
4000 6224
ode 6222
eum 6218
andi 6217
Enter@@ 6216
Fam@@ 6216
uru 6216
Č@@ 6210
Denis 6207
Will@@ 6203
Project 6201
Yah@@ 6200
ahn 6197
zer 6192
Val 6190
128 6189
DF 6187
Chelsea 6186
Amat@@ 6180
ames 6174
istes 6174
1.000 6170
mini 6165
VP 6163
Dj@@ 6160
tum 6160
Bass@@ 6157
aro@@ 6156
Vog@@ 6155
Motor@@ 6154
1818 6150
Prof@@ 6148
sons 6144
tory 6143
Christi@@ 6142
gros@@ 6141
EC 6139
22.@@ 6137
inn 6133
Centre 6131
People 6122
Nah@@ 6116
bron@@ 6115
emen 6113
muda 6111
ju 6109
IB@@ 6108
SI 6107
Anton 6105
Rah@@ 6103
clo@@ 6100
ambo 6097
face 6093
Oreg@@ 6084
egem@@ 6081
ordenadas 6080
Eug@@ 6079
AB 6076
Syn@@ 6074
Personal 6073
Spar@@ 6073
Hoff@@ 6071
enburg 6070
Ré@@ 6069
Ich@@ 6067
out@@ 6065
ebe 6064
Singles 6059
ulu 6055
NFL 6051
try 6051
Foundation 6049
GA 6049
tom 6045
Kus@@ 6044
ege 6042
Yak@@ 6040
70@@ 6039
47@@ 6038
ute 6038
Party 6037
Tang@@ 6032
say 6016
strong 6015
By@@ 6013
Philippe 6011
100@@ 5998
ISO 5998
1806 5997
Prix 5995
humo 5991
10.000 5980
Mann@@ 5978
Stre@@ 5977
PM 5976
Johannes 5975
ako 5975
Ghana 5974
heavy 5973
Software 5965
ayan 5965
zin@@ 5965
Associ@@ 5959
arab@@ 5959
déj@@ 5958
nik@@ 5955
Tanzania 5954
Wolf 5954
isha 5947
rad 5946
kes 5945
1700 5944
104 5941
Key@@ 5936
valu@@ 5935
Motor 5932
Ther@@ 5932
22@@ 5931
sign@@ 5929
ground 5927
,000 5926
Up@@ 5926
tice 5922
lon@@ 5920
Stein@@ 5916
rid@@ 5914
got@@ 5913
eland 5900
gers 5892
neu@@ 5892
ild 5888
adounid@@ 5887
phyl@@ 5886
less 5884
aku 5883
Atlantic 5876
Place 5873
115 5872
108 5871
Squ@@ 5869
head 5867
Hall@@ 5862
103 5859
NCAA 5857
arp@@ 5856
ology 5848
ils 5847
ezo 5845
ink 5845
tari 5844
Fat@@ 5841
uti 5835
1,2 5830
.S. 5826
Kirch@@ 5821
39@@ 5818
Vier@@ 5816
TP 5810
£ 5806
Country 5805
by@@ 5805
109 5802
hang 5802
1789 5800
ages 5800
Vladimir 5799
21,@@ 5798
Four 5781
49@@ 5777
Von 5777
sburg 5775
Forest 5773
Fort@@ 5773
Jag@@ 5768
aup@@ 5767
Hosp@@ 5764
Vinc@@ 5760
Urugu@@ 5759
Jesus 5753
Over@@ 5752
ë 5749
Phili@@ 5745
asse 5742
Earth 5739
Rural 5732
220 5725
Benjam@@ 5724
So 5722
istem@@ 5721
Rit@@ 5719
zen@@ 5719
Ou@@ 5718
Tari@@ 5715
ingia 5714
ö 5714
has 5712
Wer@@ 5702
ous@@ 5702
uten 5701
Hand@@ 5693
chap@@ 5689
Garc@@ 5679
wa@@ 5679
Book 5676
dance 5666
Sib@@ 5660
jan@@ 5659
August 5649
opus 5649
1790 5645
hen@@ 5645
uli 5643
HP 5642
1793 5640
Catherine 5640
but 5640
Dame 5626
22,@@ 5623
ative 5623
Android 5614
lor 5611
240 5610
Nur@@ 5609
Ni 5607
imin@@ 5607
IO@@ 5604
amed 5602
~ 5601
Kö@@ 5590
other 5587
hilo 5586
Finanz@@ 5584
23.@@ 5582
Just 5572
Bin@@ 5571
mak@@ 5569
Champions 5563
auer 5558
cast 5555
Orig@@ 5553
2.5 5550
Buch@@ 5548
Sain@@ 5546
ampton 5542
Asp@@ 5539
Mountain 5539
26,@@ 5537
singles 5536
acks 5534
24,@@ 5533
Louise 5530
Western 5526
Cath@@ 5525
Sé@@ 5522
old@@ 5513
mel 5512
25,@@ 5510
unge 5510
boy@@ 5508
sag@@ 5505
bel 5504
Der 5503
Charl@@ 5500
rapid@@ 5499
thy 5497
ā 5493
Nord@@ 5492
GC 5489
Apol@@ 5487
Free 5485
far 5479
ě@@ 5471
quar@@ 5468
Lud@@ 5466
icum 5465
aman 5464
bat 5464
wagen 5462
Pacific 5458
107 5455
odes 5451
use@@ 5446
emann 5444
illon 5442
tienne 5440
Broad@@ 5435
Freder@@ 5431
0,5 5430
Sym@@ 5423
Kum@@ 5419
lery 5416
anthus 5415
asti@@ 5415
zon@@ 5415
born 5405
106 5404
fi 5404
ś@@ 5404
ying 5402
High@@ 5400
mon 5394
111 5389
gel 5388
arius 5386
Ago@@ 5383
HT@@ 5380
Salz@@ 5380
Model 5375
FF 5373
IT 5372
eux 5372
ayn@@ 5371
Ble@@ 5369
Wrest@@ 5367
1792 5364
Uganda 5364
ily 5364
quier 5360
Chem@@ 5359
† 5358
John@@ 5355
Kre@@ 5355
4,5 5354
gene 5352
Jak@@ 5350
anie 5349
mad 5346
óvenes 5343
Eas@@ 5342
Nach@@ 5338
ombo 5336
Reich@@ 5325
112 5321
114@@ 5321
rag@@ 5320
dru@@ 5316
imm@@ 5313
pper 5312
rim@@ 5311
Now 5310
music 5308
90@@ 5307
edy 5307
Ander@@ 5305
Yas@@ 5302
Hass@@ 5296
éni@@ 5295
Aster@@ 5293
aker 5289
CS 5288
anat@@ 5288
athan 5288
futbol 5283
Atlan@@ 5282
117@@ 5278
rive 5278
urt 5272
Wolfgang 5270
Comm@@ 5269
wil@@ 5267
Sti@@ 5261
ouv@@ 5260
1807 5259
1801 5258
édi@@ 5257
Flu@@ 5251
Business 5249
23,@@ 5244
Basket@@ 5244
iff 5229
name 5228
ür@@ 5226
Anh@@ 5220
test 5220
single 5218
ives 5217
Schw@@ 5210
Luf@@ 5209
ush 5207
48@@ 5201
27,@@ 5196
tle 5196
vat@@ 5196
dioc@@ 5195
motor@@ 5189
Field 5185
Rac@@ 5182
oslav@@ 5182
isch@@ 5177
stock 5167
Four@@ 5163
hir 5161
aks 5156
Hut@@ 5155
320 5153
Guill@@ 5153
Fried@@ 5150
mouth 5140
Major 5137
eka 5132
Hispania 5131
Not 5128
ads 5127
Stil@@ 5125
sung 5125
Banglad@@ 5123
gli@@ 5122
ș@@ 5111
atu 5106
Milan 5105
bers 5101
Neb@@ 5099
fem@@ 5095
rang@@ 5093
1794 5091
Edu@@ 5088
History 5088
ladi@@ 5088
Mess@@ 5085
ands 5085
ī 5084
rier 5078
Mount 5077
Queensland 5074
2500 5069
Stuttgart 5066
sha 5064
FL 5063
25.@@ 5058
1803 5057
emi 5048
1300 5045
Hey@@ 5043
bey 5039
1805 5032
pay@@ 5032
Law 5030
els@@ 5030
Gustav 5029
European 5028
och 5024
179@@ 5022
réc@@ 5016
Probl@@ 5012
App@@ 5009
ern 5007
kshire 5001
jana 5000
Gö@@ 4994
Ō@@ 4994
gau@@ 4993
rich@@ 4988
Ž@@ 4985
sei 4982
Ins@@ 4977
Olimpi@@ 4977
Hak@@ 4973
iner 4973
190 4969
Ard@@ 4963
ason 4963
idir 4956
pia 4952
otte 4949
Sud 4945
Plus 4943
sberg 4943
Alexandre 4942
Materi@@ 4941
More 4940
Seb@@ 4940
oir 4938
beck 4936
1795 4935
Was@@ 4935
Mih@@ 4930
Ris@@ 4924
Beh@@ 4923
Neur@@ 4922
kor@@ 4922
etz 4920
dier 4919
auc@@ 4917
Desp@@ 4916
́ 4916
Leh@@ 4913
Zimbab@@ 4911
oul 4911
aume 4910
ulus 4909
Slo@@ 4906
Battle 4905
44@@ 4902
24.@@ 4899
hara 4898
Mexico 4897
Rudolf 4893
Jum@@ 4892
yat@@ 4888
Rhy@@ 4880
enna 4879
116@@ 4877
1804 4874
Roman 4874
Schleswig 4873
Tenn@@ 4873
26.@@ 4871
unga 4870
nu 4868
230 4867
Wak@@ 4864
ety 4859
pend@@ 4859
ande 4857
Sev@@ 4855
Gast@@ 4851
kw@@ 4851
Head 4842
yu@@ 4838
Classi@@ 4828
hai 4827
tat@@ 4827
uka 4823
water 4823
Ferdinand 4821
sah@@ 4817
plu@@ 4814
utar@@ 4814
Am 4812
alam@@ 4812
not 4810
Ost@@ 4807
113@@ 4802
undan 4799
midt 4798
Lok@@ 4797
under 4795
tie 4790
Poly@@ 4787
Hockey 4779
kul@@ 4778
Wander@@ 4776
Futbol 4775
Kul@@ 4774
ers@@ 4771
114 4760
Kob@@ 4760
Moy@@ 4755
123 4753
1802 4752
qua 4751
imar@@ 4750
Ltd 4748
è 4746
175 4743
127 4738
From 4735
vall@@ 4730
Office 4726
agen 4726
urg 4725
ween 4725
kom@@ 4721
Canada 4719
dipl@@ 4719
1799 4717
pon 4717
ross 4716
ob 4709
Gest@@ 4708
num@@ 4707
turn@@ 4707
1791 4705
entin 4697
Nig@@ 4694
Yer@@ 4694
lu 4693
bridge 4689
Ear@@ 4687
Batt@@ 4686
With 4686
Þ@@ 4685
ellen@@ 4680
inti@@ 4678
210 4677
ahl 4674
Church 4672
65@@ 4669
Meh@@ 4668
Sph@@ 4665
ausen 4663
β 4657
craft 4654
ule 4652
eps 4651
55@@ 4650
dex 4649
kers 4648
ories 4647
Alman@@ 4646
1798 4642
ē@@ 4641
haw@@ 4640
Mars 4639
Southern 4639
113 4636
away 4636
yon 4630
fried 4625
Duke 4624
Roh@@ 4624
Inn@@ 4623
124 4621
host@@ 4621
Dak@@ 4616
You@@ 4614
ving 4614
God 4613
Penn@@ 4613
Kno@@ 4612
ý@@ 4603
isch 4600
kar 4600
Kay@@ 4597
match 4595
ru 4594
י@@ 4594
dition 4591
endra 4587
alie 4584
Temple 4582
Tok@@ 4580
122 4578
kina 4578
new 4575
Yun@@ 4574
Ł@@ 4573
track 4572
coll@@ 4571
än@@ 4561
get 4560
dre 4558
ói 4552
jet@@ 4551
Gren@@ 4550
Columb@@ 4548
1797 4547
121 4546
Stur@@ 4545
Deutsche 4544
Berlin 4540
Gle@@ 4530
Kad@@ 4527
ext 4527
Ere@@ 4525
lies 4524
ties 4524
Andreas 4517
CEO 4511
Ng@@ 4511
260 4509
traf@@ 4508
Ass@@ 4505
mark 4504
aches 4502
amount 4495
atz@@ 4495
eler 4495
î@@ 4489
Speci@@ 4483
Mim@@ 4479
NAS@@ 4474
Ahmed 4469
ock@@ 4469
116 4466
Three 4465
Over 4463
pata 4463
Philadelphia 4462
Eisen@@ 4459
leva 4457
elop@@ 4455
Aug@@ 4451
English 4447
pole 4446
dou@@ 4443
ische 4443
ophie 4443
Chor@@ 4442
acle 4441
ating 4441
Navy 4440
ę@@ 4438
edil@@ 4436
gens 4436
Bret@@ 4435
And 4433
Mab@@ 4432
phy@@ 4431
atic 4429
rain 4429
oll 4427
43@@ 4426
She 4423
Service 4421
agne 4417
650 4415
aise 4412
155 4407
Famili@@ 4405
gil@@ 4405
126 4402
Aff@@ 4402
dren 4399
eten 4394
get@@ 4393
eil@@ 4391
Techn@@ 4390
isia 4390
Ligue 4388
ò 4383
rik 4382
Human 4378
witz 4377
Instrum@@ 4375
ede@@ 4371
heim@@ 4371
Festiv@@ 4366
für 4366
hap@@ 4366
550 4365
pen 4365
Castle 4364
einer 4362
quer 4358
27.@@ 4356
ý 4356
Josef 4354
Werner 4353
aires 4351
flav@@ 4351
SV 4350
ead 4349
if 4349
280 4348
oon 4348
cy@@ 4333
Main@@ 4332
lao 4323
1400 4320
± 4311
bed@@ 4307
Bill@@ 4304
khe@@ 4303
117 4302
works 4301
fast 4297
bli@@ 4291
Chron@@ 4287
330 4275
itable 4275
ä 4273
mus 4270
Chrys@@ 4263
Bridge 4261
Tokyo 4257
dom 4256
bei 4251
Mann 4250
Scot@@ 4246
Olympi@@ 4244
plex 4241
Notre 4239
elin 4232
usiana 4231
Fritz 4230
chez 4229
modi@@ 4222
132 4220
sera 4220
ois@@ 4219
Müller 4213
my@@ 4209
manufac@@ 4204
war 4198
SR 4192
éctr@@ 4191
Laurent 4190
270 4182
mine 4182
refl@@ 4181
uss 4178
acher 4176
mex@@ 4176
inger@@ 4175
eg 4173
Parlament@@ 4170
anni 4170
Orchestra 4167
HC 4162
arts 4159
68@@ 4157
spi@@ 4157
kam@@ 4149
Thé@@ 4148
ls@@ 4147
SG 4145
bank 4145
lich@@ 4141
ו@@ 4135
Schne@@ 4130
75@@ 4128
TH@@ 4123
ude 4122
Sach@@ 4121
had@@ 4121
Fré@@ 4119
Hau@@ 4119
shu@@ 4115
juli@@ 4114
Theater 4109
ilian 4109
maxim@@ 4109
ə@@ 4109
eit@@ 4107
produz@@ 4107
mit 4105
sibl@@ 4105
inen 4102
adil@@ 4100
asser 4098
Wehr@@ 4097
145 4090
When 4088
Special 4084
octo@@ 4083
Franç@@ 4082
eget@@ 4080
oun 4080
dit 4079
atia 4077
edi 4076
ôme 4074
Frank@@ 4073
Standard 4070
Sax@@ 4062
Archit@@ 4060
aim@@ 4057
phon@@ 4050
nam 4048
Koh@@ 4041
aide 4039
omon 4037
vie 4034
118 4029
wor@@ 4020
Gott@@ 4017
Bremen 4014
tors 4014
Dru@@ 4008
awi 4007
mid@@ 4007
7,5 4006
Modern 4003
Chi 4000
Coast 3995
Public 3995
Wan@@ 3995
erine 3992
Pf@@ 3991
olds 3991
Sey@@ 3988
enter 3986
hit 3983
57@@ 3979
Year 3975
won 3970
right 3969
École 3969
380 3965
hat 3965
Empire 3948
Limited 3948
lay@@ 3946
General@@ 3945
cover 3944
trad@@ 3940
vet 3939
@ 3938
tou@@ 3937
dy@@ 3936
kol@@ 3935
ith@@ 3932
acht 3931
thor@@ 3929
Paragu@@ 3928
sau@@ 3927
world 3922
Vy@@ 3919
hiz@@ 3919
trit@@ 3919
strat@@ 3918
kab@@ 3914
Colomb@@ 3913
Strat@@ 3906
iyi 3906
Kut@@ 3902
night 3902
U.S. 3901
vain@@ 3898
Kid@@ 3897
table 3897
Dau@@ 3895
Orch@@ 3895
kus 3895
manufactur@@ 3889
Bayern 3884
Wild@@ 3883
stitu@@ 3880
Kag@@ 3876
NGC 3874
guer@@ 3874
bid@@ 3873
chac@@ 3859
129 3856
Chel@@ 3855
fiel@@ 3854
Station 3851
Ö@@ 3851
Julius 3850
Sok@@ 3848
mada 3843
3.5 3840
castle 3840
ait@@ 3839
ading 3838
tive 3836
itr@@ 3833
leb@@ 3830
prise 3830
Inc. 3829
Sign@@ 3824
sl@@ 3824
bai 3823
macht 3820
Kem@@ 3819
met 3817
→ 3815
Wein@@ 3813
Maf@@ 3810
juni@@ 3810
Abdul@@ 3806
Nord 3806
brahim 3806
pur 3804
unds 3795
Kak@@ 3788
enea 3787
ouvre 3787
End@@ 3786
Fall 3774
aly@@ 3774
fix@@ 3774
Sonn@@ 3768
western 3768
Aleks@@ 3765
Kri@@ 3765
ustos 3765
inson 3764
Pyr@@ 3763
Regi@@ 3758
west 3758
Mün@@ 3757
sz@@ 3753
yak@@ 3751
publican 3749
Management 3748
area 3742
Canadian 3735
wak@@ 3735
ː 3735
Obj@@ 3734
echt 3734
119 3728
German@@ 3728
fonso 3728
ffe 3726
Hannover 3725
ird 3723
pot 3723
eki 3722
adem@@ 3720
enti 3719
sta@@ 3708
Tag 3706
cript 3699
sten 3699
Nap@@ 3694
yor@@ 3692
tain 3690
chev@@ 3686
iser 3685
nis@@ 3677
56@@ 3675
If 3671
​ 3663
Dad@@ 3662
ος 3661
Michigan 3659
sions 3658
mani 3656
stream 3655
gues 3653
phil@@ 3653
hiv@@ 3652
Phone 3646
Sieg@@ 3645
zon 3643
NS 3639
igne 3639
bak@@ 3635
tn@@ 3635
Council 3634
taine 3634
sap@@ 3633
uren 3626
Na 3623
print 3621
ship 3619
53@@ 3618
Winter 3615
199@@ 3614
Bish@@ 3613
Coun@@ 3611
States 3611
ishing 3611
auté 3610
`@@ 3607
58@@ 3603
tem 3594
illi 3592
Development 3591
Under 3590
Mek@@ 3589
round 3585
lus 3579
DR 3576
hausen 3576
zer@@ 3575
König@@ 3570
e. 3566
was 3565
Rug@@ 3554
than 3553
Ek@@ 3546
ã@@ 3546
lib@@ 3543
Act 3541
gun 3541
pein@@ 3536
wid@@ 3536
nin@@ 3532
Born 3530
got 3530
Hof@@ 3524
lich 3522
wing 3519
DV@@ 3515
egel 3514
life 3513
Technology 3511
bea 3510
flo@@ 3507
-- 3506
eting 3506
ping 3506
bourne 3502
sport 3499
pom@@ 3496
onidae 3494
oss 3493
ism 3489
ün@@ 3487
Canadi@@ 3486
^ 3484
ications 3483
Du 3479
eke 3470
Alliance 3469
Barcel@@ 3469
Elis@@ 3466
anan 3463
bad@@ 3460
cid@@ 3460
aji 3457
inci 3455
edom 3454
sein 3454
histor@@ 3451
enth@@ 3450
usiano 3450
kaz@@ 3447
üt@@ 3446
ampi@@ 3442
ibar 3439
č 3437
152 3435
Roll@@ 3434
Miss@@ 3432
tur 3430
Sydney 3426
band 3426
ya@@ 3425
Justice 3421
Ent@@ 3420
59@@ 3414
egen 3413
Amer@@ 3411
case 3411
Rak@@ 3404
anzo 3401
Zer@@ 3399
cell@@ 3394
obi 3394
Mr@@ 3393
ize 3393
âteau 3393
INSE@@ 3392
meng@@ 3390
Gusta@@ 3388
nel 3388
enton@@ 3383
Nazi 3382
haus 3378
spr@@ 3376
ć@@ 3374
Elisabeth 3372
ahl@@ 3369
Tek@@ 3368
ammed 3368
gaz@@ 3363
67@@ 3362
Court 3362
Gut@@ 3359
Turk@@ 3359
champ@@ 3358
chia 3358
thing 3354
Napo@@ 3351
azu 3350
card 3349
sed 3349
zia 3348
mbal@@ 3346
Reichs@@ 3345
Wolf@@ 3339
osi 3337
tain@@ 3332
ì 3332
erek 3331
chr@@ 3327
Must@@ 3321
sie 3320
ceph@@ 3318
seau 3317
isse 3315
ilim@@ 3314
Film@@ 3312
sters 3311
Jung@@ 3306
diesen 3301
board 3298
March 3296
66@@ 3294
forman@@ 3291
kt 3288
lion 3288
Revolution 3284
law 3284
nin 3284
Kah@@ 3282
ayar@@ 3282
sing 3280
ehr@@ 3279
gang@@ 3275
Ili@@ 3273
iki@@ 3273
Wis@@ 3264
Kingdom 3261
chn@@ 3257
uf 3257
ebo@@ 3252
Anc@@ 3251
bourg 3244
fire 3242
hav@@ 3240
Pé@@ 3238
eff@@ 3234
anya 3233
Sos@@ 3226
AK@@ 3225
nuc@@ 3220
nah@@ 3217
abi@@ 3215
ski@@ 3215
ël 3213
blin 3212
Hr@@ 3211
tronic 3211
Sciences 3209
har 3205
¨ 3203
Spi@@ 3201
other@@ 3201
ă 3200
Nis@@ 3199
Design 3198
itzer 3197
wealth 3197
namo 3194
bora 3191
tique 3190
Das 3187
aten 3187
dil 3184
pool 3179
sana 3179
tag 3179
Sek@@ 3172
Schul@@ 3170
Ut@@ 3168
Eliz@@ 3166
afi 3164
99@@ 3160
Cô@@ 3159
angel@@ 3159
dle 3159
Indian 3156
Trich@@ 3156
body 3156
Gmina 3155
ahi 3153
ül@@ 3145
py@@ 3143
Hind@@ 3140
Å@@ 3139
Earl 3132
omy@@ 3131
vel 3129
master 3127
England 3122
zt 3121
book 3119
utt@@ 3119
Hali@@ 3115
Publi@@ 3111
wel@@ 3110
Ç@@ 3110
Africa 3109
lik@@ 3109
ü 3109
cou@@ 3108
ées 3108
Oy@@ 3107
imba 3107
bou@@ 3104
mim@@ 3098
Guillaume 3096
öh@@ 3091
communes 3088
gu 3084
phia 3083
Main 3080
Album 3075
pak@@ 3075
propos@@ 3072
After 3070
ophyl@@ 3069
him 3067
mail 3066
wol@@ 3063
inat@@ 3062
ché 3059
né 3056
baz@@ 3053
sonr@@ 3052
assi@@ 3050
eling 3046
unde 3046
Fame 3040
that 3036
Alli@@ 3034
Rech@@ 3029
Burg@@ 3028
moto 3028
endem@@ 3021
Uru@@ 3019
cipe 3018
ising 3018
lim 3018
mah@@ 3015
ographi@@ 3015
bian 3013
eil 3012
inden 3011
Mal 3007
fu 3004
chef 2998
Board 2997
Produ@@ 2997
izi@@ 2996
signi@@ 2993
Ichneum@@ 2992
ém 2990
ects 2989
small 2988
Town@@ 2987
mile 2987
aras@@ 2986
There 2985
anchi 2985
K.@@ 2983
power 2982
August@@ 2980
lars 2979
Kamp@@ 2978
Frankfurt 2973
work 2973
Ś@@ 2972
sell 2971
Yes@@ 2970
sav@@ 2970
Wid@@ 2968
mut 2967
most@@ 2966
led@@ 2962
abo@@ 2959
Johann@@ 2955
Muh@@ 2954
äl@@ 2954
rou@@ 2953
ˈ@@ 2952
endel@@ 2951
kit@@ 2951
Paci@@ 2950
grand@@ 2948
Wir@@ 2947
і@@ 2947
kn@@ 2944
leist@@ 2943
sita 2941
wn@@ 2941
voy@@ 2939
run@@ 2937
kay@@ 2928
self 2927
û@@ 2926
hen 2925
black 2924
sak@@ 2924
asit@@ 2923
ident 2921
Institut 2919
Dah@@ 2915
kara 2915
Minister@@ 2914
Kro@@ 2913
Federation 2907
style 2906
med 2905
½ 2891
Studi@@ 2890
Ira@@ 2888
Army 2887
ering 2887
wi 2887
Société 2885
rd 2885
mama 2884
ign 2881
Gord@@ 2877
aifa 2876
cyc@@ 2876
wall 2873
SK 2872
ń 2872
squ@@ 2869
Railway 2866
active 2861
rak@@ 2860
usi 2855
Bib@@ 2854
Winter@@ 2854
olf 2853
shi@@ 2849
hin 2848
endro@@ 2847
μ@@ 2847
saf@@ 2845
Macar@@ 2841
aill@@ 2841
ammad 2839
alier 2835
ą@@ 2835
Bez@@ 2833
Rail@@ 2833
app 2831
bra@@ 2826
Academ@@ 2824
Haus@@ 2824
Nou@@ 2823
eaux 2820
rel 2820
lag 2819
ahr@@ 2816
21@@ 2814
his 2814
At 2813
endorf 2813
kle@@ 2813
strateg@@ 2810
tien 2803
thus 2802
lie@@ 2794
Berg 2790
love 2788
Back@@ 2787
Braz@@ 2787
atin 2784
ç 2775
Australian 2773
ã 2769
senior 2767
lower 2764
Sour@@ 2763
ayr@@ 2763
erk@@ 2760
Cao 2755
Library 2747
itter 2746
performance 2744
febr@@ 2739
Giov@@ 2737
See 2732
Stand@@ 2728
Corps 2725
auf@@ 2724
etti@@ 2724
adan 2723
erre@@ 2721
ogne 2720
Canton 2719
Cem@@ 2714
SPD 2709
illing 2708
ț@@ 2708
kum@@ 2706
rh@@ 2706
aray 2705
Seine 2700
Haf@@ 2697
Fest@@ 2696
onic 2696
Eis@@ 2695
Jah@@ 2695
Düssel@@ 2694
stil@@ 2694
big 2693
beg@@ 2692
arch 2690
Kav@@ 2689
chú 2687
kus@@ 2687
ş@@ 2687
poly@@ 2684
tham 2682
utz 2681
undi 2670
ological 2669
Sa 2666
Community 2665
Stand 2662
cu 2661
this 2661
Phys@@ 2658
dizi 2656
aland 2655
Lü@@ 2654
wo 2652
sous 2651
KK 2650
Sich@@ 2650
gal 2650
jen@@ 2647
ù 2646
stell@@ 2643
kaya 2636
spo@@ 2636
Yaz@@ 2635
Gün@@ 2634
Eb@@ 2629
197@@ 2626
onds 2625
anah@@ 2623
Vita 2622
Kop@@ 2618
pour 2615
stop 2615
migu@@ 2614
aliforni@@ 2610
auch@@ 2608
Xu@@ 2606
Deutsch@@ 2605
Republic 2605
Hyp@@ 2603
anger@@ 2603
orta 2600
Sept@@ 2597
enst@@ 2594
Second 2593
Hymenoptera 2592
sive 2590
Pho@@ 2588
French 2587
Mia 2585
Schi@@ 2583
allen 2582
d. 2582
Tech@@ 2581
Stadi@@ 2577
kun@@ 2574
hem 2572
erst@@ 2571
entry 2562
ths 2562
isim@@ 2560
uko 2554
Moun@@ 2550
Mark@@ 2547
Distribu@@ 2545
had 2545
suite 2545
inj@@ 2544
led 2544
Northern 2542
hao 2542
District 2538
Spiel@@ 2536
russ@@ 2536
sona 2534
ober@@ 2529
okia 2526
syn@@ 2524
Herb@@ 2519
arian 2519
ø 2519
where 2517
hak@@ 2515
sport@@ 2515
Git@@ 2506
Kaiser 2504
Medical 2504
elling 2503
illes 2500
hand@@ 2497
Kara 2496
--@@ 2494
ustry 2493
Name 2491
ause 2491
ency 2490
Schl@@ 2487
ails 2487
rend@@ 2486
Dut@@ 2485
Lew@@ 2482
andes 2480
change 2477
bek 2476
open@@ 2476
malar@@ 2473
tival 2473
orph@@ 2472
Vladi@@ 2471
çon 2469
benz@@ 2468
Olymp@@ 2467
Philos@@ 2465
zin 2458
ening 2457
lub 2454
oise 2452
ר@@ 2452
Health 2451
rant 2451
death 2447
Regional@@ 2444
ose@@ 2441
park 2441
aff 2440
Stra@@ 2439
essen 2439
5,000 2434
baya 2434
phe 2431
Ø@@ 2431
Meth@@ 2427
Sult@@ 2424
aines 2424
ß 2420
Kaf@@ 2419
lose 2418
Nel@@ 2416
198@@ 2414
cros@@ 2414
cs 2414
ival@@ 2411
lik 2411
vert 2411
Ung@@ 2405
nay 2404
jum@@ 2403
dings 2402
lanc@@ 2402
sad@@ 2399
bán 2397
zel@@ 2394
fav@@ 2392
196@@ 2389
ì@@ 2388
Sold@@ 2387
ld 2387
sdorf 2385
alog 2384
Đ@@ 2383
apti@@ 2382
cartes 2381
syl@@ 2381
ording 2378
Eff@@ 2377
orer 2377
atre 2374
áu 2374
ż@@ 2374
א@@ 2374
fique 2373
Christoph@@ 2372
ged 2372
marine 2371
taire 2371
orie 2370
bey@@ 2368
lois 2364
tere 2364
Ş@@ 2364
kho@@ 2362
recht 2362
anced 2360
road 2359
action 2358
Mission 2357
Type 2356
April 2355
long 2355
ʻ@@ 2355
brit@@ 2348
ockey 2343
bí 2342
ettes 2342
kö@@ 2342
yana 2341
Peru 2340
pén@@ 2339
Ehr@@ 2338
Front 2338
Siv@@ 2338
clubs 2337
eko 2336
ilg@@ 2335
fic 2334
pop@@ 2334
Way@@ 2330
ź 2328
oft 2327
sci@@ 2327
alme 2326
uku 2326
ς 2326
Services 2325
back@@ 2324
Isra@@ 2323
Missouri 2322
irs 2322
olm 2321
By 2320
hindi 2320
Fé@@ 2317
abu 2316
ombe 2315
Ave@@ 2313
forte 2310
uch 2304
rate 2300
ambu@@ 2298
esch@@ 2296
führer 2296
ned 2296
sis@@ 2294
iken 2292
kop@@ 2292
Psych@@ 2290
190@@ 2289
teri 2284
princi@@ 2282
illet 2280
Wald@@ 2279
eser@@ 2279
isol@@ 2279
ê 2279
ա@@ 2276
hut@@ 2270
Kant@@ 2269
volution 2265
ities 2264
point 2263
yla 2262
Education 2260
kia 2260
Konstant@@ 2259
ologi@@ 2258
lake 2257
′ 2256
iku 2254
thi 2252
trong 2250
text 2246
bem@@ 2241
funden 2241
Song@@ 2239
Wad@@ 2237
room 2237
prior 2236
195@@ 2235
ineering 2233
mans 2232
sts 2232
inning 2229
vehic@@ 2229
later 2228
Bundes@@ 2227
immer 2226
vita 2225
Kais@@ 2222
vice 2222
Another 2221
yas@@ 2221
oti 2220
oid 2219
form 2215
20th 2213
four 2213
His 2212
stand 2211
ège 2210
formation 2208
phone 2205
wide 2205
Euro 2203
Marine 2202
Doug@@ 2201
Mai 2200
atz 2199
arn 2198
elde 2197
usse 2195
Eastern 2194
Route 2193
Irish 2189
plus 2186
eonato 2182
Lt@@ 2181
brun@@ 2178
ainst 2176
new@@ 2175
Mara 2173
constr@@ 2171
its@@ 2168
Rus 2167
kap@@ 2165
Renn@@ 2164
Other 2163
amber 2163
ő@@ 2162
1,000 2161
isti 2159
nationale 2157
non@@ 2154
ark 2151
Pennsylvania 2150
Fren@@ 2149
rent 2149
yal@@ 2149
zones 2149
stead 2147
sam 2145
מ@@ 2141
oms 2140
rest 2136
đ@@ 2136
rim 2135
Rez@@ 2134
ilk 2129
onale 2129
ney@@ 2125
Milli@@ 2124
NCA@@ 2124
193@@ 2121
Des 2120
Middle 2120
ṣ@@ 2120
Frei@@ 2118
wie 2118
rö@@ 2117
was@@ 2117
194@@ 2114
Mary@@ 2113
Grou@@ 2111
Feld@@ 2110
Unter@@ 2110
ational 2109
porter 2109
leri 2108
major 2108
Den 2105
Burundi 2100
ა@@ 2099
ffen 2097
pande 2097
Inh@@ 2095
arak 2095
Code 2094
Ai 2093
Gör@@ 2091
Sta@@ 2089
center 2089
orf 2088
aku@@ 2086
indig@@ 2085
Elek@@ 2084
yk@@ 2084
Wales 2082
eign 2079
âtre 2079
Order 2078
kim@@ 2078
aint 2077
ehr 2076
Hous@@ 2072
gency 2072
mich@@ 2069
iques 2064
Heil@@ 2063
align 2063
ht 2063
issi@@ 2061
ority 2061
Cape 2059
aille 2057
ool 2057
ump 2056
ografia 2055
ré 2053
tei 2053
izi 2052
ück 2052
ţ@@ 2052
kri@@ 2051
put 2050
dér@@ 2047
α@@ 2043
Her 2041
ª@@ 2041
Arsen@@ 2038
Migu@@ 2038
hui 2036
rom 2034
esha 2033
Loire 2032
Single 2032
­ 2031
aries 2029
loss@@ 2028
ists 2027
wns 2027
Graf@@ 2026
scope 2026
ogen 2025
odi 2021
Rhein@@ 2019
bois 2019
kilom@@ 2019
Minn@@ 2018
det 2018
Oregon 2013
amu 2012
jit@@ 2012
osto 2011
subst@@ 2011
üb@@ 2009
ー@@ 2007
tán 2006
Highway 2001
Lö@@ 1999
Trab@@ 1999
gé@@ 1997
ufac@@ 1994
like 1992
Syr@@ 1991
ppe 1990
Captain 1989
otur@@ 1984
adam@@ 1982
itage 1980
word 1980
ecture 1979
Î@@ 1978
ports 1975
1,0@@ 1974
GmbH 1974
Klo@@ 1969
liche 1969
conn@@ 1965
Yug@@ 1964
anl@@ 1964
Heim@@ 1963
atrice 1963
eline 1963
law@@ 1962
Zw@@ 1961
olar@@ 1961
sti 1958
uter 1955
Antar@@ 1954
ember 1952
Ruh@@ 1949
type 1946
nak@@ 1945
usta@@ 1944
Anf@@ 1943
lique 1941
sun 1941
BK 1936
ône 1935
orch@@ 1933
aking 1931
Compan@@ 1930
Kend@@ 1930
doba 1929
ô 1926
anz 1925
π 1925
eim@@ 1922
stri@@ 1922
Graf 1920
African 1915
Sultan 1913
Police 1912
Region 1909
angle 1908
eden@@ 1908
iku@@ 1907
Ital@@ 1906
ao@@ 1906
rue 1906
eben 1905
Kauf@@ 1901
Dar 1898
mili@@ 1897
place 1897
onym@@ 1895
river 1893
door 1889
hof 1889
ה@@ 1887
adj@@ 1886
fore 1885
ainer 1884
icro@@ 1884
utz@@ 1884
iç@@ 1881
rah@@ 1881
tures 1880
irk 1879
inz@@ 1878
nie 1878
ב@@ 1877
dres@@ 1874
harmon@@ 1873
weight 1870
chem@@ 1869
Culture 1868
192@@ 1866
Guin@@ 1865
break 1865
ences 1865
Mosco@@ 1864
hood 1864
на 1864
Histoire 1863
Spanish 1862
othe@@ 1858
vision 1858
Geb@@ 1857
ograph@@ 1857
shot 1857
ève 1856
burg@@ 1855
elor 1855
équ@@ 1851
Wen@@ 1850
Gramm@@ 1849
eig@@ 1849
alter 1848
þ@@ 1847
brach@@ 1846
eurs 1845
Wilhel@@ 1843
Bahn 1841
ologies 1841
Most 1839
teur 1839
tah@@ 1837
Hoch@@ 1833
iran 1833
icht 1832
devenir 1831
scher 1831
tek 1831
tracks 1831
lieu 1830
utu 1830
furt 1829
online 1827
10,000 1826
Académie 1825
tig 1825
ל@@ 1823
dans 1821
hii 1821
ß@@ 1821
part 1819
poste 1819
teen 1819
Feb@@ 1818
June 1818
minut@@ 1818
dete 1816
lear@@ 1816
wes@@ 1816
main@@ 1814
pose 1813
Chu 1812
saba 1812
then 1809
ehem@@ 1808
neno 1807
ledge 1806
fish 1805
Nam 1804
inté@@ 1804
Mississippi 1802
gether 1800
left 1798
nim@@ 1797
stein@@ 1796
list 1793
rul@@ 1793
best 1792
kas@@ 1792
late 1792
German 1791
atas@@ 1790
ł 1786
lywood 1782
staff 1779
thin 1779
ching 1776
young 1776
chini 1775
meister 1774
éch@@ 1773
çal@@ 1772
Philipp@@ 1771
termine 1771
Airport 1769
Ame@@ 1766
nament 1766
press 1766
ḥ@@ 1766
Bey 1759
Für@@ 1759
Nations 1759
They 1758
Wiener 1758
tivi@@ 1757
Rest@@ 1755
Uch@@ 1754
upo 1754
kes@@ 1752
tet 1752
æ 1752
Ankara 1751
å 1751
usha 1750
ography 1748
Lux@@ 1747
Mustafa 1747
affen 1747
dur 1747
pu 1747
Histor@@ 1744
Æ@@ 1743
List 1742
ṇ@@ 1742
Sonder@@ 1739
fest 1739
Hung@@ 1737
üh@@ 1736
bile 1735
Anto@@ 1734
home 1734
tay@@ 1734
yel@@ 1734
Nieder@@ 1733
lern 1732
ended 1731
ysis 1731
ð 1729
ש@@ 1729
Zwe@@ 1727
airs 1727
izer 1726
ought 1725
ungen 1725
Stat@@ 1723
ation@@ 1722
iker 1722
µ@@ 1721
sian 1719
vière 1719
ership 1718
À@@ 1718
Hydro@@ 1717
ved 1717
biy@@ 1715
oire 1715
inet 1714
Kiy@@ 1713
opol@@ 1713
wana 1712
Braun@@ 1711
efs 1708
riff 1708
dies 1705
œ@@ 1703
itung 1701
eshi 1700
chart 1698
iwa 1698
DNA 1695
position 1695
Ab 1694
Minh 1694
ifu@@ 1694
hul@@ 1693
2,000 1692
cred@@ 1692
fs 1691
vention 1691
ging 1689
iting 1689
sn@@ 1687
angi 1686
Elle 1685
urity 1684
Stud@@ 1683
oking 1681
Dop@@ 1679
Marsh@@ 1677
Hawai@@ 1676
fall 1676
נ@@ 1676
Ba 1675
âte@@ 1672
mid 1671
Spain 1668
Ż@@ 1660
ansa 1659
class 1656
Zanz@@ 1655
fen 1655
ppi 1655
ople 1653
Rund@@ 1652
semble 1648
uu 1647
hio 1646
space 1646
vy@@ 1644
Baba 1643
ending 1641
thel@@ 1641
cian 1640
seen 1640
ät@@ 1640
Islam@@ 1639
assen 1639
Christ 1638
Some 1638
force 1638
alist 1636
they 1636
ators 1632
yok@@ 1631
Mb@@ 1627
Theo 1627
asili 1627
weg@@ 1626
ი@@ 1626
Kik@@ 1624
kari 1624
ligh@@ 1623
mann@@ 1621
union 1619
Ichneumonidae 1618
child 1617
Schwer@@ 1614
maz 1613
free 1612
Schn@@ 1611
entre@@ 1610
mé 1605
wehr 1605
dini 1603
Württemberg 1602
sanat@@ 1602
èle 1602
evi 1601
xu@@ 1601
drei 1600
ymn@@ 1599
iness 1591
Olympic 1590
stage 1590
ungs@@ 1589
issen 1582
posta 1581
ʿ@@ 1581
Adem@@ 1579
itation 1579
pru@@ 1578
Kho@@ 1574
etu 1574
Deux 1573
anni@@ 1573
bour@@ 1573
schaft 1572
isen 1571
age@@ 1570
Bek@@ 1568
kis@@ 1567
sang 1567
Bas 1565
1. 1563
ateurs 1563
éra 1563
Wah@@ 1562
hau@@ 1562
tries 1562
Dies@@ 1558
hold 1557
films 1556
ungo 1555
® 1555
Committee 1554
Jew@@ 1553
dres 1551
acid 1548
180@@ 1547
Est 1543
background 1543
ments 1543
naf@@ 1543
Scottish 1542
omba 1542
k.@@ 1541
yat 1541
ν 1541
ization 1539
elek@@ 1538
oten 1538
zog 1538
fied 1537
imler 1537
owa 1537
Soh@@ 1536
date 1536
tly 1535
raine 1534
aï@@ 1533
colspan 1533
ologie 1532
Obl@@ 1527
ked 1526
bell 1525
Scotland 1524
kre@@ 1522
lak@@ 1521
alara 1519
bü@@ 1519
kno@@ 1515
Production 1514
dua 1512
pass@@ 1511
stars 1511
good 1510
meter 1510
will 1509
ː@@ 1509
atur 1508
eball 1508
run 1508
ysi@@ 1508
Infr@@ 1507
bass@@ 1507
wiki 1507
Yen@@ 1506
premier 1505
sif 1505
cross 1501
zw@@ 1501
orium 1500
Ener@@ 1499
ṭ@@ 1497
lang 1495
1st 1494
Virgin@@ 1494
auf 1494
minor 1494
Fati@@ 1493
yam@@ 1493
Ban 1491
chs 1491
pf@@ 1489
tung 1487
entum 1485
stan 1485
γ 1485
Andro@@ 1483
scre@@ 1483
ème 1483
Zealand 1482
ayec@@ 1481
nach 1481
Tuy 1480
cole 1476
oce 1476
Nür@@ 1475
iterran@@ 1475
front 1472
zem@@ 1472
aining 1471
zur 1467
Führ@@ 1465
enk@@ 1462
temple 1462
zone 1462
ciné@@ 1460
ution 1460
omel@@ 1459
enty 1458
geh@@ 1456
grap@@ 1456
church 1455
ös@@ 1454
Arth@@ 1453
antas@@ 1453
Hö@@ 1452
math@@ 1452
rang 1451
eye 1448
hr 1447
public 1446
upon 1445
cour@@ 1444
pal 1444
jia 1443
Islands 1441
white 1440
cell 1437
ș 1437
theater 1435
ements 1434
osph@@ 1434
coun@@ 1431
voir 1430
yaz@@ 1428
ǎ@@ 1428
elen@@ 1427
niti@@ 1427
zul@@ 1427
ament 1426
oren 1426
Gesellschaft 1420
transl@@ 1420
А@@ 1420
aji@@ 1419
sai 1419
─ 1419
ischen 1418
sey@@ 1418
werk 1418
Early 1416
ours 1416
anted 1415
isches 1415
riff@@ 1415
С@@ 1415
usion 1414
.-@@ 1413
Bü@@ 1413
saw 1413
Kib@@ 1410
leit@@ 1409
Geh@@ 1407
Sov@@ 1407
yard 1407
emu 1406
reste 1406
ücken 1406
grad 1405
leh@@ 1405
ה 1404
β@@ 1403
ė 1402
auff@@ 1401
О@@ 1400
ayi 1399
là 1399
she 1399
ön 1399
Frit@@ 1397
Dok@@ 1396
Ireland 1395
Pays 1393
dek 1393
р@@ 1393
signe 1391
erb@@ 1389
soft 1389
Part@@ 1388
eing 1387
woman 1387
éo 1386
2. 1384
gian 1384
atini 1383
Commission 1382
ός 1382
Sü@@ 1381
leur 1377
erh@@ 1376
tai 1376
ip 1375
ε 1374
udi 1373
aissance 1372
aat 1371
ners 1369
game 1368
tep@@ 1368
Wash@@ 1367
lance 1364
veau 1363
song 1362
due 1358
189@@ 1357
Fach@@ 1357
ambi 1357
politi@@ 1355
prises 1355
Nairobi 1352
luy@@ 1352
amani 1351
native 1349
brand 1346
osha 1345
186@@ 1344
cht@@ 1344
straße 1344
adron 1343
Wür@@ 1342
avy@@ 1342
oil 1342
aben 1339
aday 1339
dies@@ 1338
oty@@ 1338
ン@@ 1338
Une 1336
adv@@ 1334
isel 1334
wr@@ 1334
doch 1332
wit@@ 1332
Erd@@ 1331
yem@@ 1330
eski 1327
Ét@@ 1327
yap@@ 1326
pierre 1325
sto@@ 1325
king@@ 1324
return 1324
unia 1324
fro@@ 1322
thu@@ 1320
Geometr@@ 1318
EU 1317
tour@@ 1316
् 1316
school 1315
ž 1315
大@@ 1315
kut@@ 1314
qu 1314
Best@@ 1313
Staats@@ 1313
press@@ 1312
Frau@@ 1311
care 1311
version 1311
emba 1309
provid@@ 1309
tim 1309
ω 1309
inh 1308
status 1307
arac@@ 1306
Ü@@ 1306
zum 1305
Britain 1303
head@@ 1303
hik@@ 1303
bez@@ 1302
muj@@ 1301
anzi 1300
Rö@@ 1299
team 1298
ï 1298
site 1297
dah@@ 1295
region 1295
ת 1295
wig 1294
lande 1293
θ 1293
ον 1293
вич 1293
monde 1292
suit 1291
rem 1290
ög@@ 1289
Groß@@ 1288
RNA 1288
aum 1288
terre 1288
umu 1287
êt 1287
aft@@ 1285
185@@ 1284
Department 1284
fau@@ 1281
Fak@@ 1279
ע@@ 1278
lieb 1277
adal@@ 1276
Harv@@ 1275
mw@@ 1275
nj@@ 1274
γ@@ 1274
èg@@ 1273
alya 1272
bere@@ 1271
κ@@ 1271
Rome 1270
akawa 1270
の@@ 1267
Kran@@ 1265
lil@@ 1265
aling 1264
àn 1264
baba 1263
nig 1263
Ark@@ 1262
phi 1262
Version 1261
league 1260
asons 1258
aught 1258
tile 1256
Grund@@ 1255
crick@@ 1255
ד@@ 1255
Thu@@ 1254
ograp@@ 1254
zig 1254
Cep@@ 1250
Nouvelle 1250
stel@@ 1248
ease 1247
iden@@ 1246
Bev@@ 1242
ited 1242
ví 1242
haf@@ 1241
ė@@ 1241
Amsterdam 1240
Ä@@ 1239
esser 1238
ù@@ 1238
й 1237
Mart 1236
Δ@@ 1236
alte 1235
tee 1234
full 1233
mai 1233
Championships 1232
aler 1232
Haute 1231
ayna 1230
Deutschland 1229
bahn 1229
Administration 1228
peu 1228
nant 1227
″ 1225
ug 1224
zim@@ 1223
argent 1222
188@@ 1221
Ló@@ 1221
Süd@@ 1221
alifor@@ 1221
ierra 1221
But 1218
buch 1218
ğ@@ 1218
feh@@ 1217
Dutch 1215
aises 1214
Kup@@ 1213
Berliner 1212
ected 1212
platz 1211
tsch@@ 1211
Montr@@ 1210
ν@@ 1208
Ayr@@ 1207
erin 1207
„ 1207
Korea 1206
fication 1203
iment 1203
Bö@@ 1201
cent 1201
heit 1201
them 1201
year 1201
high 1199
iges 1199
abs@@ 1197
chang@@ 1196
hadi@@ 1196
187@@ 1194
Stad@@ 1194
magazine 1193
graph@@ 1190
omen 1190
rien 1190
auch 1188
aub@@ 1185
tiers 1185
fah@@ 1184
ément 1182
Karnataka 1181
ellen 1181
Öster@@ 1181
publi@@ 1180
andan 1179
offic@@ 1179
fang@@ 1175
eté 1173
н 1173
yal 1172
zh 1172
chant 1171
did 1171
σ@@ 1171
tik 1170
engl@@ 1169
ply 1169
ň@@ 1168
Ouest 1167
yor 1167
amac@@ 1165
television 1165
stad@@ 1164
oku@@ 1162
2nd 1161
taifa 1161
üs@@ 1161
wich@@ 1159
Schwe@@ 1158
tional 1158
sek 1156
η 1156
cet 1154
λ 1154
Hymen@@ 1152
bonne 1152
sik@@ 1152
mau@@ 1151
loy@@ 1150
rail@@ 1148
oyn@@ 1147
É 1147
them@@ 1146
system 1144
üm@@ 1144
ş 1144
mey@@ 1143
vit 1143
ief 1142
schen 1141
Aun@@ 1140
Alab@@ 1139
burger 1139
city 1138
ē 1136
Zürich 1133
two 1132
alism 1131
èse 1131
tard 1129
how 1125
Guatem@@ 1124
Champi@@ 1123
ficie 1123
week 1123
Ferdin@@ 1121
Dek@@ 1120
ucky 1120
zil@@ 1120
weg 1119
nach@@ 1117
bau 1116
lied 1116
sans 1116
евич 1116
sche@@ 1114
xo@@ 1114
Bisch@@ 1112
onstr@@ 1112
‎ 1112
kata 1111
Norman@@ 1109
path@@ 1109
н@@ 1108
about 1107
initi@@ 1107
phot@@ 1107
una@@ 1107
asing 1106
π@@ 1106
wah@@ 1105
leben 1104
schw@@ 1104
shar@@ 1104
yote 1104
isions 1103
----@@ 1101
funk@@ 1101
many 1101
Proj@@ 1100
Ó 1097
Musik@@ 1095
usalem 1094
yol@@ 1093
schule 1092
wann 1092
λ@@ 1092
atique 1091
française 1090
have 1090
trich@@ 1089
Mehmet 1088
guez 1088
ı@@ 1088
tek@@ 1086
τ@@ 1085
kim 1084
cut 1083
к 1083
ρ 1082
Grün@@ 1081
Haupt@@ 1081
ı 1081
3. 1080
suff@@ 1080
éti@@ 1080
mak 1079
Gymnasium 1077
tains 1077
ample 1074
national 1074
δ@@ 1074
mash@@ 1072
reich@@ 1072
ľ@@ 1072
Wach@@ 1071
schwe@@ 1071
Mei 1070
celles 1070
hé@@ 1069
ifu 1069
Chinese 1068
cars 1066
stand@@ 1066
ifa 1065
sug@@ 1065
Yap@@ 1064
camp 1064
lines 1064
sens 1064
Ein 1062
iß@@ 1062
most 1062
Kip@@ 1061
anno@@ 1061
sanc@@ 1060
ם 1060
Government 1059
aş@@ 1056
XV@@ 1055
üc@@ 1054
184@@ 1052
Hai 1052
avant 1052
friend 1051
roi 1051
σ 1051
nou@@ 1049
ingi 1047
sine 1047
Funk@@ 1046
éré@@ 1046
в 1045
nom 1044
lac 1043
museum 1043
verdi 1043
Congress 1041
start 1041
Initi@@ 1040
Kunst@@ 1039
aret@@ 1039
pelí@@ 1039
Wali@@ 1038
urdu 1038
érie 1038
ő 1038
ə 1038
Müh@@ 1037
day@@ 1036
gaz 1036
ე@@ 1036
agnie 1034
aki@@ 1034
commun@@ 1034
vent 1034
comes 1033
wers 1033
в@@ 1033
mm@@ 1032
onie 1032
Musik 1031
4. 1028
armes 1028
inin 1028
Bey@@ 1027
onnat 1027
toba 1025
Kriegs@@ 1024
aching 1024
isme 1024
tam 1024
│ 1024
nd 1023
olan@@ 1022
ded 1021
same 1021
lek@@ 1019
oine 1019
் 1019
Asian 1018
tik@@ 1018
Rek@@ 1017
Stockh@@ 1017
uyar@@ 1017
uzo 1017
tours 1016
These 1015
group 1014
δ 1014
NAT@@ 1013
atures 1013
ération 1013
ן 1013
DDR 1012
alogue 1012
state 1012
auth@@ 1008
igher 1008
dik@@ 1007
Au 1006
Sanat@@ 1006
grand 1006
Soviet 1005
ɛ@@ 1003
Hamburg 1002
ganda 1002
slo@@ 1002
too 1002
ρ@@ 1001
kt@@ 999
mot 999
ּ@@ 996
Kent@@ 993
speci@@ 993
რ@@ 993
temps 992
Pia 991
enant 991
ored 991
Wien 990
érieure 990
büt@@ 989
д@@ 988
イ@@ 988
Phi 985
trou@@ 985
р 984
Landes@@ 983
eines 983
я 982
Eurovision 981
ched 980
Zeit@@ 979
serve 979
И@@ 979
nt 978
dak@@ 977
hak 977
jou@@ 976
osen 976
azz 975
semb@@ 975
vote 975
Ā@@ 975
Tsch@@ 974
ligence 974
ль@@ 973
ский 972
anak@@ 971
・ 971
speed 967
כ@@ 967
oğlu 966
college 965
alian 962
reven@@ 962
་ 962
books 961
hif@@ 961
may 961
zoni 961
jap@@ 959
Lan 958
ergie 958
Viet@@ 957
kub@@ 957
Mosk@@ 956
etten 956
ε@@ 956
comm@@ 953
eş@@ 953
ка 953
ools 952
י 952
μ 951
Califor@@ 950
gruppe 948
station 948
market 947
verl@@ 947
Catholic 946
Stif@@ 946
inan@@ 946
§ 946
gö@@ 945
indi 944
umia 944
ition 943
kem@@ 943
usu 943
tif 942
whe@@ 942
İ@@ 942
ր@@ 942
Quan 941
stra@@ 940
Operation 939
fed@@ 939
phi@@ 939
times 937
л@@ 937
standing 936
Arap@@ 935
Yoh@@ 934
évol@@ 934
bloc@@ 932
ders@@ 932
Mp@@ 931
hoa 931
Register 930
section 928
tail 928
Egyp@@ 927
hala 927
Galatasaray 926
Holz@@ 926
limited 925
schen@@ 925
Α@@ 924
National@@ 923
kana 922
klin 921
5. 920
done 920
К@@ 920
ability 918
château 918
äm@@ 918
äs@@ 917
Stoc@@ 916
essor 916
Fes@@ 914
Span@@ 914
arron@@ 914
mik@@ 914
ů@@ 914
ח@@ 914
first 913
gang 912
kav@@ 912
open 912
θ@@ 912
ָ@@ 912
ი 912
Par 911
ghi 911
ва 911
ichte 910
pik 909
Eins@@ 908
istin 908
sym@@ 908
ŏ@@ 908
и 908
Kreuz@@ 905
ι 905
Ofic@@ 904
known 904
code 903
équi@@ 903
ibi 902
ל 902
Hochschule 901
Mittel@@ 900
schi@@ 900
pay 899
novel 898
intro@@ 897
Klein@@ 896
were 895
hie 894
model 893
ლ@@ 891
Historic 890
endre 889
hasa 889
after 888
nek 888
ecke 887
ñ 887
avec 886
mab@@ 886
umbe 886
geri 885
intitul@@ 884
sports 884
aring 883
osu 883
ßen 883
bed 880
made 880
eneo 879
Κ@@ 878
reich 877
sah 876
etts 875
opening 875
Σ@@ 874
larla 873
פ@@ 873
former 872
tiques 872
dée 871
ո@@ 871
Chief 869
äh@@ 869
Université 868
yet@@ 868
ayed 866
wur@@ 865
ibu 864
Rä@@ 863
criv@@ 863
acqu@@ 862
ped 862
deven@@ 861
Zug@@ 860
Develop@@ 859
anian 859
arten 859
enzi 859
schrift 859
sour@@ 859
fiz@@ 858
zis@@ 858
Dollar 857
œur 856
Russian 855
actions 854
bt 853
ɪ@@ 853
kum 851
mt@@ 851
Lincol@@ 850
yab@@ 849
ikan@@ 848
Gonzá@@ 847
kam 847
sound 846
chall@@ 845
ר 843
linde 842
fie 841
riere 841
hous@@ 840
Dresden 839
kup@@ 839
ographie 839
wir@@ 839
zun@@ 839
Öz@@ 839
zek@@ 838
ラ@@ 838
Bei@@ 836
В@@ 836
ück@@ 835
tart@@ 834
apon 832
quan 832
amba@@ 831
performances 831
through 831
Im 830
President 830
near 829
Dez@@ 828
Kü@@ 828
arding 828
nouveau 827
seur 827
Govern@@ 826
Universität 826
erne@@ 826
verein 826
ɔ@@ 825
ְ@@ 825
Jewish 824
Wahl@@ 823
wart 823
м@@ 823
ions 822
ス@@ 822
Diy@@ 821
Marse@@ 821
coming 821
systems 821
utive 821
ême 821
abara 819
Professor 818
hand 818
ская 818
lak 817
others 817
а 817
imini 815
kat 815
Nh@@ 814
â 814
dig 813
Cerambycidae 811
mission 811
änder 811
Bür@@ 810
Firma 810
gart 810
ký 809
ס@@ 809
子 809
uw@@ 808
xin 806
ution@@ 805
Pub@@ 804
alisi@@ 804
kirche 804
tane 804
ŷ@@ 802
া@@ 802
gut 801
ilen 801
such@@ 801
Slov@@ 800
faire 800
rail 800
appen 799
dissement 798
ת@@ 798
wam@@ 797
kent 796
statt 796
title 796
rée 795
terres 795
φ 795
eln 794
Nguy@@ 793
forc@@ 793
ße 793
≤ 793
Wab@@ 791
ilien 791
subj@@ 790
χ@@ 790
atory 788
homme 788
Ἀ@@ 788
Ce 786
Tod 786
áng 785
Haus 784
Kör@@ 784
Uy@@ 783
tionn@@ 783
éré 783
angen 782
division 782
mf@@ 782
troph@@ 782
φ@@ 782
№ 782
6. 781
Nouv@@ 781
include 781
ète 781
с@@ 781
Ḥ@@ 781
8. 779
key@@ 779
rière 779
neur 778
oration 778
jah@@ 777
Λ@@ 776
ο@@ 776
Alter 775
äng@@ 775
ücke 775
icht@@ 774
otz 774
seri 774
abeth 773
common 773
unden 773
к@@ 773
pain@@ 772
kend@@ 771
span 771
Erz@@ 769
atten@@ 769
manager 769
ִ@@ 768
meth@@ 767
arrondissement 766
opér@@ 766
yum@@ 766
ル@@ 766
Verlag 765
beau@@ 765
score 765
Uk@@ 764
igner 764
Π@@ 764
ק@@ 764
abila 763
ential 763
gali@@ 763
Juli 762
complete 762
istic 762
tent 762
gold 760
liner 760
carte 759
using 759
Lai 758
last 758
äger 758
eding 757
poem 757
used 756
ン 756
ange@@ 755
ě 755
prit 754
waka 754
achen 753
agno@@ 753
lichen 753
uelle 752
ш@@ 752
Tam 750
esses 750
ρος 749
リ@@ 749
Linc@@ 748
iten@@ 748
stud@@ 748
Schles@@ 747
train 747
ἀ@@ 747
garde 746
views 743
yana@@ 743
éta@@ 742
℃ 742
Auf@@ 741
Journ@@ 741
spre@@ 741
wad@@ 741
loi 740
ngh@@ 739
ј@@ 738
theast 737
Hek@@ 735
histoire 734
Krieg@@ 733
pped 731
î 731
beri 730
canton 730
loss 730
ongo@@ 730
ourg 730
days 729
sert 729
v. 729
Ε@@ 729
fond@@ 728
player 728
spiel 727
À 727
Québec 726
gid@@ 726
iw@@ 726
deutsche 725
är 725
òn 724
ests 722
figh@@ 722
records 722
size 722
tay 721
Feuer@@ 720
Stadt@@ 720
Τ@@ 719
embe 718
kön@@ 718
anh 716
cedes 716
soon 715
Vak@@ 714
kik@@ 714
ácter 714
Schutz@@ 712
aving 712
fais@@ 711
Fenerbahçe 710
Iran 710
Japon 710
essed 709
ַ@@ 708
Sommer@@ 707
aison 707
ία 707
Akademie 706
cause 706
champi@@ 706
z. 706
äuser 706
Bu 705
axe 705
duy 705
ג@@ 705
Kunst 703
sort 703
ო@@ 703
down@@ 702
kamp@@ 702
М@@ 702
ezi 701
lö@@ 701
attr@@ 700
atür@@ 700
lai 700
Ör@@ 700
ün 699
Frau 698
Stell@@ 698
chí 698
ête 698
mass@@ 697
their 697
П@@ 697
Alger@@ 696
Bir 696
Kreis@@ 696
pequ@@ 696
portation 696
cao 695
yum 695
dix 694
éal 694
Seh@@ 693
Malay@@ 692
ー 691
ütz@@ 690
Sow@@ 689
öm@@ 689
Kari@@ 688
Liver@@ 688
evin 688
mode 688
èque 688
Hü@@ 687
langu@@ 687
█ 687
some 686
building 685
awa@@ 684
bang 684
т 684
ћ 684
celle 683
Ω 683
이@@ 683
ekt 682
tige 682
ッ@@ 682
› 681
ア@@ 681
Coupe 680
Mw@@ 680
ե@@ 680
Verte@@ 679
ы@@ 679
Ih@@ 678
fit 677
west@@ 677
ın 677
aka@@ 676
Kultur@@ 675
ahn@@ 675
lek 675
Posteri@@ 674
asse@@ 674
awe 674
Д@@ 674
October 673
с 672
у@@ 672
erste 671
isses 671
ω@@ 671
Bretagne 670
Mär@@ 670
football 670
ume@@ 670
Б@@ 670
König 669
мо@@ 669
Kreis 668
Regiment 668
bila 668
ished 668
hér@@ 667
kreis 667
who 667
äd@@ 667
‹ 667
alled 665
Japanese 664
ersch@@ 664
just 664
techn@@ 663
unu 663
7. 661
Geg@@ 661
Many 660
Wissen@@ 660
ь 660
Politi@@ 659
Singapore 659
hud@@ 659
joint 659
lá 659
sevi@@ 659
ნ@@ 659
ept 658
gence 658
urt@@ 658
ör 658
а@@ 658
isons 657
mül@@ 657
т@@ 657
tiy@@ 656
üd@@ 656
ь@@ 655
Finale 654
Jahr@@ 654
gebr@@ 654
thé@@ 654
value 653
anische 652
lage 652
aging 651
schaften 651
ède 651
bom 650
chter 650
ered 650
liches 650
unger 650
what 650
Kama 649
elte 649
Ò@@ 649
út@@ 649
ieder 648
kid@@ 648
lig 648
technique 648
koa 647
noch 647
rece@@ 647
reib@@ 647
е 647
publique 646
wag@@ 646
Г@@ 646
й@@ 646
Parti 645
Sied@@ 645
eci 645
ondo@@ 645
coul@@ 644
ί@@ 644
pression 643
ви@@ 643
я@@ 643
Russia 642
hava 642
langen 642
uzi 642
ла@@ 642
ḍ@@ 642
Nair@@ 641
euse 641
Afrika 640
session 640
stati@@ 640
Μ@@ 640
1980s 639
Their 639
angu 638
mg@@ 638
för@@ 636
each 633
spor 633
best@@ 632
deux 630
licher 630
ն 630
July 629
მ@@ 628
Wasser@@ 627
auen 626
taş 626
there 626
ņ@@ 626
ης 626
anst@@ 625
nation 625
nde@@ 625
while 624
Suisse 623
oran@@ 622
teilung 622
Yay@@ 621
kung 621
mek@@ 621
ucu 621
which 621
topl@@ 619
power@@ 618
record 618
source 618
appel 617
öd@@ 617
Kig@@ 616
adini 616
scor@@ 616
tered 616
ň 616
orod@@ 615
élé@@ 615
ι@@ 614
ვ@@ 614
Queens@@ 613
party 613
giz@@ 612
У@@ 612
kush@@ 611
Pour 610
igt 610
û 610
Ι@@ 610
τος 610
function 608
9. 607
hô@@ 607
atif 606
rép@@ 606
petit 605
της 605
ц@@ 605
天@@ 605
lung 604
Т@@ 604
ს@@ 604
Kinder@@ 603
sud 603
yav@@ 603
ко 603
Staff@@ 602
people 602
season 602
Gew@@ 601
Italian 601
lige 601
nek@@ 600
Found@@ 599
alien 599
news 599
Germany 598
Greek 598
eyi 598
ク@@ 598
Köln 597
sich@@ 597
山@@ 597
ân 596
Durant 595
issen@@ 595
aal@@ 594
sau 594
service 594
tá 594
Dör@@ 593
` 591
wake 591
üm 591
Ahmet 590
Eig@@ 590
Mül@@ 590
mr@@ 590
versit@@ 590
spect@@ 588
München 587
polé@@ 586
Ș@@ 586
Siy@@ 585
hips 585
з@@ 585
cá 584
kip@@ 584
ն@@ 584
royal 583
п@@ 583
Malaysia 582
afan@@ 582
toire 582
ül 582
⟩ 582
Akadem@@ 581
Straße 581
kale 581
msh@@ 581
participe 581
mt 580
possible 580
given 579
gend 578
lement 578
phys@@ 578
hili 577
η@@ 577
Stadt 576
management 576
page 576
ه@@ 576
been 575
eben@@ 575
vu 575
äch@@ 575
male 571
Ο@@ 571
dyn@@ 570
went 570
г@@ 570
Brazil 569
anese 569
fils 569
aham@@ 568
unza 568
ference 567
muz 567
née 567
Nguyễn 566
edition 566
⟨ 566
steri@@ 565
ṃ@@ 565
Later 564
Welt 564
Ö 564
schluss 563
aş 562
deutscher 562
kah@@ 562
leich@@ 562
™ 562
around 561
بن 561
უ@@ 561
iş@@ 560
Â@@ 560
Luft@@ 559
iye 558
Å 558
December 557
Tanz@@ 557
Woh@@ 557
father 557
ict 557
make 557
weit@@ 557
order 556
ра@@ 556
gew@@ 555
mee 555
υ@@ 554
fier 553
werke 553
begin 552
jina 552
magaz@@ 552
pok@@ 552
För@@ 551
proper@@ 551
Afrique 550
femme 550
écu@@ 550
alité 549
only 549
Blü@@ 548
Dies 547
While 547
diers 547
ür 547
Flug@@ 546
sek@@ 546
tepe 546
Δ 546
ле@@ 546
when 545
gare 544
tant 544
waj@@ 544
yse 544
ῖ@@ 544
making 543
note 543
Ν@@ 543
Waz@@ 542
siz 542
Schloss 541
trik 541
Beş@@ 540
Italy 540
français 540
elik 539
ungu 539
Н@@ 539
э@@ 539
iben 538
gesch@@ 537
polon@@ 537
Platz 536
amt 536
jour 535
studio 535
Assist@@ 534
kud@@ 534
wth 534
сь@@ 534
perform@@ 533
ım 533
hydro@@ 532
о@@ 532
Stim@@ 531
games 531
never 531
ט@@ 531
onné 530
teil 530
gemein@@ 529
στ@@ 529
ων 529
д 529
atik 528
pris 528
éné@@ 528
ǔ 528
ο 528
alition 527
antage 527
business 527
ό@@ 527
м 527
onnen 526
Leben 525
Staat@@ 525
ύ@@ 525
antu 524
Gür@@ 523
Um 523
wach@@ 523
mambo 522
mort 522
Schiff 521
diction 521
ehe 521
little 521
È@@ 521
ünde 521
ζ 521
≥ 521
部 521
ebu 520
нов 520
ewa 519
moun@@ 519
ÿ@@ 519
onu 518
ный 518
о 518
Büh@@ 517
Waj@@ 517
óng 517
צ@@ 517
ied 516
image 515
kuk 515
sich 515
‌ 515
シ@@ 514
dienst 513
noi 513
ма@@ 513
х@@ 513
ἐ@@ 513
Engl@@ 512
Poliz@@ 512
ained 512
idential 512
inu 512
provo@@ 512
roman 512
Er 511
ised 510
ufu 510
schaf@@ 509
ев 509
Zeit 508
appe@@ 508
ebook 508
held 508
lui 508
mess@@ 508
nur 507
ào 507
Assembly 506
Parliament 506
September 506
Sommer 506
ajili 506
older 506
ʃ@@ 506
kunde 505
ź@@ 505
Deutschen 504
Geschichte 504
Zentr@@ 504
anii 504
imbab@@ 504
schl@@ 504
ǐ 504
Р@@ 504
͡ 503
Buch 502
Sozial@@ 502
oyun@@ 502
über 502
Ма@@ 502
Organisation 501
illustr@@ 501
international 501
ukw@@ 501
ŭ@@ 501
и@@ 501
у 501
ト@@ 501
Yard@@ 500
kari@@ 500
Ко@@ 500
і 500
ի@@ 500
Burg 499
Rom 499
vili@@ 499
Í 499
ähr@@ 499
Σ 499
November 498
aliy@@ 498
exec@@ 498
lead@@ 498
studi@@ 498
≈ 498
abb@@ 497
coach 497
entale 496
rés@@ 496
mern 495
ám 495
山 495
ayak@@ 494
hier 494
kua 494
take 494
öz@@ 494
kich@@ 493
puis 493
Form 491
Ukr@@ 491
sied@@ 491
wanda 491
¼ 491
äf@@ 491
ко@@ 491
aged 490
sciences 490
zeug@@ 490
double 489
eins 489
number 489
vai 489
yet 489
ри@@ 489
République 488
appar@@ 488
bald 488
ichen 488
nete 488
yay@@ 488
ح@@ 488
taines 487
corps 486
¥ 485
Ć@@ 485
musique 484
nation@@ 484
singer 484
ğ 484
ĭ@@ 484
∞ 484
lı 483
nership 483
rais 483
∈ 483
nuev@@ 482
reve@@ 482
running 482
zuri 482
afin 481
anay@@ 481
près 481
spor@@ 481
unid@@ 481
ια 481
story 480
zwe@@ 480
Ø 480
Е@@ 480
‏ 480
三@@ 480
ни@@ 479
Böl@@ 478
ged@@ 478
maison 478
tigen 478
на@@ 478
fig 477
istre 476
ulation 476
Lond@@ 475
hali 475
zus@@ 475
Mehr@@ 474
Pakistan 474
bruch 474
annel 473
engi 473
illed 473
kwa 473
ه 473
again 472
до@@ 472
ла 472
Gül@@ 471
huo 471
typ@@ 471
wand@@ 471
ʾ@@ 471
ւ@@ 471
ル 471
一@@ 471
fif@@ 470
science 470
王@@ 470
matches 469
区 469
abab@@ 468
ي 468
ა 468
Cathol@@ 467
isine 467
onnes 467
three 467
tish@@ 467
οι 467
Gesch@@ 466
中@@ 466
Schauspi@@ 465
siè@@ 465
wash@@ 465
Я@@ 464
ли@@ 464
muz@@ 463
Ка@@ 463
Sä@@ 462
pont 462
family 461
wali 461
Über@@ 461
ή 461
յ@@ 461
Kich@@ 460
dok@@ 460
utsch@@ 460
Machi 459
Oly@@ 459
drit@@ 459
tete 459
urban 459
го@@ 459
für@@ 457
luk 457
such 457
ť 457
ბ@@ 457
Congr@@ 456
ṛ@@ 456
タ@@ 456
Bei 454
ağ@@ 454
guerre 454
thre@@ 454
wala 454
atta@@ 453
フ@@ 453
ided 452
ized 452
ť@@ 452
Β@@ 452
日@@ 452
Tube 451
election 451
евна 451
ро@@ 451
レ@@ 451
Gatt@@ 450
Yıl@@ 450
short 449
カ@@ 449
小@@ 449
nous 448
schul@@ 448
Ми@@ 448
্ 448
ologique 447
onya 447
vak@@ 447
ǐ@@ 447
ξ 447
aning 446
doğan 446
grade 446
lée 446
range 446
years 446
ρι@@ 446
isho 445
ét 445
Assemb@@ 444
Hindi 444
graphi@@ 444
Ms@@ 443
bele 443
ematik 443
olay@@ 443
wani 443
￼ 443
Gia 442
rév@@ 442
scienti@@ 442
études 442
σι@@ 442
李@@ 442
battle 441
jeune 441
schn@@ 441
ка@@ 441
新@@ 441
bish@@ 440
städ@@ 440
Salaam 439
рович 439
adet 438
ajiri 438
vom 438
Bis 437
Noctuidae 437
centre 437
ス 437
南@@ 437
alth 436
food 436
être 436
ɛ 436
ジ@@ 436
Russ@@ 435
hata 435
hoch@@ 435
maire 435
philosoph@@ 435
along 434
class@@ 434
Lauf@@ 433
course 433
cription 433
pour@@ 433
ś 433
dém@@ 432
high@@ 432
л 432
ロ@@ 432
zeit 431
ре@@ 431
fak@@ 430
forsch@@ 430
inner@@ 430
working 430
县 430
Preu@@ 429
τ 429
マ@@ 429
aters 428
undu 428
ɑ@@ 428
ει@@ 428
б@@ 428
cover@@ 427
heits@@ 427
ww@@ 427
Entw@@ 426
Lebens@@ 426
azim@@ 426
е@@ 426
ло@@ 426
市 426
Afgh@@ 425
four@@ 425
ın@@ 425
Landkreis 424
hali@@ 424
pays 424
said 424
ας 424
aled 423
clos@@ 423
ngo@@ 423
species 423
tür@@ 423
З@@ 423
่ 423
Democratic 422
article 422
dern 422
nord@@ 422
Ю@@ 422
г 422
ז@@ 422
ensive 421
fiction 421
mua 421
änger 421
êque 421
김@@ 421
Kenya 420
inay@@ 420
κα@@ 420
Werk@@ 419
petite 419
ät 419
ük 419
ά@@ 419
ř 418
ж@@ 418
ков 418
idence 417
anischen 416
average 416
uç@@ 416
¹ 416
ֹ@@ 416
anten 415
nicht 415
faz@@ 414
khi 414
offici@@ 414
second 414
ǔ@@ 414
თ@@ 414
Grup 413
Việt 413
cycle 413
wali@@ 413
Auch 412
♭ 412
海@@ 412
Espagne 411
eyal@@ 411
nouvelle 411
Φ@@ 411
ди@@ 411
დ@@ 411
broad@@ 410
imani 410
saint 410
sorg@@ 410
κ 410
ψ 410
ḷ@@ 410
文@@ 410
Kapit@@ 409
tels 409
нович 409
東@@ 409
yol 408
но@@ 408
Schiff@@ 407
Arbeit@@ 406
Klasse 406
Kongo 406
aliste 406
ikal@@ 406
Muhammed 405
cours 405
pewa 405
Quang 404
Verein@@ 404
ayd@@ 404
lungen 404
oldu@@ 404
plays 404
with@@ 404
محمد 404
jaw@@ 403
poss@@ 403
Église 403
ч@@ 403
based 402
Zu 401
fabri@@ 401
latter 401
leurs 401
rouge 401
本@@ 401
êtes 400
deur 399
ickl@@ 399
psych@@ 399
Orta 398
öch@@ 397
ır@@ 397
Description 396
annen 396
lieder 396
need 396
tarak@@ 396
Papua 395
font 395
tary 395
во@@ 395
Juni 394
akadem@@ 394
million 394
ologne 394
philos@@ 394
rates 394
Л@@ 394
ド@@ 394
k. 393
network 393
Ligi 392
points 392
Sachsen 391
èn 391
̃ 391
га 391
fight 390
format 390
private 390
ва@@ 390
ῶ@@ 390
～ 390
ش@@ 388
half 387
ба@@ 387
い@@ 387
hyp@@ 386
kea 386
schutz 386
tish 386
Kazak@@ 385
át 385
ık 385
ная 385
Partei 384
Verein 384
near@@ 384
onlyinclude 384
Γ@@ 384
ansi 383
ations@@ 383
einen 383
journ@@ 383
six 383
ɣ@@ 383
ὐ@@ 383
西@@ 383
金@@ 383
kü@@ 382
mars 382
pek@@ 382
ships 382
vard@@ 382
ük@@ 382
По@@ 382
ب@@ 382
‰ 382
Schweizer 381
buil@@ 381
confl@@ 381
高@@ 381
cath@@ 380
entation 380
femmes 380
syst@@ 380
国@@ 380
found@@ 379
give 379
sä@@ 379
田@@ 379
chim 378
⁄ 378
itze 377
onge@@ 377
ми@@ 377
duk@@ 376
ently 376
littér@@ 376
lost 376
sites 376
vip@@ 376
ي@@ 376
Conseil 375
ἰ@@ 375
Lehr@@ 374
atives 374
terie 374
wap@@ 374
не@@ 374
Hamil@@ 373
human 373
iled 373
innen 373
proj@@ 373
Fuß@@ 372
hup@@ 372
marque 372
unit 372
uş@@ 372
Köl@@ 371
Sez@@ 370
acked 370
arka 370
populaire 370
quay 370
rek@@ 370
spap@@ 370
Θ@@ 370
alized 369
entras 369
fait 369
Á 369
ر@@ 369
Its 368
concert 368
deutsch@@ 368
kek 368
ously 368
quali@@ 368
uku@@ 368
üst@@ 368
Mt@@ 367
buts 367
design 367
erini 367
trade 367
Mü@@ 366
anderen 366
u. 366
üng@@ 366
са@@ 366
א 366
ع@@ 366
‑ 366
elea 365
ensus 365
kama 365
க@@ 365
Meister 364
Werke 364
démoc@@ 364
Teil@@ 363
tische 363
tière 363
ık@@ 363
് 363
Landes 362
Schule 362
hö@@ 362
jour@@ 362
uma@@ 362
Sieg 361
deal 361
αν@@ 361
Ngo@@ 360
history 360
バ@@ 360
county 359
lili@@ 359
ʼ@@ 359
Welt@@ 358
altung 358
better 358
genus 358
richt 358
ymnasium 358
ان 358
ْ@@ 358
Hinter@@ 357
living 357
unat@@ 357
walt 357
đe 357
● 357
allem@@ 356
verband 356
without 356
ز@@ 356
Lage 355
wed 355
Χ@@ 355
ṅ@@ 355
Kinder 354
tout 354
zey@@ 354
zug@@ 354
ġ@@ 354
ικ@@ 354
το@@ 354
ة 354
ტ@@ 354
， 354
Punk@@ 353
imu 353
would 353
kaf@@ 352
still 352
ĕ@@ 352
ır 352
На@@ 352
Guerre 351
esine 351
future 351
giy@@ 351
tiv 351
adhi 350
ihr 350
Erk@@ 349
acts 349
batt@@ 349
came 349
plant 349
ʃ 349
не 349
ров@@ 349
politik 348
yani 348
ț 348
ɔ 348
χ 348
рий 348
ֵ@@ 348
ḥ 348
ト 348
afu 347
chanson 347
next 347
summer 347
thu 347
writer 347
Ц@@ 347
გ@@ 347
ს 347
amii 346
ammlung 346
espace 346
seinen 346
та@@ 346
Tür@@ 345
ofu 345
⊕ 345
architecture 344
between 344
fahr@@ 344
wahili 344
Ə@@ 344
ρά@@ 344
テ@@ 344
ebil@@ 343
mois 343
during 342
да 342
Tä@@ 341
anik@@ 341
level 341
umma 341
ôn 341
jeu 340
saire 340
teurs 340
şehir 340
ξ@@ 340
ك@@ 340
justice 339
völ@@ 339
ız 339
Alit@@ 338
Auf 338
gyp@@ 338
َ@@ 338
် 338
人 338
améric@@ 337
ǒ@@ 337
τι@@ 337
س@@ 337
ن@@ 337
ῆ@@ 337
キ@@ 337
ﬁ@@ 337
Ağ@@ 336
õ 336
ா@@ 336
ῦ@@ 336
↑ 336
」 336
agement 335
üz@@ 335
ρα@@ 335
Са@@ 335
ج@@ 335
ὶ 335
「 335
Hồ 334
company 334
zeh@@ 334
ď@@ 334
amini 333
ciud@@ 333
kuz@@ 333
rain@@ 333
tous 333
trois 333
ы 333
assemb@@ 332
kuch@@ 332
quy 332
Ρ@@ 332
Ш@@ 332
Kale 331
Sicher@@ 331
avu 331
before 331
etin 331
Э@@ 331
☆ 331
子@@ 331
王 331
Thanh 330
hari@@ 330
Ку@@ 330
ق@@ 330
Amt 329
cathol@@ 329
mev@@ 329
town@@ 329
то@@ 329
≫ 329
Halb@@ 328
Lê 328
fulani 328
veren 328
≠ 328
太@@ 328
Türk 327
Waf@@ 327
ɡ@@ 327
ρο@@ 327
な@@ 327
Bau 326
verw@@ 326
Х@@ 326
្ 326
dair 325
proche 325
≪ 325
道 325
akt@@ 324
bür@@ 324
nung 324
origine 324
Бо@@ 324
за@@ 324
≡ 324
dogo 323
λλ@@ 323
ї@@ 323
ֶ@@ 323
aam 322
kali 322
nombre@@ 322
Über 322
ч 322
上@@ 322
神@@ 322
heav@@ 321
nok@@ 321
person 321
songs 321
techni@@ 321
thiop@@ 321
zey 321
տ@@ 321
د@@ 321
인@@ 321
dari 320
office 320
έ@@ 320
ἄ@@ 320
Jugend@@ 319
Wirt@@ 319
donne 319
trop 319
ل@@ 319
Osman@@ 318
aître 318
ний 318
ра 318
Dans 317
Grupp@@ 317
Trần 317
mark@@ 317
ác 317
protein 316
siz@@ 316
ψ@@ 316
ِ@@ 316
Kih@@ 315
being 315
¬ 315
Ар@@ 315
五@@ 315
Zur 314
dau@@ 314
sent 314
ħ@@ 314
ль 314
Poland 313
cour 313
encore 313
hydr@@ 313
ikit@@ 313
viel 313
diffus@@ 312
де@@ 312
ィ@@ 312
Akad@@ 311
award 311
nature 311
ouver@@ 311
άν@@ 311
Александ@@ 311
ב 311
♯ 311
し@@ 311
Ende 310
etk@@ 310
olu 310
yao 310
ên 310
Privat@@ 309
Ра@@ 309
ি@@ 309
კ@@ 309
Ṣ@@ 309
國@@ 309
Mitte 308
access 308
classi@@ 308
zuk@@ 308
Belgique 307
basis 307
contre 307
imz@@ 307
propri@@ 307
¢ 307
Ро@@ 307
⋅ 307
Ayn@@ 306
Ereb@@ 306
Paşa 306
Province 306
analy@@ 306
diff@@ 306
sculp@@ 306
waf@@ 306
安@@ 306
Chí 305
January 305
Kommun@@ 305
ikia 305
women 305
Бе@@ 305
オ@@ 305
Janu@@ 304
Selb@@ 304
einem 304
田 304
geschichte 303
parall@@ 303
timestamp 303
Kamer@@ 302
ehir 302
kuf@@ 302
nte 302
Öl@@ 302
Œ@@ 302
з 302
deren 301
mais 301
mün@@ 301
poin@@ 301
م@@ 301
შ@@ 301
betr@@ 300
figure 300
Süper 299
could 299
êts 299
đ 299
ხ@@ 299
人@@ 299
archit@@ 298
upendo 298
во 298
Deniz 297
feu@@ 297
moderne 297
pili 297
race 297
ʾ 297
ί 297
Ба@@ 297
Влади@@ 297
ров 297
‐ 297
Wam@@ 296
iture 296
journal 296
language 296
ÿ 296
ŋ@@ 296
ή@@ 296
Beledi@@ 295
Eine 295
ached 295
naye 295
nne 295
quot@@ 295
yeri 295
Ñ 295
Ŷ@@ 295
س 295
ḫ@@ 295
Kati 294
Sudan 294
Türkiye 294
member 294
passe 294
¾ 294
ŋ 294
га@@ 294
้ 294
ennen 293
kuj@@ 293
ļ@@ 293
Ľ@@ 293
Александр 293
Ле@@ 293
北@@ 293
Regierungs@@ 292
erei 292
αυ@@ 292
ζ@@ 292
ρα 292
За@@ 292
ى 292
Grenz@@ 291
Gruppe 291
Văn 291
ası 291
istische 291
sö@@ 291
по@@ 291
ו 291
خ@@ 291
ウ@@ 291
culture 290
luk@@ 290
nh 290
pou@@ 290
été 290
ব@@ 290
ி@@ 290
Dorf@@ 289
physi@@ 289
prati@@ 289
rejo@@ 289
soll 289
ż 289
ʰ@@ 289
та 289
Population 288
Ses 288
table@@ 288
voix 288
ʿ 288
αλ@@ 288
ве@@ 288
ти@@ 288
aî@@ 287
kuh@@ 287
mpi@@ 287
schle@@ 287
some@@ 287
ск 287
サ@@ 287
---- 286
ʲ@@ 286
城 286
白@@ 286
Leiter 285
dö@@ 285
fille 285
going 285
wale 285
са 285
ط@@ 285
ⴰ@@ 285
か@@ 285
エ@@ 285
Flü@@ 284
differ@@ 284
tiki 284
turn 284
να@@ 284
Пет@@ 284
Со@@ 284
ё@@ 284
Anh 283
donn@@ 283
envir@@ 283
foot@@ 283
seh@@ 283
teren 283
évision 283
па@@ 283
со@@ 283
ミ@@ 283
ャ@@ 283
Denk@@ 282
Doppel@@ 282
issant 282
maî@@ 282
money 282
örd@@ 282
Ан@@ 282
์ 282
atisti@@ 281
beit@@ 281
great 281
си@@ 281
া 281
Sơn 280
schwar@@ 280
soka 280
άλ@@ 280
gesellschaft 279
ohne 279
sawa 279
writ@@ 279
édo@@ 279
öy 279
бо@@ 279
ги@@ 279
ד 279
achsen 278
chung 278
dung 278
emplo@@ 278
leader 278
mission@@ 278
oires 278
recherche 278
against 277
event 277
ερ@@ 277
вка 277
ру@@ 277
կ@@ 277
Sohn 276
cinéma 276
contributor 276
cycl@@ 276
müh@@ 276
project 276
umani 276
лович 276
ナ@@ 276
Amérique 275
Aş@@ 275
Sau 275
Since 275
inah@@ 275
production 275
но 275
د 275
Career 274
deutschen 274
ις 274
да@@ 274
kanda 273
kura 273
nun 273
sehen 273
ustri@@ 273
Đại 273
Ț@@ 273
αι@@ 273
С 273
бе@@ 273
之@@ 273
pendant 272
ätten 272
ακ@@ 272
江@@ 272
美@@ 272
Phong 271
ehen 271
huri 271
neh@@ 271
pied 271
positions 271
release 271
schafts@@ 271
schreib@@ 271
standard 271
αρ@@ 271
ehri 270
meni 270
spiele 270
ос@@ 270
عبد 270
mek 269
seven 269
yako 269
Allem@@ 268
Bình 268
Kif@@ 268
Nä@@ 268
label 268
modern 268
sage 268
teh@@ 268
username 268
eigen@@ 267
honneur 267
neu 267
ŷ 267
λος 267
μα@@ 267
ски 267
ف@@ 267
た@@ 267
武@@ 267
auti 266
bierno 266
eption 266
kiye 266
trique 266
ки 266
Jimbo 265
Unter 265
ου 265
Demokrati@@ 264
Fahr@@ 264
azam@@ 264
Ü 264
ų 264
θος 264
ου@@ 264
த@@ 264
Künst@@ 263
mother 263
octu@@ 263
áo 263
ʊ@@ 263
Ж@@ 263
ат@@ 263
น@@ 263
ე 263
ệm 263
Topl@@ 262
aç 262
chemin 262
äre 262
ą 262
ма 262
스@@ 262
Turkana 261
bare 261
cai 261
func@@ 261
☉ 261
ん 261
Amerika 260
Rolle 260
devant 260
runs 260
ан@@ 260
те@@ 260
ц 260
州 260
early 259
öff@@ 259
ǎ 259
ɾ@@ 259
ế 259
会@@ 259
diffic@@ 258
km2 258
kuna 258
length 258
okrati@@ 258
èmes 258
ս@@ 258
コ@@ 258
appro@@ 257
hiwa 257
national@@ 257
quand 257
septi@@ 257
Liste 256
Ninh 256
aiss@@ 256
bahar@@ 256
concept 256
gericht 256
scheid@@ 256
äus@@ 256
çe 256
デ@@ 256
alı 255
générale 255
ismus 255
ʒ@@ 255
ニ@@ 255
パ@@ 255
式@@ 255
Haup@@ 254
Kür@@ 254
affa@@ 254
ilik@@ 254
ispi@@ 254
parc 254
theory 254
wissen@@ 254
Γ 254
Φ 254
А 254
Ч@@ 254
ар@@ 254
find 253
général 253
igung 253
irik@@ 253
prix 253
those 253
vile 253
İn@@ 253
র@@ 253
ん@@ 253
Norden 252
eded 252
ejeo 252
lesia 252
milli@@ 252
raum 252
チ@@ 252
Drit@@ 251
athol@@ 251
comment 251
goal 251
wei@@ 251
Ա@@ 251
明@@ 251
道@@ 251
dows 250
ically 250
Ва@@ 250
Göl@@ 249
ensemble 249
köy 249
和@@ 249
物@@ 249
porting 248
stanbul 248
stelle 248
État 248
àng 248
← 248
Weit@@ 247
ال@@ 247
平@@ 247
정@@ 247
Hàn 246
ingly 246
religion 246
ènes 246
х 246
ш 246
い 246
き@@ 246
一 246
리@@ 246
Baş@@ 245
Indon@@ 245
Martí@@ 245
ately 245
bezirk 245
moja 245
Мо@@ 245
ল@@ 245
公@@ 245
Chama 244
Yeni 244
bind@@ 244
must 244
nord 244
oben 244
pek 244
ulaire 244
óa 244
λι@@ 244
πι@@ 244
り@@ 244
isation 243
kani 243
unique 243
ıy@@ 243
الله 243
的@@ 243
Türk@@ 242
featur@@ 242
five 242
ু@@ 242
₹ 242
う@@ 242
ラ 242
Män@@ 241
asked 241
ived 241
Никола@@ 241
Ф@@ 241
Lig 240
fte 240
sett@@ 240
teil@@ 240
yük 240
Č 240
̀ 240
μα 240
сла@@ 240
و 240
女@@ 240
Arbeits@@ 239
ammen 239
found 239
hek@@ 239
ánh 239
вна 239
кий 239
нова 239
ர@@ 239
グ@@ 239
formed 238
move 238
ogle 238
seig@@ 238
ů 238
花@@ 238
Bürger@@ 237
Muhar@@ 237
Quảng 237
Zum 237
aşa 237
chron@@ 237
every 237
όν 237
че@@ 237
水@@ 237
Hoa 236
Leip@@ 236
distinc@@ 236
kiz@@ 236
yok 236
© 236
الح@@ 236
と@@ 236
社 236
Osten 235
Qué@@ 235
Rang 235
ajwa 235
atiques 235
ift@@ 235
information 235
research 235
ού@@ 235
К 235
ст@@ 235
़ 235
대@@ 235
fahrt 234
gabe 234
ingt 234
ха@@ 234
ի 234
♥ 234
Früh@@ 233
Gleich@@ 233
Kır@@ 233
Wahl 233
bö@@ 233
enfants 233
geg@@ 233
istère 233
nhof 233
Ú 233
ätte 233
Ř@@ 233
ων@@ 233
Алек@@ 233
лов 233
√ 233
四@@ 233
Höh@@ 232
pale 232
uppen 232
να 232
ме@@ 232
林@@ 232
지@@ 232
Có 231
Städ@@ 231
houses 231
six@@ 231
siy@@ 231
study 231
yans@@ 231
се@@ 231
ு@@ 231
Meter 230
Preis 230
Wieder@@ 230
grub@@ 230
island 230
âce 230
ächs@@ 230
θε@@ 230
Ру@@ 230
الق@@ 230
ably 229
released 229
İs@@ 229
ׁ@@ 229
Wais@@ 228
alise 228
eshwa 228
ihn 228
Ω@@ 228
ώ@@ 228
До@@ 228
م 228
ম@@ 228
aily 227
famous 227
ieh@@ 227
livre 227
waw@@ 227
zed 227
ích 227
ôle 227
Дмит@@ 227
ハ@@ 227
한@@ 227
Eigen@@ 226
Ukraine 226
anach@@ 226
coi 226
fik@@ 226
gré 226
large 226
Ē@@ 226
ʔ@@ 226
μος 226
Сергей 226
↔ 226
enced 225
première 225
ziy@@ 225
ля@@ 225
ا 225
く@@ 225
モ@@ 225
Sous 224
conom@@ 224
khi@@ 224
nje 224
wär@@ 224
τα 224
Де@@ 224
ま@@ 224
트 224
Nha 223
cost 223
ersten 223
fü@@ 223
lerin 223
lý 223
uzak@@ 223
étés 223
Не@@ 223
ம@@ 223
Anadolu 222
agric@@ 222
development 222
elected 222
insel 222
ismi 222
klasse 222
lere 222
tourn@@ 222
миро@@ 222
Carrière 221
Zentrum 221
ested 221
stellung 221
these 221
training 221
vely 221
waz@@ 221
wert 221
île 221
Ţ@@ 221
մ@@ 221
メ@@ 221
alich@@ 220
baseball 220
franç@@ 220
λε@@ 220
ע 220
র 220
chte 219
lead 219
ài 219
şi 219
Meister@@ 218
Nyan@@ 218
ca. 218
dynam@@ 218
fallen 218
kais@@ 218
langue 218
Ül@@ 218
̣ 218
εν@@ 218
І@@ 218
Алексе@@ 218
рина 218
хо@@ 218
ち@@ 218
十@@ 218
Sein 217
Ufa 217
chief 217
durch 217
tip 217
πο@@ 217
би@@ 217
ку@@ 217
ска 217
ص@@ 217
ὁ 217
ダ@@ 217
Aus 216
attach@@ 216
certain 216
children 216
commune 216
present 216
roul@@ 216
third 216
writing 216
ít 216
δι@@ 216
ду@@ 216
кова 216
ド 216
ブ@@ 216
島 216
엔@@ 216
터@@ 216
Gök@@ 215
areas 215
cases 215
maç@@ 215
ologische 215
Minister 214
Première 214
agit 214
erischen 214
famil@@ 214
much 214
sold 214
succ@@ 214
ɨ@@ 214
О 214
ков@@ 214
غ@@ 214
Jeux 213
emble 213
koy@@ 213
ˌ@@ 213
Но@@ 213
ப@@ 213
木@@ 213
石@@ 213
Giang 212
bire@@ 212
bisher 212
duc 212
fern 212
haut 212
parentid 212
villes 212
ǫ@@ 212
άρ@@ 212
ши@@ 212
जिला 212
ュ@@ 212
郎 212
Département 211
basketball 211
program 211
voi 211
ен@@ 211
ា@@ 211
├ 211
年@@ 211
국@@ 211
Ermen@@ 210
Philippines 210
operation 210
utenant 210
όν@@ 210
ф@@ 210
Ἰ@@ 210
associ@@ 209
attack 209
close 209
ihr@@ 209
pair 209
schaft@@ 209
änd@@ 209
ʁ@@ 209
̯ 209
ών 209
Мар@@ 209
Се@@ 209
гор@@ 209
нов@@ 209
お@@ 209
さ@@ 209
ク 209
Als 208
autres 208
père 208
w.@@ 208
Österreich 208
ον@@ 208
ъ 208
京@@ 208
青@@ 208
Kultur 207
dül@@ 207
mif@@ 207
route 207
ıl@@ 207
λα@@ 207
ди 207
ძ@@ 207
Ἐ@@ 207
不@@ 207
川@@ 207
ESCO 206
III. 206
another 206
contact 206
erung 206
gemeinde 206
issue 206
prak@@ 206
special 206
week@@ 206
ιν@@ 206
வ@@ 206
Comme 205
zeich@@ 205
ţ 205
ник 205
ское 205
ம 205
八@@ 205
autre 204
eich@@ 204
engine 204
historique 204
ην@@ 204
ქ@@ 204
の 204
Kateg@@ 203
community 203
gez@@ 203
hommes 203
multiple 203
quatre 203
schools 203
öst@@ 203
üş@@ 203
ر 203
学@@ 203
行 203
comme 202
fand 202
mobil@@ 202
okul@@ 202
sched@@ 202
sind 202
square 202
ätz@@ 202
Υ@@ 202
ق 202
ง@@ 202
architec@@ 201
direct 201
hors 201
lowing 201
meeting 201
spiel@@ 201
ę 201
、 201
II. 200
Oy 200
amér@@ 200
dungs@@ 200
forms 200
lege 200
länd@@ 200
muh@@ 200
où 200
parts 200
weil 200
ôt 200
ά 200
δρ@@ 200
ро 200
ℓ 200
地@@ 200
application 199
atao 199
both 199
régi@@ 199
should 199
Го@@ 199
少@@ 199
이 199
（ 199
Gemein@@ 198
Kirche 198
Mit 198
frequ@@ 198
istique 198
politique 198
wife 198
ста@@ 198
Ethiop@@ 197
kent@@ 197
spek@@ 197
tend 197
çu 197
Λ 197
ες 197
إ@@ 197
아@@ 197
Loan 196
haup@@ 196
process@@ 196
veaux 196
κος 196
τα@@ 196
ḏ@@ 196
ṭ 196
ガ@@ 196
ム 196
Ngô 195
anded 195
does 195
çi 195
사@@ 195
Büyük@@ 194
aile 194
collection 194
soy@@ 194
takes 194
του 194
រ@@ 194
村 194
February 193
Israeli 193
Mais 193
Position 193
century 193
president 193
sition 193
trag 193
αμ@@ 193
あ@@ 193
光@@ 193
家@@ 193
먼@@ 193
테@@ 193
Bere@@ 192
après 192
census 192
fact 192
sont 192
there@@ 192
üf@@ 192
Сер@@ 192
Су@@ 192
್ 192
ぶ 192
プ@@ 192
Schweiz 191
frau 191
phase 191
Ġ@@ 191
ũ@@ 191
） 191
ased 190
ühr@@ 190
üne 190
İstanbul 190
ιος 190
νη 190
Во@@ 190
Ки@@ 190
ли 190
ни 190
ур@@ 190
└ 190
は@@ 190
川 190
Bezir@@ 189
Frauen 189
linal@@ 189
élém@@ 189
Η@@ 189
αγ@@ 189
ק 189
ア 189
民@@ 189
airman 188
fäl@@ 188
lisi 188
revision 188
signed 188
äu@@ 188
ŭ 188
ικός 188
рь@@ 188
الع@@ 188
陳@@ 188
Lý 187
dire 187
région 187
école 187
ɪ 187
Бу@@ 187
бу@@ 187
ت@@ 187
แ@@ 187
国 187
生@@ 187
Studium 186
covered 186
Α 186
Περ@@ 186
ש 186
أبو 186
الم@@ 186
城@@ 186
Forschungs@@ 185
bande 185
compan@@ 185
cô@@ 185
droit 185
jours 185
sao 185
vur@@ 185
written 185
κο@@ 185
ло 185
си 185
় 185
张@@ 185
Wie 184
alipo@@ 184
commerce 184
solution 184
ìn 184
ɑ 184
Ν 184
ασ@@ 184
Об@@ 184
ར@@ 184
ῦ 184
ァ@@ 184
Hata 183
akula 183
alten 183
sionn@@ 183
together 183
ım@@ 183
чи@@ 183
空@@ 183
Doğ@@ 182
combat 182
doa 182
hale 182
му@@ 182
ب 182
。 182
る 182
ョ@@ 182
立@@ 182
called 181
gauche 181
heit@@ 181
minister 181
north 181
partment 181
Ğ@@ 181
Си@@ 181
▪ 181
る@@ 181
ム@@ 181
elled 180
khu 180
lerini 180
prince 180
process 180
term 180
üler 180
Θε@@ 180
Ла@@ 180
ал@@ 180
Հ@@ 180
イ 180
生 180
Rück@@ 179
Sie 179
kuk@@ 179
wissenschaft@@ 179
լ@@ 179
ὰ 179
り 179
正@@ 179
Agosti 178
current 178
laka 178
professor 178
result 178
µ 178
εία 178
πος 178
ρί@@ 178
τρ@@ 178
Михай@@ 178
хи@@ 178
را@@ 178
こ@@ 178
方@@ 178
 178
Rodrí@@ 177
gave 177
kiş@@ 177
ки@@ 177
ү@@ 177
վ@@ 177
ـ@@ 177
ক@@ 177
জ@@ 177
₩ 177
株@@ 177
Nach 176
arı 176
energy 176
erster 176
ganz@@ 176
hadi 176
issu@@ 176
jeun@@ 176
ları 176
village 176
ман 176
ச@@ 176
ェ@@ 176
九@@ 176
長@@ 176
박@@ 176
Jahre 175
St. 175
addi@@ 175
elten 175
kati@@ 175
Égl@@ 175
ände 175
ınar 175
και 175
Ха@@ 175
слав 175
ство 175
щина 175
و@@ 175
ὸ@@ 175
∗ 175
bà 174
deutsch 174
eher 174
finished 174
help 174
ifs 174
lichkeit 174
onnement 174
parties 174
prés@@ 174
ོ@@ 174
东@@ 174
의 174
Kore 173
Polen 173
besch@@ 173
elik@@ 173
minin 173
placement 173
transfer 173
trí 173
tä@@ 173
ό 173
И 173
Про@@ 173
ное 173
《 173
ズ 173
ビ@@ 173
조@@ 173
internationale 172
kij@@ 172
ministre 172
selves 172
studies 172
ugen@@ 172
và 172
était 172
üre@@ 172
мир 172
ния 172
ше@@ 172
₂ 172
堂 172
文 172
神 172
주@@ 172
Zür@@ 171
ƒ 171
Ζ@@ 171
άστ@@ 171
γαλ@@ 171
Серге@@ 171
тина 171
ন@@ 171
》 171
周@@ 171
Kül@@ 170
Tage 170
Verk@@ 170
bâ@@ 170
collec@@ 170
khu@@ 170
rement 170
sozial@@ 170
óm 170
ρε@@ 170
όσ@@ 170
ца 170
ف 170
ら@@ 170
張@@ 170
月@@ 170
Genç@@ 169
endant 169
gek@@ 169
isant 169
tisch 169
topr@@ 169
ής 169
εφαλ@@ 169
ισ@@ 169
су@@ 169
њ@@ 169
ে@@ 169
ზ@@ 169
に@@ 169
真@@ 169
Proz@@ 168
azine 168
eure 168
itié 168
mà 168
urba@@ 168
äts@@ 168
ܐ 168
藤@@ 168
Bahari 167
COVI@@ 167
Komit@@ 167
Zus@@ 167
alama 167
ilities 167
role 167
tlich 167
ıl 167
Ō 167
гу@@ 167
أ@@ 167
野@@ 167
阿@@ 167
성@@ 167
département 166
partamento 166
seul 166
telle 166
tronesia 166
yü@@ 166
öne 166
б 166
льный 166
ю@@ 166
二@@ 166
Gegen@@ 165
Nga 165
Situation 165
ambao 165
group@@ 165
iliy@@ 165
irani 165
missions 165
trai 165
zeit@@ 165
ämp@@ 165
İl@@ 165
şe 165
ʔ 165
εύ@@ 165
пе@@ 165
ノ@@ 165
According 164
finale 164
haa 164
links 164
means 164
otball 164
εια 164
Ал@@ 164
Анато@@ 164
Владимир 164
Га@@ 164
Ни@@ 164
То@@ 164
аль@@ 164
лу@@ 164
Kuv@@ 163
aliye@@ 163
atika 163
cette 163
gebung 163
malar 163
ριος 163
В 163
ми 163
প@@ 163
劉@@ 163
美 163
신@@ 163
Olympics 162
education 162
grund 162
meister@@ 162
past 162
İz@@ 162
Δι@@ 162
Ста@@ 162
пи@@ 162
ր 162
馬@@ 162
Mutter 161
απ@@ 161
μέ@@ 161
Му@@ 161
河@@ 161
Buna 160
ahlen 160
different 160
nouvelles 160
playing 160
punk@@ 160
wegung 160
М 160
ти 160
ך 160
า@@ 160
20. 159
Dunia 159
Unis 159
because 159
centrale 159
demi 159
govern@@ 159
groups 159
ortho@@ 159
surviv@@ 159
thode 159
tions@@ 159
ttem@@ 159
verein@@ 159
érieur 159
Ī@@ 159
ű@@ 159
Та@@ 159
ор@@ 159
ட@@ 159
བ@@ 159
★ 159
中国@@ 159
Häl@@ 158
Insel 158
Rais 158
Rechts@@ 158
abei 158
politiques 158
wenda 158
Ј@@ 158
ге@@ 158
ار@@ 158
セ@@ 158
吉@@ 158
Verwaltungs@@ 157
charg@@ 157
seat 157
tionen 157
zentrum 157
он 157
ية 157
ّ@@ 157
ন 157
原@@ 157
春@@ 157
陈@@ 157
Hà 156
andere 156
fédér@@ 156
gique 156
iteur 156
même 156
nda 156
sych@@ 156
âm 156
Пе@@ 156
ار 156
ی 156
গ@@ 156
ῥ@@ 156
communic@@ 155
uş 155
wenn 155
κλ@@ 155
Да@@ 155
Иванович 155
Р 155
ева 155
љ@@ 155
ὑ@@ 155
‒ 155
つ@@ 155
会 155
寺 155
松@@ 155
福@@ 155
critique 154
denk@@ 154
huru 154
ihe 154
larda 154
ʂ@@ 154
ελ@@ 154
Ս@@ 154
գ@@ 154
الج@@ 154
ἔ@@ 154
江 154
도 154
Besch@@ 153
Hiv@@ 153
akini 153
lagen 153
mondi@@ 153
since 153
umbu@@ 153
Đồng 153
У 153
зо@@ 153
Ṭ@@ 153
ὀ@@ 153
민@@ 153
Verkehr@@ 152
author@@ 152
emple 152
features 152
fully 152
gelen@@ 152
lég@@ 152
south 152
zug 152
άκ@@ 152
ορ@@ 152
лек@@ 152
ск@@ 152
大 152
都@@ 152
黄@@ 152
동@@ 152
edrich 151
gestion 151
jini 151
satz 151
umri 151
élec@@ 151
öne@@ 151
ört@@ 151
üt 151
Николай 151
лов@@ 151
য 151
ṯ@@ 151
Gesamt@@ 150
atwa 150
ağ 150
industrie 150
isé 150
official 150
portant 150
rait 150
urch 150
wanza 150
òng 150
út 150
των 150
ев@@ 150
ا@@ 150
っ@@ 150
自@@ 150
語 150
軍 150
通@@ 150
도@@ 150
하@@ 150
Mr. 149
bisch@@ 149
effect 149
lise 149
sols 149
tatu 149
today 149
within 149
öß@@ 149
ن 149
گ@@ 149
ས 149
千@@ 149
女 149
書 149
Armee 148
district 148
longu@@ 148
ogoro 148
pler@@ 148
träge 148
Đức 148
Π 148
μι@@ 148
υ 148
Никола 148
Укра@@ 148
за 148
ܝ@@ 148
ܟ@@ 148
ท@@ 148
ག@@ 148
が@@ 148
み@@ 148
시@@ 148
Hanno@@ 147
Mississi@@ 147
Venedi@@ 147
association 147
complex 147
dire@@ 147
insan@@ 147
kül@@ 147
rence 147
sitz@@ 147
trä@@ 147
ķ@@ 147
˚ 147
ге 147
Մ@@ 147
म@@ 147
永@@ 147
10. 146
Nint@@ 146
Trung 146
Wasser 146
angwa 146
avril 146
ağı 146
changes 146
marché 146
published 146
report 146
trat 146
ˁ@@ 146
ба 146
э 146
్ 146
မ@@ 146
古@@ 146
戦@@ 146
among 145
kräf@@ 145
places 145
round@@ 145
transport 145
werk@@ 145
đa 145
ɨ 145
мен@@ 145
ري@@ 145
ত@@ 145
ང 145
Ἄ@@ 145
行@@ 145
ꞌ@@ 145
수@@ 145
Fernseh@@ 144
Kloster 144
biri 144
kili@@ 144
meas@@ 144
miembr@@ 144
strum@@ 144
σα 144
ボ@@ 144
主@@ 144
元@@ 144
法@@ 144
제@@ 144
Dorf 143
above 143
eleri 143
moment 143
related 143
support 143
tesi 143
ufu@@ 143
ɒ@@ 143
ʽ@@ 143
кин 143
ိ@@ 143
ọ 143
♦ 143
ケ@@ 143
明 143
Mf@@ 142
allow@@ 142
bali 142
interest 142
laun@@ 142
rights 142
écol@@ 142
üçük 142
Вале@@ 142
Ви@@ 142
ке 142
ша@@ 142
よ@@ 142
教@@ 142
원 142
Kirchen@@ 141
Krieg 141
Phú 141
died 141
gebi@@ 141
minutes 141
wao 141
yapan 141
হ@@ 141
士 141
州@@ 141
기@@ 141
cez@@ 140
esini 140
istik 140
nine 140
onyme 140
portr@@ 140
services 140
timi 140
Ве@@ 140
Па@@ 140
Ре@@ 140
ве 140
сто@@ 140
ח 140
ט 140
木 140
Zanzibar 139
esab@@ 139
gende 139
graphie 139
gün 139
tischen 139
 139
Ön@@ 139
ŵ@@ 139
Ме@@ 139
лий 139
ша 139
թ@@ 139
ס 139
يد 139
我@@ 139
星@@ 139
部@@ 139
19. 138
Italie 138
alismus 138
bord 138
degree 138
fut 138
krieg@@ 138
kumi 138
meil@@ 138
parti 138
woh@@ 138
χν@@ 138
դ@@ 138
স@@ 138
ห 138
成@@ 138
有@@ 138
清@@ 138
accoun@@ 137
coup 137
environ@@ 137
feature 137
klär@@ 137
kund@@ 137
mise 137
sociation 137
ʒ 137
̪ 137
ίας 137
σκ@@ 137
жи@@ 137
ст 137
ղ@@ 137
اب@@ 137
الس@@ 137
ُ@@ 137
も@@ 137
漢@@ 137
黃@@ 137
스 137
Thị 136
artist 136
hours 136
minute 136
plann@@ 136
taki 136
voie 136
ʊ 136
ολ@@ 136
Ду@@ 136
Я 136
ин@@ 136
пу@@ 136
ө@@ 136
ش 136
ܡ@@ 136
ṣ 136
島@@ 136
無@@ 136
町 136
선@@ 136
Chuo 135
author 135
edern 135
including 135
programm@@ 135
timents 135
Š 135
άς 135
本 135
門 135
龍@@ 135
Republik 134
convir@@ 134
mère 134
oğ@@ 134
tainment 134
trieb@@ 134
wezi 134
ĩ@@ 134
ɕ@@ 134
ική 134
όρ@@ 134
Рес@@ 134
الأ@@ 134
ಾ@@ 134
ေ@@ 134
⅓ 134
園 134
皇@@ 134
리 134
우@@ 134
유@@ 134
Bảo 133
Erebidae 133
Für 133
Heimat@@ 133
Vater 133
Weg 133
arbeit@@ 133
commer@@ 133
ellschaft 133
génér@@ 133
lte 133
ruh@@ 133
southern 133
specific 133
supérieur 133
unzi 133
áp 133
το 133
ле 133
宮@@ 133
愛@@ 133
Literatur 132
behind 132
fach 132
ileri 132
location 132
réalis@@ 132
ách 132
зи@@ 132
санд@@ 132
দ@@ 132
ἴ@@ 132
서@@ 132
alisation 131
alités 131
comment@@ 131
ecken 131
ordre 131
question 131
reli 131
ış 131
ɾ 131
όδ@@ 131
Ива@@ 131
При@@ 131
Ша@@ 131
жа@@ 131
қ@@ 131
بي@@ 131
ܘ@@ 131
ც@@ 131
〜 131
下@@ 131
市@@ 131
Bahn@@ 130
Bahnhof 130
Forsch@@ 130
comte 130
einture 130
gef@@ 130
leitung 130
mechan@@ 130
meli 130
mée 130
nden 130
rä@@ 130
seit@@ 130
steh@@ 130
venes 130
who@@ 130
étique 130
œuvre 130
οδ@@ 130
χος 130
ж 130
ция 130
ֲ@@ 130
ذ@@ 130
ยา@@ 130
ὄ@@ 130
⎯ 130
き 130
中 130
고@@ 130
19th 129
Architek@@ 129
achama 129
gegen 129
ichten 129
kleine 129
liwa 129
mét@@ 129
period 129
seli 129
tête 129
until 129
wilaya 129
Ά@@ 129
εί@@ 129
Иван 129
сти@@ 129
الش@@ 129
ὸ 129
之 129
井@@ 129
台@@ 129
天 129
Grund 128
albums 128
chama 128
ducation 128
ient 128
mch@@ 128
named 128
quy@@ 128
structure 128
vek@@ 128
óc 128
ʼ 128
ομ@@ 128
ργ@@ 128
τη 128
υπ@@ 128
Василь@@ 128
Вла@@ 128
ер@@ 128
ет@@ 128
ля 128
ў 128
ين 128
リ 128
六@@ 128
唐@@ 128
12. 127
Syria 127
Thái 127
bò 127
continue 127
engen@@ 127
events 127
historiques 127
kuli@@ 127
movement 127
organis@@ 127
sister 127
theor@@ 127
trouv@@ 127
villages 127
vue 127
wango 127
ха 127
բ@@ 127
ស@@ 127
原 127
法 127
百@@ 127
Kuna 126
juu 126
lors 126
rivière 126
wech@@ 126
ût 126
δρο@@ 126
Ев@@ 126
Ти@@ 126
мов 126
ча@@ 126
الن@@ 126
ير 126
َ 126
ज 126
七@@ 126
河 126
기 126
다 126
Parte@@ 125
Runde 125
Stutt@@ 125
Tông 125
Wirtschafts@@ 125
character 125
gien 125
με@@ 125
τερ@@ 125
доро@@ 125
ня 125
є@@ 125
ས@@ 125
ヴ@@ 125
合@@ 125
海 125
나@@ 125
arrang@@ 124
dered 124
evu 124
lange 124
minh 124
seit 124
ʌ@@ 124
ξι@@ 124
Викто@@ 124
ны 124
ня@@ 124
ры@@ 124
ю 124
ў@@ 124
ץ 124
ان@@ 124
ẓ@@ 124
∧ 124
し 124
伊@@ 124
玉@@ 124
장@@ 124
Bắc 123
autour 123
brother 123
déjà 123
fois 123
gün@@ 123
interpr@@ 123
keit 123
onship 123
players 123
taus@@ 123
verk@@ 123
Ô 123
ären 123
οφ@@ 123
Пав@@ 123
то 123
ون 123
َّ@@ 123
ܪ@@ 123
ད@@ 123
ἱ@@ 123
み 123
利@@ 123
郡 123
라@@ 123
Kön@@ 122
articles 122
cité 122
elerin 122
enek@@ 122
ihm 122
occas@@ 122
presse 122
treat@@ 122
udur 122
économ@@ 122
ŕ@@ 122
άρι@@ 122
ατ@@ 122
τον 122
про@@ 122
الب@@ 122
刘@@ 122
11. 121
Mỹ 121
Regel 121
assass@@ 121
awala 121
famille 121
government 121
recher@@ 121
schloss 121
sement 121
trao 121
volume 121
 121
ình 121
über@@ 121
ǧ@@ 121
̥ 121
ские 121
ی@@ 121
ி 121
ാ@@ 121
ชา@@ 121
う 121
で@@ 121
族@@ 121
Inglat@@ 120
Sprache 120
Verw@@ 120
ayı 120
enst 120
fass@@ 120
iert 120
ilik 120
nói 120
spons@@ 120
travers 120
 120
ɲ@@ 120
άγ@@ 120
ίσ@@ 120
υλ@@ 120
Пре@@ 120
ت 120
ட 120
პ@@ 120
ფ@@ 120
ṃ 120
Londra 119
wegen 119
zeug 119
ưng 119
Ψ 119
έρ@@ 119
ρον 119
τυ@@ 119
ке@@ 119
ть 119
հ@@ 119
ರ@@ 119
ု@@ 119
ო 119
を@@ 119
오@@ 119
14. 118
Anw@@ 118
Nguyên 118
Unternehmen 118
aktion 118
artistes 118
classes 118
lü@@ 118
played 118
série 118
υν@@ 118
υρ@@ 118
ә@@ 118
ل 118
ல@@ 118
グ 118
月 118
전@@ 118
Dương 117
Schrif@@ 117
ailleurs 117
claim@@ 117
eight 117
musée 117
nten 117
retour 117
schie@@ 117
seurs 117
uvu 117
wird 117
ız@@ 117
Θ 117
ώ 117
Б 117
Фё@@ 117
же@@ 117
ս 117
င 117
ὰ@@ 117
て@@ 117
れ@@ 117
大学 117
志 117
院 117
香@@ 117
가@@ 117
21. 116
Afghanistan 116
Chine 116
Yüz@@ 116
alität 116
applic@@ 116
disci@@ 116
kann 116
names 116
response 116
écr@@ 116
τε@@ 116
ников 116
لا@@ 116
ม@@ 116
工@@ 116
野 116
ationen 115
forces 115
igkeit 115
ouverneur 115
political 115
théâtre 115
werden 115
Β 115
се 115
це@@ 115
ح 115
مو@@ 115
ด@@ 115
す@@ 115
林 115
Meisterschaft 114
Menschen 114
Philadel@@ 114
acı 114
agent 114
direction 114
flü@@ 114
igte 114
second@@ 114
teş@@ 114
édé 114
üs 114
Ана@@ 114
Андре@@ 114
Андрей 114
сь 114
، 114
الك@@ 114
با@@ 114
ك 114
مي@@ 114
ⵉ@@ 114
ソ@@ 114
ナ 114
御@@ 114
心@@ 114
志@@ 114
花 114
華@@ 114
상@@ 114
수 114
Hy 113
Kızıl@@ 113
Vor 113
approxim@@ 113
eckt 113
exerc@@ 113
few 113
grou@@ 113
mali 113
steller 113
uwe@@ 113
Ð@@ 113
útbol 113
ũ 113
ίων 113
θη@@ 113
ισσ@@ 113
κυ@@ 113
πολι@@ 113
Лю@@ 113
СССР 113
ту@@ 113
ци@@ 113
ча 113
อุ@@ 113
ᾶ@@ 113
じ@@ 113
ベ@@ 113
谷@@ 113
경@@ 113
교 113
성 113
소@@ 113
Schrift@@ 112
construction 112
countries 112
derg@@ 112
direk@@ 112
imoine 112
leading 112
teams 112
travail 112
üssel@@ 112
βι@@ 112
κύ@@ 112
Ге@@ 112
Гри@@ 112
го 112
п 112
ז 112
ף 112
أحمد 112
ور 112
ུ@@ 112
世@@ 112
化@@ 112
平 112
音 112
館 112
미@@ 112
주 112
demande 111
déf@@ 111
dır@@ 111
particu@@ 111
took 111
zentr@@ 111
église 111
ĭ 111
Φιλ@@ 111
αθ@@ 111
στρ@@ 111
по 111
тов 111
ћ@@ 111
ک@@ 111
德@@ 111
长@@ 111
화@@ 111
Eyl@@ 110
Italien 110
Servic@@ 110
ologiques 110
presented 110
quarti@@ 110
seul@@ 110
versions 110
weng@@ 110
époque 110
ército 110
étude 110
έλ@@ 110
τρο@@ 110
Росси@@ 110
ав@@ 110
вет@@ 110
вский 110
лина 110
лы@@ 110
ной 110
ри 110
ြ@@ 110
ゴ@@ 110
星 110
水 110
重@@ 110
진@@ 110
Arap 109
Ivoire 109
Tanganyika 109
across 109
alik@@ 109
ildi 109
mitted 109
thought 109
ông 109
ùng 109
İzmir 109
лю@@ 109
ال 109
دي 109
رو@@ 109
علي 109
ய@@ 109
ม 109
ひ@@ 109
영@@ 109
grün@@ 108
imeh@@ 108
kâ@@ 108
militaire 108
mz@@ 108
société 108
âge 108
ʷ@@ 108
πλ@@ 108
Кар@@ 108
آ@@ 108
اء 108
الص@@ 108
بر@@ 108
ા@@ 108
ர 108
წ@@ 108
え@@ 108
光 108
夏@@ 108
家 108
聖@@ 108
Avec 107
Khánh 107
Werk 107
achus@@ 107
artist@@ 107
chaque 107
chten 107
cities 107
präs@@ 107
raison 107
Ê@@ 107
änge 107
ɐ 107
ɣ 107
̄ 107
έν@@ 107
νης 107
Воло@@ 107
Евге@@ 107
али@@ 107
об@@ 107
ع 107
مان 107
∠ 107
ゃ@@ 107
ポ@@ 107
南 107
安 107
社@@ 107
里@@ 107
阳@@ 107
Hoàng 106
Hòa 106
amt@@ 106
appel@@ 106
create 106
dass 106
frei@@ 106
gebiet 106
ouvr@@ 106
politischen 106
population 106
préf@@ 106
wür@@ 106
̟ 106
Η 106
ευ@@ 106
σσ@@ 106
Г 106
лен@@ 106
ница 106
ско 106
чу@@ 106
الخ@@ 106
رة 106
شا@@ 106
ند@@ 106
وا@@ 106
ര@@ 106
ာ@@ 106
だ@@ 106
ヒ@@ 106
ワ@@ 106
手@@ 106
朱@@ 106
歌 106
무@@ 106
aussi 105
entaire 105
huu 105
Ι 105
ίδης 105
δος 105
ως 105
ского 105
ф 105
لي@@ 105
र 105
Ἑ@@ 105
░ 105
ツ@@ 105
ピ@@ 105
國 105
植@@ 105
보@@ 105
어@@ 105
ABD 104
dessin@@ 104
départem@@ 104
episode 104
ordnung 104
partement 104
seine 104
seph 104
très 104
voll@@ 104
weit 104
yoğ@@ 104
ʲ 104
Гу@@ 104
Ли@@ 104
Михаил 104
Чер@@ 104
في 104
₡ 104
ズ@@ 104
科@@ 104
飛@@ 104
산@@ 104
학@@ 104
Following 103
Jahr 103
Mwan@@ 103
Staffel 103
adiri 103
amua 103
année 103
communication 103
sept 103
surface 103
λόγ@@ 103
πό@@ 103
Иль@@ 103
вер@@ 103
ской 103
اس@@ 103
الف@@ 103
ネ@@ 103
沙@@ 103
镇 103
시 103
Tiy@@ 102
accomp@@ 102
avoir 102
became 102
neue 102
states 102
ulus@@ 102
yoy@@ 102
Ë@@ 102
κά@@ 102
στι@@ 102
Гор@@ 102
Д 102
ак@@ 102
ман@@ 102
он@@ 102
сть 102
ян@@ 102
اد 102
ക@@ 102
‡ 102
ィ 102
ロ 102
外@@ 102
宮 102
義@@ 102
陽@@ 102
Beschreibung 101
Quốc 101
Tây 101
allow 101
ammen@@ 101
années 101
aujour@@ 101
bild 101
elections 101
÷ 101
ɐ@@ 101
ɲ 101
Ξ@@ 101
αί@@ 101
от@@ 101
ты 101
ּ 101
း@@ 101
ុ@@ 101
ἑ@@ 101
け@@ 101
ら 101
司@@ 101
和 101
建@@ 101
特@@ 101
英@@ 101
Familie 100
Minnes@@ 100
distribution 100
dır 100
east 100
einz@@ 100
ennent 100
grands 100
kör@@ 100
mittel@@ 100
phong 100
pologie 100
tuy 100
verz@@ 100
yek@@ 100
yıl 100
ünden 100
üz 100
şir@@ 100
ʰ 100
οχ@@ 100
дов 100
ج 100
ري 100
پ@@ 100
چ@@ 100
ി@@ 100
ติ@@ 100
མ@@ 100
代@@ 100
全@@ 100
同@@ 100
土@@ 100
岛 100
門@@ 100
자 100
최@@ 100
médec@@ 99
partem@@ 99
zeichen 99
Üniversitesi 99
þ 99
ăng 99
Ď@@ 99
Định 99
ǃ@@ 99
οί 99
τη@@ 99
υγ@@ 99
Бела@@ 99
Сте@@ 99
из@@ 99
йн 99
ние 99
рова 99
ты@@ 99
ья 99
ض@@ 99
て 99
佐@@ 99
火@@ 99
공@@ 99
호 99
Arbeit 98
During 98
asik 98
built 98
etler 98
health 98
instead 98
internation@@ 98
maji 98
northern 98
retur@@ 98
setzung 98
sü@@ 98
Ô@@ 98
üst 98
ılar 98
ǃ 98
άδ@@ 98
άρκ@@ 98
ρυ@@ 98
όκ@@ 98
όρος 98
Георги@@ 98
З 98
Лу@@ 98
Рус@@ 98
ви 98
مر@@ 98
ห@@ 98
名@@ 98
日 98
아 98
Dort 97
Teil 97
following 97
legen 97
struk@@ 97
usage 97
zote 97
Þ 97
ɡ 97
οι@@ 97
πρ@@ 97
ре 97
ян 97
कु@@ 97
ན 97
氏 97
記 97
軍@@ 97
선 97
Biographie 96
Xuân 96
basket@@ 96
birliği 96
charge 96
chré@@ 96
expression 96
kathol@@ 96
kommen 96
mê@@ 96
neigh@@ 96
nouv@@ 96
stark 96
ulit@@ 96
äß@@ 96
çek@@ 96
état 96
ğr@@ 96
̈ 96
Κα@@ 96
ίν@@ 96
μαν@@ 96
нови@@ 96
рия 96
ђ@@ 96
ג 96
اني 96
مة 96
ợi 96
ὕ@@ 96
め@@ 96
朝@@ 96
理@@ 96
里 96
Hungary 95
brought 95
curité 95
develop@@ 95
duy@@ 95
igned 95
police 95
ported 95
several 95
xième 95
ßer@@ 95
αβ@@ 95
αστ@@ 95
μά@@ 95
σία 95
τά@@ 95
ан 95
йо@@ 95
ོ 95
♣ 95
府 95
會 95
車 95
龍 95
Amts@@ 94
afiti 94
bew@@ 94
command@@ 94
ehir@@ 94
führung 94
orta@@ 94
peut 94
schied 94
selon 94
succes@@ 94
woll@@ 94
Ş 94
ʕ@@ 94
Υ 94
Би@@ 94
Вален@@ 94
Хо@@ 94
ван@@ 94
ита@@ 94
عة 94
فر@@ 94
ْ 94
າ@@ 94
ྱ@@ 94
Ὀ@@ 94
ホ@@ 94
博@@ 94
士@@ 94
帝 94
銀@@ 94
윤@@ 94
15. 93
Hải 93
assist@@ 93
become 93
claimed 93
example 93
itions 93
members 93
nying@@ 93
oppos@@ 93
schutz@@ 93
sources 93
units 93
usawa 93
yesi 93
ähn@@ 93
ρύ@@ 93
Т 93
лия 93
ных 93
ско@@ 93
لل@@ 93
من@@ 93
க 93
洋@@ 93
魔@@ 93
남@@ 93
일@@ 93
Durch@@ 92
Okul@@ 92
Partisi 92
Prä@@ 92
Spiel 92
character@@ 92
eviz@@ 92
groupe 92
ichts@@ 92
mayan 92
quelle 92
étu@@ 92
ίδ@@ 92
ησι@@ 92
καλ@@ 92
τρι@@ 92
Ор@@ 92
ұ@@ 92
الت@@ 92
مح@@ 92
শ@@ 92
ย@@ 92
ว@@ 92
ḗ@@ 92
∴ 92
公 92
内@@ 92
相@@ 92
義 92
風@@ 92
구@@ 92
여@@ 92
Eneo 91
Gemeinde 91
Pennsyl@@ 91
angla@@ 91
destroy@@ 91
durum 91
economic 91
eign@@ 91
fourth 91
influence 91
jeunes 91
kuw@@ 91
lenen 91
änder@@ 91
ương 91
̱ 91
ών@@ 91
Ком@@ 91
ولاية 91
ง 91
น 91
ម@@ 91
₤ 91
∆ 91
た 91
作@@ 91
夫 91
广@@ 91
강@@ 91
Après 90
Ethiopia 90
ahidi 90
angeb@@ 90
arded 90
sozi@@ 90
spéci@@ 90
thay 90
tnis 90
üç@@ 90
Κύ@@ 90
μπ@@ 90
νε@@ 90
σιος 90
Пу@@ 90
кови@@ 90
фи@@ 90
цы 90
ℝ 90
前@@ 90
徐@@ 90
赤@@ 90
문@@ 90
andao 89
bién 89
decision 89
jamais 89
khai 89
seln 89
taux 89
È 89
économique 89
ġ 89
γκ@@ 89
οπ@@ 89
τί@@ 89
рус@@ 89
сов 89
ци 89
ام 89
ก@@ 89
ะ@@ 89
ི@@ 89
Ἱ@@ 89
く 89
君 89
經 89
안@@ 89
에@@ 89
영 89
원@@ 89
Erst@@ 88
administration 88
appeared 88
création 88
jeux 88
oloj@@ 88
particulier 88
streng@@ 88
ği 88
λί@@ 88
οσ@@ 88
Те@@ 88
Ту@@ 88
Че@@ 88
лин@@ 88
ного 88
шка 88
Қ@@ 88
Գ@@ 88
պ@@ 88
الدين 88
ल 88
ရ@@ 88
∂ 88
≃ 88
と 88
ゲ@@ 88
事@@ 88
族 88
線 88
마@@ 88
Fener@@ 87
Maji 87
ifen 87
kadar 87
kez@@ 87
liste 87
mehr@@ 87
tivities 87
travers@@ 87
 87
önem@@ 87
δω@@ 87
σί@@ 87
φυ@@ 87
зе@@ 87
лова 87
զ@@ 87
بة 87
بل@@ 87
نا@@ 87
क 87
ী@@ 87
ọng 87
カ 87
嘉@@ 87
地 87
拳 87
胡@@ 87
韓@@ 87
지 87
Güney 86
aired 86
denen 86
eures 86
franch@@ 86
indre 86
issement 86
military 86
positive 86
practice 86
péri@@ 86
started 86
stän@@ 86
subject 86
ſ@@ 86
αρκ@@ 86
μεν@@ 86
σφ@@ 86
τός 86
Бори@@ 86
Виктор 86
Екате@@ 86
Ло@@ 86
де 86
ит@@ 86
лы 86
льский 86
ные 86
публика 86
ченко 86
щ@@ 86
ї 86
الد@@ 86
الر@@ 86
ز 86
ো@@ 86
ా@@ 86
ყ@@ 86
ជ@@ 86
ន@@ 86
Ḫ@@ 86
Ọ@@ 86
万@@ 86
保@@ 86
华@@ 86
宗 86
雄 86
Bonde 85
Müs@@ 85
Phạm 85
Produktion 85
Umw@@ 85
closed 85
distance 85
décor@@ 85
izin 85
klein@@ 85
lauf@@ 85
professional 85
publik 85
rather 85
symb@@ 85
ycidae 85
êu 85
Καρ@@ 85
ηλ@@ 85
λιος 85
συνα@@ 85
τικ@@ 85
Елена 85
П 85
вая 85
дро@@ 85
па 85
ска@@ 85
тан@@ 85
це 85
շ@@ 85
ך@@ 85
دة 85
يل 85
त 85
ன@@ 85
ẵ@@ 85
♠ 85
タ 85
三 85
上 85
仁 85
羅@@ 85
香 85
龙@@ 85
그@@ 85
사 85
연@@ 85
의@@ 85
해@@ 85
Dienst@@ 84
Männer 84
divers 84
immedi@@ 84
issent 84
musici@@ 84
suppl@@ 84
taking 84
techniques 84
ufen 84
umwa 84
zwei 84
Đông 84
̞ 84
Ε 84
μβ@@ 84
ата@@ 84
нин 84
يا 84
म 84
र@@ 84
ర@@ 84
ჯ@@ 84
ម 84
ḍ 84
ủ 84
ἡ 84
∨ 84
フ 84
流@@ 84
英 84
진 84
희 84
artists 83
auspi@@ 83
crit 83
eint 83
essee 83
genre 83
habe 83
huko 83
letzte 83
monuments 83
okea 83
ovu 83
policy 83
theo 83
zieh@@ 83
Õ@@ 83
Αν@@ 83
άσ@@ 83
ед@@ 83
при@@ 83
фе@@ 83
الل@@ 83
صر 83
ما@@ 83
ور@@ 83
ى@@ 83
か 83
何@@ 83
口 83
史 83
史@@ 83
号 83
場 83
歌@@ 83
知@@ 83
隊 83
ahada 82
atoire 82
championship 82
gesetz@@ 82
hâ@@ 82
mehr 82
property 82
volon@@ 82
Ț 82
γι@@ 82
Гра@@ 82
Фе@@ 82
кая 82
лё@@ 82
ья@@ 82
ա 82
ை 82
ảo 82
■ 82
オ 82
ブ 82
乐@@ 82
定@@ 82
智@@ 82
村@@ 82
東 82
森@@ 82
港@@ 82
老@@ 82
自治@@ 82
藤 82
로@@ 82
우 82
자@@ 82
ajou@@ 81
classe 81
développement 81
enseign@@ 81
europé@@ 81
female 81
hör@@ 81
iliz 81
important 81
ndio 81
ouvern@@ 81
édition 81
ĉ@@ 81
ľ 81
λέ@@ 81
όπ@@ 81
Совет@@ 81
Тат@@ 81
بي 81
عبد@@ 81
في@@ 81
တ@@ 81
ἕ@@ 81
⊆ 81
ォ@@ 81
キ 81
年 81
曹@@ 81
由@@ 81
第@@ 81
천@@ 81
Asya 80
Châu 80
Massachus@@ 80
Ordu 80
accep@@ 80
affaires 80
ebt 80
issues 80
outre 80
prison@@ 80
publication 80
relations 80
various 80
vient 80
Ì@@ 80
äuf@@ 80
érique 80
öster@@ 80
ösung 80
ũng 80
ű 80
ʋ@@ 80
ίου 80
αν 80
μφ@@ 80
Ди@@ 80
России 80
Свя@@ 80
ген@@ 80
лин 80
сия 80
фа@@ 80
կ 80
ਿ@@ 80
ส@@ 80
ḗ 80
ウ 80
ザ@@ 80
宇@@ 80
富@@ 80
手 80
石 80
草@@ 80
는 80
은 80
현 80
Amerik@@ 79
Stelle 79
anı 79
armée 79
breit@@ 79
bürger@@ 79
commercial 79
communauté 79
dalg@@ 79
ecek 79
ligi 79
nisse 79
often 79
outside 79
salle 79
sprach@@ 79
wirtschaft 79
wohl 79
ʎ 79
Παρ@@ 79
ίκη 79
γλ@@ 79
ησ@@ 79
παρ@@ 79
σχ@@ 79
φύ@@ 79
ϛ 79
Пер@@ 79
Соци@@ 79
до 79
дра@@ 79
द 79
দ 79
ਾ@@ 79
့ 79
ღ@@ 79
ạc 79
ến 79
▄ 79
動@@ 79
夜@@ 79
宗@@ 79
廣@@ 79
爱@@ 79
雪@@ 79
鬼@@ 79
13. 78
16. 78
18. 78
allemand 78
ansas 78
daughter 78
dont 78
ellement 78
employ@@ 78
evidence 78
further 78
isée 78
kila 78
mannschaft 78
montr@@ 78
organisation 78
ortal@@ 78
relation 78
télé@@ 78
tü@@ 78
ungwa 78
États 78
ço@@ 78
œ 78
ɕ 78
πα@@ 78
σπ@@ 78
Вели@@ 78
Ча@@ 78
ских 78
ё 78
اد@@ 78
من 78
ُ 78
চ@@ 78
ী 78
ன 78
ಕ@@ 78
ẹ 78
Ἡ@@ 78
や@@ 78
体@@ 78
信@@ 78
口@@ 78
字 78
思@@ 78
育@@ 78
陽 78
马@@ 78
예@@ 78
장 78
� 78
Phúc 77
Wirtschaft 77
antik 77
deki 77
droits 77
durant 77
elektr@@ 77
ishia 77
ität 77
mains 77
muss 77
quelques 77
souri 77
terms 77
wiesen 77
đi@@ 77
ĩ 77
İsk@@ 77
ιδ@@ 77
ιμ@@ 77
ριστ@@ 77
φιλ@@ 77
ύρ@@ 77
зна@@ 77
область 77
տ 77
ث@@ 77
حي@@ 77
لة 77
نر@@ 77
วั@@ 77
⅔ 77
こ 77
に 77
ギ@@ 77
久@@ 77
二 77
元 77
克@@ 77
出@@ 77
園@@ 77
心 77
時@@ 77
机场 77
谷 77
부 77
현@@ 77
！ 77
dès 76
ibt 76
married 76
mtDNA 76
protection 76
rangi 76
zäh@@ 76
áy 76
œuvres 76
̶ 76
κας 76
Ген@@ 76
Мария 76
Ново@@ 76
род@@ 76
сы 76
три@@ 76
чка 76
ابن 76
ام@@ 76
مع@@ 76
مي 76
مَ@@ 76
മ@@ 76
は 76
ば@@ 76
ヤ@@ 76
井 76
京 76
公園 76
如@@ 76
常@@ 76
所 76
新 76
春 76
球@@ 76
章 76
音@@ 76
馬 76
黒@@ 76
국 76
니 76
재@@ 76
Công 75
Devlet 75
Höhe 75
Konz@@ 75
Kult@@ 75
assur@@ 75
idée 75
join@@ 75
kte 75
mang 75
religious 75
schwer@@ 75
ungano 75
yonel 75
ɽ 75
Ψ@@ 75
λη 75
мир@@ 75
ъ@@ 75
эн@@ 75
є 75
بن@@ 75
ود 75
ấn 75
ền 75
∪ 75
多@@ 75
帝@@ 75
津@@ 75
龙 75
라 75
Kwa 74
Militär@@ 74
Yaş@@ 74
arifa 74
derung 74
häl@@ 74
ligne 74
lors@@ 74
month 74
quanti@@ 74
quartier 74
received 74
stations 74
statisti@@ 74
toujours 74
zao 74
úy 74
ısı 74
ʷ 74
Καλ@@ 74
ήσ@@ 74
δε@@ 74
ογ@@ 74
τας 74
йская 74
тин 74
ј 74
ַ 74
دي@@ 74
ضلع 74
لَ@@ 74
مل@@ 74
نا 74
ེ 74
ゆ@@ 74
也 74
台 74
后 74
君@@ 74
尾@@ 74
後@@ 74
景@@ 74
武 74
間@@ 74
화 74
 74
appearance 73
arriv@@ 73
baş@@ 73
depuis 73
dernier 73
gibt 73
heures 73
maye 73
medical 73
organization 73
soit 73
toutes 73
uncu 73
zial@@ 73
Ħ@@ 73
Ό@@ 73
Μαρ@@ 73
άμ@@ 73
κτ@@ 73
λογία 73
Кон@@ 73
Макси@@ 73
Х 73
ަ@@ 73
த 73
ூ@@ 73
ร 73
ล@@ 73
ག 73
ṯ 73
ỉ@@ 73
ἶ@@ 73
す 73
わ@@ 73
丸 73
仁@@ 73
你 73
德 73
書@@ 73
段 73
流 73
竹@@ 73
超@@ 73
양@@ 73
Bruder 72
Büyük 72
Hilfe 72
Historique 72
Noctu@@ 72
Raum 72
Utur@@ 72
chaî@@ 72
cinq 72
enheit 72
führ@@ 72
heute 72
ingana 72
künst@@ 72
kır@@ 72
least 72
mitt@@ 72
mouvement 72
results 72
toute 72
ép 72
μον@@ 72
μυ@@ 72
σύ@@ 72
Аб@@ 72
град 72
ек@@ 72
кина 72
кра@@ 72
ран@@ 72
цкий 72
ք@@ 72
ِ 72
ە@@ 72
ਰ@@ 72
ಿ@@ 72
ạnh 72
⇒ 72
ⵎ@@ 72
华 72
吴@@ 72
巴@@ 72
師 72
杨@@ 72
航@@ 72
당 72
한 72
： 72
Cộng 71
annual 71
cı 71
dessus 71
edly 71
efu 71
gesi 71
hamia 71
husband 71
mip@@ 71
pués 71
recht@@ 71
recogni@@ 71
traditional 71
ually 71
vì 71
évrier 71
êm 71
ĝ@@ 71
εως 71
προ@@ 71
χή 71
Вол@@ 71
Ши@@ 71
ато@@ 71
вы@@ 71
вый 71
мы@@ 71
рен@@ 71
те 71
جبل 71
وَ@@ 71
ལ 71
せ@@ 71
中國@@ 71
奇@@ 71
孫@@ 71
成 71
Cet 70
Cumhuriy@@ 70
Dağ@@ 70
Febru@@ 70
Tham 70
associated 70
below 70
große 70
ierte 70
kamen 70
lauf 70
olsa 70
rédu@@ 70
wirt@@ 70
ʀ@@ 70
Γεώργιος 70
ιλ@@ 70
μη 70
ρω@@ 70
Москов@@ 70
Народ@@ 70
гра@@ 70
ды 70
зер@@ 70
им@@ 70
мар@@ 70
Կ@@ 70
ằng 70
ẽ 70
⊗ 70
ⵜ@@ 70
ろ@@ 70
云@@ 70
兵@@ 70
加@@ 70
友@@ 70
宋@@ 70
尔@@ 70
岡@@ 70
恋@@ 70
紅@@ 70
부@@ 70
타@@ 70
Halk 69
Leist@@ 69
Orts@@ 69
biet@@ 69
composition 69
dön@@ 69
geht 69
itself 69
jimbo 69
partie 69
primary 69
sebe@@ 69
tenant 69
travaux 69
zaman 69
Σω@@ 69
Государ@@ 69
Чу@@ 69
Ю 69
лан 69
пов 69
Բ@@ 69
الز@@ 69
در@@ 69
لو@@ 69
पुर 69
ਾ 69
ல 69
ร@@ 69
ད 69
ྒ@@ 69
ận 69
ẻ 69
ὴ 69
ッ 69
先@@ 69
臣 69
華 69
백@@ 69
정 69
17. 68
22. 68
Geometridae 68
Géographie 68
Jahres 68
army 68
beginning 68
campagne 68
created 68
gab 68
gleich@@ 68
idari 68
ihre 68
indépend@@ 68
isini 68
officer 68
ologischen 68
teki 68
worked 68
ydi 68
évêque 68
österreich@@ 68
Πολ@@ 68
γελ@@ 68
ημ@@ 68
περ@@ 68
Анна 68
Миха@@ 68
мо 68
они@@ 68
рав@@ 68
الإ@@ 68
خان 68
ܕ@@ 68
न 68
ჩ@@ 68
‍ 68
松 68
梁@@ 68
治@@ 68
秦@@ 68
세@@ 68
Lâm 67
Ort 67
Tân 67
connu 67
ekte 67
etzt 67
gleich 67
independent 67
industry 67
iş 67
produk@@ 67
système 67
taille 67
types 67
wieder 67
yard@@ 67
Æ 67
ıs@@ 67
Şir@@ 67
ǀ@@ 67
ǒ 67
Ευ@@ 67
ανδ@@ 67
ικά 67
σω@@ 67
τέ@@ 67
τζ@@ 67
τρα 67
όπουλος 67
Борис 67
Пар@@ 67
Щ@@ 67
ден@@ 67
ды@@ 67
ера 67
сло@@ 67
ствен@@ 67
фо@@ 67
الغ@@ 67
سي@@ 67
ܐ@@ 67
ங 67
ு 67
ಿ 67
ು@@ 67
း 67
ἡ@@ 67
ⵏ 67
ⵙ@@ 67
コ 67
マ 67
交@@ 67
力@@ 67
司 67
吳@@ 67
好@@ 67
宝@@ 67
戦 67
是@@ 67
橋 67
米@@ 67
若@@ 67
菜 67
言 67
都 67
陵 67
風 67
니@@ 67
은@@ 67
회 67
Allemagne 66
Beruf@@ 66
However 66
Ngọc 66
artisti@@ 66
awali 66
başı 66
européenne 66
higher 66
insi 66
jiji 66
kli 66
mü@@ 66
quán 66
regel@@ 66
religie@@ 66
though 66
uyên 66
üge 66
ď 66
Έ@@ 66
ίκ@@ 66
μο@@ 66
πά@@ 66
πέ@@ 66
τή@@ 66
ται 66
υμ@@ 66
υσ@@ 66
Бал@@ 66
Н 66
Павел 66
Пи@@ 66
бра@@ 66
дар 66
порт 66
сп@@ 66
ց@@ 66
ست@@ 66
ं 66
ே@@ 66
พ@@ 66
ྲ@@ 66
ần 66
ệ 66
ịnh 66
∀ 66
ペ@@ 66
人民@@ 66
孙@@ 66
支@@ 66
波@@ 66
秀@@ 66
茶 66
足@@ 66
路 66
태@@ 66
Azerbaycan 65
Fußball@@ 65
Staaten 65
ancien 65
aße 65
beit 65
changed 65
emein@@ 65
included 65
leich 65
mbH 65
produced 65
professi@@ 65
releas@@ 65
siri 65
student 65
tilen 65
tungs@@ 65
viel@@ 65
Ķ@@ 65
ʹ 65
Με@@ 65
Παν@@ 65
ποι@@ 65
τικός 65
χα@@ 65
Все@@ 65
Крас@@ 65
др 65
йский 65
церковь 65
ات 65
بو@@ 65
प 65
िला 65
ి@@ 65
ു@@ 65
ེ@@ 65
ု 65
そ@@ 65
丁@@ 65
园 65
奈@@ 65
學@@ 65
忠@@ 65
橋@@ 65
正 65
毛@@ 65
洪@@ 65
湖 65
者 65
西 65
論 65
那@@ 65
23. 64
30. 64
angaz@@ 64
comman@@ 64
deut@@ 64
fié 64
grenz@@ 64
huit 64
leti 64
olympi@@ 64
scène 64
stehen 64
tained 64
taken 64
tioned 64
tournament 64
vingt 64
ʁ 64
πί@@ 64
Є@@ 64
Ок@@ 64
Сем@@ 64
ря@@ 64
чи 64
ط 64
وال@@ 64
न@@ 64
ത@@ 64
က@@ 64
რ 64
ត@@ 64
ḳ@@ 64
Ῥ@@ 64
∇ 64
ジ 64
チ 64
萬@@ 64
路@@ 64
麻@@ 64
전 64
Bischof 63
Ces 63
Kız@@ 63
Württem@@ 63
began 63
characters 63
deniz 63
etik 63
gelen 63
having 63
marri@@ 63
pouvoir 63
prendre 63
winning 63
ĉ 63
ħ 63
Ž 63
̂ 63
Αγ@@ 63
Δημή@@ 63
ίλ@@ 63
ίος 63
λευ@@ 63
ρέ@@ 63
ϊ@@ 63
Вы@@ 63
Кра@@ 63
Сою@@ 63
ги 63
тя@@ 63
ье 63
ёт@@ 63
འ@@ 63
ក@@ 63
ḇ@@ 63
え 63
ょ@@ 63
ザ 63
主 63
區 63
名 63
教 63
方 63
機@@ 63
空 63
総@@ 63
郭@@ 63
関@@ 63
风@@ 63
인 63
Betrieb@@ 62
Dola 62
Wohn@@ 62
ancı 62
attribu@@ 62
azini 62
besi@@ 62
chữ 62
defe@@ 62
doit 62
eastern 62
ouvent 62
ratic 62
règ@@ 62
schriften 62
sifa 62
tipi 62
âu 62
Ā 62
ŏ 62
δέν@@ 62
δυ@@ 62
θρ@@ 62
λις 62
νο@@ 62
ροι 62
στο@@ 62
τις 62
φος 62
όλ@@ 62
Жи@@ 62
ста 62
ху@@ 62
سى 62
فة 62
وي@@ 62
ত 62
ந@@ 62
ပ@@ 62
ក 62
ប@@ 62
ិ@@ 62
ạng 62
ὁ@@ 62
‚ 62
中央@@ 62
坂@@ 62
夏 62
字@@ 62
孝@@ 62
我 62
業@@ 62
皇 62
縣 62
红@@ 62
色@@ 62
親@@ 62
鹿@@ 62
Dokum@@ 61
Jahren 61
Kanton 61
Politik 61
Spä@@ 61
almost 61
ancienne 61
anzia 61
entrée 61
entw@@ 61
goals 61
hakk@@ 61
heu@@ 61
içi 61
prison 61
uldu 61
ıs 61
ış@@ 61
ΐ@@ 61
Παλαι@@ 61
αλλ@@ 61
νομ@@ 61
οκ@@ 61
Бело@@ 61
обо@@ 61
рь 61
собо@@ 61
ستان 61
هر 61
ول@@ 61
ون@@ 61
य 61
ರ 61
් 61
Ṛ@@ 61
ユ@@ 61
事件 61
侯 61
太 61
屋 61
楊@@ 61
治 61
泰@@ 61
秋@@ 61
衛@@ 61
見@@ 61
际@@ 61
食@@ 61
어 61
위@@ 61
𐤌 61
Tarafa 60
Thành 60
Tiên 60
ambazo 60
competition 60
compte 60
described 60
griech@@ 60
haben 60
kuu 60
neş 60
parents 60
purch@@ 60
quant 60
russe 60
régu@@ 60
stir 60
suz 60
towards 60
tü 60
university 60
yeni 60
¯ 60
úc 60
İş@@ 60
̲ 60
άκης 60
δης 60
θέ@@ 60
κολ@@ 60
κου@@ 60
νι@@ 60
ρία 60
Василий 60
Дани@@ 60
Л 60
Остро@@ 60
Сто@@ 60
Шу@@ 60
вы 60
дор 60
ше 60
ҳ@@ 60
ای@@ 60
قل@@ 60
كي@@ 60
ग 60
ি 60
ಗ@@ 60
ല@@ 60
พระ@@ 60
ង 60
ất 60
ện 60
ἁ@@ 60
∙ 60
お 60
な 60
ゼ@@ 60
ツ 60
代 60
伯@@ 60
半@@ 60
条@@ 60
牛@@ 60
直@@ 60
者@@ 60
良@@ 60
葉@@ 60
術 60
長 60
다@@ 60
만@@ 60
종@@ 60
황@@ 60
 60
ﬂ@@ 60
Bağ@@ 59
Irel@@ 59
attemp@@ 59
eyen 59
ichts 59
kuv@@ 59
lanan 59
lü 59
ografie 59
sicht 59
venue 59
wez@@ 59
¸ 59
èles 59
ŝ@@ 59
̆ 59
Το 59
εν 59
πε@@ 59
ταν@@ 59
τω@@ 59
ώς 59
Кара@@ 59
Сла@@ 59
бе 59
ван 59
лет 59
народ@@ 59
рай@@ 59
сте@@ 59
ׂ@@ 59
انی 59
سع@@ 59
مه@@ 59
स 59
જ@@ 59
લ@@ 59
ள@@ 59
ก 59
ະ@@ 59
ာ 59
Ḷ@@ 59
ⵓ@@ 59
刀 59
卿 59
可@@ 59
官@@ 59
峰 59
崎@@ 59
技@@ 59
玉 59
男 59
男@@ 59
的 59
苏@@ 59
陸@@ 59
雅@@ 59
가 59
대 59
민 59
24. 58
Kỳ 58
Linie 58
anlı 58
appear@@ 58
defeated 58
eht 58
geber 58
kein 58
killed 58
lieder@@ 58
listed 58
metre 58
moved 58
newspap@@ 58
owned 58
placed 58
suy 58
ıf@@ 58
ường 58
ʐ@@ 58
Νικ@@ 58
αδ@@ 58
εσ@@ 58
ηδ@@ 58
μή@@ 58
χρ@@ 58
ύλ@@ 58
Ио@@ 58
Константи@@ 58
Кур@@ 58
Ф 58
Центра@@ 58
дар@@ 58
ите@@ 58
клуб 58
ну@@ 58
шо@@ 58
қ 58
ְ 58
اب 58
الط@@ 58
مص@@ 58
പ@@ 58
Ḵ@@ 58
ẽ@@ 58
ị 58
ồng 58
ἱ 58
ど@@ 58
仙@@ 58
夢@@ 58
居 58
岩@@ 58
昌@@ 58
有限公司 58
汉@@ 58
火 58
甲@@ 58
真 58
編 58
能@@ 58
金 58
비 58
비@@ 58
25. 57
Stil 57
Verfüg@@ 57
baş 57
conditions 57
couple 57
liegen 57
longer 57
milieu 57
mittee 57
passé 57
previous 57
suiv@@ 57
tél@@ 57
ymnasi@@ 57
 57
Ţ 57
Ρ 57
λά@@ 57
μη@@ 57
Бар@@ 57
ад@@ 57
зе 57
зы@@ 57
пре@@ 57
район 57
сан@@ 57
ք 57
أَ@@ 57
ئ@@ 57
لي 57
ট@@ 57
ম 57
ਸ@@ 57
บ@@ 57
ย 57
เกา@@ 57
န 57
ჭ@@ 57
〈 57
ふ@@ 57
め 57
れ 57
修@@ 57
化 57
回@@ 57
彦 57
清 57
渡@@ 57
袁@@ 57
造 57
雄@@ 57
레@@ 57
승@@ 57
호@@ 57
Avru@@ 56
Nội 56
available 56
avyo@@ 56
azama 56
forts 56
himself 56
isième 56
kiwa 56
mique 56
permet@@ 56
schon 56
zile 56
ǁ@@ 56
ʹ@@ 56
Ιωάννης 56
Κυ@@ 56
Κωνσταντίνος 56
Ο 56
ει 56
επ@@ 56
λογ@@ 56
μαχ@@ 56
ναι 56
στά@@ 56
φαν@@ 56
όβ@@ 56
Анто@@ 56
Е 56
Ин@@ 56
Мат@@ 56
Национа@@ 56
бан@@ 56
государствен@@ 56
лена 56
мат@@ 56
ниче@@ 56
она@@ 56
ся 56
حسن 56
سل@@ 56
كر@@ 56
مد@@ 56
ک 56
ङ 56
ਲ@@ 56
ต 56
็ 56
ნ 56
ᠠ@@ 56
ệu 56
ỳ@@ 56
℉ 56
〉 56
シ 56
今@@ 56
傳 56
吉 56
夫@@ 56
座@@ 56
政@@ 56
朝 56
来@@ 56
森 56
樹 56
民 56
気@@ 56
茶@@ 56
連@@ 56
鉄@@ 56
院@@ 56
陵@@ 56
電@@ 56
面@@ 56
頭@@ 56
鳥@@ 56
ꞌ 56
나 56
울@@ 56
Vĩnh 55
abord 55
arily 55
auteur 55
betrieb@@ 55
bildung 55
célè@@ 55
dör@@ 55
iriki 55
modèle 55
selected 55
success@@ 55
tehsil 55
turned 55
verbind@@ 55
ätze 55
Đi@@ 55
ģ@@ 55
şu 55
ʂ 55
αξ@@ 55
δί@@ 55
δο@@ 55
εκ@@ 55
ην 55
μακ@@ 55
ους 55
бы@@ 55
дия 55
ет 55
зу@@ 55
рин 55
стро@@ 55
цов 55
ռ@@ 55
بني 55
عب 55
ّ 55
ٱ@@ 55
ড 55
า 55
ち 55
以@@ 55
你@@ 55
党 55
合 55
布@@ 55
康@@ 55
愛 55
易@@ 55
沈@@ 55
物 55
玄@@ 55
矢@@ 55
舞@@ 55
達@@ 55
雷@@ 55
광@@ 55
석 55
연 55
퍼@@ 55
Kazi 54
Mch@@ 54
Saison 54
ayant 54
contract 54
desarr@@ 54
différ@@ 54
diye 54
domaine 54
ihrer 54
indir@@ 54
kämp@@ 54
kı 54
lık 54
nước 54
plans 54
puiss@@ 54
sahi@@ 54
santé 54
tigkeit 54
todav@@ 54
télévision 54
wieg@@ 54
äischen 54
đồng 54
Ί@@ 54
Τ 54
εις 54
μου 54
σε@@ 54
τες 54
Зе@@ 54
вен@@ 54
ем@@ 54
от 54
сова 54
ть@@ 54
դ 54
اس 54
اله@@ 54
য@@ 54
ল 54
ર@@ 54
ப 54
ల@@ 54
ు@@ 54
ℓ@@ 54
ℝ@@ 54
ℤ 54
ⵜ 54
ま 54
ミ 54
中華@@ 54
公司 54
双@@ 54
商@@ 54
昭@@ 54
母@@ 54
泉 54
趙@@ 54
요 54
𐤕 54
Ceramb@@ 53
Gebi@@ 53
Pfarr@@ 53
Produk@@ 53
Straßen@@ 53
Thiên 53
acak@@ 53
announced 53
career 53
ceux 53
considered 53
ekonom@@ 53
ellik@@ 53
ennt 53
forced 53
ften 53
htt@@ 53
likely 53
quốc 53
railway 53
reibung 53
schein@@ 53
township 53
unkt 53
Ä 53
üy@@ 53
ıca 53
Ū@@ 53
ǂ@@ 53
ɬ@@ 53
Αρ@@ 53
βα@@ 53
κι@@ 53
ριστο@@ 53
Ђ@@ 53
Дра@@ 53
Кри@@ 53
Мон@@ 53
От@@ 53
Пан@@ 53
би 53
мор@@ 53
рев@@ 53
Վ@@ 53
ء 53
حزب 53
رية 53
سر@@ 53
وري 53
ܠ@@ 53
ग@@ 53
त@@ 53
श 53
્ 53
ை@@ 53
വ@@ 53
ป@@ 53
አ@@ 53
ạch 53
ὴ@@ 53
⁰ 53
ℚ 53
► 53
ⵔ@@ 53
プ 53
下 53
丹 53
協@@ 53
戸@@ 53
會@@ 53
桃@@ 53
桥 53
派 53
港 53
省 53
県@@ 53
祖@@ 53
虎 53
虎@@ 53
雲@@ 53
산 53
Baad@@ 52
Müz@@ 52
accu@@ 52
anglais 52
chúa 52
compagnie 52
companies 52
espè@@ 52
initial 52
istischen 52
moins 52
nchi 52
ommen 52
preu@@ 52
relationship 52
unun 52
wrote 52
zös@@ 52
àu 52
çek 52
ſ 52
Παπ@@ 52
άπ@@ 52
γέν@@ 52
ιτ@@ 52
καν@@ 52
καρ@@ 52
κατ@@ 52
λεια 52
λεύ@@ 52
λύ@@ 52
Петро@@ 52
Тро@@ 52
бир@@ 52
жда 52
ку 52
льная 52
ок@@ 52
парк 52
раз@@ 52
рии 52
чев 52
Պ@@ 52
سی@@ 52
عَ@@ 52
وادي 52
ट 52
ক 52
ช@@ 52
ต@@ 52
อ@@ 52
ཆ@@ 52
ọ@@ 52
Ὑ@@ 52
ⵍ@@ 52
よ 52
世 52
世界@@ 52
仲@@ 52
共@@ 52
无@@ 52
横@@ 52
洲 52
研究@@ 52
良 52
삼@@ 52
Entwicklung 51
Ihr 51
according 51
added 51
adele 51
bahn@@ 51
chuo 51
commerci@@ 51
essenti@@ 51
indé@@ 51
iğ@@ 51
klass@@ 51
leme 51
neuen 51
nö@@ 51
province 51
présent@@ 51
reconn@@ 51
siku 51
sogen@@ 51
timm@@ 51
tù 51
verkehr 51
whose 51
çı 51
ĩnh 51
ıt 51
̩ 51
ημα 51
ραν@@ 51
Аль@@ 51
ать 51
вет 51
ган@@ 51
губер@@ 51
район@@ 51
сен@@ 51
сы@@ 51
тон 51
цев 51
яр@@ 51
Դ@@ 51
Ե@@ 51
խ@@ 51
جامعة 51
نج@@ 51
ܬ@@ 51
ި@@ 51
अ@@ 51
क@@ 51
द@@ 51
ल@@ 51
ಮ@@ 51
รั@@ 51
། 51
သ@@ 51
თ 51
ṓ@@ 51
ệt 51
ⲟ@@ 51
中心 51
丹@@ 51
命@@ 51
圖 51
圣@@ 51
学 51
学校 51
振@@ 51
楽@@ 51
湖@@ 51
白 51
阳 51
구 51
Hồng 50
Kristo 50
Royaume 50
Verfass@@ 50
Yên 50
aircraft 50
appr@@ 50
aşı 50
champion 50
collabor@@ 50
découver@@ 50
follow@@ 50
kez 50
nouveaux 50
oyun 50
passage 50
served 50
uzun@@ 50
uç 50
wahr@@ 50
çer@@ 50
ượ@@ 50
ȝ 50
Παναγ@@ 50
αξι@@ 50
ηγ@@ 50
ητ@@ 50
ιστ@@ 50
λυ@@ 50
οβ@@ 50
οπο@@ 50
ού 50
ϕ 50
Ри@@ 50
дж@@ 50
ры 50
чен@@ 50
чё@@ 50
بنت 50
دو@@ 50
شه@@ 50
علی 50
عي@@ 50
ني@@ 50
ܒ@@ 50
ܢ@@ 50
ह@@ 50
਼ 50
క@@ 50
ಪ@@ 50
ല 50
ว 50
สุ@@ 50
ུ 50
ព@@ 50
ẖ@@ 50
ἅ@@ 50
☃ 50
ⴰ 50
ず@@ 50
ぶ@@ 50
书 50
亮 50
別@@ 50
北京@@ 50
崎 50
念@@ 50
戰 50
拉@@ 50
梅@@ 50
沢@@ 50
紀@@ 50
越@@ 50
阪@@ 50
랑 50
미 50
중@@ 50
컴@@ 50
홍@@ 50
31. 49
Eski 49
Nisan 49
Russie 49
Vương 49
already 49
besuch@@ 49
bilin@@ 49
bless@@ 49
caract@@ 49
erst 49
esho 49
getr@@ 49
gör@@ 49
halten 49
hiệu 49
huwa 49
juin 49
kati 49
kazi 49
objet 49
occu@@ 49
prä@@ 49
tigung 49
tisha 49
weeks 49
éroï@@ 49
ɬ 49
ʻ 49
̍ 49
Αλ@@ 49
Καλλ@@ 49
Κομ@@ 49
Προ@@ 49
Χ 49
ίνα 49
ανός 49
αρχ@@ 49
αύ@@ 49
εβ@@ 49
εδ@@ 49
ελλ@@ 49
ιώ@@ 49
μν@@ 49
πυ@@ 49
τύ@@ 49
Нико@@ 49
Ше@@ 49
бал@@ 49
вой 49
дан@@ 49
дий 49
дов@@ 49
къ@@ 49
ме 49
рин@@ 49
ром 49
ственный 49
сти 49
стра@@ 49
хов 49
ָ 49
ֻ@@ 49
سي 49
يم 49
يوسف 49
િ@@ 49
ವ@@ 49
ู 49
ວ@@ 49
လ@@ 49
ḡ@@ 49
ὺ@@ 49
↓ 49
乙@@ 49
事 49
団 49
殿 49
理 49
罗@@ 49
集@@ 49
黨 49
관 49
동 49
명@@ 49
28. 48
Bộ 48
Cumhuriyeti 48
Durch 48
Thủ 48
anciens 48
andır@@ 48
highest 48
indano 48
lungs@@ 48
occup@@ 48
premiers 48
specif@@ 48
spieler 48
thú 48
étudi@@ 48
ôi 48
ʑ@@ 48
̊ 48
΄ 48
ρό@@ 48
συν@@ 48
ωνία 48
όφ@@ 48
Ль@@ 48
алистиче@@ 48
град@@ 48
рам 48
ран 48
ства 48
тор@@ 48
эро@@ 48
է@@ 48
العربية 48
المن@@ 48
ث 48
مُ@@ 48
وم 48
وي 48
ध@@ 48
আ@@ 48
ா 48
ோ@@ 48
ล 48
อง@@ 48
ា 48
ḫ 48
ả 48
Ἁ@@ 48
₱ 48
∩ 48
へ 48
内 48
初@@ 48
勇@@ 48
场 48
場@@ 48
塔 48
守@@ 48
尚@@ 48
紫@@ 48
羅 48
言@@ 48
起@@ 48
速@@ 48
酒 48
酒@@ 48
静@@ 48
경 48
토@@ 48
Cette 47
Gemeinden 47
Hollanda 47
Hán 47
Kanada 47
Provinz 47
Spieler 47
Trong 47
Vũ 47
biet 47
bronze 47
either 47
encour@@ 47
however 47
ilç@@ 47
karar@@ 47
lief 47
setz@@ 47
tör@@ 47
whom 47
Ý@@ 47
äten 47
Đo@@ 47
ızı 47
̰ 47
Λευ@@ 47
Χαλ@@ 47
ίμ@@ 47
νά@@ 47
Ху@@ 47
вед@@ 47
гар@@ 47
ду 47
каз@@ 47
мя@@ 47
нь 47
ори 47
сов@@ 47
щен@@ 47
اش@@ 47
اه@@ 47
تي@@ 47
قة 47
مار@@ 47
ني 47
प@@ 47
स@@ 47
ভ@@ 47
அ@@ 47
ண@@ 47
వ@@ 47
ನ@@ 47
ന 47
ำ@@ 47
ခ@@ 47
រ 47
ὔ@@ 47
ⵏ@@ 47
『 47
も 47
ノ 47
レ 47
军 47
号@@ 47
向@@ 47
在@@ 47
學 47
宣@@ 47
式 47
旗 47
最@@ 47
次@@ 47
浦@@ 47
瑞@@ 47
用@@ 47
精@@ 47
色 47
草 47
蔡@@ 47
话 47
賀@@ 47
車@@ 47
遠@@ 47
鄭@@ 47
门@@ 47
集 47
雨 47
青 47
魏@@ 47
을 47
일 47
치@@ 47
Bwana 46
Hier 46
Trường 46
alish@@ 46
dugu 46
dép@@ 46
existence 46
huy 46
iç 46
kote 46
orité 46
punkt 46
rapport 46
required 46
tradition 46
versch@@ 46
waren 46
ympi@@ 46
âng 46
ıç@@ 46
ǵ@@ 46
ίζ@@ 46
ρη@@ 46
χαρ@@ 46
Авто@@ 46
Васи@@ 46
Из@@ 46
Кор@@ 46
Ман@@ 46
Мари@@ 46
Нар@@ 46
ани 46
ву@@ 46
ей 46
жа 46
зан@@ 46
им 46
мен 46
над@@ 46
ны@@ 46
стан 46
тро@@ 46
ун@@ 46
բ 46
دا@@ 46
لا 46
مش@@ 46
އ@@ 46
जि@@ 46
री 46
ெ@@ 46
న@@ 46
ന@@ 46
ി 46
จ@@ 46
ນ@@ 46
ລ@@ 46
༌ 46
ལ@@ 46
ὅ@@ 46
⅛ 46
∼ 46
○ 46
』 46
ぐ@@ 46
サ 46
ュ 46
倉 46
健@@ 46
兰@@ 46
務@@ 46
勝@@ 46
周 46
官 46
寺@@ 46
左@@ 46
幸@@ 46
拳@@ 46
根@@ 46
浩@@ 46
画 46
门 46
雲 46
고 46
내@@ 46
바@@ 46
𐤀 46
Abgeord@@ 45
Tuzo 45
Zahl 45
abhäng@@ 45
addition 45
aît 45
chuy@@ 45
etwa 45
families 45
großen 45
ildir 45
kuto@@ 45
manière 45
miş 45
mondiale 45
plusieurs 45
recorded 45
reform 45
représent@@ 45
sitz 45
success 45
xem 45
ètre 45
ǣ@@ 45
̌ 45
Μά@@ 45
έας 45
βλ@@ 45
ιο 45
νόμ@@ 45
πατ@@ 45
σο@@ 45
τική 45
ωρ@@ 45
Ад@@ 45
Али@@ 45
Ган@@ 45
Доб@@ 45
Же@@ 45
Константин 45
ита 45
ква 45
нии 45
пар@@ 45
ׁ 45
به@@ 45
تو@@ 45
در 45
راء 45
زي@@ 45
وب@@ 45
وس@@ 45
ين@@ 45
रा@@ 45
୍ 45
ల 45
ཚ@@ 45
ར 45
ត 45
េ@@ 45
♀ 45
ⲁ@@ 45
ダ 45
バ 45
信 45
分@@ 45
力 45
学院 45
希 45
想@@ 45
曲 45
曲@@ 45
未@@ 45
柳@@ 45
波 45
甘@@ 45
臺@@ 45
藏@@ 45
角@@ 45
許@@ 45
노@@ 45
더@@ 45
조 45
𐤔 45
Angleterre 44
Daha 44
Eing@@ 44
Eğ@@ 44
Ils 44
allemande 44
dann 44
developed 44
dort 44
droite 44
intérieur 44
konn@@ 44
kür@@ 44
landais 44
opened 44
ordu 44
ouest 44
pitia 44
usually 44
wana@@ 44
wanyama 44
zeng@@ 44
Đ 44
şeh@@ 44
ɯ 44
ˤ@@ 44
Λα@@ 44
ήνη 44
ίδες 44
ίνος 44
δία 44
ειδ@@ 44
ουσ@@ 44
ούν@@ 44
τσ@@ 44
Мак@@ 44
Под@@ 44
жен@@ 44
зов 44
лев 44
лет@@ 44
мер@@ 44
национа@@ 44
нина 44
ности 44
пол@@ 44
спе@@ 44
той 44
чки 44
ём 44
آل 44
اف@@ 44
الوطني 44
او@@ 44
بَ@@ 44
بِ@@ 44
دان 44
سم@@ 44
عمر 44
ना@@ 44
อ 44
ສ@@ 44
ັ@@ 44
ွ@@ 44
យ@@ 44
ⁿ 44
≅ 44
ⴷ@@ 44
ろ 44
ニ 44
ャ 44
伝 44
反@@ 44
宇 44
居@@ 44
情@@ 44
斗 44
機 44
烏@@ 44
秀 44
紀 44
薬@@ 44
隆@@ 44
韩@@ 44
高 44
黑@@ 44
드@@ 44
로 44
상 44
신 44
26. 43
Bà 43
Kinh 43
Kongr@@ 43
Mannschaft 43
Qualif@@ 43
aidia 43
allem 43
arbeit 43
côté 43
financial 43
ilir 43
nern 43
operations 43
performed 43
phía 43
pièces 43
quitte 43
sür@@ 43
tober 43
trains 43
tái 43
zwischen 43
Â 43
Ç 43
ßen@@ 43
öße 43
ŕ 43
ước 43
ǚ 43
ɟ 43
ˠ@@ 43
Άγιος 43
Πύ@@ 43
Σκ@@ 43
άδες 43
άζ@@ 43
ίγ@@ 43
αφ@@ 43
δα 43
επι@@ 43
τι 43
χει@@ 43
ϕ@@ 43
Кали@@ 43
вод@@ 43
дан 43
или 43
имени 43
му 43
свя@@ 43
тин@@ 43
ческий 43
шу@@ 43
ёр@@ 43
Ӏ@@ 43
Տ@@ 43
أس@@ 43
الي@@ 43
تَ@@ 43
دی 43
ص 43
عل@@ 43
كُ@@ 43
مج@@ 43
مر 43
ब@@ 43
ধ@@ 43
ਰ 43
ಸ@@ 43
ข@@ 43
ธ@@ 43
པ@@ 43
ắc 43
ết 43
∑ 43
ⲓ@@ 43
ご@@ 43
ほ@@ 43
佛@@ 43
声 43
夜 43
奥@@ 43
広@@ 43
延@@ 43
战 43
时@@ 43
昌 43
洲@@ 43
源@@ 43
羽@@ 43
胡 43
記@@ 43
際@@ 43
씨 43
청@@ 43
프@@ 43
해 43
Uhr 42
américaine 42
anlar 42
bataille 42
buildings 42
continued 42
dient 42
dür@@ 42
entire 42
erfol@@ 42
joined 42
kuwa 42
layan 42
linie 42
machen 42
mals 42
nungen 42
rencontr@@ 42
schnitt 42
septembre 42
sieben 42
sometimes 42
stieg 42
students 42
welche 42
yali@@ 42
àm 42
écriv@@ 42
ĺ@@ 42
ơ 42
ɹ@@ 42
ˁ 42
˥ 42
Μον@@ 42
Χρυσ@@ 42
ές 42
βασ@@ 42
γραφ@@ 42
εφ@@ 42
κη 42
συ@@ 42
του@@ 42
Восто@@ 42
Дар@@ 42
На 42
Российской 42
ССР 42
Тру@@ 42
Хар@@ 42
ана 42
жи 42
лу 42
округ 42
поли@@ 42
университет 42
уч@@ 42
цо@@ 42
чер@@ 42
ши 42
ғ@@ 42
մ 42
است@@ 42
الدولي 42
العربي 42
بی@@ 42
बा@@ 42
ला 42
ீ@@ 42
ದ@@ 42
ക 42
യ@@ 42
ไทย 42
ლ 42
ṁ 42
ạn 42
び@@ 42
ヶ@@ 42
于@@ 42
佳@@ 42
俊@@ 42
医@@ 42
十 42
命 42
喜@@ 42
夷 42
孟@@ 42
局 42
弘@@ 42
影@@ 42
普@@ 42
望@@ 42
死@@ 42
漢 42
燕@@ 42
農@@ 42
馆 42
군 42
두@@ 42
브@@ 42
왕@@ 42
 42
27. 41
Doğu 41
Herrschaft 41
Kilom@@ 41
Kuzey 41
Thánh 41
Yunan 41
aient 41
assistant 41
commen@@ 41
début 41
ekana 41
gegeben 41
install@@ 41
kalm@@ 41
kü 41
letzten 41
ması 41
mesi 41
okana 41
piè@@ 41
rund 41
seiner 41
tifs 41
önc@@ 41
̠ 41
Αρχ@@ 41
Κά@@ 41
Νικόλα@@ 41
Περι@@ 41
Σοφ@@ 41
αία 41
αντ@@ 41
ασσ@@ 41
ατρ@@ 41
βο@@ 41
θυ@@ 41
ιά 41
ουλ@@ 41
πν@@ 41
ρά 41
ФК 41
Цер@@ 41
Чи@@ 41
ари 41
вица 41
дин 41
завод 41
лна 41
мин 41
партия 41
су 41
тар 41
ции 41
џ@@ 41
ծ@@ 41
փ@@ 41
الرحمن 41
الو@@ 41
جة 41
دی@@ 41
رَ@@ 41
سن@@ 41
قر@@ 41
مطار 41
می@@ 41
گا@@ 41
का@@ 41
वा@@ 41
ং@@ 41
ੰ@@ 41
గ@@ 41
ు 41
ಂ@@ 41
ൂ@@ 41
ប 41
ហ@@ 41
ំ@@ 41
ḻ@@ 41
ῆ 41
关@@ 41
北 41
右@@ 41
哈@@ 41
奈 41
將@@ 41
形 41
斯@@ 41
晓@@ 41
泉@@ 41
瀬@@ 41
目@@ 41
貴@@ 41
赵@@ 41
랑@@ 41
립@@ 41
창@@ 41
－ 41
Seite 40
Zwischen 40
akati 40
dernière 40
especially 40
faite 40
gesam@@ 40
hangi 40
hapa 40
hiki 40
iligen 40
kauf@@ 40
lehr@@ 40
liko 40
millions 40
professionn@@ 40
reported 40
schri@@ 40
texte 40
vya 40
wirtschaft@@ 40
ċ@@ 40
İ 40
ǧ 40
ɦ@@ 40
ɹ 40
Μα@@ 40
Μεγάλ@@ 40
Μελ@@ 40
Νε@@ 40
έα 40
έκ@@ 40
ήμ@@ 40
ικό 40
μόν@@ 40
μύ@@ 40
παν@@ 40
ρκ@@ 40
όρι@@ 40
Ах@@ 40
Българ@@ 40
Ж 40
Кру@@ 40
Сло@@ 40
един@@ 40
же 40
институт 40
ком@@ 40
под@@ 40
че 40
шко 40
ще@@ 40
ց 40
الملك 40
ای 40
خ 40
طر@@ 40
व@@ 40
हा 40
স 40
ం@@ 40
ి 40
ം 40
นา@@ 40
อย@@ 40
མ 40
န@@ 40
ស 40
ី@@ 40
ḵ@@ 40
ẓ 40
⊂ 40
♂ 40
ⴱ@@ 40
ⴻ@@ 40
ⵣ@@ 40
メ 40
伝@@ 40
余@@ 40
入@@ 40
助 40
奴 40
好 40
季@@ 40
寶@@ 40
岳 40
極@@ 40
殺@@ 40
氣 40
目 40
程@@ 40
約 40
蘇@@ 40
街 40
雨@@ 40
雪 40
首@@ 40
너@@ 40
모@@ 40
제 40
혜@@ 40
Nhân 39
TCN 39
Titel 39
avait 39
bağ@@ 39
besser@@ 39
folg@@ 39
gouvern@@ 39
itig 39
jeni 39
kreich 39
protég@@ 39
röm@@ 39
selb@@ 39
stamm@@ 39
symbol@@ 39
vertr@@ 39
wahl 39
wili 39
équip@@ 39
ĕ 39
ʏ@@ 39
ασθεν@@ 39
γυμ@@ 39
ετ@@ 39
όχ@@ 39
ύν@@ 39
Ак@@ 39
Григо@@ 39
Й 39
Красно@@ 39
Кры@@ 39
Пла@@ 39
Север@@ 39
Тур@@ 39
ган 39
ез@@ 39
кро@@ 39
кт 39
ктор 39
мы 39
рат 39
слав@@ 39
стан@@ 39
стиче@@ 39
стов 39
това 39
ще 39
ارة 39
الة 39
انية 39
جب@@ 39
محمود 39
مز@@ 39
وت 39
ۇ@@ 39
ज@@ 39
ली 39
ৰ@@ 39
વ@@ 39
ା 39
ไ@@ 39
ི 39
က 39
ት 39
Ẓ@@ 39
ộc 39
ới 39
Ἴ@@ 39
∃ 39
∅ 39
⊥ 39
け 39
ね@@ 39
デ 39
ヨ@@ 39
介 39
八 39
兵 39
大學 39
度@@ 39
康 39
惠@@ 39
早@@ 39
杜@@ 39
桜@@ 39
源 39
興@@ 39
術@@ 39
見 39
語@@ 39
起 39
드 39
송@@ 39
임@@ 39
29. 38
Eylül 38
Jahrhunderts 38
Makala 38
Wilaya 38
Yük@@ 38
asker@@ 38
assez 38
babu 38
becom@@ 38
conseil 38
difficul@@ 38
ehör@@ 38
engwa 38
intégr@@ 38
izm 38
meilleur 38
mji 38
months 38
participation 38
phê 38
rı 38
saison 38
sasa 38
tarz@@ 38
ãi 38
établ@@ 38
ört 38
öğ@@ 38
ȝ@@ 38
ɖ@@ 38
ɯ@@ 38
ʉ@@ 38
˘ 38
̝ 38
απο@@ 38
αρχος 38
θύ@@ 38
ιχ@@ 38
κα 38
μπο@@ 38
ολόγ@@ 38
που 38
ρατ@@ 38
τέχ@@ 38
τού@@ 38
τω 38
όμ@@ 38
ϑ@@ 38
Бер@@ 38
Димит@@ 38
Не 38
СК@@ 38
Федера@@ 38
ате@@ 38
кто@@ 38
пор@@ 38
тов@@ 38
чо@@ 38
ща@@ 38
Խ@@ 38
ջ@@ 38
أن@@ 38
ات@@ 38
از@@ 38
جو@@ 38
را 38
رين 38
زة 38
سلطان 38
قي@@ 38
ول 38
ް@@ 38
श@@ 38
ा 38
ି@@ 38
ள 38
త@@ 38
ಬ@@ 38
ಲ@@ 38
സ@@ 38
ോ@@ 38
ျ@@ 38
ር@@ 38
Ḍ@@ 38
Ἠ@@ 38
∫ 38
パ 38
モ 38
与@@ 38
义@@ 38
任@@ 38
倉@@ 38
列@@ 38
国家@@ 38
基@@ 38
塔@@ 38
姫 38
恵 38
拓@@ 38
格@@ 38
案 38
樂 38
深@@ 38
溪 38
然@@ 38
省@@ 38
秋 38
關@@ 38
防@@ 38
단 38
Although 37
Hưng 37
Kı@@ 37
Ngh@@ 37
Nghệ 37
No. 37
Vertr@@ 37
Zusammen@@ 37
akter@@ 37
campaign 37
cü 37
habitants 37
haki 37
heiten 37
includes 37
increase 37
joto 37
koş@@ 37
lebt 37
leş@@ 37
lieutenant 37
mbali 37
originally 37
subsequ@@ 37
titre 37
uyền 37
zili@@ 37
ùa 37
ına 37
Ανδρ@@ 37
Βι@@ 37
Πλ@@ 37
έρα 37
ίνη 37
αγγ@@ 37
θεια 37
κέν@@ 37
κρά@@ 37
ρου 37
σης 37
Ай@@ 37
Бра@@ 37
Вар@@ 37
Ер@@ 37
Им@@ 37
Мор@@ 37
Обла@@ 37
Пере@@ 37
Фи@@ 37
бер@@ 37
горо@@ 37
город 37
для 37
дру@@ 37
дь@@ 37
из 37
нис 37
прав@@ 37
сса@@ 37
тия 37
хан@@ 37
цион@@ 37
шен@@ 37
ѣ@@ 37
Լ@@ 37
չ@@ 37
ֿ@@ 37
ائ@@ 37
اي@@ 37
بر 37
بية 37
تا@@ 37
زي 37
كري@@ 37
ܫ@@ 37
ण 37
पा@@ 37
ਦ@@ 37
મ@@ 37
લ 37
జ@@ 37
మ@@ 37
ು 37
ട@@ 37
ราช@@ 37
ກ@@ 37
အ@@ 37
គ@@ 37
ṁ@@ 37
ế@@ 37
ục 37
‧ 37
♪ 37
さ 37
べ@@ 37
を 37
ガ 37
ビ 37
保 37
典 37
动@@ 37
后@@ 37
宁@@ 37
弘 37
徳@@ 37
战@@ 37
摩@@ 37
溪@@ 37
爱 37
甲 37
竜@@ 37
蒙@@ 37
郎@@ 37
開@@ 37
頭 37
개@@ 37
면 37
물@@ 37
술@@ 37
𐤋 37
Bürgermeister 36
Phương 36
afrika 36
baji 36
baren 36
commenc@@ 36
completed 36
consac@@ 36
contains 36
daki 36
einmal 36
fahren 36
followed 36
gehen 36
groß@@ 36
gäng@@ 36
kleri 36
kumbu@@ 36
lesqu@@ 36
mouv@@ 36
opération 36
preuve 36
reached 36
remains 36
spent 36
stated 36
successful 36
supported 36
timent 36
yarat@@ 36
évén@@ 36
Βαρ@@ 36
Δού@@ 36
Λε@@ 36
Μπ@@ 36
έσ@@ 36
έχ@@ 36
θέν@@ 36
λει@@ 36
οτ@@ 36
ριν@@ 36
χι@@ 36
Воз@@ 36
Зем@@ 36
Ленин@@ 36
Само@@ 36
Све@@ 36
Э 36
аври@@ 36
ата 36
вар@@ 36
года 36
горе@@ 36
ден 36
дуар@@ 36
зем@@ 36
лев@@ 36
лян@@ 36
од@@ 36
остров 36
сто 36
ут@@ 36
чная 36
щ 36
щи@@ 36
ә 36
լ 36
اق@@ 36
المق@@ 36
الوطنية 36
جزيرة 36
حة 36
سك@@ 36
عد@@ 36
كة 36
لی 36
محافظة 36
هة 36
وق@@ 36
وم@@ 36
ܓ@@ 36
ܥ@@ 36
މ@@ 36
শ 36
ર 36
ത 36
ර@@ 36
ี 36
ຊ@@ 36
ອ@@ 36
စ@@ 36
ስ@@ 36
ḿ@@ 36
ức 36
ữu 36
▀ 36
ぎ@@ 36
つ 36
わ 36
テ 36
五 36
发@@ 36
善@@ 36
塚@@ 36
宏 36
尾 36
希@@ 36
影 36
斗@@ 36
日本 36
桂@@ 36
步@@ 36
比@@ 36
灣@@ 36
燕 36
皇帝 36
肉@@ 36
芳 36
葉 36
董@@ 36
血@@ 36
裕@@ 36
角 36
話 36
郑@@ 36
銃 36
雅 36
鮮@@ 36
문 36
방@@ 36
오 36
왕 36
준@@ 36
크@@ 36
트@@ 36
평@@ 36
Kuu 35
Namen 35
Nhi@@ 35
achten 35
activities 35
anges@@ 35
appointed 35
augment@@ 35
endung 35
iliş@@ 35
larger 35
largest 35
leaving 35
mızı 35
président 35
sinh 35
themselves 35
zeuge 35
ächen 35
Độ 35
ơ@@ 35
ʎ@@ 35
ˤ 35
Βασ@@ 35
Κατ@@ 35
Τσ@@ 35
για 35
είο 35
εισ@@ 35
ιρ@@ 35
κλη@@ 35
νη@@ 35
ουν@@ 35
πυρ@@ 35
ρον@@ 35
ωλ@@ 35
ότ@@ 35
ώνη 35
Боль@@ 35
Гер@@ 35
Дру@@ 35
Ке@@ 35
Фу@@ 35
Ч 35
авиа@@ 35
ати@@ 35
бли@@ 35
гол 35
жо@@ 35
зар@@ 35
ис@@ 35
кан@@ 35
кар@@ 35
лан@@ 35
лица 35
оло@@ 35
пер@@ 35
чик 35
шки 35
Ն@@ 35
ֱ@@ 35
إبراهيم 35
اج@@ 35
ادي 35
الري@@ 35
رب@@ 35
شر@@ 35
ظ@@ 35
لال 35
مسجد 35
وة 35
وف@@ 35
ِّ@@ 35
ّة 35
वि@@ 35
ট 35
સ@@ 35
ஜ@@ 35
ೂ@@ 35
ട 35
ි@@ 35
ณ@@ 35
เข@@ 35
ཀ@@ 35
ḏ 35
ầu 35
ỗ 35
₁ 35
↵ 35
∥ 35
ⲙ@@ 35
ヘ@@ 35
书@@ 35
体 35
內@@ 35
其@@ 35
夢 35
形@@ 35
彩@@ 35
彭@@ 35
打@@ 35
指@@ 35
敬@@ 35
术@@ 35
李 35
来 35
樂@@ 35
洋 35
盛@@ 35
相 35
節 35
蓮@@ 35
要@@ 35
豆@@ 35
鈴@@ 35
麗@@ 35
과 35
반@@ 35
서 35
식 35
에 35
용@@ 35
젓 35
천 35
Gebiet 34
Reihe 34
Schlacht 34
Spiele 34
Tự 34
acak 34
allowed 34
américain 34
arş@@ 34
beim 34
buni 34
digung 34
dù 34
engag@@ 34
[...]
