. 0.8764774583321817
، 1
في 1
من 1
ب@@ 1
ي@@ 1
على 1
ل@@ 1
( 1
) 1
ك@@ 1
أ@@ 1
وال@@ 1
ت@@ 1
و@@ 1
إلى 1
الم@@ 1
ية 1
لل@@ 1
ي 1
ه@@ 1
&quot; 0.39540727698601946
ه 1
الت@@ 1
ال@@ 1
ف@@ 1
الأ@@ 1
ين 1
ة 1
ح@@ 1
ج@@ 1
ش@@ 1
د@@ 1
ع@@ 1
و 1
أن 1
ها 1
عام 1
م@@ 1
إ@@ 1
س@@ 1
هو 1
وي@@ 1
ط@@ 1
الح@@ 1
غ@@ 1
ق@@ 1
ت 1
ات 1
ز@@ 1
ب 1
الق@@ 1
م 1
مع 1
ص@@ 1
التي 1
ر@@ 1
ى 1
: 1
ن@@ 1
الع@@ 1
ع 1
عن 1
ث@@ 1
أو 1
ف 1
الك@@ 1
ما 1
وت@@ 1
الن@@ 1
سي@@ 1
وا@@ 1
الس@@ 1
ًا 1
ون 1
ري@@ 1
س 1
لي@@ 1
خ@@ 1
ان@@ 1
ا 1
د 1
كان 1
ك 1
بي@@ 1
ان 1
مي@@ 1
وم@@ 1
الف@@ 1
ر 1
ض@@ 1
الج@@ 1
ق 1
هم 1
في@@ 1
ز 1
لة 1
دي@@ 1
الإ@@ 1
ين@@ 1
را@@ 1
لا@@ 1
رو@@ 1
وب@@ 1
الب@@ 1
ست@@ 1
هي 1
ار@@ 1
ل 1
رة 1
ون@@ 1
عة 1
ح 1
مة 1
ذ@@ 1
وأ@@ 1
ور@@ 1
الد@@ 1
ال 1
بعد 1
الص@@ 1
ير 1
المتحدة 1
بين 1
الش@@ 1
ن 1
هذه 1
اء 1
ور 1
ار 1
ذلك 1
من@@ 1
لا 1
دة 1
« 1
» 1
ول@@ 1
مو@@ 1
مع@@ 1
تش@@ 1
الذي 1
تم 1
اب@@ 1
- 1
تع@@ 1
هذا 1
تح@@ 1
يا 1
والم@@ 1
تم@@ 1
تر@@ 1
بر@@ 1
وس@@ 1
لو@@ 1
الر@@ 1
حيث 1
الط@@ 1
تق@@ 1
ّ@@ 1
ج 1
ام 1
ته 1
است@@ 1
مت@@ 1
كانت 1
مح@@ 1
قة 1
ط 1
كل 1
ولد 1
وج@@ 1
وق@@ 1
ير@@ 1
ام@@ 1
قي@@ 1
قبل 1
اد@@ 1
دي 1
يات 1
@-@ 0.15205120511245857
ني@@ 1
ول 1
غ 1
ا@@ 1
خلال 1
تي@@ 1
بة 1
الخ@@ 1
ات@@ 1
ائ@@ 1
وقد 1
يل 1
زي@@ 1
با@@ 1
كي@@ 1
غير 1
الولايات 1
أس@@ 1
تو@@ 1
بن 1
أن@@ 1
قد 1
وك@@ 1
اً 1
ود 1
اف@@ 1
كما 1
بن@@ 1
حة 1
اله@@ 1
ص 1
مثل 1
مس@@ 1
نا@@ 1
كرة 1
بع@@ 1
يد 1
فة 1
سي 1
اني 1
المح@@ 1
لي 1
تف@@ 1
ُ@@ 1
لم 1
وفي 1
الغ@@ 1
حي@@ 1
رية 1
مر@@ 1
سنة 1
نية 1
لات 1
اع@@ 1
ث 1
فر@@ 1
ض 1
له 1
المع@@ 1
ما@@ 1
رات 1
تها 1
ظ@@ 1
اس@@ 1
اد 1
تج@@ 1
الو@@ 1
ند@@ 1
عدد 1
بي 1
ني 1
بل@@ 1
الي@@ 1
وهو 1
لية 1
وف@@ 1
وع@@ 1
آ@@ 1
مار@@ 1
بو@@ 1
عل@@ 1
يع@@ 1
تص@@ 1
المن@@ 1
/ 1
ري 1
حتى 1
بعض 1
ارة 1
سل@@ 1
تا@@ 1
در@@ 1
اس 1
ائية 1
تك@@ 1
يين 1
بد@@ 1
لاعب 1
مق@@ 1
المست@@ 1
أنه 1
ش 1
أكثر 1
ثم 1
اه@@ 1
طة 1
سة 1
انية 1
الل@@ 1
وا 1
مج@@ 1
المملكة 1
كة 1
ئ@@ 1
لف@@ 1
أي 1
الي 1
مل@@ 1
َ@@ 1
اي@@ 1
الث@@ 1
مد@@ 1
عم@@ 1
سب@@ 1
أمريكي 1
ادة 1
لها 1
يمكن 1
يت@@ 1
الية 1
ورة 1
جي@@ 1
مدينة 1
بية 1
تي 1
مص@@ 1
الز@@ 1
اب 1
ِ@@ 1
قدم 1
يق@@ 1
وهي 1
كت@@ 1
وي 1
جن@@ 1
عية 1
مان 1
مست@@ 1
اج@@ 1
– 0.6204535065026847
الة 1
دية 1
بشكل 1
دو@@ 1
دا@@ 1
هي@@ 1
عات 1
% 0.9578697119864051
مية 1
اح@@ 1
1 0.7362793171272234
وص@@ 1
بال@@ 1
تب@@ 1
سية 1
راء 1
ود@@ 1
مه@@ 1
يو@@ 1
اك@@ 1
عبد 1
يم 1
نس@@ 1
شي@@ 1
فا@@ 1
المص@@ 1
لت 1
عي 1
بح@@ 1
نا 1
ؤ@@ 1
به 1
الاست@@ 1
ائي 1
المر@@ 1
رب@@ 1
المق@@ 1
الأس@@ 1
وح@@ 1
؛ 1
نج@@ 1
مي 1
عد@@ 1
اط@@ 1
البي@@ 1
إي@@ 1
مش@@ 1
سم@@ 1
وكان 1
ء 1
العديد 1
تكون 1
وم 1
أك@@ 1
بها 1
مك@@ 1
السي@@ 1
يك@@ 1
, 0.014784884149942487
يتم 1
2 0.7279633492252104
بات 1
يُ@@ 1
تد@@ 1
خ 1
تن@@ 1
لك@@ 1
سك@@ 1
مر 1
نة 1
المت@@ 1
سو@@ 1
اش@@ 1
يه 1
أخرى 1
المس@@ 1
3 0.8461854378679062
تين 1
بار@@ 1
ّ 1
رت 1
مات 1
مل 1
المج@@ 1
نادي 1
اق@@ 1
رين 1
مركز 1
لعب 1
وية 1
ابة 1
والتي 1
منها 1
أول 1
يم@@ 1
مجلس 1
القرن 1
أم@@ 1
تخ@@ 1
فيها 1
منذ 1
ترا@@ 1
الذ@@ 1
عمل 1
حسب 1
تحت 1
از@@ 1
ومن 1
خط@@ 1
ئة 1
مارس 1
جو@@ 1
سر@@ 1
َّ@@ 1
بط@@ 1
الأول 1
نش@@ 1
عندما 1
اص@@ 1
هناك 1
4 0.8910186035713734
عشر 1
افة 1
برا@@ 1
فية 1
كي 1
جامعة 1
ولكن 1
جميع 1
أل@@ 1
وإ@@ 1
طر@@ 1
أص@@ 1
رب 1
الض@@ 1
ارات 1
إل@@ 1
إن@@ 1
مرة 1
بسبب 1
العالم 1
هما 1
دت 1
محمد 1
قي 1
تس@@ 1
نظ@@ 1
فو@@ 1
شر@@ 1
الذين 1
حول 1
سون 1
قية 1
مؤ@@ 1
الفر@@ 1
يكون 1
الله 1
مث@@ 1
قص@@ 1
نق@@ 1
لح@@ 1
الأولى 1
لت@@ 1
أحد 1
سن@@ 1
منطقة 1
مرا@@ 1
وتوفي 1
لق@@ 1
العام 1
عند 1
الرو@@ 1
كار@@ 1
در 1
5 0.93520727462168
البر@@ 1
أيضًا 1
نو@@ 1
ست 1
.@@ 1
أ 1
علم 1
التع@@ 1
المه@@ 1
نسمة 1
دا 1
از 1
اخت@@ 1
وس 1
شركة 1
مت 1
اض@@ 1
أر@@ 1
تلك 1
ده 1
مان@@ 1
2004 1
أنها 1
لاح@@ 1
دون 1
6 0.9233063631963623
كية 1
تُ@@ 1
مجموعة 1
كو@@ 1
الآ@@ 1
بدأ 1
بق@@ 1
الجن@@ 1
زة 1
صل 1
الأر@@ 1
علا@@ 1
الحرب 1
بت@@ 1
قر@@ 1
لف 1
الأمريكية 1
دار@@ 1
لإ@@ 1
كل@@ 1
المؤ@@ 1
وري 1
يح@@ 1
يني 1
ذ 1
حد@@ 1
التح@@ 1
كس 1
مايو 1
فل@@ 1
بلغ 1
يت 1
ولا@@ 1
اث@@ 1
غي@@ 1
علي 1
يس 1
يوم 1
ينية 1
او@@ 1
قو@@ 1
يناير 1
وت 1
تا 1
كم 1
بري@@ 1
حر@@ 1
يش@@ 1
فبراير 1
رون 1
يو 1
اف 1
وض@@ 1
العمل 1
اع 1
وار@@ 1
إن 1
وز@@ 1
شا@@ 1
أبريل 1
ولا 1
3@@ 1
آخر 1
وه@@ 1
أكتوبر 1
هر 1
درا@@ 1
طل@@ 1
أغ@@ 1
فقد 1
إلا 1
ظهر 1
الان@@ 1
كر 1
8 0.974298469918197
&#93; 1
الثاني 1
سر 1
تز@@ 1
عدة 1
كون@@ 1
&#91; 1
دات 1
الات 1
ةً 1
ئ 1
بـ 1
فري@@ 1
دان 1
يونيو 1
ٍ 1
برو@@ 1
يوليو 1
ديد 1
سياسي 1
ديسمبر 1
عضو 1
ليل 1
7 0.9337312832390747
فت@@ 1
فق@@ 1
سبتمبر 1
يقع 1
ْ@@ 1
لكرة 1
َ 1
يًا 1
استخدام 1
باب 1
ـ@@ 1
العربية 1
بش@@ 1
مما 1
سات 1
فيه 1
الفي@@ 1
تأ@@ 1
رج@@ 1
دو 1
هد 1
10 0.914996290609104
وجود 1
كر@@ 1
جهة 1
عليه 1
وغ@@ 1
سم 1
المدينة 1
كان@@ 1
أه@@ 1
رس@@ 1
عت 1
نوفمبر 1
ينة 1
القدم 1
حية 1
ادي 1
فإن 1
بما 1
حص@@ 1
رئيس 1
وط@@ 1
ولاية 1
سع@@ 1
النا@@ 1
البل@@ 1
أغسطس 1
والأ@@ 1
ثر 1
ثة 1
تاريخ 1
قل 1
صي@@ 1
اته 1
ولة 1
ضد 1
دار 1
بين@@ 1
صر 1
دد 1
الرغم 1
مانية 1
بل 1
جي 1
نظام 1
طريق 1
لين 1
عب@@ 1
عب 1
شارك 1
فقط 1
خت@@ 1
الأخرى 1
وير 1
ذات 1
أخ@@ 1
إذا 1
الرا@@ 1
سط@@ 1
الوقت 1
بإ@@ 1
زي 1
9 1
طي@@ 1
هة 1
واء 1
لب 1
ضة 1
أح@@ 1
امل 1
شه@@ 1
التص@@ 1
داء 1
واحد 1
جة 1
اة 1
دين 1
أما 1
شار@@ 1
ضمن 1
إحدى 1
بور@@ 1
رف 1
وة 1
دير 1
انتخب 1
أكبر 1
را 1
بار 1
اري 1
كات 1
باسم 1
نفس 1
الأح@@ 1
المنطقة 1
ُ 1
فض@@ 1
وش@@ 1
أد@@ 1
قط@@ 1
يون 1
4@@ 1
وات 1
عر@@ 1
حالة 1
الحزب 1
أش@@ 1
قام 1
نف@@ 1
اللا@@ 1
20 1
ولي@@ 1
اسم 1
دع@@ 1
فر 1
صة 1
زل 1
بر 1
ينا 1
أي@@ 1
جر@@ 1
وكانت 1
سن 1
عليها 1
التق@@ 1
مون 1
وذلك 1
ً 1
الأم@@ 1
ورية 1
أث@@ 1
اغ@@ 1
حين 1
موا@@ 1
بناء 1
مب@@ 1
عبر 1
وان@@ 1
لكن 1
والذي 1
كبير 1
سا@@ 1
عل 1
مون@@ 1
أيضا 1
اتها 1
مين 1
جون 1
عد 1
حي 1
حوالي 1
15 1
داخل 1
درجة 1
شع@@ 1
المش@@ 1
الرسمي 1
عملية 1
جه@@ 1
فت 1
طور 1
الثانية 1
ذا 1
ضاء 1
القي@@ 1
12 0.9689184230669663
سين@@ 1
كتب 1
عي@@ 1
لاً 1
يست@@ 1
وب 1
مف@@ 1
ء@@ 1
الأص@@ 1
مقاطعة 1
الحكومة 1
نين 1
وسط 1
مُ@@ 1
حصل 1
واحدة 1
المنا@@ 1
جر 1
ارية 1
للأ@@ 1
بالت@@ 1
بالإضافة 1
لأ@@ 1
المي@@ 1
عادة 1
مواليد 1
وني 1
طبي@@ 1
المد@@ 1
ونادي 1
خص@@ 1
اعة 1
راً 1
جنوب 1
النه@@ 1
نوع 1
دن 1
فترة 1
كث@@ 1
داد 1
قد@@ 1
تغ@@ 1
رار 1
كون 1
العامة 1
اللغة 1
ويل 1
اية 1
يز@@ 1
فيلم 1
يقدر 1
سمى 1
مغ@@ 1
5@@ 1
دور 1
جا@@ 1
سان@@ 1
الوطني 1
بول@@ 1
قات 1
أثناء 1
تل 1
2@@ 1
تر 1
ندي 1
رض 1
كور@@ 1
رير 1
بات@@ 1
17@@ 0.6800413834472607
ادية 1
19 1
; 0.16694494097590407
شر 1
ادر 1
ِ 1
ّة 1
30 1
امة 1
جية 1
بعة 1
ائل 1
ينتمي 1
11 1
ته@@ 1
سين 1
وى 1
المغربية 1
تت@@ 1
خر@@ 1
بت 1
نز@@ 1
للسكان 1
والإ@@ 1
ابن 1
تقع 1
نت 1
مز@@ 1
تضم 1
فق 1
تعل@@ 1
بينما 1
سل 1
7@@ 1
6@@ 1
طلق 1
الأد@@ 1
تون 1
ينات 1
الدولة 1
قال 1
خي@@ 1
كن@@ 1
انا 1
العالمية 1
ارد 1
التر@@ 1
يف 1
عدم 1
المط@@ 1
منتخب 1
لسنة 1
ورا@@ 1
الاتحاد 1
دف@@ 1
14 1
25 1
وفي@@ 1
16 1
سان 1
8@@ 1
كبيرة 1
سبب 1
وتع@@ 1
عمل@@ 1
تل@@ 1
قت 1
عين 1
دها 1
عرض 1
السل@@ 1
اليوم 1
فرنسا 1
فات 1
نسبة 1
اره 1
واست@@ 1
نحو 1
نشط 1
18 0.9874542407322849
أجل 1
لو 1
2010 0.8088242112365087
انات 1
ابات 1
بأن 1
وخ@@ 1
وقت 1
التعليم 1
جل 1
ومع 1
الملك 1
ندية 1
حزب 1
يس@@ 1
ايا 1
نه@@ 1
ملا@@ 1
رض@@ 1
إقليم 1
للا@@ 1
إص@@ 1
سنوات 1
َّة 1
بلا@@ 1
كن 1
الخاصة 1
يون@@ 1
الإحصاء 1
واق@@ 1
شكل 1
عق@@ 1
مصر 1
17 1
يار 1
نى 1
هـ 1
قلي@@ 1
أصبح 1
مه 1
اه 1
قل@@ 1
غر@@ 1
طلب 1
اق 1
استخد@@ 1
حد 1
ونية 1
زيد 1
فن 1
خدمة 1
مها 1
13 1
ماس@@ 1
موسم 1
9@@ 1
وسي@@ 1
محافظة 1
مض@@ 1
ضر@@ 1
رق@@ 1
صف 1
النق@@ 1
ذكر 1
معظم 1
يرة 1
قب@@ 1
ولم 1
الحياة 1
والسكنى 1
باء 1
النف@@ 1
المغ@@ 1
الفترة 1
اضي 1
صح@@ 1
الجيش 1
ولدت 1
بطولة 1
حزبياً 1
هار@@ 1
وق 1
الوطنية 1
ماء 1
ربة 1
21 1
الات@@ 1
دًا 1
مط@@ 1
إنتاج 1
نص@@ 1
المك@@ 1
يف@@ 1
الثق@@ 1
عض@@ 1
داً 1
2013 0.9424957058188496
ادات 1
ثلاثة 1
ضم 1
أُ@@ 1
وظ@@ 1
رف@@ 1
دور@@ 1
عم 1
عمر 1
جز@@ 1
مال@@ 1
بص@@ 1
فيما 1
الري@@ 1
ماني 1
كام@@ 1
بني 1
جري@@ 1
با 1
للإ@@ 1
قيقة 1
بالإ@@ 1
ة@@ 1
ضي@@ 1
24 1
عه 1
نهاية 1
ضع 1
اسي 1
وف 1
المُ@@ 1
المف@@ 1
ابع 1
جانب 1
خلا@@ 1
الدين 1
وله 1
سياس@@ 1
يلي 1
دخ@@ 1
يبلغ 1
وري@@ 1
ولي 1
الأرض 1
لك 1
أبو 1
كول@@ 1
خرج 1
التاريخ 1
يع 1
زية 1
وبعد 1
راض 1
يران 1
&amp; 0.4369191842617751
يز 1
الاح@@ 1
يش 1
رًا 1
آيت 1
كا 1
بريطاني 1
2009 0.8746592650595456
جرا@@ 1
وتح@@ 1
زوج@@ 1
يه@@ 1
تهم 1
دولة 1
تست@@ 1
الصح@@ 1
مليون 1
يل@@ 1
فل 1
عبة 1
تو 1
زيادة 1
خل@@ 1
العص@@ 1
2007 0.9227075427353072
تج 1
الشر@@ 1
وار 1
أع@@ 1
الفيلم 1
أف@@ 1
جد 1
سبة 1
ألمانيا 1
شمال 1
تبة 1
2008 0.8621448192157167
الدوري 1
أحمد 1
سلسلة 1
بالم@@ 1
كري@@ 1
وث@@ 1
23 1
16@@ 0.6196564710023248
يني@@ 1
سمية 1
حل 1
دائ@@ 1
عها 1
22 1
طف@@ 1
وادي 1
لان 1
امي 1
خاصة 1
والح@@ 1
الأف@@ 1
اله 1
تض@@ 1
فار@@ 1
نظمة 1
فيد 1
لال 1
الحر@@ 1
يجب 1
طية 1
مختلفة 1
فران@@ 1
ائر 1
لز 1
اعد 1
ناء 1
أة 1
انته@@ 1
اكتش@@ 1
كلي@@ 1
دف 1
الآن 1
بدأت 1
البا@@ 1
انتق@@ 1
احة 1
تاج 1
ليس 1
اللي@@ 1
راد 1
كتاب 1
داث 1
المرك@@ 1
لان@@ 1
الهي@@ 1
كلية 1
سكانها 1
روا@@ 1
أق@@ 1
سلا@@ 1
القر@@ 1
2016 0.8359357661584113
الأمريكي 1
خو@@ 1
وعلى 1
متر 1
مرك@@ 1
الثالث 1
ظر 1
لعام 1
لام 1
وما 1
توفي 1
ددة 1
سب 1
المركز 1
قا 1
يوجد 1
انت@@ 1
الدرا@@ 1
جان@@ 1
لد 1
العث@@ 1
وفر 1
فريق 1
روس 1
كأس 1
تمر 1
دم 1
السكان 1
نفسه 1
ائرة 1
2006 0.8868615217417111
لمدة 1
دون@@ 1
حركة 1
اك 1
سكانه 1
مشار@@ 1
ولى 1
جون@@ 1
إذ 1
عط@@ 1
غرا@@ 1
لين@@ 1
13@@ 1
طن 1
سيس 1
هر@@ 1
قض@@ 1
يب 1
افية 1
مور@@ 1
صف@@ 1
صبح 1
بأ@@ 1
جديدة 1
جائزة 1
حض@@ 1
به@@ 1
2011 0.7116126090376874
الشع@@ 1
المخ@@ 1
كو 1
برنامج 1
ـ 1
الشيخ 1
27 1
لم@@ 1
المث@@ 1
طرة 1
بجماعة 1
النظام 1
لدى 1
اذ 1
المسل@@ 1
ائد 1
أنواع 1
فين 1
البرو@@ 1
تب 1
إدارة 1
وال 1
أيضاً 1
28 1
خة 1
ِّ@@ 1
26 1
سكان 1
البرا@@ 1
قرية 1
قانون 1
الدوّار 1
أفضل 1
لمشيخة 1
دُوَّار 1
ولكن@@ 1
وكذلك 1
فيا 1
مالي 1
بان@@ 1
ومن@@ 1
القوات 1
بلو@@ 1
D@@ 0.14773610455077546
مخ@@ 1
الرئيس 1
أوروبا 1
الأخ@@ 1
الكويكب 1
حق@@ 1
انة 1
نقل 1
ره 1
الموا@@ 1
15@@ 0.669732082667006
الإن@@ 1
جات 1
مباراة 1
المسي@@ 1
تشار@@ 1
كوم@@ 1
مجال 1
2012 0.7260057851689127
منه 1
ساب@@ 1
خدمات 1
شخص 1
ريد 1
جب 1
عام@@ 1
مدرسة 1
الأطفال 1
أمريكية 1
حم@@ 1
أصبحت 1
ارت 1
تط@@ 1
منصب 1
قبة 1
إج@@ 1
كندا 1
القانون 1
القط@@ 1
جه 1
دراسة 1
وضع 1
الرئيسي 1
بغ@@ 1
رح@@ 1
L@@ 0.14089071552078172
المناطق 1
سبيل 1
منظمة 1
اح 1
14@@ 0.9661038628985184
نان@@ 1
ذك@@ 1
لوس 1
ريف 1
ينيات 1
زمة 1
ئات 1
لفزي@@ 1
البلاد 1
جزء 1
الجديدة 1
النساء 1
وتم 1
دري@@ 1
قه 1
ريا 1
غل 1
نشر 1
جب@@ 1
عالم 1
2000 0.9021288628202011
المرا@@ 1
للح@@ 1
كمة 1
رك 1
يان 1
الشمالية 1
ديو 1
ظ 1
يك 1
واج 1
جم 1
عرف 1
باً 1
مسيرته 1
اسية 1
القديمة 1
طرق 1
الشركة 1
الدولي 1
لتح@@ 1
قيادة 1
لهم 1
والد@@ 1
الدولية 1
ويت 1
شرق 1
ريقة 1
سلط@@ 1
دارة 1
_ 0.7426587678510002
فور@@ 1
الإص@@ 1
خد@@ 1
وبة 1
بير 1
ءة 1
ابه 1
رها 1
طلاق 1
الطبي@@ 1
تمد 1
29 1
اي 1
الخط@@ 1
غري@@ 1
البح@@ 1
خار@@ 1
بيا 1
ثلاث 1
باط 1
الثلا@@ 1
الدي@@ 1
البحر 1
بواسطة 1
قائ@@ 1
الكثير 1
الغربية 1
أعمال 1
تاب@@ 1
لاف 1
ربية 1
اسم@@ 1
أقل 1
اخ@@ 1
2015 0.688752741939442
جار 1
بداية 1
موقع 1
قائمة 1
شارة 1
ند 1
تقد 1
بًا 1
واقع 1
الأك@@ 1
نيويورك 1
الجه@@ 1
الناس 1
أو@@ 1
فس@@ 1
حات 1
2014 0.6705663421577739
العربي 1
تبا@@ 1
اض 1
2005 0.8880491204739966
عاماً 1
تدري@@ 1
يج@@ 1
كز 1
الإم@@ 1
تش 1
شك@@ 1
تقري@@ 1
الدول 1
الاخت@@ 1
مستوى 1
اوية 1
بعض@@ 1
سام 1
الأه@@ 1
ليين 1
أعلى 1
الاسم 1
اتي 1
طي 1
وحدة 1
نت@@ 1
فوق 1
فير 1
الإنسان 1
الأعمال 1
فاز 1
عص@@ 1
شو@@ 1
عاية 1
والع@@ 1
ماية 1
هاب 1
بس@@ 1
لغ@@ 1
بريطانيا 1
ذج 1
ودة 1
كانوا 1
دولار 1
باش@@ 1
-@@ 1
اهرة 1
مًا 1
جين 1
تتبع 1
دس 1
اء@@ 1
قًا 1
نوا@@ 1
جو 1
أنش@@ 1
الهند 1
ستخد@@ 1
دائرة 1
الطاقة 1
بير@@ 1
تور@@ 1
رئي@@ 1
يلعب 1
التف@@ 1
اليد 1
طول 1
كريكت 1
ياً 1
سج@@ 1
الأمر 1
وجه 1
صن@@ 1
المثال 1
المياه 1
C@@ 0.12568451141874848
سمح 1
فص@@ 1
بول 1
حياته 1
المجلس 1
وع 1
قيق 1
وز 1
الإعلا@@ 1
الدفاع 1
وتق@@ 1
الظ@@ 1
ندا 1
قوة 1
بط 1
المب@@ 1
ديل 1
زم 1
المتح@@ 1
البط@@ 1
ملك 1
مار 1
دخل 1
شهر 1
وزارة 1
الور@@ 1
الاجتماعية 1
ذية 1
لاند 1
لأن 1
تار@@ 1
روف 1
ئية 1
بالك@@ 1
انيا 1
طلا@@ 1
توا@@ 1
والت@@ 1
كثير 1
دين@@ 1
طاق@@ 1
وان 1
المجتمع 1
سيا 1
يخ 1
دول@@ 1
وهذا 1
مدر@@ 1
يكن 1
جع 1
الرياض@@ 1
ستر@@ 1
غط 1
باستخدام 1
مكان@@ 1
اليون@@ 1
حت@@ 1
شي 1
غر 1
اكم 1
صالح 1
مال 1
زا 1
العلا@@ 1
الصنا@@ 1
الرئيسية 1
ولوجيا 1
إعادة 1
العائ@@ 1
ضية 1
العشرين 1
لوا 1
سير 1
ترك 1
داف 1
S@@ 0.09692384693190231
اما 1
نتيجة 1
يوس 1
نم@@ 1
دل@@ 1
كين 1
يرا 1
دعم 1
هام 1
ديدة 1
انتقل 1
H@@ 0.13096702609222316
أس 1
تصنيف 1
حق 1
العسكرية 1
خل 1
موسي@@ 1
عز@@ 1
ظهرت 1
اتب 1
ٌ 1
الجنوبية 1
غة 1
ممثل 1
الاقتص@@ 1
أمريكا 1
المرأة 1
تاريخ@@ 1
وين@@ 1
الحكوم@@ 1
المز@@ 1
ربع 1
الأكثر 1
منهم 1
ريك@@ 1
باد@@ 1
السياسية 1
اذ@@ 1
الكتاب 1
صحي@@ 1
المحي@@ 1
لكل 1
جوائز 1
بيل 1
عش@@ 1
لوب 1
ويات 1
سوي@@ 1
دول 1
رام 1
اليه@@ 1
قوات 1
مثلة 1
لدي@@ 1
جمهورية 1
خارج 1
&apos; 0.1314687527206481
الفرنسية 1
ولوج@@ 1
ملكة 1
الدم 1
قدر@@ 1
للو@@ 1
ارب 1
P@@ 0.12326431256009855
نها 1
التج@@ 1
رقم 1
الولا@@ 1
مين@@ 1
غالب@@ 1
ستان 1
افي 1
قامت 1
بنى 1
= 0.8919048532527131
وفاة 1
ربي 1
أند@@ 1
عن@@ 1
حدي@@ 1
كار 1
رد 1
حدث 1
الصين 1
وقف 1
دل 1
المعر@@ 1
O@@ 0.1974602006682814
لذلك 1
لاب 1
رو 1
ترو@@ 1
الشرقية 1
2003 0.9551076861691548
2020 0.7040471821498613
سكو 1
الجديد 1
الحيو@@ 1
جهزة 1
لهذا 1
جد@@ 1
جرة 1
يعتبر 1
المؤس@@ 1
جمع 1
تقديم 1
زن 1
الألعاب 1
0@@ 1
حالات 1
السوفي@@ 1
أمام 1
مسي@@ 1
ألف 1
جورج 1
شخص@@ 1
بالنسبة 1
ءات 1
فن@@ 1
قسم 1
ستر 1
2017 0.6270967793975781
ميل 1
الجام@@ 1
الروا@@ 1
حرب 1
وج 1
كين@@ 1
حياة 1
يض@@ 1
السعودية 1
ضى 1
مسر@@ 1
وين 1
٪ 1
10@@ 1
الموسيق@@ 1
سام@@ 1
يرلندا 1
31 1
المعلومات 1
جمعية 1
وزي@@ 1
كيل 1
مد 1
يري 1
فضل 1
1@@ 1
تعتبر 1
َّ 1
اط 1
يخ@@ 1
اعات 1
R@@ 0.11943198775251915
أول@@ 1
كات@@ 1
الزرا@@ 1
طب@@ 1
أعم@@ 1
أولاد 1
العق@@ 1
بع 1
أدى 1
الحكم 1
الجما@@ 1
تؤ@@ 1
تستخدم 1
غرب 1
السابق 1
التقلي@@ 1
الت 1
تنا@@ 1
البريطانية 1
منية 1
الحركة 1
ظه@@ 1
كذلك 1
امن 1
جام@@ 1
بأنه 1
يث 1
ادل 1
أشهر 1
فه 1
لندن 1
شن@@ 1
شري@@ 1
جان 1
T@@ 0.1075686592113511
أربعة 1
فا 1
علوم 1
الإسلامية 1
التالية 1
تميز 1
M@@ 0.11459516505921831
فع@@ 1
خط 1
الشعب@@ 1
ثق@@ 1
راف 1
بعدها 1
جيل 1
مز 1
اج 1
إنشاء 1
ترج@@ 1
بيت 1
ونا 1
أور@@ 1
رئ@@ 1
تطوير 1
القدي@@ 1
الشرق 1
بيع 1
روفة 1
عائلة 1
واح@@ 1
اسة 1
هدف 1
نهر 1
بد 1
الأل@@ 1
وني@@ 1
فرا@@ 1
شف 1
وصل 1
تغي@@ 1
أصل 1
أستراليا 1
وجد 1
جيمس 1
الشيو@@ 1
الأغ@@ 1
عبارة 1
نان 1
تأس@@ 1
مكان 1
كندي 1
الرق@@ 1
تقدم 1
بيض 1
حكم 1
أهم 1
مج 1
سما@@ 1
التالي 1
وبالتالي 1
طات 1
قى 1
يستخدم 1
جاب@@ 1
قرا@@ 1
تد 1
ترك@@ 1
يقوم 1
التش@@ 1
اقتص@@ 1
العليا 1
النظ@@ 1
ادت 1
العراق 1
50 0.8216260014614356
ريق 1
اديمية 1
جن 1
دان@@ 1
الصحة 1
مجموع@@ 1
عمليات 1
100 0.7812633666976151
إس 1
هيئة 1
حيد 1
ودية 1
إنه 1
مذ@@ 1
ريك 1
2002 0.8414352096192567
السياس@@ 1
السنة 1
الكه@@ 1
كويكبات 1
المواد 1
روي@@ 1
سجل 1
متح@@ 1
خدم 1
المشار@@ 1
وح 1
تعداد 1
2018 0.5516413628345064
عُ@@ 1
.. 1
ممثلة 1
عًا 1
يرات 1
طرا@@ 1
آخرين 1
لون 1
... 1
البشر@@ 1
يكية 1
مس 1
اوي 1
مرض 1
المض@@ 1
مشروع 1
رجل 1
الجزء 1
دوار 1
الا 1
قاعدة 1
العاصمة 1
عنه 1
السوي@@ 1
ودي@@ 1
وتش@@ 1
لًا 1
الجامعة 1
مو 1
عمر@@ 1
الخلايا 1
متع@@ 1
علاج 1
لفة 1
حكومة 1
نط@@ 1
جنة 1
مام 1
اش 1
المبار@@ 1
أفريقيا 1
N@@ 0.12299959956069809
هل 1
لق 1
الجمعية 1
جزيرة 1
نه 1
النو@@ 1
هول@@ 1
يق 1
بس 1
أت 1
أعضاء 1
أمر 1
ران 1
روا 1
الفل@@ 1
تري@@ 1
مَ@@ 1
جل@@ 1
اتهم 1
قصة 1
راع 1
ابية 1
الاس@@ 1
انوية 1
الشه@@ 1
قوق 1
قرار 1
2019 0.5753459173749552
الماء 1
منع 1
توجد 1
صغيرة 1
2001 0.8075821770881085
G@@ 0.11169889707688811
B@@ 0.10274681496607584
القرية 1
تعلق 1
لأول 1
ظم 1
تعلم 1
الحديث 1
سلطان 1
عهد 1
بالق@@ 1
إليه 1
العلمي 1
تخص@@ 1
تحدث 1
الأي@@ 1
ويمكن 1
التاسع 1
وص 1
تشمل 1
مناطق 1
تحديد 1
برت 1
اتية 1
مجلة 1
أنحاء 1
الشخصية 1
يعمل 1
المختلفة 1
نوات 1
اول 1
وأن 1
الفرنسي 1
الجزائر 1
تنفي@@ 1
أهل 1
وفق 1
العلوم 1
والي 1
الديمقراطي 1
معركة 1
عقد 1
وسياسي 1
حمل@@ 1
راب 1
وزير 1
التابعة 1
البحرية 1
الرابع 1
F@@ 0.10949062892399784
الحالات 1
تعمل 1
المجموعة 1
ذي 1
العصر 1
جيش 1
مرحلة 1
لندا 1
انس@@ 1
ولية 1
بالأ@@ 1
النوع 1
امه 1
حل@@ 1
درس 1
جديد 1
سطح 1
المسر@@ 1
الإي@@ 1
الموقع 1
املة 1
كرا@@ 1
باع@@ 1
روب 1
قين 1
ناد@@ 1
المدرسة 1
مبي@@ 1
افظ@@ 1
بان 1
ومح@@ 1
جوم 1
فع 1
000 1
فيروس 1
الفلسط@@ 1
ويليام 1
يوم@@ 1
مخت@@ 1
سى 1
لوك 1
لاح 1
الخاص 1
الساد@@ 1
أخذ 1
الإسب@@ 1
الأخيرة 1
ارا 1
توي 1
حقوق 1
عاد@@ 1
ثلاث@@ 1
طر 1
ارس 1
عيد 1
بح 1
عتبر 1
التجارية 1
صال 1
وَ@@ 1
سوم 1
بالف@@ 1
درو@@ 1
سا 1
كيلو@@ 1
مختلف 1
إسبانيا 1
ورت 1
كاتب 1
انه 1
توضيح 1
ملة 1
نيات 1
واض@@ 1
النس@@ 1
قاء 1
رؤ@@ 1
تطبي@@ 1
السو@@ 1
ريض 1
إضافة 1
الهند@@ 1
الألمانية 1
الدراسات 1
هن 1
اولة 1
ريات 1
المحلية 1
عسك@@ 1
ارًا 1
قيمة 1
الاجتماعي 1
اجتماع@@ 1
تية 1
روسيا 1
زر@@ 1
إيطاليا 1
اليابان 1
جزاء 1
تمثل 1
تصف 1
فرنس@@ 1
معدل 1
صد 1
لويس 1
السين@@ 1
أنهم 1
تقوم 1
تمث@@ 1
تعليم 1
يكا 1
الشمس 1
كبي@@ 1
خص 1
وفقًا 1
اور@@ 1
غيل 1
الأول@@ 1
0 0.604540062815319
الخارجية 1
شخصية 1
وائ@@ 1
ستخدم 1
ونة 1
العملية 1
ستي@@ 1
فان 1
مير 1
كتور 1
بلغ@@ 1
أفلام 1
A@@ 0.11634459646416682
البعض 1
الها 1
الكل@@ 1
العظمى 1
الكت@@ 1
بطة 1
الأشخاص 1
هند@@ 1
امية 1
طفال 1
المل@@ 1
ودي 1
سرعة 1
دورة 1
عراض 1
البار@@ 1
السر@@ 1
معه 1
الياب@@ 1
اتحاد 1
تأثير 1
السكان@@ 1
البحث 1
يؤدي 1
وسائل 1
دوا@@ 1
مصطلح 1
بك@@ 1
نطاق 1
عائ@@ 1
وغيرها 1
حالي@@ 1
الفريق 1
الأوروب@@ 1
درة 1
إليها 1
فورد 1
لول 1
والث@@ 1
مساعدة 1
الب 1
تضمن 1
التاريخ@@ 1
السري@@ 1
العلاج 1
صور 1
ظهور 1
الإسرائ@@ 1
الهجوم 1
رك@@ 1
ماً 1
التركي@@ 1
الجان@@ 1
الوسط 1
المغرب 1
دى 1
اعدة 1
قر 1
الخلي@@ 1
نمية 1
وامل 1
مبار@@ 1
آل 1
الم 1
يّة 1
الغذ@@ 1
والده 1
عاد 1
40 0.7879651618348964
العل@@ 1
ْ 1
له@@ 1
أست@@ 1
جري 1
تصل 1
حت 1
للغ@@ 1
نف 1
نون 1
ورد 1
ارها 1
العالمي 1
العض@@ 1
باست@@ 1
وحد@@ 1
كال 1
النواب 1
نظرية 1
طريقة 1
نجلي@@ 1
وتر@@ 1
هام@@ 1
البري@@ 1
الحديثة 1
E@@ 0.1248487236971377
الأراضي 1
ولها 1
الرح@@ 1
الشمال 1
فين@@ 1
وحتى 1
سيدي 1
موق@@ 1
شة 1
أبر@@ 1
مسؤ@@ 1
الأساسية 1
سو 1
1999 0.8022446076945164
الملكية 1
خراج 1
وء 1
بحاث 1
ةٍ 1
الكبير 1
صدر 1
يؤ@@ 1
رجال 1
أج@@ 1
تبط 1
باريس 1
12@@ 0.8913239761583379
العمر 1
الأمير 1
الثورة 1
الاع@@ 1
لون@@ 1
الجسم 1
ماك@@ 1
نات 1
غلا@@ 1
الكيمي@@ 1
الجنوب 1
0.@@ 1
معسكر 1
القص@@ 1
ابل 1
قاد@@ 1
مرت 1
الحصول 1
خلي@@ 1
امات 1
تحتوي 1
ئي 1
وصف 1
أم 1
الخار@@ 1
تمكن 1
مؤسسة 1
يعد 1
سيد 1
سابقاً 1
أيام 1
متوسط 1
جمي@@ 1
الكنيسة 1
التدري@@ 1
لديها 1
راتي@@ 1
تان 1
أوك@@ 1
رش@@ 1
قع 1
فرقة 1
أواخر 1
ظة 1
فقة 1
دوري 1
قلة 1
نسي@@ 1
الأوروبي 1
الانتخابات 1
تمل 1
تمت 1
فها 1
ستون 1
فيات 1
الام@@ 1
الحيوانات 1
شبكة 1
حك@@ 1
آسيا 1
اعل 1
المشا@@ 1
عامي 1
الجزيرة 1
بوت@@ 1
نور@@ 1
عامة 1
انتش@@ 1
مول@@ 1
الدرجة 1
المشتر@@ 1
الميلاد 1
الجوية 1
ائم 1
ليف 1
قب 1
1.@@ 0.9826744918959983
شفى 1
أوب@@ 1
الأمريك@@ 1
حسن 1
1998 0.8485455632858776
روبرت 1
عا 1
سوف 1
قيم 1
ائرات 1
فرة 1
ومية 1
أبي 1
سيم 1
الداخلية 1
زيل 1
الكبرى 1
مسلسل 1
الحالة 1
الإمبراطورية 1
الإيط@@ 1
لاء 1
طار 1
رأس 1
معهد 1
يفة 1
أحي@@ 1
الأولمبية 1
القض@@ 1
انت 1
وك 1
ريم 1
1990 0.7976999533678736
مؤس@@ 1
حز@@ 1
ناف@@ 1
قها 1
ثي@@ 1
صب 1
يب@@ 1
جبل 1
تحقيق 1
كلا@@ 1
قق 1
سري@@ 1
لما 1
العرا@@ 1
ارتفاع 1
المرحلة 1
السلطة 1
يمي 1
الوصول 1
البيانات 1
نشا@@ 1
زين 1
المعد@@ 1
مهورية 1
إسرائيل 1
بج@@ 1
ليب 1
تلق@@ 1
التشري@@ 1
سلو@@ 1
العمل@@ 1
s 0.04774505181217493
لس 1
علماء 1
رواية 1
حصلت 1
ائف 1
حاليا 1
واسع 1
صول 1
نمو@@ 1
بوب 1
لجنة 1
عنها 1
واس@@ 1
ابت@@ 1
رائ@@ 1
1996 0.8880570936937826
خاص 1
تلال 1
السياسي 1
الطب 1
ائع 1
تصميم 1
مير@@ 1
الأمم 1
ديا 1
زات 1
ماث@@ 1
هوم 1
ميم 1
مقابل 1
1992 0.9093392833928197
اومة 1
خلالها 1
تمع 1
الطبية 1
فيل 1
لقد 1
حدة 1
عالية 1
وارد 1
يط 1
تعد 1
كرو@@ 1
الوسطى 1
مدي@@ 1
بالقرب 1
الإنترنت 1
y 0.025993350789770532
حدو@@ 1
الرئ@@ 1
ذهب 1
التن@@ 1
قناة 1
دوية 1
باق 1
الجة 1
الإلكترو@@ 1
طويلة 1
اهدة 1
باب@@ 1
تقد@@ 1
فون 1
ندر 1
العرب 1
بوا@@ 1
امها 1
تال 1
صناعة 1
جهاز 1
الحدود 1
أفراد 1
عامًا 1
أوائل 1
20@@ 0.9028693832545972
قلال 1
سوريا 1
لل 1
1997 0.8672612632649342
الإسلام 1
الصحية 1
بلدية 1
لكنه 1
جما@@ 1
بيرة 1
الوزراء 1
العظ@@ 1
لـ 1
أمين 1
الموسم 1
لمد@@ 1
وقال 1
طان 1
ها@@ 1
تاح 1
ليون 1
قاً 1
ظل 1
الطبيعية 1
مى 1
حب 1
سف@@ 1
هب 1
بو 1
وليس 1
راج@@ 1
الأط@@ 1
200@@ 1
تيجة 1
هنري 1
ائب 1
يدة 1
إر@@ 1
البداية 1
الإنجليزية 1
أعلن 1
نصف 1
جنس 1
الألماني 1
البطولة 1
ومي 1
وُ@@ 1
الأكبر 1
نقطة 1
شبه 1
ستة 1
بيلة 1
الحض@@ 1
إض@@ 1
ثي 1
الشكل 1
بنا@@ 1
تقل 1
مات@@ 1
باح 1
الأمن 1
الأن@@ 1
تجات 1
كتب@@ 1
الإسلا@@ 1
النادي 1
أعل@@ 1
غز@@ 1
يص@@ 1
نيسة 1
الطب@@ 1
تمام 1
ارنة 1
الطريق 1
السع@@ 1
شيء 1
بحلول 1
سابق 1
قوا@@ 1
المسيحية 1
انتخ@@ 1
درت 1
رياض@@ 1
موا 1
إنجلترا 1
الأق@@ 1
قري@@ 1
عضاء 1
مارسة 1
للم@@ 1
الاحترا@@ 1
الشعب 1
ماك 1
جاه 1
اص 1
تركي@@ 1
عشرة 1
مكن 1
يشير 1
جمع@@ 1
شعب@@ 1
لقب 1
بأنها 1
كتابة 1
السابقة 1
المصرية 1
اول@@ 1
اللغ@@ 1
جور@@ 1
formula 0.4992436326644785
الذك@@ 1
الخامس 1
لر 1
جزء@@ 1
gt 0.5292625122339871
معهم 1
5.@@ 1
كوك@@ 1
دفع 1
عداد 1
المرض 1
المسلمين 1
مباشرة 1
ماكن 1
قرر 1
غو 1
تعرض 1
والك@@ 1
W@@ 0.0967963876716909
نجليزية 1
والص@@ 1
باس@@ 1
ورات 1
الخص@@ 1
فاق 1
منح 1
1991 0.8773404108115966
البريطاني 1
بهم 1
مطار 1
الموجودة 1
الإج@@ 1
نغ@@ 1
اليمن 1
ّا 1
سوق 1
الحرارة 1
1994 0.8626661685231127
تلا@@ 1
نائ@@ 1
علي@@ 1
امنة 1
نفسها 1
ادرة 1
وفاته 1
حجم 1
انو 1
خفض 1
مارك 1
جذ@@ 1
الأحيان 1
الجمهوري 1
كاليفورنيا 1
ارك 1
الشب@@ 1
كتي@@ 1
والش@@ 1
كامل 1
العلاقات 1
ؤلاء 1
المدارس 1
وبد@@ 1
الدينية 1
الساح@@ 1
تشير 1
تون@@ 1
ثار 1
للسي@@ 1
وّ@@ 1
ومي@@ 1
كريست@@ 1
60 0.8430700799657802
يتبع 1
لندي 1
فئة 1
lt 0.5114731839963583
شاركت 1
يمية 1
ذو 1
بون@@ 1
شل 1
نوعة 1
ولات 1
ضع@@ 1
وست@@ 1
اللعب 1
ائيات 1
البرلمان 1
طيع 1
لغة 1
1995 0.8408243883367257
بيد 1
وو@@ 1
كلمة 1
الصغيرة 1
جوا@@ 1
ماي@@ 1
يحدث 1
2.@@ 1
رغم 1
معر@@ 1
برامج 1
غير@@ 1
لى 1
دث 1
هات 1
الرجال 1
عشرين 1
ونات 1
وهناك 1
جنسية 1
المكان 1
السك@@ 1
اسب 1
ألعاب 1
الثالثة 1
ياب@@ 1
عرض@@ 1
القلب 1
خمسة 1
باح@@ 1
زيز 1
لاست@@ 1
التنفي@@ 1
مدة 1
1980 0.8908218362564824
إبراهيم 1
قت@@ 1
فاظ 1
1993 0.8823796545007379
القان@@ 1
شركات 1
نامج 1
ضر 1
واصل 1
النظر 1
العلمية 1
الاشترا@@ 1
صيلة 1
الغربي 1
ناحية 1
طرف 1
سيتي 1
سون@@ 1
جاء 1
اعي 1
عالم@@ 1
العزيز 1
ناصر 1
الاقتصادية 1
اون 1
بالع@@ 1
قتل 1
النباتات 1
طان@@ 1
العمال 1
الخي@@ 1
1989 0.9378204381518371
العسك@@ 1
غان 1
الصيفية 1
علاق@@ 1
المجمو@@ 1
الشرطة 1
يعرف 1
بخ@@ 1
اللو@@ 1
تنظيم 1
داخ@@ 1
؟ 1
دز 1
الجزائ@@ 1
رال 1
of 0.008600232118958434
للت@@ 1
الخام@@ 1
سكي 1
لائ@@ 1
نع 1
انتخابات 1
ثن@@ 1
توماس 1
وث 1
يته 1
يكي 1
لاحق 1
بحث 1
التعل@@ 1
ً@@ 1
لن@@ 1
اند 1
الزي@@ 1
بالح@@ 1
عَ@@ 1
خان 1
ضل@@ 1
خلف@@ 1
اند@@ 1
1988 0.9756606932378583
فس 1
خطط 1
عمال 1
قليم 1
بغداد 1
رسم@@ 1
ائق 1
فرد 1
سلام 1
العلماء 1
سلي@@ 1
لن 1
الإل@@ 1
K@@ 0.08436755507119388
آر@@ 1
تين@@ 1
سوس 1
1984 1
فصل 1
مرات 1
ولت 1
تن 1
موض@@ 1
فلسطين 1
الموج@@ 1
قبل@@ 1
قان@@ 1
وط 1
لِ@@ 1
1986 1
العلم 1
تحمل 1
رس 1
لَ@@ 1
مني 1
بعنوان 1
جار@@ 1
حاب 1
عمو@@ 1
تس 1
politician 1
حصول 1
كت 1
زرا@@ 1
الشخص@@ 1
حدود 1
نح@@ 1
بلاد 1
غار@@ 1
بذ@@ 1
1982 1
فان@@ 1
زب@@ 1
نقاط 1
ثناء 1
80 0.8545860183175642
1979 1
الحدي@@ 1
ضات 1
وتر 1
الشرق@@ 1
تسل@@ 1
اتفاق@@ 1
المعروف 1
عان 1
1987 0.9874549603075943
يها 1
منص@@ 1
مرتب@@ 1
1948 1
بِ@@ 1
شعر 1
1985 1
1945 0.8304777958768285
بارات 1
افت@@ 1
تَ@@ 1
سال 1
قائد 1
السلام 1
افع 1
مقاط@@ 1
اريو 1
واج@@ 1
الإنس@@ 1
السلط@@ 1
المخت@@ 1
موت 1
ّل 1
1970 0.8682422550999405
التجار@@ 1
I@@ 0.15673638480152086
تونس 1
مِ@@ 1
معلومات 1
امين 1
ومة 1
جين@@ 1
ساح@@ 1
سرطان 1
فتح 1
صار 1
افات 1
1967 1
ورا 1
المدر@@ 1
سُ@@ 1
1983 1
وض 1
وسط@@ 1
جا 1
بال 1
بَ@@ 1
نظر 1
on 0.023447617636283856
يوسف 1
فول@@ 1
حال@@ 1
عظ@@ 1
غا 1
حس@@ 1
شروع 1
نُ@@ 1
70 0.8413984592089687
ناب@@ 1
غل@@ 1
رر 1
جغرا@@ 1
تخت@@ 1
تجاو@@ 1
عمان 1
اعتم@@ 1
1981 1
اعتب@@ 1
تأث@@ 1
قاب@@ 1
an 0.025512557216903816
آخ@@ 1
محتر@@ 1
25@@ 0.9435372932397826
حسين 1
! 0.5035945068650841
راضي 1
لور@@ 1
صد@@ 1
قُ@@ 1
أستر@@ 1
ازات 1
مسل@@ 1
ويك@@ 1
دمشق 1
تخب 1
رخ 1
دوا 1
نر 1
الف 1
+ 0.8478556897214958
نز 1
زو 1
سار@@ 1
امر@@ 1
الصي@@ 1
شار 1
اصة 1
عار@@ 1
مثال 1
يمي@@ 1
V@@ 0.09024340304938987
شاعر 1
مم@@ 1
J@@ 0.10668050777240659
هن@@ 1
1974 1
A 0.1173906662446259
نيو 1
رج 1
1975 0.96291523930552
زر 1
1978 1
الديمقرا@@ 1
1976 1
جدا 1
أَ@@ 1
فرو@@ 1
خصوص@@ 1
انتقال 1
بون 1
آن@@ 1
اون@@ 1
توق@@ 1
دست@@ 1
قطع 1
خلايا 1
عرا@@ 1
نار@@ 1
نشاء 1
توقع 1
1973 1
الرحمن 1
سمي 1
فعل 1
تبر 1
صل@@ 1
فرق 1
90 0.8483016448822219
نام@@ 1
ديم 1
نتائج 1
اجات 1
اصمة 1
حال 1
35 0.8346101524949379
طب 1
عصر 1
قاع@@ 1
او 1
لز@@ 1
فائ@@ 1
خر 1
الجز@@ 1
1972 0.9303776300904697
يول@@ 1
الوج@@ 1
لند@@ 1
3.@@ 1
us 0.09062747940776249
قول 1
رز 1
500 0.8426489700717985
طالب 1
ساس 1
لبنان 1
in 0.006425706068104573
صر@@ 1
الكث@@ 1
ملح@@ 1
لمان 1
ثقاف@@ 1
منظ@@ 1
1968 0.9445818196045537
مسجد 1
معد@@ 1
مشتر@@ 1
موجو@@ 1
er 0.023592713989444656
تصني@@ 1
لش@@ 1
1960 0.8226525374378912
يَ@@ 1
1977 0.993367040784094
مالك 1
ومات 1
روج 1
ران@@ 1
1971 0.9490368938696301
جم@@ 1
اقة 1
مالية 1
اجتماع 1
إنج@@ 1
اؤ@@ 1
آثار 1
متا@@ 1
إسب@@ 1
ورو 1
رغ@@ 1
الجنوب@@ 1
طلح 1
صاحب 1
24@@ 1
فرض 1
ارض 1
فنون 1
1969 0.9891636509495088
1964 1
بالن@@ 1
رَ@@ 1
سلم 1
” 0.31155629138554375
حصاء 1
ندما 1
the 0.0035939240319683968
x 0.17874413946351
سد 1
نو 1
بوس@@ 1
افر 1
تذ@@ 1
ثت 1
الا@@ 1
تول@@ 1
1963 1
شن 1
شب@@ 1
ربط 1
ابقة 1
نواب 1
مود 1
a 0.0076152900954898186
ملت 1
سور 1
ــ@@ 1
ضافة 1
1950 0.8541507258830956
شرف 1
اتح@@ 1
عود 1
200 0.7780471890992621
اطر 1
مقد@@ 1
نس 1
18@@ 1
القرآن 1
واد 1
آس@@ 1
فو 1
الاق@@ 1
ناة 1
الفت@@ 1
1962 1
ادا 1
32 0.8311532484933003
شد 1
1965 0.9815311189439933
وغير@@ 1
ذر@@ 1
&#124; 0.6911712847468117
1956 1
روت 1
لار@@ 1
الملك@@ 1
eter 0.6382186285656458
وقع 1
* 0.41567170977423346
19@@ 1
فلا@@ 1
خطوط 1
داب 1
شخاص 1
مرو@@ 1
مواقع 1
فح@@ 1
انج@@ 1
فظ 1
اور 0.7938342804350592
روز 1
قوان@@ 1
مربع 1
صنا@@ 1
S 0.3340905334720048
جاج 1
1958 1
مدار 1
خذ 1
• 1
كومة 1
فتا@@ 1
1966 0.9516978588865073
عون 1
كُ@@ 1
4.@@ 1
crick@@ 1
مواد 1
روع 1
الوز@@ 1
لس@@ 1
نائب 1
1961 1
ائنات 1
خز@@ 1
65 0.8036843166180039
ابعة 1
ترا 1
75 0.8383812251310538
i 0.08756637553175502
The 0.018244567836595074
لاع 1
ارتف@@ 1
ائج 1
الوط@@ 1
قَ@@ 1
ذر 1
خالد 1
1944 0.7778898960767079
محمود 1
1949 1
1947 1
and 0.006335291836484254
ائن 1
t 0.03716303302638367
حام@@ 1
اصط@@ 1
اعتماد 1
ولو 1
ازت 1
1946 0.9492030691144648
خاص@@ 1
بز@@ 1
ابتد@@ 1
d 0.05879883777938309
صار@@ 1
الجمه@@ 1
بُ@@ 1
لاس 1
حاج@@ 1
T 0.31181976994027266
1940 0.8430128509344962
جماعة 1
حمل 1
مناس@@ 1
1941 0.8132416451955193
صلاح 1
45 0.7049384973893572
1939 0.8609328741112577
انس 1
مائ@@ 1
U@@ 0.11670556510010527
C 0.24256203664599166
1959 0.9956899759453536
1957 1
“ 0.08108922840322541
سور@@ 1
1955 1
33 0.8566803204853954
قطر 1
افظ 1
D 0.27520725852362715
الداخ@@ 1
غم 1
رته 1
footballer 1
رم 1
برج 1
هيم 1
طق 1
1954 1
بحت 1
مور 1
30@@ 0.9434394700628637
28@@ 1
1952 1
الح 1
الحال 1
نام 1
توم@@ 1
شخ@@ 1
زان 1
منز@@ 1
آن 1
E 0.29511638279634506
قلب 1
الأحي@@ 1
بنت 1
فور 1
قائق 1
لب@@ 1
شرا@@ 1
لط@@ 1
لمح@@ 1
زون 1
حاد@@ 1
واضح 1
ماد@@ 1
اعتبار 1
عناصر 1
براطورية 1
خلاف 1
1943 0.8156083841357422
son 0.05997825237970084
نج 1
0,000 0.9505980016901342
y@@ 0.06921010363398651
قدر 1
بور 1
جنوب@@ 1
شائ@@ 1
O 0.2614649742352675
John 0.2377991263282115
بحر 1
العش@@ 1
ضاب@@ 1
1953 1
منزل 1
فَ@@ 1
37 0.8733050587006108
مول 1
الخط 1
خرى 1
1942 0.8004838437573187
1951 1
طانية 1
مقاب@@ 1
ناس@@ 1
انق@@ 1
هذ@@ 1
فاق@@ 1
R 0.2609173749869844
شو 1
عنوان 1
رخ@@ 1
دود 1
بائل 1
معروف 1
تنظ@@ 1
الاب@@ 1
الكويك@@ 1
34 0.8082162235576886
1936 0.9321756064717437
جائ@@ 1
36 0.7713795808095817
00@@ 0.9667191626582426
وصول 1
سرا@@ 1
شف@@ 1
s@@ 0.027295385979225383
امت 1
حساب 1
ؤ 1
300 0.9416666868476122
P 0.32753146963533775
خت 1
فلس@@ 1
38 0.8108357907538825
اليا 1
عبد@@ 1
de 0.00359415867781855
كويك@@ 1
مانيا 1
7.@@ 1
فريقيا 1
n 0.07456767139489584
روح 1
MP@@ 1
B 0.20613220538027088
M 0.28471165713713065
روز@@ 1
6.@@ 0.9620358293825978
1920 0.7881396290801986
I 0.11498403372518098
29@@ 1
سائ@@ 1
موج@@ 1
مشيخ@@ 1
1,@@ 0.4489242749691501
ائط 1
ادم 1
جمال 1
مرد 1
نظم 1
سعود 1
روم 1
201@@ 1
منت@@ 1
c@@ 0.04274759828661986
سفر 1
es 0.015120869100963415
جسم 1
صرف 1
بلا 1
ارف 1
حج@@ 1
إيط@@ 1
غال@@ 1
55 0.8307541077868961
L 0.2063516185647058
زار 1
o 0.039134351093364536
t@@ 0.0374439299987213
ناق@@ 1
محل 1
الجمع@@ 1
قوم 1
e 0.04033069477467608
نع@@ 1
26@@ 1
رش 1
d@@ 0.040613290829676026
نما@@ 1
1930 0.7536260256614374
اعتراف 1
موضوع 1
كالي@@ 1
قبائل 1
مبر@@ 1
p@@ 0.04052531616453751
كترو@@ 1
نوب@@ 1
الحق 1
سس 1
الحي@@ 1
سال@@ 1
1938 0.7919204343502568
صلا@@ 1
1933 0.8551396963276963
والد 1
48 0.8002420200659672
199@@ 1
1937 0.8715312034667252
رُ@@ 1
راس 1
تبادل 1
طالب@@ 1
وزن 1
ing 0.01668439618417668
عظم 1
نيا 1
براط@@ 1
وش 1
صاد@@ 1
8.@@ 1
e@@ 0.04262585495282229
شرو@@ 1
42 0.801260350280771
سعد 1
مظ@@ 1
85 0.8527017147629139
منا 1
1918 0.7889309483777437
l 0.04791283444313566
عار 1
نَ@@ 1
آر 1
جاد 1
سوا 1
1935 0.9000459144656933
واش@@ 1
en 0.007165046348327227
الث 1
الحسن 1
39 0.8066326529744745
H 0.42176285064861074
is 0.012704285184789284
قوب 1
c 0.06801737610600261
قبول 1
9.@@ 1
رسم 1
قبال 1
مسة 1
1931 0.9860880633573452
استعمال 1
عاش@@ 1
1929 0.8974497474304487
al 0.02166214827113839
1934 0.8852283114311541
راز 1
استح@@ 1
64 0.6573616074845458
دُ@@ 1
وروب@@ 1
درج 1
أولا@@ 1
اصل 1
طرح 1
علومات 1
وبا 1
خش@@ 1
اظ 1
1922 0.9590913366157557
مباش@@ 1
400 0.833412516516468
سول 1
طوي@@ 1
27@@ 1
الرئي@@ 1
توب@@ 1
ابق 1
عوام 1
49 0.8613179973869378
جامع 1
فار 1
تبع 1
47 0.7914172852285537
عثمان 1
95 0.8917061355512281
طبق@@ 1
تعاون 1
ضل 1
اتا 1
41 0.7872686428715815
F 0.23750870798384147
1928 0.8451676815455152
Y@@ 0.10917961049097837
مجمو@@ 1
1919 0.7780916830356057
باد 1
انتخاب 1
شرح 1
نوف@@ 1
56 0.8292325438407905
دما@@ 1
1924 0.8798276566299745
آب@@ 1
1932 0.8602646416694681
44 0.6608596538659949
وند 1
فعال 1
X@@ 0.23792965044229888
خف@@ 1
قوم@@ 1
حاق 1
اشترا@@ 1
فلم 1
مجمع 1
1921 0.9003542131925913
um 0.054505939583659506
54 0.791926757959934
53 0.8009099721236143
بوط 1
o@@ 0.04972929333140659
نوبل 1
72 0.8130728795002164
1923 0.9183663296638367
راض@@ 1
84 0.9034473030356959
زب 1
عرب 1
مقرا@@ 1
خوا@@ 1
آذ@@ 1
صنع@@ 1
1917 0.8117987975049733
اثر 1
52 0.7258506654432132
86 0.8431758994076185
1000 1
فارس 1
88 0.8310365721239199
فلسط@@ 1
p 0.09332867025091368
لاز@@ 1
N 0.2333233080390976
ساحل 1
ملائ@@ 1
شان@@ 1
تاج@@ 1
سمة 1
نسب 1
عراق 1
احتج@@ 1
1925 0.8674820614135282
b@@ 0.03618884095240612
ائز 1
تاب 1
خان@@ 1
v 0.21629561116252988
غذ@@ 1
46 0.7643644622221131
Z@@ 0.061839293625248266
51 0.7373351714427125
n@@ 0.03441273594906185
اجد 1
1927 0.8545978830123896
43 0.7481288423472606
جات@@ 1
h 0.06533010069886111
born 0.1472517390242971
ورك 1
جع@@ 1
مخص@@ 1
66 0.802015325333577
قات@@ 1
{ 1
الموس@@ 1
تمي 1
دفاع 1
a@@ 0.06587489261545298
on@@ 0.045723867445161784
حلق@@ 1
198@@ 1
رسول 1
1914 0.7578036684412462
اردو 1
87 0.8685512660455873
w@@ 0.035944753799298075
سات@@ 1
k 0.04980136401790064
m@@ 0.04101405908718697
رن 1
83 0.8564711171595764
el 0.010928678470105133
in@@ 0.024530208918805137
ساف@@ 1
g@@ 0.03316915178134596
i@@ 0.049460809977404666
76 0.7951343255921025
1926 0.8179271441152387
سول@@ 1
57 0.7832577719076089
طل 1
عباس 1
متاز 1
h@@ 0.033241314647989066
ونت 1
62 0.7724505261921366
58 0.7675092549865745
شا 1
ed 0.012268230195762867
67 0.8140224575961468
81 0.8470622832766919
1912 0.8269710452361391
99 0.8671305519744859
قان 1
ٌ@@ 1
لبن@@ 1
لاد 1
78 0.7852233909468991
63 0.7779197273101808
b 0.10744814689341348
77 0.7987518536337126
71 0.8187923746579272
ترنت 1
196@@ 0.9063221440865745
شاع@@ 1
59 0.7897052746601839
رت@@ 1
خبر@@ 1
مقدار 1
متعدد 1
197@@ 0.8343695114815962
William 0.30245685265572714
G 0.22979998969414653
05 0.8743155733341369
69 0.837441361360533
شعر@@ 1
2,@@ 0.41244422350253573
g 0.08027275636177601
68 0.7623633245336413
فات@@ 1
وام 1
Re@@ 0.07896492987976335
Ch@@ 0.05782882134884649
96 0.8967673998335137
al@@ 0.030991997699606262
150 0.9314081495440887
مقبر@@ 1
بورن 1
احترا@@ 1
00 0.6649693851799768
أمريك@@ 1
فاس@@ 1
61 0.7532469246071044
بوت 1
79 0.8395353411071879
ia 0.06251657959911354
01 0.7459631295825625
ثابت 1
3,@@ 0.48458424723221516
مند@@ 1
ch@@ 0.02562264633002847
جيم@@ 1
رمض@@ 1
خرا@@ 1
74 0.7716386345098635
} 1
82 0.7673048665762884
X 0.2943574988682022
سند@@ 1
r 0.1244644688420386
اتفاق 1
x@@ 0.09441969561980652
اث 1
1910 0.7851330992005069
دب@@ 1
f@@ 0.02495704672567583
73 0.7968463985715306
ناز@@ 1
James 0.30603793253752215
عمرو 1
13.@@ 1
en@@ 0.02354458117516373
1915 0.8547921685563002
صاح@@ 1
الْ@@ 1
r@@ 0.029540652856648374
l@@ 0.029511806735009225
m 0.047195568083236536
ph@@ 0.06451536220362965
ton 0.10295321038175359
خام@@ 1
عث@@ 1
محافظ@@ 1
ويلي@@ 1
صور@@ 1
ac@@ 0.041165453052694145
باتات 1
نور 1
آد@@ 1
شام 1
Mar@@ 0.07123891209080793
an@@ 0.03205793251911945
بند@@ 1
amp 0.1118273886443903
لاحات 1
سكر 1
04 0.8354357943240867
92 0.8123619403804305
حضور 1
انستان 1
2021 0.18244193480578427
ڤ@@ 1
1916 0.8380229900531754
195@@ 1
1913 0.78207355000587
آدم 1
98 0.8261769566282063
or 0.021060876674431645
راج 1
اظ@@ 1
et 0.009200012870284473
93 0.8610741132596796
ar@@ 0.030309984397012185
1908 0.8391154664075666
ٍ@@ 1
600 0.9012871969569705
man 0.06909142635345403
v@@ 0.03374953982391517
مستقل 1
u 0.054560261002312226
فال@@ 1
89 0.8426575166125205
اوا 1
وول@@ 1
ناول 1
ol@@ 0.05301274774171754
يانا 1
زيرة 1
شت 1
باغ@@ 1
انتظ@@ 1
di@@ 0.04108084413420141
ie 0.04178267607569033
ابت 1
ينا@@ 1
Al@@ 0.05319676112305887
بابا 1
V 0.2089342636591717
am@@ 0.04230435994315432
03 0.8306760056376724
1911 0.7678766043665837
° 0.2987936083281629
97 0.8092317768108721
1905 0.7662504658196044
k@@ 0.029930812125658932
ئر 1
برا 1
حان 1
as 0.008250282904061063
j@@ 0.04396732955304019
تور 1
12.@@ 1
09 0.7490504405988572
قاسم 1
91 0.8139968707453644
ar 0.023879527521075868
07 0.753523638814323
or@@ 0.03344456447017015
جعفر 1
دعا 1
ic@@ 0.04834505689396136
1909 0.8401098285031451
شمس 1
ation 0.018575792081022134
08 0.7277852144385349
قابل 1
مثلاً 1
250 1
02 0.7691930092039877
زن@@ 1
طقة 1
,000 0.807014339260764
94 0.7808549013055636
عامر 1
ine 0.04288202191631601
الين@@ 1
أوروب@@ 1
1906 0.7912540683864139
Br@@ 0.07419695410474064
خطاب 1
4,@@ 0.4955888160731051
بدل 1
George 0.2541862218126344
800 0.8381716557708684
سعو@@ 1
دوب@@ 1
الوسط@@ 1
حافظ 1
er@@ 0.02164321082082303
at 0.011235348984183996
استن@@ 1
50@@ 1
حصار 1
آب 1
اعترا@@ 1
شان 1
جناح 1
نفس@@ 1
إسرائ@@ 1
1907 0.7630726022984679
— 0.021858542245502006
id 0.1139158625721102
1900 0.6171764170094144
برى 1
06 0.733120164047217
منصور 1
om@@ 0.0529804538537141
el@@ 0.02843995291386159
فريق@@ 1
مسا@@ 1
to 0.00373029831677065
اختلاف 1
194@@ 1
1904 0.78416791915035
li@@ 0.04297016589622497
مطالب@@ 1
David 0.25586494666753296
th@@ 0.0316205611549281
Car@@ 0.08681964602719244
as@@ 0.03551872938715692
Co@@ 0.09866008756491995
موجود 1
http 1
افت 1
os@@ 0.0550219831995186
جنا@@ 1
11@@ 0.808216108417061
Mc@@ 0.15436254537432906
وقوع 1
سمت 1
وَّ@@ 1
www.@@ 1
غور 1
\ 1
1901 0.8064528339470245
Robert 0.2445464195241227
واب@@ 1
درست 1
مسلم 1
120 0.9386226554842289
1903 0.7830089892100803
W 0.22890887951836536
f 0.07313744408237055
رضا 1
le@@ 0.03534839835788915
جال 1
‌ 1
رومان@@ 1
شور 1
مستقبل 1
شائع 1
سخ@@ 1
1898 0.840594096919196
فاط@@ 1
ot@@ 0.04306554014652393
ter 0.03660272882684827
193@@ 1
1902 0.7677331460133218
id@@ 0.04363911053521512
Q@@ 0.1911983083534888
فوج@@ 1
وعات 1
روح@@ 1
.com 0.998226892290849
سنت 1
التاس@@ 1
زائ@@ 1
10.@@ 1
حلة 1
تصور 1
23@@ 1
× 0.7878304597410932
ers 0.01946335730987914
وطن 1
6,@@ 0.45965227592411034
ى@@ 1
U 0.1420595655547164
دش@@ 1
et@@ 0.04357191903011933
700 0.9419007901266618
z@@ 0.024607486402265833
K 0.18525734976498617
NGC 1
1890 0.7786125654391101
In@@ 0.05441329126139979
1899 0.8109487755071184
داد@@ 1
Sh@@ 0.07747304206303236
w 0.05201280382484218
² 0.22912507228624832
لفظ 1
le 0.007153001593989186
دفن 1
ti@@ 0.03434399967185983
خون 1
سكان@@ 1
1896 0.8045109056090516
سرائ@@ 1
Charles 0.21185471516248253
5,@@ 0.4516174240509246
ey 0.13259717197878887
40@@ 1
اعت 1
oc@@ 0.04702691015709636
1897 0.7891639464497869
بدر 1
Mor@@ 0.11162176769933056
Ar@@ 0.05155964721259601
عاب 1
معام@@ 1
An@@ 0.041136998633618936
ate 0.02452354954001353
u@@ 0.03492625824121225
11.@@ 1
حاصل 1
80@@ 1
Thomas 0.22376774312219308
فلو@@ 1
at@@ 0.03128225952467586
ro@@ 0.034675846552122525
غيرة 1
ابو 1
ag@@ 0.029071637030750525
1895 0.7749608416195045
us@@ 0.034925843468996125
ref 1
ad@@ 0.027257892084474416
حار@@ 1
ic 0.047252413175170566
7,@@ 0.4839553804587546
la 0.0029757711248294175
1892 0.8510354690939548
is@@ 0.027310605577440614
Con@@ 0.05269420869907223
بياً 1
رل 1
اتذ@@ 1
حدى 1
ul@@ 0.03150585890372226
باز 1
0.000 0.5998113316729281
حاض@@ 1
· 0.12027128403408238
tr@@ 0.021200825019784243
سوس@@ 1
il@@ 0.03355834022220304
احمد 1
ی@@ 1
8,@@ 0.4701135255363408
يشن 1
3000 1
ley 0.09237411043766915
1889 0.8036728449736007
انقلاب 1
اوت 1
المدار@@ 1
ويورك 1
35@@ 1
American 0.06832520532197969
5000 1
است 1
متعل@@ 1
1885 0.8020072114371851
Le@@ 0.06719285513992085
نوان 1
1894 0.808670959851944
it@@ 0.026256436028884906
re@@ 0.009945309643746158
’ 0.01955214296868935
1891 0.8158305807446068
Col@@ 0.08831311105483304
داية 1
lo@@ 0.03598342603885801
1893 0.7835870569400822
الاجتماع@@ 1
امر 1
مقب@@ 1
Bar@@ 0.07594768021783598
سند 1
1888 0.8226532169956791
es@@ 0.025946739166613657
طاني 1
C. 0.28539300690825253
1880 0.738118447106731
ard 0.06428348673252963
سطة 1
Gr@@ 0.06964395225886852
1884 0.8649420501615926
خال@@ 1
بريل 1
z 0.04523154491691131
ay 0.059508377742750085
دوس@@ 1
امام 1
ماب@@ 1
ana 0.05310574887826308
ell 0.07337170629991413
192@@ 1
am 0.023997525425578398
انتظام 1
El@@ 0.0754381691069902
دوران 1
1886 0.8187341878714961
واب 1
1870 0.6835041858301516
1887 0.8266778308979257
1500 1
actor 0.3801727139635456
CO@@ 0.4247795654843122
one 0.020398467771512496
De@@ 0.08264649603142007
ap@@ 0.030346313906567078
1878 0.81921126313437
os 0.01713950795131564
عمران 1
ab@@ 0.02502569824758943
سلسل@@ 1
1882 0.8556816238527214
New 0.04259328152842249
Ed@@ 0.13949714178333839
اُ@@ 1
بنو 1
1881 0.8333782509877804
جرات 1
ter@@ 0.03595203246227005
اجتم@@ 1
IS@@ 0.3771251189352052
ڭ@@ 1
Tr@@ 0.03935572942551982
وسلم 1
وو 1
دوم 1
صوب@@ 1
مراد 1
1.5 1
اِ@@ 1
E. 0.4706658679816162
فاع 1
em@@ 0.029514306474666876
1861 0.8124000457104537
St@@ 0.038983105124246194
im@@ 0.02536603745275652
1883 0.8412988383586184
جوع 1
1876 0.8209391159593339
W. 0.5004607486636834
ice 0.05444512709614343
0,@@ 0.19670765295864726
محاص@@ 1
ler 0.05565838349885183
Henry 0.24401533063384878
ed@@ 0.0378515559592215
ur@@ 0.02517754414013315
محدود 1
1860 0.7180903106157472
1871 0.7400983907388454
1879 0.8035127043014125
ob@@ 0.04838822529439934
for 0.006131801462299167
ick 0.09731229616668167
60@@ 1
av@@ 0.04122095973089812
ner 0.04439698086759341
حامل 1
جلد 1
ir@@ 0.03315719292017316
34@@ 1
الثة 1
إبرا@@ 1
ent 0.013800304312674264
# 0.28180013469573234
co@@ 0.02815391454881906
9,@@ 0.4268294207253439
Michael 0.1946264231322312
Per@@ 0.07224852149115711
Ro@@ 0.07153849051121657
Richard 0.22715887677758684
Par@@ 0.052303520940874065
po@@ 0.028960247048230074
$ 0.0874618253829421
باغ 1
ina 0.051157096688292186
180 0.9624806144963338
نر@@ 1
Cl@@ 0.12011704031181218
by 0.006596779882741944
st@@ 0.01620912435366852
1867 0.76814433165633
خبر 1
مسعود 1
منظور 1
بائ@@ 1
2.5 1
جس 1
op@@ 0.03672163530861456
Di@@ 0.057372694095586124
33@@ 1
واز 1
ch 0.03815459521335756
عرب@@ 1
مقام 1
ae 0.14957192909681688
1877 0.7703900078761211
L. 0.5237578473027936
Pr@@ 0.06661033611482067
العالم@@ 1
Paul 0.13688812224538147
جلال 1
1873 0.7654329965451284
ne 0.02917849735354396
شامل 1
تام 1
un@@ 0.017968319878886436
1848 0.6901741276564556
آباد 1
ath@@ 0.06658863641645761
14.@@ 1
900 0.9534381381177953
Y 0.26795902540826977
ad 0.04615934529907462
37@@ 1
160 1
Th@@ 0.03952831769480887
1875 0.7470711602270478
1866 0.6256300028354762
1865 0.7111738570497809
1864 0.6943794460079448
190@@ 1
روش@@ 1
1868 0.7434620118527829
130 0.9044704482292405
صفحات 1
110 0.8370763693708355
Smith 0.2540381303260734
نوم@@ 1
AS@@ 0.2924859146724338
Bur@@ 0.09746665141840218
football 0.11172186896148335
مشر@@ 1
جلا@@ 1
1872 0.7379466957872697
ec@@ 0.02931887168187714
1869 0.7716008334402334
مسئ@@ 1
قبرص 1
والسك@@ 1
جاس@@ 1
خوف 1
1874 0.7195529204116995
جزائر 1
S. 0.34405135941906806
age 0.019317357441032773
لار 1
th 0.02578670093939282
خدمت 1
ata 0.09687095309543689
it 0.009741485017738232
قائم 1
Ne@@ 0.06153240711739525
der 0.0029558231883632575
og@@ 0.05343864487705428
لترا 1
da 0.03083954718451537
AR@@ 0.2548251965135179
Har@@ 0.09445516171586411
1863 0.6692023149272958
od@@ 0.05891850176435802
Se@@ 0.05385001538281238
ale 0.029401695096079306
124@@ 1
R. 0.4024900647384682
tri@@ 0.04173112095369546
II 0.0655537902810761
Cor@@ 0.07063193281141766
ri@@ 0.03369606601034382
بنا 1
تجرب@@ 1
برس 1
B. 0.19873582968000914
1857 0.8113106835596711
CA@@ 0.24354149173454034
38@@ 1
90@@ 1
te 0.01035741727581358
خيرة 1
پ@@ 0.9733586548754056
1850 0.6440141807251727
AC@@ 0.3289664371035344
ST@@ 0.5544275084810352
1862 0.6335442692506104
Ad@@ 0.06318422820886743
فوج 1
350 0.9590810608090313
CD@@ 0.3443647407123494
ans 0.02586156374747024
125 0.9065449506244901
^ 1
قطب 1
ent@@ 0.01891991881663713
il 0.014583394726583859
Ste@@ 0.09226970905160356
ختم 1
1859 0.720178246998899
22@@ 1
D. 0.26556498164638076
Bo@@ 0.06327105680021693
رن@@ 1
140 0.8784156675898916
ea 0.10711498442772314
series 0.06475117847132167
י@@ 1
ov@@ 0.06260073460062958
موضوعات 1
ess 0.05123472779294691
ig@@ 0.027007939939910554
sh@@ 0.02316389036394786
ev@@ 0.0455986588640632
ay@@ 0.05264745369115039
Sch@@ 0.02285253296787235
ts 0.017370010365674503
مسائل 1
شنا@@ 1
قبض@@ 1
Cr@@ 0.08297459343600976
Jo@@ 0.10618468298917376
4000 1
ens 0.028522950502414577
بورو 1
Joseph 0.16878538206505128
sen 0.08640537026345431
Edward 0.27929867520565715
مشق 1
all 0.021511732039826283
ta 0.03056519151169071
um@@ 0.025234413819871467
حفا@@ 1
1856 0.7424525078013312
70@@ 1
Ph@@ 0.07431701524319964
Qu@@ 0.04822784583566237
Z 0.2548497518964933
? 0.1467691755205752
ma 0.05584145011373442
واع 1
36@@ 1
bi@@ 0.034076546655197264
ica 0.0441597846211365
de@@ 0.01812247059877988
per@@ 0.02167172507780161
خات@@ 1
1849 0.7712553953100384
39@@ 1
Australian 0.1732868905434659
eb@@ 0.03557642619470287
vi@@ 0.03072208270926663
se 0.006301488737111636
120@@ 0.8899701128595303
1840 0.6904711556554802
ni@@ 0.03603610243940654
2022 0.20629845568302654
si@@ 0.027080746756767703
Frank 0.2953622890701968
1854 0.7440563901407865
1830 0.6913757356348407
ist 0.009794313217095412
1858 0.7377861653147689
name 0.04833030537732094
امتح@@ 1
Peter 0.14167725365320155
AT@@ 0.3738124200998635
Sp@@ 0.059898719578088816
ورش 1
100@@ 1
آغ@@ 1
ut@@ 0.03183883666668262
Gu@@ 0.055346579334241745
45@@ 1
Com@@ 0.03885183914805253
ly 0.016990198629191502
101 0.7915883958057442
eg@@ 0.030623716924650705
نساس 1
1800 0.6974012561541157
حاء 1
do@@ 0.04030817433581122
AD@@ 0.4064307622624426
ker 0.07384079159853392
Mon@@ 0.046119530949107305
مخالف@@ 1
ھ@@ 1
Be@@ 0.032654190985573185
For@@ 0.055452089681557515
قرب@@ 1
450 1
طانيا 1
Am@@ 0.05378051115466615
ممل@@ 1
ase 0.07409080178121025
افس@@ 1
tion 0.016327744257395613
AM@@ 0.3844789096179531
to@@ 0.03176955498879074
قبر@@ 1
Hol@@ 0.07460157649596885
188@@ 1
حوال@@ 1
الأولمب@@ 1
ו@@ 1
15.@@ 1
Li@@ 0.06064415300899384
yr@@ 0.0810729404254935
IC@@ 0.3141264423796241
per 0.04780444470490098
مصنف@@ 1
ve 0.014185666322525362
فاص@@ 1
Ber@@ 0.05076671036970116
اَ@@ 1
Er@@ 0.03401548170878031
RA@@ 0.2391383545193859
Mur@@ 0.1358499076004953
gr@@ 0.027705491529602562
سطس 1
انص@@ 1
ence 0.022635667133330595
189@@ 1
Lo@@ 0.07261811329476492
ensis 0.22533832930362052
qu@@ 0.01682292291935657
est 0.0050629411574362815
Brown 0.25327654391289733
ty 0.03484645778559747
1851 0.696880581604113
360 0.9212248962730922
صلاح@@ 1
زور 1
od 0.06515284553221375
J 0.20540386148562592
ou@@ 0.028609715755292447
1853 0.7115137422555969
ati@@ 0.03230456190556278
170 0.9514558268618749
اتنا 1
az@@ 0.04132087544690077
− 0.3791648594743831
1200 1
3.5 1
are 0.00912447208099173
ce 0.02144662510876011
org 0.9388642910342447
ab 0.049713696273795904
idae 0.10370308939985466
ak@@ 0.02608008117608268
ah 0.07536307102739331
خطر@@ 1
65@@ 1
5,000 0.6630384582834734
Martin 0.1484190416365084
des 0.0033311827688792327
16.@@ 0.9754841542650446
1847 0.7237583375738639
وفات 1
1835 0.7864120567818862
Ab@@ 0.03050614137668205
Donald 0.37317066914721336
ang 0.04811651266362534
مرح@@ 1
1839 0.801451860283561
1852 0.6795105417550232
Ex@@ 0.044858907512235764
par@@ 0.018363136513920502
1837 0.7717563207046739
Ac@@ 0.07648228924680787
Ger@@ 0.07316475497629125
ol 0.0561024169764846
جواب 1
ks 0.029951328821824535
Scott 0.28343943516830644
ik@@ 0.033244903752710296
1845 0.7239333754643689
SO@@ 0.5011798902465499
1832 0.8031413500121303
se@@ 0.021515401343476476
1855 0.6326314618569604
En@@ 0.044971131536654656
كاون@@ 1
He@@ 0.05028365190550113
چ@@ 0.9544368020014521
SS 0.25467543043777763
ene 0.044095215618249486
105 0.8207535436982009
AC 0.2569505268856621
Cal@@ 0.09303107473190259
ah@@ 0.03993855978234745
yl@@ 0.0860745562388037
اطق 1
ity 0.021729833059599427
مدد 1
Lee 0.2165912276604865
ary 0.019452679527262803
17.@@ 0.9738932992115066
55@@ 1
آ 1
1820 0.5864311652026759
codice 0.6845267104309654
موال@@ 1
1844 0.7587690679818316
راست@@ 1
187@@ 1
46@@ 1
طالبان 1
1834 0.792650911187448
ک@@ 0.5811261508212089
Mark 0.20323177066859544
US@@ 0.20983045233079434
1846 0.6886750707053952
Fl@@ 0.06045301405930319
G. 0.3579087704856011
ir 0.03557975812538925
baseball 0.4107244092411609
Q 0.28288482263820885
Or@@ 0.040524330044038354
ory 0.05169901804920919
اشا 1
Tom 0.2706171532849189
1843 0.7722125148106157
184@@ 1
Joe 0.29485034692471773
تناز@@ 1
ford 0.08284693848041935
ge 0.025763139628128685
ke 0.04448349941285147
1815 0.6717066196163141
Bill 0.2689626200496519
ane 0.06257905830244789
land 0.025180105060161516
تِ 1
ex@@ 0.012960592925243026
uc@@ 0.048845735757910194
آز@@ 1
Her@@ 0.04557355663656762
und 0.002695893402532963
23.@@ 1
Gar@@ 0.09137427990271019
ens@@ 0.030155255337666317
179@@ 0.9388142207112059
Mo@@ 0.06666093139799827
ing@@ 0.029943923166498132
ry 0.07380651178029334
واخر 1
AN@@ 0.32970173236164313
Bro@@ 0.12527946533161113
Jack 0.246257965466663
ace 0.05227757196155191
اسلا@@ 1
10,000 0.7624073142646839
1838 0.7247014237235799
ant 0.011186801554951312
Alexander 0.19764238453009497
La 0.010531390941555554
1842 0.7146291913291584
AL@@ 0.4679412638985287
Daniel 0.2259215131756904
ick@@ 0.040613432219975695
نسل@@ 1
1812 0.6419054747892077
ess@@ 0.03819680355603211
منظم 1
زد 1
صوف@@ 1
1836 0.7099606384513636
ann@@ 0.037025414845026826
br@@ 0.017029975674915817
end@@ 0.022261946211231617
2500 1
ep@@ 0.04394524318629451
محفو@@ 1
au@@ 0.01992451528059033
48@@ 1
1821 0.7452957984770008
ella 0.08468681096141484
na 0.04036628329813088
‘ 0.1821369984300487
115@@ 0.9257027630147399
1841 0.7045276284077261
ya 0.029539049666941916
Williams 0.2353024883711065
ai 0.04864366981971106
علما 1
Na@@ 0.25139371762321316
ez 0.09391948492119494
ison 0.09790871515141987
47@@ 1
mar@@ 0.020875121957327724
ER@@ 0.30680454921890893
les 0.004775436849897447
af@@ 0.026480461660615094
dis@@ 0.013992922875152025
لِ 1
ملا 1
75@@ 1
be 0.008995650024461087
mo@@ 0.02629330273173013
Wil@@ 0.11264114404351898
OS 0.2488711633805767
erry 0.1755781081323844
ra 0.03695805460662216
گ@@ 0.6317628907517853
186@@ 1
oph@@ 0.09997607534428746
1833 0.7421887174126676
AP@@ 0.2969845497413712
220 0.9512790248495456
Jim 0.3582632164694835
https 1
str@@ 0.02500003815514565
Ser@@ 0.07357464297243937
25.@@ 1
pl@@ 0.020268782102289787
Str@@ 0.04812507706832437
ber@@ 0.022041339245673086
19.@@ 0.9821303171929435
CH@@ 0.3915695808518165
20.@@ 0.9294740573677331
ight 0.055308368156626916
á@@ 0.034838472546659144
SP@@ 0.37066832630375746
1831 0.7229432470405969
TV 0.08257337105655603
24.@@ 1
IM@@ 0.40575064266734945
Man@@ 0.045572638868364226
وسف 1
Gre@@ 0.08501247405403718
Fre@@ 0.05322846832496535
135 0.9185528236570856
Bob 0.3135853745327037
ci@@ 0.022226665757474808
ps 0.07005833234580044
José 0.1447613515588913
ith 0.1192054950595089
Johnson 0.2264210497413259
ano 0.033386363665521
q@@ 0.13014187913654657
ناك 1
art 0.04120327170442908
18.@@ 0.8987075731652414
ver@@ 0.008761905098866832
غالب 1
128 0.9719629243973856
pr@@ 0.01900410965371912
49@@ 0.8336962678016486
240 1
Mike 0.28933817527251887
فائز 1
22.@@ 0.9825639520038562
ney 0.08623509260216587
yn@@ 0.09966250132742126
Jones 0.20830239893927796
unc@@ 0.07179499357941156
Mac@@ 0.09340948621019968
68@@ 1
Arthur 0.23628274760927143
,@@ 0.5179700656099194
ES@@ 0.22987626071422404
con@@ 0.01093560547900546
21.@@ 0.9878832543737853
Po@@ 0.060709108990414
26.@@ 1
27.@@ 1
Pro@@ 0.05416579741566309
SA 0.2627095913175765
102 0.8149705648977625
ang@@ 0.020595186456761297
re 0.019718695107029872
Canadian 0.1444959885257905
University 0.027927160558457908
ance 0.018857979769769034
era 0.02354585029056339
no@@ 0.03264928711649611
حضرت 1
Chris 0.2882458953872486
حروف 1
Mil@@ 0.09069018641655484
Walter 0.24089625802497158
.000 0.3960666637156392
MS 0.2947841960724713
Mas@@ 0.07436051303359804
SA@@ 0.26331256033661005
117@@ 1
1810 0.70196319903645
ach@@ 0.021631751821631087
انسان 1
57@@ 1
1826 0.7626631334819137
su@@ 0.018895200826502843
1814 0.6185588876727358
MA 0.3207781254728279
67@@ 1
un 0.0035561329687607735
2.0 0.9242988393959669
be@@ 0.012110542520828388
نسخ@@ 1
PS 0.26954483049414946
Ver@@ 0.016027356639763582
… 0.12206517956055357
زبر@@ 1
1825 0.7103987330433258
ma@@ 0.03624392456656273
53@@ 1
DNA 0.42722063792677056
bo@@ 0.022273626959693867
if@@ 0.03925275350684606
750 0.8009178387788906
As@@ 0.0630267510870401
di 0.055212525505031494
gi@@ 0.02289352468641959
اتر 1
118@@ 0.8563503397298199
Sim@@ 0.1077125304558022
ous 0.02518845159171151
ow@@ 0.03612888770139462
مقبول 1
Taylor 0.27585380187011543
com@@ 0.01614100559887512
der@@ 0.026373805819214627
ara 0.058460346975530895
ell@@ 0.028471876602656553
104 0.8145385765880399
aw@@ 0.03863445000656857
صنعت 1
320 1
World 0.03225241753889238
do 0.025733719389732707
hi@@ 0.032801462621273446
ite 0.01831535543808348
van 0.0977956673699224
ant@@ 0.03182182051194071
ical 0.023729408067068955
103 0.8444337060339608
109 0.8683057669981022
ons 0.017697826330663406
زمان@@ 1
56@@ 1
Ram@@ 0.1266734123301552
بند 1
tis 0.1590554211347076
1829 0.7010489380880112
Andrew 0.27940317041288365
ak 0.03999770079411365
Mal@@ 0.05269771598929624
Tur@@ 0.050694449128827625
basketball 0.23343458136130657
اندر 1
1828 0.6838623521503714
Tom@@ 0.1334872236367254
1824 0.7111077986891179
99@@ 1
Ge@@ 0.03463431978562107
115 0.8480995763935371
Fr@@ 0.053726663256541594
ain 0.03249123683430501
Ma@@ 0.04758209773863503
win 0.06450889965220065
Ag@@ 0.0830448717239766
Dr@@ 0.05860703635006617
ff@@ 0.03561133713110405
44@@ 0.9764946493209888
66@@ 1
Hor@@ 0.08153525850149002
NE@@ 0.3522551202792981
190 1
SE@@ 0.24936419704507043
White 0.13005977317356018
sa 0.01894018424748222
114@@ 0.9301382380451411
COVID 0.3004931411690305
امور 1
1600 0.8280027456571575
ass@@ 0.018881950817842497
ti 0.05871430869416474
107 0.8810345716129723
ok@@ 0.03795105470428172
tic@@ 0.04438707621096917
قرآن 1
Wilson 0.2538527678609471
ns 0.055356736116885234
IN@@ 0.2120010132877282
ضلع 1
and@@ 0.02375390376786803
ot 0.04287192961856986
q 0.1249524393429682
tin 0.07051565062096844
with 0.0031745753897629157
210 1
111 0.8740640468682221
1819 0.772300283339241
ology 0.050742518870011445
1822 0.7402598035525829
ver 0.04259362765809581
اطلاع 1
tor 0.03572844917018073
اطلا@@ 1
Francis 0.25329748446214895
Wal@@ 0.07944883723644847
RO@@ 0.3440845129136102
فرانس 1
58@@ 1
Hug@@ 0.25275340836907656
ca 0.04203508361677149
enn@@ 0.04395057205865859
he@@ 0.023659502310886354
نسل 1
113@@ 0.9902368802746303
LE@@ 0.42754393834911875
all@@ 0.027615531092775147
ore 0.03506262094326552
We@@ 0.03966474725463581
pi@@ 0.022961746426312036
ins 0.02706506863710631
106 0.8089767563127629
108 0.7785509967441068
Steve 0.26757311974332654
bert 0.10576375544245839
NA 0.4200121015648059
old 0.03572792952890866
بتا@@ 1
سرو@@ 1
→ 0.7680217888775216
Me@@ 0.042147800138466106
Wo@@ 0.09664693406035751
Cra@@ 0.29852884395761076
MI@@ 0.35687002006967367
Samuel 0.30038906853533726
ake 0.07076432513688208
sp@@ 0.02135178096441912
PA 0.29277597233461783
car@@ 0.0220484570987572
1808 0.6941798021618932
230 1
mon@@ 0.020941689580180146
Kr@@ 0.042582977586640494
1806 0.6006352218179346
CI@@ 0.2603362435541973
My@@ 0.15109036798172185
Ros@@ 0.07814767924018425
cher 0.05410101168463287
~ 0.6692899801764597
116@@ 0.9525034115188125
RNA 0.6735575286101585
Rich@@ 0.12072212620874323
Sal@@ 0.05440472679412058
WWE 0.560959478870441
onn@@ 0.047602202031587965
Allen 0.3495860614879835
day 0.03461434287304152
man@@ 0.021405804586948744
j 0.10884834969484435
افراد 0.8662145144480796
Conn@@ 0.2330649327557433
IE@@ 0.48736914587832186
1827 0.7095328658783433
CP@@ 0.41761348974968426
section 0.09604227268133862
AB@@ 0.34145853372511425
Nor@@ 0.04169433220953259
Bi@@ 0.04583746906353969
st 0.028023345374832302
AS 0.26644905540211145
Davis 0.25252377264962395
die 0.0023924943155506934
ure 0.0199157676991238
ett 0.09918587577861535
1804 0.7599464579201136
Ke@@ 0.11417714636932913
te@@ 0.0177090846067103
va 0.04859338508890423
مختار 1
والا 1
1789 0.685901008453212
Albert 0.18468809924232188
III 0.0804373426978389
den 0.0038720248353292385
ies 0.030102596881416255
ue 0.021721563858814057
بولا 1
AP 0.27423570679245624
Cam@@ 0.10217120905239363
1818 0.6292126611013358
co 0.030259899447536397
om 0.06430402487797035
175 1
Mer@@ 0.059945688864506345
DA 0.3356572133606741
oy@@ 0.05561485318381686
vin 0.2382163831990318
119@@ 0.6608018375513967
Ap@@ 0.09947565650195857
CD 0.13391975246794163
e.@@ 0.228683958550179
end 0.019499551071849978
CS@@ 0.2888070300945596
استاد 1
بالا 1
UN@@ 0.2330216214998371
ly@@ 0.07285753841405511
ne@@ 0.02220857177046815
tic 0.039307840603577116
Al 0.07469554589538362
kins 0.20745736974345447
ok 0.06711516893577306
Pe@@ 0.05887944648369928
ib@@ 0.04288521993032072
185@@ 1
Lewis 0.2582910886412621
سفار@@ 1
330 1
ممتاز 1
1823 0.6847258309550771
Don 0.16655923378384682
IV 0.1166770165391737
So@@ 0.059721207333925254
ald 0.16447763936153725
270 1
Dav@@ 0.18892294591568246
א@@ 1
1813 0.5728757180265288
59@@ 1
ile 0.025030872999119144
ill 0.07008266470504465
‍ 1
لمب@@ 1
ator 0.04620574166492407
í@@ 0.02152045009356169
α 0.107016336713273
121 0.9392691409305385
Sol@@ 0.06928638994670169
ism 0.04882180595010251
شمول@@ 1
col@@ 0.024808298804168065
International 0.04989856049058519
1300 1
Harry 0.24427957525632402
Miller 0.2917906330929173
Pol@@ 0.04534015436508267
Stephen 0.2632278587766471
ist@@ 0.02309860304275688
1790 0.6346965928916006
our 0.030551410944229043
ר@@ 1
1809 0.6600831957485165
hockey 0.24207923831827594
٬ 1
1,000 0.4713207134242125
43@@ 0.948190456587047
Mat@@ 0.07514802265050383
me@@ 0.02176038184041569
11,@@ 0.45261012568104425
Mag@@ 0.05484101950593984
محفوظ 1
Wat@@ 0.1414867970636852
1811 0.673214829607099
ino 0.031143269923226125
lis 0.13784369761247559
Hy@@ 0.11295401226156206
Ray 0.33274915654053494
Anderson 0.31097195393631455
HT@@ 0.7594047918580886
Wi@@ 0.10368089541711871
At@@ 0.06890381663119054
ML 0.5790062281531031
مبر 1
1798 0.6992136212847182
2,000 0.5895177628857271
Em@@ 0.0662971549226458
1700 0.8079732011887202
1816 0.5948563868892301
550 0.9735604225532989
lin@@ 0.028403122481467438
oth@@ 0.0497060306111963
اوق@@ 1
132 1
King 0.06938169947992763
Rec@@ 0.062310769020695066
iz@@ 0.02644114096759624
رابط@@ 1
ics 0.035811399648094
زند@@ 1
ail@@ 0.05222936874044826
ge@@ 0.014512452058899774
مغرب 1
ans@@ 0.05327467592162047
حج 1
112 0.7486966060862934
1807 0.6592911469150183
280 1
Bl@@ 0.05748523240953836
Brian 0.285120286906096
Gil@@ 0.1504996434880476
أيض@@ 1
صاف 1
نما 1
Sil@@ 0.06919392824168298
eh@@ 0.029814448377070663
from 0.0036991657901529577
123 0.8811220325732795
Fred 0.45134152023479596
كريك@@ 1
† 0.07597101233603985
145 0.9757572214022219
tu@@ 0.029799943558577402
1801 0.6023445037327527
iv@@ 0.03553006917669381
ی 0.6811802668866677
ە@@ 1
ack 0.05508980031215842
im 0.004857131701422102
اسما@@ 1
Howard 0.28461005970938086
Te@@ 0.05153947834132945
able 0.013548831832784354
ada 0.011640468226831811
A. 0.08150848693276654
122 0.8332680898788185
ATP 0.4804115209357699
PC@@ 0.30826022701184674
ill@@ 0.02797213323069497
113 0.8340834867181424
IP 0.4015075482772569
Rober@@ 0.28740826711682427
Young 0.1600513002850473
شاد 1
117 0.8565969794878586
1792 0.6249798928362709
All@@ 0.10140368135435755
260 0.9866495539777026
Juli@@ 0.11106750539972443
اضاف@@ 1
تدار 1
1400 1
Alan 0.3190753283254555
ac 0.06824229764039179
AT 0.3519291554142019
CC@@ 0.2989695556369677
Go@@ 0.0655087125920023
Hall 0.08476555106669766
NH@@ 0.2392317160712018
mi@@ 0.026847964190027933
Lu@@ 0.06210700614934321
aham 0.22063142193707214
est@@ 0.014260562501716206
musici@@ 0.16761547741449256
CA 0.210263987205153
Des@@ 0.06760132384527091
NO@@ 0.37197954133937317
ari@@ 0.039909419337342926
Ir@@ 0.08048732719758898
SS@@ 0.2750576356838407
מ@@ 1
عائد 1
مسلح 1
la@@ 0.029466216098645533
sc@@ 0.03243435994536219
1,0@@ 0.9368001896507409
1799 0.7252393796697619
1817 0.6022134955074222
SM 0.4976602327956703
ack@@ 0.0392432554609497
ide 0.05455987586543379
ster 0.04505214638272624
Frederick 0.32204386029638415
RE@@ 0.26244759866919654
au 0.005575140843203819
text 0.1247606560380886
Clark 0.3050027570669323
kin@@ 0.09940521702192066
onlyinclude 0.2927189769664611
Fo@@ 0.09614874061160743
mer 0.038823497027415645
Gordon 0.30589345820278846
ade 0.02658715405860216
10,@@ 0.4003182921488964
116 0.8648000731106751
actr@@ 0.18431292028962412
my 0.10337509079488315
sch@@ 0.010808765179666002
راجا 1
منسو@@ 1
ard@@ 0.03978867970038792
21@@ 1
ero 0.045450256681351615
Je@@ 0.06586935604657032
well 0.02024473056215379
em 0.030535222423005114
kh@@ 0.04312111079555892
Ev@@ 0.11253380829495511
York 0.026404578825985365
so@@ 0.02012343258669922
124 0.8345811339362114
PC 0.22884928791309786
ori@@ 0.03893477842302682
Kar@@ 0.03944790787982671
Reg@@ 0.039738020926064516
ys@@ 0.07966568338776907
Jackson 0.17877507902770212
To@@ 0.04773797991548892
Un@@ 0.0355951162118086
ig 0.09070889156087956
ra@@ 0.028451082878068357
British 0.03682055900194738
ora 0.050435451843113384
rey 0.0953491794398269
1795 0.6243511491886248
1803 0.5356066940047978
gen@@ 0.019690649704369484
Cur@@ 0.08714581814884853
K. 0.26233790906446797
Su@@ 0.04221701513063172
eman 0.16909326020277257
ini 0.045599300594670295
é@@ 0.008577079144299173
114 0.7904222690061106
eth 0.1257434980344274
ran@@ 0.020625384601337407
ris 0.2449206815459227
155 0.9342891960637798
180@@ 1
ion 0.024058858876826225
127 0.7618224554247246
Kevin 0.3180865222312464
ales 0.012115791821609103
0s 0.031117565285555874
Du@@ 0.06395788743753822
Mit@@ 0.07718538454943889
New@@ 0.08222456630874042
ings 0.016346048025973427
Val@@ 0.05843636628970535
du@@ 0.03228366890382187
You 0.09911761105396706
án 0.03670127816176057
ire 0.026335333029223692
13,@@ 0.4325349639744192
Pl@@ 0.03804866425529936
TE@@ 0.3091866290271785
ox@@ 0.09469391456697998
126 0.7982710039353293
1805 0.5998421069488733
Carlos 0.13383142706268472
Clar@@ 0.16245563990377576
berg 0.038072464399971924
ys 0.07030556048800804
زبان 1
650 0.8682856607519479
Willi@@ 0.29603817619585265
dr@@ 0.022196811623700508
lu@@ 0.02977493600387441
1793 0.49818123352783095
AI@@ 0.21961824802829916
Ho@@ 0.05437266945668791
J. 0.09427977153599745
ates 0.020524105714966993
ur 0.021246499338357105
ura 0.04928084894858323
CE@@ 0.2547429323270315
DE@@ 0.27526592677584083
Por@@ 0.061575181679591716
Ri@@ 0.057779566070404825
ise 0.015869154138477896
Patrick 0.22491701577667908
مدت 1
Im@@ 0.0631364432670353
Jean 0.048693381111980544
National 0.023694030127841447
か@@ 1
Green 0.13126425915838358
Inter@@ 0.038424986602977766
Ryan 0.31478885139055085
Thompson 0.35255975071254037
field 0.035392231536416005
ome 0.08745557095358793
class 0.07505303955949359
cr@@ 0.02155418169587671
Walker 0.3258650116171302
enti@@ 0.02089273369574417
ym@@ 0.06755701033831665
مارا 1
Arch@@ 0.09417412815156817
ich 0.03746965580365938
mann 0.050340193078494154
مشيخة 1
Dis@@ 0.05739146950210913
Bruce 0.31816409299254905
English 0.048510817064263585
IP@@ 0.43724971739335555
زخ@@ 1
Eric 0.2714122091148669
LC 0.2807512208607522
129 0.8896014502914651
ka 0.03569172065286746
aj@@ 0.03496982958270546
als 0.0043124989873594526
ek@@ 0.023248184608169378
ho@@ 0.022132574150434275
ira 0.10561224891554577
za 0.03639883632195607
زائد 1
In 0.0032888101454916453
Si@@ 0.05008152974306333
ations 0.00888520976422846
oh@@ 0.05892901394268356
Is@@ 0.04995194129107837
a.@@ 0.39442111798271523
io 0.03729196025090138
IS 0.32555166752549125
hy@@ 0.07360635134200712
ian 0.03112379930478977
ud@@ 0.04965408031976725
Leon@@ 0.17729417509041367
Tor@@ 0.05139698620420969
ב@@ 1
152 0.945620834753478
Alfred 0.215058367671571
Wor@@ 0.05183546764426302
oma 0.06685471073857234
tor@@ 0.0215267855977941
معاملات 1
12,@@ 0.36662593178338027
Mel@@ 0.08406507365462008
Moore 0.27874472886556073
Robinson 0.3491005695614847
ung 0.007281465471325476
ru@@ 0.020575454436097297
Black 0.0853957544729772
ME@@ 0.33308741999651353
atus 0.11416510623482529
ita 0.04231612935942357
Dan 0.3053660578393011
ative 0.020014207771843005
ov 0.06471687260213217
1791 0.633269596592779
IC 0.2800095444582939
Roy 0.32024499060995865
ub@@ 0.03682118533279643
AA 0.20216332101528375
ray 0.17265080506893807
نقص@@ 1
Juan 0.08437499064909333
Vi@@ 0.043065984379527224
up@@ 0.026661904405897417
go@@ 0.04134450374713789
اورا@@ 1
منظر 1
1802 0.5386180012002139
Ang@@ 0.03401970359157468
حاضر 1
عطا 1
Kenn@@ 0.18439415321406386
Sa@@ 0.0611106090753143
pe@@ 0.018320289711618545
ten@@ 0.013084094108541415
CN@@ 0.2590465263556292
Lin@@ 0.07511079130972487
s.@@ 0.8344108914117855
اعداد 1
Love 0.1112355685171819
ida 0.032511480377495704
Hill 0.10152202503489348
dy 0.09020614022736341
ong 0.03338408674329039
CC 0.26515465309736247
Min@@ 0.039506258591121335
arry 0.2867164127197009
ated 0.006188740262080758
Ern@@ 0.1708139880042066
net 0.0708965751512998
tive 0.03909151834465873
-- 0.6371908660801106
FC 0.04890973173743299
Mar 0.4526796588860346
Ni@@ 0.07020682757333999
ger 0.039078104859387126
صورت 1
118 0.7771079515042179
119 0.8693530328103483
Gary 0.35860327099851
Jer@@ 0.10824289495198901
Pat@@ 0.11153895543070268
ali@@ 0.02383417319935902
box@@ 0.19811626853575184
معاش@@ 1
Far@@ 0.06567272031013399
Harris 0.2965253416711704
arr@@ 0.026473252212968652
ect 0.030002739018134994
Billy 0.31560608540524
Cas@@ 0.054937642023960336
anc@@ 0.027186983328377358
Wright 0.3272741726268517
AN 0.2730463389975971
ה@@ 1
14,@@ 0.40976810935207103
1797 0.5953849917285241
Dave 0.31293319045673385
No@@ 0.084378436876979
und@@ 0.017717792257829667
é 0.004687570868400985
سوان@@ 1
Campbell 0.32237430631162484
Rand@@ 0.22140106201378426
Russell 0.2957574546001723
style 0.05149721530411457
ל@@ 1
380 0.9380021463799787
De 0.03383884511554247
سرب@@ 1
1794 0.5270664574141738
BN 0.7042003302571878
Tony 0.1990795061839939
yc@@ 0.09207462802123485
elle 0.009023671956178415
eng@@ 0.016217996149306725
ili@@ 0.028997280626120246
mer@@ 0.01743884687281313
Ca@@ 0.1258192991961301
Louis 0.0580117989488723
Sand@@ 0.10059421900001429
ment 0.013866925381303408
no 0.009131660303032117
ole 0.03908127789262629
Matthe@@ 0.2673617329371209
Ross 0.2782612049149211
ama 0.03548120822361903
arren 0.2589070947327506
ement 0.010216041795025544
Es@@ 0.04567725180289525
Fe@@ 0.08170237667691452
sw@@ 0.048151664981745924
ومت 1
Barr@@ 0.14785704473664585
pp@@ 0.04094076914401637
rez 0.20207948458914848
tions 0.011002977347647306
But@@ 0.13889921507658287
Do@@ 0.05561168853849364
Gal@@ 0.04600634628542455
MP 0.21550326614246673
PE@@ 0.35987156696522893
Lawrence 0.27783702593518744
ici@@ 0.02541574760352025
Charlie 0.31187966650466636
EC@@ 0.4598012990217032
ass 0.03238066122809548
adi@@ 0.03302707825081288
ā@@ 0.07312655122410144
Stu@@ 0.10301279440493832
Alex 0.25499685347039264
Cy@@ 0.09899578728211
Ian 0.3609341663074199
School 0.024346990185648405
Sw@@ 0.04332848789525148
BS 0.2533033592728444
FI@@ 0.13927344853745408
Hu@@ 0.062233423531740925
Rom@@ 0.04950468677249995
Sam 0.21957495900789467
cor@@ 0.019095493302830637
cus 0.13608702179978885
fr@@ 0.022484528193651224
model 0.09634020681900478
ret@@ 0.046682882655866835
Benjamin 0.27155012486818203
Luis 0.13346326655983404
sk@@ 0.03026003793438557
Baker 0.3394051559988748
Bel@@ 0.027494667893405433
Herbert 0.2937082035806673
tro@@ 0.02672283745795035
Mus@@ 0.03586749444090367
Ben@@ 0.059203155802223906
Boy@@ 0.22409859312777813
eli@@ 0.05844231924129659
ents 0.011122595268803884
let@@ 0.029669615751543338
ساؤ@@ 1
Benn@@ 0.2619362224550035
TS 0.3769409672129404
me 0.015832947857125093
اولاد 1
Can@@ 0.052926522657914456
Fi@@ 0.06165474194088149
Phil@@ 0.11459509788650309
ock 0.07405761947093925
مختصر 1
Douglas 0.21183742909557599
HD 0.3185590935664446
DS 0.18873458026571954
Stewart 0.29213022370875996
ish@@ 0.02800552066402953
ning 0.028350068108376446
we@@ 0.016002926712237076
بلح@@ 1
فرار 1
Bor@@ 0.041551139704902776
Rob@@ 0.15331477960848042
public 0.029710384407648508
yl 0.15261402399322566
● 1
Gi@@ 0.040733572709007286
Group 0.06083889044028121
Hay@@ 0.14285812287247837
Ru@@ 0.06549382521276823
loyd 0.24484959547860224
Bell 0.23501561800826698
Kn@@ 0.0862451291182986
ani 0.04852358897069684
fil@@ 0.03758985978484745
ler@@ 0.02483316645716418
oto 0.07020916152598175
ש@@ 1
16,@@ 0.45725044087871847
Andy 0.31579797520851083
Carl 0.13401143865684495
EE 0.45303801330912835
Tim 0.2881983361608489
lan@@ 0.028304216412602723
Fin@@ 0.04204512811036764
Ly@@ 0.11445397832054384
Lyn@@ 0.2380582641096655
β 0.41736056926327364
اصطلاح 1
BC 0.11298209490978534
op 0.04053291010242262
ro 0.04361127976357769
ug@@ 0.02885539784075752
17,@@ 0.43940533354033895
Bal@@ 0.03763319759368275
Ig@@ 0.155440337403624
Le 0.0073690479641161065
Shar@@ 0.1430855024607742
amb@@ 0.03130238883487194
format 0.14336342753882064
Laur@@ 0.10949410264527328
May 0.023433496046752923
inter@@ 0.010564547225252251
min@@ 0.014710073215193098
Marshall 0.2953432509951954
ta@@ 0.02804117234841205
vol@@ 0.02819995198346976
ws 0.05362050338652146
Kelly 0.264172089984186
تحفظ 1
CP 0.3727873488366981
out 0.011241099212528272
Sul@@ 0.13207190827690876
over@@ 0.03301506739041734
pe 0.027148086686186595
RI@@ 0.23998370284734097
ena 0.02851826839880956
خاتون 1
AM 0.18669247727893395
Mari@@ 0.061325574267666626
Simon 0.1520241863305659
du 0.0026398185252569264
Anthony 0.2067940443014263
RS 0.2680222094089252
Web@@ 0.12076705476485661
Zealand 0.09433300279299969
bl@@ 0.017410139151441954
PO@@ 0.3805223376587305
Pi@@ 0.041135410496770386
Roger 0.18681403125429621
align 0.1824243292451537
سی@@ 0.45177087789463655
MS@@ 0.3218740778315947
Ty@@ 0.07763301107140716
ثلا@@ 1
فرائ@@ 1
--@@ 1
BA 0.15542845792524423
chi@@ 0.04496580122029296
mond 0.12467990490358367
time 0.008725409601433028
Christopher 0.2564777464538734
Harr@@ 0.2005800036182827
LA 0.18057875319419878
Sha@@ 0.14362331555386457
cu@@ 0.01667462164768406
del 0.0031866592074448388
vo@@ 0.023709365616901092
wood 0.06224978472895344
Bas@@ 0.03527761532032296
IT@@ 0.25698975732978846
Mu@@ 0.07616908638980273
Os@@ 0.06368084238499265
ser@@ 0.01757675404597885
von 0.002527964493729285
yp@@ 0.05057559334190069
Cer@@ 0.06767011101990654
Eu@@ 0.13618468953671747
Lam@@ 0.12344910708625582
ennis 0.31638962807356574
inc@@ 0.01660485344055289
ium 0.08230046677804952
so 0.012339283399989628
sy@@ 0.05076187445182582
Hel@@ 0.058391136737825006
P. 0.12571920209101703
Sc@@ 0.07273639971017516
pu@@ 0.02455130378918296
غزل 1
Jason 0.2970275877904542
Moh@@ 0.11404466380849354
amp@@ 0.035573436762528804
osa 0.05607642053595144
ters 0.019130359292880084
إ 1
Tod@@ 0.11027928123065558
ord@@ 0.024835931085960165
Adams 0.25728177823342635
Mul@@ 0.09982504254728186
bor@@ 0.0256606784434358
dia 0.06598421722018821
eff 0.2544739477450566
tel@@ 0.02619552344528651
BM@@ 0.2025901332288588
ISO 0.5099921337774993
Manuel 0.14429943561533154
My 0.1093138811309959
ach 0.019434023139895895
ve@@ 0.037763542183649475
اخلا@@ 1
Gib@@ 0.24977878083520716
Hum@@ 0.10235677423415898
Tre@@ 0.05354870483875239
film 0.012901477470161094
ú@@ 0.048553807533392376
مند 1
١@@ 1
Adam 0.16595936214917173
PS@@ 0.20890757539804541
20,@@ 0.5309593920485898
Hal@@ 0.056068141842801573
How@@ 0.28625508981421
Vol@@ 0.05170129267602549
alp@@ 0.15477242972338634
ash 0.07042878856221313
ola 0.06340014460631001
way 0.01837187515315278
ま@@ 1
15,@@ 0.40368234894053545
Jimmy 0.25052107459007217
gu@@ 0.013560069165597112
DF 0.27077345182524115
TO@@ 0.4118543841512454
ki@@ 0.04485530839411074
nch@@ 0.101372099363877
thi@@ 0.07581889141963634
Ful@@ 0.13890323486194514
Norman 0.27418231164660134
Sher@@ 0.13280882414922315
ha 0.021868866606052056
int 0.10901824843339743
ki 0.04012850414712483
oks 0.12104319538473321
que 0.0016875980157192373
ér@@ 0.0173657529282063
い@@ 1
Bob@@ 0.2045635707081335
Morgan 0.23676039082828776
cap@@ 0.022681372767376237
ish 0.01809589514617469
tes 0.01268643762076664
ón 0.019636449769258126
می@@ 0.4123426012629069
Dou@@ 0.12062305643221717
Ham@@ 0.07686046409888324
ala 0.04010718338570089
ally 0.008276371506288946
sh 0.19016166811480362
Jonathan 0.29536395052510994
anth@@ 0.0892504021463409
fo@@ 0.03330733201671246
port 0.029285440680430257
sson 0.20407278876319723
ó@@ 0.019115547775075802
CN 0.4068552534530539
NS@@ 0.1702705280755177
Pal@@ 0.031018697383724286
Tri@@ 0.03408501168885752
for@@ 0.009589964280976398
its 0.004744241301381298
low 0.019672632525901908
DO@@ 0.3307655690716202
ardo 0.14217675284072304
bu@@ 0.025533224530679497
lem@@ 0.04841480370716054
line 0.021035528596478847
son@@ 0.03412668980784231
Kir@@ 0.08098046004415438
Nelson 0.24189266806244666
Antonio 0.09590877959929549
Christian 0.057643519230800896
Tak@@ 0.10398263065349254
enz@@ 0.03634978084037757
ko 0.0634592950103905
lar@@ 0.028567961036600985
נ@@ 1
غلام 1
M. 0.08142106077182679
Prot@@ 0.05905152658690813
Sur@@ 0.0578247014766634
ff 0.05669340735994646
lock 0.06405035728076691
type 0.051932268475447775
نوج@@ 1
Blo@@ 0.10114601446601508
Whit@@ 0.11126433965691307
occer 0.1656441843926165
uch@@ 0.030451030452342254
اعلان 1
West 0.029222761981058
cl@@ 0.019103219297114653
uk@@ 0.03339638869135697
value 0.13241309965853937
Hir@@ 0.12693409120594729
Ul@@ 0.06570517676445475
background 0.1600673428961529
ABC 0.21253588505819015
Christ@@ 0.05652793160662401
Dar@@ 0.04128173592306652
Sam@@ 0.06176210528870329
alis 0.14701534707358566
ington 0.05228032133018314
lo 0.012110854584805939
si 0.03213260040498424
sol@@ 0.015048801971580754
مقدس 1
Jam@@ 0.11511577428213353
ston 0.09879759060865358
し@@ 1
FA 0.13073637788462975
Mill@@ 0.12311513107303523
RA 0.21740781742643378
ado 0.00534316766729568
Ben 0.14780914755675018
Del@@ 0.042805469026995405
TP 0.4409839071675008
eron 0.05010960592554676
Matt 0.25235886081927633
res@@ 0.010369278817238599
tics 0.026469841514539134
た@@ 1
AR 0.2445871143831981
IG@@ 0.22884623421556008
Trans@@ 0.044517445044815786
mat@@ 0.02283359254211326
oni@@ 0.036461510589938684
syn@@ 0.05468872900270395
± 0.7846129838330409
بازار 1
さ@@ 1
Miguel 0.1659531058438467
Tim@@ 0.11266803424111255
aceae 0.0832560700508773
row 0.05882499988396077
تمبر 1
El 0.007333317567240577
Mah@@ 0.06150835540424436
rel@@ 0.016409761865339344
Lind@@ 0.1642306054776539
London 0.02982953051077015
Ol@@ 0.06234940195981824
Wall@@ 0.13766232274172122
ette 0.028586012266922256
ich@@ 0.022095913320042133
wards 0.08423102939602276
ماؤ@@ 1
ek 0.03925722204757617
ela 0.054805027096884035
23,@@ 0.5616319719166882
Hamilton 0.16665362485994875
ds 0.019979334659949635
انقلا@@ 1
ao 0.04714856728068849
ods 0.04493599635010109
ting 0.010131645925219908
ری@@ 0.36651015418734856
One 0.034451691583301934
TA 0.12716156402842055
19,@@ 0.48878606472830605
DC 0.13017624517648102
Stanley 0.23111111054229078
ash@@ 0.03537017158525318
ten 0.004975065552268045
AD 0.17397891966235982
DP 0.16760737275385265
Gl@@ 0.05031657688394494
Tel@@ 0.0772795994077121
ain@@ 0.022874621431172387
arch@@ 0.029067178668529804
erg@@ 0.044884555909357554
isa 0.0861483433924833
ther@@ 0.03447135275092141
Day 0.08114382062563451
Eng@@ 0.05412529541843136
South 0.02020502225900025
bar@@ 0.017185308695399353
ere 0.015145406398069708
the@@ 0.023461854366402857
yan 0.10753001952668581
مضمون 1
Brad@@ 0.17643377994332296
II@@ 0.33058559796813897
Nov@@ 0.07094570582538771
ax@@ 0.05332570429502485
begin 0.1828996819812578
ez@@ 0.03644750116425828
new 0.011572114212286143
oke 0.10525432193106535
٢@@ 1
arg@@ 0.06727549646157785
contributor 0.8080940328742211
har@@ 0.030714349643290513
nes 0.04712285715426863
ors 0.013874064702103934
timestamp 1
خوا 1
علی 1
phy 0.12088988218938915
username 1
田@@ 0.25504974725002205
18,@@ 0.38141106495327076
Arm@@ 0.0708772495825955
Bre@@ 0.04003394326215503
ars 0.023334774304686456
ye 0.03573889695510886
طرز 1
IF@@ 0.3563747402509032
Sm@@ 0.10526456947840807
ai@@ 0.04416908292802254
pha 0.18046415014188733
Griff@@ 0.25280348016961357
IBM 0.37820923447860555
ari 0.047282606359650134
cer@@ 0.02343968733648151
ele 0.04977533580778114
int@@ 0.015612356584858076
ber 0.03374117375038225
comment 0.4463941338532203
li 0.03862400973040291
ven 0.040501715904163314
ה 1
اندا@@ 1
Met@@ 0.053155114676226044
San@@ 0.05492094051011255
vir@@ 0.06717966857449414
we 0.039549319417054425
ō@@ 0.07882998667494646
Me 0.09890001473019464
Rog@@ 0.17484821037844434
SI@@ 0.3290990395002721
lie 0.06112106220486528
mag@@ 0.03190803842541117
pro@@ 0.01342328742116235
ven@@ 0.022101796409111592
yle 0.07916088816189089
ñ@@ 0.06503817613626317
حالت 1
AF 0.19513361731055875
BT 0.27115189783033183
Black@@ 0.14144779120668513
Bul@@ 0.0583768266229216
Gen@@ 0.04066538282598253
US 0.020634910157131956
متعلق 1
AB 0.2898747750927783
AE@@ 0.2999474409060416
Francisco 0.05894717039009457
Man 0.0659579128259265
aur@@ 0.0476750384840676
aus@@ 0.008743722161794344
ito 0.0432610046808734
val@@ 0.024247597670802607
vey 0.09533514569555282
Chil@@ 0.0813100487105172
Jac@@ 0.11156644631215627
Red 0.06012667298999282
VA 0.28066130781306853
ester 0.04767975266135779
mes 0.03384947238244426
pen@@ 0.02470232099078147
Raymond 0.25360391631465795
ave 0.034944134435542805
cin@@ 0.04145338568912986
fer 0.0340259468761772
oper 0.1640914328896284
ves 0.018655444109087305
Bir@@ 0.052746714891866706
Bu@@ 0.06828034548134974
Lar@@ 0.0928524767815317
Mad@@ 0.0403764932668849
Nich@@ 0.14236945169928625
SC 0.10519180908621442
United 0.011550105226211346
uz@@ 0.04198555199718069
wid@@ 0.042488355419932296
was 0.0008131229862360106
توان@@ 1
وی@@ 0.49549376327670064
Journal 0.12164039767161938
Park 0.030791470005794044
Ra@@ 0.06886247380005683
app@@ 0.023072543367789064
ath 0.04517103079348445
ball 0.03874043102016371
A.@@ 0.12733831417670882
LG@@ 0.23449362518421984
Res@@ 0.043431856005236295
ila 0.06260562065505566
ott 0.16059276293239025
ئن 1
جانا 1
All 0.030189841316996355
As 0.017482963701919027
Jordan 0.20406040570562664
On@@ 0.047590011262157755
Pear@@ 0.2029464474781465
ba 0.04841322469018943
ja 0.03447627987038348
Gard@@ 0.18414336984401233
Greg@@ 0.1334538934902499
Johnny 0.21116751779279772
Max 0.10362347408046484
teri@@ 0.09514549422316126
AL 0.2550909568019071
GA 0.25629034765329045
Gro@@ 0.04845769239861241
ML@@ 0.18385139198882855
Mol@@ 0.06444536074842656
king 0.022196220346313335
len@@ 0.03213856691622079
unt 0.11458422888002584
Hern@@ 0.28875778483536424
Les 0.010750613384534482
Medi@@ 0.045993493220966644
Mir@@ 0.07035362993604144
Sec@@ 0.05762173285145209
tra 0.0368172997558758
tur@@ 0.015032285673518235
توضي@@ 1
27,@@ 0.5615756448550447
Oliver 0.23635651323088203
Steph@@ 0.19042044552454282
if 0.02729312255386406
iro 0.11373680749995983
unter 0.014051214594059114
رنز 1
Au@@ 0.028377478265910347
Bernard 0.16447999600235852
Brand@@ 0.1113250039023906
Carter 0.22505035123905517
EC 0.30602100713071706
Sing@@ 0.08886243241727139
aria 0.04174754538515561
ection 0.02782497846534631
ime 0.03205887245595172
iti@@ 0.02421519310735012
of@@ 0.026591964823819047
ong@@ 0.016814006539697463
Ba@@ 0.08711360246432197
Mos@@ 0.06475184279432525
anti@@ 0.02055119634291319
az 0.04523475524641313
err@@ 0.0361333035497025
ery 0.07164905143829346
hi 0.058787897219312255
por@@ 0.01948659025894651
tim@@ 0.017213083393379243
دفتر 1
Lev@@ 0.08728784239642348
ba@@ 0.02291838341313727
cal@@ 0.033543996028618656
ids 0.05033746431022044
pre@@ 0.008970419644728753
rol@@ 0.04723580112588755
مزار 1
Ash@@ 0.09459608463542214
John@@ 0.2823700539685207
Pre@@ 0.03846989411647383
meth@@ 0.05901423071615727
や@@ 1
21,@@ 0.5273089637470694
26,@@ 0.5353963839852826
IO@@ 0.3535971297667187
Maria 0.06067567333759381
ern@@ 0.024427715403366534
ie@@ 0.021966604792927412
immer 0.0648233038157213
rom@@ 0.02772974599458862
التار@@ 1
دی@@ 0.5606698898380356
Elec@@ 0.06457754808472234
SD 0.28765178583807655
ame 0.04335046338485605
eck 0.06481910615654367
off@@ 0.017105510089161825
wer@@ 0.02044265060473283
ڨ@@ 1
ひ@@ 1
22,@@ 0.5040581641082984
3D 0.21625440555489472
AF@@ 0.19331776180289853
Arn@@ 0.11949373125239647
ost 0.04543104017613011
sa@@ 0.020773164322280314
var@@ 0.057615716254896636
اصول 1
ٱ@@ 1
Chap@@ 0.08823016165662788
ger@@ 0.014238427526861396
ther 0.03341363772200841
ō 0.07287544072829567
CO 0.24878746762778794
Daw@@ 0.201502900246391
Franklin 0.1998728062885443
GP@@ 0.32722027541227683
Haw@@ 0.10281350422670882
Liv@@ 0.09857224888517135
anny 0.2069521829382283
ן 1
き 1
Jos@@ 0.1388963029246189
Ur@@ 0.029520020901507557
act 0.0284480636674683
edi@@ 0.03163646429658725
£ 0.09393519316070921
ד@@ 1
تشدد 1
24,@@ 0.4945041744864712
MC 0.21171097669373684
Mi@@ 0.0433423655355301
air@@ 0.026023317910987304
ani@@ 0.05157763484039967
can@@ 0.020836401243842662
colspan 0.16910947826516365
ins@@ 0.019480012529999147
lin 0.06888151397420328
oa 0.08438050858441633
Ban@@ 0.052947183747626365
Cap@@ 0.0656180498198196
aron 0.017205469433077675
che 0.013293417740939686
des@@ 0.008469488999973433
len 0.023485880540228075
pos@@ 0.01032226760065578
sion 0.013619304975022742
that 0.0016945132305254747
ä@@ 0.008591543854396243
احت 1
् 0.0027479782017145672
し 1
Bri@@ 0.0672724709154622
Op@@ 0.05258417927512475
Sar@@ 0.05181154127974923
gene 0.13091160476071623
مقرر 1
Han@@ 0.06065056734173405
Hard@@ 0.13045227971869078
MO@@ 0.24398626050412497
Men@@ 0.06095651340965317
ille 0.021254695098250707
ima 0.051383367496596985
singer 0.08165332231568638
tical 0.0239926083268406
ע@@ 1
اخبار 1
BO@@ 0.35013490478746667
Dre@@ 0.0561242246907348
Ker@@ 0.07685247563621724
Mary 0.054749940699722575
Philip 0.16105822723738156
ae@@ 0.0756569915852275
ards 0.021737881957721767
oth 0.0978203334527545
ος 0.04734874603076948
دبا@@ 1
Char@@ 0.03382312258839275
Con 0.08716036339231774
Life 0.058856400353922166
Med@@ 0.044035894137862464
RT@@ 0.19522218119590495
fa@@ 0.020297918502332004
yn 0.08255203602115285
ڤ 1
Ak@@ 0.04001762245371823
Fox 0.12000597146880611
Grant 0.19238511068538297
Jay 0.2523997816658499
Pas@@ 0.04554137224049108
SN@@ 0.22172437445276438
Vir@@ 0.06706451259816125
WW@@ 0.2836105897722374
Wh@@ 0.0842762947510123
gl@@ 0.02531334184366501
illa 0.042015079426175564
ji 0.06277607232294187
lins 0.14632708165477648
Award 0.038265591961887
Little 0.09445525227580646
Music 0.03609598627452426
Syst@@ 0.0929026211282101
System 0.08359615147550772
TV@@ 0.18333831455217714
Tro@@ 0.039729397499916275
Wayne 0.23420013796908784
ham 0.05628381025150402
ii 0.19509207289000138
key 0.04330895466742051
wiki 1
yer 0.044050889619387815
CS 0.22228894399448026
Co 0.113977395647749
Fran@@ 0.04351533225021371
She@@ 0.07574966640654147
eb 0.19530445013886746
encer 0.20386053035073237
uck 0.08319566104248825
Micro@@ 0.28265865406478025
Nick 0.19538655329220353
SI 0.367953600863738
Vo@@ 0.05705496522487654
cel@@ 0.03863728925465125
center 0.048769658431434874
don 0.055550501163770215
ech@@ 0.026950926225279736
lard 0.16306036634003554
sel@@ 0.019784624154096465
ø@@ 0.08044710226012117
House 0.027413258776391822
Il@@ 0.06702192045647397
It 0.004593586132003175
Mont@@ 0.04097328559667962
Time 0.09335049801938942
ap 0.03749477147264819
ce@@ 0.02130107505688353
ei 0.04298250933105456
ha@@ 0.03158060633406753
ind@@ 0.020621053064511584
up 0.008442040009959777
Adri@@ 0.14975950282833975
Lor@@ 0.0495315074657303
News 0.09535261437471186
Pot@@ 0.07623122691363683
ast@@ 0.020887272120365688
dium 0.13674872736767374
AG@@ 0.25771661592522604
Hon@@ 0.03972475697677016
eo 0.03169633578300677
res 0.024837573685689642
فی 1
Cle@@ 0.08370788339759375
Pan@@ 0.04023950679097406
arm@@ 0.020822179473521545
ey@@ 0.034749656709555383
fl@@ 0.013525449780125381
lam@@ 0.02735231009536071
parentid 1
محض 1
مصنف 1
25,@@ 0.4629376347435926
Dun@@ 0.09085781064500668
Jar@@ 0.15552083853794424
Les@@ 0.09838397092081522
Pedro 0.09798991534686469
Thom@@ 0.24052432263115056
ages 0.012737901783024771
fe@@ 0.01310028323598526
fre@@ 0.020821807739908653
her@@ 0.010157122776200815
ture 0.016127048280808107
معلوم 1
← 1
AG 0.11207873369335374
Dor@@ 0.049130808353825856
González 0.23360023380008493
Google 0.18864840268901298
ax 0.11348737786460442
back 0.017576006248338567
fac@@ 0.012555931622057832
ico 0.017297694708307026
Bet@@ 0.05129675246145992
Ko@@ 0.03990971226846198
Long 0.08558455787165842
On 0.0075063711362084885
Sk@@ 0.0643026624654269
eri 0.0694449181888189
pal@@ 0.02933710754397504
ula 0.10684118073310565
Blue 0.08495066464162766
FM 0.09646266714162274
Jus@@ 0.08235757307985658
Stone 0.1348400601838861
aka 0.0720306172568857
ato 0.028906246985593704
ems 0.030200523036131917
loc@@ 0.01723930340965987
لی@@ 0.448185974888542
Dec@@ 0.059742125569657335
Mic@@ 0.16557503253807557
Sub@@ 0.05351381644207785
Ter@@ 0.05232252117326625
cy 0.097589019505257
ello 0.04674877623711213
ת 1
ادب 1
Fernando 0.1408147619912689
H. 0.08003466309589138
LO@@ 0.2957400372836832
Net@@ 0.11662391867393088
Press 0.1198692411494578
Sy@@ 0.045761919705231746
Windows 0.10930740112548916
amm@@ 0.026176870596637612
ding 0.022721037305761322
ome@@ 0.06606379530372648
بی@@ 0.3155544241470483
な@@ 1
Blan@@ 0.08507435929776519
Isa@@ 0.18807002441245926
Rot@@ 0.05908742269842863
Win@@ 0.05693504100140942
anus 0.14682794032913854
ature 0.02960419576155838
don@@ 0.03669896471826756
ef@@ 0.01609299684056386
inae 0.1766851687094822
ona 0.03240310547595176
ular 0.03096977452951112
Blu@@ 0.09081644766211028
Cre@@ 0.0493762553172667
Pierre 0.05040245744219715
Vincent 0.17562716128231828
ells 0.05088109027904508
isher 0.1332060311466436
ko@@ 0.03493987331403925
ley@@ 0.09375927209353817
sin@@ 0.032420419814156935
ö@@ 0.013635065560286746
نگ@@ 0.9983382861846067
の@@ 1
Austin 0.183209681442243
Bow@@ 0.06881815736841079
Mes@@ 0.08761998763920786
Rol@@ 0.06810339720950313
inn@@ 0.01797357548649507
olog@@ 0.026333715097191526
over 0.007907373162008412
tw@@ 0.021809378184898878
ον 0.2401895675912393
٠@@ 1
あ@@ 1
Don@@ 0.0600198907847657
García 0.17097861598243172
VI@@ 0.17204665113521572
augh@@ 0.1138063324258046
ou 0.008016140874912007
view 0.024714543223448755
RT 0.19045824644564427
́ 0.025074811242112718
اقسام 1
Cu@@ 0.05655959498648566
IA 0.22916243851395138
Lab@@ 0.05090155343670527
May@@ 0.07953796693658803
Mich@@ 0.06758837581938705
Washington 0.035148597196346734
ami@@ 0.06404580398099151
ema 0.04040288410090049
ão 0.11285660448592849
Cro@@ 0.034368012578320235
EM@@ 0.2216379073332041
Ja@@ 0.16586707660615654
cul@@ 0.02496931931556658
elec@@ 0.02432795848033964
eta 0.03528738174365373
ond 0.03771272459647405
osis 0.10190947098993228
tia 0.09443444422545567
ای@@ 0.2981559790872383
Andre@@ 0.16667014991997958
March 0.015291918814104582
ady 0.09304848739650404
comp@@ 0.016449011963913827
cy@@ 0.0793275194568934
web@@ 0.07724572914846854
xon 0.20687284178947943
ա@@ 1
باعث 1
ین 0.5310191426898286
BI 0.1788684567962532
EP 0.08697277670907767
Earl 0.13648551286011254
PR@@ 0.2530369010531546
bre@@ 0.013967614421141028
els 0.012974075667153247
kin 0.07214056500293835
ling 0.026162101505934933
É@@ 0.01817708868980387
α@@ 0.08146353455422362
براير 1
Av@@ 0.047983969588262836
Prince 0.07376218996576805
RC 0.14752072880275646
ech 0.04421657261692738
Art 0.03107071188960011
Die 0.0033106882296612956
Karl 0.058906320677611076
PP@@ 0.28865883214800536
Research 0.06330853147514752
Shel@@ 0.2019872963608141
esc@@ 0.026810099215457843
yg@@ 0.11338996849609514
י 1
Az@@ 0.07394901340561251
College 0.020073346927318457
Ha@@ 0.05001356327603369
Joh@@ 0.1148941206028346
Star 0.05870165108577365
onald 0.3157396351332237
ts@@ 0.016242174477748807
Sus@@ 0.07327733579404314
awa 0.06759726056912654
cre@@ 0.010983506021880285
ese 0.016719015059854153
ext 0.2500706858766248
ide@@ 0.044883627285507946
ni 0.027319739343531806
tan@@ 0.023865018429011346
uf@@ 0.027519134528112235
una 0.003113889140019213
City 0.01526008358253597
Power 0.1137961642833443
Rel@@ 0.03766720303263894
Tal@@ 0.05684140822229538
UC@@ 0.12067664686445699
Vic@@ 0.05658055733224173
cas@@ 0.018879828681502606
ender@@ 0.14423076950725414
eph@@ 0.09283742804259093
esis 0.07661965502900756
met@@ 0.02408868673844778
onia 0.0468948891828617
بخش 1
Association 0.030228582278675215
B.@@ 0.16722583454496795
Bla@@ 0.1700283458326592
DVD 0.09018042577381068
Ford 0.09964654704920438
Log@@ 0.12129846995579162
TC 0.17550408382048185
Trav@@ 0.14023032560637608
ders 0.031717242482696736
ease 0.07277082904719197
ier 0.028712745445568236
mac@@ 0.07999534656867595
out@@ 0.02396434157031016
pa 0.05511560028524824
rec@@ 0.0074739720394094095
ung@@ 0.01677267152494001
ָ@@ 1
∈ 1
HP 0.29126535185698166
Ren@@ 0.042635480949254845
Rus@@ 0.06827924467988553
The@@ 0.03807693959522788
ble 0.022030680797764695
ets 0.00992553666555333
ider 0.042240606506808664
lat@@ 0.02035683628094049
ope 0.04623943816301231
ph 0.1451213979303357
vor 0.013952601284383729
à 0.0011570609658247794
ּ@@ 1
حفاظ@@ 1
Jacob 0.16826458477886086
Pa@@ 0.05481799191713471
Rodríguez 0.2275219306016018
Society 0.03953263892946952
aki 0.07144761547212607
ast 0.021398248416022586
ense 0.02652343978295142
ete 0.03316775454155366
och@@ 0.05745771266177908
une 0.0022756437020938582
Rose 0.1210272754912596
Service 0.057902539160130016
ega 0.05312972214614432
fer@@ 0.011306023424349986
tar@@ 0.01906461929503074
صحت 1
فورس 1
Center 0.03791583283108016
Hz 0.19129974335975053
Martínez 0.2682479333383222
Max@@ 0.14606722004457753
esse 0.029030432783553613
her 0.0040112963973536735
isi@@ 0.017985333588974632
tom@@ 0.020243792804548768
ut 0.026444065836622774
′ 0.4331375469276313
‹ 1
CE 0.13058588133957602
Fu@@ 0.05659178552821837
Ric@@ 0.12149911433224808
Rodr@@ 0.22531579175240596
dez 0.15882987647092953
lig@@ 0.027665440076360816
ms 0.03716347089153139
tion@@ 0.026364495705447827
uke 0.1473928282825708
wen 0.1297473373518059
ć 0.055410002647981994
Corn@@ 0.08646432787730765
GB 0.15686991143663226
anda 0.0448726234963461
cur@@ 0.015911510795232023
jo 0.030099856628311588
occ@@ 0.05969581888688702
system 0.018398086590624373
ust@@ 0.0447548207884635
Gold@@ 0.07957344597095709
Lang@@ 0.047989212232715954
Live 0.08338040495389726
North 0.01766557673612564
T. 0.10635616954623706
Victor 0.1182723193341744
act@@ 0.04320540301834909
bul@@ 0.03706404786266504
fin@@ 0.00875567649142919
hu@@ 0.021524036648929386
iy@@ 0.04979996457162053
rit@@ 0.025863568427504046
Club 0.023670731853775284
DI 0.2421002173674046
Ever@@ 0.10314230824246165
Oli@@ 0.10826874652447126
Science 0.060804043117087585
eri@@ 0.04709179093583063
lif@@ 0.0931302653594718
sen@@ 0.017892442462460936
use 0.009594059684640036
مولانا 1
Leg@@ 0.029583246500034837
List 0.04968664476322309
Media 0.07598661002503705
cia 0.0838327850586879
hil 0.16338558448553742
ines 0.01568170243330217
ng 0.11463902391939379
say 0.09047063823066229
ملاز@@ 1
BBC 0.07100511021295008
Chr@@ 0.12069251936760587
Mach@@ 0.0819578926196392
aga 0.05074915859359212
alist 0.031390703761635455
ating 0.009108721692507423
iss@@ 0.02372727028284811
itz@@ 0.027014246204329934
ness 0.029609975846662008
ros@@ 0.05935953434976572
sey 0.07693902576032326
پس 1
Nav@@ 0.04760854059121523
Ti@@ 0.033631789667161384
XX 0.08858991625154393
del@@ 0.02276634633843784
﴾ 1
Arab@@ 0.07032252495439546
Super@@ 0.051154174643961534
air 0.022422037378870645
igh@@ 0.023548341695801184
non 0.016844555208636782
sub@@ 0.010625762852886661
vel@@ 0.028594715767662707
الفرنس@@ 1
﴿ 1
Sho@@ 0.06575934731823775
data 0.05152254570067545
gen 0.01409442799700443
ning@@ 0.09944798810240882
prot@@ 0.015091142166080103
top 0.022824750030963577
ández 0.45800202433082154
@ 0.5168394904471069
IB@@ 0.3049929606418348
Is 0.10558159816358294
López 0.18551552411485703
Rho@@ 0.11021438891346522
Rod@@ 0.10984555933339563
aci@@ 0.02611089717524429
dic@@ 0.01875004949308565
inde@@ 0.06630347198103666
ky 0.03834759362337001
log@@ 0.037106398810082694
very 0.015366112339471072
Fac@@ 0.05771955462248057
br 0.03406523360799511
enc@@ 0.018357261819497886
ental 0.01902672989656469
Super 0.059360671483812
Ther@@ 0.07348692474183226
War@@ 0.03193035283014064
acy 0.03290029016334809
avier 0.11823888320397107
bit 0.07383860803974208
bot@@ 0.03360418183006937
isti@@ 0.0342066820958061
mus@@ 0.024619061738946943
right 0.02828937766315712
wat@@ 0.03532400423451938
› 1
Abr@@ 0.09358857718975357
Health 0.08105144313255207
Microsoft 0.13734191850968835
Pérez 0.21768191867803394
cop@@ 0.025874074392354666
eti@@ 0.02331210068522135
mu@@ 0.02387968803059745
ody 0.09214461141540742
olds 0.0657219116385936
ster@@ 0.025658536422479502
writer 0.044416736178560366
ze 0.017299639538952586
آف 1
اوائل 1
Air 0.03185150764597993
Entertainment 0.08881938338862963
History 0.01866200085983742
Mario 0.14607490618815064
Star@@ 0.061195783445029725
ange 0.03697318357418904
gar@@ 0.021143851505373977
mas@@ 0.016193957248935416
oo 0.09781403260119965
osaur@@ 0.1371645222710829
ם 1
ثبوت 1
Hen@@ 0.07740182674939962
Rap@@ 0.08023399889585497
Sel@@ 0.05270095472029718
This 0.007469665901050191
UR@@ 0.1919233196747954
drome 0.16878718780935092
off 0.014135298119563067
tha 0.0957433822673273
this 0.004658200675329358
فی@@ 0.5877682540735537
10.000 0.3517762165034021
S.@@ 0.08719662552244349
St. 0.021067818944778712
andro 0.15123541444214603
wer 0.026466528149583363
Company 0.030030876426343247
Mem@@ 0.064954553644694
No 0.04020062825835663
Plat@@ 0.044249662734414025
Pow@@ 0.12181011446070517
ali 0.04113914222473867
ces 0.01355677811685716
ein 0.003106858044108568
ores 0.016052874413527117
ח@@ 1
ק@@ 1
Bau@@ 0.020837414675798877
Fol@@ 0.04688478192825301
LP 0.14197985615284955
Pet@@ 0.10883919497069253
ando 0.008922783098234235
bas@@ 0.012838486217785492
bus@@ 0.023231152317027208
dri@@ 0.025534759240218637
esp@@ 0.025058907766097968
ku@@ 0.0356252666907297
mb@@ 0.03699862509604185
America 0.029115937503003515
Dev@@ 0.05553329728272941
Fer@@ 0.04489325696954425
Network 0.09747006562542275
SR 0.09638654400053154
State 0.014906823268586123
Uni@@ 0.057400802297911155
gar 0.05796662979476528
sti@@ 0.01701436619041893
tis@@ 0.02130798164037021
AK@@ 0.29761384666081475
Luc@@ 0.05268429244969711
Royal 0.026071231907146507
Van 0.06760262509620002
action 0.018041691119027124
ashi 0.1610993163972322
ck 0.03433513739260481
eno 0.05833079018644088
lum 0.09969052982922122
mor@@ 0.01507367792500938
ty@@ 0.04190986216240516
ə@@ 0.38479202900697707
Cul@@ 0.05643007463777098
Eli@@ 0.11068009538416436
Kent 0.14875239612907468
Night 0.0926666968080769
P.@@ 0.24644755520541184
Red@@ 0.05053686894952562
Tam@@ 0.06051073943010588
dom@@ 0.025413161247950795
tel 0.026223998273938214
trans@@ 0.010038311844442215
مطلب 1
----@@ 1
Business 0.09338997873267835
Institute 0.03506191254184638
Jan@@ 0.07504802729253722
Pau@@ 0.07393519539044348
bro@@ 0.019579063278539043
cases 0.060257051947123226
fi@@ 0.012513242241919883
icus 0.16221717062918217
ine@@ 0.05084754128289067
net@@ 0.061130226708544684
ng@@ 0.025088155567947763
org@@ 0.04988769999957148
reg@@ 0.009536085933479307
ski 0.03681441478752638
ual 0.019506544836683626
uki 0.1609380035498597
C.@@ 0.13559403523415944
High 0.025456806644801096
Jud@@ 0.06039027278442992
Kennedy 0.13699011831168903
Poly@@ 0.1224543350304932
Sav@@ 0.051939592556045
Show 0.07010081302595954
Sá@@ 0.16574842748077245
color 0.0500684367040061
eira 0.18604968612570733
ás 0.05334557705749775
EN@@ 0.2607888345267912
FO@@ 0.22929142928551385
Pay@@ 0.18467100817002913
Wes@@ 0.06892824974452395
ex 0.04860916176400515
hydro@@ 0.07781844573695934
ides 0.022250031426842773
ika 0.05027468366660196
inger 0.03455750380272092
ip@@ 0.06321500759584685
men 0.009376709604989496
my@@ 0.06600890778270958
sal@@ 0.018103628711818538
wan 0.07563496627430526
Buc@@ 0.06659756507355269
Foundation 0.06796626073102342
eria 0.0961332808453693
fol@@ 0.02661544999078096
gio 0.08407435595498014
ik 0.025264747360021895
oshi 0.2073208711230014
return 0.04014852310439054
under@@ 0.014513646230539901
خوب@@ 1
Den@@ 0.03670193816977314
Emer@@ 0.11737365989530399
Pres@@ 0.033527431407359067
Rub@@ 0.1270867457718819
bers 0.034696448858870035
war@@ 0.0165503697483508
نواز 1
Best 0.03916014092442426
Cla@@ 0.11446897793003298
Lucas 0.19049808939670623
ality 0.02044883462442957
char@@ 0.025984105181437026
eller 0.043280489638098926
ency 0.022940091691622106
ep 0.02533119904231337
erek 0.1492757552929972
iss 0.05946165389653675
osph@@ 0.09581856098646044
produc@@ 0.011510718553383188
ville 0.010722708499266103
š@@ 0.04356491539467326
دست 1
ー@@ 1
Education 0.0465926322128451
F. 0.07283250727755866
ean 0.029101529025291697
igu@@ 0.048937584031134226
lan 0.08681734161871198
pson 0.23627703004069114
André 0.10442144559954829
Bern@@ 0.065526200928825
IT 0.18653653868216216
July 0.012780894228633922
Kim 0.08571317307795041
Maur@@ 0.09015128070580483
NS 0.1852618438016865
Nic@@ 0.07039272889478866
Ran@@ 0.06776021130579354
ail 0.03435000762239779
aus 0.0038029624606881304
hal@@ 0.015380027674638365
ight@@ 0.07153297683765812
ister 0.05045115349236398
olas 0.10965218798728459
sec@@ 0.010336837675828773
strong 0.04605510652457063
tica 0.030870545234586162
én@@ 0.014080829332566694
Big 0.05016614628100932
Hil@@ 0.05232160215693622
Law@@ 0.12091458372382129
TH@@ 0.2422497184912131
War 0.014077403972659627
den@@ 0.012598077307355448
ee 0.027021761085910607
mel@@ 0.03195202839223275
ond@@ 0.023110446711493697
ough@@ 0.04957688791685439
ust 0.035822890797121934
ר 1
Cec@@ 0.18406813591460425
IX 0.12970838517843578
Jan 0.10148959193764745
Maurice 0.122874831485503
ania 0.03911816325737862
大@@ 0.010708480520968311
Anna 0.07102114276956879
Deb@@ 0.047827126956110175
ON@@ 0.15031145233414162
Oscar 0.13297273599064716
Spe@@ 0.037194461507225655
ache 0.03858622055992718
ati 0.04681274675831634
aya 0.03441205939759968
ga 0.031458809736845804
hin@@ 0.03236102835189752
lia 0.07180454521582715
lor@@ 0.09163805031785802
more 0.005961968876205658
مندر 1
Golden 0.08325121784610465
Rh@@ 0.0485281453502647
XX@@ 0.12992653208483457
ever 0.026668786141393633
ft 0.01840812209979387
rest@@ 0.021948935804714406
vers 0.011629215494521686
web 0.08898687463711785
ִ@@ 1
Gun@@ 0.10038296212056874
Int@@ 0.09376026743405465
Oc@@ 0.034868414470402606
Pap@@ 0.04337594082347789
abr@@ 0.038494911699046785
atr@@ 0.024429576962749326
emati@@ 0.035924660856433706
kl@@ 0.020459274410777113
leg@@ 0.013554013824509412
دوست 1
5.000 0.28604346065406144
AV@@ 0.20360748765012177
DE 0.1745601098518152
Hart@@ 0.12112387735361531
San 0.011485840987550379
ago 0.03933714126229766
ation@@ 0.11639022608623839
att 0.10353604160214183
def@@ 0.014704358360977563
he 0.001646835416959579
ken 0.009784185555862556
oz@@ 0.04917806278289842
і@@ 0.2931821806787582
مردم 1
山@@ 0.039611028682984585
Anne 0.07187243362611768
DR 0.19628565063294184
Nat@@ 0.08393998217893486
Pri@@ 0.025917344063792147
ace@@ 0.05901748398397705
anne 0.05729670171854497
into 0.005104094119120747
los@@ 0.026701164799066437
ְ@@ 1
Ari@@ 0.08847313848266
Law 0.05627408476819189
Pro 0.08236757331795025
Times 0.04721132990306755
Will 0.14221456597977047
go 0.018571239851107434
idea 0.048911031367791326
tal@@ 0.019921760751804123
uk 0.08699433171908337
wor@@ 0.011749203587576973
ς 0.08672038242365189
ゆ@@ 1
ら 1
Est@@ 0.021335650477952554
Sid@@ 0.11934753018864287
aph@@ 0.09506693709525446
athan 0.19591674995884464
can 0.007140602832243496
elli 0.058429898848686435
eme 0.026643304699787977
micro@@ 0.07080480039227786
ost@@ 0.040476125886916965
ל 1
مخالف 1
پ 0.798021943741647
お@@ 1
子 0.021728336568052578
An 0.021616208096132024
Ann@@ 0.05703821539782559
Chi@@ 0.035915811363443205
Cross 0.0797406769913251
Der@@ 0.041796458240800985
Fern@@ 0.07188763076188896
Hoff@@ 0.1433053089216974
Phone 0.3473833251486932
SE 0.20167515791118917
atum 0.13366981857972207
bel@@ 0.01114566275369521
hand@@ 0.017525018865421325
pan@@ 0.02197590389374326
ted 0.0036569822564700327
via 0.02628187141663895
Ali 0.07705385200255914
Eur@@ 0.06355701589725432
Good@@ 0.12064497892041456
Patr@@ 0.0548960289736478
Project 0.09444336633234614
V. 0.05435923286711124
Wrestling 0.12508734970573837
ants 0.007494024967734573
eter@@ 0.029734706712844193
ischer 0.013949313162959333
uh@@ 0.04165115432870043
ul 0.04859934225255545
yth@@ 0.042086534995289825
ée 0.002895791205917415
مطالع@@ 1
نی@@ 0.3386232413542969
つ@@ 1
Cab@@ 0.05883625022659968
Dem@@ 0.03249612823892674
Guy 0.14119829385585525
María 0.056858781205057246
Rafael 0.16559076160221584
Sun@@ 0.06839194743324267
acid 0.13394512026136726
alism 0.05124164472656707
cell@@ 0.032872559819153595
face 0.025101373700317866
inf@@ 0.020535201770737654
itz 0.027829260246044183
ix 0.03184079566612637
mp@@ 0.028713935888576476
oides 0.15849030363565753
tern 0.023733441871360374
uli@@ 0.05787121236721095
ze@@ 0.017941323195766298
い 1
Clin@@ 0.09197755952583649
Eth@@ 0.09437190425418925
HC 0.1781033987518405
Kon@@ 0.013667336361858948
Na 0.2590950189262874
Nik@@ 0.1000176398109752
States 0.009572007263349419
arch 0.05463106213711812
asp@@ 0.03856202890959024
ays 0.030445611193444713
ges@@ 0.016178111777597433
ius 0.0709302546729719
ket@@ 0.04647376040024076
not 0.0033679366104282433
not@@ 0.011380858616092681
نسبت 1
Ay@@ 0.05946375067468894
Meth@@ 0.11866130033696033
chi 0.03910018599119083
ew@@ 0.02811923043420863
folia 0.3205100287927196
omy@@ 0.3000947743400054
our@@ 0.020617492629806403
ste@@ 0.013386829602195296
み@@ 1
Dom@@ 0.03897144748470763
Linux 0.20318912547502982
Otto 0.08017716765986707
Rem@@ 0.060723636757028215
Shi@@ 0.055666553935874434
dec@@ 0.00955613224219029
eston 0.10768374465164247
hom@@ 0.019170213232104653
kar@@ 0.025786504641856643
men@@ 0.008882674658327755
rac@@ 0.0195691784800602
serv@@ 0.019532780927040513
ç@@ 0.016503342723427267
گان 1
と@@ 1
も@@ 1
Cham@@ 0.10121065909801989
Sou@@ 0.0498641837224946
kr@@ 0.024214424157135386
zo 0.043272227126465126
April 0.00834182819962735
August 0.00802433846811602
Beau@@ 0.06017755328352775
Ferr@@ 0.07531217694442023
Hop@@ 0.11235590903496724
Inc. 0.0957496406276834
Jack@@ 0.12081618122126726
bri@@ 0.020504205137864738
ear@@ 0.019390392844133165
flu@@ 0.03571591927075559
hor@@ 0.019700173881900672
inst@@ 0.019066632236172477
set 0.01315035325747765
π 0.25527830138322594
פ@@ 1
Bat@@ 0.03308830993057055
Bud@@ 0.050522453894991375
Claude 0.0998034677919969
Dow@@ 0.07947384590726699
For 0.016702294124387715
Organ@@ 0.04708333402530968
Palm@@ 0.11962291633797943
bur@@ 0.013258092503242268
ful 0.01967551919805874
ization 0.06452540500808919
sch 0.023925163056031443
Bab@@ 0.051591879214178196
Cel@@ 0.04643875398476627
Great 0.034921454081625544
Nak@@ 0.11977142609520597
Office 0.0597142183273781
Rock 0.04676017646754493
Tar@@ 0.04065415256682175
U.S. 0.018767515254440884
Women 0.034505469752736426
ame@@ 0.047178408271289635
ital 0.03695511523108491
mayor 0.029033002806234432
mot@@ 0.01637221724154989
ova 0.05894302799020704
red 0.007984336741037943
struc@@ 0.02443075865947671
tric 0.04008251901485317
tz 0.1048487960040053
win@@ 0.018067451891917347
Ál@@ 0.1642045956965561
فورنيا 1
だ 1
Cat@@ 0.035488482630764685
Dur@@ 0.050898678503225166
FF 0.15020123851693862
Ltd 0.13074094993392155
Mann 0.07865640632411254
Marc 0.11658545085265809
NBC 0.13432858153869556
To 0.035332440199691666
Up 0.10011904473235306
Virginia 0.03871078857741721
ban@@ 0.016320447994733058
eth@@ 0.02740434845627304
oni 0.0519627642689133
ont 0.007985550436019756
sil@@ 0.02194703757822518
you 0.03499117856616101
And@@ 0.11691654893794179
Comm@@ 0.04362003907349751
Enter@@ 0.1482873229130492
Li 0.11400315940327524
Nag@@ 0.06934391715254563
Paris 0.013384993577431326
Robin 0.15603987476379172
Santos 0.1690541248228727
West@@ 0.024833195744750722
atic 0.03394314300570321
bus 0.038162750370372395
duc@@ 0.0296902920228833
eus 0.10854896966998706
ke@@ 0.013224041754760009
ties 0.010029210866930935
try 0.021030332538880418
توبر 1
دولت 1
Air@@ 0.051669291628711936
Corporation 0.05864617095922236
Fil@@ 0.034906275455368965
Gra@@ 0.054395930663213965
Management 0.08536940376817996
bet@@ 0.053972998238398615
gs 0.03805733750912703
has 0.002526659688717835
mal@@ 0.014401421366000087
mis@@ 0.010426446247639554
ote 0.018245748320321862
pedi@@ 0.06749576851788659
tho@@ 0.022321691063185007
worth 0.050323133342805866
yes 0.08353503874337051
γ 0.5376589888467336
Ep@@ 0.08808342639052445
Green@@ 0.07781148595318718
Leo 0.14598888833921878
Tan@@ 0.05219034273521032
asi@@ 0.024363264112452442
bes 0.027028751857793742
iki 0.05020697344645638
mund 0.09035989760187635
ri 0.05742792511670786
stein 0.021280923865728257
sur@@ 0.007445301822622884
Gabriel 0.10907623077084397
Kh@@ 0.026972160318689972
Open 0.04076964528414668
Pier@@ 0.12339357319092484
Roc@@ 0.052664121328444995
aa 0.13465074483108092
agan 0.10630279398733522
ater 0.023374622651929543
hr@@ 0.02977656713721759
ights 0.0352459609282026
land@@ 0.01322143537418543
ort 0.02821620901639928
ַ@@ 1
Ander@@ 0.11513275134057646
God@@ 0.09442084707959038
Ju@@ 0.025927444996448286
Not@@ 0.02852325769576001
Pin@@ 0.051805090365086355
Pur@@ 0.06379873860027803
anz@@ 0.018695661373205944
cha 0.027984702545156986
form 0.009671743531861234
inal 0.022424757182579448
light 0.018417835875543652
mit@@ 0.01312074115222368
mo 0.028581621041389192
revision 0.5814134869717423
sho@@ 0.01469346411443023
urus 0.25954789469385564
כ@@ 1
ס@@ 1
قوت 1
中@@ 0.016668049603314635
DV@@ 0.23719277496375307
Ing@@ 0.06476375061920474
Kor@@ 0.02453593152817042
Liber@@ 0.030122027249998087
Ras@@ 0.1070177276112966
Union 0.01776319314364619
aqu@@ 0.02433175157232144
eder@@ 0.04345171186491264
gom@@ 0.16221224325363667
his 0.001241810382584443
ih@@ 0.02279082693786845
ikit@@ 1
nam@@ 0.016730022369626413
orum 0.12782305140361644
ھ 0.5790494105132309
Awards 0.030705306060101713
Domin@@ 0.05856976917728067
FL 0.08005968685818385
France 0.00892119360822831
Gor@@ 0.05385227261853923
Hip@@ 0.18783593731357848
Kin@@ 0.03404124301883191
Pic@@ 0.06337861425661198
Sem@@ 0.04102252486826354
Sto@@ 0.038913578251920766
art@@ 0.02016177093521184
artist 0.04413282960089756
cat@@ 0.017604413500943702
ety 0.01805028556474765
ological 0.02414582987361338
quez 0.1457187482097756
sons 0.031057995017875168
tig@@ 0.017192312839712558
نقصان 1
٩@@ 1
き@@ 1
こ 1
Bon@@ 0.035766788418614255
CF 0.15212825308865643
Duke 0.06907850102635886
Marie 0.03627401619888299
Mid@@ 0.040998758890048795
Nu@@ 0.052118472541428824
Publ@@ 0.06870065073148737
Syn@@ 0.04396262583292695
Ta@@ 0.049637160994584525
Theod@@ 0.10006780160123678
Web 0.19165284215146475
ais 0.01448631812983674
anna 0.07578948739299113
ban 0.03065146310090912
form@@ 0.00908673394203278
iko 0.07225439450965435
side 0.008849123190804315
צ@@ 1
French 0.015757738950529426
Grand 0.02103260055626971
Pil@@ 0.055062229762389565
Sat@@ 0.06134716915489408
Sin@@ 0.03679467825386619
Stor@@ 0.07764334702514804
Warner 0.1195370088856777
ats 0.00942572034310684
bie 0.06254704972338541
eau 0.013820270745580997
ein@@ 0.004218156639034463
firm@@ 0.07824013349504153
für 0.0024812984913813456
ign@@ 0.010541981377440264
ische 0.005626475924959575
ker@@ 0.02835575465142196
ough 0.018493288577335957
vari@@ 0.010898653667917932
zi@@ 0.01439041441007591
سخت 1
す@@ 1
Dam@@ 0.05888791362908119
Dy@@ 0.07978573372521655
GM 0.1538131254637762
Hugo 0.11943528689441724
Pen@@ 0.034370194586339185
Saint 0.009594432105363055
Street 0.019435470493571604
gre@@ 0.010131318528712324
left 0.013701812959363631
nh@@ 0.015334842796790217
now@@ 0.05494733291731057
ui@@ 0.11868934747907538
wal@@ 0.023769146611814142
اعظم 1
کان 1
Alberto 0.1348167921698082
Ali@@ 0.06086910453177281
Gom@@ 0.16918209040358592
La@@ 0.043167581188895715
Land@@ 0.01299243568960973
Mann@@ 0.05379760823569229
Yam@@ 0.11145349565377674
ability 0.022541716633504252
aff@@ 0.011817186624366538
enberg 0.05292601951540165
ier@@ 0.01156114391143666
inn 0.08608508750250156
plas@@ 0.06432852580755848
ren@@ 0.008488708819865368
vis 0.09768192202361586
اسلام 0.7401634708882047
ٰ@@ 1
€ 0.12744112473795577
本@@ 0.02958321075283171
Agu@@ 0.10918287783222531
Ale@@ 0.08877651893821996
Cour@@ 0.05009278414524853
Diego 0.06442348993474842
Fab@@ 0.09657603804969583
Global 0.1015895058816701
Irish 0.04622842642604814
USA 0.03298466957657145
alm@@ 0.028991806693175637
att@@ 0.009003643017671073
cript 0.06683587319162498
elly 0.14791543268432877
journ@@ 0.026769768136607138
other 0.004199499296193555
pur@@ 0.01679809799525398
quot 0.16819773783019693
rie 0.06097606724420911
til@@ 0.020973376275805262
tiv@@ 0.019043912537923136
ysis 0.05298077936745796
â@@ 0.016777959949350833
ת@@ 1
حی@@ 1
August@@ 0.11995227235296531
Bay@@ 0.0418973200517628
Bot@@ 0.024008580087046046
Bou@@ 0.05678682009504774
Hem@@ 0.10328745874521371
Island 0.02528958834613909
Kath@@ 0.06351257191809016
Ken@@ 0.08371006728713033
Mak@@ 0.0508008092353458
Produc@@ 0.06284518142495545
Syl@@ 0.11494720351282754
VI 0.06781251958004952
Wag@@ 0.08517307819630857
ational 0.023661591090121115
endr@@ 0.10446401563869051
ffer@@ 0.07128611823265016
mi 0.03190919684042937
ota 0.03173771427178608
oz 0.1134217450069464
phys@@ 0.029458064615323524
plex 0.11579604750592835
tory 0.043176471511446615
う@@ 1
Fro@@ 0.10308919997920557
Glo@@ 0.11385119522080873
Japan 0.024099074972844293
Kle@@ 0.048631298715227526
Mun@@ 0.0397688521124826
Sarah 0.09874478436735012
Son@@ 0.04295603404523659
Wol@@ 0.046198789015441805
bs 0.03199822669531092
els@@ 0.03212547044371674
eng 0.059683221040592704
ert 0.007996715041591579
icia 0.05858186718157592
mez 0.16074896034119987
ories 0.02032566082429028
pol@@ 0.01707637121593265
Δ@@ 0.07541349299830905
Academy 0.027951053604220923
CBS 0.11589126249585267
Cir@@ 0.045729434116843194
M.@@ 0.09754943142573046
Mart@@ 0.09629443406365665
Math@@ 0.05649103479770924
Mov@@ 0.057335526252069995
Pablo 0.11776410805758544
Plan@@ 0.03696090682617164
Sun 0.06172139745387187
UK 0.027290476698255225
acc@@ 0.008273696855921251
ais@@ 0.016762310064058705
ike 0.033316498035390704
language 0.023611428957011675
medi@@ 0.011958404463284037
ár@@ 0.03339953921329572
Brig@@ 0.04615659879096428
European 0.018571167075093563
Ga@@ 0.07347265575733622
Go 0.10178718344947008
Khan 0.0758816379224373
Lake 0.02826668717819885
Lord 0.040154183421758735
ami 0.047122605007326325
bal@@ 0.01918533283327449
cle 0.033044886706570825
cli@@ 0.022490150703143096
dem@@ 0.008672497076655178
enni@@ 0.06106525513923778
ente 0.005461795791651649
group 0.010692748363903177
iki@@ 0.40747439603585534
ista 0.013462178281030916
ks@@ 0.026928273902009872
ops 0.02163041192653496
plic@@ 0.037858186472281063
sky 0.03762739789285512
su 0.0023456976994380057
verse 0.025010551505145508
ín 0.02711028343760974
ó 0.0023456420924018325
بزر@@ 1
ری 0.24844329761583547
مطابق 0.5887025965244798
Ann 0.11398927604858894
Anti@@ 0.04221041247876735
Barbara 0.10862764454104036
First 0.024068463233271425
Force 0.033821023885433184
Human 0.0897889425438486
India 0.018494570584282163
Kat@@ 0.035441053701799015
Scottish 0.05766327163327573
Sky 0.13087882883742533
arab@@ 0.1179887702768534
article 0.04057055530041782
cho@@ 0.016725268903872374
ci 0.021759218449292052
ect@@ 0.022973476646606244
gol@@ 0.03091101164218748
inus 0.1101872701844275
now 0.010445111228676026
ny@@ 0.064535845043887
ones 0.01105273749803639
pes 0.05877338147925296
ple 0.04231965050202376
poly@@ 0.05937279719782599
pres@@ 0.008884684922161988
site 0.011912309756010257
uth 0.05024129111065622
vis@@ 0.007706452861862662
yo 0.05822392954735246
yst@@ 0.037742441254649976
Áng@@ 0.1099953261642718
ör@@ 0.014534684832956103
سز 1
お 1
は@@ 1
Buch@@ 0.04335160699947909
Commun@@ 0.03293720456168167
Der 0.004101008347622655
Fal@@ 0.04537662420915584
Ku@@ 0.04921074378573221
Rad@@ 0.04058834918196621
Series 0.040887534908095845
ams 0.027524874769754182
avo 0.14779152664927062
burn 0.09378542313650748
istr@@ 0.03269005314367182
mun@@ 0.03108141182792256
new@@ 0.044567029784117064
nez 0.16297424401693322
pel@@ 0.019645067919838256
ques 0.007306726407450394
rad 0.09024585811200334
tus 0.07835012830176707
β@@ 0.03131591678603751
σ@@ 0.034908400204140426
شتر 1
گو@@ 0.6646851479454478
ん@@ 1
Kal@@ 0.0299315632126266
Meg@@ 0.07913955186762882
Ob@@ 0.026669369146475903
Thi@@ 0.05575259712188914
abe 0.045102877628206264
ahn 0.07760786916825287
com 0.12253247400990033
hol@@ 0.012185917678273595
ial 0.04267142627934643
jud@@ 0.03283810872620951
minor 0.06008774654443784
obj@@ 0.019579595096707727
wen@@ 0.02140798449387429
دفت@@ 1
راست 1
■ 1
Comput@@ 0.10621146025954126
Gam@@ 0.09826079683384599
Kap@@ 0.0421689600415767
MTV 0.12425061357631678
Mey@@ 0.09706691096526883
ands 0.018140604813243984
bot 0.058394449754111254
chin@@ 0.03983150974050636
cont@@ 0.010049847431228888
entr@@ 0.01115054891345561
las 0.002089699298095918
mar 0.03833334942798433
nia 0.06487574636815698
oy 0.0769083708314382
ric 0.07859472117913917
yi 0.07397422600216724
گ 0.5338992778360258
″ 0.5203774650810526
East 0.017452495041292315
Game 0.05555638138818
Kam@@ 0.03595407276139882
Line 0.04189593294644222
Loc@@ 0.027953431316463447
Radio 0.031464553077991265
Roberto 0.1497106448038545
Tun@@ 0.04192872027453679
ault 0.03315793726604867
itch 0.049751631812330485
je@@ 0.015733240691454656
ography 0.017468700231502397
tre@@ 0.010624339937444941
Cos@@ 0.06549658677988514
Fernández 0.1476011970630343
GC 0.17465881347776963
Hans 0.04262236488536882
Sab@@ 0.0403649306081689
Sci@@ 0.08890903140675586
Tem@@ 0.040677061767786085
`@@ 0.456142709005689
bir@@ 0.016391307768055995
ely 0.007540796345819235
ges 0.017890123941429064
gro@@ 0.011830488976165185
icum 0.25336215436121845
main 0.010633782055209023
midt 0.13100019800038976
omon 0.1483505327166044
self 0.02582753322751267
vera 0.1399311428772407
ł@@ 0.028995989236237633
Κ@@ 0.03397121864337043
ک 0.155188665215154
井@@ 0.4874721419864446
Bol@@ 0.03073814677258465
Dol@@ 0.049372352246678
Jane 0.09042526179157642
Kan@@ 0.027329790079199005
Luci@@ 0.10088662385899633
Reichs@@ 0.07110217214938373
Rhy@@ 0.13428386074918383
Spr@@ 0.020518406235779846
What 0.08282986398357577
Wisconsin 0.07044763050377023
alb@@ 0.034963194989093345
book 0.01487547643527039
burg 0.013850700629243411
det@@ 0.013521704372765836
les@@ 0.021918120451856548
ock@@ 0.04635893098409485
ple@@ 0.024606748691975832
tern@@ 0.036293065897137135
ush@@ 0.02775853346135934
½ 0.2635054794903234
عور@@ 1
کو@@ 0.3485388153074253
よ@@ 1
Aus@@ 0.006154971025540629
Aut@@ 0.020247972887142165
Bish@@ 0.051112710176415554
Bruno 0.13749701520292099
Championship 0.021401335688363072
Costa 0.07411957102312526
General 0.013387771584968991
Of 0.052895077623515405
Public 0.04134485872872608
Sig@@ 0.05445230494471218
T.@@ 0.19354134331794196
aft 0.018429083180995388
agen 0.01847875282247022
ark@@ 0.02665654035927248
aul@@ 0.04791713240728795
chr@@ 0.056520786109356354
compos@@ 0.016030893023164378
ector 0.09993255351395074
gi 0.0903963809332597
olan 0.02921359206465949
oll@@ 0.014463381720976859
phyl@@ 0.1831453610375421
ving 0.01869006045116415
vo 0.03229639668931976
which 0.0016045297142516987
wing 0.014542125102750759
yan@@ 0.04761988727527363
ye@@ 0.02392011618282286
§ 0.1662911041488572
الی@@ 0.9521785602454166
متعارف 1
مقصد 1
Ant@@ 0.056285749639532354
Cin@@ 0.05489346293333812
Cruz 0.07758411247513373
Good 0.09262528881827196
Michel 0.06000327171139412
Nicol@@ 0.10488795474322588
Ox@@ 0.10686860917663486
PM 0.1759858552720616
aba 0.009726756661184352
af 0.04818454862339856
ender 0.022959715001055408
ket 0.031150844052285874
ū@@ 0.06825704123216304
باؤ@@ 1
تخت 1
Bod@@ 0.055496903560699036
E.@@ 0.10364277771615879
Ear@@ 0.10110538223652023
Gir@@ 0.055958426683783404
Gol@@ 0.03959862544506689
Rev@@ 0.04605629935482737
Seg@@ 0.04336447509974401
Team 0.02597249508103449
Vie@@ 0.07260154673570517
Wilhelm 0.041890680234908675
chem@@ 0.03210036593410213
fan 0.06310604758067886
igg@@ 0.0620377770300687
iner 0.0596096987369503
je 0.02609600242206591
pat@@ 0.01894170590177348
phon@@ 0.060063695382136434
ser 0.010409852525549835
sim@@ 0.020574968590740993
tam@@ 0.03324421330294697
ui 0.06042843096939474
ג@@ 1
آزاد 1
خدا 1
سز@@ 1
فرم@@ 1
African 0.02774004586422328
Bec@@ 0.03709803485253326
Book 0.061828355276327226
Clau@@ 0.10514763119899595
Dan@@ 0.026494639172578136
Dic@@ 0.10202064949881345
Film 0.01609715124670928
Hamp@@ 0.06801753091753222
Kas@@ 0.04347531087281061
ares 0.020640461004713142
bil@@ 0.01047946220960478
director 0.01774614024914831
doc@@ 0.023776310497190874
igo 0.050801001307651944
ior 0.029896464400680497
lam 0.056671865343817684
low@@ 0.016075649927223427
nd@@ 0.06147671556122976
ont@@ 0.03086268942394047
peri@@ 0.02950819568503278
ures 0.013362407659668157
world 0.012802690907704811
دی 0.2061545684378704
Bos@@ 0.03458161070349702
Cup 0.01316008154708399
Direc@@ 0.04550562106586929
Field 0.060845646171503724
German 0.014302760242536452
Hand@@ 0.020904927068705947
Imp@@ 0.08298792558978835
Ori@@ 0.03701638046018749
Play@@ 0.031068837458326864
Republic 0.030651230285042522
Wales 0.037257604480980824
ask@@ 0.039344778611978264
dra@@ 0.01731529327757521
ects 0.010488235167197274
ique 0.013492011886204493
mil@@ 0.02354436326845478
po 0.032687167051347506
title 0.01618167078149032
wn 0.013350478900208466
اباد 1
ساز@@ 1
ⴰ@@ 1
Camp@@ 0.027103331702892672
Gó@@ 0.14623104431622586
June 0.00861682108102542
Kur@@ 0.018504534069015106
Saf@@ 0.07748915211441434
Tit@@ 0.03541908857419528
We 0.04398590921528144
Your 0.08784131645748494
apo@@ 0.026406487758634075
aster 0.057759250090222904
nis 0.021854023653518594
nor@@ 0.01093664903766654
omo 0.07280888020205806
ots 0.018599333610476394
phot@@ 0.021654902010711994
radi@@ 0.0315457839891356
ury 0.021003575426513415
á 0.012039982343846446
ī@@ 0.09310624214750068
γ@@ 0.03777419576034404
Apple 0.09678052906310823
Cent@@ 0.05717486570188531
Down 0.0893800775321848
H.@@ 0.1375238066805641
Hom@@ 0.03539568810609174
League 0.008308552340846485
Men 0.04596565594260066
Out@@ 0.05656564331418026
Techn@@ 0.04304595083721557
Ven@@ 0.03140815617780022
` 1
agn@@ 0.029603438130149904
anan 0.13746051454978872
ava 0.041933783461034116
cell 0.060401046072263834
eer 0.03513447178475407
icul@@ 0.040251655360627844
line@@ 0.055771524010825003
mak@@ 0.018869069692433068
news 0.04979397622730483
ori 0.04853677628013579
osh@@ 0.07966924348490793
sig@@ 0.010749857943922792
sive 0.01283517789168422
sor@@ 0.019305764706772685
super@@ 0.01731306547077247
tra@@ 0.013920871624873151
μ@@ 0.03249672813554034
الی 0.6985376517323335
Be 0.11010740713134469
Brit@@ 0.05558616521606028
Eduardo 0.15067546882140265
Family 0.050368953766761794
Fut@@ 0.06503833456734258
GmbH 0.0855764172595138
Herr@@ 0.04408009274711223
UTC 0.17752180862988395
coach 0.0251974601437557
function 0.05139812294906264
gal@@ 0.020786675763978496
ho 0.07913434596397294
less 0.014621621620635695
ua 0.024368809415859442
were 0.0013465218542003255
شاخ 1
と 1
む@@ 1
Acc@@ 0.07725050887600335
Home 0.051687305441148294
Ireland 0.02970463149857824
Sebasti@@ 0.07837012875264919
Sen@@ 0.012368567195772635
Under@@ 0.08499165890245661
first 0.002025423246677132
ow 0.027527406723694005
shire 0.024704393057624913
stati@@ 0.06149014901496216
uld 0.10786750446873651
ume 0.026216259913218284
ˈ@@ 0.7270719219777384
村@@ 0.138955273591497
Alej@@ 0.13023800310894768
Cad@@ 0.08152888401075302
Che@@ 0.08418641959893548
Digital 0.10317277526967841
Sph@@ 0.19162553885663458
Ster@@ 0.07505536885339031
Texas 0.02399886515431236
Tran@@ 0.05261214350431223
aud 0.04458824640256469
cine 0.035983611981508734
iger 0.016055461899434822
igh 0.06958427398843908
ingham 0.04395034213436039
trol 0.0932709468673901
wa 0.016224220804789743
yo@@ 0.029890741331972892
う 1
Canada 0.014940654472074552
Ci@@ 0.036886941346088845
Di 0.16390375050133257
François 0.041277732513926
Gonz@@ 0.13538019316175318
Israel 0.036329547296424965
Mot@@ 0.026435691911858777
Psych@@ 0.08471228316257563
Var@@ 0.047545585626503066
Way 0.09775842079141156
agr@@ 0.02846744627123693
ante 0.00566746225987157
con 0.001680658718293024
egr@@ 0.0341072720253654
ences 0.010310282094326292
esti@@ 0.013227839335477817
oper@@ 0.010204554341721886
phy@@ 0.08281723572848497
pos 0.028218159751724006
sus 0.005796540338126816
wh@@ 0.011946814391969767
wo@@ 0.016988567271586496
け@@ 1
ろ@@ 1
Berg@@ 0.03611007768659018
Chem@@ 0.04591428779905421
England 0.013810768944395119
Eri@@ 0.08286471953982749
Iv@@ 0.09931797571660422
River 0.012227712487350016
Som@@ 0.03431818780884939
ado@@ 0.051706367309210285
ag 0.04658549087885058
asc@@ 0.034217482653140334
lav@@ 0.05355468843870994
nom@@ 0.022337149822785087
ny 0.04391696815161107
qui@@ 0.01589900997546959
service 0.010294570612474335
thr@@ 0.035356632796549624
ulus 0.15148510573872326
urity 0.03033136688523452
water 0.012220233865574512
® 1
è@@ 0.010314610293160316
٠ 1
《 0.00882048430220879
Astr@@ 0.054144754116237516
Aur@@ 0.06864545642522653
Bil@@ 0.01543643471462076
Brun@@ 0.049733596811115825
California 0.015558275495503052
Central 0.01823576798870099
Christi@@ 0.051070332600178556
Head 0.074270586758104
Hud@@ 0.08392303132262133
Kim@@ 0.12126505709022872
Reb@@ 0.05325449370995896
Sum@@ 0.03983308391509275
Vit@@ 0.06839537710780517
alt@@ 0.015624583870698518
aun 0.07532132671505483
bol@@ 0.035797768402845466
dat@@ 0.04027336514564954
ebr@@ 0.027628035475949473
ji@@ 0.05555584249484178
ju@@ 0.013584783676138591
mem@@ 0.015145046028426002
pun@@ 0.030533901404509955
sul@@ 0.056274235750600345
ías 0.02303009155637161
ט@@ 1
اقد@@ 1
یا 0.10246830557802858
Ach@@ 0.0572217894989358
Af@@ 0.03985501416888515
Ah@@ 0.05029858494530303
Bus@@ 0.041264052559785644
I. 0.026574241973655734
Kaz@@ 0.0859738648285949
SPD 0.10937044458774356
Schne@@ 0.08221840534135212
agon 0.04991840055129584
band 0.009751726780550361
ca@@ 0.05106108512438719
dition 0.02299431887808966
down 0.011360274989372907
eda 0.0613407749023735
odi@@ 0.02950123032725799
sm@@ 0.02594511717347019
vin@@ 0.030450508451114147
Σ@@ 0.02418562718978639
مقامات 1
نل 1
Battle 0.03368238305692568
Egyp@@ 0.048010852460916555
Gener@@ 0.03905076022234558
L.@@ 0.11246355899796813
Marco 0.12146205074996022
Medical 0.06300189315871754
Out 0.07125976164673925
Radi@@ 0.05624686215983717
Tas@@ 0.057967105644292166
VP 0.09683222420313414
Video 0.07611901666066215
mod@@ 0.019255939389654527
ner@@ 0.015506634547833624
put 0.020631128177411553
ross 0.14785433362390984
state 0.007530780098039046
theory 0.04295161305348963
uri 0.05675623484450802
var 0.07309535476520153
ð@@ 0.13900977195088718
δ@@ 0.03245143180906146
اوقات 1
み 1
川@@ 0.16342862149008786
And 0.06181714198758917
Card@@ 0.06384861625527545
Castil@@ 0.12132155258074245
Elizabeth 0.04409251211785475
Friedrich 0.02924333199066829
Fun@@ 0.08384232076860451
Jesús 0.13166772010466227
Lanc@@ 0.0697922867079756
Lib@@ 0.04074955471519536
Mand@@ 0.046206441193916814
Martín 0.11153383373519322
Sor@@ 0.04283466053360127
Spir@@ 0.07175353586563853
Vel@@ 0.051488264704892026
Wolf 0.10345339617658608
ann 0.03919486148231431
ements 0.007562614679573459
ev 0.04452423521817459
ham@@ 0.038549109944643514
ists 0.009690854766832594
orn@@ 0.06484852646803595
ous@@ 0.037019318964474156
patr@@ 0.019440878046972573
rid 0.08869606698481683
ump@@ 0.025634365815123822
wi@@ 0.02990264809232923
zi 0.0486616350769463
ٰ 1
藤@@ 0.39893112243920664
Ernst 0.06280789644359053
Rud@@ 0.08566199224903627
Shir@@ 0.11034000220099414
Technology 0.05605418592566279
Ze@@ 0.018337162426831404
aliz@@ 0.017730683480968505
coron@@ 0.0982801776777532
have 0.0025481350335381622
min 0.060260684033834805
oli@@ 0.05417373661912227
onal 0.01993516524433907
proc@@ 0.021872230044702755
ret 0.02994268190544951
sula 0.05387360983803516
æ@@ 0.09212422080630962
ە 1
Bank 0.030825358916304276
Billboard 0.04067138032633301
Gas@@ 0.04738741224133381
Girl 0.08797008677512097
HMS 0.10006410026084316
Heart 0.08982248152674391
Jacques 0.040932711869488214
Kum@@ 0.08624449499029654
Nev@@ 0.06055489694440715
Northern 0.032906944667578215
Off@@ 0.022834561341169273
Pennsylvania 0.03902105253515569
Pul@@ 0.06878983489578626
Road 0.019245742375309065
Schwar@@ 0.047342370530727214
Three 0.04603859019305125
Tol@@ 0.0442567073748924
Tu@@ 0.03797865340803916
Who 0.09063087745100254
alia 0.05439463448637992
code 0.042230950547947836
esh 0.03478442539330247
formation 0.016228213334164052
ision 0.03217512811327149
other@@ 0.045133474880009586
pil@@ 0.01743629469245545
pon@@ 0.018270400051762246
rest 0.03080956273548578
sum@@ 0.020286562685253477
unk@@ 0.020008879085467734
uv@@ 0.025422360220143107
van@@ 0.052267804529790775
ē@@ 0.2606271208327809
انی@@ 1
Ahmed 0.13941579370282464
Bundes@@ 0.021319128422568577
Dal@@ 0.05358047543551492
Denis 0.10951385951953149
Econom@@ 0.038311674552049306
Flor@@ 0.04152744706468218
Has@@ 0.047559351383985926
Internet 0.04899509314222711
N. 0.09453282572794945
Studi@@ 0.027927311981153113
Ye@@ 0.0629723386228498
ancy 0.042600041616990804
body 0.018700325392155933
cyc@@ 0.07929885004919045
dres@@ 0.025809613013609605
edo 0.03743623675929182
etta 0.060201306828373054
idi@@ 0.017456206689453524
olia 0.11278837663090434
rap@@ 0.015883977507309195
rot@@ 0.026979694797776385
ules 0.02237701026111898
usa 0.04796486017957331
vier 0.017187889351406586
ward 0.015063406887940353
zy@@ 0.03783583015260422
Fried@@ 0.03627517475737186
Georgia 0.04005228344436548
Gold 0.04594165030668178
Hi@@ 0.039508249607425015
Julius 0.11099775103730147
Mik@@ 0.04565145433159022
Nam@@ 0.03680426016248876
Ober@@ 0.011959095221453052
October 0.0075392244186805145
Sn@@ 0.11107213551076084
Tw@@ 0.05534228661486507
anger 0.030096638274832412
cal 0.03300910982771195
enne 0.01173571452355546
equ@@ 0.01787620371681892
let 0.025943257910281566
mul@@ 0.024510502105309084
pin@@ 0.02522383104509759
print 0.045373180708865785
rés 0.05538142804698523
sin 0.015362878210276218
tional 0.017999510417642455
vi 0.07121919810851905
és@@ 0.05040968748699766
معاو@@ 1
》 0.00811438206256345
Berlin 0.013602503241600224
Bret@@ 0.14321842399222542
Development 0.04102844139760344
Fe 0.1300268049786388
Ki@@ 0.028949440662522925
Last 0.09082247169229517
Margaret 0.07395829953634955
Nig@@ 0.1017705195505
Paulo 0.09341875489466762
Pop@@ 0.059187733444654535
Swe@@ 0.03610954082344875
Two 0.026494056386093326
ager 0.021675193188048055
ahl 0.06311130371252423
alg@@ 0.018103283660498876
asis 0.08126742452130327
conn@@ 0.01065345611873052
eld 0.020863086019839713
enth@@ 0.03128985073746064
manuel 0.09246247364861282
ode 0.02771329100671954
ony@@ 0.03949381806610334
soci@@ 0.01128162498596069
two 0.0024368536241134555
wick 0.07297777099321918
ā 0.12106942775282814
Aqu@@ 0.06412942705723865
Coll@@ 0.05240229726302379
D.@@ 0.11682999981485653
J.@@ 0.07140030300166679
Mac 0.11010496270296419
Point 0.05185124390840681
Poli@@ 0.04830428197053165
Progr@@ 0.037147874954495515
Queen 0.03295149316504853
R.@@ 0.10389408236595296
Soci@@ 0.04520416746626847
ader 0.03800778282687111
ading 0.02805410464620503
aine 0.013942578408574853
amin@@ 0.03669265645763863
aux 0.0027362748901398944
core 0.044734808568499894
hua 0.11837814196204845
illi@@ 0.05689009663272849
imb@@ 0.04263248252392976
ineering 0.0352667329504595
ingo 0.06531342117880566
ites 0.015493949673321438
ived 0.037578206866303976
mes@@ 0.026250921721838735
mus 0.09638220342180295
ogen@@ 0.061170885294510736
oi 0.04942958369111498
onal@@ 0.029007198057675185
opus 0.16395224033205427
sem@@ 0.01233170669465063
uer@@ 0.019203383506875452
Á@@ 0.041623599136516164
ía 0.0037183498894379587
پي@@ 1
Android 0.16594232539642217
Jim@@ 0.19982843554685376
Lou@@ 0.030260826426430357
Ok@@ 0.052904068698793924
Ot@@ 0.026619941483946086
Social 0.04460820990402702
Summer 0.028892253643785473
any 0.008597004534743519
any@@ 0.02289461560665534
atom@@ 0.05081308825177565
aves 0.015324064416984865
aw 0.04439576535006428
dir@@ 0.02954005844097933
eral 0.029830142796778272
flora 0.16093984830922411
ink 0.03380254800541166
itor 0.04231157445620194
ment@@ 0.022532498518651144
oid 0.03634102073303584
ony 0.019957597564786624
scope 0.10749464079436154
team 0.00476212510607094
trol@@ 0.035668540394609795
ute 0.01722794046100513
val 0.06989342264068772
éc@@ 0.020406937206410736
κ@@ 0.026466588826466148
مشرق 1
کر@@ 0.1968879778259625
か 1
り@@ 1
わ@@ 1
Aer@@ 0.05886473381281139
Bac@@ 0.08873033338757189
Games 0.026928947189494973
Gau@@ 0.05730855967467304
Kom@@ 0.013260425182000272
Lat@@ 0.025517052042709525
Pav@@ 0.06391736825099453
Sup@@ 0.05291843062692282
Yu@@ 0.07839074581752091
aer@@ 0.04329337262867182
ather 0.028423104410012542
dre 0.04936477537057006
eff@@ 0.008590533914643497
estr@@ 0.010924688743430664
fication 0.016063398557643608
get 0.013492299660405209
govern@@ 0.02268623278180869
mir@@ 0.021804876767316586
onom@@ 0.029847398964785426
original 0.010094518687408346
play 0.008428157983533318
pper 0.049806771599991924
ses 0.0033178189535193908
sia 0.12973073470099775
squ@@ 0.02571141538990831
vent@@ 0.014074035705697612
vil 0.04138656477134541
wan@@ 0.0229976056720829
work 0.005360682319889665
xi@@ 0.05368569769551007
ying 0.008599177404494614
λ 0.06831154961278624
ν 0.045255251939813106
π@@ 0.02816699187904751
جاتا 0.1681054459747505
Boy 0.07626617262953712
Death 0.05026593340262515
Enrique 0.10384788529247141
GT 0.12447094024632156
Id@@ 0.05196927953994525
Nar@@ 0.04171817598373857
Princ@@ 0.04952421374706585
Sz@@ 0.042671668308181775
Vis@@ 0.03859380698662262
bo 0.03735393889540882
cel 0.06699689348942653
eine 0.0016868178598945726
emia 0.0875269021567746
emp@@ 0.010868234562862691
essor 0.0412117609740539
fal@@ 0.01701071554261081
hard 0.0272757285013685
hem@@ 0.05713892570620676
iles 0.027950866683995483
kes 0.05879322643795573
kom@@ 0.012943555164648226
olo@@ 0.05633961950664893
opo@@ 0.06067547759824979
ril 0.1554945179058902
span 0.09723572298433887
umb@@ 0.025412783331253467
å@@ 0.06332549711073926
í 0.015552537662576832
î@@ 0.025774123651376202
č@@ 0.02989877993224982
تی@@ 0.3279565108432549
سردار 1
٫ 1
Bush 0.09152457183175389
Can 0.1034965401511847
Daily 0.08490094559816071
Name 0.0270663880356013
Nob@@ 0.11102158358070283
Records 0.01868025190122882
aca 0.03874552668897664
ate@@ 0.07772234868133213
bar 0.013528624787349607
bin@@ 0.02309694701942807
by@@ 0.04274679141933255
chn@@ 0.11853892066485693
cs 0.031474296052802435
date 0.01865816838885537
emb@@ 0.012642229941847485
enia 0.17970344551284378
etz 0.042707906776342695
history 0.011524907124890479
list@@ 0.0212328962444769
oria 0.03182688161673575
phil@@ 0.06527673082212913
port@@ 0.01099405860588208
rop@@ 0.07829908811437701
spec@@ 0.01480429225611041
ton@@ 0.026168022734674407
uter 0.03127290697708174
ός 0.03640858837869786
ֹ@@ 1
野@@ 0.13950506087369305
Africa 0.022902466048308947
Angel 0.11099525869589126
Cros@@ 0.07406961606133651
Deutsche 0.05091893575438496
Fri@@ 0.029076208320132173
Hur@@ 0.043390218389098976
Hydro@@ 0.1283002461051553
Kel@@ 0.056148459849108004
Light 0.0642654388316942
Mam@@ 0.08951293328717204
Software 0.10482920720992717
Tour@@ 0.022720836639164375
Van@@ 0.06895904715117673
Winter 0.04830280062838292
andi 0.12817674624492184
anum 0.1416453230402443
astr@@ 0.02241688915535852
bi 0.036045514201030554
box 0.035115078077944784
contr@@ 0.0069048390600790046
een 0.05068467331392557
elen 0.03177984222199793
fu@@ 0.011679137159610583
house 0.010595821766640205
ij@@ 0.03228049680225306
illy 0.042390082142988575
itt 0.059822157488400696
kat@@ 0.03128542275089548
ship 0.00887245224987083
ths 0.03908624924736348
ulation 0.032343905306520156
vers@@ 0.009216240951567896
én 0.036905240275900586
ま 1
Back 0.09022578439188715
Carol@@ 0.0671220767647705
Cop@@ 0.038641863229184226
FIFA 0.0681308897830553
Jon@@ 0.09255070292922588
Jr 0.052222187912104236
Kend@@ 0.2384107079500476
Oper@@ 0.03602794908511352
People 0.03374777202938314
Real 0.03407848600914864
Western 0.01921405738117496
adi 0.057591108849224366
amed 0.02353944938759641
baller 0.5360968183431282
based 0.00719628119174442
bit@@ 0.026581432584605276
cos 0.02273127600433994
ilia 0.08583975545040569
ird 0.05943530305413771
ith@@ 0.08022789118079418
lier 0.03634143747734657
med@@ 0.013375766852197992
mont 0.025539693441374786
nu@@ 0.016344315162226033
pa@@ 0.022366585161181018
sing 0.017483246870161114
under 0.004041415215109393
yd@@ 0.05627612762885471
じ@@ 1
1,5 0.07660068047732864
Comp@@ 0.039932426984104256
Def@@ 0.03146998526860514
Earth 0.04154812792725026
Hus@@ 0.055156973178407835
Ka@@ 0.05285039939341085
Mass@@ 0.046817012029256866
Mis@@ 0.03765778127652895
Ontario 0.04218340785775509
Pand@@ 0.10689468849682048
Pictures 0.09332866713366801
aire 0.004891416855974764
bac@@ 0.03358053276625784
ben@@ 0.014037156044757667
cos@@ 0.038121489121283214
da@@ 0.05664501976327857
dan 0.024046642044676186
fic@@ 0.013030223692336551
illon 0.059989823812153655
ix@@ 0.08319218593734135
ld@@ 0.04143759543411545
list 0.017932438088838203
mit 0.0010660386523696052
och 0.046561408399251845
rh@@ 0.04895174598275101
tro 0.026000632064645684
trong 0.004212359486835647
ux 0.014978601873918591
vie 0.020602564362162724
és 0.002593494163692103
ü@@ 0.005996805078445418
Π@@ 0.029592151553780217
ای 1
پر@@ 0.2634883436189909
ン@@ 1
小@@ 0.018075288906000207
木@@ 0.0853715170683183
Alex@@ 0.07858851620037696
Avi@@ 0.05385148022829197
Berg 0.0786324387052839
Bour@@ 0.04817376864558473
Contin@@ 0.0642421661352273
Da 0.02999361932117974
Mod@@ 0.027434442805246022
ammad 0.18471396632717285
ayo 0.05100784589014114
cot@@ 0.03982121322528143
dex 0.08270599684780133
general 0.009330911099669464
iller@@ 0.0556393631638213
include 0.009517978805180221
national 0.008132514414693839
page 0.03888109518476511
source 0.02617814527904084
tre 0.00965796509560322
ud 0.02950588004212899
ungs@@ 0.004297783579775704
är@@ 0.01187580391387018
ô@@ 0.018874203105444447
پرو@@ 0.7337487076304401
ず@@ 1
Bak@@ 0.04377051239351707
Cass@@ 0.0579717588069071
Conserv@@ 0.040362480297822245
Dro@@ 0.055777330488646484
Fili@@ 0.049632054169972184
Fire 0.06728444820580347
Fle@@ 0.036615579813337094
Gh@@ 0.045972448195222934
Gran@@ 0.034199522200358545
I.@@ 0.11035531479864877
Magazine 0.058850827257923274
Obj@@ 0.05449899584282438
Song 0.03693266802544741
Sports 0.038287522634794444
Yas@@ 0.15734164781793797
about 0.004258402506974357
aja 0.031926512627988395
dit 0.01774862242302481
fur@@ 0.03652393470822366
lab@@ 0.02054401161021991
mark 0.02348634149096633
má@@ 0.0230001121061606
ons@@ 0.016931645006951646
pedia 0.10808437142623221
rea 0.03248466098810816
ree 0.03861698625286043
tem@@ 0.01814577540988405
than 0.004469908987522772
virus 0.07654425083598337
Ö@@ 0.03400902965684385
ո@@ 1
‚ 0.11489221037601262
た 1
Bay 0.022153812363289012
Das 0.004037665733022243
Doc@@ 0.05092484476131341
Ind@@ 0.03771028791994327
Kurt 0.09380793599767713
Lem@@ 0.07074369433210786
Now 0.07497786397830535
Party 0.01294374645676341
Peter@@ 0.03902088769594548
Py@@ 0.06085458205131469
Story 0.08686586603790929
Suz@@ 0.0853584807130125
Year 0.030395954108416213
bal 0.043022801043163965
hard@@ 0.037041228171791986
ido 0.005231034861524293
long@@ 0.020592906759938346
pri@@ 0.016529354239761967
pul@@ 0.013148007255655842
top@@ 0.033509637154436445
tural 0.017954945920397883
ular@@ 0.04250825569393981
uy@@ 0.019445861811380964
vid@@ 0.025218860897625154
yon 0.0829496111661762
ís 0.08909434333478126
İ@@ 0.04208662603153697
Μ@@ 0.027756993301322357
ܐ 1
市 0.015900869310481926
Australia 0.012226482424309989
Free 0.056196182156945364
Grim@@ 0.09145277913813062
Il 0.0024493083237910563
Kno@@ 0.06540997649996129
Old 0.028958418542899593
Post 0.0345037546749913
Ret@@ 0.05127231012922814
Roman 0.01902138440810837
Sau@@ 0.029961346642701576
Standard 0.07469540907798908
Sydney 0.03515937388893533
anced 0.02670992450016404
bury 0.026641094582566482
dae 0.13860867504257476
ected 0.00675059645135946
enzo 0.08056040803795232
etr@@ 0.046469908098643604
fe 0.014641771490140884
führer 0.06532391337491927
get@@ 0.019461829703979347
lob@@ 0.028900105766965438
mos@@ 0.03753138419626218
oba 0.09260319093447862
san@@ 0.01876396024580077
table 0.027893784712951418
their 0.00176333033615533
tin@@ 0.029961872263763414
tol@@ 0.024130310669854913
urs 0.010456356662625399
version 0.009696220539736783
él@@ 0.010273386522904932
ν@@ 0.02733335014427175
بالآخر 1
Act 0.0197122632849418
Ath@@ 0.03445175680744346
Castro 0.11185371779527215
Dani@@ 0.09242931341027662
Diam@@ 0.0787523891984198
If 0.02813334247599035
Mob@@ 0.05905808605851672
Mom@@ 0.0892731093555125
Moon 0.08002078072180274
Sac@@ 0.05114596197692434
Scot@@ 0.06152129955396341
Space 0.05585683222347227
Universal 0.07580613134067023
atis@@ 0.025617425468735258
ends 0.011942381703050604
ering 0.016538011000035352
jas 0.039232363487331834
lip 0.06708766622085381
lon 0.04494565001131209
los 0.0008970487891054145
mic@@ 0.07477481943286408
number 0.0057510970338170795
que@@ 0.029326906091855908
test 0.026258481417837494
tric@@ 0.03531527301197945
umi 0.09437645701077967
vention 0.01929123069454123
works 0.011060182103878758
ère 0.0059214747168226094
▪ 1
Alice 0.06684723299886033
App@@ 0.05804721367990892
Arts 0.01974314375359331
Beh@@ 0.033898977020816595
China 0.012485547903660061
Fel@@ 0.024824301200235918
Jum@@ 0.15431938125375172
Kit@@ 0.046623175020984085
Lac@@ 0.06838451284935833
Los 0.005452340474485503
Natur@@ 0.02071157540734305
Num@@ 0.03865114946420624
Panz@@ 0.07992640228087405
Sant@@ 0.050096397269363324
Sonn@@ 0.060863576605249645
Wa@@ 0.05150441100927649
Zo@@ 0.07829782908996161
alo 0.044705449207059336
alus 0.14134216088306586
clus@@ 0.04464909195618945
einer 0.0028565011181081275
lav 0.052782141086442386
lus@@ 0.022252088877508677
ograp@@ 0.03721037119063439
oman 0.06922514287074455
sit@@ 0.015077989076161705
tors 0.011034225798606538
ution 0.019903428733849298
δ 0.46957494092643726
سپ@@ 0.7919329998021979
2.000 0.2489959117349188
Aff@@ 0.02962539529704355
Carolina 0.027341452273384418
County 0.00603395129859879
Eg@@ 0.06451379479868835
Fon@@ 0.050170829384280094
Frank@@ 0.06720760924342599
Kl@@ 0.016375778392805882
Nur@@ 0.0840714122136618
Over@@ 0.04219721248726232
Prim@@ 0.030120046181686174
Tex@@ 0.03084947301648226
Tot@@ 0.0427230098387324
aris 0.11844861462411582
atri@@ 0.047448405987536975
aven 0.05905274137131278
bon 0.02288889540325978
dren 0.06569049653656844
ead 0.0405070935217728
esi 0.02146027522000746
etes 0.04150456020911206
eur 0.006785016952684957
isha 0.08921819433171707
lands 0.011727378011200695
osp@@ 0.028028202181732555
oud 0.04198028573698286
uni@@ 0.012088741841684975
جی@@ 0.26979054567718147
چ 0.3647113037012287
Ἀ@@ 1
Bran@@ 0.03608624883186036
Design 0.049183583307969646
Div@@ 0.0416777371839955
Estr@@ 0.09938128598000923
Europe 0.010809241494194408
F.@@ 0.11658917672854321
Fair@@ 0.055328636094995755
Hay 0.09653177909599862
Inv@@ 0.03531704815429864
Kid@@ 0.1509520054336434
Kil@@ 0.03698394374107796
Kol@@ 0.019897184912403738
Lim@@ 0.030743842924501143
Maz@@ 0.047874832605908024
Neur@@ 0.09748945866686612
Pel@@ 0.04608465633495107
Rou@@ 0.03280285341266328
That 0.028501616868943834
Vas@@ 0.0503779946050263
Way@@ 0.25988230177333715
Wood@@ 0.04032163894090418
ento 0.013833622399604213
flo@@ 0.012258654749012603
ichi 0.09506476862790667
ift 0.06106069446274952
imi@@ 0.053045012555006134
mal 0.014097071401180437
mol@@ 0.01902000155739472
ord 0.028087669822297705
oun 0.08444293485635536
tan 0.01932499440733058
θ 0.23401634973354654
ր@@ 1
こ@@ 1
わ 1
1980s 0.03428619364750097
Asian 0.03428207919258521
Final 0.03633022528542705
Middle 0.03849417068552007
N.@@ 0.11438324479513133
Pu@@ 0.026329520613060292
Sir 0.023245689360682612
Tab@@ 0.03575757912090948
Tag 0.04447509447639353
Television 0.051035421332893065
Up@@ 0.08223180833086602
Well@@ 0.06285950359343605
Zh@@ 0.07805818736233902
aden@@ 0.09409072367483007
ades 0.011386610824654626
ads 0.019037694161000204
ait 0.004576170020359992
avi@@ 0.02005388869554225
bon@@ 0.029117529237049453
cent@@ 0.015535320743713337
dé@@ 0.002132574966465679
fied 0.008972887828191554
gri@@ 0.035474353911649686
hum@@ 0.010847557539403344
law@@ 0.01588353966502779
lers 0.016080717238750705
live 0.015273420502272853
nus 0.0825722055059081
order 0.010248632511670044
plan@@ 0.010835332075050533
protein 0.05632061039794635
rati@@ 0.019642446821473845
sis 0.0753883932760462
uta 0.034059615210360314
vor@@ 0.004658894222474546
vul@@ 0.051311074351747886
weight 0.027848825812922636
ác@@ 0.04324590023879419
اپ@@ 0.49151620325478246
ܝ@@ 1
↑ 1
Associ@@ 0.05929084718806049
By@@ 0.04546122369099691
Cri@@ 0.03436433188189949
Form@@ 0.026389713388484094
Hat@@ 0.062604357082245
Houston 0.05258912860448663
Not 0.061980826320721744
SV 0.05552121035805187
Us@@ 0.10611816968648591
Vill@@ 0.02354048436236372
Will@@ 0.06684887309147243
With 0.014445105259942822
aly@@ 0.03157890073803274
ames 0.03901798383926406
ases 0.03523530558443474
blo@@ 0.01841761035318226
chen@@ 0.030002855403616715
eg 0.04488813850535247
enz 0.022649447400090145
eum 0.057821066752527336
far@@ 0.0157025723996852
gin 0.03674448299976906
ications 0.04116029930476974
icio 0.029819067732773315
ills 0.017396685898098927
ini@@ 0.04414012004227494
ité 0.004877003811394042
lem 0.0213957575832079
mm 0.016366251739050208
officer 0.029940016238422365
put@@ 0.015481343888007468
uses 0.010918269728231036
А@@ 0.003775914044528741
شی@@ 0.2937657190617403
مزاح@@ 1
ち 1
Amaz@@ 0.058870562761752815
Anton 0.0749703525413153
Bah@@ 0.026023423740053172
Coun@@ 0.03497030939895882
Deutsch@@ 0.05192548366169934
Ele@@ 0.06333564397804772
Kem@@ 0.1021948010355912
Lyon 0.05439893804111669
Ma 0.08581703900834141
Mé@@ 0.02951554430003634
Om@@ 0.05636853506338485
Reich@@ 0.03213660780200631
Stand@@ 0.02941714613673949
Tow@@ 0.040824956685567244
Vil@@ 0.024853811119165115
arius 0.1161742785357428
author 0.0277902656556669
bio 0.06916952342905057
chen 0.006248341937961321
cio 0.02433424091044997
dier 0.05220167192746987
ective 0.013176290486565915
head 0.010314804959519383
ishing 0.0146765920605912
itas 0.0639402826811466
lar 0.010908502219007568
like 0.006969297797983631
media 0.01515677688972465
part@@ 0.009450827830594187
player 0.011774023490819326
stell@@ 0.02490263966846539
stone 0.020661045556832285
tu 0.04071624448152974
ush 0.04958048102633898
zo@@ 0.06703659239830902
án@@ 0.016969148566452808
Alg@@ 0.047798394123275974
Catherine 0.06304600763663783
Dead 0.08219878067856479
End 0.0675460835199088
Express 0.058193777387307945
Fig@@ 0.03946385130900207
Franz 0.03605273358112846
Heinrich 0.030721102069176873
Junior 0.04056263605938299
Land 0.019597445336913957
Lis@@ 0.04454238859904562
Neg@@ 0.046976841395446924
Ohio 0.027506634346371857
Philos@@ 0.04214040970352436
Pom@@ 0.03574294449284904
Santiago 0.042807003126951834
Sund@@ 0.03419132661927435
Top 0.027151537379238515
VII 0.054044572451977795
Werner 0.0867790630334531
abol@@ 0.03539348986623912
alis@@ 0.010861429578126653
also 0.0012157909390916783
atos 0.035462833068172855
cer 0.03515951253483152
din@@ 0.02021938977001694
ement@@ 0.029018446188167346
esia 0.06215250569411942
eu@@ 0.02887824516052348
full 0.013790758347362314
han 0.013565642210787885
idi 0.04477131213935188
inson 0.18192418232625893
mine 0.02669221892995214
obi@@ 0.07246802345157462
onel 0.03923526658494913
sevi@@ 0.3449592572642736
star 0.026210353319953413
sten 0.006680193230039299
tun@@ 0.02309416693432703
wil@@ 0.022412982756893754
will 0.0058210152730733536
wr@@ 0.024743697102891867
ä 0.11502433313772908
ρ 0.06340854757397084
ω 0.12370093735881434
٢ 1
یر 0.37023752017056105
4,5 0.1508364533044541
Del 0.06281127168525825
Franco 0.07744053550952466
God 0.03267222178662566
Isab@@ 0.04980326233677992
Lag@@ 0.03235107184846075
Louise 0.07514409839280033
Squ@@ 0.035410872587220255
Victoria 0.02706170098984505
Wit@@ 0.03208453409021946
Zi@@ 0.028085980852630543
aller 0.014541233325834504
anie 0.05366468679166675
arian 0.021314133000841225
bau@@ 0.012000697599664774
double 0.0243265673771774
dur@@ 0.011828534648296177
eas@@ 0.01910530329524331
esa 0.013540027170323364
istic 0.02455009374666099
kg 0.03938865092954001
nov@@ 0.036910048017388467
ose 0.022658237614097722
owski 0.05355870667038022
point 0.008713028899142737
private 0.018330688291284328
round 0.010607748219295584
yal@@ 0.049671832020827256
yon@@ 0.027391055102282187
öl@@ 0.0139131071475729
ב 1
کان@@ 0.8464660301560171
り 1
1,2 0.13478993261852953
Alexandre 0.07883047045377758
Andr@@ 0.07535783267841768
Army 0.011755038497809601
Augus@@ 0.03803166624945803
Barcelona 0.0359804822738635
Cru@@ 0.05830115009390849
Din@@ 0.04065090873745728
Do 0.051358357651033665
Empire 0.01962769740685772
Müller 0.08506462285029326
Pad@@ 0.03540909779152624
Rudolf 0.0685262551016043
Se 0.009582012599872186
Ses@@ 0.09275084104153149
Sour@@ 0.06163919713321856
Ton@@ 0.042257837900009136
Wel@@ 0.03233126040476014
activ@@ 0.009729635483051445
andi@@ 0.04369623192773824
anti 0.019093917698821652
cho 0.006060871572903237
cht 0.01169078891672395
eh 0.051602826503526544
iz 0.049185023387564794
lac@@ 0.06722185187884702
pot@@ 0.010960466799581643
press@@ 0.02900106980551955
tn@@ 0.031832567792617734
umin@@ 0.027912480984973235
μ 0.07632955494109045
ז@@ 1
Ai 0.1889313049598455
Andreas 0.07773483104860338
Feli@@ 0.09086874050516491
Flu@@ 0.05386032504680694
Hid@@ 0.07425293632211806
Hot 0.0372767182908491
Like 0.04150712598588711
Museum 0.014197801904268762
Pseud@@ 0.09597289940281492
Ry@@ 0.051002105339773306
Verlag 0.07894967261135948
Wid@@ 0.053483704082475624
Wrest@@ 0.20317243682521946
ator@@ 0.0311569996670939
bach 0.013731878424786353
dy@@ 0.07231202207089947
ett@@ 0.016574154692080862
law 0.010056797393113001
lip@@ 0.03360815525478167
olo 0.037100233287887203
proper@@ 0.04059857729612146
sac@@ 0.019199744067221268
sn@@ 0.04400761813778051
sta 0.04488174058729691
tal 0.019657501883983262
used 0.002752675266111337
Ç@@ 0.02656460263342268
Ó@@ 0.10270473423125963
ία 0.01641884568957398
شائر 1
١ 1
じ 1
三@@ 0.012970871579812328
Alb@@ 0.025629399092678692
Anth@@ 0.07400955186612845
Centre 0.02110491644445053
Charlotte 0.0571324338127992
Council 0.011384653014744879
Fir@@ 0.0497850341814648
Hit@@ 0.0650769059324623
King@@ 0.05083442392264836
Kingdom 0.020124428502707514
Major 0.028621761136494964
Model 0.07241989027850751
Mr. 0.04201881379113163
Nord@@ 0.01398109807320753
Pyr@@ 0.08503221410353132
Services 0.0468749835433319
Vog@@ 0.04783887011217371
Xi@@ 0.061738874791457024
Yo@@ 0.058754684758701846
acter@@ 0.058224695159479575
aye 0.03188296254231469
cep@@ 0.021813763971662674
cri@@ 0.009275411892628453
dh@@ 0.020691515454932592
dig@@ 0.011762483486400847
ef 0.01687327291483045
eva 0.03744289019559236
even 0.00869997730478284
ion@@ 0.021678795910497935
iter 0.017181096082832057
lim@@ 0.01365316178131249
nucle@@ 0.03211069697931581
process 0.01708161145761689
ski@@ 0.05166339977609012
ás@@ 0.029544282929723314
ら@@ 1
1.000 0.21873267707140492
Aleksand@@ 0.1403069010042076
Ass@@ 0.061551472705131255
Ax@@ 0.07685380483648191
Bin@@ 0.1046712784318927
Broad@@ 0.04968199193131432
Bru@@ 0.02245120591181173
Cot@@ 0.042721717180229844
Dark 0.07375054267745511
Ec@@ 0.052282710623074026
February 0.006445834345594867
Jul@@ 0.06916924399958253
Koh@@ 0.04786148434754656
Lep@@ 0.08745124352297702
Michigan 0.028005641005417043
Play 0.0632715621955651
SK 0.10582018148507732
Shin@@ 0.08932134310777307
ains 0.008779033488868911
anga 0.042083131763628844
asa 0.029241219440196996
been 0.0018865704459666392
but@@ 0.026841232976767333
change 0.010137025321105386
dor@@ 0.015874699036864087
etti 0.03145445525047812
fo 0.044639154264267344
ident 0.011408362069956268
ien 0.005411314462763053
isch@@ 0.010097340416707512
jo@@ 0.010759080653854246
lad@@ 0.020529733371781534
later 0.003315380520140132
life 0.004639109524338399
lit@@ 0.018839215912204617
mas 0.02510295673550721
oes 0.03838699694569755
oko 0.09237104119119743
pap@@ 0.012376262263372908
quar@@ 0.010111866884226722
reo 0.10117115258042066
ror 0.04935854235814072
uss@@ 0.012395529446630485
vic@@ 0.009218079313431046
η 0.005971433446158421
زی@@ 0.29566849000625567
گر@@ 0.2713133673839491
の 0.5726589336459257
高@@ 0.012307087855839578
Andrea 0.08652715216943165
Division 0.009401528475596645
Indi@@ 0.013466600893372623
Ky@@ 0.03595306248623516
Mr@@ 0.053151458380437396
Phys@@ 0.051625994028553515
Run@@ 0.058495190263499836
Sak@@ 0.04292708894644887
Tap@@ 0.09204285430418574
bia 0.09481520698635708
bin 0.037892436082611655
bridge 0.02162433146816414
campus 0.034091682840403016
ches 0.006688063193389716
ck@@ 0.017138521860259243
dio 0.01663161263311513
educ@@ 0.01633894922180549
eland 0.04115708895175568
elo 0.024067478782152135
enter 0.02646013249970821
ept@@ 0.026489661336794434
fa 0.04260819456221964
gener@@ 0.008813615998411939
graph@@ 0.02652806737010825
had 0.0011509167545994334
ils 0.005903603691771377
math@@ 0.02964182743883771
mid@@ 0.014928801808834819
omi 0.11164221697826324
ophie 0.032878293323865326
pus 0.0877438811527945
rain 0.040827055465675846
ru 0.11429370601083416
ré@@ 0.002169038742835186
tero 0.051266627386428454
ε@@ 0.027186757687762707
ρι@@ 0.0319465077242161
א 1
ふ@@ 1
ろ 1
2,5 0.07041720602240462
Amp@@ 0.0925039121126828
Ana 0.07679666938188646
Buil@@ 0.03263021702195676
Cand@@ 0.09268609669554918
Gle@@ 0.06512282379044616
He 0.001016248609232749
Hotel 0.03767315920568907
Lec@@ 0.07613322296608335
Leopol@@ 0.07145289221391561
Ludwig 0.03596810583121862
Parti@@ 0.0314746290708616
Penn@@ 0.10751247274514493
Rein@@ 0.0357631996198238
Sea 0.029455208614561967
Stur@@ 0.06591393998627121
Type 0.07013663947503038
agu@@ 0.01637283493265337
aut@@ 0.012080272498177998
but 0.001516203321064844
dal@@ 0.030369933716692474
dev@@ 0.007085295570264173
eck@@ 0.016125868464473416
ej@@ 0.012893241336027835
following 0.005275638537995665
hydr@@ 0.050248756646152866
illo 0.02473257340142395
inda 0.09507184084956018
information 0.014867438560060982
ked 0.00821758379581601
ments 0.008868283979088246
nik 0.02399874272374064
opter@@ 0.11132205154575012
orr@@ 0.044255641164919785
ps@@ 0.056430608364744284
ran 0.017826123271007407
refer@@ 0.01285552961020693
ry@@ 0.06924298683060681
shi@@ 0.0167452879867623
termin@@ 0.010454332279929422
tom 0.028680392899378532
uti@@ 0.018534239517914282
war 0.0012363661137734408
ί@@ 0.02385853714235149
ι@@ 0.019074238936107882
э@@ 0.0031965109000501313
া@@ 0.9263521118450851
く@@ 1
Alexand@@ 0.04111416653107558
Am 0.006898410465480285
Beach 0.035133746719814334
Cho@@ 0.06996141136255288
Da@@ 0.043901724886428774
Det@@ 0.04527048906917091
Florida 0.019830705293528202
From 0.010503453941022771
Haz@@ 0.0747889062567478
Kab@@ 0.03381383685317423
Lady 0.03301595483008505
Library 0.035865194781873194
Lon@@ 0.06298701264575246
Mut@@ 0.04302413972118051
Reich 0.05258816061784758
aber 0.005807673622221421
aker 0.028761926692830845
alan@@ 0.048625151619848574
anthus 0.1890327233645572
brahim 0.13039547839556098
cit@@ 0.016607536804645717
cle@@ 0.013313829293591034
ece 0.011308131606604594
eni 0.04660072577178442
erra 0.08439379193982269
eti 0.0444200451330218
hel@@ 0.015746825985192163
ices 0.011805758481643907
ilo 0.05988150030519924
kal@@ 0.01797012288784261
kan 0.038463819546268346
lag 0.014091098602267794
mad 0.09166402653324951
mail 0.06786355206641127
map@@ 0.055739843166724014
neur@@ 0.030126052808522884
onic 0.04362358819781541
oza 0.11422946623738882
polis 0.028801095637939204
press 0.02841520948358768
prof@@ 0.01218888175581114
rich@@ 0.010245047945106488
space 0.018418635971774386
spe@@ 0.010867451696939312
tt@@ 0.0314789483719846
v. 0.032334344017625895
à@@ 0.13164576657596652
ă@@ 0.04436737394346287
θ@@ 0.021138725572036183
ئر@@ 1
قی@@ 0.464839853870865
◊ 1
え@@ 1
上@@ 0.014426448139699502
Back@@ 0.027033565599830778
Bit@@ 0.06978072018364291
Eff@@ 0.051544059399306646
Emil@@ 0.07006816886214151
Fas@@ 0.04867282645312511
Felipe 0.08291959154148261
Hin@@ 0.019812483066845372
Java 0.08314385146277836
Lov@@ 0.05344303591803295
Map@@ 0.08018533539713624
Over 0.03822092656239876
Petr@@ 0.04816041095717934
Ray@@ 0.08839805507105876
René 0.06735893769631585
Rum@@ 0.0430627334697084
active 0.013547686391400651
ammed 0.08339630103106294
ason 0.01939242900427169
bos@@ 0.03163947420501208
das 0.00100647924684584
elia 0.06358091709349799
ican 0.01895753286873686
kan@@ 0.014214621297841549
kel@@ 0.019972493524572196
mut@@ 0.017056163621540058
sam@@ 0.02557415703312008
techn@@ 0.009528481964266823
tex@@ 0.017620808358834315
ues 0.010226915383928012
ка 0.002580494553799849
ד 1
تی 0.14431115734619399
دروا@@ 1
け 1
ん 0.9698712224540158
Bom@@ 0.03781039191179676
Bridge 0.033861857989289076
Cav@@ 0.03681624828365658
Court 0.013656478272976294
Fame 0.04687298421225493
Frances@@ 0.056863461758292516
Henri 0.032573305117925604
Inf@@ 0.06537493986819676
Islam@@ 0.03678872319176445
Ny@@ 0.06354348140648111
Pach@@ 0.09929847198328878
Pep@@ 0.06546906056800204
Studio 0.04854317417917962
Tour 0.01351476036628405
Wiki@@ 0.12929109267056857
abl@@ 0.017824371930424993
andes 0.09273601917113901
aro 0.032650565665945326
bat@@ 0.009007920090692817
case 0.011534574484833894
cm 0.018607814927265334
fic 0.016460218018913154
gel@@ 0.004401585837356161
gin@@ 0.05087312369402539
hab@@ 0.008656147435346965
hang 0.03365050975573153
hav@@ 0.020574309511288667
histori@@ 0.010728642566762111
ili 0.02579893041777881
ited 0.005825074548176273
itter 0.0627721905057627
km 0.0040445250791619645
las@@ 0.02747702413242514
lay@@ 0.024406618405714835
ligh@@ 0.012065354867532161
mach@@ 0.015262561218618452
mati@@ 0.024531198951989575
oe 0.052023894110224754
ogr@@ 0.03457783459770901
ols 0.017116355298033962
only 0.0028313016282214528
orient@@ 0.022328798192712947
par 0.0010036084326682543
pass@@ 0.00692524887447402
pour 0.0012640980960656803
pression 0.01904498447540661
scar 0.1822173336402566
second 0.003447878754896379
sex 0.02147412648949802
tain@@ 0.018092089885681627
test@@ 0.018069382493556854
thre@@ 0.017847191896978584
thy 0.025590466753497108
trav@@ 0.00970169240326041
uma 0.03252895337072627
³ 0.07858456409680269
éli@@ 0.03243247339038851
ï@@ 0.012762814046873181
ña 0.019226858209983367
Η@@ 0.1189342791325095
خود 0.3803482023019339
٣@@ 1
イ@@ 1
Anton@@ 0.0630284035282352
Bell@@ 0.05332211955057019
Fa@@ 0.046252533290463714
Four@@ 0.05331554447376323
Fritz 0.07264850598220537
Jak@@ 0.043914054012522276
Ji@@ 0.048843405252556045
Liter@@ 0.03292979910463614
Mountain 0.036204617239532666
NFL 0.038824904955793556
North@@ 0.028448708298484934
Order 0.027388493811493202
Pit@@ 0.027056346567721573
So 0.01627414910320208
Sony 0.06635315439367534
St 0.013625629950094021
There 0.005764910861840667
buch 0.04564479110314945
cam@@ 0.014982841784035398
care 0.021887299575981973
cycl@@ 0.03343328533899386
ening 0.025247969740597263
ffe 0.030445073737391984
fon@@ 0.011516462828667829
formes 0.03801476321775885
gy 0.053157356263977794
hat@@ 0.038682030972805315
ilio 0.05319965157414345
ince 0.07386393397933377
k.@@ 0.1591524802595127
ls@@ 0.05959352319702477
mental 0.017964221042726096
music 0.0058397519924431795
na@@ 0.03774287681381427
naci@@ 0.049721118698676806
py@@ 0.07454653076465101
ris@@ 0.013371149794154375
show 0.007208297830333298
tronic 0.04359232635691463
uca 0.10308875308847777
who 0.0014314409425757952
yat@@ 0.06939983438793192
éri@@ 0.008047007784506566
Ι 0.5142829849381811
る 1
Anim@@ 0.05997074598477092
Arg@@ 0.03600824903312845
Chron@@ 0.05407664400733012
Fantas@@ 0.0633464347468089
Let@@ 0.04377014523183473
Limited 0.06303276414837691
Mess@@ 0.04184153765560178
Oxford 0.030422787821420976
Raj@@ 0.03182923840255371
Sach@@ 0.053670706245251325
Special 0.03553554659024388
ander 0.04336508105887479
arc@@ 0.02899997276677116
che@@ 0.028214535722047625
control 0.010421156626296783
crip@@ 0.018128125715256776
ended 0.006026862068415776
esto 0.02316776257648498
eu 0.016679514200091745
fri@@ 0.011386553681271644
iga 0.03473126758886033
ken@@ 0.010250921832964948
kre@@ 0.017078244948195053
outh 0.014447397239895883
prim@@ 0.006950311098982745
psych@@ 0.02278112010446397
sk 0.026513492660252512
sl@@ 0.022126373931431898
stor@@ 0.012000175012662416
tron@@ 0.023705906882968916
urt 0.04512604817907745
wald 0.02941976783055619
ways 0.00990791854804325
τος 0.058276867647502895
φ 0.11966018745904046
на 0.00044606336868772343
р@@ 0.0040740467067954846
بین 0.43199410763425317
་ 0.6985245357069528
„ 0.0016054465892828096
リ@@ 1
Aj@@ 0.06837718045734555
Asia 0.02304278662351809
By 0.01022799770779805
Cha@@ 0.07894721643752982
Cher@@ 0.04652676679569834
DJ 0.052427918072565735
Gott@@ 0.06332251231166729
Hong 0.02738665533368668
Just 0.05874217917466415
Lincoln 0.03939720800679651
Lit@@ 0.028792689116363967
Maj@@ 0.03813316362822933
Palest@@ 0.04242038052515042
Pir@@ 0.033944067368819296
Pod@@ 0.04799016609731748
Pon@@ 0.028606136495745452
Scar@@ 0.05696068994015913
Terr@@ 0.04104887219329118
anal@@ 0.022803751132846745
ario 0.006442407497863698
aun@@ 0.020076326690641588
bish@@ 0.020359209390609097
chan@@ 0.017075578630871602
din 0.039421980827707
erie 0.018382691441906213
ext@@ 0.009272693966073312
family 0.0038701555726331003
four 0.004318161674243224
game 0.004860042433428907
hip 0.01642301131103468
ige 0.005283065784688983
iller 0.01566908338591044
ize 0.017391378145234018
opsis 0.034615579512321144
pit@@ 0.029229771823848213
unit 0.020556671352021442
uz 0.037099006455652075
vie@@ 0.01081686841388955
vit@@ 0.025729943811549374
won 0.004298364416863417
اک@@ 0.28745691421153396
ა@@ 0.4128159148583364
ⵉ@@ 1
ー 0.405054612931487
松@@ 0.10658498323648963
이@@ 1
Cath@@ 0.0363548164770804
Dr. 0.017467437373034654
EU 0.04527734852221217
Fur@@ 0.025316142869069393
Gabri@@ 0.10563627862192902
Gaz@@ 0.05756434018071484
Indian 0.011669826405382543
Industri@@ 0.026165920308582898
Johann 0.019044936222327898
Kaiser 0.045040034407937544
Lima 0.06674186042400702
Lot@@ 0.043005406521317464
Main 0.02839929933028491
Monte 0.05934524076691484
Philippe 0.04106958703991836
Port 0.02807309072515153
Que@@ 0.028897588734751786
Rah@@ 0.05497712688298161
Sad@@ 0.05307795062846317
Valley 0.02007435533940635
Vik@@ 0.03562704745520199
abil@@ 0.020728507559220267
allas 0.028626778733924788
anci@@ 0.011670268484450541
anim@@ 0.009531277109345473
aro@@ 0.047489183047144584
azar 0.060597796794746375
cast 0.01054621537820769
dom 0.035413469056762056
dro@@ 0.012063817772052562
esh@@ 0.027366712209747856
etz@@ 0.009552141767106599
fle@@ 0.011394593530727509
ias 0.021588518484306644
ingen 0.007622960388912286
ister@@ 0.013464381979363406
lor 0.13996686930719293
lyn 0.042291345799946686
nier 0.024174637800361883
nit@@ 0.021907927047207818
ović 0.06517662178183949
pag@@ 0.034399379086284744
plat@@ 0.009405307326150575
plus 0.002106268026088323
ron@@ 0.019269608145587196
rou@@ 0.013301055621068585
s. 0.025431610002446155
spr@@ 0.008062377683202674
tidae 0.09973843119227248
tier 0.019292596784544962
uno 0.010256611805024698
vil@@ 0.03719942997586568
اختتام 1
کی@@ 0.10030347545708942
Disney 0.034252357475465886
Fem@@ 0.04572492049531445
Got@@ 0.01903776536310136
Guar@@ 0.035117553851005734
Hein@@ 0.04027256132350262
Hun@@ 0.03182385810942431
Leb@@ 0.02677231801209065
Milit@@ 0.02312677321504271
Miss 0.03285879858241075
Nas@@ 0.05293012490798343
Nati@@ 0.019372996930312903
Nicolas 0.047296911136170995
Operation 0.03917655505625265
Plus 0.04590314608972253
Rach@@ 0.063501157879378
Studios 0.03941660778956775
When 0.007887389260992065
ables 0.008834253074059488
age@@ 0.05277507105425251
alt 0.014373856644523907
aud@@ 0.02527948229862106
ayn@@ 0.07782624969274109
between 0.002671497736117192
boy 0.031622529671885724
cian 0.09218518327929624
eps 0.04014915450027332
fli@@ 0.05027739789904822
gas 0.021698173222875556
han@@ 0.03167680761746423
kov 0.056303521266211916
lear@@ 0.015969481349084182
mad@@ 0.018941082206662147
oso 0.01662454959244115
own 0.0053205309544584614
people 0.0038534807065539645
pi 0.08835568347470017
range 0.014905989669539661
ric@@ 0.021172531312768087
rich 0.02808866557551662
room 0.016337124953381073
small 0.006957628221609382
sung 0.05015907951418789
uo 0.05064123309951903
urn@@ 0.016905680262670246
using 0.006234831095682362
ène 0.015118794629218089
ê@@ 0.009761193346682667
Λ@@ 0.025663165664792955
λ@@ 0.021950508669793846
τ@@ 0.018870403001595204
石@@ 0.03407496903854152
Alfre@@ 0.13141075932894467
Boys 0.04671879990256326
Bun@@ 0.038049960720919485
Comics 0.06012007688294621
Ein@@ 0.0042445013270778495
Festival 0.011393025546545933
Ges@@ 0.010436375156981807
Hyp@@ 0.10161093443403213
Iron 0.057619249494095616
Kun@@ 0.03239601211236567
Pun@@ 0.02820415656720331
Quer@@ 0.07188559257585318
Rosa 0.06088663972635812
Satur@@ 0.034052283722346685
Sciences 0.033527070011959946
Strat@@ 0.04550582614699865
assi@@ 0.027665905797826736
charge 0.020976036647311062
ching 0.020044822914906234
dar@@ 0.006165803610817501
diplom@@ 0.02525232197596222
dos 0.004266288556381926
edy 0.019985995585380466
esta 0.006014513532861748
free 0.012984229675786592
gil@@ 0.13989256348065288
hai 0.013335982132716579
imi 0.040511295597369636
iri 0.04306584784133624
ives 0.016226964620404735
lah 0.04509028564884934
lang 0.014682547023189637
lib@@ 0.027104495093510525
neg@@ 0.008840036166335257
num@@ 0.013665356089489752
ples 0.008260187294786957
ports 0.010925760350351813
rat 0.01837186585579397
rup@@ 0.01122604102601048
tie 0.03357762846315472
tle 0.03417540907565409
tournament 0.01723357971679335
ww@@ 0.7815372897069522
¤ 1
ın 0.01246003077265023
н 0.0024918035255698874
ἀ@@ 0.8426866283204515
や 1
郎 0.10045374791411023
Chall@@ 0.03326680677725013
Community 0.03337351101909001
Dich@@ 0.06539464312562164
Dream 0.07402176690105841
Hab@@ 0.020715103559361847
Kos@@ 0.03056756766349244
Las@@ 0.056356425847701765
Orig@@ 0.030278664841163733
Pos@@ 0.0425367315538817
Rab@@ 0.029155272323256355
Sof@@ 0.036819910747176325
chart 0.028454865847445387
dian 0.04401840391199323
dru@@ 0.014966054178631512
eds 0.011673864076490043
enf@@ 0.008844861866947898
erst@@ 0.012837478915808085
fast 0.01585085214284319
fel@@ 0.011402824891676946
grap@@ 0.041385264323746555
igi 0.07585720812431593
ign 0.023094936539039265
ingu@@ 0.024266788272697598
kers 0.013758280222765066
mission 0.008586981010493253
nati@@ 0.018670288897897774
nav@@ 0.011792660727128824
ograph@@ 0.01304359391368538
ologies 0.03841283299606374
pic@@ 0.012012711178784958
poli@@ 0.01548164594091696
rive 0.0357847203876374
sequ@@ 0.015585860059143579
software 0.031367205036057465
trac@@ 0.01268526323387163
usi@@ 0.014177532961754485
ön@@ 0.010356779922479962
ş@@ 0.01436030144942299
Ε@@ 0.023465286652823734
ε 0.029058462066827606
ι 0.023683601601679226
ׁ@@ 1
.C. 0.019510570093037385
1st 0.014180926651086135
Agr@@ 0.025029344832447634
Alliance 0.0452925711427087
Bad 0.02991143333820081
Beg@@ 0.017899273398066462
Classi@@ 0.04307364243706158
Culture 0.04042397608486289
December 0.004665119005359698
Dig@@ 0.0577889640362627
Geor@@ 0.030261237705535893
Girls 0.050026779534212425
Guerra 0.026815230515427103
Hot@@ 0.048638774885800845
Inst@@ 0.06094580630736842
Massachusetts 0.023970572128447443
Meh@@ 0.06808284001448582
Salvador 0.05347078399412872
Second 0.01713279484996064
See 0.027015272458781023
Shak@@ 0.03958737908261599
Spar@@ 0.0409612745236334
Stre@@ 0.019486215144502703
UE@@ 0.19335673626173475
Vari@@ 0.024562750232376106
Viol@@ 0.05334432137788128
Water@@ 0.04266687573506717
agon@@ 0.030391751573966272
atory 0.02623153268635045
aug@@ 0.03226841540094366
aut 0.008466436625788332
berto 0.09704849469269107
centr@@ 0.012059738550547289
costa 0.05211942083969195
dol@@ 0.013744429236288332
eco 0.059654987647200904
eline 0.061796485041031836
enes 0.015971115053745495
itu@@ 0.029604309359847345
itung 0.02207617746860008
lis@@ 0.04515904477856993
most 0.0027028221697333768
multi@@ 0.02172861540885587
network 0.019039943696405815
ois 0.019992764799055457
oli 0.045418606266986995
ords 0.013493097350822422
part 0.0024137779272226092
pas@@ 0.0069089955411442035
phone 0.03097073596442285
rech@@ 0.011278292829214154
research 0.010542040958889554
ule 0.015284458901131837
word 0.017612578628980653
wth 0.025380743212633908
´ 0.14059504119708793
ż@@ 0.11018091273749786
ά@@ 0.019209507700944685
ρος 0.06813385113337779
φ@@ 0.015874990962921023
а@@ 0.003099548476483244
ו 1
٥ 1
ڭ 1
ス@@ 1
3,5 0.08241265947228923
Arti@@ 0.02124378952506724
Chicago 0.012728628005081637
Columbia 0.020679419545447244
Hermann 0.040762865334087656
Islands 0.029340326382085422
Justice 0.026398742387578625
Lom@@ 0.058558080454306945
Mount 0.02549530327281641
Ort@@ 0.0348944824787873
Peti@@ 0.046919981524145137
Phili@@ 0.04378650016863765
Ris@@ 0.0550947151266199
Stein@@ 0.0225642722010719
Thr@@ 0.022991606612733473
Villa 0.03179856321470888
Volks@@ 0.017780651919183404
XII 0.059004356686275905
alie 0.033652078541139656
alls 0.008388586469084972
asi 0.03257476269116165
asse 0.01825290645912249
ats@@ 0.018034751696986276
atur@@ 0.016904220366265425
away 0.010674705687192372
each 0.0051064493219543355
ebo@@ 0.056871856108707694
effect 0.023751740016513832
emat@@ 0.05019712283567921
eur@@ 0.018777303124993372
fiel@@ 0.018529821213837897
gh@@ 0.022135521705383434
gia 0.011591771175718012
gn@@ 0.037453510399051246
inas 0.018847064159417424
istan 0.028120956497573645
itation 0.015906165445538377
lion 0.016645708847946458
mand@@ 0.01116617339178046
publ@@ 0.019779827099953604
rd 0.01993811286570473
sat@@ 0.01700435034002818
shar@@ 0.016346637468258467
some 0.0031459171144040564
tri 0.06766673921831792
year 0.0023664183407871016
÷ 1
ֵ@@ 1
وّار 1
一 0.01847276028463356
2. 0.016042403094527067
Alber@@ 0.034952063824130075
Cambridge 0.030120033189622798
Dum@@ 0.05615886999915542
Et@@ 0.021803344056529964
Independ@@ 0.024555044228452085
Nacional 0.013964003988492703
Neu@@ 0.01584641986673036
Phoen@@ 0.053361526615013956
Ple@@ 0.04588094707289888
Southern 0.018891867962718824
Sym@@ 0.030571014404926003
Tag@@ 0.029338587745724325
Theatre 0.021268684879057597
Tou@@ 0.02563236937847079
Un 0.00867774315275689
Vid@@ 0.05670358579522008
aking 0.018048353433832903
arri@@ 0.012295129066324744
austr@@ 0.03255777014697999
ave@@ 0.02677419178625002
ces@@ 0.011308613218041769
coc@@ 0.03973546577046565
cola 0.06462130976329687
coun@@ 0.007923244096274347
dam@@ 0.01055632977087863
did@@ 0.01485131739556003
eli 0.03150897818687288
enta 0.011191983422689577
ern 0.0038900491864984504
found@@ 0.015622824788368114
fran@@ 0.019617454342477927
gency 0.0222784465267473
hir@@ 0.0796483271389761
kel 0.015809564451280594
kor@@ 0.017971219192443155
lati@@ 0.07203046116232122
ledge 0.025695571564528587
n.@@ 0.12878219250583064
og 0.03690192994576003
oga 0.045603501795897686
place 0.003028071236729119
rate 0.016080541021451573
rio 0.062473417585697195
sar@@ 0.02911961183528559
schaft 0.0051388077214745064
see 0.008169367889078707
spir@@ 0.013518871055747875
tos 0.00844236407080827
where 0.0021811012903936674
zen 0.007947333744575315
ì 0.07656531596223791
ür@@ 0.007703619315292418
ś@@ 0.06425899655667434
Νέα 0.36220626245710197
σ 0.2584640308780108
вич 0.014479345985903787
ն 1
ֶ@@ 1
ولی@@ 0.5862164307312943
人 0.002695403458643283
正@@ 0.020565621300603198
Boh@@ 0.03488604478677396
Country 0.032012021361618695
Day@@ 0.05723968569344187
Dim@@ 0.06640641866793838
End@@ 0.03876688736897872
Fall 0.03227313800656947
Gab@@ 0.04767424032166476
Georg 0.028102712693733684
Gesellschaft 0.028225849188145857
Hub@@ 0.05097028935970961
It@@ 0.06693938075979897
January 0.004022387958291378
Johannes 0.033328516825844014
Kob@@ 0.06207715706315088
Leh@@ 0.031918251466353485
Long@@ 0.03696648953555739
NAS@@ 0.08388200897917446
NBA 0.028606663821957055
November 0.0031417184034295076
Olympics 0.01714189622458671
Si 0.022823455695622406
Square 0.03688575739666384
Termin@@ 0.0544777752275113
UEFA 0.0350541610350573
aller@@ 0.032992415896775464
allo 0.046425625365466676
ana@@ 0.04880650191486286
andra 0.06572884335493413
arte 0.03213918236580839
back@@ 0.02082401471268959
ceph@@ 0.14217992798637752
craft 0.041808309566159746
elt 0.006118154148583198
entes 0.004615511585177726
ference 0.019538798258021742
fish 0.02382461595194319
gam@@ 0.04188542335448653
jan 0.049244978201074874
lon@@ 0.054103123273666294
mix@@ 0.013093190182191666
nes@@ 0.045581850558282955
ogen 0.013973864644831616
optera 0.1037606666131579
sci@@ 0.18265860970449047
science 0.017572270295596007
sel 0.015377592655161022
stat@@ 0.007044331170008522
then 0.002449940165647424
thor@@ 0.03878636192576819
trop@@ 0.03040473904154057
ums 0.007682359115455544
union 0.014602916977509844
utt@@ 0.09565984535206232
vert 0.05190574408207605
ı@@ 0.02278813852682735
Ş@@ 0.028475688106144197
Б@@ 0.004825883601083068
н@@ 0.002599977776255251
ы@@ 0.005319425845100891
ն@@ 1
سی 0.1355917110523374
٨ 1
ܕ@@ 1
真@@ 0.04154638093095573
Autom@@ 0.03645556023164345
Doug@@ 0.15378293625501555
Dru@@ 0.02652261075555578
Eas@@ 0.05341783377872043
Jersey 0.021371875440807188
Mars 0.05707534364757807
Master 0.026442238405332014
Ner@@ 0.05450682690145663
Od@@ 0.042903016406749386
Say@@ 0.06281313390765562
Sport 0.03291382767221122
aborat@@ 0.04802553238818034
alli@@ 0.01170199457494481
angle 0.032496422421591786
ape 0.016626460901091288
arp@@ 0.09917411370223464
bis 0.001519324151426429
dans 0.0007598931290863715
dle 0.016897617148702977
enna 0.03513610329029318
ensive 0.0208686630359221
enter@@ 0.021941960928515334
idge 0.02098391475244935
long 0.0044037639747304454
make 0.007915225528076402
ongo 0.08792629177933307
ostr@@ 0.08049898765134042
pop 0.02070841729090685
power 0.007827969286480002
pp 0.04615243493543429
qui 0.0011387265640627109
ram@@ 0.020573523445583927
seg@@ 0.015550631939516814
set@@ 0.023180036107516237
through 0.003013538293146073
tures 0.008257487407796102
udi@@ 0.034445121516659696
wide 0.010067059136403758
è 0.06572758724430712
ö 0.060953230188906804
ɪ@@ 1
ά 0.01469393884635299
ο@@ 0.016665749640496913
в@@ 0.001714697841099733
٣ 1
≤ 0.5385451845953477
≥ 0.6708792768201703
だ@@ 1
和@@ 0.032905035165781873
1. 0.008076325746722728
Alfonso 0.06337793685344736
Ball@@ 0.023332200914870475
Bed@@ 0.02255054992521969
Bes@@ 0.007552607973793047
Chi 0.0744949414700042
Church 0.007947275743751498
Committee 0.014424836188862478
Facebook 0.062485676864506796
Galax@@ 0.06732189150699781
Hav@@ 0.01904951803782487
Illinois 0.02017889422827155
Revol@@ 0.031097900904103963
SG 0.059507267704743856
Sieg@@ 0.024045649807182053
acher 0.015061214936818411
aj 0.04689743913268244
amo 0.031783699115706075
avi 0.056991412329133594
bat 0.026121422637287024
comm@@ 0.006662589426458935
dale 0.03456210775603894
dem 0.0007447130063586359
dre@@ 0.00923897622179306
eci@@ 0.02377525731195074
econom@@ 0.014752121560948506
edom 0.02711536605074666
entin 0.04160050495056463
figh@@ 0.01859090386703951
fus@@ 0.016638067560628907
guit@@ 0.012507076567017371
har 0.07675179625219038
home 0.004996940465692018
hon@@ 0.013085184691814782
isch 0.004650771344788527
ishi 0.05992582960019776
iti 0.036714535652733665
lev@@ 0.017979472444094414
lio 0.06358765354238348
lower 0.011971698416104223
mando 0.035444435036918805
med 0.03912747014399398
nec@@ 0.014632964945298955
oon 0.03137205191760078
oul 0.03615476613460101
person@@ 0.012798466153044702
play@@ 0.019219934427511062
rem@@ 0.006077154387352489
rique 0.11832109138775221
sei 0.015834088173011764
seu@@ 0.07784459848833226
troph@@ 0.05370059903791513
wa@@ 0.021667946705829163
was@@ 0.017560924867051117
ü 0.01953412563605681
ī 0.06737434331183381
Α@@ 0.016722580014259632
ρ@@ 0.023571546852102845
р 0.002620278940214249
ский 0.0022333709594284023
ע 1
تعلقات 1
مدی@@ 1
ژ@@ 0.7052464562245918
گا@@ 0.7400510880679392
原@@ 0.01544352160172256
西@@ 0.007417661114121113
Archit@@ 0.028258850859620308
Bad@@ 0.023299263776167846
DDR 0.0335457583603069
Football 0.010884660634288234
Georges 0.03399878515143245
Grou@@ 0.056098633713846845
Jose@@ 0.04792337084258613
León 0.04084615945130125
Minnesota 0.026318157390738603
NAT@@ 0.06953362074884209
Rey 0.054461691891357564
Sag@@ 0.05998257888490163
September 0.0027225432029421483
Sl@@ 0.044550882759772335
Stan@@ 0.02937685811987694
USS 0.0511055675122563
after 0.0014660365326821913
aging 0.018886261956852782
aining 0.01107577903921647
artic@@ 0.0745451999412108
cut@@ 0.021883674555333285
dan@@ 0.020669190981111973
dis 0.045172401383458245
ectiv@@ 0.010864921003328504
elin 0.06470616399915174
energy 0.02030553588115572
enge 0.01919625652315987
enger 0.01773469358213476
eros 0.0121060012066754
extr@@ 0.008398987021280807
him 0.002326335254266241
hou 0.03625571421919686
ict 0.01963600704363793
ific@@ 0.012914914436335299
imal 0.025256419075993887
ino@@ 0.04493904933519738
isi 0.014611669613866748
leri 0.013263759314290559
opp@@ 0.011086703924322682
phi@@ 0.06862814700374721
prin@@ 0.015563105102004964
prise 0.01591625354450995
prop@@ 0.010926634921139633
pur 0.037369928917413135
roc@@ 0.023466396607774696
saf@@ 0.0166169651803955
san 0.03395856092933036
sea 0.011934124336142951
som@@ 0.013758786686436753
stan@@ 0.024676052856916507
systems 0.014998345195430586
tín 0.06685094566021105
unds 0.00917514179954525
viol@@ 0.007794027713223169
wel@@ 0.013727112851643877
when 0.002006175395425336
ì@@ 0.19945055222964034
ē 0.4596403208534695
ž@@ 0.033348241259212034
Ρ@@ 0.0247510692116993
Φ@@ 0.031037691091996205
В@@ 0.003244071717901507
٤ 1
٧ 1
کل 0.3382201229208041
یل 0.5046592297996819
۔ 0.004586502371965881
্ 1
≈ 0.5945470411226915
ⵎ@@ 1
Bass@@ 0.0464628120237203
Benedi@@ 0.05092597917145451
Bra@@ 0.04288101309412601
Catal@@ 0.051598185608435286
Charl@@ 0.04687321601001579
Federation 0.03093887747391313
Franç@@ 0.03802100318358191
Hass@@ 0.05661934359305938
Lé@@ 0.026364879182710528
No. 0.015471701047487175
Post@@ 0.02818578528865653
Prom@@ 0.02967781855608695
Queensland 0.03253768071839177
Sap@@ 0.06648185306372975
Sti@@ 0.025368026419171127
Thor@@ 0.040731271948150946
ación 0.001232022137930896
aco 0.022139206272423786
adr@@ 0.016779243747296068
ango 0.029550299848706663
anta 0.03743843414682655
archit@@ 0.02526850301273243
bes@@ 0.005914179291606572
board 0.011143232129457966
buil@@ 0.018200392222280086
confirm@@ 0.017275225061902988
current 0.010975070917090586
edia 0.05623895259056795
ego 0.02156174440757682
eleg@@ 0.014329467100315778
emi 0.047334603453177415
ential 0.011037389270833047
fas@@ 0.011292519183461252
health 0.014734562581950623
hur@@ 0.020754887881115465
identi@@ 0.00560634333475679
iler 0.015521833641885337
inj@@ 0.018267927881987726
kil@@ 0.012279372226305835
kon@@ 0.005360872126977965
lot 0.008596367266592572
match 0.006189439219002426
may 0.0034451104967054376
mel 0.050577873607389634
nan 0.056254222811884545
okia 0.16046441263570127
ophyl@@ 0.11836862319000345
orie 0.013387876151959792
pand@@ 0.027611523449683612
position 0.004358197188509589
ras@@ 0.016356984852452492
rights 0.013460542000228684
scre@@ 0.014627110691780486
sions 0.007860652485613904
sport@@ 0.04650322429335299
ste 0.00512054542381654
structure 0.01228352809284323
sur 0.0011353292647175953
tak@@ 0.014881855729073997
tar 0.01878924543275471
tera 0.025045891533398187
thing 0.014354204388389396
use@@ 0.0364362607121369
utz 0.03894933264146823
while 0.0028119730732189736
ysi@@ 0.039020244640878256
Å 0.41233193086843645
Ω 0.5981367441768887
О@@ 0.0024752149271930445
л@@ 0.002229236935027756
ш@@ 0.0020669843802541645
ւ@@ 1
محسوس 1
ぐ@@ 1
天@@ 0.01130314671200026
.-@@ 0.052760095908580204
Arc@@ 0.03512678761873214
Cast@@ 0.03188730492376988
Code 0.04220066145797084
Department 0.010991935032724748
Dipl@@ 0.04485795346832742
Emp@@ 0.029452079187025387
Es 0.0037387173192283646
Esp@@ 0.020571515145827737
Feder@@ 0.023531258519258833
Franc@@ 0.03539105253337082
Kis@@ 0.05401324778239708
Lau@@ 0.02656387300966366
Princip@@ 0.04569528170571402
Rio 0.027400026149924813
Sever@@ 0.023375207442304893
Spanish 0.012676574252096081
Tat@@ 0.041158696267549644
Test@@ 0.035712208289587474
Vin@@ 0.050658373696016994
Wad@@ 0.11180309013012968
XI 0.04644220325473856
amba 0.05384702373736967
app 0.029828646501493524
azar@@ 0.04846430641836014
blu@@ 0.017379776339303384
burgh 0.018485000768748486
cip@@ 0.01307420041632254
dens@@ 0.01196750672229821
ec 0.03572768435802149
engine 0.018529856507794273
exp@@ 0.004420793746356963
fi 0.06711023636941477
film@@ 0.014069328388149064
fried 0.044084295147604674
has@@ 0.02910108371747095
hip@@ 0.06660026620148354
hist@@ 0.03467085570105955
illing 0.01766256365280505
inv@@ 0.005262185616063178
last 0.005667704894342979
liter@@ 0.007902845225996913
mess@@ 0.015543062787118598
mode 0.03065869796032669
mov@@ 0.007075121877924032
nm 0.08384123691834379
ologie 0.006616650038212104
omb@@ 0.022621634890322297
onder@@ 0.02599086856223879
orio 0.021104908244134156
ority 0.012392720219032453
otr@@ 0.044546151767860726
post 0.010360927249453226
public@@ 0.006503450849651246
represent@@ 0.0061911706470802646
rik 0.07062691721296828
tari@@ 0.024504131070554803
uni 0.048954992827080566
ved 0.003944642080488153
viv@@ 0.0121941985938479
volution 0.02931222418446806
ò@@ 0.13462724647232435
ω@@ 0.016341136378206358
И@@ 0.00304530886987492
ե@@ 0.9450586831730234
اعز@@ 1
خود@@ 1
وزارت 1
ٳ@@ 1
پار@@ 0.7215868628232535
ۡ@@ 1
美@@ 0.020438917265961108
Abdul@@ 0.07509470798516821
Adolf 0.04365538592380357
Afr@@ 0.034912451958016795
Band 0.011695576969066611
Carlo 0.055787031027395795
Cum@@ 0.0391270141353831
Eug@@ 0.047068426873045494
Fort 0.017031531617239602
Glas@@ 0.027242919259950215
Histor@@ 0.023333431437699628
Main@@ 0.029917617536456456
Metal 0.050759053684531784
Missouri 0.027310969067745227
Nations 0.02178609926361884
Neb@@ 0.052232374559239035
Place 0.03941560448047195
Rit@@ 0.036963731485510444
Santa 0.009761997607265538
Single 0.04186691428984453
Um@@ 0.008235825483713417
Wy@@ 0.03651506192075783
YouTube 0.03758622503924188
acle 0.0315518331580246
ael 0.08379505153791696
alli 0.06415403218733987
amo@@ 0.019838506937627235
ander@@ 0.011022787400234607
antes 0.0035117231586382224
bian 0.030920661111844782
break 0.019504459049246366
ecture 0.01653044578300574
embran@@ 0.04253108220948991
enda 0.019388137222711693
exec@@ 0.012539113400739325
flav@@ 0.06692261506761919
gem@@ 0.008396146858571365
gir@@ 0.009497108269899038
hir 0.059856319991953434
ild 0.03247608965681549
iliz@@ 0.025931363979677602
imp@@ 0.006948977375851072
isco 0.11678919875848709
isp@@ 0.050504107655491785
kar 0.049312313556808554
kul@@ 0.013150304777895642
lery 0.02245880375613577
libr@@ 0.0173223317171122
liv@@ 0.01640823333255352
lus 0.06307437610557162
may@@ 0.026567256148633287
mil 0.03457666012548347
nic@@ 0.054821837454938314
non@@ 0.029382001397651406
onne 0.011269179333677597
open 0.010506474325945477
pain@@ 0.007975041467531606
park 0.01138242454251457
pers 0.024906254838635265
related 0.01239338688263493
sal 0.02266277526143296
sche 0.011270861763101511
scienti@@ 0.011661967011516085
seau 0.036156964978528584
tain 0.006042590941736283
they 0.001519354441326081
za@@ 0.036011321997990724
ë@@ 0.031316656989047544
Δ 0.13641149917514567
Τ@@ 0.01588429522862515
η@@ 0.0187757521563946
д@@ 0.00177841419009118
т 0.0014477626711687272
у 0.0016692169870504369
ь@@ 0.003589884675485126
ק 1
اوسط 1
علی@@ 1
٥@@ 1
کن 0.4272862573210518
یم 0.4447053137204888
太@@ 0.01675446444256788
美 0.041961844740265285
Abu 0.053097279103814406
Alt@@ 0.020672701880855657
Brothers 0.04056969702266499
Champ@@ 0.022129259275327107
Dance 0.03796200245174907
Dir@@ 0.04030898983773918
District 0.00550409858311776
Fall@@ 0.04799997540316113
Films 0.03921097375707324
Forest 0.027894147056608344
Gru@@ 0.03001149067434838
Had@@ 0.042103624423114314
Journ@@ 0.034193030626326594
K.@@ 0.10022273148736884
Maine 0.03953347411109537
Motor 0.03560671695743542
Portu@@ 0.0266300159744112
Revolution 0.025671778997601324
Stud@@ 0.021263882821516755
Ung@@ 0.028902960657834813
Wehr@@ 0.04218540055172584
ators 0.011333119460728614
boy@@ 0.019163418299091333
car 0.005703376748322564
chia 0.0471063394329611
come 0.01108246372993511
cular 0.049300794643448755
editor 0.0195979643974959
edr@@ 0.01704454221757214
eign 0.011824159030337894
enh@@ 0.01049311364048606
ider@@ 0.03072630505440336
ities 0.006994009112903631
kir@@ 0.01856138082611078
kus 0.04093845722706876
lec@@ 0.015265367470621268
management 0.016040188623512478
mos 0.034691189316478244
nig@@ 0.06740768654740414
path@@ 0.027145266067405478
ply 0.009681418414968829
post@@ 0.016983260261652002
process@@ 0.026176201761530606
production 0.0054265558847514574
quin@@ 0.0304196392480854
sap@@ 0.08992995294939934
stre@@ 0.007583667185821022
stream 0.021603469259824242
sun@@ 0.023260384625572773
sup@@ 0.004714092916318999
tas@@ 0.017943081334719353
tot@@ 0.012826325861079483
tres 0.00410817078691095
zer 0.020452745650033684
ël 0.03604101592051878
ño 0.02066397084562452
ό@@ 0.01854908459649495
ի@@ 1
چو@@ 0.27431713988371725
ܪ@@ 1
べ 1
日@@ 0.011044044304654258
金@@ 0.012239709330321804
Centr@@ 0.048128739901183965
Chinese 0.010738624126620057
Civil 0.016926354057120844
Conference 0.016879218585764678
Cou@@ 0.035990676429252605
Ferdinand 0.03561460302601928
Giovanni 0.04098746800529758
Lud@@ 0.03917249867241994
Modern 0.03403148261025742
Other 0.010478911253768148
Priv@@ 0.03212385481892066
Roy@@ 0.0359118163103551
Russian 0.010634908070319712
Sir@@ 0.035175032395103174
Some 0.009844941940345709
Stil@@ 0.03249100692153226
VIII 0.04023160889838966
Vladimir 0.056180372554619246
Yor@@ 0.023752012441933784
affen 0.0314541580776581
berger 0.022532152973337147
chil@@ 0.018255915788931217
cir@@ 0.014051657302287548
class@@ 0.011075283487687188
cro@@ 0.005987757772178139
culture 0.010839437740730316
dings 0.020668954728608156
edition 0.016912229898334387
ehr@@ 0.01217679645456779
force 0.009241392876981445
func@@ 0.017709082883339895
hood 0.013424971112658335
igi@@ 0.03066074090726536
ilian 0.024681344696365057
imm@@ 0.016243585325247615
indic@@ 0.009638070291266556
ku 0.041754216004219455
kur@@ 0.008106999450249787
lang@@ 0.01052043497315115
liber@@ 0.009797880058742318
liga 0.015539317445145372
lim 0.024520974944712424
mir 0.03120724173676101
onen 0.008832663233692964
pon 0.022400410052393925
rag@@ 0.02965708289166377
rugby 0.023240485631335076
sha 0.07906816514226866
these 0.003604173522080464
thu@@ 0.02545363563861372
tur 0.0164751885460941
ult@@ 0.010782440775631296
xa 0.04609539959527649
ă 0.10295106141182779
Ν@@ 0.019074960215704637
στ@@ 0.014709534135798723
Ба@@ 0.008809422540290641
в 0.00017445501754657146
بلند 1
گا 0.2508529067376938
ܘ@@ 1
ი@@ 0.3936133090115122
オ@@ 1
ジ@@ 1
ッ@@ 1
也 0.005349584878299682
佐@@ 0.11855166225718192
東@@ 0.015113069681352011
Angola 0.08939671596748075
Ast@@ 0.03487991652831622
Bis@@ 0.03357939547425658
Ble@@ 0.042312795437157324
Boston 0.014925444863092757
Chile 0.01727658804118094
Dé@@ 0.012941574519164428
Exper@@ 0.03831950364521947
Extr@@ 0.047520342627092045
Feld@@ 0.034167313191641804
Jun@@ 0.02665368933446314
KK 0.10623078678990047
Kentucky 0.030693978683047473
Lan@@ 0.016615898119351755
More 0.029190656247285396
Nan@@ 0.048833574212573096
Ou@@ 0.03193476051022394
Person@@ 0.02046019627201146
Plan 0.032963979278425065
Rech@@ 0.024140020339387752
Sign@@ 0.03740993014162474
Tech@@ 0.03894823877814759
Val 0.04689928986198354
Was@@ 0.04421143027960194
Yah@@ 0.08844227088580839
aks 0.020095776626436763
alog@@ 0.019176498408051034
amount 0.019688151122992503
ances 0.005042808728383943
area 0.003064622263619355
articles 0.022790508043236953
bey 0.029454697793396774
capit@@ 0.014576462365562072
dies 0.010273138435209604
erine 0.08586678151023691
eto 0.0111612219205134
fun@@ 0.007736979073603181
geb@@ 0.005479453412586943
high 0.004004176159384768
ht 0.01701256869026141
inden 0.018508269691160893
iting 0.020832297764339675
kno@@ 0.010566194113256513
lies 0.008214188503225663
ligence 0.023689556307931677
mid 0.01171468800890226
mon 0.040526369542762314
nt 0.020044605331041108
ographi@@ 0.013908749436154177
omer@@ 0.05216325365859463
organ@@ 0.009114497119921721
parti@@ 0.006645078679345331
sian 0.023345144300926348
size 0.012253591447860545
tac@@ 0.02976628199779605
tec@@ 0.026406891503183944
times 0.0064178347349983685
tribut@@ 0.011100891444564599
tung 0.007694851790849291
ulu 0.03204513517055574
versi@@ 0.009443093733474227
virtu@@ 0.021489074191768976
voc@@ 0.006430685844424472
within 0.00479485075505128
ya@@ 0.09218600507723054
zaman 0.09608121653921559
zon 0.08519824280225803
çal@@ 0.08676276809099175
ès 0.007546284266131536
ég@@ 0.006256721335992899
ı 0.010658052849874965
ː@@ 0.6262317640367188
χ@@ 0.01303782101213766
С@@ 0.001975611647469085
к 0.0010659601208214194
у@@ 0.001189412721073821
سامان 1
عی@@ 0.4687795847353351
் 0.3287229041750377
ἐ@@ 0.620532371056827
™ 1
∆ 1
∞ 0.6355718046877755
⟩ 1
が@@ 1
ク@@ 1
一@@ 0.0028774645946849794
Bach 0.04325305592050073
Bach@@ 0.020272449067605024
Cant@@ 0.03168625907469081
Cape 0.028582798302628623
Channel 0.026285783221089033
Coc@@ 0.04961328852926523
Educ@@ 0.04063978947699954
Federal 0.017457488228579357
Ira@@ 0.025800946897541695
Kamp@@ 0.021036555730347312
Kri@@ 0.020434752831147963
Mex@@ 0.013733771931279294
Nap@@ 0.04222122005367734
Navy 0.012418177092923281
Pacific 0.014376362349418245
President 0.00763189073623953
Profes@@ 0.01792049073682591
Schw@@ 0.010588572986883352
Ten@@ 0.027953764228459254
Under 0.01818779648184873
Yan@@ 0.03622200658498873
aching 0.009121177978872685
adap@@ 0.01742154402393762
aha 0.032324191340118526
aise 0.012159433057462386
alar@@ 0.024925194023352498
alc@@ 0.06200255943266558
bai 0.039115847924558605
band@@ 0.014419656702952248
ble@@ 0.013166785375725706
bra 0.030403541768886835
bran@@ 0.00949420956115697
cus@@ 0.007988125160800734
education 0.007919156319094144
elling 0.010190309879889076
eton 0.02320304641972339
fall 0.008903673456772117
final 0.0033675260032967965
fs 0.011698137177124361
help 0.010560022669801645
host@@ 0.011393066483719495
ilit@@ 0.014751836348936486
ises 0.0076523271259927635
kri@@ 0.01587681344406966
lag@@ 0.010242669886923572
lidae 0.07363582686802914
nationale 0.011455792962482838
ob 0.0226152849411149
orph@@ 0.026229494015741858
oug@@ 0.021941167872064665
ouse 0.025237260874348806
quit@@ 0.013839981057062625
sens@@ 0.0286602887542054
speed 0.018406684015976667
tab@@ 0.012151470773329665
teams 0.008245904903465303
tice 0.052622752778396335
wall 0.017473997559143608
ymn@@ 0.09795089669785997
š 0.04744021331823148
и 0.00022442746940437748
к@@ 0.0019061532929289394
м@@ 0.0016859788827193628
с 0.0005208416831099834
انی 0.10883378176693856
نگ 0.18370787228233068
ܢ@@ 1
⟨ 1
・ 0.22280472441703264
海@@ 0.007717313708197418
Amer@@ 0.03396817857304249
Audi@@ 0.0388378531483349
Clu@@ 0.03594521461447827
Crim@@ 0.03401065558152828
Democ@@ 0.020308774388355277
Elisabeth 0.04645912749739375
Four 0.024426966717189576
Fron@@ 0.04644377232299586
Grande 0.019342568468416685
Hall@@ 0.03906567175092678
Jesus 0.029821697273567236
Luf@@ 0.03180018232279535
Muhammad 0.04135508613064816
NCAA 0.0254970380248218
Pra@@ 0.022578744302556446
Prin@@ 0.023262250210988735
Riv@@ 0.03968272652809846
Secre@@ 0.01378444274045788
Tig@@ 0.028186481750071955
Wis@@ 0.06532354179880703
Yel@@ 0.04332992198727554
afric@@ 0.03887259119565148
aries 0.010486703407925402
arti@@ 0.01085065935504847
asha 0.09171445164768871
ayan 0.033719573271578464
bec 0.02905124194572439
ben 0.005196185335087738
canc@@ 0.011683831063870036
development 0.006390550987593814
eca 0.03456956522084194
eger 0.03696710543841537
enburg 0.017241025098812788
ester@@ 0.0260191874509231
forman@@ 0.047287740411962126
hyp@@ 0.027472855755604576
imo 0.03210655412702024
initi@@ 0.009976842103984463
integr@@ 0.010835543209459801
international 0.005687492522393653
ires 0.007350044494400731
kw@@ 0.025232714055617143
led@@ 0.037926253396063224
level 0.006933665521903052
lu 0.028587881502383727
ordin@@ 0.010816360237861417
oti@@ 0.00948028400450218
ovi@@ 0.03097400329152195
pet@@ 0.03255055377524698
players 0.009902504885853506
pot 0.03120673020539213
proced@@ 0.02869764103217865
real 0.009895438641345504
resp@@ 0.006775281648807256
sional 0.0160453339498733
sou@@ 0.0035201975095953374
sts 0.019938772974440768
uel@@ 0.022021912814010402
ves@@ 0.03253020842325152
xi 0.05070610387406646
ça 0.027053082353002404
üt@@ 0.008650140801980526
ń@@ 0.03561722516040902
Ž@@ 0.05888114936569098
Χ@@ 0.019739815649795663
όν 0.06698000873839768
й 0.0016652155813054019
ש 1
دید 1
سک@@ 0.2934670915409684
فروغ 1
ملتان 1
ざ@@ 1
マ@@ 1
ル@@ 1
ン 0.32410661720504436
島@@ 0.06768765385889776
雄 0.0698650111035136
After 0.0024112565456262764
At 0.0035431695761501333
Beng@@ 0.025664076187809436
Bog@@ 0.025336703643219414
Constant@@ 0.033415180459101794
Corps 0.016643885141415564
En 0.00072385581075934
Fort@@ 0.043333731318350104
Gel@@ 0.012047647430611827
Gem@@ 0.018280444589536524
Hof@@ 0.0239566602779403
Jor@@ 0.07181427448878593
Josef 0.03610820483957109
Kong 0.017470285253448656
Lak@@ 0.02450753596534145
Lav@@ 0.028271269782265164
Miss@@ 0.045640581545535325
NCA@@ 0.13341868509224958
Nep@@ 0.03642036014554706
Orange 0.037908366553782366
Sound 0.03467700889757107
Tos@@ 0.05625023702032357
Toy@@ 0.04409904081782067
Trich@@ 0.08171161268247007
adv@@ 0.00771238273491219
aku 0.08077799523962809
aling 0.01899959784790875
apa 0.024982733176424972
bra@@ 0.07709531068404227
cic@@ 0.03385836211163481
city 0.003121066760532893
cla@@ 0.012807671261463087
dou@@ 0.007280676420061024
ener 0.009061522705720726
ener@@ 0.01988767712447631
exten@@ 0.007589686416991569
gas@@ 0.019750548429284174
head@@ 0.006373657684872254
heim 0.011666920569363073
igner 0.027383010172629316
ily 0.011248784239982604
ished 0.007943578817570351
ized 0.009288333298513637
master 0.016104545895548772
mut 0.04616118874318789
oc 0.041673204329434985
pir@@ 0.03757751930705695
plo@@ 0.03820276281561652
poem 0.031555358822578844
programm@@ 0.015484512166650035
quel@@ 0.025181531516663323
quer@@ 0.034643375120691995
red@@ 0.014897797218641965
rent 0.019970444948683348
school 0.002882472691782523
ska 0.03252766539119797
species 0.004174202195994134
sport 0.01708415744198996
tax@@ 0.018114613448649584
tique 0.009887278416169614
utive 0.008844077533761133
women 0.005138491461330331
ύ@@ 0.017887970743575832
ώ@@ 0.030272771919778074
Ми@@ 0.007591117107407098
مخصوص 1
٨@@ 1
٩ 1
پان@@ 1
کت@@ 0.7800153926956112
ۚ 1
ܬ@@ 1
ⵜ@@ 1
福@@ 0.019456048967104435
谷@@ 0.15342750104344421
20th 0.016984823507935794
Asp@@ 0.048352967404359175
Bag@@ 0.025833014764785975
Born 0.021323782627782003
Buff@@ 0.029261968611511473
Dep@@ 0.022327427012438953
Fat@@ 0.06714007866313292
Freder@@ 0.05625208998557174
Fré@@ 0.044625457146984196
Gö@@ 0.020040222806226148
Initi@@ 0.019012851289643102
Mau@@ 0.027535817481267398
Russia 0.01379397794009224
Ré@@ 0.008972465100054436
Slo@@ 0.020948064643254948
Sol 0.05660798485370782
Tir@@ 0.02841196690903525
Top@@ 0.028351544626908948
Vinc@@ 0.07529826500770338
abri@@ 0.023994596572420326
archi@@ 0.02742140900285334
architecture 0.019273426818131795
arts 0.013596600893021855
auer 0.009761440946117394
auto@@ 0.014123160993287654
bad 0.026520787413442295
bank 0.01307280346306822
books 0.011140546532973904
brand 0.023053013694646175
cent 0.012263602440426723
compon@@ 0.018845588583160943
conditions 0.012890488279000741
enci@@ 0.007123575488580571
eppe 0.04011139762593311
esi@@ 0.029985959797599042
fier 0.024295148498871127
hio 0.22770822966773882
hiz@@ 0.06857444483109862
ici 0.026588137092626557
ieve 0.015673613664054696
known 0.001918919344219932
lich@@ 0.00924266461271351
mari@@ 0.012006374270167885
mur@@ 0.008588132081340797
oil 0.018516566876321403
oir 0.010693419852529237
oral 0.030303356891402282
otes 0.02720855650190257
otte 0.019235236653220238
phase 0.015189081188415889
plant 0.010915457652984588
por 0.000595868819571797
prob@@ 0.00550186792091685
ria 0.0454603742555914
rock 0.007835563199067768
undo 0.060878399687715606
unga 0.08855628159963166
uru 0.04578616553770609
vy@@ 0.14272088448360862
west 0.004135645893877772
what 0.005191726590481993
ß 0.0056792222772797515
än@@ 0.004268598193378484
ή 0.006245108407479146
евич 0.011578730934916447
ская 0.0033338284832595886
я 0.0015987528650005837
ائی@@ 0.16614603464124977
٭ 1
کار@@ 0.20344205432037055
ῖ@@ 0.9071143900848638
∙ 1
崎@@ 0.2391739831290614
� 1
Ba 0.04354520426383377
Christ 0.02516115321440366
Dod@@ 0.034698246385016736
Hollywood 0.022590248601427162
Hul@@ 0.03312004658859031
Indonesia 0.030662708191170375
Jur@@ 0.020512113867056952
Kre@@ 0.012438027219222728
Las 0.005395393535901006
Mang@@ 0.038317138492011786
Mih@@ 0.07815415705314699
Stars 0.035388670836325985
Syria 0.04982616466066456
Yak@@ 0.0599272138882458
Yıl@@ 0.11255527821806732
Zen@@ 0.030891518022952008
access 0.01424018865736895
ador 0.003900801871957763
apar@@ 0.01660404429808989
appro@@ 0.00541483842459228
aten 0.004794215503175806
atz 0.03271133929467003
cum@@ 0.01762349589156654
emann 0.04464939800621017
ember 0.02297557792899121
entry 0.019820777646760736
eye 0.025337103043502198
figure 0.0161618674440172
ful@@ 0.031180628631447195
gesch@@ 0.003545990603100636
gran@@ 0.024312727711306995
human 0.009850207271982993
idel@@ 0.020160990771873905
iden 0.00919175073834782
indi@@ 0.00730493168607999
jam@@ 0.06842216225332305
led 0.002245151914763524
liche 0.0023705483438416384
love 0.013608152335940612
lut@@ 0.02348487681631678
natur@@ 0.007576190022882612
nie 0.017123530311297284
once 0.006568229151686446
orn 0.028519514194870067
oro 0.016588189600588443
oty@@ 0.022429700699935683
para 0.0009877417644265979
rad@@ 0.01774395543157875
raz@@ 0.03212108953447664
recep@@ 0.030191197475644083
rol 0.0374469397098958
ron 0.03914193381245905
sign@@ 0.00776239426989083
station 0.0030995353404169286
suff@@ 0.006066082357101033
tag@@ 0.013164010438972154
tico 0.007442263703243111
tit@@ 0.005900580196565894
tum 0.030721532485696566
tura 0.010331290726713663
tés 0.01782131681817793
uda 0.05492179066282643
ustr@@ 0.016962602312172764
ution@@ 0.021438421465194098
zone 0.011540390852303234
­ 0.04999966122517913
ém@@ 0.006961100706835823
íos 0.038836839396327684
ór@@ 0.012451080794134511
üm@@ 0.013591042277436153
ħ@@ 0.9075031795320059
Β@@ 0.015843774592271626
έ@@ 0.012808492205157274
ζ@@ 0.017906439136529777
υ@@ 0.0197316311326889
Бе@@ 0.008839952553329353
М@@ 0.0039044966470640234
а 0.0014946902047207247
т@@ 0.0015169107552068357
ц@@ 0.004201376392316723
ь 0.003019201733165157
جھ@@ 0.32298917943502997
صی@@ 0.8459507899637482
غیر 0.2204869190227912
فرنس 1
پر 0.011953155360228907
گو 0.5185041484121574
∪ 1
☆ 0.8701640504993832
シ@@ 1
ト@@ 1
ラ@@ 0.9232203164491677
口@@ 0.04592783535352235
동@@ 1
2nd 0.013324974013406115
Brazil 0.02163803116939854
Chir@@ 0.04959922285593715
Commission 0.011872428448358343
Develop@@ 0.12369723465039457
Edu@@ 0.056751468885490194
Gul@@ 0.018767479657826734
Institut 0.01755574183777485
Marvel 0.04231998749155249
Nach@@ 0.006768596468679118
Nikol@@ 0.028223743504336707
Pass@@ 0.019645645987985617
Pop 0.03805312682212328
Rac@@ 0.050670737193055794
Sonder@@ 0.03815020895633993
Sultan 0.04025836575453384
They 0.002991685833586893
Vor@@ 0.0026332500809351754
Zel@@ 0.047516106577188404
aces 0.009757662465522687
actions 0.010140503588401384
ague 0.017325645470076513
alla 0.02136915072966222
amber 0.024786288436425993
asing 0.01649544554369168
bad@@ 0.02808921300919397
bile 0.02440384912262506
bras@@ 0.04012302127203069
chor@@ 0.021984565581460173
construc@@ 0.008448932564913995
depend@@ 0.015181883898210322
encia 0.002793799834424273
g. 0.020722239138649172
ground 0.005697479050975816
ief 0.014395549322064
isches 0.014958109802440717
ising 0.012943051781316304
iste 0.004701811762212954
jum@@ 0.021766004981027744
lied 0.011052914276230303
ling@@ 0.01684107405332086
ls 0.009196065944702063
mam@@ 0.03225825088277145
mechan@@ 0.013874125997602805
member 0.003389073105383433
met 0.005580643285332709
nas@@ 0.023987470893058655
oking 0.017411682046456795
population 0.002715160297276441
radio 0.007408869465853412
ren 0.039855883883762995
stage 0.00805441580912323
star@@ 0.006070702358272214
sten@@ 0.028905374349866814
syl@@ 0.043176790589027056
tes@@ 0.018759662627657513
three 0.0017047576123904666
tific@@ 0.01503550916165183
tran@@ 0.010266006164527015
tz@@ 0.031050959215554022
usion 0.0236830964267169
äl@@ 0.005378515283893396
érie 0.02943385009361122
ū 0.035170399942198734
ə 0.30104877232293453
αμ@@ 0.03698329297811586
К@@ 0.002805226486394819
сь@@ 0.02768510194931958
ס 1
آمد 0.9500954097896328
اگ@@ 0.3187261939159493
لائنا 1
٤@@ 1
ٲ@@ 1
ば@@ 1
林@@ 0.017947333344950963
대@@ 1
Administration 0.02247284262305257
Airport 0.01784538767313468
Argent@@ 0.019322136051078277
Atlantic 0.01900755200167255
Bapti@@ 0.02243703424744441
Baş@@ 0.06768797351059737
Bug@@ 0.048681186962466316
Chev@@ 0.030503014538879165
Dad@@ 0.04149564413480483
Early 0.006949602729271178
Groß@@ 0.008748068880664284
Han 0.03663426610312292
High@@ 0.02286317137944344
Hind@@ 0.05064891003185406
Jug@@ 0.03911270496925838
Jung@@ 0.03422694068312017
Key@@ 0.03562297017254597
Lap@@ 0.04768324631503593
Lo 0.047669639671211524
Margar@@ 0.04796640837550763
Marine 0.01843834484596055
Maxim@@ 0.02814315302002002
Sali@@ 0.06867966455620038
Sport@@ 0.013335460402878844
Suc@@ 0.03710622656097122
Tennessee 0.022576101932732122
Tokyo 0.02200249175161729
Tul@@ 0.033200113911104036
Wolfgang 0.036606169542534664
acer@@ 0.028141429050678
achi 0.041063074264325476
adu@@ 0.03514133472678537
airs 0.01130065036093031
alog 0.041397488226040176
amer@@ 0.011272055948679917
annel 0.01700593307975214
anos 0.008191253766072753
champ@@ 0.05131006756853414
chron@@ 0.023315419178776713
complex 0.014736584211728503
conduc@@ 0.006945229407221907
dea 0.04517634735140371
eshi 0.10985133338508474
fan@@ 0.034600082939317774
fir@@ 0.005705623689684747
gan 0.031336853766468234
greg@@ 0.019128045809902332
hii 0.12700646956254602
inen 0.015473947023811387
iner@@ 0.04682064092912153
integ@@ 0.028563549392862153
iso 0.04280789500345235
japon@@ 0.01677799482182624
kun@@ 0.024294896741881584
leist@@ 0.01970017694274853
mah@@ 0.04129469106092647
metal 0.014697628941589961
modi@@ 0.014187826534066025
ned 0.007307448467166653
oca 0.024464707435106207
oll 0.0302648863558097
ool 0.08215276756373825
princip@@ 0.024074481096636256
raine 0.046200862494737704
servat@@ 0.020079254180815558
sta@@ 0.0197978097445075
start 0.010192768658703475
taine 0.02618791789688821
thus 0.011521826751013854
u. 0.01744050933070463
uss 0.01225674907364147
vec@@ 0.018076760659738303
zur 0.0018665782654609072
î 0.06157637948783437
ɛ@@ 0.630284035282352
Γ@@ 0.023038164372775564
ρο@@ 0.01874014578192876
σι@@ 0.02609179736561733
г@@ 0.0020226916394867713
ный 0.0013940729712738392
ра@@ 0.001679793320351845
յ@@ 1
ادی@@ 0.604272642178789
نی 0.10813187624253838
٦ 1
پا 0.6926472313854871
ܡ@@ 1
რ@@ 0.4699726610909712
ⵔ@@ 1
せ@@ 1
武@@ 0.018453991432416095
---- 0.9494523549854862
Apol@@ 0.03671283524094267
Argentina 0.012134825050366456
Dut@@ 0.07334565319900628
Eb@@ 0.017828865808053377
Gan@@ 0.026529023484162362
Graf 0.03795950343915114
Iowa 0.023424563289207192
Iran 0.015035480190016529
Jes@@ 0.0275011564347373
Jorge 0.030304845911292205
Kauf@@ 0.03447831989174911
Laurent 0.04228366778108927
Maf@@ 0.0812235010970802
Memorial 0.021590086477223998
Nom@@ 0.041028887379722705
Prof@@ 0.019429031665616197
Prov@@ 0.021265477716720844
Sas@@ 0.04954501573232873
Société 0.03128808941197522
Son 0.007224447239167096
Stand 0.016162190867853487
Su 0.006179972518599158
Sud@@ 0.022239424531191567
Town 0.012322840009950846
Version 0.02902741948033943
apr@@ 0.038574838845060896
aring 0.012845499681951483
atar 0.04105911228150686
ations@@ 0.008693588791192265
aup@@ 0.028165407252230365
ause 0.010641493582097192
aza 0.01425736330624946
aç@@ 0.014494955129303154
ball@@ 0.01249095680167127
blan@@ 0.010597580171067518
bloc@@ 0.015294837098045945
broad@@ 0.008095712805239201
building 0.0037733155102628677
carri@@ 0.006966474097927438
coll@@ 0.005405701219138855
country 0.004742401980510351
ebe 0.023998684699505984
ei@@ 0.021096944645941716
election 0.004162699928908567
eling 0.018444499874250096
ers@@ 0.022606151715731822
feld 0.010734974578242518
fru@@ 0.01421877490385723
gan@@ 0.008177953564735229
ically 0.005777453933296953
idential 0.011893360954913333
image 0.014747364385978467
jun@@ 0.024099696634645854
ka@@ 0.04409697495030993
late 0.004592891950326041
lic@@ 0.00754721381880909
lieb 0.13388981674350542
magazine 0.00961851198084564
nat@@ 0.012847257729694049
next 0.005476763124515166
ools 0.036587815636659395
othe@@ 0.02562566449483097
peti@@ 0.009315868159675302
pole 0.020339104564807312
program 0.006579494160652936
project 0.007468724084556393
rel 0.03734745210164768
stadt 0.006786486163271872
teur 0.004916194627305702
town 0.0030566083389863595
unter@@ 0.002371106419622754
urg@@ 0.010052452029264561
vas@@ 0.01632828055204577
vat@@ 0.0649034297248994
working 0.006480073423814282
would 0.001405911413592281
xin 0.07969731662899307
Öz@@ 0.0475847084252294
ères 0.004255241670082945
ét@@ 0.004329557961629085
ğ@@ 0.019403666842623162
Ο@@ 0.02008170117312191
ια 0.015774381766757786
ών 0.008950737087210267
Р@@ 0.004486937021843497
з@@ 0.0019674876532901594
ль@@ 0.001109995801505557
э 0.01915618571233961
گل@@ 1
ি@@ 1
え 1
カ@@ 1
彦 0.7351798222754475
明@@ 0.014904057866859163
橋@@ 0.1909782898426208
水@@ 0.010041161495186367
7,5 0.07614746913879027
Brook@@ 0.02216113621914833
Chal@@ 0.040625756499413315
Congress 0.012786102679314333
Führ@@ 0.020525746413657415
German@@ 0.03457995966799176
Hak@@ 0.03899264770913378
His 0.002814184655512068
Hist@@ 0.05652235870434086
Ich@@ 0.088320875948053
Ide@@ 0.025818047901337165
Infr@@ 0.030496180575800075
Len@@ 0.02257935274868661
Mb@@ 0.18420485598197614
Naz@@ 0.030697812242117414
Port@@ 0.020673078285368355
Rak@@ 0.04241516088864082
Rat@@ 0.029430773297281953
Roll@@ 0.05710368781374101
Stat@@ 0.02927732454445811
Station 0.010949005237511982
Tai@@ 0.017670491880610716
Tib@@ 0.02645020252978075
Universit@@ 0.021781148095673036
agi@@ 0.037906420594070726
aster@@ 0.020546717428359992
base 0.004886288560415466
bis@@ 0.02103591606082446
bun@@ 0.019747990577764794
classi@@ 0.007767201214435789
cog@@ 0.03521864059084201
common 0.006978458939511019
during 0.0014430147820957422
electr@@ 0.014974604143146476
elor 0.01957476945242434
ende 0.002790795764854637
endi 0.05081979880156247
eux 0.005185384355139061
eza 0.013829191180457407
frag@@ 0.012348186810138254
iment 0.010597779905663327
inin 0.015027234039279996
isten 0.005250397742631071
jur@@ 0.0058038839988414845
lara 0.016082008441451277
leb@@ 0.016907391967297444
nu 0.04833434108811061
orer 0.03756473958394835
oss 0.022706974146138353
quir@@ 0.036500419830208596
ras 0.030548700294355226
record 0.004353449893938329
rev@@ 0.008826295648166605
rid@@ 0.015172178564320796
rig@@ 0.0176202640016176
say@@ 0.006920059749064318
sein 0.002893830746924455
sep@@ 0.06237262718195265
soft 0.04818889364209456
spo@@ 0.008399399695566087
sym@@ 0.015750571627238835
tad@@ 0.010036818468534601
tag 0.014077107845699328
tary 0.009198339526625859
teilung 0.014308282945999751
third 0.0039267135650797634
total 0.0033157230758011063
tour@@ 0.004659469051536451
ural 0.0200869843126901
wak@@ 0.018502761697983622
yel@@ 0.020690637980281663
ün@@ 0.0049508830231879295
ǎ@@ 0.354550921036239
ː 0.3492879718902906
αν@@ 0.009556961293131496
μα 0.0223059036546456
ре@@ 0.0011597302831967621
с@@ 0.0009709230440425747
سامنا 1
پی@@ 0.06789272956013089
ۡ 1
ὐ@@ 0.916048407211215
≠ 1
に@@ 1
タ@@ 1
健@@ 0.07288700898981285
吉@@ 0.019579090642502028
新@@ 0.006040779705539475
由@@ 0.017431833823663496
3. 0.011986525324366584
Alter@@ 0.021175424648984958
Apo@@ 0.043156184137993256
Baba 0.11425227841312777
Bron@@ 0.01869569988717891
Creek 0.012627199077440818
Crist@@ 0.03666077780355814
Ehr@@ 0.01601977823896308
Gur@@ 0.03308686237192054
Gustav 0.03809015349685272
Itali@@ 0.027948430919952496
Kiy@@ 0.17828704834150702
Kro@@ 0.04358333970967841
Lad@@ 0.028630670747175083
Loire 0.029195426474220208
Maryland 0.02140155118429502
Milan 0.02668449192577045
Milli@@ 0.020129061960213038
Nec@@ 0.05532102412960815
Ng@@ 0.01624649739437114
Pakistan 0.015889953023864648
Production 0.020881165749048917
Sev@@ 0.048107862772828906
Tes@@ 0.04293335050517783
Turk@@ 0.01925066252407765
abor@@ 0.012178333776403037
ados 0.0014149580519468678
aines 0.00912516086874925
ald@@ 0.051371400352276206
ament@@ 0.012425439958983483
[...]
