на 4404128
. 4389392
, 4172187
и 2478625
в 2040016
е 1894451
от 1472687
се 1014940
с 1004711
( 964235
) 964196
за 925427
@-@ 862337
да 724604
„ 677459
“ 671893
&quot; 646002
са 517555
ни 485071
по 469055
– 441593
г 432187
ва 411776
г. 410489
ната 409273
но 408655
ните 404492
на@@ 403779
като 391959
през 383030
си 373573
т 344786
ния 336771
из@@ 328624
ли@@ 318984
ка 316021
по@@ 311878
ски 299386
а 293886
л 288041
до 287365
н 283052
за@@ 282995
л@@ 276317
с@@ 273069
година 265319
о@@ 262717
ре@@ 255350
През 254786
В 246603
ри@@ 246074
съ@@ 242366
пре@@ 241461
у@@ 240605
не 240224
му 235458
но@@ 232146
ка@@ 230172
я 230148
ска 229486
не@@ 228590
от@@ 227384
ли 225694
ни@@ 224209
ра@@ 222380
ти 220230
А@@ 219161
та 219120
е@@ 218530
че 217321
ти@@ 216734
де@@ 216091
р 214511
ле@@ 213584
ската 212647
раз@@ 212645
ват 212305
ви@@ 212163
ко@@ 209784
до@@ 209380
ра 208419
д 208125
к@@ 207111
к 206543
С@@ 205470
ди@@ 197992
: 197731
Е@@ 196287
в@@ 192934
ла 191371
д@@ 190517
ва@@ 188946
си@@ 187478
м@@ 185821
ския 182632
й@@ 181597
ми@@ 180062
ция 179649
ното 178354
т@@ 178019
О@@ 177942
ите 177774
а@@ 176442
мо@@ 175689
ки 174249
про@@ 170705
те@@ 169656
се@@ 168480
ро@@ 168409
па@@ 166898
я@@ 164212
ване 163804
ла@@ 163803
н@@ 163455
ма 157765
з@@ 155709
ци 154869
ло@@ 154586
това 153740
към 152144
ката 151251
ма@@ 150668
ът 150472
ри 150463
то 150040
б@@ 149631
п@@ 148507
при@@ 146519
то@@ 145653
които 145558
х@@ 145556
ди 145461
г@@ 145037
или 144823
ж@@ 143756
най 141772
ят 141500
ност 141356
ве@@ 140138
при 140127
ст 139904
ята 139708
който 139249
след 138804
ви 138147
Б@@ 136639
И@@ 134832
об@@ 132099
ст@@ 130726
На 130040
ку@@ 127817
ш@@ 127548
бо@@ 127489
те 127300
Д@@ 125897
га 125437
го@@ 124697
ден 124365
ските 123663
ник 122857
че@@ 122769
ф@@ 122666
фон 122444
м 122299
във 122270
; 122009
ата 121970
би@@ 121790
ч@@ 121789
да@@ 121301
ме@@ 121215
има 118651
о 118299
ването 117903
лен 116429
пи@@ 115313
сти@@ 115181
и@@ 114943
под@@ 114569
са@@ 114440
ля@@ 114385
К@@ 113926
ство 113681
ско 113557
ко 112575
та@@ 111598
ството 110743
пе@@ 110012
У@@ 109707
ба@@ 109060
част 108863
време 108559
ъ@@ 107845
бе@@ 107100
во@@ 105472
ското 105371
га@@ 104992
зи@@ 103998
р@@ 103677
В@@ 103524
която 103253
П@@ 102997
ният 102556
години 102311
цията 101282
След 100902
което 100811
нието 100797
во 100209
град 100207
Ко@@ 99829
й 97971
Ма@@ 97798
ени 97452
ци@@ 97442
ето 97431
ру@@ 96947
със 96818
1 96531
По@@ 95378
той 94887
Т@@ 94871
хо@@ 94083
ници 93684
ър@@ 93454
ми 92612
со@@ 92419
го 91924
рия 91159
ан@@ 91103
ц@@ 90431
Ка@@ 89107
2 89078
ло 88890
Х@@ 88624
ду@@ 88420
сто@@ 87807
рите 86985
ал@@ 86791
вен 86595
ста@@ 85904
ките 85393
въз@@ 84787
чи@@ 83711
ща 83406
ин@@ 82890
За@@ 81704
По 81564
М@@ 81292
ен@@ 81182
Н@@ 80543
Г@@ 80262
става 79642
Се@@ 79413
/ 79319
ки@@ 78615
На@@ 78129
ците 77955
ства 77626
лни 77620
България 77025
Съ@@ 76853
чен 76349
лна 76030
между 75833
около 74438
Ф@@ 73864
век 73665
ността 73636
пред@@ 73609
много 73355
От 71908
лите 71425
ча@@ 71395
3 71335
Той 71107
ве 70697
ър 70670
село 70089
Ми@@ 69767
кра@@ 69439
же@@ 68950
16@@ 68666
ар@@ 68410
Ви@@ 68193
ше@@ 68001
ек@@ 67679
където 67424
гра@@ 67327
ту@@ 67318
ца 67317
ба 67181
† 67096
зо@@ 66712
ние 66506
може 66501
ще 66499
лно 66133
ѝ 66111
нията 66048
рат 65956
ля 65772
един 65634
ги@@ 65263
вър@@ 65169
З@@ 64973
ен 63986
вата 63930
су@@ 63902
бу@@ 63810
хи@@ 63497
ц 63424
Бо@@ 63225
Л@@ 63110
п 62854
у 62811
би 62380
рен 62068
нов 62057
зе@@ 62051
война 61890
4 61707
чни 61445
както 61390
ит@@ 61251
жи@@ 61233
други 61230
15@@ 60341
също 60055
Са@@ 60047
ха@@ 59973
под 59816
Па@@ 59750
ю@@ 59691
Ре@@ 59516
им 59426
мен@@ 59366
ет@@ 59294
це@@ 59095
Де@@ 58506
ции 58299
17@@ 57989
ге@@ 57925
пу@@ 57573
ява 57525
сти 57348
Ба@@ 57274
Р@@ 56978
Не@@ 56885
щи 56788
ат@@ 56639
бург 56632
мата 56459
този 56050
5 55945
ч 55831
ръ@@ 55620
дена 55506
Ро@@ 55354
ск@@ 55214
лу@@ 54959
ран 54944
мъ@@ 54775
жда 54666
вид 54577
Ха@@ 54393
започва 54362
доб@@ 54298
йски 54119
Ш@@ 54081
ор@@ 54075
6 53992
щата 53731
Из@@ 53727
щ 53434
тен 53286
То@@ 53273
чно 53191
чи 53076
Си@@ 53040
щ@@ 52903
лия 52892
късно 52818
С 52573
До@@ 52555
ши@@ 52471
само 52347
три@@ 51701
з 51678
ран@@ 51678
ста 51502
Ц@@ 51400
края 51332
Ку@@ 51259
фе@@ 51256
още 51192
гла@@ 50925
Ли@@ 50908
фи@@ 50840
кри@@ 50766
ня@@ 50666
стра@@ 50274
де 50268
гу@@ 50261
тур@@ 50246
жи 50210
ак@@ 50079
он 49989
За 49958
ря@@ 49807
ш 49645
он@@ 49626
I 49542
души 49522
Ар@@ 49484
над 49484
кон@@ 49335
него 49244
вия 49151
ман@@ 48919
Ме@@ 48380
път 48367
чески 48189
лата 48156
13@@ 47949
10 47892
една 47892
Ан@@ 47842
срещу 47453
ъл@@ 47256
сла@@ 47240
тре@@ 47192
14@@ 47168
ги 47131
20 47074
ван 46966
Про@@ 46683
Ал@@ 46672
ков 46667
града 46645
Пре@@ 46557
така 46426
когато 46124
зна@@ 45939
ан 45811
Ра@@ 45758
му@@ 45671
Ру@@ 45638
Биография 45618
Ле@@ 45566
ница 45553
Ю@@ 45475
Мо@@ 45175
m 45083
ден@@ 44926
граф 44910
български 44851
началото 44834
мест@@ 44658
ският 44456
няколко 44373
ж 44362
ф 44362
фа@@ 44349
ке@@ 44343
къ@@ 44278
всички 44215
II 44177
селото 44078
ро 44050
лъ@@ 44042
въ@@ 44013
7 43920
пла@@ 43800
х 43707
тя 43547
Бе@@ 43006
висо@@ 42769
ща@@ 42727
8 42690
вете 42670
род@@ 42462
два 42239
km 42134
семейство 42093
рани 41948
тях 41930
чер@@ 41848
ур@@ 41687
фо@@ 41676
ране 41622
дени 41400
река 41131
гле@@ 40860
София 40768
създа@@ 40552
Я@@ 40432
рата 40401
па 40374
две 40305
вите 40301
Ди@@ 40212
лен@@ 40041
ха 39907
май 39887
септември 39788
бро@@ 39778
При@@ 39747
пол@@ 39712
пъ@@ 39660
Би@@ 39418
ено 39400
дъл@@ 39293
вой@@ 39248
Лу@@ 39244
що 39120
кръ@@ 38995
лин@@ 38987
пер@@ 38944
ител@@ 38942
кла@@ 38922
заедно 38916
зи 38883
Това 38793
кан@@ 38636
Пе@@ 38486
% 38472
сен 38468
ьо@@ 38407
ша@@ 38385
край@@ 38380
15 38278
получава 38243
сте@@ 38221
лят 38169
тите 38144
б 38136
Пър@@ 38057
кия 38035
тези 37996
нява 37992
ника 37952
място 37866
Ки@@ 37839
национа@@ 37838
йн 37684
ниците 37676
лото 37617
Га@@ 37593
тази 37588
Мар@@ 37438
Според 37335
берг 37300
лич@@ 37230
- 37228
дъщеря 37223
ров 37169
лан@@ 37034
имат 36935
януари 36900
ев 36838
откри@@ 36834
жени 36697
Ве@@ 36664
жение 36594
намира 36478
9 36419
октомври 36417
Пи@@ 36405
ера 36398
дни 36181
САЩ 36174
преди 36133
върху 36100
дъ@@ 36089
юни 36035
спо@@ 36018
нение 36010
тър@@ 36005
ате@@ 35943
12 35893
вя@@ 35867
юли 35861
30 35839
чна 35824
вла@@ 35735
основ@@ 35704
три 35703
Ч@@ 35701
Го@@ 35677
името 35665
август 35605
лната 35494
различни 35461
Македония 35457
жа@@ 35406
бъде 35404
Об@@ 35356
стта 35328
ер@@ 35311
чрез 35074
март 35048
сре@@ 34945
ности 34896
полу@@ 34887
нен 34846
тан@@ 34773
област 34740
ско@@ 34603
април 34551
кар@@ 34525
мо 34510
3@@ 34414
тра@@ 34406
жен 34317
град@@ 34305
us 34295
син 34266
йки 34257
отде@@ 34122
ноември 34096
ман 34011
Ло@@ 34010
Йо@@ 33987
работи 33978
оби@@ 33952
декември 33827
бра@@ 33792
тъ@@ 33755
община 33743
мия 33568
стро@@ 33458
А 33421
рана 33354
Ж@@ 33205
мат 33193
еди@@ 33156
Ла@@ 33057
пло@@ 33030
Да@@ 32896
мар@@ 32840
дава 32828
Хо@@ 32771
казва 32675
дру@@ 32565
ос@@ 32550
вод@@ 32490
История 32404
&amp; 32371
12@@ 32273
бор@@ 32118
пра@@ 31990
жда@@ 31906
ати@@ 31895
ани 31885
дър@@ 31830
рав@@ 31819
Бу@@ 31801
някои 31781
мал@@ 31720
Ри@@ 31719
Кон@@ 31632
група 31630
ну@@ 31509
дия 31502
дей@@ 31490
ска@@ 31471
нски 31405
оръ@@ 31358
чу@@ 31349
често 31339
мен 31254
ча 31107
само@@ 30886
От@@ 30851
лю@@ 30806
ита 30793
след@@ 30781
цата 30778
рай@@ 30750
ков@@ 30684
нея 30675
сред@@ 30673
Гра@@ 30616
вани 30601
При 30454
нето 30446
тя@@ 30446
16 30435
ите@@ 30384
ся@@ 30372
тни 30330
дя@@ 30300
игра@@ 30299
жа 30234
ме 30229
страната 30226
тия 30217
води 30201
Те@@ 30131
уч@@ 30129
ед@@ 30094
000 30087
роден 30085
.@@ 30008
Тя 30005
ата@@ 29984
Но@@ 29974
стъ@@ 29965
ител 29942
пис@@ 29903
хе@@ 29855
им@@ 29793
опреде@@ 29761
използва@@ 29760
18 29721
сел@@ 29718
ление 29714
вен@@ 29703
гар@@ 29693
зва 29657
послед@@ 29653
нове@@ 29639
февруари 29636
тен@@ 29581
11 29498
4@@ 29373
вайки 29373
14 29308
Ни@@ 29289
Ва@@ 29256
език 29141
Ста@@ 29127
ши 29112
сия 29097
25 28959
вече 28857
зем@@ 28790
Те 28782
вто@@ 28761
19 28603
Су@@ 28596
рин@@ 28592
могат 28538
сред 28537
ари 28491
Ин@@ 28482
гия 28479
прави 28431
Та@@ 28425
лов 28361
център 28359
шен 28323
изпъл@@ 28302
ун@@ 28264
пр.н.е. 28233
дра@@ 28168
Ти@@ 28160
бре@@ 28140
кул@@ 28129
империя 28105
запа@@ 28081
пар@@ 28077
пъл@@ 28015
чо@@ 27958
граф@@ 27948
вана 27946
сле@@ 27847
пле@@ 27815
вар@@ 27795
ней@@ 27783
тата 27756
све@@ 27693
ем@@ 27680
сло@@ 27668
13 27607
лния 27597
Разпространение 27587
бя@@ 27533
тно 27533
мина@@ 27528
Видът 27505
нов@@ 27494
повече 27477
работ@@ 27390
университет 27389
над@@ 27303
Италия 27297
мини@@ 27202
завършва 27191
отново 27189
части 27176
щия 27131
17 27106
Северна 27106
джи@@ 27075
рът 27038
Раз@@ 27003
вания 27002
без 26956
нат 26900
ген 26894
бил 26873
рен@@ 26862
ет 26850
използва 26813
лните 26797
тът 26687
дата 26523
участва 26522
Кар@@ 26517
страна 26500
жен@@ 26464
плани@@ 26450
мите 26439
ждат 26360
кло@@ 26325
край 26312
стъп@@ 26300
Му@@ 26219
едно 26190
него@@ 26088
жители 26062
юж@@ 26046
специ@@ 26037
лет@@ 26014
лек@@ 25945
училище 25903
фор@@ 25898
син@@ 25893
стве@@ 25815
дж@@ 25813
населението 25720
гат 25696
сезон 25636
височина 25635
наре@@ 25606
бър@@ 25577
бата 25567
пи 25544
вер@@ 25540
Най 25536
ша 25510
вени 25508
бан@@ 25436
поради 25428
мла@@ 25423
мът 25417
собстве@@ 25405
тро@@ 25402
мати@@ 25368
световна 25269
трябва 25269
първата 25182
рията 25176
ьор 25162
периода 25130
Сто@@ 25101
твър@@ 24972
Че@@ 24938
нова 24935
рането 24930
малко 24920
представ@@ 24871
обаче 24839
свър@@ 24838
мет@@ 24826
юго@@ 24820
зва@@ 24788
Ду@@ 24774
йския 24706
ато@@ 24625
Фран@@ 24617
според 24602
север@@ 24513
III 24495
&apos; 24428
име 24425
хра@@ 24423
сън 24365
голяма 24356
гре@@ 24196
спи@@ 24184
щат 24175
вена 24167
цион@@ 24079
ниче@@ 24049
Германия 24019
обя@@ 24016
тор 24015
лина 23988
изток 23963
взе@@ 23897
дан@@ 23845
анд@@ 23818
чев 23807
режи@@ 23769
стите 23722
Франция 23716
вото 23694
ителите 23676
без@@ 23663
ер 23639
своя 23636
вал 23606
Хе@@ 23584
член 23574
Русия 23554
нар@@ 23530
ще@@ 23504
мент 23496
ане 23450
съществу@@ 23427
източ@@ 23286
сту@@ 23265
армия 23232
21 23156
фил@@ 23084
тер@@ 23015
наслед@@ 22987
система 22939
умира 22939
Свети 22909
же 22874
2010 22868
авто@@ 22811
ган@@ 22790
подоб@@ 22781
вява 22762
Со@@ 22748
50 22712
ход 22689
соци@@ 22687
живо@@ 22685
били 22683
* 22658
24 22643
гъ@@ 22636
образу@@ 22587
од@@ 22578
северо@@ 22573
смъртта 22556
22 22530
сп@@ 22517
зия 22432
американ@@ 22410
стан@@ 22410
8@@ 22370
пор@@ 22337
км 22321
9@@ 22314
поч@@ 22291
5@@ 22201
запад 22178
нал 22177
ваща 22143
поли@@ 22135
чните 22108
прия@@ 22105
Ге@@ 22094
изда@@ 22076
щите 22038
Гърция 22025
2011 21996
ход@@ 21968
йн@@ 21967
глав@@ 21919
кли@@ 21892
чава 21863
църква 21839
вра@@ 21792
население 21785
Иван 21738
жена 21737
цен@@ 21736
Европа 21727
стоя@@ 21719
жението 21713
бер@@ 21657
държав@@ 21633
ново 21632
ствие 21605
ита@@ 21596
Георги 21562
име@@ 21506
благо@@ 21493
Въпреки 21491
нови 21446
ални 21412
разде@@ 21373
ре 21359
ел 21272
чение 21239
тар@@ 21236
мор@@ 21214
кът 21211
запад@@ 21188
пред 21188
Чер@@ 21187
Ке@@ 21168
гро@@ 21158
докато 21140
ните@@ 21132
проце@@ 21117
днес 21103
чат 21052
кт 21050
ланд@@ 20987
прав@@ 20984
гор@@ 20972
23 20937
чва 20890
Щ@@ 20887
стре@@ 20881
мост 20868
тна 20865
ред@@ 20857
първи 20853
дат 20851
лището 20844
граждан@@ 20838
idae 20832
чната 20810
вода 20799
ващи 20786
40 20775
играе 20770
тиче@@ 20746
Бра@@ 20701
ствено 20688
6@@ 20684
Мария 20626
ок@@ 20613
времето 20609
продъл@@ 20583
пише 20577
лица 20560
Лю@@ 20533
остров 20524
щайн 20503
деца 20496
изпра@@ 20493
отбор 20473
рабо@@ 20462
логи@@ 20405
циите 20368
лени 20366
Роден 20351
тат@@ 20341
лат@@ 20338
рак@@ 20332
рал@@ 20316
грани@@ 20300
страни 20288
рий 20274
групата 20265
два@@ 20263
баща 20259
вате@@ 20257
стри@@ 20247
живот 20245
али@@ 20236
Пет@@ 20220
тъй 20197
дел@@ 20135
бли@@ 20126
зира 20125
печели 20125
слу@@ 20112
це 20088
вли@@ 20049
Населението 20020
тин@@ 20018
ген@@ 20008
класи@@ 20000
тогава 19988
десе@@ 19980
2@@ 19973
ално 19969
пър@@ 19959
7@@ 19949
големи 19931
ландия 19922
Кри@@ 19914
първия 19902
стен 19892
26 19864
света 19848
лд 19847
чина 19829
ше 19827
яват 19808
сили 19769
крал 19762
сно 19762
период 19719
позна@@ 19712
окръг 19656
дите 19632
род 19613
йската 19607
кс 19601
Бер@@ 19564
Ту@@ 19554
рано 19553
27 19518
голе@@ 19512
тел 19476
Фи@@ 19451
цент@@ 19444
28 19433
остава 19414
Южна 19408
публику@@ 19394
общ@@ 19385
брат 19347
ръковод@@ 19320
рим@@ 19256
Дж@@ 19232
Има 19226
мер@@ 19226
ези@@ 19214
герман@@ 19192
ък 19170
побе@@ 19169
произве@@ 19097
ене@@ 19041
провинция 19018
жения 19014
лена 19000
жан@@ 18997
мат@@ 18974
тив@@ 18971
раст@@ 18960
вет@@ 18934
годиш@@ 18925
кото 18902
програ@@ 18844
2000 18822
поя@@ 18812
първите 18808
др 18715
войната 18709
лява 18694
йска 18668
Хи@@ 18651
сни 18646
бъдат 18629
60 18626
Национа@@ 18604
посо@@ 18589
10@@ 18587
кре@@ 18558
S@@ 18552
известен 18538
дви@@ 18414
гри@@ 18410
йни 18410
бит@@ 18402
иде@@ 18402
места 18395
почти 18388
нем@@ 18380
прове@@ 18376
турата 18349
начин 18345
съвет@@ 18343
свобо@@ 18338
гата 18329
няма 18300
2012 18254
там 18253
2009 18252
ез@@ 18230
голям 18227
ането 18225
Ша@@ 18215
2007 18208
чка 18193
хвър@@ 18162
тек@@ 18161
вали 18157
ително 18153
спе@@ 18134
Мон@@ 18126
К 18113
коле@@ 18108
2008 18090
дро@@ 18087
свет@@ 18071
тира 18065
прие@@ 18049
Вели@@ 18034
преда@@ 17998
продължава 17959
ители 17951
държа@@ 17934
филм 17871
истори@@ 17862
възмож@@ 17816
сър@@ 17804
включва 17803
спа@@ 17793
ван@@ 17789
C@@ 17776
ващ 17769
дор 17741
Александър 17735
цел 17725
водо@@ 17702
Първата 17677
2006 17638
уче@@ 17637
ити 17621
клю@@ 17593
80 17582
ена 17554
ву@@ 17516
народ@@ 17511
зу@@ 17507
100 17500
дости@@ 17477
важ@@ 17476
юр@@ 17456
хора 17451
коло@@ 17440
обра@@ 17430
използват 17386
цар@@ 17382
ав@@ 17380
писва 17379
опера@@ 17376
двете 17322
ця@@ 17308
тор@@ 17305
данни 17297
ле 17283
Пред@@ 17281
ск 17263
гръц@@ 17256
яване 17226
дено 17191
29 17167
произ@@ 17151
все 17149
пол 17100
оста@@ 17073
нес 17067
работа 17066
анти@@ 17043
българ@@ 17030
всеки 17019
била 16986
държа 16984
Димитър 16940
̀ 16935
американски 16930
крити@@ 16892
ждане 16874
поло@@ 16838
вият 16831
дове 16824
бира 16819
тех@@ 16809
Май@@ 16786
тел@@ 16777
чо 16768
семейството 16739
ън 16735
градата 16726
електро@@ 16720
успява 16718
диа@@ 16682
ком@@ 16679
ян 16666
стати@@ 16651
джа@@ 16646
лин 16640
освобо@@ 16640
вски 16639
70 16637
нари@@ 16618
ху@@ 16618
установ@@ 16601
e 16588
стар@@ 16587
Мал@@ 16535
резултат 16527
чени 16512
север 16511
ев@@ 16500
сен@@ 16500
рина 16488
областта 16485
комуни@@ 16483
излиза 16478
тон 16470
M@@ 16469
сът 16469
един@@ 16467
района 16460
същата 16451
награда 16449
море 16425
теж@@ 16413
ред 16409
дар@@ 16406
италиан@@ 16388
форма 16377
мно@@ 16362
Фридрих 16359
ън@@ 16356
дейност 16338
вица 16304
менти 16301
територията 16301
император 16287
посе@@ 16253
ано 16248
Фе@@ 16225
редица 16190
постро@@ 16186
тивен 16179
юг 16173
Ча@@ 16154
дна 16147
има@@ 16146
британ@@ 16145
нау@@ 16090
щава 16086
Ско@@ 16080
четири 16078
Въ@@ 16066
председател 16061
временно 16043
много@@ 16027
ора 16026
Гор@@ 16010
Ор@@ 15968
фак@@ 15956
изгра@@ 15952
Кра@@ 15937
френ@@ 15913
пара@@ 15876
Втората 15858
обще@@ 15856
команд@@ 15822
музика@@ 15822
чет@@ 15809
Като 15802
степен 15802
тина 15802
влиза 15793
съюз 15787
2013 15782
ити@@ 15775
малки 15766
мият 15763
присъ@@ 15731
Бур@@ 15723
първият 15712
къс@@ 15687
ад@@ 15685
дът 15680
интер@@ 15678
лка 15678
стър 15670
изку@@ 15667
нер 15665
31 15658
шо@@ 15658
сна@@ 15643
отбора 15642
зан@@ 15639
шки 15625
чки 15610
Ман@@ 15608
партия 15608
заради 15596
дре@@ 15590
ват@@ 15582
пости@@ 15580
пъти 15579
генерал 15577
своите 15559
2014 15515
дори 15514
регион 15512
управление 15512
република 15493
она@@ 15485
ална 15473
албум 15452
2005 15400
Гу@@ 15397
ъл 15385
Фа@@ 15381
ствена 15375
нама@@ 15372
дво@@ 15371
лното 15354
оп@@ 15351
гот@@ 15329
как@@ 15328
своята 15327
логия 15319
Уи@@ 15312
извест@@ 15290
бия 15276
фици@@ 15275
ческа 15245
физи@@ 15243
рал 15227
жител@@ 15164
иг@@ 15158
светов@@ 15152
сво@@ 15147
парти@@ 15142
рии 15139
мин@@ 15131
Во@@ 15122
площ 15122
дри@@ 15121
множество 15078
P@@ 15072
мача 15064
преминава 15054
ори 15047
съвремен@@ 15023
голямата 15020
например 15020
възраст 15018
° 15012
чена 15012
обикновено 15001
дина@@ 14996
йна 14991
IV 14970
учи@@ 14966
участие 14959
дин@@ 14949
тън 14938
независи@@ 14937
съответ@@ 14910
близо 14909
църквата 14904
живота 14887
дълбо@@ 14870
вре@@ 14866
архи@@ 14860
разпростра@@ 14846
филма 14830
съпруга 14827
Чи@@ 14818
2001 14810
ква@@ 14809
s 14808
мир 14803
Към 14783
Бар@@ 14781
П 14781
мени 14732
ня 14728
зар@@ 14716
органи@@ 14692
нения 14689
лет 14687
уча@@ 14663
дължина 14653
острови 14651
рение 14649
тру@@ 14644
Основ@@ 14643
разпространен 14642
организация 14636
вин@@ 14628
бар@@ 14618
връ@@ 14594
D@@ 14591
вид@@ 14591
няват 14567
2015 14543
ь@@ 14542
Карл 14535
икономи@@ 14528
крат@@ 14525
обек@@ 14518
кова 14513
политиче@@ 14498
войски 14495
ления 14487
дол@@ 14475
сме@@ 14467
международ@@ 14463
стен@@ 14462
пти@@ 14450
жде@@ 14438
чета 14437
гър@@ 14430
вида 14417
история 14416
рам@@ 14411
среща 14410
2004 14406
право@@ 14405
зъм 14402
О 14400
ждава 14389
1944 14384
доби@@ 14377
мили@@ 14356
призна@@ 14354
Вер@@ 14346
ствени 14345
поле@@ 14339
покри@@ 14320
надморска 14309
ква 14303
производ@@ 14303
Република 14298
вено 14255
ент@@ 14242
дин 14241
служ@@ 14232
Османската 14227
кате@@ 14226
90 14205
ец 14204
тура 14180
нд 14173
тео@@ 14173
включително 14151
образ@@ 14140
кто@@ 14120
ску@@ 14114
До 14111
2002 14108
A@@ 14105
сце@@ 14099
популяр@@ 14093
лски 14080
Когато 14067
жава 14065
Ер@@ 14059
Хер@@ 14059
нин 14058
общината 14058
Сред@@ 14056
лство 14041
достига 14025
B@@ 14016
затво@@ 14014
лер 14003
кти@@ 13996
дар 13995
рий@@ 13993
И 13983
линия 13983
ис@@ 13980
опит@@ 13980
_ 13961
науч@@ 13960
стан 13951
групи 13932
ствата 13925
кариера 13920
наме@@ 13919
съвет 13919
Кор@@ 13915
ний 13905
десет 13901
0 13877
съпругата 13877
загу@@ 13876
състои 13864
уни@@ 13858
застрашен 13856
дение 13853
ол@@ 13842
Кла@@ 13836
The 13833
дате@@ 13824
особено 13824
зма 13818
уме@@ 13816
избран 13813
ут@@ 13795
дер@@ 13794
V 13786
T@@ 13782
Българ@@ 13777
Тър@@ 13770
Пер@@ 13764
Освен 13754
министър 13747
шка 13737
форми@@ 13730
започ@@ 13722
Пу@@ 13716
брой 13710
чния 13708
gt 13706
противо@@ 13706
събити@@ 13704
Це@@ 13694
тег@@ 13675
древ@@ 13673
владе@@ 13666
ус 13655
нос@@ 13650
в. 13649
въоръ@@ 13648
създава 13648
нове 13634
оти@@ 13629
фон@@ 13622
ради@@ 13587
средата 13587
приема 13585
полага 13576
власт 13560
сто 13559
H@@ 13555
рин 13555
предимно 13551
гна@@ 13544
живее 13541
мон@@ 13524
География 13521
наблю@@ 13491
историята 13481
бен 13469
теле@@ 13467
добре 13466
ров@@ 13465
бъ@@ 13464
хода 13459
едно@@ 13452
гори@@ 13450
функ@@ 13450
футбо@@ 13449
² 13444
пове@@ 13443
рени 13432
близ@@ 13420
започват 13408
изди@@ 13392
ктор 13391
L@@ 13347
дан 13340
втората 13339
херцог 13338
лища 13320
вол@@ 13310
зен 13297
дения 13291
българи 13280
мя@@ 13280
ема 13269
лиза@@ 13264
Ню 13262
ций 13255
вероятно 13252
стика 13252
Бел@@ 13208
излъ@@ 13202
право 13195
бю@@ 13174
вич 13169
общо 13154
състеза@@ 13152
назначен 13136
срав@@ 13134
ителни 13126
епископ 13114
вед@@ 13099
скоро@@ 13080
вън 13073
хар@@ 13066
единстве@@ 13058
енер@@ 13053
Пра@@ 13051
минава 13049
присъеди@@ 13029
пома@@ 13025
lt 13015
връзка 13010
въпреки 13009
кин@@ 12982
месе@@ 12958
тер 12958
тин 12953
бив@@ 12935
еле@@ 12935
рото 12924
въпро@@ 12923
силно 12920
търгов@@ 12917
Рай@@ 12907
проте@@ 12890
стиче@@ 12889
осно@@ 12888
сите 12886
нарича 12879
цо@@ 12877
оке@@ 12876
тове 12872
дале@@ 12861
мена 12861
нос 12861
Ай@@ 12859
мета@@ 12858
ета@@ 12851
прода@@ 12845
Дей@@ 12835
Хайнрих 12829
отнася 12814
коми@@ 12795
лага 12791
Р 12765
Вар@@ 12740
сл 12740
служба 12738
договор 12732
успе@@ 12730
жество 12725
състава 12718
допъл@@ 12717
бал@@ 12714
майка 12698
хи 12692
помо@@ 12684
i 12683
тип 12680
вътреш@@ 12676
ин 12672
Бал@@ 12670
поста@@ 12646
памет@@ 12641
чове@@ 12636
Доб@@ 12629
1990 12627
Така 12623
вала 12622
писате@@ 12621
погре@@ 12607
защото 12567
бри@@ 12563
Кара@@ 12560
избо@@ 12550
E@@ 12546
Мак@@ 12546
ителна 12520
инте@@ 12519
Йохан 12518
годишна 12517
видове 12514
новете 12514
завър@@ 12500
Никола 12494
дер 12487
смър@@ 12470
N@@ 12469
G@@ 12467
2016 12464
is 12451
Ши@@ 12445
ю 12428
Завършва 12412
вно 12409
звез@@ 12402
зване 12399
награ@@ 12376
лож@@ 12361
мет 12356
№ 12341
проек@@ 12333
Петър 12330
статъ@@ 12328
проду@@ 12324
Тра@@ 12306
крепо@@ 12299
следва@@ 12274
кар 12272
щта 12272
басе@@ 12265
вод 12261
довете 12251
око@@ 12249
мето@@ 12243
компози@@ 12228
спор@@ 12228
центра@@ 12219
носи 12212
&#93; 12209
кръг 12207
опа@@ 12201
35 12199
било 12199
българска 12191
сък 12191
a 12186
Хар@@ 12186
широ@@ 12176
причи@@ 12167
роля 12165
пан@@ 12162
гръцки 12159
зали@@ 12152
Разпространен 12149
никът 12145
жат 12143
зако@@ 12141
мре@@ 12140
кур@@ 12133
големите 12127
гео@@ 12120
осман@@ 12112
Три@@ 12109
Пловдив 12103
расте@@ 12086
Ком@@ 12078
твор@@ 12069
&#91; 12062
рей@@ 12059
интере@@ 12056
изчезване 12051
нен@@ 12046
зата 12041
мей@@ 12028
напа@@ 12025
насо@@ 12019
гите 12015
сед@@ 12013
Вто@@ 12009
ари@@ 12006
став@@ 12004
ако 12002
неговата 11996
представлява 11982
попа@@ 11964
управ@@ 11963
R@@ 11944
вни 11929
мач 11925
зат@@ 11924
район 11922
воен@@ 11920
рена 11919
гане 11914
уби@@ 11909
аре@@ 11904
пада 11888
2003 11886
хората 11839
продук@@ 11836
лий 11832
Жи@@ 11820
разли@@ 11815
съюз@@ 11811
съдържа@@ 11809
цар 11802
лей@@ 11799
Рим 11798
вели@@ 11797
прину@@ 11792
C 11791
F@@ 11790
2017 11786
практи@@ 11785
рода 11783
земе@@ 11779
Ху@@ 11777
Сле@@ 11774
лез@@ 11771
мента 11769
обе@@ 11766
фек@@ 11746
ито 11738
Сан@@ 11736
повечето 11730
песни 11724
ати 11717
архитек@@ 11715
воде@@ 11714
ъм 11712
Джон 11706
състав 11703
Васил 11702
гер 11685
зву@@ 11683
ем 11676
тов@@ 11670
нор@@ 11649
Дже@@ 11648
свят 11637
лън@@ 11622
пит@@ 11612
графиня 11609
ждането 11608
мето 11600
сата 11598
способ@@ 11596
всяка 11594
рият 11592
реди@@ 11588
мър@@ 11586
Шу@@ 11581
кол@@ 11576
включ@@ 11563
втори 11562
материа@@ 11558
влия@@ 11552
нението 11551
V@@ 11545
комитет 11540
мс 11539
дома@@ 11538
нина 11527
сигур@@ 11526
Д 11523
лиза 11520
дем 11504
контро@@ 11496
ВМ@@ 11486
тях@@ 11484
провежда 11481
метра 11479
лс 11478
Англия 11462
Пар@@ 11444
дипло@@ 11429
моде@@ 11429
вяват 11426
отбеля@@ 11426
академия 11419
Гер@@ 11417
кси@@ 11416
гово@@ 11408
музи@@ 11403
прави@@ 11396
англи@@ 11361
нена 11325
пробле@@ 11325
четвър@@ 11325
слав 11324
човек 11324
тво@@ 11308
казват 11299
пр 11299
ца@@ 11298
държава 11294
Дру@@ 11292
нала 11271
стату@@ 11271
дове@@ 11269
гора 11267
щи@@ 11260
въве@@ 11256
стопан@@ 11242
госпо@@ 11240
нася 11212
милиона 11206
пли@@ 11204
сви@@ 11204
Въз@@ 11197
зар 11196
ъ 11190
пис 11181
българската 11171
Испания 11154
вари@@ 11133
свързани 11133
учи 11133
смя@@ 11127
мък 11123
бите 11116
европей@@ 11115
W@@ 11113
различ@@ 11112
Голя@@ 11107
Народ@@ 11107
ене 11091
обеди@@ 11085
публи@@ 11082
мъж@@ 11081
пен@@ 11081
сан@@ 11081
Балкан@@ 11080
ристи@@ 11075
Б 11070
вън@@ 11067
стъпва 11061
гъл 11060
вна 11049
присти@@ 11049
християн@@ 11044
ческо 11044
Тре@@ 11037
риа@@ 11035
есте@@ 11034
евре@@ 11023
миш@@ 11017
ланд 11006
Него@@ 11000
тър 10996
руски 10990
зда@@ 10987
ционен 10985
Нова 10983
писа@@ 10979
постав@@ 10977
Париж 10975
защ@@ 10958
Стефан 10946
ръко@@ 10938
гне 10923
стой@@ 10922
манастир 10908
бол@@ 10906
Кли@@ 10903
полк 10900
оло@@ 10899
кро@@ 10897
шно 10890
яването 10885
1912 10882
разработ@@ 10881
праз@@ 10879
командир 10869
Филип 10867
йт 10865
со 10854
Вал@@ 10845
Димит@@ 10840
живеят 10828
чето 10816
направ@@ 10805
ерата 10798
офици@@ 10795
сила 10788
въл@@ 10779
квар@@ 10768
пет 10761
бързо 10758
ален 10741
вец 10739
тните 10736
известни 10735
преде@@ 10729
Джо@@ 10717
жават 10710
Дра@@ 10705
Америка 10701
образование 10694
Великобритания 10692
пус@@ 10692
ителен 10691
музика 10691
сътруд@@ 10683
голямо 10680
импера@@ 10674
неговите 10673
ери 10670
струк@@ 10665
друг 10662
йските 10657
връх 10652
терито@@ 10651
дивизия 10648
лено 10646
O@@ 10639
гимназия 10638
Сре@@ 10636
Китай 10629
бор 10622
организи@@ 10618
бази@@ 10617
испан@@ 10615
1991 10612
настоя@@ 10612
връща 10607
ос 10604
гли@@ 10593
майсто@@ 10592
вета 10588
хиля@@ 10587
дне@@ 10577
пя@@ 10566
разположен 10556
Африка 10554
шампи@@ 10552
развитие 10544
известна 10543
политически 10539
Мари@@ 10538
нин@@ 10538
офи@@ 10535
премина@@ 10524
лище 10512
мю@@ 10505
увели@@ 10502
кове 10493
началник 10489
разру@@ 10487
сръб@@ 10477
тури 10473
плат@@ 10461
ологи@@ 10460
Христо 10457
Нор@@ 10443
главен 10429
каче@@ 10427
1945 10426
ана 10418
Умира 10416
Све@@ 10414
писание 10411
движение 10403
рил 10403
друга 10402
месеца 10396
разположени 10388
манасти@@ 10382
Софи@@ 10380
бав@@ 10373
y@@ 10372
низ@@ 10372
отношение 10370
Бре@@ 10367
получа@@ 10361
шни 10355
мира 10354
печат@@ 10341
стил 10335
сят 10333
заема 10330
нително 10322
они 10321
театър 10314
геро@@ 10294
Македо@@ 10291
актив@@ 10290
ал 10282
вина 10281
продължение 10281
коре@@ 10256
скло@@ 10254
основно 10245
бо 10235
1999 10223
графия 10222
тит@@ 10213
кият 10208
2018 10207
реката 10207
нико@@ 10206
чното 10206
Тео@@ 10204
Тай@@ 10200
1913 10197
анали@@ 10185
пат@@ 10181
кор@@ 10178
инду@@ 10164
кита@@ 10162
Зе@@ 10158
професиона@@ 10157
СССР 10155
култур@@ 10154
тан 10152
инди@@ 10144
правителство 10143
следва 10143
зато@@ 10139
доли@@ 10137
лов@@ 10131
лис 10124
+ 10120
Рим@@ 10120
част@@ 10118
То 10114
произход 10112
дву@@ 10093
тната 10093
йско 10085
револю@@ 10085
Ата@@ 10082
мов 10081
ета 10079
действия 10078
предизви@@ 10077
държави 10076
Този 10067
она 10067
джа 10062
литература 10049
напра@@ 10049
Ун@@ 10046
остав@@ 10041
директор 10024
ил 10015
създаването 10014
75 10009
пъту@@ 10006
първенство 10003
ори@@ 9992
Сла@@ 9988
— 9987
200 9986
лятото 9984
вано 9983
бан 9978
занима@@ 9975
нами@@ 9975
сов 9965
президент 9964
Япония 9955
мястото 9951
ствен 9951
Ос@@ 9950
израз@@ 9949
къл 9948
тат 9947
Йорк 9943
западната 9941
тръ@@ 9934
of 9925
щето 9921
новата 9920
администра@@ 9918
концер@@ 9914
пита@@ 9911
необходи@@ 9910
сбор@@ 9910
останалите 9905
сина 9899
разши@@ 9896
английски 9894
зват 9894
управлението 9888
отбо@@ 9886
птица 9880
бива 9877
Ше@@ 9871
фа 9870
вил 9867
гола 9865
стрел@@ 9846
изо@@ 9842
= 9841
цялата 9827
хард 9826
Първият 9814
зависи@@ 9806
телевизи@@ 9806
Произ@@ 9799
нически 9796
маши@@ 9793
1992 9791
хия 9790
Солу@@ 9782
източната 9779
Българската 9776
оцен@@ 9770
първото 9770
точка 9769
части@@ 9769
дет@@ 9767
епо@@ 9765
изслед@@ 9765
мента@@ 9756
хайм 9755
роман@@ 9754
1941 9750
Ива@@ 9744
ара 9744
политик 9735
Между@@ 9727
45 9725
рих 9724
1989 9717
говори 9717
ок 9716
Нико@@ 9712
знач@@ 9702
Светов@@ 9701
Николай 9698
карва 9698
меня 9697
май@@ 9696
книги 9694
32 9692
френски 9692
значение 9682
Вилхелм 9680
търго@@ 9678
доку@@ 9675
пет@@ 9675
цето 9675
западно 9662
зада@@ 9658
трен@@ 9653
решава 9650
Вър@@ 9646
Администра@@ 9643
Джа@@ 9641
специали@@ 9641
ницата 9637
кари@@ 9631
центъра 9629
ьор@@ 9615
Европей@@ 9600
бъде@@ 9592
XIX 9589
Рабо@@ 9586
симво@@ 9585
психо@@ 9579
намират 9578
Анна 9574
Гла@@ 9573
кан 9572
1998 9571
седми@@ 9569
служи 9569
Полша 9563
Западна 9555
топ@@ 9555
ства@@ 9548
графи@@ 9544
клет@@ 9539
Св 9531
напуска 9531
другите 9523
чието 9523
пръ@@ 9522
връз@@ 9520
Ст@@ 9510
нени 9509
пода@@ 9506
Михаил 9497
малка 9493
нарича@@ 9491
решение 9490
двата 9487
гло@@ 9485
ралната 9485
Някои 9477
устрой@@ 9475
морски 9473
природ@@ 9464
стават 9455
Пло@@ 9447
лев 9445
formula 9443
здра@@ 9438
роман 9437
1@@ 9433
Москва 9432
итава 9432
правителството 9431
нет 9424
дно 9420
същото 9419
футболист 9418
някога 9415
разположено 9410
отли@@ 9407
стер@@ 9406
чети@@ 9400
прите@@ 9398
инстру@@ 9394
0@@ 9393
дьо 9392
албума 9388
Фер@@ 9382
Цент@@ 9382
1997 9380
православ@@ 9379
децата 9374
лът 9370
нали@@ 9367
вис@@ 9364
замест@@ 9364
чават 9355
източно 9352
ФК 9340
резер@@ 9337
ролята 9337
арти@@ 9333
бряг 9331
едва 9329
ль@@ 9322
щати 9319
особ@@ 9318
М 9307
ули@@ 9304
рио@@ 9299
ностите 9295
Вол@@ 9294
Пла@@ 9294
Във 9291
беле@@ 9291
Тази 9288
къв 9288
Поли@@ 9287
македон@@ 9286
неговото 9286
превръща 9286
Син@@ 9283
жо@@ 9282
сна 9273
Там 9272
рок 9272
! 9267
мото 9265
тена 9265
екс@@ 9263
лети@@ 9258
означава 9254
Т 9251
изи@@ 9248
външ@@ 9247
1996 9237
Намира 9235
федера@@ 9232
Уе@@ 9229
последните 9228
битката 9227
жела@@ 9225
ун 9222
зае@@ 9213
Азия 9211
систе@@ 9204
колкото 9203
вър 9202
Тези 9188
Центра@@ 9177
военни 9173
учител 9172
разлика 9170
основа@@ 9167
вор@@ 9164
компю@@ 9162
убий@@ 9161
Зем@@ 9154
кен@@ 9149
ток 9147
мер 9146
нали 9144
песента 9144
лига 9140
известно 9136
точ@@ 9127
циона@@ 9118
мени@@ 9115
Фло@@ 9114
чено 9107
Кръ@@ 9098
технологи@@ 9096
мм 9095
Турция 9087
1995 9086
500 9082
унищо@@ 9082
действие 9077
виде@@ 9076
РО 9075
Къ@@ 9073
нените 9065
Селото 9060
княз 9060
двигате@@ 9056
съще@@ 9053
скоро 9051
Ги@@ 9039
ново@@ 9037
1994 9035
поставя 9035
e@@ 9034
книга 9034
гради 9017
сията 9016
мина 9013
съгла@@ 9009
защит@@ 9006
Поради 9003
бах 9002
консул 8998
успех 8981
кали@@ 8977
Индия 8976
транспор@@ 8976
Анто@@ 8975
възстанов@@ 8974
дире@@ 8959
напълно 8959
сра@@ 8955
форми 8952
on 8940
главно 8933
изкуство 8932
зин@@ 8929
Мла@@ 8924
информация 8924
спомена@@ 8924
течение 8921
малък 8918
Света 8915
издава 8915
двамата 8913
чуж@@ 8913
цери 8906
щият 8906
т.@@ 8904
фал@@ 8904
1980 8897
зона 8897
ъра 8897
Елизабет 8895
участ@@ 8894
Описание 8890
дръ@@ 8889
гру@@ 8887
компания 8887
изпълните@@ 8882
стин@@ 8882
осигур@@ 8873
Сърбия 8872
чите 8872
гел 8867
кораба 8863
територия 8848
меха@@ 8847
Воен@@ 8846
душ@@ 8841
стена 8839
нската 8838
лип@@ 8831
кораби 8828
копи@@ 8821
ващите 8820
маги@@ 8817
народен 8817
отбра@@ 8815
Крал@@ 8812
щото 8810
повърх@@ 8808
стран@@ 8801
въстание 8796
гнат 8793
влияние 8788
зан 8786
изследвания 8781
лта 8779
самостояте@@ 8779
Сан 8776
Константин 8761
ато 8757
вся@@ 8756
Варна 8752
низи@@ 8748
поле 8741
източна 8738
варя 8729
зат 8729
развитието 8727
вършва 8725
рон 8722
Лудвиг 8720
тие 8697
труд@@ 8694
прин@@ 8693
бой@@ 8687
кови 8685
събрание 8685
чен@@ 8681
тук 8677
осъ@@ 8675
градове 8673
Йе@@ 8672
предста@@ 8672
планина 8671
глежда 8666
каза@@ 8665
лям 8665
пата 8663
извърш@@ 8661
днеш@@ 8657
изиск@@ 8653
исторически 8649
тради@@ 8644
защита 8642
политика 8623
­ 8621
Фор@@ 8621
преме@@ 8621
Участва 8615
проти@@ 8613
фи 8613
писател 8609
гне@@ 8607
недо@@ 8607
Австралия 8601
опит 8598
mm 8596
вз@@ 8596
ото 8593
прием@@ 8592
артиле@@ 8591
моти@@ 8589
официално 8586
почи@@ 8583
предло@@ 8578
фер@@ 8573
производство 8572
българските 8571
половина 8567
тото 8567
фу@@ 8567
обви@@ 8558
електри@@ 8553
38 8552
мину@@ 8550
целия 8550
случай 8538
професор 8532
завръща 8530
Же@@ 8526
водата 8526
наси@@ 8520
пило@@ 8519
бле@@ 8518
ческите 8516
I@@ 8513
идва 8513
изцяло 8513
1993 8509
34 8508
членове 8508
лагат 8502
сни@@ 8502
ционни 8501
36 8499
революцион@@ 8492
произведения 8491
подкре@@ 8479
ката@@ 8478
преброяването 8476
неговия 8475
династи@@ 8471
Лондон 8461
рове 8460
кономиче@@ 8456
развива 8456
рю@@ 8451
обявява 8449
стват 8448
тият 8447
култура 8441
Дъл@@ 8437
Кам@@ 8434
ум@@ 8431
рису@@ 8430
Украйна 8428
окол@@ 8426
Благо@@ 8425
позиция 8420
спеди@@ 8420
шката 8418
сер@@ 8417
тай@@ 8414
против@@ 8409
тична 8405
гъл@@ 8404
против 8403
участват 8403
подкреп@@ 8402
Международ@@ 8399
осъщест@@ 8397
зархи@@ 8394
Министер@@ 8390
Сло@@ 8390
ческата 8390
правят 8386
рон@@ 8385
селе@@ 8385
следващите 8385
употре@@ 8384
низа@@ 8383
появява 8383
мощ@@ 8380
гането 8375
2019 8370
зай@@ 8368
сестра 8363
33 8359
стка 8358
пови@@ 8351
поръ@@ 8346
съд 8344
Под@@ 8339
мин 8335
Тан@@ 8333
музей 8327
положение 8327
художе@@ 8321
планината 8318
острова 8316
um 8314
рите@@ 8311
имену@@ 8309
Но 8304
техниче@@ 8304
можно 8303
кораб 8298
лан 8296
села 8296
шава 8294
нер@@ 8293
1943 8291
чин 8291
65 8289
първо 8288
лате@@ 8280
еро 8270
Вси@@ 8266
Ран@@ 8262
37 8258
вят 8258
консу@@ 8255
Ак@@ 8253
Бразилия 8251
жените 8251
кот@@ 8248
Църк@@ 8247
Шар@@ 8247
управля@@ 8246
прило@@ 8244
1878 8243
състояние 8239
Разполо@@ 8238
съл 8238
55 8232
ум 8229
Роб@@ 8218
фигу@@ 8208
ключ@@ 8207
връщ@@ 8205
Източна 8204
вало 8204
тивно 8203
клуб 8201
лова 8197
тика 8196
всичко 8193
журнали@@ 8193
двой@@ 8191
дебю@@ 8191
автор 8190
чело 8190
дов@@ 8183
0,@@ 8182
дават 8177
чув@@ 8170
земи 8162
първоначално 8160
патриар@@ 8157
длъж@@ 8156
деб@@ 8154
гене@@ 8151
игри 8148
деж@@ 8146
Кари@@ 8143
вестник 8143
между@@ 8142
Дъ@@ 8140
тори 8136
годината 8134
Държав@@ 8133
серио@@ 8132
условия 8123
Бан@@ 8121
пен 8119
фан@@ 8117
каз@@ 8112
пера@@ 8111
коно@@ 8109
Спи@@ 8102
меда@@ 8102
кой 8097
тора 8091
Сред 8088
1970 8081
Г 8081
кин 8081
Кан@@ 8080
епизо@@ 8080
br 8079
общи@@ 8078
помощта 8076
рас@@ 8072
хими@@ 8068
значително 8066
x 8065
1900 8064
изобраз@@ 8064
шу@@ 8056
Гви@@ 8055
Разположено 8052
руп@@ 8045
себе 8044
спече@@ 8043
Сти@@ 8041
демокра@@ 8040
райони 8038
техните 8038
тели 8029
системи 8028
издаден 8027
простран@@ 8023
убе@@ 8023
километра 8021
изследовате@@ 8020
тем@@ 8019
проект 8018
сли@@ 8016
план@@ 8014
свеще@@ 8014
езици 8013
шев 8013
щение 8008
кни@@ 8007
открива 8007
веро@@ 8006
мир@@ 8005
стви@@ 8005
годините 8003
Съю@@ 8001
строител@@ 7995
1918 7994
флот 7992
Фамилия 7989
столицата 7989
формата 7987
институт 7985
ян@@ 7985
мон 7984
пря@@ 7976
записва 7974
цели 7973
de 7971
Вене@@ 7971
долф 7965
бур@@ 7964
представител 7960
последовате@@ 7951
сь@@ 7951
тно@@ 7950
преди@@ 7949
p@@ 7946
елементи 7946
пад@@ 7946
съхра@@ 7937
a@@ 7936
рис 7932
включват 7928
обществе@@ 7923
Източ@@ 7922
разположена 7922
пръв 7921
Кю@@ 7918
българско 7915
компанията 7914
мар 7914
шампион 7914
отво@@ 7912
the 7911
Йор@@ 7910
Стара 7910
зов 7910
нав@@ 7910
тов 7910
Марк 7900
обре@@ 7899
лър 7897
библиоте@@ 7894
шата 7889
забеле@@ 7887
алната 7885
пси@@ 7884
Румъ@@ 7882
рик 7878
мах@@ 7874
K@@ 7870
Хен@@ 7867
книгата 7865
традицион@@ 7865
военен 7853
основава 7848
пози@@ 7848
селище 7846
Съвет@@ 7844
мя 7841
пора@@ 7840
точки 7838
говор@@ 7832
спек@@ 7828
позволява 7827
смята 7827
участието 7824
близост 7823
Ев@@ 7822
Австрия 7818
мъжва 7818
пътя 7811
сента 7811
бър 7810
секретар 7809
следващата 7808
версия 7807
кос@@ 7803
кораб@@ 7802
възник@@ 7799
Вла@@ 7797
най@@ 7796
гария 7790
годи@@ 7790
ческия 7790
вяр@@ 7786
макар 7780
1960 7779
освен 7777
дий 7775
инжен@@ 7774
йс 7774
брежи@@ 7771
яне 7769
основате@@ 7768
ьо 7768
сюл@@ 7766
модер@@ 7765
так@@ 7755
дат@@ 7754
Други 7748
обща 7747
часа 7745
c@@ 7744
предлага 7744
нас 7743
У 7738
състав@@ 7733
мери@@ 7732
средства 7732
брак 7727
дати@@ 7727
организа@@ 7725
титлата 7725
яни 7723
толкова 7719
они@@ 7717
Фили@@ 7714
канди@@ 7709
реали@@ 7707
Между 7704
административ@@ 7700
85 7697
окръ@@ 7695
1940 7693
изключително 7685
колек@@ 7685
едноимен@@ 7676
лска 7665
задъл@@ 7663
носите@@ 7661
оказва 7661
армията 7660
ть@@ 7655
наги 7653
песен 7648
лите@@ 7647
ническата 7646
пл@@ 7646
сезона 7645
cm 7639
завърш@@ 7639
военна 7638
сметка 7637
рява 7635
Ек@@ 7632
работата 7630
куп@@ 7629
бух@@ 7626
лизи@@ 7619
ълга@@ 7618
мона@@ 7616
дело 7611
усп@@ 7611
1942 7610
Послед@@ 7608
Хай@@ 7602
чване 7593
математи@@ 7583
случа@@ 7579
езерото 7577
Тур@@ 7574
Мексико 7566
ниво 7564
худож@@ 7562
такива 7560
шко 7560
воначално 7551
фамили@@ 7547
пуска 7538
Не 7537
къщи 7537
аб@@ 7528
реги@@ 7528
писан 7516
прото@@ 7507
Фу@@ 7501
мяна 7497
принци@@ 7496
Анти@@ 7495
Оби@@ 7494
бло@@ 7493
фра@@ 7491
Ен@@ 7485
Охри@@ 7485
стане 7484
стади@@ 7483
зе 7476
Пан@@ 7470
заве@@ 7466
Й@@ 7463
Обе@@ 7456
маке@@ 7455
местообита@@ 7451
отношения 7451
пое@@ 7448
сем@@ 7446
2020 7440
температура 7440
y 7436
мни 7435
76 7420
Тро@@ 7412
дж 7410
боле@@ 7409
форма@@ 7408
гръ@@ 7399
Георги@@ 7398
море@@ 7395
гас 7393
зад 7390
говор 7384
Стра@@ 7383
гр 7377
престо@@ 7377
духов@@ 7371
дали 7369
слав@@ 7367
ул 7365
шко@@ 7362
уси@@ 7360
мпи@@ 7359
сми@@ 7358
Много 7356
лай@@ 7355
шин@@ 7355
фир@@ 7353
студи@@ 7352
зави@@ 7348
изя@@ 7348
стове 7346
Канада 7345
дом 7344
тет 7337
20@@ 7336
права 7333
i@@ 7330
мани@@ 7330
фести@@ 7328
СК@@ 7327
ели@@ 7324
учеб@@ 7322
запис@@ 7316
ia 7311
Лан@@ 7311
ар 7311
et 7300
принце@@ 7297
1986 7295
основа 7287
сва@@ 7286
39 7267
300 7263
Френ@@ 7262
числе@@ 7262
назна@@ 7253
42 7252
48 7251
хт 7242
Ат@@ 7229
Богороди@@ 7225
стандар@@ 7225
жд@@ 7222
1988 7218
строе@@ 7218
щина 7218
оце@@ 7210
Кру@@ 7199
биз@@ 7194
Фил@@ 7190
потреб@@ 7188
забра@@ 7184
Глав@@ 7178
b@@ 7177
жие 7171
разви@@ 7171
макси@@ 7161
века 7160
изуча@@ 7160
Бен@@ 7159
1950 7156
стаби@@ 7152
коро@@ 7151
медици@@ 7147
хай@@ 7147
чита@@ 7143
Ел@@ 7137
каз 7135
публикан@@ 7132
Север@@ 7130
n@@ 7128
конструк@@ 7123
цвет@@ 7122
1,@@ 7117
Сте@@ 7115
нато@@ 7114
цу@@ 7113
изве@@ 7103
КП 7098
яв@@ 7098
o@@ 7097
... 7093
1934 7091
военно@@ 7086
области 7080
стани@@ 7073
вери@@ 7072
византи@@ 7072
ph@@ 7067
A 7065
1905 7060
ясно 7057
визи@@ 7049
херцо@@ 7049
сон 7047
56 7034
уда@@ 7030
социа@@ 7023
Юго@@ 7021
литератур@@ 7016
64 7006
Христо@@ 7002
Египет 7001
приток 6989
юри@@ 6989
впослед@@ 6988
реша@@ 6988
мл@@ 6983
Х 6982
ган 6979
рой 6974
поме@@ 6971
сел 6970
вро@@ 6967
религиоз@@ 6966
лищ@@ 6963
41 6955
.. 6946
хран@@ 6946
срещ@@ 6944
рения 6942
ева 6941
44 6939
взи@@ 6937
бе 6936
ке 6931
o 6930
вариан@@ 6928
ic@@ 6926
олимпи@@ 6908
Пле@@ 6906
телевизион@@ 6900
хов@@ 6894
зано 6886
еписко@@ 6883
Гре@@ 6881
акт@@ 6872
дже@@ 6872
лист@@ 6872
цент 6871
72 6867
s@@ 6862
автомоби@@ 6856
остана@@ 6856
хан@@ 6855
футбол 6852
54 6839
меди@@ 6836
преми@@ 6831
ково 6825
рев@@ 6819
стов 6819
68 6817
Джи@@ 6812
Кристи@@ 6804
вка 6802
43 6801
Саксо@@ 6800
in@@ 6797
построена 6796
леген@@ 6793
кара 6791
чения 6790
Университе@@ 6789
1985 6781
кня@@ 6778
Стру@@ 6777
разме@@ 6776
52 6775
любо@@ 6775
1920 6768
Макси@@ 6768
-@@ 6767
карти@@ 6766
въста@@ 6765
Бру@@ 6760
47 6757
резул@@ 6757
христи@@ 6757
Ана@@ 6752
вест@@ 6750
раб@@ 6750
фина@@ 6748
обработ@@ 6742
тал 6740
рец 6739
рак 6735
бург@@ 6734
1987 6730
аген@@ 6729
чле@@ 6728
Население 6721
иска 6721
мигра@@ 6721
склю@@ 6719
бун@@ 6708
кон 6707
63 6705
жу@@ 6701
статисти@@ 6701
Пор@@ 6699
лението 6696
революцио@@ 6690
случаи 6686
капитан 6685
.е. 6684
тран@@ 6684
европе@@ 6683
действи@@ 6682
казате@@ 6682
представители 6680
сово 6671
Само@@ 6668
рова 6665
зая@@ 6661
1984 6656
дина 6651
коп@@ 6648
финансо@@ 6647
88 6646
ам@@ 6645
автоно@@ 6637
Бро@@ 6631
d@@ 6630
Гру@@ 6627
1939 6624
вока@@ 6624
пе 6618
мате@@ 6615
финан@@ 6614
51 6612
вай@@ 6609
засе@@ 6607
1981 6605
XX 6605
араб@@ 6604
1968 6594
прекра@@ 6591
53 6585
тки 6585
Борис 6581
хва@@ 6580
95 6578
фото@@ 6578
m@@ 6572
Берлин 6569
япон@@ 6567
офицер 6566
времен@@ 6565
населе@@ 6565
86 6559
62 6554
остро@@ 6554
клу@@ 6546
яр@@ 6545
лон 6541
пока@@ 6538
1974 6533
ch@@ 6532
in 6524
шена 6523
гин@@ 6518
региона 6518
точно 6515
нис 6510
Авгу@@ 6503
из 6501
писана 6501
Джеймс 6500
митрополит 6499
хро@@ 6498
лос 6490
епархия 6489
Шве@@ 6486
тю@@ 6480
66 6478
жерт@@ 6473
зана 6460
джи 6459
жка 6459
1979 6458
Ир@@ 6453
циони@@ 6450
67 6447
S 6444
ничество 6443
план 6442
как 6441
мед 6440
вание 6438
насе@@ 6435
пехо@@ 6427
догово@@ 6425
фика@@ 6425
t 6423
храм 6421
78 6419
орга@@ 6416
лист 6415
зация 6409
ряд@@ 6397
1978 6395
кат@@ 6393
астро@@ 6390
1948 6387
VI 6386
І@@ 6385
1971 6381
82 6380
сфе@@ 6380
зон@@ 6374
конкур@@ 6372
типа 6368
Ам@@ 6365
Мор@@ 6362
турнира 6355
лог 6352
ляр@@ 6352
нан@@ 6348
58 6347
широко 6339
убит 6335
характеристи@@ 6335
тически 6333
1928 6332
реак@@ 6331
l 6330
цве@@ 6329
Кал@@ 6328
преподавате@@ 6328
Тер@@ 6327
сне@@ 6323
1982 6315
институ@@ 6299
59 6298
g@@ 6293
беля@@ 6289
1976 6286
кампа@@ 6286
представля@@ 6282
вклю@@ 6277
спери@@ 6277
структура 6274
характер@@ 6271
доне@@ 6269
сул@@ 6266
победа 6265
1946 6264
Сер@@ 6261
X@@ 6257
or@@ 6254
сам 6254
нима@@ 6253
тури@@ 6249
школа 6244
разнообраз@@ 6241
като@@ 6238
ология 6235
on@@ 6231
йо@@ 6229
парла@@ 6228
46 6227
зани 6227
Константино@@ 6224
Владимир 6221
поко@@ 6220
рес@@ 6219
проекта 6217
Колум@@ 6211
Геор@@ 6209
оригина@@ 6209
1972 6206
Вай@@ 6203
шение 6203
стра 6195
препода@@ 6194
57 6193
дор@@ 6192
н. 6190
берт 6186
Гри@@ 6183
69 6182
забо@@ 6182
Британ@@ 6179
момент 6178
брига@@ 6172
сии 6171
1930 6164
сим@@ 6161
вле@@ 6159
университета 6156
хал@@ 6152
дел 6151
вати@@ 6148
правител@@ 6145
рея 6138
чия 6136
ограни@@ 6133
полож@@ 6132
дра 6131
ждан@@ 6126
иска@@ 6121
творчество 6120
d 6118
посто@@ 6117
тар 6113
фри@@ 6108
84 6105
гли 6102
камен@@ 6102
треш@@ 6095
вмест@@ 6089
темпера@@ 6089
Род@@ 6085
Марга@@ 6084
вет 6084
веще@@ 6078
1975 6077
рез@@ 6075
ей 6074
редактор 6074
сий 6074
латин@@ 6073
общество 6070
разв@@ 6067
1947 6065
61 6064
77 6060
Мето@@ 6058
цо 6058
Калифорния 6057
ид@@ 6057
постепенно 6057
Исто@@ 6051
полити@@ 6046
Алек@@ 6039
Ара@@ 6039
обла@@ 6039
стру@@ 6039
гол 6037
81 6033
дам 6032
истин@@ 6032
удо@@ 6030
Полу@@ 6027
Джу@@ 6025
ходя@@ 6020
археологи@@ 6014
зате@@ 6013
свиде@@ 6013
73 6012
подчи@@ 6012
радио@@ 6008
конгре@@ 6005
прив@@ 6004
71 5998
мит@@ 5995
каза 5994
er 5992
1969 5991
принадле@@ 5991
83 5984
запове@@ 5984
79 5979
види@@ 5979
лета 5976
лати@@ 5973
Мюн@@ 5972
скар 5972
чели 5970
австри@@ 5968
1973 5967
Лай@@ 5965
обо@@ 5961
осе@@ 5956
1983 5954
кови@@ 5943
проя@@ 5929
X 5927
фини@@ 5921
комплек@@ 5918
спон@@ 5918
Югосла@@ 5907
Ци@@ 5905
1927 5903
изче@@ 5903
йл 5894
Луи 5891
парк 5878
организации 5876
1919 5875
ителя 5871
нови@@ 5870
семейства 5866
74 5865
диалек@@ 5859
1923 5852
1967 5851
87 5850
Хан@@ 5850
добав@@ 5835
брат@@ 5832
49 5825
вин 5823
Ch@@ 5818
еро@@ 5816
приблиз@@ 5815
Фо@@ 5811
U@@ 5806
Фри@@ 5798
ству@@ 5797
Форму@@ 5792
th@@ 5785
издате@@ 5785
Игра@@ 5783
сор@@ 5783
чество 5780
Кур@@ 5776
парт@@ 5776
пом@@ 5775
Запад@@ 5774
науки 5772
станция 5772
издание 5770
ент 5767
al@@ 5765
дворец 5762
1962 5761
дели@@ 5759
Павел 5752
пов 5752
майор 5748
B 5747
нова@@ 5743
щен 5735
Око@@ 5729
актриса 5729
успешно 5723
фикация 5719
зеф 5711
дка 5706
вато@@ 5705
Американ@@ 5702
лега@@ 5701
1966 5699
мно 5698
военно 5694
вну@@ 5693
полковник 5693
2,@@ 5680
стои 5672
ac@@ 5670
Бран@@ 5669
транс@@ 5665
крайна 5663
подготов@@ 5660
Им@@ 5659
om@@ 5650
начало 5650
бого@@ 5637
неу@@ 5637
1965 5631
кипа@@ 5631
150 5630
площа@@ 5629
псевдо@@ 5628
ограниче@@ 5627
кого@@ 5626
сч@@ 5624
живе@@ 5623
Пара@@ 5614
Бри@@ 5612
бое@@ 5612
1977 5611
л. 5610
вонача@@ 5609
el@@ 5607
финала 5604
1959 5603
1964 5603
Бай@@ 5602
лем 5601
нес@@ 5600
литера@@ 5599
1915 5588
Мин@@ 5585
мбо@@ 5584
Пон@@ 5569
Бор@@ 5566
Жан 5566
философи@@ 5566
избра@@ 5562
Чар@@ 5559
ставля@@ 5552
Кай@@ 5550
Ката@@ 5548
1949 5545
Изра@@ 5545
1938 5539
желе@@ 5533
2021 5532
услу@@ 5531
бина 5530
Ау@@ 5528
F 5527
00 5524
Тома@@ 5524
Александ@@ 5523
атор 5522
Кир@@ 5519
96 5518
Ф 5515
уста@@ 5513
Пен@@ 5511
ing 5508
зо 5503
риал@@ 5503
t@@ 5502
филосо@@ 5502
първен@@ 5501
.н@@ 5498
Вой@@ 5493
предостав@@ 5491
скри@@ 5487
дии 5485
романа 5484
рес 5483
пехот@@ 5476
Хол@@ 5472
леку@@ 5471
дил 5470
ol@@ 5465
Ад@@ 5461
Пат@@ 5461
1961 5457
гер@@ 5457
Н 5445
оз@@ 5445
цио@@ 5444
1956 5443
es 5442
художник 5439
ул@@ 5430
L 5427
Обла@@ 5424
рели@@ 5424
ай@@ 5421
контра@@ 5421
обучение 5418
1963 5417
98 5417
вместо 5417
ято 5417
1000 5414
дие 5411
комби@@ 5410
реше@@ 5410
еже@@ 5404
ръб@@ 5402
Кре@@ 5392
глава 5391
дома 5390
ensis 5388
чис@@ 5387
1958 5385
музе@@ 5385
Меди@@ 5383
Вен@@ 5382
жина 5366
пери@@ 5361
ски@@ 5361
магни@@ 5359
Кле@@ 5350
92 5348
бла@@ 5346
en@@ 5345
рами@@ 5343
генера@@ 5341
клуба 5340
активно 5336
дент@@ 5333
тана 5333
1936 5329
страте@@ 5327
помощ@@ 5325
05 5323
1924 5321
93 5321
свой 5318
J@@ 5315
уз@@ 5310
цер 5307
400 5306
чик 5306
T 5302
Член 5302
посред@@ 5299
Юж@@ 5294
Груп@@ 5281
алистиче@@ 5277
лично 5277
лу 5276
? 5275
год@@ 5269
1926 5268
успеш@@ 5265
нео@@ 5264
пуска@@ 5263
нару@@ 5262
цяло 5262
нам 5256
зви@@ 5254
Институ@@ 5244
отноше@@ 5243
конститу@@ 5241
горе@@ 5240
1903 5238
Пале@@ 5234
взаимо@@ 5230
Е 5229
99 5227
g 5227
06 5226
обита@@ 5226
дуар@@ 5224
роди@@ 5222
люби@@ 5221
04 5218
an@@ 5218
офор@@ 5214
сан 5211
f@@ 5210
Каро@@ 5210
хор@@ 5210
изобра@@ 5204
депу@@ 5201
гон@@ 5199
поз@@ 5198
цер@@ 5197
Пол@@ 5196
дъщер@@ 5196
моно@@ 5196
Ван@@ 5195
уре@@ 5195
тона 5190
зон 5184
Гро@@ 5182
Хри@@ 5182
Лин@@ 5181
узна@@ 5181
Гене@@ 5179
предо@@ 5177
k@@ 5174
кнове@@ 5172
реш@@ 5172
er@@ 5168
огром@@ 5167
линии 5166
пропа@@ 5166
миче@@ 5162
бен@@ 5160
слож@@ 5158
моби@@ 5152
Швейца@@ 5150
бели 5150
микро@@ 5139
пото@@ 5135
цин@@ 5135
ae 5132
личе@@ 5129
число 5129
Акаде@@ 5121
зен@@ 5120
ох@@ 5119
иденти@@ 5118
храма 5112
1935 5108
реки 5104
Спе@@ 5099
1952 5097
r@@ 5095
опе@@ 5085
броне@@ 5084
1929 5079
89 5079
Аб@@ 5078
сцена@@ 5078
Дар@@ 5077
Спа@@ 5075
свои 5074
1914 5073
фронт 5066
Джордж 5058
Ян@@ 5058
Елена 5052
бир@@ 5052
Дю@@ 5051
Кате@@ 5049
ѐ@@ 5049
ООН 5048
ot@@ 5046
1925 5044
значи@@ 5043
1921 5031
рази@@ 5028
номер 5025
състе@@ 5025
and 5021
теат@@ 5021
иза 5020
уве@@ 5020
хан 5015
Кат@@ 5007
сексу@@ 5006
насти@@ 5004
Остро@@ 4998
28@@ 4996
гимна@@ 4995
ана@@ 4991
войска 4990
непре@@ 4988
Тех@@ 4986
достав@@ 4977
пру@@ 4970
пля@@ 4954
1908 4953
рит 4952
97 4948
1922 4943
мокра@@ 4943
все@@ 4939
кара@@ 4939
построен 4939
01 4933
Сар@@ 4929
нии 4928
вали@@ 4926
сов@@ 4923
епи@@ 4918
серия 4917
обору@@ 4912
94 4910
предназна@@ 4905
1951 4904
08 4903
зни 4898
контак@@ 4896
oc@@ 4893
Чу@@ 4892
комплекс 4891
ис 4880
1953 4879
N 4879
мас@@ 4879
ar@@ 4877
1877 4873
нера@@ 4868
вдо@@ 4867
1933 4863
игра 4863
Кни@@ 4861
код 4854
30@@ 4852
после 4850
том@@ 4843
5,@@ 4842
1957 4841
катего@@ 4838
шения 4838
фла@@ 4835
власти 4833
изпол@@ 4833
изме@@ 4832
реда@@ 4830
Орга@@ 4823
Нидер@@ 4817
укра@@ 4817
дал 4815
тропи@@ 4807
индиви@@ 4803
n 4795
1937 4793
тера@@ 4791
Пав@@ 4788
характер 4786
оне@@ 4784
Ари@@ 4782
Андже@@ 4780
снаб@@ 4776
1904 4775
Мер@@ 4774
председате@@ 4774
Пос@@ 4773
фабри@@ 4772
дела 4769
колко 4769
І 4768
прито@@ 4765
писи 4759
съпру@@ 4758
академи@@ 4753
постоян@@ 4752
дови@@ 4751
провин@@ 4750
ul@@ 4748
зам@@ 4747
роб@@ 4745
перио@@ 4744
президент@@ 4744
1917 4740
Под 4739
роли 4739
възра@@ 4738
Гар@@ 4736
опис@@ 4736
моне@@ 4733
лец 4731
следствие 4730
отно@@ 4728
гражда@@ 4723
ник@@ 4721
Васи@@ 4716
Мит@@ 4716
пов@@ 4712
фран@@ 4701
VII 4700
именно 4699
тога@@ 4697
09 4696
католиче@@ 4696
91 4692
украин@@ 4692
върш@@ 4691
ферен@@ 4690
вси@@ 4689
02 4682
албу@@ 4682
консер@@ 4680
отряд 4678
нача@@ 4676
творче@@ 4669
регистри@@ 4668
ада@@ 4660
ним 4660
тил 4659
Сюжет 4657
гласно 4656
повто@@ 4656
Петер@@ 4651
квали@@ 4651
лиан@@ 4647
1954 4646
лон@@ 4645
Ок@@ 4641
ѝ@@ 4636
Андре@@ 4634
гон 4634
07 4631
любов@@ 4631
сиг@@ 4627
бин@@ 4625
окончате@@ 4625
Кали@@ 4620
Все@@ 4619
линей@@ 4617
Слу@@ 4616
03 4615
гов 4615
сена 4615
Бли@@ 4612
хо 4611
предприя@@ 4610
Извест@@ 4609
лед@@ 4599
събра@@ 4595
’ 4589
24@@ 4588
1932 4585
дете@@ 4585
сек@@ 4583
отри@@ 4582
пост 4581
основан 4580
сведения 4579
вши@@ 4577
os@@ 4576
25@@ 4575
atus 4575
дес@@ 4567
1910 4566
африкан@@ 4566
корпус 4566
рекор@@ 4565
щер@@ 4562
v@@ 4559
сериал 4554
сю@@ 4554
орке@@ 4552
космо@@ 4551
определя@@ 4550
Тран@@ 4549
демон@@ 4548
кора@@ 4548
Сара@@ 4547
кле@@ 4547
D 4543
Клу@@ 4541
вале@@ 4541
Евро@@ 4538
la 4534
кам@@ 4534
родо@@ 4532
гале@@ 4531
am@@ 4529
Дани@@ 4527
ata 4523
1955 4517
кори@@ 4516
ево 4509
3,@@ 4508
дек@@ 4500
зиден@@ 4497
голя@@ 4496
счита@@ 4496
Z@@ 4494
лейтенант 4489
зер@@ 4484
лит@@ 4484
старо@@ 4484
4,@@ 4482
студен@@ 4477
Португа@@ 4476
духа 4476
информа@@ 4476
ine 4472
вести@@ 4472
популя@@ 4469
скан@@ 4467
ремон@@ 4465
ситуа@@ 4464
M 4462
просто 4460
цеп@@ 4454
вече@@ 4450
Спо@@ 4449
богат@@ 4449
лки 4446
количество 4434
amp 4427
рато@@ 4424
контроли@@ 4420
фло@@ 4420
заслу@@ 4415
конферен@@ 4415
сова 4413
постоянно 4412
Автор 4408
ro@@ 4407
гун@@ 4406
кратно 4400
опи@@ 4398
Никола@@ 4394
рово@@ 4394
изключ@@ 4390
бва 4387
бира@@ 4386
дов 4386
непосред@@ 4386
църк@@ 4386
сай@@ 4379
шах@@ 4361
юно@@ 4357
куро@@ 4354
услови@@ 4354
полови@@ 4347
побед@@ 4345
гно@@ 4344
канал 4344
леги@@ 4342
Впослед@@ 4341
Рей@@ 4340
La 4335
бет 4335
зала 4335
волю@@ 4331
спу@@ 4327
Село 4323
пребро@@ 4323
театра@@ 4317
x@@ 4315
O 4312
ау@@ 4312
наро@@ 4309
президента 4309
Фин@@ 4306
1931 4304
Тор@@ 4301
кновено 4300
строй@@ 4300
хот@@ 4293
тря@@ 4291
26@@ 4290
Например 4290
Олимпи@@ 4287
вей@@ 4283
19@@ 4282
конфлик@@ 4282
W 4277
ента@@ 4275
свой@@ 4274
сериала 4273
поня@@ 4256
c 4253
600 4252
бой 4248
Черно@@ 4238
Ъ@@ 4234
образова@@ 4232
Вин@@ 4231
треб@@ 4229
18@@ 4221
турнир 4212
Зо@@ 4209
рито@@ 4209
ктор@@ 4207
1916 4205
Влади@@ 4201
G 4199
облада@@ 4195
ография 4194
сам@@ 4192
Авто@@ 4190
Тю@@ 4190
лес 4190
университе@@ 4189
швед@@ 4189
бомбарди@@ 4187
Григо@@ 4186
рова@@ 4182
АТ@@ 4176
лев@@ 4175
пто@@ 4174
1906 4173
Бело@@ 4173
ag@@ 4168
мене@@ 4167
циф@@ 4165
чай@@ 4164
укреп@@ 4162
автор@@ 4153
рус@@ 4152
Интер@@ 4151
енен 4151
законо@@ 4151
портре@@ 4139
гии 4136
метри@@ 4136
суб@@ 4136
купи@@ 4135
ографи@@ 4133
повре@@ 4125
Стро@@ 4123
ют 4117
Л 4107
гда@@ 4107
контин@@ 4107
континента@@ 4104
R 4103
h 4103
ti@@ 4103
Гос@@ 4103
k 4097
km2 4092
разполо@@ 4092
защитник 4082
удар@@ 4078
6,@@ 4075
жено 4073
парламен@@ 4069
рекла@@ 4067
фектив@@ 4063
зрите@@ 4061
що@@ 4061
Ричар@@ 4059
подвод@@ 4059
l@@ 4055
санд@@ 4054
акти@@ 4051
29@@ 4050
гина@@ 4048
яй@@ 4044
количе@@ 4043
E 4032
Ав@@ 4032
импе@@ 4032
Мол@@ 4027
ресур@@ 4027
тари@@ 4022
1911 4019
Михай@@ 4018
спорт 4017
фило@@ 4017
Джор@@ 4016
гент@@ 4013
Тру@@ 4010
финал 4010
124@@ 4009
зло@@ 4005
удосто@@ 4004
титу@@ 3999
Ала@@ 3987
атмо@@ 3985
j@@ 3983
1902 3982
u@@ 3982
сли 3979
Бела@@ 3973
характери@@ 3973
кой@@ 3971
флота 3971
относ@@ 3970
Дър@@ 3964
пон@@ 3962
лей 3958
1907 3957
юн@@ 3952
постанов@@ 3947
вян@@ 3946
lo@@ 3942
ждение 3938
улица 3936
Дан@@ 3935
номина@@ 3933
проб@@ 3933
стояние 3928
нало@@ 3923
вне@@ 3920
образо@@ 3918
СС 3915
емо@@ 3906
разо@@ 3906
1909 3899
тка 3897
h@@ 3893
дисци@@ 3892
дон 3892
ани@@ 3883
Коло@@ 3882
120 3880
замен@@ 3880
летия 3878
бед@@ 3874
Кин@@ 3872
Вале@@ 3868
метро@@ 3863
функции 3862
чил 3857
il@@ 3853
Кро@@ 3853
ника@@ 3852
Ну@@ 3851
инициати@@ 3850
лок 3847
космиче@@ 3842
щения 3841
действ@@ 3835
id@@ 3833
Ис@@ 3833
Теле@@ 3830
гате@@ 3829
констру@@ 3825
жия 3824
документа@@ 3820
позволя@@ 3814
Зи@@ 3811
1885 3810
Вален@@ 3805
ств@@ 3804
доро@@ 3796
нологи@@ 3796
теше@@ 3796
Лат@@ 3794
Сим@@ 3794
is@@ 3792
1873 3791
27@@ 3791
ство@@ 3790
od@@ 3785
Али@@ 3784
гат@@ 3776
лег@@ 3776
Виктор 3773
sa 3770
участник 3756
to 3754
Ц 3754
ност@@ 3753
яко@@ 3752
звание 3746
ковод@@ 3746
стойчи@@ 3741
наи@@ 3740
пос@@ 3738
региона@@ 3735
&#124; 3733
ге 3719
бран@@ 3715
рез 3707
Смо@@ 3705
поро@@ 3701
кс@@ 3698
шан@@ 3697
пей@@ 3694
партии 3688
концеп@@ 3683
ствия 3683
церемо@@ 3683
регу@@ 3676
Сю@@ 3666
опас@@ 3665
250 3662
ur@@ 3660
озна@@ 3655
p 3652
став 3649
компании 3648
секу@@ 3648
чар@@ 3645
напис@@ 3642
Бори@@ 3641
охра@@ 3638
et@@ 3624
закон@@ 3621
1901 3616
трени@@ 3616
I. 3612
800 3610
it@@ 3610
P 3609
моз@@ 3605
имено@@ 3597
пес@@ 3597
ави@@ 3589
VIII 3583
Ган@@ 3583
форму@@ 3582
разно@@ 3580
op@@ 3579
кана@@ 3573
имо@@ 3571
оба@@ 3571
подо@@ 3571
чит@@ 3571
Лон@@ 3568
z@@ 3566
ЦК 3565
лабо@@ 3561
двор@@ 3557
лм 3553
em@@ 3550
Con@@ 3545
конфли@@ 3544
пример 3540
операции 3538
магази@@ 3534
кино@@ 3528
le@@ 3527
стро 3525
Кол@@ 3524
капита@@ 3520
кост@@ 3520
вероя@@ 3518
купа@@ 3509
ap@@ 3504
Викто@@ 3502
упо@@ 3502
тон@@ 3500
Al@@ 3487
ней 3484
Лей@@ 3481
ститу@@ 3479
Сър@@ 3477
at@@ 3473
as@@ 3471
tr@@ 3469
З 3469
теоре@@ 3469
Мен@@ 3465
днев@@ 3460
нуж@@ 3459
превра@@ 3458
турни@@ 3457
печ@@ 3453
кило@@ 3452
шо 3452
An@@ 3448
прово@@ 3446
т. 3444
1895 3442
ърк@@ 3432
Гон@@ 3431
Андрей 3425
St@@ 3414
медицин@@ 3411
Прав@@ 3406
кви 3406
станов@@ 3406
фамилия 3406
Хор@@ 3405
ta 3400
ума 3397
слова@@ 3396
фин@@ 3389
позиции 3377
Дон@@ 3375
u 3370
см 3367
al 3366
1896 3358
чета@@ 3358
соб@@ 3357
Бол@@ 3356
ку 3356
предме@@ 3352
ряда 3351
вобо@@ 3347
усло@@ 3345
тела 3343
семей@@ 3341
мало@@ 3339
Зна@@ 3337
ради 3333
жар@@ 3332
морска 3332
вер 3320
нец 3314
пенси@@ 3313
тече@@ 3313
сро@@ 3310
Mac@@ 3309
тий 3307
дон@@ 3306
щен@@ 3301
Ах@@ 3289
In@@ 3288
скон@@ 3287
8,@@ 3274
ina 3273
поте@@ 3272
избе@@ 3267
цов 3259
департа@@ 3253
туга@@ 3249
отправ@@ 3248
желез@@ 3247
1899 3244
li@@ 3244
АН 3244
Нача@@ 3243
119@@ 3235
внимание 3222
джан@@ 3215
лиде@@ 3215
an 3211
Соци@@ 3211
Санкт 3209
H 3207
застра@@ 3202
ордина@@ 3198
Ген@@ 3197
7,@@ 3196
Ново@@ 3196
мино@@ 3193
ством 3193
чие 3184
чин@@ 3183
меня@@ 3180
чко 3173
профе@@ 3168
кг 3160
жества 3159
$ 3155
Ar@@ 3153
порт 3152
Tr@@ 3151
отве@@ 3143
1876 3140
Стар@@ 3136
шил 3133
меж@@ 3130
лага@@ 3128
модели 3127
комен@@ 3121
андар@@ 3119
ря 3116
секретар@@ 3116
Обще@@ 3115
полага@@ 3114
фли@@ 3111
лии 3110
120@@ 3108
Вил@@ 3107
1894 3105
ровка 3101
ду 3100
лод@@ 3100
так 3099
неф@@ 3095
бом@@ 3091
кономи@@ 3090
жени@@ 3087
фре@@ 3086
фар@@ 3082
IX 3073
место@@ 3073
w@@ 3072
1.@@ 3068
700 3064
XVIII 3062
степен@@ 3062
произведе@@ 3056
публика@@ 3056
стат@@ 3050
es@@ 3048
избира@@ 3048
сня@@ 3041
команди@@ 3038
огро@@ 3037
9,@@ 3027
щем 3025
няко@@ 3017
1880 3016
1898 3016
XIV 3016
ad@@ 3012
1897 3006
кру@@ 3003
стер 2999
or 2996
нович 2992
решения 2990
лик@@ 2988
Москов@@ 2987
баталь@@ 2985
di@@ 2981
води@@ 2977
Лит@@ 2970
привле@@ 2968
дивизи@@ 2959
11@@ 2957
обозна@@ 2954
наб@@ 2952
el 2948
персона@@ 2939
заво@@ 2934
” 2927
зах@@ 2922
at 2920
ec@@ 2919
Car@@ 2918
Казах@@ 2914
шен@@ 2911
рд 2909
XVI 2908
съю@@ 2908
ana 2902
ar 2902
en 2901
номе@@ 2898
тол@@ 2898
приме@@ 2896
кино 2895
подразде@@ 2889
версии 2886
хов 2886
обу@@ 2883
ys 2881
Мат@@ 2879
ri@@ 2878
други@@ 2875
свобод@@ 2875
всем 2874
1890 2859
TV 2856
1500 2854
аври@@ 2852
as 2845
провинции 2834
ники 2830
ica 2829
завод 2828
1879 2827
1891 2822
Все 2817
гов@@ 2807
огра@@ 2807
́ 2803
уст@@ 2803
сте 2802
онат 2800
bi@@ 2798
тур 2795
фе 2794
одо@@ 2788
Кав@@ 2785
Константи@@ 2784
kg 2783
Ита@@ 2780
архите@@ 2778
no@@ 2775
Мно@@ 2772
ждения 2769
пере@@ 2759
маршру@@ 2758
арх@@ 2750
1870 2748
сор 2746
og@@ 2735
компа@@ 2733
воз@@ 2729
евич 2726
научно 2722
провод@@ 2719
люб@@ 2718
серта@@ 2717
споме@@ 2717
Th@@ 2714
180 2713
иту@@ 2704
Дне@@ 2701
попу@@ 2690
пр@@ 2687
1893 2684
Василий 2681
ter@@ 2679
мана 2679
измене@@ 2671
Пари@@ 2664
вез@@ 2662
1889 2656
пълно 2653
ed 2649
1892 2642
XVII 2641
1886 2637
C. 2636
абсолю@@ 2635
вое@@ 2632
b 2626
нич@@ 2623
сфер@@ 2621
пун@@ 2619
im@@ 2618
заме@@ 2613
Par@@ 2611
обнов@@ 2603
вов 2599
пору@@ 2598
лиш@@ 2596
позво@@ 2592
лес@@ 2589
Участ@@ 2587
навли@@ 2586
1881 2585
губерна@@ 2580
тюр@@ 2577
Плов@@ 2574
кавале@@ 2570
гла 2568
ту 2568
U 2561
нк@@ 2559
гни@@ 2558
характе@@ 2550
седате@@ 2546
досто@@ 2544
1,5 2538
явление 2535
1884 2531
os 2531
религи@@ 2529
118@@ 2527
уро@@ 2526
1883 2522
бронзо@@ 2519
авиа@@ 2518
Миха@@ 2517
ea 2515
француз@@ 2512
Ac@@ 2506
ré@@ 2506
3000 2500
вел 2499
армии 2495
учре@@ 2495
следовате@@ 2492
00@@ 2490
с. 2490
глу@@ 2482
шоу 2480
станции 2472
ром 2471
re@@ 2470
st@@ 2469
отра@@ 2469
po@@ 2468
r 2462
Windows 2459
di 2459
1860 2456
Y@@ 2453
ci@@ 2453
вили 2447
лята 2442
ati@@ 2440
преду@@ 2439
Робер@@ 2438
ного 2437
лян@@ 2436
противника 2435
внима@@ 2432
Тат@@ 2425
XV 2421
ig@@ 2419
кров@@ 2416
жил 2413
педагоги@@ 2406
XII 2399
tienne 2398
Population 2397
дю@@ 2394
Co@@ 2391
сите@@ 2390
Од@@ 2389
Br@@ 2388
édo@@ 2387
160 2386
дей 2384
to@@ 2383
Констан@@ 2383
1888 2374
корпуса 2374
писал 2370
Re@@ 2369
alis 2369
мум 2361
секре@@ 2361
брон@@ 2359
сей 2359
Нар@@ 2357
архе@@ 2357
K 2350
фрон@@ 2349
начи@@ 2337
ation 2335
Джей@@ 2335
назва@@ 2335
Федера@@ 2329
Сергей 2327
цу 2327
шел 2312
мел@@ 2307
1848 2305
Ph@@ 2304
жет 2304
ктора 2304
вза@@ 2299
находи@@ 2298
Cr@@ 2297
XI 2294
Азербай@@ 2293
1882 2290
us@@ 2289
кисло@@ 2277
1871 2271
зя@@ 2271
XIII 2267
Зав@@ 2267
начал@@ 2267
ab@@ 2264
1887 2260
Стефа@@ 2260
бело@@ 2253
oph@@ 2246
w 2236
хер@@ 2235
бат@@ 2229
Петро@@ 2225
зии 2224
жиз@@ 2223
Гър@@ 2217
показате@@ 2214
парта@@ 2213
числа 2213
pr@@ 2211
коман@@ 2211
практически 2211
1875 2209
Le@@ 2209
час 2206
le 2204
• 2197
ir@@ 2196
дово@@ 2195
1872 2189
Авст@@ 2189
ed@@ 2181
114@@ 2180
dae 2172
название 2171
un@@ 2170
наход@@ 2166
per@@ 2165
av@@ 2164
участи@@ 2163
лах 2160
реб@@ 2151
миро@@ 2148
140 2143
World 2143
ников 2142
ру 2138
школ@@ 2138
актри@@ 2135
рам 2134
сиона@@ 2132
неде@@ 2121
You 2120
приз@@ 2119
130 2111
иници@@ 2111
ном 2111
показа@@ 2110
оне 2104
2,5 2100
заклю@@ 2100
ach@@ 2099
носи@@ 2096
вила 2088
Сою@@ 2086
5000 2081
лосо@@ 2080
f 2079
Екате@@ 2078
фикации 2073
na 2071
Кита@@ 2071
бу 2068
мии 2066
сей@@ 2061
yl@@ 2056
вой 2056
aceae 2053
da 2053
кир@@ 2051
1869 2050
WWE 2050
115@@ 2048
‰ 2047
1867 2046
1864 2045
ровки 2037
z 2036
Bo@@ 2033
записи 2033
co@@ 2031
осъще@@ 2030
храни@@ 2026
110 2023
900 2023
XX@@ 2019
Mar@@ 2016
оче@@ 2009
Com@@ 2008
бити@@ 2005
гато 2005
Евге@@ 1993
2.@@ 1990
безопас@@ 1990
it 1989
lidae 1989
лагер@@ 1986
лом 1986
персо@@ 1977
бай@@ 1975
раз 1974
1200 1971
ню@@ 1970
хоро@@ 1970
Ленин@@ 1967
движения 1965
pi@@ 1964
ru@@ 1964
су 1964
ob@@ 1963
Ю 1961
ni@@ 1958
Bar@@ 1957
бище 1957
eg@@ 1953
креп@@ 1950
област@@ 1949
one 1942
ор 1940
1874 1936
ВС 1932
иму@@ 1932
спорта 1932
ѫ@@ 1931
1868 1930
am 1930
ep@@ 1930
ху 1929
ella 1922
Англи@@ 1921
1866 1916
лович 1914
br@@ 1909
трудо@@ 1905
епар@@ 1904
нил 1904
qu@@ 1900
патри@@ 1899
1861 1897
место 1896
Records 1891
ate 1889
de@@ 1889
евро@@ 1889
Уни@@ 1884
стото 1884
отличие 1883
ври 1877
quot 1875
Am@@ 1874
Дим@@ 1871
par@@ 1870
au@@ 1869
Дмит@@ 1863
De@@ 1860
350 1854
пят@@ 1852
Алексе@@ 1849
ens 1846
истории 1846
ber@@ 1842
птем@@ 1841
цев 1834
Кана@@ 1827
116@@ 1825
ch 1824
1863 1823
Ex@@ 1822
vi@@ 1820
готов@@ 1819
кива 1819
Sh@@ 1818
OS 1817
метра@@ 1814
ордена 1808
правило 1806
кина 1805
gr@@ 1804
1850 1803
район@@ 1800
117@@ 1796
all@@ 1796
нах 1796
1865 1795
его 1794
Col@@ 1786
1830 1784
Mon@@ 1783
for 1778
принадлежа@@ 1778
говото 1776
Так@@ 1775
млад@@ 1773
tu@@ 1772
1800 1771
отец 1770
Сак@@ 1765
ut@@ 1761
химиче@@ 1761
ers 1760
имуще@@ 1758
дис@@ 1755
Love 1752
получи@@ 1752
ti 1746
Q@@ 1741
que 1736
Мини@@ 1732
публика 1732
категории 1728
ie 1727
ST@@ 1726
сериа@@ 1723
сил 1723
mo@@ 1719
170 1716
ve 1716
домаш@@ 1709
si@@ 1706
груп@@ 1705
yr@@ 1704
125 1703
ter 1702
DVD 1700
шли 1700
ell@@ 1699
рович 1697
2022 1695
do@@ 1695
КП@@ 1694
te 1693
Осман@@ 1693
113@@ 1691
3.@@ 1690
лаго@@ 1689
1856 1686
Di@@ 1686
… 1686
степенно 1681
tic@@ 1678
se 1677
второ@@ 1677
1862 1675
ас@@ 1670
1859 1666
ѣ@@ 1665
ent@@ 1662
оте@@ 1662
um@@ 1658
мерно 1652
лъж@@ 1650
# 1648
милия 1647
голо@@ 1640
Sp@@ 1639
Мек@@ 1637
age 1636
ale 1633
шва 1630
рей 1628
ich@@ 1626
получил 1620
графа 1617
ath@@ 1614
mar@@ 1610
der 1607
сть@@ 1603
Коро@@ 1599
Str@@ 1597
des 1587
pl@@ 1587
ССР 1586
фронта 1586
сдел@@ 1585
дивизии 1583
uc@@ 1582
ent 1580
дли@@ 1575
степ@@ 1575
лектро@@ 1569
anus 1568
ma 1562
Cor@@ 1558
4000 1555
хри@@ 1555
105 1549
Cal@@ 1547
23@@ 1540
1858 1538
среди 1538
Se@@ 1537
Велико@@ 1537
смо@@ 1534
дея@@ 1526
1840 1522
Be@@ 1520
1300 1514
He@@ 1513
US@@ 1512
ran@@ 1512
ing@@ 1508
az@@ 1506
зидент@@ 1506
Gr@@ 1503
пас@@ 1502
Еги@@ 1499
Per@@ 1498
em 1498
4.@@ 1496
bus 1496
1600 1495
bo@@ 1494
сок 1494
450 1493
мах 1491
Hy@@ 1490
gi@@ 1487
icus 1487
Cy@@ 1486
Or@@ 1485
1849 1477
ari@@ 1476
Qu@@ 1474
матри@@ 1474
бов 1468
101 1465
гвардей@@ 1465
даже 1465
Александра 1463
³ 1458
ну 1458
,@@ 1457
серии 1457
1806 1453
Hz 1453
Google 1452
cus 1452
полка 1451
цик@@ 1450
Me 1449
дека@@ 1443
ore 1441
1854 1436
говори@@ 1436
New 1435
ov@@ 1433
лум@@ 1432
Анато@@ 1431
0.@@ 1430
ca 1426
ad 1425
codice 1425
oma 1424
eph@@ 1420
ver@@ 1419
рован 1417
мед@@ 1411
Microsoft 1410
En@@ 1408
1853 1407
urus 1407
Климат 1406
102 1404
1857 1404
ay 1404
est 1404
re 1402
Рос@@ 1401
стана 1400
чат@@ 1400
хе 1399
eb@@ 1394
ell 1392
Бълга@@ 1391
гото@@ 1390
гу 1388
зей 1387
ким 1385
ници@@ 1385
ходи@@ 1380
1700 1371
× 1369
Ш 1369
Music 1366
Ne@@ 1365
Cl@@ 1364
My@@ 1359
inus 1359
{ 1359
con@@ 1358
12,@@ 1356
ic 1356
і@@ 1350
Отече@@ 1349
Украин@@ 1348
Сол@@ 1347
том 1346
por@@ 1340
UTC 1339
CD 1338
играл 1337
учения 1335
5.@@ 1334
CO@@ 1334
For@@ 1334
ra 1334
Po@@ 1333
IS@@ 1330
ura 1330
коне@@ 1328
3,5 1326
hy@@ 1325
сами 1325
can@@ 1324
Афри@@ 1319
tion 1317
ce 1316
губер@@ 1316
Завър@@ 1313
ist@@ 1308
1821 1296
Sc@@ 1295
era 1293
завое@@ 1290
педаго@@ 1290
Ad@@ 1289
all 1289
лял 1289
RA@@ 1288
мая 1287
После 1284
str@@ 1280
Pr@@ 1278
Вилхе@@ 1278
1815 1277
In 1276
ниц 1274
Ro@@ 1272
1831 1271
1812 1270
ne@@ 1270
Te@@ 1266
ans 1266
yc@@ 1266
мож@@ 1266
1835 1265
гвар@@ 1265
сезо@@ 1265
ряд 1263
Lo@@ 1262
1829 1261
My 1261
Un@@ 1260
ass@@ 1260
240 1254
ili@@ 1254
Pro@@ 1251
J 1246
eus 1246
rom@@ 1246
езе@@ 1246
тта 1245
1855 1242
горо@@ 1242
ними 1242
est@@ 1240
127 1235
TA 1233
необ@@ 1230
pe@@ 1228
Разпростра@@ 1228
− 1226
1852 1225
ex@@ 1225
1845 1224
1828 1222
tri@@ 1221
AR@@ 1219
Z 1219
сков@@ 1218
za 1217
lu@@ 1216
ит 1215
10,@@ 1214
v 1214
ког@@ 1213
Y 1212
ou@@ 1212
Пере@@ 1209
Mus@@ 1205
атов 1205
1820 1204
car@@ 1204
oth@@ 1204
прак@@ 1204
act@@ 1203
eri 1203
se@@ 1203
sp@@ 1203
рая 1201
1837 1200
so@@ 1200
ang@@ 1199
ai 1197
ог@@ 1197
hi@@ 1195
1814 1193
служил 1192
счит@@ 1192
общества 1191
1847 1189
Ag@@ 1189
mac@@ 1189
Mo@@ 1188
1841 1184
152 1182
220 1182
Ma@@ 1182
Калифор@@ 1182
ску 1182
появи@@ 1180
исто@@ 1179
митрополи@@ 1178
ОО@@ 1175
комите@@ 1173
​ 1173
зиди@@ 1172
похо@@ 1172
6.@@ 1168
блиоте@@ 1167
ML 1166
tidae 1166
International 1165
0,5 1163
осу@@ 1162
ченко 1162
1851 1159
7.@@ 1156
ons 1155
yp@@ 1154
1844 1153
птември 1153
1846 1151
360 1151
9.@@ 1151
per 1151
ная 1147
Занима@@ 1146
1836 1144
sch@@ 1144
Ж 1144
гну@@ 1140
Li@@ 1137
sh@@ 1137
Live 1136
начина@@ 1135
iz@@ 1130
ларов 1130
Dr@@ 1128
рополи@@ 1128
смет@@ 1128
amb@@ 1127
стоян@@ 1127
Красно@@ 1126
ап@@ 1126
1400 1125
ops 1125
ский 1124
alus 1122
1792 1121
2500 1121
Ser@@ 1121
ol 1121
MS 1120
ly 1120
ями 1117
Tur@@ 1116
und 1116
зал 1116
ak@@ 1115
ho@@ 1112
aur@@ 1110
ill@@ 1109
11,@@ 1108
Ab@@ 1108
програм@@ 1106
4,5 1104
Tour 1104
AS@@ 1102
hin@@ 1099
ся 1097
Хайн@@ 1095
did@@ 1093
1839 1092
1843 1092
80@@ 1089
El@@ 1089
are 1088
io 1087
ps 1086
Go@@ 1082
106 1080
кий 1080
жили 1079
com@@ 1075
оказа@@ 1074
280 1072
вос@@ 1072
onidae 1070
8.@@ 1067
un 1067
opus 1066
lar@@ 1064
One 1063
Цер@@ 1062
ax 1061
inc@@ 1060
завода 1060
Can@@ 1059
iv@@ 1059
ская 1059
дето 1058
1818 1055
tor@@ 1055
ον 1054
1832 1052
1838 1049
1834 1048
tes 1048
13,@@ 1047
Pi@@ 1047
mag@@ 1047
гим@@ 1047
ii 1046
чате@@ 1046
cor@@ 1045
ok@@ 1045
cr@@ 1043
лю 1042
тии 1041
стал 1040
j 1039
.com 1038
135 1037
750 1037
безо@@ 1037
1810 1036
ik@@ 1036
института 1036
ue 1035
ae@@ 1033
столи@@ 1032
1793 1030
публики 1029
108 1028
ge 1028
AC 1027
1842 1025
ula 1022
osa 1020
if@@ 1015
1825 1014
los@@ 1013
All 1011
1822 1009
Ap@@ 1008
ola 1008
даря 1008
франц@@ 1008
190 1007
V. 1007
man@@ 1007
Her@@ 1006
Life 1005
ice 1005
mon@@ 1005
ne 1005
1813 1004
and@@ 1002
It 1001
103 1000
впа@@ 1000
ten@@ 999
320 998
il 997
Si@@ 994
To@@ 994
ha 990
id 990
ot 989
Group 988
Pe@@ 988
ma@@ 988
104 987
Mag@@ 985
ini 985
ite 985
Sch@@ 981
Сем@@ 981
ion 980
ora 979
tus 979
Billboard 978
ant 977
степени 976
Ge@@ 975
Les 975
ant@@ 975
man 974
сток 974
1789 972
Vi@@ 972
nis 971
Sol@@ 970
WW@@ 970
1795 969
orum 969
od 968
si 968
109 967
Black 967
ight 966
Tri@@ 965
1803 964
int 963
tra 961
комитета 961
128 959
te@@ 959
ty 959
нем 959
1797 958
º 958
prin@@ 957
end@@ 955
à 955
ard 954
lan@@ 953
mi@@ 953
230 952
CA@@ 951
SS 951
1790 950
yth@@ 949
tis 948
Wor@@ 946
авиацион@@ 946
онов 946
179@@ 943
Mor@@ 942
москов@@ 942
служи@@ 942
1819 941
107 938
Rock 937
Воро@@ 937
друго@@ 937
имен@@ 937
ena 936
14,@@ 935
du@@ 935
1833 933
ann@@ 933
HT@@ 932
Ver@@ 932
оборо@@ 932
1,2 931
1805 931
RO@@ 930
руб@@ 930
oni@@ 928
ure 927
ске 927
Tro@@ 925
ile 925
док 925
Wrestling 924
Do@@ 922
II@@ 920
ka 920
Java 918
Hol@@ 917
36@@ 916
ere 916
1808 914
Ca@@ 914
стали 914
210 913
Fr@@ 913
Роди@@ 913
ous 911
son@@ 911
122 910
tel@@ 910
As@@ 909
1816 908
1799 907
40@@ 907
cu@@ 904
do 904
ком 904
be 902
Филип@@ 901
Man@@ 900
СС@@ 898
1817 897
отказа@@ 897
34@@ 896
Q 896
ος 895
Fe@@ 894
och@@ 894
сол@@ 894
cul@@ 892
синг@@ 892
At@@ 891
приве@@ 891
115 889
Bl@@ 889
1826 887
ain 887
ino 886
EP 885
th 885
върх@@ 885
присво@@ 884
col@@ 883
no 883
1801 882
Ty@@ 882
co 882
Apple 881
by 881
1807 880
рах 880
AP@@ 879
lin@@ 879
Ο@@ 879
рован@@ 879
щие 879
ick@@ 875
ору@@ 875
out 874
35@@ 873
твер@@ 873
ari 872
260 869
yn@@ 868
ni 867
550 866
Cer@@ 866
Entertainment 866
uli@@ 866
ях 866
eli@@ 865
Я 865
ts 864
Ря@@ 864
650 863
ator 863
be@@ 861
me 861
é 861
1804 859
ь 859
ei 858
ks 858
126 857
Uni@@ 857
la@@ 855
Α@@ 855
1794 853
Dis@@ 853
270 852
mel@@ 851
ake 848
330 846
380 846
α 846
vir@@ 845
ото@@ 845
1791 843
123 842
Fl@@ 842
ani 841
Fi@@ 839
Gu@@ 839
ess 837
ost@@ 837
111 836
Le 835
жер@@ 834
ary 833
ace 832
жур@@ 832
1824 829
33@@ 829
стой 829
ala 828
СА@@ 828
enti@@ 827
бка 826
1798 825
No@@ 825
корпу@@ 823
.-@@ 822
De 822
Mel@@ 822
Micro@@ 822
aria 822
1827 821
10.@@ 820
1823 819
дет 819
112 818
Ho@@ 817
ya 817
15,@@ 816
Ι@@ 816
7,5 815
Bur@@ 814
No 813
дела@@ 813
37@@ 812
á@@ 811
175 810
ity 809
воло@@ 809
3D 808
for@@ 808
su@@ 808
und@@ 806
So@@ 805
oides 805
значения 804
50@@ 803
Company 803
логии 803
den 802
Воло@@ 800
AM@@ 799
fr@@ 799
ge@@ 799
ides 798
oni 798
дере@@ 798
124 797
af@@ 797
IN@@ 796
1802 795
Er@@ 795
Op@@ 795
ance 795
nch@@ 795
les 794
1809 792
AT@@ 792
хии 791
22@@ 790
Bi@@ 790
12.@@ 789
арми@@ 789
лектри@@ 789
ence 788
114 787
Mer@@ 787
117 784
17,@@ 784
ES@@ 784
up@@ 784
ra@@ 783
NE@@ 782
ys@@ 782
ay@@ 781
луч@@ 781
см@@ 781
ano 779
cin@@ 777
ur 777
ai@@ 776
соз@@ 776
рь@@ 775
рян@@ 775
Τ@@ 774
→ 773
School 772
bl@@ 772
РС@@ 772
мага@@ 772
ev@@ 771
38@@ 768
cop@@ 768
ser@@ 768
Pol@@ 766
UN@@ 766
Time 765
бря@@ 765
Bel@@ 764
ali@@ 763
ek@@ 762
dia 760
ius 759
Me@@ 758
FI@@ 757
ey 757
кая 757
ј@@ 755
спорт@@ 754
шед@@ 754
Min@@ 753
ara 753
Австра@@ 753
16,@@ 752
Ч 750
min@@ 749
каде@@ 748
пр.н@@ 748
ib@@ 747
om 746
sol@@ 746
гля@@ 746
mer@@ 743
Inter@@ 742
son 742
1811 740
ings 740
дя 740
25,@@ 739
ba@@ 739
cap@@ 739
del 739
Σ@@ 739
преимуще@@ 739
€ 738
abr@@ 737
sus 736
è@@ 736
Empire 734
SO@@ 734
пор 734
yg@@ 733
Ot@@ 731
alb@@ 731
à@@ 731
ning 730
ord@@ 729
Й 728
Mal@@ 727
der@@ 727
ros@@ 727
bu@@ 726
Κ@@ 726
ug@@ 725
Cas@@ 724
Eth@@ 724
город 724
American 723
ema 723
сад@@ 723
121 722
18,@@ 721
We@@ 720
IBM 719
anc@@ 719
ici@@ 719
Δ@@ 719
IC@@ 718
ak 718
ef@@ 718
Bre@@ 717
NO@@ 717
ref 717
Su@@ 715
dr@@ 714
he@@ 714
tor 714
Елиза@@ 714
ect@@ 710
город@@ 709
end 707
sit@@ 707
Мекси@@ 707
вое 707
118 706
Hot 706
PS 706
ISO 705
ta@@ 704
ответ@@ 704
chi@@ 703
Mark 702
Брази@@ 702
Of 701
Как 701
Cha@@ 700
ton 700
Fre@@ 697
SI 696
атом 696
129 693
155 693
Disney 693
IM@@ 692
ita 691
du 690
Gal@@ 689
ello 689
illa 689
19,@@ 688
Network 688
view 688
рование 688
уез@@ 688
надле@@ 687
cer@@ 686
Thr@@ 685
SA@@ 684
бере@@ 684
мь@@ 684
рования 684
chil@@ 683
ler 683
Анг@@ 683
gu@@ 682
nig@@ 682
é@@ 682
cur@@ 681
Por@@ 679
них 679
opter@@ 677
ā@@ 676
IP 675
anth@@ 675
пу 675
Au@@ 673
Linux 673
ym@@ 673
преки 673
ff@@ 672
land 672
tro@@ 672
pen@@ 671
cre@@ 670
Pl@@ 669
39@@ 668
Bal@@ 668
ow@@ 668
20,@@ 667
li 667
ub@@ 667
Elec@@ 666
Man 666
ida 666
′ 666
Fac@@ 665
яну@@ 665
amp@@ 664
ars 664
gen@@ 664
проводи@@ 664
Gl@@ 663
Em@@ 662
On 662
метров 662
Ste@@ 661
щена 661
ain@@ 660
del@@ 660
int@@ 660
Sal@@ 659
sc@@ 659
Hel@@ 658
116 657
Tor@@ 657
eti@@ 657
IT@@ 656
Times 655
anti@@ 655
Die 654
Sil@@ 653
ep 653
} 653
£ 653
eps 652
ulus 652
газ@@ 651
PC 650
pal@@ 650
bar@@ 649
DJ 648
ales 648
ass 648
Крас@@ 647
цей 647
зу 646
MP@@ 644
Bul@@ 643
ori@@ 643
vo@@ 643
восто@@ 641
145 640
gar@@ 640
ory 640
tica 640
евна 640
To 638
Your 638
eo 638
Nov@@ 637
Cre@@ 636
ard@@ 636
eng@@ 636
ess@@ 636
зербай@@ 636
š@@ 635
27,@@ 633
aris 633
ner 633
Val@@ 632
ates 631
ster@@ 631
MTV 629
ona 629
кого 629
atr@@ 628
Leg@@ 626
ex 626
CH@@ 625
ium 625
tel 625
Rom@@ 624
Ε@@ 624
45@@ 623
60@@ 623
War@@ 623
ское 623
ah@@ 622
об 622
Ber@@ 621
ki@@ 621
AC@@ 620
ack@@ 620
yi 620
113 619
получила 618
24,@@ 617
phil@@ 617
public 617
11.@@ 616
che 616
1. 615
Pal@@ 615
fer@@ 615
ens@@ 614
проходи@@ 613
On@@ 612
lis 612
ver 612
близо@@ 612
ang 611
unc@@ 611
Warner 610
A. 609
Im@@ 609
Pas@@ 609
cript 609
onia 609
FC 608
mat@@ 608
млн 608
ist 607
name 607
`@@ 606
bre@@ 606
pel@@ 606
Ang@@ 605
Pic@@ 605
cel@@ 605
ise 605
Населе@@ 605
ной 604
ja 603
mor@@ 603
BM@@ 602
ila 602
thi@@ 602
Air 601
eri@@ 601
lor@@ 600
Dre@@ 599
Chil@@ 598
System 598
ama 598
rit@@ 598
Scar@@ 597
самостоя@@ 596
26,@@ 593
Gi@@ 593
uf@@ 593
55@@ 591
Mur@@ 591
aw@@ 591
ect 591
Club 590
e.@@ 590
AN@@ 588
MA 588
зации 588
Blo@@ 587
sk@@ 587
Pan@@ 586
wer@@ 586
Швей@@ 586
with 585
Meg@@ 583
graphi@@ 583
даго@@ 583
cal@@ 582
iss@@ 582
loc@@ 582
BBC 581
ade 581
ceph@@ 581
ever 581
Иванович 581
Corporation 580
Ur@@ 580
tions 580
urn@@ 580
thr@@ 579
High 578
eh@@ 578
вше@@ 578
Grec@@ 577
Night 577
ast@@ 577
\ 576
toman 575
pin@@ 574
Mas@@ 573
El 572
Star 572
Up 572
ke 572
ню 572
Char@@ 571
Hydro@@ 571
Open 571
bor@@ 571
new 571
ER@@ 570
olo@@ 570
деяте@@ 570
Is 569
don@@ 569
Best 567
SP@@ 567
Eur@@ 566
atisti@@ 566
cl@@ 566
the@@ 566
132 565
Tel@@ 565
iti@@ 565
our 565
года 565
Kr@@ 564
ister 564
фестива@@ 564
Sci@@ 563
Cro@@ 562
Eu@@ 562
Sph@@ 562
ko@@ 562
ς 562
Ниж@@ 562
Awards 561
IE@@ 561
48@@ 560
DC 560
va 560
University 559
Fox 558
Red 558
atum 558
ics 558
ki 558
AN 557
Vol@@ 557
Il 556
able 554
q@@ 554
Not@@ 553
23,@@ 552
AF 552
adi@@ 552
st 552
ical 551
low 551
Fo@@ 550
YouTube 550
Χ@@ 550
City 549
Del@@ 549
Ros@@ 549
Vo@@ 549
è 549
USS 548
ah 548
Har@@ 547
Pictures 547
This 547
Герма@@ 547
SM 546
ud@@ 546
Inc. 545
ast 545
im 545
кафе@@ 545
клад@@ 545
Blue 544
Lib@@ 544
Mot@@ 543
ι@@ 543
позволи@@ 543
Media 542
Pin@@ 542
NA 541
ense 541
fin@@ 541
pos@@ 541
заня@@ 541
пунк@@ 540
моло@@ 539
We 538
ir 538
· 538
go@@ 537
Syst@@ 535
Π@@ 535
22,@@ 534
ick 534
me@@ 534
ó@@ 534
RI@@ 533
pu@@ 533
μ@@ 533
Rec@@ 532
ostr@@ 532
National 531
SE@@ 531
omy@@ 531
нок 531
eter@@ 530
Ρ@@ 530
44@@ 529
ene 529
Met@@ 528
ry 527
asi@@ 526
igh@@ 525
q 524
TE@@ 523
Hor@@ 522
Wi@@ 522
Sec@@ 521
AG 520
Channel 520
Reg@@ 519
SD 519
ace@@ 519
tar@@ 519
Sor@@ 518
til@@ 518
ular@@ 518
чел 518
CA 517
Studios 517
Sy@@ 517
ax@@ 516
Bab@@ 515
Cir@@ 515
‘ 514
Plat@@ 513
` 513
phy@@ 513
way 513
46@@ 512
Jo@@ 512
VI@@ 512
sin@@ 512
sub@@ 512
ly@@ 511
Ul@@ 510
www.@@ 510
pp@@ 509
ave 508
ber 508
sim@@ 508
elle 507
entr@@ 507
едо@@ 507
ack 506
Cin@@ 505
Na@@ 505
Vir@@ 505
ista 504
tur@@ 504
yan@@ 504
CN@@ 503
US 503
arr@@ 503
ι 503
York 502
ok 501
ors 501
ota 501
sy@@ 501
Cu@@ 500
воро@@ 500
дино@@ 500
119 499
2. 499
TV@@ 499
arius 499
inn@@ 499
тая 499
шие 499
SA 498
oh@@ 498
Ν@@ 498
круп@@ 498
HMS 497
ken 497
tac@@ 497
ual 497
помощи 497
ide 496
NGC 495
aj@@ 495
Поз@@ 495
ada 494
Big 493
гда 493
вопро@@ 492
Av@@ 491
Pro 491
РСФСР 491
EC@@ 490
примерно 490
Don 489
Mir@@ 489
ase 489
стр 488
200@@ 487
70@@ 487
zi 487
Lep@@ 486
сона 486
ker 485
Окон@@ 485
Camp@@ 484
ire 484
AS 483
DE@@ 483
illi@@ 482
č@@ 482
dis@@ 481
if 481
its 481
ong@@ 481
we@@ 480
э@@ 480
bul@@ 479
Be 478
Ed@@ 478
bat@@ 478
sal@@ 478
α@@ 478
als 477
pe 477
tic 477
SS@@ 476
аль@@ 476
ям 476
ero 475
Ben@@ 474
Eng@@ 474
Pri@@ 474
au 474
ѐ 474
Gre@@ 473
class 473
ima 473
команда 473
ное 473
Es@@ 472
Gar@@ 472
Studio 472
Wh@@ 472
ä@@ 472
ë@@ 472
Plan@@ 471
Ple@@ 471
lia 471
nus 471
ung@@ 471
уго@@ 471
90@@ 469
For 468
cas@@ 468
21,@@ 466
Chr@@ 466
lam@@ 466
nam@@ 466
ny@@ 466
ones 466
opo@@ 466
47@@ 465
Sw@@ 465
km@@ 465
ler@@ 465
Μ@@ 465
ί@@ 465
псе@@ 465
Grand 464
ven@@ 464
Kar@@ 463
Produc@@ 463
tal@@ 463
Щ 463
ν 462
Свя@@ 462
формирова@@ 461
Air@@ 460
AT 459
CE@@ 459
Estr@@ 459
Hon@@ 459
Wal@@ 459
Prot@@ 458
aci@@ 458
dom@@ 458
ost 458
43@@ 457
aga 457
ley 457
FO@@ 456
Pseud@@ 456
Β@@ 456
dic@@ 455
esc@@ 455
Day 454
Du@@ 454
Ri@@ 454
ng@@ 454
β@@ 454
Dark 453
Like 453
San 453
ind@@ 453
zi@@ 453
Do 452
tim@@ 452
йти 452
ABC 451
2.0 450
Death 450
tho@@ 450
ve@@ 450
els 449
etta 449
Λ@@ 449
ή 449
Android 448
Mc@@ 448
Sub@@ 448
arch@@ 448
return 448
ble 447
ine@@ 447
Centr@@ 446
δ@@ 446
крас@@ 446
пизо@@ 446
Bor@@ 445
Des@@ 445
Ni@@ 445
Ferr@@ 444
Vis@@ 444
aster 444
fas@@ 444
isti@@ 444
Anim@@ 443
Go 443
omo 443
pre@@ 443
Amaz@@ 441
RE@@ 441
ane 441
ds 441
ός 441
her@@ 440
Hal@@ 439
Line 439
Rem@@ 439
aus@@ 439
49@@ 438
Super@@ 438
bur@@ 438
idi@@ 438
Sim@@ 437
Tom@@ 437
tan@@ 437
Рус@@ 437
ez@@ 436
mi 436
pha 436
Pom@@ 435
Win@@ 435
ays 435
eil@@ 434
rec@@ 434
ters 434
Res@@ 433
Wil@@ 433
Zo@@ 433
aup@@ 433
flav@@ 433
las 433
pa 433
чу 433
Net@@ 432
Play@@ 432
arg@@ 432
Gro@@ 431
MI@@ 431
from 431
ster 431
Bol@@ 430
CBS 430
Out 430
reg@@ 430
ey@@ 429
Амери@@ 429
United 428
What 428
aja 428
lat@@ 428
ste@@ 428
tra@@ 428
ap 427
app@@ 427
ek 427
sen@@ 427
див 427
S.@@ 426
AV@@ 425
COVID 425
Sho@@ 425
TS 425
fer 425
ani@@ 424
ye 424
RT@@ 423
k.@@ 423
oy@@ 423
Home 422
ith@@ 421
opsis 421
von 420
ò@@ 420
AD@@ 419
~ 419
λ@@ 419
бя 419
DA 418
Ger@@ 418
Mat@@ 418
una 418
alm@@ 417
pa@@ 417
Lin@@ 416
bi 416
res@@ 416
денти@@ 416
игро@@ 416
кое 416
ходят 416
Radio 415
ip@@ 415
pes 415
BC 414
ty@@ 414
ρι@@ 414
Cat@@ 413
Cur@@ 412
Sun 412
char@@ 412
ther@@ 412
tro 412
65@@ 411
John 411
ba 411
ico 411
sec@@ 411
67@@ 410
юго 410
56@@ 409
Lab@@ 409
Oc@@ 409
ated 409
eu@@ 409
Cam@@ 408
LE@@ 408
Phone 408
Space 408
Cap@@ 407
Heart 407
olog@@ 407
58@@ 406
Award 406
Facebook 406
Sur@@ 406
fo@@ 406
une 406
включа@@ 406
Royal 405
Tre@@ 405
ame 405
кото@@ 405
A.@@ 404
Mil@@ 404
Sab@@ 404
cat@@ 404
elli 404
здание 404
Bas@@ 403
agr@@ 403
ish 403
авгу@@ 403
Il@@ 402
Чем@@ 402
AB@@ 400
TP 400
ets 400
ilia 400
vo 400
шла 400
HD 399
Ru@@ 399
Show 399
η 399
лой 399
King 398
Mach@@ 398
eum 398
ë 398
ł@@ 398
59@@ 397
Dance 397
Mi@@ 397
otr@@ 397
AP 396
Top 396
oa 396
68@@ 395
Mac 395
rich@@ 395
ome@@ 394
time 394
ua 394
cic@@ 393
inae 393
оконча@@ 393
act 392
amm@@ 392
bal@@ 392
day 392
ful 392
je 392
СР 392
News 391
Ox@@ 391
ash 391
des@@ 391
─ 391
House 390
Sony 390
die 390
Journal 389
ric@@ 389
style 389
tig@@ 389
Hem@@ 388
ca@@ 388
ong 388
Sym@@ 387
chr@@ 387
ill 387
tera 387
пут@@ 387
General 386
VA 386
box 386
icul@@ 386
istr@@ 386
vit@@ 386
ō@@ 386
вая 386
Lov@@ 385
Trans@@ 385
ab 385
enn@@ 385
Can 384
Center 384
ten 384
και 384
Tal@@ 383
ater 383
ection 383
text 383
99@@ 382
Tun@@ 382
dium 382
fl@@ 382
king 382
ѣ 382
Gen@@ 381
Sam@@ 381
Way 381
AI@@ 380
agon 380
í@@ 380
CD@@ 379
Pap@@ 379
± 379
нами 379
leg@@ 378
AL@@ 377
CP 377
Ori@@ 377
art@@ 377
port 377
Street 376
дера@@ 376
art 375
formes 375
sti@@ 375
PO@@ 374
Sk@@ 374
mas@@ 374
ode 374
ry@@ 374
окон@@ 374
Cent@@ 373
chin@@ 373
eta 373
шру@@ 373
Augus@@ 372
fac@@ 372
75@@ 371
sel@@ 371
ko 370
line 370
ο 370
GB 369
ft 369
ony@@ 369
op 369
Blu@@ 368
But@@ 368
Down 368
Ke@@ 368
Ran@@ 368
Ль@@ 368
кам 368
AB 367
Dic@@ 367
Good 367
anthus 367
esti@@ 367
let@@ 367
prim@@ 367
Kis@@ 366
gens 366
ish@@ 366
sil@@ 366
LC 365
Universal 365
dy 365
my 365
pan@@ 365
ž@@ 365
ремо@@ 365
CC@@ 364
CI@@ 364
Ci@@ 364
ac 364
dor@@ 364
ement 364
len@@ 364
occ@@ 364
ν@@ 364
Mic@@ 363
ans@@ 363
pro@@ 363
ie@@ 362
milit@@ 362
ный 362
hr@@ 361
3. 360
Ach@@ 360
mal@@ 360
ATP 359
DO@@ 359
Festival 359
PE@@ 359
America 358
Ter@@ 358
cha 358
fus@@ 358
go 358
pay 358
ting 358
uch@@ 358
yst@@ 358
бок 358
ву 358
other 357
Spe@@ 356
ha@@ 356
Black@@ 355
MO@@ 355
Nor@@ 355
cal 355
ce@@ 355
not@@ 355
β 355
гом 355
so 354
Рас@@ 354
орде@@ 354
Mad@@ 353
aer@@ 353
bit 353
College 352
a.@@ 352
fe@@ 352
ke@@ 352
Bet@@ 351
Bulgar@@ 351
GM 351
inter@@ 351
org 351
EN@@ 350
Fin@@ 350
net 350
pul@@ 350
π@@ 350
итуа@@ 350
чем 350
53@@ 349
First 349
Lu@@ 349
Project 349
gl@@ 349
oria 349
rop@@ 349
vic@@ 349
σ@@ 349
Из 349
Dead 348
FM 348
IP@@ 348
Sar@@ 348
Syn@@ 348
ania 348
веду@@ 348
BS 347
Dol@@ 347
Girl 347
NH@@ 347
PC@@ 347
ock 347
ovo 347
ro 347
tia 347
« 347
HP 346
PP@@ 346
ato 346
γ@@ 346
Chi@@ 345
Dec@@ 345
M. 345
Sel@@ 345
White 345
ern@@ 345
form@@ 345
long@@ 345
po 345
του 345
Sm@@ 344
Star@@ 344
ech@@ 344
ents 344
ette 344
vol@@ 344
‎ 344
Apo@@ 343
IC 343
ga 343
ier@@ 343
ations 342
cho@@ 342
ple 342
Cham@@ 341
Liv@@ 341
Os@@ 341
Beau@@ 340
Lady 340
Ob@@ 340
Pot@@ 340
ins 340
oi 340
peri@@ 339
Γ@@ 339
τ@@ 339
LA 338
Ti@@ 338
optera 338
занти@@ 338
66@@ 337
Columb@@ 337
ach 337
chi 337
isi@@ 337
lo 337
oz@@ 337
tory 337
Web 336
estr@@ 336
fic@@ 336
ω 336
вру@@ 336
мости 336
D. 335
Loc@@ 335
The@@ 335
ame@@ 335
lum 335
ut 335
ье 335
icum 334
kar@@ 334
ze 334
барди@@ 334
бре 334
Championship 333
Co 333
Press 333
ali 333
Book 332
Ly@@ 332
ail@@ 332
ange 332
tin@@ 332
ˈ@@ 332
And 331
MS@@ 331
ati 331
ela 331
iger 331
ω@@ 331
Hu@@ 330
Song 330
eni 330
ger@@ 330
президен@@ 330
MC 329
PA 328
Twitter 328
ci 328
дой 328
свя@@ 328
15.@@ 327
B. 327
Der 327
Last 327
Little 327
Roc@@ 327
alia 327
of@@ 327
ung 327
рос@@ 327
GP@@ 326
Sun@@ 326
ems 326
ights 326
uk@@ 326
ury 326
â@@ 326
дами 326
тем 326
Fal@@ 325
Ful@@ 325
Model 325
RC 325
Rol@@ 325
ole 325
usa 325
fi@@ 324
tis@@ 324
vil 324
57@@ 323
CO 323
E. 323
Super 323
War 323
tion@@ 323
год 323
14.@@ 322
Internet 322
NBC 322
Sof@@ 322
Swe@@ 322
sa@@ 322
sem@@ 322
AA 321
Amp@@ 321
Bro@@ 321
Mes@@ 321
Sep@@ 321
aca 321
οβ@@ 321
ου 321
Ba@@ 320
Cel@@ 320
May@@ 320
rot@@ 320
Luc@@ 319
non 319
ö@@ 319
ρ@@ 319
Back 318
Is@@ 318
oll@@ 318
pus 318
начала 318
AE@@ 317
Pun@@ 317
anz@@ 317
солю@@ 317
Lar@@ 316
ache 316
anum 316
key 316
ment 316
val@@ 316
Няко@@ 316
Game 315
Light 315
Num@@ 315
Pre@@ 315
bel@@ 315
etti 315
империи 315
DS 314
Fire 314
Lim@@ 314
Park 314
ign@@ 314
ome 314
23.@@ 313
tem@@ 313
this 313
tu 313
DE 312
Dem@@ 312
Dream 312
New@@ 312
elec@@ 312
ira 312
χ@@ 312
Ak@@ 311
London 311
Pur@@ 311
USA 311
ami@@ 311
dec@@ 311
out@@ 311
шим 311
ends 310
ky 310
видов 310
мян@@ 310
полков@@ 310
Ram@@ 309
Who 309
cip@@ 309
ias 309
ren@@ 309
Bu@@ 308
Dom@@ 308
» 308
ath 307
men@@ 307
κα@@ 307
της 307
ы@@ 307
ѧ 307
BN 306
Bad 306
Rh@@ 306
lock 306
mu@@ 306
rol@@ 306
αν@@ 306
их 306
22.@@ 305
Je@@ 305
Sa@@ 305
don 305
ime 305
ito 305
ό@@ 305
Art 304
Pa@@ 304
har@@ 304
основе 304
^ 303
gin@@ 303
Chir@@ 302
DF 302
esi 302
ische 302
lig@@ 302
лами 302
das 301
var@@ 301
-- 300
Mem@@ 300
Mob@@ 300
Rel@@ 300
ger 300
ik 300
sion 300
sur@@ 300
tom@@ 300
Во 300
Association 299
aud@@ 299
hu@@ 299
ray 299
GC 298
eth@@ 298
kh@@ 298
ns 298
ori 298
ze@@ 298
деся@@ 298
Stu@@ 297
Ven@@ 297
Video 297
ash@@ 297
aven 297
cola 297
ff 297
vul@@ 297
Anth@@ 296
Fri@@ 296
GT 296
Plus 296
bas@@ 296
ellas 296
ich 296
ρ 296
ы 296
Aus@@ 295
Global 295
Ren@@ 295
Type 295
andi@@ 295
ids 295
I.@@ 294
IS 294
our@@ 294
BO@@ 293
Obj@@ 293
dex 293
uz@@ 293
ə@@ 293
Воз@@ 293
Canal 292
Force 292
á 292
ME@@ 291
Medi@@ 291
Queen 291
Sou@@ 291
That 291
ney 291
row 291
top 291
world 291
zo 291
Ju@@ 290
Vic@@ 290
ative 290
onn@@ 290
sw@@ 290
ĸ@@ 290
производства 290
low@@ 289
mer 289
nov@@ 289
osp@@ 289
Band 288
CS@@ 288
Europe 288
M.@@ 288
Phili@@ 288
Team 288
adr@@ 288
tric 288
Fe 287
bil@@ 287
ζ@@ 287
Stars 286
ault 286
мой 286
стала 286
Christ@@ 285
Play 285
Test@@ 285
ago 285
aph@@ 285
dition 285
ight@@ 285
All@@ 284
Road 284
light 284
yon@@ 284
ă@@ 284
log@@ 283
Tot@@ 282
UR@@ 282
mus 282
my@@ 282
Осве@@ 282
@ 281
eria 281
Чемпи@@ 281
Arg@@ 280
European 280
San@@ 280
ding 280
emp@@ 280
ou 280
yo@@ 280
Σ 280
Иль@@ 280
ado 279
asc@@ 279
oo 279
ote 279
Brothers 278
Games 278
T. 278
ado@@ 278
ee 278
eme 278
ines 278
pic@@ 278
ri 278
tics 278
unter 278
ust@@ 278
Power 277
Rhy@@ 277
Young 277
mot@@ 277
obi@@ 277
двиг 277
Mol@@ 276
Name 276
RS 276
With 276
down 276
Arc@@ 275
Ze@@ 275
ark@@ 275
tre@@ 275
ά 275
Ali@@ 274
Aut@@ 274
Express 274
NS@@ 274
Rev@@ 274
ider 274
ино@@ 274
BA 273
ader 273
den@@ 273
enia 273
err@@ 273
lus@@ 273
Liber@@ 272
Ra@@ 272
Spir@@ 272
unk@@ 272
vari@@ 272
академии 272
вс@@ 272
← 272
13.@@ 271
4. 271
Aer@@ 271
Iron 271
Saint 271
apo@@ 271
color 271
gn@@ 271
Arch@@ 270
CN 270
Stor@@ 270
bis 270
kr@@ 270
mus@@ 270
Ever@@ 269
SC 269
Sky 269
Society 269
astr@@ 269
ini@@ 269
Bir@@ 268
Boeing 268
Girls 268
Wo@@ 268
esper@@ 268
work 268
Υ 268
Coll@@ 267
Digital 267
Enter@@ 267
Pon@@ 267
mul@@ 267
pon@@ 267
π 267
Japan 266
Sem@@ 266
over 266
pro 266
Η@@ 266
Ele@@ 265
Ltd 265
RT 265
S. 265
Sav@@ 265
ites 265
ple@@ 265
pur@@ 265
ton@@ 265
L. 264
Mu@@ 264
Research 264
Science 264
hom@@ 264
orn@@ 264
ά@@ 264
Gener@@ 263
Sin@@ 263
Squ@@ 263
acc@@ 263
air@@ 263
aus 263
bia 263
ian 263
ith 263
ture 263
ль 263
By@@ 262
IB@@ 262
Stone 262
UK 262
ature 262
fu@@ 262
nm 262
ris 262
ying 262
Nu@@ 261
ku@@ 261
okia 261
pol@@ 261
rh@@ 261
É@@ 261
16.@@ 260
Al 260
Astr@@ 260
FA 260
Hip@@ 260
Kon@@ 260
Poly@@ 260
SI@@ 260
air 260
enta 260
get@@ 260
land@@ 260
uta 260
י@@ 260
arc@@ 259
bro@@ 259
var 259
Dy@@ 258
Ha@@ 258
Lam@@ 258
Mov@@ 258
Now 258
Office 258
egr@@ 258
ures 258
ust 258
лла 258
P. 257
Pop@@ 257
Syl@@ 257
ava 257
esta 257
leri 257
ness 257
17.@@ 256
AM 256
Dou@@ 256
ante 256
cep@@ 256
ide@@ 256
ies 256
ins@@ 256
ix 256
mb@@ 256
mp@@ 256
ted 256
ts@@ 256
шая 256
Abr@@ 255
Buc@@ 255
Div@@ 255
Mul@@ 255
gia 255
lob@@ 255
ού@@ 255
Восто@@ 255
Укра@@ 255
Ko@@ 254
Lon@@ 254
Paris 254
SE 254
Sac@@ 254
Ta@@ 254
odi@@ 254
Maria 253
So 253
con 253
ο@@ 253
окончания 253
100@@ 252
5. 252
EE 252
Hill 252
Rot@@ 252
Wat@@ 252
edy 252
idel@@ 252
oman 252
phyl@@ 252
í 252
ης 252
ων 252
ствен@@ 252
201@@ 251
bic@@ 251
ente 251
fa 251
ici 251
include 251
ond@@ 251
rup@@ 251
ò 251
Spar@@ 250
berg 250
oud 250
AF@@ 249
Aur@@ 249
Cos@@ 249
Free 249
G. 249
Out@@ 249
Pres@@ 249
fol@@ 249
ille 249
yd@@ 249
шло 249
Boy 248
Lang@@ 248
West@@ 248
iden 248
tw@@ 248
σι@@ 248
Моск@@ 248
F.@@ 247
align 247
van 247
ér@@ 247
25.@@ 246
Boys 246
EM@@ 246
IA 246
Kin@@ 246
acer@@ 246
acle 246
use 246
κ@@ 246
Bank 245
Bat@@ 245
CC 245
Kn@@ 245
Magazine 245
ando 245
arm@@ 245
bus@@ 245
nic@@ 245
sum@@ 245
tin 245
you 245
Austr@@ 244
Metal 244
Web@@ 244
When 244
ham@@ 244
orb@@ 244
seu@@ 244
2.5 243
Comput@@ 243
Over 243
Software 243
ough 243
IG@@ 242
Imp@@ 242
K. 242
La@@ 242
gre@@ 242
ike 242
less 242
wal@@ 242
дь@@ 242
простра@@ 242
18.@@ 241
Bell 241
British 241
LO@@ 241
cy@@ 241
elas 241
medi@@ 241
oks 241
vil@@ 241
yes 241
Commun@@ 240
IT 240
Pat@@ 240
Sen@@ 240
nom@@ 240
orer 240
pres@@ 240
sig@@ 240
AR 239
Business 239
Not 239
Phil@@ 239
Red@@ 239
Service 239
red 239
side 239
ü@@ 239
θ@@ 239
Af@@ 238
Ari@@ 238
Film 238
Max 238
Pach@@ 238
gi 238
met@@ 238
ret 238
uv@@ 238
½ 238
Υ@@ 238
ктов 238
AL 237
Foundation 237
France 237
Lat@@ 237
RA 237
Tw@@ 237
arian 237
eli 237
etes 237
oes 237
onom@@ 237
plat@@ 237
via 237
ε@@ 237
чело@@ 237
20.@@ 236
As 236
Comm@@ 236
Cot@@ 236
Fut@@ 236
Gun@@ 236
Pel@@ 236
bir@@ 236
ces 236
dis 236
fre@@ 236
oca 236
å@@ 236
ū@@ 236
ί 236
ώ@@ 236
Deutsche 235
Got@@ 235
Great 235
North 235
Tran@@ 235
craft 235
endro@@ 235
hip@@ 235
AD 234
Cho@@ 234
Pyr@@ 234
Spr@@ 234
Union 234
avi@@ 234
lem@@ 234
Рес@@ 234
End 233
Lor@@ 233
Publ@@ 233
ams 233
comes 233
gal@@ 233
lav@@ 233
Fil@@ 232
H. 232
Old 232
line@@ 232
nor@@ 232
φ@@ 232
1.5 231
Cul@@ 231
Earth 231
Ep@@ 231
Mak@@ 231
Opera 231
St. 231
Tar@@ 231
ais 231
ebr@@ 231
ket 231
stri@@ 231
vin@@ 231
19.@@ 230
DV@@ 230
Fu@@ 230
ML@@ 230
Sum@@ 230
Trich@@ 230
hor@@ 230
isa 230
ison 230
ée 230
ī@@ 230
│ 230
Arm@@ 229
Arts 229
Dev@@ 229
Ol@@ 229
People 229
Tou@@ 229
abil@@ 229
idea 229
now 229
stati@@ 229
Ζ@@ 229
Ban@@ 228
Hall 228
Nav@@ 228
SK 228
body 228
mo 228
ope 228
ser 228
very 228
сси@@ 228
Dro@@ 227
Hom@@ 227
Island 227
bo 227
enc@@ 227
inger 227
liv@@ 227
su 227
tiv@@ 227
ρο@@ 227
Bos@@ 226
DI 226
m. 226
mas 226
ru 226
Ι 226
соби@@ 226
F. 225
Ir@@ 225
R. 225
att@@ 225
ept@@ 225
Χ 225
РФ 225
P.@@ 224
Post@@ 224
plic@@ 224
s.@@ 224
ו@@ 224
Bon@@ 223
Theatre 223
ech 223
ms 223
sor@@ 223
Arti@@ 222
Fab@@ 222
From 222
Just 222
Lac@@ 222
ento 222
ody 222
vel@@ 222
ù 222
έ@@ 222
рее@@ 222
27.@@ 221
AG@@ 221
Dor@@ 221
Ev@@ 221
Under@@ 221
house 221
kl@@ 221
ories 221
uck 221
ute 221
vers@@ 221
Family 220
Hir@@ 220
PS@@ 220
Public 220
Run@@ 220
Som@@ 220
ami 220
cher 220
cle@@ 220
ental 220
quit@@ 220
ă 220
20. 219
Che@@ 219
West 219
ager 219
background 219
eti 219
fal@@ 219
mail 219
nia 219
sis 219
yn 219
Серге@@ 219
следо@@ 219
ator@@ 218
lio 218
ology 218
oto 218
ova 218
vis 218
An 217
Lic@@ 217
Los 217
PlayStation 217
Shi@@ 217
brach@@ 217
ision 217
oth 217
serv@@ 217
wo@@ 217
God 216
Jon@@ 216
State 216
esp@@ 216
iller 216
itch 216
kin 216
lon@@ 216
micro@@ 216
poem 216
we 216
yle 216
Уча@@ 216
лли@@ 216
GA 215
Let@@ 215
Television 215
fil@@ 215
gin 215
inf@@ 215
nu@@ 215
ul 215
Ν 215
княз@@ 215
21.@@ 214
CP@@ 214
He 214
Summer 214
ats 214
cli@@ 214
even 214
hur@@ 214
ili 214
жав@@ 214
Gor@@ 213
Party 213
Story 213
iter 213
Š@@ 213
Аль@@ 213
тах 213
ON@@ 212
ally 212
ling 212
san@@ 212
win@@ 212
Меж@@ 212
24.@@ 211
Def@@ 211
Na 211
Nec@@ 211
dal@@ 211
tron@@ 211
IF@@ 210
Real 210
Whit@@ 210
gio 210
ji 210
left 210
ret@@ 210
rive 210
sac@@ 210
Airlines 209
Comp@@ 209
EC 209
Mid@@ 209
Var@@ 209
austr@@ 209
eth 209
let 209
mit@@ 209
tre 209
yla 209
ē@@ 209
ś@@ 209
Э@@ 209
Cop@@ 208
Far@@ 208
Haw@@ 208
UC@@ 208
Van@@ 208
Vel@@ 208
isch@@ 208
ont@@ 208
prise 208
ymn@@ 208
κ 208
DP 207
Math@@ 207
Satur@@ 207
anger 207
bra 207
mod@@ 207
tos 207
wa 207
Bod@@ 206
Long 206
bac@@ 206
esa 206
face 206
los 206
men 206
osaur@@ 206
wagen 206
xi@@ 206
η@@ 206
ια 206
ѫ 206
21@@ 205
Angel 205
Bot@@ 205
Central 205
E.@@ 205
J. 205
L.@@ 205
Sat@@ 205
Sound 205
Strat@@ 205
burg 205
duc@@ 205
elia 205
ese 205
ett@@ 205
vent@@ 205
Θ@@ 205
стом 205
Ford 204
Kor@@ 204
Off@@ 204
Paul 204
Santa 204
Ye@@ 204
af 204
erg@@ 204
esh@@ 204
mol@@ 204
orph@@ 204
sung 204
ικ@@ 204
Ъ 204
Cri@@ 203
Institute 203
Mess@@ 203
Volks@@ 203
ards 203
bin@@ 203
dem@@ 203
ein 203
fa@@ 203
trol 203
ì@@ 203
στ@@ 203
Films 202
Italia 202
Jean 202
Post 202
ful@@ 202
ov 202
ō 202
Ω@@ 202
длин@@ 202
управления 202
Rus@@ 201
TH@@ 201
Tim@@ 201
acy 201
aft 201
back 201
center 201
ju@@ 201
ods 201
qui@@ 201
s. 201
state 201
tol@@ 201
tric@@ 201
командо@@ 201
ской 201
ѭ 201
Chel@@ 200
Rolling 200
Three 200
ein@@ 200
oper@@ 200
ort 200
ski 200
tern@@ 200
uma 200
up 200
ě@@ 200
Academy 199
Ann@@ 199
Head 199
More 199
TO@@ 199
ond 199
sia 199
ws 199
æ@@ 199
ίου 199
ύ@@ 199
поселения 199
рами 199
Cle@@ 198
Juli@@ 198
N.@@ 198
Prim@@ 198
Rho@@ 198
Sea 198
asp@@ 198
aul@@ 198
kon@@ 198
play 198
ways 198
Ray 197
TC 197
alli@@ 197
bran@@ 197
edi@@ 197
eros 197
hi 197
ox@@ 197
pat@@ 197
well 197
26.@@ 196
Acc@@ 196
Pop 196
Un 196
dy@@ 196
ho 196
hol@@ 196
orient@@ 196
prot@@ 196
Mun@@ 195
Pep@@ 195
Point 195
aff@@ 195
bon@@ 195
cula 195
elo 195
ony 195
under@@ 195
контракт 195
Autom@@ 194
If 194
MP 194
Pen@@ 194
Shar@@ 194
Techn@@ 194
cid@@ 194
ega 194
ital 194
άν@@ 194
ѧ@@ 194
Asp@@ 193
She@@ 193
gran@@ 193
ng 193
non@@ 193
onym@@ 193
poli@@ 193
Dam@@ 192
FF 192
Green 192
History 192
League 192
Vie@@ 192
agon@@ 192
ih@@ 192
mir@@ 192
mun@@ 192
set 192
sions 192
ush 192
zy@@ 192
υ@@ 192
нике 192
् 192
B.@@ 191
Hi@@ 191
Med@@ 191
Mis@@ 191
Panz@@ 191
Standard 191
Stre@@ 191
Tu@@ 191
esia 191
print 191
ας 191
е. 191
Bay@@ 190
Gesellschaft 190
ages 190
bes 190
ez 190
mis@@ 190
old 190
org@@ 190
otes 190
ία 190
τζ@@ 190
Aqu@@ 189
Master 189
South 189
ains 189
field 189
iss 189
ume 189
wi@@ 189
Япо@@ 189
неме@@ 189
Das 188
Don@@ 188
Fel@@ 188
Hum@@ 188
Inst@@ 188
Int@@ 188
Land 188
Tak@@ 188
Under 188
anda 188
ants 188
ink 188
ny 188
onal@@ 188
type 188
ακ@@ 188
αρ@@ 188
όν 188
тех 188
Daily 187
Son@@ 187
Stil@@ 187
bian 187
ications 187
sul@@ 187
ux 187
wid@@ 187
Ath@@ 186
Laur@@ 186
Lev@@ 186
Motor@@ 186
Wol@@ 186
dren 186
hab@@ 186
lie 186
nik 186
try 186
ø@@ 186
GmbH 185
Petr@@ 185
https 185
self 185
tura 185
ā 185
ками 185
Chart 184
East 184
Golden 184
Kal@@ 184
Max@@ 184
Mercedes 184
Moon 184
Om@@ 184
PR@@ 184
Trav@@ 184
ban@@ 184
com 184
ew@@ 184
gh@@ 184
iti 184
lati@@ 184
mani 184
not 184
udi@@ 184
value 184
ç@@ 184
ć 184
Broad@@ 183
Cup 183
Good@@ 183
NS 183
Orig@@ 183
Quer@@ 183
Tod@@ 183
Two 183
function 183
vi 183
wn 183
6. 182
Cast@@ 182
Mit@@ 182
Ret@@ 182
ister@@ 182
kan@@ 182
spir@@ 182
stein 182
Born 181
Fun@@ 181
R.@@ 181
Songs 181
Sti@@ 181
ask@@ 181
da@@ 181
isi 181
kin@@ 181
tal 181
λι@@ 181
Am 180
Bay 180
Radi@@ 180
Rob@@ 180
Sports 180
dol@@ 180
eca 180
ores 180
pil@@ 180
wil@@ 180
дерев@@ 180
если 180
раун@@ 180
ссе@@ 180
ა@@ 180
Clar@@ 179
Da@@ 179
Ec@@ 179
Fol@@ 179
Gom@@ 179
Human 179
Series 179
Ther@@ 179
come 179
erry 179
g. 179
ker@@ 179
mann 179
rem@@ 179
tical 179
vis@@ 179
γ 179
гой 179
дах 179
3.5 178
AK@@ 178
Progr@@ 178
Sour@@ 178
Ton@@ 178
bit@@ 178
cle 178
ika 178
nas@@ 178
super@@ 178
το@@ 178
вии 178
стя 178
њ@@ 178
Anti@@ 177
Bit@@ 177
Dan@@ 177
Mari@@ 177
Pil@@ 177
Tit@@ 177
Xi@@ 177
amo@@ 177
din@@ 177
eles 177
head 177
lit@@ 177
pf@@ 177
tive 177
Fall 176
Ky@@ 176
LP 176
Management 176
Technology 176
ego 176
esis 176
ket@@ 176
more 176
zen 176
і 176
Cros@@ 175
Fantas@@ 175
Ham@@ 175
Mr. 175
Rap@@ 175
Ster@@ 175
ate@@ 175
atic 175
bol@@ 175
je@@ 175
mic@@ 175
rap@@ 175
sar@@ 175
top@@ 175
ρος 175
ть 175
″ 175
199@@ 174
Dar@@ 174
Dr. 174
Modern 174
Pra@@ 174
aka 174
alar@@ 174
ean 174
isp@@ 174
na@@ 174
star 174
wood 174
ември 174
Diam@@ 173
Men 173
Mod@@ 173
Sund@@ 173
aux 173
boy 173
dig@@ 173
ele 173
ial 173
ment@@ 173
nat@@ 173
olo 173
tronic 173
οχ@@ 173
чной 173
Act 172
Direc@@ 172
Ere@@ 172
Pet@@ 172
aire 172
ao 172
asi 172
augh@@ 172
equ@@ 172
für 172
jo@@ 172
pec@@ 172
pot@@ 172
private 172
sen 172
tam@@ 172
ums 172
urs 172
war@@ 172
ï@@ 172
ερ@@ 172
ї@@ 172
Brown 171
Der@@ 171
Hen@@ 171
Natur@@ 171
Year 171
coun@@ 171
dar@@ 171
fes@@ 171
hal@@ 171
nes 171
rel@@ 171
vid@@ 171
ής 171
τος 171
Od@@ 170
Will 170
Wit@@ 170
by@@ 170
edo 170
iga 170
nh@@ 170
phon@@ 170
utt@@ 170
ves 170
Δήμος 170
ίας 170
Василь@@ 170
Ио@@ 170
196@@ 169
Audi@@ 169
D.@@ 169
Fle@@ 169
Martin 169
arch 169
imal 169
mil@@ 169
section 169
αλ@@ 169
Chem@@ 168
Chron@@ 168
David 168
George 168
Gh@@ 168
Hur@@ 168
Sl@@ 168
Sport 168
Tem@@ 168
W. 168
agn@@ 168
cho 168
hum@@ 168
lip@@ 168
ː 168
C.@@ 167
Inv@@ 167
Kom@@ 167
Pir@@ 167
Si 167
ater@@ 167
esi@@ 167
kom@@ 167
off 167
ots 167
vir 167
ę@@ 167
Ball@@ 166
Lit@@ 166
Men@@ 166
ail 166
anti 166
any@@ 166
az 166
eck 166
he 166
ion@@ 166
mos@@ 166
oli@@ 166
omb@@ 166
urity 166
λ 166
Fran@@ 165
Ga@@ 165
Guar@@ 165
ck 165
crip@@ 165
ole@@ 165
ών 165
апри@@ 165
кто 165
шем 165
ա@@ 165
Fas@@ 164
Fer@@ 164
Studi@@ 164
Water@@ 164
dea 164
eci@@ 164
ington 164
ism 164
patr@@ 164
ε 164
Bou@@ 163
Final 163
Gaz@@ 163
Hein@@ 163
Jazz 163
Junior 163
Phoen@@ 163
Pit@@ 163
chia 163
ely 163
ende 163
ido 163
itas 163
japon@@ 163
mad@@ 163
ski@@ 163
uca 163
µ@@ 163
ère 163
Η 163
εν@@ 163
Gold@@ 162
Industri@@ 162
Land@@ 162
Mom@@ 162
Saf@@ 162
UE@@ 162
anced 162
can 162
chen 162
core 162
mid@@ 162
ous@@ 162
ska 162
еха@@ 162
Bil@@ 161
Coun@@ 161
Doc@@ 161
Han@@ 161
Pod@@ 161
amount 161
les@@ 161
polis 161
sap@@ 161
while 161
ör@@ 161
ου@@ 161
Фридри@@ 161
Bus@@ 160
HC 160
No. 160
Over@@ 160
Py@@ 160
Sand@@ 160
aun@@ 160
hel@@ 160
ji@@ 160
lus 160
ther 160
® 160
ù@@ 160
ː@@ 160
στα 160
των 160
James 159
agu@@ 159
amo 159
cio 159
lab@@ 159
lev@@ 159
neg@@ 159
ord 159
proc@@ 159
ron@@ 159
τσα 159
Battle 158
Bri@@ 158
Buil@@ 158
Classi@@ 158
Gir@@ 158
Reb@@ 158
aqu@@ 158
etto 158
lim@@ 158
lut@@ 158
mark 158
radi@@ 158
ram@@ 158
ump@@ 158
yon 158
Α 158
Τσ@@ 158
τσ@@ 158
Arena 157
By 157
Hot@@ 157
dian 157
ear@@ 157
ej@@ 157
eleg@@ 157
inga 157
ques 157
ree 157
Č@@ 157
Φ@@ 157
нее 157
California 156
Econom@@ 156
Galax@@ 156
Ner@@ 156
Sap@@ 156
nit@@ 156
plus 156
ween 156
ó 156
муниципа@@ 156
чей 156
Bed@@ 155
Dir@@ 155
Kit@@ 155
Nat@@ 155
Sha@@ 155
Sto@@ 155
T.@@ 155
Tex@@ 155
acia 155
ady 155
dam@@ 155
enge 155
mem@@ 155
min 155
pos 155
ror 155
som@@ 155
tum 155
École 155
Μπ@@ 155
ασ@@ 155
ими 155
Alb@@ 154
Blan@@ 154
Cath@@ 154
Glo@@ 154
Historia 154
Luci@@ 154
Operation 154
SG 154
ag 154
comp@@ 154
iki 154
lers 154
ses 154
trop@@ 154
wat@@ 154
развития 154
сом 154
CS 153
Hyp@@ 153
Sig@@ 153
aly@@ 153
atra 153
bri@@ 153
ef 153
multi@@ 153
struc@@ 153
val 153
viv@@ 153
Ο 153
тенан@@ 153
Gold 152
IO@@ 152
Las 152
List 152
Michael 152
Prin@@ 152
Wel@@ 152
ald 152
cit@@ 152
eu 152
fur@@ 152
ift 152
imb@@ 152
itz 152
pap@@ 152
right 152
teri@@ 152
комп@@ 152
Fro@@ 151
brun@@ 151
fe 151
folia 151
ford 151
kel@@ 151
oon 151
other@@ 151
res 151
tom 151
ито@@ 151
поряд@@ 151
цкий 151
Dig@@ 150
Europ@@ 150
Ig@@ 150
Main 150
alls 150
enger 150
http 150
rea 150
sive 150
ties 150
uti@@ 150
ρά@@ 150
шта@@ 150
љ@@ 150
Hollywood 149
Li 149
Pu@@ 149
Robert 149
Special 149
ece 149
gel@@ 149
len 149
minor 149
off@@ 149
pedia 149
uh@@ 149
zon@@ 149
zz@@ 149
Ѐ@@ 149
лейтенан@@ 149
одна 149
Form@@ 148
Pac@@ 148
She 148
itor 148
mes 148
pera 148
where 148
ει@@ 148
οι 148
коль@@ 148
Lot@@ 147
ads 147
def@@ 147
lad@@ 147
ner@@ 147
osis 147
outh 147
umin@@ 147
uss@@ 147
--@@ 146
Bell@@ 146
Cru@@ 146
Dest@@ 146
Est@@ 146
Fa@@ 146
Lag@@ 146
Rad@@ 146
Tang@@ 146
alt@@ 146
ario 146
fli@@ 146
αμ@@ 146
Brit@@ 145
Fur@@ 145
Limited 145
Lou@@ 145
William 145
ands 145
asti@@ 145
flu@@ 145
gas@@ 145
verse 145
är@@ 145
ì 145
фут@@ 145
Jones 144
Sic@@ 144
Van 144
ements 144
gen 144
oty@@ 144
plo@@ 144
sam@@ 144
umb@@ 144
wh@@ 144
š 144
ему 144
сут@@ 144
Alliance 143
Az@@ 143
China 143
Chrys@@ 143
Pos@@ 143
Pul@@ 143
Rock@@ 143
ating 143
cht@@ 143
form 143
inal 143
kel 143
lac@@ 143
ords 143
umba 143
μπ@@ 143
неско@@ 143
Columbia 142
Corn@@ 142
Federation 142
Nas@@ 142
Peter 142
Vog@@ 142
Wan@@ 142
bun@@ 142
dur@@ 142
gul@@ 142
jo 142
mur@@ 142
night 142
onna 142
own 142
§ 142
сторо@@ 142
After 141
Clu@@ 141
Gam@@ 141
God@@ 141
Independ@@ 141
Rub@@ 141
ality 141
cam@@ 141
eon@@ 141
fel@@ 141
ique 141
oli 141
py@@ 141
syl@@ 141
under 141
йской 141
метал@@ 141
сент@@ 141
ских 141
7. 140
At 140
Beg@@ 140
Psych@@ 140
River 140
Seg@@ 140
Yah@@ 140
ais@@ 140
media 140
mit 140
rac@@ 140
Росси@@ 140
сть 140
20th 139
Ast@@ 139
Au 139
Bridge 139
Capit@@ 139
Gra@@ 139
ape 139
book 139
data 139
ennis 139
ete 139
odes 139
rur@@ 139
sche 139
sho@@ 139
win 139
ón 139
образования 139
ה@@ 139
Album 138
Cand@@ 138
Lem@@ 138
Mill@@ 138
Sn@@ 138
Soci@@ 138
Ten@@ 138
There 138
cir@@ 138
za@@ 138
ão 138
αγ@@ 138
Bru@@ 137
Design 137
English 137
Hali@@ 137
Ku@@ 137
VP 137
aro@@ 137
eau 137
ert 137
ior 137
ix@@ 137
iy@@ 137
major 137
mes@@ 137
pas@@ 137
qua 137
tut@@ 137
ского 137
Associ@@ 136
Avi@@ 136
Eg@@ 136
Louis 136
Miss 136
Vil@@ 136
bert 136
imi 136
khe@@ 136
lea 136
rus@@ 136
wan@@ 136
να 136
ού 136
ρί@@ 136
ი@@ 136
Daw@@ 135
Duke 135
Ind@@ 135
Kur@@ 135
Pay@@ 135
Phys@@ 135
aco 135
bat 135
casting 135
change 135
ext@@ 135
squ@@ 135
ville 135
ye@@ 135
μ 135
Kan@@ 134
Lis@@ 134
Log@@ 134
Pok@@ 134
States 134
Tokyo 134
eur 134
life 134
seri@@ 134
tha 134
tul@@ 134
unt 134
using 134
wa@@ 134
объ@@ 134
ские 134
сь 134
CE 133
Domin@@ 133
Dur@@ 133
Gol@@ 133
Prix 133
Toy@@ 133
Vit@@ 133
You@@ 133
cia 133
emati@@ 133
ev 133
iva 133
ose 133
que@@ 133
round 133
ą@@ 133
ρα@@ 133
Chap@@ 132
Tan@@ 132
Thi@@ 132
Tour@@ 132
els@@ 132
enor@@ 132
eter 132
eur@@ 132
ext 132
ld@@ 132
lin 132
roc@@ 132
wor@@ 132
én@@ 132
δ 132
распо@@ 132
Canada 131
Din@@ 131
Lord 131
Republic 131
Tes@@ 131
alc@@ 131
ather 131
cot@@ 131
dit 131
ign 131
ingi 131
list 131
new@@ 131
sey 131
stat@@ 131
sur 131
ven 131
w.@@ 131
zu 131
ú@@ 131
ον@@ 131
Charles 130
Comics 130
Fort@@ 130
Poli@@ 130
Roy@@ 130
ei@@ 130
emb@@ 130
enz@@ 130
ery 130
iri 130
ographi@@ 130
÷ 130
ş@@ 130
Ω 130
ј 130
Aff@@ 129
App@@ 129
Da 129
Motor 129
PM 129
Rose 129
Valley 129
anna 129
bot@@ 129
dem 129
emat@@ 129
ingu@@ 129
loss@@ 129
person@@ 129
poly@@ 129
usi@@ 129
uth 129
∞ 129
Atlantic 128
Conn@@ 128
Hotel 128
Marie 128
Sax@@ 128
Sher@@ 128
Social 128
Um@@ 128
aborat@@ 128
afric@@ 128
ben@@ 128
break 128
fast 128
fun@@ 128
hir@@ 128
ild 128
ills 128
liber@@ 128
orr@@ 128
oti@@ 128
quin@@ 128
Ј@@ 128
включая 128
ѡ@@ 128
Cav@@ 127
DR 127
Division 127
Mary 127
Rosa 127
Sing@@ 127
igu@@ 127
main 127
nati@@ 127
plan@@ 127
uni@@ 127
v. 127
έρ@@ 127
Centre 126
Douglas 126
Eas@@ 126
Gran@@ 126
Mich@@ 126
Nar@@ 126
bers 126
endr@@ 126
lay@@ 126
lec@@ 126
sang@@ 126
trol@@ 126
vers 126
ных 126
א@@ 126
Emp@@ 125
Kir@@ 125
Patr@@ 125
SR 125
anta 125
assi@@ 125
atis@@ 125
formation 125
ground 125
ow 125
rag@@ 125
trans@@ 125
trich@@ 125
uld 125
version 125
works 125
ī 125
Alli@@ 124
Another 124
Sir@@ 124
Washington 124
pag@@ 124
pri@@ 124
set@@ 124
thing 124
ð@@ 124
ż@@ 124
άς 124
ιν@@ 124
σ 124
сса@@ 124
Boh@@ 123
German@@ 123
Id@@ 123
Kl@@ 123
Nintendo 123
Singles 123
amer@@ 123
bon 123
cos@@ 123
double 123
eld 123
ged 123
ilio 123
music 123
num@@ 123
stre@@ 123
vor 123
цкой 123
ר@@ 123
198@@ 122
Ass@@ 122
Aster@@ 122
Development 122
Dow@@ 122
Hav@@ 122
Liter@@ 122
Mand@@ 122
Mont@@ 122
Other 122
Pau@@ 122
Pho@@ 122
SN@@ 122
Sup@@ 122
Tow@@ 122
Up@@ 122
Viol@@ 122
Vor@@ 122
Wa@@ 122
Women 122
ait 122
alla 122
aro 122
aya 122
but@@ 122
che@@ 122
dan@@ 122
gir@@ 122
love 122
pia 122
ras@@ 122
поселение 122
тами 122
Ash@@ 121
Beh@@ 121
Cab@@ 121
Four 121
Hand@@ 121
Long@@ 121
arts 121
asa 121
cell@@ 121
esch@@ 121
get 121
mis 121
sch 121
sm@@ 121
tas@@ 121
ube 121
umma 121
î@@ 121
мерикан@@ 121
ב@@ 121
Cass@@ 120
Code 120
Fair@@ 120
Ker@@ 120
Ni 120
Nic@@ 120
Prince 120
Rid@@ 120
atri@@ 120
begin 120
colspan 120
ects 120
ges 120
ier 120
occident@@ 120
ship 120
tle 120
ä 120
Adel@@ 119
Afr@@ 119
Army 119
Brad@@ 119
Hab@@ 119
Kat@@ 119
Prom@@ 119
Winter 119
aye 119
cau@@ 119
dev@@ 119
ider@@ 119
pon 119
τι@@ 119
начал 119
Ἀ@@ 119
Fame 118
Flam@@ 118
H.@@ 118
II. 118
Ing@@ 118
Milit@@ 118
Mos@@ 118
Place 118
Thomas 118
Vari@@ 118
ation@@ 118
bet@@ 118
istes 118
ité 118
may@@ 118
mm@@ 118
point 118
sz@@ 118
tot@@ 118
ues 118
án 118
кие 118
нему 118
Bug@@ 117
Hard@@ 117
Services 117
Son 117
Texas 117
action 117
ason 117
dom 117
idi 117
itar 117
iza 117
kal@@ 117
kil@@ 117
lov@@ 117
maxim@@ 117
ols 117
oti 117
sta 117
tn@@ 117
ô@@ 117
ατ@@ 117
་ 117
Alice 116
Ay@@ 116
Contin@@ 116
Fall@@ 116
Moz@@ 116
Premi@@ 116
Scot@@ 116
case 116
cru@@ 116
ester 116
lon 116
ons@@ 116
press 116
sei 116
star@@ 116
ελ@@ 116
φ 116
муници@@ 116
197@@ 115
Chall@@ 115
Extr@@ 115
Jer@@ 115
Yel@@ 115
aha 115
bis@@ 115
coc@@ 115
cum@@ 115
cyc@@ 115
eder@@ 115
enti 115
ineering 115
pop 115
sin 115
wer 115
σκ@@ 115
насел@@ 115
8. 114
Day@@ 114
FIFA 114
Ras@@ 114
asia 114
chan@@ 114
ender 114
nd@@ 114
obj@@ 114
ologies 114
opp@@ 114
pi 114
Γκ@@ 114
ῶ@@ 114
Dim@@ 113
Joe 113
Ki@@ 113
Mah@@ 113
Mam@@ 113
Nik@@ 113
USD 113
Una 113
eck@@ 113
hon@@ 113
las@@ 113
lery 113
ps@@ 113
them@@ 113
uri 113
ustr@@ 113
vor@@ 113
ɛ@@ 113
τα@@ 113
стей 113
Carl 112
Lee 112
Victoria 112
enes 112
eno 112
ety 112
event@@ 112
ham 112
ks@@ 112
mach@@ 112
mati@@ 112
ovi@@ 112
tab@@ 112
thor@@ 112
ush@@ 112
Θε@@ 112
ή@@ 112
εκ 112
BT 111
Bec@@ 111
Henry 111
Town 111
aks 111
alan@@ 111
alog@@ 111
anger@@ 111
bes@@ 111
eer 111
enas 111
enne 111
fera 111
fire 111
fore 111
imi@@ 111
net@@ 111
number 111
onds 111
that 111
ular 111
unda 111
uy@@ 111
ı 111
να@@ 111
0.000 110
Exper@@ 110
Map@@ 110
Racing 110
Ses@@ 110
Terr@@ 110
ades 110
anci@@ 110
ders 110
dro@@ 110
eine 110
hood 110
isch 110
kor@@ 110
lar 110
rod@@ 110
stone 110
tempor@@ 110
undo 110
ú 110
πο@@ 110
Ѝ@@ 110
Apr@@ 109
Et@@ 109
Organ@@ 109
Sus@@ 109
Tab@@ 109
Vill@@ 109
cav@@ 109
cri@@ 109
ebe 109
ells 109
enni@@ 109
ett 109
gro@@ 109
itali@@ 109
mari@@ 109
ont 109
qui 109
απ@@ 109
λε@@ 109
מ@@ 109
Jack 108
Jud@@ 108
Library 108
Ober@@ 108
Philos@@ 108
Rep@@ 108
Rum@@ 108
Sign@@ 108
andra 108
argent@@ 108
att 108
ches 108
cy 108
dle 108
dot@@ 108
gol@@ 108
inst@@ 108
oga 108
phone 108
stor@@ 108
wr@@ 108
ć@@ 108
Καρ@@ 108
нако 108
ἐ@@ 108
Bun@@ 107
Kil@@ 107
Law 107
Smith 107
aa 107
alli 107
ander@@ 107
anes 107
coron@@ 107
doc@@ 107
dri@@ 107
hiz@@ 107
ien 107
ino@@ 107
iro 107
ken@@ 107
kn@@ 107
kov@@ 107
legi@@ 107
pod@@ 107
ris@@ 107
ê@@ 107
άρ@@ 107
населения 107
ἀ@@ 107
195@@ 106
Card@@ 106
Christian 106
Dame 106
Grande 106
Hop@@ 106
Hun@@ 106
Monte 106
Mountain 106
Orange 106
Sul@@ 106
ante@@ 106
aug@@ 106
avo 106
code 106
gs 106
kat@@ 106
nationale 106
princ@@ 106
rev@@ 106
sson 106
volution 106
és 106
ū 106
λα@@ 106
хом 106
ћ 106
Four@@ 105
Nations 105
Rab@@ 105
Second 105
ave@@ 105
camp@@ 105
dio 105
far@@ 105
fest 105
fo 105
gem@@ 105
hem 105
imo 105
itz@@ 105
tres 105
ution 105
Cross 104
N. 104
Speci@@ 104
Tas@@ 104
cro@@ 104
edom 104
ency 104
gener@@ 104
indic@@ 104
ishing 104
og 104
pun@@ 104
stars 104
van@@ 104
ysis 104
ţ@@ 104
Μα@@ 104
ολ@@ 104
ομ@@ 104
февру@@ 104
ћ@@ 104
Boy@@ 103
FL 103
Inn@@ 103
Que@@ 103
Rail@@ 103
See 103
Station 103
awa 103
ec 103
gil@@ 103
ird 103
pet@@ 103
quer@@ 103
sts 103
table 103
tori@@ 103
ía 103
виде 103
ность 103
19. 102
190@@ 102
Bran@@ 102
Chal@@ 102
Maxim@@ 102
Pear@@ 102
Rou@@ 102
ango 102
ball 102
cont@@ 102
ize 102
kan 102
kir@@ 102
mak@@ 102
med@@ 102
meth@@ 102
oci@@ 102
olia 102
omer@@ 102
real 102
tari 102
tei 102
ui 102
αβ@@ 102
бом 102
вича 102
ე@@ 102
----@@ 101
Archit@@ 101
Berlin 101
Bom@@ 101
Coast 101
Coc@@ 101
Harry 101
Joseph 101
Meth@@ 101
Metro 101
Mé@@ 101
Nam@@ 101
Poc@@ 101
Richard 101
Riv@@ 101
Sciences 101
alg@@ 101
apa 101
atom@@ 101
ective 101
eron 101
ident 101
lau@@ 101
ling@@ 101
onic 101
psych@@ 101
stein@@ 101
thus 101
ə 101
χειρ@@ 101
ступ@@ 101
ё@@ 101
ל@@ 101
Agr@@ 100
Bern@@ 100
Deutsch@@ 100
Mars 100
Rich@@ 100
Roma 100
Vid@@ 100
aker 100
bar 100
deg@@ 100
eto 100
fran@@ 100
kus 100
lion 100
live 100
rain 100
ron 100
test 100
tif@@ 100
udo 100
virus 100
voc@@ 100
0,000 99
Arab@@ 99
Batt@@ 99
Brook@@ 99
Castle 99
Emper@@ 99
Hil@@ 99
Kol@@ 99
Lyn@@ 99
Orch@@ 99
Tax@@ 99
arti@@ 99
asis 99
atia 99
ayi 99
dir@@ 99
domin@@ 99
dre@@ 99
enter 99
has@@ 99
his 99
lag@@ 99
ley@@ 99
lich@@ 99
rd 99
ισ@@ 99
Совет@@ 99
≈ 99
Africa 98
Bras@@ 98
Bud@@ 98
Den@@ 98
Oper@@ 98
Tap@@ 98
Tom 98
Yo@@ 98
eds 98
illing 98
ogr@@ 98
oug@@ 98
put 98
scope 98
tex@@ 98
viol@@ 98
yo 98
вский 98
резу@@ 98
ты 98
Ax@@ 97
Clau@@ 97
Cou@@ 97
Jac@@ 97
Milli@@ 97
Miss@@ 97
NASA 97
Stra@@ 97
Suc@@ 97
Thom@@ 97
into 97
ordin@@ 97
plex 97
pot 97
schaft 97
tern 97
uni 97
октом@@ 97
э 97
☉ 97
9. 96
Ame@@ 96
Cher@@ 96
Country 96
Dist@@ 96
Emer@@ 96
Him@@ 96
Mim@@ 96
Order 96
Rod@@ 96
Sau@@ 96
Trin@@ 96
ading 96
agi@@ 96
anga 96
ause 96
aut@@ 96
avia 96
endi@@ 96
etz 96
ishi 96
like 96
nar@@ 96
nier 96
prom@@ 96
tific@@ 96
ungs@@ 96
urg@@ 96
ę 96
ξ@@ 96
ש@@ 96
Bac@@ 95
End@@ 95
Fem@@ 95
Indi@@ 95
Revol@@ 95
Se 95
Shin@@ 95
anza 95
away 95
cons@@ 95
enf@@ 95
ges@@ 95
ku 95
lic@@ 95
liche 95
mand@@ 95
ophyl@@ 95
oro 95
sav@@ 95
ule 95
º@@ 95
τα 95
ках 95
რ@@ 95
Ble@@ 94
Chicago 94
Cour@@ 94
England 94
Gab@@ 94
Her 94
His 94
Itali@@ 94
Kap@@ 94
Ric@@ 94
Tat@@ 94
Theater 94
agin@@ 94
dier 94
enth@@ 94
esse 94
ffer@@ 94
fle@@ 94
hip 94
indi@@ 94
ities 94
ization 94
nav@@ 94
oke 94
put@@ 94
rent 94
sta@@ 94
tec@@ 94
umia 94
word 94
yer 94
ίσ@@ 94
κλ@@ 94
тот 94
є@@ 94
ѿ 94
ῆ@@ 94
├ 94
Beach 93
Has@@ 93
Key@@ 93
NAS@@ 93
South@@ 93
Stur@@ 93
Tech@@ 93
Wolf 93
adi 93
aj 93
aves 93
bie 93
contr@@ 93
dé@@ 93
endo 93
eres 93
fish 93
gency 93
hem@@ 93
icia 93
ischen 93
public@@ 93
rep@@ 93
ud 93
ward 93
was 93
ý@@ 93
ны 93
ье@@ 93
ი 93
Church 92
Fir@@ 92
Football 92
Jus@@ 92
K.@@ 92
Most 92
Museum 92
Oli@@ 92
Profes@@ 92
Sz@@ 92
Wiki@@ 92
aking 92
andi 92
atur@@ 92
ble@@ 92
evo 92
front 92
rog@@ 92
stop 92
test@@ 92
Ö@@ 92
άλ@@ 92
διά 92
θ 92
θε@@ 92
где 92
Ab 91
Champ@@ 91
Forest 91
Jan@@ 91
Kam@@ 91
Société 91
U.S. 91
Vas@@ 91
Version 91
Wes@@ 91
age@@ 91
aine 91
ainst 91
aliz@@ 91
cant@@ 91
chap@@ 91
child 91
cine 91
eas@@ 91
ected 91
essor 91
liz@@ 91
pit@@ 91
àn 91
δι@@ 91
ό 91
ших 91
נ@@ 91
Dal@@ 90
Jung@@ 90
Ka@@ 90
Notre 90
Secre@@ 90
active 90
alp@@ 90
atori@@ 90
audi@@ 90
erra 90
flor@@ 90
font 90
hard@@ 90
ices 90
illy 90
ogen@@ 90
phi 90
riv@@ 90
stell@@ 90
ston 90
vern@@ 90
web 90
Ş@@ 90
сель@@ 90
Bow@@ 89
Community 89
Las@@ 89
Pierre 89
Sport@@ 89
Square 89
Stand 89
Zi@@ 89
antes 89
blan@@ 89
cel 89
cher@@ 89
clar@@ 89
elop@@ 89
gan@@ 89
ilk 89
ising 89
jan@@ 89
minut@@ 89
par 89
reo 89
rey 89
rock 89
uk 89
xa 89
Κα@@ 89
Λι@@ 89
μα 89
ων@@ 89
Александр 89
селе 89
ском 89
шей 89
ὶ 89
Anc@@ 88
Angeles 88
Bra@@ 88
Kh@@ 88
Lake 88
Maj@@ 88
Neur@@ 88
Raj@@ 88
Shak@@ 88
aba 88
abri@@ 88
aki 88
ban 88
box@@ 88
esto 88
first 88
flo@@ 88
ij@@ 88
mess@@ 88
nes@@ 88
oe 88
pers 88
rid@@ 88
senti@@ 88
sign@@ 88
tan 88
uli 88
vita 88
сс 88
ῖ@@ 88
.S. 87
1,0@@ 87
Bang@@ 87
Clin@@ 87
En 87
Justice 87
Kingdom 87
Vita 87
Western 87
alis@@ 87
area 87
dings 87
ement@@ 87
estruc@@ 87
eva 87
illi 87
itu@@ 87
kol@@ 87
lag 87
paci@@ 87
plac@@ 87
rad@@ 87
rif@@ 87
tit@@ 87
æ 87
τ 87
отме@@ 87
ѥ@@ 87
ლ@@ 87
Eff@@ 86
Gri@@ 86
Instrum@@ 86
Neg@@ 86
Princ@@ 86
Priv@@ 86
Reichs@@ 86
Sali@@ 86
Was@@ 86
any 86
azz@@ 86
cab@@ 86
e. 86
eren 86
ieve 86
ingen 86
ists 86
mut@@ 86
ned 86
och 86
river 86
sanc@@ 86
spec@@ 86
stan@@ 86
teria 86
trac@@ 86
vin 86
wen@@ 86
öl@@ 86
ные 86
преж@@ 86
ры@@ 86
Ѫ@@ 86
Cant@@ 85
Fili@@ 85
Front 85
Hus@@ 85
Iv@@ 85
Jane 85
King@@ 85
Kle@@ 85
Lan@@ 85
Lav@@ 85
Nap@@ 85
ación 85
anot@@ 85
ational 85
bach 85
bal 85
cast 85
dav@@ 85
ease 85
eger 85
eller 85
iles 85
imm@@ 85
lit 85
obr@@ 85
onde 85
onder@@ 85
oso 85
ples 85
space 85
strong 85
sun@@ 85
tax@@ 85
teri 85
town 85
ules 85
unds 85
wing 85
worth 85
yer@@ 85
ες 85
ρου 85
τά@@ 85
τον 85
одно@@ 85
Carol@@ 84
Con 84
Hung@@ 84
Nati@@ 84
Rein@@ 84
Roger 84
Roll@@ 84
Some 84
Stand@@ 84
Zen@@ 84
ances 84
arp@@ 84
aut 84
bot 84
each 84
enna 84
igo 84
ischer 84
ka@@ 84
kul@@ 84
model 84
natur@@ 84
offic@@ 84
ologie 84
oper 84
osh@@ 84
ough@@ 84
over@@ 84
pper 84
sea 84
sh 84
sing 84
sional 84
sou@@ 84
source 84
systems 84
ungen 84
vet 84
vet@@ 84
water 84
wit@@ 84
έλ@@ 84
κο@@ 84
ρίου 84
σα 84
ды 84
нь 84
сса 84
≤ 84
194@@ 83
Bad@@ 83
Barr@@ 83
Bass@@ 83
Hier@@ 83
Maz@@ 83
Tony 83
achi 83
ames 83
ben 83
cost@@ 83
div@@ 83
ensi@@ 83
este 83
fir@@ 83
lem 83
mexic@@ 83
mont@@ 83
ose@@ 83
phot@@ 83
quar@@ 83
regi@@ 83
rier 83
tag@@ 83
war 83
xi 83
án@@ 83
άκ@@ 83
.C. 82
Adri@@ 82
Apol@@ 82
Hit@@ 82
Lind@@ 82
Pacific 82
Steph@@ 82
aces 82
aim@@ 82
aux@@ 82
cht 82
cou@@ 82
ebo@@ 82
erk@@ 82
ident@@ 82
ingi@@ 82
iting 82
kers 82
kop@@ 82
lik 82
onlyinclude 82
orio 82
orn 82
thin 82
tima 82
uno 82
versi@@ 82
ß 82
él@@ 82
ür@@ 82
ý 82
ίδης 82
ρον 82
τη 82
ментов 82
Anna 81
Dipl@@ 81
Fon@@ 81
Jag@@ 81
Nob@@ 81
Oxford 81
Pier@@ 81
Rog@@ 81
Ross 81
Stadium 81
a. 81
anne 81
ats@@ 81
enci@@ 81
endi 81
hat@@ 81
kis@@ 81
mode 81
part 81
pedi@@ 81
rim@@ 81
sat@@ 81
schi@@ 81
tir@@ 81
unter@@ 81
ɪ@@ 81
έ 81
ορ@@ 81
ո@@ 81
Alexand@@ 80
Back@@ 80
Boul@@ 80
Crim@@ 80
Dé@@ 80
Fres@@ 80
Friedrich 80
Gul@@ 80
May 80
Orchestra 80
Sain@@ 80
Sin 80
Theod@@ 80
Vin@@ 80
Yam@@ 80
band 80
bey 80
bos@@ 80
cad@@ 80
din 80
dos 80
eign 80
flora 80
para 80
press@@ 80
ria 80
stream 80
zum 80
ü 80
Ά@@ 80
имел 80
‚ 80
Bla@@ 79
Bour@@ 79
Casa 79
Du 79
Fam@@ 79
Gas@@ 79
Gil@@ 79
Hat@@ 79
Health 79
High@@ 79
India 79
Libr@@ 79
Luf@@ 79
Nord 79
Single 79
Stat@@ 79
abl@@ 79
aw 79
azar@@ 79
aç@@ 79
ck@@ 79
cos 79
edia 79
fi 79
iki@@ 79
isco 79
kw@@ 79
loyd 79
nu 79
oj@@ 79
omi 79
reich@@ 79
shar@@ 79
tari@@ 79
thi 79
tier 79
ulu 79
year 79
zon 79
Ȣ@@ 79
ɔ@@ 79
ФСР 79
ד@@ 79
ה 79
の@@ 79
Australian 78
Council 78
Eri@@ 78
Esp@@ 78
Jam@@ 78
Lanc@@ 78
Lo 78
Ma 78
Ny@@ 78
Rit@@ 78
eil 78
hac@@ 78
her 78
imler 78
jam@@ 78
lands 78
lu 78
mon 78
ort@@ 78
oz 78
pen 78
peti@@ 78
plas@@ 78
result 78
sed 78
spr@@ 78
sula 78
tar 78
tem 78
tun@@ 78
Ç@@ 78
č 78
ший 78
187@@ 77
Beat@@ 77
Charlie 77
Cla@@ 77
Deb@@ 77
Elizabeth 77
Greg@@ 77
Karl 77
Kel@@ 77
Mass@@ 77
Nom@@ 77
Pass@@ 77
Plan 77
Ry@@ 77
Ré@@ 77
Teatro 77
aber 77
ails 77
amar@@ 77
amor 77
ander 77
asse 77
auc@@ 77
bass@@ 77
black 77
current 77
elin 77
emi 77
fied 77
fili@@ 77
fon@@ 77
fort 77
fri@@ 77
gy 77
list@@ 77
maj@@ 77
ock@@ 77
shire 77
sing@@ 77
ult@@ 77
uses 77
vention 77
weight 77
ř@@ 77
χει@@ 77
1st 76
Aj@@ 76
Dav@@ 76
Det@@ 76
LG@@ 76
Nak@@ 76
Tok@@ 76
Tol@@ 76
Walter 76
Wer@@ 76
Wood@@ 76
bli@@ 76
edr@@ 76
elles 76
elt 76
gesch@@ 76
have 76
icro@@ 76
ition 76
juli@@ 76
mili@@ 76
ological 76
only 76
onne 76
phy 76
pour 76
sert 76
spect@@ 76
square 76
vey 76
whe@@ 76
ya@@ 76
ár@@ 76
ą 76
δο@@ 76
εί@@ 76
є 76
Asia 75
Bibli@@ 75
Boston 75
Giovanni 75
Ken@@ 75
Maur@@ 75
Roman@@ 75
abol@@ 75
ann 75
atos 75
bec@@ 75
bio 75
dix 75
eling 75
fic 75
fiel@@ 75
gun@@ 75
itung 75
kur@@ 75
ls 75
now@@ 75
ought 75
rou@@ 75
tak@@ 75
tors 75
vat@@ 75
wak@@ 75
ł 75
ογ@@ 75
акаде@@ 75
Alex@@ 74
Cra@@ 74
Fat@@ 74
Gem@@ 74
Kre@@ 74
Mik@@ 74
Mut@@ 74
Revolution 74
Southern 74
Wild@@ 74
ares 74
date 74
han@@ 74
inde@@ 74
kara 74
kre@@ 74
metal 74
port@@ 74
rid 74
rie 74
tes@@ 74
usion 74
vac@@ 74
xe 74
ów 74
Καλ@@ 74
όν@@ 74
рь 74
ῦ 74
™ 74
Band@@ 73
Dru@@ 73
Dun@@ 73
Flor@@ 73
Francisco 73
Histoire 73
Main@@ 73
anni 73
anted 73
board 73
chn@@ 73
een 73
etti@@ 73
europ@@ 73
fig@@ 73
fron@@ 73
ging 73
iment 73
imp@@ 73
itter 73
lam 73
libr@@ 73
otom@@ 73
pio 73
rant 73
rio 73
speci@@ 73
uki 73
web@@ 73
werk 73
werke 73
ń@@ 73
έν@@ 73
ις 73
ψ@@ 73
протя@@ 73
стато@@ 73
Bag@@ 72
Biz@@ 72
County 72
Epis@@ 72
Hay@@ 72
Jum@@ 72
Mr@@ 72
Pour 72
Simon 72
They 72
ago@@ 72
ament 72
ample 72
anas 72
aver@@ 72
bei 72
bin 72
campus 72
ching 72
dest@@ 72
ering 72
hot@@ 72
ires 72
park 72
rad 72
rug@@ 72
sex@@ 72
sky 72
sons 72
tran@@ 72
uer@@ 72
ö 72
ě 72
Δ 72
Μπο@@ 72
ατζ@@ 72
μα@@ 72
городи@@ 72
ꙑ@@ 72
Atlan@@ 71
Bill 71
Cad@@ 71
Ges@@ 71
Naz@@ 71
Pav@@ 71
Rand@@ 71
Rio 71
Stan@@ 71
Telev@@ 71
Vig@@ 71
Villa 71
Yor@@ 71
adem@@ 71
aining 71
arina 71
bs 71
dan 71
entum 71
eux 71
hand@@ 71
kit@@ 71
lang@@ 71
lave 71
pass@@ 71
perial 71
show 71
tico 71
tru@@ 71
tt@@ 71
typ@@ 71
ufac@@ 71
zo@@ 71
Περ@@ 71
αυ@@ 71
οδ@@ 71
οσ@@ 71
πολι@@ 71
ως 71
ья 71
192@@ 70
193@@ 70
Bau@@ 70
Bin@@ 70
Bob@@ 70
Court 70
Dj@@ 70
Had@@ 70
Kas@@ 70
Lad@@ 70
Ou@@ 70
Pow@@ 70
Sad@@ 70
Suz@@ 70
Tenn@@ 70
XV@@ 70
ables 70
ablo 70
apar@@ 70
bom@@ 70
bor 70
curr@@ 70
iche 70
kle@@ 70
kun@@ 70
ligh@@ 70
lun@@ 70
open 70
oss 70
sab@@ 70
shi@@ 70
va@@ 70
wel@@ 70
wide 70
yan 70
¬ 70
än@@ 70
õ@@ 70
Άν@@ 70
ρού@@ 70
τρ@@ 70
υρ@@ 70
Asi@@ 69
Committee 69
Daniel 69
Hug@@ 69
Medical 69
North@@ 69
Police 69
allen 69
atten@@ 69
bour@@ 69
care 69
cog@@ 69
emia 69
kt 69
mal 69
mir 69
phia 69
say@@ 69
sep@@ 69
sort 69
system 69
yal@@ 69
ı@@ 69
Δι@@ 69
ητ@@ 69
ούλ@@ 69
атам 69
афри@@ 69
ългар@@ 69
ם 69
Ant@@ 68
CF 68
Di 68
Doctor 68
Euro 68
Gel@@ 68
Git@@ 68
Hall@@ 68
Hid@@ 68
Institut 68
Jack@@ 68
Marine 68
Port 68
Tam@@ 68
Tek@@ 68
agen 68
aud 68
bab@@ 68
blo@@ 68
boy@@ 68
ces@@ 68
erei 68
espace 68
his@@ 68
igi 68
kins 68
lot 68
nel 68
ograph@@ 68
ongo@@ 68
ool 68
prises 68
sten 68
uga 68
άδ@@ 68
γκ@@ 68
εν 68
ύρ@@ 68
Его 68
премии 68
цы 68
ր@@ 68
ὐ@@ 68
185@@ 67
Dad@@ 67
Fund@@ 67
Geor@@ 67
Latin 67
Leon@@ 67
Mart@@ 67
Nord@@ 67
Ost@@ 67
Pad@@ 67
Pand@@ 67
Top@@ 67
Wir@@ 67
acks 67
afe 67
ahi 67
aint 67
amin@@ 67
apr@@ 67
arias 67
aven@@ 67
bile 67
blu@@ 67
dat@@ 67
dil@@ 67
ener 67
etr@@ 67
fall 67
gor@@ 67
hai 67
hav@@ 67
heim 67
imin@@ 67
isse 67
long 67
lower 67
parti@@ 67
pis@@ 67
road 67
ste 67
syn@@ 67
title 67
té 67
vas@@ 67
vie 67
yl 67
zur 67
üt@@ 67
άρ 67
όρ@@ 67
ه@@ 67
ნ@@ 67
្ 67
186@@ 66
Ba 66
Bundes@@ 66
Chev@@ 66
Develop@@ 66
Dum@@ 66
Guy 66
Jan 66
Kad@@ 66
Kim@@ 66
Nacional 66
Rac@@ 66
Ris@@ 66
Tag 66
Virginia 66
acht 66
americana 66
ancy 66
atu@@ 66
bu 66
but 66
cut@@ 66
egel 66
ening 66
eral 66
ichi 66
ig 66
ked 66
kt@@ 66
ligence 66
master 66
mont 66
omin@@ 66
pad@@ 66
soci@@ 66
thel@@ 66
tour 66
umi 66
uss 66
ίκ@@ 66
губернии 66
золо@@ 66
лях 66
Ale@@ 65
Alexander 65
Atl@@ 65
Culture 65
Cum@@ 65
Johnson 65
Mark@@ 65
NBA 65
Scott 65
ador 65
ament@@ 65
base 65
bau@@ 65
centr@@ 65
dale 65
dans 65
dh@@ 65
eff@@ 65
elt@@ 65
ember 65
eting 65
exec@@ 65
eyi 65
igi@@ 65
iler 65
iste 65
jan 65
jer@@ 65
law@@ 65
ments 65
oft 65
ply 65
post 65
prop@@ 65
sl@@ 65
spi@@ 65
tad@@ 65
track 65
tural 65
two 65
vie@@ 65
Ü@@ 65
Αγ@@ 65
Γι@@ 65
ην@@ 65
λά@@ 65
Alg@@ 64
Australia 64
Bes@@ 64
Edward 64
Ein@@ 64
Frances@@ 64
Jimmy 64
Jug@@ 64
Kelly 64
Kenn@@ 64
Morgan 64
Ord@@ 64
Roman 64
Sant@@ 64
Tos@@ 64
Tul@@ 64
americ@@ 64
anim@@ 64
arte 64
asser 64
aster@@ 64
cs 64
enberg 64
fall@@ 64
force 64
geri 64
hil@@ 64
ige 64
illo 64
integ@@ 64
kar 64
lins 64
news 64
ott 64
pre 64
ros 64
sion@@ 64
tag 64
trav@@ 64
troph@@ 64
ves@@ 64
ǎ@@ 64
Ξ@@ 64
νη 64
οπ@@ 64
запре@@ 64
ию@@ 64
средне@@ 64
12. 63
Eastern 63
Gau@@ 63
Gib@@ 63
Heinrich 63
Ich@@ 63
Temple 63
Universit@@ 63
Wilhelm 63
abe 63
alen 63
bou@@ 63
bras@@ 63
eki 63
fica 63
fos@@ 63
free 63
gam@@ 63
gether 63
group 63
him@@ 63
ina@@ 63
iner@@ 63
ingo 63
isia 63
kap@@ 63
mai 63
mar 63
next 63
oid 63
orie 63
ority 63
size 63
sul 63
uke 63
uo 63
αδ@@ 63
αι@@ 63
αρχος 63
γι@@ 63
ετ@@ 63
Он 63
августа 63
вый 63
ვ@@ 63
Anton@@ 62
August@@ 62
Avenue 62
CEO 62
Deutschland 62
Ear@@ 62
Education 62
Europa 62
Ey@@ 62
Gran 62
Harvard 62
Juni@@ 62
Korea 62
Les@@ 62
Shu@@ 62
Wind@@ 62
alo 62
car 62
det@@ 62
dres@@ 62
eman 62
eton 62
frag@@ 62
gang@@ 62
gar 62
gom@@ 62
ils 62
ismo 62
ited 62
lang 62
lik@@ 62
mani@@ 62
nos 62
ono 62
order 62
rat@@ 62
sag@@ 62
sel 62
seud@@ 62
sport 62
stanbul 62
tech@@ 62
uter 62
uz 62
zel@@ 62
zia 62
ön@@ 62
Πολ@@ 62
άσ@@ 62
ηλ@@ 62
λλ@@ 62
ρε@@ 62
υπ@@ 62
вы@@ 62
дня 62
ע@@ 62
Anh@@ 61
Bis@@ 61
Kos@@ 61
Manchester 61
Metropolit@@ 61
Ministr@@ 61
Nev@@ 61
Princip@@ 61
Proj@@ 61
Reich@@ 61
Rhein@@ 61
Sib@@ 61
Spi@@ 61
Tir@@ 61
anch@@ 61
elly 61
engine 61
estra 61
eval 61
fication 61
fru@@ 61
graph@@ 61
ific@@ 61
ilo 61
inning 61
iz 61
jar@@ 61
lies 61
mix@@ 61
pris 61
rig@@ 61
sex 61
sir@@ 61
tly 61
tur 61
ui@@ 61
unger 61
vig@@ 61
ē 61
Δημ@@ 61
Ε 61
Παπ@@ 61
ίων 61
ιά 61
όσ@@ 61
испо@@ 61
чь 61
ָ@@ 61
ת 61
Ah@@ 60
Albert 60
Carlo 60
Creek 60
Fron@@ 60
Green@@ 60
Grim@@ 60
Highway 60
Kamp@@ 60
Kri@@ 60
Middle 60
Navy 60
Nick 60
Pf@@ 60
Russia 60
Wall@@ 60
atura 60
auer 60
avi 60
bol 60
card 60
chen@@ 60
chev@@ 60
cial 60
ector 60
enses 60
enter@@ 60
ever@@ 60
forman@@ 60
host@@ 60
iterran@@ 60
ju 60
kam@@ 60
led 60
nea 60
polit@@ 60
pom@@ 60
produc@@ 60
room 60
seg@@ 60
sters 60
tent 60
tional 60
vier 60
west 60
zen@@ 60
ég@@ 60
Αν@@ 60
Κάτω 60
ική 60
Боль@@ 60
мы 60
рую 60
უ@@ 60
189@@ 59
Americ@@ 59
Austin 59
Chris 59
Corps 59
Italy 59
Johnny 59
Mb@@ 59
Mär@@ 59
Northern 59
Taylor 59
These 59
Thor@@ 59
Wag@@ 59
Wid@@ 59
ardo 59
chester 59
commun@@ 59
einer 59
eka 59
got@@ 59
iko 59
iner 59
inv@@ 59
izer 59
lav 59
limited 59
oir 59
oul 59
publ@@ 59
sti 59
tat@@ 59
trag@@ 59
tum@@ 59
ved 59
ór@@ 59
þ@@ 59
βι@@ 59
ζ 59
μά@@ 59
μι@@ 59
время 59
гг 59
скус@@ 59
џ@@ 59
ѡ 59
ן 59
س@@ 59
َ@@ 59
10. 58
17. 58
Administration 58
Bach@@ 58
Brig@@ 58
Brun@@ 58
Eug@@ 58
Fig@@ 58
Frank 58
Gru@@ 58
Hr@@ 58
Jay 58
Jos@@ 58
Mex@@ 58
Mount 58
Nach@@ 58
Ok@@ 58
Palm@@ 58
Port@@ 58
Sak@@ 58
Samuel 58
Unter@@ 58
Zh@@ 58
ados 58
alifor@@ 58
anco 58
auf 58
bel 58
bora 58
bury 58
cent@@ 58
corpor@@ 58
eas 58
erst@@ 58
format 58
gas 58
had 58
infer@@ 58
itage 58
kö@@ 58
lear@@ 58
mission 58
nik@@ 58
serie 58
ulia 58
util@@ 58
zer@@ 58
Ś@@ 58
ουλ@@ 58
τιμ@@ 58
το 58
τσι 58
ких 58
мы@@ 58
поселе@@ 58
развити@@ 58
смер@@ 58
ِ@@ 58
მ@@ 58
.000 57
11. 57
BI 57
Eli@@ 57
Histori@@ 57
Kob@@ 57
Sah@@ 57
Victor 57
Wrest@@ 57
anny 57
capit@@ 57
dance 57
det 57
dra@@ 57
ede 57
ended 57
entes 57
etz@@ 57
evi 57
fem@@ 57
film 57
grav@@ 57
head@@ 57
mula 57
nen 57
offici@@ 57
omel@@ 57
ouse 57
then 57
tique 57
¼ 57
Á@@ 57
äl@@ 57
ét@@ 57
ησι@@ 57
ἰ@@ 57
And@@ 56
Arthur 56
Braz@@ 56
Centro 56
Commission 56
Elek@@ 56
Erk@@ 56
Glas@@ 56
Haus 56
How@@ 56
Institu@@ 56
Kot@@ 56
Memorial 56
Mez@@ 56
Peti@@ 56
Premier 56
Production 56
Sev@@ 56
Sierra 56
Steve 56
Williams 56
ahl@@ 56
ansa 56
arab@@ 56
ativ@@ 56
bank 56
control 56
cros@@ 56
deo 56
dial 56
ecia 56
ecture 56
edit@@ 56
hier@@ 56
high 56
ingham 56
isten 56
ladi@@ 56
leo 56
lib@@ 56
lose 56
map@@ 56
mos 56
oc 56
ography 56
opa 56
pir@@ 56
tain 56
used 56
wol@@ 56
én 56
ín 56
Ό@@ 56
Παρ@@ 56
εκ@@ 56
όβ@@ 56
Ь 56
лле@@ 56
руко@@ 56
ს@@ 56
Adam 55
Arist@@ 55
Berliner 55
Board 55
Field 55
Joh@@ 55
Jr 55
Law@@ 55
Lud@@ 55
Mia 55
Part@@ 55
Rat@@ 55
Slo@@ 55
Wak@@ 55
Wilson 55
ald@@ 55
alled 55
amber 55
ande 55
ded 55
dir 55
eler 55
has 55
icos 55
law 55
length 55
lie@@ 55
mel 55
mig@@ 55
ois 55
power 55
rang 55
sar 55
stadt 55
vec@@ 55
will 55
âteau 55
ça 55
Κι@@ 55
μαν@@ 55
τερ@@ 55
υλ@@ 55
бы@@ 55
северо 55
ְ@@ 55
ּ@@ 55
ח@@ 55
ო@@ 55
Alber@@ 54
Andr@@ 54
Champions 54
Conference 54
Flug@@ 54
Giov@@ 54
Grou@@ 54
Ja@@ 54
Jackson 54
Ji@@ 54
Lak@@ 54
Maf@@ 54
Mike 54
Mission 54
Papa 54
SV 54
St 54
angers 54
asons 54
ativa 54
chem@@ 54
cla@@ 54
colum@@ 54
echo 54
eng 54
fen@@ 54
gare 54
haus 54
hop 54
icio 54
iser 54
iter@@ 54
mah@@ 54
mond 54
ording 54
pend@@ 54
plan 54
por 54
program 54
rat 54
sera 54
sten@@ 54
tiva 54
ustry 54
vera 54
wick 54
ž 54
Παλαι@@ 54
Σαρ@@ 54
ργ@@ 54
σης 54
ն@@ 54
া@@ 54
⁄ 54
≥ 54
└ 54
Baz@@ 53
Bog@@ 53
Canadian 53
Chin@@ 53
Donald 53
EU 53
Flu@@ 53
His@@ 53
Histor@@ 53
Ide@@ 53
Jesus 53
Juan 53
Kab@@ 53
Kent 53
Nag@@ 53
about 53
acter@@ 53
amba 53
ancia 53
angle 53
bed@@ 53
ché 53
cour@@ 53
ead 53
ectiv@@ 53
eg 53
embr@@ 53
erie 53
father 53
ible 53
ife 53
ledge 53
mam@@ 53
met 53
oda 53
odi 53
oking 53
onen 53
position 53
red@@ 53
rest@@ 53
solo 53
trad@@ 53
tsch@@ 53
uj@@ 53
ving 53
¡ 53
Έ@@ 53
ϊ@@ 53
России 53
взя@@ 53
ִ@@ 53
כ@@ 53
ῦ@@ 53
188@@ 52
Ali 52
Alt@@ 52
August 52
Bak@@ 52
Eric 52
Florida 52
Gard@@ 52
Ha 52
Haz@@ 52
Ins@@ 52
Jun@@ 52
Mann 52
Moore 52
Neb@@ 52
Nep@@ 52
Nich@@ 52
Otto 52
Syr@@ 52
abor@@ 52
acha 52
acu@@ 52
aging 52
ahr@@ 52
aise 52
anos 52
aries 52
atu 52
ball@@ 52
best 52
bid@@ 52
camp 52
cas 52
eda 52
egas 52
entre 52
ern 52
esh 52
etas 52
igg@@ 52
isha 52
led@@ 52
ms@@ 52
occer 52
servat@@ 52
sup@@ 52
uri@@ 52
´ 52
Ä@@ 52
ė 52
İ@@ 52
ɑ@@ 52
Μακεδονίας 52
ίν@@ 52
λί@@ 52
ραν@@ 52
времени 52
голов@@ 52
ны@@ 52
ბ@@ 52
13. 51
Airport 51
Bah@@ 51
Brand@@ 51
Charlotte 51
Chic@@ 51
Ein 51
Franc@@ 51
Margar@@ 51
Nig@@ 51
Nis@@ 51
Schwar@@ 51
Sid@@ 51
Sir 51
Vik@@ 51
Ya 51
abi@@ 51
ability 51
abra 51
alist 51
alit@@ 51
ayo 51
conn@@ 51
edition 51
espe@@ 51
hen@@ 51
inci 51
isher 51
key@@ 51
kia 51
orch@@ 51
ouv@@ 51
pas 51
place 51
pros@@ 51
rati@@ 51
ray@@ 51
tain@@ 51
tri 51
urt 51
verte@@ 51
wi 51
wiki 51
yar@@ 51
ène 51
ès 51
ñ@@ 51
̯ 51
Κυ@@ 51
έξ@@ 51
ιερ@@ 51
κας 51
τικής 51
лы@@ 51
ческий 51
ѹ 51
ꙑ 51
180@@ 50
Arn@@ 50
Buff@@ 50
Christ 50
Conserv@@ 50
Egyp@@ 50
Ernst 50
Jersey 50
Johann 50
Kno@@ 50
Major 50
March 50
Personal 50
Reich 50
Reser@@ 50
Sag@@ 50
Yes@@ 50
alt 50
ana@@ 50
anie 50
city 50
dou@@ 50
due 50
ehr@@ 50
elem@@ 50
emos 50
example 50
guit@@ 50
hau@@ 50
igh 50
lip 50
liter@@ 50
math@@ 50
ped@@ 50
second 50
single 50
sn@@ 50
tou@@ 50
wes@@ 50
wo 50
xima 50
ées 50
û@@ 50
ün@@ 50
Ž@@ 50
Πέ@@ 50
ιδ@@ 50
κι@@ 50
υν@@ 50
йский 50
лимпи@@ 50
собо@@ 50
ِ 50
ْ@@ 50
រ@@ 50
Argent@@ 49
Ben 49
Catal@@ 49
Chor@@ 49
Feli@@ 49
Fest@@ 49
Film@@ 49
Inf@@ 49
J.@@ 49
Lé@@ 49
Marco 49
Mario 49
Miller 49
Supre@@ 49
Val 49
Walker 49
agne 49
airs 49
angel@@ 49
building 49
comm@@ 49
ffe 49
gli@@ 49
hyp@@ 49
idge 49
iff 49
iso 49
lan 49
lim 49
nie 49
oy 49
pers@@ 49
ports 49
sk 49
spo@@ 49
zar@@ 49
zone 49
ém@@ 49
ė@@ 49
˚ 49
Λ 49
νου 49
οκ@@ 49
ορο@@ 49
οφ@@ 49
ρυ@@ 49
χαλ@@ 49
όπ@@ 49
Э 49
завер@@ 49
≠ 49
Cari@@ 48
Geschichte 48
Initi@@ 48
Kim 48
Lau@@ 48
Lie@@ 48
Neu@@ 48
Popular 48
Sonn@@ 48
Stud@@ 48
Tig@@ 48
Wayne 48
Welt 48
acias 48
aku 48
ampton 48
apon 48
ators 48
azi 48
chor@@ 48
dice 48
enda 48
ezi 48
isions 48
itation 48
jun@@ 48
jur@@ 48
lyn 48
neum@@ 48
onale 48
open@@ 48
orium 48
pose 48
requ@@ 48
rich 48
say 48
see 48
song 48
stand 48
strateg@@ 48
uto 48
yu 48
å 48
érieure 48
ś 48
Κ 48
αν 48
εις 48
θος 48
ιος 48
οί 48
ουσ@@ 48
χώ@@ 48
ќ@@ 48
� 48
Bob 47
Christi@@ 47
Del 47
Irish 47
Jar@@ 47
Kid@@ 47
Klasse 47
Kö@@ 47
Len@@ 47
NAT@@ 47
National@@ 47
Sainte 47
Schul@@ 47
alle 47
ambi@@ 47
back@@ 47
bil 47
blin 47
bre 47
buch 47
dida 47
dies 47
enzo 47
ers@@ 47
famili@@ 47
hard 47
ht 47
ios 47
isis 47
kri@@ 47
language 47
nec@@ 47
nin 47
noi 47
perf@@ 47
pes@@ 47
rar@@ 47
ref@@ 47
resp@@ 47
sand@@ 47
sci@@ 47
sie 47
sto@@ 47
termin@@ 47
toria 47
ál@@ 47
Θ 47
Προ@@ 47
εσ@@ 47
ιαν@@ 47
ρέ@@ 47
ρα 47
сс@@ 47
эн@@ 47
ե@@ 47
ר 47
∆ 47
⋅ 47
18. 46
African 46
Antonio 46
Califor@@ 46
Den 46
Fen@@ 46
It@@ 46
Kun@@ 46
Liz@@ 46
Marvel 46
Nelson 46
Politi@@ 46
Railway 46
Shel@@ 46
Stein@@ 46
Thé@@ 46
Wolf@@ 46
Zeit 46
accoun@@ 46
agan 46
album 46
aller 46
allo 46
aman@@ 46
aten 46
bad@@ 46
bak@@ 46
bas 46
beg@@ 46
bern@@ 46
cartes 46
castle 46
clav@@ 46
cus@@ 46
eff 46
eing 46
eland 46
enh@@ 46
epis@@ 46
isches 46
isti 46
lif@@ 46
lis@@ 46
mass@@ 46
modi@@ 46
naz@@ 46
nis@@ 46
oba 46
olas 46
omp@@ 46
ored 46
ours 46
pop@@ 46
rak@@ 46
schle@@ 46
sept@@ 46
simil@@ 46
sola 46
status 46
sym@@ 46
tek 46
vu@@ 46
zer 46
ğ@@ 46
ʃ@@ 46
Κο@@ 46
βα 46
ευ@@ 46
ιλ@@ 46
ξ 46
ουρ@@ 46
ρι 46
имени 46
ить 46
щий 46
ه 46
16. 45
Aug@@ 45
But 45
Captain 45
Democ@@ 45
Department 45
Early 45
Gros@@ 45
Hospital 45
Jur@@ 45
Kaz@@ 45
Lap@@ 45
Moder@@ 45
Montre@@ 45
Ohio 45
Pia 45
Rak@@ 45
Spor@@ 45
Tag@@ 45
Termin@@ 45
Verlag 45
Yer@@ 45
aft@@ 45
ague 45
alism 45
amia 45
based 45
cina 45
dru@@ 45
elen 45
ender@@ 45
ending 45
estro 45
game 45
isión 45
jug@@ 45
lied 45
lines 45
mando 45
marine 45
oko 45
oll 45
ppi 45
prob@@ 45
quir@@ 45
sau@@ 45
sich@@ 45
tile 45
tros 45
uel@@ 45
ump 45
unge 45
wers 45
yana@@ 45
ás 45
ń 45
ș@@ 45
Αρ@@ 45
ΠΑ@@ 45
άγ@@ 45
γραφ@@ 45
εύ@@ 45
ιτ@@ 45
μπο@@ 45
πρ@@ 45
σημει@@ 45
τε@@ 45
версите@@ 45
жей 45
чная 45
что@@ 45
҃ 45
ի@@ 45
ر@@ 45
ḥ@@ 45
Alex 44
Asian 44
Cambridge 44
Cec@@ 44
Dave 44
Era 44
Government 44
Griff@@ 44
Iz@@ 44
Lig@@ 44
Monum@@ 44
Patri@@ 44
Rober@@ 44
Russian 44
Sieg@@ 44
Sus 44
Wien 44
Wright 44
antas@@ 44
ata@@ 44
burgh 44
cu 44
ebook 44
ecto 44
einen 44
ennes 44
fan 44
ffen 44
foc@@ 44
grande 44
han 44
igher 44
inen 44
ives 44
nt 44
popul@@ 44
undi 44
urban@@ 44
wie 44
yeri 44
éri@@ 44
über 44
ț@@ 44
Θεσσαλ@@ 44
Τζ@@ 44
αντ@@ 44
λόγ@@ 44
πεί@@ 44
няя 44
ры 44
ссо@@ 44
сы 44
чих 44
ый 44
ն 44
ל 44
ح@@ 44
大@@ 44
14. 43
Academ@@ 43
Berg@@ 43
Gan@@ 43
Herr@@ 43
Isa@@ 43
Laz@@ 43
Lec@@ 43
Miami 43
Michel 43
Sach@@ 43
Schw@@ 43
Sever@@ 43
Zeit@@ 43
adu@@ 43
aissance 43
ao@@ 43
ashi 43
auto@@ 43
ayr@@ 43
burn 43
causa 43
cent 43
coll@@ 43
deutsche 43
dici@@ 43
dul@@ 43
eci 43
enty 43
evi@@ 43
exp@@ 43
friend 43
haw@@ 43
hibi@@ 43
hil 43
iliz@@ 43
inn 43
kno@@ 43
lé@@ 43
nach 43
ondo 43
osi 43
princip@@ 43
series 43
station 43
stel@@ 43
sun 43
tap@@ 43
times 43
virtu@@ 43
wald 43
ysi@@ 43
ères 43
ê 43
ɛ 43
ʼ@@ 43
Γ 43
Γεωργίου 43
Παναγ@@ 43
Το 43
αθ@@ 43
εβ@@ 43
ικός 43
νι@@ 43
τί@@ 43
τσι@@ 43
ать 43
благодаря 43
зы@@ 43
лл 43
лы 43
льный 43
правления 43
ւ@@ 43
ي@@ 43
ា@@ 43
Alter@@ 42
Amer@@ 42
Assembly 42
Brian 42
Carlos 42
Dut@@ 42
Fort 42
François 42
French 42
Führ@@ 42
Ital@@ 42
Japanese 42
Jim 42
Lincoln 42
Ludwig 42
Mp@@ 42
Rud@@ 42
adap@@ 42
aden 42
afé 42
ained 42
aler 42
anni@@ 42
atique 42
d. 42
edi 42
eline 42
enst@@ 42
eras 42
fier 42
hap@@ 42
ided 42
immer 42
inj@@ 42
last 42
march@@ 42
mom@@ 42
n.@@ 42
nd 42
ob 42
ogo 42
path@@ 42
phi@@ 42
quet 42
roy@@ 42
rum@@ 42
scher 42
stock 42
teen 42
tent@@ 42
titu@@ 42
tras@@ 42
uro 42
usi 42
wan 42
weg@@ 42
ël 42
͡ 42
Γαλ@@ 42
Κου@@ 42
Μελ@@ 42
Νέας 42
αφ@@ 42
γραμμ@@ 42
μεν@@ 42
μος 42
όκ@@ 42
ών@@ 42
своего 42
ї 42
ә@@ 42
2.000 41
Cape 41
Civil 41
Compan@@ 41
Dutch 41
Francis 41
Franz 41
Hans 41
Hispania 41
Kro@@ 41
Leben 41
Ped@@ 41
Program@@ 41
Rech@@ 41
Sam 41
Sé@@ 41
Werke 41
aje 41
aron 41
atur 41
bau 41
bay@@ 41
bea 41
borough 41
club 41
ences 41
him 41
home 41
identi@@ 41
iku 41
imba 41
isto 41
kad@@ 41
kas@@ 41
leb@@ 41
level 41
magazine 41
má@@ 41
ograp@@ 41
olf 41
ongo 41
plant@@ 41
post@@ 41
priv@@ 41
quali@@ 41
ross 41
sans 41
schrift 41
scre@@ 41
sible 41
sist@@ 41
soft 41
some@@ 41
standing 41
temp@@ 41
tung 41
ution@@ 41
yar 41
ç 41
ın 41
Ανα@@ 41
Νε@@ 41
άσης 41
άχ@@ 41
αί@@ 41
ιώ@@ 41
κά@@ 41
πι@@ 41
ώσεις 41
для 41
пы@@ 41
росси@@ 41
ѥ 41
ل@@ 41
ა 41
დ@@ 41
‟ 41
ꙗ@@ 41
15. 40
22. 40
Andrew 40
Burg@@ 40
Bush 40
Dan 40
Dod@@ 40
Eis@@ 40
Franç@@ 40
Georg 40
Gur@@ 40
Jes@@ 40
July 40
Kul@@ 40
Marshall 40
Materi@@ 40
Mec@@ 40
Olymp@@ 40
Parti@@ 40
Penn@@ 40
Peter@@ 40
Roh@@ 40
Sü@@ 40
Their 40
Vall@@ 40
Zw@@ 40
adel@@ 40
analy@@ 40
atures 40
buil@@ 40
cara 40
casa 40
cen@@ 40
chart 40
document@@ 40
down@@ 40
dynam@@ 40
eim 40
extr@@ 40
hist@@ 40
male 40
mental 40
mid 40
nak@@ 40
oder 40
ois@@ 40
ologi@@ 40
ophie 40
oshi 40
otte 40
raz@@ 40
san 40
slo@@ 40
tail 40
tice 40
too 40
tribu@@ 40
tz@@ 40
vision 40
yor@@ 40
É 40
â 40
ân 40
ï 40
ül@@ 40
ő@@ 40
ɔ 40
Ιωάν@@ 40
Μικ@@ 40
Παν@@ 40
Ψ@@ 40
ές 40
εία 40
ικό 40
ουν@@ 40
πος 40
στασ@@ 40
τού@@ 40
όπουλος 40
гие 40
кую 40
лый 40
того 40
ѓ@@ 40
ג@@ 40
∈ 40
21. 39
Amsterdam 39
Andre@@ 39
Arbeit@@ 39
Bill@@ 39
Buch@@ 39
DNA 39
Doppel@@ 39
Elle 39
Españ@@ 39
Für@@ 39
Germany 39
Gramm@@ 39
Johannes 39
Lux@@ 39
Moun@@ 39
Slov@@ 39
Tah@@ 39
Univers@@ 39
Wales 39
Wis@@ 39
aman 39
amen 39
atory 39
avy@@ 39
berg@@ 39
big 39
born 39
burg@@ 39
chu@@ 39
clos@@ 39
elling 39
ettes 39
française 39
general 39
gian 39
gun 39
heit 39
hold 39
hua 39
inge 39
ions 39
itos 39
izi@@ 39
lich 39
miles 39
minim@@ 39
niti@@ 39
nj@@ 39
pool 39
pression 39
roi 39
run 39
sburg 39
service 39
tav@@ 39
trong 39
umo 39
unga 39
vida 39
video 39
wich 39
zeug@@ 39
äh@@ 39
èn 39
ım 39
Βεν@@ 39
Κοιν@@ 39
Με@@ 39
Ρ 39
άμ@@ 39
βί@@ 39
σσ@@ 39
συν@@ 39
τας 39
όλ@@ 39
όφ@@ 39
Так 39
кими 39
י 39
် 39
‐ 39
Anthony 38
Art@@ 38
Assist@@ 38
Bron@@ 38
Desp@@ 38
Ern@@ 38
Frank@@ 38
Fried@@ 38
Hin@@ 38
Hugo 38
König@@ 38
Lewis 38
Madrid 38
Moh@@ 38
Nicolas 38
Route 38
Say@@ 38
Vinc@@ 38
acher 38
alco@@ 38
alier 38
anz 38
apo 38
artic@@ 38
band@@ 38
comment 38
dur 38
eira 38
elen@@ 38
emer@@ 38
emo 38
enden 38
eppe 38
ept 38
estig@@ 38
ference 38
grad 38
greg@@ 38
hut@@ 38
idad 38
idar@@ 38
igr@@ 38
inclu@@ 38
isl@@ 38
known 38
label 38
mang@@ 38
mouth 38
onal 38
osph@@ 38
ph 38
sak@@ 38
schule 38
sequ@@ 38
spe@@ 38
than 38
through 38
tures 38
uba 38
¾ 38
Über 38
ás@@ 38
î 38
öh@@ 38
Ż@@ 38
Λου@@ 38
Μαρ@@ 38
Μεσ@@ 38
Τρι@@ 38
ξι@@ 38
πλ@@ 38
την 38
Украи@@ 38
льная 38
менее 38
поги@@ 38
сы@@ 38
ק@@ 38
ا 38
د@@ 38
⅓ 38
,000 37
BK 37
Bapti@@ 37
Clark 37
Dep@@ 37
Es 37
Grammy 37
Islands 37
Jacques 37
Jonathan 37
José 37
Klo@@ 37
Lok@@ 37
Lug@@ 37
Marc 37
Mau@@ 37
Mey@@ 37
Mosco@@ 37
Nr. 37
Olympic 37
Ray@@ 37
SPD 37
Sa 37
Stephen 37
Will@@ 37
Willi@@ 37
Yun@@ 37
Zer@@ 37
aires 37
ako 37
allas 37
amen@@ 37
amii 37
andro 37
app 37
atre 37
aza 37
bahn 37
conc@@ 37
dez 37
digital 37
eh 37
ensa 37
ered 37
figh@@ 37
fried 37
icas 37
ises 37
jen@@ 37
kab@@ 37
kuh@@ 37
med 37
mé@@ 37
nam 37
network 37
retur@@ 37
ships 37
stand@@ 37
start 37
tas 37
ulo 37
white 37
zur@@ 37
Æ@@ 37
ß@@ 37
ŋ@@ 37
ŏ@@ 37
Αρχ@@ 37
Νικ@@ 37
Παλ@@ 37
έα 37
καλ@@ 37
μν@@ 37
περ@@ 37
Виль@@ 37
йская 37
лё@@ 37
م@@ 37
ἔ@@ 37
ὁ 37
ὑ@@ 37
♥ 37
Alan 36
Auf@@ 36
Brasil 36
Constant@@ 36
Constitu@@ 36
Des 36
Dres@@ 36
Funk@@ 36
Grund@@ 36
Gö@@ 36
Hawai@@ 36
Hul@@ 36
Israel 36
Journ@@ 36
Leo 36
Occ@@ 36
Position 36
Robinson 36
Stif@@ 36
Yard@@ 36
aham 36
aling 36
aper@@ 36
application 36
chos 36
cover 36
days 36
dep@@ 36
dos@@ 36
educ@@ 36
encer 36
entry 36
eza 36
gest@@ 36
gres@@ 36
hous@@ 36
ied 36
impl@@ 36
issi@@ 36
istic 36
jed@@ 36
lara 36
make 36
mec@@ 36
mill@@ 36
others 36
pain@@ 36
project 36
proper@@ 36
school 36
stitu@@ 36
sult@@ 36
superior 36
techn@@ 36
them 36
thu@@ 36
tiz@@ 36
trat@@ 36
unit 36
who 36
zona 36
Ø 36
év@@ 36
ź@@ 36
ż 36
Ί@@ 36
Ιωάννης 36
ραγ@@ 36
ση 36
τρι@@ 36
χ 36
ψ 36
όδ@@ 36
Љ@@ 36
бы 36
յ@@ 36
ق@@ 36
ن@@ 36
ṣ@@ 36
ὸ@@ 36
ⱏ@@ 36
Anne 35
Anton 35
Geb@@ 35
Greek 35
Hau@@ 35
Hitler 35
Hoff@@ 35
Ireland 35
Italian 35
Jose@@ 35
Kais@@ 35
Kara 35
Kop@@ 35
Nan@@ 35
Person@@ 35
Publi@@ 35
Regiment 35
Robin 35
Salv@@ 35
Sek@@ 35
Sud@@ 35
Sydney 35
Way@@ 35
Wiener 35
Yan@@ 35
Yar@@ 35
access 35
ampa 35
anii 35
auch@@ 35
eces 35
edra 35
entation 35
erre 35
faire 35
folk 35
franc@@ 35
fund@@ 35
hydro@@ 35
iness 35
isen 35
ivo 35
mant@@ 35
player 35
records 35
release 35
schen 35
ses@@ 35
shot 35
sibil@@ 35
sus@@ 35
til 35
unca 35
unde 35
union 35
univers@@ 35
uren 35
urs@@ 35
visible 35
was@@ 35
won 35
Ø@@ 35
ße 35
ête 35
ô 35
ʿ@@ 35
Κλ@@ 35
άν 35
άνη 35
άρι@@ 35
δε@@ 35
ειν@@ 35
επ@@ 35
κυ@@ 35
μονα@@ 35
μου 35
οτ@@ 35
ώσ@@ 35
вской 35
פ@@ 35
د 35
子 35
ꙗ 35
184@@ 34
Alfred 34
Benedi@@ 34
Billy 34
Crist@@ 34
Ferdinand 34
Freder@@ 34
Hak@@ 34
Harr@@ 34
Howard 34
Indiana 34
Jul@@ 34
Lö@@ 34
Must@@ 34
Philip 34
Raf@@ 34
Rav@@ 34
Shir@@ 34
Soc@@ 34
UNESCO 34
Valle 34
Zentr@@ 34
ait@@ 34
angi 34
azar 34
calcul@@ 34
cell 34
chant 34
compl@@ 34
cription 34
dipl@@ 34
drome 34
ege 34
egu@@ 34
ellen@@ 34
enburg 34
enos 34
hid@@ 34
iba 34
icht@@ 34
ict 34
idas 34
ief 34
image 34
inger@@ 34
inos 34
ism@@ 34
jas 34
jit@@ 34
jus@@ 34
leh@@ 34
lier 34
lub 34
monde 34
ober@@ 34
pand@@ 34
play@@ 34
process@@ 34
ren 34
schaften 34
sent@@ 34
sey@@ 34
sine 34
strat@@ 34
sub 34
suff@@ 34
tek@@ 34
tena 34
tz 34
umi@@ 34
usse 34
wake 34
wall 34
zam@@ 34
Å 34
ño 34
ĕ@@ 34
ů@@ 34
̃ 34
Κά@@ 34
Μ 34
άνης 34
ημ@@ 34
κα 34
μέ@@ 34
οι@@ 34
ούν@@ 34
τι 34
буду@@ 34
министра@@ 34
тель@@ 34
тной 34
что 34
ђ@@ 34
ѭ@@ 34
א 34
بن 34
ز@@ 34
্ 34
თ@@ 34
Ἰ@@ 34
5.000 33
Arth@@ 33
Chinese 33
Distribu@@ 33
Gordon 33
Gut@@ 33
Gün@@ 33
Hist@@ 33
Indian 33
Kong 33
Lawrence 33
Leb@@ 33
Nou@@ 33
Prof@@ 33
September 33
Sonder@@ 33
Stal@@ 33
Sud 33
Well@@ 33
Wissen@@ 33
adron 33
aina 33
atin 33
atz@@ 33
aun 33
bed 33
berger 33
books 33
burger 33
class@@ 33
const@@ 33
death 33
design 33
ecti@@ 33
eke 33
eln 33
essed 33
eş@@ 33
feder@@ 33
good 33
guar@@ 33
har 33
hir 33
illon 33
illustr@@ 33
imar@@ 33
mento 33
mine 33
most 33
music@@ 33
oms 33
person 33
porter 33
prof@@ 33
provin@@ 33
refer@@ 33
ric 33
sberg 33
sein 33
sid@@ 33
sol 33
tee 33
thy 33
tie 33
tik 33
username 33
uso 33
vill@@ 33
vio 33
years 33
È 33
Γεν@@ 33
Ευ@@ 33
ήσ@@ 33
αρχ@@ 33
αϊ@@ 33
ιστ@@ 33
παν@@ 33
πό@@ 33
ριστ@@ 33
στι@@ 33
υγ@@ 33
όγ@@ 33
ότητα 33
Ј 33
Ћ@@ 33
зы 33
марта 33
ному 33
уров@@ 33
шее 33
ѹ@@ 33
ֶ@@ 33
ת@@ 33
ش@@ 33
ى 33
ἄ@@ 33
ὰ 33
2nd 32
Academia 32
Andy 32
Broadway 32
Christopher 32
Concep@@ 32
Dani@@ 32
Dollar 32
Emil@@ 32
Esc@@ 32
España 32
Hai 32
Herz@@ 32
Hoch@@ 32
Ian 32
Jak@@ 32
Kaiser 32
Kennedy 32
Kunst@@ 32
Norman 32
Sebasti@@ 32
Trab@@ 32
Wy@@ 32
Zam@@ 32
adas 32
adores 32
aff 32
agnie 32
ahn 32
alem@@ 32
alle@@ 32
alu@@ 32
anto 32
bah@@ 32
brit@@ 32
cias 32
consol@@ 32
cycle 32
decor@@ 32
defin@@ 32
door 32
ehr 32
election 32
ense@@ 32
estre 32
excep@@ 32
final 32
fs 32
func@@ 32
fut@@ 32
icht 32
inas 32
inda 32
kes 32
lug@@ 32
lı 32
made 32
management 32
mich@@ 32
mina 32
mundo 32
nation 32
ning@@ 32
oire 32
pendi@@ 32
prol@@ 32
rein@@ 32
rend@@ 32
sik@@ 32
simul@@ 32
sind 32
software 32
sous 32
ths 32
timestamp 32
troit 32
uru 32
uti 32
vas 32
were 32
zw@@ 32
ña 32
ø 32
ǐ 32
ʃ 32
άρι 32
ματ@@ 32
με@@ 32
ους 32
ταμ@@ 32
τικ@@ 32
υ 32
ώ 32
Испа@@ 32
атем 32
итель@@ 32
чное 32
ס@@ 32
⇒ 32
도 32
Académie 31
Armen@@ 31
Baker 31
Bernard 31
Championships 31
Dok@@ 31
Earl 31
Eurovision 31
Graf@@ 31
Hub@@ 31
Hud@@ 31
Inform@@ 31
Leh@@ 31
Louise 31
Nigeria 31
Plaza 31
Portu@@ 31
Ryan 31
Turk@@ 31
Us@@ 31
abi 31
adora 31
ampi@@ 31
avier 31
beri 31
bomb@@ 31
ched 31
conf@@ 31
contributor 31
eb 31
efe 31
elor 31
enced 31
encia 31
enso 31
erte 31
fab@@ 31
fabri@@ 31
fan@@ 31
festiv@@ 31
figur@@ 31
führer 31
geb@@ 31
guer@@ 31
hep@@ 31
hoa 31
hr 31
hud@@ 31
iones 31
itt 31
kum@@ 31
lichen 31
lois 31
loy@@ 31
ls@@ 31
mau@@ 31
mov@@ 31
national 31
people 31
possible 31
pp 31
regul@@ 31
ril 31
stelle 31
temps 31
uda 31
urb@@ 31
villa 31
voy@@ 31
with@@ 31
yel@@ 31
Ú@@ 31
är 31
étr@@ 31
ös@@ 31
ün 31
ʊ@@ 31
̄ 31
Αλ@@ 31
Γεώργιος 31
Μο@@ 31
ασσ@@ 31
νης 31
Ђ@@ 31
вы 31
зм 31
мень@@ 31
ты@@ 31
эк@@ 31
ё 31
ү@@ 31
ַ@@ 31
ب@@ 31
ℓ 31
♦ 31
Britain 30
Bruce 30
Carolina 30
Colomb@@ 30
Dau@@ 30
Fritz 30
Gabriel 30
Georgia 30
Hamilton 30
Henri 30
Hof@@ 30
Im 30
Jor@@ 30
Leipzig 30
Liga 30
Mann@@ 30
Matthe@@ 30
Maurice 30
Philipp@@ 30
Professor 30
Prov@@ 30
RNA 30
Schl@@ 30
Seb@@ 30
Türk 30
While 30
Winter@@ 30
Yas@@ 30
aal@@ 30
acio 30
aliforni@@ 30
ambo 30
arios 30
arry 30
atro 30
ayn@@ 30
canc@@ 30
compos@@ 30
contra 30
court 30
diction 30
dorf 30
edonia 30
ekt 30
ential 30
ester@@ 30
geh@@ 30
gers 30
hun@@ 30
ily 30
inden 30
integr@@ 30
inti@@ 30
iten 30
ları 30
nous 30
nucle@@ 30
omen 30
onda 30
oza 30
qu 30
raf@@ 30
sha 30
suite 30
teilung 30
tien 30
tribut@@ 30
uten 30
utz 30
valu@@ 30
vel 30
vu 30
xu@@ 30
Ò 30
ã@@ 30
ät@@ 30
ète 30
éro@@ 30
études 30
ücke 30
ın@@ 30
Μεγάλ@@ 30
Ορ@@ 30
άδες 30
ίτ@@ 30
αστ@@ 30
τρο@@ 30
ωλ@@ 30
Государ@@ 30
Ь@@ 30
более 30
вом 30
ды@@ 30
комму@@ 30
круг 30
ровал 30
стран 30
тому 30
ья@@ 30
َّ@@ 30
ḫ@@ 30
ᾶ@@ 30
Allen 29
Argentina 29
Carter 29
Cem@@ 29
Ef@@ 29
Ent@@ 29
Frederick 29
Gren@@ 29
III. 29
Kenya 29
Kultur@@ 29
Lyon 29
Monte@@ 29
Musik 29
NFL 29
Nel@@ 29
Ng@@ 29
Nur@@ 29
Oy 29
Pedro 29
Pennsylvania 29
Por 29
Sarah 29
Sol 29
Staats@@ 29
Tai@@ 29
Tradi@@ 29
Tür@@ 29
Une 29
Venez@@ 29
Von 29
Zel@@ 29
aden@@ 29
after 29
alog 29
also 29
amento 29
ası 29
atar 29
aub@@ 29
auf@@ 29
avent@@ 29
añ@@ 29
bez@@ 29
bles 29
collec@@ 29
coming 29
constr@@ 29
construc@@ 29
culp@@ 29
dini 29
direc@@ 29
distance 29
done 29
eler@@ 29
erc@@ 29
esses 29
fam@@ 29
fif@@ 29
gan 29
grad@@ 29
hat 29
ien@@ 29
illas 29
isme 29
nek@@ 29
ometr@@ 29
perior 29
radio 29
rate 29
sam 29
short 29
suit 29
tains 29
tere 29
tered 29
terre 29
teur 29
there 29
thiop@@ 29
wards 29
writ@@ 29
ème 29
şi 29
Αγίου 29
Νέ@@ 29
Νικολ@@ 29
αρι@@ 29
αχ@@ 29
είας 29
εξ@@ 29
λέ@@ 29
πε@@ 29
πόλε@@ 29
ϊ 29
ότ@@ 29
Ы 29
куль@@ 29
поль@@ 29
ёз@@ 29
ك@@ 29
ိ@@ 29
ṭ@@ 29
ὀ@@ 29
ⰻ@@ 29
﻿ 29
Antar@@ 28
April 28
Benjamin 28
Davis 28
German 28
Gesch@@ 28
Graf 28
Hoh@@ 28
Julius 28
Kath@@ 28
König 28
Luft@@ 28
Matt 28
Museo 28
Nicol@@ 28
Oliver 28
Organisation 28
Patrick 28
Philippe 28
President 28
Rome 28
Rudolf 28
Schloss 28
Schne@@ 28
Sta@@ 28
Stanley 28
Stewart 28
Tay@@ 28
Ung@@ 28
Wah@@ 28
adj@@ 28
ahl 28
amente 28
asha 28
atz 28
bai 28
beau@@ 28
bridge 28
cer 28
chang@@ 28
cord 28
cross 28
cycl@@ 28
dial@@ 28
dre 28
eses 28
eve 28
far 28
four 28
haf@@ 28
histori@@ 28
ican 28
inu 28
itable 28
ival@@ 28
iß@@ 28
iş@@ 28
lard 28
mann@@ 28
maz@@ 28
mund 28
nac@@ 28
orial 28
orig@@ 28
party 28
ping 28
positi@@ 28
pped 28
pron@@ 28
rel 28
satz 28
sche@@ 28
sever@@ 28
span 28
speed 28
spek@@ 28
stra@@ 28
tang@@ 28
total 28
trao 28
umbo 28
verg@@ 28
verw@@ 28
visi@@ 28
wn@@ 28
wth 28
ww@@ 28
äd@@ 28
œ@@ 28
ş 28
Καλλ@@ 28
Κερ@@ 28
Κορ@@ 28
Μακεδ@@ 28
Νέα 28
Φιλ@@ 28
ήμ@@ 28
ίδ@@ 28
αζ@@ 28
αμπ@@ 28
ικών 28
ισσ@@ 28
καρ@@ 28
λογ@@ 28
ταν@@ 28
τολ@@ 28
του@@ 28
варе 28
гель@@ 28
день 28
мае 28
челове@@ 28
чный 28
ёт 28
ỳ@@ 28
Ἐ@@ 28
三@@ 28
山@@ 28
10,000 27
Adams 27
Ann 27
Ard@@ 27
Budap@@ 27
Carr@@ 27
Claude 27
Congress 27
Costa 27
Franklin 27
General@@ 27
Gott@@ 27
Groß@@ 27
Hamburg 27
Hermann 27
Hochschule 27
Hous@@ 27
Infr@@ 27
Kav@@ 27
Lom@@ 27
Mar 27
México 27
Mün@@ 27
Oscar 27
Pub@@ 27
Rach@@ 27
Rest@@ 27
Santo 27
Spanish 27
Süd@@ 27
UEFA 27
Universität 27
Welt@@ 27
Zu@@ 27
acre 27
actor 27
ambre 27
anal@@ 27
annes 27
arren 27
aum 27
beck 27
bra@@ 27
bt 27
ción 27
cole 27
company 27
concer@@ 27
concre@@ 27
create 27
dens@@ 27
eben@@ 27
eber@@ 27
elek@@ 27
essen 27
estas 27
fahr@@ 27
festival 27
foot@@ 27
gene 27
git@@ 27
gos 27
gö@@ 27
heim@@ 27
illed 27
irs 27
ised 27
istas 27
jazz 27
just 27
klin 27
liqu@@ 27
manager 27
member 27
mens@@ 27
mil 27
nan 27
oise 27
oka 27
olar@@ 27
ombi@@ 27
omon 27
online 27
osen 27
oteca 27
petite 27
ppe 27
pris@@ 27
ring 27
run@@ 27
sang 27
schn@@ 27
sian 27
site 27
studi@@ 27
such 27
sé@@ 27
uer 27
uku 27
verl@@ 27
vip@@ 27
wag@@ 27
week 27
wen 27
what 27
yem@@ 27
yu@@ 27
zem@@ 27
Í@@ 27
ör 27
üm@@ 27
ų 27
ʲ@@ 27
Άγιος 27
Βαρ@@ 27
Βασιλ@@ 27
Βι@@ 27
Κατ@@ 27
Νικόλα@@ 27
Πλ@@ 27
Στρ@@ 27
έσ@@ 27
ίνου 27
βά@@ 27
κος 27
μη 27
οπο@@ 27
πα@@ 27
παρ@@ 27
σε@@ 27
σου 27
σπ@@ 27
τε 27
τελ@@ 27
Бы@@ 27
Вы@@ 27
ным 27
צ@@ 27
ط@@ 27
‏ 27
太@@ 27
漢@@ 27
Andrea 26
Antoine 26
Benn@@ 26
Bir 26
Catherine 26
Corpor@@ 26
December 26
District 26
Eisen@@ 26
Federal 26
Frau 26
Hymen@@ 26
Jew@@ 26
KK 26
Kay@@ 26
Many 26
Mart 26
Pam@@ 26
Para 26
Saison 26
Wander@@ 26
Wen@@ 26
acqu@@ 26
aled 26
alta 26
amos 26
anj@@ 26
attle 26
awi 26
berto 26
brand 26
declar@@ 26
dire 26
eco 26
eding 26
esser 26
etos 26
eurs 26
eye 26
fici@@ 26
gence 26
gend 26
gid@@ 26
gold 26
graf@@ 26
grand@@ 26
grap@@ 26
grup@@ 26
hii 26
inet 26
ision@@ 26
ized 26
jou@@ 26
kim@@ 26
kua 26
kus@@ 26
leur 26
lieg@@ 26
limit@@ 26
mez@@ 26
motor@@ 26
move 26
nation@@ 26
natural 26
noche 26
né 26
oles 26
operation 26
oun 26
page 26
pero 26
phe 26
phys@@ 26
pler 26
shu@@ 26
six 26
solution 26
some 26
stage 26
story 26
straße 26
templ@@ 26
train 26
ubil@@ 26
unia 26
use@@ 26
utive 26
which 26
wissen@@ 26
xon 26
yard 26
yen@@ 26
zil@@ 26
zin@@ 26
zor@@ 26
zu@@ 26
Ó@@ 26
ħ@@ 26
ĭ 26
Ł@@ 26
ő 26
ǔ 26
ʻ@@ 26
Βαλ@@ 26
Μαυ@@ 26
Σω@@ 26
άζ@@ 26
άκι 26
ίλ@@ 26
ίμ@@ 26
ίν 26
θέ@@ 26
ιου@@ 26
ούρ@@ 26
πά@@ 26
ρω@@ 26
τη@@ 26
зом 26
надц@@ 26
сты@@ 26
ў@@ 26
Ѧ 26
Ѧ@@ 26
կ@@ 26
غ@@ 26
ტ@@ 26
ស@@ 26
‡ 26
█ 26
市 26
한@@ 26
0s 25
Alpes 25
Bahn 25
Barcelona 25
Bei@@ 25
Catholic 25
Eb@@ 25
Educ@@ 25
Ehr@@ 25
Est 25
Fak@@ 25
Fern@@ 25
Gle@@ 25
Houston 25
Isab@@ 25
Islam@@ 25
Jason 25
Lt@@ 25
Martin@@ 25
Mw@@ 25
Rah@@ 25
Register 25
Roy 25
Rug@@ 25
Sur 25
Tib@@ 25
Tim 25
Tod 25
Trump 25
Université 25
Zar@@ 25
aat 25
adam@@ 25
aland 25
alich@@ 25
archi@@ 25
bibli@@ 25
brig@@ 25
chter 25
common 25
compon@@ 25
conserv@@ 25
correc@@ 25
development 25
dienst 25
durch 25
dér@@ 25
econom@@ 25
eder 25
edral 25
eja 25
feld 25
fin 25
hala 25
hatt@@ 25
heits@@ 25
idos 25
ildi 25
illes 25
ime@@ 25
imen 25
ional 25
isses 25
jos 25
jud@@ 25
lance 25
là 25
lí@@ 25
mab@@ 25
meister 25
mini 25
neigh@@ 25
ogen 25
ograf@@ 25
onga 25
onte 25
onto 25
othe@@ 25
pens@@ 25
phase 25
propri@@ 25
proxim@@ 25
quel@@ 25
rech@@ 25
reti@@ 25
rez 25
rom 25
services 25
signed 25
sof@@ 25
suc@@ 25
terr@@ 25
tivo 25
town@@ 25
turn@@ 25
ude 25
ug 25
ulares 25
ulation 25
vania 25
verb@@ 25
vile 25
yak@@ 25
Î@@ 25
éch@@ 25
ép@@ 25
ís 25
ɡ@@ 25
ɨ@@ 25
ΐ@@ 25
Απ@@ 25
Ισ@@ 25
έλφ@@ 25
ανν@@ 25
ανός 25
γράφ@@ 25
εδ@@ 25
ηγ@@ 25
ικά 25
ικής 25
μβ@@ 25
μη@@ 25
ποι@@ 25
που 25
σιος 25
χω@@ 25
дь 25
йского 25
ств 25
ьи 25
ющие 25
язык 25
ёр@@ 25
ў 25
ولاية 25
র@@ 25
ម@@ 25
ン 25
語 25
강 25
Akadem@@ 24
Amat@@ 24
André 24
Bruno 24
Chile 24
Ek@@ 24
Fred 24
Gest@@ 24
Grupo 24
Harris 24
Hart@@ 24
Jim@@ 24
Jordan 24
Mab@@ 24
Mal 24
NCAA 24
Nad@@ 24
Nikol@@ 24
Probl@@ 24
Queens@@ 24
Serv@@ 24
Since 24
Vincent 24
Zealand 24
Zwe@@ 24
abo@@ 24
aching 24
acid 24
actions 24
afor@@ 24
alogue 24
around 24
atem@@ 24
autom@@ 24
aving 24
aş@@ 24
bres 24
children 24
cours 24
crit@@ 24
eden@@ 24
eich@@ 24
embran@@ 24
entin 24
event 24
fantas@@ 24
fis@@ 24
fres@@ 24
fro@@ 24
für@@ 24
gew@@ 24
got 24
harmon@@ 24
heb@@ 24
honor@@ 24
igen 24
iken 24
inde 24
istan 24
itr@@ 24
jard@@ 24
kirche 24
lak@@ 24
ld 24
match 24
nach@@ 24
nament 24
ney@@ 24
olm 24
parall@@ 24
programm@@ 24
rab@@ 24
range 24
rates 24
sech@@ 24
stitut@@ 24
studio 24
tane 24
they 24
tista 24
today 24
tour@@ 24
ubic@@ 24
uvent@@ 24
verein 24
versit@@ 24
vert 24
vide 24
yana 24
Þ@@ 24
ände 24
äng@@ 24
üs@@ 24
đ@@ 24
ğ 24
ır@@ 24
ĸ 24
Κολ@@ 24
άφ@@ 24
θαν@@ 24
ιμ@@ 24
λευθερ@@ 24
προ@@ 24
ρακ@@ 24
ρον@@ 24
στά@@ 24
τική 24
τυ@@ 24
φύ@@ 24
όχ@@ 24
Кры@@ 24
даль@@ 24
жизнь 24
каж@@ 24
мире 24
снова 24
согла@@ 24
фильм 24
ѩ 24
ө@@ 24
ט@@ 24
خ@@ 24
و 24
ورة 24
კ@@ 24
‑ 24
♣ 24
ⰰ@@ 24
中@@ 24
国@@ 24
日@@ 24
海@@ 24
金@@ 24
30. 23
Alabama 23
Andreas 23
Athle@@ 23
Bish@@ 23
Bé@@ 23
Ce 23
Cen@@ 23
Chi 23
Cruz 23
Deutschen 23
Deux 23
Diego 23
Feder@@ 23
Geh@@ 23
Hey@@ 23
Infan@@ 23
Internacional 23
Iowa 23
Kend@@ 23
Koh@@ 23
Kum@@ 23
Kunst 23
Kus@@ 23
Oy@@ 23
Pablo 23
Phi 23
Philadelphia 23
Premio 23
Raymond 23
Schwe@@ 23
Sist@@ 23
Song@@ 23
Stell@@ 23
Su 23
Universidad 23
again 23
aged 23
aji 23
aller@@ 23
anca 23
asing 23
bek@@ 23
bourne 23
bud@@ 23
compar@@ 23
deleg@@ 23
differ@@ 23
donne 23
ectu@@ 23
ede@@ 23
eiro 23
family 23
forme 23
gri@@ 23
hips 23
histoire 23
hul@@ 23
hydr@@ 23
idence 23
iker 23
isol@@ 23
its@@ 23
itzer 23
jour 23
kamp@@ 23
king@@ 23
ký 23
main@@ 23
mara 23
mash@@ 23
may 23
mim@@ 23
money 23
must 23
mw@@ 23
native 23
nership 23
norm@@ 23
ologique 23
oration 23
oux 23
philos@@ 23
revol@@ 23
roman 23
sai 23
scor@@ 23
semble 23
she 23
standard 23
stud@@ 23
terior 23
uel 23
vend@@ 23
vice 23
wir@@ 23
writer 23
yam@@ 23
yat@@ 23
Öster@@ 23
äger 23
èse 23
òn 23
ôme 23
ön 23
ŭ@@ 23
΄ 23
Επι@@ 23
Μά@@ 23
Μητ@@ 23
Μιχαήλ 23
Μου@@ 23
Σκ@@ 23
άκης 23
άου 23
έρ 23
έφ@@ 23
εγ@@ 23
θη 23
καν@@ 23
ται 23
φιλ@@ 23
χαρ@@ 23
Џ 23
вые 23
моря 23
немец@@ 23
нией 23
проис@@ 23
работа@@ 23
совет@@ 23
ان 23
ع@@ 23
त 23
ོ 23
ု 23
გ@@ 23
ს 23
ἡ@@ 23
‒ 23
上@@ 23
Administr@@ 22
Agu@@ 22
Akademie 22
Andro@@ 22
Brazil 22
Campbell 22
Copa 22
Dich@@ 22
Famil@@ 22
Fot@@ 22
Fé@@ 22
Guerra 22
Gymnasium 22
Gü@@ 22
Hay 22
John@@ 22
Laurent 22
Mexico 22
Milan 22
NCA@@ 22
Nieder@@ 22
Pak@@ 22
Regional 22
Restaur@@ 22
Rodr@@ 22
Señ@@ 22
Stadi@@ 22
Thu@@ 22
Toronto 22
Tube 22
Wehr@@ 22
Yu@@ 22
ael 22
agog@@ 22
aill@@ 22
appar@@ 22
aught 22
aum@@ 22
auth@@ 22
bach@@ 22
bad 22
chac@@ 22
clus@@ 22
colon@@ 22
contin@@ 22
coordin@@ 22
dram@@ 22
eben 22
eig@@ 22
ener@@ 22
enz 22
erung 22
evol@@ 22
fak@@ 22
films 22
fix@@ 22
front@@ 22
hang 22
histor@@ 22
igne 22
iller@@ 22
interest 22
intern@@ 22
ismus 22
jet@@ 22
kov 22
laz@@ 22
lina 22
minister@@ 22
modo 22
mut 22
names 22
nig 22
olan 22
once 22
ović 22
owa 22
param@@ 22
ped 22
petit 22
platz 22
power@@ 22
raine 22
sad@@ 22
sana 22
secre@@ 22
separ@@ 22
sil 22
sound 22
sport@@ 22
team 22
tet 22
tik@@ 22
uch 22
utz@@ 22
vent 22
wealth 22
woman 22
yk@@ 22
µ 22
Österreich 22
Ü 22
âtre 22
äs@@ 22
ät 22
ð 22
œur 22
ɐ 22
Βουλ@@ 22
Δημή@@ 22
Ελ@@ 22
έκ@@ 22
έων 22
ήν 22
βασ@@ 22
δύ@@ 22
είο 22
είου 22
ιο 22
κης 22
κι 22
κου@@ 22
μέν@@ 22
πολί@@ 22
σχ@@ 22
τέ@@ 22
τω 22
Ћ 22
году 22
днее 22
лями 22
скому 22
следу@@ 22
туре 22
уже 22
человек 22
ֹ@@ 22
ׁ@@ 22
ي 22
َ 22
ُ@@ 22
တ@@ 22
့ 22
ြ@@ 22
ე 22
ქ@@ 22
ṅ 22
― 22
一@@ 22
東@@ 22
Afrika 21
Aş@@ 21
Bib@@ 21
Chelsea 21
Como 21
Description 21
Director 21
Eins@@ 21
Gustav 21
Hass@@ 21
Jacob 21
Lebens@@ 21
Literatur 21
Liverpool 21
Miguel 21
Musik@@ 21
München 21
Paci@@ 21
Paulo 21
Schi@@ 21
Sok@@ 21
Suisse 21
Thompson 21
aches 21
afr@@ 21
alie 21
ambia 21
amed 21
anno@@ 21
arding 21
atrice 21
auff@@ 21
bare 21
bourg 21
bul 21
cath@@ 21
dau@@ 21
day@@ 21
ectura 21
efs 21
enga 21
entale 21
entos 21
eos 21
erin 21
explor@@ 21
eño 21
feature 21
fest@@ 21
forms 21
fu 21
ged@@ 21
gel 21
gros@@ 21
gruppe 21
ilg@@ 21
ilian 21
information 21
jum@@ 21
little 21
lost 21
miz@@ 21
moder@@ 21
munici@@ 21
neo 21
neu@@ 21
never 21
nicht 21
observ@@ 21
opo 21
oven 21
pati@@ 21
poin@@ 21
ran 21
rang@@ 21
ras 21
rim 21
schen@@ 21
second@@ 21
steri@@ 21
sych@@ 21
tores 21
trit@@ 21
upon 21
veau 21
visit@@ 21
yas@@ 21
yok@@ 21
zey@@ 21
äch@@ 21
änder 21
ège 21
ìn 21
ío 21
ónica 21
ġ@@ 21
ım@@ 21
ŋ 21
ť 21
ǔ@@ 21
Ιερ@@ 21
Κομ@@ 21
Κύ@@ 21
Πά@@ 21
Σι@@ 21
Στα@@ 21
ίνης 21
αλλ@@ 21
γλώσσα 21
δος 21
δρ@@ 21
εργ@@ 21
ισμός 21
λαβ@@ 21
λαδ@@ 21
νε@@ 21
ριος 21
τοι 21
υμ@@ 21
χος 21
ωγράφ@@ 21
ωρ@@ 21
όμ@@ 21
όρι@@ 21
допол@@ 21
ную 21
строитель@@ 21
тирова@@ 21
церков@@ 21
ѩ@@ 21
ә 21
ӧ@@ 21
ك 21
نا 21
र 21
র 21
າ@@ 21
ო 21
ხ@@ 21
ὄ@@ 21
∅ 21
∧ 21
∨ 21
ⰲ@@ 21
ル@@ 21
ン@@ 21
式@@ 21
Anat@@ 20
Auf 20
Baba 20
Barbara 20
Berg 20
Bret@@ 20
Cep@@ 20
Estado 20
Found@@ 20
Gó@@ 20
Hamp@@ 20
Harv@@ 20
Haute 20
Hong 20
Ili@@ 20
Inh@@ 20
June 20
Kansas 20
Kurt 20
Manuel 20
Rey 20
Rund@@ 20
Santiago 20
Santos 20
Schutz@@ 20
Stadt@@ 20
Territ@@ 20
Werner 20
Yeni 20
affen 20
amor@@ 20
ange@@ 20
aret 20
aring 20
ark 20
ateur 20
ations@@ 20
attr@@ 20
business 20
bü@@ 20
character 20
chron@@ 20
cim@@ 20
clu@@ 20
comb@@ 20
continue 20
cup@@ 20
dist@@ 20
egos 20
elos 20
feh@@ 20
find 20
forma 20
forsch@@ 20
gaz@@ 20
gu 20
gues 20
hay@@ 20
intel@@ 20
iques 20
isation 20
kes@@ 20
köy 20
libre 20
mek@@ 20
most@@ 20
musique 20
nah@@ 20
nature 20
near@@ 20
nez 20
onie 20
opin@@ 20
parentid 20
parte 20
plu@@ 20
princi@@ 20
prit 20
prov@@ 20
ques@@ 20
respon@@ 20
schul@@ 20
schwe@@ 20
science 20
sciences 20
sens 20
session 20
stil@@ 20
sug@@ 20
tam 20
tay@@ 20
their 20
tig 20
tionn@@ 20
tions@@ 20
tours 20
transfer 20
uka 20
umen 20
views 20
written 20
xo@@ 20
À@@ 20
Â@@ 20
È@@ 20
Ö 20
ög@@ 20
ür 20
Ā@@ 20
ır 20
ů 20
Αγία 20
Ασ@@ 20
Βουλγαρ@@ 20
Μον@@ 20
Μπου@@ 20
Π 20
Σταυ@@ 20
Φλ@@ 20
Χαλ@@ 20
άβ@@ 20
άπ@@ 20
έχ@@ 20
ήλ 20
αγι@@ 20
ανδ@@ 20
βα@@ 20
βλ@@ 20
δί@@ 20
δα 20
δης 20
δρομ@@ 20
ηλι@@ 20
λος 20
ούς 20
στη 20
τή@@ 20
τικό 20
τω@@ 20
υσ@@ 20
Њ@@ 20
верну@@ 20
итель 20
поез@@ 20
ственно 20
щих 20
Ѫ 20
қ@@ 20
ң@@ 20
մ@@ 20
أَ@@ 20
ج@@ 20
م 20
مو@@ 20
و@@ 20
შ@@ 20
ὴ 20
イ@@ 20
本@@ 20
김@@ 20
산 20
31. 19
Alej@@ 19
Braun@@ 19
Carrera 19
Chief 19
Chu@@ 19
Congr@@ 19
Festiv@@ 19
Georges 19
Govern@@ 19
Haupt@@ 19
Haus@@ 19
Heil@@ 19
Herb@@ 19
Ib@@ 19
Instituto 19
Josef 19
Kah@@ 19
Khan 19
Kloster 19
Mang@@ 19
María 19
Minister@@ 19
Más 19
Nah@@ 19
Olympi@@ 19
Partido 19
Salz@@ 19
Sas@@ 19
aban 19
aben 19
acts 19
adet 19
anian 19
aning 19
ayan 19
aï@@ 19
bec 19
been 19
bien 19
carr@@ 19
chez 19
clo@@ 19
comi@@ 19
concep@@ 19
corps 19
coul@@ 19
country 19
course 19
cover@@ 19
dam 19
depend@@ 19
did 19
division 19
duc 19
eines 19
elde 19
enant 19
eran 19
ests 19
fen 19
gemeinde 19
global 19
grand 19
groups 19
gus@@ 19
had@@ 19
hen 19
history 19
iev@@ 19
ift@@ 19
iges 19
igner 19
ilde 19
ince 19
infr@@ 19
initial 19
international 19
issue 19
jour@@ 19
kaz@@ 19
libro 19
macht 19
migr@@ 19
monum@@ 19
nung 19
ografia 19
old@@ 19
onc@@ 19
opera 19
oren 19
part@@ 19
persona 19
physi@@ 19
pig@@ 19
polog@@ 19
pur 19
quot@@ 19
r. 19
rail 19
rece@@ 19
record 19
religi@@ 19
rest 19
revision 19
scienti@@ 19
sich 19
siè@@ 19
such@@ 19
tend@@ 19
theater 19
tir 19
unci@@ 19
urban 19
urg 19
usu 19
vive 19
vom 19
yet 19
zant@@ 19
Å@@ 19
ón@@ 19
ŭ 19
ǒ@@ 19
ʒ@@ 19
ʰ@@ 19
Ελλην@@ 19
Κωνσταντίνος 19
Περι@@ 19
Σερ@@ 19
έκα 19
έλλ@@ 19
αγγ@@ 19
αναγ@@ 19
γαρ@@ 19
γελ@@ 19
γεν@@ 19
δέ@@ 19
εια 19
εμ@@ 19
κοπ@@ 19
κτ@@ 19
μυ@@ 19
μφ@@ 19
πέ@@ 19
ραμ@@ 19
ριν@@ 19
ροι 19
στο@@ 19
τέρ@@ 19
τες 19
τρα 19
Сы@@ 19
есть 19
лые 19
округ 19
стве 19
ственный 19
часто 19
տ@@ 19
أ@@ 19
الله 19
س 19
ف@@ 19
محمد 19
ن 19
བ@@ 19
ေ 19
Ἱ@@ 19
し@@ 19
ー@@ 19
天@@ 19
주@@ 19
Bayern 18
Coupe 18
Distr@@ 18
Dresden 18
Edu@@ 18
Ener@@ 18
Gabri@@ 18
Gary 18
Kant@@ 18
Landes@@ 18
Loire 18
Lucas 18
Madag@@ 18
Mai 18
Massachusetts 18
Mek@@ 18
Michigan 18
Mih@@ 18
Napo@@ 18
Provin@@ 18
Selb@@ 18
Sicher@@ 18
Staat@@ 18
Ukraine 18
Vier@@ 18
Zum 18
ahn@@ 18
aide 18
alles 18
alme 18
alter@@ 18
alto 18
altung 18
annel 18
anzo 18
article 18
attack 18
auch 18
barr@@ 18
batt@@ 18
better 18
bew@@ 18
bili@@ 18
bish@@ 18
bloc@@ 18
broad@@ 18
cens@@ 18
crimin@@ 18
dar 18
dig 18
direct 18
disco 18
disco@@ 18
divis@@ 18
diz@@ 18
eaux 18
emen 18
empl@@ 18
engo 18
erine 18
eston 18
fait 18
fav@@ 18
femme 18
fight 18
fique 18
found@@ 18
four@@ 18
fte 18
hand 18
help 18
hui 18
igan 18
influ@@ 18
instrum@@ 18
intr@@ 18
ished 18
justice 18
kah@@ 18
kam 18
late 18
lichkeit 18
littér@@ 18
lui 18
lö@@ 18
manuel 18
many 18
mik@@ 18
mr@@ 18
mt@@ 18
nant 18
nom 18
normal 18
odo 18
ogne 18
oku@@ 18
ombe 18
onz@@ 18
ortho@@ 18
oğlu 18
pays 18
pek@@ 18
pier@@ 18
placement 18
points 18
porting 18
pour@@ 18
radic@@ 18
riere 18
rik 18
saw 18
sdorf 18
sour@@ 18
trade 18
transl@@ 18
tras 18
trata 18
vé@@ 18
wash@@ 18
without 18
women 18
yen 18
young 18
zog 18
¥ 18
À 18
Öz@@ 18
éd@@ 18
öz@@ 18
ús@@ 18
ück 18
ÿ@@ 18
ık 18
ƒ 18
ǐ@@ 18
ɒ@@ 18
Εκ@@ 18
Θεσσαλονίκη 18
Σύ@@ 18
Τ 18
Φ 18
Χρυσ@@ 18
απο@@ 18
αυτού 18
βο@@ 18
δρο@@ 18
ερν@@ 18
ζω@@ 18
ηση 18
ιζ@@ 18
ικού 18
με 18
μνημ@@ 18
πατ@@ 18
ρη 18
ρη@@ 18
ριστο@@ 18
ρύ@@ 18
τός 18
υπο@@ 18
φυ@@ 18
χρ@@ 18
χώρ@@ 18
Они 18
Это 18
был 18
дународ@@ 18
льский 18
сной 18
ью@@ 18
ющи@@ 18
ёт@@ 18
ѵ@@ 18
Հ@@ 18
գ@@ 18
إ@@ 18
اء 18
ال@@ 18
ت@@ 18
ذ@@ 18
Ḥ@@ 18
ἴ@@ 18
⅔ 18
≡ 18
● 18
し 18
区 18
家 18
新@@ 18
武@@ 18
物@@ 18
대@@ 18
24. 17
Adolf 17
Alfre@@ 17
Aus 17
Ave@@ 17
Azer@@ 17
Bek@@ 17
Bey@@ 17
Cerambycidae 17
Congo 17
DDR 17
Dak@@ 17
Eine 17
Fré@@ 17
Gegen@@ 17
Grant 17
Grupp@@ 17
Gör@@ 17
Heim@@ 17
Ingen@@ 17
Jewish 17
Kevin 17
Kie@@ 17
Kinder@@ 17
Kultur 17
Leopol@@ 17
Luis 17
Moy@@ 17
Nouvelle 17
October 17
Oly@@ 17
Parliament 17
Poliz@@ 17
Santi@@ 17
Scottish 17
Sold@@ 17
Spain 17
Span@@ 17
Straße 17
Türkiye 17
Wilhel@@ 17
Wisconsin 17
Wur@@ 17
abu 17
academ@@ 17
ached 17
agre@@ 17
alized 17
amac@@ 17
amt 17
anat@@ 17
arac@@ 17
asse@@ 17
astronom@@ 17
aten@@ 17
avec 17
baba 17
baj@@ 17
between 17
bron@@ 17
cali@@ 17
candid@@ 17
carri@@ 17
ciones 17
commer@@ 17
complex 17
constitu@@ 17
conv@@ 17
dah@@ 17
dedic@@ 17
dows 17
elea 17
emba 17
endra 17
enea 17
enen 17
esho 17
español 17
expres@@ 17
exten@@ 17
five 17
forc@@ 17
forte 17
français 17
för@@ 17
gemein@@ 17
gyp@@ 17
hak@@ 17
hou 17
ikia 17
initi@@ 17
internationale 17
inz@@ 17
irat@@ 17
iria 17
istische 17
kata 17
lac 17
lage 17
langue 17
lead@@ 17
lek@@ 17
mans 17
meng@@ 17
mort 17
ners 17
nin@@ 17
obi 17
oil 17
pair 17
pay@@ 17
philosoph@@ 17
posterior 17
repe@@ 17
ré 17
saf@@ 17
sal 17
same 17
sos@@ 17
spap@@ 17
syst@@ 17
tard 17
technique 17
tero 17
tim 17
tische 17
trib@@ 17
träge 17
types 17
té@@ 17
universit@@ 17
usalem 17
vak@@ 17
vez 17
ví@@ 17
waf@@ 17
when 17
zan 17
Über@@ 17
ào 17
êt 17
üb@@ 17
üd@@ 17
üh@@ 17
üst@@ 17
ǫ 17
ɣ@@ 17
ʁ@@ 17
Απο@@ 17
Β 17
Καστ@@ 17
Λευ@@ 17
Πύ@@ 17
ίτσ@@ 17
για 17
δε 17
δομ@@ 17
ειδ@@ 17
ελλ@@ 17
επι@@ 17
ζωγράφ@@ 17
ιρ@@ 17
λις 17
μένη 17
μή@@ 17
ορι@@ 17
ριά 17
ρκ@@ 17
ρο 17
ρό@@ 17
τικός 17
τιν@@ 17
τών 17
φαν@@ 17
ωνία 17
όλε@@ 17
ύ 17
Эн@@ 17
апре@@ 17
войны 17
встре@@ 17
искусства 17
льное 17
нию 17
один 17
пригла@@ 17
союз@@ 17
туры 17
ью 17
языка 17
ќ 17
Ѣ@@ 17
լ@@ 17
ս@@ 17
ր 17
ז@@ 17
ך 17
را@@ 17
ني 17
ْ 17
ດ 17
ར@@ 17
ფ@@ 17
ṇ@@ 17
ῥ@@ 17
↔ 17
√ 17
ⰵ@@ 17
ⱄ@@ 17
人@@ 17
이@@ 17
1.000 16
26. 16
Ai 16
Arizona 16
Arsenal 16
Beng@@ 16
Cuba 16
Dies 16
Elisabeth 16
Er 16
Erd@@ 16
Estudi@@ 16
Evangel@@ 16
Famili@@ 16
Frei@@ 16
Gül@@ 16
Herbert 16
Iran 16
Kag@@ 16
Kib@@ 16
Luxemb@@ 16
Mutter 16
Rechts@@ 16
Regi@@ 16
Rek@@ 16
René 16
Roberto 16
Rä@@ 16
Schwer@@ 16
Seh@@ 16
Sozial@@ 16
Stadt 16
Städ@@ 16
Syria 16
Ut@@ 16
Verte@@ 16
Wasser@@ 16
Weg 16
abb@@ 16
actu@@ 16
adio 16
adop@@ 16
afa 16
ainer 16
alam@@ 16
alı 16
ases 16
assen 16
atives 16
aume 16
bay 16
bell 16
bier@@ 16
characters 16
cion@@ 16
cito 16
collection 16
county 16
cut 16
deu@@ 16
drei 16
edil@@ 16
ehem@@ 16
eim@@ 16
ellschaft 16
emann 16
enem@@ 16
ersch@@ 16
ership 16
esen 16
eso 16
former 16
found 16
gang 16
gau@@ 16
grab@@ 16
gé@@ 16
haz@@ 16
hier 16
historia 16
how 16
ibn 16
ichte 16
idential 16
ikit@@ 16
indi 16
jap@@ 16
joint 16
kana 16
kip@@ 16
langu@@ 16
lars 16
leurs 16
lung 16
mente 16
mif@@ 16
mt 16
nad@@ 16
neur@@ 16
nomin@@ 16
note 16
ools 16
otra 16
parts 16
porte 16
proj@@ 16
pru@@ 16
publi@@ 16
refle@@ 16
rights 16
rol 16
roul@@ 16
royal 16
rue 16
rö@@ 16
sah@@ 16
sens@@ 16
sev@@ 16
sexu@@ 16
siempre 16
signi@@ 16
sozial@@ 16
still 16
studies 16
support 16
taire 16
take 16
tary 16
terres@@ 16
theast 16
third 16
three 16
tä@@ 16
vard@@ 16
victoria 16
vier@@ 16
wed 16
west@@ 16
working 16
z. 16
zas 16
zim@@ 16
zwe@@ 16
ám@@ 16
ève 16
és@@ 16
état 16
être 16
ól@@ 16
ız 16
ņ@@ 16
ň@@ 16
Ō@@ 16
ǫ@@ 16
ɾ@@ 16
Ακ@@ 16
Κον@@ 16
Κωνσταντ@@ 16
Ματ@@ 16
Τού@@ 16
Τρί@@ 16
Φω@@ 16
Χαρ@@ 16
ένα 16
ήγ@@ 16
ήθ@@ 16
απε@@ 16
βεν@@ 16
γέν@@ 16
γλ@@ 16
δια@@ 16
εφ@@ 16
ην 16
ιγ@@ 16
ιλι@@ 16
κη 16
λα 16
μή 16
μην@@ 16
οίκ@@ 16
ούδ@@ 16
παρά 16
περί 16
σε 16
ωγ@@ 16
Љ 16
Њ 16
Она 16
веке 16
журна@@ 16
земли 16
террито@@ 16
умер 16
ым 16
ых 16
ѕ@@ 16
һ@@ 16
Ա@@ 16
հ@@ 16
ש 16
ا@@ 16
الن@@ 16
ة 16
ـ@@ 16
لَ@@ 16
ما 16
من@@ 16
وَ@@ 16
ܝ@@ 16
म 16
প@@ 16
া 16
ས@@ 16
ပ@@ 16
မ@@ 16
⇔ 16
い@@ 16
り 16
ス@@ 16
リ@@ 16
北@@ 16
南@@ 16
城 16
字 16
殿 16
ꞌ@@ 16
사@@ 16
 16
） 16
23. 15
25. 15
29. 15
Austria 15
Bez@@ 15
Castro 15
Comme 15
Dakota 15
Dans 15
February 15
Form 15
För@@ 15
Guin@@ 15
Historic 15
Jorge 15
Jugend@@ 15
Kran@@ 15
Later 15
Marsh@@ 15
Munici@@ 15
Napole@@ 15
Né@@ 15
Nür@@ 15
Origin@@ 15
Parti 15
Produ@@ 15
República 15
Russell 15
Seine 15
Ukr@@ 15
Viz@@ 15
Wach@@ 15
Yak@@ 15
aki@@ 15
alan 15
amba@@ 15
anl@@ 15
apos@@ 15
aret@@ 15
argum@@ 15
arra 15
author 15
auti 15
azo 15
bois 15
c. 15
chini 15
cil@@ 15
close 15
communication 15
culture 15
deutschen 15
diffic@@ 15
docum@@ 15
eded 15
emas 15
erer 15
erh@@ 15
escap@@ 15
expression 15
fig 15
food 15
full 15
goal 15
guerra 15
générale 15
herr@@ 15
hes@@ 15
hib@@ 15
homme 15
ibi 15
igos 15
illet 15
inform@@ 15
inin 15
inson 15
ip 15
journal 15
kio 15
kshire 15
lake 15
lanz@@ 15
lege 15
liga 15
lık 15
maison 15
mana 15
meni 15
modern 15
monte 15
muda 15
naci@@ 15
nord@@ 15
numer@@ 15
né@@ 15
ologische 15
opol@@ 15
organ@@ 15
ously 15
owski 15
patri@@ 15
plut@@ 15
prix 15
provid@@ 15
response 15
rien 15
rul@@ 15
rä@@ 15
season 15
secund@@ 15
sede 15
sis@@ 15
subst@@ 15
succ@@ 15
summer 15
thre@@ 15
tiller@@ 15
tí@@ 15
wah@@ 15
wart 15
wehr 15
wig 15
xim@@ 15
yeni 15
yor 15
zt 15
zul@@ 15
ßen 15
át 15
äu@@ 15
élé@@ 15
éra 15
ín@@ 15
ís@@ 15
ñ 15
ük@@ 15
Ę 15
ĭ@@ 15
ış@@ 15
Š 15
ź 15
Ȣ 15
ɪ 15
ɯ@@ 15
ʊ 15
ʷ 15
ˌ@@ 15
Επ@@ 15
Να@@ 15
Πελ@@ 15
Πολι@@ 15
Σου@@ 15
Στ@@ 15
Υπ@@ 15
έρι 15
ίνα 15
βουλ@@ 15
δρόμ@@ 15
εισ@@ 15
εως 15
ησ@@ 15
θέν@@ 15
λύ@@ 15
μαχ@@ 15
μερ@@ 15
μο@@ 15
νέ@@ 15
νομ@@ 15
ολόγ@@ 15
στρο 15
σφ@@ 15
τς 15
χώρας 15
ύλου 15
Петербур@@ 15
вого 15
высо@@ 15
вых 15
жизни 15
нием 15
ским 15
ссе 15
тый 15
уезда 15
ческие 15
ческого 15
явля@@ 15
ём 15
Ѣ 15
ի 15
ֵ@@ 15
ד 15
ار 15
ار@@ 15
ــ@@ 15
ى@@ 15
پ@@ 15
ব@@ 15
้ 15
ས 15
ུ@@ 15
ន@@ 15
ṃ@@ 15
ὁ@@ 15
ὴ@@ 15
ῼ 15
↑ 15
∪ 15
✔ 15
ⰾ@@ 15
ⱀ@@ 15
ん@@ 15
文@@ 15
田@@ 15
省 15
神@@ 15
郎 15
조@@ 15
---- 14
28. 14
5,000 14
Amerika 14
Anderson 14
Arbeits@@ 14
Bey 14
Bres@@ 14
Bu 14
Ciudad 14
Colorado 14
Dah@@ 14
Erz@@ 14
Feld@@ 14
Hind@@ 14
Hut@@ 14
Kem@@ 14
Kinder 14
Maryland 14
Mayor 14
Mittel@@ 14
Mong@@ 14
Mt@@ 14
Nouv@@ 14
November 14
Pays 14
Pero 14
Philadel@@ 14
Portugal 14
Pueb@@ 14
Puerto 14
Rez@@ 14
Sachsen 14
Stockh@@ 14
Sultan 14
São 14
Tage 14
Toul@@ 14
Verfüg@@ 14
Wein@@ 14
Zürich 14
abei 14
adol@@ 14
adver@@ 14
aille 14
ambi 14
anı 14
applic@@ 14
arqu@@ 14
award 14
azz 14
aña 14
betr@@ 14
bir 14
bord 14
called 14
century 14
cipe 14
circul@@ 14
clim@@ 14
comun@@ 14
conduc@@ 14
conqu@@ 14
dad@@ 14
deb@@ 14
deriv@@ 14
dil 14
diplom@@ 14
droit 14
dyn@@ 14
dó@@ 14
ecu@@ 14
eget@@ 14
elected 14
endas 14
ensus 14
entales 14
expan@@ 14
experi@@ 14
featur@@ 14
fico 14
fiction 14
fie 14
fuer@@ 14
geschichte 14
grade 14
heit@@ 14
hin 14
hors 14
htt@@ 14
ilien 14
incia 14
inco 14
ingen@@ 14
instruc@@ 14
italiano 14
iwa 14
izi 14
kat 14
lah 14
leit@@ 14
liner 14
midt 14
minutes 14
mujer 14
nay 14
near 14
need 14
nek 14
neur 14
onald 14
onstr@@ 14
operations 14
pein@@ 14
piano 14
politique 14
portation 14
prati@@ 14
produce 14
quer 14
rar 14
recht 14
reduc@@ 14
released 14
rement 14
rá@@ 14
said 14
sali@@ 14
seri 14
sett@@ 14
simple 14
siz@@ 14
stad@@ 14
stan 14
stark 14
subject 14
tad 14
taine 14
tier@@ 14
tige 14
tigen 14
toire 14
tropolit@@ 14
ungo 14
ural 14
urt@@ 14
vos 14
went 14
would 14
zar 14
zeit 14
¹ 14
Áng@@ 14
ác@@ 14
äm@@ 14
çe 14
éc@@ 14
éni@@ 14
été 14
ías 14
üc@@ 14
ütz@@ 14
Ą 14
ǎ 14
ɤ 14
ʒ 14
Αργ@@ 14
Γερ@@ 14
Ελλ@@ 14
Ερ@@ 14
Λού@@ 14
Μέγ@@ 14
Μιχ@@ 14
Οικ@@ 14
Πο@@ 14
Σα@@ 14
Συ@@ 14
Φι@@ 14
άνδ@@ 14
αίν@@ 14
ανι@@ 14
επίσ@@ 14
ημα 14
ηφ@@ 14
θη@@ 14
θν@@ 14
θυ@@ 14
ιών 14
κατοίκων 14
κοπος 14
κό@@ 14
λη 14
λιος 14
λου 14
μόν@@ 14
οξ@@ 14
πί@@ 14
ρατ@@ 14
σμ@@ 14
σοβ@@ 14
στερ@@ 14
στο 14
τελε@@ 14
τισ@@ 14
τρό@@ 14
φορ@@ 14
χλ@@ 14
χν@@ 14
όζ@@ 14
ώνας 14
Ђ 14
годов 14
ины 14
йские 14
йся 14
кры@@ 14
мом 14
ностей 14
ными 14
сою@@ 14
человека 14
чные 14
ӑ@@ 14
ו 14
اس@@ 14
ر 14
مَ@@ 14
ّ@@ 14
ܐ 14
ু@@ 14
ང 14
འ@@ 14
ზ@@ 14
ძ@@ 14
ង@@ 14
ត@@ 14
ḥ 14
ἱ 14
ἱ@@ 14
ἶ@@ 14
ὅ@@ 14
ὶ@@ 14
∀ 14
∩ 14
┬ 14
♠ 14
ⰴ@@ 14
ⱝ@@ 14
た@@ 14
り@@ 14
國@@ 14
安@@ 14
山 14
島 14
投@@ 14
特@@ 14
道 14
제@@ 14
1,000 13
Alberto 13
Alem@@ 13
Ark@@ 13
Bach 13
Baden 13
Best@@ 13
Bö@@ 13
Cá@@ 13
Dek@@ 13
Dop@@ 13
Drit@@ 13
Entre 13
Firma 13
Frankfurt 13
Gemeinde 13
Haf@@ 13
Hannover 13
Jahr@@ 13
Jahre 13
Kaf@@ 13
Kriegs@@ 13
Kut@@ 13
Lehr@@ 13
Menschen 13
Muh@@ 13
Ontario 13
Partei 13
Regierungs@@ 13
Rö@@ 13
Sey@@ 13
Singapore 13
Sov@@ 13
Stad@@ 13
Stim@@ 13
Tiy@@ 13
Türk@@ 13
Unter 13
Vak@@ 13
Viet@@ 13
Virgin@@ 13
acab@@ 13
aciones 13
afu@@ 13
agno@@ 13
agua 13
aines 13
ajo 13
aktion 13
alista 13
alition 13
anya 13
appe@@ 13
aran 13
architecture 13
arist@@ 13
atac@@ 13
athan 13
ağ@@ 13
bara 13
baz@@ 13
before 13
bek 13
built 13
chef 13
chief 13
chte 13
cian 13
consci@@ 13
construction 13
contact 13
cultura 13
dad 13
deci@@ 13
destruc@@ 13
deutsch@@ 13
deux 13
dido 13
diers 13
during 13
electr@@ 13
engi 13
enl@@ 13
entro 13
eption 13
estar 13
eten 13
euse 13
every 13
fed@@ 13
garde 13
given 13
gru@@ 13
haus@@ 13
heav@@ 13
hie 13
huy@@ 13
ikan@@ 13
ilen 13
ilit@@ 13
insel 13
ités 13
iw@@ 13
iç@@ 13
ión 13
jana 13
kend@@ 13
kup@@ 13
lak 13
lead 13
leng@@ 13
lil@@ 13
lima 13
local 13
mano 13
mile 13
mot 13
muz@@ 13
namo 13
nde 13
ngh@@ 13
nou@@ 13
office 13
oja 13
olan@@ 13
olar 13
onel 13
oras 13
original 13
origine 13
otros 13
pion@@ 13
plant 13
plays 13
pler@@ 13
pole 13
population 13
poste 13
present 13
progres@@ 13
quel 13
roqu@@ 13
sell 13
sexual 13
singer 13
specif@@ 13
specific 13
sports 13
stellung 13
tai 13
tales 13
ted@@ 13
teil@@ 13
tep@@ 13
theory 13
tout 13
trou@@ 13
uu 13
vy@@ 13
wad@@ 13
wns 13
zeug 13
zin 13
änger 13
éli@@ 13
ún 13
þ 13
İstanbul 13
ɑ 13
ɨ 13
ʂ 13
Α.@@ 13
Βασίλ@@ 13
Βερ@@ 13
Γρηγ@@ 13
Ελλάδος 13
Ιστορία 13
Ιω@@ 13
Καζ@@ 13
Μακ@@ 13
ΰ@@ 13
ανά 13
αρ 13
ει 13
εχ@@ 13
λεκ@@ 13
μας 13
ναι 13
προς 13
ρά 13
ρία 13
ρίας 13
σία 13
στον 13
συ@@ 13
ταλ@@ 13
υβ@@ 13
υζ@@ 13
χή 13
χι@@ 13
ωμ@@ 13
ωπ@@ 13
όπος 13
όρος 13
ώβ@@ 13
Ѓ@@ 13
Эр@@ 13
борь@@ 13
брита@@ 13
волости 13
всех 13
исследо@@ 13
культур@@ 13
могу@@ 13
муж@@ 13
обы@@ 13
празд@@ 13
рё@@ 13
тых 13
хозяй@@ 13
ческая 13
ческое 13
ӣ 13
ս 13
ק 13
الر@@ 13
الع@@ 13
الم@@ 13
الْ@@ 13
رة 13
ق 13
ية 13
ُ 13
ّ 13
ۡ@@ 13
น@@ 13
ລ@@ 13
ວ 13
ັ@@ 13
າ 13
མ 13
མ@@ 13
យ@@ 13
ែ@@ 13
Ἁ@@ 13
Ἄ@@ 13
Ἑ@@ 13
Ἡ@@ 13
῾ 13
お@@ 13
か@@ 13
ち@@ 13
な@@ 13
タ@@ 13
ッ@@ 13
会@@ 13
十@@ 13
和@@ 13
四@@ 13
州 13
心 13
無@@ 13
記 13
高@@ 13
전 13
정@@ 13
10.000 12
2,000 12
Ahmet 12
Alexandre 12
Alman@@ 12
Après 12
Cô@@ 12
ESCO 12
Enrique 12
Fahr@@ 12
Fren@@ 12
Früh@@ 12
Gemein@@ 12
Grab@@ 12
Hamb@@ 12
Hö@@ 12
Ira@@ 12
Its 12
Jah@@ 12
Kak@@ 12
Kapit@@ 12
Kik@@ 12
Kup@@ 12
Lew@@ 12
Muhammad 12
Mundial 12
Müller 12
Rafael 12
Represent@@ 12
Schn@@ 12
Scotland 12
Servic@@ 12
Sociedad 12
Sos@@ 12
Studium 12
Stuttgart 12
Tierra 12
Tsch@@ 12
Uganda 12
Uz@@ 12
Verw@@ 12
Wab@@ 12
Wad@@ 12
Wald@@ 12
Werk@@ 12
Wür@@ 12
Yıl@@ 12
Zur 12
acked 12
activ@@ 12
adil@@ 12
adul@@ 12
against 12
agement 12
aises 12
alar 12
alismo 12
alité 12
anan 12
anlar 12
another 12
anst@@ 12
aras@@ 12
arten 12
ased 12
attach@@ 12
auen 12
autor@@ 12
auté 12
average 12
ayed 12
aí@@ 12
año 12
aş 12
being 12
besch@@ 12
biy@@ 12
both 12
bras 12
came 12
caus@@ 12
cil 12
cinéma 12
circu@@ 12
classes 12
coi 12
coloni@@ 12
community 12
complete 12
consult@@ 12
diam@@ 12
diff@@ 12
dimen@@ 12
distr@@ 12
divi@@ 12
east 12
education 12
eins 12
embre 12
endel@@ 12
energy 12
engen@@ 12
ested 12
femmes 12
firm@@ 12
gesi 12
gique 12
going 12
guerre 12
hasta 12
hoch@@ 12
hof 12
hombre 12
ically 12
ilim@@ 12
institu@@ 12
island 12
issen@@ 12
iten@@ 12
ive 12
kay@@ 12
kem@@ 12
kub@@ 12
lai 12
lande 12
lement 12
licher 12
lige 12
livre 12
lor 12
mad 12
metr@@ 12
milli@@ 12
mission@@ 12
mondi@@ 12
museum 12
national@@ 12
nouvelle 12
novela 12
nuc@@ 12
octu@@ 12
odio 12
omba 12
orta 12
oslav@@ 12
placed 12
policy 12
proced@@ 12
process 12
pu 12
pá@@ 12
quatre 12
rain@@ 12
relig@@ 12
report 12
retr@@ 12
russ@@ 12
rég@@ 12
schafts@@ 12
sched@@ 12
sent 12
serve 12
should 12
small 12
social 12
spiel 12
streng@@ 12
sä@@ 12
techni@@ 12
term 12
theor@@ 12
thé@@ 12
ticia 12
tiempo 12
tradi@@ 12
trä@@ 12
umu 12
unu 12
utenant 12
vik@@ 12
waren 12
weg 12
wich@@ 12
writing 12
wär@@ 12
¢ 12
Æ 12
État 12
ähr@@ 12
èg@@ 12
èque 12
ération 12
érie 12
éré@@ 12
üz@@ 12
ık@@ 12
ız@@ 12
ű@@ 12
ʹ 12
̪ 12
Αμπ@@ 12
Βου@@ 12
Εξ@@ 12
Ηλ@@ 12
Κατα@@ 12
Κρι@@ 12
Κωνσταντιν@@ 12
Λε@@ 12
Μεγ@@ 12
Ναυ@@ 12
Ντ@@ 12
Πα@@ 12
Πε@@ 12
Πι@@ 12
Σαλ@@ 12
άδα 12
άρχ@@ 12
έμ@@ 12
έν 12
έπ@@ 12
ίστ@@ 12
αία 12
απλ@@ 12
αργ@@ 12
αση 12
ασκευ@@ 12
βολ@@ 12
δελφ@@ 12
ηδ@@ 12
θα 12
ιπ@@ 12
κατά 12
καφ@@ 12
κόσ@@ 12
κύ@@ 12
λεια 12
λογία 12
μελ@@ 12
μον@@ 12
νά@@ 12
νικ@@ 12
νο@@ 12
ούσ@@ 12
περι@@ 12
πλά@@ 12
ρου@@ 12
ρών 12
σίας 12
στη@@ 12
ταρ@@ 12
τις 12
τρα@@ 12
τύ@@ 12
υκ@@ 12
υπό 12
φίλ@@ 12
ύν@@ 12
Большо@@ 12
государ@@ 12
имя 12
льно 12
льного 12
молод@@ 12
пись@@ 12
соста@@ 12
цией 12
часть 12
шего 12
ься 12
Ѡ@@ 12
Қ 12
ӗ@@ 12
վ@@ 12
آ@@ 12
الس@@ 12
ش 12
شا@@ 12
ص@@ 12
ف 12
अ@@ 12
ক@@ 12
জ@@ 12
್ 12
จ@@ 12
พระ@@ 12
່ 12
້ 12
ྱ@@ 12
គ@@ 12
ង 12
ជ@@ 12
ប 12
រ 12
់ 12
ḍ@@ 12
Ḫ@@ 12
ạ 12
∃ 12
♭ 12
ⱃ@@ 12
ⱅ@@ 12
げ 12
と@@ 12
ん 12
カ@@ 12
ー 12
一 12
中 12
九@@ 12
们 12
千@@ 12
子@@ 12
文 12
門 12
남@@ 12
두@@ 12
태@@ 12
（ 12
Actu@@ 11
Afrique 11
Ago@@ 11
Aires 11
Alaska 11
Alter 11
Ander@@ 11
Bask@@ 11
Blü@@ 11
Buenos 11
Bü@@ 11
Ceramb@@ 11
Charl@@ 11
Chu 11
Comité 11
Denis 11
Esta 11
Fes@@ 11
Feuer@@ 11
Frau@@ 11
Frit@@ 11
Gia 11
Gusta@@ 11
Halb@@ 11
Herrschaft 11
Kauf@@ 11
Kentucky 11
Kho@@ 11
Kommun@@ 11
Künst@@ 11
Lai 11
Lü@@ 11
Malay@@ 11
Margaret 11
Mississippi 11
Missouri 11
Müh@@ 11
Nam 11
Noctuidae 11
Norman@@ 11
Ort@@ 11
Paragu@@ 11
Preu@@ 11
Pé@@ 11
Québec 11
Rom 11
Río 11
Sie@@ 11
Spiel@@ 11
Sprache 11
Tier@@ 11
Town@@ 11
Vater 11
Verein 11
Wie 11
Woh@@ 11
Yaz@@ 11
acı 11
aday 11
adv@@ 11
aison 11
alise 11
alismus 11
alte 11
alter 11
alth 11
ambigu@@ 11
angen 11
aque 11
archit@@ 11
armes 11
arn 11
arri@@ 11
aska 11
ausen 11
ayak@@ 11
ağı 11
bé@@ 11
cada 11
capital 11
cars 11
centrale 11
champion 11
cide 11
classi@@ 11
college 11
command@@ 11
costa 11
cular 11
cultur@@ 11
curs@@ 11
dak@@ 11
decision 11
develop@@ 11
duk@@ 11
déf@@ 11
eball 11
echt 11
edad 11
eden 11
egen 11
egio 11
einem 11
eit@@ 11
eko 11
elev@@ 11
emu 11
enca 11
endorf 11
enk@@ 11
ently 11
erb@@ 11
ería 11
eser@@ 11
estu@@ 11
expl@@ 11
exter@@ 11
fact 11
fahrt 11
fang@@ 11
fit 11
funk@@ 11
future 11
fé@@ 11
fér@@ 11
gart 11
gesellschaft 11
give 11
gol 11
govern@@ 11
great 11
général 11
hali@@ 11
held 11
historique 11
hit 11
hours 11
human 11
human@@ 11
hö@@ 11
iden@@ 11
idental 11
ihr 11
ilities 11
ingia 11
interpr@@ 11
invol@@ 11
iny@@ 11
irk 11
isel 11
isine 11
ispi@@ 11
kari 11
kav@@ 11
keit 11
kreis 11
liches 11
loi 11
luk 11
mak 11
marc@@ 11
matr@@ 11
meas@@ 11
missions 11
moderne 11
mother 11
multiple 11
narr@@ 11
nim@@ 11
octo@@ 11
orden 11
ordnung 11
ourg 11
outre 11
padre 11
past 11
poco 11
politik 11
probl@@ 11
pré@@ 11
puer@@ 11
quier@@ 11
raum 11
recep@@ 11
research 11
reser@@ 11
rés 11
sant@@ 11
schl@@ 11
schw@@ 11
seau 11
sif 11
species 11
stant@@ 11
stead 11
structure 11
städ@@ 11
succes@@ 11
tiers 11
tiv 11
tora 11
torno 11
u. 11
uf 11
umes 11
until 11
utar@@ 11
utu 11
uş@@ 11
vall@@ 11
vely 11
venir 11
verband 11
wam@@ 11
wap@@ 11
western 11
yav@@ 11
yet@@ 11
yum 11
zek@@ 11
çi 11
élec@@ 11
éo 11
óm@@ 11
ôn 11
úl@@ 11
ük 11
ül 11
üm 11
üş@@ 11
ɐ@@ 11
ɯ 11
ʂ@@ 11
̥ 11
Βο@@ 11
Βρα@@ 11
Γου@@ 11
Δού@@ 11
Επισ@@ 11
Μπι@@ 11
Μπρ@@ 11
Ομ@@ 11
Πρ@@ 11
Χρ@@ 11
άρκ@@ 11
έβ@@ 11
έως 11
ήνη 11
ίνας 11
ίος 11
ίπ@@ 11
ανα@@ 11
αντα@@ 11
αξ@@ 11
αρχία 11
γιος 11
διδ@@ 11
ελί@@ 11
εστ@@ 11
ιστο@@ 11
ιω@@ 11
κε 11
κρι@@ 11
λλα 11
λυ@@ 11
μετά 11
πολη 11
ρίν@@ 11
ραβ@@ 11
σι 11
στα@@ 11
στρ@@ 11
τέκ@@ 11
τικά 11
τομ@@ 11
τού 11
φω@@ 11
όρου 11
ϒ@@ 11
Ё 11
Ї@@ 11
Союза 11
боль@@ 11
дней 11
ется 11
здесь 11
иностран@@ 11
когда 11
льной 11
лья@@ 11
область 11
окру@@ 11
своим 11
совер@@ 11
тный 11
тё@@ 11
щая 11
Ґ 11
Җ 11
ҡ@@ 11
ө 11
Մ@@ 11
դ@@ 11
الك@@ 11
بِ@@ 11
مج@@ 11
وال@@ 11
ير 11
ܘ@@ 11
प 11
स 11
ন@@ 11
ম@@ 11
ল@@ 11
ি@@ 11
் 11
ม@@ 11
ຊ@@ 11
ນ 11
ສ@@ 11
ເ@@ 11
ག@@ 11
ក@@ 11
ὕ@@ 11
↓ 11
∑ 11
⟨ 11
⟩ 11
ⱁ@@ 11
き@@ 11
み@@ 11
ら@@ 11
を@@ 11
テ@@ 11
ラ@@ 11
ロ@@ 11
五@@ 11
公@@ 11
学 11
明@@ 11
書 11
松@@ 11
歲 11
萬@@ 11
里@@ 11
강@@ 11
만@@ 11
민@@ 11
선@@ 11
성 11
시@@ 11
이 11
Alab@@ 10
Ana 10
Ban 10
Basket@@ 10
Bisch@@ 10
Canton 10
Christoph@@ 10
Consejo 10
Dies@@ 10
Durch 10
Ecuador 10
Escuela 10
Este 10
Ferdin@@ 10
Fernando 10
Fuer@@ 10
Futbol 10
Grup 10
Guill@@ 10
Göl@@ 10
Indonesia 10
Italien 10
Jap@@ 10
Kari@@ 10
Kip@@ 10
Kreuz@@ 10
Macar@@ 10
Mit 10
Nueva 10
Ouest 10
Pek@@ 10
Platz 10
Poland 10
Posteri@@ 10
Region 10
Rico 10
Rural 10
République 10
Seite 10
Stoc@@ 10
Sá@@ 10
Teil 10
Vy@@ 10
Wash@@ 10
Yap@@ 10
achen 10
agric@@ 10
akadem@@ 10
alcal@@ 10
alisation 10
alternati@@ 10
ammed 10
among 10
ampli@@ 10
anese 10
annen 10
antu 10
appen 10
appro@@ 10
arriv@@ 10
atika 10
atiques 10
bang 10
battle 10
bey@@ 10
canal 10
chall@@ 10
combin@@ 10
comme 10
commerce 10
comple@@ 10
condi@@ 10
contains 10
contempor@@ 10
deur 10
deutscher 10
disc@@ 10
distinc@@ 10
diver@@ 10
durum 10
elled 10
emper@@ 10
endre 10
ennt 10
ensive 10
erek 10
etk@@ 10
exist@@ 10
explo@@ 10
extra@@ 10
ficio 10
games 10
gaz 10
genus 10
ghi 10
gut 10
gó@@ 10
half 10
heu@@ 10
idente 10
ikal@@ 10
iku@@ 10
iled 10
impro@@ 10
ingt 10
insec@@ 10
k. 10
kho@@ 10
kid@@ 10
kunde 10
kut@@ 10
kü@@ 10
larg@@ 10
large 10
later 10
lek 10
lieb 10
location 10
madre 10
maî@@ 10
mechan@@ 10
military 10
million 10
mtDNA 10
muerte 10
named 10
naval 10
ographie 10
oine 10
older 10
olds 10
ople 10
otball 10
ovu 10
perman@@ 10
pino 10
playing 10
politi@@ 10
portun@@ 10
prec@@ 10
production 10
pson 10
race 10
region 10
required 10
rir 10
roman@@ 10
rí@@ 10
score 10
sculp@@ 10
seurs 10
shows 10
siti@@ 10
situ@@ 10
sozi@@ 10
spor@@ 10
spre@@ 10
struk@@ 10
symbol@@ 10
tainment 10
tanto 10
teil 10
telle 10
terie 10
tiles 10
tionen 10
tish 10
toujours 10
tracks 10
trag 10
transport 10
ución 10
ulaire 10
ulan 10
usha 10
vai 10
vière 10
volume 10
vot@@ 10
ví 10
within 10
wur@@ 10
yani 10
zis@@ 10
¿ 10
ám 10
áng 10
çon 10
èmes 10
éti@@ 10
öd@@ 10
öy 10
ús 10
û 10
ünde 10
Đ@@ 10
ĕ 10
ılar 10
ŏ 10
Œ@@ 10
ǝ@@ 10
ʰ 10
Αθλ@@ 10
Αι@@ 10
Ανατολ@@ 10
Αντ@@ 10
Βορ@@ 10
Γεω@@ 10
Εν@@ 10
Ιν@@ 10
Λέ@@ 10
Λα@@ 10
Μέ@@ 10
Μαλ@@ 10
Μουσ@@ 10
Πατ@@ 10
Ποδ@@ 10
Σί@@ 10
Σοφ@@ 10
Στρατ@@ 10
Σχολ@@ 10
Τα 10
Τρ@@ 10
Ψ 10
άλα 10
άνου 10
άρα 10
ίγ@@ 10
ίζ@@ 10
ίνη 10
αμβ@@ 10
ανδρ@@ 10
ανου@@ 10
δία 10
δαν@@ 10
διά@@ 10
ειρ@@ 10
εφαλ@@ 10
ημερ@@ 10
θρ@@ 10
ιας 10
ικ 10
ικο 10
καιν@@ 10
κράτος 10
λαμ@@ 10
λοβ@@ 10
μάν@@ 10
οικ@@ 10
οστ@@ 10
ουσα 10
προσ@@ 10
ς@@ 10
σελ@@ 10
σον 10
τής 10
τει 10
τορ@@ 10
τους 10
υχ@@ 10
φρ@@ 10
χη 10
ωνίας 10
όκκιν@@ 10
ύλ@@ 10
ώπ@@ 10
Ѕ@@ 10
Џ@@ 10
Верхов@@ 10
Первый 10
было 10
вать 10
вместе 10
долж@@ 10
ителей 10
ится 10
лся 10
мость 10
наук 10
ниях 10
нодорож@@ 10
объек@@ 10
памя@@ 10
прожи@@ 10
разу 10
стоит 10
тся 10
филь@@ 10
церкви 10
ческой 10
это 10
ющий 10
языке 10
ѳ@@ 10
ғ@@ 10
Қ@@ 10
қ 10
ք 10
الح@@ 10
ح 10
رَ@@ 10
في 10
لا 10
لي@@ 10
ند@@ 10
چ@@ 10
ک 10
ۇ@@ 10
ی 10
ە@@ 10
ܡ@@ 10
य 10
স@@ 10
ে@@ 10
ན 10
ལ@@ 10
ེ@@ 10
ོ@@ 10
ာ@@ 10
း@@ 10
ṅ@@ 10
ṛ@@ 10
ṣ 10
ῳ 10
ῷ 10
⁰ 10
₩ 10
♂ 10
ⱆ@@ 10
ⱑ@@ 10
い 10
う@@ 10
る 10
ト@@ 10
京@@ 10
人 10
会 10
古@@ 10
国 10
戦@@ 10
政@@ 10
日 10
株@@ 10
民@@ 10
汉@@ 10
江 10
田 10
社 10
立@@ 10
Ꙗ@@ 10
Abu 9
According 9
Alit@@ 9
Anf@@ 9
Atlanta 9
Bev@@ 9
Bonde 9
Career 9
Colombia 9
Cuando 9
Dağ@@ 9
Democratic 9
Düssel@@ 9
Ej@@ 9
Entw@@ 9
Finale 9
Francia 9
Franco 9
Für 9
Geg@@ 9
Gesamt@@ 9
Guadal@@ 9
Guerre 9
Guillaume 9
Hern@@ 9
Hosp@@ 9
Hymenoptera 9
Illinois 9
Imperio 9
Jahr 9
Jahren 9
Köl@@ 9
Kür@@ 9
Ligue 9
Maine 9
Osmanlı 9
Osten 9
Parte@@ 9
Preis 9
Ruh@@ 9
Schule 9
Sept@@ 9
Serbia 9
Serie 9
Sich@@ 9
Siv@@ 9
Sä@@ 9
Tanz@@ 9
Tanzania 9
Tennessee 9
Theo 9
Valencia 9
Vietnam 9
Việt 9
Wali@@ 9
Werk 9
Wolfgang 9
abaj@@ 9
absol@@ 9
accep@@ 9
acus@@ 9
adini 9
aham@@ 9
akt@@ 9
albums 9
altar 9
anchi 9
antage 9
anterior 9
anzi 9
approxim@@ 9
assass@@ 9
assemb@@ 9
associ@@ 9
associated 9
athol@@ 9
ativo 9
ayı 9
aî@@ 9
behind 9
bem@@ 9
bind@@ 9
bom 9
bé 9
cambi@@ 9
carte 9
census 9
champ@@ 9
charg@@ 9
commercial 9
communic@@ 9
concentr@@ 9
contract 9
countries 9
curité 9
currently 9
cá@@ 9
dern 9
descend@@ 9
descri@@ 9
dif@@ 9
diffus@@ 9
director 9
dö@@ 9
editor 9
effect 9
eleri 9
encore 9
environ@@ 9
equi@@ 9
eshi 9
eski 9
fah@@ 9
familia 9
features 9
fille 9
film@@ 9
fort@@ 9
frequ@@ 9
gal 9
geboren 9
grandes 9
große 9
hausen 9
high@@ 9
horiz@@ 9
häl@@ 9
hé@@ 9
ichts@@ 9
ickl@@ 9
idades 9
ieder 9
imbo 9
imiento 9
inat@@ 9
interior 9
jeres 9
jeu 9
jeune 9
jours 9
kten 9
kum 9
lama 9
lares 9
leader 9
leich@@ 9
lieutenant 9
lig 9
likely 9
lisi 9
living 9
loss 9
marca 9
materi@@ 9
mee 9
meister@@ 9
moun@@ 9
musical 9
nete 9
noch 9
nur 9
oce 9
olu 9
ondo@@ 9
onge@@ 9
onio 9
onyme 9
oral 9
organization 9
osu 9
pal 9
pant@@ 9
partes 9
perio 9
perten@@ 9
pologie 9
poss@@ 9
promot@@ 9
property 9
protection 9
publique 9
rah@@ 9
reib@@ 9
reich 9
rej@@ 9
rek@@ 9
relation 9
resol@@ 9
resto 9
result@@ 9
riff@@ 9
route 9
saint 9
schaft@@ 9
schie@@ 9
seine 9
seis 9
sek@@ 9
sied@@ 9
sino 9
states 9
table@@ 9
there@@ 9
thode 9
ticas 9
tierra 9
tiques 9
tischen 9
transfer@@ 9
tries 9
trik 9
trois 9
vili@@ 9
wach@@ 9
wale 9
waw@@ 9
wegung 9
werden 9
wird 9
yab@@ 9
yat 9
yaz@@ 9
yol@@ 9
yum@@ 9
zus@@ 9
Ò@@ 9
Ó 9
Ödülü 9
ài 9
änder@@ 9
äus@@ 9
èle 9
économique 9
ême 9
ños 9
óng 9
ône 9
über@@ 9
ück@@ 9
ıy@@ 9
ış 9
ļ@@ 9
ľ@@ 9
ň 9
Ş 9
Ū 9
ș 9
ʔ@@ 9
ʼ 9
̞ 9
Αγίας 9
Αδ@@ 9
Γιάν@@ 9
Γιώργ@@ 9
Και 9
Μαρία 9
Μετα@@ 9
Νομ@@ 9
Πρω@@ 9
Σέρ@@ 9
άδων 9
άνθρω@@ 9
άνια 9
άντα 9
άρων 9
έζ@@ 9
έλα 9
ήν@@ 9
ήρ@@ 9
ίδα 9
ίοι 9
ασκ@@ 9
αϊκ@@ 9
αύ@@ 9
βαρ@@ 9
βρ@@ 9
γκα 9
γρ@@ 9
διακ@@ 9
διν@@ 9
είναι 9
είων 9
ελι@@ 9
εντ@@ 9
εφημερ@@ 9
ινο 9
ιου 9
ιχ@@ 9
κον@@ 9
κου 9
λει@@ 9
λη@@ 9
λιστα 9
μάτων 9
μένα 9
μακ@@ 9
μαρ@@ 9
ματα 9
μεσ@@ 9
μετ@@ 9
νίκ@@ 9
παι@@ 9
παιδ@@ 9
πει@@ 9
περί@@ 9
πολλ@@ 9
πυ@@ 9
ρας 9
ριακ@@ 9
ρό 9
σί@@ 9
στεν@@ 9
σχολ@@ 9
σω@@ 9
τά 9
τή 9
τοκ@@ 9
τρο 9
τό 9
χα@@ 9
χορ@@ 9
όδου 9
όλου 9
Ѕ 9
Ѝ 9
Великобрита@@ 9
Поль@@ 9
Российской 9
вве@@ 9
воды 9
вым 9
дает 9
ковой 9
коллек@@ 9
культуры 9
лись 9
мся 9
нитель@@ 9
новый 9
отца 9
продол@@ 9
совет 9
созда@@ 9
стало 9
сты 9
харак@@ 9
центр 9
числен@@ 9
чё@@ 9
ые 9
юще@@ 9
ҫ@@ 9
Ӂ 9
Ө@@ 9
զ@@ 9
ַ 9
أبو 9
ئ@@ 9
الأ@@ 9
الش@@ 9
الق@@ 9
ب 9
تر@@ 9
ست@@ 9
من 9
مِ@@ 9
ور 9
يد 9
ين 9
ِّ@@ 9
क 9
ण 9
অ@@ 9
ন 9
য 9
ী 9
ไทย 9
์ 9
ວ@@ 9
། 9
ར 9
င 9
စ@@ 9
ည 9
မ 9
ွ@@ 9
ღ@@ 9
წ@@ 9
ដ@@ 9
ប@@ 9
ព 9
ោ@@ 9
Ṣ@@ 9
ṭ 9
ὔ@@ 9
‌ 9
₂ 9
⊆ 9
ⰽ@@ 9
ⱉ@@ 9
ⱓ@@ 9
つ@@ 9
に@@ 9
み 9
イ 9
ト 9
・ 9
世@@ 9
书 9
京 9
名@@ 9
女@@ 9
字@@ 9
峰 9
川@@ 9
手 9
本 9
正@@ 9
水@@ 9
王@@ 9
白@@ 9
百@@ 9
石@@ 9
西@@ 9
見@@ 9
通@@ 9
韓@@ 9
風@@ 9
龍@@ 9
가 9
경@@ 9
나@@ 9
대 9
무@@ 9
서@@ 9
소@@ 9
시 9
아@@ 9
일 9
장@@ 9
평@@ 9
하@@ 9
27. 8
Abdul@@ 8
Ahmed 8
Alfonso 8
Als 8
América 8
Anadolu 8
Anto@@ 8
Arbeit 8
Armee 8
Baş@@ 8
Beschreibung 8
Boliv@@ 8
Bremen 8
Burg 8
Cao 8
Castil@@ 8
Castilla 8
Cet 8
Chrysomelidae 8
Conseil 8
Doğ@@ 8
During 8
Département 8
Elis@@ 8
Forschungs@@ 8
Frauen 8
Gonz@@ 8
Gruppe 8
Grün@@ 8
Gé@@ 8
INSE@@ 8
Komit@@ 8
Konstant@@ 8
Krieg@@ 8
Leip@@ 8
León 8
Lima 8
Malaysia 8
Marse@@ 8
Martín 8
Martínez 8
Minh 8
Minnesota 8
Mitte 8
Montr@@ 8
Nobel 8
Norte 8
Obl@@ 8
Ort 8
Osman@@ 8
Par 8
Paşa 8
Renn@@ 8
Segunda 8
Sie 8
Sieg 8
Situation 8
Soviet 8
Tari@@ 8
Uk@@ 8
Um 8
Unis 8
Vladimir 8
acial 8
acto 8
adal@@ 8
alien 8
alim@@ 8
aliste 8
allow 8
amu 8
andan 8
anime 8
arse 8
ately 8
atif 8
atini 8
available 8
ayar@@ 8
aç 8
basis 8
bezirk 8
bonne 8
bür@@ 8
capac@@ 8
cases 8
cause 8
chanson 8
chs 8
civil 8
coloc@@ 8
compil@@ 8
comte 8
concert 8
continu@@ 8
contrat 8
contre 8
conver@@ 8
cost 8
created 8
crec@@ 8
crim@@ 8
cultural 8
có@@ 8
ded@@ 8
destin@@ 8
deutsch 8
dific@@ 8
dik@@ 8
discipl@@ 8
disput@@ 8
does 8
dok@@ 8
elimin@@ 8
empre 8
enfants 8
engl@@ 8
enko 8
enten 8
esha 8
esos 8
etten 8
fallen 8
fond@@ 8
forces 8
frac@@ 8
fäl@@ 8
fédér@@ 8
gali@@ 8
geht 8
government 8
gradu@@ 8
habit@@ 8
hangi 8
hara 8
hay 8
hik@@ 8
hospit@@ 8
hoy 8
hus@@ 8
hô@@ 8
icha 8
iert 8
igned 8
inh 8
innen 8
isho 8
istik 8
istique 8
iteur 8
ived 8
iye 8
izo 8
içi 8
iş 8
jeni 8
jeun@@ 8
join@@ 8
journ@@ 8
kaf@@ 8
kaya 8
klein@@ 8
laya 8
leben 8
lili@@ 8
maf@@ 8
mehr 8
merc@@ 8
mf@@ 8
mittee 8
model@@ 8
motor 8
much 8
nacional 8
novel@@ 8
oben 8
objet 8
ohne 8
okrati@@ 8
orit@@ 8
orta@@ 8
oğ@@ 8
pale 8
partam@@ 8
personal 8
prior 8
progr@@ 8
propor@@ 8
protein 8
quarti@@ 8
qued@@ 8
raison 8
regular 8
relations 8
resist@@ 8
results 8
riff 8
rouge 8
round@@ 8
sala 8
scheid@@ 8
seig@@ 8
seç@@ 8
señ@@ 8
sites 8
sition 8
soit 8
sold@@ 8
soll 8
songs 8
spiele 8
strum@@ 8
study 8
suj@@ 8
só@@ 8
tah@@ 8
tant 8
tener 8
territori@@ 8
teurs 8
thu 8
tiki 8
tivi@@ 8
tof@@ 8
together 8
turn 8
tuy@@ 8
tù 8
uela 8
unat@@ 8
upo 8
uppen 8
usta@@ 8
versions 8
village 8
vivi@@ 8
voi 8
völ@@ 8
wech@@ 8
week@@ 8
witz 8
zeich@@ 8
zug 8
zwischen 8
ª 8
Ä 8
Ç 8
ã 8
ächs@@ 8
änge 8
ém 8
ét 8
êtes 8
ích 8
ún@@ 8
ď 8
đ 8
Ē@@ 8
ħ 8
İs@@ 8
ıl@@ 8
ısı 8
ŕ 8
Ţ@@ 8
ǒ 8
Ș@@ 8
ɵ 8
ʌ@@ 8
ʲ 8
ʾ@@ 8
Άρ@@ 8
Έλληνες 8
Ή@@ 8
Ύ@@ 8
Δύ@@ 8
Ζ 8
Κάρ@@ 8
Κώ@@ 8
Ξ 8
Οι 8
Συν@@ 8
Σχολή 8
Χριστιαν@@ 8
άκη 8
άνθ@@ 8
έγ@@ 8
έρα 8
ίδες 8
ίκη 8
ίκος 8
ίκου 8
από 8
ατρ@@ 8
αυλ@@ 8
γε@@ 8
δά@@ 8
δικ@@ 8
εζ@@ 8
ελληνική 8
ερσ@@ 8
ητική 8
θάνα@@ 8
θή@@ 8
θεν@@ 8
θμ@@ 8
θύ@@ 8
ιάς 8
ικές 8
κίν@@ 8
κατ@@ 8
κιν@@ 8
λάβ@@ 8
λάχ@@ 8
λευ@@ 8
ματος 8
μετα@@ 8
μισ@@ 8
μμ@@ 8
μό@@ 8
νήσ@@ 8
νεκ@@ 8
νόμ@@ 8
ολογ@@ 8
ολογία 8
ποι 8
πολ@@ 8
πολης 8
πρω@@ 8
ρίς 8
ρίσ@@ 8
ριβ@@ 8
ρού 8
συνα@@ 8
σύν@@ 8
τέχ@@ 8
φων@@ 8
ψηλ@@ 8
ϊκ@@ 8
όνου 8
ώνης 8
ώρ@@ 8
ώρα 8
ϕ@@ 8
Ѓ 8
Ї 8
Среди 8
аться 8
быть 8
вший 8
годах 8
государствен@@ 8
держа@@ 8
дорож@@ 8
либо 8
лых 8
лько 8
льных 8
меся@@ 8
новой 8
нём 8
поэ@@ 8
свою 8
состоя@@ 8
сохра@@ 8
специаль@@ 8
ству 8
трёх 8
участво@@ 8
ую 8
худо@@ 8
цами 8
ются 8
ём@@ 8
ѿ@@ 8
Ҹ 8
Ӈ 8
Ә 8
Ө 8
ԓ@@ 8
Գ@@ 8
Կ@@ 8
բ@@ 8
թ@@ 8
ղ@@ 8
ע 8
ף 8
اب@@ 8
الإ@@ 8
الج@@ 8
الف@@ 8
الل@@ 8
ام@@ 8
ان@@ 8
بل@@ 8
ة@@ 8
ج 8
دا 8
دى 8
عبد 8
عة 8
ل 8
ما@@ 8
مز@@ 8
وا@@ 8
ܫ@@ 8
त@@ 8
यान 8
ष 8
চ@@ 8
ত 8
ਾ@@ 8
్ 8
า@@ 8
ກ 8
ກ@@ 8
ງ 8
ཀ@@ 8
ལ 8
ི@@ 8
ེ 8
လ@@ 8
ျ@@ 8
თ 8
ក 8
ទ@@ 8
ហ@@ 8
ូ@@ 8
ំ@@ 8
ḏ@@ 8
ḗ 8
ạ@@ 8
ọ 8
ἡ 8
Ὀ@@ 8
ὺ@@ 8
‍ 8
⊕ 8
⌀ 8
┌ 8
◆ 8
ⰱ@@ 8
が@@ 8
す@@ 8
ア@@ 8
ガ@@ 8
ク@@ 8
シ@@ 8
プ@@ 8
マ@@ 8
ル 8
们@@ 8
党 8
号 8
地@@ 8
孔@@ 8
宋 8
手@@ 8
星 8
朝 8
木 8
木@@ 8
村 8
歌 8
河 8
河@@ 8
法 8
社@@ 8
自治@@ 8
花 8
花@@ 8
草@@ 8
行 8
論 8
部 8
音@@ 8
고@@ 8
국@@ 8
라 8
라@@ 8
리 8
리@@ 8
은 8
자 8
전@@ 8
천@@ 8
해@@ 8
Angola 7
Arap@@ 7
Arsen@@ 7
Assemb@@ 7
Bezir@@ 7
Bis 7
Böl@@ 7
Bür@@ 7
Bürger@@ 7
Büyük 7
Canadi@@ 7
Demokrati@@ 7
Doug@@ 7
Durch@@ 7
Ejército 7
Engl@@ 7
Fach@@ 7
Fati@@ 7
Fernández 7
Fuß@@ 7
Fútbol 7
García 7
Gew@@ 7
Grenz@@ 7
Guinea 7
Hamil@@ 7
Han 7
Hinter@@ 7
Johann@@ 7
Kama 7
Kreis 7
Kuv@@ 7
Kü@@ 7
Kır@@ 7
Leist@@ 7
Ley 7
Mary@@ 7
Meh@@ 7
Minn@@ 7
Mosk@@ 7
Männer 7
Mü@@ 7
Nazi 7
Nh@@ 7
Presidente 7
Privat@@ 7
Republik 7
Salvador 7
Schiff 7
Schweizer 7
Soh@@ 7
Sohn 7
Sudan 7
Sult@@ 7
Tam 7
Township 7
Uch@@ 7
Unternehmen 7
Uta@@ 7
Verein@@ 7
Verfass@@ 7
Wirtschafts@@ 7
Xu@@ 7
Yay@@ 7
Zanzibar 7
Zus@@ 7
abeth 7
ably 7
above 7
across 7
addi@@ 7
administration 7
affaires 7
afi 7
afrika 7
aily 7
aka@@ 7
aliment@@ 7
alten 7
alum@@ 7
amani 7
ammlung 7
ancı 7
andes 7
animal 7
année 7
artiller@@ 7
artista 7
aters 7
ationen 7
author@@ 7
awe 7
aéri@@ 7
bald 7
bao 7
benef@@ 7
bisch@@ 7
bunal 7
central 7
cera 7
cerca 7
certain 7
cet 7
church 7
clas@@ 7
comand@@ 7
comment@@ 7
conditions 7
covered 7
cristi@@ 7
cuer@@ 7
cô@@ 7
dado 7
dej@@ 7
dek 7
deli@@ 7
ders@@ 7
dico 7
dies@@ 7
distribution 7
echa 7
ecke 7
edades 7
ekte 7
ellen 7
endant 7
enfr@@ 7
enin 7
equival@@ 7
ergie 7
escu@@ 7
está 7
eté 7
evangel@@ 7
exper@@ 7
explic@@ 7
famil@@ 7
fass@@ 7
fau@@ 7
few 7
fils 7
finished 7
flü@@ 7
fot@@ 7
frances@@ 7
frei@@ 7
fully 7
fusi@@ 7
gave 7
geg@@ 7
gende 7
gran 7
graphie 7
grave 7
group@@ 7
gén@@ 7
haben 7
hava 7
hek@@ 7
hija 7
hijo 7
hup@@ 7
ient 7
illos 7
imonio 7
impres@@ 7
independent 7
industrial 7
industrie 7
inner@@ 7
internacional 7
internet 7
introduc@@ 7
invent@@ 7
isons 7
isra@@ 7
issen 7
istem@@ 7
istère 7
iture 7
jah@@ 7
jaw@@ 7
juni@@ 7
kann 7
keine 7
kik@@ 7
klasse 7
klär@@ 7
laborat@@ 7
larger 7
lerin 7
links 7
lista 7
lungen 7
länd@@ 7
lée 7
mais 7
making 7
mama 7
manufactur@@ 7
manus@@ 7
market 7
marqu@@ 7
maya 7
mağ@@ 7
medical 7
mg@@ 7
militaire 7
moment 7
mujeres 7
mère 7
nchi 7
ndi@@ 7
neue 7
north 7
nouvelles 7
ogle 7
ografie 7
onné 7
origin@@ 7
osos 7
oten 7
otro 7
ouver 7
ouver@@ 7
ouvre 7
oyn@@ 7
oyuncul@@ 7
paral@@ 7
partic@@ 7
performance 7
played 7
players 7
pouvoir 7
practice 7
program@@ 7
provincia 7
präs@@ 7
pén@@ 7
question 7
quier 7
qué 7
recher@@ 7
recherche 7
relati@@ 7
rem 7
restric@@ 7
seven 7
sita 7
siz 7
sobre 7
sociales 7
sont 7
special 7
success@@ 7
tenant 7
tepe 7
these 7
those 7
timi 7
tous 7
traf@@ 7
trop 7
tü@@ 7
ucion@@ 7
udi 7
ugen@@ 7
una@@ 7
unidad 7
unique 7
upe 7
usage 7
ustri@@ 7
uş 7
vehic@@ 7
verein@@ 7
voir 7
voz 7
vér@@ 7
xin 7
yük 7
zun@@ 7
© 7
États 7
Ê@@ 7
Ör@@ 7
áo 7
ämp@@ 7
çal@@ 7
écol@@ 7
école 7
étique 7
éx@@ 7
óp@@ 7
Ī@@ 7
İ 7
İn@@ 7
İsk@@ 7
ř 7
ť@@ 7
ɒ 7
ʌ 7
̩ 7
̱ 7
Αθη@@ 7
Αλέξανδ@@ 7
Αλεξ@@ 7
Αμ@@ 7
Ανδρ@@ 7
Αντί@@ 7
Αφ@@ 7
Γρ@@ 7
Ε.@@ 7
ΕΚ 7
Ελλάδα 7
Ελληνική 7
Θεσσαλονίκης 7
Ιστο@@ 7
Κέν@@ 7
Καν@@ 7
Οικονομ@@ 7
Ολυμπ@@ 7
Ου@@ 7
Πρι@@ 7
Ρωμα@@ 7
Σά@@ 7
Στά@@ 7
άλη 7
άλι 7
άμε@@ 7
άμπ@@ 7
άνα 7
άνι 7
άρχης 7
άσι@@ 7
έρας 7
έρν@@ 7
ήματα 7
ήμη 7
ήτη 7
ίβ@@ 7
ίο 7
αίας 7
αντί@@ 7
αυτών 7
βιβλ@@ 7
βιβλία 7
βρα@@ 7
γαλ@@ 7
γον@@ 7
δεν 7
δη 7
δοβ@@ 7
δρα 7
δυ@@ 7
είδ@@ 7
ειά 7
εικ@@ 7
εκκλησία 7
εντά@@ 7
επισ@@ 7
επο@@ 7
ερ 7
ζωή 7
ημάτων 7
θήκη 7
ιακ@@ 7
ικα 7
ισσα 7
καθ@@ 7
καθολ@@ 7
κατα@@ 7
κλη@@ 7
κω@@ 7
λεγ@@ 7
λιγ@@ 7
μέρα 7
μητ@@ 7
μουσ@@ 7
μύ@@ 7
νω@@ 7
οί@@ 7
ονία 7
οπλ@@ 7
παλαι@@ 7
πεν@@ 7
ρίων 7
στ 7
στατ@@ 7
σύ@@ 7
τάν@@ 7
ταξ@@ 7
τοπ@@ 7
τοπο@@ 7
τουρκ@@ 7
τρί@@ 7
υθ@@ 7
υνα@@ 7
υπό@@ 7
υφ@@ 7
χεί@@ 7
χρον@@ 7
ψυχ@@ 7
ωμα 7
όχι 7
ώδ@@ 7
ώνα 7
ώς 7
Є@@ 7
Ќ 7
Ќ@@ 7
Ў@@ 7
Для 7
Европы 7
Когда 7
Ы@@ 7
аэро@@ 7
больше 7
бря 7
будет 7
верх@@ 7
воору@@ 7
держ@@ 7
дороги 7
искус@@ 7
источ@@ 7
ковского 7
лении 7
льской 7
милли@@ 7
ницы 7
откры@@ 7
памят@@ 7
русской 7
священ@@ 7
собра@@ 7
современ@@ 7
ственного 7
ственные 7
ственных 7
ступи@@ 7
театра 7
только 7
церковь 7
чёр@@ 7
электро@@ 7
ющих 7
язы@@ 7
ёл 7
љ 7
џ 7
Ѡ 7
Ѥ 7
ѻ@@ 7
Ң 7
Ҭ 7
Һ 7
Ӄ 7
ӣ@@ 7
ӧ 7
Ն@@ 7
ց@@ 7
ב 7
ט 7
ס 7
اد@@ 7
اف@@ 7
اه@@ 7
او@@ 7
بة 7
ت 7
ث@@ 7
خ 7
ري@@ 7
شي@@ 7
فر@@ 7
في@@ 7
لِ@@ 7
مار@@ 7
ور@@ 7
وي@@ 7
ٌ 7
ٰ@@ 7
ی@@ 7
द 7
ध@@ 7
न 7
म@@ 7
र@@ 7
री 7
वा@@ 7
श 7
़ 7
ই@@ 7
গ@@ 7
় 7
ทร@@ 7
ພ@@ 7
ະ 7
པ@@ 7
ྲ@@ 7
က@@ 7
ခ@@ 7
ု@@ 7
ნ 7
პ@@ 7
ჭ@@ 7
ខ 7
ព@@ 7
ម 7
វ@@ 7
ស 7
អ@@ 7
ុ@@ 7
ើ@@ 7
ḱ@@ 7
ṓ@@ 7
ṯ 7
ẏ@@ 7
ề@@ 7
ọ@@ 7
ἑ@@ 7
ἤ@@ 7
Ἠ@@ 7
ὸ 7
ῆ 7
‛ 7
∂ 7
∇ 7
♯ 7
ⰸ@@ 7
ⴰ@@ 7
ま@@ 7
ろ@@ 7
ノ@@ 7
バ@@ 7
フ@@ 7
ブ@@ 7
ワ@@ 7
下@@ 7
中国@@ 7
二@@ 7
井@@ 7
仮@@ 7
史@@ 7
合@@ 7
周@@ 7
士 7
天 7
富@@ 7
平@@ 7
成@@ 7
所 7
易@@ 7
星@@ 7
時@@ 7
月@@ 7
林 7
水 7
清@@ 7
王 7
珠@@ 7
生 7
生@@ 7
皇 7
空@@ 7
紫@@ 7
術 7
読@@ 7
语 7
長@@ 7
防@@ 7
陳@@ 7
隊 7
ꙋ 7
구 7
기@@ 7
날 7
녀@@ 7
려 7
록@@ 7
백@@ 7
수 7
압@@ 7
유@@ 7
인@@ 7
자@@ 7
화 7
Aleksand@@ 6
Amt 6
Amér@@ 6
Asociación 6
Atlé@@ 6
Ağ@@ 6
Bau 6
Belgique 6
Bretagne 6
Buch 6
Carrière 6
Deniz 6
Departamento 6
Depor@@ 6
Dez@@ 6
Dienst@@ 6
División 6
Dokum@@ 6
Eig@@ 6
Eigen@@ 6
Ende 6
Entwicklung 6
Escu@@ 6
Eski 6
Gleich@@ 6
González 6
Gord@@ 6
Haup@@ 6
Hü@@ 6
Ih@@ 6
Isra@@ 6
January 6
Kih@@ 6
Klein@@ 6
Kongr@@ 6
Kreis@@ 6
Köln 6
Kör@@ 6
Mara 6
Meister@@ 6
Män@@ 6
Mül@@ 6
Nga 6
Nguyễn 6
Orden 6
Oregon 6
Parlam@@ 6
Politik 6
Punk@@ 6
Refer@@ 6
Russie 6
Schauspi@@ 6
Schles@@ 6
Schrif@@ 6
Schweiz 6
Sommer@@ 6
Unión 6
Venezuela 6
Vladi@@ 6
Waf@@ 6
Waz@@ 6
Wieder@@ 6
Wirt@@ 6
Yen@@ 6
Yugoslav@@ 6
Zu 6
Zug@@ 6
aam 6
achten 6
adan 6
added 6
administr@@ 6
agricul@@ 6
aiss@@ 6
ajes 6
aku@@ 6
algo 6
almente 6
ammen@@ 6
amt@@ 6
anak@@ 6
anik@@ 6
anlığı 6
après 6
arca 6
areas 6
arka 6
army 6
arrang@@ 6
arro@@ 6
artist 6
arı 6
ases@@ 6
asim@@ 6
atik 6
autres 6
avant 6
banda 6
biri 6
brother 6
bö@@ 6
canti@@ 6
categ@@ 6
cathol@@ 6
cette 6
cez@@ 6
chas 6
chemin 6
cities 6
commune 6
communes 6
complet@@ 6
conoc@@ 6
consist@@ 6
could 6
coup 6
culo 6
dentro 6
derni@@ 6
dessin@@ 6
différ@@ 6
dioc@@ 6
dire@@ 6
distingu@@ 6
divers@@ 6
dua 6
dung 6
dungs@@ 6
déc@@ 6
dée 6
días 6
early 6
economic 6
ellik@@ 6
ellos 6
emente 6
emple@@ 6
enario 6
encias 6
equip@@ 6
erschi@@ 6
erste 6
erten 6
eure 6
existence 6
expos@@ 6
farm@@ 6
favor 6
femin@@ 6
following 6
gegen 6
gericht 6
gleich 6
gleich@@ 6
griech@@ 6
gü@@ 6
hall@@ 6
haup@@ 6
heavy 6
hiv@@ 6
hommes 6
huru 6
icios 6
ieren 6
igung 6
implement@@ 6
impos@@ 6
independ@@ 6
industry 6
ingly 6
innov@@ 6
investig@@ 6
iran 6
kale 6
kim 6
kleine 6
kommt 6
kräf@@ 6
kül@@ 6
kır@@ 6
landa 6
laun@@ 6
leading 6
league 6
legal 6
lemente 6
lere 6
letzte 6
lido 6
ligne 6
lir 6
manos 6
maz 6
mejor 6
members 6
menos 6
metro 6
ministr@@ 6
mita 6
month 6
moto 6
movement 6
municipal 6
mü@@ 6
nord 6
nouveau 6
novi@@ 6
nun 6
obra 6
occas@@ 6
ocho 6
océ@@ 6
onales 6
onu 6
oran@@ 6
orden@@ 6
orf 6
organiz@@ 6
osas 6
otur@@ 6
ouvr@@ 6
oya 6
parties 6
país 6
peu 6
pierre 6
pik 6
pili 6
pios 6
podr@@ 6
polici@@ 6
political 6
polé@@ 6
popular 6
posta 6
prac@@ 6
premier 6
primera 6
programme 6
provoc@@ 6
publican 6
published 6
pueblo 6
puiss@@ 6
puls@@ 6
quanti@@ 6
quez 6
reas 6
reci@@ 6
record@@ 6
refl@@ 6
refu@@ 6
rép@@ 6
sage 6
saire 6
scar 6
schaf@@ 6
seh@@ 6
seiner 6
selves 6
six@@ 6
sogen@@ 6
soon 6
southern 6
spiel@@ 6
spons@@ 6
starting 6
statisti@@ 6
sud 6
sí 6
sü@@ 6
takes 6
techniques 6
teh@@ 6
television 6
tend 6
thought 6
ticos 6
tif 6
tip 6
tisch 6
tish@@ 6
tnis 6
todo 6
toral 6
towards 6
tungs@@ 6
uelle 6
ufen 6
uko 6
ume@@ 6
units 6
uza 6
uzi 6
vit 6
volun@@ 6
wana 6
wani 6
wei@@ 6
wenn 6
woh@@ 6
worked 6
yap@@ 6
zed 6
zeit@@ 6
zentr@@ 6
zeuge 6
zwei 6
¨ 6
Á 6
Öl@@ 6
Üniversitesi 6
ái 6
äf@@ 6
ätze 6
çı 6
ède 6
ènes 6
éal 6
écn@@ 6
époque 6
érique 6
éroï@@ 6
éré 6
étude 6
ñas 6
ónom@@ 6
ôle 6
ût 6
üne 6
ÿ 6
Ć@@ 6
į@@ 6
ıl 6
ını 6
ķ@@ 6
ĺ 6
ľ 6
şu 6
ţ 6
Ž 6
ǽ@@ 6
ɕ 6
ɲ 6
ɲ@@ 6
ʁ 6
ˤ@@ 6
Άγ@@ 6
Αθή@@ 6
Αντι@@ 6
Αυγ@@ 6
Βασ@@ 6
Γαλλ@@ 6
Γερμαν@@ 6
Δεν 6
Εθνική 6
Εθνικό 6
Ειρ@@ 6
Εκκλη@@ 6
Ελλάδας 6
Ηρακλ@@ 6
Κό@@ 6
Μάν@@ 6
Μαν@@ 6
Ντα@@ 6
Νό@@ 6
Ορθ@@ 6
Π.@@ 6
Πορ@@ 6
Ρω@@ 6
Του@@ 6
Υπο@@ 6
άλ 6
άλλ@@ 6
άνα@@ 6
έργ@@ 6
έστ@@ 6
έτος 6
ήσεων 6
ίνων 6
ίχ@@ 6
αγγελ@@ 6
αγορ@@ 6
αγωγ@@ 6
αδελφ@@ 6
ακόμα 6
ανθ@@ 6
αντι@@ 6
ασία 6
ατο@@ 6
βαλ@@ 6
βαν@@ 6
βασιλ@@ 6
δας 6
δεκ@@ 6
δη@@ 6
δρά@@ 6
δω@@ 6
ειες 6
ειο 6
ελευθερ@@ 6
ελλην@@ 6
ετο@@ 6
ηθ@@ 6
θαλ@@ 6
θανά@@ 6
θω@@ 6
ιβ@@ 6
ιν 6
κο 6
κορ@@ 6
κρί@@ 6
κόμ@@ 6
λίγ@@ 6
λίμ@@ 6
λεξ@@ 6
λεύ@@ 6
λεύθερ@@ 6
λλογ@@ 6
μένης 6
μαθ@@ 6
μια 6
μορφ@@ 6
μπου@@ 6
νας 6
νη@@ 6
νο 6
ογραφ@@ 6
οδος 6
ονομ@@ 6
οσφαι@@ 6
ουδ@@ 6
πα 6
παθ@@ 6
προ 6
πτ@@ 6
ριακή 6
ροφ@@ 6
σκοπ@@ 6
σο@@ 6
στής 6
στην 6
στιαν@@ 6
συλλ@@ 6
συμβ@@ 6
ταγ@@ 6
τρου 6
τυπ@@ 6
τό@@ 6
υδ@@ 6
φθ@@ 6
φι@@ 6
φλ@@ 6
χα 6
χρή@@ 6
όλη 6
όνες 6
όνη 6
όνων 6
όρ 6
ότι 6
ϛ 6
Ϫ@@ 6
Ё@@ 6
Республики 6
Федерации 6
Фё@@ 6
ваний 6
всей 6
всё 6
входи@@ 6
вёр@@ 6
города 6
двух 6
исследовате@@ 6
лась 6
людей 6
мать 6
монасты@@ 6
мыш@@ 6
нении 6
октя@@ 6
приня@@ 6
произо@@ 6
происхо@@ 6
рию 6
руковод@@ 6
самого 6
силы 6
скую 6
собствен@@ 6
соеди@@ 6
соответ@@ 6
состав@@ 6
тической 6
тная 6
тных 6
тые 6
упомина@@ 6
ходит 6
цкого 6
ческих 6
честь 6
чного 6
чных 6
эро@@ 6
ющая 6
ён 6
ѓ 6
ѕ 6
Ѳ@@ 6
Ҍ 6
ґ 6
ґ@@ 6
ғ 6
ҕ@@ 6
ҙ@@ 6
ү 6
Ҳ 6
Ӏ 6
ӄ 6
ӈ 6
ӏ@@ 6
Ӓ 6
Ӕ 6
ӗ 6
Ӡ 6
Ӭ 6
Ԥ 6
կ 6
ռ@@ 6
ք@@ 6
، 6
ات@@ 6
الت@@ 6
المع@@ 6
ام 6
با@@ 6
تا@@ 6
تَ@@ 6
ث 6
جن@@ 6
رب@@ 6
زي@@ 6
سى 6
سي@@ 6
ص 6
ع 6
فَ@@ 6
قَ@@ 6
قُ@@ 6
لة 6
وج@@ 6
يل 6
يم@@ 6
يون@@ 6
ٍ 6
ې 6
ܕ@@ 6
ܥ@@ 6
ܪ@@ 6
क@@ 6
तन 6
ध 6
धर 6
धि 6
बो@@ 6
महा@@ 6
मा@@ 6
ং@@ 6
হ@@ 6
க@@ 6
ா@@ 6
มหา@@ 6
ย@@ 6
ມ 6
ູ 6
ົ 6
ໃ@@ 6
ཆ@@ 6
ྡ@@ 6
း 6
რ 6
ყ@@ 6
ც@@ 6
ჯ@@ 6
ជ 6
ណ@@ 6
ត 6
ា 6
័ 6
ḇ@@ 6
ḗ@@ 6
ế 6
ồ@@ 6
ὲ@@ 6
ῳ@@ 6
‖ 6
ℝ@@ 6
℮ 6
⇄ 6
∙ 6
ⱌ@@ 6
。 6
う 6
く@@ 6
け 6
け@@ 6
っ@@ 6
の 6
は@@ 6
む@@ 6
オ@@ 6
ス 6
チ@@ 6
上 6
交@@ 6
仲@@ 6
信@@ 6
修@@ 6
元@@ 6
先@@ 6
六@@ 6
兵 6
冀@@ 6
別@@ 6
功 6
勇@@ 6
動@@ 6
化@@ 6
同@@ 6
名 6
唐@@ 6
多@@ 6
大 6
女 6
學 6
寺 6
小@@ 6
府 6
御@@ 6
愛@@ 6
我@@ 6
斯@@ 6
方@@ 6
普@@ 6
機 6
法@@ 6
波 6
白 6
皇@@ 6
皖@@ 6
精@@ 6
羅 6
自@@ 6
舟@@ 6
艦@@ 6
良@@ 6
茶 6
行政@@ 6
觀@@ 6
都 6
野@@ 6
闘@@ 6
门 6
阿@@ 6
陽@@ 6
際@@ 6
音 6
香@@ 6
馬@@ 6
黑@@ 6
龍 6
ꙋ@@ 6
광@@ 6
국 6
금@@ 6
동@@ 6
로 6
말 6
북@@ 6
세 6
수@@ 6
승@@ 6
아 6
요 6
원@@ 6
주 6
투@@ 6
， 6
ABD 5
Alger@@ 5
Amérique 5
Ankara 5
Architek@@ 5
Asoci@@ 5
Ayr@@ 5
Bien 5
Bruder 5
Bürgermeister 5
Cathol@@ 5
Cumhuriy@@ 5
Devlet 5
Ecu@@ 5
Eliz@@ 5
Flü@@ 5
Following 5
Forsch@@ 5
Gatt@@ 5
Geographie 5
Gobierno 5
Gök@@ 5
Gür@@ 5
Hanno@@ 5
Hek@@ 5
Hiv@@ 5
Hockey 5
However 5
Jahrhunderts 5
Janu@@ 5
Juli 5
Kamer@@ 5
Kig@@ 5
Kirch@@ 5
Kiy@@ 5
Krieg 5
Kuvvet@@ 5
Kül@@ 5
Kız@@ 5
Landkreis 5
Loan 5
Mehmet 5
Mehr@@ 5
Meister 5
Melbourne 5
Minister 5
Ms@@ 5
Municipal 5
Mustafa 5
Nach 5
Nair@@ 5
Norden 5
Olimpi@@ 5
Pakistan 5
Philippines 5
Raum 5
Rica 5
Russ@@ 5
Rück@@ 5
Salaam 5
Sez@@ 5
Sommer 5
Staff@@ 5
Staffel 5
Stil 5
Trần 5
Türkçe 5
Uy@@ 5
Venedi@@ 5
Vor 5
Wasser 5
Yaş@@ 5
Yüz@@ 5
Zentrum 5
Zusammen@@ 5
abab@@ 5
abad 5
aband@@ 5
abier@@ 5
abs@@ 5
acces@@ 5
actr@@ 5
addition 5
agent 5
aji@@ 5
alif@@ 5
along 5
altı 5
appel@@ 5
appr@@ 5
arded 5
articles 5
asına 5
ateurs 5
atür@@ 5
ayant 5
azim@@ 5
azu 5
aße 5
best@@ 5
bisher 5
brahim 5
bâ@@ 5
caso 5
cela 5
celebr@@ 5
celle 5
cerc@@ 5
champi@@ 5
changed 5
charge 5
chten 5
château 5
closed 5
comer@@ 5
compr@@ 5
comprom@@ 5
considered 5
contribu@@ 5
cour 5
cred@@ 5
crisis 5
daki 5
dari 5
dağ@@ 5
deal 5
dered 5
dernier 5
desc@@ 5
design@@ 5
determin@@ 5
devant 5
dient 5
different 5
digung 5
direk@@ 5
dispon@@ 5
district 5
doba 5
donde 5
dose 5
drit@@ 5
démoc@@ 5
ehe 5
elektr@@ 5
elik 5
elte 5
ematik 5
endem@@ 5
energ@@ 5
enheit 5
entaire 5
enzi 5
ersten 5
esas 5
esqu@@ 5
estat@@ 5
estim@@ 5
ewa 5
facil@@ 5
famous 5
favor@@ 5
feu@@ 5
fich@@ 5
fines 5
fluss 5
followed 5
football 5
fü@@ 5
führung 5
ganz@@ 5
gouvernement 5
großen 5
gün 5
haut 5
higher 5
hilo 5
hombres 5
honor 5
hâ@@ 5
ichts 5
ifs 5
ifu@@ 5
igkeit 5
iler@@ 5
ilçe 5
imu 5
including 5
inclus@@ 5
incorpor@@ 5
individu@@ 5
indo 5
itself 5
jina 5
kais@@ 5
kari@@ 5
kazan@@ 5
kea 5
kehr@@ 5
kein 5
khi 5
kiz@@ 5
klass@@ 5
kuj@@ 5
kung 5
kör@@ 5
lado 5
lanc@@ 5
langen 5
least 5
leist@@ 5
leti 5
leva 5
lez 5
lieu 5
liği 5
lowing 5
luch@@ 5
luk@@ 5
lég@@ 5
lü 5
lık@@ 5
magaz@@ 5
mains 5
mbH 5
means 5
medio 5
meeting 5
mek 5
menor 5
meter 5
minister 5
minute 5
mite 5
mitt@@ 5
mittel@@ 5
moja 5
motiv@@ 5
mouvement 5
moved 5
mê@@ 5
mün@@ 5
naf@@ 5
neuen 5
ngu@@ 5
nine 5
nje 5
novel 5
nungen 5
official 5
offs 5
oires 5
ologne 5
oppos@@ 5
opér@@ 5
orod@@ 5
partamento 5
parti 5
partment 5
passe 5
pek 5
period 5
pok@@ 5
polic@@ 5
pou@@ 5
previous 5
proces@@ 5
professional 5
professor 5
propag@@ 5
propre 5
protest@@ 5
puis 5
quartier 5
quelle 5
reco@@ 5
registr@@ 5
religie@@ 5
rence 5
renov@@ 5
represent@@ 5
resid@@ 5
restaur@@ 5
reve@@ 5
richt 5
rière 5
role 5
réc@@ 5
rée 5
rév@@ 5
schnitt 5
seen 5
sehen 5
seur 5
signific@@ 5
significant 5
sister 5
sona 5
stations 5
steht 5
sö@@ 5
sız 5
tambu@@ 5
teatro 5
telef@@ 5
temper@@ 5
temple 5
territ@@ 5
tesi 5
tham 5
tiene 5
tigung 5
titul@@ 5
tournament 5
training 5
trouv@@ 5
très 5
tín 5
tı 5
umbe 5
university 5
uras 5
utili@@ 5
utsch@@ 5
uw@@ 5
vek@@ 5
veloc@@ 5
venti@@ 5
verdi 5
victory 5
vide@@ 5
voix 5
wand@@ 5
wanda 5
wieder 5
wissenschaft@@ 5
yaş@@ 5
ycidae 5
ymnasium 5
yse 5
zeichen 5
zh 5
zig 5
Ál@@ 5
Ét@@ 5
Ô@@ 5
Þ 5
ático 5
ähn@@ 5
äre 5
äts@@ 5
ätten 5
äß@@ 5
çu 5
économ@@ 5
édi@@ 5
ément 5
étés 5
évision 5
óg@@ 5
ôt 5
öne 5
ösung 5
ùa 5
út 5
üre@@ 5
üsü 5
üzel 5
đa 5
İş@@ 5
ıf 5
ıf@@ 5
Œ 5
œ 5
şe 5
ŵ@@ 5
ſ@@ 5
ǵ@@ 5
ɟ 5
ʔ 5
ʕ@@ 5
ʹ@@ 5
ˆ 5
̈ 5
̟ 5
Ένα 5
Ένωση 5
Αν 5
Ατ@@ 5
Αυ@@ 5
Γεωργ@@ 5
Δημο@@ 5
Ελλήνων 5
Λόγ@@ 5
Μερ@@ 5
Μιχα@@ 5
Μουσείο 5
Ντέ@@ 5
ΠΑ 5
Πρά@@ 5
Πρώ@@ 5
Σ. 5
Υπουργ@@ 5
Φερ@@ 5
Φραγκ@@ 5
άρη 5
άσκ@@ 5
έας 5
έδ@@ 5
έμπ@@ 5
ήσεις 5
ήτης 5
ίδων 5
ίλι@@ 5
ΰ 5
αίου 5
αδερ@@ 5
αιν@@ 5
ανέ@@ 5
ανή@@ 5
αναγνω@@ 5
αρμ@@ 5
βελ@@ 5
γι 5
γραμ@@ 5
γραφία 5
δίας 5
δημ@@ 5
διορ@@ 5
διώ@@ 5
δο 5
δρα@@ 5
εθν@@ 5
ειας 5
ενός 5
εω@@ 5
εων 5
ζή@@ 5
θε 5
θερμ@@ 5
θυμ@@ 5
ισμα 5
κί@@ 5
κη@@ 5
κοιν@@ 5
κολ@@ 5
κρατ@@ 5
κυρι@@ 5
κωμ@@ 5
λιο 5
λλην@@ 5
μένων 5
μέσ@@ 5
μαλ@@ 5
μικρ@@ 5
μιλ@@ 5
μορ@@ 5
ναός 5
νησι@@ 5
ντ@@ 5
νύ@@ 5
ξέν@@ 5
ξε 5
ογραφία 5
οικογέν@@ 5
ονίας 5
ουν 5
ουργ@@ 5
παρα@@ 5
παρχ@@ 5
πεδ@@ 5
πλατ@@ 5
πον@@ 5
πρά@@ 5
πρωτο@@ 5
πύ@@ 5
ράφ@@ 5
ραφ@@ 5
ρες 5
ριζ@@ 5
ρικ@@ 5
ριο 5
ροπ@@ 5
σαν 5
σαρ@@ 5
σας 5
σει 5
σκοτ@@ 5
σμός 5
στήρ@@ 5
στρατηγ@@ 5
τάφ@@ 5
τές 5
τήρ@@ 5
τίτ@@ 5
τια 5
τικού 5
τροπή 5
φαιν@@ 5
φυλ@@ 5
ωνα 5
όλα@@ 5
όμεν@@ 5
όνα 5
όντων 5
όπο@@ 5
όργαν@@ 5
ύγ@@ 5
ϑ@@ 5
ϕ 5
Є 5
Великой 5
Германии 5
Распо@@ 5
артилле@@ 5
внеш@@ 5
внутрен@@ 5
возгла@@ 5
вского 5
вую 5
вшие 5
выс@@ 5
государства 5
жений 5
игр 5
играх 5
кает 5
класси@@ 5
конца 5
лишь 5
льные 5
музыка@@ 5
ниям 5
нового 5
объя@@ 5
перед 5
районе 5
располо@@ 5
риаль@@ 5
роль 5
своей 5
сдела@@ 5
сколь@@ 5
создания 5
сотруд@@ 5
утвер@@ 5
чего 5
шую 5
шёл 5
щего 5
экономи@@ 5
эле@@ 5
эта@@ 5
ён@@ 5
ђ 5
Ѭ 5
ѯ 5
Ѵ 5
Ѹ@@ 5
Ғ 5
Ҕ 5
ң 5
Ҧ 5
ҧ@@ 5
ҫ 5
Ҷ 5
Ӆ 5
Ӊ 5
Ӝ 5
Ӧ 5
Ӯ 5
ӳ@@ 5
Ӷ 5
ӹ 5
Ս@@ 5
լ 5
չ@@ 5
ջ@@ 5
ց 5
փ@@ 5
ח 5
ץ 5
ء 5
أحمد 5
ابن 5
احمد 5
اد 5
از@@ 5
اس 5
الب@@ 5
المن@@ 5
اني 5
باد 5
بر@@ 5
بي 5
بي@@ 5
تح@@ 5
جة 5
حم@@ 5
خان 5
خو@@ 5
دان 5
ري 5
سم@@ 5
ض@@ 5
ظ@@ 5
عز@@ 5
عل@@ 5
على 5
علي 5
عُ@@ 5
قل@@ 5
كان 5
لا@@ 5
مب@@ 5
مر@@ 5
نج@@ 5
نص@@ 5
نُ@@ 5
وة 5
ود 5
ول@@ 5
يا 5
ير@@ 5
ين@@ 5
يو 5
يَ@@ 5
ۡ 5
ܐ@@ 5
ܚ@@ 5
ܬ@@ 5
कर 5
का 5
का@@ 5
ति 5
न@@ 5
प@@ 5
य@@ 5
व 5
व@@ 5
श@@ 5
सम 5
ত@@ 5
শ@@ 5
ী@@ 5
ਰ@@ 5
ਿ@@ 5
ా@@ 5
ರ@@ 5
ಿ@@ 5
ก@@ 5
บ@@ 5
บาท@@ 5
ปร@@ 5
ล@@ 5
สม@@ 5
เด 5
็ 5
่ 5
ທ@@ 5
ມ@@ 5
ອ@@ 5
ག 5
ཐ@@ 5
ད@@ 5
ི 5
ུ 5
ྗ@@ 5
န 5
အ@@ 5
ေ@@ 5
ტ 5
គ 5
ល@@ 5
ិ@@ 5
ឹ@@ 5
េ@@ 5
ះ@@ 5
ḱ 5
ṇ 5
Ṭ@@ 5
ạn 5
ẹ 5
ἅ@@ 5
Ἅ@@ 5
ἕ@@ 5
Ἔ@@ 5
ἵ@@ 5
ὤ@@ 5
ᾶ 5
₤ 5
ℝ 5
⇋ 5
∼ 5
⊙ 5
■ 5
☆ 5
ⰳ@@ 5
ⰶ@@ 5
ⱂ@@ 5
ⱈ@@ 5
ⱜ@@ 5
え@@ 5
き 5
く 5
こ@@ 5
ざ 5
す 5
た 5
つ 5
ぱ@@ 5
ふ@@ 5
む 5
よ@@ 5
る@@ 5
ア 5
コ@@ 5
ダ@@ 5
ド@@ 5
ナ@@ 5
ニ@@ 5
パ@@ 5
ボ@@ 5
ヴ@@ 5
三 5
丹@@ 5
之 5
事件 5
代@@ 5
伐 5
作@@ 5
光@@ 5
克@@ 5
出@@ 5
北 5
友@@ 5
台@@ 5
回@@ 5
國 5
城@@ 5
外@@ 5
宗 5
宫 5
家@@ 5
密 5
尔@@ 5
川 5
帝 5
平 5
康 5
影 5
德 5
德@@ 5
心@@ 5
憲@@ 5
拳 5
教 5
斬@@ 5
森 5
歌@@ 5
死@@ 5
氏 5
治@@ 5
火@@ 5
玉@@ 5
的@@ 5
直@@ 5
真@@ 5
突@@ 5
粤@@ 5
红@@ 5
聖@@ 5
茶@@ 5
菜 5
衛@@ 5
見 5
軍 5
進@@ 5
道@@ 5
郎@@ 5
門@@ 5
陽 5
電@@ 5
青@@ 5
館 5
首@@ 5
黄@@ 5
Ꚋ 5
내@@ 5
로@@ 5
만 5
면 5
모@@ 5
물 5
바@@ 5
벌 5
선 5
신 5
신@@ 5
우 5
우@@ 5
운@@ 5
지@@ 5
한 5
해 5
화@@ 5
Allem@@ 4
Angleterre 4
Avec 4
Bahnhof 4
Barcel@@ 4
Bas 4
Benjam@@ 4
Beruf@@ 4
Beş@@ 4
Biblia 4
Büyük@@ 4
Campeonato 4
Córdoba 4
Dar 4
Desde 4
Dorf@@ 4
Eduardo 4
Familie 4
Genel 4
Geometridae 4
Guatemala 4
Hier 4
Holz@@ 4
Hungary 4
Höh@@ 4
Ils 4
Janeiro 4
Jeux 4
Juegos 4
Kazak@@ 4
Kich@@ 4
Kongo 4
Kult@@ 4
Lauf@@ 4
Lond@@ 4
Maji 4
Mf@@ 4
Mwan@@ 4
Müd@@ 4
Nguy@@ 4
Orta 4
Palest@@ 4
Partisi 4
Primera 4
Proz@@ 4
Rodríguez 4
Schiff@@ 4
Schlacht 4
Sein 4
Sitz 4
Siy@@ 4
Sous 4
Staaten 4
Stelle 4
Sân 4
Sơn 4
Ufa 4
Umw@@ 4
Verkehr@@ 4
Văn 4
Wahl@@ 4
Westen 4
Wirtschaft 4
Yoh@@ 4
Yug@@ 4
Yüksek 4
Zimbab@@ 4
Zwischen 4
Zür@@ 4
abandon@@ 4
abara 4
abord 4
acak@@ 4
adapt@@ 4
ailleurs 4
airman 4
akter 4
aliza 4
allemande 4
almost 4
alık 4
ambao 4
amini 4
ammad 4
ammen 4
américa 4
amı 4
anah@@ 4
andere 4
anglais 4
anische 4
anlı 4
aparec@@ 4
appel 4
arak 4
aray 4
arbeit@@ 4
armas 4
armée 4
arron@@ 4
asit@@ 4
association 4
atas@@ 4
atta@@ 4
autre 4
axe 4
años 4
bado 4
baya 4
became 4
because 4
beim 4
bere@@ 4
betrieb@@ 4
biet@@ 4
bild 4
buni 4
cabeza 4
cai 4
calle 4
campo 4
canción 4
cantante 4
casos 4
centre 4
cero 4
chama 4
changes 4
chaque 4
ciné@@ 4
claim@@ 4
comman@@ 4
como 4
compagnie 4
companies 4
competition 4
composed 4
comunic@@ 4
consum@@ 4
culos 4
cultiv@@ 4
cé@@ 4
daher 4
dair 4
decre@@ 4
dedi@@ 4
denen 4
depuis 4
desde 4
dessus 4
deut@@ 4
dicho 4
dispar@@ 4
diye 4
doch 4
doctor@@ 4
domaine 4
ecken 4
eigen@@ 4
eigene 4
eight 4
einmal 4
eint 4
ejec@@ 4
embar@@ 4
enseign@@ 4
enst 4
entire 4
enton@@ 4
erini 4
erre@@ 4
erse 4
escal@@ 4
estos 4
etzt 4
eures 4
eviz@@ 4
eñ@@ 4
fabric@@ 4
fois 4
forced 4
formed 4
furt 4
führ@@ 4
gabe 4
genre 4
gien 4
grands 4
génér@@ 4
gün@@ 4
haya 4
heures 4
hosp@@ 4
hospital 4
ichen 4
ichten 4
ición 4
ierten 4
igt 4
igte 4
igual 4
ihn 4
ihrer 4
ilan 4
iliano 4
important 4
importante 4
inan@@ 4
inaugur@@ 4
industri@@ 4
insi 4
inten@@ 4
irani 4
irik@@ 4
isant 4
isla 4
islas 4
itions 4
ität 4
izm 4
jamais 4
jia 4
jini 4
junto 4
jüd@@ 4
kali 4
kamen 4
kati 4
kati@@ 4
kaç@@ 4
keiten 4
kek 4
kez 4
keş@@ 4
kich@@ 4
killed 4
kiye 4
kli 4
kte 4
kuch@@ 4
kuk@@ 4
kush@@ 4
kämp@@ 4
kü 4
kın 4
laka 4
lauf 4
leaving 4
lengu@@ 4
letzten 4
lieder 4
longu@@ 4
lugar 4
luy@@ 4
luz 4
lés 4
lü@@ 4
lük 4
mada 4
manif@@ 4
marri@@ 4
maç@@ 4
mbal@@ 4
mercado 4
mez 4
mip@@ 4
mique 4
mismo 4
mobil@@ 4
modern@@ 4
much@@ 4
muer@@ 4
más 4
mé 4
nda 4
neutr@@ 4
nh 4
nhof 4
nisse 4
nok@@ 4
née 4
nö@@ 4
năm 4
nın 4
oblig@@ 4
ockey 4
ogoro 4
ológ@@ 4
onnes 4
ordre 4
organis@@ 4
oría 4
ouverneur 4
où 4
pak@@ 4
particip@@ 4
partie 4
pata 4
personnes 4
places 4
populaire 4
ported 4
portes 4
portr@@ 4
positive 4
premi@@ 4
prepar@@ 4
present@@ 4
presid@@ 4
presse 4
primer 4
principal 4
professi@@ 4
programs 4
promin@@ 4
propos@@ 4
provide 4
province 4
prä@@ 4
pró@@ 4
puede 4
puis@@ 4
punto 4
pér@@ 4
quan 4
quán 4
rebel@@ 4
recht@@ 4
recogni@@ 4
recu@@ 4
relationship 4
religion 4
reno 4
requi@@ 4
retour 4
rique 4
rugby 4
rund 4
runs 4
russe 4
réalis@@ 4
sau 4
schutz 4
seat 4
sector 4
sek 4
selb@@ 4
selben 4
senc@@ 4
senior 4
seul@@ 4
sieben 4
singi 4
sources 4
south 4
sprach@@ 4
student 4
subj@@ 4
supported 4
supérieur 4
surviv@@ 4
taille 4
tained 4
taking 4
tario 4
taus@@ 4
teki 4
tete 4
though 4
timents 4
timm@@ 4
tourn@@ 4
trieb@@ 4
trique 4
tán 4
tér@@ 4
tête 4
ucky 4
ucu 4
umani 4
unden 4
undu 4
ungu 4
urch 4
uç@@ 4
verz@@ 4
vient 4
viles 4
vingt 4
và 4
waka 4
werk@@ 4
wirtschaft@@ 4
woll@@ 4
wuch@@ 4
yol 4
zentrum 4
zey 4
zieh@@ 4
ziy@@ 4
zäh@@ 4
¸ 4
Église 4
Õ@@ 4
Ül@@ 4
ách 4
áp 4
ática 4
ändern 4
ären 4
äuf@@ 4
äuser 4
écr@@ 4
écu@@ 4
ército 4
était 4
ím@@ 4
íncipe 4
íos 4
île 4
óc 4
óm 4
öm@@ 4
öße 4
üç@@ 4
üçük 4
üğü 4
Ă 4
Ă@@ 4
Đ 4
Đông 4
đe 4
ġ 4
Ħ@@ 4
ĩ@@ 4
į 4
İl@@ 4
İz@@ 4
İzmir 4
ıc@@ 4
ıdır 4
ınlar 4
ıyor 4
ığ@@ 4
Ǎ 4
ț 4
ɕ@@ 4
ɡ 4
ɤ@@ 4
ɫ 4
ɹ@@ 4
ʀ 4
ʷ@@ 4
ʻ 4
˘ 4
̌ 4
͂ 4
Όσ@@ 4
Αυτή 4
Δημοκρατ@@ 4
Εθν@@ 4
Ευρ@@ 4
Ιουλίου 4
Κεντρ@@ 4
Κρή@@ 4
Κρο@@ 4
Κωνστ@@ 4
Με 4
Μπαρ@@ 4
Παι@@ 4
Πατρι@@ 4
Προσ@@ 4
Ρωμαϊκ@@ 4
Ρώ@@ 4
Στην 4
Σχ@@ 4
Σύν@@ 4
Τε@@ 4
άδια 4
άθ@@ 4
άλογ@@ 4
άνδρ@@ 4
άντ@@ 4
άνω 4
άστ@@ 4
άτων 4
έτη 4
ήλ@@ 4
ήνης 4
ήχ@@ 4
ίνι 4
αίσ@@ 4
ανίας 4
ανο@@ 4
αντά@@ 4
αρίου 4
αρκ@@ 4
ασμ@@ 4
αυτής 4
αφιερ@@ 4
βάλ@@ 4
βη@@ 4
βολή 4
βορ@@ 4
βρά@@ 4
γερ@@ 4
γεω@@ 4
γιο 4
γου@@ 4
γρα@@ 4
γυ@@ 4
γύ@@ 4
δευ@@ 4
δουλ@@ 4
δό@@ 4
είς 4
είσ@@ 4
ευγ@@ 4
ηλε@@ 4
ητής 4
ηχαν@@ 4
θλ@@ 4
θυν@@ 4
ινή 4
ιστής 4
ιστορ@@ 4
και@@ 4
κε@@ 4
κει@@ 4
κεφ@@ 4
κλι@@ 4
κρά@@ 4
κυκλ@@ 4
λέγ@@ 4
λευθέρ@@ 4
μάχ@@ 4
μένος 4
μία 4
μακρ@@ 4
μορφή 4
μουν@@ 4
μπι 4
μπού@@ 4
ναν 4
νες 4
νό@@ 4
ξης 4
ογράφ@@ 4
οιν@@ 4
οκομ@@ 4
ορφ@@ 4
ουμε 4
ούν 4
ούργ@@ 4
πίσ@@ 4
παλ@@ 4
παρακ@@ 4
παραλ@@ 4
πνευ@@ 4
πολιτική 4
πολυ@@ 4
πολύ@@ 4
ποταμ@@ 4
πουργ@@ 4
πρι@@ 4
πρό@@ 4
πυρο@@ 4
ρή 4
ρή@@ 4
ρική 4
ρισ@@ 4
σβ@@ 4
σεν@@ 4
σημ@@ 4
σκην@@ 4
στήρι@@ 4
στολ@@ 4
τεία 4
τελευτα@@ 4
τηρ@@ 4
τικών 4
τισμού 4
τοιχ@@ 4
τορίας 4
τούν 4
τροφ@@ 4
τυχ@@ 4
φάν@@ 4
φέρ@@ 4
φαλ@@ 4
φιλοσοφ@@ 4
φρα@@ 4
φυσ@@ 4
χριστιαν@@ 4
ψη 4
ωβ@@ 4
ωνστ@@ 4
ϋ@@ 4
όλα 4
όλων 4
όμα 4
όπου 4
όπουλ@@ 4
όρων 4
όσια 4
ύπ@@ 4
ώνων 4
Москве 4
США 4
альбом 4
бассе@@ 4
были 4
вает 4
возможно 4
возра@@ 4
войск 4
всего 4
городе 4
дать 4
еся 4
еты 4
ещё 4
жении 4
жё@@ 4
игры 4
исклю@@ 4
июля 4
йских 4
ковых 4
который 4
лось 4
льном 4
начале 4
началь@@ 4
ниями 4
объеди@@ 4
переда@@ 4
полно@@ 4
промышлен@@ 4
работ 4
распростра@@ 4
расска@@ 4
резуль@@ 4
рует 4
своих 4
сезоне 4
системы 4
скоре 4
смерти 4
создан@@ 4
сообще@@ 4
ступа@@ 4
также 4
тного 4
университете 4
уничто@@ 4
февра@@ 4
ходе 4
щее 4
щей 4
эй@@ 4
экономиче@@ 4
энер@@ 4
эти@@ 4
ённых 4
ёр 4
ётся 4
њ 4
ѱ 4
Ѹ 4
Ҋ 4
Ҏ 4
ҙ 4
Ҟ 4
Ҡ 4
Ҵ 4
ҷ@@ 4
Ӌ 4
Ӎ 4
ӑ 4
ӕ 4
ӕ@@ 4
ӱ 4
ԓ 4
Բ@@ 4
Խ@@ 4
Պ@@ 4
Ք@@ 4
ա 4
ը 4
խ 4
մ 4
տ 4
ֱ@@ 4
ׂ@@ 4
װ@@ 4
ائ@@ 4
اب 4
ات 4
الخ@@ 4
الد@@ 4
الدین 4
السلام 4
الص@@ 4
الغ@@ 4
اَ@@ 4
ای 4
ای@@ 4
باب 4
بد@@ 4
بر 4
برو@@ 4
به 4
بيد 4
تِ 4
حر@@ 4
دا@@ 4
داء 4
در 4
دي@@ 4
راء 4
رو@@ 4
ز 4
سن@@ 4
شاد 4
شه@@ 4
عر@@ 4
علا@@ 4
عي@@ 4
عَ@@ 4
قطر 4
كل 4
كو@@ 4
لل@@ 4
لو@@ 4
لی 4
ماء 4
مان 4
مان@@ 4
مح@@ 4
مد 4
مد@@ 4
مر 4
مرا@@ 4
مق@@ 4
مل 4
مه 4
مه@@ 4
مُ@@ 4
نظ@@ 4
نَ@@ 4
وادي 4
وع@@ 4
ون 4
ون@@ 4
وي 4
يوم 4
ژ@@ 4
ک@@ 4
کن@@ 4
گ@@ 4
ہ@@ 4
ܣ@@ 4
ܩ@@ 4
ܪ 4
को@@ 4
ख 4
ग@@ 4
ज 4
जय 4
ट 4
दी@@ 4
दु@@ 4
धि@@ 4
पा@@ 4
बुद 4
भ@@ 4
मो@@ 4
या 4
योग 4
रो@@ 4
ल 4
ला 4
वर 4
सिंह 4
ক 4
খ@@ 4
ঘ@@ 4
ণ 4
দ 4
দ@@ 4
য@@ 4
ষ 4
ো@@ 4
ੰ@@ 4
த@@ 4
ు 4
ವ@@ 4
ಾ@@ 4
กอง@@ 4
ง 4
ทัพ@@ 4
ร@@ 4
รา@@ 4
ว 4
ห@@ 4
ฯ 4
ิน@@ 4
ຂ@@ 4
ຫ@@ 4
ິ@@ 4
ໄ@@ 4
ཁ@@ 4
ཏ@@ 4
ད 4
བ 4
ཡ@@ 4
ྒ@@ 4
ထ@@ 4
သ@@ 4
በ@@ 4
ថ 4
ធ@@ 4
ួ@@ 4
ᠠ@@ 4
ḍ 4
ṡ@@ 4
Ἆ@@ 4
Ἕ@@ 4
Ὁ 4
ὖ@@ 4
Ὑ@@ 4
ὡ@@ 4
ὰ@@ 4
ὲ 4
ῇ 4
ῠ@@ 4
Ῥ@@ 4
ῷ@@ 4
‥ 4
₃ 4
℃ 4
⇌ 4
▪ 4
♀ 4
ⵉ@@ 4
、 4
ぎ@@ 4
さ@@ 4
じ@@ 4
せ@@ 4
て 4
は 4
ば 4
ひ@@ 4
ゃ@@ 4
ら 4
れ@@ 4
ァ@@ 4
ィ@@ 4
ウ@@ 4
ケ 4
コ 4
メ@@ 4
ヴ 4
世界 4
他@@ 4
仙 4
代 4
伝 4
佛@@ 4
使 4
保@@ 4
倒@@ 4
內@@ 4
全@@ 4
兵@@ 4
内@@ 4
切@@ 4
前 4
労@@ 4
南省 4
博@@ 4
卫@@ 4
原@@ 4
口 4
司 4
司@@ 4
吉@@ 4
君@@ 4
和 4
善 4
园 4
堂 4
場 4
壇 4
夏@@ 4
夫 4
夫@@ 4
孫@@ 4
宁@@ 4
守@@ 4
宗@@ 4
寿@@ 4
少@@ 4
岩@@ 4
師 4
年 4
徐 4
思@@ 4
所@@ 4
技 4
掛@@ 4
攻@@ 4
新 4
景 4
書@@ 4
會 4
朝@@ 4
李@@ 4
東 4
林@@ 4
柳@@ 4
極 4
極@@ 4
楷@@ 4
標@@ 4
機@@ 4
武 4
气 4
気 4
決@@ 4
沙@@ 4
波@@ 4
洋@@ 4
津@@ 4
流@@ 4
海 4
港@@ 4
湾 4
火 4
爾 4
狐 4
班@@ 4
町 4
發 4
相@@ 4
真 4
着@@ 4
秋@@ 4
秦@@ 4
端@@ 4
竹@@ 4
篆@@ 4
紅@@ 4
終@@ 4
経@@ 4
线 4
羅@@ 4
美@@ 4
義@@ 4
老@@ 4
舞@@ 4
色@@ 4
草 4
菩@@ 4
華@@ 4
詩@@ 4
話 4
誠 4
词 4
话 4
豫@@ 4
賀@@ 4
返@@ 4
部@@ 4
都@@ 4
里 4
金 4
鉄@@ 4
間@@ 4
関@@ 4
际@@ 4
院 4
隆@@ 4
雨@@ 4
雷@@ 4
鲁@@ 4
麗 4
Ꙗ 4
Ꙟ 4
가@@ 4
군 4
궁 4
궁@@ 4
근@@ 4
기 4
난 4
너@@ 4
는 4
동 4
드@@ 4
명 4
미@@ 4
방@@ 4
보@@ 4
부@@ 4
산@@ 4
손 4
알@@ 4
야 4
어 4
울@@ 4
윤@@ 4
의 4
일@@ 4
정 4
족 4
천 4
최@@ 4
희 4
𐎺@@ 4
𐎼@@ 4
Adem@@ 3
Afgh@@ 3
Allemagne 3
Amerik@@ 3
Arkansas 3
Außen@@ 3
Avrupa 3
Ayn@@ 3
Bahn@@ 3
Beim 3
Besch@@ 3
Betrieb@@ 3
Ces 3
Chine 3
Cumhuriyeti 3
Cộng 3
Devleti 3
Dorf 3
Dort 3
Ermen@@ 3
Espagne 3
Ethiop@@ 3
Eurov@@ 3
Finanz@@ 3
Funktion 3
Garc@@ 3
Gemeinden 3
Ghana 3
Grund 3
Heimat@@ 3
Ihre 3
Jahres 3
Japon 3
Kateg@@ 3
Kent@@ 3
Kirche 3
Kiswahili 3
Kön@@ 3
Lan 3
Lincol@@ 3
Linie 3
Liste 3
Londres 3
López 3
Namen 3
Noctu@@ 3
Nä@@ 3
Oficina 3
Parlament@@ 3
Peru 3
Phong 3
Première 3
Produk@@ 3
Produktion 3
Province 3
Pérez 3
Quan 3
Queensland 3
Quốc 3
Richtung 3
Schrift@@ 3
Ses 3
Sevilla 3
Sow@@ 3
Spiele 3
Sri 3
También 3
Tarih@@ 3
Thanh 3
Tä@@ 3
Unidos 3
Uru@@ 3
Württemberg 3
abras 3
acak 3
achsen 3
adhi 3
administrative 3
affa@@ 3
agit 3
aile 3
akter@@ 3
alfab@@ 3
alian 3
altura 3
ambu@@ 3
ambul@@ 3
americano 3
anay@@ 3
ancak 3
ancienne 3
anciens 3
angu 3
announced 3
annte 3
années 3
ansi 3
apti@@ 3
arbeitet 3
architec@@ 3
artists 3
atmos@@ 3
ausge@@ 3
aussi 3
auteur 3
autonom@@ 3
autor 3
autour 3
azine 3
bajo 3
baren 3
barrio 3
bağ@@ 3
başı 3
beaucoup 3
began 3
beginning 3
bele 3
below 3
biet 3
boş@@ 3
breit@@ 3
bruch 3
camino 3
cao 3
caracter@@ 3
carre@@ 3
celles 3
championship 3
chim 3
chung 3
chữ 3
cir 3
circ@@ 3
classe 3
clubs 3
commerci@@ 3
concept 3
confi@@ 3
conflic@@ 3
connu 3
conom@@ 3
conse@@ 3
contro@@ 3
conven@@ 3
couple 3
crita 3
critic@@ 3
cré@@ 3
cuar@@ 3
cuatro 3
daf@@ 3
dass 3
dedor 3
democ@@ 3
deren 3
después 3
değ@@ 3
deş@@ 3
diagn@@ 3
died 3
diente 3
diese 3
dieser 3
dirig@@ 3
disci@@ 3
dispos@@ 3
doğan 3
drama 3
dugu 3
départem@@ 3
département 3
dön@@ 3
edern 3
egal 3
ehen 3
ehir 3
ehir@@ 3
ehör@@ 3
eign@@ 3
eneo 3
ennen 3
entered 3
entrée 3
entí@@ 3
erischen 3
erst 3
española 3
essenti@@ 3
established 3
europé@@ 3
events 3
[...]
