, 0.9474829503672653
. 0.9060197272937462
του 1
και 1
της 1
το 1
&quot; 0.8943150138534338
ο 1
την 1
από 1
η 1
με 1
να 1
) 1
( 1
τον 1
που 1
σε 1
των 1
στην 1
για 1
στο 1
τη 1
τα 1
ή 1
είναι 1
οι 1
Η 1
τους 1
ος 1
Το 1
Ο 1
ία 1
@-@ 0.4337083307740178
Σ@@ 1
ου 1
ως 1
ών 1
ήταν 1
α 1
β@@ 1
στη 1
ες 1
ική 1
ων 1
αν@@ 1
ι@@ 1
ά 1
φ@@ 1
κ@@ 1
σ@@ 1
Κ@@ 1
ικό 1
ό 1
χ@@ 1
τις 1
π@@ 1
μ@@ 1
ής 1
θ@@ 1
δ@@ 1
τ@@ 1
ίας 1
ο@@ 1
Μ@@ 1
ν@@ 1
στ@@ 1
Α@@ 1
έ@@ 1
Π@@ 1
: 1
ά@@ 1
γ@@ 1
ους 1
εν@@ 1
Τ@@ 1
ω@@ 1
ί@@ 1
ές 1
ικά 1
ένα 1
λ@@ 1
στις 1
προ@@ 1
ης 1
ας 1
ε@@ 1
η@@ 1
ός 1
ό@@ 1
ότι 1
μια 1
Ε@@ 1
Β@@ 1
α@@ 1
ι 1
άν@@ 1
απο@@ 1
Ν@@ 1
στον 1
συν@@ 1
ικής 1
ου@@ 1
Λ@@ 1
στα 1
ύ@@ 1
ια 1
ού 1
« 1
ρι@@ 1
» 1
δι@@ 1
ζ@@ 1
ρ@@ 1
εξ@@ 1
ακ@@ 1
Χ@@ 1
εκ@@ 1
τι@@ 1
Ρ@@ 1
ιν@@ 1
δεν 1
ν 1
ικές 1
αρ@@ 1
κα@@ 1
υ@@ 1
ρο@@ 1
απ@@ 1
ση 1
ε 1
Οι 1
ει 1
ού@@ 1
μπ@@ 1
ικού 1
αν 1
ικ@@ 1
είχε 1
ον@@ 1
΄ 1
έχει 1
Ο@@ 1
επι@@ 1
ς 1
αλ@@ 1
ευ@@ 1
παρ@@ 1
τ 1
ικών 1
έν@@ 1
ισ@@ 1
Δ@@ 1
Φ@@ 1
ξ@@ 1
Γ@@ 1
άρ@@ 1
ασ@@ 1
τική 1
κατά 1
επ@@ 1
μα 1
λι@@ 1
ερ@@ 1
το@@ 1
ρα@@ 1
ή@@ 1
αλλά 1
ορ@@ 1
κατα@@ 1
τρ@@ 1
γκ@@ 1
ει@@ 1
Ι@@ 1
εία 1
δια@@ 1
σι@@ 1
ελ@@ 1
αγ@@ 1
ενώ 1
άλ@@ 1
αι@@ 1
ουν 1
τά@@ 1
ατ@@ 1
όν@@ 1
τα@@ 1
ώ@@ 1
σης 1
σκ@@ 1
ομ@@ 1
οποία 1
μετα@@ 1
ίου 1
θα 1
ούς 1
Μπ@@ 1
- 1
όπως 1
όταν 1
δύο 1
&apos; 0.9333586429431996
ί 1
λ 1
θε@@ 1
λε@@ 1
έρ@@ 1
ρί@@ 1
υπο@@ 1
περι@@ 1
ολ@@ 1
ιο 1
ηση 1
μετά 1
ων@@ 1
ικός 1
ησε 1
τε@@ 1
ρά@@ 1
ρ 1
αντι@@ 1
προσ@@ 1
να@@ 1
μία 1
όπου 1
ίες 1
επίσης 1
εται 1
εγ@@ 1
πλ@@ 1
κ 1
τος 1
αφ@@ 1
τη@@ 1
κλ@@ 1
/ 1
ίν@@ 1
σαν 1
όρ@@ 1
εί@@ 1
τικό 1
αμ@@ 1
εύ@@ 1
Έ@@ 1
υπ@@ 1
θηκε 1
Τα 1
Α 1
τσ@@ 1
ότητα 1
άσ@@ 1
τερ@@ 1
οδ@@ 1
ήθηκε 1
ανα@@ 1
τες 1
καθώς 1
ήσει 1
2 0.9353754083159111
οποίο 1
Ζ@@ 1
μα@@ 1
ίσ@@ 1
είο 1
πο@@ 1
έχουν 1
Γκ@@ 1
υλ@@ 1
άκ@@ 1
θεί 1
αστ@@ 1
μά@@ 1
αυτό 1
1 0.796416638966333
έλ@@ 1
οπ@@ 1
ρα 1
είας 1
οί 1
στους 1
εί 1
μ 1
αί@@ 1
κο@@ 1
αρχ@@ 1
μέχρι 1
λα@@ 1
μεταξύ 1
τικές 1
ον 1
ιστ@@ 1
ωση 1
ματ@@ 1
τικά 1
ρε@@ 1
ματος 1
ρος 1
άγ@@ 1
βι@@ 1
ίων 1
ώς 1
Αν@@ 1
ογ@@ 1
με@@ 1
έγινε 1
οσ@@ 1
χρόνια 1
λλ@@ 1
ματα 1
σία 1
Δι@@ 1
ται 1
ρου 1
γεν@@ 1
γραφ@@ 1
γι@@ 1
είς 1
.@@ 1
μον@@ 1
πρώτη 1
δε@@ 1
προς 1
ηγ@@ 1
πιο 1
ψ@@ 1
όσ@@ 1
Ά@@ 1
Β 1
καθ@@ 1
3 0.8956973677487073
οντας 1
είται 1
Στις 1
έκ@@ 1
ώντας 1
τικής 1
μι@@ 1
όλ@@ 1
εργ@@ 1
; 0.36004694933467035
ξη 1
ονται 1
πρ@@ 1
ομάδα 1
ρο 1
περιοχή 1
πόλη 1
μπορεί 1
Θ@@ 1
θέση 1
Τζ@@ 1
ημ@@ 1
όμ@@ 1
ρω@@ 1
αυτή 1
χρ@@ 1
ήματα 1
περ@@ 1
τρι@@ 1
μέ@@ 1
θέ@@ 1
ένας 1
άς 1
αυ@@ 1
ετ@@ 1
διάρκεια 1
ιλ@@ 1
διακ@@ 1
ερ 1
θηκαν 1
καλ@@ 1
αιώνα 1
τού@@ 1
τί@@ 1
αδ@@ 1
ήσεις 1
καν@@ 1
κά@@ 1
Παρ@@ 1
ουλ@@ 1
όπ@@ 1
4 0.8844841761912577
φορά 1
όν 1
μένα 1
ρού@@ 1
είου 1
οποίος 1
υρ@@ 1
εισ@@ 1
Από 1
ημα 1
αβ@@ 1
κιν@@ 1
συ@@ 1
ιμ@@ 1
βασ@@ 1
είχαν 1
νη 1
ιδ@@ 1
&amp; 0.9840274618978468
πέ@@ 1
βλ@@ 1
τζ@@ 1
αντ@@ 1
μένη 1
ορι@@ 1
τελ@@ 1
οικ@@ 1
οχ@@ 1
Στην 1
μάτων 1
ισμό 1
ιά 1
% 0.665239994149637
άστηκε 1
έναν 1
– 0.4185645333386351
ρέ@@ 1
ενός 1
μη 1
περίοδο 1
Συν@@ 1
εφ@@ 1
στα@@ 1
πολι@@ 1
μέρος 1
θη@@ 1
μόνο 1
πολύ 1
ώθηκε 1
ίλ@@ 1
πρό@@ 1
μεν@@ 1
άν 1
οποι@@ 1
οι@@ 1
ούν 1
ποι@@ 1
μαζί 1
Μετά 1
τά 1
σύν@@ 1
μένο 1
Η@@ 1
ειδ@@ 1
έως 1
ικούς 1
Με 1
ίκ@@ 1
τέ@@ 1
τικών 1
σπ@@ 1
κατ@@ 1
του@@ 1
μερ@@ 1
σσ@@ 1
οβ@@ 1
5 0.8472273367727281
ην@@ 1
ησαν 1
ξε 1
εν 1
ούσε 1
ίστηκε 1
υγ@@ 1
τι 1
περίπου 1
δυ@@ 1
βρίσκεται 1
ίδια 1
όμως 1
Κα@@ 1
πι@@ 1
τας 1
ψη 1
ω 1
ίδα 1
ών@@ 1
τές 1
Γι@@ 1
3@@ 1
έ 1
ησης 1
μαν@@ 1
τυ@@ 1
Καρ@@ 1
έφ@@ 1
εδ@@ 1
τον@@ 1
οφ@@ 1
ότητας 1
εια 1
κυ@@ 1
Θε@@ 1
στά@@ 1
φορ@@ 1
σίας 1
έχ@@ 1
σμ@@ 1
πε@@ 1
υν@@ 1
ειας 1
νομ@@ 1
ητ@@ 1
ϊ@@ 1
ριο 1
τού 1
σημ@@ 1
όνομα 1
αργότερα 1
Στο 1
16@@ 1
τότε 1
Ό@@ 1
Μαρ@@ 1
κάθε 1
ικοί 1
κύ@@ 1
Τσ@@ 1
Κατά 1
6 0.7888943893310044
Προ@@ 1
ισμού 1
χρησιμοποι@@ 1
μέσα 1
Βι@@ 1
κτ@@ 1
φ 1
όγ@@ 1
μένος 1
ονταν 1
&#93; 1
ουσ@@ 1
γράφ@@ 1
17@@ 0.8970417012151396
έπ@@ 1
4@@ 1
π 1
15@@ 1
ολογ@@ 1
&#91; 1
τηση 1
τεχν@@ 1
πως 1
λη@@ 1
τηκε 1
δί@@ 1
ίζει 1
οκ@@ 1
καταστ@@ 1
Τον 1
όφ@@ 1
λογ@@ 1
Είναι 1
ότ@@ 1
πα@@ 1
σει 1
Σε 1
παν@@ 1
πρώτο 1
εβ@@ 1
τησε 1
βά@@ 1
τών 1
αλλ@@ 1
λόγω 1
ητής 1
ργ@@ 1
10 0.8436851158970101
δο@@ 1
μπο@@ 1
νη@@ 1
τικού 1
πριν 1
ροφ@@ 1
σεις 1
σε@@ 1
ηθεί 1
γκ 1
ώσεις 1
υπό 1
ταινία 1
νέ@@ 1
τύ@@ 1
μόν@@ 1
κυρίως 1
Άν@@ 1
σειρά 1
Αλ@@ 1
αθ@@ 1
σφ@@ 1
ήθηκαν 1
καρ@@ 1
Την 1
έσ@@ 1
έα 1
χρον@@ 1
ότητες 1
Αρ@@ 1
συνέχεια 1
μικρ@@ 1
λά@@ 1
ζ 1
κας 1
τή 1
μφ@@ 1
Καλ@@ 1
ντ 1
μένων 1
τοπ@@ 1
κατέ@@ 1
8 0.8040488827341765
κρι@@ 1
οπο@@ 1
σχ@@ 1
Υ@@ 1
ξης 1
ωσε 1
νε@@ 1
ετών 1
αγων@@ 1
ίσει 1
Για 1
λέ@@ 1
ιστορ@@ 1
ρίας 1
ιών 1
πάνω 1
7 0.7784566325266103
κοιν@@ 1
στη@@ 1
παρα@@ 1
S@@ 0.1978639304845929
χω@@ 1
14@@ 1
έργο 1
άβ@@ 1
ειες 1
ουν@@ 1
ύ 1
όκ@@ 1
φορές 1
μιας 1
άδ@@ 1
διά@@ 1
ηλ@@ 1
ψε 1
έβ@@ 1
2@@ 1
άφ@@ 1
ονομ@@ 1
Αγ@@ 1
δικ@@ 1
έγ@@ 1
Ελλάδα 1
βολ@@ 1
τής 1
εθν@@ 1
εκδ@@ 1
σύ@@ 1
δρ@@ 1
ριν@@ 1
Στη 1
ήσ@@ 1
σα 1
5@@ 1
2011 1
ομάδες 1
κατά@@ 1
νης 1
ριστ@@ 1
τιμ@@ 1
μακ@@ 1
στο@@ 1
ώματα 1
χωριό 1
Ήταν 1
απλ@@ 1
13@@ 1
εμ@@ 1
ίζεται 1
φαν@@ 1
έρα 1
σήμερα 1
Κά@@ 1
συμβ@@ 1
χωρίς 1
ολογία 1
Μά@@ 1
δημιουργ@@ 1
λί@@ 1
ώσει 1
μή@@ 1
εμπ@@ 1
ιερ@@ 1
τικός 1
ύρ@@ 1
Επ@@ 1
όλα 1
βασιλ@@ 1
ωρ@@ 1
20 0.8937271408900859
μένες 1
πρώ@@ 1
τια 1
Γου@@ 1
πά@@ 1
πολ@@ 1
μονα@@ 1
αξι@@ 1
αζ@@ 1
ρη@@ 1
όδ@@ 1
ρύ@@ 1
αυτά 1
ρίου 1
υπερ@@ 1
9 0.803589331024781
9@@ 1
ημερ@@ 1
αξ@@ 1
άσεις 1
άμ@@ 1
Ου@@ 1
αντί@@ 1
συνεχ@@ 1
Γ 1
ίδιο 1
C@@ 0.2107094855068839
Ανα@@ 1
Ε 1
ογραφ@@ 1
ούν@@ 1
οργαν@@ 1
12 0.8670233819615301
νο@@ 1
σύμφωνα 1
Επίσης 1
ρου@@ 1
μέσω 1
ξει 1
Σύμφωνα 1
μεγάλη 1
ώ 1
M@@ 0.22303692859707905
ραγ@@ 1
υσ@@ 1
τε 1
ισμός 1
φυ@@ 1
αποτέλεσμα 1
ήρ@@ 1
τικ@@ 1
Επι@@ 1
μέλος 1
μουσ@@ 1
6@@ 1
φιλ@@ 1
Ιν@@ 1
Απ@@ 1
πόλης 1
πιθαν@@ 1
άζει 1
μο@@ 1
εποχή 1
ιζ@@ 1
_ 1
αρι@@ 1
έλαβε 1
οξ@@ 1
ταν@@ 1
τευ@@ 1
ιστορία 1
ήσουν 1
ειο 1
φυσ@@ 1
όσο 1
έτσι 1
μβ@@ 1
ναν 1
δικα@@ 1
πολλές 1
πο 1
διασ@@ 1
τμήμα 1
κα 1
πρόσ@@ 1
Με@@ 1
χ 1
Περ@@ 1
Περι@@ 1
άσει 1
σή 1
διο 1
εκλογές 1
15 0.8945947972012889
ύλ@@ 1
ολόγ@@ 1
στοιχεία 1
άπ@@ 1
επαν@@ 1
ίο 1
ιτ@@ 1
αχ@@ 1
ανακ@@ 1
Αφ@@ 1
πος 1
ούσαν 1
ύν@@ 1
μεγάλ@@ 1
έκανε 1
Αρχ@@ 1
πτ@@ 1
H@@ 0.21325090111307737
τρεις 1
άλλα 1
7@@ 1
P@@ 0.2059492894606694
αρχές 1
Απο@@ 1
8@@ 1
π.Χ. 1
E@@ 0.2762643671947599
αναφέρεται 1
όλο 1
ήμ@@ 1
ουρ@@ 1
όχ@@ 1
Παν@@ 1
τέλος 1
υ 1
ιος 1
αερ@@ 1
θούν 1
στρατ@@ 1
κατασκευ@@ 1
ούνται 1
Εν@@ 1
χώρα 1
φω@@ 1
Ωστόσο 1
επί 1
χαρ@@ 1
λο 1
T@@ 0.187234886860952
ηκε 1
= 1
κοντά 1
μένου 1
υπηρε@@ 1
μο 1
μος 1
κομ@@ 1
αποτελεί 1
τορ@@ 1
ματική 1
οικονομ@@ 1
τίτλο 1
αρκ@@ 1
τυπ@@ 1
πολλά 1
Πέ@@ 1
χει@@ 1
εχ@@ 1
ήματος 1
Ελλην@@ 1
κι 1
τόσο 1
σιο 1
άρι@@ 1
έζ@@ 1
στρατιω@@ 1
Ντ@@ 1
θέσεις 1
δύ@@ 1
ωσης 1
ότερα 1
30 0.9021258855690907
λεγ@@ 1
άδες 1
πλέον 1
άλλες 1
τρα 1
Ελ@@ 1
ώνει 1
D@@ 0.1810906516768289
αϊ@@ 1
ηλικία 1
έδρα 1
μυ@@ 1
διαφ@@ 1
λειτουργ@@ 1
συγ@@ 1
νέα 1
B@@ 0.18980797381988535
L@@ 0.1792628727146064
όβ@@ 1
ξεκίνησε 1
ρά 1
γιος 1
υψηλ@@ 1
κε 1
άδα 1
Δ 1
ειρ@@ 1
θρ@@ 1
τρο@@ 1
F@@ 0.20325454353368919
γλ@@ 1
The 0.06976279861562557
τιν@@ 1
ητή 1
σταση 1
εσ@@ 1
ρική 1
ζωή 1
υπάρχει 1
ελ 1
G@@ 0.20048790464932378
Γερμαν@@ 1
ιάς 1
εμφαν@@ 1
ξι@@ 1
εκ 1
ίνα 1
στι@@ 1
βαρ@@ 1
ακό 1
R@@ 0.18970652196716195
χή 1
πρωτάθλημα 1
θεση 1
ρυ@@ 1
θήκη 1
κόρη 1
ιν 1
ξεις 1
μεγάλο 1
μές 1
2010 0.7024209641830323
11 0.8372123870942225
ήγ@@ 1
κατοίκους 1
N@@ 0.21156810473306123
ιακ@@ 1
s 0.10123648502640578
όρος 1
ώστε 1
έργα 1
ότερο 1
κρατ@@ 1
16 0.924807213221573
σχολ@@ 1
χρήση 1
στερ@@ 1
έας 1
νόμ@@ 1
οδηγ@@ 1
μέλη 1
ητές 1
Ιουλίου 1
προσωπ@@ 1
Εκ@@ 1
Αυγούστου 1
παράγ@@ 1
14 0.9479229126158397
ιδι@@ 1
λει@@ 1
μεσ@@ 1
ούλ@@ 1
κι@@ 1
ιστο@@ 1
τελε@@ 1
Μα@@ 1
ήλ@@ 1
Μπο@@ 1
of 0.020232453192368747
μαχ@@ 1
άλλ@@ 1
10@@ 1
Μον@@ 1
απε@@ 1
νω@@ 1
Μαρτίου 1
Εθνική 1
χρόνο 1
όλη 1
όμεν@@ 1
18 0.8175508245512353
ότερη 1
κο 1
σμό 1
έδ@@ 1
ταγ@@ 1
χν@@ 1
β 1
εμπο@@ 1
όνα 1
ίδ@@ 1
αυτές 1
ίγ@@ 1
αφού 1
βαθμ@@ 1
12@@ 1
ρατ@@ 1
υπάρχουν 1
ρον@@ 1
διεθν@@ 1
ωνία 1
Σεπτεμβρίου 1
παρουσι@@ 1
διοικ@@ 1
Οκτωβρίου 1
βάση 1
εγκ@@ 1
πρω@@ 1
σχε@@ 1
συνα@@ 1
γραφή 1
εκτός 1
κολ@@ 1
ακόμη 1
ασία 1
τελικά 1
formula 1
νά@@ 1
ατρ@@ 1
’ 0.22244445526068105
Γεν@@ 1
Ιουνίου 1
Στα 1
θ 1
οποίες 1
είτε 1
Μαΐου 1
γύρω 1
ΐ@@ 1
Αυ@@ 1
A@@ 0.20413456120297208
περιοχές 1
Όταν 1
ηθ@@ 1
Ιανουαρίου 1
αία 1
χώ@@ 1
μου 1
ντ@@ 1
25 0.9005317316876853
άρκ@@ 1
σύστημα 1
ηματ@@ 1
γον@@ 1
τοποθε@@ 1
δεύτερη 1
υφ@@ 1
ις 1
σχηματ@@ 1
πρέπει 1
διαφορε@@ 1
μετ@@ 1
στατ@@ 1
παλαι@@ 1
τεί 1
13 0.9247469424211632
εις 1
μηχαν@@ 1
όμενο 1
συχνά 1
Απριλίου 1
ακόμα 1
σεζόν 1
Ευ@@ 1
κου@@ 1
17 0.9380887791262827
ομάδας 1
τιο 1
είων 1
οδο 1
μεγαλύτερ@@ 1
οπλ@@ 1
επιστ@@ 1
τερ 1
κατάσταση 1
τρο 1
de 0.014377438120295474
Ί@@ 1
κυβέρνηση 1
Σύ@@ 1
δρόμ@@ 1
καλύτερ@@ 1
αυτο@@ 1
Κύ@@ 1
φυλ@@ 1
μορφή 1
Ανατολ@@ 1
Συ@@ 1
αρχικά 1
Αυτό 1
τό 1
Αγίου 1
ώσ@@ 1
Λου@@ 1
επικ@@ 1
ορο@@ 1
κω@@ 1
Νοεμβρίου 1
ταξ@@ 1
Κατ@@ 1
τελευταία 1
εκεί 1
οτ@@ 1
Ιστορία 1
σμός 1
Ισ@@ 1
έμ@@ 1
ρίζ@@ 1
ρη 1
χθηκε 1
Πολ@@ 1
ριση 1
ίνο 1
ντε 1
δία 1
ουμε 1
ραν@@ 1
Κορ@@ 1
πί@@ 1
φύ@@ 1
όρι@@ 1
δημο@@ 1
κυρι@@ 1
τή@@ 1
Αθήνα 1
εναντίον 1
ίζ@@ 1
κρί@@ 1
ονομασία 1
λιο 1
άλλων 1
γερμαν@@ 1
ωνα 1
πρώην 1
μν@@ 1
2012 0.7402603233669638
μέν@@ 1
σεων 1
υμ@@ 1
κοινότητα 1
ούμεν@@ 1
κίν@@ 1
Ξ@@ 1
δηλ@@ 1
πολυ@@ 1
όλου 1
ελλην@@ 1
γέν@@ 1
κόμ@@ 1
χος 1
αγώνες 1
Λι@@ 1
όχι 1
δημοσι@@ 1
Δημ@@ 1
δημ@@ 1
δρο@@ 1
σχετικά 1
μάχ@@ 1
ότερ@@ 1
Βρεταν@@ 1
βί@@ 1
οχή 1
κοινων@@ 1
γλώσσα 1
Έχει 1
αση 1
δηλαδή 1
έδωσε 1
αναλ@@ 1
τολ@@ 1
συνήθως 1
κέντρο 1
Δεκεμβρίου 1
ασε 1
Μεγάλ@@ 1
πήρε 1
από@@ 1
ρία 1
κεντρ@@ 1
μελ@@ 1
σω@@ 1
τρία 1
άρι 1
2009 0.7364377862576043
βασιλιά 1
ψηφ@@ 1
ιού 1
Βασιλ@@ 1
πει@@ 1
επισκ@@ 1
gt 1
είδ@@ 1
2008 0.7346786475548434
ησι@@ 1
γιο 1
ρόλο 1
μη@@ 1
Κ 1
ασκ@@ 1
σας 1
19 0.8277935268720136
καλύ@@ 1
2014 0.7114989696618808
αποφ@@ 1
ιστική 1
Μπρ@@ 1
ενεργ@@ 1
λεπ@@ 1
συμ@@ 1
πρώτος 1
μπορούν 1
Ολυμπιακ@@ 1
σύζυγ@@ 1
ίδες 1
πυ@@ 1
καταλ@@ 1
ψει 1
μάχη 1
ώνεται 1
μέτρα 1
y 0.04565927018826763
ικαν@@ 1
αυξ@@ 1
πολιτι@@ 1
μή 1
21 0.9249167831046948
μυθ@@ 1
σμα 1
lt 0.9703491544783224
Φεβρουαρίου 1
νι@@ 1
κατηγορία 1
θησαν 1
Κοιν@@ 1
άλλη 1
2015 0.7094446960380084
αγωγ@@ 1
φόρ@@ 1
ρού 1
δυν@@ 1
αρχαι@@ 1
Βαλ@@ 1
πεδ@@ 1
0 0.9121848829497038
συγκ@@ 1
άζεται 1
νό@@ 1
σίες 1
2013 0.7106326449303406
σον 1
φερ@@ 1
μένοι 1
ίνη 1
φέρ@@ 1
τοκ@@ 1
διδ@@ 1
ζε 1
μεγαλύτερο 1
τικούς 1
συνεργ@@ 1
κλη@@ 1
γεννήθηκε 1
παλ@@ 1
χρόν@@ 1
δομ@@ 1
μορφ@@ 1
αποτελ@@ 1
τέλη 1
Βιογραφία 1
έλλ@@ 1
άλμπουμ 1
Σ 1
πον@@ 1
αγώνα 1
θη 1
ταν 1
γίνει 1
Πλ@@ 1
Ισπαν@@ 1
στοιχ@@ 1
τς 1
πλη@@ 1
άρχισε 1
ουσι@@ 1
ανάμεσα 1
ροι 1
κυκλοφόρησε 1
στικά 1
γεγονός 1
ορισ@@ 1
δραστηρι@@ 1
κορ@@ 1
κάτω 1
εύτηκε 1
πλο@@ 1
παιδιά 1
Ως 1
δεί@@ 1
έτος 1
Πανεπιστήμιο 1
O@@ 0.228517916253224
μας 1
2007 0.7263477394025232
ευση 1
ακή 1
στική 1
τυχ@@ 1
πρόεδρος 1
μει@@ 1
κέρδισε 1
σύγχρον@@ 1
μεγαλύτερη 1
ιστεί 1
παί@@ 1
πατ@@ 1
ωνίας 1
αμπ@@ 1
γνώ@@ 1
πρώτα 1
Αν 1
Πρω@@ 1
παρά@@ 1
διατ@@ 1
2016 0.6842224448303524
άρια 1
24 0.8616796412545924
δεύτερο 1
δίσ@@ 1
ίζονται 1
πολιτική 1
ΗΠΑ 1
είες 1
γραμ@@ 1
χώρας 1
άζ@@ 1
γνωστή 1
χρονιά 1
αδελφ@@ 1
υπόλοι@@ 1
τό@@ 1
χώρ@@ 1
W@@ 0.16669689859426448
Αντι@@ 1
σχεδόν 1
κος 1
τούν 1
δεκαετία 1
αντικ@@ 1
σταθμ@@ 1
θεωρ@@ 1
22 0.9336672663750205
Ευρωπαϊκ@@ 1
ρό@@ 1
ιγ@@ 1
ροφή 1
ταλ@@ 1
υπήρξε 1
Παπ@@ 1
V@@ 0.1960280960209056
Ελλάδας 1
αναπ@@ 1
ϊ 1
ζω@@ 1
όλες 1
γνωστό 1
Κυ@@ 1
ερν@@ 1
έρας 1
σχέση 1
Ιερ@@ 1
φρά@@ 1
ιδιαίτερα 1
Μέ@@ 1
πολί@@ 1
Κου@@ 1
-@@ 1
χώρες 1
δική 1
τεύ@@ 1
περιοχής 1
Έτσι 1
λυ@@ 1
2006 0.712526227390153
Βεν@@ 1
ταρ@@ 1
όμενη 1
σκι 1
ευρ@@ 1
πέντε 1
επειδή 1
κον@@ 1
ίζουν 1
χορ@@ 1
K@@ 0.1532155866850677
ωπ@@ 1
ώδ@@ 1
ανατολικά 1
χωρ@@ 1
δρα@@ 1
the 0.008486195326537379
23 0.9312194163330131
κατοικ@@ 1
πολεμ@@ 1
πορ@@ 1
έφερε 1
συμπ@@ 1
ζεται 1
οποίοι 1
υχ@@ 1
Αλεξ@@ 1
διεξ@@ 1
ήν@@ 1
αιτ@@ 1
δίας 1
πολη 1
ισε 1
διπλ@@ 1
Εθν@@ 1
δεδο@@ 1
πιστ@@ 1
μένης 1
φθ@@ 1
πους 1
περισσότερο 1
τάν@@ 1
20@@ 1
επί@@ 1
υποστη@@ 1
υπολογ@@ 1
Φιλ@@ 1
θάνατο 1
σο@@ 1
Ερ@@ 1
ούλιο 1
συμμετείχε 1
κατο@@ 1
κόσμο 1
κε@@ 1
πυρ@@ 1
στεί 1
λύ@@ 1
ώθηκαν 1
ίδιος 1
τρόπο 1
ωθεί 1
φέρει 1
2019 0.7030221337135818
Ευρώπη 1
ζει 1
άρα 1
αντ 1
δοκ@@ 1
παραγωγή 1
επισ@@ 1
γίνεται 1
Κο@@ 1
ίμ@@ 1
ίνου 1
ειακ@@ 1
κάνει 1
περί@@ 1
επιχειρ@@ 1
ειν@@ 1
ήσεων 1
πληθυσμό 1
συμφ@@ 1
πρωταθλ@@ 1
νες 1
κάποι@@ 1
ψήφ@@ 1
50 0.9446765125799425
ξαν 1
αγγ@@ 1
ραβ@@ 1
Κλ@@ 1
o 0.1263153952881762
εκείνη 1
ησ@@ 1
άλυ@@ 1
a 0.017429620932017022
τροφ@@ 1
ημάτων 1
ωστόσο 1
Λε@@ 1
ϊκ@@ 1
χιλι@@ 1
αγι@@ 1
τρου 1
απογραφή 1
σεν@@ 1
Αμερικαν@@ 1
1@@ 1
Στα@@ 1
ενέργ@@ 1
ήφ@@ 1
εσωτερ@@ 1
ακολουθ@@ 1
βιτς 1
χλμ. 1
συγκεκρι@@ 1
τρί@@ 1
ιση 1
ηχ@@ 1
πατέρα 1
αϊκ@@ 1
δος 1
σωματ@@ 1
σμού 1
ελλ@@ 1
2017 0.6511449310328475
ίζοντας 1
χρησιμοποιείται 1
ασχολ@@ 1
τελευτα@@ 1
λος 1
28 0.9732161784206232
νέο 1
επιτυχ@@ 1
όλων 1
2018 0.6230105243752133
λη 1
άλλους 1
αριθμ@@ 1
μετρ@@ 1
παράδειγμα 1
μισ@@ 1
ίδας 1
θυ@@ 1
έκταση 1
αρκετά 1
ανατολ@@ 1
αγωγή 1
ουσα 1
γεω@@ 1
ειών 1
θμ@@ 1
άτομα 1
ανά 1
πέθανε 1
ημι@@ 1
λα 1
οικογένεια 1
Αθηνών 1
χιλιόμετρα 1
Γαλλία 1
ήχ@@ 1
Μια 1
ήθ@@ 1
δρομ@@ 1
λόγ@@ 1
Εξ@@ 1
2004 0.8024272580190328
θεωρείται 1
1.@@ 1
στασης 1
άσκ@@ 1
εκείν@@ 1
κοπ@@ 1
ηδ@@ 1
ρυθμ@@ 1
C 0.6213257151489547
Μεσ@@ 1
κη 1
Ένα 1
βόρεια 1
πολης 1
σκοτ@@ 1
νας 1
άι@@ 1
ιδρύθηκε 1
Πρ@@ 1
2000 0.7206655234560231
άνει 1
αριθμός 1
26 0.9397534020708456
αναγνω@@ 1
τήρ@@ 1
άλλο 1
ίστηκαν 1
Πρωτάθλημα 1
αίν@@ 1
ιρ@@ 1
νότια 1
in 0.0130215657653441
υπουργ@@ 1
δυνάμεις 1
συνδέ@@ 1
χημ@@ 1
ναυ@@ 1
εταιρ@@ 1
on 0.04209337447836286
Πολι@@ 1
εικ@@ 1
ζωής 1
τησαν 1
αγορ@@ 1
πατέρας 1
ητικά 1
αιο 1
θησε 1
επιτυχία 1
μαρ@@ 1
μέρ@@ 1
ειά 1
δικό 1
έων 1
27 0.9443451582029344
οικισμός 1
όμενα 1
ατο@@ 1
Μετα@@ 1
δυο 1
ωσαν 1
έδρ@@ 1
ριακ@@ 1
βρίσκονται 1
θύ@@ 1
τοι 1
ισσα 1
έγραψε 1
γύ@@ 1
ίχ@@ 1
εκλογ@@ 1
περιλαμβάνει 1
μ. 1
Ω@@ 1
εξωτερ@@ 1
ογραφία 1
λέγ@@ 1
μαγ@@ 1
μπερ@@ 1
Άρ@@ 1
I@@ 0.26903588776378623
τραγούδι 1
ιω@@ 1
άνουν 1
παγ@@ 1
παρά 1
μέτρων 1
διαλ@@ 1
ύγ@@ 1
αυτοκ@@ 1
αυτός 1
Δυ@@ 1
υπουργός 1
νικ@@ 1
δου@@ 1
επο@@ 1
ήδη 1
γνωστ@@ 1
δέ@@ 1
κυβερν@@ 1
us 0.1760200808064979
Α.@@ 1
2005 0.7181891818240029
πλήρ@@ 1
θαλ@@ 1
πίνα@@ 1
αίνει 1
βοηθ@@ 1
πόλεις 1
δου 1
αναγ@@ 1
Πά@@ 1
ρίν@@ 1
χώρο 1
άλογ@@ 1
προστ@@ 1
προϊ@@ 1
ιστές 1
ψαν 1
ράφ@@ 1
ελληνική 1
τακ@@ 1
στρατηγ@@ 1
διάστημα 1
στόχ@@ 1
χρυσ@@ 1
Κομ@@ 1
Σου@@ 1
Πι@@ 1
κρά@@ 1
Αιγ@@ 1
ώρα 1
ίνης 1
έγιναν 1
Σι@@ 1
μάν@@ 1
μουσική 1
τω@@ 1
Γεννήθηκε 1
άνο 1
ανή@@ 1
μήκος 1
ξ 1
Π.@@ 1
βα 1
πόλε@@ 1
άντα 1
εζ@@ 1
λλα 1
που@@ 1
amp 0.5093550901380959
ποδ@@ 1
δε 1
λερ 1
0.000 1
ώνα 1
ρίζεται 1
τελικό 1
αργ@@ 1
δολοφ@@ 1
εστ@@ 1
τρέ@@ 1
Συμβ@@ 1
χαμηλ@@ 1
σημείο 1
μό@@ 1
αυτού 1
αυτών 1
ίκος 1
οθε@@ 1
γνωστός 1
θαν@@ 1
βασιλιάς 1
ψυχ@@ 1
θεωρού@@ 1
κυκλοφορ@@ 1
όμενος 1
ώνας 1
λευ@@ 1
&#124; 1
ανάπτυξη 1
διορ@@ 1
ζή@@ 1
Παλαι@@ 1
ρισε 1
ανέλαβε 1
τομ@@ 1
ετ 1
Πρώ@@ 1
όρο 1
ονό@@ 1
ύτερ@@ 1
i 0.19183975102880724
δευ@@ 1
πίσω 1
βελ@@ 1
ωμα 1
κου 1
λανδ@@ 1
ρίες 1
βολή 1
τήθηκε 1
ανά@@ 1
κης 1
παι@@ 1
βιομηχαν@@ 1
αντα@@ 1
ιώ@@ 1
τηγ@@ 1
Χρ@@ 1
2001 0.8401279847060072
ιπ@@ 1
λίγ@@ 1
λή@@ 1
Στον 1
επέ@@ 1
διάσ@@ 1
κλί@@ 1
Διεθν@@ 1
ρεί 1
φων@@ 1
x 0.345717974443309
όρων 1
Καθ@@ 1
ότερες 1
Αντ@@ 1
100 0.7690534152519211
εύει 1
τσα 1
οποίων 1
αυτόν 1
περιόδου 1
κάποια 1
29 0.9645651902844089
τισ@@ 1
Αυτή 1
δέχ@@ 1
τός 1
σκην@@ 1
εκατομμύρια 1
χαρακτη@@ 1
χα@@ 1
φή 1
εποχής 1
ίτ@@ 1
έκδοση 1
εων 1
κ.@@ 1
κινηματο@@ 1
μαλ@@ 1
Γερμανία 1
εντός 1
ίος 1
αυτής 1
Μερ@@ 1
δη 1
ονία 1
ότη@@ 1
40 0.8879698728907243
είδος 1
U@@ 0.26149301129513886
επίπεδο 1
μπορούσε 1
όπουλος 1
ορφ@@ 1
διάφορες 1
ούνταν 1
τέκ@@ 1
Χά@@ 1
κάτι 1
ικα 1
ξεκιν@@ 1
όνομά 1
ασίας 1
Τουρκ@@ 1
υνα@@ 1
A 0.1966028631193426
μό 1
πλευρά 1
ρισ@@ 1
er 0.04248001537183078
νοτι@@ 1
Υπουργ@@ 1
πν@@ 1
ταχ@@ 1
μένους 1
επέστρεψε 1
ολογίας 1
πόλεμο 1
δεύτερ@@ 1
Δεν 1
Νέα 1
δικαι@@ 1
ίσεις 1
είδη 1
Αυστ@@ 1
ούρ@@ 1
νησί 1
κανον@@ 1
αριθμό 1
ελι@@ 1
ρίων 1
Βερ@@ 1
δεκαετίας 1
Έλληνας 1
t 0.0785494802473726
έχοντας 1
γαρ@@ 1
υδρο@@ 1
περιοδ@@ 1
υκ@@ 1
μεθ@@ 1
Ιστο@@ 1
εξής 1
ποταμ@@ 1
ζητ@@ 1
εταιρεία 1
· 0.7919876147392569
μητέρα 1
έξ@@ 1
Σύν@@ 1
αμφ@@ 1
σελ@@ 1
ουργ@@ 1
οντα 1
τροπή 1
Ε.@@ 1
αναφέρει 1
θος 1
πραγματοποι@@ 1
ρονομ@@ 1
ίπ@@ 1
πραγματ@@ 1
Γαλλίας 1
ίως 1
πολέμου 1
φίλ@@ 1
πάρ@@ 1
Οθωμαν@@ 1
συμμετοχή 1
ήριο 1
Παγκόσμιο 1
ισχυρ@@ 1
άνοντας 1
τέτο@@ 1
είσ@@ 1
βρισκόταν 1
περισσότερα 1
ηματο@@ 1
ϋ@@ 1
Σαρ@@ 1
μόλις 1
ώρ@@ 1
ωματ@@ 1
Συμ@@ 1
Νε@@ 1
Ατ@@ 1
Μουσ@@ 1
άζονται 1
Μαρία 1
ειλ@@ 1
Μικ@@ 1
έτη 1
στικό 1
χο 1
Υπ@@ 1
Νό@@ 1
διέ@@ 1
ηγε@@ 1
βο@@ 1
τηλεοπ@@ 1
Άλ@@ 1
Λευ@@ 1
έργ@@ 1
χαρακτηριστικά 1
κάτοικοι 1
Ένωση 1
ραφ@@ 1
άστηκαν 1
αρχία 1
ρίζει 1
ονομάζεται 1
καιρ@@ 1
στήρ@@ 1
πεζ@@ 1
τηλε@@ 1
τικοί 1
ρακ@@ 1
λίγο 1
τρα@@ 1
ισσ@@ 1
ηφ@@ 1
ρεση 1
κοσμ@@ 1
πα 1
μαν 1
ακριβ@@ 1
d 0.12127230600525749
μνημ@@ 1
αναπτύ@@ 1
κατασκευή 1
δημιουργία 1
1990 0.9039856393489002
καριέρα 1
ποτέ 1
χλ@@ 1
δίδ@@ 1
Σοβιε@@ 1
Κύπελλο 1
μήνες 1
μετάλλ@@ 1
έξι 1
ριος 1
έι@@ 1
o@@ 0.15639248387796725
διαπ@@ 1
! 0.7679170375019992
βιβλίο 1
επόμενη 1
ερμην@@ 1
γυ@@ 1
τουρκ@@ 1
κύκλ@@ 1
μης 1
ανήκει 1
Κιν@@ 1
σκοπ@@ 1
διοργαν@@ 1
ποί@@ 1
ρι 1
παρέμεινε 1
όλους 1
ίστ@@ 1
άλι 1
έν 1
Ιταλία 1
μοντέ@@ 1
ανώ@@ 1
2002 0.7489854452098017
άμε@@ 1
ογράφ@@ 1
ψεις 1
γνω@@ 1
σημαίνει 1
χωριού 1
ορού@@ 1
δα 1
θηση 1
ισμα 1
πρωτο@@ 1
ίσματα 1
παραδ@@ 1
εμβ@@ 1
ευσε 1
ανίας 1
ρέφ@@ 1
συμπερι@@ 1
ρκ@@ 1
ευρωπαϊκ@@ 1
βαν@@ 1
ασι@@ 1
ιλι@@ 1
προβλ@@ 1
οστ@@ 1
δείχ@@ 1
ιταλ@@ 1
χής 1
άνια 1
έλ 1
σύμβ@@ 1
ισμούς 1
οειδ@@ 1
ήλ 1
πρωτεύουσα 1
αύ@@ 1
δεκα@@ 1
εφαλ@@ 1
λεια 1
αίο 1
Κον@@ 1
2020 0.554643872816156
σημαντικό 1
περίπτωση 1
ίωμα 1
περιβάλλ@@ 1
60 1
ασμό 1
ατα 1
βαθμό 1
ανδρών 1
πρωταγων@@ 1
2003 0.74855247013792
ανό 1
ωμ@@ 1
ρας 1
περισσότερες 1
ίκου 1
καν 1
όσεις 1
ιστικό 1
άρ 1
έλευση 1
ρό 1
μεταλλ@@ 1
Ιωάννης 1
επίσ@@ 1
εφημερ@@ 1
an 0.03703510030183902
Νομ@@ 1
Παλ@@ 1
31 0.9140799534747853
σταθερ@@ 1
απέ@@ 1
οποίηση 1
χές 1
Ερρί@@ 1
ιβ@@ 1
είπ@@ 1
... 1
ισχυ@@ 1
ώνοντας 1
εως 1
ίν 1
άγνω@@ 1
Ιωάννη 1
σημεριν@@ 1
χειρ@@ 1
γαλλικά 1
αρχή 1
νησι@@ 1
νίκη 1
ραση 1
πάλι 1
άκη 1
Ορ@@ 1
ημένη 1
τέρ@@ 1
αποτελούν 1
ώνης 1
ρή@@ 1
βασίλ@@ 1
Ανδρ@@ 1
καφ@@ 1
οί@@ 1
αμερικαν@@ 1
καιν@@ 1
ητική 1
άχ@@ 1
αποστολ@@ 1
σκοπό 1
δυνατ@@ 1
παγκόσ@@ 1
κορυφ@@ 1
μουν@@ 1
ελεύθερ@@ 1
τρε@@ 1
δεύ@@ 1
1999 0.8028080734592121
λαμβ@@ 1
σύλλογ@@ 1
επαρχία 1
νίκ@@ 1
οποίου 1
προηγούμεν@@ 1
ιου 1
ήποτε 1
φαιν@@ 1
καταγωγ@@ 1
κερδ@@ 1
ρικό 1
Σερβ@@ 1
τέσσερις 1
άνοι@@ 1
σώμα 1
Φραν@@ 1
ασφαλ@@ 1
ουλίου 1
άνα 1
τάφ@@ 1
πρά@@ 1
ορ 1
Μακ@@ 1
άρχ@@ 1
άνω 1
ρούς 1
ισμ@@ 1
συνδυ@@ 1
ρωσ@@ 1
80 1
ανι@@ 1
γκα 1
παίκ@@ 1
Κέν@@ 1
υπό@@ 1
Κολ@@ 1
ώσεων 1
οδος 1
φαίνεται 1
ήλθε 1
αστεί 1
ενα@@ 1
άζουν 1
χαρακτηριστ@@ 1
κλει@@ 1
φά@@ 1
πύ@@ 1
τείν@@ 1
ταινίες 1
συγγραφ@@ 1
δο 1
όνο 1
στρ@@ 1
όριο 1
πρόσωπ@@ 1
βιβ@@ 1
σημαντική 1
ανδ@@ 1
Βαρ@@ 1
κερ@@ 1
ρεύ@@ 1
ράς 1
ινγκ@@ 1
κόμη 1
αυτ@@ 1
γελ@@ 1
δίν@@ 1
μικρό 1
ανθ@@ 1
πληθυσμού 1
ώνων 1
Ιταλ@@ 1
αγγλ@@ 1
επικεφαλής 1
Φλ@@ 1
ασίες 1
δω@@ 1
ψης 1
ανεξάρτη@@ 1
προπον@@ 1
ταμ@@ 1
δύναμη 1
ισχύ@@ 1
αμβ@@ 1
g@@ 0.10130300876967312
n 0.16253199553158196
κατέκτησε 1
Στρατ@@ 1
αίας 1
and 0.011545906188740736
θυν@@ 1
Στέ@@ 1
νται 1
σπουδ@@ 1
μοι@@ 1
ξύ 1
βρα@@ 1
Τ 1
επίσημα 1
Πορ@@ 1
έστ@@ 1
αυτήν 1
Σκ@@ 1
και@@ 1
έρν@@ 1
πρόγραμμα 1
Σ. 1
άκι 1
Τρ@@ 1
χη 1
στασ@@ 1
ώνες 1
ατζ@@ 1
όνων 1
ταση 1
κατάφερε 1
Τούρκ@@ 1
Εθνικής 1
αθλ@@ 1
ραμ@@ 1
ογεν@@ 1
ποσ@@ 1
1η 1
σημει@@ 1
ύλου 1
μικ@@ 1
Θεσσαλονίκης 1
70 1
μιλ@@ 1
1997 0.9134914424487125
χρή@@ 1
Γαλλ@@ 1
θρησκευ@@ 1
s@@ 0.05758712042845384
σώ@@ 1
Έλληνες 1
S 0.5695582453886635
ξανά 1
ολόκλη@@ 1
εκκλησία 1
Σχ@@ 1
δού@@ 1
γράφει 1
Παρίσι 1
ώνη 1
σύνολο 1
εξουσία 1
πλατ@@ 1
πρώτες 1
επιστημον@@ 1
ρίστηκε 1
έρι 1
ισαν 1
όρους 1
τημα 1
αποτελείται 1
οικογέν@@ 1
ποικ@@ 1
νεκ@@ 1
λαβαν 1
στεν@@ 1
γυναίκες 1
επιστήμ@@ 1
ασσ@@ 1
Χαρ@@ 1
συνολικά 1
διάφορα 1
I 0.24470164802793268
e 0.08949970638140327
ανδρ@@ 1
εκατο@@ 1
άλλοι 1
διαφορ@@ 1
πλα 1
οπότε 1
Πολέμου 1
αντά@@ 1
Χαλ@@ 1
μικρή 1
χριστιαν@@ 1
άντ@@ 1
ζονται 1
μεγάλες 1
προ 1
Βραβ@@ 1
έλα 1
έπειτα 1
ύπ@@ 1
συνολ@@ 1
πρωθ@@ 1
τούς 1
αρ 1
Ομ@@ 1
Σχολή 1
κρα@@ 1
ητικό 1
στής 1
λεκ@@ 1
απέκτησε 1
γάμο 1
Παναγ@@ 1
βορ@@ 1
μην 1
άρη 1
μητ@@ 1
άκης 1
et 0.03229757909921459
σχέδιο 1
θυμ@@ 1
τραγουδι@@ 1
Ή@@ 1
εφαρμογ@@ 1
ιατρ@@ 1
παθ@@ 1
ταυτ@@ 1
ινε 1
προκαλ@@ 1
ετο@@ 1
έρ 1
απόσταση 1
εντ@@ 1
δρά@@ 1
κό@@ 1
άνθ@@ 1
υδ@@ 1
ικότητα 1
είμενο 1
συγκρότημα 1
συμμετ@@ 1
πλευ@@ 1
επανα@@ 1
σπίτι 1
ing 0.037390086397496705
όντων 1
μαθη@@ 1
όνες 1
r 0.3988725176261384
Αργ@@ 1
l 0.10936954922687654
ίδης 1
Βυζαντιν@@ 1
Ομοσπον@@ 1
παραγωγής 1
Ναυ@@ 1
es 0.03178993122315359
αυτούς 1
άγεται 1
τηρού@@ 1
ασμ@@ 1
χι@@ 1
απαρ@@ 1
αυτοκρα@@ 1
J@@ 0.1409540976943434
ίνας 1
διν@@ 1
πυρο@@ 1
όρια 1
όμενες 1
αγωνίστηκε 1
τομα 1
παραμ@@ 1
παραγωγ@@ 1
κτί@@ 1
φθηκε 1
Πρι@@ 1
εθνική 1
Δημοκρατίας 1
Γιου@@ 1
Ντέ@@ 1
θέματα 1
οδήγησε 1
ούσ@@ 1
όρε@@ 1
γερ@@ 1
πληθυσμός 1
θερμοκρα@@ 1
νο 1
Μάρ@@ 1
1998 0.7801992525849939
έφτασε 1
βραβ@@ 1
έρον@@ 1
δυτικά 1
προέρχεται 1
χαλ@@ 1
Νέ@@ 1
χυ@@ 1
ισης 1
τορας 1
επαγγελματ@@ 1
στρατό 1
εξελέγη 1
μαζ@@ 1
σκευ@@ 1
πούδασε 1
Ψ@@ 1
1991 0.8961334349828955
Ακ@@ 1
Ακαδημ@@ 1
Λουδοβ@@ 1
θή@@ 1
βάλλ@@ 1
ετία 1
προκειμένου 1
Ιω@@ 1
ιδρυ@@ 1
χών 1
ανο@@ 1
κοινό 1
ουά 1
δεκ@@ 1
1980 0.9427999825367346
πτει 1
τηκαν 1
ΕΚ 1
σύγκ@@ 1
γαλλ@@ 1
Κυβ@@ 1
καλλιτέχ@@ 1
παρατηρ@@ 1
όζ@@ 1
φυγ@@ 1
Α. 1
κακ@@ 1
νυ@@ 1
γαλ@@ 1
ιαν@@ 1
Δημοκρατία 1
υπήρχε 1
όδια 1
ήρω@@ 1
παιχν@@ 1
Πόλεμο 1
Σαλ@@ 1
γραφία 1
Δημο@@ 1
ίους 1
θανά@@ 1
Μακεδ@@ 1
Δήμου 1
Δημή@@ 1
συμβολ@@ 1
ωγ@@ 1
ακολούθησε 1
ξε@@ 1
υψόμετρο 1
0@@ 0.8162200497850165
000 0.8449312466709997
δημοφιλ@@ 1
στιγμή 1
έμβ@@ 1
ζωγράφ@@ 1
Βασίλειο 1
εύεται 1
ματο@@ 1
Σημ@@ 1
θεν@@ 1
τσι@@ 1
οθέ@@ 1
άμπ@@ 1
ηψη 1
μερικές 1
ημέρα 1
1996 0.8225085510764247
άξ@@ 1
ριστο@@ 1
φωτο@@ 1
υποστήρι@@ 1
Χριστιαν@@ 1
αίου 1
αποκ@@ 1
εση 1
μέσο 1
χώρησε 1
ίβ@@ 1
καλλι@@ 1
αρκετές 1
όπουλ@@ 1
Βουλ@@ 1
αγγελ@@ 1
επίθεση 1
σημαντικά 1
ώνυμο 1
18@@ 1
χθεί 1
ινή 1
.. 1
p 0.2387327298552873
αρχι@@ 1
ορθ@@ 1
άνεται 1
όνου 1
λογοτεχν@@ 1
άτες 1
ταγμα 1
ωμένη 1
Κάρο@@ 1
ζώ@@ 1
Μο@@ 1
μεί@@ 1
λλαγ@@ 1
απεβίωσε 1
ηθούν 1
ολοκληρ@@ 1
σειράς 1
ώμα 1
τούσε 1
θύν@@ 1
άλα 1
άρων 1
μβανε 1
ποδοσφαίρου 1
δοχ@@ 1
Αργότερα 1
Πολλ@@ 1
τολή 1
τσι 1
όδου 1
γρ@@ 1
Καν@@ 1
οποί@@ 1
σιος 1
Ιαπ@@ 1
συγκεντρ@@ 1
br 1
πηγές 1
Τρι@@ 1
πρωταθλήματος 1
φάση 1
αζόταν 1
ρών 1
όδο@@ 1
λάβ@@ 1
Πειρα@@ 1
σημαντικ@@ 1
λάβει 1
σχεδ@@ 1
βοήθεια 1
διαστ@@ 1
δημοκρατ@@ 1
αφορά 1
υποψήφ@@ 1
κόμμα 1
ώσουν 1
τεία 1
λευκ@@ 1
γου@@ 1
Διοικ@@ 1
παρουσία 1
παρόμ@@ 1
λέξη 1
άνης 1
οτήτων 1
ιχ@@ 1
υψ@@ 1
γίν@@ 1
Να@@ 1
ίνι 1
ελέγ@@ 1
Νικ@@ 1
δεξι@@ 1
Αντί@@ 1
Κόμ@@ 1
Μου@@ 1
πολλούς 1
όνι 1
εξαιρε@@ 1
Κρή@@ 1
νερό 1
όντα 1
είμενα 1
θέμα 1
ίκη 1
Ένωσης 1
+ 1
κυβ@@ 1
αρχαία 1
ώματος 1
τροπής 1
Νέας 1
Χρυσ@@ 1
1970 0.972869771046524
90 1
δυνα@@ 1
ανέ@@ 1
ητών 1
π.χ. 1
ημέρες 1
λαβ@@ 1
διαγων@@ 1
ότερος 1
ομιλ@@ 1
δας 1
ρν@@ 1
μέγεθος 1
υθ@@ 1
σχέσεις 1
σιαλ@@ 1
k 0.12764674236196114
αγγλικά 1
δεσμ@@ 1
Πρωταθλ@@ 1
ίτσ@@ 1
στες 1
ασαν 1
ανασ@@ 1
ριζ@@ 1
μεταφέρ@@ 1
καθαρ@@ 1
προσω@@ 1
σκολ@@ 1
κράτος 1
ρονόμ@@ 1
χα 1
δευτερ@@ 1
καλοκαίρι 1
βραβείο 1
κυκλ@@ 1
μύ@@ 1
Βουλγαρ@@ 1
περί 1
Ι 1
ειδή 1
ώνουν 1
Κεντρ@@ 1
καταστάθηκε 1
1992 0.798676954996287
νει 1
ταινίας 1
πλοκ@@ 1
άδας 1
Δού@@ 1
έλεγχο 1
παντρ@@ 1
όσφαι@@ 1
ζουν 1
Κατα@@ 1
κους 1
στρα@@ 1
νευ@@ 1
ριας 1
ητο 1
πολιτικός 1
Εργ@@ 1
διαδικασία 1
συλλ@@ 1
εκκλ@@ 1
ναλ@@ 1
οικογένειας 1
εντ 1
2021 0.5528652159956162
Στά@@ 1
e@@ 0.08527322166669528
τοί 1
τουν 1
Κύπρου 1
Σήμερα 1
Γιάν@@ 1
λόγο 1
τοπο@@ 1
1960 1
έρια 1
O 0.4402642440191634
ποδοσφαι@@ 1
κάτο@@ 1
H 0.8764461704981159
περιλαμβάνουν 1
Πολιτείες 1
γεγον@@ 1
πεί@@ 1
άσεων 1
πρι@@ 1
ότα 1
άνη 1
άει 1
al 0.04556901425170255
αρχιτεκτον@@ 1
ούδ@@ 1
Όσ@@ 1
αναγνώ@@ 1
βουλ@@ 1
τμήματα 1
τύπου 1
άλ 1
τορα 1
Κατηγορ@@ 1
παράδοση 1
Γερμανίας 1
δημιουργήθηκε 1
ετέλεσε 1
γυναίκα 1
ολο 1
κατε@@ 1
καμπ@@ 1
επιρρο@@ 1
Σικ@@ 1
Εβρα@@ 1
R 0.44550921180161424
Κι@@ 1
Αι@@ 1
δούκα 1
οντες 1
αριστερ@@ 1
Κόμμα 1
αιν@@ 1
τρίτη 1
τέλε@@ 1
Γεω@@ 1
μένως 1
ραν 1
Ρωμα@@ 1
δολ@@ 1
p@@ 0.07679241885651841
Ντι@@ 1
πήγ@@ 1
ίδων 1
δήμο 1
ωνική 1
1994 0.789737414131927
Αυτοκρατορίας 1
ξεν@@ 1
στή 1
λευθερ@@ 1
πρακ@@ 1
σι 1
ταξη 1
έγκ@@ 1
ηλεκτρ@@ 1
σοβαρ@@ 1
κλασ@@ 1
1993 0.8343322746007079
αλ 1
ιντ 1
πρίγκιπ@@ 1
γραμμ@@ 1
μένει 1
ύθηκε 1
αξε 1
βουλευ@@ 1
λαμ@@ 1
αποφασ@@ 1
ήμη 1
Επιπλέον 1
Μέχρι 1
0,@@ 1
βρ@@ 1
κτη@@ 1
γή@@ 1
πτυχ@@ 1
ραδι@@ 1
Ηνωμένες 1
γιατί 1
ματά 1
αποκλει@@ 1
m 0.1336189207505251
οσφαι@@ 1
ασθεν@@ 1
πλά@@ 1
ανθρώπιν@@ 1
θετα 1
δόθηκε 1
Αθη@@ 1
Ολλανδ@@ 1
Γαλ@@ 1
ανθρω@@ 1
τέσσερα 1
Βρίσκεται 1
αύξ@@ 1
νέου 1
έπρεπε 1
ωλ@@ 1
Κρι@@ 1
δουλ@@ 1
Άγ@@ 1
δέχθηκε 1
αναπαρ@@ 1
ακολουθεί 1
υπέ@@ 1
Σουηδ@@ 1
αθλη@@ 1
γνωστο@@ 1
μέρα 1
λου 1
L 0.37429950851859617
Στρα@@ 1
τάς 1
έστερ@@ 1
ίσουν 1
ουδ@@ 1
Φρ@@ 1
Υόρ@@ 1
πολλοί 1
επεισ@@ 1
αστικά 1
μπορού@@ 1
δράση 1
είωσε 1
um 0.12274765883557152
βουλευτής 1
μιο 1
γμα 1
έλφ@@ 1
επίσημ@@ 1
σί@@ 1
συστ@@ 1
βεν@@ 1
πό@@ 1
λειτουργία 1
εκτελ@@ 1
2.@@ 1
ήρυ@@ 1
1995 0.7611107575220956
F 0.5086101130305486
ΠΑ@@ 1
ποδοσφαιριστ@@ 1
νύ@@ 1
κτήσει 1
επηρε@@ 1
κατοίκων 1
γάμ@@ 1
Υπο@@ 1
Δύ@@ 1
ετα@@ 1
τέταρ@@ 1
έδει@@ 1
ς@@ 1
υι@@ 1
Κωνσταντ@@ 1
άνδ@@ 1
1989 0.8612058047434111
φύγ@@ 1
βαλ@@ 1
Αστ@@ 1
γυναικών 1
όνια 1
έμεινε 1
i@@ 0.11808193705154622
νομού 1
ερχ@@ 1
θε 1
διευθυν@@ 1
ίδι@@ 1
συμμετο@@ 1
ηλικ@@ 1
θεσε 1
άρχης 1
δαν@@ 1
υπηρέ@@ 1
παιχνίδι 1
βρίσκ@@ 1
άνι 1
ίρ@@ 1
μπουργκ 1
Επισ@@ 1
βαση 1
ψουν 1
τυχε 1
γι 1
συγκέντρ@@ 1
ώρες 1
Ιανουάριο 1
Σα@@ 1
επιλογ@@ 1
τροπ@@ 1
Πανεπιστημίου 1
Άλλ@@ 1
Βασίλ@@ 1
παντρεύτηκε 1
διαθέ@@ 1
πολλ@@ 1
όκκιν@@ 1
πάντα 1
Μαυ@@ 1
ειο@@ 1
Κάρ@@ 1
πέρασε 1
συνέχισε 1
1974 1
βουν@@ 1
Οικογένεια 1
Γιώργ@@ 1
° 0.9113777653608346
ιακή 1
στρια 1
λοβ@@ 1
ορίζεται 1
Ρώμη 1
μαρτυ@@ 1
ουσία 1
οφόρ@@ 1
σουν 1
y@@ 0.10711450947110379
Μουσείο 1
τραγούδια 1
ήτρια 1
συλλογ@@ 1
υπέλλου 1
Ηνω@@ 1
απέναντι 1
έτ@@ 1
ομάδων 1
δελ@@ 1
λευθέρ@@ 1
άνδρ@@ 1
el 0.025471117746222283
κάποιο 1
άριο 1
αστερ@@ 1
σκλη@@ 1
Πελ@@ 1
περιπτώσεις 1
γραφική 1
γρήγ@@ 1
φι@@ 1
ιστών 1
τομο 1
k@@ 0.09009542024848181
n@@ 0.07772921101862941
κη@@ 1
ανάλογ@@ 1
ερω@@ 1
Υπάρχουν 1
ζη@@ 1
απ 1
πορεία 1
αστυνομ@@ 1
Αγώνες 1
βόρ@@ 1
Και 1
συγγραφέας 1
όγκ@@ 1
διώ@@ 1
ματικά 1
εργασία 1
γκολ 1
κόσ@@ 1
ευγεν@@ 1
ίνων 1
T 0.4408380682442502
κυβέρνησης 1
αμέσως 1
χρονολογ@@ 1
Νικολ@@ 1
διατηρ@@ 1
ουντ 1
κέν@@ 1
άνδρες 1
έπει 1
ποταμού 1
ριά 1
ξέν@@ 1
ρικής 1
υβ@@ 1
ανάγκ@@ 1
χαρακτήρ@@ 1
αισ@@ 1
άρθ@@ 1
νεαρ@@ 1
εκκλη@@ 1
Ακολ@@ 1
Αδ@@ 1
Ευρώπης 1
κατάλ@@ 1
γε@@ 1
ίλι@@ 1
500 0.9624456422526487
λιος 1
Ρωσία 1
3.@@ 1
ιστής 1
Ρωμαϊκ@@ 1
μετέ@@ 1
ίοι 1
αρχος 1
αφήν@@ 1
έκα 1
γυνα@@ 1
όργαν@@ 1
ριακή 1
ύπαρ@@ 1
ινγκ 1
Ένας 1
πνευ@@ 1
καθεστ@@ 1
περιλαμβ@@ 1
c 0.12704481146105276
άσης 1
οκομ@@ 1
Γεώργιος 1
γραμμή 1
Ποδ@@ 1
εκπομπ@@ 1
φαρ@@ 1
περιέχει 1
ονίας 1
αποφάσισε 1
εμφάνιση 1
Μητ@@ 1
απώ@@ 1
Οκτώβριο 1
άθ@@ 1
δήμου 1
αγρο@@ 1
ροπ@@ 1
σαρ@@ 1
ταξι@@ 1
όκει@@ 1
Οικονομ@@ 1
πληρ@@ 1
άου@@ 1
ήνη 1
τουλάχιστον 1
Ελλάδος 1
Σεπτέμβριο 1
ικο 1
1,@@ 0.7389927001649154
ημένο 1
κάστρο 1
ανατ@@ 1
Λού@@ 1
επιχείρ@@ 1
μετά@@ 1
ειακή 1
μάλιστα 1
is 0.023277144340760753
θέν@@ 1
οίκ@@ 1
άπο@@ 1
ότα@@ 1
ανν@@ 1
ώνονται 1
άνθρω@@ 1
θερ@@ 1
ούτε 1
Αγίας 1
έλος 1
αλλαγή 1
ιδιοκ@@ 1
Πρό@@ 1
μέρη 1
καλλιτεχν@@ 1
προηγ@@ 1
ποσοστό 1
ώνυμ@@ 1
Πανα@@ 1
χεί@@ 1
Ιούνιο 1
θεατρ@@ 1
όρου 1
χρει@@ 1
προβλήματα 1
είχ@@ 1
ατών 1
Εθνικό 1
θει 1
m@@ 0.09121807670556008
Πρόεδρος 1
Άγιος 1
ητήρ@@ 1
h@@ 0.07459013936868757
ασης 1
παραλ@@ 1
ηθοποιός 1
Αλβαν@@ 1
σερ@@ 1
όλοι 1
δήμ@@ 1
αποκαλ@@ 1
ύψος 1
D 0.38234207425209077
τιμή 1
τάσεις 1
ίδη 1
κάλεσε 1
εβδ@@ 1
συλλογή 1
υποχρ@@ 1
σκηνοθέ@@ 1
Εκεί 1
εμφανίζεται 1
ακόλου@@ 1
έντο@@ 1
έτους 1
Ουκραν@@ 1
ταγων@@ 1
Βόρ@@ 1
μορ@@ 1
μαθηματ@@ 1
ηλι@@ 1
ημο 1
σκηνοθε@@ 1
βρεταν@@ 1
προσώπ@@ 1
τεν@@ 1
μ.Χ. 1
χου 1
αρχηγ@@ 1
πεν@@ 1
εω@@ 1
άτι 1
ιστή 1
αυλ@@ 1
συνθήκες 1
Λέ@@ 1
στές 1
αίτη@@ 1
όσια 1
κει@@ 1
καρ 1
λεί 1
φυλακ@@ 1
Ρου@@ 1
επιτρ@@ 1
ωμένο 1
άλυση 1
B 0.32430395056917133
εύγ@@ 1
σχεδιασ@@ 1
αναφορ@@ 1
κί@@ 1
τοπική 1
οιν@@ 1
μην@@ 1
τραγ@@ 1
συνεργασία 1
Σχολ@@ 1
γράφου 1
τραυματ@@ 1
Θέ@@ 1
Μπαρ@@ 1
Μάιο 1
θερμ@@ 1
Μελ@@ 1
άδων 1
νοσ@@ 1
συνθέ@@ 1
χρησιμοποιούνται 1
μέθ@@ 1
τζ 1
Κάτω 1
ιον@@ 1
d@@ 0.06701576447944294
ερευν@@ 1
γράμ@@ 1
όχρονα 1
συγκεκριμένα 1
ντε@@ 1
καλαθ@@ 1
τρια 1
1940 1
γ 1
t@@ 0.06072145936422952
εφ 1
εξ 1
θήκ@@ 1
τελευταίο 1
αλληλ@@ 1
σιμο 1
ματικό 1
Όλ@@ 1
ικ 1
γματα 1
απορ@@ 1
κίνηση 1
χωρι@@ 1
μέσ@@ 1
ελληνικό 1
θεωρία 1
Μάρτιο 1
διών 1
c@@ 0.06787867435416552
τουργ@@ 1
έσει 1
απαι@@ 1
αιχ@@ 1
ότε 1
Ηρακλ@@ 1
π. 1
αποικ@@ 1
διευ@@ 1
αντιμετωπ@@ 1
Πατρι@@ 1
κύρια 1
γαλλική 1
οφ 1
στήριο 1
γράμματα 1
όπιν 1
επεξ@@ 1
ισμένη 1
εύματα 1
λεύ@@ 1
δεχ@@ 1
δυναμ@@ 1
Ιούλιο 1
στ 1
ακολού@@ 1
ιδιω@@ 1
h 0.13750287291004587
πηγ@@ 1
συχν@@ 1
Υπήρ@@ 1
υπήρχαν 1
πράγ@@ 1
ίδι 1
διαι@@ 1
ρικ@@ 1
ατιν@@ 1
διάδοχ@@ 1
νομό 1
λει 1
35 0.8702272427378659
μέση 1
όδους 1
έρχεται 1
ποι 1
λατιν@@ 1
Κοινοβ@@ 1
ογραφικά 1
παρουσί@@ 1
λίμ@@ 1
συγκροτήματος 1
έπαιξε 1
ρασε 1
Εταιρ@@ 1
Τεχν@@ 1
Καλλ@@ 1
δείχθηκε 1
χαρακτήρα 1
Αύγουστο 1
Γεωργ@@ 1
άσσ@@ 1
πραγματοποιήθηκε 1
τύπ@@ 1
βάλ@@ 1
τογαλ@@ 1
ιδρύ@@ 1
βυζαντιν@@ 1
Βο@@ 1
Γερ@@ 1
ελευθερ@@ 1
επίσημη 1
προσπάθεια 1
ανακαλύ@@ 1
ia 0.14511926454381435
κύριο 1
τίτ@@ 1
προσπάθ@@ 1
Οίκο 1
στερα 1
βρέθηκε 1
οποίας 1
Αγγλίας 1
εστιβάλ 1
ρικά 1
Ασ@@ 1
a@@ 0.13692316211110803
ναός 1
πλού@@ 1
τρό@@ 1
ιμα 1
Δήμος 1
ατική 1
ελά@@ 1
Παγκοσμίου 1
έκα@@ 1
κορυφή 1
διοίκηση 1
ανού 1
ουλευ@@ 1
Αμερική 1
ιμο 1
Επανά@@ 1
παράλληλα 1
ρες 1
Αμ@@ 1
μπά@@ 1
άνονται 1
Κωνσταντινούπολη 1
19@@ 1
σχετί@@ 1
σιμ@@ 1
τει 1
θους 1
Κώ@@ 1
κατηγορίας 1
μακρ@@ 1
μελε@@ 1
επτά 1
απόλυ@@ 1
γενικά 1
βιβλιο@@ 1
πωλ@@ 1
νοια 1
ικότερα 1
δίκτυ@@ 1
αντίθεση 1
λους 1
ατόμ@@ 1
γειτον@@ 1
ισμοί 1
επανά@@ 1
Z@@ 0.1250199911945899
ασκευ@@ 1
Φερ@@ 1
κυν@@ 1
ωνο 1
επεκ@@ 1
Μαλ@@ 1
ταρα@@ 1
Τρί@@ 1
αλλαγές 1
κράτους 1
δημό@@ 1
ολογική 1
έδαφος 1
νου 1
εργάστηκε 1
αρχαί@@ 1
αμ 1
διά 1
Ρωσ@@ 1
Βόρεια 1
επόμενο 1
περισσότερ@@ 1
υπέγραψε 1
Δεκέμβριο 1
άρχη 1
Μπι@@ 1
200 0.8658715342112928
έβαλε 1
ίσως 1
Φραγκ@@ 1
κεφ@@ 1
ορειν@@ 1
προσπά@@ 1
ισμένο 1
Τζον 1
θεσης 1
32 0.9402923668711546
λιγ@@ 1
οια 1
τέχ@@ 1
όλλ@@ 1
Αυτοκρά@@ 1
Κέρ@@ 1
μικρο@@ 1
ιδιαίτερ@@ 1
πολέμ@@ 1
Παγκόσ@@ 1
ρωμαϊκ@@ 1
g 0.17609667825918837
to 0.011060950144020757
επικρά@@ 1
Αυτοκρατορία 1
αποτελέσματα 1
μέτρ@@ 1
ειδικά 1
βρά@@ 1
υποστήριξη 1
έφυγ@@ 1
Εκκλησία 1
διοδρομία 1
Σοφ@@ 1
διοργάνωση 1
τίμ@@ 1
φιλοσοφ@@ 1
Πολιτ@@ 1
φλ@@ 1
παραδοσιακ@@ 1
ήμα 1
1981 0.9326802749391883
άνου 1
άνιο 1
ισπαν@@ 1
χτ@@ 1
Αγία 1
έρευνα 1
πετ@@ 1
έργου 1
αντίστοιχα 1
μελέτη 1
Πρά@@ 1
.000 1
Γουλιέλ@@ 1
ψηλ@@ 1
άνθρωποι 1
άλη 1
σπουδές 1
λαϊκ@@ 1
Νοέμβριο 1
στρατού 1
συμμαχ@@ 1
γρα@@ 1
Γρηγ@@ 1
μπροστ@@ 1
αναφερ@@ 1
Τζέ@@ 1
έγερση 1
φρα@@ 1
Φρειδερ@@ 1
Πολωνίας 1
ολοκλήρω@@ 1
εδάφη 1
εδρο 1
καθολ@@ 1
ιμη 1
Καστ@@ 1
θηναϊκ@@ 1
1950 0.9195930400587831
πού@@ 1
αναγκ@@ 1
Σερ@@ 1
λλο 1
γυμ@@ 1
ένωση 1
ορισμένες 1
συμμετείχαν 1
περιστ@@ 1
ανεξαρτη@@ 1
ρια 1
Π 1
παρακάτω 1
σχέ@@ 1
συστήματος 1
ίκο 1
ευρύτερ@@ 1
επαφ@@ 1
Όπως 1
Κερ@@ 1
θρόνο 1
Μαν@@ 1
βα@@ 1
σημαν@@ 1
Αγγλία 1
Βρα@@ 1
τώρα 1
φοι@@ 1
θου@@ 1
σ 1
ίνος 1
Πα@@ 1
ερσ@@ 1
αρντ 1
Μιλ@@ 1
άμεων 1
ελί@@ 1
στών 1
ουσίας 1
φρ@@ 1
Απρίλιο 1
άστ@@ 1
Ρε@@ 1
επαρχ@@ 1
νηση 1
Εκτός 1
κόρης 1
τέχνης 1
οποίους 1
P 0.4611396111108616
Ηλ@@ 1
Φυσ@@ 1
σύνθεση 1
γλώσσες 1
προσαρ@@ 1
Καζ@@ 1
οργάν@@ 1
ταχύτη@@ 1
αδελφός 1
ογράφος 1
επικοιν@@ 1
φασ@@ 1
βορει@@ 1
παρχ@@ 1
M 0.4062993557280972
αξιωματ@@ 1
συμμε@@ 1
Μιχαήλ 1
αισθη@@ 1
τελική 1
πολιορκ@@ 1
αφιερ@@ 1
αζε 1
περν@@ 1
Αμπ@@ 1
ορα 1
ώδη 1
βη@@ 1
απεικον@@ 1
εμφανίστηκε 1
τικότητα 1
διαθέτει 1
Παρά 1
αποτελεσ@@ 1
πληροφορίες 1
δήλωσε 1
ομοσπον@@ 1
Ουγγαρ@@ 1
ευγ@@ 1
βιβλία 1
εκδό@@ 1
παρατ@@ 1
λέχ@@ 1
έμπ@@ 1
Αλέξανδ@@ 1
Δικα@@ 1
Προσ@@ 1
θεω@@ 1
Πολων@@ 1
πόν@@ 1
μετονομ@@ 1
ονες 1
Λόγ@@ 1
ανθρώπους 1
Αερ@@ 1
ηθοποι@@ 1
ατμ@@ 1
τραγου@@ 1
ανατολική 1
αρμ@@ 1
κέρ@@ 1
κν@@ 1
θν@@ 1
κλι@@ 1
Λιγκ 1
αντίστοιχ@@ 1
Ελλήνων 1
έρευ@@ 1
ρίσ@@ 1
λόγους 1
ανός 1
εντά@@ 1
λιγότερο 1
λαμβάνει 1
Μόσ@@ 1
ονα 1
εξαιτίας 1
ΐας 1
επαρχίας 1
νησ@@ 1
περίοδος 1
προστατ@@ 1
Σο@@ 1
u 0.13079450906403972
δημοσί@@ 1
en 0.011240692879590137
μέρες 1
Τη 1
j@@ 0.11125849106265995
σχολείο 1
κόσμου 1
ορισμό 1
ίδιου 1
ίκης 1
Φω@@ 1
Σά@@ 1
δήμος 1
ρίδα 1
δράσεις 1
έξω 1
τισμού 1
Σταυ@@ 1
χά@@ 1
Έν@@ 1
εργασίας 1
οικονομική 1
μουσικής 1
Δήμο 1
συμφωνία 1
ηλεκτρον@@ 1
1945 0.6734773740626924
φος 1
επιφάνεια 1
οικοδ@@ 1
ρεκόρ 1
άλλος 1
αντιπροσωπ@@ 1
1985 0.8138644424684929
E 0.3645494055733285
μεγ@@ 1
αστική 1
σημερινή 1
πραγματοποί@@ 1
1944 0.8884287489233054
δά@@ 1
μελέ@@ 1
τημ@@ 1
ομοι@@ 1
διαν@@ 1
συμβόλ@@ 1
Είχε 1
διεκδ@@ 1
στιτού@@ 1
φέρεται 1
b@@ 0.06637495375492858
Κρο@@ 1
αδερ@@ 1
ζωνταν@@ 1
στευ@@ 1
δάσ@@ 1
ήθελ@@ 1
υπεύθυν@@ 1
άρχισαν 1
ίνες 1
περιφέρεια 1
Λίγ@@ 1
Μπου@@ 1
ανακοιν@@ 1
όπος 1
πλειοψηφ@@ 1
εκπαιδευ@@ 1
οφεί@@ 1
ακ 1
ελλήν@@ 1
Αθή@@ 1
ρές 1
πολύ@@ 1
νησιού 1
Φι@@ 1
Φίλιπ@@ 1
χρησιμοποιήθηκε 1
γραφές 1
όνη 1
ιες 1
απόφαση 1
ανία 1
τρίτο 1
δίνει 1
μάζ@@ 1
διοικητική 1
ήττα 1
ελάχ@@ 1
εντάχθηκε 1
αντί 1
ιοι 1
Al@@ 0.12752343333745828
δημιούργησε 1
δελφ@@ 1
Εξωτερ@@ 1
ύχ@@ 1
νήσ@@ 1
κρυ@@ 1
σβ@@ 1
Σέρ@@ 1
οδυτικά 1
ότυπο 1
μίας 1
θο 1
ήτη 1
Ορθ@@ 1
αποτέλεσε 1
κάποιες 1
στολ@@ 1
παλι@@ 1
τερα 1
αρχηγός 1
στηκαν 1
ρή 1
σου@@ 1
1988 0.7155605640244584
υπέρ 1
διατήρ@@ 1
Βορ@@ 1
γλωσσ@@ 1
εκπαίδευση 1
περιοδικό 1
Σί@@ 1
αντίπαλ@@ 1
αναφέρονται 1
όλος 1
ήτης 1
χρησιμοποί@@ 1
v@@ 0.07744562392943338
1986 0.7719896673524187
συμπεριλαμβανο@@ 1
Πολωνία 1
αγόρ@@ 1
75 0.9127248929808923
στρο 1
ψευ@@ 1
ικώς 1
τροχ@@ 1
πηγή 1
in@@ 0.04550943994472904
συνέπ@@ 1
ιλία 1
τίτλος 1
θέατρο 1
ιθ@@ 1
μεγάλα 1
Νορβηγ@@ 1
έργων 1
ττα@@ 1
αρχική 1
ιζόταν 1
βιβλ@@ 1
συζύγ@@ 1
μμ@@ 1
Τελικά 1
ντεμπούτο 1
ιακό 1
ζαν 1
πρωτ@@ 1
κατηγορίες 1
καθηγητής 1
σή@@ 1
οίτησε 1
ολογικό 1
Καναδ@@ 1
αζί 1
πρόσφ@@ 1
ινο 1
περιφερ@@ 1
κεν@@ 1
αγορά 1
ίδρυση 1
υλικό 1
19ου 1
Κό@@ 1
Αρμεν@@ 1
Νορ@@ 1
δό@@ 1
πολλών 1
Όμως 1
κατέλαβε 1
κόμματος 1
τέθηκε 1
άμεσα 1
ιου@@ 1
αγκ@@ 1
μπλ@@ 1
όπλ@@ 1
ελληνικής 1
ολο@@ 1
αναφέρ@@ 1
εορ@@ 1
11@@ 1
άου 1
αίθ@@ 1
μάτισε 1
Ρωσίας 1
αλή@@ 1
θεται 1
όπεδ@@ 1
διαβ@@ 1
κωμ@@ 1
Μακεδονίας 1
ξεχωριστ@@ 1
Πο@@ 1
4.@@ 1
βρε@@ 1
γράψει 1
Πε@@ 1
ειξη 1
1987 0.7526007093406217
Ιταλίας 1
Στ@@ 1
παραπάνω 1
εδρ@@ 1
λιο@@ 1
γραμματ@@ 1
χωριά 1
ίτες 1
σύνορα 1
μετέπειτα 1
πλαίσιο 1
ιας 1
ομίλ@@ 1
εύουν 1
λογία 1
ότητά 1
ορίστηκε 1
τίες 1
θρησκ@@ 1
Βου@@ 1
προσκ@@ 1
2,@@ 0.8031838524724789
at 0.02860148154683848
γεωργ@@ 1
θεώρ@@ 1
θάνατό 1
υποψηφ@@ 1
αναφορά 1
Συγκ@@ 1
μβούργ@@ 1
Βασιλι@@ 1
επιβεβ@@ 1
κομμάτι 1
ενδιαφέρον 1
τήσει 1
ρέψει 1
νεο@@ 1
στό 1
ιστικής 1
ωνικά 1
θεραπεία 1
κόλ@@ 1
Παι@@ 1
στρατιώτες 1
αυτοκράτορα 1
ηκαν 1
Τέ@@ 1
λιμάν@@ 1
Αυστραλ@@ 1
ανακοίνωσε 1
σχέδια 1
κατάλληλ@@ 1
φτ@@ 1
Χ 1
συλλόγου 1
ρίζουν 1
δύνα@@ 1
κοπος 1
σημαντικές 1
ασθέν@@ 1
προεδρ@@ 1
ηρε@@ 1
τηθεί 1
έχασε 1
πόντους 1
Ματ@@ 1
άσουν 1
Δημοκρατ@@ 1
στικής 1
ζήτησε 1
ταφ@@ 1
45 0.7774536575083805
δεικνύ@@ 1
1920 1
Λονδίνο 1
ήρθε 1
φιλοξεν@@ 1
V 0.47648393458940524
Γεωργίου 1
ίδρυσε 1
Θεσσαλονίκη 1
σιδηρο@@ 1
ταξε 1
πλοία 1
άλλον 1
οργάνωση 1
1975 0.8043069655199319
αεροσκ@@ 1
Δια@@ 1
ρακα 1
επίδραση 1
οκτώ 1
κοινότητας 1
Ειρ@@ 1
περισσότεροι 1
1984 0.7535235731336263
ευρέ@@ 1
ήγαγ@@ 1
Εκκλη@@ 1
οργάνωσης 1
δης 1
δυνατότητα 1
ιστούν 1
1982 0.7984737198242798
έστειλε 1
Ιδρ@@ 1
αντιμετώπι@@ 1
Κωνσταντίνος 1
Νικόλα@@ 1
λόφ@@ 1
ναό 1
ρευ@@ 1
εικον@@ 1
Καλλικράτης 1
ιστάν 1
τοτε 1
la 0.009544321229511453
Ενώ 1
Παράλληλα 1
γεννη@@ 1
έρχονται 1
κλάδ@@ 1
Λα@@ 1
Στρ@@ 1
οκρατ@@ 1
Ντά@@ 1
γκοσλαβ@@ 1
παιδί 1
εκστρατεία 1
κοιλ@@ 1
οσφαίρισης 1
θάλασσα 1
Φεβρουάριο 1
έναρ@@ 1
όμα 1
έλευ@@ 1
Ηνωμένων 1
Αζ@@ 1
τομέα 1
Ρουμαν@@ 1
Σαν 1
νερού 1
συρ@@ 1
δρα 1
περιφέρ@@ 1
αιτέρ@@ 1
Ευρω@@ 1
Ch@@ 0.10880136743868318
είνει 1
Αμερ@@ 1
κοινοβ@@ 1
Αθλ@@ 1
Ελληνική 1
l@@ 0.058996410677137644
μού 1
τοιχ@@ 1
εξέλιξη 1
σχήμα 1
εντοπ@@ 1
κες 1
τησης 1
Αρχικά 1
ήνης 1
έτα 1
οδρόμ@@ 1
Αγγλ@@ 1
Ντα@@ 1
δεια 1
οντ@@ 1
τερο 1
Μέγ@@ 1
δέν@@ 1
ακαδημ@@ 1
δών 1
πληθυσμ@@ 1
1979 0.7975861860563727
πραγματικότητα 1
δώσει 1
βέρ@@ 1
συμπεριλαμβανομένων 1
παίρν@@ 1
άζοντας 1
προγραμματ@@ 1
αρχίας 1
1967 0.900268153441025
άδια 1
βαθ@@ 1
ar 0.05436573686430295
διεξήχθη 1
w@@ 0.061625316569181514
στημα 1
Μάν@@ 1
Τμή@@ 1
ελληνικά 1
μπου@@ 1
τεν 1
Πατ@@ 1
Πύ@@ 1
εινε 1
1941 0.8590790710066608
N 0.3816858142083841
σου 1
1912 1
ίτη 1
Σω@@ 1
έφερ@@ 1
μπι 1
θω@@ 1
επίπεδ@@ 1
ενδιαφ@@ 1
25@@ 0.722660840374056
” 0.27460670417136634
x@@ 0.17931497503333657
ήτ@@ 1
on@@ 0.07606702611226097
G 0.411561925105933
τισε 1
θελ@@ 1
z@@ 0.06895096061635271
ταυ@@ 1
X@@ 0.3670263388970749
έναντι 1
ότυπ@@ 1
“ 0.08392310341472965
1978 0.7956533549448365
ήχθη 1
στηρι@@ 1
1983 0.7519449769961979
οδήγ@@ 1
ch@@ 0.04698001320460465
καταστά@@ 1
1973 0.8050591986933812
ην 1
Ύ@@ 1
Y@@ 0.1600165766324634
Οικ@@ 1
r@@ 0.05529386942663492
1976 0.780443134852642
f@@ 0.04611039524879194
X 0.5407050521544298
1930 0.9434368326422448
33 0.8781245716092604
36 0.8879108272371136
ξεκίν@@ 1
στε 1
νήθηκε 1
είν@@ 1
1977 0.8176238933001021
νών 1
1971 0.7836556027205689
μενα 1
λεύθερ@@ 1
οδυ@@ 1
55 0.9996452832997414
θεια 1
al@@ 0.05350727178265831
1972 0.7336029401342348
1968 0.7625470533265484
en@@ 0.042653321320466286
1964 0.8477696446082201
όρ 1
Ρω@@ 1
αυτοκρά@@ 1
βρέ@@ 1
37 0.9338943010579391
πειτα 1
Νο@@ 1
οφορ@@ 1
εκρι@@ 1
εντρ@@ 1
65 0.7354184748501026
1961 0.9425153072285648
Έχ@@ 1
θεραπ@@ 1
34 0.8863630317191339
1939 0.8332895525166544
θανε 1
δ 1
βιε@@ 1
an@@ 0.05911019622027424
κόρ@@ 1
εμφ@@ 1
30@@ 0.9373575800384923
εξέ@@ 1
ερι@@ 1
ar@@ 0.057133652731891776
αίρισης 1
αίσ@@ 1
85 1
ίδραση 1
γλώσ@@ 1
38 0.8934873053628296
1821 1
CH@@ 1
1963 0.8851161566968652
ότια 1
ούργ@@ 1
τεκ@@ 1
παρακ@@ 1
In@@ 0.13991333671547584
μεγαλ@@ 1
γραμμα 1
ίδρυ@@ 1
b 0.1702502667239251
ολοκλη@@ 1
παιδ@@ 1
el@@ 0.06208712303081353
# 1
or 0.03837638691262155
U 0.35613418208328634
οση 1
ανθρώπ@@ 1
00@@ 1
1943 0.810331347813693
θλ@@ 1
έλεγ@@ 1
1969 0.767445742733049
διαί@@ 1
σειρ@@ 1
1946 0.8563745834968816
παραδο@@ 1
καρι@@ 1
6.@@ 1
To 1
εύθυν@@ 1
42 0.9414306654230731
έρνηση 1
39 0.9712263882802403
έπαι@@ 1
αιρε@@ 1
th@@ 0.06689159872955582
ηρέ@@ 1
64 0.8101501372042748
1965 0.7801945384079757
er@@ 0.04382170818720967
48 0.8947431661181052
σει@@ 1
Πόλε@@ 1
φάν@@ 1
ed 0.017914303498965157
συνέχ@@ 1
or@@ 0.06325723902024095
24@@ 0.9770836107870972
αρκε@@ 1
1918 0.9039392348165222
z 0.12952258461255126
ερευ@@ 1
Ιωάν@@ 1
08 1
300 0.9489578106457696
καθηγ@@ 1
όλε@@ 1
Λ 1
οργ@@ 1
ανάπτυ@@ 1
1966 0.7719909026444295
άφη 1
καθε@@ 1
ic@@ 0.09077800712251319
άλασ@@ 1
λις 1
Μ 1
83 1
ισχ@@ 1
συνήθ@@ 1
at@@ 0.07788816375619875
Του@@ 1
Βασ@@ 1
οσφ@@ 1
Ν 1
ύψ@@ 1
ωβ@@ 1
1928 1
47 0.9701620837170631
88 1
95 1
52 0.94614924836279
1947 0.8546080097113232
W 0.48392472722152885
Tr@@ 0.11413909367932544
72 1
ag@@ 0.07090849081875691
ησιμ@@ 1
Re@@ 0.11492855168162182
ργαν@@ 1
ine 0.07952915883032291
53 1
δήλ@@ 1
μβαν@@ 1
σιακ@@ 1
54 1
ie 0.0713369255135459
04 1
71 1
Τε@@ 1
διάφορ@@ 1
νερ@@ 1
44 0.8125023953001488
1948 0.7727212228272496
1958 0.7988619333218143
es@@ 0.0683657196823142
αρτη@@ 1
41 0.9330308894022491
βοή@@ 1
1962 0.7614494631406736
Λονδίν@@ 1
1956 0.785668873007487
st@@ 0.05129914622806081
f 0.14944453411803002
λεξ@@ 1
86 1
Mar@@ 0.11068512548859002
εκεί@@ 1
κομμά@@ 1
66 1
ac@@ 0.06322502322211576
στήρι@@ 1
άλληλ@@ 1
28@@ 0.9517937649701734
λλογ@@ 1
κυρί@@ 1
ers 0.04161457906547519
απέκ@@ 1
ηλεκτ@@ 1
3,@@ 0.6983731198630913
σες 1
as 0.013954550527363078
56 0.9803413082402462
Τελ@@ 1
κατηγορ@@ 1
78 1
τορίας 1
Ar@@ 0.11734086777264989
61 1
58 1
ad@@ 0.06357101735719434
is@@ 0.06430173984132817
διαδικα@@ 1
le 0.015604593281804484
68 1
43 0.9398184641704709
51 0.9254845328024203
1919 0.8929049693115976
Μεγ@@ 1
θρω@@ 1
ροφορ@@ 1
w 0.11206548969805068
ρίς 1
62 1
et@@ 0.09254629114092869
Ρώ@@ 1
ul@@ 0.07369623856173593
84 1
1955 0.8319189476190025
7.@@ 0.911195222744912
ation 0.03155665428556508
5.@@ 0.8409796952173039
σπί@@ 1
1959 0.7786867941657363
07 1
76 1
οτεχν@@ 1
De@@ 0.21486524029076015
θωμαν@@ 1
82 1
1942 0.6769828978789906
άτων 1
— 0.03865504792273155
87 1
67 1
πραγ@@ 1
46 0.9263081933664655
Δήμ@@ 1
πλαίσ@@ 1
59 1
74 1
Con@@ 0.11891604177675896
as@@ 0.0647038338582022
ref 1
77 1
ταιν@@ 1
1951 0.8734440690701535
ανήκ@@ 1
θάλασ@@ 1
1922 1
81 1
1936 0.7935110490364918
u@@ 0.07530606962160925
εστι@@ 1
τηρ@@ 1
Ολυμπ@@ 1
ph@@ 0.09066593402214775
St@@ 0.10378605527671458
επιβ@@ 1
1949 0.746987748372324
69 1
τμή@@ 1
μαθ@@ 1
63 0.9783064683042211
επιστήμιο 1
ρισης 1
ol@@ 0.07963251213323252
8.@@ 0.9505628979723842
ώνυ@@ 1
μπού@@ 1
φαλ@@ 1
57 0.9510586846526734
1957 0.7607414701123881
Br@@ 0.12201684518939628
K 0.37149167253106563
am 0.05814972838398177
1938 0.728294674877466
διάδ@@ 1
05 1
τοποί@@ 1
99 1
1952 0.7607442202155007
ατρο 1
πληροφορ@@ 1
ανθρώ@@ 1
1924 0.9448893732944
εβίωσε 1
re@@ 0.022412278088465982
49 0.8866885979120138
os 0.04176601798512124
ακολου@@ 1
Ζ 1
άσι@@ 1
am@@ 0.06294681508099595
εκστρατ@@ 1
1927 0.9719684661524142
ot@@ 0.07949621904865872
92 1
09 1
79 1
400 0.8393863313201847
it@@ 0.058151329615706904
di 0.30540577408643443
01 0.9463109435155392
µ@@ 1
1953 0.7697113169464985
Sh@@ 0.14883994603155867
1929 0.8554535746590558
1954 0.7377200857972789
An@@ 0.08235068504912395
πόλ@@ 1
26@@ 0.9880605063162518
73 1
96 1
όνομ@@ 1
06 1
τίου 1
1935 0.8223053093501189
03 1
θάνα@@ 1
σοβ@@ 1
συλλόγ@@ 1
επε 1
φερε 1
5,@@ 0.8752091866960168
επιστη@@ 1
τορία 1
02 1
καταγ@@ 1
χολ@@ 1
97 1
ti@@ 0.06452307907702148
tr@@ 0.043351692611805874
δοση 1
1926 0.9015899966289987
Th@@ 0.10867992549901209
ορκ@@ 1
άνα@@ 1
τονομ@@ 1
98 1
Κωνσταντινού@@ 1
υπήρ@@ 1
le@@ 0.05939889068459256
93 1
Υπάρχ@@ 1
www.@@ 1
1933 0.706760430772837
έφτα@@ 1
89 1
man 0.09075234104336607
γρά@@ 1
29@@ 0.8670531080706231
1934 0.7879971611750742
πλέ@@ 1
-- 1
όπο@@ 1
ic 0.09092470990661788
om@@ 0.08005528703742841
ρεψε 1
1937 0.7149958674013304
π.@@ 1
Car@@ 0.13452234856155315
6,@@ 0.8017383289474459
lo@@ 0.07377521745033933
0.@@ 0.3685050326408827
94 1
4,@@ 0.7191850932954136
1923 0.901779486004099
εκπαίδευ@@ 1
Θεσσαλ@@ 1
ερα 1
1932 0.8203425517251908
αρίου 1
ριβ@@ 1
ab@@ 0.05415065303442644
https 1
πρωτεύ@@ 1
υζ@@ 1
στιγ@@ 1
χαρακ@@ 1
συμπεριλαμβ@@ 1
da 0.08611850510912167
Co@@ 0.15016269928121992
Μιχ@@ 1
‘ 0.79317996277262
ard 0.13027286733150711
1917 0.7840703457752678
os@@ 0.08350423630323295
son 0.040222913571138004
σύγ@@ 1
Υ 1
im@@ 0.056549529107194574
1925 0.8500888962781389
li@@ 0.06317974770090426
λιστα 1
00 0.7281972688680658
der 0.007962459759858095
ϋ 1
πελλο 1
Γεώργ@@ 1
ανου@@ 1
91 1
διοίκ@@ 1
us@@ 0.06257842046369337
1914 0.742396360345438
περιοχ@@ 1
τω 1
ἐ@@ 1
8,@@ 0.8682110199091924
il@@ 0.06099395062351271
Com@@ 0.1251765689651373
εμφάν@@ 1
Eurovision 1
Gr@@ 0.13436124270996577
αλλαγ@@ 1
La 0.04153882907651143
ate 0.04167542934657312
id@@ 0.06677424303086613
πληθ@@ 1
it 0.025125123920612263
Bo@@ 0.1783205408890875
em@@ 0.061332514940469866
απεικ@@ 1
Αυγ@@ 1
New 0.08472482700563101
9,@@ 0.9510700591856998
av@@ 0.08961763075680972
ήν 1
1913 0.8852514565893917
1931 0.7742752602399533
χε 1
Θ 1
κραν@@ 1
καλοκα@@ 1
νησης 1
ur@@ 0.05236268511425733
CO@@ 0.8266859665297568
ed@@ 0.07864257008942716
κυκλοφόρ@@ 1
μενο 1
Επίσ@@ 1
ηχαν@@ 1
ik@@ 0.11666485690577462
9.@@ 0.8159845419742149
γει@@ 1
one 0.03908278700410777
27@@ 0.9333272445441908
age 0.047372386029918584
γά@@ 1
ζυγ@@ 1
te 0.026895279900400356
Παγ@@ 1
γραψε 1
θήκες 1
ορά 1
Be@@ 0.10108498917354132
άρτη@@ 1
ήτων 1
II 0.1644829643362801
Ευρ@@ 1
1900 0.79757819310636
ὶ 1
ens 0.07814991855193332
όπο 1
oc@@ 0.07354851477752346
επιφάν@@ 1
οκα@@ 1
ta 0.08323313294097175
ch 0.08267064137745558
εριν@@ 1
He@@ 0.1695030690254694
ro@@ 0.05476193729268581
Le@@ 0.11410928785507203
δεικ@@ 1
έβαλ@@ 1
ent 0.02827192286735134
ετές 1
150 0.8859538532317381
1921 0.7391109726163498
χείρ@@ 1
χαν 1
ana 0.0940919740038148
7,@@ 0.7754566272791574
απόφ@@ 1
League 0.18479491338398932
ve 0.04348441413058759
for 0.012184629292270538
ad 0.10065845065665514
Αλέ@@ 1
Di@@ 0.12064646630144042
Mon@@ 0.1335757280651892
Par@@ 0.10613666583244441
θέρ@@ 1
ώπ@@ 1
600 0.9545678406259867
ναϊκ@@ 1
ica 0.11771123611051645
έρχ@@ 1
ri@@ 0.07995836679135578
ec@@ 0.06531737697551193
ter 0.049415235806030244
Αλέξ@@ 1
οσκ@@ 1
σωτερ@@ 1
120@@ 1
Sp@@ 0.16530455502880292
ous 0.10283168895455302
ton 0.10085191860712422
1910 0.746954052797996
Records 0.49029311252740043
επέστ@@ 1
ay 0.10036515517690052
πουδ@@ 1
ina 0.10136030352446851
αίρου 1
ρίγκιπ@@ 1
World 0.1299900971544522
des 0.010201531487552637
5.000 1
Cl@@ 0.23623801681508458
αρμογ@@ 1
qu@@ 0.04919082296631167
όλυ@@ 1
δημιούργ@@ 1
800 0.9497728337155227
ap@@ 0.05115991416948336
παράδ@@ 1
BBC 0.8721004144498463
single 0.22033316075568907
Τού@@ 1
1915 0.7864286012219834
επαγγελ@@ 1
v 0.1685259543157126
Cr@@ 0.20226001141528607
1908 0.8228046301724246
ts 0.04189221926486576
ig@@ 0.06419878071103138
sh@@ 0.054892332773075404
έρονται 1
ολό@@ 1
ale 0.06368993350936095
ομηχαν@@ 1
von 0.01791842435809187
un@@ 0.03492218961368654
* 0.1807064419938442
ae 0.2871681314341056
λεσε 1
John 0.12304078688736866
κανε 1
Ro@@ 0.13085260286001088
Qu@@ 0.1154036639037027
λαδ@@ 1
Ex@@ 0.13016211044518627
μ.@@ 1
um@@ 0.059638103031608755
1916 0.7732442024160388
$ 0.16002533169296929
δισε 1
? 0.34912636247189277
Sch@@ 0.05233848371450241
ἀ@@ 1
1905 0.7540413200065742
s.@@ 1
ell 0.1123654317471948
id 0.12241262157050499
de@@ 0.042686540169073424
έρνησης 1
You 0.5130088730069682
est 0.013653271581264939
For@@ 0.14170427276999664
ant 0.0343043094732496
Music 0.33706435672999996
ιουργ@@ 1
se 0.014922220265254551
J 0.5624956536117287
Pr@@ 0.12199593108369201
οίν@@ 1
έγερ@@ 1
ηλε@@ 1
υσμ@@ 1
Cor@@ 0.14544042314420536
οδρο@@ 1
di@@ 0.038342467298247994
ice 0.08812484894771118
οσοφ@@ 1
En@@ 0.12434262236124971
• 1
az@@ 0.10957485056741076
eg@@ 0.07372182630741804
ou@@ 0.07540465218763347
ελέγη 1
1906 0.7902587118161881
χ. 1
ανακοίν@@ 1
na 0.12239070333232666
παίδευ@@ 1
Εί@@ 1
− 1
vi@@ 0.06923817882843367
align 1
αιτίας 1
tic@@ 0.16136678376002533
Q@@ 0.21707079303478716
TV 0.25700264544556717
αναφ@@ 1
ποσο@@ 1
Disney 1
διάρκ@@ 1
1904 0.799271483600453
Windows 1
FI@@ 0.7989090361973002
λαβε 1
Se@@ 0.10249733653128329
CD 0.5283824791906924
1911 0.6850167429019239
λίου 1
λλανδ@@ 1
iss@@ 0.24602058273165345
​ 1
Bar@@ 0.10303453594857562
DNA 1
mo@@ 0.07742410752356199
all 0.04516927366896799
1896 0.9490724778594225
ut@@ 0.071297225151105
re 0.061765416888338844
po@@ 0.04652942923299894
κειμένου 1
1907 0.7353177861276656
νώ@@ 1
name 0.10563644796907301
πτώσεις 1
2022 0.447063619619035
ir@@ 0.051649960019060664
´ 1
θάν@@ 1
ρον 1
στή@@ 1
OS 0.7205538310598051
κατοίκ@@ 1
ent@@ 0.03650353292859306
Επαν@@ 1
Per@@ 0.11214740438675025
συγκροτ@@ 1
1000 0.7328190401211572
1909 0.7413556152316578
AR@@ 0.46181494324598515
πέν@@ 1
υπάρχ@@ 1
ter@@ 0.04995019849081337
th 0.0449978010059907
ler 0.0800067045572148
co@@ 0.04245925545039254
ni@@ 0.07443929950071024
Mor@@ 0.12679125958797047
Billboard 0.7541162936078758
ak@@ 0.06224850631057564
il 0.02743293759664328
ce 0.050892296054381586
μμύρια 1
ley 0.11157237960938331
10.000 1
El@@ 0.09888480246786924
IS@@ 0.514122374367574
αποτέλε@@ 1
og@@ 0.09280026636518154
style 0.2582338485529674
Col@@ 0.10899104624499373
ain 0.10378929408688264
1.000 1
ill@@ 0.11008198641246932
ξεχω@@ 1
ka 0.1608034539845036
Φ 1
ύτη@@ 1
SS 0.6156380430318601
1897 0.8745516589017174
tro@@ 0.13879659916931952
si@@ 0.05449683982456837
ογέν@@ 1
κάπο@@ 1
Str@@ 0.13121994526523217
Am@@ 0.11546413695010939
RA@@ 0.5307584514874102
ξεκ@@ 1
120 0.9033822791514526
to@@ 0.06830393700854756
μαϊκ@@ 1
700 0.9828116296674978
ῶ@@ 1
od@@ 0.10042841316221027
Ma@@ 0.1485099420614148
Ώ@@ 1
ep 0.2664861111471171
2.000 1
Mo@@ 0.16544287569942914
Pe@@ 0.20791818407606774
ano 0.09182869666854666
Ac@@ 0.17692054931957277
50@@ 0.910318919387999
1903 0.7420519425953617
so@@ 0.08105156085485095
au@@ 0.05098686824789479
les 0.012465069605712177
τεκτον@@ 1
200@@ 0.7446145212255658
αποτελέσ@@ 1
ρίγκ@@ 1
do@@ 0.08189651170887442
un 0.010186055869627147
Ad@@ 0.11000783693243919
ly 0.03399753706588625
συγκρο@@ 1
ήρε 1
Gu@@ 0.10953787756557236
ty 0.07545717147182597
Ne@@ 0.09948823476219412
Man@@ 0.12002161814005795
ons 0.051767523695597895
ρισκ@@ 1
BA 0.8383166982441436
Li@@ 0.1264932230236076
op@@ 0.05318052072081244
ob@@ 0.06574265932748863
1878 1
ure 0.0652401102273724
bo@@ 0.06318830037791236
ol 0.12500863532853332
ë@@ 1
1890 0.7735517896010142
Live 0.7315468087938918
συγκρότη@@ 1
εβί@@ 1
υνομ@@ 1
ata 0.15292013613891298
τέλεσε 1
ov@@ 0.10863421491877745
ge 0.059674856461974804
ci@@ 0.05741747361834415
ino 0.1074059358906386
αθμ@@ 1
ρρο@@ 1
Fi@@ 0.2978308159702308
επιστημ@@ 1
Black 0.3598837375654419
af@@ 0.06510936066891093
om 0.20773255082591036
τομέ@@ 1
1899 0.782654691836536
Or@@ 0.09160254166892721
per@@ 0.038840576382545684
ber@@ 0.05493646279416922
αίνεται 1
θλημα 1
ey 0.1307276032892021
International 0.1665689092846708
ανεξ@@ 1
ver@@ 0.022295556299705373
Man 0.4102207542163833
tion 0.03194042146105981
21@@ 1
Αυτοκ@@ 1
Her@@ 0.10353759134006314
ρονα 1
eb@@ 0.06336147921731379
119@@ 1
δίκ@@ 1
ore 0.10429633966203172
δημοσ@@ 1
ati@@ 0.066233414949647
23@@ 0.9955514754228684
1870 0.7919087189468988
mar@@ 0.04981337445864285
Mag@@ 0.18159429137750308
πίσ@@ 1
pop 0.6353178475345771
by 0.008802612810022406
250 0.7654546023427651
Αύγ@@ 1
Ρ 1
́ 0.18825116440312253
ot 0.12213051499415106
1881 0.9832093049852154
ώβ@@ 1
γκο@@ 1
Κωνσταντιν@@ 1
Αυτοκρα@@ 1
ma 0.09516915988478346
1902 0.6700277836161366
CA@@ 0.3751800398023212
ειλε 1
Ph@@ 0.1252576131420699
1880 0.8022843224189121
ans 0.04059662030392689
background 0.8646730146165336
ite 0.04853245624817189
ne 0.03907834260275443
ner 0.0554433692431303
Lo@@ 0.14040637425946534
Hol@@ 0.13968747798291944
IV 0.3624738172303705
color 0.44872314560167254
uc@@ 0.10498236467495961
1895 0.7516337733789765
co 0.09133855264886478
Un@@ 0.12652992183138495
1835 1
ok@@ 0.10315218647607365
ῆ@@ 1
Po@@ 0.14801064668617048
λλου 1
ti 0.15846469247474693
… 0.30759331503523407
ουνίου 1
Δεκ@@ 1
ai 0.10873607688698866
κλήρω@@ 1
Love 0.44227844259385557
Le 0.03334011843625196
se@@ 0.042745831713330254
ace 0.11158849134163205
ώπι@@ 1
124@@ 1
Χ. 1
Rock 0.4806255716478968
No 0.3355051278871716
Ci@@ 0.5096308347851323
den 0.011168051020739776
Bur@@ 0.13011938560265138
ue 0.06276193493102881
ρίσκ@@ 1
Ag@@ 0.21682855086863068
ναι 1
1901 0.6364791680450061
ell@@ 0.07129230005085975
ini 0.15738222414989975
{ 0.7516117515261795
é 0.018856734342107963
all@@ 0.07469637577564221
ah 0.14337597975885552
und@@ 0.0710903631164631
επιστημίου 1
ωγράφ@@ 1
Top 0.527248862045972
Pi@@ 0.18800508442447886
Si@@ 0.18430988186349134
1,5 1
end@@ 0.04732393885313591
ess 0.07799526482086405
ra 0.08117362826936557
μέσως 1
Ver@@ 0.03868369614209201
γιατ@@ 1
Me 0.5459805765566642
Me@@ 0.11378673590227646
AN@@ 0.6781682549949218
ight 0.12260796335484184
pr@@ 0.043035267832045844
ke 0.08895505698720138
cm 0.41059968981270833
1898 0.6686945975131888
Ab@@ 0.05691163089060546
Dr@@ 0.1476581984514272
mm 0.30001335214708724
land 0.05015545559994809
ικοι 1
NBA 0.7693118531343136
Ελλ@@ 1
ya 0.06178875575933097
All 0.16755005488312735
Ber@@ 0.08830318519974305
Do@@ 0.22094935710189936
Ste@@ 0.1327355169666869
gr@@ 0.048464160257924556
are 0.01649606199742613
del 0.014083053394192028
Gi@@ 0.16989523359008732
12,@@ 1
Y 0.3301427544645931
118@@ 1
ail@@ 0.15435192922758223
NGC 0.9027611049980222
Times 0.4185724256448442
bi@@ 0.05143564071641748
ity 0.040278274207582086
11,@@ 1
όμετρο 1
One 0.17124256864923926
ζόν 1
1889 0.7325160579355121
ver 0.1055303146227422
παρουσ@@ 1
ary 0.03580416829031547
δη@@ 1
atis@@ 0.4210487270154414
io 0.12823732857384504
ake 0.18082392368045636
εκπαι@@ 1
Fre@@ 0.11216370939787523
sp@@ 0.0544301957860121
ise 0.05235531991819009
Z 0.37497990259193015
und 0.005136091373920157
van 0.22704712697108342
III 0.21259114541898055
οφιλ@@ 1
πολε@@ 1
pl@@ 0.04171350732717593
ass@@ 0.04534089558565818
σιδη@@ 1
du 0.0109783629559133
2,5 1
br@@ 0.033382330010538544
Bl@@ 0.16496251178696625
My 0.47680225390055775
Pol@@ 0.12494915266755303
Jo@@ 0.15170339807773656
metal 0.546459364550918
όμε@@ 1
ὸ@@ 1
pi@@ 0.05669639208161247
ραγκ@@ 1
AS@@ 0.35338463460474234
od 0.11090246729902607
Eur@@ 0.555519638371423
ings 0.05183197521457318
1830 1
ay@@ 0.07328111268383784
WWE 1
ep@@ 0.0851941820015211
no@@ 0.07018622931014758
αριστ@@ 1
Mc@@ 0.10716429570981138
ύρια 1
1885 0.7169171102249797
To@@ 0.14688080901900116
tu@@ 0.08483763185037928
καλλ@@ 1
par@@ 0.03189786832619073
em 0.09239956246882554
aw@@ 0.08627565085332861
So@@ 0.15797448078689427
be@@ 0.026362475430137304
ca 0.10109455128674912
Saint 0.09411468850917758
do 0.05761592951426215
1860 0.7409056849836673
Pro@@ 0.11392658563648266
ak 0.09080041474758525
au 0.016338519779194993
ing@@ 0.055218158357884815
10,@@ 1
φαι@@ 1
DVD 0.587397520268541
1848 0.7817056117240173
ick 0.10152116861561199
10.@@ 0.7468702246814897
Star 0.37412547129647233
Ουγ@@ 1
RNA 1
ποτε 1
ῦ 1
Wal@@ 0.18736207413339206
j 0.2672279803496286
ann@@ 0.06936150680728424
York 0.07831673450870485
Mer@@ 0.15233112753732483
and@@ 0.054741738888390346
ile 0.06502600858936886
ane 0.1119123948467388
In 0.010593332846033688
sch@@ 0.03144257266782512
DS 0.719187149170321
180 1
εξέλι@@ 1
ang@@ 0.04237536429157706
ick@@ 0.07455654616097611
ne@@ 0.05646848927634412
διαίτερ@@ 1
AC 0.44003049271656125
² 0.17285717306246293
American 0.05831268800216629
Go@@ 0.1843628534321909
τέ 1
Time 0.5249933949292472
ade 0.0762584047969872
× 0.5709098071482598
Gre@@ 0.16640556697520384
est@@ 0.039821561121633216
40@@ 0.8741349224261787
έπει@@ 1
1866 0.6964840024672224
Play 1
Er@@ 0.05259219418847898
It 0.0252429959957477
ev@@ 0.059428146991060186
τώ 1
1894 0.6788315179950661
CE 0.8361214462836887
1879 0.7974760585313142
era 0.04712631540296115
Fl@@ 0.10271401794846334
ence 0.034958662507752376
Cup 0.14219639903031933
Q 0.48278770275624755
άμεις 1
Ho@@ 0.16221930345648133
ks 0.04857971057467267
De 0.11436897945312484
ὐ@@ 1
Ge@@ 0.07432290971929
μεσα 1
Hot 0.6301369804455871
Min@@ 0.12742153445910712
ac 0.18291670611808583
λευτα@@ 1
ple 0.4095496474082942
tri@@ 0.049018678402220746
gi@@ 0.04664998428644291
} 0.7329674730537102
ῖ@@ 1
We@@ 0.08852836409706945
καλα@@ 1
ea 0.13386181112222686
census 0.3403310187382694
mi@@ 0.07153183840018483
1892 0.655375117272351
á@@ 0.06442425586589251
School 0.0838353226905658
ari 0.21319479409199113
ur 0.061923992499889606
­ 1
National 0.06956549421483339
Ben@@ 0.20727581630018427
Μιχα@@ 1
ist@@ 0.0567262486395254
yl@@ 0.13814473278050374
εφαλής 1
BM@@ 0.7862487770491758
he@@ 0.05178538179127358
έντρ@@ 1
Mus@@ 0.12414499040011602
é@@ 0.023747178616665487
Ed@@ 0.12150680754707653
Pur@@ 0.5470776833301245
γύρ@@ 1
iz@@ 0.06594257672974861
za 0.10786849964398323
Har@@ 0.10696700236573665
έμου 1
πομπ@@ 1
1871 0.6897773118562339
Hall 0.22114479155528485
Microsoft 0.8935952094602836
UN@@ 0.5489130974178643
ek@@ 0.06847126305082075
Mot@@ 0.2881239167072892
ff@@ 0.0735566926453849
Dis@@ 0.16665499735009578
ker 0.10169731689627824
ash 0.2685477218156707
ra@@ 0.07702791482327169
Te@@ 0.1304705535677368
UNESCO 1
900 0.972875473248414
Kr@@ 0.09313916802133508
ā@@ 0.24144777625483008
ρόμ@@ 1
ge@@ 0.035638642110342775
1893 0.6214135736931388
1822 1
1888 0.6581102278184348
Inter@@ 0.10851906432645614
a.@@ 1
λάχ@@ 1
top 0.14046574176778479
Jean 0.1366405713539562
Super 0.3721598713473587
que 0.006399584556358686
ir 0.05610895263047149
1884 0.6972285686138755
As@@ 0.1215015536326228
110 0.8626744471536708
iv@@ 0.08772232205675368
ούνιο 1
ach@@ 0.04047654903378024
ματοποι@@ 1
115@@ 1
no 0.02879631154022639
ance 0.03457123413898477
ὰ 1
University 0.05087361126121165
Bre@@ 0.16801874870439454
ara 0.11203411122532156
ens@@ 0.047850609676791646
King 0.16519432045256066
Bal@@ 0.12793628660204245
TA 0.519324783679394
11.@@ 0.8703581940901546
out 0.03858035990429753
1867 0.72659099479676
fac@@ 0.06364862964482945
off 0.08774331378516659
CI@@ 0.5532235174972872
.com 0.6262920038690888
FIFA 0.8579552281037651
box 0.4344470035836304
80@@ 0.9645285860828605
right 0.1718978461060105
1886 0.6582024238060032
1891 0.6146839964638665
ˈ@@ 1
παραπ@@ 1
ja 0.15033347035962058
Club 0.1363770985875208
1500 0.8283392503346817
ors 0.05644728207344715
1864 0.6825727241390949
if@@ 0.07260700731285252
ow@@ 0.06738846523079381
Tri@@ 0.126046374007181
€ 1
αντιμετ@@ 1
1840 0.8492391243170971
αντι 1
1850 0.7086394255959412
Metal 1
end 0.04232801374744693
Paul 0.129093666516904
ma@@ 0.06617996614464468
22@@ 1
va 0.10309829286163158
θηγ@@ 1
ion 0.06186531859563005
ath@@ 0.06297030266719196
1887 0.6479234661849704
λλην@@ 1
χαμ@@ 1
te@@ 0.03724480801372249
Sil@@ 0.15982266266591455
Tur@@ 0.09561068822205078
ical 0.04388468361343103
Fe@@ 0.2474545229467617
ass 0.0990911948616923
ah@@ 0.05763552638777669
me 0.049843939612988435
James 0.13024780345212192
1882 0.677790793225598
ατό 1
Studios 0.7140202266779194
1833 1
oy@@ 0.11832816992580611
be 0.01449890277609049
ain@@ 0.08920430874507988
David 0.13984202375409868
1883 0.6957094363571165
Life 0.2721245333146537
Pal@@ 0.11124217635323395
FC 0.13937045103290727
ere 0.05904718763447143
.-@@ 1
William 0.11945524302669583
ette 0.10840911607426391
sa 0.03574332667042816
SA 0.4506345341448746
13,@@ 1
ang 0.06681265932749082
AT@@ 0.4529468778050228
play 0.09510066448204281
1,2 1
1828 1
tic 0.08302501673849498
ory 0.07548607496813288
met@@ 0.125708568897169
Rom@@ 0.1501589653901282
Pl@@ 0.09623299708372907
ani 0.15195367038067384
mann 0.13090916065972824
διοδρο@@ 1
1834 1
li 0.15234536523176131
Sal@@ 0.10800805283071427
1877 0.6946979541978993
Fr@@ 0.09878096725178509
ega 0.2821908841123328
ex@@ 0.01898607554267199
Κωνστ@@ 1
ιτέχ@@ 1
1815 0.9816561445482488
ζύγ@@ 1
RO@@ 0.6583536636589966
elle 0.025943012153646278
αναδ@@ 1
Au@@ 0.11825880834967469
Vol@@ 0.1747972877264521
ess@@ 0.05710492891690876
3,5 1
Mas@@ 0.12564151682343846
q@@ 0.21071428633124897
Channel 0.6370778465910829
ES@@ 0.37880970149781773
q 0.23137201895806572
Wor@@ 0.1352618085067508
IC@@ 0.39588927644825567
Awards 0.23026547215882337
στρατιώ@@ 1
ist 0.011326616304471347
Son@@ 0.3406074086898408
160 0.9097572108376633
hi@@ 0.05718751772844359
1861 0.6338449417418895
1876 0.6475731195960734
Sol@@ 0.1438039779073656
φιλοξ@@ 1
la@@ 0.06670405423293307
ἰ@@ 1
αντιν@@ 1
Cas@@ 0.1499216969375801
Hor@@ 0.14506602620728182
our 0.06315095898944183
Γρ@@ 1
1875 0.665100389968577
ήνων 1
140 0.9168768282622325
su@@ 0.031267752448212414
art 0.06473161921159035
1863 0.6463670098831305
ari@@ 0.08909488248637207
130 0.8107212910250544
Company 0.16870613363647277
Sk@@ 0.29308899660188537
υργ@@ 1
College 0.0983723091000712
ning 0.08368636206525337
st 0.053933136671822465
House 0.12090327314875962
ST@@ 0.5557507620537421
US@@ 0.2864897513441018
ki 0.13204869097189267
1868 0.6597293488996191
ho@@ 0.05516699471355261
ran@@ 0.04802317513432474
1825 1
pe@@ 0.047610373560414476
ματοποί@@ 1
Hel@@ 0.18405981700882784
Ser@@ 0.11073521756171913
Robert 0.12916321328773492
Black@@ 0.5337201388690093
Por@@ 0.147123623467904
ena 0.08624480339208243
`@@ 1
Radio 0.25401306706935306
Bel@@ 0.07808816259149647
Av@@ 0.2283763118824506
Su@@ 0.09663341053596004
σταθ@@ 1
Ang@@ 0.08681958852686392
Association 0.14632414074766667
Grand 0.1517209907651717
dr@@ 0.05205527807123923
Αυστρα@@ 1
Air@@ 0.35380195353895044
Bi@@ 0.08556285742111731
cre@@ 0.05236147923406612
ant@@ 0.05274395102936626
Michael 0.1537439262032377
els 0.06045513164583002
http 1
ib@@ 0.08301805474341373
Em@@ 0.1343796146514128
bit 0.38835528737562097
1862 0.6160210719244992
1873 0.6377597595914576
114@@ 1
City 0.07254061130051684
Cre@@ 0.22111326565521539
Pa@@ 0.26543742264222947
κατέκ@@ 1
Gal@@ 0.12447060656033311
Air 0.16818646454498418
ire 0.06022441714062461
km 0.059145101067944884
Hal@@ 0.17435353286301047
Group 0.1722371064895535
1800 0.778179202830351
up@@ 0.06564095581616866
IN@@ 0.36164623923863076
Mad@@ 0.14834259497426427
Kar@@ 0.08661408891039266
1836 0.9832256248607842
ack@@ 0.083296290618755
con@@ 0.016521997700650926
Ren@@ 0.20171296402192684
Tom@@ 0.2204619528117886
ais 0.10072086756798161
anc@@ 0.0695437127934683
1826 1
AC@@ 0.31083319304425344
At@@ 0.13602980961251324
1869 0.6664233287359812
Gar@@ 0.12075823905806092
117@@ 1
UEFA 0.6191770292415006
έγι@@ 1
12.@@ 0.7171711840222781
str@@ 0.03546562643440347
ten@@ 0.031959963298556764
DC 0.44183279834874684
with 0.005318250889602265
Pan@@ 0.1679434109479656
Ros@@ 0.13760131198039968
AI@@ 0.49749677363750244
tor 0.060496181801148685
ko@@ 0.15126952624375156
1872 0.6258710784075331
Val@@ 0.1293724987654232
ins 0.04630931322218072
ten 0.016679082942884223
NH@@ 0.49116011390600045
per 0.05437489179821889
š@@ 0.24018349395151523
1865 0.5818198211574556
1874 0.6171365350457919
ars 0.07986129154916304
ters 0.056251907790679144
ρίσκεται 1
pp@@ 0.10590172640198062
Cer@@ 0.19766183298500983
ա@@ 1
Na@@ 0.34374143471804874
enti@@ 0.0473825111161846
116@@ 1
γλω@@ 1
Entertainment 0.4507831898310606
Es@@ 0.11738230187365209
its 0.014557345232893674
more 0.03353826444129349
AL@@ 0.6172715489701301
El 0.023712701708132868
όμετρα 1
Google 0.7847541768878068
χρησιμ@@ 1
350 0.8845687495819614
tra 0.1336239003976293
als 0.009831490305068235
Cal@@ 0.11333163504601272
eh@@ 0.05782417091182331
60@@ 0.8458122121250105
Charles 0.1157642742779188
ff 0.17512483361259118
Ul@@ 0.2048139811320253
My@@ 0.25744055894472745
San 0.06491721427796177
Ri@@ 0.1262550410419287
Young 0.31468973507582354
mer@@ 0.04330298750825258
ster 0.09071660878358385
yr@@ 0.08918758494379463
Royal 0.13318707896457088
ame 0.16003441677360064
ίρι 1
Red 0.20629709866484253
1824 1
ella 0.11121657626391956
± 1
LA 0.5087603686952117
SA@@ 0.38294213078051775
ault 0.2414753245625143
codice 0.8256816946713795
lin@@ 0.05284444259235177
Met@@ 0.17720183640402404
gu@@ 0.03913382829374937
1829 1
com@@ 0.024055284831291785
eo 0.12423667036089918
ερμαν@@ 1
101 0.8132506353178536
Wil@@ 0.14937102966315208
Lu@@ 0.12091420135344473
κοπο@@ 1
ρισκόταν 1
πούδ@@ 1
aus@@ 0.029183471770464323
113@@ 1
βηγ@@ 1
office 0.1640327885674158
SO@@ 0.5798213306286084
1856 0.6982761794454334
ille 0.07873677250956418
ford 0.09976453892151861
Ἀ@@ 1
Maria 0.21557695613856212
Marvel 0.9907511144434121
1854 0.7267594170837189
Λον@@ 1
Blo@@ 0.29834851424055453
ł@@ 0.20725125468274355
ones 0.07540130691751373
Ger@@ 0.0828498020823565
ich 0.07959313100633848
1859 0.6333041557877892
ello 0.18412498689471818
cor@@ 0.04697748466869199
1844 0.8851449524550522
450 1
Mal@@ 0.07828770024310042
Night 0.45587481641908234
ble 0.0938104853369755
LE@@ 0.6727845668474229
35@@ 0.7588481681374689
ita 0.09200348399467499
Apple 0.7368152049884368
ps 0.09233686763657166
ug@@ 0.07350251931509935
Can@@ 0.13130937405491871
Mat@@ 0.13126316969036092
É@@ 0.0739974340849337
,@@ 0.7013175444897856
Game 0.38526150164623507
aj@@ 0.07379348623744099
lu@@ 0.06050076495182064
όμη 1
amb@@ 0.07935998766891648
1814 0.8633858211208277
ry 0.08766209846348759
Bor@@ 0.10303678627453933
AB@@ 0.5501523640500349
ill 0.11838407996279672
George 0.10255420745548256
ama 0.0823269039891601
ator 0.07829825625426673
mon@@ 0.03283081125313137
Im@@ 0.12846774108521053
ora 0.09774135722003174
sk@@ 0.072687939077989
District 0.09960325644370044
1820 0.6621411892215374
NO@@ 0.6916658081059858
Reg@@ 0.0762396924631584
Award 0.1379654469230681
MI@@ 0.5561351146248305
ye 0.10980390948857847
tor@@ 0.04517988861106746
ER@@ 0.3790706746012713
im 0.008659202580244342
SE@@ 0.3642042947859226
ζων@@ 1
1832 0.8762310121547774
ada 0.020666498179342276
ek 0.1147835139565605
No@@ 0.18897228532298407
ὲ 1
Fo@@ 0.17754087072668426
Tor@@ 0.10641289651268898
→ 1
Os@@ 0.16407334315715869
1851 0.7168095167659705
Mac@@ 0.12064589889767365
Best 0.1892324459251185
MS 0.3905268952797651
RI@@ 0.6003855890245247
tes 0.03400450720861373
ὴ@@ 1
Is 0.46035145874426553
à 0.004659790892360209
gen@@ 0.0369602031908062
1843 0.8646140324247703
tions 0.024805491209872535
Iron 0.7943336647391476
bu@@ 0.06887054041640027
Big 0.24442531511418647
ειγμα 1
che 0.04497956110974767
met 0.11936883525279189
ὸ 1
125 0.7331078162807367
1858 0.667253805270281
On 0.027127228725566062
vil 0.3516764359396382
ics 0.060279592364735325
RE@@ 0.4704068309085158
Σεπτέμβ@@ 1
ack 0.09466566797150675
Super@@ 0.21596821417297665
Wi@@ 0.1721566016064033
ub@@ 0.07522742909569849
ερις 1
CN 1
Mel@@ 0.1697481168013114
min@@ 0.03523184609468009
Gl@@ 0.14495752304427093
ola 0.16358251771846363
1841 0.8278839678413422
1845 0.7606448209753501
ball 0.1193792837514785
1827 1
4,5 1
CD@@ 0.27346563682484065
Ford 0.3909774869941919
1823 1
Ru@@ 0.15275322791701318
ali@@ 0.050117599602336776
car@@ 0.03245528084703489
ro 0.10288123307915926
Op@@ 0.17538013011966944
ΠΑ 1
ΰ@@ 1
τραγούδ@@ 1
1812 0.7262176387473336
char@@ 0.12095312240021071
όλου@@ 1
Film 0.10872871442439239
Mi@@ 0.1423331900565324
ie@@ 0.070117225976964
Je@@ 0.11712018351216999
AM@@ 0.3602685795016847
Del@@ 0.11558978299664045
Nor@@ 0.061910781162010334
ero 0.08037733219684329
Al 0.11537053922810304
Sw@@ 0.09577966282013177
fr@@ 0.049941366217595096
tics 0.07158494749606106
las 0.01310126962936384
Euro 0.44456135332758323
Your 0.6016233912200012
Tour 0.15978324550312176
1853 0.7014143605610825
ru@@ 0.04043458996523829
Φίλι@@ 1
low 0.050679263817752125
³ 0.9374467631505217
man@@ 0.03117050226032935
oth@@ 0.08040531038225572
1793 0.9338375042271835
ski 0.1631452292296331
det@@ 0.08651846861930598
cr@@ 0.040475644434855726
Blue 0.2971610112307878
δοβ@@ 1
Οκτώβ@@ 1
πουργ@@ 1
1849 0.6469944237507971
MP@@ 0.48589481954298636
Vo@@ 0.19098922634418414
ave 0.10242107132579929
sen 0.07042676885728998
ó@@ 0.048592736638129345
1837 0.7758310422834013
Net@@ 0.410347737023862
ene 0.04484843183436198
NASA 0.9434473668841453
Park 0.09120412323178262
Elec@@ 0.2023181343597472
Uni@@ 0.2475877468406568
AF@@ 0.6106933162467995
berg 0.06960416428168047
ister 0.23140526893932273
Day 0.22506032282641994
Thomas 0.10573998904975443
ta@@ 0.06452418077811371
Sc@@ 0.17523895569326306
Sim@@ 0.13772116415950275
Cam@@ 0.15121705985580688
ds 0.05400616934348235
ensis 0.21262769907049442
IM@@ 0.47273660152300095
105 0.8298581953697214
COVID 0.4018370743737608
Mil@@ 0.11069618095762498
ab 0.048166452915350315
1806 0.8560981123370649
A. 0.132972514053973
Sur@@ 0.1475693016067499
my 0.17608900044229697
33@@ 0.8554548709545664
AP@@ 0.3373846912053776
Football 0.16234222101623794
der@@ 0.03342462705889029
CN@@ 0.5110494146090094
Warner 0.6668546127599019
ost 0.14031669850227535
bert 0.14656757556082053
1831 0.8330260846164305
ets 0.03693818019226394
ala 0.09930245599843496
tro 0.2181557825449354
way 0.04446924531362353
1857 0.5925135559731535
Martin 0.14350457688956114
adi@@ 0.06968975890819994
lo 0.031012603312274557
1792 1
elli 0.27810390132333407
ase 0.06598760999621973
oles 0.334548866738197
ys@@ 0.1365951915912703
14,@@ 0.8351271007337374
Les 0.03160290143638942
del@@ 0.08891967706990854
λαδή 1
Cro@@ 0.12104281559491295
ach 0.046131014347417953
ith 0.13704874203429868
for@@ 0.023612379706927242
1789 0.9874828398929579
enn@@ 0.05921928144026276
170 0.8952462455790606
S.@@ 0.35704498797615014
Hz 0.7176091864780101
Louis 0.11771060662651349
pha 0.49378509858390207
οκρα@@ 1
AS 0.3749630179810926
ῦ@@ 1
CA 0.3410638619093163
Richard 0.13628145083911913
Vi@@ 0.08101479502947558
une 0.008287451223987887
1847 0.6862935451763303
Leg@@ 0.11188228173266493
Ra@@ 0.19422242722040353
London 0.0765988340842817
ard@@ 0.06546209449813627
mer 0.06325551278936964
ok 0.09666535766845825
Nov@@ 0.18760178743512207
ger 0.07497040665118283
Rec@@ 0.09445599040733543
ici@@ 0.05154901617039206
ting 0.026130221639844218
Ur@@ 0.08866442358149842
ef@@ 0.05328957510714442
ico 0.05589672008792585
Peter 0.11514995602269618
St 0.1519808557250138
ales 0.020540434748208013
du@@ 0.05487253825325312
~ 0.9067775940987605
1855 0.5996123623598633
ou 0.026808814676684927
General 0.08025216242747171
MA 0.3783429122700364
Show 0.28934449837350185
ber 0.08981697648720435
1600 1
All@@ 0.1571631895673478
Sab@@ 0.23681070368623827
Lord 0.22343974550576418
ide 0.08645420474655
ota 0.1719824920991868
tel@@ 0.05930301909090745
Bas@@ 0.0784546933506102
Du@@ 0.1071470407353216
from 0.005555258068840979
tin 0.08925256974366094
13.@@ 0.7142067956014012
Mir@@ 0.19716339002306849
ider 0.14869670685994268
Des@@ 0.10576128420734286
cu@@ 0.03687116404582105
1852 0.627731267140611
kg 0.3709122573236414
ky 0.14451695255552272
dy 0.16690822115411835
EP 0.29334731705038836
bl@@ 0.03773049913903286
PS 0.3127839022881662
eng@@ 0.031236266143548384
line 0.049270006568231425
220 1
track 0.12299007825656434
ud@@ 0.08732383274628852
Glo@@ 0.616027592029662
A.@@ 0.34674331079296067
PlayStation 0.7866682663849367
Ti@@ 0.12336242049731355
ME@@ 0.5943323856553513
Mur@@ 0.11670789053296812
able 0.0202831997350486
ast 0.07428294333905396
ord@@ 0.05490151928378798
wid@@ 0.11340765085407056
FA 0.3139782848916414
ish 0.04129348524654591
ἔ@@ 1
me@@ 0.03087532117616793
ori@@ 0.06180927303985533
Blu@@ 0.2910446192550331
Of 0.30714090885876366
όλα@@ 1
ations 0.015290111496009855
Ω 1
201@@ 0.768584500093311
Ni@@ 0.1280561220359487
Sony 0.714103626301944
rock 0.13567364759454129
Pin@@ 0.2551405130442202
col@@ 0.034577163661910076
ish@@ 0.05641158329116304
βασιλι@@ 1
Art 0.10329751195540528
ken 0.04184493225403623
ury 0.12603430548783595
ier 0.09699981153520865
Don 0.22790312946360303
ung 0.01257545080823851
360 0.7908507257972953
Luc@@ 0.20369215806715543
YouTube 0.5444155914863744
pe 0.05621786451283777
34@@ 0.8021412737801041
1797 1
DA 0.4490948760225136
mag@@ 0.08137183172833862
127 1
1700 1
ever 0.11119160526904769
ba@@ 0.062357123111012484
1842 0.6922489647043888
center 0.14390036401970613
ney 0.09191359732095004
Hy@@ 0.1582383220929963
Pictures 0.7115464895047833
ci 0.11575656274069898
kh@@ 0.06638082312290275
Pri@@ 0.10958298587933367
36@@ 0.8031573160549335
US 0.05234327559322902
mi 0.1634595559876019
War@@ 0.11570338948786445
λληλ@@ 1
up 0.024740958049431574
NA 0.5210961625399666
ona 0.09965033513354697
ov 0.11020782998337231
Center 0.12727429907045032
Fame 0.47699175437283386
High 0.09762873105511555
Ca@@ 0.23052238210948667
Is@@ 0.08301221835516472
Res@@ 0.11197965971907307
bar@@ 0.041291091642274715
1813 0.76527815411497
ez 0.09165654438672119
1846 0.6205969526986785
Die 0.010570039160660157
Street 0.0954156095288096
ko 0.14113483958079637
102 0.8632204336451377
ange 0.133381506283547
ated 0.010735668344394794
ato 0.08642303856818276
Bir@@ 0.13351414530531355
stein 0.09873455184521113
oni@@ 0.08374368460759546
On@@ 0.12209210254103646
Rol@@ 0.20813805340883276
Rolling 0.809357714335991
Wat@@ 0.19180861614894015
we@@ 0.030759923952100483
yp@@ 0.1041891347031011
ans@@ 0.07372019840552844
38@@ 0.7855795151570012
Lee 0.18953988194090562
uk@@ 0.07418775369289235
1839 0.6814714039834245
45@@ 0.7982957866037237
Joseph 0.1167993502989152
e.@@ 0.29425082648501016
time 0.01770920462766869
Απρί@@ 1
1809 0.8842791301528009
Bro@@ 0.11507501944334486
Hon@@ 0.1144216847846913
ast@@ 0.05959004608177937
ian 0.05062525236338905
cl@@ 0.042068607768331746
iti@@ 0.06243078286474286
70@@ 0.7868466270687747
ez@@ 0.08569961112932199
ler@@ 0.047397651257130975
Gen@@ 0.09902638513428239
ura 0.07644937257999106
έρον 1
1810 0.7393416849712233
Tel@@ 0.17990466213545736
Ap@@ 0.1261003974296872
Medi@@ 0.11689753242127135
ft 0.07278464356455826
Mercedes 0.810331381575686
Society 0.1268378766635945
Corporation 0.26334401047969636
Stone 0.3932944500668936
France 0.04146467222137483
field 0.05511760423630013
Down 0.5084295821929247
ser@@ 0.035246405101970246
109 0.9498554760902927
Final 0.29214461658144
Char@@ 0.09238360253764852
ha 0.04562892794406889
Sam@@ 0.13455304365461362
tur@@ 0.037728544968172
Dre@@ 0.1518805116781594
ze 0.05962367819114667
22.@@ 0.9855526684778502
onn@@ 0.05665070688466477
Chil@@ 0.1960392892412663
Fox 0.3273520877810983
FM 0.27680783629751954
ni 0.08440188339708793
Europe 0.08452058299513233
Lin@@ 0.12372908549054894
ey@@ 0.09729281989980969
Cap@@ 0.1736999735845387
ai@@ 0.10286071096522421
ole 0.0677549425146943
ō@@ 0.1857643013631892
CE@@ 0.3863568374568527
Festival 0.12075797259548181
126 1
MTV 0.6332273210259128
Media 0.2472429233881941
dis@@ 0.013044317536706677
oph@@ 0.09398923386761149
1790 0.8140759711913632
1818 0.7709949066394435
ili@@ 0.04979006926934824
sc@@ 0.04502846243116003
Ιανου@@ 1
AD@@ 0.29641568455555767
DE@@ 0.41577134034843954
Trans@@ 0.09697107875709289
die 0.0028554424557464763
Chev@@ 0.5219856075727155
News 0.2617807396273833
LC 0.43355804843454493
í@@ 0.02699674457530237
Out 0.4257404851739575
ée 0.011591082726345086
1838 0.6405949477176874
dom@@ 0.08985074768728402
org 0.7471710439135508
rol@@ 0.1178691985795554
15,@@ 0.8174376581751825
CF 0.6940946346770537
ents 0.019885347729606203
ich@@ 0.04823080871262912
Sho@@ 0.21592338864817956
ign@@ 0.047982938092953065
ison 0.08895661880846148
ly@@ 0.08879914448444735
1200 0.8181117964691765
of@@ 0.065171402317493
τέσσ@@ 1
Arts 0.14627468880134975
Queen 0.20903623464596147
στιαν@@ 1
Cur@@ 0.12403277216252415
kin 0.2117691685658005
Christ@@ 0.11851312724863344
Dar@@ 0.0865205388962415
Play@@ 0.165124757902141
Cy@@ 0.1716886584991775
Far@@ 0.10695497756029601
Ke@@ 0.13452711110327986
Paris 0.05659765926237605
ash@@ 0.07768700026668772
1807 0.8548173851464781
Ferr@@ 0.30984584951746474
ki@@ 0.0894084128934613
21.@@ 0.9603310705689282
Kil@@ 0.27963336497856134
album 0.03096626315245253
But@@ 0.2366090043934793
yn@@ 0.09553175216345428
eli@@ 0.10272563141747014
White 0.13880996805882317
Win@@ 0.15898697391185238
ates 0.029945822168961213
Who 0.5461485479425671
We 0.23382617266155328
PS@@ 0.408700229977706
Sm@@ 0.23592444432923595
ap 0.09935833046562183
vo 0.16361745317386783
1803 0.7532207486454466
Bab@@ 0.21320108744396682
IP 0.5279423369446384
Rot@@ 0.16426685710122912
System 0.2179803654083622
aur@@ 0.10895482485322597
back 0.04751181375790265
ér@@ 0.034330168353358274
1808 0.7842021618834562
United 0.026670029891632908
ece 0.1004091096630144
1804 0.8849700409134362
Sa@@ 0.09538158615806065
alis 0.30295776592636753
orum 0.5548631373039553
si 0.06598261497808372
IP@@ 0.6494891821919974
inc@@ 0.03127622722168698
14.@@ 0.6446370743617978
oh@@ 0.08795980389419575
tel 0.08936132088395159
SD 0.7076999956723503
tw@@ 0.06047714657727144
107 0.9341130275186902
39@@ 0.8048322870591432
Journal 0.2814178312265022
Be 0.5892093613866162
Nintendo 0.6666609006892038
chi@@ 0.08340851894865749
oni 0.21315659294446282
dia 0.1252495876520266
1798 0.8702754485173135
bat@@ 0.08137274212749689
Ετα@@ 1
atus 0.17221911771362353
106 0.884516301215245
240 0.9905000418340679
Cir@@ 0.20983117124360212
fication 0.10037700863758846
1795 0.8598608729548081
zo 0.1711254439980972
so 0.02292293870355943
100@@ 0.7986844876966983
VP 0.5502410231019993
go 0.06919817080370275
colspan 0.4183065677729686
Kon@@ 0.052586911167089356
burg 0.06758191065922539
po 0.16715805125464736
37@@ 0.7212345208138268
Bank 0.17926523015396018
Little 0.24023418269435226
βάλ 1
igh@@ 0.0729481462820647
Ath@@ 0.24110371101832767
Vir@@ 0.1690572743383245
inn@@ 0.04886891599676088
agon 0.2775119182921062
Pre@@ 0.0907811246799123
port 0.05674356412571105
Hu@@ 0.10380642049890529
tim@@ 0.04020045439072841
Mario 0.46738212248795713
HMS 0.5788551640666503
European 0.0842165689474471
Kn@@ 0.1482673276086175
ind@@ 0.05246505794765044
ois 0.20391861919696633
1819 0.8064977629817297
3000 0.5307373343851061
ong 0.050799649792434134
\ 0.5328507664829805
live 0.11116707099603906
ati 0.16576858441903128
Καλλικρά@@ 1
Death 0.31126806489145864
ISO 0.9522382391045386
PC 0.30388639405033785
Sec@@ 0.1315884541386335
γκοσ@@ 1
Free 0.38225219307266106
ανάπ@@ 1
1794 0.8363750239455457
Bul@@ 0.1268920791011124
ρότη@@ 1
AA 0.29826714858564113
Wh@@ 0.20808922626036477
int@@ 0.0332423088245099
ριστιαν@@ 1
Fac@@ 0.1774825126921823
ii 0.4842523593105842
Hill 0.15207733839481433
104 0.7864957455453525
1805 0.8230756265549689
Open 0.16496086660823656
Tre@@ 0.09810482801297661
fer@@ 0.03233917056985382
Natur@@ 0.14238240280011447
ection 0.06313651559710962
omo 0.3645963579334285
Cent@@ 0.28806379444288716
cur@@ 0.04610438941883006
č@@ 0.18135070888406693
κοσμίου 1
115 0.8403749907158193
16,@@ 0.7735778006489868
750 0.7588598059638842
NE@@ 0.3503666052958469
air 0.06695884837915515
ement 0.015998747812669786
Ir@@ 0.10071524976728616
ative 0.02881405686893211
West 0.056045231782755174
Πει@@ 1
108 0.808512308032526
Volks@@ 0.17893784327855594
Green 0.1791989463515725
Lor@@ 0.12226191105010381
yn 0.19829436301865247
â@@ 0.07101203253820715
Pierre 0.13045746573651631
ke@@ 0.051300176807485595
ment 0.02138044825416884
135 0.792843358846241
Home 0.260931314838085
lan@@ 0.04688359447668145
pel@@ 0.08711087030680861
Up 0.3852086708787092
103 0.8021840369262334
Ko@@ 0.09977681119268403
ante 0.028878339113676828
ima 0.12086055776568146
ines 0.045092887422439824
ze@@ 0.06459535001057308
πτωση 1
Ban@@ 0.12311123671919029
Gro@@ 0.10548819833802374
eth 0.1619250510998173
ies 0.032257423433910096
1817 0.7441401958257944
Bu@@ 0.14465486395913835
zi@@ 0.05850923046338241
Friedrich 0.15606363249821548
tica 0.10195497077624713
ville 0.03493457200619205
16.@@ 0.6955672169202638
cus 0.21423145258564566
υφή 1
ect 0.04424289042798351
king 0.04799333434613102
SM 0.6105634612120727
άτω 1
itz 0.09913013838993309
ρωπα@@ 1
Boeing 0.7213041747668901
Marie 0.14539614265833337
Thr@@ 0.22536575116043656
America 0.08964838970191116
Mark 0.1510629516080482
Ju@@ 0.10121802748656637
bus 0.144611532004229
Cel@@ 0.17322756930092637
Jones 0.17946606835309983
Airlines 0.5861988592259542
text 0.15179844640213927
tis 0.14848190337796807
ä@@ 0.0196602209355165
Wrestling 0.4409839365513269
1816 0.6769835832813131
Il@@ 0.15911928997869668
SP@@ 0.3066493455532447
cap@@ 0.040428326575994454
res@@ 0.019517277972728994
Ένω@@ 1
179@@ 0.7107385083554417
Fri@@ 0.17183087759845106
Liber@@ 0.11719947194813002
ik 0.07971320264403327
1801 0.6995734654862693
well 0.024810751496970117
20.@@ 0.7640121532932869
Ven@@ 0.14944816816558548
ō 0.1617886206505134
Toy@@ 0.5826727452438899
left 0.05462908052397629
Fin@@ 0.06707048410579496
IC 0.38485570527039564
1791 0.8726200394834501
vo@@ 0.039671785267883355
Š@@ 0.3792075599346677
AF 0.39461553493698925
Men 0.21751931362925364
oll@@ 0.06461834918942573
New@@ 0.10361920220755055
eta 0.08918489446981212
65@@ 0.921812588754452
ἄ@@ 1
Est@@ 0.07210467021195577
fli@@ 0.4452923710209249
su 0.009718850120857011
1799 0.860213061064743
AT 0.40925940360493146
Oc@@ 0.11445969671946232
cer@@ 0.04612484524684537
ji 0.14312717115511508
Press 0.2909001564659593
ong@@ 0.035451879906460655
17,@@ 0.6994854598916104
Pas@@ 0.10352260786330734
SS@@ 0.3226727537632595
è@@ 0.050622178633964635
Φεβρου@@ 1
Dom@@ 0.1362245726209734
Ham@@ 0.1338030785521133
Tro@@ 0.09036828431306934
90@@ 0.7704443507957979
ier@@ 0.04534174627380429
ö@@ 0.032983242298795803
Σεπ@@ 1
0,5 0.9665130765035288
pu@@ 0.04044526261509341
ven@@ 0.04334103821606225
і@@ 0.9634881078379987
Dark 0.5442400791659594
Dem@@ 0.11002208578247949
amp@@ 0.058659219603311746
ys 0.08755486293573937
sa@@ 0.044289772846532655
Off@@ 0.11701959365792673
Fran@@ 0.09777923724440978
Ig@@ 0.24105130048923556
Video 0.37828294549832436
ray 0.2292045800894026
ida 0.043891981258445865
190 0.9396405914778017
Linux 0.7002396078543346
over 0.018921102140936386
Cin@@ 0.23917144677397817
Sun 0.24652166439310774
sion 0.02945626119993837
ὁ 1
ve@@ 0.06217656634563267
ado 0.00946713564598936
ABC 0.37458058373344394
Co 0.25416732261697544
PC@@ 0.34273398490989665
British 0.04354866305874663
Region 0.13842804657343666
aux 0.014415318468986202
des@@ 0.018170748796886054
Spe@@ 0.11600337105283472
art@@ 0.0746380219997441
inger 0.10237225556057165
pen@@ 0.04795141230021922
Plan@@ 0.14588431963942763
TE@@ 0.3767822299137089
IS 0.41672011633483763
Cat@@ 0.12413877797170865
Phone 1
pre@@ 0.018314211928539992
Seg@@ 0.18778121832906222
Santa 0.10448500053556153
ays 0.10094823207048018
fl@@ 0.030442998692963224
ling 0.06346176596860467
Γε@@ 1
Can 0.5693507588966332
Liv@@ 0.20710294416438518
Mary 0.1180911948002131
bre@@ 0.03382508604767054
128 0.767856967631413
old 0.03338475577522204
ond 0.09032959499021585
AN 0.37394738664516763
wa 0.07456982384608218
AP 0.2689252645842693
Bat@@ 0.11296856307050938
ista 0.05287724054018225
nes 0.0867318012176961
set 0.04453556183895735
7,5 1
Sav@@ 0.1507485916022718
bor@@ 0.04114951052310611
ito 0.08243504848289443
ture 0.03613261426005165
46@@ 0.806149983633143
48@@ 0.8131369731263334
app@@ 0.044743511451779426
Institute 0.10066631260396464
15.@@ 0.6133776035937206
CO 0.518012728119428
Karl 0.1425621377268859
illa 0.09032977104754064
ock 0.10780550491393075
17.@@ 0.6524169461806753
Columbia 0.18446533814457522
ut 0.06654536955118383
Juli@@ 0.12039286363908983
je 0.11062414268358249
ska 0.39715763766801143
Arena 0.4072689240626959
Los 0.03255331397744948
Mari@@ 0.09308130196390589
Sun@@ 0.22034957530258759
AD 0.3115763444673445
Sou@@ 0.16494645354460827
Story 0.5015470907952598
περισσ@@ 1
Boy 0.4038239812348026
chi 0.12727260615011474
nik 0.17223839852195827
val@@ 0.04537502714105856
550 1
Max 0.20048978802970763
ding 0.05124969265474759
ins@@ 0.04017334286689806
Rem@@ 0.19868887598986887
Studio 0.3654670564144524
Pro 0.2564851524026697
For 0.055598840885795905
Master 0.2467671148188417
Ter@@ 0.11703510568757475
ικρά@@ 1
GB 0.39396754391369204
ć 0.13801098916575485
Wo@@ 0.08770795024848972
ba 0.09253371466475135
RS 0.40417414396458223
ung@@ 0.04045248406447583
ίστοιχ@@ 1
DJ 0.4107998572364074
πρου 1
320 0.9375380588663558
Il 0.01399548583307673
ali 0.1113201697471282
υπόλ@@ 1
23.@@ 0.7435742641771248
CC@@ 0.3183962945993821
ιστον 1
RT@@ 0.4065760751616638
Space 0.32365954926181917
This 0.019896970522815215
Champions 0.35531672877675946
Land@@ 0.04711756353532405
VI@@ 0.3901621094545333
Henry 0.09110248722632973
anus 0.32734243308402305
oes 0.26194252428629183
Εκτ@@ 1
PE@@ 0.4876446637653564
Mach@@ 0.20653172788642346
fo@@ 0.05326224522777195
3D 0.42947030124978813
BS 0.3482066969559006
The@@ 0.09108911073008004
NS@@ 0.2730182980721547
San@@ 0.09892376269036227
bourne 1
ology 0.04372425379408316
can@@ 0.04178566994185293
ema 0.09135669795182072
sy@@ 0.07662573219062595
Laur@@ 0.15767177980268904
ium 0.1241074829340997
Ann@@ 0.1749131174636743
EC@@ 0.621285249092244
19.@@ 0.7120685796988564
43@@ 0.9320085838655647
Sir 0.13945287924222644
ela 0.09277105688355075
fin@@ 0.02144054661456473
AG 0.2401779868025978
Project 0.29119475306710346
ony 0.09935148082635611
на 0.003345556792421404
ML 0.5753864468789809
peri@@ 0.12090760869141237
sol@@ 0.024542157526383026
ts@@ 0.03758972278806985
18.@@ 0.6662851244469907
Universal 0.431225954359947
ym@@ 0.07869080007088751
BI 0.40798559106474264
Loc@@ 0.10818019508989692
cul@@ 0.0560823568494376
uz@@ 0.0763872534618387
Cri@@ 0.20737697120404375
War 0.040178760714890904
Ali@@ 0.21591060821877037
Sar@@ 0.10342479218446177
ome@@ 0.1429823420428732
Med@@ 0.08897786459289755
sti@@ 0.04519567333578343
ust 0.102021262281347
sur 0.010798109747031449
What 0.3243307797203943
Star@@ 0.15728638728203195
oma 0.07928379058791997
Bad 0.24662868220504086
row 0.0967677625216568
TS 0.5143737567293563
aceae 0.13680788477834271
her@@ 0.021242582251603304
ote 0.05970657570247142
Facebook 0.5697369024725217
Last 0.43584016116930424
eme 0.07932454431339399
fer 0.060845595409599544
ful 0.06241636384323326
ome 0.09949023414552269
we 0.0693017371087095
DP 0.28355104067029974
Ly@@ 0.15928410119512787
Mont@@ 0.08388358948057865
Jan 0.28817968204994227
ee 0.07604638865843351
mor@@ 0.03981792703657577
ame@@ 0.15026129788389309
lin 0.13433964246090266
ψ 1
Band 0.11494641868866588
Bon@@ 0.12177254322384835
IF@@ 0.6165278922571252
das 0.007009646963331147
una 0.007066250869046475
video 0.0709629824979242
Lar@@ 0.1654351003592342
Go 0.36933057954816073
ern@@ 0.04607618326168954
ese 0.0378411357292571
singles 0.21486005125072782
Android 0.8085603358611579
LP 0.36862416481461246
Mov@@ 0.20559576093267645
day 0.030140966764448482
wagen 0.3148760637977145
112 0.7337448878210355
arr@@ 0.03261259410607927
ius 0.21462402524706875
ix 0.09539877211912623
330 1
Ram@@ 0.09972091649421304
Bri@@ 0.13064967125481042
dem@@ 0.03110952351657636
280 0.9800289136856409
action 0.04689747114876755
ax 0.23415284044585344
iller 0.11528583071418806
sel@@ 0.0395923027184249
εγον@@ 1
Basket@@ 0.30259194904523506
ei 0.0863333602559198
pro@@ 0.02312604760551138
1802 0.6419593633114461
650 0.9588239208433779
Dir@@ 0.40041851427477376
May@@ 0.17182347387673402
Meg@@ 0.29084825609489967
ington 0.08201287919714358
oman 0.3838244973756754
Dead 0.49427336983612774
UTC 0.7306122474619685
ör@@ 0.05228215476999955
ὑ@@ 1
47@@ 0.7109796045563382
Edward 0.13558219631961943
ele 0.08439562908494656
Dance 0.37529389423531817
Smith 0.10302155482223478
ean 0.0789655687929438
ιούργ@@ 1
1811 0.6351073150387454
Hil@@ 0.143706473829826
Island 0.08762947160503687
ML@@ 0.330008227628341
PO@@ 0.5379673551729474
wood 0.08857419958665258
ats@@ 0.14653077212875915
Whit@@ 0.17122187996250587
aff@@ 0.0401432510857358
£ 0.17765920986287947
Beau@@ 0.183713918842393
Road 0.08616644326251383
Roc@@ 0.16934372552149954
ny 0.18505156528730068
side 0.02930272485722843
ø@@ 0.15903009543876673
117 0.8458223672388565
18,@@ 0.6390274049789234
Na 0.7727335426442625
75@@ 0.7967695314923082
C.@@ 0.354384320732421
Dec@@ 0.12289847712491862
Οκτωβ@@ 1
Ak@@ 0.07759437756457577
ίσι 1
uck 0.16271648553325688
BN 0.872127735763568
260 0.9697650997365103
ath 0.07834972442080562
ox@@ 0.10132307773663178
Mich@@ 0.14270984855320623
pos@@ 0.019403366487933834
44@@ 0.767213530104841
Anim@@ 0.4239241821347933
Great 0.1066210480895857
ex 0.12617024082191347
let@@ 0.03834276177998801
ng@@ 0.06427077419497292
AR 0.38201929530681017
Ev@@ 0.11484858729024129
Grammy 0.5487856449475617
aga 0.11820801197188213
lie 0.1025630529959168
light 0.058706330692530596
5000 0.5080059446706474
GT 0.5960101751336961
ila 0.10841293474967119
isi@@ 0.04043089212330893
ature 0.06053857794845733
ha@@ 0.06153373974451816
anti@@ 0.036525696405725484
│ 0.19835441024273592
Mac 0.5067217305278462
PA 0.24216085009423452
arch@@ 0.046567532106834564
DE 0.48405579333016113
rec@@ 0.0163393549212215
σσαλ@@ 1
reg@@ 0.02415851673195238
view 0.05098287303251714
Dor@@ 0.09732766331384526
HD 0.41165006309690405
lock 0.0954926664399306
Arch@@ 0.10196978431025397
Bol@@ 0.11241193738151704
Fal@@ 0.15894097507624716
Stor@@ 0.2528071474942418
lis 0.12564564657373326
op 0.05333167734169129
use 0.021806777286564646
aro 0.2192368403963886
ime 0.05622272172865648
the@@ 0.037441823032765734
19,@@ 0.7778241135223545
AM 0.2517404385413656
Eng@@ 0.08628008970044078
Heart 0.3915619474729702
Ty@@ 0.10596348511094471
hu@@ 0.0485161387900114
lem@@ 0.07105748062679008
wer@@ 0.036735151515348445
р@@ 0.02816798185671857
230 0.8276196982524439
SI 0.7082200974279776
Wilhelm 0.1567708792386569
ater 0.07270897261986865
194@@ 0.4102252092000106
osa 0.07784932549688033
Pres@@ 0.08620931572321067
lar@@ 0.04202620012802045
123 0.8202379871141932
IT@@ 0.35282072313729085
Tal@@ 0.1220315455961575
Way 0.39415145002864466
az 0.07907276549526696
RC 0.31025450742016497
fa 0.26616062115710826
ua 0.09477028375781084
Office 0.17746564391935515
ny@@ 0.22118340078426055
210 0.8247372058400257
MO@@ 0.4499063282587972
Union 0.0554036320974611
show 0.048337684487719586
Mu@@ 0.10339086099121926
VI 0.22373962494886204
ax@@ 0.08401563350788076
Van 0.16552383180702673
ck 0.08399460128790463
pa 0.11765315771419183
zi 0.20369230811175695
Chi@@ 0.09923850018084253
Dream 0.5526464736998682
Mid@@ 0.12938999005572605
τραυ@@ 1
RA 0.3238146631418123
len@@ 0.054440464487636786
yc@@ 0.10860536249674507
á 0.04540990567484788
Οκτ@@ 1
Internet 0.21072469956218137
Ob@@ 0.09181953095047575
Power 0.24079208756522139
etta 0.25907796999450416
Haw@@ 0.18313402554219074
Science 0.13473740542054696
Song 0.18203298679130392
La@@ 0.13866639637956485
Pic@@ 0.197360153403639
hi 0.10086307777447097
1300 0.9030002613462961
Mak@@ 0.16565205269822436
EM@@ 0.4502991301882547
Fire 0.33014873083947704
ῷ 1
122 0.7702438245902602
CS@@ 0.24302776067018836
IE@@ 0.3927135913429838
Johann 0.13226040510928508
Post 0.17296604931797885
1400 0.9809281238904969
har@@ 0.04764949836179618
house 0.04905232984387113
isa 0.13197187746859632
ón 0.027389471942869652
CP 0.4792501339708432
Four 0.24634850055095445
Stu@@ 0.1232154414841129
ats 0.029333963389100732
Girl 0.36793193685651343
mod@@ 0.0777657458219768
Ol@@ 0.09270277833705043
log@@ 0.08339845292170392
ὺ@@ 1
Alexander 0.11824040155100958
Research 0.12858665884187706
Οικογέν@@ 1
State 0.03514244266838463
idae 0.055687539685675386
aven 0.3028125458224167
oria 0.14392769530715588
ret@@ 0.055783165236129785
Championship 0.07479325441023038
Giovanni 0.3801938394717801
key 0.07812985031922776
111 0.6538902175918324
121 0.7941310404272259
ὰ@@ 1
Cos@@ 0.22414499492798648
Ga@@ 0.238796807154437
J.@@ 0.3071488767240786
Nav@@ 0.10385045844234346
Theatre 0.16118971449033168
air@@ 0.04522936472906175
less 0.05425955562030192
sche 0.09892724827578364
Brown 0.1315567312179909
Sports 0.18242914734462304
Wit@@ 0.17689250971483558
ul 0.13014168270450224
Sand@@ 0.11483468546535675
Si 0.17589011663743262
TV@@ 0.3288292086146721
Aer@@ 0.25755038841656025
Christian 0.08020658051644242
Foundation 0.16434556329284913
ket 0.1088263440062052
ough 0.05636608166974521
act 0.04890122513523249
270 0.9284696014858713
Lady 0.20099585467762565
agr@@ 0.10795887549561567
mat@@ 0.03284496856184679
Albert 0.1470051901717863
ains 0.05083146588075233
aria 0.06846752279627041
ental 0.04201948219196216
mas@@ 0.036332349164111044
tar@@ 0.03930548891130337
Astr@@ 0.2087054239169177
Ba@@ 0.14310727143763133
bo 0.16376151224768676
Gol@@ 0.1382791268391657
Network 0.2250134927953924
erry 0.10778123927599374
ori 0.17603072759551602
vent@@ 0.06082039165793623
Produc@@ 0.19586888808568773
ends 0.058127145754792046
ids 0.08273022903819573
BC 0.1377237539745163
Guar@@ 0.2382575176642486
anger 0.12408976399283102
E.@@ 0.36107855480455175
Tar@@ 0.11317111467755625
int 0.14581939281900508
ὴ 1
GM 0.46699870560441786
Ori@@ 0.13079185201614663
low@@ 0.0562244796551637
Daily 0.3737716238943713
ald 0.1336407838298465
ə@@ 0.8925735503047171
Vic@@ 0.11275292742993115
ights 0.10133829895124373
net 0.07580758916567129
Fantas@@ 0.40540753071799485
North 0.03667033888712518
ech 0.08611945239986661
nh@@ 0.04602283075300422
sub@@ 0.022642357316738432
′ 0.89058612017003
heavy 0.17849748079657077
qui@@ 0.05955608603088249
ula 0.19450002861155744
Coll@@ 0.21816837518940219
Greek 0.1426737456067204
cher 0.04084612196150138
rel@@ 0.023232091987604547
114 0.7416362600993034
Cad@@ 0.29926668227909864
Model 0.40535774397245095
Rus@@ 0.13639988218828236
aki 0.14350733950084493
aya 0.08453574688193381
ual 0.04494141551332353
P. 0.1594415396480066
ais@@ 0.05205408653566315
head 0.05339064060610633
ī@@ 0.3284147902949657
Mul@@ 0.12766124149080313
elec@@ 0.046168658829639296
thr@@ 0.13166420885138916
Han@@ 0.10288811127309247
ett 0.07623475458163528
ga 0.07688206966465126
ism 0.03948389163260659
rey 0.08807078318751772
ὲ@@ 1
116 0.7804072562863513
Division 0.05363064275411398
Ha@@ 0.09711709514106866
ao 0.0672291939410027
eck 0.10590460140968329
fa@@ 0.03467011521236679
ira 0.10497198586588422
sil@@ 0.06027842716336965
Gil@@ 0.12686955839887834
Gra@@ 0.15154574521041272
Nar@@ 0.1777675345956167
fe@@ 0.023302202258847226
Fer@@ 0.10057701497609388
Swe@@ 0.1467949337860591
bro@@ 0.04465031726867251
kat@@ 0.13614614002736344
son@@ 0.04534642104967466
ū@@ 0.22976444029323795
ὅ@@ 1
Satur@@ 0.22892890862168017
Taylor 0.18424823523692443
Bet@@ 0.09171806581773767
HT@@ 0.6265417237970834
Scott 0.14725867835930279
tric 0.10859269766151215
West@@ 0.06813509049538627
ally 0.010821279163601434
ento 0.0678203242066842
ham 0.09609319360420021
ster@@ 0.055061176377306405
Clar@@ 0.15340535122450158
atr@@ 0.05966511478093335
Pir@@ 0.21450014051963603
aus 0.008968029770231029
ond@@ 0.05487933566238748
vir@@ 0.09908581208914197
Dig@@ 0.39993484590778616
ania 0.09337658715156645
20,@@ 0.6771774622278007
55@@ 0.671517761120964
CBS 0.35319006449326606
iki 0.13874994995171697
vers 0.028058694367057352
Bay@@ 0.12504378434813349
Jac@@ 0.16648033238950263
Sel@@ 0.11351436640389068
type 0.06869764672971058
Mol@@ 0.09919868854613688
ae@@ 0.12610863695569122
tan@@ 0.045609644903869956
49@@ 0.5092653003908901
under@@ 0.03302723586471126
Cu@@ 0.10376603365655135
olog@@ 0.047562135054230785
sen@@ 0.03590344111956542
129 0.8610593531974037
Mit@@ 0.07081176990403952
Rel@@ 0.07188363030104306
ische 0.0160978624472095
ns 0.038084650013719225
tu 0.20399962634441537
ways 0.06046952008462799
yth@@ 0.10527915663057423
Hollywood 0.22608043611623913
South 0.02835418954541969
VII 0.2743582622360381
ense 0.05115292714601
ros@@ 0.1197093331284964
Lev@@ 0.1354009113338757
Museum 0.07479979310433348
amm@@ 0.04617210893818759
onia 0.08888123810424226
ova 0.15538678739179287
Gold@@ 0.15731601381761554
Sym@@ 0.21477539652558675
ality 0.046557083165632875
anz@@ 0.05141054963319471
he 0.003948982578923404
Johnson 0.13502065294865134
Prot@@ 0.07662729415847437
ail 0.07910339778935829
eri 0.12036342856818232
μέγε@@ 1
С@@ 0.017189132730344673
Like 0.21792010928322028
0,000 0.08309484644637609
Pat@@ 0.11365034415844787
uy@@ 0.08647765425059674
ј@@ 1
GC 0.5518639481443117
Hum@@ 0.12575638742906453
aci@@ 0.05326343791226929
gre@@ 0.02876212303647145
tal@@ 0.04810154922993337
‎ 1
Fol@@ 0.0999414181113874
MS@@ 0.3815219304368589
chart 0.1867281254529285
hip 0.10022374812832131
sal@@ 0.040013071969637506
ћ 1
ted 0.008900101309588503
Όμ@@ 1
124 0.7279518808756109
Ever@@ 0.20223484844901124
mo 0.07750724064947327
uch@@ 0.03915604301907669
195@@ 0.16288275510330258
cli@@ 0.06649969463724634
Good 0.296557922609757
hy@@ 0.06984308073473931
Shi@@ 0.13951121029891808
bas@@ 0.027102287352589075
cal@@ 0.050894542115656825
model 0.10391483426024294
por@@ 0.029433113555975228
win 0.042561423943729394
ո@@ 1
Sport 0.23563697409458356
Year 0.1330902014650498
inus 0.3277814476882547
ods 0.06046740492132909
tive 0.03884419445962962
Book 0.2003088619179916
Team 0.08325760554877136
franch@@ 0.1965473646021205
IX 0.29632153360355024
rit@@ 0.04981364630289402
ž@@ 0.2480518742133395
Augus@@ 0.19182790532713942
East 0.05318264843680096
École 0.2778990295249823
145 0.779183632995128
Pap@@ 0.10031829641953698
Sub@@ 0.09098257101625327
Wol@@ 0.13251375452360173
25.@@ 0.627545128063843
Academy 0.08064632057800622
Back 0.3732719186733482
GA 0.3768344489783516
Men@@ 0.09636314787673884
Oli@@ 0.2084912059452549
anim@@ 0.05788594561041448
ente 0.01587941544853259
ost@@ 0.09599773392339378
ign 0.14796010915648874
men 0.02023929034086184
Lang@@ 0.09146038294209194
ç@@ 0.040645755066244266
Out@@ 0.1857375342416649
RT 0.3319407463646218
Williams 0.1282481686634851
ր@@ 1
Earth 0.1722609209479323
cas@@ 0.03431341832827819
hard 0.10779990416635686
lia 0.16249433824450113
wn 0.042866441085270324
Ἐ@@ 1
Bell 0.2569463317315253
Econom@@ 0.14144246042598518
Hen@@ 0.1572314532457014
Hotel 0.20228913755911088
Sy@@ 0.07732188230201734
fi@@ 0.026482517121753438
tors 0.04914798228724527
Az@@ 0.13238153223427754
Mem@@ 0.1330030440146509
web 0.201677295935892
I.@@ 0.46709812298177456
Stadium 0.17343391013638995
As 0.024997814886638946
Fel@@ 0.10983993109228618
Jack 0.1278641816535855
Light 0.25805659227528704
arg@@ 0.09017822656313991
fe 0.0631079844741293
ight@@ 0.15727594541544979
music 0.03306729938204908
An 0.05055999115002751
Kh@@ 0.06984592094109092
inter@@ 0.011590024504009921
oud 0.18767945165158292
ush@@ 0.0840935199397924
^ 1
Bil@@ 0.052689630209726786
TP 0.5579519768415933
Vil@@ 0.11674632716360357
Washington 0.060287080468405994
ards 0.03368432677486413
ness 0.056207832332524806
ret 0.10657731140766231
gio 0.17856298110290816
let 0.09516239107304746
MC 0.3217341776357584
uv@@ 0.09109170777358935
Series 0.11751305524326233
Tes@@ 0.4680883157840661
Twitter 0.49823367618895853
ili 0.1422888664200649
Eu@@ 0.15489060475905647
Sof@@ 0.22923374388091297
stre@@ 0.059161285085220304
175 0.7220439487819885
Do 0.24980726519067104
ants 0.017413880856640116
cle 0.09299900509910483
ike 0.0929817885519976
oto 0.07483770051715298
Bos@@ 0.10805671680123666
Lam@@ 0.13986258617743996
Pon@@ 0.16504697150793252
enc@@ 0.03544505132932311
go@@ 0.03835617407584421
ody 0.18025677856564268
118 0.7448700646977519
God 0.15586931082312905
Arm@@ 0.0934519003339326
IA 0.3876052656494569
She@@ 0.11764757432905928
eus 0.269755738372787
ih@@ 0.05869814135921217
Don@@ 0.10004214356217286
Patr@@ 0.12650510014243685
ms 0.06734261179386272
pol@@ 0.04679344214285172
sky 0.10491049985864105
ère 0.02516617899371858
Ϊ 1
Chicago 0.08105136319948532
gl@@ 0.03877558901842738
ther 0.049140243527749754
Frank 0.11722019451204498
Kor@@ 0.0628350637944977
Nu@@ 0.13568424040542407
ark@@ 0.0793535822741597
core 0.1644207716466731
ika 0.10384268332069635
Camp@@ 0.08433371408481087
Orchestra 0.28777224164803916
UK 0.07499877828072486
con 0.005483314400440814
you 0.08548400172877184
113 0.6419757108657799
Beat@@ 0.35809095135113966
Hug@@ 0.16299444751204364
Tun@@ 0.12112468615001479
VA 0.3794012936751624
dian 0.2690275546283559
tus 0.22078331437086482
Daniel 0.11403874052290179
Ran@@ 0.14370580129636595
lat@@ 0.03574407226749712
oo 0.18921335364805597
ser 0.031359237510556505
tis@@ 0.04240648568404398
ask@@ 0.12063299914787753
onna 0.3105470344452087
IG@@ 0.28187084911232235
Long 0.13600829517038798
Prix 0.13549211882772252
dition 0.076790357859771
don 0.08533833853508084
68@@ 0.7093614560966517
Golden 0.18026110208454257
Mah@@ 0.07607535076910388
Spir@@ 0.24463301305994073
aire 0.01923695100336817
oth 0.1466185466517747
sive 0.039910931829139316
2.0 0.534355331159203
CC 0.2449360942481499
Sum@@ 0.13125607323184646
Ful@@ 0.15972659749271464
Saf@@ 0.23830411966013415
Vill@@ 0.10496853656371186
mel@@ 0.06749511116263988
tical 0.03562519302589893
war@@ 0.034063906609140944
ωνστ@@ 1
380 0.899098635572895
Angel 0.4258842302613501
Dow@@ 0.18822816028704611
Sen@@ 0.03890305684484538
ager 0.0772021374105447
itu@@ 0.1813077349137518
ᾶ@@ 1
First 0.06596987451004384
Hans 0.1220732442611461
Rh@@ 0.10397751343421026
eman 0.1366824871715101
zo@@ 0.30205415060192004
24.@@ 0.5810009015905991
Bow@@ 0.1110990756371353
Games 0.09882443087353447
Kin@@ 0.08586419687821763
Alb@@ 0.12333931151346743
Cul@@ 0.11135473065071146
Force 0.09218480907071344
ger@@ 0.020335546368775517
§ 0.48400782556933725
58@@ 0.7901554638547192
Business 0.18519849184075104
Deutsche 0.19254388252924656
anda 0.07911943494527424
Leon@@ 0.15386111628966065
Mos@@ 0.0893854706977821
Sat@@ 0.1560860978026636
iden 0.08180379948662551
Tw@@ 0.19257852928279007
loyd 0.24861229154393483
gar@@ 0.03966252245794733
155 0.7542897187967729
25,@@ 0.7124116461159634
67@@ 0.8148044679460649
Digital 0.3230119625566034
Fried@@ 0.12562953023272277
Kal@@ 0.08216572902698413
Line 0.11707391184486637
Mes@@ 0.13954860251700762
Sky 0.3542646369117828
That 0.12108228726132582
ami 0.12615723629396733
ew@@ 0.06348807286085255
Tran@@ 0.16408616660220712
Vie@@ 0.21199682985478494
SC 0.1378830630395708
bes 0.06493018161766059
ebo@@ 0.3481496888522323
eller 0.08743088072706347
kin@@ 0.07591627175497027
lu 0.23300924481658516
Fut@@ 0.19822516075421537
now 0.028002148808967137
off@@ 0.023835112172725263
vin 0.15962926026152685
≡ 1
Dou@@ 0.1355995413481789
Jer@@ 0.09793062338220608
Rev@@ 0.13356207902099734
ston 0.11557853953218385
wat@@ 0.06485874682542185
XX@@ 0.27177687715001475
loc@@ 0.026494277555822367
mit@@ 0.03180178944332266
ying 0.030790909154344525
ταθλ@@ 1
M.@@ 0.2562686704787336
Anth@@ 0.34807135707073983
Da@@ 0.219230297020189
serv@@ 0.043790402395117105
Arthur 0.12619920962058193
People 0.12597935609930452
Two 0.09125340617999145
enz@@ 0.04124555557565784
leg@@ 0.0282989493708644
our@@ 0.04580294044673043
λυμπ@@ 1
Carl 0.13387585598907678
Gh@@ 0.1777252903474984
eld 0.07169700101968313
Bill 0.1249101512030396
Tem@@ 0.11239210493307933
uma 0.16664114629720383
Der 0.010909152279258346
Luf@@ 0.25461743258212743
Pep@@ 0.33543345203795855
very 0.027489143821794026
Fu@@ 0.0961253295228094
Lib@@ 0.1320319247057496
Not@@ 0.06819090399031022
kr@@ 0.05413248022225375
22,@@ 0.6950582840061608
Ltd 0.3011154988728727
Magazine 0.22580516620450067
Four@@ 0.2758181881788223
act@@ 0.07388195068644329
unc@@ 0.037761668946224604
.C. 0.1137979989886401
BO@@ 0.4977673535353021
Petr@@ 0.24050736116796992
Walter 0.12927444219603984
vol@@ 0.028265679989454
Reb@@ 0.16602319498525844
eto 0.08395048740043182
ode 0.09391585176554111
24,@@ 0.6885102591240655
Dol@@ 0.13572060190352464
Fro@@ 0.26266229903125216
Li 0.2622621930832878
Pau@@ 0.14049079200847983
Hi@@ 0.13194802692639077
Hom@@ 0.10353805428157935
Plat@@ 0.08134967736760164
SN@@ 0.3157164922932109
Ye@@ 0.20823798909241684
amount 0.14760568482189662
eth@@ 0.06231529933689408
pan@@ 0.0465167158594662
199@@ 0.10376954291499296
Dev@@ 0.10314080712682369
eri@@ 0.08015331572677685
Rap@@ 0.14524617360218137
agu@@ 0.07823615879644162
Comm@@ 0.09935080917116408
Jacques 0.13297109445332064
MP 0.1980811833593448
More 0.21770061805627058
Tom 0.1221450463755767
ams 0.07178257613152972
other 0.010410587933227073
pp 0.28825542917889907
urs 0.04037398910233336
lam@@ 0.03983131761501986
D. 0.08860051503820977
Gun@@ 0.20360622727676295
by@@ 0.15119103426482658
ems 0.04474612300734696
kar@@ 0.055956208526154565
Lab@@ 0.07834048837174272
Mis@@ 0.1376982761686282
Old 0.11121575226550806
PR@@ 0.3965619652995093
arm@@ 0.030193674221545633
hr@@ 0.06892071075070365
jo 0.05013242040755842
lus@@ 0.08765482080338476
ope 0.07497037831723927
Spr@@ 0.055426527309354226
ani@@ 0.07028623244209783
dic@@ 0.03259170583958054
ku@@ 0.06492946984345868
mes 0.04195801480377722
י@@ 1
ა@@ 1
Dun@@ 0.13194328207085387
Victoria 0.11681684554409887
ders 0.050927038747154575
enge 0.12343569309690691
mp@@ 0.060623536928320516
olo 0.16496113543199314
26.@@ 0.5657123725529688
Dur@@ 0.11365690575334861
Sus@@ 0.11624271117946984
tory 0.10668346319512974
Kur@@ 0.05248378773177691
estr@@ 0.037317561901621096
map@@ 0.26674057512240945
ré@@ 0.010027723517918554
Anna 0.14029131952251647
Aut@@ 0.054727470599217086
Comics 0.32914348454413367
History 0.032924847705113496
PP@@ 0.45256022671356216
Rob@@ 0.1455750472122162
den@@ 0.024534036904717813
itch 0.13104361760164543
yle 0.0961584239564329
Land 0.08267095294949778
alm@@ 0.07057767972433726
icus 0.30047166722668717
rive 0.19878711735555224
Boys 0.2544517097233128
CP@@ 0.2544296440157521
eau 0.03276019141739729
ety 0.0421227871446215
ingen 0.039950283847106936
sw@@ 0.04305195139888548
FO@@ 0.4287422821190329
Ta@@ 0.11659331425549663
ves 0.022876959142111172
ão 0.17093166144043223
21,@@ 0.6911963323548866
Television 0.20556476737821394
nam@@ 0.03857378872912608
ng 0.19073864888205955
Hay@@ 0.13463596994847657
Party 0.04802947115220263
esc@@ 0.0414416827429531
AL 0.3207415971696666
C. 0.06252348953675968
Singles 0.21840953535231272
ava 0.11839091773573071
Gener@@ 0.11909415689671343
Tour@@ 0.07904039608814308
ri 0.12869720056102457
zy@@ 0.12035549077108217
ó 0.005823373110906494
Gam@@ 0.25257812794943685
bul@@ 0.06039665097167489
enne 0.03761985902058445
132 0.7111134238091009
Gor@@ 0.1239190392294868
UC@@ 0.1881242871608388
fre@@ 0.029453108126627495
sey 0.12729149209443302
57@@ 0.6656829912291449
ces 0.02383287929862251
media 0.06183668114358788
ures 0.03633103368952773
196@@ 0.10371577326725923
Cab@@ 0.12065469606151982
Corn@@ 0.13931840796824008
én@@ 0.026614214459432652
Lewis 0.16198848922858886
Sac@@ 0.19208769842662396
Red@@ 0.09049439017154078
ely 0.01946528045013068
erg@@ 0.050949038747094846
hat@@ 0.18846419922831129
tion@@ 0.042029886503121304
ήμερα 1
Real 0.11822333644554937
ides 0.0404823874933394
ust@@ 0.07160303569289932
ωτερ@@ 1
AE@@ 0.3563543691758278
Frances@@ 0.27160926784730943
star 0.1073336859319248
ven 0.04724503343017081
27,@@ 0.6988216704544483
B.@@ 0.25829388609649867
LO@@ 0.4235592159030383
Nic@@ 0.13174986425990617
Prince 0.11083684694417371
Sto@@ 0.08816469510420565
Fair@@ 0.21383421735212144
Trav@@ 0.21604579588978423
ein@@ 0.00967940434405529
istr@@ 0.08084711873282488
augh@@ 0.16519964398690834
online 0.15785281009963098
ἡ 1
Just 0.29261447014622477
Moon 0.29636043482605373
Shar@@ 0.13294008626896803
Web@@ 0.11517022368962919
ech@@ 0.03643080972010749
long@@ 0.0741596868326733
ste@@ 0.027335686105393813
DF 0.2732803255181224
Dan@@ 0.07051380346337008
Express 0.23609257108401907
Heinrich 0.1244641439578374
Ludwig 0.16174061881901816
etti 0.13711389323355722
lay@@ 0.11508251498454317
uli@@ 0.11636754584102454
ῳ 1
Bob 0.14917356352974076
FF 0.3198970726392568
R.@@ 0.3321100524157046
Syst@@ 0.12395008354382628
æ@@ 0.2788003944686968
Sz@@ 0.14048396603100477
ert 0.01890161683344551
ă@@ 0.20188898188890592
Lov@@ 0.24670444558796253
Sound 0.26127831247053307
ami@@ 0.09282873599972544
bel@@ 0.021936002702383228
ef 0.07191823689844433
sin@@ 0.0460373207177654
Bay 0.07891041741010534
Georg 0.16034211307216603
data 0.08387813094644443
inal 0.049132606634005774
iy@@ 0.07838120039578085
ks@@ 0.06446535593711943
level 0.050647213162554695
¨ 1
Bern@@ 0.12022187365462841
Chall@@ 0.1753870304100804
Sl@@ 0.27020588971312154
án 0.02666401441719174
Kir@@ 0.08289631511930944
River 0.0346696445283162
ort 0.061085105556702
Battle 0.09830721576417945
Brit@@ 0.15140390242573148
Kan@@ 0.06905770867686638
land@@ 0.028549613039179786
vel@@ 0.04596370803714269
Div@@ 0.15709706916651298
Family 0.136864683943246
GP@@ 0.4134251080115036
Tu@@ 0.11415080259643119
aka 0.09921992782335588
Def@@ 0.10687914634902848
Jackson 0.12491073864554061
Steve 0.1491237171066499
ads 0.07249173684647797
face 0.049442041382104576
iger 0.04433650318779998
Bau@@ 0.03527141059601694
Global 0.23257333735499766
Maz@@ 0.17969761677777454
NBC 0.28029935112908505
eter 0.03699538325938315
Fil@@ 0.07361210629354094
SE 0.3913161683444959
Vel@@ 0.1505763874533119
cop@@ 0.04242325789813375
mac@@ 0.1193751851843304
å@@ 0.2044908815569173
56@@ 0.6587917555922008
66@@ 0.7795405114140905
Antonio 0.09722379471750014
Bom@@ 0.17370958254599733
duc@@ 0.061997602954554774
ux 0.05049453207678643
Cho@@ 0.31104334346753304
Mé@@ 0.11453460915058708
Num@@ 0.14028687505765053
USA 0.07487890282689456
VIII 0.26820624784800157
Web 0.42289664777278707
acy 0.05339338309288294
cin@@ 0.04761006294018053
alia 0.1613840620241013
hard@@ 0.12908994079004574
Ηρα@@ 1
Cru@@ 0.23535766161260974
Mik@@ 0.13803847513744485
Pot@@ 0.10042041308671269
Theater 0.15505623364137425
bur@@ 0.02688545063071212
ce@@ 0.027912370960451932
ws 0.04836280975060311
E. 0.10565512483670504
With 0.054870609833393896
ision 0.09495503647727724
offs 0.17716253832222423
tig@@ 0.037234288251513196
ו@@ 1
Chart 0.27558231708255093
DO@@ 0.3295349473593256
Kis@@ 0.33330944063902873
Now 0.2599283709297352
Rich@@ 0.06755622852754925
ages 0.016933689987181526
bach 0.055870400846532935
down 0.03206133480094883
gen 0.02227178205114203
manga 0.33773915237285973
Campbell 0.260998858443882
TO@@ 0.39943859963032385
Tot@@ 0.15535746708490422
sur@@ 0.015561278533664843
And 0.17757876863526612
Ep@@ 0.1839962197286764
IBM 0.41744279512231236
Phil@@ 0.0989047352573818
UR@@ 0.3134251421719372
dex 0.27850492706583774
ild 0.20367977648873453
ots 0.04831667634826718
ther@@ 0.03692278958234549
᾽ 1
Acc@@ 0.20641502311379464
Tim@@ 0.11682100280464422
Van@@ 0.22335221392133797
res 0.032484216924131296
Junior 0.15681149962808028
Vis@@ 0.12170077309899162
Vit@@ 0.18966993033085844
cel@@ 0.04971234039267112
gin 0.13812618809245825
her 0.0059726201695837235
ώργ@@ 1
Cop@@ 0.12592110602385545
Gir@@ 0.14053420518555057
TH@@ 0.4317016441684047
bir@@ 0.039663947284485836
esis 0.11090477046011964
ː@@ 1
4000 0.5443623703763812
Diam@@ 0.2762343016966111
web@@ 0.10811533924771595
Angeles 0.07098865413754452
bal@@ 0.043882173464577595
ban 0.06570614419813674
ð@@ 0.39161974938179944
II@@ 0.3526233119743599
Service 0.08501369115260807
bit@@ 0.08597932267668491
inf@@ 0.038992703802980484
ion@@ 0.08791992439375217
½ 0.6430471671747389
53@@ 0.6758430481563994
Head 0.2036203141365644
Ze@@ 0.05230115238899606
dan 0.07852770670846865
ket@@ 0.08870347844402839
til@@ 0.04619729593966998
ú@@ 0.04550546871859012
Chr@@ 0.18347295307433603
Gaz@@ 0.27378947214956445
Henri 0.1445274001182272
enberg 0.11545142269513492
eti@@ 0.036843102792184806
ΐ 1
kl@@ 0.036776043579777214
mu@@ 0.03765220456799265
ἶ@@ 1
Doctor 0.20110521940196727
odi@@ 0.08102273151700731
н@@ 0.013985375482897553
Bot@@ 0.05282281606597456
Let@@ 0.19952326007094112
ON@@ 0.2659559874852159
tom 0.12040121028300102
Aur@@ 0.18596668512369388
Pun@@ 0.1374876048713659
Women 0.06795085250048194
lati@@ 0.379856873001112
υζαντιν@@ 1
26,@@ 0.6296670269394782
Jr 0.1663221413685443
Pen@@ 0.07347304146585595
wi@@ 0.08324814179973078
François 0.1089985339690879
fur@@ 0.1202844658640913
non 0.025500005511143186
εναντί@@ 1
Af@@ 0.10820651648848915
Arti@@ 0.10871843135341464
EN@@ 0.4348605587931516
M. 0.07871295341493342
Under 0.12102779446211334
acc@@ 0.01832610549765559
Ç@@ 0.10394826731874728
ΐου 1
27.@@ 0.5022054946530394
Comput@@ 0.2454948655597508
Premier 0.10280295645496625
Sing@@ 0.10117763909287028
ores 0.025489991311064792
tre 0.031236860875635496
Grande 0.13140375309938349
Liga 0.07849280488096282
cho 0.023238596237144665
station 0.022778596504125663
Joe 0.11530672800977061
Sor@@ 0.11788657515349471
emp@@ 0.03297376466085683
lam 0.1386629484880314
ῇ 1
198@@ 0.2661315546332303
59@@ 0.6751294791417027
Math@@ 0.12407457196720689
Scar@@ 0.25935133372481173
og 0.19092667468963334
99@@ 0.7527627490422227
Brothers 0.24855883724592012
Cour@@ 0.10706053739984947
Hard@@ 0.15658817319182147
anne 0.10175707932493411
cast 0.04861478868047198
cio 0.08884486804660997
ischer 0.025443442861246474
ord 0.09845720650637234
ties 0.01965741659410099
ā 0.3507627712875991
23,@@ 0.5654304835823852
F.@@ 0.40922311131327793
Fle@@ 0.11858298234133317
Wrest@@ 0.7902708042567126
Ker@@ 0.09218616551795865
ace@@ 0.10431146289016943
Hand@@ 0.050961421590808444
Tam@@ 0.09686219040476485
att@@ 0.019086875652821855
ém@@ 0.050443451248919906
ă 0.6444469002148928
Central 0.047929635022546345
Ernst 0.17227293672560237
cat@@ 0.03578096978302664
ital 0.07071647954559673
year 0.011836888624174511
вич 0.0739050821558938
God@@ 0.18878760518143425
Over 0.16025181304649255
Publ@@ 0.1405409797836551
af 0.11378194073832376
alls 0.04187418306931724
eum 0.20600054376686575
kins 0.11497665484809995
119 0.6455826790957964
Ay@@ 0.10925955207840177
Town 0.0967682864450476
ando 0.013912819190395838
cal 0.09295544534910383
comp@@ 0.021834752479877043
ester 0.05058767386181606
pedia 0.3467492282066752
sus 0.014855557024696115
ums 0.039784791538269644
Cou@@ 0.2218787711583806
Soci@@ 0.12986431529533587
ect@@ 0.050290047777316826
iss 0.09786572323181622
ow 0.06905043521467302
í 0.046176710177654796
Enter@@ 0.2858022755672963
Hur@@ 0.13166864834829892
Peter@@ 0.12580471544093788
Public 0.09602619694532881
aft 0.042778486497550554
ward 0.041734171834932415
Pop@@ 0.16741625588282613
Sin@@ 0.07508013188425221
ban@@ 0.031067849319770826
itz@@ 0.03900257279125475
uf@@ 0.03722101515604579
ե@@ 1
Kat@@ 0.07703439329603386
Mill@@ 0.11736092335265269
anime 0.29637114260045194
aw 0.1280264494080121
ker@@ 0.05770803428472863
Summer 0.08307017522310975
oks 0.10939689820030728
rap@@ 0.043684948557941264
ris 0.15732620129688535
Dam@@ 0.12028521959070029
Jan@@ 0.11826129489504612
AG@@ 0.3128723440050107
Bru@@ 0.08662593823955861
Hav@@ 0.1010882222884424
Sea 0.1172467517357068
Vari@@ 0.11807139782886354
ado@@ 0.1317241278925431
dio 0.06514183707219905
Kit@@ 0.15392702365235778
oz@@ 0.08381720368756469
ń@@ 0.23245658708912553
Ball@@ 0.12323530152841936
Rose 0.1658098592600793
ip@@ 0.10009529252326776
Μέχ@@ 1
Atlantic 0.14142183102125466
Cast@@ 0.17933435613040297
Lot@@ 0.1909569730149161
Sci@@ 0.19907740798513374
Sher@@ 0.11855161770639087
P.@@ 0.3820604927841064
alt@@ 0.03966727005000613
mix@@ 0.06584323642221195
pers 0.14247248392506176
ror 0.1883156924365439
ë 0.4110722161530721
Pok@@ 0.15923171083837254
ades 0.038577966871924926
ein 0.004662286703335117
tre@@ 0.023360381514104286
А@@ 0.012964131362563908
Europa 0.07943258808172213
Prim@@ 0.09918212344592145
Simon 0.1254697684311448
dier 0.18162610517106462
ede@@ 0.3649300949727664
even 0.03247106382846515
hop 0.29776169139083564
Am 0.027311025083210996
Harris 0.21253327685347306
Ric@@ 0.16575679361283277
Will 0.2417548628137543
anga 0.15929098843990006
ground 0.04061006102618598
Avi@@ 0.16364033758972593
Bour@@ 0.1463579750887564
NCAA 0.16294504667272552
Ray 0.18465471216697196
yl 0.12015484819478477
Chap@@ 0.09733705688268457
Good@@ 0.208240225125729
Sem@@ 0.07956694189672245
ader 0.10488740256219344
boy 0.1403307103615675
ects 0.024322610006422017
tem@@ 0.055609669369766454
Bou@@ 0.11530957030237199
Cle@@ 0.09917154054136328
Wa@@ 0.16583396057107702
iro 0.12035558334815552
ont 0.01463876965102404
red 0.01452889987768615
Ari@@ 0.14874679524417625
Eth@@ 0.16427930274889144
He 0.003919258858863368
Not 0.21007953357913015
Pu@@ 0.08790786403175942
Tit@@ 0.08254245742816449
esta 0.02699905499246505
yon@@ 0.09668937923468846
ü@@ 0.017835872272963342
Blan@@ 0.1037567831472874
Chem@@ 0.11317072497502137
End 0.2348625656828798
Under@@ 0.20358349335935774
ext 0.32480224608194574
los 0.002831306096420611
mus@@ 0.03524677461343258
ques 0.015376462528741102
ween 0.14197588642633555
Alfred 0.14351383722830477
Associ@@ 0.19990936745365195
Douglas 0.16364456531184152
Hoff@@ 0.24322049910370228
When 0.0345994877323788
pal@@ 0.03497765859398236
DI 0.330267778232962
Dy@@ 0.15656990091122322
Sn@@ 0.2966699332718043
Design 0.16050147729493783
Direc@@ 0.10400573107155221
eur 0.02181454785859888
occer 0.14777381523623692
zz@@ 0.21529489066003943
197@@ 0.08011788027326151
Gri@@ 0.15807572790688812
asi@@ 0.04499078617374252
avi@@ 0.06608157179283007
mas 0.09277775675292592
not 0.005779263016988221
Θεσσαλον@@ 1
† 0.04235498177748851
awa 0.08651698760316806
eu 0.06876206240576688
men@@ 0.015421451327350195
mus 0.26101926116530566
own 0.023096151581729972
193@@ 0.1480374920030324
Mic@@ 0.19700153889972633
Pop 0.26446430547606486
Radi@@ 0.1407710284600387
Victor 0.15858254250166265
Lim@@ 0.09921779231138805
Od@@ 0.21225279100488037
Tod@@ 0.09133438142230195
alb@@ 0.0755297820514053
ating 0.012372705992815728
lers 0.05256887416656483
ɪ@@ 1
ἡ@@ 1
Comp@@ 0.11616509901058072
HC 0.30328063217634044
José 0.058245832529964896
L.@@ 0.2804267433832446
bi 0.1023736816305412
dren 0.20893087157319362
eca 0.21433952904920112
edi@@ 0.03421554145318375
ink 0.09167617183471287
rem@@ 0.03054067739094866
ron 0.263089542757205
ship 0.025176712500868427
Tou@@ 0.12105891422544472
Wolf 0.25990854220299964
hal@@ 0.0238685942063496
stream 0.121017774910789
syn@@ 0.04945640142166655
ś@@ 0.30419274865066964
Girls 0.2270588794990271
Roy@@ 0.20564621559849147
Standard 0.22739541938286822
LG@@ 0.23502329996147064
Mand@@ 0.11529340121116995
Max@@ 0.19018789966949015
Wel@@ 0.11224915777071945
ag 0.11158318181373601
blu@@ 0.09250725724057958
err@@ 0.0372680980016351
yes 0.15047481142859143
ն@@ 1
Daw@@ 0.21491581333950863
Dic@@ 0.22592714483525392
Francisco 0.0574253437784526
Progr@@ 0.09859331536891906
Rod@@ 0.15080964868202007
Tan@@ 0.09442463500063246
da@@ 0.1631441190659035
ren@@ 0.01633683629175656
sho@@ 0.026975631337932276
Barr@@ 0.10568271886194414
Buc@@ 0.09975988309786943
Ing@@ 0.11961082836075183
Kom@@ 0.035873807110830075
Orig@@ 0.13365921974713532
Place 0.21376833567213424
Point 0.13731222214981145
Sau@@ 0.09034752222015947
V. 0.08990669785410933
cy@@ 0.09687562662009915
ellen@@ 0.17097062335206492
ric@@ 0.09007418284345868
и 0.0013352153206298463
Kle@@ 0.09548093126613211
NAT@@ 0.3527208819086011
Stars 0.23403502381498165
Three 0.11639213023147674
form@@ 0.01698438633843983
sit@@ 0.0465009884606862
via 0.04303588345174424
AB 0.2804660917988521
Alice 0.2059922999590162
Development 0.10685036040677877
Human 0.1804450070508909
Inst@@ 0.27313401674664844
Kl@@ 0.051034620664445945
cript 0.12878717889835348
cy 0.11332276983191877
dec@@ 0.01615980716725946
ons@@ 0.049508381167155446
wal@@ 0.0450310654143203
ès 0.0435927203065475
és 0.007397099304435578
ἑ@@ 1
Den@@ 0.05486450815914201
Anti@@ 0.08429453196074373
Autom@@ 0.17556277703710294
D.@@ 0.3066800579992484
Dav@@ 0.09603982646418903
Run@@ 0.21243057921292446
Songs 0.19375029859987386
ardo 0.12046869750917642
ig 0.052992310471432824
not@@ 0.018873665128015006
Kam@@ 0.07411388296514443
emann 0.29236133270025577
ide@@ 0.05549276926252425
ка 0.009774451095012503
ὀ@@ 1
Ash@@ 0.09636928391735089
Billy 0.21428022509466269
if 0.027318812786724548
out@@ 0.0298580631668591
О@@ 0.012603338482191062
Jud@@ 0.08766863887912946
thi@@ 0.06236478182433439
unter 0.014025517170528445
Elizabeth 0.10710515801445648
Lat@@ 0.06759086819006851
Library 0.13281459948584595
So 0.0632261317028842
arc@@ 0.11464916923536499
ario 0.025880443659730613
mb@@ 0.051936421790543114
rom@@ 0.028333006023810083
् 0.0028962837552738794
Chris 0.11613330967952372
elo 0.08609984918945068
mont 0.07068343022418759
ols 0.06523217436031067
sch 0.04058173466969571
vin@@ 0.07223369451894499
Opera 0.21187487078473857
Type 0.2546557842057771
ches 0.02384318558453942
dis 0.2232878920372964
gh@@ 0.0987365385655686
uth 0.09873186698697962
εδρος 1
Guy 0.22858430606401697
Mass@@ 0.13050731341973879
je@@ 0.03189484636462239
а 0.009593369317186337
AV@@ 0.31569971790892076
Amaz@@ 0.18880282959851588
Anne 0.11199623891118869
Chrys@@ 0.5446962872726704
Juan 0.053850469637800435
Lake 0.05475729554828751
Tul@@ 0.22565262847301304
cia 0.10799165559493284
fal@@ 0.045071392641656424
oli 0.19793048795295873
org@@ 0.07099191767224054
ories 0.038717135223252465
él@@ 0.02997196351880547
Act 0.05810588292403302
Der@@ 0.06626937970342044
USS 0.2506369961134309
ason 0.07192964651396723
bus@@ 0.03216338362622373
ebr@@ 0.06416523114966119
gal@@ 0.04594605887628124
ique 0.028980833980987247
Princ@@ 0.13062400489971931
Sig@@ 0.11253386067405158
mot@@ 0.027591249079634506
ules 0.0551662128124751
worth 0.08676783941684053
ʲ@@ 1
≤ 1
IO@@ 0.3550622910118962
Ian 0.25230763539105333
Lem@@ 0.20253296932673984
bury 0.07712647625695564
mal@@ 0.02474846476210581
trol 0.2094099896078216
й 0.009757895934712147
Empire 0.06487056131320296
Java 0.3067227415564183
aham 0.11910235182572364
anna 0.13616334333950475
esa 0.04410026978187649
gi 0.18592610625998998
len 0.02421965176756
Eg@@ 0.19332922508061
Fun@@ 0.19888784729739042
Techn@@ 0.0932506926105276
tho@@ 0.038152006803985686
152 0.5821797481118023
Ret@@ 0.14732190354125269
Vog@@ 0.16211581237088812
hol@@ 0.02381132775728704
water 0.027700492262480187
Federation 0.1522860133351907
iti 0.17322871506269952
Centre 0.07104451686716802
Lou@@ 0.07668520718088197
SI@@ 0.3006584872519494
Special 0.13595252200511487
body 0.045335050520986096
Commun@@ 0.06330056974345602
Donald 0.1170807909140957
Nik@@ 0.1585004928442409
cep@@ 0.07322684926070978
los@@ 0.040556047680082564
lum 0.13674629306299318
oper 0.15185274866602239
tronic 0.16359123623152555
yan 0.09442671697998618
Ş@@ 0.1281862092169969
Wood@@ 0.12064152993367226
dri@@ 0.03447904227704297
emati@@ 0.05369247387350161
iga 0.13212468152094203
section 0.04400099862769219
sson 0.16340353044167935
uke 0.18071612443431032
verse 0.047118377620596265
vor 0.016721630956641618
wo@@ 0.03770698079733365
yst@@ 0.07172446941205338
Serie 0.09363524415794741
taine 0.17250554530270862
ი@@ 1
Archit@@ 0.13420154426481198
Hab@@ 0.08556880675619542
Law@@ 0.1752052938556734
Ober@@ 0.02897396120367709
ev 0.103458324521716
fil@@ 0.026676009308792242
mail 0.2407210105932332
nu@@ 0.04337693178235939
ume 0.05674796413332344
μπουμ 1
В@@ 0.015382910037430662
ATP 0.24862157868921575
Tak@@ 0.0837328311861632
heim 0.06827931476770568
ishi 0.2783744450046861
nm 0.41617727198257337
var@@ 0.056661831210340546
ī 0.31311227760689264
Doc@@ 0.14126248142187287
Log@@ 0.14309144699680043
Mike 0.10816941986803195
Otto 0.12702871390087508
Wilson 0.10745790666975431
Ö@@ 0.09312330546157145
From 0.03685006493898525
Moh@@ 0.08601038265066831
T.@@ 0.3867075829404689
aun@@ 0.07654501706632517
now@@ 0.09720498695238751
polis 0.1011230856519915
uri 0.12944682406517927
Dro@@ 0.1519590506660615
Plus 0.18098068046600724
Town@@ 0.4056711242534214
agn@@ 0.0621499952856199
für 0.004338482763901696
lif@@ 0.11407265556102857
outh 0.053980235329919087
struc@@ 0.03958800068106995
Adri@@ 0.15605165125206535
Ant@@ 0.11252808243581146
Bach@@ 0.11149090125021369
Inv@@ 0.10356321481379734
Stephen 0.12673080172106024
Technology 0.12979268516894885
abr@@ 0.056400357249758934
ache 0.05578972111290385
lem 0.0644309218619512
Lis@@ 0.1376344661910558
Om@@ 0.17182483571164336
Pul@@ 0.16056716565765955
eu@@ 0.08918247651280943
unk@@ 0.04664736803001443
ἱ@@ 1
Mountain 0.13199852180147476
Ther@@ 0.09337763125180405
kil@@ 0.058344865510482014
ses 0.008235150351350431
Cav@@ 0.13164499329149024
Johnny 0.1942097355016916
Les@@ 0.10306871912826923
k.@@ 0.5817221329121864
Andrew 0.11266505404648211
Bla@@ 0.1966416397008429
California 0.034137032580655625
HP 0.3389811969557741
Independ@@ 0.10468452478262602
Tony 0.12752150667230816
bie 0.10789866476480432
fol@@ 0.036358495888264696
ills 0.05177832494972935
illy 0.10841999380851548
tol@@ 0.06637521432380257
р 0.011855394103153852
cel 0.16703545224000177
nia 0.12228750110407452
tern@@ 0.07020805546445541
that 0.0016601101601049207
Captain 0.13336575256604521
Chron@@ 0.19834148555048842
night 0.06311367755734139
onom@@ 0.07327950602617136
was 0.0007283716097634947
Ξ 1
ἱ 1
Jacob 0.19497737963977171
Nat@@ 0.12220469482847798
н 0.00975312716860646
Mun@@ 0.07058496912162966
Pit@@ 0.09689263108893033
Rad@@ 0.07450607922574065
Studi@@ 0.06449255066222352
Tab@@ 0.10382892802925446
esti@@ 0.02811632621504569
ete 0.038280599446157575
ophie 0.108697710560433
yd@@ 0.14401237127526034
Dod@@ 0.20680736982589976
Management 0.13752074701420114
Miller 0.136833314120441
aster 0.11673796481065296
esse 0.03376913914282484
ham@@ 0.08575052071499129
pper 0.12091429010572247
prim@@ 0.025141277534023135
trans@@ 0.013140727837239498
к 0.005547421491819532
After 0.01350057597862954
Hat@@ 0.18281361359147344
Industri@@ 0.09776741344910514
eer 0.07123154786722119
uto 0.24968633001696064
ви@@ 0.011626229980155486
Aqu@@ 0.15137191301061123
enni@@ 0.10894829948870695
ishing 0.04325482994592479
tz 0.16374577143690128
Č@@ 0.24013450904577424
И@@ 0.014355673709563244
ская 0.01911504833241405
″ 0.968685583855542
Limited 0.22653317002929863
Mob@@ 0.16039780726633465
Over@@ 0.11756538471028051
Sup@@ 0.1273364117204789
ego 0.09924344028194064
ident 0.0365676762296806
ives 0.0624363892495016
world 0.02507360498353077
yer 0.04333573465470284
Champ@@ 0.10865090241900302
Mod@@ 0.07059175344444348
Sha@@ 0.10197018283279176
Stre@@ 0.07758892186941123
ty@@ 0.05389888351840145
zen 0.03286709346157951
εκόρ 1
е 0.005108780833419109
Board 0.07610232528920602
Rum@@ 0.14625050747737894
Thi@@ 0.10112462487780954
egr@@ 0.0710347850330477
ido 0.013746580227055173
ont@@ 0.06010339344418014
pun@@ 0.06487356123741753
shire 0.05044164402018147
ն 1
Adam 0.12079127723372231
Hul@@ 0.19328954281984875
Miss 0.12315136427313646
bar 0.03297882140455123
ju@@ 0.028765400878795765
By@@ 0.13031026027201909
aud 0.09141909911127882
blo@@ 0.05274561461958931
igi 0.2945666909137091
super@@ 0.03446265636417944
tia 0.10072797430611238
Ό 1
Arc@@ 0.16293746313603755
August 0.012113657462671353
Bud@@ 0.07686881776394373
Bus@@ 0.08778872436295365
Gas@@ 0.10512685806704591
Ton@@ 0.12776183892368367
don@@ 0.03785263911706924
esi 0.05885864135655326
1.5 0.23295758885680393
Country 0.13318140879136264
Cros@@ 0.18132534613952506
Pra@@ 0.12041830058856308
Sund@@ 0.10012425816407977
din 0.14139477823812438
ular 0.03184543224116925
unt 0.10087337130758806
евич 0.06504422822419642
Nati@@ 0.07168811985997615
Phili@@ 0.17471565714714596
Var@@ 0.09756152029524101
ady 0.09885302096143728
bon 0.06239883172858637
sions 0.03539603398300821
try 0.0325030315598626
CS 0.21463968827122357
Deb@@ 0.06498095461541328
Got@@ 0.07023156481903273
aise 0.06279688375713463
icum 0.46486781389686
Cambridge 0.12171447538183365
DV@@ 0.3796413067703379
H. 0.08116726317837468
Luci@@ 0.18569263613731762
Sul@@ 0.08911505700999926
host@@ 0.05865593889837553
san@@ 0.04890318282546706
sz@@ 0.20727164453558525
Et@@ 0.08779979971321686
ann 0.08383076085121649
anti 0.05680680599176164
bot@@ 0.04009172055389573
dor@@ 0.049372103151458305
ery 0.06337348217186471
imb@@ 0.0972781477911196
ę@@ 0.2086284042066666
Anton@@ 0.21472635046369623
Bell@@ 0.18158714350193123
Capit@@ 0.15681116541824902
Francis 0.10077998030273222
Franz 0.10365330062666618
Memorial 0.1336263994357717
Modern 0.1655526725850709
Square 0.15069105675506927
WW@@ 0.2680540566851832
bank 0.07210444699377852
crip@@ 0.06269252752196026
hom@@ 0.02792469629388627
hor@@ 0.029112932581795016
position 0.019321612150921805
Fe 0.29131434574483306
Law 0.07785787766968084
Michel 0.11099140001580995
Som@@ 0.06980278707980406
ago 0.053683680198527504
com 0.21513475291779255
lig@@ 0.030733579122655973
š 0.24181024050154157
Racing 0.15438580124423226
cell@@ 0.04659649915947601
mond 0.08478328385313873
pus 0.2744008926560937
sec@@ 0.013514246926257792
yo 0.10007221245381531
Arn@@ 0.10684955863908546
Maj@@ 0.13301597385333827
Motor 0.167618650709759
Nich@@ 0.11888366035121375
cht 0.03423749199909039
cyc@@ 0.17254350742517496
lad@@ 0.06287720715017067
lois 0.18841079215870699
pin@@ 0.05541288556394337
Anthony 0.13789701897651507
Boy@@ 0.14057416407870968
Syn@@ 0.06974676041442843
There 0.019351666108879503
aha 0.16306152296016044
anum 0.33676725568280563
class 0.039661694399116404
Ή 1
ομάδ@@ 1
Fab@@ 0.15783136795669192
Hun@@ 0.11422913244333094
TC 0.1875990790115707
att 0.13963388556842954
mak@@ 0.036085145783543215
rd 0.07703784654173004
vis@@ 0.013111079777244176
Church 0.03314374848706618
Feder@@ 0.10477316854532502
Pil@@ 0.08751133947639783
Reichs@@ 0.12718434052865651
Tow@@ 0.1136049712575394
ands 0.03157385173458266
arts 0.07360169627479121
black 0.054742510845417494
bon@@ 0.07880481106305427
ւ@@ 1
20th 0.09167430247732773
Album 0.07580670371295185
Fas@@ 0.15688094106283326
Gran@@ 0.08429605871003448
master 0.08462758125447495
mis@@ 0.01563924316301563
Hermann 0.1561663174624519
Pom@@ 0.10021267895427788
book 0.02641545487577603
craft 0.16660218053174836
eine 0.0038553480575447573
lio 0.26427245024578927
ē@@ 0.5544438051345233
в@@ 0.006958663148228782
я 0.008592603444011304
App@@ 0.14966665955450204
Flor@@ 0.08858596881257197
GmbH 0.1633546743565016
Lit@@ 0.0985101813213923
T. 0.11655051742551009
eno 0.07053170853146706
och@@ 0.06125058911294228
owski 0.1519143337343792
tron@@ 0.07971359485075442
αφος 1
Ἑ@@ 1
EC 0.25974569178694185
NS 0.2365616646663581
Pay@@ 0.22841230507394808
Poly@@ 0.15043320295853363
anger@@ 0.13974605117268324
can 0.009663746195377732
cha 0.04254674328259335
endi 0.3150723710135896
lands 0.030497550982996786
zu 0.003702516874122724
Boul@@ 0.12660314441630283
Port@@ 0.12744519982519842
aris 0.30799072241900055
gs 0.05638109834922313
imo 0.16247028317091117
occ@@ 0.06462265685239833
wer 0.031032715545865164
Bod@@ 0.10004661409505095
Classi@@ 0.1598548125200646
Harry 0.10508895353615695
Kol@@ 0.05211091805895851
Lac@@ 0.17468255110216246
Moore 0.14904467769949917
ather 0.06344903897760902
win@@ 0.02608543861070223
ye@@ 0.04232141998110999
в 0.0008154275706071496
Fa@@ 0.15111490263749658
Kenn@@ 0.10104839938074789
Ky@@ 0.10837157251536113
North@@ 0.09288291697906989
dou@@ 0.037509873456467835
pres@@ 0.014735542949800909
uss@@ 0.0367665885370887
ï@@ 0.0409613257369016
Aus@@ 0.01081662979375126
Ki@@ 0.06209009574356263
Metro 0.17244907051499136
bun@@ 0.12056051784745452
isti@@ 0.03880045374956816
kan 0.11925058886071258
sons 0.04734615897572657
Gold 0.09718279908229525
Kos@@ 0.11020016345056696
Nacional 0.05326717386433921
Pos@@ 0.15343061670694327
Rand@@ 0.12620492421449944
ango 0.12508863818926944
arius 0.31480902945577954
aut 0.031068875923954773
bs 0.05143708239900632
eti 0.13729986260698293
pa@@ 0.05179611116263656
Alliance 0.16593912717284723
Japan 0.038609002332589674
Oxford 0.10004279154625133
Sax@@ 0.1751976763675819
etto 0.23488629490398288
tal 0.05605596128145299
urn@@ 0.058542853252816995
vers@@ 0.021016303417781695
К@@ 0.015535033677056794
DR 0.2566713134024755
Valley 0.068081166793481
Zi@@ 0.07756752394843565
eder@@ 0.06509753592154337
studio 0.04936371908692378
ва 0.014516554441768364
2.5 0.24844735978787227
Bibli@@ 0.1072246500137133
Films 0.17594879983353945
Italia 0.12900817787724203
kom@@ 0.028651728887316902
olo@@ 0.12483846046461357
Conn@@ 0.09101204606706502
Council 0.03261870746366799
Ku@@ 0.08077000575174048
NCA@@ 0.6796128700599168
Stil@@ 0.14872668378253437
Terr@@ 0.1360295400013032
bil@@ 0.018623083062279108
idi@@ 0.03603180359458566
mula 0.18557503898132588
sum@@ 0.041430737409665595
@ 0.5701349240606115
Carlo 0.24323771255454252
Domin@@ 0.08758189843209195
Long@@ 0.14165090314819873
Sport@@ 0.07509001189966039
aves 0.03294283686402173
car 0.025376466478236676
eck@@ 0.048218547433852184
lit@@ 0.05462855856183733
oa 0.07271798659999894
oro 0.08823076398210096
Alan 0.14299693149577775
Theod@@ 0.15039668950283605
Yor@@ 0.10795321028228914
dé@@ 0.005494045715671833
ité 0.012737523227139757
ken@@ 0.0331339989700467
ple@@ 0.04189838092729713
yan@@ 0.08184421885551979
Beh@@ 0.08372306031919419
Coun@@ 0.0923776516914964
Greg@@ 0.10702384605787547
Kre@@ 0.0657006776627348
N.@@ 0.294642617850629
kel@@ 0.061249546049989854
nationale 0.05445257560201355
tice 0.2507541638340038
ῃ 1
Philos@@ 0.11253676491460549
Rober@@ 0.12706264040427206
Rou@@ 0.08289980618683626
bers 0.04159688766929711
formation 0.03270343408814537
nis 0.03905654883390082
tern 0.03143670244088771
Abr@@ 0.10336316885641342
Pet@@ 0.12384693409236082
Software 0.2333364456559262
Thom@@ 0.2184621405032296
bet@@ 0.07663958952747428
lot 0.0352861810740402
mit 0.0024241725697275863
new 0.008565211283958301
ous@@ 0.0728331921496362
vey 0.07345627634007575
H.@@ 0.24694941110584273
edy 0.06841016227620934
kers 0.04795377903140408
ի@@ 1
Carlos 0.06464621154424448
Ple@@ 0.16900325142116412
chen 0.016272472183538656
ett@@ 0.04571824767099965
gia 0.04181274978264824
quot 0.25693002512151114
tan 0.04833155699998318
tha 0.10628116278954933
Ass@@ 0.17459637332373287
Canada 0.027646630556565497
Cher@@ 0.15014838995023547
Cross 0.1028309220726257
Din@@ 0.1102140261643781
Eli@@ 0.1269763864791216
Green@@ 0.11023929260670239
Gul@@ 0.10031794244457311
Howard 0.12328010694571788
enzo 0.19092491308240572
iko 0.10639594405687408
jo@@ 0.0304691223278034
orio 0.08772476764495965
oy 0.12509513831276634
pat@@ 0.03247889334617075
2500 0.4897415642283041
anci@@ 0.03814258914825701
bra 0.14179207992408474
ells 0.04714811343111159
enburg 0.08240655657681581
main 0.017526148359769764
ube 0.20729321314696345
Joh@@ 0.11169844146159336
eter@@ 0.03833180752255364
list 0.040112350752491956
project 0.04202459551930263
ues 0.030622484462134298
wor@@ 0.014834467848019896
ą@@ 0.2887931026888151
SR 0.10811524721440703
atic 0.046866558458398835
führer 0.15318301055978584
ges 0.02928892124563074
ird 0.1310429647886579
ose 0.05990625287114242
sig@@ 0.018938462719391497
192@@ 1
English 0.023778058671950687
Mars 0.21525852088275144
Yam@@ 0.16590073540180877
dal@@ 0.08755238293283542
idi 0.1163780121108005
itas 0.16398227900924967
phone 0.10784656853294518
tiv@@ 0.028544694443903746
Ben 0.10132038111790251
Cass@@ 0.1316482418117516
Samuel 0.11044857694807284
esp@@ 0.027733788396256617
igo 0.0864716665354284
kel 0.056980738412645386
phy 0.08778528409215587
tom@@ 0.02021159972529136
umb@@ 0.05368485536520554
ár@@ 0.05114813721591468
Maur@@ 0.10654672957191796
Pier@@ 0.172666358363315
ancia 0.09332933677201696
aqu@@ 0.03453743070287033
imi 0.1350497504451274
prise 0.06203804113997728
rati@@ 0.048615932580984726
sem@@ 0.02508852502829883
works 0.02596407208465972
ères 0.023611729167649146
Eric 0.13195695482923245
Ot@@ 0.05459359335348772
active 0.03988016637457398
dig@@ 0.03203797238111279
has@@ 0.11814497795096822
ites 0.0314153193309824
les@@ 0.035711546622815185
vic@@ 0.025486244275842465
za@@ 0.14958117808740443
д@@ 0.007374018244118096
.S. 0.2494763832278784
FL 0.11381120087392942
Lyn@@ 0.13868641669320445
Pel@@ 0.1118407526000895
dale 0.13110905154151312
П@@ 0.015335331990608369
Kap@@ 0.06646863500008723
Kas@@ 0.07297544928629185
ación 0.004852380510237302
dium 0.11746460298290864
sk 0.08148825465035184
à@@ 0.3802062705228755
î@@ 0.05369959514758822
ὁ@@ 1
Christopher 0.15588612009991673
Davis 0.0939067499457081
Ele@@ 0.15908347128785963
Fur@@ 0.08025717846598097
ho 0.1375437327577259
lor@@ 0.10892042449231627
oke 0.07452526722551968
190@@ 0.37175362522042193
IB@@ 0.31590331532815197
Jim 0.10444314553921333
anta 0.14668080001851835
eppe 0.19551442657579404
lins 0.12192422477259222
table 0.06356292658434516
м@@ 0.007583415116264262
Apol@@ 0.19995489253895044
Broad@@ 0.13515109319246352
Cla@@ 0.13081725111789202
Fall 0.11587323429491922
Hein@@ 0.129117522044005
Imp@@ 0.13921553950875565
Roger 0.11162279359475019
fu@@ 0.02463805288091828
kon@@ 0.020897471846012403
ographi@@ 0.060861161299654604
ía 0.007407038924506716
Brand@@ 0.08537005575046046
Eas@@ 0.19520417306944401
Haz@@ 0.2125788165358001
Test@@ 0.14201574488136473
Wiki@@ 0.3802823483078835
aul@@ 0.07716831836704033
ember 0.11417487154337022
ji@@ 0.10034191168079798
self 0.040844482706895904
Ἰ@@ 1
Extr@@ 0.2068496899540596
Willi@@ 0.1360659987074405
erie 0.05645493170792389
ree 0.084940338541887
round 0.026982967171486155
ακολ@@ 1
л@@ 0.008627397311086889
א@@ 1
four 0.013207793610734627
ingo 0.1288872150149151
nor@@ 0.01830389934252651
osp@@ 0.06546032638915303
poem 0.1475685055331359
pon 0.09471347664858867
tres 0.016949779758183542
ump@@ 0.047385178841548185
Beach 0.09867673545196776
Conference 0.07109382508555463
Lic@@ 0.20272173158030313
SPD 0.1976219193122342
Sierra 0.15232131893634385
ames 0.09456514375456457
anced 0.05979475139148606
eli 0.10933956062262305
enger 0.06674574448734576
khe@@ 0.14787189860286012
mil@@ 0.03890456049652887
opp@@ 0.04171284781465673
ène 0.04774375286474223
ş@@ 0.04702791271197975
с@@ 0.0053630202135649405
ὡ@@ 1
184@@ 0.6261856398400744
Brian 0.11427121132334148
Sak@@ 0.11646000964620369
Viol@@ 0.17763058352876834
dom 0.10955663029550994
nus 0.1969303861377523
wen@@ 0.032510916522120514
Alexand@@ 0.11466903950553006
Lincoln 0.11936291230455012
Maxim@@ 0.14552485976420482
Stadi@@ 0.21857067945664269
States 0.011829942788731927
Tas@@ 0.10497256678767053
aco 0.08454427394228621
adr@@ 0.06405983636198402
atum 0.1619531419615727
ency 0.025644702852468323
opus 0.32068907075293374
post 0.040423399864388844
к@@ 0.008363239563261534
Europ@@ 0.04421307676418184
Hir@@ 0.08159900379130075
Social 0.0877141480689289
get 0.02681549728038837
kol@@ 0.09583213868205602
two 0.004682461018974774
var 0.13192571794137015
ô@@ 0.04026254740949004
Jos@@ 0.10854601778941875
Lag@@ 0.08058769471608815
Lon@@ 0.1745268830740538
Mart@@ 0.1399647283076644
any@@ 0.04483653941139969
asi 0.10927919424089752
edia 0.21355318724870304
edom 0.09853430164314558
eph@@ 0.08561077893704484
onic 0.120800640595406
sim@@ 0.032895369915053305
test 0.05868651431277171
ush 0.1201263922760999
─ 0.21137671468077524
K.@@ 0.40662569018369926
Organ@@ 0.05968377241202472
Un 0.029546688113966376
Bran@@ 0.08329179927966024
Cra@@ 0.1031362645926738
Jane 0.1398087875047784
Order 0.07902171582848584
Pav@@ 0.12578134815295172
Syl@@ 0.16317411177679036
alis@@ 0.0264661232721597
arti@@ 0.04814943477201815
enta 0.03797260985801329
isher 0.11467246514661959
medi@@ 0.017238146097216966
ords 0.04405536445766837
pul@@ 0.028433804326495383
Aff@@ 0.06722149847493948
Ind@@ 0.08129887217627872
Libr@@ 0.3241161436533409
Profes@@ 0.0772784667002757
aine 0.0267032111494683
emb@@ 0.02533872043472681
gar 0.06056135176525278
stan@@ 0.0905740544588645
αποφάσι@@ 1
Bask@@ 0.37746958531308256
Bra@@ 0.16036504882993458
Dest@@ 0.2668523480342832
Lé@@ 0.09852443117846965
Rub@@ 0.13821875657122673
Stan@@ 0.10745537189277261
adi 0.11785542347633136
wiki 1
yg@@ 0.10144216571061443
öl@@ 0.034138361460461716
Frederick 0.1322898609213057
Ka@@ 0.10904532234637909
aph@@ 0.1114703631535589
dance 0.09616158651964234
ear@@ 0.024040209098051525
lev@@ 0.0641249542588866
lip 0.14735713451444024
mir@@ 0.04240419416154049
uh@@ 0.04949573672929115
How@@ 0.16996257583089783
tura 0.04894091391236682
ū 0.17163631172928384
Ble@@ 0.17561956262103737
Christi@@ 0.08766466890504779
County 0.013483057782434202
Kaz@@ 0.14917022283794978
Kingdom 0.051030663209776256
begin 0.12180124711263352
design 0.035671795699895155
iter 0.04356350867420288
lery 0.0867629344381357
na@@ 0.10694264181048463
sequ@@ 0.049037127743223545
vi 0.13161298270183538
Historia 0.06262412734962922
aries 0.045513787550214
bis 0.005245691879109778
esh 0.06263785628887704
gir@@ 0.03653037606470391
group 0.015202580529116359
ij@@ 0.06428678883808185
რ@@ 1
Bob@@ 0.12224555380584864
Nas@@ 0.15959324538356057
Rein@@ 0.09427791998915423
Sciences 0.10286083465278584
ait 0.010423557996215848
band 0.016773381321037756
ἴ@@ 1
Berlin 0.025104439705617387
Che@@ 0.13875671898144815
Highway 0.07851318032509563
Hot@@ 0.15436925447348782
Johannes 0.11207088915090882
Key@@ 0.17631810093757716
Name 0.052872213905543045
Nick 0.15409140685326128
Sir@@ 0.1408664526300333
ational 0.03257349159661836
gro@@ 0.017581526896091094
ici 0.12084142080383625
sh 0.11361713964976075
site 0.016952821092708358
ste 0.018694969934222722
ль@@ 0.0056481583095820045
Das 0.008443258843662852
Gard@@ 0.12999521590158064
Georges 0.12118023849045013
fun@@ 0.031578365224268296
icia 0.08103828652216526
lav 0.11480123785982753
ü 0.06813023819363045
Alex 0.129891279678868
Bed@@ 0.07836354402583115
Jus@@ 0.06696304404645961
Port 0.082151489385527
Ry@@ 0.125158541543643
Single 0.15887311608281576
angers 0.10028835600000964
fire 0.04416892729623179
form 0.012399145068090789
law 0.02465230504671712
Bac@@ 0.16766447396287834
Boston 0.06047979840171516
Cham@@ 0.12098079932968542
Franc@@ 0.13077130082035873
Health 0.07871943439348357
Mess@@ 0.11789064942662716
Wright 0.15782866149898334
power 0.02652970976740868
υργκ 1
ш@@ 0.007460374488653681
Lind@@ 0.10327220899094806
Nak@@ 0.14579680291777516
aker 0.07556666001445703
alt 0.04247030737916455
wan@@ 0.043238469912467395
έπρ@@ 1
ιδρ@@ 1
κτρ@@ 1
Mam@@ 0.17379569623831106
amar@@ 0.1131984757416191
amo@@ 0.07434922201084336
idge 0.07061259873967986
vil@@ 0.10765234849508093
Andrea 0.21899940265331497
Contin@@ 0.12874389935291145
Villa 0.10047897059496046
come 0.04232064832958663
nic@@ 0.20499498048687811
othe@@ 0.12765260598342437
Dame 0.12409264672790962
Emer@@ 0.12153495925589282
Prom@@ 0.10561186768972455
Tek@@ 0.28111085374248956
Trin@@ 0.08521488760124606
Wid@@ 0.12876643146378713
You@@ 0.4001638019229566
aking 0.05789610637151331
igu@@ 0.05130194942541348
ku 0.16285637500135106
lon 0.09429711549411769
solo 0.03139841697082186
span 0.18304831857847392
tier 0.05537027964106394
under 0.007866365440993962
van@@ 0.09098321519672976
ר@@ 1
ー@@ 1
At 0.015187867885208643
Bruce 0.13767921437896455
Jay 0.1903875283054712
cou@@ 0.027795184308126417
itor 0.07748152301808443
,000 0.06650045029559583
Cha@@ 0.22136958415047794
Prov@@ 0.10467934740292602
Rog@@ 0.11484501332051397
Strat@@ 0.1344298721205725
Vik@@ 0.10151424243890216
asa 0.07193017744618625
inda 0.2416266412976721
pes 0.08085304561418633
progres@@ 0.08560910712090317
stone 0.04657497234781212
sung 0.14554756174382436
viv@@ 0.04398363174568319
ე@@ 1
Bad@@ 0.08018388846949442
Ern@@ 0.07838265019534987
Galax@@ 0.22725584096280518
Lap@@ 0.227282454140803
Rho@@ 0.1024056894417725
Ross 0.13374377654482006
bau@@ 0.02771168232223925
ective 0.029581642104263037
life 0.011359799204681923
uta 0.07443394077651132
Hus@@ 0.1070799919825605
María 0.0640275651247877
Ny@@ 0.16798882582594218
ashi 0.1582470659785019
eron 0.03009559588407811
rie 0.0798442803195326
uld 0.1688184686919808
а@@ 0.009414484580430777
Pear@@ 0.13673489811640013
cho@@ 0.022729433545609343
cros@@ 0.06039874004222988
dit 0.03514406690714868
eva 0.08968807341556904
gers 0.11113382110767499
ine@@ 0.05033742925074931
ising 0.05933544528937831
sburg 0.06385848990017312
sex 0.056477932570308656
system 0.016208789028389188
tra@@ 0.02126065109322746
uz 0.10267349265656464
xi@@ 0.09790459086904996
у@@ 0.004651506205799162
յ@@ 1
Franç@@ 0.1322088601270164
Gib@@ 0.1379874429521647
IT 0.19240359643388572
Micro@@ 0.21203270988938966
Tat@@ 0.14632582667066182
Vas@@ 0.10739080957314434
acks 0.049551473042628004
iri 0.12522773359190903
Crim@@ 0.13895821239095377
Ein@@ 0.012277556746697968
Fon@@ 0.10512151769508418
Fort@@ 0.18180715077802626
Leb@@ 0.0761134604582981
Phoen@@ 0.16675955818436639
oir 0.04599932927453092
ui 0.08825114217071796
Ελλάδ@@ 1
и@@ 0.00946185346685037
Ale@@ 0.11445226746250241
Coc@@ 0.19699302369526572
Ec@@ 0.12567920432394022
Fem@@ 0.1295582801444826
Fili@@ 0.0971753262257093
Monte 0.16526594640463013
Pass@@ 0.08903191668755985
Roy 0.13964936759720975
Sev@@ 0.24665408148772952
Um@@ 0.029666766837903306
any 0.015306647671958017
club 0.011825079244337306
cs 0.05801767509635864
ec 0.12598244454593543
ications 0.08941680499352071
mar 0.052834933421829766
mun@@ 0.042103478906734645
orn 0.12571426102736535
uk 0.09381689022683778
yi 0.10199861526103303
Born 0.09105050389763425
Cant@@ 0.1252005409608146
Lan@@ 0.06400394614619188
acle 0.11331624552065436
anny 0.1458293241391631
fic@@ 0.02478023807464628
ls 0.041484647382349596
min 0.1001917599290831
oi 0.0867409140073743
ò@@ 0.4748078746090905
ż@@ 0.32931036705739847
о 0.008549235539832497
AK@@ 0.28563745649618966
Bec@@ 0.05401414091724908
Benjamin 0.13165525670796965
Claude 0.1145878808130774
Stur@@ 0.16216203027959683
Yah@@ 0.34046162302900407
hab@@ 0.02230938994470929
han 0.0300403065124254
iva 0.11555271653671605
nov@@ 0.08294909170638441
Has@@ 0.08011421486708237
Id@@ 0.09359486778716522
Mom@@ 0.1794925867320845
See 0.07986767352269815
aca 0.07057558316336288
ails 0.06910564281225716
eni 0.11594187054005904
illo 0.06053591812476938
kan@@ 0.035904839559717405
nier 0.06644292229600841
ín 0.03567329359071339
Kath@@ 0.0812165791083211
gency 0.06816197308331025
illing 0.06124112840265161
isi 0.04849926568948535
ute 0.030189056887361395
Education 0.04638975789455397
Jam@@ 0.06619899721540534
Rab@@ 0.08391922835378968
abl@@ 0.04539657528751098
lan 0.08645788648433296
pri@@ 0.03209409771422786
rup@@ 0.03170604282238194
т@@ 0.006543566627326652
ὕ@@ 1
Kad@@ 0.10813628791734305
Patrick 0.09051416043978223
Soc@@ 0.21595965157081481
Was@@ 0.1671043878240475
Wes@@ 0.0666464220467494
ck@@ 0.04079464479424778
neg@@ 0.024863741862910897
Naz@@ 0.14803059527087267
Philip 0.11380982854125699
Wan@@ 0.323404824459085
eds 0.03330903855246026
itar 0.1283917402508617
lar 0.023340680034389112
ological 0.029060043355284563
osh@@ 0.11697727674605816
sin 0.025725446229665844
tera 0.08394371481031229
tle 0.09580745324783328
М@@ 0.016708188483025153
Antoine 0.1498271795226626
Arg@@ 0.0937117440753998
Bridge 0.08522748387246154
Deutsch@@ 0.11074813754085451
Iz@@ 0.21067757519080574
Las@@ 0.160374572399443
bot 0.07793410592586729
ffer@@ 0.0896854319070298
flu@@ 0.039708598173910696
iles 0.04930262585606298
ric 0.10491552610191673
tab@@ 0.04662397619782017
Hop@@ 0.12446833188882632
Itali@@ 0.13796293083263222
Jimmy 0.133759646944442
Pad@@ 0.07845566641660134
aa 0.15718019054090915
anth@@ 0.04868612304942176
ops 0.02777214152527867
sm@@ 0.04045614183262833
Б@@ 0.014746297930960698
ი 1
Milit@@ 0.0628691321046302
Motor@@ 0.12421523761456062
Roman 0.03664166138018108
ague 0.07537627298638487
ape 0.051649835996541035
asse 0.05343166345271649
enf@@ 0.024924345072445155
sberg 0.11890509773302359
ñ@@ 0.04005607894819208
Clau@@ 0.1476692137994656
French 0.018948647720380716
Julius 0.18308043820311856
L. 0.07258765501058492
Nicolas 0.12813481842783989
Russell 0.13128862178367626
Tol@@ 0.07137154398531192
apo@@ 0.03775169857685129
bin 0.08839889334282303
ineering 0.059395907172130655
return 0.03826063849018915
xe 0.04751034973548397
är@@ 0.02194515703427861
δεκαετ@@ 1
ὄ@@ 1
ὶ@@ 1
Bernard 0.10650216175933014
Indi@@ 0.03126610145611907
Lav@@ 0.11239505137683585
Louise 0.1622223128999265
Neg@@ 0.0999209451068002
Vincent 0.13186006536859687
fo 0.10214723829137662
ift 0.12297632086229215
into 0.0052029997812110505
ior 0.041775921354117326
mol@@ 0.03827371836343798
ton@@ 0.04592443086373422
usi@@ 0.0396265567125975
Allen 0.10635173985351187
May 0.011392532326182904
Pacific 0.05403041767075782
XI 0.15533331624437832
deg@@ 0.2714399460678014
fan 0.0870378087934798
ization 0.07078881363126152
ling@@ 0.0723531863923236
nch@@ 0.053616373027507165
ott 0.10094589552714793
sor@@ 0.027628624679638305
unds 0.029337834585829836
া@@ 1
Grim@@ 0.17347623740990872
High@@ 0.10072587217609791
Universit@@ 0.10195920872775542
alen 0.04134763095252447
elor 0.09161898688195863
ists 0.015103678306168954
nom@@ 0.033426077081494275
onder@@ 0.08649454919334969
teri@@ 0.06005851159556055
B. 0.031055422951749977
If 0.05375936084447002
She 0.008135595406346032
Texas 0.03506029496180297
bal 0.08017597231568416
board 0.03610244789974315
gel@@ 0.010750493960255644
qua 0.060010370108025284
vit@@ 0.06613426959289746
ò 0.21028393532995507
ɛ@@ 1
Ϊ@@ 1
ский 0.006931913189056061
3.5 0.2633566698039552
Committee 0.044601523875923324
Gordon 0.10973494963737897
Pac@@ 0.21485864341820515
Republic 0.04250751120982414
Ré@@ 0.035987958372922096
Water@@ 0.11957991528834226
Zo@@ 0.15106337467038944
ading 0.04625830741517246
ave@@ 0.07794507372342227
geh@@ 0.03452252669962325
opo@@ 0.10355308823139447
orer 0.17451915410668292
point 0.0184674885932156
rac@@ 0.02073729543766231
stor@@ 0.030180999442877846
Ast@@ 0.12585021361111234
Boh@@ 0.10318107179915335
Carol@@ 0.11815990534768799
Cath@@ 0.09430682069332721
EE 0.21356660045747713
Kevin 0.1191057064117462
Psych@@ 0.12401540304947019
Sant@@ 0.09618969588100869
ament 0.10178071543900317
ities 0.02403171526350953
ulus 0.22417566271939834
Agr@@ 0.06951164032787444
Buil@@ 0.07504617693002914
Eug@@ 0.15762762754950688
Pedro 0.06929591433859074
aly@@ 0.06366409679512473
arch 0.05660232155354811
tam@@ 0.04487286477007019
tural 0.033019794128777064
éri@@ 0.01972961732078939
Ф@@ 0.02123131311349915
Gau@@ 0.0954526707745183
Harvard 0.10955695913581892
Isab@@ 0.10430314540430621
Las 0.02195396601119396
Margaret 0.1191462853272267
Olympic 0.07799878525430202
Peti@@ 0.13233717171117265
aks 0.07184086531836593
andro 0.13190160541092008
atar 0.1826273733655061
dh@@ 0.04524770962327915
ender 0.03057387271697104
eria 0.08857850174627657
iki@@ 0.5032514852511633
tari 0.34151224259094193
value 0.07101706797446103
Adolf 0.1449204089533148
Africa 0.039302458850571806
Ner@@ 0.16250521881166827
Tokyo 0.09447214470182162
atz@@ 0.07679978793329653
bin@@ 0.039175174115507014
bol@@ 0.052748594159276165
bri@@ 0.021667943352349374
kur@@ 0.028155015474386116
mul@@ 0.03886077979674675
ner@@ 0.023314720380576297
oca 0.10505804740321752
osis 0.07582805496881306
tique 0.03795712343469297
uli 0.2348753267630691
án@@ 0.034377671703060345
ür@@ 0.02203089849274004
André 0.09785324416963692
Audi@@ 0.14483371067934445
Fir@@ 0.1080003295548056
Geor@@ 0.0829719355342587
Moz@@ 0.20850466195825063
eton 0.08430284542341121
hil 0.13257509640669485
inae 0.1270168420592757
rea 0.05825693678080373
room 0.04237461593302954
õ@@ 0.30074186284446147
Г@@ 0.014138590103408573
Ach@@ 0.08446263174014759
Bug@@ 0.20750438374683752
Bundes@@ 0.03314618846483948
Cand@@ 0.2098058395700092
Dal@@ 0.0833413167921191
Gö@@ 0.07836834234194436
King@@ 0.10979916585482598
Mey@@ 0.1221186408451494
Reich@@ 0.06456111104923919
Ses@@ 0.1946953434861423
Stand@@ 0.05909458146552626
coun@@ 0.0224628988076925
hit 0.04768526996938046
illi@@ 0.09144693235090198
pas@@ 0.018847469682733112
print 0.07133534560890108
som@@ 0.04233681806543238
uni@@ 0.022997843874711134
ysis 0.0622900292458136
ów 0.0839480362768464
Hit@@ 0.13999161594683596
Kauf@@ 0.15065122700383524
Mut@@ 0.09838883038607125
Ryan 0.1184588721688917
achi 0.1741951728904122
casting 0.07858105340817914
code 0.0646943169138553
dre@@ 0.027710414360543563
ography 0.022057034238323836
pole 0.08880189230488761
pour 0.0029825383217491875
ulu 0.1126385518041317
vid@@ 0.045388324742010336
з@@ 0.008581554693298434
Barbara 0.13203038516857937
Ni 0.5415410829870011
Phys@@ 0.11394218160659744
ben@@ 0.024238798553540945
icul@@ 0.05495340257055603
ilia 0.1466252959701537
ld@@ 0.07158426814613561
ley@@ 0.0668465650766116
ouv@@ 0.032848061525124365
rad 0.110610063019169
rier 0.08460118918991477
sou@@ 0.012935487587429838
Broadway 0.11800742864783384
By 0.025163813191413826
Jon@@ 0.1574070813422997
Manuel 0.07096324786217455
Ten@@ 0.09981542196336562
Wag@@ 0.09966188657246888
bac@@ 0.057747977649238065
liv@@ 0.053232479714507015
mark 0.041380342744393915
mem@@ 0.021827713602202523
omb@@ 0.07177479810326745
sters 0.11581212710250388
town 0.013215769673992059
Benn@@ 0.11617217505021238
Bush 0.15135712247742844
Parti@@ 0.06989848126612593
President 0.027107086993399098
acia 0.11922520644335902
alo 0.0825247025113318
cro@@ 0.020252965532420737
ering 0.030121928500149248
evi@@ 0.1449588122870591
port@@ 0.018159331325108843
umin@@ 0.057487288788688265
έδια 1
Д@@ 0.012187227459478641
Bapti@@ 0.09341679079562829
Feli@@ 0.18931207597880376
Jazz 0.10641916962869197
Nord@@ 0.02951429983715828
Papa 0.34992264165192416
Quer@@ 0.18518333222760006
Squ@@ 0.0715790710318358
cent@@ 0.029692680227131025
igg@@ 0.08052433361646291
ires 0.026656297228792477
like 0.013688315293280871
put 0.030081129607102564
status 0.0559395698079684
usa 0.0729702996460929
version 0.017357263641288267
wh@@ 0.01672721189305292
xon 0.15004683973329086
è 0.19007724436409784
ɾ@@ 1
Ми@@ 0.02825567999052114
Brun@@ 0.07075485171338453
Community 0.08708015332772427
Dave 0.12867064134744927
Grec@@ 0.20082741834963264
Son 0.030828261744214856
Vor@@ 0.01059185668350329
my@@ 0.05808690059920487
this 0.0038799727129687008
tum 0.12030210035863595
vier 0.026021201403798457
Jar@@ 0.1047868116664736
Justice 0.07119772110460579
Rep@@ 0.19055083542509518
ca@@ 0.07305718497155402
cot@@ 0.0680946812519256
edo 0.05643613100017546
fran@@ 0.05393567780021967
nd@@ 0.07981545866260106
que@@ 0.052714312025220436
wa@@ 0.06330405489966648
ê@@ 0.024432644201712175
ко 0.017036996801733782
т 0.004611131880551667
--@@ 0.5428673279920174
Court 0.031241468278615004
Gustav 0.17177842827921427
Hey@@ 0.20262057442972103
Hin@@ 0.04459950302018695
Institut 0.07003332684501437
Neu@@ 0.04336625014993261
Shin@@ 0.1891618466761286
Steph@@ 0.11350992336658713
Tex@@ 0.056656443572222895
forman@@ 0.16949234850713485
gene 0.08301115736945862
mos 0.11269553282488896
ned 0.029993487358795163
stadt 0.028698883711470564
tin@@ 0.05293426676180206
ы@@ 0.01484384688950735
Fort 0.0537878083504305
Hof@@ 0.08764213304153205
S. 0.04766015252404739
aye 0.06612801809180412
ben 0.018506570542623866
elles 0.01675579128066876
fort 0.02464454765854776
meth@@ 0.035786643665924704
onne 0.03558195272683223
pic@@ 0.03090328792262017
sap@@ 0.29143034050674543
ù 0.24885187544671744
Ali 0.0739986143325193
Another 0.06470044635925326
Dé@@ 0.0436575652931254
England 0.019094766378988673
Oper@@ 0.05932304114530513
Sid@@ 0.11306569452185698
Sultan 0.1593197874850318
esh@@ 0.06641877067094835
oti@@ 0.03361731531444292
oug@@ 0.07589704588539642
tt@@ 0.06912313202209597
ön@@ 0.026520921188515085
0s 0.010894322393644833
Ah@@ 0.07066755222293071
Inc. 0.09552652283522547
Kel@@ 0.09097349543250192
Suz@@ 0.14702511018281894
Wall@@ 0.07201244412963033
aux@@ 0.13431697456426464
fas@@ 0.03379446048069348
lier 0.05956602685940289
oper@@ 0.013904744025160943
ule 0.039701622272034214
urg 0.06766378745938131
wil@@ 0.043458088710461515
work 0.008383242902590569
zer 0.06550290378451747
Flam@@ 0.16169377095536716
Matthe@@ 0.10889946975561711
Priv@@ 0.10489687360615914
SK 0.22011236722884875
Shak@@ 0.10242816549212377
feld 0.04458345334544695
hin@@ 0.029166237119883243
inga 0.20607808994520332
vis 0.10797744090299997
Army 0.0232335559500368
Baker 0.1431213760057697
Brig@@ 0.05290273384198223
Int@@ 0.08525766821259448
Meth@@ 0.11481106518423706
Nord 0.042328507754744324
Western 0.03119616540702184
bat 0.07426140427673884
ecture 0.05125446210730818
elen 0.050999947455447545
fic 0.036805601017831195
tico 0.028196303418953968
vie 0.03385446371439565
ლ@@ 1
Anderson 0.09427369255478359
Castle 0.07845964403821579
Gabriel 0.11307451304770703
Lau@@ 0.08018757119532381
Stand 0.06652262350019644
Ster@@ 0.0999402873895148
league 0.028509695785798473
phon@@ 0.07482471857406721
ry@@ 0.1470542214635149
sort 0.059380985827567824
ud 0.04885531744576506
У@@ 0.009135934534879374
1. 0.02273447527888634
Athle@@ 0.06237735537921906
Cec@@ 0.16262310368807073
Gem@@ 0.0650344655241358
Kelly 0.11615215242854242
Southern 0.05006653054389768
Up@@ 0.1503258751808808
agon@@ 0.07752665739605133
alism 0.04841605125551085
aro@@ 0.11267973325573558
asc@@ 0.046238626021079
cam@@ 0.033744079798169
chia 0.14823962674055324
elia 0.1387272999975725
entr@@ 0.013098968196276798
inde@@ 0.05148116642789725
top@@ 0.05661159880719468
ə 1
ב@@ 1
Charlotte 0.11478214965708926
Di 0.2185567986996657
Medical 0.087387762797754
Panz@@ 0.13974395618395835
Second 0.04348366507432597
best 0.019476561774665266
dam@@ 0.027838347944848935
ister@@ 0.0317706126461244
plat@@ 0.022190521582462517
rot@@ 0.039017542929829466
vention 0.03326330840071425
ουστο 1
ра@@ 0.006643216528735722
ἦ@@ 1
Bit@@ 0.1508498154396017
Lanc@@ 0.09736376374669407
Nations 0.06631065843495909
Thé@@ 0.1211252409696528
XX 0.06698901813210044
aer@@ 0.06587279888301416
ate@@ 0.12106745607899937
auer 0.03531993879153708
fore 0.033556748175608886
imal 0.07197016564331625
olas 0.09470433188633524
plic@@ 0.04258473338745947
ps@@ 0.11813581324120091
spr@@ 0.01893209073222422
word 0.044491968000291725
מ@@ 1
Austin 0.12201906840049513
Beg@@ 0.04500313483367464
Charlie 0.12574487402291862
Hamilton 0.08501876638147385
Luis 0.05484014041141233
Marc 0.11509147629730372
Operation 0.09327019740929159
Sarah 0.10876590560647009
evo 0.09140255513269563
marine 0.052310353721213204
par 0.002191357205916599
pen 0.06957010868559647
∈ 1
Nag@@ 0.06862261293219094
Pod@@ 0.1098083813890411
Sebasti@@ 0.10093602382883103
ahn 0.08873728778615121
avo 0.16762606540352357
def@@ 0.013082466478850825
down@@ 0.05985319812150192
eff 0.11584344789953266
ices 0.0248467544863429
ilk 0.05566631341007368
lip@@ 0.06555766253988816
pon@@ 0.02577011949356622
ski@@ 0.10231918301825345
yo@@ 0.03885700513267164
Bak@@ 0.07133574920152658
Kun@@ 0.07777250494860068
adem@@ 0.1933724443343418
eg 0.08118531582085345
gan@@ 0.03270684088337914
vec@@ 0.07020180805809127
war 0.0025486546935839295
where 0.005642420293357295
у 0.005005159182577103
Ax@@ 0.1531214259873934
Batt@@ 0.08014667259099124
Eff@@ 0.10927593831813318
Hospital 0.056332610222705554
Pow@@ 0.09579365045201309
alp@@ 0.07077668917004974
dol@@ 0.034061364471945264
home 0.01367034699262412
ney@@ 0.3430888287257058
onal 0.027557587133773355
tran@@ 0.03852894103756066
urus 0.2625124852314438
ě@@ 0.15589670557875507
Bag@@ 0.091328682174295
Jur@@ 0.0745171504603499
Xi@@ 0.12054778046562302
ead 0.06968748494273976
ept@@ 0.053278538415201686
ogr@@ 0.07412373231794275
й@@ 0.006857539661654785
о@@ 0.0049769355503777
I. 0.035270047795687764
Kennedy 0.11068041724366423
Ras@@ 0.10793848032131698
Stud@@ 0.06435045854385668
abe 0.05057552968322046
aç@@ 0.0571560103426002
etz@@ 0.021796150416348484
isches 0.05561039155638248
lard 0.0995407341574855
mtDNA 1
omi 0.22384260837102696
pi 0.20561364697837767
pot 0.10417762177453395
urg@@ 0.03962993982502826
wen 0.0922075422304567
Arab@@ 0.05170928646495259
Asia 0.05143774382703359
Christ 0.09054053762163697
G. 0.06795169723155321
Spar@@ 0.1001175076882212
U.S. 0.017858555455779235
abri@@ 0.0840020485762703
but@@ 0.05265333768724265
ige 0.01178832295172425
kw@@ 0.08380526117629233
ras@@ 0.04603761706172266
tag 0.056965188118793184
tz@@ 0.11496179957943202
Elek@@ 0.09904990696385238
Jak@@ 0.09433925463971159
Kim 0.07122644379533753
Nicol@@ 0.12288806481809733
Philippe 0.09287262936324435
Wer@@ 0.033129717896955214
control 0.02275010104998455
ichi 0.1634678253178655
kul@@ 0.03850275598127942
ob 0.07286706483416262
oon 0.08424187693406916
Ά 1
е@@ 0.009622494929829776
Casa 0.1400992609694275
Clu@@ 0.1182678159688123
Fron@@ 0.15287294889910513
Main@@ 0.08721502084188157
equ@@ 0.024903277516484214
fri@@ 0.024736276937727227
public 0.012046499896941485
thin 0.08322249981976894
大@@ 0.008968769387420346
Alber@@ 0.08746943793791194
Lep@@ 0.16923273632099256
Maurice 0.10243947604678398
Wayne 0.1388767368047821
affen 0.09559786193300224
away 0.02618267461520601
ledge 0.0642882478471139
leri 0.035998322540027786
servat@@ 0.07537115562319184
ț@@ 0.24019835388352587
Н@@ 0.01628524507252492
ро@@ 0.005759058943554642
∞ 1
Apo@@ 0.17701726926245254
Mission 0.10576614266615593
Riv@@ 0.1292951010009972
arry 0.1029353394631874
dat@@ 0.051633535707371496
estruc@@ 0.1506601115388089
fast 0.03725758065258481
fel@@ 0.026799446512602416
fi 0.18962447222091633
lies 0.025426817990039905
rain 0.07975546327229774
wald 0.06330736009129537
на@@ 0.004017530005937209
ה@@ 1
185@@ 0.3720584045630882
Democ@@ 0.06579189826564336
Pf@@ 0.03868311396440473
Py@@ 0.09611397414136362
Rudolf 0.1255299251454783
Sieg@@ 0.06328745814522874
aud@@ 0.057024007298367166
ces@@ 0.028001949707316814
change 0.019393921278840983
film 0.005635623574742095
izer 0.3118739867118783
ment@@ 0.03197043916045232
sing 0.02628186329892658
spir@@ 0.0334769049825578
Т@@ 0.012720662809271456
Centr@@ 0.1441843262514561
Da 0.04596491009455631
Marco 0.15747867564835102
Ox@@ 0.12213620670449504
Roma 0.08818625826780448
Walker 0.10756485179472815
aborat@@ 0.12328396789228074
ainst 0.29050334556594193
aliz@@ 0.023448727535423385
cine 0.044328343927524334
eling 0.07026924583010984
eps 0.09014463885220429
gener@@ 0.017035433537275012
ial 0.04622120604210224
lav@@ 0.0673054113074424
lov@@ 0.06610127046721316
ments 0.017409014923754053
spec@@ 0.02162752262482877
ни@@ 0.004998925477292845
Back@@ 0.05452572973003015
His 0.010992913202452877
Jum@@ 0.25104795370980226
Rio 0.07616657879688171
Robin 0.1456403978023253
Sep@@ 0.17372718550683852
ables 0.019720746476132454
aj 0.12227808825577498
alg@@ 0.02486869663991889
aut@@ 0.02359662654848926
elt 0.01529588839794902
gam@@ 0.10481968376127382
ils 0.011352823968459994
ph 0.09700088012966555
prot@@ 0.010778133526191867
say 0.06317492520862523
ths 0.05749967900772612
п@@ 0.008489404864158596
Ann 0.12021018789574553
Catal@@ 0.13970444099284388
Iv@@ 0.12361400040580173
adio 0.10718687434313479
ej@@ 0.02505776702165714
etz 0.061785124635731076
flo@@ 0.02032891686308939
inst@@ 0.017182257410691404
kal@@ 0.035482699810007505
onale 0.07818147485372726
sam@@ 0.05131992253378516
Cot@@ 0.08014665411725648
German@@ 0.13391509537188853
Herbert 0.11238082872676405
Hugo 0.11828718633026694
Liter@@ 0.0679485562695989
Revol@@ 0.08022646613784164
dem 0.001919549594179508
din@@ 0.03524480819123151
ges@@ 0.014096348116099708
hand@@ 0.014954010045033512
number 0.009122911460412594
pil@@ 0.022953281372988067
space 0.0361839170318771
ça 0.08590774833826025
ña 0.03901143205325911
ь 0.01037733789031217
Jul@@ 0.12916164338621544
Mau@@ 0.09170433949396797
Rit@@ 0.10352709878306574
Sas@@ 0.18521889341547745
Telev@@ 0.26738207046684803
agen 0.020494003931618092
anos 0.029665268429315723
death 0.015791902760486323
dings 0.060616770199596465
este 0.010035963897094498
onal@@ 0.03968443578704295
rich 0.061779478694412415
sional 0.050671416525759294
uer@@ 0.026269162002588033
BT 0.1349072801158593
China 0.01986008845718675
Ear@@ 0.11367179982385422
Eins@@ 0.10152294313480181
Rid@@ 0.10952495836177993
Sam 0.08266697945147511
Stanley 0.10963744610207563
alus 0.22523340850243323
las@@ 0.05519105490636635
perial 0.06263233125940647
tit@@ 0.020076330919306207
vet 0.17681824447233577
Ferdinand 0.10342778309398283
Nam@@ 0.04875467648101523
Plan 0.09805973227848938
Sign@@ 0.11130233382812979
Société 0.11566945073145926
antes 0.009724315135629321
dans 0.0018893353817505641
rich@@ 0.019815363311838557
sts 0.06232953874020322
χρι 1
ἁ@@ 1
Dan 0.10153776389938343
Morgan 0.10168198696085277
Virginia 0.03475773684380673
Yel@@ 0.134863482597745
igh 0.08272661380826066
liber@@ 0.02828205806895451
lim@@ 0.02470292357485141
lit 0.03180034963518962
nu 0.1834701674424731
qui 0.002816594269947998
tional 0.023715869173203095
vul@@ 0.08409996492371816
Andr@@ 0.13183620002882618
Clin@@ 0.07811614105956606
Sti@@ 0.06653803211061628
amo 0.07990307873801832
ators 0.031787579992315546
dea 0.1605058445132031
dres@@ 0.033467828579186606
els@@ 0.03201536873960425
enia 0.2524411049927269
hel@@ 0.030143990630506795
ien 0.009885979865283978
imler 0.3545038911171733
pedi@@ 0.0612016156910375
poli@@ 0.03457808308237734
ö 0.1502209932135639
Elisabeth 0.1431099069902934
Guillaume 0.14388342254177755
Ou@@ 0.09351607711544266
Raymond 0.12510291964870834
Rhy@@ 0.1439201609098415
allas 0.06027066976497441
astr@@ 0.031637898625392485
burn 0.09618881748693546
fried 0.1176474241286885
iner 0.06561579275939113
ini@@ 0.07256628988607229
ru 0.21131624402087568
sta 0.07921808893636846
val 0.09425513846270013
Á@@ 0.05549104652962324
ска 0.028598177995611682
≥ 1
Ja@@ 0.10095514618691287
Other 0.029775728503996502
Reser@@ 0.05552411332161011
cit@@ 0.031459099547046336
his 0.0011484604393428594
okia 0.4180977974200452
oli@@ 0.0680657679608145
plan 0.02375452396970199
put@@ 0.025306541146550666
stock 0.060059839339517675
unge 0.08779826023709066
uno 0.02147200732553964
ées 0.005699298521379482
ла 0.004226961460402746
2. 0.037343637057275086
Alex@@ 0.113840758544649
Con 0.047660290967768616
Mount 0.058219572701122636
Services 0.08309038465103251
ext@@ 0.018976041990110847
haus 0.04694962547694551
legi@@ 0.054478330570584856
sac@@ 0.03351713321543347
sel 0.0365117872318696
urity 0.03600339240392898
ı 0.03085970417397059
ş 0.13758622668809384
мо@@ 0.005832575139992811
Ὀ@@ 1
ῖ 1
Brad@@ 0.08163577367301932
Bun@@ 0.08173094586006525
Exper@@ 0.11046191103721983
Gru@@ 0.08246146461923097
Harr@@ 0.07966375226796259
Ma 0.14087049276288408
Poli@@ 0.06338409395832245
Thor@@ 0.10464054522490036
aba 0.01043832147263009
bian 0.08302865079322609
chin@@ 0.040893763323199835
cos@@ 0.054238999171062376
festiv@@ 0.09769116126758666
imi@@ 0.08354676096933773
isch 0.011438413960958784
iz 0.08420731428230847
ports 0.023454290061374398
ün@@ 0.018266569433704735
տ@@ 1
Esp@@ 0.05370467596444293
Kurt 0.13783152243432562
March 0.00920712034020946
Princip@@ 0.11938060250578886
aug@@ 0.07153630665576187
cri@@ 0.016256381371725345
dev@@ 0.012999646706108174
eland 0.07439410228547128
ix@@ 0.11779279096337886
rat 0.03923428166811575
ţ@@ 0.8326409323701222
ș@@ 0.11415027200447388
Р@@ 0.015966837549079443
ל@@ 1
Catherine 0.10379207923540769
Ey@@ 0.1979314658069523
Gel@@ 0.037039405686606
Jun@@ 0.07598149231854727
König@@ 0.03580552930269637
Latin 0.05196525997436325
Lawrence 0.09791023556985624
Orange 0.11665386385824132
Station 0.03997542895806571
Stra@@ 0.08155949382869035
dar@@ 0.01309313431233438
enci@@ 0.022488934122414813
ener 0.027855856339782804
eux 0.018927299922287696
kes 0.07896456976868146
wick 0.09371524567072458
ú 0.07170950814854783
ῶ 1
Bah@@ 0.04199511468133917
Post@@ 0.07122235559163434
Winter 0.0660364381384082
auch@@ 0.12621924366432838
doc@@ 0.025573613546672896
ises 0.022225339026978742
iterran@@ 0.09169666953627983
nam 0.06499611466949551
real 0.029479658372902267
thing 0.03625755425661926
tienne 0.09068068031953827
trol@@ 0.04656423673896503
ution 0.030029802234441717
ма@@ 0.0071103724339559365
― 0.3506493550876928
Fé@@ 0.12449939396315722
Josef 0.10990403935100981
Lud@@ 0.1078693595848726
Marine 0.06269100243378617
Roll@@ 0.20665007892271034
Spor@@ 0.14563118403017178
aja 0.04554759509282457
ander@@ 0.028947836562975386
ares 0.022079572425943123
ease 0.0447125177925479
ock@@ 0.047826754350254054
uki 0.11477963817721883
ש@@ 1
African 0.029513282746072882
Laz@@ 0.18590933616680544
Leo 0.12712349699991915
Nev@@ 0.07404691472588563
Norman 0.11120331982281974
Prin@@ 0.06857845111516514
Revolution 0.06864023794300206
Tenn@@ 0.09704361292489433
Yo@@ 0.10083952583829296
avier 0.07898001633213406
ender@@ 0.08766624023447511
gy 0.10188361196473839
ias 0.043530731605172936
mini 0.1475965808682859
nos 0.044948316102803
ombe 0.3126116687124686
play@@ 0.04602396385714218
pur@@ 0.01569080049673832
rou@@ 0.026815517975573373
volution 0.07489497447610552
ἕ@@ 1
ᾳ 1
Alberto 0.1242900259361668
Canadian 0.028437637611324618
Freder@@ 0.17405333150759322
Isa@@ 0.10635418345623339
Ok@@ 0.06794910750920909
Palm@@ 0.09979599632427175
Poc@@ 0.14064244954642674
Rail@@ 0.06355276255941705
aces 0.031864435383642205
acid 0.1070529904485951
dos 0.008863223898154561
dy@@ 0.12163248276083398
micro@@ 0.05541699372740696
porter 0.04499547907473386
stop 0.05908927603225415
ég@@ 0.01743868428115115
ř@@ 0.0921466453058853
ц@@ 0.013335889806398096
„ 0.0031090098779076657
Bog@@ 0.0758238660199192
Emil@@ 0.1285653816779036
En 0.0021644032638269235
Gab@@ 0.10846032962996593
Kul@@ 0.10061624828008399
arte 0.07309026301846909
chan@@ 0.03346190113860344
game 0.009521645018279658
isch@@ 0.01738569214697124
iste 0.015266318059595491
ording 0.04276276382216407
rik 0.1786770203283305
Det@@ 0.08125480208032432
Fernando 0.07836545049178154
Gran 0.07470755887729458
Maine 0.10400124796055407
Mr@@ 0.0924732014559468
Speci@@ 0.12413471582692809
acht 0.02013068938289402
etr@@ 0.0664998233466674
midt 0.1310811972685337
mut@@ 0.0310926953188334
osaur@@ 0.0911719870372394
188@@ 0.2472065696047792
Avenue 0.05227634535950382
Baz@@ 0.17978326940541492
Fig@@ 0.062486539645219864
It@@ 0.15066316137402377
J. 0.027430485166358688
Lo 0.15782696924983827
Major 0.048019590012307316
Moder@@ 0.10390865101025636
Obj@@ 0.07564358749545527
Raf@@ 0.17479216459447938
Slo@@ 0.06366040173959181
eb 0.10251153189802918
lec@@ 0.03990595854298812
mes@@ 0.032780194557396655
net@@ 0.04240055985240522
road 0.0164748938069322
Duke 0.06078663056422662
Hau@@ 0.09727848773546287
Hid@@ 0.1221357473945711
Hoh@@ 0.07357625347331277
PM 0.17892687043675987
Territ@@ 0.06398729991824764
amer@@ 0.03705734862387651
bridge 0.03718250690838161
eil 0.048993229212791596
ischen 0.003575895896232624
ka@@ 0.1495644099404317
manuel 0.11361480906385801
ois@@ 0.07069079197783919
ough@@ 0.03597061767899632
parti@@ 0.01811191807718953
schaft 0.011259077510860952
tn@@ 0.051568252840026384
ć@@ 0.23146265545872663
ნ@@ 1
Bruno 0.13771869977587967
eff@@ 0.01084603513985397
isco 0.29584142646475053
ith@@ 0.10619358338100132
ì 0.1670765649598914
Ž@@ 0.16805154260565014
ски 0.02655596924208859
Band@@ 0.08184802890075421
Dum@@ 0.12179277225871409
Emp@@ 0.072355210918482
Fen@@ 0.08422905407083886
Notre 0.10505510638962107
Su 0.020692065629647403
Tig@@ 0.07990900836023161
Vinc@@ 0.22539146029870188
Yan@@ 0.10014478703248537
concept 0.053156583680916754
fen@@ 0.04100242909814134
oft 0.05722141049510157
oshi 0.1440635513759511
xa 0.12140023986339894
ás 0.03660290599947989
до@@ 0.004306928631083278
ла@@ 0.00842054133786098
ს@@ 1
ン@@ 1
Aj@@ 0.1296488222667326
Canal 0.08429838466760514
Constant@@ 0.09668888582390528
Ji@@ 0.08948768825982893
Jordan 0.09412326061894705
Milli@@ 0.0713790318012091
Nec@@ 0.19646745108195576
René 0.11946158863206117
XIII 0.10833605505558551
aver@@ 0.0525203563845111
bey 0.07897513205236151
chem@@ 0.03235161672206918
elly 0.13215708355798414
eur@@ 0.03967733522746157
ligence 0.06350640342680816
lé@@ 0.033959272897788946
main@@ 0.02485425663612623
mund 0.07520607359139199
ovo 0.08785274126219303
prin@@ 0.03638337419840982
tak@@ 0.03554686084784173
tir@@ 0.030381269164158436
ult@@ 0.028205873370359253
ד@@ 1
Alter 0.07361826477540931
Commission 0.03705886171679496
Dim@@ 0.14525441223920116
Fat@@ 0.19861187910115055
Jonathan 0.11507438057496422
Lad@@ 0.10097863769488251
Liz@@ 0.1499866559588656
Mann@@ 0.047386992415169325
R. 0.04522071849390184
Secre@@ 0.038614229997476816
ancy 0.050038786983491575
chr@@ 0.055621733054781006
esi@@ 0.08859143371173263
idel@@ 0.06119982481474653
itation 0.03341514315572469
love 0.04129877969721953
mand@@ 0.023455131433502325
multi@@ 0.04479054341131775
ondo 0.18130029812954906
ouse 0.06895280599224655
see 0.01749561621816671
wich 0.08425180978993384
д 0.006149288186120501
187@@ 0.28330399565011116
Denis 0.12796018121142513
Gle@@ 0.11058845498394164
Miguel 0.0679548353501477
NAS@@ 0.18248900668334406
agan 0.08812961281262377
but 0.002572186977434998
lag 0.02428941490290304
ligh@@ 0.021478960996297248
mel 0.11952933288321779
nig@@ 0.17051751572547558
player 0.01775713488947944
sed 0.015833455458199742
sis 0.11071051384185515
ungs@@ 0.0056906834472303216
usha 0.5828880510482695
wards 0.03476274520897827
âteau 0.15341806133400251
͵ 1
◊ 1
Alg@@ 0.07271231516918561
Franklin 0.09627159725230439
Hud@@ 0.09155323819644408
Map@@ 0.1397823916256503
Ris@@ 0.11449747533431824
Rud@@ 0.0973918099931806
Sin 0.0383864433495849
South@@ 0.06427989305996282
Vin@@ 0.12167222379912226
amba 0.12934148001278192
ation@@ 0.08432993075155597
cial 0.03288204938377499
contr@@ 0.008768900718483831
essen 0.04467346245058133
fir@@ 0.018117531958988988
hum@@ 0.015824858102141917
lave 0.08959597795348843
och 0.060579941894781546
oe 0.09213667916193938
ologie 0.01587385986949102
onym@@ 0.058579234695738114
pler 0.12473285755971211
poly@@ 0.05432442127878232
pot@@ 0.017148554245667944
ring 0.03811495679427484
state 0.008380573980187838
ли@@ 0.0038655382316874127
я@@ 0.007419295621215619
Australian 0.021848690872580193
Coast 0.05372631723397255
Dru@@ 0.058119072242610516
Kö@@ 0.08042965814378376
Wind@@ 0.06918862885063559
aku 0.22870390074885064
asis 0.09589454727331519
endi@@ 0.03081432205855608
fle@@ 0.02145606171927409
illon 0.07760460057122733
quar@@ 0.01644321333638617
ɣ@@ 1
Ко@@ 0.012658420560709744
г@@ 0.006384377088475611
נ@@ 1
♦ 1
F. 0.049807883995142306
Fam@@ 0.11754508305165526
Fritz 0.1293239796710299
Len@@ 0.07533956621999387
Lucas 0.12945609995472732
Sainte 0.0809409580481201
Schne@@ 0.08954790012788114
atri@@ 0.06663684386932521
boy@@ 0.047566723375315596
einer 0.003957586621274269
enh@@ 0.026039492557860016
ern 0.008137558491922464
fish 0.05085771277076831
hood 0.03411145486199247
ilian 0.06273248998921405
ize 0.03199726024576109
lion 0.03416036451998869
phy@@ 0.08751781787342994
quit@@ 0.03692562995304672
stand 0.01543875153952398
tific@@ 0.04585159846898823
uj@@ 0.15318524692288887
vari@@ 0.009227632586609195
і 0.8343225994766936
189@@ 0.2548679486071362
3. 0.04102419970207665
Australia 0.016414414712126305
Dist@@ 0.08015650182546698
Fall@@ 0.11853023872188273
KK 0.2756044637563607
Metropolit@@ 0.0780147472423115
alla 0.06479495823637059
amu 0.2640074818985826
bloc@@ 0.049178808155558036
itt 0.0746747067297779
itter 0.10923848912712208
utive 0.024688013354284524
éro@@ 0.03980450396572884
ı@@ 0.04835602526251326
August@@ 0.1036881819366092
Bé@@ 0.10447439707465807
Eri@@ 0.08739681287432585
Hak@@ 0.1286462061749693
Jack@@ 0.09231044536768551
List 0.029260117571776382
Mar 0.13565452827140803
Martin@@ 0.13123765120347516
Oliver 0.10641006570362926
Schwar@@ 0.05310955933899973
Sour@@ 0.09424592292845342
Spi@@ 0.06817994139631377
Teatro 0.12563629118970773
Vita 0.4533403248753424
Zen@@ 0.09055062116166604
berger 0.056588179824106494
ements 0.008304739664538062
inson 0.27072247720935455
kir@@ 0.04552602607272257
lob@@ 0.038574873611139544
oid 0.04305641901159183
quer@@ 0.09620821920111561
And@@ 0.09144875722555958
Field 0.05960394084549678
Leopol@@ 0.11710947687509855
Main 0.052233057137258905
Moun@@ 0.06789477098576288
anza 0.046726005870120324
atur@@ 0.03407494389251745
een 0.06250953263277836
gn@@ 0.07552898250842817
imm@@ 0.040543361509873775
ingu@@ 0.047110230944905504
mode 0.07144419737428034
por 0.0016875308073776385
ris@@ 0.023356450849443038
ulo 0.18388332480889844
éc@@ 0.02402996782616858
Hung@@ 0.07215991413885631
Ord@@ 0.06474237309216635
ball@@ 0.0394414468932956
burgh 0.042803111062549734
ching 0.037972650992185324
ening 0.04384530043819452
ismo 0.023624677332547292
jan 0.10268748845375682
mani 0.32689446817990947
mm@@ 0.10557145454483813
ole@@ 0.2069340223162592
uter 0.03788397313424687
ór@@ 0.03603745625573322
ő@@ 0.35083345229405055
End@@ 0.08032974417486778
Esc@@ 0.10993450793122232
Gut@@ 0.09249550494964628
Histor@@ 0.05493028767581479
Hub@@ 0.10564390488570134
Ib@@ 0.10369669165611715
Jason 0.10481761096043593
Oscar 0.09057146308997449
Ost@@ 0.040529577476242806
Premi@@ 0.06351358356540221
amber 0.07337377099610679
eign 0.02847512868071317
esia 0.09068964318493904
ingham 0.04461692368204104
part@@ 0.013589893811084018
ui@@ 0.09832879644736699
wing 0.013563225514472583
Ü@@ 0.08607702841002506
üt@@ 0.02296678275236391
ý 0.055106932400784285
ه 0.02747984738340911
Chor@@ 0.09215088036796805
India 0.0161274062563302
Nelson 0.08976707805329012
Stewart 0.09469375821618077
arren 0.07918507901212814
elin 0.14186127249697614
ging 0.02050925977950626
natur@@ 0.021658565938969306
west 0.011501967951147668
с 0.0013397572636144489
Alli@@ 0.07821590642351532
Nig@@ 0.11444612521538582
assi@@ 0.05146356391387444
endr@@ 0.08758825435762255
esto 0.0401694574383301
europ@@ 0.038431490877373756
ider@@ 0.07312822181284928
omon 0.13432923926838514
ostr@@ 0.16828375421225272
rio 0.12542181651947223
vat@@ 0.2015930789458082
ɑ@@ 1
Ἄ@@ 1
Adams 0.08975666574773089
Sad@@ 0.09471980065758541
Termin@@ 0.11085307797195486
Thompson 0.09361875491827053
aliy@@ 0.7125920031697447
eas@@ 0.027743925609704116
final 0.008556656762105963
mad@@ 0.03438521062753862
mon 0.10056407921184932
mouth 0.05708645773263829
nat@@ 0.03958302400807413
tax@@ 0.048472266904636976
vor@@ 0.0063986057564609095
ь@@ 0.008292364618607408
Anton 0.1052523213757022
Es 0.008391794240133903
Ken@@ 0.06931527520842645
Que@@ 0.05122747186923166
afé 0.11819889705779388
break 0.04479135497206751
free 0.02384840974736649
mal 0.018986204424082668
polit@@ 0.16729628739199398
sul@@ 0.05742752064708398
tains 0.03625012129782162
tec@@ 0.06509502432801835
uo 0.09141144899062162
xi 0.1315026443669079
ба@@ 0.008760047479010364
Alter@@ 0.06861282935572478
Jesus 0.07681040157487953
Lak@@ 0.06477585629131992
Railway 0.03850538862334608
Wy@@ 0.08336551560858743
alle 0.017068951272422684
andra 0.13211299275724123
ator@@ 0.04600422664133326
first 0.0019736332491777876
lik@@ 0.025067422864455572
mil 0.07893635485993054
nik@@ 0.18733991951716686
ool 0.24318788503371666
ority 0.02764800184315464
orn@@ 0.06782399371851718
oso 0.029803563451861845
osph@@ 0.061254550757655554
scope 0.12131656049962129
ás@@ 0.04427363069543111
İ@@ 0.05282075436603113
ʃ@@ 1
Day@@ 0.11430564866749697
Forest 0.0647422646978447
Gur@@ 0.1065816068218797
Inn@@ 0.05815857788605413
Kab@@ 0.053555273242422013
Margar@@ 0.14093054471379302
Northern 0.03492152164952969
Sach@@ 0.09080101533274636
Sic@@ 0.09737713800403133
XVI 0.08472801323839033
arding 0.046492851591258766
bor 0.06899775321241061
elling 0.02541508821314037
over@@ 0.010794234478103197
ples 0.014980723436010174
uti@@ 0.028890004444264834
ː 1
Ц@@ 0.02789604780978559
да 0.00522651257026117
ри@@ 0.005195453396838045
1st 0.02652323832560465
Fres@@ 0.0982959521165477
Hr@@ 0.30927595223643745
Jose@@ 0.10115476867653264
` 1
acher 0.031105858726754896
aining 0.023359663219716047
alie 0.06417526034371021
cos 0.02682315730890196
eler 0.03555425761827527
fest 0.08747665488823685
ović 0.11343906428487377
ron@@ 0.03351350614312636
Clark 0.07224411798067451
Grou@@ 0.11767613420008911
Jung@@ 0.09924161453359433
Kim@@ 0.12069576331557613
Rock@@ 0.0991713425459621
Shir@@ 0.11444717345089683
Tim 0.0905477475419654
box@@ 0.055842607244114474
eral 0.033011594099934746
fied 0.011941294413793378
folk 0.05616644609970218
gem@@ 0.018794213797403137
incia 0.18730483857958505
nel 0.0449350063399485
nes@@ 0.0898506678495814
sing@@ 0.03262847612461617
soci@@ 0.012208816926462203
tag@@ 0.03602242862393493
Ψ 1
άλληλα 1
ло@@ 0.005546164125651073
Ա@@ 1
ὼ@@ 1
Airport 0.05138310494831937
División 0.05920047230829593
Gary 0.10034753328957174
aler 0.07644714641136764
atom@@ 0.05587982572300745
cole 0.5122506817779635
inj@@ 0.03887079699641587
itung 0.04076963064214857
jazz 0.06875030114858406
long 0.008793955590875238
pap@@ 0.01834977162565209
sl@@ 0.03670463800423354
tista 0.10322207710464615
äl@@ 0.015037875879781247
б@@ 0.005559737664372611
ه@@ 0.024203478074574125
ḥ@@ 0.5174892389287975
ὔ@@ 1
Bes@@ 0.015297828258671533
Bis@@ 0.07968343938768321
Cum@@ 0.0865215469029446
Ef@@ 0.19766541479664798
Fred 0.10012860232485574
Matt 0.09178790497016903
Museo 0.09340174031266675
Sap@@ 0.14069540711765585
Wolf@@ 0.15083177758092314
amin@@ 0.0396413604954748
arian 0.02960598162159995
cant@@ 0.046596494009751535
cross 0.04751581925185746
disco 0.07216377960960525
edr@@ 0.03854790300811118
kor@@ 0.034265752447147135
pad@@ 0.07790749725799644
size 0.029061786530669566
wr@@ 0.03388671995941413
än@@ 0.011216176809525498
ɔ@@ 1
ва@@ 0.005553609520041252
но@@ 0.004567822603193052
Andreas 0.11050326016557484
Culture 0.07371357553460751
Gott@@ 0.1055418801811914
Nob@@ 0.12477695564886375
They 0.008255934450811547
Top@@ 0.07406449045669904
Zh@@ 0.10195286873736202
cell 0.05557044604685502
have 0.0025904955679809686
kt 0.014492613100054398
lab@@ 0.024499170398512574
milit@@ 0.03278911494482158
plex 0.09169167525394088
tain 0.01326503606059305
tour 0.01796144971200362
Agu@@ 0.08518885697487648
Berg@@ 0.03465243825799254
Hamp@@ 0.06044193836208032
Montre@@ 0.07077696782691635
Well@@ 0.08155215496645798
apa 0.0631229820912062
atra 0.10746499982954119
eng 0.04733236977637022
ieve 0.040662409592951226
igi@@ 0.07009483781798703
iser 0.043994554161803354
iting 0.04877641798610418
other@@ 0.04608002933998028
prom@@ 0.012630561845315752
sold 0.022318171985628032
tempor@@ 0.02683288540472058
too 0.031826482513009444
ɐ@@ 1
ვ@@ 1
ἢ 1
Ἱ@@ 1
Chir@@ 0.13527921656407524
Maf@@ 0.2352336905576962
Miss@@ 0.11462424667894015
Rosa 0.10562088442224297
Vall@@ 0.08229299285726352
ador 0.01032915383023469
avi 0.11329822198595221
cont@@ 0.008329857166552294
dra@@ 0.015425454488303328
dur@@ 0.016108354850855894
dér@@ 0.09312520710018923
eim 0.04924834689771534
estro 0.08440101262153922
fall 0.02122129093483776
onds 0.0649318754977913
ought 0.020890953430261844
plan@@ 0.01395786820122812
pos 0.02663340721150987
quet 0.09458194481636742
rif@@ 0.05352486057840166
til 0.045661232107501046
ving 0.01605011226001794
ούστου 1
ի 1
√ 1
Buff@@ 0.07494430214127859
Frank@@ 0.08378098265341404
Kong 0.04355128027881837
Leh@@ 0.06047881049893169
Schl@@ 0.05429383854140011
Shu@@ 0.13085094828392435
Tir@@ 0.07276557098926238
Will@@ 0.08676253250530853
XII 0.1075487434526051
allo 0.08799106418655826
alog@@ 0.04430654947390989
anas 0.035971926929554275
cher@@ 0.03672232352227864
eci@@ 0.046920714906884056
ences 0.009666001747119693
ended 0.009672844090192178
erra 0.12697436414519833
fin 0.013002442535049218
gol@@ 0.024805186114413534
icio 0.03868790279959217
lake 0.05816366107989493
ony@@ 0.04110249801982165
sar@@ 0.0540903973338603
strong 0.0281331085435426
tav@@ 0.1360481811791159
them 0.006319517731123734
tos 0.015676075519380283
˙ 1
όρεια 1
м 0.002860683019072316
ре@@ 0.003431640616764995
Kib@@ 0.40885292492201747
Roman@@ 0.07308954780556652
Stat@@ 0.08613592279110123
Zel@@ 0.1278697074611152
afe 0.10533961404914297
ennes 0.022995491690101753
fon@@ 0.018055482835429373
ited 0.008982102855913056
ning@@ 0.053440584688345706
order 0.01302712388326551
plu@@ 0.11570238119805716
reich@@ 0.026967441918313833
uss 0.033918417372381895
vie@@ 0.017543423687912115
wall 0.0411051503299676
yu 0.11735990893267557
zen@@ 0.04932721747812214
մ@@ 1
ო@@ 1
Gesellschaft 0.052765176663939456
Inh@@ 0.07828386182748351
Lie@@ 0.04130507090652468
Olymp@@ 0.16382714212034494
Sachsen 0.09403744473486358
ability 0.016983644259570562
ados 0.004264335657138033
allen 0.03975069000790448
andi@@ 0.05918940882889668
got@@ 0.05909726960075178
major 0.011442397732323131
nament 0.07181374390403833
spo@@ 0.02452836912476849
support 0.014319490311165209
voc@@ 0.0146551046641503
ân 0.05401607403208377
ρεταν@@ 1
са 0.006333759234288111
կ@@ 1
Académie 0.09755552015761704
Adel@@ 0.06888833885868197
Del 0.0833145600017048
Gros@@ 0.10889943161518757
Hem@@ 0.07857356915273742
Nikol@@ 0.07488817812866963
Rac@@ 0.13453795001455676
SV 0.0706099532519429
Temple 0.0659795106466684
dez 0.08051174956842837
hai 0.022503787809644106
high 0.009063054407282592
ife 0.0864333636334945
liga 0.03434333237284067
new@@ 0.03534902323744374
sea 0.023566679940708348
tain@@ 0.02752739202366086
uni 0.10104950935920406
wide 0.01906738407948786
Ł@@ 0.11925656321842028
ע@@ 1
Andre@@ 0.07873977567005289
Chief 0.038546647752915275
Dani@@ 0.10928943685392822
Gom@@ 0.1257744742522147
Had@@ 0.0903224300826208
Hip@@ 0.13527391242324233
Stein@@ 0.040005628099451074
alier 0.07876094194171829
ander 0.06777731144362399
aza 0.039834618756687507
eka 0.14776672390341183
liz@@ 0.05232939075197728
mach@@ 0.023063341757473158
nar@@ 0.04401195286233526
olia 0.11183530309704535
opsis 0.05502928529659728
otr@@ 0.09131429279953446
vu@@ 0.289756877797336
zur 0.005059774789543852
öh@@ 0.020684328410305396
Л@@ 0.012315050584575422
্ 1
4. 0.041050107952100456
Middle 0.04762840133763191
XIV 0.10386337519798844
agne 0.03417056831571751
alist 0.01614031513170943
eda 0.05730542475606056
graph@@ 0.03736610204082556
gres@@ 0.03910703143176589
lag@@ 0.0234431283092975
orie 0.026645506168404918
tures 0.015426634319237569
æ 0.5374333026160892
ле@@ 0.0043667478793732485
᾿ 1
180@@ 0.32459127443167374
Academ@@ 0.12170665027928605
Atlan@@ 0.09315538457279837
Dj@@ 0.1209813317537218
Du 0.07023896684452774
Lug@@ 0.11991381033045831
Russia 0.03389978428161706
Se 0.012624038942276972
Shel@@ 0.0955803951189895
Tag@@ 0.0523157989076496
ances 0.011181198870937811
court 0.017932041321584897
drome 0.09076142327880249
ector 0.08185632062322348
enz 0.02820798715271565
gin@@ 0.07585524270464118
grup@@ 0.08218978524444154
nav@@ 0.019853900867772573
orium 0.08035475671271121
radi@@ 0.027053890590968514
ustry 0.1358653964772704
ğ@@ 0.05347872024518581
ная 0.005456497078621497
Administration 0.059702295088012836
Copa 0.045727905397255235
Department 0.022053636040743212
Ges@@ 0.01713075340517819
Manchester 0.05343190141906444
Marshall 0.0864297958759683
abil@@ 0.03283531800424675
bile 0.06298183634284753
borough 0.051653534676403615
rez 0.05471890085037595
sian 0.05142431187339351
uri@@ 0.10157768474883336
wan 0.04266706060509591
zant@@ 0.07482990456575943
Ј@@ 1
Алек@@ 0.172317716938946
Earl 0.06303946944241304
Jug@@ 0.1032316985107091
Werner 0.10964279258805353
Zar@@ 0.08837750540833444
bes@@ 0.011525530656613842
eros 0.023092761063056053
ju 0.1489067314525199
tar 0.03662551710675555
მ@@ 1
CEO 0.08172513170751179
Deutschland 0.020840768984135036
Sonn@@ 0.07038425102868057
azar@@ 0.0959468091931694
enter 0.03624168894107297
far@@ 0.019147503944878783
hon@@ 0.024268668154824855
isha 0.10455672511365975
kov@@ 0.09162991099203094
nati@@ 0.030781062046022063
ogen@@ 0.06051276530391537
oux 0.08048153744475266
tou@@ 0.026441197257698976
tri 0.11594256917024137
umi 0.10776578292233224
years 0.0038023016539266803
Î@@ 0.11144852537658459
ս@@ 1
ῥ@@ 1
Primera 0.06074535918829069
Ray@@ 0.12612827075361074
Some 0.020719083808981024
Wolfgang 0.09524638768591177
albums 0.04264620195182646
ansa 0.5071918187212203
grand 0.019261264371760883
han@@ 0.050010212626540304
hem 0.09300952946132053
male 0.03659213763463013
prises 0.036535176504903115
tad@@ 0.027726597973997277
versi@@ 0.02035806231122041
én 0.038377743862323385
ė 0.34163480253908884
İs@@ 0.19941236903316
Ś@@ 0.1874058446558005
Е@@ 0.010963974751216589
л 0.0027022277373179118
Andy 0.08838150147220798
Flu@@ 0.0695323967960604
Stal@@ 0.0876561389580458
Sud@@ 0.059169493371239695
XV 0.07843512895501611
digital 0.04612543125107062
ende 0.007652735622793264
enna 0.06295323038055584
gor@@ 0.07820488252207926
has 0.0016668507218809598
hua 0.11547531927851068
ilo 0.08345331529193589
isto 0.10967838427003387
mos@@ 0.04169492244142068
pas 0.006368791040775464
ram@@ 0.036852383743137505
tas 0.03374950687494267
tun@@ 0.028545257584552203
tur 0.03442985106268542
ç 0.06942957586991874
Ма@@ 0.010895452394362432
ἵ@@ 1
Bass@@ 0.08806160516408525
Card@@ 0.057950598722142095
Concep@@ 0.10386616438331933
Españ@@ 0.11716235684011864
Hart@@ 0.07080647856228522
Rat@@ 0.08018792693290822
Rural 0.07739591593103579
Schw@@ 0.02306466279193964
Tax@@ 0.06669065672375195
ael 0.16616936613729488
cru@@ 0.024280523806523503
oll 0.07760642159539945
onde 0.062493277663864644
oz 0.08099564856106779
rus@@ 0.06621045285712146
uga 0.18406058080360096
uses 0.013029730870056506
zer@@ 0.04314154409996341
ди@@ 0.0053871425461662695
Front 0.06253975969168851
Nom@@ 0.10764714742974757
Sol 0.1324945478704642
Winter@@ 0.061929451983920906
ande 0.05782176316059128
andi 0.1305005631907998
atin 0.06289786796590581
avia 0.12683693593341822
eh 0.06470467744661094
eira 0.09990760700009609
event@@ 0.05920310172937995
get@@ 0.021306930726403436
lib@@ 0.042633199586595776
line@@ 0.04594078526670233
liner 0.15589985559301184
maj@@ 0.057059046435590136
market 0.02644852571741379
orient@@ 0.031663156376854906
rent 0.04546949573338743
tiva 0.056851180424856256
trac@@ 0.020318468687605125
ἠ@@ 1
ὺ 1
Plaza 0.09649585140689611
Police 0.04910346414439787
Venez@@ 0.177782273556291
Wiener 0.08275461773558333
aron 0.0066830223435740774
bu 0.020231945768938803
kov 0.08637659102627887
sign@@ 0.018514205694895293
thy 0.036024673317639665
té 0.013795614539278881
ulia 0.27911699303808474
ungen 0.003426856691149823
во@@ 0.0044446696672333745
го@@ 0.005244443487114659
ра 0.005455767242282112
х@@ 0.006737127143336229
Alt@@ 0.04098516002318759
Bang@@ 0.07461798486570112
Bron@@ 0.05142238463535611
Hall@@ 0.0854352949444548
Histoire 0.028869278305731175
Jag@@ 0.07053704597460211
Kak@@ 0.18359793027309282
NFL 0.05516635479826883
Robinson 0.08089447219351653
aber 0.007856125775678372
acre 0.06998876811004658
alar@@ 0.05312960282240325
apo 0.1450734204764441
asons 0.058810745085307294
bia 0.12442143043955181
bis@@ 0.056053622343645956
enda 0.037563378842391894
enes 0.025684952456685627
ennis 0.09124969547809067
festival 0.035404215469323874
iler 0.02876245654927445
indi@@ 0.01729475777541248
inet 0.04643373287829283
lus 0.12230517247432536
ogo 0.1035698099769653
ologies 0.060650480722510884
ovi@@ 0.06772660054064379
pag@@ 0.05144995788359384
then 0.0041756329366047125
ège 0.038694452303409926
ָ@@ 1
ὖ@@ 1
1,0@@ 0.18891010080618434
Eastern 0.03529961804588385
Edu@@ 0.13735536646764088
Hyp@@ 0.1564788630655231
Indian 0.017319845743790932
Most 0.028460444098670885
Pyr@@ 0.10743396278575056
Song@@ 0.15557094432489688
Vig@@ 0.152232100714594
Vladimir 0.11327163667234712
Von 0.013481223238507587
dam 0.04821831244353656
ino@@ 0.08093782062354835
ism@@ 0.0505647081828708
sun@@ 0.045775952982294116
utz 0.07166924011286491
wel@@ 0.02471010469610126
éli@@ 0.04498806772974131
По@@ 0.007925710469374882
бо@@ 0.00663891452238941
ка@@ 0.0043237080123172695
Buch@@ 0.031108648121467228
Code 0.07879096494153028
Diego 0.04397422154756182
Roberto 0.1102772864360099
Sib@@ 0.12887634989853994
Wilaya 0.8988538211277427
ament@@ 0.0336629640220703
anco 0.0939277356322071
bic@@ 0.06698130524202808
ble@@ 0.027642718870832774
cip@@ 0.024397388362980034
hydro@@ 0.04082703038175994
inv@@ 0.009818224894194523
kar 0.09417629906709932
lang 0.022416115647376562
mari@@ 0.02725042694076468
oko 0.11759985716829331
park 0.02172263955559471
ß 0.012887964441476442
érieure 0.052429893856230696
Crist@@ 0.09864621133483238
Miami 0.0593507590495866
Neur@@ 0.10838132377820803
Vid@@ 0.09271768980124424
anie 0.06390603034940126
arina 0.1080899656440788
brand 0.051942653405766405
dro@@ 0.017637375575816242
eurs 0.013234640527253481
folia 0.18936538386301807
ition 0.021177242173199058
lah 0.06834933095014051
oga 0.07455544838989492
open 0.019899814597297078
rag@@ 0.0588701060016136
ð 0.6762216673393547
Au 0.01824990321387745
Dies@@ 0.125966974780575
Form@@ 0.029898795789586496
Inf@@ 0.08868304987082093
Sag@@ 0.1056369465629806
Sain@@ 0.07438780779200926
Sá@@ 0.08510539762613462
alli 0.12070878197517915
alli@@ 0.019751502287041485
azz@@ 0.09407319472167597
bab@@ 0.06370031568412005
mid@@ 0.01899459935415055
nen 0.012972162214320813
obi@@ 0.08444847697063643
onda 0.14042992296119466
ross 0.1261038162057539
stars 0.040652212614861426
theory 0.03662063502327123
times 0.012945502492508688
uru 0.10243722104220912
ǎ@@ 0.9255839905229409
Ка@@ 0.009401036613408962
нович 0.06814388000579437
ск 0.028584015594506133
љ@@ 1
ὐ 1
Biz@@ 0.19161678956313788
Carter 0.07918700893333229
Fern@@ 0.04068047185736465
Rach@@ 0.09312377618783231
anj@@ 0.07591626916636468
dre 0.0460424955264557
encer 0.07811378556164658
enti 0.2192484070906695
fund@@ 0.010045200239254759
ilio 0.07280088644764254
isp@@ 0.09427585963700846
oul 0.06184466418687837
sport 0.03690675589757474
Grant 0.07247405095846315
Her 0.0191370219546733
Hier@@ 0.06792166784877104
Laurent 0.10445500521989429
Suc@@ 0.0889530168252086
Sud 0.037220802843623474
Tech@@ 0.07741337743935262
Unter@@ 0.010980155179523427
atura 0.041102720668589325
gruppe 0.04534304399826081
kab@@ 0.07023260335012481
minor 0.04218237548034099
mission 0.012950028123231734
oss 0.05781785407333657
publ@@ 0.030982245427953296
sav@@ 0.026190365856491104
set@@ 0.03853418301033365
sten 0.007661761889795772
tivo 0.03485804755850092
З@@ 0.013876142784394589
сь@@ 0.06445445968698295
ә@@ 1
Carr@@ 0.09502931531517944
Gabri@@ 0.14992136681901239
Lec@@ 0.09618260656632013
Nap@@ 0.08535725744037341
Portugal 0.03894630176295799
Reich 0.06747793574937469
bourg 0.03307418769021622
cover 0.0262705458068755
function 0.03993538592122164
harmon@@ 0.052459510968270624
kus 0.07698118344358466
led 0.005039211572993769
nin 0.03149242849224943
nit@@ 0.03106221293409812
ogne 0.0841556101757715
part 0.0036798615065931875
pass@@ 0.00917344413591745
pod@@ 0.09842528482928264
sul 0.10071461448206888
ysi@@ 0.06858166446042362
Ż@@ 0.27653070398763785
то@@ 0.0046885764494211885
8. 0.04359573690548148
Devlet@@ 1
Kno@@ 0.06639978416928785
Nou@@ 0.10092989928751331
Schutz@@ 0.09442663026979417
Yu@@ 0.07143512166216348
airs 0.026652551420768385
based 0.006868053972513907
dorf 0.031490069893265284
guer@@ 0.07071055776698715
rod@@ 0.0873840309910628
ä 0.1299828613270444
ül@@ 0.03070335091902995
Са@@ 0.01361499008305077
њ@@ 1
་ 0.9562389575401392
Championships 0.02515178077608493
Costa 0.053113759961547456
Institu@@ 0.07547499422705971
K. 0.0520758715998299
back@@ 0.03313435585692066
ede 0.042607672083973896
fes@@ 0.03195132025040107
lower 0.01984036158676614
mine 0.029906548679739093
obi 0.24864662316103417
onald 0.13134729187545327
pro 0.032754628637672895
ref@@ 0.013398611456444127
sol 0.054139256429022516
tour@@ 0.011582393946118862
ч 0.020902873723637205
Alexandre 0.09019833172870717
Amp@@ 0.11413815793379849
Ins@@ 0.04905289407557868
Kem@@ 0.11207145384023091
Tos@@ 0.11693777903371576
ativa 0.04390810545186564
cour@@ 0.009713009085094253
ria 0.09704256336518896
rid 0.0729184023699459
roc@@ 0.03940954283867448
sie 0.002803783179880252
standing 0.023887872719744716
titu@@ 0.023126222140403885
ж@@ 0.004090442680201646
ה 0.9847562465769648
ა 1
186@@ 0.22737817954287204
Barcelona 0.04082640677480502
Kid@@ 0.15768198111691425
Sonder@@ 0.08539389841227978
aat 0.1825796733014732
double 0.027206095627117104
egel 0.0689800013109149
ican 0.023937253853504033
idea 0.026041546045141698
igher 0.1516044663989082
trav@@ 0.01244990245605065
tut@@ 0.06149912455598959
wo 0.013232294070216137
ál@@ 0.058008694101528716
рович 0.06798889500245307
ى 0.03552068105054019
Dad@@ 0.09485313204237665
Instrum@@ 0.07392328256828541
Mp@@ 0.6382622457964441
Müller 0.09577648494713262
Russian 0.019663386362465278
Scot@@ 0.0612583047691088
ater@@ 0.03874891046081917
aun 0.059080965779737156
berto 0.14233761185131852
fus@@ 0.026918915450419998
hav@@ 0.026192135565326378
imani 1
olds 0.02983536893775709
olf 0.14147144058758732
sar 0.09481776787302787
thre@@ 0.022719794337661463
vet@@ 0.05405316280642933
Ба@@ 0.016287628927758983
سلطان 0.4366550608729159
Corps 0.033741557714878856
Him@@ 0.07452553317604428
Houston 0.055495929806828215
Jorge 0.07077384821340797
Kot@@ 0.09114805565894663
Mark@@ 0.06891643606289216
Neb@@ 0.09149670230673693
chen@@ 0.031656785898539735
chester 0.04226895275198348
contin@@ 0.02275922745660914
enty 0.03753276106879401
essed 0.03759989556560392
inci 0.1526466264310531
istic 0.027013108510157542
kn@@ 0.022769312455318
leb@@ 0.04070651350480265
patr@@ 0.015595954778423854
phia 0.16831345369036976
pit@@ 0.03882158004311373
plus 0.0028457359417568785
portation 0.04352723226034218
prop@@ 0.017906256610110156
quin@@ 0.054507513712624696
social 0.012476025189763856
soft 0.11611491810802928
speed 0.0354497654753858
team 0.004120634152085428
test@@ 0.022815618690323745
ΰ 1
ко@@ 0.0036973097593296293
ן 1
ṭ@@ 0.47995148057914083
ἤ@@ 1
∆ 1
Bach 0.08265717577917957
Centro 0.0710325881522838
Chin@@ 0.07792913820027556
Jor@@ 0.1445538167236018
Kri@@ 0.03903438982327675
Penn@@ 0.12842082919864664
Rome 0.029884735517792083
Wak@@ 0.11404324513567138
abor@@ 0.030015111768401395
anto 0.07789531638520784
ause 0.024636237648684323
egas 0.06311528020512193
emi 0.07865073866450538
entes 0.0070509540327127855
enth@@ 0.02626486994366508
ers@@ 0.052351204390170214
head@@ 0.012812467702632923
mental 0.02287189949372881
pped 0.022629597812571726
py@@ 0.0949625798062088
river 0.022356419008133926
termin@@ 0.012477438706367439
through 0.004697536190540341
unter@@ 0.005488254224091674
vas@@ 0.037807085529583756
û@@ 0.0328049186769703
евна 0.12117366789490994
Austr@@ 0.026497182580132388
Brook@@ 0.052487338762141136
Dres@@ 0.1075320764553402
Egyp@@ 0.03749566050519982
Federal 0.03306965422099562
Griff@@ 0.07650375984619452
Jersey 0.03304749735645918
Rodr@@ 0.09319585341398388
anni 0.261116015484229
bibli@@ 0.042512019198021646
bil 0.14865044021602675
fili@@ 0.08282064794904988
football 0.008161111739925932
ible 0.029985295950498127
lub 0.1132039444964463
oven 0.10342590123966057
proj@@ 0.015999138077830433
udi@@ 0.05327209786424657
urt 0.05796026572238875
Öster@@ 0.08577490281005028
Ро@@ 0.016696264865556077
би@@ 0.008667142549072897
не 0.002070390545358197
் 0.6108941951457859
უ@@ 1
∙ 1
EU 0.05969491616349413
Gonz@@ 0.10070800752528551
Wir@@ 0.027963078254925285
ana@@ 0.0733688429060446
deutsche 0.031011607441358103
div@@ 0.02200524441907005
erine 0.15755473186622962
him@@ 0.10089697426157697
identi@@ 0.009155686352845957
irs 0.020747466115568665
kre@@ 0.021746747480317498
lyn 0.055756410989288616
neo 0.059357148859042516
old@@ 0.03684288835272136
s. 0.033523044588459325
sion@@ 0.034922787887906474
star@@ 0.013030549713178614
tric@@ 0.034015421283880576
zar@@ 0.06924249854366803
ł 0.28460805169217795
ров@@ 0.016706926748558427
・ 0.4201160607816083
Erd@@ 0.06410668839754859
Islands 0.042041634157733154
Marsh@@ 0.13429886600579338
N. 0.07573038221822981
Tang@@ 0.15097793496687142
Turk@@ 0.04627745324700149
apar@@ 0.0343662154246965
asp@@ 0.020226171830584172
beck 0.07180692366477877
cup@@ 0.06439123559168668
d. 0.06863253502155227
ehr@@ 0.021599347878691916
ential 0.017875009859384623
force 0.016391688092904547
internet 0.08460234446723464
kno@@ 0.019199185699873663
liche 0.004904970012155777
match 0.010023069502258633
meister 0.036252488015783256
onlyinclude 0.05243608635792088
ping 0.03820115256029702
press@@ 0.031312376291810835
raine 0.10132074040966121
red@@ 0.029210086185815057
rop@@ 0.06783341322498648
tot@@ 0.022222455861778324
tras@@ 0.043708409693024766
ufac@@ 0.1760666385863089
unda 0.04769673119502212
vio 0.07177363734021519
ɡ@@ 1
Assembly 0.02930832767380057
Philadelphia 0.041111108665495076
bol 0.037367157485023846
dies 0.01850836266179909
door 0.030423357857250907
entum 0.07126321849174272
format 0.03412639583590034
good 0.019777330670383984
hou 0.05699907555567015
igne 0.06498636084351973
kun@@ 0.05280155250709695
lau@@ 0.03311316096787244
lik 0.049599688881091106
mando 0.05456118323548846
oil 0.03697360766370173
ono 0.08272662720311393
otte 0.038409189224132015
r. 0.05585256992906063
shi@@ 0.019325937292957975
tie 0.045103644312553995
ми@@ 0.005516530010911617
ַ@@ 1
INSE@@ 0.16370323552271338
Mih@@ 0.15921803492763514
Ng@@ 0.038390290171110446
aires 0.008085351193500236
asti@@ 0.037777910154061935
ebe 0.05327953292599102
geb@@ 0.009786738483618473
illi 0.08589600883702501
ked 0.009402326362510463
libr@@ 0.028834465359125046
med@@ 0.011660151818785073
plo@@ 0.07366660834950643
tas@@ 0.0305629522117916
és@@ 0.0401257667059785
Я@@ 0.013644405601073759
Epis@@ 0.04970012632046393
Florida 0.022853228319425788
Herr@@ 0.03076890719309089
Lom@@ 0.0817999055874365
Must@@ 0.2077923823810933
Université 0.05107735133069166
Wis@@ 0.12173095988884167
ambo 0.20973633976998945
atives 0.016304400830060354
city 0.005962509047100222
dan@@ 0.031932282619297946
dies@@ 0.06044304719243597
esch@@ 0.024965021168780886
espe@@ 0.07761512155133035
eston 0.05582503979478112
ffe 0.036843603588616554
func@@ 0.030616436692463764
ged 0.018847927149879286
jur@@ 0.013167805750783851
lara 0.03649573466049081
m. 0.040729688471829235
ran 0.020221724407263456
san 0.05247265540180319
school 0.005506672540714
systems 0.023169510526614496
ôme 0.05455772681333893
са@@ 0.006031643837971616
ἂ@@ 1
Bras@@ 0.07289174743854505
Irish 0.027044664559659894
John@@ 0.0882287624221549
Lig@@ 0.048670513663429775
Mia 0.35300313831005314
Salv@@ 0.14731026935329472
age@@ 0.06785028177233295
atique 0.022737747199334742
clus@@ 0.04173489300000548
date 0.01561299262681005
ei@@ 0.04602617841811846
entin 0.06239911558739267
eting 0.10971598048778522
faire 0.0161421296418793
hib@@ 0.024381023309789553
inos 0.02051910708675701
isse 0.01762675856342731
kri@@ 0.02857015302696357
lic@@ 0.01646032248593187
onie 0.0604177604599983
tori@@ 0.07790031299297974
tru@@ 0.04341050296435499
uro 0.0449313425100915
wak@@ 0.0416263473917363
га 0.008298428582955777
ان 0.020341971668881777
≈ 0.9174833867258811
5. 0.034926151206300125
Afr@@ 0.05662555623011873
Regional 0.049938096193848217
Seine 0.020368398232799425
Tah@@ 0.12130000726600688
Wild@@ 0.05107711300180982
ayo 0.044377761953776886
azi 0.0717340636365676
deo 0.08928277223443608
det 0.031082090800370863
ected 0.006095249825368094
elek@@ 0.10039182252638892
elt@@ 0.04454235382181883
had 0.001262986628704168
hatt@@ 0.06693863123767566
istan 0.038585495828012045
lich 0.004030006524082841
lied 0.022530587539374057
pet@@ 0.05956714356674826
rig@@ 0.039292209338415186
seg@@ 0.022641143486793573
short 0.013777081943626509
tail 0.037809146357707754
tech@@ 0.1167627150341374
than 0.0039362759683580295
which 0.0010310736394011145
ì@@ 0.30347919238956134
͡ 1
Бе@@ 0.017518147898213682
э@@ 0.0035626309034806156
ל 1
თ@@ 1
├ 0.19634297694999098
Bin@@ 0.11219697808075481
Depor@@ 0.09164670589478169
Fré@@ 0.08533926576848586
Mang@@ 0.07530434831186499
SG 0.08771058995531089
aman 0.0877619616316364
annes 0.07012581391178133
article 0.024306644988315352
atu 0.13447053617871496
blin 0.043842211805883734
eing 0.03814705095635865
mite 0.10832592310033697
num@@ 0.01756788699444678
process 0.0180262128506104
sha 0.1332559212358996
ulation 0.02690414362224293
undo 0.11645602125899288
г 0.00431883385856417
ль 0.004810318489189865
та@@ 0.005068581115648327
ш 0.023188514832097447
ы 0.0029430789613582643
Ἡ@@ 1
イ@@ 1
Chinese 0.01791758839697265
Congress 0.02800427725827622
Conserv@@ 0.03491903316930642
Khan 0.04467643979745373
Olympi@@ 0.06024858227180089
Scotland 0.03167956557295699
ahi 0.1332300522494335
ahl 0.048599388990140824
amed 0.01963616767363372
inas 0.02540011060619547
jas 0.03524730204782126
management 0.026142809538716998
most 0.0035732450795226693
native 0.025729564172400184
peti@@ 0.019783685007127363
pio 0.07881173352712877
sat@@ 0.022916249456040455
trop@@ 0.0426215905739745
ump 0.08741103099109639
wn@@ 0.1007653971451471
ís 0.0780563417145755
На@@ 0.008484782277242456
Ра@@ 0.01856196885532112
сла@@ 0.018038013080584614
վ@@ 1
Amat@@ 0.06010744938183298
But 0.03028143932982079
Gest@@ 0.04583817532420939
Tap@@ 0.09838113762499306
atia 0.07150748363116512
auto@@ 0.02651069890859703
[...]
