. 1
, 1
là 1
và 1
&quot; 1
của 1
một 1
được 1
trong 1
năm 1
có 1
các 1
) 1
( 1
này 1
đã 1
người 1
ở 1
họ 1
với 1
loài 1
cho 1
đầu 1
học 1
vào 1
@-@ 0.47693830971264956
thành 1
tháng 1
số 1
T@@ 1
từ 1
không 1
đến 1
l@@ 1
những 1
ch@@ 1
t@@ 1
tại 1
khi 1
C@@ 1
tả 1
c@@ 1
tiên 1
ra 1
ngày 1
ông 1
khoa 1
thể 1
Loài 1
h@@ 1
đ@@ 1
m@@ 1
đó 1
L@@ 1
vật 1
: 1
công 1
thực 1
B@@ 1
về 1
b@@ 1
th@@ 1
để 1
thuộc 1
sự 1
như 1
H@@ 1
bị 1
d@@ 1
trên 1
chính 1
v@@ 1
M@@ 1
sau 1
dân 1
S@@ 1
gia 1
quân 1
nhà 1
động 1
; 1
n@@ 1
us 1
lại 1
cũng 1
làm 1
Th@@ 1
thời 1
s@@ 1
hiện 1
tr@@ 1
nước 1
nhất 1
Đ@@ 1
mô 1
V@@ 1
kh@@ 1
Nam 1
ng@@ 1
sử 1
phát 1
ph@@ 1
hành 1
bộ 1
i 1
r@@ 1
hoa 1
nhiều 1
theo 1
hai 1
D@@ 1
nh@@ 1
khác 1
việc 1
K@@ 1
quốc 1
quan 1
N@@ 1
con 1
m 1
sinh 1
thế 1
1 1
chỉ 1
cùng 1
g@@ 1
Ch@@ 1
xã 1
nhân 1
hình 1
hơn 1
do 1
dụng 1
Tr@@ 1
chiến 1
2 1
định 1
thứ 1
a 0.16120407507605541
Quốc 1
đồng 1
xuất 1
viên 1
x@@ 1
còn 1
độ 1
miêu 1
Trung 1
thị 1
cách 1
tỉnh 1
ia 1
u 1
nó 1
y@@ 1
vị 1
tên 1
an 0.4184886668418413
G@@ 1
cuộc 1
y 0.32404098997123915
bản 1
3 1
Ph@@ 1
Việt 1
P@@ 1
/ 1
giới 1
trở 1
bởi 1
hợp 1
Các 1
lập 1
nhưng 1
rằng 1
khu 1
phía 1
lớn 1
idae 1
cao 1
điểm 1
bằng 1
tự 1
phần 1
đội 1
đại 1
nhận 1
kết 1
chức 1
trước 1
hội 1
trường 1
giải 1
k@@ 1
hoặc 1
Năm 1
tiếng 1
Anh 1
vùng 1
cả 1
Trong 1
phải 1
on 0.32686633962152367
trình 1
gồm 1
thường 1
Hoa 1
tiếp 1
điều 1
gi@@ 1
lượng 1
- 1
chủ 1
qua 1
phân 1
um 1
lý 1
anh 1
sản 1
Kỳ 1
A@@ 1
mà 1
R@@ 0.8933586124379476
thống 1
4 1
loại 1
sẽ 1
tế 1
huyện 1
cơ 1
trung 1
5 1
tính 1
diễn 1
lên 1
đối 1
phố 1
bao 1
án 1
is 0.28227338147254727
tích 1
vụ 1
gọi 1
thông 1
sống 1
tác 1
đi 1
hàng 1
o 0.786552803627778
bắt 1
phim 1
tạo 1
t 0.5884431028012356
vì 1
lực 1
ân 1
mình 1
nhiên 1
6 1
quyền 1
vực 1
âm 1
hệ 1
cánh 1
địa 1
Đại 1
trị 1
&amp; 1
ta 1
đường 1
lần 1
nghiệp 1
giáo 1
ương 1
đánh 1
diện 1
chi 1
10 1
cấp 1
đấu 1
ang 1
chúng 1
thủ 1
Pháp 1
cầu 1
khoảng 1
ối 1
qu@@ 1
sĩ 1
mới 1
in 0.0742122684407191
Sau 1
thức 1
à 0.3819830411533125
đoàn 1
hóa 1
trận 1
ô 1
Đức 1
tranh 1
cô 1
hay 1
7 1
đêm 1
inh 1
8 1
pháp 1
đề 1
ảnh 1
Tây 1
% 1
– 0.6859718609407469
in@@ 0.5398150806962783
liên 1
n 1
tập 1
tham 1
nhạc 1
tàu 1
chuyển 1
hiệu 1
biển 1
bay 1
thấy 1
p@@ 0.6647187450913173
máy 1
bố 1
truyền 1
Mỹ 1
thì 1
ăn 1
năng 1
ata 1
ban 1
km 1
mặt 1
toàn 1
gian 1
nên 1
ai 1
9 1
rất 1
12 1
aceae 1
O@@ 0.9738468208626856
E@@ 0.795565335246358
ý 1
văn 1
phương 1
tới 1
hoạt 1
đô 1
đây 1
Ng@@ 1
ứng 1
bang 1
trí 1
nam 1
giữa 1
đạo 1
triển 1
đặc 1
o@@ 0.920183330612548
tổ 1
nhau 1
bướm 1
Bắc 1
nghĩa 1
ba 1
al@@ 0.6508016283529215
đá 1
danh 1
cứng 1
àn 1
Một 1
Ông 1
ánh 1
an@@ 0.7196116934148812
biệt 1
Kh@@ 1
tử 1
bóng 1
thiết 1
chế 1
đất 1
đang 1
nằm 1
kinh 1
bình 1
đổi 1
X@@ 1
thuật 1
F@@ 0.5693556433209886
kỳ 1
tâm 1
nơi 1
dài 1
i@@ 0.9074077797204083
đơn 1
ôi 1
ống 1
dưới 1
chất 1
Nó 1
cuối 1
phủ 1
ti@@ 1
Công 1
ến 1
bọ 1
kế 1
Liên 1
dịch 1
Đông 1
ôn 1
Lan 1
11 1
ac@@ 0.8343225882596379
nữ 1
ên 1
&apos; 0.526883754762585
nhiệm 1
u@@ 1
ic@@ 1
tiểu 1
ho@@ 1
tin 1
điện 1
os@@ 1
sách 1
Nhật 1
àng 1
ol@@ 1
nói 1
Vào 1
biết 1
phẩm 1
sáng 1
thay 1
e@@ 0.5681395465809728
en@@ 0.4484441455701682
tăng 1
châu 1
bảo 1
Qu@@ 1
biến 1
trưởng 1
Nh@@ 1
nguyên 1
Thái 1
báo 1
đều 1
or@@ 0.7301391358361425
ca 1
mục 1
vẫn 1
ensis 1
cứu 1
thi 1
gần 1
trọng 1
áp 1
ar@@ 0.5961288451510751
đảo 1
ền 1
Gi@@ 1
on@@ 0.7316472240886901
tình 1
amp 1
ết 1
a@@ 1
chơi 1
thu 1
tiến 1
p 1
cá 1
J@@ 0.7858765744802535
giá 1
bài 1
Bộ 1
đặt 1
tiêu 1
thân 1
tương 1
nay 1
tư 1
ật 1
nhóm 1
Ngày 1
dự 1
ung 0.8235243968347603
nhỏ 1
tìm 1
tổng 1
phòng 1
ần 1
el@@ 0.6246741846769246
dùng 1
W@@ 0.5392832735794177
e 0.4631577798047203
c 0.8549877621828228
bắc 1
ngoài 1
lịch 1
đông 1
á 1
ị 1
hòa 1
ận 1
bà 1
bên 1
tài 1
hậu 1
ấn 1
nổi 1
màu 1
s 0.23529876123362792
ái 1
êu 1
ạc 1
dẫn 1
ùng 1
hi@@ 1
ot@@ 1
I@@ 0.995281806143328
quả 1
phong 1
Ti@@ 1
tuổi 1
ảng 1
oc@@ 1
tinh 1
ê 1
Dân 1
phục 1
kỷ 1
ana 1
biểu 1
đưa 1
sát 1
U@@ 1
đời 1
ạch 1
Tuy 1
de 0.035843394984730076
đình 1
viết 1
ấy 1
la 0.07522514564768645
tục 1
ài 1
Thành 1
giao 1
am@@ 0.7564061639765852
om@@ 1
&#93; 1
Hà 1
miền 1
mang 1
ăng 1
en 0.07916407594356602
Bản 1
quận 1
yếu 1
mùa 1
hát 1
giữ 1
Hoàng 1
rộng 1
tướng 1
trang 1
vô 1
thương 1
liệu 1
ag@@ 0.703189229577845
di 1
Y@@ 1
sông 1
ea 1
&#91; 1
il@@ 0.8382407876416103
² 1
bán 1
nhập 1
quyết 1
từng 1
dựng 1
bất 1
đóng 1
er@@ 0.3950221509696662
tấn 1
ường 1
sở 1
bỏ 1
thần 1
Dương 1
quá 1
phụ 1
Xã 1
ám 1
chiếc 1
ệt 1
chương 1
viện 1
ư 1
di@@ 0.6687775202921619
dù 1
3@@ 1
thắng 1
câu 1
nghệ 1
vận 1
Hải 1
Văn 1
hoàn 1
ul@@ 0.7344683485398797
nhiệt 1
Cộng 1
tra 1
2010 1
Theo 1
Độ 1
ạn 1
vai 1
binh 1
lạc 1
xây 1
khí 1
am 0.6079415944662035
át 1
id@@ 0.8701768342235968
cung 1
cử 1
ngh@@ 1
cổ 1
ác 1
vệ 1
nào 1
ao 1
Ấn 1
giống 1
ồng 1
hạng 1
xác 1
is@@ 0.6067174409842014
z@@ 0.49783164787884765
ục 1
ạt 1
Tổng 1
tiền 1
ty 1
Nguyễn 1
er 0.14134899490693922
hoàng 1
trò 1
vua 1
li@@ 0.7488526291224659
h 0.7635510302500648
ệ 1
Bình 1
as@@ 0.6224008370166255
k 0.5855459142836755
mở 1
ế 1
ong 1
Minh 1
Những 1
ước 1
tây 1
sân 1
ngữ 1
chống 1
hướng 1
ốc 1
ắc 1
ấm 1
chung 1
cái 1
trợ 1
ất 1
làng 1
ng 1
chiếm 1
Di@@ 1
20 1
chưa 1
Từ 1
hộ 1
ay 1
ghi 1
ỗ 1
tượng 1
Ban 1
ma 1
ro@@ 0.7006337053363036
cộng 1
ề 1
giả 1
minh 1
em 1
đạt 1
mất 1
ẻ 1
triệu 1
dạng 1
al 0.19885336184063454
4@@ 1
kiến 1
phản 1
quản 1
âu 1
bệnh 1
op@@ 0.9823216325861966
mạnh 1
sang 1
chết 1
Z@@ 0.654390152330594
ký 1
hạn 1
.@@ 1
lúc 1
Quân 1
ur@@ 0.6066227646770346
giờ 1
tộc 1
xe 1
cảnh 1
lãnh 1
ít 1
gây 1
ổ 1
nguồn 1
chứng 1
kể 1
kích 1
es 0.11791702374237496
at@@ 0.5948285720134922
nghiên 1
chia 1
trấn 1
kiện 1
5@@ 1
lệ 1
ach@@ 1
tất 1
Chúng 1
đoạn 1
lo@@ 0.7371258414607015
ồn 1
ngôi 1
hữu 1
ỉ 1
thư 1
lưu 1
yêu 1
Khi 1
vương 1
êm 1
tay 1
cây 1
ĩ 1
chân 1
Vương 1
ển 1
thu@@ 1
le@@ 0.5615156923868793
ờ 1
ar 0.31946215561853825
áo 1
vòng 1
l 0.38679478946307294
thuyết 1
giúp 1
phép 1
thêm 1
Nga 1
Chính 1
Ho@@ 1
x 0.9447610748152746
Ba 1
ỡ 1
ực 1
Châu 1
độc 1
thích 1
phá 1
ina 1
trực 1
mỗi 1
ấu 1
Sơn 1
Âu 1
ả 1
da 0.8317724810406226
hưởng 1
vậy 1
chọn 1
ap@@ 0.6193984900519155
The 0.10333671096065425
khỏi 1
Sự 1
sắc 1
sư 1
òn 1
Hội 1
cảm 1
í 1
mi@@ 1
vấn 1
ồi 1
j@@ 0.5544896830821006
so 1
15 1
Chiến 1
vi 1
cần 1
ọc 1
hết 1
Giải 1
bi@@ 1
Nhà 1
thi@@ 1
tốt 1
d 0.33547168259905913
địch 1
luật 1
ầu 1
cư 1
La 0.4015252241603213
xem 1
ào 1
ẽ 1
nội 1
ạm 1
xếp 1
es@@ 0.4730893295951518
ae 1
tỷ 1
sao 1
lấy 1
ải 1
An 1
gốc 1
ắn 1
úc 1
Al@@ 0.6182707831856433
khả 1
quy 1
ập 1
2011 1
dương 1
chí 1
mạng 1
ừng 1
Hu@@ 1
ầm 1
giành 1
Thanh 1
Thi@@ 1
ốt 1
ú 1
us@@ 0.5647310819693636
em@@ 0.5758438314662441
núi 1
trai 1
mật 1
vi@@ 0.8633232756772526
áng 1
Người 1
mắt 1
im@@ 0.4921070112629916
g 0.7602239087647505
bàn 1
triều 1
Đây 1
ức 1
Br@@ 0.9004877372886383
ẩm 1
cố 1
niên 1
giảm 1
huy 1
30 1
khai 1
Nhĩ 1
Quận 1
Ar@@ 0.7851433028430351
lời 1
tuyến 1
po@@ 0.5875918192609245
lệnh 1
An@@ 0.6217938993356107
7@@ 1
it@@ 0.42711738756051343
6@@ 1
Đảng 1
et@@ 0.6151365967156751
ab@@ 0.44057958506581474
khiến 1
khách 1
Nha 1
18 1
ích 1
cáo 1
Thổ 1
trẻ 1
bầu 1
ịnh 1
òng 1
duy 1
Mã 1
ủng 1
ột 1
ữ 1
19 1
ụ 1
Mar@@ 0.6976621080107339
thảo 1
w@@ 0.29361784764570376
Q@@ 1
vũ 1
sức 1
Thế 1
Tân 1
el 0.08902966835319781
ad@@ 0.4043607934056455
bại 1
to@@ 0.9066027928593438
tuần 1
chuyên 1
A 0.44756257326944177
ngoại 1
óc 1
đa 1
Tháng 1
... 1
17@@ 0.6957184039031924
ứ 1
ec@@ 0.6182593030815929
chu@@ 1
ig@@ 0.6481705989676847
đồ 1
dục 1
môi 1
I 0.6671655243383937
ụ@@ 1
ni@@ 0.9273894584182719
album 1
ãi 1
Nhân 1
Nội 1
16 1
ỗi 1
Lý 1
quay 1
riêng 1
f@@ 0.22192564344455168
chuẩn 1
ơn 1
ễn 1
et 0.08738811392281606
phổ 1
Đi@@ 1
Tại 1
thiên 1
đới 1
thúc 1
uyền 1
gặp 1
đế 1
8@@ 1
the 0.014481854936369807
hầu 1
Xô 1
ỏ 1
nghiệm 1
Do 1
lớp 1
nghị 1
thanh 1
lợi 1
hạt 1
Long 1
of 0.025501544136467342
ua 1
2@@ 1
Phi 1
at 0.12108232971735708
14 1
au 0.27468610621490386
ki@@ 1
chữ 1
ượng 1
ẩn 1
9@@ 1
doanh 1
ời 1
lễ 1
ợ 1
nền 1
xuống 1
chạy 1
phiên 1
Ki@@ 1
ưa 1
ép 1
Danh 1
ậm 1
biên 1
ri@@ 0.7063675053717371
thái 1
ại 1
Lịch 1
ica 1
od@@ 1
gái 1
atus 1
ách 1
bổ 1
ì 1
kiểm 1
13 1
vây 1
du 0.16977434321913912
Hòa 1
cha 1
Bi@@ 1
Sh@@ 0.9641873667513368
17 1
dòng 1
tồn 1
luận 1
Hán 1
ưng 1
tưởng 1
Hồ 1
rồi 1
so@@ 0.9716134579764857
muốn 1
tuyên 1
thấp 1
ch 0.6750905886264592
vàng 1
Đế 1
25 1
ắm 1
ã 1
ình 1
New 0.6413896442197246
tiết 1
mọi 1
khẩu 1
cực 1
Á 1
as 0.07569477895402295
or 0.17835459639462278
Giáo 1
tức 1
og@@ 1
ing 0.09133642929678339
đứng 1
ak@@ 0.6804744314380546
cửa 1
tịch 1
ine 0.4118405175524572
nhanh 1
2007 1
ũng 1
giám 1
Ngoài 1
Trường 1
mức 1
ây 1
mẹ 1
thờ 1
ru@@ 1
coi 1
ãn 1
yr@@ 1
trúc 1
Trần 1
thất 1
đáng 1
dụ 1
ắt 1
Có 1
nữa 1
ens 0.5954741676207839
kỹ 1
dựa 1
cận 1
Hi@@ 1
phi 1
nh 1
giáp 1
giai 1
ngay 1
mét 1
Hồng 1
Car@@ 0.8726619566477324
ang@@ 0.643267814684324
ir@@ 0.5188190903191325
mặc 1
ed@@ 0.5715430702647891
hạ 1
ệu 1
đôi 1
Nguyên 1
bảng 1
tối 1
quần 1
sa 0.6446471322285743
ran@@ 0.9340020747503178
ói 1
Chi@@ 1
quanh 1
phái 1
lâu 1
thủy 1
dung 1
tuyển 1
ồ 1
nhện 1
ựa 1
Cr@@ 1
phóng 1
ưu 1
Thiên 1
Hàn 1
lục 1
ản 1
đốc 1
vài 1
nhằm 1
nếu 1
pháo 1
ện 1
ngôn 1
ella 1
Đô 1
Tư 1
2006 1
tố 1
cải 1
2008 0.9216268803710572
B 0.9700389972903631
per@@ 0.4403895882680081
thập 1
Đồng 1
ổi 1
bu@@ 1
đủ 1
ắp 1
Không 1
yl@@ 1
thưởng 1
ò 1
Kinh 1
ảy 1
ăm 1
ếu 1
and 0.024068055832303474
Lê 1
ob@@ 0.7099646411143768
ấp 1
Ý 1
bạn 1
ộc 1
cấu 1
ỹ 1
ya 0.8011278539193719
ter@@ 0.4855015498258183
đi@@ 1
ợi 1
21 1
II 1
eg@@ 0.6492519708723615
Chủ 1
z 0.5792754751114677
St@@ 0.543806509329267
T 1
El@@ 0.9890400831656254
mẫu 1
ỏa 1
16@@ 0.6469289239028009
Par@@ 0.7866133170342786
Lu@@ 1
giết 1
era 0.6880535657741801
Vũ 1
uyên 1
os 0.22336553944229132
hỗ 1
chiều 1
ính 1
luyện 1
Li@@ 1
un@@ 0.27627464558114917
Ở 1
ự 1
ốn 1
au@@ 0.5170221226889034
ọ 1
xa 1
Le@@ 0.80234720118332
av@@ 0.586036089458217
lá 1
to 0.03292077415607598
Tông 1
Cô 1
bắn 1
phạm 1
alis 1
kéo 1
kim 1
áy 1
um@@ 0.470746457792584
hoạch 1
ơ 1
ảo 1
chấp 1
24 1
bốn 1
rừng 1
ưỡng 1
2016 0.8662760834305111
osa 1
đài 1
Geometridae 1
ữa 1
ẳng 1
Họ 1
Tiên 1
lộ 1
Kim 1
môn 1
ov@@ 1
chứa 1
rõ 1
st@@ 0.22883564790160194
trùng 1
Vi@@ 1
tỏ 1
un 0.09890190183588497
sóng 1
buộc 1
Ủy 1
cứ 1
chịu 1
ù 1
Thu@@ 1
ạo 1
Cao 1
phận 1
dành 1
D 1
cạnh 1
ọn 1
lửa 1
ngành 1
tri@@ 0.673622415643572
2009 0.8186147540927314
ạnh 1
tôi 1
tôn 1
toán 1
đổ 1
ũ 1
ể 1
mềm 1
đàn 1
cụ 1
oph@@ 1
trao 1
tốc 1
2004 1
si@@ 0.49713256946205087
hải 1
đu@@ 1
khởi 1
đĩa 1
Điều 1
2015 0.7993896944958686
23 1
ik@@ 0.7160784129375761
Đài 1
bờ 1
nông 1
C 0.853214192856596
è 1
khúc 1
Ngh@@ 1
hồ 1
ớ@@ 1
kho@@ 1
nặng 1
trắng 1
Quảng 1
thổ 1
Địa 1
Bảo 1
ber@@ 0.5358494775065238
ơi 1
Sch@@ 0.37922524588263556
2000 0.9795745666453843
ngắn 1
1.@@ 1
lĩnh 1
2014 0.7636463905652341
nối 1
v 1
Bà 1
ườn 1
2005 1
hại 1
Tri@@ 1
re@@ 0.10434961306413272
22 1
ỏng 1
Lưu 1
Đến 1
ruồi 1
15@@ 0.6803112444840921
hôn 1
Tiểu 1
2012 0.7433950447945027
hồi 1
ah@@ 0.8369582237135837
khảo 1
na 0.9317199894418564
ưới 1
chú 1
chuyện 1
Giang 1
sâu 1
ược 1
xảy 1
Bar@@ 0.8103021598141134
tòa 1
yp@@ 1
trạng 1
ủy 1
2017 0.8216216543176518
trả 1
co@@ 0.3495142172972039
100 1
2013 0.7542959185835558
it 0.13885289158793188
gì 1
trụ 1
ut@@ 0.5547901126724952
son 0.20856661959989334
1999 1
thiếu 1
ạ 1
Thượng 1
2018 0.7782866674570518
Noctuidae 1
đen 1
man 0.4464754046951204
sh@@ 0.3614299154965378
niệm 1
thuốc 1
nhìn 1
tho@@ 1
loạt 1
ếp 1
khó 1
chiếu 1
Gia 1
br@@ 0.36636595377628894
mối 1
ok@@ 1
ằng 1
31 1
ton 0.6183673891498551
ô@@ 1
Đường 1
rút 1
xử 1
2019 0.8209506361988824
nuôi 1
chim 1
50 1
tái 1
bức 1
Cal@@ 1
vượt 1
Thị 1
cũ 1
As@@ 1
thuận 1
uc@@ 1
r 0.7057166146079703
ướng 1
xung 1
Ne@@ 0.8394122929308679
Triều 1
tước 1
èo 1
Co@@ 0.7347484613168809
Gr@@ 0.6973727342754492
O 0.8744925637220806
mua 1
Mi@@ 1
ci@@ 0.49171350503762906
do@@ 0.6756730537295961
ell@@ 0.6892244361516054
aria 1
amb@@ 1
vốn 1
ur 0.7301153172085522
su@@ 0.4390675775974158
28 1
đầy 1
sai 1
ổn 1
thơ 1
mại 1
gt 0.9502444095753887
ọng 1
To@@ 1
tu@@ 0.9039630814135314
ena 1
tội 1
26 1
Hiệp 1
oni@@ 1
27 1
Cerambycidae 1
băng 1
le 0.05851781972116609
ath@@ 0.8107079426025214
trục 1
and@@ 0.5917034706899386
óng 1
ọt 1
mm 1
phối 1
õ 1
súng 1
tic@@ 1
lt 0.9176585196114703
tạp 1
Phó 1
ỷ 1
_ 0.7054980586403026
úa 1
ay@@ 0.7547248921002084
no@@ 0.722665794786679
ie 0.25151388032878835
Mặc 1
suất 1
lu@@ 0.986556705866509
Cu@@ 1
hu@@ 1
Ninh 1
14@@ 0.8793684643320153
soát 1
b 0.5259382405122169
song 1
đai 1
Cổ 1
Cúc 1
linh 1
ứa 1
0 0.8516396907160803
eo 1
chủng 1
buổi 1
M 0.9682902252150603
tia 1
ura 1
kịch 1
xét 1
gh@@ 1
trái 1
ệp 1
thử 1
càng 1
va 1
eb@@ 0.5188565356591177
40 1
gr@@ 0.45364742412189174
Tu@@ 1
góp 1
ou@@ 0.47957649148970294
rời 1
truyện 1
đỏ 1
é 0.16648680004172753
ành 1
ổng 1
ati@@ 0.5396467594735873
dễ 1
Trước 1
ạng 1
kiếm 1
sứ 1
ngựa 1
tầng 1
ùa 1
2001 1
Am@@ 0.8450378843525929
đảm 1
tải 1
ent@@ 0.24769529033546508
Chi 1
trách 1
luôn 1
chuyến 1
ưởng 1
par@@ 0.31001801818413177
trì 1
bo@@ 0.47990914872061136
cập 1
mar@@ 0.39930316004078115
dấu 1
phí 1
đích 1
Thủ 1
pl@@ 0.393929838265854
Mặt 1
ín 1
ly 0.25039081359879123
hiệp 1
suốt 1
Tập 1
út 1
suy 1
ỵ 1
Per@@ 0.753760107277572
ep@@ 0.8180531283885802
az@@ 0.6732225191319283
bào 1
Hai 1
F 0.9424689677021093
Hy 1
U 1
Thánh 1
đăng 1
kiểu 1
xỉ 1
Khu 1
Bo@@ 0.8254234684693786
Yên 1
xanh 1
Cơ 1
Or@@ 0.7027108264665797
2020 0.7410482695224848
ten@@ 0.4275660673287164
cu@@ 0.6575292801416212
Con@@ 0.42045333700994225
ne 0.3129830149797858
V 1
đào 1
ora 1
29 1
ão 1
In@@ 0.39471993833625596
khá 1
lược 1
khối 1
tín 1
Tổ 1
căn 1
Với 1
khu@@ 1
vợ 1
dần 1
lòng 1
Lo@@ 1
đảng 1
ậy 1
àu 1
hãng 1
Việc 1
ươ@@ 1
ày 1
hàm 1
ón 0.8025709370181942
trưng 1
ạp 1
xứ 1
if@@ 0.8062117509114103
car@@ 0.503205374338342
Úc 1
cuốn 1
kê 1
Viện 1
ợt 1
w 0.3685946166097773
ẹ 1
Lạp 1
ềm 1
Giám 1
bụng 1
Phương 1
anth@@ 1
ắng 1
đương 1
mực 1
lượt 1
nghi 1
G 1
èn 1
S 0.7908654371579666
ội 1
ượ@@ 1
xuyên 1
Quang 1
= 0.8821028074624261
ãy 1
đột 1
ố 1
ử 1
thịt 1
Pr@@ 0.6769988801709809
họa 1
Phần 1
phê 1
ĩnh 1
E 0.7889505992419591
ủ 1
Cuộc 1
13@@ 0.8311277983432694
ka 1
2002 0.9248181080441531
dữ 1
P 0.9579273395716221
mã 1
hủy 1
mạch 1
ium 1
ùy 1
one 0.17080204668702387
chi@@ 1
kính 1
Cor@@ 0.8039907357489582
Đào 1
thừa 1
Đậu 1
hi 1
Sân 1
tuy 1
đạn 1
Thời 1
kẻ 1
Chu 1
nạn 1
àm 1
óa 1
huấn 1
ười 1
thoại 1
hỏi 1
vừa 1
Mon@@ 0.6245614062293185
Lâm 1
khóa 1
trời 1
ara 1
Thụy 1
Se@@ 0.592531486719401
Phong 1
ex 1
Phú 1
2003 0.9173487383127664
yc@@ 1
ox@@ 1
de@@ 0.2242120973358542
Con 1
League 0.8458189141404586
ặp 1
Dr@@ 1
ếm 1
onia 1
Vì 1
pi@@ 0.4773492648806832
chúa 1
Định 1
ass@@ 0.376209902514782
ếng 1
ví 1
ne@@ 0.49672804232861595
óm 1
Xuân 1
ểu 1
ngăn 1
đẩy 1
ớ 1
aw@@ 0.7351923104032398
giác 1
ễ 1
oma 1
trừ 1
só@@ 1
úng 1
loạn 1
10@@ 0.9825380964558945
ộng 1
ệnh 1
nổ 1
ậu 1
ys@@ 1
ing@@ 0.46513280757630343
con@@ 0.1905619426765905
man@@ 0.44329565297569423
TCN 1
mu@@ 1
thật 1
ad 0.4414410523601644
trải 1
L 0.5851052827811304
San 0.7864033429593388
Col@@ 0.6502597782625874
uy@@ 1
chóng 1
ều 1
0@@ 1
lao 1
lính 1
Chí 1
ha 0.7820549847515645
ak 0.7501011162072568
sơ 1
pha 1
che 0.6035685453080982
ộ@@ 1
mộ 1
Erebidae 1
Phật 1
1990 0.9941262071206814
oth@@ 1
úp 1
hạm 1
vọng 1
diệt 1
ộn 1
pu@@ 0.8335571828037432
H 1
điển 1
ov 1
ama 1
mo@@ 0.41652615765563217
ó 0.19327286437258695
ari@@ 0.946312062619258
Mal@@ 0.9773986664644737
Ro@@ 0.6234316188989875
Số 1
thiện 1
dia 1
cm 1
ầy 1
hiên 1
Re@@ 0.30729091058447555
60 1
thao 1
Tham 1
sửa 1
Đội 1
ụy 1
bước 1
tu 1
ila 1
ii 1
Trương 1
Hy@@ 1
nhờ 1
xin 1
lai 1
0.000 1
Du@@ 1
thú 1
khắp 1
Sư 1
thí 1
phù 1
phút 1
ic 0.3063172826796412
đem 1
tách 1
N 0.7981255392495361
ki 1
trào 1
Mor@@ 0.699424750539552
Tòa 1
thụ 1
all@@ 0.5151584613827651
gu@@ 0.44844546158755905
lo 0.42198077740626116
ừa 1
ate 0.15227181335960932
ộ 1
cắt 1
ev@@ 0.4807265920257811
! 0.8046046689630036
huy@@ 1
chẳng 1
Nhưng 1
land 0.3529749469417562
nhiễm 1
Trái 1
hương 1
0,@@ 1
ặt 1
nguy 1
lum 1
bày 1
ga 1
quý 1
đỉnh 1
gửi 1
Man@@ 0.7040862354233706
lông 1
ùi 1
Đất 1
chỗ 1
R 0.6209455244516698
ano 0.5194693620211258
Sal@@ 1
&#124; 1
optera 1
Er@@ 0.4181709705644322
nghe 1
kháng 1
John 0.549409466445458
ướ@@ 1
20@@ 1
och@@ 1
xâm 1
anus 1
hiểu 1
cai 1
oides 1
Huyện 1
cầm 1
ans 0.25451788298881095
sắt 1
hiểm 1
te 0.09966459762104792
òi 1
ngầm 1
tiện 1
Eu@@ 1
tàng 1
Tên 1
đẹp 1
Thông 1
vành 1
nâng 1
khắc 1
liền 1
ra@@ 0.6425674817793103
te@@ 0.3327643503685195
hơi 1
tầm 1
Nhiều 1
ứt 1
ist@@ 0.4584056932617776
la@@ 0.6396899578687659
uch@@ 1
ịp 1
liệt 1
sớm 1
chỉnh 1
Ngô 1
ala 1
eri 1
thăm 1
áu 1
Kr@@ 0.7777870047777332
má@@ 1
ley 0.5846044391149076
ẹ@@ 1
kênh 1
né@@ 1
cường 1
Be@@ 0.3702029754335232
sung 1
eli@@ 1
thăng 1
chảy 1
der@@ 0.4249830919140512
tuyệt 1
ino 0.6194394461616329
Hưng 1
tù 1
ế@@ 1
1998 0.929421721495913
uyết 1
ae@@ 1
Tỉnh 1
xúc 1
ã@@ 1
iz@@ 0.5293425632242595
sáu 1
ìn 1
Đạo 1
bão 1
lis 1
nửa 1
ell 0.4900414804171267
dọc 1
ania 1
? 1
1945 1
màn 1
tò 1
đọc 1
C. 1
ol 0.6928188529936611
thôn 1
formula 0.5902516633338408
máu 1
Về 1
mưu 1
Để 1
quảng 1
quán 1
2.@@ 1
ĩa 1
ó@@ 0.5938996373689938
Hiện 1
tan 1
giản 1
tán 1
Nếu 1
rêu 1
ụng 1
Kar@@ 0.8457947461042802
vò 1
Gu@@ 0.5868163385793111
lan@@ 0.7794022627590669
Vĩnh 1
Hồi 1
sch@@ 0.22185538588528939
ula 1
ita 0.9964828843933997
se@@ 0.25784603483473345
Ac@@ 0.9220036524965955
chồng 1
ers 0.10023705177711649
đe 1
des 0.038771056029764196
ah 0.8873713871570654
opter@@ 1
ũi 1
Cách 1
thẳng 1
Ai 1
1,@@ 1
X 1
K 0.9854762380909313
Ngọc 1
ard 0.4001995402038198
1997 0.9519471641093906
dầu 1
Ichneumonidae 1
Đặc 1
ex@@ 0.16125310143386926
uyến 1
ngược 1
phó 1
ong@@ 0.6042087481181669
ú@@ 1
dạy 1
Phúc 1
Đo@@ 1
80 1
săn 1
Ber@@ 0.5576183412624517
quy@@ 1
ố@@ 1
ặng 1
video 1
Lương 1
bí 1
truy 1
3.@@ 1
ola 1
Cục 1
Hạ 1
2021 0.6706438098527843
dọa 1
Si@@ 1
õi 1
ich@@ 0.6924423815618689
Su@@ 0.8724826410272422
+ 1
inae 1
atum 1
70 1
Canada 1
York 0.5317920319142466
Phân 1
000 0.9461429691774325
Mac@@ 1
Tam 1
bậc 1
Áo 1
ost@@ 1
ed 0.0377189505680209
xo@@ 1
sp@@ 0.346473230942155
Y 1
ys 1
ọp 1
í@@ 0.37776687880309295
Thủy 1
lan 1
thoát 1
Quan 1
1980 1
ey 0.6941752209261383
ter 0.1741505415076575
ill@@ 0.5258880844437036
cr@@ 0.45518957848203384
ant@@ 0.46838278542107076
thiệu 1
tặng 1
Karnataka 1
1991 0.9694809110402601
tháp 1
cậu 1
ly@@ 1
bò 1
Pal@@ 0.8983044831569124
Lai 1
Paris 0.8026288967549914
è@@ 0.8292347356984848
thước 1
° 1
Thống 1
Ver@@ 0.22552394941415088
Phạm 1
ann@@ 0.4570190573123678
aur@@ 1
ice 0.3572660890365709
Hành 1
ịch 1
vu@@ 1
ới 1
đúng 1
ei 1
ẫu 1
bom 1
gắn 1
xạ 1
Mùa 1
êng 1
phiếu 1
no 0.21204379535023907
Chỉ 1
f 0.331516195257014
ow@@ 0.5127890365941977
Hymenoptera 1
mon@@ 0.3292763661693234
ona 1
​ 1
Loan 1
Te@@ 0.9416198999392699
ense 1
nghiêm 1
Â@@ 1
90 1
pr@@ 0.24735855626067435
khoản 1
trích 1
Hậu 1
Cá 1
sẵn 1
ệ@@ 1
chó 1
12@@ 0.8160480347727306
tehsil 1
ụp 1
hút 1
bãi 1
tá 1
ặm 1
ét 1
ẫn 1
1996 0.8682006800433602
Rêu 1
ti 0.8628272159732392
lẫn 1
Tran@@ 1
Pl@@ 0.7533514673971194
ằn 1
du@@ 0.6320244175748947
trại 1
ani 1
se 0.05658971803667692
ém 1
Trich@@ 1
chặn 1
ù@@ 1
rơi 1
Mel@@ 1
ba@@ 0.756621320330354
Tử 1
lar@@ 0.789333216040423
ima 1
Tự 1
uyện 1
thù 1
En@@ 0.4823697520881472
siêu 1
đoán 1
ax@@ 1
cờ 1
ỏ@@ 1
Saint 0.578163802787719
gắng 1
Cập 1
cựu 1
Arc@@ 1
Sp@@ 0.548216606025894
tắc 1
end@@ 0.25807577957226435
tránh 1
Bel@@ 0.6377598999222993
lâm 1
úy 1
ảm 1
ida 0.685165530331622
dây 1
Hol@@ 0.7250013726023352
Nghệ 1
khiển 1
Bur@@ 0.7024772381125278
phyl@@ 1
Com@@ 0.3570601860756598
lương 1
ẹp 1
1995 0.881367637156275
bác 1
cỏ 1
il 0.11707983922382302
Mông 1
Her@@ 0.5060827224408528
1975 1
aj@@ 0.6968931685952795
Khánh 1
Bal@@ 0.9060977880359143
iss@@ 0.996376078100343
hấp 1
Hệ 1
World 0.4311698750520849
1992 0.8572430557614106
yn@@ 1
ali@@ 0.49774711385673875
ợp 1
Ni@@ 1
ía 0.2988347015205564
Mc@@ 0.6286793925948045
dium 1
son@@ 0.8982071328137571
him 0.35595915530785005
USD 1
sub@@ 0.4342359828241174
35 1
tis 1
ver@@ 0.10468313781339077
inc@@ 0.40317030813742977
Camp@@ 1
ich 0.7141472220500944
Har@@ 0.6970296130959877
Pi@@ 0.9931989303117155
awa 1
ỗ@@ 1
C.@@ 1
2,@@ 1
tai 1
li 1
ib@@ 0.6536437528386508
á@@ 0.4047489125774598
ub@@ 0.7220474498400397
III 1
ili@@ 0.6081480436075932
món 1
1993 0.8902971611259966
Cas@@ 1
ł@@ 1
hy@@ 1
tus 1
pa 1
De@@ 0.4467913389911235
icus 1
unc@@ 0.8555801976030346
mac@@ 1
Mo@@ 0.6988506195726603
Tor@@ 0.9748060429650879
af@@ 0.292884150498056
Cy@@ 1
uk@@ 0.8523818067144617
1994 0.8209666337068824
cor@@ 0.4047126970457545
str@@ 0.2783092574423405
co 0.4377938326630925
200 1
opsis 1
Sc@@ 1
đo@@ 1
ada 0.18353698126014
Bor@@ 0.9059506739926573
ion 0.41460260645590213
eri@@ 1
re 0.22847730718535342
1970 0.9466289309190911
bar@@ 0.45183049429102845
Brasil 1
lia 1
ểm 1
hô@@ 1
A.@@ 1
ừ@@ 1
Ad@@ 0.4554886844340989
Po@@ 0.6984922080519708
Lim@@ 1
olo@@ 1
Do@@ 1
Cup 0.82320934935439
lã@@ 1
45 1
Ma@@ 0.5941169461233479
Poly@@ 1
A. 1
ek@@ 0.41071755095871343
ke 0.43634391271645084
He@@ 0.4729871025597036
he@@ 0.30515661344411976
4.@@ 1
ok 0.951244320459933
act@@ 1
Ả 1
Kho@@ 1
ori@@ 0.6295530259374007
ọa 1
Hal@@ 1
ơ@@ 1
Ste@@ 0.6578616178942792
Na 1
za 0.6356944378539242
bia 1
Chrysomelidae 1
Me@@ 0.5464272630060628
1960 1
Á@@ 1
500 1
Ag@@ 1
can 0.3142511598691539
bé 1
ides 0.900479878815481
1989 0.8618511378764989
game 0.5358721616140731
Mer@@ 0.8109480623972802
su 0.12453313486688895
iv@@ 0.5224079334118067
ử@@ 1
1@@ 0.9907317818149511
alli 1
lui 0.6727547389589006
ẫ@@ 1
Str@@ 0.4965114711996788
odes 1
eus 1
ệm 1
ìm 1
ym@@ 1
ale 0.1889985641674947
gió 1
oa 1
pe@@ 0.3204620270220111
folia 1
“ 0.1168743313340152
ini 0.7163575470404867
ặc 1
Ser@@ 0.7489287636807943
Pol@@ 0.6206769729532435
Mas@@ 0.8119703691494475
California 0.9873114340154421
Rom@@ 0.9554706681428682
Lep@@ 1
Di 1
ãng 1
” 0.3719440137955793
lin@@ 0.39220255347200467
ma@@ 0.3969899459806368
der 0.01814996667334643
32 1
cal@@ 0.8975135873514967
ophyl@@ 1
Ab@@ 0.259552356720101
ug@@ 0.5660086746230045
yan@@ 1
ữu 1
khi@@ 1
ce 0.17821764141576546
atr@@ 0.9978055791638089
sk@@ 0.5653489296331221
by 0.0353085753496325
ō@@ 1
FC 0.846711770258743
ore 0.4140646402922945
1988 0.8605063718191649
Meg@@ 1
lidae 1
est@@ 0.20074147905084042
J.@@ 1
ve 0.11054669641962847
ō 1
oh@@ 0.9524035370718922
9,@@ 1
ler 0.2728917979335749
Dic@@ 1
cel@@ 1
ema 1
ater@@ 1
pal@@ 0.8476300369030595
48 1
75 1
mer@@ 0.30193790522213365
xu@@ 1
Pro@@ 0.5457039075764439
io 0.5889560768020186
Cl@@ 0.6299283620879446
.. 1
tidae 1
min@@ 0.2751158674565143
duy@@ 1
cus 1
ser@@ 0.3420299939232157
les 0.043788083344032086
ash@@ 0.7969332947699753
ì@@ 1
eta 1
Philippines 1
ane 0.5376502908774011
ord@@ 0.4886285375375457
ui 1
ile 0.30893195180939986
65 1
be@@ 0.1220051485402965
ỏi 1
So@@ 0.7383699488289944
phi@@ 1
25@@ 0.9078993340893563
ai@@ 1
kia 1
up@@ 0.41675995754708345
ta@@ 0.5145976629442106
Rh@@ 1
und@@ 0.2898657588056802
ation 0.052024215683561505
Sam@@ 1
ợ@@ 1
ir 0.2902289127789074
aya 1
3,@@ 1
can@@ 0.5228954361540616
ởi 1
ff@@ 0.3725823348122927
1986 0.8612795018204956
id 0.3348047457774128
ens@@ 0.24966806462831492
nia 1
col@@ 0.2976057013471799
ene 0.34605108329148004
web 1
gen@@ 0.2675757038423905
anum 1
san 1
Tur@@ 0.5150723256012262
dr@@ 0.3104934367434335
nig@@ 1
phe 1
ner 0.20535128643672595
ts 0.10509428526743038
eph@@ 1
ud@@ 0.727212464570833
alus 1
q 1
mel@@ 1
inus 1
ễ@@ 1
Cer@@ 1
1950 0.9162837062249167
me 0.26370407234021925
Ru@@ 1
Mag@@ 0.6516426188172794
1987 0.8244955004369344
eh@@ 0.36179940352635304
-@@ 0.5751421390732462
ler@@ 0.41947861853932084
1985 0.8434188587447686
Ngo@@ 1
Mu@@ 1
mer 0.49616259296764065
ửa 1
1942 1
Sar@@ 1
adi@@ 0.5302338013509191
38 1
United 0.25033497384738274
age 0.10086262872078261
Ger@@ 0.5420167104725433
ê@@ 0.9248956939200549
én 1
asi@@ 0.9789212809392529
Can@@ 0.8775630670593415
Hungary 1
kg 1
.000 1
gen 0.41952998587104495
30@@ 1
amp@@ 0.634637175073591
Lin@@ 1
33 1
36 1
Jo@@ 0.6270190591094942
Sé@@ 1
Ap@@ 1
Sa@@ 0.8921799850893972
be 0.07404390380847564
van 0.9312720487190823
War@@ 0.9679696284194627
éo 1
Min@@ 0.5773131549336135
ide 0.6762672929660148
37 1
1981 0.8788578388386484
alb@@ 1
ick@@ 0.31932174385685314
cer@@ 0.4807398900002907
34 1
S.@@ 1
ji 1
ro 0.7196171011843007
ge@@ 0.16680630021242937
01 1
1944 0.8865389798816435
Sm@@ 1
1979 0.8744915206334807
Sa 1
1940 0.9849121246535578
1984 0.8039806626437747
ỳ@@ 1
ari 0.9656978216050064
com@@ 0.14662147886116417
cul@@ 0.6439196973193988
53 1
lor@@ 1
L.@@ 1
H.@@ 1
Ri@@ 0.7580107193353572
Is@@ 0.678563459122177
ặn 1
fer@@ 0.3048696963318083
Ex@@ 0.31424278523681154
Sol@@ 0.7602426286921334
Gar@@ 0.6904657567637452
Lat@@ 1
ey@@ 0.8372002451839667
ựu 1
tel@@ 0.447005683943568
abr@@ 1
Pe@@ 0.6276245099528284
Indonesia 1
Ben@@ 0.922428373281079
1982 0.8354626681910201
Grand 0.8329482574513832
George 0.6534515922145173
5,@@ 1
6.@@ 1
’ 0.06878510076067734
â@@ 0.6738020612925851
har@@ 0.5961605005357052
Pan@@ 0.9559223452442949
tri 1
por@@ 0.41121974129269434
55 1
Oc@@ 1
sky 1
tic 0.4094053657057637
47 1
Ç@@ 1
IV 1
ota 1
Mad@@ 0.8195459156575857
fr@@ 0.3362170841450226
1941 0.9149393016433677
von 0.04110144910148118
ins@@ 0.4246065799010994
1983 0.8175516154835674
aus@@ 0.17163317266134995
tan@@ 0.6093425201311347
bon 1
ick 0.40340533679542034
Album 1
ius 1
voi 1
Bul@@ 1
1972 0.822086146316146
1943 0.9713539416084128
52 1
ez@@ 0.6882865802361503
28@@ 1
im 0.05322790240098335
ess@@ 0.28015615099095825
ò@@ 1
At@@ 0.7413321159158303
dae 1
enn@@ 0.4112873222455564
oy@@ 0.5624881765668724
od 0.42013654359478636
On@@ 0.9581075687005831
aga 1
tim 1
des@@ 0.18019172314927456
Gal@@ 0.6578574680408679
tor@@ 0.2753813907761128
Ge@@ 0.3053638364677762
William 0.5665665813001529
ven 0.7733340479595306
1978 0.841855582994706
Israel 1
é@@ 0.10031354314096756
ỉnh 1
inn@@ 0.4231801611769999
6,@@ 1
James 0.6108919091362246
Os@@ 1
Hel@@ 0.9441079063147781
For@@ 0.3311953565886424
ant 0.07962667918388837
sc@@ 0.3628549165406712
1930 1
Fr@@ 0.4718475170097391
1976 0.8318347071199017
oto 1
— 0.05376633424122937
Bu@@ 1
rom@@ 0.5684553068712375
non 0.4461203205666917
300 1
ko 1
Sel@@ 1
me@@ 0.22230534694690876
Sil@@ 0.7374529353222595
Cro@@ 0.8197854503458734
64 0.9731479994773082
5.@@ 1
L. 1
berg 0.4536369520095929
oni 1
24@@ 1
anthus 1
eng@@ 0.22051645270178385
ung@@ 0.41121977512603
fol@@ 0.7765991487333227
7.@@ 1
yi 1
ủ@@ 1
si 0.5464714364377199
R.@@ 1
sti@@ 0.4737779397504255
Tak@@ 1
Val@@ 0.6871757652014991
4,@@ 1
nis 0.9557690267640224
ze 0.46391936815087975
Sy@@ 1
bre@@ 0.3271680516461967
Bl@@ 0.5977475195738575
Du 1
len@@ 0.6192560060132813
dis@@ 0.10092803584061108
ard@@ 0.4391764934197237
ent 0.05385962902518011
ỳ 1
We@@ 0.352911910600683
pes 1
TV 0.6162890423226276
Syria 1
ish@@ 0.39831396991544044
tar@@ 0.4653547235714685
Pom@@ 1
aph@@ 1
Met@@ 0.977655585183033
Kit@@ 1
ira 1
burg 0.5572581295013136
ford 0.5539555488276244
yth@@ 1
ịt 1
are 0.0557812765849472
Mur@@ 0.8143122382759008
Hor@@ 0.6930559009893426
iti@@ 0.46515305061415096
Ko@@ 0.874506668718582
Ur@@ 0.5934359968073648
bl@@ 0.2571938711454084
51 1
Mil@@ 0.7072670264329021
1968 0.7937159283452829
tha 1
est 0.030004934132456727
ek 0.6692276838742273
44 1
Q 1
ze@@ 0.5586328143856235
29@@ 1
42 1
aina 1
den 0.0354370657904076
Ang@@ 0.42072693062375194
ot 0.3634883695657998
1946 0.9495153060327559
ge 0.16816508198780114
18@@ 0.9044594355678839
Cam@@ 0.9550262030722914
W 0.5847317691253773
Bol@@ 1
8.@@ 1
39 1
ie@@ 0.4219555571754856
tes 0.19603189509805494
Por@@ 0.7042898805832066
uz@@ 0.7645788797135922
Ed@@ 0.4795063781008685
ưỡ@@ 1
1973 0.7942238002837656
cin@@ 0.7493990609449321
ere 0.25694827355590283
ville 0.29687592530339485
ind@@ 0.4237724187091927
eti@@ 0.5957558567922564
ax 1
Mit@@ 0.8612768209100947
endr@@ 1
1954 1
00@@ 1
Nor@@ 0.3699642183987275
per 0.27069870598315754
Charles 0.5908795684827508
omy@@ 1
Phil@@ 1
om 0.5850519217071696
sa@@ 0.3951408353209974
Del@@ 0.6908296576972487
yg@@ 1
Mai 0.7974719145227012
Chu@@ 1
Ấ@@ 1
pp@@ 0.528013125485575
kar@@ 0.7944665002855227
pan@@ 0.651414972619125
j 0.9563029074837576
q@@ 0.939351230006183
Tar@@ 1
ite 0.14211114615977175
1974 0.7564845258741387
49 1
illa 0.8367374093362634
26@@ 1
aki 1
all 0.10426407249750069
1965 0.8573705158233916
M.@@ 1
eter@@ 0.8831427120086368
ững 1
Pot@@ 1
iy@@ 1
72 1
Henry 0.8614098988260807
City 0.33890900380650407
Windows 1
Go@@ 0.6535534217350157
46 1
ans@@ 0.5088761568499304
km2 1
Ireland 1
opo@@ 1
th 0.10766254036426377
Ak@@ 0.7823358311956771
M. 1
Al 0.6698223179383566
7,@@ 1
men 0.24242881715755754
… 0.9106428702600953
ha@@ 0.6210222456384029
ni 0.5985059152476487
ops 0.7578024812517828
sy@@ 0.7156639769576173
gl@@ 0.48492377211182197
1977 0.7734776869183606
05 1
Malaysia 1
Ma 1
43 1
ons 0.13253442778629015
8,@@ 1
85 1
1967 0.7982228389762052
West 0.4392290063887117
ênh 1
Mat@@ 0.6820256121253507
elle 0.10819715578960833
ẩu 1
58 1
41 1
Ukr@@ 1
nch@@ 1
David 0.5686627845768636
1964 0.8073335580483221
Sph@@ 1
54 1
Gre@@ 0.5715732352559236
ski 0.9317300909766049
que 0.02393740089488943
aka 1
arg@@ 1
lang 1
ster@@ 0.607497403279692
than 0.22142983167968477
isti@@ 0.8081276640807754
Robert 0.5632828103685805
1963 0.8625586516967078
go@@ 0.46182458628921413
men@@ 0.253663331044335
Washington 0.719408890236601
Tro@@ 0.745096345555366
ip@@ 1
esc@@ 0.5607414726240342
lam 1
Ly@@ 1
bor@@ 0.3512605773208826
don@@ 0.7296008544573882
ase 0.3792748749848479
zi@@ 0.45452885354353095
Đ 1
top 0.5185283675888674
1939 0.7883045879178774
nghi@@ 1
Singapore 1
anc@@ 0.31055562131354264
for@@ 0.13494867193461035
F.@@ 1
ali 0.9828354592759856
tam 1
Mexico 1
may 0.2932147881663445
sk 1
Paul 0.49596778861525803
57 1
âng 1
sen 0.38604125673301554
B.@@ 1
Ros@@ 0.618560537992966
Pennsylvania 1
02 1
flav@@ 1
56 1
1971 0.6973045755969111
ac 0.6225660798944481
J. 0.9529187292345104
cur@@ 0.3358869759778427
New@@ 0.8115418490126193
ượt 1
1920 0.8181720463956937
los@@ 0.695270263571292
Ale@@ 1
Kur@@ 0.671654745996395
1969 0.731070363890389
Es@@ 0.52362791308133
ja 0.5550277505609221
Pseud@@ 1
06 1
tro@@ 0.3148762735832359
ry 0.4257894077619717
07 1
phil@@ 1
1962 0.8172912568118518
ven@@ 0.3399130959336116
Em@@ 0.5682951120204365
form@@ 0.270995001726942
ign@@ 0.31704052621947293
mag@@ 0.4910590373144749
ast@@ 0.3744137004834117
Eri@@ 1
ih@@ 0.6720013093219839
hang 1
cú 1
Mus@@ 0.4207627851944736
ennis 1
Mes@@ 1
1956 0.835250969062519
isa 1
04 1
Mic@@ 1
Sen@@ 0.4512743686257121
Illinois 1
Mol@@ 1
Louis 0.6468150940189077
ker 0.3468249177823629
ự@@ 1
88 1
My@@ 1
Lee 1
62 1
H. 1
Wil@@ 0.6799386929336881
Fre@@ 0.3273016216612839
ain@@ 0.33046454774597345
oz@@ 1
ky 0.8257499656389762
1955 0.9113819420174648
sim@@ 0.7046821754724496
orum 1
1966 0.7557399419039295
cap@@ 0.29693972077547065
Ath@@ 1
Na@@ 1
Wal@@ 0.5755133457857406
ko@@ 0.6452525731106953
enz@@ 0.487038496200862
Mari@@ 0.7521258834836538
ks 0.15493354727549585
zy@@ 1
Ca@@ 1
19@@ 0.9121715468168649
67 1
68 1
Fl@@ 0.32448545690421465
76 1
86 1
entr@@ 0.354139983078696
Song 1
Lib@@ 1
AS@@ 1
ri 1
ake 0.5178007451937782
77 1
rich@@ 0.5939003148622698
Fran@@ 0.7445462917439406
oi 1
Scar@@ 1
uli@@ 1
cl@@ 0.25269819104331254
br 0.7181692814817224
vir@@ 0.9936038212876187
Gen@@ 0.6005415858283367
Sw@@ 0.479900702579364
Des@@ 0.5831607007076287
E.@@ 1
long 0.32333052526303285
09 1
stein 0.583228645709783
ros@@ 1
ku@@ 0.7785768132929475
S. 1
27@@ 1
London 0.40759444404106915
ye 0.5103891715633337
ace 0.28589142255817945
03 1
Texas 0.8502071313984553
Ke@@ 0.8567784609760399
63 1
Je@@ 0.5783792111126043
den@@ 0.29117090541510027
of@@ 0.4071742527769504
nhi@@ 1
ts@@ 0.30200034335415704
95 1
1958 0.796198621753742
fl@@ 0.22905759148316787
Nov@@ 1
don 0.9358522050146866
CP 1
1947 0.8292526513470897
1936 0.8620158386107315
Plat@@ 0.9451122364953678
enti@@ 0.1932448434228283
flora 1
esia 1
ou 0.14082814580082023
sin@@ 0.5690663945735963
400 0.9589343970079016
Maria 0.9457542509162019
Zealand 1
Ox@@ 1
Cop@@ 1
00 0.958784917273871
66 1
Ty@@ 0.916781525024938
ence 0.10482223138275004
ấ@@ 1
Ot@@ 1
Iran 1
pop 1
tig@@ 0.46781044580457476
59 1
Tom@@ 0.8755770327331625
mat@@ 0.2976486341028715
anime 1
61 1
ham 0.9188799190126885
Cre@@ 0.8607924752317183
ker@@ 0.7873597006597641
0.@@ 0.4542283145793536
Entertainment 1
otr@@ 1
08 1
olia 1
Tokyo 1
Bas@@ 0.4105066943601962
Kun@@ 1
pin@@ 0.9524439663130869
Hir@@ 1
ke@@ 0.3378847406739753
loss@@ 1
× 1
Mah@@ 0.8046080835685967
71 1
Dor@@ 0.8191337713310224
1961 0.761980144756879
ain 0.20713542653493827
Michael 0.581865238695159
Bre@@ 0.543123519524516
1949 0.78642679002164
1959 0.7871320720767533
Hyp@@ 1
ela 0.7169399234197006
č@@ 1
ũ@@ 1
tung 0.6398534949037666
ian 0.28438541653713517
Thomas 0.5065637470405342
Sem@@ 1
9.@@ 1
Iowa 1
hal@@ 0.3349061878114422
ẻ@@ 1
usa 1
Argentina 1
Dakota 1
Ohio 1
atia 1
ato 0.47383819274701683
Ol@@ 0.8018424929471198
sus 0.19154257716825573
No@@ 0.8346108592753735
Andr@@ 1
Vo@@ 0.9077186563073516
San@@ 0.7472516362608457
$ 0.2593208861986131
Han@@ 0.9369769826446592
elia 1
87 1
del 0.0354337303008332
82 1
Billboard 1
Neur@@ 1
ev 1
81 1
rec@@ 0.13129055875229048
Ư@@ 1
Mont@@ 0.6446386897950824
P. 1
1957 0.7864165077718626
Som@@ 1
ney 0.48500561537105685
ty@@ 0.8532125941676859
ā@@ 0.7389942253452055
bi 1
ure 0.13462643131611976
1953 0.8310136537938376
Astr@@ 1
mi 0.8682709347021148
México 1
Mül@@ 1
andra 1
alia 1
UEFA 1
You 0.8379101636301934
Ram@@ 0.7693412798092101
Rhy@@ 1
69 1
sil@@ 0.5318055193698714
ack@@ 0.30597938710869177
79 1
84 1
Scotland 1
78 0.9945068663502524
asia 1
ille 0.3139806099292741
ez 0.4838887845124088
res@@ 0.12486517657635686
xi@@ 1
virus 1
Austr@@ 1
protein 1
und 0.012956240014604038
bas@@ 0.2486797684296178
ý@@ 1
1938 0.7370203520024363
yl 1
ani@@ 0.7535858999945589
õ@@ 1
E. 1
Ky@@ 1
Pas@@ 0.6801671091898691
ami 1
arp@@ 1
1948 0.6916299479867081
Dar@@ 0.48750376900317643
ve@@ 0.415979420522817
1937 0.8105265438885684
tuy@@ 1
Cat@@ 0.8467583197250091
73 1
74 1
sol@@ 0.17542211518981057
ito 0.5621399757800142
mai 1
ye@@ 0.6880050662605729
83 1
Hem@@ 1
Cuba 1
Park 0.4053130535755876
1951 0.8376841586693647
ı@@ 1
icul@@ 1
ami@@ 1
củ@@ 1
aci@@ 0.47206460968428043
st 0.1801568362404418
Ha@@ 0.8292380310401478
Music 0.5278441148922928
Au@@ 0.3816441628853564
P.@@ 1
Video 1
ab 0.2141784541452144
ary 0.08728453545294172
Sim@@ 0.6121623405873707
ster 0.3367729696911871
Vol@@ 0.5632273272836361
France 0.21622459967032703
tur@@ 0.1983318726610327
wa 0.496470284282884
idi@@ 0.5862510740941187
South 0.24456376068164679
aer@@ 1
lon@@ 1
ison 0.48405746329907334
loc@@ 0.26033112065514763
ry@@ 1
anti@@ 0.2738996490996485
icum 1
99 1
chil@@ 1
TV@@ 1
Anth@@ 1
ail@@ 0.36572132778141586
for 0.016130655898997082
ue 0.13923174141790004
1952 0.7429243207372721
ici@@ 0.23597338741153015
ush@@ 0.7706911704279158
her@@ 0.14913636684335818
we@@ 0.1537265864582828
mor@@ 0.28034605986025257
Kan@@ 0.7514485225417418
seu@@ 1
eria 1
tica 0.6108158989030628
ngo@@ 1
the@@ 0.27897889408211834
aine 0.47341473345165674
Ep@@ 1
ref 1
1934 0.847135948368122
uta 1
1929 0.8576970674808843
Bro@@ 0.5792866230726734
ese 0.2661292075118395
CD 0.8705173934686761
ais 0.3451238625015531
Nag@@ 1
Ter@@ 0.7826100706507118
Sz@@ 1
1935 0.8267661797368739
ess 0.17214650048124333
pul@@ 0.4976095631147167
Kal@@ 0.7858299436825118
ect@@ 0.5903966428579565
Ple@@ 1
OS 1
ier@@ 0.2798857269703979
Richard 0.6038203662319412
die 0.014669073041494963
Char@@ 0.46803706104959614
phy@@ 1
bur@@ 0.2886867906838629
Internet 1
ise 0.12234477520536582
ole@@ 1
rot@@ 0.8710169080897152
tal@@ 0.40264822599828837
ory 0.22567075389484112
Berlin 0.4426792739988907
estr@@ 0.3670408151555749
ette 0.32088138254464116
ă@@ 1
Martin 0.6131423504779355
ny@@ 1
ft 0.3597412937656979
98 1
Ta@@ 1
Wat@@ 0.937025728333874
err@@ 0.4591253154992832
rad@@ 1
yd@@ 1
long@@ 0.7627889375340426
ept@@ 1
hr@@ 0.6714824226198763
Ku@@ 1
field 0.27102100963104353
Ô 1
B. 0.614081227962725
az 0.5728654659071282
ack 0.3727078423623285
ade 0.18736548690084412
sal@@ 0.3302595989716503
agn@@ 0.8313712535880415
art 0.20065176014247993
š@@ 0.8178875023309563
King 0.4575798741577277
ero 0.3236301504820309
eur@@ 1
yo@@ 0.8638921672758263
92 1
opus 1
Fi@@ 0.5638134419569341
pur@@ 0.39702330252784435
del@@ 0.3736528084537995
war@@ 0.30357871727910374
Nhi@@ 1
D. 0.8540765799180973
thr@@ 1
thus 0.9949665662071814
1931 0.8920940741606899
fas@@ 0.7154081123744054
ech@@ 0.3656090628714972
96 1
Wales 1
Manchester 1
1914 0.81251912486633
iro 1
yst@@ 0.931813224692751
Cos@@ 1
Dol@@ 1
1918 0.6780314203318881
Luc@@ 0.9317121315342789
var@@ 0.7354110861556782
onn@@ 0.2751155812476116
ul 0.9768873149942411
vit@@ 1
1900 0.9456622342209678
sel@@ 0.26439388219946985
gin@@ 1
ust@@ 0.7052833122748352
lat@@ 0.30900471258778406
Mak@@ 1
ator 0.284693914994165
isi@@ 0.2770232329960144
Spr@@ 0.5218177234513152
ova 1
mann 0.3778973101239473
ous 0.12852024967367506
ine@@ 0.9005328495134746
Ba@@ 1
Minnesota 1
fe@@ 0.17761542618071902
Fu@@ 0.8844331683805405
Mik@@ 1
ace@@ 1
Wi@@ 0.6592935868969062
Gl@@ 0.5549143506833162
Hon@@ 0.5359807500260637
Edward 0.9129988942496357
Bos@@ 0.9232782191231986
m. 1
ach 0.1879145493252352
rock 0.5990308116156714
El 0.07762771139947557
1912 0.8956266287788782
ps 0.3270695033916789
Kansas 1
ava 1
Los 0.19775307504917214
ut 0.40260054454710514
ten 0.053583867052189885
arr@@ 0.21194494672305764
One 0.37168245740589295
jeun@@ 1
air@@ 0.326610932208345
IN@@ 1
Cle@@ 1
gar@@ 0.3462479228390753
osh@@ 1
Sum@@ 1
da@@ 1
Love 0.8801635690687956
Rob@@ 1
Kam@@ 0.8851783736974754
1891 1
Av@@ 0.6931995661604717
J 0.7814722142894235
ẩy 1
Mosk@@ 1
did@@ 0.8129951582541917
esh 1
ello 0.6365224563709068
Py@@ 1
CO@@ 0.9168827623943699
K. 1
93 1
cas@@ 0.2738979581200856
Un@@ 0.24167621018009325
lam@@ 0.358518989503465
Jean 0.34739510865171763
Kon@@ 0.26250113847222434
Ir@@ 0.5264383290073278
sur 0.06678213376787456
Tim@@ 1
600 1
97 1
1933 0.6693315317553928
Ira@@ 1
1922 0.8467220527503158
1917 0.7799131692773342
chr@@ 1
mal@@ 0.2918463045804296
hin@@ 0.5770438601299497
ẵ@@ 1
1913 0.9501062283552401
poly@@ 1
eli 1
ij@@ 1
Ban@@ 0.6473573458709087
Friedrich 0.8262958011576235
urus 1
Ham@@ 0.7362744969000661
1932 0.7885690068734013
1924 0.801947491762883
Bab@@ 1
ç@@ 0.3141252455265997
Ul@@ 0.648131068410672
Lind@@ 1
ạy 1
Joseph 0.5156517049014543
ington 0.5146966993127177
una 0.043264913798164426
gan 1
Hydro@@ 1
1925 0.8325239091540647
ire 0.17826662256678252
ight 0.2399867835077049
via 0.48077964127071227
1908 1
ệc 1
imb@@ 1
pos@@ 0.1222265732118211
150 0.9938006861142947
Sin@@ 0.7746026646141483
astr@@ 0.6984651601412072
Xi@@ 1
91 1
tin@@ 1
ates 0.13874379745609267
Smith 0.6416690873553529
94 1
ẳ@@ 1
Der@@ 0.7612164902485555
CA@@ 0.6736777685036611
89 1
Jackson 1
1919 0.6782348472336178
ów 1
dic@@ 0.28061861194104615
I. 0.7121425707965463
anga 1
Cap@@ 0.7777714554207396
1910 0.8616573128293605
1916 0.9794095534251585
ci 0.47942665961478603
ren@@ 0.17663352696777893
Lan@@ 1
cy@@ 1
Le 0.06113660948592461
Pakistan 1
ger 0.28757627379298223
1905 0.9675209284105714
Kir@@ 0.7623951615198122
Nguy@@ 1
1911 0.9626113136191469
T.@@ 1
Nar@@ 1
sen@@ 0.25551713327533193
ce@@ 0.2582449213615951
ề@@ 1
St. 0.3221534547864945
aul@@ 1
ọi 1
pe 0.22768743411647693
Colombia 1
Bang@@ 1
nú@@ 1
Ra@@ 0.7411760694148707
manga 1
Nak@@ 1
Brazil 1
Top 0.9904829005747626
Bayern 1
ori 1
ular@@ 1
Nav@@ 0.6910316008598776
Stal@@ 1
Micro@@ 1
Pa@@ 0.7576310998680383
ill 0.38643985402754066
Loire 1
cho@@ 0.360876687567443
win 0.3085598917766111
ist 0.029902782576446355
Peter 0.43858664730458014
K.@@ 1
F. 1
Lor@@ 0.5992211410341158
ein@@ 0.08445655699924302
sis 1
Sak@@ 1
Gor@@ 1
ger@@ 0.1596682874219
Kor@@ 0.4832682246702679
ings 0.1047958163723946
Ven@@ 0.7644992363370737
oul 1
ern@@ 0.2707543203598826
lem@@ 0.4416988965454881
Lit@@ 1
Alpes 1
AP@@ 1
tor 0.17509544876208952
Eug@@ 1
USS 1
CH@@ 1
bul@@ 0.5191227754716333
hor@@ 0.3604990735477827
D.@@ 1
tí@@ 1
ck 0.5289706214881068
Mir@@ 0.7592895858724965
800 1
Far@@ 0.4753957553861291
La@@ 0.8844368834699636
fal@@ 0.492476264566629
Mich@@ 0.8703097396445889
uma 1
uki 1
ber 0.33907673713986974
dom@@ 0.3906093061034153
Ok@@ 1
1927 0.7802885589431506
Alb@@ 0.9695001257202698
Sav@@ 0.8144987685450094
ria 1
Il@@ 0.7966952001435901
Xu@@ 1
lin 0.7812481707574105
cia 1
arm@@ 0.247707872704014
Mos@@ 0.7003588355419319
mas@@ 0.23667861647720018
ắ@@ 1
Afghanistan 1
ther@@ 0.33381704592980793
1923 0.8025515998039636
Not@@ 0.5484402318164747
ône 1
Men@@ 0.6969104582865107
bel@@ 0.19015876372409898
ago 0.6591748195432812
pol@@ 0.3500161485050686
aris 1
ver 0.20383782507876566
Missouri 1
fus@@ 0.8683615455865807
Ry@@ 1
2022 0.6148177532483932
bic@@ 1
use 0.1310058531059026
R. 1
vel@@ 0.4011507459692032
leo 1
Air@@ 0.9704038076878774
val@@ 0.24330722776686614
Me 1
1906 1
Man 0.6666387477935167
ashi 1
oria 0.9217335457405168
sia 1
DP 1
1928 0.6912631422501981
ik 0.39080656755827275
Yam@@ 1
pic@@ 0.5460517399738439
ằm 1
Schl@@ 1
Bon@@ 0.6928169764618218
til@@ 0.41688937262548237
Sur@@ 0.5143360343518332
ö@@ 0.16450805832057655
itz 0.47444577345835537
off 0.20252586280868082
Shi@@ 0.9785230714433978
Baker 1
Venezuela 1
eck@@ 0.6143776514611746
ér@@ 0.14806882106325644
Australia 0.3753110711759387
Rho@@ 1
wan@@ 0.6361890718076592
ony@@ 1
ap 0.4274663846995833
Kat@@ 0.7306067839937649
hip 0.6878997436000797
anie 1
ho 1
Bat@@ 0.5843079515648348
cat@@ 0.3306763295836242
osp@@ 0.8972413983358938
Dav@@ 0.9924899831563803
urg@@ 0.7368313074198498
Bru@@ 0.8240357596917991
Chr@@ 1
DNA 1
sul@@ 1
enia 1
Coc@@ 1
Olympic 1
eci@@ 1
Alexand@@ 1
De 0.23645465320101977
alm@@ 0.5641354601328632
Eur@@ 1
Super 0.8293582162325486
ilia 1
Tam@@ 0.8917786298644281
igh@@ 0.317435490153856
mb@@ 0.5307919678694673
not@@ 0.18932781367743837
Simon 1
Z 0.7016742179909815
well 0.11680951061343298
Microsoft 1
Kol@@ 0.6297616177037133
Mary 0.5955278550728432
phia 1
bert 0.49567974127196107
My 0.8963653185498671
Wor@@ 0.3308836543030227
kov 1
Guinea 1
ales 0.0717544186570732
Hau@@ 1
Angeles 0.6148728920417633
Op@@ 0.5617936705741197
Wo@@ 0.4520409508095103
acid 1
ond@@ 0.35084936688954893
ity 0.07238488672408334
ff 0.481968182838818
ance 0.0754258050501935
uti@@ 0.6792964352253348
1926 0.717583020686054
he 0.025516603266040862
eum 1
eth@@ 0.4729252237501341
uri 1
andi@@ 1
ista 0.26183591948019996
cit@@ 0.6145052458925963
AR@@ 0.6077146334313479
ń@@ 1
Est 1
ric@@ 0.8848716751248173
1909 0.974659072603369
ulus 1
att@@ 0.16820120419672568
1921 0.7247851159845211
kil@@ 0.6191419273269839
Hot 1
let@@ 0.21205842328045849
ome 0.5285187135863503
Lam@@ 0.9744621904695874
amer@@ 0.7679045185833883
sem@@ 0.31417127193479705
.C. 0.8539163782231791
Santa 0.5103156806585362
Les@@ 1
quit@@ 0.8008279423340101
tre 0.269014537619335
1895 1
Dis@@ 0.34740743649999983
Kas@@ 0.9302568817770099
agi@@ 1
nus 1
v. 1
Az@@ 0.8901058219614985
T. 1
Chile 0.9691998392866064
mar 0.7627655679371098
Francisco 0.5477350561492913
Ứ@@ 1
pro@@ 0.12253079321030591
1915 0.8270885485556098
Hitler 1
Florida 0.7187967028262313
pen@@ 0.2280279946993807
Jac@@ 1
Hab@@ 0.8759993320451971
pel@@ 0.37900178717380095
inter@@ 0.07658718219882077
Armen@@ 1
end 0.09269803007164801
esi 0.6399111617720242
Division 0.32510339096084667
Serbia 1
trich@@ 1
chin@@ 0.7851579962016144
By@@ 1
tol@@ 0.6902920227164789
tum 1
lig@@ 0.3388478201308414
Ay@@ 0.9579062021818618
tom@@ 0.2456482784611724
ỉ@@ 1
toman 1
iger 0.3517138288538461
Prot@@ 0.48073328306576485
endro@@ 1
uf@@ 0.32302849961525937
Vil@@ 0.7774432617621195
Virginia 0.6435743334266795
rol@@ 0.45700355422236516
ele 0.44434310393821547
Dem@@ 0.5078606131420479
Jer@@ 0.6955583561487241
bol@@ 0.8132882856620672
nam@@ 0.28824626450820723
Dre@@ 0.5749236073834606
ré@@ 0.0736831585274405
Football 0.5161325709581738
aca 1
FA 1
Gro@@ 0.4554713427977356
Cur@@ 0.4833152457449188
uv@@ 0.601791076170171
Pen@@ 0.6115682962354688
Champions 1
IS@@ 0.6645798340625477
Mark 0.6604001545704911
els 0.14693508102534625
pil@@ 0.4092432234067446
Mot@@ 0.5787340344445729
anda 0.5446479559659299
asc@@ 0.7587075430319378
Psych@@ 1
ć 0.6687678947389613
agon 1
tim@@ 0.1619319035024063
Hawai@@ 1
ole 0.2534309114804011
ock 0.5099028478044593
Sho@@ 0.8309922796345492
eps 1
Fo@@ 0.5094085418034706
Roma 1
mad@@ 0.7459143488763552
char@@ 0.3617172126377509
Vir@@ 0.6830705192697645
ebr@@ 0.6131149330109751
fin@@ 0.10509339528779067
Google 1
ř@@ 1
Arg@@ 1
Rad@@ 0.7633083378015342
Bulgar@@ 1
Lev@@ 0.8308989965754978
oshi 1
Uy@@ 1
neo 1
cá@@ 1
apo@@ 0.5423175251913933
dor@@ 0.5232418142382195
Fri@@ 0.7474939008052918
acia 1
BT 1
onidae 1
FIFA 1
Pin@@ 0.8706644444261618
elli 0.8737243975395517
Rich@@ 0.528841374807151
Sul@@ 0.9445803217001467
hydr@@ 1
Diego 1
Disney 1
ass 0.2100355989629991
istan 1
Nep@@ 1
vil@@ 1
5.000 1
ther 0.317787385911957
She@@ 0.763850059412649
fi@@ 0.16456513085107335
ray 1
Karl 0.6593592522233802
# 0.5254025416757194
edi@@ 0.30219473311914025
Don@@ 0.6471312165350436
isia 1
une 0.025856683685990426
Nic@@ 0.9788525593369621
met@@ 0.2705286628109212
Oscar 1
Don 0.7689813407514585
asa 0.9540305373972563
1903 0.9660501219984042
osph@@ 1
eng 1
eni 1
COVID 1
tric@@ 0.972632768027288
cop@@ 0.3196412876221512
ling 0.284657995679377
Pat@@ 0.6799199877360246
chuy@@ 1
Ec@@ 1
ear@@ 0.2961073081808713
Bah@@ 0.7692606867210479
eu@@ 0.8675374378467177
CN 1
North 0.20494084925762607
bil@@ 0.2037165302339606
Hil@@ 0.7211685117067986
Buc@@ 0.8919774854608621
Alexander 0.6405466407717706
1904 0.9003474275196514
Mun@@ 0.694855190943134
Sab@@ 0.7557719338693806
ati 0.6500393411687664
Black 0.4907250780493596
ogne 1
Pu@@ 0.7484691735047123
Wisconsin 1
Pre@@ 0.34833995194053236
G. 1
Ash@@ 0.8649832901845339
Est@@ 0.30360376102276504
ingen 0.27766374357103973
Slov@@ 1
Gmina 1
aha 1
Nam@@ 0.8393087635534026
Van 0.8650780591935108
1907 0.8442962330717811
Nintendo 1
Eng@@ 0.43861077767585943
VI 1
bon@@ 0.8219894294864464
Victoria 0.8067042665688782
Med@@ 0.41924652603735535
1898 1
je@@ 0.28422525478988214
tis@@ 0.2658313259535754
vic@@ 0.28750331295984827
Pav@@ 1
fer 0.2870709971758974
oe 1
Ka@@ 1
Jam@@ 0.8838757525064403
dec@@ 0.13919809554459167
1000 0.8504455443173021
ee 0.35946856676613137
obi@@ 1
tro 0.6454856183231044
zia 1
Tel@@ 0.6184355897748971
Peru 1
Harry 1
SS 0.7476688426425031
antes 0.16226208843728981
Champ@@ 1
ico 0.16986279602809834
ars 0.18787408040849274
International 0.221600023756574
Juli@@ 0.5316639763767165
Pit@@ 0.9284107027187433
arc@@ 1
guit@@ 0.531500498320541
tem@@ 0.4560764282330163
Bir@@ 0.44319836124995104
1.000 1
fo@@ 0.24053394920523877
low 0.1422816480045637
Cari@@ 1
nom@@ 0.45303888096356254
1897 1
700 1
dem@@ 0.14666753762986848
gi 1
Nigeria 1
It 0.04347152380317354
iki 0.7751973815402937
kin 0.7574269131221332
Tan@@ 0.8058589324596023
W. 0.842645975051095
1899 1
amm@@ 0.25943757395528355
1902 0.9285003105933153
ash 0.495520417310222
Madrid 0.6472469786437481
Mid@@ 0.6529951318075655
120 1
Serie 0.8499469114350964
Elizabeth 0.933859444633654
Shar@@ 0.9376942706930929
lati@@ 1
Lom@@ 1
bit 0.8695838446830074
tam@@ 0.614155356325699
alp@@ 1
ton@@ 0.6117139955250364
Ran@@ 0.8834691965094973
Tun@@ 0.740809088179462
aw 1
ith 0.3974169052489953
port 0.2079399073205469
Gil@@ 0.6880121830995587
Hom@@ 0.6765147952142824
Thom@@ 1
micro@@ 0.9784488478617456
emia 1
Sor@@ 0.896213937996333
DS 1
Ú@@ 1
Ecuador 1
edonia 1
sburg 0.7952858528589682
Christ@@ 0.41305848726362615
Dom@@ 0.5529323693495334
ū@@ 1
umb@@ 0.5800284368915745
yum 1
Premier 0.7718150492108746
RA@@ 0.6291462216312488
kin@@ 0.47349161194313155
Air 0.3692714640660779
kl@@ 0.26818517375043976
sé@@ 0.39808940259546555
1896 1
ichi 1
aux 0.05940957755645433
Tour 0.4363808714739409
mil@@ 0.4327799391384883
ath 0.3693478104768974
Pic@@ 0.9846786236630064
ame 0.3741766497868683
bus 0.5602441236203349
Cham@@ 1
Hier@@ 1
Chrys@@ 1
Carl 0.8443278897200537
ins 0.10385362079230198
DC 0.9982206442919304
ca@@ 1
* 0.16774154871378583
Pri@@ 0.3412522330496962
way 0.1241458213289836
we 0.3103807895645614
CN@@ 1
our 0.13008553716033522
lip@@ 0.9754916291535474
uke 1
bro@@ 0.23447033058071592
Milan 1
Bay@@ 0.6723744995611026
ish 0.12405341605111027
old 0.13749054549162185
Lincoln 1
É@@ 0.18105785688916165
ful@@ 1
bach 0.39133422629744874
Ả@@ 1
ừ 1
arius 1
Chelsea 1
ika 0.6110473088650549
aly@@ 0.8450444006846093
ène 0.5234938927987416
1901 0.8938184285225873
Pap@@ 0.5583617329761212
bal@@ 0.3096447815970976
din@@ 0.5496544050972039
ogr@@ 1
Anti@@ 0.6920302078306122
Cir@@ 0.737956633253916
ep 0.3091961383699725
vis@@ 0.12465842593925593
Hay@@ 0.8788653670751703
Records 0.4170194675585063
ett 0.39375451810635953
fur@@ 0.8740171620986752
~ 1
ū 1
Win@@ 0.5410337779611266
Steph@@ 1
ecia 1
Johnson 0.72725290644171
10.@@ 1
go 0.24002541749297474
uk 1
tion 0.03979655731945037
Clar@@ 0.8025465893852971
NH@@ 1
adi 1
Ô@@ 1
ef@@ 0.15040647564669105
Red 0.46814941147652156
In 0.016631668461075902
ken@@ 0.3285562914045996
1,5 1
ny 0.8376759314457983
uss@@ 0.35434595175832234
1894 1
mes@@ 0.5521935843015682
TP 1
wal@@ 0.35812893254616623
Pel@@ 1
onom@@ 0.6422546872396457
Oli@@ 1
Arkansas 1
atra 1
rit@@ 0.26744884166965904
with 0.01136324956042352
avi@@ 0.5096676045118986
hir@@ 1
istr@@ 0.525245977955568
DVD 0.9087816078975814
Ker@@ 0.6640670016581796
vo@@ 0.1485928862937403
Town 0.70367018640935
odi@@ 0.5651806708777856
isch@@ 0.28479680469808694
abil@@ 0.6826320168566813
name 0.1083073979613199
say 0.9529806375327249
ime 0.2551728719497418
van@@ 1
ẵn 1
sur@@ 0.10422767397659213
cre@@ 0.10680127124286004
Rol@@ 0.6358432492764877
uca 1
ein 0.03421061733771633
Michigan 0.7931077997703959
West@@ 0.3429378026164288
Italia 1
hum@@ 0.27049352228577994
AC 0.6829392524280734
Che@@ 1
Star@@ 0.6685165991971825
yo 0.9215243623381735
May@@ 0.7505393784202198
Frank 0.6579041953995456
mic@@ 1
Ele@@ 1
So 0.5014931212902107
fa 1
Dan@@ 0.45242937181280446
Moh@@ 0.7215648935002855
Liverpool 1
Ş@@ 1
Game 0.906203390110917
ham@@ 0.7441298592128068
app@@ 0.17589065662245798
Da@@ 1
ste@@ 0.1734394274097789
esti@@ 0.23895760718250747
ester 0.3572020208680239
Pil@@ 0.8064408052184137
hydro@@ 0.8989841559348932
Arthur 0.7412660425304258
250 0.9423383453039251
Nobel 1
mont 0.5569960167296301
Dur@@ 0.6915079884164353
Fer@@ 0.4964379760291481
any@@ 0.4691754096721094
bin 1
trop@@ 1
AT@@ 0.8335288028576092
Mand@@ 0.8848058259127782
50@@ 1
Dal@@ 1
Inter@@ 0.18151070014293658
icia 0.8873264313866022
vari@@ 0.15599713107946359
Taylor 0.9137584473149821
Pyr@@ 1
etta 1
land@@ 0.18174865293771125
Maz@@ 1
Sk@@ 0.5665796183617914
adr@@ 0.6635029274187213
YouTube 1
mé@@ 0.2255760603091513
acc@@ 0.12366363469528505
dy 0.4598345982849489
Dev@@ 0.6078747382752241
po 0.5500094986371755
Í@@ 1
iri 1
san@@ 0.42482659860600425
rop@@ 1
200@@ 0.8185759207226491
Nouvelle 1
té 0.285998245773478
1889 1
Web@@ 0.716400263318676
oga 1
aba 0.15638498962262184
Kos@@ 1
hab@@ 0.25132854508192315
1890 0.8710958174532086
illi@@ 1
eda 1
zi 0.9096284013980976
V. 0.6735361939135021
wood 0.37133984930647146
Spar@@ 1
IC@@ 0.7338941092766786
dal@@ 0.8489704305419803
ado 0.034879638723717216
Ob@@ 0.40693127326347417
lav 1
int@@ 0.1097077020611143
ẽ@@ 1
amo@@ 0.8034694343869258
Cel@@ 0.605387686950629
Haw@@ 0.815996207688068
ega 0.5070659713725051
Columbia 0.7048028870184813
inger 0.3797944483786112
Times 0.5669132107851399
Real 0.7176025200287471
osaur@@ 1
,@@ 1
grad 1
ston 0.6441250437745311
American 0.08523139542342414
hol@@ 0.18286848104729742
zo 0.5457925978106933
Jack 0.6594222037819086
umi 1
ör@@ 0.21395477533546028
ais@@ 0.2423805045008272
lı 0.8503684689121471
Star 0.5355694020562093
ini@@ 1
uh@@ 0.5036387914606545
nu@@ 0.33746107616945015
Beg@@ 0.5887346893655236
anes 1
Yo@@ 1
ites 0.29767358726489945
Mim@@ 1
rap@@ 0.2950932233225612
US@@ 0.532413463753953
Tre@@ 0.31997321656300615
Shin@@ 1
Reg@@ 0.16914432756453027
Alg@@ 1
iko 0.9957504324180274
polis 0.7965471559357433
PC 0.9866358491221269
Agr@@ 0.8225568504382088
kr@@ 0.299914230192495
23@@ 1
Wit@@ 0.7970762222188984
Sic@@ 1
Jones 0.6114932162413363
seud@@ 1
Apple 1
Fe@@ 0.42033193893083437
Sand@@ 0.5135249270294201
Chil@@ 0.5740256779682193
ett@@ 0.4186524084866474
idea 0.5731701846363559
HMS 1
Got@@ 0.585527791503044
anian 0.9686038621625255
ceph@@ 1
onne 0.4396145575463897
Abr@@ 0.9484604184504547
rey 0.4060087779368492
Nik@@ 1
Dy@@ 1
yn 0.653614952558187
out 0.06226705556880565
3D 1
Fal@@ 0.6654607607682499
Leg@@ 0.28119419867638706
TH@@ 1
1885 0.9870290163296844
Albert 0.6566620357608647
bo 0.7350365274511206
jo 0.2798783268162583
oba 1
Latin 0.7602509003399354
Sha@@ 0.8265144094792931
• 1
Sri 1
han 0.32299115234037695
oli@@ 0.9775214676026295
rel@@ 0.10445751145199113
Tom 0.6807136121687453
Hen@@ 0.7793988515767639
tt@@ 0.8520367262059644
Sau@@ 0.6434216252482294
− 0.8840427484806901
Beau@@ 0.7408367927654709
Ren@@ 0.38415135433742287
lad@@ 0.5257361380865139
series 0.11971075178964691
Pod@@ 1
Ble@@ 1
ä@@ 0.06483069551441657
10.000 1
Wilhelm 0.6484929831739424
len 0.1773401219926055
Gir@@ 0.8695579145036004
Var@@ 0.796114742009323
sey 0.7297193008954468
ğ@@ 0.9988727669518662
hiệ@@ 1
Vel@@ 0.9065301649800986
Kaz@@ 1
bai 1
SE@@ 0.7932346756396047
Leon@@ 0.8071787812512127
Syn@@ 0.5788826185575365
ew@@ 0.3316288401350887
Club 0.21796881872141874
UNESCO 1
12,@@ 1
Wood@@ 0.9044843836007302
Ari@@ 1
plat@@ 0.27339759758492116
cher 0.18054924229045546
Big 0.542388467396119
Java 1
10,@@ 1
1878 1
oll@@ 0.21528190730376415
NGC 1
11.@@ 1
Hymen@@ 1
ui@@ 1
pus 1
Williams 0.6185654342199668
pat@@ 0.2867015037732679
AI@@ 0.9506522827735018
The@@ 0.33599648918654856
tru@@ 1
Mul@@ 0.5683946209137846
ame@@ 0.5751546051620466
prot@@ 0.14153094714049977
Hass@@ 1
vin@@ 0.5131183581083534
ines 0.14288589999972878
Tal@@ 0.4938248381331144
sor@@ 0.3006299837097228
agr@@ 0.4618951517527371
ino@@ 1
Ober@@ 0.21181221463682048
Brit@@ 0.8827844649500124
ę@@ 1
Trump 1
Awards 0.3912969267541526
Vit@@ 1
tera 0.8970970227187725
ı 0.42388020528120757
Tit@@ 0.5459387032783153
ors 0.08828456626588853
roc@@ 0.8199975781693566
erry 0.46102400262701276
1870 0.8587898646982909
Pres@@ 0.3440074676131387
rh@@ 0.9683658900274549
rup@@ 0.3303550983817308
ji@@ 0.9191599513721087
ome@@ 0.528389076163426
Sun@@ 0.7800683489182496
ont@@ 0.462738405358017
sz@@ 1
2.000 1
Congo 1
mot@@ 0.19364275204014933
AN 1
Bag@@ 1
reg@@ 0.094045257999731
MTV 1
2,5 1
Norman@@ 1
Roc@@ 0.6490457859059561
ope 0.39699704946069914
aus 0.03908183011391049
Jan@@ 0.7474736771932016
Plan@@ 0.49435586276313204
bet@@ 0.6535442332172892
nhiễ@@ 1
stan 1
tiế@@ 1
ban@@ 0.1924644108432029
Sher@@ 0.755367609707975
ast 0.1830122230529119
White 0.3931048688351656
Rock 0.5500538403501655
Cha@@ 1
ech 0.36491989864164653
wi@@ 0.49729298166473057
ros 1
Amp@@ 1
érie 1
Ga@@ 0.9923260332460226
xi 1
Slo@@ 0.9075041632742823
Marie 0.45292105551239553
dol@@ 0.41038527172899136
Young 0.5927641172429794
Bri@@ 0.48356529495536255
Lab@@ 0.4079788128026678
mir@@ 0.39109556200835416
ater 0.28086200053229327
ix 0.35091454258200633
Yu@@ 1
car 0.208088274584654
op 0.20433409586860513
Ah@@ 0.8139104254331017
eth 0.4958901590246307
Im@@ 0.258027199487241
Pau@@ 0.7217246778157114
Cent@@ 0.8632526369133456
Cô@@ 1
Rio 0.9677961397206457
Wall@@ 0.8285614301850196
mol@@ 0.3979367171068494
oid 0.6439778932687483
Time 0.6945034886955619
Gh@@ 0.8986768883877655
aster 0.8619992135092173
esi@@ 1
oon 1
Mach@@ 0.7250577835517306
ume 0.39799650849152485
ider 0.3527077102643456
Brown 0.5345532925016668
Cher@@ 1
Max@@ 1
fan 0.9124943177905658
Kom@@ 0.23398112866253165
Laur@@ 0.5535292619943893
anna 0.9405431801145285
itz@@ 0.2354463848414273
web@@ 0.6195633091714599
anz@@ 0.2230043846772281
play 0.14823888092533322
mos@@ 0.7445910933888594
uni@@ 0.24640256624194007
Lar@@ 0.5979734098825261
Haute 1
Rus@@ 0.5683498653717481
AC@@ 0.5477006294381955
Moore 1
Greg@@ 0.8811351762722044
AN@@ 0.7782962312478966
les@@ 0.3025389248674319
ska 1
Ther@@ 0.6646621118099951
igu@@ 0.4861936031624688
cola 1
Rap@@ 0.7379464717890009
otes 1
Bis@@ 1
time 0.04478102149878537
fa@@ 0.1433233125818036
1893 0.8871467851914925
Ci@@ 0.5645097493758612
yu 1
Green@@ 0.917727111319341
Pierre 0.38558485049716484
ovo 1
liv@@ 0.5749470416731368
iti 1
wo@@ 0.2572165134350727
bat@@ 0.2256134985801277
ée 0.030591022981926876
Af@@ 0.6265825598522465
che@@ 0.7380974740983132
Costa 1
Carolina 0.5526864524912103
Ach@@ 0.9025525847364582
1859 1
Blo@@ 0.5656642930889699
Net@@ 0.8865099402918917
Ja@@ 1
tile 0.9800132960920191
Fin@@ 0.2047858613387965
ka@@ 1
leri 0.430911526743208
kan@@ 0.34934052213433525
Amaz@@ 1
Ze@@ 0.29357507716178266
CD@@ 0.5669044784141698
Om@@ 1
line 0.11446473653105185
Cand@@ 1
Scott 0.610216703101099
ado@@ 0.7930387867488571
yla 1
ris 0.9442749592226183
Sax@@ 1
wer@@ 0.135963946331164
kan 0.9377319233349078
Bus@@ 0.6417681295720464
Euro 0.9412849599531509
CI@@ 0.8026302102980404
din 1
pre@@ 0.05838952816473689
Chicago 0.37042764015424867
brach@@ 1
Dam@@ 0.7173644850083483
vol@@ 0.1376631788761666
Brun@@ 0.7654217200970617
1882 1
ble 0.17706053299749955
omb@@ 0.7655097215347344
emb@@ 0.22104956314874158
bus@@ 0.21031043451800036
eto 0.4109864001169123
shire 0.3610625181869961
aud@@ 0.683899709825849
Pach@@ 1
1886 0.9525281744741242
VII 1
electr@@ 0.7080369747751063
Arch@@ 0.37378043959381146
Kn@@ 0.41246710014803734
Rot@@ 0.4396437413114461
eld 0.3433957296932538
gal@@ 0.2990739033103161
11,@@ 1
São 1
Boston 0.547323559975048
XX 0.7552737829841345
Kav@@ 1
aro 0.8086356496884958
asp@@ 0.4065865560620103
set 0.14186117398433135
brun@@ 1
Wilson 0.7290843082885535
wat@@ 0.3062101110047032
Julius 1
bin@@ 0.4003272484731911
mo 0.3271669081201312
Daniel 0.5183384307690401
Bou@@ 0.6976341270425619
N.@@ 1
enburg 0.6623023406947137
sam@@ 0.6167828270375859
Maur@@ 0.8738981878028778
jo@@ 0.24168627093848194
ś@@ 1
Bot@@ 0.2918916658589452
Indiana 0.9636920762478806
Kenya 1
Walter 0.6230303139675618
1880 0.8155617778444885
vin 0.7518754165353646
Arist@@ 1
Liber@@ 0.3450021415705361
enc@@ 0.1560020088813521
Peter@@ 0.7259411579987297
coc@@ 1
ken 0.09639115615988145
Black@@ 0.8567191447835879
sw@@ 0.21180120628895008
1875 1
1888 0.9005445341076755
Dec@@ 0.43183834147735983
agu@@ 0.37681883890435974
All@@ 0.34900926394122733
Pun@@ 0.7611040338348869
solo 0.2819601588713843
Show 0.6439441862051463
Bec@@ 0.5061878091408095
flor@@ 1
All 0.18549547461542956
lit@@ 0.41965569572219363
polé@@ 1
aff@@ 0.13916137427194628
etes 0.8087934389616905
Spe@@ 0.3587000499675989
nes 0.27093536636032933
1860 0.8874257659384679
ets 0.07707275658107443
yan 0.6167859119129581
But@@ 0.6139460592749273
Ever@@ 0.845490464551487
Fle@@ 0.6643565746162032
Live 0.6769230374188833
Lac@@ 1
Nev@@ 0.9515189181651752
XIX 0.7363509971617914
Gom@@ 1
atar 1
nor@@ 0.1495955305885647
National 0.08943854322646093
1871 0.9131086557142672
ère 0.1097597472542521
Bet@@ 0.36181099673174494
Lou@@ 0.4956018892386652
Night 0.8344479432660047
Vill@@ 0.46939344266818245
Hollywood 0.922388591134946
yon@@ 0.5706860772544564
bot 0.7421175489238884
Uganda 1
Cra@@ 0.8724384100595577
ret@@ 0.20728262221672747
EP 0.6529959628222238
Ric@@ 0.973355089150395
Boh@@ 1
BS 1
lea 1
TS 1
esa 0.27886889671871734
lus 1
saw 0.34292331101341217
Nu@@ 0.5944334373583787
lut@@ 0.9527238913393987
eton 0.844656887857027
Gru@@ 1
Lis@@ 0.9144733094379133
eti 1
Beng@@ 0.9859035356482124
sten@@ 1
eil@@ 0.705185956151641
Anne 0.7035879609382679
Ful@@ 0.7105871882948869
als 0.016491322307299598
Arm@@ 0.404326495784229
pur 1
ave 0.20569800684183437
Constant@@ 1
mp@@ 0.287518623339479
Ju@@ 0.2854078982646019
BBC 0.5741367310935147
Vor@@ 0.1072268595357839
ters 0.09298314610627025
cam@@ 0.3574464578088281
sum@@ 0.3085687474609265
Hill 0.41055195559135765
Den@@ 0.3320588272166982
alt@@ 0.22511245636589056
1879 0.9868502796369716
iga 0.8505452615431301
ier 0.21752767780206775
ote 0.19508693328680735
nit@@ 0.5507577073889187
à@@ 1
lie 0.35269358115692484
Tol@@ 0.6756147793919522
Ing@@ 0.7203802536607868
line@@ 0.762937626326032
Li 1
Sat@@ 0.6976860996406908
11@@ 0.6408284264476384
fera 1
Whit@@ 0.5789082941037872
Barcelona 0.7464763319075353
Chap@@ 0.5587400483054416
Group 0.2733583209842976
én@@ 0.12817490575882176
Media 0.6041362818941037
bar 0.22203434808816622
lu 1
Ig@@ 0.7139824477321061
aqu@@ 0.26607259961559965
oth 0.6370668500302911
agin@@ 1
SA@@ 0.6510572740471408
eron 0.26313643617685606
dig@@ 0.24677689852980045
bit@@ 0.44648512177480865
ị@@ 1
ES@@ 0.5542324978670647
lob@@ 0.5164962599666025
sit@@ 0.2749344471439657
eon@@ 1
net 0.28202137230673696
Pok@@ 0.9002763716803697
onal@@ 0.45307020088489564
LG@@ 1
owski 1
nik 0.5261400170851123
12.@@ 1
Lag@@ 0.6496191973063683
my@@ 0.5782830157039632
Hamp@@ 0.8886074406087491
Grammy 1
40@@ 1
AS 0.7710314849944464
bos@@ 0.7162504605068055
MS 0.7201618176249344
1887 0.8918391175966709
ning 0.123727822704679
1883 0.9710477491213027
1892 0.8087730014414238
ves 0.10595781274209366
ket@@ 0.45486288228668886
Ann@@ 0.5474633404292913
Anna 0.6515107995475793
Fab@@ 1
eva 0.7810294465438521
1869 1
ente 0.0630480104780712
TA 0.6828797158690064
Airlines 1
1873 0.9841292418300369
han@@ 0.7883552733443225
1884 0.9004538626935901
mis@@ 0.10746875086327508
town 0.1270411150262122
plex 1
lí@@ 0.5446823978880778
bra 1
him@@ 1
180 1
Go 1
Nat@@ 0.7869722355272933
Games 0.42126135614669985
Hin@@ 0.4395883148281585
orn@@ 0.9380676835223826
Blue 0.570163818516341
ost 0.27470050393141443
ron@@ 0.4640433250587227
ide@@ 0.3230661795208267
N. 1
Pon@@ 0.6795889575113386
ean 0.25461442999696443
Palest@@ 1
piano 0.817709283658724
ş@@ 0.36356954052795587
Arsenal 1
udi@@ 0.9712988908690154
Elec@@ 0.3876674347290157
ở@@ 1
130 1
las@@ 0.6168070745065892
Cass@@ 0.9875412299298317
row 0.3016553467756055
Boeing 1
IM@@ 0.9192400879943478
illo 0.5276570246086991
‘ 0.39036955684429175
Liv@@ 0.601061514017856
ail 0.30066785571087634
Asp@@ 1
Wol@@ 0.5198633873253392
Hop@@ 1
pa@@ 0.3605684289776766
ø@@ 0.5129124616041936
1866 0.8044929240362225
ics 0.10891708320454996
Cambridge 0.8061871111998214
gol@@ 0.35389187851590337
log@@ 0.2875649164881895
Clin@@ 0.8841252922233925
Corn@@ 0.6446665734511692
ike 0.3746667799399974
Madag@@ 1
Sou@@ 0.48402808836289213
from 0.011279882618071065
ingham 0.582690414873512
ostr@@ 1
Max 0.5906858459776442
Clu@@ 1
ık 1
ois 0.507976915128318
1864 0.8897425188434248
folk 0.7713996541576934
Dou@@ 0.5773451499682789
Bil@@ 0.20812542098925826
fu@@ 0.1833065980772122
Seg@@ 0.5342892001972788
ds 0.10180308452809131
Kl@@ 0.28767534215340235
900 1
Pet@@ 0.8858023351426887
1877 0.9510140631969162
AM@@ 0.665520666712133
dis 1
elt 0.16257195261870036
obr@@ 1
Christian 0.2779845007426121
kov@@ 1
ồm 1
lac@@ 1
1876 0.9084445889913537
tel 0.21349127663306108
13,@@ 1
Bern@@ 0.5646786846717889
1838 1
art@@ 0.20861948843484243
Sid@@ 1
RNA 1
olo 0.7305107606246366
esta 0.1444203639567161
ow 0.3545520672803964
ST@@ 0.793686438955866
110 1
top@@ 0.5571350376592511
vis 1
ás 0.43878178474212276
1861 0.8816306453014876
my 0.33111305047161216
ovi@@ 1
won 0.09734530399754045
fic@@ 0.2066379091273173
.com 0.790802172640575
site 0.132407906123512
vul@@ 0.9244493994546678
Kin@@ 0.3500116864878707
Stan@@ 0.8312489212360293
Vic@@ 0.3941802966255834
gro@@ 0.13711636259628132
Donald 0.6892962104354103
Son@@ 0.46797911817302373
alar@@ 0.8279013289858314
Gol@@ 0.47857274896282637
Massachusetts 0.5974626913088122
eff@@ 0.12758614244802846
py@@ 1
ém@@ 0.25328017215072096
US 0.1093325194846293
bury 0.4424005414295683
Model 1
1867 0.9074243082353423
.-@@ 1
lar 0.19726089037259267
Bac@@ 1
flu@@ 0.33763434377952173
our@@ 0.19009312754493918
under@@ 0.11848251539645197
Centr@@ 1
Ant@@ 0.6717565553140391
Island 0.2696110291960509
Tot@@ 0.7382431639424373
tak@@ 0.42158541316204395
Life 0.35264355513519585
Vas@@ 0.8837904161880763
opa 1
unda 0.8410108201515174
Championship 0.24987210737983268
hit 0.4288918184919447
1868 0.9244608060177741
ido 0.08435910120638687
Bay 0.3593085911845444
VIII 1
1881 0.8578852901438975
ès 0.23774043779919465
1874 0.9293808964884741
Len@@ 0.9235419644286152
hat@@ 0.8421835041637568
gan@@ 0.3199717428185799
Cin@@ 0.6483760151232842
Juan 0.3012460488131014
1863 0.8931039369648511
Aster@@ 1
Petr@@ 1
verg@@ 0.6860886304189139
Dun@@ 0.5652166372801707
isp@@ 1
UN@@ 0.6423286094688616
MA 0.7346662992064477
ical 0.05552432886637414
oc 1
ě@@ 1
Rid@@ 1
ond 0.24629195400188145
Tanzania 1
Nad@@ 1
heim 0.3941435773727082
bes@@ 0.16415794299811762
ram@@ 0.5403769690272611
trans@@ 0.07845202472842051
hom@@ 0.1746841830402453
MC 1
chn@@ 1
Bau@@ 0.15977055253051894
ald 0.4534096352435193
eleg@@ 0.39838436438493047
bir@@ 0.18455877137807122
Red@@ 0.3959682192049563
tw@@ 0.1383234325472829
imm@@ 0.49356995194581943
XIII 1
opera 1
mand@@ 0.27243672372411915
Lang@@ 0.33641917344972966
low@@ 0.18829796534727475
ple@@ 0.27847220598393363
SA 0.5744802240394796
Sti@@ 0.7052204785673519
Khan 0.8143629679268892
Jordan 1
Gun@@ 0.8546781458289511
IX 1
Sto@@ 0.38431188935284116
Marshall 1
mes 0.17438309078686062
Hat@@ 1
Ev@@ 0.34907298997258857
Mart@@ 1
Phili@@ 1
Kong 0.5819539575772951
Rem@@ 0.5476792268297983
eca 1
101 1
pap@@ 0.2349238197333907
able 0.039170589810561464
tour 0.23271813151710533
ın@@ 0.813560672163008
Sec@@ 0.3069458209618934
Ghana 1
wo 0.21103453118672036
orph@@ 0.8296287171422049
Blan@@ 0.5284792632252354
aden@@ 1
Kazak@@ 1
1850 0.8661125040750436
Rec@@ 0.1749119468776764
Ken@@ 0.8657577795737743
kins 0.554837880418615
Bak@@ 0.6790366847468794
Ten@@ 0.8819640547057476
NE@@ 0.8364621749449886
Beat@@ 1
Conn@@ 0.592915286045224
Sudan 1
rem@@ 0.15688658682855375
Loc@@ 0.3046954553270787
ark@@ 0.29837345267065934
ns 0.1308913435874801
Sus@@ 0.48044540858464163
umin@@ 0.5044195017583112
enes 0.37432957790463006
Aur@@ 0.869881043231844
Da 0.4546736144156687
eno 0.441876371858022
ju@@ 0.1694524586817498
aco 0.5998421425350414
Cab@@ 0.5112665869617871
Thor@@ 1
sar@@ 0.7126478342250842
erg@@ 0.2154732159211398
Mis@@ 0.5639958354400297
sin 0.20596579818750815
evi@@ 1
rag@@ 0.8819836745516152
José 0.29744112384177707
Ali@@ 0.6086401244400667
Vis@@ 0.5494146768153166
Green 0.4238875603543771
Royal 0.195225563828885
meth@@ 0.31724651913531765
gio 0.6555030314855412
Had@@ 1
Vin@@ 1
ür@@ 0.1853034880710303
xon 1
anah@@ 1
ymn@@ 1
1862 0.840406608429926
ishi 1
enta 0.26807582375041544
80@@ 1
PS 0.5882928155262638
Sir@@ 1
ü@@ 0.08772886954194781
sea 0.3095226424079536
1865 0.8242341688292025
Mill@@ 0.5598874754908763
has@@ 0.7959657932841908
Super@@ 0.35392114353656384
urn@@ 0.36771130740447316
köy 1
Hong 0.5773904380915124
SM 1
Arn@@ 0.645876536754183
SC 0.5296792574000014
Cav@@ 0.7385939097508156
Rose 0.7999608043594724
BC 0.4404205800099334
Hum@@ 0.42916304366220737
ju 1
ą@@ 1
ault 0.3516953513980342
14,@@ 1
CP@@ 1
Š@@ 0.9306236166330979
León 1
Nom@@ 1
wan 0.5732209272204832
ery 0.372704740493375
aham 0.6335464114225339
Davis 0.6304895672330156
Hav@@ 0.4799991298203782
mul@@ 0.321067667791007
rac@@ 0.1678818035369351
Kad@@ 0.8512180292580105
DA 0.8643596593466399
ube 1
Kab@@ 0.6508774362761494
Kus@@ 1
ku 1
East 0.18362396348574053
ion@@ 0.3897426792071686
Sah@@ 1
Soc@@ 1
nic@@ 1
Sam 0.8192719572731013
esp@@ 0.18072827053645701
iss 0.45608993367474443
ü 0.4904675434453709
oti@@ 0.29148952533848765
Van@@ 0.9867738858999506
Chris 0.6018683861627572
Val 1
1858 1
Trin@@ 0.6274847502587165
Wes@@ 0.517670999933394
Him@@ 1
Apo@@ 1
Fair@@ 0.893082546935651
Ori@@ 0.41429790578746245
Tok@@ 1
1848 0.7687967953850716
Ali 0.6431911561511009
dev@@ 0.1315972534203047
sch 0.20769571159450442
PS@@ 0.8737984079043898
lah 0.9916499177397947
Raj@@ 0.6467626012401371
esh@@ 0.5746980601166837
Stone 0.790047682786325
Su 0.22229285817056066
NAT@@ 1
gran@@ 0.8118418948047597
Bour@@ 0.7041295384946107
cos@@ 0.5486373311084793
Stand@@ 0.4870779634456057
1840 0.9852980855033294
king 0.1110742130626919
Pir@@ 0.6995130515062352
mit@@ 0.11901977963154435
Day 0.3755738049290031
Pur@@ 0.5834823648124406
phon@@ 0.6562400426223526
enin 1
I.@@ 1
kal@@ 0.3371795512746642
aja 0.4670578921205621
ift 0.9736738402719959
CA 0.5926643246264228
Sing@@ 0.45041472538863503
elec@@ 0.14562632504018297
fre@@ 0.11729462061918351
austr@@ 0.7584551896294698
lav@@ 0.633946254069876
box 0.4869942845505375
Sony 1
Wiki@@ 1
ange 0.2548697419863009
Lake 0.2784325606069602
Lewis 0.6537816733414293
Pand@@ 1
wer 0.1840807914987858
ờ@@ 1
Ethiopia 1
olog@@ 0.15358420523129096
Has@@ 0.6021964719106132
Puerto 0.6806966412680855
d. 1
mus 1
Little 0.5153843657448559
Liga 0.34650306539636877
teri@@ 0.4701488148227621
show 0.13962148982118094
las 0.021055413534548113
luy@@ 1
News 0.5286100021838036
aun@@ 0.4040506472901266
Sym@@ 0.7035812982390163
unk@@ 0.24733649791922524
Tat@@ 1
lock 0.2705686959497492
tric 0.3426414503941383
Harr@@ 0.7913043431071852
over 0.04564032346548101
ık@@ 1
Azer@@ 1
oy 0.7835125238846675
mod@@ 0.22959567901835762
ịu 1
eau 0.12648020159258497
thor@@ 0.9100722293609926
Sas@@ 1
was 0.0038761762366326022
Company 0.2074117477400593
alan@@ 0.9036732777958404
1857 0.9931005850295233
medi@@ 0.11455632678515472
cli@@ 0.2175049990170653
hel@@ 0.28792449269746
nea 1
Brand@@ 0.5527629816938098
Kum@@ 1
kor@@ 0.406106022923084
Ny@@ 1
Scot@@ 0.9187170095098692
3,5 1
1830 0.9681528992164978
Bud@@ 0.4242888370826019
Domin@@ 0.5276317911249492
Norman 1
Bow@@ 0.3954219928869611
gor@@ 1
viol@@ 0.18973094515691266
XII 1
ya@@ 1
emp@@ 0.14261736660912874
Douglas 0.769531448251181
Sydney 0.5120191925344834
Ye@@ 0.7835193633979468
Fox 0.6402725274586155
Kob@@ 1
RO@@ 0.7767441446705986
ks@@ 0.258791532996191
Allen 0.8180950410531197
Georgia 0.5001581088367191
och 0.6465559283229056
Yor@@ 0.6515314976005074
imp@@ 0.18000525862443867
amin@@ 0.4670419780925514
Nich@@ 0.6759326117404123
roi 0.424021331817515
Dich@@ 1
Res@@ 0.20657779747650062
Hid@@ 1
WWE 1
gel@@ 0.08161804299474532
oka 1
cula 1
CS 1
Ere@@ 1
Oregon 0.8517154261318728
1854 1
College 0.11865530746205065
aman@@ 1
kon@@ 0.13153672882921164
Bran@@ 0.5477930402467178
Tem@@ 0.40854383629918395
Kim@@ 1
Franklin 1
Lap@@ 1
assi@@ 0.5715745724992184
CC@@ 0.803042330253224
res 0.13303608224053737
Vik@@ 0.7113424088786484
Cape 0.8148640640182737
ras@@ 0.40182969113202777
1836 1
oo 0.6528825590789552
160 1
Brad@@ 0.7859862839827749
dan@@ 0.4969039225661408
Can 1
Ludwig 0.6364354068623302
Hall 0.22466937595977593
Joe 0.49245578339264173
Hug@@ 0.5587318322734453
Boy 0.999264212001002
itch 0.4920258133353881
Boliv@@ 1
Bank 0.36848800605416115
idi 0.7139590212756379
Flor@@ 0.5030351425237424
Aleksand@@ 1
enberg 0.48018283558238795
tiv@@ 0.17304470592974472
140 1
FI@@ 0.4800673245987609
utt@@ 1
Joh@@ 0.6786004704692703
mis 0.337937407503203
na@@ 0.7106445122142285
ket 0.3169112341845577
Ster@@ 0.8323231022158188
yle 0.358696866743394
pedia 1
Uni@@ 0.38912530199090223
chen@@ 0.4604013198632228
sig@@ 0.1138185267881304
ort 0.240009205162203
· 0.09274581254885825
eck 0.31851848247690867
XIV 1
ret 0.35169470921924967
uka 1
1849 1
Bill 0.4469018395120648
Chart 1
Rub@@ 0.9054741681226004
America 0.1956323422004001
ats@@ 0.3861894663382926
ges@@ 0.1260796033333123
PA 0.6561884394920519
emen 0.4937925506422908
Banglad@@ 0.9837624252137522
AD@@ 0.5682667760067348
Cho@@ 1
aku 1
Mam@@ 1
achi 1
mari@@ 0.36006593548236726
35@@ 1
Moon 1
Pul@@ 0.8183958918394831
Seine 0.31589554649447954
Lav@@ 0.8316343283157624
ges 0.17441296016845267
ž@@ 0.7918036010033259
onna 1
Android 1
enne 0.1401137821378755
stri@@ 0.5931724411117004
DE 1
Pro 0.6207746021517023
Din@@ 0.6531815340085138
ili 0.4668507672728464
1841 1
lov@@ 0.5817135852595468
Fun@@ 0.9737038001113575
enf@@ 0.17953547504719347
s. 0.49185091820629917
sun@@ 0.597518430744507
1872 0.7931713684756451
Gul@@ 0.5920281738886487
Prim@@ 0.43600292263062845
NS@@ 0.6738428728920974
ș@@ 1
AF@@ 0.9496979240789337
bis@@ 0.7274234518135263
agen 0.18192005921317786
amar@@ 0.7594502260868137
pot@@ 0.17349831618890707
It@@ 1
its 0.018488251894473947
Alt@@ 0.5280431086789151
Carlos 0.3770367863404728
Guadal@@ 1
60@@ 1
1851 1
Henri 0.5849685806290665
Kis@@ 1
ardo 0.5587225953401417
avia 1
chen 0.09387252236387943
Linux 1
omon 1
Gold@@ 0.4789841464278937
PlayStation 1
Barr@@ 0.4829455795882574
Sag@@ 1
Gam@@ 0.9381591723306709
Pad@@ 0.5590604670808894
ambia 1
Facebook 1
Rac@@ 1
alis@@ 0.16510482820781672
isi 0.336814921159288
nung 0.233922955108704
yon 1
Id@@ 0.6507472711642726
zon@@ 1
Jersey 0.4732282648022502
Bes@@ 0.16951750934432203
eros 0.27816520715688203
neg@@ 0.17317321715953984
1846 1
Gel@@ 0.34248919712745207
wil@@ 0.34096758722365644
ağ@@ 0.9086033455247998
ski@@ 0.8416637013672711
hao 1
ứu 1
Will@@ 1
dri@@ 0.1652999239753495
eman 0.4562870583194417
day 0.07517531686886113
pi 1
Schwar@@ 0.5440434019548605
awi 1
ies 0.06712334477983006
zam@@ 1
enna 0.7778118652677518
Corporation 0.47480532410859444
Bad@@ 0.5344719740997027
hem@@ 0.7106572478561239
ont 0.06311387222578643
arch@@ 0.12076343755945392
lé@@ 0.33149474684589497
phot@@ 0.21837200769495865
Jus@@ 0.4310766064184548
Shir@@ 1
Street 0.16562296385987144
equ@@ 0.20709335522095804
Queen 0.39163295446447144
Fir@@ 0.801362794407492
iner@@ 1
edo 0.4304381306858084
ult@@ 0.27362242306912693
leg@@ 0.09588412952169419
Rud@@ 0.9739644512506701
c. 1
Sig@@ 0.5241516536485025
ades 0.16315065715680144
大@@ 0.07406183722770714
Adam 0.6158506930759229
Francis 0.52725373986861
multi@@ 0.4368161708360683
Hz 1
Rica 1
Galax@@ 1
British 0.09664693572746948
Land@@ 0.11044512211641784
ń 1
Cot@@ 0.6907642628942633
eller 0.29157224004056664
sec@@ 0.07017974041982557
Uz@@ 1
imi@@ 0.7539785822099787
Maj@@ 0.6995945152595197
Anderson 0.7384577235277476
Mike 0.5161361067660934
dan 0.3049012247591288
Gran@@ 0.445526212486767
ily 0.31149425635920064
anot@@ 1
dar@@ 0.11736572764509505
1844 1
Kil@@ 0.5203824505947838
igo 0.49605289336574787
radio 0.22195919573498596
ury 0.20759228096829554
ting 0.04064443562940622
Jan 0.7013060229749232
ag 0.49027186961054714
cio 0.35454585714000264
side 0.07264344908213367
Rhein@@ 0.7346720672096037
agan 0.8592049418917289
Andrew 0.544756005735055
Team 0.248678491506673
orr@@ 0.7293320177259133
MI@@ 0.7522140680938246
öy 1
王 0.48569943071045685
13.@@ 1
kel@@ 0.33607504153224027
simil@@ 0.5531578961006614
dre@@ 0.20013601466676156
vu 0.9007127518159243
15,@@ 1
Philip 0.7764287005399918
Mec@@ 1
Best 0.2592116127873247
1853 1
Cour@@ 0.4245922059783523
Gab@@ 1
1845 1
Aer@@ 0.70136683214225
anne 0.40307625797315416
ig 0.23329502700351765
350 1
Stu@@ 0.3260311765211257
centr@@ 0.23593462789515507
ron 1
ogen 0.2900165126771808
St 0.2352756191931155
ated 0.018068981941934764
atri@@ 0.6524065684783946
Dod@@ 1
Syl@@ 0.9905714178831927
codice 1
Mey@@ 0.8851308217078285
Pedro 0.48930812627115877
bau@@ 0.17696199314428104
prop@@ 0.24031583683740343
cot@@ 0.5046309391292403
ids 0.225005127540554
Hit@@ 1
Open 0.3219497394775131
ento 0.1902928523527454
oli 0.8979030487615914
sei 0.34147930386730463
atin 0.7590558943281065
gn@@ 0.7519961289601591
som@@ 0.3022930539373877
County 0.08155256066725124
iden 0.2630162810564296
ith@@ 0.9994556940348117
vo 0.29990548269321204
Rod@@ 0.6551574016005773
Schw@@ 0.2724133455454351
Sap@@ 1
omer@@ 1
plic@@ 0.32744749789556626
r. 0.7860221612379996
Antonio 0.3572829049682175
je 0.24569971651371134
lon 0.5959011242343215
Bit@@ 1
Sachsen 1
proc@@ 0.23604812269537007
SO@@ 0.7323788878163682
Alaska 1
Otto 0.5903175888775245
bs 0.27076692221643545
Grande 0.5103972705007521
neutr@@ 0.7697769134222655
ode 0.31186682487952305
ulu 0.8092767352013174
Fas@@ 0.8121272747857294
fil@@ 0.12181318231967601
single 0.10353123558796876
Ast@@ 0.8797301088981458
ete 0.18155434019276687
School 0.07560065433035222
pres@@ 0.07643330875541368
Sant@@ 0.6679097632189369
asis 0.9213310915689598
Lawrence 0.8629332700155111
Sun 0.5258772120055837
120@@ 1
XI 1
midt 1
yer@@ 0.894952389254074
AT 0.8507641953428722
Suz@@ 1
ck@@ 0.26737669382430435
uth 0.43323347533545076
ATP 1
Philadelphia 0.5678031832329534
Paulo 1
ding 0.11296301919125826
atis@@ 0.33283081007622717
Studios 0.7190885032693713
tz 0.7883523728225275
AB@@ 0.7139404820941962
Frederick 0.7887542667577891
ưở@@ 1
Alli@@ 0.7796289651707259
Uruguay 1
off@@ 0.07568336497157417
tre@@ 0.093645971679538
ben@@ 0.17015679798753908
comp@@ 0.08470494503350119
omi 1
ınar 1
Medi@@ 0.19673181590664376
ec 0.8091215542450076
Hot@@ 0.9370217731971989
Ố@@ 1
Adams 0.8995091566283194
Nikol@@ 0.8207253202228553
asi 0.6349218316718126
Ō@@ 1
key 0.20209626882292972
Great 0.2578525866801009
dea 1
ầng 1
ons@@ 0.2096312746084933
sta@@ 0.5889147538268781
Tos@@ 1
Hamilton 0.6449185092171275
own 0.09492922070398241
cy 0.481524906438487
any 0.09639516115624278
dh@@ 0.30950459499517113
oke 0.4141408041258924
37@@ 1
Hand@@ 0.19513775264058933
worth 0.3793745357266666
105 1
Sci@@ 0.7949627332401792
omo 0.6922342224606112
Girls 0.9562558769366425
esis 0.4056059516363841
ando 0.053323269487896625
Ukraine 0.5643047018676092
Stephen 0.5770965681848678
ask@@ 0.3666421171621739
Ax@@ 1
Rico 0.9229098059926749
dur@@ 0.16757259621350742
16,@@ 1
Kie@@ 1
Tir@@ 0.7713976324386517
enko 1
vers 0.07605854792050967
Si 0.4544081665755243
mus@@ 0.1413714933536426
ual 0.11882381884911966
pros@@ 0.389273237764696
Mang@@ 1
SP@@ 0.605223380855368
plan@@ 0.14428691957968326
Dj@@ 1
dam@@ 0.20407098779761673
elles 0.11871257339271293
los 0.011290524202857555
ever 0.17383693921870666
nov@@ 0.5227965643484094
ịa 1
Aus@@ 0.05432807030498505
Queensland 0.702388309522406
His@@ 0.7682268311853586
Rome 0.3850933146357528
Alex@@ 0.9546050915266551
bri@@ 0.14542622734976102
AM 0.6081489349560967
Quer@@ 1
XVI 0.8433100395550522
ouv@@ 0.22461569039215026
ball@@ 0.37207974846329595
etz@@ 0.1639701433131594
Centre 0.3090529416216348
360 1
Hun@@ 0.5599277808504757
Sof@@ 0.6734940818599221
kat@@ 0.36104680114943877
oro 0.452990155080704
ég@@ 0.14889175703787272
tra@@ 0.12923462061104748
Key@@ 1
oud 0.5428467341252599
Ji@@ 0.8035989318275384
pos 0.2726047927280596
aut@@ 0.1837544625390107
org@@ 0.3004729387414042
sson 0.7167512295313451
ony 0.2183643398669082
ores 0.093306192742832
GB 0.8494256015322659
ix@@ 0.9915664934099477
Ł@@ 1
Ball@@ 0.47525519783759607
Boy@@ 0.6844863025736111
Bog@@ 0.6539305773293242
Toy@@ 1
rain 0.6143528622624556
Log@@ 0.6300212211563512
aug@@ 0.5945301059890948
quin@@ 0.6923246175059103
Vladimir 1
ander 0.7190322089901691
gas@@ 0.5057301255630546
hut@@ 1
illy 0.48471776227058705
Bed@@ 0.45622357185511087
AA 0.5422292503212606
not 0.022803658436957468
CS@@ 0.596354785311018
Cast@@ 0.6895869550005427
RI@@ 0.767424514445946
oug@@ 0.5312948931700461
Dig@@ 1
House 0.1239950455590787
NO@@ 0.8602353395362579
anl@@ 0.3610263358783733
bal 0.5199864789758178
gene 0.5756047763226871
kir@@ 0.4165047163749235
esch@@ 0.330997201489906
lim@@ 0.19557788988472702
Siv@@ 1
pun@@ 0.2965090281599285
ord 0.36040451408063634
Bob 0.5013386213784069
Phoen@@ 1
Kot@@ 1
1856 0.8271425837159807
Mississippi 0.7917366164204623
Prov@@ 0.6227600033105436
air 0.12174417810167988
ough 0.1403223044636282
36@@ 1
Papua 1
Wh@@ 0.3745988290008693
Ben 0.5305980909944352
125 0.9455749805802064
ante 0.05341089055245818
niti@@ 1
pon 0.511490592048986
Union 0.1308850483378798
usi@@ 0.25023301762753747
Les 0.043381896849721206
ident@@ 0.7177029482359257
ias 0.36138811849334945
Tas@@ 0.5722131824701975
14.@@ 1
Bom@@ 0.5936484174551949
wa@@ 0.4308360273292119
ait 0.0585136914830497
Maxim@@ 0.7957074236809893
ennes 0.23207914650207606
aman 1
Trans@@ 0.15837885280881508
mur@@ 0.21993879678475994
Carol@@ 0.765696421975254
ogo 1
Muhammad 1
Andre@@ 0.8185113813092036
Gö@@ 0.5159045974726276
k. 1
rier 0.5621259263294974
Gib@@ 0.8264644010810321
Hus@@ 0.6336085181734256
egr@@ 0.31979093839203576
17,@@ 1
Creek 0.38604462469757467
Sad@@ 0.8921928504190184
Theod@@ 0.7522725150073215
General 0.11356109072320002
Tw@@ 0.5720095953173654
more 0.0368697245531782
August@@ 0.9412429836708445
Bad 0.5356442962272374
Girl 0.8944577403679114
court 0.1856993780664151
eira 1
Rab@@ 0.511037857988128
Alfred 0.5519726069809251
nat@@ 0.3667158450761894
sho@@ 0.10584336256257099
Ẩ@@ 1
Roger 0.5880136426370387
ones 0.08760433801850481
ous@@ 0.36280559297620174
inf@@ 0.13431905742853434
syn@@ 0.19249601985418674
Phone 1
cic@@ 0.8458996870658166
On 0.0339652786672802
Series 0.327511027623748
bak@@ 0.6414478968995223
Apol@@ 1
Lec@@ 1
enh@@ 0.22804860051452455
uni 1
pec@@ 0.7853650597652134
IS 0.8302222930047518
North@@ 0.4447905730286697
alg@@ 0.1853933612060921
ún 0.5792105240991908
hii 1
Yel@@ 1
ext 1
Yak@@ 1
Port 0.45910882962401744
abe 0.3612785351754247
qui@@ 0.14706046280284998
Ein@@ 0.07123644845357478
mini 1
bot@@ 0.18057897023882805
ud 0.33358836908499334
Aqu@@ 0.6649820967911838
ingi@@ 1
teri 1
Lady 0.4870668828023739
light 0.13064428543909437
min 0.5904920354190701
1847 0.9421541052471782
arra 0.7830051975724764
Afr@@ 0.7402830004030204
Benn@@ 0.7624625926647419
ffer@@ 0.5423290835997733
EU 0.7403674360263827
Sultan 1
ago@@ 0.6734938657077192
Catherine 0.8276220018044828
Ś@@ 1
aro@@ 0.7743252377799464
Alice 0.8069332661494333
Ford 0.48859935993223563
HT@@ 1
Od@@ 0.8134016241276937
wich 0.7145693084559329
ñ@@ 0.2413573459280685
oko 1
amia 1
Hip@@ 1
sep@@ 1
Center 0.18819567412302626
Zo@@ 0.9441005108309973
Buch@@ 0.3392220313264181
Steve 0.48566650485706886
ner@@ 0.14575946658557026
usalem 0.7640059794013115
Cla@@ 0.6717276058710326
hat 0.08898629275631514
lus@@ 0.2639397389056968
MP@@ 0.6242583190418214
uro 0.5731920023702194
Fantas@@ 0.9944986562579226
kali 1
Aj@@ 1
eki 1
mond 0.3819090408090184
mut@@ 0.2506248150363345
ées 0.043322656886542424
Chel@@ 1
Gas@@ 0.4611024131919908
1,2 1
Radio 0.25119186250345277
section 0.17834983476477786
Berg@@ 0.32889829201449433
ister@@ 0.21464604421104277
Clark 0.6725796752810174
Fon@@ 0.6046325397710172
ej@@ 0.18284732257377295
ön@@ 0.17396582968504662
Harvard 0.6843939007323936
Margaret 0.745198819875933
Fro@@ 0.7808838941736477
up 0.035926611970879534
anger 0.2966854299952528
mun@@ 0.24061951528654038
1837 0.9939315636678165
apar@@ 0.419301100689091
formes 0.5779187764197299
wen@@ 0.16682268047373983
Syr@@ 1
ect 0.07818503165351257
gu 1
mati@@ 0.36496072830208887
eger 0.8694331698318057
Fel@@ 0.29183356675784883
Herbert 0.831000963817842
Inc. 0.6324493821808891
urt 0.6978819021976002
ust 0.20996689389686946
CBS 0.8834505281405345
Napo@@ 1
Jos@@ 0.565119150397307
cip@@ 0.2621320908784991
feld 0.2935768093670649
lio 1
1833 1
Chir@@ 1
Pass@@ 0.5087308739358494
Sir 0.283267084227801
eter 0.11823220917973282
Lon@@ 0.913122735922901
but@@ 0.36689913058350165
Ich@@ 1
1842 0.9986206410108648
Alabama 0.7146178687303594
psych@@ 0.34789219144903133
ump@@ 0.23999994035979713
Gau@@ 0.5891981530912574
Howard 0.5962855289879981
Jung@@ 0.9172079819912884
Rober@@ 0.6053622853247328
pler 1
yak@@ 1
IC 0.6958737637080913
TC 0.845381519643673
45@@ 1
Mass@@ 0.5071074093295205
Schleswig 1
Bell@@ 0.8034626523201621
LE@@ 0.7575019724231327
bek@@ 0.20235764523309488
Lot@@ 0.6799996735503823
Shak@@ 0.6731140354995088
Ferdinand 0.7639677175274734
Yas@@ 1
God@@ 0.6520852692061263
cell@@ 0.20444646488848542
eston 0.6910748961694088
Europa 0.28274051175267567
burn 0.7204275416809997
Guar@@ 0.561401942094814
NA 0.7494955165124706
Sierra 0.7722468606765699
Your 0.7431354300136422
aven 0.6962495375757932
amo 0.5918352239839174
eme 0.16155196957743423
occ@@ 0.2907169358466706
zant@@ 0.7417952220285791
Lig@@ 0.6032998494308422
Villa 0.5449797241788527
idel@@ 0.49863576498324286
Oxford 0.45844574739114446
1824 1
Kö@@ 0.6679634915527093
Zh@@ 0.9454132882231875
Asia 0.35141706505599823
Bell 0.6650714910814549
Ray 0.6593150377309053
hip@@ 1
Long@@ 0.6577494393731996
aft 0.14605213658029373
gom@@ 1
Augus@@ 0.488052121836397
Rog@@ 0.6276723678275891
amba 1
annes 0.8842261321981852
18,@@ 1
Hoff@@ 0.8802644842755848
Willi@@ 0.676989475945503
color 0.2733735666620554
internet 1
Kay@@ 1
bes 0.1795744967253344
Lau@@ 0.521426804361843
1852 0.8435697333745537
33@@ 1
af 0.3854962750484253
enger 0.3316082391247595
eh 0.6615788020198959
Luxemb@@ 0.8070040464645873
Nord@@ 0.18252222084652983
Neg@@ 0.5834902251550442
dam 0.5016707322018111
Div@@ 0.48858961846768434
Nec@@ 1
Nob@@ 1
Anim@@ 0.9013494920401612
Ind@@ 0.41357542571679035
Kag@@ 1
Miller 0.5616982535760816
aza 0.37848950434226314
ER@@ 0.4284723401988614
outh 0.21352532626893247
z. 0.4112465455017103
Pep@@ 0.9504657109387448
Princ@@ 0.4991613322680948
ider@@ 0.6282079819281062
kt 0.13047439599713997
1843 1
cir@@ 0.291697034523258
ize 0.2612460763667356
1839 0.9871828119104006
adel@@ 0.6132866990087977
ères 0.11187624832397479
0,5 1
Shu@@ 1
Alex 0.6823796501164063
els@@ 0.23046968582595595
Ard@@ 1
River 0.10581608352129873
UK 0.19708836242915412
HD 0.8782295088830101
ert 0.05702256668405948
NASA 1
No 0.2081472600245285
Lov@@ 0.7540252642828031
media 0.18187209203330046
Hur@@ 0.44286345678887007
University 0.04140424937878192
gar 0.30379528735635314
15.@@ 1
Rand@@ 0.563327052517229
dy@@ 0.9315009939096602
yer 0.1765240595615492
Grant 0.7759014423462327
1832 0.9905960156694733
Ferr@@ 0.4718184725012979
Jar@@ 0.648487936631482
Moz@@ 1
16.@@ 1
AP 0.49592270094429564
ngu@@ 1
Stor@@ 0.5326950164732278
pia 1
aire 0.050406880214648994
108 1
Glo@@ 0.8174931986848447
Walker 0.7423562461985234
ango 0.5550514249218004
Up 0.6412892434110146
cost@@ 0.2579149704173142
üt@@ 0.18984372897404253
LC 0.6454319083150762
Victor 0.5631455170100073
ally 0.025104603858334806
Colorado 0.5378982911134085
LA 0.5222075910162496
Boul@@ 0.552123957273996
ados 0.03882551980947304
wh@@ 0.10074643903865686
Arizona 0.5362649406303901
Tod@@ 0.3228283532126012
Down 0.7341240529505887
gam@@ 0.7222328442643278
Adri@@ 0.6094875535216533
Channel 0.5643821506496358
cal 0.30635663023632603
etti 0.4078613591956232
Mob@@ 0.6510181102849791
Venez@@ 1
Eric 0.6203665000752031
Bun@@ 0.5933298583114062
Kennedy 0.7313127744157754
chan@@ 0.25061638617042825
eder@@ 0.2867576076149383
tions 0.027974801131297435
Tab@@ 0.41114892441760265
Baden 0.6965474496103455
ana@@ 0.8379760950292933
1834 0.9909000788967746
Mé@@ 0.34782192851209537
bec@@ 0.7737959876804997
dro@@ 0.17866354408663554
ations 0.02008173049226399
bac@@ 0.3425579531433096
Ton@@ 0.5200518547346161
Wy@@ 0.707692575173573
Alan 0.637241377607843
Č@@ 0.9675248885531368
170 1
1827 1
ander@@ 0.21091080894873762
fe 0.15583844175315356
quar@@ 0.1287505403158175
Fern@@ 0.41890274417168144
SS@@ 0.555320994624347
Rou@@ 0.3690947881042127
pas@@ 0.10939544479128951
Kel@@ 0.5594302158292159
aş@@ 0.6182280506717757
camp@@ 0.2790085876512717
38@@ 1
ays 0.17982014919166034
Angola 1
ott 0.5669305281237219
uru 1
Chal@@ 1
eu 0.23685261335322186
Brian 0.5462929979409938
Mem@@ 0.32621398344338276
aut 0.13346948221713337
Final 0.41225825308069153
dale 0.6072793741857935
1855 0.7558437755854018
Twitter 1
vers@@ 0.09037037941660216
Gard@@ 0.65443185711369
his@@ 0.9593220500557519
oda 1
ann 0.3416145202201353
hot@@ 0.3761363317539729
Houston 0.6059635944818781
pet@@ 0.7037065557717603
Esp@@ 0.3823484972863215
oper@@ 0.08394811155093686
IG@@ 0.7232980870645379
then 0.04065523607723345
220 1
AL@@ 0.6019903075362035
Studio 0.6690190179770324
sex 0.2935584245334923
Jun@@ 0.5445886516463179
Lanc@@ 0.6096597985809246
uto 0.9886480713229313
Pop@@ 0.5438787661971409
win@@ 0.11005622624742172
aa 0.8646193044991008
Nieder@@ 0.2136712427797559
0,000 0.1932850959350051
by@@ 0.41325871497999067
elo 0.30716938791138637
ux 0.14919359054687092
Tony 0.48787427527076044
view 0.10245385057545106
High 0.1304551399544986
Zimbab@@ 1
ei@@ 0.532248727156958
King@@ 0.6322767791498723
nar@@ 0.39561282056069624
pom@@ 1
Franz 0.42059384741446576
stan@@ 0.4350578258183105
Lyn@@ 0.633499247914038
gin 0.41667218565723846
ár@@ 0.22921329552785197
aster@@ 0.5319012559791968
Jane 0.6701137161821484
First 0.16742166673957432
Que@@ 0.418462640627147
AR 0.762903748292374
anta 0.6752483724522017
hen@@ 0.5569262753734677
rig@@ 0.4544554951885764
39@@ 1
Grim@@ 0.9651849509727664
Pictures 0.9369122496430894
Cant@@ 0.6559911218129427
kur@@ 0.15810940869116027
ces 0.06632076871708742
otom@@ 1
ester@@ 0.5503803378210975
ism 0.08682262602585027
test@@ 0.24271174882556457
Spir@@ 0.6169465581497496
Hard@@ 0.48952711491477086
Wa@@ 0.5508505831344284
Hul@@ 0.760943501540753
mund 0.5631277482168671
cyc@@ 0.7033462625254449
ment 0.033457034203942825
ourg 0.8968386592583072
unt 0.3976466802352348
Nan@@ 0.9884733090829935
Fur@@ 0.3634080021178195
sam 0.680369954836501
Bruce 0.6949153729577825
alli@@ 0.19449409146841903
Bush 0.8789602913654421
Is 0.49684980419721636
Saf@@ 0.5998060740791221
burgh 0.3348967536707127
John@@ 1
neum@@ 1
species 0.08902936500616243
Bra@@ 0.7659943971153976
aç@@ 0.3575711779808842
lev@@ 0.3045548895018185
34@@ 1
109 1
Two 0.23597875063222892
agua 0.28525003206015054
Am 0.08833820422104435
now@@ 0.35661504414688006
set@@ 0.3841280861082435
sev@@ 0.7613777206373978
450 1
Guatemala 1
minor 0.4206014533606072
tari@@ 0.4425121472171294
{ 0.4390705448703109
Sali@@ 1
Yen@@ 1
ante@@ 0.8735141806821577
fle@@ 0.1610377364582971
Tou@@ 0.40685234992546804
cro@@ 0.11467414684863753
this 0.022124926603777323
Emil@@ 0.9245823070655795
Î@@ 1
102 1
Vietnam 0.4975419744397367
ws 0.13976422661123958
Beach 0.4504573530613928
evo 0.5547625260577037
wald 0.4021502946169626
IP 0.7596161300867817
Jak@@ 0.5924015917113684
Luci@@ 0.7309514917531357
1800 0.7018295009428507
Gur@@ 0.868392912604985
aska 0.9302905669757227
fran@@ 0.3091291847764433
indi@@ 0.16255556731317855
17.@@ 1
Mosco@@ 0.4392630848476684
mont@@ 0.36206359539056626
alc@@ 1
Prom@@ 0.5195502430392085
1825 1
Toronto 0.37636897154696497
Catal@@ 0.9100400841903373
Rat@@ 0.743572216651066
Rein@@ 0.4487991252675597
dav@@ 0.7437394618639879
syl@@ 1
eza 0.34600641599303567
1831 0.9598823458089213
Dance 0.7117286536546805
RE@@ 0.505226463095315
Abu 1
Um@@ 0.14890047291074546
allas 0.40171645117889554
70@@ 1
We 0.3310025621297225
Japan 0.1582011114277873
München 0.41578946609401574
Co 0.42502196642863127
Eli@@ 0.5430257539822477
Il 0.024532430310079727
Maine 0.7389470577308868
Will 0.7775043822195323
Sac@@ 0.5241874942214767
asti@@ 0.4113718081604256
Network 0.47122974608805296
apa 0.5254339097231177
olas 0.5654507336240301
Point 0.45917402601087765
ple 0.28475009186017913
Sund@@ 0.3830224682422535
att 0.5544416105247608
orn 0.6336616821960777
vid@@ 0.24974085299145476
25,@@ 1
ms 0.16029514934882003
19,@@ 1
Anton@@ 0.841218026243356
CE@@ 0.5252258626704309
Ni 1
Thr@@ 0.35035118980615376
Tim 0.7340669983649953
PC@@ 0.5697729606370889
dé@@ 0.022636852988269607
Old 0.2894423724876599
og 0.5749529730660065
24,@@ 1
enni@@ 0.4059179281020322
japon@@ 0.38954891524173446
This 0.03459897540626242
idge 0.33747426864675373
gre@@ 0.0633858671887521
bie 0.3906837637785746
hiz@@ 1
spi@@ 0.22953542294584947
uck 0.30516404532045577
UTC 1
VI@@ 0.6834728855219253
edia 0.9737897549272331
opp@@ 0.18468779548759268
tag@@ 0.2869510678011971
Agu@@ 0.701320409629925
auc@@ 0.4967291256359136
ako 1
South@@ 0.46759617168803025
ped@@ 0.4687041453556266
Sn@@ 0.9577607949678305
María 0.3109138725979241
mak@@ 0.14003164944046703
orient@@ 0.2861619215931934
Tul@@ 0.7711898831901227
aven@@ 0.5103316968137032
Under@@ 0.649271698662638
Dum@@ 0.8704684471160613
ż@@ 1
AL 0.8520861024923208
ight@@ 0.3604611742435738
127 1
blo@@ 0.19622239681530113
3000 0.7702400662946406
47@@ 1
ë@@ 0.5576883493840346
α 0.18063110057876983
22@@ 0.9447820808912331
ayi 1
Aut@@ 0.14147007167644732
Dow@@ 0.4525533581205637
Valley 0.273654135645202
TE@@ 0.6200779966107275
XV 0.6998361305318169
BA 0.4053167303724353
Play@@ 0.2248712235451826
Wayne 0.8539192409425631
Isab@@ 0.5543908334340755
Junior 0.44387318058481495
zu 0.014424802853353425
Dro@@ 0.5357495152750735
pon@@ 0.14997136126415955
doc@@ 0.16975267716703815
arren 0.5982581147750972
Pop 0.8501374147472762
Ped@@ 1
Vy@@ 1
1828 0.9957007437985796
Tag@@ 0.4453452341461175
You@@ 1
esper@@ 0.5286972376048639
unter 0.046078248620848174
104 1
Heinrich 0.3339536933382881
Napole@@ 0.7925345440288769
Fil@@ 0.20152195909534473
ader 0.32515656578658153
amen 0.27559805418976796
Russell 0.6706439458585639
Johann 0.2564930888445441
rea 0.30818657812080386
tir@@ 0.2119615513279002
XX@@ 0.6651873094908762
osis 0.39968974363662374
Anthony 0.5270802657204501
Ras@@ 0.6407841801756111
argent@@ 0.5463762232404252
kam@@ 0.5788298837378295
poli@@ 0.21955754583274562
4,5 1
48@@ 1
Bretagne 0.8300090073394422
May 0.057799476063438264
IP@@ 0.8991904766486845
urg 0.37696501833251667
agon@@ 0.4403082727687189
Digital 0.7812261246587434
pod@@ 0.9437851586316259
王@@ 0.23955577886568585
Hub@@ 0.7869637894401394
Cul@@ 0.2640031378858131
Miss 0.44941430747124766
ement 0.02313964631424585
å@@ 0.558700675026576
esse 0.11989216260572319
itter 0.7935822178047021
Mario 0.6594525184466811
Pier@@ 0.7232935587965136
Port@@ 0.4934785115640819
Prince 0.2904720533608416
Cros@@ 0.6671573830586712
dorf 0.298340595236197
enth@@ 0.26097668469781604
1835 0.8393121476363956
ely 0.050394291657438875
Wak@@ 1
tab@@ 0.22995261526531938
Jr 0.47272469195055894
ướm 1
Bla@@ 0.6895200449132549
loyd 0.5905811197536587
urs 0.09968067927962847
Adel@@ 0.5641366648065781
plas@@ 0.3922161628512199
Rum@@ 0.5265066938042379
Be 0.8066309667871316
20,@@ 1
ève 0.3293217395082847
Aug@@ 0.6020004243948293
François 0.3077931186013766
ose 0.2434674070591717
ğ 1
26,@@ 1
lier 0.3256149237881823
Award 0.1333000995549886
igh 0.514896232157211
ina@@ 1
nan 0.9311832724722521
inga 1
novel 0.2384139167318789
AK@@ 1
Baz@@ 1
cau@@ 0.7716571338363897
mir 0.5603430844095926
Land 0.20642292502188975
öl@@ 0.14845674726393412
Las 0.1117972894163006
ody 0.4042833501248583
ways 0.1253011098521648
hid@@ 0.5695402946070645
stone 0.21440337517021946
Comp@@ 0.36038268518396915
DJ 0.6815089896129249
Kle@@ 0.30046188038566374
Marvel 0.9164670306792025
Road 0.15234209141047436
anti 0.2061507221134602
asha 1
ents 0.025696150072011203
let 0.2099641428015788
acer@@ 0.6216175599297971
ampton 0.7148210747444472
190 1
Warner 0.7129553742526419
imi 0.551957520605599
mel 0.8289481553894674
nd@@ 0.4252721584448906
lins 0.5063563283935227
Chin@@ 0.7667975458255022
Deb@@ 0.2335812142500984
Isa@@ 0.69626762128548
Jacques 0.3233914802031879
Lak@@ 0.48045401282234035
hop 0.891362395793301
oca 0.5364109036377575
Gaz@@ 0.7558932810429935
ces@@ 0.16385676087499895
27,@@ 1
Bob@@ 0.5393085165992914
Hud@@ 0.6322473663326806
Ner@@ 0.8331218379546441
Ryan 0.6126891034466116
Nas@@ 0.705510580281575
XVIII 0.6147495212124395
320 1
Satur@@ 0.4594365033511302
canal 0.42169518343033013
gun 0.39079370920584167
ī@@ 0.6539092944331465
Golden 0.40778295587729846
cher@@ 0.2861448094497388
Band@@ 0.548902705177848
teria 1
ental 0.08061774239237995
Zen@@ 0.6360843750652991
ache 0.18628083512550617
18.@@ 1
MP 0.4783910363152861
peri@@ 0.2004608644819976
ave@@ 0.3865770071082063
23,@@ 1
tern@@ 0.23766442757249678
1826 0.9954908030428681
Kath@@ 0.3825345911556326
Stein@@ 0.3185156886867763
ches 0.07512577603369668
ats 0.05453114799610883
ling@@ 0.3528893082241695
tics 0.07224386600915546
Christopher 0.6348431710258728
ers@@ 0.5032116813820049
gem@@ 0.1390526842165245
agne 0.2725986578751842
rug@@ 1
Miami 0.5225332977024207
igi 1
Iz@@ 1
AD 0.4950944585633475
Lud@@ 0.685871324930778
Wer@@ 0.18707592547857255
Philippe 0.5276833379483171
Morgan 0.614607180006959
Samuel 0.43869488978269766
abad 0.5288393412229853
este 0.05906890651253804
Kap@@ 0.2666805394971704
mark 0.2106471001370005
metal 0.3146266590764462
Enter@@ 0.8129538927336136
MS@@ 0.7891442495725709
Zar@@ 0.72251896283203
Blu@@ 0.3279693620370454
Chor@@ 0.6545370161495192
Raymond 0.7638018179694585
Brook@@ 0.5047212959534582
Ichneum@@ 1
Fac@@ 0.2413737473695729
ager 0.1721091176063202
Geor@@ 0.41454479326362265
TO@@ 1
Hans 0.27279987523728644
Avi@@ 0.47682471037458174
Hak@@ 0.8930678842261961
sang@@ 0.7903451798997737
bey 0.5219551533796201
com 0.7710598637025198
far@@ 0.1550233067956338
mouth 0.40683849978267483
Kevin 0.5854916990204938
tac@@ 0.5269314283996971
Turk@@ 0.449461029447942
rep@@ 0.2861492513329669
Lie@@ 0.3187568131348132
Patr@@ 0.27459652087241243
anak@@ 1
Jim 0.41862446414578997
eer 0.2404701412726792
Nelson 0.631503873063518
sac@@ 0.2026514388570667
VA 0.8347972619933189
ehr@@ 0.20800709068154216
mexic@@ 0.676665278253387
Charl@@ 0.7391329737275572
ants 0.037174653805186544
GP@@ 1
Good 0.6066393044087924
Philipp@@ 0.707430498930805
Lucas 0.8781289067381559
aj 0.7053225132837319
³ 0.934468917584781
Gros@@ 0.8479496042230148
Wright 0.6839129486292709
128 1
Mut@@ 0.4895278707495937
Patrick 0.41848297480145885
arina 0.9380855525050089
ingo 0.5204461200840191
Vie@@ 0.4769061395194612
Cru@@ 0.6064598021278889
Play 0.6893169297299618
Pra@@ 0.4138919342475983
lich@@ 0.17766470702413226
107 1
App@@ 0.539971704896728
CC 0.5369636748282657
super@@ 0.11703461851713
20.@@ 1
zu@@ 0.16418037374384437
gir@@ 0.1530723680506138
nati@@ 0.24568693703976352
1829 0.9279794351460083
olm 0.6827810431454007
onlyinclude 0.5022468366168144
Hart@@ 0.5804311502499173
Santiago 0.4293527329168739
tad@@ 0.22239350301709587
Panz@@ 0.7436971946781321
eş@@ 0.6530487298683493
Lem@@ 0.6309353910573504
radi@@ 0.21042521027506939
tz@@ 0.6332510104238256
皇@@ 0.702560437297599
house 0.08786423110799925
Gener@@ 0.2847792682372677
Rolling 0.9429199395361245
22,@@ 1
Power 0.42646860263107234
李@@ 0.3192461567405864
Gra@@ 0.2887901957025546
aron 0.054670374092346576
fli@@ 0.6385685885049756
Mod@@ 0.23574026839809464
uvent@@ 0.9931795808536545
za@@ 0.5811083392664098
ayo 0.4399588661886072
fon@@ 0.13487918167585305
ights 0.1892564785199876
Heart 0.6788090695976798
now 0.062064925759046485
Kul@@ 0.6275833910143306
ph 0.5490984545361761
1820 0.5992274637669003
trac@@ 0.16489527789637415
wak@@ 0.40782748883263076
Carter 0.683348565182747
isha 0.834369414008678
SD 0.8992430925326469
gens 0.734357038098653
Aires 0.3794094317895078
zen@@ 0.36808430871916714
wor@@ 0.055704284781271075
Men 0.30654668611269115
alan 0.4421192557945579
90@@ 1
Melbourne 0.4449242829673659
ister 0.22737705987575726
may@@ 0.4237479239618379
oz 0.655304671285681
Robin 0.8230521353812315
üm@@ 0.26372259283156096
Jag@@ 0.5814711374136392
anch@@ 0.5592160463644159
uer@@ 0.14856963677107363
22.@@ 1
sing@@ 0.23093904197870183
Son 0.1521040695438286
alt 0.1784282956459881
oun 0.7929692803448326
21.@@ 1
Buenos 0.37669899675079477
1810 0.8627368449411837
ran 0.19345214896075189
DE@@ 0.4984988917941882
eim 0.3597872003547942
iz 0.4980337005924393
Mess@@ 0.4948962546923917
kab@@ 0.6029601326863852
Bundesliga 0.5968300390107051
sag@@ 0.5624995058980858
Barbara 0.6433826763180818
106 1
115 1
Cruz 0.490820644303213
ady 0.3308276614562486
anii 1
sl@@ 0.25960809364185156
tul@@ 0.5395902312257759
War 0.06296734190087568
benz@@ 1
cid@@ 1
int 0.26601713611137623
uga 1
él@@ 0.08952765850619264
103 1
squ@@ 0.20126364596492102
How@@ 0.692556145173162
Ontario 0.35100893419144186
Tour@@ 0.18395469186062643
bu 0.16209402318440108
lag@@ 0.17621107772450492
nucle@@ 0.33068347720355945
ful 0.09853012793826603
Jum@@ 1
mas 0.2615733378931126
rie 0.3414287178840839
Mac 0.8507799625123065
ā 0.9261151081203775
Santo 0.7224867280485537
main 0.0642851875078299
「 0.07921306138221734
Gle@@ 0.7043585240912218
Fut@@ 0.4299925307761429
Harris 0.5866741588339189
Home 0.34442432882062013
khe@@ 0.5762411932422566
anos 0.16465703555369685
CO 0.7671949391118732
DF 0.6545026452566709
」 0.07902790861629518
lik@@ 0.17046762871131332
model 0.20235957729364024
IA 0.8033517312815495
Kenn@@ 0.3532915146289624
uri@@ 0.7771882680157084
Lic@@ 0.7907375212289881
Yan@@ 0.6236196712463586
hin 0.4143634881101592
n.@@ 1
Mom@@ 0.7902518012123583
eff 0.6003364072787775
uno 0.12226967644166148
124@@ 0.7608059050595445
Tennessee 0.45395624035930937
Gabriel 0.5699225021327053
Good@@ 0.5734444875905063
Lord 0.22921612855327908
Lyon 0.516163420342083
Matthe@@ 0.5428670849392115
ital 0.18429272314842238
azi 0.6884791165262463
fel@@ 0.14285583378256667
vier 0.12497436442846581
zen 0.10533623225744893
Sub@@ 0.1774268676961638
mern 0.42204867295897197
yar@@ 0.5870443823898085
Card@@ 0.45230661322246807
oty@@ 0.42360539886160203
pri@@ 0.1395932376592014
Sebasti@@ 0.5178194629163525
borough 0.3880659436506273
das 0.01091745439646325
Adolf 0.6765980087297305
fili@@ 0.7461671556573564
hard 0.21162008289845563
ser 0.06426077736072011
other@@ 0.3246647045209448
} 0.43450054347476086
andi 1
tit@@ 0.11027014763595047
Anh@@ 0.4612651882282284
ams 0.15821800540440914
111 1
Dipl@@ 0.6777220581339531
PE@@ 0.7357505460824882
Jud@@ 0.25241363983151804
lard 0.5174126231961101
oper 0.45577046646092745
Orch@@ 0.8832144425236649
Web 1
113 1
135 1
lers 0.145405469936005
Rev@@ 0.2833528229688509
pper 0.38036390321778685
tico 0.13823156170826637
Coll@@ 0.3911365974752084
China 0.10821149208894468
Sey@@ 1
BM@@ 0.4688758807584424
Jimmy 0.5888681131102944
Dim@@ 0.8994480295150841
Ray@@ 0.9668194195733002
Ses@@ 0.9091930583243362
fac@@ 0.040268234268077144
zar@@ 0.6193938577169825
Sek@@ 0.35459225592291344
dies@@ 0.5584544090588593
itt 0.4706793600607626
that 0.005077262684676757
İ@@ 0.3509496314107478
eb 0.6111212822393549
Bod@@ 0.3390983389802335
Luis 0.27374811815517297
oss 0.4741721770139716
240 1
Post 0.29044521127297684
kom@@ 0.0985311060837682
mani 1
Association 0.10642341651528528
sha 1
Bres@@ 0.7054559470780482
Story 0.7274427449919997
ology 0.0646828843838345
Fort 0.25645783634246183
Kak@@ 1
Ou@@ 0.519021900648446
dil@@ 0.43367292487805437
leb@@ 0.35080061588973244
mix@@ 0.1731785283425405
augh@@ 0.3791338224284446
Orange 0.6656405118424674
Penn@@ 1
Ern@@ 0.3207167877273235
sap@@ 1
otte 0.3440337099135925
1500 0.5257045405856162
46@@ 1
IBM 1
ayan 0.5739586098559846
mang@@ 0.8675821091792024
19.@@ 1
BO@@ 1
eland 0.41832388585277097
yat@@ 0.7699733632484387
Type 0.7283794232863773
idad 0.08000931615558345
wi 1
Pow@@ 0.48130330347019906
Sea 0.3023579242410246
ef 0.16495855879274512
Hut@@ 0.8218944932293862
Monte@@ 0.6694458789036747
Paraguay 1
his 0.006268072018445579
vil 0.30819976621801587
Manuel 0.32569098027652316
ao@@ 1
coron@@ 0.682852498989382
1806 0.7977448674714536
MO@@ 0.7338228694454584
rik 1
55@@ 1
Charlie 0.6201540450556482
Roy@@ 0.5617678512687582
Swe@@ 0.25861630993752266
ilio 0.5816007618352755
Vincent 0.5720104402819176
emer@@ 0.31099112996736794
Alber@@ 0.4477093993036002
ahr@@ 0.1953556194929266
area 0.04840869715070227
Ö@@ 0.2732186700749533
peti@@ 0.18325562631071698
21,@@ 1
fort 0.11492048093924125
Coun@@ 0.3157562389974898
ego 0.30468928461532974
ór@@ 0.22443493003207496
100@@ 0.9508267402686988
ague 0.32170608647037235
tot@@ 0.19305636427510867
iler 0.21837114617186823
ason 0.20220917732359409
Cum@@ 0.5792838500482081
Fest@@ 0.3921560756436073
jan@@ 1
210 1
sun 0.8805572642436917
eles 0.3480918462783124
chor@@ 0.40663443083856543
Festival 0.1332086123164255
sion 0.039545178621102954
ted 0.01617695887176543
track 0.12140897120504504
Budap@@ 0.8175501980534183
Sarah 0.5286925288891098
zur@@ 0.6991493356334567
ario 0.07124172342665054
plo@@ 0.6530605574015502
tem 0.5465771271286477
André 0.43495545729065116
And@@ 0.564527564201536
rod@@ 0.7069143322082142
uba 0.943192606548879
ın 0.14525634927214076
rog@@ 0.521027968638974
ection 0.07634220908692713
wn 0.07977937739293317
Pays 0.5433364064633452
heim@@ 0.3606254315475811
phy 0.30638541103661315
sou@@ 0.05761617352470805
Wel@@ 0.3004628092964776
uli 1
AG@@ 0.7934671663124934
ique 0.0804190697922033
65@@ 1
okia 1
onga 1
ustr@@ 0.30160657730945317
yana 1
abi 0.930301744168525
1801 0.8951177017781446
DI 0.8678109465720012
Chr. 0.5605782179518973
ŏ@@ 1
Boys 0.5444199652054791
Las@@ 0.6707133656348451
dos 0.04918606760642334
tepe 1
blin 0.3958033965001028
cum@@ 0.3120143200875465
aver@@ 0.30433900307996453
Han 0.6915637020581559
jazz 0.4482661442331122
Nap@@ 0.6767800522657667
Kamp@@ 0.33448600395219613
acy 0.12106150885321762
hil 0.5829925067389896
Jon@@ 0.7056505367591278
Neu@@ 0.19688953717910862
Santos 0.8082146185051321
plus 0.023296672814144867
IE@@ 0.6307104086845375
Roy 0.5605569794621542
Stre@@ 0.23254992369272015
wick 0.5101487215673056
XVII 0.6805377252773236
ture 0.048776218409363276
ating 0.03216148821545682
1812 0.6268467028696135
EC 0.8375986886720044
Eth@@ 0.42074195747496784
IF@@ 0.9064287738269968
afric@@ 0.6343543754300681
IT@@ 0.550051030607743
Jason 0.6433537061130007
Yah@@ 1
atic 0.1594128154367045
base 0.09598470336389
mail 0.6852618228316072
oux 0.5734981024571282
1789 0.907745058995255
Fol@@ 0.17744815730310587
lem 0.18421326263325422
.S. 0.8722613941800959
Andy 0.6384489288519285
bourg 0.2572929490426615
into 0.021571438797897354
AF 0.5003058944959858
fen@@ 0.2329958001969752
Leopol@@ 0.7077755608027841
mon 0.6256637541427903
lec@@ 0.2226022888902433
FF 0.7038347381491448
Maryland 0.43463722782682357
clav@@ 0.7618002192907775
Feder@@ 0.32820690644775424
Kır@@ 1
conf@@ 0.10324180565300264
etr@@ 0.3694611650085518
Tap@@ 0.8989758807705702
ild 0.4643298011931786
occident@@ 0.7767763230055166
ono 0.7078615000103164
Arena 0.5543899722313256
aye 0.29805759296785556
cep@@ 0.203512578248752
AV@@ 0.8648302650401346
Dir@@ 0.5905652047936932
Shel@@ 0.6628370075415568
Amsterdam 0.5829451662098409
ahn 0.41945759435683844
oya 1
1802 0.9497792920795123
Kelly 0.5396587764473004
Light 0.47434946112243725
Like 0.3819986918786931
System 0.24231521465926925
What 0.4631826202177564
Gordon 0.4626112408965522
Leo 0.6954003898582269
Palm@@ 0.5473407337399573
frag@@ 0.24047343891150405
112 1
other 0.02114565406538761
Jur@@ 0.355257979539466
tax@@ 0.2968402034443344
ôme 0.469518507835834
alo 0.3617291413980497
æ@@ 0.607230343146671
49@@ 0.8790662254180985
Cou@@ 0.5356594983634814
Mau@@ 0.46450325003800197
ahl@@ 0.2005640762464484
net@@ 0.23408298863931376
Dream 0.8610633654346491
arti@@ 0.17208838793570722
Daw@@ 0.5591424247990682
attle 0.3403592634873584
Clau@@ 0.6059186407362513
Ut@@ 1
ape 0.20948267871213164
aun 0.472222428840369
plaz@@ 1
tes@@ 0.3318060316428442
Wag@@ 0.4326061323487394
duras 0.9058548685211953
you 0.15970547672959837
ác@@ 0.3616954017629716
nes@@ 0.5664189910012696
tier 0.20853078649139287
Universal 0.6033662003273664
etto 0.7529391947784625
1821 0.725172276678397
44@@ 1
Nick 0.5676486672031115
see 0.09825815169967768
sh 0.4173936760843333
115@@ 0.9050547143878278
ABC 0.48401382955717615
152 1
aud 0.26854223663402677
onu 1
ender@@ 0.46953356319008194
lif@@ 0.3174068055458766
Hein@@ 0.4423368310018237
Ross 0.5090225965932498
illes 0.31628538681647617
Chall@@ 0.3781479406054979
aban 0.12800633375188508
ble@@ 0.20129034939809812
Dark 0.689969660014817
Lé@@ 0.3513883890294419
ills 0.14544276981761872
pig@@ 0.8581159476764088
eler 0.21894215406399953
forme 0.11738388037734643
vor@@ 0.038283982094460635
bas 0.38539847671198985
Salvador 0.619996664897052
ells 0.15395427056861033
German 0.08113512595129067
23.@@ 1
how 0.14110316278169038
State 0.054729958209187975
try 0.09515600580390488
zur 0.03324553279191595
‎ 1
fes@@ 0.24415647096470725
Anat@@ 1
iller 0.16383784945169466
out@@ 0.07709575615825284
tom 0.27221600660963924
clar@@ 0.43609375134403605
Benjamin 0.5096359284368499
Cec@@ 0.7358324920748293
ris@@ 0.13469783512469868
cru@@ 0.16844923150582758
gs 0.17294527432197287
Vall@@ 0.5244216980255428
lands 0.09292774272468503
Cad@@ 0.4849643054608375
Leb@@ 0.2889428261827446
act 0.07673332029369669
inda 0.9090999266192603
Giovanni 0.5929461348743589
Hamburg 0.31888072056997635
Vog@@ 0.4319518986627726
wen 0.4285632563039021
ï@@ 0.12574906370314054
ır 0.4082337764847466
Dan 0.5061073991843277
sta 0.39818232844602874
sula 0.3416553217509107
ML 0.7855579693602689
Rach@@ 0.6879351014964544
egas 0.4987033003043752
RS 0.5348366358824405
back 0.05073398688392445
zo@@ 0.5624846029897681
Chev@@ 0.5415527663479793
Project 0.3943681430515966
tron@@ 0.24076218085908654
ward 0.09675039149860443
75@@ 1
Stockh@@ 0.6397024695801016
aden 0.2680713044763634
oes 0.3488343554674533
Indi@@ 0.12357446743200758
Raf@@ 0.9420395155911953
lara 0.3007408698465679
Zi@@ 0.23957975771174472
zon 1
750 0.8632471464228811
High@@ 0.4024593057657329
230 1
Stewart 0.5512431887420897
dance 0.3350695589032315
sign@@ 0.12809874485357345
Franc@@ 0.47038438296897284
án@@ 0.13994498339543676
š 0.7131116775939464
Reb@@ 0.3203784855597883
Oliver 0.6039606677865733
RT@@ 0.5373369406203954
aker 0.27148197382699174
Comm@@ 0.19307207509975252
kina 1
Water@@ 0.48022905566524093
lip 0.5133391095297033
Wolf 0.6439372477566522
castle 0.3093524552766472
Cath@@ 0.3788402577630086
yes 0.37285367804730885
Fa@@ 0.45833494311613665
lab@@ 0.14979562159136578
nas@@ 0.40710585800677535
后 0.11208841512766775
Foundation 0.25275899400774254
Laz@@ 0.9702437656285853
Tig@@ 0.42920257124973843
grap@@ 0.45534299034347453
vey 0.22991365582672324
To 0.15435424663615227
atu 1
Tow@@ 0.3355154647143525
ator@@ 0.27075376616090363
cle@@ 0.12449012116590727
kale 1
Atlan@@ 0.6086843992876928
Christ 0.41377496737103914
Jay 0.6946696552107302
Office 0.2589586868560887
PO@@ 0.7541580090640578
rez 0.3582320835594069
audi@@ 0.18134441916071065
Ass@@ 0.5524815303425604
Monte 0.6168175859806158
uel@@ 0.33252901783529004
ses 0.022036819868969687
tran@@ 0.17200892314524335
126 1
天@@ 0.14390489037479062
Art 0.09458395198625333
Robinson 0.5601515697623264
ancy 0.2687497654958798
That 0.22260290781966272
ards 0.05819751315202276
August 0.03387502109417902
ISO 1
Singles 0.4323050390284365
eran 0.09226031449567994
iku 1
jar@@ 0.6846797444370948
her 0.012676890245359895
kel 0.18092281458698642
Line 0.21445025458582165
abra 0.8588774639410243
Phys@@ 0.4657067109060889
Tek@@ 1
fun@@ 0.10981357690780268
Ib@@ 0.5879180069707279
duc@@ 0.12878388426440884
Frankfurt 0.3979479539662901
Hoh@@ 0.3843831287078617
ough@@ 0.18719474800054892
± 1
ë 0.962668568087869
280 1
Out 0.4291089684199344
ative 0.031824153591104826
zh 0.6231011536608313
que@@ 0.21835797183337513
Et@@ 0.24829287784160037
Way 0.5657464691332716
uz 0.3724711603858196
Austin 0.5342585250761703
Pho@@ 1
bras@@ 0.6715216657593827
sos@@ 0.9420993124274684
Viet@@ 0.9096262629470484
speci@@ 0.21832368957273207
Arab@@ 0.23120490023529913
Columb@@ 0.8508010500808487
He 0.00914836209571119
Kem@@ 0.8321528573843171
elen 0.21635054795657557
tal 0.16711400954967795
Ž@@ 0.8865751566006943
Rodr@@ 0.7187064768114824
dian 0.4740379955851103
isch 0.055799549634450434
unga 1
census 0.17352667179287093
unge 0.4265291715724044
vent@@ 0.09210657176319521
jan 0.5727574603126783
122 1
down 0.06662835577491556
riv@@ 0.2184675254774859
very 0.050738716799465504
nom 0.07462974842560571
Mov@@ 0.27520656902306617
Valencia 0.6619228498633797
wanda 1
avi 0.6897530215646744
gil@@ 1
Abdul@@ 0.9973704806504208
Castro 0.8347309903003698
Sports 0.2719008641249601
Tes@@ 0.806168245062733
Yar@@ 0.9865802535268788
def@@ 0.056464823892252776
adu@@ 0.5980428931018897
ares 0.10939463945737081
tif@@ 0.3677654898637507
cover 0.18599479809087902
hur@@ 0.2585723450332249
IO@@ 0.8981165929466431
Roman 0.13751430330917713
1805 0.892508581230632
Michel 0.3124231086982316
Pak@@ 0.487600466982433
PP@@ 0.8693617353194463
ayn@@ 0.8040299651042646
var 0.432078833911911
ley@@ 0.2662282169163837
şehir 1
GM 0.7083539412799008
né 0.07314917416402872
Fernando 0.39631176549553104
jam@@ 1
Eg@@ 0.48594338057949327
Global 0.47251035431254845
Hey@@ 0.8359937494482019
Women 0.1441751952932009
nier 0.24155627283961803
LO@@ 0.8381460434548839
Wind@@ 0.3677080110733857
Zam@@ 0.8924360346330719
dio 0.1453219276033798
Central 0.10444279514145563
Hali@@ 0.9096033228647568
330 1
chester 0.312307164652037
5000 0.6993836475176755
123 1
cav@@ 0.21861782002379934
Charlotte 0.4853524182520597
cab@@ 0.12868957446308607
phone 0.33154037092780864
prin@@ 0.18729045062695443
ME@@ 0.5180945219485985
BI 0.5238819637182853
oj@@ 0.6711453375405015
Square 0.4184280362221501
太@@ 0.21503627589092386
1819 0.8467382037196771
cri@@ 0.07783019452998821
SI 0.987079946578719
rio 0.6974342957603884
sex@@ 0.33910099652629916
alla 0.3447696231414397
ought 0.12313941674884474
Ander@@ 0.5010581701420801
Jacob 0.5116843794862987
57@@ 1
igi@@ 0.41221645244088423
nik@@ 1
rom 1
ums 0.0860820011375586
Denis 0.667258356582301
ois@@ 0.35602949168767706
stadt 0.11520959983988964
文@@ 0.11669689332841882
Bé@@ 0.5595388917764862
dir@@ 0.1860633522207693
wel@@ 0.16366874827802952
inst@@ 0.0772136227363644
Janeiro 0.75548970941921
onic 0.3890293322206821
→ 0.8628808373127943
Gem@@ 0.26941589681811773
260 1
ş 0.6532086227623998
oks 0.2386166864197835
Batt@@ 0.34106387827892737
ren 0.6410346694446691
Ă@@ 1
sand@@ 0.40672473944647136
7,5 1
Ha 0.5712260171787177
Iv@@ 0.5556662937497348
Lo 0.7888742649395992
cus@@ 0.11071586302330476
ric 0.3806675167788797
star@@ 0.09605903521219122
Kut@@ 1
Math@@ 0.2613691433062297
Tax@@ 0.4264454727144341
vern@@ 0.31381802600472347
1818 0.7372967767947219
them@@ 0.4905132245587435
201@@ 0.6647494822256629
Crim@@ 0.48563254291160873
auch@@ 0.6058662034029842
fru@@ 0.23866264703995083
edr@@ 0.21929547537166336
wid@@ 0.09684325641248306
vec@@ 0.29441419680424424
azar 0.5919589254652546
enge 0.22565115865351812
inos 0.15727710482938653
ior 0.15267215183302293
neur@@ 0.2643956259328815
trat 0.13302991827328103
INSE@@ 1
ondo 0.9273101361005665
Kentucky 0.4140739936204359
är@@ 0.07951936746941446
43@@ 1
lyn 0.4099907883690927
spr@@ 0.07760392140509917
Daily 0.5465618752083182
Was@@ 0.5979104541784492
emat@@ 0.5344696016916083
part@@ 0.07195263114245691
Say@@ 0.7119358303729146
iter 0.14066974766157558
kul@@ 0.16404093267877065
Sound 0.5042243429326714
124 1
Nicol@@ 0.5259876322654227
aş 1
Ü@@ 0.4578390557533921
1815 0.5491978544025276
117 1
Pay@@ 0.636825254041678
Poc@@ 0.6795996768492961
hav@@ 0.18450306782197123
RT 0.5290337515483751
SN@@ 0.5648456263712551
cos 0.14779465257972738
namo 1
Stanley 0.4916975152356948
aum 0.24577683356056845
ović 0.6305556814567871
Bernard 0.3865211593830286
Lad@@ 0.5076997371972736
Württemberg 0.6650806222869247
Koh@@ 0.39728607743314015
elin 0.7590757255988801
Leh@@ 0.34860751906786863
Run@@ 0.4929110934315084
kim@@ 0.9554443039888579
Atlanta 0.427720065861851
Dru@@ 0.29502551388378556
lis@@ 0.4661179490616246
bun@@ 0.33644468856957005
olan 0.14284915790053962
155 1
Georges 0.3945340781695058
gul@@ 0.5669652701251185
ness 0.09011302543749139
Gren@@ 0.5255839440103693
Jonathan 0.5758349775893088
a.@@ 0.5798652736261651
craft 0.4562999045491689
CEO 0.5004078854239148
FM 0.25511046033905416
Map@@ 0.7084122320890391
Matt 0.5142716527015986
has 0.01024407057487326
nin 0.21071513681090756
58@@ 1
End 0.5169775702210747
Riv@@ 0.5535189527544693
elop@@ 1
qui 0.0124941116588244
igg@@ 0.3076221269796443
Johannes 0.3605221966000335
lake 0.3318525911234648
rid@@ 0.25588129138147375
sik@@ 1
Nord 0.16700377683773213
hap@@ 0.2076336735288112
hatt@@ 0.5085228963258
« 0.005470733076186621
Songs 0.44410258749486037
aup@@ 0.4619872682441509
ods 0.09276533634564975
core 0.26763501838725506
hon@@ 0.14642772367308288
less 0.0753956605179225
270 1
Sá@@ 0.5568694163264996
rati@@ 0.14233662651746898
ège 0.24395268278522667
Ré@@ 0.12991256632687806
Book 0.30753279793374216
ders 0.0902123069195442
kun@@ 0.3846486879266605
onym@@ 0.2913444910835191
post@@ 0.21180076307934187
star 0.1977340522106575
RC 0.4105948842645296
kw@@ 0.3474517749595345
live 0.11026235680307836
ıy@@ 1
Capit@@ 0.4121427145781241
cel 0.41336590970532494
Anc@@ 1
Hay 0.6939623771280055
tei 0.5181116647049037
Gold 0.26660626556067285
Miguel 0.33447993401441256
England 0.07337982013784275
ru 0.9518645859537185
Ris@@ 0.5685671489987068
mid@@ 0.12187990466443789
atori@@ 0.45303328682063676
azar@@ 0.5767419687920878
1814 0.5817886592087083
Produc@@ 0.27374648992953676
Ret@@ 0.3454911170501163
Uta@@ 0.5321883534388536
1804 0.8424598933703765
USA 0.1420173447640262
ink 0.2014050039890726
1822 0.7647885246993673
etti@@ 0.6169867160456941
£ 0.22301223201983536
üz@@ 1
rid 0.4917382237785072
sat@@ 0.17291962499588182
1823 0.7856234464834623
Engl@@ 0.6719244329615716
ML@@ 0.41321308153131087
Mann@@ 0.2294534056161793
Song@@ 0.98673431098899
fri@@ 0.10173690877076307
prim@@ 0.062046896670876324
175 1
Film 0.07846543194959564
ña 0.16625586977210854
mec@@ 0.54329054361353
118@@ 0.8211919632749183
116 1
Griff@@ 0.5349733512812495
119@@ 0.7422836784174833
121 1
Press 0.3109707866765701
eds 0.11345843854011912
seri 1
serv@@ 0.07315200479118755
tas@@ 0.21951020966121793
anj@@ 0.48876262159130324
rur@@ 0.5660909541901255
war 0.010108188798038157
Jack@@ 0.46188681010915233
abri@@ 0.3412539468096323
tsch@@ 0.29197722067322557
val 0.4134167998620574
wards 0.1676516445636423
1803 0.7041248979456313
kes 0.35504715657332325
nm 0.9926065672624299
bach@@ 0.29623647465151776
form 0.03879802642105174
ingia 1
major 0.06390413872448868
Claude 0.38192151025619414
Hermann 0.41146646089046324
Num@@ 0.2626064839701334
Pam@@ 0.8545031314906307
Society 0.11063818360919937
lot 0.0972776222188844
lun@@ 0.5244047993118385
www.@@ 0.779873415102266
ửi 1
Express 0.42930558843009
Nur@@ 0.5812343837885621
Vig@@ 0.9513128339532597
iken 0.40139417019562545
ț@@ 0.9954173442244333
Stil@@ 0.40410143614047866
stanbul 0.8075615247218315
Who 0.5041008579049098
550 1
cali@@ 0.36282487090629983
Pear@@ 0.44407066297908493
altar 0.3963623111247123
Mars 0.6086809951767083
prise 0.17532179514514798
ador 0.05590878103709974
Martin@@ 0.6492146677491796
angers 0.31136389276073384
sab@@ 0.21150592729049938
Copa 0.2618093425564392
Haz@@ 0.6184059966066217
Sky 0.5769503688609695
parti@@ 0.08347681615184911
Ż@@ 1
End@@ 0.40078987033885627
Kop@@ 0.3057989386023937
Louise 0.5566570726619874
Meh@@ 0.6672717121112693
Mr. 0.32335640388455106
ern 0.03909094014647534
nav@@ 0.11209641518035783
pag@@ 0.311099684079035
obi 1
red 0.03005649717121852
sel 0.1578982309318286
114 1
Dani@@ 0.6136837703082254
Emer@@ 0.3826520299701265
atom@@ 0.2936824335242371
med@@ 0.08154775651795895
rad 0.397544213081568
Just 0.5231941195633181
pend@@ 0.19788953094860334
wall 0.22406975170435225
β 0.690766482305278
56@@ 1
board 0.12378058331198585
ilo 0.48945699835692363
Master 0.2764264009669796
1813 0.6365757655739639
Fred 0.52954914728224
Trav@@ 0.3822826348053151
zer@@ 0.25325839465357486
Top@@ 0.3928960315267255
118 1
145 1
AG 0.27623812756908156
Fili@@ 0.3130524343570023
ends 0.0777751860575799
1817 0.7398993111344253
Earth 0.25502246910049864
Gün@@ 0.6521268900550219
hil@@ 0.5540133510329982
integ@@ 0.4297238144061625
stell@@ 0.17577635778618722
SE 0.7136570669754565
Sainte 0.3864342120979645
公 0.6142633645174772
Jose@@ 0.5208391186643492
ilian 0.29875175895809114
quer@@ 0.4651621876675988
Ð@@ 1
ạ@@ 1
ladi@@ 1
HP 0.7961060432273712
hara 1
» 0.005141350864520715
Johnny 0.4519010759463257
Maurice 0.4072460569153431
troph@@ 0.5697391111210555
és 0.015723776432970696
Ges@@ 0.09557242329248287
bor 0.34954860389717884
imar@@ 1
ties 0.03758657458510062
Space 0.36180665030187653
ock@@ 0.20842743395230315
ying 0.04904649780662624
dar 0.18161376894024492
logo 0.3250247279833749
sak@@ 0.8492930192221001
yu@@ 1
Athle@@ 0.2321540597573983
Opera 0.4611621860682742
een 0.30037583859385086
Back 0.5433792078572828
bis 0.015501199910773854
ems 0.07372696829772911
pit@@ 0.25323269752562344
éc@@ 0.11486699128217112
emati@@ 0.1198778847384009
gang 0.15289434624755494
Last 0.5032024873339223
Off@@ 0.12151063730694568
Rosa 0.558998552978954
nen 0.07839562325201387
Arts 0.12806700436659058
Sl@@ 0.4770537895140894
Fire 0.4170688086928418
aves 0.08585054762223877
bank 0.1765310882210425
ouver 0.4546704554102878
Iron 0.5269008139400327
eg 0.30779148371757076
trad@@ 0.27334218875109334
Rel@@ 0.0992168827659816
quez 0.5722110104004317
viv@@ 0.1349328503374244
Science 0.16811519338343536
eine 0.009620181556164304
endi@@ 0.1428452256916444
129 1
RA 0.40309846055204196
Asian 0.23036589237676847
cht 0.08399217702175016
iva 0.3661863876343952
begin 0.356588733193851
Day@@ 0.572078629346636
Dead 0.578491983454063
ener 0.1180114382820511
Syst@@ 0.21396131712081382
Billy 0.4537204824114294
alls 0.07956741936436086
ç 0.39267877519014843
auer 0.1301635631947719
cons@@ 0.059727533454477844
dition 0.11571170741370936
enda 0.21780985460764518
Aş@@ 1
Kno@@ 0.4105248231827254
mit 0.006314414774752787
Well@@ 0.4209307505660438
ause 0.15893477979243087
ige 0.04478099265551535
vat@@ 0.9869083144649763
wr@@ 0.1717929865701203
AB 0.5867447199263371
kaya 1
Prix 0.20354287171963284
kö@@ 0.3008588947064235
onde 0.3539603941049632
yaz@@ 0.4008248767352453
Ann 0.47746788267991597
sche 0.12573477481969367
53@@ 1
67@@ 1
sid@@ 0.46709149458359417
under 0.02354347288891456
Marc 0.42562916728212674
arab@@ 0.4935516766456578
ư@@ 1
http 0.9701231447605346
EM@@ 0.5574887276026316
rates 0.32360259866949637
­ 0.6872107928106349
č 1
anya 0.7321416151137177
eka 0.7931957001418073
ilg@@ 0.7871710086602124
rus@@ 0.37295588363248383
Forest 0.31786941127501983
Kent 0.4479808492686204
Thompson 0.4522482505581328
başı 1
ograp@@ 0.2363447691228342
rang 0.43207378693073456
tory 0.17282894693779596
68@@ 1
Gary 0.5036214247151847
Spi@@ 0.3164142553406585
Yer@@ 0.9824835338366626
imo 0.4038180563645354
县 0.1715622043907431
bian 0.34396121845334565
studio 0.12431276988421681
versi@@ 0.1119785182878702
arch 0.18712886963898528
eber@@ 0.4852941000940695
oman 0.43932979466474076
Imp@@ 0.3781213063252815
Zel@@ 0.6663571321278793
Kızıl@@ 1
Tah@@ 0.8360197475610724
ingi 1
Gó@@ 0.6754966813630583
ingu@@ 0.21805169320705742
Nicolas 0.41115292786894625
fish 0.23107703095008167
Ek@@ 0.9365256208793672
Rak@@ 0.6481497599797906
ree 0.23097484311183164
Marse@@ 0.56652712423102
wit@@ 0.2720930307465438
Connecticut 0.4101563850915067
iba 0.7347051787379597
ots 0.08445643750877695
Sud@@ 0.3255715940513907
org 0.6245017334983786
Western 0.10987883826828611
Sev@@ 0.7554511821934725
ien 0.039294006859850066
reich 0.2777993873659616
Gott@@ 0.5282682408687224
tun@@ 0.1560045780821615
子 0.07124329086149961
\ 0.4745858863982575
Empire 0.13614070155390504
if 0.05571701668052218
kol@@ 0.26273453077738423
ush 0.3309211194519998
water 0.05838707037959727
DV@@ 0.8923999716493164
ể@@ 1
anny 0.44369594886344577
Form@@ 0.17269852609238734
ehr 0.21686787422147644
kshire 0.44417521204772653
Pos@@ 0.3776629068161837
ism@@ 0.285921696339709
cu 0.7576693230928189
Reich@@ 0.21285774780028735
ibn 0.6137132383180746
Berg 0.45924486902923445
crip@@ 0.1462019963712407
Journal 0.24124326602418988
cera 1
tn@@ 0.219665267390886
pot 0.38205848134154713
kus@@ 0.44887933577413014
Cri@@ 0.22357502346255864
Ian 0.52619851281812
boy 0.2684697574527967
hard@@ 0.2198805703825303
rif@@ 0.2668392097008875
132 1
Art@@ 0.5130409354898595
114@@ 0.8414363957789066
1792 0.6975149643381102
Rech@@ 0.2795273665030898
eshi 1
ır@@ 0.3677329828065758
Hugo 0.45460557668769647
Sok@@ 1
ision 0.1619222096090888
kas@@ 0.5017234036698683
ment@@ 0.11966282182279168
Wah@@ 0.5729890175886291
vet@@ 0.33013422137885023
Main@@ 0.32225835117177426
inn 0.3289086094951318
prol@@ 0.4159608681390926
uda 0.7288378561260774
117@@ 0.8547147145593461
650 1
Diam@@ 0.4787249984608438
aji 0.6962591932662624
Olympi@@ 0.4066385510271952
cast 0.08693968705296118
kara 1
stein@@ 0.32808923758973085
Alger@@ 0.6892549355255472
113@@ 0.9232023399593088
Law@@ 0.37026571756713966
bei 0.01561914512295239
mek@@ 0.9212361488683076
24.@@ 0.851530168516634
cut@@ 0.21883707305294378
pson 0.7184222459498208
sberg 0.3680270822356598
blu@@ 0.1812176380882017
ườ@@ 1
Bass@@ 0.4765311040141991
cad@@ 0.1795605286974093
stre@@ 0.08250367872978932
， 0.002365671546536791
allo 0.4372898560978853
alta 0.4037027971154785
dom 0.29167831791452337
ads 0.12022774609046483
ature 0.06840293443834371
ains 0.06203185711747332
esses 0.10196325226936291
par 0.00765707319549175
Anto@@ 1
ON@@ 0.4639190958208047
orio 0.21907981626793127
yal@@ 0.3322238159934717
1808 0.6541702560953355
25.@@ 0.8510489141384687
ls 0.1223731278182552
tos 0.0770203523140403
kum@@ 0.39797440520097316
verse 0.09773282413811576
ás@@ 0.2055405366487957
380 1
hen 0.44108087889611
tiva 0.3064102221334381
ves@@ 0.3893551795782863
mach@@ 0.11599575625272845
Crist@@ 0.5525531611101965
capit@@ 0.1647102908459962
Four@@ 0.41346194455176616
SK 0.7506229445216005
ahl 0.3217225587168479
Over@@ 0.2570119474114467
igan 0.6229209375153054
minut@@ 1
Academy 0.10737668403639895
Eisen@@ 0.21675730591705572
uj@@ 0.6684030755317809
wol@@ 0.4769934438719919
but 0.01088071632955166
orb@@ 0.3064834424119062
gy 0.41000552225101383
Brothers 0.4365467934269191
Schul@@ 0.12879550636028825
Sever@@ 0.23932683689109632
People 0.18469328789727427
atur@@ 0.14934808970231123
beri 1
ouse 0.29076063387696494
Ernst 0.3043945536455141
Metro 0.40720945137714626
Inst@@ 0.5316658599787543
oti 1
achsen 0.5529465874758891
ausen 0.32364298456802737
enzo 0.47032989304075
har 0.7419880848128403
26.@@ 0.8669126315642438
Christi@@ 0.23653578491640956
box@@ 0.25983920691330586
1807 0.6904974308649305
Campbell 0.4331329811820894
Kre@@ 0.15762824911576706
tec@@ 0.29471277178301153
EC@@ 0.6393442845505094
Hung@@ 0.31663569497187605
Arti@@ 0.18598534586554902
By 0.08009813067505141
Roman@@ 0.3548114096038617
endorf 0.3823814021116981
Marco 0.5734497913380833
ampa 0.5084861910846445
Hall@@ 0.4574788457439366
év@@ 0.10841369548352557
Direc@@ 0.19289804390890397
cont@@ 0.03951403489087528
muda 1
59@@ 1
66@@ 1
Rafael 0.5281155487662159
sus@@ 0.0753637392592485
116@@ 0.8790506049484954
Buff@@ 0.35945692804939583
modi@@ 0.1889652803304964
Ana 0.5469407746457007
Olymp@@ 0.802508447327781
ebe 0.33003391696116247
Of 0.21545169527305033
Rey 0.5275673459860635
manuel 0.4617622348551639
unds 0.08804482844397508
Rah@@ 0.43784891503084267
Stars 0.4464169227253396
elas 0.42630353816087174
Sup@@ 0.27173060363784374
Let@@ 0.33481166463643064
Pacific 0.1614711353179957
anni 1
dul@@ 0.47214742230988477
zz@@ 0.3968479154125988
aç 1
emi 0.46488885741032143
Die 0.007706678490213326
Mek@@ 0.9141844077667582
2.0 0.7381951994442635
Dave 0.41074008967612974
bat 0.24379471488761337
spir@@ 0.11843116993656615
Free 0.3188295817940729
stel@@ 0.3859665367888759
Franco 0.49727497579216895
Comics 0.4904391677824032
Gri@@ 0.2892691299162587
Orig@@ 0.2502979257215734
ort@@ 0.11999154385164326
rech@@ 0.09458818353761897
Def@@ 0.16862757375814794
born 0.023928620352672486
deg@@ 0.8106656337884809
Haus@@ 0.17851781812005035
Neb@@ 0.5306732309684241
omel@@ 1
strong 0.1315301584693385
1816 0.5956871915499784
LP 0.37968509196347483
Nig@@ 0.4979601532229655
lit 0.11589004485484777
99@@ 1
Fried@@ 0.17423921234028894
Gan@@ 0.3567372842046336
Sib@@ 0.6850840850001153
entin 0.38477826058480474
fem@@ 0.1778859917376085
tern 0.07318325010463113
dad 0.21895849142954782
emann 0.5521699035469756
119 1
Roh@@ 0.3512031540575578
BN 0.9251244212667372
Kaf@@ 0.9311866452554185
Party 0.07114848223133943
jug@@ 0.1340728216715781
ndi@@ 1
ük@@ 0.6637588316063435
Lug@@ 0.5847769593835785
Ahmed 0.6653868903296645
Wur@@ 0.4815844167730579
andro 0.3971406566426072
Montre@@ 0.32471943055848657
abl@@ 0.12805146513613486
pir@@ 0.4362815509734223
tex@@ 0.12453767981249395
young 0.10769953884636531
ň@@ 1
Mount 0.21506414320727824
zel@@ 0.9340884375365652
Up@@ 0.48972685049143594
公@@ 0.06988507757500882
For 0.0531868302211266
contr@@ 0.03542816697600759
ime@@ 1
Guy 0.4335513944284016
Out@@ 0.23545853852282053
Squ@@ 0.2210722839710637
Associ@@ 0.3556026176812604
Now 0.410786730640769
bridge 0.14502025430797785
tar 0.17819114412186574
Angel 0.5736979812497113
Broad@@ 0.32909869048660195
Diy@@ 1
enter 0.17740459761682076
As 0.031880660888828335
sons 0.10546738120386334
Bapti@@ 0.28776889476440265
Jul@@ 0.4585624804999038
bea 1
Bron@@ 0.2626008857326065
Bruno 0.5421562275020513
dit 0.0950526495026203
inal 0.07479146322427137
ī 0.6157448652077848
安@@ 0.11228131424508221
Mab@@ 1
ector 0.3924876815001465
teen 0.1555195294782221
1798 0.685036429866332
Sep@@ 0.6073308581627097
ayr@@ 0.47665376421450134
Toul@@ 0.3985965409009143
Wan@@ 0.9209570324233814
Gustav 0.5361645125511734
arry 0.3521617166375818
ischer 0.04181393896904141
sdorf 0.3566554721330949
́ 0.05467445143902693
Naz@@ 0.41712574384566115
elt@@ 0.27054054692034457
Glas@@ 0.2680782159991209
hyp@@ 0.3052536091648577
lies 0.08640612416162527
Carr@@ 0.5109428941651313
ahi 0.831487386337089
liz@@ 0.24536261727876021
Konstant@@ 1
toria 1
Colomb@@ 1
Inn@@ 0.25151642756351245
inin 0.20227378984016522
sie 0.015243080346793893
uku 1
Force 0.12309809156275102
Ltd 0.4179181579589613
raine 0.5890912372992025
1790 0.6004631200332698
AE@@ 0.5277720477732276
illi 0.5062258446148122
pop@@ 1
Tib@@ 0.3555126511954336
Von 0.06811324255481388
schi@@ 0.1985132907719916
ship 0.044547183222243374
1799 0.7475930956712246
Pac@@ 0.62309719972565
Zu@@ 0.30350511918875034
illon 0.30925656376607835
ols 0.11959785514284342
öz@@ 0.47407939829170503
edi 0.414940607836342
fi 0.6422089592203092
FO@@ 0.6152294657105253
ben 0.05660507114275517
mina 0.2870173015031048
non@@ 0.28482295234751986
Epis@@ 0.29165384030549163
Gü@@ 0.2752406180903944
Ligue 0.2957291073070923
sal 0.21916625214017207
bec 0.3173389440908663
kar 0.47908836011028033
Ehr@@ 0.21948061375367775
PM 0.6855924524247762
ate@@ 0.38504595281469367
pes@@ 0.2279823252679226
1600 0.6689841638943467
Fam@@ 0.4689562477566654
gri@@ 0.2030967155028644
rat 0.1413437360538893
tive 0.046883378397516634
Feli@@ 0.5699610833768928
iki@@ 1
found@@ 0.12933741771392826
Broadway 0.3497546928691325
27.@@ 0.80376423323372
Georg 0.23716180116617944
Stur@@ 0.4363644871786394
away 0.08634086935801923
casting 0.230148318477617
Magazine 0.30636244846657684
Vid@@ 0.47055680591227417
alifor@@ 1
encer 0.4020085971228666
Leipzig 0.28930533914444734
1809 0.6126654959876684
Ankara 0.8055469275754744
SI@@ 0.5619760087165496
had 0.0073983365438497345
ño 0.20163666471582647
の@@ 1
vie 0.10382116938808922
aise 0.12709563967654938
athan 0.565617226994062
hem 0.4426086586204135
ulia 1
domin@@ 0.07193523020579176
ogen@@ 0.28476953370605296
ọ@@ 1
FL 0.2613578588926718
tur 0.16364967212466414
Castil@@ 0.5305408827073889
Radi@@ 0.2420119427436086
avo 0.5301586892682596
Death 0.24090679240034438
Cross 0.2289508207126654
Fres@@ 0.41436102967882393
aber 0.03824067408778787
amed 0.1164326033219133
dou@@ 0.07955187332400959
get@@ 0.10232757038696844
ē@@ 1
Gör@@ 0.7927471868819025
ather 0.1341126699462435
ő@@ 1
Limited 0.44613264537849684
hak@@ 0.595818446607451
mich@@ 1
€ 0.42875618737171334
Fat@@ 0.762324083474741
öster@@ 0.9423589514720367
cript 0.2248857246842832
oso 0.12263735655546927
21@@ 1
pis@@ 0.43509223458645874
Carlo 0.5272976885704819
Acc@@ 0.31003504847752994
Lok@@ 0.2885675189640904
Southern 0.15266925838969878
Main 0.20536296319916264
card 0.27449756618350263
eur 0.03659278820744447
map@@ 0.3651675759509465
orer 0.48589482851773497
DO@@ 0.49070792486432707
lau@@ 0.18393874062462506
nu 0.6258330731381279
Mong@@ 0.3826682820489452
hausen 0.3025365533869029
1811 0.6163019673136885
Amer@@ 0.3580556788907225
dex 0.41497634865508926
hua 0.5425286290589162
ular 0.06261234603114031
isher 0.27138904048849366
lim 0.23891073857078005
′ 0.9725129379043055
Us@@ 0.5967711018086655
world 0.04811218399563302
Kiy@@ 1
ques 0.025308942449308074
Ost@@ 0.1588974823267445
dist@@ 0.11260839324619776
etz 0.20178547161694743
NBA 0.23243017961916276
book 0.05374745273266136
head 0.05798201666848614
sol 0.2766637010567723
Asi@@ 0.4243396502343893
CE 0.2896998598332961
maire 0.419967245333475
shi@@ 0.10589601290594938
yas@@ 0.5881906873453626
Andro@@ 1
Fall 0.2618524817448691
Plus 0.33268493317607795
üş@@ 1
Italy 0.14541582010609877
Mez@@ 0.9363034288029447
Summer 0.13104808199027965
indic@@ 0.09257235039913055
179@@ 0.5710137378313386
acu@@ 0.1864882074887996
Hoch@@ 0.12265883806096492
NBC 0.4029150914494601
kn@@ 0.11907257012575151
Peti@@ 0.3649827429519874
sein 0.03625122357121037
suff@@ 0.06759263261856345
Burundi 1
isl@@ 0.16822389471583865
orch@@ 0.2097337398876641
zog 0.1466600780628903
hio 1
union 0.11703680838747597
ük 1
lik 0.2696160878420628
Fe 0.576711986805105
ensa 0.2714434214616287
text 0.11982027301446942
even 0.051801633459605805
itzer 0.3369204981767774
rev@@ 0.11017908796082686
zer 0.1903223891515897
Vinc@@ 0.8246482350732619
onald 0.6660212904449516
thy 0.16759675468001495
Prin@@ 0.2384279580725422
Andrea 0.5347937940305574
Hern@@ 0.4922547718748185
UR@@ 0.4549795755514411
ớm 1
English 0.05123828111134694
iner 0.21798107258610933
NS 0.47814454676915424
fall@@ 0.14030614217393658
fica 0.31496644816317637
4000 0.797632616415168
Three 0.19433365748187761
mine 0.14904443898795358
Service 0.12384916436634613
hay@@ 0.43178607661111745
Alexandre 0.4544056697352468
Bridge 0.21972412177504747
Rav@@ 0.4153854454375163
氏 0.30166892047350646
Rudolf 0.39410367801189156
Terr@@ 0.27991290195508517
WW@@ 0.5209381469422248
Year 0.149847596411488
lang@@ 0.09869344965570548
Not 0.33580798068670586
ağı 0.6767387963547267
ball 0.06340038094866798
hist@@ 0.3042690650267559
polit@@ 0.6579460374618652
dra@@ 0.06350644263481707
pers@@ 0.2576096625372358
Laurent 0.5072197815609985
ext@@ 0.062678606491309
eux 0.06346605501223464
format 0.18137806786244448
witz 0.45910492486588816
Meth@@ 0.33090141954996777
avier 0.2699284746907021
dez 0.3412156050074082
Alberto 0.4279103277214288
dida 0.4271824195890972
ả@@ 1
1200 0.5593333174536248
lower 0.09744562191266404
ー@@ 1
GA 0.42602184398162973
baz@@ 0.9324134183635855
cs 0.14296013673113728
tou@@ 0.11596513544112573
,000 0.15990940850881374
Dah@@ 0.44064011534014547
Independ@@ 0.18807836235755046
fu 1
istes 0.10437351934190049
sav@@ 0.12531266764363364
Frances@@ 0.36470859081196205
Rural 0.3472654943138517
Field 0.221523316454936
Kid@@ 0.7926177223528857
aland 1
met 0.06179202067988237
onder@@ 0.22461199794200312
Eas@@ 0.42530142177031205
ammed 0.5257941331548925
Trab@@ 1
angi 1
sar 0.47604485609578584
vania 0.9553470848252226
old@@ 0.18993034053280913
Battle 0.13418318341285723
Extr@@ 0.45101576703356894
Institute 0.08353855606552292
Schne@@ 0.32544663508219945
bay@@ 0.3497839462149355
dot@@ 0.25368538250585554
ires 0.07274404665037096
plac@@ 0.09847914159530391
國@@ 0.09111307075964403
Comput@@ 0.3580709135988644
ios 0.2779593110982709
Bin@@ 0.6171210022425164
apo 0.6616353458974543
ysis 0.16582874480924095
Fig@@ 0.21401685150383498
ering 0.08141274921615381
ysi@@ 0.32745051843532474
abi@@ 1
vie@@ 0.07152185758492487
yen@@ 0.46406933878893714
山@@ 0.10199466870681656
Del 0.3457045561756473
Eff@@ 0.3201467776052635
scope 0.46639620457203196
Haf@@ 0.27605579706969574
itas 0.3413728615971667
jap@@ 0.38198614991791097
Band 0.10156887310446319
Dak@@ 0.8599150374538986
ages 0.023359129927322506
European 0.05950830734319124
Salz@@ 0.2978993616320358
UC@@ 0.24425368743094067
tronic 0.27834285563888406
Müller 0.47368005021831394
vas@@ 0.18902482759256609
Kaiser 0.3022288397629693
ading 0.11875300850288095
e.@@ 0.18470376352494428
hir 0.5222487924573097
ün@@ 0.05881135929644054
妃 1
Lima 0.4482594176731576
pp 0.359939477090229
Kah@@ 0.7981154463382801
drei 0.05421156737548546
pera 0.6152984386150534
ış@@ 0.28519767018506875
II@@ 0.4945387548486742
chem@@ 0.11168912061111681
tle 0.23605506181501038
enst@@ 0.1717144989196207
stor@@ 0.07684029638528167
bek 0.787107773223228
hac@@ 0.22469809877029664
Atlé@@ 0.5831739430128032
umo 0.7545340850672916
wn@@ 0.5471348835259654
三@@ 0.07189791734411595
aten 0.05012074263323884
inson 0.9830164036533635
子@@ 0.2537473891953847
Family 0.1825447979525081
ality 0.04895794979628215
azu 0.40898686188452793
odi 1
spec@@ 0.06473223088739745
Dr. 0.11523770046733593
Pérez 0.48176009994111646
Wein@@ 0.28403004855526487
ures 0.04645632722796072
was@@ 0.13764644370801396
concert 0.21768545186730184
ril 0.6790208159726535
Single 0.35890992421723744
iller@@ 0.25531240622721324
tion@@ 0.05397881915091769
Dist@@ 0.2840957764092878
PR@@ 0.49194602268019993
Tay@@ 0.8146315973497774
ensi@@ 0.22407325700536398
uter 0.1361935873838141
ğr@@ 1
fan@@ 0.3828226380891781
luk 0.7150298787983739
seg@@ 0.11857012220026664
南@@ 0.07196093038824067
Doc@@ 0.2381276764200832
termin@@ 0.060886065764463544
Sur 0.13898354714337224
alu@@ 0.21063222440823443
engo 1
new 0.01686090616827884
oll 0.3330271612453
人 0.019639248450303858
武@@ 0.2024915050990804
aide 0.16456081864347336
mad 0.546032736235708
Bug@@ 0.5368413847768126
Doğ@@ 1
ande 0.24898872788331516
eyi 1
onda 0.6371453526562916
atten@@ 0.21864761002014782
Bish@@ 0.17066961849910803
Luf@@ 0.3031687477798134
Nel@@ 1
ede 0.198649956598924
ames 0.19802751510010583
law 0.05463229266437443
ál@@ 0.2749196894669535
ül@@ 0.14170684005712117
Tang@@ 0.7581823444012808
mem@@ 0.05644799932451778
Gür@@ 1
pedi@@ 0.18751038487752136
Back@@ 0.16089065283062381
Mark@@ 0.33122724518317087
fo 0.2500287781226752
tav@@ 0.5337071423453705
ș 1
aim@@ 0.20773696643660094
tang@@ 0.3937493478900557
Four 0.23096644131396338
Research 0.1212489089663783
lung 0.07618142183452163
tima 0.5397714116721557
vor 0.027391156959905023
âteau 0.5234442756797497
abor@@ 0.14444065391935018
ener@@ 0.19262077850049378
rat@@ 0.34319036731327307
zan 0.6583867509482174
ː 1
Captain 0.2266342244008918
arist@@ 0.47633960365421507
dier 0.26660817891989175
Nach@@ 0.07075145326185604
SV 0.27943582004111134
alam@@ 0.8928159578281835
pris 0.22791814223157514
º@@ 1
Ê@@ 1
eas@@ 0.09979470532827157
liqu@@ 0.17883184045960615
区 0.07539999887853284
brahim 0.7664944118722742
elly 0.4420673953750339
Anton 0.3820838889099463
eppe 0.39807329845111084
quel@@ 0.24251688649813835
Felipe 0.49136745919569
Television 0.25182045948392906
1700 0.6652043237783984
Spor@@ 0.46120301189645324
dioc@@ 0.23502068412643126
mah@@ 0.4449310446709011
ılar 0.3179707300367313
ˈ@@ 1
NCA@@ 1
Wis@@ 0.6150960211667057
ands 0.05723415920200019
had@@ 0.8169213968951619
Sevilla 0.5969573225513627
also 0.006192790797268181
right 0.059538026255854914
1791 0.6354266096297082
District 0.04627924973593625
Norte 0.2811058987787237
ticia 0.500615691642131
bio 0.34910527386275997
Hind@@ 0.5431611040672636
Jesus 0.2772084435205302
Tai@@ 0.1998629313063008
Viol@@ 0.36552392700001823
aks 0.17730650666092518
othe@@ 0.28155228544452593
tical 0.03950702272557269
Eb@@ 0.1953007281211512
Estr@@ 0.48172100186758826
rich 0.1812419649569311
州 0.06151340909613151
Wander@@ 0.39202788635457014
fiel@@ 0.12847295400029
icro@@ 1
Herz@@ 0.17755479957081724
alı 0.3393201217376636
1793 0.4657069123537124
Muh@@ 0.9284922144055625
azz@@ 0.41133137815679804
beck 0.348184580402086
Mountain 0.2172018584861062
Mr@@ 0.29480902271010573
ici 0.2589300082405867
over@@ 0.03880902966432277
patr@@ 0.07266930624486655
Coast 0.1797810733294607
have 0.009601926956815958
work 0.02181249193765965
Fort@@ 0.4108237451578088
Tenn@@ 0.3032728542698315
cle 0.0993520281280249
ł 1
Standard 0.33959623421153484
ophie 0.18109884996126716
key@@ 0.2915248448154129
ongo 0.6481213673229247
tas 0.13739697569985465
anza 0.159149389273553
dos@@ 0.4453676900245196
1794 0.5568741847335302
God 0.16647858145556688
孝@@ 1
States 0.02394363941479522
Arth@@ 1
Techn@@ 0.14580560110300345
blan@@ 0.11416820487900224
chap@@ 0.08276504658171784
uld 0.3741528781188478
Chem@@ 0.16316790108814555
Macar@@ 1
cla@@ 0.11969658732746244
dah@@ 0.38622844211230356
König@@ 0.10869268832582722
mil 0.27970239077114845
wing 0.046395212943045924
German@@ 0.385089673909607
Philos@@ 0.21066845288787905
ainer 0.1525853710217855
ilen 0.11613886180012559
ische 0.015785804603343202
sian 0.20209878669424294
Ey@@ 0.6040013040947224
Roberto 0.46726347760130565
espe@@ 0.3797819504053022
invol@@ 0.11007390353794023
Nis@@ 1
einer 0.013068173115645731
vac@@ 0.18853074357052543
元@@ 0.25557447280297135
Emp@@ 0.23136376145150828
Erz@@ 0.2454585397172928
Johann@@ 0.5172386278700983
bey@@ 1
erre 0.2572771414496598
rol 0.36881755673880084
stream 0.1773993571431282
École 0.28221392105800164
Burg@@ 0.3019256840776504
Software 0.43716753812309145
Zer@@ 0.48172769662785636
conn@@ 0.04116725114079593
date 0.07634584935531083
mos 0.28519347501628434
ning@@ 0.2003826787795389
ob 0.1995006034272394
Kro@@ 0.4987459076636926
anni@@ 0.19116029578571517
face 0.06167367447300127
left 0.038496860382791126
lic@@ 0.08040162805024959
press@@ 0.1477821063732526
umi@@ 0.3486922771051807
More 0.2506173819245899
schn@@ 0.21471679032006266
Autom@@ 0.2616303791000528
Rep@@ 0.4793394198000448
Republic 0.10037696881353578
There 0.033624673841041584
Vari@@ 0.1626311761599701
Suc@@ 0.38438870358178534
entry 0.19312036696841128
nec@@ 0.10672791850889281
Atlantic 0.19587421144603331
Herr@@ 0.14831126362826033
Vladi@@ 1
fron@@ 0.11627326514156577
明@@ 0.15736750124311905
Bill@@ 0.5619727847448718
online 0.19016810818958949
ican 0.10616253671017331
ycidae 1
GC 0.5404797492360615
Kurt 0.40913617613825526
ories 0.05819041468650047
red@@ 0.13605478187909922
Korea 0.19659473313848513
ety 0.04878299310382478
itor 0.16485450631617526
bab@@ 0.2672782921558718
dur 0.6110969000065009
pool 0.29711113791939603
thiop@@ 0.9893463731916678
geri 0.7701818865853948
estra 0.2107926224317984
music 0.033542005981345366
ras 0.3311263512707655
rou@@ 0.0804983047195646
servat@@ 0.20428010808553423
va@@ 0.4424073319451664
ps@@ 0.3048532926811459
ute 0.06659348653338111
Alliance 0.2950789722171244
Commun@@ 0.09666797386070898
actr@@ 0.1535992428971617
arca 0.36357498514267217
burg@@ 0.4243936330691581
endi 0.5508220485584047
style 0.05179615975768387
bou@@ 0.16234940353311217
uo 0.3116045476619133
building 0.03912954870482971
Doctor 0.2561288755370849
action 0.037595482446345814
ege 0.1990635637165142
geh@@ 0.07958191066689298
osi 1
Nati@@ 0.11815437575460568
Business 0.19686784359059534
Nations 0.16909579706505787
Post@@ 0.20943354226421557
aux@@ 0.3339906851973091
½ 0.813301953760661
ə@@ 0.8101135177689114
Nah@@ 0.37534561416494555
Yaz@@ 1
eras 0.17376164946571193
pio 0.38517186885476706
tie 0.20840397555769158
Rock@@ 0.3440287447444045
arı 0.4225639352998
decor@@ 0.17408311811528177
vera 0.42383785025346155
Benedi@@ 0.3783871661124165
Nou@@ 0.4303800759564837
kay@@ 0.33487551166965446
tienne 0.26594956495472133
pole 0.2096657823596537
Dau@@ 0.434126286534359
real 0.08597810493296423
fos@@ 0.20292015968170377
jer@@ 0.204232111675798
Bras@@ 0.3440674433551682
Ent@@ 0.07936319462755018
Freder@@ 0.518074139722314
cas 0.08769557538803242
Publ@@ 0.1827143793082423
adan 0.4683290717085223
jur@@ 0.061129198732661746
yeri 1
Pero 0.3882064864685558
bid@@ 0.5135561445074699
coll@@ 0.05513554737728679
mara 0.2770370949779187
ö 0.42193593945252333
endel@@ 0.7479632487955789
Gök@@ 1
Rang 0.31194582567691
ld 1
Mih@@ 0.7387529967908436
abol@@ 0.16755032288432356
gó@@ 1
Yay@@ 1
erk@@ 0.08789806769721575
éri@@ 0.0449099282488393
ỷ@@ 1
Africa 0.09019311395645135
Duke 0.1823746198899876
arian 0.10195324890583116
ils 0.030366636312881633
López 0.3580693238315921
elea 1
isto 0.42044495163162215
bol 0.1691948109481686
simul@@ 0.20151360140580574
ça 0.23236283784816236
EN@@ 0.5479959748576693
comment 0.6024359419574719
EE 0.48448279993341603
Natur@@ 0.08959807829267044
Gabri@@ 0.623487944173788
Jorge 0.3069876969974984
With 0.06580072372204765
1795 0.5194626725643593
alen 0.09180399532008035
ebu 1
parall@@ 0.15162830794634855
kea 1
utu 1
VP 0.3324606352761261
abo@@ 0.4438543822732912
fried 0.3263743577328104
path@@ 0.2097986847503764
Poli@@ 0.17798621138683926
sey@@ 0.7909390358668081
Flam@@ 0.39210492979052947
Kri@@ 0.16921536417849073
劉@@ 0.4891808345633572
高@@ 0.06162014627061424
Aff@@ 0.12882784441179457
ß@@ 0.05835406410343316
Seb@@ 0.9950746168311542
Station 0.11291792569559614
ehir 1
ident 0.05697292462034827
orium 0.29260836112942157
Brig@@ 0.1278463547369178
erst@@ 0.07829551045085732
iwa 1
之@@ 0.07405367368535977
金@@ 0.0937793834406955
Bas 0.3838699949393278
ammad 0.7509938471244108
tum@@ 0.3367410986399294
xima 0.48231892838063395
colspan 0.2508644030659299
Maf@@ 0.8205741210387546
cath@@ 0.2700904957089169
coun@@ 0.050945784535726485
Major 0.14016590274154567
hou 0.25373290781339825
por 0.005269416667371981
taş 1
CF 0.39433243222383957
Ear@@ 0.30488719180512996
asse 0.11497420766948163
Gonz@@ 0.44123236959416096
adol@@ 0.2752082688473371
lima 0.5586981973790206
tap@@ 0.27636393572894485
After 0.0206909988722691
plut@@ 1
See 0.16650820407257025
Strat@@ 0.2708631036759202
type 0.061529095834110474
Northern 0.11407188857156425
cer 0.16153180089853628
gros@@ 0.246530646105442
reduc@@ 0.08733318026353178
ses@@ 0.14426039207443433
americana 0.4641447062734818
apr@@ 0.3822106199336899
lay@@ 0.130104051859654
Ế@@ 1
dem 0.0050255375015385104
kit@@ 0.33760606228597234
urs@@ 0.16942879032035063
ậ@@ 1
Indian 0.06631786761534068
sn@@ 0.2102500993452486
tura 0.0930164257061931
conc@@ 0.13060188784741578
paci@@ 0.4081763141871697
sm@@ 0.08567454620921662
sti 1
ule 0.09335000423421524
és@@ 0.17764328204277705
德@@ 0.07900401202661689
Fall@@ 0.3629597278221044
edom 0.18297466159396678
group 0.029008135371319074
inj@@ 0.128484751153728
kop@@ 0.2298427610445757
play@@ 0.12954998884321456
Sport@@ 0.1267359332742071
aki@@ 1
uş@@ 0.5546485582854238
་ 1
Pablo 0.3177552997446113
tari 0.7595835710679226
öh@@ 0.07232858319023439
Chron@@ 0.29642395558225987
Dest@@ 0.5032715081087648
Name 0.10136613752581045
tat@@ 0.672223117612396
García 0.2770975100519351
municipal 0.14461333417902109
troit 0.2082705254024631
wiki 1
HC 0.4051251964965802
ople 0.4841331558032811
prom@@ 0.042237120604113707
two 0.008586785715205084
1797 0.5613914134361798
ael 0.6170070735880665
confer@@ 0.3082696781766349
nak@@ 0.459216283177557
onte 0.3414152529371747
spect@@ 0.19998141316191737
ıç@@ 1
主 0.18669101009767142
bour@@ 0.14829791290897867
crick@@ 0.17592131527734903
alim@@ 0.3451523145851323
Geh@@ 0.23013907720837934
Hannover 0.3665804930268165
egal 0.5499087926760293
kap@@ 0.14449216505948154
Industri@@ 0.1464915154798951
greg@@ 0.17967816511202972
distinc@@ 0.11576455535616494
orf 0.4560109873617783
Must@@ 0.9232528654814169
det@@ 0.038289096870515835
life 0.022285960779338154
vir 0.2551913342035973
Kant@@ 0.3427924550446814
René 0.3463319786937094
onel 0.17553196779600003
Second 0.10240041611942492
cant@@ 0.15193293541083422
consol@@ 0.2040876496755782
enci@@ 0.060936892255199736
four 0.02354507525738754
rive 0.21039379580992665
Süd@@ 0.07681892164489712
team 0.016896992621525643
Ál@@ 0.3838707874432539
ǎ@@ 1
Göl@@ 1
Québec 0.22921728974851394
sola 0.5398585332612562
ź 0.8775585767793702
vet 0.45814658670454117
éli@@ 0.16799092608111074
Sol 0.48611992642607255
enor@@ 0.36118584493947214
get 0.04825903264014494
市 0.062498455971847174
acha 0.563902947779069
egel 0.2778520925506715
bran@@ 0.07446370362544294
debut 0.05512890796241732
gener@@ 0.04250857714304756
itr@@ 0.33633195667830096
run 0.05919872901042876
If 0.11308539944145407
Milli@@ 0.20401482418375527
led@@ 0.30619589735933544
maj@@ 0.20718880481244736
mim@@ 0.6726052861511659
Econom@@ 0.12902483840934842
Nacional 0.08569176552588678
lie@@ 0.16410433045407555
alter@@ 0.09727561624127883
anal@@ 0.12298052587930873
band 0.031064668435514288
chev@@ 0.14757243356556585
ste 0.03475556989569097
yard 0.15752451373623927
Bey@@ 0.8758813235056325
Human 0.23816782307806927
Management 0.20074542564348946
inas 0.11320031907169104
ıl@@ 0.1600187409206806
edy 0.11334317869275373
para 0.00853933145412044
Å@@ 0.7757547082547794
cent@@ 0.0653275695740318
Beh@@ 0.1370117056162253
Special 0.1876552467689545
cartes 0.40506298140706065
essen 0.12873600721490758
alie 0.20143093330882103
commune 0.03363484858905877
tain@@ 0.09210244168537779
yans@@ 1
Elisabeth 0.3716681719676811
Pueb@@ 0.41682156501160506
ead 0.16553215707396576
Audi@@ 0.30988006776874194
Over 0.1913196969259066
amii 1
dens@@ 0.08235352848355594
中@@ 0.039663936540659354
eling 0.17296166866007476
guer@@ 0.27333428009823596
occer 0.18688201560306872
rim@@ 0.659393261424955
Bez@@ 0.18151158284043759
Sach@@ 0.2817236153119238
lug@@ 0.21370271223199444
Antoine 0.3017275786823324
Stuttgart 0.29440461271728857
ird 0.21851707827808137
test 0.10373077320282947
ls@@ 0.3069370551662435
Born 0.17740875407949133
Dep@@ 0.18579210995726186
Margar@@ 0.43670422472854314
amu 0.7737918924868646
bra@@ 0.6305706953193858
evi 0.917376179837405
oven 0.42206920067030984
Graf 0.35497769330668677
acht 0.054614520598641386
haz@@ 0.3420628112246759
् 0.0038082842846888206
ombi@@ 0.28724456402351645
Ave@@ 1
ambo 0.8975999801428817
iye 1
umani 1
iles 0.09818820454106766
asser 0.24210414619184323
tori@@ 0.33185070039436065
works 0.04323116902519048
ð@@ 0.4403109104522439
SR 0.17826011610388015
Sour@@ 0.2732722291133986
Werner 0.3746533367170967
acher 0.09564448533154785
kle@@ 0.15406508860853824
oci@@ 0.34311296440780237
yap@@ 0.17052269857486824
Hotel 0.17948816878162957
impres@@ 0.1609915819068172
Moun@@ 0.1972567926730823
asim@@ 0.8188454588603943
ender 0.06340093182154741
num@@ 0.07549806104938653
Guill@@ 1
cog@@ 0.33586603811335297
kad@@ 0.27883649900262086
tain 0.04164473222367205
Det@@ 0.21839647889052374
pen 0.1584452096602639
Classi@@ 0.24683338398783713
cell 0.17440031487895197
Head 0.22737631219485455
yam@@ 1
bah@@ 0.15595084382673996
opol@@ 0.8626383403740668
trol 0.2770300406897981
weight 0.11366443016332849
ife 0.2817329824665571
thre@@ 0.08820423220459102
Wrestling 0.2622870681730684
ata@@ 0.5992091793012151
which 0.004344365500429127
ă 0.7483523122790834
deb@@ 0.10153689286961183
igne 0.2654008302643835
oğlu 0.5337097560348639
Country 0.1926536499358435
drama 0.1408476334625152
India 0.04694962565502051
Köln 0.2594039098600684
Ya 0.5533547783464559
owa 0.6882705445709604
ß 0.04598318549392546
Río 0.2120695571647821
age@@ 0.28332541936861544
olds 0.1150974187315658
sug@@ 0.1942661711901728
Dres@@ 0.4271152198501706
Ordu 1
When 0.042074458919338274
lich 0.01684520297369709
sous 0.02703515939194464
1400 0.7407479070123416
hand@@ 0.03594774939862192
ror 0.22299752280518628
sive 0.036259013604434176
İzmir 1
shu@@ 0.336499096073687
its@@ 0.21518346268933827
Dresden 0.28281707460674804
Mart 0.4763893682214945
Rodríguez 0.3627672984663645
-- 0.5376917849156185
Bremen 0.3685355025649076
Inv@@ 0.13900399182179468
schw@@ 0.07734544215181666
Bach@@ 0.14945401386801085
nos 0.11507220303277087
sanc@@ 0.2202242784030298
umba 0.5692564492440857
vip@@ 1
Bach 0.3191293934204416
Biz@@ 0.6932577417258615
Wad@@ 0.7396885482952175
Zw@@ 0.11880289280652927
active 0.06413788300978124
sten 0.027557098794119547
山 0.07740469199007571
agre@@ 0.057142713105990374
div@@ 0.08577161722152071
gas 0.11337023318815068
law@@ 0.06273466517422405
tiques 0.17619451494403596
come 0.07524734867111926
Baş@@ 0.5868045068184762
Wolfgang 0.31552172695700736
Öz@@ 0.42355837783171374
compl@@ 0.044111343776169785
edra 0.2998597541981218
Blü@@ 0.2993132199982553
Conference 0.11677745980438897
Winter 0.16525580579014823
berger 0.15601631914320824
ency 0.04238375026443233
Juni@@ 0.2390908772452354
Obl@@ 0.2890557238485202
Spiel@@ 0.06967542130990921
apos@@ 0.32471602402813615
taine 0.22369388097410392
Sain@@ 0.2608880707637018
self 0.0660513463459388
ỡ@@ 1
eko 1
Klo@@ 0.2441871285793145
Pf@@ 0.08831248826971798
first 0.005660104839584843
ween 0.16625923115089394
一@@ 0.020207432633787232
Fré@@ 0.34921269818364326
fire 0.07625559029161075
ground 0.0468306282969887
阮@@ 1
Progr@@ 0.11873089660729964
Technology 0.16989499088222096
aşa 1
iku@@ 1
lak@@ 0.35377303682616135
Flu@@ 0.22804019539629344
data 0.0844925049713944
film 0.012795397892904098
Braun@@ 0.3447919388845597
History 0.03143106642539691
iza 0.3941923004051101
Eis@@ 0.21332910566568794
Termin@@ 0.3133900272675705
dek 0.9821726562862504
ece 0.05134545565511144
mez 0.38233358337826046
anci@@ 0.058492833914588066
ences 0.029144995095893002
cen@@ 0.3371247328421636
colum@@ 0.13976682137571786
ld@@ 0.14265666019360757
sau@@ 0.1560024291649238
Mercedes 0.38571051650948696
Thé@@ 0.2585769369260134
basis 0.138925198887515
eres 0.29861350617431076
timestamp 1
Osman@@ 0.8368826693564556
arts 0.10463884794809418
González 0.32179189065929426
bers 0.06236873054931909
leh@@ 0.16923704060478542
Jazz 0.2139141411097751
Kingdom 0.08523970995846257
anlı 1
issi@@ 1
west 0.03168654872145142
Law 0.10850197431967289
Metal 0.3286063458287073
Sonn@@ 0.22460966295289764
Wrest@@ 0.8599992942047623
anan 0.37298140961839077
bom@@ 0.12619792121742004
epis@@ 0.11941645182921597
ubil@@ 0.3213947037559073
Valle 0.4262237746335942
Dé@@ 0.08920197490852425
adam@@ 0.9133242257933173
contributor 0.9089947716194118
Cá@@ 0.2702107577047998
Public 0.10511860597290724
ayak@@ 1
dren 0.24464379609082745
inger@@ 0.27990426121279033
tek 0.4673664685167051
trag@@ 0.07463134740591214
eim@@ 0.2913216458681625
cou@@ 0.04796323383629186
ign 0.12040947922553553
İn@@ 0.7062784536662476
ň 1
aku@@ 0.6662030347139755
got@@ 0.17795138006038438
arak 0.2257755511773864
gelen@@ 1
Jes@@ 0.23384103136438805
gos 0.23726789313146396
trol@@ 0.1121393922736316
vill@@ 0.27985505862310067
Chic@@ 0.5765252253551454
Rit@@ 0.23536696134865306
divis@@ 0.29639835493908
embran@@ 0.27061890596239246
minim@@ 0.15646019721354917
point 0.03457203301715593
Bret@@ 0.4399270008831669
aray 1
gel 0.1307294922243213
Ef@@ 0.5682851332041093
nin@@ 0.18640299134204844
oza 0.5069722873296372
sul 0.3471439345665302
Films 0.2533252765211419
concer@@ 0.04739633687199071
ffe 0.14061793159578181
iş@@ 0.16486494513009553
https 0.6345423719525062
maxim@@ 0.10112899370846029
西@@ 0.042676668612488006
陳@@ 1
French 0.03447692572865118
mal 0.05183814560238505
produc@@ 0.020206228303203285
sad@@ 0.49972219399551276
username 1
alco@@ 0.20533305913882485
ellen@@ 0.1980283048955819
thel@@ 0.27802726678221923
yk@@ 0.5884729827516866
Esc@@ 0.29315981273950326
stock 0.13859459077126693
Kara 1
Plaza 0.3100164800102399
jun@@ 0.20116636144023708
mê@@ 0.28277992823878806
ose@@ 1
uko 1
199@@ 0.0928814629731305
word 0.09118153611693439
code 0.12314756503929977
eke 0.5003108231284684
prob@@ 0.04069792708134397
張@@ 0.298158765975237
Franç@@ 0.22675938170308343
body 0.0548796947956261
mani@@ 0.18809185260509848
Place 0.24512199763943587
allen 0.1158918579991031
bad@@ 0.21916753088975544
haw@@ 0.5502584311761296
deci@@ 0.186197531439055
noi 0.26672682110680523
umia 1
Josef 0.2589227545741722
^ 1
berg@@ 0.15681543753443217
dest@@ 0.12593769038330435
lib@@ 0.13371606439903302
uss 0.09774834498052058
DR 0.36058295437707655
race 0.0570744958664424
rent 0.1424177910032048
tras@@ 0.15900870955766302
侯 1
bara 0.874861795426632
Ê 1
Andreas 0.30984699435788743
Jim@@ 0.6119958458396629
añ@@ 0.09136946505770108
lois 0.25197710378992433
sult@@ 0.2884142045727329
Fernández 0.353619177826311
cara 0.4044151941055694
angel@@ 0.43818413880103474
comm@@ 0.03730295432559494
gli@@ 0.12786466953904055
ney@@ 0.7093787749147278
bad 0.19297649581319842
fast 0.07883267451616253
pas 0.01946907408641932
ız@@ 0.780638186580996
endra 0.2596167245227202
fen 0.05931879694749887
shar@@ 0.08430619254444095
were 0.003466436734192307
Fem@@ 0.21924698514361265
idas 0.08074208881789773
和@@ 0.18017947829677933
mam@@ 0.24728758017025942
mann@@ 0.25861971924164584
acle 0.19186519644464417
ede@@ 0.39038705196064627
pru@@ 1
tique 0.0694397650177549
Ó@@ 0.4057911335054829
aper@@ 0.3099498158856498
oir 0.07702510247851392
IT 0.3214837463665002
alle 0.04514635600327331
enca 0.42559173814238893
tay@@ 1
ø 0.8292134013069259
ouvre 0.16607529166699217
tag 0.11680031681591398
oft 0.13728864961266007
Wilhel@@ 0.40003353626510746
Zürich 0.29671562694558984
master 0.11216188869232291
平@@ 0.10555402815219216
Gramm@@ 0.5121181201290114
ip 0.4724879610044679
open@@ 0.2944578642605139
uel 0.21213838510034283
Development 0.11894313624142068
Fame 0.20308913708000761
bern@@ 0.459684189350965
dice 0.16659518139456955
ä 0.42941474430300275
phys@@ 0.06342911333465084
rés 0.1584328281378919
uf 0.17665949141433793
kır@@ 0.6452924047499321
like 0.025371107062520177
Lew@@ 0.6613575297069756
enas 0.15347871692118029
0s 0.02068195510309687
IB@@ 0.46122669087427176
hier@@ 0.14464810546764334
Mex@@ 0.08969564802029308
hib@@ 0.08848924529978806
schul@@ 0.13185377749539998
℃ 1
ial 0.09593611022430039
oras 0.2172980343302749
put@@ 0.055271355388663956
rest 0.08546846145630743
sir@@ 0.17749151570117117
。 0.0022721378254695356
itar 0.21733006808733354
oce 1
Church 0.043006247416427563
Sin 0.09243176073276672
hiv@@ 0.8599403778175829
qué 0.11470583571432169
î@@ 0.07699813644190406
ン@@ 1
clo@@ 0.11216938839548028
jas 0.13066203378186572
lina 1
enga 0.7035546417174345
List 0.0717780948212771
Miss@@ 0.31227397101042487
ambi@@ 0.11388652065543016
teur 0.0385100983776972
Ỷ 1
Gül@@ 1
bel 0.229256592053615
compos@@ 0.03726898189903018
Town@@ 0.4763789455345139
U.S. 0.03555182108831684
anto 0.26384154999973297
omin@@ 0.2453823886813426
onen 0.05420744198974662
rest@@ 0.03744866130276834
usi 0.9105658414170864
Fron@@ 0.30811610249973637
Gusta@@ 0.6250555234518542
engine 0.10608463582906834
uza 1
elen@@ 0.5969723505408882
Court 0.05743253362676073
Sport 0.1727352926119136
gun@@ 0.09226377736323288
hood 0.08204552876418152
league 0.05387105212224253
abu 0.7360661669700924
atem@@ 1
izer 0.6381720166828072
quet 0.2549651926248573
Hindi 0.5455883663219566
anca 0.6462467508392934
ağı@@ 1
boy@@ 0.11410214487660009
embr@@ 0.16513025921442803
seri@@ 0.11978633615791176
2500 0.6760512484196205
inci 0.5101444959897319
mid 0.07297367340989475
sing 0.05313060789580209
thing 0.07970689670154901
Amat@@ 0.22130094336683964
Tex@@ 0.10355640376843853
irk 0.23696020642738508
onal 0.053480197622316206
ů@@ 1
band@@ 0.09180978202607992
yat 1
Under 0.11567280123122535
daf@@ 1
Dad@@ 0.31127674351746626
bere@@ 0.09955207447907626
ineering 0.09947288841057206
kent 0.8960957040094477
new@@ 0.09668190403476772
trat@@ 0.10916218457568846
Europe 0.03648333664337142
Dut@@ 0.5681201374904692
Guin@@ 0.7175570583154909
alle@@ 0.1312710835728277
diver@@ 0.15072517462043408
olan@@ 1
wana 1
Regel 0.284048197905278
cine 0.08909819344412873
gers 0.17517385730636906
reo 0.389532559478203
tail 0.13397972976871445
zem@@ 0.7698555050282873
Fen@@ 0.19253706696292433
bir 0.01793777012945884
kes@@ 0.19597188597138088
unia 1
Premi@@ 0.15433167084748117
leist@@ 0.14583163694836004
mess@@ 0.0868209517016944
From 0.04179857709209927
1.5 0.2813547309176204
uti 0.7822682495962001
zin@@ 0.14118726837537285
Kais@@ 0.18573197643472034
Yes@@ 0.8783326639031726
alier 0.21416237046598355
gö@@ 0.2493650293706195
iter@@ 0.25821647512655865
pad@@ 0.20077911429003922
μ@@ 0.07738490629221143
align 0.1518377248538194
dle 0.08611318126710943
ibu 1
nis@@ 0.28705892232519387
Ruh@@ 0.25824808702386226
alternati@@ 0.10379407595389274
dings 0.12278291753733284
ving 0.04193470240847453
海@@ 0.048061360639676975
Doug@@ 0.7925506669949375
They 0.02124604881946624
been 0.007102728375660094
Se 0.03446860074305241
entum 0.24038430280701437
rab@@ 0.22232114574641446
suc@@ 0.07435862076677632
omp@@ 0.4464784959315333
Eastern 0.1031863497687096
Fati@@ 0.7395236258059883
rah@@ 0.4346772268994057
Argent@@ 0.1404457873296522
Gut@@ 0.22095202222800284
akawa 1
iç@@ 0.34501338994271685
üç@@ 0.9342967924863338
י@@ 0.9820071773249729
Gleich@@ 0.2002491472994646
afe 0.2767999763261345
ait@@ 0.828235812542512
pak@@ 0.5249690528304997
vig@@ 0.17808850632837803
Den 0.17268648444133294
Marine 0.133556216043237
lil@@ 1
refer@@ 0.04937763349322022
ät@@ 0.0889467814017568
alog 0.3004177369893508
・ 1
Kik@@ 1
Wid@@ 0.19292656150070395
encia 0.019512590397738474
ité 0.016329706200820537
maf@@ 0.6764956067846317
América 0.1801555163405319
ansa 1
conv@@ 0.07012869028624524
dep@@ 0.08479235207152895
igen 0.021650431754284976
loi 0.10032389324437915
ald@@ 0.40638145519450497
thé@@ 0.0934906349631546
Wolf@@ 0.37897284911262863
esha 1
福@@ 0.1245934928978085
Liz@@ 0.334566090824021
apti@@ 1
atu@@ 0.25971121599247204
isco 0.65188633516631
leben 0.13782329969677126
仁@@ 0.6026701018909484
Frank@@ 0.21480698606184412
Tech@@ 0.2308967860051195
isse 0.05931485325942466
pendi@@ 0.1542331037742513
1300 0.5487345487069168
Oy@@ 0.40807011667147064
Rus 0.6580664316876496
She 0.013190013129720967
cour@@ 0.029741560847563586
ography 0.03702755555492754
ulo 0.42669486559251013
anger@@ 0.170816517154144
love 0.09130080507957938
anim@@ 0.04027467353941824
times 0.03770055686234796
retr@@ 0.10908564791782552
帝 0.23944067381162565
Ağ@@ 1
Sieg@@ 0.12044666633859036
harmon@@ 0.15614894241730673
erie 0.07600212708369453
put 0.05097320293300589
ís 0.26803745313781724
ĩ@@ 1
grav@@ 0.09529543662771182
izi@@ 0.25112808183855106
rak@@ 0.39501434406066677
Australian 0.048619644382195286
Castle 0.1382163062821606
graph@@ 0.09757201783356485
inden 0.10795648609770526
《 0.021054635825454193
atz@@ 0.12567259656941782
erc@@ 0.2548921526971089
oten 0.18172734846485292
round 0.03612218384630869
》 0.021017378584129963
@ 0.7142798325691996
Int@@ 0.14900412041091152
Stra@@ 0.16650057506447102
erra 0.3205907050203012
Alfonso 0.3154735801003202
Wien 0.1232121028828651
lion 0.07610572041364241
sci@@ 0.8829677783021177
stat@@ 0.03346642620737898
Deutsche 0.14234358154996626
a. 0.10300027946855245
ː@@ 1
Bek@@ 0.16376382627591118
Dame 0.17964358008367912
hik@@ 0.5260075672772465
đ 1
宗 0.2308946408042316
erek 0.22496692905638002
äl@@ 0.03625410688137868
bass@@ 0.10925149655868129
river 0.0689663049453664
zey@@ 1
イ@@ 1
陵 0.6657627447064489
Edu@@ 0.38401153573784735
Russian 0.05955813483989054
ien@@ 0.18592685985971832
東@@ 0.08468136477905502
Fritz 0.2855820134140486
dru@@ 0.06508010401655906
fir@@ 0.039386246456873227
kaz@@ 0.479591915138734
place 0.013927645797672125
med 0.1915818547350485
osu 0.689909878867841
Motor 0.19429277830007896
Wild@@ 0.16784742615749074
diff@@ 0.17407140868263274
mans 0.17142410097771754
Wir@@ 0.08697591133364765
elling 0.059503557964156246
onds 0.15933602683012624
ậc 1
mana 0.3281564170271602
ıca 1
Britain 0.10395059628972934
Como 0.13791404806357058
Kirch@@ 0.11619537566216066
aliz@@ 0.04342106625149
cô@@ 0.11247952043001264
dre 0.13072538934178698
hun@@ 0.2041820042331346
dır@@ 0.7825700065331067
ieve 0.09850234975789295
ו@@ 1
Produ@@ 0.2307132576396291
eco 0.26212134995609465
flo@@ 0.037889019767018126
tour@@ 0.03375268285535426
Besch@@ 0.15207231515541025
azine 1
eas 0.14563661541602088
vez 0.047036321399655086
high 0.022552986384830834
ists 0.023310423490165526
nez 0.32337483554882784
grade 0.1020418862357848
sant@@ 1
year 0.010487675070292149
Act 0.058191147660037065
Sü@@ 0.10662146363524061
amount 0.11070055998113648
class 0.045322110666128755
staff 0.08886141058064183
iso 0.2903234681065697
table 0.08104665604461617
liber@@ 0.05342719831358424
sich@@ 0.0497274261512235
œ@@ 0.130850582325588
imal 0.12302491794635828
Canadian 0.05668357425174219
aller 0.047311055205321646
det 0.09932862580689107
isis 0.41736024055972154
known 0.011803679270505817
s.@@ 0.5356270026878841
west@@ 0.11871654488616044
berto 0.4194553347607565
ishing 0.0463403055088266
waj@@ 1
edil@@ 0.28359784365193985
night 0.06632015885706365
ray@@ 0.23636071198390043
rel 0.2579910103203328
、 0.005111995380322239
聖@@ 0.27904154923243646
Contin@@ 0.17790526696723433
enz 0.07031254523080795
郡@@ 1
Apr@@ 1
Order 0.10333118271022182
aday 0.935742164638916
bourne 0.5114292970206832
change 0.03471994737057617
ende 0.019709383544797787
iste 0.030366088672874453
Yun@@ 0.4848592729005253
brit@@ 1
vio 0.2181205033666778
alog@@ 0.10550546188710451
ports 0.04475249474597726
Soh@@ 0.4348765019272114
Tag 0.13538585207563464
Wald@@ 0.1918174760566102
seau 0.18533119175212492
wad@@ 1
ück 0.09424830453180268
mom@@ 0.16710965969998678
spo@@ 0.05893733828368608
Der 0.00784728316202141
Metropolit@@ 0.16510259696726126
mill@@ 0.1577436313402066
undi 0.6458457519961824
anat@@ 1
revol@@ 0.07805061646370222
Montr@@ 0.25892211089637696
Social 0.11202175952311605
most@@ 1
siti@@ 0.5966205456758624
struc@@ 0.03994403450441033
force 0.04885266261613865
Ø@@ 0.7916731743105745
Lö@@ 0.21467337316239807
anced 0.07495963725153588
ecti@@ 0.42706726640989257
endo 0.033707225319354564
Army 0.037674458946525775
aí@@ 0.36721752172637045
enos 0.3991644213120639
later 0.011102867442606495
上@@ 0.050653243623356214
And 0.14240540184317727
contin@@ 0.06526033973523726
ě 1
Antar@@ 0.22445005386032807
Modern 0.17871830353702425
Nairobi 1
Code 0.2065723385571888
Hr@@ 0.6920556229184386
ebo@@ 0.2410665228168782
inv@@ 0.025662512729507436
refle@@ 0.2760278201686123
shot 0.08384629710315766
tah@@ 0.39669271647502446
trav@@ 0.03490887961453474
† 0.038137321226684534
eren 0.024927521025569926
scor@@ 0.07004658199648263
soci@@ 0.027155243874697838
voc@@ 0.03436267377209622
dır 0.4911626148442863
say@@ 0.047302495865578394
tors 0.031333033509817663
rul@@ 0.07734182275730966
yok@@ 0.5362855459927542
長@@ 1
Lond@@ 1
anas 0.08281786807697035
enk@@ 0.21483816781600387
ization 0.10270991678840014
tres 0.020807666866259112
bed@@ 0.07004978525922388
oja 0.6006893147962263
xim@@ 0.5580714448130598
人@@ 0.03831180954950347
Ort@@ 0.14596828716605423
exp@@ 0.021315521412871324
òa 1
2.5 0.2800924182758084
alist 0.03819658210156357
aran 0.22877317777435502
dir 0.06561358718950872
nel 0.09893542526335809
neu@@ 0.06444882863742565
194@@ 0.21779510300300214
Jug@@ 0.24985936263887112
bonne 0.18773194178015115
aler 0.1689494125451165
egu@@ 0.4410817504479794
schwe@@ 0.20426657156843253
utz@@ 0.12276584901554075
Groß@@ 0.05544494036344935
system 0.021765135524878205
Herb@@ 0.24362043320417331
cent 0.0713112599653253
dres@@ 0.059685954168436556
gues 0.13925947114313317
Organ@@ 0.07378075856803536
rang@@ 0.11172548402279833
case 0.04049991298384309
iria 1
king@@ 0.18652655859943867
ords 0.054544095948991275
190@@ 0.443391155876544
Jor@@ 0.40710772754450886
Nür@@ 0.2544266282448018
anco 0.23994001330145673
main@@ 0.04837043405929905
ứ@@ 1
Hof@@ 0.13478144021626526
ross 0.3269078976680498
terr@@ 0.14805833519066694
March 0.016690075304555185
Mün@@ 0.08962243898825582
Profes@@ 0.09551724655774854
aught 0.07404522340617554
avy@@ 0.5437498613412388
hes@@ 0.3059456400877005
sche@@ 0.07482619358732857
their 0.004749795116167849
zor@@ 0.4715836009364606
forman@@ 0.25888980768388353
g. 0.1260695885908459
ising 0.07866437499727554
ping 0.109125028509569
ises 0.04058376558512727
onie 0.17852006069601173
only 0.009839960655429308
Most 0.07126535100255782
ever@@ 0.09494028420166128
Córdoba 0.29278782340860326
Education 0.0631236868175713
bud@@ 0.10969235533014499
ications 0.1193237281442825
mé 0.15448270125087574
usha 1
zin 0.24514034043351443
Racing 0.1607799166907183
olar@@ 0.1547893739868544
sych@@ 1
sym@@ 0.10395016039482459
ules 0.05075173386589231
Reichs@@ 0.13383438057559052
comi@@ 0.3180895546391461
kata 0.4981305146829337
yab@@ 0.915224579694622
ağ 0.910800514694577
esto 0.08256173035761673
lü 0.6081931654132281
ecu@@ 0.10817178231713794
ifu 1
where 0.008961218698135183
gency 0.09150666078377702
uela 0.338793154756863
Jah@@ 0.18207358207300064
mut 0.2548458289208466
scher 0.06088055148009636
Ili@@ 0.763190652650989
aces 0.05813438279539335
after 0.006484463006543477
dat@@ 0.08468753951767667
inen 0.09478887815873505
schle@@ 0.19675708436030023
ầ@@ 1
Inf@@ 0.22331290740240656
Unter@@ 0.02798650794243519
Volks@@ 0.07103632474779803
extr@@ 0.03709972733844562
ilk 0.08721647250682656
kut@@ 0.5094271797176758
match 0.02792892411303691
成@@ 0.06706232701850513
Schles@@ 0.5116914850338244
Sud 0.09459995561990503
cil 0.07369451406139117
lor 0.5125957203251197
km@@ 0.16320491704079812
pand@@ 0.12409821173219242
Oper@@ 0.08841915322287007
sto@@ 0.09370227760474192
Eduardo 0.29917513217669806
Test@@ 0.1635534799933489
aines 0.0605388604350071
ezi 1
Design 0.13477570159150162
Deux 0.20427454800827868
Martín 0.23919759023645498
ational 0.03978416425604492
atos 0.10259077607960741
lag 0.0458911208092826
libr@@ 0.08083641155577691
nek 0.7800214303359738
ographi@@ 0.06964048039636307
oles 0.09886389757393801
小@@ 0.04467902054799886
Büyük@@ 1
Renn@@ 0.21828239264432128
Roll@@ 0.36790644407491474
chs 0.22859663452464823
hui 0.08253463602471849
onc@@ 0.10423197994905188
198@@ 0.20658270068114867
Martínez 0.29891829308106066
Moy@@ 0.2093497044789629
prof@@ 0.03953232884226214
sala 0.3128464007777811
alar 0.2600982564823415
aret 0.3055691721434077
ht 0.08469636512845584
iche 0.08316544398936954
Alej@@ 0.26085950205169023
Justice 0.10344978878463452
aub@@ 0.16903369954460676
background 0.11981382235378982
entes 0.018778393353974777
mass@@ 0.15599290479232394
pay@@ 0.06513487053919972
ć@@ 0.42386525167537453
宗@@ 0.27118716190911707
En 0.0038660735771027066
cros@@ 0.07651373590456388
erine 0.4287904002001303
ober@@ 0.08383168337519907
tista 0.21481509708218402
vert 0.21157878167282473
yar 0.41837976967955576
新@@ 0.0383407843882905
ortho@@ 0.280065652777292
Eurovision 0.2743602547813976
indi 0.9266990078364544
sup@@ 0.02216850100732216
zona 0.09352958268763298
日@@ 0.05196760283043639
Beş@@ 0.9845362445231257
empl@@ 0.10885985157126737
pay 0.1151038124387443
Islands 0.11384157633133493
Production 0.13598239873553125
ects 0.019738441381872675
iran 1
school 0.015274346839491516
uso 0.05039517044566584
oise 0.19921750622584128
pers 0.11398004039641459
195@@ 0.09284902594123215
Landes 0.18074942872878166
Schi@@ 0.14701594444197078
port@@ 0.025641118450665346
Yıl@@ 0.6338112927826474
afé 0.23498136689741522
eaux 0.07890123104580092
enti 0.5393220559374725
marine 0.07865701786922687
ms@@ 0.26372219795420604
้ 0.24690910993557005
sions 0.03414240263415829
BK 0.590671169293544
ables 0.031452283162790674
echt 0.23569575992241645
illing 0.07833123425548268
status 0.078904025666583
undo 0.3300939942978297
ー 1
Person@@ 0.09943064852800368
constr@@ 0.43943748253782144
elos 0.2742125323212904
kno@@ 0.05129770188549515
昭@@ 0.5909143240427621
Soci@@ 0.09984782661923534
Stadi@@ 0.2477420426767109
ación 0.005315139248418092
down@@ 0.08969865119986065
ease 0.07688947325902472
ffen 0.11678396730368651
Mia 0.9879393719801148
Temple 0.14111558677576225
ajo 0.19545702653907981
imin@@ 0.18741852088576258
tero 0.15633396248181672
і@@ 0.3912013899816502
sera 0.08796694505274022
江@@ 0.09963756524490948
atrice 0.19051315230569027
umen 0.1219486448627078
ías 0.04581623751990559
Memorial 0.12882832674739636
app 0.13051949656998202
ikan@@ 0.10416836727426017
trata 0.23315828655853538
unter@@ 0.014114414325935992
่ 0.2546629462317646
center 0.04489555316544617
cycl@@ 0.10943443291852327
jen@@ 0.4496808063685998
state 0.015218661562151788
Kib@@ 0.8614719051292902
SG 0.24364119785231464
fic 0.052824675594717534
sional 0.08059138381089502
Cen@@ 0.5455140156331794
Motor@@ 0.15962890924893802
auf@@ 0.011003087653663325
神@@ 0.10651734248234891
hold 0.08756053414824155
inz@@ 0.7266696124335925
mile 0.10892880786235391
through 0.011979563385606486
Priv@@ 0.14908973551345833
Sos@@ 0.5963843392037136
arac@@ 0.9738004355585369
eline 0.22761685624507724
maz@@ 0.4542099854138257
sine 0.6354048578430442
zw@@ 0.06993487611800787
Castilla 0.3061463298410973
Yug@@ 0.48472696924174663
host@@ 0.05517962651281932
olay@@ 0.6924854969326287
parentid 1
tiz@@ 0.05874847118595855
20th 0.08880611635857825
Marsh@@ 0.35022820871176674
Milit@@ 0.07987272950289818
part 0.0087959005854988
quir@@ 0.2212823558769374
riff 0.1378149481222525
ṇ@@ 1
Enrique 0.2309821527852903
adj@@ 0.10966395504294067
Ổ 1
Geb@@ 0.05850405759050407
about 0.010110624145768205
organ@@ 0.04278244614227626
yay@@ 0.4946750882453746
ympi@@ 0.7232581169822061
Atl@@ 0.4918760196887122
Avenue 0.08919033538599735
Gest@@ 0.12667023437484817
Mb@@ 1
irat@@ 0.2492069001834097
jed@@ 0.7754659859349311
Lü@@ 0.23748887490470386
白@@ 0.10818269970658083
Ung@@ 0.12847820015552566
acio 0.1488332403384822
fall 0.04247211696379189
än@@ 0.022003735047132024
ıklı 1
ılı 0.583206089249596
ổ@@ 1
3.5 0.33900500890269913
Noctu@@ 1
acks 0.059059841455399616
inge 0.13361504805225716
olf 0.3478692450783957
rö@@ 0.15292360429337287
simpl@@ 0.20947801615578365
ths 0.08742717736282606
道@@ 0.1569402759863776
adem@@ 0.2785851107577035
frac@@ 0.1796253403600209
kus 0.1809973261984468
ラ@@ 1
Baba 0.7069358596274194
upe 0.49119396536287735
yor@@ 0.80961161161024
197@@ 0.06202587254253541
heavy 0.08987845946550074
vit 0.23952417246122207
Mar 0.24300656025000092
Mustafa 0.5613972658153225
ament@@ 0.07554644565626596
disco 0.1399900011856974
disco@@ 0.10355871893680704
国@@ 0.05283624029124997
ective 0.034385197110413365
lery 0.09603084352419589
naz@@ 0.2902195006111798
ude 0.16289167190792733
ues 0.03099148896382503
196@@ 0.06634500051497202
Ord@@ 0.11666104951699796
ligh@@ 0.03708538091132891
rant 0.06943935807198305
éal 0.19952390898093045
Ame@@ 0.7806597666560015
Stadium 0.09508424130192704
ampi@@ 1
aras@@ 0.5200112894587698
mula 0.18104100194994943
朱@@ 0.2681478559440733
perial 0.09552565854244134
vière 0.4978111981758831
zim@@ 0.9270732221661676
Services 0.1305487878828864
algo 0.17707577335678296
alism 0.06676553345513475
arn 0.1932507270564209
erh@@ 0.05609293592812306
fied 0.02257891183756609
icha 0.6358286649360376
kiş@@ 0.30676088927029804
aff 0.1680496426170093
sept@@ 0.6412166317563539
Territ@@ 0.10628386111810524
rar@@ 0.1502580014213849
Her 0.04348509968461207
ampli@@ 0.11785928784020352
andes 0.2826476133038482
ark 0.14646795717289485
champ@@ 0.280670945540538
eiro 0.638875400586297
emo 0.27184486319661755
ref@@ 0.03116455649865234
µ@@ 0.693857942438525
正@@ 0.0746720741840024
Chinese 0.047216377286617796
ool 0.44996078281585306
Ơ@@ 1
Mission 0.1537458817105068
ción 0.01400297383274606
haus 0.07289719612416333
pro 0.07590290199067518
北@@ 0.04253197335995703
이@@ 1
Middle 0.09571612278018914
eski 0.25585893112160923
inde@@ 0.07005613918090725
1st 0.04908191458749515
enea 1
isme 0.043157075591266504
nie 0.08732648046556318
Winter@@ 0.1312129303952399
hasa 1
kers 0.046630296707511745
roy@@ 0.09110476862762584
Dop@@ 0.5954132184017109
Eliz@@ 0.989100271174795
Federation 0.12301207751416317
Obj@@ 0.1230297282876442
Wehr@@ 0.17963983281577595
eve 0.1271129294050203
istic 0.06406271304236395
sters 0.14835276351402657
üc@@ 0.08043971596902878
親@@ 0.3815625959036272
Health 0.0863831990040388
chang@@ 0.05788970993645066
enty 0.08884638687440434
mak 0.16132796350707135
馬@@ 0.16921975170618403
nuc@@ 0.3024176861468776
oku@@ 0.5725632562878222
ring 0.06418953696021465
ezo 1
last 0.022833863302764674
ological 0.034202193094606884
olu 1
post 0.041757765826839224
Un 0.030782463452625714
bli@@ 0.12164457025090647
gether 0.26388270015947174
永@@ 0.17529929010378553
Sciences 0.11020238906610484
aal@@ 1
eil 0.07918705869033803
wide 0.0370888662056673
Ớ@@ 1
不@@ 0.02412305617215938
Bask@@ 0.39703641594743705
hul@@ 0.30163859375512686
А@@ 0.009311106582086974
Ciudad 0.15199220280706077
ices 0.033672189357487864
ities 0.029224798538767183
gau@@ 0.20313151216029499
ël 0.15062612958084018
五@@ 0.07728345600447832
Council 0.030390996765829254
bil 0.3528135847492942
most 0.009117337749125792
mov@@ 0.02812007231468653
yav@@ 0.9138212244038543
Alter@@ 0.12213252470050232
Hamb@@ 0.16363367680951357
Jap@@ 0.2377022690261006
Mann 0.10383697499640372
Uru@@ 1
bre 0.043796632783728674
inet 0.09710012163870876
span 0.1995808120300191
Bü@@ 0.12074937895205469
Grab@@ 0.1327583198849161
Notre 0.16921119165592996
pu 0.17489438789035217
tena 0.7838277666829693
üb@@ 0.08048321060714353
γ 0.7257796269210548
Gran 0.11728514448004768
juli@@ 1
sion@@ 0.08245288911839829
ος 0.03848433538632476
林@@ 0.09099044409569615
Uch@@ 1
hof 0.09175227831350785
auto@@ 0.0673850007904624
nur 0.016160769592567212
uu 1
Theatre 0.07345528344516182
jana 0.44698523513491495
led 0.010971360330228415
reich@@ 0.05046712751084602
NAS@@ 0.2961143233592005
Schiff@@ 0.18757967946170964
dil 0.524031133262888
opo 0.693553710269498
gang@@ 0.08721920146620846
geb@@ 0.02340723101203837
hau@@ 0.06149458507759417
kis@@ 0.27986793757072675
person@@ 0.046721011332516396
zun@@ 0.684697714328875
周@@ 0.10755060235248017
Ital@@ 1
aill@@ 0.09813067991123962
ques@@ 0.10889930487234013
sequ@@ 0.050459120948323916
stand@@ 0.03457626376758287
世@@ 0.15208547830828484
Kör@@ 0.12127413624775218
恭@@ 1
egen 0.03864506534739922
elem@@ 0.11899662021404017
imba 0.8204900361677567
nac@@ 0.10897263405968716
utz 0.14762413141014744
Sign@@ 0.15874773409607223
eit@@ 0.09925831143364161
kreis 0.12695109867016133
oire 0.10445629210261166
ım@@ 0.11988211258527762
aji@@ 1
gres@@ 0.07400315001401436
pino 0.30569348028166765
ɪ@@ 1
Dok@@ 0.2521842327275347
cord 0.09970124461950769
fication 0.03152409435324731
kav@@ 0.5750730174659703
rein@@ 0.09957672714955099
Erd@@ 0.1485563828854855
alit@@ 0.1511353987974744
hoch@@ 0.1511734520890285
urity 0.0522748606064927
day@@ 0.27779216418416675
formation 0.02967179608428041
192@@ 1
Rug@@ 0.6006727031686874
angalia 1
break 0.07608264329258627
esser 0.14988021565152676
who 0.004088784799706333
Other 0.042691407017062956
haus@@ 0.09497437701000654
ned 0.036771828212442924
porter 0.06738683740396391
they 0.005904127130154311
town@@ 0.35080068633565636
yen 0.09673986449737754
α@@ 0.0718514331751241
光@@ 0.11020890598447067
adas 0.013553351902366338
ation@@ 0.1334823419973133
itation 0.0522233266704992
jah@@ 0.1855089981478087
oslav@@ 0.5932586715344468
öğ@@ 0.831252286857829
Guillaume 0.20462856691875278
Museum 0.03554781842681632
aten@@ 0.06150058714487253
eben@@ 0.19385069598715993
illas 0.13394314218162226
she 0.006419539359229198
GT 0.2438901568985021
KK 0.443740166953193
ged 0.04410148899161501
haf@@ 0.0638452175555364
isol@@ 0.09900215274742183
perf@@ 0.08389638495025593
roqu@@ 0.18945951943293662
в 0.0007033182518443996
ṣ@@ 0.9461134559474598
isten 0.027730103212293092
ví@@ 0.15850412504241218
ź@@ 1
Viz@@ 0.1346646496977346
iler@@ 0.17721108502755756
odo 0.5538506516516875
ル@@ 1
宮 0.38405761792762033
惠@@ 0.47661736308301433
Kup@@ 0.1930186371839536
idar@@ 0.2300359100685474
list 0.03634046836127285
Buil@@ 0.08563120493573008
Revolution 0.10031158478682371
aking 0.059410267415954066
kre@@ 0.04858287835083944
ologies 0.11955923941881108
Another 0.07835270717091085
Zanzibar 1
fore 0.04196399396936904
Elle 0.01501061754639667
Hispania 1
esen 0.06457649819032449
Ago@@ 0.7034857617493687
atur 0.09585491967407117
beg@@ 0.020586167814835497
commun@@ 0.02816969725448183
ince 0.2057232742485262
opin@@ 0.1096726819816638
turn@@ 0.28488294001459624
на 0.0012584692050033562
got 0.06655950108271616
zone 0.05328562052614175
Way@@ 0.5800466392605339
aben 0.0646798994505722
auth@@ 0.046352071992377154
ching 0.06043572044468626
free 0.03913158939036391
mili@@ 0.1620187465378234
second 0.009363600716200966
yel@@ 0.10733323082291081
Т@@ 0.016692402029351672
193@@ 0.1009176890426204
Concep@@ 0.1975816288292126
eden@@ 0.09061409299098665
stead 0.14716054243467808
tivo 0.07080518183533689
yük 1
楊@@ 0.40874747510751214
auff@@ 0.10230383367499193
iden@@ 0.13733704876986558
vice 0.059966902378230325
genus 0.06000395446645838
lac 0.15288394534258723
mode 0.11225937394448748
û@@ 0.0706897667569098
Ư 1
feder@@ 0.07069796804292662
fut@@ 0.08067894471610262
heb@@ 0.11996869914687569
illet 0.37520277314516254
kri@@ 0.06517773960180756
spe@@ 0.028303637604652123
use@@ 0.13023432920861647
ŭ@@ 1
igr@@ 0.13638679552708582
mig@@ 0.056414233553794726
nah@@ 0.09442661397483737
çon 0.19004878417562446
Harv@@ 0.7867354807153303
amber 0.11583027025248724
black 0.044649098660759105
plu@@ 0.20130134722100218
At 0.015180805936344684
Community 0.1007888873876527
anz 0.13769238346309798
curr@@ 0.0755147698937419
eig@@ 0.05894900237093908
ples 0.024456009647861786
tech@@ 0.2675859192476522
Ổ@@ 1
math@@ 0.07414044016134538
orig@@ 0.06593672212521706
pass@@ 0.018438052081831715
Braz@@ 0.1379716277657789
artic@@ 0.25816875596613276
eben 0.033957540314859105
iser 0.07433193909674757
macht 0.11542182730797616
ority 0.04463752774285658
rd 0.06216815649770278
Bö@@ 0.1973189683687753
front 0.035838469960679166
kana 0.9949864062180901
ppe 0.2236866433912336
cina 0.25999260542823444
mau@@ 0.1456386676578696
Kend@@ 0.45866932551631195
actu@@ 0.028805032648026814
aşı 0.7278367614296314
enter@@ 0.07188418030921195
kub@@ 0.5611090890630237
park 0.041503157547778884
sert 0.09846687453462008
vé@@ 0.08659302052610258
ün 0.1049674681925612
四@@ 0.04520922202108985
Vier@@ 0.07661034415696863
found 0.013668052698816945
äger 0.13842803307713109
い@@ 1
americ@@ 0.8390430012785466
Salv@@ 0.32733654489379027
aring 0.06199916118918828
eces 0.09965955328645897
event@@ 0.10907411328659816
lose 0.1147075474764904
rim 0.3785952697607924
small 0.01977115983130184
Fak@@ 0.14076467107022336
eder 0.10880610843076709
ologne 0.28442171892042656
sek@@ 0.13936685028468296
çal@@ 0.33804441260659124
aborat@@ 0.15558007359381257
bles 0.034480176032105035
sali@@ 0.14232726305155002
König 0.08303587292843174
có@@ 0.11316985018835372
gest@@ 0.030270800577139476
onz@@ 0.14678510060649527
`@@ 0.6419963336685961
aller@@ 0.10409339753950574
kote 1
liga 0.05831550297637373
nad@@ 0.5062742634264564
pf@@ 0.035676707044719015
saf@@ 0.055721848521290106
til 0.07549631030337779
wes@@ 0.06404982052976581
1. 0.02643378530848931
2. 0.04944009332493568
arte 0.10113137351047696
param@@ 0.13627304803624485
ump 0.19650910213851977
vy@@ 0.6132557964739809
wur@@ 0.13216439823561305
ン 1
acter@@ 0.13644526913409577
full 0.030436688759838727
mm@@ 0.1590690496642417
version 0.01922868877744918
His 0.01374081175077101
laz@@ 0.45317645616845115
run@@ 0.050164144474853685
êt 0.09208510394434984
Federal 0.06808687990030059
Nueva 0.07475764890985667
eign 0.042876502553426
ikit@@ 1
ives 0.046005005508485304
lars 0.1001768682861862
lern 0.10154445409057553
rem 0.8216301847375608
八@@ 0.09468408300187255
城@@ 0.08787011743603401
阿@@ 0.04183966952481303
--@@ 0.608125425570728
Alem@@ 0.4090255492496393
Christoph@@ 0.33764506531115185
aham@@ 1
approxim@@ 0.2592747164068839
doğan 0.809749114301318
fro@@ 0.12339068116014618
ilde 0.23815745177298417
taire 0.1047421088893195
tet 0.029372558023220485
wag@@ 0.2750301483377481
zar 0.1713369254584194
С@@ 0.007488310478862071
Sov@@ 1
bron@@ 0.29380864669463874
fis@@ 0.11875358881118685
raf@@ 0.1998079628723828
ét@@ 0.020340648014802815
Serv@@ 0.22402295387046742
aka@@ 1
district 0.01887100925948083
elek@@ 0.21828898250194967
kari 0.9382368649268108
radic@@ 0.10446037748222263
regi@@ 0.03646773851815121
sil 0.12616241413130141
5,000 0.14173926264212838
Championships 0.048784170756810935
afa 0.4305428069921093
itu@@ 0.08624895942549556
定@@ 0.0902290411495379
Austria 0.08864078460153778
ember 0.09831659032168955
eral 0.05157549106091374
will 0.012607624847732216
ön 0.352970383132949
慈@@ 0.6155475064325323
gien 0.16249728365660163
orie 0.0446653392866216
zt 0.07254256657645615
ž 1
Das 0.007719160939257561
Feld@@ 0.12776452954582146
Minn@@ 0.6789862108679109
Mw@@ 1
room 0.04465083927666716
sah@@ 0.19463908936696991
и 0.0008580129249444879
城 0.06841797378986635
夫@@ 0.14179886683519588
Dies@@ 0.23312079367105762
Lt@@ 0.28799334706490193
atz 0.13897241868102156
lave 0.1267889248603041
legi@@ 0.07006861315565494
ɛ@@ 1
Canal 0.11658741683399552
grand@@ 0.05882004875414764
hep@@ 0.29518562128159365
rugby 0.0840792690467032
Deutsch@@ 0.10931941995512184
aat 0.3547598384511738
anderen 0.03280516843954369
identi@@ 0.018444542546294893
¥ 1
ös@@ 0.0919696001428917
Für@@ 0.09780289070186421
Stand 0.07400401421177809
icos 0.02808794543711905
์ 0.0634711416856934
189@@ 0.36322269196955226
deu@@ 0.32229598871094944
ellen 0.02285450854347766
far 0.05157843780189594
pre 0.06080122050251647
reti@@ 0.06699713078642693
清@@ 0.08517692348709904
adul@@ 0.05322910372242106
azo 0.12227261059597694
evento 0.2539368174467699
nj@@ 0.8853551496057604
ồ@@ 1
Ụ@@ 1
Parti@@ 0.07369366137376444
Pé@@ 0.22036415682239724
dik@@ 0.2008192757425407
foc@@ 0.03188726709201926
k.@@ 0.39992558481022655
volution 0.09766273330254747
ṭ@@ 0.9458739373857918
Earl 0.10510623340560171
Plan 0.12027164869067951
liter@@ 0.02622158620392845
yal 0.5946282094401104
UE@@ 0.5486803072460933
für 0.002930861620721124
hali@@ 1
icio 0.06085769491684085
native 0.05469695698554678
ofu 1
once 0.027167749364829182
ppi 1
trit@@ 0.15033369712400318
О@@ 0.008009247555615847
し@@ 1
十@@ 0.034015668393832826
Committee 0.04463946538353795
Leip@@ 0.513390994323
No. 0.04996633638236837
eler@@ 0.10596624518207766
kuz@@ 1
nach 0.004816533263579821
sek 0.8380755297568228
wagen 0.1086371083537963
bile 0.1034125328247986
jou@@ 0.04480991550398013
otra 0.07942275556303427
tice 0.19547096492182678
″ 0.6766824148998389
寺 0.17250698900205946
水@@ 0.04507542750053391
African 0.03793215573320895
April 0.008922777131779417
Library 0.08415432969816584
Police 0.08452125514830805
Province 0.058171444515209884
cut 0.06412483275461482
power 0.023589387628980787
quer 0.10823186287698357
udo 0.23831930919616515
Department 0.035977072937812125
ected 0.012579608191614468
half 0.024579680837088808
éd@@ 0.05945629347894215
ッ@@ 1
anese 0.20285356399990626
üm 0.28114293988114103
н 0.006650445841257399
Hous@@ 0.3687760449147936
dak@@ 0.6382210296054525
separ@@ 0.043275820754002006
黎@@ 0.3481397126769114
jit@@ 0.9403114176508792
plant@@ 0.05315099794608424
ution 0.03775187177189442
花@@ 0.12456117676359342
趙@@ 1
Champi@@ 0.11121641236712013
Deutschland 0.0340956902647153
Front 0.10540786211015903
city 0.011956770827942916
ders@@ 0.4331680064925616
loy@@ 0.07276196761465831
soft 0.22016357848500978
ól@@ 0.1357865426187066
春@@ 0.23160153144216442
adio 0.12525579606904946
erre@@ 0.29414468613380274
fif@@ 0.042835177821750926
intr@@ 0.12603567621842854
lieu 0.034135102234547916
proxim@@ 0.09245587394071332
schen 0.035274187484564616
u. 0.07455984206922886
ubic@@ 0.17674529844817755
voir 0.059186269864408954
ő 1
リ@@ 1
古@@ 0.061279472708687444
Archit@@ 0.08716309543232834
Rez@@ 0.14663901306434254
Speci@@ 0.15927909741604773
function 0.07160523894684455
istère 0.14947063398353838
list@@ 0.03575295123202108
reci@@ 0.03550142529670491
tés 0.07174711083718036
urban@@ 0.11843762295463556
188@@ 0.31863878615846924
Alfre@@ 0.3470826009072184
Irish 0.05428177862860511
Islam@@ 0.0871755518029631
ails 0.06373296459868451
fin 0.019822706197644063
iny@@ 0.5990737130909028
sana 0.7920828889597857
three 0.007030088098807048
used 0.005842468697407966
yol 0.5313106408438018
女@@ 0.0807729730235548
有@@ 0.035817022630454644
good 0.03855812431244897
icht 0.025657503748644814
offic@@ 0.07176586547216979
return 0.036352632510688265
revision 0.6495308283627406
Kü@@ 0.13372516480086735
Wab@@ 0.8981787098319419
deo 0.18010506432986303
dyn@@ 0.09024692143485913
iting 0.07301533747628774
mondi@@ 0.46357177859732224
wig 0.3374594378105825
敬@@ 0.7706388503049538
ambi 0.8672385332816359
erin 0.048706567034004104
print 0.07064929632027069
straße 0.041583986240810625
umbo 0.41648934973864804
Ó 0.9289646226526938
June 0.011600079629178126
child 0.04938158091661492
jaw@@ 0.9614123723584309
lü@@ 0.4842077194662979
quot 0.19565623639341287
ʻ@@ 0.37253045714772665
Evangel@@ 0.11264228693255454
Société 0.13525515618641687
Sta@@ 0.10911664545592802
kuh@@ 1
press 0.0642415799921398
princ@@ 0.12395572818728724
space 0.04162378629419394
stil@@ 0.17260665754631196
186@@ 0.4145502214208763
Dutch 0.06409446764806974
ambigu@@ 0.25771258848894707
include 0.016469923608357282
positi@@ 0.041494061650724084
石@@ 0.08645588559620744
Reser@@ 0.06587275938118166
Vita 0.6126163982999665
giy@@ 0.6452716912455585
ledge 0.07136154107563321
popul@@ 0.04096628302052261
zis@@ 0.280399579143386
ández 0.371707367800551
home 0.014686106509321091
ied 0.03536975501860593
ival@@ 0.17696118813562814
mental 0.042135998850402215
ío 0.08300488282604994
Mary@@ 0.3915803911572908
Seh@@ 0.1904728989172304
aifa 0.6629973333220883
estre 0.11273435216744104
iker 0.0559134338744464
made 0.006878670678622525
sts 0.0717867399230934
師@@ 0.2784362250793258
Board 0.050616818126764204
GmbH 0.11524466858489288
Universit@@ 0.09534380813764107
anten 0.11148672722725404
canc@@ 0.0419179629418401
cim@@ 0.18349587641551615
integr@@ 0.03887220493625779
jum@@ 0.08709470867500337
level 0.024867372670216412
porte 0.02858586445787887
Airport 0.07327118636771408
amen@@ 0.12519098976915755
kio 0.2404028139105355
onnat 0.16797644107755544
tien 0.0699138656922104
weg@@ 0.036116346066824526
mano 0.1411501083029259
к 0.003613677559399885
Frit@@ 0.6737823080190053
Japanese 0.03349415593989935
Wen@@ 0.11305905099798855
ening 0.05837456299350547
р@@ 0.009570388620442781
貴@@ 0.5993219897399475
Bundes@@ 0.03168857107822429
NFL 0.0895511710790689
Pek@@ 0.22795253605268026
Theater 0.07709223144400716
amor@@ 0.18149328997323272
ombe 0.37743026995949863
ved 0.012114048636166117
א@@ 1
1,0@@ 0.30894500102670897
Early 0.028172792214065174
Wür@@ 0.1528754552261711
head@@ 0.023115684144933164
them 0.009195110802509562
皇帝 0.4088810779164756
Git@@ 0.14000156615781806
Kari@@ 0.3701759400808175
amos 0.12123904411151219
beau@@ 0.10300054236067246
izi 0.4481663469100456
ordin@@ 0.03800610070893812
tional 0.026802238723260534
ス@@ 1
Des 0.0528026112847251
ché 0.09698651271609096
diffic@@ 0.09751201814385659
public 0.012836106567938222
э@@ 0.006819552904901405
的@@ 0.16459149901689682
europ@@ 0.05118494075190161
usse 0.16659258879164668
й 0.005812402486746697
aï@@ 0.10393709010677213
costa 0.133786701508261
gemeinde 0.1089811254756293
msh@@ 0.6822623965938954
oğ@@ 0.54141813482334
thin 0.08820271984636004
漢@@ 0.18603223242572925
180@@ 0.4861163870903352
Bib@@ 0.23924493904863062
club 0.010098179819574763
common 0.029522024727427265
ending 0.025033165791778892
ked 0.017377080906936116
ungs@@ 0.007091830169007027
Bağ@@ 0.980762091462568
Fé@@ 0.14558608097778802
assen 0.043890704543746294
cias 0.15385761585938115
digital 0.07097381686859891
typ@@ 0.03633547554255843
„ 0.003670546564096825
fam@@ 0.07577896179243461
milit@@ 0.04567999168509627
nationale 0.03854180031908339
schwar@@ 0.12362070294293756
ép@@ 0.06549291085611814
君 0.473845778919658
Casa 0.14676001070057645
Depor@@ 0.17423803025846243
Revol@@ 0.08700133267250815
distr@@ 0.05253106424781982
ific@@ 0.03686482142127557
ilan 0.3968935412082691
rain@@ 0.09337227433373918
wah@@ 0.12459805663209939
zek@@ 1
1,000 0.1388886726372414
Ins@@ 0.08318589547568528
entales 0.11743954769709238
う@@ 1
行@@ 0.04488156262811931
陽@@ 0.31927206274150743
Graf@@ 0.07944895385397475
eso 0.10696272392173978
meister@@ 0.074110304007935
íncipe 0.21526835712058864
Operation 0.09308905736344361
anno@@ 0.2430460003718367
ayed 0.05144656841052476
ecture 0.04995295893725972
lywood 0.5662510771765981
there 0.007801284834004609
âte@@ 0.3181641198335216
Şark@@ 1
187@@ 0.346807007472595
Heil@@ 0.07218813159793981
Mp@@ 1
tural 0.02973563954061953
vas 0.10837866686673397
景@@ 0.19094139245022929
Geg@@ 0.05685721458976468
Zwe@@ 0.05874882681356462
acab@@ 0.15598133322636504
based 0.011311705990439038
octo@@ 1
pris@@ 0.08301074611193976
宣@@ 0.11847463833486192
本@@ 0.03150872251808582
法@@ 0.04237894591300396
Institut 0.06609892503467542
eval 0.08698630983409059
season 0.0061162395194787255
tains 0.04726088841271125
tempor@@ 0.03682085647038428
ül 0.4050996739758991
ē 1
π 0.2442100590777441
ア@@ 1
地@@ 0.029662618962036615
Coupe 0.07487612668652585
alya 0.7216142893239653
cil@@ 0.27106225536239775
due 0.013504687221495417
hus@@ 0.28187565123821434
kid@@ 0.15685740215240426
≤ 1
都@@ 0.1649970216153321
Grou@@ 0.15657157909238514
aint 0.12669696967423782
airs 0.04350682869829398
fig@@ 0.04733964181367817
hala 0.6264667143601638
metr@@ 0.18169354389444844
ête 0.05673780357379949
д@@ 0.0052866073079340554
Scottish 0.06376740048013045
chez 0.04817366662123072
ement@@ 0.0533347402194633
family 0.008700790857172354
furt 0.2509353942077697
sif 0.133060132929614
yol@@ 0.20646885559604936
軍 0.05324929242442282
Este 0.049555760314252496
Wiener 0.12548427541415286
appen 0.07562928652424612
kem@@ 0.3087587771415908
verl@@ 0.023992716903206104
т 0.004276628468783265
康@@ 0.1674998879356771
ativ@@ 0.08962208866034452
franc@@ 0.19999570791080007
guar@@ 0.09563871923252266
mission 0.020609275217068755
ograph@@ 0.031311682408231185
ָ@@ 1
玉@@ 0.22884058278653702
黃@@ 0.5961135477448549
afin 0.05421092144260898
ayır@@ 1
ging 0.02574956020814054
gü@@ 0.12889497263281402
臣 0.188564024882536
順@@ 0.36203177795272246
Gord@@ 0.8687811193441916
ances 0.01583852322525546
lek@@ 0.17694222230250517
nament 0.09907489525628625
vall@@ 0.11196526599616932
vention 0.031855983930460546
מ@@ 1
姬@@ 1
Holz@@ 0.1069060343508837
Vak@@ 0.5863360126386612
alto 0.08896882168325428
arş@@ 1
care 0.04685087463941421
mik@@ 0.36543855022769994
éch@@ 0.03922014949286708
之 0.035367305336330486
antu 1
aries 0.03441798762206598
iß@@ 0.0463061130688354
sona 0.662798279730104
å 0.49554278952941366
İm@@ 1
朝@@ 0.10983282690526261
afor@@ 0.15457441736938632
fak@@ 0.2199715709186273
immer 0.03625876397860249
rique 0.31619525502217566
tent@@ 0.052136040733059934
Æ@@ 0.5098142626287857
θ 0.400567290839265
家@@ 0.0651058324440179
美@@ 0.05797662301304293
Ener@@ 0.1738085631300652
achen 0.04798849589161366
iff 0.07834707346741043
titu@@ 0.0372691436030001
義@@ 0.0987578186614967
정@@ 1
Hö@@ 0.18468294739936042
Malay@@ 0.20267726157155252
年@@ 0.03457896856868069
afr@@ 0.149135958865829
dini 0.5481014481499124
disc@@ 0.07884249467587752
iw@@ 0.2334702352475458
ʼ@@ 0.4715622858275097
м@@ 0.0053229172348713055
Culture 0.09617054192986513
División 0.0762213532428774
Oly@@ 1
eja 0.16453082870642352
plant 0.037158674763158185
ply 0.028353668614008513
sculp@@ 0.05140830701173322
ural 0.07913319815347393
λ 0.09785767160616965
ר@@ 0.9239425620192978
河@@ 0.0599563460740281
Kran@@ 0.07103879726856574
Orchestra 0.1093749039246278
cian 0.20730635778565829
dipl@@ 0.11509219680196096
nou@@ 0.21917052814945212
185@@ 0.3695737825895591
Schn@@ 0.12676835158125305
Stud@@ 0.06190935550803818
afi 0.5138542408245113
enzi 1
omen 0.3396939419614965
strat@@ 0.12992187197239335
uch 0.06928371786397904
éro@@ 0.046957455950611945
ка 0.005204909756647622
ト@@ 1
Dar 0.6804437503462213
ability 0.022663753777719366
big 0.07136745481617852
nim@@ 1
singer 0.046482785816184785
sis@@ 0.707717262718262
ный 0.00511076750936442
原@@ 0.04013018919038705
10,000 0.14449048417726648
Mittel@@ 0.03549423797890541
const@@ 0.05579104900931414
dessus 0.13683395503568385
double 0.04320284444274834
fab@@ 0.5859569591360503
pré@@ 0.015198420909997326
usu 0.16024380251517648
zil@@ 0.805119899002382
ς 0.07334624073086145
р 0.006782133271694013
ル 1
Hek@@ 0.1798853970163793
iliz@@ 0.07307224269204396
onale 0.07789059466674399
Fund@@ 0.08026256904867511
Rund@@ 0.09805896701125846
awa@@ 0.3317455644377008
jus@@ 0.029166892393772476
kum 0.17167512741924726
lub 0.1848885941269285
project 0.027945006034482026
ıc@@ 0.2723499816341115
ements 0.00969054132318644
itos 0.06741498239396987
resp@@ 0.021376061199344647
soon 0.04016580492065657
氏@@ 0.4778878958638535
e. 0.07030090313391285
tek@@ 0.18526243481662255
Occ@@ 0.13702940584016796
following 0.01007280202508946
gal 0.5157063803438843
meister 0.059511286001352734
udi 0.3919105257989194
в@@ 0.004275670855559721
田@@ 0.12321523593810588
Emper@@ 0.07037354020126868
aliy@@ 0.8613804221402539
divers@@ 0.5555416533134847
grande 0.030758482138349048
uw@@ 0.9324755827348976
唐@@ 0.14043247034167428
Dek@@ 0.1461829040582162
Kauf@@ 0.12711322834954816
back@@ 0.0505893932114386
ẩ@@ 1
Dağ@@ 0.9137028637976562
Düssel@@ 0.13150321458966407
division 0.02409107097485878
white 0.029502488186640453
道 0.020613164498724988
Mara 0.6967349966670457
asons 0.08326959958121365
bire@@ 0.8159920108770436
etten 0.14960665576972437
uç 1
éra 0.1432161324958093
emba 0.7837646103778987
some 0.0072682792801542296
Inh@@ 0.10042771678039565
Kig@@ 1
antas@@ 0.7499456483678667
eses 0.08308706699832764
hand 0.03723745111648521
tik@@ 0.19332365487312567
無@@ 0.08279627209876154
羅@@ 0.08825026026097674
inu 1
number 0.008797791290514423
order 0.01652758596057579
page 0.05662098711382346
position 0.011305682233648293
rá@@ 0.11903483565364352
ür 0.10784679348908596
Tanganyika 1
adal@@ 1
ishia 1
mant@@ 0.07207128734179377
ments 0.016479533924169846
ď@@ 1
懿@@ 1
fed@@ 1
fit 0.0685483268836377
tut@@ 0.09320547085334557
ungo 0.9900559485125399
ış 0.10132648520105869
К@@ 0.009498193228981175
н@@ 0.006161818187483986
生@@ 0.03533787242073752
grave 0.09640128110891731
rej@@ 0.055853099467487816
sour@@ 0.1428576757862024
β@@ 0.0316167449772471
廣@@ 0.07235287762140084
mez@@ 0.09573825527382217
sub 0.09127249908411256
Klein@@ 0.11679335917184752
Mei 0.8908079376812547
Soviet 0.038299847510709015
aliwa 1
chac@@ 0.12149438116322592
serie 0.026572828291417033
tific@@ 0.050420951169298456
ε 0.06316961806075971
ский 0.005456216881745041
Kreuz@@ 0.0752096038860121
Lux@@ 0.4248696202033768
Princip@@ 0.11891741001031723
corpor@@ 0.06090287538292218
estig@@ 0.08004524580469737
ests 0.02274775441945194
four@@ 0.08366575825082163
kt@@ 0.062400750975952844
ə 1
ま@@ 1
（ 0.0039278998744157285
baba 1
ded 0.025904828191267364
ential 0.0279523186926695
izo 0.216343499136101
mab@@ 0.7136011261690013
miz@@ 0.35858975047702646
schen@@ 0.098197545894784
uten 0.053345638146402835
week 0.0355869374580962
À@@ 1
鄭@@ 0.34519426939776954
2nd 0.04421053217297046
Itali@@ 0.10482319986543051
burger 0.08465841506594732
ended 0.011854386673125229
priv@@ 0.027718583035956052
ré 0.09560793837820614
Áng@@ 0.1083074996735573
龍@@ 0.15054156123227463
Arsen@@ 0.752432463553282
Hist@@ 0.20504948212637966
Im 0.0057120405670910805
Reich 0.09667030838791778
Sist@@ 0.23394580181501823
asse@@ 0.30696479630468804
axe 0.08553950627083505
games 0.016915884235344743
gru@@ 0.214605992944833
wam@@ 0.6724682946166842
whe@@ 0.030140852064290524
while 0.007068412257699798
Ör@@ 0.560058742814218
ん@@ 1
嬪 1
真@@ 0.09623853181336603
莊@@ 0.7683461904184729
Studi@@ 0.03461312900840908
door 0.047486947492586286
isen 0.07030177520754544
terres@@ 0.12476290074954266
と@@ 1
Democ@@ 0.059847101636805025
bomb@@ 0.06177664410746856
death 0.014729120980844211
erb@@ 0.08384927298575706
kamp@@ 0.10176505549826743
late 0.015981956023212337
miles 0.057147350515217674
tend@@ 0.03654863820796109
acqu@@ 0.04093252856035706
cial 0.03485574000853375
hab 0.17583518031951215
hr 0.09485023493174129
hud@@ 1
ḥ@@ 0.6086842108269156
宋@@ 0.19629456998995262
184@@ 0.4052327556405509
Exper@@ 0.1067414635237487
Francia 0.06644564424815966
SPD 0.12743479495411505
iterran@@ 0.09004382541411061
liche 0.007506139150594542
ütz@@ 0.04888223018102474
九@@ 0.07502655938531261
方@@ 0.057414756646723686
） 0.0038362940549610336
Schwe@@ 0.08234548009338262
ift@@ 0.8056421933084543
sell 0.09487703347740771
student 0.04444530168699983
tik 0.04454384180301077
umu 0.21634391532473732
ữ@@ 1
忠@@ 0.361737736833385
Secre@@ 0.04002504650642302
arri@@ 0.02729301156743073
bell 0.21124790953191383
bü@@ 0.05460113102435957
ekt 0.042043792428417076
open 0.027033203364543526
raz@@ 0.10116249647992102
л@@ 0.005484205699804737
service 0.011608464806135367
殿 0.23925041863352906
amba@@ 1
bez@@ 0.05396864666085138
gus@@ 0.1881264495594019
hak 0.5511106833754639
ileri 0.1812764494030156
か@@ 1
族@@ 0.19317543807966522
lez 0.34349693504637824
mw@@ 0.23283434786221374
yü@@ 0.38518595145558554
Ș@@ 0.8673242203217785
穆@@ 0.18308296710504512
英@@ 0.04672621765597923
Bev@@ 0.3166602588064251
Schwer@@ 0.07798048488277932
cup@@ 0.09652148723395615
mark@@ 0.05823942935419296
pron@@ 0.05660771118360366
anted 0.028738082163436488
hé@@ 0.0733397246734875
lanc@@ 0.07259802374571425
located 0.010050339489939572
pour 0.0023024976114881597
tropical 0.06504513352857662
ustry 0.16636200684557795
ジ@@ 1
帝@@ 0.20760381811582346
明 0.04225901247812138
2,000 0.14632942566514814
Supre@@ 0.05287737647939175
barr@@ 0.06659518757208464
coul@@ 0.05040549467372911
gaz@@ 0.2207874882208208
ombo 0.6548824441267125
unde 0.050298491034142946
Germany 0.02409493423808659
Grund@@ 0.028614183904717462
Jew@@ 0.36380130002124195
abei 1
buil@@ 0.043670816005480555
git@@ 0.1494426601365934
hiwa 1
inning 0.09563150589699697
leur 0.011208526197262288
lık 0.10526026682821696
rut@@ 0.17010860598889904
topl@@ 0.2268513986507337
Müh@@ 0.09782650661048833
Publi@@ 0.2025051554425983
adora 0.06307006989301125
bois 0.07361895319167248
concept 0.05289428852061329
ebook 0.6361054502465293
kend@@ 0.14851846815667452
luk@@ 0.5138102903548755
mittee 0.0648731939825698
prov@@ 0.01959797375911763
stop 0.05684873903422848
阳@@ 0.1989067972124091
Civil 0.04415209679397086
Yoh@@ 1
ange@@ 0.07393545695064166
kam 0.019650496184477506
nd 0.1732239554366293
И@@ 0.00740886924975257
徐@@ 0.22024847316810006
Corps 0.047809657517416365
Uk@@ 1
iş 0.18563925333018474
lead 0.023079152543751234
oking 0.05430974271936684
pour@@ 0.028293368791292996
unit 0.038678016853307295
zig 0.12609743471039675
二@@ 0.03503376918094714
hous@@ 0.2630067286778559
intel@@ 0.046546874549836005
player 0.017771601591550494
sed 0.015846113349530063
urb@@ 0.10863707504022742
ènes 0.06719137920554079
ク@@ 1
生 0.03322519223935841
adron 0.0514203225626105
alum@@ 0.11636738291986708
best 0.01567983294361636
evin 0.5889484173863839
ligence 0.06261183852561325
meng@@ 0.44890876799096446
oran@@ 0.5000410442099634
ω 0.18916167296772002
Hosp@@ 0.2524835183449029
Kreis 0.07003788292813865
front@@ 0.062163089682480986
ible 0.04270566314364537
ıl 0.2695391913655421
ּ@@ 1
ל@@ 0.9994978281311557
國 0.03588384361499439
[...]
