， 1
的 1
。 1
、 1
年 1
在 1
是 1
（ 1
） 1
. 0.14653345508546012
和 1
月 1
人 1
了 1
為 1
於 1
一@@ 1
大@@ 1
有 1
日 1
中 1
为 1
》 1
《 1
· 1
- 1
上 1
他 1
被 1
： 1
「 1
」 1
與 1
到 1
也 1
“ 1
” 1
中@@ 1
而 1
不@@ 1
以 1
由 1
後 1
斯 1
于 1
及 1
會 1
等 1
1 1
名 1
子 1
西@@ 1
公@@ 1
部 1
斯@@ 1
道 1
下 1
州 1
位 1
地 1
人@@ 1
2 1
者 1
至 1
" 1
高@@ 1
； 1
新@@ 1
后 1
三@@ 1
海@@ 1
南@@ 1
特@@ 1
3 1
省 1
市 1
長 1
与 1
來 1
大 1
出 1
) 0.1882225661245983
但 1
( 0.1865907719739311
都 1
時 1
主@@ 1
区 1
其 1
文@@ 1
多@@ 1
行 1
站 1
, 0.031217285389545817
会 1
用 1
小@@ 1
分@@ 1
地@@ 1
之@@ 1
一个 1
4 1
尔 1
區 1
以@@ 1
十@@ 1
上@@ 1
北@@ 1
克 1
國@@ 1
作 1
成 1
本@@ 1
5 1
克@@ 1
德@@ 1
性 1
任 1
有@@ 1
天@@ 1
力 1
對 1
出@@ 1
德 1
法 1
家 1
所 1
日@@ 1
定 1
拉@@ 1
安@@ 1
6 1
山 1
前 1
利 1
里 1
阿@@ 1
自@@ 1
军 1
入 1
山@@ 1
或 1
年@@ 1
之 1
时 1
特 1
巴@@ 1
相@@ 1
国@@ 1
度 1
8 1
四@@ 1
加@@ 1
7 1
10 1
金@@ 1
改@@ 1
不 1
并 1
面 1
化 1
民@@ 1
事 1
全@@ 1
科@@ 1
生@@ 1
個 1
东@@ 1
爾@@ 1
水@@ 1
生 1
米 1
可以 1
合 1
並@@ 1
9 1
政府 1
尔@@ 1
物 1
王@@ 1
首@@ 1
法@@ 1
量 1
下@@ 1
二@@ 1
工@@ 1
原@@ 1
同@@ 1
合@@ 1
对 1
成@@ 1
西 1
型 1
向 1
12 1
次 1
理 1
利@@ 1
分 1
长 1
尼@@ 1
方 1
基@@ 1
國 1
中国 1
其@@ 1
路 1
拉 1
行@@ 1
場 1
个 1
日本 1
新 1
重@@ 1
保@@ 1
使用 1
第 1
名@@ 1
建@@ 1
教@@ 1
期 1
軍@@ 1
式 1
事@@ 1
南 1
士 1
布@@ 1
一 1
多 1
線 1
院 1
台 1
县 1
香港 1
東@@ 1
将 1
交@@ 1
外@@ 1
国 1
就 1
; 0.4610187060521813
公司 1
曾 1
科 1
此@@ 1
能 1
市@@ 1
此 1
包括 1
學@@ 1
以及 1
卡@@ 1
11 1
稱 1
明 1
她 1
其中 1
發@@ 1
太@@ 1
马@@ 1
一個 1
格 1
来 1
隊 1
代 1
比@@ 1
建 1
人口 1
這@@ 1
平@@ 1
/ 0.8835550535744524
理@@ 1
正@@ 1
局 1
夫 1
軍 1
外 1
馬 1
文 1
所@@ 1
伊@@ 1
: 0.2990509150333684
里@@ 1
可@@ 1
学@@ 1
兩@@ 1
使 1
英@@ 1
物@@ 1
主要 1
通@@ 1
色 1
古@@ 1
後@@ 1
格@@ 1
得 1
民 1
業 1
可 1
五@@ 1
提@@ 1
縣 1
第@@ 1
約 1
球 1
學 1
政@@ 1
北 1
各@@ 1
亞@@ 1
城 1
車 1
指@@ 1
前@@ 1
体 1
普@@ 1
林 1
天 1
明@@ 1
美@@ 1
域 1
賽 1
立 1
反@@ 1
它 1
內 1
开@@ 1
該 1
電@@ 1
爾 1
李@@ 1
要 1
作@@ 1
員 1
又 1
制 1
將 1
元 1
业 1
開@@ 1
发@@ 1
王 1
学 1
自 1
流@@ 1
接@@ 1
该 1
段 1
河@@ 1
口 1
因 1
本 1
起 1
河 1
海 1
电@@ 1
手 1
體 1
間 1
戰@@ 1
任@@ 1
波@@ 1
最@@ 1
當@@ 1
线 1
收@@ 1
号 1
场 1
現@@ 1
其他 1
方@@ 1
广@@ 1
属 1
屬 1
會@@ 1
亦 1
亞 1
江@@ 1
星 1
世界 1
達 1
家@@ 1
用@@ 1
福@@ 1
號 1
林@@ 1
罗@@ 1
世 1
平方公里 1
化@@ 1
而@@ 1
部@@ 1
已 1
空@@ 1
级 1
这@@ 1
两@@ 1
美國 1
臺 1
称 1
因此 1
村 1
經@@ 1
内@@ 1
商@@ 1
時@@ 1
水 1
位于 1
去 1
联@@ 1
器 1
哈@@ 1
路@@ 1
高 1
選@@ 1
最 1
從 1
由@@ 1
表@@ 1
機@@ 1
小 1
神@@ 1
比 1
武@@ 1
代@@ 1
系 1
信@@ 1
將@@ 1
维@@ 1
台@@ 1
% 0.7068106372838485
女@@ 1
即 1
因@@ 1
安 1
意@@ 1
大学 1
投@@ 1
清@@ 1
城@@ 1
尼 1
中心 1
常@@ 1
白@@ 1
地区 1
件 1
六@@ 1
治 1
則 1
员 1
更 1
总@@ 1
洛@@ 1
並 1
军@@ 1
博@@ 1
主 1
說 1
派 1
案 1
内 1
定@@ 1
總@@ 1
威@@ 1
製 1
种 1
从 1
音 1
自己 1
3@@ 1
流 1
20 1
镇 1
府 1
東 1
立@@ 1
演 1
品 1
機 1
球@@ 1
集 1
长@@ 1
著 1
机 1
兵 1
奥@@ 1
蘭 1
八@@ 1
队 1
廣@@ 1
吉@@ 1
美国 1
石@@ 1
语 1
片 1
得@@ 1
周@@ 1
回@@ 1
代表 1
起@@ 1
入@@ 1
金 1
如@@ 1
成立 1
研究 1
可能 1
政治 1
4@@ 1
时@@ 1
车 1
語 1
發 1
官 1
亚@@ 1
工作 1
率 1
工 1
打@@ 1
動 1
对@@ 1
共@@ 1
解@@ 1
之一 1
女 1
更@@ 1
數@@ 1
數 1
室 1
平 1
实@@ 1
維@@ 1
開始 1
令 1
& 1
市镇 1
光@@ 1
級 1
原 1
季 1
约 1
戰 1
九@@ 1
字 1
座 1
设@@ 1
直@@ 1
源 1
战@@ 1
族 1
点 1
表示 1
教 1
類 1
手@@ 1
现@@ 1
每@@ 1
種 1
和@@ 1
程 1
先@@ 1
机@@ 1
引@@ 1
动@@ 1
情 1
意 1
瓦@@ 1
為@@ 1
同 1
子@@ 1
不同 1
點 1
造 1
星@@ 1
M@@ 0.33700895460107827
百@@ 1
5@@ 1
无@@ 1
如 1
無@@ 1
止 1
数 1
修@@ 1
處 1
雷@@ 1
重 1
7@@ 1
身 1
6@@ 1
助 1
實@@ 1
島 1
推@@ 1
基 1
部分 1
關 1
管 1
伯@@ 1
例 1
未@@ 1
內@@ 1
动 1
士@@ 1
兰 1
置 1
支@@ 1
心 1
聯@@ 1
沙@@ 1
目 1
列@@ 1
火@@ 1
動@@ 1
— 0.34035529611636317
元@@ 1
曾@@ 1
參@@ 1
30 1
字@@ 1
第一@@ 1
说 1
15 1
羅@@ 1
指 1
列 1
演@@ 1
法国 1
_ 1
區@@ 1
議 1
好 1
9@@ 1
选@@ 1
塔@@ 1
界 1
連@@ 1
少@@ 1
制@@ 1
达 1
黑@@ 1
副 1
知@@ 1
超@@ 1
作品 1
8@@ 1
塞@@ 1
近 1
形 1
年代 1
运@@ 1
體@@ 1
像 1
然 1
七@@ 1
则 1
程@@ 1
卡 1
发 1
埃@@ 1
开始 1
告 1
布 1
示 1
江 1
公里 1
設@@ 1
氏 1
这 1
開 1
希@@ 1
专@@ 1
在@@ 1
把 1
羅 1
光 1
经@@ 1
中國 1
过 1
进行 1
台灣 1
东 1
義@@ 1
言 1
青@@ 1
正式 1
数@@ 1
国家 1
一些 1
放 1
車@@ 1
间 1
集@@ 1
T@@ 0.2764583911234613
S@@ 0.22163966987328831
影@@ 1
司@@ 1
米@@ 1
通 1
黨 1
加 1
常 1
境 1
着 1
正 1
传@@ 1
该@@ 1
门 1
万@@ 1
第二@@ 1
曲 1
受 1
防@@ 1
再 1
勒 1
知 1
B@@ 0.2823084206614521
經 1
那@@ 1
們 1
提供 1
落 1
半@@ 1
成为 1
史@@ 1
深@@ 1
朝 1
整@@ 1
進行 1
行政 1
战 1
非 1
所有 1
速 1
他們 1
才 1
華@@ 1
門 1
城市 1
能@@ 1
地區 1
未 1
師 1
洲 1
播 1
身@@ 1
道@@ 1
真@@ 1
登@@ 1
象 1
攻@@ 1
石 1
当@@ 1
少 1
领@@ 1
過@@ 1
創@@ 1
D@@ 0.25543001919083386
委 1
考@@ 1
泰@@ 1
2@@ 1
回 1
運@@ 1
成為 1
轉@@ 1
治@@ 1
史 1
花@@ 1
朝@@ 1
师 1
文化 1
奧@@ 1
國家 1
我 1
第一 1
16 1
便 1
大學 1
心@@ 1
18 1
往 1
息 1
受@@ 1
蘭@@ 1
处 1
性@@ 1
中国@@ 1
除 1
2010 1
堡 1
21 1
世@@ 1
形@@ 1
堂 1
配@@ 1
論 1
風@@ 1
进@@ 1
校@@ 1
官@@ 1
樂@@ 1
C@@ 0.2423496071734853
牌 1
領@@ 1
愛@@ 1
查 1
省@@ 1
設 1
感@@ 1
赛 1
警@@ 1
放@@ 1
果 1
还 1
宣@@ 1
获得 1
停@@ 1
均 1
湖@@ 1
川 1
今 1
达@@ 1
以下 1
較 1
社@@ 1
生活 1
失@@ 1
老@@ 1
19 1
学院 1
取 1
类 1
G@@ 0.2689618580282093
瑞@@ 1
P@@ 0.2494502207673603
因為 1
夫@@ 1
formula 1
信 1
社 1
人民@@ 1
人物 1
后@@ 1
14 1
劇 1
亚 1
見 1
還@@ 1
力@@ 1
先 1
面積 1
没有 1
馬@@ 1
錄 1
等@@ 1
H@@ 0.25225751983394545
他们 1
應 1
易 1
事件 1
校 1
精@@ 1
死 1
認為 1
資@@ 1
塔 1
体@@ 1
隨@@ 1
客@@ 1
標@@ 1
美 1
施 1
消@@ 1
13 1
萬@@ 1
岛 1
16@@ 0.8670750329246819
苏@@ 1
至@@ 1
印@@ 1
持@@ 1
华@@ 1
母 1
非@@ 1
進 1
對@@ 1
想 1
章 1
電影 1
頭 1
通过 1
目前 1
航@@ 1
历史 1
表 1
帶 1
傳@@ 1
永@@ 1
17 1
依@@ 1
宗 1
結@@ 1
神 1
展@@ 1
25 1
當時 1
專@@ 1
移@@ 1
奇 1
接 1
被@@ 1
创@@ 1
2019 1
但是 1
帝 1
角 1
委@@ 1
变@@ 1
權 1
2011 1
L@@ 0.21472565301225033
版 1
票 1
森 1
皇@@ 1
共 1
團 1
管理 1
足球 1
客 1
2009 1
姆 1
佛@@ 1
15@@ 1
次@@ 1
承@@ 1
为@@ 1
擊 1
弗@@ 1
目@@ 1
陳 1
论 1
党 1
旅@@ 1
2016 1
馆 1
面@@ 1
土@@ 1
店 1
托@@ 1
港@@ 1
乐@@ 1
规@@ 1
協@@ 1
中央 1
進@@ 1
北部 1
產@@ 1
持 1
务 1
田@@ 1
料 1
认为 1
加入 1
關@@ 1
過 1
蘇@@ 1
同年 1
木@@ 1
E@@ 0.2989863699781568
莫@@ 1
来@@ 1
賽@@ 1
盟 1
底 1
編@@ 1
街 1
歷史 1
灣@@ 1
龍 1
A@@ 0.2654374441212017
書 1
2018 1
該@@ 1
務 1
讓 1
重要 1
方面 1
政 1
館 1
关 1
現 1
月@@ 1
2012 1
役 1
郡 1
系列 1
车@@ 1
马 1
港 1
值 1
田 1
下辖 1
排@@ 1
萨@@ 1
2013 1
達@@ 1
時間 1
书 1
份 1
迪@@ 1
變@@ 1
岸 1
友 1
觀@@ 1
需要 1
圣@@ 1
解 1
支持 1
2017 1
增@@ 1
团 1
三 1
委员会 1
2014 1
教育 1
A 0.4037296163050131
延@@ 1
情@@ 1
乡 1
當 1
花 1
建立 1
生平 1
2015 1
群 1
只 1
空 1
氣@@ 1
24 1
E 1
京@@ 1
取@@ 1
南部 1
張@@ 1
艾@@ 1
参@@ 1
樣 1
書@@ 1
地方 1
{ 1
相 1
图@@ 1
F@@ 0.22280591826939072
計@@ 1
嘉@@ 1
規@@ 1
獲得 1
邦 1
汉@@ 1
獎 1
音@@ 1
资@@ 1
兰@@ 1
莱@@ 1
N@@ 0.23777953296876186
密@@ 1
升@@ 1
備 1
铁路 1
要求 1
食@@ 1
17@@ 0.611841086509002
zh 1
紀@@ 1
完成 1
張 1
标@@ 1
初 1
批@@ 1
作为 1
开 1
千@@ 1
候 1
转@@ 1
網@@ 1
近@@ 1
2008 1
志 1
同時 1
风@@ 1
黃 1
仍 1
义 1
0.@@ 1
夏@@ 1
述 1
辦 1
看@@ 1
納@@ 1
員@@ 1
議@@ 1
} 1
们 1
記@@ 1
由于 1
报@@ 1
車站 1
协@@ 1
黄@@ 1
2020 1
曼 1
恩 1
单位 1
R@@ 0.20396325493734863
K@@ 0.2304358804453732
選 1
22 1
醫@@ 1
唐@@ 1
例如 1
效@@ 1
即@@ 1
抗@@ 1
勒@@ 1
典 1
視 1
籍 1
业@@ 1
纳 1
畫 1
期@@ 1
州@@ 1
O@@ 0.320939610462077
退@@ 1
] 1
医@@ 1
劇@@ 1
及@@ 1
工程 1
[ 1
寺 1
成功 1
梅@@ 1
产@@ 1
方式 1
经 1
得到 1
素 1
受到 1
甲@@ 1
署 1
23 1
灣 1
调@@ 1
第二 1
很 1
结@@ 1
权 1
低 1
鲁@@ 1
留@@ 1
交 1
阳 1
職@@ 1
张@@ 1
上海 1
病@@ 1
四 1
组 1
發展 1
分布 1
歲 1
湖 1
群@@ 1
冠@@ 1
一般 1
突@@ 1
義 1
二 1
统@@ 1
纳@@ 1
土 1
母@@ 1
構 1
令@@ 1
管@@ 1
参加 1
公 1
思@@ 1
命 1
人民 1
復 1
初@@ 1
索@@ 1
似 1
0 1
打 1
房 1
續 1
毛@@ 1
聖@@ 1
導 1
展 1
每 1
通常 1
存在 1
升 1
報@@ 1
系统 1
击 1
的@@ 1
居 1
單@@ 1
前往 1
款 1
富@@ 1
射 1
议 1
藝@@ 1
且 1
给 1
恩@@ 1
蒙@@ 1
一種 1
首 1
具 1
號@@ 1
之后 1
存 1
带 1
層 1
簡@@ 1
000 1
巴 1
园 1
發現 1
会@@ 1
商 1
容 1
系統 1
2001 1
應@@ 1
育@@ 1
眾 1
议@@ 1
算 1
蒂@@ 1
人口密度 1
今@@ 1
架 1
圖 1
都@@ 1
術 1
強@@ 1
服@@ 1
報 1
統@@ 1
祖@@ 1
病 1
做 1
2007 0.9597144481233963
口@@ 1
另 1
質 1
務@@ 1
求 1
农@@ 1
查@@ 1
－ 1
色@@ 1
样 1
雙@@ 1
康@@ 1
條 1
沿@@ 1
务@@ 1
飛@@ 1
是@@ 1
28 1
就是 1
然而 1
模@@ 1
同时 1
提出 1
則@@ 1
届 1
男@@ 1
书@@ 1
射@@ 1
鐵@@ 1
属于 1
瓦 1
菲@@ 1
越 1
一名 1
龍@@ 1
哥 1
冠 1
完@@ 1
組@@ 1
备 1
形成 1
沒有 1
R 1
连@@ 1
或@@ 1
耶@@ 1
应@@ 1
另外 1
核@@ 1
准 1
气@@ 1
歌 1
父@@ 1
兵@@ 1
选 1
网@@ 1
帕@@ 1
組 1
國際 1
項 1
著@@ 1
担任 1
父 1
企@@ 1
節 1
研究@@ 1
所以 1
赛@@ 1
哥@@ 1
離 1
支 1
最大 1
照 1
2006 0.9449608862106649
B 0.9052105332310644
降@@ 1
端 1
調@@ 1
尚@@ 1
宗@@ 1
世纪 1
具有 1
波 1
步 1
组织 1
邊 1
班 1
摩@@ 1
封@@ 1
区@@ 1
U@@ 0.42720910704015647
党@@ 1
村@@ 1
據 1
皮@@ 1
主席 1
主义 1
佈 1
26 1
宣布 1
北京 1
藏 1
只有 1
售 1
胡@@ 1
最高 1
逐@@ 1
守 1
报 1
預@@ 1
變 1
一种 1
歌曲 1
只@@ 1
贝@@ 1
他@@ 1
薩@@ 1
漢@@ 1
環@@ 1
罗 1
几@@ 1
很@@ 1
英國 1
比賽 1
擔任 1
卫@@ 1
据 1
業@@ 1
頓 1
屆 1
語@@ 1
学校 1
编@@ 1
五 1
故事 1
萬 1
根據 1
始@@ 1
早@@ 1
倫@@ 1
址 1
甲 1
向@@ 1
当 1
单@@ 1
施@@ 1
合作 1
敗 1
关@@ 1
洋 1
职@@ 1
白 1
已@@ 1
遊戲 1
澳@@ 1
办@@ 1
条 1
27 1
擊@@ 1
一位 1
接受 1
興@@ 1
園 1
2021 1
試 1
T 1
評@@ 1
條@@ 1
学名 1
產 1
峰 1
现 1
此外 1
反 1
出現 1
係 1
船 1
極@@ 1
首次 1
环@@ 1
14@@ 1
足 1
处@@ 1
导@@ 1
gt 1
D 0.9837879180608632
食 1
附近 1
龙@@ 1
卻 1
= 1
J@@ 0.27527283352710263
序 1
这些 1
容@@ 1
杜@@ 1
朱@@ 1
話 1
景@@ 1
小行星 1
念 1
h@@ 0.18355918450408085
給 1
头 1
破@@ 1
2000 0.986823053795075
實 1
造成 1
予 1
臣 1
V@@ 0.22929813227499268
红@@ 1
角色 1
游戏 1
樓 1
密 1
雷 1
图 1
印度 1
质 1
范@@ 1
发展 1
31 1
住@@ 1
察@@ 1
因为 1
记@@ 1
影響 1
一直 1
发现 1
2005 1
席 1
游@@ 1
執@@ 1
這些 1
爆@@ 1
專輯 1
衛@@ 1
寫 1
追@@ 1
自由 1
德国 1
一座 1
森@@ 1
轄 1
女性 1
约@@ 1
命@@ 1
院@@ 1
朗 1
丁@@ 1
再@@ 1
時期 1
角@@ 1
取得 1
层 1
增加 1
0@@ 1
丹@@ 1
修 1
纪@@ 1
进 1
面积 1
曼@@ 1
营 1
劉@@ 1
时间 1
1.@@ 1
個@@ 1
設計 1
留 1
鎮 1
降 1
魚 1
这个 1
C 0.8042895684616134
托 1
略 1
29 1
離@@ 1
观@@ 1
使@@ 1
从@@ 1
中华人民共和国 1
攻 1
lt 1
陈@@ 1
映 1
W@@ 0.1827965682780847
刘@@ 1
二十@@ 1
稱@@ 1
国际 1
這個 1
銀@@ 1
活動 1
沒 1
社會 1
導@@ 1
傳 1
命名 1
之間 1
任何 1
如果 1
微@@ 1
当时 1
曲@@ 1
干@@ 1
播@@ 1
派@@ 1
强@@ 1
歌@@ 1
司 1
六 1
期间 1
英 1
易@@ 1
左@@ 1
學校 1
好@@ 1
共有 1
撤@@ 1
I@@ 0.3457968864629794
殺 1
然@@ 1
載 1
注@@ 1
之前 1
评@@ 1
海拔高度 1
50 1
魯@@ 1
居@@ 1
索 1
沃@@ 1
幾@@ 1
应 1
低@@ 1
复@@ 1
乌@@ 1
晚@@ 1
街道 1
导 1
13@@ 1
除了 1
收 1
裝@@ 1
别 1
混@@ 1
并@@ 1
不是 1
剧 1
隆 1
威 1
烈 1
萊@@ 1
各 1
双@@ 1
控制 1
巨@@ 1
根据 1
设计 1
互@@ 1
荷@@ 1
S 0.9704082701991054
牙@@ 1
一次 1
类@@ 1
必@@ 1
岁 1
根 1
俄@@ 1
雅@@ 1
康 1
第三@@ 1
伦@@ 1
时期 1
春@@ 1
秘@@ 1
华 1
發行 1
奇@@ 1
桥 1
喜@@ 1
足@@ 1
改 1
交通 1
霍@@ 1
赫@@ 1
确@@ 1
车站 1
皆 1
利亚 1
活@@ 1
穆@@ 1
建筑 1
故@@ 1
斯特 1
艺@@ 1
姆@@ 1
离 1
办 1
聯 1
失 1
公路 1
版本 1
' 1
短@@ 1
电影 1
害 1
节 1
問題 1
野@@ 1
圖@@ 1
納 1
貝@@ 1
英国 1
根@@ 1
组@@ 1
無 1
100 1
见 1
木 1
節目 1
態 1
職 1
落@@ 1
平均 1
香@@ 1
乘@@ 1
局@@ 1
清 1
氣 1
營 1
大量 1
度@@ 1
10@@ 1
計 1
魚@@ 1
紅@@ 1
故 1
站@@ 1
植物 1
历@@ 1
登 1
战争 1
午 1
板 1
计@@ 1
督 1
鄉 1
坦@@ 1
教授 1
出版 1
酸 1
40 1
革命 1
樂 1
飞@@ 1
装@@ 1
线@@ 1
顿 1
地理 1
娜 1
縣@@ 1
走 1
批 1
团@@ 1
副@@ 1
舉@@ 1
發生 1
视 1
股@@ 1
請 1
效 1
热@@ 1
送 1
兒 1
古 1
快 1
庄 1
舉行 1
一起 1
非常 1
源@@ 1
獲 1
比赛 1
宋@@ 1
占@@ 1
服 1
计 1
處@@ 1
直接 1
別 1
裡 1
川@@ 1
个@@ 1
之间 1
決@@ 1
诺@@ 1
卢@@ 1
整 1
致 1
2004 0.906702124077783
強 1
組織 1
電視@@ 1
位置 1
全国 1
裝 1
美元 1
模 1
问题 1
复 1
你 1
判 1
距@@ 1
影响 1
族@@ 1
死@@ 1
主任 1
项 1
島@@ 1
推出 1
术 1
作為 1
期間 1
爱@@ 1
快@@ 1
已经 1
有限公司 1
越@@ 1
題 1
廷 1
私@@ 1
领 1
它@@ 1
方法 1
詞 1
中央@@ 1
善 1
什@@ 1
品@@ 1
暴@@ 1
保护 1
介@@ 1
門@@ 1
草@@ 1
佩@@ 1
望 1
十 1
血@@ 1
重新 1
法院 1
電 1
让 1
甚至 1
該國 1
電視 1
著名 1
營@@ 1
標 1
玉@@ 1
奖 1
乎 1
楼 1
运 1
草 1
那 1
银@@ 1
雄 1
運 1
進入 1
职 1
雖然 1
简@@ 1
视@@ 1
志@@ 1
吸@@ 1
O 0.779563994944326
| 1
援 1
迪 1
酒@@ 1
包含 1
女子 1
京 1
告@@ 1
M 0.9185351849379889
经济 1
育 1
造@@ 1
聚@@ 1
戶 1
出现 1
伯 1
发生 1
航空 1
宁@@ 1
假@@ 1
最佳 1
录 1
屋 1
利用 1
丁 1
西班牙 1
散 1
形式 1
播出 1
称为 1
遗@@ 1
廳 1
亲 1
獲@@ 1
两个 1
铁@@ 1
運動@@ 1
G 1
律@@ 1
顯@@ 1
護 1
s 0.06809521245066871
守@@ 1
变 1
阳@@ 1
探@@ 1
张 1
第三 1
巡@@ 1
过@@ 1
班@@ 1
成員 1
松@@ 1
鎮@@ 1
随@@ 1
福 1
进入 1
包@@ 1
華 1
浙@@ 1
切 1
学家 1
谷 1
風 1
2.@@ 1
舞@@ 1
帝@@ 1
直到 1
伊 1
条@@ 1
三年 1
列表 1
罪 1
围 1
選舉 1
郎 1
智@@ 1
云@@ 1
季@@ 1
徒 1
學院 1
房@@ 1
言@@ 1
場@@ 1
of 0.01368003857336045
普 1
行政区划 1
第十@@ 1
一年 1
算@@ 1
完全 1
住 1
並且 1
漫@@ 1
步@@ 1
頭@@ 1
西部 1
最終 1
感 1
共同 1
负@@ 1
较 1
彈 1
活动 1
往@@ 1
出生 1
火 1
不能 1
书记 1
男子 1
总面积 1
盛@@ 1
察 1
尤@@ 1
技术 1
剧@@ 1
切@@ 1
众 1
抵@@ 1
美國@@ 1
諾@@ 1
分別 1
设 1
益 1
參加 1
一部分 1
視@@ 1
音樂 1
再次 1
勢 1
欧@@ 1
演出 1
位@@ 1
离@@ 1
计划 1
何@@ 1
丹 1
家族 1
認@@ 1
2003 0.9488292503580402
后来 1
就@@ 1
總 1
藏@@ 1
但@@ 1
I 0.3357295744665464
證@@ 1
末 1
某@@ 1
亡 1
致@@ 1
限 1
家庭 1
這 1
婚 1
民主 1
橋 1
權@@ 1
單 1
跟 1
決定 1
政策 1
類@@ 1
油 1
附@@ 1
话 1
世界@@ 1
朗@@ 1
師@@ 1
種@@ 1
不過 1
祖 1
大陆 1
居民 1
領 1
陸 1
月台 1
希望 1
L 0.6205359496838756
能力 1
产 1
共和 1
生涯 1
逃@@ 1
費 1
歐@@ 1
执@@ 1
万 1
带@@ 1
些 1
意大利 1
洪@@ 1
许多 1
20@@ 1
我@@ 1
船@@ 1
老 1
塞 1
速@@ 1
排 1
陸@@ 1
徐@@ 1
巴士 1
廠 1
鐵 1
聲@@ 1
风 1
早期 1
來@@ 1
决@@ 1
而且 1
P 0.9269981923054174
服務 1
击@@ 1
通過 1
半 1
票@@ 1
右@@ 1
勝@@ 1
截@@ 1
将@@ 1
景 1
隊@@ 1
预@@ 1
學生 1
調 1
洋@@ 1
功能 1
写 1
諾 1
授@@ 1
當地 1
旗@@ 1
技@@ 1
世紀 1
词 1
激@@ 1
典@@ 1
冰@@ 1
中國@@ 1
助@@ 1
沙 1
人士 1
最终 1
寶@@ 1
兴@@ 1
X 1
牛@@ 1
兩個 1
厂 1
斷 1
作用 1
于@@ 1
照@@ 1
N 0.8669654603165051
親 1
看 1
親@@ 1
委員會 1
禁@@ 1
汽@@ 1
龙 1
優@@ 1
安全 1
以上 1
平方千米 1
歐洲 1
态 1
狀@@ 1
秀 1
征 1
識 1
供@@ 1
k 0.18632309409846706
準 1
列车 1
始 1
2002 0.8634797036943471
证@@ 1
门@@ 1
周 1
律 1
大部分 1
戰爭 1
想@@ 1
經濟 1
缺@@ 1
仅 1
侧 1
約@@ 1
1@@ 1
标 1
耳@@ 1
60 1
拿@@ 1
殿 1
克斯 1
召@@ 1
唱 1
到@@ 1
翰 1
y 0.0331299063411113
a 0.014929284365640458
敦 1
边 1
the 0.006886905886474799
考 1
農@@ 1
若 1
屬@@ 1
韩@@ 1
法律 1
運動 1
油@@ 1
隆@@ 1
民族 1
董@@ 1
陆@@ 1
申@@ 1
俱@@ 1
獎@@ 1
i 0.18712134992734367
北京@@ 1
湾 1
判@@ 1
免 1
兒@@ 1
團@@ 1
责 1
方向 1
号@@ 1
会议 1
津 1
K 1
許多 1
走@@ 1
使得 1
中華民國 1
版@@ 1
模式 1
又@@ 1
艦 1
另@@ 1
已經 1
最後@@ 1
厅 1
官方 1
铁 1
思 1
聲 1
吳@@ 1
記 1
保 1
柏@@ 1
气 1
良 1
n 0.1924846063396283
… 1
八 1
溫@@ 1
熱@@ 1
嚴@@ 1
破 1
影 1
决定 1
拔 1
聯盟 1
計劃 1
声@@ 1
做@@ 1
户 1
术@@ 1
兼@@ 1
败 1
甘@@ 1
配 1
二年 1
关系 1
+ 1
特別 1
最初 1
实 1
续 1
F 0.7694750144554173
去世 1
称@@ 1
原因 1
中共 1
努@@ 1
指出 1
加拿大 1
载 1
运动 1
細@@ 1
济@@ 1
政治@@ 1
捕 1
羽@@ 1
拍 1
师@@ 1
控 1
確@@ 1
差@@ 1
儿@@ 1
梁@@ 1
3.@@ 1
篇 1
装 1
翻@@ 1
終@@ 1
代表@@ 1
危@@ 1
生物 1
魔@@ 1
边@@ 1
V 0.9664376145763833
野 1
遊@@ 1
除@@ 1
陽 1
救@@ 1
仍然 1
很多 1
编码 1
男 1
试@@ 1
側 1
旗 1
描述 1
委员 1
监@@ 1
健@@ 1
球隊 1
進士 1
刊 1
尾 1
画 1
繼@@ 1
引 1
学生 1
道路 1
示@@ 1
死亡 1
槍 1
种@@ 1
严@@ 1
聯賽 1
宮 1
底@@ 1
相關 1
相同 1
練 1
赤@@ 1
细@@ 1
t@@ 0.095929271308964
总人口 1
費@@ 1
待 1
爵 1
許@@ 1
情况 1
年度 1
負責管 1
童 1
全 1
on 0.03530381425598469
占 1
库 1
畫@@ 1
聞 1
溪 1
奧 1
自治@@ 1
目的 1
宇@@ 1
戈@@ 1
組成 1
余@@ 1
爭@@ 1
路線 1
舰 1
片@@ 1
酒 1
兼 1
尼亚 1
唯一 1
要@@ 1
强 1
昌 1
歌手 1
武 1
社会 1
极@@ 1
存@@ 1
偏@@ 1
权@@ 1
何 1
護@@ 1
率@@ 1
監@@ 1
显@@ 1
雄@@ 1
給@@ 1
擁有 1
全球 1
遺@@ 1
防 1
杨@@ 1
胞 1
注 1
固@@ 1
温@@ 1
符@@ 1
1990 0.9103906822997699
统 1
歷 1
结构 1
茨 1
黎@@ 1
七 1
按@@ 1
狀 1
12@@ 0.9630908394539959
認 1
讀 1
久 1
us 0.14850828349318115
辑 1
圍 1
游 1
阿尔@@ 1
雲@@ 1
临@@ 1
刻 1
操@@ 1
若@@ 1
決 1
資料 1
机构 1
80 1
全部 1
驗 1
诺 1
德國 1
麥@@ 1
X@@ 0.7358688008518978
觀 1
坑 1
辛@@ 1
充@@ 1
第一次 1
鄉@@ 1
恐@@ 1
男性 1
無法 1
分别 1
宁 1
君@@ 1
封 1
併 1
省份 1
結果 1
来自 1
这种 1
4.@@ 1
州市 1
從@@ 1
陽@@ 1
成员 1
四年 1
榜 1
返@@ 1
招@@ 1
阿拉@@ 1
举@@ 1
法國 1
资 1
大型 1
总统 1
盃 1
刺@@ 1
杀 1
组成 1
九 1
最后 1
吉 1
松 1
墨@@ 1
呼@@ 1
獨立 1
裔 1
設有 1
避@@ 1
黨@@ 1
具@@ 1
深 1
5.@@ 1
結束 1
替 1
及其 1
00 1
项目 1
70 1
檢@@ 1
飾 1
資 1
情況 1
烏@@ 1
人员 1
习 1
什 1
控@@ 1
每年 1
传 1
制度 1
移 1
举 1
楊@@ 1
總統 1
階@@ 1
泽@@ 1
艇 1
露 1
一部 1
际@@ 1
币 1
座@@ 1
仁@@ 1
电视@@ 1
洛 1
建築 1
象@@ 1
習 1
不久 1
背@@ 1
或者 1
1999 0.8062153886443335
良@@ 1
皇 1
! 0.7233975273264492
靠 1
演唱 1
卷 1
x 0.2908731795584387
町 1
超過 1
積@@ 1
結 1
培@@ 1
拜@@ 1
夏季 1
1998 0.8843885974397654
拍@@ 1
帶@@ 1
春 1
圈 1
產生 1
簽@@ 1
瑪@@ 1
富 1
尾@@ 1
用于 1
線@@ 1
县@@ 1
桑@@ 1
列車 1
訊 1
库@@ 1
获 1
時代 1
名字 1
介 1
阻@@ 1
采用 1
赫 1
部队 1
競@@ 1
媒@@ 1
35 1
參 1
导致 1
測 1
姓 1
建设 1
明朝 1
西亚 1
質@@ 1
功@@ 1
翼 1
为了 1
氧@@ 1
涉@@ 1
秀@@ 1
際@@ 1
生于 1
測@@ 1
检@@ 1
繼續 1
优@@ 1
500 1
验 1
单 1
戴@@ 1
拥有 1
抗 1
免@@ 1
案@@ 1
U 0.7254387172782143
減@@ 1
当地 1
争@@ 1
属@@ 1
毕业 1
200 1
遭到 1
财@@ 1
許 1
哲@@ 1
崇@@ 1
轉 1
津@@ 1
教堂 1
透過 1
境内 1
6.@@ 1
建造 1
並在 1
独立 1
議員 1
背景 1
采@@ 1
〉 1
并且 1
送@@ 1
幕 1
〈 1
90 1
增 1
暴 1
费@@ 1
麗@@ 1
彼@@ 1
速度 1
集团 1
財@@ 1
坐@@ 1
否 1
途 1
土地 1
績 1
玩家 1
際 1
1980 1
導致 1
療 1
西北 1
雜@@ 1
佔 1
历 1
还@@ 1
歷@@ 1
皮 1
吴@@ 1
弟 1
休@@ 1
公園 1
僅 1
證 1
联赛 1
集團 1
扩@@ 1
之後@@ 1
解放@@ 1
林匹@@ 1
獨@@ 1
末@@ 1
欧洲 1
产生 1
泛 1
接壤 1
佛 1
疑 1
價 1
枚 1
奏 1
状 1
俄罗斯 1
默@@ 1
含@@ 1
宗教 1
函@@ 1
公尺 1
数量 1
青年 1
征@@ 1
断 1
肯@@ 1
汉 1
太 1
自然 1
地球 1
退 1
誌 1
回到 1
引起 1
蒂 1
友@@ 1
套 1
勝 1
啟@@ 1
夠 1
準@@ 1
股 1
举行 1
音乐 1
乾@@ 1
紐@@ 1
状@@ 1
机场 1
1997 0.8952439558758689
學家 1
最早 1
劃 1
清朝 1
念@@ 1
傳統 1
共产党 1
街@@ 1
邮@@ 1
调 1
研@@ 1
承 1
葉@@ 1
雪@@ 1
地位 1
概@@ 1
採用 1
阿 1
苏联 1
輪 1
庫 1
三十@@ 1
單位 1
奥 1
熱帶 1
穿@@ 1
基本 1
五年 1
評 1
儿 1
染 1
越南 1
韓@@ 1
国家@@ 1
需@@ 1
准@@ 1
旧 1
作家 1
主角 1
差 1
身份 1
需 1
夜 1
材 1
价 1
維 1
乐 1
滿 1
语言 1
順@@ 1
in 0.008980989984742817
經過 1
拒@@ 1
c@@ 0.08826238174109848
陶@@ 1
影片 1
美洲 1
冬@@ 1
元年 1
斯坦 1
证 1
w 0.2470748811536416
音樂@@ 1
真 1
舉 1
僅@@ 1
棲@@ 1
Y@@ 0.2728014242093077
妻@@ 1
疫@@ 1
论@@ 1
郭@@ 1
轨@@ 1
黎 1
主教 1
菌 1
遭@@ 1
畢業 1
营@@ 1
斗 1
乙@@ 1
制作 1
45 1
惠@@ 1
取代 1
H 0.9919798252354094
测@@ 1
機場 1
多次 1
中部 1
殖@@ 1
項@@ 1
转 1
陵 1
價@@ 1
佐@@ 1
旋 1
尽@@ 1
險 1
头@@ 1
劳@@ 1
禮 1
出身 1
– 0.08538866666430238
贵@@ 1
亲@@ 1
服务 1
不少 1
乘 1
语@@ 1
兴 1
眼@@ 1
！ 1
主持 1
有人 1
7.@@ 1
任命 1
地面 1
满@@ 1
天主教 1
球队 1
发行 1
傷 1
艘 1
消 1
池 1
武器 1
加上 1
難 1
短 1
军队 1
费 1
還 1
遇@@ 1
症 1
迫 1
改革 1
勞@@ 1
32 1
遠@@ 1
英格@@ 1
终@@ 1
反应 1
葡萄@@ 1
管理@@ 1
庭 1
技術 1
网 1
試@@ 1
48 1
护@@ 1
测 1
出任 1
仁 1
鰭 1
社会@@ 1
参与 1
豐@@ 1
鐵路 1
遠 1
西南 1
行動 1
构@@ 1
大陸 1
部长 1
分析 1
亞洲 1
问 1
立法 1
The 0.028534582034949036
炮 1
換 1
內容 1
只是 1
电 1
全国@@ 1
邊@@ 1
犯 1
論@@ 1
週@@ 1
秦@@ 1
婚@@ 1
曹@@ 1
便@@ 1
皇帝 1
势 1
動畫 1
這種 1
毫米 1
衛 1
絕 1
基地 1
颗 1
震 1
1996 0.8214015318127995
奖@@ 1
帝国 1
晚 1
原本 1
各地 1
採@@ 1
地下 1
烏克@@ 1
还有 1
材@@ 1
关于 1
沈@@ 1
质@@ 1
負責 1
泉 1
鄭@@ 1
至今 1
说@@ 1
表演 1
节目 1
之外 1
卫 1
韓國 1
點@@ 1
骨 1
杰@@ 1
义@@ 1
昭@@ 1
平台 1
妹 1
一定 1
过程 1
壓 1
试 1
结束 1
节@@ 1
生产 1
父親 1
科技 1
興 1
虽@@ 1
晋@@ 1
徑 1
左右 1
輛 1
决 1
早 1
英文 1
繁@@ 1
30@@ 1
租@@ 1
日至 1
t 0.05753079889088868
运动员 1
孔@@ 1
漸 1
說@@ 1
发布 1
侵@@ 1
签@@ 1
病毒 1
居住 1
场@@ 1
基督@@ 1
於@@ 1
泰 1
靈@@ 1
作者 1
大会 1
刑 1
唱片 1
付 1
南省 1
顺@@ 1
舍 1
節@@ 1
新加坡 1
單曲 1
行政@@ 1
舊 1
岩 1
货@@ 1
宫 1
同意 1
問 1
大多 1
國民@@ 1
擴@@ 1
藍@@ 1
圣 1
辦@@ 1
廉 1
阶@@ 1
继@@ 1
喬@@ 1
杯 1
限制 1
李 1
？ 1
概念 1
1994 0.828746203668902
習@@ 1
日起 1
凱@@ 1
御@@ 1
却 1
孟@@ 1
盧@@ 1
一家 1
分子 1
救 1
輕@@ 1
中学 1
公共 1
南京 1
记 1
舰@@ 1
伦 1
拉斯 1
必須 1
宣 1
有些 1
範圍 1
骨@@ 1
梅 1
筑@@ 1
柯@@ 1
團體 1
韦@@ 1
划@@ 1
科学 1
系@@ 1
麻@@ 1
演員 1
魏@@ 1
戲@@ 1
綱 1
倫 1
太平洋 1
牙 1
远@@ 1
一步 1
網 1
经过 1
维 1
余 1
距 1
文物@@ 1
随后 1
城区 1
俄羅@@ 1
请 1
辖 1
频@@ 1
極 1
人口普查 1
亿@@ 1
奉@@ 1
釋 1
聖 1
澳門 1
量@@ 1
1992 0.7974433421886271
驻 1
独@@ 1
o 0.07271910990074756
警察 1
兄弟 1
1995 0.8064965475368099
希 1
滿@@ 1
突 1
航 1
冲@@ 1
例@@ 1
乡镇级 1
br 1
蒙古 1
继续 1
我们 1
玛@@ 1
初期 1
识 1
纽@@ 1
孙@@ 1
排名 1
候@@ 1
部份 1
黑 1
融@@ 1
挑@@ 1
臨@@ 1
雨@@ 1
25@@ 1
蔡@@ 1
镇@@ 1
轮 1
中華 1
攝 1
竹@@ 1
元素 1
傑@@ 1
複 1
呈 1
捷@@ 1
媒體 1
構@@ 1
8.@@ 1
途@@ 1
功 1
拜 1
忠@@ 1
硬@@ 1
百 1
頻@@ 1
找 1
允@@ 1
苏 1
刑@@ 1
壓@@ 1
錦@@ 1
直 1
叶 1
叶@@ 1
脈 1
宝@@ 1
赵@@ 1
乔@@ 1
鐘 1
毛 1
秋@@ 1
1993 0.8312980615758083
夜@@ 1
廟 1
输@@ 1
急 1
補@@ 1
an 0.027396720321356368
and 0.009051176898905727
码 1
適@@ 1
审@@ 1
伍 1
找@@ 1
观 1
蒙 1
d 0.08505700228354099
綫 1
杂@@ 1
划 1
平方@@ 1
认 1
认@@ 1
1991 0.7847286401279084
岩@@ 1
享@@ 1
超 1
弟@@ 1
歸@@ 1
孫@@ 1
審@@ 1
幼@@ 1
宅 1
c 0.1328292248370095
弱 1
術@@ 1
席@@ 1
裂 1
擇 1
连 1
拆@@ 1
炮@@ 1
洞 1
異 1
督@@ 1
淡@@ 1
叫 1
促@@ 1
麦@@ 1
络 1
兹 1
透@@ 1
慶@@ 1
革@@ 1
授 1
够 1
昆@@ 1
m 0.12787889189037258
求@@ 1
訓@@ 1
鼓@@ 1
犯@@ 1
衝@@ 1
琴 1
奈@@ 1
获@@ 1
庆 1
提 1
联 1
廢@@ 1
核 1
亮 1
36 1
1950 1
售@@ 1
题 1
連 1
銷@@ 1
滑@@ 1
庆@@ 1
弹 1
昂 1
爭 1
仙@@ 1
萨 1
炸@@ 1
遇 1
际 1
er 0.0272791437387598
碼 1
围@@ 1
餘@@ 1
33 1
雨 1
么 1
殊 1
才@@ 1
p 0.20460996741600335
郑@@ 1
散@@ 1
宮@@ 1
9.@@ 1
疾@@ 1
貨@@ 1
昌@@ 1
榮@@ 1
柴@@ 1
紀 1
尺 1
零@@ 1
腦 1
芬@@ 1
汗 1
朋@@ 1
孩@@ 1
患@@ 1
写@@ 1
别@@ 1
果@@ 1
胜@@ 1
蛋@@ 1
i@@ 0.11195245569331032
亂 1
38 1
亨@@ 1
裁@@ 1
1949 1
扎@@ 1
牧@@ 1
级@@ 1
Z@@ 0.13517159481604843
夏 1
画@@ 1
燃@@ 1
暗@@ 1
供 1
归@@ 1
洲@@ 1
討@@ 1
衣 1
搭@@ 1
隔@@ 1
坡 1
练 1
e 0.06794679391508873
彈@@ 1
陣 1
幣 1
編 1
跨@@ 1
匈@@ 1
凯@@ 1
启@@ 1
冷@@ 1
换 1
偶@@ 1
振@@ 1
隸@@ 1
幅 1
爲 1
1988 0.873297210863254
統 1
00@@ 1
34 1
37 1
紫@@ 1
況 1
须 1
艦@@ 1
1970 0.8497537509789214
e@@ 0.0744957100142122
300 1
君 1
闻 1
輻@@ 1
01 1
队@@ 1
博 1
辆 1
据@@ 1
禮@@ 1
杀@@ 1
覺 1
界@@ 1
境@@ 1
眾@@ 1
罪@@ 1
諸@@ 1
许 1
竞@@ 1
藝 1
莱 1
按 1
共和国 1
雅 1
旋@@ 1
沃 1
急@@ 1
庄@@ 1
声 1
减@@ 1
毒@@ 1
器@@ 1
ing 0.02828846485336874
丽@@ 1
蓋 1
斗@@ 1
75 1
』 1
異@@ 1
『 1
豪@@ 1
潮 1
了@@ 1
軟@@ 1
菜 1
1989 0.7955478771891779
柱 1
谢@@ 1
困@@ 1
逝@@ 1
宜@@ 1
压 1
圓@@ 1
掌@@ 1
磁@@ 1
估@@ 1
與@@ 1
径 1
较@@ 1
講@@ 1
似@@ 1
无 1
远 1
瑟@@ 1
墓 1
众@@ 1
莉 1
旧@@ 1
確 1
攝@@ 1
销 1
難@@ 1
革 1
h 0.13648557170388126
1945 0.7647496659949239
溪@@ 1
韋@@ 1
难 1
譯 1
辽@@ 1
齐@@ 1
盖 1
奉 1
別@@ 1
邦@@ 1
青 1
血 1
樹@@ 1
限@@ 1
y@@ 0.09631284962515975
包 1
炎 1
型@@ 1
徵@@ 1
编 1
尚 1
24@@ 1
积@@ 1
井 1
奪@@ 1
詹@@ 1
坦 1
临 1
投 1
桃@@ 1
丽 1
彭@@ 1
荣@@ 1
迷@@ 1
累@@ 1
莉@@ 1
幫@@ 1
障 1
竹 1
疆 1
鬥 1
诸@@ 1
休 1
綠@@ 1
架@@ 1
1960 0.883444203261711
尊@@ 1
晉@@ 1
28@@ 1
藥@@ 1
熙 1
善@@ 1
養 1
岛@@ 1
祭@@ 1
眼 1
虎 1
碑 1
肉 1
锦@@ 1
2022 1
ans 0.1535513152272045
薩 1
鬥@@ 1
p@@ 0.06327733193134795
澤@@ 1
葬 1
千 1
压@@ 1
绝@@ 1
迎 1
雪 1
块 1
購 1
倍 1
尋@@ 1
活 1
赴 1
l 0.0778927451916182
訴 1
謝@@ 1
橫@@ 1
隔 1
忠 1
策@@ 1
诗@@ 1
億 1
麗 1
is 0.020938750263470647
隧@@ 1
趣 1
額 1
覆@@ 1
紅 1
牛 1
畔 1
宋 1
絲 1
秒 1
总 1
埃 1
55 1
輸@@ 1
遍 1
氏@@ 1
漢 1
葛@@ 1
丰@@ 1
遂 1
兩 1
詩@@ 1
訂 1
陕@@ 1
侍@@ 1
邀@@ 1
沉@@ 1
芬 1
陆 1
软@@ 1
归 1
1985 0.8648959122634594
人口@@ 1
迁@@ 1
梁 1
舊@@ 1
乱 1
哈 1
运动@@ 1
染@@ 1
宪@@ 1
慈@@ 1
課@@ 1
恢@@ 1
s@@ 0.03757770133601377
庙 1
輯 1
孩 1
曆 1
de 0.00498442429421356
炸 1
假 1
盤 1
环 1
～ 1
26@@ 1
箭 1
童@@ 1
騎@@ 1
W 0.707951874304167
1984 0.8489116566095585
孝@@ 1
干 1
65 0.9340775356118437
卿 1
寧@@ 1
茲 1
胜 1
灰@@ 1
伤 1
亦@@ 1
味 1
返 1
愛 1
擔 1
庫@@ 1
42 1
渡@@ 1
1986 0.8185622340772049
液 1
佳@@ 1
像@@ 1
傷@@ 1
賓 1
憲@@ 1
乃@@ 1
大利 1
慕@@ 1
頂 1
迅@@ 1
驻@@ 1
额 1
39 1
瑞 1
谷@@ 1
挥 1
妮 1
搜@@ 1
献 1
槍@@ 1
裁 1
葉 1
擎 1
耶 1
帮@@ 1
震@@ 1
堅@@ 1
坊 1
绝 1
否@@ 1
1987 0.7990546816520058
壞 1
珠@@ 1
渐 1
莎@@ 1
拿 1
侵 1
满 1
警 1
64 1
录@@ 1
俗 1
灵@@ 1
潮@@ 1
掉 1
间@@ 1
幕@@ 1
粉@@ 1
植@@ 1
础 1
懷@@ 1
仰 1
潘@@ 1
械 1
遷 1
築@@ 1
殺@@ 1
异@@ 1
药@@ 1
均@@ 1
择 1
价@@ 1
借@@ 1
r 0.2611413989059696
46 1
盟@@ 1
麼 1
乡@@ 1
犹@@ 1
輕 1
钟 1
隻 1
靈 1
杭@@ 1
塘 1
险 1
陣@@ 1
浦@@ 1
伐@@ 1
29@@ 1
g 0.15834914869133132
衡 1
牠 1
遊 1
高度 1
礼 1
舞 1
序@@ 1
娛@@ 1
1982 0.8463377218044488
乏 1
毁 1
玻@@ 1
随 1
温 1
駐 1
環 1
替@@ 1
遣 1
軌@@ 1
儀@@ 1
柳@@ 1
讲@@ 1
补@@ 1
47 1
云 1
遭 1
餘 1
屋@@ 1
al 0.03273056914237264
18@@ 1
貴@@ 1
适@@ 1
盛 1
訪 1
藤@@ 1
极 1
44 1
鲜 1
叛@@ 1
协 1
晨 1
壁 1
句 1
鱼 1
评 1
民國 1
J 1
徽 1
迴 1
彩 1
右 1
轄@@ 1
恒@@ 1
1983 0.825807856155262
購@@ 1
積 1
凌@@ 1
珠 1
渡 1
与@@ 1
鮮 1
墓@@ 1
鏡 1
莫 1
榮 1
井@@ 1
茨@@ 1
侯@@ 1
香 1
难@@ 1
迫@@ 1
综@@ 1
译 1
唐 1
闻@@ 1
溫 1
緒 1
b 0.19565760029925958
策 1
护 1
验@@ 1
訊@@ 1
宜 1
秋 1
51 1
怀@@ 1
趙 1
礎 1
宇 1
錄@@ 1
侯 1
歸 1
1979 0.8116995982940863
讀@@ 1
彩@@ 1
楚@@ 1
綜@@ 1
52 1
徵 1
41 1
融 1
鲁 1
衣@@ 1
勇@@ 1
范 1
涅@@ 1
跑 1
圆@@ 1
塊 1
停 1
桂@@ 1
緣 1
厄@@ 1
坚@@ 1
43 1
刺 1
雕@@ 1
露@@ 1
倒@@ 1
翰@@ 1
爱 1
400 1
樹 1
穿 1
傑 1
齊@@ 1
略@@ 1
56 1
砲 1
读 1
点@@ 1
雲 1
杉@@ 1
靠@@ 1
陰@@ 1
邨 1
援@@ 1
岡@@ 1
喀@@ 1
幸@@ 1
禁 1
跳@@ 1
伸 1
頒@@ 1
1978 0.8176118008292645
轻@@ 1
濟@@ 1
印 1
d@@ 0.05146754498044886
爵@@ 1
藥 1
揮 1
涅 1
恆@@ 1
琳 1
聞@@ 1
27@@ 1
珍@@ 1
祥 1
u 0.11248192217547594
顶 1
素@@ 1
棄 1
慶 1
刻@@ 1
餐@@ 1
刀 1
骑@@ 1
徽@@ 1
剂 1
仲@@ 1
扎 1
给@@ 1
措@@ 1
寬 1
圍@@ 1
袁@@ 1
倒 1
迎@@ 1
微 1
輸 1
疗 1
85 1
es 0.018349494064386202
绿@@ 1
读@@ 1
貿@@ 1
amp 0.21823818037384254
旅 1
獻 1
肉@@ 1
黃@@ 1
礼@@ 1
紧@@ 1
热 1
儘 1
負@@ 1
兹@@ 1
顯 1
培 1
充 1
孔 1
酸@@ 1
譽 1
讷 1
释 1
迷 1
颱 1
符 1
肯 1
貢@@ 1
树 1
撒@@ 1
53 1
毒 1
虎@@ 1
潜@@ 1
袖 1
桥@@ 1
宽 1
丘@@ 1
瑟 1
1981 0.7510781669506668
買 1
敦@@ 1
顧@@ 1
贸@@ 1
旁 1
妃 1
° 0.6329386219633889
见@@ 1
54 1
亭 1
62 1
仍@@ 1
創 1
靖 1
錢 1
佳 1
輪@@ 1
训@@ 1
吕@@ 1
寫@@ 1
养 1
浮@@ 1
坏 1
玩@@ 1
57 1
輔@@ 1
谋@@ 1
閣 1
拓@@ 1
賓@@ 1
x@@ 0.16822349151750587
％ 1
Q@@ 0.4915359380231305
58 1
飛 1
浪@@ 1
树@@ 1
寄@@ 1
晶@@ 1
鱼@@ 1
um 0.08015166078309306
菲 1
结 1
章@@ 1
毀 1
捐@@ 1
旺@@ 1
尖@@ 1
舒@@ 1
旦 1
损@@ 1
暫@@ 1
确 1
糖 1
尉 1
许@@ 1
責@@ 1
甸 1
HD 1
衰@@ 1
宿@@ 1
賣 1
廣 1
仅@@ 1
宙 1
症@@ 1
药 1
唱@@ 1
废@@ 1
監 1
久@@ 1
齒 1
n@@ 0.05188886890817124
绕 1
吃 1
罕@@ 1
陷 1
魯 1
é 0.05661566793065712
卓@@ 1
妻 1
刊@@ 1
也@@ 1
崔@@ 1
76 1
麥 1
销@@ 1
陷@@ 1
絡 1
端@@ 1
r@@ 0.05180544024674338
溶@@ 1
害@@ 1
坎@@ 1
億@@ 1
72 1
摩 1
泉@@ 1
诊 1
仪@@ 1
描@@ 1
责@@ 1
贏@@ 1
弹@@ 1
脱@@ 1
插@@ 1
隶@@ 1
识@@ 1
k@@ 0.0590820833643798
88 1
魏 1
伐 1
逊 1
夺@@ 1
86 1
折@@ 1
依 1
咸@@ 1
诉 1
戈 1
誤 1
默 1
絕@@ 1
伴 1
冷 1
聽 1
49 1
換@@ 1
姐 1
玉 1
枪 1
壇 1
／ 1
ch@@ 0.04257134993368301
願 1
值@@ 1
埔@@ 1
植 1
惡@@ 1
1946 0.8824773011597553
贡@@ 1
Windows 1
損@@ 1
襲 1
鄰 1
鹿@@ 1
鲜@@ 1
扮@@ 1
玄@@ 1
段@@ 1
梯 1
输 1
戏@@ 1
59 1
中华@@ 1
杰 1
68 1
遜 1
a@@ 0.09674717354152738
園@@ 1
滨@@ 1
换@@ 1
樓@@ 1
Y 1
慢 1
芝@@ 1
寧 1
ic@@ 0.09544720638136876
61 1
访@@ 1
棒@@ 1
泳 1
齐 1
賞 1
逢 1
1958 0.9079783425188884
味@@ 1
IS@@ 1
厚 1
蓝@@ 1
1948 0.8751899343020801
借 1
帕 1
佔@@ 1
仔 1
宝 1
墙 1
讨@@ 1
券 1
箱 1
19@@ 1
齡 1
to 0.007885321924521021
鼠 1
含 1
66 1
歡@@ 1
勤 1
屏@@ 1
問@@ 1
宾 1
週 1
迹 1
左 1
阵@@ 1
腹@@ 1
浪 1
歡 1
頂@@ 1
卑@@ 1
浦 1
獄 1
幹@@ 1
阮@@ 1
o@@ 0.06730950747672879
捕@@ 1
飾@@ 1
驱@@ 1
挪@@ 1
敵@@ 1
绩 1
惠 1
敬@@ 1
幻@@ 1
揭@@ 1
泊 1
.@@ 0.19472241557068876
燕@@ 1
緯 1
鳳@@ 1
请@@ 1
77 1
螺@@ 1
63 1
敏@@ 1
1920 0.8371056820540362
棒 1
逐 1
78 1
舍@@ 1
67 1
争 1
堂@@ 1
俗@@ 1
横@@ 1
凡 1
笑 1
翌@@ 1
行星 1
裡@@ 1
1940 0.7522505558582027
楚 1
鳥 1
敏 1
答 1
寨 1
铜@@ 1
05 1
鬼 1
INSE@@ 1
蛇 1
圳 1
购@@ 1
饰 1
慮 1
1976 0.6828167545731636
莎 1
95 1
蟲 1
嘉 1
m@@ 0.05746138580374049
1975 0.6453940194985595
Ch@@ 0.08716589155876017
板@@ 1
迈@@ 1
宫@@ 1
譯@@ 1
顏@@ 1
弘@@ 1
赞@@ 1
嶼 1
儀 1
in@@ 0.034122601158146484
填@@ 1
呈@@ 1
滅 1
稳@@ 1
潛@@ 1
鄰@@ 1
稿 1
緊@@ 1
奪 1
1972 0.646263727290777
丘 1
蘇 1
汇@@ 1
87 1
71 1
* 0.32312369112361905
盾 1
寺@@ 1
臨 1
屯@@ 1
剩@@ 1
銷 1
1930 0.8114325508696872
两 1
息@@ 1
陵@@ 1
顾@@ 1
遷@@ 1
83 1
訪@@ 1
灌@@ 1
負 1
契@@ 1
智 1
1956 0.8316571164679729
茶 1
81 1
赢@@ 1
600 1
顶@@ 1
終 1
床 1
陳@@ 1
恢 1
残@@ 1
乳@@ 1
撞@@ 1
疑@@ 1
固 1
99 1
焦@@ 1
紹 1
阴@@ 1
呼 1
1937 0.9435755277124613
82 1
坐 1
府@@ 1
宿 1
貌 1
牌@@ 1
艺 1
词@@ 1
冊 1
詞@@ 1
钢@@ 1
穩@@ 1
锡@@ 1
频 1
g@@ 0.04452489870265089
红 1
廊 1
埔 1
註 1
69 1
橋@@ 1
员@@ 1
73 1
顆 1
f@@ 0.03751758741057119
弃 1
芳 1
异 1
1947 0.856439198837857
廈 1
1000 1
衍@@ 1
污@@ 1
et 0.01474797660905974
延 1
豪 1
1941 0.6767656230558683
番 1
800 1
齊 1
擔@@ 1
淘@@ 1
誉 1
祀 1
户@@ 1
液@@ 1
歐 1
虛@@ 1
ar 0.04157631991023497
抽@@ 1
琴@@ 1
澳 1
勢@@ 1
違@@ 1
熱 1
湯@@ 1
操 1
广 1
駐@@ 1
狄@@ 1
虫 1
茲@@ 1
益@@ 1
續@@ 1
逮@@ 1
捷 1
殘@@ 1
伏@@ 1
麦 1
74 1
仔@@ 1
伍@@ 1
棋 1
v@@ 0.054461890272159065
凤@@ 1
冰 1
陨@@ 1
粒@@ 1
屠@@ 1
摄 1
甚@@ 1
茶@@ 1
1952 0.8638462271608521
b@@ 0.04553624681161588
戴 1
談@@ 1
肺@@ 1
技 1
廷@@ 1
1968 0.628854684738144
喜 1
苦 1
熊@@ 1
84 1
1973 0.6414921914705735
脫@@ 1
缩@@ 1
卒 1
寸 1
TV 0.47850504389417015
摄@@ 1
奴 1
el 0.014093602171855636
敌@@ 1
壘 1
俄 1
烈@@ 1
OS 1
脂 1
歧@@ 1
猶@@ 1
呂@@ 1
望@@ 1
琉@@ 1
敵 1
苗 1
丙@@ 1
矿@@ 1
輝 1
遵@@ 1
孤@@ 1
桑 1
響 1
鋼@@ 1
奴@@ 1
旁@@ 1
07 1
轮@@ 1
藩 1
en 0.0073842417939803525
an@@ 0.04818140823663675
寻@@ 1
膜 1
觉 1
阁 1
籃@@ 1
孙 1
付@@ 1
1977 0.6486601362529347
阵 1
臘 1
92 1
苑 1
養@@ 1
勃@@ 1
AR@@ 0.9126522039225522
廉@@ 1
中華@@ 1
腳 1
腊 1
盘 1
答@@ 1
驅@@ 1
宏@@ 1
獸 1
岭 1
冒@@ 1
精 1
幻 1
辖@@ 1
辰 1
ia 0.08586761386496852
79 1
隱@@ 1
挥@@ 1
觸 1
02 1
1955 0.8386274848632262
al@@ 0.04156842022269062
佐 1
98 1
丈@@ 1
1964 0.6742950871281096
粉 1
亮@@ 1
熟 1
1974 0.5982956814069691
w@@ 0.04436297376679285
塑@@ 1
1966 0.6907996058298735
ac@@ 0.05972644556668522
盖@@ 1
1938 0.775065060067533
叙@@ 1
嶺 1
見@@ 1
am 0.060272744591154864
去@@ 1
據@@ 1
显 1
夢 1
藉@@ 1
須 1
08 1
駕@@ 1
怒 1
粗@@ 1
89 1
旬 1
伴@@ 1
栽@@ 1
請@@ 1
150 1
御 1
习@@ 1
浩@@ 1
04 1
疫 1
袭@@ 1
估 1
03 1
伤@@ 1
側@@ 1
劑 1
06 1
In@@ 0.11105598149213766
备@@ 1
ant 0.055517102238513055
循@@ 1
弗 1
姓@@ 1
邀 1
劃@@ 1
詩 1
1939 0.6551088960549537
轻 1
尊 1
针@@ 1
迁 1
on@@ 0.05458423824336053
邓@@ 1
册 1
閉 1
1954 0.8052719407946555
听@@ 1
銅@@ 1
缘 1
1944 0.5683373983631991
郵@@ 1
鳥@@ 1
範@@ 1
坪 1
酶 1
協 1
崎@@ 1
淮@@ 1
姻 1
颁@@ 1
1971 0.5872487172587577
绍 1
f 0.13571272617029007
垂@@ 1
at 0.01886494091805473
钱@@ 1
枝 1
响@@ 1
袭 1
享 1
較@@ 1
or 0.030131018030652264
钱 1
洗@@ 1
鋒 1
谈@@ 1
96 1
揚 1
巡 1
厘@@ 1
09 1
雙 1
斤 1
1965 0.6480296970660228
蓋@@ 1
泽 1
莊@@ 1
沒@@ 1
共和@@ 1
瓜@@ 1
剛@@ 1
茂@@ 1
访 1
邻 1
針@@ 1
庭@@ 1
奈 1
劍 1
蕭@@ 1
魂 1
脉 1
瓜 1
1969 0.6087141223960422
扶@@ 1
某 1
間@@ 1
闭 1
碼@@ 1
柔@@ 1
級@@ 1
l@@ 0.03937271603925729
虑 1
障@@ 1
訓 1
跡 1
責 1
1959 0.7340417893766233
俊@@ 1
狱 1
仙 1
昂@@ 1
诗 1
壽@@ 1
荒@@ 1
敬 1
宾@@ 1
胞@@ 1
─ 1
驗@@ 1
恶@@ 1
健 1
订 1
汪@@ 1
1942 0.6343131337680306
91 1
93 1
啟 1
籌@@ 1
鮮@@ 1
練@@ 1
鄧@@ 1
译@@ 1
1957 0.7416290642130475
串 1
1953 0.7871149042615943
偉@@ 1
暗 1
剛 1
题@@ 1
錫@@ 1
1936 0.7568003093037268
卜@@ 1
97 1
蒸@@ 1
痛 1
媒 1
牵@@ 1
糖@@ 1
跨 1
养@@ 1
勇 1
扬 1
敌 1
謂 1
1967 0.5986975400938576
苗@@ 1
翠@@ 1
翁 1
购 1
域@@ 1
双 1
叫@@ 1
买 1
歇@@ 1
辞@@ 1
襲@@ 1
II 0.20594625246465523
託 1
逝 1
縮 1
背 1
湘@@ 1
样@@ 1
室@@ 1
魔 1
譜 1
頁 1
賴@@ 1
唯@@ 1
繪@@ 1
絲@@ 1
孫 1
怪 1
醇 1
羽 1
AS@@ 0.8685314457373201
积 1
1962 0.6475605863100179
凝@@ 1
1943 0.6070483446661695
濟 1
奏@@ 1
駛 1
薛@@ 1
el@@ 0.045035070062792906
灵 1
偵@@ 1
94 1
吨 1
擬 1
欧 1
跟@@ 1
违@@ 1
藤 1
患 1
灭 1
姚@@ 1
疆@@ 1
順 1
1961 0.6687392730366427
1951 0.7986349712947698
狗 1
汝@@ 1
IN@@ 1
餐 1
岳@@ 1
课@@ 1
待@@ 1
熟@@ 1
1963 0.6387490455114173
煤@@ 1
en@@ 0.029169679374630355
謀 1
寮 1
姐@@ 1
吐@@ 1
殖 1
CD 0.856943148378508
疏@@ 1
1935 0.8148373746159736
談 1
貴 1
脑 1
暂@@ 1
涉 1
式@@ 1
讚 1
層@@ 1
伏 1
飲@@ 1
园@@ 1
慧 1
粹 1
郎@@ 1
贊@@ 1
胎 1
靜@@ 1
徒@@ 1
池@@ 1
匯@@ 1
丝 1
險@@ 1
’ 0.04033563892062079
ed 0.013385154947236588
夢@@ 1
飓@@ 1
绪 1
飞 1
th@@ 0.04933944597929576
辅@@ 1
釋@@ 1
隋@@ 1
态@@ 1
硫@@ 1
羊@@ 1
轴 1
乃 1
彰@@ 1
滅@@ 1
置@@ 1
欢@@ 1
担@@ 1
頓@@ 1
断@@ 1
紙 1
璃 1
SA@@ 1
虚@@ 1
憑 1
筹@@ 1
NBA 1
・ 1
西班@@ 1
軌 1
錯@@ 1
婦 1
耳 1
裏 1
忙 1
ar@@ 0.038605490957084966
敘@@ 1
戶@@ 1
毫@@ 1
滑 1
髮 1
欲 1
撞 1
萧@@ 1
洞@@ 1
棋@@ 1
恰@@ 1
互 1
獻@@ 1
隐@@ 1
蓮@@ 1
傾@@ 1
训 1
沿 1
篮@@ 1
肖@@ 1
傅@@ 1
兄@@ 1
× 1
怕 1
銜 1
厚@@ 1
賀@@ 1
抑@@ 1
萊 1
济 1
拘@@ 1
况 1
误 1
番@@ 1
裕 1
戀@@ 1
申 1
纵@@ 1
粵@@ 1
凡@@ 1
割 1
曰 1
吧 1
沖 1
豆 1
戲 1
700 1
榜@@ 1
圓 1
咖@@ 1
撰@@ 1
缺 1
讯 1
没 1
错@@ 1
耀@@ 1
~ 1
衔 1
探 1
霸@@ 1
般@@ 1
僧@@ 1
碳 1
as 0.010919993038733783
叔@@ 1
繼 1
握 1
ation 0.025261034439914083
態@@ 1
針 1
牆 1
翻 1
载@@ 1
斑@@ 1
荷 1
永 1
甫 1
揮@@ 1
荣 1
泛@@ 1
獨 1
尺@@ 1
醒 1
莊 1
纸 1
追 1
胸@@ 1
释@@ 1
静@@ 1
套@@ 1
吾@@ 1
拼@@ 1
娘 1
娃 1
肥@@ 1
押 1
漁@@ 1
農 1
幽@@ 1
弦 1
幸 1
税 1
勵 1
檔 1
聽@@ 1
添@@ 1
Z 0.8081370213744574
Al@@ 0.06737905396959966
夷 1
郊 1
妇@@ 1
珍 1
殿@@ 1
泥@@ 1
泥 1
燈 1
召 1
楼@@ 1
蒋@@ 1
鍵 1
紋 1
am@@ 0.05349639048628137
峡 1
儒@@ 1
续@@ 1
宽@@ 1
碟 1
1933 0.665033409965353
仿 1
掘 1
120 1
巧 1
u@@ 0.06093310321556105
氯@@ 1
汰 1
苦@@ 1
堪@@ 1
汇 1
1928 0.7573619879260562
願@@ 1
刚 1
怪@@ 1
筆@@ 1
颜@@ 1
辭@@ 1
催@@ 1
熊 1
戒 1
轟@@ 1
顧 1
敢 1
細 1
獵@@ 1
腳@@ 1
j@@ 0.05609083704545743
寶 1
共产@@ 1
辛 1
镜 1
织@@ 1
予@@ 1
硕@@ 1
盡 1
悲@@ 1
驚@@ 1
艾 1
份@@ 1
蛋 1
規 1
坛 1
摧@@ 1
玛 1
羊 1
1931 0.8106035336942186
ol@@ 0.06366556344382086
50@@ 1
賢 1
or@@ 0.04252323829938642
俘 1
z 0.08743505386508739
忽@@ 1
贾@@ 1
1932 0.7744110870162355
龄 1
codice 1
1927 0.8159011790918034
祝 1
愿 1
愿@@ 1
郡@@ 1
寿@@ 1
鼻@@ 1
ot@@ 0.06503205373548966
嫌 1
潭 1
純@@ 1
AT@@ 1
逆@@ 1
補 1
繞 1
搬@@ 1
绍@@ 1
蛛 1
惡 1
蹈 1
賴 1
儲@@ 1
研 1
壁@@ 1
澤 1
规 1
麻 1
掌 1
蔣@@ 1
邁@@ 1
偷@@ 1
顺 1
汀 1
as@@ 0.049426957251039634
麟 1
CO@@ 0.855305135549472
振 1
柱@@ 1
硬 1
缅@@ 1
it 0.024559426419935054
矛@@ 1
讲 1
料@@ 1
脅 1
晉 1
殼 1
謝 1
畢@@ 1
针 1
跑@@ 1
既 1
腐@@ 1
完 1
ph@@ 0.06935575363814456
10.@@ 1
隶 1
晶 1
盐@@ 1
盐 1
拟 1
繪 1
层@@ 1
赖@@ 1
1934 0.7021746586922833
折 1
键 1
40@@ 1
档 1
貝 1
杂 1
窗@@ 1
贝 1
俊 1
狂@@ 1
縮@@ 1
誕@@ 1
os@@ 0.0752305744997403
困 1
芒 1
蝶 1
祝@@ 1
祠 1
駛@@ 1
礦@@ 1
储@@ 1
筆 1
纪 1
濱 1
亡@@ 1
BS 1
賈@@ 1
Re@@ 0.07689505729570294
23@@ 1
势@@ 1
丰 1
祥@@ 1
茵 1
慢@@ 1
冯@@ 1
謀@@ 1
邑 1
範 1
豆@@ 1
欣@@ 1
撰 1
拳@@ 1
AP@@ 1
廖@@ 1
枪@@ 1
谢 1
峰@@ 1
翔 1
堆 1
沟 1
蹟 1
Q 1
丸 1
夕 1
继 1
阪 1
仪 1
兄 1
礙 1
锡 1
妹@@ 1
1929 0.6860500165927547
沉 1
‘ 0.705069494369313
雀 1
烟@@ 1
悉 1
锋 1
鍾 1
憶 1
贈 1
袋 1
痛@@ 1
灭@@ 1
店@@ 1
80@@ 1
奎@@ 1
千米 1
雌@@ 1
束 1
缓@@ 1
衡@@ 1
姜@@ 1
ー 1
旨 1
祿 1
麵 1
秘 1
慧@@ 1
蹤 1
零 1
覺@@ 1
祭 1
v 0.18491682836141035
螺 1
聘 1
宛 1
杜 1
lo@@ 0.061429467389295174
刷 1
斑 1
赞 1
1918 0.5600249662926319
噴@@ 1
鲍@@ 1
雍@@ 1
欢 1
戒@@ 1
1912 0.7559982694791243
惟@@ 1
剑 1
緬@@ 1
彌@@ 1
贵 1
汤@@ 1
le 0.010503281862794268
AT 1
寬@@ 1
洪 1
滩 1
委員@@ 1
屈@@ 1
for 0.01212148687313232
劍@@ 1
逃 1
ul@@ 0.050028314917192916
避 1
拖@@ 1
id 0.14012858459099795
擾 1
耐@@ 1
暨 1
岸@@ 1
邵@@ 1
の 1
矿 1
扬@@ 1
寒@@ 1
剪@@ 1
坑@@ 1
響@@ 1
濃@@ 1
課 1
猛@@ 1
敗@@ 1
腔 1
聚 1
巫@@ 1
腓@@ 1
漫 1
er@@ 0.025726009667426084
re@@ 0.01624682978051862
肌@@ 1
... 0.2806599450301715
构 1
鬼@@ 1
碧@@ 1
崎 1
朴@@ 1
鹿 1
激 1
oc@@ 0.06964687833100483
栖@@ 1
姊@@ 1
句@@ 1
驾@@ 1
披@@ 1
ine 0.049607949697438015
盆@@ 1
災 1
辭 1
討 1
戀 1
峽 1
勤@@ 1
刚@@ 1
补 1
St@@ 0.07191199715237172
脫 1
壮@@ 1
晋 1
蟹 1
壤 1
ate 0.03630722517905711
→ 1
枢@@ 1
豐 1
监 1
珊@@ 1
薄@@ 1
郊@@ 1
泊@@ 1
粒 1
翼@@ 1
擅@@ 1
斷@@ 1
菌@@ 1
滨 1
瑪 1
覽 1
朱 1
忍@@ 1
斜@@ 1
兆@@ 1
銀 1
la 0.004494276592363938
创 1
灾 1
Tr@@ 0.06956208575138359
额@@ 1
黄 1
姬 1
旺 1
搖@@ 1
AC@@ 0.8049994353496611
Ar@@ 0.07516727617353
燕 1
胺 1
1919 0.5831826748000694
獅@@ 1
鸟 1
氨@@ 1
呎 1
既@@ 1
谓 1
猪@@ 1
陀 1
怖 1
1924 0.6729852720024345
覽@@ 1
械@@ 1
谱 1
佩 1
密度 1
卷@@ 1
掩@@ 1
碩@@ 1
磯 1
鐘@@ 1
钟@@ 1
覆 1
礁 1
搬 1
冬 1
賣@@ 1
悬@@ 1
撒 1
触 1
必 1
z@@ 0.03334429254960181
at@@ 0.0453379152733003
頻 1
AM@@ 1
笼@@ 1
赖 1
丑 1
献@@ 1
om@@ 0.061466651299442746
繫 1
襄@@ 1
坝 1
災@@ 1
凱 1
tr@@ 0.03171689931517869
觉@@ 1
芳@@ 1
霸 1
ie 0.042622440267879265
ag@@ 0.041789520589224124
昇 1
菩@@ 1
晓@@ 1
龐@@ 1
鹽 1
雖@@ 1
Sh@@ 0.10443364899435768
倾@@ 1
盡@@ 1
罰 1
1925 0.6816736699542782
涵@@ 1
陪@@ 1
旨@@ 1
叔 1
玩 1
秦 1
檔@@ 1
隸 1
ory 0.16275796531954645
胁 1
稀@@ 1
備@@ 1
ensis 0.6551162373442654
1917 0.6204274608315766
喪@@ 1
Co@@ 0.11619115414977753
錯 1
1926 0.6657620940505498
镜@@ 1
毕@@ 1
癌 1
罩 1
Google 1
1914 0.6048370409112227
嘗@@ 1
鎖 1
倉 1
誤@@ 1
DVD 1
耀 1
尖 1
km 0.1401819012176962
屯 1
碳@@ 1
12.@@ 1
毗@@ 1
着@@ 1
跳 1
詳@@ 1
胡 1
負責@@ 1
轨 1
ad@@ 0.038575557037360285
優 1
冀@@ 1
鏡@@ 1
偶 1
稅 1
燒 1
矩@@ 1
勋@@ 1
貓 1
柏 1
耗@@ 1
励 1
斐@@ 1
噶@@ 1
租 1
ST@@ 1
抓@@ 1
茅@@ 1
匹 1
菊@@ 1
訴@@ 1
鄂@@ 1
绘@@ 1
览 1
喇@@ 1
农 1
樣@@ 1
褐@@ 1
蒲@@ 1
菜@@ 1
亨 1
附 1
1922 0.653207517152408
載@@ 1
牧 1
Con@@ 0.07408258481405751
罗斯 1
崖 1
叉 1
訂@@ 1
毅 1
il@@ 0.04780717174618787
裂@@ 1
者@@ 1
俠 1
縱@@ 1
卖 1
隨 1
織@@ 1
壽 1
拳 1
CA@@ 0.5306034545998926
審 1
狼 1
is@@ 0.03782842010948477
馮@@ 1
豹 1
伸@@ 1
轰@@ 1
肃@@ 1
ch 0.07023288843827553
250 1
瘤 1
ro@@ 0.04665759990673598
柄 1
塘@@ 1
话@@ 1
谋 1
烷 1
逼@@ 1
ic 0.0645569255774934
岡 1
1.5 1
犬 1
邱@@ 1
匹@@ 1
紹@@ 1
燒@@ 1
漸@@ 1
漠 1
窗 1
巧@@ 1
An@@ 0.05428570282060017
RA@@ 0.649702298859018
懸@@ 1
穴 1
谈 1
碰@@ 1
帅 1
娱@@ 1
Mar@@ 0.06260340769455626
巷 1
胶@@ 1
肃 1
屏 1
ES@@ 0.8053171455020658
稍@@ 1
藉 1
IC@@ 0.8450485281976368
迦@@ 1
貼 1
鷹 1
叛 1
笔@@ 1
館@@ 1
堡@@ 1
磨@@ 1
幼 1
AN@@ 1
奠@@ 1
阻 1
塑 1
夺 1
吻 1
码@@ 1
岳 1
泡 1
饰@@ 1
妙 1
彻@@ 1
柬@@ 1
吏@@ 1
爆 1
葡@@ 1
梵@@ 1
識@@ 1
芭@@ 1
1921 0.6254550837664347
喷@@ 1
仿@@ 1
银 1
脊@@ 1
$ 0.15231190188561639
珊 1
幫 1
险@@ 1
耕@@ 1
鼓 1
棘 1
映@@ 1
剑@@ 1
挖@@ 1
买@@ 1
貨 1
悠@@ 1
le@@ 0.03972670007471732
砂@@ 1
吞@@ 1
韓 1
101 1
圭 1
梦@@ 1
盜 1
杨 1
濱@@ 1
雇@@ 1
遣@@ 1
60@@ 1
稻@@ 1
ay 0.08593975982801312
揚@@ 1
ap@@ 0.04514317180786409
亥@@ 1
11.@@ 1
ン 1
纹 1
賢@@ 1
斜 1
緊 1
3000 1
奔@@ 1
韦 1
it@@ 0.03599364192200666
刀@@ 1
邻@@ 1
鯉 1
1913 0.6804765714096102
1911 0.7196624446997719
囊 1
蕨 1
偉 1
络@@ 1
婆 1
祈@@ 1
織 1
1923 0.6209327795862015
臘@@ 1
聘@@ 1
淑@@ 1
婦@@ 1
洗 1
篇@@ 1
崩@@ 1
彰 1
尹@@ 1
℃ 1
碎@@ 1
橡@@ 1
踏@@ 1
li@@ 0.043886711623618485
臂 1
綱@@ 1
id@@ 0.048802605676621404
貫 1
勞 1
腦@@ 1
損 1
碎 1
藍 1
疏 1
os 0.024941207634296653
妇 1
靜 1
澎@@ 1
泳@@ 1
嚴 1
恨 1
蔡 1
α 0.44060643708243613
贡 1
卢 1
劫 1
娶 1
鸟@@ 1
削@@ 1
税@@ 1
講 1
販@@ 1
倉@@ 1
et@@ 0.05044994444462403
署@@ 1
件@@ 1
耗 1
棕@@ 1
雕 1
彥 1
劳 1
桃 1
沟@@ 1
鮑@@ 1
Th@@ 0.0690136524742979
ers 0.022059966591002254
窄 1
1900 0.6204298221283578
韋 1
琪 1
秩@@ 1
厥 1
惜 1
拔@@ 1
35@@ 1
勃 1
薦 1
罕 1
ri@@ 0.06454852825237838
適 1
扭@@ 1
努 1
燈@@ 1
担 1
损 1
氢@@ 1
氧 1
筒 1
埋@@ 1
mm 0.41707088002383264
槽 1
11@@ 0.8501328113072895
藻 1
診@@ 1
午@@ 1
買@@ 1
笔 1
賞@@ 1
誠@@ 1
哪@@ 1
遍@@ 1
卵@@ 1
赤 1
辨@@ 1
宏 1
纯@@ 1
冕 1
廠@@ 1
乳 1
橄@@ 1
亩 1
腿 1
賜 1
铸@@ 1
錦 1
没@@ 1
ti@@ 0.039621694754068286
灾@@ 1
腊@@ 1
額@@ 1
減 1
曉@@ 1
怎@@ 1
厝 1
妮@@ 1
串@@ 1
亿 1
歉 1
饮@@ 1
雜 1
坡@@ 1
哲 1
DNA 1
禄 1
伟@@ 1
丝@@ 1
# 0.4465576575162623
階 1
es@@ 0.03424789408256902
湿@@ 1
戊@@ 1
軸@@ 1
问@@ 1
婆@@ 1
仇@@ 1
细 1
帥 1
藩@@ 1
链@@ 1
薇 1
UN@@ 0.9171938457829305
顿@@ 1
蓮 1
暖 1
溯 1
閱@@ 1
冲 1
NH@@ 1
ad 0.07707741355558245
灰 1
軟 1
宰@@ 1
900 1
溝@@ 1
杆 1
侧@@ 1
ve 0.032982002282344866
练@@ 1
阪@@ 1
竣@@ 1
览@@ 1
诚 1
粮@@ 1
听 1
ver 0.14581971777204308
un@@ 0.029277418586667762
‧ 1
1909 0.7550650326985692
纽 1
蓬@@ 1
ER@@ 0.8924464684800115
媽@@ 1
陈 1
110 1
190@@ 1
苯@@ 1
欣 1
独 1
尿@@ 1
巢 1
題@@ 1
终 1
舟 1
仇 1
嗣 1
拱@@ 1
囚@@ 1
梯@@ 1
son 0.025815382349181154
忆 1
緩@@ 1
吹@@ 1
町@@ 1
ana 0.06999496178298789
Com@@ 0.08368601689728243
缩 1
愈 1
丧@@ 1
株 1
玲 1
屍@@ 1
勳@@ 1
蔣 1
ur@@ 0.03636029110087105
腾@@ 1
脂@@ 1
錢@@ 1
虹 1
奶@@ 1
寓 1
葬@@ 1
觸@@ 1
Br@@ 0.0658674192926682
st@@ 0.024934882544588324
采 1
凯 1
恭@@ 1
厦 1
ata 0.16840217740395239
磷@@ 1
蛇@@ 1
ent 0.020524021380965596
私 1
庇@@ 1
讷@@ 1
贫@@ 1
NE@@ 1
扁 1
man 0.054335635234741976
煙@@ 1
廟@@ 1
RO@@ 1
烧@@ 1
ec@@ 0.04876221205538778
琳@@ 1
辯@@ 1
己@@ 1
em@@ 0.04088832307020145
狂 1
1916 0.6482608035614219
诞@@ 1
Par@@ 0.07835856672776714
逻@@ 1
辩@@ 1
癌@@ 1
膠 1
辟 1
订@@ 1
推 1
灘 1
夷@@ 1
涌 1
繁 1
貧@@ 1
循 1
擁@@ 1
履@@ 1
她@@ 1
棟 1
屿 1
斥 1
飯 1
吾 1
甜@@ 1
貞@@ 1
医 1
樞@@ 1
壳 1
圳@@ 1
圈@@ 1
碑@@ 1
2.5 1
岗@@ 1
芝 1
豫@@ 1
嘴 1
遮@@ 1
ed@@ 0.052890067448452066
啡 1
中华人民@@ 1
罷@@ 1
齿 1
芒@@ 1
1910 0.5614842731303169
锁 1
靖@@ 1
鰭@@ 1
误@@ 1
棉@@ 1
堤 1
眠 1
滋@@ 1
1915 0.61602437163417
页 1
沼@@ 1
us@@ 0.039192754100010795
撫 1
般 1
Car@@ 0.07926343563781409
脱 1
Ex@@ 0.10441548484100577
av@@ 0.058702812309499086
陀@@ 1
肇@@ 1
AK@@ 1
踪 1
荐 1
蘋@@ 1
赠 1
铺 1
13.@@ 1
罚 1
吃@@ 1
鯉@@ 1
倡@@ 1
紙@@ 1
祐 1
償 1
贺@@ 1
90@@ 1
弱@@ 1
桌@@ 1
椅 1
頗 1
鹽@@ 1
澄@@ 1
挂 1
灯 1
戌 1
專 1
70@@ 1
滕@@ 1
by 0.009618381842583857
а 0.06774768104015182
sh@@ 0.04216685036458631
朵 1
姑@@ 1
汗@@ 1
茂 1
im@@ 0.033962730479424386
寿 1
昭 1
裕@@ 1
搭 1
th 0.04195490195879286
项@@ 1
浓@@ 1
逾 1
卸@@ 1
坂@@ 1
魁@@ 1
湾@@ 1
脚@@ 1
框@@ 1
龜 1
筑 1
审 1
遲 1
悉@@ 1
楊 1
one 0.025508785539063782
閉@@ 1
嫁@@ 1
肝@@ 1
紐 1
蝶@@ 1
漂@@ 1
憶@@ 1
ter 0.03492608799246159
铜 1
炭 1
侦@@ 1
仑 1
墨 1
話@@ 1
轴@@ 1
烯 1
肥 1
扣@@ 1
輔 1
騎 1
LE@@ 1
碍 1
詢 1
僧 1
盘@@ 1
誠 1
be 0.02288695185975883
抢@@ 1
孕 1
兽 1
吸 1
摔@@ 1
懷 1
鈴@@ 1
熔@@ 1
析@@ 1
你@@ 1
De@@ 0.10122557823710039
馆@@ 1
霞 1
擬@@ 1
掛 1
鐸 1
惊@@ 1
1901 0.7410601937569743
株@@ 1
5000 1
睛 1
绘 1
TV@@ 1
乾 1
幹 1
鼎@@ 1
赶@@ 1
US@@ 0.4898324513256694
割@@ 1
乙 1
拟@@ 1
PC 0.9170591894421708
冈@@ 1
醫 1
貫@@ 1
禦 1
错 1
启 1
桂 1
14.@@ 1
珀 1
UTC 1
酮 1
孝 1
紛 1
汽 1
蕃 1
AC 0.5836886644614905
徙 1
哺@@ 1
1905 0.585155845857255
慎 1
瓶 1
贤 1
璋 1
乌 1
恋 1
躍@@ 1
扰 1
鴻@@ 1
誉@@ 1
純 1
180 1
渔@@ 1
趕@@ 1
缸 1
厦@@ 1
霖 1
潔 1
负 1
猜@@ 1
伙@@ 1
翁@@ 1
TE@@ 1
勳 1
斌 1
涵 1
脊 1
閃@@ 1
丞 1
坎 1
课 1
盧 1
忌 1
攜@@ 1
欺@@ 1
猫 1
嫩 1
驶 1
讨 1
弄 1
陶 1
栗 1
YouTube 1
庞@@ 1
蝠 1
Or@@ 0.09091009224330081
伽 1
鬆 1
3D 1
嗣@@ 1
age 0.029205687415317972
仕 1
130 1
仰@@ 1
Cl@@ 0.16341461634925347
Le@@ 0.07316192234893507
太平@@ 1
頒 1
． 1
跃 1
析 1
匯 1
吊@@ 1
紛@@ 1
箭@@ 1
酯 1
抱@@ 1
详@@ 1
33@@ 1
庵 1
敲@@ 1
屆@@ 1
伽@@ 1
裸@@ 1
弥@@ 1
Be@@ 0.06246368465482687
凭@@ 1
霍 1
尝@@ 1
誓 1
John 0.08910887966388828
促 1
昔@@ 1
潘 1
稅@@ 1
劫@@ 1
止@@ 1
透 1
庚@@ 1
軸 1
伟 1
竟 1
阅@@ 1
纸@@ 1
麓 1
ang 0.10072392424229658
柳 1
do@@ 0.07567855616624947
牲 1
抚@@ 1
吏 1
熙@@ 1
肢 1
鱸 1
捲 1
com 1
ina 0.06806058975490369
鑑 1
ab@@ 0.029135656702094406
di@@ 0.02905009409689336
慈 1
募 1
俘@@ 1
En@@ 0.094956440664657
危 1
37@@ 1
傅 1
札@@ 1
á 0.1691763742051546
雖 1
圆 1
纲 1
润 1
160 1
把@@ 1
Bo@@ 0.10306704592062278
岗 1
闭@@ 1
殷@@ 1
FC 0.20640285654808685
摇@@ 1
い 1
穆 1
娅 1
氟@@ 1
磨 1
刘 1
珀@@ 1
疗@@ 1
冈 1
雞 1
攀@@ 1
裴@@ 1
34@@ 1
嘴@@ 1
己 1
链 1
盤@@ 1
TO@@ 1
赏 1
廢 1
1903 0.674314814993844
臟 1
糕 1
叉@@ 1
纯 1
脑@@ 1
抵 1
央@@ 1
稍 1
哀@@ 1
RE@@ 0.9519410767671374
怖@@ 1
塌 1
穌 1
灯@@ 1
厂@@ 1
暫 1
忍 1
赴@@ 1
奶 1
臣@@ 1
茄 1
抱 1
辐@@ 1
桓@@ 1
IM@@ 1
狹@@ 1
尤 1
瑜 1
1500 1
須@@ 1
36@@ 1
椎 1
蜂 1
狼@@ 1
睡@@ 1
薄 1
1908 0.5583046046938679
Un@@ 0.12700597132111086
寒 1
莲@@ 1
崙 1
噸 1
PlayStation 1
夸@@ 1
闽@@ 1
触@@ 1
辱 1
SO@@ 1
鼠@@ 1
侍 1
储 1
秉@@ 1
浩 1
緩 1
抚 1
腺@@ 1
奔 1
舱 1
刷@@ 1
抄@@ 1
帽 1
о 0.07690287785722089
140 1
烧 1
Categ@@ 1
漳@@ 1
ai 0.10918234143023658
嫁 1
遞 1
忘@@ 1
蝙@@ 1
葵@@ 1
佑 1
甘 1
style 0.21446286739403317
衝 1
脚 1
拥@@ 1
滾 1
詢@@ 1
姿@@ 1
舌@@ 1
矩 1
煌 1
蜜@@ 1
憲 1
牽@@ 1
床@@ 1
猎@@ 1
遼@@ 1
勘@@ 1
仓@@ 1
殊@@ 1
诉@@ 1
庸 1
酷 1
静 1
黛@@ 1
閩@@ 1
颶@@ 1
陝@@ 1
獵 1
厢 1
蕾@@ 1
鼎 1
邪 1
盈@@ 1
禎 1
譚@@ 1
泡@@ 1
僚 1
浸@@ 1
se 0.010331092377571098
粹@@ 1
媽 1
1906 0.574267748069191
荒 1
逆 1
NGC 0.9913057421125178
顾 1
1907 0.5699137586361783
累 1
align 0.87093032993803
od@@ 0.08372446255044846
SE@@ 0.6697415936196298
丛 1
滕 1
沪 1
棚 1
廂 1
賀 1
赐 1
ton 0.0615019383946322
綠 1
弘 1
硝@@ 1
键@@ 1
妖@@ 1
款@@ 1
鉴@@ 1
阶 1
软 1
扇 1
鯰@@ 1
堆@@ 1
炎@@ 1
罢@@ 1
矶 1
賊 1
CH@@ 0.9073350496770128
尽 1
de@@ 0.0288971861063395
劣 1
匠 1
梦 1
III 0.23010486202873157
da 0.04267818936648659
矮@@ 1
迟 1
樑 1
幢 1
貓@@ 1
1904 0.5880797240128159
垃@@ 1
坤 1
欄 1
蕾 1
鸡@@ 1
宴 1
翅@@ 1
16.@@ 1
colspan 1
渠 1
霧 1
厄 1
廿@@ 1
鋼 1
逸@@ 1
ig@@ 0.040568441564956224
駁 1
冯 1
辉 1
滾@@ 1
15.@@ 1
PS 0.6592201000478433
幅@@ 1
携@@ 1
蟲@@ 1
废 1
琼@@ 1
劾 1
焚@@ 1
艙 1
LO@@ 1
ir@@ 0.038243934708956324
榴@@ 1
荆@@ 1
慣 1
MS 0.7041440215142771
Per@@ 0.08419795861904684
薪@@ 1
蛙 1
蜀 1
採 1
Ph@@ 0.11438425844057405
钦@@ 1
籤 1
錫 1
PS@@ 1
毀@@ 1
臀@@ 1
ta 0.04645203296605204
括 1
歧 1
侶 1
棠 1
櫻@@ 1
邪@@ 1
100@@ 1
拯@@ 1
銘 1
der 0.003923984465124673
淺@@ 1
um@@ 0.03800199421360384
壬@@ 1
漏@@ 1
酷@@ 1
op@@ 0.04380353349241235
Sp@@ 0.0959914909778956
\ 1
翡@@ 1
尸@@ 1
涛 1
贯@@ 1
IC 1
IG@@ 1
彗@@ 1
ang@@ 0.04610617171950599
鞍@@ 1
募@@ 1
co@@ 0.03191099990291461
绥@@ 1
趨@@ 1
帆@@ 1
疾 1
are 0.016291377884726094
肩@@ 1
行政区@@ 1
纤@@ 1
潭@@ 1
膨@@ 1
喬 1
牟@@ 1
卵 1
苯 1
45@@ 1
埠 1
炳@@ 1
爐 1
概 1
椒 1
Qu@@ 0.07211866756154903
El@@ 0.0746153349772692
擋 1
輛@@ 1
爺 1
診 1
貢 1
邸 1
ard 0.06162072217516039
嫌@@ 1
减 1
AL@@ 0.9616276347081228
究 1
闊 1
? 0.21986848942362214
奎 1
腹 1
吴 1
諮 1
烏 1
截 1
躍 1
j 0.28577423652198514
Gr@@ 0.0665612924808406
Linux 1
38@@ 1
籲 1
AD@@ 0.6697313259292346
劉 1
庶 1
17.@@ 1
兆 1
拆 1
虹@@ 1
伙 1
執 1
Col@@ 0.08167840777588843
涂@@ 1
询 1
搶 1
39@@ 1
Se@@ 0.07054318859120083
啤@@ 1
暂 1
ore 0.08780931880027602
允 1
color 0.4011067744676202
签 1
Di@@ 0.06630126539661994
徐 1
瓷 1
閘@@ 1
柯 1
嘛 1
吹 1
骑 1
瞄@@ 1
凸@@ 1
慘@@ 1
礦 1
360 1
鄭 1
鸿@@ 1
韩 1
per@@ 0.03194768096865311
誰 1
Ro@@ 0.07952631533714503
魁 1
扫@@ 1
椎@@ 1
恒 1
MI@@ 0.9333470979627769
po@@ 0.032169829670175565
函 1
禪@@ 1
鹰 1
姬@@ 1
拒 1
Cr@@ 0.11824341715011497
ica 0.06446056513819605
ma 0.0808924203322578
Mon@@ 0.0726277183562909
贴 1
og@@ 0.0678360149437728
淺 1
ter@@ 0.03555688543633824
蓄@@ 1
background 0.7565794694880551
BC 0.46043779332326296
档@@ 1
SP@@ 0.7818178483885869
匣 1
卜 1
β 1
栋 1
鳳 1
货 1
鎖@@ 1
蜂@@ 1
軒 1
擺@@ 1
− 0.6596754473693944
愈@@ 1
禧 1
賭@@ 1
乒@@ 1
燃 1
勋 1
ey 0.10611115313408884
Ad@@ 0.08408224187255553
燥 1
擁 1
汶@@ 1
105 1
徹@@ 1
唇 1
贯 1
邏@@ 1
и 0.0068878920072877005
仓 1
掠 1
煤 1
彬 1
盜@@ 1
夾@@ 1
MO@@ 1
皆@@ 1
彙 1
径@@ 1
卖@@ 1
钢 1
帖 1
豬 1
渠@@ 1
堅 1
逼 1
儒 1
焦 1
勾@@ 1
昏@@ 1
枝@@ 1
DS 0.7495780424374361
350 1
ell 0.0678833387110958
欲@@ 1
淡 1
贞@@ 1
糧@@ 1
輝@@ 1
濕@@ 1
芙@@ 1
撤 1
伪@@ 1
宅@@ 1
掛@@ 1
坂 1
寓@@ 1
潤 1
黏@@ 1
插 1
頃 1
束@@ 1
齒@@ 1
玫@@ 1
ty 0.05662126636604072
center 0.27848446373222535
AN 0.9985059463057036
纷 1
垣 1
戏 1
怡 1
煙 1
狭@@ 1
浮 1
适 1
粤@@ 1
掠@@ 1
趋@@ 1
梨 1
un 0.007549154252930741
all 0.029586554951338287
吳 1
趁@@ 1
蜜 1
惑 1
顷 1
腺 1
仕@@ 1
ity 0.03723703136405933
1898 0.6064438691722946
徹 1
縱 1
惟 1
磅 1
纖@@ 1
恶 1
欠@@ 1
响 1
焰 1
氢 1
躲@@ 1
RNA 1
倡 1
懼 1
ni@@ 0.05115734523264859
咒 1
帆 1
text 0.36059957835912754
鎊 1
迄@@ 1
to@@ 0.048718022476169055
穗 1
匪 1
盒 1
胎@@ 1
犬@@ 1
勁 1
壯@@ 1
ary 0.03311018846486091
阔 1
粘@@ 1
荃@@ 1
1902 0.547814021695134
递@@ 1
ob@@ 0.048619200055742794
忘 1
MP@@ 0.8254650704695227
瓣 1
啦 1
end 0.04851995657568414
墙@@ 1
毁@@ 1
豫 1
握@@ 1
跋 1
鞋 1
Bar@@ 0.06554898583908599
築 1
BO@@ 1
隙 1
欽@@ 1
挂@@ 1
寇 1
緣@@ 1
豬@@ 1
诊@@ 1
债@@ 1
辅 1
浅@@ 1
卓 1
妥@@ 1
惨@@ 1
ce 0.03432597162429238
18.@@ 1
爪@@ 1
洁 1
te 0.012710272767515268
舌 1
梨@@ 1
孕@@ 1
昆 1
彎@@ 1
ak@@ 0.04155163655060536
mo@@ 0.04869336719963918
赵 1
tu@@ 0.07898144916285033
200@@ 0.5336729657757631
丞@@ 1
弓@@ 1
曝@@ 1
扁@@ 1
1895 0.6110416446347761
鶴@@ 1
75@@ 1
Cor@@ 0.08438203025185972
崇 1
桐@@ 1
败@@ 1
赋@@ 1
螢@@ 1
22@@ 1
汁 1
qu@@ 0.025603300086471728
契 1
í 0.20509188370773307
递 1
玄 1
65@@ 1
咀 1
AM 0.721976043689801
措 1
墟 1
喻 1
爬@@ 1
ile 0.06157599789581605
驶@@ 1
詳 1
飯@@ 1
艮@@ 1
Ne@@ 0.07050898532240053
薪 1
酋@@ 1
殉@@ 1
瀑@@ 1
鳴@@ 1
ly 0.023838833244579565
扣 1
葛 1
跌 1
纷@@ 1
ol 0.08929107737100302
腰 1
偽@@ 1
瑰 1
兔 1
峡@@ 1
逸 1
慰 1
pl@@ 0.0371267074535258
賦@@ 1
鋪 1
偏 1
Pr@@ 0.06878166897281988
劝@@ 1
甚 1
仲 1
瓊@@ 1
od 0.09963389941691589
ü 0.4654043430940254
臉@@ 1
怨 1
厅@@ 1
押@@ 1
坚 1
夕@@ 1
盲@@ 1
鯨 1
tion 0.02350286632633962
偿 1
鸡 1
骸 1
膠@@ 1
DC 0.5761381294919623
鱗@@ 1
帳@@ 1
癸@@ 1
One 0.14861328983028574
侠 1
禾 1
咨@@ 1
Mo@@ 0.1117977932156318
し 1
120@@ 1
Love 0.3524264446862581
塗@@ 1
鏈 1
ak 0.082566088438966
竟@@ 1
eg@@ 0.04225454545718229
夥@@ 1
si@@ 0.035945529777023304
捉 1
盗@@ 1
凹@@ 1
拓 1
雞@@ 1
怀 1
墅 1
曹 1
Sch@@ 0.0281897250238436
ス 1
籍@@ 1
イ 1
岭@@ 1
橙@@ 1
19.@@ 1
盗 1
恭 1
桶 1
re 0.03715954630925338
倍@@ 1
繩@@ 1
苹@@ 1
貞 1
債@@ 1
RI@@ 0.8960760004032828
驅 1
ā 1
墩 1
3.5 1
糾@@ 1
鴨 1
4000 1
乔 1
拋@@ 1
Ac@@ 0.11767176471876815
Li@@ 0.08666218003743756
稣 1
吁 1
删@@ 1
娘@@ 1
窟 1
BBC 0.4405555917394962
呢 1
貪@@ 1
勸 1
嬰@@ 1
韻@@ 1
TH@@ 1
ut@@ 0.042400103776854194
ON@@ 1
卯 1
彦@@ 1
冥@@ 1
郭 1
笑@@ 1
龜@@ 1
疊 1
Ste@@ 0.10898479396604724
钠 1
預 1
47@@ 1
雀@@ 1
娥 1
胶 1
漏 1
卸 1
挺 1
蓝 1
ん 1
Facebook 1
砂 1
Am@@ 0.07430161233474944
吋 1
World 0.06334477628216245
ent@@ 0.02204933789882418
tic 0.09011616608541136
狩@@ 1
Lo@@ 0.10434680448126496
104 1
sil@@ 0.1752385904365572
尹 1
欖@@ 1
齋 1
寵@@ 1
堪 1
е 0.025831109624588455
鯰 1
48@@ 1
肅 1
贤@@ 1
恆 1
-- 1
誘@@ 1
He@@ 0.07625174052463085
偷 1
摘@@ 1
桐 1
108 1
淨@@ 1
【 1
】 1
纵 1
闪@@ 1
ah 0.1105377040919089
55@@ 1
ou@@ 0.04120091818957293
帽@@ 1
潔@@ 1
菊 1
氮 1
For@@ 0.07448507140363043
慰@@ 1
穩 1
Microsoft 0.8774372118821079
ae 0.14491070097148656
幾 1
掃@@ 1
稻 1
ó 0.02071483303697118
册@@ 1
ex@@ 0.020364754346452157
舖 1
170 1
弓 1
券@@ 1
凰 1
旱 1
102 1
鳴 1
獅 1
塚 1
with 0.00636117403899477
棘@@ 1
蜘@@ 1
н 0.04726294827250594
※ 1
1896 0.5491797586240829
衍 1
俞@@ 1
晨@@ 1
棄@@ 1
妙@@ 1
1890 0.5163835335894084
岐@@ 1
au@@ 0.03245912034004339
糊 1
-@@ 0.11249250974467867
詔@@ 1
梭 1
q 0.2515679012067556
溯@@ 1
贾 1
爪 1
荔@@ 1
AG@@ 1
栏 1
喊 1
牡@@ 1
踢 1
蓬 1
诏 1
46@@ 1
蔽 1
伺@@ 1
AI@@ 0.6027244120139978
瑚 1
荊@@ 1
CP@@ 0.912833510290016
餅 1
氯 1
罹@@ 1
ay@@ 0.06087765915896444
乓@@ 1
札 1
怡@@ 1
ing@@ 0.046676295849790994
憤@@ 1
ue 0.04670143354338057
绕@@ 1
125 1
仗 1
淨 1
墳 1
韶@@ 1
Ge@@ 0.06667108891113149
section 0.20299900882404395
撥@@ 1
103 1
膚 1
鼻 1
圾 1
em 0.0768821781699195
斬 1
BA 0.5452221388347446
晴@@ 1
宪 1
摆@@ 1
纺@@ 1
瀨@@ 1
寅 1
董 1
New 0.03407708623146877
鄂 1
1897 0.5344830802390798
钦 1
鴻 1
杏@@ 1
斋 1
CC@@ 0.736623675709068
贏 1
VA 1
纠@@ 1
訟 1
丈 1
埋 1
虐@@ 1
た 1
杉 1
ley 0.06587511064327616
est 0.006874841756211194
搞 1
DE@@ 0.744614304643827
飲 1
宰 1
box 0.424652440405385
TA 0.5060530719472678
AR 0.9658745271979725
櫃 1
橫 1
20.@@ 1
AB@@ 0.7270581832147982
萄 1
Hz 1
par@@ 0.025985993508305737
鑑@@ 1
Live 0.47252292989090744
魅@@ 1
ber@@ 0.03615142341060203
诸 1
穀 1
桿 1
蓉 1
ach@@ 0.03809284607845243
GB 0.8986306326744612
ts 0.01967591222857563
寡@@ 1
騷@@ 1
柔 1
斐 1
纂 1
齿@@ 1
az@@ 0.056533382869582434
猎 1
au 0.013354374719546805
圭@@ 1
49@@ 1
Ap@@ 0.21178320267615894
冶@@ 1
猪 1
財 1
ル 1
侨 1
DP 0.6662719613086746
溝 1
106 1
甸@@ 1
猛 1
蝦 1
遙@@ 1
净@@ 1
彭 1
辞 1
ge 0.037844924299221
撫@@ 1
no@@ 0.055853776004926185
刪@@ 1
紫 1
翅 1
迦 1
弦@@ 1
崛@@ 1
う 1
噪@@ 1
裹 1
炉 1
賠@@ 1
FI@@ 0.4270147352566351
垒 1
畢 1
萍 1
bo@@ 0.039192018452721945
壩 1
帮 1
庶@@ 1
贈@@ 1
療@@ 1
睡 1
葵 1
蜀@@ 1
109 1
IE@@ 1
祇 1
Net@@ 0.5749374550065728
剩 1
猴 1
Music 0.16486869949390684
滚@@ 1
繳@@ 1
蔬@@ 1
ea 0.11592239607816435
彪 1
剥@@ 1
悟 1
蜥 1
懲@@ 1
ite 0.03253141263745116
il 0.015433106320564527
泄@@ 1
欽 1
矢@@ 1
ML 1
綁 1
You 0.24744994227849557
辨 1
1200 1
宦@@ 1
慣@@ 1
紋@@ 1
瓶@@ 1
峻 1
喝@@ 1
础@@ 1
铺@@ 1
且@@ 1
恐 1
蜥@@ 1
荡 1
44@@ 1
湯 1
蘿@@ 1
閱 1
1899 0.4962943278083163
CD@@ 0.3613884237418556
Ma@@ 0.08620177229011138
湘 1
嵌 1
凉@@ 1
谭@@ 1
夹@@ 1
淮 1
ance 0.031207811162728204
NO@@ 0.879362469633018
郁@@ 1
Me@@ 0.0806309837555168
僑 1
奸 1
鉴 1
耿@@ 1
茎 1
浏@@ 1
俯@@ 1
莲 1
ens 0.03104895858847524
+@@ 1
Str@@ 0.07497384384250005
107 1
恰 1
乞@@ 1
彝@@ 1
旭@@ 1
淆 1
磁 1
Android 1
亂@@ 1
IV 0.24112084094818534
na 0.06054161773811492
参 1
棉 1
SS 0.34982881541056865
砖@@ 1
窮 1
狙@@ 1
渐@@ 1
坞 1
2.0 1
矮 1
廈@@ 1
EN@@ 1
酬 1
SS@@ 0.6366052624442474
辉@@ 1
韻 1
虞@@ 1
IP 0.9185102392095285
塢 1
RT 0.943754696119322
IP@@ 1
倪@@ 1
纬 1
VI@@ 0.8425653958826077
簡 1
筋 1
汕@@ 1
ik@@ 0.0441647271814633
Po@@ 0.0978175698013229
崩 1
脏 1
鬚 1
烟 1
惯@@ 1
SM 1
ME@@ 0.8851150227606819
豚 1
ure 0.0383930225784476
禅@@ 1
鱷 1
銅 1
mar@@ 0.031065282559606496
芽 1
Ser@@ 0.11190357745476476
р 0.050949013834333465
虏 1
晰 1
狮@@ 1
眉 1
ong 0.08792283601732616
烯@@ 1
ice 0.04198178501125329
添 1
戚 1
と 1
详 1
侄@@ 1
冒 1
鹏 1
则@@ 1
招 1
婉@@ 1
1889 0.5379227258495682
阜@@ 1
烹@@ 1
Mc@@ 0.08010398040622708
暖@@ 1
宴@@ 1
Vi@@ 0.11074542871536341
巢@@ 1
int 0.3614531686483903
醉 1
些@@ 1
HT@@ 1
Phone 1
掃 1
榆@@ 1
祯 1
蝕 1
禦@@ 1
bi@@ 0.03668172798249862
ra 0.054991457175820435
ale 0.02784913405673595
僱@@ 1
氫 1
鹤@@ 1
菱 1
驚 1
璃@@ 1
悼@@ 1
om 0.12477256953811959
喉@@ 1
School 0.06839379653242107
挽@@ 1
ラ 1
ö 1
怒@@ 1
疊@@ 1
骼 1
顛@@ 1
騙 1
擲 1
ep@@ 0.06267827225065198
di 0.09085956538357214
24.@@ 1
SA 0.4183020924233452
• 0.7055961606256622
CA 0.46465230383028694
Pro@@ 0.0849309474646388
23.@@ 1
Ver@@ 0.025945044995239423
聰@@ 1
銘@@ 1
舟@@ 1
践 1
if@@ 0.06385000784742226
杖 1
鑽@@ 1
涌@@ 1
肆 1
严 1
搶@@ 1
眉@@ 1
PE@@ 1
饭@@ 1
115 1
ya 0.04220054856764927
腰@@ 1
潰 1
囊@@ 1
狗@@ 1
か 1
繩 1
顆@@ 1
奮@@ 1
蔓@@ 1
擦@@ 1
頸 1
旦@@ 1
騰 1
馮 1
淳 1
碗 1
浴@@ 1
恋@@ 1
描 1
禾@@ 1
鑼@@ 1
MA 0.5178314452595937
擦 1
te@@ 0.032906521876575244
笛 1
21.@@ 1
娜@@ 1
瞬@@ 1
68@@ 1
孚 1
暢@@ 1
廚@@ 1
穎 1
ver@@ 0.013091004639385275
舶 1
ler 0.041192390986714934
拨@@ 1
爛 1
450 1
gi@@ 0.03665316048970531
戎 1
渤@@ 1
弧@@ 1
猴@@ 1
CP 1
盾@@ 1
111 1
漆 1
莖 1
蝴@@ 1
彦 1
搞@@ 1
con@@ 0.016556770232547022
EP 0.4039643655532576
aw@@ 0.06230668812113177
纹@@ 1
嵌@@ 1
爸 1
痕 1
砖 1
硫 1
箱@@ 1
卧@@ 1
嗎 1
崗@@ 1
钻@@ 1
説 1
ne 0.023730524532246226
哭 1
辣@@ 1
瓷@@ 1
氛 1
杆@@ 1
简 1
郝@@ 1
ess 0.05031544816900774
遞@@ 1
跌@@ 1
姑 1
啡@@ 1
67@@ 1
污 1
狐@@ 1
酰@@ 1
43@@ 1
丛@@ 1
pen@@ 0.08886839169349714
庙@@ 1
墜@@ 1
咸 1
se@@ 0.026651740153856313
IS 0.7938085807756295
毅@@ 1
氟 1
檢 1
诱@@ 1
瑙@@ 1
淋@@ 1
辑@@ 1
楠 1
哇 1
疲@@ 1
vi@@ 0.03147840140799488
慕 1
蚀 1
輯@@ 1
Wi@@ 0.2029933603255241
抓 1
禍 1
eb@@ 0.03637690632256751
99@@ 1
ati@@ 0.03830703428649276
姊 1
220 1
腐 1
賈 1
喙 1
に 1
1860 0.5312719536819759
CS@@ 0.5424348936568286
ner 0.03305971316541702
22.@@ 1
cm 0.26627517488550956
赣@@ 1
DA 0.6281058139915892
孢@@ 1
叠 1
譴@@ 1
1880 0.4792102399583191
IO@@ 1
谁 1
涼@@ 1
鵬 1
br@@ 0.02276218678197121
潛 1
沪@@ 1
湿 1
CI@@ 0.45903613608041977
妾 1
愉@@ 1
陇@@ 1
祁@@ 1
​ 1
GP@@ 1
汤 1
1600 1
ion 0.05203535849039052
渦@@ 1
IT@@ 0.7639218740802548
謙 1
凶@@ 1
な 1
邢@@ 1
凤 1
陰 1
誓@@ 1
骚@@ 1
凌 1
ur 0.04677618790875523
鱂 1
ma@@ 0.05510083026232974
ps 0.09919402616383352
畜@@ 1
敖@@ 1
誼 1
樊@@ 1
趾 1
ain 0.051655145385707944
峽@@ 1
240 1
役@@ 1
25.@@ 1
1800 0.7562234848978807
挝 1
傍@@ 1
雁@@ 1
Mor@@ 0.06202482633794354
嫡@@ 1
La 0.013621083870850042
end@@ 0.029260059105220865
135 1
1894 0.49901930527900557
繞@@ 1
赔@@ 1
聊@@ 1
112 1
胃@@ 1
Wor@@ 0.11902352025185381
奋@@ 1
踐 1
ys 0.15326161493060328
Me 0.34132829649199947
ara 0.08939732049455577
pi@@ 0.03808062217241189
′ 1
煽@@ 1
ト 1
谴@@ 1
谱@@ 1
1871 0.5327381410078473
58@@ 1
る 1
蟻 1
赠@@ 1
ks 0.03538102341114421
1870 0.44678450005323656
醛 1
缀 1
Met@@ 0.1802778450945519
脈@@ 1
铭 1
辽 1
唇@@ 1
弼 1
叢@@ 1
悅 1
渭@@ 1
绿 1
甄@@ 1
56@@ 1
凰@@ 1
哩 1
輩 1
仆@@ 1
Fr@@ 0.08386547250193255
樟@@ 1
atus 0.2620832928760361
拱 1
罵 1
ode 0.2552414993912712
Ed@@ 0.09114423617175993
Min@@ 0.09301169080541852
SD 1
栗@@ 1
David 0.11592829357449994
预 1
邯@@ 1
碱@@ 1
衙@@ 1
贊 1
瘋@@ 1
ov@@ 0.0575305173803854
uc@@ 0.060428706226972745
峙 1
杯@@ 1
赏@@ 1
BM@@ 0.5901884558408651
Mac@@ 0.13173716875644195
漿 1
Te@@ 0.09883438439389192
丟@@ 1
织 1
do 0.03874551490954609
ok@@ 0.059586583608114155
脹 1
抽 1
57@@ 1
紮 1
虽 1
贞 1
飼@@ 1
疼@@ 1
q@@ 0.17939181232917095
泌 1
茵@@ 1
削 1
憂@@ 1
AL 0.9176665151533676
诏@@ 1
讼 1
ath@@ 0.050644893538322876
牺@@ 1
迅 1
and@@ 0.03716300313172083
PO@@ 1
贪@@ 1
124@@ 0.9385478679670775
胸 1
畜 1
115@@ 1
萌@@ 1
128 1
兔@@ 1
匿@@ 1
婿 1
è 1
颇@@ 1
畏 1
ell@@ 0.04196459754033112
婷 1
剿 1
挺@@ 1
棍@@ 1
International 0.0887435960147688
University 0.03904182403153511
巩@@ 1
巫 1
颇 1
Fl@@ 0.07187554363392866
In 0.0071506728067787005
袍 1
蘆@@ 1
阅 1
hi@@ 0.04848907982822042
衷 1
輿@@ 1
ff@@ 0.05426564938887205
饶@@ 1
Pi@@ 0.11092292205860221
肿@@ 1
闆 1
壯 1
抛@@ 1
26.@@ 1
扳@@ 1
您 1
薯 1
罰@@ 1
Hol@@ 0.07798330204037929
碱 1
遂@@ 1
寇@@ 1
ot 0.06611931405219386
尋 1
赐@@ 1
CC 0.6167367518068912
遥@@ 1
朔@@ 1
屍 1
溃 1
却@@ 1
藻@@ 1
虜 1
Fre@@ 0.07045531491651538
剝@@ 1
琦 1
撐 1
检 1
ini 0.09105481834987138
ok 0.11465029410676199
Ab@@ 0.033983782209274005
润@@ 1
粮 1
27.@@ 1
pr@@ 0.02543788084881355
鍵@@ 1
Dr@@ 0.08812741210450299
究@@ 1
DO@@ 0.9842864846529946
с 0.01031931645302865
str@@ 0.03218161203948315
駿 1
狐 1
懂 1
ne@@ 0.03746626615353921
胤 1
ah@@ 0.04519131254215051
1885 0.4615014205281962
拾 1
稚 1
ight 0.0717188640290624
犧@@ 1
騰@@ 1
疇 1
闖@@ 1
衞 1
矣 1
磡 1
Fi@@ 0.15289850759488188
幣@@ 1
銳 1
ame@@ 0.2759834058485333
酉 1
笠 1
TC 0.7579234717981032
竭 1
斥@@ 1
捐 1
谊 1
鮋 1
li 0.12228664670747053
帜 1
Sw@@ 0.10420963383169499
廓 1
肖 1
卑 1
頸@@ 1
貸@@ 1
簿 1
127 1
肌 1
阜 1
gr@@ 0.028739601007068672
轟 1
暑@@ 1
ence 0.023546236569802714
乱@@ 1
栏@@ 1
Jo@@ 0.0943143321687939
ass 0.07659679224898262
隱 1
惯 1
潤@@ 1
埼 1
畿 1
撲 1
粟@@ 1
芦@@ 1
讯@@ 1
Har@@ 0.07538621411810209
聂@@ 1
宛@@ 1
ka 0.07411052577343867
缘@@ 1
喀 1
禄@@ 1
抄 1
旱@@ 1
挖 1
翠 1
喚 1
孟 1
愤@@ 1
坪@@ 1
账@@ 1
擾@@ 1
IA 0.9335028686205992
膀 1
腸 1
横 1
謠 1
ick@@ 0.048142053027533556
Ber@@ 0.05150162401026418
阎@@ 1
Inter@@ 0.07743386708285795
堵 1
EM@@ 0.9023248266379059
320 1
臭@@ 1
be@@ 0.016481847418139618
碧 1
Man@@ 0.05770074405469607
蕉 1
弯@@ 1
Mac 0.9780596058487719
誕 1
ace 0.06127585352113262
Mag@@ 0.09312121529134205
氫@@ 1
鯛 1
汶 1
鞭@@ 1
暹@@ 1
澄 1
韵@@ 1
Team 0.18351993320124507
阴 1
Gu@@ 0.052196892366549646
280 1
釜@@ 1
膽 1
蛤@@ 1
芙 1
郁 1
饼 1
垂 1
柴 1
230 1
薇@@ 1
爽 1
122 1
湛@@ 1
籌 1
AP 0.44443019427598274
勸@@ 1
颠 1
113 1
抬@@ 1
牆@@ 1
蛾 1
66@@ 1
簧 1
詠 1
醉@@ 1
ク 1
舆@@ 1
ref 0.5519265049454397
屈 1
ア 1
We@@ 0.0590824776538427
Saint 0.057948617722814434
慾 1
_@@ 1
幟 1
罚@@ 1
59@@ 1
鸣 1
濤 1
淵 1
桿@@ 1
啊 1
ack@@ 0.07072205041287459
〜 1
梓@@ 1
190 1
塾 1
缓 1
贺 1
瞭@@ 1
橘@@ 1
爬 1
ä 1
绵@@ 1
Su@@ 0.07892858762257196
痕@@ 1
孜@@ 1
land 0.028054890254174354
煮 1
ci@@ 0.027551811316984726
慎@@ 1
堵@@ 1
宙@@ 1
毓@@ 1
芯@@ 1
ase 0.07101909589133061
り 1
桓 1
述@@ 1
喝 1
宵 1
Sol@@ 0.11244268718134197
釣@@ 1
晴 1
Er@@ 0.03346441210064018
旭 1
脉@@ 1
吞 1
贼 1
賦 1
Twitter 1
des 0.0034339984890241378
pe@@ 0.038029845154009305
侨@@ 1
贸 1
Dis@@ 0.11302345241733422
憂 1
謙@@ 1
僵@@ 1
晓 1
т 0.024288186019216524
リ 1
沛 1
鸣@@ 1
肤 1
砌 1
ung 0.014622446750227355
娃@@ 1
Her@@ 0.05035649985644037
匙 1
趙@@ 1
遜@@ 1
榄@@ 1
雯 1
123 1
1892 0.4318710958676384
臥@@ 1
yl@@ 0.09091181852263014
廁@@ 1
蓄 1
all@@ 0.03983798188580987
淳@@ 1
贷@@ 1
迈 1
My@@ 0.22526497025542758
鵝@@ 1
氰@@ 1
TP 1
閩 1
惩@@ 1
濫@@ 1
肩 1
兇@@ 1
胚@@ 1
To@@ 0.08677597748636004
ake 0.1039471944342348
牢@@ 1
CE@@ 0.49249426550256264
My 0.278087443980725
1893 0.4233098844801513
AS 0.40692605156470063
沈 1
混 1
121 1
迭@@ 1
阀 1
AA 0.41346856991070224
姿 1
框 1
舒 1
斩@@ 1
諸 1
den 0.005860772810752243
懿 1
締@@ 1
臉 1
泗@@ 1
铭@@ 1
Lin@@ 0.15396889659114216
滇@@ 1
蒼@@ 1
賜@@ 1
氮@@ 1
溉 1
悟@@ 1
は 1
腾 1
210 1
ti 0.08095104910480068
PA 0.43187731561459275
that 0.00553320910753401
扮 1
贫 1
闢 1
諭 1
114 1
淚 1
捍@@ 1
tri@@ 0.03116740738009549
琛 1
胆@@ 1
Type 0.8191679044752257
im 0.008099065812520328
118@@ 1
饥@@ 1
119@@ 1
届@@ 1
煉 1
遲@@ 1
able 0.02261513041202099
擠 1
yr@@ 0.07656694264118637
膜@@ 1
岑@@ 1
1884 0.4732009061858161
褒@@ 1
Pro 0.4094192008821866
瀏@@ 1
悔 1
邁 1
ella 0.09592427820904274
犁 1
潟 1
陞 1
瑙 1
1887 0.46339831692072503
ical 0.03113057642885918
侣 1
1886 0.45705614034810943
CN@@ 0.5317940563217998
赋 1
MC 0.7023601783857123
蕊 1
哉 1
鳞@@ 1
As@@ 0.08106999613681959
啓 1
愚@@ 1
爸@@ 1
113@@ 1
镑 1
渊 1
錶 1
刃 1
崗 1
堯 1
渴@@ 1
阔@@ 1
William 0.08523017640842921
硅@@ 1
巾 1
吐 1
駕 1
118 1
稜 1
ick 0.05938343809707231
53@@ 1
iz@@ 0.04233008029006241
祠@@ 1
堤@@ 1
廳@@ 1
st 0.040867664052075446
毕 1
ev@@ 0.03610621351498675
趕 1
Game 0.34976471050729196
ous 0.032217003736083605
堀@@ 1
赦 1
醒@@ 1
1888 0.43486133735349275
was 0.002380961507422736
拖 1
ub@@ 0.07173303413675249
奢@@ 1
页@@ 1
橢@@ 1
les 0.005386182666602855
碘 1
BT 0.802097721385287
Pe@@ 0.08894262273527355
Go@@ 0.10931770358216032
ass@@ 0.02523583644514705
殼@@ 1
禪 1
傘 1
TS 0.8573036221640169
淵@@ 1
聰 1
沧@@ 1
ect 0.06095390814848361
纲@@ 1
117 1
James 0.09084678563282779
吕 1
腸@@ 1
750 1
睹 1
伪 1
譜@@ 1
憾 1
盈 1
醜@@ 1
sa 0.025041828645050494
LG@@ 0.705121973271385
浅 1
蛛@@ 1
Group 0.13532737302233855
苍@@ 1
涡@@ 1
冊@@ 1
滴 1
So@@ 0.08978894699398449
1861 0.46812773481846043
谐 1
債 1
缴@@ 1
era 0.028256729484546207
肅@@ 1
line 0.052579073718352895
棍 1
from 0.005851642569763506
狄 1
茅 1
饭 1
緯@@ 1
弊 1
塵 1
倭@@ 1
枯@@ 1
GA 0.7760198006863794
勉@@ 1
嘲@@ 1
ra@@ 0.04886470759609928
л 0.0211296180425361
癒 1
穷 1
1876 0.47541281888964837
116 1
2500 1
墾 1
忧 1
Ho@@ 0.09747641884902976
淹@@ 1
韵 1
ist@@ 0.03493032575994507
You@@ 1
ker 0.06415127157119496
肺 1
Bi@@ 0.06504252106393331
if 0.08050840677696895
朴 1
114@@ 1
檐 1
閣@@ 1
胆 1
129 1
哨 1
違 1
坠@@ 1
茱@@ 1
me 0.033983774788176324
ings 0.028495271804446026
梧@@ 1
瑚@@ 1
肢@@ 1
ir 0.035821744099528346
亭@@ 1
禹 1
鑽 1
锋@@ 1
閒 1
盆 1
髓 1
辆@@ 1
捨 1
詮@@ 1
擒 1
閒@@ 1
124 1
抨@@ 1
劣@@ 1
锐 1
奕 1
Bur@@ 0.06404580052579988
в 0.0028247731266463462
ISO 1
116@@ 1
he@@ 0.03159236774557781
畏@@ 1
踢@@ 1
魂@@ 1
祂 1
af@@ 0.02877608873491592
紡@@ 1
胀 1
铎 1
抒@@ 1
霹@@ 1
诚@@ 1
淀@@ 1
祕 1
Si@@ 0.09104824298367326
陪 1
阐@@ 1
126 1
1891 0.40157738485495564
衫 1
馨 1
綽@@ 1
霞@@ 1
PC@@ 0.49178943289935695
犀@@ 1
к 0.017438402075619315
让@@ 1
su@@ 0.022327444826604946
擢 1
庐@@ 1
憑@@ 1
ATP 0.771721261116196
漲 1
獸@@ 1
寂 1
跃@@ 1
歼@@ 1
蒿 1
Do@@ 0.11203849966264057
勁@@ 1
ant@@ 0.03882275962971299
儲 1
坝@@ 1
瑾 1
嚇 1
崑 1
鄒@@ 1
叠@@ 1
襪 1
閘 1
〔 1
钾 1
〕 1
剌 1
260 1
肪 1
丑@@ 1
諜 1
酿@@ 1
稽 1
绑@@ 1
頌 1
per 0.04161521405210187
1850 0.4625606826727011
妓@@ 1
棱@@ 1
und 0.0026711208644135615
蹄@@ 1
駒 1
撕@@ 1
填 1
117@@ 1
緻 1
so@@ 0.032670400690571894
捉@@ 1
CN 1
oph@@ 0.10679849751991291
Robert 0.09209145183630799
IT 0.8199945016542973
禧@@ 1
烤 1
鑄@@ 1
弄@@ 1
DE 0.7962866357817101
浙 1
ons 0.021310648173828033
浆 1
鰍 1
滤@@ 1
1883 0.4609231918563821
璧 1
醬 1
Paul 0.082850241150468
掀@@ 1
腫@@ 1
菇 1
ann@@ 0.037675718144094136
1862 0.4526609453243689
io 0.06581558315464098
蜒 1
卦 1
縫 1
盔 1
贬@@ 1
CO 0.7461513549596847
岱 1
郑 1
IBM 1
閥 1
荃 1
淪@@ 1
ap 0.11534300551515966
询@@ 1
漆@@ 1
co 0.04135441133014892
1868 0.46548212150700174
鈞 1
ッ 1
莞 1
籃 1
鱸@@ 1
Java 0.9021602381693974
雾 1
慌 1
鸚@@ 1
擇@@ 1
檀@@ 1
桌 1
欠 1
歇 1
艰@@ 1
净 1
菱@@ 1
est@@ 0.021727690556636692
扑 1
ack 0.08214577773242906
崔 1
蜿@@ 1
膏 1
窑 1
US 0.053929814053816444
孚@@ 1
狮 1
Apple 0.6072578979904613
有限@@ 1
矢 1
驳 1
ib@@ 0.05897060706731767
ま 1
μ 0.7315500528199146
絡@@ 1
炼 1
羟@@ 1
貿 1
滲@@ 1
ow@@ 0.04179465756578583
SI@@ 0.8832520584305615
颜 1
饱@@ 1
舜@@ 1
On@@ 0.12822870483394772
弃@@ 1
闸 1
Michael 0.10881845453248433
Super 0.22220269380826785
滚 1
@ 1
1867 0.44580144202258093
凉 1
Hy@@ 0.16164240765739696
牲@@ 1
寄 1
嘎@@ 1
砍@@ 1
ade 0.04100794037903855
さ 1
喉 1
磷 1
Pal@@ 0.0708966837654226
婴@@ 1
帳 1
赦@@ 1
耕 1
闲 1
优 1
浴 1
Ag@@ 0.0996974931446299
瑛 1
侏@@ 1
ho@@ 0.03761906670982249
撑 1
委员@@ 1
悦 1
凍 1
凭 1
渝 1
茹 1
霆 1
550 1
缪@@ 1
罐 1
² 0.09165941569442826
惧 1
vir@@ 0.17157813348525636
椭@@ 1
Cal@@ 0.08402780484923521
普查 1
湧@@ 1
貼@@ 1
1848 0.40778803134128017
Uni@@ 0.2205302023390697
Win@@ 0.17832239740467334
趁 1
RS 0.5705188119859271
330 1
LC 0.47904667358061814
1873 0.44989200920231565
淹 1
猿 1
1878 0.404958807492744
专 1
膛 1
襄 1
ا 0.2572712565407378
篡@@ 1
MS@@ 0.6929745998774538
溶 1
禹@@ 1
鞋@@ 1
が 1
DJ 0.579580715934037
ator 0.06287735386122767
て 1
僑@@ 1
鞏@@ 1
145 1
朔 1
涼 1
汪 1
浸 1
擺 1
諡 1
笼 1
National 0.038555693108103126
1864 0.41544369386074237
1879 0.43182017147560503
悼 1
牢 1
翔@@ 1
锁@@ 1
cr@@ 0.035141902597716754
钩 1
1877 0.4445697563532711
缝 1
莽 1
き 1
ry 0.06928525800346035
苔 1
穷@@ 1
羞@@ 1
袋@@ 1
ano 0.03453356422407991
ru@@ 0.03476645577471891
剖@@ 1
甜 1
鴉@@ 1
sp@@ 0.02641803010079115
彎 1
ino 0.042825842614785156
mi@@ 0.039170893389908035
窩 1
狸 1
蕩 1
丢@@ 1
屡@@ 1
畅@@ 1
tic@@ 0.05218516611919004
虞 1
岐 1
idae 0.08814619580412686
皖@@ 1
禽 1
芜@@ 1
颗@@ 1
择@@ 1
綴 1
泵 1
雇 1
eh@@ 0.04162595269994199
匡@@ 1
MP 0.40275361609072086
掉@@ 1
琅 1
芯 1
蔚@@ 1
low 0.04305693199205871
庚 1
溢@@ 1
ca 0.05023960751962331
1875 0.435100381173553
650 1
釐 1
1865 0.41349791862676394
涨 1
籠 1
1882 0.41192406392600245
杭 1
City 0.04897107647113121
肠 1
晤@@ 1
剪 1
畴 1
酵 1
1881 0.4021166441863789
out 0.02215995235965313
挡 1
茜 1
鹃 1
磚@@ 1
ng 0.3918064624801968
糧 1
隕@@ 1
AD 0.41407915109195903
綿@@ 1
霧@@ 1
鬧 1
冤@@ 1
傲 1
鸿 1
滴@@ 1
ena 0.05637674562424208
tel 0.0968722074462425
胰@@ 1
鰓 1
谥@@ 1
酵@@ 1
堊@@ 1
窦@@ 1
虐 1
net 0.12104558687047344
樸 1
邹@@ 1
Go 0.5225810936910058
蝠@@ 1
Val@@ 0.08926230568226037
礁@@ 1
onlyinclude 0.427730553666986
岁@@ 1
戚@@ 1
175 1
梓 1
岑 1
墮@@ 1
麾@@ 1
孵@@ 1
猶 1
糟@@ 1
ong@@ 0.04300536266700947
name 0.03483452434805473
迟@@ 1
喻@@ 1
ics 0.04824011447585955
邱 1
汾@@ 1
IX 0.5149125305364504
呂 1
ab 0.04080996205500074
曉 1
Tri@@ 0.07268028010180512
fo@@ 0.07076248136343259
enti@@ 0.03272690711870265
fli@@ 0.5457643200695219
棵 1
ran@@ 0.03067564432753164
濕 1
鹤 1
姜 1
鍊 1
宠@@ 1
菸 1
ora 0.07448651421585441
俾@@ 1
鰕 1
逗@@ 1
Fe@@ 0.1454806961875143
挫@@ 1
敷 1
钧 1
dis@@ 0.013265695892948041
鹅 1
MTV 0.6564121197602815
扇@@ 1
贴@@ 1
顱 1
155 1
up@@ 0.04353322278327917
埗 1
辈 1
黜 1
趨 1
奸@@ 1
莓 1
蚌@@ 1
鑒 1
蔭@@ 1
1874 0.42474992151920865
NA 0.500467975548308
Entertainment 0.3106247255166849
彻 1
ain@@ 0.05225999068118716
裙 1
豁@@ 1
焊@@ 1
頜 1
CS 0.6239235642182587
炼@@ 1
Por@@ 0.09377334065399665
Pol@@ 0.05816990751711092
119 1
企 1
1840 0.48780984202130945
1863 0.4060763149443964
苻 1
詐 1
諧 1
oth@@ 0.06538252822526187
岬 1
ら 1
虫@@ 1
380 1
蕨@@ 1
攔@@ 1
our 0.039081491175907736
ill 0.08843513791218752
篤 1
叙 1
烃 1
シ 1
脆@@ 1
蕭 1
喪 1
偽 1
谦 1
阱 1
壟@@ 1
1872 0.4216866577091342
Cy@@ 0.1763392055086018
und@@ 0.029991646793836212
袁 1
la@@ 0.04081242593412137
斬@@ 1
AV@@ 0.8179915759305804
man@@ 0.02509561202552694
Trans@@ 0.09700486134920153
tor 0.040185437128556704
System 0.2265834461325148
箕 1
陡@@ 1
霜 1
270 1
amb@@ 0.05822983557009469
艱@@ 1
鸭@@ 1
ise 0.02369396812694937
wid@@ 0.10126983071696384
屢@@ 1
昏 1
腎@@ 1
厭@@ 1
澀 1
貶@@ 1
紧 1
羌 1
骗 1
ari@@ 0.05446592634608781
聶@@ 1
ess@@ 0.0336967836040602
ten@@ 0.020943598563779905
酚 1
芹 1
鸦@@ 1
哀 1
ke 0.03778152673646693
app@@ 0.054906231955811784
帛 1
巳 1
鹰@@ 1
祿@@ 1
CE 0.41302477053992015
Gi@@ 0.07373065037608403
哭@@ 1
UR@@ 0.6641302000852618
厲 1
碘@@ 1
its 0.009659436070379267
鰻 1
扶 1
鶴 1
ist 0.006712399021837456
Bl@@ 0.07439540724132483
ene 0.035766913731195775
ens@@ 0.02570148481448036
ello 0.1304615778551976
屑 1
It 0.012259110583528467
ber 0.0768794688693388
Cre@@ 0.13966587935334288
汀@@ 1
讽@@ 1
int@@ 0.03531817217471016
稽@@ 1
ge@@ 0.018590150070284365
楠@@ 1
沦@@ 1
铝 1
炒@@ 1
St 0.1287327467303978
咬@@ 1
闸@@ 1
agr@@ 0.1598204092133852
娟 1
SN@@ 0.592607328428333
Sal@@ 0.062124751429036076
孜 1
鋒@@ 1
152 1
盪 1
Sho@@ 0.21323435365484594
遺 1
盲 1
嵩 1
椰@@ 1
篷 1
All 0.07137790245385107
姦 1
禱 1
FO@@ 0.8335191398164289
George 0.0739779911431342
梳@@ 1
闡@@ 1
饒 1
頌@@ 1
濒 1
萼 1
ali@@ 0.038304043961090044
ash 0.13817864575316638
俠@@ 1
Hu@@ 0.10763926300272363
Bas@@ 0.06681217104186739
壹 1
begin 0.4078487437327742
ket 0.15934071878632602
く 1
轩 1
禅 1
簽 1
茹@@ 1
棣 1
衔@@ 1
za 0.054481184298639046
媛 1
槟@@ 1
琼 1
駿@@ 1
齋@@ 1
Gar@@ 0.07667354466062463
玲@@ 1
Ang@@ 0.05297650412496395
ane 0.05195817835074298
yn@@ 0.09439090144483865
亥 1
加拿@@ 1
Mer@@ 0.07047103879704004
稣@@ 1
醚 1
鬱 1
鹹 1
port 0.0581402324087595
bu@@ 0.0510222860192728
ax 0.3078918261530198
ere 0.03281723387966517
夥 1
酪 1
孤 1
幌 1
绥 1
跤 1
浚 1
mon@@ 0.023295306499554153
kg 0.31521204686493476
兽@@ 1
湛 1
RT@@ 0.5070135444407367
钓@@ 1
皋 1
陛@@ 1
Tur@@ 0.05221595190409354
妨@@ 1
缮 1
鱷@@ 1
を 1
賺 1
傀@@ 1
幡 1
舅@@ 1
淫 1
趣@@ 1
濾@@ 1
括@@ 1
Club 0.07232719410316264
坏@@ 1
Mi@@ 0.10749961441415926
Office 0.24326764431708342
尉@@ 1
帖@@ 1
曙@@ 1
忆@@ 1
厌@@ 1
跋@@ 1
鵝 1
COVID 0.3151417745844473
淑 1
滙 1
衰 1
锅@@ 1
猩@@ 1
怨@@ 1
盎@@ 1
Pl@@ 0.05341504094284016
漠@@ 1
car@@ 0.024139653084013876
釀@@ 1
ated 0.009550324124918014
龟 1
窮@@ 1
葫@@ 1
1869 0.4161447249274043
巨 1
粗 1
辯 1
徑@@ 1
妖 1
No@@ 0.1345119679609027
傘@@ 1
傲@@ 1
尸 1
甫@@ 1
驱 1
磚 1
Time 0.24090029837246624
ani 0.08392766797161927
奕@@ 1
ki@@ 0.08575756525792323
1866 0.32299978441896887
瑶@@ 1
Mark 0.1617301617307766
ung@@ 0.04828152200376928
麒@@ 1
カ 1
羌@@ 1
剿@@ 1
1300 1
鯨@@ 1
kh@@ 0.05720126395687575
戟 1
侮@@ 1
こ 1
渗@@ 1
龚@@ 1
閻@@ 1
塵@@ 1
丧 1
寻 1
尧 1
瘟@@ 1
蠻 1
溴@@ 1
pp@@ 0.06621414272216031
壶 1
膽@@ 1
炬 1
ill@@ 0.03504325287280428
ta@@ 0.04894492489121626
辣 1
γ 1
闵@@ 1
掘@@ 1
At@@ 0.08297575295300084
恕 1
剌@@ 1
On 0.019501848679965402
丙 1
峨@@ 1
妈 1
紳 1
鈴 1
僕 1
贿@@ 1
頜@@ 1
yc@@ 0.14579448225878153
弧 1
aur@@ 0.10421658918075691
崁 1
SC 0.23400823965319204
财 1
沫 1
Mel@@ 0.12256081656639858
晃 1
錐@@ 1
Center 0.11015838479136943
Co 0.2868852997732779
琵@@ 1
鎌 1
132 1
itch 0.23446665447233275
疯@@ 1
Show 0.23369993190420518
赌@@ 1
冕@@ 1
拦@@ 1
奮 1
碩 1
汞 1
諷@@ 1
譬@@ 1
卻@@ 1
渊@@ 1
洽 1
隐 1
肾@@ 1
逢@@ 1
沁@@ 1
み 1
峇 1
鷹@@ 1
way 0.033852938313612524
莆@@ 1
Kar@@ 0.051613509811221876
ment 0.021725078797804834
yth@@ 0.15518341752506143
瑜@@ 1
溴 1
阮 1
Park 0.06772305053573156
濒@@ 1
酋 1
Del@@ 0.08430426561829528
sch@@ 0.013805390681648393
桨 1
袖@@ 1
ala 0.07516505452529813
vo@@ 0.04196506615227315
姚 1
懋@@ 1
萱 1
1400 1
Games 0.16152591837782393
Star 0.16218409776993625
勿 1
隅 1
ich@@ 0.044038420648765446
勉 1
タ 1
汐 1
ac 0.08406889010404717
歼 1
梭@@ 1
苷 1
ha 0.040362330288831565
敷@@ 1
耆 1
ABC 0.4148912186338341
time 0.015231315648001125
敢@@ 1
Tun@@ 0.19272572551296993
UC@@ 0.3360696197181944
肝 1
蟾 1
妥 1
巖 1
mac@@ 0.22252645158776335
Charles 0.07078648389497375
〇 1
201@@ 0.6327914430469403
als 0.005975740450363971
Mat@@ 0.08597664226682117
瀕@@ 1
贩@@ 1
栓 1
飽 1
ao 0.09393716222158666
ense 0.07381261012707818
驟 1
Gen@@ 0.08553753974054401
Thomas 0.07713403773043757
啶 1
睿 1
糙 1
颂 1
cript 0.2832895584900317
ロ 1
咬 1
嵩@@ 1
詔 1
舷 1
ative 0.02822924628426859
ual 0.06191839615062036
哪 1
藓 1
彤 1
堰 1
沂@@ 1
驳@@ 1
lin@@ 0.03274735078318945
匿 1
壮 1
滥@@ 1
聪@@ 1
dr@@ 0.02930183733483972
鋸@@ 1
瓊 1
兀@@ 1
熹 1
膝@@ 1
腕 1
橘 1
Sil@@ 0.08068105974809237
eng@@ 0.024452295376061632
跆@@ 1
餓 1
Mas@@ 0.06605034100468639
硅 1
ium 0.14238358994832098
剖 1
沸@@ 1
鯊 1
鴨@@ 1
僕@@ 1
泣 1
阁@@ 1
戮 1
ug@@ 0.04694564902621736
for@@ 0.017363776312609616
no 0.013686035018372508
撲@@ 1
棲 1
垄@@ 1
淫@@ 1
饮 1
狸@@ 1
婭 1
惹 1
gu@@ 0.023864777828170293
Kr@@ 0.04322420059979866
炭@@ 1
烷@@ 1
Bel@@ 0.04282848424280406
砍 1
osa 0.0964367996757592
あ 1
埠@@ 1
苣 1
妍 1
蔚 1
梗 1
眷@@ 1
匾 1
臟@@ 1
ff 0.10358967669802918
傣@@ 1
肋@@ 1
壞@@ 1
谍 1
荀@@ 1
楷 1
麟@@ 1
黔@@ 1
墳@@ 1
ek@@ 0.03114785902576998
ジ 1
ero 0.055565046464138
吗 1
樱@@ 1
滇 1
烂 1
1830 0.42205390771582957
嶽 1
蛤 1
霄 1
糊@@ 1
溜@@ 1
販 1
lu@@ 0.03830909871372724
で 1
竺 1
ama 0.052592014295535686
der@@ 0.023765137490234668
倚@@ 1
硒 1
舅 1
烤@@ 1
畿@@ 1
祸 1
Street 0.07735518350751856
罐@@ 1
讓@@ 1
琪@@ 1
竊 1
惊 1
Peter 0.08558457960980309
mo 0.109408618939755
沛@@ 1
倆 1
潜 1
IF@@ 0.7239060328286906
DF 0.4791776937485476
唯 1
埕 1
Media 0.2115826004790706
矛 1
蚤 1
illa 0.0963810645927207
謎 1
High 0.07826040663664408
扰@@ 1
ki 0.07011852019020898
舵 1
College 0.05191443658687122
棕 1
1853 0.4864841834807933
吊 1
鶯 1
ili@@ 0.04228816465187025
戎@@ 1
榕 1
Life 0.1340756893347017
誅 1
魨 1
fr@@ 0.034036446756203216
吡@@ 1
颈@@ 1
Web 0.7665887384985055
Es@@ 0.06729236061685337
沼 1
Red 0.12149713242537741
駁@@ 1
枕@@ 1
酰 1
anc@@ 0.03866774672241003
瘦@@ 1
虔@@ 1
颖 1
氛@@ 1
ations 0.011683784887007208
1700 0.9212353099135585
1858 0.4426594830000992
me@@ 0.023498699330362756
ari 0.09276375920661759
ba@@ 0.04855212742989105
慨 1
须@@ 1
π 0.9409502666520658
猩 1
Mal@@ 0.047912614029268066
悲 1
摺 1
霉@@ 1
骆@@ 1
謹 1
擢@@ 1
竖@@ 1
Medi@@ 0.09558508244841281
峯 1
晏@@ 1
炳 1
翟@@ 1
FM 0.23060290766880234
塗 1
擴 1
巷@@ 1
焉 1
睦 1
House 0.06281156279293927
aj@@ 0.04550034499887218
鑫 1
FA 0.23750792787634295
ire 0.03270199230762459
咪 1
寂@@ 1
懿@@ 1
肠@@ 1
褲 1
笛@@ 1
窑@@ 1
1859 0.384354233128113
雛@@ 1
BN 1
脸 1
鑲@@ 1
罷 1
恪 1
抹 1
EC@@ 0.6889649639545972
Im@@ 0.07952883507505162
ド 1
撥 1
Sc@@ 0.11947351626656225
币@@ 1
镶@@ 1
va 0.04861502524464575
お 1
VP 0.48996133844296635
マ 1
Man 0.12992040528601734
煩 1
胃 1
Big 0.15723717977622786
tra 0.07534093863156416
谦@@ 1
RC 0.3721777172625438
軒@@ 1
諷 1
倖@@ 1
Inst@@ 0.5642071428130199
逻 1
du 0.004164993121990171
Fo@@ 0.1114471235102222
厨@@ 1
齡@@ 1
鈉 1
Gre@@ 0.06721394146033399
now 0.042320710133791926
殷 1
Sur@@ 0.10064000138459026
侖 1
cor@@ 0.028023898228655326
钥 1
妓 1
遼 1
鯛@@ 1
陌@@ 1
1854 0.4319185472191873
oy@@ 0.05604648622120901
誦 1
1857 0.40935242413412015
ning 0.042453021224574616
れ 1
gen@@ 0.023270845149550187
尿 1
yp@@ 0.08110483021389268
詠@@ 1
Red@@ 0.14738463335544882
闲@@ 1
曦 1
art 0.032594156410983025
櫃@@ 1
瑩 1
King 0.07405922943688556
No 0.11407468768037739
ome 0.10841558888606836
娄@@ 1
拼 1
爷 1
PP@@ 0.7308226308951112
iv@@ 0.038716654962800016
AG 0.25771415679439286
棺@@ 1
毯 1
腥 1
鵡 1
屢 1
tions 0.015531522255304417
皓 1
羚 1
衆 1
滯 1
鞘 1
虛 1
com@@ 0.013708641522598871
倖 1
炒 1
暨@@ 1
泾@@ 1
ada 0.01265113541431156
莞@@ 1
諡@@ 1
吻@@ 1
梗@@ 1
煮@@ 1
Richard 0.09401426178192974
Gam@@ 0.40650668856055217
黔 1
□ 1
噬 1
窝 1
蛮 1
辰@@ 1
NASA 0.6296804451232845
aria 0.08380034040501673
矽@@ 1
祷 1
Bor@@ 0.06138239874505534
賄@@ 1
伞@@ 1
min@@ 0.02215019796893154
長@@ 1
毘 1
铝@@ 1
渣@@ 1
铃@@ 1
wer@@ 0.041867945370198265
凍@@ 1
樺 1
丕 1
誼@@ 1
1856 0.40233372966510134
ins 0.02482484418167549
抹@@ 1
曜 1
债 1
涂 1
绳 1
Limited 0.5063007262991241
盒@@ 1
ster 0.050109409128223446
レ 1
ek 0.06953369664601974
卤@@ 1
NBC 0.4696479500802545
Wo@@ 0.0894442968259392
睿@@ 1
饶 1
lan@@ 0.04184325519532331
腿@@ 1
谣 1
躲 1
俱 1
渲@@ 1
San 0.03558881393601199
卉 1
磺@@ 1
沐@@ 1
顎 1
EE 0.6841321900414854
忽 1
殘 1
笨@@ 1
ov 0.0819777677880802
央 1
嫩@@ 1
訥 1
纜 1
块@@ 1
Ul@@ 0.11134384926583481
匪@@ 1
稿@@ 1
鉤 1
披 1
祺@@ 1
疹 1
钙 1
λ 0.36138548682201543
綏@@ 1
鱗 1
崖@@ 1
Hor@@ 0.07071609703732555
叱@@ 1
淚@@ 1
key 0.09250837504910378
摸 1
Cas@@ 0.07302334955170978
諒 1
鹅@@ 1
ement 0.013945438088452652
毆 1
铸 1
Bre@@ 0.07276711728569414
禺 1
饲@@ 1
証 1
鏈@@ 1
氦 1
鄧 1
Wal@@ 0.07086133197373988
AE@@ 0.5708339104361406
Company 0.08216488061089204
帐@@ 1
晖 1
皈@@ 1
1851 0.433988803594338
焚 1
穹@@ 1
鍋 1
隼 1
Project 0.30180843057861084
攬 1
Mus@@ 0.05066439659791924
釘 1
del 0.004869025397865679
禽@@ 1
虚 1
鄞@@ 1
骤 1
Studio 0.36699515975710634
纬@@ 1
Gal@@ 0.06297766124116232
ame 0.0868532797634643
pe 0.040381654069293726
ich 0.04495698406108794
靼 1
ico 0.03786056610361631
○ 1
籠@@ 1
Tor@@ 0.06308060697681254
妄@@ 1
湄@@ 1
肚 1
銳@@ 1
LA 0.2776886737177359
Play@@ 0.13189407234121991
裸 1
XX 0.22815769725800641
ww@@ 1
org 0.5955215640610332
si 0.05359088638302357
bit 0.19516524899427043
执 1
苔@@ 1
ち 1
嬪 1
畝 1
虾 1
皖 1
萝@@ 1
Astr@@ 0.24854787592226552
脏@@ 1
Is@@ 0.06062692009918108
ting 0.017517429368687297
row 0.10008872531146652
adi@@ 0.04513708171397925
儡 1
颈 1
溺@@ 1
return 0.11374637302097561
CBS 0.44124144846887065
辜 1
Op@@ 0.10748563397264226
缆 1
elle 0.0119408099960449
坤@@ 1
Vo@@ 0.12031382950407565
ach 0.029982640185797032
ish 0.02870882264057042
mer@@ 0.02307664416813357
祚 1
鈾 1
軼@@ 1
崙@@ 1
Lu@@ 0.06581641452515007
憩 1
胖 1
op 0.058249827200762654
乍@@ 1
氨 1
China 0.07250665023509645
藔 1
忒 1
毙 1
穗@@ 1
臻 1
ection 0.05329708868193147
篮 1
踏 1
劝 1
濁 1
蛙@@ 1
傭@@ 1
敕@@ 1
Sec@@ 0.1094985336853684
稠@@ 1
辩 1
ο 0.034369430350696645
American 0.021782496485119405
坍@@ 1
ç 0.3565176944907548
拷@@ 1
庾@@ 1
肛@@ 1
Air 0.08321868549786622
犁@@ 1
壺 1
21@@ 1
諫 1
鸦 1
緝 1
eta 0.0795248215941506
斧 1
欄@@ 1
豎@@ 1
謹@@ 1
駱@@ 1
HC 0.5651843352361969
ai@@ 0.07761211318207485
type 0.08330569635567397
沮@@ 1
AB 0.5315399632560005
諧@@ 1
趟 1
暉 1
滬@@ 1
my 0.1106267178126713
uk@@ 0.053826701730275726
du@@ 0.036191560189200354
猫@@ 1
dia 0.09973483380415209
Ke@@ 0.10433748312470038
溃@@ 1
ud@@ 0.05887007755557655
汴@@ 1
揆 1
磊 1
Wil@@ 0.0796582144291046
Em@@ 0.06527659353370809
Sim@@ 0.08539035972824285
lock 0.10222944908569884
忌@@ 1
雍 1
van 0.07832507839070227
we@@ 0.02206431316420527
丸@@ 1
179@@ 0.630038322183916
ura 0.05584765670561167
匀 1
洩@@ 1
硼@@ 1
Day 0.1390309892057832
勘 1
苓 1
Eng@@ 0.09243329953700338
們@@ 1
啸 1
窝@@ 1
筹 1
蜴 1
± 1
窃 1
鍋@@ 1
锦 1
SE 0.6200806836729301
Vol@@ 0.078423575751723
霜@@ 1
夠@@ 1
淤@@ 1
1855 0.39418898652714485
ML@@ 0.34231905679103747
mi 0.11386825433245475
蒲 1
Can@@ 0.0720433369600238
哨@@ 1
閃 1
嗜@@ 1
繹 1
舜 1
敛 1
囚 1
筒@@ 1
耦@@ 1
谕 1
濾 1
斃 1
昊 1
绪@@ 1
菁@@ 1
楓 1
蔷@@ 1
龄@@ 1
姻@@ 1
溥@@ 1
珂 1
寨@@ 1
隍 1
ote 0.05928318822158909
攤@@ 1
湊 1
锌 1
ism 0.04590168069503311
que 0.0025692766752588555
Ros@@ 0.06812093743826536
not 0.010213137071466682
alis 0.23566978826625992
â 1
偿@@ 1
抑 1
漕@@ 1
RA 0.3523053584454288
my@@ 0.1786346381187344
茜@@ 1
饒@@ 1
ford 0.05295576574517832
淄@@ 1
伞 1
珪 1
逊@@ 1
http 0.8684031042153297
ith 0.08563432639602137
缔@@ 1
鱈 1
oh@@ 0.06811616382117036
Al 0.06859001932958639
咒@@ 1
1847 0.43914960380346846
ost 0.08636584858762215
冻@@ 1
淞@@ 1
Ger@@ 0.04413350692193678
狱@@ 1
tor@@ 0.02500776988563234
Ni@@ 0.08567682068390058
肆@@ 1
剂@@ 1
1841 0.4829266807855898
Vis@@ 0.19074863245795778
ents 0.014780185390522827
Des@@ 0.06876450985062842
肽 1
毋@@ 1
bl@@ 0.02463729813562332
懂@@ 1
榕@@ 1
汰@@ 1
Tai@@ 0.23680051775327624
顏 1
ish@@ 0.03749393657775815
奋 1
ly@@ 0.06592939145183319
von 0.0036146086819837473
弊@@ 1
乞 1
ye 0.060053974272444674
Boy 0.37642434265507174
Ri@@ 0.06351784873493764
ú 0.2620716237154505
淀 1
ind@@ 0.04108114962295218
も 1
尧@@ 1
槳 1
Girls 0.4050095706536182
捧 1
峭 1
繡 1
銜@@ 1
Road 0.0864568254160724
蔗 1
郸 1
ard@@ 0.04086489990403625
hy@@ 0.08387461883176561
洁@@ 1
1852 0.40543636496511903
NS@@ 0.258710759353024
龔@@ 1
冀 1
馳 1
Sk@@ 0.13148315507576755
愚 1
ail@@ 0.049677302424256546
厘 1
鋁 1
绳@@ 1
嘎 1
沫@@ 1
铅@@ 1
鴉 1
Fin@@ 0.056469421539511476
侃 1
Cam@@ 0.08980479760901189
new 0.01897910070526096
樞 1
厉 1
鳞 1
尘 1
纏 1
坊@@ 1
浑@@ 1
Ltd 0.41110479521791904
圃 1
肚@@ 1
Sa@@ 0.07153305515248687
ast@@ 0.041323846938202985
ola 0.09240261639083593
鹼 1
berg 0.04093546392920032
祺 1
新加@@ 1
AF@@ 0.36138347178437213
莒@@ 1
匾@@ 1
靶@@ 1
濬 1
class 0.08203999147859443
唤 1
壹@@ 1
搖 1
椅@@ 1
潰@@ 1
邓 1
厲@@ 1
稳 1
膝 1
臧@@ 1
Galax@@ 0.597195519701902
繆@@ 1
Bal@@ 0.050357409214981226
oo 0.2406825820122354
扯 1
琰 1
Force 0.11922756134772819
谥 1
ee 0.07276653541232174
龟@@ 1
Sam@@ 0.09453474125431421
オ 1
誇@@ 1
諱 1
aus@@ 0.014741324569027537
謠@@ 1
艷@@ 1
绵 1
1849 0.37800982012489553
oma 0.07510611608954902
ave 0.059396322190573406
匈 1
綿 1
敕 1
诞 1
Bro@@ 0.07853351248414402
NS 0.5025754305760073
锐@@ 1
忧@@ 1
铅 1
拾@@ 1
筛@@ 1
ville 0.028067145855861408
廊@@ 1
腎 1
妝@@ 1
ista 0.04644062535987474
闯@@ 1
鲸 1
溥 1
笙 1
SI 0.7285325358257169
柜 1
鳩 1
劑@@ 1
EC 0.5491472037343333
妈@@ 1
pa 0.12031913194736978
脸@@ 1
à 0.002525400066460162
琶 1
铀 1
フ 1
嶺@@ 1
锂 1
郵 1
Pas@@ 0.08615091202766947
1815 0.41273767179669424
Nor@@ 0.034882918738460104
廂@@ 1
眷 1
蠟@@ 1
1846 0.4157309553479253
Ti@@ 0.07746731729131989
σ 1
沁 1
芽@@ 1
厭 1
蕴@@ 1
瀛 1
猜 1
圻 1
颠@@ 1
Sm@@ 0.1710430470460038
檻 1
腔@@ 1
赶 1
摘 1
泌@@ 1
鸭 1
у 0.015329553283306813
兜@@ 1
蚊@@ 1
谊@@ 1
鼬 1
sa@@ 0.037137503660421255
勛 1
Hall 0.08104543183685173
field 0.0374109886769459
戍@@ 1
泸@@ 1
汲@@ 1
cu@@ 0.022625246685529253
匡 1
潼@@ 1
鞭 1
挑 1
ε 0.21851806742442761
叡 1
嘆 1
д 0.02265005214634628
ita 0.0466486677820141
unc@@ 0.04912191457107049
ding 0.04499659609358865
鹼@@ 1
Rec@@ 0.05652911505541788
绒 1
儂 1
Mob@@ 0.3076071542314931
well 0.01989568326990836
Au@@ 0.048873548915720245
eli@@ 0.07308713617268389
lar@@ 0.041501335513262586
闊@@ 1
絮 1
arr@@ 0.030456296838391544
tro@@ 0.033127054978098605
穎@@ 1
ρ 0.3628590889412839
ori@@ 0.03846098096494007
ل 0.2055604873793729
← 1
裘@@ 1
暢 1
1820 0.34282975564355483
ates 0.021237810555800093
垦 1
庇 1
悔@@ 1
fin@@ 0.01930302346431488
侠@@ 1
衢@@ 1
赣 1
扑@@ 1
烘@@ 1
畸@@ 1
輩@@ 1
佑@@ 1
励@@ 1
紳@@ 1
鉛 1
肋 1
萎@@ 1
帥@@ 1
悚@@ 1
Dre@@ 0.10273786750032735
蘿 1
1845 0.4124043700064277
瞿@@ 1
ike 0.11069464245964672
沂 1
鯊@@ 1
惹@@ 1
Tel@@ 0.11977338548406384
厉@@ 1
霰@@ 1
Ru@@ 0.08264043571715476
飢@@ 1
1844 0.44250301140952153
go@@ 0.04551043665303983
悖@@ 1
South 0.031230390089137083
昧 1
ex 0.12056992436538935
eo 0.059708914487129144
稷 1
Sy@@ 0.08924621761934548
Cap@@ 0.11762429268596276
晤 1
Hel@@ 0.07850178854072712
迹@@ 1
夹 1
ology 0.038610430311949516
靴 1
ters 0.025713696572078823
ys@@ 0.07776884043337277
逾@@ 1
col@@ 0.021305659163929423
Association 0.06333536901638351
Records 0.0856591317993187
ble 0.046372265952119816
Pre@@ 0.0658539038891974
騙@@ 1
oni@@ 0.053912376497365085
恤 1
É 1
ath 0.07401627642078687
ν 0.20336934807201199
辜@@ 1
飘@@ 1
cap@@ 0.031541727290240865
绎 1
乏@@ 1
鈣 1
鑿 1
齣 1
Web@@ 0.15721523516941727
Vir@@ 0.12186223213633253
吟 1
hu@@ 0.046505004400428505
CEO 0.3637347650714755
劲 1
邑@@ 1
譚 1
苷@@ 1
頑@@ 1
靡 1
ette 0.0423672691643943
菁 1
Bu@@ 0.11018016683702983
擱@@ 1
燦@@ 1
ash@@ 0.05338172067742599
搏@@ 1
play 0.03725496513595941
芮@@ 1
遙 1
す 1
Mil@@ 0.06131276797790897
姪 1
岔 1
惱 1
簧@@ 1
馈 1
茉@@ 1
Pan@@ 0.07485244433085554
吟@@ 1
ei 0.07871636284568138
況@@ 1
遵 1
锥@@ 1
枫@@ 1
驰 1
‰ 1
賃 1
ro 0.05421552108227342
敘 1
Play 0.3760013010486687
煉@@ 1
磐@@ 1
虧@@ 1
棺 1
馳@@ 1
濠 1
萧 1
遴@@ 1
甦 1
碉@@ 1
you 0.09992414340060282
庸@@ 1
North 0.03750298081666425
ney 0.05627225764318356
殲@@ 1
Direc@@ 0.1642684286974043
颖@@ 1
嘻@@ 1
撃 1
骂 1
鬍 1
鲤@@ 1
聪 1
︰ 1
Char@@ 0.059793337739069946
濮@@ 1
Best 0.09579350158635157
Le 0.009094809269311145
楷@@ 1
濁@@ 1
瑤 1
1812 0.383253202784297
ock 0.08905747951546739
暱 1
産 1
じ 1
咽@@ 1
陋 1
this 0.010530486915589131
薰 1
噸@@ 1
Black 0.08946667606995226
por@@ 0.032052009892244986
櫻 1
朽 1
蒋 1
1843 0.44143312514695815
Na@@ 0.1524171931359425
坟@@ 1
ian 0.03199705403023403
Max 0.16717672858762814
sion 0.023411452939756994
傾 1
毫 1
fac@@ 0.02299551795026721
Sony 0.4268118603417801
ici@@ 0.02908463094178827
old 0.026953035105541416
WWE 0.4359981889443637
几 1
Reg@@ 0.037228310466001675
侬 1
礙@@ 1
纜@@ 1
臭 1
ky 0.08355378998560586
鈕 1
濃 1
绣 1
糯@@ 1
1814 0.4177305116352227
佣 1
僱 1
浜 1
HP 0.6006562709279616
1842 0.4185789418731736
Du@@ 0.0613005949403518
Mir@@ 0.11303519465883391
so 0.015729127496418454
渥@@ 1
谨@@ 1
DI 0.5160937352381719
ger 0.041863813748067975
楔@@ 1
潞@@ 1
铃 1
Lee 0.11768788813106654
ja 0.05447611747453334
憤 1
脆 1
酬@@ 1
蒸 1
薹 1
煥 1
鑲 1
棱 1
wan 0.17818208898570323
凸 1
紗@@ 1
驾 1
New@@ 0.07836553580504026
Tal@@ 0.11285630042665883
dy 0.09551408657830504
萌 1
雁 1
cul@@ 0.04762247516001569
芷@@ 1
enn@@ 0.03221515492149964
Don 0.1343482988526426
ally 0.010975561169864102
ep 0.06025464113149183
枣@@ 1
tel@@ 0.03355752784211004
ã 0.6640935963614429
绒@@ 1
king 0.03504621081065428
ars 0.0344851819539402
ô 0.22836207543709552
佣@@ 1
ds 0.028455983751206476
キ 1
羧@@ 1
Kong 0.17188250713833766
覓 1
Mad@@ 0.06201037142887896
osaur@@ 0.3030122362389477
灌 1
瞻@@ 1
res@@ 0.014390449474435676
弈 1
汕 1
Res@@ 0.0674484787420851
To 0.09728460739435381
Henry 0.0752194852285624
Jean 0.04709072484887895
Luc@@ 0.1193888393600513
嬰 1
佬 1
Internet 0.1958789336533889
igh@@ 0.049417285083672546
隘 1
猷 1
pha 0.2676101599391441
墊 1
斡@@ 1
羲 1
遏@@ 1
烦 1
裳 1
鳍 1
尘@@ 1
搁@@ 1
皂 1
tin 0.04987888544432841
っ 1
夭@@ 1
膺 1
駝 1
哆 1
朋 1
閔@@ 1
滋 1
ech 0.08419982111784688
凹 1
詛@@ 1
扔 1
橙 1
浑 1
跡@@ 1
胺@@ 1
岔@@ 1
爺@@ 1
磺 1
晟 1
檀 1
磐 1
绰@@ 1
ula 0.19053641538122845
奚@@ 1
栖 1
粵 1
苑@@ 1
逵 1
驕@@ 1
del@@ 0.046870292189983113
畅 1
缅 1
貸 1
eri 0.12316559330099308
滄@@ 1
苟@@ 1
つ 1
詹 1
ema 0.07465960786976927
蜡@@ 1
United 0.017322769735498244
up 0.014451465639646725
倦 1
茄@@ 1
м 0.010957262848585827
ever 0.06416571156689639
ミ 1
燮 1
ace@@ 0.14522856093010508
卧 1
偕 1
冻 1
Up 0.270849775915815
ii 0.3320505989362752
mag@@ 0.04671496717022647
芸 1
Girl 0.3425956685785427
挫 1
pre@@ 0.014001292929591451
ser@@ 0.02141567752001148
锅 1
ast 0.04150597266561391
挤 1
兑@@ 1
We 0.1502840117384171
ida 0.032988473683272936
ison 0.05609643735626352
钊 1
aga 0.10296386816572346
樵 1
ime 0.04954665794723726
Je@@ 0.05810964645123853
ets 0.019079296175391523
tis 0.10577298488518638
歲@@ 1
贿 1
寅@@ 1
冶 1
滞@@ 1
煞@@ 1
Joseph 0.06936735340985464
La@@ 0.1255218562045392
滤 1
璽 1
BI 0.33511162224714075
瀋 1
肪@@ 1
δ 1
蹄 1
light 0.05083226226872594
汐@@ 1
Martin 0.07411848446578913
Prot@@ 0.07706884423752361
兇 1
渣 1
耐 1
コ 1
Tre@@ 0.06628932421964276
τ 0.22523404774432737
吨@@ 1
叢 1
稚@@ 1
Ty@@ 0.0928321733465558
镍 1
Cur@@ 0.07779029774948568
els 0.02383452763114045
甥 1
萃 1
侗@@ 1
ym@@ 0.06354472696988478
濂 1
竿 1
躺 1
昨@@ 1
壕 1
蒐@@ 1
Hi@@ 0.15335512474966675
凶 1
靂 1
anti@@ 0.03144070067297221
sc@@ 0.027532414401336254
sur 0.008752252008057924
呆 1
Ca@@ 0.13294543583858243
鬱@@ 1
鰻@@ 1
勐@@ 1
壢 1
PR@@ 0.4702112070533903
绑 1
谟 1
謨 1
寰 1
Lev@@ 0.13393926697297553
鲨@@ 1
洙 1
菅@@ 1
ko 0.08117951134883716
潑 1
瞻 1
顽@@ 1
佚 1
谐@@ 1
噪 1
帐 1
潍@@ 1
堇 1
槃 1
猿@@ 1
饋 1
篩@@ 1
鋁@@ 1
Grand 0.05866761283013436
War@@ 0.06525929779985454
sen 0.03472558633122388
Tom@@ 0.08762287125835844
懸 1
Hong 0.166414219127046
ft 0.04271903618608534
橇 1
1789 0.5083086223774508
1832 0.4028309526130796
斋@@ 1
inter@@ 0.01195076574569814
☆ 1
冗@@ 1
夔 1
窩@@ 1
撈 1
lo 0.015588449895689211
冉@@ 1
嫻 1
ors 0.019045278633157782
^ 1
柑@@ 1
ans@@ 0.042152546069345244
兖@@ 1
澜 1
芋 1
River 0.042514683458843065
芥@@ 1
餉 1
砸 1
澈 1
蠕@@ 1
Hal@@ 0.06786336936413256
Ki@@ 0.11076070066013145
刮@@ 1
鲨 1
睦@@ 1
Video 0.2745798794084381
chi@@ 0.052264880465664326
day 0.024289659701860814
孛 1
枫 1
薛 1
劲@@ 1
爐@@ 1
Chil@@ 0.11559928452921908
搏 1
臂@@ 1
ler@@ 0.02731981374889403
敞@@ 1
琮 1
濫 1
贷 1
緬 1
inc@@ 0.019394223043640073
沽 1
僖@@ 1
妃@@ 1
1835 0.38208122459490096
嘯 1
汙@@ 1
蔭 1
鞑@@ 1
Ur@@ 0.04553221009419144
咤 1
羰@@ 1
蒜 1
Star@@ 0.124097510705437
泄 1
ve@@ 0.04470830760263393
祉 1
飄@@ 1
1839 0.38922164587696234
Japan 0.06842595126498614
廖 1
魄 1
rom@@ 0.04168292213521811
Wat@@ 0.10791955305474954
Chr@@ 0.2340235907381438
吵 1
炫@@ 1
芮 1
Ra@@ 0.09833711234257102
sol@@ 0.018970124718709864
艏 1
苞 1
Mur@@ 0.06173352521629767
ille 0.03315622883853125
凝 1
Mul@@ 0.11750637850068606
埤 1
缝@@ 1
咎 1
緝@@ 1
荫 1
Chi@@ 0.08466802964333307
Rem@@ 0.1486752040200238
fe@@ 0.02146924368938406
娛 1
朕 1
骗@@ 1
Super@@ 0.09929065339467634
錐 1
斛 1
cre@@ 0.01962486971975075
俸 1
Radio 0.0939560737337105
嚇@@ 1
笃@@ 1
餅@@ 1
ha@@ 0.050547827588625686
1801 0.4787611461790616
醋 1
amp@@ 0.04113057738676665
Rad@@ 0.1178745368728542
tes 0.015216209644720974
1821 0.40126705264434703
ales 0.010392577604284175
й 0.014434390706764846
堰@@ 1
ez@@ 0.04824068231032666
1795 0.534325387841818
Mak@@ 0.14105330324603715
穴@@ 1
1838 0.3775404839766445
ted 0.008488922255365992
塌@@ 1
寵 1
渝@@ 1
PM 0.5507723607813662
ς 0.19997408675578868
厝@@ 1
綁@@ 1
諮@@ 1
褚@@ 1
cl@@ 0.02351126205835996
瞞 1
穫 1
铵 1
iss@@ 0.044804775463207706
ord@@ 0.02856649307674902
誘 1
Jum@@ 0.6929895966333106
唑 1
孀 1
篠 1
罢 1
鳚 1
Ir@@ 0.0644798610516172
舱@@ 1
ni 0.04822368218313309
GM 0.4191701142879685
テ 1
勻 1
嫉@@ 1
堕@@ 1
1806 0.41076293886899307
GT 0.48819975876181676
ide 0.0437579312161036
ost@@ 0.09289081156007693
勾 1
熵 1
鰈 1
1793 0.43734149477079676
拨 1
枢 1
唔 1
ナ 1
can@@ 0.031270777000935994
灶 1
锥 1
驼 1
Power 0.20192484518094592
mat@@ 0.028578721673285453
Smith 0.08114732796082834
纏@@ 1
腫 1
ona 0.05340033757522225
淇 1
薑 1
1836 0.36970958070655413
ey@@ 0.05528789452442772
Bab@@ 0.1264734262826296
This 0.014664291363492893
ns 0.03513522682295176
凿 1
婴 1
捞 1
虔 1
ke@@ 0.032690820159899145
撼 1
1792 0.49198560949024533
mann 0.04407165169198032
谏 1
km2 0.32692089942180325
uch@@ 0.03675024191951735
沌 1
澱 1
酗@@ 1
闽 1
乂 1
紗 1
侄 1
诬@@ 1
ken 0.021664465116637395
嫔 1
竭@@ 1
Tw@@ 0.19993004161291045
ī 0.4724104845285914
叹 1
炯@@ 1
isa 0.11084740315132183
lis 0.10142672289934451
戛@@ 1
焕 1
Blue 0.1371220695698728
The@@ 0.06718532249611242
蘚 1
刁@@ 1
涯 1
竇@@ 1
ou 0.013229605797427156
over 0.012976963523555611
忙@@ 1
鈔 1
News 0.1490711349004352
erry 0.0932528153185567
All@@ 0.07802522774395647
樁 1
tics 0.032505639533317046
ut 0.047155167160934104
墾@@ 1
暮@@ 1
arg@@ 0.08698279935573398
謬@@ 1
ウ 1
鈍 1
妳 1
や 1
暑 1
薨 1
fl@@ 0.021134043402749655
pu@@ 0.027276336580524783
癮 1
稀 1
豔 1
Nov@@ 0.09105490456714005
ix 0.072836623245606
ブ 1
檳@@ 1
鑰@@ 1
Be 0.35038947537277637
渾@@ 1
昕 1
Kh@@ 0.06721530390377808
瑶 1
蹈@@ 1
bre@@ 0.023444376645556812
筠 1
貶 1
Wh@@ 0.12743584752681056
ι 0.14343780203055287
帧 1
宸 1
酱 1
镁 1
left 0.03562792416310442
縛 1
Tom 0.13050316157957498
煩@@ 1
tical 0.0355622285055124
巔@@ 1
pos@@ 0.01513952775734976
妝 1
幌@@ 1
擠@@ 1
轎@@ 1
Network 0.19281178572298083
ome@@ 0.10581973598205133
tive 0.036001369351935396
傭 1
携 1
炀@@ 1
甬@@ 1
粟 1
the@@ 0.029687404877352
wood 0.06799233553348688
he 0.0035743989746146606
1837 0.35461765413737767
牽 1
Young 0.12128345781646961
斩 1
糞 1
躁 1
League 0.025568789674912617
Sun@@ 0.15540158366648812
go 0.04084788603649247
樸@@ 1
汝 1
cer@@ 0.03028016691463075
擒@@ 1
篤@@ 1
尬 1
win 0.03918878712466133
俩 1
殭 1
Art 0.05221844370261307
face 0.05665656556502397
倭 1
荧@@ 1
Gl@@ 0.0631588901698775
棚@@ 1
喚@@ 1
摸@@ 1
ñ 1
だ 1
愁 1
釀 1
遮 1
Ben@@ 0.059336847815594104
« 0.0032748851440769357
瀉 1
炔 1
谣@@ 1
Book 0.1849294602129119
West 0.0343444539054802
set 0.030573390798539078
朵@@ 1
饑 1
cus 0.13476904119361247
眶 1
粤 1
耍 1
裙@@ 1
楨 1
Pri@@ 0.05610781317955171
ax@@ 0.06701997249316582
掙@@ 1
殆@@ 1
砌@@ 1
脾@@ 1
Cer@@ 0.07348374980744563
ba 0.0651493818411301
倾 1
溧@@ 1
訝 1
贖@@ 1
醣 1
Air@@ 0.12461596837284435
悄@@ 1
螈 1
anus 0.2338614393355775
淋 1
綜 1
die 0.001571019837555584
inn@@ 0.028652986291687697
span 0.3616824236523012
轍 1
State 0.028770479930378616
サ 1
槟 1
1831 0.38287574694743176
Ga@@ 0.19783657881763386
泪 1
嘗 1
牒 1
琥@@ 1
繳 1
雉 1
Elec@@ 0.09053742005129371
Island 0.06591870266901509
Now 0.3012023720150308
Plus 0.2630348772971192
勿@@ 1
圾@@ 1
Cos@@ 0.18517004151473976
誣@@ 1
洼@@ 1
昱 1
谨 1
nam@@ 0.041094716325132945
氹 1
秃@@ 1
葆@@ 1
蟬 1
褒 1
AF 0.2531306063800051
right 0.05207325463574398
Cro@@ 0.05541842889853447
渚 1
绞@@ 1
1824 0.4252827670139679
阡@@ 1
輾@@ 1
Blo@@ 0.11664279916309583
1825 0.40420494220503206
吓 1
Sir 0.0990632796947643
耆@@ 1
邏 1
sub@@ 0.01894603375056521
兌@@ 1
綸 1
靳@@ 1
form 0.023337534940373623
妊@@ 1
Top 0.12041316785563716
ids 0.06843241696064319
仆 1
扫 1
粥 1
驿@@ 1
蜗@@ 1
﹐ 1
胖@@ 1
淇@@ 1
鉛@@ 1
II@@ 0.4110791048735561
sk@@ 0.0291710388836932
嶋 1
蠅 1
sin@@ 0.05039688313327927
彼 1
恥 1
锯@@ 1
駭@@ 1
渥 1
form@@ 0.0223027097344716
tu 0.17751405390333785
颂@@ 1
ez 0.04653089294268685
nm 0.5956987547474055
son@@ 0.03826100514778293
诛@@ 1
掷 1
har@@ 0.03764168039314382
Leg@@ 0.051447937848753886
ful 0.044697409107521124
婺@@ 1
盔@@ 1
壳@@ 1
Ha@@ 0.0814591555189041
Lam@@ 0.13031071025401386
戍 1
榔 1
欖 1
鍾@@ 1
锻@@ 1
挤@@ 1
瞰 1
羚@@ 1
iti@@ 0.03214128960297275
瑋 1
拌 1
謊@@ 1
Institute 0.0669104413984977
of@@ 0.03521088004006345
毗 1
蘆 1
蚁 1
﹑ 1
1833 0.3738548041309791
檸@@ 1
Nav@@ 0.082943347107072
SR 0.18088583746890696
咪@@ 1
敖 1
闹@@ 1
Eu@@ 0.1425479406551445
ω 0.5475783600096109
1790 0.4337909891947936
ature 0.045004906239502325
洽@@ 1
瑄 1
Gro@@ 0.0630558138878494
Home 0.15476794898746563
ム 1
檬@@ 1
韶 1
溢 1
膳 1
脖@@ 1
Production 0.20765277160238413
Bir@@ 0.06668732931338195
FF 0.3445567744038419
ems 0.04503718006952627
聊 1
豹@@ 1
譽@@ 1
谭 1
aya 0.06915410028606432
楓@@ 1
鲸@@ 1
use 0.016233686806245384
唸 1
燦 1
鋪@@ 1
sy@@ 0.05237687193926287
峪@@ 1
Asia 0.12119623048045688
垮@@ 1
1804 0.48558119183536036
1810 0.37759344884844737
エ 1
泼@@ 1
Bank 0.0998006782376242
プ 1
肤@@ 1
骏 1
Society 0.06452964107371521
ube 0.34148015061697684
叻 1
栈 1
ts@@ 0.025726631068935243
惜@@ 1
廬@@ 1
讳 1
盼 1
荡@@ 1
驛 1
loc@@ 0.025391153190631555
top 0.039379200203114396
乎@@ 1
杏 1
硼 1
雳 1
膳@@ 1
饿 1
anth@@ 0.09625008285160072
碟@@ 1
亏@@ 1
芸@@ 1
mer 0.028202497064217194
媚 1
Jack 0.11323128939001735
攸@@ 1
慷@@ 1
轿@@ 1
Sel@@ 0.09381646888974536
och@@ 0.09292775155079117
畑@@ 1
ota 0.07817064462426103
ua 0.07038810238106337
仑@@ 1
庞 1
汾 1
庐 1
摇 1
鋰 1
龕 1
萃@@ 1
蟾@@ 1
DR 0.4029482072561442
Dream 0.417220938519572
寡 1
残 1
窯 1
隋 1
摆 1
垣@@ 1
縫@@ 1
which 0.004309918002468865
act 0.038061956855797836
ira 0.08460411549904102
伎 1
桩 1
煥@@ 1
砷 1
诈@@ 1
Av@@ 0.0742435885586944
ole 0.03456864758638793
悍 1
赎@@ 1
羈@@ 1
瀛@@ 1
陂 1
謎@@ 1
爽@@ 1
ə 1
蛮@@ 1
飽@@ 1
ze@@ 0.037214381855689566
拐@@ 1
偕@@ 1
1799 0.5232268193628183
des@@ 0.011331899285870368
チ 1
昵@@ 1
诵 1
Ly@@ 0.10864674426486123
Far@@ 0.05570352824248905
Research 0.09752203380083459
冢 1
ie@@ 0.02839438321762385
tus 0.19884372104354672
撾 1
璜 1
aceae 0.0927591656630612
ins@@ 0.02584100466967795
妒 1
Rock 0.10152209760402597
惕 1
鉅 1
Ban@@ 0.07058744069922082
琦@@ 1
踪@@ 1
cur@@ 0.025695483674130125
嬌 1
醇@@ 1
San@@ 0.0651425470164914
ze 0.02971973998389512
刹@@ 1
簇 1
bert 0.06172960898414574
can 0.014339423213720679
་ 1
韌@@ 1
lin 0.09118737457193124
ray 0.14035645060669966
暱@@ 1
獄@@ 1
篆@@ 1
韃@@ 1
Bul@@ 0.06963079360623887
https 0.6849360121693993
殴@@ 1
Good 0.24891868096128783
Junior 0.1683291669092357
よ 1
1809 0.43090059883936505
more 0.011467786796634794
聆@@ 1
elec@@ 0.036301745781743104
グ 1
ng@@ 0.04528155944209532
弯 1
ty@@ 0.07476262488632848
鮨 1
赂 1
very 0.025748175830788558
垫 1
筋@@ 1
ila 0.07647229778568745
war@@ 0.03052696067389942
柵@@ 1
Open 0.09087498662911411
che 0.017507789563622908
eph@@ 0.14371750234998756
衷@@ 1
遥 1
Tour 0.06458574870115324
bar@@ 0.019527099309100977
佥@@ 1
呀 1
舵@@ 1
栅@@ 1
Sports 0.13795950599640494
雌 1
agon 0.14862489691512074
1834 0.3385882907893664
绅 1
涪@@ 1
瀾 1
ニ 1
丕@@ 1
1822 0.419519231775657
Award 0.051490396637606996
Magazine 0.21174360921501656
we 0.046124167500495236
閏 1
Billboard 0.1255239113046034
First 0.05899820692270765
轶@@ 1
Church 0.04777488545042615
Mont@@ 0.05577231098669875
White 0.07097827754549375
蟬@@ 1
Moz@@ 0.41955874349297856
傻@@ 1
襪@@ 1
攤 1
1813 0.3597031727863517
eme 0.05244490797833538
嫡 1
淞 1
po 0.08787506057758009
踩 1
iki 0.10935459513577916
tur@@ 0.018318178883090192
ten 0.005515499324594977
皿 1
Night 0.16357762587090646
» 0.0029183816501912267
岱@@ 1
Ter@@ 0.07346344369680298
trans@@ 0.01759995134884765
苛@@ 1
慘 1
歪@@ 1
Kir@@ 0.08363933174935576
bor@@ 0.025171569858766025
け 1
苞@@ 1
Fri@@ 0.09784330660743958
廁 1
槐 1
1828 0.36777919496968753
デ 1
ャ 1
訟@@ 1
辟@@ 1
Service 0.08927934413570086
蕙 1
蠢 1
嵐 1
葡 1
鷲 1
Christ@@ 0.05933532368887894
oto 0.06360865001753786
梧 1
鹦@@ 1
1826 0.3857209820844954
蘊@@ 1
詭@@ 1
Do 0.21297887472378554
掣 1
暇 1
葱 1
鉉 1
Mary 0.07133454375683913
埤@@ 1
攏 1
Channel 0.18746343299717716
Sar@@ 0.06678741599348266
scope 0.3466186740439962
ture 0.02193341470883435
瀚 1
褶@@ 1
Louis 0.04870579988047615
ato 0.039890402086727665
絨 1
ce@@ 0.028391612061708264
rec@@ 0.011225909299355361
坳 1
窃@@ 1
Pin@@ 0.1129430402482536
Green 0.09717869447798112
贛@@ 1
ela 0.059051716032515314
晃@@ 1
湳 1
璟 1
For 0.034364852157846966
翎 1
跪 1
骄@@ 1
氓 1
酮@@ 1
俸@@ 1
剃@@ 1
荫@@ 1
肿 1
1819 0.4238282089066736
IB@@ 0.5022470920173525
Lab@@ 0.07273816276940615
Your 0.23498960068920718
ache 0.07146767281610517
芜 1
钮 1
麴 1
懋 1
芦 1
ness 0.046682944086565176
岷@@ 1
澜@@ 1
玺 1
璞 1
邺 1
隴@@ 1
鉀 1
East 0.04286986958037624
ign@@ 0.023408851310601997
兜 1
匝@@ 1
遗 1
バ 1
奄@@ 1
榆 1
瘦 1
冤 1
擂@@ 1
晏 1
1807 0.42469820455964713
兗@@ 1
嗜 1
鄱@@ 1
鷗 1
擄 1
枕 1
滞 1
1805 0.43706826982788194
Sub@@ 0.07328070366883817
Ⅱ 1
丫@@ 1
艳 1
莹 1
诠@@ 1
1794 0.4392726082808552
Cat@@ 0.0733449843768804
楞 1
Spe@@ 0.06820775586707303
pro@@ 0.015102978860571502
吼 1
宠 1
gl@@ 0.032568712938761374
倩 1
Maria 0.0740261342053498
Ran@@ 0.12187018768385054
滩@@ 1
稟 1
钉 1
De 0.027592143231271328
Point 0.16069905219816585
Ta@@ 0.10875500433149773
僚@@ 1
桢 1
謊 1
Act 0.07016366484106763
Arts 0.0711896446916484
Dec@@ 0.08131829436640602
Line 0.10216508747832823
oa 0.10563918242464208
貧 1
Is 0.16899529389034643
Corporation 0.12241859765042645
Sun 0.14292885731891897
bus 0.07892014075033878
哇@@ 1
public 0.025972637995213165
吠@@ 1
噬@@ 1
玟 1
Science 0.09351999221607558
Tro@@ 0.05106627609776695
竊@@ 1
贖 1
償@@ 1
绸@@ 1
1808 0.3892323739003607
Beau@@ 0.12070933793392719
ett 0.05665289817167552
椒@@ 1
VII 0.21146742778871852
ili 0.11700677533656455
sti@@ 0.028411483407607914
曳 1
view 0.03420112006451538
1791 0.48760702054499827
挾@@ 1
闹 1
ail 0.0610137535845408
eter@@ 0.05684168026917493
ust 0.06405142062189231
я 0.01187235292383386
煞 1
邮 1
ae@@ 0.09559979647007788
icus 0.27797753562244765
灼@@ 1
秒@@ 1
翊@@ 1
靶 1
Dor@@ 0.06525654882054065
銓 1
1829 0.35852652177181465
star 0.10154737714314253
蛺@@ 1
蝸@@ 1
衬@@ 1
谓@@ 1
Cin@@ 0.137269727575571
媛@@ 1
忻@@ 1
撓 1
VI 0.15288056274820352
ington 0.05281892226087991
璇 1
瘋 1
拇@@ 1
hi 0.06932815601895935
昔 1
General 0.03290849736787731
have 0.0073103836561506565
ling 0.03679781424927609
self 0.06244276610708814
š 0.3280037714464814
Az@@ 0.10586664033359122
rel@@ 0.016934381205740177
une 0.0033315013507677184
│ 0.1314501208778328
倩@@ 1
愧 1
擅 1
椿 1
Ko@@ 0.05282154148039649
ops 0.04955918321212824
锈@@ 1
昼@@ 1
蔥 1
Sen@@ 0.032670392390325945
訶@@ 1
钞 1
ega 0.0782156630122321
孢 1
Mot@@ 0.07117602875014882
妲 1
飪 1
Edward 0.08689807715553406
fer@@ 0.016566510891980583
斂 1
斧@@ 1
査 1
螂 1
down 0.03142289158885045
uz@@ 0.0470505883455565
毓 1
side 0.018863329376584907
俭 1
僻 1
喊@@ 1
悅@@ 1
楞@@ 1
洩 1
矯@@ 1
詐@@ 1
1823 0.4036503612074011
κ 0.2624329616129912
赢 1
鼩 1
El 0.007499763937997619
ュ 1
Spr@@ 0.049518783783596886
Station 0.09268095715255098
睞 1
肇 1
Sin@@ 0.07897342226181372
黛 1
Cir@@ 0.10309144567020741
叭 1
Pres@@ 0.057246245865254945
don 0.07038703547254493
姨@@ 1
迭 1
1818 0.3594472587155284
湧 1
芥 1
Eur@@ 0.11921165980862207
迺@@ 1
雏@@ 1
况@@ 1
叮@@ 1
妆 1
襯@@ 1
鳅 1
Not@@ 0.0590270255431652
敞 1
Syst@@ 0.11640783516085197
ima 0.06307361145044707
ny 0.11837552320444701
癱@@ 1
Battle 0.09342757407225491
tar@@ 0.02764474959575328
鄺@@ 1
饷 1
г 0.01636887836969347
绣@@ 1
鸞 1
Oc@@ 0.06236054054332566
1803 0.36143013240068844
len@@ 0.036462481172859065
匆@@ 1
焘 1
ali 0.06599652249837974
弥 1
Chinese 0.06847565597952453
儉 1
喃 1
ies 0.01677451118464453
ple 0.09607621917108258
ster@@ 0.04009711636912199
ィ 1
禍@@ 1
诈 1
ating 0.013649613098168766
攀 1
趋 1
彥@@ 1
洮@@ 1
1802 0.4061613283913903
Ba@@ 0.10034697310009437
厢@@ 1
昶 1
纂@@ 1
鏢 1
stein 0.04293124448927851
龛 1
1816 0.35992654804259056
aph@@ 0.17422021835772544
oni 0.10268205332578
佟@@ 1
涿@@ 1
Dem@@ 0.060423401997221744
yon@@ 0.10426468881096257
臼@@ 1
麒 1
amm@@ 0.03422152744739702
ms 0.0539389696913086
val@@ 0.02625577283055603
灑 1
熄@@ 1
mp@@ 0.05329593195956595
work 0.01614385392956296
鵰 1
鑄 1
Party 0.04286616970850071
los@@ 0.04780342634513846
パ 1
硕 1
Hill 0.07598051424437716
ن 0.1555303079524303
碁 1
table 0.09361813728080574
Cu@@ 0.07598397232244065
歙@@ 1
ste@@ 0.025058138293838676
ê 0.2450603356143371
伶 1
煎 1
蝽 1
other 0.008998447036201514
嘱 1
墜 1
樟 1
Juli@@ 0.068790069080965
Rel@@ 0.052579056548503915
廚 1
颍@@ 1
Liv@@ 0.11629283201427888
彌 1
艋 1
旌@@ 1
沅@@ 1
瘓 1
tom@@ 0.0289119165349614
蕃@@ 1
1798 0.41754583601974066
Bet@@ 0.06548257948859318
Comm@@ 0.08568967986043587
oides 0.2943045376396667
虧 1
cast 0.0485980353045533
僉 1
檗 1
ius 0.1315432328257785
ر 0.1224474669191524
舺 1
黴@@ 1
air 0.0333849543681738
崧 1
碰 1
胥 1
ope 0.06483099778480117
tan@@ 0.03288937749195206
蓼 1
As 0.019209035311743356
Ig@@ 0.13164836920410414
ハ 1
杠 1
long@@ 0.06741315442950038
struc@@ 0.04699825020657946
卿@@ 1
堯@@ 1
脅@@ 1
葺 1
Meg@@ 0.17938115142107083
ji 0.07605698512959402
え 1
寝 1
秩 1
骁@@ 1
ange 0.056792891194059225
撿 1
歴 1
Han@@ 0.07230072663490071
Shi@@ 0.10388604721774584
ides 0.03622860139195726
纱@@ 1
骷@@ 1
eus 0.212302153134549
沾@@ 1
ond@@ 0.03901222012223942
わ 1
誡 1
鎂 1
Syn@@ 0.0901213039024413
締 1
鹏@@ 1
let 0.07331368519715287
咐 1
囑 1
鏽 1
fa@@ 0.024245423379660038
una 0.0042446932071377634
賂 1
web 0.15335334434015455
峨 1
蝦@@ 1
Mike 0.12669287048566746
桅@@ 1
殯@@ 1
Royal 0.04111148265156999
ther@@ 0.03467408383393738
绩@@ 1
缠@@ 1
has 0.004901886863975744
頰 1
辱@@ 1
--@@ 1
С 0.021494522843838914
CF 0.3124278130968238
LP 0.22216373757574148
ku@@ 0.055364317834470766
onn@@ 0.024820248348783394
tim@@ 0.019110924782500312
屎 1
黯@@ 1
Little 0.11349834355733938
扼@@ 1
潟@@ 1
蓟@@ 1
1817 0.37563985695265545
199@@ 0.08733693104211185
Lang@@ 0.06832814186539289
Ol@@ 0.06106675505371369
eng 0.1274566850859343
wa 0.04095107537000062
煎@@ 1
Plan@@ 0.07936611528646492
var 0.19516791174645795
伶@@ 1
僉@@ 1
剔@@ 1
Hon@@ 0.048634509739839
ß 0.039458313770679446
钻 1
her@@ 0.012527292871225395
螨 1
Digital 0.2621199024729663
mor@@ 0.023572213753381064
were 0.003317758014890244
赁 1
zi@@ 0.02927625523561139
icul@@ 0.09848897607516167
sur@@ 0.01443818581095801
倘@@ 1
膚@@ 1
艳@@ 1
Il@@ 0.0810110672394692
η 0.023134392674998838
Alexander 0.07751168759731314
Dy@@ 0.1640549057110016
first 0.005020111458549761
琉 1
薯@@ 1
Awards 0.06134005025664025
● 1
檎 1
诰 1
Scott 0.10224846222684705
Tar@@ 0.07642614341250342
rit@@ 0.03646928193990222
匠@@ 1
rive 0.1700498877736105
沥@@ 1
籽 1
践@@ 1
辗@@ 1
垦@@ 1
壤@@ 1
钩@@ 1
驸@@ 1
Coun@@ 0.12408035630414845
Daniel 0.08842009214852746
捆@@ 1
滁@@ 1
cal 0.091380261532877
Mu@@ 0.06538124519566263
our@@ 0.03712165265346847
沽@@ 1
笈 1
Fac@@ 0.08479665782080079
fer 0.035513396255340696
逍@@ 1
醮 1
鬧@@ 1
gre@@ 0.02051450140461112
缚 1
瀝@@ 1
缴 1
Of 0.12085615373326383
ays 0.05421765901702037
凋@@ 1
world 0.029923889805627088
錘 1
髒 1
Vel@@ 0.1359101641326072
ese 0.022186354568042424
ties 0.018869034223903704
墘 1
櫛@@ 1
wan@@ 0.06597249888471995
art@@ 0.039684139562427126
cher 0.027511398324766397
low@@ 0.03749856768636307
唤@@ 1
謬 1
Dou@@ 0.10831401233476294
瑤@@ 1
Ever@@ 0.14463025971560065
sel@@ 0.023329082403902798
驰@@ 1
ado@@ 0.13038146963213548
ven@@ 0.022455046136346985
ガ 1
垫@@ 1
Great 0.06450709928002463
Loc@@ 0.06159603931633661
urus 0.5110584709467363
莘@@ 1
Rap@@ 0.11943374297135452
Sou@@ 0.09014735212158657
oud 0.13913702207605513
Kin@@ 0.06666196356181538
Rom@@ 0.03812406206074079
宵@@ 1
醯 1
钴 1
Os@@ 0.05383664416873053
潢 1
艙@@ 1
貌@@ 1
cal@@ 0.036261310278905154
lum 0.1525320852074081
咏@@ 1
遁 1
acy 0.047753912177766734
锤 1
dition 0.05852070370226723
Ham@@ 0.06810950735204996
ality 0.0323692210144128
opsis 0.1491201537288658
窒@@ 1
窖 1
Mari@@ 0.050283155362519115
掖 1
兀 1
徘@@ 1
梵 1
榄 1
緒@@ 1
腕@@ 1
刪 1
get 0.037965871790925615
con 0.004111094373460782
堺 1
晦 1
槐@@ 1
皂@@ 1
yle 0.07927804048391505
ひ 1
洼 1
Tim@@ 0.10518266192235426
湊@@ 1
舷@@ 1
孺 1
綾@@ 1
蚕@@ 1
メ 1
拂@@ 1
ond 0.04735407062676003
tory 0.08725842397294557
tem@@ 0.05511977262831678
憎@@ 1
Conn@@ 0.1168058206523346
Technology 0.1456303027678499
焕@@ 1
苳 1
莺 1
Master 0.13304081581989954
п 0.05189076049079705
ダ 1
佗 1
oll@@ 0.031923895734297526
咳@@ 1
騷 1
Aut@@ 0.04464466476185088
奘 1
滯@@ 1
胥@@ 1
Jr 0.152763376855931
ip@@ 0.09681840026222564
攜 1
蘑@@ 1
lia 0.1157630787363026
孺@@ 1
win@@ 0.03241768467637898
his 0.002344182334937961
婢 1
Kn@@ 0.0669830263104405
zo 0.07598203740621298
彬@@ 1
柩 1
賭 1
鹃@@ 1
off 0.020349929039175343
佃@@ 1
肘 1
膀@@ 1
姨 1
阙 1
ats 0.018155669433019075
atum 0.22566799086788414
Saf@@ 0.17850713700232665
砸@@ 1
err@@ 0.03776426428378846
彝 1
魮 1
Frank 0.08610205880130406
Software 0.3023327424493256
侈 1
勵@@ 1
拙 1
Hot 0.13330178234267487
Mol@@ 0.06606938595141011
She@@ 0.0857124572099731
function 0.11989108243300967
歳 1
涧 1
誥 1
Brown 0.08255142675996442
len 0.025651895952594973
釉 1
鬣@@ 1
鹘 1
eth 0.07605600928882138
yst@@ 0.07725858828962374
烽@@ 1
皓@@ 1
裴 1
But@@ 0.10099184351195868
瘫@@ 1
Union 0.033143658016883216
ati 0.07425311521350193
鞍 1
餵 1
res 0.028436771392081117
坟 1
湍@@ 1
180@@ 0.8886870863563526
Bon@@ 0.06777574787851427
lat@@ 0.026150266681085714
let@@ 0.022197081301933225
螯 1
″ 1
妆@@ 1
Lake 0.05704630557760435
tre@@ 0.02234892593506736
yn 0.09146473153501603
嚮 1
曬 1
Sor@@ 0.10730944474877006
Global 0.19922303808745964
War 0.02188405441804445
ef@@ 0.01906977990542557
悦@@ 1
腭 1
ern@@ 0.025630296511920524
谎@@ 1
刹 1
蝇 1
Mah@@ 0.05570460249277501
core 0.1192146469748538
抬 1
歉@@ 1
栃 1
膛@@ 1
荼 1
煜 1
睾@@ 1
闰 1
1827 0.34803003750174605
沱@@ 1
Ev@@ 0.0660537424090346
Techn@@ 0.09790700356038975
蠻@@ 1
system 0.02404371717873532
栓@@ 1
徊 1
灶@@ 1
贬 1
ko@@ 0.04130445146532756
滦@@ 1
Ple@@ 0.21531873334014956
堃 1
弼@@ 1
簷 1
账 1
act@@ 0.05666242429542922
sen@@ 0.023564398114556715
蔔 1
Chris 0.11876919957381357
inus 0.22307483855173874
θ 0.7633567851088432
筱@@ 1
谜 1
Pat@@ 0.07575909809011551
焰@@ 1
He 0.0037519970881659103
Mic@@ 0.1932045732156117
thi@@ 0.0632149527301383
Model 0.25808779899776396
嗓@@ 1
骚 1
Bay 0.06550302102822912
忱 1
桅 1
绸 1
謗 1
ito 0.04167735927057303
mel@@ 0.04899397499105345
mu@@ 0.03295348137493891
冼@@ 1
娩 1
癖 1
喇 1
鑰 1
Cup 0.028972302261488822
Dar@@ 0.035886045841317174
檯 1
蔗@@ 1
Ku@@ 0.09920912856837029
orer 0.2792659544764483
Joe 0.10288379344309896
York 0.015270102733443277
ي 0.0555646175029506
槌 1
Anim@@ 0.24092572478923832
Journal 0.1193825695736118
Series 0.08223271867258806
璐 1
繕 1
erg@@ 0.040980793088190214
isi@@ 0.022922138881816156
甯 1
痪 1
Sand@@ 0.07004353046540984
崴 1
挠 1
疣 1
Santa 0.052016777069671914
Sn@@ 0.2859111004427629
Special 0.14177476189013544
hor@@ 0.0334370423137398
red 0.013739787381362778
瀧@@ 1
Pen@@ 0.06438077251734577
alus 0.4369113182961693
抢 1
Camp@@ 0.05980981622300038
Pa@@ 0.0689511630486991
凳 1
馴@@ 1
air@@ 0.027332232008795115
ital 0.06345957238381661
ë 0.3854111946125682
ō 0.0755322462891234
婁@@ 1
趾@@ 1
م 0.08214418403452538
膏@@ 1
鲷 1
iy@@ 0.06403388357055383
筲@@ 1
lem@@ 0.04045285104494214
ビ 1
钝 1
闖 1
Andrew 0.1207294111406373
め 1
琅@@ 1
顛 1
驯@@ 1
atr@@ 0.037770106153352176
ь 0.01943673629443512
佘@@ 1
惇 1
郴@@ 1
蔽@@ 1
蟹@@ 1
霉 1
1811 0.3498466591556018
Laur@@ 0.08207641370209469
Out@@ 0.12509523931304709
Square 0.17170987510342212
ik 0.03675483332473865
纶 1
蜱 1
Lady 0.1215949687744244
Mem@@ 0.09008522885239903
廓@@ 1
轎 1
鈔@@ 1
Amaz@@ 0.190117414453614
but 0.0054637536914805334
攔 1
笃 1
臼 1
韬 1
屠 1
炉@@ 1
Ci@@ 0.08437255033954681
tia 0.1113897461831535
垮 1
釜 1
Lis@@ 0.14521349905078526
Vie@@ 0.15419904592171094
櫚@@ 1
糸 1
镶 1
Free 0.1645045858867496
燭 1
衮 1
Stu@@ 0.07222266923520519
inae 0.20223713956496514
寞 1
揽 1
杞 1
inger 0.04960435290537797
Express 0.18911498937095528
SK 0.37296276340046214
胄 1
讽 1
Mess@@ 0.16331730618502752
铉 1
ular 0.03503819671541617
髻 1
eri@@ 0.059799497237084866
tho@@ 0.03833188077802545
tro 0.07165689657236972
僭 1
忒@@ 1
Les 0.010426809833435084
aris 0.36074351889227496
fol@@ 0.038196925520420234
pot 0.1838361230170855
su 0.004491828178017053
賄 1
踝 1
An 0.033983155048227666
喆 1
嬉@@ 1
磋@@ 1
φ 0.47102969124558947
薰@@ 1
鸠 1
Space 0.1639092383889147
Town 0.08518969239111726
tal@@ 0.03083595338087677
try 0.03571773687136684
樽 1
莪 1
Down 0.1948924303536657
粲 1
艇@@ 1
Press 0.1346577821252595
鞠@@ 1
鵬@@ 1
沾 1
Christian 0.04733698585245687
ision 0.07770975320913057
羣 1
鈎 1
钛 1
Cel@@ 0.07744371370888578
Museum 0.04730088895203086
yg@@ 0.13421736679414367
198@@ 0.22995681029818865
Lov@@ 0.19641107509038108
捏@@ 1
犀 1
膦 1
Gil@@ 0.07747630889168683
Ram@@ 0.05267100486992818
Tou@@ 0.11391012520701337
杞@@ 1
柠@@ 1
綢 1
賺@@ 1
郸@@ 1
鎚 1
饪 1
WW@@ 0.29894011190032216
pin@@ 0.06182604496016347
― 0.6977776981614385
ょ 1
纱 1
铬 1
瘾 1
瑰@@ 1
Rob@@ 0.10923575427523412
Shar@@ 0.10390440646551818
az 0.0438074300502967
榴 1
Bill 0.089991446871284
咏 1
NCAA 0.14737563549010885
窄@@ 1
驹 1
Code 0.21182254522055405
Obj@@ 0.15152783123206243
cha 0.048257286500673034
泵@@ 1
綺@@ 1
Don@@ 0.06759502831513588
FIFA 0.18274886188360456
Micro@@ 0.3000493663688375
What 0.16648252458962598
edi@@ 0.03174940740486982
ろ 1
殲 1
泼 1
艉 1
鋅 1
钥@@ 1
1797 0.3935108484386713
kin 0.08324547414518403
sky 0.07076579703772054
吒 1
嗅@@ 1
痴@@ 1
羁@@ 1
謁 1
鈦 1
Council 0.037945780969588824
ado 0.004428962346375625
aw 0.11174988064605584
竄 1
Dol@@ 0.09851622827573249
vel@@ 0.03620959333285144
祸@@ 1
DV@@ 0.4159642572406227
珉 1
耻 1
肄@@ 1
＋ 1
Gh@@ 0.126788807365338
aster 0.1216837179872186
鎧@@ 1
bo 0.09569789879484702
缔 1
圩 1
妤 1
鱇 1
Lor@@ 0.05211675155835256
ater 0.03960046207628583
lie 0.05493934027900546
nch@@ 0.07930976598646071
卅@@ 1
糟 1
ck 0.04643377758720332
么@@ 1
驿 1
Stor@@ 0.13707785758366062
back 0.01879341002735845
糕@@ 1
bas@@ 0.01710256773951783
mas@@ 0.02106820346926882
闕 1
鴿 1
Dev@@ 0.07446608877039877
Mos@@ 0.06170994436968786
Roc@@ 0.08901055294559766
case 0.04178963576615726
莽@@ 1
Mov@@ 0.10577395587268357
蔑 1
釉@@ 1
May@@ 0.08921359942076248
eti@@ 0.030055432370962462
禱@@ 1
跪@@ 1
闇 1
Heart 0.21215745858657026
acc@@ 0.015178371798213035
荥@@ 1
疵 1
鮭 1
浊 1
艷 1
kin@@ 0.05263916226916076
ying 0.021460898835385808
data 0.06465018018171136
ental 0.024111745967496892
two 0.005866661888273078
弩 1
耿 1
麽 1
istr@@ 0.061299795171042
蟒 1
dium 0.14246949445622076
翹 1
稠 1
絞@@ 1
鮟 1
non 0.020904764388017437
捧@@ 1
氾 1
渦 1
翊 1
asi@@ 0.04031232624972352
opter@@ 0.38578857950207224
ri 0.09523938772037419
峻@@ 1
London 0.024730656955689205
愷 1
ski 0.04956079095119783
宕 1
挡@@ 1
pop 0.09220222995798556
奬 1
聆 1
hr@@ 0.04944145657029747
ul 0.07348052364558035
匣@@ 1
б 0.04558512287168845
馏 1
Summer 0.07055554375162372
ely 0.01446822599980742
esis 0.08814265213785283
嫂 1
尝 1
柚@@ 1
邵 1
Bat@@ 0.05239776460667707
not@@ 0.017362595432350733
倪 1
兮 1
Ash@@ 0.08925205362695213
Kon@@ 0.02083496035405402
ga 0.04484525139443672
reg@@ 0.01273804579538703
羞 1
逕 1
ais 0.024673664461149523
ret 0.06830902595395127
噴 1
诱 1
琨 1
蝎@@ 1
ald 0.07662004081139148
yan@@ 0.09290108585815265
锰 1
Coll@@ 0.126046845877853
Plat@@ 0.057179831741772214
Sof@@ 0.14778113062940298
dic@@ 0.023222515270236516
ean 0.040230396313275435
拢 1
廬 1
矚@@ 1
Run@@ 0.1950844276851502
gen 0.017320994644463128
⋯ 1
履 1
onia 0.05338739919111059
佤@@ 1
呤 1
夾 1
扭 1
畠 1
裤 1
誹@@ 1
America 0.037912310410619786
tion@@ 0.030943542666236768
Centre 0.06771552304657051
under@@ 0.01957939381423675
厕@@ 1
拐 1
檬 1
Fal@@ 0.08333952287960536
剎@@ 1
＂ 1
ox@@ 0.052160773457086286
ces 0.017363079708303548
唾@@ 1
诫 1
谅 1
Produc@@ 0.11051197525336702
ズ 1
碇 1
荆 1
贩 1
驟@@ 1
Black@@ 0.12322648044175334
Festival 0.04428202086010506
Nic@@ 0.09727344930704089
ule 0.061697306377748916
塚@@ 1
腈 1
Steve 0.11326253872572442
摔 1
撇@@ 1
穹 1
膩 1
Enter@@ 0.23798681332486663
wn 0.026600899419369956
楣 1
镀@@ 1
顱@@ 1
chin@@ 0.07392230803509656
enc@@ 0.0225966203470879
ы 0.008860383253512067
峪 1
缉@@ 1
蕉@@ 1
1st 0.057020730885060475
Eric 0.15458334797280773
Soc@@ 0.3000935098605412
Mach@@ 0.09816212649899696
Two 0.06199596049073653
灘@@ 1
脇 1
tra@@ 0.028163752416848004
鷺 1
Cle@@ 0.08517645090807809
cop@@ 0.03211546831786518
sh 0.1441761778154996
檐@@ 1
泪@@ 1
臥 1
麼@@ 1
Sem@@ 0.06806629913491496
吵@@ 1
茛@@ 1
蘊 1
璘 1
ext 0.28127249744436855
丐 1
颅@@ 1
action 0.023255289978284653
don@@ 0.038426145437450196
ger@@ 0.013371509776950445
槭 1
幽 1
曜@@ 1
蕈 1
鋸 1
閑 1
Chap@@ 0.08291955649351469
Pur@@ 0.1039005926884074
Tan@@ 0.08363691477609259
恺 1
鐮@@ 1
钓 1
main 0.019835727807411156
蔑@@ 1
媳@@ 1
FL 0.1322069563274998
Pap@@ 0.060939528959230806
sw@@ 0.030336136401767355
緋@@ 1
婉 1
醬@@ 1
Sav@@ 0.06787536181307215
Studios 0.1486726477396578
蚜 1
髓@@ 1
Central 0.038677694991253384
ree 0.10037963468647744
汛 1
鮭@@ 1
less 0.029481819941524524
佬@@ 1
Management 0.13505516616184204
³ 0.2728326800601366
谜@@ 1
Acc@@ 0.15783936804666446
瀕 1
競 1
uy@@ 0.05087786965952837
厌 1
暈 1
aft 0.034692673695286606
ч 0.054961974805416085
Rho@@ 0.1327316275581208
ø 0.6596210136385874
贻@@ 1
GC 0.32633397220273663
Place 0.18815084837321247
Tow@@ 0.118703347857636
ser 0.01990621128403009
モ 1
揭 1
褲@@ 1
Dance 0.18522915674670865
SG 0.2609814679612492
А 0.03171799053273661
瑕@@ 1
竺@@ 1
诽@@ 1
men 0.012187924110781173
狡@@ 1
涨@@ 1
玖 1
褐 1
迥@@ 1
Comput@@ 0.1931801807062469
ci 0.038320213650480946
ham 0.05442555596503058
nh@@ 0.025479950872074962
syn@@ 0.04272093355086715
巒 1
愤 1
暮 1
漱@@ 1
猝@@ 1
Form@@ 0.0751803845882492
Pierre 0.05208098690938022
fil@@ 0.024834636040613742
滥 1
瞳@@ 1
荊 1
镰@@ 1
Kan@@ 0.05064011627181922
Progr@@ 0.08579217784982444
cin@@ 0.035372084926093686
plic@@ 0.06606367111782144
ē 1
帅@@ 1
搜 1
赚@@ 1
USS 0.22727026884585397
elli 0.08307815983220473
晷 1
宦 1
蔓 1
inal 0.03567308859597786
凑 1
喘 1
櫸 1
Design 0.1360971248017048
峭@@ 1
邂@@ 1
鹉 1
Mid@@ 0.06672066738951687
梢 1
藜 1
Spir@@ 0.15492821686204064
vis@@ 0.013455372055803001
焉@@ 1
绛 1
Sky 0.23037223826028183
Sym@@ 0.12388077993622121
vol@@ 0.01882878490835565
蔻 1
Arch@@ 0.05118404080677826
Bos@@ 0.06648269991315878
ights 0.05531641796715676
刮 1
昊@@ 1
］ 1
ader 0.08686920196745274
扔@@ 1
祷@@ 1
酱@@ 1
肾 1
逅 1
颁 1
ket@@ 0.06712542928822639
扈@@ 1
鞅 1
Men@@ 0.056998363918307655
bar 0.032190217720380436
鹛 1
Kal@@ 0.05279345860167641
哩@@ 1
胱 1
＝ 1
Fantas@@ 0.2211370105817859
arm@@ 0.02033496761771551
懲 1
邕 1
pan@@ 0.030919874202091188
咕@@ 1
咽 1
Poly@@ 0.15578956591670232
惰@@ 1
［ 1
Football 0.047197488966654856
П 0.07986137008650859
婪 1
碲 1
鈕@@ 1
麝@@ 1
潼 1
Ben 0.11238671057814856
Yah@@ 0.4467208133277017
ū 0.20588024571894695
踞 1
銃 1
鳃 1
Med@@ 0.041213302004050004
豌@@ 1
頤 1
叟 1
碾@@ 1
輿 1
嘧@@ 1
Om@@ 0.1592489108564202
و 0.04882361775227558
Kit@@ 0.12260578509939585
壠 1
笋 1
羹 1
萍@@ 1
pol@@ 0.028430220231864135
sal@@ 0.02278745604383802
罄 1
esa 0.038949206648566506
Δ 0.6412853587772362
せ 1
曇 1
Bob 0.10472049065413527
Clar@@ 0.08420970523043539
aka 0.07068196237674557
ault 0.058497152791377884
bal@@ 0.032388870587912046
bir@@ 0.029137559327645782
ume 0.051175673592511774
懈 1
纤 1
蓉@@ 1
Jer@@ 0.06228424105964399
Si 0.09186786900373489
Van 0.0828912363254663
蝗@@ 1
Math@@ 0.09454115053859963
active 0.04379557910870118
ide@@ 0.047341054685165466
溜 1
煦 1
贮@@ 1
Rol@@ 0.06822625073938238
夸 1
柿@@ 1
蜆 1
谤 1
aux 0.006071462393634683
ough 0.02933820821613959
貪 1
Pop 0.21901736582775763
aki 0.07684202204095612
anga 0.12789362733051543
ines 0.017485273721729193
into 0.006880407359296296
巅@@ 1
泾 1
Vic@@ 0.05978796320980839
bian 0.1409175102461625
ves 0.015305535039691174
瘤@@ 1
韧@@ 1
Out 0.14715664583345153
cat@@ 0.027408569641578815
戳 1
炫 1
炯 1
疟@@ 1
瞒 1
诅@@ 1
鼐 1
Song 0.09103280415225544
錨 1
Ful@@ 0.09783633832925244
ye@@ 0.04288960583954815
勖 1
卦@@ 1
挣@@ 1
Su 0.037231592275920454
ther 0.02950614825238025
斡 1
渾 1
ider 0.044865300092714555
脷 1
菸@@ 1
隍@@ 1
Ak@@ 0.036747962320553794
ele 0.039493624392613114
had 0.0035078478565277495
lam@@ 0.025948542971184006
xi@@ 0.1214757204695202
睐 1
Che@@ 0.16446752630404257
rey 0.046998620303796694
瓚 1
絃 1
蚓 1
诃 1
Bit@@ 0.22471681035504293
alm@@ 0.04668685922079771
嗽 1
蚌 1
Light 0.15028926203428022
Marie 0.05654038007897739
uf@@ 0.028635943593764826
Prim@@ 0.07846056790388489
Sund@@ 0.09541071828308499
弁 1
枣 1
諦 1
遐@@ 1
District 0.02525838483419005
att@@ 0.014436602398289878
衢 1
鄴 1
鎬 1
endr@@ 0.16979271637637944
ih@@ 0.034838033039193
缉 1
襟 1
Swe@@ 0.0783192576628886
verse 0.04141460070921691
К 0.03869640199590942
噁 1
樊 1
itz 0.03830322826536942
log@@ 0.04197660508155503
meth@@ 0.05073649454825357
晝@@ 1
桁@@ 1
悠 1
谿 1
鲤 1
hin@@ 0.04178322335242552
椿@@ 1
氙 1
醋@@ 1
钞@@ 1
Sam 0.13279994371486245
ency 0.028632084879258904
olo@@ 0.12744973936342335
拮@@ 1
耽@@ 1
蚜@@ 1
mail 0.21261494212241794
ort 0.042189751729769576
垒@@ 1
轩@@ 1
192@@ 1
195@@ 0.09066674649035338
County 0.01551941191162978
Moh@@ 0.07622617051579722
ects 0.01916295699759675
sim@@ 0.036930081712572824
嘌@@ 1
弛 1
抖@@ 1
Fran@@ 0.03973984443975456
Tran@@ 0.10108856733407212
壢@@ 1
聿@@ 1
陕 1
ux 0.03523524687662341
ven 0.031745646281089356
will 0.015994358881221298
賑@@ 1
軀@@ 1
Ker@@ 0.06883173117361459
dit 0.04275337649417164
sho@@ 0.022032268567260847
滘 1
Fut@@ 0.12230007853178025
code 0.08773629189768865
den@@ 0.015926062417062438
oz@@ 0.06438071899101773
Rich@@ 0.04755122386178941
gar@@ 0.024196814212587705
hal@@ 0.019300616594966156
苛 1
Bus@@ 0.08204173221837888
oper@@ 0.019633986386255884
嵐@@ 1
掏@@ 1
矗@@ 1
蠶@@ 1
貳 1
Commun@@ 0.05473013338589493
tig@@ 0.02608112131241434
瞳 1
蜓 1
Est@@ 0.028349562177619584
Fle@@ 0.08792906860010499
寸@@ 1
蚂@@ 1
Inv@@ 0.09151966355693787
oi 0.10680493988211237
抉@@ 1
ho 0.14791731564953334
菠@@ 1
锑 1
髏 1
Ray 0.14387542696441777
Ven@@ 0.057869862914422934
dec@@ 0.01318030344058232
eck 0.05521893727671054
č 0.4122037094727371
Johnson 0.07309762612732064
ebook 1
螞@@ 1
her 0.004195200708341116
mb@@ 0.04295617018354902
tw@@ 0.020997727626320538
恥@@ 1
祗 1
Public 0.07180881425827318
Tak@@ 0.07259312469680822
bro@@ 0.023251396764385604
char@@ 0.031851569762982174
nes 0.0357038190233534
訥@@ 1
Ali@@ 0.09462372599370827
Law 0.07372368992839815
绅@@ 1
鍛@@ 1
鏞 1
egr@@ 0.06495435024296994
Cop@@ 0.08848733587951299
Disney 0.11782070501289177
杵 1
衙 1
鎳 1
鮑 1
鹵@@ 1
Blu@@ 0.0867725598260672
Buil@@ 0.09802062625531098
Dom@@ 0.053402046999790016
ight@@ 0.08865525052161388
幂 1
桔@@ 1
蒴@@ 1
Stephen 0.11069650272478966
窘@@ 1
訣 1
閔 1
Mich@@ 0.06570418706250472
UE@@ 0.7193493805607925
谏@@ 1
ny@@ 0.10482699936451446
off@@ 0.014388105538847487
while 0.011660107911292805
舆 1
Doc@@ 0.12187223859243539
Pop@@ 0.12453070627354554
change 0.029288815331014947
esc@@ 0.02662016351891148
爛@@ 1
yl 0.09215325990046222
媳 1
谍@@ 1
霑 1
Def@@ 0.07228610710415229
dren 0.16545876155710063
亳@@ 1
塊@@ 1
釁 1
British 0.01739832498695002
coun@@ 0.029535267537902237
kar@@ 0.03498359540904481
yi 0.12262567509838479
挨@@ 1
籲@@ 1
胱@@ 1
鱨 1
West@@ 0.035163079367687644
ゆ 1
嚼 1
岚 1
浓 1
Foundation 0.08108189133861418
Ju@@ 0.037768193560044835
trol 0.17416928658880967
巾@@ 1
泻 1
燧 1
Fil@@ 0.04967292095803365
hol@@ 0.01985858749519042
棧 1
餚 1
Num@@ 0.09510505355988404
igo 0.08908582524704595
pel@@ 0.03172333092950811
their 0.004212358257411098
娠 1
浆@@ 1
鑫@@ 1
Kor@@ 0.03590370188104259
formation 0.032586268298254895
number 0.01390615079667759
ros@@ 0.06301038443976759
Story 0.20628207137389434
ages 0.011536059776912399
璧@@ 1
Mit@@ 0.03698082959605141
ier 0.0287592233432581
倚 1
悍@@ 1
憐 1
ika 0.05917987405802243
pedia 0.25348348361938244
怜 1
悶 1
Last 0.1888545580574766
where 0.008030500576867574
彷 1
Arthur 0.07571209683868808
Sig@@ 0.09234081882728176
ont@@ 0.05370501505680387
wal@@ 0.03570822488269212
Post@@ 0.11537058085797564
澡 1
鑣 1
馥 1
Off@@ 0.04554357762489011
Rub@@ 0.1514083860925886
eter 0.024659931322714376
慌@@ 1
昇@@ 1
Film 0.027893207545590663
bun@@ 0.11596667394590066
size 0.05600723319267789
壘@@ 1
旷@@ 1
獾 1
酐 1
鱲 1
Williams 0.069709511916398
pal@@ 0.02661882957699239
tern@@ 0.060661609714839144
uli@@ 0.07579802412738525
弔 1
灸 1
眠@@ 1
ams 0.043962826075084324
bur@@ 0.018064796510706024
eld 0.042843713214166315
薔@@ 1
Final 0.09184826468451976
ova 0.08102443864995278
惑@@ 1
掩 1
敲 1
洵 1
狠@@ 1
Jan@@ 0.08643295001451862
fi@@ 0.014370946273713473
箔 1
雾@@ 1
＆ 1
Tu@@ 0.07528879741902794
Fire 0.15516850030760015
枋@@ 1
碌 1
arch@@ 0.020979527446078068
idi@@ 0.03484365647729839
pres@@ 0.013964428410509062
俞 1
疚 1
龐 1
Academy 0.043206000888074476
ants 0.009639928426508524
uck 0.07217473703047533
咀@@ 1
捆 1
幔 1
铂 1
鳄 1
Rus@@ 0.06763840300905784
帘 1
貂@@ 1
迂@@ 1
酿 1
隘@@ 1
196@@ 0.0654630920324466
folia 0.42675982141765695
з 0.02920052245120246
岚@@ 1
Jones 0.06532382329393178
aci@@ 0.027668598273981566
兑 1
篆 1
馀 1
Fu@@ 0.0569600720368302
Tol@@ 0.08685213853698615
М 0.06434180369001465
壩@@ 1
彧 1
ards 0.018319534188800817
ward 0.029775265828875658
圩@@ 1
昀 1
柑 1
瓯 1
诛 1
Pu@@ 0.06544079607873655
lig@@ 0.027755343485346765
炱 1
礫@@ 1
繹@@ 1
肴 1
ania 0.04692780609547846
纖 1
Name 0.057740514702455496
body 0.036857078253254946
В 0.0032479383767186295
Band 0.04870008038593785
侷 1
鸽 1
Queen 0.0669809294899555
also 0.003124194128911255
ery 0.05645080208680154
ods 0.031562117192927945
wh@@ 0.02159752901982948
酥 1
ami@@ 0.05937399203597759
idea 0.06077861609352954
咲@@ 1
娑 1
巽@@ 1
Fam@@ 0.20214304577272155
Fer@@ 0.04962259737181875
Moon 0.1882693081413708
Up@@ 0.2040760647237618
ŋ 1
祚@@ 1
驼@@ 1
atic 0.046146112695688725
俟 1
渔 1
print 0.08992519437571753
ws 0.03165368929674342
栢 1
爷@@ 1
粱 1
菴 1
鑾 1
闍 1
Jac@@ 0.08320364526082695
Sus@@ 0.0701619445949125
犹 1
窦 1
剃 1
璉 1
筏 1
group 0.016279366468309568
yo@@ 0.053175383112406896
ury 0.03588999073603943
弋@@ 1
綾 1
虢 1
褶 1
Earth 0.09078834192220994
ı 0.04706306223912814
Hotel 0.10672821386525888
Pot@@ 0.06535472127542064
vari@@ 0.01561968429444001
偃@@ 1
冥 1
淦 1
狩 1
瘧@@ 1
葱@@ 1
鴞 1
Kur@@ 0.03151129342521207
aus 0.004423721649844676
Land@@ 0.0188822718665175
ani@@ 0.04189967177003366
惧@@ 1
袜 1
194@@ 0.18198867743083613
Ath@@ 0.07972409475171098
unter 0.010805406738828344
叩@@ 1
恨@@ 1
戦 1
Phil@@ 0.06467638643396093
like 0.01740566612444048
tica 0.035836745948642675
｢ 1
Sing@@ 0.06861882590018782
Whit@@ 0.07306130113028106
care 0.06566446938640165
etta 0.11676238981376501
tric 0.05301191989159274
弩@@ 1
賤@@ 1
193@@ 0.10982957906125708
Bridge 0.09996543043195272
棟@@ 1
１ 1
zi 0.09113181632912397
浇@@ 1
睢@@ 1
祐@@ 1
諺@@ 1
Lord 0.060516174951405606
oid 0.07327759176634512
咎@@ 1
熏@@ 1
腱 1
蕙@@ 1
bel@@ 0.013728781028785964
ど 1
寰@@ 1
汞@@ 1
粪@@ 1
bul@@ 0.03652398509658849
even 0.02315192128933286
out@@ 0.02272381655928162
呆@@ 1
扳 1
碍@@ 1
ret@@ 0.025576296405855296
sec@@ 0.011870916820288407
Jim 0.10352673543475399
Liber@@ 0.0415694315391842
歆 1
珩 1
脩 1
铯 1
飆@@ 1
鰨 1
瀨 1
踩@@ 1
value 0.08625695265689855
闵 1
骠@@ 1
Avenue 0.08267436840364174
God 0.08297747132955659
chi 0.04921785031334413
dex 0.1800453830504742
phy@@ 0.14613932314154746
歪 1
泮@@ 1
list 0.0382917521211059
ple@@ 0.03893737054891128
紓 1
綬 1
绢 1
鶯@@ 1
App@@ 0.13401387163239808
So 0.048041519698718324
嘔@@ 1
柜@@ 1
California 0.027778092697045682
栾@@ 1
箏 1
anced 0.059779284545687886
entr@@ 0.017111646944751584
sson 0.12907330700061462
筍 1
醍@@ 1
釣 1
Max@@ 0.14058191119526914
prot@@ 0.015199879377153667
懶 1
Lar@@ 0.06767279524401829
cel@@ 0.031955770307914876
睽 1
酯@@ 1
靴@@ 1
驴 1
厥@@ 1
ends 0.026912571294123087
oth 0.07900475832246694
sig@@ 0.01798846376061682
枋 1
砾@@ 1
秧@@ 1
蚊 1
袞 1
Pic@@ 0.08714322307152718
抖 1
蜈@@ 1
鵑 1
Orig@@ 0.09865681021545708
ony 0.03934869841079931
傢 1
摊@@ 1
轰 1
arch 0.06750175675077504
rol@@ 0.03582648253615168
墅@@ 1
胁@@ 1
芋@@ 1
轭 1
Taylor 0.08748606155490415
霄@@ 1
Business 0.10104306719292572
Hom@@ 0.059000465559419304
micro@@ 0.08495579407062939
sive 0.02136123926616618
寢 1
槿@@ 1
軀 1
cas@@ 0.01743243649062145
帚 1
轅 1
History 0.01913723861773642
Mod@@ 0.058428143016775465
Son@@ 0.061999667696675365
bi 0.0741068465810305
bin@@ 0.04687884034684762
棵@@ 1
蜍 1
ech@@ 0.02203443662458014
嶄@@ 1
珈 1
纥 1
185@@ 0.5220280698053581
Fe 0.2509958215742166
mil@@ 0.03830623356358142
ren@@ 0.011904342353329258
憬 1
蜻@@ 1
遶 1
Kis@@ 0.21035524481429005
Walter 0.07282384801982962
ody 0.09388855830370955
Д 0.08988668897486875
喵 1
囉 1
骰@@ 1
Zo@@ 0.177694021304061
only 0.008052045257587742
ب 0.06619118293454604
俚@@ 1
嬌@@ 1
槓@@ 1
舫 1
醐 1
隈 1
cli@@ 0.03278181653418632
enz@@ 0.02283077538209751
fre@@ 0.017351341053143413
廍 1
慄 1
旻 1
螃@@ 1
May 0.013127088431138493
vin 0.08749443567000888
匕@@ 1
荚 1
醴@@ 1
諏 1
鱈@@ 1
Simon 0.08684997279056074
til@@ 0.029472326650554357
ein@@ 0.005774201490247659
emati@@ 0.04136600714211477
辍@@ 1
Bud@@ 0.06368118199422214
Fel@@ 0.055663775213113775
States 0.011616079407865567
USA 0.04627734011267686
ban 0.04164120178752079
iro 0.0839640795729883
mal@@ 0.018664819613474135
uv@@ 0.04667538459047446
赈@@ 1
頁@@ 1
Lou@@ 0.05864385363264829
eau 0.018885528838416515
ier@@ 0.016051410988310984
las 0.003126748273892059
sus 0.009878206522661711
剋 1
叹@@ 1
噩@@ 1
烴 1
耻@@ 1
Vita 0.7605722247775627
anda 0.04243819397146876
狠 1
讞 1
谔 1
鄙@@ 1
悌 1
蚣 1
Tam@@ 0.06380813107040023
head 0.02458996756758053
phyl@@ 0.2862466975829626
恂 1
晒 1
讶 1
186@@ 0.5077688294706081
Hem@@ 0.14585692031191028
wer 0.027008830554800977
劭 1
卅 1
滔 1
腻 1
菏@@ 1
懇@@ 1
榨@@ 1
焯 1
甄 1
钚 1
197@@ 0.056269909278084396
NFL 0.11111034926942803
ear@@ 0.024032513936196744
iko 0.09759907058887476
ush@@ 0.042424183544768006
媲@@ 1
浚@@ 1
蝉@@ 1
賊@@ 1
鰂 1
桦@@ 1
澍 1
鸥 1
Sour@@ 0.15331209707103027
fied 0.020690425929494723
ush 0.11799807948837404
via 0.030938394007003975
攸 1
钡 1
Back 0.18434793184213238
綺 1
貂 1
Arm@@ 0.04791662121080914
dings 0.08402132876833017
ev 0.07914985610752165
qui@@ 0.027073454038344876
噶 1
爹 1
螳@@ 1
이 1
ゅ 1
ェ 1
佯@@ 1
儁 1
眺@@ 1
辈@@ 1
ust@@ 0.04179527028976981
寢@@ 1
煒 1
Arc@@ 0.13310324333132845
Jackson 0.07533696659515231
ava 0.06788561304473516
ois 0.064122597758003
奠 1
芎 1
酉@@ 1
Operation 0.1190683951474028
ave@@ 0.0892369970467916
emp@@ 0.02116941335478046
£ 0.07149732210548601
嘻 1
弋 1
彿 1
螢 1
郢 1
Like 0.10369225949089
List 0.04702483753008762
Mik@@ 0.08421407368223716
ark@@ 0.04068028635944723
cle 0.047050618292867996
house 0.021099982591266008
晕 1
瀚@@ 1
矫@@ 1
賤 1
Can 0.2050565984577757
Li 0.14453872706491766
Ma 0.20310409121876466
Times 0.0543659381585159
ami 0.06707192021568584
ective 0.03095392677814123
桔 1
漁 1
瀧 1
驊 1
Alex 0.13207970158850935
Long 0.07027391512522188
SV 0.1290397022304821
Stre@@ 0.062203938971878356
any@@ 0.04348230751176116
mis@@ 0.013233780060069616
怠@@ 1
昴 1
靼@@ 1
Dav@@ 0.06886874214535575
Int@@ 0.10577482205092437
凿@@ 1
瑭 1
貯@@ 1
187@@ 0.44665494347098295
Leon@@ 0.08105461185113096
then 0.008250983536551352
Bri@@ 0.05150577572492239
prise 0.057082720899117624
嬅 1
磅@@ 1
蛹 1
Ren@@ 0.03834372048520774
Ye@@ 0.11426222109189725
cho 0.01476094368640198
duc@@ 0.03726526866348457
襟@@ 1
镖 1
Land 0.046393461508432425
UK 0.038207351912861724
dri@@ 0.025828196017035322
釗 1
Metro 0.14879883616742973
than 0.009249571118863731
they 0.005787022381663785
宥 1
洒 1
Way 0.16308098630606188
ć 0.05076726609774702
仄 1
侈@@ 1
墊@@ 1
栅 1
ady 0.07999450085925526
ink 0.06365734766392513
ノ 1
歹@@ 1
氐 1
熬 1
瓮@@ 1
顫@@ 1
Who 0.1620726920886557
喧@@ 1
works 0.023670680991251015
enger 0.06302869338795207
point 0.020751702483388867
put 0.03548035155131024
寝@@ 1
鮃 1
English 0.021477204372217135
pur@@ 0.022742349120848833
ョ 1
Hum@@ 0.05896392044464913
Ob@@ 0.038265056753056435
Old 0.0610735623698792
Sul@@ 0.07211541097476744
With 0.032929506783681804
嫖@@ 1
漳 1
Development 0.075071522791492
Ori@@ 0.05755717824874006
ł 0.6453774595318078
颐 1
Alan 0.12483167512017257
Albert 0.06387208697258931
Cour@@ 0.0677020860070553
ert 0.010961368600030396
uri 0.09739895294583639
隕 1
After 0.010512319084152174
ine@@ 0.052077609475995865
溺 1
焙 1
茫 1
Ann@@ 0.06522658938340173
Comp@@ 0.07984396151472885
dis 0.16009833624986314
そ 1
庠 1
烦@@ 1
鸾 1
Wilson 0.0802992354910005
comp@@ 0.013942156970704772
oks 0.07081476540671391
謚 1
Karl 0.05071702320583851
Rot@@ 0.0483490051852707
aro 0.08866163401280751
絨@@ 1
覃@@ 1
詣 1
諜@@ 1
轼 1
Ari@@ 0.09957546656822151
asa 0.07325031083913171
ete 0.029420345631983973
ツ 1
卞@@ 1
诡@@ 1
黍 1
ais@@ 0.02301525317121159
｣ 1
Cent@@ 0.0898604178642613
European 0.02568538848930822
Mill@@ 0.07543136906863156
Sup@@ 0.09928566881482305
iger 0.025907839749499825
model 0.0488067172985902
沧 1
And@@ 0.14410329819934065
vo 0.04787482794989327
窟@@ 1
锤@@ 1
Audi@@ 0.1643550329867546
Sum@@ 0.06609843323152435
esp@@ 0.024754204370273654
姦@@ 1
葦 1
Cul@@ 0.05677128350582421
堇@@ 1
痴 1
胚 1
雯@@ 1
Fol@@ 0.04624155377835271
Gener@@ 0.0659784169328555
ild 0.12128633930178238
蛟 1
Tony 0.09612242388463077
small 0.02029972168143311
尷@@ 1
畲@@ 1
ig 0.03673171098690264
峒 1
榷 1
涸 1
mas 0.062106737202564384
巍 1
戸 1
诵@@ 1
輟@@ 1
Bol@@ 0.044721517043870535
isti@@ 0.03238714891874809
掸@@ 1
攘@@ 1
濑@@ 1
颅 1
鮠 1
Carl 0.06969926369699621
pat@@ 0.028264198828905813
妄 1
欺 1
罂@@ 1
躋@@ 1
鴿@@ 1
鹭 1
leg@@ 0.014670336614118828
誦@@ 1
谅@@ 1
Den@@ 0.037700777644100666
Rock@@ 0.16424628907386127
ute 0.03141312329440207
哔@@ 1
婁 1
屁@@ 1
Hay@@ 0.07356921673988136
Mes@@ 0.07109614363280946
Pun@@ 0.08331279949764403
ワ 1
亘 1
烛 1
184@@ 0.5853832016970403
Francis 0.08009913880036411
Hen@@ 0.07425359924311867
ability 0.029425285401647783
夭 1
幺 1
蚀@@ 1
酪@@ 1
锺 1
Champ@@ 0.08341316786947536
Kim 0.08960314925940532
aff@@ 0.015398455187152079
any 0.015608426986394213
dor@@ 0.038905582076845885
俑 1
塹 1
簾 1
Log@@ 0.10445730482449106
Trav@@ 0.12083251497503403
躬 1
bs 0.04262065383428146
★ 1
ゃ 1
囪 1
柿 1
稼@@ 1
莪@@ 1
Ze@@ 0.031058278598516335
lati@@ 0.2292677656446283
sey 0.06963863385223994
乖@@ 1
菈 1
錘@@ 1
men@@ 0.01018744451652705
敍 1
飄 1
Samuel 0.09667283047836785
af 0.0704224149422048
ein 0.002982633447225275
ship 0.016744758450865784
æ 0.9770469779212906
娶@@ 1
瓘 1
骏@@ 1
Cra@@ 0.09576248426901124
vers@@ 0.017372804762905127
漯@@ 1
秤 1
簇@@ 1
蠍@@ 1
mot@@ 0.01926559645504266
Å 1
腋@@ 1
Brian 0.10396829899211583
Donald 0.08339994536025562
Gol@@ 0.058161989156012436
tom 0.07179821793883254
皱@@ 1
镐 1
Rh@@ 0.051368262832766416
婷@@ 1
盂 1
People 0.06418484220866151
min 0.10149238339709862
mus@@ 0.022824386781883595
town 0.01476737505778905
υ 0.5613474917298
菀 1
賬@@ 1
鲍 1
Ther@@ 0.06816103957408721
met@@ 0.020296624846412308
蒐 1
End 0.15219548372966635
ect@@ 0.030981771791883952
娣 1
翟 1
estr@@ 0.01972287983509195
map@@ 0.14131084028801297
okia 0.5677542446552833
咲 1
擎@@ 1
镍@@ 1
Ep@@ 0.10624026781233044
ety 0.022377316709220045
ont 0.0093816421355692
wor@@ 0.01267801839137356
Т 0.12051695752840512
扈 1
沔@@ 1
竇 1
蟻@@ 1
Kevin 0.12823544261969527
蟠@@ 1
Good@@ 0.133186837424905
Yo@@ 0.13952756662210605
悬 1
赎 1
188@@ 0.35203478477229155
ham@@ 0.0635956730020371
yan 0.0664900214424996
尻@@ 1
Jos@@ 0.09859265666534549
orum 0.15729699364284536
worth 0.05983257315465475
縻 1
赓 1
Just 0.16070544959356287
Year 0.06001946736221372
Р 0.08222364814629493
堀 1
奚 1
恪@@ 1
猖@@ 1
Patrick 0.09238446532815553
Publ@@ 0.08541799609301073
Real 0.06401688556353538
ago 0.04161311327622657
ate@@ 0.14308060386197616
ester 0.0307823947795497
巽 1
掾 1
漾 1
邕@@ 1
Will 0.15295439487292242
sung 0.14165632273175127
喃@@ 1
懶@@ 1
榻 1
189@@ 0.382667718846175
2nd 0.05992524284787977
啄@@ 1
壕@@ 1
歎 1
瑁 1
Gor@@ 0.06613448701920113
Les@@ 0.07435055856996217
Library 0.08960221726919815
kins 0.06959392300912608
uth 0.06693350356306978
蓓@@ 1
谬 1
usa 0.08103264655067342
yd@@ 0.10537286010752457
杓 1
毎 1
泗 1
盼@@ 1
砷@@ 1
邃 1
Prom@@ 0.1013536766279681
Sab@@ 0.055991294738236205
墮 1
煌@@ 1
vil 0.07359343988964025
啉 1
蛟@@ 1
鮫 1
tis@@ 0.020135446347482256
das 0.0025263317478136224
劈 1
甾@@ 1
Cha@@ 0.21351846940802238
ɛ 1
夯@@ 1
甩@@ 1
遽 1
vi 0.12076205938245207
≤ 1
柘@@ 1
Lep@@ 0.20724868310080574
oria 0.05750877826159137
坛@@ 1
釧 1
摊 1
芭 1
include 0.01796182998625964
恬 1
愉 1
懺@@ 1
湃 1
Hot@@ 0.1426160231563533
呕@@ 1
帷@@ 1
躯@@ 1
ait 0.00954193361474004
obj@@ 0.02606094744060161
侏 1
勐 1
Ha 0.15813262170418554
bet@@ 0.06266565303370451
iller 0.04169122269580212
medi@@ 0.015360175149751968
tha 0.08755240068768666
渴 1
alb@@ 0.04811983346205869
ca@@ 0.08042507119475396
eu@@ 0.06274329260859654
摒@@ 1
燭@@ 1
Adam 0.08877556097346177
ord 0.0576840885400614
癡 1
闪 1
Bad 0.08693615515349755
That 0.058461570789644215
佚@@ 1
憧@@ 1
焊 1
籬 1
褫@@ 1
戌@@ 1
浣@@ 1
鳌 1
En 0.0029160466797939592
Sher@@ 0.07198656242025533
anthus 0.4686201654229254
dem@@ 0.011159903355924023
垢 1
崭@@ 1
Nu@@ 0.06288990857636725
music 0.014888074309959328
ological 0.028869595693288442
嶠 1
ton@@ 0.04654559913117231
仗@@ 1
Rose 0.10010952219516699
轿 1
陂@@ 1
Vill@@ 0.04920948368806614
紊@@ 1
鮡 1
Opera 0.1395788386053251
Valley 0.05368711407764048
栎 1
璿 1
惶@@ 1
呋@@ 1
牟 1
禿 1
虱 1
Over@@ 0.08441765998040936
Tit@@ 0.05072622012018687
ji@@ 0.08531440548151151
ulu 0.11903904416727622
灿@@ 1
缠 1
萩@@ 1
钵 1
Dic@@ 0.1437597725776777
apo@@ 0.03774980268980153
tional 0.02963809618027651
vers 0.011657563139531283
嫦@@ 1
寥@@ 1
琊 1
迥 1
癲@@ 1
Family 0.0733071122485581
XX@@ 0.1304927117471273
pa@@ 0.04025062779051347
岌@@ 1
拥 1
涡 1
翘 1
鍛 1
Lon@@ 0.15167457571738524
equ@@ 0.029320415500378182
og 0.10957896632987355
缕 1
Jam@@ 0.06430064727956601
Pacific 0.05422900452227603
Pseud@@ 0.2143984751248022
Rev@@ 0.06376363675545679
ational 0.029226527393793052
kr@@ 0.026247573409536314
罔@@ 1
虾@@ 1
貽@@ 1
Miss 0.08854600159318995
Services 0.10564885573151736
Sha@@ 0.07284640096640367
杲 1
泓 1
瀬 1
煬@@ 1
鏗 1
Education 0.044914247627158045
Jason 0.15286981403367123
Seg@@ 0.059871246878478536
讼@@ 1
闰@@ 1
Ryan 0.12391397455059348
Vil@@ 0.05186986854569758
丢 1
剎 1
祀@@ 1
苟 1
铲@@ 1
鳄@@ 1
Dro@@ 0.10356022391749188
Tim 0.13840323057245185
cell 0.08643845272614291
eth@@ 0.030431515191975407
uk 0.08891382094687729
urity 0.04550162181114672
岖 1
萝 1
鄚 1
霾 1
Div@@ 0.08339491701215533
Wol@@ 0.057225339507383316
佼@@ 1
鈺 1
Dur@@ 0.05643024327162141
Pay@@ 0.17348858197957312
Under 0.06811296197632657
唆 1
恼 1
暹 1
蕪 1
.. 0.07795087143421162
Cros@@ 0.13068182293436317
anum 0.2511638307461795
gs 0.04274917901239766
los 0.0017154195098460282
悚 1
珥 1
rot@@ 0.0432892782618838
ways 0.025040977623392635
yo 0.07371282590137507
ㄧ 1
嵊@@ 1
洄@@ 1
狹 1
鯙 1
Barr@@ 0.0661661857258115
Econom@@ 0.06143692368698939
Golden 0.08226984031159368
帑 1
漪 1
稔 1
蛭 1
Rog@@ 0.10551809857259964
囱 1
榭 1
祈 1
鳖 1
mes 0.02059587146499782
ones 0.013904656969385107
瑠@@ 1
鐸@@ 1
Nich@@ 0.08741352354563942
愍 1
馨@@ 1
Dan 0.12451645767198306
Harry 0.0793875848876808
bil@@ 0.01436653511483334
兌 1
燊 1
颚 1
ston 0.054163343217608725
拂 1
痊 1
絹 1
abr@@ 0.03792878619935615
under 0.007102600207790257
剷 1
摹 1
秉 1
筝 1
bes 0.030214856268307114
wat@@ 0.030302498029237537
摯@@ 1
ason 0.046130551023455764
cho@@ 0.020880093803890443
搅@@ 1
涩 1
硤 1
礫 1
鉑 1
Deb@@ 0.04633304706724628
Hil@@ 0.05003550047709592
Lim@@ 0.06041070449397804
Tex@@ 0.059818928763453724
mod@@ 0.029215757598502007
title 0.02225016838418089
瑗 1
禿@@ 1
谒 1
ask@@ 0.054097585510080495
burg 0.018167467996484377
栩@@ 1
汁@@ 1
綵 1
肱@@ 1
軾 1
颌@@ 1
Alex@@ 0.14134008199449313
浊@@ 1
漲@@ 1
穢 1
芹@@ 1
Stadium 0.07456641034177741
aun@@ 0.05079030531052926
plex 0.139730628309519
吩@@ 1
绶 1
蒜@@ 1
鉅@@ 1
Hug@@ 0.0725407294662694
Ox@@ 0.1428676761848699
Pit@@ 0.06612219767415853
Premi@@ 0.09000338160748889
bri@@ 0.02174254923362601
ば 1
孽 1
嵇@@ 1
耘 1
酥@@ 1
Na 0.2691673725031939
ew@@ 0.029152142509350082
itz@@ 0.022177902226078627
ご 1
乩 1
拘 1
曠@@ 1
琬 1
瑕 1
镉 1
Angel 0.19194669825628388
jo@@ 0.023795495462615855
ories 0.02451880094173663
sing 0.030388865262238655
ʰ 1
疽 1
Tem@@ 0.052531516817820575
anna 0.08720118298189487
gro@@ 0.015255449069403234
勅 1
瑋@@ 1
聾 1
By@@ 0.09091782169507753
Victor 0.09535283738752033
agu@@ 0.037264345441611925
mit@@ 0.014686380709361272
砾 1
綏 1
羯 1
臚 1
砦 1
羨@@ 1
込 1
霓@@ 1
Social 0.07291556842058527
wo@@ 0.024420166608013855
懦@@ 1
栈@@ 1
渎 1
蝰 1
酌 1
釘@@ 1
Port 0.07155879492963954
Reb@@ 0.07816326032922642
lev@@ 0.054384157187527385
oro 0.06694155565067018
used 0.005864748619076277
zo@@ 0.1356374209275459
蚕 1
蛾@@ 1
邈 1
镓 1
髦 1
pes 0.07225200757307271
pul@@ 0.02379644383385146
闾 1
鸽@@ 1
Alice 0.12607329041082088
Pad@@ 0.07436455563409743
long 0.012989591155614743
戡@@ 1
楹 1
瀆 1
灼 1
荨@@ 1
餡@@ 1
Jus@@ 0.05806828907100314
Prince 0.05523856951643695
ph 0.11239265369690424
桦 1
Din@@ 0.08518104783962846
Ka@@ 0.09208398435596014
ols 0.040493304385117924
ow 0.03856101216003665
word 0.047973351862679654
裘 1
贛 1
韜 1
Pul@@ 0.10573891323738074
Sound 0.13205982551128934
ial 0.053032809803572216
olog@@ 0.018954611860151623
嚨 1
擱 1
梟 1
矶@@ 1
粘 1
缪 1
钒 1
Nar@@ 0.06908960703483993
dh@@ 0.044453326458512674
using 0.01600657528839382
巍@@ 1
梳 1
鐮 1
钯 1
颐@@ 1
Aer@@ 0.09635532718369895
Die 0.002474120329428201
Main 0.07170581339857196
ather 0.04642938590752182
ず 1
苇 1
Beg@@ 0.04849033930136254
ef 0.03613859841368608
illy 0.07166663962121221
ister 0.04671625433622885
傻 1
喘@@ 1
跻@@ 1
Mand@@ 0.06906224354012974
Not 0.12211376806985082
Pel@@ 0.08824646278301275
ites 0.024657151619145334
Ⅰ 1
涟@@ 1
畹@@ 1
fal@@ 0.027970093202602804
繇 1
茴@@ 1
釐@@ 1
Ing@@ 0.07183631751403208
Sci@@ 0.11277398951856286
績@@ 1
钙@@ 1
Ret@@ 0.09284213357998157
Sto@@ 0.04339286956744767
钨 1
Dam@@ 0.06721308382763849
Friedrich 0.04342354696281046
H.@@ 0.18778929264076477
檜 1
祁 1
Dakota 0.15309307964664662
life 0.009992543438572052
lower 0.035497142395381286
د 0.06299718224212855
س 0.05820650021102111
澹 1
app 0.09445742732865062
dan 0.041183628012775246
蕴 1
顗 1
Am 0.01552745399922501
Dark 0.15943599980558584
bit@@ 0.04492772518110282
eman 0.05998156895786429
晞 1
Af@@ 0.05768726126790827
Chem@@ 0.06514772317053816
Tech@@ 0.1352431851174005
pi 0.22547375110016804
喂@@ 1
齦 1
Pil@@ 0.06190567349439301
icum 0.32091044882367886
uma 0.07560635053333434
戟@@ 1
賠 1
餌 1
Van@@ 0.11503974942326037
oke 0.05835402544258767
ori 0.06540708011621091
tiv@@ 0.021868590419685918
ζ 0.3549043984231346
尻 1
炙@@ 1
荠 1
钉@@ 1
鹊 1
Bot@@ 0.02776351954609484
掺@@ 1
隧 1
Cross 0.07761992626991955
Department 0.03442823843766158
Pau@@ 0.0643798500565312
セ 1
儸 1
捻 1
湟@@ 1
疼 1
鍍 1
Gold@@ 0.06191928045099324
Py@@ 0.10738517201476626
opp@@ 0.03319920928012396
蘋 1
颌 1
Cho@@ 0.15690156765640761
bach 0.028374575953216366
jo 0.023228979918004395
lor@@ 0.08487590872988371
啮@@ 1
嘯@@ 1
骥 1
ante 0.007866494893800754
dom@@ 0.02186718884730549
sis 0.14364280393566672
ui 0.07793710865231618
暈@@ 1
様 1
燁 1
Jane 0.113501221662702
opo@@ 0.09799988549345753
µ 1
亢 1
薊@@ 1
And 0.09032334558855006
Bern@@ 0.05920989798651614
Fair@@ 0.10354933923058977
ager 0.033333330912712095
恃 1
捣@@ 1
滸@@ 1
璨 1
鈺@@ 1
Bou@@ 0.06512477111313032
eria 0.084640132198987
nig@@ 0.2209191242686582
俐 1
癸 1
Kam@@ 0.0440295206003703
nis 0.028765379501016427
俭@@ 1
sor@@ 0.025614006362574604
thr@@ 0.04930280466153696
瘡 1
祜@@ 1
鷺@@ 1
Davis 0.07243560990284917
Mis@@ 0.06321814516266765
Sport 0.09373257052365978
壬 1
沭@@ 1
漿@@ 1
燮@@ 1
瞄 1
诲 1
鱧 1
Map@@ 0.18087845217563786
ʁ 1
嬪@@ 1
晟@@ 1
獺 1
羲@@ 1
颊 1
Ay@@ 0.058572065715704905
France 0.009662088321926473
eff@@ 0.013535561849647895
ots 0.02433950190660511
哮@@ 1
垩@@ 1
涇@@ 1
ineering 0.054347167350798836
琐 1
迂 1
邢 1
锚 1
驍@@ 1
Hard@@ 0.08253566473014236
Ky@@ 0.07668605335954219
Women 0.035107303509596906
awa 0.049247105375792764
犍 1
肽@@ 1
Anthony 0.09473111288295741
Gir@@ 0.07104303314535329
Juan 0.032276104510348534
itu@@ 0.07733857761398556
omo 0.0951450339035851
恳@@ 1
陇 1
Hand@@ 0.02695061743544745
tre 0.016240566773193292
urs 0.018252432692110708
匐 1
妒@@ 1
痘 1
絶 1
羔@@ 1
豎 1
鄙 1
釷 1
钼 1
镛 1
Ah@@ 0.0708266497170652
Elizabeth 0.06336257403854244
Human 0.10513580357269979
aven 0.10740040485264725
been 0.003933868916565257
love 0.052134890803925145
嚕 1
缆@@ 1
Dow@@ 0.07995063732122154
Jud@@ 0.05163647751255284
Lewis 0.07625157147081957
忏@@ 1
痺 1
衅 1
Committee 0.04130847184948677
Health 0.06518616765939216
Kat@@ 0.041277086277017976
eno 0.04888801421469171
hat@@ 0.08879773220835259
偃 1
娄 1
屡 1
蒯@@ 1
蜡 1
閏@@ 1
鰲 1
ift 0.11207533393571545
unds 0.026778592240159976
vent@@ 0.02193258152850031
yer 0.028098038291250297
綦@@ 1
萸 1
饿@@ 1
Greg@@ 0.07722694702117668
Prix 0.05673340691702479
inst@@ 0.018916723371287372
iri 0.1076317835106864
now@@ 0.06028246795732406
val 0.1079231833317694
恺@@ 1
撐@@ 1
Arti@@ 0.05595102033419939
NAT@@ 0.20393962631115395
Pon@@ 0.06758012923097505
live 0.028231898327769473
Б 0.08925617334060372
淅@@ 1
漬 1
Jay 0.1602486605519954
aa 0.14098609652893318
ements 0.010751921550135012
ett@@ 0.03329921247053059
旻@@ 1
罩@@ 1
Dun@@ 0.05962491524154375
Has@@ 0.0698658973435565
Kle@@ 0.05486956753338274
bers 0.029948454672703025
cy@@ 0.05552396136360883
栽 1
糙@@ 1
胭@@ 1
Rand@@ 0.08851092147625246
Theatre 0.05687192914323677
ror 0.10217851486544481
uh@@ 0.039405102089643304
匍@@ 1
悄 1
柵 1
汙 1
淖@@ 1
辻@@ 1
augh@@ 0.07788861674520217
х 0.008030602771333011
胪 1
茗 1
aham 0.071010093292324
lon 0.0784178177335125
space 0.039724011858351733
婕 1
恙 1
瘟 1
Anna 0.06343477178144566
Christopher 0.11733681392783128
Division 0.019607310530318414
嘅 1
媚@@ 1
烂@@ 1
迄 1
钰 1
鳍@@ 1
Bom@@ 0.08413825016281308
槛 1
浒@@ 1
熾@@ 1
Standard 0.12838241160658043
ease 0.05237117013487738
rent 0.07120236447645455
汛@@ 1
痰 1
竿@@ 1
茫@@ 1
鈸 1
Board 0.04888403402751365
Que@@ 0.06857368893351104
Vit@@ 0.09352201400620194
acle 0.09712157878126992
iga 0.07966044628090772
lem 0.039592445617930815
ures 0.016696729101890344
壺@@ 1
渭 1
珅 1
璠 1
盏 1
砵 1
铋 1
麓@@ 1
HMS 0.14419465220796585
Lyn@@ 0.10302286007517726
Philip 0.09981010659450043
chen 0.011692244007201829
ills 0.03213539575807109
je 0.03228163548364207
own 0.01280144540525357
unt 0.06551582476254364
峠 1
漩 1
玫 1
Da@@ 0.09408289388068831
def@@ 0.013276763594097067
emb@@ 0.019783329532744146
fu@@ 0.018490273495903407
score 0.046729299226198937
婕@@ 1
恤@@ 1
沅 1
荀 1
侗 1
铊 1
锗 1
Mount 0.0659262610944788
Sea 0.061870671955071004
aqu@@ 0.025313843705689613
iss 0.0508738255725035
osp@@ 0.04954933513432339
Boy@@ 0.09368539246855971
ogo 0.16372711830669978
咄@@ 1
尴@@ 1
峴 1
溉@@ 1
滬 1
澗 1
Dan@@ 0.032838580512031944
Wood@@ 0.07209003117259641
pp 0.1266156615634775
冉 1
潇@@ 1
窪@@ 1
version 0.01639530618668451
瓣@@ 1
輻 1
铨 1
靺 1
han 0.025495289588472417
orn 0.10609792266413792
苴 1
Der@@ 0.038420475652547324
Miller 0.08528133546499327
Tod@@ 0.050335158136201624
after 0.004152383817409948
乍 1
ign 0.05698104115488866
ization 0.06274355199922722
next 0.02207867784007676
ron 0.14544201057815886
Ⅲ 1
嗪 1
嵯@@ 1
掖@@ 1
aliz@@ 0.024793124737786502
anne 0.05147366247219688
je@@ 0.018328131085212133
outh 0.032541608965759326
熹@@ 1
瑣@@ 1
Meth@@ 0.1119842878808942
Stone 0.08741082177390862
water 0.016203688258630423
榈 1
瀾@@ 1
盞 1
鐳 1
陲 1
Roger 0.08257317396064161
by@@ 0.06594683134549734
俺 1
Band@@ 0.09822927405556209
Bau@@ 0.01659428740573987
book 0.017559796367503478
seu@@ 0.21630078708240827
ネ 1
揣@@ 1
榈@@ 1
郢@@ 1
頗@@ 1
Wa@@ 0.08856931179580288
ban@@ 0.015958144353792933
mit 0.0016945233593819767
灑@@ 1
缸@@ 1
駒@@ 1
alan 0.08320834379894392
娼 1
闫@@ 1
鞨 1
鱺 1
Cath@@ 0.08419717287278868
ball 0.02124540650165449
land@@ 0.013281842337013076
栋@@ 1
皺 1
祜 1
酌@@ 1
鈣@@ 1
Kenn@@ 0.06793848567155404
Paris 0.013125436645844302
hab@@ 0.01865209239626574
ker@@ 0.02959024411782412
偈 1
眺 1
窪 1
笹@@ 1
荻@@ 1
萤@@ 1
Bil@@ 0.020464765482255343
Hans 0.04956112285837419
Haw@@ 0.060306274876635486
Maj@@ 0.0865429303342075
ders 0.02214121856200457
idge 0.05629856650933586
彪@@ 1
Da 0.047991791119713766
Som@@ 0.045019226536769076
ibn 0.16828737977980004
inf@@ 0.018817197715131222
tier 0.04440555461322293
勺 1
臧 1
荔 1
鰺 1
Classi@@ 0.10675477205120255
Gun@@ 0.08778140615814921
adi 0.08997598322533952
bis 0.004054807579415204
kl@@ 0.017845211300561697
澧@@ 1
Over 0.08076044898765525
ape 0.04438489584915014
fri@@ 0.025223196503309103
itor 0.06222469187778127
oli@@ 0.0746733838263436
ysis 0.0563564774632153
颓@@ 1
駙@@ 1
Lind@@ 0.08159191815946315
Tas@@ 0.07814743789464385
ept@@ 0.05324572689568817
test 0.04396505057463511
Н 0.0578138033964958
啞@@ 1
槽@@ 1
酶@@ 1
ente 0.005975484782256601
round 0.01974110823867823
vey 0.05072569745892952
俏@@ 1
啼@@ 1
炽@@ 1
珞@@ 1
盱@@ 1
阇 1
馭 1
From 0.021688261224049474
Matt 0.12326730162287307
Rab@@ 0.07038481648607987
cell@@ 0.029909512288361313
rd 0.04994073255750219
state 0.010094283903538542
yes 0.08188219287378677
偵 1
嘲 1
墻 1
慨@@ 1
栱 1
烙@@ 1
鍍@@ 1
Bay@@ 0.044642586795419804
炬@@ 1
蘚@@ 1
Allen 0.0919833517557091
Coc@@ 0.16187101122759448
anny 0.12016311760887155
eh 0.09730388409641365
gin 0.06540069568775714
幀 1
皱 1
钧@@ 1
Bug@@ 0.18679616881788352
Key@@ 0.13638368246237936
Matthe@@ 0.10319627186636048
hom@@ 0.017727577672160023
over@@ 0.014009768799219129
ulus 0.19754298420873373
ump@@ 0.03459566539694516
嵴 1
榘 1
炙 1
鑼 1
Aur@@ 0.08989769038778184
亟@@ 1
沐 1
瘠 1
绰 1
荖 1
菓 1
蝗 1
BK 0.38420338176334456
Patr@@ 0.04926241290390339
onder@@ 0.0747451750815751
玠 1
骤@@ 1
Bad@@ 0.06402523605590078
Kab@@ 0.06933093941084872
imb@@ 0.0611601682713191
poly@@ 0.06496608942442023
亢@@ 1
昱@@ 1
灿 1
Jan 0.08556635733217349
炜 1
hop 0.1533908961892674
怜@@ 1
珏 1
羥@@ 1
鸫 1
Zi@@ 0.051551253388713414
sch 0.022407920223496462
壇@@ 1
専 1
揀 1
癇 1
瞩@@ 1
蟒@@ 1
Cla@@ 0.09364542002198142
Joh@@ 0.07720135699555856
Lanc@@ 0.09341340221857036
alls 0.020668828036070796
ner@@ 0.020480651761187952
vet 0.18597556002564386
Fox 0.07117068748310437
Nam@@ 0.05123755273879881
Ry@@ 0.09625451945598387
ading 0.0399057112442851
aja 0.05048341504584057
ext@@ 0.020451999703333845
ij@@ 0.048636723082701214
垩 1
奭 1
焜 1
cos@@ 0.05875609628739671
esti@@ 0.0167250518304226
flo@@ 0.02087711731470778
lip 0.11026713221341325
醃 1
Antonio 0.04433191075583269
Gold 0.06379476594919783
hip 0.03613626343349318
place 0.007568021543755219
嬴@@ 1
盪@@ 1
饼@@ 1
Natur@@ 0.03427028814896183
eff 0.11158072155210463
熒@@ 1
Francisco 0.030591064759021996
Industri@@ 0.05846034787918993
Kath@@ 0.06629954666098911
佥 1
樱 1
魷@@ 1
has@@ 0.08231965396005528
service 0.013063882522739208
who 0.003026327060849302
塭 1
恿 1
苻@@ 1
鲈 1
Howard 0.08373615495240037
ann 0.05181187067141025
most 0.00645996124028381
var@@ 0.03231696338362344
ァ 1
冪 1
瀘@@ 1
猾 1
琶@@ 1
薈@@ 1
Mun@@ 0.04162424128946013
洮 1
茸 1
饵 1
Г 0.0725088962787018
і 1
ほ 1
筷@@ 1
蟑@@ 1
Pier@@ 0.11926560171825487
Ω 1
襯 1
Thr@@ 0.05578152720665376
cel 0.09730437505823965
囤@@ 1
怯 1
柝@@ 1
檜@@ 1
禺@@ 1
窺@@ 1
笨 1
蝨 1
Vog@@ 0.09006501093953333
rap@@ 0.021480804573263824
珲@@ 1
蒼 1
豈@@ 1
鸮 1
Anne 0.061063815944609114
Daw@@ 0.1132565630164267
bury 0.04238453600273153
inde@@ 0.04788758289425612
occ@@ 0.04120957756521506
吓@@ 1
滔@@ 1
澎 1
蹦@@ 1
Carlos 0.04324322076124693
Sid@@ 0.10278467057567806
aba 0.011081689558802335
ag 0.058493128159249966
alia 0.07270123121882853
aly@@ 0.05431290247871827
tz 0.09692387328276907
Σ 0.5182466976794722
Ric@@ 0.08327282092438382
Victoria 0.0484512419428978
Wel@@ 0.05875043910123235
澂 1
邾 1
Bell 0.09367537977004346
Dal@@ 0.07215559016273626
Rod@@ 0.07904869890726643
ebr@@ 0.03489816278417177
thing 0.0390343654274577
撑@@ 1
柬 1
矾 1
诣 1
辕 1
锚@@ 1
Avi@@ 0.08215848239862814
Bob@@ 0.09066022758881827
game 0.010452225659093184
peri@@ 0.03411157206303046
庵@@ 1
惨 1
棻 1
瓏 1
窯@@ 1
覲 1
逞 1
陝 1
２ 1
Court 0.027902673355918055
Dig@@ 0.13653688909762457
Indi@@ 0.025819011478455618
enni@@ 0.06403742477829424
姥@@ 1
甬 1
矚 1
荪 1
Bran@@ 0.0599515504884288
Castle 0.07201686710910803
Fun@@ 0.10902435798233717
star@@ 0.02157869880133155
uta 0.057343303639956586
И 0.03044723132210797
弒 1
恬@@ 1
攪@@ 1
浬 1
base 0.01896488347663381
order 0.01719877371805175
plat@@ 0.020494267034938337
tern 0.020611223996847984
ふ 1
娱 1
Alfred 0.07250988227968391
Fro@@ 0.10598635481347161
Lib@@ 0.05270289067567528
ando 0.006661302087743638
anger 0.040598298079131026
urn@@ 0.037463733287848376
zer 0.05908512384661155
า 0.1172520619407981
禰 1
臀 1
Radi@@ 0.07193730448364852
sum@@ 0.02672555562874433
墩@@ 1
搗@@ 1
聾@@ 1
頡@@ 1
Pet@@ 0.08120739257213817
Ton@@ 0.07588132640703417
黏 1
å 0.483221269672332
慑 1
殡@@ 1
肼 1
譏@@ 1
邛@@ 1
醌 1
鏟 1
濛 1
酚@@ 1
魟 1
Ali 0.06593190220408525
呵@@ 1
扒 1
獗 1
蠡@@ 1
軔 1
alp@@ 0.0662947058917118
lan 0.06846461208888993
ц 0.02211293290183864
匀@@ 1
匮@@ 1
荻 1
Dave 0.11238477570564742
mal 0.0230526352909928
杠@@ 1
赔 1
鯤 1
Var@@ 0.05771960521297872
arry 0.09956546065821192
rea 0.04916013619845562
咆@@ 1
嶄 1
Boys 0.10421305580017381
Los 0.00865156719201531
bin 0.07141629733394471
pper 0.06932233626176847
tle 0.0761413855046976
tural 0.027443015423787867
yu 0.15324346473726694
吡 1
泓@@ 1
裨@@ 1
驥 1
Phys@@ 0.0970932066134433
alism 0.043694812141589004
ボ 1
俳@@ 1
娇 1
怕@@ 1
筵 1
葆 1
Ale@@ 0.08802244791008486
Plaza 0.13731980256842316
Wan@@ 0.25710850279336867
eller 0.033547537086416626
榛 1
蒨 1
邠 1
鵜@@ 1
Wit@@ 0.05575267673818635
fa 0.07981746501757864
gio 0.06431331650837384
湮@@ 1
甕 1
蠟 1
醛@@ 1
馱 1
Ass@@ 0.11353362172532311
Princ@@ 0.06916234786426344
ender 0.025313594707985804
mar 0.04044896291855567
∞ 1
幂@@ 1
抛 1
盎 1
鸢@@ 1
Autom@@ 0.09034885603543694
eum 0.09619486073532046
olo 0.06617985567513834
tan 0.03120839217754246
ی 0.190807670744658
ケ 1
佰@@ 1
珮@@ 1
艮 1
蚵 1
訖 1
誨 1
躬@@ 1
Arg@@ 0.0739380307780333
Gary 0.12440679135827991
Thi@@ 0.05817322126022464
cs 0.04427785153809461
mont 0.036773541070562216
poem 0.10073329956567716
spec@@ 0.020806741840544325
umia 0.9748434787555573
噻@@ 1
晰@@ 1
Poc@@ 0.1491596273871876
tin@@ 0.045814602500713265
î 0.2205128606429945
О 0.032798819216236376
丶 1
刈 1
坵 1
庑 1
珣 1
珮 1
虏@@ 1
裤@@ 1
訶 1
Sau@@ 0.04573926342687357
cep@@ 0.039256416914260794
uni@@ 0.01916238361123036
卤 1
睇 1
莅@@ 1
鉞 1
驒 1
Lot@@ 0.09102708083214708
ls 0.03162105519826635
wiki 0.8199101716559818
僖 1
癢 1
苍 1
蛸 1
袒 1
Corn@@ 0.05710995450527577
Ind@@ 0.056689582344183344
Post 0.0525170245073438
age@@ 0.11362600390990706
cy 0.057501659668741344
eron 0.022447512571238747
free 0.02835997642397858
night 0.03510364864217692
part 0.005465711487912856
rem@@ 0.01520090029639338
ses 0.004524518056832726
won 0.00889535540153731
敎 1
鄯@@ 1
驛@@ 1
魴 1
Bow@@ 0.04127211501844525
Organ@@ 0.04123032366558036
寛 1
憐@@ 1
鵲 1
Kol@@ 0.03176914918635345
ί 0.10064765256477018
ा 0.15362255636334457
撮@@ 1
笏 1
銨 1
Pod@@ 0.0992099738176182
bili@@ 0.08572983847795193
nor@@ 0.012324789978595742
槓 1
猕@@ 1
莅 1
蛺 1
閹@@ 1
Sac@@ 0.07841470847540762
Walker 0.10240553839991061
lus@@ 0.03449671937178001
sk 0.053689417650615454
拦 1
晦@@ 1
猥@@ 1
鄢@@ 1
sin 0.01988826858285308
缽 1
蕲@@ 1
錮 1
Under@@ 0.09841566068438938
hil 0.10883889970582075
zen 0.018528937495582255
् 0.0014773768536370721
岂@@ 1
愫 1
玳@@ 1
绛@@ 1
谕@@ 1
flora 0.21636202751067787
姥 1
懒@@ 1
Buc@@ 0.049685550574759804
If 0.04278669882346303
ris 0.07295787312876535
粿 1
Gib@@ 0.1024358931751774
Sign@@ 0.10838548773060906
Western 0.027071803783947537
mond 0.049521538553966966
rac@@ 0.016535010086549437
楫 1
熾 1
稼 1
郝 1
鎧 1
馥@@ 1
Lag@@ 0.05467151101303145
anz@@ 0.016984410839250175
een 0.0705797505184083
ks@@ 0.026735076685059377
wen 0.08391218781994729
瀰 1
Anderson 0.08205517067506024
Bod@@ 0.06013270180738584
羡@@ 1
ior 0.03260479774223942
nd@@ 0.06713556499451663
see 0.018858587818502682
start 0.03532104155569411
stati@@ 0.0704208449048627
unk@@ 0.025064872387369087
儉@@ 1
卍 1
屹@@ 1
撻 1
枉@@ 1
榨 1
縊 1
Kom@@ 0.017709178701836383
Sl@@ 0.11186215432847804
come 0.030308090686237868
ă 0.2915584028401165
Bag@@ 0.08215648743161398
Nintendo 0.14107930935006743
Steph@@ 0.09567134032042628
ains 0.015605469530117877
media 0.024706398674010845
憫 1
Arn@@ 0.06199992167667062
Men 0.05134233674391663
Order 0.05355107662559582
VIII 0.11267477684183796
aul@@ 0.050626372550310286
ells 0.029657039759017248
gi 0.09567268092913966
onom@@ 0.039763339734599085
some 0.007083373745667076
聋@@ 1
邳@@ 1
郧@@ 1
鵑@@ 1
Kelly 0.10078338914975407
Lit@@ 0.0581523473002941
Pass@@ 0.06578156069536795
Pictures 0.13209973744585565
ju@@ 0.016044596954126404
ry@@ 0.12710292822573238
洱@@ 1
浔@@ 1
灝 1
砚@@ 1
Clark 0.08584184166980459
Yu@@ 0.10435485429778886
date 0.025335174744691023
oe 0.09991223426164232
ogr@@ 0.06631269516203776
捏 1
楯 1
銮 1
Johann 0.038976852146260274
idi 0.07366316014216244
tors 0.01670047234909259
梶@@ 1
爍 1
贱 1
闷 1
Championship 0.022435769262190083
Nick 0.10699667394077907
gency 0.050899971369922505
nu@@ 0.022643057600913265
蝕@@ 1
镕@@ 1
Broad@@ 0.0876937926164068
Head 0.0873756078697782
Lac@@ 0.10352116331916335
anti 0.03216221368491172
double 0.04040458495040327
gir@@ 0.025080262009302027
mem@@ 0.017768719812190654
壑 1
蝓 1
豈 1
驃 1
﹕ 1
Bra@@ 0.10852780078153157
Jacques 0.05055904110132867
blo@@ 0.029269873383630525
亏 1
晁@@ 1
闐 1
鴕@@ 1
Gran@@ 0.04893851809852564
ications 0.0654004145924714
japon@@ 0.05722906694904501
† 0.020115176211208407
├ 0.32234374124832543
匆 1
撮 1
櫟 1
紜 1
虢@@ 1
郃 1
Centr@@ 0.13310669160417385
cle@@ 0.02443005504366458
otr@@ 0.11489073764685714
桧 1
檳 1
漩@@ 1
緹 1
颤@@ 1
Airport 0.06067316106303715
Cot@@ 0.07485911024814389
about 0.0060624281700992644
asi 0.07244512849908301
ities 0.018766889334166027
onic 0.08009847810707202
wing 0.015112425553568651
ع 0.0528805354534888
怛 1
瑀 1
瓢@@ 1
絳 1
蝇@@ 1
Field 0.06561236559022346
bus@@ 0.016115346195403318
ous@@ 0.04445900701686256
ш 0.037803841603203756
噹 1
枚@@ 1
艘@@ 1
褪@@ 1
遁@@ 1
Cri@@ 0.05420741385555668
哗@@ 1
犍@@ 1
莘 1
蟎 1
錳 1
` 1
lim@@ 0.023396100903518912
polis 0.0525520994544829
ピ 1
悖 1
歿 1
綬@@ 1
蛞@@ 1
豚@@ 1
鯽 1
Cham@@ 0.08362504164105215
Rober@@ 0.07696573994743712
aff 0.10372327985189733
based 0.009813399737217546
tn@@ 0.05294174414388826
潁@@ 1
藐@@ 1
邇 1
锯 1
Eg@@ 0.09742045806415184
Stand 0.05612379512949713
Studi@@ 0.03437273900318092
aha 0.09274973439576065
kel@@ 0.03688008272911214
umi 0.1390948443306328
劈@@ 1
厨 1
洱 1
豊 1
贼@@ 1
Andy 0.11542283509536876
Cab@@ 0.047029219629866205
aire 0.006726758693573648
amin@@ 0.04660964591634552
lot 0.021344764762593255
vis 0.09019418750860408
哮 1
錠 1
Ken@@ 0.0783922488580054
県 1
賁 1
Stars 0.11234610890944788
Strat@@ 0.09447019560740967
aca 0.051340310370988504
ɔ 1
ね 1
涝 1
齧 1
Ross 0.09419249787765784
esta 0.012421065214292103
ś 1
愍@@ 1
秽 1
鵙 1
黒 1
Johnny 0.10126180623740955
Mom@@ 0.13039978507787295
elo 0.04203619877074117
ò 0.16069349244514344
剽@@ 1
藓@@ 1
陋@@ 1
Archit@@ 0.06822309393661286
Sak@@ 0.07494998583087885
elia 0.116588708057373
high 0.01105427399883017
ت 0.039465540116301795
啄 1
嫣 1
蹲 1
阆@@ 1
ck@@ 0.02981541485639189
­ 0.1579545352608471
燬 1
Imp@@ 0.08773640755122228
Sir@@ 0.09481358674637895
arp@@ 0.23045905342799408
bot 0.0573720064273819
む 1
燾 1
瑯@@ 1
篙 1
鹫 1
song 0.011148250604435432
trol@@ 0.04518650414271702
傈@@ 1
孖 1
瓯@@ 1
鯖 1
Nat@@ 0.06386356772633084
XIII 0.11122430946996738
film 0.005016108526473726
mir@@ 0.027869505327284404
would 0.004787522496000384
婢@@ 1
爨 1
龈 1
High@@ 0.07567164237100539
Long@@ 0.08321688665019723
Three 0.05504966547987282
gh@@ 0.047840457446160285
lang 0.029978616157405588
ports 0.022300753428339187
枯 1
氚 1
Anti@@ 0.04010965339032118
Bruce 0.09488302397971939
ected 0.009570677441645553
pot@@ 0.01779751767986245
ð 0.939672727660631
晒@@ 1
筠@@ 1
Boul@@ 0.0719567316777463
bon 0.033706140980945445
mak@@ 0.020100006219410892
pon 0.059764066220984666
site 0.011287458329736346
station 0.00962670388355453
唁 1
槎 1
瓒 1
痒 1
繆 1
諺 1
Kl@@ 0.024063200670184585
Ni 0.4267722491569021
ments 0.015469581858720485
pro 0.04602441033883936
sem@@ 0.015296151037873075
儼@@ 1
旬@@ 1
煊 1
癫@@ 1
秃 1
覓@@ 1
Cand@@ 0.16238935974374746
Gordon 0.08257701559301288
lon@@ 0.12114043284907951
倻 1
Kot@@ 0.13223242893245243
Ober@@ 0.0144600504812553
district 0.013576775978862459
ector 0.10047334102911352
odi@@ 0.03351147324308631
拯 1
煇 1
軫 1
麋@@ 1
Benjamin 0.09319001897301654
Maz@@ 0.07104851730202341
Nak@@ 0.09808156351844464
astr@@ 0.029303048839915007
din@@ 0.03164630019119654
hai 0.026940568426533612
there 0.00651872051525772
ぶ 1
彊 1
辙 1
Adri@@ 0.07881414845857722
oon 0.0726344744337572
serv@@ 0.015465132432008461
stone 0.031832332156485316
凑@@ 1
睪 1
蝉 1
赚 1
魅 1
鸳@@ 1
August 0.006431920594141359
Mountain 0.06691900773939818
board 0.02682066396718843
onal 0.023227551243113053
匱@@ 1
妞 1
暐 1
矽 1
Jar@@ 0.08274417485302402
Republic 0.03166152546945005
ancy 0.05066828170626541
ges 0.017488931911797734
ishing 0.022523571914357082
ku 0.11027637224677612
ร 0.08283032900938583
卞 1
坠 1
殴 1
烨 1
聶 1
Creek 0.044976696370058855
沸 1
瘍 1
Diam@@ 0.11156695014134028
Eli@@ 0.07488079276798343
Hir@@ 0.05139869301720264
Hospital 0.04726280435489671
Tab@@ 0.05327009352233369
cont@@ 0.009616504183469507
han@@ 0.06238834997593565
umb@@ 0.032172841258651344
俶 1
朽@@ 1
萎 1
萼@@ 1
Glo@@ 0.10371556892880052
Lat@@ 0.03188044657710131
More 0.07844679204634947
Nik@@ 0.0775533883302571
aud@@ 0.04967320682232477
three 0.005349617222789002
骧 1
鲀 1
龢 1
Tap@@ 0.1562256856849696
ands 0.017301604411132716
bol@@ 0.03969550651425272
teri@@ 0.044056654156650776
蝌@@ 1
Fort 0.04243036884295104
asp@@ 0.02974410205825924
example 0.024257225854377312
ily 0.032435171009133325
mol@@ 0.0277790140783866
rie 0.05434976761492094
tol@@ 0.03346566021871477
窺 1
薦@@ 1
邳 1
鴦 1
Jonathan 0.11552494945331447
fas@@ 0.026843231598138652
ores 0.010502286817417845
愧@@ 1
緞 1
Ann 0.10573205815688243
Kel@@ 0.07222556147488617
boy 0.06172544527867443
child 0.03776004581327998
news 0.05180445102974188
sional 0.044942656962389034
ution 0.02821327205661911
乖 1
咳 1
惰 1
阯 1
癬 1
睽@@ 1
箴@@ 1
Alliance 0.09320375990335651
Rou@@ 0.04760471286926456
ches 0.011182654663944521
ologies 0.07753041428268642
拙@@ 1
覬@@ 1
諒@@ 1
锭 1
Commission 0.03684270380443798
Squ@@ 0.05497882911771621
Tour@@ 0.0290189333271064
bat@@ 0.016023572824192967
kw@@ 0.07037399717663434
nia 0.061313027534401356
olia 0.13219212651409198
radi@@ 0.03231048900054996
sions 0.01854478287878235
super@@ 0.01789181072321773
哑@@ 1
怠 1
违 1
閭 1
顒 1
驤 1
Ern@@ 0.052572698505139265
Soci@@ 0.05448271486728046
net@@ 0.04089984147825587
墀 1
揉@@ 1
蜚@@ 1
袍@@ 1
鉢 1
＞ 1
Git@@ 0.11036151185823612
Kingdom 0.03249644294745535
Temple 0.0770309711626706
aker 0.04942841569028977
י 1
ソ 1
檄@@ 1
淄 1
谎 1
韬@@ 1
Blan@@ 0.045483321665547756
Eri@@ 0.08967836616372334
Metal 0.12509243408252996
law 0.01596069458840286
傣 1
蠍 1
錡 1
Chart 0.1074149316276707
Wall@@ 0.05642717731785713
iz 0.07698188534017233
nov@@ 0.05689703592812659
rain 0.06780869178201872
she 0.004061998506679465
uti@@ 0.031216602743308723
▲ 1
ゲ 1
疱@@ 1
蝨@@ 1
餡 1
Arena 0.0949647573568442
Hur@@ 0.054974368476144814
enne 0.013714836710953622
涕 1
潑@@ 1
輒 1
鉗 1
閨@@ 1
Ax@@ 0.1255524543039755
archi@@ 0.07977285793516573
ardo 0.05492648502823443
second 0.006064229425509306
嬴 1
氪 1
籽@@ 1
胤@@ 1
蹇 1
韭@@ 1
Bla@@ 0.0971224364192863
Wright 0.10204214190117848
ei@@ 0.06865584321796174
osph@@ 0.06548728532065524
produc@@ 0.00785176534056254
ゴ 1
嗆 1
磊@@ 1
箴 1
纺 1
Gas@@ 0.05398915773521924
Mission 0.08932566346764245
eli 0.06621395876679081
eva 0.05987235661459287
lip@@ 0.05293475737657239
lit@@ 0.03054391261498803
pil@@ 0.019838931836516
ポ 1
奢 1
渺@@ 1
蓁 1
蚯@@ 1
觐 1
阈@@ 1
隗@@ 1
韌 1
鳌@@ 1
Mam@@ 0.11284344594903926
Wilhelm 0.04106042795640213
hard 0.03348830801560345
liv@@ 0.039849166545790994
vid@@ 0.033673140967303464
娇@@ 1
弭 1
怯@@ 1
晝 1
曇@@ 1
曖@@ 1
杖@@ 1
Brad@@ 0.07380858707202087
uss@@ 0.02001442833517462
ザ 1
儋@@ 1
晕@@ 1
疮 1
蓓 1
蕊@@ 1
觅@@ 1
軋 1
铰@@ 1
----@@ 0.86347086343413
Hop@@ 0.08679721847983604
eer 0.0356119299880072
棗@@ 1
氈 1
Modern 0.08628274857459772
Pep@@ 0.11440551525987523
Second 0.034343891728761664
燼 1
玮 1
锷 1
Canada 0.01567362333335009
Sat@@ 0.05165306838596899
eil@@ 0.05161486913896299
挚@@ 1
挨 1
歩 1
澧 1
瞎@@ 1
靚@@ 1
唆@@ 1
濠@@ 1
粽@@ 1
藕 1
蹂@@ 1
Brand@@ 0.05047492443383175
Brit@@ 0.05650925473729611
Ny@@ 0.11040720843710405
through 0.00649012107516383
thus 0.03580812743471161
掣@@ 1
琢@@ 1
锟 1
God@@ 0.07669399550474189
Top@@ 0.08097756734080273
aron 0.008200078329558883
get@@ 0.025969028720762725
斟@@ 1
橐 1
洺 1
涓 1
箍 1
羯@@ 1
醜 1
雒@@ 1
Medical 0.06844916895740286
enth@@ 0.03619222389445312
esse 0.016591899266600627
mic@@ 0.10117398781262646
僞 1
嚐 1
烁 1
餾 1
Douglas 0.06998202921351057
Gra@@ 0.04297388263277027
Kas@@ 0.04229984851624143
enberg 0.044851992912362554
flu@@ 0.02717840057317612
san@@ 0.02494369794047969
ˋ 1
妨 1
搗 1
樽@@ 1
炽 1
糠 1
蚪 1
鄔@@ 1
Domin@@ 0.04799859414872525
Hav@@ 0.04163284243358878
Jimmy 0.0919118532762416
She 0.0057196927457118215
When 0.014758169009008035
bot@@ 0.020472270040113552
ority 0.02887438386833441
rich@@ 0.01704111597869561
滎@@ 1
竖 1
郯@@ 1
Eth@@ 0.06963152473018532
Ng@@ 0.05491133965373786
arren 0.0806532105844878
osh@@ 0.07954533837274591
set@@ 0.04955008286850407
絆 1
莿 1
阎 1
霏 1
鱔 1
Bec@@ 0.03588422768446135
bie 0.05188457861503526
gener@@ 0.014154199633576064
people 0.007181027221946004
tran@@ 0.030641517126904966
曷 1
煲 1
琏 1
脲 1
鮪 1
Green@@ 0.061516569304593025
Moore 0.07918051818977222
Pav@@ 0.07585911699408054
Singapore 0.08420612260307692
咁 1
徭@@ 1
蠔@@ 1
Eas@@ 0.11385794126801853
Kap@@ 0.03816499285182178
琢 1
膾 1
鑾@@ 1
Khan 0.06631047786502564
acid 0.09749624706005496
mun@@ 0.027586339863377888
ords 0.02644004206326021
when 0.004428861076411059
∈ 1
ぐ 1
喷 1
Oper@@ 0.04448829364225964
dres@@ 0.028767554375897734
ering 0.02197308390662925
imi 0.07651321063127584
wr@@ 0.03613815574002737
zy@@ 0.04219408323977274
劭@@ 1
蠣 1
鞘@@ 1
颢 1
駝@@ 1
Army 0.017619171455856536
Emer@@ 0.07696894346414883
enia 0.21781154493253066
玥 1
瑩@@ 1
謫 1
赭@@ 1
Bak@@ 0.05586488714284861
Flor@@ 0.04614286167466838
Sph@@ 0.1952297432250117
Wag@@ 0.07220261546026491
edo 0.04158958986578216
wi@@ 0.03216999984150627
秤@@ 1
郓@@ 1
Zen@@ 0.0886905671358084
dra@@ 0.016671191202468294
eni 0.07639736166426926
啸@@ 1
汨@@ 1
溟 1
舶@@ 1
袜@@ 1
铍 1
雹 1
頹@@ 1
plus 0.003797780631933261
top@@ 0.043117234059357336
ά 0.030855858583555808
勗 1
殆 1
谛 1
阀@@ 1
Florida 0.03232768560996957
Frederick 0.07946050680730332
Ian 0.11343533295238682
each 0.010076171288057613
former 0.008909383073536196
oli 0.0882218645518165
qu 0.02622202550838962
崂@@ 1
犢 1
ric@@ 0.0387666900556199
vic@@ 0.014305960499582805
暠 1
耒@@ 1
詰 1
铮 1
頤@@ 1
Associ@@ 0.0832655346725904
Bru@@ 0.03480584790772072
Sa 0.042452120988572414
band 0.010170863006696092
chil@@ 0.04449653705999946
lands 0.0157759941089547
≥ 1
宕@@ 1
糜@@ 1
din 0.06951470676523627
volution 0.06661680777952536
０ 1
Asian 0.04724240768906659
kan@@ 0.023357768107252458
rop@@ 0.09300673039400728
勰 1
嘆@@ 1
爰 1
瞬 1
竞 1
褻 1
鈷 1
Beach 0.056785375977932435
Jack@@ 0.08921089736206708
igu@@ 0.03190107731480037
碗@@ 1
稹 1
繭 1
讫 1
跖@@ 1
躁@@ 1
逗 1
Russell 0.0880624200669494
ember 0.06489238017012451
level 0.018039837934569928
uke 0.0818658442554977
へ 1
燉 1
痹 1
粪 1
蒿@@ 1
诃@@ 1
dez 0.08806436635621592
mul@@ 0.026988104930470026
ony@@ 0.04399304566354925
淩 1
絢@@ 1
縉 1
録 1
陡 1
March 0.007922103822809301
alt@@ 0.01594959912708783
eas@@ 0.0275967064105482
eck@@ 0.02547492803444762
etti 0.04822949929009745
loyd 0.07861927279822024
mini 0.1302740920181673
疃 1
铬@@ 1
鬃@@ 1
Cav@@ 0.060993215769204086
edia 0.12389643570269708
fication 0.018413551915993278
kt 0.015134106012869592
nus 0.11299345685385088
press 0.04555118846961265
such 0.005120488603921215
喱 1
朐 1
洒@@ 1
灝@@ 1
蛻@@ 1
鶘 1
麝 1
Yel@@ 0.11232443286242014
aer@@ 0.04959147529044156
annel 0.050432749389890785
power 0.016083368876907547
潢@@ 1
砜 1
Id@@ 0.06012162629484388
Lan@@ 0.0407651321309898
Terr@@ 0.07127687353889099
ads 0.025859272271798052
car 0.01332581599429357
doc@@ 0.02212375063445293
kil@@ 0.026834848985717343
pic@@ 0.022358228265454107
ving 0.016917626733079526
囂 1
塱 1
隅@@ 1
靡@@ 1
骅 1
Lap@@ 0.14142329038441978
abl@@ 0.029318818471498555
fe 0.01858751584806062
ists 0.010120264701996009
nom@@ 0.022404225323677633
sit@@ 0.019639360257834644
孃 1
帘@@ 1
瀑 1
疹@@ 1
靛 1
鳗 1
Fir@@ 0.07454779008145129
Oli@@ 0.06027184131912852
Tot@@ 0.05635274065113726
aut 0.015988291140537167
edom 0.05663821522868433
tronic 0.0728887489357548
χ 0.32167338149784697
獼@@ 1
鈹 1
ades 0.01536968154790951
home 0.01039653688910866
厩 1
揉 1
暄 1
碓 1
芩 1
蚺 1
誇 1
赌 1
辎@@ 1
閤 1
Aff@@ 0.038896392525209246
Sarah 0.08154229267708384
ido 0.006516140407444315
ron@@ 0.03372814699171012
ベ 1
娼@@ 1
枉 1
竣 1
Wes@@ 0.04289493779196752
afe 0.11177987257645984
amo@@ 0.04491833803293384
anci@@ 0.02037526011864308
iti 0.0763024995587416
opus 0.18241942476695708
晩 1
沢 1
眩@@ 1
虜@@ 1
輋 1
Rhy@@ 0.11950415733349203
Scar@@ 0.09785719976291614
city 0.008153508355011472
dre@@ 0.019116482424561158
proc@@ 0.022867621863106483
series 0.0071061648341125576
soft 0.15043563097134252
vention 0.024567564079957808
甩 1
簪 1
谟@@ 1
album 0.005427584457008006
lag 0.022172538066869387
quar@@ 0.01518347442011161
tou@@ 0.02945264959951474
® 1
徳 1
昉 1
樵@@ 1
氡 1
沮 1
溼@@ 1
痫 1
Eff@@ 0.08245611001517271
aco 0.047670134042787124
andra 0.13066205820508303
heim 0.030388046210050142
lad@@ 0.030785204611071235
may 0.00740520601339726
shi@@ 0.025889887866306548
△ 1
愁@@ 1
捞@@ 1
橈 1
潦@@ 1
濮 1
筊 1
钠@@ 1
him 0.004883803447779726
ld@@ 0.049346298808439396
que@@ 0.03714569510399378
ギ 1
们@@ 1
儡@@ 1
柚 1
聳@@ 1
菖@@ 1
龚 1
Let@@ 0.07326249289678936
atis@@ 0.03237668195120922
neg@@ 0.01583474385514854
咯 1
恍@@ 1
氘 1
猬 1
胀@@ 1
钛@@ 1
alg@@ 0.01956188114679711
ked 0.012622814614961411
lim 0.05750886947639363
oper 0.06645825209928828
school 0.007455710936758058
朮 1
樺@@ 1
痊@@ 1
耸@@ 1
At 0.009147066937355612
Billy 0.08982558482958342
Oliver 0.09929711882841986
Profes@@ 0.04401700962080532
format 0.04538702830222567
蝮@@ 1
覦 1
鲱 1
Europe 0.014112775507991403
Trin@@ 0.05107009581098009
aining 0.023085423676533857
show 0.011763219908264868
trop@@ 0.05966290701142773
Á 0.22323135572352712
蟆 1
軛 1
骸@@ 1
Abr@@ 0.05354407655610226
bat 0.05327281545950612
fo 0.06623889987169176
凪 1
莢 1
锈 1
闢@@ 1
Giovanni 0.0955179667251396
Pear@@ 0.08328903333899876
Termin@@ 0.10668579574444059
dal@@ 0.046342957874693544
ophyl@@ 0.25355302306621824
び 1
嶷 1
甌 1
砥@@ 1
篩 1
隣 1
There 0.009350369428661309
Um@@ 0.018222751758692105
Universal 0.0949003046134485
chr@@ 0.04962429129286367
imal 0.05239203425999578
year 0.004427802538416131
½ 0.2308048563858718
妍@@ 1
鱉 1
lery 0.04965990294602553
ό 0.029883278508784004
ヤ 1
恼@@ 1
憚 1
捩@@ 1
疤@@ 1
竑 1
鰓@@ 1
Cru@@ 0.08213800044875773
Gard@@ 0.07541910810812387
ango 0.06240680985370019
away 0.019906073381431136
chan@@ 0.028558287115323107
mut@@ 0.02668308379822928
result 0.020500333960800688
ˊ 1
伉@@ 1
冑 1
擋@@ 1
汜 1
玷@@ 1
窜 1
腌@@ 1
鳐 1
major 0.011847549714783741
pas@@ 0.012611284755455589
prim@@ 0.011395868292332193
圜 1
撼@@ 1
滷 1
漂 1
阗 1
鴛@@ 1
Spar@@ 0.0748126834622184
Ten@@ 0.06763372778431662
Willi@@ 0.07387064373731685
ded 0.021478156088182713
pos 0.02698713532974615
ved 0.008461787698879245
ه 0.02563565277724551
淖 1
甥@@ 1
苇@@ 1
Michel 0.05263173210967854
eps 0.0692426236749091
multi@@ 0.03954643187633248
ough@@ 0.031032970452789573
ぎ 1
坻@@ 1
寥 1
巩 1
疤 1
萘 1
觐@@ 1
Bun@@ 0.066672831804681
Ele@@ 0.08482871358860175
Tokyo 0.06236294062533676
lers 0.020901705455833315
other@@ 0.04622546032139468
sign@@ 0.020741079119522072
屁 1
瞎 1
紇 1
諫@@ 1
賬 1
钕 1
钝@@ 1
Daily 0.09503374769275162
Ec@@ 0.07621213336804075
Fa@@ 0.07416115730552952
Thompson 0.08859891722263172
bac@@ 0.038862431361140266
family 0.006401395298123498
umin@@ 0.0388590810008493
旷 1
訛 1
訢 1
譙 1
醞@@ 1
illi@@ 0.060642883154783375
ons@@ 0.020022951312006862
pur 0.07635014486795383
ram@@ 0.04025563148327407
vin@@ 0.029773372779789458
櫥 1
燙 1
窥@@ 1
Fas@@ 0.07521816675182351
Hab@@ 0.03669821165259986
Orange 0.09568436735266257
wa@@ 0.04319737949161791
war 0.0018453644821682083
廨 1
皋@@ 1
簾@@ 1
荐@@ 1
銫 1
Aqu@@ 0.06809953694081604
Law@@ 0.07502413197917757
ential 0.022894182585625544
les@@ 0.018666870004776095
揄 1
琇 1
筵@@ 1
飙@@ 1
鳶 1
length 0.03383104661927809
lins 0.06455130713609927
sea 0.024179057332071825
tain 0.01307112724503345
usion 0.06455009144244028
wil@@ 0.030065369852263928
疲 1
谚@@ 1
谬@@ 1
赟 1
Conference 0.038214042725914575
England 0.013117032252523048
Hyp@@ 0.17667916794178207
agn@@ 0.02679091577085751
auer 0.025072138633359053
ennis 0.10200554092499463
say 0.048048573224125826
tal 0.027473124576353092
ui@@ 0.09042350168654453
咕 1
嗚 1
挽 1
畑 1
祟 1
耙 1
蚶 1
褚 1
贅 1
Dead 0.1101640808728833
XI 0.09818205501023985
aye 0.04516370200215228
ento 0.017485800692004658
neo 0.07505986332220159
ose 0.030702553521456892
ostr@@ 0.15666888977476204
tron@@ 0.038124034718497984
zone 0.030409065453864598
ペ 1
俏 1
傕 1
攣 1
朦@@ 1
珲 1
瑯 1
缙@@ 1
Single 0.09030447104173867
Vari@@ 0.04389468812079152
bol 0.047915050836132074
ended 0.009661014362450112
gene 0.0563370539443811
page 0.04490541091904499
棧@@ 1
韧 1
鰨@@ 1
Mar 0.12186318763180655
Plan 0.07610128899579466
Stand@@ 0.03860565626466456
gal@@ 0.01886968718017543
igh 0.06451535171724036
ott 0.06348833395958604
ples 0.014177324530337402
put@@ 0.020023674344515154
र 0.029527226094160693
諭@@ 1
Alabama 0.0743086607655215
Carol@@ 0.07545185397925297
andi@@ 0.05976567422000448
lob@@ 0.03448823602288108
omb@@ 0.04742423753854906
oy 0.06310556977124425
plan@@ 0.013792957237754063
棗 1
炅 1
璀@@ 1
鶇 1
＊ 1
Roman 0.022641576791443584
da@@ 0.06428018588463082
fish 0.04485216734928403
ges@@ 0.010707738970982567
hua 0.12416478937446589
豺@@ 1
鼱 1
Guy 0.09285947814484706
Lawrence 0.07878786950294392
control 0.016571426250442188
eu 0.026534231735323294
ize 0.02814565186295491
ken@@ 0.01630054086278783
kno@@ 0.024187239238120883
na@@ 0.0591210075155128
pus 0.12721915198521452
ž 0.6407691493610378
挟@@ 1
檄 1
笠@@ 1
覃 1
Cou@@ 0.0804515889843079
Ferr@@ 0.051147270213937376
Luis 0.038562207615635787
Nag@@ 0.04849641042727112
Television 0.06469207533382423
ו 1
扛 1
蜢 1
鎢 1
钋 1
鯔 1
鶲 1
｜ 1
Luci@@ 0.08435663197890805
Riv@@ 0.09539198101467583
Vincent 0.0817610222744839
dig@@ 0.01640190154953461
仡@@ 1
玘 1
痢@@ 1
蠢@@ 1
鈞@@ 1
Brothers 0.08823624975464255
See 0.047584979290382676
ben@@ 0.015766577015799373
cia 0.043690733832220045
lay@@ 0.037334872813668714
lu 0.06849763036466938
mus 0.10015845452009826
ş 0.1083536780030758
悯 1
鮎@@ 1
Kil@@ 0.04593049112705031
Vas@@ 0.06260606003191495
Washington 0.016595754992565787
van@@ 0.051798158833526356
俨 1
晗 1
炊@@ 1
窿 1
鄜 1
镠 1
镭 1
conn@@ 0.01086600655423226
gar 0.0326265478083206
rup@@ 0.018951706661848436
tak@@ 0.030053605758412278
勣 1
孪@@ 1
Chin@@ 0.09477569430820418
Jordan 0.07952716877943361
Lem@@ 0.08213338644248044
ias 0.03511599055977931
sed 0.01350705803124497
templ@@ 0.07218619052828013
́ 0.011728321812242492
Ford 0.04903587433656672
dev@@ 0.01023207741579215
睫@@ 1
锆 1
闾@@ 1
Death 0.05337403320138861
Version 0.08138200797746048
orient@@ 0.033792640313987404
osis 0.04799727141943685
Л 0.06661638809300126
箐 1
蔴 1
Day@@ 0.10578485642219627
Memorial 0.0603463246798758
hydro@@ 0.044805252247921916
lah 0.07565707820138695
nik 0.03454464885030273
ues 0.015183909790303745
阙@@ 1
Revolution 0.054934565974459004
Songs 0.07559618357293126
break 0.04076373494684779
good 0.02460421487824519
mon 0.09109448036763883
铟 1
锣@@ 1
Ji@@ 0.0747996104319043
Se 0.012727364518933916
cine 0.03235428566468249
ecture 0.034465177711181065
minor 0.047530160857768504
ulation 0.03490339115695329
↔ 1
镧 1
Benn@@ 0.07490459872866695
Stud@@ 0.0452893960923938
arius 0.14836277623768337
edral 0.04548537826898041
ffer@@ 0.053510007198025435
ister@@ 0.021611257847563285
itt 0.06449170273423366
nic@@ 0.11444657094159823
phy 0.04371793584728281
ヒ 1
啞 1
钵@@ 1
Mb@@ 0.5374704746875402
Od@@ 0.08013262884367622
between 0.00435204720100935
cio 0.03086518420973486
fic 0.024637309180039573
ogen@@ 0.06214103269025303
sm@@ 0.024169596267118964
丟 1
锶 1
Hat@@ 0.07829783261761125
Hud@@ 0.07737658746360883
Syl@@ 0.08601104155543632
esi 0.02572636929382185
ingen 0.012178206884464712
olas 0.06451829314128726
囑@@ 1
寔 1
揖 1
芪 1
銹@@ 1
Album 0.03453349401568443
Frances@@ 0.08495632816521027
Ras@@ 0.07553779985536316
Robinson 0.08646406560567477
mos@@ 0.04321985165580433
咱@@ 1
拚 1
泫 1
鉻@@ 1
＜ 1
Charlie 0.08574755230932803
Franz 0.046102409737199763
dro@@ 0.01919546272335353
ư 0.11755110368485405
喂 1
滄 1
発 1
舂 1
钗 1
闺@@ 1
Community 0.056017884396148715
Gul@@ 0.04859181100585195
Jacob 0.08199519089628624
Vor@@ 0.0068054592102782885
alist 0.01595462509579109
contr@@ 0.007347878679538036
elen 0.033853515675001306
isch@@ 0.013842381808179875
叱 1
塬 1
摻@@ 1
熏 1
聳 1
蛄 1
谘@@ 1
遏 1
騫 1
Apo@@ 0.12631541753657807
Harr@@ 0.061001377691705064
Ot@@ 0.027016406888473933
eb 0.08252171244313936
fan 0.052339223304719615
oman 0.08138148753028297
ˈ 1
弈@@ 1
惩 1
橡 1
淦@@ 1
灏 1
畈 1
篷@@ 1
藨 1
钺 1
雉@@ 1
Bish@@ 0.04152142263730732
Mut@@ 0.061642812818725454
Yan@@ 0.08182074401479343
road 0.013206951483034225
ump 0.11277943194437343
ː 1
愔 1
漓@@ 1
釵 1
锌@@ 1
Lav@@ 0.06703428202967408
avi@@ 0.024370321836443557
four 0.0066906122652053155
hand@@ 0.010862204795573005
kers 0.022911850187774738
ment@@ 0.022765168027021374
oty@@ 0.05611205032466175
吶@@ 1
岬@@ 1
戊 1
葦@@ 1
飆 1
Extr@@ 0.10436856067861619
Petr@@ 0.06983351842177948
Toy@@ 0.1045047562249916
eral 0.030080863663389946
ische 0.004003623889700306
儷 1
悶@@ 1
摹@@ 1
綝 1
驢 1
鷲@@ 1
Fres@@ 0.08896625532313243
Water@@ 0.07222742996663396
line@@ 0.04759414825587168
ography 0.013713410254234115
plo@@ 0.09027872377263849
press@@ 0.03765296133732629
them 0.005971276433524671
喔 1
肱 1
脛@@ 1
芷 1
荳 1
贲 1
镌@@ 1
French 0.011166481488134296
Harris 0.07611664042083306
Norman 0.08660721719023484
Southern 0.03310816045648483
傍 1
棣@@ 1
殮 1
涤@@ 1
簋 1
袂 1
躯 1
铠@@ 1
３ 1
Margaret 0.07257874312528048
Ner@@ 0.09948253797170345
Theod@@ 0.07034025597267114
abe 0.0346696825762796
crip@@ 0.027394521884617627
lac@@ 0.08706600298378203
mm@@ 0.09051750102874281
哌@@ 1
埴 1
嬤 1
廸 1
摯 1
汎 1
煒@@ 1
铿 1
Cad@@ 0.07121334290069958
Cast@@ 0.06313780083790753
edr@@ 0.0352768734959861
iner 0.048681874454414915
慤 1
扒@@ 1
毙@@ 1
濺 1
蝟 1
銬 1
Alexand@@ 0.05800096771466618
Roy 0.0782808176505272
峦 1
祆 1
綑 1
膊 1
菇@@ 1
菰 1
dol@@ 0.022965055851058624
mark 0.025678136982604596
冢@@ 1
剔 1
嘩@@ 1
笞 1
蔥@@ 1
阉@@ 1
By 0.015576863349266244
Four 0.05542194962058877
Nati@@ 0.03057714969790321
aine 0.013682459955887988
fs 0.02584513247916914
ས 1
惶 1
瑣 1
蓟 1
钳@@ 1
铀@@ 1
Ast@@ 0.07517382132587982
Lak@@ 0.0569455455090196
enge 0.036029258493731404
enter 0.035907371845159367
esia 0.07734106387178116
ique 0.011110703547460816
ock@@ 0.03650502722200539
sym@@ 0.043435874524934664
Đ 0.9148495863115215
绶@@ 1
Got@@ 0.02991394642173538
Thor@@ 0.07807551571269912
adr@@ 0.032100678608443914
elt 0.010758587591775226
ground 0.014315093621299223
lard 0.06739131703575577
Ö 0.22261054092213622
ù 0.15808563907527193
扯@@ 1
曰@@ 1
榛@@ 1
皎 1
蜑 1
酝@@ 1
骡@@ 1
Campbell 0.08297609077910284
Independ@@ 0.04229407345445752
aj 0.08598471267635938
team 0.004692759500667375
榎 1
珙 1
繽@@ 1
衬 1
袱 1
Ach@@ 0.05118287754062059
aves 0.015073063154662574
big 0.05013766450604211
cot@@ 0.04255819577020147
hen@@ 0.059029225605877804
uld 0.09193334804850407
惋@@ 1
揶@@ 1
芾 1
钍 1
GmbH 0.07201949244798965
ceph@@ 0.25084961477557877
kel 0.027091879389880526
num@@ 0.021709305066955353
戾 1
挟 1
礪 1
鞠 1
Fron@@ 0.104191455989511
Hus@@ 0.058011254290468606
Shir@@ 0.10154722526403408
ited 0.00832034477547141
mode 0.05949217119988489
拽 1
曄 1
渍 1
薙 1
譁 1
鏢@@ 1
飭 1
How@@ 0.08680529224479679
Pir@@ 0.05096707837291682
Trich@@ 0.1883941021628746
cyc@@ 0.07430762081765731
û 0.1472143535777126
ж 0.026471817699590314
刃@@ 1
嘢 1
涞@@ 1
瀟@@ 1
痙@@ 1
藁@@ 1
驭 1
Clin@@ 0.05626568432413648
aud 0.03795644866528972
lar 0.013143909282631622
park 0.02245241381513587
tt@@ 0.04340194901975741
吒@@ 1
毯@@ 1
獠@@ 1
粽 1
胛@@ 1
裟 1
顔 1
鲑 1
鹟 1
鹬 1
Mars 0.10119991205516778
river 0.025345027856611736
徠 1
腮@@ 1
袤 1
Augus@@ 0.04766743052952449
Government 0.026932446359374907
Hip@@ 0.1272093316952176
Way@@ 0.3026508434217498
did@@ 0.025162409796577002
eds 0.018674889220391983
esh@@ 0.04151356516332878
gia 0.01925732199517686
gun 0.04563669773464967
臍 1
薈 1
蚩@@ 1
诋@@ 1
郤 1
霆@@ 1
Alb@@ 0.03298771608629346
Bour@@ 0.050694120054980286
Fon@@ 0.056979571612118814
Heinrich 0.03731946309618181
Major 0.036844884768192795
Sciences 0.05261285205871153
They 0.007363800804478715
ern 0.006570813285536266
fort 0.01528916277495789
isi 0.026804525831744017
istic 0.030240695397322496
owski 0.06606720388355614
ska 0.07395525338557767
vit@@ 0.03826548489366765
吼@@ 1
堑 1
曳@@ 1
缨 1
蟀 1
Cass@@ 0.06164373421415504
Cher@@ 0.0691244046870058
oft 0.04456673180612927
铈 1
리 1
﹔ 1
Korea 0.04866252481214302
Rach@@ 0.0976054115369309
Xi@@ 0.07924941067226668
Yam@@ 0.07725806672517116
aks 0.0420959057120766
ames 0.04590530877417178
being 0.005027686105972508
ement@@ 0.035087731486932734
gel@@ 0.0061876404028636985
hel@@ 0.021446955329715616
onna 0.08120854405327028
sian 0.048916827687224294
stre@@ 0.015129591738109618
岙 1
枇@@ 1
楸 1
涤 1
翘@@ 1
辄 1
錕 1
钏 1
鸯 1
Australia 0.013244660927258838
Hit@@ 0.08335701298362815
fic@@ 0.013435098805429476
lib@@ 0.04222594613681981
ross 0.13100663359713874
uni 0.09342110323553908
У 0.029507693574347158
夙@@ 1
挹@@ 1
淘 1
萘@@ 1
锺@@ 1
馗 1
KK 0.22322707735662814
King@@ 0.06491696454363016
Leo 0.0946776802763497
Morgan 0.07173457350020454
Police 0.04889063300465501
gan@@ 0.02116805401035222
ingu@@ 0.038411175052300815
open 0.020395265336154444
sam@@ 0.03525158875223671
ski@@ 0.06597838358868847
坻 1
増 1
擄@@ 1
皺@@ 1
绮 1
鳟 1
Pow@@ 0.06221635214161403
Suz@@ 0.09116597152390259
chu@@ 0.09023017963973076
led 0.005311226010123605
両 1
冏 1
宸@@ 1
屑@@ 1
嵙 1
謇 1
钮@@ 1
阡 1
Esp@@ 0.038897426140341744
Mart 0.13670270808128293
Rail@@ 0.047313747413703984
Sax@@ 0.07688068004470824
language 0.01672404630883541
made 0.004167610376006702
吲@@ 1
哦 1
庠@@ 1
惣 1
氰 1
牯@@ 1
蓀 1
覲@@ 1
Hun@@ 0.0482588128595879
Il 0.0026279110904666872
Maur@@ 0.0493674306889924
cri@@ 0.011738489771624408
fle@@ 0.016954160145363474
pap@@ 0.015902754646776297
phone 0.049627104444133305
ˇ 1
佺 1
沱 1
篝@@ 1
蝸 1
NAS@@ 0.14270110942941833
Pom@@ 0.042639176975579264
Ster@@ 0.062359749053034715
gol@@ 0.02216704838659463
hr 0.07019866099563943
ka@@ 0.1135503218783527
position 0.008013865608224154
瓮 1
蹲@@ 1
錒 1
雒 1
Ball@@ 0.04107737502937709
ario 0.009374028439707189
kat@@ 0.031086701385174272
prin@@ 0.027967209941640155
single 0.008590870894111195
佃 1
佢 1
浒 1
燎@@ 1
緋 1
诀 1
钾@@ 1
Carolina 0.03031452206220624
Grande 0.041817698505620234
Rio 0.05135847271997288
aku 0.18030225565992936
ause 0.0271727797523027
ec 0.06701205945764438
make 0.013603332639669483
冇 1
祯@@ 1
靳 1
骞 1
＃ 1
Federation 0.05661122175160107
Fred 0.08671819957251044
Sad@@ 0.07844276412946227
Sali@@ 0.17087813307709301
lab@@ 0.021314472828125066
pon@@ 0.01633057537721474
ular@@ 0.0446939354283292
ï 0.08738443418783227
忿@@ 1
桶@@ 1
溼 1
紘 1
蔵 1
鹊@@ 1
Baker 0.08811817731134625
Wy@@ 0.06972807852051088
theory 0.03714523315088906
咩 1
坨 1
滌 1
舯 1
貘 1
鞮 1
鼬@@ 1
Abu 0.10365811037692386
Country 0.053629546895274854
Culture 0.06391472784751409
North@@ 0.03969183534829652
Pyr@@ 0.10652178316244854
dos 0.0064847564196674305
greg@@ 0.04711629082569076
isher 0.05546514910757193
por 0.0013460597940298945
ʔ 1
垠 1
惱@@ 1
暘 1
硝 1
诩 1
Contin@@ 0.06548809865913185
Lic@@ 0.09578580949623425
ledge 0.042084268493080904
sing@@ 0.027651414560865086
弑 1
掷@@ 1
攪 1
杷 1
蠶 1
鄲 1
Otto 0.04771228057223985
cro@@ 0.011865487990452736
gn@@ 0.06006495600572396
known 0.004315062477859344
obi@@ 0.0851909437131681
¹ 1
淪 1
Empire 0.023629489591489163
Fab@@ 0.06530448639779372
aten 0.011057345111435853
oll 0.07411145275678373
thor@@ 0.06455121347253835
vec@@ 0.04420829236887507
凄@@ 1
咖 1
磯@@ 1
缎 1
陟 1
Marc 0.0716660869005947
Priv@@ 0.06349703264436031
inga 0.12492098581920333
ligh@@ 0.016387047350778308
挾 1
盯@@ 1
缢 1
肘@@ 1
葶 1
铲 1
颉@@ 1
Con 0.033202058088246715
Mr@@ 0.06772531797521561
Nep@@ 0.07943586046572536
alis@@ 0.012642098991890362
hum@@ 0.012113789004807834
hur@@ 0.037326688230314764
ident 0.014285696665434541
kir@@ 0.03570872815656448
rati@@ 0.021943702782956605
ris@@ 0.01842114005130477
vor@@ 0.005201324179002767
喹@@ 1
拗 1
挚 1
梆@@ 1
樫 1
禛 1
筛 1
膿@@ 1
鉻 1
Nas@@ 0.07813535696410319
Neu@@ 0.02563111672832439
Tes@@ 0.11469725882632838
chen@@ 0.03391244949912941
ń 0.14711581976008054
哄@@ 1
哚 1
磘 1
Earl 0.057920954527898104
Henri 0.04397587446681845
Nan@@ 0.09832494607757755
Pedro 0.038764224493472076
agon@@ 0.04723216061572722
but@@ 0.033477184885966106
icia 0.039853955974476364
image 0.03679658210283971
kal@@ 0.023470990495935214
侮 1
坯 1
斌@@ 1
槻@@ 1
烛@@ 1
鞏 1
骇@@ 1
鳉 1
Four@@ 0.07309076471780411
Isa@@ 0.07649922404777497
Neg@@ 0.054378582042584826
asc@@ 0.02809073866567054
eing 0.04431992271014342
nh 0.18514566488436554
㎡ 1
冼 1
岂 1
忻 1
羿 1
鏖@@ 1
鮈 1
Di 0.1334067784784822
Railway 0.031417820025207085
che@@ 0.039187701764884224
fun@@ 0.015449416456853765
web@@ 0.03243646491434272
垭 1
嶇 1
幡@@ 1
忤@@ 1
暉@@ 1
殉 1
璐@@ 1
脩@@ 1
苕 1
蛎 1
褂 1
訇 1
谯@@ 1
贪 1
蹼 1
April 0.004934558253098711
Secre@@ 0.028884182752154295
asse 0.028684158338062017
dale 0.058915037778879596
odes 0.026196278801219684
tam@@ 0.024915264744067533
嗨 1
玑 1
郗@@ 1
鉚@@ 1
５ 1
Northern 0.028534382386984077
Stewart 0.07509993699523038
eder@@ 0.027451203800195285
rez 0.04943517120230741
stream 0.04097927318792812
trac@@ 0.019142698438241547
岘 1
淌 1
熔 1
眙 1
蜷@@ 1
逛 1
钌 1
顫 1
Bell@@ 0.07239956705858742
Card@@ 0.05413073434149938
June 0.006604691633115829
Rid@@ 0.0727830590498541
Satur@@ 0.05039534115788559
hav@@ 0.027427474220071437
刎 1
勲 1
繙 1
茛 1
蜗 1
袈@@ 1
铼 1
閎 1
鳕 1
Geor@@ 0.04635561968481808
Haz@@ 0.09656875631906514
etz@@ 0.013587169263360791
process 0.020676273559639885
実 1
苋@@ 1
鉄 1
Gaz@@ 0.08191018815249367
ender@@ 0.06178681571277255
imo 0.06673908599941739
rid 0.07488999684372136
spir@@ 0.021447086931318683
uki 0.08049315608286708
wen@@ 0.014926240195779253
儼 1
垛 1
睢 1
絆@@ 1
綻 1
羨 1
郜@@ 1
鈍@@ 1
饬 1
Mey@@ 0.06822464040244315
Raj@@ 0.04358123746487223
cial 0.024582781422871795
ingham 0.03479033513852884
pers 0.04573545529111225
嘱@@ 1
恣@@ 1
昙 1
淼 1
穰 1
贓 1
鳢 1
Ernst 0.05328868072181315
bank 0.02845786875700734
stat@@ 0.011339092018373445
ý 0.04287545773133966
น 0.02523762732835352
挛 1
罌@@ 1
锰@@ 1
饅@@ 1
Forest 0.0521733074353644
Las@@ 0.08404098885304333
ouse 0.05074197028108981
ホ 1
唸@@ 1
瓌 1
餾@@ 1
oti@@ 0.01947618390478783
track 0.01512726468999607
ì 0.12078479915694013
曠 1
猗 1
釗@@ 1
鯡 1
Gem@@ 0.03848055715347639
ilia 0.08185853360803294
ini@@ 0.04837797909897776
mad@@ 0.027040694495734742
sul@@ 0.04546771700658347
亵@@ 1
凜@@ 1
勻@@ 1
曙 1
樾 1
澡@@ 1
牍 1
翹@@ 1
蒾 1
顼 1
鯓 1
Brig@@ 0.0309309027149543
Psych@@ 0.0669752162084384
aut@@ 0.01504574407441761
det@@ 0.009620845616506842
eto 0.02170626459983296
eton 0.046301803573211384
oug@@ 0.04377901981318766
pass@@ 0.009047323410674444
墉 1
憨@@ 1
汴 1
澆@@ 1
琚 1
璩 1
蜕@@ 1
鍬 1
铢 1
髅 1
Hamilton 0.050784916323479944
att 0.05531102691338404
ischer 0.0076998214427427495
zu 0.0014892297781185322
懈@@ 1
樋@@ 1
繃 1
综 1
羈 1
躄 1
ayan 0.06873976719962781
final 0.006675622555404888
indi@@ 0.016096517388021106
species 0.008711024126300341
tun@@ 0.025810593459572404
捻@@ 1
晔 1
烽 1
詡 1
鈽 1
Amp@@ 0.1148160849318545
Duke 0.04307136364882611
Fur@@ 0.03517110410213119
Gom@@ 0.10827145465048058
Hollywood 0.049726851660859724
lus 0.11389963700228982
refer@@ 0.01589381484143899
rier 0.04673346924749913
げ 1
姫 1
獴 1
謐 1
鯧 1
Andre@@ 0.06753135093263907
Brun@@ 0.039682227401958765
Capit@@ 0.06070196518256689
Emp@@ 0.05173842582421055
India 0.012368274155624004
lion 0.025276559877993616
zz@@ 0.0695281110093048
ξ 0.4517558989829435
ة 0.024841263725659167
ق 0.04103077311244177
孰@@ 1
岀 1
憊 1
浔 1
詮 1
鶻 1
Front 0.0570043927506723
Ja@@ 0.06669502776687952
Nelson 0.06878125311119719
Seb@@ 0.23519297115757298
ching 0.028710205086216557
exp@@ 0.0077324483961239135
gin@@ 0.0657947197027254
usi@@ 0.020675808811590975
俳 1
恵 1
椽 1
硐 1
绯@@ 1
脛 1
鉤@@ 1
锂@@ 1
Batt@@ 0.04796407832511828
Feli@@ 0.10531829629378633
Rat@@ 0.072414250429226
shire 0.018837831404664416
vil@@ 0.051329973467435515
喫 1
忤 1
Bang@@ 0.06870352224048987
Chall@@ 0.04832778599959901
Middle 0.040791288249413325
area 0.0058536023845448424
uo 0.07100520667437814
巻 1
淤 1
Concep@@ 0.09338906511132396
ion@@ 0.025294574074647982
udi@@ 0.055024548143795864
嚣 1
琐@@ 1
蟋@@ 1
诟@@ 1
颍 1
Asp@@ 0.10225072225954432
Ok@@ 0.04638558594570913
Shu@@ 0.10800002219138699
bau@@ 0.013362256824600278
thre@@ 0.02281296643134901
卒@@ 1
歹 1
絞 1
Flu@@ 0.061696583778756656
Gabriel 0.06483394035543084
aug@@ 0.04740202322165436
force 0.01711019280434032
gether 0.11334587826472557
lier 0.0336604590472216
nt 0.03805102000429227
潞 1
疯 1
痉@@ 1
鵡@@ 1
４ 1
Rud@@ 0.0700670610103593
gy 0.06886004082594782
ules 0.01866249139612136
ψ 1
坷 1
恽@@ 1
惺@@ 1
扉 1
揽@@ 1
瞪@@ 1
腥@@ 1
莒 1
钇 1
骯 1
Dir@@ 0.07269769364413055
Sport@@ 0.030363913854908765
Univers@@ 0.19626089582316378
Winter 0.044006937463492254
abil@@ 0.028147946008925367
arc@@ 0.03806002152274106
aro@@ 0.06458209534436307
bic@@ 0.061803872667277715
sequ@@ 0.022335312294556632
攒 1
邬@@ 1
郅 1
鲫 1
Bernard 0.05449699629655011
Det@@ 0.055537949342482115
Viol@@ 0.07786674181037032
ences 0.007874588885024528
kon@@ 0.008990816197345684
onne 0.019767804951207134
tar 0.03154143981001481
啾 1
懼@@ 1
擘 1
砚 1
豉 1
鼯@@ 1
aman 0.09579891264561818
ation@@ 0.06019377147773143
eign 0.021171104538496712
焗 1
遹 1
Bac@@ 0.07758380918282194
Bin@@ 0.12226838662642509
amo 0.05091288644348475
dam@@ 0.015891863329099313
ej@@ 0.015466643545412558
prob@@ 0.011414816937632874
sion@@ 0.035713648662709346
spe@@ 0.013242305975442702
僥 1
僳@@ 1
宓 1
掳@@ 1
溅@@ 1
迺 1
鷸 1
鹭@@ 1
Part@@ 0.07403327140629583
Poli@@ 0.04113691722548659
Stanley 0.06863080863312428
comm@@ 0.01062752667008934
omy@@ 0.16368973406567142
phon@@ 0.04223275362574485
stor@@ 0.015575644307438232
珑 1
睑 1
臆@@ 1
赉@@ 1
鮄 1
Val 0.0876428002589342
dar@@ 0.008560612233255561
kan 0.046691910133420875
tek 0.12609291643787554
ح 0.05046323141755174
椁 1
殯 1
籬@@ 1
Emil@@ 0.08634323266203707
Et@@ 0.03259461050896573
Schwar@@ 0.03840001557113304
alo 0.04428024844294777
ob 0.043126824517891474
糞@@ 1
脾 1
蜃@@ 1
謔 1
鎳@@ 1
閲 1
髯 1
Dist@@ 0.05749178507786149
dom 0.047273164236015755
昼 1
泮 1
莆 1
隷 1
鬬 1
鶚 1
Chi 0.11813478710835153
Pra@@ 0.04393581325749403
Rosa 0.08414179377953002
sia 0.11212645287138262
tain@@ 0.022486445922658423
仄@@ 1
烬 1
辊 1
飢 1
Beat@@ 0.08215399840100474
Doctor 0.056488083507156006
Premier 0.029293186629005933
Roy@@ 0.06477703488437105
Stil@@ 0.05859141710404333
esh 0.027986007186196368
fire 0.020031161588330425
ru 0.13354642737146305
solo 0.014513403422836262
儕 1
拭 1
枷@@ 1
楹@@ 1
汲 1
翩@@ 1
赃@@ 1
邽 1
Mark@@ 0.06758437877298748
Tir@@ 0.05800929540599431
arts 0.027724630201135164
chia 0.08284033450573397
drome 0.07541251367058266
eur 0.006729320758232841
thy 0.03165321716340825
wick 0.0605648374768712
yon 0.07836458946187229
侃@@ 1
嵋 1
彤@@ 1
徕 1
掀 1
摧 1
涧@@ 1
纓 1
蔘 1
轧@@ 1
郫@@ 1
Ou@@ 0.05868783060773324
Produ@@ 0.07473644837713463
bon@@ 0.02960783751642317
mental 0.022523744629092807
new@@ 0.028656963779312507
room 0.02194652473218443
vier 0.013897902651953365
嘶@@ 1
曦@@ 1
溱 1
漣@@ 1
眩 1
耸 1
鋤@@ 1
Lig@@ 0.05078873831079347
eling 0.04197596639530882
nucle@@ 0.03597865427349888
pri@@ 0.01549810446976666
proper@@ 0.04483521403573622
巿 1
槿 1
疙@@ 1
穂 1
钳 1
Chir@@ 0.10644192002260004
Lau@@ 0.04421855587582695
Wid@@ 0.058942917686343306
ebe 0.05450296036979406
ieve 0.03171616424992651
伕 1
喋@@ 1
懇 1
浣 1
舔 1
苜@@ 1
菟 1
褻@@ 1
蹊@@ 1
before 0.004861613151712339
eira 0.08637995677114507
elling 0.019013578119306956
enf@@ 0.012220805241094004
ices 0.013982348239466823
illo 0.028851545539051372
ils 0.0067749555108195
uter 0.027144903087891192
囓@@ 1
洹 1
讹@@ 1
Mass@@ 0.042018941059541196
侶@@ 1
劵 1
嘿 1
懾 1
罡 1
趴 1
Films 0.06783806437245864
Georges 0.05378151621439552
Kaz@@ 0.06522791051237445
Palm@@ 0.06490006574467624
ric 0.05078349275814114
wi 0.19240480667573012
奘@@ 1
汊 1
睫 1
竈 1
아 1
Colorado 0.04627703885929107
Vik@@ 0.046330388321013126
aborat@@ 0.0727323641898267
ander 0.054498594871342954
rue 0.032190244527299655
shar@@ 0.023280437172945992
尕@@ 1
崽 1
瘩 1
荼@@ 1
螂@@ 1
訛@@ 1
讥@@ 1
閡 1
靚 1
Epis@@ 0.05060556459384207
dle 0.025473447835848415
forman@@ 0.08981261195293601
ㄚ 1
俐@@ 1
咯@@ 1
嶂 1
幪 1
甑 1
绮@@ 1
蝮 1
詬@@ 1
酆 1
銣 1
駅 1
Aus@@ 0.004081428819235478
Buff@@ 0.058348605011914675
Clu@@ 0.06802622182361864
EU 0.05859702314154606
Justice 0.0374189336622143
Raymond 0.07690558346032458
arian 0.022428193322505566
cole 0.38948300899483157
iter 0.018886204637323364
what 0.01033121492272155
Γ 0.22041423192728124
砀@@ 1
胫@@ 1
腓 1
誅@@ 1
逮 1
雋 1
馒@@ 1
鬃 1
Alt@@ 0.03533980248850446
Dum@@ 0.08109191575313442
Lo 0.10336694248380153
elly 0.08851588724464679
ras@@ 0.026128187096294747
spr@@ 0.010386341817466982
僊 1
煜@@ 1
翎@@ 1
蠡 1
郷 1
Her 0.017213279245096556
Hin@@ 0.02341433826262437
Iv@@ 0.07288807884760695
bes@@ 0.009415427140670698
brach@@ 0.14822282693366873
bridge 0.024376786747833244
court 0.014447647890065978
etes 0.04003782536420121
囍 1
熬@@ 1
燊@@ 1
疍 1
簿@@ 1
蹠 1
Carter 0.07060550222257043
It@@ 0.09813494900855717
Robin 0.08523570473631441
airs 0.024291178879651387
asia 0.09702017671802833
versi@@ 0.016827085911228497
wel@@ 0.02134200401980978
催 1
僻@@ 1
弢 1
汹@@ 1
滌@@ 1
秆 1
茁@@ 1
Australian 0.014830666904697382
Federal 0.031820687928763844
Grant 0.06493540561513768
Griff@@ 0.07371302457539244
craft 0.061035282960104055
gam@@ 0.06114814178046023
mid@@ 0.016734017755480432
peti@@ 0.02057307960714851
凜 1
棂 1
珉@@ 1
蚁@@ 1
Aj@@ 0.08590224294733423
Lucas 0.08832256899310933
athan 0.09771690259381052
edy 0.026415626288257152
lam 0.03815353640442718
sn@@ 0.047080789287290294
tit@@ 0.011908281590150439
wide 0.014928240770994054
ㄨ 1
糰 1
羟 1
苫 1
赉 1
錚 1
铷 1
Kun@@ 0.042730600055255724
abri@@ 0.04705917035944219
ece 0.013005761580916037
front 0.016107899639750053
lif@@ 0.03750399284305086
mach@@ 0.018133112344219146
oko 0.1017580388680989
卯@@ 1
昙@@ 1
昶@@ 1
桀 1
碚 1
茸@@ 1
蒞@@ 1
裹@@ 1
謂@@ 1
輓 1
Stan@@ 0.04522780785606333
card 0.04812120778541454
far@@ 0.015545063664328562
wak@@ 0.04183683715966134
Š 1
壶@@ 1
慫@@ 1
欒@@ 1
珞 1
痞@@ 1
蘸 1
辕@@ 1
闯 1
Ba 0.08745092873637927
Wolf 0.07783284770435371
angle 0.047863055414040116
avo 0.0912534995342036
dio 0.0184434742242878
private 0.018875762364163662
兗 1
姒 1
帛@@ 1
挝@@ 1
棨 1
虱@@ 1
詼@@ 1
頷 1
Herbert 0.06534354679647021
Islands 0.04059800097158086
① 1
佶 1
绎@@ 1
Was@@ 0.07750048784883243
chem@@ 0.021112082370624265
enta 0.015731063980481037
itation 0.02193267559724976
ith@@ 0.06859192024723892
mes@@ 0.02091072063575573
oul 0.054079308920956706
prop@@ 0.016665948351921585
傉 1
廪 1
禀 1
苾 1
蛉 1
Jon@@ 0.0789407603598126
Kak@@ 0.1546316417965004
Mart@@ 0.05743355835577407
ander@@ 0.01791088881844101
els@@ 0.018979276468420198
fi 0.1070170704807171
fus@@ 0.02478897185151584
graph@@ 0.029190371843129125
mission 0.011365816890465211
oshi 0.09338596298351785
ud 0.025731151178887936
歙 1
穢@@ 1
筐 1
鈈 1
Dru@@ 0.03862508602171798
Stein@@ 0.03095465467889475
eros 0.01836516026624091
kov 0.07183848774312529
last 0.00897676506591709
project 0.016136050858787866
uru 0.08849629299418851
廩 1
懊@@ 1
楽 1
礽 1
鍺 1
Angeles 0.01853629710639707
borough 0.040705463228463065
cus@@ 0.014197537993588114
mid 0.020318217480465237
mov@@ 0.0111761254206881
咭 1
擷@@ 1
楂 1
殓 1
涝@@ 1
牴 1
蚋 1
趴@@ 1
Austin 0.06499589740712447
agen 0.011800175575736389
apa 0.04667495404200529
cam@@ 0.017705855631162573
tri 0.0925478999801918
video 0.01165691053835986
哋 1
拚@@ 1
氖 1
洸 1
牵 1
狭 1
璣 1
痣 1
誰@@ 1
辇 1
ashi 0.06953405439789488
born 0.0038207466166166517
bra 0.05382884846274935
och 0.039695799766268566
Α 0.07616123186147448
亶 1
伝 1
岷 1
獐@@ 1
蠑@@ 1
Der 0.0024700390565760297
Fernando 0.04892769230044711
Guar@@ 0.044265732045047586
fur@@ 0.03180995775944673
phot@@ 0.01440202948562137
post 0.01623463050246014
rad 0.05444524300762855
埭 1
泚 1
碣 1
萁 1
蓿 1
馅@@ 1
---- 1
Agr@@ 0.033228547467724946
Beh@@ 0.030970749177821794
Initi@@ 0.03616326068332955
Wind@@ 0.04535718556289525
XII 0.07999067236440881
ador 0.0076163831842873874
iler 0.023733757130151672
itter 0.07251502992402849
ques 0.004388887646515037
綢@@ 1
葩 1
靛@@ 1
Dep@@ 0.042360516495045915
pre 0.0283149293951854
toral 0.02293202725110106
ums 0.01077110123836185
揪@@ 1
湄 1
諤 1
0.000 0.028844638893968908
End@@ 0.05429737650959622
Kim@@ 0.08584254226661185
Manuel 0.03478012364275411
Test@@ 0.05558155217667381
spo@@ 0.018355730276548424
tas@@ 0.029193478317068863
xi 0.09119908539497121
َ 0.20347510712256972
咫@@ 1
嫔@@ 1
孿@@ 1
惮 1
祎 1
蕪@@ 1
謨@@ 1
贰 1
钤 1
Main@@ 0.04747224937328501
Maxim@@ 0.057820031397546164
Sainte 0.052939280629083735
fel@@ 0.014722694226406381
org@@ 0.021469941764858547
program 0.01390111664186949
tary 0.020046848547767088
vie@@ 0.013001971396623764
娠@@ 1
瞭 1
瞿 1
罹 1
闓 1
闔 1
鹳 1
Captain 0.04292939836551067
Exper@@ 0.06511894823723897
Marine 0.03774275941262591
Mario 0.059793847839247384
atom@@ 0.03972709803467318
both 0.004741741035870348
igi 0.09799319749802839
ird 0.0492523482841177
part@@ 0.009123832151745571
run 0.013123139622900732
吝@@ 1
昺 1
犒@@ 1
糜 1
腑 1
詆@@ 1
踵@@ 1
鱒 1
Adams 0.061292234565485375
Christi@@ 0.035787214502705
Pach@@ 0.11329189513233424
President 0.013227521996101565
Rep@@ 0.09437541345495416
mix@@ 0.01815770672950242
Č 1
ش 0.06976988315865651
倬 1
傚 1
愨 1
誣 1
Bapti@@ 0.04568463470229478
Baz@@ 0.11084253140050242
Bes@@ 0.010876410076609423
Chu 0.1523389582214713
Peter@@ 0.03374267420457241
Well@@ 0.05882060427311417
Will@@ 0.06342195792939753
cos 0.01871001381791408
func@@ 0.029168289777293792
侂 1
岫@@ 1
愕 1
燻 1
砺 1
觴 1
譙@@ 1
跗@@ 1
酈@@ 1
Bis@@ 0.05656119347104951
Gri@@ 0.04468974745619836
Miss@@ 0.08304059078913839
Other 0.017202148923817866
bran@@ 0.01636445053325574
kar 0.07746343749631363
nav@@ 0.0150551317313415
player 0.011271491145147168
sou@@ 0.006220437306135222
敝 1
桉@@ 1
缇 1
觅 1
Bog@@ 0.04589604169746687
Kno@@ 0.057002263761899936
Ludwig 0.038668341176257864
Mang@@ 0.07335152330949926
Sant@@ 0.04477153748658783
Shel@@ 0.07238770760210862
aint 0.06657452328056374
bal 0.03699679127820534
chester 0.03775287571311811
ising 0.025433599292090457
real 0.017444480542767163
sl@@ 0.02579098049211754
¥ 1
Ü 0.707531909575107
丐@@ 1
滏@@ 1
犰@@ 1
缙 1
菝@@ 1
葜 1
藪 1
鄒 1
铌 1
镰 1
饥 1
Columbia 0.02727355513372359
Japanese 0.01655895290089258
Stat@@ 0.06284667058311742
asis 0.06131062677154793
assi@@ 0.0345071553126226
dat@@ 0.027894816648023502
sar 0.08387718753432133
ths 0.0315373566952333
ย 0.04909207378277497
枸@@ 1
鉍 1
Ａ 1
0s 0.005408624041935339
Miguel 0.042799495026980564
Muhammad 0.07265655213164478
ble@@ 0.02250693465509243
las@@ 0.030806979523183838
pler 0.07908850486846818
username 0.9558498485481935
za@@ 0.05603743002879906
垛@@ 1
峤 1
疡 1
箇 1
萜 1
蝾@@ 1
鎘 1
驷 1
Chief 0.028512057508314283
Maurice 0.05478260906697939
Ut@@ 0.14665144920133114
Ya 0.12512163579916782
dae 0.12003427931009683
lav 0.04677188051380094
丫 1
洶@@ 1
硯 1
逍 1
邯 1
Dim@@ 0.09053563573231636
aber 0.006262657096620847
enh@@ 0.016585396418820182
jan 0.06707498343751042
onal@@ 0.021907255655891314
sons 0.016488030267409137
sts 0.034774325921359525
Φ 1
拋 1
殤 1
滲 1
焓 1
粑 1
纘 1
觎 1
Clau@@ 0.06607636039766492
Jak@@ 0.049662949978877644
Jur@@ 0.03865062917163321
Pand@@ 0.08749423693331383
Pho@@ 0.21345583367069548
Ses@@ 0.09134941182894919
aver@@ 0.0324086586494444
eti 0.04783869076573937
imi@@ 0.04798355957405187
isp@@ 0.07798433824862312
lich@@ 0.01692949919112808
servat@@ 0.04006341773698023
these 0.005812990740097703
ɕ 1
噱@@ 1
嬤@@ 1
枱 1
贱@@ 1
Ear@@ 0.06276385143599836
eine 0.0013093339747231147
san 0.048887604108981006
έ 0.14583453996451165
嚙 1
淒@@ 1
淬@@ 1
盯 1
邰@@ 1
Back@@ 0.029391834317500143
Fem@@ 0.0550974516478241
Kos@@ 0.038172264446052116
Tat@@ 0.06174047973729013
bis@@ 0.04434626265298757
fir@@ 0.011304569219027207
igg@@ 0.038369681170735546
sar@@ 0.038504263910396526
squ@@ 0.019686326358974354
柄@@ 1
熄 1
狳 1
罔 1
蕎@@ 1
讹 1
赃 1
鲵 1
鳗@@ 1
Austr@@ 0.023501850974915178
Chicago 0.01644451090509041
Len@@ 0.047467952744196226
坌 1
娥@@ 1
毌 1
禀@@ 1
肮@@ 1
郦@@ 1
锢 1
馴 1
黟@@ 1
Catherine 0.059573836077765875
Chron@@ 0.06150204101932346
Had@@ 0.06572298839199829
Isab@@ 0.04771186381113594
Malaysia 0.06359163807503071
Oxford 0.0345638491595554
Prin@@ 0.03999468345127926
Professor 0.021987013303125663
agan 0.054406434253702694
dorf 0.026315487898479602
isch 0.006487638271112817
rich 0.03362081475151099
virus 0.06340274374594036
ה 0.8569206691148086
嚥 1
憩@@ 1
晖@@ 1
栒 1
櫚 1
濡 1
璁 1
绾 1
蹴@@ 1
釧@@ 1
鉀@@ 1
Gau@@ 0.04353273824034682
Indian 0.013672247063743499
Person@@ 0.03335373961468221
Thom@@ 0.07729131715560378
Wir@@ 0.024865690750769196
enci@@ 0.012857253591498473
mad 0.09747724361029912
ply 0.015036850163761316
tie 0.04081371213928008
whe@@ 0.017402972526865877
② 1
嘩 1
淝 1
舘 1
螯@@ 1
鲱@@ 1
Airlines 0.07677595695757419
Bed@@ 0.03130463459030125
Berg@@ 0.024050160602931796
Marshall 0.06383235387101278
against 0.00415618161021395
aster@@ 0.04280839851904258
ead 0.03551603011281513
eim 0.034416136980613514
kes 0.04504397800338081
mess@@ 0.02300778903056367
tz@@ 0.05918841567222811
岫 1
燧@@ 1
犛@@ 1
甕@@ 1
绫 1
霈 1
鸠@@ 1
Oscar 0.058135148943109165
ague 0.03289185892674529
eler 0.023819357606586024
nati@@ 0.022962298756241797
ole@@ 0.13225582905915712
tax@@ 0.03167264671126967
timestamp 0.9684533980160883
white 0.01618751888080516
侑 1
囧 1
泣@@ 1
濘 1
瘴@@ 1
胳@@ 1
麿 1
Cum@@ 0.05897320219256145
Kamp@@ 0.03484366095915641
Raf@@ 0.10315631591186869
aller 0.013750102760850912
andro 0.05964012179769474
ening 0.027869198415716296
etto 0.0802163618691672
techn@@ 0.010171417662099147
ě 0.43110733326949513
ユ 1
ヴ 1
尕 1
扩 1
痲 1
磋 1
綽 1
茧 1
锄@@ 1
髹 1
Barbara 0.06083609374358257
Carlo 0.08392047059675643
His 0.0058023323279080595
Milit@@ 0.027270036536392123
eger 0.06268727820328487
integ@@ 0.0555455659128854
ogle 1
ours 0.025960593422301267
protein 0.05029592572651079
ria 0.08132179502995793
ḥ 1
戳@@ 1
扛@@ 1
睜@@ 1
翦 1
膑 1
芍@@ 1
蹶@@ 1
지 1
Moun@@ 0.042656603510319926
Racing 0.05011451010136449
blu@@ 0.025426409673585885
contributor 0.20973899809431926
during 0.0029660431588514734
dy@@ 0.07012126259034185
fen@@ 0.02442457130579738
ference 0.025726380706224353
mund 0.045078018042947185
omi 0.11344642933483645
plas@@ 0.03415274370121959
Λ 0.8814499195795235
簫 1
觊@@ 1
锣 1
陉 1
頷@@ 1
馅 1
Theater 0.0365865850043933
Villa 0.0401612412595964
avier 0.045122111676138076
berger 0.035228367545633035
eca 0.058262868204750407
oso 0.019480579656702725
ran 0.018276263901684305
ring 0.023166094726889727
เ 1
皙 1
翳 1
顷@@ 1
騏 1
鳶@@ 1
鼴@@ 1
Dod@@ 0.06317850317425261
Nev@@ 0.04217468149887099
Rein@@ 0.0365823644505243
Wiki@@ 0.1393088112317811
tos 0.010826571123863125
voc@@ 0.010258099051709197
xa 0.07196255278664869
Π 0.7188056920499774
ม 0.021334871350765734
皝 1
躉 1
轸 1
Reser@@ 0.03035354198451852
Sap@@ 0.09456306740635613
effect 0.029806749321447574
eur@@ 0.02355831827110195
feld 0.02122197958688311
iva 0.04794564899426023
rock 0.013811058256069668
疝 1
皎@@ 1
脓@@ 1
Georg 0.03657765907443773
Laz@@ 0.1053950502749981
Motor@@ 0.05309706567852536
Tax@@ 0.04981924121903471
identi@@ 0.007922501263986005
ingo 0.047235279310311476
py@@ 0.080990947845332
stri@@ 0.03481857209403139
ざ 1
渚@@ 1
稗 1
贓@@ 1
鏘 1
鑛 1
闕@@ 1
驪@@ 1
鹑 1
Mann@@ 0.028131478393541604
Nord@@ 0.013526273743522405
Proj@@ 0.02940739517447661
comment 0.11630555684395454
oes 0.03773550787915464
tly 0.0124140601216482
ṭ 1
䲗 1
紂 1
苄 1
讣@@ 1
鄢 1
銥 1
钜 1
関@@ 1
阖 1
鲶@@ 1
Arab@@ 0.02582291855406975
Bah@@ 0.02336592630346566
Comics 0.0708015076390767
Marco 0.0810996396001007
Phoen@@ 0.06776551788114518
aza 0.02793941908959035
kom@@ 0.00961293152878981
ling@@ 0.031120650555657294
rh@@ 0.0381462652381961
凈 1
啲 1
嗝 1
搐 1
旃@@ 1
炘 1
祛@@ 1
辮 1
邙@@ 1
鎔@@ 1
闷@@ 1
龔 1
ging 0.012840064656723216
later 0.003235197009167908
lio 0.08560279962343363
qua 0.025949961233748653
stadt 0.013250549000286502
wald 0.03215042308738057
yu@@ 0.15481843489645483
ʃ 1
対 1
尙 1
牂 1
腋 1
菅 1
讒@@ 1
閥@@ 1
鲈@@ 1
Kum@@ 0.059020532658162456
iden 0.016403311634311534
ien 0.005264793012133743
lic@@ 0.014691969441520639
trav@@ 0.010214672855573608
ר 1
嗇 1
愷@@ 1
氦@@ 1
漣 1
碌@@ 1
稷@@ 1
竅 1
褓 1
銖 1
铑 1
镳 1
Shin@@ 0.08690462012955628
cription 0.019085716516128434
fon@@ 0.012290905229961551
ht 0.02658723381362541
ible 0.025355966225578428
play@@ 0.025654869040563556
sche 0.01640611904765219
tima 0.09343106332987584
嚏 1
寐 1
慟 1
玖@@ 1
禕 1
邝@@ 1
驴@@ 1
鲑@@ 1
鶉 1
Coast 0.03197022085213455
Rah@@ 0.06169227193682772
alt 0.016388670284064762
ares 0.012199526310068366
burn 0.05122748187462372
isia 0.14366123153196583
ج 0.050994176915658426
侥@@ 1
媧 1
惫 1
摺@@ 1
燥@@ 1
璞@@ 1
顥 1
Claude 0.046400358761933484
Gur@@ 0.06809294691775215
Philippe 0.04591638263851682
ances 0.007826627624349445
anta 0.05188224882406362
avi 0.0757595271823149
hard@@ 0.029484723986640628
illing 0.02499359169243794
illon 0.04605199792146998
late 0.008856890353672764
ད 1
佾 1
倣 1
吶 1
獭 1
銼 1
Charlotte 0.054187189099455225
Most 0.021350830966364077
cht 0.01074918819646725
esi@@ 0.05150614650288662
ific@@ 0.017438411144843482
same 0.005008094437194799
tures 0.010691666189738632
ʻ 1
ก 0.024606863153681272
อ 0.04822034710337425
呐@@ 1
尪 1
楝 1
蜊 1
輅 1
飘 1
鵟 1
Son 0.013848752840198594
ata@@ 0.12511391447946613
best 0.009159572493838421
ina@@ 0.14704034604490315
many 0.004161063124132587
met 0.010084760400836017
tab@@ 0.019221144076815754
慮@@ 1
翱@@ 1
闋 1
鱿@@ 1
Cec@@ 0.0759666559026556
Cem@@ 0.050137914625145566
Democ@@ 0.03286470827251094
Lie@@ 0.027885773642794327
Pos@@ 0.04974363811260664
ael 0.12061914097395858
bey 0.04536289103454578
bourg 0.025818454238088425
eci@@ 0.031257035568255
head@@ 0.01057583684767362
imp@@ 0.009957787030389449
ms@@ 0.08290969576913904
tag 0.027758404507025092
unit 0.02235728556916423
咗 1
塩 1
挠@@ 1
槲@@ 1
溅 1
玮@@ 1
疋 1
繡@@ 1
轅@@ 1
鎗 1
頴 1
黻 1
Develop@@ 0.22415037723744644
bab@@ 0.04846628663529598
consol@@ 0.040457816485178086
dem 0.0009748371183480066
design 0.01320071893655636
lit 0.016491026146383453
som@@ 0.018406533468258983
wards 0.02012604024275416
đ 1
ف 0.027941678343779502
亵 1
吠 1
泻@@ 1
糯 1
餃@@ 1
駄 1
Another 0.029327772159152294
Ide@@ 0.05064310079053187
days 0.011139497382255491
ition 0.015926246644345967
utive 0.014586295369020652
々 1
仞 1
嚎@@ 1
沔 1
眨@@ 1
秧 1
銑 1
Alg@@ 0.04209972514768962
Del 0.05614242228199126
Fall 0.04036661585097825
Tok@@ 0.11709666256726224
Vin@@ 0.0704908553574234
ats@@ 0.02167364832933591
ever@@ 0.027998661869912927
sex 0.02199903987357026
tot@@ 0.01863878929664756
uer@@ 0.013328601829591074
べ 1
哑 1
攫@@ 1
沣 1
玹 1
钨@@ 1
闿 1
骊@@ 1
黴 1
Peti@@ 0.056287155763936524
years 0.002659260755668802
僮 1
徇@@ 1
荟@@ 1
遐 1
鎓 1
镨 1
閂 1
다 1
Anth@@ 0.06871404006092179
Philos@@ 0.036876440380405946
Ukr@@ 0.046391756259459585
fore 0.015562703253634519
local 0.005936536112478354
national 0.0061549737849429294
ophie 0.03142171673750203
嫂@@ 1
巳@@ 1
徳@@ 1
桀@@ 1
殃@@ 1
涛@@ 1
涩@@ 1
濡@@ 1
狨 1
笺 1
鍔 1
鍰 1
Canadian 0.01539972675788055
Eastern 0.02583054260406817
Gab@@ 0.05911305092575281
Hein@@ 0.0445576730807918
Jun@@ 0.04027557332984077
box@@ 0.035104989092956514
high@@ 0.013450687996430117
indic@@ 0.014201783410838392
ix@@ 0.06212882672546085
ono 0.06942550100989157
orph@@ 0.04062628092359688
par 0.0010176553296749875
疸 1
菘 1
衹 1
讧 1
﹚ 1
Dame 0.04681700374644059
ables 0.00973013484526567
aise 0.018756948806603765
event@@ 0.042257158490446714
nel 0.028153885397603932
omer@@ 0.07869670375997265
oun 0.06959242060147446
劏 1
稗@@ 1
虬@@ 1
驕 1
Bahn 0.05535638377735592
German 0.008217490667187877
anim@@ 0.010281130912873778
ben 0.008191420378815446
dou@@ 0.01178128333700665
ider@@ 0.04399593598643743
igi@@ 0.04494939261619263
lav@@ 0.03294960089021168
mani 0.1937368501906634
mine 0.023125199125205075
ning@@ 0.03495162609437348
tent 0.027253309854073326
vor 0.004586100886226117
ya@@ 0.13897808313225468
ṣ 1
嗅 1
拏 1
琺@@ 1
瓢 1
餵@@ 1
Africa 0.016516455688877104
Ble@@ 0.06339044404463831
Born 0.035359711818239103
Du 0.04739809977708547
Lec@@ 0.07307900095406293
Louise 0.06592540550572193
Scot@@ 0.048404181712534536
UEFA 0.043024681378755404
alogue 0.04678795029218496
enzo 0.06261249275244667
iles 0.01969583914574164
orn@@ 0.04144048828209456
phi 0.1054871596491649
tir@@ 0.016952411071232708
侦 1
俾 1
沓 1
糠@@ 1
豸 1
闼 1
隽 1
atory 0.030260773935310233
cit@@ 0.01610813930459373
dea 0.08142086842912043
呦 1
団 1
孽@@ 1
宥@@ 1
峙@@ 1
櫓 1
毡 1
炤 1
盂@@ 1
箋 1
聂 1
踴@@ 1
鎰 1
Rum@@ 0.04234752262575458
acks 0.01889055485068255
atur@@ 0.019803999547303403
cent 0.020193149831026283
just 0.009474231604092297
ordin@@ 0.016894386472054105
rou@@ 0.014212554789077745
strong 0.018094853014379023
tum 0.05206033709354104
◎ 1
榊@@ 1
磾 1
蠹 1
蹬 1
锴 1
魘 1
鱟 1
Route 0.02000103879312211
aces 0.01692816511116813
coordin@@ 0.036212659324294974
prom@@ 0.007989145253819876
ros 0.06528313420483324
signed 0.01130669793383507
uno 0.010922850992657338
埸 1
璫 1
癣 1
睬 1
箬 1
諳 1
驮 1
麂 1
cir@@ 0.02025154178688013
eland 0.03835069644350453
iting 0.03076957901419119
ley@@ 0.028225484723921803
master 0.02565945099878021
oga 0.05419717992426419
range 0.016108838470942428
ั 1
⁵ 1
拌@@ 1
殁 1
稃 1
縷 1
葭 1
谒@@ 1
飚 1
Dest@@ 0.09374619923598015
Jazz 0.045399661417981914
Nur@@ 0.06684672152652181
Phili@@ 0.050864743910044585
cla@@ 0.02033599258924873
source 0.019258746623591245
sula 0.034225600065607056
ɑ 1
া 1
哄 1
惕@@ 1
盥@@ 1
笋@@ 1
粧 1
紡 1
絮@@ 1
蠵 1
賡 1
銮@@ 1
霓 1
Mw@@ 0.4147984149600031
XV 0.053791539377711695
alli 0.0879256071888063
ending 0.01111793033776377
gan 0.055512305929206696
nit@@ 0.02311603477678295
original 0.006894528472972254
sort 0.02630177433796856
viv@@ 0.016293964839573863
ysi@@ 0.05107675185470156
≠ 1
壅@@ 1
蟠 1
迩 1
South@@ 0.03569435630796416
Tib@@ 0.04961050542855114
found 0.005119593162373109
翱 1
铕 1
雛 1
頑 1
馈@@ 1
骈 1
Andrea 0.07970521037281109
Johannes 0.039855805032414246
R.@@ 0.0690730712671736
Tul@@ 0.058436917936674534
dur@@ 0.010091474476572375
eppe 0.06489288660605946
iness 0.08356660887067027
onym@@ 0.032420198333993955
ง 0.024790106785833436
伎@@ 1
嘟 1
廡 1
涎 1
湜 1
瓩 1
碛 1
紺 1
薊 1
贽 1
鈮 1
隙@@ 1
鱚 1
６ 1
Dani@@ 0.07068517485477338
Fried@@ 0.02347975452141551
Julius 0.07195999278997096
XIV 0.06763469000662896
direc@@ 0.00745061610926007
enes 0.017943173422643146
ilian 0.0350166382598018
lose 0.04288361502267171
systems 0.019002511612591793
庾 1
彷@@ 1
旼 1
橿 1
緱@@ 1
脣 1
莓@@ 1
閬 1
사 1
Nations 0.02939999676281067
ators 0.01564088607582839
ego 0.027830131816782344
lec@@ 0.021072436227911294
stage 0.013655851872794224
xe 0.018602656593872616
Э 0.11344963799401189
் 0.48492425825473745
姍@@ 1
滂 1
濰@@ 1
铣 1
阚@@ 1
鲹 1
C.@@ 0.04983808302805536
Kid@@ 0.11947757573430441
Kul@@ 0.052397770045798986
activ@@ 0.008337747749618466
amba 0.07093421486833337
aun 0.045037366588860844
elles 0.0071328801073188884
erie 0.018748268881492648
hood 0.018908947245561303
tari 0.138056723406397
tric@@ 0.02678828304836016
ṃ 1
啰 1
奐 1
殇 1
牘 1
瑷 1
瘀@@ 1
笆 1
篪 1
鏐 1
驢@@ 1
Boh@@ 0.04117320961811111
Sz@@ 0.028924848304774042
alli@@ 0.014077789803639272
inv@@ 0.006891325170500349
sun@@ 0.03191084668515043
啜 1
栉@@ 1
翀 1
脐@@ 1
軻 1
鉗@@ 1
黼 1
Milli@@ 0.038189831830118384
Speci@@ 0.06459098007316051
flav@@ 0.08963363266390827
kn@@ 0.017369959634358115
parti@@ 0.009520692074016858
rig@@ 0.03237720072347142
wall 0.025678663761198713
乓 1
寛@@ 1
弑@@ 1
棠@@ 1
钰@@ 1
Gel@@ 0.018568838413525142
Hass@@ 0.07224261432270801
John@@ 0.07190594142101427
Sti@@ 0.032316422695815014
Virginia 0.016788841376629032
dir 0.017727728511449117
encer 0.055792820993928405
hap@@ 0.022578508208610047
nat@@ 0.022805849598384113
onald 0.0969052099140113
phil@@ 0.04448806239510378
rate 0.01846623077690016
seud@@ 0.0657636547850861
uro 0.03658104010452934
ύ 0.16719708765188104
ṇ 1
ぼ 1
叭@@ 1
巯@@ 1
捡 1
漓 1
耍@@ 1
鏟@@ 1
驃@@ 1
Au 0.012877442177255337
Govern@@ 0.023297250431268665
Hut@@ 0.0724502618468906
Prof@@ 0.03439086453989673
Ray@@ 0.08342257782640196
Sydney 0.025982706471510554
aries 0.015693970958811292
ener 0.013916990415713966
million 0.007556665704198602
nec@@ 0.017794098053667547
production 0.0073631510138212055
short 0.011269758705744901
uli 0.09404841341553137
ğ 0.1353479077552714
喰 1
搪@@ 1
瀞 1
灞 1
荞@@ 1
谯 1
贲@@ 1
逖 1
鱀 1
Fig@@ 0.032349298396016635
Ib@@ 0.05830275348894063
Nig@@ 0.06515173114560223
Pac@@ 0.08427103727611837
anie 0.04463844686745076
hiz@@ 0.10822303645231977
tains 0.020874664612109517
З 0.07323637446569436
矯 1
辮@@ 1
Nap@@ 0.06130724852520562
Russian 0.014679016173267794
Sah@@ 0.05266005250450518
Say@@ 0.0744873298455954
ك 0.03278005508585902
न 0.02150927243660926
‖ 1
嵬 1
涇 1
箫 1
糅@@ 1
虻 1
軛@@ 1
颤 1
﹙ 1
Atlantic 0.032323488281115906
Christ 0.04042409162407473
Iron 0.0606318177838111
Koh@@ 0.04193670175815033
NCA@@ 0.20443626998576858
Supre@@ 0.02758525290668043
Tag 0.03474589198226093
abad 0.04178369421031307
defin@@ 0.01252941288478512
host@@ 0.016457235090824873
ligence 0.03340776617101214
unter@@ 0.004149512426828864
徙@@ 1
捅 1
斃@@ 1
漕 1
瑱 1
荽 1
贮 1
钪 1
Nikol@@ 0.04649391870086592
appro@@ 0.008658617998575638
formes 0.03650957247721336
ime@@ 0.1595926185661112
pose 0.011718559890492477
thu@@ 0.03492401788361481
བ 1
≈ 0.7496121838072728
搓 1
躪 1
雎 1
駭 1
가 1
Hermann 0.0450350849597895
Ireland 0.016547678672902248
Monte 0.05984519606703595
cip@@ 0.01667332209016158
cord 0.033104724389879124
iki@@ 0.1974620780977252
ि 0.35218296101579283
伺 1
佰 1
囂@@ 1
宍 1
覧 1
贍 1
鏗@@ 1
Anton 0.05963806757698276
Bruno 0.07094424862046371
Hart@@ 0.046511029740470534
Panz@@ 0.05944868754503153
idos 0.01196348398799234
匝 1
嗚@@ 1
噌 1
撣@@ 1
獠 1
鎏@@ 1
Hydro@@ 0.08622137377196153
evo 0.03910798786093245
ful@@ 0.04943402146142355
sten 0.005360053730114175
tec@@ 0.036739744460430344
א 1
ز 0.028278567136388277
™ 1
咙 1
址@@ 1
姉 1
姍 1
枷 1
跛@@ 1
韜@@ 1
饗 1
Mong@@ 0.05287030887714619
aking 0.020103314533468187
ilio 0.050424077838789064
lies 0.011377362318884029
wich 0.04382984409736329
㹴 1
爻 1
牦@@ 1
狒 1
総 1
袒@@ 1
讖@@ 1
鄄@@ 1
鉭 1
鬨 1
대 1
Apol@@ 0.06309717452034887
Berlin 0.008457782693890012
Diego 0.029651642221166317
Hugo 0.05412685935652256
November 0.00355482102864552
Penn@@ 0.09535869362718809
Slo@@ 0.03206829981522585
plan 0.011265185387154469
quin@@ 0.040081643477059656
west 0.006324336271559264
€ 0.05822773825415605
壆 1
徴 1
怎 1
渎@@ 1
艱 1
衅@@ 1
铐 1
Cant@@ 0.044735860657940954
Fall@@ 0.06308521024791812
anh 0.03010200111961666
due 0.005802493203313289
[...]
