ใน 1
ที่ 1
และ 1
ของ 1
เป็น 1
มี 1
การ 1
ได้ 1
" 1
) 0.9806173511011985
( 0.9662653746480062
ส@@ 1
ล@@ 1
ม@@ 1
น@@ 1
ด@@ 1
การ@@ 1
น 1
ก@@ 1
ม 1
. 0.14071990982939825
โดย 1
บ@@ 1
กับ 1
ว่า 1
อ@@ 1
ค@@ 1
ปี 1
ก 1
ป@@ 1
ย@@ 1
จาก 1
จะ 1
ท@@ 1
ร@@ 1
ง 1
์ 1
ต@@ 1
ส 1
ซึ่ง 1
ด 1
ให้ 1
มา 1
ความ@@ 1
ล 1
ไป 1
ไม่ 1
พ.ศ. 1
ว@@ 1
25@@ 1
, 0.0873335947059388
ง@@ 1
ข@@ 1
เมื่อ 1
พ@@ 1
ช@@ 1
ต 1
นี้ 1
จ@@ 1
ซ@@ 1
ห@@ 1
ะ 1
ฟ@@ 1
แ@@ 1
บ 1
โ@@ 1
พระ 1
อยู่ 1
หรือ 1
ผู้@@ 1
ใช้ 1
ค.ศ. 1
ว 1
คน 1
นิ@@ 1
ไ@@ 1
- 1
ประ@@ 1
เขา 1
คือ 1
ย 1
แต่ 1
ก็ 1
วิ@@ 1
ร์ 1
ร 1
ทาง 1
อ 1
เล@@ 1
ด้วย 1
ประเทศ 1
ถ@@ 1
เป็น@@ 1
กัน 1
ๆ 1
วันที่ 1
ถูก 1
เมือง 1
แห่ง 1
ขึ้น 1
ี@@ 1
นา@@ 1
์@@ 1
ตัว 1
อย่าง 1
ยัง 1
ค 1
เก@@ 1
เ@@ 1
นั้น 1
มา@@ 1
เส@@ 1
า 1
เพื่อ 1
อา@@ 1
ได้รับ 1
ที่@@ 1
เบ@@ 1
เว@@ 1
2 1
ไทย 1
ถึง 1
ส์ 1
มี@@ 1
งาน 1
พระ@@ 1
ผ@@ 1
จึง 1
ฮ@@ 1
รา@@ 1
อน 1
1 1
นา 1
ติ 1
้า 1
หนึ่ง 1
ชื่อ 1
ู 1
่า 1
ริ@@ 1
เม@@ 1
ผู้ 1
กล@@ 1
ิ@@ 1
เน@@ 1
ี 1
เซ@@ 1
ทาง@@ 1
ุ 1
เอ@@ 1
สามารถ 1
ต่อ 1
นัก@@ 1
ู@@ 1
้น 1
แล้ว 1
รั@@ 1
้ 1
ช 1
กระ@@ 1
3 1
ย์ 1
สุ@@ 1
ดี 1
เรื่อง 1
เพ@@ 1
สา@@ 1
พิ@@ 1
่ 1
ท 1
สร้าง 1
แบบ 1
ะ@@ 1
า@@ 1
ทำให้ 1
ส่วน 1
ญ 1
เกิด 1
กร@@ 1
ร์@@ 1
ตาม 1
ราช@@ 1
ภาพ 1
ฝ@@ 1
ป 1
เธอ 1
อร์@@ 1
่ง 1
เพลง 1
ลา@@ 1
ัน 1
มาก 1
ทรง 1
ออก 1
ุ@@ 1
เท@@ 1
ธ@@ 1
กา 1
ฟ 1
หล@@ 1
ลิ@@ 1
ริ 1
เจ@@ 1
จังหวัด 1
ศ@@ 1
รา 1
ความ 1
เด@@ 1
วัด 1
ทำ 1
เช@@ 1
ยา 1
ัง 1
เจ้า@@ 1
ต้อง 1
ใหม่ 1
ลง 1
ชาว 1
โลก 1
() 1
ลา 1
ยา@@ 1
รี 1
แรก 1
อร 1
ใจ 1
ระหว่าง 1
้@@ 1
ตร@@ 1
ติ@@ 1
เร@@ 1
ฉ@@ 1
ิ 1
ต่อมา 1
่ง@@ 1
็@@ 1
ิน 1
เช่น 1
ราช 1
ทั้ง 1
อง 1
ณ@@ 1
หน@@ 1
เวลา 1
ณ 1
กรรม 1
วั@@ 1
ีย@@ 1
หลาย 1
นำ 1
ครั้ง 1
วา@@ 1
รับ@@ 1
สม@@ 1
พบ 1
ทีม 1
4 1
ื@@ 1
ที่สุด 1
อีก 1
วัน 1
กลุ่ม 1
เดือน 1
ปัจจุบัน 1
ภ@@ 1
อั@@ 1
ชาติ 1
ใหญ่ 1
สำหรับ 1
รับ 1
กว่า 1
ญ@@ 1
: 0.41544549518020946
คล@@ 1
พระองค์ 1
โอ 1
หลัง 1
ด้าน 1
พ 1
่น 1
้ง 1
ษ@@ 1
ิน@@ 1
โร@@ 1
อร์ 1
24@@ 1
วง@@ 1
ตัว@@ 1
เล่น 1
ช่วง 1
เข้า 1
อุ@@ 1
5 1
บน 1
้า@@ 1
ผล 1
หม@@ 1
โดย@@ 1
คา@@ 1
จัด 1
เริ่ม 1
จ 1
อำเภอ 1
ซี 1
วง 1
กั@@ 1
ที่จะ 1
หน้า 1
ดา 1
เอ 1
เรียก 1
ตา@@ 1
มัน 1
เป@@ 1
ตา 1
ั@@ 1
มั@@ 1
ใต้ 1
สี 1
ภาพยนตร์ 1
เขต 1
ีย 1
น้ำ 1
กลาง 1
ตั้งแต่ 1
่า@@ 1
สิ@@ 1
น้ำ@@ 1
ไว้ 1
มิ 1
ภาษา 1
ปล@@ 1
จน 1
คร@@ 1
อง@@ 1
่@@ 1
อิ@@ 1
ต์ 1
สูง 1
พระเจ้า 1
การแข่งขัน 1
ใน@@ 1
กร 1
"@@ 1
ยุ@@ 1
โรงเรียน 1
สมัย 1
ต่าง 1
พระราช@@ 1
ทำ@@ 1
ศาสตร์ 1
ี่ 1
จำนวน 1
อา 1
ชน 1
พา@@ 1
หา 1
บา@@ 1
อบ 1
เหนือ 1
ฐาน 1
คน@@ 1
รอบ 1
คา 1
น์ 1
เค@@ 1
ลี 1
เด 1
เข้า@@ 1
กา@@ 1
รัฐ 1
อื่น 1
รวม 1
ชา 1
เข@@ 1
สำคัญ 1
มาจาก 1
ก่อน 1
ือ@@ 1
เต@@ 1
ลิ 1
คำ@@ 1
ิด 1
ัน@@ 1
– 0.6320164955010789
ดิ@@ 1
สอง 1
; 0.42403096625794245
เดิม 1
ที 1
เห@@ 1
บ้าน 1
ซา 1
ระบบ 1
เจ้า 1
่น@@ 1
ียน 1
ทร@@ 1
สาร 1
มิ@@ 1
แก@@ 1
กีฬา 1
ประมาณ 1
การศึกษา 1
มหา@@ 1
6 1
ปฏิ@@ 1
โต 1
ระดับ 1
พื้นที่ 1
ทั้งหมด 1
โก 1
อม 1
จีน 1
อด@@ 1
ชาย 1
บรร@@ 1
่าง 1
แบ@@ 1
ผ่าน 1
นาย 1
บั@@ 1
อน@@ 1
กุ@@ 1
อก 1
อาจ 1
เหล@@ 1
โร 1
ิง 1
เครื่อง@@ 1
แม@@ 1
ับ 1
นาม 1
ด์ 1
้ว@@ 1
ตั้ง 1
อังกฤษ 1
ชีวิต 1
มุ@@ 1
สมเด็จ 1
อย 1
หลวง 1
คำ 1
ญี่ปุ่น 1
ดา@@ 1
ลง@@ 1
เขียน 1
าน 1
บุ@@ 1
โปร@@ 1
ชา@@ 1
ท์ 1
ในประเทศ 1
ผล@@ 1
ัย 1
ัก@@ 1
ชนะ 1
(@@ 1
เร 1
โด@@ 1
ภา@@ 1
เคย 1
นิยม 1
ัก 1
วา 1
ปา@@ 1
เห็น 1
สี@@ 1
ได้แก่ 1
ตำบล 1
ึ@@ 1
ส่วน@@ 1
รูป 1
ติด@@ 1
ชนิด 1
เฟ@@ 1
ตร 1
อันดับ 1
ให้@@ 1
นัก 1
อด 1
ฟุตบอล 1
7 1
๊@@ 1
รุ@@ 1
แสดง 1
มหาวิทยาลัย 1
แก่ 1
แล@@ 1
เนื่องจาก 1
พล@@ 1
เรีย@@ 1
วี 1
งค@@ 1
ตำแหน่ง 1
ส่ง 1
เพราะ 1
้าง 1
วิ 1
อล@@ 1
ศา@@ 1
เพียง 1
่าย 1
กิ@@ 1
ลักษณะ 1
กำลัง 1
วงศ์ 1
ำ@@ 1
จิ@@ 1
ปร@@ 1
เต 1
สั@@ 1
ยก@@ 1
บาง@@ 1
ซ 1
ิล 1
ปรา@@ 1
เซ 1
อนุ@@ 1
ระ@@ 1
สัง@@ 1
อย@@ 1
โม@@ 1
ชุด 1
เสียง 1
หลัก 1
บริษัท 1
ลูก@@ 1
บาง 1
ศึกษา 1
เผ@@ 1
นั@@ 1
ไป@@ 1
บริเวณ 1
แทน 1
นำ@@ 1
ซ์ 1
เท 1
สาย 1
ครั้งแรก 1
-@@ 1
องค์@@ 1
อัน 1
โน 1
ทั@@ 1
8 1
แน@@ 1
นิ 1
ทหาร 1
เม 1
.@@ 1
่ว@@ 1
สว@@ 1
รี@@ 1
เดียว 1
คั@@ 1
10 1
สะ@@ 1
ซิ 1
แข@@ 1
ใช้@@ 1
เตอร์ 1
กอง@@ 1
เย@@ 1
จำ@@ 1
ประวัติ 1
ตาม@@ 1
หญิง 1
ได้@@ 1
ชิ 1
ขา@@ 1
ฝ่าย 1
หลังจาก 1
บิน 1
ฯ 1
& 1
ทิ@@ 1
โต@@ 1
ต่อ@@ 1
แค@@ 1
ใ@@ 1
สาม 1
ฆ@@ 1
ณ์ 1
ประกอบ 1
ปั@@ 1
อบ@@ 1
ระ 1
งาน@@ 1
หา@@ 1
ตั้งอยู่ 1
น้อย 1
กลับ 1
รัก 1
ภาค 1
แท@@ 1
รัฐบาล 1
อก@@ 1
ัง@@ 1
สู@@ 1
หัว@@ 1
เกม 1
เรือ 1
จัด@@ 1
โค 1
ดู 1
สน@@ 1
/ 0.5928082379246657
ชิ@@ 1
คิด 1
อดีต 1
ที@@ 1
ชี@@ 1
สงคราม 1
นาน 1
เดียวกัน 1
รายการ 1
เปิด 1
ษ 1
โล@@ 1
บริ@@ 1
ปี@@ 1
โรง@@ 1
หมาย 1
ธรรม 1
ฤ@@ 1
ยู@@ 1
มว@@ 1
ยาว 1
ร่วม@@ 1
กาย 1
่าน 1
มือ 1
วัง 1
ื่อ@@ 1
อายุ 1
่อ 1
ละ@@ 1
ชั้น 1
้อง 1
ธ 1
สมาชิก 1
รุ่น 1
ตุ@@ 1
เรียน 1
รร@@ 1
อัลบั้ม 1
แผ@@ 1
โซ@@ 1
เก 1
ไม้ 1
เกาะ 1
ช่วย 1
ราว 1
เปลี่ยน 1
พร@@ 1
ึก 1
วะ 1
แบ่ง 1
อาหาร 1
ข้อ@@ 1
ยู 1
อย่าง@@ 1
ชั@@ 1
ต้น 1
ภายใน 1
เฉ@@ 1
9 1
บท 1
ยุค 1
ซิ@@ 1
ตน 1
องค์ 1
ราย 1
จริง 1
หัว 1
ทำงาน 1
นว@@ 1
ประกาศ 1
ื้อ 1
เมตร 1
ฝรั่งเศส 1
สโมสร 1
้าง@@ 1
เกี่ยวกับ 1
โก@@ 1
ำ 1
ทอง 1
” 1
นที่ 1
ดี@@ 1
ซี@@ 1
ียง 1
ปลา 1
เป็นการ 1
นี 1
ทุก@@ 1
ร่วม 1
อี 1
เนื้อ@@ 1
จา@@ 1
จิ 1
คณะ 1
่อง@@ 1
โอลิมปิก 1
ดิน 1
สภา 1
ภาษา@@ 1
รว@@ 1
อิน@@ 1
ทั้ง@@ 1
ผลงาน 1
รู้ 1
บา 1
ฮา 1
พรรค 1
็น 1
เทศ@@ 1
ละ 1
เช่น@@ 1
ีน 1
บว@@ 1
20 1
โด 1
ต้น@@ 1
ข 1
การเมือง 1
สู่ 1
สิน@@ 1
พันธุ์ 1
ธิ@@ 1
“ 0.5827950961013182
บุรี 1
เคล@@ 1
ทั่วไป 1
รูปแบบ 1
ดังกล่าว 1
เงิน 1
โค@@ 1
ลำ@@ 1
เต็@@ 1
ือ 1
ชัน 1
รัช@@ 1
เค 1
ียว 1
ล้าน 1
นาง 1
ู่ 1
วน 1
แห่งชาติ 1
แอ@@ 1
of 0.03686213529065536
สร@@ 1
เอง 1
สกุล 1
ไม@@ 1
สุดท้าย 1
รักษา 1
ลีก 1
มากกว่า 1
โป@@ 1
แข่งขัน 1
รถ@@ 1
เอก 1
โรค 1
ถือ@@ 1
บี 1
วาง 1
ตรา 1
แดง 1
จนถึง 1
ร็@@ 1
จุ@@ 1
นอกจากนี้ 1
ิร์@@ 1
คุ@@ 1
รางวัล 1
การปกครอง 1
ห 1
ค้า 1
พิมพ์ 1
ไล@@ 1
ศ 1
12 1
๋@@ 1
ดิ 1
ส่ง@@ 1
ราย@@ 1
หาร@@ 1
บู@@ 1
ียม 1
ญา@@ 1
สอน 1
กล 1
ทา@@ 1
15 1
เอ็@@ 1
้อน 1
เหตุ 1
กาล 1
ท่าน 1
โล 1
ซา@@ 1
รัฐ@@ 1
พวก 1
ชาว@@ 1
สาว 1
ถนน 1
หน้า@@ 1
ลาย 1
เข้าร่วม 1
ณา 1
ตอน@@ 1
ห์ 1
แลนด์ 1
กษัตริย์ 1
ฐานะ 1
ส่วนใหญ่ 1
โม 1
ข้อมูล 1
พล 1
ตอน 1
้ม 1
พื้น@@ 1
อยู่@@ 1
่อ@@ 1
เกิดขึ้น 1
อาศัย 1
ลั@@ 1
อล 1
อำนาจ 1
30 1
จากนั้น 1
เจ 1
แหล@@ 1
ภาพ@@ 1
โย@@ 1
เลือก 1
โท 1
เวีย@@ 1
บาย 1
ลอง 1
้าน@@ 1
ประเภท 1
เดินทาง 1
โทรทัศน์ 1
คร 1
บท@@ 1
ตัน 1
ไร@@ 1
พัฒนา 1
ตั้ง@@ 1
กรม 1
ไข@@ 1
ภิ@@ 1
่อน 1
พวกเขา 1
คณะ@@ 1
สำ@@ 1
คุณ@@ 1
16 1
ไร 1
ตี 1
ก็ได้ 1
มหา 1
ตัด@@ 1
่ม 1
โอ@@ 1
ตรี 1
ค่า 1
ฤดูกาล 1
ทุ@@ 1
ทุก 1
บาท 1
นคร 1
ื่อ 1
สัตว์ 1
รอง 1
้อง@@ 1
สำนัก@@ 1
ผลิต 1
ขนาด 1
มีนาคม 1
สิงหาคม 1
ดนตรี 1
กองทัพ 1
ที่อยู่ 1
ื่อน 1
สุด 1
ยิ@@ 1
แม่น้ำ 1
นต@@ 1
นต์ 1
ิต 1
ปริ@@ 1
อาคาร 1
ตุลาคม 1
ราชการ 1
แสดง@@ 1
ุน 1
วด 1
นี@@ 1
สังกัด 1
สิ่ง@@ 1
แชมป์ 1
ย้าย 1
แนว 1
สห@@ 1
ชน@@ 1
ปรากฏ 1
ออกมา 1
ราชวงศ์ 1
แฟ@@ 1
สต@@ 1
เข้ามา 1
ืน 1
ณี 1
กลายเป็น 1
ออกจาก 1
ช่อง 1
กันยายน 1
สนับสนุน 1
การณ์ 1
กิจ@@ 1
ตะวันตก 1
ิก 1
จบ 1
' 1
ประกอบด้วย 1
เคร@@ 1
ใด 1
ยังมี 1
เมษายน 1
กำ@@ 1
มกราคม 1
แยก 1
เติ@@ 1
ธันวาคม 1
สาขา 1
ยาน 1
พระยา 1
ูน 1
11 1
จักรพรรดิ 1
ฏ@@ 1
้ม@@ 1
ียง@@ 1
แต่ละ 1
), 1
ประชากร 1
่าย@@ 1
บุคคล 1
ึก@@ 1
ออ 1
พิเศษ 1
ศาสนา 1
สถา@@ 1
ขึ้น@@ 1
พฤษภาคม 1
สัน@@ 1
ภัย 1
ต่างๆ 1
แว@@ 1
แนว@@ 1
ฟ้า 1
น. 1
ทา 1
ศว@@ 1
เล็ก 1
โน@@ 1
กำหนด 1
เฮ@@ 1
สถาน@@ 1
หมายถึง 1
ประชาชน 1
กรกฎาคม 1
19 1
หน้าที่ 1
ือน 1
ักษ@@ 1
18 1
เสียชีวิต 1
เรีย 1
ตรง 1
ขาย 1
ตี@@ 1
มนุษย์ 1
ประจำ 1
รวมถึง 1
ทะเล 1
เอก@@ 1
นก 1
กรณ์ 1
้อ@@ 1
มัก 1
S@@ 0.1944526020214978
ตะวันออก 1
ับ@@ 1
ชอบ 1
ื่น 1
อากาศ 1
ปา 1
สัน 1
ศรี 1
เซีย 1
ชัย 1
ประตู 1
วัน@@ 1
ถ 1
้น@@ 1
นัด 1
เพิ่ม 1
การเลือกตั้ง 1
ีย์ 1
ทิศ@@ 1
หนัก 1
14 1
หนังสือ 1
ล์ 1
แม่ 1
สม 1
โซ 1
กรม@@ 1
ทั้งสอง 1
มิถุนายน 1
ข้า@@ 1
หั@@ 1
ตะ@@ 1
ื่อน@@ 1
ลำดับ 1
ปัญหา 1
กรุง 1
ซั@@ 1
อะ 1
นิว@@ 1
เส้น@@ 1
คู่ 1
แส@@ 1
ขอ 1
เชื่อ 1
ที่สอง 1
ลด 1
หร@@ 1
แพ@@ 1
ค์ 1
สัญญา 1
เนีย 1
โท@@ 1
หลัก@@ 1
เด็ก 1
พฤศจิกายน 1
ยุ 1
เพิ่ม@@ 1
สิ่ง 1
สง@@ 1
สิทธิ์ 1
ประวัติศาสตร์ 1
คว@@ 1
มะ 1
สหรัฐ 1
ว์ 1
เร็ว 1
เสีย 1
วิชา 1
อีกครั้ง 1
ก่อน@@ 1
ไอ 1
สหรัฐอเมริกา 1
เท่านั้น 1
เง@@ 1
ภูมิ@@ 1
ระยะ@@ 1
นอก@@ 1
ม. 1
แป@@ 1
อุป@@ 1
ป่า 1
ี่@@ 1
สิ้น@@ 1
วิทยา 1
โจ@@ 1
พา 1
สาร@@ 1
ไฟฟ้า 1
25 1
ภูมิ 1
็น@@ 1
แร@@ 1
ฉบับ 1
ชั้น@@ 1
กุมภาพันธ์ 1
ละคร 1
ยะ 1
ยุโรป 1
อิ 1
กว@@ 1
ธรรม@@ 1
50 1
หมาย@@ 1
สัม@@ 1
กี 1
13 1
เทพ 1
ภายใต้ 1
พันธ์ 1
้ำ 1
ฟิ@@ 1
สมเด็จพระ@@ 1
ทะ@@ 1
สาย@@ 1
สถาน 1
ตาย 1
กฎหมาย 1
อัน@@ 1
ภาค@@ 1
่ม@@ 1
ดังนี้ 1
ออก@@ 1
จุด@@ 1
ไฟ 1
นอก 1
ย์@@ 1
ียร์ 1
บริการ 1
แอ 1
ศตวรรษ 1
นคร@@ 1
มอ 1
สังคม 1
ครอง 1
ช่วง@@ 1
ซู 1
เกาหล@@ 1
ตำ@@ 1
รัส 1
ิด@@ 1
ศรี@@ 1
ยก 1
็ก@@ 1
17 1
ชื่อว่า 1
บัง@@ 1
ปลาย 1
แจ@@ 1
ควบคุม 1
(; 1
เครื่อง 1
ดาว@@ 1
เอา@@ 1
พระราชทาน 1
วรร@@ 1
C@@ 0.20710607838004452
เหตุการณ์ 1
ธี@@ 1
วัต@@ 1
เกล@@ 1
ก่อตั้ง 1
ยึ@@ 1
ก่อ@@ 1
กิ 1
ต่าง@@ 1
เชื่อ@@ 1
ออกอากาศ 1
The 0.08131629869422391
รวมทั้ง 1
ไซ@@ 1
จา 1
รวม@@ 1
ขุ@@ 1
เดอะ 1
เหรีย@@ 1
ต้องการ 1
อาร์ 1
แถ@@ 1
เชิ@@ 1
กะ 1
จำหน่าย 1
็ก 1
บร@@ 1
แต@@ 1
สูงสุด 1
เลย 1
ยอด@@ 1
ฤดูร้อน 1
สุ 1
มพ@@ 1
แซ@@ 1
ร่วมกับ 1
") 1
ใบ 1
จารย์ 1
อักษร 1
วิทยาศาสตร์ 1
่าง@@ 1
คณะกรรมการ 1
บริหาร 1
เส้น 1
่ว 1
แพ้ 1
ยาม 1
ฮ 1
สถ@@ 1
ถ้า 1
มาร 1
หาร 1
สต์ 1
รบ 1
จำกัด 1
กิโลเมตร 1
ลูก 1
ือง 1
T@@ 0.19973481842929697
รู 1
ข้าง 1
24 1
แต่@@ 1
ครั้ง@@ 1
กลา@@ 1
ประจำ@@ 1
เกษ@@ 1
เสีย@@ 1
M@@ 0.21147473684414292
้อย 1
P@@ 0.2100840050496144
ราบ 1
การแสดง 1
ปกติ 1
ไม่@@ 1
ประสบ@@ 1
บัญ@@ 1
ขาว 1
เอส 1
ท่า@@ 1
สมั@@ 1
ดั@@ 1
ยังคง 1
ไท@@ 1
เรา 1
ลิง 1
็ด 1
่ำ 1
ไห@@ 1
เล 1
ผิด@@ 1
ระเบ@@ 1
วิธี 1
กลับมา 1
พยายาม 1
ดาว 1
จาร@@ 1
ถือ 1
พุทธ@@ 1
21 1
หาก 1
โช@@ 1
อาการ 1
โบ@@ 1
แย@@ 1
สี่ 1
บุตร 1
เจน 1
กู 1
ตย์ 1
s 0.11285405458701823
หน่วย 1
อธิ@@ 1
ถ่าย@@ 1
แพทย์ 1
ศั@@ 1
บุญ 1
ถึง@@ 1
ป้องกัน 1
วร 1
บัน@@ 1
ฮิ 1
ัด@@ 1
ทร 1
ด้าน@@ 1
ปฏิบัติ@@ 1
ี้@@ 1
โบ 1
ชี 1
​ 1
ิล@@ 1
ชิง 1
เลข 1
คล้าย 1
เซอร์ 1
จัดการ 1
น่า@@ 1
เท่า@@ 1
ูก 1
พ่อ 1
ตั@@ 1
พิธี 1
จุด 1
มะ@@ 1
หาย 1
ทัพ 1
อะ@@ 1
คริสต@@ 1
าก 1
เลีย 1
ตก@@ 1
นักแสดง 1
ดัง 1
อาชีพ 1
ตย@@ 1
ทด@@ 1
่อง 1
น้@@ 1
สอบ 1
กาศ@@ 1
อิส@@ 1
คอ 1
พระพุทธ@@ 1
ดิน@@ 1
ของ@@ 1
นับ 1
เอเชีย 1
ดู@@ 1
วิจัย 1
ทั่ว@@ 1
กิน 1
หมู่ 1
สาธารณรัฐ 1
เสนอ 1
สมรส 1
พันธ@@ 1
ครู 1
กรา@@ 1
มู@@ 1
ศัก@@ 1
เข้าไป 1
มน@@ 1
ต่อสู้ 1
ืน@@ 1
รัสเซีย 1
เรื่อง@@ 1
D@@ 0.17962374469600267
หุ@@ 1
เหมือน 1
รอ 1
รถ 1
ิว 1
ชิง@@ 1
กระทรวง@@ 1
วัฒนธรรม 1
ฐ@@ 1
ดอก 1
วิน 1
เหล่านี้ 1
ขนาดใหญ่ 1
อินเดีย 1
ึ 1
เจ้าชาย 1
ศาส@@ 1
หลา@@ 1
เป็นที่ 1
พั@@ 1
ดำรงตำแหน่ง 1
ร้อง 1
เขต@@ 1
ปกครอง 1
วาง@@ 1
คะแนน 1
แม้ 1
22 1
ประธาน 1
กษ์ 1
G@@ 0.20208919478001278
the 0.012138846271943334
แต่ง@@ 1
เป็นหนึ่ง 1
โครงการ 1
นับ@@ 1
ชนะเลิศ 1
ฝั่ง 1
อี@@ 1
% 0.31563766316868297
เข้าสู่ 1
โอรส 1
ศักดิ์ 1
กษา@@ 1
23 1
คอม@@ 1
พื@@ 1
รอง@@ 1
โย 1
ขน@@ 1
เชียง@@ 1
ทำการ 1
บอล 1
ม์ 1
ก่อสร้าง 1
ภู@@ 1
็อ@@ 1
ึง 1
ติด 1
เลือด 1
ทาน 1
นะ 1
แมน 1
ตนเอง 1
ุ่ม 1
เป็นต้น 1
สิน 1
รัฐมนตรี 1
เปลี่ยนแปลง 1
ภายหลัง 1
เที่ย@@ 1
ลุ@@ 1
gt 1
เคราะห์ 1
ยอด 1
ออ@@ 1
ชาการ 1
วาย 1
ครอบครัว 1
จนกระทั่ง 1
เฉียง@@ 1
โพ@@ 1
ครอง@@ 1
lt 1
าย 1
สั่ง 1
เวิ@@ 1
เริ่มต้น 1
ใกล้ 1
ดุ@@ 1
60 1
กล่าว@@ 1
นั่ง 1
แรง@@ 1
นาง@@ 1
คุณ 1
มศึกษา 1
ทุน 1
ออกแบบ 1
สถานี 1
มิว@@ 1
แรง 1
ยาว@@ 1
แสง 1
รายชื่อ 1
สถาบัน 1
พรร@@ 1
ค้น@@ 1
เล็ก@@ 1
ท่า 1
ไว@@ 1
เจริ@@ 1
ยาย 1
จำนวนมาก 1
สนาม 1
รถไฟ 1
จี 1
กำกับ 1
เอา 1
เด็@@ 1
ดำ 1
การพัฒนา 1
ญา 1
มณฑล 1
พฤ@@ 1
พัน 1
้าว 1
ึ่ง 1
็บ@@ 1
คม 1
เซลล์ 1
คริสต์@@ 1
พอ 1
N@@ 0.20452855970975212
ต่อไป 1
ราม 1
ร์ก 1
R@@ 0.18067847559624847
เกล้า@@ 1
ัย@@ 1
็ต 1
ินี 1
ระบุ 1
กำเนิด 1
ตระกูล 1
ดินแดน 1
เกียร@@ 1
โอกาส 1
บิดา 1
ยนต์ 1
ออสเตร@@ 1
งค์ 1
มป@@ 1
แอน@@ 1
เศรษฐกิจ 1
อย่างไรก็ตาม 1
ธิดา 1
ีก 1
มหาวิทยาลัย@@ 1
เจ้าหญิง 1
ลู 1
0 1
H@@ 0.1774759380253689
สวน 1
มากขึ้น 1
็บ 1
บทบาท 1
แม้ว่า 1
เสด็จ 1
ยน 1
อิน 1
L@@ 0.15999214241844614
ธรรมชาติ 1
เชื้อ@@ 1
วิทยาลัย 1
แห@@ 1
ฮั@@ 1
คดี 1
ร้าย 1
จอม@@ 1
วิหาร 1
ส่วนหนึ่ง 1
บิ 1
ค่า@@ 1
ฏ 1
จัดตั้ง 1
พยาบาล 1
ธิ 1
สมบัติ 1
รุ 1
หลังจากนั้น 1
ความสำเร็จ 1
พี่@@ 1
ชม 1
เวอร์ 1
ในขณะที่ 1
หิน 1
แต่งตั้ง 1
มักจะ 1
26 1
ก่อ 1
สมาคม 1
ยอม@@ 1
พลัง@@ 1
28 1
้าย 1
B@@ 0.16584014000747907
ชุ@@ 1
ปรับ@@ 1
ร. 1
แปล 1
พี 1
ชาย@@ 1
ข้าม 1
เฮ 1
คลอง 1
สวรร@@ 1
40 1
งา 1
ไต@@ 1
ยศ 1
เอ็ม 1
ู่@@ 1
ตัวเอง 1
ท้องถิ่น 1
อเมริกัน 1
เก็บ 1
อุด@@ 1
เปอร์ 1
y 0.05109701865151948
)@@ 1
กว้าง 1
่อน@@ 1
ตลอด@@ 1
แผ่นดิน 1
ทวี@@ 1
ดอน 1
เพื่อให้ 1
ศิ@@ 1
นาย@@ 1
อีกด้วย 1
ครั้งนี้ 1
เบิร์@@ 1
เดิน 1
ยม 1
เกิน 1
โดยเฉพาะ 1
ระดับ@@ 1
มส์ 1
แก้ว 1
สถานี@@ 1
แต่ง 1
ปล่อย 1
ประชุม 1
รุง 1
อร์ด 1
การ์@@ 1
3@@ 0.5328384091515249
กี@@ 1
แตก 1
เรียน@@ 1
ฬ@@ 1
ดังนั้น 1
พม่า 1
ห้อง 1
ศูนย์ 1
มิตร 1
อว@@ 1
ี่ยว 1
ธุรกิจ 1
27 1
อาจจะ 1
จับ@@ 1
นุ@@ 1
มีความ@@ 1
เหตุ@@ 1
รู@@ 1
แม่@@ 1
เปร@@ 1
เฉพาะ 1
พรรค@@ 1
ยุทธ@@ 1
E@@ 0.21492557109758123
แผน 1
ได 1
หนา@@ 1
สาน 1
ูล 1
W@@ 0.19423698412735374
ียด 1
เนื้อ 1
29 1
ดูแล 1
A 0.299157340560959
สิ้น 1
คัดเลือก 1
กรุง@@ 1
เหลือ 1
เยอรมนี 1
พร 1
ังก@@ 1
ภัณฑ์ 1
F@@ 0.16802745801457505
จักรวรรดิ 1
บัญญัติ 1
ศิลปะ 1
A@@ 0.18856475882419715
ข่าว 1
ุม 1
ัด 1
ชั่ว@@ 1
มารดา 1
ภูมิภาค 1
เพ 1
เยอรมัน 1
ศูนย์@@ 1
ญญาณ 1
บันทึก 1
บาล 1
นายกรัฐมนตรี 1
แดน 1
อัล 1
ฤษฎ@@ 1
พุทธ 1
ยิ่ง 1
พอ@@ 1
ร่าง@@ 1
ชาร์@@ 1
ธาน@@ 1
เก่า 1
โฮ 1
สั้น 1
เกี่ยวข้อง 1
พูด 1
หว@@ 1
อาณาจักร 1
สรร@@ 1
คต 1
เน 1
กัน@@ 1
ประโยชน์ 1
มีชื่อเสียง 1
วุธ 1
ปก@@ 1
ลาย@@ 1
เทคโนโลยี 1
ซู@@ 1
บี@@ 1
ยิง 1
สุข 1
เที@@ 1
ธาตุ 1
ั้@@ 1
ฉาย 1
กระจา@@ 1
เลอ 1
ศึก 1
สมุทร 1
ใกล้@@ 1
้าน 1
เชิง 1
วุ@@ 1
อื่นๆ 1
ศพ 1
พืช 1
ทู@@ 1
ธิการ 1
กุล 1
เสริม 1
๊ก 1
จร 1
สถานที่ 1
เป็นทางการ 1
พง@@ 1
โบราณ 1
[ 1
ไซ 1
เคียง 1
พร้อมกับ 1
ั้น 1
ณิ@@ 1
ทธิ@@ 1
สนาม@@ 1
มากมาย 1
ี่ยง 1
ล้อม 1
ย่อย 1
ศิลปิน 1
บาท@@ 1
จักร 1
ดัน 1
เลี้ยง 1
ว่าการ 1
ตัวละคร 1
กอ 1
กรุงเทพมหานคร 1
รู้สึก 1
ตอบ@@ 1
บัติ 1
กุ 1
เด่น 1
หมู่บ้าน 1
เลือกตั้ง 1
ค่าย 1
ตะ 1
นติ@@ 1
เยี่ยม 1
วี@@ 1
เปิดตัว 1
ทรัพ@@ 1
หลาย@@ 1
พร้อม 1
กล่าว 1
ข้าง@@ 1
นี่ 1
งาม 1
นักเรียน 1
ธรร@@ 1
ร้อย@@ 1
ใช่ 1
บวนการ 1
สระ 1
ทำหน้าที่ 1
คืน 1
31 1
ใส่ 1
ชั่น 1
วัฒ@@ 1
สืบ@@ 1
อิทธิพล 1
ซิงเกิล 1
จับ 1
ณะ 1
รัง@@ 1
ื้@@ 1
หลังจากที่ 1
4@@ 0.5297363711639892
จันทร์ 1
ดำเนิน 1
จุ 1
โจมตี 1
ระบ@@ 1
ขั้@@ 1
สนใจ 1
ชุม@@ 1
สิทธิ@@ 1
] 1
อยุธยา 1
อร์แลนด์ 1
ไท 1
ชื่อ@@ 1
ไหว 1
ทร์ 1
อุ 1
ษา 1
าน@@ 1
เป็นที่รู้จัก 1
คอน@@ 1
เพช@@ 1
พลัง 1
สงคราม@@ 1
ดำเนินการ 1
อิตาลี 1
ฌ@@ 1
ช่วยเหลือ 1
ฐ 1
ลับ 1
บูรณ์ 1
สำนัก 1
ทัพ@@ 1
ไน@@ 1
หม่อ@@ 1
กษา 1
วัย@@ 1
เทียบ 1
ตัด 1
หยุ@@ 1
ษฐ@@ 1
ตะวันออก@@ 1
ฟา 1
ปริญญา@@ 1
นักร้อง 1
สภาพ 1
บัณฑ@@ 1
ผู้อ@@ 1
น้อง 1
ความสัมพันธ์ 1
54 1
จอ@@ 1
ความสามารถ 1
สัตว@@ 1
แข็ง 1
อู 1
ูก@@ 1
2@@ 0.8067034204305933
มัธย@@ 1
ประก@@ 1
พย@@ 1
ียน@@ 1
ละคร@@ 1
พระนาง 1
in 0.01528403038830422
ตลาด 1
23@@ 1
สงฆ์ 1
). 1
รูป@@ 1
ใบ@@ 1
= 1
นอ 1
O@@ 0.22454501449174338
พระชน@@ 1
ประชา@@ 1
มอง@@ 1
หย@@ 1
สเปน 1
ไอ@@ 1
นด์ 1
รู้จัก 1
็อก 1
ต่อต้าน 1
ช์ 1
and 0.01788663675082128
กล่าวว่า 1
แพร่ 1
ขยาย 1
รรษ 1
การผลิต 1
สำเร็จ 1
55 1
พิจาร@@ 1
ตลอด 1
คม@@ 1
ทัน@@ 1
ป่วย 1
ตรง@@ 1
เถ@@ 1
สิทธิ 1
เหมือน@@ 1
แฮ@@ 1
ขณะนั้น 1
แก้@@ 1
จิต@@ 1
ตำรวจ 1
K@@ 0.1560651519560019
้าย@@ 1
ิม 1
ควร 1
us 0.20853860197175697
ทำลาย 1
น้อย@@ 1
ฟู 1
ตก 1
แตกต่าง 1
สัญลักษณ์ 1
คง 1
แคว@@ 1
เทศ 1
รับรางวัล 1
เป็นที่@@ 1
พาน 1
เนื่อง 1
อุตสาห@@ 1
ปาก 1
กซ์ 1
เมือง@@ 1
สเต@@ 1
เปล@@ 1
กระท@@ 1
ส์@@ 1
ประชาธิ@@ 1
จน์ 1
ขนาดเล็ก 1
อัล@@ 1
ราง@@ 1
รุนแรง 1
ผสม 1
ล่าง 1
ตั้งขึ้น 1
กอง 1
ฒ@@ 1
เธ@@ 1
พระบรม@@ 1
ข้อ 1
าม 1
หนี 1
สมาชิกสภาผู้แทนราษฎร 1
็อง 1
บอก 1
ผู้นำ 1
เพศ 1
วิท@@ 1
อาทิ@@ 1
57 1
53 1
บาล@@ 1
จู 1
้อ 1
ตรวจ@@ 1
สัปดาห์ 1
ร้อน 1
ตัวอย่าง 1
ดับ 1
สหราชอาณาจักร 1
100 0.9397995895641117
(" 1
สมุ@@ 1
โครงสร้าง 1
เหล็ก 1
ต่างกัน 1
ลล@@ 1
พระมหา@@ 1
ก์ 1
ด้วยกัน 1
ประท@@ 1
อาณา@@ 1
on 0.046464514069980756
ปิ@@ 1
ขัด@@ 1
ศิลป@@ 1
่อย 1
่วย@@ 1
รายงาน 1
ื่น@@ 1
กรุ@@ 1
หลักสูตร 1
สงค@@ 1
ดีโอ 1
่ำ@@ 1
ประธานาธิบดี 1
ษฐาน 1
ทำให้เกิด 1
โคร@@ 1
ฎ 1
รณะ 1
ห์น 1
บดี 1
49 1
ทธิ 1
ปไตย 1
51 1
้ว 1
ระย@@ 1
จี@@ 1
a 0.017639089204397555
ประสาท 1
ฎ@@ 1
16@@ 0.4439029075840573
กาศ 1
ขณะที่ 1
จำ 1
เปิด@@ 1
แปลง 1
ญญา 1
กรรม@@ 1
48 1
องค@@ 1
แด@@ 1
ปราก@@ 1
15@@ 0.5224739688906309
59 1
61 1
]@@ 1
คริ@@ 1
62 1
ื้อ@@ 1
5@@ 0.5237173600283312
จั@@ 1
35 1
al 0.07484043364672159
ื่@@ 1
0,000 1
V@@ 0.17272599610634204
52 1
สื@@ 1
แพร@@ 1
กิจ 1
ครอบ@@ 1
ภา 1
เตร@@ 1
ing 0.05257609903049386
อเมริกา 1
รส 1
56 1
เฉพา@@ 1
[@@ 1
สิง@@ 1
58 1
ผู@@ 1
x 0.3659697968256751
สำเร็@@ 1
T 0.7487970029283619
ณา@@ 1
อม@@ 1
ภั@@ 1
6@@ 0.5576235010784016
ฤดู@@ 1
7@@ 0.578201985757968
บรม@@ 1
เหน@@ 1
โทร@@ 1
พยา@@ 1
ท้อง@@ 1
ฺ@@ 1
ไฟ@@ 1
ี่ย@@ 1
2016 0.5429142414531778
กษ@@ 1
ว่า@@ 1
E 0.7225238706002117
ครั@@ 1
45 1
จักร@@ 1
เปลี่ยน@@ 1
ศึ@@ 1
63 1
ี่ยม 1
i 0.19095927765130793
9@@ 0.5661935751273991
สาท 1
2012 0.504691639556902
ทธ@@ 1
พร้อม@@ 1
้อม 1
_ 0.5456757212238479
วิทยา@@ 1
เร็@@ 1
ขา 1
2014 0.5077193089575346
กรรมการ 1
17@@ 0.3144660709588584
รณ@@ 1
B 0.54133693308048
I@@ 0.2474070593284969
กระทรว@@ 1
แช@@ 1
64 1
2010 0.39933110883825
2018 0.5342841810789614
สัมพันธ์ 1
สุด@@ 1
8@@ 0.5594819547322119
an 0.041012681987411
จน@@ 1
C 0.5347246687495324
47 1
ชีพ 1
2020 0.5946668283603925
พุ@@ 1
y@@ 0.1596383071687495
ราชอาณาจักร 1
อำ@@ 1
ถุ@@ 1
14@@ 0.6382970872769649
ั้น@@ 1
เดียว@@ 1
หมด 1
็ง 1
เทค@@ 1
ภาย@@ 1
ิ่น 1
c 0.18659723214557006
1,@@ 1
คาร 1
ดัง@@ 1
ระหว@@ 1
n 0.17435398231671378
ด้วย@@ 1
จริ@@ 1
t 0.07251897031579535
มาร@@ 1
2015 0.4530268772928329
32 1
39 1
e@@ 0.10863482198769475
42 1
ศาสต@@ 1
S 0.605790878042303
ี้ย@@ 1
J@@ 0.1583525359365097
er 0.03777197525375673
44 1
D 0.5460757762340293
ตู 1
ลาด 1
รณ์ 1
13@@ 0.6346491443797315
อร@@ 1
00 1
2017 0.4785378551146535
I 0.2593589427344068
รวจ 1
! 0.7065813394065418
80 1
เทพ@@ 1
เดิน@@ 1
46 1
ฺ 1
2008 0.427002003513243
d 0.10810232959764254
/@@ 1
43 1
2013 0.42189289348293435
มาณ 1
ation 0.07424366787991492
formula 0.5379630339500626
N 0.6604888604766594
e 0.09004167104192076
F 0.6239152054676756
38 1
U@@ 0.21301757980704875
36 1
สาธารณ@@ 1
ทั้@@ 1
in@@ 0.07140415352989002
O 0.5064178091634636
พัฒ@@ 1
ดำเนิ@@ 1
ุ่น 1
@@ 0.10981615912373151
ดับ@@ 1
กำล@@ 1
2019 0.4549609457123317
2011 0.3615690053695144
ตรว@@ 1
M 0.583473337574147
p@@ 0.08767541416807045
o@@ 0.1313700488199664
34 1
33 1
ึง@@ 1
ฑ@@ 1
ทรั@@ 1
R 0.5001815854512084
แล 1
10@@ 0.7071604099003432
สมา@@ 1
เลี้ย@@ 1
ราษฎ@@ 1
37 1
ธา@@ 1
s@@ 0.05295882994993456
แผ่น@@ 1
P 0.6350705816440417
เนื่อง@@ 1
ราะ 1
สภา@@ 1
ก็@@ 1
ณฑ์ 1
1.@@ 0.8595019631419412
แชมป@@ 1
ูด 1
มูล 1
90 1
๋ 1
ลล์ 1
หมู่@@ 1
ตน@@ 1
2009 0.36675418233674717
เอเช@@ 1
k 0.1295146964244865
20@@ 0.8182080672674296
นาม@@ 1
ท้าย 1
H 0.8969475948091061
000 0.7975113039599241
41 1
ปัจ@@ 1
กัด 1
ผลิ@@ 1
หนังส@@ 1
ใต@@ 1
es 0.028713992863047783
70 0.9635587435042229
หญ@@ 1
พัน@@ 1
2007 0.37951003292611707
กำหน@@ 1
เดีย 1
ำเ@@ 1
ศ. 1
ธุ@@ 1
ลักษณ์ 1
จันท@@ 1
br 1
2006 0.382906521387686
สัญ@@ 1
ถิ่น 1
L 0.3806028845645998
สูตร 1
th@@ 0.11357535244770424
c@@ 0.0772141690921321
ศักดิ@@ 1
o 0.07152823716026563
ขนา@@ 1
เสริ@@ 1
h 0.1561145500662105
65 1
;@@ 1
al@@ 0.07983581804949287
de 0.00609110331096057
l 0.09122112773866359
um 0.12002112238227661
t@@ 0.06611217612385277
on@@ 0.10652068560366758
เทีย@@ 1
Y@@ 0.22690656484624355
ฆ 1
กลับ@@ 1
ดำ@@ 1
บุค@@ 1
โบรา@@ 1
รกิจ 1
u 0.15615356321967877
สาธา@@ 1
เพื่อ@@ 1
ได@@ 1
an@@ 0.08686055950956224
200 0.9542990344045901
เลิ@@ 1
to 0.012261383627795013
ทางการ 1
G 0.552586951167188
สู้ 1
500 0.9395932952835387
75 1
p 0.19845504567261646
m 0.1213661827135422
n@@ 0.07441121450593734
เศรษฐ@@ 1
ภ 1
หลัง@@ 1
i@@ 0.10922318054394507
๒@@ 1
0.@@ 0.7678379317032196
ฐาน@@ 1
เสด็@@ 1
... 0.7156976080794151
ช่วย@@ 1
บัน 1
ก็ตาม 1
ทัศน์ 1
ี่ยว@@ 1
ตะวันต@@ 1
idae 0.828722520509942
is 0.02233127569032539
รู้@@ 1
ch@@ 0.06064922911016843
ขณะ@@ 1
12@@ 0.5991983726904907
d@@ 0.06564816146988231
ตุ 1
เลื@@ 1
เดีย@@ 1
เศษ 1
หรับ 1
ia 0.14378992531354737
+ 0.8133218080583539
ทธ 1
V 0.5540325268149965
g@@ 0.06873245183628163
แม้@@ 1
ic 0.1772735999490482
Ch@@ 0.12806153490006547
ine 0.12091160216216547
เหล่า@@ 1
or 0.0514972953445545
0@@ 0.6032657345700037
สเป@@ 1
ph@@ 0.1508282628703388
2000 0.3529522316546825
k@@ 0.0779255568920875
ให้เกิด 1
่าว 1
ar 0.06324663807946423
ate 0.08690060152425191
ed 0.02505291351396009
r@@ 0.06730839311787265
X@@ 0.438067302886879
ac@@ 0.09623891815261178
เศร@@ 1
ลักษ@@ 1
2004 0.38080022874243025
X 0.6491966645749214
ฟุ@@ 1
2,@@ 0.8689123153083317
มนตรี 1
พันธุ@@ 1
Z@@ 0.1174711017715571
2021 0.4250812881536877
2005 0.3554440408301738
3,@@ 1
ต้อง@@ 1
ic@@ 0.1251657490867738
มนุ@@ 1
or@@ 0.08544294611512925
r 0.2682392161352884
ar@@ 0.07042270906257872
f@@ 0.053868001234791
,000 1
Th@@ 0.1902224179855982
ot@@ 0.13029076013890176
a@@ 0.12328557222914698
et 0.021051751704585064
g 0.16204572788228455
มนุษ@@ 1
ือน@@ 1
เหม@@ 1
แพท@@ 1
ประกอบ@@ 1
ฯ@@ 1
ตล@@ 1
oc@@ 0.1512807162996035
ด็@@ 1
คัด@@ 1
h@@ 0.061135736766650774
กระทั่ง 1
os@@ 0.14923968819747133
ศ์ 1
en@@ 0.04825107275821615
กฎ@@ 1
w@@ 0.06453779034501976
ศิล@@ 1
In@@ 0.16302755488827186
w 0.15671780225677767
แทน@@ 1
| 1
b 0.1974298908776193
W 0.6187549725891364
โครง@@ 1
!@@ 1
am@@ 0.09211919646662349
b@@ 0.059520750669084695
ol@@ 0.11271281101389552
amp 0.2247064734869764
at 0.026821404820930025
ตระ@@ 1
99 1
K 0.5243502148995238
el@@ 0.06866893576946005
2.@@ 0.7112974743919378
om@@ 0.12758740744700187
aceae 1
สร 1
as@@ 0.08740969574811344
ธิบดี 1
ส่ว@@ 1
นาคม 1
จัย 1
1990 0.43262554018029376
m@@ 0.06683729628983005
tr@@ 0.06420950784084196
จาก@@ 1
WWE 1
ราะ@@ 1
ณฑ@@ 1
หมา@@ 1
บัติ@@ 1
v@@ 0.06639753979682674
é 0.058251519373535565
en 0.009243823472410529
00@@ 1
ญญา@@ 1
ราม@@ 1
ul@@ 0.09008394356859535
,@@ 1
บล 1
ห์@@ 1
ดง 1
er@@ 0.04638331307448212
x@@ 0.16105726299230452
2002 0.3386146179737466
l@@ 0.051203817578403754
มัธ@@ 1
ชีวิ@@ 1
lo@@ 0.1058548977222399
ม่า 1
el 0.016350728377848175
2003 0.34140151040323263
95 1
at@@ 0.08331363803155284
ั่ง 1
เภ@@ 1
01 1
เศ@@ 1
ณะ@@ 1
300 0.9782660164078119
ฬ 1
le@@ 0.08073741492106316
ธี 1
4,@@ 1
1980 0.49119074784412475
ทัศ@@ 1
ag@@ 0.0754030856177188
:@@ 1
๑@@ 1
Con@@ 0.1390568133092289
อเมริ@@ 1
ประส@@ 1
กรุงเทพ@@ 1
ดำร@@ 1
U 0.3340451199320077
ap@@ 0.08935247226175065
นการ 1
85 0.9584151410401314
3.@@ 0.7027480590490361
05 1
re@@ 0.02657521226345885
id@@ 0.09627451123636863
for 0.01939838209007316
กิโล@@ 1
88 1
98 1
Sh@@ 0.17866563812520217
section 0.7183050901348896
le 0.0165362493493174
จักรพรร@@ 1
อีก@@ 1
am 0.06624293095596542
๕@@ 1
4.@@ 0.7766504245435979
อย่างไร@@ 1
72 1
เกิด@@ 1
จัง@@ 1
2001 0.2984471055940151
ti@@ 0.0777110167282458
คุม 1
World 0.20876955924834179
ro@@ 0.08189509922208184
ราษฎร 1
one 0.05561096966978359
ฉ 1
ออส@@ 1
84 1
ad@@ 0.06463244670890562
j@@ 0.07538247795103101
Re@@ 0.10954086839801346
u@@ 0.07972827132491896
76 1
it@@ 0.06518708725856068
Tr@@ 0.10640202670493708
ั้ม 1
03 1
77 1
ur@@ 0.07062259212060276
อักษ@@ 1
04 1
is@@ 0.06270990618984504
08 1
et@@ 0.0911027051088082
่งข@@ 1
“@@ 1
ent 0.04001677343212485
๑ 1
ดำรง@@ 1
93 1
92 1
68 0.9992070052664976
94 1
89 1
op@@ 0.10884131836879128
09 1
02 1
78 0.9875699356461428
91 1
96 1
07 1
บันท@@ 1
An@@ 0.08795603241296973
66 0.9524845146406133
81 1
06 1
1992 0.37466112011580194
82 1
1996 0.36051631631603526
ity 0.10001132546586834
ันท@@ 1
สภาผู้แทนราษฎร 1
เมริ@@ 1
97 1
1998 0.32810999640984456
5.@@ 0.7811845021491989
มาก@@ 1
ูน@@ 1
67 0.9773861413149064
83 1
ประโย@@ 1
ดง@@ 1
tion 0.06596094606705738
Al@@ 0.07940946945131656
ถน@@ 1
ve 0.05808160409250792
1999 0.2915667804920348
li@@ 0.07257953168315044
ai 0.23911048401396784
it 0.03039723786007297
7.@@ 0.8269553761025507
วัล 1
30@@ 0.690143233150347
1970 0.4281177261949333
’ 0.0433436466644845
° 0.44326416379398265
​@@ 1
co@@ 0.07505283248582838
po@@ 0.07813222239655968
มปิก 1
ควบ@@ 1
ะแน@@ 1
69 1
ฬา 1
แตก@@ 1
6,@@ 0.856767737304879
86 0.9024461405877547
ary 0.08450692001809647
79 1
1997 0.3343934901917995
73 0.997773965821375
6.@@ 0.7670286838402628
จัก 1
as 0.011916095388704634
ร่ว@@ 1
1960 0.45680550388731694
ter 0.06409802483470996
em@@ 0.07081605848640905
il@@ 0.06886825580532281
ec@@ 0.0842685199366856
ยัง@@ 1
87 0.946998773103724
71 0.936238191595718
J 0.8224786846248174
ษฎ@@ 1
f 0.12339249642885179
z@@ 0.044605340167460636
เลิศ 1
400 0.7795990545023039
คะแน@@ 1
สหรัฐ@@ 1
end 0.11781254108984468
— 0.033005925857372005
74 0.908432790672927
ers 0.033678642553085704
ยี 1
St@@ 0.09000918099331516
๊ 1
1,000 1
8.@@ 0.8242931061675606
Co@@ 0.15307358267360074
สูง@@ 1
ต้าน 1
ีต 1
ch 0.09702215788281864
th 0.07184747684910414
v 0.21793628408381777
ชื่อเสียง 1
es@@ 0.053170746342432795
๒ 1
di@@ 0.053748999035694064
age 0.05293814811660286
ฒ 1
สมาชิก@@ 1
to@@ 0.1108703608312804
1991 0.32221433247339265
นิด 1
1994 0.3165610292860508
z 0.09074498902300791
us@@ 0.0628252966161523
เกิล 1
๐ 1
Ex@@ 0.16556030296273647
สมาชิ@@ 1
Com@@ 0.12524472613277016
Y 0.655563943571964
7,@@ 0.8563934985910325
ed@@ 0.08156237118905253
2022 0.6375637146367765
ang@@ 0.09116363399072075
Ar@@ 0.08717735565527744
im@@ 0.05350467577970134
University 0.12310989821278862
st@@ 0.03709789665298511
1993 0.319508602613742
9.@@ 0.8357835387462555
de@@ 0.05406245580747954
จำนวน@@ 1
้อย@@ 1
Br@@ 0.09723683281308076
ธาน 1
เกีย@@ 1
ๆ@@ 1
=@@ 1
ติศาสตร์ 1
1995 0.2964832698267911
ay 0.11282900573563678
per@@ 0.06340261105697134
ous 0.11353020857284528
Love 0.7825248967752414
18@@ 0.5016334346983458
ab@@ 0.04806896807693464
แห่ง@@ 1
8,@@ 0.8051988472416933
ty 0.1140646268871337
ang 0.16318085474036298
1988 0.343555045948607
un@@ 0.04017914943352249
ควา@@ 1
ure 0.0986555797849673
อำนา@@ 1
International 0.26199905371573246
ir@@ 0.06868914504848218
ญญ@@ 1
5,@@ 0.6965669703173248
od@@ 0.14446593595226453
บริษั@@ 1
1989 0.317303462787822
la 0.004807208689775514
ter@@ 0.06748167286156302
เหร@@ 1
Se@@ 0.13081641513379755
150 0.8832315431319688
มาย 1
Car@@ 0.11234775655427424
He@@ 0.1685988191454484
bi@@ 0.0934292308789423
sh@@ 0.06073386333240041
ie 0.046577975083163296
ical 0.10179164268002579
ana 0.09385638843758863
Mar@@ 0.07345009639040105
ess 0.13326671866561518
1945 0.3033979785875355
๓ 1
ae 0.3153510857823865
'@@ 1
2500 1
%@@ 1
TV 0.3107099594193696
จัก@@ 1
เป็@@ 1
ent@@ 0.046382180490751185
Ro@@ 0.1421924074106214
da 0.07071357194711252
ใหญ@@ 1
600 0.9304199130717943
ํ@@ 1
id 0.13575804813537787
รัส@@ 1
Par@@ 0.10336216925987339
เริ่ม@@ 1
ant 0.03822070505420223
ory 0.1701766576359725
5,000 1
og@@ 0.12054244926579895
ig@@ 0.06686413798369875
You 0.5616898208836295
๔@@ 1
New 0.0735872020829317
si@@ 0.07149699189309981
II 0.1492286993974512
ปัญ@@ 1
os 0.02924644973043101
มหานคร 1
AR@@ 0.5705893449915108
Q@@ 0.24819265438229407
dis@@ 0.04875833137753632
26@@ 0.7017752111482441
19@@ 0.5323594305001251
ให@@ 1
800 0.9331053384102501
man 0.06855669147754843
1984 0.33751215387958217
ือง@@ 1
28@@ 0.5759179128747858
1950 0.35871777404816735
ฝรั@@ 1
ol 0.1664405246062788
AS@@ 0.5913610844841876
เกี่ยว@@ 1
ism 0.22237554229888432
um@@ 0.060513071189355686
av@@ 0.07406352213291535
Mon@@ 0.12113113988246134
2,000 1
tic 0.17420965304305738
á 0.2361134162686439
9,@@ 0.7629002208400429
Di@@ 0.10682608411535306
ata 0.1994729270612591
ep@@ 0.13990848323539085
Best 0.5087903703480193
ri@@ 0.07127084104749322
Bo@@ 0.14150751279616908
do@@ 0.10260136228027615
Le@@ 0.09780138684271802
Ph@@ 0.17378227033073607
ad 0.08782878602615594
se 0.015083351113934093
๔ 1
คล 1
1986 0.3080446060795231
ob@@ 0.0826641807330826
ใส@@ 1
๕ 1
ครัว 1
นายก@@ 1
เทคโนโล@@ 1
29@@ 0.6002181019979377
ut@@ 0.07738082831049167
ni@@ 0.0846850063197107
”@@ 1
1@@ 0.3024110531923016
Ac@@ 0.21102891939141136
Music 0.3293000577553885
ite 0.06547508172270486
De@@ 0.12556719223450905
ดน@@ 1
1940 0.3748423325971151
? 0.3310558637163259
ak@@ 0.06993280183884305
hi@@ 0.11613378013930906
ance 0.06293532796993902
qu@@ 0.043280341331175316
yl@@ 0.23735180109948875
ase 0.18309733318479957
En@@ 0.12232034069427232
ด้ว@@ 1
ชุม 1
ati@@ 0.08409000302901835
ปัจจุ@@ 1
ตุลา@@ 1
te 0.020874575707635405
School 0.14098233723324308
ly 0.03991061285449218
Be@@ 0.07831095381610889
ม่ 1
1987 0.286981685370828
all 0.046196024589839464
begin 1
Per@@ 0.11758727135274517
te@@ 0.06835874614570107
Z 0.5454388339317338
ail@@ 0.21915322795019296
est 0.0125614954237247
tor 0.12811343032367564
0,@@ 0.2997462090483732
1.5 1
pi@@ 0.08287343531624579
ขนาด@@ 1
cor@@ 0.10708435800768247
der 0.005430185721313099
120 0.9781346716783756
par@@ 0.04675289658908045
1985 0.2851208051185406
Cr@@ 0.16971648062693948
by 0.010554682954264462
Sp@@ 0.12932388671988646
700 1
10,000 1
1972 0.2988460753717911
Ad@@ 0.11959593407802548
no@@ 0.0988713030506785
ce 0.05153800068594408
tri@@ 0.07526314141202894
no 0.04717830768027712
az@@ 0.09819659489175163
Ne@@ 0.10720220758243394
mo@@ 0.07251689832249303
ok@@ 0.12329762282207254
IS@@ 0.5107622806140827
yr@@ 0.1811016203561202
ne@@ 0.08032914831483261
๐@@ 1
pl@@ 0.05577889553113538
ath@@ 0.1045337605358482
ina 0.07687560408775655
ma 0.10884203956936049
ong 0.1585993902554426
ือด 1
com 1
ain 0.10232181530691443
eg@@ 0.06399692234928761
j 0.3718108183982865
ฑ 1
oph@@ 0.26983061129771296
ion 0.10146243009870473
ci@@ 0.06125763566175373
.ศ. 1
National 0.10242051968399153
se@@ 0.05042887642569861
ex@@ 0.03195899081043252
1983 0.27622311028067004
ya 0.07640135269317898
๓@@ 1
bo@@ 0.06509509432049697
ตว@@ 1
2.5 1
ence 0.049122741972966774
un 0.010223398709479695
ik@@ 0.07565509147172995
กลาย@@ 1
.. 0.8386323538888512
AT@@ 0.7284300586312031
27@@ 0.6012459210888578
ice 0.07198154296042503
od 0.14139359673107796
In 0.014063065044286465
ประวั@@ 1
1930 0.33905462886005305
My 0.5991139287916958
1979 0.27008165803253514
1968 0.27978704584888586
br@@ 0.04185799159494653
Gr@@ 0.0817177644917034
ue 0.07110395834806027
end@@ 0.05431953483270323
su@@ 0.05216117038631128
1920 0.3309985572684482
CO@@ 0.51432491378492
1982 0.26142774917619543
ach@@ 0.05920801826484459
# 0.38329454207503333
1981 0.263915728011369
Award 0.27715180995786787
ative 0.08530640424644423
ace 0.12391222556814908
1976 0.2724543185957171
ฤ 1
* 0.13302514519909886
1964 0.30402775059303316
Or@@ 0.09208810155971273
ard 0.07355021550301243
20.@@ 1
Pr@@ 0.09368616909210539
str@@ 0.062067142354474886
ta 0.053571340041121136
For@@ 0.10776466770640944
Man@@ 0.11454851337977226
are 0.019104877538664865
1941 0.2824277841036573
Col@@ 0.09693406731439164
Mo@@ 0.15215750694707456
hy@@ 0.3018170470518097
1975 0.2542695228566989
ฟุต@@ 1
John 0.08894896999957745
ay@@ 0.08841733248186079
ge 0.057363323999188205
ou@@ 0.05848604252196648
Gu@@ 0.10218096818215894
Cl@@ 0.16098751795505553
ov@@ 0.1041656665961498
ES@@ 0.5849032124489321
๖ 1
ing@@ 0.06683834620456218
1939 0.2911527370721827
Cor@@ 0.10807410276077195
son 0.0217769655437491
tic@@ 0.1242549805508314
1944 0.2529404317931878
IN@@ 0.5947448836827299
ื่อง 1
Str@@ 0.11444212062383907
ale 0.04400827665204624
mon@@ 0.06125259976621222
ight 0.13192966522615332
1978 0.2567142816534733
ated 0.025415129804281095
st 0.0835330318130306
Q 0.6042112479877876
sp@@ 0.061872413437594635
รรม@@ 1
๙ 1
ea 0.17072512097406484
ok 0.20675868294751115
ō 0.46782151641286
Qu@@ 0.0802534647916214
be 0.02081592340384218
250 0.7364094752034333
Awards 0.345081223998907
− 0.747959344223127
1974 0.25263214114853305
re 0.04863623086897818
Championship 0.27600208192075276
Si@@ 0.19238110173219647
with 0.008708296619816957
ey 0.12207567580151829
and@@ 0.06481509684627695
Un@@ 0.12526462452969014
Pro@@ 0.1318554444576158
ver@@ 0.020820107560882234
ah 0.14760259095257483
car@@ 0.06231515176259012
Lo@@ 0.13640316795383356
ber@@ 0.05051180231643705
สาห@@ 1
ass@@ 0.050383922124448366
con@@ 0.02618661058777065
ong@@ 0.10113900059417477
CA@@ 0.357892022202197
gi@@ 0.05747598046476347
ā 1
‘ 0.40141514484876695
ist 0.01645283417892728
uc@@ 0.10151511314821626
?@@ 1
ular 0.21265872499565905
au@@ 0.043229028108976636
ton 0.06183777313901916
Dr@@ 0.1528495933497422
CD 0.39269406741360546
ell 0.07662402399421209
pr@@ 0.04408173427250959
ฆ์ 1
ensis 0.41384600486846784
BC 0.49848273056110143
ng 0.8795215128161156
ยุโร@@ 1
• 1
Her@@ 0.09231091183426397
he@@ 0.06273885460127471
ts 0.026465604654868254
ak 0.09988105074363539
22@@ 1
ics 0.10875743969796546
eb@@ 0.05617402237471488
มณฑ@@ 1
× 0.6386284601293296
Bar@@ 0.07420173676776005
cer@@ 0.12431936616452174
ans 0.036971493108657785
aw@@ 0.09301637268089717
๗ 1
Me 0.5295199911579347
10.@@ 0.8065481111661446
ment 0.053956781776649684
1969 0.24879183076904218
ตริ@@ 1
El@@ 0.0754896043746487
ฌ 1
1948 0.280767996138653
ass 0.12783199135571
1967 0.25079936280298365
1977 0.2412799734309648
tu@@ 0.08816883152370662
1971 0.23038208698243495
Am@@ 0.08868263602929316
1956 0.2822463701750627
mar@@ 0.04266859438521893
ใช@@ 1
ica 0.06571468509067341
พว@@ 1
ile 0.06882017451519977
ื่อง@@ 1
ๅ@@ 1
Mag@@ 0.1530774193735243
Man 0.3400830054443511
AC@@ 0.4446821361252096
1942 0.2537908479356145
King 0.19703207314479615
able 0.0394828138685393
ell@@ 0.06490343100900492
Ab@@ 0.05336567759219764
ah@@ 0.07149752235043934
1973 0.2254666549934213
101 1
ma@@ 0.08069262182065598
๘ 1
Te@@ 0.14841521406553668
180 1
und 0.005015821768532149
ัติ 1
AN@@ 0.6166472963585494
onlyinclude 0.8725852215853526
Me@@ 0.10363231366087221
ology 0.11992062206415496
เกา@@ 1
18.@@ 1
na 0.07776414699073564
ü 0.49865699619641823
It 0.02638019396459585
Min@@ 0.13603164628684997
iz@@ 0.07252352874320202
Li@@ 0.0962555541502743
พวก@@ 1
1918 0.28435258522517587
บิด@@ 1
Po@@ 0.12511901922426427
gen@@ 0.05903269727966892
our 0.0806412237162729
Entertainment 0.628266681531232
ํ 1
Hol@@ 0.11509609774333102
1936 0.2866068401395363
ari@@ 0.1124295151820512
ib@@ 0.10864786418377217
tive 0.13127591928073173
Tri@@ 0.14411879182125234
il 0.01866559615453052
IC@@ 0.48306111093370285
Sch@@ 0.030004420699695486
ann@@ 0.06737172083677727
To@@ 0.13834814830496264
1962 0.24761915731258374
ran@@ 0.06002255055480338
ant@@ 0.0675952613244867
ill@@ 0.07562977073820738
ings 0.0481864363496725
Ma@@ 0.10336484759461974
ox@@ 0.28103657961507394
ens 0.037506035517477096
AC 0.42385036758100497
ot 0.09470734952074822
$ 0.08941709670076298
so@@ 0.056915172878400914
Team 0.27372122096733253
ake 0.16270768375818856
Hy@@ 0.28910641471449317
RA@@ 0.36392843898201105
om 0.1551511591185653
if@@ 0.08050573053370129
ler 0.0528862307255027
ator 0.11471845658111399
ษา@@ 1
pe@@ 0.05853386313674182
900 1
ack@@ 0.10699701595411557
vi@@ 0.04107930356293935
1943 0.2272407637944527
1963 0.24107308757531104
me 0.05599170942533789
ore 0.07810603277166954
ษั@@ 1
Inter@@ 0.11333837518196366
1000 0.46334369114704643
1949 0.2575280797861723
SE@@ 0.5308829391277277
Wor@@ 0.15801877617009263
cr@@ 0.06343978043988333
eng@@ 0.05374393858895
und@@ 0.058028305132548544
130 0.9617610347488328
1952 0.2667075959192922
1947 0.25876882691924646
Star 0.34245474395809933
ww@@ 1
ade 0.07153004176160907
Dis@@ 0.16902552157687425
ST@@ 0.6605183908338248
gr@@ 0.04083287357858947
den 0.008930005154326874
be@@ 0.02370312212317809
rec@@ 0.04381527854242244
III 0.18453975781461934
One 0.14650414850929083
ene 0.06927227604165033
lin@@ 0.07025777469264971
1938 0.24920711269742382
As@@ 0.12421537267441166
1946 0.23268651193950823
1965 0.21859528148371948
TH@@ 1
ly@@ 0.16926929489644768
inal 0.18762755381782178
ö 1
1958 0.2402919699763841
Pl@@ 0.10555895392437502
amb@@ 0.10872364862581992
ศัย 1
ー@@ 1
Cy@@ 0.3254968549583353
Mas@@ 0.1387075005350403
cell 0.6170460739957062
land 0.040219144297666945
1966 0.21596245795603805
OS 0.4283853384714562
anti@@ 0.0942427140354507
ó 0.020963179425894353
United 0.05070431271866006
17.@@ 1
ER@@ 0.5197483444879304
We@@ 0.08270946282873048
act 0.13493195483788756
ting 0.04114586995157493
1954 0.25503016639645926
com@@ 0.03083377175886993
1961 0.2334891588766431
50@@ 0.5797039874872083
All 0.13351376536474577
all@@ 0.05711801735175151
yc@@ 0.28568003888156085
ise 0.04325633000722037
af@@ 0.044547598555808976
ist@@ 0.05302930169422976
ect 0.09068541498770005
li 0.1622931200196227
Group 0.20159487825742098
พิมพ@@ 1
Jo@@ 0.12565866892021818
ons 0.0337839628497886
ks 0.04389384496711955
AB@@ 0.7291169095536764
Mor@@ 0.07616855323147194
ung 0.020539645531652773
ner 0.039515578721025485
American 0.050570986384720795
Black 0.241514896837878
sion 0.06349710807728735
ne 0.027740309206684483
les 0.00786317749112315
19.@@ 1
RO@@ 0.6913571480959367
ปฏ@@ 1
22.@@ 1
Ste@@ 0.10321080171923122
Battle 0.3553464988945705
On@@ 0.20437701005447947
ho@@ 0.060447115361463154
ป้อง@@ 1
ka 0.09710941964447144
up@@ 0.07514791998494436
ane 0.09451696999730133
yn@@ 0.1713014670513865
Do@@ 0.16943097636321564
neur@@ 0.48490275879666983
Ho@@ 0.14227437671870277
ella 0.13465728176321282
ens@@ 0.0456630050540981
enti@@ 0.05544896382583788
Har@@ 0.09715928772824256
|@@ 1
12.@@ 0.816542115339522
13.@@ 1
ida 0.09154476065260865
Time 0.43987990506978847
ra 0.05943598197149589
Im@@ 0.16397375813516285
syn@@ 0.2045832892809633
Girl 0.9334237718590094
em 0.07440945346465247
cu@@ 0.055538283716969096
yp@@ 0.16910695193586348
1959 0.22651488981715615
row 0.21919151488531183
CO 1
No 0.2374602102573617
ek@@ 0.06141464751630051
est@@ 0.033293849239454415
Ag@@ 0.15421021492035716
ble 0.11582994052201077
ian 0.08267707646708142
ini 0.11190730515684283
AM@@ 0.48678430364337144
mag@@ 0.12667663941441445
Go@@ 0.15144545885813873
mi@@ 0.06205031979576961
College 0.10264633168036225
Bur@@ 0.09160472928733822
ast 0.11222144910998061
ide 0.12760358035070055
ev@@ 0.04965468899723373
~ 1
ars 0.08983467700454502
+@@ 1
Fr@@ 0.09738192325928445
BA 0.5042154418315834
Royal 0.1534768479184964
ick 0.08068620732269215
oth@@ 0.10802247277854629
110 0.7722015748568909
1919 0.24784650302706923
City 0.07750142475293344
q 0.23067194257550006
NA 0.8032202671962456
Su@@ 0.1011642128632224
1900 0.3133083684756032
man@@ 0.04144126132848579
1957 0.22481387621174304
per 0.05994746279297329
の@@ 1
ley 0.06180652215398971
160 0.8986780739333752
FC 0.13233335533275722
ement 0.02895014895139276
11.@@ 0.7804198116806557
line 0.07175048626552469
1912 0.2986494663124529
Pe@@ 0.11939114108777822
king 0.08907272235162497
16.@@ 1
ama 0.09973286207258497
fac@@ 0.057281839098371576
หนัง@@ 1
Live 0.4347482197837773
Mus@@ 0.10477670170748006
als 0.010871074592701327
era 0.0381337601784166
Center 0.19289161889384612
Pol@@ 0.09300072994704507
Pal@@ 0.10386828104626206
lu@@ 0.07186348537599518
ura 0.11926947931808908
ere 0.055184733627518086
me@@ 0.044800948533609455
ge@@ 0.03064842182914517
IM@@ 0.6231268197733536
Fl@@ 0.08232253056952454
200@@ 0.4225310409329185
RE@@ 0.5861355145556787
Ang@@ 0.08791297586617532
My@@ 0.28247218717082206
ain@@ 0.08234810721823685
ici@@ 0.07093474624274003
จากนี้ 1
Ser@@ 0.11034776290121186
ection 0.11019773211817314
Wrestling 0.802612815341019
21.@@ 1
Sol@@ 0.1386870046853234
des 0.004243215194117502
อุต@@ 1
Bi@@ 0.08615522211484668
UN@@ 0.4542765573950002
1953 0.22819589931793766
pre@@ 0.035422310173693634
ra@@ 0.06439947561138973
ara 0.09664235978366616
ver 0.07487025212100715
Mer@@ 0.11456021431907766
ick@@ 0.05658570088823755
140 0.8759025617520761
au 0.012102700419359501
1933 0.22090486108666976
BS 0.7005598319115907
Mc@@ 0.0775377454221907
fer@@ 0.05481168558545449
1955 0.21787967813854625
Pi@@ 0.12282900213181552
sc@@ 0.06948697034482504
sub@@ 0.05407059092554131
ur 0.049289692596043766
AP@@ 0.42925560084184855
Fi@@ 0.17241866734929856
Day 0.2817142315544276
di 0.08815659016200983
ster@@ 0.13328696350513344
1917 0.25335926468341213
ave 0.12753711283766214
So@@ 0.11394838611631018
for@@ 0.03042637713093013
TE@@ 0.7029865669841922
í 0.15768903816463536
NE@@ 0.5856543559330845
mer@@ 0.0453414261233526
108 1
Ver@@ 0.025022302485860837
atus 0.2746814250777143
anc@@ 0.06905597491109029
RI@@ 0.6914873855852651
War 0.07988664140005174
ir 0.04570597782018531
ン@@ 1
La 0.014068288609614914
Pre@@ 0.14577947143054903
out 0.03199954393999474
System 0.3382131001647134
art 0.059937666030703586
ตั้@@ 1
ors 0.04737409430566135
low 0.06097638779169204
1937 0.21755536084494942
ish@@ 0.07628821228715407
ten@@ 0.031548288694527825
Life 0.23301534453603406
ac 0.1378414626483046
ast@@ 0.08498439506337958
ys@@ 0.1693002677481398
bu@@ 0.07860711853430932
Ge@@ 0.05541223112605428
http 1
system 0.08639800690616166
หวัด 1
ff@@ 0.057319462088705954
dr@@ 0.04885884000487704
form 0.06338999996997331
uk@@ 0.10408154210120661
Leg@@ 0.14023164765885013
MA 0.4816243094309913
ish 0.054420402608409205
ca 0.06978578277656763
cre@@ 0.04895218775598435
ual 0.10199570051197762
order 0.11715932439526688
tro@@ 0.06995339031849086
Ap@@ 0.17832495082528801
ชนะ@@ 1
la@@ 0.05941727868037868
way 0.053958980196407484
inter@@ 0.0287723623346231
Sw@@ 0.11137131177539328
ost 0.16902999127810317
→ 1
40@@ 0.6184333085174298
Mal@@ 0.08233282018387285
SA@@ 0.38563450124729404
ao 0.15199397214445157
Association 0.1345671283553827
aj@@ 0.07830725584744226
360 1
Tre@@ 0.1545841342797714
from 0.007041770060367015
ori@@ 0.0800485076242146
ther@@ 0.1117153381685414
3.5 1
AL@@ 0.5983824008247428
To 0.21781422862768932
ack 0.10602413643444918
app@@ 0.07981368188939701
colspan 0.6321248124705403
ning 0.07401232291242427
1934 0.22803342450999026
Super 0.2855241206143159
min@@ 0.03933126413587974
lar@@ 0.0852685795732521
350 0.8483557203683384
Show 0.3581356160375132
112 1
125 0.8020987771469251
col@@ 0.04440208465862417
trans@@ 0.05049208846940256
ind@@ 0.07963312809379024
tical 0.08969538554625622
ung@@ 0.0730395363059625
1932 0.23948233802766253
Er@@ 0.03685998121105706
gu@@ 0.03868577207636287
14.@@ 0.9408677546909611
Hz 0.8478352746193162
Institute 0.17589992810836755
1924 0.24125754145545594
15.@@ 1
è 1
Fre@@ 0.07110467107569628
Sur@@ 0.16977045957286094
igh@@ 0.10801237011207439
Ed@@ 0.08821349212650999
ru@@ 0.04521957229979967
Bre@@ 0.1276358127269528
ali@@ 0.05475982122756802
eli@@ 0.1460348334771594
Mac@@ 0.12737750325143063
Trans@@ 0.13381609765027022
ode 0.2437349397824969
1,0@@ 1
ry 0.08908359062605051
At@@ 0.12309495740268471
eph@@ 0.39204679314690877
tics 0.07899585593016778
1935 0.21571219228183977
ino 0.055168200546491825
High 0.12562941984539353
Res@@ 0.14438107628524185
ys 0.14392903269500562
ym@@ 0.14135868254373285
Sc@@ 0.19594871517836518
1928 0.22086122830371568
mat@@ 0.06762583217033162
๖@@ 1
Char@@ 0.12262925906992189
120@@ 0.8308643502975572
Bas@@ 0.09359267823876531
ture 0.060883617146254634
2.0 1
ili@@ 0.06725235470572256
MS 0.4026127256021434
วัฒน@@ 1
Super@@ 0.22731246082708967
ano 0.043613335217710075
เนี@@ 1
WW@@ 1
ug@@ 0.07237900186297443
adi@@ 0.07818198484286243
dae 1
ich@@ 0.06543236791012488
lock 0.18147631290503313
Sho@@ 0.2925329972524868
nucle@@ 0.3734378041121047
cle 0.21576790529872436
Cal@@ 0.10307911049244109
1951 0.20322116136466584
Park 0.09911375186519579
Sub@@ 0.20276058083687576
Academy 0.1794523814270671
Mat@@ 0.12770273451158262
Prot@@ 0.16537192136510817
time 0.02253657641789646
Great 0.1975103046191452
US@@ 0.23599487291013674
Fe@@ 0.18775026207985704
Grand 0.1281362135434368
Top 0.29388629384281456
tions 0.025347431291024996
On 0.027907825241151374
ality 0.09979416743713182
สามาร@@ 1
EP 0.3433081881755455
Sm@@ 0.321046592576313
cl@@ 0.05350724574176054
ker 0.07108528834099823
CE@@ 0.5056483717521738
ser@@ 0.04532803314930451
IV 0.19165349472866203
Sec@@ 0.18697791558046933
der@@ 0.03640489961328441
sch@@ 0.01999015211001527
Ber@@ 0.05093915269352015
DC 0.3843952160982832
House 0.09840316952487753
sa 0.027286381202800886
Elec@@ 0.21623520076526948
AN 0.604582035895111
Film 0.11306643232689442
ud@@ 0.10176336961196583
大@@ 0.05307361739403335
王@@ 0.2383020361394123
Gar@@ 0.10397873630377666
Science 0.25597666546930786
St 0.17205718010393747
chi@@ 0.11424224999501142
ตำแหน@@ 1
eral 0.2531901147983993
style 0.11394314185319825
ai@@ 0.13257205480299666
eh@@ 0.05125817322587648
ep 0.12156390300728867
ess@@ 0.04438204136724073
film 0.033617449650400484
Asia 0.2987008748563978
William 0.08983505603372413
of@@ 0.08552634943995968
AK@@ 1
à 0.0046272678477265365
Hon@@ 0.14131210401259575
ations 0.017831976643004035
ness 0.12426325780813184
bl@@ 0.043113031080128955
iss@@ 0.09939199258993593
ow@@ 0.04869053491961936
James 0.0961896394297243
Tur@@ 0.0703674698849291
acc@@ 0.051310400090589396
kh@@ 0.07883676154116576
ome 0.17010439257858784
Art 0.1200495287272457
ello 0.17003722331019758
ters 0.048416090432443146
ani 0.11441790882419367
co 0.04715279009740936
ps 0.08627431105576294
Gre@@ 0.10381616833926272
ap 0.130524584394271
105 0.8646003689316122
anth@@ 0.23489421749627779
ref 0.5271417121621141
วิทยาล@@ 1
Kar@@ 0.07140262818286446
Lin@@ 0.15432640589885327
PC 0.41350023298410693
MO@@ 0.8160835296768079
oma 0.13264008814416947
rom@@ 0.08880176035223492
tor@@ 0.042699469516818696
Eng@@ 0.15359312004440148
Series 0.2536381619615727
80@@ 0.6625837942742798
ng@@ 0.11210232708236943
oni@@ 0.09920370137123959
Cro@@ 0.12670593997444846
MI@@ 0.5166940419176461
SS@@ 0.4744928235557297
Red 0.1777707151584474
Sil@@ 0.11390440171493357
Year 0.2738767387801261
iv@@ 0.05905338851718897
do 0.03379382280518179
oy@@ 0.08464671115831525
DA 0.5102065663657035
medi@@ 0.07148438869981082
1911 0.2635053724971216
arr@@ 0.054457543286441486
the@@ 0.06561443423396113
กุม@@ 1
Ran@@ 0.3128502493634458
Hor@@ 0.10992915662606106
ala 0.10183099049123392
osis 0.3714647174696706
ji 0.207090892631236
por@@ 0.05981105611133296
was 0.002401972545658026
เ 1
ents 0.02462492455538502
450 0.9637697909427303
Sal@@ 0.0781254491124506
pro@@ 0.03855542460811135
ted 0.017891754509497135
135 1
Gal@@ 0.09814605437528083
Party 0.11464302287606423
Gener@@ 0.2850203856173497
sel@@ 0.06566857023497023
ub@@ 0.07170525221085429
1910 0.2320277588198745
iti@@ 0.07334300413486182
Song 0.32172721796519566
agon 0.3594698761223053
och@@ 0.21776601468666715
โอลิ@@ 1
Big 0.22925465137727685
pp@@ 0.08628522088215539
Gi@@ 0.09059124500285921
cap@@ 0.05634168021797975
11,@@ 0.7006292333943234
1914 0.1956988365957713
du@@ 0.057580515992368526
ta@@ 0.06354220599590676
CI@@ 0.36640577283786985
bas@@ 0.053883317578265984
que 0.00415355755925351
្@@ 1
1922 0.2153399267023393
Japan 0.13857436843474663
tis 0.20402344647152887
ye 0.09863629890800542
sol@@ 0.0385408908424265
AA 0.387185184225696
BO@@ 1
su 0.013654751072382804
ash@@ 0.09481840262462113
enc@@ 0.07339022727000952
drome 0.6915918523857315
ization 0.3255993539594741
AG@@ 0.8468956517669638
1908 0.2615299330225446
q@@ 0.1493297000166049
111 1
23.@@ 1
we@@ 0.03458255134294329
sive 0.0836145121985107
ti 0.07617353923528879
ครั้@@ 1
RNA 0.9291302685807855
Young 0.25479819214967736
ora 0.08546750341881804
Mi@@ 0.1328032719497106
lat@@ 0.07389338481428986
ena 0.06354765512312639
fe@@ 0.042664224835997265
10,@@ 0.6575058360934334
Michael 0.1148937647528421
ales 0.020788072939046387
ash 0.16566141779515114
Mel@@ 0.1540128426329591
Records 0.1461267016390542
ire 0.045391387141682484
PC@@ 0.482352968328254
oh@@ 0.10629568688898292
FI@@ 0.2862789351755725
Op@@ 0.16014915058962514
tin 0.0907998999759423
unc@@ 0.08174977485793607
115 1
CD@@ 0.24818316139593152
Rec@@ 0.09400972751450554
duc@@ 0.1481916203474152
res@@ 0.025956507243275508
Night 0.37991568563963435
Progr@@ 0.27576559893902625
Rock 0.229616432076879
Uni@@ 0.23230868017451878
atic 0.16911231049341416
EC@@ 0.9298535343389913
Of 0.31781405413907654
fl@@ 0.04309084416122625
im 0.007485124431851715
List 0.18459767896839166
ab 0.04561860748453867
bit@@ 0.21052932596220736
Robert 0.09257678641579101
ates 0.03526363449573855
ster 0.0716547504645353
ner@@ 0.10587570736318615
1929 0.18467915545063934
PS 0.3167692128206477
teams 0.13630467800100796
TO@@ 0.9557079241252823
LE@@ 0.5538382132479701
Mah@@ 0.15339538867249689
bul@@ 0.13483308607251587
ding 0.0736750624864693
ha 0.050858110782917035
had 0.011652292999794703
First 0.13405744038849068
118@@ 1
ost@@ 0.18188853908860173
11@@ 0.2938058263008212
1904 0.2773458320942401
HD 0.6565051255190502
can@@ 0.061174850519839646
ole 0.07558121217100555
Sim@@ 0.12666151071684129
ath 0.1224588771577024
Bal@@ 0.07881105770944292
ever 0.11469920325575335
uch@@ 0.07215013615768541
Project 0.4257790155629595
ids 0.14123498685352676
170 0.8391660976865829
its 0.010993603744294317
ds 0.04939858829778202
กาส 1
ä 1
Beau@@ 0.2806475266032964
Can@@ 0.10665306635466784
SA 0.2899849097150116
ler@@ 0.0508312985650581
sy@@ 0.11039743756897032
Ni@@ 0.12806290095341955
ee 0.11237465323189004
ber 0.08658793266268706
codice 0.6326123086559089
ke 0.042280911759968336
1921 0.19890483994112554
fin@@ 0.03084327916431291
hi 0.1616433379244991
103 0.9850934027297668
We 0.26440623344305947
ari 0.1203820266711009
Club 0.0835299931751548
Hall 0.12725469015384253
ha@@ 0.09462171515226289
ki@@ 0.10011227708380804
side 0.04416292466208325
Em@@ 0.09402854609887625
ful 0.09067910614508441
inc@@ 0.03552665275553526
day 0.04422030194169639
elec@@ 0.07820055401889002
esis 0.25561342181389335
124@@ 0.6980417387210055
AI@@ 0.3578051644436014
awa 0.223837175166923
inae 0.551048335507413
1925 0.1950758950737582
220 0.9668974309029255
Des@@ 0.10096968388548404
acid 0.5892985836965438
ental 0.06900779782987862
ki 0.08896606327083018
Fac@@ 0.20905027872516743
State 0.05656787220952081
Blo@@ 0.23076758250692597
Mad@@ 0.104264883299857
Windows 0.336844094053669
ature 0.0915862569728699
los@@ 0.11276513726012531
met@@ 0.07964609920451919
1926 0.19101579160622312
ที่ย@@ 1
Bel@@ 0.052963259665058944
Pan@@ 0.11983764295087133
116 1
Val@@ 0.09256124909437671
ei 0.12593733417154163
ft 0.07571338054723109
David 0.08647337647606591
War@@ 0.11507633729491393
tra 0.09709993511983196
ข้อง 1
meth@@ 0.15942702547170887
pe 0.05504036857346272
–@@ 1
119@@ 0.8657318330018284
Kn@@ 0.16953756425007144
US 0.051763467569016404
eti@@ 0.08414567728736494
mus@@ 0.08834815128586662
osph@@ 0.3772435925715336
ease 0.2385759530999424
Ra@@ 0.17640630487425857
SO@@ 0.4355209954497797
ba@@ 0.06097305931311732
League 0.04853043256394296
White 0.15101465300962685
ating 0.031380410106456515
ky 0.1352127464009058
oid 0.25072939958613116
109 0.9738478363384627
Je@@ 0.09879113981927602
entr@@ 0.0593457244482623
106 0.9776797332767567
1931 0.18640853894875892
Festival 0.12658010804422057
Miss 0.3590818720053359
Ul@@ 0.14755953440989092
ax@@ 0.1277381726160703
ins 0.03265808577624243
io 0.06137934735766408
verse 0.1284151984515689
Is 0.37033830707590076
Ta@@ 0.23843787381685816
-- 1
1906 0.2467475129229312
Bl@@ 0.07961962557294452
Paul 0.07679591062112819
ame 0.11616288537395053
Reg@@ 0.05955597587402241
Kr@@ 0.05186784889811372
ock 0.1403050736416739
poly@@ 0.30448942619503544
1923 0.19262834469244708
Bang@@ 0.5293379533877801
Fo@@ 0.14003125375668113
DS 0.35847627049725406
102 0.8408274420725083
sur@@ 0.03386585025468728
port 0.06266438834263115
Vo@@ 0.16021520467925943
ome@@ 0.19468344325908446
เลือก@@ 1
มัก@@ 1
CH@@ 0.3811000295261988
Gen@@ 0.09842017969692443
Ru@@ 0.12378381784058425
Sing@@ 0.22717784093047613
scope 0.7218882360438647
tre@@ 0.055485277743298214
you 0.15438927761211124
Charles 0.08101067527705999
Cre@@ 0.14597999745762644
DE@@ 0.42484297618214667
Network 0.35140485643101077
action 0.06535490181705568
formes 0.3771731006842081
115@@ 0.8646450573582865
BT 0.6546493517638655
PA 0.3483330182298219
General 0.07134893286749586
Medi@@ 0.11578140423666634
els 0.03955295844547615
fr@@ 0.040913887952403506
Company 0.105927042068
Cup 0.07244243963929921
States 0.03969582445098356
world 0.06982147198558543
low@@ 0.08748855228760737
pen@@ 0.059488370135483214
Girls 0.5552765156501209
Hal@@ 0.11455538918368849
TV@@ 0.5008324781803357
Vi@@ 0.06993925406777707
ean 0.10917232664305976
ita 0.0678190821230045
not 0.013874007782551807
127 1
George 0.07676850936417821
Mul@@ 0.20031598571752918
alism 0.20935312197606945
๙@@ 1
1927 0.18011531783093468
Blue 0.2415545058091897
LO@@ 0.8512815116350989
Prince 0.22228273015390718
pos@@ 0.027142896124364872
๘@@ 1
Lu@@ 0.08514388009857898
int@@ 0.03613158672411561
yth@@ 0.16921913581780534
cal@@ 0.08384452814201472
up 0.022987605859333286
Chil@@ 0.1920467202194562
Dec@@ 0.16877838000005668
SP@@ 0.3508088629563397
eo 0.08695862572573675
ich 0.05709448058028543
van 0.1029531985335174
Final 0.2826079252604028
dy 0.14646663514361202
AD@@ 0.2926471916415311
amp@@ 0.0696261624136408
ov 0.10195641560447065
ON@@ 0.5672632102233844
ach 0.03834186064491594
group 0.051419389481988174
ou 0.02304722831549698
York 0.03712402157899283
op 0.07440621012702206
Be 0.6049875570891015
Don 0.20442615677484016
ada 0.015381870974129097
light 0.0807213825365603
1896 0.293002933440328
Is@@ 0.07651608517139497
Vol@@ 0.10239240846456098
sk@@ 0.05307676483676817
Your 0.4710499840069295
za 0.05532986292286553
her@@ 0.027626335173125054
320 1
ae@@ 0.19601373948321335
lam@@ 0.07388452496949233
tric 0.1664794009251655
Princ@@ 0.32114433212192106
Rom@@ 0.08578845625132965
Sa@@ 0.09640530201243401
ason 0.17632369217096938
ns 0.059597657592307965
Arts 0.14417944450852785
IO@@ 0.8739570369298025
Master 0.3037750315838667
River 0.0687253590027194
model 0.16659598487729654
ผ 1
1890 0.27255520065091726
Sy@@ 0.12642507700608305
cul@@ 0.07143105157848222
Nor@@ 0.04787939032275616
Wh@@ 0.21838096687496678
ard@@ 0.054275508654634014
ect@@ 0.10894608440266684
สมเด็จ@@ 1
Media 0.23710556294839247
Society 0.11865236665955745
ency 0.0815604456105646
1905 0.20572144298565373
1915 0.20136927651623668
Bor@@ 0.0732115387534632
Wal@@ 0.0863754437266862
ū 0.561493174545134
107 0.9307505135598867
60@@ 0.5495389576811618
AP 0.31850557661693446
Queen 0.2031193593749506
117 1
No@@ 0.13642767408311174
des@@ 0.021188789395946706
Gl@@ 0.10802247642220715
ans@@ 0.06662721877471638
ater 0.09823718221934048
pu@@ 0.04595803192096019
aur@@ 0.10686695572192416
ill 0.08327665684941549
ium 0.15321622559613038
Sam@@ 0.12486914744569977
arch 0.2109364033932449
ets 0.02907522298371449
onal 0.11474046192014431
SS 0.19815623750875122
ek 0.08170280093586517
son@@ 0.06693332674530916
*@@ 1
Cas@@ 0.08661616008663248
Wi@@ 0.12614418725985377
ony 0.12204433881404414
IS 0.4776145758643857
cop@@ 0.08212850327610399
ese 0.04775418551362768
DNA 0.41404155434910433
Research 0.1786116871210956
von 0.00462303984935134
MP@@ 0.3672084077410213
fication 0.09863084458625608
osa 0.10337720824022727
recep@@ 0.454245595820829
tel@@ 0.04861774505025699
wn 0.06740377233950959
‍ 1
Kh@@ 0.11098504623350142
Oc@@ 0.12530663720349752
Vir@@ 0.1673687874819419
1907 0.21661276489933784
Heart 0.5150535193759727
Story 0.5855799938669322
Up 0.3993701528953399
Wil@@ 0.09761224382829843
name 0.03144050042646889
ney 0.07867094684066502
ชน์ 1
ยนต@@ 1
Little 0.2351862944757729
NO@@ 0.4737254836626734
Plat@@ 0.14181670102161628
dia 0.12131920149588415
weight 0.20154023579744065
1913 0.185961985885216
AT 0.44288161000632176
Bro@@ 0.10155325580216723
ke@@ 0.052673984942991324
ut 0.07671306306083889
12,@@ 0.5320219057795564
750 0.7639991667307572
Bab@@ 0.2021378229825117
SD 0.6760504880688689
eme 0.09718790270882273
lan@@ 0.048141936911202825
non@@ 0.3562910523247145
ธยา 1
CC@@ 0.37442490238005655
Good 0.44822753391988573
South 0.04191808348387405
mp@@ 0.10668597212353446
ple 0.1906420660074795
123 1
Play@@ 0.15395011217849655
ins@@ 0.046380141233313285
AD 0.35723663788125215
Ben@@ 0.09724783609323495
Hu@@ 0.10096711021875132
IB@@ 0.9276545345420913
Tak@@ 0.1987144914391852
ette 0.05731072322987369
1916 0.196041422956568
Act 0.13301315161421756
ace@@ 0.2099202823732888
ays 0.1128191277586951
bre@@ 0.037870274686249455
cy@@ 0.21411952613003385
act@@ 0.12529482012345336
ero 0.058299918009657434
une 0.0064188495268483374
104 0.7735646665380329
Boy 0.4599774288449608
Cer@@ 0.12008003256980093
Council 0.08897533365512013
Down 0.4465609212425411
hor@@ 0.07473733837818966
mas@@ 0.049863979141443866
use 0.027897835303921103
PE@@ 0.566320412871604
go@@ 0.059960187621038635
nch@@ 0.18642431049531802
prot@@ 0.045028809356045085
Mov@@ 0.24914350336762042
down 0.060389839920386774
field 0.04825153732719542
Tom@@ 0.129581273632758
go 0.06565097306658703
CA 0.25941578151403155
China 0.08407036539625162
Del@@ 0.08278749048054294
Pri@@ 0.09078663120617017
iy@@ 0.1426625591723066
ī 0.7307664118491906
IP 0.4848332305262274
ML 0.6707501818761942
UTC 0.8865647206971335
ze 0.052308456365129104
114 1
Av@@ 0.1282641659986437
aka 0.18130055317922777
cus 0.21598349583007945
เคราะ@@ 1
IE@@ 0.5101451236946755
Last 0.5148405656406221
Met@@ 0.11028111043612245
TA 0.25270409136563776
Technology 0.3040090047917272
… 0.11168400551660486
East 0.07858148244200686
Win@@ 0.14469187442956935
ysis 0.22125060538569913
121 1
Cap@@ 0.1520365262115696
English 0.06603393326689672
Por@@ 0.08185749835959147
Who 0.4948071151299984
อิตา@@ 1
CS@@ 0.31357891851911057
MS@@ 0.5501205749885868
Mil@@ 0.08049983259252848
Mir@@ 0.15290772553769924
net 0.10283347074247604
British 0.04664279800934158
aki 0.19575942016544148
back 0.04324508797511184
hydro@@ 0.24794082886127486
ni 0.07324275345129463
tim@@ 0.0377869628699252
yl 0.246029210124077
्@@ 1
Fri@@ 0.17392951034674078
Golden 0.2804035333214728
IT@@ 0.4413669995161723
Model 0.5508596686612578
mac@@ 0.21631637876904689
alis 0.27503783252800307
Coun@@ 0.24582362365642788
ime 0.06955192584743239
AS 0.2768175232985959
Air 0.09448723227296245
Chi@@ 0.12493631967507049
ME@@ 0.46014233694990797
Ros@@ 0.07957384555193528
Ur@@ 0.06674617410809526
key 0.10157982947846803
oto 0.11273512958676662
เภท 1
Asian 0.23326275784957823
Lee 0.15701729555769056
London 0.057038373005339836
ax 0.27593232683903385
dition 0.11805636042201417
elle 0.01342425092762239
Ty@@ 0.13025055633541094
air 0.06374823512482994
enth@@ 0.1721755861888729
vis@@ 0.032676844181349717
illa 0.09708851653036067
ital 0.13567291489117891
top 0.06509705510238151
Dre@@ 0.12818377861320654
Shi@@ 0.19807332859753643
acy 0.0952358895530518
del@@ 0.0640313200461496
ket 0.14104473619507443
war@@ 0.052144769369490404
AL 0.5373804746099191
Bir@@ 0.10823048807693708
Fin@@ 0.06690279539330618
ISO 0.8743673928404285
Kingdom 0.14923739770333957
Swe@@ 0.19719473059337425
ense 0.0708067473862325
hin@@ 0.10573587345211112
lidae 0.9192758823940699
Hel@@ 0.09835397731317502
ective 0.09065891303062194
language 0.09746984348615023
Men 0.21643587725512897
loc@@ 0.04153545825325298
DO@@ 0.5867395186865841
RS 0.43744066781986923
Women 0.12504454249763475
arch@@ 0.05571733037359565
ema 0.10105622849774969
over 0.01947575470887756
sen@@ 0.04897127738603423
ผู้แทน@@ 1
1800 0.4263053970184056
Produc@@ 0.2533862505364839
sti@@ 0.05067019038490456
1870 0.25687852523728666
Au@@ 0.05968782609330404
Mur@@ 0.08846429181790662
ez@@ 0.07004795846074797
tory 0.1735609973381355
yst@@ 0.15684921234127602
126 1
128 0.795769062832967
mer 0.0458287969665869
រ@@ 1
Dream 0.6709343608004189
Open 0.15180717526084245
bar@@ 0.032723972449739944
ko 0.11209789191496758
that 0.0037374276045677875
イ@@ 1
1860 0.29203917656980494
Go 0.41668837844748174
Special 0.29333025286854664
du 0.004235502259424247
enn@@ 0.04197323725474708
my 0.12197090205656236
song 0.04814701745955799
tional 0.09516326571584074
tra@@ 0.06447538145034798
Business 0.2798396475446508
ide@@ 0.11458722971951273
this 0.013365279299971196
1889 0.27472664623683074
Game 0.23594855018970678
ff 0.09971426989301885
ima 0.1135011783972242
tur@@ 0.030936174471235846
1871 0.2998232124292244
Thomas 0.0719336761052701
hom@@ 0.06606146673173706
Ko@@ 0.09321929519913796
ational 0.09333492365775375
ato 0.06784174967101386
Home 0.24104415435381438
Tag 0.28881077380702613
har@@ 0.05801885017319449
33@@ 0.5803826526325836
aya 0.10836987684492866
๗@@ 1
Es@@ 0.06526027857308411
Sun@@ 0.2284460933444055
emati@@ 0.11433774751244123
tion@@ 0.06876260727627817
gl@@ 0.05577945076855294
inn@@ 0.04277320021275787
ties 0.035623677569993274
DP 0.3097344506409429
ography 0.07275229633112625
red 0.027866887417983547
ship 0.04955387406697408
ve@@ 0.06180874293058846
EN@@ 0.7739231064764409
Mot@@ 0.12396788731676422
Peter 0.08152160063678854
ury 0.09383281855637866
ú 0.29095836449381857
MP 0.30647079279685635
People 0.18984707484007116
esti@@ 0.06184256273510515
their 0.010536877431948914
ดาห์ 1
1901 0.21566788536797313
AR 0.43323435908792896
Cur@@ 0.10255464682664453
West 0.05039607463946158
aus@@ 0.016801398261956726
eng 0.2324621968069063
fi@@ 0.03636772463333287
ota 0.12253767417916091
Dou@@ 0.20159665430614185
Le 0.011129596272886271
eter@@ 0.09671838197602817
หน่าย 1
set 0.04450182851017486
{ 0.2528228448874541
£ 0.19678643290470627
113 0.9063487601922008
The@@ 0.09484242854691924
asi@@ 0.08597478622355453
ine@@ 0.14623344814850528
pol@@ 0.06573333770976936
Pres@@ 0.0985728533102976
Tro@@ 0.0858267850435928
ides 0.06458976382509801
mor@@ 0.042686316680259954
ั 1
Green 0.15910833935482593
Richard 0.09278994573195988
SC 0.20137856341190974
bor@@ 0.04083558223806078
hal@@ 0.04595643772876424
ights 0.12465955277111332
ste@@ 0.043972520133895854
1880 0.2523452155317049
Ke@@ 0.1095854331536696
Rel@@ 0.09206034954337107
Tor@@ 0.0643191587529082
icul@@ 0.1766899659267594
yg@@ 0.27220487146777567
Chart 0.4573885274217478
Chem@@ 0.2110759160020121
New@@ 0.09607142914352078
Sar@@ 0.10818051834158633
Tour 0.10180230220377481
ye@@ 0.09900767107294055
114@@ 0.8059959627436016
330 1
Dance 0.4053177977968111
Fu@@ 0.141683204355121
series 0.032788509752497294
state 0.035558968976375324
กำเ@@ 1
Ca@@ 0.17050120956334258
IG@@ 0.3931469751692587
What 0.33827985891586265
gre@@ 0.037017986116544756
ola 0.10089071471318534
ret@@ 0.06559546230835749
กูล 1
Tal@@ 0.1370135790978881
tan@@ 0.05720729401082999
1898 0.22527859228473915
wa 0.07225362112283525
240 0.8097012395099434
Air@@ 0.17604784017659542
PO@@ 0.5746923165768086
ological 0.08544940410566655
35@@ 0.42805292664720296
Anti@@ 0.16163979626482872
IC 0.3482622386107479
cin@@ 0.07703759471567949
sin@@ 0.07284415505992084
vir@@ 0.1223414565902817
118 1
Epis@@ 0.3087178247245554
Island 0.0933708717890785
News 0.2035837625008484
Out@@ 0.2428482246317561
bit 0.19342055426297244
ona 0.07223871724210902
α 0.10471987081137371
122 0.8707851943005238
Cir@@ 0.17122474218080527
Du@@ 0.07305889392642179
For 0.054746902579548104
Street 0.06982730376291856
ally 0.01322334930500665
ling 0.060555706668357294
cur@@ 0.03914314568796967
emia 0.45148118599246667
nam@@ 0.058073565533633166
ord@@ 0.038077997790288275
ฤษ 1
13,@@ 0.49613440042516005
1909 0.18593831714218698
CP@@ 0.3800172566656345
Cam@@ 0.09558945818536219
Lang@@ 0.11840057888868727
tis@@ 0.05765861118714242
AM 0.2743179366720032
FA 0.21640016205799104
Hot 0.24434573642537935
Pas@@ 0.09386948270677323
­@@ 1
ith 0.08828255897097384
รู้ส@@ 1
14,@@ 0.5302457430755767
America 0.07811333268965552
Organ@@ 0.15218948276836072
Space 0.317468970027609
arm@@ 0.04409456267399561
erg@@ 0.07729942467025955
tern 0.07347001100588256
Global 0.3650629569956561
Mid@@ 0.14254060003380087
Net@@ 0.25369226047045357
Union 0.060777150889047754
ja 0.06392859853787168
1500 0.3491284811393395
190 0.8575704005049106
Sea 0.20273282165517476
ies 0.027647752638316904
team 0.02354458964832381
Nep@@ 0.4215902471442522
berg 0.04304461608411758
if 0.051173567186382676
old 0.03121879187086511
1903 0.19682855260634927
Orig@@ 0.24562693287364906
Tokyo 0.28358148562797836
eth@@ 0.08882592494247772
yo@@ 0.12826376524465805
116@@ 0.8386074900519782
1902 0.19865290149286569
113@@ 0.8450553049290269
117@@ 0.7804547233879443
FM 0.20473406757771592
Ob@@ 0.10002120746134553
É 1
This 0.019164292427541578
center 0.09929638110869674
eus 0.351749645647903
formation 0.07487906915787267
ineering 0.1700441294180175
our@@ 0.06341336367213238
prin@@ 0.14369247178658986
ty@@ 0.110840729702074
BM@@ 0.30207426968188955
Kor@@ 0.08224951092798528
ison 0.06725888036938854
SM 0.5139011033394018
Video 0.3388024211366219
ange 0.09376783422308839
ort 0.092870052314457
sw@@ 0.06213508280849136
ๅ 1
天@@ 0.10597387378327278
210 0.8763641115566175
Econom@@ 0.17718433513785506
Spe@@ 0.10519401987680801
istr@@ 0.12012985835177907
Power 0.25816347477040436
ple@@ 0.09416950519893004
pot@@ 0.0680811980162597
ret 0.13512880094485535
sa@@ 0.03938330638199202
vol@@ 0.03922701733073422
Google 0.3896908659951604
Management 0.27450011519238415
Republic 0.12243346991969228
Ter@@ 0.10958908108551184
ential 0.1025560135841154
ext 0.5631730545307628
1895 0.2213086719159005
Digital 0.4316883667950951
HC 0.5353182737137754
pul@@ 0.07001741418870878
แหน@@ 1
European 0.06628034803667285
Ti@@ 0.0806963499563683
cle@@ 0.08977380734177716
ister 0.13827040145664093
Chinese 0.10830309016111031
ebr@@ 0.11820053378086896
gener@@ 0.05741570523072641
230 0.8527841050188084
Ger@@ 0.043472374287803046
Han@@ 0.11655140161905397
Plan@@ 0.12966545720342157
body 0.08463725255270739
ku@@ 0.0903223421503645
test 0.14174858250760186
vil 0.19807783772210016
ル@@ 1
San 0.03233784090250099
atr@@ 0.06833133077928298
ey@@ 0.06975292471245935
hu@@ 0.04988779007504858
ike 0.11651676594183095
off 0.03508736244805119
put 0.08925389740415966
rel@@ 0.026073146323980462
ç 0.3323692552131515
Cin@@ 0.20888653270301089
AF@@ 0.3568770784248517
Cel@@ 0.1424347583884453
Ful@@ 0.20465564186635726
Rem@@ 0.18095359483924542
ami@@ 0.13558343908902273
onic 0.2891514066350171
tidae 0.7326403793979158
tom@@ 0.04587238884060855
Duke 0.22628018623253673
Lor@@ 0.09758482641323576
PP@@ 0.6259768962059746
Sou@@ 0.1491822840765838
ger 0.04626908531970303
len@@ 0.056602976482699255
ote 0.05702849902140541
self 0.09503310204628972
win@@ 0.05522490406310487
yan@@ 0.17844701640569768
子@@ 0.27947455539938026
70@@ 0.540107864911641
DVD 0.1988606319046235
Mu@@ 0.10662255300298394
Os@@ 0.08914039483652532
Wo@@ 0.0798999565589713
mem@@ 0.06340262365558787
1888 0.24987155759577975
34@@ 0.5212430262229287
Star@@ 0.14875786801041796
dec@@ 0.02819625997640472
edr@@ 0.16388866517913053
pan@@ 0.0626143696960882
they 0.014263708968492413
129 0.9782600234210852
1899 0.20862522223123345
Bank 0.13511890262111217
CP 0.5017065851181801
ope 0.1018452370870316
ス@@ 1
1868 0.28925395329012915
Central 0.0756369541552101
Corporation 0.18113443614699815
Health 0.19468391253808395
Out 0.302004154776059
Wat@@ 0.12900923288956972
ail 0.09099628462015424
dor@@ 0.09878447029753733
form@@ 0.029372516601732783
ines 0.035964281843425434
member 0.03975624570180738
Foundation 0.1750223118646765
Fut@@ 0.25621166590727074
Luc@@ 0.1315102772310657
Pat@@ 0.1307630111472871
lia 0.19344063695296726
1815 0.40700372590125117
Bu@@ 0.11511322748827181
Det@@ 0.2936095586265099
ein 0.00758883219349111
omo 0.28055800301645634
ond@@ 0.06122731798629457
pres@@ 0.030717032288085283
124 0.8365201978484407
HT@@ 0.6893983429881206
Line 0.14954012022043398
Sel@@ 0.12685515277920661
tes 0.018293119535073395
1893 0.2312288341779392
Airport 0.21303984592850958
Sem@@ 0.12997901709644602
Sup@@ 0.2440586373654978
ear@@ 0.05696744041939132
ef@@ 0.03229540494945466
ogen@@ 0.27589163768908326
ward 0.06567560616940897
1830 0.3364607733651596
1867 0.2774486913386569
Billboard 0.17497965990613756
Lady 0.21201002378794798
Tel@@ 0.12151894036879549
VI@@ 0.34965394029822094
enz@@ 0.05321762751601534
ket@@ 0.13230893407127217
ond 0.07776174543950008
ς@@ 1
Book 0.23083373067044385
oz@@ 0.1330041703316503
…@@ 1
ラ@@ 1
Gro@@ 0.08244991151657813
comp@@ 0.03387046352102267
mel@@ 0.08332709044245766
ō@@ 0.12764350843829578
Fantas@@ 0.43077363322515033
TS 0.47138059497894264
tar@@ 0.041247268387497774
til@@ 0.06826198859618374
Audi@@ 0.3982651026617243
Education 0.11919846932226769
Lab@@ 0.10310391710938636
1848 0.25390433747413127
AE@@ 0.48718310242877183
Bul@@ 0.0943755938239983
Channel 0.2617385432832984
let 0.11219591436785639
1897 0.20405718059769973
Christ@@ 0.08268290647230488
God 0.18519068296862182
protein 0.3021655243350986
uz@@ 0.06877352581167022
ผู้แทนราษฎร 1
AF 0.3135284438837669
Empire 0.11245423615292899
Service 0.12369806369779777
del 0.0042389858423814665
eter 0.05202487109690876
quot 0.5415205778824277
ren@@ 0.02704910395358783
ush@@ 0.0979616364934716
ken 0.025861283679627492
lig@@ 0.0595431485593629
olog@@ 0.051857159479919965
tex@@ 0.11199121768648053
try 0.06181877873581216
va 0.03977694604279679
Dem@@ 0.08922724013565499
Pin@@ 0.15651789374875869
did@@ 0.11437899636317375
pa 0.11510885520250022
Henry 0.0793550819934082
Pop 0.42651545789185324
gro@@ 0.04096721722935762
ula 0.2030061741077744
Apple 0.3600322894121334
Comm@@ 0.12700149531451652
Il@@ 0.1233113540387027
North 0.03806296959978681
ait 0.02411752672786179
inf@@ 0.05600941350383291
kin@@ 0.09338120155549491
kl@@ 0.05319717332356347
nor@@ 0.04024071452717846
thi@@ 0.10410838997546278
â 1
บัญญ@@ 1
ា@@ 1
dom@@ 0.06060842877667753
่วย 1
IA 0.451135259517618
Times 0.12447080519692005
ign@@ 0.03241525280786809
Law 0.14788568312744638
Order 0.17642381905392562
Way 0.37437717428906725
bur@@ 0.03736993543653812
ety 0.05445907185653152
log@@ 0.082358131922369
pal@@ 0.054992382115897125
Bud@@ 0.1419901784014631
Ever@@ 0.22064472792361073
Mak@@ 0.16034726383368228
Marvel 0.46668048235074966
hab@@ 0.054624056962500306
ven@@ 0.03443519398726527
Games 0.1174353892947148
Sk@@ 0.1197515594356301
Vis@@ 0.17028608988152946
280 0.8722210797067418
Cat@@ 0.10052491658261244
Development 0.17249107458344579
Free 0.27230395146810804
Mem@@ 0.14874615970087146
Pen@@ 0.10515041859744947
Ri@@ 0.05735997571694009
band 0.038043746904364815
sen 0.037813403252726974
GM 0.46970222423503416
MC 0.36355147878873995
Road 0.07803005052668725
ely 0.02542588964264894
now 0.03372739350726974
odi@@ 0.11474740121366972
é@@ 0.008168806442763818
But@@ 0.15882706623290865
Emper@@ 0.21943832124711823
PS@@ 0.27542815396851567
SN@@ 0.3900435192196433
align 0.23087400978167102
ico 0.03173007356464219
lower 0.0947515732989076
opsis 0.2269018300890574
24.@@ 0.6791454885738772
EE 0.5475695168655391
Lev@@ 0.14301861676989236
Lov@@ 0.32678396507365226
Meg@@ 0.2584521476569648
icus 0.37937685816890726
ms 0.07686173635159764
oll@@ 0.049317020088738915
oth 0.16984982576194016
ust 0.08804918208388168
uy@@ 0.09202394554624135
จักรวรร@@ 1
帝@@ 0.7073565990547152
Arti@@ 0.15420731636004675
Light 0.2855438600296251
air@@ 0.04421020596149826
eri@@ 0.09868962113478659
function 0.18653927605868914
lion 0.12080620403286345
val@@ 0.03732510617487619
· 0.031491675164127694
Design 0.2467930283895638
Ir@@ 0.07217976646131426
Radio 0.10378019500257922
atom@@ 0.21480926574797304
clu@@ 0.19371715832516193
mal@@ 0.04070263766842598
org 0.4841970796672307
pat@@ 0.0653311498844876
ts@@ 0.03196280454728315
wid@@ 0.06599176690553796
Album 0.14233509707507183
Family 0.18155575647000013
Mark 0.1113315249444126
Off@@ 0.09102748948981183
Pap@@ 0.1083520455514759
Ther@@ 0.1601039773678717
hr@@ 0.08516572433751243
ider 0.08462492515657535
istic 0.1314566319124185
my@@ 0.15460227164103146
rit@@ 0.05352886757551002
ute 0.07252967276377081
very 0.033080425014592796
dic@@ 0.040227998095993395
tiv@@ 0.05780696637353691
una 0.006117595943125676
view 0.04636283806706456
Classi@@ 0.3028585863037561
Nov@@ 0.10350341049044441
aria 0.06665698425778271
dium 0.24119938531549837
ying 0.0363565907922219
皇@@ 0.3664348223653154
Blu@@ 0.16755510972264873
Coll@@ 0.2160742628486447
LA 0.22538245493462078
Martin 0.07656644427577232
Olympic 0.1974990243345285
https 0.8456289208897388
lor@@ 0.22366275603255878
Anim@@ 0.37631171995261314
Band 0.09825478859781982
Fire 0.30735845754552027
Television 0.2551276085508567
aph@@ 0.24075337724142393
effect 0.16890771804991875
ford 0.04545640816502637
gen 0.02975569271878929
onia 0.09168251214044666
plas@@ 0.191799720279597
si 0.04380349591802272
super@@ 0.060929836588083805
1878 0.23386989521349558
ders 0.062118102942434694
edi@@ 0.0522315674331079
ial 0.13550192824834825
็ 1
1885 0.21058254906910534
Arch@@ 0.09137878205688571
Bat@@ 0.08863316629136019
Like 0.2242055442036326
Pot@@ 0.1325735762185108
ior 0.1015995367691389
less 0.05158965891087668
tors 0.05258587773206776
vo@@ 0.029285833796938037
กษัตริ@@ 1
Fal@@ 0.14186806530856158
Mit@@ 0.07178501116338531
char@@ 0.06051592826737684
fer 0.051192228887726426
ones 0.03424736514094339
osp@@ 0.1349173811434301
1600 0.5714366947138738
260 0.8411702440077126
Force 0.10445900615631314
Ha@@ 0.09541183009193567
MTV 0.3942619685486453
RT 0.35068486955625755
anthus 1
ants 0.018959717461932965
ilia 0.37297614662978723
กษั@@ 1
Louis 0.062483755661291975
Studio 0.2893521772009691
erry 0.10287622240633272
onn@@ 0.034973286989535765
ro 0.05090268679069644
sem@@ 0.04975136236355564
BBC 0.14435007999244587
Back 0.38930269589607214
Dar@@ 0.05510310923230419
IP@@ 0.4202264994488081
Public 0.13481407178419555
Ret@@ 0.23505320124627316
oo 0.20825332545625552
1892 0.208204588126051
Comput@@ 0.3333710468307565
RC 0.2756791975178955
SR 0.2106894199551395
Toy@@ 0.41938989876539734
alm@@ 0.08498802670198408
ards 0.03594379234826666
cine 0.12723198221315035
ori 0.16674259186354842
All@@ 0.08526587374690778
Poly@@ 0.2734020218499616
Sen@@ 0.04313772206348424
Syn@@ 0.12438911634582216
Wrest@@ 1
aci@@ 0.05390463318425053
ba 0.07306527379927007
emp@@ 0.04487725290597513
ery 0.11093578438305678
ko@@ 0.06244103330357013
Ham@@ 0.09788818851738387
Journal 0.18141860415688438
Pic@@ 0.1773246356744024
Rap@@ 0.1699876664096854
Saint 0.027472144477961192
Tow@@ 0.20314253647106512
ability 0.06507502320628492
amm@@ 0.04615267437720707
cho@@ 0.05073627794757362
ects 0.03508505720184741
ix 0.07970863367321336
micro@@ 0.17366203181127832
motor 0.21999290973922866
145 0.7972899378992121
1850 0.2448563691077188
Got@@ 0.1213130923517971
Shin@@ 0.48388480068385625
Spir@@ 0.26686730180198637
Stadium 0.1812153776682258
Yu@@ 0.31815523497098985
ger@@ 0.022566769143121362
vent@@ 0.05704721945778533
1894 0.2059274961672726
550 0.7764662270573687
Kam@@ 0.11211435134662794
Roc@@ 0.14291927472683177
Rol@@ 0.12101954372490077
cell@@ 0.08170199080845647
ten 0.006851599142204368
word 0.11815650203248604
Kim 0.1958959594404741
Web@@ 0.14155996497908535
cat@@ 0.04870057250930089
ces 0.028741951686248872
other 0.012087989539746045
psych@@ 0.1368045428381411
well 0.017565730252065242
LC 0.2639088716865639
Stu@@ 0.11076811121063017
even 0.04581589167805733
ough 0.051784021287023696
pin@@ 0.09675850527351965
Ven@@ 0.10518128281142095
ci 0.06482746560808963
flu@@ 0.09099265855598623
so 0.014700989261384719
15,@@ 0.49419035087312735
17,@@ 0.4961205542174291
175 0.7519220898497684
Do 0.2610157904090966
aga 0.09986468355449107
ray 0.16694898326707502
win 0.04252981094323089
—@@ 1
1840 0.28589946436376673
As 0.025630002074531824
Old 0.12797719667523233
Play 0.33508832635223385
change 0.05360363524063392
ck 0.07306111640271827
err@@ 0.05434320187583404
plic@@ 0.11104754457971305
ree 0.16647916041731436
sal 0.1799007619962963
Cent@@ 0.18944365706273383
Dark 0.3892633525687404
Pro 0.1949032473850061
ories 0.05840653552809319
yo 0.17164210089764084
Aut@@ 0.06319322007514731
Bet@@ 0.08625455799125928
Death 0.2002972005970858
ages 0.02121022052821849
ania 0.08857325304285296
core 0.17228920137511938
sul@@ 0.19704276115625036
vention 0.08569421986256144
ē 1
Hay@@ 0.1564568058151889
Imp@@ 0.2679292454103837
Not@@ 0.07572899750890058
San@@ 0.07641680116186463
Social 0.17308973048959173
can 0.016876798926289335
ga 0.07142987391836751
gency 0.15086253097341634
kin 0.12834346510818173
mot@@ 0.041544812893084225
not@@ 0.027657407260952872
ny 0.15164026457267432
rest@@ 0.05016367245050422
CN@@ 0.2499982542322897
Long 0.14285587067580768
Spr@@ 0.06299511000225314
Summer 0.11165838480435065
bri@@ 0.05108670139319839
mun@@ 0.09135713481003935
1884 0.22114781561791047
DF 0.32533844179301924
EM@@ 0.3875730130138449
Eu@@ 0.15808738066799377
Ye@@ 0.23215784620927393
ashi 0.3367436498182545
first 0.006734950186366954
fo@@ 0.04073976006628024
format 0.15835787212684446
get 0.05252383771224068
ira 0.09694552237690693
left 0.03754684318413833
lob@@ 0.12536941952396086
pha 0.24626704870096155
tom 0.15360793101474002
สัป@@ 1
い@@ 1
16,@@ 0.4981352342998355
90@@ 0.5361837110394532
Commun@@ 0.09609099180497215
Earth 0.17094437529575268
UK 0.07762051858135274
art@@ 0.053755052385925636
die 0.0016831316083610853
ie@@ 0.03287426408698016
sec@@ 0.022756160128558054
spec@@ 0.05875258103952183
type 0.06443339450381168
ulation 0.12991628006467232
1886 0.21296130561944068
Joseph 0.0655735367556492
Limited 0.3638957222304223
Universal 0.3309161873738029
ern@@ 0.03642012311267147
lem@@ 0.059197281203963
region 0.06025948110794439
ton@@ 0.10348295490148368
² 0.049300712696752805
人@@ 0.05990804082815427
1861 0.22362846310010434
650 0.7578440401345847
Ka@@ 0.21585842999074506
Three 0.16598328125868617
background 0.1992739124750426
coun@@ 0.05262612137348406
ends 0.05186164746546263
jo 0.056012255314050685
occ@@ 0.11110053018772578
rol@@ 0.06925034617495153
wer@@ 0.030497221006548225
ขึ@@ 1
Div@@ 0.18765069083889152
Kis@@ 0.4059080912312268
Ram@@ 0.07865215621744419
TP 0.5550629572131294
cel@@ 0.061199917932417476
ih@@ 0.059614630003565434
李@@ 0.1524242229561568
119 0.8354756610363453
155 0.7926017763952028
1862 0.2284751301424621
Bot@@ 0.06615310707200592
GB 0.28985332496227023
She@@ 0.11897839764423497
cas@@ 0.03357364077481202
ila 0.08803847809786329
lar 0.05093088172805041
1891 0.19657495727778826
36@@ 0.42744871766567893
ami 0.13264180381560572
phot@@ 0.06841474465935365
class 0.06568292818699148
esc@@ 0.04657365217759489
hem@@ 0.21926762474835676
ille 0.03236918046509435
teri@@ 0.1339004176819154
text 0.09997728520143015
1789 0.4733524315239035
Cop@@ 0.15294444450593042
Mach@@ 0.15302134620461927
radi@@ 0.09891218760929223
ume 0.08459105401513786
1866 0.19502844074888556
De 0.032934808079680966
fish 0.15783582998734955
point 0.04120182496073376
’@@ 1
山@@ 0.08800302510610941
Acc@@ 0.2475102299435522
Ba@@ 0.1237942386632339
Broad@@ 0.24848366041151146
La@@ 0.11481187813529449
Maria 0.08773552775671536
SI 0.5698803404016252
Sor@@ 0.14718974210632646
inde@@ 0.12565472960669288
more 0.012930859441584308
pus 0.4460779866175934
ron@@ 0.11151530870544656
Dor@@ 0.07794744106510575
Tw@@ 0.1977139844953383
avy@@ 0.8339691255689017
ous@@ 0.12670003149159065
play 0.03145474839800435
Li 0.2785464775901772
Sum@@ 0.1316839295781851
Sun 0.16834699075793588
_@@ 1
aff@@ 0.03117556657730549
arg@@ 0.08663553129177247
eff@@ 0.03193557743597073
ein@@ 0.010950685174686337
let@@ 0.030231114960612107
ody 0.1763305307357789
Ban@@ 0.07806343865180161
Ltd 0.3158686065638619
TC 0.30432828244309174
That 0.12389304992381797
ado@@ 0.16858906053855857
dex 0.32914406823843534
sal@@ 0.03686835038921604
・@@ 1
Can 0.39128007177601104
France 0.022620391874927273
High@@ 0.21852531816838633
ams 0.07636954111119637
lum 0.19736929853396754
rac@@ 0.04536909842968998
CC 0.24263418463414788
amin@@ 0.1318664245990131
anus 0.23503661614293658
bin@@ 0.08684952149918994
box 0.1336238972351296
ech 0.07406520389188734
music 0.03146664096356119
~@@ 1
Co 0.1715100066525827
Gold 0.16089524652878356
Liv@@ 0.14169669195030934
active 0.07037926549142248
lo 0.014388225407523868
vari@@ 0.027851659361319985
1814 0.34934210760802065
45@@ 0.4197054198741476
Camp@@ 0.08202313887499432
Dol@@ 0.14144314125517546
Men@@ 0.0889079311829549
Sports 0.15108535545133833
Tan@@ 0.1263377296958226
mann 0.042528984220026274
mod@@ 0.06342276571551221
next 0.05302553032707247
po 0.0976110035818586
sh 0.21610290837498655
umin@@ 0.12929238676284682
wor@@ 0.02553023435060147
） 0.010750598718856955
DI 0.4282265390899837
Sciences 0.19412842959384072
Yo@@ 0.2793760489948701
aliz@@ 0.05938816432683301
int 0.12252984432585602
vers@@ 0.034497624687752734
ิ่ม 1
1864 0.2079059102987809
Ash@@ 0.13031727040565666
Now 0.29737258919548987
Ol@@ 0.07510863358110455
anda 0.0781273373860843
fa@@ 0.02963681998443801
right 0.052116239048899976
Ann@@ 0.12417217626184919
Ev@@ 0.08742699459264049
Human 0.24032505987097227
Pseud@@ 0.44639255460499094
Pur@@ 0.15494024355810046
SI@@ 0.42042740693669783
Stone 0.20760612003559037
ight@@ 0.14568340279916012
pop 0.13346032287200665
yle 0.10112979529458593
າ@@ 1
chi 0.08717125242781594
opo@@ 0.21939897318309232
1863 0.21426746635304766
Far@@ 0.05905386753259005
Four 0.1962648574481985
GP@@ 0.4573313957546787
Liber@@ 0.07310108432784458
RT@@ 0.28163619007157636
fied 0.03795812716944742
theory 0.13867263741550337
tw@@ 0.03413139160762106
yon@@ 0.12254787708951458
太@@ 0.1192629069218961
Champ@@ 0.1605646847590473
Prim@@ 0.12360781076252567
RA 0.25186993780295047
Single 0.2971102224814244
Tim@@ 0.13251197952450214
based 0.026706775003716342
eta 0.0561222714989281
fol@@ 0.05218324278044882
gang@@ 0.15516453880548067
multi@@ 0.12788132785455075
1887 0.19693419864263959
380 0.8542539160194725
Che@@ 0.25647990129889214
Cos@@ 0.18004775393897318
Federation 0.209037239233786
Kur@@ 0.05420191833962599
aven 0.24148600973975246
len 0.03298910323972906
lis 0.09524283020626867
qui@@ 0.04936370727905561
uti@@ 0.08993918029610205
ト@@ 1
1879 0.21069627030202046
Internet 0.16297900641281393
Ly@@ 0.11337578650785368
Na@@ 0.12317974632686107
Pu@@ 0.11005218679337372
Sha@@ 0.14945427975534584
agr@@ 0.08716343786715926
ati 0.09523121467136114
dri@@ 0.047557463159899636
xi@@ 0.1887555608047135
County 0.024444624516597225
Hum@@ 0.1090164090140431
Med@@ 0.06247534794037563
Mob@@ 0.23335693159451626
Museum 0.06429827994417749
Sym@@ 0.18473021684658217
Tar@@ 0.09205211549154667
Tun@@ 0.1132754597212432
ats 0.02303144123278685
cular 0.3537013647914545
eth 0.09697375464750407
phy@@ 0.2526971667841899
return 0.07774947734428722
uki 0.3060538752523211
Fel@@ 0.09888392596091583
Nar@@ 0.14710536256564372
Under@@ 0.2532326508264494
bert 0.06442811326988693
contributor 0.9749132982201169
ech@@ 0.03879152151648315
ord 0.11487639198596727
โจม@@ 1
1200 0.4338573518266966
1882 0.2040553307730716
Kan@@ 0.07451614543298972
Mol@@ 0.08336627779801983
Sav@@ 0.09851016319227424
att@@ 0.022348868482379658
enge 0.12477879506660755
oides 0.33868694744432504
uli@@ 0.12359178306507508
1875 0.21351741132259114
1877 0.2138689889670078
1881 0.19934586733384743
Astr@@ 0.16638128926391743
Az@@ 0.11772007435125383
Direc@@ 0.12935505518794801
End 0.2896388008882883
Hi@@ 0.13062616085218828
Ig@@ 0.15238244803930825
Max 0.13291982232623348
SE 0.423329728241942
Sain@@ 0.2737205247247528
pur@@ 0.04152383968528329
reg@@ 0.01789587054074907
tho@@ 0.05102999617174634
อยุ@@ 1
1865 0.2028347514165264
Lord 0.10218475104307609
Two 0.08816989360078227
ault 0.08807828580422573
don 0.07895435417948568
equ@@ 0.058836049763056245
game 0.025369715938427843
timestamp 1
tus 0.20286996207165117
unter 0.018177832542611624
1801 0.4182647735585929
Al 0.048094889480922144
Football 0.06983794699891654
When 0.042466456039205375
iger 0.04745764886708909
men@@ 0.019126671716699677
tern@@ 0.09771590715861456
ul 0.1017632050549875
ク@@ 1
132 0.7218824898709951
Edward 0.09595764942195292
GT 0.4302709135513338
Hem@@ 0.2543409909242494
ii 0.27240677139710234
land@@ 0.03029678469188881
ont@@ 0.08580293892443386
peri@@ 0.0820360420110693
Ali@@ 0.14678368261315455
So 0.08110042581835636
Som@@ 0.1026113244889254
Tour@@ 0.07991934094291776
agn@@ 0.08429181310399578
aster 0.1629601185629152
ik 0.047495515459825305
pel@@ 0.050191879564336676
star 0.11039321855861736
Da@@ 0.20760320070109087
Jean 0.037828021010025824
Microsoft 0.23912417015850546
Sound 0.2720128933537911
Station 0.10188712349346295
^ 1
bro@@ 0.035969174933421104
isi@@ 0.029089691404980262
plat@@ 0.049117217513414115
ros@@ 0.09925729360978212
som@@ 0.08716045971076111
23,@@ 0.6372291120649982
Jr 0.18436848810878814
Mari@@ 0.0599630940973498
Office 0.13015176098062906
Over 0.1828402846280748
Sak@@ 0.19588552837900672
men 0.01736563965779672
tem@@ 0.0664001601689243
ua 0.06944870196605088
California 0.04637334514665572
Mich@@ 0.1012303445319571
ais@@ 0.0412167555578131
astr@@ 0.07783403171707076
bot@@ 0.05764608914736426
bus 0.08404350753381433
mas 0.11227706983770683
1790 0.408561159795972
270 0.70699247611284
Ak@@ 0.054421974466271804
Bec@@ 0.10093952573643275
bil@@ 0.02850555499717991
dren 0.25420711016135267
front@@ 0.16931822668044474
gh@@ 0.12512852693250429
head 0.04209068434339313
sum@@ 0.06341102491508133
wan 0.1388995345248311
ฉบ@@ 1
中@@ 0.03766686884427028
26.@@ 0.5471190393415506
Mary 0.07345201273305932
Pun@@ 0.15009750025968527
Ren@@ 0.06668583135509036
bir@@ 0.0424295708497892
ius 0.14614442529006044
lem 0.08575388842013443
mis@@ 0.02292878497436748
nd 0.4625447752932744
tia 0.14092977474921378
Gh@@ 0.16538767007879118
Ju@@ 0.058083337632564375
Loc@@ 0.07141658421678476
Nav@@ 0.07832909348067311
Thr@@ 0.12883516712928578
ali 0.07173904824024642
den@@ 0.023821275019174304
ez 0.04345316544901428
ip@@ 0.11507051081512162
ith@@ 0.27845347225752226
trol 0.2665404694049584
umi 0.3528998444822679
Dev@@ 0.09758701938666636
Dic@@ 0.2741274019750933
USA 0.07776032360786762
bon 0.08734394975840566
estr@@ 0.03599442832154786
gar@@ 0.036058130509329184
ister@@ 0.06850338507232713
mit@@ 0.029261325067817066
pression 0.09055196009621326
ves 0.022255334078953085
อิทธิ@@ 1
An 0.04303021850147967
Enter@@ 0.3196819646336154
With 0.05712587081892591
blo@@ 0.07284146080363042
hol@@ 0.03032217714319828
refle@@ 0.36189879314956686
ッ@@ 1
25.@@ 0.5184447507328966
BN 0.5955488807914641
Ci@@ 0.10498117169004233
FO@@ 0.41211280826595775
Land 0.07933967966790044
chin@@ 0.09955435429811889
Johnson 0.10816381318069278
Micro@@ 0.37964044201173824
Moon 0.29386152500637736
ball 0.04617199588996009
face 0.050217413787208155
ods 0.04943468858462147
oli@@ 0.16322813431900426
tol@@ 0.0874075693360604
urus 0.572080665327968
シ@@ 1
--@@ 1
Boys 0.24220543342069917
Den@@ 0.06615706426135222
IT 0.342957949874503
Medical 0.18509417869594946
Nak@@ 0.2509592994695354
alist 0.05022232397093219
ito 0.05028040627441872
opter@@ 0.4965824850310779
tel 0.04581777763458858
username 1
ô 0.17339252895194648
1883 0.19553140137209676
Alexander 0.08582854751730092
Fran@@ 0.05764453321837997
ani@@ 0.06586146588794316
ems 0.04176321762338055
ground 0.04615940870573943
mal 0.053296879734627566
new 0.012864419958129729
ums 0.04356663847004153
リ@@ 1
南@@ 0.054671610083850485
ABC 0.221236404036272
Los 0.019984220456484878
Mos@@ 0.078759867369952
Ple@@ 0.25423056342140393
Roman 0.06796819524264287
lam 0.1481611116610752
mi 0.07382667723210873
work 0.017191904567180654
­ 0.39286814373444373
ì 0.4246555038439296
國@@ 0.06661350085520305
1839 0.31415092666522715
48@@ 0.4869261280224423
Ku@@ 0.11820128251188243
Scott 0.11225789855489944
dem@@ 0.0204739765234234
embran@@ 0.27196288709210337
fa 0.18431525056515805
ham 0.07354022530456696
out@@ 0.03580958163222631
wan@@ 0.07343671465582441
งเกิล 1
1859 0.21922198408118523
Chap@@ 0.10965075486319442
Cross 0.15383718973095978
Fer@@ 0.07609273747925752
ame@@ 0.09703016653055178
ri 0.12169917738825348
20,@@ 0.5143405330881103
27.@@ 0.5254058691822072
75@@ 0.5250116474652895
Bad 0.15722612835331212
Centre 0.08771826879001614
Paris 0.027805967939652735
any@@ 0.07162539012168903
code 0.12511702735629987
iki 0.10590375600863156
mu@@ 0.03887314568255416
ority 0.07668948524621438
tal@@ 0.03772591999211108
vel@@ 0.04522631653211801
文@@ 0.058000644826878944
Committee 0.08330247388791473
Ji@@ 0.2258138449051381
alb@@ 0.08651848457961248
color 0.08617717159642925
hum@@ 0.04062274229074504
sil@@ 0.0450485071524087
ways 0.046539499943403194
ธัน@@ 1
1872 0.19748517558392478
3000 0.2702682206669903
Court 0.06176145079498756
Ori@@ 0.09543998776871075
ban@@ 0.033343196364834106
cha 0.05937736601428341
esia 0.24170025815099305
lip@@ 0.13639480392004533
mb@@ 0.06147399570983241
oman 0.2482229611275066
version 0.03385419783769954
} 0.17693001720935042
公@@ 0.044127089356075434
Cle@@ 0.10994449723048087
NH@@ 0.15507761663805772
Temple 0.19527302128356777
inger 0.05929452866626848
ision 0.09399459212124864
number 0.020241456510345805
ose 0.08889161099062431
tro 0.0860233000329326
wer 0.04324761746504037
ស@@ 1
37@@ 0.3584614083742949
Doc@@ 0.17405689063008195
Hom@@ 0.09213371156441401
Vie@@ 0.18209959782558968
bat@@ 0.04035488266483446
gin 0.1376143450393496
ule 0.0788262437832126
1700 0.49293371163201233
55@@ 0.498273067856189
CN 0.3961966666492366
Cul@@ 0.09415830808224715
Natur@@ 0.07317046133712403
che 0.016357226537855075
cip@@ 0.07904330185016716
uri 0.15921344512111188
1873 0.19038178700807273
Alb@@ 0.1035855201393978
And 0.174401161301754
England 0.037384666864559074
Tit@@ 0.09046624429724556
\ 0.2665934865092996
area 0.020232903544724984
chem@@ 0.07972935488138568
control 0.04781738826421609
ika 0.08505655967580594
outh 0.06629812252459451
်@@ 1
1820 0.22807773003368934
Aqu@@ 0.19209206575419524
Bow@@ 0.09269104273355845
Ky@@ 0.14910622917477515
Num@@ 0.13529785151653004
ider@@ 0.1926959089839576
sho@@ 0.030448652195622303
ust@@ 0.06624406848662237
ville 0.01839798622489373
ā@@ 0.059858225153094365
后@@ 0.25153174954233687
152 0.6862915676616055
1806 0.3242585398125893
AB 0.3170670646911385
Cru@@ 0.22676783351210025
Kong 0.12334179532535684
Nag@@ 0.13878336938536573
forman@@ 0.3256797833703603
mol@@ 0.06800858347514871
stein 0.043225926975703
them 0.017893695820604814
we 0.04275040523961734
ê 0.24676971732160988
Alliance 0.2282856226164317
Cath@@ 0.17032137557508056
India 0.041822872873874005
Juli@@ 0.06952549000993623
Land@@ 0.027957555286925163
Tran@@ 0.13768939477793374
Ze@@ 0.05150994756489049
eil@@ 0.12985496034112434
neg@@ 0.04289286982374615
nu@@ 0.05192533765324482
ทั่ง 1
19,@@ 0.5025890640287888
GA 0.28826750042175503
If 0.0958110630837424
Maj@@ 0.17473124119987848
Sport 0.17852986458179357
cher 0.02901186769947957
dian 0.21669248995479148
ists 0.026806358578836904
ment@@ 0.06724211097351686
mental 0.07953091079239545
wal@@ 0.05049730226838674
ื 1
Rus@@ 0.09648811003530948
Studios 0.18617203509938288
life 0.01857500986670466
sor@@ 0.04859271347806971
1874 0.18690561961685723
1876 0.17743514684989947
Amp@@ 0.38078968336087876
DE 0.30825339892064635
Kir@@ 0.07686017580269268
LG@@ 0.25791974878156887
Rhy@@ 0.3156018111152504
Sus@@ 0.10142027372608577
bel@@ 0.020213517315919468
ce@@ 0.02642094218287791
ept@@ 0.10722049466226881
eri 0.08864563606968638
kar@@ 0.04843931702867056
ops 0.047804205421982424
rea 0.1055063581155312
tempor@@ 0.07354996497551564
thr@@ 0.0930048390789604
ures 0.032538284181195726
yu 0.3283321887753728
Archit@@ 0.15747000418631793
EC 0.34356118100283217
Fame 0.2012779713223831
Lake 0.06216856609198045
have 0.007018953276519891
iller 0.07071896079936989
ny@@ 0.14317585320673615
oper@@ 0.02644090120481639
wat@@ 0.05374395929303148
1849 0.23499284628479217
65@@ 0.4808367041265106
Aff@@ 0.10154935058412454
Fas@@ 0.20462913958163248
Ga@@ 0.16084769500802074
PR@@ 0.3396698020811386
Yam@@ 0.23419899777384115
anced 0.08807277609854515
cs 0.09533607965618655
ther 0.038668360325722254
ze@@ 0.03267204510013842
ម@@ 1
宗@@ 0.346008311916279
Chall@@ 0.15975954154798774
Comp@@ 0.1247270569212172
God@@ 0.18828584476914031
Jack 0.0972631259226701
Nations 0.12838793257427814
Ray 0.19212701601015186
contr@@ 0.021050179113084194
ega 0.07441635695444357
gal@@ 0.051798046421591935
mark 0.07515438229375788
prim@@ 0.03052831912389822
sky 0.08194937653630897
1858 0.22910837766607453
AV@@ 0.3525500042306145
Arena 0.2272069393241071
Def@@ 0.09779708316758946
IF@@ 0.3658269720463404
Iron 0.2704877068194412
Pacific 0.09271483495768132
comment 0.4618502624071442
process 0.0657535157366557
sig@@ 0.026398580665494924
（@@ 1
1869 0.19296075833559256
Dom@@ 0.07142450026638475
Pa@@ 0.07561158736785979
Rose 0.1678466029230075
Sin@@ 0.07493123570097703
elli 0.10269060554256257
จจะ 1
CS 0.2651100388114208
Code 0.23970222065341895
Est@@ 0.03730515352805385
Kat@@ 0.0766844053300179
Type 0.28012022841813844
XX 0.1277732517361519
perial 0.13055859363115685
zi@@ 0.029155529582201446
Bridge 0.14108583172002978
Brown 0.08666195921848502
Junior 0.1451965259676188
May@@ 0.1025431550798407
Mod@@ 0.08500315427719426
Not 0.21585291413288754
Shar@@ 0.11717179498553328
bal@@ 0.04095155012523391
con 0.004226310862448798
gene 0.15111224783078356
ham@@ 0.10202450782425547
lab@@ 0.0644341745180497
ogr@@ 0.14407110145052834
onom@@ 0.08617286615515256
path@@ 0.16047809260903495
ump@@ 0.06783558617096222
Dy@@ 0.16136068983799318
History 0.027740802619419615
Hong 0.11939128109656187
cyc@@ 0.2156444101368624
edral 0.12558882017157166
ji@@ 0.14187745348318032
ked 0.032451189058589326
pon 0.13487665161144896
uck 0.0982331749306656
uv@@ 0.06835932712442361
wo@@ 0.042510683933133835
1857 0.2132132509954981
CE 0.17941968198938504
Dow@@ 0.14589112435720022
Eur@@ 0.11098924653828889
Mac 0.3079451668202401
Post@@ 0.15418048684280325
Stor@@ 0.1549868029991513
ban 0.060687895480337706
cript 0.13666320168910104
fre@@ 0.025167376483132036
hai 0.06097999351942455
otr@@ 0.24922197435793061
rati@@ 0.06675467255839694
tural 0.05643992177020886
umb@@ 0.0734596063000543
ution 0.06500525275470849
utive 0.058533485909241297
wiki 1
š 0.2986883659052172
District 0.032023009290817486
Fox 0.1389531662523207
HP 0.38963996900717046
Hotel 0.14734255992815606
Reb@@ 0.13461541991225573
arp@@ 0.5076417470452407
atory 0.12387865319656811
bac@@ 0.1012413206372222
cep@@ 0.08146845695657295
data 0.07364599564559654
he 0.002764599262239624
kr@@ 0.04357774540026491
mul@@ 0.06665624760093426
oa 0.09506357642661802
seu@@ 0.4065484864202175
zo 0.07788085518233855
ន@@ 1
、@@ 1
38@@ 0.3193310762375134
39@@ 0.35849363889044744
Bill 0.09957153985943504
Chr@@ 0.16874747154612485
Cros@@ 0.21703825528391218
Jer@@ 0.07714613996703781
Modern 0.20186453641871746
Sci@@ 0.19591013391550696
UR@@ 0.2826756889264901
activ@@ 0.03509551633298446
alg@@ 0.049514412634383866
annel 0.12455940767794205
ex 0.07560891156996916
ishi 0.3111996530018388
other@@ 0.11953558315794896
space 0.07277867631011785
under@@ 0.022715671447182496
β 0.3323964856762758
日@@ 0.06393650099561443
1793 0.3187787306644428
Bod@@ 0.12609650044462029
Christian 0.051696444687258765
Division 0.035813635745325346
NS@@ 0.15101266512997555
Phone 0.5937343152882634
Saf@@ 0.1810837832719168
Smith 0.06024059889955319
Vic@@ 0.07411381017023703
anal@@ 0.09738240988503181
atum 0.2283137612138874
cog@@ 0.2729128778464654
electr@@ 0.11593033541722182
！@@ 1
44@@ 0.4520170717692112
99@@ 0.7018413815045133
Army 0.0419654608079974
Brothers 0.2326651410754037
Church 0.040785489423272266
Gol@@ 0.08949682120449842
Kin@@ 0.06550835033329977
Phil@@ 0.08843515223399637
Pit@@ 0.11111941697769265
VA 0.2831296177849499
lay@@ 0.0985873622999211
lim@@ 0.050198832863520074
only 0.011431772316468953
pedia 0.32908358190575177
tig@@ 0.033081996140054346
will 0.020193568958208636
Clar@@ 0.1025030444079937
Commission 0.08314749080654328
Der@@ 0.07063008480909042
Kal@@ 0.06322868368180456
Suz@@ 0.261696409570818
itz 0.04768350032020452
law 0.0362400553385134
mm 0.054941136749362726
phyl@@ 0.40473295675481896
prise 0.08300493825250452
prop@@ 0.05697549021827764
ror 0.18338301648285174
sign@@ 0.05284360869537244
‌ 1
Chris 0.12174480993409298
El 0.006769763727722591
Mand@@ 0.11735411130734101
aer@@ 0.11995700491238466
her 0.005313157140655903
idi@@ 0.04575360191187414
lin 0.0756127484194726
off@@ 0.01836471424376836
æ 1
ฅ@@ 1
18,@@ 0.3666090820542357
22,@@ 0.5402990349742036
Ass@@ 0.2263336050570362
Cri@@ 0.11418206762459891
From 0.04042680342153676
Hen@@ 0.1110439029730493
Hir@@ 0.11309598506035028
Inv@@ 0.11421740177791988
Jac@@ 0.11082459525635974
Rob@@ 0.11755547388679767
Techn@@ 0.09942023717038524
Trav@@ 0.18083417033653398
def@@ 0.023925943795433696
eck 0.06921926683972768
ites 0.041742794601224334
oes 0.14109808962837095
would 0.010329139148917928
yn 0.09221863050842749
国@@ 0.06802157484236068
IX 0.20449622976417167
Jackson 0.10688293120803499
Korea 0.1367029568016509
Na 0.4403495153694371
Xi@@ 0.22244444558821339
ago 0.06367183261107048
ecture 0.09064393605775606
isti@@ 0.04796061488041405
itch 0.10527414042974517
long@@ 0.062091024948451944
sey 0.10423978338528954
station 0.02076520046060775
三@@ 0.04600888146915559
1792 0.34994703921205494
Cu@@ 0.06886550554121203
Ep@@ 0.1601182967498677
Gam@@ 0.20507035993941264
Laur@@ 0.08496338443916367
Operation 0.16794991630640801
Run@@ 0.21608337246899442
Standard 0.22701287947554677
Studi@@ 0.07204980750973856
az 0.04676513795875372
bic@@ 0.1914529091206431
dh@@ 0.07410365492580447
dres@@ 0.06658502682145032
oty@@ 0.14957959184093536
sus 0.013767038588659717
value 0.11629845805396631
ws 0.04175117996277019
46@@ 0.4098144310629263
Bach@@ 0.121000779534147
FF 0.26559037462066004
Rot@@ 0.06978617933819856
anger 0.07807253419103365
apo@@ 0.05944692606434366
ark@@ 0.057305686982352416
fus@@ 0.08273674363036426
hav@@ 0.08050250702897992
iro 0.11594072122024993
rot@@ 0.06923202637993599
DV@@ 0.4367460373268462
Over@@ 0.1318307504267266
Sab@@ 0.08478762003450983
Web 0.35839890827682064
aft 0.03940337744749538
album 0.013002486987501016
book 0.03152064894975728
bot 0.12053686580397324
dro@@ 0.05023681556495254
graph@@ 0.09689299965731893
olo@@ 0.15376342465445195
round 0.03596652822428852
urity 0.07199443225981102
yes 0.14909106280350556
รรม 1
武@@ 0.12889739483465237
Arm@@ 0.06637108341230032
Boy@@ 0.16462637772080393
Lim@@ 0.09678897055534114
Magazine 0.17160018551970233
Mis@@ 0.10712978022444701
Nic@@ 0.10720090417827395
Radi@@ 0.1369237320905445
Sto@@ 0.07176439554817203
Version 0.20786333579203092
endr@@ 0.20219465022762234
ett 0.04844015284846444
lands 0.0364253489174339
leg@@ 0.021327425602602448
nh@@ 0.028956617118119688
oke 0.09739383234117467
ots 0.041418649822181734
site 0.023828141351076613
versi@@ 0.05437662120084638
wood 0.04945790136412855
ア@@ 1
元@@ 0.17050950637444998
Die 0.004047614341651852
Ox@@ 0.22820502661493222
Real 0.09526757239501647
Son@@ 0.08335083272866789
Stars 0.2310603429367939
Tem@@ 0.08451914147089751
ader 0.09916776945456247
isa 0.07866777194678859
tain@@ 0.06964452791352117
urs 0.031073580611586167
แ 1
Soci@@ 0.1173071956300999
UC@@ 0.14905497115624017
anterior 0.19155159113975603
casting 0.12743794309987708
ities 0.03797970395366802
med@@ 0.037179632928389196
serv@@ 0.032573361511619735
uni@@ 0.0371396878953517
zen 0.036386165642804974
‘@@ 1
1795 0.36034679782097545
Bac@@ 0.23430229140090034
Cho@@ 0.25813981417652576
Conn@@ 0.11005627602372402
Dan@@ 0.05696608716451935
Hill 0.06655303996478762
Int@@ 0.14514952420035762
Islands 0.13108841518883568
PM 0.37183637909474815
abol@@ 0.11579654098336087
aker 0.10604839524294035
bers 0.05098687706565837
bon@@ 0.09139073481634287
ef 0.05848575102013469
fil@@ 0.027789918361332332
lie 0.05744318417505971
obi@@ 0.2372190552795228
oni 0.08937988672477265
ony@@ 0.10079868554771297
rop@@ 0.2115514855790427
sin 0.03877525429176491
single 0.023637716523038196
top@@ 0.09728814553569302
ush 0.15998898869868505
1854 0.20612058548047382
Bil@@ 0.036005318850626494
Harry 0.12351872179857175
Mom@@ 0.2645449412958408
Mountain 0.13941446587344408
Nam@@ 0.0923965675794836
Rh@@ 0.0742092944166398
Second 0.07466574976809064
Tom 0.09239725171218051
don@@ 0.04194599434573042
mati@@ 0.09289350821354156
produc@@ 0.01692831246721852
rap@@ 0.0394402926242258
°@@ 1
47@@ 0.38249641637342746
Gor@@ 0.09661952929927743
Hard@@ 0.13674028246727413
Just 0.23280877399441488
Sat@@ 0.11181815096131532
ady 0.10955410808057783
bo 0.09861898297434929
fu@@ 0.03155210679975666
itation 0.07025915065597335
now@@ 0.10095239341718937
sing 0.047797687768602895
uth 0.09778399609645841
yi 0.1477517589757146
Aer@@ 0.15281502793543833
Government 0.07118638563694067
Steve 0.12078337193011983
Theatre 0.09526533788826559
into 0.007874313867701807
mid@@ 0.05245265646118707
mut@@ 0.06283035331766748
ow 0.06103236812398417
vers 0.01758463797217921
yan 0.0958759656853118
神@@ 0.12443727354949664
1831 0.2691334079506442
Arthur 0.0914065224187245
Bos@@ 0.07339343514442394
Ele@@ 0.19989034668178912
Hab@@ 0.08713403704604336
Hydro@@ 0.3431402973141223
Indian 0.04649359518236806
Lam@@ 0.09496694271508584
Mic@@ 0.1842389772548034
Sir 0.07134205192485876
Tu@@ 0.0917595621135485
alus 0.41746878058419956
bet@@ 0.09215131122034899
case 0.04294026791886254
love 0.08586491125192725
press@@ 0.0954667667850646
LP 0.19310667258859798
Let@@ 0.16761740886401158
Revolution 0.1348810450948399
Sky 0.25054757565984986
burg 0.02792092434236078
eum 0.17895153022134183
gir@@ 0.048741340660309225
list 0.048784993956010526
match 0.030381417041440147
ock@@ 0.09346867977499002
oli 0.193653747374845
osh@@ 0.17138079879833498
ural 0.14183138914251509
verte@@ 0.14563005879186317
な@@ 1
海@@ 0.04356682077677275
1837 0.24269526039652423
Eth@@ 0.14921488579817294
Jones 0.07941438309359791
Kon@@ 0.02160617813133027
Mont@@ 0.043381628640207566
Squ@@ 0.11361134519737466
eld 0.051473558195623416
ign 0.09605072198742028
iss 0.08502259884502535
ker@@ 0.05052247577234492
oon 0.14682667472987307
print 0.11075046185915485
trac@@ 0.05274600768478187
water 0.02743380167962818
ภาพยนต@@ 1
金@@ 0.0639180161087833
Bay@@ 0.07666180142824519
Championships 0.07059170938122532
Don@@ 0.06731202916344502
Eff@@ 0.18571288791903925
Francis 0.11024793246268585
German 0.02983684630860445
Gil@@ 0.07645166526710315
Meth@@ 0.187880815798415
Red@@ 0.06920146388781971
Syst@@ 0.0964271176579834
Tai@@ 0.12333736634838284
Var@@ 0.10510122308482092
Wit@@ 0.10234582042300648
YouTube 0.19085488815412252
ald 0.07904181646727847
anga 0.1424038505747587
bar 0.03511491933168737
ela 0.04667947959940034
emb@@ 0.032813916130563864
esp@@ 0.03369300556621908
ku 0.22215672071929937
lag 0.04993268474328589
like 0.021606133129510364
take 0.03897439736077011
ダ@@ 1
1812 0.21887058418873898
1845 0.22640253021892465
ATP 0.24784693098060434
French 0.02775394222017088
Good@@ 0.18596109523346654
Head 0.16656451017050675
Japanese 0.05361772318437824
Mik@@ 0.11015545619275086
af 0.09723076603918415
enia 0.46447963275109594
hou 0.1713353595628949
lus@@ 0.06414595068315973
ois 0.08374455952604755
org@@ 0.06833918329054575
wh@@ 0.026250807562720968
ទ@@ 1
1851 0.20674874548465735
Angel 0.2884046364375231
Bay 0.0611112136458582
Dead 0.25570376977307085
Justice 0.11206881416366023
Rev@@ 0.09324585954611657
Zh@@ 0.23294979088512174
ather 0.07127839450913445
edom 0.12471417331235574
ert 0.014581420787322108
nom@@ 0.049289274898170754
orph@@ 0.14478976991005593
sens@@ 0.1582197823369948
span 0.24680190201443886
ปไต@@ 1
App@@ 0.16546386710548042
Dro@@ 0.15112958561195278
ading 0.06838849907308657
aly@@ 0.0949231677168441
arian 0.06680683883433859
ching 0.07997184911188929
cont@@ 0.019169421427511046
idea 0.07298763389886809
omy@@ 0.46711481754887113
position 0.02078377074483413
tronic 0.1594816228720747
var 0.16537500111003417
video 0.03607564214560554
zone 0.07034279821499848
‎ 1
1791 0.3792380221166132
1856 0.18592615400771415
Cour@@ 0.08882342089616416
Ind@@ 0.10283024476772057
May 0.016535479046949454
VI 0.12123772651429619
cal 0.07825984184997552
complex 0.0945660687270757
din@@ 0.06211600397036914
ink 0.0828444801532248
pa@@ 0.05807549695996013
parentid 1
ph 0.169206627423735
termin@@ 0.0356259475123309
unk@@ 0.046423772896381756
usi@@ 0.05726770917753325
−@@ 1
1824 0.28738494357317973
Ben 0.11949934032060112
Express 0.17781129693607184
Grammy 0.28559161164823893
Phys@@ 0.17230797505828543
ado 0.004305829713208085
andi@@ 0.13736235128951077
hyp@@ 0.15283597584188652
inus 0.2025158905176554
national 0.021501262726070683
room 0.06326133923707467
second 0.01225363629163273
which 0.0031336209516023496
21,@@ 0.49775315743443593
After 0.013675205218389452
Prom@@ 0.1391333958202181
Publ@@ 0.11659693495185593
Raj@@ 0.1163192095277928
Sand@@ 0.06429561780552406
Van@@ 0.17493787136507627
Wel@@ 0.10101848415636729
Will 0.20852074354683314
agon@@ 0.12364762412676288
egr@@ 0.07278760178616274
eria 0.1302984917275916
omb@@ 0.10839290589020452
power 0.03443263872641996
pper 0.12201930960548933
}@@ 1
ñ 1
，@@ 1
1821 0.25015068739920177
1852 0.2034602298549923
Diam@@ 0.2164603670035814
Fun@@ 0.18719288567311337
Lar@@ 0.08216949154751668
Om@@ 0.1678229114116218
ais 0.024435470416087603
aw 0.10689464990793478
ew@@ 0.04272216234302366
hydr@@ 0.16831330778870052
ichi 0.2718161031507989
ier 0.03271538687906941
media 0.04510272616248745
mir@@ 0.05308816245940667
mission 0.03406959875921381
uk 0.12678540230466076
vin@@ 0.06657370017540204
where 0.009161649351452224
ø 0.6604825825519741
カ@@ 1
COVI@@ 1
Champions 0.16767108002067055
Joe 0.09295858035782506
Most 0.07165285330314916
Vel@@ 0.11424246912259077
agin@@ 0.15818496052752834
aun@@ 0.07373032974321043
free 0.05028037262999599
has@@ 0.13780051546206315
house 0.02654580992629893
oi 0.1169908431345113
public 0.020017241151431584
trav@@ 0.0338707222913665
朝@@ 0.18262170919432444
Af@@ 0.08609579271161971
Amaz@@ 0.1731756639574277
Bus@@ 0.08914042709560827
Moh@@ 0.08234225797705814
Press 0.12495024803429819
Santa 0.04696879738955846
Sul@@ 0.09159729752683655
ington 0.040822759027314984
iri 0.16585633120741103
over@@ 0.02290693660970897
ser 0.020214132831898744
uf@@ 0.03065364831354266
25,@@ 0.46777965340310296
DR 0.2790535512606703
Guar@@ 0.13200302288697072
Hospital 0.09024222847677688
Ki@@ 0.06693720152947584
Rich@@ 0.05137022760796974
Square 0.1553109857290657
aden@@ 0.26776299390716574
aire 0.012397988084434678
cos@@ 0.09665330617929593
dy@@ 0.22391717279401918
eer 0.0704042551468298
ester 0.04110141895315878
fic 0.056779672323795424
mes@@ 0.06137114523258728
onna 0.1987921418655812
sk 0.09457579515200945
struc@@ 0.03779146311648477
then 0.010308212635363632
นแรง 1
明@@ 0.09506131422948522
西@@ 0.0325142118350245
1828 0.2660895597752262
Bon@@ 0.05888926978945965
Bri@@ 0.06392399138199148
Contin@@ 0.16390060952824395
Doctor 0.15608352911689813
Fil@@ 0.05487856088101764
Nan@@ 0.2493664803719284
Stephen 0.12050559243003718
Tou@@ 0.10513903976604197
anna 0.12479890692819617
atis@@ 0.06868663851114493
aud@@ 0.0944264071639744
come 0.05390280299049956
fas@@ 0.05134139065490073
ident 0.03614647396892221
ij@@ 0.0794254205715974
post@@ 0.08261564191454478
tas@@ 0.08728688779702311
unt 0.10148215284375571
ī@@ 0.18373561329584423
Country 0.1331306059504092
Dur@@ 0.07835383508931427
Jazz 0.15633084844698006
ev 0.09640395611361038
net@@ 0.07841291700520144
tle 0.12920069809873277
trol@@ 0.08330278282522378
were 0.0026904795944838393
新@@ 0.03923631819311658
179@@ 0.29008219198296886
Ay@@ 0.08710128363481108
Cha@@ 0.2814686052710802
Elizabeth 0.09487920862309054
Math@@ 0.09723739555286667
Pul@@ 0.15119970119444714
any 0.01994998497183047
extr@@ 0.036912069044625906
pas@@ 0.026924837514653754
tric@@ 0.09353549630668341
一@@ 0.014494974308992038
安@@ 0.053445112079527124
Black@@ 0.11795436575005978
Buc@@ 0.08596358042988238
Cast@@ 0.14554068583760138
Eli@@ 0.13935588779438762
March 0.01609414579618213
Mun@@ 0.06746224270260988
Ton@@ 0.12575745545292585
illi@@ 0.1297847192573727
lot 0.038361388610077964
major 0.02513775430135424
people 0.014123603023234626
phon@@ 0.11312277843435475
ston 0.07507104952892321
virus 0.19407928824603696
ã 0.3558763707776917
1300 0.4593101237349498
26,@@ 0.4782101758970547
67@@ 0.5181190909290275
Disney 0.12482005253609472
Jan@@ 0.09448163729141719
Jud@@ 0.07650095016996424
Les@@ 0.09644875608232727
Marie 0.058258241730124144
Point 0.11754526623957025
Rum@@ 0.14174553994695702
Songs 0.16755947221675083
Town 0.07619293062593356
Vari@@ 0.09456431257412162
line@@ 0.10835955074921909
zi 0.10341237572545028
พฤษภา@@ 1
Her 0.04763370696246347
Independ@@ 0.09762617395953875
Lot@@ 0.15301822639500795
Mes@@ 0.08877444407464491
Neur@@ 0.26370524750551305
Pear@@ 0.17271067954747954
acle 0.14544177921819937
augh@@ 0.11587982902334013
hibi@@ 0.06528544184538326
ills 0.048307409153999566
jo@@ 0.03304305390331497
mil@@ 0.0446002150611277
oud 0.11199599932784189
rate 0.0639226456789893
tal 0.05860202828147536
マ@@ 1
1853 0.19474382546238514
Daniel 0.06988558076988306
His 0.01771242554262259
Ker@@ 0.07098167325554608
Pon@@ 0.09937077832611724
Sac@@ 0.13211623275015855
Sof@@ 0.13740498497106476
Sund@@ 0.09701866311018502
abil@@ 0.07326061638961727
eau 0.02208975625087357
hip 0.057038578884235934
ier@@ 0.01877685013737261
rock 0.04265813494676884
sim@@ 0.03801721892073153
ski 0.04576459018305045
track 0.03803774575174321
uke 0.16217069985779112
ules 0.048463217456761944
α@@ 0.08455326000276116
វ@@ 1
ん@@ 1
江@@ 0.10159926983109716
高@@ 0.03755872177575679
1832 0.226648842880957
1841 0.221978260621716
Fle@@ 0.09048432179237242
Frank 0.07096551684241673
Karl 0.0613864469417503
Kas@@ 0.08056618184747648
Pictures 0.22517651493369892
Satur@@ 0.12396271188563826
West@@ 0.037085180456305766
aining 0.04716673791066725
alia 0.11583200706613213
boy 0.1130555067974475
conn@@ 0.023428037246021678
dig@@ 0.03513526288333447
fle@@ 0.04000918504012247
kg 0.11264806561761773
les@@ 0.03916301200510088
orum 0.1983276088050948
shi@@ 0.05236794993088122
sis 0.20401623896682025
ulus 0.3033661384502279
ド@@ 1
@ 0.5902595932159195
Les 0.009095236151899777
Place 0.17827009903356664
Pop@@ 0.12936622236463227
Whit@@ 0.08070020310460937
You@@ 0.4855047166898212
ben@@ 0.03362894659763693
dom 0.12359520251310709
ece 0.03569274579194485
edy 0.07227239088864103
eign 0.05468759997605914
enni@@ 0.1020433587626021
gas@@ 0.10339588554036047
pap@@ 0.03728858716373262
surface 0.06338360384640139
tain 0.027308325515339637
war 0.0038409396590395944
± 0.5846873191226604
か@@ 1
ジ@@ 1
学@@ 0.08242476878791292
平@@ 0.07934252768504078
이@@ 1
GC 0.3055055285433735
Maz@@ 0.12615398830479918
Middle 0.10279755967995727
More 0.14074587806079986
Psych@@ 0.16575093077751044
iko 0.1124021430379066
ishing 0.040272835974436115
レ@@ 1
城@@ 0.11128499904354944
州@@ 0.2267198044879753
Fe 0.2806535961260039
Leon@@ 0.09420508914237924
Py@@ 0.14936522392748175
ades 0.030201925698309356
ag 0.0914477283557737
aris 0.3062117528251329
superior 0.13901186076545077
1803 0.25962267811649553
1847 0.19605196459002183
Industri@@ 0.08953886803495141
Production 0.1314303986271796
Supre@@ 0.09308794557255318
ava 0.0778798958718424
ju@@ 0.02675604668029656
kat@@ 0.07177899678648146
1808 0.2693312784160895
1825 0.24497439020596892
Autom@@ 0.14420530942131962
Department 0.04732321382160195
Haw@@ 0.08887427999742391
Vit@@ 0.13385804142288302
assi@@ 0.09747310812147925
atur@@ 0.06298391842387244
board 0.04693146413342165
illy 0.0966242524019214
ista 0.021912476944829444
itz@@ 0.029394422976365856
sap@@ 0.40593164121513725
stone 0.0555929142741342
usion 0.1311579042720863
‎@@ 1
′ 0.45562187193056086
1805 0.29645056625060234
1835 0.21041532912238106
Angeles 0.05017110981597448
Ball@@ 0.09356998995129193
Beg@@ 0.06500010118587214
Eastern 0.08030240650062939
Fab@@ 0.15110273300623
ected 0.016442289654825158
eling 0.10760652929932124
ometr@@ 0.2739220880114256
ords 0.04899568981088632
pes 0.09584855626987317
sequ@@ 0.05554835656904792
table 0.06795226689551542
43@@ 0.397709708041695
5000 0.23348999778408797
Bra@@ 0.1783245016869126
Brit@@ 0.10217576346563409
Fol@@ 0.05397869662123173
Lep@@ 0.25350236200468595
Obj@@ 0.1286486443192137
Pierre 0.047920477858628095
Tes@@ 0.2650989785057793
VII 0.145562739515345
imal 0.10275715362735767
mon 0.18910405124013846
plex 0.1814490724756617
tha 0.10826657841910642
under 0.009195696372466223
ven 0.031083262860843466
wil@@ 0.06034733831646098
ក@@ 1
Am 0.02078926800774428
FIFA 0.154051773641207
Hur@@ 0.09693831333429825
Kit@@ 0.11499453410716876
Motor 0.15732808883813348
Sph@@ 0.3569389054186614
ager 0.04522405028985552
aja 0.07484553519257504
combin@@ 0.042142652445956476
etta 0.1229304176087238
func@@ 0.08007919662924677
ingu@@ 0.08534569362145816
lic@@ 0.04342818876459564
mes 0.02633309415191808
san@@ 0.04509792740084492
uss@@ 0.035659589950047636
之@@ 0.04269850750509109
1799 0.32652143040778314
Ali 0.10089909026466988
Conference 0.07580913828675279
Field 0.10724722558992801
Jam@@ 0.08035434522325634
King@@ 0.14314493306258
ate@@ 0.17049747566953563
hiz@@ 0.3501300522033676
oshi 0.24582835691956098
plan@@ 0.027612287854451294
rey 0.04469890748840348
soci@@ 0.02337798629457859
uma 0.10059432687738264
าคม 1
1826 0.25059067930635176
Bell 0.14000599520302245
By 0.033030065994003745
Castle 0.10822952516763625
Director 0.08460724073159781
Gun@@ 0.12532636755943327
Hit@@ 0.18203083245425294
Kevin 0.1509141028813769
Lon@@ 0.18738225214892687
ML@@ 0.14580008388122653
Sony 0.20728938588139237
Southern 0.06939538601910451
Stre@@ 0.06887688271977972
back@@ 0.07802604346356652
but 0.004436798794380393
conver@@ 0.05400835824674982
ele 0.03727996222257522
mach@@ 0.04686703720106548
minor 0.09702302870126922
oul 0.14115798651701425
pri@@ 0.038699482017390784
ui 0.10384406998222548
μ 0.20733397017938915
ာ@@ 1
☆ 1
し@@ 1
1844 0.20399586995987412
49@@ 0.2599737885521943
Board 0.06729667032825347
Bol@@ 0.051049988989795986
Daw@@ 0.16720430605114223
Fro@@ 0.15849281012136693
Fur@@ 0.08263791458639717
Johnny 0.16559573807456937
Lat@@ 0.053940360438973156
Ok@@ 0.11059422167400335
ador 0.02015572632860144
amber 0.1318123661795064
bury 0.06273559365771851
dle 0.0641596553565127
family 0.012411473953500458
ize 0.05578410052023672
network 0.0668378090555033
onder@@ 0.10748305523036708
opp@@ 0.04388307842254176
plo@@ 0.187172995483744
ric@@ 0.07034278814008997
spir@@ 0.049313971311279146
through 0.011439418859538444
Ai 0.5142073986295236
Mess@@ 0.13106658361376017
Name 0.05814324884793583
airs 0.061413738411996495
aku 0.3934683722486554
blu@@ 0.07136403762035666
cli@@ 0.03491069410178289
elor 0.11306185951689329
hang 0.10193889168701635
ho 0.14058794303146602
kins 0.08177121395000131
nes 0.034261786865766065
oria 0.06837163754138621
sam@@ 0.07621485915054194
social 0.02992529838337196
オ@@ 1
道@@ 0.1523448147886507
1813 0.22662077902981012
Rod@@ 0.11577699583591901
Stand@@ 0.07496391297676373
aha 0.14834395887202617
asis 0.163881286409913
eller 0.050564375551805416
enter@@ 0.08217054169291847
mail 0.1977470673190197
oy 0.1226926802031902
press 0.0827604703242638
trop@@ 0.11160051331931527
usa 0.09462622091238287
zu 0.003437329869140725
ə 1
ロ@@ 1
1400 0.4479116253694866
AG 0.09858967635445542
African 0.04678842819818758
Poli@@ 0.09778567009375119
Priv@@ 0.13941378582107064
Rho@@ 0.11535264767855524
Sher@@ 0.08542690482465212
ands 0.02873366225450042
ble@@ 0.05997560418168131
coll@@ 0.029842128079104475
cou@@ 0.031081639950314658
dra@@ 0.029477373136396607
eu@@ 0.0741051583675835
mo 0.04004737483471922
organ@@ 0.040500372971503114
peti@@ 0.051434318321943076
polis 0.08329780094669105
rd 0.06986172786175344
ses 0.006867491644947939
test@@ 0.05396719380633863
tre 0.021454585126895118
unds 0.035563901015619986
ł 0.6906914795610231
ウ@@ 1
漢@@ 0.2491029911355979
1822 0.25818384926252474
57@@ 0.4074146091330159
Apo@@ 0.2521434873330698
Cab@@ 0.0744142928576585
Chicago 0.04428090670493789
Clin@@ 0.117149827026623
Seg@@ 0.07196303395243088
aro 0.09684644140654734
asc@@ 0.061894939336787066
cir@@ 0.06052880099649184
gn@@ 0.13034594620771733
kel@@ 0.05827651534954199
sea 0.04593453498239444
sia 0.26682404031468404
wa@@ 0.08167627874874415
1842 0.1964174480040806
24,@@ 0.3993405244162043
56@@ 0.42029974128715547
Buil@@ 0.09159153495086855
Chron@@ 0.16470839811416904
Congress 0.07178294338934722
Hand@@ 0.03508733820410364
Washington 0.032037642559221646
aqu@@ 0.03387284219816964
bs 0.04749199000655019
centr@@ 0.04086967705068464
doc@@ 0.03953744974468146
ector 0.16171434862330697
fal@@ 0.03511596491820906
ific@@ 0.049357823524461525
lear@@ 0.0512222529965598
lery 0.09170446935796515
nia 0.10132131885411766
night 0.05247270758008757
pain@@ 0.03255440992712698
rive 0.11906731001255767
two 0.004808979901337607
white 0.043790803424812084
xi 0.233766992838788
ត@@ 1
ャ@@ 1
27,@@ 0.4269959604049462
58@@ 0.43568337256618256
Cot@@ 0.11546252774601844
Eric 0.12884239508532042
Forest 0.11572876373637765
Has@@ 0.09119980347348483
Hun@@ 0.10136797141314091
Nat@@ 0.10111906686833749
Ry@@ 0.13379491328472212
Tam@@ 0.06618437386276667
Van 0.07348940214005374
XX@@ 0.1534001629191618
angle 0.11831117046554729
bi 0.0756259281870849
dol@@ 0.046247350639705455
eck@@ 0.044933006163869325
ird 0.12620250709717282
mic@@ 0.17101814338557747
phase 0.07322248269001046
pic@@ 0.039670681173017384
py@@ 0.22172625651546965
ular@@ 0.09476668208424784
ǎ 1
1836 0.19414385367176384
1846 0.17784399838579823
1855 0.1583252170911019
Albert 0.06802679152547518
Din@@ 0.10432663849432154
Fair@@ 0.1306430049181906
Gir@@ 0.0908886197598755
Mill@@ 0.08097091018716104
Rid@@ 0.1582466528799645
See 0.09026477050239896
She 0.009666743350130458
Sir@@ 0.14836076161561923
Sn@@ 0.21382140183856907
gia 0.03946700559867667
his 0.0017040275599798046
ld@@ 0.08839699057705434
level 0.031476011288598976
porting 0.06778723765744034
sing@@ 0.05865061652682535
sion@@ 0.08230416026328073
size 0.05291840197557395
tu 0.10013730262888858
viv@@ 0.04797916712343696
地@@ 0.03988301581904254
東@@ 0.06371664453226429
Han 0.18954261613500975
Long@@ 0.13000165553743143
Nik@@ 0.12377310308669655
Pep@@ 0.1887497084014985
Pil@@ 0.07679885302058852
Rab@@ 0.09491953400567853
Sax@@ 0.15864951102718888
VP 0.17549340733934835
asa 0.07788074874672377
bin 0.10248493069230324
bus@@ 0.02459226497443545
dyn@@ 0.11038680340662245
ift 0.1431381823538777
imi 0.1295115046861234
je@@ 0.02425371443140336
min 0.11149866700995742
sional 0.07232664944569063
tica 0.034998575602195485
劉@@ 0.2581096800573192
왕@@ 1
53@@ 0.43245867400487986
59@@ 0.4444767948452276
Ah@@ 0.08955267667123581
Andrew 0.09042355433638047
Extr@@ 0.20239921883616283
Fem@@ 0.1425272706895391
Gra@@ 0.07134938144200983
Indi@@ 0.03614716559154866
Sap@@ 0.2524286902801636
Scar@@ 0.17144532150151637
Sig@@ 0.0855880394209783
Sign@@ 0.15930226760812338
Wol@@ 0.06660989428039628
XIII 0.17201145733045795
aster@@ 0.11208083510442443
flo@@ 0.028516230921270858
football 0.01879572912727039
stri@@ 0.09338117721696973
vec@@ 0.09279618923127428
vey 0.06785581715998655
မ@@ 1
バ@@ 1
Adam 0.09970583076570251
Bak@@ 0.0936007307670725
Barr@@ 0.07682632914744117
Dun@@ 0.07561991887399622
Hat@@ 0.14858013620148405
Hul@@ 0.15944830348057956
Neg@@ 0.11462015797730139
Rat@@ 0.15940349441609816
Up@@ 0.19255106508249145
Wa@@ 0.11587105766106547
eki 0.41966401674324955
ete 0.03087677700325648
gi 0.14104963670943627
han 0.033089980764320265
ols 0.048599327903828746
phy 0.08270053697920436
reduc@@ 0.046440877046363675
school 0.013136405331120683
vas@@ 0.08572247600877068
works 0.024556446515666224
1804 0.26963327755220134
Administration 0.11367923357515364
Earl 0.12087922406892167
Gold@@ 0.07555148119831465
Hil@@ 0.05839416001297878
Jack@@ 0.15047638538526575
Tot@@ 0.096653073174268
Wan@@ 0.3601469355151202
aba 0.015199184770636944
aling 0.08597854775789249
amo@@ 0.07752749927515537
ause 0.05544417497885599
box@@ 0.09746328138135012
by@@ 0.0854549731224797
cm 0.05244347041820017
cy 0.0822001612903191
identi@@ 0.020950835858787053
itor 0.08173189041319674
ive 0.06167918287119323
lit@@ 0.04907194616314388
oil 0.08605779726577738
omer@@ 0.21892374341671225
ondo 0.28519533142415665
orn 0.13626617373404476
primary 0.05744219415205963
rain 0.10800534954971391
sac@@ 0.048539780328942204
wing 0.022519223248227437
ò 0.24230705360454804
1802 0.2558722145353875
1810 0.20905754873347596
Agr@@ 0.08059510674262449
BI 0.15721332981338215
Beh@@ 0.07512390873892923
Hip@@ 0.2503695115576663
Lanc@@ 0.12405878607560133
Nich@@ 0.10030604999689911
Oper@@ 0.07318598892655556
Rand@@ 0.11062831896828249
Si 0.07790169175434336
Ten@@ 0.11929569014361253
Western 0.03902726130129184
cast 0.03156905089605855
part 0.0077699697028268365
urn@@ 0.051513525429363716
ْ@@ 0.44904586100226246
ฝ 1
1794 0.2624702426649595
Associ@@ 0.13758240739746735
Hollywood 0.10630804813618658
Khan 0.10797633370070317
Pav@@ 0.1230184268487084
Phoen@@ 0.17729816709713636
Shu@@ 0.23394021206966562
burg@@ 0.20797846037283996
but@@ 0.06887663416929578
chan@@ 0.04985864949512997
cho 0.014873519939595368
ember 0.10812240799691795
gio 0.08951887235766973
hil 0.15448770155793645
ion@@ 0.054796194364999204
mechan@@ 0.06714252039249673
species 0.01860102637380726
tag@@ 0.061934454187053234
「@@ 1
軍@@ 0.05909519094140076
CEO 0.1542823291324273
Cham@@ 0.12234633074518335
DJ 0.15198569654804797
Ear@@ 0.15589517482114001
Emer@@ 0.12480611955035328
Thi@@ 0.0807679350463151
ache 0.042655018607933894
age@@ 0.1584629624577808
ante 0.009429245126441506
cycle 0.09921105198661066
ending 0.03108102644052017
ido 0.010987880443008321
mit 0.0021582424761320044
nig@@ 0.2637536463386964
ographi@@ 0.05702034113886072
thing 0.05244822245798827
π@@ 0.0537917901380674
グ@@ 1
1843 0.18995684188271728
Ari@@ 0.1003524428436676
Gas@@ 0.08407812488922234
Lyn@@ 0.12707088280755052
Software 0.20576019641390655
aim@@ 0.0939252387928124
arc@@ 0.08198997801282291
bra 0.12682768836809954
ges 0.026401018143464842
iting 0.08476371843992966
las@@ 0.07513455324131438
ledge 0.08404715371066825
posterior 0.22410240608527754
wel@@ 0.048713990779480514
zy@@ 0.06785092272055229
ˈ 1
ເ@@ 1
女@@ 0.0932261929393838
1798 0.25880988053453075
1817 0.23804984020843817
Bish@@ 0.07620097834812257
CBS 0.15981799765666896
Ing@@ 0.08307370797856743
Jan 0.1097456794928299
Jur@@ 0.09432833825766235
Library 0.09423341803466337
Lou@@ 0.05626868143900231
Mike 0.0807043823151471
Popular 0.1902621115397613
ander@@ 0.04146155931844852
ando 0.008894172975860207
aun 0.12592031288494082
avi@@ 0.04484851659718973
cial 0.0504018340084295
ett@@ 0.04033699389463654
ges@@ 0.018851887990975195
gran@@ 0.11181624913255285
ka@@ 0.22137668750608222
mos@@ 0.07862927172303757
obj@@ 0.02793031587487261
tam@@ 0.0504702417189383
vo 0.04814746748573026
who 0.003947754274606417
ガ@@ 1
Bit@@ 0.18491999959605934
Federal 0.0716832480208082
II@@ 0.2125319972365075
Mars 0.19140968023675106
Milit@@ 0.06782472947312185
Orchestra 0.14293984440675728
Tony 0.09630988653620254
Warner 0.15576900155553816
ains 0.02184124945849045
arts 0.06035379380887569
cro@@ 0.023410234780689255
dens@@ 0.04367384559656813
ized 0.04014062795152598
show 0.019726764925630778
stream 0.08252171165837528
town 0.015209074320950365
た@@ 1
タ@@ 1
光@@ 0.10566055022790988
68@@ 0.3513446612805956
Africa 0.04389793755415164
Civil 0.06567303820029752
Culture 0.12431550801085911
Dist@@ 0.12309884149881278
Fall 0.10519770045236974
Form@@ 0.058901394439092356
Front 0.11780278887818471
Key@@ 0.17083552988787082
Mission 0.13572249045206428
Post 0.07116375050000069
Shir@@ 0.18927535179313124
Tex@@ 0.06613824462610583
Tod@@ 0.061488812264636844
alt@@ 0.025711436704555262
amen 0.058410985838371475
car 0.021609449130018606
da@@ 0.11120892169305788
enger 0.061486879916763576
lers 0.035404241660093115
nis 0.033587545188713076
nit@@ 0.06262819054345506
ο@@ 0.05542053308172588
≤ 1
대@@ 1
1807 0.24167424084179542
1834 0.1861820130677524
Carl 0.06914776074779459
Cra@@ 0.09629909488701534
He 0.0025664103294925026
Jim 0.09375192085846593
Ken@@ 0.11089986984449321
Lag@@ 0.07471310378010182
Law@@ 0.12687375504696874
Max@@ 0.1282484543448063
Plus 0.1325522700774852
Viol@@ 0.16278327288850059
atin 0.11754360990259337
aves 0.027829903969396625
bes 0.033094000773273353
chr@@ 0.08230345222177883
ements 0.01273246187722926
grap@@ 0.12392983752722246
has 0.0030704124975153495
idge 0.06923490279276576
opus 0.29460530507432503
orient@@ 0.059174318837176186
person@@ 0.043102494303819065
phys@@ 0.039025673711114914
ply 0.03639550679918867
revision 0.7227232530597174
sed 0.023568726462102074
spo@@ 0.042432591964491846
wth 0.07742319540262953
ǐ 1
ฃ 1
ฦ@@ 1
ົ@@ 1
At 0.01495142379178015
Ath@@ 0.07083400555704336
Aus@@ 0.008890941849778606
Democratic 0.0670348844845171
Dest@@ 0.2486797519722064
Fres@@ 0.1589877841514583
Lic@@ 0.18360472593093982
Pom@@ 0.08073890039178867
Under 0.07293181500697653
Vill@@ 0.0517132137863319
adi 0.10995898562176706
alli@@ 0.038298199554306904
bran@@ 0.038064620607969106
cri@@ 0.02219894218312092
gy 0.14212980912149875
ild 0.11841124359463359
isch@@ 0.024532451376967742
ligh@@ 0.03171777722130849
own 0.015234734982325719
roc@@ 0.08008416688785608
戦@@ 1
----@@ 1
Australian 0.03238216047898419
Born 0.091710129679063
Da 0.058187545667491215
Deb@@ 0.05004360619391347
Gul@@ 0.08532631307106424
Him@@ 0.15392883684312908
Spar@@ 0.12299045318182229
Termin@@ 0.1734309923961598
aborat@@ 0.15600008557319803
abr@@ 0.04081676209729053
also 0.002723688825006761
anz@@ 0.022874273158469818
ications 0.08970662181892476
ising 0.05883749672736429
kan@@ 0.03647153212630443
neum@@ 0.2587410108683848
oral 0.13035529615595326
orr@@ 0.11002938346714942
rup@@ 0.0324693662926654
tun@@ 0.05174477583146476
uh@@ 0.04600389432825562
宋@@ 0.27228800391481717
1809 0.22837590621856366
Columbia 0.06276032350411122
Galax@@ 0.22150045520726902
Nu@@ 0.06474676558524112
Pel@@ 0.09697288619125526
Yel@@ 0.17544263382317998
agent 0.0830735950504093
anne 0.061075318184917696
ikit@@ 1
main 0.01484737944200855
nov@@ 0.08321384332868341
ples 0.023697632170228047
squ@@ 0.04610214325713905
家@@ 0.08049135378533823
@@ 1
Aur@@ 0.10852558023836718
Beach 0.08729865802153107
Chev@@ 0.1404987928883707
Lac@@ 0.13903337524697787
Memorial 0.10243913078286232
Mut@@ 0.10691164102447229
Winter 0.08894659066549963
city 0.01285400949715048
dit 0.03429313290119824
esh@@ 0.07515616423936046
gs 0.044778088371925845
igher 0.30309574746773077
ingen 0.020930286299578386
nec@@ 0.047717004886218
ons@@ 0.03271447874124941
ped@@ 0.09338662816638266
pi 0.24714764867883313
pil@@ 0.029029439406796947
rem@@ 0.01981472778535482
sexual 0.07864838672953006
spe@@ 0.026997247996524042
stor@@ 0.03183306736328131
year 0.007121843277849094
る@@ 1
小@@ 0.03408259976219645
1838 0.17131572008520726
Australia 0.024022462687433053
Community 0.09596028108757125
Dir@@ 0.1455942774894511
Kom@@ 0.023389004142801182
Nati@@ 0.0537051719586048
Ras@@ 0.12875269393856284
Simon 0.07780729317545558
Tas@@ 0.09276507156889698
Valley 0.054673174859267135
atri@@ 0.09692546656227825
chen 0.013469961392593486
integr@@ 0.04313150370116519
kno@@ 0.04000686715741382
nm 0.28955523349035106
quar@@ 0.023781444997263434
ry@@ 0.16801986724015974
tos 0.02569552132522274
zh 0.1650592739653929
້@@ 1
う@@ 1
1818 0.20258941301068814
Bau@@ 0.01932081301343618
Florida 0.04845990447262902
Hug@@ 0.07614893386768273
IBM 0.23244249034177797
Jos@@ 0.09581665256439605
Stud@@ 0.0761447519857344
There 0.014790312786315218
adr@@ 0.05616113352377721
ation@@ 0.12021318060484082
base 0.02350693320837739
che@@ 0.07362934958205654
ference 0.06016592682206676
ging 0.030679936534534352
hist@@ 0.11865802727927721
hur@@ 0.06947196397961916
kers 0.03922390309377548
mar 0.05130958165622743
ogen 0.043026694787845925
servat@@ 0.09094642139381032
sm@@ 0.040753584395509856
tron@@ 0.061860851933533634
不@@ 0.020575913945615726
1819 0.22633486994026317
Assembly 0.06057599995097027
Ax@@ 0.177847610009649
Giovanni 0.1490672980444423
Id@@ 0.09119747528600508
Pau@@ 0.06965237588499706
Ster@@ 0.11233379187814153
They 0.01304834269817905
ament 0.10510505541103034
ancy 0.06992838412160551
anger@@ 0.10782922282767507
een 0.09103696153034978
fic@@ 0.023964868581910215
last 0.019226964690320203
lev@@ 0.05719013690658555
ls 0.04011449053687217
river 0.044679339546933296
tin@@ 0.05790037519395157
tran@@ 0.044782779382981766
vid@@ 0.04812419104834695
xin 0.36935467448614756
ć 0.04621019441731133
€ 0.15687214317023374
上@@ 0.034958191684612464
河@@ 0.0726531105513121
白@@ 0.08627803816484618
1797 0.262555695035474
Alan 0.11339472665998242
Anne 0.0734946483697811
Avi@@ 0.0994242681113495
Cass@@ 0.10835562857138024
Speci@@ 0.1661874874163084
Walter 0.06330051741854141
agu@@ 0.03872692617583422
central 0.02865125889577102
enna 0.10858503103437549
gether 0.2199553416882066
ostr@@ 0.2489221965697353
prob@@ 0.02250973812425096
study 0.038978989848873144
sym@@ 0.07452981726972126
val 0.11889166898815208
เวณ 1
ニ@@ 1
生@@ 0.045122155274686666
4000 0.2978628473206753
Bla@@ 0.13565100973012742
Domin@@ 0.06866900997124109
Eas@@ 0.16372145665004073
Era 0.2116190434733813
Ford 0.07951896128399835
Kaz@@ 0.1316815151071548
Services 0.10503265903727979
alls 0.024212801331387958
anci@@ 0.030730725704549298
ca@@ 0.07820260243164806
care 0.05475729001230647
differ@@ 0.04943353481639263
find 0.05794248168995177
fos@@ 0.08979477839072932
hat@@ 0.09678836483715537
ili 0.06348695530232243
nd@@ 0.08543286105150426
sung 0.1344926567204936
uld 0.15719176230718335
unter@@ 0.010783973748617936
ฃ@@ 1
馬@@ 0.13912476633413895
1833 0.17799351908010352
Alice 0.12921661394623943
Arc@@ 0.11620859341148307
Bob 0.07732731900516024
Boh@@ 0.10386192751498995
Bom@@ 0.0922588271428196
Bun@@ 0.10297948183958969
Crim@@ 0.12984040534023536
Hot@@ 0.13662453701584493
Main 0.0741550075894618
Oxford 0.07674581349275104
Philip 0.10985336154902818
Russian 0.03768333514000486
Williams 0.05538802063163151
ape 0.05049922093808203
bey 0.10694902765590548
eman 0.06283097658120489
je 0.035624092713685225
most 0.007588293222566519
olia 0.18050243946666122
wi@@ 0.046350352360236755
สโม@@ 1
อัลบ@@ 1
ប@@ 1
Arab@@ 0.05892686244140348
Canada 0.02182157098130401
Democ@@ 0.0768435797660104
Europe 0.021261140778627775
Facebook 0.19218489644931408
Pir@@ 0.08635736445990995
Princip@@ 0.1498904528958412
Trich@@ 0.31768402312334015
aging 0.05929081138952111
andra 0.19407020871700656
aus 0.0036192271515652578
bau@@ 0.025291168405235327
date 0.0320055489423078
gar 0.05181469929844409
ils 0.01339835649575467
oks 0.06305140727506876
pon@@ 0.028672532050275108
pot 0.11810206862061662
que@@ 0.05546984936392814
range 0.03927040087235292
rent 0.07755257162329073
uter 0.05364652769972678
ı 0.03835312458924945
に@@ 1
Concep@@ 0.1743131552630385
Dal@@ 0.08425752196770257
Dav@@ 0.05958931533110054
Ferr@@ 0.07979394728760913
Greg@@ 0.08228888417738445
Kenn@@ 0.07544168865071148
Log@@ 0.09430661189261293
Pad@@ 0.07505765938923163
aul@@ 0.0631261785575531
ceph@@ 0.4165206621016909
conduc@@ 0.02987512943258305
ening 0.061546444851501105
eron 0.027334238228397284
hel@@ 0.036554441506106615
jug@@ 0.04453011329658885
onidae 0.6166481725157831
ophyl@@ 0.37689364567817707
อังก@@ 1
Band@@ 0.10735180592938248
Bob@@ 0.10502603363422583
Johann 0.04843841193219391
Orange 0.14469790103054528
Philos@@ 0.08604994932742076
Province 0.0570775029820819
Sl@@ 0.13747379769752954
Texas 0.0341044444570904
achi 0.1752129087203087
aine 0.022455614765642496
ators 0.03820895757084959
bat 0.0789055912350487
cros@@ 0.05457635352821648
dan 0.0419972946655644
din 0.09855319711148922
eur@@ 0.05235141562864394
fir@@ 0.024326942145604713
ige 0.013203473582826468
ley@@ 0.06758702397392542
mak@@ 0.026048157719136496
sions 0.024771757219224724
sit@@ 0.028385141942275365
sort 0.06339476234316055
titu@@ 0.04248193182883316
unit 0.05138225654445457
vis 0.1141741388316338
web@@ 0.05740099548858766
་@@ 1
本@@ 0.03457985164985432
Brian 0.09312381845104505
Flu@@ 0.11382816334800165
Gran@@ 0.06066486515203224
Hus@@ 0.09548813159366551
NBC 0.14291978281268414
Ot@@ 0.04297286969717666
Police 0.08216395951957281
Wilson 0.06960317887095581
abl@@ 0.04198497561636284
cav@@ 0.055463533844343806
dou@@ 0.02752927206231144
eas@@ 0.03921494241477418
eci@@ 0.07118049403015957
eine 0.0027854829976857324
eye 0.10116238138128189
isions 0.045751324558970914
kan 0.08773678143864802
kil@@ 0.03835648051720278
lah 0.11783049813782083
sar@@ 0.08205498875097922
service 0.014789817895397427
shar@@ 0.04517004273208692
sup@@ 0.015751056976477554
vul@@ 0.09964026897831817
ß 0.022053779279613692
จำนว@@ 1
フ@@ 1
北@@ 0.033169935068901646
的@@ 0.17277550139715647
Antonio 0.049450827229278016
Centr@@ 0.16327796476308296
Fa@@ 0.10979860997330544
Islam@@ 0.08589356608681785
Ma 0.16977839139742745
NS 0.17009737910244357
Pet@@ 0.09332262675128365
Premi@@ 0.08732938195696792
Rog@@ 0.10070063112878723
ches 0.014650775403778973
chil@@ 0.06190552808195917
culture 0.03675222190571393
imb@@ 0.06745166347565958
infer@@ 0.11860531090193813
ks@@ 0.03221876312790344
lip 0.1224945357765112
long 0.012796904379027006
parti@@ 0.02307897082557545
sex 0.05013153235322079
uo 0.12881626554540368
ux 0.025696150662528606
yd@@ 0.09540523040558523
ภอ 1
ນ@@ 1
德@@ 0.03476573199222984
66@@ 0.3899950668931823
Ach@@ 0.08239252281611002
Aster@@ 0.2131139642021962
Cou@@ 0.1209759908947013
Person@@ 0.0704350120581446
SV 0.10734292665046925
Shak@@ 0.10543292600621162
aca 0.06357565620986308
aham 0.07365874509112523
alis@@ 0.021586235066418574
cit@@ 0.0371996406750664
det@@ 0.017034787986752044
dru@@ 0.03911111558004989
eps 0.10119714080256494
esa 0.027294608655608062
folia 0.3205263760099734
human 0.03861433100847528
ition 0.03586005547862676
las 0.002563951940306397
led 0.008800068704596561
ligence 0.0815563099286062
ont 0.008346212461733251
oration 0.08214977418969392
osaur@@ 0.11379487484935144
ras@@ 0.05018352370850042
rece@@ 0.03566425834978025
tan 0.03635956153777597
web 0.08313353142627436
wen@@ 0.02603979928166308
と@@ 1
1829 0.18024607854151503
Comics 0.1529157293395891
Inn@@ 0.0815105206889893
Jum@@ 0.28037907340127544
Other 0.03488929076164752
Wall@@ 0.07312968486794483
Wood@@ 0.07518106301976844
ads 0.035973020587889766
coron@@ 0.14466338534295264
ences 0.014272845246877087
icia 0.06768814300356037
ken@@ 0.024294273505444452
mode 0.09529596636389344
ova 0.06059051205553777
than 0.007715746870872166
thor@@ 0.10850532855813902
uli 0.2248062294512547
vin 0.07044534184250392
ຈ@@ 1
り@@ 1
仁@@ 0.34395250781859243
Bern@@ 0.05855430462713676
Corn@@ 0.0657930040642847
Fat@@ 0.25168273405894864
Franz 0.07035754905673536
Kum@@ 0.12711900943157323
abor@@ 0.05443811641524279
chen@@ 0.05694464463751988
crip@@ 0.042571283655734767
each 0.013604830551765382
esi@@ 0.1123318303692929
fire 0.03670420757593939
force 0.030486098822340064
high@@ 0.03011402255349136
hood 0.044289848748286266
iness 0.19342804953743142
itu@@ 0.0774030140700771
kal@@ 0.03952004505278093
lad@@ 0.043097018419340556
lit 0.036342193961920004
og 0.10027669243261253
used 0.005607999067883541
voc@@ 0.021730565068609858
vor 0.010335827554007766
デ@@ 1
世@@ 0.12032639060698534
田@@ 0.1394674425914066
長@@ 1
Another 0.06420689169077837
Bour@@ 0.0806438336270225
Bru@@ 0.04669465360874001
Cher@@ 0.11014079753919602
Miss@@ 0.16497420663556478
NBA 0.07854953793814767
NFL 0.08883758437691812
Pass@@ 0.07706834885784039
Son 0.030051846297958196
bos@@ 0.0700559817754374
contin@@ 0.04056102465908731
ig 0.030873978329333685
mus 0.14700864483922457
nh 0.3078448203790946
omi 0.23589590772323513
park 0.03551100548973683
software 0.07974824860122935
ution@@ 0.08176653510209654
worth 0.05192683964638742
キ@@ 1
Bad@@ 0.06742164376520168
By@@ 0.08469120402224319
FL 0.0850327264975734
Major 0.058093288586810336
Mam@@ 0.1432165454724582
Samuel 0.0816716950033346
Stil@@ 0.10523260334385909
Victor 0.08880658102224849
Victoria 0.052571508706361535
adap@@ 0.0592351685327952
dies 0.03407392739307658
eur 0.012139074441847393
fier 0.0893176677505459
iden 0.034722023095597715
local 0.013006723622955562
odes 0.0435991336306332
ring 0.04800187975132464
teen 0.048734855595818256
ปุ่น 1
ງ@@ 1
ុ@@ 1
福@@ 0.06963834290137066
1827 0.19402747639084225
And@@ 0.11748717015026557
Back@@ 0.05873647509727292
Charlotte 0.11488386398508942
Christ 0.09417654337314076
Petr@@ 0.10465346634398263
Prix 0.05572265343709747
Sour@@ 0.12035330310591784
Tok@@ 0.25165348930910697
adu@@ 0.13930130189366252
agi@@ 0.1596729217959426
between 0.0064253542715820705
card 0.0895906368137651
das 0.002186436366358944
dynam@@ 0.1058742166949833
elia 0.13817618768932602
enberg 0.057482529241446735
fore 0.03376531329379101
gold 0.049441381985208525
uru 0.16679831884227694
モ@@ 1
和@@ 0.09047702233242469
陽@@ 0.32017456540455363
Anna 0.06231877549688983
Anthony 0.09123293356827496
Flor@@ 0.05957128425658128
Jar@@ 0.09967308192268656
Joh@@ 0.0802082732476045
Milli@@ 0.08665971815166548
Mount 0.0654220619331753
Rou@@ 0.05835341351597772
Sam 0.09000464242201577
actor 0.03918809405412096
alized 0.05681998778883158
aries 0.03587645709132281
boy@@ 0.05946736628506732
ext@@ 0.021329094802034154
general 0.015180469395361466
hat 0.013041468404745606
lied 0.04213677142707107
nas@@ 0.09146846673644678
ole@@ 0.26475239196931727
thus 0.045217097768624086
whe@@ 0.03476349925386469
ù 0.23859562488212246
င@@ 1
1823 0.19401371958281768
Austria 0.07606415787941248
Di 0.21441214734924574
Ec@@ 0.10468893098727584
Guy 0.1304078045391069
Hop@@ 0.1075402853802049
Jus@@ 0.05305836945825099
Lan@@ 0.05355620018859605
President 0.025210953898133385
Rub@@ 0.10622684799758415
Sah@@ 0.11989245872572753
Strat@@ 0.10935351152767432
aux 0.0040168686626360795
bol@@ 0.047774417339307505
cio 0.04465768770869933
dar@@ 0.01481212768184235
dea 0.17569909942412573
ingi@@ 0.4063550974104769
ino@@ 0.126389219863633
ited 0.012617014307199862
sert 0.08102341910616702
start 0.03961550489319307
while 0.008076740957643087
zer 0.06285888413355462
β@@ 0.035361692393476064
Day@@ 0.14986432145789538
Dig@@ 0.14273008584356764
Francisco 0.03146954336913944
Frederick 0.10105968112946312
Hav@@ 0.051935060558476714
Northern 0.0458039292408542
Pay@@ 0.15091820614422627
aking 0.04630967214805002
bie 0.06494118302658952
brach@@ 0.2635759736098102
dre@@ 0.025185823148699077
fel@@ 0.02763065600721618
hand@@ 0.015812530904565514
high 0.012778651626737155
intr@@ 0.11339193752590991
mess@@ 0.04519963954560198
process@@ 0.07967356973196468
res 0.015472850560079984
volution 0.08525448505004332
zz@@ 0.11504299881222109
ِ@@ 0.19265878400149286
張@@ 0.14184824946071417
Chor@@ 0.11597262290354661
Coast 0.06484343503161115
Profes@@ 0.05805674708026501
Tol@@ 0.06099826263267415
ango 0.08325283205897334
born 0.007004469128696461
ck@@ 0.034162616231516556
common 0.028256800626054457
eds 0.02801010099421551
ester@@ 0.08646658804680175
fe 0.024012417924334645
gam@@ 0.1085719324371392
iki@@ 0.443362316642562
illing 0.0508607222806337
imm@@ 0.05011610028011095
oko 0.18140185926594857
resp@@ 0.022509145129980056
rier 0.07643960903403835
var@@ 0.03301851127957419
ễ 0.5512100343805385
年@@ 0.03534410714621161
Abr@@ 0.07017820285544829
Alfred 0.07485336520812778
Constitu@@ 0.04846004561359688
Dru@@ 0.06944847608796563
Green@@ 0.07560066220815549
Howard 0.08453319504558714
Jung@@ 0.12920752067320534
Lem@@ 0.11344893305319506
Nas@@ 0.1212868224088939
Ny@@ 0.133670641012671
Patr@@ 0.048892546082402136
Rober@@ 0.08596131539735359
Singapore 0.10339511451042378
Tab@@ 0.061989548362843705
Um@@ 0.024011991373870594
depend@@ 0.05565478642230762
gu 0.3599716561338164
idel@@ 0.07185963405715617
live 0.026476328077607632
period 0.019818654386013896
sburg 0.05106035467249866
sian 0.0730599388292945
star@@ 0.022250911115936342
subst@@ 0.06951985886315695
there 0.007532487254324928
ube 0.14250727934305973
ude 0.11095772481784189
Ö 0.322278508029713
å 0.49318447218333716
ィ@@ 1
司@@ 0.10070296363437344
Bag@@ 0.088698059993362
Blan@@ 0.053461342765433545
Feder@@ 0.06642214647536626
Hans 0.047896599573792324
Moore 0.09626986077491981
NAT@@ 0.18800655191547574
North@@ 0.060221615483456906
Professor 0.04167965035556893
Ryan 0.10442075195086353
Song@@ 0.2334240446289956
aco 0.06113269069409778
ats@@ 0.044049310923018004
ices 0.023798371978253404
include 0.014740275727473816
lac@@ 0.1237501182662993
los 0.001460458532256279
optera 0.2637778275611122
oti@@ 0.030873235260208173
ris 0.07801364210017855
spr@@ 0.017963003333633508
ump 0.15840306459319753
ustry 0.1896953424235471
uta 0.05845491712354133
ya@@ 0.28587238620598365
yer 0.026012826385996193
Đ@@ 0.03531783156218296
َ@@ 0.18645894167802327
ေ@@ 1
ិ@@ 1
。@@ 1
く@@ 1
ム@@ 1
法@@ 0.04073916094892509
花@@ 0.1081577632763345
1816 0.16769818067981157
Christopher 0.10838296325261099
Four@@ 0.11173673184283182
Od@@ 0.11010875067616724
Sid@@ 0.10272133175545312
Sz@@ 0.061659461394740246
Tat@@ 0.11502747408293554
Zo@@ 0.1278505140706532
aff 0.11340884268199385
ana@@ 0.12275908614174032
architecture 0.06550019274885681
arry 0.10190703689828176
away 0.02580763376841469
bal 0.0676091177527271
benz@@ 0.25631600712925307
colum@@ 0.06149510090397033
current 0.029995564016006723
eff 0.10975655066915796
energy 0.05432038155941544
exp@@ 0.012349982400327829
ffer@@ 0.07344233495269674
grav@@ 0.0500291988157093
part@@ 0.016500942333195007
phi@@ 0.18367979893673836
road 0.01843006367468322
source 0.04013314771008814
tail 0.06662816080270617
tari@@ 0.06847001801909315
van@@ 0.06989933118620897
1811 0.18565017052154695
Alex 0.09686578369872716
Coc@@ 0.1544278074155315
Dam@@ 0.0586092951046448
Davis 0.0646625700906443
Dutch 0.05616095959342521
Fort 0.04817112619021232
Frances@@ 0.11602234800798363
Steph@@ 0.10114708393259685
ayo 0.07740409887102298
cam@@ 0.03107301569758653
coc@@ 0.09697404015713687
ecti@@ 0.23813567412857164
elt 0.015225685528567172
enta 0.02730742692857224
fri@@ 0.02401447465594177
hard 0.03900973864806921
resist@@ 0.061340362782980266
science 0.04373484369714515
sun@@ 0.06732388224292428
tak@@ 0.04025954776702189
zo@@ 0.11587141260108785
ë 0.20266453601304146
ū@@ 0.0772014936022402
យ@@ 1
ら@@ 1
サ@@ 1
君@@ 0.2985576852120731
四@@ 0.03506381261160536
Airlines 0.14169591672174334
Alex@@ 0.11803260313662829
Austr@@ 0.04307261317124769
Cad@@ 0.09842261385913921
Donald 0.0640778937886267
Germany 0.026894470528773688
Glo@@ 0.1158405367946308
Hid@@ 0.13450251832426105
Marine 0.0668006921621584
Nev@@ 0.07932853409214834
Roger 0.07659157208410111
South@@ 0.07330205036083798
Soviet 0.040199726745079815
Vil@@ 0.0425105398969837
ched 0.0332790117405434
course 0.030391765521901683
double 0.0427978480810374
eh 0.09211033721722416
ement@@ 0.05033379739430458
evol@@ 0.05199865897705647
heim 0.03781351355759861
onal@@ 0.03968934002314982
poli@@ 0.03530811965580918
stage 0.02834165730713216
vil@@ 0.08038343098914703
wak@@ 0.07122592837647404
yel@@ 0.07965133006363267
á@@ 0.007042498413240952
ă 0.30221534649268567
เปลี่ย@@ 1
五@@ 0.05304639485158571
宮@@ 0.412749937080959
院@@ 0.18359180051479748
Bin@@ 0.19334085100932386
Brand@@ 0.05818716217963213
Bron@@ 0.0735174350528226
Emp@@ 0.07977928760388246
Fall@@ 0.13610091585640122
Fir@@ 0.09056550565110884
Gard@@ 0.0945844828735143
Inst@@ 0.14019007054581492
Nur@@ 0.13482623661334764
Oli@@ 0.07326228260350302
Revol@@ 0.07897095774153147
anim@@ 0.020377785194237316
anum 0.20309792214157862
comm@@ 0.016915437494111014
ectiv@@ 0.02817270240854803
engine 0.05018772156358651
gas 0.04722272793190632
indi@@ 0.02472959308511511
ned 0.026193572249250757
quin@@ 0.08623600666741447
represent@@ 0.01676652686847868
seg@@ 0.03867816206512926
stati@@ 0.07274519991171591
ths 0.05603750053567071
tit@@ 0.019974976666875265
成@@ 0.03934489147818075
Ant@@ 0.06169249499872009
Batt@@ 0.07355560609905977
Cand@@ 0.17469025125527216
Chel@@ 0.2071039368827401
Lib@@ 0.05118087198721643
Ses@@ 0.16212995504241376
Tap@@ 0.170805244094889
Terr@@ 0.08535619997972821
Was@@ 0.13008878176151673
XI 0.12449817510989415
abe 0.04687824591733423
ances 0.014831131584079263
asia 0.1596846968378412
aut 0.01926240743556583
ayan 0.10429608818322263
bian 0.08476113181569908
bridge 0.040116917438692834
head@@ 0.020225642891024093
iga 0.0709922378991481
inj@@ 0.04789250002169692
isi 0.037490406836526026
langu@@ 0.06795695790137442
lose 0.08677753409526745
mad@@ 0.04078757281730148
master 0.05111162727805725
place 0.007159218658404133
plant 0.035576830043386735
rat 0.04028119790304362
rid@@ 0.05718413378277824
season 0.005603186198547944
three 0.005873075684813055
tile 0.07642019909647962
tot@@ 0.03597115608629844
wall 0.05268494434142976
won 0.008936046405657625
wr@@ 0.042024050054022176
อำเ@@ 1
ង@@ 1
《@@ 1
コ@@ 1
テ@@ 1
정@@ 1
Form 0.05631364506116191
Fort@@ 0.13611597814295792
Kelly 0.10247640563127802
Mass@@ 0.0672919038402869
Otto 0.06830131982327192
Prin@@ 0.0711755933597634
Rad@@ 0.04138058525229844
Roy@@ 0.10204174374362952
Taylor 0.05948861221988723
Vik@@ 0.07457786444151075
allas 0.05992179648779695
asp@@ 0.032391616674064413
ente 0.005475178152209625
fur@@ 0.053793379806411815
imp@@ 0.01884143023585371
ished 0.02493982263047901
nar@@ 0.056956634025163655
phone 0.06972429476259855
proc@@ 0.02746516180805197
ric 0.08151728086351409
square 0.054313151065618896
unda 0.07637839145991765
wen 0.08452897805554264
č 0.25037495773746604
ě 0.7660435497769248
َ 0.34491938139347267
ナ@@ 1
パ@@ 1
方@@ 0.06004233092164804
Allen 0.08346140180768882
Hung@@ 0.08172256690574954
Hyp@@ 0.21815838676435478
Kab@@ 0.06334843289988505
Metal 0.13620805952767004
Rep@@ 0.16020694009124692
Say@@ 0.15135449917994012
Suc@@ 0.12886699456378467
asi 0.07394316481010331
cia 0.055248007444639424
dur@@ 0.01994193396681912
etes 0.06445205409785593
gres@@ 0.050411424199577747
ilk 0.049534434826229136
ingham 0.05084686811261969
modi@@ 0.049255375669493215
oka 0.17499118183282145
prol@@ 0.10340342883105431
wide 0.024247192847746676
θ@@ 0.039600145257370926
ိ@@ 1
京@@ 0.12846855994204437
真@@ 0.09808957746401545
Alexand@@ 0.07618989232501074
Arn@@ 0.06167696436680971
Cambridge 0.06895300381106707
Daily 0.11524096986314235
Hin@@ 0.0373041758443905
Kim@@ 0.14296644165628836
Las@@ 0.12186467937428871
Lewis 0.06457467122007703
Matthe@@ 0.09271508577751125
Pyr@@ 0.1481849426095544
Trin@@ 0.06079259604131886
UEFA 0.08185742382493662
VIII 0.11186126554466232
Yor@@ 0.06602911355055592
alo 0.06777591549633782
ann 0.04765656052627382
ardo 0.05964481766618637
auto@@ 0.04456418869136806
cole 0.609246900452715
cut@@ 0.05435978177844105
egas 0.0964353389155812
ells 0.029540747862146482
ender 0.024363005909247667
eros 0.030069166352988758
flora 0.21108681547789557
hard@@ 0.05404914780087699
ieve 0.049457518906450074
imo 0.09613335854000556
ini@@ 0.07058743109580828
oro 0.05379864286483605
ough@@ 0.03757076674530415
program 0.023275446754490874
second@@ 0.03313263372103138
urg@@ 0.03556330028573446
yon 0.12104397882151334
士@@ 0.0832376986250246
市@@ 0.04359868593534829
水@@ 0.035523350408868885
Academ@@ 0.15447179423977653
Bruce 0.09746892833550294
Captain 0.07121655381606462
Chief 0.04827557303849289
Fam@@ 0.12710304062850616
Jason 0.11680925411038094
Jay 0.1347156937295949
Mario 0.09913447485554351
Moun@@ 0.07476842076612407
Sau@@ 0.04378497568750542
UNESCO 0.16397746975553681
chart 0.06084335013440456
design 0.024244286477835424
dis 0.11099809138498991
edia 0.14121137745689835
ended 0.011793048288731503
gun 0.06093158444473467
ince 0.14216860638981607
inv@@ 0.013500470532469685
isher 0.07645510560027757
olar 0.09244961791277305
olas 0.08163473869153946
ref@@ 0.019447001918178088
refer@@ 0.023190232120440704
speci@@ 0.043524139031519915
standing 0.034947222660283654
stat@@ 0.016265466229578123
suit 0.0409245921949676
tific@@ 0.04960427966142795
troph@@ 0.12921140049769722
udi@@ 0.08117486356334634
vi 0.08936699293782481
ه@@ 0.028554151318614322
း@@ 1
寺@@ 0.6443024280186961
川@@ 0.19448365790577435
春@@ 0.182993114042
August 0.006638046886975586
Bapti@@ 0.07536227392199141
Ges@@ 0.02166379437515073
Jane 0.09215496981753368
Secre@@ 0.040356846798014503
Tax@@ 0.08737163895946193
Wilhelm 0.04387141521594591
arius 0.184250773323725
award 0.044366690072145
black 0.031214054558865594
bor 0.07894441060267077
carri@@ 0.024102838861904022
cum@@ 0.05590046587523831
dal@@ 0.05417926970380339
dev@@ 0.012638942220625405
ebook 0.6546522834671874
eton 0.06624007913983994
feder@@ 0.04915511716321504
fort 0.020255363800194808
hon@@ 0.031124697442862826
hua 0.15015691445032345
inst@@ 0.015772092457450513
iti 0.08734628319393882
jus@@ 0.026970098510016333
lan 0.06351169617472378
metal 0.04936117706284243
nus 0.12740633659267253
plac@@ 0.0291141225872855
pun@@ 0.035209213435658554
rich@@ 0.01856573058656621
stars 0.0561132229731192
transfer@@ 0.035861090006877094
ving 0.01922181773107714
×@@ 1
エ@@ 1
夜@@ 0.37004304735985616
@@ 1
Bernard 0.07960867273125588
Clu@@ 0.10408118723585792
Eri@@ 0.0935285046593299
Institu@@ 0.10708179015364172
Jacob 0.10203237580672207
Jun@@ 0.07340244520084979
Kurt 0.13237365512174515
Rein@@ 0.063084774504805
Russia 0.042089956469467456
Yak@@ 0.1880545236941396
aa 0.1159776216265884
ator@@ 0.05172467998697237
eleg@@ 0.03516730217533256
emat@@ 0.10900072950551062
fix@@ 0.04779314318053286
iliz@@ 0.06654128125325498
indic@@ 0.02590582862879273
iter 0.028947560908759943
ix@@ 0.11314590881635456
lim 0.06591900367288239
mond 0.047189090877207296
nav@@ 0.024652567302798033
news 0.053526567585628876
ordin@@ 0.03131016928667217
pig@@ 0.15635985981734937
ram@@ 0.04740156351335957
tains 0.040505463101021336
ព@@ 1
័@@ 1
主@@ 0.023493011059279357
林@@ 0.057896907466081726
Dave 0.10189196444211232
Dep@@ 0.06736108164228569
Ein@@ 0.008612411310784523
Films 0.10180081672929014
Hak@@ 0.13606704467183922
Pac@@ 0.16132031371479133
Water@@ 0.08986194504042995
Wes@@ 0.04806199460662043
Wind@@ 0.07191762918427752
acter@@ 0.09699584109948327
aman 0.1384931031599779
attack 0.03319351307015263
break 0.04947760619485751
dat@@ 0.045395621757350506
etti 0.05318991564113443
kor@@ 0.03932866385738536
ments 0.015464051199058066
na@@ 0.0702106267291615
normal 0.06503956315488885
och 0.06260483684776154
oe 0.09519474564258619
race 0.023548369535660085
rh@@ 0.0658188710801163
rie 0.055313795233593185
shire 0.026765317652975622
sons 0.027075365919999185
specific 0.049054873725477365
theor@@ 0.07324157728195042
tt@@ 0.05576718280570869
ves@@ 0.09311807400062709
vit@@ 0.04951233316506414
θ 0.3483262908474268
√ 1
」 0.012936849589184162
は@@ 1
メ@@ 1
月@@ 0.11742093776366892
美@@ 0.050695904862184005
Adri@@ 0.07823222453485813
Anderson 0.07656598836396776
Anth@@ 0.12187857248104104
Charlie 0.10403456608759193
Cla@@ 0.08039152612691966
Geor@@ 0.06299652319175214
Gran 0.07289676357817794
Indonesia 0.0939959632018825
Juan 0.025767864481125283
Luci@@ 0.09934626288941333
Main@@ 0.07502726886862061
Opera 0.10065277748463829
Pach@@ 0.17964135550675844
Patri@@ 0.08922853622744907
Patrick 0.06450901775438804
Pow@@ 0.0804191770470448
Premier 0.042724794857028854
ave@@ 0.05792287090422615
bun@@ 0.0680983986329624
clus@@ 0.06396949596753099
ej@@ 0.022224397704967053
esh 0.040820201207149256
igi 0.1550293033416664
igu@@ 0.034598698645058705
mur@@ 0.025607828007051706
ograph@@ 0.026648000089005818
put@@ 0.023395209012251856
response 0.047870994519382926
small 0.013706236532343753
sts 0.05641056232444242
sula 0.06255499892890365
tab@@ 0.03351622203872563
tera 0.06007533904229783
tier 0.0373409467699262
wo 0.018647961566040875
{@@ 1
Android 0.2032767603801095
Avenue 0.05070789650383566
Bou@@ 0.050742172757370876
Brun@@ 0.05476926943815113
Initi@@ 0.056039618147279174
Jordan 0.09336961785159825
Linux 0.1581256626369258
Nick 0.09990658336569849
Plan 0.08768967502710537
Well@@ 0.09262480362557364
XII 0.12376040925892311
aj 0.10656232493641828
amer@@ 0.03615286221887583
cord 0.06286782677028362
elo 0.04037360450996697
ering 0.023117728892145434
esta 0.01192343881287242
friend 0.03945928214532083
ged 0.028307313215317115
han@@ 0.06168361559321692
hot@@ 0.048975370209472076
icum 0.24432148955839772
irat@@ 0.14126648143690354
lav@@ 0.05838694502097065
oking 0.05425292547813873
open 0.026037194822681818
princip@@ 0.07722779941626906
ross 0.16616493032720953
sch 0.019039186344345937
sson 0.07936096867007386
syl@@ 0.13458006478387163
ជ@@ 1
が@@ 1
ま@@ 1
八@@ 0.06615500341462012
正@@ 0.043972107025184275
華@@ 0.08989215008480024
Andy 0.10847972924890202
Benjamin 0.0901381151194035
Berlin 0.016105867859426238
Ernst 0.07123153687164155
Fig@@ 0.05989368574929736
Gordon 0.07962566831981982
Instrum@@ 0.10255374381044444
Irish 0.040490766818735535
Java 0.14453329028217324
Kol@@ 0.02858583322282553
Metropolit@@ 0.07922162832059126
Nob@@ 0.13909434794478187
Proj@@ 0.04885701516355004
Raymond 0.11227792631860996
Singles 0.07928364576934532
XIV 0.12219148872507911
acial 0.05660084719962467
anta 0.0877192704259715
ask@@ 0.03961687726686497
classi@@ 0.026156292261551927
craft 0.09011928389115025
dam@@ 0.022303915285581483
ded 0.023962551215846135
dist@@ 0.029915382955824934
emer@@ 0.05142085337351708
ento 0.019874317023233265
eva 0.060220398287574604
fli@@ 0.09676018020261334
four 0.008022127720362548
ible 0.04264757991046539
ique 0.013586017675592681
lies 0.021588691084962086
mov@@ 0.016941698094622704
oll 0.09595108194497105
ouse 0.06799933518687742
ports 0.02140538369087314
pose 0.021933286625654153
prov@@ 0.019212945735593692
stop 0.055699735683103775
suff@@ 0.018157213014297888
systems 0.03438775452416744
tent 0.04773408634079397
ud 0.03877113378342476
via 0.019527864531070686
ǔ 1
原@@ 0.03467069368859098
少@@ 0.08057368475135501
趙@@ 1
100@@ 0.15374702410488353
Billy 0.09717936759158899
Buff@@ 0.08422823532041353
Cav@@ 0.06426473814636659
Du 0.08223366332941809
Gabriel 0.08861514960035377
Il 0.0033008558698512445
Inf@@ 0.1141263437225921
Isab@@ 0.07575418157599424
Liter@@ 0.05843839053622476
Nintendo 0.1273785764695977
Pier@@ 0.1002419080031248
Tim 0.0978378270815869
Yah@@ 0.22985284509664342
alp@@ 0.057356101035150174
aut@@ 0.0200965201227604
child 0.03681845949776926
death 0.013657319806441316
eding 0.04406699590394458
flor@@ 0.08052923732960185
gian 0.038226731666180847
hep@@ 0.2061121563230723
itar 0.08864040366552474
kam@@ 0.07986087997764629
km 0.007059163721307486
lins 0.07206407369234316
liz@@ 0.06043276697753382
ograp@@ 0.0514510951129713
® 1
ו@@ 0.46501827413523283
お@@ 1
Ale@@ 0.075896120728875
BK 0.30839553979952583
Boul@@ 0.06752356791655255
Esp@@ 0.04809137399505585
Kap@@ 0.038564871771021844
Maxim@@ 0.08709614884051078
Moz@@ 0.15076270143195056
Poc@@ 0.12933248055726446
Roman@@ 0.08169942201854732
Wales 0.036621964142734206
aissance 0.03309258190700329
bom@@ 0.04680569577248095
educ@@ 0.026440726983444615
eing 0.0567462323418919
essor 0.049823916132575155
ily 0.03114008404486601
joint 0.056463855293672156
made 0.005159542008698962
mix@@ 0.027545749685742884
nament 0.08081671238939124
new@@ 0.04006080979034886
onda 0.17848974655472016
ool 0.2544221796855782
positive 0.04716020642424505
see 0.01684937070717733
sound 0.050099887484254
พฤษ@@ 1
← 1
み@@ 1
忠@@ 0.3331268199762414
～@@ 1
Bed@@ 0.04881966739091283
Exper@@ 0.09714106719093107
Jimmy 0.09086026263301832
Jonathan 0.10938895961117655
Lawrence 0.08704352176892817
Rio 0.06327660422153077
bia 0.15159156779569286
canc@@ 0.031130625090513585
ces@@ 0.023040002632611207
chron@@ 0.07127060503915102
cription 0.030961387004169626
digital 0.05460512885936859
ebo@@ 0.11366797715985523
eland 0.06579435308720369
esse 0.016390304549311892
far@@ 0.022349688829258457
ibn 0.13260324552847236
oper 0.07009014505653846
ping 0.05327807287169054
using 0.011568164922608613
yal@@ 0.07373269750052189
ï 0.10776518690117251
Δ 0.3224601476723275
十@@ 0.023733874783982162
周@@ 0.06370696452614992
氏@@ 0.4005479683041298
秦@@ 0.30392564834464036
#@@ 1
April 0.00620282687136198
It@@ 0.13743415438941733
Jesus 0.07849017910126502
Kel@@ 0.0677840077777702
Lau@@ 0.06058756384276663
Leo 0.11343222686597405
NGC 0.07048509954673907
Ner@@ 0.11418655783049424
Parliament 0.04234676109326514
Region 0.02983167200271595
Syl@@ 0.09664985536708727
acre 0.08424582352900424
best 0.014862454595574713
cot@@ 0.04983314809253769
door 0.04226640425841483
eli 0.06340999600280038
endro@@ 0.13091825038972077
gence 0.07965638267866798
hap@@ 0.03955888231372993
limited 0.03897330972502968
must 0.029632517386496564
nik 0.038481696730152996
ores 0.009863347380506184
orial 0.027547858720023723
pia 0.2577808645310219
real 0.02603957143607988
scre@@ 0.03263365715251916
sha 0.19331318579243417
त@@ 0.0739305011481826
ု@@ 1
清@@ 0.058004772242836525
Bell@@ 0.09007052526280505
Bis@@ 0.08301809658913507
Govern@@ 0.04044208086550482
Henri 0.05411645093973217
Kos@@ 0.05736971323808208
Map@@ 0.13108418561379873
Mr@@ 0.08287175219601327
PlayStation 0.1216734986754818
Railway 0.038866322196297216
Ric@@ 0.0672362347894904
Sarah 0.08267035516204205
Thor@@ 0.08975243740534278
acher 0.03179922580439771
appro@@ 0.015242902891650442
chor@@ 0.06366776358524708
cut 0.04397751960566036
cycl@@ 0.05647146291274978
eni 0.07496497134666226
eti 0.07145661988153414
event@@ 0.06934844805199238
ful@@ 0.08779923306128865
gli@@ 0.04812890161369238
him@@ 0.13604660951213765
ican 0.03098629906155657
iment 0.033564961660651246
inin 0.047596657258827425
itage 0.04750665399490937
mid 0.028956708227727956
natural 0.027851631429189568
ono 0.1134647156379897
plus 0.00374455954178482
ria 0.12456538031796495
sl@@ 0.038005553961182215
theast 0.034821378969377745
·@@ 1
Á 0.22910806773186046
γ 0.4088253169954932
さ@@ 1
会@@ 0.12610557923878665
Chu 0.2193668046439347
Italian 0.02889664498617457
June 0.008133140441024877
Matt 0.09440964816375357
Pod@@ 0.08279744936265983
Regional 0.07003174794891294
Slo@@ 0.05665805490172266
Tig@@ 0.07232954466005875
Top@@ 0.07668800672039643
XV 0.08939570368204916
Yas@@ 0.194339673598394
Zen@@ 0.08588311351616909
\@@ 1
about 0.005260018392186005
afe 0.11197625706129055
ario 0.01111361454495913
burgh 0.041104335568450674
div@@ 0.029306965207643452
els@@ 0.026561002700922022
exec@@ 0.028515388380676052
fall@@ 0.035306340239262414
hen@@ 0.06734794771428426
kel 0.03101769811097715
loss@@ 0.08292759909328394
make 0.01616263784305526
onds 0.06812728955980664
programm@@ 0.040776094754912263
raine 0.1360309271954949
rel 0.11328643533562342
sep@@ 0.1951779039495881
syst@@ 0.04940794015199562
tary 0.028763305414230386
uka 0.1739137882441486
µ 1
í@@ 0.004680022361868246
も@@ 1
ブ@@ 1
我@@ 0.19715978480604196
陳@@ 0.5179102976606946
龍@@ 0.12949927959085453
Augus@@ 0.05444228038816649
Austin 0.09038332037995142
Bah@@ 0.03569945012486041
Bug@@ 0.1414985547532339
Der 0.0034619555496456286
Dim@@ 0.13122194851637764
EU 0.07846794762046892
Greek 0.03764168568753416
Ireland 0.028482568344834307
Jacques 0.043006614138389285
Malaysia 0.09361030550579127
Metro 0.08715956105901611
Stat@@ 0.09040015709639208
anj@@ 0.09133359242767808
aye 0.04700297150346921
eting 0.15051314554919432
fun@@ 0.018639625811163858
gel@@ 0.007126992604378726
image 0.04414706227873849
ime@@ 0.27240448430181413
intern@@ 0.05395828908507908
ling@@ 0.04753409980784403
lon 0.05691320941010183
mand@@ 0.02121020773094551
market 0.030202519302391574
maxim@@ 0.0361280648403832
operation 0.030923441071107692
production 0.01246508926239463
relation 0.07083705854841194
run@@ 0.03169109304350705
singer 0.03680776176145035
tend@@ 0.031427832425424636
term 0.02051463407524029
tif@@ 0.06310868663766891
toral 0.0322961033382268
π 0.18251729127687838
代@@ 0.05445255424544162
星@@ 0.06800742065152116
義@@ 0.07662029806906082
門@@ 0.1719578809290351
Apol@@ 0.10850291982754535
Boston 0.03549276372186778
CF 0.11670943704431697
Capit@@ 0.0748463685230688
Carter 0.09402863477617698
Conserv@@ 0.04857670053672575
Ey@@ 0.16495304025689744
Friedrich 0.029694522136927266
Gan@@ 0.07839555317207927
Kil@@ 0.048072768487344514
Maur@@ 0.05667621375334204
Program@@ 0.06633447106977583
Sep@@ 0.13529465855317804
Spanish 0.027464372092626206
Stan@@ 0.06094323677480411
aro@@ 0.08123228009475096
arti@@ 0.027125520480467097
asons 0.06725401327971012
cla@@ 0.03286118591440932
continu@@ 0.014526276490725245
cover 0.03169203005907128
domin@@ 0.01681047242452597
ensi@@ 0.05815280353811596
ered 0.014684002043851755
gor@@ 0.08684651071586884
hold 0.043760101786215366
igo 0.04584935614438039
izer 0.24014801893189103
king@@ 0.08466324193539906
kon@@ 0.011361531048596132
lea 0.09406640604452061
liber@@ 0.02274363582956106
pass@@ 0.011067705344257167
poem 0.08097697008215794
pole 0.060099322854893854
prec@@ 0.028250890260510284
rad 0.0751726000194848
some 0.0058978668283420225
structure 0.026034106384522818
tures 0.01642915842284773
ved 0.00854577007071783
vic@@ 0.013615930079350658
vot@@ 0.015477172889828625
ó@@ 0.0066545387823643805
φ@@ 0.029201858549872603
ກ@@ 1
き@@ 1
下@@ 0.03127654953915285
後@@ 0.041325266754242765
無@@ 0.06733050324095011
青@@ 0.07557641464761336
Alter@@ 0.0657330939009346
Dipl@@ 0.09592680468075342
Eg@@ 0.08166358715424654
End@@ 0.07460392559166193
Gau@@ 0.06264633598533552
HMS 0.1023910634708036
Kamp@@ 0.050603606755337004
Len@@ 0.0679010198382093
Mai 0.01771677999901485
Nom@@ 0.11966813413528067
Reser@@ 0.044752081543322095
Rock@@ 0.09681451968329195
Vog@@ 0.06869449394720444
Wir@@ 0.035807890817947455
aces 0.026823498489031674
aching 0.02193895174509177
aron 0.0074889590238550775
eno 0.03420737232967683
footballer 0.04225397462992571
idential 0.03467722592702357
isha 0.11293485217443261
known 0.00498948569887393
law@@ 0.0206494886560744
management 0.03589069305872726
movement 0.03130261337172799
ored 0.020883999148942258
ours 0.037826937402365694
port@@ 0.012298349017013207
professional 0.018629196771516476
ron 0.10464128064784715
tac@@ 0.06986067682576051
tou@@ 0.028575231750618973
tour@@ 0.014008914247061568
ues 0.01586917888994283
virtu@@ 0.05043108581456989
when 0.004106470533642303
ð 0.7774402802199278
י@@ 0.3761227281619558
ن@@ 0.031860588458729855
心@@ 0.0831058993704288
都@@ 0.12064832629357088
黃@@ 0.43816800186330235
Carlos 0.032708059094512305
Ferdinand 0.0805102501978322
Gib@@ 0.08189833580013195
Lit@@ 0.047124794724206956
Port 0.046753307264771074
Roy 0.08354411798094788
Sant@@ 0.061754875536194645
Sek@@ 0.05038691023862719
bach 0.019168548524324328
bu 0.022367478359763018
company 0.009581920276681168
development 0.015554643561533472
dio 0.024288102133324177
frequ@@ 0.028323034109782486
good 0.025416312162242424
har 0.15183703005123392
isia 0.21259323510167483
kn@@ 0.02806144652038106
mont 0.028859413567665547
neutr@@ 0.07061664938513619
perf@@ 0.04684573590097994
player 0.015522334534093584
say 0.0479517850649948
stock 0.04776027345081544
tum@@ 0.09666752061608738
tz 0.07314688927655846
yu@@ 0.22691939370382455
ະ@@ 1
》 0.00837191036822134
れ@@ 1
チ@@ 1
ュ@@ 1
時@@ 0.05073622759092188
民@@ 0.02786785622715012
～ 0.3617142813830689
Alg@@ 0.06303980059418232
Arg@@ 0.05715296768023822
Douglas 0.06228375745001851
Ern@@ 0.04538283380353544
Gur@@ 0.09998353738074667
Hamilton 0.05972369788762131
Haz@@ 0.11117286422321389
Jor@@ 0.17707101611564516
Kno@@ 0.07752671933701887
Prov@@ 0.06035583224430688
Ross 0.07739156655301414
Theater 0.05217738004712949
ables 0.014772263583123547
aise 0.028467419733100387
apon 0.14174509051090226
edo 0.03769045285293376
eline 0.10920337720718665
elling 0.023856989639077533
endi@@ 0.026881897726060106
enh@@ 0.02285176760030368
esser 0.08166771630333318
fru@@ 0.040352640106535484
gol@@ 0.024526654655516483
igh 0.0638683818776266
istan 0.050643864601910865
lu 0.06865496898983584
mos 0.07556182708265219
nati@@ 0.03237711414241733
non 0.008961108564186235
phil@@ 0.0710681099485512
points 0.014230047846952674
pros@@ 0.03674804100844664
red@@ 0.03671538271844091
rich 0.04697121613826528
san 0.06766769235995794
stre@@ 0.016515302467411536
tai 0.2910635060590225
あ@@ 1
つ@@ 1
を@@ 1
唐@@ 0.10773761467197289
校@@ 0.08294395213677269
行@@ 0.031419708527197325
Aug@@ 0.07335106201831658
Brad@@ 0.06382594280896411
Canadian 0.022981782635213173
Carolina 0.033225100645302943
Catherine 0.08201001840707207
Christi@@ 0.047636696334312584
Dan 0.07730371873140897
Jose@@ 0.09419243617735253
Kle@@ 0.03711209578023958
Kot@@ 0.10925155718280186
Lav@@ 0.06872701171504908
Mart@@ 0.07408483392226375
Mb@@ 0.5327718828419727
Nelson 0.08051714728715821
Neu@@ 0.028697978079820406
Part@@ 0.08908691362388797
Ris@@ 0.09787140978307175
Rome 0.03612973573602625
Soc@@ 0.12868109745672707
Stra@@ 0.06445603453398642
Virginia 0.026478280293274217
Zealand 0.02892497628678723
ander 0.067887629226829
being 0.005415139020201722
bloc@@ 0.042812209898203925
camp@@ 0.030623882759265267
chia 0.1012051615001002
dial 0.0704263752235798
dial@@ 0.07258257203810416
eder@@ 0.031103133782266975
election 0.011650512546920726
enter 0.03759708784268659
eption 0.028530094653808895
foc@@ 0.019668728567980763
fon@@ 0.01772724366143398
ict 0.03858881014863661
inger@@ 0.0912655258096895
lav 0.06330625283422357
oir 0.026694367676870195
partic@@ 0.05474079914839548
standard 0.03287876989883473
tar 0.03772752178939906
traf@@ 0.03344930723224646
union 0.026974880408694377
½ 0.21709898096496358
î 0.16736934867961314
คัญ 1
김@@ 1
Atlantic 0.050923745238045603
Claude 0.06631654378146438
Constant@@ 0.08010631821585833
December 0.008016470070383959
Kath@@ 0.047400526073896464
Kid@@ 0.18328850601718974
Kun@@ 0.05364838859167222
Lak@@ 0.05874778844897543
Lind@@ 0.0568076543803205
Motor@@ 0.07426840529138196
October 0.007463145043017562
Rail@@ 0.05063067363134019
Vas@@ 0.06117285778847224
ago@@ 0.0659986568753445
alogue 0.06943451585684343
anny 0.08403193876435763
apa 0.059887127368300014
been 0.0026032724232137286
cus@@ 0.018188617747331152
democ@@ 0.06410341573723725
eu 0.0257474941693582
event 0.017228847548063784
gan@@ 0.022571399618896565
ias 0.034495245574165646
ingo 0.06608371982213253
lec@@ 0.032334689832234954
location 0.030533019636507966
lut@@ 0.059424766441207165
num@@ 0.022628938821716914
page 0.043181093333552335
pit@@ 0.04590010797614296
project 0.020613749006803798
rou@@ 0.021252710786910548
tum 0.07774104017328506
ulu 0.07119711910163637
ì@@ 0.3868447680832781
μ@@ 0.028183700477199106
ရ@@ 1
ី 1
ズ@@ 1
Asi@@ 0.0935189602990214
Bran@@ 0.04320166194404767
Britain 0.04007006760661233
Chir@@ 0.1273021664656441
Ich@@ 0.24806450379986805
Jon@@ 0.09891635608762282
Kl@@ 0.0193469633875596
Neb@@ 0.10662051142658696
Oscar 0.078498352318155
Pand@@ 0.11562198341362859
Rural 0.07973327234221902
Spain 0.0372216623037385
USD 0.12812730888930363
adj@@ 0.05099417212999269
alt 0.023047794012736756
ares 0.01715916315850878
atia 0.09243504133935522
bass@@ 0.04159533284623009
bis@@ 0.05903933681482793
circu@@ 0.04842015562898113
clim@@ 0.036329570688891775
consci@@ 0.05763453982537997
eda 0.05619302564626184
edi 0.08695993061385549
enes 0.027058866198688115
ennis 0.09608628541122886
father 0.011727314526424098
ief 0.03693581471406471
ien 0.0073618980396939265
inga 0.1348117477001686
ised 0.02015113033697493
itt 0.06318738420261087
iz 0.06400535330831995
kar 0.10065826385482342
kom@@ 0.013358380462219143
nak@@ 0.12773609591189658
nam 0.050217679437863545
olo 0.048989358851572976
omin@@ 0.08515702369531597
orb@@ 0.05954570805397423
post 0.020674684047940234
seud@@ 0.10065826385482342
ska 0.07687922703647325
tax@@ 0.04280913089895836
temper@@ 0.029737369212470128
tiz@@ 0.027229061592748578
venti@@ 0.06380255173922009
ysi@@ 0.07618046211430977
ə@@ 0.21024546780334544
တ@@ 1
。 0.0007836268498278288
ョ@@ 1
字@@ 0.06605486627198175
祖@@ 0.11469831925872888
魔@@ 0.2019469377597977
August@@ 0.08698012485602602
Dad@@ 0.10806273246319469
Diego 0.046345354589010436
Ian 0.09743574018641614
Las 0.013265425728208427
Ludwig 0.04974272556394159
Racing 0.06731718191080786
Sag@@ 0.11298500039165778
Sas@@ 0.1329486512578204
access 0.035014375565134696
aring 0.03445673024593027
bak@@ 0.06015920199436593
bol 0.044771432617479755
cer 0.043828964661306716
compl@@ 0.013438360016580397
complete 0.033221004962650756
cos 0.023950187361316214
direct 0.03463661470151409
district 0.010802441944126549
five 0.010120293114820081
get@@ 0.021803558202872952
harmon@@ 0.05744533179517611
ilian 0.05201923656669665
ises 0.0169331018737582
ismo 0.02007191538547592
lif@@ 0.045768676055168656
map@@ 0.07831180182180142
nat@@ 0.03446144663949749
nation 0.03998444397007583
nen 0.013883416571611854
polog@@ 0.08238070051720024
pos 0.024725898924510346
regular 0.0247290305811238
set@@ 0.0418732564761772
sters 0.07176755829149267
wagen 0.06465885318061958
wald 0.044135490610489665
ween 0.05095668651485494
wich 0.068234691732799
years 0.003781024169154785
ē@@ 0.24524154451729038
ư@@ 1
ː 0.9697058476752498
Р@@ 0.012034731216533198
م@@ 0.02487427270406302
有@@ 0.021952497402914148
인@@ 1
Chu@@ 0.18662465134606185
Dod@@ 0.08409486528050511
Es 0.0072470008137135835
Kad@@ 0.060920377151811374
Mong@@ 0.08108902333864605
Nec@@ 0.15575227571907807
Nicolas 0.07367599170642322
Norman 0.08434462593956606
Reich@@ 0.03893147691459855
Test@@ 0.06923378109348738
Univers@@ 0.21973161832376403
aks 0.042757728757803044
anch@@ 0.06943415576002938
atives 0.019589293342200283
auth@@ 0.024388731270656563
cher@@ 0.033819354460378245
cross 0.04261895704708011
direc@@ 0.010918880245250891
elly 0.10482943274651595
enzo 0.08893854421384943
fast 0.0256044754318693
gin@@ 0.0727482485930557
hao 0.25408855500725985
history 0.011688796776012604
ional 0.04852504109939934
liter@@ 0.015318904480338714
quer@@ 0.07954026178032507
sou@@ 0.007873239410232864
thre@@ 0.025520477932299876
transfer 0.05738181868928064
west 0.009749807930226733
ơ 0.23238844549577026
ມ@@ 1
ວ@@ 1
ອ@@ 1
† 0.015154769403683049
⊕ 1
」@@ 1
史@@ 0.0706871491168619
孝@@ 0.33673085752337106
阮@@ 0.45552536528429755
音@@ 0.09710455642512968
Andre@@ 0.07338212510877024
Anton@@ 0.09028612372216543
Chic@@ 0.1756672300766743
Coupe 0.048984487725390026
Fron@@ 0.10237720686508599
Gri@@ 0.05565026554611918
How@@ 0.08554546828256152
Lie@@ 0.037985501133229065
Ni 0.32300024784064424
Obl@@ 0.0854439693917145
Wak@@ 0.12822728202496642
ague 0.04254920340283683
ako 0.1894912825730702
asha 0.20222936038802639
bind@@ 0.07987318156383337
cath@@ 0.07046756929815269
cent 0.028488048354451213
class@@ 0.02266409881686782
country 0.012351237180702385
esi 0.02426710063123119
final 0.00723546597909754
ied 0.021602501495567254
imi@@ 0.060780877697376806
information 0.019964819352612496
ives 0.025356845882757724
loyd 0.06668396701010522
nu 0.12987473791252174
orer 0.10092573417796284
pair 0.04123160353003341
pet@@ 0.07174540386108422
tec@@ 0.05536140669800163
techn@@ 0.013208135650104882
thy 0.03605494951871972
tly 0.016459883534898266
vier 0.01588278661945291
ɪ 1
ة@@ 0.5097848942624578
န@@ 1
ノ@@ 1
군@@ 1
Abu 0.10456671708433005
Andr@@ 0.09245740167549173
Ast@@ 0.07203649581324158
Boeing 0.119019303995879
Cec@@ 0.10175187072624026
Ere@@ 0.08889278112442586
Jew@@ 0.2775516740661534
Lad@@ 0.07821233672041251
Pok@@ 0.05368884495937262
Produ@@ 0.08393554056495832
Represent@@ 0.045030563995035675
September 0.004904072516245779
Territ@@ 0.04845676109141096
Vladimir 0.11327651134646033
Volks@@ 0.028949369507464653
acu@@ 0.039101656784819125
bid@@ 0.127963143519243
bile 0.05904086044010622
canal 0.04817868741844955
dier 0.061377610704748245
distance 0.0354792239973448
eon@@ 0.17986116562108423
esses 0.018494357903742754
ever@@ 0.037923136595699874
following 0.006978647461645277
ht 0.035132030780351375
ju 0.14047796763482098
libr@@ 0.03333220265471161
mile 0.047254700322402324
moun@@ 0.022574211040071304
native 0.03108366817582351
open@@ 0.09400359783495613
ording 0.03185004958107735
political 0.014344202062537748
pool 0.07241786750894343
research 0.016839715813964238
sat@@ 0.027685389242590615
stan@@ 0.04445221988018918
was@@ 0.030974773965641453
wn@@ 0.12167958096500518
yat@@ 0.09792883929537753
ε@@ 0.03540962108999541
ος 0.018382090765191216
र@@ 0.03833780025653816
へ@@ 1
九@@ 0.05565753499069538
古@@ 0.03570569832159607
朱@@ 0.12080415362809092
Cape 0.05958836837420838
Chal@@ 0.10589240233962544
Grant 0.07416903840021662
July 0.006874556529721357
Margaret 0.06774942202053359
Miller 0.05322888777862412
Minister 0.020420769391230165
Ober@@ 0.010837805578688185
Palm@@ 0.07275892371819614
Personal 0.03354650116366043
Russell 0.07215485659601714
Sti@@ 0.04598497032025186
Tos@@ 0.12346570172510167
Wayne 0.09068545977265019
anted 0.021555492644527646
aud 0.036441832030493955
avier 0.05727715055783972
ball@@ 0.03156279063369144
castle 0.04346034615463692
cel 0.06419664192440662
curr@@ 0.03862837631475966
ener@@ 0.043641754497946945
finished 0.01899948849095197
host@@ 0.023749485780947505
illo 0.03222076487204837
iner@@ 0.11486162269480935
jum@@ 0.05185977215152844
liv@@ 0.031094642797690877
owski 0.06379132624433237
pp 0.07854237900010912
ques 0.005206776036256785
related 0.02348583778456755
sang 0.0436364719134946
sei 0.027505485418283234
trong 0.004231444265203392
ymn@@ 0.20428638309779726
÷ 1
ć@@ 0.17235943244517052
ν@@ 0.028846376842008383
ω@@ 0.030279164121007503
ី@@ 1
េ@@ 1
書@@ 0.09111176403576253
藏@@ 0.16408743492263125
重@@ 0.028111887194163087
（ 0.0028026529690312043
Card@@ 0.054589150148045905
Maurice 0.06588643402791644
Muhammad 0.08707278247736695
Peti@@ 0.07408146663284967
Que@@ 0.04162100729161421
These 0.013373071172983189
Tib@@ 0.06787297487124182
Turk@@ 0.05098916579872839
alam@@ 0.19696465231207463
aven@@ 0.05336016308149619
aza 0.03547240780220776
condi@@ 0.07017396291657821
cru@@ 0.022878173016536035
dem 0.001273679845131421
enburg 0.036295640197538934
enne 0.010471742075687063
erie 0.02601958240295532
fan 0.047517260940379634
flav@@ 0.12489758449261633
fran@@ 0.0315794195772111
full 0.015945418229578946
hand 0.02551892378303051
ically 0.01437328163239453
jan 0.08086468994610657
kul@@ 0.024536845937321024
nos 0.03210567658827366
stell@@ 0.028393135106838906
tras@@ 0.04815938608822261
ສ@@ 1
プ@@ 1
昌@@ 0.27514102941262236
空@@ 0.04291921666795271
사@@ 1
원@@ 1
Brig@@ 0.031338032790677636
Brook@@ 0.05597581974141013
Corps 0.035398695922883514
Gom@@ 0.11017183899133873
Isa@@ 0.07514856974084665
Materi@@ 0.07352424182166264
Pra@@ 0.046791089793536036
Sydney 0.03596313849351885
Theod@@ 0.06364440508638451
Walker 0.06912505221342645
ahi 0.15353184986565208
aji 0.11810701187271869
alan@@ 0.06237241678345632
apr@@ 0.09449378635367338
ases 0.03900389181006298
association 0.032809351670502564
bai 0.07904152051419978
court 0.01594001977742183
dance 0.04537834147080876
eb 0.07365753674873747
ei@@ 0.05167194869066894
enci@@ 0.015559246899541825
fici@@ 0.030150887759413613
geb@@ 0.010800338033907824
great 0.020576008456601194
iker 0.03219244497962458
lag@@ 0.020694217115302897
lik@@ 0.02017911213447115
once 0.014744761123490782
pag@@ 0.04877108861850678
rag@@ 0.05707039460411783
rid 0.07464191986623948
ris@@ 0.018009113827240627
she 0.0030486887957009642
ski@@ 0.06231146190137584
special 0.022777857855007952
sport 0.03633517715076277
ste 0.00899576595475161
ult@@ 0.020747300887604327
wealth 0.045666817917651384
wick 0.06479345625227179
Ō 1
ฅ 1
ザ@@ 1
セ@@ 1
侯@@ 0.35773587509649746
縣@@ 0.13835521094314296
藤@@ 0.33538854283379815
조@@ 1
Americ@@ 0.0444861117236852
Early 0.016256511302059073
Flam@@ 0.09372080365872609
Iz@@ 0.10898113253630977
Ja@@ 0.06723138243926524
Rah@@ 0.0767096239322957
Rak@@ 0.10545185554147583
Scot@@ 0.06271963050273707
USS 0.08648866357056845
Yan@@ 0.07203040500391007
acks 0.024662378799023006
after 0.002480687783582161
apar@@ 0.03668452150363217
ativ@@ 0.05492681389310935
dings 0.03914101313844488
distribution 0.03761503769841888
entum 0.07670141076390238
ern 0.0060661281509610575
eto 0.021650810004676068
front 0.017677588784601662
kov 0.07996410134967351
lard 0.06081740867065193
mah@@ 0.09662182863625958
may@@ 0.04802429395765822
onym@@ 0.04313670160270491
ort@@ 0.021457449019540754
proj@@ 0.016795892173084206
ps@@ 0.0701214626664762
repe@@ 0.04259572144862252
rod@@ 0.08663247723064246
sil 0.06476175948348024
sta 0.05248898335305506
tes@@ 0.042632266348597785
ui@@ 0.07547180709717526
uni 0.08653306405617502
uno 0.014310538318728465
vor@@ 0.0050069284842859845
wi 0.2047136597908378
à@@ 0.1661809533268249
ː@@ 1
ר@@ 0.5742512168067235
ช่ว@@ 1
ល@@ 1
ハ@@ 1
情@@ 0.08688815940888892
昭@@ 0.23362704412427032
經@@ 0.04233748037703721
英@@ 0.03317462553774805
風@@ 0.0695377978029885
Assist@@ 0.051128844435701364
Dame 0.05930864210343759
Deutsche 0.04686666721941977
Educ@@ 0.07951308940488504
Emil@@ 0.08842722098828022
Georgia 0.034060159120363996
Hawai@@ 0.06702023655565438
Ng@@ 0.04101310629745823
Nikol@@ 0.06310913918136865
Sieg@@ 0.039199712802353626
Tul@@ 0.07642369575667543
Wag@@ 0.054605059222471324
Willi@@ 0.05971692213740461
agan 0.06346096350523367
ament@@ 0.03136605031350534
anti 0.02165202400515843
artic@@ 0.1241287803147587
bank 0.02764792338071166
bec@@ 0.07080514372252708
bis 0.0024261480277278256
character 0.019358418972069823
coordin@@ 0.04663384297719017
corpor@@ 0.04074028483459949
dil@@ 0.051024280794675664
distr@@ 0.030630201221483536
eil 0.03429521868902371
eins 0.06105455015582926
encer 0.07443815805855353
enty 0.03812469273145139
eppe 0.08484613365187367
estig@@ 0.05352720274592926
fall 0.017417645709651968
fro@@ 0.06199115220275312
fund@@ 0.00957759373958859
genus 0.028525756604003465
igan 0.10447639840759716
international 0.011411180128639946
ions 0.04335088047383703
nership 0.03638035500392295
rif@@ 0.043918822479421686
sn@@ 0.050636326171554114
status 0.030937640445112304
trag@@ 0.020701346004662703
ufac@@ 0.18472648480074755
uku 0.2771623683669887
û 0.13175509912276892
ý 0.041631039279234054
ž 0.5209983265422586
δ@@ 0.02617430635639691
σ@@ 0.02334201794165529
ັ@@ 1
က@@ 1
こ@@ 1
ち@@ 1
て@@ 1
ビ@@ 1
二@@ 0.025121217385751664
康@@ 0.1005383214830971
愛@@ 0.06903270350217945
梁@@ 0.17317186038547588
章@@ 0.3797542579511058
親@@ 0.16243924931026787
성@@ 1
아@@ 1
Ann 0.0743087218130267
Arist@@ 0.10911757388514584
Athle@@ 0.03551600267494911
Ble@@ 0.07944187842531492
Clark 0.05642759340290713
Egyp@@ 0.038087017404338314
Kag@@ 0.21199818945459978
Michel 0.0419716007213394
Oliver 0.07761202491442676
Olympi@@ 0.06615218752198573
Orch@@ 0.09974142708825776
Raf@@ 0.1195257744113302
Rest@@ 0.12119211815248604
Robin 0.08955040850998282
Sad@@ 0.07166933398729651
Villa 0.04706593204556201
Wolf 0.0829087814731359
abad 0.055606128939091
ao@@ 0.23720440666564224
bab@@ 0.05925801660073655
cons@@ 0.009331662322606245
dimen@@ 0.03618772788224595
division 0.015323834167891405
hip@@ 0.11392932102514898
igg@@ 0.04379258168741954
ip 0.13662275751457342
lang 0.020545983163033094
lich@@ 0.019226552076121527
lus 0.11035075343322506
minim@@ 0.04324555003107211
multiple 0.03364323939281863
nel 0.03510595189609623
online 0.04203012580179051
pand@@ 0.046200763885539294
person 0.022015017506668372
play@@ 0.030818594181629404
sar 0.093923036416341
tri 0.10016052385144782
urban 0.04748447736903409
verl@@ 0.014202047793917146
with@@ 0.03547859126164208
ś 0.8557120911929031
क@@ 0.051910526894112755
ศูน@@ 1
‌@@ 1
え@@ 1
っ@@ 1
ー 0.5375570528933448
信@@ 0.042435539728721126
如@@ 0.0478067380993771
妃@@ 1
赤@@ 0.1759753136029065
越@@ 0.13471787525427759
魏@@ 0.2378758742623568
한@@ 1
Andrea 0.10073736338083886
Baz@@ 0.12088215663427285
Benn@@ 0.06182607597016068
Cant@@ 0.059959094872817885
Carol@@ 0.060462967709057576
Fon@@ 0.0499546840990949
Gru@@ 0.052825984076274424
Harvard 0.05654960575733628
Herbert 0.06866473390578809
Kent 0.06900472427957402
Lis@@ 0.047475388063906054
Mang@@ 0.08056984919404121
Manuel 0.03761739229710937
Mim@@ 0.194520962265314
Moder@@ 0.06991768645306343
Mosco@@ 0.04127144938333206
Pos@@ 0.05961695587395172
Rey 0.08770669727322004
Schwar@@ 0.03810964864304679
Sport@@ 0.029686029205166675
Wid@@ 0.05952066026926303
ainst 0.17450040674206016
anni@@ 0.04105871315676884
avi 0.08986783407559987
borough 0.04328806788055763
club 0.0056476795189924515
edition 0.030476332474248878
eval 0.04994279005407713
fen@@ 0.028079919363708003
gom@@ 0.09508763097530896
hara 0.19871208385318162
hid@@ 0.057245677613960384
iria 0.4637779391160372
jur@@ 0.01372688629483832
kir@@ 0.03267030514647793
kw@@ 0.0489705483239716
lines 0.022722568379722738
lon@@ 0.08189833580013195
many 0.0049802745581188435
nan 0.09256457073749709
nic@@ 0.0943104076280857
ois@@ 0.047850556957831206
otom@@ 0.09984352122522738
ought 0.016584316701673277
oven 0.10325493920087572
placement 0.037895156749158214
ran 0.02107924013962792
result 0.015999505317929093
score 0.026246892844755745
shot 0.028881636279785274
soft 0.11401027229617969
thin 0.04910960071598759
umi@@ 0.07473578538340746
what 0.01061954984093583
young 0.018607280135900364
ú@@ 0.012710242624258345
ş 0.08762214892641311
א@@ 0.5484799911543936
ạ 0.23476379119749127
ミ@@ 1
將@@ 0.041928250711488355
永@@ 0.07312707001169039
玉@@ 0.1331214454870107
陵@@ 0.4190226434496635
경@@ 1
신@@ 1
Chi 0.11548019336231362
Con 0.02986499051366686
Gaz@@ 0.07513500682554126
Grande 0.03690175280623948
Iv@@ 0.0738618011495266
Jak@@ 0.05445101722893174
KK 0.19284267386595744
Louise 0.0798554722216964
Monum@@ 0.059541148229061244
Ray@@ 0.10606881196494444
Robinson 0.07057725381155958
Scottish 0.03634620596476598
Tech@@ 0.07068519381527943
alan 0.04682643537902373
amba 0.08903715841895192
ames 0.039762103453422515
arren 0.057214282969010356
chu@@ 0.07855206917137793
church 0.01318272752474556
cour@@ 0.00915764712275957
defin@@ 0.016136131436972102
elen 0.027813257195677378
endra 0.07176381779172197
hin 0.04497343727068846
igi@@ 0.054317513782526354
iles 0.023900016005486645
large 0.007983914065954929
nationale 0.021308136714505294
nes@@ 0.06782828694920133
ob 0.04206709866954452
porter 0.02928660198532436
pris@@ 0.04671002680861116
sak@@ 0.12385912373025747
sibil@@ 0.027346045924776106
tru@@ 0.04486705005918443
urg 0.03655586701921977
working 0.014609834907617018
« 0.0007589002153532129
Š 1
ɪ@@ 1
́@@ 1
р@@ 0.00513728088613372
َّ@@ 0.17748284490649419
ა@@ 0.5295269102230958
ゴ@@ 1
園@@ 0.3885738879763315
最@@ 0.036945322002279395
野@@ 0.12063370313149761
Bog@@ 0.048755529321705945
Cari@@ 0.06040409127979619
Corpor@@ 0.1594784047268506
Harr@@ 0.049304540397695086
Kennedy 0.06216049096724581
Leb@@ 0.034954760296543715
Lucas 0.08861560450125057
Miami 0.05205445212675304
Morgan 0.06127849474733885
Navy 0.02269998248817658
Stand 0.03581294035330718
Sultan 0.08411941399474773
Tag@@ 0.0420619454541264
Tenn@@ 0.06170092359316522
Thom@@ 0.0844114079447231
ained 0.00792477120733403
amo 0.04841652404844876
att 0.05077558963995434
aug@@ 0.04451619269813353
austr@@ 0.04667736437007822
both 0.0049885225018942445
conf@@ 0.012086046551853729
down@@ 0.03299215739114395
illed 0.04037472312896445
illi 0.08571505903267249
imin@@ 0.06894351852895768
isis 0.13298677923317798
main@@ 0.016541134384094713
mission@@ 0.01891463291614362
ovi@@ 0.05807599149831748
pers 0.04138965217257334
qua 0.029433696582443675
retr@@ 0.033124628248426324
saf@@ 0.025850831473438748
saw 0.017376013664312424
tah@@ 0.13118551420115418
tie 0.0446373799274154
tique 0.019024773248877122
tour 0.013595599090759565
traditional 0.025848379594932327
uses 0.010935227023803378
uz 0.04676685604166169
vet 0.10537835575205715
vision 0.04385419412734944
without 0.013676958158992917
yak@@ 0.09215353306882458
γ@@ 0.02605107623229436
λ@@ 0.0286592351624688
ر@@ 0.024406597871787256
म@@ 0.042451905801410186
ລ@@ 1
•@@ 1
事@@ 0.025783615921312703
石@@ 0.04448937933759954
黄@@ 0.08355645976200002
Bruno 0.08892344557295072
Finale 0.05536032269948459
Gary 0.07360385072364645
Georg 0.04037489623966612
His@@ 0.05559020462025624
Historia 0.026572045517055918
Kak@@ 0.15451974966246587
Kob@@ 0.08918901675364597
Lec@@ 0.08544283268818609
Manchester 0.04250020482407338
Mei 0.5370464393788152
Papa 0.17708838709435093
SG 0.08906114059551644
Sud@@ 0.048416291001789034
Tang@@ 0.1454320550765857
Vietnam 0.044154525254555904
Vincent 0.06269119067085632
Yar@@ 0.1214075118526919
Yun@@ 0.15295519306080907
Zer@@ 0.09749645178979044
ampli@@ 0.045680937905803264
capac@@ 0.02289475096283263
commun@@ 0.012150003083481457
compon@@ 0.03659034429388188
early 0.00594897756863605
edra 0.07374716176298034
elin 0.0989047642287075
etr@@ 0.04224837402692772
gan 0.06621823176703431
govern@@ 0.0185168112325886
idi 0.04529216736784366
late 0.009997807739751787
lave 0.05957202256052563
lead 0.015195600242160935
modern 0.017166963123013287
okia 0.2506575013893828
original 0.008239632217900897
ott 0.048211865860336475
perten@@ 0.10186979205912952
rog@@ 0.05793712352474228
sus@@ 0.011973823485794028
transport 0.0336852450946353
treat@@ 0.027091040921311427
university 0.028934449605514067
vie@@ 0.013396510387403226
xe 0.02251533937214604
yok@@ 0.17472922770014201
သ@@ 1
千@@ 0.08120710579447692
定@@ 0.041972493124274486
島@@ 0.12470476391717382
省@@ 0.06413593871506142
者@@ 0.7016643250080346
通@@ 0.030028027877510976
Gel@@ 0.022368383573060684
German@@ 0.07625506007668827
Had@@ 0.06908639498862404
Hous@@ 0.1765146757870816
Latin 0.031377400995841374
Mar 0.09066655020840907
Ministr@@ 0.03145025523257582
Monte 0.07345087396006017
Pho@@ 0.22049278719797857
Scotland 0.031890584320719305
Tir@@ 0.054181298183498906
Zi@@ 0.02830490285882106
agne 0.02633038310797127
aku@@ 0.16531820629168825
amu 0.17518063810597462
angers 0.04240816546286785
autom@@ 0.015984764593617567
cad@@ 0.02702392879351822
dir 0.02135585857355089
epis@@ 0.029707919570971675
him 0.0034919685886304363
home 0.007344464887809331
inning 0.061071222375504816
lier 0.03051874730079994
lug@@ 0.04874907173057659
mine 0.026521400633057267
office 0.014179160175500553
onel 0.03898315904156632
playing 0.01460764240034879
regul@@ 0.024938156405530786
ses@@ 0.031209948016031854
speed 0.032466658455715905
tropolit@@ 0.07396379905754662
uss 0.02543437605444866
utt@@ 0.13498714090043698
ő 0.5098591654763179
و@@ 0.013751500821432117
ດ@@ 1
គ@@ 1
よ@@ 1
ン 0.5870189776021313
娘@@ 1
政@@ 0.031377400995841374
￼@@ 1
Adams 0.06112239202200596
Evangel@@ 0.054727395132845046
Lap@@ 0.09716838174705943
Laz@@ 0.11187612484900507
Ohio 0.02683354235245088
Ou@@ 0.053956758948723836
Peter@@ 0.033781705553739265
Philipp@@ 0.06783949745868063
Rach@@ 0.07854343109003392
Rolling 0.091015628409993
Rud@@ 0.062436912352771594
SK 0.11103825679252059
Thompson 0.06374999706695443
Zel@@ 0.0940593157900513
amed 0.019409243196598047
anak@@ 0.2906789989719568
atra 0.07750356764092979
aver@@ 0.03310449417045286
avo 0.08743180035872371
band@@ 0.024971266573237002
clo@@ 0.029916928339472026
dale 0.04987715854857718
degree 0.01898650600234732
eca 0.06140561670045323
entation 0.04630771777098613
exten@@ 0.013834976922061438
iler 0.023373373672935092
inn 0.04806582476645138
isation 0.02297904949642657
isch 0.0067113741349118326
kle@@ 0.034967656864668406
may 0.005187678996290872
mil 0.05443613746624447
mis 0.020888949305924283
nis@@ 0.07930044012751584
onne 0.017740884461598543
orium 0.06118832718113565
pler 0.07994308714172484
prof@@ 0.01340113808403987
propri@@ 0.03146523357575871
public@@ 0.010010642175482714
sav@@ 0.022273782327240785
sir@@ 0.04705211939771545
sun 0.09315354901363172
title 0.010474486587447452
total 0.007177328035015384
va@@ 0.08826460196538483
§ 0.10368798858218618
ל@@ 0.6307758766233921
มิถุ@@ 1
ພ@@ 1
™ 1
ギ@@ 1
化@@ 0.036070208769412956
族@@ 0.11869922406416919
機@@ 0.03819705157444553
物@@ 0.028884108246384963
秋@@ 0.22429182360312933
羅@@ 0.05097916290270078
見@@ 0.42840931827657286
記@@ 0.07985611833958686
郎@@ 0.49119659224035056
面@@ 0.0710647372841396
나@@ 1
자@@ 1
1,2 0.13276704196946776
201@@ 0.08085219246352778
Alli@@ 0.05195966748928828
Amat@@ 0.058824540908625496
Ba 0.0822484892946606
Baker 0.07125001961440425
Beng@@ 0.04591876685876953
Bibli@@ 0.03781398175854336
Catholic 0.021980640854410812
Creek 0.02769419925762216
Dum@@ 0.07486253105081438
Dut@@ 0.1511633639077229
Hall@@ 0.06810743269578713
Lincoln 0.04617759174690076
Parti@@ 0.03343231004021728
Verte@@ 0.07663471168616819
abi 0.09767472716532033
acked 0.02745847135953652
against 0.004245108147598528
bay 0.027075448477271034
before 0.004431131998329755
burn 0.05446918609640245
cent@@ 0.014271784033283693
const@@ 0.030501206877557963
einer 0.002522014443322214
enf@@ 0.01113535610565528
etto 0.08216847924737841
exper@@ 0.02980836317287973
fes@@ 0.027303705337309036
fiel@@ 0.024225725414665476
government 0.006497835668422471
graphi@@ 0.03929132103411239
half 0.011348083557263546
inda 0.100974975239568
inet 0.03702895727039127
ischer 0.006585100231022517
island 0.02318012444802299
omon 0.08918704516008108
orn@@ 0.04591130794948233
pec@@ 0.05646947994782372
plant@@ 0.024732289696730164
proced@@ 0.05002999471021575
pur 0.05405688982154315
rant 0.025161373045391337
rat@@ 0.06326703376589532
short 0.013129656785182823
solution 0.03759903285277946
tir@@ 0.018799372147306696
urb@@ 0.06784647985938937
vent 0.027938363816470455
vern@@ 0.038371777084517104
xa 0.07462155152885427
²@@ 1
ŋ@@ 1
สนุน 1
დ@@ 1
რ@@ 0.9420145844135418
≈ 0.8605991068052512
♥ 1
夏@@ 0.07748640600824606
式@@ 0.4516690702526146
景@@ 0.09767472716532033
楊@@ 0.16685184417523877
良@@ 0.1705380653270994
리@@ 1
의@@ 1
Clau@@ 0.06490702265443922
Fili@@ 0.040863992034076466
Fried@@ 0.026296216739490327
Italy 0.02401740808763659
Julius 0.08043914507492125
Kem@@ 0.09464925817187063
Kus@@ 0.09577325111581012
Lom@@ 0.07511357555632388
Marco 0.08347904792808086
Mey@@ 0.0562723070898438
NASA 0.08746287245102707
Nord@@ 0.013918385179144467
Port@@ 0.04309650320982443
Sin 0.023711573581500427
Ut@@ 0.14276666053820478
aint 0.06446307804858795
antes 0.005323596217885224
building 0.007626984380554068
children 0.008556301744844761
community 0.011094205149649273
dice 0.04213861842936036
endo 0.010148557230951285
ership 0.026705095414208208
etz@@ 0.01117782959550595
frac@@ 0.06302889966519001
give 0.02735984020681308
health 0.021365943969976313
hen 0.06290846332813095
hop 0.0791551142369429
idence 0.03835107388564052
irs 0.01842011621915185
kab@@ 0.05749511084751772
kov@@ 0.06861179523524435
lement 0.01740827312994009
mad 0.09703513842644869
manuel 0.06774853077342695
money 0.024278307760302844
mund 0.045636967139496006
ologi@@ 0.07236632698832118
possible 0.014166007270638289
quot@@ 0.035034022791547215
stand@@ 0.01319606843376878
times 0.010441106801199666
tribut@@ 0.01806013168237326
tz@@ 0.05918375599635882
univers@@ 0.03461255024099362
ل@@ 0.010507342591014426
ệ 0.09271167948899826
ん 1
孫@@ 0.21676393152848344
慶@@ 0.22013256466584485
會@@ 0.03409903326428596
治@@ 0.05708676941622987
洪@@ 0.13357544677363353
秀@@ 0.17220382360458614
수@@ 1
종@@ 1
190@@ 0.13458211384943367
Amer@@ 0.056983802665646954
Beat@@ 0.07089568198260322
DDR 0.046693132122255857
Dani@@ 0.07749762190113313
Feli@@ 0.08740094192085719
Glas@@ 0.04050607479874434
Hugo 0.062465531323900154
Marc 0.0564574175694469
Massachusetts 0.029586982569145003
Mexico 0.021411846663449325
Ped@@ 0.1012477879784484
Rac@@ 0.09472923598744498
Sa 0.02713206232658471
Sev@@ 0.10155021983500578
Shel@@ 0.06872726220226255
acia 0.05484215920576077
alco@@ 0.0486207138937341
alition 0.04548397434852474
alu@@ 0.03689046095412157
anza 0.029158153894328204
arn 0.06765933758147993
cau@@ 0.06663790576341733
chn@@ 0.09013023704692753
circul@@ 0.02784181621600971
dez 0.05671825151787281
econom@@ 0.020105678296520116
esch@@ 0.022493711257406217
ests 0.012730661918616337
eux 0.010600958263859263
eve 0.04546408898198367
fo 0.044241825944359735
food 0.025485365856086645
fu 0.16541938822847368
gul@@ 0.06775528436455161
inclu@@ 0.028049885195858743
ism@@ 0.03908938545726854
key@@ 0.05320043039739084
lati@@ 0.09239485729206358
mel 0.07193274002330292
mir 0.04861102103549093
occer 0.03949900018986512
ogo 0.07943371310452241
olf 0.11905628433354311
onstr@@ 0.028792954229113994
pay@@ 0.02092665822654721
qu 0.016706628947259626
run 0.012348615119700744
tay@@ 0.36999518668850945
thi 0.04433919607726713
too 0.02169331441944109
trad@@ 0.03574601413387183
vas 0.0534303611565868
š@@ 0.01814766873342331
מ@@ 0.5384001833402462
ي@@ 0.010427886562669375
ຄ@@ 1
七@@ 0.04965764531390565
东@@ 0.019887749872711146
台@@ 0.03657656860285933
部@@ 0.03407894981658125
 1
Carlo 0.08132287915965196
Chin@@ 0.06539413780709312
Fred 0.06599674547799221
Gab@@ 0.061152664580355565
Ha 0.0653818032468941
Hamp@@ 0.04037866718007345
Hungary 0.061640385218113006
Ide@@ 0.051752744333904435
Plaza 0.07202724257910224
Sri 0.04552716203131925
^@@ 1
absol@@ 0.030236275211009796
aller@@ 0.04232000613786914
alter@@ 0.019955826752526384
auer 0.016921061159365133
berger 0.03440901595442289
cost 0.028612617369244805
dan@@ 0.028205417263637168
during 0.0028921823467222448
eg 0.03943242853435016
ego 0.030063199794804818
eler 0.02300133417433468
episode 0.017342053835735186
got@@ 0.04054823613813311
haz@@ 0.07112279174640851
heim@@ 0.03597325691155558
isp@@ 0.07362126992981799
itas 0.0569462557846672
japon@@ 0.03165151268070953
little 0.022249125867254086
meas@@ 0.019222722591871837
members 0.00733008748858745
nea 0.06265086507266818
oga 0.05734902408451905
pad@@ 0.0513616598666536
propor@@ 0.026859351695515378
sag@@ 0.05164902832873543
sex@@ 0.038494009514159905
sol 0.04363642965797531
tap@@ 0.05399799144375775
third 0.007870271725918063
uj@@ 0.09195164301984442
uro 0.04003126263399875
zed 0.016721686389980464
А@@ 0.003317386458590496
ש@@ 0.6181075361520302
न@@ 0.04179720932976318
य@@ 0.04351208905830218
អ@@ 1
› 1
区@@ 0.08712698410809563
建@@ 0.021882744366455615
御@@ 0.19432375057408818
思@@ 0.07793747330561616
惠@@ 0.17971521478331529
松@@ 0.11784484056300754
語@@ 0.08922845610431901
Abdul@@ 0.10727996593986336
Administr@@ 0.0566505202492437
Anton 0.06543174916666551
Burg@@ 0.053666676485000016
Deutsch@@ 0.04532200340861304
Hass@@ 0.07736588864310494
Hey@@ 0.09108147202782495
Hier@@ 0.05239525440137231
Highway 0.029362619035765425
Histor@@ 0.033332222476654565
Luis 0.025863633308734528
Mex@@ 0.021580919210117455
Rit@@ 0.05280410556850384
Stanley 0.056205298215335556
Stewart 0.05779014190544339
aber 0.005794075514395171
agen 0.01046251019137248
aircraft 0.01856751726646319
alla 0.03837790342298789
alog@@ 0.02939870291203612
amount 0.03018312457449575
atar 0.07821738459114616
bed 0.021347318382249677
broad@@ 0.015420008313617478
due 0.006468278340889338
embr@@ 0.04049639827960795
figh@@ 0.02434380764052624
grade 0.027777715171643295
groups 0.016156705903967682
horiz@@ 0.05465884876766142
iku 0.2569315222543413
ires 0.011845696925213447
ische 0.0028065952710230246
itter 0.06467188534440903
kia 0.23979247672225132
math@@ 0.02866091079469454
pod@@ 0.07649826312557335
pour 0.001302499684724006
revol@@ 0.021920501526010022
rig@@ 0.03461208228075432
rik 0.09865307897676057
ru 0.11049016495318827
senti@@ 0.04983342680141964
sten@@ 0.051914024061645025
tn@@ 0.028994337913783735
uri@@ 0.0706608449607025
uu 0.5705921090931004
wit@@ 0.035353955014110004
yla 0.23843757433043963
» 0.0006417955738256596
ِ 0.12105194196831263
ی@@ 0.06378482132067358
ฝรั่ง@@ 1
စ@@ 1
ṭ 1
†@@ 1
仙@@ 0.2121546416116521
何@@ 0.1225520444996491
聖@@ 0.0769174364361823
順@@ 0.17499137779707785
구@@ 1
장@@ 1
지@@ 1
후@@ 1
Ahmed 0.09224246871785455
Andreas 0.07037003035052838
Arth@@ 0.2794502166804637
Bes@@ 0.00968787544409805
Elisabeth 0.07335375686610739
Hart@@ 0.05001342401453291
Hermann 0.04826381012111971
Ib@@ 0.061608545645643435
Ins@@ 0.038260341250140405
Jersey 0.02685453539089913
Lux@@ 0.22211274731217204
Milan 0.05300647000160821
Population 0.07460275482240894
Stein@@ 0.026716763988703433
Wer@@ 0.01583480972079991
anian 0.03433531797901268
athan 0.08252081636262319
bish@@ 0.02161183552078715
calcul@@ 0.03962884050220565
correc@@ 0.036128951210897896
ede 0.03297128796289359
elop@@ 0.16949489024759137
inten@@ 0.014487600510382191
jer@@ 0.037061875876162734
lov@@ 0.03237606771805474
minute 0.034815789707375616
mouth 0.03456517590841629
ms@@ 0.0807261457530193
oug@@ 0.033774600541285456
oun 0.06930311830789336
party 0.01142367328382262
pir@@ 0.06089155765800166
raf@@ 0.07907264471606695
stan 0.06589034780225057
story 0.012304805640583578
temple 0.03521424340313298
urt 0.047088443026375944
western 0.01439235845912726
อื่น@@ 1
ຣ@@ 1
ả 0.10358739218449972
動@@ 0.04499314738008331
同@@ 0.0198419484838767
宣@@ 0.05513076839348843
怪@@ 0.4896546763141497
木@@ 0.06330866161046671
源@@ 0.10514038484142059
火@@ 0.04466702255343573
黒@@ 1
공@@ 1
주@@ 1
Del 0.05408615362486139
Dj@@ 0.08014576721418136
Illinois 0.025344509998803312
Inform@@ 0.04838750559075944
Infr@@ 0.05746221620816954
Johannes 0.04018531808538296
Meh@@ 0.077439098760024
Nad@@ 0.05506927231510263
Nam 0.017696297875793063
Portu@@ 0.037337255011558004
Reichs@@ 0.038258553653130314
Rudolf 0.05986177560743595
Sever@@ 0.03131674353024542
Sonn@@ 0.047643202160754336
Un 0.010258015303364962
Us@@ 0.08760815322917657
ait@@ 0.1995508613146431
arding 0.02809081710240314
azz@@ 0.06852577290983397
cen@@ 0.07082788972646183
cian 0.09923001047542064
cil 0.02146931833006289
comple@@ 0.02145023807204014
cost@@ 0.01812212001065709
determin@@ 0.01935046196544953
erk@@ 0.01581051945633138
essed 0.029425430892111203
este 0.004914950205861904
fi 0.08991200869151479
forc@@ 0.027506975070711065
gem@@ 0.011504271209635068
grave 0.04913245633125471
hatt@@ 0.05654480713891053
isto 0.07528137790044821
ladi@@ 0.12345102064772864
lich 0.0034060847275241444
lio 0.07986485382982585
obr@@ 0.10808081064685794
observ@@ 0.011282587843931876
oms 0.026791148230783744
orch@@ 0.03145824372065507
positi@@ 0.017620838918187765
power@@ 0.023463681389056194
prom@@ 0.007935360719937728
reser@@ 0.01820804595073623
sz@@ 0.060567242696708025
tad@@ 0.018910127440259012
thought 0.024365351242442018
trich@@ 0.0785422916193887
uer@@ 0.012862572813504381
unga 0.1443255703486435
unger 0.03045629049844511
versit@@ 0.05096731980785618
volume 0.036720605844165144
ה@@ 0.6012855211249585
ຊ@@ 1
利@@ 0.019809443622545147
名@@ 0.020519906663031794
奇@@ 0.09731114081281059
師@@ 0.11907492468119243
慈@@ 0.2384810245902181
電@@ 0.02781801854305759
Barcelona 0.030765157347238146
Berg@@ 0.02130293887234986
Canal 0.04524583120237418
Gem@@ 0.02838625208818712
Heinrich 0.025528448361134944
Kav@@ 0.0898169125703075
Lo 0.08274085224677534
Nacional 0.016155623484492204
November 0.0037075385662051247
Philippe 0.04251117151188522
Sebasti@@ 0.04487748973025061
Sic@@ 0.05755245885692982
Stal@@ 0.05889758701501211
Vor@@ 0.004439323791324198
Wy@@ 0.048968349817984605
Xu@@ 0.19842205685175077
Yes@@ 0.20383760292242495
amar@@ 0.040486483060650745
ample 0.07263333707742309
aning 0.023001888293426174
ante@@ 0.06293059363442567
associated 0.022478760671614927
azine 0.5622920387413097
beau@@ 0.044294673283534335
bli@@ 0.03960186641484385
different 0.008511867617190447
dos 0.004576928913837882
dot@@ 0.03863114072175186
ead 0.031444354804314185
ec 0.04684734472876674
experi@@ 0.012500276530309908
expres@@ 0.014249059670704393
expression 0.04377662115255516
hir@@ 0.09214346632344697
ided 0.03090408897749658
iled 0.022686647110823424
inform@@ 0.01583058306720016
initi@@ 0.015094722108224075
instrum@@ 0.015007173131991559
kur@@ 0.01138946673995742
lyn 0.04377571977462218
met 0.009408333449536193
nation@@ 0.022844530150764434
neigh@@ 0.01896645849448581
oc 0.06471396127602708
oda 0.13196115687920626
ologies 0.041970983887254065
ovo 0.04715177090822356
players 0.01498224983602103
quali@@ 0.013610022801399557
radio 0.012490582427315764
rang 0.051901979830597834
round@@ 0.09551024417021334
sible 0.015827754549846827
television 0.011247109954121027
upon 0.017143575258084975
vote 0.021892367612335765
wards 0.018885420372914876
λ 0.04578992458498583
ό@@ 0.02545356754787022
ທ@@ 1
ァ@@ 1
夫@@ 0.05456012485408619
府@@ 0.33454385499305933
廣@@ 0.03610737307912431
戰@@ 0.029123646554532766
曹@@ 0.17235721106452306
楚@@ 0.2667201353005761
汉@@ 0.06558637896739927
泰@@ 0.05000845691894838
立@@ 0.03524442906962417
香@@ 0.09716903967828085
국@@ 1
서@@ 1
씨@@ 1
；@@ 1
･@@ 1
$@@ 1
Basket@@ 0.040884769759079044
Cum@@ 0.05133005399146932
Dres@@ 0.08186287639314929
Franklin 0.051429057730591185
Hud@@ 0.04891096218405271
Itali@@ 0.05204638488624692
Jag@@ 0.0477465580505751
Olympics 0.019789102027723323
Philadelphia 0.03211959843162143
Sierra 0.049653228656159905
UE@@ 0.21052821516796752
again 0.008490318529152172
alit@@ 0.05051020588800153
alle@@ 0.029921280177880445
analy@@ 0.022601615994048606
around 0.006058058555886911
assemb@@ 0.021868241206975534
ater@@ 0.028797566348662925
awi 0.10732278433584555
bay@@ 0.05199997260526426
called 0.004411046103169355
capital 0.012434408848641063
conv@@ 0.016598055169502125
edit@@ 0.0233459854034216
environ@@ 0.019446426118375614
far 0.019767033888803517
figur@@ 0.01930927305932595
hak@@ 0.08208473284393324
ilo 0.05485642567704744
isol@@ 0.03360183918601223
isten 0.009470979870692587
mom@@ 0.04286437884154555
mula 0.05569273975465312
organization 0.01822639832714451
personal 0.016417292141425524
present 0.00895735491470068
qui 0.0013414272237513532
radic@@ 0.038930708884588834
recogni@@ 0.015684315778853514
rez 0.03497200139527079
rights 0.016890700359862083
sition 0.052145123170223164
tem 0.04868351016231715
tournament 0.01808607537409758
zu@@ 0.013352132285892626
è@@ 0.005953524556672525
स@@ 0.033916368401234215
มนี 1
ီ@@ 1
ボ@@ 1
全@@ 0.017158057641355428
吳@@ 0.12496844882496902
园@@ 0.4174645198001507
湖@@ 0.052169975358559946
色@@ 0.07450504164944836
소@@ 1
199@@ 0.019104072193069012
Afr@@ 0.044782873305611315
Anat@@ 0.09589542165742042
But 0.02460742336531933
Das 0.0028485074214896137
Distribu@@ 0.04423059957821976
Found@@ 0.0934225201051013
Gramm@@ 0.10847550417708485
Italia 0.03775836972794775
Jul@@ 0.059137198709066516
Kay@@ 0.08576810153693086
Luxemb@@ 0.051340325089821
Mann@@ 0.024478575247757803
Riv@@ 0.057430370524277075
Su 0.010569760842465371
adem@@ 0.08254212269382677
ails 0.0248941960207919
alog 0.06872714075368859
anni 0.1940880867376143
application 0.0333641639254456
ayn@@ 0.07842514982997299
bles 0.012288693072114295
could 0.006037402256340876
dar 0.020379242624058595
ede@@ 0.082007323678618
ener 0.01345883953227271
ers@@ 0.038665822656725295
eses 0.03910951093917271
events 0.012897026723963303
fam@@ 0.03175814196919032
feld 0.01836055216273047
games 0.008255217491303929
got 0.022594192287181934
human@@ 0.031950576244466594
iter@@ 0.05805613442982214
iva 0.0414356017959278
jar@@ 0.06539856817125217
marine 0.022153364817724192
mass@@ 0.04315738308602393
medical 0.023570752895449604
miz@@ 0.17264052381072584
official 0.013866743409977407
olar@@ 0.041325296220387935
orig@@ 0.022891854645421567
phi 0.09676544213719018
polit@@ 0.0933239128437776
rest 0.01849592786415223
rev@@ 0.015567757965789528
same 0.004456158641425666
sist@@ 0.025417548518150125
suc@@ 0.016921626241359077
sur 0.0013929902695765592
these 0.004843300006449055
training 0.014642962858193454
tribu@@ 0.0376986395008554
tul@@ 0.04372372128161277
yar@@ 0.04853205758216338
®@@ 1
Å 0.5058262855835693
ń 0.10013904158402294
ʰ@@ 1
Δ@@ 0.03516051241656733
δ 0.3435505592084373
ω 0.09829014210674299
ان@@ 0.022964581910801134
เศส 1
္@@ 1
ြ@@ 1
ភ@@ 1
℃ 0.5239411568553272
≥ 0.7722494722054974
○@@ 1
ケ@@ 1
嘉@@ 0.062454146333313844
多@@ 0.011875002832946496
宇@@ 0.13034721029021942
徳@@ 1
敬@@ 0.29857440563908527
是@@ 0.07282676380159518
犬@@ 0.979256955124146
鉄@@ 1
동@@ 1
시@@ 1
Anh@@ 0.0375514382127441
Carr@@ 0.06481266385382983
Develop@@ 0.19498698197710065
Dok@@ 0.080179087519013
Gott@@ 0.06020941546826299
Hut@@ 0.06831101350741652
Indiana 0.035374665946255573
Institut 0.027667334660122632
[...]
