. 5607254
, 4136577
&apos; 3258545
ve 2260244
&quot; 1949936
bir 1380553
de 930881
da 881606
) 821379
( 819642
@-@ 608661
olarak 580375
in 548871
ile 526245
k@@ 513103
y@@ 487707
ç@@ 470546
ın 464840
en 463825
i 463189
an 439636
lar 400146
için 398144
ı 395303
ler 380083
ları 374989
ş@@ 372858
ya 370297
ar@@ 366237
leri 364380
bu 358890
olan 347365
al@@ 324990
’ 324206
an@@ 318664
a 317198
esi 299044
il@@ 295521
ak@@ 295117
K@@ 291464
un 288255
at@@ 287169
ay@@ 286247
yılında 283605
tarafından 282312
ol@@ 276302
t@@ 275429
e 268457
S@@ 260814
ik@@ 258362
Bu 258258
sonra 257762
ma 254589
T@@ 254269
; 254264
li 253631
u 251706
D@@ 250765
l@@ 250596
et@@ 250513
k 248642
d@@ 247101
z@@ 244285
: 242391
nin 236260
s@@ 234831
g@@ 234361
nın 232854
am@@ 231144
ası 231000
te 229407
ar 226157
inde 221008
ine 217749
H@@ 217344
isi 215996
ye 213920
den 213291
inin 212265
ak 211925
Ç@@ 211504
ad@@ 210149
Y@@ 210125
er 209218
lı 209060
ı@@ 208026
ü 207920
ıl@@ 206102
ta 203368
daha 203117
la 203113
al 202939
ında 202935
ek@@ 200808
ilk 199028
v@@ 197724
n@@ 197183
c@@ 196073
er@@ 195321
dir 194313
A@@ 194177
E@@ 190567
G@@ 187459
İ@@ 185069
ise 184195
im@@ 184122
m@@ 180929
ının 180161
r@@ 179415
ini 178492
el@@ 177616
yap@@ 177107
at 176782
in@@ 176292
iş@@ 176198
as@@ 175122
en@@ 174728
dan 174386
ların 174366
el 172639
B@@ 170580
M@@ 169650
yer 169269
ir@@ 167539
ü@@ 166226
is@@ 163236
em@@ 163232
me 162762
ik 162395
ğ@@ 160664
z 160263
or@@ 159546
ını 158037
ul@@ 157928
di 157595
b@@ 157017
ın@@ 156221
gibi 156186
C@@ 156177
çok 154880
ver@@ 154560
Ş@@ 153128
ım@@ 152827
ır 152111
on 152104
ına 151930
f@@ 151731
h@@ 150783
et 149700
es@@ 149155
p@@ 148109
im 145424
P@@ 145405
ev@@ 145101
ım 144306
arasında 143980
ti@@ 143291
1 142490
di@@ 142123
ış@@ 141728
iz@@ 140588
le 139743
N@@ 139039
kar@@ 137542
kadar 137424
bağlı 135507
aş@@ 135347
lerin 134975
on@@ 134888
veya 134110
= 133270
iki 133040
az@@ 132700
re@@ 132451
ır@@ 131645
kon@@ 131061
lik 130836
mektedir 129927
kal@@ 129450
de@@ 128859
adı 127886
L@@ 127396
inden 127321
F@@ 127209
2 126964
büyük 126823
p 126686
aç@@ 126011
ış 124394
d 123899
un@@ 123621
deki 122477
gel@@ 122193
ması 122175
göre 121592
ılar 121323
l 121127
R@@ 119674
V@@ 119539
ağ@@ 119332
lan@@ 118865
ından 118851
O@@ 118679
iy@@ 118530
bir@@ 118203
oldu 117996
baş@@ 117832
yaz@@ 117434
ir 117375
kur@@ 117018
ç 116912
ör@@ 116397
ıdır 116099
ay 115540
ül@@ 114385
ö@@ 114158
eri 113589
üm@@ 113503
ne 113173
geç@@ 112899
bulunan 112355
ah@@ 112218
lık 112020
&#124; 111493
arak 111212
t 111202
alı 111189
miştir 110990
ün 110557
o 110370
göster@@ 110047
mak 110032
ok@@ 109215
m 108689
eş@@ 107067
mıştır 106392
unu 105028
Kar@@ 105000
it@@ 104439
iler 103995
ti 103740
Türkiye 103564
ur@@ 103188
olduğu 103110
us 102970
- 102898
le@@ 102784
am 102390
larında 102016
e@@ 101670
kullan@@ 101624
ed@@ 101506
çık@@ 101504
ısı 101488
ey@@ 100159
yaş@@ 100135
ab@@ 100126
az 100114
anı 100084
3 99907
maya 99756
daki 99663
4 99431
len@@ 99252
ist@@ 99203
h 99074
ık 98582
se@@ 98465
una 97233
ür@@ 96469
ek 96308
larını 96078
ada 95274
av@@ 95264
lerini 95007
unun 94858
tarihinde 94785
Ar@@ 94608
çek@@ 94359
li@@ 94239
um 93764
maktadır 93664
ık@@ 93259
ana 93171
alan 93118
i@@ 92891
ama 92827
Z@@ 92592
aya 92507
â@@ 92043
y 91911
ındaki 91395
larda 91377
mesi 91066
say@@ 90689
birlikte 90539
lara 90504
nde 90089
! 89884
ur 89723
ki 89690
ün@@ 89503
j@@ 89233
ken 88458
man@@ 88179
dı 87716
lam@@ 87627
it 87602
il 87153
tı 86996
ili 86506
km 86448
takım@@ 85229
diği 85135
diğer 85047
Al@@ 85029
sür@@ 84785
etti 84711
tan 84286
ter@@ 84078
arı 83985
ön@@ 83912
miş 83699
son 83147
kap@@ 83060
/ 82949
ot@@ 82921
ku@@ 82659
tan@@ 82426
man 82224
çalış@@ 82205
kan@@ 82141
larının 81664
nda 81496
ünde 81278
kö@@ 81187
yer@@ 81043
aynı 80345
mek 80303
ş 80154
Türk 79929
gö@@ 79718
um@@ 79671
kay@@ 79502
ten 79256
unda 78848
ılan 78671
liği 78556
eti 78287
An@@ 77873
yüz@@ 76705
edil@@ 76255
uy@@ 76175
a@@ 75985
us@@ 75850
lerinin 75815
tür@@ 75769
lem@@ 75361
ac@@ 75226
uz@@ 75161
bak@@ 75127
öl@@ 75117
par@@ 75020
eler 74937
der@@ 74639
ünü 74627
den@@ 74553
esinde 74551
indeki 74512
s 74447
enin 74018
mak@@ 73920
adlı 73670
yıl 73579
nun 73578
yeni 73572
align 73485
na 73426
lu 73254
center 73235
aları 73005
her 72928
Er@@ 72651
U@@ 72604
eli 72572
pl@@ 72436
aldı 72336
lerde 72195
erek 72069
Ad@@ 71844
lerinde 71648
bas@@ 71383
bi@@ 71335
imi 71261
sağ@@ 71255
ut@@ 71203
o@@ 71006
larına 70886
te@@ 70827
bulun@@ 70775
gör@@ 70762
seç@@ 70581
ancak 70533
J@@ 70513
gen@@ 70278
usu 70110
id@@ 69978
yle 69833
f 69688
sa 69684
ler@@ 69083
doğ@@ 68948
yan@@ 68869
6 68762
İstanbul 68631
var@@ 68544
5 68317
karşı 68290
ildi 68143
uk@@ 67895
Avrupa 67833
lığı 67567
kat@@ 67552
ıldı 67340
kil@@ 67279
ayı 67271
yar@@ 67109
or 67012
önemli 66818
eden 66798
ığı 66712
Dünya 66609
ıyla 66454
&amp; 66450
abil@@ 66433
ilen 66424
% 66375
mad@@ 66368
ileri 66360
ız 65859
dur@@ 65785
as 65726
oluştur@@ 65679
ser@@ 65524
iç@@ 65479
af@@ 65187
ımı 65159
tarih@@ 65064
görev@@ 64822
yi 64619
ük@@ 64617
re 64601
ayr@@ 64514
mış 64506
yıl@@ 64408
is 64396
eski 64354
başladı 63970
tak@@ 63915
iler@@ 63649
kez 63612
tr@@ 63488
kl@@ 63436
eleri 63199
önce 63050
ilçesine 62982
lere 62982
kor@@ 62876
res@@ 62651
ıp 62645
iş 62496
oy@@ 62389
lar@@ 62357
alan@@ 62323
kiş@@ 62260
istan 62224
hay@@ 62161
belir@@ 62129
Ü@@ 62034
kullanıl@@ 61903
os@@ 61685
gir@@ 61652
üy@@ 61497
.@@ 61416
yapıl@@ 61162
ıt@@ 61022
ür 61001
eb@@ 60766
meye 60446
bul@@ 59768
şark@@ 59438
ıs@@ 59352
uş@@ 59304
tir 59286
ağı 59181
tu@@ 59112
ca 59083
şekilde 58779
lardan 58715
ça 58664
Kon@@ 58620
ap@@ 58576
olduğunu 58528
art@@ 58487
alt@@ 58402
olmuştur 58279
yapılan 58260
om@@ 58217
The 58115
lik@@ 58094
uk 57854
si@@ 57830
u@@ 57794
üzere 57704
üre@@ 57691
gi@@ 57608
Öz@@ 57526
lerine 57518
yol@@ 57262
be@@ 57078
10 56992
ic@@ 56969
tem@@ 56936
bu@@ 56830
dü 56830
içinde 56729
Üniversitesi 56703
anın 56395
üzerine 56391
asında 56376
hal@@ 56063
ist 56055
alın@@ 55992
vardır 55979
tar@@ 55929
iyi 55787
bil@@ 55758
ığını 55605
dığı 55390
ri@@ 55385
W@@ 55323
Bir 55311
birçok 55212
7 55082
du 55057
tin 55051
ere 54991
ce 54895
kazan@@ 54876
son@@ 54710
çi 54649
kend@@ 54463
tic@@ 54336
ant@@ 54313
katıl@@ 54246
eğ@@ 54193
kr@@ 54181
Mart 54079
me@@ 53964
kabul 53945
ği 53913
lık@@ 53852
dev@@ 53756
ladı 53705
sel 53698
Ayrıca 53633
su@@ 53482
kes@@ 53401
v 53344
vi@@ 53144
tut@@ 53116
getir@@ 53061
sahip 53061
düş@@ 53049
Mayıs 53004
I@@ 52579
sor@@ 52561
Kur@@ 52378
kol@@ 52351
san@@ 52275
ka 52229
gün@@ 52087
bo@@ 51925
devam 51624
Ocak 51593
gü@@ 51557
ne@@ 51302
üç 51289
Mar@@ 51251
abilir 51242
yet@@ 51205
ikinci 51159
larından 51035
od@@ 51030
düzen@@ 50766
oyn@@ 50673
ro@@ 50639
os 50549
ko@@ 50541
gerek@@ 50393
ni@@ 50255
idir 50234
Kasım 50126
n 50105
gelen 50040
2010 49941
yayın@@ 49849
fazla 49819
ıları 49778
Baş@@ 49768
tüm 49767
8 49618
ede 49591
“ 49558
gün 49538
ez@@ 49531
inc@@ 49504
yaptı 49477
ör 49338
to@@ 49208
landı 49188
Eylül 49119
Ekim 48872
dem@@ 48787
lerinden 48775
Or@@ 48617
” 48582
ans@@ 48559
üne 48447
ara 48360
ardından 48289
dir@@ 48287
men@@ 48254
kom@@ 48233
ıc@@ 48174
ye@@ 48049
if@@ 48030
do@@ 48017
ilinin 47977
sır@@ 47929
ilmiştir 47827
yüksek 47783
Haziran 47778
kendi 47763
üt@@ 47711
Ak@@ 47634
Nisan 47560
ABD 47528
Osmanlı 47505
ali 47475
laş@@ 47418
ke@@ 47343
Temmuz 47242
geçir@@ 47075
aş 47066
Daha 46970
bazı 46964
ec@@ 46957
yöne@@ 46953
olmak 46940
dır 46925
Ağustos 46862
Amerika 46846
tek 46817
tamam@@ 46765
ah 46701
Ö@@ 46690
aj@@ 46666
tik 46630
onu 46627
biri 46594
dönem@@ 46565
mem@@ 46514
oluş@@ 46470
Aralık 46444
alar 46422
all@@ 46407
hem 46344
r 46335
st@@ 46199
and@@ 46175
su 46171
ünün 46101
por 46098
dil@@ 46002
sırasında 46000
si 45946
bölüm@@ 45768
üzerinde 45675
mi 45672
farklı 45601
yas@@ 45575
edi 45566
tür 45530
yön@@ 45520
adan 45487
üm 45441
he@@ 45308
oğlu 45300
olup 45268
müz@@ 45238
form@@ 45226
tur@@ 45226
dol@@ 45052
mal@@ 45025
ci@@ 45006
Ancak 44987
esine 44904
3@@ 44893
oc@@ 44808
of 44801
görev 44758
lanan 44750
15 44696
üst@@ 44667
bağ@@ 44569
12 44552
dön@@ 44436
sun@@ 44371
luk 44316
sin@@ 44277
zaman 44257
yerleş@@ 44202
î 44181
har@@ 44168
20 44146
İs@@ 44099
diz@@ 43960
çıkar@@ 43940
sah@@ 43850
iz 43833
yarış@@ 43775
4@@ 43742
öz@@ 43716
pr@@ 43666
anlar 43632
men 43574
ortaya 43538
tah@@ 43426
üz@@ 43418
tek@@ 43375
yon@@ 43300
es 43263
mek@@ 43183
değiş@@ 43160
ag@@ 43129
mes@@ 43123
ilir 43113
görül@@ 43060
ulaş@@ 42986
acak 42863
eye 42841
ip 42822
Böl@@ 42782
&#93; 42771
yılları 42744
İlk 42676
Şubat 42669
Birleşik 42654
ecek 42639
mi@@ 42572
ıcı 42562
&#91; 42508
kır@@ 42460
yılı 42450
tal@@ 42448
colspan 42379
geliş@@ 42318
çeşitli 42308
Savaşı 42167
yen@@ 42167
Kr@@ 42148
ığ@@ 42146
edi@@ 42126
ren@@ 41962
bulunmaktadır 41883
esinin 41850
geri 41835
liğ@@ 41821
eme 41775
tir@@ 41762
9 41719
üs@@ 41668
küçük 41647
kurul@@ 41584
çal@@ 41483
ina 41454
söy@@ 41441
ılmıştır 41440
muştur 41435
nedeniyle 41430
ail@@ 41410
edildi 41395
mu@@ 41286
kad@@ 41269
boyunca 41178
açık@@ 41039
ans 41032
film@@ 41021
sistem@@ 40970
Bir@@ 40940
ıl 40921
ap 40888
O 40885
sen@@ 40876
edilmiştir 40846
siz 40844
ebilir 40769
masını 40715
duy@@ 40617
yal@@ 40559
sat@@ 40517
elde 40497
masına 40493
– 40488
ru@@ 40455
uç@@ 40452
yeniden 40446
ümü 40443
idi 40412
lerden 40244
amı 40132
görün@@ 40124
zamanda 40019
bar@@ 39982
em 39965
başl@@ 39951
kab@@ 39929
anda 39885
Kom@@ 39857
yak@@ 39796
albüm@@ 39791
ey 39752
ih@@ 39678
mas@@ 39661
2012 39580
As@@ 39550
ard@@ 39531
ilç@@ 39523
2020 39389
ra@@ 39333
fil@@ 39325
almıştır 39273
asyon@@ 39239
eler@@ 39223
sadece 39210
ia 39185
ol 39175
anl@@ 39170
saldır@@ 39070
En 38994
umu 38982
ali@@ 38980
bel@@ 38882
geliştir@@ 38876
leştir@@ 38815
po@@ 38791
se 38705
mah@@ 38622
uc@@ 38607
edilen 38540
yaklaşık 38516
mam@@ 38473
larla 38407
iyle 38388
ilik 38383
30 38344
2011 38316
2009 38231
lay@@ 38227
asyon 38132
tanım@@ 38108
11 38040
İn@@ 38002
git@@ 37942
etkil@@ 37883
kan 37827
durum@@ 37822
müştür 37788
sa@@ 37663
ilerin 37640
du@@ 37587
ki@@ 37498
II 37490
eli@@ 37458
ona 37455
eni 37397
ılır 37331
ley@@ 37219
anan 37183
yat@@ 37155
sınır@@ 37129
ğ 37081
Bil@@ 37016
Bar@@ 37015
fer@@ 36907
Kat@@ 36868
ger@@ 36826
hi@@ 36792
muş 36688
süre 36593
A 36590
genel 36552
nüfusu 36483
16 36309
kıs@@ 36284
film 36258
tab@@ 36232
Har@@ 36194
ğini 36147
ele 36122
üc@@ 36104
ili@@ 36058
süre@@ 36003
aktadır 35983
uzun 35863
lo@@ 35840
büyü@@ 35837
yerine 35811
başar@@ 35797
ra 35752
ünden 35732
lü 35704
kaz@@ 35674
rol@@ 35636
2008 35610
yay@@ 35604
sız@@ 35544
çev@@ 35520
dik@@ 35507
acı 35494
yayım@@ 35427
undan 35279
lu@@ 35270
g 35259
malar@@ 35255
kim@@ 35238
ız@@ 35141
ge@@ 35058
köy 35053
2014 34998
0 34976
karşıl@@ 34963
tü 34961
ins@@ 34891
Tarihçe 34886
boy@@ 34843
onun 34841
merkezine 34838
met@@ 34832
yan 34770
ılık 34756
mer@@ 34754
anlaş@@ 34743
çe 34716
At@@ 34705
lama 34698
ılı 34674
ılmış 34634
mev@@ 34633
cin@@ 34613
Oy@@ 34573
araştır@@ 34569
so@@ 34558
ince 34498
6@@ 34479
Almanya 34479
ast@@ 34364
lanmıştır 34341
yüksel@@ 34331
eng@@ 34330
rağmen 34281
Fransa 34223
düz@@ 34223
ıkları 34169
5@@ 34143
şek@@ 34124
kem@@ 34076
bırak@@ 34015
topl@@ 34014
Bel@@ 33916
tasar@@ 33916
sal 33876
ede@@ 33845
2015 33817
El@@ 33807
lığ@@ 33804
2013 33754
end@@ 33723
anlam@@ 33718
taş@@ 33707
per@@ 33702
ıştır 33626
şu 33570
adığı 33565
Türk@@ 33561
ülk@@ 33436
ait 33370
bat@@ 33349
Genel 33334
B 33318
ydi 33263
Bur@@ 33232
Coğrafya 33174
isti@@ 33162
14 33155
uv@@ 33143
yı 33131
iliş@@ 33097
plan@@ 33084
yaptığı 33080
tur 33069
19 33013
bulunur 33000
18 32974
kişi 32969
maç@@ 32934
altında 32917
aki 32884
2007 32868
2016 32809
hak@@ 32741
ilgili 32733
ular 32717
kısa 32689
dahil 32650
İngiltere 32610
13 32596
aç 32496
Alman 32495
asına 32467
the 32446
Gü@@ 32429
tel@@ 32382
atı 32326
beri 32283
isinin 32216
op@@ 32185
ova 32159
yon 32130
Güney 32126
ici 32122
2006 32095
hazır@@ 32082
program@@ 32080
yaşam@@ 32039
Ankara 32026
tim@@ 32026
savaş@@ 32002
kul@@ 31987
Ch@@ 31982
gönder@@ 31978
25 31950
ıy@@ 31941
üler 31923
New 31898
ent@@ 31892
eg@@ 31875
genellikle 31860
leş@@ 31853
Yeni 31841
ordu 31838
asının 31814
gerçekleştir@@ 31814
ayrıca 31775
mar@@ 31761
ısında 31724
iti@@ 31700
alar@@ 31693
merkez@@ 31687
17 31674
düşün@@ 31669
udur 31645
x 31641
Mah@@ 31625
ci 31557
asını 31543
değ@@ 31535
tü@@ 31529
Ab@@ 31524
za 31520
lerle 31486
andı 31470
ber@@ 31459
van 31372
ton 31349
özel 31348
bü@@ 31277
bin@@ 31269
dış@@ 31262
ıktan 31208
bit@@ 31199
şehir 31196
list@@ 31187
mayı 31168
ef@@ 31149
ing 31138
ığında 31110
7@@ 31042
başkan@@ 31028
Bo@@ 31014
miş@@ 31004
esini 31000
İngiliz 30994
doğru 30927
Kuzey 30875
Amerikan 30870
uzaklıktadır 30814
Par@@ 30783
üş@@ 30707
aret 30686
dur 30684
til@@ 30680
takım 30672
böl@@ 30658
kazandı 30608
ilg@@ 30592
17@@ 30548
Rusya 30438
başka 30404
tır@@ 30381
eser@@ 30314
eder 30294
kaynak@@ 30246
dar@@ 30227
b 30222
imleri 30187
15@@ 30147
kı 30106
isini 30062
luğu 30036
dört 30012
ge 29977
ov@@ 29974
ni 29961
oloji 29952
ayan 29844
endi 29779
Kul@@ 29764
del@@ 29714
lendir@@ 29711
zaman@@ 29687
ann@@ 29678
kaç@@ 29603
merkezi 29595
bun@@ 29575
anya 29574
üğü 29561
Man@@ 29528
ari 29485
mesine 29464
2018 29444
adıyla 29422
Ser@@ 29408
2017 29396
osu 29339
kıy@@ 29297
parç@@ 29287
eyi 29282
ob@@ 29262
Roma 29197
tarihi 29153
inci 29136
Cumhuriyeti 29120
Re@@ 29104
ilmiş 29096
şir@@ 29084
özellikle 29061
min@@ 29054
müzik 29006
dır@@ 29005
isinde 28973
arasındaki 28944
eti@@ 28938
etti@@ 28930
M 28885
sal@@ 28850
Ge@@ 28842
bi 28841
ve@@ 28823
konuş@@ 28812
Bak@@ 28709
Kad@@ 28671
Dem@@ 28609
oyun@@ 28603
ens@@ 28596
kül@@ 28586
Kö@@ 28577
taraf@@ 28547
karakter@@ 28542
van@@ 28542
Tek@@ 28540
det@@ 28528
grub@@ 28517
ıt 28462
21 28456
ib@@ 28429
kel@@ 28387
haf@@ 28352
luğ@@ 28350
16@@ 28291
hayat@@ 28253
bilinen 28242
ati@@ 28240
yü@@ 28215
duğu 28211
Tr@@ 28147
üdür 28138
_ 28123
mesini 28117
ıya 28102
ran@@ 28072
ev 27988
tekrar 27982
iden 27980
8@@ 27970
biy@@ 27955
içer@@ 27936
destek@@ 27923
Birliği 27909
millî 27830
anlat@@ 27822
Doğu 27820
ta@@ 27813
kin 27787
sahiptir 27787
Kal@@ 27763
has@@ 27740
birkaç 27725
malar 27710
dönüş@@ 27683
oluşan 27664
bölge@@ 27609
yl@@ 27588
lük 27585
üz 27582
ad 27578
çı 27571
eh@@ 27530
2005 27529
sonunda 27524
kullanılan 27504
bölges@@ 27481
24 27466
ks@@ 27461
Bal@@ 27453
2019 27433
Büyük 27391
sezon@@ 27382
siyon@@ 27350
der 27346
De@@ 27340
pe@@ 27336
ece 27335
22 27329
and 27223
sebe@@ 27198
Kupası 27184
değiştir@@ 27158
9@@ 27138
ika 27124
2000 27072
yo 27068
savun@@ 27050
ular@@ 27038
sırada 26990
göz@@ 26986
Tur@@ 26984
Son@@ 26941
hakkında 26935
İtalya 26934
devlet 26918
yen 26902
alm@@ 26893
üç@@ 26878
tu 26871
altı 26838
bilin@@ 26818
ulu 26818
yapan 26775
Yıl@@ 26772
köy@@ 26754
ecek@@ 26753
tanın@@ 26657
gi 26614
verdi 26603
hat@@ 26589
hav@@ 26575
asyonu 26536
Sel@@ 26515
eğiti@@ 26496
olması 26472
olmayan 26470
layan 26457
lt 26405
26 26398
ıyor 26381
Tak@@ 26380
ch@@ 26378
Be@@ 26373
ıda 26361
sey@@ 26348
cu 26343
fa@@ 26335
olmad@@ 26334
ödül@@ 26334
Bun@@ 26297
th@@ 26284
Her@@ 26218
başkanı 26205
ret@@ 26176
işlem@@ 26125
gem@@ 26073
Sar@@ 26041
Aynı 26032
Fransız 26022
Rus 25989
uz 25965
çıkan 25958
med@@ 25913
Ma@@ 25897
23 25885
itibaren 25884
Paşa 25845
siy@@ 25823
üsü 25806
spor 25803
oyuncu 25788
ani 25758
bal@@ 25706
Çin 25665
baz@@ 25664
irler 25661
çiz@@ 25655
bah@@ 25648
Br@@ 25647
sıra 25645
uma 25622
c 25600
almaktadır 25583
bö@@ 25574
etmiştir 25573
gt 25551
ettiği 25535
ölç@@ 25521
çağ@@ 25445
landır@@ 25438
deniz 25378
ıların 25375
bek@@ 25369
gesi 25355
pi@@ 25339
kas@@ 25290
2004 25289
Pr@@ 25288
rol 25270
geldi 25262
asıyla 25257
ane 25245
inşa 25234
sonuç@@ 25234
yol 25228
ang@@ 25218
şampiyon@@ 25193
ov 25183
kuzey@@ 25125
oğ@@ 25120
iştir 25114
ebil@@ 25088
Le@@ 25061
Kan@@ 25041
milyon 25032
savaş 25025
ut 25014
adlandır@@ 24964
I. 24962
mez@@ 24958
Devletleri 24953
sezonunda 24921
gerçekleş@@ 24918
grup 24873
bur@@ 24849
oz@@ 24830
çıktı 24824
yakın 24814
ırlar 24814
ep@@ 24754
yapmıştır 24727
adını 24711
elerin 24674
Film 24663
attı 24651
tiği 24651
ma@@ 24640
ük 24610
St@@ 24548
zor@@ 24539
din@@ 24538
mağ@@ 24538
meni 24538
I 24505
K 24484
Der@@ 24410
Köy 24392
Kır@@ 24363
kent@@ 24357
döneminde 24262
etmek 24226
güney@@ 24206
asker@@ 24104
1.@@ 24087
ül 24079
min 24074
tim 24055
Gö@@ 24046
bol 24003
D 23998
Kor@@ 23961
neden 23957
pek 23921
karş@@ 23919
ayrıl@@ 23908
mahalledir 23905
çap@@ 23905
yok@@ 23881
takımı 23823
olojik 23817
oloj@@ 23810
sik@@ 23773
Per@@ 23750
yanı 23735
lendi 23726
isim@@ 23703
27 23697
bin 23683
Di@@ 23677
Partisi 23665
ark@@ 23656
T 23643
anc@@ 23631
Alt@@ 23626
Hal@@ 23607
Gen@@ 23602
ken@@ 23602
lerdir 23583
Se@@ 23530
Mill@@ 23505
Tan@@ 23494
verilen 23470
manın 23455
2@@ 23448
û@@ 23431
uğ@@ 23409
Amerikalı 23403
dışında 23401
kulü@@ 23384
kadın 23380
adi@@ 23378
tam 23375
28 23363
alır 23333
ıydı 23333
özellik@@ 23325
Sh@@ 23322
teki 23318
itibarıyla 23304
Em@@ 23281
liğini 23227
ıyordu 23225
pu@@ 23215
kitab@@ 23211
Aş@@ 23185
uygulam@@ 23164
sil@@ 23144
kuş@@ 23125
olay@@ 23110
tes@@ 23098
sü@@ 23080
Sam@@ 23046
toplam 23018
vur@@ 23015
En@@ 23011
Mer@@ 22998
sonucu 22966
elem@@ 22965
aşı 22957
ölüm@@ 22890
uğu 22889
iye 22886
Ev@@ 22879
def@@ 22868
ene 22868
Beledi@@ 22840
koy@@ 22839
dolayı 22821
San@@ 22815
sar@@ 22796
sınıf@@ 22784
İş@@ 22762
futbol 22757
nüfus 22755
lili@@ 22737
zam@@ 22721
asa 22705
may@@ 22701
diğ@@ 22677
din 22675
güç@@ 22659
lis@@ 22644
arg@@ 22617
sk@@ 22606
eğitim 22598
ke 22590
bilim@@ 22577
ale 22561
Batı 22558
yakın@@ 22553
Mal@@ 22501
görüş@@ 22490
aştır@@ 22472
aldığı 22458
umlu 22420
andır@@ 22414
ılması 22397
meyi 22383
ımc@@ 22367
Ligi 22365
öğren@@ 22357
şehr@@ 22352
lanmış 22348
insan@@ 22332
hu@@ 22329
sürdür@@ 22324
ig@@ 22316
tor@@ 22307
timi 22298
üş 22283
gazet@@ 22278
söz@@ 22264
sayımına 22209
giriş@@ 22205
çöz@@ 22203
şarkı 22195
rel@@ 22190
ice 22182
ıştır@@ 22155
Kol@@ 22142
sanat@@ 22084
ağ 22066
ılarak 22058
kariyeri 22051
eleştir@@ 22033
P 22020
kı@@ 22017
land@@ 22000
halk@@ 21997
C 21985
ze 21955
olduğ@@ 21950
dönemde 21939
Fil@@ 21938
komut@@ 21934
Anadolu 21919
sayısı 21910
dür 21893
mo@@ 21890
ayn@@ 21883
leme 21880
masıyla 21869
leyen 21855
sağlam@@ 21852
14@@ 21820
öğrenc@@ 21819
ori@@ 21801
yılından 21789
maları 21782
üst 21782
uş 21781
York 21748
Ulusal 21720
olur 21720
akt@@ 21715
güven@@ 21694
İmparatorluğu 21660
üretil@@ 21647
uyla 21636
don@@ 21624
tad@@ 21623
eği 21613
maz 21602
pler@@ 21592
can@@ 21591
sak@@ 21586
veril@@ 21583
ade 21580
uğr@@ 21577
çoğu 21575
yeri 21500
ri 21497
İl@@ 21472
Şarkı 21470
çocuk@@ 21468
öğ@@ 21467
om 21466
sık@@ 21462
Ödülü 21461
leriyle 21455
Bey@@ 21452
yesi 21439
bab@@ 21435
birbir@@ 21417
tam@@ 21417
pat@@ 21409
fik@@ 21399
gelir 21381
elen@@ 21375
nden 21375
2002 21346
Den@@ 21337
temsil 21336
oku@@ 21325
toprak@@ 21314
çalışmalar@@ 21293
mil@@ 21275
des@@ 21271
etk@@ 21269
to 21253
ime 21245
29 21244
X@@ 21206
lenen 21193
yaşında 21190
cul@@ 21161
og@@ 21149
tiy@@ 21142
yarat@@ 21130
da@@ 21117
hastal@@ 21113
lardır 21093
nik 21091
2021 21084
türü 21079
ok 21075
Rom@@ 21068
yıllarında 21068
ip@@ 21058
tığı 21056
Sav@@ 21043
tas@@ 21023
üğ@@ 21014
alarında 21010
31 21006
ö 20968
1990 20963
mişti 20954
of@@ 20947
üçüncü 20946
Car@@ 20933
kuvvet@@ 20910
masının 20882
ürl@@ 20879
Sal@@ 20870
şehir@@ 20863
lider@@ 20792
ete 20787
Uluslararası 20781
karar 20781
var 20774
Am@@ 20768
seçim@@ 20759
dav@@ 20743
adır 20726
Bunun 20706
bes@@ 20693
edilir 20672
Orta 20667
und@@ 20644
id 20624
sezon 20622
kayıt@@ 20614
ata 20570
diğini 20565
önem@@ 20561
kayn@@ 20539
Ali 20506
sim@@ 20506
alt 20451
Her 20443
insan 20439
fakat 20421
100 20412
2003 20405
att@@ 20380
Ay@@ 20369
dö@@ 20340
tekn@@ 20332
kurulan 20329
ayında 20317
değişik@@ 20311
ylece 20298
doğdu 20282
Ber@@ 20268
2001 20264
Lig 20245
John 20243
Ne@@ 20230
taş 20230
Tari@@ 20229
karşılaş@@ 20228
ışı 20219
kalan 20216
Es@@ 20175
katıldı 20173
w@@ 20164
dünya 20158
yapımı 20153
üs 20109
trik 20092
Yaş@@ 20086
fi@@ 20080
yu 20079
eceği 20066
hüküm@@ 20047
Su@@ 20034
ucu 20025
Mo@@ 20015
isimli 20015
ülke@@ 20009
emi 19998
hemen 19990
ie 19989
aların 19967
kız@@ 19959
ıç@@ 19954
askeri 19943
Mek@@ 19937
Yer@@ 19928
açık 19909
oyuncul@@ 19892
ğu 19883
Has@@ 19857
temel 19857
kli 19853
sonraki 19844
Ger@@ 19837
beraber 19813
Hay@@ 19810
yet 19794
lat@@ 19786
ancı 19774
bağlant@@ 19762
uluslararası 19741
ilişkil@@ 19736
giy@@ 19728
str@@ 19703
Sır@@ 19698
arası 19697
ter 19697
NGC 19696
ers 19694
Azerbaycan 19667
kaldır@@ 19643
lad@@ 19636
grupl@@ 19635
elik 19622
Kay@@ 19609
örü 19608
mat@@ 19605
model@@ 19605
kaldı 19588
amp 19573
atik 19568
ırken 19543
haz@@ 19536
be 19533
oynam@@ 19522
teş@@ 19518
hüc@@ 19502
orta 19499
köydür 19488
beş 19466
mac@@ 19464
futbolcudur 19442
50 19426
kop@@ 19418
S 19414
Parti 19406
isi@@ 19405
î@@ 19386
ifade 19361
albümü 19360
beledi@@ 19343
ınt@@ 19338
Dev@@ 19333
Sovyet 19326
Han@@ 19321
elerde 19279
yine 19274
aca 19256
filmi 19241
bulunduğu 19223
futbol@@ 19207
Gaz@@ 19203
sel@@ 19192
oranı 19172
elli 19169
iç 19138
elek@@ 19128
İyi 19128
sın@@ 19127
kam@@ 19096
erin 19078
geniş 19072
Şampiyonası 19054
Afrika 19038
yetiş@@ 19035
kit@@ 19012
ks 19008
düğ@@ 19005
yard@@ 18997
geçen 18973
Te@@ 18956
Hav@@ 18943
dal@@ 18923
ıma 18882
tır 18875
ilçe 18871
kt@@ 18860
sevi@@ 18860
bilg@@ 18857
karar@@ 18850
yerel 18850
düzenlenen 18837
erk@@ 18832
final@@ 18822
biridir 18809
dayan@@ 18809
ord@@ 18796
gul@@ 18795
han 18777
keşf@@ 18769
E 18757
L 18755
başlam@@ 18738
Paris 18737
siz@@ 18720
ano 18709
j 18699
red@@ 18674
değer@@ 18672
ask@@ 18668
amaç@@ 18657
mesiyle 18646
biçim@@ 18618
County 18599
lığını 18588
ziy@@ 18588
proj@@ 18574
siyasi 18568
kullanılır 18554
Bab@@ 18542
eri@@ 18532
sol@@ 18517
esidir 18501
üyesi 18494
çer@@ 18476
rom@@ 18470
emek@@ 18457
atr@@ 18455
yonu 18453
inde@@ 18438
benz@@ 18437
kaybet@@ 18413
Mec@@ 18409
koş@@ 18391
çoğun@@ 18369
nüfus@@ 18366
Devlet 18364
ket 18357
lanır 18351
düğü 18310
inan@@ 18297
avi 18279
burada 18278
resmi 18272
yıllarda 18261
enc@@ 18259
formula 18243
uyar@@ 18243
cu@@ 18233
F 18215
İran 18212
güc@@ 18208
transfer 18188
dük@@ 18161
izin 18152
gol 18147
if 18146
zi 18144
lenmiştir 18143
ekler 18139
hâ@@ 18113
hız@@ 18090
ing@@ 18074
yolu 18056
masından 18054
herhangi 18038
sahip@@ 18034
la@@ 18001
lisi 17995
sayıda 17980
vardı 17979
derec@@ 17975
içerisinde 17974
ahr@@ 17946
1999 17943
eceğini 17930
cı 17928
are 17892
ney 17878
met 17858
Pol@@ 17853
nes@@ 17848
co@@ 17829
erkek 17829
şi@@ 17826
kav@@ 17800
pop@@ 17799
mıştı 17796
ji 17749
R 17697
yıllık 17695
taşın@@ 17689
ograf@@ 17687
oynadı 17671
acağı 17667
yönet@@ 17649
grubu 17648
sezonu 17640
Nüfus 17636
ell@@ 17628
1980 17627
ulan 17623
day@@ 17608
iydi 17598
hareket@@ 17579
alam@@ 17571
okul@@ 17571
televizyon 17571
han@@ 17550
Mak@@ 17548
13@@ 17543
ardı 17542
ce@@ 17537
birlik@@ 17520
hi 17516
Bey 17508
ez 17508
politi@@ 17503
sistemi 17502
Müz@@ 17501
rad@@ 17496
İngilizce 17483
Sin@@ 17482
Kil@@ 17481
bütün 17479
anlamına 17467
haline 17467
ğr@@ 17464
sı@@ 17459
ılığ@@ 17441
tör@@ 17433
fa 17426
Th@@ 17425
MÖ 17422
Nor@@ 17419
Gr@@ 17406
birleş@@ 17395
yum@@ 17385
laştır@@ 17378
larıyla 17371
br@@ 17359
ize 17359
suç@@ 17357
ces@@ 17314
teh@@ 17309
küt@@ 17306
dağ@@ 17300
ent 17298
Me@@ 17289
ünlü 17285
lis 17279
yöntem@@ 17273
Fakat 17269
kadın@@ 17257
Doğ@@ 17250
yaşayan 17232
Diğer 17219
ba@@ 17216
Ver@@ 17203
öldü 17181
40 17177
başarılı 17163
va 17136
derg@@ 17132
hab@@ 17126
fiz@@ 17122
mücadele 17120
yanında 17087
10@@ 17070
Hol@@ 17058
Yay@@ 17049
x@@ 17032
yazıl@@ 17032
ıştı 17026
Av@@ 17024
nı 17014
ai 16995
genç 16986
girdi 16984
Mısır 16974
esinden 16951
ort@@ 16951
hakk@@ 16946
ışt@@ 16944
maçta 16941
mez 16940
bitir@@ 16935
elerinde 16933
ass@@ 16929
ederek 16927
acağını 16909
olabilir 16902
forma 16898
por@@ 16894
tul@@ 16872
ari@@ 16870
elerinin 16846
mut@@ 16845
başlayan 16830
val@@ 16827
lin@@ 16824
madan 16822
ben@@ 16816
makta 16815
sev@@ 16811
ilan 16809
dizi 16796
usunda 16794
Gru@@ 16792
mim@@ 16791
Mad@@ 16790
oldukça 16765
numar@@ 16763
Bul@@ 16761
ted@@ 16760
müş 16751
çalıştı 16750
yılına 16745
lem 16743
sahibi 16740
Ol@@ 16722
mey@@ 16720
başına 16711
konusunda 16707
yüzyılda 16702
0@@ 16698
lak 16696
bol@@ 16678
eyaletinde 16665
özel@@ 16664
minde 16661
rak@@ 16661
ilmesi 16651
doğr@@ 16650
yazar@@ 16647
Uz@@ 16645
teknik 16636
sit@@ 16630
önc@@ 16616
iken 16615
öldür@@ 16612
ph@@ 16609
edilmiş 16598
fi 16594
Sos@@ 16587
masında 16574
değil 16573
1998 16572
belirt@@ 16571
Fin@@ 16569
ısını 16553
est@@ 16552
1992 16541
bunun 16531
taki 16506
Ağ@@ 16497
çocuk 16470
sosyal 16465
yarı 16450
nit@@ 16446
mekte 16440
fır@@ 16430
parti@@ 16422
zem@@ 16402
üniversit@@ 16400
Bö@@ 16398
lidir 16390
diye 16387
meden 16382
metre 16368
eyen 16350
ite 16337
ülke 16336
İkinci 16334
Bay@@ 16331
günü 16321
Tar@@ 16317
luk@@ 16317
evi 16315
imler 16312
Mon@@ 16306
tespit 16302
no@@ 16296
ate 16295
İspanya 16273
ısına 16264
yürüt@@ 16249
ed 16246
hizmet@@ 16245
2.@@ 16236
asıdır 16230
idae 16226
geçti 16222
başlat@@ 16218
fe@@ 16216
best@@ 16206
yağ@@ 16192
bey@@ 16145
tari@@ 16143
Co@@ 16138
kuruluş@@ 16135
iri 16129
eci 16124
harek@@ 16106
Sa@@ 16100
dönem 16092
belediye 16056
ven@@ 16054
ısıyla 16050
elerini 16048
kâ@@ 16037
ul 16031
tartış@@ 16030
Yap@@ 16024
pol@@ 16024
lim 16010
atro 16005
kü@@ 15988
veren 15988
U 15980
iliy@@ 15971
ağır@@ 15970
mekte@@ 15969
ho@@ 15930
aba 15922
isine 15908
amacıyla 15903
Hristi@@ 15885
öldürül@@ 15884
Hak@@ 15881
hiçbir 15879
ledi 15869
art 15862
muş@@ 15854
ud@@ 15851
canlandır@@ 15847
Kit@@ 15846
acaktır 15842
isidir 15833
adet 15828
başlamıştır 15825
Lis@@ 15817
cut 15797
sab@@ 15790
sız 15790
ot 15767
söz 15761
w 15759
andan 15748
sonucunda 15745
Ro@@ 15718
Bakanlığı 15712
alarda 15704
güçlü 15704
Ter@@ 15680
Japonya 15675
Rus@@ 15674
aras@@ 15671
muh@@ 15665
yazar 15665
dar 15655
kapsam@@ 15646
organiz@@ 15643
Öl@@ 15639
1996 15627
özg@@ 15611
ön 15598
üp 15597
Kem@@ 15588
tik@@ 15580
dok@@ 15569
zar@@ 15560
albüm 15559
ndan 15527
benzer 15526
1991 15506
1994 15493
1995 15484
aliyet 15474
hareket 15472
Kür@@ 15471
silah@@ 15467
Fakültesi 15458
ılığı 15458
Sil@@ 15457
G 15452
ub@@ 15446
1993 15434
1997 15430
nokt@@ 15423
etkin@@ 15420
hava 15417
işleri 15414
erken 15411
işle@@ 15409
Mur@@ 15408
yo@@ 15391
açıklam@@ 15385
doğu 15378
ismi 15377
hizmet 15372
yana 15357
ino 15356
Sü@@ 15350
acak@@ 15348
değildir 15346
ısından 15346
Mor@@ 15336
ley 15336
yaygın 15325
yayınlanan 15324
siyon 15322
ze@@ 15312
azar@@ 15307
ülkenin 15292
alanı 15285
Gel@@ 15284
şehrin 15277
familyasına 15267
alık 15266
tif@@ 15265
Oy 15263
Yunan 15263
Gök@@ 15262
başında 15258
kent 15252
sh@@ 15228
mon@@ 15222
sona 15216
yık@@ 15213
çı@@ 15213
ten@@ 15203
lev@@ 15201
Başkan@@ 15196
önceki 15195
uygul@@ 15194
ıld@@ 15194
rı 15193
Yak@@ 15191
iğ@@ 15183
yani 15182
iller 15156
iliği 15134
Brezilya 15114
mezun 15080
era 15077
ard 15071
ortak 15069
ges@@ 15067
ınca 15067
izi 15065
batı 15048
etmektedir 15038
suz 15033
1970 15031
Müslü@@ 15029
üph@@ 15024
TV 15014
parçası 15009
bilim 15005
bildir@@ 14988
olduk@@ 14982
İsrail 14973
ts@@ 14969
teor@@ 14963
iddia 14956
ıf 14953
uncu 14942
şeklinde 14936
oyun 14918
uzun@@ 14918
fer 14916
ong@@ 14911
ham@@ 14908
Cumhuriy@@ 14897
toplum@@ 14889
ban@@ 14879
çoc@@ 14876
ift 14868
iği 14856
uygun 14854
unları 14846
ses@@ 14843
seçildi 14841
Sultan 14840
Ko@@ 14838
bilgi 14835
kitap@@ 14834
Os@@ 14829
taşıy@@ 14822
tamamen 14812
bulundu 14808
Fran@@ 14799
meydana 14797
kir@@ 14786
Asya 14785
sav@@ 14785
Son 14771
nedenle 14762
In@@ 14758
şirket@@ 14757
sem@@ 14743
İzmir 14739
ağıdaki 14738
medi@@ 14720
ğin 14718
izm 14704
arac@@ 14700
ilere 14692
any@@ 14674
ide 14667
ellikle 14663
azi 14659
Bazı 14655
ha@@ 14654
X 14652
ayak@@ 14647
prot@@ 14641
İlç@@ 14634
içeren 14626
aliz@@ 14624
ire 14622
ava 14619
yalnızca 14617
yür@@ 14608
Suriye 14606
Do@@ 14600
br 14593
Kari@@ 14580
ng@@ 14578
olabil@@ 14553
1960 14537
kısm@@ 14512
kulüb@@ 14510
ayrı 14508
ori 14507
diler 14506
onya 14488
Kas@@ 14480
istem@@ 14479
traf@@ 14477
rim@@ 14476
sonrasında 14473
arka 14455
çevres@@ 14453
ırı 14447
bölgeler@@ 14426
cm 14420
alg@@ 14417
oyunc@@ 14411
Mu@@ 14408
babası 14408
Eski 14402
Eğiti@@ 14389
ulusal 14374
Kaz@@ 14370
fon@@ 14362
turnuv@@ 14360
deney@@ 14356
3.@@ 14349
eder@@ 14323
Kaliforniya 14320
adaki 14319
halk 14318
kat 14317
Ef@@ 14310
alarını 14301
undaki 14296
aret@@ 14282
Bizans 14281
Londra 14277
ıyı 14270
ortal@@ 14265
neş 14264
N 14263
hikâ@@ 14258
elerine 14249
sti@@ 14249
kelim@@ 14237
ladığı 14233
sun 14230
oper@@ 14212
Tiy@@ 14208
üyle 14203
İslam 14201
etler 14191
listesi 14188
Hu@@ 14186
yab@@ 14179
Ord@@ 14172
land 14157
Ku@@ 14153
yn@@ 14151
Nehri 14136
aday 14122
Mehmet 14110
ence 14105
lemek 14104
seslendir@@ 14100
² 14095
Şampiyon@@ 14091
bile 14089
düny@@ 14089
aka 14083
ansı 14081
alarak 14075
yüzyılın 14075
etin 14070
esiyle 14065
ilerine 14056
dil 14055
manı 14055
He@@ 14054
çarp@@ 14054
ürün@@ 14054
zi@@ 14053
ıdan 14049
air@@ 14045
tarz@@ 14036
insel 14031
üzerinden 14029
let@@ 14021
konum@@ 14009
ışlardır 13999
lig@@ 13994
siyaset@@ 13991
piyasaya 13989
Bor@@ 13987
ekonomik 13973
ımcısı 13964
nok@@ 13960
Sen@@ 13950
yaklaş@@ 13946
Sez@@ 13928
Japon 13913
silc@@ 13905
lardı 13896
aman 13891
yerini 13891
lenir 13882
meyen 13875
ıklı 13856
Beş@@ 13847
toplul@@ 13846
düşük 13842
Başkanı 13839
İki 13838
bilgis@@ 13834
gol@@ 13831
versi@@ 13829
sık 13825
ındadır 13821
ner@@ 13817
ğinde 13817
keti 13801
ang 13795
sözleş@@ 13792
kardeşi 13784
yüksek@@ 13784
İtalyan 13774
Far@@ 13771
-@@ 13768
cez@@ 13768
gerçek 13766
ette 13758
direkt@@ 13753
60 13752
hap@@ 13746
Gu@@ 13736
gar@@ 13715
Kap@@ 13709
Bağ@@ 13706
yalı 13700
On@@ 13695
boş@@ 13695
Ön@@ 13694
gr@@ 13690
müd@@ 13690
ill@@ 13662
fin@@ 13652
kleri 13646
ha 13629
milletvek@@ 13625
do 13623
Sch@@ 13620
Yüz@@ 13616
mî 13597
kari@@ 13586
Bah@@ 13585
mü@@ 13581
Mustafa 13579
Futbol 13578
alış@@ 13575
ölçü@@ 13574
rah@@ 13573
iv@@ 13572
uzak@@ 13570
İz@@ 13568
uldu 13543
ısının 13539
Krallık 13538
+ 13532
bağımsız 13526
türe@@ 13525
luğunda 13515
kontrol 13510
yayınlandı 13508
başı 13496
nek 13496
ba 13493
kis@@ 13485
Val@@ 13478
0.000 13477
Af@@ 13477
otom@@ 13472
Gir@@ 13467
V 13460
duğ@@ 13452
FC 13449
bölgesinde 13449
Profes@@ 13446
ys@@ 13445
mec@@ 13440
nas@@ 13440
yardım 13427
fe 13426
verildi 13421
bağım@@ 13407
iyordu 13396
profesyonel 13395
yoğ@@ 13392
yor 13386
Polonya 13374
inç 13372
Mil@@ 13371
kuk 13362
lanması 13361
ılmaktadır 13351
şi 13341
Okul@@ 13314
Mac@@ 13313
Millî 13313
sur@@ 13312
Kuvvet@@ 13305
öner@@ 13304
Ül@@ 13302
Şir@@ 13293
stüd@@ 13292
dis@@ 13289
düşünül@@ 13284
Ermen@@ 13281
bağl@@ 13273
abr@@ 13269
mada 13266
Gal@@ 13260
1989 13258
eyalet@@ 13252
Avusturya 13249
sonrası 13248
ep 13245
Yar@@ 13244
kendisine 13242
lan 13241
olmasına 13239
soy@@ 13237
rir 13234
retim 13224
seri 13218
aşa 13211
birliği 13206
ışık 13203
Siy@@ 13202
dak@@ 13196
gez@@ 13196
ya@@ 13191
serbest 13181
alarının 13179
kariyerine 13174
ilerini 13170
Mus@@ 13167
ayır@@ 13151
Mes@@ 13149
bölge 13128
bilinir 13127
liğinde 13125
ens 13119
tip 13115
Kül@@ 13099
adam@@ 13094
başlang@@ 13094
video 13089
meleri 13088
doğal 13078
sürec@@ 13078
Portek@@ 13073
kurulmuştur 13073
Yahudi 13066
El 13062
dağıl@@ 13059
polis 13056
yönünde 13055
ıf@@ 13054
hale 13049
sürül@@ 13049
yapt@@ 13043
Arap 13042
ıca 13035
birinci 13034
up 13033
Ham@@ 13027
Yun@@ 13027
dek 13027
Bas@@ 13020
raf@@ 13020
To@@ 13006
tanıt@@ 13006
cel@@ 13000
kısmı 12988
arlar 12985
Örneğin 12985
Dağ@@ 12979
kale 12979
yardımcı 12971
modern 12970
lah 12966
tre 12961
şey@@ 12959
ener@@ 12957
alle 12955
öncel@@ 12954
maktaydı 12952
Eurovision 12921
For@@ 12919
bor@@ 12915
altına 12909
öğret@@ 12902
ihtiy@@ 12899
Ok@@ 12889
üb@@ 12887
yeter@@ 12880
arkadaş@@ 12874
köken@@ 12873
bölümü 12872
yse 12869
far@@ 12862
ald@@ 12854
Türkçe 12850
Brit@@ 12834
Sovyetler 12823
12@@ 12822
dalg@@ 12822
İr@@ 12814
giz@@ 12811
yem@@ 12811
dünyanın 12803
yapıldı 12801
Göl@@ 12779
kuruldu 12778
ku 12770
nek@@ 12770
ınday@@ 12769
Alb@@ 12766
yorum@@ 12761
durum 12744
verdiği 12739
maçında 12732
başlar 12714
yal 12712
ch 12711
Hük@@ 12703
iksel 12697
oran@@ 12695
Alman@@ 12679
taşım@@ 12675
for@@ 12673
tro@@ 12671
Buna 12669
landığı 12668
Merkezi 12658
Yüksek 12658
0,@@ 12655
günümüzde 12654
yav@@ 12646
tri@@ 12642
ila 12634
maç 12629
oluşur 12628
ekonom@@ 12622
anim@@ 12615
kh@@ 12601
yum 12596
Yunanistan 12593
çalışan 12589
one 12585
Büyük@@ 12581
enek@@ 12581
amb@@ 12566
olsa 12565
ome@@ 12563
H 12550
tep@@ 12549
dest@@ 12548
anti@@ 12547
tav@@ 12544
yd@@ 12544
Müzik 12537
mer 12523
kri@@ 12521
altın 12512
tarihli 12511
kalm@@ 12509
bire@@ 12499
hızlı 12499
yasal 12495
Sp@@ 12490
pro@@ 12481
toplam@@ 12474
yok 12450
bunu 12444
sanat 12443
saat 12428
Po@@ 12419
paylaş@@ 12419
iyor 12410
çatış@@ 12404
ört@@ 12404
satın 12396
Tem@@ 12392
Gün@@ 12387
devlet@@ 12380
defa 12378
dikten 12376
yönetmen@@ 12343
şid@@ 12328
adına 12326
olmuş 12316
Pal@@ 12311
90 12307
Halk 12305
uç 12304
Toplam 12301
Ensti@@ 12299
fre@@ 12294
yönetim 12293
ilerinin 12287
ala 12266
spor@@ 12265
pozisyon@@ 12263
Gür@@ 12258
arın 12246
enen 12237
Arap@@ 12234
Avustralya 12224
mel@@ 12203
önem 12195
ker@@ 12192
diğinde 12191
kızı 12191
alya 12189
tüsü 12188
endis@@ 12182
Ed@@ 12180
mesinden 12177
davran@@ 12173
arkad@@ 12167
İspany@@ 12167
ağır 12166
80 12161
lüğ@@ 12150
1988 12148
beyaz 12145
yıldızı 12144
baş 12138
yapı 12128
kü 12122
İk@@ 12119
Yen@@ 12117
ses 12113
yapılmıştır 12109
ant 12105
iline 12105
neği 12097
etik 12095
4.@@ 12093
alanında 12090
içi 12089
korum@@ 12089
ena 12079
doğru@@ 12069
Sol@@ 12061
Akadem@@ 12039
Vol@@ 12038
imini 12032
lukla 12025
kavram@@ 12022
Müd@@ 12019
Mc@@ 12013
gid@@ 12012
düncü 11988
Sonuç@@ 11978
Ödülleri 11976
hafta 11975
Fenerbahçe 11974
çalışmaları 11972
ğine 11971
sözc@@ 11965
Muhar@@ 11964
yönelik 11963
olu 11959
miktar@@ 11958
ind@@ 11957
uyordu 11949
minin 11943
irken 11941
öne 11939
verir 11936
eki 11933
zorunda 11931
olo@@ 11929
hes@@ 11927
af 11916
urdu 11915
Con@@ 11908
kız 11908
kurum@@ 11902
cü 11901
? 11894
dan@@ 11894
içerir 11891
yenil@@ 11886
ordusu 11883
kum@@ 11882
faaliyet@@ 11877
Mel@@ 11873
Si@@ 11864
alarına 11864
komün@@ 11847
şehri 11844
So@@ 11836
imi@@ 11836
Merkez 11832
gan@@ 11830
edir 11824
1987 11823
bileş@@ 11820
dör@@ 11818
tepe 11818
çevir@@ 11815
yıldız@@ 11814
yerek 11807
sanatç@@ 11806
lığına 11805
mül@@ 11800
Bununla 11794
elinde 11777
cumhur@@ 11772
mızı 11764
ıklar 11764
üzel 11763
şeh@@ 11754
dair 11750
Galatasaray 11748
Ni@@ 11741
tesi 11730
ehrin 11729
güç 11728
ilerek 11718
Say@@ 11701
üd@@ 11701
orum 11699
yük@@ 11698
dağıt@@ 11694
kın 11690
Kanada 11688
yapmış 11685
felse@@ 11684
sö@@ 11681
Yarışması 11674
aj 11660
stand@@ 11652
kurtar@@ 11649
mesinin 11648
aşam@@ 11645
ılara 11642
değerlendir@@ 11639
anlığı 11629
ica 11619
1928 11617
70 11611
Seç@@ 11603
bölüm 11596
üret@@ 11596
mik@@ 11595
Mez@@ 11589
Hayatı 11579
kontrol@@ 11578
yılının 11578
III 11569
ator 11569
müm@@ 11561
para 11554
uları 11549
topr@@ 11543
Bat@@ 11535
onları 11533
Sak@@ 11530
Ör@@ 11529
alim@@ 11528
San 11527
zeng@@ 11521
gözlem@@ 11519
üzerindeki 11519
sinema 11516
Ukrayna 11515
lenmiş 11515
arm@@ 11512
motor@@ 11512
fotoğ@@ 11509
vatand@@ 11507
kamp@@ 11504
Grup 11502
ektedir 11499
Kıbrıs 11490
anlık 11482
oy 11478
mini 11472
Muh@@ 11462
başkenti 11462
şarkıcı 11458
Dr@@ 11457
döndü 11457
sıcak@@ 11457
ou@@ 11455
pot@@ 11453
soğ@@ 11452
Kore 11449
şö@@ 11444
yüzyıl 11439
hükûmet@@ 11431
tor 11431
Olimpiyat@@ 11430
1986 11426
dünyaya 11424
Az@@ 11414
Yahud@@ 11414
müş@@ 11414
au@@ 11412
atür@@ 11407
andığı 11399
İsk@@ 11398
Trab@@ 11393
gerekti@@ 11381
kasab@@ 11378
sergil@@ 11377
performans@@ 11375
tanr@@ 11375
karşısında 11369
asik 11361
çoğ@@ 11361
boş 11355
kendini 11349
erini 11345
kişinin 11328
Köyün 11326
geleneksel 11318
Bol@@ 11310
aylık 11303
belirli 11301
örgüt@@ 11301
şim@@ 11296
söyledi 11295
ell 11294
stat@@ 11294
kültür@@ 11292
sonr@@ 11292
lamıştır 11284
şe 11284
çünkü 11281
doğan 11276
müh@@ 11274
1950 11270
tipi 11268
Kut@@ 11263
sayesinde 11259
andır 11256
gen 11255
gerçek@@ 11254
yoğun@@ 11254
eşit@@ 11249
kıl@@ 11247
Mir@@ 11243
ordus@@ 11243
vil 11236
ığına 11231
menin 11217
çift@@ 11213
aktif 11210
edilmektedir 11210
sahi@@ 11206
yazarı 11205
ore 11203
Ordu 11202
ehir@@ 11195
artık 11194
indir@@ 11189
imparator@@ 11185
imz@@ 11182
Muhammed 11178
alara 11178
imzal@@ 11175
Şehir 11172
ınlar 11168
sayı 11164
yayın 11159
ver 11157
Hindistan 11139
üstü 11138
liğe 11136
Pe@@ 11132
Hollanda 11120
İsveç 11119
dış 11117
jinal 11117
kurdu 11115
dikleri 11109
dül@@ 11108
35 11090
enerji 11087
konu 11081
Han 11077
kin@@ 11073
işlet@@ 11071
Pro@@ 11064
galaksidir 11061
Günümüz@@ 11055
Krall@@ 11037
William 11027
Mas@@ 11024
Yöne@@ 11020
urt 11019
uygulan@@ 11018
1984 11016
Ban@@ 11010
elen 11009
farkl@@ 11007
ati 11006
mal 11006
Arnav@@ 11003
Res@@ 11000
mit@@ 10998
Dar@@ 10992
adel@@ 10991
eriş@@ 10984
Süper 10982
kardeş@@ 10979
aat 10978
Devleti 10974
ığın 10963
Burada 10962
araç@@ 10960
sin 10958
şehirdir 10956
duk@@ 10953
Festiv@@ 10952
kut@@ 10942
aman@@ 10938
stir 10933
organ@@ 10931
Savaş@@ 10929
maçı 10917
isel 10907
her@@ 10902
graf@@ 10901
destek 10900
Cor@@ 10896
Windows 10890
tilen 10886
san 10877
Gürcistan 10867
single 10846
Li@@ 10845
tar 10844
asi 10841
ora 10829
hiç 10827
000 10826
â 10826
2. 10817
yonel 10815
UEFA 10814
1985 10801
idari 10799
zey 10798
inti@@ 10786
kür@@ 10785
sine 10773
İmparator@@ 10765
ayd@@ 10756
Sanat@@ 10746
aha 10741
Mat@@ 10740
ımcı 10737
1982 10718
maz@@ 10706
Tor@@ 10700
ner 10675
sos@@ 10667
müc@@ 10659
enti@@ 10658
Genç@@ 10655
Min@@ 10649
gaz@@ 10643
Kı@@ 10641
arş@@ 10641
ej@@ 10640
Tel@@ 10639
final 10639
Topl@@ 10630
sen 10630
dr@@ 10623
kara 10620
od 10620
Deniz 10614
asit@@ 10614
inş@@ 10609
anlı 10608
kre@@ 10607
cam@@ 10578
Ahmet 10575
Osman@@ 10551
lo 10546
Irak 10541
Hat@@ 10536
Cem@@ 10513
Yaz@@ 10513
öy 10512
20@@ 10509
hükû@@ 10489
Ste@@ 10485
200 10477
elektr@@ 10475
Mosk@@ 10473
uf@@ 10472
gali@@ 10466
Feder@@ 10458
landa 10437
ae 10428
James 10427
... 10426
Yard@@ 10426
Cumhur@@ 10422
let 10418
anak@@ 10411
bölgel@@ 10407
Mü@@ 10404
Don@@ 10400
cut@@ 10377
endi@@ 10371
zul@@ 10363
ğer 10363
1,@@ 10351
ker 10340
Col@@ 10332
terci@@ 10331
45 10330
zu 10327
1983 10324
Kızıl@@ 10319
0.@@ 10312
dam@@ 10303
vet 10303
kateg@@ 10295
vol@@ 10287
elik@@ 10285
uda 10283
ayar@@ 10270
sul@@ 10259
Ant@@ 10256
olan@@ 10252
Üniversit@@ 10247
ros@@ 10229
Bulgar@@ 10221
yans@@ 10205
Diy@@ 10202
ug@@ 10198
Tun@@ 10185
David 10183
500 10175
yk@@ 10165
lek 10164
familyas@@ 10163
yat 10162
cil 10161
Can@@ 10157
Fer@@ 10143
Qu@@ 10118
Berlin 10114
otur@@ 10099
Str@@ 10088
vir@@ 10070
dah@@ 10051
Siv@@ 10047
‘ 10037
sist@@ 10021
rec@@ 9986
32 9980
19. 9977
Cr@@ 9974
top@@ 9940
Var@@ 9922
gelen@@ 9921
hak 9907
lek@@ 9903
nu 9893
ilik@@ 9867
yüzyıl@@ 9860
zur@@ 9856
Cam@@ 9851
ampiy@@ 9841
akadem@@ 9836
ism@@ 9831
lak@@ 9820
ham 9804
Sim@@ 9797
mis@@ 9793
1979 9787
gal 9787
nam@@ 9780
sek@@ 9778
pan@@ 9776
Bi@@ 9774
Lo@@ 9758
semb@@ 9758
pos@@ 9757
net 9755
Şark@@ 9735
Sab@@ 9730
bay@@ 9725
5.@@ 9721
Kaf@@ 9717
hir 9713
Pl@@ 9691
serv@@ 9675
aci@@ 9670
port@@ 9659
göre@@ 9657
gu@@ 9654
Michael 9651
ick 9647
yıld@@ 9625
Hor@@ 9621
Vak@@ 9620
fir@@ 9609
1981 9593
yg@@ 9593
antik 9583
sap@@ 9574
kaf@@ 9573
La 9572
yla 9570
gal@@ 9561
günümüz@@ 9559
tis@@ 9555
ko 9546
Gi@@ 9525
ibi 9524
ats@@ 9514
Dur@@ 9503
Tat@@ 9499
amp@@ 9462
arab@@ 9461
by 9450
BM@@ 9424
vak@@ 9410
siyas@@ 9402
3. 9400
1974 9392
üf@@ 9389
Ben@@ 9351
fl@@ 9341
Macar@@ 9330
ro 9329
1978 9313
sch@@ 9307
profes@@ 9306
per 9305
ket@@ 9296
ura 9292
é 9286
plat@@ 9281
pik 9278
Ah@@ 9275
eller 9258
ide@@ 9255
Dok@@ 9253
1945 9252
dür@@ 9248
Por@@ 9246
fark@@ 9244
Kız@@ 9234
6.@@ 9232
Cen@@ 9232
his@@ 9232
gu 9222
7.@@ 9209
pler 9199
Q@@ 9193
dini 9191
aile 9179
ga 9169
Pas@@ 9168
Sad@@ 9167
ital 9166
ita 9137
parti 9136
Jo@@ 9124
Robert 9118
á@@ 9110
len 9096
İm@@ 9091
tane 9090
isa 9089
1973 9088
ai@@ 9083
1968 9078
azar 9071
Mag@@ 9062
ish@@ 9050
aceae 9049
ınar 9049
telef@@ 9048
Med@@ 9015
leb@@ 9009
aller 9008
ser 9001
1@@ 9000
Na@@ 8999
1972 8980
FIFA 8979
büt@@ 8974
zon 8969
tec@@ 8963
1975 8955
öd@@ 8945
pre@@ 8936
zun@@ 8935
Ac@@ 8933
Hel@@ 8933
metr@@ 8920
vel@@ 8917
Kara 8915
faz@@ 8881
sp@@ 8877
W 8875
Hü@@ 8872
Rad@@ 8861
üçük 8859
Mem@@ 8854
1977 8843
ayi 8831
Gör@@ 8826
ond@@ 8823
1920 8820
ic 8820
Meh@@ 8818
aw@@ 8812
keş@@ 8812
lig 8808
ret 8801
° 8790
Ur@@ 8785
eceğ@@ 8776
hala 8775
indi@@ 8766
George 8764
ong 8757
ris@@ 8744
idar@@ 8741
bay 8723
ff@@ 8708
pal@@ 8701
astron@@ 8700
Bu@@ 8698
pil@@ 8696
Dav@@ 8695
hük@@ 8692
ski 8690
tal 8688
can 8685
ders@@ 8685
1976 8668
Sek@@ 8656
enz@@ 8652
Stad@@ 8649
mm 8649
Tab@@ 8645
hen@@ 8640
Del@@ 8639
enf@@ 8629
gar 8628
anca 8621
amu 8614
Tay@@ 8590
sol 8588
Dol@@ 8586
mayan 8584
no 8562
jan@@ 8557
adi 8556
Rum@@ 8550
emati@@ 8542
Dr. 8540
Kir@@ 8529
basket@@ 8525
1969 8520
nak@@ 8509
Haz@@ 8493
1971 8491
au 8483
Yas@@ 8475
int 8475
iss@@ 8473
kaya 8471
Gül@@ 8470
Ke@@ 8468
neğin 8464
ese 8457
eyal@@ 8454
na@@ 8450
part@@ 8448
berg 8422
2022 8417
ızı 8416
Sey@@ 8413
Kab@@ 8411
dün@@ 8406
erg@@ 8385
City 8380
Ra@@ 8379
bis@@ 8366
Sah@@ 8362
trol 8346
normal 8345
Sul@@ 8341
rev@@ 8338
Ti@@ 8322
gin 8318
cid@@ 8311
rim 8298
yu@@ 8297
air 8293
Sur@@ 8283
yar 8278
je@@ 8265
Los 8259
kah@@ 8259
sam@@ 8251
istik 8249
est 8245
tren@@ 8241
pas@@ 8233
1967 8232
les 8228
75 8225
ira 8222
aden@@ 8221
Gre@@ 8218
aly@@ 8216
eten 8208
abl@@ 8190
Et@@ 8177
Go@@ 8174
alog 8162
stein 8161
mant@@ 8153
erine 8150
Is@@ 8144
Ard@@ 8142
Charles 8140
ima 8138
Yu@@ 8132
pen@@ 8126
ons@@ 8117
teri 8117
OS 8101
Ang@@ 8093
io 8089
st 8086
ato 8076
Kend@@ 8058
ation 8034
ess@@ 8032
Paul 8028
Ho@@ 8026
eph@@ 8016
neden@@ 8012
roman@@ 8009
Gar@@ 8008
rat 8005
1930 7990
kuv@@ 7975
elektron@@ 7972
Van 7967
8.@@ 7966
Bos@@ 7961
metal 7960
Ana 7949
lü@@ 7942
shire 7939
Com@@ 7936
grup@@ 7932
Kam@@ 7912
ber 7912
1961 7909
ney@@ 7889
Venedi@@ 7876
33 7860
ly 7860
Tür@@ 7843
oh@@ 7833
Lit@@ 7820
ami@@ 7811
ath@@ 7809
urt@@ 7809
bek 7808
çu 7789
Hali@@ 7784
Naz@@ 7781
parish 7781
civil 7770
all 7754
hiz@@ 7753
yanın 7751
1965 7750
enn@@ 7750
Ag@@ 7749
Kü@@ 7734
illi 7730
fü@@ 7720
vek@@ 7716
1966 7713
37 7709
1940 7701
Pan@@ 7699
atif 7689
mod@@ 7680
IV 7664
ven 7623
Bug@@ 7614
akter 7612
age 7611
evi@@ 7610
1964 7605
fak@@ 7591
Cel@@ 7584
ony@@ 7563
Erk@@ 7556
4. 7553
Ir@@ 7549
Kl@@ 7546
20. 7541
tat@@ 7541
tom@@ 7538
Basket@@ 7536
des 7530
ruh@@ 7519
brahim 7508
Lu@@ 7504
unla 7499
yor@@ 7495
Pi@@ 7479
kus@@ 7472
General 7465
Mi@@ 7463
rö@@ 7463
League 7461
ımına 7456
oto 7447
Cal@@ 7442
üng@@ 7438
tap@@ 7429
hatt@@ 7426
ć 7422
ras@@ 7417
gus@@ 7405
ton@@ 7405
34 7400
ult@@ 7392
Ba@@ 7391
diplom@@ 7379
Ek@@ 7363
1. 7362
ea 7356
ezi 7345
Est@@ 7344
Fl@@ 7343
sub@@ 7340
Met@@ 7339
1944 7336
1963 7323
Fr@@ 7322
hep@@ 7320
çeşit@@ 7314
Mol@@ 7312
Peter 7296
Ros@@ 7290
bün@@ 7275
lim@@ 7273
und 7271
vil@@ 7268
qu@@ 7266
ehir 7265
uru 7260
engi 7258
prak@@ 7253
ider@@ 7248
fr@@ 7245
ceph@@ 7244
amii 7243
36 7242
oni 7241
Olimpi@@ 7240
ach@@ 7232
burg 7227
ty 7224
eline 7223
Tom@@ 7219
Elek@@ 7212
ow@@ 7212
plas@@ 7211
Microsoft 7206
ford 7200
.000 7196
We@@ 7193
lin 7191
ilim@@ 7189
65 7187
ebe 7174
zey@@ 7173
Fre@@ 7168
Tim@@ 7158
ate@@ 7154
Mey@@ 7138
pa 7137
kov@@ 7132
det 7125
bon@@ 7124
Fut@@ 7121
zer@@ 7114
deş@@ 7110
ster 7108
85 7102
Grand 7100
1941 7099
ster@@ 7096
Du@@ 7094
rock 7094
kar 7088
Jean 7078
Lat@@ 7068
ılar@@ 7066
tedir 7062
Ph@@ 7047
Ul@@ 7035
tay@@ 7030
Angeles 7029
1962 7028
von 7022
yr@@ 7020
gil@@ 7017
ick@@ 7010
48 7007
pak@@ 7003
omi 6999
oj@@ 6998
Pat@@ 6996
1959 6993
1956 6989
64 6984
Sem@@ 6980
55 6975
sidir 6975
38 6973
bl@@ 6968
World 6964
Komit@@ 6960
Uy@@ 6959
afi 6954
2,@@ 6940
müs@@ 6936
Hitler 6929
Kim@@ 6929
9.@@ 6928
SS@@ 6926
Kazak@@ 6925
NBA 6925
nan 6924
olar@@ 6918
itibar@@ 6913
ain 6908
Fu@@ 6907
Kateg@@ 6888
3,@@ 6887
rit@@ 6881
Prot@@ 6862
fes@@ 6862
elle 6850
veç 6850
Dan@@ 6849
kg 6846
Ker@@ 6845
num@@ 6843
molek@@ 6839
yeye 6832
dakika 6824
Afr@@ 6819
.. 6814
42 6797
eza 6795
emen 6794
aza 6779
1946 6773
egem@@ 6759
Un@@ 6751
1958 6745
ema 6743
üzer@@ 6736
tif 6729
for 6727
med 6727
ust@@ 6726
bet@@ 6723
strat@@ 6721
Din@@ 6716
Je@@ 6714
aktiv@@ 6713
25@@ 6711
Park 6709
obi@@ 6709
bon 6699
biç@@ 6662
fig@@ 6660
tiz@@ 6650
acağ@@ 6649
atom@@ 6644
politik 6641
Tri@@ 6634
ait@@ 6629
ento 6627
St 6625
1918 6610
fu@@ 6610
elt@@ 6607
oca 6606
co 6604
orit@@ 6596
model 6578
sy@@ 6578
Art@@ 6574
Ex@@ 6570
rek@@ 6562
Tu@@ 6559
Cl@@ 6558
1957 6555
dos@@ 6543
On 6542
MS 6535
Vil@@ 6530
kek 6528
lav 6528
kun@@ 6522
Ann@@ 6519
hat 6515
kel 6512
web 6507
not@@ 6501
hidro@@ 6495
Mik@@ 6492
ister 6489
vin 6489
Sor@@ 6484
ole 6483
üncü 6483
ji@@ 6482
yayg@@ 6477
emp@@ 6475
dit 6469
Wil@@ 6467
1954 6462
1955 6457
Hab@@ 6449
oma 6448
1943 6433
Bit@@ 6431
5. 6425
roman 6412
Men@@ 6411
car@@ 6407
300 6403
1948 6400
off 6397
top 6395
ac 6392
ella 6383
th 6376
finale 6373
rest@@ 6369
ren 6368
Bek@@ 6367
Henry 6358
Ru@@ 6354
Cas@@ 6351
Nik@@ 6347
up@@ 6347
Fi@@ 6342
ja 6341
yük 6337
Thomas 6328
entin 6325
Müh@@ 6322
1939 6320
Kos@@ 6317
Bl@@ 6312
ace 6312
Lev@@ 6311
nö@@ 6310
oz 6310
00 6298
Nazi 6296
95 6290
ometr@@ 6271
ider 6263
4,@@ 6257
sert 6257
Kör@@ 6251
Tarih@@ 6251
pel@@ 6242
har 6234
Ben 6232
les@@ 6230
Yarış@@ 6227
Ali@@ 6222
anay@@ 6216
Final 6213
pop 6212
sad@@ 6212
uh@@ 6205
kün@@ 6202
Kav@@ 6201
ao 6198
ts 6197
Fati@@ 6196
Yük@@ 6188
00@@ 6185
Ri@@ 6176
alb@@ 6174
mir@@ 6174
unc@@ 6174
rar@@ 6171
gaz 6159
Richard 6157
ich 6154
Ram@@ 6150
Tok@@ 6143
parlam@@ 6141
ân 6138
ola 6137
ida 6133
stan 6125
Birleş@@ 6123
ban 6118
tre@@ 6111
ein@@ 6100
km@@ 6098
hangi 6096
test@@ 6094
eo 6089
ille 6084
ran 6084
Arab@@ 6078
hek@@ 6077
Washington 6076
kuz@@ 6062
uzaklık@@ 6053
Abdul@@ 6044
feder@@ 6043
mor@@ 6040
Ren@@ 6039
1942 6033
AR@@ 6030
ung 6028
rej@@ 6022
ff 6021
72 6014
lam 6013
öm@@ 6009
sıc@@ 6004
Baz@@ 6002
rağ@@ 6000
Bro@@ 5995
Akad@@ 5990
Hi@@ 5990
probl@@ 5985
39 5983
United 5979
haber 5977
ple@@ 5977
1953 5973
ünkü 5972
ab 5971
isti 5971
1919 5962
ici@@ 5960
You 5956
line 5951
vide@@ 5951
hac@@ 5950
Boy@@ 5942
Nas@@ 5941
Saf@@ 5931
ela 5921
bran@@ 5919
ematik 5907
Konstant@@ 5904
Saint 5897
sk 5897
del 5891
Ahmed 5886
Kel@@ 5883
RT 5880
kes 5878
1952 5875
cil@@ 5874
iti 5873
š@@ 5871
Fe@@ 5869
oll@@ 5865
ters 5865
47 5858
No@@ 5858
blo@@ 5855
ake 5853
lip 5847
internet 5842
ius 5840
New@@ 5835
Ale@@ 5830
ante@@ 5828
Bin@@ 5827
Sev@@ 5824
estr@@ 5824
op 5823
ani@@ 5819
bom@@ 5814
78 5812
usa 5809
aga 5806
DNA 5797
ō@@ 5790
53 5789
86 5786
ast 5780
vas@@ 5763
mail 5755
mit 5752
Kah@@ 5751
ly@@ 5751
Tas@@ 5748
eden@@ 5747
Ta@@ 5746
tiş@@ 5743
41 5742
gan 5740
olog@@ 5740
Dor@@ 5738
güt@@ 5738
stad@@ 5735
Nev@@ 5734
Billboard 5733
Nov@@ 5732
istin 5728
perform@@ 5725
İngiliz@@ 5722
bil 5721
yün 5714
mann 5711
44 5710
57 5708
Tah@@ 5700
88 5699
etvek@@ 5698
eştir@@ 5695
1949 5684
Louis 5680
leh@@ 5680
oda 5678
1947 5676
52 5675
saf@@ 5668
30@@ 5665
Eur@@ 5663
87 5658
dam 5658
aktır 5652
Pap@@ 5647
400 5640
zy@@ 5640
1938 5632
Cad@@ 5632
Mih@@ 5632
ost 5613
Wal@@ 5606
ars 5593
51 5592
ded@@ 5592
6. 5588
Love 5587
pek@@ 5584
plan 5583
Devlet@@ 5581
May@@ 5571
gin@@ 5571
Latin 5562
ung@@ 5562
field 5561
iki@@ 5555
mot@@ 5548
ost@@ 5546
grad 5542
43 5541
Modern 5541
Martin 5540
84 5533
Records 5528
56 5526
anah@@ 5516
bed@@ 5515
eter@@ 5514
ders 5512
Plat@@ 5510
ack@@ 5505
orta@@ 5489
Plan@@ 5487
Su 5486
cular 5486
mill@@ 5486
oni@@ 5483
Sist@@ 5478
ağı@@ 5478
Da@@ 5474
gön@@ 5474
yel@@ 5471
1925 5469
oth@@ 5469
milli@@ 5463
q@@ 5458
Cer@@ 5457
anne 5453
anus 5452
Tal@@ 5451
Mari@@ 5449
kiye 5437
ville 5435
92 5433
alist 5432
alis@@ 5424
Bre@@ 5422
ym@@ 5418
68 5411
1936 5408
aus@@ 5408
28@@ 5405
ash@@ 5392
sand@@ 5388
Mut@@ 5386
Mit@@ 5384
play@@ 5382
ich@@ 5368
Vik@@ 5365
cal@@ 5359
1951 5358
$ 5353
uri 5353
ekte 5351
Lee 5350
gun@@ 5345
99 5344
1933 5343
Haf@@ 5341
olar 5340
1921 5338
5,@@ 5335
Hey@@ 5327
kten 5324
sur 5318
1922 5317
end 5317
Yor@@ 5305
motor 5304
ates 5302
Ken@@ 5301
1935 5295
54 5291
ins 5290
leti 5285
çat@@ 5281
lif@@ 5280
Div@@ 5274
lang@@ 5271
77 5265
Tro@@ 5262
ion 5262
Joseph 5260
Al 5254
old@@ 5254
Eri@@ 5253
Demokrati@@ 5251
ain@@ 5251
test 5251
anz@@ 5246
Aj@@ 5245
SS 5240
bey 5234
Adam 5231
Google 5229
kup@@ 5225
ordin@@ 5221
93 5220
fel@@ 5207
uf 5205
poli@@ 5204
Apple 5202
67 5201
71 5201
Rec@@ 5200
amer@@ 5196
Buc@@ 5192
set@@ 5187
pe 5184
vir 5184
he 5183
1923 5182
yn 5182
66 5179
bron@@ 5178
Lim@@ 5174
46 5170
fol@@ 5165
96 5161
ehr@@ 5153
18@@ 5151
58 5151
Kum@@ 5151
Zel@@ 5151
76 5149
ger 5149
las 5149
Tam@@ 5147
person@@ 5143
Top@@ 5138
CD 5137
Eng@@ 5136
Od@@ 5132
eviz@@ 5132
awa 5129
q 5125
ero 5124
Madrid 5121
lil@@ 5114
time 5114
ue 5112
cer@@ 5110
cell@@ 5107
16. 5106
Lor@@ 5102
zuk@@ 5100
62 5086
ington 5085
Ey@@ 5082
61 5081
ure 5074
bahar@@ 5071
Il@@ 5066
Sand@@ 5062
1924 5060
sek 5055
fal@@ 5051
sey 5042
Sw@@ 5040
alternati@@ 5039
merc@@ 5039
spek@@ 5038
eta 5036
aban 5034
ison 5034
kenti 5034
ami 5033
sam 5033
Stal@@ 5030
ple 5027
ry 5015
ahl@@ 5011
1937 5007
ino@@ 5007
asi@@ 5005
org@@ 5005
pap@@ 5004
tora 5004
cudur 5001
festiv@@ 4993
7. 4988
uta 4988
stan@@ 4987
Hil@@ 4982
63 4981
dadır 4972
esas 4968
za@@ 4968
Me 4963
Biz@@ 4960
pres@@ 4951
Nüf@@ 4945
unca 4942
04 4940
1914 4939
adr@@ 4934
ender 4932
general 4932
ota 4921
81 4918
bas 4918
1934 4917
Fel@@ 4917
6,@@ 4915
1912 4908
Kup@@ 4908
dem 4907
é@@ 4907
ii 4906
ó@@ 4906
vat@@ 4904
Gl@@ 4903
24@@ 4902
ings 4900
Juli@@ 4895
74 4893
dom@@ 4893
con@@ 4890
alfab@@ 4887
ike 4886
lise 4884
18. 4877
ill 4877
á 4870
afa 4869
illa 4869
hel@@ 4867
ahi 4862
atisti@@ 4862
ō 4860
05 4857
ellik@@ 4857
í@@ 4856
ligi 4855
Jackson 4853
dans 4853
ith@@ 4853
83 4852
AS@@ 4852
kisi@@ 4852
Hy@@ 4851
edit@@ 4850
tra 4848
CA@@ 4847
Lig@@ 4843
ern@@ 4843
fen@@ 4830
Star 4829
ste 4827
SC 4826
Ari@@ 4825
RA@@ 4825
Sun@@ 4821
A. 4819
V. 4816
1917 4815
29@@ 4813
One 4813
Sat@@ 4813
sta 4808
lir 4806
rey 4801
kesi 4800
Ap@@ 4798
Yugoslav@@ 4796
49 4793
Ori@@ 4792
mut 4789
ehri 4786
08 4785
ons 4785
ilde 4784
Mich@@ 4781
Gürc@@ 4780
iro 4776
Video 4765
neg@@ 4764
go 4758
ky 4752
led@@ 4745
alama 4742
Dal@@ 4741
26@@ 4739
tel 4739
01 4730
may 4728
tol@@ 4727
ight 4717
M.@@ 4716
zan 4714
Fili@@ 4712
82 4710
agr@@ 4710
hip 4701
69 4699
refer@@ 4691
paral@@ 4689
WWE 4685
anti 4685
Maria 4680
73 4677
Bü@@ 4677
ello 4675
Cup 4668
bre@@ 4668
1926 4667
Z 4667
isp@@ 4662
pir@@ 4657
ört 4653
Edward 4650
ail 4649
Bon@@ 4646
rem@@ 4642
key 4638
CH@@ 4632
ā@@ 4630
Ka@@ 4628
Y 4627
irse 4622
94 4613
ess 4611
59 4601
1927 4600
De 4595
My 4585
Lib@@ 4584
Dam@@ 4574
— 4573
09 4567
fos@@ 4550
Pot@@ 4549
ender@@ 4549
hem@@ 4547
ou 4546
Le 4542
West 4542
Buff@@ 4541
ka@@ 4540
ith 4537
Dis@@ 4532
Fo@@ 4532
form 4530
urg@@ 4530
‎ 4530
bot@@ 4526
je 4526
Oc@@ 4521
Hen@@ 4518
bomb@@ 4518
bac@@ 4513
alif@@ 4508
fo@@ 4501
mil 4500
IS@@ 4499
aten 4490
day 4490
kaç 4483
tem 4481
98 4479
cad@@ 4479
ary 4477
rel 4468
91 4466
Mont@@ 4465
Tes@@ 4465
hor@@ 4464
aur@@ 4463
Music 4460
anna 4458
97 4455
him@@ 4454
well 4453
Sm@@ 4452
Tap@@ 4451
Papa 4450
İ 4450
7,@@ 4449
Santa 4448
18,@@ 4447
1929 4443
Rock 4443
Prix 4438
mag@@ 4436
Bis@@ 4424
č@@ 4424
17. 4422
Black 4422
Gor@@ 4418
Hir@@ 4417
ales 4414
Avru@@ 4413
Laz@@ 4411
Milli@@ 4408
Blo@@ 4407
hil 4407
Sok@@ 4405
ack 4404
My@@ 4402
dari 4401
deb@@ 4398
Um@@ 4397
sonuc@@ 4396
ef 4392
sig@@ 4392
Yah@@ 4390
ave 4390
ex@@ 4389
low 4389
Pre@@ 4387
Tokyo 4380
hari@@ 4378
Ödül@@ 4378
ity 4376
Wor@@ 4372
zz@@ 4372
hr@@ 4371
ie@@ 4371
Show 4370
ა@@ 4370
arr@@ 4355
Harry 4353
sar 4351
89 4350
fas@@ 4350
bec@@ 4349
ud 4346
1932 4345
Hon@@ 4343
cas@@ 4341
79 4334
hali@@ 4333
Ha@@ 4331
mine 4325
8. 4324
ito 4321
trans@@ 4319
so 4313
kuk@@ 4312
mir 4311
Manchester 4308
Som@@ 4308
ende 4303
play 4301
Vir@@ 4300
7,5 4280
pp@@ 4279
Ty@@ 4273
Tol@@ 4266
A.@@ 4265
Oper@@ 4264
Yam@@ 4262
Smith 4261
COVID 4259
mara 4256
07 4254
All 4246
Lin@@ 4239
Jack 4237
Pin@@ 4237
Sk@@ 4237
pin@@ 4234
Don 4230
bar 4226
Mid@@ 4225
1931 4224
ding 4224
Flor@@ 4223
Vi@@ 4222
emb@@ 4222
Kim 4219
cel 4218
Entertainment 4216
port 4213
rab@@ 4213
kte 4210
aire 4209
esc@@ 4208
ogr@@ 4206
Ven@@ 4203
Slo@@ 4200
ory 4199
ensi@@ 4191
ps 4184
win 4181
inn@@ 4175
M. 4173
Nar@@ 4171
bert 4170
9,@@ 4162
AB 4162
Inter@@ 4161
ru 4160
servat@@ 4156
Android 4154
FI@@ 4152
CO@@ 4148
Yan@@ 4148
inen 4148
­ 4145
Rio 4144
Film@@ 4142
1915 4139
solo 4139
Federal 4136
Kongr@@ 4130
Nak@@ 4125
ian 4123
Frank 4121
J. 4120
tro 4120
sent@@ 4117
gelenek@@ 4116
Parlament@@ 4112
ico 4112
sky 4112
tis 4112
sburg 4110
ase 4108
9. 4107
Hot 4104
* 4102
Sib@@ 4097
cen@@ 4096
ei 4088
10.@@ 4082
150 4080
Des@@ 4080
Karl 4080
ont@@ 4076
rik 4075
kenin 4071
J 4070
Nec@@ 4066
atin 4063
mark@@ 4054
Pakistan 4053
İtal@@ 4052
fot@@ 4051
EP 4049
Amat@@ 4045
famil@@ 4044
int@@ 4043
Pek@@ 4037
liste 4037
Chi@@ 4029
600 4022
Ly@@ 4020
Sic@@ 4014
03 4007
Sus@@ 4003
1000 4002
19@@ 4002
AT@@ 4001
Bud@@ 3997
atmos@@ 3996
02 3992
Luc@@ 3989
yaln@@ 3988
anum 3987
Wat@@ 3976
Can 3966
hid@@ 3964
ä@@ 3958
SK 3953
Op@@ 3948
reli 3945
Play 3944
Ca@@ 3939
lov@@ 3928
Pir@@ 3923
eci@@ 3923
aliyet@@ 3922
Mim@@ 3920
ach 3919
imar@@ 3918
tion 3917
Cur@@ 3915
Sali@@ 3915
Liber@@ 3913
06 3910
pis@@ 3908
iko 3902
Maz@@ 3901
ash 3901
uki 3901
Gil@@ 3898
mel 3897
King 3890
arc@@ 3889
eve 3888
Club 3883
sil 3883
ck 3876
old 3874
Prof@@ 3872
Daniel 3871
Man 3866
Sof@@ 3866
ance 3865
ł@@ 3860
ame@@ 3854
​ 3851
Alexander 3844
Ec@@ 3842
die 3841
verg@@ 3841
program 3839
Rek@@ 3837
Dom@@ 3832
Nur@@ 3830
indi 3829
pozis@@ 3826
Kent 3821
aff@@ 3820
1916 3818
Reg@@ 3817
Ü 3815
.com 3813
Live 3813
Chicago 3812
che 3809
alli 3802
Erz@@ 3799
Pav@@ 3798
ray@@ 3796
The@@ 3791
Aleksand@@ 3790
War@@ 3788
Mary 3783
Nobel 3780
pul@@ 3778
Wo@@ 3775
dia 3775
nor@@ 3775
1908 3774
La@@ 3762
kim 3756
ester 3753
iten 3752
dor@@ 3748
liber@@ 3748
ə@@ 3746
Red 3745
uch@@ 3742
udi 3742
ets 3741
odi@@ 3739
Q 3736
800 3735
edr@@ 3734
Baba 3733
ansa 3733
ble 3730
27@@ 3729
okia 3729
arist@@ 3727
Hid@@ 3720
Progr@@ 3718
Ki@@ 3717
Mark 3713
Leon@@ 3712
cus 3712
bit 3711
tron@@ 3710
Pa@@ 3705
Vel@@ 3704
my 3695
neh@@ 3692
ept@@ 3691
São 3689
rot@@ 3689
Real 3677
po 3675
1913 3672
Albert 3672
Tour 3672
erry 3672
• 3670
udi@@ 3668
televiz@@ 3664
Williams 3663
Let@@ 3662
Tom 3662
Roman 3653
8,@@ 3652
Fat@@ 3651
International 3651
Proj@@ 3648
esto 3643
log@@ 3642
Â@@ 3637
Len@@ 3636
ener 3636
ais 3635
Ze@@ 3631
Rol@@ 3612
opera 3610
dy 3608
Kn@@ 3607
uke 3607
baba 3606
oti@@ 3605
Anne 3602
Miss 3602
tt@@ 3598
zo 3598
Big 3596
ando 3596
err@@ 3591
meli 3586
els 3583
Hom@@ 3582
ulus@@ 3582
No 3580
NAT@@ 3576
hum@@ 3576
ous 3574
Max 3570
13. 3562
Jer@@ 3561
don 3561
ente 3561
eth 3559
Uni@@ 3558
idi@@ 3558
afe 3557
inal 3547
AN@@ 3545
best 3541
DVD 3540
ish 3539
ovi@@ 3538
aki@@ 3535
tic 3535
çek 3535
kub@@ 3530
Organ@@ 3529
1910 3524
Phone 3524
bat 3523
Laur@@ 3512
Sir@@ 3512
gru@@ 3511
boy 3508
oph@@ 3506
It 3505
US@@ 3494
Fa@@ 3492
Mis@@ 3486
FA 3484
Anna 3482
Cy@@ 3482
los@@ 3480
Cum@@ 3478
Jap@@ 3478
Company 3476
AC 3474
Ky@@ 3465
uni 3464
ass 3462
Peter@@ 3460
set 3460
Pop@@ 3459
Dir@@ 3454
thi@@ 3453
mali 3451
Vas@@ 3450
nik@@ 3450
Lar@@ 3444
In 3443
protest@@ 3439
ıs 3438
SA@@ 3436
las@@ 3428
abe 3426
Meg@@ 3425
agon 3425
Arizona 3420
Bes@@ 3420
15. 3418
National 3418
BBC 3413
Au@@ 3411
ors 3411
iter 3410
Gem@@ 3409
gül@@ 3407
ign@@ 3404
Massachusetts 3403
ett 3403
Royal 3401
10. 3398
11.@@ 3394
ina@@ 3394
gun 3391
Sig@@ 3386
Chris 3382
laborat@@ 3378
que 3376
Arthur 3375
ock 3373
ben 3372
mati@@ 3369
cr@@ 3359
statisti@@ 3359
kati@@ 3358
Eli@@ 3353
Pierre 3351
inter@@ 3350
Mot@@ 3349
zon@@ 3349
posta 3347
Jones 3345
Pen@@ 3341
ado 3341
üt 3340
ES@@ 3338
vin@@ 3338
Pu@@ 3335
Ep@@ 3334
Liga 3332
Nam@@ 3328
inger 3324
Fri@@ 3321
1900 3316
Premier 3313
ft 3313
ift@@ 3313
lit 3312
tin@@ 3309
ys 3308
onn@@ 3307
we@@ 3307
Virginia 3305
urg 3304
our 3302
Sto@@ 3301
American 3298
avy@@ 3298
1911 3288
ston 3286
KK 3284
Florida 3282
She@@ 3282
Wi@@ 3280
Vietnam 3274
vi 3273
Francisco 3272
All@@ 3269
enden 3269
ão 3268
Life 3264
spons@@ 3264
örd@@ 3264
fan 3257
aliy@@ 3253
Slov@@ 3250
astronom@@ 3243
Sc@@ 3242
14. 3241
Rot@@ 3241
bro@@ 3241
Christ@@ 3240
Elizabeth 3239
mo 3239
Pri@@ 3237
amm@@ 3234
Alan 3232
Friedrich 3231
mula 3229
RNA 3226
Kh@@ 3224
Net@@ 3223
ula 3222
Bot@@ 3220
Def@@ 3218
ny@@ 3217
sung 3214
Mod@@ 3211
entr@@ 3210
Cre@@ 3206
trop@@ 3205
Astr@@ 3194
50@@ 3190
wood 3190
TA 3189
Time 3189
Brezil@@ 3188
12. 3187
AP 3185
Dest@@ 3182
Hem@@ 3179
mp@@ 3176
Char@@ 3174
Rob@@ 3173
lav@@ 3172
vey 3171
Oscar 3169
Scott 3169
alp@@ 3168
elin 3167
Hum@@ 3166
luy@@ 3164
park 3161
bez@@ 3157
Grammy 3147
Roc@@ 3147
onna 3144
Jersey 3143
eva 3143
fan@@ 3141
Not@@ 3138
UNESCO 3138
Cro@@ 3137
Sas@@ 3136
onal 3135
Trans@@ 3132
hom@@ 3132
onom@@ 3131
zin@@ 3129
piyas@@ 3128
Had@@ 3123
embe 3122
sus 3122
É@@ 3122
sis 3121
Ner@@ 3117
120 3116
Super@@ 3115
une 3115
utu 3113
his 3112
án 3110
Anti@@ 3106
lit@@ 3103
Gro@@ 3102
ellen@@ 3097
okrati@@ 3097
vit@@ 3097
itz 3096
PS 3092
Ukr@@ 3089
Yel@@ 3087
Sing@@ 3085
enko 3085
ling 3084
HP 3083
cor@@ 3081
Pra@@ 3077
pay@@ 3077
Ayr@@ 3074
trol@@ 3069
Times 3067
Rod@@ 3066
mahalle@@ 3066
adal@@ 3065
11. 3064
oa 3064
Cav@@ 3056
ho 3056
Obl@@ 3055
dram@@ 3055
H. 3054
Rem@@ 3054
Petr@@ 3047
elec@@ 3045
oya 3044
ort 3043
TC 3042
igh@@ 3041
Jam@@ 3040
rar 3040
DP 3038
GB 3028
turn@@ 3027
Nat@@ 3026
North 3024
Pil@@ 3024
Hollywood 3021
ame 3021
ste@@ 3021
Liv@@ 3019
og 3017
Brown 3009
Parlam@@ 3007
mur@@ 3007
reti@@ 3007
BA 3006
the@@ 3002
Kie@@ 3001
Tre@@ 3000
with 2999
dis 2996
Carl 2993
ø@@ 2991
eus 2990
apr@@ 2989
Alaska 2984
Parti@@ 2984
ihr@@ 2984
col@@ 2982
galak@@ 2982
iner 2982
Eğ@@ 2979
Lam@@ 2979
AM@@ 2978
Zi@@ 2974
Ener@@ 2973
ax 2972
Kamp@@ 2971
Red@@ 2969
Young 2969
name 2968
phe 2967
Dör@@ 2966
uli@@ 2966
1909 2963
Ash@@ 2963
CD@@ 2961
Marie 2959
Sum@@ 2959
Johnson 2958
Ten@@ 2957
kum 2956
Star@@ 2953
Lak@@ 2951
enti 2951
oks 2947
Bay 2946
Vit@@ 2946
Dum@@ 2945
avi@@ 2944
Ford 2943
Tit@@ 2940
12.@@ 2939
apo@@ 2938
go@@ 2937
Fal@@ 2932
Num@@ 2928
amac@@ 2928
plaz@@ 2928
bal 2927
jen@@ 2927
Cat@@ 2926
nur 2926
riv@@ 2924
# 2920
Adri@@ 2918
Pau@@ 2916
ae@@ 2916
ush@@ 2915
gener@@ 2913
Ein@@ 2911
Tos@@ 2909
inus 2909
eld 2906
Berg@@ 2905
But@@ 2905
Ort@@ 2903
Ry@@ 2903
Ot@@ 2902
700 2901
nh@@ 2899
Spar@@ 2897
section 2897
out 2896
Apol@@ 2894
Down 2893
etr@@ 2892
250 2890
Dre@@ 2888
federal 2888
Got@@ 2886
lie 2886
ardo 2885
1907 2884
gl@@ 2884
had@@ 2884
Andr@@ 2883
lia 2882
sanc@@ 2881
yp@@ 2881
ebr@@ 2880
Fakül@@ 2879
VI 2879
mus@@ 2877
lip@@ 2869
vard@@ 2869
ğrenc@@ 2869
Leh@@ 2868
Nic@@ 2864
aro 2860
Nikol@@ 2858
Tam 2854
ath 2854
ix 2853
Hall 2851
asist@@ 2851
nat@@ 2850
1905 2848
mand@@ 2846
asti@@ 2841
Eu@@ 2840
D. 2839
arla 2839
inos 2839
Patr@@ 2838
ი@@ 2835
» 2832
ago 2826
ST@@ 2825
ingen 2825
mar 2825
ault 2819
Joe 2817
Sho@@ 2814
Stand@@ 2814
Win@@ 2813
Atlan@@ 2807
Cin@@ 2807
Gol@@ 2804
Theod@@ 2803
AP@@ 2802
College 2802
ér@@ 2797
stil@@ 2795
Im@@ 2794
nüf@@ 2792
estra 2789
1878 2788
MTV 2788
not 2785
ister@@ 2782
ashi 2780
Pom@@ 2779
drama 2779
ido 2779
Şub@@ 2776
ier 2773
Spor@@ 2770
Rich@@ 2767
Whit@@ 2766
Pel@@ 2764
nu@@ 2764
Nag@@ 2762
Greg@@ 2760
Top 2759
Angel 2758
Wh@@ 2757
1902 2755
ther 2755
Hur@@ 2753
Tran@@ 2753
apa 2753
urs 2753
Hong 2752
Merkez@@ 2752
hol@@ 2750
360 2745
Jan@@ 2744
idea 2742
som@@ 2742
Mıs@@ 2739
pi 2739
dy@@ 2738
Aster@@ 2736
ú@@ 2736
Bod@@ 2734
TE@@ 2732
Vladimir 2732
ense 2729
Hö@@ 2725
abi 2724
ige 2724
5.000 2723
esti@@ 2723
Cap@@ 2722
Tot@@ 2721
« 2721
José 2720
Taylor 2720
anos 2719
Lewis 2717
annes 2717
chi 2712
kle@@ 2712
pos 2711
Bask@@ 2710
rap@@ 2709
End@@ 2706
Mos@@ 2705
Shi@@ 2701
amba 2701
tit@@ 2701
Antonio 2698
Ferr@@ 2697
yc@@ 2697
Bob 2696
Spe@@ 2695
SE@@ 2693
way 2692
Eb@@ 2690
Carlos 2689
PC 2689
ier@@ 2686
1886 2685
ania 2682
ensis 2682
esia 2679
ë@@ 2674
SA 2672
ee 2672
Air@@ 2671
transfer@@ 2670
ment@@ 2668
Rah@@ 2667
ont 2667
Paulo 2666
Wilhelm 2666
jer@@ 2666
Sony 2665
km2 2665
sir@@ 2665
Ray@@ 2664
West@@ 2664
Group 2663
aal@@ 2662
va@@ 2661
cher 2660
protein 2659
eter 2658
R. 2657
ón 2657
Abr@@ 2655
DC 2654
Sy@@ 2654
hit 2653
astr@@ 2652
Liverpool 2651
Mob@@ 2650
bury 2645
sever@@ 2644
Boston 2643
ald 2643
Kri@@ 2642
AC@@ 2641
School 2636
Spr@@ 2634
ped@@ 2632
Nav@@ 2630
Pro 2626
amo 2626
opo@@ 2624
vo 2624
eto 2623
vo@@ 2622
hur@@ 2621
Leg@@ 2620
Sir 2620
Loc@@ 2619
etta 2619
aham 2618
Yo@@ 2617
Fir@@ 2614
ram@@ 2614
com@@ 2612
ildir 2610
izi@@ 2605
kins 2603
ime@@ 2597
nd@@ 2595
lon 2591
osen 2591
Pam@@ 2588
zu@@ 2586
omb@@ 2585
Disney 2583
esab@@ 2582
Pet@@ 2581
AL 2580
Mam@@ 2580
Mars 2580
aus 2580
Cle@@ 2579
inae 2578
naz@@ 2578
hali 2577
eral 2575
eman 2574
200@@ 2573
Gur@@ 2573
Simon 2572
wa 2571
Day 2569
bür@@ 2567
Clar@@ 2566
box 2566
Super 2564
Kong 2561
ingham 2561
onda 2561
Kre@@ 2559
Ci@@ 2558
net@@ 2557
abad 2555
iga 2554
like 2554
hasta 2553
kör@@ 2552
ics 2547
Hamilton 2546
Team 2543
off@@ 2543
Air 2542
ER@@ 2541
Fox 2540
Fot@@ 2539
egen 2535
Victoria 2532
gre@@ 2532
laz@@ 2532
ris 2532
Shak@@ 2531
ua 2531
LE@@ 2530
DE@@ 2528
Rab@@ 2528
Zam@@ 2528
Mül@@ 2527
Hill 2526
ი 2525
termin@@ 2522
1906 2520
Bed@@ 2520
Linux 2520
Steve 2519
amo@@ 2518
Day@@ 2517
mas 2517
reg@@ 2517
E. 2513
Juan 2513
gio 2513
Sol 2510
ert 2510
Bill 2506
osh@@ 2506
Key@@ 2505
Ju@@ 2504
ever 2503
Arm@@ 2501
verse 2501
Bundesliga 2499
vis@@ 2499
iller@@ 2498
Bet@@ 2496
DS 2495
Not 2495
Tony 2495
Sub@@ 2494
France 2492
Pak@@ 2492
pand@@ 2491
meyd@@ 2490
Sam 2488
C. 2484
Ful@@ 2484
Pop 2482
als 2482
Kin@@ 2481
Tib@@ 2481
Christian 2478
aye 2477
temas 2475
Rey 2474
aa 2473
Müs@@ 2472
1890 2471
mun@@ 2471
tw@@ 2471
Panz@@ 2469
etten 2469
osa 2467
mont 2466
este 2463
Avustur@@ 2462
Ever@@ 2462
kshire 2460
Sid@@ 2459
Domin@@ 2458
Mul@@ 2457
Hun@@ 2456
YouTube 2456
abol@@ 2455
François 2453
ew@@ 2453
aber 2452
öh@@ 2452
UN@@ 2450
Beh@@ 2449
tes 2442
Bern@@ 2441
aray 2439
Corn@@ 2438
White 2438
Kale 2436
ett@@ 2433
zen 2431
Ö 2431
rat@@ 2430
ting 2430
1876 2429
Walter 2429
Ses@@ 2428
Jos@@ 2427
IC@@ 2423
ū@@ 2423
Mac 2422
eka 2419
has 2417
1877 2416
Ere@@ 2415
bo 2415
enses 2412
ini@@ 2412
rem 2410
propag@@ 2408
ng 2404
1896 2402
CI@@ 2401
University 2400
did@@ 2400
1904 2398
Haw@@ 2398
Lord 2398
anj@@ 2398
bank 2397
Camp@@ 2396
Medi@@ 2396
Night 2395
kov 2394
1,5 2392
Black@@ 2392
ment 2392
B. 2391
Bec@@ 2390
Napo@@ 2390
ein 2390
Wilson 2388
chi@@ 2385
imb@@ 2385
AD@@ 2384
10.000 2382
ote 2380
Barcelona 2376
aliye@@ 2376
ning 2375
Arena 2372
Mike 2365
ome 2365
Andrew 2364
Hul@@ 2364
direkt 2363
House 2359
amber 2358
Brian 2357
vers 2357
ough 2355
Stephen 2354
ais@@ 2352
ement 2349
ju@@ 2348
bır@@ 2347
agon@@ 2346
Kurt 2344
Elec@@ 2343
AS 2342
Lom@@ 2342
Buenos 2341
1901 2339
Corporation 2339
ikan@@ 2338
afya 2337
S. 2336
Web@@ 2336
res 2335
Ob@@ 2334
Oxford 2334
hin@@ 2334
sus@@ 2334
gut 2332
Aires 2331
oi 2329
AL@@ 2327
а@@ 2327
Kle@@ 2326
-- 2325
ig 2325
ž@@ 2323
Pic@@ 2321
kam 2320
elt 2318
Vo@@ 2314
MS@@ 2313
hai 2312
tran@@ 2308
umi 2308
Hans 2307
bot 2307
Ş 2307
patr@@ 2306
ე@@ 2303
Championship 2300
Mand@@ 2300
ana@@ 2299
zek@@ 2297
ombi@@ 2295
Jacques 2294
ond 2294
Ast@@ 2292
LG@@ 2292
Bank 2290
Blu@@ 2288
RO@@ 2288
olm 2288
Les@@ 2287
ante 2287
ange 2282
aller@@ 2281
Who 2280
East 2278
sson 2278
Max@@ 2277
Grande 2276
Sec@@ 2276
Nu@@ 2275
jo 2274
vet@@ 2274
Hin@@ 2273
BT 2269
Play@@ 2269
ega 2267
rul@@ 2266
gam@@ 2264
hy@@ 2261
80@@ 2260
omo 2260
eno 2259
uss@@ 2259
Moh@@ 2257
hik@@ 2254
40@@ 2253
Nah@@ 2253
Stone 2252
UC@@ 2252
Galax@@ 2251
IM@@ 2250
Charlie 2249
Tir@@ 2247
Art 2245
14.@@ 2244
Pok@@ 2244
lige 2243
130 2242
August@@ 2242
teri@@ 2242
Mark@@ 2240
femin@@ 2240
Program@@ 2238
hata 2235
lus 2235
ther@@ 2235
Maur@@ 2234
aux 2233
oth 2233
Bri@@ 2232
atar 2232
Of 2231
Hek@@ 2230
mes 2230
His@@ 2228
Amerik@@ 2225
Rap@@ 2225
lus@@ 2224
1903 2220
Rak@@ 2220
Web 2220
Donald 2217
ray 2216
umb@@ 2216
í 2215
ark 2214
0,000 2213
Cu@@ 2212
yam@@ 2211
alis 2210
Arist@@ 2208
Lou@@ 2207
17.@@ 2203
denen 2203
Ulus@@ 2202
cl@@ 2202
trav@@ 2201
Lyn@@ 2200
app@@ 2200
Boh@@ 2199
Ras@@ 2199
Alfred 2198
dire@@ 2197
Sher@@ 2195
HD 2194
Amaz@@ 2193
org 2191
Avustr@@ 2190
× 2189
row 2188
oria 2186
Wol@@ 2185
Stan@@ 2184
Alice 2182
Green 2182
Lan@@ 2182
Dun@@ 2180
aft 2176
nes 2174
Ath@@ 2173
1880 2171
Rh@@ 2171
war@@ 2169
tura 2168
Pay@@ 2163
Hard@@ 2162
bâ@@ 2162
Football 2161
ty@@ 2157
osaur@@ 2156
ović 2155
NE@@ 2154
Sudan 2154
Little 2153
miz@@ 2153
olo 2153
agan 2152
ine@@ 2152
Liz@@ 2150
Ohio 2149
Jac@@ 2148
Pul@@ 2148
och@@ 2148
Avi@@ 2145
13.@@ 2144
elo 2143
mang@@ 2142
Eric 2141
Island 2140
Sap@@ 2139
AI@@ 2137
Columbia 2137
II@@ 2137
mund 2137
mom@@ 2136
Maine 2134
dat@@ 2133
eren 2133
oshi 2133
რ@@ 2133
Oli@@ 2131
oid 2130
portr@@ 2130
110 2129
Phil@@ 2129
Heinrich 2128
Kevin 2126
iben 2126
wer@@ 2125
Euro 2123
cia 2123
opter@@ 2121
uca 2121
use 2121
Shar@@ 2120
Toy@@ 2120
cir 2119
hil@@ 2118
Illinois 2116
Vic@@ 2115
Hamp@@ 2114
Alex 2112
Center 2112
mond 2110
Joh@@ 2109
Fen@@ 2106
worth 2106
W. 2102
iran 2102
Pep@@ 2101
uck 2101
eck 2097
Bau@@ 2096
Opera 2095
sep@@ 2095
ds 2093
inf@@ 2093
ides 2092
ical 2090
Coğr@@ 2088
Adolf 2087
Pur@@ 2082
Radi@@ 2081
milit@@ 2081
ulus 2080
Cambridge 2079
Blue 2078
Ig@@ 2078
kt 2075
Geor@@ 2074
Hot@@ 2074
Azer@@ 2072
thi 2071
Cab@@ 2070
mr@@ 2069
eke 2068
ista 2068
Philadelphia 2067
Michigan 2066
Fon@@ 2065
Politi@@ 2063
Prim@@ 2063
1870 2062
Francis 2062
Seb@@ 2062
Hop@@ 2060
Clau@@ 2059
Otto 2058
arca 2057
Anthony 2056
F. 2056
Chelsea 2053
rom 2053
itz@@ 2049
bach 2048
Peru 2047
hus@@ 2047
ref 2047
1897 2046
raz@@ 2046
tha 2043
1500 2042
Lag@@ 2041
P. 2038
PlayStation 2038
aer@@ 2038
MP 2037
ME@@ 2035
ator@@ 2035
enburg 2034
Kob@@ 2033
hiç@@ 2033
Lang@@ 2032
1899 2031
AT 2031
igo 2030
Gib@@ 2028
PS@@ 2028
Š@@ 2027
DJ 2026
Harvard 2026
Hz 2026
11@@ 2025
IP 2025
Van@@ 2025
Arg@@ 2023
Andre@@ 2020
slo@@ 2020
Budap@@ 2018
mana 2018
Pon@@ 2017
TP 2016
hou 2016
Street 2012
imm@@ 2012
Giovanni 2011
Pun@@ 2011
adele 2010
iste 2010
tig@@ 2009
ager 2008
NASA 2006
Gran@@ 2005
fut@@ 2004
gor@@ 2004
ium 2000
Frankfurt 1999
Stu@@ 1999
liv@@ 1999
VII 1998
God@@ 1996
Gold@@ 1996
Conn@@ 1994
Fab@@ 1994
Pres@@ 1993
eh 1993
Om@@ 1990
Ga@@ 1987
Gun@@ 1986
ife 1986
Go 1985
Is 1984
MI@@ 1984
1864 1983
I.@@ 1983
Dah@@ 1981
Wood@@ 1980
atus 1980
California 1979
gene 1979
enberg 1978
11,@@ 1977
Ric@@ 1976
flor@@ 1976
matr@@ 1975
Mach@@ 1970
aborat@@ 1969
Anim@@ 1967
Bus@@ 1966
MA 1965
Mun@@ 1964
tra@@ 1961
Villa 1960
Milan 1958
key@@ 1957
û 1955
1895 1954
Chil@@ 1954
ikal@@ 1954
low@@ 1954
Samuel 1953
Dig@@ 1952
AB@@ 1951
1885 1950
Harr@@ 1950
Serie 1950
aja 1950
Ruh@@ 1945
Kant@@ 1944
1,2 1943
Game 1943
aco 1943
IN@@ 1942
anta 1940
him 1940
Bad@@ 1938
Pit@@ 1938
dae 1938
tz 1937
Sou@@ 1936
cuya 1936
€ 1936
900 1935
South 1935
lins 1935
Steph@@ 1931
m. 1931
Hamburg 1930
king 1930
Arsenal 1929
L. 1928
heb@@ 1928
Kuv@@ 1927
Hug@@ 1926
enter 1926
unk@@ 1926
Ray 1924
tiv@@ 1923
Hugo 1921
ax@@ 1921
ech 1920
180 1917
heim 1916
Doctor 1915
G. 1914
SO@@ 1913
ves@@ 1913
Amsterdam 1912
Bad 1912
Model 1912
igu@@ 1912
oper 1912
1898 1911
Lind@@ 1911
able 1911
eron 1910
hop 1910
ızca 1908
1889 1906
Fol@@ 1904
sens@@ 1904
Antar@@ 1903
aver@@ 1903
Radio 1901
aul@@ 1899
Lav@@ 1898
uli 1896
ref@@ 1895
sul 1894
tom 1894
Suz@@ 1892
ichi 1891
S.@@ 1889
esh@@ 1889
Jan 1888
oe 1887
ays 1884
post@@ 1883
Dic@@ 1882
Lad@@ 1882
aw 1882
muz@@ 1881
Cos@@ 1880
Kent@@ 1880
Sun 1880
Stockh@@ 1879
lock 1879
Barr@@ 1878
lib@@ 1878
omen 1878
Bell@@ 1877
Lady 1876
Georgia 1875
Up 1875
eth@@ 1875
MP@@ 1872
tri 1872
das 1871
loyd 1871
Dep@@ 1869
Luci@@ 1869
Mario 1869
Society 1867
Tanz@@ 1867
ango 1867
Patrick 1866
etz@@ 1866
cre@@ 1864
Cir@@ 1862
Henri 1861
Tw@@ 1860
onia 1860
Motor@@ 1859
Köln 1858
Vis@@ 1858
ery 1858
hö@@ 1858
Daw@@ 1857
forman@@ 1857
Association 1856
Metal 1856
ater@@ 1853
lum 1853
BC 1852
Luis 1850
Rose 1849
Wit@@ 1848
Franz 1847
tac@@ 1847
Land@@ 1845
− 1845
å@@ 1844
Arn@@ 1841
SP@@ 1841
XX@@ 1840
³ 1840
Emil@@ 1836
Victor 1836
kili@@ 1836
16.@@ 1834
AN 1833
Allen 1833
Die 1833
alc@@ 1833
imo 1832
Anderson 1831
obi 1831
obj@@ 1831
Twitter 1830
aria 1830
eira 1830
Jr 1828
fen 1827
Ses 1826
Miller 1825
dre@@ 1825
Wes@@ 1824
60@@ 1823
Media 1822
Rand@@ 1821
ect 1821
Lincoln 1820
tesp@@ 1820
nel 1819
120@@ 1818
Seg@@ 1818
Anton@@ 1816
over 1816
Del 1815
Roger 1815
aun@@ 1815
pay 1814
Aur@@ 1813
Jim 1813
Studios 1813
Town 1813
.C. 1812
ester@@ 1812
AF@@ 1811
owski 1811
Rho@@ 1810
tia 1810
Diego 1809
Fas@@ 1809
sche 1808
ones 1807
Jus@@ 1806
Venezuela 1806
unt 1805
North@@ 1803
bus 1803
1860 1802
under@@ 1802
Adams 1801
SD 1801
Jane 1800
car 1800
eles 1800
sid@@ 1798
sis@@ 1798
cur@@ 1797
Enter@@ 1796
SM 1796
cio 1796
15.@@ 1795
nati@@ 1795
tus 1795
Benjamin 1794
3000 1792
open@@ 1792
Augus@@ 1791
Chap@@ 1791
Beau@@ 1790
folk 1790
hard 1789
hara 1787
imal 1787
CE@@ 1785
1894 1783
Bru@@ 1783
Sz@@ 1782
ves 1781
Bow@@ 1779
DA 1779
istr@@ 1779
Girl 1778
Christopher 1777
Dan 1777
21. 1776
Dead 1776
Nich@@ 1776
onal@@ 1776
Brand@@ 1774
oka 1774
eton 1773
Norman 1772
nic@@ 1771
Franklin 1769
Bob@@ 1767
ck@@ 1767
Douglas 1765
akter@@ 1765
Arti@@ 1761
Johann 1760
Your 1760
ador 1760
Davis 1759
ogen@@ 1759
Deb@@ 1758
azz@@ 1755
Lov@@ 1754
Dou@@ 1751
ago@@ 1751
oke 1749
19.@@ 1748
Strat@@ 1748
anth@@ 1747
wan@@ 1747
los 1743
… 1743
20.@@ 1742
BS 1741
Connecticut 1741
ns 1741
Uruguay 1740
Rev@@ 1739
Gam@@ 1738
Gh@@ 1737
enk@@ 1736
1893 1735
Moz@@ 1735
Network 1735
amin@@ 1735
eff@@ 1735
okras@@ 1735
sten 1735
Facebook 1734
à 1732
Ye@@ 1731
its 1728
yl 1728
Pad@@ 1726
Lake 1724
Boy 1723
iliz@@ 1723
Dec@@ 1722
ander 1722
Ryan 1721
AK@@ 1720
bai 1720
Festival 1719
bel 1718
dad@@ 1717
1800 1715
Song 1715
burgh 1715
evin 1714
plant@@ 1714
TO@@ 1711
18.@@ 1710
IX 1708
eer 1708
Lanc@@ 1706
CEO 1705
Ing@@ 1705
Zer@@ 1705
.S. 1703
yth@@ 1703
1882 1702
agog@@ 1702
allas 1702
anga 1702
cal 1702
linde 1702
Jar@@ 1701
atra 1701
Post@@ 1700
Bran@@ 1699
Lawrence 1698
Minnesota 1698
iss 1698
ny 1697
Shin@@ 1696
ლ@@ 1696
1892 1695
CS@@ 1695
ope 1695
Michel 1693
Nintendo 1692
oman 1692
VIII 1691
adap@@ 1691
from 1690
1881 1689
anal@@ 1689
CN@@ 1688
High 1688
Zar@@ 1688
Py@@ 1687
blin 1686
Alg@@ 1685
We 1685
liter@@ 1685
nav@@ 1684
Pictures 1683
minim@@ 1683
Dek@@ 1682
Queen 1682
ag 1681
edo 1680
tions 1680
Best 1675
icus 1675
CP 1674
Gab@@ 1674
Motor 1673
alia 1673
Bron@@ 1672
RT@@ 1672
ater 1672
ա@@ 1672
Aer@@ 1671
bie 1671
agn@@ 1670
zar 1670
Bou@@ 1668
Metro 1668
fin 1666
AE@@ 1664
Ark@@ 1664
Toronto 1664
ska 1664
Part@@ 1663
23@@ 1662
ies 1662
ó 1662
Sebasti@@ 1661
sw@@ 1661
apar@@ 1660
Hit@@ 1659
SV 1658
Kongo 1657
ij@@ 1657
Bush 1654
PE@@ 1654
AA 1653
IS 1648
K. 1648
́ 1648
Vill@@ 1647
uba 1647
River 1646
manuel 1646
nis@@ 1645
we 1645
pon 1644
Games 1643
Sarah 1643
Vincent 1643
Mart@@ 1641
iger 1640
1891 1639
Warner 1636
tere 1636
Cop@@ 1634
pag@@ 1634
ée 1634
Cent@@ 1633
tico 1633
Trin@@ 1632
Matt 1631
side 1631
101 1630
Beng@@ 1630
lob@@ 1630
Schleswig 1628
Under@@ 1628
enni@@ 1627
eria 1627
Flam@@ 1622
1835 1621
Green@@ 1621
cap@@ 1620
Bog@@ 1619
Wall@@ 1619
metro 1619
oba 1619
Vor@@ 1618
lyn 1618
ă@@ 1618
London 1617
Tou@@ 1617
2.000 1615
eff 1615
tay 1613
NA 1612
aide 1612
RI@@ 1610
Rub@@ 1610
Ther@@ 1610
jan 1610
mon 1610
ods 1610
Be 1609
ws 1609
Ferdinand 1608
maye 1608
Kus@@ 1606
ca@@ 1606
Hus@@ 1604
160 1603
Tod@@ 1603
esa 1603
star 1601
125 1600
Bag@@ 1600
Eg@@ 1600
Gul@@ 1599
tics 1599
Jay 1598
140 1597
British 1596
AM 1595
ei@@ 1595
FM 1594
Leo 1594
Bac@@ 1593
Hand@@ 1593
arius 1593
elia 1593
sc@@ 1593
Guar@@ 1592
Ball@@ 1591
Blan@@ 1590
Brook@@ 1590
Lü@@ 1590
Charlotte 1588
uth 1588
FF 1587
Sha@@ 1587
bad@@ 1586
Jason 1585
agu@@ 1584
more 1584
tica 1583
Lok@@ 1582
Bernard 1581
ow 1581
pa@@ 1581
ron@@ 1581
anime 1580
onlyinclude 1580
wich 1579
isl@@ 1578
ated 1577
Wrestling 1575
own 1575
1.000 1574
Bruce 1574
Matthe@@ 1574
Miami 1574
vis 1574
TV@@ 1573
azam@@ 1572
esse 1571
Batt@@ 1570
oli 1570
Andrea 1569
Howard 1569
tesis 1569
1848 1568
lor@@ 1568
Kelly 1567
Philip 1567
cy 1567
2,5 1566
Bell 1566
prim@@ 1565
wen@@ 1565
Mic@@ 1564
aster 1564
derni@@ 1564
isten 1564
dig@@ 1563
illi@@ 1563
America 1562
Gas@@ 1560
tadır 1560
Long 1559
Maj@@ 1559
Dance 1558
Post 1558
Ran@@ 1558
eda 1558
Gordon 1557
kana 1557
oldu@@ 1557
ury 1557
Log@@ 1553
1867 1552
1888 1552
AF 1552
bos@@ 1552
leg@@ 1552
ust 1552
Janeiro 1551
âm 1551
dic@@ 1550
eng 1550
omon 1550
sex 1550
1884 1549
23.@@ 1549
PA 1547
Lap@@ 1546
Manuel 1546
Indiana 1545
Marvel 1545
begin 1544
Ele@@ 1543
This 1543
Ox@@ 1541
adem@@ 1541
eau 1541
nom@@ 1541
Gra@@ 1540
Yug@@ 1540
Las 1538
cir@@ 1538
non 1538
HT@@ 1537
Russell 1536
site 1536
stati@@ 1536
iner@@ 1533
say 1533
{ 1533
ex 1531
alle@@ 1530
Mess@@ 1527
lâm 1527
Benn@@ 1526
itt 1526
rop@@ 1525
fli@@ 1524
oo 1524
Sau@@ 1523
Tig@@ 1523
tum 1523
RE@@ 1522
Rober@@ 1522
ნ@@ 1522
Boliv@@ 1521
Kenn@@ 1521
rün@@ 1520
tras@@ 1520
Brun@@ 1519
1865 1518
Ej@@ 1518
mb@@ 1518
Out 1517
Sn@@ 1517
acc@@ 1517
ader 1517
deleg@@ 1517
CA 1516
Houston 1516
espe@@ 1516
´ 1515
cha 1514
Kun@@ 1513
Dro@@ 1511
dale 1511
Fernando 1510
Fair@@ 1509
Ludwig 1509
Tim 1509
Mercedes 1508
ord 1508
ube 1508
Margaret 1507
TH@@ 1507
Marshall 1506
Ober@@ 1506
ace@@ 1505
Guy 1504
Pedro 1504
house 1504
Cul@@ 1502
seg@@ 1502
ñ@@ 1502
pun@@ 1501
ros 1501
aster@@ 1500
dec@@ 1500
ju 1500
www.@@ 1500
Kennedy 1499
News 1499
Tul@@ 1499
mün@@ 1499
Him@@ 1498
ás 1498
anny 1497
ally 1496
ovo 1496
1887 1495
Kamer@@ 1495
1871 1494
NO@@ 1494
Bom@@ 1493
Fur@@ 1492
Ern@@ 1491
Kath@@ 1491
aks 1491
Kis@@ 1490
Boeing 1489
ako 1489
ric@@ 1489
Poly@@ 1488
Sant@@ 1488
VI@@ 1487
enge 1484
sn@@ 1483
bes 1482
vor 1482
ball 1480
105 1479
Brad@@ 1479
First 1479
Roman@@ 1479
Harris 1478
Clin@@ 1476
Gabriel 1476
Cand@@ 1475
Ernst 1474
Lab@@ 1474
Les 1474
isse 1474
con 1473
T. 1472
Will 1472
Rez@@ 1471
ado@@ 1471
yes 1471
monte 1470
esp@@ 1469
1850 1468
bra 1468
ffer@@ 1467
Norman@@ 1464
ams 1463
ights 1463
Hud@@ 1462
oga 1461
Moore 1460
Chr@@ 1459
ias 1458
о@@ 1458
arp@@ 1457
egas 1456
Alter@@ 1453
DE 1453
Dark 1453
To 1453
MC 1452
Nick 1452
š 1451
Frances@@ 1450
3D 1449
back 1449
s. 1449
ML 1447
andro 1447
urn@@ 1447
1.5 1446
Hub@@ 1446
endem@@ 1446
Claude 1444
prof@@ 1444
thr@@ 1443
Jimmy 1442
Morgan 1442
Swe@@ 1442
div@@ 1442
dos 1442
1883 1441
Gener@@ 1440
egr@@ 1440
Death 1439
dua 1439
Rach@@ 1438
Robin 1437
aron 1437
ason 1437
ilit@@ 1437
Banglad@@ 1436
presti@@ 1436
Cra@@ 1435
omer@@ 1435
State 1434
integr@@ 1434
Out@@ 1433
US 1433
firma 1432
ī@@ 1432
Girls 1429
Broadway 1428
Kot@@ 1428
ental 1428
prati@@ 1428
350 1427
Arts 1427
Do 1426
ios 1426
vac@@ 1426
wen 1426
2.0 1425
Arch@@ 1425
IP@@ 1425
Great 1424
Ton@@ 1423
Mün@@ 1422
Mass@@ 1421
geb@@ 1421
ém@@ 1421
gran@@ 1420
osp@@ 1419
Universal 1418
yst@@ 1418
Sac@@ 1417
gh@@ 1416
stone 1416
Nan@@ 1415
ady 1414
itch 1414
1863 1413
Aus@@ 1413
Reb@@ 1413
ild 1413
phy 1413
ín 1413
ო@@ 1412
Cla@@ 1409
Oliver 1408
anger 1407
inn 1407
prob@@ 1406
35@@ 1405
Ji@@ 1405
Pod@@ 1405
Que@@ 1405
Isa@@ 1403
Way 1403
AV@@ 1402
Alem@@ 1402
Good 1402
Ross 1401
eck@@ 1401
£ 1401
Serv@@ 1400
ody 1400
ár@@ 1400
atri@@ 1399
aham@@ 1398
ean 1398
unter 1398
ech@@ 1396
Wayne 1395
Cass@@ 1394
Studio 1394
vel 1393
10,@@ 1392
ness 1392
Palm@@ 1391
attle 1391
zen@@ 1391
AG@@ 1389
Hass@@ 1388
Bayern 1387
Hein@@ 1387
ū 1387
1875 1386
Bla@@ 1386
bahçe 1385
ores 1384
zo@@ 1384
ogo 1383
Office 1382
PC@@ 1382
illo 1382
An 1381
Maxim@@ 1381
dorf 1381
lidae 1381
Johnny 1380
Thor@@ 1380
1873 1379
atur@@ 1379
Must@@ 1378
encer 1378
ann 1377
asim@@ 1377
Miguel 1376
ers@@ 1375
1830 1373
Jordan 1373
Ligue 1373
AD 1372
Division 1372
vid@@ 1372
ABC 1371
TS 1371
burn 1371
LA 1368
Barbara 1366
maf@@ 1366
Sag@@ 1365
mol@@ 1365
ole@@ 1365
ls 1364
mus 1364
ë 1364
Wrest@@ 1363
AG 1362
Last 1362
wn 1362
esi@@ 1361
Missouri 1360
aud 1360
band@@ 1360
pha 1360
128 1357
light 1357
til 1357
Xi@@ 1356
Form@@ 1355
igi 1355
Phoen@@ 1354
aqu@@ 1354
fres@@ 1354
Channel 1353
augh@@ 1353
esta 1353
Jonathan 1352
ful 1351
acy 1350
prom@@ 1350
22.@@ 1348
track 1348
Carlo 1347
Good@@ 1347
ills 1347
ave@@ 1346
inay@@ 1346
aph@@ 1345
1868 1343
LC 1342
1834 1341
tun@@ 1341
Para 1340
act@@ 1340
cho 1340
Hawai@@ 1339
Lyon 1339
tidae 1339
Frederick 1338
Alex@@ 1337
Che@@ 1337
Geb@@ 1337
Riv@@ 1337
bor 1337
124@@ 1336
GP@@ 1336
ents 1333
gres@@ 1330
Junior 1329
hin 1329
ps@@ 1329
1861 1328
Neg@@ 1328
Raf@@ 1328
Atlanta 1326
Santos 1326
1879 1325
Jud@@ 1325
Ris@@ 1325
Rou@@ 1324
Li 1323
36@@ 1322
André 1322
arren 1322
Fro@@ 1321
Tennessee 1320
nch@@ 1320
70@@ 1319
AR 1319
,@@ 1317
icia 1317
Raymond 1316
1872 1315
That 1315
ui 1313
Ya 1312
sion 1312
} 1311
Viz@@ 1310
ère 1310
GM 1309
ose@@ 1308
Heart 1307
Wright 1307
ely 1306
Rodr@@ 1305
E.@@ 1304
nen 1304
att 1303
12,@@ 1302
now 1301
http 1300
wal@@ 1300
What 1299
fantas@@ 1299
RC 1298
Trav@@ 1298
hir@@ 1298
21.@@ 1297
enci@@ 1296
Cec@@ 1295
Dipl@@ 1295
dou@@ 1295
ines 1295
sm@@ 1295
ê@@ 1295
1874 1294
Dy@@ 1294
Kıbr@@ 1294
pes@@ 1294
Home 1293
Port@@ 1293
alit@@ 1293
dri@@ 1293
Fac@@ 1292
ía 1292
1840 1291
ms 1291
Cham@@ 1290
Ja@@ 1290
Santiago 1290
ambi@@ 1289
arch@@ 1289
für 1289
170 1288
Boys 1286
Golden 1286
ishi 1286
Austin 1285
Dave 1285
King@@ 1285
aven 1284
illy 1284
FO@@ 1283
Rolling 1283
jo@@ 1283
oud 1283
Zo@@ 1282
eston 1282
rez 1282
alla 1281
par 1281
Stor@@ 1280
Family 1279
Josef 1279
had 1279
tern@@ 1278
olas 1277
sum@@ 1277
33@@ 1276
Cour@@ 1276
uvent@@ 1276
Bour@@ 1275
UK 1275
ems 1273
Pier@@ 1272
Zen@@ 1272
aven@@ 1272
Road 1271
Princ@@ 1270
pes 1270
esen 1269
Billy 1268
Reich 1268
ats 1268
Rog@@ 1266
Sep@@ 1266
Uta@@ 1266
ades 1266
anik@@ 1266
Airlines 1265
IC 1265
very 1264
esis 1263
Termin@@ 1261
Thi@@ 1261
trat 1261
undu 1261
Sl@@ 1260
Old 1259
Single 1259
Volks@@ 1259
Julius 1258
manga 1258
wo@@ 1258
agre@@ 1256
ehr 1256
War 1255
B.@@ 1254
,000 1253
Isab@@ 1253
Pear@@ 1253
1866 1252
And 1252
Gom@@ 1251
mos@@ 1251
oli@@ 1251
Kansas 1250
rod@@ 1250
Catherine 1249
spir@@ 1249
Alexand@@ 1248
Marc 1248
evo 1248
tive 1248
Union 1247
ague 1247
bri@@ 1247
ends 1246
hay 1246
Azerbay@@ 1245
Copa 1245
usi 1245
fu 1244
Clark 1243
Fort 1243
Wa@@ 1243
now@@ 1243
Dream 1242
Math@@ 1242
Port 1242
enne 1242
ight@@ 1242
that 1242
Cruz 1241
ges 1240
ibn 1240
prov@@ 1240
ვ@@ 1240
NS@@ 1239
enzo 1238
ion@@ 1238
Nis@@ 1237
Willi@@ 1237
ande 1237
gs 1237
Git@@ 1236
tema 1236
Eth@@ 1235
igg@@ 1235
liz@@ 1235
pus 1235
MO@@ 1233
inda 1233
reform 1233
Dani@@ 1232
Neb@@ 1232
450 1231
Frank@@ 1231
Koh@@ 1231
Power 1229
ario 1229
idge 1229
onte 1229
Dim@@ 1228
Sci@@ 1228
icum 1228
‭ 1228
ember 1227
Cru@@ 1226
Ian 1226
Series 1226
Syl@@ 1226
Digital 1225
Aut@@ 1224
Schwar@@ 1223
Shel@@ 1223
1869 1222
Gary 1222
otr@@ 1222
Dak@@ 1220
zin 1220
ს@@ 1220
Andy 1219
Beach 1218
By@@ 1218
Co 1218
ē@@ 1218
Arc@@ 1217
asp@@ 1217
isto 1217
ș@@ 1216
lac@@ 1215
æ@@ 1215
Philippe 1214
enger 1214
Č@@ 1214
1200 1213
Like 1213
ique 1213
ule 1213
ards 1212
cada 1212
Cher@@ 1210
ISO 1210
Space 1210
sch 1210
fün@@ 1209
nov@@ 1209
oro 1208
troit 1208
Colorado 1207
loc@@ 1207
Gri@@ 1206
tiva 1206
Valley 1205
erc@@ 1204
red 1204
Hind@@ 1203
Wag@@ 1203
Jose@@ 1202
Journal 1202
modi@@ 1201
aine 1200
feld 1200
Chall@@ 1199
Rid@@ 1199
ump@@ 1199
modern@@ 1197
nia 1197
Hoff@@ 1196
ê 1196
13,@@ 1195
eur@@ 1195
nus 1192
Jacob 1191
Kenya 1191
Nep@@ 1190
Internet 1189
PO@@ 1189
RS 1189
Beat@@ 1188
Lem@@ 1188
ces 1188
ids 1188
Leipzig 1187
Monte@@ 1187
Trump 1187
muz 1187
pon@@ 1187
zil@@ 1186
Nür@@ 1185
Turk@@ 1185
Carter 1184
Lug@@ 1184
gri@@ 1184
nar@@ 1184
Pos@@ 1183
Satur@@ 1182
ondo 1182
Ny@@ 1181
Story 1181
`@@ 1181
Erd@@ 1179
Spir@@ 1179
dio 1179
sult@@ 1179
Sym@@ 1178
ampton 1178
oko 1178
orn 1178
ouse 1178
Roberto 1177
T.@@ 1177
án@@ 1177
mid@@ 1176
Zh@@ 1175
gas@@ 1175
ów 1175
Burg@@ 1174
Rest@@ 1174
Sovyet@@ 1173
outh 1173
Gan@@ 1172
ander@@ 1172
At 1170
Ax@@ 1170
Jon@@ 1170
ains 1170
ations 1170
norm@@ 1169
ń@@ 1169
Bra@@ 1168
eds 1168
17,@@ 1166
Pac@@ 1166
Franco 1165
Hip@@ 1165
Rock@@ 1164
Wer@@ 1164
UR@@ 1163
5000 1162
EM@@ 1162
direk@@ 1162
Cast@@ 1161
GC 1161
Light 1160
South@@ 1160
fac@@ 1160
‬ 1160
fed@@ 1158
onne 1158
ron 1158
ümüz@@ 1158
α 1157
IE@@ 1156
Sund@@ 1156
100@@ 1155
Georges 1155
kura 1155
Best@@ 1154
Run@@ 1154
Sport@@ 1154
zer 1154
Produc@@ 1153
chen 1153
arry 1152
borough 1152
Dow@@ 1151
ancy 1151
lag@@ 1151
135 1150
Gren@@ 1150
Lau@@ 1150
Rel@@ 1150
sup@@ 1149
Hermann 1148
fah@@ 1148
uti@@ 1148
Moon 1147
wer 1147
\ 1146
მ@@ 1146
Bres@@ 1145
For 1144
Iv@@ 1144
ATP 1143
Alberto 1143
Mang@@ 1143
Stein@@ 1142
Museum 1141
ric 1141
ume 1141
1862 1140
eran 1140
sh 1139
Wisconsin 1138
ril 1138
she 1138
wald 1138
3,5 1137
Lucas 1137
Us@@ 1137
CP@@ 1136
Central 1136
neo 1136
vent@@ 1136
And@@ 1135
Stanley 1135
VP 1135
sons 1135
Mom@@ 1134
Point 1133
Dans 1132
May 1132
wil@@ 1131
är@@ 1131
103 1129
ege 1129
rie 1129
alli@@ 1128
Ontario 1127
Thom@@ 1127
tho@@ 1127
ache 1126
tos 1126
Thompson 1125
hard@@ 1125
Mississippi 1124
wick 1124
Marco 1123
Nelson 1123
avier 1123
Esp@@ 1122
Ma 1122
Rud@@ 1122
zona 1122
Prince 1121
Roy 1121
Sierra 1121
lab@@ 1121
rag@@ 1121
2.5 1120
maktay@@ 1120
Comics 1119
IG@@ 1119
Lep@@ 1118
ward 1118
118@@ 1117
Sever@@ 1116
face 1116
oes 1116
uri@@ 1116
თ@@ 1116
wagen 1115
eu@@ 1114
plo@@ 1114
Agu@@ 1113
Ann 1113
stadt 1113
Alber@@ 1112
Robinson 1112
1828 1111
26.@@ 1111
ways 1111
Ple@@ 1110
festival 1110
Cot@@ 1109
Open 1109
Ster@@ 1109
Atlé@@ 1108
Comp@@ 1108
Jack@@ 1107
45@@ 1106
Nad@@ 1106
Gold 1104
BI 1103
emann 1103
val 1103
zur 1103
Fire 1102
els@@ 1102
104 1101
Bruno 1101
Men 1101
Stuttgart 1101
dul@@ 1101
ott 1101
Carol@@ 1100
Global 1100
It@@ 1100
Sports 1100
sif 1100
Kentucky 1098
mab@@ 1098
119@@ 1097
habit@@ 1097
vic@@ 1097
Aqu@@ 1096
Well@@ 1096
aut 1096
ual 1096
ape 1095
lier 1095
pas 1095
Lon@@ 1094
itar 1094
lio 1094
bourg 1093
igh 1093
Il 1092
Lac@@ 1092
Montre@@ 1092
Angola 1091
Plan 1091
any 1091
hip@@ 1091
FL 1090
Wy@@ 1089
antes 1089
Kak@@ 1088
Long@@ 1088
Der 1087
Diam@@ 1087
Thr@@ 1086
dedi@@ 1086
eim 1086
Dakota 1085
üh@@ 1084
afir@@ 1083
bian 1083
eros 1083
′ 1083
Book 1082
mobil@@ 1082
Texas 1081
alo 1081
entum 1081
uti 1081
wat@@ 1081
Java 1080
Rein@@ 1080
cara 1080
cht 1080
enter@@ 1080
~ 1080
Institute 1079
wi@@ 1079
NBC 1078
System 1078
ph 1078
qui@@ 1078
vec@@ 1078
Scar@@ 1077
core 1077
37@@ 1076
Alabama 1076
Kop@@ 1075
Type 1075
ʿ@@ 1075
Grant 1074
Maryland 1074
WW@@ 1074
Nicolas 1073
alus 1073
etto 1073
gom@@ 1072
Press 1071
Anton 1070
Just 1070
Stre@@ 1070
én 1070
burg@@ 1069
rad 1069
ry@@ 1069
Wehr@@ 1068
edral 1068
Herbert 1067
bre 1067
laka 1067
Academy 1066
Mov@@ 1066
enes 1066
our@@ 1065
Georg 1062
alog@@ 1062
anie 1061
athan 1061
J.@@ 1060
cop@@ 1060
Band@@ 1059
Fred 1059
Stewart 1058
aris 1058
chester 1058
eum 1058
sho@@ 1058
CC@@ 1057
onga 1057
ted 1057
HC 1056
anto 1056
115@@ 1054
Iowa 1054
Monte 1053
UTC 1053
dian 1053
vik@@ 1053
ы@@ 1053
End 1052
Magazine 1052
750 1051
Fak@@ 1051
sept 1051
Anat@@ 1050
Mexico 1050
Sevilla 1050
andi@@ 1050
formes 1050
э@@ 1050
Master 1049
https 1049
Andreas 1047
Oregon 1047
ingo 1047
Beg@@ 1046
DF 1046
Iron 1046
via 1046
vier 1046
ous@@ 1045
sing@@ 1044
Da 1043
Fem@@ 1043
rece@@ 1043
Fame 1042
Hart@@ 1042
Stat@@ 1042
Chem@@ 1041
Maurice 1041
sta@@ 1041
1856 1040
Fres@@ 1040
emper@@ 1040
main 1040
Paraguay 1038
Salvador 1038
fo 1038
iva 1037
uka 1037
eppe 1036
pros@@ 1036
Hotel 1035
amen 1035
ear@@ 1035
atas@@ 1033
iser 1033
kus 1033
ells 1032
tot@@ 1032
ture 1032
Id@@ 1031
Rav@@ 1031
macht 1031
tern 1031
CBS 1029
mul@@ 1029
bus@@ 1028
by@@ 1028
elly 1028
uel@@ 1028
109 1027
acher 1027
aug@@ 1027
eb 1027
tric 1027
card 1026
inge 1026
tz@@ 1026
Fig@@ 1025
kati 1025
umia 1025
BK 1024
Grim@@ 1024
view 1024
ა 1024
enos 1023
urs@@ 1023
Madag@@ 1022
lard 1022
peri@@ 1022
Leopol@@ 1021
Person@@ 1021
act 1020
castle 1020
ál@@ 1020
Baden 1019
gia 1019
Fun@@ 1017
Graf@@ 1017
Science 1017
uno 1017
е@@ 1017
Brothers 1016
Lot@@ 1016
eland 1016
115 1015
enta 1015
1859 1014
Jak@@ 1014
უ@@ 1014
14,@@ 1013
bs 1013
ec 1012
ð@@ 1012
Ng@@ 1011
idel@@ 1011
Gros@@ 1010
Olympi@@ 1010
Liste 1009
NCA@@ 1009
Nicol@@ 1009
andi 1009
è@@ 1009
Roy@@ 1008
bad 1008
fahr@@ 1008
jet@@ 1008
lot 1008
Ž@@ 1008
ego 1007
seven 1007
Charl@@ 1006
Inst@@ 1006
Two 1006
102 1005
IT@@ 1004
N. 1004
fri@@ 1004
Johannes 1001
ifa 1001
90@@ 1000
CF 1000
Glas@@ 1000
H.@@ 999
Vie@@ 999
י@@ 999
Sky 998
August 996
L.@@ 996
pot 996
Women 995
wall 995
34@@ 994
Awards 994
difer@@ 994
iles 994
Forest 993
Micro@@ 993
Theatre 993
pedi@@ 993
sola 993
Back 992
Martin@@ 992
Songs 992
Syn@@ 992
won 992
Fahr@@ 991
Vin@@ 991
atis@@ 991
hist@@ 991
IBM 990
Lud@@ 990
SE 990
Sri 990
xi 990
Cant@@ 989
én@@ 989
Ind@@ 988
You@@ 988
über@@ 988
alls 987
ony 987
r. 987
less 986
İng@@ 986
106 985
fran@@ 985
Vall@@ 984
nis 984
Toul@@ 983
cover 983
mani 983
Rudolf 982
rates 982
Ped@@ 981
^ 981
ayo 981
mark 980
107 979
under 979
1857 978
post 978
Bez@@ 977
lon@@ 977
ré@@ 977
1849 976
Hut@@ 976
Italia 976
utt@@ 976
38@@ 975
sl@@ 975
él@@ 975
240 974
Plus 973
lers 973
1831 972
Law@@ 972
bau@@ 972
ski@@ 972
ection 970
Bang@@ 969
Off@@ 969
codice 969
etz 969
town 969
Dad@@ 968
Prov@@ 967
even 966
mos 966
web@@ 966
ña 965
15,@@ 964
1826 964
Fern@@ 964
Nord@@ 964
Shir@@ 963
ern 963
Gustav 962
iliz 962
och 962
ī 962
Baker 961
Phili@@ 961
ily 961
Cape 960
Earth 960
Melbourne 960
emat@@ 960
pson 960
1600 959
Ander@@ 959
Now 959
angers 959
Jul@@ 958
nos 958
Main@@ 957
1855 956
108 955
1854 954
Wel@@ 954
Reich@@ 953
aun 952
dh@@ 952
25.@@ 951
Coll@@ 951
Sur 951
heim@@ 950
mm@@ 950
PP@@ 949
amar@@ 949
Orange 948
Glo@@ 947
Vid@@ 947
So 946
Walker 946
Wind@@ 946
ough@@ 946
xon 946
Coc@@ 945
EC@@ 944
liga 944
II. 943
SI 943
limit@@ 942
Luf@@ 941
Lé@@ 941
mama 941
wan 941
ú 941
aran 940
ather 940
Hall@@ 939
grav@@ 939
put@@ 939
tn@@ 939
Pow@@ 938
uro 938
16,@@ 937
24.@@ 937
sept@@ 937
lö@@ 936
sec@@ 936
Fantas@@ 935
avo 935
As 934
eu 934
nam 934
pant@@ 934
a.@@ 933
down 933
ennis 933
tart@@ 932
Las@@ 931
amor@@ 931
dez 931
ode 931
Ich@@ 930
Sult@@ 930
uto 929
1839 928
etes 928
GA 927
Jorge 927
isher 927
orer 927
rive 927
try 927
Band 926
Nig@@ 926
Shu@@ 926
ality 926
orf 926
pp 926
Ach@@ 925
Ret@@ 925
Sti@@ 925
1789 924
Lec@@ 924
God 923
R.@@ 923
char@@ 923
egal 923
sha 923
̣ 923
Four@@ 922
Rafael 922
Tag 922
Kid@@ 921
Lincol@@ 920
osis 920
sof@@ 920
ants 919
head 919
Water@@ 918
aku 918
erer 918
201@@ 917
Chev@@ 917
achi 917
ennes 917
ism 917
aker 916
pig@@ 916
Wolf 915
gy 915
Sport 914
auer 914
Sup@@ 912
Tow@@ 912
dist@@ 912
illon 912
ops 912
Broad@@ 911
Kib@@ 911
1858 910
vill@@ 910
People 909
isha 909
DO@@ 908
ML@@ 908
een 908
ology 908
SI@@ 907
aden 907
into 907
BO@@ 906
Departamento 906
Jun@@ 906
Ğ@@ 906
27,@@ 904
ative 904
cat@@ 904
heavy 904
Tag@@ 903
Valencia 903
ô@@ 903
Aff@@ 902
XI 902
cle 902
Feli@@ 901
ilo 901
other 901
Gau@@ 899
com 899
EN@@ 898
kn@@ 898
trib@@ 898
ège 898
ène 898
Athle@@ 897
1836 896
550 896
IA 896
hut@@ 896
opa 896
style 896
Iz@@ 895
1853 894
4000 894
BN 894
inst@@ 894
lands 894
46@@ 893
Freder@@ 893
gn@@ 893
ux 893
agen 892
39@@ 891
Christi@@ 891
SR 891
aut@@ 891
blu@@ 891
chin@@ 891
nm 891
Fle@@ 890
online 890
Castro 889
Denis 889
Pablo 889
Salz@@ 889
bli@@ 889
Leb@@ 888
Business 887
Carolina 887
Tai@@ 887
ados 887
→ 887
Project 886
220 885
Rosa 885
Yes@@ 885
frag@@ 885
hua 885
és 884
master 883
Chart 882
dition 882
ხ@@ 882
1851 881
ბ@@ 881
1845 880
Bapti@@ 880
Emer@@ 879
aro@@ 879
win@@ 879
Atl@@ 877
ien 877
Det@@ 876
direc@@ 876
ו@@ 876
Apo@@ 875
Guatemala 875
öne@@ 875
Griff@@ 874
RA 874
esh 874
rup@@ 874
Daily 873
Express 872
Zimbab@@ 872
ling@@ 872
İsp@@ 872
Born 870
1847 869
Direc@@ 869
Eug@@ 869
nete 869
111 868
Sov@@ 868
ilia 868
Di 867
pur@@ 867
Free 866
bud@@ 866
ˈ@@ 866
ر@@ 866
Hannover 865
1829 864
ischer 864
65@@ 863
atum 863
25. 862
mix@@ 862
ots 862
scope 862
Capit@@ 861
Comm@@ 861
Force 861
Mab@@ 861
Vog@@ 861
rep@@ 861
112 860
Fried@@ 858
Pand@@ 858
uni@@ 858
ï@@ 858
122 857
eine 857
დ@@ 857
1815 856
75@@ 856
Ltd 856
agua 856
kip@@ 856
3.5 855
Khan 855
Pyr@@ 855
Racing 855
bul 855
ekt 855
pet@@ 855
Chir@@ 854
Von 854
XIV 853
got@@ 853
tivi@@ 853
ā 853
Felipe 852
Louise 852
ayna 852
1837 851
prop@@ 851
ès 851
D.@@ 850
arina 850
eg 850
ä 850
1846 849
Boul@@ 849
Western 849
ature 849
Å@@ 849
XII 848
afor@@ 848
dex 848
ouver 848
Ass@@ 847
ect@@ 847
haci@@ 847
22@@ 846
XIII 846
1700 845
Hau@@ 845
Summer 845
ilian 845
Cros@@ 844
cript 844
rid 844
„ 843
Asp@@ 842
More 842
urus 842
44@@ 841
Eas@@ 841
Gard@@ 841
pod@@ 841
А@@ 841
voy@@ 840
1812 839
1820 839
Ayn@@ 839
HMS 839
María 838
Pass@@ 836
anes 836
ares 835
strong 835
ř@@ 835
atu 834
hib@@ 834
ld@@ 834
Acc@@ 833
Hr@@ 833
Rhy@@ 833
fab@@ 833
uza 833
Á@@ 833
1844 832
Indi@@ 832
Na 832
ree 832
vers@@ 831
Cha@@ 830
Patri@@ 830
put 830
size 830
68@@ 829
Mé@@ 829
27.@@ 828
Bremen 828
CS 828
Jim@@ 828
abri@@ 828
e.@@ 828
German@@ 827
Syst@@ 827
dea 827
ose 827
them 827
Jur@@ 826
aska 826
auf 825
board 825
ring 825
uo 825
127 824
Abu 824
gel 824
1814 822
CC 822
fte 822
get 822
rif@@ 822
114@@ 821
49@@ 821
Jum@@ 821
fried 821
Adel@@ 820
Amp@@ 820
adil@@ 820
egel 820
rio 820
CN 819
elop@@ 819
Venez@@ 818
my@@ 818
uga 818
VA 817
oral 817
Line 816
· 816
Up@@ 815
C.@@ 814
fit 814
isch 814
õ@@ 812
LO@@ 811
print 811
thy 810
ór@@ 810
ures 809
190 808
England 808
maj@@ 808
High@@ 807
320 806
alem@@ 806
rati@@ 806
band 805
cos 805
erse 805
Cou@@ 804
European 804
Nacional 804
ision 804
tle 803
Bret@@ 802
Politik 802
its@@ 802
ě@@ 802
anot@@ 801
1821 800
Country 800
chen@@ 800
hen 800
kina 800
was 800
Benedi@@ 798
IF@@ 798
Roh@@ 798
Tour@@ 797
App@@ 796
XVI 796
acht 796
GT 795
tors 795
uj@@ 795
57@@ 794
Pennsylvania 794
55@@ 793
Stil@@ 793
izer 793
48@@ 792
Bach 792
Carr@@ 792
NH@@ 792
École 792
aland 791
vy@@ 791
ône 791
č 791
Land 790
210 789
inz@@ 789
Campbell 788
atini 787
sala 787
abor@@ 786
bec 786
phia 786
ob 785
syn@@ 785
onald 784
ophie 784
uld 784
47@@ 783
650 783
CO 783
Jazz 783
odi 783
230 781
aben 781
berger 781
ush 781
Over 780
Terr@@ 780
cli@@ 780
oug@@ 780
Metropolit@@ 779
Squ@@ 779
cus@@ 779
xi@@ 779
à@@ 779
1832 777
LP 777
René 777
Sud@@ 777
igan 776
Ç 776
Japan 775
aves 775
daf@@ 775
dier 775
loy@@ 775
sera 775
Classi@@ 774
tham 774
Fort@@ 773
ampa 773
intern@@ 773
Sound 772
opp@@ 772
pers 772
CE 771
Uganda 771
fun@@ 771
Nati@@ 770
asha 770
Jag@@ 769
ands 768
ink 768
lararası 768
ois 768
SG 767
Techn@@ 767
gang@@ 767
Crist@@ 766
EE 766
XV@@ 766
inat@@ 766
radi@@ 766
mouth 765
phi 765
prol@@ 765
rich@@ 765
see 765
Cri@@ 764
Map@@ 764
Mountain 764
pit@@ 764
Party 763
agi@@ 763
but@@ 763
enh@@ 763
fur@@ 763
tru@@ 763
Battle 762
iter@@ 762
Cho@@ 761
Soh@@ 761
121 760
330 760
Rit@@ 760
ui@@ 760
Champ@@ 759
ls@@ 758
yoy@@ 758
Dod@@ 757
seri@@ 757
Mann 756
oso 756
117 755
andra 755
ites 755
Nob@@ 754
thor@@ 754
fast 753
nez 753
out@@ 753
56@@ 752
ffe 752
witz 752
Ō@@ 752
β 752
Bé@@ 751
Cross 751
DI 751
endr@@ 751
rich 751
tivo 751
Head 750
Stars 750
cast 750
ying 750
sz@@ 749
а 749
Over@@ 748
Was@@ 748
khe@@ 748
lake 748
123 747
än@@ 747
Four 746
NS 746
Si 746
Stur@@ 746
ames 746
rea 745
tienne 745
Arkansas 744
bridge 744
onidae 744
sberg 744
laya 742
Costa 741
Inn@@ 740
onel 740
vari@@ 740
ös@@ 740
1852 739
PR@@ 739
Raj@@ 739
afr@@ 738
omy@@ 738
Santo 735
Agr@@ 734
Rö@@ 734
USA 734
zus@@ 734
District 733
Research 733
ahn 733
inga 733
Ut@@ 732
4,5 731
Deutsche 731
Pseud@@ 731
ged@@ 731
opsis 731
კ@@ 731
Square 730
Sydney 730
midt 730
star@@ 730
Wander@@ 729
IO@@ 728
Mr@@ 728
Natur@@ 728
Test@@ 728
ign 728
pedia 728
Pach@@ 727
ix@@ 727
Dj@@ 726
PM 726
ahl 726
fav@@ 726
р@@ 726
Juni@@ 725
ος 725
1841 724
She 724
Singles 724
away 724
tory 724
ć@@ 724
Pho@@ 722
trat@@ 722
Scot@@ 721
Coun@@ 720
Empire 720
Sieg@@ 719
uer@@ 719
Sea 718
acab@@ 718
pper 718
67@@ 717
Dut@@ 717
itzer 716
pio 716
117@@ 715
DR 715
Edu@@ 715
Er 715
ael 715
vul@@ 715
р 715
Dresden 714
ria 714
you 714
Europe 713
Gusta@@ 713
Television 713
essen 713
ə 713
1843 712
Poli@@ 712
show 712
uktur 712
dé@@ 711
gli@@ 711
ه 711
rail@@ 710
alie 709
itter 709
ovu 709
sei 709
1842 708
Prom@@ 708
omp@@ 708
Wolfgang 707
rest 707
sou@@ 707
59@@ 706
Anth@@ 706
asia 706
cell 705
Antoine 704
SN@@ 704
eca 704
harmon@@ 704
kw@@ 704
1833 703
Alpes 703
23,@@ 702
fort 702
і@@ 702
idad 701
Law 700
ON@@ 700
Wolf@@ 699
oon 699
tier 698
1838 697
Award 697
With 697
alen 697
ische 697
tas 697
tical 697
124 696
tag@@ 696
vit 696
és@@ 696
Wiki@@ 695
ono 695
116 694
126 694
Orig@@ 694
у@@ 694
History 692
Seine 692
When 692
XX 692
adili 692
ś@@ 692
22,@@ 691
Three 691
amini 691
bers 691
kund@@ 691
ute 691
anten 690
Creek 689
Depor@@ 689
1790 688
270 688
motiv@@ 688
145 687
27. 687
Fritz 687
finden 687
ican 687
ums 686
ă 686
vor@@ 685
yek@@ 685
Württemberg 684
elos 684
113 683
zim@@ 683
113@@ 682
Limited 682
asse 682
lies 682
idas 681
isme 681
oza 681
ror 681
26. 680
129 679
Foundation 679
dom 679
usu@@ 679
280 678
IT 678
Müller 678
English 677
Gabri@@ 677
P.@@ 677
edia 677
otte 677
2500 676
58@@ 676
eber@@ 676
oir 676
usi@@ 676
wa@@ 676
114 675
Ble@@ 675
Düssel@@ 675
Schw@@ 675
USS 675
Standard 674
kez@@ 674
ostr@@ 674
Reichs@@ 673
XV 673
hici@@ 673
roy@@ 673
weight 673
ols 672
pri@@ 672
1827 671
quez 671
è 671
ė 671
х@@ 671
country 670
Neu@@ 669
unge 669
vera 669
Vy@@ 668
beck 667
dipl@@ 667
mont@@ 667
Am 666
116@@ 665
Kro@@ 665
occ@@ 665
oven 665
Atlantic 664
Clu@@ 664
atos 664
spr@@ 664
Extr@@ 663
Soc@@ 663
domin@@ 663
sana 663
ving 663
43@@ 662
Mount 661
Werner 661
aud@@ 661
260 660
Franc@@ 660
active 660
Sá@@ 659
lion 659
ques 659
than 659
1808 657
Fe 656
Inc. 656
Service 656
arch 656
get@@ 656
How@@ 655
duc@@ 655
wards 654
Bridge 652
Köl@@ 652
tronic 652
Columb@@ 651
born 651
deren 651
22. 650
Technology 650
edy 650
1300 649
Comput@@ 649
Spiel@@ 649
dre 649
dren 649
1400 648
Ear@@ 648
Sa 648
sea 648
к@@ 648
118 647
Doc@@ 647
Ent@@ 647
vu@@ 647
programa 646
Córdoba 644
Dame 644
He 644
cer 644
jana 644
berto 643
führer 643
Publ@@ 642
Miss@@ 641
allo 641
Buch@@ 640
Mau@@ 640
aku@@ 640
angi 640
ستان 640
Major 639
haus 639
ping 639
tempor@@ 639
umin@@ 639
court 638
polit@@ 638
sive 638
გ@@ 638
1806 637
García 637
China 636
kari 636
bia 635
bonne 635
oti 635
wh@@ 635
1810 634
Alexandre 634
apo 634
elles 634
Ł@@ 634
bei 633
ilio 633
tari 633
Ba 632
Brig@@ 632
Kiy@@ 632
aft@@ 632
life 632
Laurent 631
Poc@@ 631
Kag@@ 630
Tang@@ 630
emo 630
isch@@ 630
Dru@@ 629
eko 629
sia 629
N.@@ 628
cot@@ 628
erie 628
irk 628
ingi 627
ive 627
Mann@@ 626
Wak@@ 626
anni 625
batt@@ 625
rac@@ 625
tie 625
From 624
Penn@@ 624
132 623
155 623
oft 623
1813 622
enton@@ 622
oul 622
vern@@ 622
xe 622
Bass@@ 621
Dar 621
K.@@ 621
Norte 621
param@@ 621
water 621
Card@@ 620
175 619
66@@ 619
Independ@@ 619
che@@ 619
ior 619
rus@@ 619
EC 618
Fall 618
naf@@ 618
sag@@ 618
1819 617
Bib@@ 616
Fener@@ 616
Software 616
ading 616
Canada 615
Imp@@ 615
Place 615
ext 615
ás@@ 615
Đ@@ 615
Duke 614
Vig@@ 614
phon@@ 614
23. 613
arti@@ 613
dete 613
vert 613
III. 612
19,@@ 611
Hoh@@ 611
ating 611
c. 611
ր@@ 611
24. 609
Un 609
hang 609
ę@@ 609
1793 608
bara 608
quot 608
й 608
iker 607
nin@@ 607
ories 607
s.@@ 607
Rat@@ 606
dro@@ 606
ox@@ 606
Industri@@ 605
tion@@ 605
ural 605
Québec 604
adol@@ 604
fle@@ 604
gro@@ 604
zum 604
ò 604
119 603
gens 603
1792 602
20,@@ 602
Jor@@ 602
einer 602
king@@ 602
vie 602
Gle@@ 601
If 601
round 601
н 601
53@@ 600
After 600
ulia 600
26,@@ 599
Gest@@ 599
Gott@@ 599
Lima 599
Will@@ 599
aise 599
change 599
Fall@@ 598
Führ@@ 598
Rep@@ 596
Viol@@ 596
شه@@ 596
dra@@ 595
1825 594
John@@ 594
anthus 594
bis 594
enna 594
enten 594
market 594
uku 594
Aug@@ 593
Hern@@ 593
berg@@ 593
duras 593
Gut@@ 592
Sonn@@ 591
brand 591
hausen 591
icul@@ 591
López 590
erb@@ 590
éli@@ 590
artisti@@ 589
d. 589
denk@@ 589
last 589
oides 589
performan@@ 589
rain 589
ո@@ 589
dad 588
nier 588
pu 588
О@@ 588
Fam@@ 587
arra 587
doc@@ 587
Rac@@ 586
poly@@ 586
ysis 586
152 585
Gonz@@ 585
González 585
host@@ 585
pool 585
380 584
azu 584
0,5 583
ages 583
ingen@@ 583
orb@@ 583
ís 583
wor@@ 582
ს 582
1804 581
ead 581
ety 581
inas 581
lec@@ 581
América 580
Under 580
body 580
deg@@ 580
э 580
Lic@@ 579
Song@@ 579
bell 579
enth@@ 579
anza 578
1809 577
Bill@@ 577
Herz@@ 577
enz 577
л@@ 577
1801 576
1822 576
Amer@@ 576
endel@@ 576
ial 576
Cath@@ 575
Kno@@ 574
Maf@@ 574
affen 574
aí@@ 574
kali 574
sah 573
1818 572
sing 572
на 572
Alej@@ 570
Eisen@@ 570
Phys@@ 570
dium 570
black 569
Alliance 568
Bach@@ 568
Refer@@ 568
1816 567
Sph@@ 567
Val 567
cit@@ 567
kata 567
1807 566
Year 566
auch@@ 566
right 566
Field 565
Hier@@ 565
Suc@@ 565
Zu@@ 565
nec@@ 565
Tenn@@ 564
adio 564
imen 564
itas 564
uel 564
Champions 563
Coupe 563
Famil@@ 563
erh@@ 563
qua 563
ras 563
sten@@ 563
dej@@ 562
imin@@ 562
law 562
Chron@@ 561
Ou@@ 561
Viet@@ 560
alta 560
ț@@ 560
199@@ 559
ches 559
flü@@ 559
Castle 558
asis 558
ils 558
Chal@@ 557
Sach@@ 557
acle 557
hot@@ 557
asc@@ 556
cim@@ 556
nim@@ 556
onds 556
taine 556
1824 555
Haus@@ 555
ense@@ 555
inv@@ 555
itali@@ 555
ouv@@ 555
Desp@@ 554
Vladi@@ 554
pen 554
bao 553
oll 553
orn@@ 552
24,@@ 551
oux 551
tag 551
cum@@ 550
Lö@@ 549
enst@@ 549
179@@ 548
Elisabeth 548
odes 548
ongo 548
rant 548
Plaza 547
Prin@@ 547
amount 547
ector 547
Bür@@ 546
Das 546
pic@@ 546
--@@ 545
Alfonso 545
Anh@@ 544
Fernández 544
quin@@ 544
real 544
self 544
sions 544
ël 544
Hamil@@ 543
Sin 543
Wan@@ 543
ball@@ 543
cine 543
iku@@ 543
sdorf 543
Guadal@@ 542
lau@@ 542
ofu 542
reci@@ 542
1798 541
Tex@@ 541
ads 541
cyc@@ 541
Bras@@ 540
bourne 540
nde@@ 540
color 539
Winter@@ 538
phone 538
Coast 537
osi 537
tum@@ 537
Commun@@ 536
ausen 536
cartes 536
ustos 536
к 536
eas 535
lug@@ 535
ʻ@@ 535
Ib@@ 534
ata@@ 534
firm@@ 534
roc@@ 534
veh@@ 534
absor@@ 533
eos 533
night 533
א@@ 533
1791 532
Centre 532
Human 532
Wis@@ 532
aji 532
eur 532
monta@@ 532
Econom@@ 531
stock 531
text 531
Franç@@ 530
orio 530
tera 530
amed 529
micro@@ 529
Eduardo 528
Olymp@@ 528
death 527
ock@@ 527
Ost@@ 526
Schne@@ 526
echt 526
erre 526
gos 526
rh@@ 526
kid@@ 525
oras 525
phy@@ 525
ш@@ 525
Hyp@@ 524
Kais@@ 524
Lew@@ 524
ingu@@ 524
isco 524
jit@@ 524
ubil@@ 524
г@@ 524
Rodríguez 523
arron@@ 523
flora 523
wid@@ 523
ר@@ 523
cho@@ 522
tain 522
efe 521
inson 521
С@@ 521
Design 520
Europa 520
meth@@ 520
1817 519
craft 519
progres@@ 519
uss 519
works 519
ه@@ 519
Asi@@ 518
Bish@@ 518
bio 518
cou@@ 518
embran@@ 518
± 518
Ál@@ 518
μ@@ 518
м@@ 518
1805 517
NFL 517
dle 517
olds 517
spo@@ 517
abu 516
left 516
Philos@@ 515
Premi@@ 515
States 515
mis 515
rd 515
ß 515
99@@ 514
Nom@@ 514
Special 514
casting 514
onde 514
world 514
ý 514
ტ@@ 514
1797 513
1811 513
prise 513
Î@@ 513
Braun@@ 512
Bundes@@ 512
ause 512
unga 512
Eff@@ 511
Winter 511
unds 511
Films 510
Liter@@ 510
1795 509
Wid@@ 509
avia 509
Main 508
Tech@@ 508
atic 508
lea 508
prin@@ 508
ules 508
Ha 507
cy@@ 507
imp@@ 506
tend@@ 506
wak@@ 506
1823 505
Mar 505
There 505
flu@@ 505
role 505
Emp@@ 504
F.@@ 504
Obj@@ 504
but 504
eon@@ 504
Loire 503
arts 503
zel@@ 503
Bas 502
anci@@ 501
Anadol@@ 500
anst@@ 500
arios 500
other@@ 500
pati@@ 500
äl@@ 500
Public 499
double 499
rail 499
25,@@ 498
Council 498
Hof@@ 498
Papua 498
Ré@@ 498
anger@@ 498
ground 498
occer 498
1802 497
30. 497
Ehr@@ 497
Jesus 497
inj@@ 497
Church 496
kik@@ 496
ool 496
vio 496
España 495
Moder@@ 495
ross 495
Uru@@ 494
leist@@ 493
retr@@ 493
rier 493
ufu@@ 493
ե@@ 493
Gran 492
assi@@ 492
uku@@ 492
21,@@ 491
Austr@@ 491
GmbH 491
ambo 491
beg@@ 491
defin@@ 491
western 491
work 491
Ago@@ 490
Kingdom 490
ą@@ 490
Eis@@ 489
chan@@ 489
live 489
onder@@ 489
س@@ 489
Dau@@ 488
Kapit@@ 488
Second 488
Stadi@@ 488
ship 488
toria 488
Dé@@ 487
enia 487
zis@@ 487
Río 486
engo 486
má@@ 486
fem@@ 485
global 485
nad@@ 485
ographi@@ 485
viv@@ 485
Audi@@ 484
Kik@@ 484
Vinc@@ 484
format 484
magaz@@ 484
ppi 483
verte@@ 483
ქ@@ 483
Margar@@ 482
azo 482
asili 481
lag 481
Bibli@@ 480
Memorial 480
Nord 480
Quer@@ 480
Universit@@ 480
entry 480
tice 480
wing 480
1803 479
Mia 479
Sign@@ 479
ampli@@ 479
chu@@ 479
phil@@ 479
war 479
5,000 478
atu@@ 478
utz 478
ő@@ 478
aup@@ 477
atz@@ 475
ext@@ 475
quit@@ 475
rut@@ 475
ladi@@ 474
stre@@ 474
₺ 474
Constant@@ 473
Jung@@ 473
ening 472
1794 471
Inv@@ 471
new 471
● 471
jar@@ 470
opus 470
ն 470
fru@@ 469
ires 469
Wein@@ 468
Dop@@ 467
ird 467
mile 467
Theo 466
drei 466
ác@@ 466
éc@@ 466
د@@ 466
akula 465
omin@@ 465
pro 465
station 465
ég@@ 465
н@@ 465
Martín 464
endorf 464
quel@@ 464
Peti@@ 463
Seh@@ 463
forme 463
recht 463
Herr@@ 462
mari@@ 462
sian 460
ν 460
Enrique 459
lery 459
Studi@@ 458
obr@@ 458
sie 458
Autom@@ 457
Fron@@ 457
Int@@ 457
multi@@ 457
qui 457
Nap@@ 456
stream 456
Du 455
Earl 455
Production 455
Rug@@ 455
XVIII 455
cip@@ 455
entes 455
pez 455
seli 455
Township 454
amos 454
background 454
ble@@ 454
lois 454
oun 454
vas 454
volution 454
Chi 453
Chrys@@ 453
Contin@@ 453
Notre 453
mid 453
Order 452
See 452
ering 452
onic 452
Fren@@ 451
León 451
Thé@@ 451
demi 451
acia 450
infr@@ 450
refle@@ 449
Associ@@ 448
Guillaume 448
Pf@@ 448
eben 448
wie 448
т@@ 448
ь@@ 448
מ@@ 448
Hamb@@ 447
Sciences 447
ń 447
1,0@@ 446
Crim@@ 446
Vari@@ 446
illing 446
sac@@ 446
sorg@@ 446
French 445
Name 444
Soci@@ 444
Wir@@ 444
book 444
manif@@ 444
othe@@ 444
tig 444
cher@@ 443
dot@@ 443
ful@@ 443
ishing 443
Alfre@@ 442
allen 442
eiro 442
onen 442
Indian 441
Kirch@@ 441
Management 441
Theater 441
favor@@ 441
ords 441
que@@ 441
ingi@@ 440
ouvre 440
raine 440
Catal@@ 439
Pacific 439
ambul@@ 439
olia 439
Medical 438
fis@@ 438
gers 437
mad 437
ms@@ 437
stand 437
Marse@@ 436
Southern 436
Stadium 436
bid@@ 436
ς 436
India 435
Schul@@ 435
Social 435
enda 434
kho@@ 434
stead 434
nig@@ 433
plic@@ 433
table 433
wel@@ 433
π 433
1799 432
Community 432
Trich@@ 432
huy@@ 432
onym@@ 432
this 432
tista 432
Station 431
Wien 431
bili@@ 431
jeni 431
thing 431
ב@@ 431
alto 430
coun@@ 430
stanbul 430
Anto@@ 429
Sour@@ 429
cab@@ 429
oc 429
ité 428
ogne 428
Cô@@ 427
stop 427
them@@ 427
ühr@@ 427
т 427
ე 427
შ@@ 427
Development 426
NAS@@ 426
asisi 426
later 426
lie@@ 426
Alli@@ 425
Chor@@ 425
onc@@ 425
üssel@@ 425
д@@ 425
zia 423
ì 423
fund@@ 422
igen 422
venti@@ 422
g. 421
seau 421
vez 420
198@@ 419
----@@ 418
DV@@ 418
Primera 418
fish 418
spi@@ 418
Áng@@ 418
đ@@ 418
Feld@@ 416
erst@@ 416
west 416
lich 415
ţ@@ 415
Burundi 414
embr@@ 414
fire 414
rig@@ 414
Code 412
Republic 412
onz@@ 412
serve 412
بن 412
Buil@@ 411
Court 411
Makao 411
München 411
age@@ 411
umi@@ 411
Fré@@ 410
sto@@ 410
Finale 409
asser 409
chia 408
four 408
icio 408
mente 408
Chel@@ 407
Pérez 407
SPD 407
aum 407
ebo@@ 407
ties 407
tres 407
tropolit@@ 407
umba 407
Armen@@ 406
Yoh@@ 406
ament@@ 406
anced 406
ives 406
Т@@ 406
10,000 405
emer@@ 405
sula 405
ː@@ 405
ה@@ 405
Asia 404
Klo@@ 404
erra 404
igi@@ 404
К@@ 404
Itali@@ 403
ә@@ 403
Chin@@ 402
Ufa 402
θ 402
ان 402
Casa 401
acio 401
deo 401
lez 401
И@@ 401
adu@@ 400
ails 400
amia 400
lower 400
py@@ 400
quer@@ 400
и 400
Board 399
Für@@ 399
ects 399
з@@ 399
Deutsch@@ 398
Lie@@ 398
Stra@@ 398
baya 398
determin@@ 398
etos 398
iba 398
igne 398
Captain 397
front@@ 397
quet 397
schwe@@ 397
ã@@ 397
edra 396
ologies 396
thus 396
ø 396
с@@ 396
Alab@@ 395
Dist@@ 395
ación 395
ück 395
е 395
Justice 394
agne 394
ción 394
plex 394
ł 394
у 394
flo@@ 393
iny@@ 393
ל@@ 393
IB@@ 392
Es 391
Marsh@@ 391
Martínez 391
Nou@@ 391
engine 391
power 391
His 390
König@@ 390
Por 390
Spi@@ 390
jur@@ 390
División 389
Estr@@ 389
Ges@@ 389
Meth@@ 389
Queensland 389
cos@@ 389
struc@@ 389
tuy@@ 389
utar@@ 389
вич 389
Gó@@ 388
chil@@ 388
eps 388
fore 388
ز@@ 388
Sax@@ 387
grad@@ 387
itor 387
pole 387
ysi@@ 387
ė@@ 387
Ś@@ 387
Chic@@ 386
atia 386
atrice 386
ndi@@ 386
ã 386
μ 386
acks 385
ective 385
ications 385
optera 385
shi@@ 385
ño 385
ι 385
в 385
ש@@ 385
Roll@@ 384
dice 384
enga 384
ident 384
istre 384
sters 384
л 384
ehem@@ 383
ω 383
بخش 383
Heil@@ 382
Hospital 382
chem@@ 382
cri@@ 382
perial 382
ög@@ 382
Federation 381
Priv@@ 381
cent@@ 381
cover@@ 381
same 381
ères 381
Chu@@ 380
akini 380
muda 380
where 380
й@@ 380
Cari@@ 379
Haute 379
anas 379
cep@@ 379
idos 379
onio 379
Wür@@ 378
anco 378
ieve 378
nationale 378
z. 378
Milit@@ 377
Pueb@@ 377
acer@@ 377
hon@@ 377
pur 377
ées 377
α@@ 377
о 377
Como 376
List 376
Oly@@ 375
XIX 375
dru@@ 375
eux 375
xa 375
ն@@ 375
Urugu@@ 374
andere 374
aper@@ 374
iza 373
lima 373
zant@@ 373
Kanton 372
eco 372
hof 372
phyl@@ 372
sti 372
Rhein@@ 371
arian 371
elling 371
scher 371
semi 371
young 371
point 370
յ@@ 370
come 369
edom 369
terr@@ 369
Israel 368
wol@@ 367
év@@ 367
Evangel@@ 366
Wales 366
data 366
hindi 366
ien@@ 366
ising 366
ning@@ 366
Album 365
Conference 365
Temple 365
marine 365
Ø@@ 365
ôme 365
Army 364
comp@@ 364
deter@@ 364
oss 364
seu@@ 364
uso 364
uter 364
ù 364
ы 364
achen 363
eling 363
Ó@@ 363
Malay@@ 362
Revolution 362
after 362
esch@@ 362
ween 362
zile 362
Canadian 361
U.S. 361
rid@@ 361
Emper@@ 360
hand@@ 360
thin 360
ues 360
érie 360
Archit@@ 358
kers 358
Act 357
Avenue 357
Library 357
Minn@@ 357
Town@@ 357
Wild@@ 357
bass@@ 357
iden@@ 357
include 357
ump 357
vie@@ 357
Ú@@ 357
28. 356
Flu@@ 356
Mt@@ 356
aces 356
media 356
ths 356
У@@ 356
Direk@@ 355
nd 355
éri@@ 355
ḥ@@ 355
Johann@@ 354
aff 354
county 354
deal 354
jas 354
ved 354
ż@@ 354
м 354
angel@@ 353
cide 353
deli@@ 353
eger 353
logo 353
voc@@ 353
ε 353
п@@ 353
Another 352
By 352
Puerto 352
abi@@ 352
aten@@ 352
iso 352
lave 352
λ 352
ق@@ 352
─ 352
@ 351
Revol@@ 351
urb@@ 351
ý@@ 351
ский 351
Sain@@ 350
Syr@@ 350
iff 350
olf 350
stri@@ 350
super@@ 350
March 349
Wad@@ 349
wealth 349
195@@ 348
Giov@@ 348
first 348
orph@@ 348
Education 347
Nations 347
bem@@ 347
xo@@ 347
Concep@@ 346
Den 346
Graf 346
elev@@ 346
tour@@ 346
unde 346
Con 345
Muhammad 345
Vita 345
eshi 345
guer@@ 345
eas@@ 344
irat@@ 344
vot@@ 344
ș 344
Firma 343
Mal 343
ement@@ 343
music 343
rog@@ 343
ustry 343
wo 343
2,000 342
Cá@@ 342
General@@ 342
ammed 342
gian 342
opol@@ 342
té 342
wiki 342
ː 342
Hung@@ 341
adas 341
crip@@ 341
pad@@ 341
rés 341
ի@@ 341
Uk@@ 340
atura 340
cro@@ 340
ency 340
urity 340
‚ 340
Institut 339
cla@@ 339
å 339
ب@@ 339
1,000 338
20th 338
21@@ 338
Arth@@ 338
Centro 338
Esc@@ 338
Musik@@ 338
dings 338
rum@@ 338
uer 338
ւ@@ 338
Middle 337
eil 337
mai 337
start 337
с 337
Ili@@ 336
Lo 336
Princip@@ 336
atz 336
fera 336
food 336
ned 336
oty@@ 336
ك@@ 336
Back@@ 335
ority 335
ּ@@ 335
ش@@ 335
Centr@@ 333
Jes@@ 333
Kho@@ 333
jed@@ 333
non@@ 333
sang@@ 333
were 333
ская 333
Braz@@ 332
German 332
Mosco@@ 332
chr@@ 332
jam@@ 332
room 332
state 332
Historia 331
Other 331
iku 331
lywood 331
mayo 331
pok@@ 331
Zw@@ 330
fied 330
ization 330
long@@ 330
ј@@ 330
arte 329
bibli@@ 329
endo 329
nine 329
Olympic 328
auto@@ 328
stell@@ 328
list 327
quar@@ 327
sound 327
Kauf@@ 326
Probl@@ 326
divis@@ 326
eaux 326
ikali 326
נ@@ 326
June 325
Moun@@ 325
Telev@@ 325
break 325
ival@@ 325
М@@ 325
Hydro@@ 324
aina 324
hoy 324
б@@ 324
29. 323
Railway 323
Universidad 323
kuna 323
lut@@ 323
Dutch 322
Kran@@ 322
Mary@@ 322
Orch@@ 322
Stand 322
cs 322
Berg 321
Neur@@ 321
Unter@@ 321
action 321
ativ@@ 321
back@@ 321
pec@@ 321
sait 321
Wilhel@@ 320
far 320
namo 320
realiz@@ 320
aim@@ 319
cant@@ 319
icht 319
oten 319
seh@@ 319
tain@@ 319
zt 319
и@@ 319
Académie 318
burger 318
hio 318
lé@@ 318
stor@@ 318
wn@@ 318
app 317
mina 317
sede 317
sell 317
в@@ 317
Most 316
aking 316
awi 316
chez 316
cole 316
ellen 316
tien 316
flav@@ 315
Durant 314
Grou@@ 313
NCAA 313
bou@@ 313
debut 313
formation 313
found@@ 313
patri@@ 313
Sé@@ 312
aint 312
tou@@ 312
Д@@ 312
евич 312
ה 312
Kaiser 311
ational 311
cord 311
have 311
toral 311
Б@@ 311
Ban 310
Tax@@ 310
chor@@ 310
naci@@ 310
Æ@@ 310
ʼ@@ 310
γ@@ 310
я 310
‌ 310
Deutschland 309
Se 309
etas 309
hul@@ 309
space 309
½ 309
् 309
Valle 308
Way@@ 308
ineering 308
nea 308
onale 308
owa 308
river 308
я@@ 308
Psych@@ 307
USD 307
Wald@@ 307
fic 307
immer 307
tori@@ 307
auff@@ 306
bt 306
enas 306
hao 306
series 306
ָ@@ 306
Arsen@@ 305
Nam 305
Nouvelle 305
Teatro 305
arrondissement 305
franch@@ 305
ρ 305
Marine 304
afé 304
ament 304
fs 304
itung 304
mental 304
rent 304
sional 304
tural 304
ì@@ 304
ezo 303
kama 303
lich@@ 303
vida 303
Andro@@ 302
Stud@@ 302
They 302
big 302
lic@@ 302
mig@@ 302
ְ@@ 302
Hosp@@ 301
endro@@ 301
lina 301
moment 301
uko 301
ү@@ 301
añ@@ 300
Epis@@ 299
acter@@ 299
aries 299
cas 299
got 299
illes 299
mens@@ 299
érieure 299
cau@@ 298
grave 298
ises 298
press 298
rug@@ 298
run@@ 298
span 298
sport 298
ustr@@ 298
Dez@@ 297
Heim@@ 297
esper@@ 297
fic@@ 297
oslav@@ 297
sali@@ 297
tique 297
† 297
acha 296
anni@@ 296
anted 296
ded 296
furt 296
k.@@ 296
orie 296
В@@ 296
ж@@ 296
ي@@ 296
Front 295
Rund@@ 295
contin@@ 295
part 295
trong 295
tros 295
Α@@ 295
Δ@@ 295
Eliz@@ 294
XVII 294
grand 294
wide 294
Е@@ 294
Hous@@ 293
Montr@@ 293
Nach@@ 293
abo@@ 293
Mission 292
enem@@ 292
orium 292
ра@@ 292
Christoph@@ 291
ables 291
bahn 291
inger@@ 291
mach@@ 291
moder@@ 291
pris@@ 291
udo 291
Denk@@ 290
Uch@@ 290
ists 290
mili@@ 290
Moy@@ 289
cola 289
kanda 289
oise 289
ording 289
ġ@@ 289
خ@@ 289
Elle 288
Jah@@ 288
agno@@ 288
för@@ 288
itos 288
led 288
ла@@ 288
31. 287
Publi@@ 287
Zwe@@ 287
hood 287
alter@@ 286
Н@@ 286
ка 286
د 286
წ@@ 286
Gymnasium 285
gency 285
hall@@ 285
pom@@ 285
primer 285
urban@@ 285
ყ@@ 285
Africa 284
Castil@@ 284
Ih@@ 284
assen 284
ismo 284
trich@@ 284
γ 284
ices 283
pre 283
run 283
will 283
192@@ 282
akawa 282
child 282
emba 282
iwa 282
osph@@ 282
phi@@ 282
Sta@@ 281
aines 281
ended 281
folia 281
fus@@ 281
nj@@ 281
odo 281
senti@@ 281
then 281
adul@@ 280
cross 280
ifu 280
ль@@ 280
ма@@ 280
Eastern 279
Nel@@ 279
anz 279
lun@@ 279
ß@@ 279
Canal 278
Est 278
Hispania 278
Süd@@ 278
fest 278
union 278
Jug@@ 277
alier 277
equ@@ 277
fass@@ 277
hun@@ 277
pour 277
ém 277
ー@@ 277
Inf@@ 276
Services 276
ainer 276
pili 276
rou@@ 276
trag@@ 276
ზ@@ 276
Health 275
ǎ@@ 275
π@@ 275
Fé@@ 274
Northern 274
dif@@ 274
ude 274
wehr 274
Σ@@ 274
ى 274
Schi@@ 273
encia 273
ht 273
intr@@ 273
rique 273
transform@@ 273
undo 273
η 273
σ 273
197@@ 272
arias 272
class 272
imba 272
teur 272
tric@@ 272
type 272
ج@@ 272
ى@@ 272
Hata 271
coc@@ 271
ppe 271
nie 270
ports 270
use@@ 270
къ@@ 270
Berliner 269
Geometr@@ 269
Sociedad 269
Wen@@ 269
für@@ 269
gau@@ 269
vention 269
Hist@@ 268
Scottish 268
ainst 268
blan@@ 268
epis@@ 268
ffen 268
geh@@ 268
love 268
schen 268
syl@@ 268
undi 268
word 268
µ@@ 268
èle 268
ē 268
ον 268
Christ 267
agin@@ 267
ahn@@ 267
konn@@ 267
pia 267
ías 267
д 267
jini 266
ligh@@ 266
orient@@ 266
Х@@ 266
ъ@@ 266
Salv@@ 265
ching 265
cic@@ 265
code 265
manifest@@ 265
ogen 265
ological 265
ples 265
Argent@@ 264
Renn@@ 264
Reser@@ 264
elimin@@ 264
good 264
spec@@ 264
thel@@ 264
zeh@@ 264
َ@@ 264
ც@@ 264
taire 263
ד@@ 263
ح@@ 263
brit@@ 262
kön@@ 262
lande 262
wi 262
zog 262
ός 262
Lt@@ 261
ever@@ 261
inet 261
lor 261
trad@@ 261
П@@ 261
Mara 260
Ni 260
Some 260
jug@@ 260
nay 260
opo 260
resp@@ 260
tof@@ 260
ћ 260
ძ@@ 260
ჭ@@ 260
ged 259
haya 259
kiz@@ 259
uch 259
Kama 258
acre 258
album 258
estro 258
lose 258
oja 258
paro@@ 258
uzo 258
Dres@@ 257
Schl@@ 257
alian 257
anch@@ 257
arn 257
dedic@@ 257
emos 257
ld 257
upon 257
з 257
193@@ 256
Ciudad 256
enty 256
free 256
illet 256
two 256
Κ@@ 256
ва 256
azim@@ 255
esha 255
peti@@ 255
podr@@ 255
tional 255
Öster@@ 255
Ə@@ 255
φ 255
Sainte 254
event@@ 254
team 254
ò@@ 254
δ@@ 254
σ@@ 254
Fund@@ 253
Société 253
gether 253
ledge 253
nah@@ 253
oles 253
ε@@ 253
corpor@@ 252
meister 252
shu@@ 252
ández 252
ფ@@ 252
ancia 251
aum@@ 251
friend 251
naval 251
ography 251
oil 251
trac@@ 251
ө@@ 251
Ave@@ 250
ajo 250
andes 250
Ung@@ 249
auf@@ 249
pf@@ 249
veau 249
ο 249
Australia 248
Dies@@ 248
Elis@@ 248
Eyl@@ 248
Minh 248
kia 248
place 248
plus 248
ь 248
ע@@ 248
Europ@@ 247
itation 247
ug 247
ution 247
Des 246
Ital@@ 246
igr@@ 246
ities 246
road 246
takri@@ 246
teen 246
uu 246
adapt@@ 245
brun@@ 245
destin@@ 245
umo 245
version 245
Ab 244
Austria 244
antas@@ 244
eing 244
tei 244
umen 244
® 244
ñ 244
ź 244
ɛ@@ 244
Mb@@ 243
amen@@ 243
fall 243
lati@@ 243
libr@@ 243
pero 243
porter 243
siri 243
ût 243
Partido 242
fau@@ 242
hud@@ 242
ól@@ 242
Rä@@ 241
anian 241
ften 241
heit 241
inning 241
Τ@@ 241
г 241
eign 240
ungs@@ 240
Р@@ 240
Luxemb@@ 239
Una 239
ablo 239
alism 239
ergie 239
itr@@ 239
Π@@ 239
ن@@ 239
auth@@ 238
efs 238
eval 238
itu@@ 238
usion 238
Ame@@ 237
Groß@@ 237
Tier@@ 237
Wur@@ 237
bles 237
hab 237
mé 237
orado 237
ulo 237
ъ 237
Wiener 236
Xu@@ 236
male 236
nac@@ 236
ل@@ 236
Apr@@ 235
Irish 235
oci@@ 235
was@@ 235
which 235
Þ@@ 235
dres@@ 234
illas 234
mich@@ 234
once 234
perior 234
staff 234
ungen 234
Ż@@ 234
θ@@ 234
ִ@@ 234
194@@ 233
Grab@@ 233
Mong@@ 233
These 233
ammad 233
dens@@ 233
tima 233
ш 233
ת 233
Doug@@ 232
chn@@ 232
isia 232
oking 232
ombe 232
sed 232
ч@@ 232
י 232
Korea 231
eras 231
hui 231
long 231
mans 231
shot 231
ío 231
ŋ@@ 231
ַ@@ 231
ო 231
Mex@@ 230
Paragu@@ 230
UE@@ 230
endra 230
they 230
ჯ@@ 230
apon 229
ked 229
legal 229
pal 229
sang 229
wig 229
Russia 228
ao@@ 228
ected 228
hii 228
چ@@ 228
大@@ 228
Frit@@ 227
Rico 227
amba@@ 227
area 227
atika 227
cent 227
isis 227
iting 227
used 227
usha 227
δ 227
Hockey 226
airs 226
bed 226
bic@@ 226
date 226
ي 226
afin 225
cros@@ 225
footballer 225
force 225
hr 225
mando 225
unter@@ 225
ри@@ 225
April 224
Españ@@ 224
ois@@ 224
verl@@ 224
éd@@ 224
190@@ 223
196@@ 223
Americ@@ 223
Develop@@ 223
ging 223
iness 223
nom 223
oire 223
rang@@ 223
semble 223
titu@@ 223
tras 223
villa 223
yard 223
çon 223
ц@@ 223
ן 223
و 223
Police 222
doch 222
eleg@@ 222
leur 222
liche 222
premi@@ 222
spe@@ 222
tet 222
times 222
ő 222
Г@@ 222
ە@@ 222
Committee 221
Exper@@ 221
Pé@@ 221
atur 221
ecture 221
iria 221
poem 221
tín 221
ق 221
Australian 220
abab@@ 220
antu 220
dres 220
・ 220
Regional@@ 219
atori@@ 219
neum@@ 219
ophyl@@ 219
soft 219
total 219
≤ 219
Democ@@ 218
Operation 218
Orchestra 218
cle@@ 218
tero 218
ك 218
″ 218
also 217
gence 217
oder 217
β@@ 217
λ@@ 217
محمد 217
‟ 217
Jesús 216
algo 216
loss@@ 216
rech@@ 216
гъ@@ 216
ع@@ 216
ْ@@ 216
Philipp@@ 215
auc@@ 215
aux@@ 215
cav@@ 215
ease 215
natur@@ 215
vya 215
ð 215
տ@@ 215
ṭ@@ 215
endre 214
game 214
süd@@ 214
usse 214
mann@@ 213
mw@@ 213
tard 213
thu@@ 213
ample 212
appen 212
dó@@ 212
evento 212
gest@@ 212
logr@@ 212
lí@@ 212
over@@ 212
return 212
sein 212
Í@@ 212
ù@@ 212
ли@@ 212
م@@ 212
Supre@@ 211
estruc@@ 211
head@@ 211
aji@@ 210
americana 210
cog@@ 210
jos 210
pend@@ 210
φ@@ 210
Zanzibar 209
akati 209
destroy@@ 209
hold 209
leit@@ 209
pendiente 209
polog@@ 209
Colomb@@ 208
Culture 208
Ireland 208
Zürich 208
honneur 208
mic@@ 208
novel 208
schaft 208
bois 207
elor 207
schule 207
upe 207
ücken 207
Anc@@ 206
Ins@@ 206
ements 206
estre 206
ismus 206
issi@@ 206
major 206
orr@@ 206
perf@@ 206
usalem 206
م 206
ჩ@@ 206
Guill@@ 205
Né@@ 205
aille 205
ation@@ 205
isra@@ 205
map@@ 205
vier@@ 205
ŏ@@ 205
ди@@ 205
Civil 204
Haupt@@ 204
Rugby 204
arri@@ 204
asing 204
axe 204
bé 204
dance 204
dial@@ 204
ensus 204
gas 204
group 204
influ@@ 204
isen 204
trit@@ 204
ô 204
ба@@ 204
ви@@ 204
ם 204
ت@@ 204
Libr@@ 203
Mehr@@ 203
Zür@@ 203
irs 203
match 203
mé@@ 203
ʾ@@ 203
ν@@ 203
EU 202
Grec@@ 202
Highway 202
fication 202
ited 202
law@@ 202
lub 202
new@@ 202
sts 202
week 202
Ш@@ 202
غ@@ 202
Wah@@ 201
artist 201
city 201
egu@@ 201
player 201
ymn@@ 201
Ε@@ 201
ار@@ 201
ン@@ 201
Hay 200
Ide@@ 200
hibi@@ 200
infer@@ 200
är 200
ρ@@ 200
ِ@@ 200
But 199
Flü@@ 199
Im 199
Russian 199
aler 199
church 199
klin 199
popul@@ 199
system 199
Λ@@ 199
τ 199
на@@ 199
の@@ 199
Academ@@ 198
Fest@@ 198
Univers@@ 198
ampi@@ 198
emia 198
press@@ 198
transl@@ 198
Galatas@@ 197
Internacional 197
Jew@@ 197
Mai 197
aill@@ 197
dida 197
lang 197
line@@ 197
national 197
ologie 197
ought 197
կ@@ 197
ط@@ 197
Nairobi 196
Stil 196
asons 196
diver@@ 196
mort 196
otes 196
psych@@ 196
rang 196
squ@@ 196
utz@@ 196
weg@@ 196
ät@@ 196
ни@@ 196
პ@@ 196
Congress 195
Gramm@@ 195
Napole@@ 195
cet 195
club 195
ihe 195
iten@@ 195
legi@@ 195
regres@@ 195
uzi 195
ón@@ 195
ο@@ 195
ח@@ 195
Museo 194
Route 194
case 194
spre@@ 194
tang@@ 194
technique 194
their 194
àn 194
ž 194
estig@@ 193
gues 193
iche 193
ombo 193
uela 193
ɑ@@ 193
ɪ@@ 193
З@@ 193
כ@@ 193
Ai 192
Chu 192
Rail@@ 192
limited 192
onstr@@ 192
Ä@@ 192
İngil@@ 192
Schn@@ 191
Schwe@@ 191
anat@@ 191
bra@@ 191
kno@@ 191
late 191
platz 191
sai 191
wann 191
zone 191
ème 191
emiti@@ 190
hiwa 190
jum@@ 190
native 190
sche@@ 190
toman 190
year 190
Са@@ 190
ный 190
ӏ@@ 190
care 189
ischen 189
izo 189
lieb 189
lista 189
scar 189
song 189
ка@@ 189
iliano 188
only 188
pass@@ 188
פ@@ 188
ف@@ 188
ی@@ 188
180@@ 187
Portugal 187
eim@@ 187
esser 187
igher 187
sequ@@ 187
wes@@ 187
white 187
ï 187
öst@@ 187
ún 187
мо@@ 187
Instrum@@ 186
ances 186
due 186
eil@@ 186
maal@@ 186
nig 186
public 186
Ա@@ 186
Carrera 185
Ein 185
debut@@ 185
ief 185
integ@@ 185
ments 185
pens@@ 185
reo 185
sible 185
âteau 185
Ć@@ 185
Μ@@ 185
Cao 184
apos@@ 184
dér@@ 184
mua 184
ço@@ 184
ר 184
Eins@@ 183
Rome 183
Sich@@ 183
elas 183
icos 183
kio 183
lied 183
ligence 183
mani@@ 183
network 183
telev@@ 183
éo 183
íos 183
Ми@@ 183
Geh@@ 182
Secre@@ 182
alu@@ 182
bele 182
cru@@ 182
hiv@@ 182
pression 182
sion@@ 182
éro@@ 182
κ@@ 182
ە 182
ン 182
.-@@ 181
Form 181
Monum@@ 181
jia 181
sant@@ 181
vent 181
ко@@ 181
ское 181
մ@@ 181
Administration 180
Popular 180
aling 180
graph@@ 180
ufac@@ 180
χ@@ 180
Ч@@ 180
і 180
و@@ 180
Ἀ@@ 180
Estudi@@ 179
ahudi 179
ensa 179
jazz 179
jou@@ 179
kani 179
pá@@ 179
riff@@ 179
sans 179
tile 179
venir 179
viol@@ 179
äger 179
íncipe 179
ս@@ 179
ار 179
이@@ 179
Bahn 178
Kreuz@@ 178
istic 178
thé@@ 178
ét@@ 178
Ω 178
Schwer@@ 177
Verlag 177
aka@@ 177
dire 177
esos 177
vania 177
wana 177
ле@@ 177
ная 177
ℓ 177
ability 176
ebook 176
erte 176
mern 176
teams 176
uses 176
voir 176
ín@@ 176
üge 176
ι@@ 176
Ка@@ 176
Britain 175
Commission 175
Speci@@ 175
cour@@ 175
jud@@ 175
position 175
éré@@ 175
ň 175
ω@@ 175
ро@@ 175
aub@@ 174
dies 174
fili@@ 174
impl@@ 174
issen 174
natural 174
rí@@ 174
tarak@@ 174
þ@@ 174
Airport 173
Brasil 173
afiri 173
ible 173
liner 173
pios 173
subj@@ 173
suc@@ 173
Ι@@ 173
│ 173
Fútbol 172
Version 172
Virgin@@ 172
cont@@ 172
empres@@ 172
mano 172
wr@@ 172
âtre 172
üsse 172
га@@ 172
да@@ 172
Ӏ@@ 172
Kip@@ 171
Scotland 171
Sie@@ 171
adora 171
aining 171
estar 171
how 171
mt@@ 171
ober@@ 171
ograph@@ 171
ply 171
stant@@ 171
ś 171
Э@@ 171
Wach@@ 170
about 170
addi@@ 170
bau 170
ences 170
gruppe 170
maxim@@ 170
minor 170
Ба@@ 170
Kriegs@@ 169
Regional 169
Thu@@ 169
aje 169
eres 169
mess@@ 169
née 169
ondo@@ 169
pierre 169
publi@@ 169
sent 169
value 169
werk 169
Ма@@ 169
ла 169
ל 169
Guerra 168
Histor@@ 168
anchi 168
eting 168
histori@@ 168
leben 168
seud@@ 168
stel@@ 168
zw@@ 168
Ко@@ 168
Chile 167
Nieder@@ 167
icas 167
k. 167
ων 167
қ@@ 167
1st 166
Fes@@ 166
Greek 166
aña 166
ersch@@ 166
father 166
full 166
inmedi@@ 166
pera 166
straße 166
vita 166
äs@@ 166
ία 166
ко 166
ṣ@@ 166
Islands 165
aque 165
assemb@@ 165
most 165
mot 165
saw 165
scre@@ 165
sub 165
suit 165
но@@ 165
Ḥ@@ 165
African 164
Grün@@ 164
Mp@@ 164
adron 164
anzo 164
front 164
iß@@ 164
rien 164
за@@ 164
ק@@ 164
ی 164
Wash@@ 163
grande 163
lars 163
phot@@ 163
soci@@ 163
speed 163
tung 163
ης 163
ва@@ 163
ת@@ 163
آ@@ 163
مرکزی 163
Bev@@ 162
Frei@@ 162
Initi@@ 162
argent 162
ition 162
jun@@ 162
promot@@ 162
ի 162
Hoch@@ 161
fie 161
inh 161
period@@ 161
phys@@ 161
region 161
ɔ@@ 161
Л@@ 161
ал@@ 161
ک@@ 161
∞ 161
Restaur@@ 160
mission 160
pers@@ 160
ucky 160
Bezir@@ 159
Funk@@ 159
Kreis 159
ators 159
distr@@ 159
haw@@ 159
Au 158
Entre 158
Institu@@ 158
Sonder@@ 158
cht@@ 158
cial 158
down@@ 158
porte 158
prepar@@ 158
wam@@ 158
ре@@ 158
Cep@@ 157
Champi@@ 157
Compan@@ 157
December 157
aî@@ 157
conn@@ 157
door 157
jina 157
mee 157
mov@@ 157
nant 157
onnat 157
τ@@ 157
Landkreis 156
Zug@@ 156
austr@@ 156
bour@@ 156
gang 156
hau@@ 156
mode 156
oine 156
rá@@ 156
umbo 156
wit@@ 156
ας 156
го@@ 156
186@@ 155
Feuer@@ 155
Municipal 155
cian 155
iges 155
inform@@ 155
nach 155
proc@@ 155
xima 155
Ж@@ 155
до@@ 155
щ@@ 155
Ereb@@ 154
Nueva 154
Portu@@ 154
Professor 154
azz 154
camp@@ 154
lead 154
migr@@ 154
ques@@ 154
shar@@ 154
ép@@ 154
س 154
Inh@@ 153
Kinder@@ 153
Pia 153
acid 153
alogue 153
contr@@ 153
europ@@ 153
iment 153
open 153
ungu 153
vend@@ 153
while 153
âte@@ 153
ا 153
Welt 152
Zealand 152
ambi 152
egos 152
feh@@ 152
mass@@ 152
neur 152
small 152
tific@@ 152
Σ 152
Ц@@ 152
ар@@ 152
ֹ@@ 152
ג@@ 152
ღ@@ 152
Kaliforni@@ 151
Sud 151
Zeit@@ 151
known 151
priv@@ 151
pron@@ 151
turn 151
ève 151
Grund@@ 150
cina 150
gold 150
ký 150
people 150
ustur@@ 150
yali@@ 150
äm@@ 150
ņ@@ 150
нович 150
189@@ 149
appe@@ 149
ential 149
française 149
fron@@ 149
systems 149
tures 149
weg 149
æ 149
Era 148
abeth 148
amor 148
champ@@ 148
onto 148
stars 148
tad 148
yanay@@ 148
са@@ 148
Championships 147
Chinese 147
Ferdin@@ 147
been 147
eig@@ 147
fiel@@ 147
ions 147
itage 147
manos 147
mt 147
orod@@ 147
quan 147
sign@@ 147
stein@@ 147
title 147
who 147
zas 147
της 147
ха@@ 147
a. 146
did 146
gende 146
jus@@ 146
leo 146
lern 146
quel 146
utive 146
Δ 146
су@@ 146
ر 146
Corps 145
Histoire 145
National@@ 145
Stell@@ 145
polé@@ 145
unia 145
uren 145
usta@@ 145
ס@@ 145
Cuba 144
DDR 144
Gé@@ 144
Hai 144
Materi@@ 144
Nga 144
anderen 144
angle 144
box@@ 144
educ@@ 144
mau@@ 144
produc@@ 144
through 144
ution@@ 144
wart 144
ßen 144
änder 144
ρος 144
бе@@ 144
ми@@ 144
Chief 143
Islam@@ 143
Personal 143
acu@@ 143
anterior 143
base 143
ched 143
dig 143
e. 143
essed 143
given 143
nt 143
oms 143
reich@@ 143
tai 143
tent@@ 143
ʃ@@ 143
Ν@@ 143
η@@ 143
Я@@ 143
187@@ 142
Iran 142
Premio 142
artist@@ 142
bom 142
eurs 142
eño 142
ihr 142
ivo 142
orig@@ 142
possible 142
steri@@ 142
Ку@@ 142
ан@@ 142
би@@ 142
Navy 141
Segunda 141
aring 141
atac@@ 141
ativa 141
bern@@ 141
digital 141
function 141
ibar 141
indo 141
isches 141
jeun@@ 141
miento 141
septi@@ 141
tena 141
uten 141
Ο@@ 141
На@@ 141
нов 141
Gesellschaft 140
Harv@@ 140
Lux@@ 140
Santi@@ 140
Universität 140
centr@@ 140
osha 140
puls@@ 140
wad@@ 140
Հ@@ 140
آباد 140
alter 139
ansi 139
hie 139
otra 139
path@@ 139
tains 139
τος 139
ا@@ 139
July 138
Span@@ 138
bach@@ 138
esses 138
ikia 138
noch 138
ų 138
υ@@ 138
му@@ 138
ال@@ 138
ص@@ 138
Constitu@@ 137
Instituto 137
Rech@@ 137
ingia 137
inner@@ 137
ional 137
order 137
page 137
prises 137
éch@@ 137
پ@@ 137
≥ 137
Stadt 136
arten 136
ché 136
home 136
math@@ 136
èse 136
του 136
υ 136
ев 136
ков 136
ку@@ 136
х 136
ր 136
اب@@ 136
الله 136
≈ 136
185@@ 135
Ira@@ 135
République 135
fam@@ 135
fro@@ 135
most@@ 135
museum 135
ourg 135
ор@@ 135
ч 135
نا@@ 135
188@@ 134
Famili@@ 134
October 134
Sommer@@ 134
avent@@ 134
bere@@ 134
standard 134
superior 134
urban 134
waf@@ 134
ück@@ 134
Ле@@ 134
та@@ 134
ф@@ 134
վ@@ 134
Aleks@@ 133
Mw@@ 133
Produ@@ 133
Tsch@@ 133
esqu@@ 133
faa 133
image 133
initi@@ 133
kud@@ 133
mite 133
number 133
pino 133
quer 133
standing 133
tsch@@ 133
É 133
Ра@@ 133
да 133
Blü@@ 132
Dollar 132
Holz@@ 132
Kunst@@ 132
Liver@@ 132
Wahl@@ 132
eses 132
irik@@ 132
iw@@ 132
jour 132
played 132
season 132
Ā@@ 132
А 132
ты@@ 132
⟩ 132
Hindi 131
Pour 131
Université 131
commun@@ 131
fall@@ 131
ibu 131
iterran@@ 131
posterior 131
ücke 131
ί@@ 131
κ 131
ур@@ 131
ان@@ 131
イ@@ 131
Paci@@ 130
Region 130
abra 130
anno@@ 130
buch 130
chini 130
deutsche 130
former 130
ored 130
teilung 130
uw@@ 130
versit@@ 130
Ğ 130
œ@@ 130
اد@@ 130
را@@ 130
Auf@@ 129
Department 129
Gord@@ 129
Government 129
aving 129
before 129
garde 129
ufu 129
ラ@@ 129
Early 128
Luft@@ 128
Phi 128
President 128
atique 128
dienst 128
drome 128
edad 128
histor@@ 128
lanc@@ 128
libre 128
whe@@ 128
Haus 127
Isra@@ 127
Occ@@ 127
aciones 127
cons@@ 127
eja 127
gesch@@ 127
ied 127
ilien 127
omel@@ 127
pose 127
zig 127
ру@@ 127
ة 127
ル@@ 127
0s 126
Argentina 126
Italy 126
Karnataka 126
Ministr@@ 126
Presidente 126
adop@@ 126
apti@@ 126
chant 126
elten 126
entos 126
grap@@ 126
hör@@ 126
japon@@ 126
langen 126
obra 126
onie 126
qu 126
toda 126
ungo 126
yana@@ 126
Ș@@ 126
ду@@ 126
Conserv@@ 125
Germany 125
Lai 125
Nair@@ 125
November 125
Territ@@ 125
Une 125
bras 125
dial 125
doba 125
eces 125
menor 125
orial 125
plut@@ 125
risto 125
sé@@ 125
tered 125
vos 125
éal 125
ло@@ 125
то@@ 125
Dokum@@ 124
Queens@@ 124
altar 124
atory 124
aught 124
chev@@ 124
costa 124
hand 124
simul@@ 124
stitu@@ 124
una@@ 124
º 124
äd@@ 124
Ρ@@ 124
⟨ 124
Guin@@ 123
Unión 123
aging 123
alled 123
brach@@ 123
eball 123
extr@@ 123
gros@@ 123
high 123
igner 123
pion@@ 123
some 123
three 123
tly 123
Φ@@ 123
ει@@ 123
عبد 123
January 122
Mayor 122
horiz@@ 122
loss 122
schen@@ 122
social 122
theater 122
tán 122
vu 122
сы@@ 122
сь@@ 122
ت 122
ورة 122
Dich@@ 121
Singapore 121
Vier@@ 121
illed 121
khi 121
school 121
sym@@ 121
teria 121
v. 121
when 121
wir@@ 121
гу@@ 121
ט@@ 121
Assembly 120
Egyp@@ 120
Grupo 120
aï@@ 120
battle 120
ecke 120
homme 120
isions 120
lement 120
lui 120
ngh@@ 120
quir@@ 120
radio 120
unger 120
ů@@ 120
̇ 120
Ф@@ 120
га 120
де@@ 120
п 120
գ@@ 120
Este 119
Stoc@@ 119
alme 119
atre 119
bres 119
eding 119
eso 119
ident@@ 119
imbo 119
orden@@ 119
oteca 119
vig@@ 119
éra 119
στ@@ 119
Geg@@ 118
actor 118
atures 118
aume 118
ettes 118
isión 118
istes 118
mtDNA 118
tent 118
äh@@ 118
ême 118
Χ@@ 118
ό@@ 118
ды@@ 118
ль 118
ن 118
184@@ 117
Kig@@ 117
Schles@@ 117
aching 117
adini 117
alifor@@ 117
ayed 117
lines 117
mf@@ 117
oren 117
riff 117
stage 117
wah@@ 117
ße 117
лы 117
ス@@ 117
Administr@@ 116
Hochschule 116
Nh@@ 116
acial 116
aifa 116
ellas 116
guit@@ 116
hadi 116
many 116
monde 116
oben 116
rugby 116
too 116
usal@@ 116
úa 116
ат@@ 116
не@@ 116
Asian 115
Naili 115
ambu@@ 115
comm@@ 115
ific@@ 115
issen@@ 115
ped 115
ŋ 115
ра 115
رو@@ 115
Musik 114
broad@@ 114
chos 114
grade 114
such 114
sud 114
techn@@ 114
ète 114
Бе@@ 114
ғ@@ 114
լ@@ 114
Gast@@ 113
ahidi 113
aires 113
arding 113
audi@@ 113
bang 113
camp 113
cao 113
nomin@@ 113
nou@@ 113
nucle@@ 113
ologi@@ 113
ours 113
range 113
regional 113
reich 113
richt 113
thre@@ 113
éta@@ 113
ís@@ 113
ά@@ 113
ζ@@ 113
Со@@ 113
ё@@ 113
ز 113
ول@@ 113
Canton 112
Castilla 112
Klein@@ 112
Suisse 112
aison 112
alik@@ 112
angu 112
chs 112
clar@@ 112
ectiv@@ 112
gend 112
incia 112
views 112
ň@@ 112
ŭ@@ 112
ме@@ 112
са 112
ти@@ 112
ج 112
Schutz@@ 111
Stadt@@ 111
aissance 111
cá@@ 111
each 111
fier 111
inu 111
islas 111
kuf@@ 111
ople 111
regi@@ 111
there 111
ät 111
ên 111
ή 111
σι@@ 111
ски 111
ἀ@@ 111
⁄ 111
← 111
bloc@@ 110
bora 110
femme 110
gew@@ 110
indic@@ 110
note 110
plac@@ 110
vili@@ 110
wag@@ 110
ζ 110
во 110
ش 110
ور@@ 110
Estado 109
auch 109
fabri@@ 109
gart 109
nation 109
neur@@ 109
ongo@@ 109
plu@@ 109
schaf@@ 109
using 109
wanda 109
xim@@ 109
ου 109
не 109
па@@ 109
со@@ 109
گ@@ 109
ー 109
Academia 108
Govern@@ 108
México 108
Par 108
Zeit 108
based 108
ending 108
ership 108
ferro@@ 108
made 108
portes 108
reib@@ 108
rég@@ 108
tant 108
xu@@ 108
ément 108
ě 108
лович 108
ֵ@@ 108
ای@@ 108
Deux 107
Distribu@@ 107
September 107
afric@@ 107
ebu 107
mash@@ 107
mz@@ 107
pped 107
revol@@ 107
roqu@@ 107
ví@@ 107
ɾ@@ 107
Γ@@ 107
ве@@ 107
ֶ@@ 107
└ 107
リ@@ 107
子 107
Stif@@ 106
icro@@ 106
kua 106
main@@ 106
ngu@@ 106
ograp@@ 106
terre 106
Å 106
ǔ@@ 106
За@@ 106
թ@@ 106
հ@@ 106
№ 106
Assist@@ 105
Landes@@ 105
estos 105
finished 105
font 105
funk@@ 105
iev@@ 105
imani 105
level 105
ners 105
take 105
tech@@ 105
vice 105
wur@@ 105
ǔ 105
ύ@@ 105
рович 105
ң@@ 105
ұ@@ 105
א 105
أبو 105
ب 105
் 105
ッ@@ 105
山 105
aliforni@@ 104
contempor@@ 104
emas 104
ewa 104
isiones 104
lage 104
lemente 104
such@@ 104
tail 104
temps 104
tier@@ 104
unas 104
ρι@@ 104
Ан@@ 104
Ю@@ 104
ام@@ 104
乡 104
Director 103
February 103
Frau@@ 103
amento 103
dep@@ 103
edonia 103
power@@ 103
table@@ 103
лы@@ 103
Қ@@ 103
צ@@ 103
া@@ 103
Brazil 102
Colombia 102
Herb@@ 102
Nguy@@ 102
abara 102
abila 102
adv@@ 102
emu 102
enl@@ 102
hasa 102
meng@@ 102
onge@@ 102
restaur@@ 102
seur 102
sich@@ 102
sport@@ 102
sug@@ 102
tribu@@ 102
trop 102
ulation 102
utsch@@ 102
visible 102
werke 102
και 102
οι 102
ки 102
по@@ 102
сель@@ 102
Francia 101
Journ@@ 101
Mei 101
Mittel@@ 101
Schloss 101
Waz@@ 101
ativo 101
enzi 101
latter 101
piano 101
siti@@ 101
strum@@ 101
té@@ 101
tés 101
verein 101
vé@@ 101
wach@@ 101
ús@@ 101
Ар@@ 101
но 101
ры@@ 101
те@@ 101
الح@@ 101
او@@ 101
Escu@@ 100
bind@@ 100
enor@@ 100
essor 100
explo@@ 100
heits@@ 100
others 100
sibil@@ 100
soka 100
tax@@ 100
tillo 100
ʼ 100
Та@@ 100
во@@ 100
та 100
الم@@ 100
َ 100
་ 100
∈ 100
Italian 99
Jewish 99
König 99
Stim@@ 99
Tierra 99
anzi 99
lieg@@ 99
second 99
service 99
tex@@ 99
what 99
ónica 99
По@@ 99
با@@ 99
新@@ 99
Platz 98
activ@@ 98
appel 98
cali@@ 98
diam@@ 98
dyn@@ 98
entale 98
etu 98
karne 98
ously 98
relativ@@ 98
roi 98
stra@@ 98
ubic@@ 98
vide 98
бо@@ 98
ки@@ 98
سى 98
ُ@@ 98
日@@ 98
2nd 97
Malaysia 97
Pub@@ 97
ange@@ 97
brig@@ 97
edition 97
exp@@ 97
figur@@ 97
istère 97
jour@@ 97
nous 97
vision 97
wns 97
éni@@ 97
ünya 97
αν@@ 97
Ал@@ 97
ղ@@ 97
ア@@ 97
ク@@ 97
Educ@@ 96
Japanese 96
Organisation 96
Rom 96
Spanish 96
Sus 96
Their 96
avant 96
cup@@ 96
held 96
hous@@ 96
inco 96
isses 96
nach@@ 96
nament 96
parall@@ 96
prit 96
protagon@@ 96
rend@@ 96
teil 96
upo 96
ǐ@@ 96
В 96
ئ@@ 96
Bisch@@ 95
Origin@@ 95
Staats@@ 95
adiri 95
aged 95
amt 95
crim@@ 95
fond@@ 95
lado 95
wers 95
èn 95
Β@@ 95
ψ 95
То@@ 95
Arbeit@@ 94
Distr@@ 94
Gesch@@ 94
Histori@@ 94
Inform@@ 94
Kif@@ 94
Lebens@@ 94
aband@@ 94
adores 94
asse@@ 94
baj@@ 94
control 94
days 94
ered 94
kreis 94
orden 94
quali@@ 94
refl@@ 94
Ó 94
ús 94
Мо@@ 94
ров 94
че@@ 94
Մ@@ 94
ז@@ 94
マ@@ 94
Adem@@ 93
Spain 93
adj@@ 93
aning 93
ases 93
during 93
guar@@ 93
huru 93
igos 93
news 93
oration 93
rate 93
released 93
schrift 93
would 93
͡ 93
Бо@@ 93
Ха@@ 93
ска 93
أ@@ 93
اس@@ 93
شا@@ 93
ῖ@@ 93
民@@ 93
Alter 92
Historic 92
Kultur@@ 92
Señ@@ 92
` 92
ecia 92
entro 92
ised 92
khi@@ 92
leaving 92
length 92
original 92
sens 92
spiel 92
theory 92
virus 92
âce 92
ан 92
ров@@ 92
ھ@@ 92
ト@@ 92
東@@ 92
Corpor@@ 91
Gia 91
Tradi@@ 91
abb@@ 91
deutscher 91
four@@ 91
icht@@ 91
quier 91
singer 91
stud@@ 91
ám@@ 91
èg@@ 91
ét 91
über 91
ги@@ 91
за 91
ц 91
цы 91
ча@@ 91
بر@@ 91
天@@ 91
김@@ 91
Califor@@ 90
För@@ 90
Kunst 90
deutsch@@ 90
disco 90
erre@@ 90
ispi@@ 90
language 90
uelle 90
xin 90
ún@@ 90
άν@@ 90
ний 90
хо@@ 90
ң 90
ور 90
Pays 89
clus@@ 89
diers 89
differ@@ 89
loi 89
msh@@ 89
né 89
omba 89
pendi@@ 89
royal 89
saba 89
sci@@ 89
troph@@ 89
trou@@ 89
without 89
wth 89
äch@@ 89
ź@@ 89
Рес@@ 89
ны@@ 89
Later 88
Poliz@@ 88
classi@@ 88
dern 88
dissement 88
faire 88
following 88
ict 88
ished 88
make 88
process 88
rée 88
techni@@ 88
temper@@ 88
visi@@ 88
went 88
éré 88
αυ@@ 88
ια 88
το@@ 88
ди 88
ск@@ 88
ال 88
الق@@ 88
ḫ@@ 88
モ@@ 88
本@@ 88
镇 88
Leben 87
Mär@@ 87
Register 87
Russ@@ 87
Tod 87
canal 87
chall@@ 87
coul@@ 87
ichte 87
science 87
sour@@ 87
still 87
tiques 87
unci@@ 87
wake 87
§ 87
ба 87
зы@@ 87
лу@@ 87
ша@@ 87
الع@@ 87
Sä@@ 86
ateur 86
etts 86
huri 86
mundo 86
né@@ 86
schluss 86
sort 86
sous 86
tige 86
tiki 86
äng@@ 86
ête 86
евна 86
ник 86
مان 86
≠ 86
├ 86
Hymen@@ 85
arlo 85
avec 85
einen 85
electr@@ 85
erste 85
jah@@ 85
lai 85
noi 85
sau@@ 85
some@@ 85
soon 85
theast 85
walt 85
writ@@ 85
ʒ@@ 85
О 85
С 85
се@@ 85
ד 85
الدين 85
مو@@ 85
Found@@ 84
access 84
angen 84
dibu@@ 84
eben@@ 84
imu 84
kirche 84
million 84
poin@@ 84
pris 84
tiv 84
weit@@ 84
élé@@ 84
ли 84
нов@@ 84
си@@ 84
ׁ@@ 84
ري@@ 84
abaj@@ 83
amani 83
anh 83
annel 83
chter 83
enant 83
ference 83
ispo 83
mg@@ 83
source 83
u. 83
äf@@ 83
ħ@@ 83
Го@@ 83
ма 83
ܝ@@ 83
Bien 82
Campeonato 82
Mitte 82
Zu 82
ambre 82
coll@@ 82
cula 82
eit@@ 82
history 82
idadi 82
information 82
local 82
n.@@ 82
pain@@ 82
reste 82
transport 82
ume@@ 82
Ј@@ 82
Га@@ 82
ство 82
ти 82
ше@@ 82
դ@@ 82
ف 82
ل 82
مه@@ 82
ۇ@@ 82
‐ 82
사@@ 82
Ingen@@ 81
Palest@@ 81
ained 81
among 81
bali 81
eln 81
forte 81
found 81
international 81
leich@@ 81
leng@@ 81
linois 81
process@@ 81
punk@@ 81
six 81
État 81
τι@@ 81
ке@@ 81
ца 81
ши@@ 81
ند@@ 81
َّ@@ 81
‏ 81
可@@ 81
山@@ 81
Krieg@@ 80
Werke 80
While 80
actions 80
agnie 80
ambia 80
anese 80
eñ@@ 80
füg@@ 80
gek@@ 80
idental 80
jap@@ 80
just 80
lance 80
lung 80
near 80
there@@ 80
À 80
ƒ 80
έ@@ 80
αλ@@ 80
ων@@ 80
Ту@@ 80
б 80
общество 80
сы 80
ха 80
Ս@@ 80
شهر 80
ἐ@@ 80
ὐ@@ 80
‑ 80
フ@@ 80
阿@@ 80
Rural 79
awa@@ 79
banda 79
bezirk 79
casa 79
class@@ 79
dimen@@ 79
disco@@ 79
enca 79
football 79
juni@@ 79
neu@@ 79
offic@@ 79
present 79
publ@@ 79
public@@ 79
said 79
statt 79
tiers 79
áng 79
ą 79
ικ@@ 79
λε@@ 79
Да@@ 79
Пет@@ 79
Су@@ 79
ту@@ 79
إ@@ 79
وال@@ 79
민@@ 79
Assemb@@ 78
Schweizer 78
Wab@@ 78
avu 78
baada 78
bald 78
common 78
cual 78
current 78
ickl@@ 78
ided 78
ikit@@ 78
novel@@ 78
square 78
vall@@ 78
west@@ 78
zed 78
Â 78
ɡ@@ 78
ʁ@@ 78
Θ@@ 78
ξ@@ 78
Е 78
У 78
чи@@ 78
զ@@ 78
ِ 78
ّ@@ 78
Bei 77
Geschichte 77
Hinter@@ 77
Nguyễn 77
Sied@@ 77
Straße 77
century 77
clu@@ 77
estas 77
human 77
lac 77
magazine 77
music@@ 77
util@@ 77
¡ 77
ütz@@ 77
Алек@@ 77
И 77
жа@@ 77
ни 77
ون 77
ḳ@@ 77
™ 77
República 76
Sommer 76
acts 76
aliste 76
between 76
bán 76
cera 76
chang@@ 76
feu@@ 76
opin@@ 76
short 76
universit@@ 76
vom 76
zoni 76
ération 76
ου@@ 76
До@@ 76
рий 76
ст@@ 76
در@@ 76
Congr@@ 75
Garc@@ 75
Ley 75
Regi@@ 75
angaz@@ 75
avril 75
evol@@ 75
greg@@ 75
hier@@ 75
identi@@ 75
schw@@ 75
unat@@ 75
woman 75
αρ@@ 75
κα@@ 75
ού@@ 75
Ро@@ 75
ак@@ 75
мар@@ 75
្ 75
☉ 75
Ce 74
Dies 74
Flug@@ 74
Kinder 74
Nouv@@ 74
Waj@@ 74
bras@@ 74
cens@@ 74
divi@@ 74
enso 74
figh@@ 74
ión 74
kung 74
lost 74
office 74
riere 74
schn@@ 74
sex@@ 74
tribut@@ 74
vive 74
êt 74
Но@@ 74
ге 74
гор@@ 74
շ@@ 74
می@@ 74
ْ 74
ệm 74
三@@ 74
海@@ 74
Feb@@ 73
Für 73
Grupp@@ 73
Meister 73
Ms@@ 73
alco@@ 73
autom@@ 73
clav@@ 73
design 73
dân 73
suj@@ 73
these 73
tish@@ 73
tout 73
unit 73
virtu@@ 73
ę 73
Α 73
να 73
τα 73
Ме@@ 73
Му@@ 73
ад@@ 73
пе@@ 73
բ@@ 73
لا@@ 73
♯ 73
于 73
한@@ 73
Categ@@ 72
Frau 72
Mit 72
azama 72
bruch 72
clo@@ 72
fül@@ 72
imeh@@ 72
league 72
porting 72
rur@@ 72
tee 72
ĝ@@ 72
ʊ@@ 72
̂ 72
̃ 72
το 72
нова 72
ск 72
ї@@ 72
ル 72
县 72
Lehr@@ 71
Tube 71
Ukraine 71
Woh@@ 71
Zentr@@ 71
agent 71
allem@@ 71
alum@@ 71
diction 71
ehen 71
eins 71
entation 71
event 71
expres@@ 71
fight 71
hyp@@ 71
little 71
songs 71
tracks 71
wani 71
ˌ@@ 71
ξ 71
си 71
ث@@ 71
ک 71
汗 71
Welt@@ 70
afrika 70
compl@@ 70
ecto 70
egio 70
foc@@ 70
hips 70
never 70
onnen 70
schul@@ 70
vile 70
ymnasium 70
¹ 70
óm@@ 70
̡ 70
Γ 70
сла@@ 70
ф 70
ք 70
مح@@ 70
シ@@ 70
ジ@@ 70
ド@@ 70
克@@ 70
Akademie 69
Many 69
Poland 69
Sold@@ 69
aches 69
acked 69
barr@@ 69
being 69
comes 69
ehe 69
ept 69
espace 69
haus@@ 69
icha 69
isho 69
ized 69
là 69
older 69
operation 69
stitut@@ 69
templ@@ 69
ycidae 69
ymnasi@@ 69
èque 69
édi@@ 69
Не@@ 69
Ру@@ 69
ס 69
علي 69
ნ 69
ロ@@ 69
五@@ 69
Polen 68
Province 68
alition 68
ará 68
culp@@ 68
ecti@@ 68
igt 68
intel@@ 68
obje@@ 68
playing 68
qué 68
tí@@ 68
ào 68
étr@@ 68
œur 68
ʲ@@ 68
ακ@@ 68
ις 68
Ки@@ 68
зи@@ 68
мы@@ 68
أحمد 68
اش@@ 68
وا@@ 68
ῦ@@ 68
レ@@ 68
스@@ 68
Catholic 67
Fuer@@ 67
Kih@@ 67
Regierungs@@ 67
Sieg 67
Um 67
attach@@ 67
both 67
chart 67
conf@@ 67
cred@@ 67
foot@@ 67
hydro@@ 67
idential 67
insi 67
lieu 67
menos 67
moun@@ 67
positi@@ 67
pré@@ 67
rebel@@ 67
rue 67
sorti 67
Ñ@@ 67
ói 67
ɑ 67
μα@@ 67
Де@@ 67
Ре@@ 67
Си@@ 67
лов 67
порт 67
ри 67
ذ@@ 67
قل@@ 67
ين 67
် 67
인@@ 67
Burg 66
Bình 66
Doppel@@ 66
Philadel@@ 66
Verte@@ 66
acias 66
alth 66
cipe 66
cription 66
diff@@ 66
ensive 66
give 66
haki 66
herr@@ 66
ichen 66
istas 66
offici@@ 66
ogle 66
princ@@ 66
prix 66
session 66
train 66
village 66
wahili 66
Ва@@ 66
Я 66
ин@@ 66
Գ@@ 66
պ@@ 66
بي@@ 66
سی@@ 66
من 66
يد 66
ス 66
單@@ 66
縣 66
高@@ 66
Bei@@ 65
Eurov@@ 65
Haup@@ 65
Kommun@@ 65
Quan 65
Staff@@ 65
bare 65
building 65
chas 65
continu@@ 65
cost@@ 65
dici@@ 65
dée 65
featur@@ 65
flan@@ 65
fonc@@ 65
grab@@ 65
hif@@ 65
histoire 65
ision@@ 65
ived 65
large 65
nouveau 65
ocho 65
pata 65
retur@@ 65
sports 65
syst@@ 65
temp@@ 65
thiop@@ 65
Über 65
ǐ 65
ɛ 65
θε@@ 65
Ла@@ 65
хи@@ 65
ю 65
ю@@ 65
ա 65
ܐ 65
대@@ 65
Lond@@ 64
Pero 64
Sicher@@ 64
argent@@ 64
arro@@ 64
eña 64
occident@@ 64
ools 64
otz 64
philos@@ 64
sä@@ 64
telle 64
umani 64
vière 64
µ 64
Û@@ 64
Υ@@ 64
ρα@@ 64
Бу@@ 64
Къ@@ 64
пу@@ 64
ста@@ 64
қ 64
الش@@ 64
غ 64
في 64
ما@@ 64
ῆ@@ 64
バ@@ 64
国@@ 64
金@@ 64
Bretagne 63
Bürger@@ 63
Indonesia 63
Ninh 63
Staat@@ 63
carr@@ 63
colum@@ 63
conc@@ 63
course 63
geg@@ 63
itable 63
nation@@ 63
pale 63
sionn@@ 63
those 63
tour 63
written 63
years 63
Ø 63
̅ 63
όν@@ 63
Александр 63
Се@@ 63
Ша@@ 63
он 63
ция 63
ב 63
الص@@ 63
شت 63
من@@ 63
ᴀ 63
⋅ 63
タ@@ 63
北@@ 63
아@@ 63
Amér@@ 62
Infan@@ 62
Infr@@ 62
Lan 62
Preu@@ 62
Wissen@@ 62
adhi 62
against 62
atten@@ 62
bier@@ 62
capit@@ 62
conten@@ 62
dola 62
effect 62
eines 62
fils 62
ités 62
numer@@ 62
portation 62
schaften 62
suff@@ 62
ukw@@ 62
zeit 62
át 62
Θε@@ 62
να@@ 62
Влади@@ 62
ге@@ 62
ре 62
ро 62
ские 62
ша 62
կ 62
، 62
ح 62
لا 62
مي@@ 62
中@@ 62
南@@ 62
Sow@@ 61
Wasser@@ 61
abs@@ 61
antage 61
atem@@ 61
athol@@ 61
ciones 61
condi@@ 61
disc@@ 61
entales 61
jard@@ 61
princip@@ 61
requi@@ 61
ré 61
sciences 61
score 61
signed 61
terres 61
username 61
wala 61
¨ 61
ί 61
ασ@@ 61
ελ@@ 61
Бела@@ 61
ев@@ 61
ны 61
ос@@ 61
است@@ 61
ع 61
ُ 61
カ@@ 61
市 61
Barcel@@ 60
Conseil 60
Deutschen 60
Parliament 60
Sachsen 60
Schiff 60
Schiff@@ 60
alized 60
ations@@ 60
attack 60
bea 60
clos@@ 60
docum@@ 60
done 60
high@@ 60
hydr@@ 60
inclu@@ 60
istische 60
lear@@ 60
multiple 60
nuc@@ 60
premier 60
renov@@ 60
verw@@ 60
ác 60
ähr@@ 60
ñas 60
ólica 60
ľ@@ 60
ον@@ 60
ρά@@ 60
ρο@@ 60
Никола 60
бу@@ 60
вна 60
ен@@ 60
кий 60
الس@@ 60
ض@@ 60
هر 60
ܘ@@ 60
♭ 60
Guatem@@ 59
Its 59
Provin@@ 59
Stutt@@ 59
better 59
chap@@ 59
crit@@ 59
dido 59
elected 59
fort@@ 59
genes 59
half 59
ically 59
idence 59
kuh@@ 59
mars 59
next 59
release 59
trata 59
tries 59
ww@@ 59
ím@@ 59
ÿ@@ 59
ʙ 59
ʰ@@ 59
Φ 59
αγ@@ 59
І@@ 59
Аб@@ 59
Александ@@ 59
К 59
Мар@@ 59
ит@@ 59
ло 59
область 59
ست@@ 59
ὁ 59
≡ 59
ィ@@ 59
神@@ 59
정@@ 59
Alger@@ 58
Gew@@ 58
Preis 58
adém@@ 58
article 58
beau@@ 58
coming 58
division 58
eded 58
eget@@ 58
family 58
gé@@ 58
ingine 58
interest 58
irani 58
osas 58
portu@@ 58
progr@@ 58
raum 58
relati@@ 58
result 58
schi@@ 58
studi@@ 58
timestamp 58
tores 58
wash@@ 58
αμ@@ 58
ρα 58
Ни@@ 58
СССР 58
лъ@@ 58
сть 58
ք@@ 58
به@@ 58
خ 58
ᐊ@@ 58
ḥ 58
‰ 58
小@@ 58
acqu@@ 57
contributor 57
deven@@ 57
eher 57
erne@@ 57
fica 57
march@@ 57
mento 57
nicht 57
nord@@ 57
onnes 57
petite 57
philosoph@@ 57
schl@@ 57
ships 57
software 57
status 57
ám 57
ļ@@ 57
ʃ 57
ή@@ 57
ψ@@ 57
сто@@ 57
ты 57
الف@@ 57
الن@@ 57
تر@@ 57
سر@@ 57
مر@@ 57
ḗ@@ 57
지@@ 57
---- 56
Eine 56
Ouest 56
analy@@ 56
books 56
comment 56
deriv@@ 56
dix 56
enced 56
engl@@ 56
ennen 56
fico 56
hamia 56
kamen 56
orch@@ 56
rière 56
scheid@@ 56
solution 56
univers@@ 56
études 56
Ω@@ 56
ισ@@ 56
λλ@@ 56
ρί@@ 56
των 56
Кар@@ 56
Па@@ 56
бы@@ 56
район 56
ско 56
њ@@ 56
اَ@@ 56
دی@@ 56
نج@@ 56
√ 56
ト 56
西@@ 56
Büh@@ 55
Halb@@ 55
Jugend@@ 55
Sozial@@ 55
americ@@ 55
around 55
auen 55
business 55
cycle 55
dugu 55
econom@@ 55
ests 55
gebil@@ 55
ieh@@ 55
isol@@ 55
plant 55
private 55
quier@@ 55
recogni@@ 55
retir@@ 55
writer 55
zh 55
¿ 55
À@@ 55
Österreich 55
ά 55
εν@@ 55
ώ@@ 55
Сер@@ 55
дж@@ 55
ж 55
же@@ 55
лу 55
об@@ 55
ῶ@@ 55
ⴰ@@ 55
ウ@@ 55
武@@ 55
리 55
의 55
이 55
조@@ 55
Congo 54
Fach@@ 54
Kreis@@ 54
calcul@@ 54
early 54
entre 54
français 54
grand@@ 54
imiento 54
innen 54
kwa 54
lanz@@ 54
musique 54
nhi@@ 54
regul@@ 54
reser@@ 54
subst@@ 54
tainment 54
tary 54
terior 54
uras 54
vai 54
vely 54
zwe@@ 54
ķ@@ 54
ţ 54
Ζ@@ 54
ερ@@ 54
ай@@ 54
ман 54
ные 54
الأ@@ 54
الج@@ 54
ية 54
和@@ 54
Imperio 53
Rica 53
Schauspi@@ 53
Schule 53
Soviet 53
ased 53
aters 53
available 53
chte 53
company 53
dynam@@ 53
département 53
ently 53
euse 53
exec@@ 53
fici@@ 53
fif@@ 53
kea 53
licher 53
parec@@ 53
person 53
repe@@ 53
sett@@ 53
should 53
tiller@@ 53
Über@@ 53
été 53
đ 53
άρ@@ 53
δι@@ 53
μα 53
М 53
Ти@@ 53
ет 53
мен@@ 53
се 53
بی@@ 53
عل@@ 53
نا 53
兵@@ 53
李@@ 53
生@@ 53
Benjam@@ 52
Drit@@ 52
appro@@ 52
architecture 52
argum@@ 52
dado 52
deu@@ 52
einem 52
eption 52
famili@@ 52
fig 52
gemein@@ 52
illustr@@ 52
isons 52
leurs 52
meter 52
osto 52
parator@@ 52
sement 52
ticia 52
typ@@ 52
working 52
zeug@@ 52
äu@@ 52
éti@@ 52
ôn 52
ιν@@ 52
Во@@ 52
Ор@@ 52
Ста@@ 52
Ча@@ 52
зы 52
лов@@ 52
мир 52
пи@@ 52
стан 52
ו 52
جو@@ 52
دا@@ 52
ـ@@ 52
ون@@ 52
რ 52
∥ 52
コ@@ 52
太@@ 52
田 52
Höh@@ 51
Tanganyika 51
aam 51
echo 51
five 51
hier 51
iled 51
illos 51
jeune 51
must 51
onné 51
respon@@ 51
round@@ 51
sân 51
unden 51
verb@@ 51
ède 51
ǒ@@ 51
ț 51
ȟ@@ 51
Алексе@@ 51
Би@@ 51
Те@@ 51
ед@@ 51
слав 51
Ә@@ 51
ս 51
الك@@ 51
بو@@ 51
لي@@ 51
፡ 51
ブ@@ 51
島 51
Democratic 50
Syria 50
afu 50
amente 50
appar@@ 50
could 50
dau@@ 50
edrich 50
hoch@@ 50
inici@@ 50
minister 50
mpi@@ 50
nne 50
party 50
spap@@ 50
term 50
third 50
wed 50
ài 50
änger 50
Η@@ 50
αι@@ 50
μέ@@ 50
Ад@@ 50
Совет@@ 50
ер@@ 50
ков@@ 50
миро@@ 50
рина 50
сь 50
тина 50
эк@@ 50
эро@@ 50
قر@@ 50
مع@@ 50
会@@ 50
리@@ 50
스 50
Afrique 49
Canadi@@ 49
Frauen 49
Kristo 49
afan@@ 49
again 49
alien 49
annen 49
bunal 49
construc@@ 49
deux 49
dung 49
election 49
eneo 49
example 49
fest@@ 49
gare 49
jaw@@ 49
novi@@ 49
octo@@ 49
points 49
quay 49
ħ 49
ż 49
̌ 49
υπ@@ 49
Ду@@ 49
Михай@@ 49
зо@@ 49
льный 49
ў@@ 49
ә 49
ע 49
ק 49
ای 49
كي@@ 49
مش@@ 49
مَ@@ 49
وب@@ 49
ា@@ 49
式@@ 49
Comme 48
Engl@@ 48
Linc@@ 48
ajiri 48
ateurs 48
award 48
años 48
betr@@ 48
buil@@ 48
celles 48
cias 48
cycl@@ 48
fanya 48
huy 48
ieder 48
issue 48
money 48
partment 48
pied 48
portun@@ 48
requ@@ 48
sozial@@ 48
study 48
ticos 48
trade 48
él 48
être 48
úl@@ 48
ű@@ 48
ǎ 48
ʔ@@ 48
̀ 48
΄ 48
Η 48
άλ@@ 48
ής 48
Ви@@ 48
Николай 48
ева 48
ное 48
һ@@ 48
Կ@@ 48
اس 48
الب@@ 48
دو@@ 48
یا 48
ۍ 48
キ@@ 48
一@@ 48
人@@ 48
Armee 47
Hiv@@ 47
Landes 47
Partei 47
aktion 47
allow 47
ambos 47
coron@@ 47
development 47
fact 47
lichen 47
making 47
member 47
nung 47
oría 47
particip@@ 47
petit 47
prec@@ 47
record 47
resid@@ 47
schwar@@ 47
since 47
summer 47
toire 47
utenant 47
waj@@ 47
öch@@ 47
đi@@ 47
άς 47
τα@@ 47
ви 47
ля@@ 47
сти@@ 47
хан 47
اب 47
جان 47
خان 47
دي 47
شی@@ 47
مه 47
وي@@ 47
ḍ@@ 47
ャ@@ 47
國@@ 47
特@@ 47
郎 47
국 47
국@@ 47
동@@ 47
주@@ 47
Auf 46
Carrière 46
Escuela 46
Olympics 46
Olí@@ 46
Since 46
Unternehmen 46
actu@@ 46
ammen 46
ately 46
bado 46
create 46
ellos 46
endas 46
films 46
graphi@@ 46
haa 46
hili 46
ient 46
isation 46
journ@@ 46
nú@@ 46
records 46
ría 46
strateg@@ 46
städ@@ 46
television 46
territori@@ 46
teurs 46
town@@ 46
Иванович 46
Кара@@ 46
При@@ 46
Че@@ 46
Ы@@ 46
вер@@ 46
он@@ 46
от@@ 46
ст 46
љ@@ 46
ӧ@@ 46
از@@ 46
اف@@ 46
سن@@ 46
فر@@ 46
ند 46
کو@@ 46
‍ 46
サ@@ 46
ニ@@ 46
古@@ 46
建@@ 46
月@@ 46
王@@ 46
Lauf@@ 45
Privat@@ 45
Thanh 45
Turkana 45
Wali@@ 45
archi@@ 45
awe 45
carri@@ 45
celle 45
curr@@ 45
escap@@ 45
func@@ 45
grá@@ 45
human@@ 45
iques 45
liqu@@ 45
location 45
management 45
mechan@@ 45
mission@@ 45
nership 45
ologne 45
pier@@ 45
production 45
programm@@ 45
propri@@ 45
scienti@@ 45
sich 45
statt@@ 45
terme 45
unos 45
wand@@ 45
wissen@@ 45
¥ 45
Ê@@ 45
évision 45
óg@@ 45
đe 45
Ν 45
ει 45
ην 45
ην@@ 45
ομ@@ 45
Ве@@ 45
Вла@@ 45
жу@@ 45
зе@@ 45
ры 45
рь@@ 45
ци@@ 45
ү 45
الت@@ 45
اي@@ 45
لو@@ 45
ير 45
ین 45
ܪ@@ 45
ா@@ 45
រ@@ 45
ἄ@@ 45
か@@ 45
デ@@ 45
伊@@ 45
史@@ 45
木@@ 45
那@@ 45
소@@ 45
～ 45
Buch 44
Fuß@@ 44
Kich@@ 44
Leist@@ 44
Minister@@ 44
Män@@ 44
Ngo@@ 44
Salaam 44
Sept@@ 44
Unter 44
Việt 44
actr@@ 44
alles 44
attr@@ 44
bien 44
cai 44
fique 44
groups 44
hadi@@ 44
hoa 44
huyện 44
ingly 44
luz 44
marc@@ 44
mexic@@ 44
ologique 44
parentid 44
species 44
spect@@ 44
studio 44
theor@@ 44
tionn@@ 44
tous 44
trag 44
umes 44
umma 44
until 44
öff@@ 44
ř 44
Ț@@ 44
ʿ 44
Д 44
ав@@ 44
дар@@ 44
ной 44
от 44
ун@@ 44
ут@@ 44
шка 44
Ө@@ 44
մ 44
اك@@ 44
دان 44
رة 44
سخ@@ 44
্ 44
田@@ 44
道 44
하@@ 44
Actu@@ 43
Comité 43
Ecuador 43
Kati 43
Ló@@ 43
atta@@ 43
destruc@@ 43
different 43
eich@@ 43
erei 43
hija 43
including 43
kuch@@ 43
miles 43
near@@ 43
need 43
prac@@ 43
quot@@ 43
separ@@ 43
thuộc 43
thành 43
völ@@ 43
wale 43
wap@@ 43
wech@@ 43
équ@@ 43
Š 43
̈ 43
άκ@@ 43
απ@@ 43
εύ@@ 43
σκ@@ 43
σσ@@ 43
τρ@@ 43
Сте@@ 43
ле 43
ми 43
чу@@ 43
щ 43
ց@@ 43
ابن 43
ران 43
ط 43
لی 43
وی@@ 43
گا@@ 43
් 43
パ@@ 43
軍@@ 43
라@@ 43
Gatt@@ 42
Giang 42
Gruppe 42
Punk@@ 42
Sơn 42
absol@@ 42
alismo 42
artic@@ 42
cath@@ 42
cero 42
cion@@ 42
echa 42
energy 42
environ@@ 42
gyp@@ 42
liches 42
lique 42
lée 42
pair 42
phố 42
proper@@ 42
quand 42
reas 42
saire 42
simple 42
sino 42
stelle 42
steller 42
tigen 42
trực 42
tỉnh 42
uerto 42
waka 42
within 42
women 42
yako 42
õ 42
ɒ@@ 42
ίας 42
αν 42
ατ@@ 42
εις 42
λι@@ 42
τον 42
ό 42
Дмит@@ 42
Т 42
Укра@@ 42
ды 42
нови@@ 42
те 42
ча 42
чи 42
اء 42
ات 42
اق@@ 42
لل@@ 42
لَ@@ 42
مد@@ 42
گان 42
ব@@ 42
ி@@ 42
ᐃ@@ 42
Ἐ@@ 42
‡ 42
中国@@ 42
人 42
子@@ 42
文@@ 42
疆@@ 42
전@@ 42
트 42
Nyan@@ 41
Proz@@ 41
Quang 41
Tä@@ 41
academ@@ 41
ajes 41
atives 41
azine 41
aître 41
bord 41
coach 41
compar@@ 41
compos@@ 41
conver@@ 41
died 41
duy 41
huo 41
included 41
nature 41
partic@@ 41
past 41
poss@@ 41
race 41
reduc@@ 41
simil@@ 41
sind 41
sition 41
takes 41
terie 41
tä@@ 41
verband 41
ände 41
äuser 41
ígen@@ 41
ť@@ 41
ɔ 41
ɣ@@ 41
ɪ 41
̯ 41
Ο 41
ες 41
ευ@@ 41
μος 41
όβ@@ 41
όν 41
Гор@@ 41
Никола@@ 41
Пе@@ 41
Пре@@ 41
Ю 41
ской 41
то 41
ья 41
ө 41
انی 41
در 41
سل@@ 41
علی 41
க@@ 41
Ḫ@@ 41
エ@@ 41
ガ@@ 41
ソ@@ 41
ド 41
尔@@ 41
川 41
株@@ 41
白@@ 41
기 41
다 41
선@@ 41
Description 40
Eig@@ 40
Guerre 40
Hymenoptera 40
Kön@@ 40
Sous 40
Waf@@ 40
aled 40
arse 40
called 40
canc@@ 40
combin@@ 40
comi@@ 40
community 40
dessus 40
deur 40
dies@@ 40
fille 40
fix@@ 40
frau 40
ganda 40
grund 40
national@@ 40
official 40
ouvern@@ 40
satz 40
schutz 40
speci@@ 40
special 40
story 40
took 40
urba@@ 40
vivi@@ 40
¼ 40
éné@@ 40
Ľ@@ 40
˚ 40
Ι 40
λα@@ 40
με@@ 40
οφ@@ 40
χ 40
З 40
России 40
Соци@@ 40
Фё@@ 40
ве 40
ет@@ 40
кин 40
ман@@ 40
па 40
про@@ 40
фи@@ 40
Ե@@ 40
ּ 40
الر@@ 40
ام 40
عَ@@ 40
محافظة 40
ول 40
يا 40
ા@@ 40
社@@ 40
신@@ 40
자 40
Alit@@ 39
Aun@@ 39
Cór@@ 39
Grenz@@ 39
Mississi@@ 39
Sein 39
Selb@@ 39
agement 39
alipo@@ 39
asked 39
became 39
behind 39
cela 39
dered 39
durch 39
elled 39
fand 39
figure 39
frequ@@ 39
gef@@ 39
help 39
hé@@ 39
ilities 39
indu@@ 39
members 39
mitt@@ 39
moto 39
observ@@ 39
often 39
ortho@@ 39
placement 39
rein@@ 39
senc@@ 39
sites 39
zeit@@ 39
Ε 39
εια 39
νης 39
πο@@ 39
ως 39
Ай@@ 39
Михаил 39
Народ@@ 39
Пав@@ 39
Росси@@ 39
Сергей 39
Х 39
ата@@ 39
ем 39
ля 39
публика 39
ского 39
ху@@ 39
Վ@@ 39
اد 39
الد@@ 39
اه@@ 39
تو 39
حسن 39
حي@@ 39
سي@@ 39
عبد@@ 39
لي 39
ود 39
کر@@ 39
ܕ@@ 39
ṇ@@ 39
グ@@ 39
上@@ 39
八@@ 39
居 39
우@@ 39
Bau 38
Hungary 38
Verein 38
ampiyon@@ 38
another 38
año 38
cinéma 38
comb@@ 38
complete 38
department 38
depend@@ 38
director 38
disput@@ 38
dose 38
eigen@@ 38
empl@@ 38
erras 38
forc@@ 38
fusi@@ 38
gab 38
générale 38
instrum@@ 38
invol@@ 38
kila 38
lead@@ 38
manager 38
performed 38
plaza 38
reno 38
seen 38
singles 38
tér@@ 38
wanza 38
with@@ 38
öster@@ 38
Đồng 38
Ē@@ 38
ġ 38
ǧ@@ 38
Υ 38
ικός 38
λος 38
πος 38
τη@@ 38
Г 38
го 38
жи@@ 38
из@@ 38
ке 38
льная 38
ния 38
по 38
ских 38
ян@@ 38
ایران 38
ده 38
ری@@ 38
وم@@ 38
್ 38
ᖅ 38
オ@@ 38
隊 38
기@@ 38
﻿ 38
Allem@@ 37
Als 37
Belgique 37
Bere@@ 37
Nint@@ 37
Verein@@ 37
abras 37
alité 37
anii 37
announced 37
bila 37
bisher 37
bé@@ 37
chanson 37
chef 37
chron@@ 37
competition 37
conqu@@ 37
dows 37
emble 37
formed 37
forsch@@ 37
gericht 37
jeres 37
much 37
propor@@ 37
schafts@@ 37
scor@@ 37
sehen 37
seis 37
thu 37
wär@@ 37
¢ 37
àng 37
áo 37
äus@@ 37
Ħ@@ 37
ɐ 37
ɕ@@ 37
Ά@@ 37
γι@@ 37
Ком@@ 37
Про@@ 37
али@@ 37
лин@@ 37
ок@@ 37
рен@@ 37
це@@ 37
ян 37
ֲ@@ 37
الخ@@ 37
بل@@ 37
سلطان 37
می 37
وم 37
پی@@ 37
ۆ@@ 37
ἰ@@ 37
い 37
な@@ 37
主@@ 37
之@@ 37
地@@ 37
安@@ 37
박@@ 37
수@@ 37
최@@ 37
According 36
Jahr@@ 36
Minister 36
Mr. 36
Nä@@ 36
Qué@@ 36
Quảng 36
Rolle 36
Tage 36
ached 36
alista 36
altung 36
barrio 36
compil@@ 36
direct 36
document@@ 36
excep@@ 36
future 36
fé@@ 36
games 36
issant 36
iture 36
label 36
laun@@ 36
ographie 36
parts 36
pays 36
period 36
punto 36
rais 36
struk@@ 36
territ@@ 36
tiem@@ 36
treat@@ 36
valu@@ 36
º@@ 36
ɐ@@ 36
̨ 36
Ψ 36
εν 36
θος 36
οπ@@ 36
ορ@@ 36
τη 36
Р 36
Хо@@ 36
аль@@ 36
бла@@ 36
ги 36
дар 36
ем@@ 36
йн 36
кови@@ 36
народ@@ 36
ние 36
ун 36
تا@@ 36
خی@@ 36
ري 36
مة 36
نو@@ 36
ولا@@ 36
وی 36
Ḳ@@ 36
ṣ 36
ἔ@@ 36
› 36
∂ 36
テ@@ 36
公@@ 36
正@@ 36
나@@ 36
에@@ 36
Entw@@ 35
Künst@@ 35
Nigeria 35
Teil@@ 35
accoun@@ 35
anistan 35
azini 35
bish@@ 35
champi@@ 35
conv@@ 35
deutschen 35
diffus@@ 35
district 35
ectura 35
ecu@@ 35
enario 35
forms 35
fully 35
geschichte 35
minister@@ 35
peu 35
population 35
province 35
publican 35
puis 35
schle@@ 35
second@@ 35
titre 35
voix 35
zial@@ 35
ätte 35
ónimo 35
ÿ 35
đa 35
ť 35
άσ@@ 35
αδ@@ 35
δε 35
μπ@@ 35
τερ@@ 35
Вели@@ 35
Македо@@ 35
лек@@ 35
лю@@ 35
рия 35
ска@@ 35
тан@@ 35
ёт@@ 35
ռ@@ 35
ات@@ 35
بَ@@ 35
دي@@ 35
دی 35
مي 35
ين@@ 35
ۀ 35
ܡ@@ 35
ি@@ 35
Ἰ@@ 35
⊙ 35
チ@@ 35
島@@ 35
拟@@ 35
斯@@ 35
石@@ 35
ESCO 34
Leip@@ 34
Massachus@@ 34
Osten 34
Quốc 34
Republik 34
Städ@@ 34
allow@@ 34
animal 34
association 34
character 34
drit@@ 34
equi@@ 34
ername 34
ería 34
fait 34
few 34
frac@@ 34
great 34
kazi 34
khu 34
kich@@ 34
kote 34
modo 34
neas 34
nten 34
offs 34
onales 34
ouver@@ 34
phase 34
pont 34
published 34
received 34
resol@@ 34
seinen 34
teren 34
tions@@ 34
units 34
ĭ@@ 34
į@@ 34
ɨ@@ 34
ˁ@@ 34
Θ 34
Λ 34
κλ@@ 34
κο@@ 34
υλ@@ 34
Авто@@ 34
Б 34
Владимир 34
Ге@@ 34
Й 34
Кур@@ 34
Тур@@ 34
лан 34
ну@@ 34
ым 34
эн@@ 34
ש 34
الشيخ 34
الْ@@ 34
اني 34
خر@@ 34
ری 34
ص 34
عة 34
مص@@ 34
ަ@@ 34
ლ 34
ḵ@@ 34
ὶ 34
₂ 34
い@@ 34
も@@ 34
十@@ 34
平@@ 34
烏@@ 34
野@@ 34
공@@ 34
로@@ 34
미@@ 34
Aus 33
Consejo 33
Ende 33
Hoa 33
Migu@@ 33
Más 33
Zur 33
above 33
across 33
alismus 33
angeb@@ 33
aría 33
ases@@ 33
below 33
chac@@ 33
circu@@ 33
covered 33
duc 33
eht 33
ested 33
every 33
frances@@ 33
genus 33
gesellschaft 33
guerra 33
haup@@ 33
heit@@ 33
isla 33
island 33
koa 33
langue 33
mita 33
mother 33
movement 33
police 33
popular 33
provin@@ 33
reve@@ 33
sawa 33
serie 33
sied@@ 33
surface 33
tische 33
tó 33
writing 33
zeich@@ 33
 33
États 33
èmes 33
ösung 33
út 33
Ġ@@ 33
Ī@@ 33
ŭ 33
Παπ@@ 33
Φιλ@@ 33
П 33
вский 33
дан@@ 33
доро@@ 33
ду 33
тов 33
ци 33
чер@@ 33
آل 33
أَ@@ 33
بي 33
لی@@ 33
مُ@@ 33
ير@@ 33
يل 33
ڭ 33
گر@@ 33
ܐ@@ 33
ܬ@@ 33
ን@@ 33
ん 33
ナ@@ 33
ミ@@ 33
沙@@ 33
虚@@ 33
語 33
陸@@ 33
가@@ 33
그@@ 33
당 33
보@@ 33
성@@ 33
아 33
원@@ 33
－ 33
Anf@@ 32
Career 32
Hà 32
Mutter 32
afu@@ 32
ahada 32
aily 32
along 32
ammlung 32
anded 32
arbeit@@ 32
concer@@ 32
develop@@ 32
dioc@@ 32
discipl@@ 32
dió 32
dont 32
démoc@@ 32
encore 32
enea 32
exten@@ 32
feature 32
goal 32
guez 32
igung 32
inten@@ 32
itze 32
kuj@@ 32
mej@@ 32
mujer 32
munici@@ 32
niti@@ 32
prison 32
rait 32
resul@@ 32
só@@ 32
tival 32
travers 32
zug@@ 32
Ý@@ 32
était 32
óng 32
ĕ@@ 32
ɾ 32
ʉ@@ 32
σα 32
Ке@@ 32
ССР 32
Ф 32
Чу@@ 32
дан 32
др 32
йский 32
пол@@ 32
ран@@ 32
Բ@@ 32
ח 32
ך 32
آخ@@ 32
الز@@ 32
المن@@ 32
دار@@ 32
سع@@ 32
صر 32
في@@ 32
كو@@ 32
لان 32
مل@@ 32
وس@@ 32
़ 32
র@@ 32
ી 32
ர@@ 32
ር@@ 32
ḳ 32
Ḵ@@ 32
ḷ@@ 32
∇ 32
城 32
河 32
社 32
自治@@ 32
都@@ 32
라 32
유@@ 32
Afgh@@ 31
Hòa 31
Werk@@ 31
Wieder@@ 31
aises 31
basketball 31
categ@@ 31
central 31
close 31
complex 31
consist@@ 31
cultural 31
distance 31
elea 31
engen@@ 31
evangel@@ 31
fang@@ 31
führung 31
gegen 31
gesetz@@ 31
going 31
greso 31
guerre 31
heav@@ 31
ieron 31
justice 31
leva 31
liko 31
linal@@ 31
listed 31
maison 31
meas@@ 31
pour@@ 31
research 31
running 31
soit 31
south 31
ulares 31
usiana 31
uwe@@ 31
verz@@ 31
wich@@ 31
ái 31
île 31
ʷ@@ 31
έρ@@ 31
θη@@ 31
κά@@ 31
μεν@@ 31
νη 31
ολ@@ 31
ών 31
Все@@ 31
Л 31
Рус@@ 31
Ь 31
ау@@ 31
ван 31
ган 31
де 31
ден 31
зу 31
ку 31
ог@@ 31
публика@@ 31
ть 31
це 31
Պ@@ 31
ך@@ 31
از 31
اپ@@ 31
سو@@ 31
كر@@ 31
نی@@ 31
یت 31
া 31
ક@@ 31
ப@@ 31
თ 31
ế 31
ℳ 31
♦ 31
ュ@@ 31
京@@ 31
利@@ 31
区 31
回@@ 31
日 31
松@@ 31
清@@ 31
鳥 31
黄@@ 31
원 31
Früh@@ 30
Nha 30
aktiv 30
amua 30
application 30
candid@@ 30
conserv@@ 30
currently 30
developed 30
donn@@ 30
erung 30
escu@@ 30
expos@@ 30
ezas 30
fiction 30
franc@@ 30
franç@@ 30
fédér@@ 30
instruc@@ 30
italiano 30
juli@@ 30
mambo 30
minute 30
move 30
nh 30
oires 30
origine 30
performance 30
persona 30
physi@@ 30
recherche 30
related 30
report 30
results 30
rä@@ 30
rév@@ 30
sched@@ 30
sexual 30
six@@ 30
spiele 30
steh@@ 30
support 30
terres@@ 30
ucion@@ 30
uma@@ 30
wao 30
waz@@ 30
xã 30
zentrum 30
zeug 30
Õ@@ 30
ísticas 30
ít 30
ños 30
út@@ 30
ǫ 30
ʔ 30
̗ 30
ίδης 30
ους 30
πι@@ 30
πολι@@ 30
ρον 30
τε@@ 30
τες 30
όπουλος 30
Вале@@ 30
Ива@@ 30
Лу@@ 30
Республики 30
Шу@@ 30
вая 30
ган@@ 30
до 30
кова 30
лё@@ 30
нин 30
ница 30
ско@@ 30
тур@@ 30
ћ@@ 30
ҡ@@ 30
Ү@@ 30
Ն@@ 30
Շ@@ 30
Տ@@ 30
الط@@ 30
باح 30
بنت 30
به 30
جبل 30
خان@@ 30
زي@@ 30
سف@@ 30
مار@@ 30
مان@@ 30
ها 30
وج@@ 30
وَ@@ 30
ّ 30
ܢ@@ 30
އ@@ 30
ম@@ 30
ু@@ 30
ம@@ 30
์ 30
Ṣ@@ 30
Ṭ@@ 30
∆ 30
と@@ 30
ク 30
ダ@@ 30
吉@@ 30
國 30
川@@ 30
戦@@ 30
族@@ 30
部 30
韓@@ 30
마@@ 30
시@@ 30
안@@ 30
Anh 29
Bắc 29
Following 29
However 29
Juli 29
Loan 29
Mundial 29
Nguyên 29
Orden 29
Verw@@ 29
ably 29
atiques 29
because 29
beit@@ 29
came 29
children 29
collection 29
como 29
correc@@ 29
ectu@@ 29
education 29
experi@@ 29
fuat@@ 29
fäl@@ 29
génér@@ 29
ingt 29
kiwa 29
living 29
mais 29
means 29
mehr 29
north 29
odio 29
pewa 29
polon@@ 29
publik 29
revel@@ 29
route 29
sau 29
several 29
siè@@ 29
specific 29
states 29
stellung 29
thị 29
today 29
tradi@@ 29
voie 29
wei@@ 29
zug 29
Í 29
äts@@ 29
÷ 29
Č 29
į 29
˥ 29
Ξ@@ 29
εί@@ 29
εκ@@ 29
οδ@@ 29
Бай@@ 29
Василь@@ 29
Георги@@ 29
Гри@@ 29
Ди@@ 29
Иль@@ 29
Кон@@ 29
Чи@@ 29
дин 29
жи 29
мия 29
ников 29
ных 29
ня 29
ран 29
фо@@ 29
չ@@ 29
ץ 29
اخ@@ 29
الإ@@ 29
را 29
رَ@@ 29
عه 29
مر 29
وان 29
وق@@ 29
ولاية 29
يوسف 29
پر@@ 29
چ 29
ᐅ@@ 29
ᕐ@@ 29
ស@@ 29
ḏ@@ 29
ḗ 29
ṯ@@ 29
Ἄ@@ 29
イ 29
ョ@@ 29
党 29
合@@ 29
寺 29
後 29
군 29
비@@ 29
여@@ 29
재@@ 29
𐰇@@ 29
Dorf@@ 28
Ecu@@ 28
Guinea 28
Iglesia 28
Represent@@ 28
Văn 28
Werk 28
albums 28
alten 28
ambigu@@ 28
arqu@@ 28
assist@@ 28
baren 28
basis 28
charge 28
cito 28
contra 28
cours 28
cán@@ 28
doa 28
does 28
droit 28
dungs@@ 28
editor 28
ellschaft 28
emple 28
equival@@ 28
erten 28
famous 28
gó@@ 28
iones 28
kais@@ 28
klär@@ 28
kräf@@ 28
langu@@ 28
legen 28
llev@@ 28
neutr@@ 28
osos 28
produk@@ 28
project 28
puer@@ 28
rement 28
resist@@ 28
revision 28
senior 28
structure 28
suite 28
tales 28
ulaire 28
veaux 28
zili@@ 28
Î 28
ây 28
étés 28
óp@@ 28
ʊ 28
ʾ 28
Β 28
Δι@@ 28
Παρ@@ 28
Τζ@@ 28
άγ@@ 28
άδ@@ 28
έν@@ 28
κύ@@ 28
μαν@@ 28
πα@@ 28
ργ@@ 28
τικός 28
τυ@@ 28
τω 28
ώ 28
Бал@@ 28
Гу@@ 28
Иван 28
Серге@@ 28
анд@@ 28
бра@@ 28
вет 28
ву@@ 28
йская 28
кая 28
мм 28
мя@@ 28
ного 28
они@@ 28
Լ@@ 28
է@@ 28
ց 28
اج@@ 28
احمد 28
الل@@ 28
تو@@ 28
تور@@ 28
تَ@@ 28
جن@@ 28
سان 28
طف@@ 28
مس@@ 28
த@@ 28
ு@@ 28
አ@@ 28
ὀ@@ 28
ῦ 28
₩ 28
↔ 28
∧ 28
あ@@ 28
り@@ 28
ェ@@ 28
メ@@ 28
六@@ 28
家@@ 28
居@@ 28
州 28
徳@@ 28
村 28
法 28
神 28
突@@ 28
經 28
若@@ 28
長@@ 28
지 28
， 28
Asociación 27
Gemein@@ 27
Ghana 27
Häl@@ 27
Ivoire 27
Kultur 27
Lê 27
Mais 27
Reino 27
Wam@@ 27
Zentrum 27
agit 27
airman 27
ajou@@ 27
angwa 27
associated 27
blanco 27
built 27
charg@@ 27
comme 27
comun@@ 27
const@@ 27
déc@@ 27
empe@@ 27
endant 27
featured 27
fut 27
ghi 27
gradu@@ 27
gén@@ 27
ifu@@ 27
khu@@ 27
lesia 27
livre 27
luch@@ 27
maire 27
maji 27
military 27
months 27
occas@@ 27
paci@@ 27
politiques 27
pru@@ 27
quanti@@ 27
russ@@ 27
seph 27
stark 27
voi 27
volume 27
woh@@ 27
ximo 27
zwei 27
änd@@ 27
école 27
Ţ@@ 27
ɲ@@ 27
ʕ@@ 27
Γιώργ@@ 27
Ελλην@@ 27
Καρ@@ 27
επ@@ 27
ηλ@@ 27
ησ@@ 27
ιά 27
ική 27
κας 27
ογ@@ 27
πλ@@ 27
Ах@@ 27
Н 27
Тат@@ 27
Ше@@ 27
вин@@ 27
вы@@ 27
года 27
гра@@ 27
град 27
дия 27
зи 27
зя@@ 27
образ@@ 27
округ 27
рат 27
сп@@ 27
стан@@ 27
ђ@@ 27
ј 27
Դ@@ 27
ջ@@ 27
փ@@ 27
և@@ 27
بد@@ 27
بر 27
بن@@ 27
رب@@ 27
سي 27
قي@@ 27
لو 27
مسجد 27
نَ@@ 27
نگ@@ 27
نی 27
والی 27
وری 27
र 27
ᑦ 27
ḡ@@ 27
ṓ@@ 27
ṭ 27
₹ 27
↑ 27
⊕ 27
し@@ 27
ま@@ 27
ら@@ 27
九@@ 27
元@@ 27
女@@ 27
年@@ 27
拉@@ 27
方@@ 27
木 27
江@@ 27
湖 27
王 27
百@@ 27
空@@ 27
英@@ 27
華@@ 27
道@@ 27
長 27
남@@ 27
도@@ 27
사 27
시 27
은 27
Gonzá@@ 26
Philippines 26
Phong 26
Weg 26
Wirt@@ 26
Yên 26
Zum 26
alise 26
ammen@@ 26
become 26
caus@@ 26
changes 26
conduc@@ 26
declar@@ 26
defeated 26
diagn@@ 26
enfants 26
ensemble 26
etc. 26
experim@@ 26
find 26
führ@@ 26
incorpor@@ 26
industrial 26
initial 26
insec@@ 26
khai 26
marqu@@ 26
material 26
moderne 26
mostr@@ 26
permi@@ 26
present@@ 26
produced 26
proxim@@ 26
père 26
rain@@ 26
recep@@ 26
relations 26
rence 26
runs 26
sage 26
sexu@@ 26
tnis 26
together 26
tournament 26
zuri 26
¾ 26
Ä 26
Ét@@ 26
ènes 26
ʁ 26
ʒ 26
Κα@@ 26
Π 26
Ψ@@ 26
ανδ@@ 26
μά@@ 26
μι@@ 26
ξι@@ 26
οκ@@ 26
οχ@@ 26
ριος 26
ρυ@@ 26
Ак@@ 26
Пу@@ 26
Ы 26
ара 26
ати@@ 26
ато@@ 26
бан@@ 26
дов 26
им@@ 26
лий 26
лова 26
мат@@ 26
мов 26
пер@@ 26
сло@@ 26
сса@@ 26
уго@@ 26
фа@@ 26
ҳ@@ 26
բ 26
տ 26
ז 26
ט 26
ף 26
آب@@ 26
بار 26
باش@@ 26
ث 26
دا 26
دة 26
لة 26
مج@@ 26
نق@@ 26
نه 26
وار@@ 26
گ 26
র 26
স@@ 26
። 26
き@@ 26
ケ@@ 26
ビ@@ 26
一 26
人民@@ 26
四@@ 26
城@@ 26
宗@@ 26
法@@ 26
馬@@ 26
고@@ 26
바@@ 26
수 26
에 26
연 26
자@@ 26
주 26
화@@ 26
Asoci@@ 25
Département 25
Ethiop@@ 25
Hanno@@ 25
Ngô 25
Norden 25
Phú 25
Schweiz 25
Sohn 25
aguas 25
ationen 25
autre 25
capac@@ 25
cars 25
chief 25
chú 25
combat 25
communic@@ 25
connu 25
construction 25
cost 25
cultur@@ 25
có 25
diffic@@ 25
distribution 25
estim@@ 25
exper@@ 25
expression 25
fahrt 25
familia 25
fá@@ 25
government 25
gran 25
health 25
historia 25
hô@@ 25
important 25
journal 25
kuli@@ 25
lichkeit 25
matches 25
mbal@@ 25
papel 25
parc 25
poder@@ 25
positions 25
präs@@ 25
radic@@ 25
response 25
sold 25
sont 25
subject 25
tanto 25
trai 25
trois 25
turas 25
verk@@ 25
voll@@ 25
wegen 25
werk@@ 25
yao 25
ŝ@@ 25
ɕ 25
̆ 25
Μά@@ 25
Μαρ@@ 25
έλ@@ 25
ίου 25
αβ@@ 25
δρ@@ 25
εία 25
ικό 25
οσ@@ 25
την 25
όπ@@ 25
Анато@@ 25
Гра@@ 25
Зе@@ 25
Об@@ 25
Ри@@ 25
Свя@@ 25
Фе@@ 25
Ц 25
Ч 25
Чер@@ 25
Ш 25
Э 25
бе 25
государствен@@ 25
джа@@ 25
имени 25
ите@@ 25
каз@@ 25
лен@@ 25
лин 25
спу@@ 25
тя@@ 25
խ@@ 25
العزيز 25
الو@@ 25
باط 25
خو@@ 25
دار 25
زی@@ 25
سر 25
سی 25
ظ@@ 25
فة 25
قَ@@ 25
منطقة 25
هر@@ 25
يَ@@ 25
ল@@ 25
ન@@ 25
่ 25
ᒃ 25
ử 25
ラ 25
不@@ 25
博@@ 25
台@@ 25
團 25
後@@ 25
明@@ 25
漢@@ 25
產@@ 25
真@@ 25
草@@ 25
軍 25
通@@ 25
部@@ 25
里@@ 25
강@@ 25
대 25
랑 25
선 25
제@@ 25
화 25
𐱅@@ 25
Bahnhof 24
Israeli 24
Kult@@ 24
Sie 24
Wirtschafts@@ 24
achsen 24
addition 24
aliza 24
amt@@ 24
associ@@ 24
canción 24
comte 24
contre 24
countries 24
design@@ 24
features 24
implement@@ 24
institu@@ 24
joint 24
kundi 24
kê 24
lao 24
least 24
medical 24
minut@@ 24
mise 24
nouvelle 24
ogoro 24
ologische 24
parte 24
paso 24
pein@@ 24
perman@@ 24
previous 24
professor 24
provincia 24
reli@@ 24
religi@@ 24
similar 24
soll 24
tenir 24
travers@@ 24
tá 24
utili@@ 24
vehic@@ 24
vía 24
w.@@ 24
week@@ 24
who@@ 24
wife 24
änder@@ 24
ǵ@@ 24
ʹ@@ 24
̄ 24
Κωνσταντίνος 24
Παν@@ 24
ιμ@@ 24
ιος 24
καν@@ 24
μβ@@ 24
μου 24
τί@@ 24
τας 24
ύρ@@ 24
Василий 24
Дра@@ 24
Ев@@ 24
Й@@ 24
Кра@@ 24
Лю@@ 24
Сем@@ 24
Хер@@ 24
гар@@ 24
дор 24
лина 24
рав@@ 24
раз@@ 24
сан@@ 24
сов 24
стра@@ 24
сты@@ 24
тар 24
џ@@ 24
Խ@@ 24
اور@@ 24
بار@@ 24
جه 24
كي 24
له 24
مد 24
ني@@ 24
وا 24
وار 24
وت@@ 24
ې@@ 24
स 24
ಾ@@ 24
ገ@@ 24
ុ@@ 24
ọ 24
■ 24
う@@ 24
た@@ 24
セ@@ 24
ハ@@ 24
奴 24
張@@ 24
朝@@ 24
鮮@@ 24
는 24
니@@ 24
다@@ 24
레@@ 24
세@@ 24
엔@@ 24
터@@ 24
현 24
（ 24
Arbeit 23
Ejército 23
Fernseh@@ 23
Forschungs@@ 23
Gebi@@ 23
Meister@@ 23
Menschen 23
Orts@@ 23
Population 23
Trần 23
Tây 23
Verfüg@@ 23
Zanz@@ 23
alcal@@ 23
appel@@ 23
armes 23
census 23
departamento 23
destr@@ 23
dém@@ 23
ecken 23
eight 23
etwa 23
eté 23
fér@@ 23
gebi@@ 23
hup@@ 23
includes 23
internationale 23
jeu 23
kommen 23
leitung 23
mehr@@ 23
neigh@@ 23
obst@@ 23
ografia 23
organization 23
players 23
proced@@ 23
question 23
remain@@ 23
rouge 23
sinh 23
supérieur 23
teil@@ 23
terror@@ 23
tish 23
township 23
verein@@ 23
vista 23
weil 23
¬ 23
ónom@@ 23
ôle 23
ĭ 23
Œ@@ 23
ǫ@@ 23
ʋ@@ 23
ʽ@@ 23
αστ@@ 23
βι@@ 23
ετ@@ 23
κυ@@ 23
μφ@@ 23
οί 23
πε@@ 23
ρε@@ 23
ροι 23
σία 23
ται 23
τζ@@ 23
τός 23
υμ@@ 23
υρ@@ 23
Андре@@ 23
Бер@@ 23
Виктор 23
Воен@@ 23
Ли@@ 23
СК@@ 23
Сар@@ 23
Ши@@ 23
Щ@@ 23
бал@@ 23
ек@@ 23
зер@@ 23
зу@@ 23
кон@@ 23
мо 23
она@@ 23
санд@@ 23
тин 23
хи 23
ции 23
че 23
шо@@ 23
Զ@@ 23
լ 23
ձ@@ 23
اش 23
الدین 23
المست@@ 23
الي@@ 23
تی@@ 23
جه@@ 23
رين 23
عد@@ 23
عمر 23
فی@@ 23
كور@@ 23
میر@@ 23
کی@@ 23
ܠ@@ 23
प 23
ර@@ 23
ි@@ 23
မ@@ 23
ᑐ@@ 23
Ṫ@@ 23
ẓ@@ 23
ᾶ@@ 23
― 23
∩ 23
► 23
さ@@ 23
ん@@ 23
ム 23
三 23
中國@@ 23
勒@@ 23
国 23
我@@ 23
教 23
朱@@ 23
水@@ 23
火@@ 23
立@@ 23
組@@ 23
鞮@@ 23
가 23
니 23
무@@ 23
서@@ 23
의@@ 23
진 23
해@@ 23
ﺎ@@ 23
Bis 22
Gleich@@ 22
Jimbo 22
Literatur 22
Munici@@ 22
Pologne 22
Rang 22
Servic@@ 22
Thái 22
Vater 22
Weit@@ 22
adamente 22
alich@@ 22
appeared 22
après 22
author 22
centrale 22
college 22
comment@@ 22
corps 22
created 22
cré@@ 22
déjà 22
east 22
either 22
episode 22
explor@@ 22
forced 22
haut 22
ifen 22
igned 22
imonio 22
kilom@@ 22
kunde 22
kush@@ 22
lege 22
lá 22
lý 22
medio 22
monum@@ 22
musici@@ 22
nacional 22
nhof 22
noche 22
otros 22
prince 22
provid@@ 22
pueblo 22
rather 22
restric@@ 22
roul@@ 22
río 22
secre@@ 22
seine 22
sita 22
tano 22
tario 22
tiles 22
toba 22
vér@@ 22
È@@ 22
ình 22
ũ@@ 22
ʂ@@ 22
˩ 22
̑ 22
̲ 22
Γι@@ 22
Περ@@ 22
άμ@@ 22
αί@@ 22
απο@@ 22
γεν@@ 22
εσ@@ 22
ιδ@@ 22
με 22
οι@@ 22
πρ@@ 22
ριστ@@ 22
ρύ@@ 22
σιος 22
τή@@ 22
τολή 22
τρι@@ 22
τσ@@ 22
τω@@ 22
χος 22
Бело@@ 22
Дже@@ 22
Кри@@ 22
На 22
Теле@@ 22
Ху@@ 22
аб@@ 22
алистиче@@ 22
ван@@ 22
ген@@ 22
йо@@ 22
кан 22
мы 22
ня@@ 22
пра@@ 22
рал 22
рин 22
ственный 22
тан 22
фе@@ 22
хо 22
цкий 22
чо@@ 22
ё 22
ї 22
Ք@@ 22
ը 22
յ 22
ׂ@@ 22
اباد 22
افغانستان 22
الرحمن 22
خوا@@ 22
زی 22
سید 22
شو@@ 22
ض 22
قو@@ 22
كر 22
ما 22
وس 22
يم 22
ٱ@@ 22
گن@@ 22
یم 22
জ@@ 22
ર@@ 22
ச@@ 22
ා@@ 22
ჟ@@ 22
ក@@ 22
く@@ 22
れ@@ 22
を@@ 22
ベ@@ 22
东@@ 22
中央@@ 22
原@@ 22
摩 22
玉@@ 22
米@@ 22
設@@ 22
龍 22
龍@@ 22
부 22
상@@ 22
어@@ 22
오@@ 22
일@@ 22
호 22
Amt 21
Arbeits@@ 21
During 21
Dương 21
Esta 21
Fußball@@ 21
Hier 21
Hoàng 21
Kuna 21
Parte@@ 21
Spiel 21
Wahl 21
afiti 21
akuwa 21
alisation 21
assass@@ 21
autor@@ 21
benef@@ 21
besch@@ 21
cause 21
cerem@@ 21
character@@ 21
chim 21
cities 21
comple@@ 21
concept 21
considered 21
constitu@@ 21
consult@@ 21
contact 21
elte 21
enfr@@ 21
eure 21
expl@@ 21
femmes 21
follow@@ 21
ganz@@ 21
geht 21
govern@@ 21
gré 21
historique 21
iert 21
inah@@ 21
introduced 21
itié 21
lagen 21
larg@@ 21
larger 21
leader 21
mif@@ 21
mitted 21
mê@@ 21
ohne 21
partam@@ 21
placed 21
polic@@ 21
presented 21
qualif@@ 21
quartier 21
saint 21
seul@@ 21
sold@@ 21
sources 21
southern 21
started 21
techniques 21
tenant 21
usually 21
vote 21
weng@@ 21
wür@@ 21
 21
äre 21
écn@@ 21
état 21
öß@@ 21
ʌ@@ 21
̪ 21
Αγ@@ 21
Κυ@@ 21
Λευ@@ 21
ήσ@@ 21
ίνα 21
ιο 21
κος 21
οπο@@ 21
σε@@ 21
στο@@ 21
τε 21
τι 21
ϕ 21
Ђ@@ 21
Ана@@ 21
Джа@@ 21
Ж 21
Миха@@ 21
Обла@@ 21
Пар@@ 21
Пловдив 21
Сто@@ 21
ал 21
ате@@ 21
вой 21
вы 21
гу 21
ден@@ 21
дин@@ 21
дра@@ 21
дро@@ 21
лет 21
льский 21
ме 21
нь 21
ори 21
род@@ 21
рус@@ 21
ум@@ 21
уч@@ 21
хан@@ 21
чка 21
шен@@ 21
є@@ 21
ў 21
ѣ@@ 21
ҙ@@ 21
ҧ@@ 21
Ӏ 21
դ 21
ծ@@ 21
ֹ 21
اسلامی 21
اق 21
بِ@@ 21
تق@@ 21
حسين 21
رم 21
على 21
فَ@@ 21
لم 21
محمود 21
چر@@ 21
ێ@@ 21
त 21
ক@@ 21
ী 21
્ 21
வ@@ 21
დ 21
ብ@@ 21
ት 21
ᑦ@@ 21
ᓂ@@ 21
ព@@ 21
ṛ@@ 21
ὁ@@ 21
※ 21
⅓ 21
∗ 21
∠ 21
ⵉ@@ 21
つ@@ 21
は@@ 21
ナ 21
乌@@ 21
会 21
別@@ 21
土@@ 21
大 21
学校 21
宮@@ 21
家 21
府 21
廣@@ 21
氏 21
江 21
的@@ 21
皇 21
羅@@ 21
美@@ 21
茶 21
趙@@ 21
連@@ 21
風@@ 21
랑@@ 21
영@@ 21
요 21
위@@ 21
장@@ 21
테@@ 21
한 21
𐰼@@ 21
Architek@@ 20
Bruder 20
Cathol@@ 20
Durante 20
Entwicklung 20
Gmina 20
Innen@@ 20
Jahre 20
Klasse 20
Machi 20
Perú 20
Position 20
Wie 20
achten 20
acus@@ 20
although 20
amerikan@@ 20
andao 20
applic@@ 20
arded 20
centre 20
château 20
cité 20
clas@@ 20
compon@@ 20
conom@@ 20
consci@@ 20
consol@@ 20
constr@@ 20
coordin@@ 20
crimin@@ 20
culture 20
deutsch 20
distinc@@ 20
edades 20
edly 20
ejec@@ 20
empre 20
español 20
exist@@ 20
extra@@ 20
fern 20
grou@@ 20
however 20
idente 20
industrie 20
instead 20
interpre@@ 20
joined 20
kleine 20
kämp@@ 20
lowing 20
lungen 20
más 20
named 20
neu 20
nje 20
ológico 20
oppos@@ 20
originally 20
political 20
politique 20
purch@@ 20
relation 20
represent@@ 20
represented 20
schaft@@ 20
services 20
sych@@ 20
terms 20
thode 20
thought 20
unique 20
viel 20
waw@@ 20
Ô@@ 20
áp 20
érieur 20
êtes 20
ística 20
ď@@ 20
ĕ 20
Ž 20
̧ 20
̩ 20
Γεώργιος 20
Επισ@@ 20
Κύπρου 20
Τ 20
ές 20
ίκ@@ 20
αλλ@@ 20
εγ@@ 20
οβ@@ 20
ούν@@ 20
προς 20
τά@@ 20
υγ@@ 20
όδ@@ 20
Бори@@ 20
Борис 20
Вар@@ 20
Викто@@ 20
Вол@@ 20
Воло@@ 20
Ген@@ 20
Государ@@ 20
Кор@@ 20
Ленин@@ 20
вина 20
гол 20
же 20
зов 20
мен 20
най 20
ол@@ 20
ста 20
стро@@ 20
тар@@ 20
тро@@ 20
университет 20
ченко 20
ьо@@ 20
Ө 20
Թ@@ 20
ائ@@ 20
الغ@@ 20
اله@@ 20
انه 20
تب@@ 20
تح@@ 20
تن@@ 20
تون@@ 20
تی 20
دن 20
دير 20
ذ 20
رش@@ 20
رین 20
سا 20
لى 20
ندر 20
کور@@ 20
ۈ@@ 20
ۋ@@ 20
یر 20
ܒ@@ 20
ܟ@@ 20
ܣ@@ 20
މ@@ 20
ް@@ 20
म 20
र@@ 20
ন 20
ন@@ 20
হ@@ 20
় 20
ে@@ 20
າ@@ 20
བ@@ 20
ོ@@ 20
ል@@ 20
ነ@@ 20
ṅ@@ 20
ṯ 20
ἱ@@ 20
ὄ@@ 20
ℓ@@ 20
∕ 20
う 20
ア 20
匈@@ 20
哈@@ 20
唐@@ 20
堂 20
塔@@ 20
夜@@ 20
林@@ 20
無@@ 20
記 20
逐@@ 20
門 20
로 20
트@@ 20
️ 20
） 20
： 20
19th 19
Dort 19
INSE@@ 19
Mf@@ 19
Municipal@@ 19
Prä@@ 19
Rechts@@ 19
Sau 19
Verk@@ 19
Verkehr@@ 19
ahlen 19
aircraft 19
aired 19
aiss@@ 19
ajwa 19
alte 19
archit@@ 19
auté 19
baad@@ 19
began 19
campus 19
causa 19
cier@@ 19
communication 19
comunidad 19
cuar@@ 19
cuer@@ 19
dass 19
essee 19
fonso 19
gave 19
generally 19
haben 19
having 19
hér@@ 19
impro@@ 19
inclus@@ 19
industri@@ 19
letz@@ 19
lte 19
länd@@ 19
materi@@ 19
muer@@ 19
narr@@ 19
officer 19
otball 19
outside 19
où 19
personal 19
primary 19
provided 19
quien 19
reco@@ 19
shows 19
sometimes 19
sozi@@ 19
tels 19
tend 19
thay 19
though 19
tipo 19
tisha 19
tlich 19
torno 19
ución 19
umbu@@ 19
university 19
various 19
veloc@@ 19
versions 19
villes 19
wango 19
wegung 19
wenn 19
wird 19
élém@@ 19
Ď@@ 19
ģ@@ 19
ĥ@@ 19
ũng 19
̠ 19
̹ 19
Ό@@ 19
ΐ@@ 19
Δημή@@ 19
Νομ@@ 19
Χρυσ@@ 19
άπ@@ 19
αθ@@ 19
αφ@@ 19
δα 19
κα 19
λόγ@@ 19
Андрей 19
Вер@@ 19
Ис@@ 19
Константи@@ 19
Ло@@ 19
Национа@@ 19
Сою@@ 19
Сы@@ 19
Тер@@ 19
Фа@@ 19
Хе@@ 19
Ь@@ 19
бли@@ 19
бо 19
город 19
гре@@ 19
дри@@ 19
жа 19
кам@@ 19
лия 19
мет@@ 19
од@@ 19
оло@@ 19
тин@@ 19
щина 19
ҫ@@ 19
Һ@@ 19
ָ 19
ג 19
ء 19
ؤ@@ 19
اری 19
بی 19
تُ@@ 19
جر@@ 19
خل@@ 19
دان@@ 19
راء 19
زا 19
شر@@ 19
ــ@@ 19
فرو@@ 19
كتاب 19
مال 19
پ 19
پار@@ 19
ܥ@@ 19
ނ@@ 19
ު@@ 19
ެ@@ 19
ர 19
ல@@ 19
ᑕ@@ 19
ᔪ@@ 19
ជ@@ 19
ḫ 19
ới 19
ὸ@@ 19
ⵍ@@ 19
〖 19
〗 19
が@@ 19
て@@ 19
ァ@@ 19
ピ@@ 19
プ@@ 19
世@@ 19
主 19
二@@ 19
公 19
华@@ 19
合 19
周@@ 19
帝@@ 19
愛@@ 19
明 19
有@@ 19
柳@@ 19
河@@ 19
泰@@ 19
爾@@ 19
青@@ 19
구@@ 19
도 19
먼@@ 19
성 19
연@@ 19
진@@ 19
학@@ 19
Gesamt@@ 18
Lage 18
Oreg@@ 18
Produk@@ 18
Regiment 18
Serbia 18
Tanzania 18
abei 18
appearance 18
aribu 18
artiller@@ 18
atwa 18
author@@ 18
auti 18
cases 18
collec@@ 18
commercial 18
conditions 18
déf@@ 18
encias 18
entaire 18
entre@@ 18
ersten 18
events 18
fach@@ 18
getr@@ 18
higher 18
hizi 18
honor@@ 18
ihnen 18
infan@@ 18
innov@@ 18
jours 18
klasse 18
lange 18
lido 18
littér@@ 18
lés 18
mahali 18
meeting 18
meister@@ 18
moja 18
muj@@ 18
names 18
organis@@ 18
plays 18
popular@@ 18
refer 18
regular 18
required 18
selected 18
significant 18
simpl@@ 18
sister 18
tischen 18
ustri@@ 18
uvo 18
volun@@ 18
wali@@ 18
werden 18
wieder 18
wrote 18
zös@@ 18
 18
Ê 18
Ô 18
ämp@@ 18
änge 18
élec@@ 18
étique 18
ĉ@@ 18
Ķ@@ 18
Ř@@ 18
ǃ 18
ɬ@@ 18
̓ 18
Έ@@ 18
Γιάν@@ 18
Ελληνική 18
Καλ@@ 18
Νικ@@ 18
Παλαι@@ 18
Παναγ@@ 18
Το 18
ίων 18
αντ@@ 18
αρ 18
ημ@@ 18
λις 18
μη 18
μο@@ 18
συν@@ 18
τέ@@ 18
τικ@@ 18
τους 18
υν@@ 18
όχ@@ 18
Ала@@ 18
Анна 18
Евге@@ 18
За 18
Ин@@ 18
Макси@@ 18
Мол@@ 18
Мон@@ 18
Под@@ 18
Роди@@ 18
Щ 18
атов 18
бай@@ 18
бер@@ 18
вый 18
дь@@ 18
ис@@ 18
ита@@ 18
кина 18
ком@@ 18
коми@@ 18
мир@@ 18
национа@@ 18
пан@@ 18
рай@@ 18
ром 18
сен 18
сту@@ 18
су 18
тат@@ 18
тия 18
щи@@ 18
ый 18
Ң 18
ӱ@@ 18
Ի@@ 18
Յ@@ 18
Ռ@@ 18
ճ@@ 18
آر@@ 18
اح@@ 18
ادر 18
ارة 18
اص@@ 18
العربي 18
المه@@ 18
او 18
اِ@@ 18
ة@@ 18
جی 18
حزب 18
رو 18
رير 18
سا@@ 18
سب@@ 18
عي@@ 18
فار@@ 18
قة 18
وي 18
يه 18
يون@@ 18
کن@@ 18
द 18
म@@ 18
দ 18
য 18
ਰ@@ 18
ང 18
ာ@@ 18
ု@@ 18
ေ@@ 18
ြ@@ 18
ሀ@@ 18
ម 18
ម@@ 18
ấn 18
ὑ@@ 18
ὰ 18
ῥ@@ 18
⁠ 18
₤ 18
∅ 18
☆ 18
ⵎ@@ 18
ど@@ 18
に@@ 18
る@@ 18
ギ@@ 18
グ 18
ム@@ 18
下@@ 18
事@@ 18
代@@ 18
光@@ 18
勒 18
区@@ 18
原 18
富@@ 18
少@@ 18
布@@ 18
所 18
手@@ 18
拓@@ 18
朝 18
物@@ 18
福@@ 18
義@@ 18
自@@ 18
花@@ 18
衛@@ 18
見@@ 18
院 18
상 18
영 18
윤@@ 18
을 18
인 18
정 18
태@@ 18
𐰆@@ 18
Gegen@@ 17
Jahres 17
Kirche 17
Mỹ 17
Rück@@ 17
Vĩnh 17
Zus@@ 17
acces@@ 17
added 17
administration 17
adver@@ 17
ahora 17
alisi@@ 17
areas 17
auteur 17
avyo@@ 17
bajo 17
campo 17
caso 17
claim@@ 17
consum@@ 17
crita 17
described 17
dico 17
día 17
ebt 17
embre 17
enst 17
expan@@ 17
followed 17
forces 17
général 17
hommes 17
honor 17
idades 17
impos@@ 17
impres@@ 17
incor@@ 17
incre@@ 17
independent 17
indig@@ 17
istique 17
itig 17
jiji 17
killed 17
lares 17
madre 17
mayor 17
municipal 17
musul@@ 17
ockey 17
perio 17
pobl@@ 17
poco 17
policy 17
positive 17
princi@@ 17
prison@@ 17
produ@@ 17
publique 17
quarti@@ 17
releas@@ 17
rés@@ 17
saison 17
schloss 17
seat 17
señ@@ 17
sitz@@ 17
sociation 17
suppl@@ 17
taines 17
taking 17
ticas 17
tierra 17
toujours 17
tropical 17
unzi 17
uyên 17
wali 17
winning 17
yote 17
Æ 17
ähn@@ 17
écol@@ 17
êu 17
óa 17
ùi 17
Đại 17
ŏ 17
ů 17
ɣ 17
Απ@@ 17
Ιωάννης 17
Κομ@@ 17
Με@@ 17
άκης 17
έκ@@ 17
ίδ@@ 17
ίος 17
για 17
δυ@@ 17
ησι@@ 17
κτ@@ 17
μον@@ 17
ναι 17
ού 17
τρο@@ 17
όκ@@ 17
όρος 17
Ги@@ 17
Григо@@ 17
Дар@@ 17
Елена 17
Жи@@ 17
Зи@@ 17
Из@@ 17
Ир@@ 17
Йо@@ 17
Москва 17
От@@ 17
Пер@@ 17
Пи@@ 17
Ско@@ 17
ФК 17
Центра@@ 17
Эр@@ 17
автор@@ 17
бар@@ 17
боль@@ 17
бы 17
вет@@ 17
ера 17
завод 17
зан@@ 17
клуб 17
кра@@ 17
лан@@ 17
пов 17
поселение 17
сте@@ 17
съ@@ 17
Ғ@@ 17
ғ 17
Ү 17
ժ@@ 17
أي@@ 17
ابو 17
العربية 17
المع@@ 17
بة 17
بلا@@ 17
جب@@ 17
حم@@ 17
رج@@ 17
رية 17
زر@@ 17
سعود 17
صور 17
طر@@ 17
عثمان 17
فاط@@ 17
كان 17
كل@@ 17
مز@@ 17
نص@@ 17
ني 17
وادي 17
ود@@ 17
وري 17
يون 17
ڤ@@ 17
ܓ@@ 17
ܦ@@ 17
ः 17
क 17
य 17
ਸ@@ 17
ਾ@@ 17
้ 17
ག@@ 17
მ 17
ჰ@@ 17
ራ 17
እ@@ 17
ᑎ@@ 17
ᓀ@@ 17
ᓗ@@ 17
ᖅ@@ 17
ន@@ 17
ិ@@ 17
ᠠ 17
ḍ 17
ạng 17
ết 17
Ἑ@@ 17
ⵏ 17
み@@ 17
ゴ@@ 17
ズ 17
中 17
信@@ 17
刀 17
劉@@ 17
區 17
团 17
士 17
夏 17
委员会 17
孜@@ 17
学@@ 17
學@@ 17
官@@ 17
巴@@ 17
市@@ 17
春@@ 17
派 17
生 17
羅 17
胡@@ 17
藤@@ 17
设@@ 17
都 17
門@@ 17
陳@@ 17
雄 17
黨 17
고 17
씨 17
우 17
현@@ 17
𐰃@@ 17
Although 16
Chama 16
Febru@@ 16
Jeux 16
Lý 16
Meter 16
Mwan@@ 16
Rais 16
Schrif@@ 16
Sprache 16
according 16
acto 16
allem 16
americano 16
artists 16
attemp@@ 16
attribu@@ 16
brother 16
ciales 16
circul@@ 16
comand@@ 16
compet@@ 16
concep@@ 16
degree 16
democ@@ 16
desc@@ 16
directed 16
direction 16
donne 16
eckt 16
eign@@ 16
employ@@ 16
erster 16
está 16
fach 16
graphie 16
habe 16
hombre 16
huko 16
ición 16
inspir@@ 16
introduc@@ 16
jimbo 16
kann 16
kauf@@ 16
kij@@ 16
lég@@ 16
marché 16
maî@@ 16
missions 16
ngo@@ 16
nuevo 16
recorded 16
redu@@ 16
registr@@ 16
religion 16
sector 16
selb@@ 16
seurs 16
sibl@@ 16
situ@@ 16
spiel@@ 16
studies 16
taken 16
träge 16
unidad 16
uvu 16
venes 16
victoria 16
vue 16
vì 16
wert 16
wohl 16
© 16
È 16
Ñ 16
àu 16
épo@@ 16
ìn 16
ĩ 16
ǝ@@ 16
̥ 16
Βασιλ@@ 16
Κ 16
Κώ@@ 16
Μιχαήλ 16
Σω@@ 16
άρι@@ 16
έ 16
ίκος 16
αζ@@ 16
ανα@@ 16
γκ@@ 16
εδ@@ 16
εργ@@ 16
ιζ@@ 16
ιστ@@ 16
λά@@ 16
λιος 16
οτ@@ 16
παρ@@ 16
πό@@ 16
ριστο@@ 16
ση 16
συ@@ 16
ϊ@@ 16
όρ@@ 16
Є@@ 16
Аль@@ 16
Бра@@ 16
Вален@@ 16
Дж@@ 16
Доб@@ 16
Кры@@ 16
Ман@@ 16
Мари@@ 16
Мария 16
Сла@@ 16
Тру@@ 16
ам@@ 16
ана 16
ари 16
бир@@ 16
кан@@ 16
ктор 16
лна 16
люб@@ 16
ности 16
при@@ 16
сол@@ 16
сс 16
стиче@@ 16
стов 16
три@@ 16
ца@@ 16
ческий 16
чик 16
шев 16
ья@@ 16
Ҡ@@ 16
Ո@@ 16
ׁ 16
أس@@ 16
ابل 16
المق@@ 16
اک@@ 16
با 16
برو@@ 16
بنو 16
جا@@ 16
جی@@ 16
خاتون 16
خرا@@ 16
دين 16
راب 16
روز 16
شمس 16
شي@@ 16
ظ 16
عب@@ 16
قاد@@ 16
قان 16
قي 16
كة 16
لات 16
لب 16
لِ@@ 16
نام@@ 16
هار@@ 16
هم 16
هي@@ 16
وب 16
وز 16
وغ@@ 16
يران 16
کی 16
ڭ@@ 16
ܝ 16
ܫ@@ 16
श 16
ਿ@@ 16
ત@@ 16
ස@@ 16
ม@@ 16
ວ@@ 16
ར@@ 16
ም@@ 16
ር 16
ት@@ 16
ᓇ@@ 16
ᓕ@@ 16
Ḍ@@ 16
ất 16
ἑ@@ 16
ἶ@@ 16
ℵ@@ 16
∨ 16
お@@ 16
こ@@ 16
ち@@ 16
て 16
る 16
ポ@@ 16
ワ@@ 16
什@@ 16
光 16
千@@ 16
台 16
和 16
多@@ 16
夫 16
工@@ 16
師 16
康@@ 16
念@@ 16
憲@@ 16
戦 16
族 16
書@@ 16
格@@ 16
楊@@ 16
港@@ 16
第@@ 16
行 16
術 16
記@@ 16
赤@@ 16
達@@ 16
馬 16
노@@ 16
데@@ 16
동 16
드 16
러@@ 16
면 16
문@@ 16
반@@ 16
빈 16
어 16
프@@ 16
피@@ 16
﴾ 16
﴿ 16
Auch 15
Baad@@ 15
Bà 15
Estados 15
Forsch@@ 15
Hồ 15
Januar 15
Juni 15
Ngọc 15
Pennsyl@@ 15
Pfarr@@ 15
Phúc 15
Xuân 15
already 15
ambas 15
architec@@ 15
autres 15
bildung 15
cathol@@ 15
chung 15
ciudad 15
closed 15
complet@@ 15
conven@@ 15
coup 15
defe@@ 15
ekani 15
emente 15
essenti@@ 15
européenne 15
extrem@@ 15
farm@@ 15
gabe 15
gauche 15
gemeinde 15
grandes 15
hilo 15
interpret@@ 15
invent@@ 15
isé 15
itions 15
itself 15
jamais 15
kathol@@ 15
leading 15
letzte 15
libro 15
manus@@ 15
mejor 15
mex@@ 15
minutes 15
mée 15
okea 15
phong 15
plata 15
president 15
professional 15
provide 15
respectiv@@ 15
result@@ 15
rép@@ 15
satis@@ 15
schreib@@ 15
sculp@@ 15
selec@@ 15
signific@@ 15
surviv@@ 15
tarde 15
tete 15
théâtre 15
timents 15
tivities 15
todo 15
towards 15
tuy 15
uppen 15
weeks 15
òng 15
ď 15
Định 15
ʷ 15
Ί@@ 15
Αθλ@@ 15
Αν@@ 15
Καλλ@@ 15
Μον@@ 15
Πλ@@ 15
άζ@@ 15
έας 15
έσ@@ 15
ήνη 15
ίλ@@ 15
ίσ@@ 15
αγγ@@ 15
γελ@@ 15
γλ@@ 15
εβ@@ 15
εμ@@ 15
ικά 15
ιλ@@ 15
κη 15
λεγ@@ 15
λύ@@ 15
μέν@@ 15
νομ@@ 15
ολόγ@@ 15
ουν@@ 15
ποι@@ 15
προ@@ 15
ρω@@ 15
ρό@@ 15
σης 15
σπ@@ 15
τική 15
ωνία 15
όλ@@ 15
όμ@@ 15
όσ@@ 15
ών@@ 15
Ё 15
І 15
Ара@@ 15
Бар@@ 15
Дне@@ 15
Екате@@ 15
Крас@@ 15
Международ@@ 15
Ну@@ 15
Ок@@ 15
Тай@@ 15
Ъ 15
авто@@ 15
ап@@ 15
армия 15
бан 15
бет 15
би 15
бол@@ 15
война 15
вра@@ 15
град@@ 15
дж 15
ер 15
зе 15
ил 15
ита 15
ква 15
лица 15
лла 15
мон 15
нина 15
партия 15
район@@ 15
рии 15
рова 15
сен@@ 15
сия 15
сты 15
тов@@ 15
хай@@ 15
цион@@ 15
чь 15
шу@@ 15
ще 15
юр@@ 15
ӷ@@ 15
أبي 15
إبراهيم 15
الحسن 15
الملك 15
اول@@ 15
باغ 15
بذ@@ 15
بور@@ 15
بُ@@ 15
ترك@@ 15
تف@@ 15
تم@@ 15
جة 15
جعفر 15
جي@@ 15
دوا 15
رض@@ 15
رق@@ 15
رون 15
زم 15
زيد 15
سور@@ 15
ضاء 15
فر 15
فرا@@ 15
قی@@ 15
كُ@@ 15
مب@@ 15
مطار 15
مین 15
ندی 15
نه@@ 15
وت 15
وق 15
ِّ@@ 15
گل@@ 15
گم 15
گو@@ 15
ܢ 15
ި@@ 15
ં@@ 15
ய@@ 15
ರ@@ 15
င 15
ტ 15
ᒥ@@ 15
ᕕ@@ 15
ប@@ 15
ắ@@ 15
ằng 15
Ἁ@@ 15
Ἱ@@ 15
∪ 15
◆ 15
☃ 15
♀ 15
ⵣ@@ 15
き 15
け@@ 15
だ@@ 15
り 15
タ 15
ボ@@ 15
丹 15
井@@ 15
产@@ 15
全@@ 15
共和@@ 15
化 15
化@@ 15
同@@ 15
君@@ 15
基@@ 15
奇@@ 15
宗 15
寺@@ 15
屍@@ 15
帝 15
彦 15
思@@ 15
手 15
支@@ 15
教@@ 15
有限公司 15
永@@ 15
汗@@ 15
海 15
車@@ 15
郡 15
際@@ 15
나 15
단 15
만@@ 15
승@@ 15
임@@ 15
홍@@ 15
ﺍ@@ 15
Cuando 14
Hưng 14
Minnes@@ 14
Phạm 14
Teil 14
Thiên 14
Unido 14
Westen 14
accep@@ 14
almost 14
ambazo 14
anach@@ 14
ardhi 14
assez 14
biet 14
bless@@ 14
cabeza 14
campaign 14
champion 14
characters 14
chten 14
clás@@ 14
competi@@ 14
concre@@ 14
confl@@ 14
conform@@ 14
contains 14
criv@@ 14
culo 14
curité 14
dispar@@ 14
earlier 14
ekana 14
equip@@ 14
female 14
fourth 14
fue 14
gique 14
heute 14
hijo 14
ichts 14
ichts@@ 14
ihre 14
income 14
individu@@ 14
induzi 14
keit 14
likely 14
lleg@@ 14
militaire 14
mip@@ 14
moved 14
much@@ 14
muerte 14
música 14
neue 14
ológ@@ 14
onyme 14
operations 14
otro 14
pande 14
performances 14
perten@@ 14
peut 14
places 14
programme 14
promin@@ 14
pueb@@ 14
relev@@ 14
retour 14
reven@@ 14
rund 14
sasa 14
secund@@ 14
separate 14
signe 14
signi@@ 14
succ@@ 14
succes@@ 14
tatu 14
tener 14
tourn@@ 14
types 14
tái 14
tâm 14
ulit@@ 14
veget@@ 14
ví 14
worked 14
zentr@@ 14
zieh@@ 14
Église 14
Ë 14
Û 14
ätten 14
ätz@@ 14
äuf@@ 14
évrier 14
óc 14
ông 14
ăng 14
ĝ 14
ĩ@@ 14
Ň 14
Ő@@ 14
Ū@@ 14
ǩ@@ 14
ʲ 14
˹ 14
˺ 14
Αλ@@ 14
Αρ@@ 14
Ευ@@ 14
Κου@@ 14
Νέα 14
Τρ@@ 14
Τσ@@ 14
δοκ@@ 14
εξ@@ 14
ημα 14
ητ@@ 14
ηφ@@ 14
θέ@@ 14
ιν 14
κι@@ 14
λί@@ 14
νη@@ 14
νησ@@ 14
πά@@ 14
ρέ@@ 14
ρη@@ 14
ρον@@ 14
του@@ 14
φιλ@@ 14
χη 14
όφ@@ 14
Ата@@ 14
Бор@@ 14
Бур@@ 14
Българ@@ 14
Бы@@ 14
Вы@@ 14
Красно@@ 14
Нар@@ 14
Ниж@@ 14
Остро@@ 14
Република 14
София 14
Цент@@ 14
ата 14
вар@@ 14
вица 14
джи@@ 14
дов@@ 14
жда 14
зем@@ 14
из 14
им 14
йна 14
кар@@ 14
кло@@ 14
круг 14
лл 14
му 14
нен@@ 14
обо@@ 14
парти@@ 14
публи@@ 14
рез@@ 14
сан 14
совет 14
той 14
ул 14
уни@@ 14
фа 14
фронт 14
цев 14
цо@@ 14
чев 14
ше 14
ши 14
шта@@ 14
ща@@ 14
щен@@ 14
ыва@@ 14
ён 14
є 14
ґ 14
җ@@ 14
Է@@ 14
գ 14
ե 14
آب 14
اط@@ 14
اغ@@ 14
العرا@@ 14
برا@@ 14
بش@@ 14
بع@@ 14
جز@@ 14
حاج@@ 14
حة 14
خالد 14
دش@@ 14
ران@@ 14
رس@@ 14
ست 14
سرو@@ 14
سين 14
شان 14
صالح 14
عش@@ 14
غان 14
فت@@ 14
فری@@ 14
كن 14
لح@@ 14
مرو@@ 14
مك@@ 14
مل 14
ناصر 14
نة 14
نس@@ 14
نش@@ 14
نظ@@ 14
نور 14
هد 14
يم@@ 14
ينا 14
ّة 14
پاشا 14
پن@@ 14
کان 14
ܩ@@ 14
ܪ 14
ާ@@ 14
ज 14
দ@@ 14
ી@@ 14
ವ@@ 14
න 14
ු@@ 14
น@@ 14
ག 14
མ@@ 14
འ@@ 14
ས 14
ས@@ 14
ྱ@@ 14
း@@ 14
ᑯ@@ 14
ᓄ@@ 14
ᔭ@@ 14
ត@@ 14
ṃ@@ 14
ẕ@@ 14
ủ 14
Ἡ@@ 14
ὅ@@ 14
ὕ@@ 14
ὴ 14
ὸ 14
⇒ 14
▪ 14
。 14
《 14
》 14
え@@ 14
の 14
め@@ 14
よ@@ 14
ィ 14
ズ@@ 14
ツ@@ 14
ノ@@ 14
ホ@@ 14
ヤ@@ 14
七@@ 14
名@@ 14
喀@@ 14
域@@ 14
師@@ 14
德@@ 14
成@@ 14
武 14
沖@@ 14
波@@ 14
流 14
甲 14
総@@ 14
老@@ 14
蘇@@ 14
语 14
谷@@ 14
賀@@ 14
达@@ 14
里 14
黃@@ 14
ꞑ@@ 14
교 14
구 14
모@@ 14
백@@ 14
브@@ 14
산@@ 14
애@@ 14
양@@ 14
예@@ 14
종@@ 14
청 14
청@@ 14
치@@ 14
키@@ 14
해 14
회@@ 14
𐰴@@ 14
😂 14
Afghanistan 13
Angleterre 13
Après 13
Dola 13
Dunia 13
Gattung 13
Heimat@@ 13
Italie 13
Italien 13
Kirchen@@ 13
Kompon@@ 13
Kuu 13
Noctu@@ 13
Saison 13
Situation 13
Vor 13
Württem@@ 13
actual 13
ailleurs 13
aliwa 13
ambalo 13
amiento 13
appear@@ 13
army 13
armée 13
ayec@@ 13
babu 13
beginning 13
calle 13
career 13
chí 13
confer@@ 13
conoc@@ 13
continue 13
contract 13
droits 13
existence 13
fallen 13
frica 13
further 13
gibt 13
himself 13
htt@@ 13
husband 13
ihn 13
independ@@ 13
ingana 13
issu@@ 13
juin 13
juu 13
klass@@ 13
kuu 13
mannschaft 13
manufactur@@ 13
mascul@@ 13
mittel@@ 13
month 13
mère 13
nisse 13
nord 13
objet 13
obras 13
occu@@ 13
oeste 13
onnement 13
organisation 13
origin@@ 13
outre 13
partement 13
partie 13
política 13
portant 13
quy 13
record@@ 13
relationship 13
relig@@ 13
rights 13
réc@@ 13
sao 13
seasons 13
seul 13
shown 13
siete 13
tained 13
taus@@ 13
tionen 13
trique 13
ually 13
ularly 13
vingt 13
vip@@ 13
visit@@ 13
weit 13
wez@@ 13
ách 13
äß@@ 13
érique 13
österreich@@ 13
ĉ 13
ĥ 13
ĩnh 13
Ť@@ 13
ǒ 13
ǘ 13
ɯ 13
ɯ@@ 13
ʉ 13
Άγιος 13
Ανδρ@@ 13
Δημ@@ 13
Λου@@ 13
Μικ@@ 13
ΠΑ@@ 13
Σύ@@ 13
έφ@@ 13
ίγ@@ 13
ίν@@ 13
βά@@ 13
βασ@@ 13
δία 13
δης 13
δο@@ 13
καρ@@ 13
κατ@@ 13
κης 13
κι 13
κω@@ 13
λεια 13
λη@@ 13
λογία 13
περ@@ 13
πύ@@ 13
τρα 13
φύ@@ 13
ωμ@@ 13
όρι@@ 13
ότ@@ 13
ύλ@@ 13
ώς 13
Зо@@ 13
Ио@@ 13
Константин 13
Мат@@ 13
Ново@@ 13
Пере@@ 13
Петро@@ 13
Ст@@ 13
Ъ@@ 13
аври@@ 13
автоно@@ 13
вен@@ 13
волю@@ 13
вре@@ 13
ген 13
гла@@ 13
дер 13
ез@@ 13
ей 13
жо@@ 13
зар@@ 13
ках 13
кир@@ 13
край 13
кре@@ 13
лен 13
ление 13
мат 13
мед 13
мор@@ 13
ники 13
обла@@ 13
пар@@ 13
под@@ 13
при 13
пы@@ 13
рин@@ 13
росси@@ 13
ря@@ 13
слав@@ 13
сов@@ 13
сова 13
спе@@ 13
спо@@ 13
фи 13
хал@@ 13
цу@@ 13
чай@@ 13
чен@@ 13
эй@@ 13
эти 13
язык 13
ӑ@@ 13
آغ@@ 13
إي@@ 13
التر@@ 13
الوطني 13
انا 13
انی@@ 13
بان@@ 13
تش@@ 13
ته 13
جامع 13
حركة 13
حسین 13
خلي@@ 13
رضا 13
ره 13
روم 13
ريم 13
رُ@@ 13
ریز 13
سك@@ 13
شن@@ 13
صف@@ 13
صل 13
عر@@ 13
عين 13
لق@@ 13
لك 13
ملی 13
مون 13
نان 13
نز@@ 13
نور@@ 13
وف 13
وك 13
وه@@ 13
يت 13
ژ 13
ژ@@ 13
کش@@ 13
ۇ 13
ވ@@ 13
अ@@ 13
व@@ 13
প@@ 13
ী@@ 13
ன 13
ி 13
ප@@ 13
ම@@ 13
ย@@ 13
ོ 13
န 13
ိ@@ 13
ზ 13
უ 13
መ@@ 13
ተ@@ 13
ክ@@ 13
ᐣ 13
ᐦ@@ 13
ំ@@ 13
ᠠ@@ 13
ến 13
ị 13
ἡ@@ 13
Ὀ@@ 13
⁰ 13
℃ 13
♥ 13
ⵏ@@ 13
ⵜ@@ 13
」 13
〜 13
っ@@ 13
カ 13
ヴ@@ 13
仁 13
伽@@ 13
俊@@ 13
動@@ 13
半@@ 13
厥 13
在@@ 13
場 13
士@@ 13
女 13
字 13
安 13
察@@ 13
星 13
昭@@ 13
普@@ 13
智@@ 13
村@@ 13
水 13
汉@@ 13
治 13
洋@@ 13
玄@@ 13
理@@ 13
甘@@ 13
節@@ 13
艾@@ 13
葉@@ 13
護@@ 13
車 13
重@@ 13
野 13
関@@ 13
陽@@ 13
面@@ 13
館 13
马@@ 13
광@@ 13
부@@ 13
석 13
야 13
음@@ 13
전 13
차@@ 13
처@@ 13
혁 13
ﻮ@@ 13
𐰣 13
Amérique 12
Anw@@ 12
Avec 12
Bahn@@ 12
Beruf@@ 12
Chine 12
Châu 12
Kazi 12
Kinh 12
No. 12
Première 12
Schlacht 12
Titel 12
Unis 12
abandon@@ 12
additional 12
alre@@ 12
anische 12
annual 12
approxim@@ 12
articles 12
avoir 12
awala 12
ayud@@ 12
bild 12
canadi@@ 12
cedes 12
cerc@@ 12
certain 12
ció 12
claimed 12
clim@@ 12
coloni@@ 12
commer@@ 12
compr@@ 12
concert 12
critic@@ 12
cé@@ 12
có@@ 12
descri@@ 12
deut@@ 12
diente 12
différ@@ 12
einture 12
elections 12
emein@@ 12
emple@@ 12
ennent 12
enseign@@ 12
envir@@ 12
explic@@ 12
exter@@ 12
famille 12
gebiet 12
genre 12
goals 12
halisi 12
houses 12
ibles 12
icios 12
ihm 12
individual 12
investig@@ 12
issues 12
iteur 12
ió 12
largest 12
launched 12
longer 12
mch@@ 12
momento 12
musical 12
même 12
ográ@@ 12
owned 12
padre 12
prior 12
propi@@ 12
propos@@ 12
protection 12
pér@@ 12
qued@@ 12
queda 12
raison 12
reconn@@ 12
refu@@ 12
replaced 12
resto 12
régi@@ 12
segu@@ 12
sicht 12
simu 12
souri 12
stated 12
student 12
success 12
traditional 12
trao 12
treten 12
tungen 12
usage 12
wirtschaft 12
¸ 12
Ð@@ 12
écrit 12
ĵ 12
ľ 12
ŝ 12
ų@@ 12
ŵ@@ 12
ƣ 12
ƣ@@ 12
ǁ@@ 12
ɡ 12
ɵ@@ 12
ʏ@@ 12
̞ 12
̱ 12
Κατ@@ 12
Κύ@@ 12
Λε@@ 12
Μαρία 12
Μπ@@ 12
Πολ@@ 12
Χαλ@@ 12
Χαρ@@ 12
άσσ@@ 12
ίνος 12
αργ@@ 12
βλ@@ 12
γέν@@ 12
γραφ@@ 12
δος 12
ειν@@ 12
θη 12
θν@@ 12
κου@@ 12
λέ@@ 12
λη 12
λογ@@ 12
λου 12
ματ@@ 12
μπο@@ 12
μόν@@ 12
νι@@ 12
ουρ@@ 12
ουσα 12
πυ@@ 12
ριακή 12
ρου 12
φυ@@ 12
χή 12
Восто@@ 12
Кав@@ 12
Казах@@ 12
Констан@@ 12
Ль@@ 12
Май@@ 12
Мин@@ 12
Моск@@ 12
Пан@@ 12
Пра@@ 12
Само@@ 12
Сло@@ 12
Союза 12
Федера@@ 12
Ян@@ 12
ада@@ 12
арти@@ 12
аэро@@ 12
бри@@ 12
бу 12
воен@@ 12
дер@@ 12
дии 12
дий 12
ени 12
жен@@ 12
иг@@ 12
итель@@ 12
комитет 12
комуни@@ 12
лах 12
лья@@ 12
мира 12
нал 12
наук 12
пера@@ 12
пре@@ 12
рабо@@ 12
револю@@ 12
риа@@ 12
сси@@ 12
ства 12
ствен@@ 12
сти 12
сто 12
тен 12
тер@@ 12
тон 12
ум 12
чки 12
чу 12
ёр@@ 12
Қ 12
Ղ@@ 12
վ 12
ְ 12
ئ 12
اج 12
اع@@ 12
الأح@@ 12
الأس@@ 12
الة 12
المج@@ 12
انية 12
باب 12
بان 12
بد 12
تار@@ 12
تي@@ 12
جامعة 12
خار@@ 12
دية 12
رام 12
زة 12
سرا@@ 12
سم 12
سم@@ 12
سُ@@ 12
صح@@ 12
عباس 12
عم@@ 12
عُ@@ 12
غز@@ 12
قاسم 12
قر 12
قص@@ 12
لك@@ 12
مالك 12
مرا@@ 12
مِ@@ 12
نف@@ 12
وك@@ 12
ولی@@ 12
ٌ 12
پل 12
چل@@ 12
چی@@ 12
کا@@ 12
ګ@@ 12
گل 12
گی@@ 12
ހ@@ 12
ދ@@ 12
ް 12
ण 12
पा@@ 12
स@@ 12
শ@@ 12
મ@@ 12
ட@@ 12
్ 12
ไทย 12
ພ@@ 12
ະ@@ 12
ັ@@ 12
ད 12
က@@ 12
ပ@@ 12
သ@@ 12
ჲ 12
ስ@@ 12
በ@@ 12
ን 12
ᑲ@@ 12
ᒡ@@ 12
ᓴ@@ 12
វ@@ 12
ា 12
Ṡ@@ 12
ận 12
ừa 12
ἴ@@ 12
ἵ@@ 12
‛ 12
‹ 12
⅔ 12
⇌ 12
∀ 12
⊞ 12
┘ 12
ⴻ@@ 12
、 12
〈 12
〉 12
「 12
に 12
ザ@@ 12
プ 12
事件 12
剛@@ 12
口@@ 12
名 12
呼@@ 12
址 12
天 12
孔@@ 12
孫@@ 12
平 12
心@@ 12
志@@ 12
忠@@ 12
提@@ 12
旗 12
書 12
本 12
根@@ 12
梅@@ 12
正 12
波 12
津@@ 12
猫@@ 12
球@@ 12
画 12
番@@ 12
皇@@ 12
系 12
維@@ 12
美 12
義 12
者@@ 12
香@@ 12
魏 12
黑@@ 12
黒@@ 12
디@@ 12
래 12
민 12
중@@ 12
즈 12
차 12
천@@ 12
타@@ 12
혜@@ 12
호@@ 12
회 12
･ 12
Amts@@ 11
Bahari 11
Biblia 11
Cerambycidae 11
Durch@@ 11
Familie 11
Hilfe 11
Hải 11
Khánh 11
Konz@@ 11
Krieg 11
Londres 11
Militär@@ 11
Nghệ 11
Nhi@@ 11
Sovi@@ 11
Uhr 11
Unidos 11
allowed 11
aße 11
baller 11
baseball 11
capital 11
cerca 11
cierto 11
classes 11
consid@@ 11
continued 11
contribut@@ 11
cour 11
critique 11
cultura 11
dieser 11
dort 11
earch 11
economic 11
embar@@ 11
energ@@ 11
estat@@ 11
estu@@ 11
fiel 11
gebr@@ 11
gien 11
große 11
igkeit 11
igte 11
industry 11
indépend@@ 11
krieg@@ 11
lebt 11
letzten 11
links 11
mbH 11
mà 11
médi@@ 11
newspap@@ 11
ología 11
olympi@@ 11
particular 11
plann@@ 11
pologie 11
populaire 11
practice 11
preser@@ 11
property 11
prä@@ 11
quán 11
respons@@ 11
situation 11
stehen 11
success@@ 11
tisch 11
trouv@@ 11
turned 11
victory 11
voz 11
vuel@@ 11
waren 11
weise 11
whom 11
wissenschaft@@ 11
ydür 11
Á 11
Égl@@ 11
Ë@@ 11
Ì@@ 11
ãi 11
économique 11
êts 11
ôt 11
Đo@@ 11
Đông 11
Đức 11
ű 11
Ż 11
Ə 11
Ƣ 11
ʂ 11
ˀ@@ 11
ˤ@@ 11
͵ 11
Άν@@ 11
Βασίλ@@ 11
Δού@@ 11
Ειρ@@ 11
Λι@@ 11
Μεγάλ@@ 11
Μελ@@ 11
Νε@@ 11
Νικόλα@@ 11
Ξ 11
Προ@@ 11
άνης 11
έλλ@@ 11
ανός 11
ατζ@@ 11
αχ@@ 11
βαν@@ 11
βαρ@@ 11
δί@@ 11
δε@@ 11
δύ@@ 11
ειας 11
εχ@@ 11
ικα 11
καλ@@ 11
κλη@@ 11
λεύ@@ 11
νε@@ 11
ουλ@@ 11
ουν 11
ουσ@@ 11
πατ@@ 11
που 11
ρού@@ 11
στι@@ 11
σύν@@ 11
τις 11
υκ@@ 11
χαρ@@ 11
ύγ@@ 11
Љ 11
Џ@@ 11
Александра 11
Али@@ 11
Анто@@ 11
Бел@@ 11
Бол@@ 11
Гер@@ 11
Гру@@ 11
Дани@@ 11
Же@@ 11
Москов@@ 11
Мэ@@ 11
Нико@@ 11
Павел 11
Пло@@ 11
Север@@ 11
Черно@@ 11
ать 11
вез@@ 11
вен 11
вые 11
гора 11
горо@@ 11
город@@ 11
губер@@ 11
дру@@ 11
дь 11
ево 11
ези@@ 11
еро@@ 11
кен@@ 11
лев@@ 11
лей@@ 11
лена 11
лига 11
май@@ 11
мини@@ 11
нар@@ 11
нин@@ 11
ново 11
ном 11
они 11
ору@@ 11
пл@@ 11
поли@@ 11
прав@@ 11
раб@@ 11
ради@@ 11
рев@@ 11
ру 11
рь 11
рян@@ 11
сер@@ 11
ски@@ 11
ском 11
тер 11
тор 11
хе@@ 11
ход 11
цов 11
ческая 11
чная 11
шки 11
ье 11
язы@@ 11
Ҳ@@ 11
թ 11
ծ 11
ղ 11
ո 11
ւ 11
آن@@ 11
أ 11
أر@@ 11
أن@@ 11
ارا 11
اسلام 11
اض 11
الا 11
الت 11
الدولي 11
السلام 11
اله 11
الي 11
الی 11
باب@@ 11
برج 11
بزر@@ 11
تر 11
ترا@@ 11
تع@@ 11
حر@@ 11
دس 11
دولت 11
دون 11
رب 11
رت 11
رح@@ 11
روز@@ 11
زي 11
ساز@@ 11
سام@@ 11
سلط@@ 11
سما@@ 11
سين@@ 11
شی 11
صلاح 11
علا@@ 11
علم 11
عی@@ 11
فی 11
قاب@@ 11
كري@@ 11
لال 11
لر 11
مسعود 11
ملا@@ 11
مند@@ 11
هة 11
واز 11
وان@@ 11
وز@@ 11
य@@ 11
या@@ 11
यान 11
री 11
व 11
ष 11
ह@@ 11
ਤ@@ 11
પ@@ 11
ા 11
િ@@ 11
ે 11
ජ@@ 11
න@@ 11
ල@@ 11
า@@ 11
ງ 11
ရ@@ 11
ბ 11
ል 11
ቢ@@ 11
ደ@@ 11
ግ@@ 11
ᓱ@@ 11
ក 11
ន 11
ប 11
ហ@@ 11
េ@@ 11
ṗ@@ 11
ần 11
ịa 11
ἡ 11
Ῥ@@ 11
∑ 11
★ 11
⦁ 11
し 11
ひ@@ 11
み 11
ウ 11
ヒ@@ 11
ペ@@ 11
二 11
代 11
佐@@ 11
侯@@ 11
保@@ 11
元 11
先@@ 11
分@@ 11
加@@ 11
地 11
塔 11
夢@@ 11
契@@ 11
寶@@ 11
尾@@ 11
岡@@ 11
张@@ 11
御@@ 11
文 11
曹@@ 11
會 11
月 11
条@@ 11
林 11
沢@@ 11
治@@ 11
浦@@ 11
湖@@ 11
玉 11
由@@ 11
町 11
直@@ 11
科@@ 11
空 11
臺@@ 11
航@@ 11
花 11
萨@@ 11
薩@@ 11
言 11
話 11
雅@@ 11
骨@@ 11
龙@@ 11
거@@ 11
게 11
너 11
녀@@ 11
디 11
래@@ 11
서 11
식@@ 11
엑@@ 11
크@@ 11
ﬁ@@ 11
ﺭ@@ 11
𐭥@@ 11
𐰉@@ 11
Bischof 10
Bonde 10
COVI@@ 10
Chuo 10
Ciud@@ 10
Dienst@@ 10
Fue 10
Irel@@ 10
Janu@@ 10
Kloster 10
Noctuidae 10
Produktion 10
Situ@@ 10
Tông 10
Wasser 10
administrative 10
alités 10
altitude 10
arily 10
arriv@@ 10
assistant 10
atao 10
aujour@@ 10
average 10
awarded 10
besi@@ 10
bisch@@ 10
canti@@ 10
carre@@ 10
carte 10
celebr@@ 10
ceux 10
chemin 10
coloc@@ 10
commerce 10
composed 10
confirm@@ 10
conse@@ 10
contro@@ 10
cô@@ 10
denomin@@ 10
dernier 10
ducation 10
déj@@ 10
efu 10
entire 10
eshwa 10
eures 10
fois 10
forts 10
frü@@ 10
gleich@@ 10
grands 10
helped 10
hiki 10
hombres 10
hours 10
huit 10
idée 10
ieved 10
interior 10
interpr@@ 10
ización 10
join@@ 10
kommt 10
kunft 10
located 10
matrimonio 10
naye 10
northern 10
oce 10
onship 10
ouverneur 10
principal 10
punkt 10
quy@@ 10
religie@@ 10
remained 10
remains 10
siempre 10
terrain 10
tiene 10
tivos 10
tière 10
tête 10
unid@@ 10
unza 10
urch 10
wezi 10
whose 10
àm 10
ären 10
òn 10
ünst@@ 10
Đi@@ 10
Ģ@@ 10
Ĳ@@ 10
ļ 10
œuvre 10
ũ 10
ǀ@@ 10
ǃ@@ 10
ǚ 10
ɨ 10
Άγ@@ 10
Α.@@ 10
Αλέξανδ@@ 10
Αλεξ@@ 10
Βαρ@@ 10
Μιχ@@ 10
Πελ@@ 10
Στέ@@ 10
Συ@@ 10
Τουρκ@@ 10
άκη 10
άν 10
έργ@@ 10
έων 10
ίζ@@ 10
ίκη 10
ίνου 10
αίν@@ 10
απε@@ 10
ασία 10
αυλ@@ 10
βα@@ 10
γε@@ 10
είο 10
είου 10
εφ@@ 10
ηθ@@ 10
ισμός 10
κρά@@ 10
λυ@@ 10
μή 10
μακ@@ 10
μαχ@@ 10
μη@@ 10
μο 10
μυ@@ 10
νω@@ 10
ρία 10
ρκ@@ 10
σίας 10
σμ@@ 10
στά@@ 10
σχ@@ 10
τοκ@@ 10
τολ@@ 10
φω@@ 10
ωγ@@ 10
ώρα 10
Акаде@@ 10
Бре@@ 10
Димит@@ 10
Кал@@ 10
Кан@@ 10
Кла@@ 10
Коро@@ 10
Мак@@ 10
Охри@@ 10
Пла@@ 10
Рос@@ 10
Слу@@ 10
Сре@@ 10
Тор@@ 10
Це@@ 10
ани 10
бор@@ 10
бург@@ 10
воз@@ 10
вой@@ 10
воло@@ 10
вски 10
гин@@ 10
дже@@ 10
дуар@@ 10
жение 10
зан 10
зии 10
или 10
институт 10
ить 10
канал 10
кла@@ 10
кол@@ 10
компания 10
кор@@ 10
кры@@ 10
кт 10
лев 10
лей 10
лер 10
лян@@ 10
мон@@ 10
мя 10
ным 10
оборо@@ 10
опера@@ 10
ора 10
парк 10
пла@@ 10
рас@@ 10
регион 10
рий@@ 10
рода 10
рю@@ 10
стре@@ 10
ся@@ 10
там 10
теле@@ 10
тен@@ 10
тех@@ 10
тиче@@ 10
уби@@ 10
ус 10
фон 10
фу@@ 10
чна 10
эле@@ 10
ён@@ 10
Җ@@ 10
ҥ@@ 10
Ұ@@ 10
Օ@@ 10
զ 10
ء@@ 10
آذ@@ 10
ادة 10
اذ@@ 10
ارت 10
اسلا@@ 10
افظ@@ 10
البي@@ 10
الحزب 10
الخلي@@ 10
العرب 10
العل@@ 10
النا@@ 10
الی@@ 10
امام 10
امی@@ 10
اون@@ 10
باد 10
باد@@ 10
بند 10
بند@@ 10
بین 10
تص@@ 10
ته@@ 10
تونس 10
جان@@ 10
جم 10
خت@@ 10
دری@@ 10
دل 10
دى 10
دين@@ 10
رات 10
رك@@ 10
زن 10
سعد 10
سلي@@ 10
سپ@@ 10
شاہ 10
طي@@ 10
عز@@ 10
عن@@ 10
عي 10
عيد 10
فت 10
فل@@ 10
فو@@ 10
قب@@ 10
قية 10
كت@@ 10
لف@@ 10
لية 10
ليل 10
مال@@ 10
مت 10
مست@@ 10
ملك 10
ندي 10
نگ 10
وش@@ 10
يو@@ 10
پوس@@ 10
چو@@ 10
چی 10
کار@@ 10
کو 10
ہ@@ 10
۲ 10
ܬ 10
ގ@@ 10
क@@ 10
रु@@ 10
ত@@ 10
ਹ@@ 10
જ@@ 10
க 10
ங 10
ஜ@@ 10
ீ@@ 10
ು@@ 10
് 10
ර 10
ก@@ 10
ง@@ 10
พระ@@ 10
ນ 10
ེ@@ 10
ྲ@@ 10
လ@@ 10
ျ@@ 10
Ⴄ 10
ተ 10
ኤ@@ 10
ጉ@@ 10
ᐏ@@ 10
ᑭ@@ 10
ᒃ@@ 10
ង 10
ត 10
Ḩ@@ 10
ḵ 10
ṟ@@ 10
ạc 10
ạn 10
ọng 10
ổi 10
Ἕ@@ 10
₨ 10
ℤ 10
┐ 10
♠ 10
ⴷ@@ 10
ⵜ 10
ば@@ 10
キ 10
ゼ@@ 10
ヨ@@ 10
リ 10
レ 10
丁@@ 10
万@@ 10
之 10
乙@@ 10
也 10
兵 10
南 10
右@@ 10
吐@@ 10
吴@@ 10
団 10
外@@ 10
大学 10
太 10
密@@ 10
尼@@ 10
屋 10
崎 10
拉 10
摩@@ 10
支 10
方 10
桐 10
梁@@ 10
爆@@ 10
片@@ 10
現@@ 10
研究@@ 10
粵@@ 10
約 10
紅@@ 10
組 10
群 10
茶@@ 10
菜@@ 10
藤 10
蘭@@ 10
見 10
遗@@ 10
鈴@@ 10
개@@ 10
건 10
군@@ 10
금@@ 10
녀 10
드@@ 10
림 10
무 10
방@@ 10
불@@ 10
블@@ 10
송@@ 10
왕 10
왕@@ 10
운 10
울 10
장 10
제 10
파@@ 10
평@@ 10
플@@ 10
희 10
︎ 10
𐰀 10
𐰖@@ 10
𐰺@@ 10
􀁾 10
Agosti 9
Así 9
Beim 9
Chrysomelidae 9
Congreso 9
Dorf 9
Finanz@@ 9
Gemeinde 9
Grund 9
Höhe 9
Kỳ 9
Maji 9
Mch@@ 9
Nach 9
St. 9
Stelle 9
Studium 9
Tân 9
Verbind@@ 9
Wirtschaft 9
achus@@ 9
acion@@ 9
agricul@@ 9
anges@@ 9
anzia 9
artistes 9
aussi 9
bahn@@ 9
bande 9
believed 9
buildings 9
campagne 9
casi 9
changed 9
chaque 9
chaî@@ 9
coi 9
command@@ 9
correspond@@ 9
crisis 9
cristi@@ 9
curs@@ 9
decided 9
decor@@ 9
devant 9
dient 9
diez 9
difficul@@ 9
distingu@@ 9
divers@@ 9
doit 9
développement 9
ehemaligen 9
eint 9
emplo@@ 9
entras 9
europé@@ 9
families 9
financial 9
frei@@ 9
frontera 9
fútbol 9
highest 9
hors 9
huu 9
ichten 9
iente 9
importance 9
influence 9
intro@@ 9
intégr@@ 9
jüd@@ 9
meist 9
menudo 9
ministr@@ 9
mittee 9
nischen 9
noted 9
nte 9
oblig@@ 9
ordre 9
partido 9
passage 9
permet@@ 9
ported 9
previously 9
pén@@ 9
quatre 9
quelques 9
rapid@@ 9
reached 9
recher@@ 9
referred 9
rejo@@ 9
rivière 9
rural 9
schools 9
setz@@ 9
siglo 9
siones 9
sobre 9
spéci@@ 9
sterdam 9
streng@@ 9
symbol@@ 9
tasa 9
teile 9
tiempo 9
tigkeit 9
timm@@ 9
tioned 9
todos 9
training 9
travail 9
trieb@@ 9
trä@@ 9
très 9
tungs@@ 9
ugen@@ 9
umri 9
verli@@ 9
vient 9
xico 9
xième 9
zeuge 9
Ï@@ 9
ßen@@ 9
áneo 9
ánico 9
ätze 9
étude 9
êm 9
ían 9
ích 9
ċ 9
Đài 9
ĵ@@ 9
Ō 9
ŷ@@ 9
ư 9
ɦ@@ 9
ɹ@@ 9
ʑ@@ 9
ʕ 9
Θέ@@ 9
Κορ@@ 9
Μέ@@ 9
Πέ@@ 9
Ποδ@@ 9
Σαρ@@ 9
Χ 9
άρκ@@ 9
άφ@@ 9
έα 9
ίδα 9
αντα@@ 9
αρχ@@ 9
αυτ@@ 9
βρα@@ 9
ελλ@@ 9
θέν@@ 9
θύ@@ 9
ιάς 9
ιερ@@ 9
ικών 9
ιρ@@ 9
ισσα 9
καθ@@ 9
κρί@@ 9
κρι@@ 9
λεκ@@ 9
λεξ@@ 9
μένης 9
μερ@@ 9
μν@@ 9
νυ@@ 9
ορι@@ 9
ούλ@@ 9
ούς 9
περι@@ 9
ρατ@@ 9
ριν@@ 9
υσ@@ 9
χα@@ 9
όγ@@ 9
όνη 9
АН 9
Боль@@ 9
България 9
Дон@@ 9
Дру@@ 9
Институ@@ 9
Кали@@ 9
Кол@@ 9
Кру@@ 9
Министер@@ 9
Мит@@ 9
Мор@@ 9
Первый 9
Петер@@ 9
Пол@@ 9
Пос@@ 9
СС 9
СС@@ 9
Съ@@ 9
Хар@@ 9
Хи@@ 9
Шар@@ 9
бат@@ 9
бин@@ 9
бой 9
вое 9
гда@@ 9
гле@@ 9
гори@@ 9
гро@@ 9
дел@@ 9
департа@@ 9
еди@@ 9
еле@@ 9
ен 9
зар 9
зия 9
исто@@ 9
итель 9
ити@@ 9
йн@@ 9
княз@@ 9
ково 9
коп@@ 9
крас@@ 9
кс 9
лат@@ 9
лни 9
льное 9
лю 9
мар 9
мая 9
менты 9
мин 9
миче@@ 9
нат 9
ней 9
обра@@ 9
оз@@ 9
остров 9
пере@@ 9
рал@@ 9
рам@@ 9
рес@@ 9
род 9
рой 9
син@@ 9
ске 9
спа@@ 9
сс@@ 9
стана 9
ститу@@ 9
телевизи@@ 9
техниче@@ 9
тий 9
тра@@ 9
ть@@ 9
тюр@@ 9
уез@@ 9
укра@@ 9
хов 9
ход@@ 9
хор@@ 9
цар@@ 9
чар@@ 9
чёр@@ 9
шен 9
шин@@ 9
ьи 9
яр@@ 9
ят 9
Ґ 9
ҕ@@ 9
ҷ@@ 9
Ә 9
է 9
ջ 9
ֱ@@ 9
ַ 9
آذرب@@ 9
أم 9
أم@@ 9
اح 9
ادل 9
ادي 9
اري 9
الجزائر 9
السعودية 9
السي@@ 9
الكبير 9
الم 9
الوطنية 9
انات 9
اور 9
اي 9
اُ@@ 9
باغ@@ 9
بال@@ 9
بغ@@ 9
بني 9
بير 9
تل 9
جاب@@ 9
جر 9
جي 9
حاق 9
حی@@ 9
داء 9
درو@@ 9
دري@@ 9
دل@@ 9
دو 9
رئيس 9
رف@@ 9
رل 9
ريف 9
سة 9
سج@@ 9
شار@@ 9
شع@@ 9
صر@@ 9
عط@@ 9
غي@@ 9
فضل 9
فق@@ 9
قد@@ 9
قُ@@ 9
كا 9
كس 9
كل 9
كوك@@ 9
كون@@ 9
لار@@ 9
لام 9
لم@@ 9
ماء 9
مانی 9
مدر@@ 9
مز 9
مق@@ 9
نس 9
نط@@ 9
وات 9
ولد 9
وند 9
يش@@ 9
ٰ@@ 9
پو@@ 9
چار@@ 9
گرد 9
ڵ 9
ڵ@@ 9
ۆ 9
یل 9
ܛ@@ 9
ܵ@@ 9
ރ@@ 9
ކ@@ 9
ं 9
ज@@ 9
धर 9
न 9
महा@@ 9
ल 9
वि@@ 9
सु@@ 9
ং@@ 9
আ@@ 9
গ@@ 9
ਮ@@ 9
ੰ@@ 9
વ@@ 9
ે@@ 9
ો 9
୍ 9
த 9
ப 9
ல 9
ா 9
ా@@ 9
ನ 9
ನ@@ 9
ಶ 9
ಿ@@ 9
ං@@ 9
ේ@@ 9
ท@@ 9
ว@@ 9
ນ@@ 9
ລ@@ 9
ຫ@@ 9
ອ@@ 9
ལ@@ 9
ི@@ 9
ུ@@ 9
ྒ@@ 9
န@@ 9
Ⴄ@@ 9
გ 9
ሓ@@ 9
ሕ@@ 9
ረ@@ 9
ቱ 9
ዓ@@ 9
ዝ@@ 9
ይ 9
ᓀ 9
យ@@ 9
ស 9
ី@@ 9
ᠨ 9
Ḽ@@ 9
ṃ 9
ện 9
ức 9
ὺ@@ 9
⁻ 9
ℜ 9
∙ 9
⊆ 9
┌ 9
♂ 9
➣ 9
す@@ 9
せ@@ 9
ち 9
な 9
や@@ 9
ら 9
ォ@@ 9
ザ 9
ブ 9
ユ@@ 9
ロ 9
久@@ 9
井 9
以@@ 9
份@@ 9
伯@@ 9
体@@ 9
佛@@ 9
作@@ 9
健@@ 9
党@@ 9
出@@ 9
刘@@ 9
力@@ 9
友@@ 9
口 9
古 9
叶@@ 9
司 9
国家@@ 9
坂@@ 9
姫 9
宇@@ 9
守@@ 9
宋@@ 9
小 9
岡 9
常@@ 9
德 9
忠 9
性@@ 9
恩@@ 9
才 9
托@@ 9
政 9
於@@ 9
日本 9
春 9
時@@ 9
最@@ 9
會@@ 9
朴@@ 9
樂@@ 9
民 9
流@@ 9
源@@ 9
漢 9
盟 9
相@@ 9
県 9
知@@ 9
竹@@ 9
紀@@ 9
股@@ 9
胡 9
臣 9
苏@@ 9
落@@ 9
虎@@ 9
裕@@ 9
親@@ 9
詩 9
議@@ 9
跋@@ 9
路 9
那 9
開@@ 9
院@@ 9
陵 9
電@@ 9
面 9
鹿@@ 9
ꜣ 9
경 9
과 9
관@@ 9
너@@ 9
더 9
들 9
메@@ 9
물 9
미 9
밀@@ 9
베@@ 9
북@@ 9
브 9
생@@ 9
알@@ 9
오 9
용@@ 9
위 9
유 9
은@@ 9
일 9
크 9
티 9
합@@ 9
환 9
ﺗ@@ 9
ﻛ@@ 9
ﻴ@@ 9
𐰍@@ 9
𐰰 9
1980s 8
Besch@@ 8
Bezieh@@ 8
Despite 8
Durch 8
Ehe 8
Einsatz 8
Ethiopia 8
Géographie 8
Ichneum@@ 8
Jahren 8
Juegos 8
Lâm 8
Sân 8
Thị 8
Tochter 8
Verfass@@ 8
aliment@@ 8
americanos 8
américa 8
année 8
ansas 8
arrang@@ 8
autonom@@ 8
aît 8
beit 8
betrieb@@ 8
bilden 8
breit@@ 8
buni 8
cambio 8
camino 8
ciné@@ 8
clubs 8
colon@@ 8
communes 8
consider@@ 8
dann 8
daughter 8
debe 8
deci@@ 8
decision 8
designed 8
desp@@ 8
durante 8
días 8
eastern 8
echos 8
edern 8
encour@@ 8
endung 8
ennt 8
erischen 8
estudio 8
etzt 8
evu 8
failed 8
ficio 8
fuerte 8
grado 8
group@@ 8
großen 8
grund@@ 8
hinter 8
hizo 8
ibt 8
ifs 8
immedi@@ 8
import@@ 8
increased 8
invit@@ 8
jeunes 8
kein 8
kumi 8
kuwa 8
leicht 8
lengu@@ 8
llam@@ 8
lors 8
lors@@ 8
lucha 8
lugar 8
mains 8
majority 8
meil@@ 8
meilleur 8
minh 8
mois 8
mondi@@ 8
nahme 8
octu@@ 8
parents 8
partem@@ 8
país 8
pendant 8
presidente 8
presse 8
proces@@ 8
produce 8
protég@@ 8
proven@@ 8
raised 8
recht@@ 8
reported 8
röm@@ 8
schnitt 8
schriften 8
sech@@ 8
seig@@ 8
selves 8
singi 8
sovi@@ 8
specif@@ 8
starting 8
stän@@ 8
successful 8
también 8
themselves 8
tradition 8
tragen 8
triz 8
télé@@ 8
unkt 8
usawa 8
wirt@@ 8
woll@@ 8
zwischen 8
ª 8
ächs@@ 8
économ@@ 8
êque 8
ónico 8
þ 8
Ă 8
Ć 8
Đạo 8
Į@@ 8
ơ 8
ước 8
ǩ 8
ɤ 8
ɬ 8
ʰ 8
Ή@@ 8
Αγία 8
Αλέ@@ 8
Αντι@@ 8
Ασ@@ 8
Εθνική 8
Κά@@ 8
Κολ@@ 8
Κωνσταντ@@ 8
Μα@@ 8
Μερ@@ 8
Ολυμπιακ@@ 8
Πορ@@ 8
Πρ@@ 8
Πρά@@ 8
Σοφ@@ 8
Στα@@ 8
Φω@@ 8
Χρ@@ 8
άβ@@ 8
άνη 8
ήγ@@ 8
ήν@@ 8
ίμ@@ 8
αρχος 8
βασιλ@@ 8
γνω@@ 8
δά@@ 8
δια@@ 8
δρο@@ 8
δω@@ 8
εισ@@ 8
ελι@@ 8
ερα 8
εστ@@ 8
θέμα 8
θαν@@ 8
ιαν@@ 8
ιβ@@ 8
ιγ@@ 8
ιχ@@ 8
λλογ@@ 8
μία 8
ματος 8
ολογία 8
οσκ@@ 8
ούδ@@ 8
πέ@@ 8
παν@@ 8
πολη 8
προ 8
πρωτο@@ 8
πτ@@ 8
ραβ@@ 8
ραν@@ 8
ρη 8
ροφ@@ 8
σου 8
σφ@@ 8
ταρ@@ 8
τρα@@ 8
φαν@@ 8
ωρ@@ 8
όζ@@ 8
ύ 8
ύλου 8
ϛ 8
ϵ 8
Ѓ@@ 8
Азербай@@ 8
Ам@@ 8
Воро@@ 8
Ер@@ 8
Ката@@ 8
Кате@@ 8
Кир@@ 8
Кро@@ 8
Лит@@ 8
Мер@@ 8
Пара@@ 8
Пред@@ 8
Санкт 8
Свети 8
Син@@ 8
Стефан 8
Стра@@ 8
Тро@@ 8
Тю@@ 8
Христо@@ 8
Ци@@ 8
ас@@ 8
бит@@ 8
вана 8
вел 8
визи@@ 8
вод@@ 8
вол@@ 8
вро@@ 8
вя@@ 8
гер@@ 8
гия 8
джа 8
дил 8
для 8
дой 8
его 8
един@@ 8
ент@@ 8
зиден@@ 8
зна@@ 8
йско 8
кат@@ 8
ква@@ 8
комму@@ 8
крат@@ 8
кри@@ 8
кто@@ 8
кул@@ 8
лет@@ 8
лый 8
мед@@ 8
мей@@ 8
мет 8
море 8
мян@@ 8
най@@ 8
нан@@ 8
ника 8
ниче@@ 8
ность 8
ну 8
об 8
оп@@ 8
острова 8
ох@@ 8
пе 8
пут@@ 8
рак@@ 8
рах 8
риаль@@ 8
рон 8
ръ@@ 8
рё@@ 8
спи@@ 8
ступ@@ 8
тай@@ 8
тив@@ 8
това 8
том@@ 8
ту 8
уз@@ 8
футбо@@ 8
чко 8
чё@@ 8
шан@@ 8
шко 8
ща 8
ём 8
ём@@ 8
ёт 8
ѣ 8
ҥ 8
һ 8
ӈ@@ 8
ӏ 8
Ժ@@ 8
Փ@@ 8
Ֆ@@ 8
շ 8
آز@@ 8
أن 8
ائل 8
ابة 8
ادی 8
ادی@@ 8
اسم 8
اسماعیل 8
اسی 8
اضي 8
التح@@ 8
الث@@ 8
الثاني 8
الرو@@ 8
الري@@ 8
الظ@@ 8
المح@@ 8
المل@@ 8
امة 8
بری 8
بو 8
بيل 8
تا 8
تخت 8
تي 8
جار 8
جوا@@ 8
داد@@ 8
دُ@@ 8
راج@@ 8
رار 8
راز 8
زان 8
سار@@ 8
سط@@ 8
سلام 8
سية 8
شام 8
شري@@ 8
شیخ 8
صد@@ 8
صلا@@ 8
ضر 8
ضل 8
طية 8
عد 8
قد 8
قط@@ 8
كار@@ 8
كام@@ 8
كان@@ 8
كت 8
كرا@@ 8
كم 8
كن@@ 8
مار 8
مای@@ 8
مبار@@ 8
مخ@@ 8
مراد 8
مط@@ 8
مور@@ 8
مى 8
نج 8
نظام 8
نوب@@ 8
نُ@@ 8
هاب 8
هند@@ 8
هي 8
واء 8
وة 8
ورا@@ 8
ورية 8
ولا 8
وى 8
يز 8
يني 8
پور 8
پور@@ 8
ڕ@@ 8
کاش@@ 8
یو@@ 8
۱@@ 8
ܙ@@ 8
ܚ@@ 8
ܣ 8
ބ@@ 8
ު 8
ެ 8
ग 8
ग@@ 8
ध@@ 8
ने@@ 8
बा@@ 8
ु 8
উ@@ 8
ক 8
ভ@@ 8
য@@ 8
ਜ@@ 8
ਨ@@ 8
ય@@ 8
સ@@ 8
હ@@ 8
ன@@ 8
ம 8
ಕ 8
ಸ@@ 8
ು 8
ග@@ 8
ත 8
ය@@ 8
ල 8
รั@@ 8
ล@@ 8
ำ@@ 8
็ 8
ད@@ 8
ན 8
အ@@ 8
့ 8
ွ@@ 8
ማ@@ 8
ስ 8
ብ 8
ወ@@ 8
ው@@ 8
ይ@@ 8
ᐍ@@ 8
ᒪ@@ 8
ᓯ@@ 8
ᖃ@@ 8
ᖏ@@ 8
ង@@ 8
់ 8
᠊ 8
ḏ 8
ầu 8
ẽ@@ 8
ệ 8
Ὄ@@ 8
⁴ 8
▶ 8
Ⱨ 8
ⴰ 8
ⴳ@@ 8
ⵔ@@ 8
か 8
け 8
こ 8
た 8
ょ@@ 8
ゥ@@ 8
ゲ@@ 8
チ 8
ツ 8
ネ@@ 8
中華@@ 8
丸 8
乃@@ 8
书 8
争 8
交@@ 8
今@@ 8
仮@@ 8
信 8
克 8
兰@@ 8
共@@ 8
内@@ 8
军 8
勇 8
勝@@ 8
北 8
厥@@ 8
吉 8
咄@@ 8
善@@ 8
喜@@ 8
地区 8
场 8
始@@ 8
室@@ 8
宿 8
尊 8
屋@@ 8
屠@@ 8
岳 8
州@@ 8
差@@ 8
希@@ 8
干@@ 8
庁 8
库@@ 8
府@@ 8
律@@ 8
心 8
志 8
戰 8
戸@@ 8
斎 8
料@@ 8
時 8
柯@@ 8
楚@@ 8
業@@ 8
橋 8
機@@ 8
死 8
比 8
比@@ 8
池@@ 8
洲@@ 8
犁@@ 8
獨@@ 8
珠@@ 8
略@@ 8
病@@ 8
白 8
盛@@ 8
目 8
省 8
石 8
系@@ 8
紀 8
縄@@ 8
羌@@ 8
耶@@ 8
般@@ 8
色@@ 8
英 8
萬@@ 8
葛@@ 8
蒙@@ 8
蒲@@ 8
蜜@@ 8
行@@ 8
角 8
語@@ 8
警@@ 8
豆@@ 8
路@@ 8
造 8
遺@@ 8
郭@@ 8
鉄@@ 8
阪@@ 8
陽 8
隆@@ 8
雨@@ 8
雲@@ 8
霍@@ 8
音 8
音@@ 8
頭@@ 8
鬼@@ 8
鲁@@ 8
간 8
경@@ 8
계 8
궁@@ 8
권@@ 8
내 8
단@@ 8
더@@ 8
두@@ 8
룹 8
배@@ 8
범 8
병@@ 8
비 8
석@@ 8
슈@@ 8
씨@@ 8
울@@ 8
채@@ 8
치 8
카@@ 8
타 8
투@@ 8
특@@ 8
퍼@@ 8
허@@ 8
황@@ 8
ﮒ 8
ﻪ 8
𐰚@@ 8
𐱃@@ 8
𒀭@@ 8
Ainsi 7
Alemania 7
Allemagne 7
Anfang 7
Bedeutung 7
Beschreibung 7
Biographie 7
Bảo 7
Dieser 7
Gobierno 7
Hy 7
Hàn 7
Hạ 7
Ichneumonidae 7
Indon@@ 7
Jahr 7
Jahrhundert 7
Jahrhunderts 7
Ort 7
Pacífico 7
Royaume 7
Singapo@@ 7
Spä@@ 7
Zwischen 7
abhäng@@ 7
abilité 7
affa@@ 7
affaires 7
agric@@ 7
altungs@@ 7
anischen 7
avail@@ 7
ayant 7
becom@@ 7
besser@@ 7
bronze 7
cambi@@ 7
caused 7
celui 7
censo 7
cette 7
cinq 7
circ@@ 7
collabor@@ 7
collaboration 7
commune 7
compens@@ 7
conclu@@ 7
consin 7
création 7
cual@@ 7
definiti@@ 7
depuis 7
dispos@@ 7
divid@@ 7
dney 7
doksi 7
durant 7
durch@@ 7
décor@@ 7
ectif 7
ehör@@ 7
endet 7
enfer@@ 7
engwa 7
entw@@ 7
envi@@ 7
erschi@@ 7
española 7
exclus@@ 7
ficos 7
fines 7
fuer@@ 7
geben 7
gebung 7
gestion 7
hatte 7
historiques 7
hockey 7
hunder@@ 7
ieren 7
increase 7
industr@@ 7
initially 7
install@@ 7
inté@@ 7
invas@@ 7
itwa 7
janvier 7
joto 7
kuten@@ 7
lehr@@ 7
ligne 7
married 7
mouvement 7
municip@@ 7
mét@@ 7
ndio 7
nern 7
neuen 7
nouvelles 7
ografía 7
opér@@ 7
particularly 7
personnel 7
pointed 7
politische 7
presid@@ 7
preu@@ 7
quốc 7
recog@@ 7
regel@@ 7
reibung 7
returned 7
réalis@@ 7
région 7
régu@@ 7
schein@@ 7
schon 7
seiner 7
seit 7
seit@@ 7
seln 7
serving 7
setzung 7
sión 7
spez@@ 7
stations 7
stieg 7
students 7
surround@@ 7
toute 7
umwa 7
uridad 7
vain@@ 7
viles 7
vyo@@ 7
weiter 7
wenda 7
zählt 7
 7
¤ 7
Ý 7
ática 7
âu 7
évêque 7
òa 7
último 7
Ă@@ 7
Ģ 7
ķ 7
ĺ@@ 7
Ņ 7
Ǝ@@ 7
ương 7
ǝ 7
ǯ@@ 7
Ț 7
ɜ@@ 7
ɫ 7
ɮ 7
ɲ 7
ʐ@@ 7
ʝ@@ 7
ʹ 7
ʻ 7
͂ 7
Ανα@@ 7
Απο@@ 7
Αρχ@@ 7
Γεν@@ 7
Διεθν@@ 7
Ελ@@ 7
Εν@@ 7
Επ@@ 7
Επι@@ 7
Ζ 7
Κόμμα 7
Μ 7
Μαυ@@ 7
Να@@ 7
Νικολ@@ 7
Πειρα@@ 7
Σαλ@@ 7
Τα 7
Τε@@ 7
άκι 7
άρι 7
έπ@@ 7
ήρ@@ 7
αία 7
ανι@@ 7
ανου@@ 7
αυτο@@ 7
γράφ@@ 7
δεσμ@@ 7
διά@@ 7
είας 7
ειρ@@ 7
εκ 7
ελ 7
ζω@@ 7
ηγ@@ 7
ηση 7
θρ@@ 7
θυμ@@ 7
ιτ@@ 7
ιώ@@ 7
κί@@ 7
κιν@@ 7
κοιν@@ 7
κρατ@@ 7
κόσ@@ 7
λει@@ 7
λλην@@ 7
μέρα 7
μή@@ 7
ματα 7
μελ@@ 7
νεκ@@ 7
νο@@ 7
νου 7
ονία 7
οντες 7
πρό@@ 7
ρά 7
ραγ@@ 7
ρο 7
σι 7
σο@@ 7
στα@@ 7
σταση 7
στερ@@ 7
στον 7
σύ@@ 7
τάφ@@ 7
ταξ@@ 7
τοι 7
τύ@@ 7
υχ@@ 7
φορ@@ 7
ώδ@@ 7
ϑ@@ 7
ϖ 7
Є 7
Љ@@ 7
АТ@@ 7
Васи@@ 7
Гос@@ 7
Джу@@ 7
История 7
Йор@@ 7
Кли@@ 7
Кре@@ 7
Мал@@ 7
Мла@@ 7
Поль@@ 7
Пор@@ 7
Рабо@@ 7
Раз@@ 7
Российской 7
Сара@@ 7
Стар@@ 7
Стру@@ 7
Тра@@ 7
Три@@ 7
Уни@@ 7
Фи@@ 7
Хан@@ 7
ане 7
ани@@ 7
ар 7
безопас@@ 7
бина 7
бок 7
борь@@ 7
бро@@ 7
вари@@ 7
ват 7
версите@@ 7
гг 7
гент@@ 7
гим@@ 7
джан@@ 7
дне@@ 7
дороги 7
душ@@ 7
ене@@ 7
ери 7
ется 7
жан@@ 7
зин@@ 7
инди@@ 7
кара@@ 7
кия 7
кого 7
кру@@ 7
лич@@ 7
лок 7
маги@@ 7
май 7
мах@@ 7
мер@@ 7
музей 7
мыш@@ 7
нас 7
нау@@ 7
нах 7
нем 7
нер@@ 7
нима@@ 7
них 7
нски 7
няя 7
обще@@ 7
око@@ 7
поль@@ 7
поч@@ 7
противо@@ 7
раз 7
реб@@ 7
рец 7
рио@@ 7
роман 7
рон@@ 7
российский 7
све@@ 7
сей 7
сле@@ 7
став@@ 7
стар@@ 7
ственной 7
ся 7
тая 7
тво@@ 7
тель@@ 7
тка 7
тор@@ 7
тру@@ 7
удо@@ 7
ули@@ 7
университе@@ 7
хар@@ 7
ху 7
центр 7
цией 7
чен 7
шо 7
щи 7
юн@@ 7
юри@@ 7
ѕ@@ 7
Ғ 7
ҵ@@ 7
Һ 7
ӄ@@ 7
Ӧ 7
Ӱ 7
ӽ 7
Ա 7
Ճ@@ 7
Ջ@@ 7
հ 7
ռ 7
օ@@ 7
ֆ@@ 7
և 7
פ 7
أمر 7
إل@@ 7
ائی 7
ارد 7
اص 7
اف 7
افر 7
الأر@@ 7
الأمير 7
الان@@ 7
البار@@ 7
البح@@ 7
البر@@ 7
البل@@ 7
الجامعة 7
الديمقرا@@ 7
الرا@@ 7
الصح@@ 7
الض@@ 7
القص@@ 7
اللي@@ 7
المؤ@@ 7
المر@@ 7
المس@@ 7
المغرب 7
انس@@ 7
انگ@@ 7
اه 7
اوي 7
باس@@ 7
بت 7
بين 7
تاب@@ 7
تخ@@ 7
تز@@ 7
جمع@@ 7
جمهورية 7
جو 7
جون 7
حدي@@ 7
حز@@ 7
خلی@@ 7
دم 7
دمشق 7
دور@@ 7
دوست 7
دول@@ 7
دین 7
ذي 7
راد 7
رخ 7
رف 7
روت 7
زار 7
زند@@ 7
سوريا 7
سيد 7
شد 7
شیر 7
شین 7
ضة 7
ظم 7
فا@@ 7
فاق 7
فلا@@ 7
قات 7
قه 7
لق 7
لِ 7
مانية 7
مجلس 7
مری@@ 7
منصور 7
مهورية 7
مير@@ 7
مين 7
مینی 7
نت 7
نغ@@ 7
نم@@ 7
نوا@@ 7
هن@@ 7
هيم 7
وحد@@ 7
وش 7
يت@@ 7
يخ 7
يف 7
يل@@ 7
َّة 7
پرو@@ 7
پش@@ 7
ڠ@@ 7
ڤ 7
کار 7
کام@@ 7
کت@@ 7
کل@@ 7
کلا@@ 7
گرا@@ 7
ہ 7
۹@@ 7
ܗ@@ 7
ܼ@@ 7
ި 7
का 7
ट 7
ता@@ 7
दी 7
ध 7
ब 7
मा 7
मि@@ 7
रा@@ 7
राज 7
री@@ 7
वा@@ 7
ष@@ 7
हिन 7
ी 7
॥ 7
অ@@ 7
ই@@ 7
ো@@ 7
ਕ@@ 7
ਦ@@ 7
ં 7
ગ@@ 7
ડ@@ 7
ை 7
వ@@ 7
ാ@@ 7
ක@@ 7
ව@@ 7
น 7
พ@@ 7
ว 7
ะ@@ 7
แ@@ 7
ງ@@ 7
ດ@@ 7
ສ@@ 7
ິ@@ 7
စ@@ 7
ည 7
တ@@ 7
ူ@@ 7
း 7
Ⴕ@@ 7
Ⴢ 7
ለ@@ 7
ረ 7
ቀ@@ 7
በ 7
ኑ 7
ᑊ@@ 7
ᓪ@@ 7
គ@@ 7
ទ@@ 7
ḷ 7
Ṫ 7
ịnh 7
ột 7
ἦ@@ 7
ὔ@@ 7
ῆ 7
ῳ 7
ῳ@@ 7
⁺ 7
∼ 7
[...]
