, 4589530
. 4173784
του 2860604
και 2709934
της 2076144
το 2006170
&quot; 1466922
ο 1393349
την 1365039
από 1249766
η 1186721
με 1128727
να 964992
) 949684
( 945028
τον 863266
που 802213
σε 785660
των 776021
στην 719828
για 698691
στο 687117
τη 680204
τα 665323
ή 637378
είναι 594120
οι 563708
Η 515717
τους 504289
ος 482724
Το 464429
Ο 450815
ία 444482
@-@ 442241
Σ@@ 431369
ου 410363
ως 402358
ών 397313
ήταν 397239
α 395347
β@@ 392317
στη 389012
ες 377688
ική 376164
ων 362070
αν@@ 359904
ι@@ 359183
ά 358387
φ@@ 356824
κ@@ 356309
σ@@ 355327
Κ@@ 353678
ικό 352132
ό 350236
χ@@ 335433
τις 333910
π@@ 331359
μ@@ 324291
ής 319639
θ@@ 316903
δ@@ 315376
τ@@ 314567
ίας 314116
ο@@ 313347
Μ@@ 307145
ν@@ 306347
στ@@ 305976
Α@@ 302756
έ@@ 302000
Π@@ 298181
: 296761
ά@@ 295829
γ@@ 295682
ους 295536
εν@@ 294927
Τ@@ 294025
ω@@ 293134
ί@@ 286393
ές 281600
ικά 276763
ένα 270365
λ@@ 269833
στις 269833
προ@@ 265952
ης 258125
ας 256983
ε@@ 252746
η@@ 249650
ός 248985
ό@@ 247399
ότι 246135
μια 243706
Ε@@ 242853
Β@@ 242376
α@@ 241161
ι 239254
άν@@ 236228
απο@@ 234801
Ν@@ 234334
στον 233818
συν@@ 233493
ικής 232994
ου@@ 231356
Λ@@ 230944
στα 229562
ύ@@ 227167
ια 224072
ού 220373
« 218447
ρι@@ 217583
» 217092
δι@@ 215785
ζ@@ 215330
ρ@@ 215159
εξ@@ 211529
ακ@@ 210905
Χ@@ 210455
εκ@@ 206520
τι@@ 206448
Ρ@@ 202339
ιν@@ 199028
δεν 198521
ν 198366
ικές 197818
αρ@@ 197666
κα@@ 197375
υ@@ 194448
ρο@@ 194360
απ@@ 193919
ση 192618
ε 188098
Οι 186392
ει 185626
ού@@ 184636
μπ@@ 183671
ικού 182776
αν 181368
ικ@@ 175344
είχε 175037
ον@@ 174055
΄ 173941
έχει 172292
Ο@@ 172264
επι@@ 171375
ς 170607
αλ@@ 168930
ευ@@ 168735
παρ@@ 167595
τ 167328
ικών 167273
έν@@ 164686
ισ@@ 162889
Δ@@ 162871
Φ@@ 160580
ξ@@ 159797
Γ@@ 156672
άρ@@ 156208
ασ@@ 155549
τική 155203
κατά 154614
επ@@ 153744
μα 153472
λι@@ 151633
ερ@@ 151390
το@@ 149443
ρα@@ 147528
ή@@ 146182
αλλά 145965
ορ@@ 145912
κατα@@ 145875
τρ@@ 143883
γκ@@ 143250
ει@@ 140227
Ι@@ 140030
εία 139218
δια@@ 139181
σι@@ 138424
ελ@@ 138349
αγ@@ 138000
ενώ 136856
άλ@@ 136789
αι@@ 136415
ουν 136065
τά@@ 135327
ατ@@ 135300
όν@@ 134586
τα@@ 134323
ώ@@ 134252
σης 133677
σκ@@ 133361
ομ@@ 133334
οποία 132932
μετα@@ 132892
ίου 132773
θα 132462
ούς 130671
Μπ@@ 129922
- 128571
όπως 128375
όταν 127554
δύο 127389
&apos; 126918
ί 126719
λ 125467
θε@@ 124917
λε@@ 124841
έρ@@ 124046
ρί@@ 123331
υπο@@ 122756
περι@@ 120414
ολ@@ 119678
ιο 117585
ηση 116784
μετά 114944
ων@@ 114399
ικός 114386
ησε 112186
τε@@ 112037
ρά@@ 112001
ρ 111956
αντι@@ 111936
προσ@@ 111473
να@@ 110887
μία 109851
όπου 109727
ίες 109686
επίσης 108578
εται 108397
εγ@@ 108269
πλ@@ 108072
κ 106886
τος 106684
αφ@@ 103551
τη@@ 103313
κλ@@ 103200
/ 103096
ίν@@ 102560
σαν 102404
όρ@@ 102304
εί@@ 101977
τικό 101641
αμ@@ 101241
εύ@@ 100277
Έ@@ 99673
υπ@@ 99323
θηκε 99233
Τα 98834
Α 97273
τσ@@ 97231
ότητα 96501
άσ@@ 96091
τερ@@ 95823
οδ@@ 95814
ήθηκε 95035
ανα@@ 94222
τες 93936
καθώς 92708
ήσει 92323
2 92255
οποίο 91206
Ζ@@ 91075
μα@@ 90946
ίσ@@ 90863
είο 89590
πο@@ 89242
έχουν 89211
Γκ@@ 88572
υλ@@ 88461
άκ@@ 88251
θεί 88089
αστ@@ 87968
μά@@ 87948
αυτό 87736
1 87675
έλ@@ 86982
οπ@@ 86486
ρα 86376
είας 86340
οί 86280
στους 86135
εί 85759
μ 85617
αί@@ 85449
κο@@ 85140
αρχ@@ 84728
μέχρι 84367
λα@@ 83869
μεταξύ 83846
τικές 83797
ον 82986
ιστ@@ 82947
ωση 82794
ματ@@ 82617
τικά 82591
ρε@@ 82012
ματος 81954
ρος 81063
άγ@@ 80547
βι@@ 80287
ίων 80164
ώς 80164
Αν@@ 79895
ογ@@ 79869
με@@ 79791
έγινε 79536
οσ@@ 79230
χρόνια 78797
λλ@@ 78723
ματα 78692
σία 78515
Δι@@ 78509
ται 78374
ρου 77880
γεν@@ 77725
γραφ@@ 77685
γι@@ 77652
είς 77638
.@@ 77287
μον@@ 76789
πρώτη 76314
δε@@ 75907
προς 75881
ηγ@@ 75495
πιο 74705
ψ@@ 74635
όσ@@ 74602
Ά@@ 74236
Β 74006
καθ@@ 73267
3 72946
οντας 72827
είται 72748
Στις 72715
έκ@@ 72649
ώντας 72381
τικής 72377
μι@@ 72298
όλ@@ 72019
εργ@@ 71962
; 71912
ξη 71588
ονται 71574
πρ@@ 70826
ομάδα 70750
ρο 70747
περιοχή 70631
πόλη 70479
μπορεί 69834
Θ@@ 69720
θέση 69378
Τζ@@ 69345
ημ@@ 69246
όμ@@ 69226
ρω@@ 69062
αυτή 68949
χρ@@ 68190
ήματα 68009
περ@@ 67874
τρι@@ 67630
μέ@@ 67049
θέ@@ 66991
ένας 66252
άς 66215
αυ@@ 65953
ετ@@ 65869
διάρκεια 65588
ιλ@@ 65492
διακ@@ 65037
ερ 64795
θηκαν 64766
καλ@@ 64373
αιώνα 64316
τού@@ 64008
τί@@ 63743
αδ@@ 63366
ήσεις 63296
καν@@ 63072
κά@@ 62816
Παρ@@ 62561
ουλ@@ 62355
όπ@@ 62296
4 62210
φορά 61682
όν 61602
μένα 61553
ρού@@ 61545
είου 61329
οποίος 61287
υρ@@ 61010
εισ@@ 60815
Από 60696
ημα 60631
αβ@@ 60624
κιν@@ 60467
συ@@ 60426
ιμ@@ 60260
βασ@@ 60068
είχαν 59867
νη 59672
ιδ@@ 59058
&amp; 59007
πέ@@ 58854
βλ@@ 58535
τζ@@ 58463
αντ@@ 58386
μένη 58118
ορι@@ 58085
τελ@@ 58019
οικ@@ 57896
οχ@@ 57794
Στην 57737
μάτων 57698
ισμό 57593
ιά 57293
% 57174
άστηκε 57069
έναν 56850
– 56709
ρέ@@ 56518
ενός 56408
μη 56404
περίοδο 56113
Συν@@ 56112
εφ@@ 56054
στα@@ 55893
πολι@@ 55701
μέρος 55643
θη@@ 55425
μόνο 55402
πολύ 54792
ώθηκε 54731
ίλ@@ 54630
πρό@@ 54605
μεν@@ 54527
άν 54509
οποι@@ 54465
οι@@ 54450
ούν 54311
ποι@@ 54276
μαζί 53989
Μετά 53880
τά 53838
σύν@@ 53816
μένο 53683
Η@@ 53599
ειδ@@ 53578
έως 53514
ικούς 53424
Με 52943
ίκ@@ 52931
τέ@@ 52293
τικών 52248
σπ@@ 52079
κατ@@ 52000
του@@ 51888
μερ@@ 51864
σσ@@ 51836
οβ@@ 51671
5 51500
ην@@ 51463
ησαν 51400
ξε 51329
εν 51314
ούσε 51205
ίστηκε 51178
υγ@@ 51112
τι 51030
περίπου 50924
δυ@@ 50894
βρίσκεται 50765
ίδια 50756
όμως 50434
Κα@@ 50374
πι@@ 50229
τας 50059
ψη 50012
ω 49965
ίδα 49931
ών@@ 49858
τές 49818
Γι@@ 49760
3@@ 49737
έ 49719
ησης 49714
μαν@@ 49713
τυ@@ 49666
Καρ@@ 49548
έφ@@ 49522
εδ@@ 49475
τον@@ 49437
οφ@@ 49255
ότητας 48862
εια 48826
κυ@@ 48785
Θε@@ 48692
στά@@ 48617
φορ@@ 48514
σίας 48474
έχ@@ 48456
σμ@@ 48220
πε@@ 47983
υν@@ 47917
ειας 47860
νομ@@ 47830
ητ@@ 47741
ϊ@@ 47732
ριο 47730
τού 47667
σημ@@ 47491
όνομα 47310
αργότερα 47169
Στο 47014
16@@ 46894
τότε 46858
Ό@@ 46668
Μαρ@@ 46580
κάθε 46398
ικοί 46366
κύ@@ 46287
Τσ@@ 46271
Κατά 46261
6 46195
Προ@@ 46051
ισμού 45527
χρησιμοποι@@ 45231
μέσα 45206
Βι@@ 44696
κτ@@ 44443
φ 44359
όγ@@ 44331
μένος 44296
ονταν 44246
&#93; 44168
ουσ@@ 43973
γράφ@@ 43955
17@@ 43932
έπ@@ 43861
4@@ 43800
π 43698
15@@ 43610
ολογ@@ 43587
&#91; 43581
τηση 43542
τεχν@@ 43525
πως 43366
λη@@ 43328
τηκε 43287
δί@@ 43264
ίζει 43141
οκ@@ 43052
καταστ@@ 43046
Τον 42999
όφ@@ 42999
λογ@@ 42994
Είναι 42991
ότ@@ 42956
πα@@ 42864
σει 42864
Σε 42720
παν@@ 42571
πρώτο 42545
εβ@@ 42529
τησε 42510
βά@@ 42427
τών 42349
αλλ@@ 42261
λόγω 41870
ητής 41454
ργ@@ 41453
10 41321
δο@@ 41315
μπο@@ 41288
νη@@ 41260
τικού 41145
πριν 41130
ροφ@@ 41112
σεις 41015
σε@@ 41001
ηθεί 40940
γκ 40900
ώσεις 40862
υπό 40854
ταινία 40792
νέ@@ 40788
τύ@@ 40785
μόν@@ 40746
κυρίως 40709
Άν@@ 40708
σειρά 40700
Αλ@@ 40680
αθ@@ 40596
σφ@@ 40573
ήθηκαν 40527
καρ@@ 40335
Την 40328
έσ@@ 40307
έα 40244
χρον@@ 40198
ότητες 40020
Αρ@@ 39944
συνέχεια 39890
μικρ@@ 39804
λά@@ 39794
ζ 39778
κας 39690
τή 39679
μφ@@ 39645
Καλ@@ 39633
ντ 39529
μένων 39528
τοπ@@ 39362
κατέ@@ 39312
8 39285
κρι@@ 39280
οπο@@ 39198
σχ@@ 39133
Υ@@ 39080
ξης 38967
ωσε 38901
νε@@ 38823
ετών 38648
αγων@@ 38606
ίσει 38592
Για 38565
λέ@@ 38550
ιστορ@@ 38494
ρίας 38494
ιών 38429
πάνω 38375
7 38358
κοιν@@ 38286
στη@@ 38267
παρα@@ 38074
S@@ 38060
χω@@ 37910
14@@ 37903
έργο 37768
άβ@@ 37701
ειες 37654
ουν@@ 37653
ύ 37651
όκ@@ 37618
φορές 37477
μιας 37462
άδ@@ 37446
διά@@ 37323
ηλ@@ 37305
ψε 37220
έβ@@ 37124
2@@ 37092
άφ@@ 37047
ονομ@@ 36880
Αγ@@ 36872
δικ@@ 36815
έγ@@ 36814
Ελλάδα 36776
βολ@@ 36635
τής 36554
εθν@@ 36527
εκδ@@ 36502
σύ@@ 36485
δρ@@ 36399
ριν@@ 36379
Στη 36319
ήσ@@ 36189
σα 36179
5@@ 36171
2011 36074
ομάδες 36042
κατά@@ 36009
νης 36004
ριστ@@ 35984
τιμ@@ 35979
μακ@@ 35932
στο@@ 35816
ώματα 35765
χωριό 35736
Ήταν 35703
απλ@@ 35380
13@@ 35327
εμ@@ 35299
ίζεται 35253
φαν@@ 35243
έρα 35234
σήμερα 35175
Κά@@ 35119
συμβ@@ 34825
χωρίς 34800
ολογία 34717
Μά@@ 34703
δημιουργ@@ 34703
λί@@ 34678
ώσει 34592
μή@@ 34578
εμπ@@ 34536
ιερ@@ 34456
τικός 34417
ύρ@@ 34382
Επ@@ 34319
όλα 34314
βασιλ@@ 34267
ωρ@@ 34222
20 34170
μένες 34112
πρώ@@ 33928
τια 33920
Γου@@ 33900
πά@@ 33867
πολ@@ 33846
μονα@@ 33815
αξι@@ 33750
αζ@@ 33660
ρη@@ 33659
όδ@@ 33638
ρύ@@ 33618
αυτά 33584
ρίου 33540
υπερ@@ 33498
9 33480
9@@ 33479
ημερ@@ 33467
αξ@@ 33418
άσεις 33403
άμ@@ 33374
Ου@@ 33308
αντί@@ 33272
συνεχ@@ 33186
Γ 33098
ίδιο 32993
C@@ 32971
Ανα@@ 32949
Ε 32896
ογραφ@@ 32825
ούν@@ 32774
οργαν@@ 32762
12 32719
νο@@ 32662
σύμφωνα 32641
Επίσης 32512
ρου@@ 32492
μέσω 32471
ξει 32372
Σύμφωνα 32317
μεγάλη 32315
ώ 32314
M@@ 32304
ραγ@@ 32300
υσ@@ 32263
τε 32258
ισμός 32242
φυ@@ 32222
αποτέλεσμα 32203
ήρ@@ 32072
τικ@@ 32041
Επι@@ 31971
μέλος 31827
μουσ@@ 31827
6@@ 31814
φιλ@@ 31811
Ιν@@ 31773
Απ@@ 31763
πόλης 31744
πιθαν@@ 31726
άζει 31683
μο@@ 31679
εποχή 31665
ιζ@@ 31623
_ 31621
αρι@@ 31585
έλαβε 31584
οξ@@ 31507
ταν@@ 31497
τευ@@ 31482
ιστορία 31470
ήσουν 31465
ειο 31460
φυσ@@ 31432
όσο 31429
έτσι 31413
μβ@@ 31351
ναν 31292
δικα@@ 31278
πολλές 31248
πο 31226
διασ@@ 31187
τμήμα 31186
κα 31164
πρόσ@@ 31163
Με@@ 31070
χ 30947
Περ@@ 30935
Περι@@ 30925
άσει 30911
σή 30867
διο 30852
εκλογές 30803
15 30800
ύλ@@ 30777
ολόγ@@ 30763
στοιχεία 30743
άπ@@ 30607
επαν@@ 30594
ίο 30586
ιτ@@ 30574
αχ@@ 30534
ανακ@@ 30360
Αφ@@ 30333
πος 30313
ούσαν 30302
ύν@@ 30283
μεγάλ@@ 30264
έκανε 30252
Αρχ@@ 30243
πτ@@ 30191
H@@ 30190
τρεις 30134
άλλα 30079
7@@ 30001
P@@ 29986
αρχές 29943
Απο@@ 29937
8@@ 29907
π.Χ. 29869
E@@ 29844
αναφέρεται 29811
όλο 29768
ήμ@@ 29730
ουρ@@ 29624
όχ@@ 29582
Παν@@ 29565
τέλος 29545
υ 29507
ιος 29505
αερ@@ 29498
θούν 29467
στρατ@@ 29463
κατασκευ@@ 29435
ούνται 29329
Εν@@ 29297
χώρα 29296
φω@@ 29249
Ωστόσο 29082
επί 29071
χαρ@@ 29058
λο 29043
T@@ 28961
ηκε 28960
= 28946
κοντά 28920
μένου 28876
υπηρε@@ 28869
μο 28861
μος 28839
κομ@@ 28814
αποτελεί 28757
τορ@@ 28739
ματική 28718
οικονομ@@ 28710
τίτλο 28685
αρκ@@ 28631
τυπ@@ 28631
πολλά 28615
Πέ@@ 28599
χει@@ 28588
εχ@@ 28492
ήματος 28468
Ελλην@@ 28466
κι 28455
τόσο 28442
σιο 28436
άρι@@ 28410
έζ@@ 28373
στρατιω@@ 28366
Ντ@@ 28359
θέσεις 28309
δύ@@ 28303
ωσης 28301
ότερα 28286
30 28242
λεγ@@ 28226
άδες 28225
πλέον 28225
άλλες 28223
τρα 28219
Ελ@@ 28197
ώνει 28184
D@@ 28158
αϊ@@ 28127
ηλικία 28083
έδρα 28077
μυ@@ 28042
διαφ@@ 28037
λειτουργ@@ 28023
συγ@@ 28020
νέα 28007
B@@ 28000
L@@ 27987
όβ@@ 27981
ξεκίνησε 27962
ρά 27960
γιος 27946
υψηλ@@ 27910
κε 27879
άδα 27877
Δ 27850
ειρ@@ 27784
θρ@@ 27743
τρο@@ 27715
F@@ 27593
γλ@@ 27569
The 27563
τιν@@ 27555
ητή 27519
σταση 27481
εσ@@ 27436
ρική 27403
ζωή 27384
υπάρχει 27375
ελ 27273
G@@ 27206
Γερμαν@@ 27168
ιάς 27134
εμφαν@@ 27102
ξι@@ 27074
εκ 27031
ίνα 27014
στι@@ 27003
βαρ@@ 26984
ακό 26980
R@@ 26938
χή 26935
πρωτάθλημα 26901
θεση 26839
ρυ@@ 26839
θήκη 26799
κόρη 26796
ιν 26788
ξεις 26784
μεγάλο 26755
μές 26718
2010 26711
11 26709
ήγ@@ 26679
κατοίκους 26668
N@@ 26617
ιακ@@ 26604
s 26573
όρος 26544
ώστε 26532
έργα 26522
ότερο 26501
κρατ@@ 26453
16 26446
σχολ@@ 26446
χρήση 26425
στερ@@ 26384
έας 26383
νόμ@@ 26248
οδηγ@@ 26218
μέλη 26188
ητές 26174
Ιουλίου 26156
προσωπ@@ 26130
Εκ@@ 26117
Αυγούστου 26075
παράγ@@ 26022
14 26011
ιδι@@ 26011
λει@@ 26011
μεσ@@ 26011
ούλ@@ 25999
κι@@ 25998
ιστο@@ 25965
τελε@@ 25801
Μα@@ 25799
ήλ@@ 25767
Μπο@@ 25762
of 25755
μαχ@@ 25739
άλλ@@ 25708
10@@ 25704
Μον@@ 25684
απε@@ 25659
νω@@ 25625
Μαρτίου 25622
Εθνική 25603
χρόνο 25603
όλη 25551
όμεν@@ 25550
18 25531
ότερη 25524
κο 25506
σμό 25506
έδ@@ 25478
ταγ@@ 25478
χν@@ 25478
β 25463
εμπο@@ 25442
όνα 25434
ίδ@@ 25430
αυτές 25426
ίγ@@ 25357
αφού 25329
βαθμ@@ 25302
12@@ 25299
ρατ@@ 25293
υπάρχουν 25278
ρον@@ 25258
διεθν@@ 25243
ωνία 25240
Σεπτεμβρίου 25203
παρουσι@@ 25185
διοικ@@ 25154
Οκτωβρίου 25147
βάση 25141
εγκ@@ 25136
πρω@@ 25136
σχε@@ 25136
συνα@@ 25121
γραφή 25092
εκτός 25058
κολ@@ 25054
ακόμη 25028
ασία 24981
τελικά 24965
formula 24962
νά@@ 24960
ατρ@@ 24930
’ 24904
Γεν@@ 24886
Ιουνίου 24864
Στα 24825
θ 24824
οποίες 24812
είτε 24790
Μαΐου 24788
γύρω 24753
ΐ@@ 24750
Αυ@@ 24698
A@@ 24658
περιοχές 24658
Όταν 24636
ηθ@@ 24629
Ιανουαρίου 24608
αία 24593
χώ@@ 24550
μου 24538
ντ@@ 24533
25 24501
άρκ@@ 24495
σύστημα 24488
ηματ@@ 24464
γον@@ 24416
τοποθε@@ 24384
δεύτερη 24375
υφ@@ 24366
ις 24329
σχηματ@@ 24311
πρέπει 24305
διαφορε@@ 24270
μετ@@ 24259
στατ@@ 24244
παλαι@@ 24230
τεί 24222
13 24217
εις 24196
μηχαν@@ 24195
όμενο 24180
συχνά 24140
Απριλίου 24132
ακόμα 24117
σεζόν 24108
Ευ@@ 24046
κου@@ 24011
17 24002
ομάδας 23971
τιο 23942
είων 23940
οδο 23920
μεγαλύτερ@@ 23905
οπλ@@ 23899
επιστ@@ 23897
τερ 23875
κατάσταση 23866
τρο 23866
de 23811
Ί@@ 23800
κυβέρνηση 23773
Σύ@@ 23756
δρόμ@@ 23754
καλύτερ@@ 23727
αυτο@@ 23721
Κύ@@ 23719
φυλ@@ 23715
μορφή 23687
Ανατολ@@ 23674
Συ@@ 23650
αρχικά 23646
Αυτό 23641
τό 23641
Αγίου 23628
ώσ@@ 23582
Λου@@ 23581
επικ@@ 23558
ορο@@ 23555
κω@@ 23550
Νοεμβρίου 23505
ταξ@@ 23502
Κατ@@ 23485
τελευταία 23460
εκεί 23361
οτ@@ 23330
Ιστορία 23314
σμός 23313
Ισ@@ 23291
έμ@@ 23282
ρίζ@@ 23276
ρη 23258
χθηκε 23251
Πολ@@ 23243
ριση 23243
ίνο 23238
ντε 23227
δία 23199
ουμε 23167
ραν@@ 23157
Κορ@@ 23141
πί@@ 23114
φύ@@ 23108
όρι@@ 23107
δημο@@ 23093
κυρι@@ 23092
τή@@ 23025
Αθήνα 23016
εναντίον 23008
ίζ@@ 22994
κρί@@ 22983
ονομασία 22981
λιο 22972
άλλων 22971
γερμαν@@ 22944
ωνα 22938
πρώην 22900
μν@@ 22866
2012 22855
μέν@@ 22850
σεων 22840
υμ@@ 22791
κοινότητα 22748
ούμεν@@ 22747
κίν@@ 22738
Ξ@@ 22734
δηλ@@ 22720
πολυ@@ 22705
όλου 22692
ελλην@@ 22642
γέν@@ 22639
κόμ@@ 22625
χος 22623
αγώνες 22593
Λι@@ 22570
όχι 22565
δημοσι@@ 22560
Δημ@@ 22546
δημ@@ 22527
δρο@@ 22516
σχετικά 22506
μάχ@@ 22488
ότερ@@ 22464
Βρεταν@@ 22458
βί@@ 22440
οχή 22417
κοινων@@ 22401
γλώσσα 22365
Έχει 22317
αση 22312
δηλαδή 22298
έδωσε 22282
αναλ@@ 22275
τολ@@ 22242
συνήθως 22238
κέντρο 22222
Δεκεμβρίου 22191
ασε 22186
Μεγάλ@@ 22161
πήρε 22153
από@@ 22122
ρία 22120
κεντρ@@ 22114
μελ@@ 22114
σω@@ 22073
τρία 22059
άρι 22055
2009 22051
βασιλιά 22044
ψηφ@@ 22044
ιού 22027
Βασιλ@@ 22020
πει@@ 21982
επισκ@@ 21967
gt 21947
είδ@@ 21915
2008 21901
ησι@@ 21895
γιο 21877
ρόλο 21851
μη@@ 21845
Κ 21836
ασκ@@ 21802
σας 21782
19 21779
καλύ@@ 21764
2014 21707
αποφ@@ 21679
ιστική 21672
Μπρ@@ 21667
ενεργ@@ 21644
λεπ@@ 21644
συμ@@ 21643
πρώτος 21642
μπορούν 21638
Ολυμπιακ@@ 21628
σύζυγ@@ 21625
ίδες 21595
πυ@@ 21582
καταλ@@ 21547
ψει 21541
μάχη 21537
ώνεται 21537
μέτρα 21533
y 21524
ικαν@@ 21518
αυξ@@ 21493
πολιτι@@ 21410
μή 21388
21 21377
μυθ@@ 21351
σμα 21342
lt 21336
Φεβρουαρίου 21335
νι@@ 21335
κατηγορία 21334
θησαν 21318
Κοιν@@ 21285
άλλη 21276
2015 21272
αγωγ@@ 21263
φόρ@@ 21263
ρού 21260
δυν@@ 21244
αρχαι@@ 21234
Βαλ@@ 21213
πεδ@@ 21209
0 21192
συγκ@@ 21185
άζεται 21172
νό@@ 21167
σίες 21158
2013 21145
σον 21136
φερ@@ 21127
μένοι 21126
ίνη 21120
φέρ@@ 21113
τοκ@@ 21109
διδ@@ 21095
ζε 21067
μεγαλύτερο 21066
τικούς 21054
συνεργ@@ 21038
κλη@@ 21034
γεννήθηκε 21019
παλ@@ 21019
χρόν@@ 21017
δομ@@ 21003
μορφ@@ 21003
αποτελ@@ 20954
τέλη 20922
Βιογραφία 20915
έλλ@@ 20902
άλμπουμ 20885
Σ 20835
πον@@ 20811
αγώνα 20779
θη 20764
ταν 20746
γίνει 20692
Πλ@@ 20674
Ισπαν@@ 20673
στοιχ@@ 20651
τς 20647
πλη@@ 20618
άρχισε 20565
ουσι@@ 20544
ανάμεσα 20517
ροι 20512
κυκλοφόρησε 20504
στικά 20494
γεγονός 20472
ορισ@@ 20449
δραστηρι@@ 20444
κορ@@ 20438
κάτω 20419
εύτηκε 20416
πλο@@ 20408
παιδιά 20404
Ως 20403
δεί@@ 20400
έτος 20394
Πανεπιστήμιο 20385
O@@ 20360
μας 20342
2007 20336
ευση 20332
ακή 20299
στική 20299
τυχ@@ 20298
πρόεδρος 20263
μει@@ 20262
κέρδισε 20259
σύγχρον@@ 20258
μεγαλύτερη 20254
ιστεί 20247
παί@@ 20244
πατ@@ 20241
ωνίας 20241
αμπ@@ 20238
γνώ@@ 20189
πρώτα 20163
Αν 20156
Πρω@@ 20148
παρά@@ 20112
διατ@@ 20103
2016 20079
άρια 20058
24 20050
δεύτερο 20046
δίσ@@ 20034
ίζονται 20029
πολιτική 20028
ΗΠΑ 20022
είες 20019
γραμ@@ 20013
χώρας 20008
άζ@@ 19994
γνωστή 19988
χρονιά 19968
αδελφ@@ 19964
υπόλοι@@ 19933
τό@@ 19929
χώρ@@ 19926
W@@ 19899
Αντι@@ 19872
σχεδόν 19868
κος 19860
τούν 19846
δεκαετία 19842
αντικ@@ 19838
σταθμ@@ 19808
θεωρ@@ 19807
22 19800
Ευρωπαϊκ@@ 19731
ρό@@ 19730
ιγ@@ 19705
ροφή 19695
ταλ@@ 19693
υπήρξε 19672
Παπ@@ 19671
V@@ 19668
Ελλάδας 19649
αναπ@@ 19638
ϊ 19637
ζω@@ 19601
όλες 19591
γνωστό 19585
Κυ@@ 19578
ερν@@ 19547
έρας 19528
σχέση 19523
Ιερ@@ 19519
φρά@@ 19517
ιδιαίτερα 19508
Μέ@@ 19502
πολί@@ 19487
Κου@@ 19476
-@@ 19430
χώρες 19428
δική 19424
τεύ@@ 19416
περιοχής 19404
Έτσι 19401
λυ@@ 19395
2006 19390
Βεν@@ 19373
ταρ@@ 19370
όμενη 19344
σκι 19332
ευρ@@ 19312
πέντε 19311
επειδή 19305
κον@@ 19304
ίζουν 19297
χορ@@ 19292
K@@ 19288
ωπ@@ 19243
ώδ@@ 19236
ανατολικά 19222
χωρ@@ 19221
δρα@@ 19211
the 19192
23 19190
κατοικ@@ 19158
πολεμ@@ 19096
πορ@@ 19076
έφερε 19073
συμπ@@ 19067
ζεται 19065
οποίοι 19050
υχ@@ 19050
Αλεξ@@ 19033
διεξ@@ 19031
ήν@@ 19017
αιτ@@ 19014
δίας 18993
πολη 18979
ισε 18960
διπλ@@ 18956
Εθν@@ 18932
δεδο@@ 18913
πιστ@@ 18893
μένης 18887
φθ@@ 18868
πους 18865
περισσότερο 18845
τάν@@ 18840
20@@ 18816
επί@@ 18780
υποστη@@ 18766
υπολογ@@ 18752
Φιλ@@ 18746
θάνατο 18719
σο@@ 18693
Ερ@@ 18682
ούλιο 18675
συμμετείχε 18642
κατο@@ 18633
κόσμο 18613
κε@@ 18609
πυρ@@ 18576
στεί 18570
λύ@@ 18568
ώθηκαν 18563
ίδιος 18560
τρόπο 18557
ωθεί 18553
φέρει 18543
2019 18538
Ευρώπη 18509
ζει 18509
άρα 18505
αντ 18503
δοκ@@ 18495
παραγωγή 18488
επισ@@ 18485
γίνεται 18471
Κο@@ 18468
ίμ@@ 18465
ίνου 18421
ειακ@@ 18420
κάνει 18416
περί@@ 18408
επιχειρ@@ 18387
ειν@@ 18381
ήσεων 18379
πληθυσμό 18367
συμφ@@ 18358
πρωταθλ@@ 18315
νες 18314
κάποι@@ 18313
ψήφ@@ 18304
50 18289
ξαν 18286
αγγ@@ 18266
ραβ@@ 18264
Κλ@@ 18249
o 18238
εκείνη 18237
ησ@@ 18228
άλυ@@ 18227
a 18224
τροφ@@ 18223
ημάτων 18213
ωστόσο 18205
Λε@@ 18195
ϊκ@@ 18184
χιλι@@ 18181
αγι@@ 18140
τρου 18128
απογραφή 18103
σεν@@ 18102
Αμερικαν@@ 18078
1@@ 18064
Στα@@ 18057
ενέργ@@ 18047
ήφ@@ 18041
εσωτερ@@ 18041
ακολουθ@@ 18038
βιτς 18033
χλμ. 18022
συγκεκρι@@ 17996
τρί@@ 17993
ιση 17992
ηχ@@ 17979
πατέρα 17962
αϊκ@@ 17946
δος 17928
σωματ@@ 17928
σμού 17913
ελλ@@ 17908
2017 17903
ίζοντας 17898
χρησιμοποιείται 17885
ασχολ@@ 17865
τελευτα@@ 17865
λος 17825
28 17793
νέο 17760
επιτυχ@@ 17752
όλων 17749
2018 17733
λη 17731
άλλους 17730
αριθμ@@ 17703
μετρ@@ 17685
παράδειγμα 17684
μισ@@ 17680
ίδας 17674
θυ@@ 17671
έκταση 17653
αρκετά 17653
ανατολ@@ 17652
αγωγή 17646
ουσα 17644
γεω@@ 17636
ειών 17618
θμ@@ 17604
άτομα 17600
ανά 17600
πέθανε 17594
ημι@@ 17588
λα 17588
οικογένεια 17575
Αθηνών 17550
χιλιόμετρα 17534
Γαλλία 17527
ήχ@@ 17518
Μια 17510
ήθ@@ 17502
δρομ@@ 17479
λόγ@@ 17475
Εξ@@ 17460
2004 17451
θεωρείται 17434
1.@@ 17430
στασης 17420
άσκ@@ 17418
εκείν@@ 17413
κοπ@@ 17404
ηδ@@ 17383
ρυθμ@@ 17382
C 17375
Μεσ@@ 17374
κη 17367
Ένα 17361
βόρεια 17360
πολης 17349
σκοτ@@ 17346
νας 17327
άι@@ 17306
ιδρύθηκε 17304
Πρ@@ 17290
2000 17276
άνει 17276
αριθμός 17244
26 17231
αναγνω@@ 17231
τήρ@@ 17215
άλλο 17214
ίστηκαν 17211
Πρωτάθλημα 17203
αίν@@ 17175
ιρ@@ 17162
νότια 17156
in 17154
υπουργ@@ 17152
δυνάμεις 17151
συνδέ@@ 17150
χημ@@ 17143
ναυ@@ 17142
εταιρ@@ 17127
on 17114
Πολι@@ 17105
εικ@@ 17097
ζωής 17083
τησαν 17075
αγορ@@ 17065
πατέρας 17065
ητικά 17046
αιο 17027
θησε 17019
επιτυχία 17017
μαρ@@ 17013
μέρ@@ 16999
ειά 16996
δικό 16983
έων 16980
27 16963
οικισμός 16957
όμενα 16955
ατο@@ 16952
Μετα@@ 16950
δυο 16937
ωσαν 16931
έδρ@@ 16928
ριακ@@ 16928
βρίσκονται 16911
θύ@@ 16904
τοι 16892
ισσα 16885
έγραψε 16847
γύ@@ 16845
ίχ@@ 16838
εκλογ@@ 16836
περιλαμβάνει 16829
μ. 16823
Ω@@ 16821
εξωτερ@@ 16820
ογραφία 16820
λέγ@@ 16815
μαγ@@ 16813
μπερ@@ 16778
Άρ@@ 16760
I@@ 16758
τραγούδι 16748
ιω@@ 16740
άνουν 16716
παγ@@ 16704
παρά 16697
μέτρων 16691
διαλ@@ 16679
ύγ@@ 16670
αυτοκ@@ 16668
αυτός 16649
Δυ@@ 16642
υπουργός 16637
νικ@@ 16620
δου@@ 16585
επο@@ 16584
ήδη 16578
γνωστ@@ 16574
δέ@@ 16574
κυβερν@@ 16569
us 16565
Α.@@ 16556
2005 16551
πλήρ@@ 16548
θαλ@@ 16547
πίνα@@ 16545
αίνει 16531
βοηθ@@ 16530
πόλεις 16528
δου 16520
αναγ@@ 16519
Πά@@ 16515
ρίν@@ 16509
χώρο 16508
άλογ@@ 16462
προστ@@ 16452
προϊ@@ 16445
ιστές 16441
ψαν 16438
ράφ@@ 16435
ελληνική 16433
τακ@@ 16424
στρατηγ@@ 16418
διάστημα 16417
στόχ@@ 16406
χρυσ@@ 16399
Κομ@@ 16388
Σου@@ 16346
Πι@@ 16342
κρά@@ 16332
Αιγ@@ 16329
ώρα 16306
ίνης 16300
έγιναν 16292
Σι@@ 16255
μάν@@ 16250
μουσική 16241
τω@@ 16237
Γεννήθηκε 16219
άνο 16219
ανή@@ 16217
μήκος 16205
ξ 16201
Π.@@ 16200
βα 16198
πόλε@@ 16197
άντα 16195
εζ@@ 16190
λλα 16184
που@@ 16178
amp 16175
ποδ@@ 16174
δε 16153
λερ 16148
0.000 16147
ώνα 16147
ρίζεται 16133
τελικό 16133
αργ@@ 16119
δολοφ@@ 16109
εστ@@ 16102
τρέ@@ 16101
Συμβ@@ 16089
χαμηλ@@ 16059
σημείο 16043
μό@@ 16040
αυτού 16034
αυτών 16012
ίκος 16007
οθε@@ 16003
γνωστός 15992
θαν@@ 15986
βασιλιάς 15982
ψυχ@@ 15979
θεωρού@@ 15964
κυκλοφορ@@ 15960
όμενος 15948
ώνας 15944
λευ@@ 15933
&#124; 15932
ανάπτυξη 15932
διορ@@ 15928
ζή@@ 15928
Παλαι@@ 15927
ρισε 15917
ανέλαβε 15909
τομ@@ 15904
ετ 15898
Πρώ@@ 15894
όρο 15883
ονό@@ 15876
ύτερ@@ 15867
i 15864
δευ@@ 15857
πίσω 15836
βελ@@ 15830
ωμα 15823
κου 15820
λανδ@@ 15813
ρίες 15811
βολή 15808
τήθηκε 15807
ανά@@ 15801
κης 15796
παι@@ 15796
βιομηχαν@@ 15793
αντα@@ 15782
ιώ@@ 15782
τηγ@@ 15771
Χρ@@ 15748
2001 15726
ιπ@@ 15723
λίγ@@ 15715
λή@@ 15700
Στον 15687
επέ@@ 15687
διάσ@@ 15686
κλί@@ 15680
Διεθν@@ 15663
ρεί 15642
φων@@ 15639
x 15638
όρων 15624
Καθ@@ 15611
ότερες 15609
Αντ@@ 15606
100 15585
εύει 15572
τσα 15571
οποίων 15559
αυτόν 15557
περιόδου 15556
κάποια 15554
29 15550
τισ@@ 15548
Αυτή 15516
δέχ@@ 15516
τός 15516
σκην@@ 15513
εκατομμύρια 15509
χαρακτη@@ 15507
χα@@ 15503
φή 15502
εποχής 15469
ίτ@@ 15460
έκδοση 15433
εων 15428
κ.@@ 15410
κινηματο@@ 15396
μαλ@@ 15368
Γερμανία 15365
εντός 15357
ίος 15351
αυτής 15342
Μερ@@ 15341
δη 15320
ονία 15305
ότη@@ 15302
40 15295
είδος 15294
U@@ 15264
επίπεδο 15259
μπορούσε 15249
όπουλος 15244
ορφ@@ 15225
διάφορες 15205
ούνταν 15199
τέκ@@ 15199
Χά@@ 15188
κάτι 15186
ικα 15179
ξεκιν@@ 15177
όνομά 15177
ασίας 15157
Τουρκ@@ 15130
υνα@@ 15129
A 15120
μό 15096
πλευρά 15096
ρισ@@ 15096
er 15092
νοτι@@ 15080
Υπουργ@@ 15075
πν@@ 15059
ταχ@@ 15054
μένους 15039
επέστρεψε 15029
ολογίας 15027
πόλεμο 15024
δεύτερ@@ 15005
Δεν 15002
Νέα 14999
δικαι@@ 14998
ίσεις 14996
είδη 14981
Αυστ@@ 14966
ούρ@@ 14957
νησί 14950
κανον@@ 14949
αριθμό 14947
ελι@@ 14942
ρίων 14935
Βερ@@ 14923
δεκαετίας 14923
Έλληνας 14914
t 14892
έχοντας 14891
γαρ@@ 14891
υδρο@@ 14883
περιοδ@@ 14882
υκ@@ 14872
μεθ@@ 14871
Ιστο@@ 14865
εξής 14863
ποταμ@@ 14863
ζητ@@ 14861
εταιρεία 14857
· 14856
μητέρα 14853
έξ@@ 14845
Σύν@@ 14843
αμφ@@ 14842
σελ@@ 14837
ουργ@@ 14830
οντα 14819
τροπή 14808
Ε.@@ 14806
αναφέρει 14801
θος 14793
πραγματοποι@@ 14791
ρονομ@@ 14789
ίπ@@ 14788
πραγματ@@ 14777
Γαλλίας 14772
ίως 14768
πολέμου 14768
φίλ@@ 14767
πάρ@@ 14766
Οθωμαν@@ 14764
συμμετοχή 14763
ήριο 14761
Παγκόσμιο 14759
ισχυρ@@ 14751
άνοντας 14747
τέτο@@ 14742
είσ@@ 14741
βρισκόταν 14740
περισσότερα 14729
ηματο@@ 14728
ϋ@@ 14724
Σαρ@@ 14722
μόλις 14717
ώρ@@ 14716
ωματ@@ 14702
Συμ@@ 14701
Νε@@ 14697
Ατ@@ 14692
Μουσ@@ 14690
άζονται 14671
Μαρία 14665
ειλ@@ 14663
Μικ@@ 14651
έτη 14630
στικό 14626
χο 14622
Υπ@@ 14605
Νό@@ 14592
διέ@@ 14590
ηγε@@ 14588
βο@@ 14583
τηλεοπ@@ 14581
Άλ@@ 14578
Λευ@@ 14569
έργ@@ 14559
χαρακτηριστικά 14554
κάτοικοι 14550
Ένωση 14544
ραφ@@ 14544
άστηκαν 14528
αρχία 14524
ρίζει 14520
ονομάζεται 14518
καιρ@@ 14492
στήρ@@ 14492
πεζ@@ 14487
τηλε@@ 14474
τικοί 14458
ρακ@@ 14455
λίγο 14452
τρα@@ 14441
ισσ@@ 14437
ηφ@@ 14422
ρεση 14419
κοσμ@@ 14412
πα 14412
μαν 14395
ακριβ@@ 14377
d 14359
μνημ@@ 14358
αναπτύ@@ 14340
κατασκευή 14338
δημιουργία 14324
1990 14322
καριέρα 14321
ποτέ 14320
χλ@@ 14318
δίδ@@ 14297
Σοβιε@@ 14294
Κύπελλο 14292
μήνες 14276
μετάλλ@@ 14251
έξι 14243
ριος 14218
έι@@ 14211
o@@ 14208
διαπ@@ 14200
! 14191
βιβλίο 14191
επόμενη 14170
ερμην@@ 14169
γυ@@ 14158
τουρκ@@ 14158
κύκλ@@ 14143
μης 14142
ανήκει 14139
Κιν@@ 14136
σκοπ@@ 14121
διοργαν@@ 14106
ποί@@ 14100
ρι 14099
παρέμεινε 14098
όλους 14098
ίστ@@ 14092
άλι 14083
έν 14083
Ιταλία 14079
μοντέ@@ 14065
ανώ@@ 14060
2002 14057
άμε@@ 14052
ογράφ@@ 14052
ψεις 14052
γνω@@ 14044
σημαίνει 14040
χωριού 14037
ορού@@ 14034
δα 14032
θηση 14028
ισμα 14008
πρωτο@@ 14007
ίσματα 13999
παραδ@@ 13996
εμβ@@ 13992
ευσε 13979
ανίας 13973
ρέφ@@ 13959
συμπερι@@ 13958
ρκ@@ 13953
ευρωπαϊκ@@ 13941
βαν@@ 13939
ασι@@ 13935
ιλι@@ 13933
προβλ@@ 13932
οστ@@ 13919
δείχ@@ 13899
ιταλ@@ 13899
χής 13895
άνια 13870
έλ 13868
σύμβ@@ 13860
ισμούς 13857
οειδ@@ 13851
ήλ 13849
πρωτεύουσα 13838
αύ@@ 13836
δεκα@@ 13836
εφαλ@@ 13832
λεια 13828
αίο 13827
Κον@@ 13825
2020 13821
σημαντικό 13817
περίπτωση 13814
ίωμα 13792
περιβάλλ@@ 13791
60 13788
ασμό 13787
ατα 13786
βαθμό 13786
ανδρών 13780
πρωταγων@@ 13776
2003 13749
ανό 13747
ωμ@@ 13744
ρας 13717
περισσότερες 13715
ίκου 13712
καν 13707
όσεις 13705
ιστικό 13694
άρ 13690
έλευση 13670
ρό 13670
μεταλλ@@ 13668
Ιωάννης 13653
επίσ@@ 13651
εφημερ@@ 13644
an 13640
Νομ@@ 13637
Παλ@@ 13624
31 13601
σταθερ@@ 13597
απέ@@ 13589
οποίηση 13581
χές 13578
Ερρί@@ 13577
ιβ@@ 13573
είπ@@ 13571
... 13566
ισχυ@@ 13565
ώνοντας 13560
εως 13557
ίν 13555
άγνω@@ 13553
Ιωάννη 13552
σημεριν@@ 13546
χειρ@@ 13546
γαλλικά 13536
αρχή 13513
νησι@@ 13512
νίκη 13511
ραση 13506
πάλι 13503
άκη 13502
Ορ@@ 13496
ημένη 13491
τέρ@@ 13477
αποτελούν 13476
ώνης 13471
ρή@@ 13448
βασίλ@@ 13447
Ανδρ@@ 13446
καφ@@ 13438
οί@@ 13436
αμερικαν@@ 13429
καιν@@ 13429
ητική 13426
άχ@@ 13415
αποστολ@@ 13415
σκοπό 13414
δυνατ@@ 13411
παγκόσ@@ 13411
κορυφ@@ 13406
μουν@@ 13404
ελεύθερ@@ 13398
τρε@@ 13397
δεύ@@ 13396
1999 13389
λαμβ@@ 13375
σύλλογ@@ 13371
επαρχία 13354
νίκ@@ 13348
οποίου 13346
προηγούμεν@@ 13342
ιου 13341
ήποτε 13335
φαιν@@ 13332
καταγωγ@@ 13327
κερδ@@ 13327
ρικό 13318
Σερβ@@ 13313
τέσσερις 13312
άνοι@@ 13307
σώμα 13307
Φραν@@ 13302
ασφαλ@@ 13293
ουλίου 13293
άνα 13287
τάφ@@ 13287
πρά@@ 13283
ορ 13271
Μακ@@ 13267
άρχ@@ 13264
άνω 13263
ρούς 13263
ισμ@@ 13261
συνδυ@@ 13259
ρωσ@@ 13258
80 13248
ανι@@ 13244
γκα 13243
παίκ@@ 13243
Κέν@@ 13232
υπό@@ 13202
Κολ@@ 13190
ώσεων 13187
οδος 13183
φαίνεται 13164
ήλθε 13159
αστεί 13144
ενα@@ 13142
άζουν 13140
χαρακτηριστ@@ 13137
κλει@@ 13131
φά@@ 13121
πύ@@ 13114
τείν@@ 13114
ταινίες 13110
συγγραφ@@ 13108
δο 13088
όνο 13082
στρ@@ 13081
όριο 13078
πρόσωπ@@ 13077
βιβ@@ 13055
σημαντική 13053
ανδ@@ 13024
Βαρ@@ 13022
κερ@@ 13019
ρεύ@@ 13019
ράς 13018
ινγκ@@ 13015
κόμη 13014
αυτ@@ 12976
γελ@@ 12971
δίν@@ 12960
μικρό 12940
ανθ@@ 12936
πληθυσμού 12934
ώνων 12934
Ιταλ@@ 12932
αγγλ@@ 12930
επικεφαλής 12928
Φλ@@ 12918
ασίες 12909
δω@@ 12905
ψης 12901
ανεξάρτη@@ 12900
προπον@@ 12897
ταμ@@ 12894
δύναμη 12891
ισχύ@@ 12889
αμβ@@ 12885
g@@ 12884
n 12865
κατέκτησε 12865
Στρατ@@ 12864
αίας 12864
and 12861
θυν@@ 12859
Στέ@@ 12858
νται 12858
σπουδ@@ 12856
μοι@@ 12851
ξύ 12848
βρα@@ 12832
Τ 12820
επίσημα 12819
Πορ@@ 12812
έστ@@ 12808
αυτήν 12808
Σκ@@ 12805
και@@ 12800
έρν@@ 12795
πρόγραμμα 12794
Σ. 12793
άκι 12792
Τρ@@ 12788
χη 12788
στασ@@ 12778
ώνες 12775
ατζ@@ 12770
όνων 12766
ταση 12764
κατάφερε 12760
Τούρκ@@ 12759
Εθνικής 12755
αθλ@@ 12747
ραμ@@ 12742
ογεν@@ 12741
ποσ@@ 12739
1η 12737
σημει@@ 12724
ύλου 12715
μικ@@ 12710
Θεσσαλονίκης 12705
70 12704
μιλ@@ 12703
1997 12701
χρή@@ 12699
Γαλλ@@ 12683
θρησκευ@@ 12682
s@@ 12680
σώ@@ 12666
Έλληνες 12659
S 12657
ξανά 12643
ολόκλη@@ 12632
εκκλησία 12627
Σχ@@ 12623
δού@@ 12620
γράφει 12603
Παρίσι 12594
ώνη 12584
σύνολο 12581
εξουσία 12578
πλατ@@ 12577
πρώτες 12575
επιστημον@@ 12568
ρίστηκε 12568
έρι 12557
ισαν 12551
όρους 12537
τημα 12532
αποτελείται 12527
οικογέν@@ 12507
ποικ@@ 12504
νεκ@@ 12476
λαβαν 12475
στεν@@ 12475
γυναίκες 12474
επιστήμ@@ 12464
ασσ@@ 12461
Χαρ@@ 12452
συνολικά 12437
διάφορα 12422
I 12416
e 12416
ανδρ@@ 12415
εκατο@@ 12413
άλλοι 12411
διαφορ@@ 12406
πλα 12397
οπότε 12393
Πολέμου 12391
αντά@@ 12391
Χαλ@@ 12390
μικρή 12390
χριστιαν@@ 12390
άντ@@ 12377
ζονται 12376
μεγάλες 12361
προ 12357
Βραβ@@ 12350
έλα 12348
έπειτα 12347
ύπ@@ 12341
συνολ@@ 12334
πρωθ@@ 12326
τούς 12322
αρ 12320
Ομ@@ 12316
Σχολή 12312
κρα@@ 12303
ητικό 12298
στής 12298
λεκ@@ 12292
απέκτησε 12287
γάμο 12284
Παναγ@@ 12283
βορ@@ 12283
μην 12283
άρη 12282
μητ@@ 12281
άκης 12279
et 12264
σχέδιο 12253
θυμ@@ 12251
τραγουδι@@ 12241
Ή@@ 12237
εφαρμογ@@ 12236
ιατρ@@ 12233
παθ@@ 12217
ταυτ@@ 12214
ινε 12208
προκαλ@@ 12206
ετο@@ 12202
έρ 12197
απόσταση 12189
εντ@@ 12178
δρά@@ 12165
κό@@ 12157
άνθ@@ 12156
υδ@@ 12156
ικότητα 12153
είμενο 12151
συγκρότημα 12150
συμμετ@@ 12149
πλευ@@ 12139
επανα@@ 12132
σπίτι 12131
ing 12130
όντων 12118
μαθη@@ 12089
όνες 12066
r 12052
Αργ@@ 12042
l 12039
ίδης 12034
Βυζαντιν@@ 12031
Ομοσπον@@ 12029
παραγωγής 12026
Ναυ@@ 12024
es 12013
αυτούς 12012
άγεται 12008
τηρού@@ 11982
ασμ@@ 11981
χι@@ 11974
απαρ@@ 11968
αυτοκρα@@ 11960
J@@ 11958
ίνας 11951
διν@@ 11947
πυρο@@ 11944
όρια 11928
όμενες 11925
αγωνίστηκε 11924
τομα 11923
παραμ@@ 11918
παραγωγ@@ 11916
κτί@@ 11911
φθηκε 11903
Πρι@@ 11899
εθνική 11898
Δημοκρατίας 11896
Γιου@@ 11884
Ντέ@@ 11884
θέματα 11856
οδήγησε 11855
ούσ@@ 11851
όρε@@ 11845
γερ@@ 11844
πληθυσμός 11844
θερμοκρα@@ 11830
νο 11813
Μάρ@@ 11812
1998 11809
έφτασε 11801
βραβ@@ 11801
έρον@@ 11794
δυτικά 11792
προέρχεται 11791
χαλ@@ 11783
Νέ@@ 11781
χυ@@ 11778
ισης 11774
τορας 11774
επαγγελματ@@ 11765
στρατό 11754
εξελέγη 11741
μαζ@@ 11741
σκευ@@ 11741
πούδασε 11739
Ψ@@ 11732
1991 11725
Ακ@@ 11721
Ακαδημ@@ 11717
Λουδοβ@@ 11717
θή@@ 11710
βάλλ@@ 11709
ετία 11708
προκειμένου 11706
Ιω@@ 11701
ιδρυ@@ 11700
χών 11700
ανο@@ 11697
κοινό 11695
ουά 11691
δεκ@@ 11690
1980 11687
πτει 11681
τηκαν 11681
ΕΚ 11665
σύγκ@@ 11665
γαλλ@@ 11657
Κυβ@@ 11656
καλλιτέχ@@ 11654
παρατηρ@@ 11644
όζ@@ 11641
φυγ@@ 11632
Α. 11620
κακ@@ 11619
νυ@@ 11609
γαλ@@ 11608
ιαν@@ 11599
Δημοκρατία 11590
υπήρχε 11584
όδια 11583
ήρω@@ 11582
παιχν@@ 11580
Πόλεμο 11573
Σαλ@@ 11568
γραφία 11565
Δημο@@ 11564
ίους 11561
θανά@@ 11560
Μακεδ@@ 11558
Δήμου 11554
Δημή@@ 11553
συμβολ@@ 11553
ωγ@@ 11549
ακολούθησε 11544
ξε@@ 11542
υψόμετρο 11532
0@@ 11529
000 11524
δημοφιλ@@ 11520
στιγμή 11516
έμβ@@ 11515
ζωγράφ@@ 11511
Βασίλειο 11506
εύεται 11502
ματο@@ 11501
Σημ@@ 11499
θεν@@ 11489
τσι@@ 11489
οθέ@@ 11487
άμπ@@ 11485
ηψη 11483
μερικές 11483
ημέρα 11474
1996 11473
άξ@@ 11470
ριστο@@ 11458
φωτο@@ 11458
υποστήρι@@ 11447
Χριστιαν@@ 11444
αίου 11443
αποκ@@ 11431
εση 11429
μέσο 11427
χώρησε 11424
ίβ@@ 11420
καλλι@@ 11417
αρκετές 11402
όπουλ@@ 11402
Βουλ@@ 11399
αγγελ@@ 11385
επίθεση 11369
σημαντικά 11366
ώνυμο 11364
18@@ 11362
χθεί 11360
ινή 11337
.. 11334
p 11329
αρχι@@ 11328
ορθ@@ 11324
άνεται 11317
όνου 11308
λογοτεχν@@ 11302
άτες 11297
ταγμα 11294
ωμένη 11291
Κάρο@@ 11275
ζώ@@ 11275
Μο@@ 11269
μεί@@ 11265
λλαγ@@ 11264
απεβίωσε 11262
ηθούν 11257
ολοκληρ@@ 11241
σειράς 11237
ώμα 11235
τούσε 11234
θύν@@ 11225
άλα 11222
άρων 11217
μβανε 11217
ποδοσφαίρου 11217
δοχ@@ 11209
Αργότερα 11207
Πολλ@@ 11204
τολή 11199
τσι 11196
όδου 11192
γρ@@ 11190
Καν@@ 11189
οποί@@ 11187
σιος 11186
Ιαπ@@ 11182
συγκεντρ@@ 11174
br 11172
πηγές 11171
Τρι@@ 11170
πρωταθλήματος 11157
φάση 11156
αζόταν 11154
ρών 11152
όδο@@ 11141
λάβ@@ 11138
Πειρα@@ 11134
σημαντικ@@ 11133
λάβει 11132
σχεδ@@ 11126
βοήθεια 11117
διαστ@@ 11116
δημοκρατ@@ 11110
αφορά 11109
υποψήφ@@ 11108
κόμμα 11105
ώσουν 11104
τεία 11099
λευκ@@ 11097
γου@@ 11092
Διοικ@@ 11088
παρουσία 11081
παρόμ@@ 11077
λέξη 11074
άνης 11069
οτήτων 11063
ιχ@@ 11059
υψ@@ 11053
γίν@@ 11034
Να@@ 11026
ίνι 11025
ελέγ@@ 11025
Νικ@@ 11018
δεξι@@ 11017
Αντί@@ 11015
Κόμ@@ 11014
Μου@@ 11009
πολλούς 11009
όνι 11003
εξαιρε@@ 11002
Κρή@@ 10997
νερό 10992
όντα 10991
είμενα 10990
θέμα 10990
ίκη 10989
Ένωσης 10982
+ 10981
κυβ@@ 10964
αρχαία 10961
ώματος 10956
τροπής 10955
Νέας 10952
Χρυσ@@ 10949
1970 10947
90 10938
δυνα@@ 10937
ανέ@@ 10935
ητών 10932
π.χ. 10930
ημέρες 10926
λαβ@@ 10922
διαγων@@ 10911
ότερος 10907
ομιλ@@ 10906
δας 10889
ρν@@ 10882
μέγεθος 10878
υθ@@ 10878
σχέσεις 10877
σιαλ@@ 10876
k 10875
αγγλικά 10872
δεσμ@@ 10865
Πρωταθλ@@ 10864
ίτσ@@ 10864
στες 10837
ασαν 10836
ανασ@@ 10832
ριζ@@ 10824
μεταφέρ@@ 10823
καθαρ@@ 10818
προσω@@ 10818
σκολ@@ 10816
κράτος 10814
ρονόμ@@ 10814
χα 10801
δευτερ@@ 10800
καλοκαίρι 10799
βραβείο 10796
κυκλ@@ 10795
μύ@@ 10794
Βουλγαρ@@ 10792
περί 10789
Ι 10788
ειδή 10787
ώνουν 10781
Κεντρ@@ 10775
καταστάθηκε 10773
1992 10772
νει 10771
ταινίας 10769
πλοκ@@ 10761
άδας 10759
Δού@@ 10754
έλεγχο 10752
παντρ@@ 10751
όσφαι@@ 10735
ζουν 10734
Κατα@@ 10733
κους 10733
στρα@@ 10729
νευ@@ 10726
ριας 10725
ητο 10723
πολιτικός 10723
Εργ@@ 10717
διαδικασία 10715
συλλ@@ 10713
εκκλ@@ 10704
ναλ@@ 10704
οικογένειας 10701
εντ 10694
2021 10690
Στά@@ 10689
e@@ 10687
τοί 10685
τουν 10684
Κύπρου 10677
Σήμερα 10671
Γιάν@@ 10668
λόγο 10668
τοπο@@ 10665
1960 10664
έρια 10664
O 10662
ποδοσφαι@@ 10660
κάτο@@ 10658
H 10657
περιλαμβάνουν 10654
Πολιτείες 10644
γεγον@@ 10641
πεί@@ 10637
άσεων 10635
πρι@@ 10632
ότα 10631
άνη 10625
άει 10617
al 10616
αρχιτεκτον@@ 10609
ούδ@@ 10609
Όσ@@ 10607
αναγνώ@@ 10605
βουλ@@ 10604
τμήματα 10604
τύπου 10601
άλ 10592
τορα 10587
Κατηγορ@@ 10584
παράδοση 10582
Γερμανίας 10579
δημιουργήθηκε 10578
ετέλεσε 10575
γυναίκα 10563
ολο 10563
κατε@@ 10561
καμπ@@ 10559
επιρρο@@ 10557
Σικ@@ 10553
Εβρα@@ 10538
R 10536
Κι@@ 10536
Αι@@ 10534
δούκα 10533
οντες 10532
αριστερ@@ 10531
Κόμμα 10530
αιν@@ 10528
τρίτη 10527
τέλε@@ 10524
Γεω@@ 10519
μένως 10519
ραν 10508
Ρωμα@@ 10507
δολ@@ 10501
p@@ 10496
Ντι@@ 10496
πήγ@@ 10496
ίδων 10493
δήμο 10492
ωνική 10484
1994 10483
Αυτοκρατορίας 10482
ξεν@@ 10482
στή 10481
λευθερ@@ 10480
πρακ@@ 10472
σι 10465
ταξη 10462
έγκ@@ 10459
ηλεκτρ@@ 10457
σοβαρ@@ 10457
κλασ@@ 10456
1993 10451
αλ 10449
ιντ 10446
πρίγκιπ@@ 10446
γραμμ@@ 10444
μένει 10441
ύθηκε 10437
αξε 10430
βουλευ@@ 10428
λαμ@@ 10421
αποφασ@@ 10415
ήμη 10414
Επιπλέον 10413
Μέχρι 10409
0,@@ 10403
βρ@@ 10402
κτη@@ 10401
γή@@ 10386
πτυχ@@ 10382
ραδι@@ 10376
Ηνωμένες 10374
γιατί 10373
ματά 10365
αποκλει@@ 10358
m 10354
οσφαι@@ 10346
ασθεν@@ 10345
πλά@@ 10345
ανθρώπιν@@ 10343
θετα 10342
δόθηκε 10337
Αθη@@ 10333
Ολλανδ@@ 10333
Γαλ@@ 10331
ανθρω@@ 10329
τέσσερα 10326
Βρίσκεται 10324
αύξ@@ 10321
νέου 10319
έπρεπε 10316
ωλ@@ 10309
Κρι@@ 10306
δουλ@@ 10302
Άγ@@ 10294
δέχθηκε 10293
αναπαρ@@ 10291
ακολουθεί 10277
υπέ@@ 10272
Σουηδ@@ 10265
αθλη@@ 10262
γνωστο@@ 10256
μέρα 10256
λου 10250
L 10248
Στρα@@ 10247
τάς 10240
έστερ@@ 10238
ίσουν 10237
ουδ@@ 10234
Φρ@@ 10230
Υόρ@@ 10229
πολλοί 10227
επεισ@@ 10226
αστικά 10221
μπορού@@ 10220
δράση 10203
είωσε 10203
um 10201
βουλευτής 10201
μιο 10192
γμα 10190
έλφ@@ 10184
επίσημ@@ 10179
σί@@ 10176
συστ@@ 10176
βεν@@ 10173
πό@@ 10173
λειτουργία 10171
εκτελ@@ 10168
2.@@ 10163
ήρυ@@ 10163
1995 10149
F 10148
ΠΑ@@ 10146
ποδοσφαιριστ@@ 10141
νύ@@ 10139
κτήσει 10138
επηρε@@ 10137
κατοίκων 10136
γάμ@@ 10125
Υπο@@ 10124
Δύ@@ 10113
ετα@@ 10102
τέταρ@@ 10100
έδει@@ 10095
ς@@ 10092
υι@@ 10092
Κωνσταντ@@ 10088
άνδ@@ 10088
1989 10083
φύγ@@ 10082
βαλ@@ 10077
Αστ@@ 10073
γυναικών 10073
όνια 10072
έμεινε 10071
i@@ 10059
νομού 10059
ερχ@@ 10058
θε 10057
διευθυν@@ 10055
ίδι@@ 10053
συμμετο@@ 10053
ηλικ@@ 10048
θεσε 10041
άρχης 10037
δαν@@ 10037
υπηρέ@@ 10027
παιχνίδι 10026
βρίσκ@@ 10023
άνι 10019
ίρ@@ 10018
μπουργκ 10016
Επισ@@ 10003
βαση 10001
ψουν 9994
τυχε 9981
γι 9977
συγκέντρ@@ 9974
ώρες 9971
Ιανουάριο 9967
Σα@@ 9967
επιλογ@@ 9966
τροπ@@ 9965
Πανεπιστημίου 9963
Άλλ@@ 9949
Βασίλ@@ 9949
παντρεύτηκε 9949
διαθέ@@ 9945
πολλ@@ 9940
όκκιν@@ 9940
πάντα 9933
Μαυ@@ 9932
ειο@@ 9931
Κάρ@@ 9925
πέρασε 9921
συνέχισε 9920
1974 9914
βουν@@ 9904
Οικογένεια 9901
Γιώργ@@ 9900
° 9898
ιακή 9898
στρια 9896
λοβ@@ 9894
ορίζεται 9892
Ρώμη 9890
μαρτυ@@ 9885
ουσία 9885
οφόρ@@ 9885
σουν 9885
y@@ 9884
Μουσείο 9877
τραγούδια 9877
ήτρια 9875
συλλογ@@ 9875
υπέλλου 9874
Ηνω@@ 9871
απέναντι 9870
έτ@@ 9865
ομάδων 9857
δελ@@ 9854
λευθέρ@@ 9854
άνδρ@@ 9853
el 9852
κάποιο 9851
άριο 9846
αστερ@@ 9846
σκλη@@ 9845
Πελ@@ 9844
περιπτώσεις 9837
γραφική 9833
γρήγ@@ 9829
φι@@ 9829
ιστών 9823
τομο 9823
k@@ 9818
n@@ 9818
κη@@ 9818
ανάλογ@@ 9816
ερω@@ 9813
Υπάρχουν 9812
ζη@@ 9806
απ 9801
πορεία 9796
αστυνομ@@ 9787
Αγώνες 9785
βόρ@@ 9785
Και 9783
συγγραφέας 9781
όγκ@@ 9781
διώ@@ 9773
ματικά 9771
εργασία 9767
γκολ 9766
κόσ@@ 9757
ευγεν@@ 9754
ίνων 9749
T 9746
κυβέρνησης 9744
αμέσως 9737
χρονολογ@@ 9735
Νικολ@@ 9729
διατηρ@@ 9729
ουντ 9728
κέν@@ 9727
άνδρες 9722
έπει 9719
ποταμού 9717
ριά 9715
ξέν@@ 9711
ρικής 9711
υβ@@ 9710
ανάγκ@@ 9708
χαρακτήρ@@ 9708
αισ@@ 9705
άρθ@@ 9702
νεαρ@@ 9700
εκκλη@@ 9699
Ακολ@@ 9696
Αδ@@ 9692
Ευρώπης 9678
κατάλ@@ 9674
γε@@ 9673
ίλι@@ 9668
500 9667
λιος 9666
Ρωσία 9664
3.@@ 9660
ιστής 9659
Ρωμαϊκ@@ 9656
μετέ@@ 9649
ίοι 9648
αρχος 9648
αφήν@@ 9648
έκα 9640
γυνα@@ 9639
όργαν@@ 9629
ριακή 9628
ύπαρ@@ 9626
ινγκ 9623
Ένας 9621
πνευ@@ 9620
καθεστ@@ 9617
περιλαμβ@@ 9615
c 9608
άσης 9607
οκομ@@ 9605
Γεώργιος 9603
γραμμή 9603
Ποδ@@ 9600
εκπομπ@@ 9599
φαρ@@ 9599
περιέχει 9597
ονίας 9593
αποφάσισε 9588
εμφάνιση 9586
Μητ@@ 9585
απώ@@ 9577
Οκτώβριο 9576
άθ@@ 9564
δήμου 9563
αγρο@@ 9562
ροπ@@ 9561
σαρ@@ 9552
ταξι@@ 9543
όκει@@ 9541
Οικονομ@@ 9540
πληρ@@ 9531
άου@@ 9519
ήνη 9518
τουλάχιστον 9508
Ελλάδος 9507
Σεπτέμβριο 9507
ικο 9497
1,@@ 9492
ημένο 9492
κάστρο 9490
ανατ@@ 9488
Λού@@ 9486
επιχείρ@@ 9484
μετά@@ 9479
ειακή 9478
μάλιστα 9477
is 9475
θέν@@ 9475
οίκ@@ 9474
άπο@@ 9472
ότα@@ 9467
ανν@@ 9465
ώνονται 9457
άνθρω@@ 9456
θερ@@ 9454
ούτε 9454
Αγίας 9453
έλος 9449
αλλαγή 9446
ιδιοκ@@ 9445
Πρό@@ 9444
μέρη 9443
καλλιτεχν@@ 9442
προηγ@@ 9441
ποσοστό 9440
ώνυμ@@ 9436
Πανα@@ 9435
χεί@@ 9434
Ιούνιο 9431
θεατρ@@ 9426
όρου 9426
χρει@@ 9425
προβλήματα 9418
είχ@@ 9416
ατών 9411
Εθνικό 9409
θει 9405
m@@ 9402
Πρόεδρος 9396
Άγιος 9392
ητήρ@@ 9392
h@@ 9388
ασης 9386
παραλ@@ 9384
ηθοποιός 9381
Αλβαν@@ 9378
σερ@@ 9377
όλοι 9376
δήμ@@ 9371
αποκαλ@@ 9368
ύψος 9367
D 9365
τιμή 9365
τάσεις 9361
ίδη 9360
κάλεσε 9358
εβδ@@ 9357
συλλογή 9354
υποχρ@@ 9354
σκηνοθέ@@ 9347
Εκεί 9346
εμφανίζεται 9346
ακόλου@@ 9338
έντο@@ 9337
έτους 9336
Ουκραν@@ 9329
ταγων@@ 9329
Βόρ@@ 9321
μορ@@ 9321
μαθηματ@@ 9308
ηλι@@ 9307
ημο 9307
σκηνοθε@@ 9302
βρεταν@@ 9300
προσώπ@@ 9293
τεν@@ 9293
μ.Χ. 9291
χου 9289
αρχηγ@@ 9288
πεν@@ 9288
εω@@ 9286
άτι 9285
ιστή 9285
αυλ@@ 9284
συνθήκες 9283
Λέ@@ 9281
στές 9280
αίτη@@ 9277
όσια 9275
κει@@ 9274
καρ 9272
λεί 9270
φυλακ@@ 9268
Ρου@@ 9267
επιτρ@@ 9261
ωμένο 9261
άλυση 9256
B 9248
εύγ@@ 9242
σχεδιασ@@ 9234
αναφορ@@ 9233
κί@@ 9230
τοπική 9225
οιν@@ 9223
μην@@ 9218
τραγ@@ 9218
συνεργασία 9217
Σχολ@@ 9213
γράφου 9212
τραυματ@@ 9209
Θέ@@ 9207
Μπαρ@@ 9206
Μάιο 9205
θερμ@@ 9204
Μελ@@ 9203
άδων 9199
νοσ@@ 9197
συνθέ@@ 9191
χρησιμοποιούνται 9191
μέθ@@ 9188
τζ 9187
Κάτω 9185
ιον@@ 9185
d@@ 9183
ερευν@@ 9183
γράμ@@ 9181
όχρονα 9180
συγκεκριμένα 9179
ντε@@ 9177
καλαθ@@ 9173
τρια 9171
1940 9169
γ 9169
t@@ 9164
εφ 9164
εξ 9157
θήκ@@ 9157
τελευταίο 9155
αλληλ@@ 9153
σιμο 9148
ματικό 9144
Όλ@@ 9140
ικ 9138
γματα 9136
απορ@@ 9135
κίνηση 9132
χωρι@@ 9132
μέσ@@ 9129
ελληνικό 9128
θεωρία 9126
Μάρτιο 9124
διών 9124
c@@ 9121
τουργ@@ 9121
έσει 9120
απαι@@ 9119
αιχ@@ 9117
ότε 9114
Ηρακλ@@ 9113
π. 9110
αποικ@@ 9108
διευ@@ 9107
αντιμετωπ@@ 9106
Πατρι@@ 9105
κύρια 9105
γαλλική 9104
οφ 9104
στήριο 9102
γράμματα 9101
όπιν 9101
επεξ@@ 9096
ισμένη 9096
εύματα 9093
λεύ@@ 9084
δεχ@@ 9083
δυναμ@@ 9082
Ιούλιο 9080
στ 9077
ακολού@@ 9076
ιδιω@@ 9076
h 9070
πηγ@@ 9063
συχν@@ 9059
Υπήρ@@ 9057
υπήρχαν 9057
πράγ@@ 9054
ίδι 9052
διαι@@ 9049
ρικ@@ 9045
ατιν@@ 9043
διάδοχ@@ 9043
νομό 9036
λει 9034
35 9030
μέση 9010
όδους 9009
έρχεται 9003
ποι 8998
λατιν@@ 8997
Κοινοβ@@ 8996
ογραφικά 8994
παρουσί@@ 8992
λίμ@@ 8989
συγκροτήματος 8988
έπαιξε 8986
ρασε 8984
Εταιρ@@ 8983
Τεχν@@ 8982
Καλλ@@ 8979
δείχθηκε 8973
χαρακτήρα 8968
Αύγουστο 8967
Γεωργ@@ 8956
άσσ@@ 8956
πραγματοποιήθηκε 8953
τύπ@@ 8953
βάλ@@ 8952
τογαλ@@ 8950
ιδρύ@@ 8948
βυζαντιν@@ 8945
Βο@@ 8941
Γερ@@ 8941
ελευθερ@@ 8941
επίσημη 8941
προσπάθεια 8939
ανακαλύ@@ 8934
ia 8926
κύριο 8921
τίτ@@ 8921
προσπάθ@@ 8917
Οίκο 8916
στερα 8914
βρέθηκε 8911
οποίας 8908
Αγγλίας 8905
εστιβάλ 8904
ρικά 8904
Ασ@@ 8901
a@@ 8898
ναός 8896
πλού@@ 8893
τρό@@ 8887
ιμα 8886
Δήμος 8884
ατική 8884
ελά@@ 8884
Παγκοσμίου 8882
έκα@@ 8882
κορυφή 8881
διοίκηση 8877
ανού 8876
ουλευ@@ 8875
Αμερική 8871
ιμο 8871
Επανά@@ 8870
παράλληλα 8870
ρες 8868
Αμ@@ 8858
μπά@@ 8855
άνονται 8854
Κωνσταντινούπολη 8853
19@@ 8851
σχετί@@ 8851
σιμ@@ 8847
τει 8847
θους 8841
Κώ@@ 8840
κατηγορίας 8827
μακρ@@ 8827
μελε@@ 8827
επτά 8823
απόλυ@@ 8818
γενικά 8818
βιβλιο@@ 8816
πωλ@@ 8813
νοια 8806
ικότερα 8804
δίκτυ@@ 8800
αντίθεση 8799
λους 8798
ατόμ@@ 8795
γειτον@@ 8795
ισμοί 8794
επανά@@ 8791
Z@@ 8787
ασκευ@@ 8785
Φερ@@ 8781
κυν@@ 8770
ωνο 8769
επεκ@@ 8764
Μαλ@@ 8762
ταρα@@ 8760
Τρί@@ 8757
αλλαγές 8744
κράτους 8744
δημό@@ 8743
ολογική 8739
έδαφος 8735
νου 8731
εργάστηκε 8730
αρχαί@@ 8726
αμ 8723
διά 8723
Ρωσ@@ 8721
Βόρεια 8720
επόμενο 8719
περισσότερ@@ 8717
υπέγραψε 8714
Δεκέμβριο 8711
άρχη 8709
Μπι@@ 8707
200 8706
έβαλε 8706
ίσως 8704
Φραγκ@@ 8699
κεφ@@ 8696
ορειν@@ 8696
προσπά@@ 8695
ισμένο 8694
Τζον 8693
θεσης 8692
32 8690
λιγ@@ 8684
οια 8683
τέχ@@ 8682
όλλ@@ 8681
Αυτοκρά@@ 8674
Κέρ@@ 8674
μικρο@@ 8673
ιδιαίτερ@@ 8671
πολέμ@@ 8669
Παγκόσ@@ 8668
ρωμαϊκ@@ 8668
g 8662
to 8661
επικρά@@ 8645
Αυτοκρατορία 8639
αποτελέσματα 8639
μέτρ@@ 8636
ειδικά 8632
βρά@@ 8631
υποστήριξη 8631
έφυγ@@ 8629
Εκκλησία 8626
διοδρομία 8624
Σοφ@@ 8622
διοργάνωση 8621
τίμ@@ 8618
φιλοσοφ@@ 8618
Πολιτ@@ 8615
φλ@@ 8614
παραδοσιακ@@ 8613
ήμα 8612
1981 8610
άνου 8610
άνιο 8605
ισπαν@@ 8600
χτ@@ 8600
Αγία 8598
έρευνα 8591
πετ@@ 8591
έργου 8588
αντίστοιχα 8588
μελέτη 8586
Πρά@@ 8580
.000 8579
Γουλιέλ@@ 8579
ψηλ@@ 8578
άνθρωποι 8575
άλη 8572
σπουδές 8569
λαϊκ@@ 8566
Νοέμβριο 8564
στρατού 8560
συμμαχ@@ 8560
γρα@@ 8555
Γρηγ@@ 8554
μπροστ@@ 8553
αναφερ@@ 8545
Τζέ@@ 8535
έγερση 8535
φρα@@ 8535
Φρειδερ@@ 8534
Πολωνίας 8532
ολοκλήρω@@ 8530
εδάφη 8529
εδρο 8527
καθολ@@ 8526
ιμη 8517
Καστ@@ 8509
θηναϊκ@@ 8505
1950 8498
πού@@ 8498
αναγκ@@ 8494
Σερ@@ 8493
λλο 8489
γυμ@@ 8488
ένωση 8484
ορισμένες 8483
συμμετείχαν 8483
περιστ@@ 8482
ανεξαρτη@@ 8479
ρια 8476
Π 8473
παρακάτω 8469
σχέ@@ 8469
συστήματος 8468
ίκο 8461
ευρύτερ@@ 8459
επαφ@@ 8455
Όπως 8453
Κερ@@ 8446
θρόνο 8444
Μαν@@ 8443
βα@@ 8442
σημαν@@ 8440
Αγγλία 8437
Βρα@@ 8436
τώρα 8436
φοι@@ 8436
θου@@ 8435
σ 8435
ίνος 8434
Πα@@ 8431
ερσ@@ 8429
αρντ 8428
Μιλ@@ 8427
άμεων 8424
ελί@@ 8421
στών 8421
ουσίας 8419
φρ@@ 8419
Απρίλιο 8413
άστ@@ 8409
Ρε@@ 8408
επαρχ@@ 8403
νηση 8398
Εκτός 8396
κόρης 8394
τέχνης 8393
οποίους 8392
P 8391
Ηλ@@ 8388
Φυσ@@ 8388
σύνθεση 8388
γλώσσες 8385
προσαρ@@ 8385
Καζ@@ 8384
οργάν@@ 8384
ταχύτη@@ 8381
αδελφός 8380
ογράφος 8380
επικοιν@@ 8379
φασ@@ 8379
βορει@@ 8374
παρχ@@ 8374
M 8371
αξιωματ@@ 8364
συμμε@@ 8364
Μιχαήλ 8363
αισθη@@ 8361
τελική 8361
πολιορκ@@ 8359
αφιερ@@ 8354
αζε 8348
περν@@ 8347
Αμπ@@ 8345
ορα 8344
ώδη 8343
βη@@ 8342
απεικον@@ 8341
εμφανίστηκε 8341
τικότητα 8338
διαθέτει 8329
Παρά 8326
αποτελεσ@@ 8326
πληροφορίες 8326
δήλωσε 8322
ομοσπον@@ 8318
Ουγγαρ@@ 8315
ευγ@@ 8311
βιβλία 8309
εκδό@@ 8306
παρατ@@ 8306
λέχ@@ 8296
έμπ@@ 8295
Αλέξανδ@@ 8291
Δικα@@ 8290
Προσ@@ 8289
θεω@@ 8288
Πολων@@ 8283
πόν@@ 8282
μετονομ@@ 8281
ονες 8279
Λόγ@@ 8278
ανθρώπους 8273
Αερ@@ 8269
ηθοποι@@ 8269
ατμ@@ 8265
τραγου@@ 8265
ανατολική 8263
αρμ@@ 8263
κέρ@@ 8263
κν@@ 8262
θν@@ 8253
κλι@@ 8249
Λιγκ 8246
αντίστοιχ@@ 8244
Ελλήνων 8239
έρευ@@ 8236
ρίσ@@ 8236
λόγους 8234
ανός 8229
εντά@@ 8223
λιγότερο 8221
λαμβάνει 8214
Μόσ@@ 8213
ονα 8204
εξαιτίας 8201
ΐας 8197
επαρχίας 8197
νησ@@ 8190
περίοδος 8189
προστατ@@ 8187
Σο@@ 8186
u 8184
δημοσί@@ 8178
en 8176
μέρες 8175
Τη 8166
j@@ 8164
σχολείο 8163
κόσμου 8154
ορισμό 8151
ίδιου 8149
ίκης 8143
Φω@@ 8138
Σά@@ 8137
δήμος 8137
ρίδα 8128
δράσεις 8125
έξω 8123
τισμού 8123
Σταυ@@ 8115
χά@@ 8115
Έν@@ 8112
εργασίας 8111
οικονομική 8109
μουσικής 8103
Δήμο 8102
συμφωνία 8101
ηλεκτρον@@ 8099
1945 8098
φος 8095
επιφάνεια 8088
οικοδ@@ 8087
ρεκόρ 8081
άλλος 8080
αντιπροσωπ@@ 8077
1985 8076
E 8067
μεγ@@ 8066
αστική 8065
σημερινή 8064
πραγματοποί@@ 8062
1944 8061
δά@@ 8060
μελέ@@ 8058
τημ@@ 8058
ομοι@@ 8053
διαν@@ 8047
συμβόλ@@ 8047
Είχε 8044
διεκδ@@ 8040
στιτού@@ 8038
φέρεται 8030
b@@ 8029
Κρο@@ 8025
αδερ@@ 8022
ζωνταν@@ 8015
στευ@@ 8011
δάσ@@ 8008
ήθελ@@ 8006
υπεύθυν@@ 8006
άρχισαν 8004
ίνες 8004
περιφέρεια 8004
Λίγ@@ 7999
Μπου@@ 7998
ανακοιν@@ 7996
όπος 7996
πλειοψηφ@@ 7994
εκπαιδευ@@ 7993
οφεί@@ 7992
ακ 7991
ελλήν@@ 7990
Αθή@@ 7989
ρές 7985
πολύ@@ 7982
νησιού 7981
Φι@@ 7977
Φίλιπ@@ 7975
χρησιμοποιήθηκε 7973
γραφές 7972
όνη 7970
ιες 7968
απόφαση 7966
ανία 7964
τρίτο 7962
δίνει 7961
μάζ@@ 7960
διοικητική 7957
ήττα 7951
ελάχ@@ 7951
εντάχθηκε 7951
αντί 7950
ιοι 7950
Al@@ 7949
δημιούργησε 7949
δελφ@@ 7948
Εξωτερ@@ 7944
ύχ@@ 7944
νήσ@@ 7943
κρυ@@ 7942
σβ@@ 7942
Σέρ@@ 7941
οδυτικά 7940
ότυπο 7940
μίας 7937
θο 7934
ήτη 7920
Ορθ@@ 7919
αποτέλεσε 7919
κάποιες 7919
στολ@@ 7916
παλι@@ 7914
τερα 7914
αρχηγός 7913
στηκαν 7907
ρή 7905
σου@@ 7899
1988 7894
υπέρ 7890
διατήρ@@ 7887
Βορ@@ 7883
γλωσσ@@ 7878
εκπαίδευση 7878
περιοδικό 7877
Σί@@ 7875
αντίπαλ@@ 7875
αναφέρονται 7871
όλος 7871
ήτης 7870
χρησιμοποί@@ 7865
v@@ 7864
1986 7863
συμπεριλαμβανο@@ 7863
Πολωνία 7862
αγόρ@@ 7861
75 7857
στρο 7856
ψευ@@ 7856
ικώς 7855
τροχ@@ 7853
πηγή 7849
in@@ 7841
συνέπ@@ 7840
ιλία 7839
τίτλος 7837
θέατρο 7835
ιθ@@ 7834
μεγάλα 7833
Νορβηγ@@ 7822
έργων 7822
ττα@@ 7822
αρχική 7819
ιζόταν 7818
βιβλ@@ 7816
συζύγ@@ 7815
μμ@@ 7814
Τελικά 7808
ντεμπούτο 7807
ιακό 7803
ζαν 7802
πρωτ@@ 7801
κατηγορίες 7798
καθηγητής 7797
σή@@ 7797
οίτησε 7796
ολογικό 7795
Καναδ@@ 7788
αζί 7788
πρόσφ@@ 7788
ινο 7786
περιφερ@@ 7783
κεν@@ 7778
αγορά 7774
ίδρυση 7768
υλικό 7768
19ου 7761
Κό@@ 7761
Αρμεν@@ 7760
Νορ@@ 7758
δό@@ 7755
πολλών 7755
Όμως 7754
κατέλαβε 7754
κόμματος 7753
τέθηκε 7753
άμεσα 7750
ιου@@ 7749
αγκ@@ 7746
μπλ@@ 7744
όπλ@@ 7742
ελληνικής 7737
ολο@@ 7732
αναφέρ@@ 7730
εορ@@ 7729
11@@ 7728
άου 7724
αίθ@@ 7719
μάτισε 7719
Ρωσίας 7717
αλή@@ 7717
θεται 7717
όπεδ@@ 7716
διαβ@@ 7715
κωμ@@ 7713
Μακεδονίας 7712
ξεχωριστ@@ 7712
Πο@@ 7709
4.@@ 7708
βρε@@ 7708
γράψει 7708
Πε@@ 7702
ειξη 7702
1987 7701
Ιταλίας 7700
Στ@@ 7700
παραπάνω 7698
εδρ@@ 7692
λιο@@ 7688
γραμματ@@ 7687
χωριά 7685
ίτες 7682
σύνορα 7676
μετέπειτα 7674
πλαίσιο 7670
ιας 7666
ομίλ@@ 7665
εύουν 7664
λογία 7664
ότητά 7663
ορίστηκε 7661
τίες 7657
θρησκ@@ 7656
Βου@@ 7655
προσκ@@ 7654
2,@@ 7652
at 7652
γεωργ@@ 7652
θεώρ@@ 7647
θάνατό 7645
υποψηφ@@ 7642
αναφορά 7641
Συγκ@@ 7636
μβούργ@@ 7635
Βασιλι@@ 7631
επιβεβ@@ 7630
κομμάτι 7625
ενδιαφέρον 7623
τήσει 7622
ρέψει 7621
νεο@@ 7616
στό 7616
ιστικής 7614
ωνικά 7614
θεραπεία 7608
κόλ@@ 7604
Παι@@ 7603
στρατιώτες 7603
αυτοκράτορα 7602
ηκαν 7602
Τέ@@ 7600
λιμάν@@ 7598
Αυστραλ@@ 7592
ανακοίνωσε 7592
σχέδια 7591
κατάλληλ@@ 7588
φτ@@ 7585
Χ 7582
συλλόγου 7582
ρίζουν 7579
δύνα@@ 7576
κοπος 7572
σημαντικές 7571
ασθέν@@ 7570
προεδρ@@ 7570
ηρε@@ 7569
τηθεί 7569
έχασε 7568
πόντους 7567
Ματ@@ 7565
άσουν 7565
Δημοκρατ@@ 7555
στικής 7553
ζήτησε 7551
ταφ@@ 7548
45 7541
δεικνύ@@ 7539
1920 7537
Λονδίνο 7536
ήρθε 7532
φιλοξεν@@ 7532
V 7531
Γεωργίου 7528
ίδρυσε 7522
Θεσσαλονίκη 7521
σιδηρο@@ 7521
ταξε 7513
πλοία 7507
άλλον 7506
οργάνωση 7506
1975 7504
αεροσκ@@ 7503
Δια@@ 7502
ρακα 7499
επίδραση 7497
οκτώ 7497
κοινότητας 7496
Ειρ@@ 7495
περισσότεροι 7495
1984 7494
ευρέ@@ 7494
ήγαγ@@ 7485
Εκκλη@@ 7483
οργάνωσης 7482
δης 7479
δυνατότητα 7478
ιστούν 7476
1982 7474
έστειλε 7474
Ιδρ@@ 7468
αντιμετώπι@@ 7464
Κωνσταντίνος 7463
Νικόλα@@ 7462
λόφ@@ 7462
ναό 7459
ρευ@@ 7454
εικον@@ 7453
Καλλικράτης 7450
ιστάν 7448
τοτε 7444
la 7443
Ενώ 7443
Παράλληλα 7443
γεννη@@ 7442
έρχονται 7441
κλάδ@@ 7441
Λα@@ 7436
Στρ@@ 7436
οκρατ@@ 7436
Ντά@@ 7430
γκοσλαβ@@ 7429
παιδί 7429
εκστρατεία 7426
κοιλ@@ 7424
οσφαίρισης 7422
θάλασσα 7421
Φεβρουάριο 7417
έναρ@@ 7417
όμα 7416
έλευ@@ 7413
Ηνωμένων 7409
Αζ@@ 7408
τομέα 7406
Ρουμαν@@ 7400
Σαν 7400
νερού 7400
συρ@@ 7400
δρα 7398
περιφέρ@@ 7398
αιτέρ@@ 7397
Ευρω@@ 7395
Ch@@ 7393
είνει 7388
Αμερ@@ 7387
κοινοβ@@ 7384
Αθλ@@ 7382
Ελληνική 7382
l@@ 7381
μού 7381
τοιχ@@ 7381
εξέλιξη 7379
σχήμα 7375
εντοπ@@ 7374
κες 7371
τησης 7369
Αρχικά 7367
ήνης 7367
έτα 7366
οδρόμ@@ 7359
Αγγλ@@ 7358
Ντα@@ 7356
δεια 7353
οντ@@ 7353
τερο 7349
Μέγ@@ 7348
δέν@@ 7346
ακαδημ@@ 7345
δών 7340
πληθυσμ@@ 7338
1979 7334
πραγματικότητα 7329
δώσει 7326
βέρ@@ 7324
συμπεριλαμβανομένων 7323
παίρν@@ 7314
άζοντας 7313
προγραμματ@@ 7311
αρχίας 7301
1967 7299
άδια 7295
βαθ@@ 7293
ar 7285
διεξήχθη 7285
w@@ 7283
στημα 7279
Μάν@@ 7272
Τμή@@ 7261
ελληνικά 7260
μπου@@ 7248
τεν 7245
Πατ@@ 7244
Πύ@@ 7233
εινε 7232
1941 7230
N 7229
σου 7229
1912 7224
ίτη 7222
Σω@@ 7211
έφερ@@ 7206
μπι 7189
θω@@ 7187
επίπεδ@@ 7185
ενδιαφ@@ 7178
25@@ 7165
” 7162
x@@ 7157
ήτ@@ 7134
on@@ 7111
G 7108
τισε 7096
θελ@@ 7090
z@@ 7088
ταυ@@ 7075
X@@ 7067
έναντι 7064
ότυπ@@ 7057
“ 7055
1978 7048
ήχθη 7036
στηρι@@ 7035
1983 7034
οδήγ@@ 7016
ch@@ 7003
καταστά@@ 6992
1973 6989
ην 6979
Ύ@@ 6976
Y@@ 6954
Οικ@@ 6953
r@@ 6944
1976 6937
f@@ 6928
X 6922
1930 6916
33 6913
36 6911
ξεκίν@@ 6896
στε 6893
νήθηκε 6892
είν@@ 6884
1977 6871
νών 6867
1971 6852
μενα 6833
λεύθερ@@ 6828
οδυ@@ 6826
55 6789
θεια 6778
al@@ 6777
1972 6771
1968 6767
en@@ 6756
1964 6731
όρ 6726
Ρω@@ 6725
αυτοκρά@@ 6713
βρέ@@ 6712
37 6707
πειτα 6704
Νο@@ 6696
οφορ@@ 6692
εκρι@@ 6682
εντρ@@ 6682
65 6668
1961 6654
Έχ@@ 6648
θεραπ@@ 6645
34 6637
1939 6610
θανε 6605
δ 6603
βιε@@ 6601
an@@ 6592
κόρ@@ 6586
εμφ@@ 6584
30@@ 6575
εξέ@@ 6573
ερι@@ 6571
ar@@ 6566
αίρισης 6562
αίσ@@ 6554
85 6547
ίδραση 6544
γλώσ@@ 6540
38 6538
1821 6537
CH@@ 6526
1963 6515
ότια 6514
ούργ@@ 6512
τεκ@@ 6511
παρακ@@ 6478
In@@ 6475
μεγαλ@@ 6468
γραμμα 6466
ίδρυ@@ 6457
b 6454
ολοκλη@@ 6446
παιδ@@ 6446
el@@ 6439
# 6415
or 6409
U 6397
οση 6390
ανθρώπ@@ 6378
00@@ 6373
1943 6341
θλ@@ 6341
έλεγ@@ 6339
1969 6334
διαί@@ 6328
σειρ@@ 6326
1946 6311
παραδο@@ 6295
καρι@@ 6275
6.@@ 6256
To 6239
εύθυν@@ 6231
42 6224
έρνηση 6202
39 6192
έπαι@@ 6154
αιρε@@ 6125
th@@ 6122
ηρέ@@ 6115
64 6113
1965 6112
er@@ 6111
48 6073
σει@@ 6066
Πόλε@@ 6065
φάν@@ 6064
ed 6053
συνέχ@@ 6049
or@@ 6034
24@@ 6033
αρκε@@ 6028
1918 6018
z 6011
ερευ@@ 6008
Ιωάν@@ 6003
08 5999
300 5999
καθηγ@@ 5998
όλε@@ 5992
Λ 5988
οργ@@ 5980
ανάπτυ@@ 5972
1966 5971
άφη 5963
καθε@@ 5960
ic@@ 5959
άλασ@@ 5945
λις 5944
Μ 5915
83 5911
ισχ@@ 5903
συνήθ@@ 5895
at@@ 5888
Του@@ 5887
Βασ@@ 5873
οσφ@@ 5869
Ν 5868
ύψ@@ 5865
ωβ@@ 5853
1928 5841
47 5825
88 5799
95 5794
52 5770
1947 5764
W 5762
Tr@@ 5754
72 5753
ag@@ 5753
ησιμ@@ 5750
Re@@ 5745
ργαν@@ 5721
ine 5719
53 5717
δήλ@@ 5706
μβαν@@ 5700
σιακ@@ 5689
54 5684
ie 5679
04 5675
71 5670
Τε@@ 5667
διάφορ@@ 5667
νερ@@ 5665
44 5649
1948 5641
1958 5639
es@@ 5635
αρτη@@ 5629
41 5612
βοή@@ 5612
1962 5609
Λονδίν@@ 5599
1956 5598
st@@ 5592
f 5582
λεξ@@ 5576
86 5555
Mar@@ 5555
εκεί@@ 5555
κομμά@@ 5552
66 5550
ac@@ 5547
στήρι@@ 5544
άλληλ@@ 5541
28@@ 5531
λλογ@@ 5521
κυρί@@ 5520
ers 5512
απέκ@@ 5510
ηλεκτ@@ 5507
3,@@ 5496
σες 5496
as 5487
56 5483
Τελ@@ 5482
κατηγορ@@ 5481
78 5469
τορίας 5465
Ar@@ 5459
61 5452
58 5448
ad@@ 5446
is@@ 5442
διαδικα@@ 5442
le 5432
68 5426
43 5424
51 5424
1919 5415
Μεγ@@ 5414
θρω@@ 5410
ροφορ@@ 5401
w 5397
ρίς 5397
62 5385
et@@ 5382
Ρώ@@ 5371
ul@@ 5369
84 5360
1955 5359
7.@@ 5348
ation 5346
5.@@ 5333
σπί@@ 5329
1959 5327
07 5315
76 5310
οτεχν@@ 5288
De@@ 5284
θωμαν@@ 5281
82 5280
1942 5275
άτων 5273
— 5265
87 5252
67 5248
πραγ@@ 5245
46 5240
Δήμ@@ 5235
πλαίσ@@ 5223
59 5220
74 5206
Con@@ 5206
as@@ 5203
ref 5203
77 5201
ταιν@@ 5200
1951 5199
ανήκ@@ 5197
θάλασ@@ 5179
1922 5176
81 5175
1936 5155
u@@ 5147
εστι@@ 5142
τηρ@@ 5141
Ολυμπ@@ 5139
ph@@ 5128
St@@ 5127
επιβ@@ 5126
1949 5117
69 5117
τμή@@ 5109
μαθ@@ 5099
63 5098
επιστήμιο 5088
ρισης 5084
ol@@ 5082
8.@@ 5073
ώνυ@@ 5071
μπού@@ 5067
φαλ@@ 5067
57 5062
1957 5061
Br@@ 5046
K 5045
am 5041
1938 5033
διάδ@@ 5019
05 5017
τοποί@@ 5006
99 5003
1952 4991
ατρο 4975
πληροφορ@@ 4971
ανθρώ@@ 4967
1924 4962
εβίωσε 4948
re@@ 4947
49 4943
os 4943
ακολου@@ 4940
Ζ 4932
άσι@@ 4926
am@@ 4924
εκστρατ@@ 4923
1927 4915
ot@@ 4915
92 4912
09 4903
79 4896
400 4873
it@@ 4860
di 4853
01 4848
µ@@ 4845
1953 4827
Sh@@ 4817
1929 4794
1954 4789
An@@ 4788
πόλ@@ 4788
26@@ 4779
73 4763
96 4760
όνομ@@ 4758
06 4755
τίου 4754
1935 4753
03 4740
θάνα@@ 4732
σοβ@@ 4726
συλλόγ@@ 4725
επε 4724
φερε 4717
5,@@ 4715
επιστη@@ 4704
τορία 4698
02 4689
καταγ@@ 4684
χολ@@ 4660
97 4657
ti@@ 4655
tr@@ 4653
δοση 4649
1926 4607
Th@@ 4607
ορκ@@ 4597
άνα@@ 4593
τονομ@@ 4582
98 4577
Κωνσταντινού@@ 4568
υπήρ@@ 4567
le@@ 4563
93 4562
Υπάρχ@@ 4554
www.@@ 4544
1933 4518
έφτα@@ 4517
89 4511
man 4502
γρά@@ 4495
29@@ 4492
1934 4478
πλέ@@ 4475
-- 4472
όπο@@ 4471
ic 4468
om@@ 4459
ρεψε 4457
1937 4455
π.@@ 4455
Car@@ 4450
6,@@ 4446
lo@@ 4440
0.@@ 4439
94 4435
4,@@ 4420
1923 4419
εκπαίδευ@@ 4408
Θεσσαλ@@ 4393
ερα 4391
1932 4389
αρίου 4385
ριβ@@ 4383
ab@@ 4375
https 4375
πρωτεύ@@ 4366
υζ@@ 4361
στιγ@@ 4358
χαρακ@@ 4342
συμπεριλαμβ@@ 4341
da 4340
Co@@ 4337
Μιχ@@ 4331
‘ 4331
ard 4306
1917 4304
os@@ 4303
son 4292
σύγ@@ 4290
Υ 4287
im@@ 4285
1925 4283
li@@ 4272
λιστα 4231
00 4221
der 4216
ϋ 4216
πελλο 4215
Γεώργ@@ 4208
ανου@@ 4199
91 4194
διοίκ@@ 4193
us@@ 4190
1914 4162
περιοχ@@ 4148
τω 4144
ἐ@@ 4128
8,@@ 4126
il@@ 4118
Com@@ 4113
εμφάν@@ 4103
Eurovision 4096
Gr@@ 4084
αλλαγ@@ 4074
La 4072
ate 4061
id@@ 4058
πληθ@@ 4047
it 4044
Bo@@ 4037
em@@ 4027
απεικ@@ 4027
Αυγ@@ 4012
New 4005
9,@@ 4002
av@@ 3995
ήν 3980
1913 3978
1931 3978
χε 3978
Θ 3971
κραν@@ 3968
καλοκα@@ 3965
νησης 3954
ur@@ 3945
CO@@ 3942
ed@@ 3940
κυκλοφόρ@@ 3938
μενο 3927
Επίσ@@ 3926
ηχαν@@ 3926
ik@@ 3925
9.@@ 3921
γει@@ 3914
one 3911
27@@ 3888
age 3883
γά@@ 3883
ζυγ@@ 3876
te 3874
Παγ@@ 3873
γραψε 3865
θήκες 3859
ορά 3857
Be@@ 3855
άρτη@@ 3847
ήτων 3842
II 3825
Ευρ@@ 3819
1900 3818
ὶ 3801
ens 3799
όπο 3790
oc@@ 3776
επιφάν@@ 3769
οκα@@ 3769
ta 3754
ch 3752
εριν@@ 3743
He@@ 3736
ro@@ 3736
Le@@ 3733
δεικ@@ 3730
έβαλ@@ 3729
ent 3728
ετές 3721
150 3718
1921 3718
χείρ@@ 3713
χαν 3706
ana 3699
7,@@ 3696
απόφ@@ 3691
League 3690
ve 3684
for 3667
ad 3665
Αλέ@@ 3651
Di@@ 3650
Mon@@ 3633
Par@@ 3632
θέρ@@ 3624
ώπ@@ 3617
600 3614
ναϊκ@@ 3611
ica 3610
έρχ@@ 3608
ri@@ 3602
ec@@ 3601
ter 3596
Αλέξ@@ 3596
οσκ@@ 3594
σωτερ@@ 3592
120@@ 3582
Sp@@ 3574
ous 3572
ton 3569
1910 3565
Records 3551
επέστ@@ 3547
ay 3537
πουδ@@ 3513
ina 3512
αίρου 3491
ρίγκιπ@@ 3489
World 3487
des 3483
5.000 3482
Cl@@ 3469
αρμογ@@ 3464
qu@@ 3463
όλυ@@ 3457
δημιούργ@@ 3453
800 3440
ap@@ 3425
παράδ@@ 3424
BBC 3422
single 3418
Τού@@ 3411
1915 3410
επαγγελ@@ 3402
v 3399
Cr@@ 3387
1908 3386
ts 3376
ig@@ 3368
sh@@ 3358
έρονται 3346
ολό@@ 3339
ale 3330
ομηχαν@@ 3324
von 3323
un@@ 3318
* 3307
ae 3306
λεσε 3299
John 3285
κανε 3283
Ro@@ 3279
Qu@@ 3275
λαδ@@ 3275
Ex@@ 3268
μ.@@ 3264
um@@ 3259
1916 3254
$ 3253
δισε 3247
? 3240
Sch@@ 3231
ἀ@@ 3203
1905 3202
s.@@ 3202
ell 3197
id 3193
de@@ 3189
έρνησης 3187
You 3185
est 3178
For@@ 3173
ant 3171
Music 3166
ιουργ@@ 3163
se 3162
J 3160
Pr@@ 3156
οίν@@ 3155
έγερ@@ 3153
ηλε@@ 3149
υσμ@@ 3149
Cor@@ 3127
οδρο@@ 3116
di@@ 3106
ice 3090
οσοφ@@ 3076
En@@ 3075
• 3072
az@@ 3063
eg@@ 3060
ou@@ 3058
ελέγη 3057
1906 3055
χ. 3051
ανακοίν@@ 3050
na 3041
παίδευ@@ 3037
Εί@@ 3036
− 3036
vi@@ 3029
align 3028
αιτίας 3017
tic@@ 3012
Q@@ 3003
TV 2984
αναφ@@ 2979
ποσο@@ 2967
Disney 2963
διάρκ@@ 2960
1904 2958
Windows 2951
FI@@ 2932
λαβε 2930
Se@@ 2928
CD 2925
1911 2924
λίου 2924
λλανδ@@ 2916
iss@@ 2914
​ 2913
Bar@@ 2912
DNA 2909
mo@@ 2899
all 2896
1896 2882
ut@@ 2882
re 2881
po@@ 2875
κειμένου 2868
1907 2864
νώ@@ 2863
name 2857
πτώσεις 2853
2022 2850
ir@@ 2849
´ 2830
θάν@@ 2827
ρον 2824
στή@@ 2818
OS 2816
κατοίκ@@ 2813
ent@@ 2811
Επαν@@ 2811
Per@@ 2808
συγκροτ@@ 2801
1000 2798
1909 2793
AR@@ 2787
πέν@@ 2782
υπάρχ@@ 2779
ter@@ 2770
th 2755
ler 2740
co@@ 2737
ni@@ 2737
Mor@@ 2733
Billboard 2732
ak@@ 2732
il 2732
ce 2724
μμύρια 2720
ley 2715
10.000 2713
El@@ 2710
IS@@ 2706
αποτέλε@@ 2706
og@@ 2702
style 2700
Col@@ 2696
ain 2694
1.000 2693
ill@@ 2671
ξεχω@@ 2669
ka 2664
Φ 2664
ύτη@@ 2664
SS 2663
1897 2661
tro@@ 2653
si@@ 2651
ογέν@@ 2649
κάπο@@ 2645
Str@@ 2644
Am@@ 2643
RA@@ 2633
ξεκ@@ 2633
120 2632
to@@ 2631
μαϊκ@@ 2631
700 2630
ῶ@@ 2628
od@@ 2625
Ma@@ 2621
Ώ@@ 2608
ep 2607
2.000 2606
Mo@@ 2606
Pe@@ 2606
ano 2603
Ac@@ 2597
50@@ 2593
1903 2588
so@@ 2588
au@@ 2585
les 2580
τεκτον@@ 2575
200@@ 2569
αποτελέσ@@ 2566
ρίγκ@@ 2564
do@@ 2560
un 2559
Ad@@ 2557
ly 2551
συγκρο@@ 2548
ήρε 2547
Gu@@ 2540
ty 2540
Ne@@ 2531
Man@@ 2525
ons 2524
ρισκ@@ 2523
BA 2519
Li@@ 2518
op@@ 2518
ob@@ 2517
1878 2516
ure 2515
bo@@ 2506
ol 2503
ë@@ 2500
1890 2497
Live 2491
συγκρότη@@ 2481
εβί@@ 2477
υνομ@@ 2477
ata 2475
τέλεσε 2475
ov@@ 2469
ge 2468
ci@@ 2458
ino 2450
αθμ@@ 2434
ρρο@@ 2433
Fi@@ 2432
επιστημ@@ 2429
Black 2426
af@@ 2425
om 2425
τομέ@@ 2425
1899 2423
Or@@ 2422
per@@ 2421
ber@@ 2419
αίνεται 2418
θλημα 2414
ey 2413
International 2412
ανεξ@@ 2412
ver@@ 2402
Man 2401
tion 2401
21@@ 2400
Αυτοκ@@ 2399
Her@@ 2398
ρονα 2397
eb@@ 2394
119@@ 2392
δίκ@@ 2392
ore 2391
δημοσ@@ 2380
ati@@ 2376
23@@ 2372
1870 2370
mar@@ 2369
Mag@@ 2366
πίσ@@ 2361
pop 2360
by 2359
250 2354
Αύγ@@ 2354
Ρ 2350
́ 2349
ot 2348
1881 2345
ώβ@@ 2342
γκο@@ 2338
Κωνσταντιν@@ 2336
Αυτοκρα@@ 2335
ma 2328
1902 2311
CA@@ 2311
ειλε 2310
Ph@@ 2307
1880 2303
ans 2302
background 2302
ite 2295
ne 2295
ner 2294
Lo@@ 2288
Hol@@ 2281
IV 2274
color 2272
uc@@ 2272
1895 2270
co 2269
Un@@ 2266
1835 2265
ok@@ 2258
ῆ@@ 2254
Po@@ 2252
λλου 2248
ti 2245
… 2236
ουνίου 2235
Δεκ@@ 2233
ai 2232
κλήρω@@ 2231
Love 2224
Le 2221
se@@ 2218
ace 2209
ώπι@@ 2205
124@@ 2203
Χ. 2201
Rock 2200
No 2198
Ci@@ 2195
den 2193
Bur@@ 2191
ue 2191
ρίσκ@@ 2188
Ag@@ 2187
ναι 2185
1901 2184
ell@@ 2184
ini 2183
{ 2179
é 2179
all@@ 2175
ah 2173
und@@ 2172
επιστημίου 2172
ωγράφ@@ 2170
Top 2168
Pi@@ 2167
Si@@ 2164
1,5 2163
end@@ 2161
ess 2157
ra 2152
μέσως 2150
Ver@@ 2148
γιατ@@ 2148
Me 2145
Me@@ 2140
AN@@ 2136
ight 2136
pr@@ 2130
ke 2127
cm 2120
1898 2118
Ab@@ 2112
Dr@@ 2112
mm 2111
land 2110
ικοι 2109
NBA 2107
Ελλ@@ 2097
ya 2093
All 2088
Ber@@ 2087
Do@@ 2084
Ste@@ 2083
gr@@ 2083
are 2079
del 2079
Gi@@ 2077
12,@@ 2072
Y 2068
118@@ 2064
ail@@ 2061
NGC 2056
Times 2053
bi@@ 2046
ity 2043
11,@@ 2036
όμετρο 2036
One 2035
ζόν 2026
1889 2025
ver 2023
παρουσ@@ 2022
ary 2020
δη@@ 2020
atis@@ 2019
io 2018
ake 2016
εκπαι@@ 2016
Fre@@ 2014
sp@@ 2014
ise 2011
Z 2010
und 2010
van 2007
III 2005
οφιλ@@ 2004
πολε@@ 2003
pl@@ 2001
ass@@ 2000
σιδη@@ 2000
du 1996
2,5 1995
br@@ 1993
Bl@@ 1992
My 1992
Pol@@ 1988
Jo@@ 1987
metal 1987
όμε@@ 1987
ὸ@@ 1984
pi@@ 1982
ραγκ@@ 1982
AS@@ 1980
od 1980
Eur@@ 1979
ings 1973
1830 1970
ay@@ 1968
WWE 1967
ep@@ 1967
no@@ 1967
αριστ@@ 1967
Mc@@ 1964
ύρια 1963
1885 1961
To@@ 1961
tu@@ 1960
καλλ@@ 1957
par@@ 1956
em 1949
aw@@ 1944
So@@ 1941
be@@ 1941
ca 1941
Saint 1940
do 1939
1860 1937
Pro@@ 1937
ak 1933
au 1931
ing@@ 1930
10,@@ 1929
φαι@@ 1929
DVD 1925
1848 1921
ick 1921
10.@@ 1919
Star 1919
Ουγ@@ 1919
RNA 1915
ποτε 1914
ῦ 1913
Wal@@ 1909
j 1908
ann@@ 1907
York 1906
Mer@@ 1905
and@@ 1901
ile 1900
ane 1899
In 1898
sch@@ 1898
DS 1897
180 1896
εξέλι@@ 1894
ang@@ 1893
ick@@ 1889
ne@@ 1888
διαίτερ@@ 1888
AC 1886
² 1884
American 1883
Go@@ 1882
τέ 1877
Time 1876
ade 1875
× 1875
Gre@@ 1873
est@@ 1866
40@@ 1863
έπει@@ 1858
1866 1856
Play 1853
Er@@ 1846
It 1845
ev@@ 1845
τώ 1844
1894 1840
CE 1836
1879 1835
era 1835
Fl@@ 1834
ence 1832
Cup 1828
Q 1825
άμεις 1825
Ho@@ 1821
ks 1821
De 1818
ὐ@@ 1815
Ge@@ 1814
μεσα 1810
Hot 1805
Min@@ 1801
ac 1801
λευτα@@ 1801
ple 1799
tri@@ 1797
gi@@ 1794
} 1793
ῖ@@ 1793
We@@ 1791
καλα@@ 1790
ea 1788
census 1784
mi@@ 1784
1892 1783
á@@ 1783
School 1782
ari 1781
ur 1781
­ 1781
National 1780
Ben@@ 1776
Μιχα@@ 1774
ist@@ 1773
yl@@ 1770
εφαλής 1770
BM@@ 1766
he@@ 1764
έντρ@@ 1764
Mus@@ 1763
é@@ 1754
Ed@@ 1753
Pur@@ 1753
γύρ@@ 1752
iz@@ 1749
za 1749
Har@@ 1748
έμου 1748
πομπ@@ 1748
1871 1744
Hall 1744
Microsoft 1742
UN@@ 1740
ek@@ 1739
Mot@@ 1737
ff@@ 1733
Dis@@ 1731
ker 1731
ash 1728
ra@@ 1727
Te@@ 1726
UNESCO 1723
900 1722
Kr@@ 1717
ā@@ 1716
ρόμ@@ 1716
ge@@ 1715
1893 1713
1822 1712
1888 1710
Inter@@ 1707
a.@@ 1706
λάχ@@ 1706
top 1703
Jean 1700
Super 1700
que 1700
ir 1698
1884 1696
As@@ 1696
110 1693
iv@@ 1692
ούνιο 1692
ach@@ 1689
ματοποι@@ 1685
115@@ 1684
no 1683
ance 1681
ὰ 1680
University 1673
Bre@@ 1672
ara 1671
ens@@ 1671
King 1668
Bal@@ 1667
TA 1665
11.@@ 1663
out 1663
1867 1662
fac@@ 1661
off 1660
CI@@ 1657
.com 1656
FIFA 1656
box 1656
80@@ 1653
right 1652
1886 1651
1891 1646
ˈ@@ 1644
παραπ@@ 1642
ja 1641
Club 1640
1500 1638
ors 1636
1864 1634
if@@ 1634
ow@@ 1633
Tri@@ 1632
€ 1629
αντιμετ@@ 1626
1840 1625
αντι 1622
1850 1621
Metal 1621
end 1619
Paul 1617
ma@@ 1616
22@@ 1615
va 1615
θηγ@@ 1613
ion 1608
ath@@ 1607
1887 1605
λλην@@ 1605
χαμ@@ 1605
te@@ 1602
Sil@@ 1600
Tur@@ 1600
ical 1599
Fe@@ 1598
ass 1598
ah@@ 1595
me 1595
James 1594
1882 1593
ατό 1593
Studios 1591
1833 1589
oy@@ 1589
be 1588
ain@@ 1586
David 1585
1883 1584
Life 1584
Pal@@ 1583
FC 1582
ere 1580
.-@@ 1579
William 1579
ette 1578
sa 1578
SA 1575
13,@@ 1572
ang 1572
AT@@ 1571
play 1571
1,2 1570
1828 1568
tic 1568
ory 1565
met@@ 1560
Rom@@ 1559
Pl@@ 1557
ani 1555
mann 1555
διοδρο@@ 1555
1834 1554
li 1553
Sal@@ 1552
1877 1551
Fr@@ 1551
ega 1551
ex@@ 1550
Κωνστ@@ 1550
ιτέχ@@ 1550
1815 1541
ζύγ@@ 1541
RO@@ 1539
elle 1539
αναδ@@ 1537
Au@@ 1536
Vol@@ 1534
ess@@ 1534
3,5 1533
Mas@@ 1532
q@@ 1531
Channel 1522
ES@@ 1522
q 1522
Wor@@ 1519
IC@@ 1517
Awards 1516
στρατιώ@@ 1516
ist 1515
Son@@ 1513
160 1512
hi@@ 1510
1861 1509
1876 1508
Sol@@ 1507
φιλοξ@@ 1501
la@@ 1498
ἰ@@ 1497
αντιν@@ 1495
Cas@@ 1489
Hor@@ 1489
our 1489
Γρ@@ 1489
1875 1488
ήνων 1488
140 1487
su@@ 1486
art 1485
1863 1484
ari@@ 1484
130 1483
Company 1483
Sk@@ 1482
υργ@@ 1482
College 1481
ning 1481
st 1481
House 1479
ST@@ 1474
US@@ 1474
ki 1473
1868 1472
ho@@ 1472
ran@@ 1471
1825 1470
pe@@ 1469
ματοποί@@ 1468
Hel@@ 1465
Ser@@ 1465
Robert 1464
Black@@ 1461
Por@@ 1455
ena 1455
`@@ 1454
Radio 1453
Bel@@ 1452
Av@@ 1451
Su@@ 1449
σταθ@@ 1447
Ang@@ 1446
Association 1439
Grand 1437
dr@@ 1437
Αυστρα@@ 1437
Air@@ 1436
Bi@@ 1436
cre@@ 1434
ant@@ 1433
Michael 1431
els 1431
http 1431
ib@@ 1431
Em@@ 1427
bit 1426
1862 1425
1873 1425
114@@ 1424
City 1422
Cre@@ 1422
Pa@@ 1422
κατέκ@@ 1422
Gal@@ 1421
Air 1419
ire 1412
km 1412
Hal@@ 1411
Group 1410
1800 1409
up@@ 1407
IN@@ 1406
Mad@@ 1406
Kar@@ 1404
1836 1402
ack@@ 1401
con@@ 1400
Ren@@ 1398
Tom@@ 1397
ais 1397
anc@@ 1397
1826 1393
AC@@ 1393
At@@ 1393
1869 1392
Gar@@ 1391
117@@ 1390
UEFA 1387
έγι@@ 1385
12.@@ 1384
str@@ 1384
ten@@ 1381
DC 1380
with 1380
Pan@@ 1379
Ros@@ 1379
AI@@ 1378
tor 1378
ko@@ 1376
1872 1374
Val@@ 1373
ins 1371
ten 1370
NH@@ 1369
per 1369
š@@ 1367
1865 1366
1874 1365
ars 1365
ters 1364
ρίσκεται 1364
pp@@ 1363
Cer@@ 1362
ա@@ 1362
Na@@ 1361
enti@@ 1361
116@@ 1360
γλω@@ 1360
Entertainment 1359
Es@@ 1358
its 1356
more 1354
AL@@ 1352
El 1352
όμετρα 1352
Google 1351
χρησιμ@@ 1350
350 1349
tra 1349
als 1347
Cal@@ 1346
eh@@ 1345
60@@ 1343
Charles 1343
ff 1343
Ul@@ 1340
My@@ 1333
San 1333
Ri@@ 1331
Young 1329
mer@@ 1329
ster 1329
yr@@ 1329
Royal 1325
ame 1325
ίρι 1325
Red 1323
1824 1322
ella 1320
± 1320
LA 1318
SA@@ 1316
ault 1311
codice 1311
lin@@ 1308
Met@@ 1307
gu@@ 1307
1829 1303
com@@ 1303
eo 1302
ερμαν@@ 1302
101 1301
Wil@@ 1301
Lu@@ 1300
κοπο@@ 1300
ρισκόταν 1300
πούδ@@ 1298
aus@@ 1295
113@@ 1294
βηγ@@ 1292
office 1290
SO@@ 1289
1856 1286
ille 1284
ford 1283
Ἀ@@ 1281
Maria 1280
Marvel 1280
1854 1278
Λον@@ 1278
Blo@@ 1276
ł@@ 1276
ones 1274
Ger@@ 1273
ich 1271
1859 1270
ello 1270
cor@@ 1266
1844 1264
450 1263
Mal@@ 1263
Night 1263
ble 1260
LE@@ 1259
35@@ 1258
ita 1256
Apple 1254
ps 1254
ug@@ 1254
Can@@ 1252
Mat@@ 1252
É@@ 1250
,@@ 1248
Game 1246
aj@@ 1246
lu@@ 1245
όμη 1245
amb@@ 1244
1814 1243
ry 1243
Bor@@ 1240
AB@@ 1237
ill 1235
George 1234
ama 1234
ator 1234
mon@@ 1234
Im@@ 1233
ora 1233
sk@@ 1232
District 1231
1820 1229
NO@@ 1229
Reg@@ 1227
Award 1226
MI@@ 1226
ye 1225
tor@@ 1223
ER@@ 1222
im 1220
SE@@ 1218
ζων@@ 1217
1832 1212
ada 1212
ek 1212
No@@ 1211
ὲ 1210
Fo@@ 1209
Tor@@ 1209
→ 1208
Os@@ 1206
1851 1201
Mac@@ 1200
Best 1199
MS 1199
RI@@ 1197
tes 1197
ὴ@@ 1197
Is 1195
à 1193
gen@@ 1192
1843 1189
tions 1189
Iron 1188
bu@@ 1187
Big 1185
ειγμα 1185
che 1184
met 1184
ὸ 1182
125 1181
1858 1180
On 1179
vil 1179
ics 1178
RE@@ 1176
Σεπτέμβ@@ 1176
ack 1175
Super@@ 1174
Wi@@ 1174
ub@@ 1174
ερις 1174
CN 1173
Mel@@ 1172
min@@ 1172
Gl@@ 1171
ola 1171
1841 1170
1845 1170
ball 1170
1827 1168
4,5 1166
CD@@ 1164
Ford 1163
1823 1162
Ru@@ 1162
ali@@ 1162
car@@ 1161
ro 1161
Op@@ 1160
ΠΑ 1160
ΰ@@ 1157
τραγούδ@@ 1157
1812 1156
char@@ 1156
όλου@@ 1156
Film 1154
Mi@@ 1153
ie@@ 1152
Je@@ 1148
AM@@ 1147
Del@@ 1145
Nor@@ 1145
ero 1145
Al 1144
Sw@@ 1144
fr@@ 1143
tics 1143
las 1142
Euro 1141
Your 1141
Tour 1140
1853 1139
ru@@ 1139
Φίλι@@ 1139
low 1138
³ 1138
man@@ 1137
oth@@ 1137
1793 1136
ski 1135
det@@ 1134
cr@@ 1133
Blue 1132
δοβ@@ 1132
Οκτώβ@@ 1130
πουργ@@ 1129
1849 1127
MP@@ 1127
Vo@@ 1127
ave 1127
sen 1127
ó@@ 1127
1837 1126
Net@@ 1126
ene 1126
NASA 1125
Park 1125
Elec@@ 1124
Uni@@ 1124
AF@@ 1123
berg 1123
ister 1123
Day 1122
Thomas 1122
ta@@ 1122
Sc@@ 1120
Sim@@ 1119
Cam@@ 1117
ds 1117
ensis 1117
IM@@ 1115
105 1113
COVID 1113
Mil@@ 1111
ab 1111
1806 1110
A. 1110
Sur@@ 1110
my 1110
33@@ 1108
AP@@ 1108
Football 1108
der@@ 1108
CN@@ 1107
Warner 1104
ost 1104
bert 1103
1831 1102
ets 1102
ala 1101
tro 1100
way 1100
1857 1099
Martin 1099
adi@@ 1099
lo 1099
1792 1097
elli 1097
ase 1096
oles 1096
ys@@ 1096
14,@@ 1095
Les 1094
del@@ 1094
λαδή 1093
Cro@@ 1092
ach 1090
ith 1090
for@@ 1088
1789 1086
enn@@ 1086
170 1085
S.@@ 1085
Hz 1084
Louis 1082
pha 1082
οκρα@@ 1080
AS 1078
ῦ@@ 1078
CA 1076
Richard 1076
Vi@@ 1075
une 1073
1847 1072
Leg@@ 1071
Ra@@ 1070
London 1069
ard@@ 1068
mer 1068
ok 1067
Nov@@ 1066
ger 1066
Rec@@ 1063
ici@@ 1063
ting 1062
Ur@@ 1060
ef@@ 1059
ico 1059
Peter 1058
St 1058
ales 1058
du@@ 1055
~ 1055
1855 1054
ou 1054
General 1053
MA 1053
Show 1049
ber 1049
1600 1048
All@@ 1047
Sab@@ 1047
Lord 1046
ide 1046
ota 1045
tel@@ 1043
Bas@@ 1042
Du@@ 1042
from 1042
tin 1042
13.@@ 1041
Mir@@ 1041
ider 1041
Des@@ 1040
cu@@ 1040
1852 1039
kg 1039
ky 1037
dy 1036
EP 1033
bl@@ 1033
PS 1031
eng@@ 1031
line 1031
220 1030
track 1030
ud@@ 1030
Glo@@ 1029
A.@@ 1027
PlayStation 1027
Ti@@ 1027
ME@@ 1026
Mur@@ 1023
able 1022
ast 1022
ord@@ 1022
wid@@ 1022
FA 1020
ish 1019
ἔ@@ 1019
me@@ 1018
ori@@ 1018
Blu@@ 1017
Of 1017
όλα@@ 1017
ations 1014
Ω 1014
201@@ 1013
Ni@@ 1013
Sony 1013
rock 1013
Pin@@ 1011
col@@ 1011
ish@@ 1011
βασιλι@@ 1011
Art 1010
ken 1009
ury 1006
ier 1005
Don 1004
ung 1004
360 1002
Luc@@ 1002
YouTube 1002
pe 1000
34@@ 999
1797 997
DA 997
mag@@ 997
127 996
1700 996
ever 996
ba@@ 995
1842 994
center 994
ney 994
Hy@@ 993
Pictures 993
ci 993
kh@@ 992
Pri@@ 990
36@@ 988
US 988
mi 988
War@@ 986
λληλ@@ 985
up 984
NA 983
ona 983
ov 981
Center 977
Fame 977
High 977
Ca@@ 976
Is@@ 976
Res@@ 975
bar@@ 974
1813 972
ez 972
1846 971
Die 971
Street 971
ko 971
102 970
ange 970
ated 970
ato 970
Bir@@ 969
stein 969
oni@@ 967
On@@ 966
Rol@@ 966
Rolling 965
Wat@@ 965
we@@ 965
yp@@ 965
ans@@ 964
38@@ 961
Lee 960
uk@@ 960
1839 958
45@@ 958
Joseph 958
e.@@ 958
time 958
Απρί@@ 958
1809 957
Bro@@ 957
Hon@@ 957
ast@@ 953
ian 953
cl@@ 952
iti@@ 951
70@@ 949
ez@@ 949
ler@@ 949
Gen@@ 948
ura 948
έρον 948
1810 947
Tel@@ 946
Ap@@ 945
Medi@@ 945
ft 945
Mercedes 944
Society 944
Corporation 943
Stone 943
France 942
field 942
Down 940
ser@@ 940
109 939
Final 939
Char@@ 938
ha 935
Sam@@ 934
tur@@ 934
Dre@@ 933
ze 933
22.@@ 931
onn@@ 931
Chil@@ 930
Fox 930
FM 929
ni 929
Europe 928
Lin@@ 928
ey@@ 926
Cap@@ 925
ai@@ 925
ole 925
ō@@ 924
CE@@ 922
Festival 922
126 921
MTV 921
Media 920
dis@@ 920
oph@@ 920
1790 919
1818 919
ili@@ 919
sc@@ 919
Ιανου@@ 919
AD@@ 918
DE@@ 918
Trans@@ 917
die 917
Chev@@ 915
News 915
LC 914
í@@ 914
Out 913
ée 913
1838 912
dom@@ 912
org 912
rol@@ 912
15,@@ 910
CF 910
ents 909
ich@@ 909
Sho@@ 908
ign@@ 908
ison 905
ly@@ 905
1200 904
of@@ 904
τέσσ@@ 903
Arts 902
Queen 902
στιαν@@ 902
Cur@@ 901
kin 900
Christ@@ 899
Dar@@ 899
Play@@ 899
Cy@@ 897
Far@@ 897
Ke@@ 897
Paris 897
ash@@ 897
1807 896
Ferr@@ 896
ki@@ 896
21.@@ 895
Kil@@ 895
album 895
But@@ 894
yn@@ 894
eli@@ 893
White 892
Win@@ 892
ates 892
Who 891
We 890
PS@@ 889
Sm@@ 889
ap 889
vo 889
1803 888
Bab@@ 888
IP 888
Rot@@ 888
System 886
aur@@ 886
back 886
ér@@ 886
1808 885
United 885
ece 885
1804 884
Sa@@ 882
alis 882
orum 881
si 881
IP@@ 880
inc@@ 880
14.@@ 879
oh@@ 879
tel 879
SD 878
tw@@ 878
107 877
39@@ 877
Journal 877
Be 875
Nintendo 875
chi@@ 875
oni 875
dia 874
1798 872
bat@@ 872
Ετα@@ 872
atus 871
106 870
240 870
Cir@@ 870
fication 870
1795 869
zo 869
so 868
100@@ 867
VP 867
go 867
colspan 866
Kon@@ 865
burg 865
po 865
37@@ 864
Bank 864
Little 864
βάλ 864
igh@@ 863
Ath@@ 862
Vir@@ 861
inn@@ 861
agon 860
Pre@@ 859
port 859
Hu@@ 858
tim@@ 858
Mario 857
HMS 855
European 854
Kn@@ 854
ind@@ 854
ois 854
1819 853
3000 853
ong 853
\ 852
live 852
ati 851
Καλλικρά@@ 851
Death 850
ISO 850
PC 850
Sec@@ 849
γκοσ@@ 848
Free 847
ανάπ@@ 847
1794 846
Bul@@ 846
ρότη@@ 846
AA 844
Wh@@ 843
int@@ 843
ριστιαν@@ 843
Fac@@ 841
ii 841
Hill 839
104 838
1805 838
Open 838
Tre@@ 838
fer@@ 838
Natur@@ 837
ection 837
omo 837
Cent@@ 835
cur@@ 835
č@@ 834
κοσμίου 834
115 833
16,@@ 833
750 833
NE@@ 832
air 832
ement 831
Ir@@ 830
ative 830
West 829
Πει@@ 829
108 827
Volks@@ 827
Green 825
Lor@@ 824
yn 824
â@@ 824
Pierre 823
ke@@ 823
ment 823
135 822
Home 821
lan@@ 821
pel@@ 821
Up 819
103 817
Ko@@ 815
ante 815
ima 815
ines 815
ze@@ 815
πτωση 814
Ban@@ 813
Gro@@ 813
eth 813
ies 813
1817 812
Bu@@ 811
zi@@ 811
Friedrich 810
tica 810
ville 810
16.@@ 809
cus 809
υφή 809
ect 808
king 808
SM 807
άτω 807
itz 806
ρωπα@@ 806
Boeing 805
Marie 805
Thr@@ 805
America 804
Mark 804
Ju@@ 803
bus 803
Cel@@ 802
Jones 802
Airlines 801
text 801
tis 801
ä@@ 801
Wrestling 800
1816 797
Il@@ 796
SP@@ 796
cap@@ 796
res@@ 796
Ένω@@ 796
179@@ 795
Fri@@ 794
Liber@@ 794
ik 794
1801 793
well 792
20.@@ 791
Ven@@ 790
ō 790
Toy@@ 789
left 789
Fin@@ 788
IC 788
1791 787
vo@@ 787
Š@@ 786
AF 785
Men 785
oll@@ 785
New@@ 784
eta 784
65@@ 783
ἄ@@ 783
Est@@ 781
fli@@ 781
su 781
1799 779
AT 779
Oc@@ 779
cer@@ 779
ji 779
Press 778
ong@@ 778
17,@@ 777
Pas@@ 777
SS@@ 777
è@@ 777
Φεβρου@@ 776
Dom@@ 774
Ham@@ 774
Tro@@ 774
90@@ 771
ier@@ 770
ö@@ 770
Σεπ@@ 769
0,5 767
pu@@ 767
ven@@ 767
і@@ 767
Dark 766
Dem@@ 766
amp@@ 765
ys 765
sa@@ 763
Off@@ 762
Fran@@ 761
Ig@@ 760
Video 760
ray 760
ida 759
190 758
Linux 758
over 758
Cin@@ 757
Sun 757
sion 757
ὁ 757
ve@@ 756
ado 755
ABC 754
Co 754
PC@@ 754
British 753
Region 753
aux 751
des@@ 751
Spe@@ 750
art@@ 750
inger 750
pen@@ 750
Plan@@ 749
TE@@ 749
IS 748
Cat@@ 747
Phone 747
pre@@ 747
Seg@@ 746
Santa 745
ays 745
fl@@ 745
ling 745
Γε@@ 745
Can 744
Liv@@ 744
Mary 744
bre@@ 744
128 743
old 743
ond 743
AN 742
wa 742
AP 740
Bat@@ 740
ista 740
nes 740
set 740
7,5 739
Sav@@ 739
bor@@ 739
ito 739
ture 738
46@@ 737
48@@ 737
app@@ 737
Institute 736
15.@@ 735
CO 735
Karl 735
illa 735
ock 735
17.@@ 734
Columbia 733
ut 733
Juli@@ 731
je 731
ska 731
Arena 729
Los 728
Mari@@ 728
Sun@@ 728
AD 727
Sou@@ 727
Story 727
περισσ@@ 727
Boy 726
chi 726
nik 726
val@@ 726
550 725
Max 725
ding 725
ins@@ 725
Rem@@ 724
Studio 724
Pro 723
For 722
Master 722
Ter@@ 722
ικρά@@ 722
GB 721
ć 721
Wo@@ 720
ba 720
RS 719
ung@@ 718
ίστοιχ@@ 718
DJ 716
πρου 716
320 715
Il 715
ali 715
υπόλ@@ 715
23.@@ 714
CC@@ 714
ιστον 714
RT@@ 713
Space 713
This 713
Champions 712
Land@@ 712
VI@@ 712
Henry 711
anus 711
oes 711
Εκτ@@ 711
PE@@ 710
Mach@@ 709
fo@@ 709
3D 708
BS 708
The@@ 708
NS@@ 707
San@@ 707
bourne 707
ology 707
can@@ 705
ema 705
sy@@ 705
Laur@@ 704
ium 704
Ann@@ 703
EC@@ 703
19.@@ 702
43@@ 702
Sir 702
ela 702
fin@@ 702
AG 701
Project 701
ony 701
на 701
ML 700
peri@@ 700
sol@@ 700
ts@@ 700
18.@@ 699
Universal 699
ym@@ 699
BI 698
Loc@@ 698
cul@@ 697
uz@@ 697
Cri@@ 696
War 696
Ali@@ 695
Sar@@ 695
ome@@ 695
Med@@ 694
sti@@ 694
ust 694
sur 693
What 692
Star@@ 691
oma 691
Bad 690
row 690
TS 689
aceae 689
her@@ 689
ote 689
Facebook 688
Last 688
eme 688
fer 688
ful 688
ome 688
we 688
DP 687
Ly@@ 687
Mont@@ 687
Jan 686
ee 686
mor@@ 686
ame@@ 685
lin 685
ψ 685
Band 684
Bon@@ 684
IF@@ 684
das 684
una 683
video 683
Lar@@ 682
Go 681
ern@@ 681
ese 681
singles 681
Android 680
LP 680
Mov@@ 680
day 680
wagen 680
112 679
arr@@ 679
ius 679
ix 678
330 677
Ram@@ 677
Bri@@ 676
dem@@ 676
280 675
action 675
ax 675
iller 675
sel@@ 675
εγον@@ 675
Basket@@ 674
ei 674
pro@@ 674
1802 673
650 673
Dir@@ 673
May@@ 673
Meg@@ 673
ington 673
oman 673
Dead 672
UTC 672
ör@@ 672
ὑ@@ 672
47@@ 671
Edward 671
ele 671
Dance 670
Smith 670
ean 670
ιούργ@@ 670
1811 669
Hil@@ 669
Island 669
ML@@ 669
PO@@ 669
wood 669
ats@@ 668
Whit@@ 667
aff@@ 667
£ 667
Beau@@ 666
Road 666
Roc@@ 666
ny 666
side 666
ø@@ 666
117 665
18,@@ 665
Na 665
75@@ 664
C.@@ 664
Dec@@ 664
Οκτωβ@@ 664
Ak@@ 663
ίσι 663
uck 662
BN 661
260 660
ath 659
ox@@ 659
Mich@@ 658
pos@@ 658
44@@ 657
Anim@@ 657
Great 657
ex 657
let@@ 657
ng@@ 657
AR 656
Ev@@ 656
Grammy 656
aga 656
lie 656
light 656
5000 655
GT 655
ila 655
isi@@ 655
ature 654
ha@@ 654
anti@@ 653
│ 653
Mac 652
PA 652
arch@@ 652
DE 651
rec@@ 651
σσαλ@@ 651
reg@@ 650
view 650
Dor@@ 649
HD 649
lock 649
Arch@@ 648
Bol@@ 648
Fal@@ 648
Stor@@ 648
lis 648
op 648
use 648
aro 647
ime 647
the@@ 647
19,@@ 646
AM 646
Eng@@ 646
Heart 646
Ty@@ 646
hu@@ 646
lem@@ 646
wer@@ 646
р@@ 646
230 645
SI 645
Wilhelm 645
ater 645
194@@ 644
osa 644
Pres@@ 643
lar@@ 643
123 642
IT@@ 642
Tal@@ 642
Way 642
az 642
RC 641
fa 641
ua 640
Office 639
ny@@ 639
210 637
MO@@ 637
Union 637
show 637
Mu@@ 636
VI 636
ax@@ 636
Van 635
ck 635
pa 635
zi 635
Chi@@ 634
Dream 634
Mid@@ 634
τραυ@@ 634
RA 633
len@@ 633
yc@@ 633
á 633
Οκτ@@ 633
Internet 632
Ob@@ 632
Power 632
etta 632
Haw@@ 631
Science 631
Song 631
La@@ 630
Pic@@ 630
hi 630
1300 629
Mak@@ 629
EM@@ 628
Fire 627
ῷ 627
122 626
CS@@ 626
IE@@ 626
Johann 626
Post 626
1400 625
har@@ 624
house 623
isa 623
ón 623
CP 621
Four 621
Stu@@ 621
ats 621
Girl 620
mod@@ 620
Ol@@ 619
log@@ 619
ὺ@@ 619
Alexander 618
Research 617
Οικογέν@@ 617
State 616
idae 616
aven 615
oria 615
ret@@ 615
Championship 614
Giovanni 614
key 614
111 613
121 613
ὰ@@ 613
Cos@@ 611
Ga@@ 611
J.@@ 611
Nav@@ 611
Theatre 611
air@@ 611
less 611
sche 611
Brown 610
Sports 610
Wit@@ 610
ul 610
Sand@@ 609
Si 609
TV@@ 609
Aer@@ 608
Christian 608
Foundation 608
ket 608
ough 608
act 607
270 606
Lady 606
agr@@ 606
mat@@ 606
Albert 605
ains 605
aria 605
ental 605
mas@@ 604
tar@@ 604
Astr@@ 603
Ba@@ 603
bo 603
Gol@@ 602
Network 602
erry 602
ori 602
vent@@ 602
Produc@@ 601
ends 601
ids 601
BC 600
Guar@@ 600
anger 600
E.@@ 599
Tar@@ 599
int 599
ὴ 599
GM 598
Ori@@ 598
low@@ 598
Daily 597
ald 597
ə@@ 597
Vic@@ 596
ights 596
net 596
Fantas@@ 595
North 595
ech 595
nh@@ 594
sub@@ 594
′ 594
heavy 593
qui@@ 593
ula 593
Coll@@ 592
Greek 592
cher 592
rel@@ 592
114 591
Cad@@ 591
Model 591
Rus@@ 591
aki 591
aya 591
ual 591
P. 590
ais@@ 590
head 590
ī@@ 590
Mul@@ 589
elec@@ 589
thr@@ 589
Han@@ 588
ett 588
ga 588
ism 588
rey 588
ὲ@@ 588
116 587
Division 587
Ha@@ 587
ao 587
eck 587
fa@@ 587
ira 587
sil@@ 587
Gil@@ 586
Gra@@ 586
Nar@@ 586
fe@@ 586
Fer@@ 585
Swe@@ 585
bro@@ 585
kat@@ 585
son@@ 585
ū@@ 585
ὅ@@ 585
Satur@@ 584
Taylor 584
Bet@@ 583
HT@@ 583
Scott 583
tric 583
West@@ 582
ally 582
ento 582
ham 581
ster@@ 581
Clar@@ 580
atr@@ 580
Pir@@ 579
aus 579
ond@@ 579
vir@@ 579
Dig@@ 578
ania 578
20,@@ 577
55@@ 577
CBS 577
iki 577
vers 577
Bay@@ 576
Jac@@ 576
Sel@@ 576
type 576
Mol@@ 575
ae@@ 575
tan@@ 575
49@@ 574
under@@ 573
Cu@@ 572
olog@@ 572
sen@@ 572
129 571
Mit@@ 571
Rel@@ 571
ische 571
ns 570
tu 570
ways 570
yth@@ 570
Hollywood 569
South 569
VII 569
ense 568
ros@@ 568
Lev@@ 567
Museum 567
amm@@ 567
onia 567
ova 567
Gold@@ 566
Sym@@ 566
ality 566
anz@@ 566
he 566
Johnson 565
Prot@@ 565
ail 565
eri 565
μέγε@@ 565
С@@ 565
Like 564
0,000 563
Pat@@ 563
uy@@ 563
ј@@ 563
GC 562
Hum@@ 562
aci@@ 562
gre@@ 562
tal@@ 562
‎ 561
Fol@@ 560
MS@@ 560
chart 560
hip 560
sal@@ 560
ћ 560
ted 559
Όμ@@ 559
124 558
Ever@@ 558
mo 558
uch@@ 558
195@@ 557
cli@@ 557
Good 556
hy@@ 556
Shi@@ 555
bas@@ 555
cal@@ 555
model 555
por@@ 555
win 555
ո@@ 555
Sport 554
Year 554
inus 554
ods 554
tive 554
Book 553
Team 553
franch@@ 553
IX 552
rit@@ 552
ž@@ 552
Augus@@ 550
East 550
École 550
145 549
Pap@@ 549
Sub@@ 549
Wol@@ 549
25.@@ 548
Academy 548
Back 548
GA 548
Men@@ 548
Oli@@ 548
anim@@ 548
ente 548
ost@@ 548
ign 547
men 547
Lang@@ 546
ç@@ 546
Out@@ 545
RT 545
Williams 545
ր@@ 545
Earth 544
cas@@ 544
hard 544
lia 544
wn 544
Ἐ@@ 544
Bell 543
Econom@@ 543
Hen@@ 543
Hotel 543
Sy@@ 543
fi@@ 543
tors 543
Az@@ 541
Mem@@ 541
web 541
I.@@ 540
Stadium 540
As 539
Fel@@ 539
Jack 539
Light 539
arg@@ 539
fe 539
ight@@ 539
music 538
An 537
Kh@@ 537
inter@@ 537
oud 537
ush@@ 537
^ 536
Bil@@ 535
TP 535
Vil@@ 535
Washington 535
ards 535
ness 535
ret 535
gio 534
let 534
MC 533
uv@@ 533
Series 532
Tes@@ 532
Twitter 532
ili 532
Eu@@ 531
Sof@@ 531
stre@@ 531
175 530
Do 530
ants 530
cle 530
ike 530
oto 530
Bos@@ 529
Lam@@ 529
Pon@@ 529
enc@@ 529
go@@ 529
ody 529
118 528
God 528
Arm@@ 526
IA 526
She@@ 526
eus 526
ih@@ 526
Don@@ 525
Patr@@ 525
ms 525
pol@@ 525
sky 525
ère 525
Ϊ 525
Chicago 524
gl@@ 524
ther 524
Frank 523
Kor@@ 523
Nu@@ 523
ark@@ 523
core 523
ika 523
Camp@@ 522
Orchestra 522
UK 522
con 522
you 522
113 521
Beat@@ 521
Hug@@ 521
Tun@@ 521
VA 521
dian 521
tus 521
Daniel 520
Ran@@ 520
lat@@ 520
oo 520
ser 520
tis@@ 520
ask@@ 519
onna 519
IG@@ 518
Long 518
Prix 518
dition 518
don 518
68@@ 517
Golden 517
Mah@@ 517
Spir@@ 517
aire 517
oth 517
sive 517
2.0 516
CC 516
Sum@@ 516
Ful@@ 515
Saf@@ 515
Vill@@ 515
mel@@ 515
tical 515
war@@ 515
ωνστ@@ 515
380 514
Angel 514
Dow@@ 513
Sen@@ 513
ager 513
itu@@ 513
ᾶ@@ 513
First 512
Hans 512
Rh@@ 512
eman 512
zo@@ 512
24.@@ 511
Bow@@ 511
Games 511
Kin@@ 511
Alb@@ 510
Cul@@ 509
Force 509
ger@@ 509
§ 509
58@@ 508
Business 508
Deutsche 508
anda 508
Leon@@ 507
Mos@@ 507
Sat@@ 507
iden 507
Tw@@ 506
loyd 506
gar@@ 505
155 504
25,@@ 504
67@@ 504
Digital 504
Fried@@ 504
Kal@@ 504
Line 504
Mes@@ 504
Sky 504
That 504
ami 504
ew@@ 504
Tran@@ 503
Vie@@ 503
SC 502
bes 502
ebo@@ 502
eller 502
kin@@ 502
lu 502
Fut@@ 501
now 501
off@@ 501
vin 501
≡ 501
Dou@@ 500
Jer@@ 500
Rev@@ 500
ston 500
wat@@ 500
XX@@ 499
loc@@ 499
mit@@ 499
ying 499
ταθλ@@ 499
M.@@ 498
Anth@@ 497
Da@@ 497
serv@@ 497
Arthur 496
People 496
Two 496
enz@@ 496
leg@@ 496
our@@ 496
λυμπ@@ 496
Carl 495
Gh@@ 495
eld 495
Bill 494
Tem@@ 494
uma 494
Der 493
Luf@@ 493
Pep@@ 493
very 493
Fu@@ 492
Lib@@ 492
Not@@ 492
kr@@ 492
22,@@ 491
Ltd 491
Magazine 491
Four@@ 490
act@@ 490
unc@@ 490
.C. 489
BO@@ 489
Petr@@ 489
Walter 489
vol@@ 489
Reb@@ 488
eto 488
ode 488
24,@@ 487
Dol@@ 487
Fro@@ 487
Li 487
Pau@@ 487
Hi@@ 486
Hom@@ 486
Plat@@ 486
SN@@ 486
Ye@@ 486
amount 486
eth@@ 486
pan@@ 486
199@@ 485
Dev@@ 485
eri@@ 485
Rap@@ 484
agu@@ 484
Comm@@ 483
Jacques 483
MP 483
More 483
Tom 483
ams 483
other 483
pp 483
urs 483
lam@@ 482
D. 481
Gun@@ 481
by@@ 481
ems 481
kar@@ 481
Lab@@ 480
Mis@@ 480
Old 480
PR@@ 480
arm@@ 480
hr@@ 480
jo 480
lus@@ 480
ope 480
Spr@@ 479
ani@@ 479
dic@@ 479
ku@@ 479
mes 479
י@@ 479
ა@@ 479
Dun@@ 478
Victoria 478
ders 478
enge 478
mp@@ 478
olo 478
26.@@ 477
Dur@@ 477
Sus@@ 477
tory 477
Kur@@ 476
estr@@ 476
map@@ 476
ré@@ 476
Anna 475
Aut@@ 475
Comics 475
History 475
PP@@ 475
Rob@@ 475
den@@ 475
itch 475
yle 475
Land 474
alm@@ 474
icus 474
rive 474
Boys 473
CP@@ 473
eau 473
ety 473
ingen 473
sw@@ 473
FO@@ 472
Ta@@ 472
ves 472
ão 472
21,@@ 471
Television 471
nam@@ 471
ng 471
Hay@@ 470
Party 470
esc@@ 470
AL 469
C. 469
Singles 469
ava 469
Gener@@ 468
Tour@@ 468
ri 468
zy@@ 468
ó 468
Gam@@ 467
bul@@ 467
enne 467
132 466
Gor@@ 466
UC@@ 466
fre@@ 466
sey 466
57@@ 465
ces 465
media 465
ures 465
196@@ 464
Cab@@ 464
Corn@@ 464
én@@ 464
Lewis 463
Sac@@ 463
Red@@ 462
ely 462
erg@@ 462
hat@@ 462
tion@@ 462
ήμερα 462
Real 461
ides 461
ust@@ 461
ωτερ@@ 461
AE@@ 460
Frances@@ 460
star 460
ven 460
27,@@ 459
B.@@ 459
LO@@ 459
Nic@@ 459
Prince 459
Sto@@ 459
Fair@@ 458
Trav@@ 458
ein@@ 458
istr@@ 458
augh@@ 457
online 457
ἡ 457
Just 456
Moon 456
Shar@@ 456
Web@@ 456
ech@@ 456
long@@ 456
ste@@ 456
DF 455
Dan@@ 455
Express 455
Heinrich 455
Ludwig 455
etti 455
lay@@ 455
uli@@ 455
ῳ 455
Bob 454
FF 454
R.@@ 454
Syst@@ 454
æ@@ 454
Sz@@ 453
ert 453
ă@@ 453
Lov@@ 452
Sound 452
ami@@ 452
bel@@ 452
ef 452
sin@@ 452
Bay 451
Georg 451
data 451
inal 451
iy@@ 451
ks@@ 451
level 451
¨ 451
Bern@@ 450
Chall@@ 450
Sl@@ 450
án 450
Kir@@ 449
River 449
ort 449
Battle 448
Brit@@ 448
Kan@@ 448
land@@ 448
vel@@ 448
Div@@ 447
Family 447
GP@@ 447
Tu@@ 447
aka 447
Def@@ 446
Jackson 446
Steve 446
ads 446
face 446
iger 446
Bau@@ 445
Global 445
Maz@@ 445
NBC 445
eter 445
Fil@@ 444
SE 444
Vel@@ 444
cop@@ 444
mac@@ 444
å@@ 444
56@@ 443
66@@ 443
Antonio 443
Bom@@ 443
duc@@ 443
ux 443
Cho@@ 442
Mé@@ 442
Num@@ 442
USA 442
VIII 442
Web 442
acy 442
cin@@ 442
alia 441
hard@@ 441
Ηρα@@ 441
Cru@@ 440
Mik@@ 440
Pot@@ 440
Theater 440
bur@@ 440
ce@@ 440
ws 440
E. 439
With 439
ision 439
offs 439
tig@@ 439
ו@@ 439
Chart 438
DO@@ 438
Kis@@ 438
Now 438
Rich@@ 438
ages 438
bach 438
down 438
gen 438
manga 438
Campbell 437
TO@@ 437
Tot@@ 437
sur@@ 437
And 436
Ep@@ 436
IBM 436
Phil@@ 436
UR@@ 436
dex 436
ild 436
ots 436
ther@@ 436
᾽ 436
Acc@@ 435
Tim@@ 435
Van@@ 435
res 435
Junior 434
Vis@@ 434
Vit@@ 434
cel@@ 434
gin 434
her 434
ώργ@@ 434
Cop@@ 433
Gir@@ 433
TH@@ 433
bir@@ 433
esis 433
ː@@ 433
4000 432
Diam@@ 432
web@@ 432
Angeles 431
bal@@ 431
ban 431
ð@@ 431
II@@ 430
Service 430
bit@@ 430
inf@@ 430
ion@@ 430
½ 430
53@@ 429
Head 429
Ze@@ 429
dan 429
ket@@ 429
til@@ 429
ú@@ 429
Chr@@ 428
Gaz@@ 428
Henri 428
enberg 428
eti@@ 428
ΐ 428
kl@@ 427
mu@@ 427
ἶ@@ 427
Doctor 426
odi@@ 426
н@@ 426
Bot@@ 425
Let@@ 425
ON@@ 425
tom 425
Aur@@ 424
Pun@@ 424
Women 424
lati@@ 424
υζαντιν@@ 424
26,@@ 423
Jr 423
Pen@@ 423
wi@@ 423
François 422
fur@@ 422
non 422
εναντί@@ 422
Af@@ 421
Arti@@ 421
EN@@ 421
M. 421
Under 421
acc@@ 421
Ç@@ 421
ΐου 421
27.@@ 420
Comput@@ 420
Premier 420
Sing@@ 420
ores 420
tre 420
Grande 419
Liga 419
cho 419
station 419
Joe 418
Sor@@ 418
emp@@ 418
lam 418
ῇ 418
198@@ 417
59@@ 417
Math@@ 417
Scar@@ 417
og 417
99@@ 416
Brothers 416
Cour@@ 416
Hard@@ 416
anne 416
cast 416
cio 416
ischer 416
ord 416
ties 416
ā 416
23,@@ 415
F.@@ 415
Fle@@ 415
Wrest@@ 415
Ker@@ 414
ace@@ 414
Hand@@ 413
Tam@@ 413
att@@ 413
ém@@ 413
ă 413
Central 412
Ernst 412
cat@@ 412
ital 412
year 412
вич 412
God@@ 411
Over 411
Publ@@ 411
af 411
alls 411
eum 411
kins 411
119 410
Ay@@ 410
Town 410
ando 410
cal 410
comp@@ 410
ester 410
pedia 410
sus 410
ums 410
Cou@@ 409
Soci@@ 409
ect@@ 409
iss 409
ow 409
í 409
Enter@@ 408
Hur@@ 408
Peter@@ 408
Public 408
aft 408
ward 408
Pop@@ 407
Sin@@ 407
ban@@ 407
itz@@ 407
uf@@ 407
ե@@ 407
Kat@@ 406
Mill@@ 406
anime 406
aw 406
ker@@ 406
Summer 405
oks 405
rap@@ 405
ris 405
Dam@@ 404
Jan@@ 404
AG@@ 403
Bru@@ 403
Hav@@ 403
Sea 403
Vari@@ 403
ado@@ 403
dio 403
Kit@@ 402
oz@@ 402
ń@@ 402
Ball@@ 401
Rose 401
ip@@ 401
Μέχ@@ 401
Atlantic 400
Cast@@ 400
Lot@@ 400
Sci@@ 400
Sher@@ 400
P.@@ 399
alt@@ 398
mix@@ 398
pers 398
ror 398
ë 398
Pok@@ 397
ades 397
ein 397
tre@@ 397
А@@ 397
Europa 396
Prim@@ 396
Simon 396
dier 396
ede@@ 396
even 396
hop 396
Am 395
Harris 395
Ric@@ 395
Will 395
anga 395
ground 395
Avi@@ 394
Bour@@ 394
NCAA 394
Ray 394
yl 394
Chap@@ 393
Good@@ 393
Sem@@ 393
ader 393
boy 393
ects 393
tem@@ 393
Bou@@ 392
Cle@@ 392
Wa@@ 392
iro 392
ont 392
red 392
Ari@@ 391
Eth@@ 391
He 391
Not 391
Pu@@ 391
Tit@@ 391
esta 391
yon@@ 391
ü@@ 391
Blan@@ 390
Chem@@ 390
End 390
Under@@ 390
ext 390
los 390
mus@@ 390
ques 390
ween 390
Alfred 389
Associ@@ 389
Douglas 389
Hoff@@ 389
When 389
pal@@ 389
DI 388
Dy@@ 388
Sn@@ 388
Design 387
Direc@@ 387
eur 387
occer 387
zz@@ 387
197@@ 386
Gri@@ 386
asi@@ 386
avi@@ 386
mas 386
not 386
Θεσσαλον@@ 386
† 386
awa 385
eu 385
men@@ 385
mus 385
own 385
193@@ 384
Mic@@ 384
Pop 384
Radi@@ 384
Victor 384
Lim@@ 383
Od@@ 383
Tod@@ 383
alb@@ 383
ating 383
lers 383
ɪ@@ 383
ἡ@@ 383
Comp@@ 382
HC 382
José 382
L.@@ 382
bi 382
dren 382
eca 382
edi@@ 382
ink 382
rem@@ 382
ron 382
ship 382
Tou@@ 381
Wolf 381
hal@@ 381
stream 381
syn@@ 381
ś@@ 381
Girls 380
Roy@@ 380
Standard 380
LG@@ 379
Mand@@ 379
Max@@ 379
Wel@@ 379
ag 379
blu@@ 379
err@@ 379
yes 379
ն@@ 379
Daw@@ 378
Dic@@ 378
Francisco 378
Progr@@ 378
Rod@@ 378
Tan@@ 378
da@@ 378
ren@@ 378
sho@@ 378
Barr@@ 377
Buc@@ 377
Ing@@ 377
Kom@@ 377
Orig@@ 377
Place 377
Point 377
Sau@@ 377
V. 377
cy@@ 377
ellen@@ 377
ric@@ 377
и 377
Kle@@ 376
NAT@@ 376
Stars 376
Three 376
form@@ 376
sit@@ 376
via 376
AB 375
Alice 375
Development 375
Human 375
Inst@@ 375
Kl@@ 375
cript 375
cy 375
dec@@ 375
ons@@ 375
wal@@ 375
ès 375
és 375
ἑ@@ 375
Den@@ 374
Anti@@ 373
Autom@@ 373
D.@@ 373
Dav@@ 373
Run@@ 373
Songs 373
ardo 373
ig 373
not@@ 373
Kam@@ 372
emann 372
ide@@ 372
ка 372
ὀ@@ 372
Ash@@ 371
Billy 371
if 371
out@@ 371
О@@ 371
Jud@@ 370
thi@@ 370
unter 370
Elizabeth 369
Lat@@ 369
Library 369
So 369
arc@@ 369
ario 369
mb@@ 369
rom@@ 369
् 369
Chris 368
elo 368
mont 368
ols 368
sch 368
vin@@ 368
Opera 367
Type 367
ches 367
dis 367
gh@@ 367
uth 367
εδρος 367
Guy 366
Mass@@ 366
je@@ 366
а 366
AV@@ 365
Amaz@@ 365
Anne 365
Chrys@@ 365
Juan 365
Lake 365
Tul@@ 365
cia 365
fal@@ 365
oli 365
org@@ 365
ories 365
él@@ 365
Act 364
Der@@ 364
USS 364
ason 364
bus@@ 364
ebr@@ 364
gal@@ 364
ique 364
Princ@@ 363
Sig@@ 363
mot@@ 363
ules 363
worth 363
ʲ@@ 363
≤ 363
IO@@ 362
Ian 362
Lem@@ 362
bury 362
mal@@ 362
trol 362
й 362
Empire 361
Java 361
aham 361
anna 361
esa 361
gi 361
len 361
Eg@@ 360
Fun@@ 360
Techn@@ 360
tho@@ 360
152 359
Ret@@ 359
Vog@@ 359
hol@@ 359
water 359
Federation 358
iti 358
Centre 357
Lou@@ 357
SI@@ 357
Special 357
body 357
Commun@@ 356
Donald 356
Nik@@ 356
cep@@ 356
los@@ 356
lum 356
oper 356
tronic 356
yan 356
Ş@@ 356
Wood@@ 355
dri@@ 355
emati@@ 355
iga 355
section 355
sson 355
uke 355
verse 355
vor 355
wo@@ 355
yst@@ 355
Serie 354
taine 354
ი@@ 354
Archit@@ 353
Hab@@ 353
Law@@ 353
Ober@@ 353
ev 353
fil@@ 353
mail 353
nu@@ 353
ume 353
μπουμ 353
В@@ 353
ATP 352
Tak@@ 352
heim 352
ishi 352
nm 352
var@@ 352
ī 352
Doc@@ 351
Log@@ 351
Mike 351
Otto 351
Wilson 351
Ö@@ 351
From 350
Moh@@ 350
T.@@ 350
aun@@ 350
now@@ 350
polis 350
uri 350
Dro@@ 349
Plus 349
Town@@ 349
agn@@ 349
für 349
lif@@ 349
outh 349
struc@@ 349
Adri@@ 348
Ant@@ 348
Bach@@ 348
Inv@@ 348
Stephen 348
Technology 348
abr@@ 348
ache 348
lem 348
Lis@@ 347
Om@@ 347
Pul@@ 347
eu@@ 347
unk@@ 347
ἱ@@ 347
Mountain 346
Ther@@ 346
kil@@ 346
ses 346
Cav@@ 345
Johnny 345
Les@@ 345
k.@@ 345
Andrew 344
Bla@@ 344
California 344
HP 344
Independ@@ 344
Tony 344
bie 344
fol@@ 344
ills 344
illy 344
tol@@ 344
р 344
cel 343
nia 343
tern@@ 343
that 343
Captain 342
Chron@@ 342
night 342
onom@@ 342
was 342
Ξ 342
ἱ 342
Jacob 341
Nat@@ 341
н 341
Mun@@ 340
Pit@@ 340
Rad@@ 340
Studi@@ 340
Tab@@ 340
esti@@ 340
ete 340
ophie 340
yd@@ 340
Dod@@ 339
Management 339
Miller 339
aster 339
esse 339
ham@@ 338
pper 338
prim@@ 338
trans@@ 338
к 338
After 337
Hat@@ 337
Industri@@ 337
eer 337
uto 337
ви@@ 337
Aqu@@ 336
enni@@ 336
ishing 336
tz 336
Č@@ 336
И@@ 336
ская 336
″ 336
Limited 335
Mob@@ 335
Over@@ 335
Sup@@ 335
ego 335
ident 335
ives 335
world 335
yer 335
Champ@@ 334
Mod@@ 334
Sha@@ 334
Stre@@ 334
ty@@ 334
zen 334
εκόρ 334
е 334
Board 333
Rum@@ 333
Thi@@ 333
egr@@ 333
ido 333
ont@@ 333
pun@@ 333
shire 333
ն 333
Adam 332
Hul@@ 332
Miss 332
bar 332
ju@@ 332
By@@ 331
aud 331
blo@@ 331
igi 331
super@@ 331
tia 331
Ό 331
Arc@@ 330
August 330
Bud@@ 330
Bus@@ 330
Gas@@ 330
Ton@@ 330
don@@ 330
esi 330
1.5 329
Country 329
Cros@@ 329
Pra@@ 329
Sund@@ 329
din 329
ular 329
unt 329
евич 329
Nati@@ 328
Phili@@ 328
Var@@ 328
ady 328
bon 328
sions 328
try 328
CS 327
Deb@@ 327
Got@@ 327
aise 327
icum 327
Cambridge 326
DV@@ 326
H. 326
Luci@@ 326
Sul@@ 326
host@@ 326
san@@ 326
sz@@ 326
Et@@ 325
ann 325
anti 325
bot@@ 325
dor@@ 325
ery 325
imb@@ 325
ę@@ 324
Anton@@ 323
Bell@@ 323
Capit@@ 323
Francis 323
Franz 323
Memorial 323
Modern 323
Square 323
WW@@ 323
bank 323
crip@@ 323
hom@@ 323
hor@@ 323
position 323
Fe 322
Law 322
Michel 322
Som@@ 322
ago 322
com 322
lig@@ 322
š 322
Racing 321
cell@@ 321
mond 321
pus 321
sec@@ 321
yo 321
Arn@@ 320
Maj@@ 320
Motor 320
Nich@@ 320
cht 320
cyc@@ 320
lad@@ 320
lois 320
pin@@ 320
Anthony 319
Boy@@ 319
Syn@@ 319
There 319
aha 319
anum 319
class 319
Ή 319
ομάδ@@ 319
Fab@@ 318
Hun@@ 318
TC 318
att 318
mak@@ 318
rd 318
vis@@ 318
Church 317
Feder@@ 317
Pil@@ 317
Reichs@@ 317
Tow@@ 317
ands 317
arts 317
black 317
bon@@ 317
ւ@@ 317
20th 316
Album 316
Fas@@ 316
Gran@@ 316
master 316
mis@@ 316
Hermann 315
Pom@@ 315
book 315
craft 315
eine 315
lio 315
ē@@ 315
в@@ 315
я 315
App@@ 314
Flor@@ 314
GmbH 314
Lit@@ 314
T. 314
eno 314
och@@ 314
owski 314
tron@@ 314
αφος 314
Ἑ@@ 314
EC 313
NS 313
Pay@@ 313
Poly@@ 313
anger@@ 313
can 313
cha 313
endi 313
lands 313
zu 313
Boul@@ 312
Port@@ 312
aris 312
gs 312
imo 312
occ@@ 312
wer 312
Bod@@ 311
Classi@@ 311
Harry 311
Kol@@ 311
Lac@@ 311
Moore 311
ather 311
win@@ 311
ye@@ 311
в 311
Fa@@ 310
Kenn@@ 310
Ky@@ 310
North@@ 310
dou@@ 310
pres@@ 310
uss@@ 310
ï@@ 310
Aus@@ 309
Ki@@ 309
Metro 309
bun@@ 309
isti@@ 309
kan 309
sons 309
Gold 308
Kos@@ 308
Nacional 308
Pos@@ 308
Rand@@ 308
ango 308
arius 308
aut 308
bs 308
eti 308
pa@@ 308
Alliance 307
Japan 307
Oxford 307
Sax@@ 307
etto 307
tal 307
urn@@ 307
vers@@ 307
К@@ 307
DR 306
Valley 306
Zi@@ 306
eder@@ 306
studio 306
ва 306
2.5 305
Bibli@@ 305
Films 305
Italia 305
kom@@ 305
olo@@ 305
Conn@@ 304
Council 304
Ku@@ 304
NCA@@ 304
Stil@@ 304
Terr@@ 304
bil@@ 304
idi@@ 304
mula 304
sum@@ 304
@ 303
Carlo 303
Domin@@ 303
Long@@ 303
Sport@@ 303
aves 303
car 303
eck@@ 303
lit@@ 303
oa 303
oro 303
Alan 302
Theod@@ 302
Yor@@ 302
dé@@ 302
ité 302
ken@@ 302
ple@@ 302
yan@@ 302
Beh@@ 301
Coun@@ 301
Greg@@ 301
Kre@@ 301
N.@@ 301
kel@@ 301
nationale 301
tice 301
ῃ 301
Philos@@ 300
Rober@@ 300
Rou@@ 300
bers 300
formation 300
nis 300
tern 300
Abr@@ 299
Pet@@ 299
Software 299
Thom@@ 299
bet@@ 299
lot 299
mit 299
new 299
ous@@ 299
vey 299
H.@@ 298
edy 298
kers 298
ի@@ 298
Carlos 297
Ple@@ 297
chen 297
ett@@ 297
gia 297
quot 297
tan 297
tha 297
Ass@@ 296
Canada 296
Cher@@ 296
Cross 296
Din@@ 296
Eli@@ 296
Green@@ 296
Gul@@ 296
Howard 296
enzo 296
iko 296
jo@@ 296
orio 296
oy 296
pat@@ 296
2500 295
anci@@ 295
bra 295
ells 295
enburg 295
main 295
ube 295
Joh@@ 294
eter@@ 294
list 294
project 294
ues 294
wor@@ 294
ą@@ 294
SR 293
atic 293
führer 293
ges 293
ird 293
ose 293
sig@@ 293
192@@ 292
English 292
Mars 292
Yam@@ 292
dal@@ 292
idi 292
itas 292
phone 292
tiv@@ 292
Ben 291
Cass@@ 291
Samuel 291
esp@@ 291
igo 291
kel 291
phy 291
tom@@ 291
umb@@ 291
ár@@ 291
Maur@@ 290
Pier@@ 290
ancia 290
aqu@@ 290
imi 290
prise 290
rati@@ 290
sem@@ 290
works 290
ères 290
Eric 289
Ot@@ 289
active 289
dig@@ 289
has@@ 289
ites 289
les@@ 289
vic@@ 289
za@@ 289
д@@ 289
.S. 288
FL 288
Lyn@@ 288
Pel@@ 288
dale 288
П@@ 288
Kap@@ 287
Kas@@ 287
ación 287
dium 287
sk 287
à@@ 287
î@@ 287
ὁ@@ 287
Christopher 286
Davis 286
Ele@@ 286
Fur@@ 286
ho 286
lor@@ 286
oke 286
190@@ 285
IB@@ 285
Jim 285
anta 285
eppe 285
lins 285
table 285
м@@ 285
Apol@@ 284
Broad@@ 284
Cla@@ 284
Fall 284
Hein@@ 284
Imp@@ 284
Roger 284
fu@@ 284
kon@@ 284
ographi@@ 284
ía 284
Brand@@ 283
Eas@@ 283
Haz@@ 283
Test@@ 283
Wiki@@ 283
aul@@ 283
ember 283
ji@@ 283
self 283
Ἰ@@ 283
Extr@@ 282
Willi@@ 282
erie 282
ree 282
round 282
ακολ@@ 282
л@@ 282
א@@ 282
four 281
ingo 281
nor@@ 281
osp@@ 281
poem 281
pon 281
tres 281
ump@@ 281
Beach 280
Conference 280
Lic@@ 280
SPD 280
Sierra 280
ames 280
anced 280
eli 280
enger 280
khe@@ 280
mil@@ 280
opp@@ 280
ène 280
ş@@ 280
с@@ 280
ὡ@@ 280
184@@ 279
Brian 279
Sak@@ 279
Viol@@ 279
dom 279
nus 279
wen@@ 279
Alexand@@ 278
Lincoln 278
Maxim@@ 278
Stadi@@ 278
States 278
Tas@@ 278
aco 278
adr@@ 278
atum 278
ency 278
opus 278
post 278
к@@ 278
Europ@@ 277
Hir@@ 277
Social 277
get 277
kol@@ 277
two 277
var 277
ô@@ 277
Jos@@ 276
Lag@@ 276
Lon@@ 276
Mart@@ 276
any@@ 276
asi 276
edia 276
edom 276
eph@@ 276
onic 276
sim@@ 276
test 276
ush 276
─ 276
K.@@ 275
Organ@@ 275
Un 275
Bran@@ 274
Cra@@ 274
Jane 274
Order 274
Pav@@ 274
Syl@@ 274
alis@@ 274
arti@@ 274
enta 274
isher 274
medi@@ 274
ords 274
pul@@ 274
Aff@@ 273
Ind@@ 273
Libr@@ 273
Profes@@ 273
aine 273
emb@@ 273
gar 273
stan@@ 273
αποφάσι@@ 273
Bask@@ 272
Bra@@ 272
Dest@@ 272
Lé@@ 272
Rub@@ 272
Stan@@ 272
adi 272
wiki 272
yg@@ 272
öl@@ 272
Frederick 271
Ka@@ 271
aph@@ 271
dance 271
ear@@ 271
lev@@ 271
lip 271
mir@@ 271
uh@@ 271
How@@ 270
tura 270
ū 270
Ble@@ 269
Christi@@ 269
County 269
Kaz@@ 269
Kingdom 269
begin 269
design 269
iter 269
lery 269
na@@ 269
sequ@@ 269
vi 269
Historia 268
aries 268
bis 268
esh 268
gir@@ 268
group 268
ij@@ 268
რ@@ 268
Bob@@ 267
Nas@@ 267
Rein@@ 267
Sciences 267
ait 267
band 267
ἴ@@ 267
Berlin 266
Che@@ 266
Highway 266
Hot@@ 266
Johannes 266
Key@@ 266
Name 266
Nick 266
Sir@@ 266
ational 266
gro@@ 266
ici 266
sh 266
site 266
ste 266
ль@@ 266
Das 265
Gard@@ 265
Georges 265
fun@@ 265
icia 265
lav 265
ü 265
Alex 264
Bed@@ 264
Jus@@ 264
Port 264
Ry@@ 264
Single 264
angers 264
fire 264
form 264
law 264
Bac@@ 263
Boston 263
Cham@@ 263
Franc@@ 263
Health 263
Mess@@ 263
Wright 263
power 263
υργκ 263
ш@@ 263
Lind@@ 262
Nak@@ 262
aker 262
alt 262
wan@@ 262
έπρ@@ 262
ιδρ@@ 262
κτρ@@ 262
Mam@@ 261
amar@@ 261
amo@@ 261
idge 261
vil@@ 261
Andrea 260
Contin@@ 260
Villa 260
come 260
nic@@ 260
othe@@ 260
Dame 259
Emer@@ 259
Prom@@ 259
Tek@@ 259
Trin@@ 259
Wid@@ 259
You@@ 259
aking 259
igu@@ 259
ku 259
lon 259
solo 259
span 259
tier 259
under 259
van@@ 259
ר@@ 259
ー@@ 259
At 258
Bruce 258
Jay 258
cou@@ 258
itor 258
,000 257
Cha@@ 257
Prov@@ 257
Rog@@ 257
Strat@@ 257
Vik@@ 257
asa 257
inda 257
pes 257
progres@@ 257
stone 257
sung 257
viv@@ 257
ე@@ 257
Bad@@ 256
Ern@@ 256
Galax@@ 256
Lap@@ 256
Rho@@ 256
Ross 256
bau@@ 256
ective 256
life 256
uta 256
Hus@@ 255
María 255
Ny@@ 255
ashi 255
eron 255
rie 255
uld 255
а@@ 255
Pear@@ 254
cho@@ 254
cros@@ 254
dit 254
eva 254
gers 254
ine@@ 254
ising 254
sburg 254
sex 254
system 254
tra@@ 254
uz 254
xi@@ 254
у@@ 254
յ@@ 254
Franç@@ 253
Gib@@ 253
IT 253
Micro@@ 253
Tat@@ 253
Vas@@ 253
acks 253
iri 253
Crim@@ 252
Ein@@ 252
Fon@@ 252
Fort@@ 252
Leb@@ 252
Phoen@@ 252
oir 252
ui 252
Ελλάδ@@ 252
и@@ 252
Ale@@ 251
Coc@@ 251
Ec@@ 251
Fem@@ 251
Fili@@ 251
Monte 251
Pass@@ 251
Roy 251
Sev@@ 251
Um@@ 251
any 251
club 251
cs 251
ec 251
ications 251
mar 251
mun@@ 251
orn 251
uk 251
yi 251
Born 250
Cant@@ 250
Lan@@ 250
acle 250
anny 250
fic@@ 250
ls 250
min 250
oi 250
ò@@ 250
ż@@ 250
о 250
AK@@ 249
Bec@@ 249
Benjamin 249
Claude 249
Stur@@ 249
Yah@@ 249
hab@@ 249
han 249
iva 249
nov@@ 249
Has@@ 248
Id@@ 248
Mom@@ 248
See 248
aca 248
ails 248
eni 248
illo 248
kan@@ 248
nier 248
ín 248
Kath@@ 247
gency 247
illing 247
isi 247
ute 247
Education 246
Jam@@ 246
Rab@@ 246
abl@@ 246
lan 246
pri@@ 246
rup@@ 246
т@@ 246
ὕ@@ 246
Kad@@ 245
Patrick 245
Soc@@ 245
Was@@ 245
Wes@@ 245
ck@@ 245
neg@@ 245
Naz@@ 244
Philip 244
Wan@@ 244
eds 244
itar 244
lar 244
ological 244
osh@@ 244
sin 244
tera 244
tle 244
М@@ 244
Antoine 243
Arg@@ 243
Bridge 243
Deutsch@@ 243
Iz@@ 243
Las@@ 243
bot 243
ffer@@ 243
flu@@ 243
iles 243
ric 243
tab@@ 243
Hop@@ 242
Itali@@ 242
Jimmy 242
Pad@@ 242
aa 242
anth@@ 242
ops 242
sm@@ 242
Б@@ 242
ი 242
Milit@@ 241
Motor@@ 241
Roman 241
ague 241
ape 241
asse 241
enf@@ 241
sberg 241
ñ@@ 241
Clau@@ 240
French 240
Julius 240
L. 240
Nicolas 240
Russell 240
Tol@@ 240
apo@@ 240
bin 240
ineering 240
return 240
xe 240
är@@ 240
δεκαετ@@ 240
ὄ@@ 240
ὶ@@ 240
Bernard 239
Indi@@ 239
Lav@@ 239
Louise 239
Neg@@ 239
Vincent 239
fo 239
ift 239
into 239
ior 239
mol@@ 239
ton@@ 239
usi@@ 239
Allen 238
May 238
Pacific 238
XI 238
deg@@ 238
fan 238
ization 238
ling@@ 238
nch@@ 238
ott 238
sor@@ 238
unds 238
া@@ 238
Grim@@ 237
High@@ 237
Universit@@ 237
alen 237
elor 237
ists 237
nom@@ 237
onder@@ 237
teri@@ 237
B. 236
If 236
She 236
Texas 236
bal 236
board 236
gel@@ 236
qua 236
vit@@ 236
ò 236
ɛ@@ 236
Ϊ@@ 236
ский 236
3.5 235
Committee 235
Gordon 235
Pac@@ 235
Republic 235
Ré@@ 235
Water@@ 235
Zo@@ 235
ading 235
ave@@ 235
geh@@ 235
opo@@ 235
orer 235
point 235
rac@@ 235
stor@@ 235
Ast@@ 234
Boh@@ 234
Carol@@ 234
Cath@@ 234
EE 234
Kevin 234
Psych@@ 234
Sant@@ 234
ament 234
ities 234
ulus 234
Agr@@ 233
Buil@@ 233
Eug@@ 233
Pedro 233
aly@@ 233
arch 233
tam@@ 233
tural 233
éri@@ 233
Ф@@ 233
Gau@@ 232
Harvard 232
Isab@@ 232
Las 232
Margaret 232
Olympic 232
Peti@@ 232
aks 232
andro 232
atar 232
dh@@ 232
ender 232
eria 232
iki@@ 232
tari 232
value 232
Adolf 231
Africa 231
Ner@@ 231
Tokyo 231
atz@@ 231
bin@@ 231
bol@@ 231
bri@@ 231
kur@@ 231
mul@@ 231
ner@@ 231
oca 231
osis 231
tique 231
uli 231
án@@ 231
ür@@ 231
André 230
Audi@@ 230
Fir@@ 230
Geor@@ 230
Moz@@ 230
eton 230
hil 230
inae 230
rea 230
room 230
õ@@ 230
Г@@ 230
Ach@@ 229
Bug@@ 229
Bundes@@ 229
Cand@@ 229
Dal@@ 229
Gö@@ 229
King@@ 229
Mey@@ 229
Reich@@ 229
Ses@@ 229
Stand@@ 229
coun@@ 229
hit 229
illi@@ 229
pas@@ 229
print 229
som@@ 229
uni@@ 229
ysis 229
ów 229
Hit@@ 228
Kauf@@ 228
Mut@@ 228
Ryan 228
achi 228
casting 228
code 228
dre@@ 228
ography 228
pole 228
pour 228
ulu 228
vid@@ 228
з@@ 228
Barbara 227
Ni 227
Phys@@ 227
ben@@ 227
icul@@ 227
ilia 227
ld@@ 227
ley@@ 227
ouv@@ 227
rad 227
rier 227
sou@@ 227
Broadway 226
By 226
Jon@@ 226
Manuel 226
Ten@@ 226
Wag@@ 226
bac@@ 226
liv@@ 226
mark 226
mem@@ 226
omb@@ 226
sters 226
town 226
Benn@@ 225
Bush 225
Parti@@ 225
President 225
acia 225
alo 225
cro@@ 225
ering 225
evi@@ 225
port@@ 225
umin@@ 225
έδια 225
Д@@ 225
Bapti@@ 224
Feli@@ 224
Jazz 224
Nord@@ 224
Papa 224
Quer@@ 224
Squ@@ 224
cent@@ 224
igg@@ 224
ires 224
like 224
put 224
status 224
usa 224
version 224
wh@@ 224
xon 224
è 224
ɾ@@ 224
Ми@@ 224
Brun@@ 223
Community 223
Dave 223
Grec@@ 223
Son 223
Vor@@ 223
my@@ 223
this 223
tum 223
vier 223
Jar@@ 222
Justice 222
Rep@@ 222
ca@@ 222
cot@@ 222
edo 222
fran@@ 222
nd@@ 222
que@@ 222
wa@@ 222
ê@@ 222
ко 222
т 222
--@@ 221
Court 221
Gustav 221
Hey@@ 221
Hin@@ 221
Institut 221
Neu@@ 221
Shin@@ 221
Steph@@ 221
Tex@@ 221
forman@@ 221
gene 221
mos 221
ned 221
stadt 221
tin@@ 221
ы@@ 221
Fort 220
Hof@@ 220
S. 220
aye 220
ben 220
elles 220
fort 220
meth@@ 220
onne 220
pic@@ 220
sap@@ 220
ù 220
Ali 219
Another 219
Dé@@ 219
England 219
Oper@@ 219
Sid@@ 219
Sultan 219
esh@@ 219
oti@@ 219
oug@@ 219
tt@@ 219
ön@@ 219
0s 218
Ah@@ 218
Inc. 218
Kel@@ 218
Suz@@ 218
Wall@@ 218
aux@@ 218
fas@@ 218
lier 218
oper@@ 218
ule 218
urg 218
wil@@ 218
work 218
zer 218
Flam@@ 217
Matthe@@ 217
Priv@@ 217
SK 217
Shak@@ 217
feld 217
hin@@ 217
inga 217
vis 217
Army 216
Baker 216
Brig@@ 216
Int@@ 216
Meth@@ 216
Nord 216
Western 216
bat 216
ecture 216
elen 216
fic 216
tico 216
vie 216
ლ@@ 216
Anderson 215
Castle 215
Gabriel 215
Lau@@ 215
Stand 215
Ster@@ 215
league 215
phon@@ 215
ry@@ 215
sort 215
ud 215
У@@ 215
1. 214
Athle@@ 214
Cec@@ 214
Gem@@ 214
Kelly 214
Southern 214
Up@@ 214
agon@@ 214
alism 214
aro@@ 214
asc@@ 214
cam@@ 214
chia 214
elia 214
entr@@ 214
inde@@ 214
top@@ 214
ə 214
ב@@ 214
Charlotte 213
Di 213
Medical 213
Panz@@ 213
Second 213
best 213
dam@@ 213
ister@@ 213
plat@@ 213
rot@@ 213
vention 213
ουστο 213
ра@@ 213
ἦ@@ 213
Bit@@ 212
Lanc@@ 212
Nations 212
Thé@@ 212
XX 212
aer@@ 212
ate@@ 212
auer 212
fore 212
imal 212
olas 212
plic@@ 212
ps@@ 212
spr@@ 212
word 212
מ@@ 212
Austin 211
Beg@@ 211
Charlie 211
Hamilton 211
Luis 211
Marc 211
Operation 211
Sarah 211
evo 211
marine 211
par 211
pen 211
∈ 211
Nag@@ 210
Pod@@ 210
Sebasti@@ 210
ahn 210
avo 210
def@@ 210
down@@ 210
eff 210
ices 210
ilk 210
lip@@ 210
pon@@ 210
ski@@ 210
yo@@ 210
Bak@@ 209
Kun@@ 209
adem@@ 209
eg 209
gan@@ 209
vec@@ 209
war 209
where 209
у 209
Ax@@ 208
Batt@@ 208
Eff@@ 208
Hospital 208
Pow@@ 208
alp@@ 208
dol@@ 208
home 208
ney@@ 208
onal 208
tran@@ 208
urus 208
ě@@ 208
Bag@@ 207
Jur@@ 207
Xi@@ 207
ead 207
ept@@ 207
ogr@@ 207
й@@ 207
о@@ 207
I. 206
Kennedy 206
Ras@@ 206
Stud@@ 206
abe 206
aç@@ 206
etz@@ 206
isches 206
lard 206
mtDNA 206
omi 206
pi 206
pot 206
urg@@ 206
wen 206
Arab@@ 205
Asia 205
Christ 205
G. 205
Spar@@ 205
U.S. 205
abri@@ 205
but@@ 205
ige 205
kw@@ 205
ras@@ 205
tag 205
tz@@ 205
Elek@@ 204
Jak@@ 204
Kim 204
Nicol@@ 204
Philippe 204
Wer@@ 204
control 204
ichi 204
kul@@ 204
ob 204
oon 204
Ά 204
е@@ 204
Casa 203
Clu@@ 203
Fron@@ 203
Main@@ 203
equ@@ 203
fri@@ 203
public 203
thin 203
大@@ 203
Alber@@ 202
Lep@@ 202
Maurice 202
Wayne 202
affen 202
away 202
ledge 202
leri 202
servat@@ 202
ț@@ 202
Н@@ 202
ро@@ 202
∞ 202
Apo@@ 201
Mission 201
Riv@@ 201
arry 201
dat@@ 201
estruc@@ 201
fast 201
fel@@ 201
fi 201
lies 201
rain 201
wald 201
на@@ 201
ה@@ 201
185@@ 200
Democ@@ 200
Pf@@ 200
Py@@ 200
Rudolf 200
Sieg@@ 200
aud@@ 200
ces@@ 200
change 200
film 200
izer 200
ment@@ 200
sing 200
spir@@ 200
Т@@ 200
Centr@@ 199
Da 199
Marco 199
Ox@@ 199
Roma 199
Walker 199
aborat@@ 199
ainst 199
aliz@@ 199
cine 199
eling 199
eps 199
gener@@ 199
ial 199
lav@@ 199
lov@@ 199
ments 199
spec@@ 199
ни@@ 199
Back@@ 198
His 198
Jum@@ 198
Rio 198
Robin 198
Sep@@ 198
ables 198
aj 198
alg@@ 198
aut@@ 198
elt 198
gam@@ 198
ils 198
ph 198
prot@@ 198
say 198
ths 198
п@@ 198
Ann 197
Catal@@ 197
Iv@@ 197
adio 197
ej@@ 197
etz 197
flo@@ 197
inst@@ 197
kal@@ 197
onale 197
sam@@ 197
Cot@@ 196
German@@ 196
Herbert 196
Hugo 196
Liter@@ 196
Revol@@ 196
dem 196
din@@ 196
ges@@ 196
hand@@ 196
number 196
pil@@ 196
space 196
ça 196
ña 196
ь 196
Jul@@ 195
Mau@@ 195
Rit@@ 195
Sas@@ 195
Telev@@ 195
agen 195
anos 195
death 195
dings 195
este 195
onal@@ 195
rich 195
sional 195
uer@@ 195
BT 194
China 194
Ear@@ 194
Eins@@ 194
Rid@@ 194
Sam 194
Stanley 194
alus 194
las@@ 194
perial 194
tit@@ 194
vet 194
Ferdinand 193
Nam@@ 193
Plan 193
Sign@@ 193
Société 193
antes 193
dans 193
rich@@ 193
sts 193
χρι 193
ἁ@@ 193
Dan 192
Morgan 192
Virginia 192
Yel@@ 192
igh 192
liber@@ 192
lim@@ 192
lit 192
nu 192
qui 192
tional 192
vul@@ 192
Andr@@ 191
Clin@@ 191
Sti@@ 191
amo 191
ators 191
dea 191
dres@@ 191
els@@ 191
enia 191
hel@@ 191
ien 191
imler 191
pedi@@ 191
poli@@ 191
ö 191
Elisabeth 190
Guillaume 190
Ou@@ 190
Raymond 190
Rhy@@ 190
allas 190
astr@@ 190
burn 190
fried 190
iner 190
ini@@ 190
ru 190
sta 190
val 190
Á@@ 190
ска 190
≥ 190
Ja@@ 189
Other 189
Reser@@ 189
cit@@ 189
his 189
okia 189
oli@@ 189
plan 189
put@@ 189
stock 189
unge 189
uno 189
ées 189
ла 189
2. 188
Alex@@ 188
Con 188
Mount 188
Services 188
ext@@ 188
haus 188
legi@@ 188
sac@@ 188
sel 188
urity 188
ı 188
ş 188
мо@@ 188
Ὀ@@ 188
ῖ 188
Brad@@ 187
Bun@@ 187
Exper@@ 187
Gru@@ 187
Harr@@ 187
Ma 187
Poli@@ 187
Thor@@ 187
aba 187
bian 187
chin@@ 187
cos@@ 187
festiv@@ 187
imi@@ 187
isch 187
iz 187
ports 187
ün@@ 187
տ@@ 187
Esp@@ 186
Kurt 186
March 186
Princip@@ 186
aug@@ 186
cri@@ 186
dev@@ 186
eland 186
ix@@ 186
rat 186
ţ@@ 186
ș@@ 186
Р@@ 186
ל@@ 186
Catherine 185
Ey@@ 185
Gel@@ 185
Jun@@ 185
König@@ 185
Latin 185
Lawrence 185
Orange 185
Station 185
Stra@@ 185
dar@@ 185
enci@@ 185
ener 185
eux 185
kes 185
wick 185
ú 185
ῶ 185
Bah@@ 184
Post@@ 184
Winter 184
auch@@ 184
doc@@ 184
ises 184
iterran@@ 184
nam 184
real 184
thing 184
tienne 184
trol@@ 184
ution 184
ма@@ 184
― 184
Fé@@ 183
Josef 183
Lud@@ 183
Marine 183
Roll@@ 183
Spor@@ 183
aja 183
ander@@ 183
ares 183
ease 183
ock@@ 183
uki 183
ש@@ 183
African 182
Laz@@ 182
Leo 182
Nev@@ 182
Norman 182
Prin@@ 182
Revolution 182
Tenn@@ 182
Yo@@ 182
avier 182
ender@@ 182
gy 182
ias 182
mini 182
nos 182
ombe 182
play@@ 182
pur@@ 182
rou@@ 182
volution 182
ἕ@@ 182
ᾳ 182
Alberto 181
Canadian 181
Freder@@ 181
Isa@@ 181
Ok@@ 181
Palm@@ 181
Poc@@ 181
Rail@@ 181
aces 181
acid 181
dos 181
dy@@ 181
micro@@ 181
porter 181
stop 181
ég@@ 181
ř@@ 181
ц@@ 181
„ 181
Bog@@ 180
Emil@@ 180
En 180
Gab@@ 180
Kul@@ 180
arte 180
chan@@ 180
game 180
isch@@ 180
iste 180
ording 180
rik 180
Det@@ 179
Fernando 179
Gran 179
Maine 179
Mr@@ 179
Speci@@ 179
acht 179
etr@@ 179
midt 179
mut@@ 179
osaur@@ 179
188@@ 178
Avenue 178
Baz@@ 178
Fig@@ 178
It@@ 178
J. 178
Lo 178
Major 178
Moder@@ 178
Obj@@ 178
Raf@@ 178
Slo@@ 178
eb 178
lec@@ 178
mes@@ 178
net@@ 178
road 178
Duke 177
Hau@@ 177
Hid@@ 177
Hoh@@ 177
PM 177
Territ@@ 177
amer@@ 177
bridge 177
eil 177
ischen 177
ka@@ 177
manuel 177
ois@@ 177
ough@@ 177
parti@@ 177
schaft 177
tn@@ 177
ć@@ 177
ნ@@ 177
Bruno 176
eff@@ 176
isco 176
ith@@ 176
ì 176
Ž@@ 176
ски 176
Band@@ 175
Dum@@ 175
Emp@@ 175
Fen@@ 175
Notre 175
Su 175
Tig@@ 175
Vinc@@ 175
Yan@@ 175
concept 175
fen@@ 175
oft 175
oshi 175
xa 175
ás 175
до@@ 175
ла@@ 175
ს@@ 175
ン@@ 175
Aj@@ 174
Canal 174
Constant@@ 174
Ji@@ 174
Jordan 174
Milli@@ 174
Nec@@ 174
René 174
XIII 174
aver@@ 174
bey 174
chem@@ 174
elly 174
eur@@ 174
ligence 174
lé@@ 174
main@@ 174
mund 174
ovo 174
prin@@ 174
tak@@ 174
tir@@ 174
ult@@ 174
ד@@ 174
Alter 173
Commission 173
Dim@@ 173
Fat@@ 173
Jonathan 173
Lad@@ 173
Liz@@ 173
Mann@@ 173
R. 173
Secre@@ 173
ancy 173
chr@@ 173
esi@@ 173
idel@@ 173
itation 173
love 173
mand@@ 173
multi@@ 173
ondo 173
ouse 173
see 173
wich 173
д 173
187@@ 172
Denis 172
Gle@@ 172
Miguel 172
NAS@@ 172
agan 172
but 172
lag 172
ligh@@ 172
mel 172
nig@@ 172
player 172
sed 172
sis 172
ungs@@ 172
usha 172
wards 172
âteau 172
͵ 172
◊ 172
Alg@@ 171
Franklin 171
Hud@@ 171
Map@@ 171
Ris@@ 171
Rud@@ 171
Sin 171
South@@ 171
Vin@@ 171
amba 171
ation@@ 171
cial 171
contr@@ 171
essen 171
fir@@ 171
hum@@ 171
lave 171
och 171
oe 171
ologie 171
onym@@ 171
pler 171
poly@@ 171
pot@@ 171
ring 171
state 171
ли@@ 171
я@@ 171
Australian 170
Coast 170
Dru@@ 170
Kö@@ 170
Wind@@ 170
aku 170
asis 170
endi@@ 170
fle@@ 170
illon 170
quar@@ 170
ɣ@@ 170
Ко@@ 170
г@@ 170
נ@@ 170
♦ 170
F. 169
Fam@@ 169
Fritz 169
Len@@ 169
Lucas 169
Sainte 169
Schne@@ 169
atri@@ 169
boy@@ 169
einer 169
enh@@ 169
ern 169
fish 169
hood 169
ilian 169
ize 169
lion 169
phy@@ 169
quit@@ 169
stand 169
tific@@ 169
uj@@ 169
vari@@ 169
і 169
189@@ 168
3. 168
Australia 168
Dist@@ 168
Fall@@ 168
KK 168
Metropolit@@ 168
alla 168
amu 168
bloc@@ 168
itt 168
itter 168
utive 168
éro@@ 168
ı@@ 168
August@@ 167
Bé@@ 167
Eri@@ 167
Hak@@ 167
Jack@@ 167
List 167
Mar 167
Martin@@ 167
Oliver 167
Schwar@@ 167
Sour@@ 167
Spi@@ 167
Teatro 167
Vita 167
Zen@@ 167
berger 167
ements 167
inson 167
kir@@ 167
lob@@ 167
oid 167
quer@@ 167
And@@ 166
Field 166
Leopol@@ 166
Main 166
Moun@@ 166
anza 166
atur@@ 166
een 166
gn@@ 166
imm@@ 166
ingu@@ 166
mode 166
por 166
ris@@ 166
ulo 166
éc@@ 166
Hung@@ 165
Ord@@ 165
ball@@ 165
burgh 165
ching 165
ening 165
ismo 165
jan 165
mani 165
mm@@ 165
ole@@ 165
uter 165
ór@@ 165
ő@@ 165
End@@ 164
Esc@@ 164
Gut@@ 164
Histor@@ 164
Hub@@ 164
Ib@@ 164
Jason 164
Oscar 164
Ost@@ 164
Premi@@ 164
amber 164
eign 164
esia 164
ingham 164
part@@ 164
ui@@ 164
wing 164
Ü@@ 164
üt@@ 164
ý 164
ه 164
Chor@@ 163
India 163
Nelson 163
Stewart 163
arren 163
elin 163
ging 163
natur@@ 163
west 163
с 163
Alli@@ 162
Nig@@ 162
assi@@ 162
endr@@ 162
esto 162
europ@@ 162
ider@@ 162
omon 162
ostr@@ 162
rio 162
vat@@ 162
ɑ@@ 162
Ἄ@@ 162
Adams 161
Sad@@ 161
Termin@@ 161
Thompson 161
aliy@@ 161
eas@@ 161
final 161
mad@@ 161
mon 161
mouth 161
nat@@ 161
tax@@ 161
vor@@ 161
ь@@ 161
Anton 160
Es 160
Ken@@ 160
Que@@ 160
afé 160
break 160
free 160
mal 160
polit@@ 160
sul@@ 160
tains 160
tec@@ 160
uo 160
xi 160
ба@@ 160
Alter@@ 159
Jesus 159
Lak@@ 159
Railway 159
Wy@@ 159
alle 159
andra 159
ator@@ 159
first 159
lik@@ 159
mil 159
nik@@ 159
ool 159
ority 159
orn@@ 159
oso 159
osph@@ 159
scope 159
ás@@ 159
İ@@ 159
ʃ@@ 159
Day@@ 158
Forest 158
Gur@@ 158
Inn@@ 158
Kab@@ 158
Margar@@ 158
Northern 158
Sach@@ 158
Sic@@ 158
XVI 158
arding 158
bor 158
elling 158
over@@ 158
ples 158
uti@@ 158
ː 158
Ц@@ 158
да 158
ри@@ 158
1st 157
Fres@@ 157
Hr@@ 157
Jose@@ 157
` 157
acher 157
aining 157
alie 157
cos 157
eler 157
fest 157
ović 157
ron@@ 157
Clark 156
Grou@@ 156
Jung@@ 156
Kim@@ 156
Rock@@ 156
Shir@@ 156
Tim 156
box@@ 156
eral 156
fied 156
folk 156
gem@@ 156
incia 156
nel 156
nes@@ 156
sing@@ 156
soci@@ 156
tag@@ 156
Ψ 156
άλληλα 156
ло@@ 156
Ա@@ 156
ὼ@@ 156
Airport 155
División 155
Gary 155
aler 155
atom@@ 155
cole 155
inj@@ 155
itung 155
jazz 155
long 155
pap@@ 155
sl@@ 155
tista 155
äl@@ 155
б@@ 155
ه@@ 155
ḥ@@ 155
ὔ@@ 155
Bes@@ 154
Bis@@ 154
Cum@@ 154
Ef@@ 154
Fred 154
Matt 154
Museo 154
Sap@@ 154
Wolf@@ 154
amin@@ 154
arian 154
cant@@ 154
cross 154
disco 154
edr@@ 154
kor@@ 154
pad@@ 154
size 154
wr@@ 154
än@@ 154
ɔ@@ 154
ва@@ 154
но@@ 154
Andreas 153
Culture 153
Gott@@ 153
Nob@@ 153
They 153
Top@@ 153
Zh@@ 153
cell 153
have 153
kt 153
lab@@ 153
milit@@ 153
plex 153
tain 153
tour 153
Agu@@ 152
Berg@@ 152
Hamp@@ 152
Montre@@ 152
Well@@ 152
apa 152
atra 152
eng 152
ieve 152
igi@@ 152
iser 152
iting 152
other@@ 152
prom@@ 152
sold 152
tempor@@ 152
too 152
ɐ@@ 152
ვ@@ 152
ἢ 152
Ἱ@@ 152
Chir@@ 151
Maf@@ 151
Miss@@ 151
Rosa 151
Vall@@ 151
ador 151
avi 151
cont@@ 151
dra@@ 151
dur@@ 151
dér@@ 151
eim 151
estro 151
fall 151
onds 151
ought 151
plan@@ 151
pos 151
quet 151
rif@@ 151
til 151
ving 151
ούστου 151
ի 151
√ 151
Buff@@ 150
Frank@@ 150
Kong 150
Leh@@ 150
Schl@@ 150
Shu@@ 150
Tir@@ 150
Will@@ 150
XII 150
allo 150
alog@@ 150
anas 150
cher@@ 150
eci@@ 150
ences 150
ended 150
erra 150
fin 150
gol@@ 150
icio 150
lake 150
ony@@ 150
sar@@ 150
strong 150
tav@@ 150
them 150
tos 150
˙ 150
όρεια 150
м 150
ре@@ 150
Kib@@ 149
Roman@@ 149
Stat@@ 149
Zel@@ 149
afe 149
ennes 149
fon@@ 149
ited 149
ning@@ 149
order 149
plu@@ 149
reich@@ 149
uss 149
vie@@ 149
wall 149
yu 149
zen@@ 149
մ@@ 149
ო@@ 149
Gesellschaft 148
Inh@@ 148
Lie@@ 148
Olymp@@ 148
Sachsen 148
ability 148
ados 148
allen 148
andi@@ 148
got@@ 148
major 148
nament 148
spo@@ 148
support 148
voc@@ 148
ân 148
ρεταν@@ 148
са 148
կ@@ 148
Académie 147
Adel@@ 147
Del 147
Gros@@ 147
Hem@@ 147
Nikol@@ 147
Rac@@ 147
SV 147
Temple 147
dez 147
hai 147
high 147
ife 147
liga 147
new@@ 147
sea 147
tain@@ 147
uni 147
wide 147
Ł@@ 147
ע@@ 147
Andre@@ 146
Chief 146
Dani@@ 146
Gom@@ 146
Had@@ 146
Hip@@ 146
Stein@@ 146
alier 146
ander 146
aza 146
eka 146
liz@@ 146
mach@@ 146
nar@@ 146
olia 146
opsis 146
otr@@ 146
vu@@ 146
zur 146
öh@@ 146
Л@@ 146
্ 146
4. 145
Middle 145
XIV 145
agne 145
alist 145
eda 145
graph@@ 145
gres@@ 145
lag@@ 145
orie 145
tures 145
æ 145
ле@@ 145
᾿ 145
180@@ 144
Academ@@ 144
Atlan@@ 144
Dj@@ 144
Du 144
Lug@@ 144
Russia 144
Se 144
Shel@@ 144
Tag@@ 144
ances 144
court 144
drome 144
ector 144
enz 144
gin@@ 144
grup@@ 144
nav@@ 144
orium 144
radi@@ 144
ustry 144
ğ@@ 144
ная 144
Administration 143
Copa 143
Department 143
Ges@@ 143
Manchester 143
Marshall 143
abil@@ 143
bile 143
borough 143
rez 143
sian 143
uri@@ 143
wan 143
zant@@ 143
Ј@@ 143
Алек@@ 143
Earl 142
Jug@@ 142
Werner 142
Zar@@ 142
bes@@ 142
eros 142
ju 142
tar 142
მ@@ 142
CEO 141
Deutschland 141
Sonn@@ 141
azar@@ 141
enter 141
far@@ 141
hon@@ 141
isha 141
kov@@ 141
nati@@ 141
ogen@@ 141
oux 141
tou@@ 141
tri 141
umi 141
years 141
Î@@ 141
ս@@ 141
ῥ@@ 141
Primera 140
Ray@@ 140
Some 140
Wolfgang 140
albums 140
ansa 140
grand 140
han@@ 140
hem 140
male 140
prises 140
tad@@ 140
versi@@ 140
én 140
ė 140
İs@@ 140
Ś@@ 140
Е@@ 140
л 140
Andy 139
Flu@@ 139
Stal@@ 139
Sud@@ 139
XV 139
digital 139
ende 139
enna 139
gor@@ 139
has 139
hua 139
ilo 139
isto 139
mos@@ 139
pas 139
ram@@ 139
tas 139
tun@@ 139
tur 139
ç 139
Ма@@ 139
ἵ@@ 139
Bass@@ 138
Card@@ 138
Concep@@ 138
Españ@@ 138
Hart@@ 138
Rat@@ 138
Rural 138
Schw@@ 138
Tax@@ 138
ael 138
cru@@ 138
oll 138
onde 138
oz 138
rus@@ 138
uga 138
uses 138
zer@@ 138
ди@@ 138
Front 137
Nom@@ 137
Sol 137
Winter@@ 137
ande 137
andi 137
atin 137
avia 137
eh 137
eira 137
event@@ 137
get@@ 137
lib@@ 137
line@@ 137
liner 137
maj@@ 137
market 137
orient@@ 137
rent 137
tiva 137
trac@@ 137
ἠ@@ 137
ὺ 137
Plaza 136
Police 136
Venez@@ 136
Wiener 136
aron 136
bu 136
kov 136
sign@@ 136
thy 136
té 136
ulia 136
ungen 136
во@@ 136
го@@ 136
ра 136
х@@ 136
Alt@@ 135
Bang@@ 135
Bron@@ 135
Hall@@ 135
Histoire 135
Jag@@ 135
Kak@@ 135
NFL 135
Robinson 135
aber 135
acre 135
alar@@ 135
apo 135
asons 135
bia 135
bis@@ 135
enda 135
enes 135
ennis 135
festival 135
iler 135
indi@@ 135
inet 135
lus 135
ogo 135
ologies 135
ovi@@ 135
pag@@ 135
then 135
ège 135
ָ@@ 135
ὖ@@ 135
1,0@@ 134
Eastern 134
Edu@@ 134
Hyp@@ 134
Indian 134
Most 134
Pyr@@ 134
Song@@ 134
Vig@@ 134
Vladimir 134
Von 134
dam 134
ino@@ 134
ism@@ 134
sun@@ 134
utz 134
wel@@ 134
éli@@ 134
По@@ 134
бо@@ 134
ка@@ 134
Buch@@ 133
Code 133
Diego 133
Roberto 133
Sib@@ 133
Wilaya 133
ament@@ 133
anco 133
bic@@ 133
ble@@ 133
cip@@ 133
hydro@@ 133
inv@@ 133
kar 133
lang 133
mari@@ 133
oko 133
park 133
ß 133
érieure 133
Crist@@ 132
Miami 132
Neur@@ 132
Vid@@ 132
anie 132
arina 132
brand 132
dro@@ 132
eurs 132
folia 132
ition 132
lah 132
oga 132
open 132
rag@@ 132
ð 132
Au 131
Dies@@ 131
Form@@ 131
Inf@@ 131
Sag@@ 131
Sain@@ 131
Sá@@ 131
alli 131
alli@@ 131
azz@@ 131
bab@@ 131
mid@@ 131
nen 131
obi@@ 131
onda 131
ross 131
stars 131
theory 131
times 131
uru 131
ǎ@@ 131
Ка@@ 131
нович 131
ск 131
љ@@ 131
ὐ 131
Biz@@ 130
Carter 130
Fern@@ 130
Rach@@ 130
anj@@ 130
dre 130
encer 130
enti 130
fund@@ 130
ilio 130
isp@@ 130
oul 130
sport 130
Grant 129
Her 129
Hier@@ 129
Laurent 129
Suc@@ 129
Sud 129
Tech@@ 129
Unter@@ 129
atura 129
gruppe 129
kab@@ 129
minor 129
mission 129
oss 129
publ@@ 129
sav@@ 129
set@@ 129
sten 129
tivo 129
З@@ 129
сь@@ 129
ә@@ 129
Carr@@ 128
Gabri@@ 128
Lec@@ 128
Nap@@ 128
Portugal 128
Reich 128
bourg 128
cover 128
function 128
harmon@@ 128
kus 128
led 128
nin 128
nit@@ 128
ogne 128
part 128
pass@@ 128
pod@@ 128
sul 128
ysi@@ 128
Ż@@ 128
то@@ 128
8. 127
Devlet@@ 127
Kno@@ 127
Nou@@ 127
Schutz@@ 127
Yu@@ 127
airs 127
based 127
dorf 127
guer@@ 127
rod@@ 127
ä 127
ül@@ 127
Са@@ 127
њ@@ 127
་ 127
Championships 126
Costa 126
Institu@@ 126
K. 126
back@@ 126
ede 126
fes@@ 126
lower 126
mine 126
obi 126
onald 126
pro 126
ref@@ 126
sol 126
tour@@ 126
ч 126
Alexandre 125
Amp@@ 125
Ins@@ 125
Kem@@ 125
Tos@@ 125
ativa 125
cour@@ 125
ria 125
rid 125
roc@@ 125
sie 125
standing 125
titu@@ 125
ж@@ 125
ה 125
ა 125
186@@ 124
Barcelona 124
Kid@@ 124
Sonder@@ 124
aat 124
double 124
egel 124
ican 124
idea 124
igher 124
trav@@ 124
tut@@ 124
wo 124
ál@@ 124
рович 124
ى 124
Dad@@ 123
Instrum@@ 123
Mp@@ 123
Müller 123
Russian 123
Scot@@ 123
ater@@ 123
aun 123
berto 123
fus@@ 123
hav@@ 123
imani 123
olds 123
olf 123
sar 123
thre@@ 123
vet@@ 123
Ба@@ 123
سلطان 123
Corps 122
Him@@ 122
Houston 122
Jorge 122
Kot@@ 122
Mark@@ 122
Neb@@ 122
chen@@ 122
chester 122
contin@@ 122
enty 122
essed 122
inci 122
istic 122
kn@@ 122
leb@@ 122
patr@@ 122
phia 122
pit@@ 122
plus 122
portation 122
prop@@ 122
quin@@ 122
social 122
soft 122
speed 122
team 122
test@@ 122
ΰ 122
ко@@ 122
ן 122
ṭ@@ 122
ἤ@@ 122
∆ 122
Bach 121
Centro 121
Chin@@ 121
Jor@@ 121
Kri@@ 121
Penn@@ 121
Rome 121
Wak@@ 121
abor@@ 121
anto 121
ause 121
egas 121
emi 121
entes 121
enth@@ 121
ers@@ 121
head@@ 121
mental 121
pped 121
py@@ 121
river 121
termin@@ 121
through 121
unter@@ 121
vas@@ 121
û@@ 121
евна 121
Austr@@ 120
Brook@@ 120
Dres@@ 120
Egyp@@ 120
Federal 120
Griff@@ 120
Jersey 120
Rodr@@ 120
anni 120
bibli@@ 120
bil 120
fili@@ 120
football 120
ible 120
lub 120
oven 120
proj@@ 120
udi@@ 120
urt 120
Öster@@ 120
Ро@@ 120
би@@ 120
не 120
் 120
უ@@ 120
∙ 120
EU 119
Gonz@@ 119
Wir@@ 119
ana@@ 119
deutsche 119
div@@ 119
erine 119
him@@ 119
identi@@ 119
irs 119
kre@@ 119
lyn 119
neo 119
old@@ 119
s. 119
sion@@ 119
star@@ 119
tric@@ 119
zar@@ 119
ł 119
ров@@ 119
・ 119
Erd@@ 118
Islands 118
Marsh@@ 118
N. 118
Tang@@ 118
Turk@@ 118
apar@@ 118
asp@@ 118
beck 118
cup@@ 118
d. 118
ehr@@ 118
ential 118
force 118
internet 118
kno@@ 118
liche 118
match 118
meister 118
onlyinclude 118
ping 118
press@@ 118
raine 118
red@@ 118
rop@@ 118
tot@@ 118
tras@@ 118
ufac@@ 118
unda 118
vio 118
ɡ@@ 118
Assembly 117
Philadelphia 117
bol 117
dies 117
door 117
entum 117
format 117
good 117
hou 117
igne 117
kun@@ 117
lau@@ 117
lik 117
mando 117
oil 117
ono 117
otte 117
r. 117
shi@@ 117
tie 117
ми@@ 117
ַ@@ 117
INSE@@ 116
Mih@@ 116
Ng@@ 116
aires 116
asti@@ 116
ebe 116
geb@@ 116
illi 116
ked 116
libr@@ 116
med@@ 116
plo@@ 116
tas@@ 116
és@@ 116
Я@@ 116
Epis@@ 115
Florida 115
Herr@@ 115
Lom@@ 115
Must@@ 115
Université 115
Wis@@ 115
ambo 115
atives 115
city 115
dan@@ 115
dies@@ 115
esch@@ 115
espe@@ 115
eston 115
ffe 115
func@@ 115
ged 115
jur@@ 115
lara 115
m. 115
ran 115
san 115
school 115
systems 115
ôme 115
са@@ 115
ἂ@@ 115
Bras@@ 114
Irish 114
John@@ 114
Lig@@ 114
Mia 114
Salv@@ 114
age@@ 114
atique 114
clus@@ 114
date 114
ei@@ 114
entin 114
eting 114
faire 114
hib@@ 114
inos 114
isse 114
kri@@ 114
lic@@ 114
onie 114
tori@@ 114
tru@@ 114
uro 114
wak@@ 114
га 114
ان 114
≈ 114
5. 113
Afr@@ 113
Regional 113
Seine 113
Tah@@ 113
Wild@@ 113
ayo 113
azi 113
deo 113
det 113
ected 113
elek@@ 113
elt@@ 113
had 113
hatt@@ 113
istan 113
lich 113
lied 113
pet@@ 113
rig@@ 113
seg@@ 113
short 113
tail 113
tech@@ 113
than 113
which 113
ì@@ 113
͡ 113
Бе@@ 113
э@@ 113
ל 113
თ@@ 113
├ 113
Bin@@ 112
Depor@@ 112
Fré@@ 112
Mang@@ 112
SG 112
aman 112
annes 112
article 112
atu 112
blin 112
eing 112
mite 112
num@@ 112
process 112
sha 112
ulation 112
undo 112
г 112
ль 112
та@@ 112
ш 112
ы 112
Ἡ@@ 112
イ@@ 112
Chinese 111
Congress 111
Conserv@@ 111
Khan 111
Olympi@@ 111
Scotland 111
ahi 111
ahl 111
amed 111
inas 111
jas 111
management 111
most 111
native 111
peti@@ 111
pio 111
sat@@ 111
trop@@ 111
ump 111
wn@@ 111
ís 111
На@@ 111
Ра@@ 111
сла@@ 111
վ@@ 111
Amat@@ 110
But 110
Gest@@ 110
Tap@@ 110
atia 110
auto@@ 110
born 110
cad@@ 110
comm@@ 110
ference 110
inning 110
km2 110
oc 110
oms 110
phe 110
place 110
tras 110
ét@@ 110
év@@ 110
ın 110
ве@@ 110
ев 110
з 110
лович 110
па@@ 110
ي 110
Ὁ 110
5,000 109
Juni@@ 109
Monte@@ 109
Nach@@ 109
Rav@@ 109
Wales 109
Yar@@ 109
about 109
ald@@ 109
big 109
cab@@ 109
comes 109
dle 109
française 109
full 109
gether 109
hold 109
oti 109
service 109
sev@@ 109
teen 109
tered 109
tes@@ 109
umbo 109
wi 109
will 109
ї@@ 109
լ@@ 109
် 109
Eis@@ 108
Franco 108
Gusta@@ 108
Hydro@@ 108
Scottish 108
Wilhel@@ 108
XVIII 108
alogue 108
alter 108
anal@@ 108
bio 108
buch 108
building 108
edit@@ 108
emat@@ 108
feder@@ 108
heim@@ 108
last 108
olan 108
ologi@@ 108
sei 108
syl@@ 108
vera 108
werk 108
wig 108
¬ 108
нов 108
￼ 108
----@@ 107
Armen@@ 107
Bayern 107
Dep@@ 107
Hut@@ 107
Ich@@ 107
Kus@@ 107
Kut@@ 107
Personal 107
ahr@@ 107
aille 107
aring 107
asia 107
bles 107
conn@@ 107
extr@@ 107
front 107
graphi@@ 107
mati@@ 107
mic@@ 107
naz@@ 107
ograph@@ 107
princ@@ 107
rh@@ 107
sta@@ 107
stand@@ 107
stri@@ 107
sup@@ 107
tif@@ 107
yet@@ 107
да@@ 107
ни 107
ный 107
10,000 106
Americ@@ 106
Haus@@ 106
Kriegs@@ 106
Pand@@ 106
Popular 106
Ung@@ 106
añ@@ 106
capit@@ 106
cla@@ 106
eles 106
hen@@ 106
kam@@ 106
opo 106
proc@@ 106
teur 106
veau 106
vill@@ 106
white 106
yat@@ 106
yon 106
érie 106
č 106
А 106
Ан@@ 106
Ку@@ 106
ح@@ 106
ق@@ 106
Alfonso 105
Anh@@ 105
Monum@@ 105
Mosco@@ 105
Sah@@ 105
Say@@ 105
Val 105
eon@@ 105
iller@@ 105
iny@@ 105
oire 105
oj@@ 105
ras 105
thor@@ 105
toria 105
ἅ@@ 105
Cruz 104
Eb@@ 104
Government 104
Nan@@ 104
UE@@ 104
arab@@ 104
bre 104
corpor@@ 104
emos 104
erre 104
formes 104
gli@@ 104
grave 104
inn 104
lim 104
mir 104
mut 104
platz 104
publi@@ 104
rant 104
senti@@ 104
shar@@ 104
shot 104
stell@@ 104
uda 104
ution@@ 104
å 104
ʿ@@ 104
во 104
ἰ 104
Gramm@@ 103
Ireland 103
Kaiser 103
Position 103
Sali@@ 103
Santo 103
Ya 103
ago@@ 103
aint 103
anes 103
aten 103
bid@@ 103
bos@@ 103
did@@ 103
ebook 103
eil@@ 103
ement@@ 103
ensi@@ 103
gas 103
make 103
nas@@ 103
news 103
oba 103
oci@@ 103
plas@@ 103
semble 103
were 103
âtre 103
üm@@ 103
ποδοσφ@@ 103
де@@ 103
ּ@@ 103
Ἡ 103
Georgia 102
Kamp@@ 102
Kie@@ 102
Portu@@ 102
Sever@@ 102
Türk 102
Us@@ 102
Wein@@ 102
alto 102
amor 102
ayn@@ 102
chu@@ 102
cu 102
dru@@ 102
e. 102
flor@@ 102
kho@@ 102
kis@@ 102
ladi@@ 102
med 102
national 102
oteca 102
produc@@ 102
regi@@ 102
tul@@ 102
umba 102
ác@@ 102
éni@@ 102
Ле@@ 102
Х@@ 102
за@@ 102
ش@@ 102
Film@@ 101
Govern@@ 101
Santos 101
Wehr@@ 101
adu@@ 101
cent 101
cons@@ 101
gas@@ 101
ily 101
isis 101
jar@@ 101
mé@@ 101
ordin@@ 101
oun 101
tik 101
ular@@ 101
who 101
zu@@ 101
Ba 100
Castil@@ 100
Constitu@@ 100
Elis@@ 100
Giov@@ 100
Harv@@ 100
Meh@@ 100
Nur@@ 100
Slov@@ 100
Way@@ 100
ahl@@ 100
ası 100
bak@@ 100
bay 100
gens 100
hat 100
itage 100
mans 100
pf@@ 100
prob@@ 100
ril 100
sag@@ 100
spe@@ 100
tima 100
Γουλι@@ 100
Пет@@ 100
ков 100
си@@ 100
ч@@ 100
া 100
の@@ 100
Chal@@ 99
Ener@@ 99
Gan@@ 99
García 99
His@@ 99
Kob@@ 99
Raj@@ 99
Rhein@@ 99
Santiago 99
São 99
Sé@@ 99
domin@@ 99
elde 99
gues 99
ibn 99
isme 99
itzer 99
known 99
lut@@ 99
scre@@ 99
sula 99
technique 99
tem 99
üb@@ 99
Φεβ@@ 99
С 99
ло 99
си 99
ск@@ 99
ъ 99
Հ@@ 99
ব@@ 99
র@@ 99
Ander@@ 98
Braun@@ 98
Cape 98
German 98
Glas@@ 98
Ital@@ 98
Mün@@ 98
Pub@@ 98
Toronto 98
Wien 98
XVII 98
amen 98
dot@@ 98
fu 98
got 98
grap@@ 98
ific@@ 98
imp@@ 98
lug@@ 98
orph@@ 98
quel 98
saw 98
yak@@ 98
ös@@ 98
ʁ@@ 98
Σεπτε@@ 98
Со@@ 98
Art@@ 97
Educ@@ 97
Evangel@@ 97
Fund@@ 97
Ligue 97
Madrid 97
Person@@ 97
Yak@@ 97
aster@@ 97
aup@@ 97
coc@@ 97
fera 97
hof 97
pre 97
public@@ 97
run 97
sans 97
schen 97
sia 97
song 97
tracks 97
whe@@ 97
ël 97
œ@@ 97
כ@@ 97
天@@ 97
Benedi@@ 96
Burg@@ 96
Charl@@ 96
Dut@@ 96
Hass@@ 96
Proj@@ 96
Sydney 96
Univers@@ 96
W. 96
abol@@ 96
agnie 96
aland 96
azar 96
bli@@ 96
business 96
cle@@ 96
eval 96
father 96
fs 96
idad 96
lac@@ 96
list@@ 96
mile 96
mur@@ 96
nan 96
nt 96
rad@@ 96
schule 96
ses@@ 96
session 96
uka 96
ved 96
yana@@ 96
ép@@ 96
ру@@ 96
ր 96
ბ@@ 96
ṣ@@ 96
ἷ@@ 96
2nd 95
6. 95
Ana 95
Bret@@ 95
Publi@@ 95
alit@@ 95
athan 95
atrice 95
child 95
country 95
edral 95
ests 95
ien@@ 95
inge 95
isl@@ 95
jer@@ 95
law@@ 95
mill@@ 95
ogoro 95
oka 95
omin@@ 95
omy@@ 95
ongo 95
pain@@ 95
para 95
phil@@ 95
phot@@ 95
uel@@ 95
va@@ 95
views 95
wie 95
zia 95
¹ 95
Не@@ 95
ар@@ 95
ди 95
не@@ 95
י 95
ى@@ 95
Amer@@ 94
Germany 94
Luxemb@@ 94
Nad@@ 94
Pho@@ 94
Supre@@ 94
Zu@@ 94
aff 94
agi@@ 94
aissance 94
bau 94
bou@@ 94
che@@ 94
erst@@ 94
estra 94
fan@@ 94
hir 94
jan@@ 94
kad@@ 94
late 94
owa 94
sous 94
stitu@@ 94
tei 94
vy@@ 94
ˌ@@ 94
бе@@ 94
្ 94
ὠ@@ 94
Carolina 93
Compan@@ 93
Ehr@@ 93
Graf 93
Gün@@ 93
Kah@@ 93
Paulo 93
Rugby 93
Schul@@ 93
Sur 93
aller@@ 93
anni@@ 93
auc@@ 93
camp@@ 93
eaux 93
gul@@ 93
iliz@@ 93
lis@@ 93
may@@ 93
model@@ 93
ms@@ 93
nak@@ 93
natural 93
sal 93
small 93
stage 93
tap@@ 93
techn@@ 93
zel@@ 93
zon@@ 93
Ш@@ 93
га@@ 93
нов@@ 93
פ@@ 93
ת 93
د@@ 93
≠ 93
Academia 92
Alabama 92
Asp@@ 92
Cari@@ 92
Dipl@@ 92
Early 92
España 92
Famili@@ 92
General@@ 92
Kav@@ 92
Michigan 92
Navy 92
Production 92
Yes@@ 92
Zeit@@ 92
aching 92
aging 92
anted 92
atre 92
berg@@ 92
case 92
event 92
him 92
kap@@ 92
kirche 92
page 92
pend@@ 92
range 92
schrift 92
tex@@ 92
tribu@@ 92
viol@@ 92
yar 92
yor 92
Österreich 92
ė@@ 92
ın@@ 92
Ю@@ 92
թ@@ 92
ス@@ 92
Abu 91
Argent@@ 91
Civil 91
Coupe 91
Des 91
Ha 91
Kent 91
Kro@@ 91
Parti 91
Roh@@ 91
Sü@@ 91
Universität 91
Yas@@ 91
abi 91
acio 91
anca 91
ativ@@ 91
atos 91
bass@@ 91
bek@@ 91
card 91
ción 91
cus@@ 91
dir@@ 91
eline 91
ered 91
hot@@ 91
hur@@ 91
iment 91
kop@@ 91
nation 91
nec@@ 91
obj@@ 91
oking 91
open@@ 91
ours 91
press 91
uca 91
vern@@ 91
zan 91
ème 91
ʊ@@ 91
μπούτο 91
по@@ 91
գ@@ 91
ي@@ 91
ল@@ 91
Britain 90
Dau@@ 90
Emper@@ 90
Hind@@ 90
Hong 90
Kum@@ 90
Kunst@@ 90
Leipzig 90
Universidad 90
app 90
bel 90
cular 90
ded 90
ectiv@@ 90
eki 90
emia 90
eras 90
gian 90
har 90
hist@@ 90
isions 90
isten 90
just 90
kas@@ 90
oise 90
ros 90
rue 90
science 90
sid@@ 90
stat@@ 90
tend@@ 90
urban 90
vide@@ 90
ب@@ 90
Ἁ@@ 90
ῆ 90
Director 89
Distribu@@ 89
Pach@@ 89
Rafael 89
Rech@@ 89
bei 89
cir@@ 89
cut 89
dir 89
ener@@ 89
epis@@ 89
eren 89
iness 89
lich@@ 89
lose 89
olm 89
onen 89
orial 89
princip@@ 89
sdorf 89
series 89
stad@@ 89
standard 89
troit 89
umi@@ 89
week 89
zone 89
Απρι@@ 89
Ευρώπ@@ 89
Бо@@ 89
Мо@@ 89
Сер@@ 89
城 89
Gren@@ 88
Herz@@ 88
Hitler 88
a. 88
activ@@ 88
attle 88
auf@@ 88
eve 88
iku 88
ls@@ 88
mani@@ 88
onel 88
pression 88
prov@@ 88
pson 88
quez 88
sab@@ 88
tig 88
tionn@@ 88
uti 88
Å@@ 88
èse 88
вна 88
ор@@ 88
че@@ 88
ם 88
Anat@@ 87
Creek 87
Guill@@ 87
Haupt@@ 87
Lebens@@ 87
Privat@@ 87
area 87
dae 87
erte 87
kle@@ 87
lear@@ 87
mang@@ 87
rang 87
saf@@ 87
tary 87
tien 87
usion 87
ustr@@ 87
wanza 87
yk@@ 87
ý@@ 87
đ@@ 87
ки 87
но 87
ти@@ 87
ִ@@ 87
ג@@ 87
Ahmed 86
Alej@@ 86
Bez@@ 86
Bü@@ 86
Castro 86
Eisen@@ 86
Estr@@ 86
Fútbol 86
Hochschule 86
June 86
Mann 86
National@@ 86
Pam@@ 86
Süd@@ 86
after 86
agin@@ 86
aling 86
alog 86
americana 86
aven@@ 86
base 86
common 86
emo 86
fen 86
grav@@ 86
liter@@ 86
má@@ 86
source 86
used 86
zin@@ 86
та 86
ղ@@ 86
ק@@ 86
BK 85
Chic@@ 85
González 85
Rest@@ 85
aller 85
ambi@@ 85
asing 85
avec 85
ayan 85
chil@@ 85
eber@@ 85
eger 85
estar 85
estig@@ 85
fique 85
games 85
gan 85
ht 85
ied 85
iker 85
isión 85
loy@@ 85
manager 85
nd 85
neum@@ 85
pool 85
rel 85
resp@@ 85
sam 85
shu@@ 85
software 85
studi@@ 85
tiz@@ 85
Ú@@ 85
ève 85
ĝ@@ 85
Де@@ 85
ан@@ 85
ц 85
ח@@ 85
ر@@ 85
Fest@@ 84
Lt@@ 84
Partido 84
Ped@@ 84
aill@@ 84
bonne 84
cord 84
cum@@ 84
eres 84
esses 84
inen 84
kt@@ 84
offic@@ 84
only 84
sult@@ 84
sym@@ 84
tir 84
zum 84
ʒ@@ 84
ְ@@ 84
Ἔ@@ 84
7. 83
Ent@@ 83
Fot@@ 83
Kay@@ 83
Koh@@ 83
Patri@@ 83
Paşa 83
Tok@@ 83
ampton 83
antas@@ 83
ausen 83
erek 83
etes 83
gun 83
iche 83
jum@@ 83
macht 83
mov@@ 83
obr@@ 83
quel@@ 83
rest@@ 83
tari@@ 83
they 83
tiers 83
usi 83
utt@@ 83
wehr 83
weight 83
äf@@ 83
Đ@@ 83
Ō@@ 83
ƒ 83
Ре@@ 83
слав 83
ר 83
ف@@ 83
ル@@ 83
Aleksand@@ 82
Bill@@ 82
December 82
Elle 82
Haute 82
Ide@@ 82
Initi@@ 82
Kop@@ 82
Napo@@ 82
Organisation 82
Verlag 82
beg@@ 82
cut@@ 82
eke 82
encia 82
endo 82
igan 82
kit@@ 82
lea 82
leo 82
neur 82
oğlu 82
pia 82
ply 82
proper@@ 82
sub 82
suit 82
udo 82
using 82
western 82
witz 82
¡ 82
Ä@@ 82
Í@@ 82
ħ@@ 82
нови@@ 82
ტ@@ 82
リ@@ 82
1,000 81
Git@@ 81
Haus 81
Hous@@ 81
Materi@@ 81
Mex@@ 81
Pablo 81
Paci@@ 81
Sph@@ 81
Trab@@ 81
anch@@ 81
atory 81
bad 81
cer 81
chev@@ 81
flora 81
frag@@ 81
hau@@ 81
ince 81
isti 81
its@@ 81
jus@@ 81
mina 81
ort@@ 81
possible 81
scienti@@ 81
she 81
title 81
unga 81
vir 81
werke 81
zar 81
ır@@ 81
ɐ 81
ма 81
ров 81
ل@@ 81
ن@@ 81
დ@@ 81
└ 81
Bahn 80
Bish@@ 80
Indiana 80
Italy 80
Kentucky 80
López 80
Rey 80
angle 80
bres 80
chap@@ 80
eiro 80
fest@@ 80
hoy 80
lang@@ 80
oides 80
onga 80
osi 80
rate 80
ren 80
sist@@ 80
sour@@ 80
tung 80
yet 80
ım 80
ų 80
Ж@@ 80
кови@@ 80
рий 80
ђ@@ 80
ি@@ 80
Auf@@ 79
Aug@@ 79
Dar 79
Fernández 79
Flug@@ 79
Geb@@ 79
Israel 79
July 79
Kara 79
Krieg@@ 79
Mw@@ 79
Politi@@ 79
Sey@@ 79
Staats@@ 79
Version 79
adas 79
ayr@@ 79
commun@@ 79
dar 79
edi 79
ester@@ 79
font 79
iff 79
ilde 79
inger@@ 79
iso 79
network 79
raum 79
tat@@ 79
Έλλην@@ 79
ειοψηφ@@ 79
Александ@@ 79
Никола 79
се@@ 79
ца 79
Մ@@ 79
ع@@ 79
⋅ 79
Ago@@ 78
Anto@@ 78
Assemb@@ 78
Kunst 78
Landes@@ 78
Pour 78
Preu@@ 78
Québec 78
Segunda 78
XIX 78
Yer@@ 78
Zw@@ 78
agent 78
bahn 78
bai 78
cola 78
econom@@ 78
edition 78
enten 78
enter@@ 78
eş@@ 78
ional 78
museum 78
refer@@ 78
schwe@@ 78
wit@@ 78
ßen 78
èque 78
μβρίου 78
О 78
Ру@@ 78
Ս@@ 78
Ἦ@@ 78
Berg 77
Frankfurt 77
Pé@@ 77
Rak@@ 77
Río 77
Tag 77
Ukr@@ 77
Ut@@ 77
Uz@@ 77
anz 77
chor@@ 77
compil@@ 77
dienst 77
hap@@ 77
hibi@@ 77
ios 77
km@@ 77
kö@@ 77
mig@@ 77
ners 77
piano 77
porting 77
shows 77
sports 77
¼ 77
Áng@@ 77
Вла@@ 77
ге 77
ний 77
ك@@ 77
ὥ@@ 77
Ῥ@@ 77
Bres@@ 76
Haf@@ 76
Hawai@@ 76
Hockey 76
Milan 76
Municipal 76
Musik@@ 76
Stell@@ 76
Stockh@@ 76
Wur@@ 76
asser 76
ateur 76
audi@@ 76
bed 76
cen@@ 76
conver@@ 76
cover@@ 76
due 76
enst@@ 76
former 76
ful@@ 76
his@@ 76
hous@@ 76
iken 76
immer 76
indi 76
international 76
istes 76
label 76
language 76
math@@ 76
odi 76
orr@@ 76
people 76
rö@@ 76
sak@@ 76
stati@@ 76
tac@@ 76
thé@@ 76
ude 76
username 76
Öz@@ 76
ät@@ 76
ń 76
За@@ 76
ник 76
ше@@ 76
ز@@ 76
م@@ 76
Aster@@ 75
Develop@@ 75
Hali@@ 75
Kais@@ 75
Kig@@ 75
Liverpool 75
November 75
Una 75
Zer@@ 75
ampa 75
books 75
capital 75
cav@@ 75
electr@@ 75
hil@@ 75
ief 75
rat@@ 75
rug@@ 75
rés 75
score 75
weg@@ 75
what 75
î 75
ки@@ 75
нова 75
հ@@ 75
ס@@ 75
محمد 75
⟩ 75
9. 74
Arist@@ 74
Asian 74
Berliner 74
Bib@@ 74
Cem@@ 74
Cô@@ 74
Estado 74
Nah@@ 74
Rah@@ 74
ako 74
anthus 74
atures 74
band@@ 74
care 74
cas 74
echt 74
enses 74
ettes 74
grad 74
heit 74
kara 74
kum@@ 74
magazine 74
monde 74
nucle@@ 74
oda 74
pris@@ 74
radio 74
rev@@ 74
run@@ 74
squ@@ 74
sti 74
their 74
trad@@ 74
tros 74
vision 74
ß@@ 74
éch@@ 74
Ар@@ 74
بن 74
س@@ 74
გ@@ 74
Brasil 73
Chel@@ 73
Congr@@ 73
Era 73
Gó@@ 73
Instituto 73
Kend@@ 73
Professor 73
Sa 73
Stad@@ 73
alternati@@ 73
alth 73
auf 73
ağ@@ 73
cog@@ 73
ensa 73
far 73
garde 73
heits@@ 73
imin@@ 73
industrial 73
lement 73
mad 73
mam@@ 73
nj@@ 73
onc@@ 73
oration 73
prof@@ 73
roy@@ 73
say@@ 73
sola 73
unde 73
univers@@ 73
verein 73
Æ@@ 73
É 73
ő 73
Рес@@ 73
ө@@ 73
ת@@ 73
ে@@ 73
⟨ 73
April 72
Dok@@ 72
Ek@@ 72
Muh@@ 72
Norman@@ 72
Ohio 72
Sok@@ 72
Stif@@ 72
Une 72
Wander@@ 72
actions 72
aft@@ 72
bec@@ 72
chez 72
clav@@ 72
för@@ 72
hen 72
ina@@ 72
party 72
post@@ 72
sep@@ 72
sn@@ 72
spre@@ 72
sun 72
sus@@ 72
ubil@@ 72
umo 72
zog 72
ŋ@@ 72
Л 72
по 72
ط@@ 72
Arizona 71
Atlanta 71
Ciudad 71
Enrique 71
Festiv@@ 71
Italian 71
Lok@@ 71
Lö@@ 71
Nouvelle 71
Sta@@ 71
Zam@@ 71
ablo 71
aden 71
ainer 71
avant 71
awi 71
aş@@ 71
carri@@ 71
coll@@ 71
edonia 71
ership 71
esper@@ 71
evi 71
eye 71
ffen 71
instrum@@ 71
mann@@ 71
phi@@ 71
quir@@ 71
rid@@ 71
scher 71
sir@@ 71
sé@@ 71
three 71
upon 71
voy@@ 71
when 71
ли 71
ু@@ 71
Ἕ@@ 71
本@@ 71
Baden 70
Den 70
Groß@@ 70
Hern@@ 70
Hoch@@ 70
Jes@@ 70
Journ@@ 70
Nür@@ 70
Part@@ 70
Rug@@ 70
Spanish 70
dida 70
eces 70
ending 70
food 70
icos 70
ict 70
idar@@ 70
iques 70
jun@@ 70
ld 70
mess@@ 70
nie 70
ograp@@ 70
opa 70
programm@@ 70
riere 70
riff 70
sci@@ 70
was@@ 70
yen 70
zon 70
ño 70
Во@@ 70
за 70
со@@ 70
ст@@ 70
ט@@ 70
日@@ 70
神@@ 70
Abdul@@ 69
Ard@@ 69
Campeonato 69
Corpor@@ 69
Führ@@ 69
Mb@@ 69
Puerto 69
aines 69
anya 69
atur 69
bt 69
class@@ 69
deb@@ 69
dial 69
eci 69
endel@@ 69
essor 69
homme 69
ions 69
ivo 69
kus@@ 69
lor 69
mez@@ 69
omer@@ 69
pera 69
pir@@ 69
stitut@@ 69
tena 69
tent 69
timestamp 69
union 69
wealth 69
Ál@@ 69
ро 69
ско 69
ха 69
ম@@ 69
ジ@@ 69
寺 69
Braz@@ 68
Histori@@ 68
Jim@@ 68
Muhammad 68
Rodríguez 68
Trump 68
Viz@@ 68
Wür@@ 68
Zealand 68
aim@@ 68
ark 68
assemb@@ 68
bra@@ 68
contributor 68
dil@@ 68
enko 68
erc@@ 68
groups 68
itali@@ 68
length 68
phi 68
premi@@ 68
production 68
reich 68
rom 68
sage 68
thel@@ 68
thus 68
vita 68
yel@@ 68
yu@@ 68
Ö 68
μφωνα 68
ги@@ 68
мир 68
ἥ@@ 68
ὃ@@ 68
ὗ@@ 68
ン 68
山 68
Columb@@ 67
Ein 67
Est 67
Heil@@ 67
Infr@@ 67
Kant@@ 67
Mong@@ 67
Orch@@ 67
Pseud@@ 67
Schloss 67
Seb@@ 67
Tay@@ 67
alle@@ 67
aman@@ 67
atori@@ 67
atu@@ 67
blan@@ 67
camp 67
cars 67
enas 67
endre 67
gold 67
gos 67
hem@@ 67
iges 67
jos 67
key@@ 67
lon@@ 67
mara 67
maxim@@ 67
rest 67
sang@@ 67
story 67
while 67
yar@@ 67
üs@@ 67
То@@ 67
Э@@ 67
ет@@ 67
դ@@ 67
ة 67
ὼ 67
ラ@@ 67
ー 67
Amsterdam 66
Budap@@ 66
Cá@@ 66
Dah@@ 66
Dutch 66
Für@@ 66
Gymnasium 66
Mim@@ 66
República 66
Rund@@ 66
Salvador 66
Tib@@ 66
Tradi@@ 66
Valle 66
acer@@ 66
afric@@ 66
alc@@ 66
apr@@ 66
artist 66
batt@@ 66
bir 66
bois 66
brahim 66
burg@@ 66
c. 66
effect 66
elem@@ 66
erk@@ 66
eza 66
hausen 66
how 66
lern 66
need 66
nis@@ 66
onte 66
performance 66
politique 66
theater 66
virtu@@ 66
vot@@ 66
yer@@ 66
Å 66
ô 66
ʻ@@ 66
οσπον@@ 66
Го@@ 66
К 66
Про@@ 66
ста@@ 66
те@@ 66
ф@@ 66
ў@@ 66
қ@@ 66
շ@@ 66
պ@@ 66
ج@@ 66
、 66
Atlé@@ 65
Feld@@ 65
Grund@@ 65
Gör@@ 65
Japanese 65
Kag@@ 65
Kultur@@ 65
Ministr@@ 65
Route 65
Salaam 65
Schwe@@ 65
September 65
Siv@@ 65
These 65
access 65
aide 65
ained 65
aret 65
arra 65
bad@@ 65
ehr 65
etas 65
eño 65
gal 65
graf@@ 65
gu 65
ized 65
music@@ 65
nach 65
nation@@ 65
porte 65
roi 65
sai 65
sound 65
tet 65
tile 65
tim 65
usalem 65
zem@@ 65
ól@@ 65
ône 65
̯ 65
Ви@@ 65
И 65
Ме@@ 65
ат@@ 65
б 65
сто@@ 65
خ@@ 65
س 65
კ@@ 65
Bek@@ 64
Carrera 64
Mississippi 64
Pérez 64
Werke 64
atz 64
bay@@ 64
been 64
bek 64
dens@@ 64
eig@@ 64
jed@@ 64
leur 64
lines 64
odes 64
organ@@ 64
prit 64
program 64
seau 64
some 64
start 64
wth 64
® 64
À 64
ías 64
̃ 64
Ва@@ 64
Мар@@ 64
Па@@ 64
мо 64
ال@@ 64
ხ@@ 64
Alfre@@ 63
Arth@@ 63
Assist@@ 63
Cen@@ 63
Chi 63
Christoph@@ 63
Found@@ 63
Geschichte 63
Kansas 63
León 63
acha 63
ata@@ 63
castle 63
edra 63
endorf 63
esen 63
exp@@ 63
flav@@ 63
git@@ 63
hin 63
izi@@ 63
jug@@ 63
led@@ 63
leh@@ 63
moder@@ 63
nea 63
nez 63
oder 63
opter@@ 63
oty@@ 63
ourg 63
pes@@ 63
plac@@ 63
popul@@ 63
qu 63
rak@@ 63
sites 63
slo@@ 63
tad 63
teilung 63
theor@@ 63
tige 63
usse 63
vent 63
verg@@ 63
vida 63
yal@@ 63
èle 63
ме@@ 63
ша 63
د 63
ს 63
⁄ 63
Chile 62
Conseil 62
Democratic 62
Geh@@ 62
Many 62
Mustafa 62
Nobel 62
Nueva 62
afor@@ 62
also 62
amii 62
ammed 62
ched 62
clo@@ 62
elop@@ 62
erh@@ 62
gel 62
gest@@ 62
honneur 62
icas 62
icht 62
isia 62
mid 62
onz@@ 62
positi@@ 62
ppi 62
recht 62
rique 62
sto@@ 62
temps 62
zw@@ 62
ête 62
ø 62
ɕ 62
ʰ@@ 62
Пре@@ 62
ство 62
բ@@ 62
Austria 61
Chu@@ 61
Mab@@ 61
München 61
Olympics 61
Wad@@ 61
Welt 61
angel@@ 61
arn 61
bas 61
bell 61
bom@@ 61
comment 61
compos@@ 61
dep@@ 61
eding 61
entry 61
eran 61
estre 61
feh@@ 61
fos@@ 61
igr@@ 61
indic@@ 61
intel@@ 61
ision@@ 61
iç@@ 61
lars 61
little 61
lı 61
mah@@ 61
mez 61
modi@@ 61
ored 61
otes 61
oza 61
priv@@ 61
process@@ 61
sand@@ 61
straße 61
tidae 61
vert 61
ves@@ 61
ví@@ 61
zis@@ 61
är 61
ą 61
Се@@ 61
гор@@ 61
ку@@ 61
ское 61
сть 61
ха@@ 61
ت@@ 61
Ὑ@@ 61
三@@ 61
Best@@ 60
Form 60
Luft@@ 60
Martínez 60
Origin@@ 60
Program@@ 60
Pueb@@ 60
Serv@@ 60
Türkiye 60
Württemberg 60
aban 60
aji 60
around 60
auff@@ 60
aught 60
aum@@ 60
auth@@ 60
aş 60
bud@@ 60
culture 60
echo 60
family 60
gun@@ 60
gö@@ 60
illet 60
imba 60
isses 60
made 60
mw@@ 60
olar 60
ped@@ 60
pendi@@ 60
rog@@ 60
tly 60
vel 60
virus 60
ße 60
â 60
êt 60
öz@@ 60
ÿ@@ 60
ɪ 60
Влади@@ 60
До@@ 60
Лу@@ 60
Пе@@ 60
Укра@@ 60
Ч@@ 60
ду@@ 60
ос@@ 60
ция 60
ক@@ 60
ッ@@ 60
村 60
Ab 59
Este 59
Lew@@ 59
Philipp@@ 59
République 59
Señ@@ 59
Zeit 59
aje 59
ao@@ 59
apos@@ 59
archi@@ 59
bern@@ 59
cau@@ 59
continu@@ 59
crit@@ 59
educ@@ 59
entation 59
erin 59
fier 59
für@@ 59
gaz@@ 59
gran@@ 59
gri@@ 59
high@@ 59
irk 59
issi@@ 59
iza 59
nig 59
non@@ 59
ogle 59
private 59
pron@@ 59
sanc@@ 59
sible 59
stan 59
suc@@ 59
take 59
trag@@ 59
tum@@ 59
uf 59
upo 59
vig@@ 59
woman 59
ènes 59
ù@@ 59
ún 59
Гор@@ 59
Ду@@ 59
лов 59
ս 59
ق 59
子 59
2,000 58
Akadem@@ 58
Erz@@ 58
Grupo 58
Kirch@@ 58
Prof@@ 58
Queens@@ 58
Represent@@ 58
Schleswig 58
Schn@@ 58
Syr@@ 58
Wen@@ 58
aden@@ 58
amento 58
ampi@@ 58
ante@@ 58
appen 58
avent@@ 58
bach@@ 58
bah@@ 58
cali@@ 58
centr@@ 58
dice 58
efe 58
enant 58
gesch@@ 58
gom@@ 58
hips 58
iwa 58
kshire 58
limited 58
ograf@@ 58
onge@@ 58
opera 58
phyl@@ 58
portun@@ 58
rates 58
templ@@ 58
tham 58
thu@@ 58
trong 58
uel 58
ymn@@ 58
ération 58
ütz@@ 58
ɔ 58
εμβρίου 58
Бу@@ 58
Никола@@ 58
ал@@ 58
се 58
ћ@@ 58
ار 58
ク@@ 58
Bulgar@@ 57
Catholic 57
Dop@@ 57
Islam@@ 57
Mara 57
Mary@@ 57
Maryland 57
Premio 57
Regi@@ 57
Sek@@ 57
Since 57
Tanzania 57
Thu@@ 57
USD 57
aku@@ 57
anian 57
ases 57
ceph@@ 57
coach 57
distr@@ 57
ecia 57
editor 57
eleg@@ 57
engine 57
events 57
fres@@ 57
hiz@@ 57
igner 57
inde 57
lieg@@ 57
pay 57
person@@ 57
race 57
region 57
thi 57
uso 57
visible 57
wol@@ 57
zeug@@ 57
zil@@ 57
ín@@ 57
ŏ@@ 57
ле 57
он 57
то 57
ქ@@ 57
ᾶ 57
♭ 57
Arbeit@@ 56
Frei@@ 56
Illinois 56
Jah@@ 56
Jew@@ 56
Mittel@@ 56
Nouv@@ 56
Schi@@ 56
Tai@@ 56
Wissen@@ 56
acts 56
agre@@ 56
coordin@@ 56
embr@@ 56
emen 56
erb@@ 56
found@@ 56
fron@@ 56
fru@@ 56
g. 56
histori@@ 56
idos 56
image 56
inden 56
ised 56
isen 56
iter@@ 56
née 56
ogen 56
philos@@ 56
rim 56
temp@@ 56
uko 56
zin 56
àn 56
änder 56
Ди@@ 56
ков@@ 56
сти@@ 56
х 56
ա 56
զ@@ 56
ا 56
الله 56
দ@@ 56
র 56
ῃ@@ 56
Arsenal 55
Blü@@ 55
Dollar 55
Ere@@ 55
Hist@@ 55
Malaysia 55
Mez@@ 55
October 55
Sicher@@ 55
Their 55
alan@@ 55
alco@@ 55
azo 55
chn@@ 55
cycle 55
dest@@ 55
eder 55
eim@@ 55
election 55
etti@@ 55
gang@@ 55
general 55
information 55
kes@@ 55
laz@@ 55
lemente 55
mis 55
olar@@ 55
older 55
omen 55
path@@ 55
sciences 55
second 55
special 55
taire 55
uba 55
unci@@ 55
weg 55
ya@@ 55
État 55
Ó@@ 55
Дмит@@ 55
У 55
ФК 55
ви 55
ке 55
миро@@ 55
му@@ 55
ци@@ 55
ши@@ 55
ন 55
ন@@ 55
រ@@ 55
∧ 55
➢ 55
山@@ 55
道 55
Akademie 54
Asi@@ 54
Bey@@ 54
Bundesliga 54
Chelsea 54
Eduardo 54
Lyon 54
Mexico 54
Nam 54
Vy@@ 54
Wisconsin 54
XV@@ 54
acu@@ 54
apon 54
days 54
ecke 54
ege 54
eses 54
espace 54
femme 54
français 54
illustr@@ 54
ip 54
kio 54
lie@@ 54
namo 54
ombi@@ 54
opol@@ 54
pak@@ 54
pec@@ 54
polog@@ 54
rep@@ 54
schi@@ 54
sil 54
sine 54
species 54
valu@@ 54
zeich@@ 54
études 54
ē 54
Михай@@ 54
России 54
Ста@@ 54
бу@@ 54
град 54
же@@ 54
Қ@@ 54
ք 54
م 54
ἓ@@ 54
タ@@ 54
ト@@ 54
Ai 53
Azer@@ 53
Beng@@ 53
Castilla 53
Ce 53
Fuß@@ 53
Korea 53
Martín 53
Mayor 53
Oy@@ 53
Spain 53
Trich@@ 53
aday 53
anan 53
bran@@ 53
constitu@@ 53
cours 53
direc@@ 53
direct 53
emer@@ 53
enden 53
esser 53
funk@@ 53
idas 53
ided 53
illes 53
integr@@ 53
licher 53
mant@@ 53
offici@@ 53
operation 53
oya 53
perior 53
protein 53
record 53
second@@ 53
siè@@ 53
structure 53
there 53
toman 53
won 53
Über 53
çon 53
Си@@ 53
Су@@ 53
ня@@ 53
ре 53
рина 53
рь@@ 53
ти 53
ё@@ 53
شا@@ 53
ア@@ 53
ド@@ 53
国@@ 53
社 53
Champi@@ 52
Dak@@ 52
Famil@@ 52
Indonesia 52
Massachusetts 52
Mek@@ 52
Poland 52
Salz@@ 52
Sov@@ 52
Span@@ 52
Stadt@@ 52
alled 52
analy@@ 52
architecture 52
chter 52
cic@@ 52
construc@@ 52
conv@@ 52
during 52
egen 52
explo@@ 52
fix@@ 52
haw@@ 52
history 52
hydr@@ 52
ive 52
jou@@ 52
kaya 52
mash@@ 52
may 52
mili@@ 52
milli@@ 52
naci@@ 52
omp@@ 52
others 52
power@@ 52
rech@@ 52
sau@@ 52
ships 52
tere 52
train 52
voir 52
Ā@@ 52
ǔ 52
І@@ 52
Та@@ 52
бла@@ 52
кий 52
лу@@ 52
пе@@ 52
чи@@ 52
կ 52
ص@@ 52
ـ@@ 52
َ@@ 52
Ὅ@@ 52
Demokrati@@ 51
Graf@@ 51
Gü@@ 51
Mosk@@ 51
Nel@@ 51
Pennsylvania 51
Schwer@@ 51
aches 51
aning 51
aque 51
attack 51
burger 51
cula 51
eco 51
entale 51
exec@@ 51
fiel@@ 51
friend 51
hip@@ 51
hr 51
iba 51
iled 51
imar@@ 51
ime@@ 51
integ@@ 51
island 51
loss@@ 51
mf@@ 51
oine 51
orf 51
ques@@ 51
regul@@ 51
riv@@ 51
sche@@ 51
sein 51
total 51
uch 51
undi 51
über 51
ɕ@@ 51
Ђ@@ 51
Александр 51
кая 51
ми 51
ст 51
хи@@ 51
জ@@ 51
ὗ 51
‰ 51
↑ 51
東@@ 51
武@@ 51
Bey 50
Deux 50
Köln 50
Né@@ 50
Occ@@ 50
Suisse 50
adel@@ 50
afa 50
aged 50
alista 50
alu@@ 50
angi 50
asha 50
diffic@@ 50
dul@@ 50
elen@@ 50
ellen 50
figur@@ 50
five 50
front@@ 50
grade 50
iye 50
jour 50
juni@@ 50
lac 50
ları 50
lieb 50
mai 50
minister@@ 50
onio 50
pero 50
ppe 50
rend@@ 50
revol@@ 50
schaften 50
season 50
terr@@ 50
toral 50
tribut@@ 50
verl@@ 50
wes@@ 50
ã@@ 50
édition 50
éra 50
ê 50
þ@@ 50
ık 50
ɛ 50
Алексе@@ 50
Росси@@ 50
кова 50
лу 50
пи@@ 50
ү@@ 50
را@@ 50
ِ@@ 50
ე 50
フ@@ 50
モ@@ 50
海@@ 50
Alem@@ 49
Alit@@ 49
Ame@@ 49
Baba 49
Dakota 49
Desp@@ 49
Funk@@ 49
Gé@@ 49
Hosp@@ 49
Johann@@ 49
Madag@@ 49
Mec@@ 49
Musik 49
México 49
Ort@@ 49
Pak@@ 49
Register 49
Restaur@@ 49
Theo 49
Uta@@ 49
abi@@ 49
abra 49
agua 49
aises 49
appro@@ 49
assen 49
aub@@ 49
ağı 49
bour@@ 49
buil@@ 49
cina 49
coming 49
dad@@ 49
did 49
dig 49
dynam@@ 49
eas 49
entre 49
features 49
forms 49
guerre 49
hara 49
haz@@ 49
histor@@ 49
institu@@ 49
ished 49
ismus 49
lidae 49
links 49
local 49
mab@@ 49
money 49
ople 49
perf@@ 49
philosoph@@ 49
pis@@ 49
points 49
recep@@ 49
rim@@ 49
sey@@ 49
summer 49
syst@@ 49
trou@@ 49
umen 49
wed 49
wir@@ 49
yard 49
yla 49
zuk@@ 49
ņ@@ 49
ŭ@@ 49
Ве@@ 49
Вели@@ 49
Га@@ 49
Соци@@ 49
ге@@ 49
ке@@ 49
ля 49
ман 49
ша@@ 49
ד 49
الم@@ 49
ر 49
შ@@ 49
北@@ 49
Antar@@ 48
Como 48
Singapore 48
Toul@@ 48
Tube 48
Wald@@ 48
Werk@@ 48
ambre 48
ammad 48
anzo 48
aten@@ 48
austr@@ 48
bien 48
broad@@ 48
brun@@ 48
casa 48
contempor@@ 48
current 48
eln 48
evol@@ 48
figh@@ 48
fut@@ 48
gau@@ 48
given 48
histoire 48
idential 48
köy 48
lak@@ 48
lead 48
lina 48
liqu@@ 48
lée 48
mens@@ 48
mento 48
neu@@ 48
oral 48
parentid 48
pose 48
psych@@ 48
seu@@ 48
stanbul 48
tard 48
venir 48
yat 48
Иван 48
Ки@@ 48
Но@@ 48
Фё@@ 48
Ха@@ 48
ля@@ 48
ур@@ 48
ֹ@@ 48
ု@@ 48
ṇ@@ 48
Ἅ@@ 48
Ὁ@@ 48
カ@@ 48
市 48
田@@ 48
Belgique 47
Felipe 47
Guadal@@ 47
Loire 47
Marse@@ 47
Moy@@ 47
aben 47
abo@@ 47
anak@@ 47
anst@@ 47
arias 47
arp@@ 47
chang@@ 47
ché 47
clubs 47
condi@@ 47
dad 47
differ@@ 47
done 47
emba 47
ever@@ 47
hir@@ 47
inz@@ 47
lung 47
lí@@ 47
mak 47
optera 47
ose@@ 47
plant@@ 47
pros@@ 47
rol 47
services 47
such 47
terre 47
tiques 47
uer 47
unit 47
utz@@ 47
vière 47
vu 47
zur@@ 47
üh@@ 47
Ал@@ 47
Пав@@ 47
ве 47
хо@@ 47
чка 47
ז@@ 47
أ@@ 47
غ@@ 47
ْ@@ 47
Ḥ@@ 47
ᾷ 47
‑ 47
№ 47
デ@@ 47
バ@@ 47
Bei@@ 46
DDR 46
Eine 46
Ferdin@@ 46
Han 46
Hispania 46
Kaf@@ 46
Klo@@ 46
Nis@@ 46
Regierungs@@ 46
Rö@@ 46
Stadt 46
Tennessee 46
Zentr@@ 46
amor@@ 46
anı 46
aï@@ 46
bez@@ 46
bind@@ 46
bü@@ 46
development 46
diz@@ 46
eball 46
engo 46
ently 46
euse 46
fici@@ 46
fis@@ 46
ilg@@ 46
ingi@@ 46
isation 46
istische 46
ived 46
joint 46
mau@@ 46
nant 46
national@@ 46
onné 46
ools 46
orb@@ 46
raz@@ 46
sition 46
square 46
stead 46
tero 46
typ@@ 46
use@@ 46
venti@@ 46
ät 46
Бела@@ 46
Ни@@ 46
ев@@ 46
лов@@ 46
п 46
футбо@@ 46
Կ@@ 46
و@@ 46
க@@ 46
ா@@ 46
Ἠ@@ 46
← 46
白@@ 46
Andro@@ 45
Angola 45
Bir 45
Colorado 45
Description 45
Ili@@ 45
Kinder@@ 45
Norte 45
Rico 45
Sie@@ 45
Zwe@@ 45
adron 45
agog@@ 45
clu@@ 45
cultur@@ 45
enin 45
enk@@ 45
fig@@ 45
issen 45
kaz@@ 45
lichen 45
nac@@ 45
nay 45
ophyl@@ 45
orig@@ 45
original 45
repe@@ 45
secre@@ 45
sof@@ 45
stel@@ 45
tik@@ 45
types 45
usu 45
utenant 45
vas 45
ww@@ 45
xo@@ 45
yas@@ 45
yok@@ 45
äs@@ 45
éd@@ 45
élé@@ 45
Би@@ 45
Николай 45
Ти@@ 45
ры@@ 45
տ 45
ք@@ 45
ܝ@@ 45
ニ@@ 45
会@@ 45
金@@ 45
한@@ 45
América 44
Bev@@ 44
Eurov@@ 44
Frau@@ 44
Gül@@ 44
Kran@@ 44
Nieder@@ 44
Provin@@ 44
Sist@@ 44
adam@@ 44
adj@@ 44
aki@@ 44
ample 44
archit@@ 44
between 44
close 44
cred@@ 44
deutscher 44
dil 44
docum@@ 44
ekt 44
featur@@ 44
fro@@ 44
igen 44
instruc@@ 44
izo 44
many 44
mother 44
n.@@ 44
pig@@ 44
rah@@ 44
sala 44
sent@@ 44
spi@@ 44
suff@@ 44
tek 44
tsch@@ 44
unger 44
¥ 44
Ø@@ 44
Έ 44
ανθρ@@ 44
ρωπαϊκ@@ 44
Иванович 44
кра@@ 44
ница 44
א 44
محافظة 44
় 44
ῴ@@ 44
一@@ 44
島 44
Guerra 43
Historic 43
Minn@@ 43
Pek@@ 43
Por 43
Staat@@ 43
Yen@@ 43
academ@@ 43
adul@@ 43
ait@@ 43
auch 43
bec 43
conduc@@ 43
conf@@ 43
culp@@ 43
dist@@ 43
feature 43
fico 43
gence 43
grande 43
itos 43
jeune 43
kari 43
liste 43
musical 43
novel 43
né@@ 43
petite 43
polé@@ 43
reser@@ 43
same 43
sell 43
sten@@ 43
tif 43
tí@@ 43
vend@@ 43
vice 43
wani 43
zam@@ 43
üc@@ 43
ück 43
ün 43
ś 43
ɑ 43
Д 43
Да@@ 43
Миха@@ 43
Михаил 43
Совет@@ 43
ав@@ 43
гу@@ 43
лна 43
сь 43
ча@@ 43
э 43
Վ@@ 43
ا@@ 43
الج@@ 43
ّ@@ 43
ە@@ 43
স@@ 43
ἧ@@ 43
ὧ@@ 43
ℓ@@ 43
サ@@ 43
式@@ 43
Asociación 42
Doğ@@ 42
Estudi@@ 42
Grab@@ 42
Kreuz@@ 42
Mart 42
Oregon 42
Probl@@ 42
Wah@@ 42
afr@@ 42
ambako 42
anese 42
ange@@ 42
anzi 42
ations@@ 42
aç 42
bé@@ 42
cens@@ 42
century 42
cera 42
cion@@ 42
course 42
cription 42
day@@ 42
deli@@ 42
deux 42
dimen@@ 42
eben 42
environ@@ 42
eski 42
expres@@ 42
famili@@ 42
fit 42
haf@@ 42
icht@@ 42
iden@@ 42
include 42
issen@@ 42
iten 42
lance 42
later 42
lek@@ 42
leng@@ 42
loss 42
mission@@ 42
nek 42
never 42
né 42
once 42
person 42
phase 42
poin@@ 42
prec@@ 42
rab@@ 42
ray@@ 42
riff@@ 42
sens@@ 42
solution 42
ug 42
umu 42
w.@@ 42
wers 42
zig 42
ète 42
ön 42
üş@@ 42
Ла@@ 42
При@@ 42
вер@@ 42
вский 42
лы 42
ное 42
ю 42
ян@@ 42
ֶ@@ 42
צ@@ 42
اب@@ 42
خاتون 42
و 42
ា@@ 42
₹ 42
ⴰ@@ 42
ス 42
人 42
國@@ 42
Afrique 41
Apr@@ 41
Califor@@ 41
Deutschen 41
Doug@@ 41
Guin@@ 41
Kü@@ 41
Lux@@ 41
Lü@@ 41
Melbourne 41
Ukraine 41
Uy@@ 41
While 41
Yaz@@ 41
adora 41
aina 41
alar 41
alized 41
annel 41
arri@@ 41
aving 41
campus 41
canc@@ 41
chant 41
cid@@ 41
clar@@ 41
classes 41
classi@@ 41
fantas@@ 41
franc@@ 41
frequ@@ 41
gros@@ 41
illed 41
isons 41
istas 41
izi 41
jam@@ 41
jana 41
japon@@ 41
jet@@ 41
journ@@ 41
king@@ 41
kwa 41
lez 41
olan@@ 41
proced@@ 41
quier@@ 41
rang@@ 41
reduc@@ 41
sang 41
sert 41
signed 41
sport@@ 41
teri 41
tische 41
trade 41
villa 41
vive 41
writ@@ 41
yap@@ 41
ähr@@ 41
üd@@ 41
ę 41
ğ 41
ǒ@@ 41
Дра@@ 41
Ли@@ 41
Ор@@ 41
Свя@@ 41
Ша@@ 41
ба 41
про@@ 41
публи@@ 41
сп@@ 41
ци 41
ча 41
Գ@@ 41
ار@@ 41
ب 41
ܐ 41
প@@ 41
ி@@ 41
マ@@ 41
八@@ 41
御@@ 41
Administr@@ 40
Aires 40
Argentina 40
Connecticut 40
Dies 40
Fren@@ 40
Hamb@@ 40
Hö@@ 40
Iran 40
Lig 40
Missouri 40
Para 40
Soviet 40
Sozial@@ 40
acial 40
alme 40
altung 40
argent 40
argent@@ 40
autom@@ 40
clos@@ 40
complete 40
conc@@ 40
concer@@ 40
curr@@ 40
diff@@ 40
ectu@@ 40
education 40
enen 40
fam@@ 40
hak 40
held 40
hus@@ 40
hyp@@ 40
imen 40
k. 40
kia 40
leurs 40
lig 40
lui 40
matr@@ 40
mern 40
mich@@ 40
nou@@ 40
numer@@ 40
onidae 40
ouvre 40
phys@@ 40
pom@@ 40
quot@@ 40
requ@@ 40
schluss 40
schutz 40
sibil@@ 40
sich@@ 40
them@@ 40
transl@@ 40
urs@@ 40
vac@@ 40
vide 40
âte@@ 40
äch@@ 40
étr@@ 40
ón@@ 40
ücke 40
В 40
ван 40
ман@@ 40
ния 40
ش 40
يا 40
গ@@ 40
レ@@ 40
小@@ 40
西@@ 40
Afrika 39
Ahmet 39
Burg 39
Comité 39
Entw@@ 39
February 39
Grün@@ 39
Hü@@ 39
Ira@@ 39
Jewish 39
Kho@@ 39
Konstant@@ 39
Mai 39
Mundial 39
Mül@@ 39
Poliz@@ 39
Regional@@ 39
Wach@@ 39
Yeni 39
abu 39
alter@@ 39
amt 39
appar@@ 39
atro 39
aume 39
cara 39
categ@@ 39
compl@@ 39
each 39
elas 39
emas 39
fall@@ 39
gare 39
gil@@ 39
had@@ 39
hid@@ 39
ident@@ 39
ifa 39
inform@@ 39
inh 39
ival@@ 39
kav@@ 39
kim@@ 39
ký 39
meng@@ 39
odo 39
ometr@@ 39
otom@@ 39
ouver 39
persona 39
personal 39
records 39
research 39
rá@@ 39
sens 39
upe 39
uvent@@ 39
vos 39
west@@ 39
Þ@@ 39
öy 39
ġ@@ 39
Ș@@ 39
ʾ@@ 39
Ϋ@@ 39
Б 39
Все@@ 39
СССР 39
али@@ 39
ан 39
го 39
зо@@ 39
ит@@ 39
сан@@ 39
сы 39
це@@ 39
բ 39
إ@@ 39
ئ@@ 39
مي@@ 39
ত@@ 39
ფ@@ 39
₯ 39
∇ 39
∗ 39
南@@ 39
新@@ 39
﻿ 39
Alpes 38
Bremen 38
Distr@@ 38
Heim@@ 38
Kik@@ 38
Mehmet 38
Osman@@ 38
Partei 38
Regiment 38
Tier@@ 38
Türk@@ 38
Uk@@ 38
again 38
akadem@@ 38
auté 38
baz@@ 38
calcul@@ 38
cet 38
complex 38
comte 38
division 38
eja 38
eko 38
etos 38
fie 38
gemein@@ 38
hul@@ 38
ikit@@ 38
iß@@ 38
jini 38
libre 38
maz@@ 38
nicht 38
norm@@ 38
onstr@@ 38
pers@@ 38
playing 38
pu 38
release 38
sept@@ 38
spiel 38
stra@@ 38
tant 38
tek@@ 38
third 38
tores 38
trat@@ 38
tries 38
turn@@ 38
uza 38
vez 38
working 38
xim@@ 38
º 38
¾ 38
áng 38
ücken 38
ļ@@ 38
ɨ@@ 38
̱ 38
Ана@@ 38
Я 38
де 38
дор 38
лек@@ 38
публика 38
те 38
الع@@ 38
ك 38
ن 38
ية 38
ℓ 38
민@@ 38
Banglad@@ 37
Brazil 37
Buenos 37
Bö@@ 37
Hay 37
Jahr@@ 37
January 37
Leben 37
Minister 37
Nint@@ 37
Soh@@ 37
Städ@@ 37
Tsch@@ 37
Unión 37
Wash@@ 37
alan 37
alta 37
amos 37
anchi 37
appe@@ 37
application 37
beau@@ 37
bed@@ 37
bezirk 37
bras 37
conqu@@ 37
const@@ 37
coron@@ 37
dav@@ 37
dek 37
dial@@ 37
diers 37
distribution 37
dram@@ 37
early 37
eden@@ 37
efs 37
egio 37
eso 37
firm@@ 37
greg@@ 37
half 37
hier 37
human 37
ient 37
iler@@ 37
iner@@ 37
initi@@ 37
inner@@ 37
kat 37
mexic@@ 37
modern 37
monte 37
next 37
oten 37
pati@@ 37
positions 37
revision 37
sad@@ 37
sex@@ 37
stant@@ 37
study 37
uela 37
wake 37
yen@@ 37
ément 37
ío 37
Ş 37
ŭ 37
ż 37
ǔ@@ 37
̀ 37
Ива@@ 37
Константи@@ 37
дар 37
ռ@@ 37
پ@@ 37
ზ@@ 37
ო 37
῾ 37
‐ 37
≪ 37
シ@@ 37
ロ@@ 37
太@@ 37
平@@ 37
Aş@@ 36
Colomb@@ 36
Drit@@ 36
Fak@@ 36
Frit@@ 36
Hai 36
Im 36
Infan@@ 36
Inform@@ 36
Iowa 36
Ouest 36
Parliament 36
Platz 36
Santi@@ 36
Schles@@ 36
Virgin@@ 36
Wasser@@ 36
Yard@@ 36
Zur 36
abaj@@ 36
acter@@ 36
adet 36
algo 36
alismus 36
arten 36
articles 36
ased 36
attr@@ 36
aum 36
bao 36
benz@@ 36
both 36
bé 36
carr@@ 36
cil 36
ciones 36
collection 36
colum@@ 36
conserv@@ 36
cost@@ 36
depend@@ 36
develop@@ 36
droit 36
dée 36
enga 36
ensus 36
esha 36
forc@@ 36
global 36
hak@@ 36
hand 36
hang 36
intern@@ 36
iw@@ 36
ión 36
mass@@ 36
mg@@ 36
nous 36
ologique 36
onnat 36
oren 36
parts 36
provin@@ 36
sis@@ 36
tah@@ 36
tang@@ 36
tiller@@ 36
trag 36
ural 36
verband 36
writer 36
young 36
zim@@ 36
º@@ 36
û 36
ħ 36
Œ@@ 36
şe 36
Владимир 36
Ге@@ 36
Георги@@ 36
Лю@@ 36
М 36
Ф 36
др 36
об@@ 36
ско@@ 36
խ@@ 36
الق@@ 36
ং@@ 36
য 36
າ@@ 36
⊕ 36
ハ@@ 36
宮 36
文@@ 36
Ban 35
Bretagne 35
Dresden 35
Dör@@ 35
Escuela 35
Hamburg 35
Herb@@ 35
Internacional 35
König 35
Ontario 35
Province 35
Sos@@ 35
Stim@@ 35
Unternehmen 35
accoun@@ 35
adores 35
aka@@ 35
aktion 35
alisation 35
amba@@ 35
arist@@ 35
arrondissement 35
avy@@ 35
aña 35
best@@ 35
brig@@ 35
champ@@ 35
chini 35
chos 35
chron@@ 35
contra 35
correc@@ 35
coul@@ 35
director 35
edil@@ 35
ellas 35
embran@@ 35
encore 35
estas 35
eten 35
expan@@ 35
idence 35
kreis 35
large 35
lead@@ 35
migr@@ 35
mik@@ 35
moderne 35
mont@@ 35
mort 35
nature 35
nur 35
oja 35
pier@@ 35
retr@@ 35
sah@@ 35
speci@@ 35
staff 35
steri@@ 35
tous 35
universit@@ 35
without 35
Église 35
äng@@ 35
économ@@ 35
̌ 35
γυναίκ@@ 35
Андре@@ 35
Ев@@ 35
Кра@@ 35
Му@@ 35
Сте@@ 35
Ту@@ 35
ед@@ 35
ер@@ 35
нин 35
ту@@ 35
ان@@ 35
عبد 35
ف 35
ی 35
ေ@@ 35
Ὠ@@ 35
テ@@ 35
ル 35
中@@ 35
五@@ 35
李@@ 35
語 35
Anadolu 34
Eliz@@ 34
Guerre 34
Its 34
Jesús 34
Jugend@@ 34
Kent@@ 34
Kip@@ 34
Klein@@ 34
Ruh@@ 34
Tari@@ 34
Vladi@@ 34
Yug@@ 34
acqu@@ 34
adan 34
afi 34
ambi 34
anat@@ 34
anot@@ 34
bras@@ 34
büt@@ 34
cartes 34
doch 34
démoc@@ 34
enos 34
ensemble 34
entos 34
fem@@ 34
foc@@ 34
gend 34
gyp@@ 34
gü@@ 34
human@@ 34
ichte 34
iev@@ 34
igos 34
iliano 34
indo 34
interest 34
jit@@ 34
mr@@ 34
nership 34
neur@@ 34
ngu@@ 34
nin@@ 34
official 34
ographie 34
param@@ 34
pay@@ 34
pens@@ 34
prol@@ 34
radic@@ 34
raf@@ 34
sever@@ 34
sik@@ 34
tee 34
tent@@ 34
tín 34
utu 34
uş 34
v. 34
vak@@ 34
would 34
äm@@ 34
ım@@ 34
œur 34
şi 34
ű@@ 34
ɫ@@ 34
ʋ@@ 34
ʔ@@ 34
Федера@@ 34
доро@@ 34
льный 34
ня 34
ри 34
الح@@ 34
ت 34
سى 34
ل 34
ی@@ 34
ப@@ 34
င 34
ძ@@ 34
会 34
神 34
조@@ 34
10. 33
Alab@@ 33
Asoci@@ 33
Boliv@@ 33
Categ@@ 33
Grupp@@ 33
Kup@@ 33
Mal 33
Mt@@ 33
Napole@@ 33
Nep@@ 33
Renn@@ 33
Rez@@ 33
Straße 33
Vier@@ 33
Welt@@ 33
abeth 33
achen 33
actor 33
against 33
aison 33
alam@@ 33
aliste 33
altar 33
amia 33
battle 33
cht@@ 33
church 33
comb@@ 33
diction 33
ecti@@ 33
eines 33
eins 33
fiction 33
forma 33
gew@@ 33
grad@@ 33
griech@@ 33
hii 33
hiv@@ 33
illas 33
infer@@ 33
itr@@ 33
iş@@ 33
jard@@ 33
kup@@ 33
mano 33
occident@@ 33
ombo 33
pein@@ 33
rem 33
roman 33
scar 33
six 33
techni@@ 33
uten 33
verein@@ 33
yaz@@ 33
z. 33
zeit 33
Ét@@ 33
ã 33
ï 33
ónica 33
ög@@ 33
ús@@ 33
ız 33
ž 33
ǐ 33
Василь@@ 33
Фа@@ 33
вина 33
жа@@ 33
жи@@ 33
ние 33
онат 33
ской 33
ть 33
ф 33
фе@@ 33
ю@@ 33
є@@ 33
ј 33
ای@@ 33
ري@@ 33
ون 33
़ 33
ர@@ 33
ိ@@ 33
ც@@ 33
ḍ@@ 33
ἠ 33
‌ 33
≫ 33
♠ 33
♯ 33
株@@ 33
郎 33
門 33
---- 32
Alaska 32
Ave@@ 32
Bezir@@ 32
Entre 32
Escu@@ 32
Futbol 32
Gast@@ 32
Ingen@@ 32
Isra@@ 32
Montr@@ 32
Müh@@ 32
Pays 32
Yıl@@ 32
Zanzibar 32
aled 32
arios 32
aska 32
associ@@ 32
aters 32
award 32
chief 32
cian 32
compar@@ 32
defin@@ 32
deutsch@@ 32
dik@@ 32
disput@@ 32
divis@@ 32
document@@ 32
dose 32
dó@@ 32
eben@@ 32
eded 32
elev@@ 32
emplo@@ 32
enced 32
ense@@ 32
ested 32
fab@@ 32
foot@@ 32
geschichte 32
hik@@ 32
hö@@ 32
ilit@@ 32
kale 32
liches 32
magaz@@ 32
million 32
miz@@ 32
modo 32
moun@@ 32
mt@@ 32
near 32
oras 32
oyun@@ 32
plut@@ 32
rail 32
relig@@ 32
rég@@ 32
rés@@ 32
traf@@ 32
transfer@@ 32
urt@@ 32
util@@ 32
yab@@ 32
¿ 32
äger 32
äh@@ 32
éti@@ 32
étés 32
ül 32
İstanbul 32
ır 32
ɲ@@ 32
ʃ 32
Г 32
Гри@@ 32
Иль@@ 32
Народ@@ 32
Стефан 32
Фе@@ 32
бри@@ 32
до 32
лин@@ 32
мар@@ 32
мен@@ 32
мов 32
от@@ 32
ұ@@ 32
է@@ 32
ב 32
ע 32
الأ@@ 32
الن@@ 32
خان 32
سي@@ 32
لي@@ 32
ۇ@@ 32
र 32
ស@@ 32
ḥ 32
ἤ 32
⊆ 32
ⱏ@@ 32
地@@ 32
林@@ 32
Burundi 31
Cuba 31
Gök@@ 31
Lima 31
Sevilla 31
Spiel@@ 31
Stoc@@ 31
Vak@@ 31
Yun@@ 31
aal@@ 31
atik 31
ayı 31
brach@@ 31
caus@@ 31
chs 31
cé@@ 31
degree 31
diam@@ 31
drei 31
dur 31
ectura 31
enem@@ 31
escap@@ 31
films 31
fond@@ 31
forsch@@ 31
forte 31
gericht 31
government 31
guit@@ 31
gut 31
help 31
iku@@ 31
inco 31
iran 31
irat@@ 31
kana 31
kay@@ 31
leben 31
littér@@ 31
llev@@ 31
march@@ 31
meni 31
mom@@ 31
mundo 31
normal 31
nouveau 31
oires 31
onto 31
osen 31
patri@@ 31
pays 31
ped 31
plays 31
reas 31
regular 31
role 31
sana 31
schen@@ 31
specific 31
spor 31
tane 31
telev@@ 31
training 31
trich@@ 31
uelle 31
uku 31
vehic@@ 31
vier@@ 31
yü@@ 31
zor@@ 31
ís@@ 31
ör 31
ʌ@@ 31
ʹ 31
θρη@@ 31
τουλάχ@@ 31
Кара@@ 31
Сто@@ 31
Чемпи@@ 31
ева 31
ен@@ 31
ин@@ 31
ите@@ 31
лий 31
ме 31
па 31
пу@@ 31
санд@@ 31
ья 31
қ 31
ծ@@ 31
ց 31
ׁ@@ 31
اد 31
اد@@ 31
مان 31
් 31
ු@@ 31
ἶ 31
ὤ@@ 31
安@@ 31
Arsen@@ 30
ESCO 30
Kenya 30
Kır@@ 30
Obl@@ 30
Orden 30
Palest@@ 30
Rek@@ 30
Serbia 30
Sri 30
Tanz@@ 30
Verein 30
Wahl@@ 30
aciones 30
anno@@ 30
aper@@ 30
artic@@ 30
bomb@@ 30
design@@ 30
deur 30
deutschen 30
district 30
dos@@ 30
elos 30
endra 30
energy 30
enfants 30
ergie 30
eté 30
fav@@ 30
fight 30
fot@@ 30
fédér@@ 30
gang 30
gaz 30
herr@@ 30
ieder 30
jen@@ 30
kali 30
loi 30
là 30
maz 30
mechan@@ 30
members 30
munici@@ 30
mé 30
ober@@ 30
ously 30
parall@@ 30
rein@@ 30
reo 30
rul@@ 30
said 30
sich 30
simple 30
still 30
subst@@ 30
ticia 30
unu 30
uren 30
uw@@ 30
veget@@ 30
visi@@ 30
wart 30
wns 30
women 30
xima 30
zas 30
Â@@ 30
èmes 30
éré@@ 30
ünde 30
ŋ 30
ϛ 30
Кар@@ 30
Ком@@ 30
Мария 30
Н 30
Петер@@ 30
Ю 30
бли@@ 30
бра@@ 30
ван@@ 30
гла@@ 30
дро@@ 30
зи@@ 30
стан 30
су@@ 30
ёт@@ 30
џ@@ 30
Ե@@ 30
Ն@@ 30
ւ 30
ث@@ 30
مر@@ 30
مو@@ 30
چ@@ 30
ܘ@@ 30
ර@@ 30
ᾱ@@ 30
ⰻ@@ 30
オ@@ 30
四@@ 30
家@@ 30
少@@ 30
民@@ 30
高@@ 30
선@@ 30
Arkansas 29
Böl@@ 29
Cerambycidae 29
Congo 29
Fati@@ 29
Finale 29
Frau 29
Meister 29
Mär@@ 29
Nigeria 29
Population 29
Sociedad 29
Sold@@ 29
acias 29
ammlung 29
azu 29
being 29
bul 29
combin@@ 29
corps 29
dered 29
determin@@ 29
diffus@@ 29
egu@@ 29
ersch@@ 29
exten@@ 29
fak@@ 29
future 29
going 29
ibi 29
influ@@ 29
intr@@ 29
issue 29
kah@@ 29
kid@@ 29
kunde 29
lique 29
location 29
nad@@ 29
note 29
orch@@ 29
ordnung 29
physi@@ 29
placement 29
present 29
probl@@ 29
property 29
registr@@ 29
resol@@ 29
rum@@ 29
schl@@ 29
sied@@ 29
sif 29
stein@@ 29
surface 29
term 29
territori@@ 29
tigen 29
tout 29
treat@@ 29
té@@ 29
urb@@ 29
usta@@ 29
zoni 29
Über@@ 29
ück@@ 29
Ć@@ 29
ĕ@@ 29
ź@@ 29
ș 29
ɾ 29
ʂ@@ 29
Воло@@ 29
ж 29
йская 29
лен@@ 29
лё@@ 29
ны 29
он@@ 29
ские 29
сов 29
ты@@ 29
це 29
Թ@@ 29
ց@@ 29
الك@@ 29
بي@@ 29
ۋ@@ 29
দ 29
হ@@ 29
ਾ@@ 29
த@@ 29
བ@@ 29
ὦ 29
∂ 29
和@@ 29
明@@ 29
江@@ 29
者 29
Alman@@ 28
Ark@@ 28
Bas 28
Dek@@ 28
Gord@@ 28
Jeux 28
Kiy@@ 28
Kommun@@ 28
Minnesota 28
Pakistan 28
Partisi 28
Presidente 28
Republik 28
abad 28
adap@@ 28
ambia 28
architec@@ 28
arron@@ 28
asse@@ 28
awa@@ 28
awe 28
bara 28
candid@@ 28
children 28
collec@@ 28
community 28
comun@@ 28
dern 28
deu@@ 28
dyn@@ 28
economic 28
elea 28
entales 28
ept 28
eña 28
fabri@@ 28
fahr@@ 28
give 28
gran 28
haus@@ 28
hier@@ 28
ibu 28
ically 28
idental 28
ités 28
journal 28
kip@@ 28
naf@@ 28
ndi@@ 28
near@@ 28
ngh@@ 28
nomin@@ 28
opening 28
pand@@ 28
petit 28
primary 28
propi@@ 28
pré@@ 28
qued@@ 28
relation 28
represent@@ 28
restric@@ 28
rée 28
saire 28
sionn@@ 28
stil@@ 28
tai 28
temper@@ 28
teria 28
there@@ 28
transfer 28
träge 28
tér@@ 28
u. 28
ucion@@ 28
verte@@ 28
vile 28
vom 28
wap@@ 28
éal 28
été 28
être 28
üz@@ 28
ık@@ 28
ň@@ 28
ǐ@@ 28
ʼ@@ 28
̞ 28
Македо@@ 28
Национа@@ 28
Ново@@ 28
Российской 28
Чер@@ 28
льная 28
округ 28
рен@@ 28
рин 28
ске 28
тов 28
ғ@@ 28
մ 28
أبو 28
اء 28
اس@@ 28
ال 28
دي 28
رو@@ 28
لل@@ 28
من@@ 28
نا 28
ند@@ 28
ަ@@ 28
မ@@ 28
წ@@ 28
™ 28
∪ 28
● 28
ド 28
プ@@ 28
法@@ 28
대@@ 28
Arbeits@@ 27
Ağ@@ 27
Komit@@ 27
Selb@@ 27
Sez@@ 27
Sommer@@ 27
Wahl 27
adv@@ 27
agement 27
ajo 27
amen@@ 27
americ@@ 27
anderen 27
anl@@ 27
antage 27
ayed 27
azz 27
baba 27
bang 27
before 27
brit@@ 27
bunal 27
chall@@ 27
chas 27
chef 27
company 27
concep@@ 27
ders@@ 27
deutsch 27
discipl@@ 27
ezi 27
find 27
gesellschaft 27
govern@@ 27
great 27
guar@@ 27
habit@@ 27
hac@@ 27
hoa 27
honor@@ 27
horiz@@ 27
jud@@ 27
kem@@ 27
kum 27
lege 27
mot 27
mül@@ 27
names 27
nim@@ 27
nom 27
orit@@ 27
otz 27
parish 27
partition 27
plant 27
pá@@ 27
rar@@ 27
result 27
strateg@@ 27
tam 27
tiles 27
ungo 27
vania 27
versit@@ 27
wanda 27
wann 27
ède 27
úl@@ 27
İn@@ 27
ʼ 27
Анна 27
Борис 27
Бран@@ 27
Гра@@ 27
П 27
Петро@@ 27
Сергей 27
Те@@ 27
алистиче@@ 27
аль@@ 27
бал@@ 27
град@@ 27
лин 27
пол@@ 27
сов@@ 27
три@@ 27
фи@@ 27
ў 27
Տ@@ 27
փ@@ 27
ֵ@@ 27
الس@@ 27
القدم 27
ح 27
دي@@ 27
ور@@ 27
ين 27
ြ@@ 27
ង 27
ἀ 27
ὃ 27
Ὄ@@ 27
ῷ@@ 27
☉ 27
り@@ 27
ァ@@ 27
ウ@@ 27
パ@@ 27
人@@ 27
佐@@ 27
宮@@ 27
拳 27
皇 27
김@@ 27
Actu@@ 26
Bürger@@ 26
Deniz 26
Engl@@ 26
Ethiop@@ 26
Hungary 26
Kinder 26
Kreis 26
Kreis@@ 26
Later 26
Mkoa 26
Phi 26
Queensland 26
Việt 26
Waz@@ 26
aifa 26
alem@@ 26
alian 26
alition 26
alı 26
annual 26
another 26
asim@@ 26
ately 26
atten@@ 26
celles 26
cil@@ 26
comple@@ 26
contre 26
cycl@@ 26
direction 26
eden 26
ehem@@ 26
eler@@ 26
furt 26
hommes 26
igung 26
ikal@@ 26
imiento 26
istin 26
itable 26
jeu 26
kam 26
leader 26
legen 26
limit@@ 26
lun@@ 26
länd@@ 26
member 26
mois 26
niti@@ 26
ologne 26
olu 26
political 26
portes 26
relations 26
resid@@ 26
response 26
rien 26
roman@@ 26
rä@@ 26
semi 26
spap@@ 26
tepe 26
trois 26
tropolit@@ 26
ulaire 26
ungu 26
utsch@@ 26
uzi 26
volume 26
writing 26
written 26
wur@@ 26
yal 26
zey 26
Ül@@ 26
çal@@ 26
èg@@ 26
ême 26
ıl 26
ź 26
ʎ@@ 26
αποτελε@@ 26
Бал@@ 26
Санкт 26
Сла@@ 26
бан@@ 26
вет@@ 26
гин@@ 26
ера 26
рав@@ 26
ских 26
тина 26
чи 26
шка 26
ջ@@ 26
ש 26
جبل 26
در@@ 26
لكرة 26
ُ@@ 26
শ@@ 26
ো@@ 26
ு@@ 26
์ 26
ṛ@@ 26
ἣ@@ 26
↔ 26
し@@ 26
な@@ 26
キ@@ 26
ト 26
上@@ 26
十@@ 26
木@@ 26
王@@ 26
국@@ 26
도 26
19. 25
According 25
Anc@@ 25
Architek@@ 25
Colombia 25
Francia 25
Hannover 25
Kıbrıs 25
Munici@@ 25
Osten 25
Preis 25
Stuttgart 25
Süper 25
Tür@@ 25
Zürich 25
arak 25
arro@@ 25
astronom@@ 25
atif 25
atiques 25
bey@@ 25
cada 25
called 25
cath@@ 25
character 25
circul@@ 25
deal 25
decor@@ 25
eit@@ 25
elected 25
embre 25
erer 25
español 25
exper@@ 25
expression 25
goal 25
historique 25
hui 25
iria 25
jijini 25
kut@@ 25
lieu 25
lir 25
lungen 25
lö@@ 25
maf@@ 25
miles 25
nah@@ 25
oku@@ 25
ortho@@ 25
osha 25
oyn@@ 25
period 25
published 25
rights 25
running 25
régi@@ 25
sek 25
senior 25
sent 25
sexual 25
spek@@ 25
spiele 25
stellung 25
strat@@ 25
tainment 25
transport 25
umes 25
una@@ 25
wah@@ 25
xu@@ 25
zed 25
zona 25
äd@@ 25
äts@@ 25
èn 25
êtes 25
öm@@ 25
ús 25
ür 25
̰ 25
Ϛ 25
Ген@@ 25
Екате@@ 25
Москва 25
Пи@@ 25
Пу@@ 25
СК@@ 25
дар@@ 25
ден 25
йо@@ 25
лига 25
обо@@ 25
ска@@ 25
ского 25
слав@@ 25
тар 25
ты 25
фо@@ 25
Պ@@ 25
լ 25
آ@@ 25
الإ@@ 25
الل@@ 25
ام 25
ج 25
في@@ 25
ক 25
ས@@ 25
က@@ 25
ὀ 25
ὖ 25
お@@ 25
エ@@ 25
ズ 25
チ@@ 25
ナ@@ 25
ャ@@ 25
京@@ 25
忍@@ 25
花@@ 25
Alger@@ 24
Atl@@ 24
Career 24
Dans 24
Schauspi@@ 24
Sult@@ 24
Tod 24
Verein@@ 24
Zentrum 24
abb@@ 24
argum@@ 24
baj@@ 24
besch@@ 24
bili@@ 24
cause 24
central 24
chanson 24
charge 24
circu@@ 24
crisis 24
cá@@ 24
dido 24
edad 24
einen 24
endro@@ 24
enso 24
eption 24
eser@@ 24
evin 24
fif@@ 24
film@@ 24
following 24
générale 24
heav@@ 24
hes@@ 24
hio 24
ikan@@ 24
ilien 24
imbo 24
imini 24
internation@@ 24
inu 24
isol@@ 24
kari@@ 24
lage 24
manos 24
mec@@ 24
monum@@ 24
musique 24
okrati@@ 24
omba 24
omel@@ 24
pal 24
policy 24
population 24
present@@ 24
prince 24
prix 24
quanti@@ 24
quer 24
report 24
route 24
scor@@ 24
sera 24
seur 24
should 24
soon 24
stelle 24
such@@ 24
tiy@@ 24
udi 24
until 24
wag@@ 24
wale 24
yam@@ 24
Ör@@ 24
ém 24
éo 24
éré 24
ét 24
Ț@@ 24
̂ 24
За 24
Ио@@ 24
Константин 24
Кор@@ 24
Мат@@ 24
Република 24
Хер@@ 24
Чу@@ 24
Ши@@ 24
бе 24
ита@@ 24
лия 24
лы@@ 24
народ@@ 24
ные 24
ру 24
цкий 24
чки 24
ё 24
ң@@ 24
ү 24
Բ@@ 24
Շ@@ 24
ձ@@ 24
ام@@ 24
ما@@ 24
ک@@ 24
प 24
ী 24
တ@@ 24
პ@@ 24
ḏ@@ 24
ẓ@@ 24
Ἴ@@ 24
⊥ 24
ⰰ@@ 24
コ@@ 24
ブ@@ 24
国 24
殿 24
河@@ 24
立@@ 24
사@@ 24
1980s 23
Amt 23
Beş@@ 23
Ciud@@ 23
Durant 23
Düssel@@ 23
För@@ 23
Hek@@ 23
Kirche 23
Lincol@@ 23
Lond@@ 23
Qué@@ 23
Sprache 23
Vater 23
alismo 23
arqu@@ 23
arrang@@ 23
atisti@@ 23
author@@ 23
axe 23
aí@@ 23
campaign 23
cim@@ 23
comme 23
could 23
create 23
different 23
disco@@ 23
dix 23
ecto 23
eget@@ 23
ehe 23
ehir 23
eshi 23
fahrt 23
femmes 23
fik@@ 23
forme 23
formed 23
fort@@ 23
gauche 23
geri 23
grand@@ 23
gru@@ 23
gé@@ 23
hava 23
hay@@ 23
hep@@ 23
inin 23
isel 23
isho 23
isim@@ 23
jaw@@ 23
jours 23
kamp@@ 23
kung 23
lagen 23
langu@@ 23
lima 23
lowing 23
mana 23
minim@@ 23
missions 23
movement 23
más 23
même 23
noche 23
pek@@ 23
pion@@ 23
politik 23
publik 23
puis 23
pur 23
quán 23
recherche 23
refl@@ 23
reti@@ 23
roqu@@ 23
rouge 23
rugby 23
rí@@ 23
sek@@ 23
sett@@ 23
songs 23
southern 23
tora 23
trique 23
tür@@ 23
ulares 23
unas 23
units 23
vé@@ 23
xin 23
yana 23
yük 23
zh 23
© 23
¯ 23
Í 23
ández 23
çe 23
ôt 23
õ 23
ösung 23
ük@@ 23
İş@@ 23
ısı 23
αγκόσ@@ 23
Анато@@ 23
Бар@@ 23
Евге@@ 23
Пер@@ 23
Р 23
Тат@@ 23
Че@@ 23
ак@@ 23
ари 23
ата@@ 23
бург 23
воло@@ 23
йн 23
клуб 23
нина 23
ста 23
уго@@ 23
фа@@ 23
ян 23
և@@ 23
أحمد 23
بر@@ 23
ذ@@ 23
رة 23
ستان 23
فر@@ 23
مع@@ 23
ھ@@ 23
ܪ@@ 23
އ@@ 23
ச@@ 23
ວ@@ 23
ັ@@ 23
ម@@ 23
រ 23
ᠠ@@ 23
ⲁ@@ 23
ⲓ@@ 23
ⵉ@@ 23
セ@@ 23
ダ@@ 23
ワ@@ 23
州 23
本 23
田 23
院 23
국 23
Buch 22
Canton 22
Cumhuriy@@ 22
Erk@@ 22
Fes@@ 22
Frauen 22
Gemein@@ 22
Gesch@@ 22
Iglesia 22
Kör@@ 22
Künst@@ 22
Linc@@ 22
Muhar@@ 22
Nazi 22
Oly@@ 22
Osmanlı 22
Refer@@ 22
Schiff@@ 22
Tanganyika 22
Uganda 22
Valencia 22
Wab@@ 22
actu@@ 22
akawa 22
alten 22
anh 22
anlığı 22
association 22
author 22
ayi 22
aşa 22
château 22
cito 22
compon@@ 22
conse@@ 22
covered 22
crim@@ 22
cultural 22
dini 22
durch 22
enl@@ 22
eñ@@ 22
familia 22
fica 22
fé@@ 22
gabe 22
genus 22
hao 22
huru 22
ingi 22
internationale 22
jour@@ 22
justice 22
manif@@ 22
marqu@@ 22
maî@@ 22
meas@@ 22
mim@@ 22
minister 22
mobil@@ 22
move 22
observ@@ 22
parte 22
players 22
politi@@ 22
premier 22
prepar@@ 22
protection 22
publican 22
publique 22
qué 22
rière 22
royal 22
ré 22
seig@@ 22
seven 22
these 22
thode 22
tivities 22
trik 22
turn 22
tés 22
unia 22
uppen 22
verw@@ 22
verz@@ 22
vik@@ 22
wär@@ 22
yay@@ 22
Ó 22
át 22
çi 22
équ@@ 22
ónom@@ 22
ôle 22
ún@@ 22
ɴ 22
ʝ@@ 22
̩ 22
̪ 22
Българ@@ 22
Вале@@ 22
Гу@@ 22
Елена 22
Ло@@ 22
Пра@@ 22
Прав@@ 22
Сре@@ 22
бы@@ 22
йский 22
кин 22
ку 22
мир@@ 22
они@@ 22
публика@@ 22
ран@@ 22
рия 22
спо@@ 22
спор@@ 22
тив@@ 22
тор@@ 22
цы 22
ҡ@@ 22
һ@@ 22
Լ@@ 22
، 22
ست@@ 22
علي 22
قاد@@ 22
ون@@ 22
ير 22
يل 22
ܕ@@ 22
ܡ@@ 22
আ@@ 22
ল 22
ར@@ 22
န 22
း@@ 22
ὓ@@ 22
‍ 22
‒ 22
⅓ 22
∀ 22
∘ 22
ⲟ@@ 22
り 22
ム@@ 22
ラ 22
一 22
古@@ 22
合@@ 22
清@@ 22
石@@ 22
韓@@ 22
Après 21
Bu 21
Bür@@ 21
Gew@@ 21
Gia 21
Ih@@ 21
Kazak@@ 21
Olimpi@@ 21
Paragu@@ 21
Pia 21
Schule 21
Sept@@ 21
Sich@@ 21
Sus 21
Tierra 21
Werk 21
administration 21
alité 21
ancak 21
armes 21
assass@@ 21
athol@@ 21
ativo 21
autor@@ 21
azine 21
barr@@ 21
biet 21
biy@@ 21
bron@@ 21
canti@@ 21
celle 21
clim@@ 21
coloni@@ 21
concentr@@ 21
contact 21
cump@@ 21
declar@@ 21
democ@@ 21
destruc@@ 21
diver@@ 21
dows 21
développement 21
elerin 21
endant 21
excep@@ 21
fau@@ 21
fille 21
franç@@ 21
gus@@ 21
général 21
hockey 21
ihr 21
ingen@@ 21
iture 21
lande 21
lywood 21
lık 21
mais 21
mt 21
noi 21
onales 21
pair 21
papel 21
plann@@ 21
popular 21
poss@@ 21
progr@@ 21
propri@@ 21
sculp@@ 21
serie 21
since 21
só@@ 21
terie 21
teurs 21
tof@@ 21
together 21
toire 21
village 21
visit@@ 21
vote 21
wach@@ 21
went 21
ymnasium 21
yor@@ 21
ám@@ 21
áo 21
ätte 21
éné@@ 21
ñ 21
üst@@ 21
ě 21
ĝ 21
ıy@@ 21
ız@@ 21
ʊ 21
Авто@@ 21
Андрей 21
Государ@@ 21
Жи@@ 21
Зе@@ 21
Рус@@ 21
Т 21
Федерации 21
Ше@@ 21
дия 21
зе@@ 21
зы@@ 21
кто@@ 21
лан 21
лина 21
мы@@ 21
ной 21
ности 21
ны@@ 21
ных 21
ора 21
партия 21
сти 21
ѣ@@ 21
ו 21
الز@@ 21
الش@@ 21
اني 21
با@@ 21
في 21
نا@@ 21
وم 21
يد 21
ین 21
މ@@ 21
म@@ 21
य 21
स 21
ட@@ 21
வ@@ 21
ས 21
ပ@@ 21
ာ@@ 21
Ἥ@@ 21
ᾧ 21
ῤ@@ 21
ῳ@@ 21
ベ@@ 21
中国@@ 21
主@@ 21
六@@ 21
刀 21
城@@ 21
子@@ 21
宇@@ 21
家 21
師 21
朝@@ 21
焼@@ 21
福@@ 21
青@@ 21
이@@ 21
정@@ 21
주@@ 21
11. 20
Amérique 20
Arbeit 20
Baş@@ 20
Chu 20
Diy@@ 20
Ej@@ 20
Feuer@@ 20
Fuer@@ 20
Gleich@@ 20
Imperio 20
Jahre 20
Jap@@ 20
Kamer@@ 20
Kapit@@ 20
Köl@@ 20
Landes 20
Ley 20
Liver@@ 20
Minister@@ 20
Parlam@@ 20
Phong 20
Vietnam 20
Xu@@ 20
Yay@@ 20
acked 20
amente 20
among 20
aran 20
arbeit@@ 20
atür@@ 20
because 20
better 20
capac@@ 20
charg@@ 20
como 20
contribu@@ 20
dej@@ 20
depuis 20
distance 20
does 20
duc 20
ellschaft 20
enzi 20
esos 20
europé@@ 20
genes 20
graphie 20
hay 20
hie 20
hun@@ 20
hut@@ 20
ichen 20
ifs 20
interpret@@ 20
islas 20
kön@@ 20
lanc@@ 20
landa 20
langue 20
legal 20
ligne 20
luk 20
making 20
material 20
meeting 20
multiple 20
must 20
musée 20
nach@@ 20
nek@@ 20
nuc@@ 20
nung 20
ockey 20
ongo@@ 20
pek 20
pop@@ 20
professor 20
präs@@ 20
puls@@ 20
rement 20
resist@@ 20
respon@@ 20
reven@@ 20
rir 20
scheid@@ 20
serve 20
seud@@ 20
singer 20
siy@@ 20
sä@@ 20
tep@@ 20
ubic@@ 20
ucky 20
wert 20
È@@ 20
États 20
äu@@ 20
écn@@ 20
étique 20
ük 20
üncü 20
İkinci 20
ıl@@ 20
ǎ 20
ɒ@@ 20
ɵ@@ 20
ʁ 20
ʰ 20
ʲ 20
̈ 20
ειδερ@@ 20
Василий 20
Викто@@ 20
Дани@@ 20
Доб@@ 20
Ль@@ 20
Пан@@ 20
Серге@@ 20
би 20
ган 20
дан 20
из@@ 20
лена 20
льский 20
мия 20
нь 20
область 20
од@@ 20
пер@@ 20
рин@@ 20
рова 20
рус@@ 20
ры 20
сен 20
стра@@ 20
шки 20
ье 20
Յ@@ 20
դ 20
ּ 20
ץ 20
ات 20
الخ@@ 20
الدين 20
بلا@@ 20
بن@@ 20
دة 20
من 20
وا@@ 20
ܢ@@ 20
द 20
ක@@ 20
ා@@ 20
ດ@@ 20
ສ@@ 20
། 20
ყ@@ 20
አ@@ 20
ក 20
ុ@@ 20
ὅ 20
ℝ 20
♣ 20
》 20
た@@ 20
ボ@@ 20
周@@ 20
堂 20
水@@ 20
球@@ 20
百@@ 20
社@@ 20
美@@ 20
道@@ 20
12. 19
Auf 19
Comme 19
Córdoba 19
Dez@@ 19
Er 19
Garc@@ 19
Gruppe 19
Kale 19
Lehr@@ 19
Municipal@@ 19
Mü@@ 19
Rom 19
Rä@@ 19
Sied@@ 19
Sudan 19
Zug@@ 19
adal@@ 19
adol@@ 19
along 19
associated 19
bald 19
basket@@ 19
cargo 19
cathol@@ 19
cias 19
commerce 19
commune 19
communication 19
crimin@@ 19
dau@@ 19
départem@@ 19
département 19
día 19
eight 19
enario 19
erung 19
esqu@@ 19
etten 19
etu 19
experi@@ 19
expos@@ 19
fait 19
flan@@ 19
genre 19
ghi 19
gradu@@ 19
grou@@ 19
health 19
heit@@ 19
historia 19
hé@@ 19
hô@@ 19
ift@@ 19
ifu 19
inat@@ 19
insec@@ 19
inten@@ 19
kua 19
lama 19
langen 19
laun@@ 19
laya 19
least 19
lichkeit 19
lista 19
maison 19
mark@@ 19
materi@@ 19
metr@@ 19
minut@@ 19
moto 19
nacional 19
named 19
naval 19
neutr@@ 19
nuevo 19
ologische 19
osas 19
parti 19
perform@@ 19
pik 19
pino 19
pios 19
portant 19
princi@@ 19
privil@@ 19
promot@@ 19
reci@@ 19
relationship 19
sino 19
sobre 19
tay@@ 19
theast 19
thiop@@ 19
uş@@ 19
völ@@ 19
waf@@ 19
wam@@ 19
within 19
yoğ@@ 19
zeit@@ 19
ª 19
Ò@@ 19
ände 19
édi@@ 19
édo@@ 19
éta@@ 19
óng 19
úa 19
üf@@ 19
ĭ@@ 19
ũ@@ 19
Ț 19
ɨ 19
ϝ@@ 19
Є@@ 19
Анто@@ 19
Мак@@ 19
Нико@@ 19
Пар@@ 19
ад@@ 19
вен@@ 19
вица 19
дру@@ 19
ды@@ 19
зан@@ 19
ита 19
лен 19
люб@@ 19
област 19
ори 19
при 19
ран 19
ря@@ 19
стан@@ 19
сы@@ 19
тур@@ 19
ут@@ 19
шко 19
ъ@@ 19
ёз@@ 19
ён 19
ө 19
շ 19
اش@@ 19
الت@@ 19
حسن 19
سن@@ 19
ما 19
مة 19
وال@@ 19
ور 19
گ@@ 19
रा@@ 19
ला 19
চ@@ 19
ய@@ 19
ප@@ 19
ි@@ 19
ོ@@ 19
့ 19
ṭ 19
ἃ 19
ἣ 19
Ὡ@@ 19
∩ 19
⊂ 19
《 19
う@@ 19
ま@@ 19
ア 19
ィ@@ 19
ガ@@ 19
グ@@ 19
メ@@ 19
園 19
士 19
氏 19
画 19
華@@ 19
기@@ 19
의 19
인@@ 19
Amerika 18
Bien 18
Consejo 18
Ecu@@ 18
Esta 18
Forschungs@@ 18
Ghana 18
Göl@@ 18
Halb@@ 18
Höh@@ 18
Kari@@ 18
Landkreis 18
Polen 18
Première 18
Sous 18
Viet@@ 18
Yoh@@ 18
Yüz@@ 18
Zum 18
actr@@ 18
afu@@ 18
anach@@ 18
ancı 18
andes 18
angu 18
animal 18
artists 18
bare 18
baseball 18
basis 18
bish@@ 18
bâ@@ 18
bö@@ 18
canal 18
chac@@ 18
champi@@ 18
character@@ 18
consol@@ 18
có@@ 18
decision 18
donne 18
ducation 18
dung 18
egem@@ 18
elik 18
equival@@ 18
etin 18
expl@@ 18
feu@@ 18
fils 18
found 18
four@@ 18
gol 18
group@@ 18
gün 18
hours 18
ickl@@ 18
ilities 18
incre@@ 18
industri@@ 18
istre 18
iten@@ 18
jeres 18
kend@@ 18
kuj@@ 18
libro 18
livre 18
maya 18
meter 18
military 18
minutes 18
moment 18
muda 18
noch 18
operations 18
organiz@@ 18
ouvern@@ 18
past 18
polon@@ 18
pont 18
positive 18
pour@@ 18
quier 18
received 18
rej@@ 18
relati@@ 18
round@@ 18
saint 18
schafts@@ 18
schools 18
sede 18
seen 18
siempre 18
siz@@ 18
sozial@@ 18
système 18
those 18
traditional 18
travail 18
trit@@ 18
villes 18
wand@@ 18
zwe@@ 18
ào 18
école 18
économique 18
élec@@ 18
était 18
ím@@ 18
île 18
öster@@ 18
öß@@ 18
üm 18
Ţ@@ 18
ů@@ 18
̣ 18
ερικαν@@ 18
καδημ@@ 18
Бело@@ 18
Бори@@ 18
Из@@ 18
Йо@@ 18
Ке@@ 18
Клу@@ 18
Кри@@ 18
Об@@ 18
Павел 18
Ри@@ 18
Центра@@ 18
бо 18
вы@@ 18
ган@@ 18
дий 18
зер@@ 18
кон@@ 18
лова 18
нски 18
при@@ 18
рон@@ 18
стро@@ 18
тия 18
чу@@ 18
ҳ@@ 18
Ի@@ 18
Ք@@ 18
ג 18
اس 18
الب@@ 18
العربية 18
خان@@ 18
دائ@@ 18
صر 18
فة 18
لة 18
مه@@ 18
نج@@ 18
ܬ@@ 18
ल 18
ত 18
க 18
ம@@ 18
ང 18
ṃ@@ 18
ṯ@@ 18
ὂ@@ 18
ⲙ@@ 18
き 18
つ@@ 18
ノ@@ 18
佛@@ 18
命 18
文 18
王 18
藤@@ 18
野@@ 18
館 18
龍@@ 18
15. 17
Afgh@@ 17
Aun@@ 17
Bisch@@ 17
Cathol@@ 17
Conse@@ 17
Cuando 17
Dich@@ 17
II. 17
Klasse 17
Mitte 17
Mutter 17
Nh@@ 17
Olí@@ 17
Par 17
Qualif@@ 17
Schlacht 17
Schweizer 17
Syria 17
Township 17
Unter 17
Wirtschafts@@ 17
Zu 17
aham@@ 17
ahn@@ 17
aircraft 17
aji@@ 17
annen 17
après 17
assistant 17
años 17
benef@@ 17
bür@@ 17
came 17
causa 17
championship 17
chte 17
cinéma 17
cipe 17
cité 17
college 17
contract 17
ded@@ 17
diagn@@ 17
donn@@ 17
duk@@ 17
dül@@ 17
einem 17
embe 17
emente 17
endas 17
eos 17
erei 17
evento 17
experim@@ 17
famille 17
figure 17
financial 17
frac@@ 17
fér@@ 17
hab 17
hala 17
heb@@ 17
hoch@@ 17
igt 17
impos@@ 17
infr@@ 17
inti@@ 17
issant 17
istik 17
italiano 17
iteur 17
keit 17
kräf@@ 17
lak 17
leit@@ 17
leitung 17
lige 17
motor 17
much 17
nouvelle 17
novel@@ 17
ografia 17
ordre 17
oslav@@ 17
où 17
oğ@@ 17
partic@@ 17
politiques 17
propor@@ 17
quan 17
quatre 17
rail@@ 17
related 17
released 17
religi@@ 17
religion 17
results 17
secund@@ 17
sociales 17
spor@@ 17
student 17
sud 17
suite 17
sych@@ 17
sö@@ 17
taş 17
teş@@ 17
tish@@ 17
titul@@ 17
tiv 17
tradi@@ 17
tungs@@ 17
urban@@ 17
voix 17
weit@@ 17
wissen@@ 17
yav@@ 17
¢ 17
Üniversitesi 17
ài 17
änder@@ 17
ñas 17
óm@@ 17
ôn 17
÷ 17
đe 17
ınar 17
ɣ 17
ɦ@@ 17
ʾ 17
ʿ 17
Бра@@ 17
Васи@@ 17
Вол@@ 17
Кон@@ 17
Красно@@ 17
Кре@@ 17
Кры@@ 17
ССР 17
Сем@@ 17
Тео@@ 17
ани 17
ати@@ 17
бар@@ 17
вый 17
дов 17
ды 17
ер 17
лев 17
лица 17
мя 17
ники 17
ок@@ 17
она@@ 17
пар@@ 17
парти@@ 17
пера@@ 17
пре@@ 17
ственный 17
стов 17
ше 17
щ@@ 17
щина 17
эн@@ 17
Ո@@ 17
ֲ@@ 17
ח 17
ק 17
اج@@ 17
اق@@ 17
الر@@ 17
خلي@@ 17
دان@@ 17
سو@@ 17
لو@@ 17
مص@@ 17
ني@@ 17
وب@@ 17
ک 17
ް@@ 17
त 17
গ 17
ট@@ 17
ভ@@ 17
ম 17
ਸ@@ 17
ம 17
ி 17
่ 17
ྲ@@ 17
ት@@ 17
ដ@@ 17
ន@@ 17
ប 17
ἒ@@ 17
ᾳ@@ 17
‣ 17
∨ 17
ⰾ@@ 17
ⱄ@@ 17
ⲣ@@ 17
き@@ 17
ん@@ 17
イ 17
ゴ@@ 17
川 17
帝 17
會 17
松@@ 17
漢@@ 17
記 17
足@@ 17
阿@@ 17
도@@ 17
Ankara 16
Ayr@@ 16
Fußball@@ 16
Haup@@ 16
Janu@@ 16
Malay@@ 16
Militär@@ 16
Oy 16
Russ@@ 16
Ses 16
Tage 16
Uch@@ 16
Urugu@@ 16
alif@@ 16
alles 16
amac@@ 16
antu 16
appel 16
aras@@ 16
aray 16
arı 16
assist@@ 16
atika 16
autre 16
average 16
basketball 16
celebr@@ 16
characters 16
civil 16
concert 16
consum@@ 16
cost 16
costa 16
cour 16
cré@@ 16
cual 16
dado 16
dah@@ 16
demi 16
dioc@@ 16
doba 16
durum 16
edades 16
ehen 16
eigen@@ 16
elimin@@ 16
emper@@ 16
employ@@ 16
engl@@ 16
entaire 16
erste 16
escu@@ 16
every 16
exist@@ 16
fact 16
female 16
fois 16
frances@@ 16
hata 16
huy@@ 16
ieren 16
impl@@ 16
independent 16
ingia 16
innen 16
islat@@ 16
ispo 16
issu@@ 16
istem@@ 16
kata 16
kek 16
kent 16
klin 16
klär@@ 16
kud@@ 16
lost 16
means 16
mee 16
mek@@ 16
mente 16
msh@@ 16
muz@@ 16
obra 16
olympi@@ 16
onu 16
origine 16
oría 16
osu 16
ouver@@ 16
partment 16
pendant 16
pierre 16
places 16
pok@@ 16
populaire 16
presented 16
rain@@ 16
rais 16
recogni@@ 16
redu@@ 16
regional 16
sah 16
schul@@ 16
seis 16
selec@@ 16
separ@@ 16
seri@@ 16
sexu@@ 16
señ@@ 16
signific@@ 16
sont 16
sos@@ 16
soy@@ 16
studies 16
städ@@ 16
teil@@ 16
television 16
tend 16
territ@@ 16
tioned 16
trib@@ 16
tropical 16
ungwa 16
unos 16
utar@@ 16
verb@@ 16
vit 16
zek@@ 16
zeug 16
zt 16
µ 16
Ü 16
ática 16
änger 16
öd@@ 16
üne 16
İl@@ 16
Ž 16
ʒ 16
Σεπτέ@@ 16
Димит@@ 16
З 16
Констан@@ 16
Кур@@ 16
Мол@@ 16
Москов@@ 16
Пере@@ 16
Сло@@ 16
Фу@@ 16
бир@@ 16
боль@@ 16
вая 16
вет 16
вски 16
гар@@ 16
ем@@ 16
жо@@ 16
кина 16
ников 16
рь 16
сер@@ 16
сия 16
сло@@ 16
спа@@ 16
сса@@ 16
тая 16
фа 16
ции 16
че 16
чко 16
ժ@@ 16
ծ 16
از@@ 16
است@@ 16
اف@@ 16
الاتحاد 16
الص@@ 16
ایران 16
باش@@ 16
بي 16
جزيرة 16
ع 16
عبد@@ 16
مل@@ 16
وي@@ 16
ދ@@ 16
ग@@ 16
र@@ 16
ली 16
ਰ@@ 16
ன 16
ல@@ 16
้ 16
ລ@@ 16
ະ@@ 16
ခ@@ 16
ር@@ 16
គ@@ 16
ជ@@ 16
ម 16
់ 16
ḫ@@ 16
Ṣ@@ 16
ἆ@@ 16
ἳ 16
ἴ 16
ᾠ@@ 16
ⰲ@@ 16
ⰵ@@ 16
ⴻ@@ 16
い@@ 16
し 16
っ@@ 16
南 16
天 16
川@@ 16
春@@ 16
池 16
法 16
流 16
猿 16
猿@@ 16
義@@ 16
都@@ 16
長@@ 16
香@@ 16
馬@@ 16
구@@ 16
이 16
Amér@@ 15
Anf@@ 15
Büyük 15
Canadi@@ 15
Chama 15
Desde 15
Durch@@ 15
Ende 15
Espagne 15
Guatemala 15
Holz@@ 15
III. 15
Kich@@ 15
Kuv@@ 15
Kız@@ 15
Literatur 15
Macar@@ 15
Venezuela 15
Woh@@ 15
aam 15
ached 15
addi@@ 15
agno@@ 15
alim@@ 15
alya 15
ambu@@ 15
anten 15
appel@@ 15
arca 15
arş@@ 15
atac@@ 15
atini 15
autres 15
aître 15
beri 15
canción 15
conom@@ 15
consci@@ 15
consist@@ 15
continue 15
countries 15
doctor@@ 15
dok@@ 15
elled 15
ematik 15
empre 15
emu 15
entro 15
erse 15
evidence 15
explic@@ 15
explor@@ 15
fah@@ 15
faz@@ 15
finished 15
fäl@@ 15
gart 15
gid@@ 15
gien 15
haya 15
houses 15
inclus@@ 15
income 15
initial 15
introduc@@ 15
invent@@ 15
jap@@ 15
jiji 15
kiye 15
lek 15
marché 15
mita 15
monta@@ 15
neue 15
nhof 15
northern 15
occas@@ 15
ologiques 15
onnes 15
opin@@ 15
orden 15
organisation 15
origin@@ 15
otros 15
paci@@ 15
parties 15
perman@@ 15
plata 15
portr@@ 15
principal 15
pris 15
propag@@ 15
propos@@ 15
puer@@ 15
quali@@ 15
reco@@ 15
reib@@ 15
result@@ 15
sali@@ 15
sant@@ 15
six@@ 15
sona 15
spect@@ 15
states 15
stations 15
suj@@ 15
taken 15
taus@@ 15
terior 15
todo 15
tourn@@ 15
trop 15
troph@@ 15
uu 15
vard@@ 15
wenn 15
with@@ 15
yol@@ 15
yum 15
ächs@@ 15
ên 15
üre@@ 15
þ 15
ği 15
ış@@ 15
ľ@@ 15
ň 15
Şir@@ 15
şu 15
˘ 15
̇ 15
στόσο 15
Александра 15
Ах@@ 15
Вер@@ 15
Георги 15
Дон@@ 15
Зи@@ 15
Крас@@ 15
Мин@@ 15
Ок@@ 15
Остро@@ 15
Пред@@ 15
Республики 15
Хо@@ 15
Ча@@ 15
Шу@@ 15
государствен@@ 15
гре@@ 15
дворец 15
ез@@ 15
зар 15
зар@@ 15
зем@@ 15
канал 15
ква 15
крат@@ 15
мор@@ 15
му 15
оло@@ 15
пор@@ 15
сен@@ 15
сси@@ 15
су 15
тин 15
тиче@@ 15
тов@@ 15
тра@@ 15
университет 15
чер@@ 15
ья@@ 15
ҙ@@ 15
ң 15
ә 15
յ 15
չ@@ 15
آل 15
اسلامی 15
الف@@ 15
بع@@ 15
حزب 15
سی@@ 15
كل@@ 15
مجلس 15
مح@@ 15
مَ@@ 15
می@@ 15
نة 15
وت@@ 15
وری 15
क 15
म 15
य@@ 15
व@@ 15
ह@@ 15
প 15
ি 15
ী@@ 15
ਿ@@ 15
ੰ@@ 15
ກ@@ 15
ມ@@ 15
ເ@@ 15
້ 15
འ@@ 15
ོ 15
ྱ@@ 15
ွ@@ 15
ჭ@@ 15
ჯ@@ 15
ក@@ 15
ា 15
ệu 15
› 15
ⵔ@@ 15
と@@ 15
ど@@ 15
る 15
ん 15
ョ@@ 15
克@@ 15
内@@ 15
区 15
唐@@ 15
字 15
市@@ 15
幡@@ 15
所 15
汉@@ 15
河 15
特@@ 15
生@@ 15
絵 15
部 15
강@@ 15
남@@ 15
의@@ 15
 15
14. 14
Afghanistan 14
Armee 14
Fach@@ 14
Galatasaray 14
Guinea 14
Gür@@ 14
Israeli 14
Jahrhunderts 14
Kül@@ 14
Lan 14
Ligi 14
Mehr@@ 14
Mit 14
Más 14
Nguyễn 14
Schiff 14
Schrif@@ 14
Sein 14
Sow@@ 14
Staff@@ 14
Studium 14
Teil@@ 14
Zimbab@@ 14
afu 14
aily 14
alte 14
anded 14
applic@@ 14
ateurs 14
ayak@@ 14
became 14
bier@@ 14
bora 14
built 14
cide 14
cierto 14
clas@@ 14
closed 14
colon@@ 14
consult@@ 14
dak@@ 14
debut 14
east 14
egal 14
ellos 14
ensive 14
extrem@@ 14
fed@@ 14
federal 14
fte 14
fully 14
gesetz@@ 14
haut 14
icha 14
idente 14
ihre 14
importance 14
imu 14
including 14
independ@@ 14
influence 14
interpr@@ 14
iones 14
isine 14
issement 14
jah@@ 14
jeun@@ 14
kaf@@ 14
khi 14
kina 14
kub@@ 14
lares 14
larg@@ 14
legisl@@ 14
lil@@ 14
listed 14
living 14
mama 14
mek 14
motor@@ 14
mujer 14
médi@@ 14
narr@@ 14
nda 14
neas 14
odio 14
ondo@@ 14
onyme 14
pez 14
pied 14
pologie 14
posterior 14
prak@@ 14
proces@@ 14
rece@@ 14
sind 14
sister 14
siz 14
soll 14
sols 14
some@@ 14
south 14
statt 14
streng@@ 14
también 14
terms 14
terres@@ 14
tier@@ 14
tillo 14
tip 14
today 14
tren@@ 14
tü@@ 14
umma 14
vely 14
vista 14
waka 14
wala 14
wash@@ 14
yani 14
zeichen 14
zentr@@ 14
Ø 14
ám 14
çu 14
érieur 14
Ħ@@ 14
ķ@@ 14
ɯ@@ 14
ʏ@@ 14
ʐ@@ 14
ʑ@@ 14
ʔ 14
ʤ@@ 14
̡ 14
έμβριο 14
Ϝ 14
Бор@@ 14
Вы@@ 14
Елиза@@ 14
Зо@@ 14
Кру@@ 14
Ленин@@ 14
Макси@@ 14
Мари@@ 14
Рос@@ 14
Свети 14
Сою@@ 14
Х 14
ата 14
вка 14
вод@@ 14
воз@@ 14
гра@@ 14
дови@@ 14
дь@@ 14
зна@@ 14
или 14
им@@ 14
имени 14
итель@@ 14
кло@@ 14
кор@@ 14
ктор 14
лан@@ 14
лка 14
лю@@ 14
ного 14
обра@@ 14
рец 14
росси@@ 14
соци@@ 14
ствен@@ 14
сте@@ 14
тин@@ 14
ту 14
уч@@ 14
федера@@ 14
шев 14
ши 14
Ռ@@ 14
զ 14
׃ 14
الي 14
انية 14
اه@@ 14
تح@@ 14
تي 14
ث 14
راء 14
ري 14
سل@@ 14
عي@@ 14
قر@@ 14
لا@@ 14
محمود 14
مي 14
ندي 14
وادي 14
ܠ@@ 14
ܣ@@ 14
ި@@ 14
न 14
ই@@ 14
ு 14
ම@@ 14
ස@@ 14
ม@@ 14
ງ@@ 14
ຊ@@ 14
ག@@ 14
ན 14
ི@@ 14
ရ@@ 14
ာ 14
ჩ@@ 14
ክ@@ 14
ន 14
ប@@ 14
Ἤ@@ 14
ᾗ 14
ῇ@@ 14
₂ 14
₤ 14
⇆ 14
⇒ 14
▪ 14
♥ 14
ⱀ@@ 14
ⱝ@@ 14
「 14
」 14
い 14
ェ@@ 14
ク 14
ュ@@ 14
世@@ 14
之@@ 14
元@@ 14
公園 14
华@@ 14
協@@ 14
國 14
士@@ 14
女@@ 14
宗@@ 14
書@@ 14
朝 14
木 14
楽@@ 14
正@@ 14
津@@ 14
洲@@ 14
皇@@ 14
菜 14
門@@ 14
고@@ 14
공@@ 14
인 14
지@@ 14
평@@ 14
화@@ 14
16. 13
21. 13
22. 13
30. 13
Als 13
Bahn@@ 13
Barcel@@ 13
Bau 13
Bei 13
Congreso 13
Dağ@@ 13
Denk@@ 13
Dorf@@ 13
Flü@@ 13
Gatt@@ 13
Geometr@@ 13
Grenz@@ 13
Grup 13
Hamil@@ 13
Hy 13
Mungu 13
Müz@@ 13
Ordu 13
Seh@@ 13
Situation 13
Siy@@ 13
Uruguay 13
Verte@@ 13
Weg 13
Zür@@ 13
aband@@ 13
abs@@ 13
absol@@ 13
administr@@ 13
adver@@ 13
adı 13
affa@@ 13
amiento 13
angen 13
approxim@@ 13
areas 13
ayna 13
below 13
bronze 13
canadi@@ 13
command@@ 13
comment@@ 13
complet@@ 13
construction 13
diplom@@ 13
direk@@ 13
déc@@ 13
dır@@ 13
echa 13
enca 13
encias 13
enheit 13
ennen 13
española 13
etts 13
européenne 13
farm@@ 13
fass@@ 13
favor@@ 13
few 13
fut 13
gende 13
guerra 13
having 13
higher 13
highest 13
honor 13
hâ@@ 13
ilan 13
important 13
industrie 13
inici@@ 13
itions 13
kı 13
leich@@ 13
lük 13
lığı 13
manus@@ 13
menor 13
menos 13
militaire 13
mittel@@ 13
mouvement 13
mün@@ 13
oblig@@ 13
osos 13
pró@@ 13
publication 13
père 13
raison 13
rar 13
refle@@ 13
rek@@ 13
requi@@ 13
runs 13
rut@@ 13
schw@@ 13
simpl@@ 13
situ@@ 13
suiv@@ 13
takes 13
teil 13
temple 13
tnis 13
très 13
tête 13
uerto 13
uras 13
ustri@@ 13
wali 13
week@@ 13
wei@@ 13
who@@ 13
yıl 13
zus@@ 13
Ç 13
ái 13
âm 13
äuser 13
çı 13
él 13
évision 13
ólica 13
ónimo 13
öch@@ 13
üng@@ 13
üçük 13
ĩ@@ 13
İ 13
œuvre 13
Ə@@ 13
ɲ 13
ˀ 13
ˈ 13
˚ 13
΅ 13
Ак@@ 13
ВМ@@ 13
Димитър 13
Ин@@ 13
Мор@@ 13
Пла@@ 13
София 13
Эр@@ 13
бург@@ 13
ги 13
гори@@ 13
ден@@ 13
еро 13
же 13
жен@@ 13
ил 13
им 13
кт 13
къ@@ 13
лев@@ 13
лич@@ 13
мет@@ 13
нас 13
ность 13
ну@@ 13
общество 13
око@@ 13
остров 13
прав@@ 13
рат 13
сова 13
ства 13
тан 13
теле@@ 13
фу@@ 13
чев 13
чик 13
шо@@ 13
ща 13
Ա 13
Դ@@ 13
Զ@@ 13
Փ@@ 13
թ 13
ճ@@ 13
ׁ 13
ז 13
الت 13
اي@@ 13
بة 13
بل@@ 13
تر@@ 13
رية 13
ز 13
ض@@ 13
عة 13
علم 13
مُ@@ 13
وري 13
يم 13
ܐ@@ 13
ު@@ 13
का@@ 13
ग 13
ण 13
ນ 13
ນ@@ 13
ུ@@ 13
ပ 13
ယ 13
ብ@@ 13
ត 13
ត@@ 13
ែ@@ 13
ṣ 13
ἵ 13
‛ 13
⇄ 13
ⰴ@@ 13
ⲉ@@ 13
ⲛ 13
ⵎ@@ 13
ⵜ@@ 13
く@@ 13
ち@@ 13
る@@ 13
ザ@@ 13
ソ@@ 13
七@@ 13
东@@ 13
九@@ 13
伊@@ 13
信@@ 13
共和@@ 13
千@@ 13
原 13
原@@ 13
县 13
台@@ 13
吉@@ 13
塔 13
多@@ 13
夫 13
官@@ 13
島@@ 13
戦@@ 13
方@@ 13
日 13
月@@ 13
条@@ 13
洛@@ 13
清 13
秋@@ 13
藤 13
성@@ 13
수@@ 13
시 13
일@@ 13
회 13
13. 12
20. 12
Akad@@ 12
Anh 12
Besch@@ 12
Biblia 12
Cumhuriyeti 12
Dr. 12
Forsch@@ 12
Für 12
Gegen@@ 12
Gesamt@@ 12
However 12
Italie 12
Kif@@ 12
Kloster 12
Krieg 12
Kultur 12
Kuvvet@@ 12
Meister@@ 12
Pero 12
Produ@@ 12
Rolle 12
Sieg 12
Situ@@ 12
Sohn 12
Sä@@ 12
Unis 12
Verk@@ 12
Yugoslav@@ 12
ably 12
absor@@ 12
acab@@ 12
acı 12
addition 12
airman 12
ajes 12
akt@@ 12
ambul@@ 12
angwa 12
arded 12
asyonu 12
atta@@ 12
autonom@@ 12
available 12
aî@@ 12
banda 12
başı 12
biri 12
bless@@ 12
career 12
cela 12
collabor@@ 12
correspond@@ 12
created 12
critic@@ 12
culo 12
dair 12
deleg@@ 12
department 12
desc@@ 12
dico 12
divi@@ 12
diye 12
doa 12
dres 12
drit@@ 12
dön@@ 12
enor@@ 12
equi@@ 12
essenti@@ 12
estos 12
example 12
eyi 12
femen@@ 12
femin@@ 12
forces 12
gez@@ 12
ifu@@ 12
ilik@@ 12
imonio 12
includes 12
induzi 12
indépend@@ 12
ingt 12
investig@@ 12
isra@@ 12
istère 12
itié 12
içi 12
join@@ 12
juli@@ 12
kais@@ 12
kleine 12
kommen 12
koy@@ 12
kü@@ 12
kül@@ 12
laborat@@ 12
lerin 12
lili@@ 12
logo 12
lés 12
lü 12
lü@@ 12
mehr 12
miento 12
modern@@ 12
muer@@ 12
nete 12
neu 12
nh 12
nok@@ 12
onnats 12
onya 12
orden@@ 12
organis@@ 12
otra 12
poco 12
police 12
prior 12
prison@@ 12
promotion 12
provincia 12
refu@@ 12
relativ@@ 12
religie@@ 12
religious 12
schließ@@ 12
semb@@ 12
seri 12
simul@@ 12
sozi@@ 12
sug@@ 12
suppl@@ 12
suspen@@ 12
table@@ 12
teatro 12
tels 12
tigkeit 12
tions@@ 12
tish 12
topl@@ 12
transform@@ 12
ually 12
ufu 12
vall@@ 12
versions 12
vivi@@ 12
voz 12
werden 12
wezi 12
xième 12
yans@@ 12
zul@@ 12
Öl@@ 12
àng 12
âce 12
ähn@@ 12
änd@@ 12
äre 12
óg@@ 12
óp@@ 12
İz@@ 12
ış 12
şehir 12
ț 12
ʉ@@ 12
ʎ 12
ϕ@@ 12
Ϟ@@ 12
Ј 12
Љ@@ 12
Аб@@ 12
Ата@@ 12
Бер@@ 12
Боль@@ 12
Джа@@ 12
Е 12
Же@@ 12
Казах@@ 12
Мал@@ 12
Мен@@ 12
Не 12
Обла@@ 12
СА@@ 12
Ско@@ 12
Три@@ 12
Черно@@ 12
Чи@@ 12
Щ@@ 12
Ы@@ 12
авто@@ 12
анд@@ 12
арти@@ 12
ать 12
бер@@ 12
библиоте@@ 12
бы 12
ген@@ 12
джа 12
ду 12
ево 12
зе 12
зен@@ 12
кан 12
лла 12
мер@@ 12
мон@@ 12
мя@@ 12
опера@@ 12
от 12
пат@@ 12
пра@@ 12
рай@@ 12
рас@@ 12
сс 12
стади@@ 12
стар@@ 12
тан@@ 12
тат@@ 12
тер 12
това 12
тура 12
ум 12
ху@@ 12
цар@@ 12
шая 12
ый 12
љ 12
Ө@@ 12
ט 12
الد@@ 12
العربي 12
الغ@@ 12
الوطني 12
ای 12
دار 12
دير 12
رين 12
رَ@@ 12
سع@@ 12
سلط@@ 12
سلي@@ 12
عب 12
عل@@ 12
على 12
علی 12
قل@@ 12
مد@@ 12
منطقة 12
ول@@ 12
ولا@@ 12
ّ 12
ު 12
वा@@ 12
ष@@ 12
ফ@@ 12
য@@ 12
ৈ@@ 12
ৰ 12
່ 12
མ@@ 12
န@@ 12
လ@@ 12
း 12
መ@@ 12
ព@@ 12
ូ@@ 12
Ṭ@@ 12
Ὕ@@ 12
ὢ@@ 12
ᾱ 12
ᾷ@@ 12
ῄ@@ 12
ⱁ@@ 12
ⱃ@@ 12
ⱅ@@ 12
ⲡ@@ 12
ⲥ@@ 12
ⲧ@@ 12
ⴷ@@ 12
か@@ 12
さ@@ 12
み@@ 12
ィ 12
ケ@@ 12
ゲ@@ 12
ミ@@ 12
下@@ 12
二 12
井@@ 12
人民@@ 12
伝@@ 12
光@@ 12
利@@ 12
動@@ 12
大 12
安 12
帝@@ 12
广@@ 12
手@@ 12
旗 12
明 12
楊@@ 12
武 12
湖 12
玉@@ 12
自@@ 12
術 12
话 12
马@@ 12
鮮@@ 12
黄@@ 12
단 12
원 12
원@@ 12
육@@ 12
 12
Allem@@ 11
Anw@@ 11
Arnav@@ 11
Auch 11
Büyük@@ 11
Cep@@ 11
Eski 11
Fahr@@ 11
Früh@@ 11
Hinter@@ 11
Hiv@@ 11
Janeiro 11
Kür@@ 11
Millî 11
Ms@@ 11
Mto 11
Nä@@ 11
Parte@@ 11
Perú 11
Tam 11
Um 11
Verfass@@ 11
Verkehr@@ 11
Verw@@ 11
Waf@@ 11
Wie 11
Yap@@ 11
accomp@@ 11
affaires 11
afrika 11
americano 11
amı 11
andan 11
anlar 11
année 11
astron@@ 11
attribu@@ 11
auen 11
baya 11
become 11
behind 11
bem@@ 11
bere@@ 11
brother 11
bruch 11
caso 11
centrale 11
centre 11
cities 11
classe 11
clás@@ 11
coloc@@ 11
combat 11
communes 11
communic@@ 11
companies 11
concre@@ 11
crec@@ 11
cultura 11
daf@@ 11
daughter 11
destroy@@ 11
died 11
divers 11
déjà 11
energ@@ 11
enfr@@ 11
ería 11
existence 11
ezo 11
fang@@ 11
finden 11
fines 11
forced 11
ged@@ 11
gesi 11
gique 11
giy@@ 11
grandes 11
greso 11
hud@@ 11
idée 11
individu@@ 11
ingly 11
insan@@ 11
interpre@@ 11
invol@@ 11
issues 11
jia 11
jüng@@ 11
klasse 11
lieder 11
lieutenant 11
located 11
luy@@ 11
madre 11
meister@@ 11
metro 11
mique 11
miş 11
mondi@@ 11
muerte 11
mü@@ 11
müh@@ 11
nine 11
nne 11
nombre 11
novi@@ 11
nun 11
octo@@ 11
ohne 11
ología 11
ológico 11
organization 11
perio 11
practice 11
proxim@@ 11
question 11
quien 11
ratic 11
roul@@ 11
rév@@ 11
schaft@@ 11
sched@@ 11
schn@@ 11
segu@@ 11
sehen 11
seiner 11
several 11
simil@@ 11
sold@@ 11
spez@@ 11
spiel@@ 11
strum@@ 11
tesi 11
torno 11
tür 11
ukw@@ 11
ulus@@ 11
umia 11
unca 11
various 11
versu@@ 11
wegen 11
yol 11
yse 11
zentrum 11
zieh@@ 11
À@@ 11
Õ@@ 11
ìn 11
íncipe 11
ística 11
ños 11
öne 11
öst@@ 11
üs 11
üç@@ 11
ÿ 11
ĉ@@ 11
ğr@@ 11
Ġ@@ 11
İzmir 11
ř 11
şi@@ 11
ů 11
ǧ@@ 11
ɬ@@ 11
Ё@@ 11
Акаде@@ 11
Ам@@ 11
Бай@@ 11
Бре@@ 11
Виктор 11
Гре@@ 11
Григо@@ 11
Гру@@ 11
Дру@@ 11
Ж 11
Зем@@ 11
Институ@@ 11
Й@@ 11
КП@@ 11
Къ@@ 11
Мит@@ 11
Пат@@ 11
РО 11
Тер@@ 11
Тур@@ 11
Уни@@ 11
Ху@@ 11
Це@@ 11
Э 11
ара 11
аре@@ 11
бок 11
бу 11
вен 11
вета 11
вре@@ 11
горо@@ 11
гро@@ 11
дов@@ 11
дра@@ 11
ек@@ 11
каз@@ 11
кан@@ 11
ково 11
комитет 11
кре@@ 11
льное 11
мат@@ 11
мян@@ 11
национа@@ 11
ника 11
них 11
няя 11
пов 11
порт 11
раз@@ 11
рио@@ 11
со 11
сре@@ 11
стиче@@ 11
сто 11
стран@@ 11
тор 11
футболь@@ 11
хов 11
чна 11
чё@@ 11
шко@@ 11
шта@@ 11
ще 11
ёр@@ 11
ѧ 11
Ֆ@@ 11
ات@@ 11
افغانستان 11
الدولة 11
الفلسط@@ 11
به@@ 11
تا@@ 11
تو@@ 11
تي@@ 11
زي@@ 11
سين@@ 11
شاہ 11
شی@@ 11
ص 11
عثمان 11
َّ@@ 11
ُ 11
ٱ@@ 11
کو@@ 11
ہ 11
ܒ@@ 11
ލ@@ 11
ः 11
त@@ 11
पा@@ 11
খ@@ 11
ড 11
ব 11
শ 11
ன@@ 11
න@@ 11
ย@@ 11
ພ@@ 11
ອ@@ 11
ည 11
အ@@ 11
ျ@@ 11
რ 11
የ@@ 11
យ@@ 11
ស 11
ហ@@ 11
ṅ@@ 11
ἃ@@ 11
῎ 11
‡ 11
⁰ 11
∉ 11
ⵓ@@ 11
ⵙ@@ 11
う 11
は@@ 11
も@@ 11
ら@@ 11
ヒ@@ 11
ビ@@ 11
不@@ 11
丸@@ 11
仁@@ 11
侍 11
全@@ 11
別@@ 11
化@@ 11
协@@ 11
史@@ 11
喜@@ 11
宁@@ 11
州@@ 11
平 11
愛@@ 11
成@@ 11
橋 11
歌@@ 11
洋 11
海 11
照@@ 11
理 11
胡@@ 11
花 11
茶@@ 11
通@@ 11
金 11
陳@@ 11
기 11
상@@ 11
선 11
주 11
체@@ 11
17. 10
18. 10
Amts@@ 10
Biographie 10
Buna 10
Cao 10
Devlet 10
Dokum@@ 10
Doğu 10
Département 10
Feb@@ 10
Fenerbahçe 10
Kilom@@ 10
Londres 10
Maji 10
Mei 10
Menschen 10
Nguy@@ 10
Rus 10
Spiel 10
Unidos 10
Weit@@ 10
Wieder@@ 10
Zus@@ 10
across 10
acto 10
adil@@ 10
adop@@ 10
alifor@@ 10
alise 10
ambas 10
anii 10
anterior 10
appear@@ 10
appearance 10
arka 10
artistes 10
asked 10
atı 10
augment@@ 10
ayd@@ 10
bado 10
bağ@@ 10
bürger@@ 10
campo 10
chré@@ 10
circ@@ 10
comi@@ 10
commercial 10
compte 10
conform@@ 10
conven@@ 10
deren 10
dernier 10
developed 10
directed 10
dola 10
dua 10
duras 10
dö@@ 10
egos 10
either 10
elte 10
ennt 10
enton@@ 10
esas 10
estim@@ 10
está 10
fand 10
featured 10
fuerte 10
gef@@ 10
gestion 10
hale 10
hér@@ 10
idades 10
ikia 10
inclu@@ 10
interior 10
invas@@ 10
isiones 10
issent 10
jamais 10
jina 10
juin 10
kich@@ 10
killed 10
kâ@@ 10
lai 10
latter 10
leading 10
lise 10
lég@@ 10
maire 10
mannschaft 10
manufactur@@ 10
marri@@ 10
mesi 10
ministr@@ 10
moja 10
nisse 10
nouv@@ 10
occup@@ 10
ocho 10
octu@@ 10
officer 10
often 10
ofu 10
onnement 10
onnen 10
orado 10
personnel 10
pler@@ 10
ported 10
prac@@ 10
prati@@ 10
preser@@ 10
professional 10
programme 10
protagon@@ 10
pueblo 10
pér@@ 10
quay 10
rebel@@ 10
recher@@ 10
reform 10
releas@@ 10
reve@@ 10
rur@@ 10
réalis@@ 10
région 10
satis@@ 10
schle@@ 10
seine 10
seurs 10
situation 10
société 10
sources 10
symbol@@ 10
sü@@ 10
tante 10
taş@@ 10
teams 10
techniques 10
territorio 10
terror@@ 10
tete 10
thought 10
tiene 10
tiki 10
tionen 10
tischen 10
tière 10
town@@ 10
tó 10
umani 10
undu 10
unique 10
uvu 10
uç@@ 10
vai 10
vingt 10
voi 10
voie 10
vér@@ 10
wad@@ 10
wich@@ 10
wissenschaft@@ 10
yum@@ 10
Ê@@ 10
Ñ@@ 10
äischen 10
ätten 10
çı@@ 10
íos 10
òng 10
öff@@ 10
üssel@@ 10
üş 10
ĉ 10
Ğ@@ 10
Ī@@ 10
İsk@@ 10
ılar 10
ına 10
ınlar 10
ıs@@ 10
ĺ@@ 10
Ţ 10
ŷ 10
ǫ@@ 10
ɒ 10
ɟ@@ 10
ɴ@@ 10
̓ 10
Ί 10
Ϻ 10
І 10
Ћ@@ 10
АТ@@ 10
Ад@@ 10
Бан@@ 10
Вал@@ 10
Вален@@ 10
Вар@@ 10
Ис@@ 10
Кали@@ 10
Кан@@ 10
Мла@@ 10
На 10
Нар@@ 10
Ос@@ 10
От@@ 10
Пол@@ 10
РС@@ 10
Ран@@ 10
СС 10
Сан@@ 10
Сара@@ 10
Север@@ 10
Украи@@ 10
Хар@@ 10
Ь 10
аври@@ 10
ари@@ 10
ати 10
ато@@ 10
бит@@ 10
вел 10
вин 10
вла@@ 10
води@@ 10
воен@@ 10
вы 10
года 10
града 10
гу 10
джи@@ 10
дин 10
доб@@ 10
дри@@ 10
ени 10
ет 10
жа 10
зи 10
зов 10
зя@@ 10
ком@@ 10
круг 10
куп@@ 10
лат@@ 10
лей@@ 10
лет 10
любов@@ 10
маке@@ 10
мен 10
моти@@ 10
нав@@ 10
над@@ 10
насти@@ 10
нат 10
они 10
оп@@ 10
пере@@ 10
площадь 10
пови@@ 10
район 10
рал@@ 10
рес@@ 10
род@@ 10
ром 10
рон 10
ственной 10
тво@@ 10
тивный 10
тон 10
ть@@ 10
уби@@ 10
цо 10
цо@@ 10
ченко 10
чита@@ 10
чу 10
шен@@ 10
ща@@ 10
щен@@ 10
ьо@@ 10
яр@@ 10
ят 10
ї 10
Ү@@ 10
ҷ@@ 10
Ә@@ 10
գ 10
ը@@ 10
չ 10
احمد 10
البح@@ 10
الدوري 10
الشيخ 10
الوطنية 10
بر 10
تا 10
جة 10
جو@@ 10
حة 10
حم@@ 10
حي@@ 10
دولة 10
ران 10
رب@@ 10
ری@@ 10
زی@@ 10
سا@@ 10
سر@@ 10
سيد 10
شر@@ 10
شو@@ 10
كر@@ 10
له 10
لو 10
لي 10
مار@@ 10
مج@@ 10
مسجد 10
مه 10
نی@@ 10
وق@@ 10
يس 10
ܛ@@ 10
ާ@@ 10
क@@ 10
ड 10
ध 10
न@@ 10
बा@@ 10
मा 10
या@@ 10
वि@@ 10
स@@ 10
অ@@ 10
ট 10
ণ@@ 10
ਹ@@ 10
ந@@ 10
് 10
ව@@ 10
ง@@ 10
น@@ 10
ຈ@@ 10
ທ@@ 10
ད@@ 10
མ 10
ལ 10
ེ 10
သ@@ 10
ნ 10
ღ@@ 10
ሕ@@ 10
ረ@@ 10
ራ@@ 10
ስ 10
ን@@ 10
ᗅ 10
ᗅ@@ 10
ᗷ@@ 10
ᗺ@@ 10
យ 10
ោ@@ 10
Ἀ 10
Ἂ@@ 10
ἢ@@ 10
Ὦ 10
‏ 10
‹ 10
₩ 10
⅔ 10
∃ 10
⊃ 10
⊗ 10
ⱆ@@ 10
ⲓ 10
ⲥ 10
ⴱ@@ 10
ⵣ@@ 10
け@@ 10
こ@@ 10
オ 10
グ 10
ツ@@ 10
万@@ 10
上 10
中國@@ 10
丹@@ 10
久@@ 10
仁 10
作@@ 10
公@@ 10
加@@ 10
友@@ 10
名@@ 10
和 10
图@@ 10
土@@ 10
坂@@ 10
学@@ 10
宝@@ 10
年 10
建@@ 10
张@@ 10
戸@@ 10
時@@ 10
書 10
术 10
朱@@ 10
村@@ 10
江 10
温@@ 10
港@@ 10
物@@ 10
知@@ 10
紫@@ 10
臺@@ 10
行@@ 10
親@@ 10
赤@@ 10
越 10
重@@ 10
音 10
食 10
黑@@ 10
동@@ 10
람 10
박@@ 10
부@@ 10
산@@ 10
설@@ 10
시@@ 10
영@@ 10
～ 10
23. 9
25. 9
Bağ@@ 9
Beschreibung 9
Betrieb@@ 9
Birliği 9
Doppel@@ 9
During 9
Ermen@@ 9
Estados 9
Familie 9
Fernseh@@ 9
Genç@@ 9
Kateg@@ 9
Kongr@@ 9
Kult@@ 9
Kwa 9
Kızıl@@ 9
Lai 9
Müd@@ 9
Nairobi 9
Peru 9
Philippines 9
Provinz 9
Quang 9
Schweiz 9
Sovi@@ 9
Uru@@ 9
according 9
achsen 9
added 9
adhi 9
aları 9
aliforni@@ 9
allow 9
although 9
alum@@ 9
amani 9
ancienne 9
armée 9
arriv@@ 9
artisti@@ 9
ará 9
año 9
betr@@ 9
bisher 9
bom 9
camino 9
cases 9
cerem@@ 9
champion 9
changes 9
chung 9
claim@@ 9
consider@@ 9
constr@@ 9
county 9
cuer@@ 9
denk@@ 9
deriv@@ 9
derni@@ 9
dici@@ 9
dient 9
dire 9
distribu@@ 9
doğan 9
dungs@@ 9
déf@@ 9
düncü 9
ebu 9
ecken 9
ekonom@@ 9
erre@@ 9
esine 9
ewa 9
extra@@ 9
faite 9
fern 9
fiel 9
fourth 9
frau 9
frei@@ 9
further 9
fá@@ 9
führ@@ 9
führung 9
gebiet 9
gek@@ 9
generally 9
grado 9
hali@@ 9
hiki 9
hors 9
huri 9
ibar 9
ichts@@ 9
icro@@ 9
illos 9
immedi@@ 9
implement@@ 9
impres@@ 9
industry 9
istique 9
ität 9
kuch@@ 9
kuk 9
künst@@ 9
kıl@@ 9
kır@@ 9
lado 9
lanz@@ 9
letzte 9
linois 9
liği 9
llam@@ 9
marc@@ 9
mbal@@ 9
medical 9
medio 9
mise 9
mondiale 9
months 9
moved 9
muh@@ 9
musici@@ 9
nten 9
nö@@ 9
nú@@ 9
ongoni 9
oppos@@ 9
outre 9
parc 9
parlam@@ 9
pendiente 9
peu 9
polici@@ 9
première 9
president 9
profes@@ 9
province 9
près 9
railway 9
rather 9
reconn@@ 9
recorded 9
regres@@ 9
relev@@ 9
restaur@@ 9
revel@@ 9
schaf@@ 9
seh@@ 9
seln 9
sept 9
soit 9
struk@@ 9
students 9
surviv@@ 9
tales 9
tanto 9
ted@@ 9
teren 9
ticas 9
tiempo 9
tierra 9
timents 9
tournament 9
towards 9
trao 9
trouv@@ 9
tán 9
tä@@ 9
tı 9
ulan 9
uma@@ 9
usage 9
uzo 9
veaux 9
viel@@ 9
vili@@ 9
volon@@ 9
ví 9
walt 9
westen 9
zun@@ 9
zwischen 9
çek@@ 9
óc 9
über@@ 9
üz 9
Ğ 9
İk@@ 9
ıcı 9
ılık 9
ızı 9
ť@@ 9
ǒ 9
ɡ 9
ʷ@@ 9
τάθλημα 9
ϕ 9
Ϟ 9
Ϲ 9
Ў@@ 9
Богороди@@ 9
Бур@@ 9
България 9
Воро@@ 9
Восто@@ 9
Гер@@ 9
Ги@@ 9
Гро@@ 9
Им@@ 9
Кир@@ 9
Кли@@ 9
Коро@@ 9
Мон@@ 9
Ниж@@ 9
Первый 9
Петър 9
Под@@ 9
РСФСР 9
Ря@@ 9
Све@@ 9
Стар@@ 9
Тру@@ 9
Фо@@ 9
Фран@@ 9
Ц 9
Цент@@ 9
Цер@@ 9
Ш 9
Юж@@ 9
безопас@@ 9
вин@@ 9
вой 9
вой@@ 9
вра@@ 9
вян@@ 9
гора 9
город 9
дер@@ 9
дж@@ 9
его 9
жда 9
зу@@ 9
име@@ 9
ком 9
край 9
лай@@ 9
лата 9
лер 9
лет@@ 9
лья@@ 9
мин 9
мы 9
най@@ 9
нау@@ 9
ново 9
ну 9
рал 9
рев@@ 9
рена 9
род 9
свя@@ 9
стана 9
ств 9
стер 9
стре@@ 9
так 9
тру@@ 9
ун@@ 9
уни@@ 9
ца@@ 9
чен@@ 9
ческая 9
ческий 9
чная 9
чь 9
шин@@ 9
школа 9
Բ 9
Օ@@ 9
ը 9
հ 9
վ 9
օ@@ 9
ַ 9
ׂ@@ 9
أف@@ 9
أن@@ 9
الدین 9
الط@@ 9
المح@@ 9
الو@@ 9
انی 9
انی@@ 9
بو@@ 9
تبة 9
جن@@ 9
جي 9
دو@@ 9
سان 9
سلسل@@ 9
سما@@ 9
سپ@@ 9
ط 9
طف@@ 9
عمر 9
عَ@@ 9
فاط@@ 9
فت@@ 9
كي 9
ني 9
نگ@@ 9
هم 9
وس 9
وم@@ 9
ِ 9
ێ@@ 9
ހ@@ 9
ނ@@ 9
अ@@ 9
का 9
ख@@ 9
गो@@ 9
ज 9
ड@@ 9
ण@@ 9
प@@ 9
ब 9
री 9
ल@@ 9
ळ 9
ष 9
ঁ@@ 9
উ@@ 9
ঙ 9
ণ 9
স 9
ਮ@@ 9
ਲ@@ 9
ਵ@@ 9
ੀ 9
ੁ@@ 9
୍ 9
ங 9
ப 9
ய 9
ர 9
ே@@ 9
ඳ@@ 9
ල@@ 9
ු 9
ො@@ 9
ส@@ 9
ห@@ 9
ບ@@ 9
ິ@@ 9
ີ@@ 9
ག 9
ད 9
ྒ@@ 9
စ@@ 9
ဒ@@ 9
ဝ@@ 9
ီ@@ 9
ု 9
္ 9
ራ 9
ር 9
በ@@ 9
ት 9
ያ 9
ደ@@ 9
ዳ@@ 9
ገ@@ 9
ខ 9
ល 9
វ@@ 9
អ@@ 9
ḳ@@ 9
ền 9
Ọ@@ 9
ἁ 9
∑ 9
⌈ 9
☃ 9
ⰱ@@ 9
ⱉ@@ 9
ⱑ@@ 9
ⲩ@@ 9
ⵍ@@ 9
ⵏ 9
ⵏ@@ 9
が@@ 9
じ@@ 9
ズ@@ 9
ホ@@ 9
ム 9
ヤ@@ 9
ヴ@@ 9
主 9
京 9
仏@@ 9
仙 9
体@@ 9
剣 9
可@@ 9
台 9
同@@ 9
塔@@ 9
字@@ 9
宿@@ 9
富@@ 9
寺@@ 9
尔@@ 9
岡@@ 9
工@@ 9
心 9
政@@ 9
料@@ 9
林 9
桃@@ 9
毛@@ 9
治@@ 9
湖@@ 9
火@@ 9
燈 9
直@@ 9
禅@@ 9
科@@ 9
織@@ 9
红@@ 9
聖@@ 9
能@@ 9
草@@ 9
蔡@@ 9
話 9
豊@@ 9
鉄@@ 9
隊 9
魔@@ 9
麻@@ 9
黒@@ 9
ꜣ@@ 9
경@@ 9
리 9
무@@ 9
보@@ 9
스@@ 9
신@@ 9
아@@ 9
안@@ 9
양@@ 9
어 9
일 9
26. 8
27. 8
Bere@@ 8
Büh@@ 8
Ejército 8
Genel 8
Gobierno 8
Italien 8
Juegos 8
Kanada 8
Lage 8
Loan 8
Lê 8
Muhammed 8
Nair@@ 8
Norden 8
Orta 8
Proz@@ 8
Quan 8
Reino 8
Savaşı 8
Sie 8
Sommer 8
Topl@@ 8
Wais@@ 8
Waj@@ 8
Wirt@@ 8
abab@@ 8
abila 8
abras 8
acces@@ 8
adapt@@ 8
adini 8
agric@@ 8
agricul@@ 8
alik@@ 8
allemande 8
américa 8
anciens 8
anglais 8
anik@@ 8
anische 8
appr@@ 8
arse 8
auteur 8
autour 8
beginning 8
bild 8
censo 8
cero 8
changed 8
cier@@ 8
ció 8
collaboration 8
comand@@ 8
competition 8
conditions 8
confl@@ 8
connu 8
critique 8
criv@@ 8
cô@@ 8
decre@@ 8
dedic@@ 8
defa 8
derung 8
dete 8
dipl@@ 8
dissement 8
divid@@ 8
drama 8
départ 8
efforts 8
eher 8
eign@@ 8
ekler 8
elections 8
elinde 8
emein@@ 8
endem@@ 8
ensatz 8
entw@@ 8
equip@@ 8
erst 8
ersten 8
españ@@ 8
famil@@ 8
famous 8
fuer@@ 8
fusi@@ 8
gab 8
ganz@@ 8
gave 8
geg@@ 8
gén@@ 8
génér@@ 8
hall@@ 8
hari@@ 8
hasta 8
hek@@ 8
hija 8
historiques 8
hombre 8
iendo 8
igte 8
innov@@ 8
irik@@ 8
irler 8
isé 8
itself 8
itze 8
jimbo 8
joueurs 8
junto 8
kann 8
kein 8
kesi 8
khi@@ 8
kij@@ 8
kim 8
kiş@@ 8
koş@@ 8
kuz@@ 8
lao 8
lido 8
lived 8
luch@@ 8
luz 8
mains 8
matches 8
merc@@ 8
mey@@ 8
minute 8
mitted 8
motiv@@ 8
mpi@@ 8
muj@@ 8
mère 8
neces@@ 8
nord 8
nord@@ 8
north 8
nueva 8
occasion 8
olarak 8
opened 8
ordu 8
pale 8
partam@@ 8
pili 8
presid@@ 8
previous 8
professionn@@ 8
programs 8
provoc@@ 8
prä@@ 8
préf@@ 8
record@@ 8
reste 8
réc@@ 8
rép@@ 8
satz 8
sau 8
schwar@@ 8
seul 8
significant 8
sita 8
stir 8
stud@@ 8
superior 8
taille 8
taki 8
ticos 8
toujours 8
tours 8
tradition 8
tradu@@ 8
trä@@ 8
ución 8
ume@@ 8
university 8
unión 8
urdu 8
ustos 8
usu@@ 8
vek@@ 8
veloc@@ 8
verdi 8
vient 8
volun@@ 8
waz@@ 8
wegung 8
weit 8
whose 8
winning 8
yeri 8
yesi 8
zey@@ 8
zial@@ 8
Égl@@ 8
ánica 8
ämp@@ 8
écol@@ 8
élém@@ 8
éx@@ 8
üy@@ 8
Č 8
ıca 8
ıyor 8
ıç@@ 8
Ľ@@ 8
Ł 8
Ŋ@@ 8
ŏ 8
ȝ 8
ɫ 8
ʝ 8
ʹ@@ 8
ˁ@@ 8
ˤ@@ 8
̆ 8
Ϋ 8
Ϙ@@ 8
Њ@@ 8
Аль@@ 8
Анти@@ 8
Ау@@ 8
Благо@@ 8
Большо@@ 8
Васил 8
Воен@@ 8
Й 8
Кро@@ 8
Ну@@ 8
Пале@@ 8
РФ 8
Рабо@@ 8
Само@@ 8
Северна 8
Союза 8
Спа@@ 8
Стефа@@ 8
Стру@@ 8
Филип 8
Христо 8
ана@@ 8
ате@@ 8
бере@@ 8
бъ@@ 8
вана 8
ват 8
вдо@@ 8
вез@@ 8
ву@@ 8
гас 8
гна@@ 8
гов@@ 8
гол 8
гри@@ 8
дер 8
дин@@ 8
дор@@ 8
дра 8
жение 8
жество 8
жи 8
ис@@ 8
каз 8
кам@@ 8
кия 8
кого 8
кой 8
космо@@ 8
льного 8
мент 8
нет 8
нии 8
нин@@ 8
нис 8
оборо@@ 8
обще@@ 8
она 8
рак@@ 8
реб@@ 8
рил 8
рода 8
рок 8
све@@ 8
собо@@ 8
спу@@ 8
став@@ 8
тар@@ 8
тен@@ 8
тер@@ 8
тре@@ 8
ум@@ 8
цен@@ 8
цион@@ 8
чин 8
чо 8
ще@@ 8
ъл@@ 8
є 8
Ү 8
Һ 8
Ө 8
Գ 8
ղ 8
ֆ@@ 8
ס 8
آباد 8
أر@@ 8
ؤ@@ 8
إبراهيم 8
اب 8
ابن 8
اتحاد 8
اخ@@ 8
ادي 8
ارة 8
اع 8
الري@@ 8
العرا@@ 8
القوات 8
اله@@ 8
الي@@ 8
بل 8
تَ@@ 8
جي@@ 8
خو@@ 8
دار@@ 8
رأس 8
رش@@ 8
رض 8
رير 8
ری 8
زا 8
شع@@ 8
شه@@ 8
فاطمہ 8
قطر 8
قَ@@ 8
لبنان 8
لف@@ 8
مصر 8
نادي 8
هة 8
ود 8
ينة 8
يون 8
کر@@ 8
ۆ@@ 8
ې@@ 8
ީ@@ 8
चन 8
ज@@ 8
ठ@@ 8
दु@@ 8
ध@@ 8
ने@@ 8
व 8
वर 8
सं@@ 8
জ 8
থ@@ 8
ধ@@ 8
ষ 8
ু 8
ো 8
ਗ@@ 8
ા@@ 8
ண@@ 8
ை 8
గ@@ 8
ల@@ 8
ా@@ 8
න 8
ල 8
น 8
ร@@ 8
ะ@@ 8
པ@@ 8
ར 8
ံ@@ 8
თ 8
ስ@@ 8
ኢ@@ 8
ព 8
ល@@ 8
ំ@@ 8
ᠣ@@ 8
ḍ 8
ḫ 8
ṛ 8
ṯ 8
ὣ@@ 8
ὦ@@ 8
ᾐ@@ 8
ῒ@@ 8
‖ 8
‧ 8
☆ 8
⟶ 8
ⰽ@@ 8
ⲏ@@ 8
ⲛ@@ 8
ⲱ@@ 8
ⵜ 8
〈 8
〉 8
〜 8
え@@ 8
す@@ 8
に@@ 8
れ@@ 8
タ 8
ブ 8
ヨ@@ 8
リ 8
中央@@ 8
中華@@ 8
九 8
事@@ 8
二@@ 8
依@@ 8
元 8
光 8
党 8
出@@ 8
功@@ 8
右@@ 8
名 8
回@@ 8
地 8
女 8
姫@@ 8
宗 8
定@@ 8
尊 8
年@@ 8
府 8
形@@ 8
恩@@ 8
拉@@ 8
教 8
教@@ 8
最@@ 8
永@@ 8
沙@@ 8
洞@@ 8
浦 8
無@@ 8
物 8
理@@ 8
生 8
甲@@ 8
町 8
盛@@ 8
祭 8
秀@@ 8
空@@ 8
老@@ 8
育@@ 8
舞@@ 8
苏@@ 8
英@@ 8
術@@ 8
衛@@ 8
観@@ 8
言 8
譜 8
豆@@ 8
身 8
軍 8
造 8
達@@ 8
镇 8
間@@ 8
雲@@ 8
電@@ 8
頭 8
饭 8
馆 8
魏@@ 8
鶴@@ 8
龍 8
龙@@ 8
구 8
군 8
리@@ 8
서@@ 8
성 8
소@@ 8
연@@ 8
오@@ 8
자 8
전@@ 8
𒀭@@ 8
29. 7
31. 7
Abgeord@@ 7
Angleterre 7
Aus 7
Avec 7
Avrupa 7
Bà 7
Eig@@ 7
Ethiopia 7
Finanz@@ 7
Following 7
Insel 7
Ivoire 7
Juli 7
Kuzey 7
Kön@@ 7
Meter 7
Minh 7
Namen 7
Paraguay 7
Parlament@@ 7
Rang 7
Rechts@@ 7
Royaume 7
Rück@@ 7
Schrift@@ 7
Türkçe 7
Wali@@ 7
Wohn@@ 7
Zahl 7
abilité 7
above 7
acion@@ 7
acional 7
ailleurs 7
alités 7
allem@@ 7
allow@@ 7
altı 7
ammen 7
andere 7
angaza 7
appeared 7
apti@@ 7
arac@@ 7
asit@@ 7
assung 7
atas@@ 7
attemp@@ 7
attention 7
aussi 7
avoir 7
avu 7
ayant 7
ayar@@ 7
bea 7
began 7
beit@@ 7
bele 7
bord 7
brought 7
certain 7
chemin 7
chim 7
ciales 7
ciudad 7
commission 7
completed 7
composition 7
compr@@ 7
comprom@@ 7
confer@@ 7
conflic@@ 7
considered 7
conséqu@@ 7
conten@@ 7
continued 7
contro@@ 7
coup 7
curité 7
có 7
desp@@ 7
dessin@@ 7
destin@@ 7
devant 7
deş@@ 7
dif@@ 7
distinc@@ 7
distrito 7
dió 7
dort 7
droite 7
dép@@ 7
eastern 7
ecu@@ 7
einture 7
empl@@ 7
eneo 7
ennung 7
erischen 7
erras 7
especially 7
establ@@ 7
etk@@ 7
etler 7
eure 7
eures 7
fallen 7
fonc@@ 7
frica 7
fuerza 7
fútbol 7
gebi@@ 7
gemeinde 7
grab@@ 7
grands 7
grub@@ 7
hadi@@ 7
hali 7
hamia 7
hasa 7
haup@@ 7
heute 7
hijo 7
hilo 7
hiwa 7
hosp@@ 7
ichten 7
ición 7
ideas 7
igkeit 7
igual 7
ihr@@ 7
ilik 7
iline 7
inay@@ 7
individual 7
inspir@@ 7
introduced 7
intégr@@ 7
iç 7
kazan@@ 7
kiz@@ 7
koa 7
krieg@@ 7
kör@@ 7
lange 7
lere 7
lesia 7
liament 7
lisi 7
luk@@ 7
lungs@@ 7
malar@@ 7
mali 7
mars 7
ması 7
matrimonio 7
mayor 7
mch@@ 7
meil@@ 7
mej@@ 7
mismo 7
most@@ 7
mà 7
mét@@ 7
mızı 7
nde 7
nischen 7
nouveaux 7
obst@@ 7
octobre 7
ográ@@ 7
olay@@ 7
ologischen 7
ológ@@ 7
opération 7
otball 7
outside 7
particip@@ 7
passage 7
passed 7
pata 7
performances 7
perten@@ 7
placed 7
plans 7
played 7
plaza 7
podr@@ 7
poste 7
program@@ 7
prés@@ 7
quelle 7
rapid@@ 7
reiche 7
rence 7
représent@@ 7
richt 7
risto 7
santé 7
seat 7
senc@@ 7
seule 7
sevi@@ 7
sibl@@ 7
sitz@@ 7
sociation 7
sogen@@ 7
soka 7
sometimes 7
spé@@ 7
subj@@ 7
succ@@ 7
taines 7
tay 7
though 7
timi 7
took 7
trains 7
traite 7
trat 7
travaux 7
unidad 7
urba@@ 7
usal@@ 7
veh@@ 7
venes 7
verk@@ 7
victory 7
viel 7
vur@@ 7
wahili 7
whom 7
wird 7
wirtschaft 7
worked 7
wrote 7
yonel 7
zwei 7
Æ 7
È 7
ác 7
ách 7
ático 7
âge 7
ätze 7
äuf@@ 7
église 7
époque 7
éroï@@ 7
êts 7
ít 7
örd@@ 7
österreich@@ 7
öğ@@ 7
út 7
út@@ 7
üge 7
üsü 7
Ē@@ 7
ırı 7
ıt 7
şir@@ 7
ţ 7
Ū@@ 7
ŵ@@ 7
Ə 7
ɯ 7
ɸ 7
ʀ@@ 7
ʕ@@ 7
ˑ 7
̠ 7
Ϙ 7
ϟ@@ 7
Ў 7
Ай@@ 7
Ала@@ 7
Бри@@ 7
Бы@@ 7
Велико@@ 7
Вен@@ 7
Воз@@ 7
Въ@@ 7
Вър@@ 7
Гос@@ 7
Дар@@ 7
Джу@@ 7
Ер@@ 7
Исто@@ 7
Кав@@ 7
Кал@@ 7
Кам@@ 7
Кате@@ 7
Ман@@ 7
Мето@@ 7
Смо@@ 7
Ст@@ 7
Стра@@ 7
Теле@@ 7
Тра@@ 7
Тре@@ 7
Тро@@ 7
Тър@@ 7
Тю@@ 7
Фи@@ 7
Филип@@ 7
Ъ 7
Ян@@ 7
ана 7
ар 7
арх@@ 7
атов 7
бов 7
бор 7
бор@@ 7
бро@@ 7
вар@@ 7
ват@@ 7
вена 7
вер 7
вов 7
вое 7
война 7
гвар@@ 7
гел 7
горе@@ 7
дел@@ 7
демокра@@ 7
дне@@ 7
дни 7
дове@@ 7
договор 7
дуар@@ 7
зан 7
зы 7
има 7
институт 7
йского 7
кла@@ 7
княз@@ 7
коми@@ 7
кри@@ 7
ление 7
лети@@ 7
лод@@ 7
лян@@ 7
май@@ 7
мла@@ 7
мон 7
наи@@ 7
нар@@ 7
нен@@ 7
ниче@@ 7
ност 7
под@@ 7
поли@@ 7
пут@@ 7
район@@ 7
рю@@ 7
рё@@ 7
село 7
сков@@ 7
совет@@ 7
сово 7
социа@@ 7
спорта 7
ся 7
тай@@ 7
тен 7
тий 7
тика 7
ток 7
ул@@ 7
хан@@ 7
хе@@ 7
хо 7
ците 7
ця@@ 7
чный 7
чо@@ 7
шу@@ 7
щи 7
щи@@ 7
Җ 7
Ҡ@@ 7
Ң 7
ҧ@@ 7
һ 7
Ә 7
ӣ 7
ӧ@@ 7
Խ@@ 7
ռ 7
֣ 7
ף 7
أس@@ 7
أم 7
الأح@@ 7
الأمير 7
الحزب 7
الشعب 7
الفر@@ 7
المص@@ 7
او@@ 7
باد@@ 7
بت 7
بد@@ 7
بط@@ 7
ة@@ 7
تم@@ 7
تی@@ 7
جه@@ 7
خی@@ 7
داء 7
دل 7
دی 7
رض@@ 7
زی 7
سك@@ 7
سي 7
شي@@ 7
صالح 7
طة 7
طر@@ 7
عب@@ 7
غل@@ 7
ــ@@ 7
فر 7
فلسطين 7
قة 7
قي 7
قية 7
لح@@ 7
للو@@ 7
لى 7
لی 7
مار 7
مال 7
متاز 7
مر 7
مش@@ 7
ملی 7
ند 7
نه 7
ها 7
هر 7
ورية 7
وية 7
يت 7
ير@@ 7
ين@@ 7
يو@@ 7
پاکستان 7
ە 7
ܩ@@ 7
ܫ@@ 7
ރ@@ 7
ް 7
ंग 7
ङ 7
चा@@ 7
ट 7
ता 7
द@@ 7
नेपाल 7
भ@@ 7
महा@@ 7
मि@@ 7
रा 7
रु@@ 7
रू@@ 7
सत 7
ৰ@@ 7
ਦ@@ 7
ਪ@@ 7
ਰ 7
ਾ 7
ੀ@@ 7
ட 7
த 7
ം 7
ാ@@ 7
ක 7
ත@@ 7
ก@@ 7
ว@@ 7
็ 7
ດ 7
ຫ@@ 7
າ 7
ང@@ 7
ི 7
ထ@@ 7
သ 7
ላ@@ 7
ማ@@ 7
ም@@ 7
ረ 7
ዊ 7
ያ@@ 7
ዮ@@ 7
ድ@@ 7
ጵ@@ 7
ច@@ 7
ើ@@ 7
័ 7
ᠨ@@ 7
ᠭ@@ 7
ᠮ@@ 7
ᠷ@@ 7
ἐ 7
ἦ 7
Ἠ 7
ὔ 7
ῑ@@ 7
῞ 7
ℳ 7
↓ 7
ⰳ@@ 7
ⱌ@@ 7
ⲕ@@ 7
ⲫ@@ 7
ⵔ 7
ⵙ 7
す 7
だ@@ 7
ち 7
ば@@ 7
び@@ 7
め@@ 7
ょ@@ 7
ザ 7
ジ 7
ナ 7
レ 7
东 7
书@@ 7
事件 7
代 7
代@@ 7
信 7
僧@@ 7
共@@ 7
冒@@ 7
刀@@ 7
博@@ 7
双@@ 7
図 7
園@@ 7
基@@ 7
場 7
夏 7
大学 7
奥@@ 7
孔@@ 7
学 7
學@@ 7
守 7
宝 7
屋 7
展@@ 7
崎 7
府@@ 7
庭@@ 7
式 7
成 7
手 7
放@@ 7
日本 7
旧@@ 7
星@@ 7
根@@ 7
様 7
横@@ 7
泉 7
泉@@ 7
洋@@ 7
渡@@ 7
源@@ 7
漫@@ 7
澳@@ 7
瀬@@ 7
灯 7
男@@ 7
真@@ 7
科 7
絵@@ 7
線 7
羅@@ 7
膳 7
蔵 7
藏@@ 7
見@@ 7
言@@ 7
議@@ 7
谷@@ 7
跡 7
路 7
輪@@ 7
近@@ 7
连@@ 7
郎@@ 7
野 7
长@@ 7
陸@@ 7
陽@@ 7
雄@@ 7
雅@@ 7
靈@@ 7
面 7
革命 7
音@@ 7
風 7
風@@ 7
馬 7
ꙑ@@ 7
ꜥ@@ 7
가@@ 7
계@@ 7
관 7
다@@ 7
당 7
대 7
두@@ 7
라 7
라@@ 7
북@@ 7
비@@ 7
삼@@ 7
자@@ 7
장 7
제@@ 7
진 7
창@@ 7
천@@ 7
치@@ 7
하@@ 7
학@@ 7
🇬 7
🇷 7
19th 6
24. 6
Adem@@ 6
Bakanlığı 6
Benjam@@ 6
Chine 6
Chrysomelidae 6
Cumhur@@ 6
Dünya 6
Ecuador 6
Esto 6
Eyl@@ 6
Geographie 6
Grund 6
Géographie 6
Heimat@@ 6
Jahr 6
Kama 6
Kirchen@@ 6
Lauf@@ 6
Leiter 6
Linie 6
Mayıs 6
Mỹ 6
Nha 6
No. 6
Oreg@@ 6
Orts@@ 6
Punk@@ 6
Raum 6
Rica 6
Saison 6
Servic@@ 6
Stelle 6
Stil 6
Stutt@@ 6
Thị 6
Ufa 6
Verfüg@@ 6
Vor 6
Văn 6
Wam@@ 6
abandon@@ 6
abhäng@@ 6
accep@@ 6
administrative 6
aguas 6
aired 6
akter@@ 6
alcal@@ 6
alidad 6
ampli@@ 6
amt@@ 6
anah@@ 6
angla@@ 6
anischen 6
anlı 6
annte 6
annten 6
anzia 6
août 6
appointed 6
arbeit 6
army 6
aría 6
asili 6
asoci@@ 6
así 6
atem@@ 6
ationen 6
atoire 6
attach@@ 6
auti 6
ağ 6
bahn@@ 6
bali 6
baller 6
bande 6
barrio 6
bataille 6
bire@@ 6
cabeza 6
cadre 6
cambi@@ 6
caract@@ 6
cette 6
cinq 6
cional 6
commenc@@ 6
commer@@ 6
condu@@ 6
consid@@ 6
contains 6
contribut@@ 6
couple 6
création 6
currently 6
cán@@ 6
derecho 6
diese 6
différ@@ 6
disc@@ 6
divers@@ 6
dont 6
duy@@ 6
earlier 6
echos 6
edly 6
eht 6
einte 6
enea 6
enek@@ 6
engi 6
enseign@@ 6
enst 6
entre@@ 6
erne@@ 6
erreich@@ 6
erten 6
escuela 6
established 6
etzt 6
exerc@@ 6
exter@@ 6
fabric@@ 6
fach@@ 6
ferro@@ 6
ficas 6
futbol 6
fü@@ 6
gegeben 6
gibi 6
gibt 6
giz@@ 6
gleich@@ 6
goals 6
gouvernement 6
gré 6
göz@@ 6
heu@@ 6
hif@@ 6
hijos 6
himself 6
hospital 6
iben 6
iert 6
ifen 6
impro@@ 6
imz@@ 6
incorpor@@ 6
indig@@ 6
install@@ 6
instead 6
isième 6
istischen 6
iyi 6
ización 6
iğ@@ 6
iş 6
janvier 6
jeni 6
jeux 6
kama 6
kani 6
kez 6
khu@@ 6
kommen@@ 6
kuh@@ 6
kuk@@ 6
kund@@ 6
kü 6
lauf 6
laş@@ 6
linde 6
lá 6
meli 6
milieu 6
mittee 6
monaster@@ 6
mujeres 6
muz 6
mz@@ 6
médec@@ 6
mê@@ 6
nde@@ 6
nje 6
nouvelles 6
nte 6
oce 6
océ@@ 6
ografie 6
ografía 6
onship 6
onships 6
orité 6
otur@@ 6
padre 6
particular 6
particulier 6
partie 6
passé 6
plusieurs 6
polic@@ 6
portu@@ 6
practic@@ 6
premiers 6
preuß@@ 6
produce 6
produced 6
professi@@ 6
proven@@ 6
provid@@ 6
purch@@ 6
quand 6
quarti@@ 6
quartier 6
quelques 6
realiz@@ 6
referred 6
reibung 6
reli@@ 6
retur@@ 6
russ@@ 6
ría 6
río 6
saba 6
sao 6
schloss 6
seasons 6
sector 6
seinen 6
selves 6
sement 6
septembre 6
septi@@ 6
served 6
setzung 6
seul@@ 6
signi@@ 6
similar 6
spéci@@ 6
started 6
statisti@@ 6
steh@@ 6
steller 6
stoff@@ 6
symb@@ 6
sí 6
sız 6
sử 6
tario 6
tecn@@ 6
teh@@ 6
terres 6
thu 6
thư 6
tisch 6
tlich 6
tuy@@ 6
télé@@ 6
tü 6
ulit@@ 6
unat@@ 6
unden 6
valor 6
vement 6
victoria 6
viles 6
villages 6
voll@@ 6
wana 6
weeks 6
weng@@ 6
werk@@ 6
wife 6
yek@@ 6
yem@@ 6
zaman 6
zäh@@ 6
Ä 6
Þ 6
ánico 6
ären 6
écr@@ 6
ép 6
épo@@ 6
équi@@ 6
état 6
étude 6
êque 6
ói 6
óric@@ 6
ông 6
ört 6
ört@@ 6
ût 6
ünden 6
Ă 6
Đại 6
đ 6
ĕ 6
Ė@@ 6
İm@@ 6
ıc@@ 6
ıklı 6
ımı 6
ında 6
ını 6
ığ@@ 6
Ķ@@ 6
ļ 6
Ō 6
Š 6
ť 6
ǵ@@ 6
ȝ@@ 6
ȣ 6
ɗ@@ 6
ɜ@@ 6
ɟ 6
ɬ 6
ɭ@@ 6
ɹ 6
ɹ@@ 6
ʂ 6
ʏ 6
ʱ 6
ˀ@@ 6
̅ 6
̥ 6
Ύ 6
Ώ 6
Александър 6
Али@@ 6
Ат@@ 6
Варна 6
Гла@@ 6
Дан@@ 6
Кат@@ 6
Ката@@ 6
Кю@@ 6
Нова 6
Обще@@ 6
Од@@ 6
Олимпи@@ 6
СР 6
Сар@@ 6
Сим@@ 6
[...]
