. 1
, 0.8332450823879701
&apos; 1
ve 1
&quot; 1
bir 1
de 0.5536323513199538
da 1
) 0.917488526177388
( 0.9169206038749858
@-@ 0.5846252112897395
olarak 1
in 0.40951331052909185
ile 1
k@@ 1
y@@ 1
ç@@ 1
ın 1
en 0.6288329884253469
i 1
an 1
lar 1
için 1
ı 1
ler 1
ları 1
ş@@ 1
ya 1
ar@@ 1
leri 1
bu 1
olan 1
al@@ 1
’ 1
an@@ 1
a 0.2976608733105702
esi 1
il@@ 1
ak@@ 1
K@@ 1
un 1
at@@ 1
ay@@ 1
yılında 1
tarafından 1
ol@@ 1
t@@ 1
e 1
S@@ 1
ik@@ 1
Bu 1
sonra 1
ma 1
T@@ 1
; 1
li 1
u 1
D@@ 1
l@@ 1
et@@ 1
k 1
d@@ 1
z@@ 1
: 0.8748076107054795
nin 1
s@@ 1
g@@ 1
nın 1
am@@ 1
ası 1
te 1
ar 1
inde 1
ine 1
H@@ 1
isi 1
ye 1
den 1
inin 1
ak 1
Ç@@ 1
ad@@ 1
Y@@ 1
er 0.5800321517414617
lı 1
ı@@ 1
ü 1
ıl@@ 1
ta 1
daha 1
la 0.2554218111872072
al 0.8615571605245399
ında 1
ek@@ 1
ilk 1
v@@ 1
n@@ 1
c@@ 1
er@@ 1
dir 1
A@@ 1
E@@ 1
G@@ 1
İ@@ 1
ise 1
im@@ 1
m@@ 1
ının 1
r@@ 1
ini 1
el@@ 1
yap@@ 1
at 0.6516544428951467
in@@ 1
iş@@ 1
as@@ 1
en@@ 1
dan 1
ların 1
el 0.4388062928803134
B@@ 1
M@@ 1
yer 1
ir@@ 1
ü@@ 1
is@@ 1
em@@ 1
me 1
ik 1
ğ@@ 1
z 1
or@@ 1
ını 1
ul@@ 1
di 1
b@@ 1
ın@@ 1
gibi 1
C@@ 0.9865817504106863
çok 1
ver@@ 1
Ş@@ 1
ım@@ 1
ır 1
on 0.36731997472498495
ına 1
f@@ 1
h@@ 1
et 0.3872511797729973
es@@ 1
p@@ 1
im 1
P@@ 0.9872326751482087
ev@@ 1
ım 1
arasında 1
ti@@ 1
1 1
di@@ 1
ış@@ 1
iz@@ 1
le 0.3944653044696176
N@@ 1
kar@@ 1
kadar 1
bağlı 1
aş@@ 1
lerin 1
on@@ 1
veya 1
= 1
iki 1
az@@ 1
re@@ 0.5913096723844231
ır@@ 1
kon@@ 1
lik 1
mektedir 1
kal@@ 1
de@@ 1
adı 1
L@@ 0.8047942784283206
inden 1
F@@ 0.9255039174840229
2 1
büyük 1
p 1
aç@@ 1
ış 1
d 1
un@@ 1
deki 1
gel@@ 1
ması 1
göre 1
ılar 1
l 1
R@@ 0.8314130038512576
V@@ 1
ağ@@ 1
lan@@ 1
ından 1
O@@ 1
iy@@ 1
bir@@ 1
oldu 1
baş@@ 1
yaz@@ 1
ir 1
kur@@ 1
ç 1
ör@@ 1
ıdır 1
ay 1
ül@@ 1
ö@@ 1
eri 1
üm@@ 1
ne 1
geç@@ 1
bulunan 1
ah@@ 1
lık 1
&#124; 1
arak 1
t 0.5773931366416399
alı 1
miştir 1
ün 1
o 0.7539351115749032
göster@@ 1
mak 1
ok@@ 1
m 1
eş@@ 1
mıştır 1
unu 1
Kar@@ 1
it@@ 1
iler 1
ti 1
Türkiye 1
ur@@ 1
olduğu 1
us 1
- 1
le@@ 1
am 1
larında 1
e@@ 0.8011585133293352
kullan@@ 1
ed@@ 1
çık@@ 1
ısı 1
ey@@ 1
yaş@@ 1
ab@@ 1
az 1
anı 1
3 1
maya 1
daki 1
4 1
len@@ 1
ist@@ 1
h 1
ık 1
se@@ 1
una 0.9974938662977199
ür@@ 1
ek 1
larını 1
ada 1
av@@ 1
lerini 1
unun 1
tarihinde 1
Ar@@ 1
çek@@ 1
li@@ 1
um 1
maktadır 1
ık@@ 1
ana 1
alan 1
i@@ 1
ama 1
Z@@ 1
aya 1
â@@ 1
y 0.19091855018321946
ındaki 1
larda 1
mesi 1
say@@ 1
birlikte 1
lara 1
nde 1
! 1
ur 1
ki 1
ün@@ 1
j@@ 1
ken 1
man@@ 1
dı 1
lam@@ 1
it 0.5358599280863076
il 0.8658179663473026
tı 1
ili 1
km 1
takım@@ 1
diği 1
diğer 1
Al@@ 1
sür@@ 1
etti 1
tan 1
ter@@ 1
arı 1
ön@@ 1
miş 1
son 0.7696849606208866
kap@@ 1
/ 0.8421872087690793
ot@@ 1
ku@@ 1
tan@@ 1
man 1
çalış@@ 1
kan@@ 1
larının 1
nda 1
ünde 1
kö@@ 1
yer@@ 1
aynı 1
mek 1
ş 1
Türk 1
gö@@ 1
um@@ 1
kay@@ 1
ten 0.956059126625862
unda 1
ılan 1
liği 1
eti 1
An@@ 1
yüz@@ 1
edil@@ 1
uy@@ 1
a@@ 1
us@@ 1
lerinin 1
tür@@ 1
lem@@ 1
ac@@ 0.847630926289899
uz@@ 1
bak@@ 1
öl@@ 1
par@@ 1
eler 1
der@@ 1
ünü 1
den@@ 1
esinde 1
indeki 1
s 0.2778621291229986
enin 1
mak@@ 1
adlı 1
yıl 1
nun 1
yeni 1
align 1
na 1
lu 1
center 1
aları 1
her 0.9951524175103318
Er@@ 1
U@@ 1
eli 1
pl@@ 1
aldı 1
lerde 1
erek 1
Ad@@ 1
lerinde 1
bas@@ 1
bi@@ 1
imi 1
sağ@@ 1
ut@@ 1
o@@ 0.770724063280153
larına 1
te@@ 1
bulun@@ 1
gör@@ 1
seç@@ 1
ancak 1
J@@ 0.8204028360087502
gen@@ 1
usu 1
id@@ 1
yle 1
f 1
sa 1
ler@@ 1
doğ@@ 1
yan@@ 1
6 1
İstanbul 1
var@@ 1
5 1
karşı 1
ildi 1
uk@@ 1
Avrupa 1
lığı 1
kat@@ 1
ıldı 1
kil@@ 1
ayı 1
yar@@ 1
or 0.394153642796547
önemli 1
eden 1
ığı 1
Dünya 1
ıyla 1
&amp; 1
abil@@ 1
ilen 1
% 0.7557697319940884
mad@@ 1
ileri 1
ız 1
dur@@ 1
as 0.16368826397017716
oluştur@@ 1
ser@@ 1
iç@@ 1
af@@ 1
ımı 1
tarih@@ 1
görev@@ 1
yi 1
ük@@ 1
re 1
ayr@@ 1
mış 1
yıl@@ 1
is 0.15487889721871806
eski 1
başladı 1
tak@@ 1
iler@@ 1
kez 1
tr@@ 0.5826275564663971
kl@@ 1
eleri 1
önce 1
ilçesine 1
lere 1
kor@@ 1
res@@ 1
ıp 1
iş 1
oy@@ 1
lar@@ 1
alan@@ 1
kiş@@ 1
istan 1
hay@@ 1
belir@@ 1
Ü@@ 1
kullanıl@@ 1
os@@ 1
gir@@ 1
üy@@ 1
.@@ 1
yapıl@@ 1
ıt@@ 1
ür 1
eb@@ 1
meye 1
bul@@ 1
şark@@ 1
ıs@@ 1
uş@@ 1
tir 1
ağı 1
tu@@ 1
ca 1
şekilde 1
lardan 1
ça 1
Kon@@ 1
ap@@ 0.8653415879481917
olduğunu 1
art@@ 1
alt@@ 1
olmuştur 1
yapılan 1
om@@ 1
The 0.1438803078858251
lik@@ 1
uk 1
si@@ 1
u@@ 0.8356271054029444
üzere 1
üre@@ 1
gi@@ 1
Öz@@ 1
lerine 1
yol@@ 1
be@@ 0.7658531526517133
10 1
ic@@ 0.857716055640371
tem@@ 1
bu@@ 1
dü 1
içinde 1
Üniversitesi 1
anın 1
üzerine 1
asında 1
hal@@ 1
ist 0.41193463684197223
alın@@ 1
vardır 1
tar@@ 1
iyi 1
bil@@ 1
ığını 1
dığı 1
ri@@ 1
W@@ 0.45479760515600554
Bir 1
birçok 1
7 1
du 0.29714908814863894
tin 1
ere 1
ce 1
kazan@@ 1
son@@ 1
çi 1
kend@@ 1
tic@@ 1
ant@@ 1
katıl@@ 1
eğ@@ 1
kr@@ 1
Mart 1
me@@ 1
kabul 1
ği 1
lık@@ 1
dev@@ 1
ladı 1
sel 1
Ayrıca 1
su@@ 1
kes@@ 1
v 1
vi@@ 1
tut@@ 1
getir@@ 1
sahip 1
düş@@ 1
Mayıs 1
I@@ 0.8317627290058579
sor@@ 1
Kur@@ 1
kol@@ 1
san@@ 1
ka 1
gün@@ 1
bo@@ 1
devam 1
Ocak 1
gü@@ 1
ne@@ 1
üç 1
Mar@@ 1
abilir 1
yet@@ 1
ikinci 1
larından 1
od@@ 1
düzen@@ 1
oyn@@ 1
ro@@ 0.7326194003748786
os 0.41968936078577207
ko@@ 1
gerek@@ 1
ni@@ 1
idir 1
Kasım 1
n 0.6227852722914851
gelen 1
2010 1
yayın@@ 1
fazla 1
ıları 1
Baş@@ 1
tüm 1
8 0.9953283713220822
ede 1
“ 0.5802987330008896
gün 1
ez@@ 1
inc@@ 1
yaptı 1
ör 1
to@@ 1
landı 1
Eylül 1
Ekim 1
dem@@ 1
lerinden 1
Or@@ 1
” 1
ans@@ 1
üne 1
ara 1
ardından 1
dir@@ 1
men@@ 1
kom@@ 1
ıc@@ 1
ye@@ 1
if@@ 1
do@@ 1
ilinin 1
sır@@ 1
ilmiştir 1
yüksek 1
Haziran 1
kendi 1
üt@@ 1
Ak@@ 1
Nisan 1
ABD 1
Osmanlı 1
ali 1
laş@@ 1
ke@@ 1
Temmuz 1
geçir@@ 1
aş 1
Daha 1
bazı 1
ec@@ 0.8419064166325684
yöne@@ 1
olmak 1
dır 1
Ağustos 1
Amerika 1
tek 1
tamam@@ 1
ah 1
Ö@@ 1
aj@@ 1
tik 1
onu 1
biri 1
dönem@@ 1
mem@@ 1
oluş@@ 1
Aralık 1
alar 1
all@@ 1
hem 1
r 1
st@@ 0.4163670326280732
and@@ 1
su 0.566065281038612
ünün 1
por 0.46103214821880395
dil@@ 1
sırasında 1
si 1
bölüm@@ 1
üzerinde 1
mi 1
farklı 1
yas@@ 1
edi 1
tür 1
yön@@ 1
adan 1
üm 1
he@@ 1
oğlu 1
olup 1
müz@@ 1
form@@ 1
tur@@ 1
dol@@ 1
mal@@ 1
ci@@ 1
Ancak 1
esine 1
3@@ 0.9989770764964048
oc@@ 0.8628548591161834
of 0.034394830810361626
görev 1
lanan 1
15 1
üst@@ 1
bağ@@ 1
12 1
dön@@ 1
sun@@ 1
luk 1
sin@@ 1
zaman 1
yerleş@@ 1
î 1
har@@ 1
20 1
İs@@ 1
diz@@ 1
çıkar@@ 1
sah@@ 1
iz 1
yarış@@ 1
4@@ 1
öz@@ 1
pr@@ 0.8727426930563987
anlar 1
men 1
ortaya 1
tah@@ 1
üz@@ 1
tek@@ 1
yon@@ 1
es 0.11199655427464199
mek@@ 1
değiş@@ 1
ag@@ 0.5229240790653484
mes@@ 1
ilir 1
görül@@ 1
ulaş@@ 1
acak 1
eye 1
ip 1
Böl@@ 1
&#93; 1
yılları 1
İlk 1
Şubat 1
Birleşik 1
ecek 1
mi@@ 1
ıcı 1
&#91; 1
kır@@ 1
yılı 1
tal@@ 1
colspan 1
geliş@@ 1
çeşitli 1
Savaşı 1
yen@@ 1
Kr@@ 1
ığ@@ 1
edi@@ 1
ren@@ 1
bulunmaktadır 1
esinin 1
geri 1
liğ@@ 1
eme 1
tir@@ 1
9 0.9812199321901397
üs@@ 1
küçük 1
kurul@@ 1
çal@@ 1
ina 1
söy@@ 1
ılmıştır 1
muştur 1
nedeniyle 1
ail@@ 1
edildi 1
mu@@ 1
kad@@ 1
boyunca 1
açık@@ 1
ans 0.714167015321436
film@@ 1
sistem@@ 1
Bir@@ 1
ıl 1
ap 1
O 1
sen@@ 1
edilmiştir 1
siz 1
ebilir 1
masını 1
duy@@ 1
yal@@ 1
sat@@ 1
elde 1
masına 1
– 0.2914731880078076
ru@@ 1
uç@@ 1
yeniden 1
ümü 1
idi 1
lerden 1
amı 1
görün@@ 1
zamanda 1
bar@@ 1
em 1
başl@@ 1
kab@@ 1
anda 1
Kom@@ 1
yak@@ 1
albüm@@ 1
ey 1
ih@@ 1
mas@@ 1
2012 1
As@@ 1
ard@@ 1
ilç@@ 1
2020 1
ra@@ 1
fil@@ 1
almıştır 1
asyon@@ 1
eler@@ 1
sadece 1
ia 0.6269802841462333
ol 1
anl@@ 1
saldır@@ 1
En 0.46128311259298826
umu 1
ali@@ 1
bel@@ 1
geliştir@@ 1
leştir@@ 1
po@@ 0.6186709334119497
se 0.17890844403818743
mah@@ 1
uc@@ 1
edilen 1
yaklaşık 1
mam@@ 1
larla 1
iyle 1
ilik 1
30 1
2011 1
2009 1
lay@@ 1
asyon 1
tanım@@ 1
11 1
İn@@ 1
git@@ 1
etkil@@ 1
kan 1
durum@@ 1
müştür 1
sa@@ 1
ilerin 1
du@@ 1
ki@@ 1
II 1
eli@@ 1
ona 1
eni 1
ılır 1
ley@@ 1
anan 1
yat@@ 1
sınır@@ 1
ğ 1
Bil@@ 1
Bar@@ 1
fer@@ 1
Kat@@ 1
ger@@ 1
hi@@ 1
muş 1
süre 1
A 0.4667714195914048
genel 1
nüfusu 1
16 1
kıs@@ 1
film 1
tab@@ 1
Har@@ 1
ğini 1
ele 1
üc@@ 1
ili@@ 1
süre@@ 1
aktadır 1
uzun 1
lo@@ 0.586343909726767
büyü@@ 1
yerine 1
başar@@ 1
ra 1
ünden 1
lü 1
kaz@@ 1
rol@@ 1
2008 1
yay@@ 1
sız@@ 1
çev@@ 1
dik@@ 1
acı 1
yayım@@ 1
undan 1
lu@@ 1
g 0.7059623538303569
malar@@ 1
kim@@ 1
ız@@ 1
ge@@ 0.7191179865878424
köy 1
2014 1
0 1
karşıl@@ 1
tü 1
ins@@ 1
Tarihçe 1
boy@@ 1
onun 1
merkezine 1
met@@ 1
yan 1
ılık 1
mer@@ 1
anlaş@@ 1
çe 1
At@@ 1
lama 1
ılı 1
ılmış 1
mev@@ 1
cin@@ 1
Oy@@ 1
araştır@@ 1
so@@ 1
ince 1
6@@ 1
Almanya 1
ast@@ 1
lanmıştır 1
yüksel@@ 1
eng@@ 1
rağmen 1
Fransa 1
düz@@ 1
ıkları 1
5@@ 1
şek@@ 1
kem@@ 1
bırak@@ 1
topl@@ 1
Bel@@ 1
tasar@@ 1
sal 1
ede@@ 1
2015 1
El@@ 1
lığ@@ 1
2013 1
end@@ 0.7289493223331003
anlam@@ 1
taş@@ 1
per@@ 0.5322011915464527
ıştır 1
şu 1
adığı 1
Türk@@ 1
ülk@@ 1
ait 1
bat@@ 1
Genel 1
B 1
ydi 1
Bur@@ 1
Coğrafya 1
isti@@ 1
14 1
uv@@ 1
yı 1
iliş@@ 1
plan@@ 1
yaptığı 1
tur 1
19 1
bulunur 1
18 1
kişi 1
maç@@ 1
altında 1
aki 1
2007 1
2016 1
hak@@ 1
ilgili 1
ular 1
kısa 1
dahil 1
İngiltere 1
13 1
aç 1
Alman 1
asına 1
the 0.014018917901238472
Gü@@ 1
tel@@ 1
atı 1
beri 1
isinin 1
op@@ 0.6703168730743684
ova 1
yon 1
Güney 1
ici 1
2006 1
hazır@@ 1
program@@ 1
yaşam@@ 1
Ankara 1
tim@@ 1
savaş@@ 1
kul@@ 1
Ch@@ 0.46232985609272864
gönder@@ 1
25 1
ıy@@ 1
üler 1
New 0.6650694224716305
ent@@ 0.40690162547210706
eg@@ 0.7580352171333383
genellikle 1
leş@@ 1
Yeni 1
ordu 1
asının 1
gerçekleştir@@ 1
ayrıca 1
mar@@ 0.6584912174491073
ısında 1
iti@@ 1
alar@@ 1
merkez@@ 1
17 1
düşün@@ 1
udur 1
x 0.6870239816206677
Mah@@ 1
ci 1
asını 1
değ@@ 1
tü@@ 1
Ab@@ 0.8397419089071403
za 1
lerle 1
andı 1
ber@@ 0.7048734717956775
van 1
ton 0.8756086157705627
özel 1
bü@@ 1
bin@@ 1
dış@@ 1
ıktan 1
bit@@ 1
şehir 1
list@@ 1
mayı 1
ef@@ 1
ing 0.09386046686830359
ığında 1
7@@ 1
başkan@@ 1
Bo@@ 1
miş@@ 1
esini 1
İngiliz 1
doğru 1
Kuzey 1
Amerikan 1
uzaklıktadır 1
Par@@ 0.8892697221752452
üş@@ 1
aret 1
dur 1
til@@ 1
takım 1
böl@@ 1
kazandı 1
ilg@@ 1
17@@ 0.6070181643428308
Rusya 1
başka 1
tır@@ 1
eser@@ 1
eder 1
kaynak@@ 1
dar@@ 1
b 0.7861663023074414
imleri 1
15@@ 0.8742813574262397
kı 1
isini 1
luğu 1
dört 1
ge 0.7151746097333584
ov@@ 1
ni 1
oloji 1
ayan 1
endi 1
Kul@@ 1
del@@ 1
lendir@@ 1
zaman@@ 1
ann@@ 1
kaç@@ 1
merkezi 1
bun@@ 1
anya 1
üğü 1
Man@@ 1
ari 1
mesine 1
2018 1
adıyla 1
Ser@@ 1
2017 1
osu 1
kıy@@ 1
parç@@ 1
eyi 1
ob@@ 0.7545022984106542
Roma 1
tarihi 1
inci 1
Cumhuriyeti 1
Re@@ 0.5727938993476157
ilmiş 1
şir@@ 1
özellikle 1
min@@ 0.8639824709575807
müzik 1
dır@@ 1
isinde 1
arasındaki 1
eti@@ 1
etti@@ 1
M 1
sal@@ 1
Ge@@ 1
bi 1
ve@@ 1
konuş@@ 1
Bak@@ 1
Kad@@ 1
Dem@@ 1
oyun@@ 1
ens@@ 0.8092356989145593
kül@@ 1
Kö@@ 1
taraf@@ 1
karakter@@ 1
van@@ 1
Tek@@ 1
det@@ 1
grub@@ 1
ıt 1
21 1
ib@@ 1
kel@@ 1
haf@@ 1
luğ@@ 1
16@@ 0.6717874523422775
hayat@@ 1
bilinen 1
ati@@ 0.7773777736986008
yü@@ 1
duğu 1
Tr@@ 0.5491063556687886
üdür 1
_ 0.9687514379548646
mesini 1
ıya 1
ran@@ 0.9069802495834346
ev 1
tekrar 1
iden 1
8@@ 1
biy@@ 1
içer@@ 1
destek@@ 1
Birliği 1
millî 1
anlat@@ 1
Doğu 1
ta@@ 1
kin 1
sahiptir 1
Kal@@ 1
has@@ 1
birkaç 1
malar 1
dönüş@@ 1
oluşan 1
bölge@@ 1
yl@@ 1
lük 1
üz 1
ad 0.7472446568357509
çı 1
eh@@ 1
2005 1
sonunda 1
kullanılan 1
bölges@@ 1
24 1
ks@@ 1
Bal@@ 1
2019 1
Büyük 1
sezon@@ 1
siyon@@ 1
der 0.050494238921810604
De@@ 1
pe@@ 0.8764096295291403
ece 1
22 1
and 0.02388331350388722
sebe@@ 1
Kupası 1
değiştir@@ 1
9@@ 0.9628635841454399
ika 1
2000 1
yo 1
savun@@ 1
ular@@ 1
sırada 1
göz@@ 1
Tur@@ 1
Son@@ 1
hakkında 1
İtalya 1
devlet 1
yen 1
alm@@ 1
üç@@ 1
tu 1
altı 1
bilin@@ 1
ulu 1
yapan 1
Yıl@@ 1
köy@@ 1
ecek@@ 1
tanın@@ 1
gi 1
verdi 1
hat@@ 1
hav@@ 1
asyonu 1
Sel@@ 1
eğiti@@ 1
olması 1
olmayan 1
layan 1
lt 1
26 1
ıyor 1
Tak@@ 1
ch@@ 0.17322964158577855
Be@@ 0.6815844875313728
ıda 1
sey@@ 1
cu 1
fa@@ 1
olmad@@ 1
ödül@@ 1
Bun@@ 1
th@@ 0.28151232367741047
Her@@ 1
başkanı 1
ret@@ 1
işlem@@ 1
gem@@ 1
Sar@@ 1
Aynı 1
Fransız 1
Rus 1
uz 1
çıkan 1
med@@ 1
Ma@@ 1
23 1
itibaren 1
Paşa 1
siy@@ 1
üsü 1
spor 1
oyuncu 1
ani 1
bal@@ 1
Çin 1
baz@@ 1
irler 1
çiz@@ 1
bah@@ 1
Br@@ 0.6104002573673448
sıra 1
uma 1
c 0.33176851221282583
almaktadır 1
bö@@ 1
etmiştir 1
gt 1
ettiği 1
ölç@@ 1
çağ@@ 1
landır@@ 1
deniz 1
ıların 1
bek@@ 1
gesi 1
pi@@ 0.715217537323195
kas@@ 1
2004 1
Pr@@ 0.967221308191636
rol 1
geldi 1
asıyla 1
ane 1
inşa 1
sonuç@@ 1
yol 1
ang@@ 0.5558183538632195
şampiyon@@ 1
ov 1
kuzey@@ 1
oğ@@ 1
iştir 1
ebil@@ 1
Le@@ 0.7557083688613855
Kan@@ 1
milyon 1
savaş 1
ut 1
adlandır@@ 1
I. 1
mez@@ 1
Devletleri 1
sezonunda 1
gerçekleş@@ 1
grup 1
bur@@ 1
oz@@ 1
çıktı 1
yakın 1
ırlar 1
ep@@ 1
yapmıştır 1
adını 1
elerin 1
Film 1
attı 1
tiği 1
ma@@ 0.9997525683361196
ük 1
St@@ 0.4883425949505428
zor@@ 1
din@@ 1
mağ@@ 1
meni 1
I 0.4735352236618642
K 1
Der@@ 1
Köy 1
Kır@@ 1
kent@@ 1
döneminde 1
etmek 1
güney@@ 1
asker@@ 1
1.@@ 1
ül 1
min 1
tim 1
Gö@@ 1
bol 1
D 0.9657437191931502
Kor@@ 1
neden 1
pek 1
karş@@ 1
ayrıl@@ 1
mahalledir 1
çap@@ 1
yok@@ 1
takımı 1
olojik 1
oloj@@ 1
sik@@ 1
Per@@ 0.9382865698701887
yanı 1
lendi 1
isim@@ 1
27 1
bin 1
Di@@ 0.7721570618617059
Partisi 1
ark@@ 1
T 1
anc@@ 1
Alt@@ 1
Hal@@ 1
Gen@@ 1
ken@@ 1
lerdir 1
Se@@ 0.8133949660429252
Mill@@ 1
Tan@@ 1
verilen 1
manın 1
2@@ 0.9208624650585422
û@@ 1
uğ@@ 1
Amerikalı 1
dışında 1
kulü@@ 1
kadın 1
adi@@ 1
tam 1
28 1
alır 1
ıydı 1
özellik@@ 1
Sh@@ 0.7100462149425628
teki 1
itibarıyla 1
Em@@ 1
liğini 1
ıyordu 1
pu@@ 1
kitab@@ 1
Aş@@ 1
uygulam@@ 1
sil@@ 1
kuş@@ 1
olay@@ 1
tes@@ 1
sü@@ 1
Sam@@ 1
toplam 1
vur@@ 1
En@@ 0.9200157931975196
Mer@@ 1
sonucu 1
elem@@ 1
aşı 1
ölüm@@ 1
uğu 1
iye 1
Ev@@ 1
def@@ 1
ene 0.9013791872077426
Beledi@@ 1
koy@@ 1
dolayı 1
San@@ 1
sar@@ 1
sınıf@@ 1
İş@@ 1
futbol 1
nüfus 1
lili@@ 1
zam@@ 1
asa 1
may@@ 1
diğ@@ 1
din 1
güç@@ 1
lis@@ 1
arg@@ 1
sk@@ 1
eğitim 1
ke 0.9348118872259152
bilim@@ 1
ale 0.4238923789336042
Batı 1
yakın@@ 1
Mal@@ 1
görüş@@ 1
aştır@@ 1
aldığı 1
umlu 1
andır@@ 1
ılması 1
meyi 1
ımc@@ 1
Ligi 1
öğren@@ 1
şehr@@ 1
lanmış 1
insan@@ 1
hu@@ 1
sürdür@@ 1
ig@@ 0.41782966224619356
tor@@ 0.814458930148487
timi 1
üş 1
gazet@@ 1
söz@@ 1
sayımına 1
giriş@@ 1
çöz@@ 1
şarkı 1
rel@@ 0.8615406360319731
ice 0.6230794506542593
ıştır@@ 1
Kol@@ 1
sanat@@ 1
ağ 1
ılarak 1
kariyeri 1
eleştir@@ 1
P 1
kı@@ 1
land@@ 1
halk@@ 1
C 0.7700071790727954
ze 1
olduğ@@ 1
dönemde 1
Fil@@ 1
komut@@ 1
Anadolu 1
sayısı 1
dür 1
mo@@ 0.5754894208720989
ayn@@ 1
leme 1
masıyla 1
leyen 1
sağlam@@ 1
14@@ 0.9416473189209387
öğrenc@@ 1
ori@@ 1
yılından 1
maları 1
üst 1
uş 1
York 0.8836796583208497
Ulusal 1
olur 1
akt@@ 1
güven@@ 1
İmparatorluğu 1
üretil@@ 1
uyla 1
don@@ 1
tad@@ 1
eği 1
maz 1
pler@@ 1
can@@ 1
sak@@ 1
veril@@ 1
ade 0.8677455086660495
uğr@@ 1
çoğu 1
yeri 1
ri 1
İl@@ 1
Şarkı 1
çocuk@@ 1
öğ@@ 1
om 1
sık@@ 1
Ödülü 1
leriyle 1
Bey@@ 1
yesi 1
bab@@ 1
birbir@@ 1
tam@@ 1
pat@@ 1
fik@@ 1
gelir 1
elen@@ 1
nden 1
2002 1
Den@@ 1
temsil 1
oku@@ 1
toprak@@ 1
çalışmalar@@ 1
mil@@ 1
des@@ 0.5065423198521195
etk@@ 1
to 0.026525907023906187
ime 1
29 1
X@@ 1
lenen 1
yaşında 1
cul@@ 1
og@@ 0.7163551853573155
tiy@@ 1
yarat@@ 1
da@@ 1
hastal@@ 1
lardır 1
nik 1
2021 1
türü 1
ok 1
Rom@@ 1
yıllarında 1
ip@@ 1
tığı 1
Sav@@ 1
tas@@ 1
üğ@@ 1
alarında 1
31 1
ö 1
1990 1
mişti 1
of@@ 1
üçüncü 1
Car@@ 0.6228339849087311
kuvvet@@ 1
masının 1
ürl@@ 1
Sal@@ 1
şehir@@ 1
lider@@ 1
ete 1
Uluslararası 1
karar 1
var 1
Am@@ 0.89688606285203
seçim@@ 1
dav@@ 1
adır 1
Bunun 1
bes@@ 1
edilir 1
Orta 1
und@@ 0.6660907315251348
id 0.7801855266119815
sezon 1
kayıt@@ 1
ata 1
diğini 1
önem@@ 1
kayn@@ 1
Ali 1
sim@@ 1
alt 1
Her 1
insan 1
fakat 1
100 0.987591253188991
2003 1
att@@ 0.9328799564176576
Ay@@ 1
dö@@ 1
tekn@@ 1
kurulan 1
ayında 1
değişik@@ 1
ylece 1
doğdu 1
Ber@@ 0.8474462758722402
2001 1
Lig 1
John 0.747779587302403
Ne@@ 0.7849637741728216
taş 1
Tari@@ 1
karşılaş@@ 1
ışı 1
kalan 1
Es@@ 1
katıldı 1
w@@ 0.16697177781940092
dünya 1
yapımı 1
üs 1
trik 1
Yaş@@ 1
fi@@ 0.970406950056401
yu 1
eceği 1
hüküm@@ 1
Su@@ 1
ucu 1
Mo@@ 1
isimli 1
ülke@@ 1
emi 1
hemen 1
ie 0.24598151633650644
aların 1
kız@@ 1
ıç@@ 1
askeri 1
Mek@@ 1
Yer@@ 1
açık 1
oyuncul@@ 1
ğu 1
Has@@ 1
temel 1
kli 1
sonraki 1
Ger@@ 1
beraber 1
Hay@@ 1
yet 1
lat@@ 1
ancı 1
bağlant@@ 1
uluslararası 1
ilişkil@@ 1
giy@@ 1
str@@ 0.49673572691309753
Sır@@ 1
arası 1
ter 0.2653231143354558
NGC 1
ers 0.1455041936012763
Azerbaycan 1
kaldır@@ 1
lad@@ 1
grupl@@ 1
elik 1
Kay@@ 1
örü 1
mat@@ 1
model@@ 1
kaldı 1
amp 0.6031684355484076
atik 1
ırken 1
haz@@ 1
be 0.17467105309831787
oynam@@ 1
teş@@ 1
hüc@@ 1
orta 1
köydür 1
beş 1
mac@@ 1
futbolcudur 1
50 0.981236622902278
kop@@ 1
S 0.8574035876620962
Parti 1
isi@@ 1
î@@ 1
ifade 1
albümü 1
beledi@@ 1
ınt@@ 1
Dev@@ 1
Sovyet 1
Han@@ 1
elerde 1
yine 1
aca 1
filmi 1
bulunduğu 1
futbol@@ 1
Gaz@@ 1
sel@@ 1
oranı 1
elli 1
iç 1
elek@@ 1
İyi 1
sın@@ 1
kam@@ 1
erin 1
geniş 1
Şampiyonası 1
Afrika 1
yetiş@@ 1
kit@@ 1
ks 0.498807380834958
düğ@@ 1
yard@@ 1
geçen 1
Te@@ 1
Hav@@ 1
dal@@ 1
ıma 1
tır 1
ilçe 1
kt@@ 1
sevi@@ 1
bilg@@ 1
karar@@ 1
yerel 1
düzenlenen 1
erk@@ 1
final@@ 1
biridir 1
dayan@@ 1
ord@@ 1
gul@@ 1
han 1
keşf@@ 1
E 0.8340972847358438
L 0.6723611825105761
başlam@@ 1
Paris 1
siz@@ 1
ano 0.6502939499710738
j 1
red@@ 1
değer@@ 1
ask@@ 1
amaç@@ 1
mesiyle 1
biçim@@ 1
County 0.9232865791195507
lığını 1
ziy@@ 1
proj@@ 1
siyasi 1
kullanılır 1
Bab@@ 1
eri@@ 1
sol@@ 0.6401811435832435
esidir 1
üyesi 1
çer@@ 1
rom@@ 1
emek@@ 1
atr@@ 1
yonu 1
inde@@ 1
benz@@ 1
kaybet@@ 1
Mec@@ 1
koş@@ 1
çoğun@@ 1
nüfus@@ 1
Devlet 1
ket 1
lanır 1
düğü 1
inan@@ 1
avi 1
burada 1
resmi 1
yıllarda 1
enc@@ 1
formula 0.7688746039120851
uyar@@ 1
cu@@ 0.6372825864007741
F 0.8973007678449845
İran 1
güc@@ 1
transfer 1
dük@@ 1
izin 1
gol 1
if 1
zi 1
lenmiştir 1
ekler 1
hâ@@ 1
hız@@ 1
ing@@ 0.5086886216503416
yolu 1
masından 1
herhangi 1
sahip@@ 1
la@@ 0.7917043220089798
lisi 1
sayıda 1
vardı 1
derec@@ 1
içerisinde 1
ahr@@ 1
1999 1
eceğini 1
cı 1
are 0.13896558709216764
ney 1
met 1
Pol@@ 1
nes@@ 1
co@@ 0.2711693193699561
erkek 1
şi@@ 1
kav@@ 1
pop@@ 1
mıştı 1
ji 1
R 0.7344046446006325
yıllık 1
taşın@@ 1
ograf@@ 1
oynadı 1
acağı 1
yönet@@ 1
grubu 1
sezonu 1
Nüfus 1
ell@@ 0.5664179626282955
1980 1
ulan 1
day@@ 1
iydi 1
hareket@@ 1
alam@@ 1
okul@@ 1
televizyon 1
han@@ 1
Mak@@ 1
13@@ 0.8212018163992026
ardı 1
ce@@ 1
birlik@@ 1
hi 1
Bey 1
ez 1
politi@@ 1
sistemi 1
Müz@@ 1
rad@@ 1
İngilizce 1
Sin@@ 1
Kil@@ 1
bütün 1
anlamına 1
haline 1
ğr@@ 1
sı@@ 1
ılığ@@ 1
tör@@ 1
fa 1
Th@@ 0.4034187292582562
MÖ 1
Nor@@ 0.9322760216187423
Gr@@ 0.5631306651232901
birleş@@ 1
yum@@ 1
laştır@@ 1
larıyla 1
br@@ 0.2851665535755274
ize 1
suç@@ 1
ces@@ 1
teh@@ 1
küt@@ 1
dağ@@ 1
ent 0.12836720643454244
Me@@ 0.9089258025248987
ünlü 1
lis 1
yöntem@@ 1
Fakat 1
kadın@@ 1
Doğ@@ 1
yaşayan 1
Diğer 1
ba@@ 1
Ver@@ 0.3039136984942871
öldü 1
40 0.9759224504539856
başarılı 1
va 1
derg@@ 1
hab@@ 1
fiz@@ 1
mücadele 1
yanında 1
10@@ 1
Hol@@ 1
Yay@@ 1
x@@ 0.41845818804751805
yazıl@@ 1
ıştı 1
Av@@ 1
nı 1
ai 0.8175718256386739
genç 1
girdi 1
Mısır 1
esinden 1
ort@@ 1
hakk@@ 1
ışt@@ 1
maçta 1
mez 1
bitir@@ 1
elerinde 1
ass@@ 0.3768549388968802
ederek 1
acağını 1
olabilir 1
forma 1
por@@ 0.886644513690623
tul@@ 1
ari@@ 1
elerinin 1
mut@@ 1
başlayan 1
val@@ 1
lin@@ 0.6702741604255708
madan 1
ben@@ 1
makta 1
sev@@ 1
ilan 1
dizi 1
usunda 1
Gru@@ 1
mim@@ 1
Mad@@ 1
oldukça 1
numar@@ 1
Bul@@ 1
ted@@ 1
müş 1
çalıştı 1
yılına 1
lem 1
sahibi 1
Ol@@ 1
mey@@ 1
başına 1
konusunda 1
yüzyılda 1
0@@ 1
lak 1
bol@@ 1
eyaletinde 1
özel@@ 1
minde 1
rak@@ 1
ilmesi 1
doğr@@ 1
yazar@@ 1
Uz@@ 1
teknik 1
sit@@ 1
önc@@ 1
iken 1
öldür@@ 1
ph@@ 0.2877774780705539
edilmiş 1
fi 1
Sos@@ 1
masında 1
değil 1
1998 1
belirt@@ 1
Fin@@ 1
ısını 1
est@@ 0.346720714954331
1992 1
bunun 1
taki 1
Ağ@@ 1
çocuk 1
sosyal 1
yarı 1
nit@@ 1
mekte 1
fır@@ 1
parti@@ 1
zem@@ 1
üniversit@@ 1
Bö@@ 1
lidir 1
diye 1
meden 1
metre 1
eyen 1
ite 0.33903092425283965
ülke 1
İkinci 1
Bay@@ 1
günü 1
Tar@@ 1
luk@@ 1
evi 1
imler 1
Mon@@ 0.5898054485657387
tespit 1
no@@ 0.5724247226471808
ate 0.16369090580533985
İspanya 1
ısına 1
yürüt@@ 1
ed 0.046999257077615625
hizmet@@ 1
2.@@ 1
asıdır 1
idae 1
geçti 1
başlat@@ 1
fe@@ 0.6358291682484318
best@@ 1
yağ@@ 1
bey@@ 1
tari@@ 1
Co@@ 0.5492298109773384
kuruluş@@ 1
iri 1
eci 1
harek@@ 1
Sa@@ 1
dönem 1
belediye 1
ven@@ 0.8977259568820491
ısıyla 1
elerini 1
kâ@@ 1
ul 1
tartış@@ 1
Yap@@ 1
pol@@ 1
lim 1
atro 1
kü@@ 1
veren 1
U 0.8760853537818413
iliy@@ 1
ağır@@ 1
mekte@@ 1
ho@@ 0.5879943707618719
aba 0.8797043627561453
isine 1
amacıyla 1
Hristi@@ 1
öldürül@@ 1
Hak@@ 1
hiçbir 1
ledi 1
art 0.6818338445853397
muş@@ 1
ud@@ 1
canlandır@@ 1
Kit@@ 1
acaktır 1
isidir 1
adet 1
başlamıştır 1
Lis@@ 1
cut 1
sab@@ 1
sız 1
ot 0.8095877834089846
söz 1
w 0.3207325415828776
andan 1
sonucunda 1
Ro@@ 0.6173515731678871
Bakanlığı 1
alarda 1
güçlü 1
Ter@@ 1
Japonya 1
Rus@@ 1
aras@@ 1
muh@@ 1
yazar 1
dar 1
kapsam@@ 1
organiz@@ 1
Öl@@ 1
1996 1
özg@@ 1
ön 1
üp 1
Kem@@ 1
tik@@ 1
dok@@ 1
zar@@ 1
albüm 1
ndan 1
benzer 1
1991 1
1994 1
1995 1
aliyet 1
hareket 1
Kür@@ 1
silah@@ 1
Fakültesi 1
ılığı 1
Sil@@ 1
G 0.8804034733817707
ub@@ 0.9801841049059257
1993 1
1997 1
nokt@@ 1
etkin@@ 1
hava 1
işleri 1
erken 1
işle@@ 1
Mur@@ 1
yo@@ 1
açıklam@@ 1
doğu 1
ismi 1
hizmet 1
yana 1
ino 0.6632538614504953
Sü@@ 1
acak@@ 1
değildir 1
ısından 1
Mor@@ 0.7011688015464295
ley 0.620491814469429
yaygın 1
yayınlanan 1
siyon 1
ze@@ 1
azar@@ 1
ülkenin 1
alanı 1
Gel@@ 1
şehrin 1
familyasına 1
alık 1
tif@@ 1
Oy 1
Yunan 1
Gök@@ 1
başında 1
kent 1
sh@@ 0.24391240813973947
mon@@ 0.39786583136106163
sona 1
yık@@ 1
çı@@ 1
ten@@ 0.3453869524287294
lev@@ 1
Başkan@@ 1
önceki 1
uygul@@ 1
ıld@@ 1
rı 1
Yak@@ 1
iğ@@ 1
yani 1
iller 1
iliği 1
Brezilya 1
mezun 1
era 0.3802205663136504
ard 0.44763411579515844
ortak 1
ges@@ 1
ınca 1
izi 1
batı 1
etmektedir 1
suz 1
1970 1
Müslü@@ 1
üph@@ 1
TV 1
parçası 1
bilim 1
bildir@@ 1
olduk@@ 1
İsrail 1
ts@@ 0.7943132448946848
teor@@ 1
iddia 1
ıf 1
uncu 1
şeklinde 1
oyun 1
uzun@@ 1
fer 1
ong@@ 0.67020594352152
ham@@ 1
Cumhuriy@@ 1
toplum@@ 1
ban@@ 1
çoc@@ 1
ift 1
iği 1
uygun 1
unları 1
ses@@ 1
seçildi 1
Sultan 1
Ko@@ 1
bilgi 1
kitap@@ 1
Os@@ 1
taşıy@@ 1
tamamen 1
bulundu 1
Fran@@ 1
meydana 1
kir@@ 1
Asya 1
sav@@ 1
Son 1
nedenle 1
In@@ 0.312399832064335
şirket@@ 1
sem@@ 1
İzmir 1
ağıdaki 1
medi@@ 0.9170534925280586
ğin 1
izm 1
arac@@ 1
ilere 1
any@@ 1
ide 1
ellikle 1
azi 1
Bazı 1
ha@@ 1
X 1
ayak@@ 1
prot@@ 0.7877811489885312
İlç@@ 1
içeren 1
aliz@@ 1
ire 0.6144252347477939
ava 1
yalnızca 1
yür@@ 1
Suriye 1
Do@@ 1
br 1
Kari@@ 1
ng@@ 1
olabil@@ 1
1960 1
kısm@@ 1
kulüb@@ 1
ayrı 1
ori 1
diler 1
onya 1
Kas@@ 1
istem@@ 1
traf@@ 1
rim@@ 1
sonrasında 1
arka 1
çevres@@ 1
ırı 1
bölgeler@@ 1
cm 1
alg@@ 1
oyunc@@ 1
Mu@@ 1
babası 1
Eski 1
Eğiti@@ 1
ulusal 1
Kaz@@ 1
fon@@ 1
turnuv@@ 1
deney@@ 1
3.@@ 1
eder@@ 1
Kaliforniya 1
adaki 1
halk 1
kat 1
Ef@@ 1
alarını 1
undaki 1
aret@@ 1
Bizans 1
Londra 1
ıyı 1
ortal@@ 1
neş 1
N 0.739830551495648
hikâ@@ 1
elerine 1
sti@@ 0.9185448301786728
kelim@@ 1
ladığı 1
sun 1
oper@@ 0.8974364465673076
Tiy@@ 1
üyle 1
İslam 1
etler 1
listesi 1
Hu@@ 1
yab@@ 1
Ord@@ 1
land 0.3301845251573664
Ku@@ 1
yn@@ 1
Nehri 1
aday 1
Mehmet 1
ence 0.263887540959567
lemek 1
seslendir@@ 1
² 1
Şampiyon@@ 1
bile 1
düny@@ 1
aka 1
ansı 1
alarak 1
yüzyılın 1
etin 1
esiyle 1
ilerine 1
dil 1
manı 1
He@@ 0.6273122834996531
çarp@@ 1
ürün@@ 1
zi@@ 1
ıdan 1
air@@ 1
tarz@@ 1
insel 1
üzerinden 1
let@@ 0.8087477184142472
konum@@ 1
ışlardır 1
lig@@ 1
siyaset@@ 1
piyasaya 1
Bor@@ 1
ekonomik 1
ımcısı 1
nok@@ 1
Sen@@ 1
yaklaş@@ 1
Sez@@ 1
Japon 1
silc@@ 1
lardı 1
aman 1
yerini 1
lenir 1
meyen 1
ıklı 1
Beş@@ 1
toplul@@ 1
düşük 1
Başkanı 1
İki 1
bilgis@@ 1
gol@@ 1
versi@@ 1
sık 1
ındadır 1
ner@@ 1
ğinde 1
keti 1
ang 0.5772585955773071
sözleş@@ 1
kardeşi 1
yüksek@@ 1
İtalyan 1
Far@@ 1
-@@ 0.9286904407133034
cez@@ 1
gerçek 1
ette 0.9349670449438982
direkt@@ 1
60 1
hap@@ 1
Gu@@ 0.5829056293675869
gar@@ 1
Kap@@ 1
Bağ@@ 1
yalı 1
On@@ 1
boş@@ 1
Ön@@ 1
gr@@ 0.3124499144318431
müd@@ 1
ill@@ 0.553825202896412
fin@@ 0.40977273790556185
kleri 1
ha 0.6558082427225819
milletvek@@ 1
do 0.39753576033415605
Sch@@ 0.21610111510647642
Yüz@@ 1
mî 1
kari@@ 1
Bah@@ 1
mü@@ 1
Mustafa 1
Futbol 1
alış@@ 1
ölçü@@ 1
rah@@ 1
iv@@ 0.693769157556305
uzak@@ 1
İz@@ 1
uldu 1
ısının 1
Krallık 1
+ 1
bağımsız 1
türe@@ 1
luğunda 1
kontrol 1
yayınlandı 1
başı 1
nek 1
ba 1
kis@@ 1
Val@@ 1
0.000 1
Af@@ 1
otom@@ 1
Gir@@ 1
V 0.8366776533751126
duğ@@ 1
FC 1
bölgesinde 1
Profes@@ 1
ys@@ 1
mec@@ 1
nas@@ 1
yardım 1
fe 1
verildi 1
bağım@@ 1
iyordu 1
profesyonel 1
yoğ@@ 1
yor 1
Polonya 1
inç 1
Mil@@ 1
kuk 1
lanması 1
ılmaktadır 1
şi 1
Okul@@ 1
Mac@@ 1
Millî 1
sur@@ 0.46629245571332606
Kuvvet@@ 1
öner@@ 1
Ül@@ 1
Şir@@ 1
stüd@@ 1
dis@@ 0.18457240446443873
düşünül@@ 1
Ermen@@ 1
bağl@@ 1
abr@@ 1
mada 1
Gal@@ 1
1989 1
eyalet@@ 1
Avusturya 1
sonrası 1
ep 1
Yar@@ 1
kendisine 1
lan 1
olmasına 1
soy@@ 1
rir 1
retim 1
seri 1
aşa 1
birliği 1
ışık 1
Siy@@ 1
dak@@ 1
gez@@ 1
ya@@ 1
serbest 1
alarının 1
kariyerine 1
ilerini 1
Mus@@ 0.916702841424258
ayır@@ 1
Mes@@ 1
bölge 1
bilinir 1
liğinde 1
ens 0.26442665961691486
tip 1
Kül@@ 1
adam@@ 1
başlang@@ 1
video 1
meleri 1
doğal 1
sürec@@ 1
Portek@@ 1
kurulmuştur 1
Yahudi 1
El 0.22451557990309504
dağıl@@ 1
polis 1
yönünde 1
ıf@@ 1
hale 1
sürül@@ 1
yapt@@ 1
Arap 1
ıca 1
birinci 1
up 0.32160413084752926
Ham@@ 1
Yun@@ 1
dek 1
Bas@@ 0.9706529610517068
raf@@ 1
To@@ 0.963501210400135
tanıt@@ 1
cel@@ 1
kısmı 1
arlar 1
Örneğin 1
Dağ@@ 1
kale 1
yardımcı 1
modern 1
lah 1
tre 0.9548991943910481
şey@@ 1
ener@@ 1
alle 1
öncel@@ 1
maktaydı 1
Eurovision 1
For@@ 0.5673410985365398
bor@@ 0.7097001195384499
altına 1
öğret@@ 1
ihtiy@@ 1
Ok@@ 1
üb@@ 1
yeter@@ 1
arkadaş@@ 1
köken@@ 1
bölümü 1
yse 1
far@@ 1
ald@@ 1
Türkçe 1
Brit@@ 1
Sovyetler 1
12@@ 0.8390312195337393
dalg@@ 1
İr@@ 1
giz@@ 1
yem@@ 1
dünyanın 1
yapıldı 1
Göl@@ 1
kuruldu 1
ku 1
nek@@ 1
ınday@@ 1
Alb@@ 1
yorum@@ 1
durum 1
verdiği 1
maçında 1
başlar 1
yal 1
ch 0.27444144909355
Hük@@ 1
iksel 1
oran@@ 1
Alman@@ 1
taşım@@ 1
for@@ 0.26972226661368554
tro@@ 0.6527164148744429
Buna 1
landığı 1
Merkezi 1
Yüksek 1
0,@@ 1
günümüzde 1
yav@@ 1
tri@@ 0.3384071998534637
ila 1
maç 1
oluşur 1
ekonom@@ 1
anim@@ 1
kh@@ 0.833358907206419
yum 1
Yunanistan 1
çalışan 1
one 0.12303430804683214
Büyük@@ 1
enek@@ 1
amb@@ 0.7916319215212511
olsa 1
ome@@ 1
H 1
tep@@ 1
dest@@ 1
anti@@ 0.6924745580857741
tav@@ 1
yd@@ 1
Müzik 1
mer 0.7319791769542884
kri@@ 1
altın 1
tarihli 1
kalm@@ 1
bire@@ 1
hızlı 1
yasal 1
Sp@@ 0.5678697319563574
pro@@ 0.42092080406876703
toplam@@ 1
yok 1
bunu 1
sanat 1
saat 1
Po@@ 0.8053943669176606
paylaş@@ 1
iyor 1
çatış@@ 1
ört@@ 1
satın 1
Tem@@ 1
Gün@@ 1
devlet@@ 1
defa 1
dikten 1
yönetmen@@ 1
şid@@ 1
adına 1
olmuş 1
Pal@@ 0.8547327173224548
90 1
Halk 1
uç 1
Toplam 1
Ensti@@ 1
fre@@ 0.7676199326387398
yönetim 1
ilerinin 1
ala 1
spor@@ 1
pozisyon@@ 1
Gür@@ 1
arın 1
enen 0.6854934906798695
Arap@@ 1
Avustralya 1
mel@@ 1
önem 1
ker@@ 1
diğinde 1
kızı 1
alya 1
tüsü 1
endis@@ 1
Ed@@ 0.833707951234609
mesinden 1
davran@@ 1
arkad@@ 1
İspany@@ 1
ağır 1
80 1
lüğ@@ 1
1988 1
beyaz 1
yıldızı 1
baş 1
yapı 1
kü 1
İk@@ 1
Yen@@ 1
ses 0.2828503204910221
yapılmıştır 1
ant 0.12813154898574033
iline 1
neği 1
etik 1
4.@@ 1
alanında 1
içi 1
korum@@ 1
ena 0.706075315069121
doğru@@ 1
Sol@@ 1
Akadem@@ 1
Vol@@ 1
imini 1
lukla 1
kavram@@ 1
Müd@@ 1
Mc@@ 0.6456356028071967
gid@@ 1
düncü 1
Sonuç@@ 1
Ödülleri 1
hafta 1
Fenerbahçe 1
çalışmaları 1
ğine 1
sözc@@ 1
Muhar@@ 1
yönelik 1
olu 1
miktar@@ 1
ind@@ 0.7249719471438205
uyordu 1
minin 1
irken 1
öne 1
verir 1
eki 1
zorunda 1
olo@@ 1
hes@@ 1
af 1
urdu 1
Con@@ 0.26636296453284725
kız 1
kurum@@ 1
cü 1
? 1
dan@@ 1
içerir 1
yenil@@ 1
ordusu 1
kum@@ 1
faaliyet@@ 1
Mel@@ 1
Si@@ 0.9993930331288985
alarına 1
komün@@ 1
şehri 1
So@@ 0.9524584492868364
imi@@ 1
Merkez 1
gan@@ 1
edir 1
1987 1
bileş@@ 1
dör@@ 1
tepe 1
çevir@@ 1
yıldız@@ 1
yerek 1
sanatç@@ 1
lığına 1
mül@@ 1
Bununla 1
elinde 1
cumhur@@ 1
mızı 1
ıklar 1
üzel 1
şeh@@ 1
dair 1
Galatasaray 1
Ni@@ 1
tesi 1
ehrin 1
güç 1
ilerek 1
Say@@ 1
üd@@ 1
orum 1
yük@@ 1
dağıt@@ 1
kın 1
Kanada 1
yapmış 1
felse@@ 1
sö@@ 1
Yarışması 1
aj 1
stand@@ 1
kurtar@@ 1
mesinin 1
aşam@@ 1
ılara 1
değerlendir@@ 1
anlığı 1
ica 0.3715934991029758
1928 1
70 1
Seç@@ 1
bölüm 1
üret@@ 1
mik@@ 1
Mez@@ 1
Hayatı 1
kontrol@@ 1
yılının 1
III 1
ator 0.7241859624196612
müm@@ 1
para 0.19608953475393973
uları 1
topr@@ 1
Bat@@ 1
onları 1
Sak@@ 1
Ör@@ 1
alim@@ 1
San 0.5525107034764317
zeng@@ 1
gözlem@@ 1
üzerindeki 1
sinema 1
Ukrayna 1
lenmiş 1
arm@@ 0.7148062649369661
motor@@ 1
fotoğ@@ 1
vatand@@ 1
kamp@@ 1
Grup 1
ektedir 1
Kıbrıs 1
anlık 1
oy 1
mini 1
Muh@@ 1
başkenti 1
şarkıcı 1
Dr@@ 0.7901988157968108
döndü 1
sıcak@@ 1
ou@@ 0.27682091043008444
pot@@ 1
soğ@@ 1
Kore 1
şö@@ 1
yüzyıl 1
hükûmet@@ 1
tor 0.4935196661297591
Olimpiyat@@ 1
1986 1
dünyaya 1
Az@@ 1
Yahud@@ 1
müş@@ 1
au@@ 0.2204917681337729
atür@@ 1
andığı 1
İsk@@ 1
Trab@@ 1
gerekti@@ 1
kasab@@ 1
sergil@@ 1
performans@@ 1
tanr@@ 1
karşısında 1
asik 1
çoğ@@ 1
boş 1
kendini 1
erini 1
kişinin 1
Köyün 1
geleneksel 1
Bol@@ 1
aylık 1
belirli 1
örgüt@@ 1
şim@@ 1
söyledi 1
ell 0.3894720396903958
stat@@ 0.9959530500099956
kültür@@ 1
sonr@@ 1
lamıştır 1
şe 1
çünkü 1
doğan 1
müh@@ 1
1950 1
tipi 1
Kut@@ 1
sayesinde 1
andır 1
gen 0.5637216629043399
gerçek@@ 1
yoğun@@ 1
eşit@@ 1
kıl@@ 1
Mir@@ 1
ordus@@ 1
vil 1
ığına 1
menin 1
çift@@ 1
aktif 1
edilmektedir 1
sahi@@ 1
yazarı 1
ore 0.48017613517509905
Ordu 1
ehir@@ 1
artık 1
indir@@ 1
imparator@@ 1
imz@@ 1
Muhammed 1
alara 1
imzal@@ 1
Şehir 1
ınlar 1
sayı 1
yayın 1
ver 0.572658130028494
Hindistan 1
üstü 1
liğe 1
Pe@@ 0.8765283232196374
Hollanda 1
İsveç 1
dış 1
jinal 1
kurdu 1
dikleri 1
dül@@ 1
35 1
enerji 1
konu 1
Han 1
kin@@ 1
işlet@@ 1
Pro@@ 0.6408570813414375
galaksidir 1
Günümüz@@ 1
Krall@@ 1
William 0.8237153520143201
Mas@@ 0.8935526927748544
Yöne@@ 1
urt 1
uygulan@@ 1
1984 1
Ban@@ 1
elen 1
farkl@@ 1
ati 1
mal 1
Arnav@@ 1
Res@@ 1
mit@@ 0.691620525978262
Dar@@ 1
adel@@ 1
eriş@@ 1
Süper 1
kardeş@@ 1
aat 1
Devleti 1
ığın 1
Burada 1
araç@@ 1
sin 1
şehirdir 1
duk@@ 1
Festiv@@ 1
kut@@ 1
aman@@ 1
stir 1
organ@@ 1
Savaş@@ 1
maçı 1
isel 1
her@@ 0.3299334354436391
graf@@ 1
destek 1
Cor@@ 0.49779857406755057
Windows 1
tilen 1
san 1
Gürcistan 1
single 0.6879535588908141
Li@@ 0.5355932181624562
tar 1
asi 1
ora 0.8481952336604148
hiç 1
000 0.7749679861495979
â 1
2. 1
yonel 1
UEFA 1
1985 1
idari 1
zey 1
inti@@ 1
kür@@ 1
sine 1
İmparator@@ 1
ayd@@ 1
Sanat@@ 1
aha 1
Mat@@ 1
ımcı 1
1982 1
maz@@ 1
Tor@@ 0.9315902338959222
ner 0.25283577500853466
sos@@ 1
müc@@ 1
enti@@ 0.36427046365607624
Genç@@ 1
Min@@ 0.7429576389972751
gaz@@ 1
Kı@@ 1
arş@@ 1
ej@@ 1
Tel@@ 1
final 0.5570078510773627
Topl@@ 1
sen 0.6547367545181159
dr@@ 0.37783451751845204
kara 1
od 0.5853491679080227
Deniz 1
asit@@ 1
inş@@ 1
anlı 1
kre@@ 1
cam@@ 1
Ahmet 1
Osman@@ 1
lo 0.29191180813297224
Irak 1
Hat@@ 1
Cem@@ 1
Yaz@@ 1
öy 1
20@@ 0.7653239566703937
hükû@@ 1
Ste@@ 0.657977159733738
200 1
elektr@@ 1
Mosk@@ 1
uf@@ 0.9485174021267455
gali@@ 1
Feder@@ 1
landa 1
ae 0.8931270076050382
James 0.8413624727559101
... 0.7978950175577684
Yard@@ 1
Cumhur@@ 1
let 1
anak@@ 1
bölgel@@ 1
Mü@@ 1
Don@@ 1
cut@@ 1
endi@@ 1
zul@@ 1
ğer 1
1,@@ 0.7881590052983616
ker 0.5979811608940467
Col@@ 0.40996605406350456
terci@@ 1
45 1
zu 0.11956518868009114
1983 1
Kızıl@@ 1
0.@@ 0.8424396555608783
dam@@ 1
vet 1
kateg@@ 1
vol@@ 0.5858446048736585
elik@@ 1
uda 1
ayar@@ 1
sul@@ 1
Ant@@ 1
olan@@ 1
Üniversit@@ 1
ros@@ 1
Bulgar@@ 1
yans@@ 1
Diy@@ 1
ug@@ 0.5885625793971003
Tun@@ 1
David 0.8876931252282666
500 0.9905221308632409
yk@@ 1
lek 1
familyas@@ 1
yat 1
cil 1
Can@@ 1
Fer@@ 1
Qu@@ 0.34959380192730716
Berlin 0.9455218214669203
otur@@ 1
Str@@ 0.49184083761376657
vir@@ 1
dah@@ 1
Siv@@ 1
‘ 1
sist@@ 1
rec@@ 0.2457324917388698
32 1
19. 1
Cr@@ 0.5853267363376949
top@@ 1
Var@@ 1
gelen@@ 1
hak 1
lek@@ 1
nu 1
ilik@@ 1
yüzyıl@@ 1
zur@@ 1
Cam@@ 1
ampiy@@ 1
akadem@@ 1
ism@@ 1
lak@@ 1
ham 1
Sim@@ 1
mis@@ 0.47682971339123953
1979 1
gal 1
nam@@ 0.79143156293769
sek@@ 1
pan@@ 0.9263050022675924
Bi@@ 0.5731920861754464
Lo@@ 0.589036836876671
semb@@ 1
pos@@ 0.282229185066671
net 1
Şark@@ 1
Sab@@ 1
bay@@ 1
5.@@ 1
Kaf@@ 1
hir 1
Pl@@ 0.5895748923922689
serv@@ 0.8428973084644309
aci@@ 0.9069262101086026
port@@ 0.7702758542191381
göre@@ 1
gu@@ 0.28346598893976765
Michael 1
ick 0.5011311700241143
yıld@@ 1
Hor@@ 0.9265880709705351
Vak@@ 1
fir@@ 1
1981 1
yg@@ 1
antik 1
sap@@ 1
kaf@@ 1
La 0.09548379404517249
yla 1
gal@@ 1
günümüz@@ 1
tis@@ 0.7696586870716763
ko 1
Gi@@ 0.7681182841387452
ibi 1
ats@@ 1
Dur@@ 1
Tat@@ 1
amp@@ 0.7158904253107614
arab@@ 1
by 0.034467291221273386
BM@@ 1
vak@@ 1
siyas@@ 1
3. 1
1974 1
üf@@ 1
Ben@@ 1
fl@@ 0.37487743389960687
Macar@@ 1
ro 0.816382842806592
1978 1
sch@@ 0.1509165083085661
profes@@ 1
per 0.3627818168366594
ket@@ 1
ura 0.7394387030708083
é 0.07858737982172871
plat@@ 0.9579900772636548
pik 1
Ah@@ 1
eller 1
ide@@ 1
Dok@@ 1
1945 0.7528620345994427
dür@@ 1
Por@@ 0.9241447789024603
fark@@ 1
Kız@@ 1
6.@@ 1
Cen@@ 1
his@@ 1
gu 1
7.@@ 1
pler 1
Q@@ 0.6535576432221444
dini 1
aile 1
ga 1
Pas@@ 1
Sad@@ 1
ital 1
ita 0.6595254930346077
parti 1
Jo@@ 0.6861011214993258
Robert 0.7938531457483887
á@@ 0.32287025970749955
len 0.6014237813332893
İm@@ 1
tane 1
isa 1
1973 1
ai@@ 1
1968 1
azar 1
Mag@@ 0.6847282981207978
ish@@ 0.4966534357264311
aceae 1
ınar 1
telef@@ 1
Med@@ 1
leb@@ 1
aller 1
ser 0.53437216576292
1@@ 0.8668178016887937
Na@@ 1
1972 0.9539681082116473
FIFA 1
büt@@ 1
zon 1
tec@@ 1
1975 0.9399589042291708
öd@@ 1
pre@@ 0.21469098615492863
zun@@ 1
Ac@@ 0.5983881825127941
Hel@@ 1
metr@@ 1
vel@@ 0.9054095926514549
Kara 1
faz@@ 1
sp@@ 0.23504556663687018
W 0.7310775719209142
Hü@@ 1
Rad@@ 1
üçük 1
Mem@@ 1
1977 1
ayi 1
Gör@@ 1
ond@@ 0.8265555316230985
1920 1
ic 0.1756000584096956
Meh@@ 1
aw@@ 0.3838257745530935
keş@@ 1
lig 1
ret 1
° 0.7896128571263799
Ur@@ 0.7248379914554143
eceğ@@ 1
hala 1
indi@@ 1
George 0.7182332302956097
ong 0.5130937849346762
ris@@ 1
idar@@ 1
bay 1
ff@@ 0.362705176265483
pal@@ 0.7728886051664718
astron@@ 1
Bu@@ 1
pil@@ 1
Dav@@ 1
hük@@ 1
ski 1
tal 1
can 0.26299203494218454
ders@@ 1
1976 0.9555491517861137
Sek@@ 1
enz@@ 0.7100251114884085
Stad@@ 1
mm 1
Tab@@ 1
hen@@ 1
Del@@ 0.8616737965936452
enf@@ 0.8831762657241433
gar 1
anca 1
amu 1
Tay@@ 1
sol 1
Dol@@ 1
mayan 1
no 0.143384106841518
jan@@ 1
adi 1
Rum@@ 1
emati@@ 1
Dr. 1
Kir@@ 1
basket@@ 1
1969 1
nak@@ 1
Haz@@ 1
1971 0.9514472778251015
au 0.07018691279240441
Yas@@ 1
int 1
iss@@ 0.7037848927365761
kaya 1
Gül@@ 1
Ke@@ 1
neğin 1
ese 0.4620783317289287
eyal@@ 1
na@@ 1
part@@ 0.6909406803186723
berg 0.5134321072591532
2022 1
ızı 1
Sey@@ 1
Kab@@ 1
dün@@ 1
erg@@ 0.9152033463470802
City 0.4198691948139724
Ra@@ 1
bis@@ 1
Sah@@ 1
trol 1
normal 1
Sul@@ 1
rev@@ 1
Ti@@ 0.9894115010739983
gin 1
cid@@ 1
rim 1
yu@@ 1
air 0.6578976966156054
Sur@@ 1
yar 1
je@@ 0.7109010155588678
Los 0.36262963245124047
kah@@ 1
sam@@ 1
istik 1
est 0.034620657526755305
tren@@ 1
pas@@ 0.6685167121645846
1967 0.9937341302269594
les 0.03885672936457545
75 0.9341453790632182
ira 1
aden@@ 1
Gre@@ 0.7193204492054639
aly@@ 1
eten 0.8437606970378195
abl@@ 1
Et@@ 1
Go@@ 0.7895010196647523
alog 1
stein 0.8212995602817891
mant@@ 1
erine 1
Is@@ 0.6828906143176426
Ard@@ 1
Charles 0.6914988538470965
ima 1
Yu@@ 1
pen@@ 0.511154577242899
ons@@ 1
teri 1
OS 1
Ang@@ 0.4775621428576501
io 0.5050959693261262
st 0.28872958276006655
ato 0.7096201328297114
Kend@@ 1
ation 0.04634661976863374
ess@@ 0.29318217963330173
Paul 0.630950878190033
Ho@@ 0.7042836372987824
eph@@ 1
neden@@ 1
roman@@ 1
Gar@@ 0.6850287121038611
rat 1
1930 1
kuv@@ 1
elektron@@ 1
Van 1
8.@@ 1
Bos@@ 1
metal 1
Ana 1
lü@@ 1
shire 1
Com@@ 0.23639072423470953
grup@@ 1
Kam@@ 1
ber 0.6676499996413666
1961 1
ney@@ 1
Venedi@@ 1
33 0.9772410290920395
ly 0.10245504768629157
Tür@@ 1
oh@@ 0.7737465117236589
Lit@@ 1
ami@@ 1
ath@@ 0.3000462321730594
urt@@ 1
bek 1
çu 1
Hali@@ 1
Naz@@ 1
parish 1
civil 1
all 0.11829765353410814
hiz@@ 1
yanın 1
1965 0.9695660447350266
enn@@ 0.4151235535179766
Ag@@ 0.7567645034444764
Kü@@ 1
illi 1
fü@@ 1
vek@@ 1
1966 0.9775693868146805
37 1
1940 0.9245080261878551
Pan@@ 0.926580522392605
atif 1
mod@@ 0.953573919564102
IV 1
ven 0.7733134299153501
Bug@@ 1
akter 1
age 0.09078464753802606
evi@@ 1
1964 0.9373935294086007
fak@@ 1
Cel@@ 1
ony@@ 1
Erk@@ 1
4. 1
Ir@@ 0.905837889731859
Kl@@ 1
20. 1
tat@@ 1
tom@@ 0.5153505338989313
Basket@@ 1
des 0.0215528926381593
ruh@@ 1
brahim 1
Lu@@ 0.6877624965516604
unla 1
yor@@ 1
Pi@@ 0.6382940112857883
kus@@ 1
General 0.559890417781797
Mi@@ 0.9105421185705084
rö@@ 1
League 0.36608979738467606
ımına 1
oto 1
Cal@@ 0.616876664628019
üng@@ 1
tap@@ 1
hatt@@ 1
ć 1
ras@@ 1
gus@@ 1
ton@@ 1
34 0.9670386553552697
ult@@ 1
Ba@@ 1
diplom@@ 1
Ek@@ 1
1. 0.7727708182537895
ea 0.5413966625969739
ezi 1
Est@@ 0.6684088009958692
Fl@@ 0.4036411361200988
sub@@ 0.2744064529334131
Met@@ 0.9839874736435619
1944 0.7890562183773581
1963 0.9736377123903145
Fr@@ 0.4580998934704407
hep@@ 1
çeşit@@ 1
Mol@@ 1
Peter 0.7836627046027999
Ros@@ 0.7169346785012616
bün@@ 1
lim@@ 0.9266630074975235
und 0.018156813770305542
vil@@ 1
qu@@ 0.10092394113099241
ehir 1
uru 1
engi 1
prak@@ 1
ider@@ 1
fr@@ 0.3105103969913349
ceph@@ 1
amii 1
36 0.9096639378475112
oni 1
Olimpi@@ 1
ach@@ 0.16966873077247555
burg 0.555739164511845
ty 0.2101137003794717
eline 1
Tom@@ 1
Elek@@ 1
ow@@ 0.29177374019487684
plas@@ 1
Microsoft 1
ford 0.550736318391822
.000 1
We@@ 0.3487570963407725
lin 1
ilim@@ 1
65 0.7751295892902671
ebe 1
zey@@ 1
Fre@@ 0.39169224023794746
Tim@@ 1
ate@@ 1
Mey@@ 1
pa 1
kov@@ 1
det 1
bon@@ 1
Fut@@ 1
zer@@ 1
deş@@ 1
ster 0.47681572146164625
85 1
Grand 0.7389123841641941
1941 0.8239790882241855
ster@@ 0.6630617614747748
Du@@ 0.7192934295263768
rock 0.93954067525183
kar 1
Jean 0.5594028374481802
Lat@@ 1
ılar@@ 1
tedir 1
Ph@@ 0.375253897231107
Ul@@ 1
tay@@ 1
Angeles 1
1962 0.934842600538291
von 0.0370067129392708
yr@@ 0.4628896722690017
gil@@ 1
ick@@ 0.27113368416908035
48 1
pak@@ 1
omi 1
oj@@ 1
Pat@@ 1
1959 1
1956 0.9611458840988708
64 0.9058867993659894
Sem@@ 1
55 1
sidir 1
38 0.9318905719254373
bl@@ 0.24946268094494395
World 0.2541359568931202
Komit@@ 1
Uy@@ 1
afi 1
2,@@ 0.7109634767467746
müs@@ 1
Hitler 1
Kim@@ 1
9.@@ 1
SS@@ 1
Kazak@@ 1
NBA 1
nan 1
olar@@ 1
itibar@@ 1
ain 0.26065443079656964
Fu@@ 1
Kateg@@ 1
3,@@ 0.857275876781734
rit@@ 0.6118354867993988
Prot@@ 0.9208293053766717
fes@@ 1
elle 0.1129706959604649
veç 1
Dan@@ 1
kg 1
Ker@@ 1
num@@ 1
molek@@ 1
yeye 1
dakika 1
Afr@@ 1
.. 1
42 1
eza 1
emen 1
aza 1
1946 0.8988125205001387
egem@@ 1
Un@@ 0.3696763170692284
1958 0.9357789269216349
ema 0.8636476406161104
üzer@@ 1
tif 1
for 0.021842925085209713
med 1
ust@@ 1
bet@@ 1
strat@@ 1
Din@@ 1
Je@@ 0.6748758788522028
aktiv@@ 1
25@@ 0.6609025753973252
Park 0.5349756166253417
obi@@ 1
bon 1
biç@@ 1
fig@@ 1
tiz@@ 1
acağ@@ 1
atom@@ 1
politik 1
Tri@@ 0.503471455147446
ait@@ 1
ento 0.7624020021530347
St 0.9408761261679764
1918 0.9713552791076238
fu@@ 0.5648329090508039
elt@@ 1
oca 1
co 0.2604126500207985
orit@@ 1
model 1
sy@@ 0.7051552030071304
Art@@ 1
Ex@@ 0.2561704590427968
rek@@ 1
Tu@@ 1
Cl@@ 0.43770463355201733
1957 0.9658916848262353
dos@@ 1
On 0.1473368978704213
MS 1
Vil@@ 1
kek 1
lav 1
kun@@ 1
Ann@@ 1
hat 0.39510357858041145
kel 1
web 1
not@@ 0.3228709221513758
hidro@@ 1
Mik@@ 1
ister 1
vin 1
Sor@@ 1
ole 0.4667642152750065
üncü 1
ji@@ 1
yayg@@ 1
emp@@ 0.5025822840561235
dit 0.8857004549198039
Wil@@ 0.7318244049023482
1954 0.9762935729458057
1955 0.981832846252764
Hab@@ 1
oma 0.7299270672771722
1943 0.8033716703130799
Bit@@ 1
5. 1
roman 1
Men@@ 1
car@@ 0.1753741342821075
300 0.9905621724787709
1948 0.8578912208119007
off 0.3315905637947781
top 0.518310290975009
ac 0.6386717639282041
ella 0.5287707080861711
th 0.1018398697029601
finale 1
rest@@ 0.575789825838915
ren 1
Bek@@ 1
Henry 0.8045156142900561
Ru@@ 0.8243674878217654
Cas@@ 0.6293065653914646
Nik@@ 1
up@@ 0.29029658848177925
Fi@@ 0.764212321870971
ja 0.571185737638997
yük 1
Thomas 0.5869082581535947
entin 1
Müh@@ 1
1939 0.7780404155416403
Kos@@ 1
Bl@@ 0.5134157856141421
ace 0.3124893068245392
Lev@@ 1
nö@@ 1
oz 1
00 1
Nazi 1
95 1
ometr@@ 1
ider 0.8837514298297362
4,@@ 0.9991127007297611
sert 1
Kör@@ 1
Tarih@@ 1
pel@@ 0.652608563354636
har 1
Ben 1
les@@ 0.7603614993531687
Yarış@@ 1
Ali@@ 1
anay@@ 1
Final 1
pop 1
sad@@ 1
uh@@ 1
kün@@ 1
Kav@@ 1
ao 0.7001713200531158
ts 0.07517241929953589
Fati@@ 1
Yük@@ 1
00@@ 0.9730539586492923
Ri@@ 0.5762836981408193
alb@@ 1
mir@@ 0.9568604993294344
unc@@ 0.46788814217409436
rar@@ 1
gaz 1
Richard 0.7691878427636324
ich 0.3782347797245989
Ram@@ 0.8956899829622691
Tok@@ 1
parlam@@ 1
ân 1
ola 0.8462476907938324
ida 0.34811455680838754
stan 1
Birleş@@ 1
ban 0.923028547263787
tre@@ 0.3530777093168553
ein@@ 0.12618154481451394
km@@ 1
hangi 1
test@@ 1
eo 0.5715117594156872
ille 0.36610239391746396
ran 1
Arab@@ 1
hek@@ 1
Washington 0.6751558370541815
kuz@@ 1
uzaklık@@ 1
Abdul@@ 1
feder@@ 1
mor@@ 0.3441099593233885
Ren@@ 0.8598014570464718
1942 0.757585098664086
AR@@ 0.9840235448077493
ung 0.07383921074680597
rej@@ 1
ff 0.7740405395627032
72 1
lam 1
öm@@ 1
sıc@@ 1
Baz@@ 1
rağ@@ 1
Bro@@ 0.7106481885364346
Akad@@ 1
Hi@@ 1
probl@@ 0.8557849218783339
39 0.9164803494691723
United 0.17644534960364788
haber 1
ple@@ 0.819666649709825
1953 0.9331060945728552
ünkü 1
ab 0.25371380473047644
isti 1
1919 0.961825909157116
ici@@ 0.28338102806832255
You 0.9435035856824032
line 0.2788279202235288
vide@@ 1
hac@@ 1
Boy@@ 1
Nas@@ 1
Saf@@ 1
ela 0.7723354755785796
bran@@ 0.8778082645491465
ematik 1
Konstant@@ 1
Saint 0.28030679046202883
sk 1
del 0.039004883481274386
Ahmed 1
Kel@@ 1
RT 1
kes 1
1952 0.8766791504375403
cil@@ 1
iti 1
š@@ 1
Fe@@ 0.8966772455375305
oll@@ 0.47462135241052184
ters 0.23697211051157877
47 0.9533578686046447
No@@ 0.9027486226568177
blo@@ 0.9235232033242737
ake 0.5155410143907151
lip 1
internet 1
ius 1
New@@ 0.7609538555293894
Ale@@ 1
ante@@ 1
Bin@@ 1
Sev@@ 1
estr@@ 0.44887747898537206
op 0.47119393121044706
ani@@ 0.8439614215783836
bom@@ 1
78 1
usa 1
aga 1
DNA 1
ō@@ 1
53 1
86 1
ast 0.4125685158064187
vas@@ 1
mail 1
mit 0.04559486662193281
Kah@@ 1
ly@@ 0.5552184686295124
Tas@@ 1
eden@@ 1
Ta@@ 1
tiş@@ 1
41 0.9330445359251786
gan 1
olog@@ 0.4692932061138703
Dor@@ 0.8502768371111856
güt@@ 1
stad@@ 1
Nev@@ 1
Billboard 1
Nov@@ 0.9976254586690066
istin 1
perform@@ 1
İngiliz@@ 1
bil 1
yün 1
mann 0.4721801564779071
44 0.802542919236066
57 1
Tah@@ 1
88 1
etvek@@ 1
eştir@@ 1
1949 0.8117130470024628
Louis 0.6082127262167966
leh@@ 1
oda 1
1947 0.8221017456245204
52 0.9090207475347613
saf@@ 1
30@@ 0.7876036547674622
Eur@@ 1
87 1
dam 1
aktır 1
Pap@@ 1
400 0.9510636072408353
zy@@ 1
1938 0.7972933444367958
Cad@@ 1
Mih@@ 1
ost 0.7029455054513815
Wal@@ 0.5404652485921962
ars 0.3208847447692763
51 0.9326579063700738
ded@@ 1
6. 1
Love 1
pek@@ 1
plan 0.6924877464799071
Devlet@@ 1
May@@ 1
gin@@ 1
Latin 1
ung@@ 0.3074082688702743
field 0.3191825938871754
iki@@ 1
mot@@ 0.41441949745487766
ost@@ 0.9615954446902841
grad 1
43 0.9383497280083748
Modern 1
Martin 0.7128659228832578
84 1
Records 0.7487508235168958
56 0.9654773985191941
anah@@ 1
bed@@ 1
eter@@ 0.7095052788752665
ders 0.5783359723683101
Plat@@ 0.9123895090982677
ack@@ 0.3209400707687868
orta@@ 1
Plan@@ 1
Su 0.6396764986558282
cular 1
mill@@ 1
oni@@ 0.46662019777157393
Sist@@ 1
ağı@@ 1
Da@@ 1
gön@@ 1
yel@@ 1
1925 1
oth@@ 0.3795855822406516
milli@@ 1
q@@ 0.7398256839819467
Cer@@ 0.7805884638594646
anne 1
anus 1
Tal@@ 1
Mari@@ 0.6867999511839488
kiye 1
ville 0.22970195372570404
92 1
alist 0.5959215715070433
alis@@ 0.515656537609525
Bre@@ 0.5353150189455117
ym@@ 0.6006253201323051
68 1
1936 0.8138271584371879
aus@@ 0.11923876477325532
28@@ 0.9084899848825673
ash@@ 0.4588957345204591
sand@@ 1
Mut@@ 1
Mit@@ 0.6581326858865457
play@@ 1
ich@@ 0.2792575471139029
Vik@@ 1
cal@@ 0.48327943747099056
1951 0.8798553618694587
$ 0.2576814699076792
uri 1
ekte 1
Lee 1
gun@@ 1
99 1
1933 0.8181946418593208
Haf@@ 1
olar 1
1921 1
5,@@ 0.9692168780777868
Hey@@ 1
kten 1
sur 0.0810485050144811
1922 1
end 0.13601498448147115
Yor@@ 1
motor 1
ates 0.17429210280576693
Ken@@ 1
1935 0.8962965743145639
54 0.9089194280861107
ins 0.1749255214816865
leti 1
çat@@ 1
lif@@ 1
Div@@ 1
lang@@ 0.8242929336082299
77 1
Tro@@ 0.6049190424915709
ion 0.19821248882371673
Joseph 0.6314445654854616
Al 0.520868928664172
old@@ 1
Eri@@ 1
Demokrati@@ 1
ain@@ 0.28944226672032225
test 1
anz@@ 0.4684912658261623
Aj@@ 1
SS 1
bey 1
Adam 1
Google 1
kup@@ 1
ordin@@ 0.9050921826527831
93 1
fel@@ 0.6850303689693653
uf 1
poli@@ 0.9329176367714367
Apple 1
67 1
71 1
Rec@@ 0.45390916287645694
amer@@ 1
Buc@@ 1
set@@ 1
pe 0.2857342517677711
vir 1
he 0.03534909616106946
1923 1
yn 1
66 0.9495993381606047
bron@@ 1
Lim@@ 1
46 0.8928104028838268
fol@@ 0.5373985140819667
96 1
ehr@@ 0.9342178747610819
18@@ 0.6503548155414547
58 0.9349002078799674
Kum@@ 1
Zel@@ 1
76 0.9562172969215562
ger 0.3553124014315117
las 0.057754536141018616
Tam@@ 1
person@@ 0.8565160694233049
Top@@ 1
CD 0.9120237761232461
Eng@@ 0.6761766845020766
Od@@ 1
eviz@@ 1
awa 1
q 0.7673855251503243
ero 0.3528921314529847
Madrid 1
lil@@ 1
time 0.09247126090730072
ue 0.14325207857203875
cer@@ 0.29674056016174444
cell@@ 0.7317824909645045
16. 1
Lor@@ 0.7465978982286046
zuk@@ 1
62 0.927846687110027
ington 0.6102628033181601
Ey@@ 1
61 0.9747525806599524
ure 0.12872802862285326
bahar@@ 1
Il@@ 1
Sand@@ 0.9442322150999237
1924 0.9417090733857265
sek 1
fal@@ 0.6146211147027411
sey 1
Sw@@ 0.4142687789051156
alternati@@ 1
merc@@ 1
spek@@ 1
eta 0.5637335108651811
aban 0.657316794711873
ison 0.48635919658460225
kenti 1
ami 1
sam 1
Stal@@ 1
ple 1
ry 0.34692166578591244
ahl@@ 1
1937 0.7861780320633553
ino@@ 1
asi@@ 0.5745183846117695
org@@ 0.9638865362815684
pap@@ 0.5837256698866663
tora 1
cudur 1
festiv@@ 1
7. 1
uta 1
stan@@ 1
Hil@@ 1
63 0.9336239547186179
dadır 1
esas 1
za@@ 1
Me 1
Biz@@ 1
pres@@ 0.23068907938555291
Nüf@@ 1
unca 1
04 1
1914 0.8625396879679933
adr@@ 1
ender 0.6408688299277352
general 0.34790917304999924
ota 0.7987738963600252
81 0.990886873871329
bas 1
1934 0.8463616742997842
Fel@@ 0.9919985311514842
6,@@ 0.8670588819596424
1912 0.9667316260337795
Kup@@ 1
dem 0.0469868493726174
é@@ 0.06495214793524134
ii 1
ó@@ 0.20717462677155607
vat@@ 1
Gl@@ 0.5970621023909419
24@@ 0.7736252135609625
ings 0.12591564549728915
Juli@@ 0.7956946874451123
74 0.9775070644811079
dom@@ 0.47372785846702153
con@@ 0.05641945028653602
alfab@@ 1
ike 0.8470134851082084
lise 1
18. 1
ill 0.45912415548103447
á 0.3428767687247205
afa 1
illa 0.5890504181179512
hel@@ 0.7587081536779678
ahi 1
atisti@@ 1
ō 0.9845060576113911
05 1
ellik@@ 1
í@@ 0.14038116850359184
ligi 1
Jackson 1
dans 0.04644893190751012
ith@@ 1
83 0.9661690731416647
AS@@ 0.8525138067654218
kisi@@ 1
Hy@@ 0.7621628530650821
edit@@ 1
tra 0.4715955572532138
CA@@ 0.7735074263422232
Lig@@ 1
ern@@ 0.3214868210297346
fen@@ 1
Star 0.9275746774425122
ste 0.33303418004597113
SC 1
Ari@@ 1
RA@@ 0.9565071141066773
Sun@@ 1
A. 0.5677490311533593
V. 1
1917 0.8582132501944822
29@@ 0.9085306907161762
One 0.39707896729443415
Sat@@ 1
sta 1
lir 1
rey 0.7091606391995176
kesi 1
Ap@@ 0.6303083053637625
Yugoslav@@ 1
49 0.8397305368582926
Ori@@ 1
mut 1
ehri 1
08 1
ons 0.09595519326607037
ilde 1
Mich@@ 1
Gürc@@ 1
iro 1
Video 1
neg@@ 0.47558077275913674
go 0.3727386028415943
ky 0.6519999806374492
led@@ 1
alama 1
Dal@@ 1
26@@ 0.9572024886424241
tel 0.47345160108095086
01 0.9017975412856736
may 0.21910056278676457
tol@@ 0.9023455314885822
ight 0.2651249187162019
M.@@ 1
zan 1
Fili@@ 1
82 0.9386835582510924
agr@@ 0.8287214882044492
hip 0.8310728941892853
69 0.974296738641027
refer@@ 0.586185830892956
paral@@ 1
WWE 1
anti 0.809147684783887
Maria 0.7766432893068617
73 0.9781130066403614
Bü@@ 1
ello 0.6670638523984727
Cup 0.3559384547185932
bre@@ 0.20790123002311356
1926 0.892537871807264
Z 0.8569184610288313
isp@@ 1
pir@@ 1
ört 1
Edward 0.9289752617269349
ail 0.6413339180945999
Bon@@ 0.8165986515761814
rem@@ 0.3644323479113109
key 0.5809972011105509
CH@@ 1
ā@@ 0.6403652261378325
Ka@@ 1
Y 0.7260759646881931
irse 1
94 1
ess 0.16311789622942174
59 0.8889326944345072
1927 0.8880009027122417
De 0.2831629973692612
My 1
Lib@@ 1
Dam@@ 1
— 0.03280197105050452
09 1
fos@@ 1
Pot@@ 1
ender@@ 1
hem@@ 1
ou 0.11312416221452327
Le 0.06665162867244423
West 0.3011308103466213
Buff@@ 1
ka@@ 1
ith 0.560929086351047
Dis@@ 0.42801034306740815
Fo@@ 0.6549412293392924
form 0.20849056685867495
urg@@ 0.8619951976475767
‎ 1
bot@@ 0.5496930521862567
je 0.6749028403271173
Oc@@ 0.6543146383341575
Hen@@ 1
bomb@@ 1
bac@@ 1
alif@@ 1
fo@@ 0.33175879988656076
mil 1
IS@@ 0.8393665500785468
aten 0.37081788029691065
day 0.1949369116472301
kaç 1
tem 1
98 1
cad@@ 1
ary 0.07758358320940928
rel 1
91 1
Mont@@ 0.5363040772889356
Tes@@ 1
hor@@ 0.395287468091853
aur@@ 0.539724019250849
Music 0.4648766869721143
anna 1
97 1
him@@ 1
well 0.13652785408836732
Sm@@ 1
Tap@@ 1
Papa 1
İ 1
7,@@ 0.9141510032671022
Santa 0.6141916738556699
18,@@ 1
1929 0.7739260894902054
Rock 0.9552432205990694
Prix 1
mag@@ 0.35520896240341315
Bis@@ 1
č@@ 0.9507994695117208
17. 1
Black 0.6437276230471028
Gor@@ 1
Hir@@ 1
ales 0.08380972882196877
Avru@@ 1
Laz@@ 1
Milli@@ 1
Blo@@ 1
hil 1
Sok@@ 1
ack 0.34800396721987814
My@@ 0.8379327789518034
dari 1
deb@@ 0.9283855064102522
Um@@ 0.5114539178151517
sonuc@@ 1
ef 0.6891199218119101
sig@@ 0.2784532695326452
Yah@@ 1
ave 0.39151169311408035
ex@@ 0.05255496155580552
low 0.19138123221169598
Pre@@ 0.4554838061720788
Tokyo 1
hari@@ 1
Ödül@@ 1
ity 0.08435209967172388
Wor@@ 0.3818043286664025
zz@@ 1
hr@@ 0.6182772068156134
ie@@ 0.2606904686523519
Show 1
ა@@ 1
arr@@ 0.20490484222027522
Harry 1
sar 1
89 1
fas@@ 0.6651166692530368
bec@@ 1
ud 0.9783689373306668
1932 0.7933965955450012
Hon@@ 0.5103803453935621
cas@@ 0.2684758361291256
79 0.9279805714686183
hali@@ 1
Ha@@ 0.7065284956147115
mine 1
8. 1
ito 0.4737243366218769
trans@@ 0.16443543312035835
so 0.11143785052988327
kuk@@ 1
mir 1
Manchester 1
Som@@ 0.9241677410733488
ende 0.23225128897152386
play 0.2550076469738351
Vir@@ 0.8331855930141168
7,5 1
pp@@ 0.32592464082109956
Ty@@ 0.6908491363076061
Tol@@ 1
A.@@ 1
Oper@@ 1
Yam@@ 1
Smith 0.6453820570342335
COVID 1
mara 1
07 0.9863107214241729
All 0.3337497226524584
Lin@@ 0.5558139483993755
Jack 0.9948595564081292
Pin@@ 1
Sk@@ 0.8253057321444375
pin@@ 0.7235531466263532
Don 0.9483450124481263
bar 0.4124951007369372
Mid@@ 0.8516307025857649
1931 0.8038640745219178
ding 0.29280439463356256
Flor@@ 1
Vi@@ 0.3119676251700713
emb@@ 0.38494859878945176
Kim 1
cel 1
Entertainment 1
port 0.27280394558901566
rab@@ 1
kte 1
aire 0.153328585135081
esc@@ 0.3642851210677407
ogr@@ 1
Ven@@ 0.7842874704831885
Slo@@ 1
ory 0.19825813939220197
ensi@@ 1
ps 0.3019728632802068
win 0.31455752928983516
inn@@ 0.2321710997886055
M. 0.7702361095718417
Nar@@ 1
bert 0.5446574929325989
9,@@ 0.9669473455880467
AB 1
Inter@@ 0.25905238637575784
ru 1
servat@@ 1
Android 1
FI@@ 1
CO@@ 0.8504738958575626
Yan@@ 1
inen 1
­ 1
Rio 1
Film@@ 1
1915 0.9349642762206258
solo 0.4936633859659521
Federal 1
Kongr@@ 1
Nak@@ 1
ian 0.21452802707587973
Frank 0.9132507401756286
J. 0.625918574361325
tro 0.8054221168571027
sent@@ 0.9517661463102652
gelenek@@ 1
Parlament@@ 1
ico 0.21256590519270943
sky 0.8113765984154565
tis 0.7515218593270354
sburg 1
ase 0.24230440749771487
9. 1
Hot 1
* 0.21914669514894405
Sib@@ 1
cen@@ 1
ei 0.5149265155098859
10.@@ 1
150 0.9511182324790821
Des@@ 0.4072386338446777
Karl 0.7806379174373566
ont@@ 0.7259950110638451
rik 1
kenin 1
J 0.7095483402794426
Nec@@ 1
atin 1
mark@@ 1
Pakistan 1
İtal@@ 1
fot@@ 1
EP 1
Amat@@ 1
famil@@ 1
int@@ 0.1560610421208532
Pek@@ 1
liste 1
Chi@@ 0.6210221685837066
600 1
Ly@@ 0.9211104864531168
Sic@@ 1
03 0.9940317755021165
Sus@@ 0.9652952081719318
1000 1
19@@ 0.611165832037123
AT@@ 1
Bud@@ 0.9212230174059471
atmos@@ 1
02 0.969894161237143
Luc@@ 0.7994219522459145
yaln@@ 1
anum 1
Wat@@ 0.7789983706901613
Can 1
hid@@ 1
ä@@ 0.09502729989943753
SK 1
Op@@ 0.5868323552751544
reli 1
Play 1
Ca@@ 0.9184381865951842
lov@@ 1
Pir@@ 1
eci@@ 1
aliyet@@ 1
Mim@@ 1
ach 0.16234082497389407
imar@@ 1
tion 0.050927654301090405
Cur@@ 0.5298044805696834
Sali@@ 1
Liber@@ 0.5681702727912795
06 0.9514243064569617
pis@@ 1
iko 1
Maz@@ 1
ash 0.5952943288618162
uki 1
Gil@@ 0.8333223988073402
mel 1
King 0.37763727206340303
arc@@ 1
eve 1
Club 0.3163567111673102
sil 1
ck 0.5041060970872536
old 0.17042708409952925
Prof@@ 1
Daniel 0.8384910396329653
Man 0.6477488461944486
Sof@@ 1
ance 0.07771518534691588
ł@@ 0.6163631551915976
ame@@ 0.8345239932968387
​ 1
Alexander 0.7251544664274909
Ec@@ 1
die 0.011687714032639008
verg@@ 1
program 0.47540727201600835
Rek@@ 1
Dom@@ 0.6642055702686501
Nur@@ 1
indi 1
pozis@@ 1
Kent 1
aff@@ 0.2252593496915851
1916 0.8882028760342647
Reg@@ 0.2322776879249209
Ü 1
.com 1
Live 1
Chicago 0.5804360873346746
che 0.14159010889297313
alli 1
Erz@@ 1
Pav@@ 1
ray@@ 1
The@@ 0.47933844157087224
Aleksand@@ 1
War@@ 0.4364155995652806
Mary 0.5908609734473509
Nobel 1
pul@@ 0.38511481570245454
Wo@@ 0.4517746606778666
dia 0.5318134071020235
nor@@ 0.24106188207400905
1908 0.8972953994666183
La@@ 0.8173025522226874
kim 1
ester 0.45519346327703697
iten 0.46240373158930753
dor@@ 0.5605877052477667
liber@@ 0.5436000511991776
ə@@ 1
Red 0.5737449127237971
uch@@ 0.25740445968330145
udi 1
ets 0.1226784384704257
odi@@ 0.7013023269698326
Q 0.972866296390346
800 1
edr@@ 0.9253779005919841
Baba 1
ansa 1
ble 0.27207271852283466
27@@ 0.8741388701572618
okia 1
arist@@ 1
Hid@@ 1
Progr@@ 0.9597739781821593
Ki@@ 0.7371577020517107
Mark 0.6871365040121523
Leon@@ 1
cus 0.97137457742394
bit 0.9965588627971568
tron@@ 0.932013647137998
Pa@@ 0.6799781948388411
Vel@@ 1
my 0.5761890020201753
neh@@ 1
ept@@ 0.9405778125223603
São 1
rot@@ 0.6664752959856659
Real 0.9326111662526301
po 0.69945845940976
1913 0.7976172976619947
Albert 0.881399263745472
Tour 0.5054952060938656
erry 0.6475678262151282
• 1
udi@@ 1
televiz@@ 1
Williams 0.851354113348294
Let@@ 1
Tom 0.9156251310004582
Roman 0.546821452515027
8,@@ 0.7497486410197799
Fat@@ 1
International 0.24665882525764868
Proj@@ 1
esto 0.8939069753555571
log@@ 0.4823149203079958
Â@@ 1
Len@@ 1
ener 0.5390287857491309
ais 0.25667226513685887
Ze@@ 0.435006031995537
Rol@@ 0.7668128359988389
opera 1
dy 0.5714171130527985
Kn@@ 0.6161832630600389
uke 1
baba 1
oti@@ 0.5448392311154582
Anne 1
Miss 1
tt@@ 1
zo 0.6977716129520894
Big 0.7300417544399441
ando 0.11941610054932904
err@@ 0.34661844888830873
meli 1
els 0.14809576533280483
Hom@@ 0.7528893635410903
ulus@@ 1
No 0.5355777304667364
NAT@@ 1
hum@@ 0.3248439408383929
ous 0.10052953393223941
Max 0.9758486090459341
13. 1
Jer@@ 0.6875061651269414
don 0.5774472512021734
ente 0.10094974612169075
eth 0.6981839941143766
Uni@@ 0.7718236094656938
idi@@ 0.41438442740003245
afe 1
inal 0.3794283805238625
AN@@ 1
best 0.3177774767391237
DVD 1
ish 0.14033358796146123
ovi@@ 1
aki@@ 1
tic 0.18316352775059574
çek 1
kub@@ 1
Organ@@ 0.7561657168514176
1910 0.7213380049597206
Phone 1
bat 1
Laur@@ 0.7756763079778156
Sir@@ 1
gru@@ 1
boy 1
oph@@ 0.35132598218926
It 0.046870584639476354
US@@ 0.6673657704439309
Fa@@ 1
Mis@@ 0.9896044012586294
FA 1
Anna 1
Cy@@ 0.6559366407658722
los@@ 0.3893850514095702
Cum@@ 1
Jap@@ 1
Company 0.38764860167922577
AC 0.7962671629131792
Ky@@ 1
uni 1
ass 0.210109125465028
Peter@@ 1
set 0.20394719647325132
Pop@@ 1
Dir@@ 1
thi@@ 0.5730304820299726
mali 1
Vas@@ 1
nik@@ 1
Lar@@ 0.8243567581839704
In 0.01877809613610105
protest@@ 1
ıs 1
SA@@ 0.9858209765780946
las@@ 0.9658882900746851
abe 0.831467022277322
Meg@@ 1
agon 1
Arizona 1
Bes@@ 0.3335249594235923
15. 0.9964419005731693
National 0.13064019448341446
BBC 0.8498287373278613
Au@@ 0.2571384690459663
ors 0.1150945286929568
iter 0.5436232352306395
Gem@@ 1
gül@@ 1
ign@@ 0.17609788164298673
Massachusetts 0.9627300121058815
ett 0.4334012038267654
Royal 0.33504746946474534
10. 1
11.@@ 1
ina@@ 1
gun 1
Sig@@ 1
Chris 1
laborat@@ 1
que 0.012418487202618
Arthur 0.8481245391867703
ock 0.48614180265764523
ben 0.27823068408593477
mati@@ 0.8460140427565359
cr@@ 0.11738255426187588
statisti@@ 1
kati@@ 1
Eli@@ 1
Pierre 0.522065378543927
inter@@ 0.0707073757591866
Mot@@ 0.5449079570373754
zon@@ 1
posta 1
Jones 0.7375042974398845
Pen@@ 0.5712489952276661
ado 0.040952253314058544
üt 1
ES@@ 0.8171512450006765
vin@@ 0.6456960596787079
Pu@@ 0.7397816623988316
Ep@@ 1
Liga 0.6147965344034132
Nam@@ 0.8310664343969152
inger 0.4456021953251762
Fri@@ 0.7078930961949664
1900 0.6757843603917247
Premier 0.8006296870572389
ft 0.2499856368609871
ift@@ 1
lit 0.5400648247573128
tin@@ 0.7828853194743403
ys 0.3715044802355453
onn@@ 0.19703087964278101
we@@ 0.10310762839015096
Virginia 0.5894497934512434
urg 1
our 0.13698570578471894
Sto@@ 0.6245099310684985
American 0.0998540374538736
avy@@ 1
1911 0.7535671895293293
ston 0.7492323741228973
KK 1
Florida 0.6431851009432001
She@@ 0.7237696685626223
Wi@@ 0.47208782421227274
Vietnam 1
vi 1
Francisco 0.48882766541250916
All@@ 0.4818041027737959
enden 0.16961201403969992
ão 1
Life 0.5502079296957033
spons@@ 1
örd@@ 1
fan 1
aliy@@ 1
Slov@@ 1
astronom@@ 1
Sc@@ 0.49804353972792526
14. 1
Rot@@ 0.5895472429535685
bro@@ 0.24241706073433308
Christ@@ 0.4192217036653441
Elizabeth 0.9299361428539873
mo 0.4419967212217668
Pri@@ 0.35136610427221976
amm@@ 0.2581335512476823
Alan 1
Friedrich 0.6124294593423825
mula 1
RNA 1
Kh@@ 0.4118274071367715
Net@@ 1
ula 1
Bot@@ 0.39303252729610877
Def@@ 0.7608801337164217
ny@@ 1
sung 1
Mod@@ 0.6690501851070929
entr@@ 0.19249541989559882
Cre@@ 0.4890702180724408
trop@@ 1
Astr@@ 1
50@@ 1
wood 0.41469110996991104
TA 0.9786755195499054
Time 0.8766855080859555
Brezil@@ 1
12. 1
AP 1
Dest@@ 1
Hem@@ 1
mp@@ 0.3955492432112482
Char@@ 0.30642641548196514
Rob@@ 0.9617933743087697
lav@@ 1
vey 0.7691154675572407
Oscar 1
Scott 0.7896513929323616
alp@@ 1
elin 1
Hum@@ 0.6981562026443558
luy@@ 1
park 0.5081220044693315
bez@@ 0.9475770204641424
Grammy 1
Roc@@ 0.7891305333354517
onna 1
Jersey 0.8561631453521509
eva 1
fan@@ 1
Not@@ 0.42724606654323816
UNESCO 1
Cro@@ 0.3408782872073466
Sas@@ 1
onal 0.40814452698215226
Trans@@ 0.3247217137915212
hom@@ 0.26550910468752065
onom@@ 0.6612765955372718
zin@@ 1
piyas@@ 1
Had@@ 1
embe 1
sus 0.11068457936284225
É@@ 0.18087090605266323
sis 1
Ner@@ 1
120 1
Super@@ 0.562835793645186
une 0.023512724113793446
utu 1
his 0.01848119830288624
án 0.18046833759029837
Anti@@ 0.6920928830868563
lit@@ 0.5506900530234503
Gro@@ 0.3949779921644413
ellen@@ 1
okrati@@ 1
vit@@ 0.858049354775182
itz 0.37358656736232826
PS 0.9250103598436106
Ukr@@ 1
Yel@@ 1
Sing@@ 0.7330258635494
enko 1
ling 0.2574325916134704
HP 1
cor@@ 0.11181495069888857
Pra@@ 1
pay@@ 0.6125503702080639
Ayr@@ 1
trol@@ 0.7670556763852103
Times 0.6128251179209749
Rod@@ 1
mahalle@@ 1
adal@@ 1
11. 1
oa 0.7255200270525425
Cav@@ 1
ho 1
Obl@@ 1
dram@@ 0.9282792841902889
H. 0.7504131422477947
Rem@@ 0.8266399495263365
Petr@@ 1
elec@@ 0.23386733790742795
oya 1
ort 0.40659894427437615
TC 1
igh@@ 0.2518352497159033
Jam@@ 0.8082120628368958
rar 1
DP 1
GB 1
turn@@ 1
Nat@@ 1
North 0.18249748080336975
Pil@@ 0.8246940627270593
Hollywood 1
ame 0.3575833305603227
ste@@ 0.17734498123221723
Liv@@ 0.8287991895959895
og 1
Brown 0.6389021622339258
Parlam@@ 1
mur@@ 0.4332300697173317
reti@@ 0.8348732096023678
BA 0.9797718937765938
the@@ 0.17008066301182778
Kie@@ 1
Tre@@ 0.34443308622235186
with 0.011293515480199898
dis 1
Carl 0.7988194471214743
ø@@ 0.7035465867048253
eus 1
apr@@ 1
Alaska 1
Parti@@ 0.9172702957973746
ihr@@ 1
col@@ 0.09974665975084573
galak@@ 1
iner 1
Eğ@@ 1
Lam@@ 0.7769306959779574
AM@@ 0.9216944745217647
Zi@@ 0.7439587699320588
Ener@@ 1
ax 1
Kamp@@ 0.9776077643124473
Red@@ 0.5723346029884959
Young 0.6908278034431796
name 0.1072301233205951
phe 1
Dör@@ 1
uli@@ 0.7482070296570836
1909 0.7689495367406836
Ash@@ 0.7594975050242833
CD@@ 0.6839225821037699
Marie 0.5251804789732694
Sum@@ 0.7421837337739576
Johnson 0.6965117095927846
Ten@@ 1
kum 1
Star@@ 0.6617430704949033
Lak@@ 1
enti 1
oks 0.7856803919907381
Bay 0.5068755034812469
Vit@@ 1
Dum@@ 1
avi@@ 0.4956218358461815
Ford 0.9752391932575717
Tit@@ 0.6112372865992864
12.@@ 1
apo@@ 0.4543703333392197
go@@ 0.20860250600668634
Fal@@ 0.708481586934867
Num@@ 0.9186298171015377
amac@@ 1
plaz@@ 1
bal 0.9847737412625122
jen@@ 1
Cat@@ 0.4776341866834799
nur 0.16578158601191623
riv@@ 0.6901145660803908
# 0.44463658734617706
Adri@@ 1
Pau@@ 0.8304486978822136
ae@@ 0.6296048338740188
ush@@ 0.44846318945275454
gener@@ 0.24448102137062674
Ein@@ 0.13883603552389678
Tos@@ 1
inus 1
eld 0.41337393986706356
Berg@@ 0.6530897371922255
But@@ 0.7571189064171799
Ort@@ 1
Ry@@ 1
Ot@@ 0.5395326328480105
700 1
nh@@ 0.22003742238420032
Spar@@ 1
section 0.35246498923348063
out 0.06567164959729724
Apol@@ 1
Down 1
etr@@ 1
250 0.9205446220192387
Dre@@ 0.46149948712614575
federal 0.7091331095192408
Got@@ 0.6105434592438086
lie 0.443130371411959
ardo 0.9213599686260436
1907 0.723524486954665
gl@@ 0.2090540584275453
had@@ 1
Andr@@ 1
lia 0.8498153066634919
sanc@@ 1
yp@@ 0.3048458702405176
ebr@@ 0.4992824373925379
Fakül@@ 1
VI 1
mus@@ 0.25488886660389914
lip@@ 0.885877825534373
vard@@ 1
ğrenc@@ 1
Leh@@ 1
Nic@@ 0.8114280527210352
aro 0.9574098887281217
Nikol@@ 1
Tam 1
ath 0.3328078053909599
ix 0.3939947134113445
Hall 0.3539525688482612
asist@@ 1
nat@@ 0.6913208677222089
1905 0.6544956328419086
mand@@ 0.37902052753532745
asti@@ 0.9159254087551169
Eu@@ 0.817486171343541
D. 0.5142250588980853
arla 1
inos 0.5028927796034244
Patr@@ 0.6736687816400554
ი@@ 1
» 0.017839638354118854
ago 0.46317715162274686
ST@@ 1
ingen 0.23381194101227304
mar 0.5856681162225413
ault 0.5094011634612166
Joe 0.7666924417543264
Sho@@ 0.6581967228243296
Stand@@ 0.7165166785684837
Win@@ 0.4923505939222655
Atlan@@ 1
Cin@@ 0.8748252924460405
Gol@@ 0.6340051339502253
Theod@@ 1
AP@@ 0.8399871574209526
College 0.18208242422650145
ér@@ 0.10600576209885372
stil@@ 1
Im@@ 0.2851130537058061
nüf@@ 1
estra 1
1878 1
MTV 1
not 0.04076263686418859
ister@@ 0.4077295599847929
ashi 1
Pom@@ 0.8738606962139438
drama 0.812743004936624
ido 0.1122549214617646
Şub@@ 1
ier 0.26215939827280116
Spor@@ 1
Rich@@ 0.41919505665148055
Whit@@ 0.6992815207194762
Pel@@ 1
nu@@ 0.3332999370399512
Nag@@ 0.8927616196229209
Greg@@ 0.9712866123777297
Top 0.656972372194442
Angel 1
Wh@@ 0.6695756886678569
1902 0.7819119246674604
ther 0.2532121799916497
Hur@@ 0.8777996777521644
Tran@@ 0.8870141307567155
apa 1
urs 0.225472413071711
Hong 0.8109800289190101
Merkez@@ 1
hol@@ 0.1786305255041645
360 1
Jan@@ 0.7927760489696702
idea 0.567217330344707
som@@ 0.4987015038866706
Mıs@@ 1
pi 1
dy@@ 1
Aster@@ 1
ú@@ 0.2845810729007246
Bod@@ 0.8692677734425117
TE@@ 1
Vladimir 1
ense 0.24081826325918873
Hö@@ 1
abi 1
ige 0.15337390257703254
5.000 1
esti@@ 0.22065137993661213
Cap@@ 0.5019061919533209
Tot@@ 0.9565369050113111
« 0.01712270394808948
José 0.407350852550455
Taylor 0.8468242381697688
anos 0.4064405342654169
Lewis 0.9396469374263409
annes 1
chi 0.4669097444650875
kle@@ 0.8549983993877269
pos 0.4703120331756694
Bask@@ 1
rap@@ 0.2865456059125364
End@@ 1
Mos@@ 0.468622380258729
Shi@@ 0.668668920951102
amba 1
tit@@ 0.27414789488945174
Antonio 0.582767762360785
Ferr@@ 0.9196534359927419
yc@@ 0.4544766926363994
Bob 0.874970702311348
Spe@@ 0.40908202692163714
SE@@ 0.7919062426359805
way 0.10643273040875327
Eb@@ 0.9084012804966208
Carlos 0.5762717386500191
PC 0.9484434254491069
ier@@ 0.15479448425106906
1886 1
ania 0.4254622741351172
ensis 0.5010130092224317
esia 1
ë@@ 1
SA 0.7504227523070168
ee 0.2903472618612841
Air@@ 0.6458683115694491
transfer@@ 0.5211856011931761
ment@@ 0.419127386518706
Rah@@ 1
ont 0.09743294944409736
Paulo 1
Wilhelm 0.6377154649098911
jer@@ 1
Sony 1
km2 1
sir@@ 1
Ray@@ 1
West@@ 0.305815500824144
Group 0.3185497898865854
aal@@ 1
va@@ 1
cher 0.17969795607751327
protein 1
eter 0.21649024886010387
R. 0.6851074619701221
ón 0.11428255700449372
Abr@@ 0.9076065176381969
DC 0.8352318687037676
Sy@@ 0.3708892902936754
hit 0.543793430044409
astr@@ 0.4340782735147695
Liverpool 1
Mob@@ 1
bury 0.5545630135489169
sever@@ 0.8720011278974615
Boston 0.5986495197006964
ald 0.5819827424899209
Kri@@ 0.8428021315910692
AC@@ 0.5781546808125109
School 0.12123940143127553
Spr@@ 0.29888990872679877
ped@@ 0.982310499893875
Nav@@ 0.43897111797835264
Pro 0.9193063029692935
amo 1
opo@@ 1
vo 0.4740805937680215
eto 0.44327066872469234
vo@@ 0.12931595098465912
hur@@ 0.7372798175325549
Leg@@ 0.268057248474174
Sir 0.5113836459247497
Loc@@ 0.39833663790700685
etta 1
aham 0.8532409124883212
Yo@@ 1
Fir@@ 1
ram@@ 0.6837170697415937
com@@ 0.04713205113097573
ildir 1
izi@@ 1
kins 0.7179363817307958
ime@@ 1
nd@@ 0.9231222990181623
lon 0.9333129977476095
osen 0.7619523525517826
Pam@@ 1
zu@@ 0.37094761793165587
omb@@ 0.8110400037943751
Disney 0.9885331719343403
esab@@ 1
Pet@@ 1
AL 1
Mam@@ 1
Mars 1
aus 0.03906238310324608
Cle@@ 0.6427048626675004
inae 1
naz@@ 1
hali 1
eral 0.5364297214472306
eman 0.6768502876892691
200@@ 0.7286815923181533
Gur@@ 1
Simon 0.8043568651548528
wa 0.25313725220584793
Day 0.5056439425740854
bür@@ 1
Clar@@ 0.6682650480327778
box 0.6600526478584364
Super 0.549955378873336
Kong 0.7340422820308894
ingham 0.687320426507891
onda 1
Kre@@ 0.5497248059376005
Ci@@ 0.5810074816337494
net@@ 0.600105480857818
abad 1
iga 0.9400273975652246
like 0.15281054436442976
hasta 0.18692895474967772
kör@@ 1
ics 0.1274744991650261
Hamilton 1
Team 0.37573320298404805
off@@ 0.11837714419022195
Air 0.29495479127462837
ER@@ 0.7747989522882426
Fox 0.8808688660732019
Fot@@ 1
egen 0.34909523076471877
Victoria 0.6090758224414329
gre@@ 0.12679839608237936
laz@@ 1
ris 0.9728013576709521
Shak@@ 1
ua 0.36769993837793113
LE@@ 1
DE@@ 1
Rab@@ 0.8523345950063946
Zam@@ 1
Mül@@ 1
Hill 0.4493759467639818
ი 1
termin@@ 0.25502758775888684
1906 0.6356263332158666
Bed@@ 0.7381035593766824
Linux 1
Steve 0.8313761350155758
amo@@ 0.7075001918996934
Day@@ 1
mas 0.5955736325301572
reg@@ 0.09149666331007664
E. 0.5952927048817739
Juan 0.3639436603550558
gio 0.8290839419193378
Sol 1
ert 0.10245764183513231
Bill 0.6237712657910456
osh@@ 1
Key@@ 1
Ju@@ 0.30936184942050293
ever 0.27369628759256415
Arm@@ 0.436393713482812
verse 0.3256984275058845
Bundesliga 1
vis@@ 0.10080302455156116
iller@@ 1
Bet@@ 0.38536650145144474
DS 0.9272862057728479
Not 1
Tony 0.9143742385405758
Sub@@ 0.40575329540698374
France 0.10728353907462519
Pak@@ 1
pand@@ 0.9348732818215731
meyd@@ 1
Sam 1
C. 0.3248316652359601
Ful@@ 0.7595376844439861
Pop 1
als 0.017702292162963155
Kin@@ 0.40931088402853044
Tib@@ 1
Christian 0.3205560449457552
aye 0.7347706002360477
temas 1
Rey 1
aa 1
Müs@@ 1
1890 0.747851845291185
mun@@ 0.4072086425045509
tw@@ 0.166568060556206
Panz@@ 1
etten 1
osa 0.29232523302726693
mont 0.465541739402973
este 0.12406684039009364
Avustur@@ 1
Ever@@ 0.8807399230840898
kshire 1
Sid@@ 1
Domin@@ 0.7005833403139307
Mul@@ 0.523427889939713
Hun@@ 0.8718009603332025
YouTube 1
abol@@ 0.7631806508637018
François 0.6238510146591644
ew@@ 0.30300367342159334
aber 0.13969389583139696
öh@@ 0.34104893673132236
UN@@ 0.7576552755673136
Beh@@ 0.6714446661653556
tes 0.06781666148451072
Bern@@ 0.6421860857632304
aray 1
Corn@@ 0.7215002604250541
White 0.3720032653181346
Kale 1
ett@@ 0.36770230337482357
zen 0.23444364203535623
Ö 1
rat@@ 1
ting 0.058447020917101224
1876 1
Walter 0.6321662297697881
Ses@@ 1
Jos@@ 0.9443129600302904
IC@@ 0.6199723805574778
ū@@ 0.9397728945594803
Mac 1
eka 1
has 0.02833059538724196
1877 1
Ere@@ 1
bo 0.6454735551767328
enses 0.7261450673095143
ini@@ 0.911417444327679
rem 1
propag@@ 1
ng 0.9622475062217869
1896 0.7710751347153263
CI@@ 0.7860994038774067
University 0.07132993653237234
did@@ 0.4337831089565392
1904 0.6316936435704585
Haw@@ 0.6851546403543519
Lord 0.5026240932950212
anj@@ 1
bank 0.526390138195344
Camp@@ 0.37990248421312695
Medi@@ 0.29035381953929734
Night 0.8497271566940382
kov 1
1,5 1
Black@@ 0.8580606043121303
ment 0.060752044782530344
B. 0.3087002560387663
Bec@@ 0.5100297289296851
Napo@@ 1
ein 0.027433335011587835
Wilson 0.7209023190424207
chi@@ 0.22260305237356964
imb@@ 0.7038595429941327
AD@@ 0.7573757966836653
10.000 1
ote 0.20194673806805577
Barcelona 0.7727417191304506
aliye@@ 1
ning 0.13122244911358025
Arena 1
Mike 0.7186548544477132
ome 0.3353456691126113
Andrew 0.7638938063039371
Hul@@ 1
direkt 1
House 0.18861628251355117
amber 1
Brian 0.9551393251666989
vers 0.11213101660514771
ough 0.21382599955715634
Stephen 0.8466569396247777
ais@@ 0.20321416564031758
ement 0.044205598923135525
ju@@ 0.1992814547756004
bır@@ 1
agon@@ 0.8399098628518805
Kurt 1
Elec@@ 0.41339276138432485
AS 0.8011010216997129
Lom@@ 1
Buenos 0.7885005288130469
1901 0.6664577578953558
Corporation 0.6418798082014711
ikan@@ 0.7719212988495162
afya 1
S. 0.49780173078305595
Web@@ 0.5805027205892617
res 0.17072507129035838
Ob@@ 0.3325208105742464
Oxford 0.7504060820415905
hin@@ 0.3077936307906159
sus@@ 0.24079749723259172
gut 0.7630737487366342
Aires 0.7851124746596825
oi 0.7979808240403958
AL@@ 1
а@@ 0.08403557279142125
Kle@@ 0.5813331068560703
-- 1
ig 0.32405517576158144
ž@@ 1
Pic@@ 0.715982231373912
kam 0.2577398675037525
elt 0.17538395396831208
Vo@@ 0.38428532336279747
MS@@ 1
hai 0.3475074056373785
tran@@ 0.4201126949765443
umi 1
Hans 0.5408215255473587
bot 0.7300053535139569
Ş 1
patr@@ 0.28921138275294267
ე@@ 1
Championship 0.27457078421490755
Mand@@ 0.6895279589613532
ana@@ 1
zek@@ 1
ombi@@ 1
Jacques 0.6216011685843392
ond 0.2732497363858995
Ast@@ 1
LG@@ 1
Bank 0.4662602007332367
Blu@@ 0.6431899269002722
RO@@ 0.9608245358780834
olm 1
Les@@ 0.6732955795054893
ante 0.0792384764654815
ange 0.30740616975189605
aller@@ 0.9410966953525995
Who 1
East 0.21574913260592382
sson 1
Max@@ 1
Grande 0.7034155820985388
Sec@@ 0.34579255974128487
Nu@@ 0.580543955420712
jo 0.23269410406560578
vet@@ 0.9901212927239766
Hin@@ 0.4509249329180137
BT 1
Play@@ 0.4087096157855449
ega 0.40377171949918556
rul@@ 0.4984117513744044
gam@@ 1
hy@@ 0.27837983463889626
80@@ 1
omo 0.9706931337068284
eno 0.4989809638343371
uss@@ 0.26266663163401244
Moh@@ 0.5456708680747013
hik@@ 1
40@@ 1
Nah@@ 1
Stone 0.9250956346966585
UC@@ 0.8977681669253167
Galax@@ 1
IM@@ 0.9386936978372005
Charlie 1
Tir@@ 1
Art 0.2247567641265479
14.@@ 1
Pok@@ 0.8890499534581467
lige 1
130 1
August@@ 1
teri@@ 0.5592823966756449
Mark@@ 1
femin@@ 1
Program@@ 0.9521709978206935
hata 1
lus 1
ther@@ 0.18534443977140402
Maur@@ 0.8104356916812014
aux 0.04189646337075098
oth 0.6231877938690539
Bri@@ 0.4233478906315342
atar 1
Of 0.6618802855087355
Hek@@ 1
mes 0.19128674221655467
His@@ 1
Amerik@@ 1
Rap@@ 0.6574320570897025
lus@@ 0.3986799996023244
1903 0.6209764869148352
Rak@@ 1
Web 1
Donald 0.7188492144061381
ray 0.6572137461323028
umb@@ 0.4015300958222366
í 0.2450735329732587
ark 1
0,000 0.32027509781490743
Cu@@ 0.393790595844192
yam@@ 1
alis 0.7466931677809557
Arist@@ 1
Lou@@ 0.4659139502028363
17.@@ 1
denen 0.4084168130094068
Ulus@@ 1
cl@@ 0.09515102427328027
trav@@ 0.21657927849106295
Lyn@@ 1
app@@ 0.13066948952854998
Boh@@ 0.9595838778055082
Ras@@ 1
Alfred 0.8001362925417271
dire@@ 1
Sher@@ 0.640626204403573
HD 1
Amaz@@ 1
org 1
Avustr@@ 1
× 0.6521450489267727
row 0.30074014737895777
oria 0.5025613925731396
Wol@@ 0.5183033769572575
Stan@@ 0.8524515170754123
Alice 1
Green 0.4650928487319276
Lan@@ 0.5497996473603078
Dun@@ 0.5920246228960323
aft 0.22352643115256438
nes 0.249574677447538
Ath@@ 0.5970625947441273
1880 0.738456362809879
Rh@@ 0.43291464217023673
war@@ 0.14039993582721405
tura 0.3859101059375635
Pay@@ 1
Hard@@ 0.8028751522464604
bâ@@ 0.9647700628633044
Football 0.3100650752112395
ty@@ 0.34157274736639415
osaur@@ 1
ović 1
NE@@ 0.8935653414335005
Sudan 1
Little 0.5879976376420731
miz@@ 1
olo 0.73217684077116
agan 1
ine@@ 0.41900923046250865
Liz@@ 1
Ohio 0.5173348206641921
Jac@@ 0.6106601550960632
Pul@@ 0.9831547161779417
och@@ 0.4115486687364226
Avi@@ 0.879829304061585
13.@@ 1
elo 0.492891558627962
mang@@ 1
Eric 0.9671422115316693
Island 0.27465608501414707
Sap@@ 1
AI@@ 0.7568615742172996
Columbia 0.528193832834254
II@@ 1
mund 0.9138304536931717
mom@@ 0.9925379672575251
Maine 1
dat@@ 0.5392875286062756
eren 0.1500406375948408
oshi 1
რ@@ 1
Oli@@ 0.7992162400360624
oid 0.5405770968639599
portr@@ 0.565414318221879
110 1
Phil@@ 0.47454878991982663
Heinrich 0.5725988045442606
Kevin 1
iben 1
wer@@ 0.11821351738271163
Euro 0.8127583869864019
cia 0.6184347740075157
opter@@ 1
uca 1
use 0.06979045245116407
Shar@@ 0.608203602422627
Toy@@ 1
cir 1
hil@@ 1
Illinois 0.5530805956476726
Vic@@ 0.39259804654721786
Hamp@@ 0.8308400957535245
Alex 1
Center 0.26940486197986985
mond 0.548313458922293
Joh@@ 0.7908807633068669
Fen@@ 1
worth 0.49487296491473864
W. 0.539835512826968
iran 1
Pep@@ 1
uck 0.507200884177792
eck 0.37113838570836605
Bau@@ 0.16263389355093216
Opera 1
sep@@ 1
ds 0.09894255606124315
inf@@ 0.18585244311608926
ides 0.17987163912010182
ical 0.05605570382676575
Coğr@@ 1
Adolf 1
Pur@@ 0.6358066393796111
Radi@@ 0.7522379321772756
milit@@ 0.43840095987281114
ulus 1
Cambridge 0.7657523170512599
Blue 0.5349309268197556
Ig@@ 0.647938265693575
kt 0.19255595175819562
Geor@@ 0.738227561346142
Hot@@ 1
Azer@@ 1
thi 0.8768222931573932
Cab@@ 0.5291588771382092
mr@@ 1
eke 1
ista 0.144582339505679
Philadelphia 0.716836778635327
Michigan 0.5449599963732384
Fon@@ 0.8510891080440288
Politi@@ 0.9529578366644559
Prim@@ 0.5079562779480064
1870 0.6721777272510364
Francis 0.6336523111960204
Seb@@ 1
Hop@@ 1
Clau@@ 1
Otto 0.7343674371981195
arca 1
Anthony 0.8780440462203047
F. 0.5969143992196906
Chelsea 1
rom 1
itz@@ 0.19229444587337757
bach 0.25601770670188584
Peru 1
hus@@ 1
ref 0.9127865375830236
1897 0.6550656851615219
raz@@ 1
tha 0.7209192839769452
1500 1
Lag@@ 0.5867033301554806
P. 0.5412210993576843
PlayStation 1
aer@@ 0.6239131101299301
MP 0.8239215364437973
ME@@ 1
ator@@ 0.5799051142271966
enburg 0.5591353833418351
Kob@@ 1
hiç@@ 1
Lang@@ 0.33379096691257126
1899 0.6398007565827499
AT 1
igo 0.5938841554247473
Gib@@ 1
PS@@ 0.9179944983799779
Š@@ 0.9639602162240994
DJ 1
Harvard 0.946543747228542
Hz 1
11@@ 0.5644631475626218
IP 1
Van@@ 1
Arg@@ 0.7700132996953017
Andre@@ 1
slo@@ 0.8963402722684755
Budap@@ 1
mana 1
Pon@@ 0.6190790187308931
TP 1
hou 0.9728020918269578
Street 0.19346526427744926
imm@@ 0.4833281948370381
Giovanni 1
Pun@@ 0.6419790699721063
adele 1
iste 0.16694373045610397
tig@@ 0.16681308234670858
ager 0.2962329032571741
NASA 1
Gran@@ 0.5260597814706782
fut@@ 0.6125311265443959
gor@@ 1
ium 0.34564891063772585
Frankfurt 0.8500909290721149
Stu@@ 0.38909293757142865
liv@@ 0.46288230146810366
VII 0.950894765867564
God@@ 0.9054706019116415
Gold@@ 0.5452271762709394
Conn@@ 0.5876328710882079
Fab@@ 0.9789077929329101
Pres@@ 0.26177450602957375
eh 0.9316681177172226
Om@@ 0.9744111539499831
Ga@@ 0.7647948248848178
Gun@@ 0.829129576657847
ife 1
Go 1
Is 0.7501108821899585
MI@@ 0.8837894938263343
1864 0.8110950671559026
I.@@ 1
Dah@@ 1
Wood@@ 0.6628055897109583
atus 0.3837510521530586
California 0.19234030657606782
gene 0.7333929100446449
enberg 0.5245350030297241
11,@@ 1
Ric@@ 0.8181405386423523
flor@@ 0.9341822995428642
matr@@ 1
Mach@@ 0.5637341806711917
aborat@@ 1
Anim@@ 1
Bus@@ 0.5142929670584897
MA 0.6931603867986361
Mun@@ 0.40035871539121837
tra@@ 0.16071413176858593
Villa 0.747279475211174
Milan 1
key@@ 0.9958328304409172
û 1
1895 0.6311938348892416
Chil@@ 0.4037235205418376
ikal@@ 1
low@@ 0.1798391751426604
Samuel 0.7310151602181624
Dig@@ 1
AB@@ 0.8517648340220368
1885 0.6965039812525907
Harr@@ 0.8206990984258551
Serie 0.5070949340928773
aja 0.4772880520053467
Ruh@@ 1
Kant@@ 1
1,2 1
Game 0.5888538320687199
aco 0.5816615950136003
IN@@ 0.4890457731244719
anta 0.9878910622652506
him 0.05927374444170681
Bad@@ 0.5977099091829382
Pit@@ 0.5432467571756077
dae 1
tz 0.9329931029872548
Sou@@ 0.4309100584846694
cuya 1
€ 1
900 1
South 0.0943067238134241
lins 0.8172701714781799
Steph@@ 0.9816883992326318
m. 0.6745776909669621
Hamburg 0.6342902282085283
king 0.11211778377993525
Arsenal 1
L. 0.5740418366795891
heb@@ 0.8789771502002092
Kuv@@ 1
Hug@@ 0.5925450934238632
enter 0.4869663824620448
unk@@ 0.2537642053770526
Ray 0.8903908883821516
tiv@@ 0.18410309362211416
Hugo 1
ax@@ 0.24856237226646535
ech 0.2722896574146777
180 1
heim 0.36475439209217037
Doctor 0.8924893982378705
G. 0.6250753007775192
SO@@ 0.8442474264785641
ves@@ 0.9985570141930257
Amsterdam 1
Bad 0.672039298778365
Model 1
igu@@ 0.3718213100767464
oper 0.8046907476272217
1898 0.5889385777548065
Lind@@ 0.7430586105723708
able 0.03706651966675004
eron 0.22088407289892234
hop 1
ızca 1
1889 0.6732313778226429
Fol@@ 0.3331785640939154
sens@@ 0.851915482029099
Antar@@ 1
aver@@ 0.5655551866306927
Radio 0.32508324332160393
aul@@ 0.5092307608565096
Lav@@ 0.8821921469311579
uli 1
ref@@ 0.19743342696136545
sul 1
tom 0.5274752877568039
Suz@@ 1
ichi 1
S.@@ 0.6097273668625103
esh@@ 0.5639462091781295
Jan 0.7807111556083571
oe 1
ays 0.24999425925498697
post@@ 0.4617874983511106
Dic@@ 1
Lad@@ 1
aw 0.5838337104980231
muz@@ 1
Cos@@ 0.6784880137058685
Kent@@ 1
Sun 0.6014150727541366
Stockh@@ 1
lock 0.2708499780992739
Barr@@ 0.5175686111681513
lib@@ 0.5755835794123133
omen 1
Bell@@ 1
Lady 0.6117302731675408
Georgia 0.507084411166139
Up 0.8679797242453293
eth@@ 0.2355146904738214
MP@@ 0.792312832162844
tri 1
das 0.01873762315261696
loyd 0.9071079769355991
Dep@@ 0.7027815791831391
Luci@@ 1
Mario 1
Society 0.24554698319623952
Tanz@@ 1
ango 0.7477967445175537
Patrick 0.6795383210449206
etz@@ 0.19340461445961046
cre@@ 0.0665168766770955
Cir@@ 0.44033093837448206
Henri 0.6183964669577646
Tw@@ 0.6969248903499826
onia 0.285729601766727
Motor@@ 0.9477661608294781
Köln 1
Vis@@ 0.5120609320166312
ery 0.3555494468540024
hö@@ 0.8368489041312497
Daw@@ 1
forman@@ 1
Association 0.1845127456166095
Metal 1
ater@@ 0.5749577304431184
lum 0.7013580099912968
BC 0.41711410434692314
Luis 0.47274937140119705
Rose 0.7536225477578341
Wit@@ 0.5263757884323409
Franz 0.5833038457435601
tac@@ 0.837177165968156
Land@@ 0.1194262876915536
− 0.5950382574781032
å@@ 0.8377197054984321
Arn@@ 0.6051241014871984
SP@@ 0.6970693115847558
XX@@ 0.9897530511406984
³ 1
Emil@@ 1
Victor 0.7474009358114256
kili@@ 1
16.@@ 1
AN 0.9099261776027846
Allen 0.8087489965024101
Die 0.01949857157798212
alc@@ 1
imo 0.9430517493973883
Anderson 0.7926790318513931
obi 1
obj@@ 0.1911209227510867
Twitter 1
aria 0.2027621362608723
eira 1
Jr 0.7080105362899689
fen 0.25027195874969665
Ses 0.8039578375610402
Miller 0.7261275095311586
dre@@ 0.21733588833910517
Wes@@ 0.48786696887926534
60@@ 1
Media 0.48012387952361313
Rand@@ 0.7357374233734953
ect 0.0975031190817575
Lincoln 0.7709992036888952
tesp@@ 1
nel 0.515555998835598
120@@ 1
Seg@@ 0.44890183434866543
Anton@@ 1
over 0.04430823334353309
Del 1
Roger 0.7032042330380359
aun@@ 0.3896663125721922
pay 0.6429120509403893
Aur@@ 0.7839446526561846
Jim 0.654538171001978
Studios 0.7961519929467984
Town 0.42012937070188483
.C. 0.4138770082960529
ester@@ 0.7538337564051374
AF@@ 0.9675491448001383
owski 0.8652573543239735
Rho@@ 0.7139384323068872
tia 0.5417490575155379
Diego 0.58918248097848
Fas@@ 0.8871325782231364
sche 0.2868347159896037
ones 0.10454220755733515
Jus@@ 0.45016208267225627
Venezuela 0.737345140404569
unt 0.544341132485793
North@@ 0.5313121872099884
bus 0.31809300898458576
1860 0.6729499724860377
under@@ 0.10158901487829014
Adams 0.9943438205171652
SD 1
Jane 0.9077456917503774
car 0.147564878513427
eles 0.6026050009372133
sid@@ 1
sis@@ 1
cur@@ 0.09702090712193623
Enter@@ 1
SM 1
cio 0.37639909722125764
15.@@ 1
nati@@ 0.38490763904096814
tus 0.7491455706379128
Benjamin 0.9380272333119803
3000 1
open@@ 1
Augus@@ 0.6142309157842468
Chap@@ 0.43562619338718345
Beau@@ 0.484643142015534
folk 0.6351691844051424
hard 0.34763717393856847
hara 1
imal 0.5974218344643556
CE@@ 0.7347287781583117
1894 0.6425174475561419
Bru@@ 0.3761054932740427
Sz@@ 0.5432387818864531
ves 0.08442041179442512
Bow@@ 0.37944339523912596
DA 0.7870276546479765
istr@@ 0.30788251016845786
Girl 1
Christopher 0.9577580738276734
Dan 0.929619665305664
21. 0.7600679488950659
Dead 1
Nich@@ 0.6498229720921482
onal@@ 0.3548171222949103
Brand@@ 0.5263423073194369
oka 1
eton 0.6402670708930314
Norman 1
nic@@ 1
Franklin 0.9860922663726868
Bob@@ 0.7985002274820516
ck@@ 0.2885445762344421
Douglas 0.7316781040562315
akter@@ 1
Arti@@ 0.4465929013042295
Johann 0.36460203607076486
Your 0.9110818420937302
ador 0.11782157417269015
Davis 0.568341353610813
ogen@@ 0.7451769621093631
Deb@@ 0.34276321714633334
azz@@ 1
Lov@@ 0.9452317444094793
Dou@@ 0.4662967991256277
ago@@ 0.791516692229561
oke 0.4477997563802765
19.@@ 1
Strat@@ 0.9036910556889991
anth@@ 0.3449351422437167
wan@@ 0.28271435538267964
los 0.012365320124136972
… 0.23404224913581767
20.@@ 1
BS 0.8428915162457783
Connecticut 0.9207136542222075
ns 0.11378772280309121
Uruguay 1
Rev@@ 0.456087016731173
Gam@@ 0.9277895992001884
Gh@@ 0.613358990001434
enk@@ 1
1893 0.6150308321697647
Moz@@ 1
Network 0.6375858727202485
amin@@ 0.4389839518827087
eff@@ 0.10461476720297812
okras@@ 1
sten 0.10082522754357437
Facebook 1
à 0.0066101377271554195
Ye@@ 0.7303864965627122
its 0.018126538841577118
yl 0.5179754748677754
Pad@@ 0.5506125072558999
Lake 0.25345988952630427
Boy 0.944078713776443
iliz@@ 0.6320646287900029
Dec@@ 0.3123079279818895
ander 0.7895320889051726
Ryan 0.8836950834316435
AK@@ 1
bai 1
Festival 0.22031746720361892
bel 0.9504947499964284
dad@@ 0.7146817345799945
1800 0.9277543781281208
Song 0.4856273124105389
burgh 0.43726590902871887
evin 1
plant@@ 0.38673354194059045
TO@@ 1
18.@@ 1
IX 0.9040722695033042
eer 0.3542435944576127
Lanc@@ 0.773309113439779
CEO 0.9785719006269781
Ing@@ 0.5318227009148289
Zer@@ 1
.S. 1
yth@@ 0.3082758073008414
1882 0.708040292700901
agog@@ 0.6508523604234517
allas 0.5312498401422519
anga 0.6758413074440579
cal 0.378653726758692
linde 1
Jar@@ 0.7925880668034337
atra 1
Post@@ 0.6485177410198864
Bran@@ 0.5078485987469948
Lawrence 0.8884728801783509
Minnesota 0.59147345255176
iss 0.39878227207836014
ny 0.46264813954120637
Shin@@ 1
ლ@@ 1
1892 0.6084511414137527
CS@@ 0.6468805511697014
ope 0.25938864588291577
Michel 0.5741588344547697
Nintendo 1
oman 0.9509465473375674
VIII 1
adap@@ 0.45727615223041185
from 0.00880376517527714
1881 0.6891422341129954
anal@@ 0.4120041709489992
CN@@ 0.7644015069853941
High 0.16497996797468972
Zar@@ 1
Py@@ 0.800511012531218
blin 0.6507209279910274
Alg@@ 0.7067276955056738
We 0.4338681114545921
liter@@ 0.18299497358189845
nav@@ 0.22756331000704694
Pictures 1
minim@@ 0.5882092527420943
Dek@@ 1
Queen 0.3818707065739247
ag 0.4862921260378394
edo 0.4195680191534392
tions 0.03425024630101701
Best 0.2585787899584887
icus 1
CP 1
Gab@@ 0.9987231862753693
Motor 0.8652190565609101
alia 0.6021717974028248
Bron@@ 0.6276541940410884
RT@@ 0.9390885303111199
ater 0.18446981293084222
ա@@ 1
Aer@@ 0.6961998126485777
bie 0.5152460798005819
agn@@ 0.2915783620520843
zar 1
Bou@@ 0.4820523746605911
Metro 0.919763474570763
fin 0.14137387270463328
AE@@ 1
Ark@@ 1
Toronto 0.4848011624522912
ska 0.8899397238399447
Part@@ 1
23@@ 0.6785950592188281
ies 0.06446260433643042
ó 0.020210524960325292
Sebasti@@ 0.7881006342273071
sw@@ 0.1479494530251294
apar@@ 0.47549825750115554
Hit@@ 1
SV 0.7865036874790581
Kongo 1
ij@@ 0.39026411065657113
Bush 1
PE@@ 1
AA 0.5731689123181956
IS 0.9037046294666943
K. 0.6716899798419244
́ 0.12893703144800703
Vill@@ 0.3291090395678106
uba 1
River 0.12434971885542043
manuel 1
nis@@ 1
we 0.16212829885580063
pon 0.5450853890661199
Games 0.3114582925350032
Sarah 0.83655622159798
Vincent 0.8958488919317393
Mart@@ 0.8214285501684173
iger 0.15956947270168165
1891 0.5980088709128315
Warner 0.9701051721368906
tere 0.7037669335445897
Cop@@ 0.46667516577648815
pag@@ 0.6135897179225321
ée 0.02027154182889158
Cent@@ 0.5526719753002135
tico 0.20884630410368737
Trin@@ 0.5281338041044185
Matt 0.9622361748031643
side 0.07015866306772207
101 0.998547972691179
Beng@@ 0.6857735005781783
lob@@ 0.3697048713400773
Schleswig 1
Under@@ 0.8382789283125925
enni@@ 0.5186383275429295
eria 0.6117226081734842
Flam@@ 1
1835 1
Green@@ 0.594159847487846
cap@@ 0.0804409900171306
Bog@@ 0.6723246063807623
Wall@@ 0.5261103739588544
metro 1
oba 1
Vor@@ 0.07516071883609461
lyn 0.7484161940395624
ă@@ 0.709959461334132
London 0.11327334200308843
Tou@@ 0.5049076786844581
2.000 1
eff 0.8804594203368821
tay 1
NA 0.8390351615615631
aide 0.4422345659356289
RI@@ 0.7914176602013069
Rub@@ 0.8074144951429018
Ther@@ 0.4266704533366525
jan 0.9920755507558082
mon 0.995784743309289
ods 0.17198672273602567
Be 1
ws 0.17312378699542905
Ferdinand 0.8514177986322716
maye 1
Kus@@ 1
ca@@ 0.5198612230390548
Hus@@ 0.663615315735164
160 0.9431464216092109
Tod@@ 0.3751008342732521
esa 0.19175981504643505
star 0.366429703942902
125 0.9741365428330275
Bag@@ 0.6960006871051482
Eg@@ 0.8478081095550902
Gul@@ 0.5329402640839248
tics 0.09788789613523816
Jay 1
140 0.9630749868495354
British 0.09024983172392326
AM 0.6106110667646688
ei@@ 0.634755717259533
FM 0.4654116478361702
Leo 1
Bac@@ 1
Hand@@ 0.192467875497878
arius 1
elia 1
sc@@ 0.07629935503378149
Guar@@ 0.6212640408414863
Ball@@ 0.48030618550002047
Blan@@ 0.41524943763451777
Brook@@ 0.6859707019888286
Lü@@ 1
Charlotte 0.8452993003456998
uth 0.4194312931304966
FF 1
Sha@@ 0.47606758571028057
bad@@ 0.79417172726039
Jason 1
agu@@ 0.25082672230436154
more 0.03833863060714888
tica 0.19496079058615934
Lok@@ 0.6879776504175301
Bernard 0.6944464668207921
ow 0.26155285250147664
pa@@ 0.26059513165255543
ron@@ 0.33121836134810057
anime 1
onlyinclude 0.692601720676585
wich 0.758959857147946
isl@@ 0.4101200586553722
ated 0.01705513038700055
Wrestling 0.8536193826586003
own 0.09241390198812861
1.000 1
Bruce 0.8292199527637519
Matthe@@ 0.7795613785603093
Miami 0.6981148221840794
vis 0.772895025466343
TV@@ 0.8362397395730101
azam@@ 1
esse 0.15317982001673847
Batt@@ 0.5956598800293075
oli 0.8398890344987144
Andrea 1
Howard 0.643480348797415
tesis 1
1848 0.6221166450886466
lor@@ 0.5876671094260717
Kelly 0.8400502653370545
Philip 0.7206556997867386
cy 0.4651328202496279
2,5 1
Bell 0.7292051689318335
prim@@ 0.11389103080742227
wen@@ 0.17857368055570338
Mic@@ 0.7909858997135544
aster 0.5294997375243303
derni@@ 0.8971825765328442
isten 0.15863522926376483
dig@@ 0.16964820641262854
illi@@ 0.6146386410363074
America 0.1703840774133407
Gas@@ 0.48836980226284477
tadır 1
Long 0.40155794244112664
Maj@@ 0.6379897611551738
Dance 0.8589442058603111
Post 0.4222011403846636
Ran@@ 0.4224655967422476
eda 0.6065791206737695
Gordon 0.7168628177781285
kana 1
oldu@@ 1
ury 0.19078412836653505
Log@@ 0.6230622730195058
1867 0.6624726633792632
1888 0.5830833144614956
AF 0.7666207385956616
bos@@ 0.49193149739722464
leg@@ 0.08659388894245859
ust 0.2233313719612671
Janeiro 1
âm 0.6203670661867856
dic@@ 0.10315507283186193
eng 0.47462363647732553
omon 1
sex 0.3381723504424063
1884 0.6216407861914224
23.@@ 1
PA 0.5641451621893809
Lap@@ 1
Manuel 0.47720385968985557
Indiana 0.6166205696770828
Marvel 1
begin 0.6889063627593103
Ele@@ 0.8472693043178512
This 0.04208565000956552
Ox@@ 0.9353877129709616
adem@@ 1
eau 0.10439561063694082
nom@@ 0.2129291543150169
Gra@@ 0.390537973322223
Yug@@ 1
Las 0.14245966161736123
cir@@ 0.31883042209611634
non 0.09089433912516197
HT@@ 1
Russell 0.829595558853531
site 0.09576135499259977
stati@@ 0.5700591669117622
iner@@ 1
say 0.4809108935368133
{ 0.5149745165405218
ex 0.2879782067552966
alle@@ 0.4926527197086497
Mess@@ 0.6743840563896946
lâm 1
Benn@@ 0.7774887817513223
itt 0.6686535364047846
rop@@ 0.8668294829951058
fli@@ 0.8542937036530129
oo 0.5447386542514647
Sau@@ 0.35805490362497583
Tig@@ 0.6856720333128559
tum 0.8111075261899711
RE@@ 0.5960545503469967
Rober@@ 0.6346603752915985
ნ@@ 1
Boliv@@ 1
Kenn@@ 0.4872367189906675
rün@@ 1
tras@@ 0.5543293824997811
Brun@@ 0.47375913010252635
1865 0.6323319027815051
Ej@@ 1
mb@@ 0.20925278100035857
Out 0.6940318548442249
Sn@@ 1
acc@@ 0.06456552329590008
ader 0.39733168268054947
deleg@@ 0.6435033364259938
CA 0.4704727725315651
Houston 0.6801092904311513
espe@@ 1
´ 1
cha 0.20156329709518292
Kun@@ 0.55404055000789
Dro@@ 0.6476214234631797
dale 0.6776199511035856
Fernando 0.6514733166173233
Fair@@ 0.6933599807674303
Ludwig 0.5270010947002873
Tim 0.865751230374589
Mercedes 1
ord 0.35004744466821885
ube 1
Margaret 0.7635137686506642
TH@@ 1
Marshall 0.9002249873312788
Ober@@ 0.12094395322600536
ace@@ 0.3720014442250394
Guy 0.927435979960164
Pedro 0.4394763058915072
house 0.11582022504649729
Cul@@ 0.3220838839852414
seg@@ 0.2952487835583773
ñ@@ 0.2446699529487946
pun@@ 0.28666731051940547
ros 1
aster@@ 0.5992347268827546
dec@@ 0.06320160128513387
ju 1
www.@@ 1
Kennedy 0.7950105755831638
News 0.42005508209704373
Tul@@ 0.9148666095536997
mün@@ 0.8996302256995156
Him@@ 0.9052397775633333
ás 0.30738130817419873
anny 0.8623917964117493
ally 0.027184329600387403
ovo 0.7452986076427874
1887 0.5892920056649921
Kamer@@ 1
1871 0.5765106738516433
NO@@ 0.8233198047291592
Bom@@ 0.5754819012615303
Fur@@ 0.4111207126352115
Ern@@ 0.44853297418398336
Kath@@ 0.4819034134314958
aks 0.4537044333040948
Kis@@ 1
Boeing 1
ako 1
ric@@ 0.34895649336034745
Poly@@ 0.7045875397211242
Sant@@ 0.6021883222694695
VI@@ 0.801144512943282
enge 0.3758604867017858
sn@@ 0.596986622718088
bes 0.18763847361394398
vor 0.06825897138418686
ball 0.14761464014682352
105 1
Brad@@ 0.6361144689497262
First 0.18653523565628308
Roman@@ 0.7157032318703562
Harris 0.7837046662976311
Clin@@ 0.5943948640726741
Gabriel 0.7659099946498461
Cand@@ 1
Ernst 0.6061446159032889
Lab@@ 0.2356131787330379
Les 0.041610240849341604
isse 0.22337205851226774
con 0.01512036297083081
T. 0.537229802587125
Will 0.8888431708365468
Rez@@ 0.9289898189570682
ado@@ 0.47219764957273613
yes 0.5742868903601189
monte 1
esp@@ 0.13701762084881944
1850 0.6264206543865573
bra 0.6951567768789111
ffer@@ 0.5325420631605343
Norman@@ 1
ams 0.21289599712754215
ights 0.2435758530259091
Hud@@ 0.7726274317180486
oga 0.815235686548793
Moore 0.689209536481517
Chr@@ 0.6150763885263975
ias 0.34225692810503117
о@@ 0.034266040150365655
arp@@ 1
egas 0.7497022517752063
Alter@@ 0.6176833038769739
DE 1
Dark 1
To 0.23528984960576999
MC 0.863386300945297
Nick 0.8301982169922887
š 1
Frances@@ 0.8437517298150816
3D 0.8644939353210027
back 0.07595418648714442
s. 0.4010323910371576
ML 1
andro 0.812031849280789
urn@@ 0.27046630797464843
1.5 1
Hub@@ 0.9212565055255648
endem@@ 0.6421804810890063
Claude 0.654552140886264
prof@@ 0.17273283789399121
thr@@ 0.31605218510928973
Jimmy 0.7863947556152014
Morgan 0.753469082475906
Swe@@ 0.3546619836231343
div@@ 0.26147351308660943
dos 0.0690549554890886
1883 0.6178177063688702
Gener@@ 0.3593416564602941
egr@@ 0.3011745130973083
Death 0.5165052155343688
dua 1
Rach@@ 1
Robin 1
aron 0.06905913260458278
ason 0.2783160446433379
ilit@@ 0.3284183138643613
Banglad@@ 0.7822268243920639
presti@@ 0.9519386292724963
Cra@@ 0.53116138154802
omer@@ 1
State 0.07998724760032057
integr@@ 0.24660666199358086
Out@@ 0.47929526516324295
US 0.07420334158546868
firma 1
ī@@ 0.7842064835406487
Girls 0.8420121979843344
Broadway 0.7353019382219088
Kot@@ 1
ental 0.09698637838792071
prati@@ 1
350 0.914939798637346
Arts 0.22638731722937466
Do 0.660797427637326
ios 0.6377720766793405
vac@@ 0.4721477204961469
wen 0.6286830991555072
2.0 1
Arch@@ 0.21948939213418012
IP@@ 1
Great 0.22620582875506834
Ton@@ 0.5416480227209157
Mün@@ 0.37070455589348134
Mass@@ 0.4978197723444152
geb@@ 0.11732718859918084
ém@@ 0.16988553242608959
gran@@ 0.5966240986507326
osp@@ 0.3242411562152173
Universal 0.8603193301485302
yst@@ 0.28080679826342136
Sac@@ 0.5777476577715356
gh@@ 0.3737647779738809
stone 0.2515040240893029
Nan@@ 1
ady 0.4183858808141707
itch 0.38260171598854475
1863 0.601054549888702
Aus@@ 0.04835539486084612
Reb@@ 0.47186961174213965
ild 0.6492943550934087
phy 0.41855627091134284
ín 0.19907873378539465
ო@@ 1
Cla@@ 0.6389867410958044
Oliver 0.8868590921111925
anger 0.2850136525590932
inn 0.6074399728428369
prob@@ 0.1291879462837026
35@@ 0.829160450443394
Ji@@ 0.7126266895273735
Pod@@ 0.7244548385820458
Que@@ 0.44210671628059595
Isa@@ 0.8140506507729298
Way 0.8474089088493771
AV@@ 1
Alem@@ 1
Good 0.7355084189422565
Ross 0.7214716124266501
eck@@ 0.2183968966254487
£ 0.36565324898615403
Serv@@ 1
ody 0.46814502325193225
ár@@ 0.2411185244124419
atri@@ 0.5428335027785681
aham@@ 1
ean 0.1611906478895413
unter 0.05180786199753462
ech@@ 0.10909149674596715
Wayne 0.9484790808615886
Cass@@ 0.6207201756345267
Studio 0.6909613006477795
vel 1
10,@@ 0.8415884051057071
ness 0.1430800201270388
Palm@@ 0.7567495503042329
attle 0.47454700710478376
zen@@ 0.4526637609384918
AG@@ 1
Hass@@ 1
Bayern 0.7037807372940963
Hein@@ 0.6206834386083807
ū 0.8705392301692946
1875 0.6048959051108798
Bla@@ 0.7809287369892692
bahçe 1
ores 0.08213954069739271
zo@@ 0.8038239784612775
ogo 1
Office 0.3761491703895588
PC@@ 0.616364851558066
illo 0.33094679355894213
An 0.1271908019286251
Maxim@@ 0.712360802101742
dorf 0.3361014828283308
lidae 1
Johnny 0.765558839053527
Thor@@ 0.7619574623943495
1873 0.6028353796252098
atur@@ 0.2775890317332368
Must@@ 1
encer 0.8180055758622777
ann 0.34842381322554555
asim@@ 1
Miguel 0.5348991555605017
ers@@ 0.5859146545585812
1830 0.7109295381719505
Jordan 0.732638048766298
Ligue 0.592607746383927
AD 0.576860072136101
Division 0.12260522800471321
vid@@ 0.2677556396488943
ABC 0.6684824335694619
TS 1
burn 0.6841542125294574
LA 0.5160954864108889
Barbara 0.7838974268585495
maf@@ 1
Sag@@ 1
mol@@ 0.2141449757550862
ole@@ 1
ls 0.22174978150568755
mus 0.9124199609819371
ë 1
Wrest@@ 1
AG 0.45746663188529224
Last 0.848331039013325
wn 0.10496133253081176
esi@@ 0.687094654981579
Missouri 0.5245987739938011
aud 0.368539290813735
band@@ 0.3037102703173963
pha 0.6075487536896594
128 1
light 0.11876368431402126
til 0.4030892383759958
Xi@@ 0.7792051377815425
Form@@ 0.30340777349964276
igi 1
Phoen@@ 0.8849091684221069
aqu@@ 0.15784877957817053
fres@@ 0.42210000160500655
Channel 0.5527755914278303
augh@@ 0.4801538547002191
esta 0.09137257279133185
Jonathan 0.8889002438052077
ful 0.11985926863097267
acy 0.1595955896773424
prom@@ 0.10976659068398373
22.@@ 1
track 0.15735760528514284
Carlo 1
Good@@ 0.7025744939407451
ills 0.1985374191482599
ave@@ 0.43857204481200507
inay@@ 1
aph@@ 0.5440723257865302
1868 0.5876103017954512
LC 0.6238367747462333
1834 0.9652371016264468
tun@@ 0.270050627858757
Para 0.3767076974307768
act@@ 0.19778202895393546
cho 0.07266899436585915
Hawai@@ 0.7145870320523524
Lyon 0.6295225466041278
tidae 1
Frederick 0.6430794169780916
Alex@@ 0.7991822265503074
Che@@ 0.6870647178344599
Geb@@ 0.2515098814014411
Riv@@ 0.8494090961098415
bor 0.574806973175352
124@@ 0.9231263841524763
GP@@ 1
ents 0.02849585773386864
gres@@ 0.3521281513074854
Junior 0.4714108659508476
hin 0.49903267935195755
ps@@ 0.7302540058590264
1861 0.5444167183946057
Neg@@ 0.5461193429441576
Raf@@ 1
Atlanta 0.645898537529369
Santos 1
1879 0.5608054661207068
Jud@@ 0.30776860483533763
Ris@@ 0.8767689066849772
Rou@@ 0.35896184842632006
Li 0.7007528451751891
36@@ 1
André 0.5533110042261645
arren 0.6327163409562536
Fro@@ 0.7007569038651239
Tennessee 0.5448763584751605
nch@@ 0.291589510348186
70@@ 1
AR 0.7547688441145024
,@@ 0.7235290951222613
icia 0.3953719804254803
Raymond 0.8559291014943425
1872 0.585027273568123
That 0.30955724722531636
ui 0.45173030566447103
Ya 1
sion 0.04989721359235641
} 0.522129220800263
Viz@@ 0.6500211206682508
ère 0.06138921586802306
GM 1
ose@@ 1
Heart 0.7786180352158777
Wright 0.7734551248052767
ely 0.05379123309913435
Rodr@@ 1
E.@@ 0.7728391666740221
nen 0.12638102095383577
att 0.5625913645392264
12,@@ 0.8091830144856804
now 0.07109496799920134
http 1
wal@@ 0.152775994717318
What 0.5973502296854613
fantas@@ 0.780674769660327
RC 0.6167182323633967
Trav@@ 0.6017383512343385
hir@@ 1
21.@@ 1
enci@@ 0.154236036887968
Cec@@ 0.9732443297052192
Dipl@@ 0.8054557941817111
dou@@ 0.15336850392449475
ines 0.07003457758334433
sm@@ 0.21207232895309666
ê@@ 0.13949633581651313
1874 0.5713494972735985
Dy@@ 0.5129409261114282
Kıbr@@ 1
pes@@ 0.43101779139505514
Home 0.4024025088627788
Port@@ 0.5190972493558352
alit@@ 0.7049415360936481
dri@@ 0.12286518939076618
Fac@@ 0.26677894529514345
ía 0.032936648315519616
1840 0.6575314171153889
ms 0.1620339353646538
Cham@@ 0.5838362714089891
Ja@@ 0.6791084000022656
Santiago 0.4829683962749032
ambi@@ 0.3514809750512173
arch@@ 0.09001221717490124
für 0.015658962562786233
170 1
Boys 0.6803010800237078
Golden 0.43983082128330897
ishi 1
Austin 0.732728188401941
Dave 0.731002518512624
King@@ 0.6064914417487641
aven 0.6207099660365183
illy 0.3971266361068626
FO@@ 1
Rolling 1
jo@@ 0.12923057531922277
oud 0.43979978931517577
Zo@@ 0.8132193646304704
eston 0.6131451497196271
rez 0.4823869934503657
alla 0.48578623592847325
par 0.013000912147391817
Stor@@ 0.48968835162738045
Family 0.38406271246334295
Josef 0.757820354279606
had 0.013970020627640531
tern@@ 0.25631072507237856
olas 0.5612894759221662
sum@@ 0.17037586232115
33@@ 0.9644009477669546
Cour@@ 0.3219000412452643
uvent@@ 1
Bour@@ 0.46498786953498594
UK 0.17926944232363096
ems 0.1158327016018652
Pier@@ 0.7463759237820429
Zen@@ 0.6798541441031689
aven@@ 0.5136513780500723
Road 0.16085376289567402
Princ@@ 0.448668640987303
pes 0.39221432088345703
esen 0.30383108468091075
Billy 0.7210424906016939
Reich 0.6589257113817242
ats 0.05854855834741269
Rog@@ 0.5564362196171664
Sep@@ 1
Uta@@ 0.7861423788331948
ades 0.12034930541475017
anik@@ 1
Airlines 0.9090608917830872
IC 0.6057184848753996
very 0.06890620339637542
esis 0.31706197078326664
Termin@@ 0.8578431344257824
Thi@@ 0.3757062862277284
trat 0.18829156472848874
undu 1
Sl@@ 0.7445312092981309
Old 0.2857751068787669
Single 0.7468330376188157
Volks@@ 0.26652687626487137
Julius 0.9484310324336847
manga 0.9566531409197696
wo@@ 0.1307399165132661
agre@@ 0.1515778542202733
ehr 0.35308127388619
War 0.0708206169692778
B.@@ 0.6940313762847368
,000 0.31798693009360457
Isab@@ 0.5541346145233669
Pear@@ 0.6642881979255458
1866 0.4575309284166698
And 0.5006712839069322
Gom@@ 1
mos@@ 0.36844886518658687
oli@@ 0.44267879807912924
Kansas 0.45310179546588736
rod@@ 0.8499783360039072
Catherine 0.6907078974200581
spir@@ 0.2047953179836007
Alexand@@ 0.5059334036501619
Marc 0.670677626653437
evo 0.5317192779430798
tive 0.08555866695138027
Union 0.10605382122548025
ague 0.3828376357283672
bri@@ 0.1144464740851775
ends 0.11785365367759913
hay 0.23388851258386703
Azerbay@@ 1
Copa 0.3910089023254178
usi 1
fu 1
Clark 0.5666152109948888
Fort 0.2980234413795526
Wa@@ 0.5165106833428376
now@@ 0.3385293543019037
Dream 1
Math@@ 0.362373809080224
Port 0.379313029144609
enne 0.09784590866084639
ight@@ 0.35516158574886847
that 0.00587374806404358
Cruz 0.5438490085268916
ges 0.12127844826195351
ibn 0.9895843447855095
prov@@ 0.1366291280503418
ვ@@ 1
NS@@ 0.4688959437186423
enzo 0.7872261203986752
ion@@ 0.24792227625845978
Nis@@ 1
Willi@@ 0.587132765386579
ande 0.5136045017774902
gs 0.21894605348118623
Git@@ 0.783719231187825
tema 0.7668205883943151
Eth@@ 0.509635001957693
igg@@ 0.4361026998012285
liz@@ 0.4349852498495508
pus 1
MO@@ 0.8561633099119209
inda 1
reform 0.5402010921273053
Dani@@ 0.9119366293657774
Neb@@ 0.9139255196322285
450 1
Frank@@ 0.6777907636522459
Koh@@ 0.5549035502658252
Power 0.4590398956876018
ario 0.0842955327695882
idge 0.32612713325286724
onte 0.8128653115340326
Dim@@ 1
Sci@@ 0.6007786500173888
icum 1
‭ 1
ember 0.48638794510464894
Cru@@ 0.6447238083735493
Ian 0.8423362535961328
Series 0.26519481171095566
Syl@@ 0.7193463533377334
Digital 0.7723222985958764
Aut@@ 0.13796408487016934
Schwar@@ 0.38189920502351615
Shel@@ 0.8015648240871387
1869 0.5709363229075672
Gary 0.780887831563376
otr@@ 0.7541974848236478
Dak@@ 1
zin 0.8802715506520974
ს@@ 1
Andy 0.7650089742373753
Beach 0.4214406609770004
By@@ 0.47092256752048156
Co 0.4020828846511822
ē@@ 1
Arc@@ 0.5909046321418663
asp@@ 0.20438366315488893
isto 0.9500974250437004
ș@@ 0.7359749316906372
lac@@ 0.7376600388862021
æ@@ 0.7340435340013158
Philippe 0.5436709033631976
enger 0.28367882589962284
Č@@ 0.8555978669580456
1200 1
Like 0.45962250155362344
ique 0.09445479051228253
ule 0.21641667001642553
ards 0.07460558442182025
cada 0.22069150342243676
Cher@@ 0.6038077321040384
ISO 1
Space 0.5384506123360671
sch 0.1305517818419776
fün@@ 0.627527306117894
nov@@ 0.3953685831281531
oro 0.3450231041889923
troit 0.4846077388437664
Colorado 0.467860741114018
loc@@ 0.06265004317503901
Gri@@ 0.48494347857053094
tiva 0.4921780292284583
Valley 0.26271859741979225
erc@@ 0.7995427918938395
red 0.04362023358187435
Hind@@ 1
Wag@@ 0.521627535350892
Jose@@ 0.7642249055789354
Journal 0.3774366101426445
modi@@ 0.3104920671132856
aine 0.11483726598782049
feld 0.24160495584004368
Chall@@ 0.45855290142063293
Rid@@ 0.6669300402738394
ump@@ 0.19799994084031775
modern@@ 0.6407958725423051
nia 0.4188394946401868
Hoff@@ 0.7360859439489672
ê 0.6847315516724297
13,@@ 0.8263515338320605
eur@@ 0.26715838871660824
nus 0.829906824688649
Jacob 0.670145939724364
Kenya 0.9264904460959404
Nep@@ 0.7106831888346081
Internet 0.3884070986603057
PO@@ 0.939949692388238
RS 0.6555859524339799
Beat@@ 0.8031988991337009
Lem@@ 0.6538502806757895
ces 0.059524967079465384
ids 0.15997202648413558
Leipzig 0.506513158553708
Monte@@ 0.7494347414757215
Trump 0.6781985549370332
muz 1
pon@@ 0.14257220856649214
zil@@ 1
Nür@@ 0.876961836347557
Turk@@ 0.4568784884047661
Carter 0.7113631204181516
Lug@@ 0.9757291766656183
gri@@ 0.351793039352506
nar@@ 0.3503393749155306
Pos@@ 0.579498852594906
Satur@@ 0.4542794933938784
ondo 1
Ny@@ 0.7670322817254683
Story 0.7997395872205318
`@@ 1
Erd@@ 0.6311649126380734
Spir@@ 0.5475955948685325
dio 0.18654822447582606
sult@@ 0.7826447430587236
Sym@@ 0.4382453238829785
ampton 0.6971094485853372
oko 1
orn 0.5804230624359201
ouse 0.46145724113516834
Roberto 0.9657820618486215
T.@@ 1
án@@ 0.17149884419808487
mid@@ 0.16697632801850398
Zh@@ 0.772726085421023
gas@@ 0.37872488436379415
ów 0.423008507616212
Burg@@ 0.6237797643822571
Rest@@ 1
Sovyet@@ 1
outh 0.17759983769819418
Gan@@ 0.5860559167343552
ander@@ 0.18155690996679696
At 0.06734851993709959
Ax@@ 0.8503796950995528
Jon@@ 0.803952001662644
ains 0.09611443394716356
ations 0.01723839260707417
norm@@ 0.3447411365475997
ń@@ 0.6647919499487894
Bra@@ 0.6780822180859484
eds 0.15607809514124518
17,@@ 1
Pac@@ 1
Franco 0.8038969170736588
Hip@@ 1
Rock@@ 0.7298536157597378
Wer@@ 0.1851216670167649
UR@@ 0.8231699999746023
5000 0.8856598100653154
EM@@ 0.818681225342334
direk@@ 0.866937030862641
Cast@@ 0.5111354928149234
GC 1
Light 0.5450093629410928
South@@ 0.4283838079433395
fac@@ 0.043418865561077775
‬ 1
fed@@ 1
onne 0.1834026432319011
ron 0.7853932023351526
ümüz@@ 1
α 0.16625976531730596
IE@@ 0.7120395726103095
Sund@@ 0.3450081749772995
100@@ 1
Georges 0.5191458002648947
kura 1
Best@@ 0.32830027174424503
Run@@ 0.6463646912856513
Sport@@ 0.28029349623927363
zer 0.3401941992353375
Produc@@ 0.3681205815815403
chen 0.06176582558741768
arry 0.5805707693949764
borough 0.40875751733033716
Dow@@ 0.414055302650685
ancy 0.32663557875979693
lag@@ 0.18225632225982202
135 1
Gren@@ 0.6888371857520325
Lau@@ 0.4212258181574288
Rel@@ 0.14160518852893347
sup@@ 0.07777619920822908
Hermann 0.5594721791235553
fah@@ 0.8842289924831419
uti@@ 0.20564083772079464
Moon 0.7331788614465801
wer 0.1116042643328664
\ 0.702175658230378
მ@@ 1
Bres@@ 0.7517584758020631
For 0.08611616702738246
Iv@@ 0.7075375609704494
ATP 0.7953097932546225
Alberto 0.7743767597336628
Mang@@ 0.7585885705456633
Stein@@ 0.3069715745035465
Museum 0.1472341193554538
ric 0.48408005873653115
ume 0.17955252412900904
1862 0.4806459694086649
eran 0.1113784825149005
sh 0.47795730163499134
Wisconsin 0.44412051870181707
ril 1
she 0.026488401503144177
wald 0.35172735772811015
3,5 1
Lucas 0.8603298384494031
Us@@ 1
CP@@ 0.600183493038803
Central 0.12928403577653555
neo 0.5577871764729023
vent@@ 0.11222711979065403
And@@ 0.6157436264600284
Stanley 0.6316469829188143
VP 0.7055648109880693
sons 0.17023611085441823
Mom@@ 0.80952820666444
Point 0.4048341630256563
Dans 0.13092320793716594
May 0.05297676594798356
wil@@ 0.22088182441274412
är@@ 0.10116543799077751
103 1
ege 0.40652061777219833
rie 0.34678968231472107
alli@@ 0.16654017991400605
Ontario 0.35500471146079987
Thom@@ 0.8117456312612108
tho@@ 0.11683681894535404
ache 0.17669781296479634
tos 0.115148271289141
Thompson 0.644459114916569
hard@@ 0.3227051147176577
Mississippi 0.5705354202166208
wick 0.560229909579685
Marco 0.8777097317055027
Nelson 0.6089907325357582
avier 0.47902236657911185
Esp@@ 0.31778898462552063
Ma 0.834451336838478
Rud@@ 0.6293665783273132
zona 0.3210805868468998
Prince 0.2651056611128956
Roy 0.613742237004988
Sierra 0.599864757700719
lab@@ 0.17578284916366896
rag@@ 0.49166162927715673
2.5 0.9001649721822297
maktay@@ 1
Comics 0.7625962672938826
IG@@ 0.5978060521817196
Lep@@ 0.9255721731958473
ward 0.11185597393344487
118@@ 1
Sever@@ 0.35938314125702775
face 0.1210101990958619
oes 0.4026007536258984
uri@@ 0.7824765380700271
თ@@ 1
wagen 0.505956082743982
eu@@ 0.2805530566633026
plo@@ 0.6977084941159934
Agu@@ 0.6143266526487006
Ann 0.669061117805522
stadt 0.14145849785023365
Alber@@ 0.47320394238622526
Robinson 0.6566825453406668
1828 0.8818745816692672
26.@@ 1
ways 0.11525623278979194
Ple@@ 0.621354511141724
festival 0.2854946585818813
Cot@@ 0.44551969968851163
Open 0.2134673091174976
Ster@@ 0.5067690390398981
Atlé@@ 1
Comp@@ 0.33028040269705666
Jack@@ 0.6024556520622962
45@@ 0.9021159867517121
Nad@@ 0.6287074136766011
Gold 0.3416115773475741
BI 0.6321170772440238
emann 0.8541771403199094
val 0.5381986802122539
zur 0.03736699985808037
Fire 0.5690387091165099
els@@ 0.18088518736311837
104 1
Bruno 0.8507900937383707
Men 0.2984670620073293
Stuttgart 0.652185470319343
dul@@ 0.7161904803252164
ott 0.4587312664889065
Carol@@ 0.5462136103343984
Global 0.5645471592809408
It@@ 0.9202352477886266
Sports 0.3221173011463345
sif 0.6975577328451298
Kentucky 0.510707475526202
mab@@ 1
119@@ 0.9569948483882658
habit@@ 0.14897789439405681
vic@@ 0.09462189474465912
Aqu@@ 0.48486920151443635
Well@@ 0.5788438429601476
aut 0.10814709262241107
ual 0.08147747309022839
ape 0.22990889521917396
lier 0.2933644081378314
pas 0.04905219514129455
Lon@@ 0.6810808771666141
itar 0.5661663230196156
lio 0.9054443914511097
bourg 0.27695717516124063
igh 0.4627702553733191
Il 0.02088693830216004
Lac@@ 0.6031650497506756
Montre@@ 0.500022061415699
Angola 1
Plan 0.5452494107645901
any 0.06505497619830425
hip@@ 1
FL 0.4228284715268196
Wy@@ 0.5618950468810496
antes 0.053646361721225125
Kak@@ 1
Long@@ 0.49965587610474904
Der 0.02350609757824647
Diam@@ 0.6833145787508327
Thr@@ 0.2974035221875876
dedi@@ 1
eim 0.34762669056930195
Dakota 0.7235235559650881
üh@@ 0.22754699321844424
afir@@ 0.5947935962040756
bian 0.4725825070522204
eros 0.17247030811043831
′ 1
Book 0.3840138383079803
mobil@@ 0.648071006707779
Texas 0.1571998938593942
alo 0.38918253835990024
entum 0.6489062258870918
uti 1
wat@@ 0.1371599905234165
Java 0.9046729953381801
Rein@@ 0.3741767339662085
cara 1
cht 0.11303601235225645
enter@@ 0.29955154634706166
~ 0.9072607066529704
Institute 0.14429448590558222
wi@@ 0.20787457864821696
NBC 0.6673433802114396
System 0.2593142719557127
ph 0.5192843431771883
qui@@ 0.10585797881326993
vec@@ 0.3553087318597794
Scar@@ 0.658433602919249
core 0.33166826386274767
37@@ 0.8798854627569187
Alabama 0.5260715785527736
Kop@@ 0.39524208254784676
Type 0.7341037170387273
ʿ@@ 1
Grant 0.594172878203968
Maryland 0.4603626857525298
WW@@ 0.8788860337939406
Nicolas 0.5634026294570728
alus 1
etto 0.8090748258678055
gom@@ 0.8405988637064817
Press 0.39189970872521307
Anton 0.6938183018862574
Just 0.6747657977206079
Stre@@ 0.24347247997102836
én 0.28766308462041396
burg@@ 0.8185573165833981
rad 0.5120224892483995
ry@@ 0.7205661470821907
Wehr@@ 0.6522793740170233
edral 0.32868258379859105
Herbert 0.6021632141656429
bre 0.16221461179067395
laka 1
Academy 0.15345107061731328
Mov@@ 0.3154489969664278
enes 0.1986800867458941
our@@ 0.09616545661224683
Georg 0.3700868561281783
alog@@ 0.3077105885396107
anie 0.5052179144072297
athan 0.8881882935847034
J.@@ 0.5223671476152321
cop@@ 0.09904326234056836
Band@@ 0.4868878961322802
Fred 0.6786067034119497
Stewart 0.605152406520992
aris 1
chester 0.3598649935819093
eum 0.5206003523788922
sho@@ 0.0738240230996519
CC@@ 0.46157541221515874
onga 1
ted 0.01644492267164947
HC 0.8256345290193816
anto 0.6701335029644243
115@@ 0.9560899025606857
Iowa 0.46454671324546004
Monte 0.6827086966135048
UTC 1
dian 0.5334118842452491
vik@@ 1
ы@@ 0.0691610595187116
End 0.622634389001824
Magazine 0.47450044029069005
750 0.9382280492280484
Fak@@ 0.5782383098243887
sept 0.41986128268856643
Anat@@ 1
Mexico 0.21260179452259145
Sevilla 1
andi@@ 0.41247439045617096
formes 0.4126932510437327
э@@ 0.03235884367189331
Master 0.350881735779402
https 1
Andreas 0.7459039867606859
Oregon 0.48190249631042903
ingo 0.4716453026365535
Beg@@ 0.21854972956830288
DF 0.6170454147548639
Iron 0.6823976789309678
via 0.11710789638378924
vier 0.11942330428069077
ous@@ 0.2493766897361932
sing@@ 0.21393395328091686
Da 0.23606059190323225
Fem@@ 0.5291866315808753
rece@@ 0.16294885599417014
Fame 0.49728951019763257
Hart@@ 0.525953368229512
Stat@@ 0.5930445718567945
Chem@@ 0.295969883267953
Maurice 0.5190468869109522
sta@@ 0.375890039529016
1856 0.550672601582024
Fres@@ 0.641395171486872
emper@@ 0.28180469060124985
main 0.06040916803521022
Paraguay 0.9965753841665702
Salvador 0.6518665893512279
fo 0.4356405945706139
iva 0.4727337882752117
uka 1
eppe 0.6996947401897348
pros@@ 0.25163446970787184
Hotel 0.3777500448552998
amen 0.22957213515875005
ear@@ 0.08979747597379732
atas@@ 1
iser 0.29322768320297504
kus 0.6118942950206075
ells 0.16143422714966066
tot@@ 0.19037502209746598
ture 0.04937846499512642
Id@@ 0.3818275087219448
Rav@@ 0.6708590370505849
macht 0.45511662715895973
tern 0.10567821461746042
CBS 0.6179251806338231
mul@@ 0.1694702459001787
bus@@ 0.08882808564490083
by@@ 0.31651410416121084
elly 0.7702041213024167
uel@@ 0.35986753334423965
109 1
acher 0.1993125949574125
aug@@ 0.3877670575860469
eb 0.5820626556329747
tric 0.18713389707518646
card 0.423318330719458
inge 0.44608922538514706
tz@@ 0.5659925460983098
Fig@@ 0.35311019763003093
kati 1
umia 1
BK 1
Grim@@ 0.7385790920085595
view 0.07850926234976367
ა 1
enos 1
urs@@ 0.3304257179642364
Madag@@ 1
lard 0.4853161318663834
peri@@ 0.17261712236792565
Leopol@@ 0.7100505402756752
Person@@ 0.31566802498704605
act 0.08032787620930545
castle 0.3294295944689512
ál@@ 0.46910599716531093
Baden 0.5152529953375341
gia 0.14037738781091919
Fun@@ 0.5519076367241169
Graf@@ 0.37543508507427054
Science 0.21243591675747153
uno 0.11304573578495293
е@@ 0.04689708709666207
Brothers 0.5962668631627239
Lot@@ 0.4759576318447951
eland 0.39898877015505607
115 1
enta 0.13764590333831297
1859 0.49312613973960095
Jak@@ 0.4606957908215708
უ@@ 1
14,@@ 0.7541769593883412
bs 0.16558017458291668
ec 0.4990890896920669
ð@@ 0.9054496342142688
Ng@@ 0.32834258738933725
idel@@ 0.35096957031742765
Gros@@ 0.7379744788301752
Olympi@@ 0.5394925800458622
Liste 0.1746343011631473
NCA@@ 1
Nicol@@ 0.5981243836828932
andi 0.9506608802132511
è@@ 0.06424368331279567
Roy@@ 0.5356603325652987
bad 0.4484976420659825
fahr@@ 0.1890205157019178
jet@@ 0.6908269925604155
lot 0.11637243869045788
Ž@@ 0.9514802511973384
ego 0.2923335764913089
seven 0.1536971431199352
Charl@@ 0.6380028727138968
Inst@@ 0.7207770395890812
Two 0.1810865756367753
102 0.8742538867501342
IT@@ 0.5406847525571129
N. 0.6348622617666246
fri@@ 0.1197062821615301
Johannes 0.4139463174533744
ifa 1
90@@ 0.9796458710221015
CF 0.745998039688428
Glas@@ 0.3839681891813211
H.@@ 0.8158189273602486
Vie@@ 0.41265083368845107
י@@ 1
Sky 0.6889168962917306
August 0.035735475036387576
L.@@ 0.7191460530643424
pot 0.4950398742388923
Women 0.1560120760303166
wall 0.269118995596964
34@@ 0.7797752424031827
Awards 0.14734482067396112
difer@@ 0.5950580956691446
iles 0.19748964270146946
Forest 0.39956417929088117
Micro@@ 0.8205787764374649
Theatre 0.2563365386501422
pedi@@ 0.31206192567617536
sola 1
Back 0.6631456468988105
Martin@@ 0.7689944875381126
Songs 0.5058477713310413
Syn@@ 0.2123762064248251
won 0.045370616204999825
Fahr@@ 0.16316390285139917
Vin@@ 0.6948993317569776
atis@@ 0.20129385994821283
hist@@ 0.4741039466344905
IBM 0.9333794205519381
Lud@@ 0.574174341499183
SE 0.858572590886774
Sri 0.4361169332257235
xi 0.8030392783210213
Cant@@ 0.48657273733881373
én@@ 0.05545068436752199
Ind@@ 0.2883762181598491
You@@ 1
über@@ 0.04728495767339913
alls 0.09833737335992077
ony 0.13675864585267875
r. 0.46317939789812695
less 0.085594762193167
İng@@ 1
106 0.9801462439000866
fran@@ 0.23445750465072163
Vall@@ 0.5274768911258649
nis 0.12533088602900813
Toul@@ 0.5594318412619151
cover 0.19763062335174286
mani 1
Rudolf 0.6065789908098892
rates 0.4015484759202245
Ped@@ 0.9490392160917537
^ 1
ayo 0.3783156928786323
mark 0.1756768655712891
107 1
under 0.02906159812098406
1857 0.5146922897177927
post 0.1391548923406778
Bez@@ 0.3556662881546857
lon@@ 0.6581204520208928
ré@@ 0.02011316339387823
1849 0.5467619252734441
Hut@@ 0.7535595876501627
Italia 0.4050426174676669
utt@@ 1
38@@ 0.7788744613131324
sl@@ 0.22623240367548675
él@@ 0.07828329956453675
240 1
Plus 0.49534455547254785
lers 0.13064167075735675
1831 0.7168717567951253
Law@@ 0.4735021425323651
bau@@ 0.10292148243348521
ski@@ 0.465261232737507
ection 0.07150130746433017
Bang@@ 0.5268667677677338
Off@@ 0.1454631572383188
codice 0.594412794831912
etz 0.2979947142051608
town 0.05539973288962568
Dad@@ 0.7363982160887621
Prov@@ 0.386475713896346
even 0.07744605254421927
mos 0.4839935934698105
web@@ 0.23667664165310429
ña 0.18808826094766443
15,@@ 0.8466859958034278
1826 0.80368728600592
Fern@@ 0.295874286752283
Nord@@ 0.12428129873346264
Shir@@ 0.6963294970026314
ern 0.04533152781960124
Gustav 0.7368111957886285
iliz 1
och 0.3343631136544555
ī 0.8427975202879757
Baker 0.6266871422857939
Phili@@ 0.5026388718354556
ily 0.17589524629294712
Cape 0.42567183711584367
Earth 0.297592236502391
Melbourne 0.37721724338813306
emat@@ 0.576225252837939
pson 0.9069807037895274
1600 0.9369607902306649
Ander@@ 0.5274042015243758
Now 0.558590883066615
angers 0.3573321979297303
Jul@@ 0.6246208047078663
nos 0.23182076529876341
Main@@ 0.4036428075221581
1855 0.530953371812998
108 0.913913241819738
1854 0.5286402947187279
Wel@@ 0.27675839070388436
Reich@@ 0.26330116685109006
aun 0.4494119294138721
dh@@ 0.18178729085887324
25.@@ 1
Coll@@ 0.34309687119764837
Sur 0.2192556556204711
heim@@ 0.33017505017285265
mm@@ 0.5982988000118675
PP@@ 0.889316300210026
amar@@ 0.4039177626249989
Orange 0.5882096333233436
Glo@@ 0.5535357256728057
Vid@@ 0.6554219277613481
So 0.15860407942620294
Walker 0.5025847737243261
Wind@@ 0.37793322065760826
ough@@ 0.1882716188251081
xon 0.6235660855930657
Coc@@ 0.73048772633438
EC@@ 0.8176900748283957
liga 0.2160762923653675
II. 0.3109280321495649
SI 1
limit@@ 0.2131138726802313
Luf@@ 0.4764631149259339
Lé@@ 0.3342204678010404
mama 1
wan 0.2752882664644712
ú 0.3579209230608602
aran 0.6151769855686603
ather 0.18772984106690638
Hall@@ 0.5849828272071683
grav@@ 0.23120002919572724
put@@ 0.12302672837328774
tn@@ 0.2681719478612428
Pow@@ 0.42417459466761653
uro 0.3629465648500743
16,@@ 0.8514065693067085
24.@@ 1
sept@@ 1
lö@@ 0.43850838520213564
sec@@ 0.038516847505608756
Fantas@@ 0.6245780589556649
avo 0.7354553107407741
As 0.042335043728269316
eu 0.16322355445609363
nam 0.3236154461879295
pant@@ 0.8765287311160156
a.@@ 0.6151551347522546
down 0.0667641088576015
ennis 0.6210826091405193
tart@@ 1
Las@@ 0.604368651650731
amor@@ 0.7597572303450127
dez 0.5013679665461055
ode 0.175281058174621
Ich@@ 1
Sult@@ 1
uto 0.6768690021524102
1839 0.6447888652943828
etes 0.3139158358042162
GA 0.6252231268684905
Jorge 0.5290522456859762
isher 0.3805875070070756
orer 0.6777375910262095
rive 0.3809112256018191
try 0.08983197976506527
Band 0.15213617572786386
Nig@@ 0.6442721497250142
Shu@@ 0.7971683360816769
ality 0.07445469306162412
orf 0.8223788497542349
pp 0.5420641089730182
Ach@@ 0.33460399056791906
Ret@@ 0.3721506195003521
Sti@@ 0.3160327900336515
1789 0.8191404288888652
Lec@@ 0.6843932071157972
God 0.26668246762355735
R.@@ 0.6630409194769328
char@@ 0.09432548410455191
egal 0.9849932373750502
sha 1
̣ 1
Four@@ 0.508898907729848
Rafael 0.6640182965089659
Tag 0.34338252592814666
Kid@@ 1
Lincol@@ 1
osis 0.2960540230226981
sof@@ 0.9853089569080512
ants 0.029508002098368076
head 0.08129080185596918
Water@@ 0.4587478785069957
aku 1
erer 0.4141050973210643
201@@ 0.6790650630614264
Chev@@ 0.5111369394343619
achi 0.6898543339633932
ennes 0.13851732073350823
ism 0.060183277597186016
aker 0.2588510459544886
pig@@ 0.7909495836692682
Wolf 0.6131472217027188
gy 0.503497046260005
Sport 0.3806964399450424
auer 0.14903853495397656
Sup@@ 0.3398005748821823
Tow@@ 0.3203431933228344
dist@@ 0.15649940943033352
illon 0.40880664485761736
ops 0.10237684852495935
Broad@@ 0.4254477009238344
Kib@@ 1
1858 0.5016524992265567
vill@@ 0.5637658520719674
People 0.22592953882416178
isha 0.664140636089797
DO@@ 0.6709544404769987
ML@@ 0.4383881289366812
een 0.3354511932117593
ology 0.05487710672161144
SI@@ 0.7514396127531443
aden 0.25133568911647597
into 0.01929652030469479
BO@@ 0.9067325581824153
Departamento 0.9007691695977156
Jun@@ 0.36515431895414563
Ğ@@ 1
27,@@ 1
ative 0.030664390339206343
cat@@ 0.07675710925830131
heavy 0.2662351057202491
Tag@@ 0.32184001772660165
Valencia 0.6402639253356679
ô@@ 0.12841389109117538
Aff@@ 0.21750149545688216
XI 0.5788747444642476
cle 0.154791774235343
Feli@@ 0.7503009305136495
ilo 0.5321064941677923
other 0.01897725976774658
Gau@@ 0.3628551320593179
com 0.5901988012811838
EN@@ 0.9128826015810744
kn@@ 0.16410146762117575
trib@@ 0.662786362859939
ège 0.25229505376012734
ène 0.14984054295769067
Athle@@ 0.25621106139138505
1836 0.6107783033574705
550 1
IA 0.6477002438633898
hut@@ 1
opa 0.9793341523765823
style 0.08351872005611947
Iz@@ 0.7644890378900481
1853 0.5367257444655061
4000 1
BN 1
inst@@ 0.07625386522607117
lands 0.08518082803588399
46@@ 0.9567765409513022
Freder@@ 0.8475365048134742
gn@@ 0.39892455997328286
ux 0.09952723038304422
agen 0.09169524144221919
39@@ 0.7990767997468693
Christi@@ 0.28455445314917166
SR 0.32227530578619906
aut@@ 0.10387514905512936
blu@@ 0.2128794295492391
chin@@ 0.19080837301316794
nm 1
Fle@@ 0.248973015006183
online 0.30102486555474745
Castro 0.7948132453277414
Denis 0.6512982622074517
Pablo 0.541858336435939
Salz@@ 0.4287242423636697
bli@@ 0.3699275913436802
Leb@@ 0.26279768811305104
Business 0.3165927237926989
Carolina 0.19733994167495103
Tai@@ 0.30341212213101465
ados 0.024978828832605347
→ 0.8415424594797646
Project 0.3600077934669095
220 0.8461596199620592
Rosa 0.609424063102006
Yes@@ 1
frag@@ 0.2112664557150794
hua 0.7249425186284436
és 0.01704000011573665
master 0.2315668405358734
Chart 0.5444409888672338
dition 0.1278534196094614
ხ@@ 1
1851 0.5123254714965442
ბ@@ 1
1845 0.5574470032593501
Bapti@@ 0.3600208495466238
Emer@@ 0.40473364774603887
aro@@ 0.45454677828270035
win@@ 0.07208637873557136
Atl@@ 1
ien 0.044374680802700836
Det@@ 0.39033893936236813
direc@@ 0.06769519408846639
ו@@ 1
Apo@@ 0.7595310436309802
Guatemala 0.6855264617882382
öne@@ 1
Griff@@ 0.5482853869082981
RA 0.4376358446156809
esh 0.2000042438493099
rup@@ 0.11019378356087228
Daily 0.535390590135935
Express 0.4434963581820427
Zimbab@@ 1
ling@@ 0.2597460452014984
İsp@@ 1
Born 0.3106164589230882
1847 0.5425399603683932
Direc@@ 0.2286202010538773
Eug@@ 0.5780517456053339
nete 0.21088583458514376
111 0.9082849660530996
Sov@@ 1
ilia 0.5511494593662718
Di 0.8778483411513476
pur@@ 0.07309574544345236
Free 0.3819111031660606
bud@@ 0.27795110256853695
ˈ@@ 1
ر@@ 0.17873706368143633
Hannover 0.6144967670261133
1829 0.6932012052036127
ischer 0.051652811387962405
65@@ 0.994065015173022
atum 0.4936887614612315
25. 0.3966320927505863
mix@@ 0.1394914097063266
ots 0.09339887600255199
scope 0.6477106727945877
Capit@@ 0.40998362328428356
Comm@@ 0.17323906970751476
Force 0.15250143377907388
Mab@@ 1
Vog@@ 0.38115586282107244
rep@@ 0.21134004352538982
112 0.9106337404816487
Fried@@ 0.20923471010503775
Pand@@ 0.6878657773232841
uni@@ 0.08426833579227476
ï@@ 0.11088784963320851
122 1
eine 0.010249420730310401
დ@@ 1
1815 0.5294014829766263
75@@ 1
Ltd 0.5146070378691852
agua 0.18606606040216697
kip@@ 1
3.5 0.9458253712212831
Khan 0.33771872257761953
Pyr@@ 0.6754934761344185
Racing 0.4033011589330991
bul 1
ekt 0.19632347814151307
pet@@ 0.442908939715223
Chir@@ 0.7545058063536779
Von 0.08403629757594733
XIV 0.6014599174495604
got@@ 0.33417463771747846
tivi@@ 1
ā 0.7065519323479037
Felipe 0.7097093125861362
Louise 0.5685019358456065
ayna 1
1837 0.5713170654803121
prop@@ 0.12223043001730348
ès 0.09673593647739803
D.@@ 0.6867874402202963
arina 0.685980990625209
eg 0.3237882641908934
ä 0.8593305080535713
1846 0.5295723653080759
Boul@@ 0.3376836213883282
Western 0.11996669096747099
ature 0.07680691101655122
Å@@ 1
XII 0.5984533903303522
afor@@ 0.6378884071372628
dex 0.5313049008124341
ouver 0.47630018594986273
Ass@@ 0.49048278923024763
ect@@ 0.10183763697116077
haci@@ 0.6335191750452391
22@@ 0.6297964808472911
XIII 0.51783176254469
1700 0.9548212238936705
Hau@@ 0.4562118657000078
Summer 0.16956837665893879
ilian 0.30759967777754965
Cros@@ 0.4563927009367476
cript 0.2838791290301951
rid 0.48402823752602536
„ 0.014150334953283402
Asp@@ 0.6853153720111133
More 0.3716883971716777
urus 1
44@@ 0.9625867861354167
Eas@@ 0.5700049810419012
Gard@@ 0.40476497430094127
pod@@ 0.6369710631013449
А@@ 0.026838883370987512
voy@@ 0.1884049317687763
1812 0.5134858139119416
1820 0.4402998876184822
Ayn@@ 1
HMS 0.5549068059248585
María 0.206028261301585
Pass@@ 0.29061919249729895
anes 0.2959510176357769
ares 0.0985485588295204
strong 0.1533044225361105
ř@@ 0.4173833050689783
atu 0.9909489185060937
hib@@ 0.17466970532282358
ld@@ 0.2576920955475937
Acc@@ 0.3872790706635223
Hr@@ 1
Rhy@@ 0.6209369380972226
fab@@ 1
uza 1
Á@@ 0.2383606176414605
1844 0.5667514223025945
Indi@@ 0.10646735102051022
Na 0.9473088570486118
ree 0.24545233694390742
vers@@ 0.05561226652160894
Cha@@ 0.7036214503411798
Patri@@ 0.4163762912740379
put 0.10903495376461272
size 0.15332594731961363
68@@ 1
Mé@@ 0.21019917244953307
27.@@ 0.9743210794219598
Bremen 0.6401577283124138
CS 0.5335978187768963
Jim@@ 1
abri@@ 0.3327495810782449
e.@@ 0.24834285950966434
German@@ 0.5555907641920746
Syst@@ 0.2209369645987735
dea 0.6843865228445777
ose 0.16547362102200072
them 0.03405673450021764
Jur@@ 0.291480709042518
aska 0.5866286037394433
auf 0.009513123258620377
board 0.1234740563179397
ring 0.18005506451585543
uo 0.4631085453567756
127 0.9902565762590032
Abu 0.6331880229997804
gel 0.23987377543073204
1814 0.5554839649048925
CC 0.38205303821747927
fte 0.2606230184136396
get 0.07781029902888252
rif@@ 0.2856868172066498
114@@ 0.8980064434609936
49@@ 0.7139958351241561
Jum@@ 1
fried 0.4995618295313889
Adel@@ 0.37720509686414283
Amp@@ 0.738441521925338
adil@@ 0.9960067388429247
egel 0.448239374446599
rio 0.6249565679481984
CN 0.742001209585078
elop@@ 1
Venez@@ 1
my@@ 0.2086591728645779
uga 1
VA 0.5831503440615022
oral 0.4151403212299325
Line 0.1853977807707399
· 0.04204280967636682
Up@@ 0.5628547172342724
C.@@ 0.4249755251088069
fit 0.2912685425696895
isch 0.048676128019557695
õ@@ 1
LO@@ 0.7347133963065078
print 0.24749639111395755
thy 0.21018767860056206
ór@@ 0.1732112216808009
ures 0.061782811215689744
190 0.9795392700457378
England 0.06888613683963841
maj@@ 0.33015735673657076
High@@ 0.33630562889932375
320 1
alem@@ 0.47038500097805025
rati@@ 0.13218733272666483
band 0.04943603743609258
cos 0.13459675753821781
erse 0.5951672151346976
Cou@@ 0.4275016437637265
European 0.07746179828644599
Nacional 0.1360299571991514
ision 0.17011224231750602
tle 0.3090633976530565
Bret@@ 0.7866122666058529
Politik 0.4827224598321289
its@@ 0.36077721424210984
ě@@ 0.5911724903636191
anot@@ 0.64981084368872
1821 0.5801406327702742
Country 0.31730447845312637
chen@@ 0.2033487191044428
hen 0.46840052213481853
kina 1
was 0.0016647396940012438
Benedi@@ 0.5491005401214546
IF@@ 0.7038454049111232
Roh@@ 0.3924965135064684
Tour@@ 0.13162507294119857
App@@ 0.37196022379634996
XVI 0.41916920385922324
acht 0.08755557514866144
GT 0.7081321978457193
tors 0.07033013179266055
uj@@ 0.7099819738481294
57@@ 1
Pennsylvania 0.2038310138777251
55@@ 0.9050678050081024
Stil@@ 0.3803970457635976
izer 1
48@@ 0.8545373497332569
Bach 0.5321952361137612
Carr@@ 0.5786888982509889
NH@@ 0.27679129454763873
École 0.3916983468992008
aland 1
vy@@ 1
ône 0.3418569579433129
č 1
Land 0.13473358653884634
210 1
inz@@ 1
Campbell 0.46125703580637173
atini 1
sala 0.7468054866022987
abor@@ 0.19096404711561196
bec 0.36297243495905973
phia 1
ob 0.2748001267557309
syn@@ 0.09963785060765883
onald 0.8066365034693517
ophie 0.2454060168691109
uld 0.5097461245311368
47@@ 0.8120366507161351
650 1
CO 0.5394528188703075
Jazz 0.3648803798238885
odi 1
230 0.9816519286643235
aben 0.18835580439158014
berger 0.2593640698605003
ush 0.33319991486375994
Over 0.29778012114771524
Terr@@ 0.3420860043519852
cli@@ 0.09102313457475851
oug@@ 0.2648730978119555
Metropolit@@ 0.35492601642081245
Squ@@ 0.24385352197364007
cus@@ 0.09607828675534356
xi@@ 0.2942523758717124
à@@ 1
1832 0.5463401733211325
LP 0.4118641238220286
René 0.5244044873211566
Sud@@ 0.32445866830208725
igan 0.644734346862933
Ç 1
Japan 0.09531251430876542
aves 0.08238915708398557
daf@@ 1
dier 0.3481896468792208
loy@@ 0.23942545995721373
sera 0.21347719091609108
Classi@@ 0.39007393444850924
tham 0.26843760545328443
Fort@@ 0.5479137879286085
ampa 0.5337602374967617
intern@@ 0.26136971912052903
Sound 0.43720430646989034
opp@@ 0.11249134798854374
pers 0.2705462067518388
CE 0.34064198027866127
Uganda 0.7843878235316846
fun@@ 0.0898473642604443
Nati@@ 0.164665503834534
asha 1
Jag@@ 0.3944997150266876
ands 0.07478918000295558
ink 0.18032983747737386
lararası 1
ois 0.17912358828900166
SG 0.591329936221535
Techn@@ 0.19441945143817468
gang@@ 0.23605261886052734
Crist@@ 0.56322865160954
EE 0.6879724010364522
XV@@ 1
inat@@ 1
radi@@ 0.14085221423485966
mouth 0.26586255739913667
phi 0.8182804691993546
prol@@ 0.41568301021533116
rich@@ 0.0768074525953599
see 0.07565698782715097
Cri@@ 0.22248301531679357
Map@@ 0.6145671496615971
Mountain 0.28544717745779496
pit@@ 0.23824962654715637
Party 0.07621638417993615
agi@@ 0.5619400663023574
but@@ 0.19188145684260127
enh@@ 0.11502083665360299
fur@@ 0.21279624666034716
tru@@ 0.2849138808388844
Battle 0.16354014429116046
iter@@ 0.48674997547931886
Cho@@ 0.524973935017175
Soh@@ 0.9119642120411245
121 0.9646779296151137
330 1
Rit@@ 0.39597679024684657
ui@@ 0.4475629756306645
Champ@@ 0.2417312269898827
ls@@ 0.4673270925398852
yoy@@ 1
Dod@@ 0.4529096244821823
seri@@ 0.219086583677955
Mann 0.27257614411873154
oso 0.13868482802302
117 0.9398465113466721
andra 0.6174220445422219
ites 0.08024839716012541
Nob@@ 0.6051576260998294
thor@@ 0.36256816565342304
fast 0.1365804548865227
nez 0.6522464262137521
out@@ 0.05923817357388221
56@@ 1
ffe 0.23610558472567703
witz 0.543222695367017
Ō@@ 0.8138419722525062
β 0.6238145401379518
Bé@@ 0.46151758775026347
Cross 0.255506797474429
DI 0.6274351154432783
endr@@ 0.3985893835834076
rich 0.23307486835767344
tivo 0.19876853513274645
Head 0.3485933991319843
Stars 0.4576798045813344
cast 0.08568564702945357
ying 0.04522775783238193
sz@@ 0.4671351608644368
а 0.019184877679580017
Over@@ 0.25702952337725216
Was@@ 0.5009977584715672
khe@@ 0.38737220940929107
lake 0.2843568738101664
123 0.9343366797120572
än@@ 0.05319158745307315
Four 0.2893584184310566
NS 0.55354137265808
Si 0.21063868300878352
Stur@@ 0.47695451524208426
ames 0.24673912458059194
rea 0.18472700641592116
tienne 0.3601967633660874
Arkansas 0.45419298059803365
bridge 0.1529749672190659
onidae 1
sberg 0.3599665032274115
laya 1
Costa 0.3063593812288068
Inn@@ 0.26697915946699435
onel 0.25307395211247263
vari@@ 0.03949635647408706
ös@@ 0.2780384650233274
1852 0.43508464822832416
PR@@ 0.5984138048820499
Raj@@ 0.24672016777323652
afr@@ 0.5401089357175577
omy@@ 0.9802582790006075
Santo 0.4757480164169006
Agr@@ 0.21442395277162732
Rö@@ 0.5188357596757671
USA 0.12158261300332272
zus@@ 0.13072771625594498
District 0.05791436478743259
Research 0.149311019173818
ahn 0.30361484297760494
inga 0.6850615288684673
Ut@@ 0.9794898261095643
4,5 0.9844549876899564
Deutsche 0.271047210218279
Pseud@@ 0.6418633553587871
ged@@ 0.3238814840171992
opsis 0.27007684008587707
კ@@ 1
Square 0.3336885624793522
Sydney 0.20091488277394298
midt 0.5254233070780912
star@@ 0.07817860717420679
Wander@@ 0.4894914896611472
IO@@ 0.7013609253482207
Mr@@ 0.36900008875114254
Natur@@ 0.12096715619964389
Test@@ 0.3581198370252394
ign 0.19254119790362728
pedia 0.6039506554650514
Pach@@ 0.7372835360962127
ix@@ 0.4521157445182531
Dj@@ 0.600259710183822
PM 0.7229512599561142
ahl 0.3118063517573969
fav@@ 0.27611152221174917
р@@ 0.03093180576131448
Juni@@ 0.36940900405630644
ος 0.09721700197864946
1841 0.49824315327035473
She 0.024391933720459318
Singles 0.3300023740268309
away 0.09178153376747966
tory 0.15834060155008986
ć@@ 0.934859717798031
Pho@@ 1
trat@@ 0.19193276062684772
Scot@@ 0.3523856092744198
Coun@@ 0.21630941072374735
Empire 0.12653392888458861
Sieg@@ 0.2228365221139269
uer@@ 0.09473561315932802
Sea 0.20437471367708418
acab@@ 0.5255006813743146
pper 0.25146336577318756
67@@ 1
Dut@@ 0.9968746445090463
itzer 0.3726091857008569
pio 0.4998583402453973
117@@ 0.796437852674673
DR 0.5889444188319064
Edu@@ 0.7223994526336563
Er 0.03041606211148912
ael 0.8498574647443157
vul@@ 0.30703256349487396
р 0.024080650823621118
Dresden 0.4224776879333657
ria 0.5452478650832117
you 0.11429729846578986
Europe 0.06343115994740867
Gusta@@ 1
Television 0.304518250291168
essen 0.18237632757410616
ə 1
1843 0.5033168437474529
Poli@@ 0.2364155500885798
show 0.052794157772658175
uktur 0.4647229772873976
dé@@ 0.012639372822099744
gli@@ 0.20884982260735466
ه 0.11655934067766517
rail@@ 0.2837925233588858
alie 0.2841031202226961
itter 0.4527731892416269
ovu 1
sei 0.14453884592802355
1842 0.48035963216848776
Prom@@ 0.2828370962354948
omp@@ 0.7900001248075319
Wolfgang 0.4726344507000332
rest 0.14318405556839794
sou@@ 0.039379820264836156
59@@ 1
Anth@@ 0.4841417008881781
asia 0.5810142669272913
cell 0.2509243431910608
Antoine 0.42588582796697355
SN@@ 0.4477743644861558
eca 0.3869780347752875
harmon@@ 0.2828885286641779
kw@@ 0.28204193366595204
1833 0.5220473756925829
Alpes 0.504883311458968
23,@@ 0.9399127629335401
fort 0.07689574789438831
і@@ 0.8605813742044579
idad 0.052812207304078804
Law 0.16559610011801257
ON@@ 0.4290805679510596
Wolf@@ 0.6741917782051858
oon 0.2828793863449931
tier 0.1460001783646176
1838 0.47729240396397565
Award 0.07656973316225407
With 0.08516018251578485
alen 0.11895135890331139
ische 0.019200419978865624
tas 0.16568067456290683
tical 0.04711792458779154
124 0.8895049292059285
tag@@ 0.15731685735775597
vit 0.5467072194257006
és@@ 0.2359264924701943
Wiki@@ 0.9199537032916362
ono 0.483032758556778
116 0.9033838017273936
126 0.8857772175725779
Orig@@ 0.24079984909527766
у@@ 0.012419207538437503
History 0.04687650719945747
Seine 0.12205977300080662
When 0.06016182050334806
XX 0.2141231158713913
adili 1
ś@@ 0.5417969404671678
22,@@ 0.9597250171463348
Three 0.20929465856306795
amini 1
bers 0.09368845524936663
kund@@ 0.5434777063462133
ute 0.08258466694577586
anten 0.3402401938047565
Creek 0.173521109957896
Depor@@ 0.5546984240821476
1790 0.5936911896731647
270 1
motiv@@ 0.33724844481797966
145 0.9554234386750294
27. 0.3410920378310548
Fritz 0.5166574546207418
finden 0.21210049912828285
ican 0.12978512797049774
ums 0.06506554649771028
ă 1
vor@@ 0.0266076093995682
yek@@ 1
Württemberg 0.5123783138456408
elos 0.5832486959738115
113 0.824702346165792
zim@@ 1
113@@ 0.8224967722949205
Limited 0.45215851102074395
asse 0.14794900029185426
lies 0.08437057951228054
idas 0.12687696942351104
isme 0.09896033579907211
oza 0.7695198517725366
ror 0.31544737265674083
26. 0.315582773087792
129 1
Foundation 0.17937816913243507
dom 0.2611129290512083
usu@@ 0.5708945339729165
280 0.96186865067313
IT 0.5061831619829749
Müller 0.5191180948011591
English 0.053889610326258365
Gabri@@ 0.7821277643852793
P.@@ 0.6358706768426848
edia 0.5141481240287633
otte 0.21773733028896067
2500 1
58@@ 1
eber@@ 0.4155766839179865
oir 0.12070181269347846
usi@@ 0.10962757038799809
wa@@ 0.18870059880500165
114 0.8288996122600774
Ble@@ 0.43225300222837626
Düssel@@ 0.4543907249024308
Schw@@ 0.11037397303445948
USS 0.4555499083839904
Standard 0.3950958795474513
kez@@ 1
ostr@@ 0.6894596481490908
Reichs@@ 0.2643764426447648
XV 0.3726973462283837
hici@@ 0.6587692502732134
roy@@ 0.20702561047779283
weight 0.15653319748369923
ols 0.11647954715469101
pri@@ 0.08573071919356513
1827 0.6007071978128613
quez 0.4738363003456116
è 0.559434026246569
ė 1
х@@ 0.03249004500661528
country 0.05943424539695975
Neu@@ 0.12843070200448803
unge 0.30464569593646557
vera 0.5142173759436732
Vy@@ 1
beck 0.39853370046846065
dipl@@ 0.3785568017730451
mont@@ 0.18569070545615457
Am 0.045004677130548836
116@@ 0.793227096830191
Kro@@ 0.5814148331410653
occ@@ 0.13472268209340016
oven 0.5638883051835945
Atlantic 0.22969010388443878
Clu@@ 0.3794676231710992
atos 0.20510884288843337
spr@@ 0.057971031481091694
Extr@@ 0.47711710621988107
Soc@@ 0.574109661382922
domin@@ 0.0705772446855007
sana 1
ving 0.06891034466018067
43@@ 0.8580767573230219
Mount 0.20043298401049855
Werner 0.501619767994857
aud@@ 0.18449723254362688
260 0.9475230557048344
Franc@@ 0.32157489485090945
active 0.08905376228334273
Sá@@ 0.4204199205442215
lion 0.1303392804964862
ques 0.025390309142652244
than 0.02243555521809012
1808 0.5671387745088826
Fe 0.5824526962043846
Inc. 0.28165528259585515
Service 0.12680371681054656
arch 0.1559408687301656
get@@ 0.09980251185419035
How@@ 0.4042959607589454
duc@@ 0.08960342154188178
wards 0.12933232964483138
Bridge 0.22390213539813955
Köl@@ 0.8115381201106594
tronic 0.29332393024521064
Columb@@ 0.5869879274305454
born 0.021713623353000065
deren 0.10566685914802625
22. 0.30387054822493903
Technology 0.237260305898552
edy 0.1459673040802821
1300 0.910726460149925
Comput@@ 0.3713760271647552
Spiel@@ 0.09647816909526925
dre 0.22519305825579622
dren 0.3475663145664348
1400 0.994226273457178
Ear@@ 0.3724309307124259
Sa 0.16613516058911604
sea 0.10162272627572104
к@@ 0.019050169183525287
118 0.8940132847052261
Doc@@ 0.25486261653237996
Ent@@ 0.09393645358363562
vu@@ 1
programa 0.2423567365580093
Córdoba 0.5516950227410167
Dame 0.30229507737883227
He 0.006307429954269111
cer 0.19720661787682886
jana 1
berto 0.7334928904540204
führer 0.3293392094646117
Publ@@ 0.21474471364828665
Miss@@ 0.47802961890804035
allo 0.3689484807449538
Buch@@ 0.1465170511748326
Mau@@ 0.29497999157559973
aku@@ 0.9368257272411179
angi 1
ستان 1
Major 0.16873875696403687
haus 0.1561765598754062
ping 0.20262519708646115
tempor@@ 0.11035586830038126
umin@@ 0.15976704105796483
court 0.07769675556070263
polit@@ 0.6566034332619081
sive 0.04812876277361165
გ@@ 1
1806 0.4774714736625975
García 0.33872897511406214
China 0.06365725394547755
kari 1
bia 0.5757069154991024
bonne 0.3405858323469419
oti 1
wh@@ 0.046351937871133404
1810 0.4818979780476427
Alexandre 0.44941243135579007
apo 0.6709546750786681
elles 0.04720146713858396
Ł@@ 0.5054747752467256
bei 0.013021911893681614
ilio 0.34778983414730674
tari 0.9183722420788645
Ba 0.4746469001774412
Brig@@ 0.1514654819138918
Kiy@@ 1
aft@@ 0.2997990311226856
life 0.027407991727505795
Laurent 0.5022120646841244
Poc@@ 0.4815282468622877
Kag@@ 1
Tang@@ 0.795215887483367
emo 0.5726534544990185
isch@@ 0.059492196365209506
Dru@@ 0.21059283276252488
eko 1
sia 0.5761514584994465
N.@@ 0.6034678436901556
cot@@ 0.1885543147062566
erie 0.12296365609737965
irk 0.36051035538604276
ingi 1
ive 0.13899228139828862
Mann@@ 0.16784218136580104
Wak@@ 0.5805262956789263
anni 1
batt@@ 0.1196015500581191
rac@@ 0.05391462795682814
tie 0.2360898423637295
From 0.06421872765230714
Penn@@ 0.6521826286086717
132 0.9321629923605786
155 0.913385254389909
oft 0.19946430201761528
1813 0.4765585306425838
enton@@ 1
oul 0.29011143203718603
vern@@ 0.21716840851355193
xe 0.12044040229340458
Bass@@ 0.3889453464420844
Dar 1
K.@@ 0.9039525004036846
Norte 0.2975236657538922
param@@ 0.33302862562533864
water 0.04683133818008559
Card@@ 0.25514320099983057
175 0.8254182787150467
66@@ 1
Independ@@ 0.18427690953500173
che@@ 0.18301993925925375
ior 0.1058193285817997
rus@@ 0.2911606895010213
EC 0.5029557105271737
Fall 0.24685660179835686
naf@@ 1
sag@@ 0.3082480041265007
1819 0.5681259236309655
Bib@@ 0.6749853924477633
Fener@@ 1
Software 0.47140348801499576
ading 0.11860512194125127
Canada 0.05614854863422419
Imp@@ 0.29525802164090664
Place 0.3413973887430748
ext 0.5018190201228788
ás@@ 0.16763137314675705
Đ@@ 0.10563039106601255
Duke 0.206482241605133
Vig@@ 0.6870334431064917
phon@@ 0.209210263574954
23. 0.29719137284175684
arti@@ 0.10534251429200751
dete 0.12286032949562269
vert 0.3946117850125527
III. 0.4307808811835373
19,@@ 0.7183650240347139
Hoh@@ 0.24881620410509128
ating 0.01928755816807893
c. 1
ր@@ 1
24. 0.2922406604634865
Un 0.06396539928820708
hang 0.20778058350457676
ę@@ 0.3841834066958506
1793 0.48525040254990365
bara 1
quot 0.5159422032967084
й 0.016014619899659743
iker 0.14943476347616205
nin@@ 0.25205882783382355
ories 0.06293405242989722
s.@@ 0.8822635994196526
Rat@@ 0.3454300562071754
dro@@ 0.07918796827348466
ox@@ 0.09102631340846679
Industri@@ 0.17168722988264976
tion@@ 0.05378704232976999
ural 0.23500507372311982
Québec 0.2705355643413899
adol@@ 0.3136775253730374
fle@@ 0.07454354663117864
gro@@ 0.03901910890576604
zum 0.014295882702672595
ò 0.5283800117066032
119 0.9318525051303204
gens 0.38747847738098107
1792 0.5447215577521781
20,@@ 0.6906105382703909
Jor@@ 0.7086583831071499
einer 0.013776154236586645
king@@ 0.3238135405075619
vie 0.0922714109909351
Gle@@ 0.3790864423348039
If 0.13392736973771402
round 0.056212464749966225
н 0.01679710940323444
53@@ 0.9272164230152442
After 0.02348896872504459
ulia 1
26,@@ 0.8745636238379106
Gest@@ 0.24461531165735276
Gott@@ 0.4055516023445706
Lima 0.435128136815033
Will@@ 0.3398186567393063
aise 0.11247940204339035
change 0.05678479048188651
Fall@@ 0.4140755800044458
Führ@@ 0.23736727179613487
Rep@@ 0.5021985748760531
Viol@@ 0.37185150670190303
شه@@ 1
dra@@ 0.05942784958426143
1825 0.4657631592292448
John@@ 0.45163334919355
anthus 1
bis 0.011361045019154165
enna 0.26364923651124406
enten 0.0964553148282293
market 0.11218957525034026
uku 1
Aug@@ 0.29158976289229205
Hern@@ 0.4512332610050457
berg@@ 0.21155928260834744
duras 0.532867616433132
Gut@@ 0.3273865965637719
Sonn@@ 0.2892006249471107
brand 0.22783061214289949
hausen 0.2693085812232621
icul@@ 0.13997184492850254
López 0.3895635040877275
erb@@ 0.2663496294640271
éli@@ 0.19397391164051975
artisti@@ 0.23945495304368034
d. 0.33607310013621083
denk@@ 0.4123968767845202
last 0.04578202033358775
oides 0.40446608592559846
performan@@ 1
rain 0.22886740700539066
ո@@ 1
dad 0.18010206133146528
nier 0.15412666721357912
pu 0.35778932621803256
О@@ 0.01951907244796344
Fam@@ 0.400620864624857
arra 0.3045665177430386
doc@@ 0.07977967682859437
Rac@@ 0.5271245319643043
poly@@ 0.1822467621941878
ysis 0.1559633052312914
152 0.9319246236864844
Gonz@@ 0.4865344325235556
González 0.4087762279146781
host@@ 0.10291299279784172
pool 0.30990101930642516
380 0.9999087427341833
azu 0.39095301263070004
0,5 0.7153702279550551
ages 0.02202444471362512
ingen@@ 0.3148892477924824
orb@@ 0.2392037360910988
ís 0.40252679614140974
wor@@ 0.028698775419578798
ს 1
1804 0.5657821521092099
ead 0.19146348594376975
ety 0.05056110409125579
inas 0.13010593010374802
lec@@ 0.1274361268305889
América 0.2641570404881998
Under 0.16302165064245117
body 0.0719941820291533
deg@@ 0.6500366362817179
э 0.2082621255201962
Lic@@ 0.4108886496254847
Song@@ 0.6617994104133132
bell 0.6701757454688076
enth@@ 0.1229772919961989
anza 0.1592356938342581
1809 0.518259551488586
Bill@@ 0.5742767372338851
Herz@@ 0.17569472456112523
enz 0.11057294254479146
л@@ 0.017249924075205262
1801 0.4950956257567918
1822 0.510049700868975
Amer@@ 0.31075845745553116
endel@@ 0.7874038678912919
ial 0.13088552604349385
Cath@@ 0.226878817285202
Kno@@ 0.29423082269845474
Maf@@ 0.8822108564112167
affen 0.2661055618289809
aí@@ 0.588610996549759
kali 1
sah 0.452457848662507
1818 0.4668810605931087
sing 0.0734948114729885
на 0.0026672623494397745
Alej@@ 0.45136669475149666
Eisen@@ 0.1654048518518053
Phys@@ 0.2802554053324612
dium 0.22832900109017018
black 0.09606784109754814
Alliance 0.30059438881985945
Bach@@ 0.17798385432379255
Refer@@ 0.17939538062727003
1816 0.4692285071872361
Sph@@ 0.6623232072117564
Val 0.40225292996764284
cit@@ 0.0922978185107604
kata 0.8292225530764366
1807 0.5251770131967678
Year 0.1328600263413292
auch@@ 0.38081892537896317
right 0.05744885679316731
Field 0.19863300300775072
Hier@@ 0.29164461034865446
Suc@@ 0.3823494768292808
Zu@@ 0.24798883632362956
nec@@ 0.10638559211984379
Tenn@@ 0.29471096854239964
adio 0.30071186528423566
imen 0.2586866838633985
itas 0.31016283088375507
uel 0.27975647492648953
Champions 0.27421693252040313
Coupe 0.19843005962786636
Famil@@ 1
erh@@ 0.10467448089713999
qua 0.14004754627238367
ras 0.3330444430134535
sten@@ 0.2879280946840613
dej@@ 0.2391949269835057
imin@@ 0.32828444810622526
law 0.05129680469927845
Chron@@ 0.3184804008847648
Ou@@ 0.27050954676836486
Viet@@ 0.53837251505207
alta 0.29747525562573834
ț@@ 0.6547084870365605
199@@ 0.1168864036692741
ches 0.03549054442794138
flü@@ 0.3586171326956927
Castle 0.19932544786291698
asis 0.3085302419687506
ils 0.03126997623207651
Chal@@ 0.4388361988447068
Sach@@ 0.31381522258990946
acle 0.24718220741838287
hot@@ 0.15461251139330479
asc@@ 0.11750592688772914
cim@@ 0.4512633870590042
nim@@ 1
onds 0.23420110453106172
taine 0.2651092114194025
1824 0.45594148873349444
Haus@@ 0.13799265192093346
ense@@ 0.18538985746172867
inv@@ 0.0400493880603508
itali@@ 0.1925374159067279
ouv@@ 0.07852398211401183
Desp@@ 1
Vladi@@ 1
pen 0.17876959550139407
bao 0.16398935123828895
oll 0.3048982676308334
orn@@ 0.23063057958152844
24,@@ 0.7621361946336492
oux 0.3083501104596918
tag 0.14981072642609727
cum@@ 0.16644623249204613
Lö@@ 0.32835220235159635
enst@@ 0.15374061843589554
179@@ 0.4771371816752199
Elisabeth 0.4048923830932975
odes 0.10851763869823244
ongo 0.6115406716857756
rant 0.12530075429408175
Plaza 0.3808381150207139
Prin@@ 0.2017916214243059
amount 0.16236608339281838
ector 0.3048322134741028
Bür@@ 0.3196552826822745
Das 0.016999537186556134
pic@@ 0.07498760031082402
--@@ 1
Alfonso 0.44652679944529056
Anh@@ 0.2291435088124107
Fernández 0.44054240349901064
quin@@ 0.23813345250859544
real 0.0852303027701704
self 0.0767553985059176
sions 0.057378776796547556
ël 0.2823107818785734
Hamil@@ 1
Sin 0.1192440392069117
Wan@@ 0.7073096018451398
ball@@ 0.12698939684574082
cine 0.11831491751459079
iku@@ 1
sdorf 0.2758628723370871
Guadal@@ 0.400623535769067
lau@@ 0.15014247660243854
ofu 1
reci@@ 0.08203605919660775
1798 0.525004682826351
Tex@@ 0.1356750568058197
ads 0.08593546686364574
cyc@@ 0.2855145714982716
Bras@@ 0.33870975330701947
bourne 0.7538341745537706
nde@@ 1
color 0.10349254043448042
Winter@@ 0.23825251006941814
phone 0.19440511189116386
Coast 0.16610187981100388
osi 0.9977454434811037
tum@@ 0.3387659139796881
Commun@@ 0.09316427559354427
ausen 0.23337341638570952
cartes 0.4303107789734069
ustos 1
к 0.008595738097137817
eas 0.20778776892464834
lug@@ 0.22870204828323845
ʻ@@ 0.865467242627354
Ib@@ 0.33103749895482737
ata@@ 0.6542933959768625
firm@@ 0.20498824588787343
roc@@ 0.16480766480765285
veh@@ 0.5292751282314099
absor@@ 0.2502654318776635
eos 0.3893136648072388
night 0.09615508023230394
א@@ 1
1791 0.5739702542962114
Centre 0.10349489760008725
Human 0.2503972688430797
Wis@@ 0.5538048460927438
aji 0.4826001817021336
eur 0.02930367882942458
monta@@ 0.37515094090830864
Econom@@ 0.13513810804396442
stock 0.1651324465310938
text 0.09824874370379118
Franç@@ 0.27118237395307465
orio 0.15362831143487804
tera 0.1784120510181672
amed 0.09153423925412905
micro@@ 0.15849734781839273
Eduardo 0.4744908338641547
Olymp@@ 0.5746017386583793
death 0.041716212221782595
ock@@ 0.13474922774879003
Ost@@ 0.12717653958206931
Schne@@ 0.27307590129255943
echt 0.383918904176559
erre 0.2367408760866491
gos 0.2753574306131349
rh@@ 0.19179461694195707
kid@@ 0.3880148324087661
oras 0.27003542798768587
phy@@ 0.2663589741995398
ш@@ 0.014552403437919598
Hyp@@ 0.6018855111466769
Kais@@ 0.24026737738113768
Lew@@ 0.8149640748151903
ingu@@ 0.14551535640864063
isco 0.8680408276253139
jit@@ 1
ubil@@ 0.3665320336902792
г@@ 0.019231305170721264
Rodríguez 0.3960782483941649
arron@@ 1
flora 0.5875563379417333
wid@@ 0.05665837085364037
ר@@ 1
cho@@ 0.04565636254368637
tain 0.04423992889256027
efe 0.4326859815694838
inson 0.8322176175126688
С@@ 0.015486666858915721
Design 0.2108850920309632
Europa 0.10195028650993997
meth@@ 0.08270572820677155
1817 0.46289617995209376
craft 0.26862598027141354
progres@@ 0.16913492510120764
uss 0.11557830996569121
works 0.04541464468772161
ه@@ 0.07924987863552985
Asi@@ 0.3341858974806878
Bish@@ 0.14736654434453098
bio 0.30813889322005117
cou@@ 0.05454829389976679
embran@@ 0.3101257613361504
± 0.9488771199116435
Ál@@ 0.38738497842912506
μ@@ 0.0989927816758713
м@@ 0.013468289058567135
1805 0.49386397823828
NFL 0.20689453236519117
dle 0.11012309588109793
olds 0.12270119986204898
spo@@ 0.08379346763243517
abu 0.913026519638898
left 0.03489791899489697
Philos@@ 0.18898062671455368
Premi@@ 0.19526271281461832
States 0.021415711634510944
mis 0.09591067851379843
rd 0.121986382520776
ß 0.04878640613800351
99@@ 0.9111320816508062
Nom@@ 0.3963308635068838
Special 0.19141947813469992
casting 0.173339368790937
onde 0.22799519919894853
world 0.03759617053266652
ý 0.1690432956381292
ტ@@ 1
1797 0.5523271898900254
1811 0.4748101403322325
prise 0.10730116273331779
Î@@ 0.3978976591352194
Braun@@ 0.3796822328940554
Bundes@@ 0.07245228932402122
ause 0.1019739451468677
unga 0.7638165220456404
Eff@@ 0.26291765100763115
Winter 0.1794971593675156
unds 0.06157571780634574
Films 0.287960727484467
Liter@@ 0.17302585210172866
1795 0.4895398265177546
Wid@@ 0.2477055584288836
avia 0.46276858666972864
Main 0.15642630953804978
Tech@@ 0.29885692231727917
atic 0.07943306836051656
lea 0.3034873942031364
prin@@ 0.10389279428033914
ules 0.07545599938933488
Ha 0.3201464185675062
cy@@ 0.127355306831581
imp@@ 0.04931982925098915
tend@@ 0.09942623245123305
wak@@ 0.18090443861129507
1823 0.4598782197501913
Mar 0.40242367572880716
There 0.029937402595362508
flu@@ 0.0806799254027722
role 0.047310164598804424
Emp@@ 0.20401035744609655
F.@@ 0.4862110070132436
Obj@@ 0.20969524286917932
but 0.0073647746595187375
eon@@ 0.6661267193484905
Loire 0.2933731484724147
arts 0.11418123774998609
zel@@ 0.6563728197819964
Bas 0.36074596726377445
anci@@ 0.06331675968556462
Anadol@@ 1
anst@@ 0.22295565028659547
arios 0.07536027095118257
other@@ 0.1483318518320326
pati@@ 0.11213145718014211
äl@@ 0.047419954743567416
Public 0.1147862034283361
double 0.10710070295604558
rail 0.23262820303336432
25,@@ 0.6877000784176406
Council 0.052224976814645024
Hof@@ 0.19415488301482145
Papua 0.9109643760671816
Ré@@ 0.07455870512065996
anger@@ 0.2175072994828873
ground 0.0500329986041564
occer 0.1859126587435725
1802 0.4620668808478062
30. 0.2102535080396581
Ehr@@ 0.15875571890235418
Jesus 0.2351489654300349
inj@@ 0.12193197770253458
Church 0.050683478456476215
kik@@ 1
ool 0.746866399334572
vio 0.2957697561171284
España 0.09148878462583704
Moder@@ 0.2830998147273589
ross 0.4679736248468319
Uru@@ 1
leist@@ 0.17661092001318912
retr@@ 0.13800518308039458
rier 0.17978449107112474
ufu@@ 1
ե@@ 1
Gran 0.20101669733518615
assi@@ 0.1529469980549659
uku@@ 1
21,@@ 0.7043233708459358
Austr@@ 0.10605836214850135
GmbH 0.24991547175911116
ambo 0.8838273209867389
beg@@ 0.03745599257145114
defin@@ 0.06573677250804777
western 0.07085433774490102
work 0.018451305976663973
Ago@@ 1
Kingdom 0.09087934355421605
ą@@ 0.471613227257963
Eis@@ 0.224828240954726
chan@@ 0.08889472260955772
live 0.0622970239660067
onder@@ 0.1746056384518806
س@@ 0.0822408158932065
Dau@@ 0.3847650977791763
Kapit@@ 0.2695194896620838
Second 0.09741976540756121
Stadi@@ 0.3757875121586212
ship 0.031428466067615256
toria 0.710538538834614
Dé@@ 0.09493094003814481
enia 0.6325227691325698
zis@@ 0.5969910491469123
Río 0.21234545592527873
engo 0.8975592652221974
má@@ 0.08520264326228107
fem@@ 0.12057917925040773
global 0.18510197273384943
nad@@ 0.9648313289322059
ographi@@ 0.1016157724876917
viv@@ 0.08114679536806094
Audi@@ 0.29848992261203783
Kik@@ 1
Vinc@@ 0.6126445020574407
format 0.13815132078712322
magaz@@ 0.33863420931270705
ppi 1
verte@@ 0.19251290653912123
ქ@@ 1
Margar@@ 0.42185352771007323
azo 0.24245055617139266
asili 1
lag 0.06641019438783764
Bibli@@ 0.1650254921927807
Memorial 0.19420831932064977
Nord 0.09197569891584566
Quer@@ 0.38892648327745094
Universit@@ 0.2020730946210958
entry 0.16336246549540598
tice 0.39155819138699427
wing 0.0388016311080284
1803 0.3949712594964417
Mia 1
Sign@@ 0.27055576451793467
ampli@@ 0.18834001563111796
chu@@ 0.31320791645697466
phil@@ 0.22485636459217778
war 0.005707480274002457
5,000 0.2713034401187872
atu@@ 0.3156406013279897
utz 0.250467735103416
ő@@ 1
aup@@ 0.2519737299028376
atz@@ 0.15448329822683673
ext@@ 0.04686504665085315
quit@@ 0.10150415541959491
rut@@ 0.45320451228697956
ladi@@ 0.6035043644356168
stre@@ 0.05159459830001736
₺ 1
Constant@@ 0.25743673087924346
Jung@@ 0.294875770683934
ening 0.12269416218425024
1794 0.4525030470914362
Inv@@ 0.13702615465481266
new 0.013183854378357441
● 1
jar@@ 0.33742649777034406
opus 0.5314623298837143
ն 1
fru@@ 0.12484929372030917
ires 0.05455486625455066
Wein@@ 0.21786099434627612
Dop@@ 0.9406152451889711
ird 0.2043063273562516
mile 0.16110022509383848
Theo 0.30694130396679276
drei 0.041104631454868125
ác@@ 0.16831782252830854
éc@@ 0.0659524234041859
د@@ 0.08268504843900033
akula 1
omin@@ 0.2729361707948597
pro 0.11826047089992205
station 0.024700460207180613
ég@@ 0.04379106675982388
н@@ 0.014915879629625433
Martín 0.33379831250407754
endorf 0.2401253156919266
quel@@ 0.19013487705643406
Peti@@ 0.2585458643161725
Seh@@ 0.38850543180932123
forme 0.055067975253827374
recht 0.14393921255182296
Herr@@ 0.12094022780845863
mari@@ 0.09257978128521938
sian 0.16189733965508674
ν 0.14615814571037983
Enrique 0.3393035328934012
lery 0.14477984591869353
Studi@@ 0.0849105862238813
obr@@ 0.5098761314069967
sie 0.010038542714645257
Autom@@ 0.21028813572767857
Fron@@ 0.33720440717160627
Int@@ 0.17649200222658376
multi@@ 0.11573052615082581
qui 0.0065506929471306425
Nap@@ 0.2980663836176427
stream 0.14156761711448318
Du 0.2173285975234084
Earl 0.19776260518266173
Production 0.1895234748344728
Rug@@ 0.9847874057117136
XVIII 0.23227626248722896
cip@@ 0.08162110250252856
entes 0.025913199864282605
pez 0.9956156389120099
seli 1
Township 0.14548596565988783
amos 0.24815731277501443
background 0.16494144310581693
ble@@ 0.09228541359066683
lois 0.2614793248489651
oun 0.31650846319467735
vas 0.22939091440245415
volution 0.18284092167212815
Chi 0.4361401413711313
Chrys@@ 0.6617891911535831
Contin@@ 0.2194741933191568
Notre 0.2663569874327725
mid 0.07991491983155098
Order 0.1274630876501648
See 0.14236374028907858
ering 0.059150088505590094
onic 0.19351400995580326
Fren@@ 1
León 0.24252272012480758
Thé@@ 0.2522717330134332
demi 0.16853845203379553
acia 0.2333892483072189
infr@@ 0.14971971237259252
refle@@ 0.34814399285698333
Associ@@ 0.22504938245997824
Guillaume 0.3324327287048366
Pf@@ 0.08472237045607725
eben 0.05794419068180318
wie 0.022178046356211036
т@@ 0.011644339871180433
ь@@ 0.022550068288023407
מ@@ 1
Hamb@@ 0.25297831680105465
Sciences 0.16842677856020297
ń 0.4924006408495346
1,0@@ 0.6183255333749046
Crim@@ 0.24067069160298388
Vari@@ 0.12769619241726915
illing 0.10812309969381023
sac@@ 0.07774276438363076
sorg@@ 0.30348585756687085
French 0.034336281301963464
Name 0.08627348089680277
Soci@@ 0.13776645025188589
Wir@@ 0.10205413060052974
book 0.036385019005916786
manif@@ 0.26383654840200593
othe@@ 0.21327400731880372
tig 0.09068820567096653
cher@@ 0.10607735006484821
dot@@ 0.1793110065933314
ful@@ 0.23741835893173827
ishing 0.055732686447852946
Alfre@@ 0.6569481535680174
allen 0.11612650585086663
eiro 0.9416403821985702
onen 0.057373630689104345
Indian 0.055725463087342886
Kirch@@ 0.1358749843759246
Management 0.17490160694443652
Theater 0.1518450442328752
favor@@ 0.08880188966042456
ords 0.06930762268315206
que@@ 0.1023925860298089
ingi@@ 0.8427206032667853
ouvre 0.16996308388528836
raine 0.37064287936254153
Catal@@ 0.30494776549337277
Pacific 0.09744053502587094
ambul@@ 0.5966474740621273
olia 0.3296436468433762
Medical 0.17581516002071645
fis@@ 0.20709133294714696
gers 0.1870368327270653
mad 0.3941315806172499
ms@@ 0.35504744593340903
stand 0.03901988692667838
Marse@@ 0.31425553349677904
Southern 0.09974110161638819
Stadium 0.1367531783976922
bid@@ 0.4085622303391864
ς 0.1588859321598279
India 0.04206885992914505
Schul@@ 0.0752533551336555
Social 0.13468553088904398
enda 0.11813367409744974
kho@@ 0.38874372001963625
stead 0.23847074972695306
nig@@ 0.4210190585847776
plic@@ 0.0850377682446921
table 0.09440180627238229
wel@@ 0.0780785978697228
π 0.49651268052093583
1799 0.4634933111027551
Community 0.1650217098720048
Trich@@ 0.5774452906665042
huy@@ 0.5634921516727038
onym@@ 0.14478515489951485
this 0.007344359668564267
tista 0.2818536114541049
Station 0.09106686425956231
Wien 0.1378769428412665
bili@@ 0.19063850672879273
jeni 1
thing 0.08304071780257878
ב@@ 1
alto 0.18400774210552795
coun@@ 0.04122375250629471
stanbul 0.40869593325485876
Anto@@ 1
Sour@@ 0.23706572577997304
cab@@ 0.060324747184250446
oc 0.29131737498902477
ité 0.017639199727952845
ogne 0.27573846568160715
Cô@@ 0.3314017738238133
stop 0.13636178352989772
them@@ 0.23250689814853645
ühr@@ 0.20096824217721332
т 0.008666281323087032
ე 1
შ@@ 1
Development 0.11862331654415831
NAS@@ 0.4433633493677894
asisi 1
later 0.013200223430376282
lie@@ 0.13778889593137317
Alli@@ 0.20086358693791434
Chor@@ 0.23527070594531485
onc@@ 0.13350146229044646
üssel@@ 0.5989518200251204
д@@ 0.010595967527924964
zia 0.7510008555168769
ì 0.3936964375414808
fund@@ 0.031870917793486046
igen 0.023135518589508238
venti@@ 0.18536875050302387
g. 0.15405630761604489
seau 0.21398210181931884
vez 0.05267856861874249
198@@ 0.26127971828079266
----@@ 1
DV@@ 0.47636280655369745
Primera 0.17752234622225532
fish 0.12304014756202288
spi@@ 0.07554113723575748
Áng@@ 0.2409367786666501
đ@@ 0.05194048945800894
Feld@@ 0.2144308508830182
erst@@ 0.06104284821055134
west 0.028688957196292057
lich 0.014463293438183382
ţ@@ 1
Burundi 1
embr@@ 0.16487109255050994
fire 0.06770118446636553
rig@@ 0.14086992220188013
Code 0.2390553857428477
Republic 0.07284874908018814
onz@@ 0.23635644963553573
serve 0.07206698709015337
بن 0.170558536113363
Buil@@ 0.12945021517436126
Court 0.05679043725375754
Makao 1
München 0.1321555755738679
age@@ 0.23962848767649528
umi@@ 0.25112805472450395
Fré@@ 0.3062567275525645
sto@@ 0.11508272431199558
Finale 0.19489750808239698
asser 0.19999520360028153
chia 0.27668788489448043
four 0.018738954185069222
icio 0.1029179391213285
mente 0.20349744665641792
Chel@@ 0.4333095761928807
Pérez 0.32043426611266335
SPD 0.2810383787339016
aum 0.11296551238851416
ebo@@ 0.2755248565848759
ties 0.018790920238746945
tres 0.023989641766984038
tropolit@@ 0.2640669996848917
umba 0.4841016316369961
Armen@@ 0.1543548792203611
Yoh@@ 1
ament@@ 0.1005055419886939
anced 0.08474724778104965
ives 0.07394800748258912
Т@@ 0.025235529306668777
10,000 0.2908550967358871
emer@@ 0.11937376981263856
sula 0.14188090777238377
ː@@ 1
ה@@ 1
Asia 0.0991175561552471
Klo@@ 0.21091160351744406
erra 0.3351969704070591
igi@@ 0.18234226832113093
К@@ 0.01997605236962334
Itali@@ 0.22478117288881572
ә@@ 1
Chin@@ 0.2536397006260341
Ufa 1
θ 0.7809790782010727
ان 0.07013982922453321
Casa 0.2709430736077879
acio 0.19299175711071404
deo 0.31060441258447546
lez 0.761787569792643
И@@ 0.01674054476333482
adu@@ 0.25587710571133715
ails 0.10897195203307733
amia 0.9347241167204747
lower 0.06157961488048221
py@@ 0.30771332347790153
quer@@ 0.2255974309540072
и 0.001384183609375167
Board 0.08911398001676284
Für@@ 0.15955323703246013
ects 0.024127710926468406
з@@ 0.014674666064108036
Deutsch@@ 0.1774133648327315
Lie@@ 0.10864063367995394
Stra@@ 0.17167506020011405
baya 1
determin@@ 0.07886919326053458
etos 0.28447043200378275
iba 0.3712680062726689
igne 0.21648969994197897
Captain 0.15131029999070436
front@@ 0.14126219580310545
quet 0.24351566663115795
schwe@@ 0.2316645111730304
ã@@ 0.6717277161359873
edra 0.2515562796712554
ologies 0.17412690703140368
thus 0.08285912383843534
ø 0.757991239560689
с@@ 0.0074111220638172215
Alab@@ 1
Dist@@ 0.18443346422359183
ación 0.006525366467687622
ück 0.10213636336849052
е 0.005903330190793083
Justice 0.12356168577020248
agne 0.0907982147868022
ción 0.018484233788069713
plex 0.23119487348304898
ł 0.9296645841661232
у 0.009219752570067451
flo@@ 0.03963624966561149
iny@@ 1
ל@@ 1
IB@@ 0.4252792423010586
Es 0.020040657233171284
Marsh@@ 0.43678981498349906
Martínez 0.3525486566932465
Nou@@ 0.3045464830660021
engine 0.09943028359895353
power 0.03854419100106946
His 0.021159397933685386
König@@ 0.07379362174569788
Por 0.08121013911184621
Spi@@ 0.15577862554384833
jur@@ 0.04365197342907156
División 0.14535686420731603
Estr@@ 0.3191372104325035
Ges@@ 0.04555131069174381
Meth@@ 0.20229657051332475
Queensland 0.1700841379970071
cos@@ 0.11033568125116752
struc@@ 0.043116138673327475
tuy@@ 0.6249767166394906
utar@@ 1
вич 0.06817476749743863
Gó@@ 0.33131482069525786
chil@@ 0.10415983923515573
eps 0.17194401640647491
fore 0.0600311031289749
ز@@ 0.07959193455882257
Sax@@ 0.21593092854486473
grad@@ 0.15599914826724193
itor 0.11362118075547327
pole 0.14740625809347171
ysi@@ 0.20300952989523852
ė@@ 1
Ś@@ 0.5086264196220024
Chic@@ 0.4895633565655444
atia 0.24581753139906648
atrice 0.23027864477097132
ndi@@ 1
ã 0.41430654743867973
μ 0.26421150830632645
acks 0.0737029037338447
ective 0.04347716001303715
ications 0.134101408654722
optera 0.4959469289451139
shi@@ 0.06217567746347347
ño 0.11428163698482796
ι 0.10428166292349329
в 0.000986302655965563
ש@@ 1
Roll@@ 0.42509505750193755
dice 0.14990967121204946
enga 0.6401138837516988
ident 0.04095821882325729
istre 0.36474616808026794
sters 0.19249334210239474
л 0.007242330663735516
ehem@@ 0.5039455205965794
ω 0.41363045021977785
بخش 1
Heil@@ 0.12847066958206171
Hospital 0.10115402972351702
chem@@ 0.06943517962552034
cri@@ 0.03262921172656128
perial 0.12060628554837226
ög@@ 0.3354771423655297
Federation 0.15837531079778086
Priv@@ 0.18015897898697963
cent@@ 0.049360787380849036
cover@@ 0.10312154491229536
same 0.018557429942572444
ères 0.030312738199473103
Chu@@ 0.5045590852162462
akini 1
muda 0.6440260094982332
where 0.010024330209031406
й@@ 0.01230102483891248
Cari@@ 0.19358816599095682
Haute 0.26382454238556247
anas 0.0888760156768664
cep@@ 0.07617507830677073
idos 0.04893667673572858
onio 0.7226294937453941
Wür@@ 0.25883660871612185
anco 0.26149292713492694
ieve 0.09888935564351632
nationale 0.06682756519777165
z. 0.1096284536690314
Milit@@ 0.0961414979178341
Pueb@@ 0.3116394069012401
acer@@ 0.1929568882888672
hon@@ 0.06343808123208707
pur 0.18532363848117234
ées 0.01110862413925494
α@@ 0.09770601406176498
о 0.012597358936561179
Como 0.13743784976019713
List 0.0644026619110663
Oly@@ 1
XIX 0.11605323952645086
dru@@ 0.0641522631711873
eux 0.03749688447625782
xa 0.25469475234113226
ն@@ 1
Urugu@@ 1
andere 0.09573533331823225
aper@@ 0.26790525147992567
iza 0.3155837743529992
lima 0.3912202115087462
zant@@ 0.1910460052083107
Kanton 0.23368516879091014
eco 0.25910059157407467
hof 0.11909884802504973
phyl@@ 0.38006608568479333
sti 1
Rhein@@ 0.15942738680982432
arian 0.06973029498729728
elling 0.05833776847432085
scher 0.0667299935040681
semi 0.10530095989190079
young 0.056297755142555826
point 0.02841400603082589
յ@@ 1
come 0.058700460631814944
edom 0.12877730825145917
terr@@ 0.15790026406919186
Israel 0.08171128505002563
wol@@ 0.23323201356519976
év@@ 0.05417693645601972
Evangel@@ 0.17875640889834618
Wales 0.07866549869659177
data 0.06649299797582647
hindi 1
ien@@ 0.17838526028976814
ising 0.08357018696451138
ning@@ 0.12840588275216872
Album 0.08556801476008988
Conference 0.0905789624051271
Temple 0.16029910538472042
marine 0.0884635532339414
Ø@@ 0.798864221845061
ôme 0.1694845423401375
Army 0.0382637817592444
comp@@ 0.018939715168783407
deter@@ 0.21871777680564006
oss 0.15964958774069582
seu@@ 0.3658155049533551
uso 0.05618613920519789
uter 0.08171223907692073
ù 0.4032560170262021
ы 0.009346535534353526
achen 0.08454941051683634
eling 0.1253461017256843
Ó@@ 0.33954050588260587
Malay@@ 0.357473650441501
Revolution 0.13352774260365155
after 0.006964734386089169
esch@@ 0.07684353454273296
ween 0.1287410105515194
zile 1
Canadian 0.05544028075001123
U.S. 0.03073331531158431
rid@@ 0.10571629206665104
Emper@@ 0.1283659590156851
hand@@ 0.026841512395515892
thin 0.14433788132650083
ues 0.03664060086338222
érie 0.18719343181753825
Archit@@ 0.13298454433441234
kers 0.056295579642359754
Act 0.0556804915564341
Avenue 0.10252066263857347
Library 0.12554037224659745
Minn@@ 0.976974233852559
Town@@ 0.40550789393583775
Wild@@ 0.15792173813521637
bass@@ 0.10212386692561796
iden@@ 0.18341183011245263
include 0.02556447848710522
ump 0.2754669534471717
vie@@ 0.0410842575438283
Ú@@ 0.39275986122880985
28. 0.17097391778916524
Flu@@ 0.17427580865502593
Mt@@ 1
aces 0.061262825662339725
media 0.04624600291517987
ths 0.10108008777786606
У@@ 0.014781751264999112
Direk@@ 0.20126486596864188
nd 0.34692293333605884
éri@@ 0.029375149675367394
ḥ@@ 1
Johann@@ 0.3188509069449552
aff 0.19739265741966563
county 0.07707478756629817
deal 0.09529336432419759
jas 0.10995647752858535
ved 0.019143298306421506
ż@@ 0.4565251712629423
м 0.006596745669483264
angel@@ 0.3536411184387192
cide 0.4277011771009034
deli@@ 0.0889573567933978
eger 0.2069343486653917
logo 0.1405105046280145
voc@@ 0.034162872035674946
ε 0.11733027145902762
п@@ 0.014789459378305942
Another 0.10166681832946976
By 0.03830215580685358
Puerto 0.12549928608303362
abi@@ 0.9002814013200419
aten@@ 0.07845677425513604
iso 0.274352428909899
lave 0.1804522700532759
λ 0.16884486708403998
ق@@ 0.07562132839693415
─ 0.263623786811452
@ 0.6461608258130396
Revol@@ 0.14050635066436143
urb@@ 0.21663720914681678
ý@@ 0.5169914751003803
ский 0.010073791663399187
Sain@@ 0.1945422818507472
Syr@@ 0.37134992655534615
iff 0.13309946656843166
olf 0.3948389279338469
stri@@ 0.11567165186162381
super@@ 0.03560611805709977
March 0.016881494736663102
Wad@@ 0.5385444164609824
wealth 0.12181855244568614
195@@ 0.09934214948187664
Giov@@ 1
first 0.004220721931198254
orph@@ 0.14100384455312867
Education 0.06395300491460151
Nations 0.10611310968333232
bem@@ 0.24264617154475895
xo@@ 0.8706586640095683
Concep@@ 0.2550303917423401
Den 0.14981025142018037
Graf 0.24628685047640814
elev@@ 0.08707253615105065
tour@@ 0.031085357143999938
unde 0.09699607605165209
Con 0.08550560424814635
Muhammad 0.22630733411823675
Vita 0.9215878102778634
eshi 0.6939226725329504
guer@@ 0.18801656977932346
eas@@ 0.057946135821699524
irat@@ 0.2757445697349955
vot@@ 0.033696549914764395
ș 0.744639266195527
Firma 0.22217752703019836
Mal 0.10968994257832197
ement@@ 0.08654986226301385
music 0.020594797570669114
rog@@ 0.17099052021950814
ustry 0.31707386865241755
wo 0.03577499563422475
2,000 0.2790774119153498
Cá@@ 0.20174014881531316
General@@ 0.14574040640143854
ammed 0.2847125585177539
gian 0.07579960504085935
opol@@ 0.5976113021246658
té 0.033906620841298515
wiki 1
ː 1
Hung@@ 0.14587466496737372
adas 0.01671213447238606
crip@@ 0.06467152613313416
pad@@ 0.1687868876569042
rés 0.12677771509586627
ի@@ 1
Uk@@ 1
atura 0.10595248361417199
cro@@ 0.0299070895125783
ency 0.03064724449673629
urity 0.06364628309699288
‚ 0.2984506856932461
Institut 0.10502035723646641
cla@@ 0.07053483292099454
å 0.8107646929584166
ب@@ 0.029224386795549968
1,000 0.21665271525379123
20th 0.09581667441447564
21@@ 0.7204693360852112
Arth@@ 0.9578083378135283
Centro 0.19423334616592305
Esc@@ 0.2217548660165043
Musik@@ 0.0705511393727471
dings 0.1027261821320836
rum@@ 0.1517564111648465
uer 0.15472622433910396
ւ@@ 1
Middle 0.10825619103750377
eil 0.0912006466347314
mai 0.15148698717929088
start 0.06236168402311151
с 0.0027064546580723254
Ili@@ 0.7549735501776702
Lo 0.29168650607163843
Princip@@ 0.21100685048485723
atz 0.18877360913671276
fera 0.2923412713385207
food 0.08081356377315797
ned 0.04456527148680747
oty@@ 0.1293366046570943
ك@@ 0.041335321175933824
Back@@ 0.09018712443750324
ority 0.056941579060917145
ּ@@ 1
ش@@ 0.05930805854207941
Centr@@ 0.23607546578326938
Jes@@ 0.1715522703665728
Kho@@ 0.4477986253696766
jed@@ 0.827681181542282
non@@ 0.13739109096456362
sang@@ 0.22263738944708955
were 0.002659168072267723
ская 0.01850983323799998
Braz@@ 0.17436659253885653
German 0.027378181208205874
Mosco@@ 0.11181815687761651
chr@@ 0.10437229579326937
jam@@ 0.39120840254011857
room 0.05978040970306767
state 0.015899709848270004
Historia 0.0755878223909346
Other 0.050967606245663516
iku 0.8434972260119068
lywood 0.8704824824338262
mayo 0.0756279763167369
pok@@ 1
Zw@@ 0.08236762837662376
fied 0.024685888766699617
ization 0.09593985490832406
long@@ 0.05242154440302209
ј@@ 1
arte 0.13064458744664775
bibli@@ 0.11400427882836464
endo 0.03088475730152668
nine 0.08009127899095471
Olympic 0.10779594261486448
auto@@ 0.07729655046502615
stell@@ 0.07002485132225889
list 0.04359437251570454
quar@@ 0.030910457043009806
sound 0.09616515428921062
Kauf@@ 0.21066433345892555
Probl@@ 0.20550703631623576
divis@@ 0.21333604870353096
eaux 0.07924521567746627
ikali 1
נ@@ 1
June 0.016296925429604796
Moun@@ 0.13000167860563835
Telev@@ 0.43655638139083874
break 0.0889559331305502
ival@@ 0.2521879737509017
М@@ 0.021746103040908033
Hydro@@ 0.3026320915738773
aina 0.48870026253973897
hoy 0.18988231641680736
б@@ 0.0113561058890669
29. 0.1658034852754547
Railway 0.07647209916429897
Universidad 0.058364311618924955
kuna 1
lut@@ 0.13018194814811151
Dutch 0.0897232207576198
Kran@@ 0.1124642657136797
Mary@@ 0.554337745186942
Orch@@ 0.25818114139422615
Stand 0.09739144068907721
cs 0.0727394777084567
Berg 0.19024983394571257
Neur@@ 0.25810573043165685
Unter@@ 0.02670244741136689
action 0.02178298542228793
ativ@@ 0.13696039885791703
back@@ 0.08253967802503001
pec@@ 0.16478445118120486
sait 0.21241599985656537
Wilhel@@ 0.29767390096885227
far 0.06764496472664032
namo 0.499564337315819
realiz@@ 0.06265222378741792
aim@@ 0.11092655709616649
cant@@ 0.09437659970053981
icht 0.03507705703235756
oten 0.14982372468153118
seh@@ 0.337294073050704
tain@@ 0.0583937961803977
zt 0.09305839732867725
и@@ 0.011703226449023942
Académie 0.2065417197383664
burger 0.14314017392226663
hio 1
lé@@ 0.060665029113706956
stor@@ 0.03991020557292655
wn@@ 0.2828371921700373
app 0.1298120078519063
mina 0.1317798008236651
sede 0.17398609387227987
sell 0.16338906233215572
в@@ 0.006842235837030832
Most 0.06561351473800522
aking 0.06903050009003066
awi 0.3640605539950153
chez 0.07201364615016016
cole 1
ellen 0.029601238776585607
tien 0.09773975019590679
flav@@ 0.29661941236561423
Durant 0.20499622288227076
Grou@@ 0.23109248953476527
NCAA 0.1264152148246519
bou@@ 0.09134045714612023
debut 0.033951554800466584
formation 0.033338702822061576
found@@ 0.0591787621702221
patri@@ 0.1430815523733949
Sé@@ 0.15055270468750537
aint 0.1864021846112573
tou@@ 0.05719314612040874
Д@@ 0.01651316132773081
евич 0.06026557505422833
ה 1
Kaiser 0.15184516023085456
ational 0.03721357366543342
cord 0.11073164768960464
have 0.00514507932830645
toral 0.06276323007722752
Б@@ 0.018517315467511647
Ban 0.21369351117324403
Tax@@ 0.14655486113437938
chor@@ 0.12028616491526704
naci@@ 0.15874281321596723
Æ@@ 0.7644433827478001
ʼ@@ 0.714049229609466
γ@@ 0.06817934255264951
я 0.008262248955995968
‌ 1
Deutschland 0.044641052294396
Se 0.026473394305630567
etas 0.15315574251897326
hul@@ 0.31875315257975734
space 0.05575374236912654
½ 0.45030406347458807
् 0.0023697004985411985
Valle 0.2851107781412847
Way@@ 0.6631804512291578
ineering 0.07449486868850902
nea 0.1859942492704323
onale 0.11950664733006544
owa 0.4329655905315168
river 0.055630222107414376
я@@ 0.013058050793310641
Psych@@ 0.15906246372642155
USD 0.27103220952594737
Wald@@ 0.1613497068921014
fic 0.05112348851883626
immer 0.05384365287819546
tori@@ 0.20536962682516594
auff@@ 0.11708359060652333
bt 0.07819200454327797
enas 0.11053887223221544
hao 0.553311980507407
series 0.013512577198206801
ָ@@ 1
Arsen@@ 1
Nam 0.05525438469035749
Nouvelle 0.14679454033117326
Teatro 0.2245344701573886
arrondissement 0.22154491772186527
franch@@ 0.10578022686417753
ρ 0.16832139260861084
Marine 0.10181572590062948
afé 0.21976973787870047
ament 0.12925290140688397
fs 0.05487192412452822
itung 0.07817203591672389
mental 0.05617381408285799
rent 0.0986618651307493
sional 0.07721569285400562
tural 0.04209972971989497
ì@@ 0.8037567197183423
ezo 1
kama 0.45306849449104414
lich@@ 0.04671052238602944
vida 0.06321111143862189
Andro@@ 1
Stud@@ 0.09221583924292424
They 0.015924146418990287
big 0.10665398105697535
lic@@ 0.04262226053853861
mig@@ 0.06421499617603493
ְ@@ 1
Hosp@@ 0.4350603829948316
endro@@ 0.2374591757420019
lina 0.7418382663679708
moment 0.09523927661987115
uko 1
ү@@ 1
añ@@ 0.06269296287471104
Epis@@ 0.12640391248746968
acter@@ 0.16055505210203555
aries 0.04961764171758854
cas 0.04792682936966149
got 0.07389305821331561
illes 0.09519425485381366
mens@@ 0.16324260606199398
érieure 0.11527588861619613
cau@@ 0.18765384128318227
grave 0.15006779108516238
ises 0.035176913133597325
press 0.08297785718442426
rug@@ 0.3520908200763708
run@@ 0.059010014414270555
span 0.20586425974891426
sport 0.08271908149947006
ustr@@ 0.0866986018704553
Dez@@ 1
Heim@@ 0.12713615511846377
esper@@ 0.1250643173718532
fic@@ 0.028765690566325684
oslav@@ 0.6347392980058482
sali@@ 0.16462048157165898
tique 0.04769029736980208
† 0.03183718968798749
acha 0.32569263069500454
anni@@ 0.0991607746637235
anted 0.04722307766222428
ded 0.04061747465946181
furt 0.35124044713929076
k.@@ 0.48706382330444603
orie 0.05316766302176356
В@@ 0.012602680659760949
ж@@ 0.009464787400796109
ي@@ 0.029110706121166518
Front 0.13171651077525995
Rund@@ 0.1445678703036272
contin@@ 0.05379580432343266
part 0.008286999564455463
trong 0.009234686480347941
tros 0.18929422917719657
Α@@ 0.06343654302070445
Δ@@ 0.11350923716453695
Eliz@@ 0.9756611618074588
XVII 0.19380476283260695
grand 0.03953322107991948
wide 0.03727054357703007
Е@@ 0.022500249200497344
Hous@@ 0.4546349405035551
Montr@@ 0.20922654475937494
Nach@@ 0.03496296719946597
abo@@ 0.24089125664383437
Mission 0.15023170104431652
enem@@ 0.07999935627248105
orium 0.15939737615695504
ра@@ 0.008898577248683936
Christoph@@ 0.38930920888396314
ables 0.028322614807874905
bahn 0.05342513754758858
inger@@ 0.17771152645609117
mach@@ 0.04492948291203725
moder@@ 0.06020730026008749
pris@@ 0.11283432303736116
udo 0.2895012310795925
Denk@@ 0.15308968101712636
Uch@@ 1
ists 0.018058310397438146
mili@@ 0.17477616333951848
Moy@@ 0.1824016622058172
cola 0.22647815090308165
kanda 1
oise 0.1764319588970537
ording 0.06710875688522018
ġ@@ 1
خ@@ 0.0796945808207252
Elle 0.015977239086754712
Jah@@ 0.15470192502345712
agno@@ 0.21011683243955068
för@@ 0.15037166688591572
itos 0.09735299950137796
led 0.011079201004200427
ла@@ 0.013541048592236675
31. 0.15386103537329796
Publi@@ 0.3263412767157849
Zwe@@ 0.07876091488843069
hood 0.05662005602956407
alter@@ 0.0549210527327897
Н@@ 0.022530732136015513
ка 0.007342168115276711
د 0.07805752847535125
წ@@ 1
Gymnasium 0.18070680247108106
gency 0.07685640164317244
hall@@ 0.25542858549730285
pom@@ 0.22548515163496283
primer 0.03300568969915727
urban@@ 0.14377534284429838
ყ@@ 1
Africa 0.04721790535514847
Castil@@ 0.22184531573498248
Ih@@ 0.41490562687971594
assen 0.056988112208269104
ismo 0.03974037674481522
trich@@ 0.22884652587088836
γ 0.7121027708515901
ices 0.032720130297285134
pre 0.07050897720145184
run 0.032960096173182005
will 0.014312194796941105
192@@ 1
akawa 1
child 0.06018540492101485
emba 1
iwa 0.6511517993132615
osph@@ 0.10622220009137619
phi@@ 0.2547674542269929
Sta@@ 0.1328656185606418
aines 0.05104938301901999
ended 0.017707051755127018
folia 0.3951107900566868
fus@@ 0.06011767162034097
nj@@ 1
odo 0.5674033162393292
senti@@ 0.13764125617332235
then 0.008492720787335345
adul@@ 0.061242322131957884
cross 0.08445906851635815
ifu 1
ль@@ 0.005809093724312074
ма@@ 0.010572541694760034
Eastern 0.07185150025236066
Nel@@ 0.6087401134782556
anz 0.14543563449885918
lun@@ 0.172128690505447
ß@@ 0.030436457807711037
Canal 0.13169183707100185
Est 0.12830934906165964
Hispania 1
Süd@@ 0.041676345084784065
fest 0.15149206145639005
union 0.05010621578371833
Jug@@ 0.19703930224494517
alier 0.14615412973145053
equ@@ 0.03320635914136968
fass@@ 0.11177522619708198
hun@@ 0.14970629369126415
pour 0.00354044840844178
ém 0.5922237331055901
ー@@ 1
Inf@@ 0.1828213382173353
Services 0.1192539751309762
ainer 0.07332422196804711
pili 1
rou@@ 0.03974067896943154
trag@@ 0.04505929586455732
ზ@@ 1
Health 0.08042758127506115
ǎ@@ 1
π@@ 0.054317605145942825
Fé@@ 0.18229895474395838
Northern 0.059193373374900736
dif@@ 0.2690317809545807
ude 0.14638319587179852
wehr 0.18893219005475692
Σ@@ 0.04172208118709814
ى 0.07673738190426109
Schi@@ 0.12329072140062812
encia 0.013442368599338313
ht 0.06992704940385182
intr@@ 0.14612295972348574
rique 0.41718362908447537
transform@@ 0.14537712475588954
undo 0.27803319588205505
η 0.015236391934479789
σ 0.8622756906447777
197@@ 0.055142151211576555
arias 0.09743003670607481
class 0.033039656840964673
imba 0.7865955034756659
teur 0.02499980856124847
tric@@ 0.07601503308163708
type 0.031679681168740155
ج@@ 0.047373981157466286
ى@@ 1
Hata 1
coc@@ 0.13042961716475038
ppe 0.23167807033430446
nie 0.07928874860692248
ports 0.03309283325304349
use@@ 0.13211823387791527
къ@@ 0.3846740414163429
Berliner 0.12955121153517837
Geometr@@ 1
Sociedad 0.26552637082545105
Wen@@ 0.13528912730604528
für@@ 0.13320695218810455
gau@@ 0.18777234476556592
vention 0.041050364895127624
Hist@@ 0.2930844096777504
Scottish 0.08082696007837784
ainst 0.38282270999904316
blan@@ 0.05311784605293537
epis@@ 0.06965989706363078
ffen 0.09716510060020307
geh@@ 0.03847012516039055
love 0.0625307328266679
schen 0.0401654542842747
syl@@ 0.20444809129609043
undi 0.4733783403111926
word 0.05496403362547866
µ@@ 0.6163487890977419
èle 0.11704521971047994
ē 1
ον 0.1986537397387712
Christ 0.11526515335757702
agin@@ 0.12241873852362431
ahn@@ 0.1921753739586991
konn@@ 1
pia 0.4154716485201911
ías 0.038321134124764095
д 0.009273304234110942
jini 1
ligh@@ 0.032461188509387326
orient@@ 0.060093613524872413
Х@@ 0.026366405199027245
ъ@@ 0.07386940556158253
Salv@@ 0.3355374556696983
ching 0.059607730928970135
cic@@ 0.1458986209806089
code 0.07347967439970451
manifest@@ 0.14047851174784676
ogen 0.04570286870704621
ological 0.030838373267608726
ples 0.0245532727322167
Argent@@ 0.09264355105437612
Renn@@ 0.17332609096743407
Reser@@ 0.07580315036590488
elimin@@ 0.05380715466487154
good 0.043618142256950154
spec@@ 0.028036631114048475
thel@@ 0.1639333766927111
zeh@@ 0.1347093902512488
َ@@ 0.23960969946913208
ც@@ 1
taire 0.1092626933027442
ד@@ 1
ح@@ 0.045402809081635125
brit@@ 1
kön@@ 0.08199951895909378
lande 0.08323826502800498
wi 0.41793404477966567
zog 0.059082834795662724
ός 0.06845666287860697
Lt@@ 0.3033798980482925
ever@@ 0.07216554342844131
inet 0.08776866805210502
lor 0.3971163655436774
trad@@ 0.08805158934002878
П@@ 0.013578609127344174
Mara 0.9252366719252147
Ni 0.6067412423637277
Some 0.03760556751375921
jug@@ 0.048851615936798334
nay 0.1343496113833601
opo 0.6299383562962266
resp@@ 0.02786762457892727
tof@@ 1
ћ 1
ძ@@ 1
ჭ@@ 1
ged 0.04148957625737602
haya 0.45840435795343876
kiz@@ 1
uch 0.08848646033511422
Kama 1
acre 0.13081079710861357
album 0.008719035520445005
estro 0.14102447497411044
lose 0.1146440717870918
oja 0.43684885810625
paro@@ 0.17769931803144218
uzo 1
Dres@@ 0.22542145658767182
Schl@@ 0.09094152457220056
alian 0.5083788270548509
anch@@ 0.1263514519022912
arn 0.16425761427122162
dedic@@ 0.05135844662954457
emos 0.20279553096847508
ld 0.7221657841687075
upon 0.046078787045092315
з 0.02507751304402933
193@@ 0.09635843181957571
Ciudad 0.13344944732219183
enty 0.07699745263356593
free 0.0372901156032193
illet 0.36014088435265124
two 0.004228198259784647
Κ@@ 0.04748484023601693
ва 0.011865614223530689
azim@@ 1
esha 0.6412209379817816
peti@@ 0.044423320366394625
podr@@ 0.28769757163264503
tional 0.030778735047956737
Öster@@ 0.1783433992968359
Ə@@ 1
φ 0.32014556237684777
Sainte 0.11893174307277196
event@@ 0.10732546551413522
team 0.00838280874774479
ò@@ 0.47139309189238343
δ@@ 0.05243442407029763
σ@@ 0.04675753796588237
Fund@@ 0.10145881176924847
Société 0.14822930173782298
gether 0.22716421481963933
ledge 0.0786914051793571
nah@@ 0.09000189849812919
oles 0.07517232739151328
ε@@ 0.06531158097248171
corpor@@ 0.08099766132145662
meister 0.07569055684357152
shu@@ 0.17605869575813596
ández 0.40752089570233124
ფ@@ 1
ancia 0.07891094751579225
aum@@ 0.10338885049962501
friend 0.0560561656505583
naval 0.11338055143789932
ography 0.023725937948601557
oil 0.07754834583610071
trac@@ 0.03638103016974486
ө@@ 1
Ave@@ 0.6150079410959045
ajo 0.1518690334204969
andes 0.23503046273178418
Ung@@ 0.10335689994261976
auf@@ 0.008657722297003975
pf@@ 0.034791895488141905
veau 0.18968015383340436
ο 0.011867434241654729
Australia 0.023677769620845668
Dies@@ 0.2333871837222713
Elis@@ 0.7051986130121315
Eyl@@ 1
Minh 0.17056680437904326
kia 0.5876655108434429
place 0.009082474015906417
plus 0.0056523414923059165
ь 0.012829872109364064
ע@@ 1
Europ@@ 0.03851772969346828
itation 0.04662387840052614
ug 0.1438995614972615
ution 0.03939311169889387
Des 0.0586623162263065
Ital@@ 0.8785582986253725
igr@@ 0.12634859599722517
ities 0.02468511185098639
road 0.022248514862290004
takri@@ 1
teen 0.054406220073978405
uu 1
adapt@@ 0.06623001305521553
brun@@ 0.21339666709726984
destin@@ 0.05841528461140251
umo 0.29920096903508026
version 0.018549530394973278
Ab 0.05213072180161403
Austria 0.08670355486458954
antas@@ 0.9401094630301241
eing 0.08125353546162149
tei 0.14536311515951383
umen 0.09312933129600291
® 1
ñ 1
ź 0.41329083662720695
ɛ@@ 1
Mb@@ 0.8725182947161868
amen@@ 0.13449268327061545
fall 0.033373877349288414
lati@@ 0.21220359930307617
libr@@ 0.05904517371985494
pero 0.018157742324448143
porter 0.059036136489675775
siri 1
ût 0.19730169018847665
Partido 0.10227830808406646
fau@@ 0.23860652691238107
hud@@ 1
ól@@ 0.13911324461021654
Rä@@ 0.16801967556644617
anian 0.0829712224433018
ften 0.10505514369648643
heit 0.033465278048506145
inning 0.1288594643768715
Τ@@ 0.053694242667301134
г 0.009080722749781327
eign 0.0407230524779932
ungs@@ 0.007758625309217197
Р@@ 0.020131213097770793
Luxemb@@ 0.13430589400038992
Una 0.07370047659123764
ablo 0.3790863823067797
alism 0.052836340689731955
ergie 0.10907595864300951
itr@@ 0.15745691096861666
Π@@ 0.05258107329341228
ن@@ 0.048841239055924864
auth@@ 0.041060689957123093
efs 0.12273897575593679
eval 0.09697294263489464
itu@@ 0.08206934601915586
usion 0.09945101241622296
Ame@@ 0.6052497993911766
Groß@@ 0.037627130542202195
Tier@@ 0.16712904877516624
Wur@@ 0.15941929182833886
bles 0.031838177920704355
hab 0.224563254354193
mé 0.10674624877956061
orado 0.4128680136169397
ulo 0.2568069242276581
ъ 0.3596068464644073
Wiener 0.1404352213391757
Xu@@ 0.4923758888493418
male 0.060291310229662734
nac@@ 0.09114617420237792
ل@@ 0.022934854734296888
Apr@@ 0.6691458715874544
Irish 0.054494239134438315
oci@@ 0.16261391374025175
was@@ 0.05305893687634055
which 0.0020951225143586226
Þ@@ 0.8782281681415479
dres@@ 0.04006648302229405
illas 0.11346560351642174
mich@@ 0.7316751292463898
once 0.026340037805716237
perior 0.22157896469891306
staff 0.05579335571258736
ungen 0.005761185320048526
Ż@@ 0.49560140517400886
θ@@ 0.04845005444609411
ִ@@ 1
194@@ 0.14446160528474492
Grab@@ 0.1073191831549501
Mong@@ 0.1337838785428005
These 0.023415082741195976
ammad 0.3247283070941252
dens@@ 0.03823469116103686
tima 0.20950566567103407
ш 0.04715128710450703
ת 1
Doug@@ 0.45146419069537014
chn@@ 0.19759200405019015
isia 0.321519835963677
oking 0.07124660485903202
ombe 0.389845029718019
sed 0.02086861541506973
ч@@ 0.009534716464680874
י 1
Korea 0.08078076399610726
eras 0.07263281318431648
hui 0.05741978906945868
long 0.01280605113110189
mans 0.1042699422333872
shot 0.05440308630006354
ío 0.08404348882180043
ŋ@@ 1
ַ@@ 1
ო 1
Mex@@ 0.04873370493968615
Paragu@@ 0.9657604073441515
UE@@ 0.5206226398004581
endra 0.13704097799965229
they 0.004898573620683812
ჯ@@ 1
apon 0.21426361542957806
ked 0.018138206944364535
legal 0.040749044784462105
pal 0.877296352522026
sang 0.07397665926864254
wig 0.33128007826118167
Russia 0.052458807068712206
ao@@ 0.4354814424069878
ected 0.012017403256843969
hii 0.5288259494754723
چ@@ 0.19032410429947785
大@@ 0.00984242088256051
Frit@@ 0.6773510610043283
Rico 0.12835120693568355
amba@@ 1
area 0.010466088178351794
atika 1
cent 0.046430660729773435
isis 0.25537686098244494
iting 0.07119813601764598
used 0.005667706602269238
usha 0.7536917876865732
δ 0.8610741055453033
Hockey 0.0864784648824446
airs 0.046355258314367445
bed 0.04736693193374069
bic@@ 0.11128377682357565
date 0.030248972161946452
ي 0.03293140498110218
afin 0.05823111350503353
cros@@ 0.0522704243765171
footballer 0.0609861996085881
force 0.030545134751157887
hr 0.11502307113258373
mando 0.10259456580963368
unter@@ 0.00997205418620903
ри@@ 0.007229131814318416
April 0.008351425949173695
Españ@@ 0.18601383668009014
ois@@ 0.08743399624414107
verl@@ 0.0255004189157589
éd@@ 0.05578024945096824
190@@ 0.28387294421911974
196@@ 0.04866449083026023
Americ@@ 0.07699766916148498
Develop@@ 0.4890847768430937
ging 0.027418174437543952
iness 0.1923198618625588
nom 0.01788312883477663
oire 0.08274913704608437
rang@@ 0.07156092188987441
semble 0.08318809012097408
titu@@ 0.040321640891719135
tras 0.03433697865116007
villa 0.15729804325012983
yard 0.06926701406473273
çon 0.15948667569622726
ц@@ 0.016054294271872764
ן 1
و 0.033183139060085534
Police 0.07835146406105427
doch 0.08880167943217926
eleg@@ 0.042673188055246405
leur 0.013914836840443097
liche 0.009016917089009339
premi@@ 0.04860137824202997
spe@@ 0.023624353286624385
tet 0.025875241663361855
times 0.021437842172870668
ő 1
Г@@ 0.013333720521423283
ە@@ 1
Committee 0.040980800013545676
Exper@@ 0.1275893157832425
Pé@@ 0.2003259988860175
atur 0.07841532096115221
ecture 0.051239040696906636
iria 0.8430151765217101
poem 0.11334499788494179
tín 0.19431532062026757
ق 0.07083762640185938
Australian 0.02762888248262707
abab@@ 1
antu 1
dres 0.5062723292804671
・ 0.7628580765242449
Regional@@ 0.13743286065139537
atori@@ 0.1147260923969852
neum@@ 0.220032590626644
ophyl@@ 0.34899943869676187
soft 0.20393114576062374
total 0.013997801122927502
≤ 1
Democ@@ 0.07007447315380276
Operation 0.09415857244979293
Orchestra 0.11713662758418933
cle@@ 0.02842235957887874
tero 0.10616284986249179
ك 0.07604041112781312
″ 0.6110311396941577
also 0.002291816843095506
gence 0.10399100597930304
oder 0.007940673896031309
β@@ 0.03583076895614065
λ@@ 0.0524903532813417
محمد 0.18888508678431576
‟ 1
Jesús 0.1829924507700395
algo 0.12647258395028893
loss@@ 0.11053403084194408
rech@@ 0.028357647850232565
гъ@@ 0.5862731836168044
ع@@ 0.03966735148475552
ْ@@ 0.35135765020485915
Philipp@@ 0.1300586630176046
auc@@ 0.08376946947886474
aux@@ 0.12942683710489097
cav@@ 0.051211292683051204
ease 0.051332155353980086
natur@@ 0.02791565162766826
vya 0.7359884505869655
ð 1
տ@@ 1
ṭ@@ 0.8308721277132428
endre 0.05700390055125683
game 0.011060835618655302
süd@@ 0.04118861988990648
usse 0.16132422925726642
mann@@ 0.12679627250003625
mw@@ 0.27296748147001326
tard 0.03910682840015411
thu@@ 0.07969045038190448
ample 0.16125521407407942
appen 0.07604475773037601
dó@@ 0.14200685743159336
evento 0.22074085140232658
gest@@ 0.025067663859102574
logr@@ 0.08177285241433699
lí@@ 0.05151003346710145
over@@ 0.014151984352159853
return 0.03301958856327072
sein 0.011825894192083282
Í@@ 0.33021903020413
ù@@ 0.5056844428329015
ли@@ 0.004682511563584378
م@@ 0.036760095539739183
Supre@@ 0.06214747301418181
estruc@@ 0.1545452387598546
head@@ 0.021833017684571708
aji@@ 0.8847346291144572
americana 0.18395691178118614
cog@@ 0.1428036432276301
jos 0.07646576676429044
pend@@ 0.049987648698922305
φ@@ 0.0388110566032861
Zanzibar 1
akati 1
destroy@@ 0.04770657770314854
hold 0.05789338193437724
leit@@ 0.06552626487406943
pendiente 0.1364104628833339
polog@@ 0.12012254110413882
Colomb@@ 0.3747049760714886
Culture 0.0979515497925193
Ireland 0.037006800111760864
Zürich 0.14351649278601525
honneur 0.1267222328283733
mic@@ 0.12312172188906273
novel 0.04083992675187337
schaft 0.012927920263689257
bois 0.08550846524315799
elor 0.07817302352356956
schule 0.04604679471418632
upe 0.3297815845878407
ücken 0.0818944880936608
Anc@@ 0.6401908133436504
Ins@@ 0.07902189587465468
ements 0.010009499274688518
estre 0.10204844310579064
ismus 0.06036090439057488
issi@@ 0.45741318038395906
major 0.015562319346756157
orr@@ 0.08793467237716172
perf@@ 0.06274012109956913
usalem 0.10514955690193546
م 0.04477641201085059
ჩ@@ 1
Guill@@ 0.5179333181882438
Né@@ 0.15644123703105758
aille 0.06539813695781446
ation@@ 0.09880284889015703
isra@@ 0.15982395793562457
map@@ 0.11199372673364302
vier@@ 0.05843444515387394
ŏ@@ 0.8082026296294021
ди@@ 0.007819394521461995
Civil 0.0507360042014452
Haupt@@ 0.024985880458008952
Rugby 0.09000211508469701
arri@@ 0.030342466402996746
asing 0.059341139024619495
axe 0.09303879984551769
bé 0.11341210675899492
dance 0.07070244549802654
dial@@ 0.09897488233098556
ensus 0.06990008226711208
gas 0.048775906229376616
group 0.0113060997945109
influ@@ 0.028319197249336053
isen 0.07674489510368089
trit@@ 0.12690629123246547
ô 0.07660224740323866
ба@@ 0.010913277894753293
ви@@ 0.006875957881957537
ם 1
ت@@ 0.025283066541153452
Libr@@ 0.2351952997932535
Mehr@@ 0.09669872061822883
Zür@@ 0.6989656412252659
irs 0.03458841039132565
match 0.01684938159057317
mé@@ 0.015701844588626713
ʾ@@ 1
ν@@ 0.04333549821931199
EU 0.09906724452561005
Grec@@ 0.17769384694519835
Highway 0.05823918888293007
fication 0.022745700795684186
ited 0.011898348830229732
law@@ 0.026747729034222033
lub 0.1864007126289179
new@@ 0.04746996141756925
sts 0.06374259058248
week 0.03806896460611119
Ш@@ 0.02008433290070932
غ@@ 0.04593135516858851
Wah@@ 0.14919766432598489
artist 0.04275221026297002
city 0.010183073671112
egu@@ 0.2520083317430652
player 0.020276024010032076
ymn@@ 0.304677906909211
Ε@@ 0.053900706434172975
ار@@ 0.06310949476651442
ン@@ 1
Hay 0.1589994056972407
Ide@@ 0.09964555305332425
hibi@@ 0.039739425855267074
infer@@ 0.10282224781343376
är 0.0674386966985105
ρ@@ 0.06061588053990048
ِ@@ 0.18187658113435018
But 0.05354465369818022
Flü@@ 0.11120363871337553
Im 0.006063548839524419
Russian 0.031089007182815518
aler 0.0959277023127023
church 0.021752477155283403
klin 0.8525612301358791
popul@@ 0.03553356519937865
system 0.01240711552438404
Λ@@ 0.05627924024156626
τ 0.0767447144766204
на@@ 0.0038863251169466272
の@@ 1
Academ@@ 0.1636179091840153
Fest@@ 0.07392329048032985
Univers@@ 0.30856351109959607
ampi@@ 0.8509017238013034
emia 0.12298325235092626
press@@ 0.05135202661478163
transl@@ 0.05862332598173631
Galatas@@ 1
Internacional 0.10210987078615164
Jew@@ 0.39991996286585935
Mai 0.02237989288443288
aill@@ 0.06818563526942674
dida 0.1319724625237632
lang 0.032446424226327535
line@@ 0.06456473782785267
national 0.012051264443595496
ologie 0.017868630006850135
ought 0.026632460103166323
կ@@ 1
ط@@ 0.04372034015384685
Nairobi 0.6598679284769229
Stil 0.12331500650893742
asons 0.08345865755245442
diver@@ 0.07197858672494727
mort 0.025606981121504172
otes 0.08898963945475862
psych@@ 0.04669832393901607
rang 0.10646100784360077
squ@@ 0.03532935893541783
utz@@ 0.06869764739124963
weg@@ 0.03130972024934292
ät@@ 0.04372416618603695
ни@@ 0.004810635075502216
პ@@ 1
Congress 0.04808328688582187
Gramm@@ 0.23177104401649548
Napole@@ 0.12256208561299937
cet 0.060240860139133885
club 0.008975763340800616
ihe 0.1360334626577223
iten@@ 0.09966602670187089
legi@@ 0.055212409415324494
regres@@ 0.10457841233446677
uzi 1
ón@@ 0.07157704618294616
ο@@ 0.040923476026421476
ח@@ 1
Museo 0.11500418813863092
Route 0.03942632125469969
case 0.02262997646268328
spre@@ 0.04124398402354228
tang@@ 0.12736465245376907
technique 0.06651942086134051
their 0.002670719057638926
àn 0.09775938410308874
ž 0.803265076583469
estig@@ 0.08149724876174563
gues 0.07700832008986988
iche 0.04852814613186155
ombo 0.7012592182938543
uela 0.19196013811027687
ɑ@@ 1
ɪ@@ 1
З@@ 0.020286326693925372
כ@@ 1
Ai 0.33005949502181076
Chu 0.26023211979671135
Rail@@ 0.06587261547714197
limited 0.0449911855369255
onstr@@ 0.05214884081792302
Ä@@ 0.03333672935457374
İngil@@ 1
Schn@@ 0.1192966863939032
Schwe@@ 0.0853671923815101
anat@@ 0.7204577580415326
bra@@ 0.23968246085957998
kno@@ 0.03036917620818736
late 0.016398479859711042
platz 0.05309796719733641
sai 0.25218090459323167
wann 0.5492072639907719
zone 0.03777988557957651
ème 0.026994580074297163
emiti@@ 0.14647482631001596
hiwa 1
jum@@ 0.07293925265207071
native 0.0430430323325107
sche@@ 0.04116455337611591
toman 0.094167132952289
year 0.005333061441240746
Са@@ 0.019903682518559476
ный 0.004805022936891487
ӏ@@ 1
care 0.042540385205430485
ischen 0.003730767488882924
izo 0.21623539890160381
lieb 0.47572440889513157
lista 0.09111841522393699
scar 0.34943803577559635
song 0.01154235316199687
ка@@ 0.005958650253311158
iliano 0.527609759342524
only 0.005382046076126955
pass@@ 0.013165304446619388
פ@@ 1
ف@@ 0.030416592445175444
ی@@ 0.11782140551610944
180@@ 0.4124360000121369
Portugal 0.055607756690159514
eim@@ 0.11889582631436914
esser 0.10068082901833943
igher 0.2236380477597428
sequ@@ 0.033299863432761256
wes@@ 0.046887222663638546
white 0.02812681162995195
ï 0.11974433990996976
öst@@ 0.08864076400792689
ún 0.07121144581110474
мо@@ 0.005668486778687247
Instrum@@ 0.1092831934531808
ances 0.014111813159628117
due 0.011807016881654106
eil@@ 0.055826847735201725
maal@@ 1
nig 0.20049859508378984
public 0.010784365595497076
Ա@@ 1
Carrera 0.13118093610518486
Ein 0.02530435770697489
debut@@ 0.06585137166621605
ief 0.046955822000149514
integ@@ 0.09596757797268254
ments 0.01581278222623316
pens@@ 0.04628565893349622
reo 0.17519736992680468
sible 0.03061688520622217
âteau 0.16125634782549414
Ć@@ 1
Μ@@ 0.039601362873950094
Cao 0.16137849799929582
apos@@ 0.12680465995350768
dér@@ 0.11090750151372453
mua 0.3671016725998047
ço@@ 0.5282135120321437
ר 1
Eins@@ 0.0935621421765227
Rome 0.04417085937092073
Sich@@ 0.2391132360375461
elas 0.10613156386237453
icos 0.021005498481595584
kio 0.19416605174204124
lied 0.035658021655192836
ligence 0.0652624695305806
mani@@ 0.07762713333444266
network 0.04056375316398906
telev@@ 0.16336197331460048
éo 0.14761619331745468
íos 0.12193816682599551
Ми@@ 0.02255273169926515
Geh@@ 0.0807728116065724
Secre@@ 0.03969252125820416
alu@@ 0.06334176612491978
bele 1
cru@@ 0.03129124673323658
hiv@@ 0.366877378697777
pression 0.035057711185860846
sion@@ 0.05220045202717663
éro@@ 0.04213458024111402
κ@@ 0.03338874197721192
ە 1
ン 0.9432034101595834
.-@@ 0.13107574281143705
Form 0.052717422944586076
Monum@@ 0.08942139443226042
jia 0.9497600792977635
sant@@ 0.5670709059390989
vent 0.04589792359721298
ко@@ 0.005359684161903189
ское 0.0164083516555318
մ@@ 1
Administration 0.0734427726197774
Popular 0.1277170112886959
aling 0.055542860202098074
graph@@ 0.04532762312708049
ufac@@ 0.26277256983518277
χ@@ 0.03531676083460117
Ч@@ 0.026441754375906543
і 0.868938084479601
و@@ 0.021643913472689593
Ἀ@@ 1
Estudi@@ 0.11966275343041859
ahudi 1
ensa 0.07474846433599437
jazz 0.07758663835747719
jou@@ 0.03340771124021146
kani 1
pá@@ 0.13683956661562136
riff@@ 0.056625485597785415
sans 0.02212017165793014
tile 0.0700047991426304
venir 0.07036681891318074
viol@@ 0.018311109060517774
äger 0.09541732767639621
íncipe 0.17797184402923838
ս@@ 1
ار 0.07083168473570853
이@@ 1
Bahn 0.0987673637932691
Kreuz@@ 0.07061873270510832
istic 0.03851562060828656
thé@@ 0.04215419589933358
ét@@ 0.014405742077715148
Ω 1
Schwer@@ 0.07629069491710783
Verlag 0.12689164092156294
aka@@ 0.9502362992606621
dire 0.08356846478250238
esos 0.17046407067331523
vania 0.2653959417979151
wana 0.7286670596652403
ле@@ 0.005208261145080944
ная 0.006553237325475526
ℓ 1
ability 0.019734472609087204
ebook 0.6253460269362098
erte 0.011368220268383623
mern 0.06739751110564589
teams 0.02238273895902274
uses 0.01623734805678826
voir 0.044237128553993414
ín@@ 0.03834709522712125
üge 0.08600157956640747
ι@@ 0.03236112567683494
Ка@@ 0.012341299938368118
Britain 0.04818660819275678
Commission 0.03662772828978092
Speci@@ 0.11857246595377018
cour@@ 0.013287087542582307
jud@@ 0.030558700410155872
position 0.010226941580013436
éré@@ 0.05098480792296936
ň 0.6964362847772988
ω@@ 0.03921092382658059
ро@@ 0.0048747970422837175
aub@@ 0.08898461017010212
dies 0.026897506380660085
fili@@ 0.11739974275134112
impl@@ 0.08890549818951005
issen 0.05218799221579903
natural 0.029502287137229778
rí@@ 0.14172827081963313
tarak@@ 1
þ@@ 1
Airport 0.056039721296941875
Brasil 0.09292933567235025
afiri 1
ible 0.042245527314070344
liner 0.19246657300847267
pios 0.18231401528524235
subj@@ 0.07449388605672101
suc@@ 0.032001395444419614
Ι@@ 0.0793030991443522
│ 0.051235498638234234
Fútbol 0.13477075397135643
Version 0.0934165938357034
Virgin@@ 0.32016473712536425
cont@@ 0.009270852331231164
empres@@ 0.20019379273272322
mano 0.10756653371117457
wr@@ 0.036981600826100726
âtre 0.1361081113884758
üsse 0.1108311350184603
га@@ 0.007854442126272294
да@@ 0.007729131614468165
Ӏ@@ 1
Kip@@ 0.671459135312176
Scotland 0.04769628932037222
Sie@@ 0.33640324596701265
adora 0.060507482202519676
aining 0.024859908714964806
estar 0.08243391349764721
how 0.02450639786951913
mt@@ 0.15419828217297377
ober@@ 0.043512075326550013
ograph@@ 0.025481368925181387
ply 0.02375155363737343
stant@@ 0.19382866954569627
ś 1
Э@@ 0.008671554568891973
Wach@@ 0.13773475206012506
about 0.00551237793005072
addi@@ 0.1483949345778656
bau 0.02617574886716769
ences 0.010703750336237185
gruppe 0.058396236228483174
maxim@@ 0.038363441794981835
minor 0.05432488586302178
Ба@@ 0.021997054354269286
Kriegs@@ 0.060781486576144954
Regional 0.07299969209143854
Thu@@ 0.20702472304767433
aje 0.024102675983323277
eres 0.10883702004173662
mess@@ 0.03601575144632827
née 0.035864760994004444
ondo@@ 0.9059017027981453
pierre 0.1270589635819306
publi@@ 0.04005268267240864
sent 0.022775180269138235
value 0.050531473590806286
werk 0.03155637692124709
Ма@@ 0.0129436087032501
ла 0.0036929512727535505
ל 1
Guerra 0.0524515532493443
Histor@@ 0.05498054880680646
anchi 0.6659946849548515
eting 0.15809876368377146
histori@@ 0.018226757480492926
leben 0.05880671348552539
seud@@ 0.11627337261236166
stel@@ 0.08916442522458812
zw@@ 0.037250373722883756
Ко@@ 0.012222559742372912
Chile 0.04342237138527729
Nieder@@ 0.026549164910542152
icas 0.020137803230246665
k. 0.4240797530214048
ων 0.030508390027816284
қ@@ 1
1st 0.027401093635345684
Fes@@ 0.8041490259596095
Greek 0.03903019268840646
aña 0.12700635674821995
ersch@@ 0.038142091152173214
father 0.013373250228399317
full 0.019889396517789235
inmedi@@ 0.1640920923942965
pera 0.1644187748151207
straße 0.029740156606343087
vita 0.9371410699683415
äs@@ 0.03073980560441359
ία 0.02472557792948348
ко 0.012446408129193502
ṣ@@ 0.5648580489616244
Islands 0.05745282110518718
aque 0.06309094265876702
assemb@@ 0.038569672524943456
most 0.005189889009565102
mot 0.11575691155609825
saw 0.024190249234581726
scre@@ 0.03237026780268716
sub 0.07886967207836287
suit 0.03608366147864296
но@@ 0.004781869998913801
Ḥ@@ 1
African 0.02598331964529676
Grün@@ 0.05393679139658005
Mp@@ 0.8340986552965023
adron 0.0480321455968411
anzo 0.8563099290121047
front 0.022487659604245532
iß@@ 0.036598263284550285
rien 0.10727083360602173
за@@ 0.0036402323883050836
ק@@ 1
ی 0.1585005099105038
Wash@@ 0.478814642556147
grande 0.025386812865029976
lars 0.06455937353516053
phot@@ 0.020539710793167774
soci@@ 0.012464168464000364
speed 0.046284993963709366
tung 0.018871463673658505
ης 0.041642198674140866
ва@@ 0.005743379662264761
ת@@ 1
آ@@ 0.07833040181080925
مرکزی 1
Bev@@ 0.2829010753352096
Frei@@ 0.08553193144791645
Initi@@ 0.05137221176704178
argent 0.08910769997192257
ition 0.02539594383749691
jun@@ 0.07302993171719215
promot@@ 0.026455297907825505
ի 1
Hoch@@ 0.03024428649854508
fie 0.10748412368498061
inh 0.06699308802605335
period@@ 0.12168243913457015
phys@@ 0.02397826010196427
region 0.017599863231722565
ɔ@@ 1
Л@@ 0.013269070740649553
ал@@ 0.018410037084994373
ک@@ 0.08401719418233894
∞ 1
Restaur@@ 0.10141760221312247
mission 0.015694375098936612
pers@@ 0.06454689861346022
ucky 1
Bezir@@ 0.08748570825707991
Funk@@ 0.08799408008726806
Kreis 0.06365773180686884
ators 0.02585297715567489
distr@@ 0.03840159572494602
haw@@ 0.19666105509373974
Au 0.021507678440870277
Entre 0.03912214619781304
Institu@@ 0.0924985423507831
Sonder@@ 0.10634927567002651
cht@@ 0.04348371226830656
cial 0.029684325055764404
down@@ 0.04399001043536526
porte 0.01991827983854474
prepar@@ 0.028090169203853436
wam@@ 0.5630406247988976
ре@@ 0.0035317668681012224
Cep@@ 1
Champi@@ 0.07388917466448516
Compan@@ 0.20694988033697762
December 0.008523792426108283
aî@@ 0.1419155444242672
conn@@ 0.011336771702550312
door 0.03989425695100637
jina 0.6114796487657288
mee 0.30007732648861757
mov@@ 0.015226545826323294
nant 0.040384826980804325
onnat 0.1164480173995414
τ@@ 0.032639172343443074
Landkreis 0.058879649707347395
Zug@@ 0.059213545555058096
austr@@ 0.061459361812030544
bour@@ 0.04455634556390683
gang 0.029370568762537342
hau@@ 0.03376753808450362
mode 0.06559629563097262
oine 0.2866206500512108
rá@@ 0.09587667241717464
umbo 0.27861204155347685
wit@@ 0.05414849289099099
ας 0.04010392395357284
го@@ 0.0058777788882712
186@@ 0.27793548579287736
Feuer@@ 0.1069927875988133
Municipal 0.09249671870003748
cian 0.15760487190259115
iges 0.08116120474001043
inform@@ 0.025654659724105765
nach 0.0031022643740879785
proc@@ 0.022012341274709784
xima 0.13918299942477252
Ж@@ 0.022785957627709526
до@@ 0.0037271891014999804
щ@@ 0.017809265777171207
Ereb@@ 1
Nueva 0.045530808888586995
Portu@@ 0.05885854821692709
Professor 0.03117885037073952
azz 1
camp@@ 0.03150182433532958
lead 0.020096101952471405
migr@@ 0.039232434552001004
ques@@ 0.05912939835328134
shar@@ 0.029866492991998884
ép@@ 0.04622202067144159
س 0.03882062490491593
Inh@@ 0.07907551460694
Kinder@@ 0.08064093309718624
Pia 0.7502228379423209
acid 0.08839536623015483
alogue 0.07198428844912276
contr@@ 0.0076658061734088965
europ@@ 0.03546282222283033
iment 0.03126273402437198
open 0.02253771676947915
ungu 0.9151291678327469
vend@@ 0.09081061327846544
while 0.00576873530159584
âte@@ 0.22516621864599992
ا 0.038364004530940465
Welt 0.06121324403383432
Zealand 0.029367214239528542
ambi 0.5619967191974377
egos 0.24887302217376034
feh@@ 0.041583177098059414
mass@@ 0.07173909824109223
neur 0.052185947140505104
small 0.011648614635655002
tific@@ 0.04029073995788967
Σ 0.380724483162346
Ц@@ 0.02622078399186727
ар@@ 0.012419828415482496
ֹ@@ 1
ג@@ 1
ღ@@ 1
Kaliforni@@ 0.20275727573635327
Sud 0.042573231311678304
Zeit@@ 0.027324189662893416
known 0.004830201780148507
priv@@ 0.022242467189954252
pron@@ 0.047248174143594314
turn 0.038970771940484074
ève 0.040690617403006536
Grund@@ 0.023996307272346275
cina 0.1491228488677047
gold 0.033965413535243794
ký 0.11528075534289478
people 0.00636637160034799
ustur@@ 1
yali@@ 1
äm@@ 0.05764602631083458
ņ@@ 0.912411416260895
нович 0.07624879239206563
189@@ 0.22076591313267277
appe@@ 0.0162949657911778
ential 0.022054828131379663
française 0.02861148006775893
fron@@ 0.03063148659333
systems 0.029334056626587245
tures 0.015488715248187143
weg 0.05388960039388813
æ 0.5397099843197289
Era 0.12876096727814657
abeth 0.37002420403487024
amor 0.1425246345494571
champ@@ 0.13797065429488087
onto 0.04967499257691538
stars 0.04487778601813822
tad 0.10058716294654776
yanay@@ 1
са@@ 0.007584619819929721
Championships 0.028672492450891242
Chinese 0.023186443398685048
Ferdin@@ 0.7277609193357358
been 0.002591584077294304
eig@@ 0.03280860433197865
fiel@@ 0.032316984305780505
ions 0.05025217565532759
itage 0.04251583944579906
manos 0.06915063886378084
mt 0.056099860550893416
orod@@ 1
quan 0.03292212777032186
sign@@ 0.019553129568585435
stein@@ 0.06301418162032793
title 0.013711684055421653
who 0.0021630045501923787
zas 0.19845747432767705
της 0.004713009136850969
ха@@ 0.01536671225409415
a. 0.03907129022776445
did 0.009388675244701498
gende 0.10395558772786738
jus@@ 0.021275386516457537
leo 0.08310021240830735
lern 0.05860858219203623
quel 0.08381941285499189
utive 0.02096198356993075
Δ 0.2799839396778341
су@@ 0.00741307623155861
ر 0.04188517905414457
Corps 0.0391865496673697
[...]
