ya 1
. 1
wa 1
na 1
, 0.8336722890461379
katika 1
kwa 1
ni 1
&quot; 0.794132230729879
la 1
) 1
( 1
ku@@ 1
za 1
m@@ 1
M@@ 1
cha 1
kuwa 1
mwaka 1
kama 1
yake 1
@-@ 0.503718919120235
u@@ 1
a 0.45174679878727414
i 1
U@@ 1
o 1
ia 1
u 1
ali@@ 1
ak@@ 1
ana 1
K@@ 1
w@@ 1
nchini 1
: 1
am@@ 1
hu@@ 1
j@@ 1
au 1
N@@ 1
ani 1
ki@@ 1
k@@ 1
an@@ 1
aji 1
isha 1
kutoka 1
ik@@ 1
in@@ 1
n@@ 1
kwenye 1
Ki@@ 1
a@@ 1
pia 1
lugha 1
ili@@ 1
ini 1
zaidi 1
vya 1
z@@ 1
watu 1
im@@ 1
h@@ 1
ma@@ 1
wali@@ 1
un@@ 1
wake 1
alikuwa 1
al@@ 1
&#91; 1
&#93; 1
y@@ 1
at@@ 1
ika 1
mji 1
H@@ 1
ari 1
kati 1
; 1
o@@ 1
T@@ 1
Mto 1
W@@ 1
as@@ 1
us@@ 1
ut@@ 1
uli@@ 1
ili 1
wak@@ 1
um@@ 1
il@@ 1
ot@@ 1
ch@@ 1
kwanza 1
mwa 1
ali 1
wan@@ 1
B@@ 1
Kwa 1
nchi 1
hii 1
it@@ 1
ar@@ 1
p@@ 1
Tanzania 1
A@@ 1
zi 1
ano 1
S@@ 0.9584796172014239
v@@ 1
pamoja 1
vi@@ 1
af@@ 1
hadi 1
wakazi 1
miaka 1
Mwaka 1
i@@ 1
ilikuwa 1
jina 1
sh@@ 1
ab@@ 1
&apos; 1
ang@@ 1
aa 1
Afrika 1
wakati 1
kut@@ 1
ina 1
ah@@ 1
juu 1
uk@@ 1
Kenya 1
aj@@ 1
ap@@ 1
ek@@ 1
lakini 1
ish@@ 1
f@@ 1
huko 1
ama 1
kata 1
ung@@ 1
moja 1
tarehe 1
b@@ 1
om@@ 1
I@@ 1
ishi 1
iko 1
mara 1
mto 1
oni 1
hiyo 1
ua 1
t@@ 0.9552500936019106
P@@ 0.9841673774083205
ndani 1
mnamo 1
L@@ 0.907678118909377
Ali@@ 1
kazi 1
aka 1
asi 1
D@@ 0.8939572358013474
ambayo 1
ad@@ 1
aw@@ 1
kus@@ 1
Bahari 1
we 1
mak@@ 1
idadi 1
J@@ 1
kum@@ 1
iki 1
e@@ 1
mi@@ 1
mw@@ 1
amu 1
eneo 1
ara 1
Mkoa 1
ha@@ 1
R@@ 0.8977435516103626
Katika 1
ishwa 1
g@@ 0.9959243991719887
azi 1
Kati 1
e 0.9029282838609932
ala 1
sana 1
Maji 1
is@@ 1
sehemu 1
hatimaye 1
iwa 1
ima 1
ub@@ 1
G@@ 0.894873347620956
ok@@ 1
nyingi 1
yao 1
kup@@ 1
baada 1
isi 1
awa 1
mkoa 1
kwamba 1
ur@@ 1
up@@ 1
ea 1
eza 1
kubwa 1
el@@ 1
iri 1
chini 1
kundi 1
oma 1
wat@@ 1
mat@@ 1
amb@@ 1
Marekani 1
of@@ 1
ambao 1
Wilaya 1
mas@@ 1
ema 1
ing@@ 1
et@@ 1
tu 1
huo 1
d@@ 0.7837641985424978
ka 1
ig@@ 1
unapatikana 1
hasa 1
hivyo 1
Kusini 1
ny@@ 1
ati 1
anza 1
ai 1
ag@@ 1
li@@ 1
ti@@ 1
oa 1
mkuu 1
E@@ 0.9321987829001209
an 0.27341453064206567
anga 1
os@@ 1
and@@ 1
on@@ 1
uf@@ 1
ata 1
uni 1
timu 1
ul@@ 1
uz@@ 1
aki 1
uh@@ 1
O@@ 1
C@@ 0.6208245823960391
if@@ 1
V@@ 0.959721932329641
1 0.8635667424574964
yanaishia 1
idi 1
em@@ 1
2 0.9477487820424256
Ch@@ 1
kawaida 1
sensa 1
sababu 1
s@@ 0.4272103861850846
weza 1
l@@ 0.7424452617652882
mt@@ 1
ko 1
mbalimbali 1
- 1
Baada 1
F@@ 0.6725342697819577
ao 1
yote 1
ati@@ 1
bi@@ 1
umu 1
yenye 1
map@@ 1
Uganda 1
uma 1
zin@@ 1
mwan@@ 1
wasemaji 1
az@@ 1
was@@ 1
op@@ 1
kuf@@ 1
ir@@ 1
id@@ 1
th@@ 0.9462490229968499
huu 1
Z@@ 1
hut@@ 1
namba 1
Mashariki 1
kaskazini 1
Wa@@ 1
en@@ 0.5332283859292513
3@@ 1
endelea 1
yo 1
abu 1
ita 1
eni 1
kim@@ 1
wengi 1
wilaya 1
mb@@ 1
kila 1
or@@ 0.8652430940083482
kaunti 1
Kit@@ 1
ta@@ 1
iz@@ 1
mad@@ 1
unga 1
wa@@ 1
kit@@ 1
KK 1
Sh@@ 1
vile 1
maji 1
alizaliwa 1
ji 1
maj@@ 1
ug@@ 1
anya 1
po@@ 1
eo 1
ol@@ 1
3 0.9549744898693758
itwa 1
imu 1
si 1
us 0.8230295083354879
fu 1
bahari 1
eti 1
ambaye 1
bar@@ 1
hali 1
Kufuatana 1
ja 1
aliwa 1
er@@ 0.5445333728196617
alit@@ 1
kur@@ 1
4@@ 1
wapatao 1
lake 1
wana@@ 1
uainishaji 1
es@@ 0.9122431486256126
Wakati 1
kabla 1
Mungu 1
ba 1
on 0.18252506549867273
iliyofanyika 1
har@@ 1
usi 1
2012 1
lin@@ 1
wenye 1
Mnamo 1
siku 1
ume 1
au@@ 1
aina 1
wal@@ 1
vy@@ 1
ye 1
magharibi 1
Kik@@ 1
amba 1
iti 1
/ 0.7440236056428992
Kanisa 1
isho 1
umia 1
Al@@ 1
ath@@ 1
Kristo 1
ach@@ 1
y 0.15144221015723933
kuna 1
inayozungumzwa 1
adi 1
upande 1
Ni 1
Kim@@ 1
karne 1
kik@@ 1
ki 1
mbili 1
ambapo 1
Uingereza 1
kusini 1
ote 1
mp@@ 1
m 0.8938592452449475
aweza 1
ich@@ 1
Y@@ 1
njia 1
akiwa 1
muziki 1
imehesabiwa 1
zake 1
Ny@@ 1
av@@ 1
io 1
ada 1
uka 1
dhidi 1
olewa 1
undi 1
in 0.05155039610906482
Naili 1
da 1
ikiwa 1
inayo@@ 1
tena 1
4 0.9431902094779531
kuj@@ 1
ona 1
ajili 1
karibu 1
mab@@ 1
maf@@ 1
al 0.2837368077281593
inahusu 1
tofauti 1
Kis@@ 1
taifa 1
eli 1
Papa 1
Kin@@ 1
muda 1
jimbo 1
inga 1
5@@ 1
iliyo@@ 1
Ma@@ 1
aja 1
filamu 1
fuata 1
hi@@ 1
6@@ 1
ongo 1
5 1
di@@ 0.7947038332533912
ng@@ 1
sasa 1
ush@@ 1
mtu 1
ta 1
Makala 1
ilit@@ 1
An@@ 1
nyingine 1
olojia 1
hata 1
ud@@ 1
aba 1
In@@ 1
uzi 1
bu@@ 1
ile 1
de 0.03741708867187175
tangu 1
end@@ 1
iliy@@ 1
wote 1
wao 1
– 0.45339369691327
Kil@@ 1
mmoja 1
serikali 1
ikia 1
kadhaa 1
pili 1
mashariki 1
hili 1
fu@@ 1
ezi 1
kutokana 1
po 1
una@@ 1
humo 1
hivi 1
we@@ 1
nafasi 1
isi@@ 1
Wak@@ 1
Kaskazini 1
anda 1
pa 1
dh@@ 1
ifu 1
yan@@ 1
oh@@ 1
wengine 1
kuliko 1
ingi 1
una 0.6079420398913439
di 1
hilo 1
mit@@ 1
umika 1
tu@@ 1
ambu@@ 1
ha 1
okea 1
tatu 1
Tangu 1
Kongo 1
maisha 1
onekana 1
s 0.21839543729947727
ay@@ 1
&amp; 0.9427386278826954
asili 1
hi 1
Mw@@ 1
esha 1
&#124; 1
aliye@@ 1
zo 1
Chuo 1
waf@@ 1
alipo@@ 1
eb@@ 1
Mak@@ 1
r@@ 0.4479103178639065
any@@ 1
Mji 1
6 0.9401073944669003
kuhusu 1
7@@ 1
unda 1
ep@@ 1
isa 1
uch@@ 1
saf@@ 1
eta 1
ogo 1
be 0.49764944587493537
asa 1
chake 1
Vi@@ 1
h 0.8228485465079002
baadaye 1
20 1
be@@ 0.7370233225069375
duniani 1
ziwa 1
ira 1
leo 1
eka 1
es 0.14285072401058305
Sikukuu 1
kuz@@ 1
mujibu 1
maeneo 1
mik@@ 1
aya 1
indi 1
Mas@@ 1
7 1
ash@@ 1
ow@@ 1
kub@@ 1
mag@@ 1
Ulaya 1
ji@@ 1
Mar@@ 1
kush@@ 1
mu@@ 1
de@@ 0.6974085005274917
uri 1
mkubwa 1
enga 1
ina@@ 1
uo 1
ambo 1
muhimu 1
ele 1
Kiingereza 1
10 1
Ufaransa 1
oka 1
“ 0.6098084108529688
og@@ 1
nje 1
irika 1
shule 1
walio@@ 1
Pia 1
mchezaji 1
kw@@ 1
mar@@ 1
Kib@@ 1
vit@@ 1
oko 1
walikuwa 1
kale 1
maarufu 1
Bar@@ 1
imba 1
d 0.421970490223674
bila 1
thi 1
uv@@ 1
kuu 1
ti 1
Hindi 1
kufanya 1
yali@@ 1
uta 1
kuli@@ 1
Ujerumani 1
iriki 1
mjini 1
ib@@ 1
adhi 1
Eneo 1
eg@@ 1
watoto 1
yaani 1
Magharibi 1
zote 1
of 0.038234108200382734
familia 1
vin@@ 1
um 0.5823319959138489
und@@ 1
pekee 1
kupitia 1
” 1
kul@@ 1
inda 1
imani 1
x 1
ungu 1
wen@@ 1
opo 1
hak@@ 1
atia 1
kin@@ 1
ishaji 1
ame@@ 1
enda 1
8@@ 1
ana@@ 1
wam@@ 1
9 1
endo 1
ob@@ 1
wanawake 1
zamani 1
biashara 1
% 0.5371580363362634
ingine 1
kabisa 1
8 0.9406401797781309
The 0.11746921973637148
ou@@ 1
usu 1
vita 1
iti@@ 1
ri@@ 1
alis@@ 1
mah@@ 1
19 1
alim@@ 1
julikana 1
Januari 1
yo@@ 1
Was@@ 1
ro@@ 0.6700921312176373
aha 1
umiwa 1
ayo 1
ida 1
kan@@ 1
zili@@ 1
bunge 1
Mei 1
klabu 1
Ku@@ 1
ime@@ 1
imb@@ 1
kutumia 1
9@@ 1
ba@@ 1
Mat@@ 1
wimbo 1
habari 1
oto 1
si@@ 0.9238238070275497
atu 1
wala 1
Wakristo 1
12 1
waz@@ 1
udi 1
mwisho 1
onyesha 1
okana 1
eh@@ 1
historia 1
umb@@ 1
eshi 1
inay@@ 1
elimu 1
ango 1
huwa 1
anzishwa 1
maz@@ 1
k 0.5137771521572023
bora 1
wani 1
maana 1
ong@@ 1
mtakatifu 1
zinaz@@ 1
adil@@ 1
Oktoba 1
Japani 1
ari@@ 1
ar 0.32379551441608695
awali 1
15 1
uliwa 1
am 0.4993150913568925
kuto@@ 1
Italia 1
alik@@ 1
mita 1
mpya 1
kipindi 1
er 0.11940620120756382
ezwa 1
apa 1
mengine 1
.@@ 1
Kikuu 1
emb@@ 1
iga 1
albamu 1
apo 1
enzi 1
Julai 1
hizi 1
Roma 1
BK 1
kis@@ 1
Juni 1
zao 1
ko@@ 1
ito 1
ezaji 1
uj@@ 1
bo@@ 1
ambazo 1
pen@@ 1
kupata 1
binadamu 1
I 0.8096410142554067
kuanzia 1
engo 1
umba 1
izi 1
mpira 1
iki@@ 1
Novemba 1
Burundi 1
Kir@@ 1
waishio 1
kil@@ 1
kij@@ 1
man@@ 1
ri 1
ih@@ 1
ale 0.7737254980641769
jamii 1
jumla 1
mis@@ 1
mito 1
15@@ 1
umri 1
lili@@ 1
yanay@@ 1
Machi 1
hayo 1
uko 1
milioni 1
Desemba 1
Agosti 1
Wan@@ 1
Septemba 1
ing 0.12180908692002121
afu 1
anay@@ 1
2000 1
Mal@@ 1
t 0.2072557468019981
Maisha 1
ma 1
ziliz@@ 1
Aprili 1
huadhimishwa 1
km 1
mfano 1
18 1
aliy@@ 1
du 0.21424101196911743
Historia 1
ip@@ 1
New 0.8204983237099924
11 1
lia 1
wi 1
sa 0.8770592769957929
angaza 1
du@@ 1
iku@@ 1
ane 1
apo@@ 1
takriban 1
dunia 1
tam@@ 1
usawa 1
mil@@ 1
2014 1
30 1
ham@@ 1
Mi@@ 1
miguu 1
ino 1
16 1
kifo 1
uru 1
nguvu 1
Wat@@ 1
kimataifa 1
Nigeria 1
eng@@ 1
kiasi 1
kun@@ 1
nyimbo 1
Kuna 1
2007 1
mau@@ 1
ye@@ 1
iv@@ 1
A 0.48091600101175536
kuji@@ 1
ania 1
aki@@ 1
makuu 1
13 1
msingi 1
Ar@@ 0.7921017572678206
to 0.047097337498078456
and 0.033082271576007634
uziki 1
od@@ 1
kiwa 1
2@@ 1
17 1
Kid@@ 1
Februari 1
Yesu 1
dini 1
matumizi 1
adi@@ 1
Tuzo 1
ej@@ 1
wahi 1
fanya 1
jiji 1
ungo 1
kisiwa 1
mrefu 1
Dunia 1
andika 1
et 0.09426765874685031
16@@ 0.8600803980813577
amezaliwa 1
wach@@ 1
michezo 1
andishi 1
esh@@ 1
akati 1
andikwa 1
aifa 1
ora 1
Hata 1
Jamhuri 1
14 1
mwenye 1
hapo 1
mash@@ 1
0,000 1
aza 1
kua 1
mch@@ 1
to@@ 0.9024307854441517
mengi 1
do 1
kuw@@ 1
Uch@@ 1
ezea 1
Kig@@ 1
umwa 1
25 1
elekea 1
zwa 1
ho@@ 1
liwa 1
ulikuwa 1
hizo 1
ajulikana 1
the 0.0151346402597981
ine 0.4747725664992959
kampuni 1
Katoliki 1
era 0.8744633789323346
Idadi 1
ansi 1
bi 1
kam@@ 1
Mor@@ 1
2008 1
askofu 1
alish@@ 1
2009 1
engen@@ 1
imo 1
su@@ 0.7076274856458985
mechi 1
fulani 1
As@@ 1
ambalo 1
Mu@@ 1
jum@@ 1
mpaka 1
uwezo 1
se@@ 0.6403710181615527
unguza 1
me@@ 1
alicheza 1
mtoto 1
zi@@ 1
ache 1
ule 1
baadhi 1
rasmi 1
utawala 1
Kar@@ 1
alia 1
wana 1
ato 1
aidia 1
ie 0.41216326002045506
mojawapo 1
mfumo 1
2006 1
lik@@ 1
ewa 1
el 0.08457611015859953
Misri 1
jijini 1
linal@@ 1
umbo 1
l 0.2963967673594419
Ab@@ 0.880035873889324
kom@@ 1
yak@@ 1
kwenda 1
Man@@ 1
sheria 1
Am@@ 1
inaweza 1
ongozi 1
ov@@ 1
iy@@ 1
sa@@ 1
ilia 1
kuch@@ 1
ota 1
hus@@ 1
en 0.04440362200669461
pata 1
lilil@@ 1
21 1
ibu 1
Mt@@ 1
mz@@ 1
2011 0.9614813752760272
unge 1
imbo 1
kuv@@ 1
Lakini 1
ne 0.5435353520402173
Jina 1
emu 1
pande 1
ang 1
mwandishi 1
aga 1
haki 1
vu 1
U 1
kiwango 1
inat@@ 1
kon@@ 1
irik@@ 1
’ 0.28088523542454225
aguliwa 1
nne 1
g 0.6388834864810875
bu 1
damu 1
li 1
isiwa 1
mwingine 1
Kih@@ 1
ungwa 1
vip@@ 1
izo 1
is 0.0762613807537655
Kazi 1
tuzo 1
2015 1
re@@ 0.13978587017932068
ain@@ 1
atibu 1
ge 0.743823244933923
le@@ 0.4003062816335995
mwili 1
amo 1
gi@@ 0.797655096591821
bali 1
pe@@ 0.9934961438616378
iku 1
amini 1
17@@ 0.6166060339072357
wanda 1
shirika 1
Marejeo 1
ez@@ 1
kuk@@ 1
ah 1
tak@@ 1
rangi 1
vili@@ 1
wili 1
mg@@ 1
ugonjwa 1
her@@ 0.9311338615093053
24 1
ae 1
B 1
ila 1
kip@@ 1
ekwa 1
yeye 1
chama 1
ababisha 1
maal@@ 1
Ziwa 1
wap@@ 1
kilich@@ 1
kucheza 1
aka@@ 1
kutoa 1
apatikana 1
kea 1
ndege 1
msh@@ 1
neno 1
amia 1
elek@@ 1
wezi 1
Th@@ 0.6866793528437045
ra@@ 1
asilimia 1
10@@ 1
pewa 1
ind@@ 1
kud@@ 1
14@@ 1
Umoja 1
oz@@ 1
vil@@ 1
at 0.10779482646072189
ombo 1
000 1
anzisha 1
ambako 1
ndio 1
zil@@ 1
itaji 1
kio 1
egemea 1
sita 1
mahali 1
chang@@ 1
kumi 1
dia 1
awala 1
Waz@@ 1
amizi 1
pu@@ 1
ge@@ 0.5879603371161208
undo 1
uchumi 1
chuo 1
nyota 1
wez@@ 1
azo 1
hapa 1
as 0.07155935906664204
hal@@ 1
22 1
anywa 1
eshwa 1
Tanganyika 1
mfalme 1
amani 1
os 0.23551204695182076
Mkuu 1
lil@@ 1
uli 1
halafu 1
uhuru 1
oro 1
Uturuki 1
ingia 1
Mwan@@ 1
uwanja 1
wanyama 1
Kut@@ 1
Amerika 1
bado 1
Kab@@ 1
osa 1
afrika 1
binafsi 1
st@@ 0.2515509796135034
mambo 1
ke 1
mwezi 1
ef@@ 1
2005 1
ra 1
afan@@ 1
yana@@ 1
II 1
kujit@@ 1
ai@@ 1
mdogo 1
yaliy@@ 1
ongoza 1
jeshi 1
ate 0.27712775368522796
or 0.1611981563522043
ingawa 1
ed@@ 0.5339829266645417
mbali 1
aliz@@ 1
23 1
eno 1
Wam@@ 1
asilia 1
katikati 1
vik@@ 1
uchaguzi 1
walit@@ 1
ikali 1
acha 1
fi@@ 1
uy@@ 1
islamu 1
Jimbo 1
ezo 1
mama 1
mazingira 1
chukua 1
kikuu 1
chakula 1
joto 1
Wakatoliki 1
ke@@ 1
osi 1
ndogo 1
mam@@ 1
mta@@ 1
ubwa 1
Uwanja 1
mal@@ 1
Rais 1
iny@@ 1
tr@@ 0.24208556290690725
atikana 1
Atlantiki 1
Mil@@ 1
ono 1
chi 1
2002 1
² 1
mwenyewe 1
un 0.10243303059920084
ilo 1
2010 0.6692753493752481
hao 1
falme 1
kijiji 1
kar@@ 1
kwake 1
hamia 1
le 0.073410150125183
sawa 1
wakil@@ 1
zile 1
Guinea 1
hud@@ 1
Hii 1
dawa 1
huelekea 1
pot@@ 1
awi 1
ambuk@@ 1
é 0.2188140171188263
ela 1
13@@ 1
Alikuwa 1
Baadaye 1
27 1
nyumbani 1
uso 1
ura 1
Wal@@ 1
pel@@ 1
alif@@ 1
te@@ 0.5816031968159615
Mah@@ 1
n 0.3143495114703181
Yeye 1
usha 1
jinsi 1
ahudi 1
iriki@@ 1
makubwa 1
anzo 1
umbu@@ 1
Mia 1
namna 1
Tarafa 1
28 1
Kiarabu 1
engwa 1
= 1
len@@ 1
huru 1
hab@@ 1
tish@@ 1
Mara 1
1,@@ 1
indo 1
Maj@@ 1
Waorthodoksi 1
bas@@ 1
Kifaransa 1
War@@ 1
wah@@ 1
Di@@ 0.8009302557686239
visiwa 1
hai 1
Ng@@ 1
onjwa 1
Wah@@ 1
wanaoishi 1
hur@@ 1
rais 1
Kama 1
Ukristo 1
jini 1
26 1
Ghana 1
tun@@ 1
usiano 1
dugu 1
ist@@ 0.76551880272186
mwen@@ 1
pwani 1
lilikuwa 1
p 0.50071466011659
aribu 1
elea 1
upo 1
kisiasa 1
hatari 1
Mag@@ 1
jiunga 1
Vita 1
pokea 1
Watu 1
kali 1
urefu 1
baba 1
endi 1
fupi 1
w 0.48696477859218035
2016 0.7923261149032955
undwa 1
matokeo 1
Yohane 1
indwa 1
29 1
alianza 1
embe 1
El@@ 0.852268720583902
uku@@ 1
anaheshimiwa 1
huduma 1
ifu@@ 1
kulingana 1
ovu 1
tano 1
Mp@@ 1
amua 1
kia 1
ando 0.7893666660905718
mr@@ 1
Mpya 1
wale 1
wenyewe 1
kidogo 1
M 1
ayar@@ 1
kat@@ 1
Waf@@ 1
asisi 1
kinach@@ 1
amp@@ 1
jo 1
z 0.49555403814098864
saba 1
kich@@ 1
avyo 1
uti@@ 1
2018 0.7962997878559002
Orodha 1
kitabu 1
Tarehe 1
kab@@ 1
ori 1
ev@@ 0.7325326909665683
kanda 1
oloni 1
ongeza 1
ungua 1
Paulo 1
atwa 1
iliano 1
anz@@ 1
nyumba 1
vyo@@ 1
12@@ 1
spishi 1
kid@@ 1
angu 1
mlima 1
huku 1
watakatifu 1
has@@ 1
Jamii 1
hewa 1
Ag@@ 1
ij@@ 1
so@@ 0.7009284446956595
ahada 1
hif@@ 1
Urusi 1
picha 1
vitabu 1
Dar 1
maneno 1
Ser@@ 1
abara 1
haya 1
huri 1
uu 1
Map@@ 1
ond@@ 1
mwigizaji 1
miji 1
ami@@ 1
Kuu 1
uti 1
pi@@ 0.6302887814255278
Dola 1
Jum@@ 1
Mad@@ 1
kuh@@ 1
te 0.15286300377281747
C 0.7796561222291244
utamaduni 1
wawili 1
endel@@ 1
b 0.5762921071918876
Kip@@ 1
2017 0.7882290202098927
Sab@@ 1
Hispania 1
uawa 1
ere 0.8154430343048908
100 1
air@@ 1
vijana 1
anii 1
anzi 1
abila 1
are 0.17236488243317405
Kilatini 1
do@@ 0.6942323145995365
2013 0.7222359551806207
pas@@ 1
bao 1
ulu 1
aliza 1
enea 1
Ili@@ 1
adili 1
refu 1
bin@@ 1
eri 1
milima 1
alich@@ 1
eleza 1
ulimweng@@ 1
Ru@@ 1
afuta 1
ambi 1
mwanam@@ 1
,000 1
korongo 1
men@@ 0.8560787111990514
c@@ 0.15870972192892333
zim@@ 1
Australia 1
ad 0.5842137251682685
40 1
Gu@@ 0.9163682772579304
ui 1
2020 0.8466119865939108
3,@@ 1
kari 1
mchang@@ 1
makao 1
engine 1
gt 0.9591682127613497
ambia 1
Kiswahili 1
avy@@ 1
lim@@ 1
shughuli 1
anyika 1
masomo 1
ekana 1
haz@@ 1
hicho 1
jit@@ 1
31 1
avu 1
Wab@@ 1
hiki 1
2019 0.7860157984995825
postikodi 1
Kif@@ 1
man 0.4205655388319987
sauti 1
moyo 1
majina 1
aanisha 1
ajwa 1
msimu 1
ike 1
lt 0.933032765358422
ulio@@ 1
Biblia 1
umo 1
ahidi 1
oti 1
Mab@@ 1
mbele 1
! 1
hatua 1
enti 1
ju@@ 1
ombe 1
afya 1
angulia 1
unza 1
Kal@@ 1
kilomita 1
jumu@@ 1
Hivyo 1
K. 1
Asia 1
iriwa 1
tisha 1
ndiyo 1
opatikana 1
ambacho 1
Ethiopia 1
aguzi 1
Bonde 1
2003 1
afu@@ 1
sal@@ 1
ran@@ 0.661300616975361
York 0.8315489879503238
andao 1
2001 1
Shule 1
alifariki 1
adiriwa 1
John 0.7538810302124148
Kam@@ 1
kili@@ 1
ongoni 1
linalopatikana 1
mwimbaji 1
vir@@ 1
vyake 1
kuanz@@ 1
bea 1
ee 1
jia 1
zinazo@@ 1
dio 1
Mo@@ 1
Ut@@ 1
c 0.2641910193871915
zuri 1
kina 1
ho 1
oja 1
sim@@ 1
esi 1
ong 1
ungano 1
kari@@ 1
mich@@ 1
mabadiliko 1
1990 1
Salaam 1
angwa 1
kote 1
ongezeka 1
say@@ 1
baya 1
pan@@ 1
ingo 1
2004 0.8967386237660447
Ak@@ 1
kisha 1
undu 1
kumbu@@ 1
uba 1
ic@@ 0.29937051723698854
ardhi 1
anach@@ 1
msa@@ 1
no 0.3342360105589621
udi@@ 1
oy@@ 1
Uhindi 1
weka 1
afiri 1
emi 1
usika 1
ac@@ 0.2209665429205988
okrasia 1
Ba@@ 1
yako 1
ikuwa 1
iliyot@@ 1
ast@@ 1
r 0.636967246328701
50 0.9859457686083839
Bur@@ 1
utafiti 1
emo 1
eshimiwa 1
iadini 1
mwanachama 1
ukumu 1
mfululizo 1
Way@@ 1
maendeleo 1
isheni 1
ku 1
zuia 1
Kibantu 1
kituo 1
mwanamke 1
one 0.19148214654790258
China 1
yeji 1
ilik@@ 1
Lu@@ 1
kitaifa 1
zilizo@@ 1
ony@@ 1
ashara 1
kufikia 1
Zanzibar 1
ena 1
wanza 1
.. 1
Ben@@ 1
amin@@ 1
Sp@@ 0.8733447836185458
Ta@@ 1
takatifu 1
yen@@ 1
kisasa 1
mf@@ 1
umi 1
iliwa 1
soka 1
wad@@ 1
evile 1
kol@@ 1
ni@@ 0.5118159119954517
20@@ 1
fa@@ 1
por@@ 0.9970134669620188
alme 1
elewa 1
sw@@ 1
omba 1
lo@@ 0.3105936302238352
n.k. 1
walio 1
wepo 1
gu@@ 0.559302502518497
arifa 1
induzi 1
siri 1
inayot@@ 1
jerumani 1
majimbo 1
posta 1
anyiko 1
naye 1
vizuri 1
aalamu 1
alipata 1
ers 0.14013877653935633
kataba 1
halisi 1
esa 1
jeni 1
unzi 1
upe 1
anishwa 1
haraka 1
ungum@@ 1
Gal@@ 1
Waislamu 1
Kigiriki 1
iger 1
ishoni 1
hesh@@ 1
kifupi 1
wafany@@ 1
0@@ 1
haw@@ 1
Kiy@@ 1
Ufa 1
abab@@ 1
pokuwa 1
Alit@@ 1
ehe 1
uza 1
kr@@ 1
kufu@@ 1
Wali@@ 1
Car@@ 0.5499354958457034
kiongozi 1
walik@@ 1
kikubwa 1
Waj@@ 1
Chama 1
Mch@@ 1
Mus@@ 1
ola 1
4,@@ 1
Alb@@ 1
ak 0.8457862552339256
met@@ 1
rekodi 1
mip@@ 1
ze 1
waj@@ 1
2,@@ 1
laka 1
akili 1
alifanya 1
aria 1
miwili 1
onge@@ 1
aume 1
matatizo 1
Nyan@@ 1
kir@@ 1
usal@@ 1
awany@@ 1
ber@@ 0.40368490947080765
omo 1
anchi 1
bad@@ 1
Kale 1
fur@@ 1
haa 1
kad@@ 1
ay 0.5017945254200986
upendo 1
wango 1
Kich@@ 1
Maria 1
Kirumi 1
Un@@ 0.9837835735856458
lich@@ 1
vid@@ 1
zoni 1
Be@@ 0.46047274930114723
ga 1
kumbu 1
tabia 1
dar@@ 1
Hu@@ 1
hakuna 1
sanaa 1
zen@@ 1
angazwa 1
mwanzo 1
Makao 1
vyo 1
Nairobi 1
ech@@ 1
ole 1
par@@ 0.28395034148387277
elezo 1
ene 0.6931518678494238
Ji@@ 1
O 0.7139316770619311
min@@ 0.5227202442505985
andi@@ 1
arabu 1
kamili 1
uma@@ 1
kuishi 1
Mlima 1
ton 0.48895059029281634
Lugha 1
umbe 1
laz@@ 1
mif@@ 1
Mon@@ 0.6344914930722214
mashindano 1
siasa 1
unguzi 1
ze@@ 1
Tab@@ 1
Ing@@ 1
Tr@@ 0.3412286875097112
chu@@ 1
matibabu 1
Re@@ 0.34358078634047556
inzani 1
x@@ 0.4299401370231038
Ad@@ 0.7386803714267575
Le@@ 0.5242718791158575
Q@@ 1
wazo 1
fa 1
yewe 1
wenzake 1
Mataifa 1
pa@@ 1
fedha 1
son 0.16033530959910983
Br@@ 0.41299146418504845
kiny@@ 1
T 0.7686370146363878
adiri 1
afiti 1
ondo@@ 1
it 0.10605886617318516
kusababisha 1
umeme 1
ogoro 1
Har@@ 1
msanii 1
ajiri 1
Bo@@ 0.7498732548479928
anzia 1
ass@@ 0.3851522288632531
unao@@ 1
Tak@@ 1
kuingia 1
kutengen@@ 1
Kamp@@ 1
anik@@ 1
isti 1
ahi 1
ten@@ 0.3907367212195976
ndiye 1
nyuma 1
Kiaustronesia 1
azama 1
huitwa 1
wanah@@ 1
irani 1
ula 1
unganisha 1
Wimbo 1
wiki 1
ume@@ 1
wasi@@ 1
kweli 1
ingi@@ 1
oli 1
oo 1
uwe@@ 1
mwanasiasa 1
ru@@ 0.5931602672324287
ukw@@ 1
Pe@@ 1
akuwa 1
war@@ 1
vifaa 1
sifa 1
aur@@ 1
avyo@@ 1
bara 1
tar@@ 1
orodha 1
Turkana 1
kike 1
wanafunzi 1
Wag@@ 1
ingereza 1
odi 1
angalia 1
kabila 1
och@@ 1
tambu@@ 1
San@@ 1
ake 1
ph@@ 0.2900632118229822
kutano 1
onyesho 1
amp 0.5127482475554667
ew@@ 1
ongozwa 1
osh@@ 1
Kimataifa 1
kilimo 1
oj@@ 1
sam@@ 1
Usw@@ 1
doa 1
mani 1
30@@ 1
aribio 1
hiwa 1
mshindi 1
seli 1
cho@@ 1
ishia 1
ur 0.5679915748396759
je 1
kijamii 1
kiz@@ 1
hay@@ 1
ou 0.4135820526711576
dalili 1
Pi@@ 1
akazi 1
id 0.6205632314124657
1999 0.9605396928412926
Mit@@ 1
akawa 1
buni 1
ografia 1
ukubwa 1
wag@@ 1
kushinda 1
hadi@@ 1
tay@@ 1
kani 1
Kikristo 1
ondoka 1
tol@@ 1
yoy@@ 1
ufu@@ 1
hib@@ 1
ilifu 1
sil@@ 1
usiana 1
Mer@@ 1
Sher@@ 1
mkono 1
wame@@ 1
D 0.6489774739573221
tarakimu 1
ekani 1
Kombe 1
ugen@@ 1
mchezo 1
Bwana 1
Kas@@ 1
ui@@ 1
yek@@ 1
ulit@@ 1
ey 0.8549790001769018
Ms@@ 1
nia 1
yas@@ 1
husika 1
bia 1
Indonesia 1
Ame@@ 1
azim@@ 1
gen@@ 0.4868590978700206
Si@@ 1
awe 1
evu 1
ins@@ 0.8658448428765111
umma 1
ulia 1
wali 1
hup@@ 1
6,@@ 1
ofu 1
ndi@@ 1
iria 1
faa 1
bio 1
hat@@ 1
Hak@@ 1
asha 1
sum@@ 1
tari 1
etu 1
ne@@ 0.45971980100083054
utu 1
ii 1
osha 1
Mf@@ 1
bid@@ 1
kura 1
azam@@ 1
anat@@ 1
60 1
inu 1
igizaji 1
1991 1
auti 1
angi 1
anti 1
sis@@ 1
thi@@ 1
Bi@@ 0.9021202711117232
tasa 1
ingana 1
8,@@ 1
kati@@ 1
St@@ 0.3045568944934159
bak@@ 1
aji@@ 1
ria 1
tw@@ 1
atizo 1
tar 1
70 1
adu@@ 1
7,@@ 1
80 1
lu 1
----@@ 1
dua 1
jam@@ 1
vua 1
Sudan 1
esabiwa 1
emba 1
R 0.6183604070306509
1@@ 1
N 0.7715436310870388
Kan@@ 1
Seh@@ 1
---- 1
1995 1
unat@@ 1
90 1
Baba 1
jwa 1
mim@@ 1
moto 1
1994 1
aro 1
alama 1
pok@@ 1
la@@ 0.6408885095402144
yam@@ 1
? 1
dari 1
hau@@ 1
Mb@@ 1
nad@@ 1
Ivoire 1
yat@@ 1
Ang@@ 0.8543074025402635
cho 0.7890771405072656
land 0.3375681205246395
CC@@ 1
ed 0.041995805737709994
mach@@ 1
1993 1
amoja 1
Al 1
bur@@ 0.8627106273087666
Nam@@ 1
adini 1
mon@@ 0.3746823150612417
1997 0.9977655760387308
Gr@@ 0.46133955248151864
kh@@ 0.9388543199545628
ilio 1
ebu 1
za@@ 1
Is@@ 1
fun@@ 1
kez@@ 1
umi@@ 1
amba@@ 1
Pas@@ 1
ako 1
ei 1
ol 0.6911182627208812
X@@ 0.7154601021573156
1998 0.9040014674224014
wash@@ 1
igi@@ 1
his@@ 1
Fil@@ 1
aham@@ 1
uki 1
Mich@@ 1
Tun@@ 1
uw@@ 1
AN@@ 1
Fran@@ 1
Pr@@ 0.5274921687421846
Par@@ 0.39841464050186914
he@@ 0.400563008920578
onga 1
pol@@ 1
Israeli 1
Vig@@ 1
London 0.9730799654847266
progr@@ 1
1.@@ 1
f 0.36222236369410193
leng@@ 1
video 1
eko 1
ose@@ 1
utar@@ 1
angaz@@ 1
ant@@ 0.49675604712799937
jen@@ 1
1996 0.9553240049722338
ilim@@ 1
1980 1
1970 1
Bot@@ 1
Maz@@ 1
igo 1
Sal@@ 0.930418858665858
Papua 1
lina 1
lit@@ 1
Sah@@ 1
achama 1
bel@@ 0.6474735253157919
py@@ 1
san@@ 1
1992 0.9744101837098943
Nak@@ 1
Kr@@ 0.719327427220722
chap@@ 1
ley 0.5441355505848965
sha 1
Som@@ 1
dom@@ 1
ikuu 1
abi@@ 1
br@@ 0.2208221044553083
telev@@ 1
E 0.5919064489946174
Sa@@ 1
ng 1
0 0.5581516758829286
City 0.6697014164189071
Kat@@ 1
200 1
ent@@ 0.17030183390769654
awa@@ 1
dola 1
asi@@ 1
hol@@ 0.8670363107496413
adamu 1
ago 1
Ir@@ 1
United 0.39208162869516777
naf@@ 1
ega 1
miz@@ 1
sit@@ 1
Tib@@ 1
Leo 1
nj@@ 1
tan@@ 1
500 1
icha 1
California 1
pale 1
Af@@ 1
En@@ 0.5177364283973254
hara 1
sala 1
Korea 1
ision@@ 1
akatifu 1
ok 1
Brazil 1
Nobel 1
ispania 1
ms@@ 1
Sen@@ 0.9592264615324138
hul@@ 1
nak@@ 1
Sim@@ 1
• 1
ngo@@ 1
Or@@ 0.47418181489167693
q@@ 1
se 0.05920747569924592
bo 1
kal@@ 1
De@@ 0.5017468404523148
eke 1
pom@@ 1
tro 1
ufu 1
agua 1
meli 1
ter@@ 0.22223961326371927
Sam@@ 1
oga 1
Hab@@ 1
Ligi 1
Yer@@ 1
Her@@ 0.5271901965227312
eja 1
Bal@@ 0.9361156474892258
Co@@ 0.42148115141176207
wenda 1
far@@ 1
yet@@ 1
orod@@ 1
ongo@@ 1
simu 1
yon@@ 1
fariki 1
oc@@ 0.23521034715802586
25@@ 1
hum@@ 1
wanao@@ 1
5,@@ 1
arufu 1
ard 0.36262063413299933
mo@@ 0.31961820498178745
bor@@ 0.6662287909167449
1988 1
ens@@ 0.34207873885704787
iw@@ 1
Kh@@ 1
1960 1
ic 0.24236727353165485
sin@@ 1
Nor@@ 0.6430525290308152
hindi 1
usi@@ 1
Ali 1
Mur@@ 1
emia 1
Mik@@ 1
imi 1
mali 1
Em@@ 1
Vietnam 1
Kanada 1
Se@@ 0.4121659824538648
Kum@@ 1
uku 1
il 0.11804808116399933
vis@@ 0.4849997694321346
Yo@@ 1
ard@@ 0.7189852525637659
eva 1
ir 0.3875254227362193
9,@@ 1
indano 1
anj@@ 1
Wad@@ 1
pad@@ 1
olo 1
idae 1
Bu@@ 1
Hal@@ 1
Ro@@ 0.46210931146681244
aye 1
dogo 1
teria 1
gh@@ 1
Kamer@@ 1
B.@@ 1
Kag@@ 1
anisha 1
atom@@ 1
tim@@ 0.5369542556360162
vi 1
0.@@ 0.9461160407371042
Con@@ 0.26108677153903
Oli@@ 1
burg 0.892178443218111
Chi@@ 1
Pol@@ 0.7161269120271625
ation 0.06722134376008801
Dod@@ 1
L 0.41351738647503516
Uta@@ 1
35 1
Kais@@ 1
sar@@ 1
Li@@ 0.5654534473227038
est@@ 0.24043121462793912
32 1
Ber@@ 0.4753250973686891
Vik@@ 1
gaz@@ 1
kas@@ 1
iza 1
singi 1
idi@@ 1
aduni 1
tiki 1
Ju@@ 1
sur@@ 0.3970406943949939
re 0.2382563661191984
yi 1
1989 0.9366318024211171
agon@@ 1
‘ 1
Ka@@ 1
band@@ 1
1987 1
col@@ 0.3765737029574067
tas@@ 1
Ho@@ 0.9784489843728869
ch 0.24150142703073296
huy@@ 1
ligi 1
Kari@@ 1
sk@@ 0.6430356924752265
zek@@ 1
Na 1
Per@@ 0.4338528680905123
gir@@ 1
Vil@@ 1
ome 1
Anat@@ 1
Say@@ 1
hari@@ 1
Cor@@ 0.4999910520812475
So@@ 0.8728973131586977
Zimbab@@ 1
ec@@ 0.1941680186597494
lang@@ 1
III 1
nd@@ 1
India 1
ory 0.5151176939825589
son@@ 0.8274199882617439
zis@@ 1
Tar@@ 1
taraf@@ 1
yal@@ 1
afunzi 1
asia 1
S 0.473460672644081
ongez@@ 1
F 0.5264726008671874
babu 1
umani 1
2021 0.5408316742462658
Paris 0.6647054650003711
ame 1
hospit@@ 1
pole 1
Angola 1
V 0.6590322668277844
La 0.10673168702797706
imbaji 1
hek@@ 1
pl@@ 0.217852743089138
Moh@@ 1
thel@@ 1
Kor@@ 1
aunti 1
adhim@@ 1
Su@@ 0.6922008416192436
pos@@ 0.30629151136577415
IM@@ 1
iba 1
tekn@@ 1
Rom@@ 0.9953398130098585
isto 1
eria 1
umizi 1
West 0.6975354876084755
ais 0.7424541359487938
isia 1
may@@ 1
reno 1
Ver@@ 0.18477852818964038
Mach@@ 1
lao 1
Tam@@ 1
ado 0.12785067514421658
He@@ 0.45983233210525876
Kol@@ 1
ab 0.44017085937031675
ace 0.5124423131402667
monaster@@ 1
efu 1
fal@@ 1
ken@@ 1
kesi 1
Michael 1
inj@@ 1
Ur@@ 0.8400161067536925
Bas@@ 0.7551486012776099
Il@@ 1
aus@@ 0.22605502988438053
fut@@ 1
prot@@ 0.5448954007972867
Aleksand@@ 1
reli 1
ung 0.12480808891695434
fo 1
34 1
Roh@@ 1
by 0.03692723711701619
oria 1
Vit@@ 1
Ni@@ 1
Sing@@ 1
sab@@ 1
v 0.48638565954685964
kais@@ 1
kamp@@ 1
Mis@@ 1
vol@@ 0.5666850056244602
33 1
FC 0.8601614613752994
hali@@ 1
° 0.8877667571512391
andi 1
eng 1
Cape 1
James 0.7934174102024221
Alger@@ 1
X 0.7528732910784377
ben@@ 1
br 1
endeleo 1
imar@@ 1
Bab@@ 1
for 0.03220319656043496
ot 0.5028463533471627
Mos@@ 1
Dar@@ 0.9273846419928113
alo 1
hot@@ 1
Com@@ 0.29207539359211143
tab@@ 1
ly 0.12768505415948828
ore 0.41761997853231647
Maf@@ 1
ue 0.2739845560265635
Sek@@ 1
Sch@@ 0.15450094088410418
ambul@@ 1
iro 1
jer@@ 1
kem@@ 1
é@@ 0.1289971836321064
Kur@@ 1
sik@@ 1
studio 1
hes@@ 1
fan@@ 1
28@@ 1
2.@@ 0.9372641550279052
Du@@ 0.9668521222967066
Lo@@ 0.5756467142667959
him@@ 1
elem@@ 1
olia 1
onde 1
Me@@ 0.4967589352940535
kah@@ 1
rah@@ 1
1982 0.9872883532246972
Africa 1
age 0.11371148049245573
chan@@ 1
P 0.5086190082081016
To@@ 0.6965313170354058
Far@@ 1
Ig@@ 1
Jo@@ 0.7089103550066956
chen@@ 1
opo@@ 1
1981 0.9904086685331619
King@@ 1
em 0.4385238748538166
36 1
Den@@ 1
ary 0.163798717122897
1986 0.8970097369880269
Kul@@ 1
fer@@ 0.3561935840269008
tia 1
Kon@@ 0.5602597297791996
ez 0.8688023747191385
African 1
Col@@ 0.37163011789715067
fas@@ 1
win@@ 0.7723112778126758
We@@ 0.4538929155762395
hand@@ 0.7015392392413488
ve 0.1084189706172342
For@@ 0.4091453942817544
pino 1
ure 0.23681668162580097
ami 1
G 0.524525830818701
ava 1
ens 0.1871953466377907
ka@@ 1
tem@@ 1
les 0.04393522654123452
K.@@ 1
afi 1
hip 1
ende 0.4979416258264483
hop 1
all@@ 0.3093099728845109
engi 1
ire 0.3830946165348471
med@@ 0.9039970626347998
had@@ 1
1985 0.891702277734406
1984 0.8891299642933749
El 0.15638712940385388
FIFA 1
ro 0.7897571245337083
Hat@@ 1
Ste@@ 0.5658051871889593
ac 0.9014612671302601
co 0.35756441328738603
Austria 1
75 1
William 0.6688488130829106
ram@@ 1
pak@@ 1
ask@@ 1
lo 0.24854501258250958
ngu@@ 1
Ne@@ 0.3453689289996227
lu@@ 0.42724932215433475
K 0.6436267060404338
Vy@@ 1
imi@@ 1
zu 0.10373084951224681
Ed@@ 0.606158334935395
Mc@@ 0.4772070110314127
asim@@ 1
der 0.016533320769063956
ice 0.24904477045793144
45 0.8905275294233482
George 0.7236912077812313
37 1
row 1
gesi 1
300 1
Paul 0.6883993269190809
fuatana 1
Ko@@ 1
Tor@@ 0.7580637381911558
bal@@ 0.8778133974605496
ban 1
yer@@ 1
bahar@@ 1
pin@@ 1
q 1
va 0.5462481280388031
Joseph 1
juli@@ 1
pe 0.47981233726740136
39 1
fau@@ 1
nas@@ 1
egem@@ 1
Mari@@ 1
ondo 1
ica 0.27577175898684764
kund@@ 1
ell 0.2968078014926505
qu@@ 0.119849667520639
tag@@ 1
TV 0.7237806541670615
ulikana 1
Ge@@ 0.3445363565929361
usa 1
* 0.4581041054595418
Can@@ 0.88029323624113
ans 0.1480998309613705
400 1
mir@@ 1
gun@@ 1
pek@@ 1
ter 0.11482227847556914
jo@@ 0.8596378266154641
At@@ 0.812885577169299
Mom@@ 1
ford 0.6475138348977986
nde@@ 1
omb@@ 1
26@@ 1
Greg@@ 1
ey@@ 0.8694521114322239
rie 1
Bon@@ 1
pig@@ 1
24@@ 1
National 0.3217548263114159
Pal@@ 0.5783555665507871
aum@@ 1
fah@@ 1
0,@@ 0.8467458800342181
run@@ 1
Ram@@ 1
Bel@@ 0.43984000602594003
29@@ 1
Gar@@ 0.7074154523978406
Nar@@ 1
Wach@@ 1
afa 1
om 0.6959782567598447
kuten@@ 1
47 1
Qu@@ 0.285596518752027
atimaye 1
ent 0.061424985328809294
mi 1
onia 1
yr@@ 0.5433544278383746
5,000 1
Az@@ 1
Saint 0.39203789058705757
49 1
uri@@ 1
38 1
gu 1
Us@@ 1
mkon@@ 1
pedia 1
alfab@@ 1
da@@ 1
fuat@@ 1
inah@@ 1
East 0.7729982294327127
Ha@@ 1
1964 0.9938232318294966
Na@@ 1
chem@@ 1
vig@@ 1
Robert 0.7020582129840949
isim@@ 1
k.@@ 1
Awards 1
aku 1
Mand@@ 1
anak@@ 1
-@@ 0.5399587388639864
avi 1
okia 1
pat@@ 0.867072173052031
ya@@ 1
Kl@@ 1
sahi@@ 1
Charles 0.6778422746315348
Po@@ 0.5165047730426121
Tu@@ 1
ris@@ 1
waw@@ 1
42 1
Er@@ 0.2237474376441437
Med@@ 1
Up@@ 1
bun@@ 1
dak@@ 1
des 0.023012091801501926
mark 1
Gi@@ 0.6404876465748623
shu@@ 1
som@@ 1
Ath@@ 1
afir@@ 1
hin@@ 1
dis@@ 0.11063300692824117
ik 0.7831619915058811
kilom@@ 1
1950 0.8310368822830565
Lag@@ 1
South 0.38682294564430036
bus@@ 0.6860936572879207
haf@@ 1
18@@ 0.9909823996017187
She@@ 1
egal 1
pend@@ 1
San 0.37584736362305043
dakika 1
Ger@@ 0.5013306800140868
ail@@ 0.5763364115487739
David 0.6779903497727717
Te@@ 0.5808993585143085
ost@@ 1
pi 1
Uz@@ 1
tel@@ 0.4365545328982108
48 1
Ph@@ 0.41572315852491437
Ri@@ 0.7265365174709576
per@@ 0.12295633463339933
+ 0.7008007859319171
3.@@ 0.9058757344341893
don@@ 0.8782765315829066
International 0.5256990062850495
tum@@ 1
Bor@@ 0.6320765247580646
H 0.6185791788313464
eto 1
igi 1
Fas@@ 1
Fl@@ 0.42516591584060043
ingira 1
kop@@ 1
single 0.48768638642418566
esho 1
uke 1
55 1
a.@@ 1
# 1
Min@@ 0.5331284644797567
ashi 1
ero 0.5293318880325525
he 0.0525470732394887
La@@ 1
aku@@ 1
im 0.053356039084917914
raf@@ 1
amer@@ 1
bul@@ 0.9706787978134513
ope 1
Records 1
eso 1
10,000 1
j 1
hinda 1
Sar@@ 1
amaduni 1
tor@@ 0.2746108020837258
aliyet@@ 1
der@@ 0.22386287115054887
North 0.4566099382391849
go 0.5911245327733231
Kus@@ 1
Bus@@ 1
IV 1
1979 0.7898114687230018
all 0.11443924726600446
Manchester 1
Wiki@@ 1
ann@@ 0.26632413033462665
ce 0.1368183866882151
jar@@ 1
Ham@@ 1
Ken@@ 1
1977 0.8560227174769733
Cr@@ 0.4332478789946673
Tol@@ 1
den 0.03703474113944722
Muh@@ 1
Peter 0.7894543651033771
Tek@@ 1
toria 1
kisi@@ 1
mig@@ 1
00@@ 1
1978 0.8077615017178004
65 0.7898322190695145
Jackson 1
School 0.3393203692352515
1983 0.7624774135954822
ich 0.450900966160042
jana 1
oth@@ 0.5092106967525283
pr@@ 0.14550756653146202
scope 1
yap@@ 1
Um@@ 0.8504168828141744
bei 0.15141191595975637
ger@@ 0.287322299989553
Kap@@ 1
kara 1
zu@@ 1
1975 0.7566995830025929
ista 0.509881324969764
Kom@@ 0.6779957333507491
World 0.2651292465169533
omi 1
Jersey 1
wi@@ 1
27@@ 1
ikit@@ 1
41 1
kav@@ 1
Muhammad 1
Str@@ 0.3489535420332498
so 0.1859482145099202
takri@@ 1
Bin@@ 1
fund@@ 0.542282198191775
sel@@ 0.41140337149060113
wer@@ 0.39886183377224305
... 0.542212317123723
54 1
bil@@ 0.4289809631224044
ecture 1
44 0.994285164735664
Jam@@ 1
Sol@@ 0.6645722711173689
bin 1
hom@@ 0.6030847965333755
ungumzwa 1
Bak@@ 1
Sul@@ 1
1969 0.8330928269610312
4.@@ 0.9442453349463654
tir@@ 1
Id@@ 1
yana 1
1976 0.7688193198815038
52 1
Music 0.7307726298797524
ani@@ 1
Tri@@ 0.5306131987077451
1963 0.9216828956081379
sera 1
Sin@@ 1
bek@@ 0.9797244769167175
Argentina 1
Es@@ 0.5892592221621056
ser@@ 0.25583307070541084
Cal@@ 0.5728774312826237
Fr@@ 0.43335546564972205
protest@@ 1
préf@@ 1
51 1
85 1
anti@@ 0.38016433624725243
kana 1
46 1
Sous 1
ler 0.1978930663044815
ek 0.6405404565060492
lab@@ 1
sak@@ 1
43 1
aal@@ 1
eki 1
ty 0.2001394354366978
ust@@ 1
1972 0.7219005462380723
che 0.2545152973022867
Go@@ 0.6525884066176127
usta@@ 1
56 1
lio 1
53 1
Bah@@ 1
Konstant@@ 1
Ky@@ 1
Mir@@ 1
Sil@@ 0.6629670727387617
ver@@ 0.06168956052545794
19@@ 1
Dal@@ 1
let@@ 0.38632636891583333
ut 0.6008571236212649
1961 0.9240314831490135
1974 0.7345987201488046
Town 1
des@@ 0.15984492825517557
oi 1
visi@@ 1
West@@ 0.771769889267589
bah@@ 1
ein@@ 0.1393474540022471
ess 0.23820216214980733
ith 0.8280887854128656
biri 1
You 1
hibi@@ 1
Dis@@ 0.6297586059252389
fik@@ 1
onda 1
Ol@@ 0.9790078283715441
ori@@ 0.3968386545190313
tis@@ 0.5332419228199523
zia 1
oba 1
Pakistan 1
Vol@@ 0.7376193058391293
iliz@@ 1
sp@@ 0.1751479299786628
11,@@ 1
1973 0.7372946890661372
67 1
uga 1
wahili 1
600 1
95 1
Lin@@ 0.8583957759052417
Sak@@ 1
Val@@ 0.606431071362065
1967 0.7834550985759391
ans@@ 0.490436244101214
Del@@ 0.6457620437034172
Mau@@ 1
ant 0.06924014761736502
bili@@ 1
ick 0.3380128340224969
lam@@ 0.5291310770994545
Kem@@ 1
data 1
sen@@ 0.4010215103864823
72 1
New@@ 0.8421755457021813
gol@@ 1
Hol@@ 0.3889935892632257
adhimishwa 1
co@@ 0.09864838027689699
ous 0.18292096745634598
Mun@@ 1
Nik@@ 1
Washington 0.7138014297916692
ner 0.15301412108429324
Hud@@ 1
Kak@@ 1
dest@@ 1
eti@@ 0.543026029752858
est 0.02697870267210393
99 1
61 1
div@@ 1
1965 0.7881953713764291
Bag@@ 1
gr@@ 0.1451022636259276
uniani 1
lem@@ 0.6846705933566009
Ke@@ 0.9308597921157622
Hi@@ 1
Mr@@ 1
58 1
Ti@@ 0.7422620244188309
berg 0.38315449717636607
fin@@ 0.18890029533409264
indi@@ 0.7929095273155669
88 1
Pan@@ 0.7487730502349284
ence 0.11747098108609584
no@@ 0.21956977197688193
sek@@ 1
kel@@ 1
09 1
ap 0.6847595659600715
ian 0.3248533024311305
les@@ 0.7561718248891861
Cas@@ 0.6136498832424642
ais@@ 0.5384439466528677
Gen@@ 0.635709651931856
Eri@@ 1
Os@@ 0.8254903555770208
ete 0.6843125988748725
1971 0.6860801112856431
64 0.7948080004173643
pitia 1
uc@@ 0.2798186699212994
ven@@ 0.34252626624345633
Billboard 1
ff@@ 0.2565702683177277
62 1
07 1
Anti@@ 1
fili@@ 1
800 1
ca 0.3126067441669147
ion@@ 1
opa 1
01 1
87 1
97 1
Cl@@ 0.4070465438378606
ain 0.23068106313295061
Tur@@ 0.3570825839701373
ezaliwa 1
mar 1
sem@@ 0.5175864837362377
66 1
79 1
1962 0.8001196700361367
Richard 0.7532776364645671
ille 0.3648607374800811
ville 0.25675146117222586
yu 1
Ok@@ 1
baad@@ 1
git@@ 1
Mam@@ 1
enge 1
ofanyika 1
ord@@ 0.3182659279870907
6.@@ 0.9619852480406055
98 1
Im@@ 0.6154062313760996
5.@@ 0.9199931343700262
River 0.45557084042869744
ade 0.2392058088000629
tal@@ 0.5037451611034425
the@@ 0.34059031746487023
University 0.17848871237521655
kaz@@ 1
me 0.18343181660739594
oke 1
1945 0.4827845262726761
Bre@@ 0.5877277787538174
Sw@@ 0.49013449880752635
Sir@@ 1
69 1
pap@@ 0.6907697093434716
AR@@ 0.9586594547662342
Black 0.8594156548444117
Pro@@ 0.3417788598141014
rej@@ 1
Bay 1
Juli@@ 0.9553515071057944
Fre@@ 0.32211463839742926
Sau@@ 1
Wash@@ 1
.C. 1
chi@@ 0.5504132176062382
Bil@@ 0.5675944795237406
Famil@@ 1
Tim@@ 1
dr@@ 0.20869443402740623
elle 0.09714009676362803
05 1
anah@@ 1
ese 0.31947486145580084
king@@ 1
57 1
ange@@ 1
von 0.03092807467011845
Thomas 0.5388634417424841
lis@@ 1
04 1
1,000 1
Ash@@ 1
Hiv@@ 1
ill@@ 0.23500228257158537
73 1
Poland 1
odi@@ 1
74 1
76 1
Liber@@ 0.8360989322339001
ikan@@ 1
1966 0.7235715344365443
Massachusetts 1
amar@@ 1
10,@@ 1
63 1
adiliko 1
ell@@ 0.1840099081571128
yan 1
68 1
83 1
Fal@@ 1
ban@@ 0.4296264752037245
ci@@ 0.13137999914702272
ess@@ 0.20938896672648974
ite 0.11895078876514592
Martin 0.7321816632422421
Park 0.4547945694123482
Pos@@ 1
1968 0.6246026988829012
Bug@@ 1
IC@@ 1
Por@@ 0.5641055255096922
96 1
Jer@@ 1
Kup@@ 1
wanja 1
UEFA 1
jap@@ 1
May@@ 1
Men@@ 0.9749995817874563
iter@@ 1
59 1
92 1
Ter@@ 0.8918206977300595
profes@@ 1
Maur@@ 1
himu 1
81 1
od 0.3064712377335146
ongoz@@ 1
Bro@@ 0.6565096550036184
Uk@@ 1
esh 1
ikukuu 1
Benedi@@ 1
Yak@@ 1
magaz@@ 1
rio 1
uto 1
Mel@@ 0.7863153397372982
Pl@@ 0.33574610241419817
Sel@@ 1
del@@ 0.4416234967032222
hua 1
sig@@ 0.35152128787113
Bun@@ 1
Ros@@ 0.5404801463163027
71 1
84 1
Git@@ 1
Kay@@ 1
78 1
Shu@@ 1
… 0.7397055451273921
Song@@ 1
ings 0.14134249700687646
tend@@ 1
35@@ 1
W 0.4480356615353818
Wais@@ 1
86 1
mer@@ 0.1744479002233833
7.@@ 0.8991714766671866
eli@@ 0.6140793345720645
esia 1
fi 1
weng@@ 1
Hor@@ 0.5183795602760807
Mul@@ 1
malar@@ 1
na@@ 1
91 1
Ah@@ 1
XX@@ 1
edi 1
82 1
enia 1
eon@@ 1
igh@@ 0.4456051665689273
zam@@ 1
ity 0.103675516694035
ks 0.14027588840727506
77 1
zo@@ 1
03 1
2,000 1
Love 1
No@@ 0.815202640342817
lan@@ 0.29877932380252636
sinema 1
Berlin 0.49148296842782535
Bay@@ 1
eri@@ 0.8580355806353951
08 1
Asi@@ 1
dig@@ 0.5742851546182122
ras@@ 1
Johann@@ 1
aro@@ 1
ick@@ 0.20318159827596932
mid@@ 0.7474764350211843
$ 0.25227122459135026
Plat@@ 0.8599373843584882
Wil@@ 0.5890842408435073
1000 1
ange 0.7039098561677087
esab@@ 1
06 1
abi 1
Fi@@ 0.6220243828175451
Saf@@ 1
kor@@ 1
93 1
King 0.5026043525095967
UN@@ 1
Una 1
astronom@@ 1
die 0.015831987205048224
ise 0.13228776573068896
mos@@ 1
trop@@ 1
8.@@ 0.9380494793890233
Hung@@ 1
bai 1
hav@@ 1
oda 1
1958 0.7086953065612481
Dam@@ 1
Dr@@ 0.3529421216144119
anc@@ 0.25156502795493835
1959 0.7295208293794126
Ker@@ 1
Mac@@ 0.5064604850714655
Party 0.5153354051009151
Sult@@ 1
ande 1
700 1
Coast 1
Ireland 0.9163365369350077
Sum@@ 1
go@@ 0.36465189352104016
DJ 1
Lib@@ 1
amed 0.8880169041224937
mot@@ 0.38129799271394943
tri@@ 0.13676108425800623
edi@@ 0.44809531641001205
Madrid 1
Tan@@ 1
for@@ 0.10795996588486147
ā@@ 0.6981523020778291
Ac@@ 0.3372896046445337
molek@@ 1
trol@@ 1
1930 0.6663121997204753
89 1
Hass@@ 1
wand@@ 1
Jean 0.39602665602083087
fr@@ 0.2155134888910753
ham 0.8157633694684278
ney 0.4546745571127575
Central 0.5708826692856424
ait@@ 1
Ana 1
Ib@@ 1
az 0.6024817497434313
iss@@ 0.41189318989604834
lad@@ 0.9617591091815739
tah@@ 1
Malaysia 1
liko 1
lima 1
ts@@ 0.26128094846611283
unia 1
Fel@@ 0.9884943932405778
Gre@@ 0.43034063870363887
Los 0.21696864505887578
Mart@@ 1
Uy@@ 1
our 0.2056925234063343
van 0.5475463618901764
yar@@ 1
Henry 0.6197145825300909
My@@ 0.9321117880248956
Pre@@ 0.5110750581005362
kunde 1
mo 0.6719702326717848
oku@@ 1
sad@@ 1
Afr@@ 1
Hot@@ 1
dem@@ 0.221424733058622
Arsenal 1
ambi@@ 1
9.@@ 0.9851363331515611
ts 0.059347896506974016
Julius 1
th 0.0778928274787238
94 1
Aj@@ 1
Ex@@ 0.18919165226696388
ler@@ 0.23754111301896366
Bos@@ 0.9686303484382359
Nat@@ 1
Ob@@ 0.6888938564350134
tikodi 1
uno 0.5391659989856162
1957 0.7038248531661186
Louis 0.5140793228725634
dizi 1
Hon@@ 0.5634202039242636
etwa 0.43520450144171097
ist 0.035264031955004056
200@@ 1
Don@@ 0.8958870198396429
Dor@@ 0.7049350197951462
Pul@@ 1
ison 0.4619837565367854
ther 0.4410079249179712
enn@@ 0.25560291689546394
mada 1
wany@@ 1
oug@@ 1
Hil@@ 1
VI 1
bom@@ 1
ons 0.09557582266079365
tut@@ 1
1940 0.5637928904110152
Palest@@ 1
akini 1
ganda 1
pp@@ 0.360827116406911
sir@@ 1
02 1
indu@@ 1
lah 1
Sha@@ 1
tro@@ 0.24139121887637463
Gh@@ 1
Mek@@ 1
Reg@@ 0.28612495175622543
Bis@@ 1
Gab@@ 1
atur@@ 0.9437110905731012
bir@@ 0.4208621439587921
del 0.031121067918720147
tra 0.45448804367333195
Me 1
Leb@@ 1
Syria 1
inae 1
12,@@ 1
Do@@ 0.48153923233740215
Man 0.77410493827545
Mol@@ 0.7852174564169231
XIII 1
ella 0.38325073277012617
okeo 1
pop 1
1948 0.6154333815123588
Rho@@ 1
dy 0.7303241831904853
ker 0.26644484197788404
1956 0.6285551464588568
Bul@@ 0.6782493992439731
Kad@@ 1
akula 1
oza 1
Eu@@ 1
Vir@@ 0.8848683986635126
1954 0.686271703334729
Bl@@ 0.37189453891272495
arab@@ 1
ario 0.315592660302766
,@@ 1
33@@ 1
Han@@ 0.7844857714991749
Mes@@ 1
XII 1
sich@@ 0.6152789077404066
tin@@ 1
inn@@ 0.2537486932798127
je@@ 0.38974927674883064
pal@@ 0.40213623405751886
wo@@ 0.47505319195336704
1949 0.6443402500260503
Bad@@ 1
Lam@@ 1
MA 1
Wen@@ 1
op 0.3668487081871978
Mary 0.704923135226132
anum 1
ase 0.26747026850191996
ifa 1
ov 0.4973515168079113
Nas@@ 1
itzer 1
Ay@@ 1
Kun@@ 1
inde 1
uss@@ 0.5224175200417167
IS@@ 0.8287804354939317
atoliki 1
kt@@ 1
C. 0.5834075360836135
Mexico 0.9051521521368777
P. 1
Pen@@ 0.7601554048817928
Ra@@ 0.7930099605694013
Tom@@ 0.689104632067219
Video 1
23@@ 1
dan@@ 1
ster@@ 0.4134167736943573
Award 0.488823297457364
Dau@@ 1
Od@@ 1
Rh@@ 0.8829616639694431
ates 0.14600565242463112
den@@ 0.22466992591092932
field 0.2544065773860685
Hus@@ 1
Sk@@ 0.8547734238309403
wir@@ 0.9336187011718258
1920 0.5771195369951415
Char@@ 0.425403630739692
J. 0.666420676986776
Jazz 1
Real 1
kodi 1
1947 0.6314842659509063
Georgia 1
My 1
aransa 1
emp@@ 0.33991577389544264
ener@@ 1
mini 1
oe 1
tarak@@ 1
viv@@ 0.7353258499030817
Daniel 0.9385211745043491
Iran 1
uel@@ 1
Hosp@@ 1
Rus@@ 0.9842829247721817
St. 0.33796393873890157
enz@@ 0.3548945440681074
tof@@ 1
wan 1
Afghanistan 1
Edward 0.8588845933964194
Math@@ 1
Mut@@ 1
ight 0.24387470050115476
oni@@ 0.3681968725170851
vur@@ 1
ast 0.3080597584033163
150 0.9956248471383039
1918 0.6271850801446129
Abr@@ 1
Angeles 0.6961723816031499
Brown 0.9109696181683948
wil@@ 0.8430688638537507
imp@@ 0.42029631745467644
liv@@ 0.9929478004414721
way 0.1702927073358158
1955 0.6447106794933222
aten@@ 0.9581447201537059
nah@@ 1
Hel@@ 0.524950483120454
bert 0.5555354050801373
ie@@ 0.25466345474373764
tion 0.05567914110301254
August@@ 1
oliki 1
B. 0.5474897833894375
Bou@@ 1
DNA 1
Nad@@ 1
— 0.030525873691148873
1952 0.6254590050527135
gl@@ 0.3067568939286432
ini@@ 1
Academy 0.6078824442118994
Cel@@ 0.8912563307637981
Domin@@ 1
ish 0.16740447779225842
wel@@ 0.7624536776839934
Elizabeth 1
a. 1
abr@@ 0.6675277650686343
ine@@ 0.8164550331852409
m. 1
per 0.1635078803699329
Albert 0.996520841525324
Bir@@ 0.564932281206819
One 0.34474467195519626
uk 1
yn@@ 0.4383138719667436
AS@@ 0.7271371029801043
Ca@@ 0.9642434794470124
Smith 0.6286795229720239
Z 0.7598438367706101
ash 0.6338776986169324
atika 1
bl@@ 0.1494029229675801
Au@@ 0.3135658597758209
FA 1
Isa@@ 1
State 0.23260994062528798
Victoria 0.9927523666453393
leb@@ 1
tic 0.21501915086413964
CO@@ 0.8401826117534301
County 0.20306362983638973
Shak@@ 1
cheza 1
ry 0.28543256413417306
Madag@@ 1
amt@@ 1
ber 0.345382456507206
elo 0.9444431359436062
han@@ 1
igu@@ 0.7998507901330182
sah@@ 1
sen 0.25212203403286876
Barcelona 1
De 0.252794478907255
Fu@@ 0.7857624877830567
Ly@@ 0.9317540317942227
Ten@@ 1
uda 1
13,@@ 1
Lee 0.7902909498406654
bele 1
mand@@ 0.5438630959596417
Has@@ 1
It 0.054667262162449735
J 0.7061790598876228
Zealand 0.7906650315219754
elli 1
und 0.010212371834672827
yl@@ 0.31141984792544775
Ban@@ 0.6024824138134864
Ngo@@ 1
ach 0.1684961560683584
bury 0.8484758624335409
fiz@@ 1
1900 0.8204035247924325
900 1
Cam@@ 0.536525882939468
Fo@@ 0.5817938677787724
dea 1
inus 1
olog@@ 0.32996700307816595
pu 1
Nep@@ 1
S.@@ 1
Sy@@ 0.5630380535837737
Y 0.6289452196918726
On@@ 0.497663143359463
Je@@ 0.4003139895816723
dur@@ 0.41921451310036256
ico 0.2072526577917492
life 0.17434454612949346
1946 0.5249977373552573
Brit@@ 1
CD 0.7023669486329368
Dak@@ 1
Hot 1
Mex@@ 0.8492223666195181
wo 0.4179149105049219
Acc@@ 1
Times 0.7913130665184628
aska 1
que 0.014686605018034865
1953 0.6134829243996878
Texas 0.5776800782446911
The@@ 0.4998322944089316
arr@@ 0.18669469997542487
ean 0.45794312280067
hir@@ 1
ond 0.47230691572225214
á@@ 0.14037522523341714
bol@@ 0.8848971076111916
Av@@ 0.6060451300588781
Ras@@ 1
Sou@@ 0.8746980256566741
ichi 1
orthodoksi 1
Sand@@ 0.7248057876577133
Theod@@ 1
gia 0.541622483214996
str@@ 0.09854825797324504
Fin@@ 0.3261000036719658
Foundation 1
anus 1
nim@@ 1
45@@ 1
Khan 1
Lim@@ 0.9892349817019223
Pad@@ 1
edonia 1
ger 0.26844680451038033
hio 1
mm@@ 1
lar@@ 0.24781778199267046
Ya 1
enna 1
ington 0.4602311723361582
ologi@@ 1
í@@ 0.11159916833312161
Biz@@ 1
Mot@@ 0.6224307661742511
Pau@@ 1
Serbia 1
Van 0.9802650538743453
dal@@ 1
nik@@ 1
AD@@ 1
Kah@@ 1
Ven@@ 0.7036613731864998
mer 0.22046973534375844
Bol@@ 0.6432158263288518
Dur@@ 0.8836928287561375
ebe 1
my 0.5876220501317252
ul 0.7909742666600541
1939 0.46076323279512693
Armen@@ 1
Chelsea 1
ate@@ 1
ido 0.15264192247255973
Bom@@ 1
Lit@@ 1
sia 1
But@@ 0.9691212573754309
Des@@ 0.37284604048313313
Sur@@ 0.4871885777547359
anta 1
fre@@ 0.23195335051353203
izaji 1
own 0.2201756363673813
14,@@ 1
Che@@ 1
Dem@@ 0.5247105181375916
ae@@ 0.8012588232562696
ds 0.1767063297863318
250 1
AC@@ 0.8100031322615941
Hay@@ 1
Tro@@ 0.4250152525010374
ement 0.07013281821874075
1888 1
E. 0.8730606594579359
anth@@ 0.7303038923036629
bay@@ 1
Andrea 1
IX 1
Pat@@ 0.7293451021014327
UNESCO 1
Union 0.3143732733604392
enti@@ 0.1258257478984667
gar@@ 0.2839367730265663
pun@@ 0.7043565923301722
tis 0.6693640464551949
Wor@@ 0.3202754435289981
_ 0.12520943714004337
abe 0.8846710482708483
ance 0.07405906763641525
ff 0.4688072386153759
1886 1
All 0.2873809016782341
Kie@@ 1
Met@@ 0.48558798909898815
Progr@@ 0.9357091851383791
Zam@@ 1
open@@ 1
pand@@ 1
art 0.15573182210093672
bon@@ 0.888657264512399
hor@@ 0.3222369021557199
Eli@@ 1
Florida 0.7081210409259517
tha 1
ć 0.6809125528033392
aje 0.5180263205024062
sburg 0.8920868755880198
duk@@ 1
vo 0.6494347274215145
Ap@@ 0.4692158419709222
CD@@ 0.8246484689578409
bro@@ 0.26864614648828866
lara 1
uzo 1
15,@@ 1
Dan@@ 0.5433237416716563
Dj@@ 1
Inter@@ 0.22267774211766078
amo@@ 0.9991270128819921
anne 0.8574634098107775
bab@@ 1
ins 0.11840822782734732
oshi 1
ova 0.960025092431114
11@@ 0.9894464978988848
Sun@@ 1
ks@@ 0.49920280125971617
nam@@ 0.2860641850230455
Ant@@ 1
Don 0.788038926470347
FM 1
Hut@@ 1
Son@@ 0.7802400217775829
Ul@@ 0.5306546483690033
ello 0.5034829593376798
ime 0.3022747389639392
them@@ 1
Laz@@ 1
Luc@@ 0.7031561906677748
M. 0.6478542380483369
afsi 1
hui 0.8820149277943825
kl@@ 0.2985063298806714
ster 0.23637750798325732
Society 0.4633311531224287
elektr@@ 1
mm 0.48885493541847086
yn 0.8293067115598435
Abu 1
Band@@ 1
Liv@@ 0.9555101301971365
Nag@@ 1
Tal@@ 0.6530669985347468
ker@@ 0.48872311920535605
waka 1
American 0.10601380606151317
con@@ 0.04042214459293976
fil@@ 0.25886219585165327
isti@@ 0.4301340516680322
ve@@ 0.28158676475659855
1951 0.5663702475012468
CA@@ 0.5512651813760276
Chicago 0.5274782775112542
SA@@ 0.9884470904906559
ult@@ 0.5532405351767953
Alexander 0.6495910378888393
Cap@@ 0.6370338386249811
Les@@ 1
Pok@@ 1
gam@@ 1
mweng@@ 1
Abdul@@ 1
Dom@@ 0.5949721321525454
Kro@@ 1
alam@@ 1
ling@@ 1
Hum@@ 0.7536486784890489
League 0.16841860236717096
Sam 1
but@@ 0.866093027270505
dir@@ 0.7067111780005617
Group 0.409328300635999
antu 1
hel@@ 0.5300185907135939
lor@@ 1
sult@@ 1
A. 0.40002416355879816
Jones 0.7470030992783702
Lom@@ 1
Nov@@ 0.5873105905326823
ion 0.12856815955681786
pon@@ 0.4104222318661956
1941 0.391003437790375
Cer@@ 0.482227229970877
Laur@@ 0.7448418650293502
Lyon 1
Sok@@ 1
eme 0.3837344273669909
Da@@ 1
Democratic 0.8758018585607933
Rob@@ 1
asiasa 1
its 0.03560466089691115
lat@@ 0.22795036222673035
1500 1
1914 0.5832889257505197
Ale@@ 1
Lug@@ 1
ex@@ 0.04045557745808918
out 0.07660218922739516
tin 0.28267955947260154
1936 0.5008677671374289
College 0.21826302832974687
Fili@@ 1
Grammy 1
Leon@@ 0.9972297469684783
Lor@@ 0.48752910433814567
ardo 1
ghuli 1
istan 1
ius 1
sta@@ 1
yol@@ 1
1917 0.5904519203385125
Kim 1
Le 0.04916057955114486
bot@@ 0.4041038046987134
mann 0.27537446973652907
1944 0.35511034763952665
Bern@@ 0.8709551304881933
High 0.3256839309295631
Sec@@ 0.5050001089718072
bet@@ 0.8361178411786193
1933 0.5033320969315019
Iv@@ 1
Mov@@ 0.980450812294044
Star 0.6304214440096222
aman@@ 1
ark@@ 0.49267335748654445
ette 0.22291644043187483
res@@ 0.0796503475030315
50@@ 1
Grand 0.34098192557675144
Williams 0.7605759011828578
ensis 0.6143989035044886
vin 1
Braz@@ 1
avia 1
ibn 1
imin@@ 1
DA 1
Island 0.41989986932093465
beg@@ 0.2504219507961637
evi 1
ill 0.30711410806545997
Est@@ 0.2947338414765827
Moy@@ 1
Radio 0.5567697487575377
Vo@@ 0.5402095196609721
cel@@ 0.3658202936751418
ck 0.42225945446059465
ech 0.4620523067285525
mati@@ 0.8115118848707487
rati@@ 0.5355010365752879
une 0.024672800332332216
.com 1
Chil@@ 0.6691349522101221
Mosco@@ 1
pop@@ 1
Cham@@ 1
3000 1
AT@@ 0.9042307247412642
House 0.2574423744637023
Jack 0.7474038561329497
ack 0.25382233161572654
avi@@ 0.5397389785763039
nin@@ 1
tad@@ 0.6248028984152775
AM@@ 0.9822409304107512
Association 0.3187546591561189
ES@@ 0.7779444026461485
Satur@@ 1
alb@@ 0.6190292926006284
jah@@ 1
jus@@ 0.46845141763114534
unu 1
£ 0.8350372343659668
Chile 0.832298102750383
Go 1
Sav@@ 0.6368641378838987
Sus@@ 0.7613121197224353
bes@@ 0.2527106411712996
car@@ 0.08699481077165823
itu@@ 1
lav@@ 1
Jar@@ 1
Lab@@ 0.5055786109433342
hap@@ 0.7546462349484067
ulo 1
Cur@@ 0.42424610540681684
Hill 0.5584617204978038
Michigan 0.8271015948618625
département 0.671977647989727
vent@@ 0.3116075787625186
esis 0.7863283761242645
inc@@ 0.10915979661178632
16,@@ 1
Johnson 0.7301093853482912
Van@@ 1
hy@@ 0.38400515688252
well 0.09579762162703358
Ahmed 1
Club 0.2527943126587098
Fati@@ 1
Patri@@ 1
RC 1
fe 0.35635215618082905
int@@ 0.12004022480998568
ju 1
nit@@ 0.7392464756927939
win 0.23344262730368923
Shar@@ 0.8829464117221626
St 0.43472618773458543
Ty@@ 0.49677265655273944
Women 0.48562322117557616
baji 1
wood 0.401033643956226
Pon@@ 0.9402993650036232
ies 0.1197053027899636
ome@@ 0.620014936728972
st 0.10983288216367573
umbani 1
uni@@ 0.30308933319173276
Eng@@ 0.40094029904372946
Hitler 1
Jay 1
Kaz@@ 1
Rub@@ 1
ige 0.17276939298259864
Cher@@ 1
Der@@ 0.5442994313556054
achi 1
ack@@ 0.17763724334363187
asti@@ 0.9745155400828898
mun@@ 0.5016540903947632
sk 0.8489561261934856
« 0.01925800304135067
Camp@@ 0.48065546340076654
Gl@@ 0.367916310030191
Patr@@ 0.7166288604977944
stein 0.3030217978867671
ute 0.36386931958642943
» 0.019190088388569476
Pot@@ 0.6758867940186903
Star@@ 0.67352752851446
00 0.5038361939667442
Google 1
Que@@ 0.9447771111021858
Sierra 1
Young 0.6958491848475086
gel@@ 0.13438201683694376
1934 0.5111133353098952
Gor@@ 0.7801056905150975
Hip@@ 1
Lat@@ 0.5376598146120941
oph@@ 0.29967947823050023
poli@@ 0.5316436354139663
1922 0.5709291768333129
1925 0.573345252466646
1929 0.5153918243765993
BBC 0.7360786472896046
Kos@@ 1
LA 1
Profes@@ 0.8271805881318387
Queen 0.6757900871471593
Santa 0.40948103043094913
Swe@@ 0.7324426430418173
Wales 0.6426545394778336
White 0.4541451949455483
aire 0.1087384532522443
dor@@ 0.44391609394622267
gom@@ 1
iso 1
log@@ 0.39348664970779024
reg@@ 0.10860829308908146
tom@@ 0.20299394131843002
1942 0.36984938086885527
DC 0.9263891766824885
Ev@@ 0.5087610367738676
Media 0.7796763538001731
Oc@@ 0.42694442114661424
Q 0.7648450311369916
Stars 1
Trans@@ 0.30731535208221655
aceae 0.5768677856985897
ata@@ 1
onom@@ 0.6231120946767438
ston 0.6718477904060782
ys 0.33266102246148144
5000 1
Company 0.32871629044224154
Obl@@ 1
XI 1
XVI 1
ther@@ 0.24515341521484094
use 0.09742567718124417
1885 1
Mont@@ 0.35160710540457596
eth 0.5730184997101085
eth@@ 0.36935265922672356
su 0.03586122814449019
1943 0.3624099718190609
Canada 0.2678878011183591
Francis 0.8945453147955236
Hir@@ 0.8447619099339484
Sem@@ 0.580441709250394
ren@@ 0.1239604626179291
sul@@ 1
Had@@ 1
Ukraine 1
Vis@@ 0.799822824891535
ales 0.0554126595744763
ign@@ 0.15078428604459307
1926 0.5491154498532254
Cro@@ 0.31449275426443446
F.@@ 1
apar@@ 0.8278186810582466
ax@@ 0.375025596472011
urs 0.2374245223657242
Band 0.4746400070362387
Dav@@ 0.7276223933120743
Japan 0.35555338075574805
Long@@ 1
Si 0.8153075238973103
fig@@ 0.6458499091180633
onya 1
180 1
1890 0.8628186918458478
Fa@@ 1
News 0.8027310917456458
Patrick 1
erry 0.5033124113578517
esse 0.2802705492726181
ical 0.07719021837609491
120@@ 1
17,@@ 1
AP@@ 0.8493342951918033
Hen@@ 0.8097606496700812
Pom@@ 0.8904902954406784
ep 0.2852409883603428
ky 0.38962003084299734
tor 0.12285394596968648
var@@ 0.45064661519106813
Wit@@ 0.8067836521029932
cor@@ 0.10335462305233278
els 0.11764903390621634
lis 0.5396975255356892
radi@@ 0.5236782812419115
CH@@ 1
Gaz@@ 1
Hom@@ 0.5903127800450194
yab@@ 1
All@@ 0.413490049772315
Bat@@ 0.4207953742238656
Port 0.8585335328026089
alm@@ 0.41067552978753935
bos@@ 0.8895690189111873
toba 1
י@@ 1
120 0.9311744114700382
Ben 0.9557152476804356
Mid@@ 0.5597221566343715
Rose 1
diye 1
ern@@ 0.18571416680466896
1,0@@ 1
116 1
AC 0.6338880158242673
AI@@ 0.9804181310533081
Rich@@ 0.42123577716718424
Wall@@ 0.9025720619561586
ammed 1
ass 0.16922862631272467
39@@ 1
65@@ 1
Arab@@ 0.6858152933206401
Miss 1
Scott 0.6858000819387525
low 0.12101041327001394
shi@@ 0.4492028314279342
sol@@ 0.09530235743989472
val@@ 0.1698523607263459
Hy@@ 0.4303099753567874
MTV 1
Marie 0.4878479476839346
Sir 0.5366343025264676
Taylor 0.8520040190568037
Tran@@ 0.8812453130758777
Win@@ 0.4813209879005494
adr@@ 0.6232305956727973
afr@@ 1
area 0.12765871728411876
ego 0.8009847074211963
ly@@ 0.26518142079973767
rom@@ 0.20768579931880188
sta 1
124@@ 1
18,@@ 1
1910 0.5582166876338799
1937 0.4277248463700731
Bib@@ 1
Chris 0.8487960501704119
Green@@ 1
Hek@@ 1
Sm@@ 0.712428435067335
ax 0.9314926542540429
ege 0.9870127801586625
elektron@@ 1
ento 0.3134641341012329
gez@@ 0.9658916856356011
pro@@ 0.09233647256145543
Christian 0.35301909545704035
Dr. 0.5182625449600418
Zi@@ 0.6786086806116162
ald 0.5987311659871104
mes@@ 0.4932311943876465
1938 0.38165804489480337
CN@@ 1
Christ@@ 0.35078731221423715
Ira@@ 1
Jose@@ 1
Kel@@ 1
Rab@@ 0.9087499645026997
Simon 0.843465536366525
inayoz@@ 1
ns 0.17796830867039565
nying@@ 1
ps 0.19597858011183442
yesi 1
102 1
1905 0.6178669864438606
Anthony 1
Diam@@ 1
Rek@@ 1
han 0.319792793513361
ski 0.38029838504343777
Fer@@ 0.4529887897874985
Haw@@ 0.764021192968371
YouTube 1
Ze@@ 0.3213985341550409
abor@@ 0.6543982241703782
fon@@ 0.3196169413982141
hem@@ 1
ors 0.09093172156737139
rey 0.3946856333390628
sanii 1
Big 0.5395792332061968
Life 0.44918161438528403
Mark 0.4921524495485606
VIII 1
hidro@@ 1
land@@ 0.1671654853580844
pha 1
usu@@ 1
67@@ 1
Best 0.41099614713650623
IN@@ 0.6683244863892636
Kong 0.7579822458470333
Om@@ 1
Pet@@ 1
eau 0.18073121699377276
ide 0.21551481871112607
illa 0.32047249575959136
ith@@ 1
lie 0.40765928879840074
oud 0.9106414064801892
sav@@ 0.5300355715466354
ø@@ 0.6222386981771306
Cab@@ 0.674494671334592
Cu@@ 0.4705690535883703
Cy@@ 0.4960138353307743
D. 0.47791996950219606
Dun@@ 0.7159114650535554
Gro@@ 0.336514531847245
Royal 0.26057045383086636
Shi@@ 0.65183548985706
Thi@@ 0.7880289725616969
old 0.11662869878804802
ver 0.13526248912192745
ym@@ 0.2920699071452593
ï@@ 0.34301737604501137
1919 0.42061166592437194
36@@ 1
AB@@ 1
Blo@@ 0.6017056629190376
Categ@@ 1
ester 0.3185753924693761
now@@ 0.7169054303944089
1923 0.5177842167019785
British 0.14852672454206584
In 0.014338641931979543
Northern 0.5679524832608399
People 0.6518594981166212
Rad@@ 0.5627746769233107
aut@@ 0.3062035486887869
ci 0.2991111113431939
enne 0.20691409796534907
erg@@ 0.2832270656285355
ix 0.36116668606006186
rek@@ 1
sch@@ 0.04254749709145468
sou@@ 0.14641159816376723
uro 1
1931 0.49214017966570694
2022 0.3984768402062105
Columbia 0.6418995265047259
Congress 0.6449906497849072
God@@ 1
Neg@@ 1
Nis@@ 1
OS 0.6475942290274056
Rec@@ 0.22684541393644866
yc@@ 0.4380162559054704
É@@ 0.15115935804959574
Illinois 0.6749777005238301
Telev@@ 1
Yugoslav@@ 1
hun@@ 1
ics 0.12999135889059613
ros@@ 0.5351567411333666
til@@ 0.27365635841797403
ä@@ 0.062383837349715254
1912 0.5027411810316627
Boy@@ 1
Hur@@ 0.815173217844419
I. 0.43291286334048223
Israel 0.5742900163100824
apos@@ 1
eh 1
mus@@ 0.2284656421797101
ruh@@ 1
ys@@ 0.31462051403946356
1927 0.4906339875319467
Entertainment 0.8295047956899845
Lev@@ 0.599791805559323
Pri@@ 0.27802470742280194
Raj@@ 0.8569904970169008
Sc@@ 0.39266728321658406
UK 0.36109198783169955
emek@@ 1
lands 0.24500982170614352
nom@@ 0.354676674465129
shire 0.38084176654577684
sho@@ 0.1794462560565776
Astr@@ 0.8639382127504128
Lou@@ 0.5370259219755059
e.@@ 0.7656494383420509
gio 0.8350148801190476
gre@@ 0.12798228065282993
iva 1
kap@@ 0.7144258144433607
len 0.16779285019434276
lig@@ 0.23870514270576343
tek@@ 1
with 0.009639371874376574
ö@@ 0.1071102948259668
Ever@@ 0.8998687903789556
Tig@@ 1
Tw@@ 0.9451423084347915
US@@ 0.4817691952782362
adam@@ 1
bon 0.47309534645325174
cia 0.7354892541508393
cl@@ 0.10988199954137819
gal@@ 0.31392296588262186
sy@@ 0.2701756169167974
tes 0.07064486963825774
Ari@@ 0.9401712820576255
Carl 0.6683446607152006
Hong 0.7378609883027353
Jac@@ 0.7139341060810918
ogr@@ 0.8858738016942638
oli@@ 0.8910309723155231
ven 0.25401451406103914
Nu@@ 0.6375473283835956
Pierre 0.389467238969975
Rou@@ 0.6796293025601309
ave 0.22334057028398027
lip@@ 0.7680608597902496
outh 0.38044604493869294
stanbul 1
tur@@ 0.09935247880527351
{ 0.840273779688851
Arthur 0.6218799086325287
Euro 0.9482270919340409
Tot@@ 0.8687854921794829
ait 0.09552699721544534
zw@@ 0.5553393768614125
Cla@@ 1
Nelson 1
Ou@@ 1
Rem@@ 0.6663579603497709
TA 0.7538903775020946
ante 0.08619751218405473
atr@@ 0.25018055230510294
edo 0.6185263851625628
ony 0.3445158687168016
span 1
AK@@ 1
Bau@@ 0.1917426180108998
Ful@@ 0.7493690751103594
Rock 0.525257316173892
Run@@ 1
VII 1
edia 1
Air 0.28458791921648835
Ep@@ 1
Sydney 0.6762689243243363
ism 0.16151422456077302
tang@@ 1
Cre@@ 0.37099404514865353
Fe@@ 0.3693197100792907
Francisco 0.3633286981021067
Jan@@ 0.6997128419104751
May 0.11452692598563724
amm@@ 0.19474988943131666
anal@@ 0.5940653994793172
cus 0.6320512147370076
emen 0.6692697168133338
enzo 1
hr@@ 0.3433317362172299
ize 0.45302034437016686
sea 0.3836134654566413
1928 0.4192828456208634
Kilom@@ 1
Liverpool 1
Rio 0.9150640823067162
Southern 0.5565244047300741
aw 0.74940887933965
day@@ 1
gan@@ 0.3722776887200826
sent@@ 0.5553135716285368
tic@@ 0.12717489601384044
tions 0.049618075007819576
1889 0.8473656001766874
Frank 0.5295694417840341
Joe 0.6518834022426183
Lis@@ 0.9373050362553026
Max@@ 1
S. 0.5123763601468369
Sho@@ 0.5610790279148944
Single 1
ilimia 1
inger 0.32250810326593016
wor@@ 0.11934544969265752
Banglad@@ 1
Fir@@ 1
Tel@@ 0.44630651078467354
Western 0.33964447369961676
dis 1
ett 0.3046842204706134
ref 1
rut@@ 1
vul@@ 1
} 0.9521955895759
án 0.13932375823923573
Anna 0.689710621487697
Cle@@ 0.5910794192951269
Gil@@ 0.505578554729042
Gir@@ 0.7579739184493256
Lang@@ 0.3913278508290292
Whit@@ 0.5991345283573739
Yam@@ 1
Zu@@ 1
ão 0.8454511400734379
ó@@ 0.10075912624003738
Carlos 0.5057998829000432
Cross 0.8070906751483005
Fat@@ 1
Jos@@ 0.9137106272973803
Vid@@ 1
ble 0.17287480393355947
eman 0.619769928135203
estr@@ 0.1821884174154411
faransa 1
jan@@ 1
mem@@ 0.2245084138142636
mir 1
ost 0.2949529775046639
Ç@@ 0.5734678409861734
‎ 1
119 1
Adam 0.8401211766688478
Pel@@ 0.8968823113322228
Res@@ 0.2650732395813425
Tem@@ 0.5252418847888841
beri 1
cre@@ 0.08433124651290566
ingen 0.19512607203227966
1903 0.6521309570603732
1916 0.5401509616599586
Adri@@ 1
als 0.016766957163715394
A.@@ 0.7678481979743236
AL@@ 1
Fab@@ 1
Ford 0.7640608541363471
Karl 0.44227991697674146
Nev@@ 0.9291356456680258
ator 0.14477261544522466
com@@ 0.04215145137151297
cu@@ 0.08093503803135228
dens@@ 0.3835206436830424
ingham 0.6213588610239593
lif@@ 0.7458637918714944
mek@@ 1
nes 0.2674237246251464
tou@@ 0.4283255950720455
23,@@ 1
Aleks@@ 1
His@@ 1
Num@@ 0.7196586652400863
Pin@@ 0.5711650836986993
Ren@@ 0.3267266520788133
Tre@@ 0.2654811182371504
Virginia 0.41096841094265585
able 0.04504686407081126
ag 0.6678046222733464
bs 0.37902053556898857
via 0.25976320173165285
1.5 1
Amaz@@ 1
Bet@@ 0.35468888068364895
RI@@ 1
Tony 0.8357642757148657
Wilson 0.6903185033127458
atar 1
dol@@ 0.3695162425329755
key 0.28692244726369887
onn@@ 0.1372265251628268
shar@@ 0.44795463559316795
α 0.33119400848186514
Air@@ 0.5501379607222052
Golden 0.7807022968022813
It@@ 1
Limited 1
NBC 1
Osman@@ 1
Prot@@ 0.30397953071538314
Sever@@ 0.7359262105013787
Tokyo 0.9170108671847486
Wi@@ 0.3282232129832991
ally 0.04170236896119618
inf@@ 0.20333700689726156
sat@@ 0.4631759333759124
urg 0.6960646424535014
1935 0.38129002859772004
Bes@@ 0.22147756714896719
Harvard 1
Mim@@ 1
SC 0.6115487154368386
Samuel 0.8456191239467663
Uni@@ 0.489590881664061
Wo@@ 0.27132507987653337
aden 0.6303747608402583
anna 0.8400297587441693
arg@@ 0.3726731728558926
ier@@ 0.13121842063658892
port 0.1471789463110983
rock 0.2981104945733186
tik@@ 1
19,@@ 1
1932 0.4094388987839782
Pep@@ 1
ars 0.12951331219538614
ations 0.03340789758967632
brahim 1
nh@@ 0.17160601327805322
oper@@ 0.14133258229851134
plat@@ 0.23084095926164447
polis 0.6397298729106795
tan 0.3604903809121779
á 0.15888776433685103
1908 0.5290992388538457
1913 0.48407829242528644
20,@@ 1
Him@@ 1
Kri@@ 0.7106107077550035
Ot@@ 0.41588828811373635
R. 0.5756500970185852
Territ@@ 0.7961071644139501
arm@@ 0.13849463599525869
lov@@ 0.731415295745066
stan 1
uvu 1
yem@@ 1
市 0.2763555784692391
1896 0.7114355259902326
1906 0.5600354424984499
Ach@@ 0.8069858280429891
DP 0.9005156222483683
Gol@@ 0.5020098602277451
Lak@@ 0.8916976332198379
Mong@@ 1
Studio 1
Super 0.4768017422722638
W. 0.5710401270587422
ampa 1
any 0.13346513224693213
eter@@ 0.28529752170986944
ide@@ 0.3263544590769647
neo 1
sey 0.5971451186725457
ō@@ 0.43904739750667104
40@@ 1
Aur@@ 0.9524088191211234
Bulgar@@ 1
Ek@@ 1
Pu@@ 0.4886647636516595
Queensland 0.9719181593843196
Toy@@ 1
agr@@ 0.3870533128154633
aus 0.03368741353537342
tus 0.919700437449039
€ 1
Bad 0.770470033044983
Lok@@ 0.9532340122388776
SA 0.614809334554593
Sor@@ 0.6089631703330217
Walter 0.5707113655911955
ated 0.023920368291338645
ath 0.2567683489072662
atifu 1
bud@@ 0.7076510957577362
chor@@ 0.8576633834734937
cr@@ 0.07718094353928347
fus@@ 0.47311883232382695
liz@@ 0.7748009039722406
stone 0.39162832202771075
2.5 1
Black@@ 0.7792409265142916
Dou@@ 0.5817358979848293
eld 0.31089433990748655
gen 0.10919879465181469
ias 0.5137071884794424
sur 0.033464862596165594
1870 0.7055303192208903
Andrew 0.6984113718269321
Baad@@ 1
Bill 0.5390125982833119
Cop@@ 0.6199693525043638
No 0.3243121370763103
Pak@@ 1
ador 0.14600259542917932
fer 0.18863056728521124
manuel 1
non 0.12894249760674822
obi 1
ret@@ 0.1934790140613152
Green 0.45967689622851676
Hall 0.26813009232351054
Napole@@ 1
Pres@@ 0.2840684103359878
South@@ 0.7971467113897149
pati@@ 0.4862135585409075
350 1
Bang@@ 1
Beng@@ 0.8989761752243067
Boston 0.48439399095851415
Carolina 0.4786419282198654
Napo@@ 1
Phil@@ 0.4775592581305238
Sig@@ 0.6526323091756547
Spr@@ 0.24369454227598572
Sto@@ 0.40440147275426624
Tai@@ 0.7349540483078729
WWE 1
aster@@ 0.8546699694357216
bes 0.2723701640514371
dik@@ 1
jazz 0.9346416236540377
manga 1
én@@ 0.12083286881247407
160 1
1860 0.7928758089289676
AS 0.7248030716967448
Benjamin 1
Center 0.27230493542898276
Donald 0.6878666297081734
Emil@@ 1
IA 1
aux 0.04017932220818266
etti 0.6300635271014562
hir 1
lam 0.6936147443857283
mili@@ 1
vel@@ 0.21470211786131896
1902 0.5975724761772505
Bud@@ 0.4842123466371946
Seg@@ 0.5224277229997587
Shin@@ 1
Sud@@ 0.8854885064711805
Time 0.5779958148523809
atra 1
ente 0.06026193181321588
ever 0.2318867872076017
kung 0.5992200367105288
ores 0.12620577058660135
unc@@ 0.16023292930241967
Ann@@ 0.5131087609098076
Antonio 0.45308181766656463
Ind@@ 0.6150447027937314
Kiaus@@ 1
Leg@@ 0.2155635430928714
Rail@@ 0.7254461051058144
Red 0.3213562206871855
Shir@@ 1
Vill@@ 0.4207221140767017
Vincent 1
aff@@ 0.1243092854629971
aham 0.6810650070420277
aun@@ 0.45163485152390104
insi 1
mez@@ 1
ology 0.12773169578453256
ér@@ 0.08003414806476146
1907 0.5217211798003973
59@@ 1
Alexand@@ 0.8460880066024711
Flor@@ 0.5787488642941486
Mob@@ 0.9816138842316396
Oxford 0.6684538610706061
RE@@ 0.8162287452419708
Show 0.5641745417895688
Sic@@ 1
Tas@@ 0.7745926202040231
bra 0.985682614063326
oth 0.5812803891941994
oya 1
vers 0.09979465250612389
1924 0.3831707883626431
Chem@@ 0.5911370898531483
Christopher 1
Day@@ 1
EP 0.5769663310230091
Prim@@ 0.5102793558714674
Prince 0.4918793395040328
Rap@@ 0.6110596463089085
Wel@@ 0.6033567461848018
Yas@@ 1
ft 0.15692067235323648
gi 1
Day 0.4051560834616522
Gas@@ 0.6447475096557594
Liga 0.37918468215661316
Nah@@ 1
Old 0.46880687857590986
Otto 0.7322957337848799
Pa@@ 0.3767987805677061
Peru 1
Sep@@ 1
Steve 0.6762963320889432
Tom 0.5116208389131607
err@@ 0.19911816006142607
mont 0.3888292467607908
oon 0.8361998965868462
1800 1
Disney 0.7772257012592719
Mass@@ 0.7166242485281045
Not@@ 0.2786699942362033
Up 0.9419768580384862
ative 0.0698245062193548
bar 0.1998080382293262
din 0.8637237472979727
icia 0.6149629199670711
izi@@ 1
ovo 1
Dani@@ 1
Hamburg 0.6663381859100402
Kenn@@ 0.6509048994625016
M.@@ 1
Tos@@ 1
agu@@ 0.3227776205093694
awaida 1
end 0.05221845316756722
eter 0.16608014200975496
lak@@ 1
ock 0.2927472667921213
was 0.004256102791172845
ו@@ 1
109 1
Bob 0.6512019794336273
Pit@@ 0.5651756602351753
Sad@@ 1
iz 0.8935401682251273
ont@@ 0.3580662205183019
ters 0.08179498066800055
vo@@ 0.10000570226794789
www.@@ 1
1836 1
Frederick 0.9614007722607077
Fri@@ 0.425722074850746
Rah@@ 1
atu@@ 1
che@@ 0.5952659180089722
ein 0.02314878220864796
ister@@ 0.2939814638646717
ten 0.02399358821543797
140 1
1911 0.45428781212407454
25,@@ 1
Daw@@ 1
Mill@@ 0.5652605830761113
Pennsylvania 0.5130667497233165
Vin@@ 1
eda 0.7736743942774743
ets 0.06558772480222404
kaya 1
lin 0.3833291343045245
nch@@ 0.44087829139824397
nor@@ 0.12750097537023458
omon 1
tari@@ 0.6732289527245379
101 1
1880 0.6698501901616958
1921 0.38247822761540884
America 0.2165330167639143
Fun@@ 1
José 0.29626214000457746
MC 1
Pap@@ 0.35484803565016854
Peter@@ 0.5987196701695313
US 0.10292613228693412
alie 0.7945808875534001
ode 0.3737689580243556
pro 0.5054018357606208
C.@@ 1
EC@@ 1
Jordan 1
Mang@@ 1
Sof@@ 0.8313335579553501
Yor@@ 0.6894830458155747
app@@ 0.11713631969589802
http 1
idge 0.5220302537246961
meth@@ 0.31396149934585255
mor@@ 0.1119985643622927
oks 0.5209030573213438
our@@ 0.1781814624687672
ˈ@@ 1
​ 1
110 0.9655503884829407
AA 0.6749539882067206
Benn@@ 0.9890841914540413
Kath@@ 0.6299637743369185
Len@@ 0.8543711881890576
Mr. 0.7591567352321381
Nap@@ 1
Orchestra 1
age@@ 1
fo@@ 0.1439101255703551
jaw@@ 1
oso 0.35928511104231436
piano 0.7164407577550652
unde 0.5495032223578823
37@@ 1
Boy 1
Fon@@ 0.7934002917656253
Mike 0.5859792631246962
Nach@@ 0.23237909594304246
Ontario 0.6107519534393673
Scotland 0.5432596775317756
São 0.99885369316606
ays 0.2575843762080181
hil@@ 1
ights 0.32324564055464206
ling 0.16200429434545546
war 0.023209078956231134
1884 0.7696255819201211
1887 0.7562813001600007
1904 0.5049635528835648
Kn@@ 0.3274790365235227
Lincoln 0.8106440855505894
MS 0.6123857671913876
Ma 1
Mem@@ 0.46389642994559216
Press 0.7040954868288786
RA 0.963102698331114
Sid@@ 0.9750103882265417
Sun 0.6135718440607307
eck 0.34052412525704734
olo@@ 0.7726834768952393
sions 0.2038619964758119
ste@@ 0.11324773170468623
sti@@ 0.12299648830144273
Beach 0.6606750921134125
Chap@@ 0.46423026279003554
Cho@@ 1
Institute 0.2562923579911304
Oy@@ 1
PA 0.6948523318057462
Sali@@ 1
from 0.010001276735557472
km2 1
oul 0.8925503153178123
wich 0.9134278658644925
119@@ 1
1899 0.5951592498485975
Blue 0.4870540269873143
Dol@@ 0.518307502989286
G. 0.6171547619889084
kins 0.5204407788802518
sein 0.1063258147662995
tics 0.1165375064471722
170 1
Great 0.29967407317596717
North@@ 0.5535436414593865
Petr@@ 0.9070375453947613
Sultan 1
Wol@@ 0.44561930054785215
att@@ 0.08543045899801188
azar@@ 1
ejeo 1
entr@@ 0.1131624517296448
kaf@@ 1
rit@@ 0.16675535765888252
â@@ 0.15919775056704805
11.@@ 0.9494007025964282
1891 0.6797505361561935
53@@ 1
BA 0.6037587726268692
Ele@@ 1
ebr@@ 0.32332984748634463
ents 0.0401389335213908
imeh@@ 1
mad 1
ment 0.0476658678030218
ous@@ 0.44679493378538965
ô@@ 0.26668243286729937
1898 0.5699127949001985
Arch@@ 0.28632369453932344
Gold 0.5743342142821292
Haf@@ 0.8263631330315354
Pir@@ 0.6732498694904665
Road 0.23545145044323457
Syl@@ 1
Trin@@ 0.5990034584613454
fel@@ 0.24285565643695858
ons@@ 0.24039216002548713
pik 1
zur@@ 1
57@@ 1
Bec@@ 0.3920758983979765
Brun@@ 0.5734450354568253
Frankfurt 0.7777009848967467
Gam@@ 0.9753325799518578
Jr 0.7097520900127746
Margaret 0.9278786546086426
Neb@@ 1
Sat@@ 0.5557073851404721
Spe@@ 0.27927013894057495
`@@ 1
art@@ 0.1797754414437292
ici@@ 0.08762384550999788
my@@ 0.47081067955330924
nav@@ 0.24928483423374756
ting 0.04447288114116006
uvent@@ 1
yok@@ 1
Beau@@ 0.4939417213470705
Fort 0.43860006383758265
Gau@@ 0.7378749144039835
Tou@@ 0.5695252124344509
dan 0.3282193417002616
media 0.2384821588072264
pil@@ 0.2101287374164153
ray 0.5396973862851414
solo 0.21749758938267724
thiop@@ 1
tho@@ 0.1901102622916264
ump@@ 0.3024967770035541
Ago@@ 1
Anne 0.5458780291659391
By@@ 0.7003119776644942
Cass@@ 0.8048286074131664
Kot@@ 1
Op@@ 0.2686427389072857
Rod@@ 0.7094999229538191
Rug@@ 1
Sag@@ 1
ature 0.16473589549878423
aud@@ 0.5076265688762321
bie 0.5580516597371948
rel@@ 0.06987040904885608
ud 0.40457003480699405
ա@@ 1
1791 1
1839 1
1915 0.40311643222880084
22,@@ 1
Hid@@ 1
Roger 0.6940061591760053
SM 1
burgh 0.45840302056811133
burn 0.8943171398624028
enni@@ 0.5724928914360236
ig 0.25095635925917625
kt 0.1673999277959928
mang 1
1897 0.5694245652718837
1901 0.5066365527334574
Alex 0.8620128198222002
Bob@@ 0.8021952037729957
Boh@@ 0.772769205145784
Brian 0.7176323156181341
Fur@@ 0.4918104411386533
Is 0.6715461322266123
Russia 0.41283089439332243
Tit@@ 0.36992097507612354
Ton@@ 0.6781915991974501
XIV 1
cy 0.5293869398886845
eu 0.3130094603551753
ills 0.26384194892652235
las 0.020115625466842167
num@@ 0.2750924701440734
over 0.04376606719537762
CE@@ 0.7256472537554303
Film 0.16372087902104224
Kazak@@ 1
Orange 1
Pun@@ 0.5634659517455688
air 0.13992800997732643
aman 1
fululizo 1
gar 0.38584129491544644
itz 0.21375718325610676
king 0.10329826741589672
lyn 0.8153708355066441
ole@@ 1
xi 1
ος 0.23852850113701765
47@@ 1
Baden 0.8875013171696144
CS@@ 0.6683816010912899
Davis 0.5664646878168486
Gul@@ 0.5846510451234179
Pic@@ 0.5396241197626431
Wilhelm 0.4188700246304552
aam 1
aland 1
alls 0.1758306688594601
fes@@ 0.43781850268941325
itz@@ 0.16538736494271755
lob@@ 0.3987525465661916
men 0.0638679955592981
rak@@ 1
ũng 1
10.@@ 0.659921232477063
1866 0.6367392319485452
Cambridge 0.6388378903773406
Dre@@ 0.27830826642993095
France 0.07535981644404445
Gabriel 0.9002631983078391
Hand@@ 0.21125509439748688
Reb@@ 0.5817103893624556
Slo@@ 0.6124520249028748
Street 0.16811755578232013
Suz@@ 1
Vic@@ 0.32363616399449296
elia 1
line 0.08180687883327749
orum 1
ris 0.6643513165780794
thu@@ 0.6555902877001252
ty@@ 0.2762872015439127
Anton@@ 1
Ard@@ 1
Arts 0.2750691583302785
BC 0.38944371445097004
Cat@@ 0.28197458464287145
Free 0.7632697902290638
Lan@@ 0.4348541552566853
ater 0.19139733065614947
banda 0.47722739625412536
heim 0.3294176324456572
jan 1
kes 0.7250669237000114
mond 0.44849370325876037
pag@@ 0.6476010204390391
sand@@ 0.7811753572650043
118@@ 1
130 0.9116317100336797
27,@@ 1
Bank 0.3489782444717287
Ci@@ 0.3886543733583583
Hollywood 0.6680653796903044
Hug@@ 0.5264261630090363
Nur@@ 1
Post 0.46483281060857234
Princ@@ 0.6058449668251722
ards 0.10609663550774769
ful@@ 0.9222894524761605
ning 0.09514895846792418
not@@ 0.0852824021764893
opera 0.8666607731178846
ube 1
1892 0.6091830416457447
75@@ 1
Boliv@@ 1
Clin@@ 0.6836063023956351
Earth 0.5284644616174913
England 0.14577820067339017
Howard 0.6956944626209239
Kaf@@ 1
Naz@@ 1
Venezuela 0.6915954942040559
alla 0.6447585381102168
ao@@ 1
fe@@ 0.0664749172630395
gul@@ 1
nan 1
yth@@ 0.30847358737983893
ạc 1
201@@ 1
24,@@ 1
AF@@ 0.8947933080286832
Arist@@ 1
Be 1
Brook@@ 0.7254528972460711
CI@@ 0.5496151026610052
Centre 0.32983377854626955
Clar@@ 0.437897540360884
Development 0.4720809419943584
Ga@@ 0.6464023125075177
PE@@ 1
Pam@@ 1
Ross 0.865602692833732
Rot@@ 0.3061726203762922
chin@@ 0.36262300410797216
doba 1
ehem@@ 1
enger 0.3951447640052921
etta 0.6778210980917344
hala 1
keti 1
„ 0.028488358147152358
103 1
105 1
1895 0.5390519733745203
Alfred 0.6059979949365094
Cent@@ 0.5654485333946735
Joh@@ 0.6243635114520386
On 0.03783490007587149
We 0.4308984575783401
eign 0.2855815933015173
elen 0.3882657791390381
isini 1
mund 0.7107449269944066
tivo 0.4444833243022225
él@@ 0.13503635416432144
ı@@ 0.4733813017130988
ł@@ 0.26644646115466775
4000 1
Aqu@@ 0.7339033033516702
Brothers 0.9722173952708296
Fox 0.5718379390169676
Gold@@ 0.45260563411056554
Key@@ 1
L. 0.4931423901476525
Live 0.47425360030057695
Lyn@@ 0.7846546878566742
Main 0.5132122311176943
Palm@@ 0.8990260636552528
Ran@@ 0.4501110568237699
Tag@@ 0.5926068050840257
XV 0.9204057816825936
adan 1
ampton 0.9788690400421042
day 0.07228398080629686
eski 1
mes 0.14283382503557376
tico 0.21291704336790002
34@@ 1
Arm@@ 0.28711763020418546
Corn@@ 0.4850082885637829
Daily 1
Die 0.017608234450759597
Din@@ 0.6017877585648704
FO@@ 1
Fut@@ 0.6386715581082313
H. 0.40248792685046264
Lem@@ 0.9033169233745226
Nic@@ 0.46369694478292434
Now 0.9574007667506823
Rand@@ 0.6621408903196622
SS@@ 0.66914920134165
aco 0.49164226528825905
bis@@ 0.671653227961252
ikal@@ 1
pri@@ 0.21100953967154812
uth 0.43479476672582934
ves 0.07839076200414874
yp@@ 0.1744341837782331
106 1
115@@ 1
360 1
Augus@@ 0.5582691725909122
Emer@@ 0.7520263334823702
Global 0.8363075243405564
Haz@@ 1
Red@@ 0.3139088316618974
Web@@ 0.404654957579862
atus 0.3164966307315954
din@@ 0.2884047006120647
ebo@@ 1
eu@@ 0.4119344583070844
ids 0.22060700177300785
oes 0.5891156950095643
tete 0.21108076132618267
ward 0.16401946366621264
ç@@ 0.11936371385415626
1200 1
1861 0.6624367411059141
1871 0.623221045984944
60@@ 0.9905293263317463
Allen 0.7101989095820025
Apo@@ 1
Da 0.36729006027014705
Jak@@ 0.7351274531867354
Lake 0.23848922171479328
Leopol@@ 1
Nav@@ 0.2700159881593801
Nikol@@ 0.8101306035118697
Stanley 0.8983315771648618
Water@@ 0.8086577265801154
af 0.43981510773209537
ayan 0.8686227813392037
ayi 1
cap@@ 0.08074388193257385
ef 0.25288195283145476
eland 0.635925608330291
kin 0.3732548825804752
ny 0.4409659556258827
ways 0.16862123446504956
š@@ 0.2785706413636493
CA 0.49764473014539007
Div@@ 0.5532854622268877
Hav@@ 0.3951536849002987
Hem@@ 0.842717852431696
Hun@@ 0.5658699851803894
Kelly 0.8552706368545671
Nan@@ 1
Raf@@ 1
SS 0.36145232809982275
Vie@@ 0.663060183708528
ail 0.22058463452502106
alar@@ 0.6205599046791752
blu@@ 0.3845534370192176
eim@@ 1
grav@@ 0.3961954583354612
mel@@ 0.20651941106298458
meng@@ 1
ord 0.3728472845818187
ric@@ 0.3764356532199238
sun@@ 0.5386689739430007
try 0.1562229494457263
1893 0.5623640572902114
26,@@ 1
Alliance 0.8437595979878215
Deb@@ 0.31048357089279455
Gran@@ 0.4167229244952099
Ré@@ 0.23935403231354146
Var@@ 0.464590151586007
alg@@ 0.19633143443641884
ams 0.2321626177106276
cop@@ 0.1493101603146637
dam@@ 0.20429168577356088
eci@@ 0.4889585400671436
enberg 0.4211984906290678
ennis 1
mojaw@@ 1
ux 0.17810293657506887
ú@@ 0.16575349954582416
450 1
Barr@@ 0.4339792679226825
Bundesliga 0.8356954409684234
Diego 0.5123678850231141
Harris 0.8320394542408682
Long 0.4062902064324509
Max 0.4275190655976439
Ori@@ 0.33843993700873876
Pow@@ 0.7133017532673657
Santos 1
Tim 0.8992351572633227
Villa 0.5984366893509473
Wes@@ 0.4213658737816951
aul@@ 0.4223132890237081
ines 0.08569964099328267
lev@@ 0.3665192151424041
more 0.03837088636601754
oman 0.8797686990389147
res 0.11569270106308326
town 0.09061867373111854
wer 0.154104463633288
1894 0.5615087731505128
80@@ 0.8847264460987764
Atlanta 0.759126905288734
Eric 0.7006033359950307
Ltd 0.9389177933978208
Luis 0.3991195200022562
Luxemb@@ 0.8825958496606843
NA 0.8088867035147553
Ohio 0.37573338149239716
Tok@@ 1
hep@@ 1
illy 0.4836561724877839
omin@@ 0.920004614169439
rap@@ 0.1656247877925629
ton@@ 0.2950806707474073
ː 1
1840 0.7866132599753518
43@@ 1
Ankara 1
Bayern 0.7831267145937738
Cup 0.11820943679160172
F. 0.4486348537579334
Girls 0.9076645181656718
Gun@@ 0.6430451416484565
Microsoft 0.7715987692247248
Pav@@ 0.6982020678153769
RA@@ 0.3046575967200809
Serie 0.40236239629096954
Stan@@ 0.6009600812425503
Stephen 0.5537895888822681
Theatre 0.4009106148305316
aph@@ 0.6256948511486667
eds 0.20780027939571247
him 0.04757318688137089
ness 0.15986331587044275
rain 0.6038487918111018
yor@@ 1
107 1
21,@@ 1
Adolf 0.9456537515420347
Anderson 0.6612343251231223
ER@@ 0.4657516260512454
Gem@@ 0.45837835880358613
Lar@@ 0.3653053725258351
MI@@ 0.6794787930463316
Sas@@ 1
aca 0.4291886255909593
anger 0.31162691876580406
bez@@ 0.45729326855437197
got@@ 0.6024280216712405
ken 0.06254724964031244
nu@@ 0.1853482033948925
ones 0.08922058054885877
ose 0.3083622753619228
pet@@ 0.7954540785072253
rec@@ 0.037867021961211896
Dev@@ 0.3176469477528589
Front 0.6825278793484029
Gö@@ 0.5114571393895149
Hans 0.3560443431190901
Harry 0.5048098109647885
Loc@@ 0.23145995842205286
RT 0.9072859085830667
Rol@@ 0.32134030753336323
ainishaji 1
elec@@ 0.11715376393283759
form@@ 0.0675380848641555
ien 0.07739677567838685
into 0.0325537654911479
loyd 0.7326535015299195
ow 0.25228133972325095
tig@@ 0.12678391524196048
ws 0.16428247461112103
yd@@ 0.6325057051622489
ָ@@ 1
Art 0.1513489329792258
Ass@@ 0.8726478274707278
Cec@@ 1
Dest@@ 1
Feli@@ 1
Good@@ 0.7834518514284016
Net@@ 0.5371035519173897
Rog@@ 0.6615387323373328
^ 1
bre@@ 0.06734095490042875
eira 1
out@@ 0.11922039168118892
time 0.027386130666787543
AF 0.7344090391206815
AP 0.5317833299753857
Barbara 0.8531039991263991
Denis 1
Ern@@ 0.4492477527182809
Gur@@ 0.9899307564048363
Houston 0.6678132590553625
Lac@@ 0.8233002902459138
Lawrence 0.7765891675768452
Milan 0.7982597540790534
Shel@@ 0.9742009142727825
Song 0.4226255373200236
Valley 0.3264521470221199
Victor 0.6053318667364349
cher 0.10125369681847615
eff@@ 0.09047444681028638
esta 0.10135419091921212
ilian 0.544823699761867
kg 0.5216024128532091
lar 0.1404219985358057
mom@@ 0.6885270869037796
ometr@@ 1
owa 1
poin@@ 1
ī@@ 0.8140678412934483
AR 0.8431513982855784
Bell@@ 0.8163278885427782
Bé@@ 0.9095128611671277
Country 0.5880718230114775
Hawai@@ 0.7867621856046637
ML@@ 0.714647653064703
MS@@ 0.9865652459204916
Medi@@ 0.1796670854281949
Minnesota 0.5143198188424853
Mississippi 0.7498897669964727
Mod@@ 0.3072249822806998
RO@@ 0.6167274162115224
Ric@@ 0.6093403935327694
Sarah 0.7492444327061609
Sev@@ 1
Uruguay 0.9356461693698578
dam 0.5233589601654942
ense 0.1309218919839298
illo 0.35489242640616275
isl@@ 0.38472610492431697
lywood 1
muh@@ 1
nach@@ 0.26627714686762427
onal@@ 0.2959551590383708
plas@@ 0.4763071614730138
spek@@ 0.9574156674793824
taki 1
teri@@ 0.36844348010299516
ABC 0.7125348197644608
Amsterdam 0.8428467604772689
Azer@@ 0.8531363492182908
Can 1
Conn@@ 0.4310469094931644
Fac@@ 0.30342389742280457
Harr@@ 0.6135867190679158
Juan 0.2124857745750433
Kle@@ 0.3655686909168411
Lewis 0.5032517178599402
Ray 0.6740347378492356
Roc@@ 0.36565025951178576
TE@@ 0.7214911754017995
Ther@@ 0.38853582037720447
Trav@@ 0.6781115421161481
ape 0.30870535775903585
ats 0.06804570394908535
cer@@ 0.08527471595315085
eus 0.7367031107829503
graf@@ 0.4873983432825267
lock 0.21178415397917422
off 0.07607812743681208
rem@@ 0.1151731523167121
ser 0.08687196500531635
sky 0.2876096322970414
up 0.03622073874005645
1881 0.5903720830116462
BN 1
District 0.11534420659154
Girl 0.8433244273796396
IP@@ 1
Jack@@ 0.788635110379101
SE@@ 0.42476079166036196
Sports 0.4259552549109988
Willi@@ 0.6878869457862499
bay 0.358919910550959
cur@@ 0.07876968976226027
ider 0.20349806162976367
pul@@ 0.14809234408720567
teri 1
à 0.005575178139855173
12.@@ 0.725586534817316
Bra@@ 0.8323666685370019
Chin@@ 0.9104344295026562
Hul@@ 0.8215425348103167
Kennedy 0.7590296480621062
Oscar 0.7804418137037064
Rum@@ 0.6200365849981133
Sow@@ 0.7421882762740533
Ung@@ 0.6001071957780301
erre 0.649430355448527
kitab@@ 1
och 0.5007091658626921
para 0.024487170432854064
pur@@ 0.1218806509466114
sh 0.6032896335978728
yle 0.28590371688133914
38@@ 1
Bernard 0.6234228113672305
Bit@@ 0.9952295784715994
COVID 0.5028607795558537
Corps 0.38723944591682086
Jacob 0.7990469142199008
Log@@ 0.5699952841460308
Meth@@ 0.7436277701237813
Township 0.4584770839928669
baj@@ 0.9341224045099095
ei@@ 0.5653007173099593
enburg 0.3908465141329011
hou 0.6820972187909956
iller 0.23881330650454557
istr@@ 0.24694948559735103
lati@@ 1
low@@ 0.1315636371230034
ox@@ 0.2150239900193404
ted 0.02229177607189062
114@@ 1
Buch@@ 0.32430529029270644
Colorado 0.5466073169286378
Copa 0.4433355055476215
Let@@ 0.6495479048512697
Little 0.38436626590527856
NBA 0.5009262380489395
Network 0.5168860834454847
T. 0.5141083642137715
XVII 0.9337719902930733
Yu@@ 0.7798108210372179
Zel@@ 1
athan 1
bat@@ 0.12926353837891336
esi@@ 0.7097165836523494
her 0.019081687184034666
inz@@ 1
trans@@ 0.05390325724019045
108 1
1830 0.7205350881346347
1850 0.5944635073802356
320 1
Agr@@ 0.409395365796566
Alaska 0.9566032684237596
Boys 0.7364855535785308
Bri@@ 0.26493952281462874
Council 0.14728090157302628
Game 0.42235911557951905
Gib@@ 0.7479689776824697
Main@@ 0.5895332425078358
Maryland 0.5986265713731861
PC@@ 0.6214304477289583
Pop 0.942950574199766
Rak@@ 1
Super@@ 0.25185992338194996
Tang@@ 1
aci@@ 0.13004892344029437
andra 1
bou@@ 0.4097176369471873
department 0.40534092916838393
did@@ 0.2524245160949749
dir 0.26239582320279226
if 0.1010772160266201
1600 1
1700 1
1909 0.3571083910467711
Apol@@ 0.955345400718779
Bush 0.9133894114793939
Business 0.4945367103279336
Cav@@ 0.5180374160628053
Church 0.14209162759134675
Corporation 0.37834361869540506
Dad@@ 1
Ferr@@ 0.46823045078286296
Iz@@ 1
aut 0.13709190474843355
blin 0.5321266976605391
egr@@ 0.2897884729837574
ept@@ 0.34976569615386593
ers@@ 0.5881038109302832
fran@@ 0.33014525539761125
ges 0.13585745937907234
giz@@ 1
ien@@ 0.6768328239008664
inge 0.6013215545465085
lem 0.2515321228894151
oy 0.5738419860855812
ê@@ 0.14958999771450893
ş@@ 0.2282316133386886
1869 0.6385491510917786
Aires 0.45877755995504704
Ann 0.820541022427195
Bell 0.6349113232849267
Chal@@ 1
Down 0.7231409486255764
Fol@@ 0.23990529638453628
Gel@@ 0.26939430379416324
Ian 0.9355399817231426
Indi@@ 0.17602120164145835
Isab@@ 0.6045534500721655
Lady 0.4452984316448634
Lov@@ 0.7325202535493598
Mario 0.7295813033071046
Oliver 0.8570304436352619
Pil@@ 0.3712170307460666
Seb@@ 1
Yan@@ 0.7696960754508206
ensa 0.5749289041048912
etto 1
ort 0.18297498623371267
oun 0.9567592784684831
va@@ 1
æ@@ 0.8238684155060105
ón 0.059149995340460206
270 1
Bog@@ 0.5609319843336936
Buenos 0.45412983059136164
CP 1
Henri 0.4491530038496667
Ludwig 0.4727127317261512
Meg@@ 0.5736793121782052
Rodr@@ 1
Tennessee 0.5586293390103305
UC@@ 0.5366745173637064
Valencia 0.9586105141795659
een 0.5015009955045352
fol@@ 0.14075978453281004
hist@@ 0.6481851376824252
iche 0.34273161227117965
itt 0.5919197554884197
lan 0.46788071609372667
ran 0.23425987622442082
sc@@ 0.06523974095396036
senti@@ 0.6670096447847471
tri 1
13.@@ 0.8962158236613625
550 1
Ax@@ 0.9696055242336084
Christi@@ 0.4293959389158553
Gordon 0.6151901696475144
Lav@@ 0.6195362167587457
Pear@@ 0.7090066099232194
Rom 0.9646676798214486
Ruh@@ 0.8595959209376454
USA 0.22320689202969465
Vel@@ 0.44644479424583783
Windows 0.4479740497097672
Württemberg 1
ague 0.4121670713020378
ides 0.11574547842044106
leh@@ 0.4949174307748921
leri 0.234938426995491
onna 0.786136647319501
othe@@ 0.6466801103402868
ovi@@ 0.6613729562446702
risto 1
1882 0.5501565615897483
Austr@@ 0.2881552051913182
Ball@@ 0.40053116002769906
Brad@@ 0.5694136418978447
Bran@@ 0.3964141598651964
Bruce 0.6955694774804392
Bruno 1
Dec@@ 0.24118568743646152
Gary 0.8444495241008065
Kob@@ 1
Lucas 0.9988994718327959
Philip 0.6081245302630454
Tah@@ 1
bal 0.44306898734950523
elt 0.10080941882502444
ester@@ 0.5498066929408897
gene 0.4898771645384934
lea 0.7950509911742283
olm 0.7853120670189364
sing@@ 0.27291918737868126
stadt 0.16943813807045185
uf 0.5527828273004137
Aut@@ 0.14870559291287952
Douglas 0.5423249630658902
Eg@@ 0.6921245570110772
Independ@@ 0.3925871907559391
Irak 1
Jonathan 0.858413522820394
PS@@ 0.5905817841757669
Poly@@ 0.619765084915078
Puerto 0.4706228162112023
Rico 0.746550251602453
Standard 0.7709177793017956
Wood@@ 0.4383293719061991
auf@@ 0.04595579745257311
bus 0.23215107669579585
ding 0.09123553225670057
galak@@ 1
kan 0.49781825607236874
off@@ 0.061425778231009906
sev@@ 0.7584632875322794
tera 0.4439829835834036
ə@@ 1
Bish@@ 0.37141478346838896
Brand@@ 0.38517204112548353
Facebook 1
Family 0.3906563050825835
Johannes 0.5378343571540986
Junior 0.46089853147668625
NE@@ 0.5357030441545938
NS@@ 0.4917751769944415
Nig@@ 0.9021500655122291
Sac@@ 0.5289853061409342
Tanz@@ 1
That 0.3065645624523506
anim@@ 0.13489187911116923
bron@@ 1
can@@ 0.07570179499292194
cio 0.272646475138983
house 0.10055529208326218
igh 0.550267302686675
name 0.047179371377056654
sula 0.45744080111337404
yst@@ 0.2579893896625849
ğ@@ 0.4744590177217927
ه@@ 0.1995188000133231
1883 0.5500192127427256
Alt@@ 0.38376483442247866
Carol@@ 0.6377563550437627
Cra@@ 0.47542374175394214
Dah@@ 0.8958152562850555
Glo@@ 0.7507341754344269
Hai 1
Hamp@@ 0.5025727698092886
Hin@@ 0.25505087755112504
Ligue 0.5539146480007869
Plan@@ 0.24579201008910842
ST@@ 0.4730798649026299
Ses@@ 1
Singles 0.5872717785394441
Toronto 0.3744286455593226
Viz@@ 0.6363121689212711
Wayne 0.8682701588762864
Yah@@ 1
agen 0.1328548577524919
alis 0.4325590344829043
ator@@ 0.3657063846342753
chester 0.43797686576292516
dae 1
emaji 1
gor@@ 0.7110625895564998
mas 0.3035722045430361
ning@@ 0.453325941506887
ough 0.11712886706285429
pre@@ 0.030989819766337138
pres@@ 0.06008862434593616
rik 1
side 0.0556066590249958
ū@@ 0.49516756994187994
β 1
104 1
70@@ 1
Bac@@ 0.7960682905612562
Claude 0.5749605575082815
Cot@@ 0.5111131652442213
European 0.12320263206639641
For 0.0962450046783131
Friedrich 0.2404891046688685
Jane 0.6373112136169693
Mih@@ 1
Studios 0.5558245399952236
Warner 0.7487674231229307
Wh@@ 0.30789456484214145
Zo@@ 0.8029064772565475
cul@@ 0.10056389435324847
ier 0.12055983559863738
ique 0.09954742203188824
sion 0.048649167379162625
sti 1
ture 0.06120685949588217
ë@@ 0.5620884757888519
ē@@ 1
100@@ 1
112 1
750 1
Back 0.8388413575877367
DS 0.4643550653332238
Franklin 0.6960290919920739
Kevin 0.6290216263867144
Land@@ 0.08181882590775516
Top 0.29865174119494325
ado@@ 0.4037602631340883
ahr@@ 0.23483096065515688
arra 0.6544243759455655
bec 0.5819075557624054
pir@@ 0.7725976434368709
sid@@ 0.7385679248520323
sub@@ 0.04714385342803633
union 0.22809510694313428
vio 0.7522987427483758
116@@ 1
Festival 0.15999443360153406
Gard@@ 0.599443773979025
Geor@@ 0.44105735161935156
Herz@@ 0.38045890002420324
Lon@@ 0.7723573676739619
Marvel 0.9344242966858909
Produc@@ 0.3977821506180475
char@@ 0.12780943791586297
dev@@ 0.08550449066484651
fos@@ 0.46202776878786683
ges@@ 0.08798629828830999
ium 0.21535250184959168
mit 0.00991960963766721
optera 1
ron@@ 0.2611212486104978
tel 0.1242405830122686
ust 0.17963024396829885
yes 0.4849622148579728
1865 0.5112697117623054
210 1
AD 0.5164801892962655
Bour@@ 0.44870421767669977
Cuba 0.6201789634430344
God 0.3565029425000668
Gra@@ 0.31231247573242854
Guar@@ 0.4790338921055308
IP 0.7143663124447971
Martin@@ 0.9499757533995715
Pur@@ 0.3747440655549184
Raymond 0.7958867701843568
Slov@@ 0.7956336474945593
Tul@@ 0.7461451957890058
Vas@@ 0.513055390576614
allas 0.383626905908433
cal 0.274023948118919
dad 0.37842873794513493
eron 0.14275739139206522
ev 0.35420855832635967
jed@@ 1
ret 0.24071677260096855
rid@@ 0.36220414914350696
tit@@ 0.12519125086654673
unk@@ 0.1625689080731026
van@@ 0.42466072147529355
117@@ 1
240 1
650 1
Agu@@ 0.6701378421848734
Angel 0.9861449747007559
Arn@@ 0.39900942080906
Bru@@ 0.2569007253710717
Charlotte 0.6440497252754025
Cir@@ 0.28774322937090235
Dir@@ 0.7081781137453266
E.@@ 0.7179130558904423
Econom@@ 0.3110852608665275
Jimmy 0.6604219278386332
Las 0.1131856745825708
Moz@@ 1
Paraguay 1
Stu@@ 0.23700314815385687
Tour@@ 0.20185901024490474
XIX 0.37842317914594437
act@@ 0.18022283907821107
don 0.19688695514371907
dri@@ 0.11614887296308715
eller 0.20814003371127743
fl@@ 0.04886675427772191
ket@@ 0.2471086760355613
luk@@ 1
mej@@ 0.7970020238515809
oll@@ 0.0983952997259564
onne 0.19343026063998378
publican 0.3484302580775292
r. 0.5709819480897242
rea 0.30286153790531817
tul@@ 0.5852067611147719
è@@ 0.07789101716814466
125 0.7269534614638703
1857 0.6326032003388532
Channel 0.49075094509360184
Cru@@ 0.6309068552131714
Europa 0.23702762267350969
Good 0.6285432824533048
Jud@@ 0.2799662712844957
Les 0.03415185394788775
Marshall 0.7144993462776981
Maurice 0.5992867843252848
Mic@@ 0.6054237011165163
Migu@@ 1
Opera 0.6812013173517505
Rhy@@ 0.8948731735512709
Salvador 0.7534503273707582
Santiago 0.4501645999254036
agan 0.6056281578676871
aine 0.11565777239800785
astr@@ 0.19689497949092427
dos 0.057912673504688005
other@@ 0.35845407272981616
pper 0.4225514056885769
urn@@ 0.225402293289167
worth 0.2824374062976708
ב@@ 1
1838 0.8142923570136503
1867 0.506016308680672
Alan 0.5527620796385683
Dipl@@ 0.7359469075806012
Hau@@ 0.6420876130650295
Kho@@ 1
Master 0.39832509473263367
Mount 0.3618921170931724
Nich@@ 0.4337986288144217
Orig@@ 0.4138761118113957
To 0.19312728943613205
Vladimir 0.987704789728342
augh@@ 0.4218024420337941
ck@@ 0.19459763439154035
ection 0.08811780974815975
ement@@ 0.30164472905996853
eton 0.4282008666072597
fab@@ 1
idad 0.09008662206040703
jug@@ 0.2247182746807645
neur@@ 0.35294024106820193
sei 0.24347674755967438
sis 0.7519296174717862
star@@ 0.1280152595950896
113 1
260 1
380 1
Apple 0.672202946701207
Gabri@@ 1
Grim@@ 0.8444491472584196
I.@@ 0.9938158267415974
Inn@@ 0.42518225632348844
Jan 0.48364273009109926
Law 0.27917179165647416
Missouri 0.4528584450298747
Ry@@ 0.547149744142145
Sib@@ 1
Thr@@ 0.32255247637628304
XVIII 0.602047711781825
atao 1
ex 0.22155542563160735
ext 0.9588045241006818
has 0.013856936428583095
illi@@ 0.46105978299604916
inter@@ 0.02493661030389071
ization 0.34346901161534166
lies 0.1461477066908834
long@@ 0.1877623944274551
omp@@ 1
oti@@ 0.17732805350599684
ots 0.1279830608176323
ott 0.48965285971799916
tion@@ 0.10507210545723557
wen 0.5168256614273444
yl 0.35191285987989795
ς 0.4301626499267364
1815 0.7176930357617276
1856 0.6141883749678273
220 1
230 1
280 1
Adams 0.6362349025741095
Alice 0.6258255141484891
Andr@@ 0.7873743652779784
BM@@ 0.5028965122406606
BS 0.5591195325244583
Beg@@ 0.2434656720292201
Buff@@ 0.5702789250868652
DF 0.6836452156943116
Eliz@@ 1
Football 0.16695045298501748
Fres@@ 0.7144880500810926
Giovanni 0.7037244613856638
MP@@ 0.48911990943957684
Maxim@@ 0.5968927279475366
Miami 0.5132923571379675
Py@@ 0.5483421874743554
Rock@@ 0.7254711675981441
SI 1
Stal@@ 0.7197747851195206
ancy 0.3301768726102322
austr@@ 0.4602621525993471
ces 0.05851255804003138
dian 0.5877260404566734
kar 0.8082002698248449
law@@ 0.15472494397920422
net 0.145111527520283
path@@ 0.4551617810554742
rol@@ 0.14735832963958112
ía 0.029781247527953577
1864 0.4669184741143525
Chr@@ 0.48265473373318685
DVD 0.3414971332616937
FI@@ 0.30399663269649996
Ferdinand 0.6041620867178484
Grant 0.6336901699388088
Hop@@ 0.5796580876126756
Jacques 0.3101404156278952
Johann 0.23799866208141077
Miller 0.4547613509711608
Power 0.4285923522515967
Sevilla 1
Tow@@ 0.40388083050956103
Will 0.6886729030521541
` 1
abo@@ 0.9470120691371938
agon 0.3627762384107225
amen@@ 0.6383241209215886
atis@@ 0.23392811474486608
ede 0.3814813629872092
hid@@ 0.5388488665004345
ple@@ 0.1564752152249782
ru 1
were 0.00922176220352934
ée 0.014323025616315667
ém@@ 0.13773581264954393
ר@@ 1
1863 0.481238260995392
330 1
Arizona 0.43911737635386644
CP@@ 0.5977977850947648
Community 0.4349590535982552
Cô@@ 0.8819567336466458
Heinrich 0.30448665996768565
Indiana 0.45140202002271573
Rach@@ 0.7981468281921917
Rid@@ 0.6287723781093467
Ryan 0.5785415604716382
Yoh@@ 1
You@@ 1
Zen@@ 0.6040405214288707
acc@@ 0.04851527935510409
bit@@ 0.2226728453781816
eb 0.6414832599317524
eck@@ 0.17730952482828574
ental 0.07738353146194304
gy 0.623535443246665
hariki 1
hon@@ 0.191843268387012
lim 0.4109159373322583
loc@@ 0.05916910505688603
lon 0.40548335197317315
rad@@ 0.3469043495190101
ː@@ 1
א@@ 1
115 1
1300 1
Blan@@ 0.2926068509103575
Buc@@ 0.29105284918035623
DO@@ 0.8252331429158543
Dro@@ 0.47864615772713814
Elec@@ 0.19766543009181448
Force 0.19920673106643877
Jus@@ 0.27912031488775296
Matt 0.6559087390163314
Organ@@ 0.2388422721185701
PS 0.3326677261753497
Pop@@ 0.4520703840089757
Sony 0.7688568910395688
Television 0.47940355756581415
ago@@ 0.5037512451345266
aug@@ 0.423264786032909
deb@@ 0.23469786797151132
etr@@ 0.40887571812722995
fen@@ 0.2579211217021722
geg@@ 0.2125820562558278
gus@@ 1
ital 0.18885021418119613
los@@ 0.1253896817204258
nar@@ 0.3318551911057413
oca 0.500309647702776
quel@@ 0.4607389358458365
sar 0.8484653653483725
set 0.06623360310708605
å@@ 0.5059221334652637
ā 0.9246588227852343
135 1
1862 0.46618258049787276
Alberto 0.7460655441233789
Aus@@ 0.0380665016665163
Costa 0.45832505309265564
Dance 0.606259777995718
Do 0.5110245594143216
EC 0.899985559781598
Gom@@ 0.9361348473095986
Hali@@ 1
Law@@ 0.538730330293164
Nations 0.3399736539680946
Prov@@ 0.44251678262926447
RNA 0.9311776507834147
Sri 0.48741779321776524
Ster@@ 0.5050837480430428
Stone 0.45121310300392725
alifor@@ 1
ert 0.04536931295356033
gn@@ 0.494557803810993
har 1
inal 0.11841223664481931
ision 0.2349741121944197
née 0.23615409376555574
qui@@ 0.10914507542500096
uck 0.26676232249218806
viol@@ 0.11384996831272151
ī 0.9640080197748953
́ 0.08692791952148952
ְ@@ 1
Alber@@ 0.46469039626499076
Bremen 0.8425097924694058
Coll@@ 0.3946990020974038
DE@@ 0.4837238960030892
Eb@@ 0.3663477949557261
Education 0.2024343474304862
Ere@@ 0.7119176233997259
Fem@@ 0.5536360161180709
Franco 0.7500569783662472
Home 0.340159202747108
Hotel 0.3990905892668107
Kre@@ 0.23425703357672506
Lig@@ 0.4584200279594627
Marse@@ 0.7892194669890898
Out@@ 0.3651666462160408
Pay@@ 0.7817848030533635
SP@@ 0.41207096955797845
Sz@@ 0.33249762572781216
Sé@@ 0.5295128782175429
Vor@@ 0.051006004586517606
Way 0.6560413315076453
What 0.5012505077458992
Ye@@ 0.45900004841437875
Your 0.5616775001104041
aj 0.6625421931340999
anny 0.6255586482282679
bas 0.4270808689054509
ellen@@ 0.4860919300405563
iss 0.25668624766853476
lins 0.45886208886344926
ody 0.3651393528795854
phy 0.32368268032458447
unt 0.32892026414860687
weg@@ 0.17553986003105487
won 0.05024182829798798
yg@@ 0.4001191227137186
ès 0.12478470281720559
113@@ 1
1858 0.5941906945500064
1879 0.45573620464084613
2500 1
AM 0.411887874943505
Adel@@ 0.49669264431842325
Arg@@ 0.4085526562874862
Bla@@ 0.6048050565713672
Congo 0.7624691661317717
Connecticut 0.5664687736353579
Dig@@ 0.7300120482345661
Et@@ 0.28618756917170757
Franz 0.33989563440181186
Grande 0.33203105949564077
Herbert 0.6073944888101486
Jun@@ 0.4352327633427741
Kansas 0.39090293431614936
Lord 0.2258289998363721
Men 0.2929868518855304
NASA 0.8779650779960452
Project 0.43882012938322096
Stadium 0.33983017990285
Stewart 0.615580245140393
This 0.029583514582190606
Toul@@ 0.6129051242933051
Ukr@@ 0.49963555080848066
Zar@@ 0.6595763171755876
alle 0.11382023737527129
ating 0.03425061119606752
ativ@@ 0.4623352106009603
ayn@@ 0.9304914555934011
dic@@ 0.07212121984541123
ful 0.09612205479994484
izer 1
nis 0.1379919669832204
ods 0.1156501289336636
onte 0.709704298435227
ops 0.12165762730793665
org@@ 0.20607533014496343
osis 0.347827164358672
raine 0.9100450809088358
she 0.02525193540888767
strong 0.1988408610563555
ō 0.21669998416379463
117 1
1873 0.46438734685540156
As 0.048533114463145344
Aug@@ 0.524814515564482
D.@@ 0.857613576549214
Dum@@ 0.7277979120804192
General 0.07969231021946677
Monte 0.6880853114173925
Port@@ 0.4269918307432607
Rud@@ 0.595726523172344
Stockh@@ 0.7004887165641617
aqu@@ 0.12462117322606613
arren 0.5082192949697107
ce@@ 0.06638328563478567
das 0.010726590231138101
eder@@ 0.2225329836421389
eye 0.4651767354796258
fiel@@ 0.23547849772926735
hard 0.2071534103145041
iye 1
ms 0.13416099683637286
neg@@ 0.10620699876245819
tors 0.09468882314243657
wn 0.08244144693219069
yaz@@ 0.5360599782028533
í 0.11811971868715385
ה@@ 1
An 0.0972166448491221
Bres@@ 0.6870453749565855
Hamilton 0.4159779957805685
IG@@ 0.5602428526612279
LE@@ 0.5470526890431242
Lad@@ 0.6025696948469177
Terr@@ 0.46163089507062455
ades 0.10035394240853925
album 0.035733005393082246
alt@@ 0.10292695511600615
andro 0.5866540083792714
car 0.0865070765502232
dé@@ 0.018795040374754265
ely 0.043521042770277206
gun 0.34419861279164266
hoa 0.21369344124220302
org 0.8380532439243971
stan@@ 0.34245968705603597
tron@@ 0.26206103445567186
tru@@ 0.3933525584553165
tz 0.502584597301758
ör@@ 0.08032916843731018
114 1
14.@@ 0.7413465853465654
1400 1
1878 0.40835527404157185
3.5 1
Amer@@ 0.5607273818174611
Dan 0.5387217260766961
Inc. 0.44637575078016856
Monte@@ 0.651991474111247
Morgan 0.539486225908979
NAT@@ 0.9525363692164465
Philadelphia 0.35818812240427333
Rel@@ 0.12824144729854373
So 0.17457477958307585
Sub@@ 0.16877881541436265
Sund@@ 0.3099441599857986
alp@@ 0.3467134782366282
atini 1
azini 1
beck 0.6202254320491797
dipl@@ 0.589291914532869
enf@@ 0.1054215094657243
eshim@@ 1
had 0.01139591975683472
ife 0.5991374682394536
kno@@ 0.1658777169925093
osp@@ 0.23735494437823015
proj@@ 0.13592800127799595
sex 0.22658105218242702
ubil@@ 0.726520737513627
ury 0.12752073353342178
ּ@@ 1
127 1
129 1
1859 0.4973146433274007
Bass@@ 0.6415786075696052
Bron@@ 0.3830652970588059
Coc@@ 0.7879452866356481
Duke 0.34531221964395414
Fro@@ 0.5408234543161847
Glas@@ 0.39324587312241904
Gren@@ 0.610828508522932
J.@@ 0.5037268738461304
Jap@@ 0.844583731931447
Java 0.8517098711459369
Just 0.6432439992246841
Out 0.46643735234139583
Point 0.36582064211548027
Pra@@ 0.3677097702158013
Salz@@ 0.4936309636134226
Sebasti@@ 0.48307355444469496
Techn@@ 0.260303807163715
V. 0.23965872473601066
abil@@ 0.23094394998120765
ager 0.15124947920213755
ages 0.038885721692063585
ann 0.2592449982070297
atem@@ 1
can 0.031056781450256647
ett@@ 0.15478074142407175
inh 0.42820068024468966
int 0.24444321102694175
main 0.059756222823809636
zan 1
× 0.3038729188776152
Ş@@ 0.36169933840561763
1837 0.676594568683732
1844 0.6865692054755451
1876 0.4223535859962613
AT 0.5185613605994486
Ast@@ 0.5330656314232813
Berg@@ 0.2261876896584737
Bod@@ 0.3188954555356343
Campbell 0.5908387884547767
Champ@@ 0.32243350806359977
Comm@@ 0.20388308255807813
Cos@@ 0.36301686053029286
Dy@@ 0.3997252749580087
Eth@@ 0.416149985425137
Fund@@ 0.4068828702241085
High@@ 0.4213496591858314
Jul@@ 0.6565658369542205
LO@@ 0.9110318057830478
Nati@@ 0.21672655326425339
Norman 0.6057815443588888
Ray@@ 0.8932926273160243
Rober@@ 0.4197381746687531
Roberto 0.822263980139119
Rosa 0.6936159900480061
Sax@@ 0.5652417091282469
Schleswig 0.9581483618467934
Venez@@ 1
abl@@ 0.18305356914003648
acy 0.11980499258398133
allo 0.5817726240275325
ands 0.09881139174834025
court 0.12356752268900131
illes 0.3230287756039967
lus@@ 0.18103190791623647
mouth 0.3517240250592745
now 0.055449134314587166
ses 0.023618235656316683
tre@@ 0.058379647320176906
wh@@ 0.07409640683867191
wur@@ 0.5260013751490407
· 0.05230249425599853
ó 0.012347836042222636
1875 0.43348825461230556
Andre@@ 0.5275824979193356
Austin 0.5653754267541031
Carr@@ 0.7262499147639618
Cul@@ 0.21383845701920348
Fernando 0.42822947173383363
Mann@@ 0.26800321191170456
Of 0.2943790949632997
PC 0.3485206749062443
Phoen@@ 0.6466000097939635
Publ@@ 0.33413883744307094
Service 0.19331838312933985
Tir@@ 0.47456632757019507
Zh@@ 0.6517298529568747
auer 0.1630191620206907
cas@@ 0.0617132812715554
cher@@ 0.2395633495762279
dad@@ 0.41274747179784127
dale 0.4449567174001392
diz@@ 0.5018158269712878
fam@@ 0.3477150271595107
fan 0.35764138978702537
film 0.027579858559601603
hil 0.5634531760603445
ister 0.20105747361078188
leg@@ 0.05582615242713249
let 0.17422215257292104
obi@@ 0.6306400046420657
tica 0.12303694500110292
tif@@ 0.3947692586645428
ı 0.16062596121024722
田 0.6540722993233573
1874 0.432682761395568
Aff@@ 0.23749689257236906
Bow@@ 0.20956074927063434
Esp@@ 0.27855869776329706
Fred 0.6270799885244541
IT@@ 0.5280258147376333
Night 0.3462112611959375
Oper@@ 0.2613082091240172
Robin 0.7090083410821604
Schutz@@ 0.7172238039181138
She 0.03327131750647567
Space 0.4362915085244369
Story 0.6615080082642533
Tod@@ 0.22992757771347255
Wer@@ 0.15670360046155354
XX 0.30479870690032485
ady 0.2905709839437239
anger@@ 0.4302658708973959
ency 0.08901438873691431
enter@@ 0.27285639744449697
kay@@ 0.5976431132577795
ple 0.21847791734737945
tai 1
tt@@ 0.30444645899105416
u. 0.3125875731870558
verte@@ 0.392780489490206
viel@@ 0.5756861897604112
wick 0.48853981807296887
111 1
1841 0.6657727337580274
19.@@ 0.9562951321514734
199@@ 0.2033442623903222
46@@ 1
AN 0.4772268350577164
Broad@@ 0.45219114565440444
Catherine 0.5333969965001224
Democ@@ 0.31285194764536656
Dream 0.8235855299080783
Ey@@ 1
Han 0.647469543580325
Heart 0.5738785026112767
LC 0.4487751626138873
Manuel 0.2985945873342909
Nicolas 0.5073961332964984
Santo 0.6263829519101002
Singapore 0.4840900550801298
Tat@@ 0.5495356447603857
Tour 0.13308877201193098
ading 0.18723358298572898
cal@@ 0.0872094983761284
cin@@ 0.10244483547819314
cript 0.32632001637318586
diplom@@ 0.2758171024699059
ect 0.05207671148488855
enta 0.13182826208710027
eph@@ 0.2949045008036811
hie 1
inger@@ 0.593594149011792
kov@@ 0.6180066165834132
nat@@ 0.2338887142284258
tre 0.07074911190041187
wit@@ 0.3379190489664529
xon 0.6364895670043905
zy@@ 0.24436422036291713
ï 0.6229754305748254
ʿ@@ 1
1820 0.500793322335785
Baz@@ 0.9459075810050395
Cant@@ 0.46914730741299315
Cour@@ 0.24109469383258875
EN@@ 0.9637833811851556
Fame 0.4550125871660482
Guadal@@ 0.7059304542069242
IF@@ 0.8386913352874308
Jah@@ 0.5147945415882457
Jason 0.5989957189488732
Kuv@@ 1
Mary@@ 1
Matthe@@ 0.47023304921075443
Mission 0.4930924304213758
Mé@@ 0.24272767822760782
Sant@@ 0.3852128807424828
Sea 0.27251933305426634
States 0.039911757077592466
Vall@@ 0.5108826602687159
With 0.117165732865782
ants 0.03081363293330602
arak 0.475243477391109
attle 0.3253271655109359
e. 0.33915994425993434
formes 0.37517154591249063
odo 1
phon@@ 0.3262142616340557
plaz@@ 0.9726148156873992
ril 1
sie 0.02104001388593488
sin 0.09887244462881059
sos@@ 0.947209462063977
unter 0.03555200890586178
َ@@ 0.8690513056854904
ḥ@@ 1
17.@@ 0.8146235043819849
1846 0.5858842461851858
90@@ 0.9143612713715803
Alabama 0.4591875510086055
Anth@@ 0.6445894225568146
Bach@@ 0.2957801398534006
Blu@@ 0.2635074191814293
Boul@@ 0.3745756852637095
Castro 0.8366888356807065
DV@@ 1
Hermann 0.4574856968892127
Iowa 0.4143078455403928
Kent 0.5321008414257993
P.@@ 0.881101552554857
Science 0.19704877444681307
Steph@@ 0.4742650110851072
Sup@@ 0.35086635893208157
U.S. 0.080518547854794
abad 0.421627370919487
aim@@ 0.32857372477104285
avo 0.7366833050418946
bac@@ 0.23607547502048037
bey 0.41928991693675116
borough 0.3337882423456356
by@@ 0.29002463581240673
cat@@ 0.08024984503071518
ender@@ 0.4449293414144131
enh@@ 0.14240531442378024
gency 0.2549237687295786
hayat@@ 1
los 0.0067109926664480355
ment@@ 0.14772831651571425
olas 0.4125761881184238
orn 0.4623887426825479
put@@ 0.12375059680461659
rad 0.4499407791272941
sang@@ 0.6308954674911441
teki 1
that 0.004474182984132961
urdu 1
yer 0.11952561754919654
éd@@ 0.235470026745026
ég@@ 0.0890523275876487
122 1
1847 0.5776760980022048
1848 0.3665941445612529
1868 0.40449546244569756
1877 0.40403527062455596
Carter 0.5545129760298114
Cruz 0.40540577513026227
Dave 0.5248647089956777
EM@@ 0.6492828521763621
Eur@@ 0.253685787697388
First 0.11726170816503623
Hugo 0.5490750373490936
IC 0.4425694868327971
Kant@@ 0.6183397041804137
Melbourne 0.3643867172116606
Rev@@ 0.2428974194395038
Sey@@ 1
Wolf@@ 0.8909953166571453
atri@@ 0.3589360793283695
avent@@ 0.5843899775028134
este 0.04687355215213232
gan 0.5300664863703908
grad 0.4928955367039884
lau@@ 0.2577330026519027
lier 0.2487281395926985
music 0.055959979297049864
nam 0.3215525144092116
onald 0.9486469147721704
ostr@@ 0.9448107348465193
ré@@ 0.019186063412408687
san 0.41547140325611487
tes@@ 0.308217682727395
urg@@ 0.17515854878181017
מ@@ 1
190 1
Airport 0.2973139889013924
Championship 0.10919024245543614
Chel@@ 0.9723810786315327
Colombia 0.3818062983213881
Cri@@ 0.26660764146950006
Ernst 0.3743815216579706
Fair@@ 0.4177945917714749
Feder@@ 0.29619488277553707
Gener@@ 0.22798611965382376
Internet 0.298341232965285
SPD 0.6318750795830371
TO@@ 0.8160747638683707
Tex@@ 0.22988923577165188
aron 0.044088625536256365
bach 0.11437212806501515
bau@@ 0.0970971504370106
castle 0.2952236208873006
cm 0.17277164110502222
ders 0.09553349652272086
fli@@ 0.5085359109425543
format 0.261652168402469
fort 0.10048536851730362
gin 0.2850728860224688
ob 0.32025942901868737
other 0.01933683404441431
pson 0.8567425999977791
red 0.03324943066986517
see 0.09072536397761886
sons 0.13740539850800762
sson 0.4121939923288423
tical 0.06203928682529326
yay@@ 1
ying 0.05534347015027197
ْ@@ 1
124 1
Arkansas 0.5487015406593626
Comp@@ 0.26833852604371056
Frances@@ 0.5199824074738334
Lot@@ 0.42086485570960275
MO@@ 0.6204441344112187
Roy 0.4908976339432631
Spir@@ 0.4168206240801197
Under@@ 0.4601329422964353
Wright 0.5293688165080151
ander 0.40999265669667756
anes 0.31885980873660513
anie 0.4276075523312677
aven 0.4333734894542602
ehr@@ 0.1617263395325617
face 0.09789863900391377
hip@@ 0.8257576434454558
ibi 1
lois 0.5191407004745388
mail 0.6008622262575455
ologne 0.9945979131623267
otom@@ 0.7359330154991383
radio 0.11808089134962242
rag@@ 0.39392596331987484
ron 0.6066478860004568
water 0.06816046459662689
wol@@ 0.5731050814487277
zon 1
zuk@@ 0.922187181196577
1852 0.5211651960054912
66@@ 1
Amp@@ 0.7938107062416161
Anim@@ 0.5582705073113862
Bapti@@ 0.3624957408376717
Bed@@ 0.2580375606974729
Def@@ 0.2082218641887331
Ein@@ 0.04238416198399294
François 0.22442463841597393
Hospital 0.23550431401533442
If 0.19808120477464675
Kentucky 0.41122105411273857
Luci@@ 0.4945141357028005
Montre@@ 0.4048909950552134
Nom@@ 0.6830736103668796
Sa 0.22779254942936875
Suc@@ 0.5995649899205727
Technology 0.3240020710756903
There 0.05276910353656847
agne 0.20498081078453786
dez 0.4762151054610507
dren 0.4746616093146678
eaux 0.21625592395729776
fri@@ 0.10599392859155259
hiv@@ 1
sberg 0.4287246244844444
semi 0.25241688624935377
star 0.2027407134045684
tot@@ 0.16383089647336635
ulus 0.8315487376314644
yani 1
נ@@ 1
123 1
1854 0.4821644790442047
1872 0.3867450339183048
48@@ 0.9347591032864278
CBS 0.5218500563492459
Charl@@ 0.5509775780447244
Chi 0.8392212835706351
Cros@@ 0.47102239000022256
Dim@@ 0.7181362194796633
Eastern 0.22555748274751664
End 0.5142906728049846
Johnny 0.48100957980556264
Kav@@ 0.8231331059955997
Lic@@ 0.618663492733965
ME@@ 0.49210400549176103
Mac 0.6611942891750405
Michel 0.29483338139811516
Moun@@ 0.3500831792349806
T.@@ 0.9419157161303247
Walker 0.46244567343122944
adel@@ 0.3780238882466256
aden@@ 0.6873157562589104
afe 0.6049642317662643
agin@@ 0.40134289464213674
asis 0.4826941681891647
box 0.22332410379347511
eff 0.4718972105280134
els@@ 0.14351578217631922
emat@@ 0.5219339513254821
evo 0.3706628537549877
gas@@ 0.28102514034901976
ilg@@ 0.8592988201237756
ior 0.1496385293323371
italiano 0.8902176077409949
less 0.07600399911580745
model 0.16014363698688341
mur@@ 0.12549275101983504
ouse 0.34114415479277765
rat 0.18059208592323567
sung 0.48426616222349145
top 0.07050285368570998
ual 0.06509008602089046
under@@ 0.04934482397409205
yon 0.5604681717145176
är@@ 0.07829526739608246
′ 1
1853 0.514057905568037
BO@@ 0.8525541047382733
CO 0.5899384757127147
Cin@@ 0.2654484883493559
Coun@@ 0.25840208050452995
Eas@@ 0.5800903989603666
Gut@@ 0.47497743034274337
Ja@@ 0.4497770480063325
Jim 0.3085158185049686
Kır@@ 1
Lau@@ 0.31409986096620757
PO@@ 0.6729708423240622
SV 0.4046233993508218
Universal 0.5170062590421413
When 0.07493715216870571
Year 0.20213748490694522
aban 0.11155567284277992
ace@@ 0.21209466964894638
ality 0.06928955000726465
alum@@ 0.5708772222166716
anto 0.5423085984019472
ats@@ 0.18453098496539394
auch@@ 0.5774808688040818
aven@@ 0.3458190305847141
bel 0.4708013772938456
bot 0.2700935158824289
esti@@ 0.0696779809558151
fir@@ 0.0892876983653773
koa 1
onel 0.29399965362231784
ority 0.14652829058477995
ović 0.6083990166229023
sian 0.3029767422825413
ska 0.4555125915276995
sup@@ 0.05832927698729238
vention 0.13158245188031598
vey 0.20689475608365518
western 0.12437148390356136
121 1
49@@ 0.7308784730489267
Athle@@ 0.24156263982147136
Dut@@ 1
Flam@@ 0.6168714391394131
Got@@ 0.17795961575223476
Griff@@ 0.5283996640628088
Jon@@ 0.5766141814582881
L.@@ 0.6066792072919877
Land 0.14448298659815334
Moore 0.39672950994574413
Nam 0.15365834680236207
Ner@@ 0.5823648338994227
RT@@ 0.47031909454485
Sound 0.47778119908554334
Tay@@ 1
agog@@ 0.3215371873966587
annes 0.518987669239464
arry 0.4242410468716162
asser 0.41396751382011054
ater@@ 0.2611742940262905
cle 0.14533803629010972
country 0.07522934449412717
elik 1
eston 0.4024062642342176
hatt@@ 0.4910239912049448
ino@@ 0.50057193331831
modi@@ 0.21845848101625726
mol@@ 0.13274608065787952
nis@@ 0.5993342826660503
plan@@ 0.07664600892189777
pos 0.14623425026555315
rac@@ 0.07316222105255905
s.@@ 1
serv@@ 0.07302615737887316
spir@@ 0.13876105300117664
ties 0.039176596178453246
view 0.06500059692740719
vor 0.03905372772308446
you 0.13565457149758772
č@@ 0.1798808796648699
ık@@ 0.5467340750244153
ש@@ 1
118 1
Co 0.2740208708201781
Cou@@ 0.44127649780909195
Death 0.2974403816352185
Dow@@ 0.2985604920776658
Kop@@ 0.30523122869859937
Meh@@ 0.6614637153514845
Pedro 0.2424075306939346
Pictures 0.5788168667936218
Premier 0.19939652124417423
Scot@@ 0.40605228913051405
Stor@@ 0.31716001737894084
Stre@@ 0.1893084791175123
acks 0.15966777789797174
ads 0.132457409638495
angle 0.3414891305608324
asp@@ 0.13979452886455954
ault 0.1497364928022651
eer 0.17226289369569592
esp@@ 0.07771375013394183
ists 0.05197378598432996
lib@@ 0.25374449823638473
lip 0.44278610760795195
orio 0.24149454363465678
pens@@ 0.20877070903560155
school 0.03905677790924568
seg@@ 0.16340829206109922
traf@@ 0.18647201694556134
world 0.061032723004543175
ère 0.03908749950639764
155 1
1789 0.7194799830784584
1814 0.5504945319953127
23.@@ 0.8270437246739004
AG@@ 0.6202804501008264
Chall@@ 0.3119166769798071
Constant@@ 0.4452903436246665
Crist@@ 0.5989380508109002
End@@ 0.39257969092324585
Guatemala 0.6370457622931941
Guy 0.49953872772023705
HT@@ 0.8549374260762647
Hard@@ 0.3013239608690765
Head 0.3797256852929472
IT 0.608663341965701
Lanc@@ 0.36799083110553327
Lep@@ 0.6708009265418823
Lé@@ 0.29020624548790724
Ox@@ 0.491662753277688
Pass@@ 0.28422433624603227
Sym@@ 0.3035063659006872
VI@@ 0.4372360698648697
Wrestling 0.4395043798914731
ael 0.9644713871571621
aille 0.2617022727908743
aise 0.15391657988420254
ball 0.08170425987615666
chen 0.04393762952195559
elly 0.6084265079805004
espe@@ 0.5410414361694266
fich@@ 0.8032519394837452
hat 0.049494021150230307
igg@@ 0.2880874053421383
osaur@@ 0.40817091454304494
ph 0.3925543477591795
ree 0.24135710269346558
rup@@ 0.1033418137188311
ship 0.05284728795634361
sus@@ 0.08439643340151406
top@@ 0.21205731686116377
umin@@ 0.2048056627442136
ár@@ 0.14089639595817494
− 0.26248927745782175
.S. 0.681034605635815
16.@@ 0.6715812230185758
Act 0.12577850459279633
BI 0.45836702997272066
CE 0.35487201461705165
Georg 0.2797571214128059
Hoff@@ 0.4915116324470177
Jor@@ 0.9409442918659271
Pier@@ 0.4685219174085005
Rein@@ 0.278117148419541
Sap@@ 0.7194486731213977
Yen@@ 1
amii 1
ante@@ 0.530895033264766
arch@@ 0.05628130811922152
aten 0.06628445169217383
contributor 1
dibu@@ 0.8862739156565979
dom 0.3092295282041712
domin@@ 0.08582367309385522
ennes 0.12166497085266227
ering 0.10552527249265077
hija 0.48000474448416003
idea 0.16555998207784992
light 0.070508115947067
phia 1
ping 0.2551933468803925
rot@@ 0.14437704092448467
sch 0.08690880095117329
sun 0.6693919745187143
tie 0.30386419835766554
tras@@ 0.2919712360175947
³ 0.6411752228726133
ğ 1
ın 0.11275712696829641
ś@@ 0.6271682241938159
ִ@@ 1
128 0.792588393757817
1821 0.570518253673485
22@@ 0.5852513687896019
99@@ 1
And@@ 0.42651376726648826
Arti@@ 0.1998336224382057
Champions 0.38486238387542826
Chief 0.2045170840699747
Digital 0.4945541030697803
Gan@@ 0.393293308036465
Janeiro 0.6521143472315916
Lind@@ 0.3050798529738397
Magazine 0.3553278169300418
Moon 0.5017106719095717
Nguy@@ 1
Pro 0.2739479653642182
Rav@@ 0.5111938427843974
SO@@ 0.34575902875521664
System 0.19007840424208186
aissance 0.15388110758069884
antes 0.03903943030620029
atic 0.12387983130358736
change 0.07512642964203536
eg 0.30074673165831584
elles 0.05900769075121225
ery 0.15098613913065517
esc@@ 0.06828937980847201
estra 0.2980746481257306
eum 0.3873860993742231
eur@@ 0.17663177587681594
even 0.06351405014930508
ffer@@ 0.2857092325605497
ift 0.3981743768954289
igan 0.6530809318196892
lard 0.3740425111187451
mut@@ 0.13455995876932647
ough@@ 0.15742177456907114
ples 0.07346155546242114
rez 0.2963720804887344
rop@@ 0.445229458874566
vis 0.38513431397096687
wing 0.06407788703056383
ü@@ 0.03533995568480196
175 1
18.@@ 0.7192133823795405
1810 0.5883673308908708
André 0.32354522916451145
Army 0.08186739018566049
Brig@@ 0.1863517820481665
Cha@@ 0.6540979228402987
Freder@@ 0.7307989102752155
Inst@@ 0.5526201253469469
Mey@@ 0.4054321748816552
PR@@ 0.6257551503681674
Play@@ 0.13951683366108453
SE 0.6676244318222543
Son 0.10520970275730118
Stil@@ 0.37179391291101394
Trab@@ 1
Who 0.463175983436133
adj@@ 0.2729001893528189
ald@@ 0.7966564404386589
att 0.33372643167040783
azar 0.5108843351236004
azz@@ 0.5462739146320572
casting 0.2621587660608563
chil@@ 0.20889289192606364
dorf 0.1887193381399607
edy 0.1746262133103468
fac@@ 0.029146517912524466
ican 0.14693580486237762
ink 0.1824962550278506
kshire 0.44420375014847197
nus 0.5361253642518559
peri@@ 0.13128245793229876
sah 0.6115155281930934
thu 0.45152451707487845
timestamp 1
west 0.05371493242083145
ր@@ 1
126 0.964926500331639
44@@ 0.8642362434871665
AG 0.2553535373064708
Afrique 0.368363398211775
Album 0.17920717257858482
Alex@@ 0.452231515211318
Commun@@ 0.1328465550590167
He 0.007494436040673176
ISO 0.8268519785017165
Journal 0.23900642249040516
Mustafa 1
Off@@ 0.11464267174860661
Oregon 0.3498309317073022
RS 0.41802623582916343
Seine 0.1347550652426324
Wisconsin 0.29677265703477684
agi@@ 0.5592317482081643
autom@@ 0.10693786102774692
bach@@ 0.26661367896952465
dar 0.17042733755870004
edom 0.26663039962754864
gli@@ 0.22414084338192913
icus 0.47214031544323704
idel@@ 0.2643453435591122
kov 0.47452929836236346
lug@@ 0.3261306369214579
mac@@ 0.2007239067291493
pler 0.5447280387534772
pros@@ 0.18521275394633738
sel 0.14515903353307466
username 1
wald 0.23534163014994125
zon@@ 0.9805607243178692
ַ@@ 1
ם 1
15.@@ 0.6075786772361965
1835 0.5062715542779542
Atlantic 0.2590853202680673
Au 0.10225516901745324
BT 0.5097751993070001
Clau@@ 0.45093627393506047
Dep@@ 0.27965898972540226
Enter@@ 0.512382505024668
Fern@@ 0.22964423853248908
Lec@@ 0.5511845825534131
Li 0.39399374918358987
Miguel 0.2898408236866694
More 0.32994974875803806
Museum 0.096750020877272
Nick 0.4245023289465539
Penn@@ 0.7783268274707335
Turk@@ 0.28780079352753624
Yun@@ 0.9866840268822937
adol@@ 0.3885355360588467
ander@@ 0.11609123512056782
bor 0.32037097095431094
con 0.007710909899460532
deg@@ 0.8346942394385356
enc@@ 0.049165638145924985
etti@@ 0.5347268325117591
etz@@ 0.0776559068388148
las@@ 0.20872660236398402
min 0.2938709016110773
nik 0.17375770118361467
parentid 1
prim@@ 0.05458841416651212
rö@@ 0.3721866900626864
s. 0.20674938833183307
thy 0.19439593786124315
uz 0.29639755561496434
ël 0.3884330948144805
üt@@ 0.10278329798887527
-- 0.82153685859227
1832 0.5145902497658355
1849 0.40993611690343806
1851 0.4257628341102687
20.@@ 0.6887420662913788
24.@@ 0.8130183844925271
August 0.02644496623100161
Hub@@ 0.4636519639346111
LP 0.38865407601845636
Latin 0.20227947717628483
Pand@@ 0.5855386273612584
Public 0.16937311141310277
Ris@@ 0.48188518728378105
Rolling 0.5976102679375023
Thompson 0.4185851620011973
War 0.041571670997720786
Wolfgang 0.48976786670397815
Yel@@ 0.5053805453635829
abol@@ 0.22670531916054257
alism 0.1629259236773808
ames 0.24307021147396676
angers 0.2733902888468156
assi@@ 0.22877622208205303
band 0.04525537629058366
ben 0.060598272234973966
blo@@ 0.1147421198988905
boy 0.25682334434832765
com 0.48012977998592327
eca 0.40319198815643525
edr@@ 0.18028746554455305
ily 0.13463951923196413
influ@@ 0.10233810865268077
isher 0.30113876262214706
kateg@@ 1
naz@@ 0.6989154076836926
occ@@ 0.1491197895314259
ocho 0.5528960243356645
omy@@ 0.966318277613779
ories 0.07639169287550072
sus 0.026101720947133127
tham 0.25480011760801585
var 0.3426238339922406
én 0.19744494299791007
İzmir 1
ح@@ 0.12723717517257085
--@@ 1
145 0.9930580596856362
1831 0.5282360241701699
3D 0.42633235290263055
55@@ 0.8154246796451696
Am 0.048861167379690984
Ba 0.539853338351734
Book 0.2553849774451913
Britain 0.19912159147223277
Cast@@ 0.3162171543628806
Chu@@ 0.9544455760146175
Conserv@@ 0.22232841249049665
Di 0.7236163112462228
English 0.057549694532729206
Indian 0.09135779792500569
Line 0.16395915562514693
Lud@@ 0.4162264300696436
Medical 0.28975080239713297
Minh 0.4966108236044263
Ministr@@ 0.19892286405085252
Nh@@ 0.41079925458026284
Rudolf 0.44309849597687556
Sky 0.4945993875808858
Spar@@ 0.3448694165407161
TH@@ 0.7009040668873074
Trump 0.40940455176290963
aster 0.24308472632416153
bourg 0.1826114889321559
duras 0.6454458802244145
ischer 0.0432229816802775
kel 0.13832834164535132
ket 0.12634886427052336
onz@@ 0.41378768004401445
pio 0.5016204171785055
troit 0.28824611163596486
ude 0.3858507473465968
ums 0.0685624030052589
zus@@ 0.12862686221006703
zz@@ 0.3922039946257296
î@@ 0.1321853097262854
şehir 1
ṣ@@ 1
56@@ 1
Billy 0.39936873460996014
CC 0.3280508120841764
Capit@@ 0.3359506267627459
Chir@@ 0.6203331120523312
Eisen@@ 0.20545222318442632
Es 0.036361278659513496
Fak@@ 0.38721504308008176
Fle@@ 0.19781236810991681
HP 0.6803368585348791
Hier@@ 0.36483626102418365
IBM 0.6602543399612396
Ich@@ 1
Marc 0.3776993673361716
Marco 0.5477274917010863
Mountain 0.26406930318801225
N.@@ 0.6762618786377166
Nicol@@ 0.4170940430627734
Over 0.26977972375023707
Province 0.17229944005121875
Russell 0.3787031873311732
TV@@ 0.3727179315203689
Tes@@ 0.6062774540007282
altar 0.3329478165211409
apti@@ 1
bish@@ 0.15362081734001462
cy@@ 0.1779430347941097
ems 0.06446091847309927
hang 0.2414163487817369
inas 0.15862291888069832
iter 0.11222422310996964
kri@@ 0.17371924007866782
lav 0.2999519608550992
live 0.09032595139606335
mana 0.6126053566712355
mus 0.4685043174867326
neutr@@ 0.325538284188156
oir 0.12649057871492048
pes@@ 0.2349035377040708
struc@@ 0.07860745386999153
super@@ 0.07215657791830747
text 0.1311208523999291
vera 0.5415700093669615
yum@@ 1
ène 0.11815463020056452
ön@@ 0.08393743704894566
ü 0.1781085108494924
ɛ@@ 1
ɪ@@ 1
大@@ 0.030629137431457745
1845 0.4372466894316589
Antoine 0.4183772717885809
Dead 0.49663373068697186
Feld@@ 0.3575888454321472
Gonz@@ 0.574759348172044
Herr@@ 0.18182101128018585
Human 0.32633215249637587
Islam@@ 0.2587528151246906
König@@ 0.1315081331009993
Micro@@ 0.5682524791270912
Nazi 0.4300462766244615
Prix 0.17747873659770372
Roy@@ 0.36689552998864755
Studi@@ 0.12883123429914453
Syn@@ 0.14849084600561865
Wind@@ 0.2764493490537282
aft 0.07123065191062605
aup@@ 0.36625811090013444
azu 0.46324041991005716
cht 0.07269568797564083
dit 0.09401111367245221
dre@@ 0.08258687154130431
eppe 0.4652105484813325
gang@@ 0.21340059098076217
og 0.3104579984162026
otr@@ 0.42476079166036196
ric 0.29311898552338983
ry@@ 0.46415370676816076
sag@@ 0.34553130772046553
thr@@ 0.15167944573899325
vier 0.07929294143831997
ž@@ 0.3044461493714425
بن 0.28735474678997114
ن@@ 0.14208705686712067
Bridge 0.23340336776233994
Cath@@ 0.26817576805498405
Clu@@ 0.38758453333816856
Comics 0.45960359803999257
Cum@@ 0.3739338896806034
Dakota 0.449975628398842
Dok@@ 0.6112924418937384
Du 0.32470380214721406
EU 0.3339900522056833
Eff@@ 0.34953964520484665
Estr@@ 0.5570034463372634
FF 0.4674212075747329
Gustav 0.516764689040612
Hamb@@ 0.3845512773346337
Islands 0.23725082329164635
Last 0.41950435383136614
Margar@@ 0.593329916122538
Mars 0.48978489466128255
N. 0.42724104173113714
Ober@@ 0.054656393518688194
PP@@ 0.6309190353349763
Phili@@ 0.35406228899041875
Play 0.40304364757712047
R.@@ 0.48518919100937274
Republic 0.12043433436733615
Research 0.13858765306332677
Sci@@ 0.3306877430905515
Series 0.14691377961841956
Siv@@ 1
Social 0.2107158371676195
Squ@@ 0.21269086675043064
Square 0.3101977684818191
Thu@@ 0.8333401456596206
Two 0.12240830083505116
UR@@ 0.4769213794378669
Well@@ 0.35711397454796684
Werner 0.5138087770267918
Xi@@ 0.38740944422293183
alt 0.10792722119355036
alus 0.7714849906571676
anan 0.5501069692167775
back 0.03569841121670519
ball@@ 0.15916919933802248
bank 0.14857200180621138
enci@@ 0.08095776709889768
haribi 1
ign 0.1798321571554441
inan@@ 1
magazine 0.12256476016558855
mina 0.28294874919580815
nes@@ 0.38332859549106896
not 0.009972857977636133
oine 1
ouver 0.38037724889170005
part@@ 0.055192257431576845
prop@@ 0.09775598924746755
quar@@ 0.06442135805268712
right 0.0691459274564218
sion@@ 0.19543295692312035
tima 0.6115144997721828
uld 0.44012819041896994
under 0.020230208210277476
versi@@ 0.09684802727511709
very 0.03712986228221762
vu@@ 1
zen 0.06552438525827564
éli@@ 0.22355147219905283
ín 0.09578024892173984
ów 0.24396181712308126
μ@@ 0.13011688015346243
ד@@ 1
ל@@ 1
َ 1
0s 0.032606291688597897
1806 0.49731314205002936
1855 0.3681410041650609
Arc@@ 0.321538824230999
Avi@@ 0.27045323489627665
Bei 0.06858017720589732
Classi@@ 0.33474761563307087
Columb@@ 0.5973228549468624
Dic@@ 0.3888971482652406
Ef@@ 0.8359043576032879
Empire 0.11716404382881634
Express 0.3375518984089878
Fall 0.2658667909149701
Fernández 0.5376114853806389
Franc@@ 0.3239578693656031
From 0.06867198920319316
Hey@@ 0.5968904416942264
LG@@ 0.4034400029696737
Louise 0.442079169225735
Metropolit@@ 0.302778220150144
Will@@ 0.37711807570185174
Zw@@ 0.16652247233407058
act 0.05253590905981573
aff 0.3714549335313822
agn@@ 0.116114479760855
ains 0.05478873080246541
also 0.007053376404651521
ammad 0.9272062808775328
arian 0.1254124949517191
avier 0.28293561257030825
born 0.022269415825181098
dre 0.23101620172850074
efs 0.34391903112681044
eim 0.2127221396589673
ety 0.05808003549121011
formula 0.027827917644425177
head 0.059008258751274446
his 0.003965158324018617
ls 0.10822954820799567
mel 0.45290765357589546
mil 0.323698795394653
n.@@ 1
nov@@ 0.2171691116452826
ography 0.06311218247938517
otte 0.21414940676022726
sec@@ 0.027467897544693573
ste 0.04585190408284147
tienne 0.32127896675498163
tier 0.139412489534897
tive 0.045730120227538175
tum 0.3515439355072807
tural 0.09244072634658723
verse 0.08655944167296381
öl@@ 0.08186657303037721
山@@ 0.10947629137588794
Ble@@ 0.4162626557842843
Ec@@ 0.3194540531160832
Georges 0.2917563056094281
IB@@ 0.7055077755629295
Il 0.012504521884324028
Jung@@ 0.40606584135195434
Lima 0.4722055866268573
ML 0.5211069899226798
Mess@@ 0.28600665860352564
Miss@@ 0.4844686905167435
Pac@@ 0.5827209820213755
Pacific 0.14496188820141592
Pé@@ 0.5913763105615935
Radi@@ 0.23381092657437566
Robinson 0.38257619599592146
Sport@@ 0.15819920383374542
Stuttgart 0.38377849268841474
abri@@ 0.2615727476175436
ados 0.018409394954748564
apr@@ 0.4715314303890548
arina 0.5226813690314259
aris 0.6283325357196978
arius 0.6505342374458903
asc@@ 0.13798437432834176
aç@@ 0.17716680479730504
body 0.08109307402306712
cial 0.1228229137357799
dok@@ 1
egas 0.3330979041656383
hit 0.13297683105206062
iken 0.30945871331770236
inst@@ 0.05571845959405818
mon 0.3986872821548155
nu 0.6093286138298402
ouv@@ 0.09242437082425008
pon 0.21511569713328382
ras 0.3850835849887048
rh@@ 0.23782609615692873
seri 1
stati@@ 0.24070700635441272
tiv@@ 0.062439368559095
uela 0.649013799846834
ush 0.27769226794722973
zer 0.19184280511549345
ν 0.20737496190356952
ה 1
ע@@ 1
م@@ 0.1133442690480506
Ἀ@@ 1
0.000 0.1627547893690075
1807 0.5896068810413759
1824 0.5225233942454486
1843 0.4492730681458434
AB 0.4660302141142141
Charlie 0.37214376994264103
Conference 0.15864419648159714
DI 0.530046339475079
GT 0.5644530038638428
Hit@@ 0.38334061373369027
How@@ 0.3928450723105558
Hydro@@ 0.5955068996550457
Jesus 0.30185886862214517
Klo@@ 0.33320261423794945
Laurent 0.5058716315038096
León 0.34305563896191776
Like 0.24092090392968923
Mai 0.07269175465653245
Metro 0.34825510617666344
Not 0.3350866227998189
Order 0.18017971992518772
Summer 0.12812976065439297
Thom@@ 0.4556783004312661
Twitter 0.5817847941709161
alan@@ 0.3046368167441301
aly@@ 0.17074260665728974
ause 0.12729758787947043
betr@@ 0.22289396485497973
bit 0.16937623203430982
city 0.03242177484300456
dida 0.42811823747161376
doc@@ 0.08689215243368088
dos@@ 0.48937127688415605
dy@@ 0.4196838828964624
ector 0.35519237804114984
encer 0.3754840843211191
ender 0.08238247285710791
ends 0.060435392176948786
erie 0.1251066822671569
far 0.13518031336931235
ffe 0.2002866132532392
fis@@ 0.301777742703552
gs 0.11292794763483262
icul@@ 0.15129280247236412
ight@@ 0.18209047230010383
ild 0.2913611682923859
imbali 1
jou@@ 0.11940901830508269
kers 0.10057195338321556
migu@@ 1
ont 0.023348803003759473
pers 0.2234472340873346
syn@@ 0.08112396834472169
è 0.5294806901123423
éré 0.19791487877252303
ę@@ 0.40162327868529707
ן 1
152 0.9847287682477868
1813 0.4765574581259896
1818 0.5077814675351009
1842 0.42196119969325063
Alfonso 0.5098592600038528
Ander@@ 0.34176103684596343
Art@@ 0.4148611329933155
Egyp@@ 0.19108810465595183
Gri@@ 0.25001897383264515
Haute 0.4343339863405175
Kara 1
Kingdom 0.11598226091702746
Lap@@ 0.5416493791816598
Management 0.24773826351113967
Middle 0.20085007942863195
Nord@@ 0.08057817016729907
Rey 0.44745908021841896
SD 0.48829801784258375
Strat@@ 0.31947761876420094
Yar@@ 0.6525602313300102
agre@@ 0.0753971427489694
akt@@ 1
alta 0.33124101508741294
asit@@ 1
aver@@ 0.18454984175176267
berto 0.7070065677041909
comment 0.6899563258443187
dou@@ 0.07398827252485161
eine 0.007487124106276938
enes 0.1163641090925842
enin 0.3620360265857345
flu@@ 0.09992068844675601
gil@@ 0.9819720466090015
ider@@ 0.2759414805133565
kle@@ 0.1949361031021129
kn@@ 0.11415150794093956
lers 0.08391077701261312
ley@@ 0.1800094346241491
onto 0.21004422002564022
put 0.08212514978732803
ski@@ 0.2977209477422572
tran@@ 0.11326992865217271
yk@@ 0.8159522207567964
ône 0.2692976074970351
ık 0.38185106900539206
س 0.1577693490564282
ِ@@ 0.5681844110427474
132 0.9042666476221898
1825 0.4769559568600422
1828 0.47985509541387966
196@@ 0.13352201581568388
198@@ 0.380426668596985
21.@@ 0.6333557073978916
Back@@ 0.16462266871201992
Baker 0.3956846001902851
Cari@@ 0.311907828941083
Catal@@ 0.42352311078809907
Doc@@ 0.2403018937291503
Dé@@ 0.11918362590540298
Federal 0.16479282889835842
Geb@@ 0.11474716573961809
Health 0.17886789000099718
Inv@@ 0.17777636276707365
Jag@@ 0.31232313639090853
Lie@@ 0.16687072036481196
PlayStation 0.45318759871671704
SI@@ 0.5018267959379269
Sud 0.17252941136368552
TP 0.6191831291405355
WW@@ 0.49473405263739934
adv@@ 0.07663363007438698
agno@@ 0.44546151732583367
anos 0.09096842420447361
arts 0.1387549512669858
benz@@ 0.7691046251046325
bers 0.08289663458324793
bridge 0.12560611792571338
cell@@ 0.0867791894055922
ear@@ 0.05304738583528948
ells 0.09554549871462474
eran 0.059717194874911526
hydro@@ 0.18354623563358965
iden 0.09640808873200361
ilde 0.5759899961956496
illi 0.4425873227325497
ineering 0.14793121809222773
ities 0.06141407573660571
kö@@ 0.23036283824526047
ments 0.0523188285911316
mul@@ 0.10058252473754682
nataka 1
onu 0.7579778468303594
prom@@ 0.04969871429493264
pus 0.5095644619010629
say 0.19071730368465645
sive 0.04615217404725521
tain 0.05185373540900462
tal 0.10914430195918003
tap@@ 0.31788148309444003
uca 0.6485733944672176
ustry 0.5635979830761774
wards 0.12084931065750601
web@@ 0.14948896485447263
zor@@ 0.8287626685976309
ép@@ 0.18365938945505061
ö 0.46966174313791015
ün@@ 0.058418402235776566
ν@@ 0.130625104465414
ُ@@ 0.4344927358325175
1795 0.5715787874353301
1799 0.6379183463455144
1822 0.5260680892060094
1829 0.47532572066162543
América 0.2714936019031388
Clark 0.27051036306519294
Hannover 0.4213390501721805
Ih@@ 0.8694790627283349
Justice 0.18732116283490724
Maine 0.3392515439356278
Sá@@ 0.37945566782666257
aer@@ 0.18149936760207516
aide 0.16308287140952837
aun 0.2806318292532919
bonne 0.3193780228973131
comp@@ 0.031122824291208325
dah@@ 0.3990364108926802
emati@@ 0.08835350393538846
fak@@ 0.6338935289735015
fied 0.04474151897178493
habit@@ 0.08107733724885892
ial 0.1357052344978213
ices 0.06914544798309373
igen 0.03279043553188626
lag 0.0825299609217513
lum 0.2241506225159439
mental 0.11047448815140311
mix@@ 0.09662586943964561
mod@@ 0.073244533304686
new 0.016743998883187037
opp@@ 0.08704144822246439
par 0.006070976956959177
prin@@ 0.12218513652796856
quez 0.41970308332298245
riwa 1
sap@@ 0.7717225988894192
spr@@ 0.05219220374628823
tains 0.13239139570428424
vie 0.09158589724575068
県 1
197@@ 0.11838801106963011
26.@@ 0.6720873929437738
58@@ 0.8787785601419199
Arap 1
Atlé@@ 0.5515443953051099
Avenue 0.16759106746322758
Beat@@ 0.39055748162214027
Broadway 0.29772109941976155
Como 0.21321634143373325
Département 0.4284633816882965
Forest 0.2338019702504425
Games 0.11027734270105592
Gran 0.23810446034904895
Gros@@ 0.4225063703843631
IO@@ 0.5574714159944443
IS 0.31627609925939065
Journ@@ 0.2865972951004277
Leipzig 0.24755135697574446
NO@@ 0.3182239876069768
Pach@@ 0.5865359354848053
Pek@@ 0.5919814302589497
Prom@@ 0.2325251416424749
Top@@ 0.2761827416793448
Viol@@ 0.3627220749743661
Vog@@ 0.2573004471632196
Web 0.5432536172403121
aker 0.16452998199566593
aud 0.15751466596628758
bomb@@ 0.19372990371295598
book 0.04786539551110511
dier 0.2612586501258834
elor 0.2204841616256741
ensi@@ 0.21495627317644317
high 0.03519944805654094
itch 0.15724700877787717
ix@@ 0.3611149826831509
jur@@ 0.0653705554084463
lamu 1
language 0.07090641198376484
long 0.03239153797406752
mbal@@ 1
million 0.04667932321053111
pes 0.1794538381772744
stil@@ 0.43580126523302765
v. 0.18496363246817515
Î@@ 0.4507930748385469
ères 0.046475181601664056
ña 0.11359535431555605
Š@@ 0.274028387693494
محمد 0.50750849875297
∘ 1
1809 0.5087186464498433
1812 0.3465992626240017
1834 0.4049328927804923
Android 0.6554633981928206
Chart 0.3494174793732551
Ciudad 0.296878296461811
DR 0.4660127103289283
Frank@@ 0.31104356988585785
Hall@@ 0.35243533768829427
IE@@ 0.34779739448869074
John@@ 0.4310228060287169
Juni@@ 0.28915861203996107
Köln 0.30327746421435103
Mar 0.452086173861726
Ost@@ 0.13768580356799281
Ple@@ 0.3164949343392683
Prin@@ 0.20986142494492271
Schwar@@ 0.17715590067843243
Siy@@ 1
TS 0.413186055472859
Wolf 0.378944981516165
acia 0.29493057223686575
alisi@@ 0.2172571423916541
aran 0.37007305156269854
ches 0.036200769194837674
coc@@ 0.2741053665300427
dec@@ 0.024014175198328876
dem 0.005458684249347268
duc@@ 0.07794129146946772
eber@@ 0.3486582870208183
enko 0.49554761537987435
esto 0.13814793380874207
folk 0.20055950813677365
gin@@ 0.29338119192125217
host@@ 0.10021263771835975
ications 0.19834620109284265
kum 0.4878309041809112
lai 0.8652916201752784
mano 0.3563251629309283
nig@@ 0.5515299218333987
ographi@@ 0.11935618678917966
orn@@ 0.23758572466449165
rod@@ 0.38318301367184043
than 0.01941536241876831
tific@@ 0.1511475666983703
vari@@ 0.030430807513059543
wall 0.15370030993599948
ın@@ 0.2259517650725055
ū 0.35356901277326835
1802 0.5141580936909809
1811 0.5117611193224454
1833 0.41026675372206306
Airlines 0.39474125935545445
Antar@@ 0.34831310008182137
Captain 0.21168972393575738
Chron@@ 0.31456080059273905
Comput@@ 0.3168196927165724
Deutsche 0.2055743577030935
Dop@@ 1
Eduardo 0.49688246987687573
Eug@@ 0.36717800588926325
Four 0.2149929869053716
Fried@@ 0.13531818360995762
GM 0.4219686645412935
Hern@@ 0.4208439252891276
History 0.037676347478440765
Jorge 0.3152396318871363
Mosk@@ 0.35455045077033864
Olymp@@ 0.6008891733030371
Region 0.09977600955472596
Río 0.24246350127503424
Sn@@ 0.41417318382671137
Tap@@ 0.4859049852424822
Wander@@ 0.3711261169992392
Wy@@ 0.2848543600868753
action 0.03775682218324165
atas@@ 1
away 0.07046273761824773
bek 0.705112116324584
ceph@@ 0.9758226513719575
codice 0.3385127424377412
daf@@ 1
dium 0.22223509450406956
ective 0.06281364269735809
ehir 1
eles 0.18469110720529996
eur 0.030643705183402797
formation 0.05925462359203023
found@@ 0.1051459843716977
hen@@ 0.23100014115822204
isis 0.6241581380263759
itas 0.30475071804844267
lars 0.22027323426845682
loy@@ 0.17135595378523039
lut@@ 0.2239304296084683
micro@@ 0.16638731041415963
nationale 0.09830644882379452
number 0.02530822453801137
ogne 0.3572197854306999
ological 0.0647414346964016
ording 0.1291255304514973
ords 0.08738549091874183
pera 0.5502225090179426
perial 0.17543288670869675
spec@@ 0.05908459029185182
tempor@@ 0.09596844653491748
unds 0.06700794203780594
ures 0.04246625891658438
work 0.020909444474690512
xi@@ 0.20935104649902916
ð@@ 0.49154396525245003
☉ 1
1816 0.44614498256527685
App@@ 0.2522301694703716
Cand@@ 0.4845188049968933
Creek 0.13632637455076063
Federation 0.22508640474043867
Fire 0.27791435857945795
Four@@ 0.29733709268978475
German 0.04473227865626516
Imp@@ 0.2594422758235778
Loire 0.31521353748279596
Neu@@ 0.10398422551390642
Place 0.2997912676308976
Pod@@ 0.2768742456033495
Rat@@ 0.3078215503032431
Sain@@ 0.3008383469267452
Schne@@ 0.2806503600149575
Sos@@ 1
ader 0.14130741789886347
ares 0.06395347062878082
ather 0.10808034314652179
aï@@ 0.2558025770833961
cyc@@ 0.2852465783786038
ease 0.1294759991134273
echt 0.39396371459377566
esper@@ 0.22812962823289656
feder@@ 0.1440728329256063
form 0.024897496394559706
fried 0.32784550325151157
heim@@ 0.1877045595436496
hik@@ 0.7373099369466635
ils 0.03039595622804966
issen@@ 0.5745705672673683
kes@@ 0.25947204929127426
mal 0.06290163140392481
medi@@ 0.03334886221539157
oc 0.3670279719605138
oz 0.31091955493921924
pod@@ 0.4072831592750531
pour 0.006935384915217989
pp 0.31519705903207235
stat@@ 0.04715035784462436
stre@@ 0.059024108271912144
this 0.009224409026482621
ular 0.05129886296043556
urus 0.6670621045930085
wes@@ 0.13598252882623732
wns 0.1411513855481345
yu@@ 0.7994544221406829
ú 0.2053430815914269
ş 0.3873991995918704
ʻ@@ 0.8673870586781126
† 0.05814468630365145
1801 0.45133125186571077
1803 0.433609125726835
2.0 0.5311231570301079
AE@@ 0.39829285573238277
Alpes 0.3770217712687732
Anh@@ 0.22200016022131758
Australian 0.06637776739021813
Burg@@ 0.2784067313239301
Carlo 0.41341902440107603
Design 0.21379713250799207
Enrique 0.3890307423289864
Her 0.07662188595458608
II@@ 0.4216531824424631
Nec@@ 0.58199487227706
Poli@@ 0.1749731668716469
Publi@@ 0.5986602938137561
Pueb@@ 0.4352313853837623
Reser@@ 0.15166720210432622
Scar@@ 0.3201907548594748
Soci@@ 0.16374629843242983
Songs 0.26765877532014204
Stand@@ 0.13321486263916396
Uru@@ 1
ahn 0.2180613037177775
ainst 0.7515515541131349
alog 0.3970590425063661
ational 0.06323523137794038
atum 0.30033758032310137
aves 0.05614216181003584
bat 0.17744925211166002
bibli@@ 0.18293623399933645
ca@@ 0.16985519267669363
cli@@ 0.06162037707915911
ect@@ 0.06347790595053403
hand 0.10135816863101818
hard@@ 0.15095854970689318
isp@@ 0.3742715407836157
kre@@ 0.09438592864782834
lag@@ 0.0835009805901461
ld@@ 0.16276710830105626
nin 0.12706015312548716
nm 0.6074817220367459
né@@ 0.09735116229592722
oire 0.1959938805052136
ois 0.12300271643092242
olan 0.08580749937792462
oper 0.21991976141266256
plant 0.09620150337049681
quot 0.4454395116951441
ross 0.4966398884022339
sist@@ 0.14685169829961564
sl@@ 0.12228327004215098
sm@@ 0.0863189587401559
ths 0.14991969682820458
tory 0.11537410418297021
tos 0.05397910796651799
umen 0.2015652380540283
wealth 0.18425203307507418
α@@ 0.13684812690512296
ח@@ 1
כ@@ 1
س@@ 0.08882098591519731
179@@ 0.4452694874431719
1826 0.4242808537634407
25.@@ 0.5711206912941765
68@@ 0.6835612504258648
Alli@@ 0.24264331845815537
Amat@@ 0.2746970715988526
And 0.20438247326266037
Andy 0.3195260010299803
Arena 0.27942948766645426
At 0.029605100723314723
Batt@@ 0.19363114501425815
Castle 0.18338628606116048
Christ 0.22191641388771438
DE 0.37152706080053954
Ear@@ 0.29433242562674516
Ej@@ 0.6546297173768262
Ethiop@@ 1
Hz 0.32964123499397063
Kend@@ 0.9000557752709599
Light 0.2399779524296569
Lux@@ 1
NCAA 0.2075766254143391
Nob@@ 0.40965047949573585
Nord 0.0985208685867926
Rugby 0.22687771821274
Sl@@ 0.3009393299425867
Syr@@ 0.5435084298958343
TC 0.29602062102821475
Tari@@ 0.5884125432490784
VA 0.36441455094586217
akadem@@ 0.3837184220412133
alan 0.19981908955887426
atrice 0.30616894880044465
bil 0.6221616783161527
cast 0.05874426706461565
eline 0.3701446978919173
hab 0.48641458669527976
imm@@ 0.12279577104013026
inv@@ 0.03712859086374894
itage 0.14882477060110333
ites 0.054656466348852746
mang@@ 0.4123178656955543
model@@ 0.10383321430340216
muj@@ 1
má@@ 0.09014742283734042
owski 0.2428785627428702
por 0.005113373452956855
spor@@ 0.2095499366399175
tidae 0.5553997382091148
tim 0.33855414868194567
ving 0.05345597371917408
zeit@@ 0.11151485467274994
ça 0.22024453942175976
és 0.009921103578100925
ɡ@@ 1
د@@ 0.09124193299703111
َّ@@ 0.7571015358385301
ܝ@@ 1
1792 0.44978427873071325
1804 0.48392629817845584
1817 0.4438832142204486
Alg@@ 0.207931195941446
Anton 0.32156282035883893
April 0.018673113460580596
Bill@@ 0.49454022578348955
Boeing 0.4341419980473276
Bretagne 0.3305452532126142
Elek@@ 0.23734387762128523
Fam@@ 0.33994008333049325
Fantas@@ 0.3316120576544622
Field 0.17560743486137573
García 0.2650853698107861
Hart@@ 0.2509192254952087
Iron 0.3235819553077486
Josef 0.2935445477351625
María 0.12278631360076314
Muhammed 1
Norte 0.23897787371580534
Nou@@ 0.3885340291784978
ON@@ 0.30517376632004267
Over@@ 0.17149059286890342
Roman 0.07437599493475065
Rome 0.12083798039357747
Sport 0.20749449598476627
Station 0.10570354116076902
Wis@@ 0.5174212743779532
Zer@@ 0.41919827022099354
aines 0.09093772846076055
alition 0.21477022848527402
cam@@ 0.07713974831206795
cas 0.0802384909408624
chez 0.11404126182749813
cri@@ 0.04276618518099771
dle 0.10652970572728804
doksi 1
entes 0.028517010893968426
https 0.7009663134365614
igr@@ 0.2568520437335924
ism@@ 0.1845781999801254
lic@@ 0.07065368595108339
nati@@ 0.10680501062123779
ogen@@ 0.20990083792171993
osu 0.8973566819607219
pedi@@ 0.1567063244365393
pic@@ 0.06872116932819745
pierre 0.37602565373740904
ps@@ 0.2723296515752142
ques 0.019291944932920732
quit@@ 0.1068880850595823
red@@ 0.1211140883286704
rep@@ 0.12257763284636689
sek 1
servat@@ 0.18244533308822689
tres 0.02951458630303243
tric 0.09102423855783467
ug 0.29128105689666484
vat@@ 0.607626584526163
weight 0.11624574593425703
γ@@ 0.11006481344840043
1808 0.41701872256302275
1827 0.43227713023243036
Atlan@@ 0.3074931483489273
Bek@@ 0.20720521296990407
Budap@@ 0.3764056669871591
CF 0.359408637001433
Canal 0.23029268520156942
Dek@@ 0.36075050379439355
Hind@@ 0.447426876544927
Jur@@ 0.1711317238180845
Kirch@@ 0.1497621647045255
Natur@@ 0.08077964093250009
Rica 0.39516707753419
Riv@@ 0.3055944350324408
SN@@ 0.3077788251201741
Special 0.18087469477348112
Sti@@ 0.16562632813811204
Umw@@ 0.3397668476026545
Under 0.1365638829652444
VP 0.29965702988634657
Yaz@@ 0.9143991434720871
Zürich 0.3354106823664323
acter@@ 0.2609429707272836
aft@@ 0.23003161198401859
aining 0.07077664301825881
alem@@ 0.28230097726145564
anl@@ 0.11251301014024019
black 0.08210964121695127
board 0.07275578590583859
but 0.007115404688624915
cel 0.2312061871183846
core 0.14925130831069883
down 0.03481435263187539
eit@@ 0.17155311916223565
ener 0.07162087268691032
ern 0.02290893550784591
fot@@ 0.23167475355176398
gem@@ 0.05731197122723452
ici 0.2158267680836061
ingu@@ 0.13496126302805356
inn 0.2083929212148099
ip 0.5329504340163903
ische 0.013411411559193908
lang 0.08017558852693273
ner@@ 0.04800991022133956
orial 0.08061996764094563
osph@@ 0.1831790650208844
patri@@ 0.2221915573173126
rugby 0.16619013574901048
sam 0.24799478729367172
saw 0.07137523982978597
sept@@ 1
series 0.02150077589701615
show 0.036082307335523284
stad@@ 0.5891507565233631
sz@@ 0.30170659519340237
tra@@ 0.03981665207918317
tuy@@ 0.7757829718506165
urt 0.22968172555536534
à@@ 0.6272724769398622
ür@@ 0.045366975146167964
ń@@ 0.27428729672008756
ə 1
ός 0.12712868264948077
ե@@ 1
ո@@ 1
ّ@@ 0.27260602204121487
ἀ@@ 1
1793 0.37498542265202484
1797 0.505427153834974
22.@@ 0.4825888874425962
27.@@ 0.5489764655981575
Born 0.16814786029232226
CN 0.42407084808590223
Commission 0.09897053609199889
Culture 0.22250547810547794
Frauen 0.17049122611765638
Haus@@ 0.1173940598698262
Hein@@ 0.20979417791742477
Hof@@ 0.18393666802060252
Initi@@ 0.14992536079819999
Kurt 0.3419547969960484
Olympi@@ 0.25073060358666416
PM 0.4662647689554782
Sach@@ 0.2653564851424339
Services 0.20408418139676157
adio 0.2511659032400913
ahl@@ 0.09435948758100178
ansa 1
aray 1
audi@@ 0.08988992248077841
bir 0.020783005812959464
brand 0.18178340896836498
bri@@ 0.043344853660819055
dex 0.29414701659359394
eros 0.07514934001507971
left 0.031978914348615516
lich 0.01648385567790754
lit 0.07652680165716345
love 0.11028828746629278
nier 0.12373190490110889
ock@@ 0.12073174072982504
oll 0.25971432195388894
ols 0.08186283658696697
park 0.07547575724803293
phone 0.1704774024300053
play 0.02794248239506871
programm@@ 0.11888940439527788
ref@@ 0.04914466891183289
ror 0.21815140742995467
system 0.029490146750749267
techni@@ 1
tern 0.04841587435719096
tional 0.0570772505974977
trav@@ 0.046401944717751845
tura 0.08373085870888823
use@@ 0.23108595504146123
vic@@ 0.040748752493195504
yav@@ 1
year 0.013277632894486954
és@@ 0.1598211609360199
Π@@ 0.10400735076393677
ն 1
ֹ@@ 1
ز@@ 0.09693725748018586
1798 0.4423107296379021
1805 0.43558864381308376
1819 0.41940312327460955
Alab@@ 1
Bahn 0.2544666468981624
Beh@@ 0.12464901152125489
Civil 0.11412225643793163
Das 0.014292283966935816
Erz@@ 0.19655919371304967
Franç@@ 0.23404176399997437
French 0.03541175259575882
GA 0.30690658975246043
German@@ 0.30601987798737
Gusta@@ 0.6795097752468623
H.@@ 0.3705788764838702
Memorial 0.1852726160751527
Müller 0.3489734638528963
Nair@@ 1
Ordu 1
Professor 0.09292681153996038
Pseud@@ 0.39949566520914936
Sol 0.43323364406873655
Viet@@ 0.43809474976128704
aks 0.1387956886395488
ason 0.08856759878050521
aş 0.5531861634647267
bian 0.1989920973770747
cro@@ 0.040372028344738214
dil@@ 0.18463451568442396
eig@@ 0.10243913952459416
erini 1
fic@@ 0.04445422409883537
fication 0.051687463451870655
have 0.007595615009148976
hiz@@ 0.524809373966099
imini 1
ited 0.027041557511798466
lidae 0.5212525560718714
like 0.02741019661853387
lion 0.09064530333590168
lus 0.4058894180985554
occer 0.17096666939590632
ograf@@ 0.18445983570248725
ophie 0.1432193417706317
part 0.012896996270143828
phy@@ 0.2320845251135052
poly@@ 0.14243099064895726
pur 0.22513887127616078
seh@@ 0.48329659370226963
~ 0.38069516777545054
Ál@@ 0.34152132495058185
École 0.22581317346445148
ë 0.4608149751655298
ís 0.3152250234825569
ɾ@@ 1
β@@ 0.07578089632074629
الله 0.7567130514021717
ك@@ 0.056454750993741684
ṭ@@ 1
1790 0.38097575165239117
193@@ 0.16737789760119065
Buil@@ 0.13998492642325533
Det@@ 0.197284050954371
Doctor 0.20481038121074976
Elisabeth 0.3270994174783765
Lo 0.3849980380873001
Mann 0.15990649926192174
March 0.021531924519927192
Pho@@ 0.8576660330692234
angel@@ 0.4439105050098367
asse 0.09638452461486652
atin 0.19958556335262703
elik@@ 1
endorf 0.22964831833825455
entin 0.23796247926448036
eral 0.09202279177734678
flo@@ 0.04488075391305487
gers 0.1900707170386555
ires 0.05175197056027553
ishing 0.05597148103795753
isten 0.04505562894518843
iten@@ 0.22728323906379647
ión 0.04754332808266837
kiş@@ 0.44968055475
kê 1
lun@@ 0.2740657372490236
nel 0.12524298738198567
nen 0.04307241005613184
opus 0.49975526119189745
orr@@ 0.18984825001754227
oux 0.24808574935220604
priv@@ 0.06556757057196416
quer@@ 0.2503349307050741
rates 0.1810091333314597
rid 0.25357267479213685
rif@@ 0.15410995196741975
standing 0.08311412697857323
tern@@ 0.08896277524903719
trol 0.25095505358888026
än@@ 0.03168021095813758
éc@@ 0.06295672737982097
ées 0.013117466380344129
ô 0.16702753168587978
ă@@ 0.19334916452900439
ία 0.06629879217469317
ск 0.09489317188556652
ֶ@@ 1
ب@@ 0.03836812627449182
ي 0.06485074400167082
ُ 0.9867678514175976
1. 0.0447589246192931
195@@ 0.12296292183013699
Board 0.09621589531546178
Córdoba 0.3666187000747744
Esta 0.11930550661830967
Fe 0.37980941912118416
Gru@@ 0.1856538710263925
Heil@@ 0.14480424170320855
Industri@@ 0.12210452369729194
Jim@@ 0.5965720860908457
Kent@@ 1
München 0.13843866084609868
Né@@ 0.32850516509773175
Other 0.06637039330480098
Priv@@ 0.20345253629031926
Production 0.17918910186424586
Prof@@ 0.1566213745338449
September 0.015409613439209232
Sour@@ 0.23756915996087952
Val 0.3042671031951586
Von 0.04239266872324579
aber 0.024522703459200015
ahl 0.1844238784098567
airs 0.08841766892050616
alist 0.04690244176891912
alu@@ 0.14999802363874107
anced 0.08992882445627415
anime 0.3064101945918298
aras@@ 0.7319495780090834
cir@@ 0.08899836311254984
come 0.06856050108165844
dra@@ 0.043044256381582074
dur 0.46475580426792173
ede@@ 0.38646575708497777
eler 0.09539872910051607
eps 0.19069307214918932
fast 0.07808188274336593
first 0.005231080736184814
get 0.04078371100977896
ground 0.043304260074702616
igner 0.1916884169938528
ives 0.0784810305750421
jun@@ 0.19427204573603432
lery 0.13577688173641472
olds 0.1021919040807462
orie 0.07742030192764736
plex 0.2522932119188676
plus 0.00982999880751564
program 0.05303902227529923
qui 0.006182159946713254
song 0.026337750032895294
stead 0.2362186698786256
ular@@ 0.14131792373532953
usalem 0.21987086335123718
volution 0.17326792232819463
ween 0.1531267765867087
wid@@ 0.046690044329664074
word 0.08839673998894818
xe 0.08337693578613346
ás 0.08810855128082795
év@@ 0.06362596056516925
ñ@@ 0.07001022840171513
üz@@ 0.5705657193076086
ũ@@ 1
γ 1
ת 1
ال@@ 0.07089151586234786
ل@@ 0.04190474480283654
وَ@@ 1
藤 1
郎 0.48567519248847013
Alfre@@ 0.61476115638309
Associ@@ 0.2090271051215876
By 0.045396345987309794
Card@@ 0.1711520225894235
Epis@@ 0.17616420412646444
Fré@@ 0.3104739317732562
Gott@@ 0.2809864948588085
Gramm@@ 0.49467209145563873
Kno@@ 0.2130747735839462
Name 0.08101009724560262
Nel@@ 0.9033819797700609
Open 0.08009722531434685
Railway 0.09872277547320811
Syst@@ 0.11115949247161654
Zanz@@ 1
acle 0.18459064770975864
akter@@ 0.36131525753508215
anh 0.1372984073733451
anz 0.21716529841999793
atür@@ 1
bé 0.2317224313631909
cine 0.09079891314792612
dat@@ 0.10470033487532011
dings 0.1266845358088197
elev@@ 0.10491942278338406
ember 0.16429587724847058
equ@@ 0.050016946556566
fif@@ 0.07591540473216597
got 0.10305477746774219
iff 0.1584472777964616
illon 0.18600461542722954
isch 0.02494335399249843
isch@@ 0.03938392914691103
iting 0.13080036900040873
law 0.03807205469356179
milli@@ 0.2235863323035887
otra 0.13792446758708055
ourg 0.2785842276988383
pen 0.13435452778959722
pool 0.22015299207953162
press 0.11609903836137075
propag@@ 0.21474868234905006
quin@@ 0.1821070512717555
rier 0.15183619427001477
sai 0.5493698129434389
sche 0.06594291561769713
ses@@ 0.11387605835779888
sing 0.053576674871317065
sor@@ 0.04732824666539159
teur 0.038352302224331274
tn@@ 0.11874857475329627
toral 0.0841674485362132
uer@@ 0.05492396973283258
ustr@@ 0.12129886234482032
vil 0.12104454823176011
wais@@ 1
yen 0.14538081794254806
zer@@ 0.1274364072467186
Ö@@ 0.10806904273723089
ège 0.11684635977458968
ır 0.1738899244823625
ʁ@@ 1
י 1
פ@@ 1
ا 0.10461649525499048
ق@@ 0.08958179539995349
् 0.0032010287481583073
1823 0.36507499440867835
2. 0.07827558018974876
ATP 0.2775332303820343
Cad@@ 0.1988070615780963
Ecuador 0.2951750286724793
Elis@@ 1
Europe 0.035864284469817626
Evangel@@ 0.19658705229624557
FL 0.1555643412445585
Form@@ 0.08995032999842523
Germany 0.05434457838395504
Gó@@ 0.3429746262751053
Kö@@ 0.1863422847762111
Las@@ 0.2596568102781789
Liter@@ 0.13656025813268619
Luf@@ 0.20290235778460108
MP 0.16124309709290327
Major 0.10629459556177315
Nacional 0.06813502771736332
No. 0.08369742776249092
Pablo 0.24402138926140096
Ped@@ 0.3850364406276345
Post@@ 0.1524703188705318
Rest@@ 0.3916970395481545
Ret@@ 0.16146570160869783
Schi@@ 0.18192641761636824
See 0.1268350207838683
Stud@@ 0.1230555342037541
anas 0.09450532910817468
auto@@ 0.09498887997941
ayr@@ 0.27166691127974485
contin@@ 0.07352851297949431
cos 0.06733480155897525
cot@@ 0.12082368796267093
cs 0.09106020387869462
door 0.10248119307098225
ece 0.044666367600019685
eich@@ 0.9179071141748807
evi@@ 0.2535289849298234
fish 0.11856883507148928
force 0.05475597301711276
geb@@ 0.03325843341251306
hood 0.07954304724058221
imbab@@ 1
inson 0.6370224942694198
iran 1
ising 0.09202685485176272
itali@@ 0.13959836369019268
kam 0.044656431540850486
khe@@ 0.20780367623027468
lama 0.2786862044859783
lay@@ 0.099559151747118
mari@@ 0.08075223909704929
mez 0.33023786645726033
news 0.11797706211957729
oides 0.27549528269316853
oty@@ 0.15504519269856917
point 0.030974582465524095
real 0.06314152967633513
revision 1
sant@@ 1
sep@@ 0.48503761067452317
sola 0.4211972863183706
spo@@ 0.06532056852301031
tere 0.17179506005127668
tle 0.15461120945368625
wers 0.08196927815125225
wide 0.05112636085079959
yat 0.9724247510396218
zur 0.013662212454574248
Á@@ 0.1150637803452277
élé@@ 0.18751131604158022
č 0.5216651647986863
ħ@@ 1
İ@@ 0.13088840934220053
ır@@ 0.1923764107244392
š 0.2951135014921127
3. 0.09290558798386445
5. 0.11760712758977532
Andreas 0.2745604329014784
Anto@@ 1
Archit@@ 0.14445268782636908
Bez@@ 0.14109405297251823
Chev@@ 0.21555450379428642
Court 0.05378907607004341
Crim@@ 0.20952060527565833
Del 0.21552767284208518
EE 0.3464583047138857
Educ@@ 0.24409414374629862
Era 0.33841394265884656
Fritz 0.29082696874992897
Fron@@ 0.2861047947915968
Government 0.0748811255299283
Institut 0.12051800059014589
Koh@@ 0.17419930160352762
Leh@@ 0.15336545559920614
Linux 0.34820476298674297
NH@@ 0.13561153951598856
Pf@@ 0.07358821706266178
Philippe 0.1730917706058684
Rafael 0.27789468737220646
Rit@@ 0.20182920652737016
SK 0.3850301421842558
Supre@@ 0.11465561840831846
Team 0.05724328118958298
adem@@ 0.35132757005128246
anch@@ 0.1912139679833701
anco 0.2685338427541476
arch 0.09240383692433446
arti@@ 0.06684887606570755
aş@@ 0.17511541678419304
code 0.107919213150042
company 0.024254116364413377
cos@@ 0.11033293375239445
erek 0.22819808525322588
feld 0.07816195776961576
gens 0.2489632513557045
gri@@ 0.11516196563302232
haup@@ 0.20090031227466648
iler 0.08107289361433245
inci 0.4754534071279983
inde@@ 0.09151208272677072
its@@ 0.1743442991091081
kho@@ 0.3470694239407376
ladi@@ 0.4918399695339853
liber@@ 0.05605115807606649
mut 0.29184984516963314
nay 0.20095005200180394
nd 0.37890749673476437
ologies 0.170892561429519
onder@@ 0.13876620614197488
padre 0.1381734058508023
power 0.03838437182153294
prise 0.08136394991206916
rev@@ 0.06627335289060543
test@@ 0.07116870881883565
til 0.11504362216652488
tric@@ 0.10876568620309203
té 0.03860654725326482
will 0.019698860713442547
ór@@ 0.08310139556468163
üb@@ 0.10875111282348303
ıy@@ 0.6846062858131994
ʾ@@ 1
ֵ@@ 1
ת@@ 1
ع@@ 0.07150886894336346
Bas 0.2685906168023643
Dame 0.17557942719783276
Den 0.1623220948225006
Department 0.05659324418442744
Diy@@ 1
Edu@@ 0.3756449582186414
Elle 0.020836557741143534
En 0.0044135519486863594
Modern 0.1877168968014545
NFL 0.1498973590914183
Quer@@ 0.3027281267524055
Revolution 0.1383151489703171
SR 0.13524752080070235
Scottish 0.11317728164107398
Sieg@@ 0.11605761246329094
Sta@@ 0.1773109944449395
Thor@@ 0.2051271604435338
Three 0.11344437241801729
Trich@@ 0.49811059376199807
afric@@ 0.23091462893558234
ament@@ 0.09286760722455183
amor@@ 0.3032192531732782
anca 0.5781661354253026
arc@@ 0.11386834398447471
bad 0.16606438785500952
bom 0.9587704101658855
boy@@ 0.10325152910523558
camp@@ 0.07681690816738466
cic@@ 0.20642561552130406
def@@ 0.02286293890255455
dition 0.05435608422285291
drama 0.10855855163240181
dul@@ 0.241838150021275
ec 0.18393126467413254
ects 0.02270950929902312
einer 0.008595216829517598
eleg@@ 0.07217205059781699
embr@@ 0.14926307522068086
endr@@ 0.19824434162104626
eren 0.026367266326073176
father 0.030259864696728693
fem@@ 0.09323961838342446
friend 0.0838368475550346
ged 0.06014620644077901
get@@ 0.05707234629970503
gether 0.3362873535327729
gran@@ 0.15646866662305867
graph@@ 0.09454761225986817
haus 0.09161207492237301
hen 0.21847413250944955
icum 0.5185729802541258
incia 0.4397176932484727
ked 0.029748542748284524
mine 0.08709244649736153
old@@ 0.11359513350366143
olu 1
ool 0.5597523781229077
orch@@ 0.12088814120600101
oven 0.31598935962292307
over@@ 0.02507333352123225
rat@@ 0.2155725273444707
rig@@ 0.1275768831119348
sal 0.11932895938838614
thor@@ 0.17970409745675664
tries 0.16116681459448165
uter 0.08423725898240338
vai 0.29816896821697775
w.@@ 1
yel@@ 0.14980680129651075
zun@@ 0.8932838982185419
ál@@ 0.1715998674501765
án@@ 0.054601624323291444
ò 0.3261704845263171
ĩ@@ 1
ış 0.19773565758732706
ɔ@@ 1
θ@@ 0.077733878730662
κ@@ 0.06888973421781
π@@ 0.07414809087353307
ի@@ 1
ל 1
ר 1
ان 0.06548226175740127
د 0.10242348666942001
ف@@ 0.06075668858311199
ܐ 1
194@@ 0.22386277220095385
Administration 0.14746469233630308
Audi@@ 0.2221614992679062
Catholic 0.07213200510100272
Ges@@ 0.04233456331650306
Liz@@ 0.30587215956682934
Most 0.07504724575487956
Olympic 0.11871432176183387
Philipp@@ 0.21846269826375378
Revol@@ 0.1445315884453715
Salv@@ 0.4559832114636774
Second 0.07211863186396869
Termin@@ 0.24303818324070983
Universit@@ 0.15186041468598516
Volks@@ 0.0762849417126904
abaj@@ 0.2501727958416788
ables 0.035195974556829455
ajo 0.21931296411251783
alog@@ 0.10434880144998707
app 0.1478770014134769
aret 0.3324246455895984
bis 0.006918018135510017
cell 0.12829295662745488
cons@@ 0.027051403232076363
cou@@ 0.03806577316788835
coun@@ 0.03466150813529984
crip@@ 0.0685473005534549
cus@@ 0.04455575802353167
dro@@ 0.047218670290401284
elop@@ 0.6138619435330218
encia 0.017809616038592654
eux 0.03615407614687652
für 0.004393703582879285
grade 0.09859575092300513
group 0.0200465209376707
harmon@@ 0.14477451909239286
idas 0.06727629493595334
iner 0.12196586428335009
infr@@ 0.12010721187618145
irs 0.061611072887512865
isra@@ 0.2814495044640607
istic 0.0782390050949232
kat 0.8565028779574316
level 0.039666071892655495
loi 0.09171651545325211
master 0.09455285664028949
math@@ 0.10173030993759431
mov@@ 0.03507838656627627
net@@ 0.08415211829153316
nom 0.029003897712420894
oid 0.09108229647801955
ort@@ 0.060192997787508265
pas 0.01619396168731106
pass@@ 0.025329101599859436
poem 0.18525916054082253
port@@ 0.028520621179576662
rel 0.2524907141850265
tain@@ 0.06616790686531618
tepe 1
tero 0.1759251875608208
test 0.07509912480040033
toman 0.17907592267072597
trac@@ 0.05240943740185834
urity 0.0676600029107178
ution 0.05766528075997561
vir 0.17866731886895107
works 0.0316350300348985
zant@@ 0.18479639591078983
zar 0.24514294464912292
äl@@ 0.03428617251199557
ē 1
ε@@ 0.09330581845783323
η 0.02018600239673889
ον 0.26743336221072467
ρος 0.2867331031318776
ة 0.07018750120054876
ش@@ 0.06399312248762948
و@@ 0.04348738520679529
ي@@ 0.03556384490244751
ِ 0.42953280682349076
木 0.3682946679727164
本 0.10757527303738937
田@@ 0.2244482004757972
野 0.500579257301425
1794 0.33205153957297545
Aer@@ 0.14344984733633634
Bras@@ 0.21713107012759678
Bu 0.08690271398210765
CS 0.2224400051864469
Chic@@ 0.4381637301974013
Committee 0.06446719047217231
Division 0.03102835313021905
Esc@@ 0.22751396019403555
HMS 0.22821925973996637
Int@@ 0.1340017995371294
Karnataka 0.4408542530834847
Lai 0.7057156244886629
Oly@@ 1
Premi@@ 0.13151969363265764
Reich@@ 0.09573706742807263
Schw@@ 0.05678823237738018
Stein@@ 0.09308244392810824
Tod 0.08979842791749423
UE@@ 0.7819339589539557
Univers@@ 0.5399007129050444
Vinc@@ 0.436497739768808
acher 0.06731109182042529
aling 0.1072584603533566
anges@@ 0.24285835161537658
anted 0.05545852396572847
ases@@ 0.46670856989006326
ateur 0.03570784226939458
centr@@ 0.04881275123968844
ces@@ 0.04756777882078038
d. 0.19752151051665584
digital 0.11271856308545808
eas@@ 0.058546833852653336
ellen 0.0325711091270023
enst@@ 0.09719606778504142
entry 0.11811110080369902
erk@@ 0.05625878621902882
greg@@ 0.12068914320277635
hay 0.06507102147640689
ht 0.08901357063065202
iden@@ 0.17825293378452256
illas 0.16841313778684538
inos 0.0611592537949829
itor 0.1019632833436549
luk 0.4048147930644577
matr@@ 0.2275809437048928
onidae 0.901555688542783
people 0.014762280463088251
plut@@ 0.9799617740321781
prof@@ 0.04150406528431578
qua 0.08635419810122574
return 0.054154354966518055
ros 0.2301672961400018
rus@@ 0.1629344984099705
same 0.016938197671360896
sau 0.0534564033413341
set@@ 0.10147738695047943
space 0.06271467010495112
tiz@@ 0.06504966541006992
track 0.040511676541119875
tronic 0.15583087223445014
vers@@ 0.0232597808414686
vie@@ 0.040007893678387564
which 0.003101106286777115
wn@@ 0.3081784953845612
xa 0.23541286833115885
zar@@ 0.1976006153931803
éri@@ 0.02877141175914881
Đ@@ 0.05965425318582347
ė@@ 1
Ł@@ 0.2753251976289962
Σ@@ 0.05293656560327954
ρ@@ 0.10534121659261135
σ@@ 0.06399273534749922
ׁ@@ 1
ج@@ 0.06054497548600186
ه 0.05692889703544512
ى 0.09731721055640986
ῖ@@ 1
山 0.05663345826014345
.000 0.141859943566724
190@@ 0.4234777021850783
Centr@@ 0.23596110956224958
Earl 0.14473469777698755
GP@@ 0.3000461319191003
Giov@@ 1
Jes@@ 0.17162279752589937
Jesús 0.2822146798320263
Marsh@@ 0.3707589774980359
Motor@@ 0.16789133254300231
Navy 0.06393607835801653
Office 0.09038771403577618
Orch@@ 0.26679237337459333
Rodríguez 0.25146813816794006
Serv@@ 0.2971029721192773
Stra@@ 0.14369213711914777
Stur@@ 0.21203126628762858
Wir@@ 0.07664391954868456
alya 1
aries 0.05537659740027005
atz 0.18711995834239334
back@@ 0.08576676851783764
bahn 0.06126211237935118
bey@@ 0.6501247788999084
bire@@ 1
burg@@ 0.25266684225072994
church 0.03649131951282488
cle@@ 0.04352085469839416
det@@ 0.02486215812794085
ening 0.08665276885120474
enter 0.08382618460956398
fed@@ 1
femin@@ 0.1940841017215578
four 0.015333059765322619
ict 0.08603691103399998
ident 0.035597400664018015
iller@@ 0.13969417687727193
illing 0.08083067484285546
imler 0.6028384955961321
join@@ 0.11071876860729878
kır@@ 0.5002859121299257
lac@@ 0.20056417956962797
lige 0.27836825473115717
lon@@ 0.22279600892565765
mens@@ 0.18190468365039192
ograph@@ 0.049744204471324105
oise 0.20336926017767512
online 0.11245193893989303
orta 0.772189483311466
rich 0.10328724443538494
river 0.06026769287626205
second@@ 0.05844867296918903
self 0.04706421912880602
squ@@ 0.06016394200372288
sten 0.019376753006638932
tac@@ 0.14950621405506576
tec@@ 0.13263481288722737
tee 0.2946960380693057
tista 0.2170039946180347
tros 0.2137187067168708
udo 0.33089407993385106
uel 0.16497501021816297
vas@@ 0.10190059414962953
verg@@ 0.10876067616331801
version 0.025276466738956917
vet@@ 0.14329166406331986
voc@@ 0.03230210451120676
Å@@ 0.5048809997702537
ás@@ 0.0908009870618232
ño 0.09896388491760306
ôme 0.15469115446634493
ük 0.7335889150120132
üm@@ 0.07774995653236835
Κ@@ 0.06190037649207711
р@@ 0.014221073324396266
ر@@ 0.068742389389747
ْ 1
ܘ@@ 1
‏ 1
夫 0.08350327192068192
AL 0.21288434284643987
After 0.012523931594750404
Apr@@ 0.9030531296102292
Bey@@ 0.5443896449870289
Championships 0.062397285260244226
Christoph@@ 0.4258409218970392
Düssel@@ 0.21401831939331165
ESCO 1
Emp@@ 0.12916066925602931
Extr@@ 0.2287160183001894
Fen@@ 0.15033386313667804
GC 0.30467597091056875
Guill@@ 0.802989581355778
Hungary 0.18964621445053348
List 0.05476428025382129
Mercedes 0.26532969588898697
Organisation 0.1404397924275188
Program@@ 0.13425605806457533
Stand 0.0966610041276648
Wild@@ 0.14124965365290226
Winter@@ 0.14123656251351593
aat 0.45939213597988127
anci@@ 0.04040756797915412
ation@@ 0.15403509033638976
cit@@ 0.05202439028367419
edra 0.20256959919333142
ences 0.020146605034747633
enk@@ 0.1938789195576346
eve 0.13714286752831079
fact 0.07937197094805916
forman@@ 0.2392713529640741
franch@@ 0.1108263691179017
heit 0.04441762700838747
high@@ 0.042896698670433976
how 0.045847993456402635
ité 0.01318564873900842
kus 0.18787595821518416
lave 0.16364301033988377
led 0.012309053578077253
lik 0.13247620346512878
ls@@ 0.1959678710644236
made 0.009681413219064055
male 0.08168898371185579
midt 0.22859103820854448
nea 0.19275435421014667
non@@ 0.13178228945687376
nos 0.07717746670853892
oms 0.08770083031349085
opol@@ 0.5545639621283998
peti@@ 0.055716360516150226
phil@@ 0.1497450758181667
print 0.09731042809595593
records 0.08907280920111417
ren 0.22472644926099336
sang 0.1032763904532025
scre@@ 0.06275611080989191
style 0.029793474211184254
thing 0.061585312181146996
tile 0.12504105700377832
tori@@ 0.21347011453684803
tures 0.033259745714105685
vern@@ 0.11138356176212874
wagen 0.14414414114710367
xico 1
å 0.7567886980611424
édi@@ 0.0848541731279523
ò@@ 0.5901206037408144
Č@@ 0.22273688911552728
ʼ@@ 0.7298881350339264
א 1
ק@@ 1
الح@@ 0.07701393092646337
ص@@ 0.07763665411349181
Ḥ@@ 1
″ 0.8896843280667917
川 0.17724650599451397
高@@ 0.03680135752020214
Academ@@ 0.25239991057999517
Alej@@ 0.24082794493802906
Alexandre 0.2155802027256607
Andro@@ 1
Dark 0.21086442755805831
Doug@@ 0.5920403136213341
Grec@@ 0.26863383053226136
Martínez 0.2746314286704317
Model 0.2039704301913439
Municipal 0.18245167654796884
Occ@@ 0.2111415046943515
Peti@@ 0.17030416826102435
Plus 0.15471128677078608
Schwe@@ 0.1366582349725356
Sciences 0.1150619235226902
Temple 0.13413063742803655
Vari@@ 0.08748285271602213
Wein@@ 0.1420539031875493
Wid@@ 0.14843856886348192
Winter 0.10724797571047655
Wur@@ 0.2054572118823435
amt 0.13647088668940688
asing 0.08897150218521388
bass@@ 0.08743899621319945
been 0.005396393007050645
bol 0.09547822102235838
card 0.12551611507958155
champ@@ 0.28485933039564715
chart 0.09946598154769196
cip@@ 0.05484730714707923
cover 0.06136402953542931
cut@@ 0.08789317585586082
dete 0.061242118757375084
egel 0.16623929853461528
electr@@ 0.0883417715516979
elin 0.25982986465767466
eş@@ 0.1724310097272792
fore 0.047320118190429715
gos 0.15961203849870764
gres@@ 0.08062485459033296
irat@@ 0.24442200441022105
ird 0.13352682093432464
kim 0.3534114536863995
list 0.04078381355077286
lı 0.09129235945249634
mos 0.15228677927684076
night 0.055146107244385324
obr@@ 0.3383129570658781
oci@@ 0.2113492436535665
olar@@ 0.13821224226355414
onal 0.03961085578509936
onio 0.5777429808678378
onym@@ 0.10238020915592429
oras 0.15683726498058476
pit@@ 0.09512706070282936
post 0.04346546873314966
pou@@ 0.31259822876464827
rim 0.44573395300032254
sell 0.15741433959081577
site 0.019057001471938687
state 0.014656300840517424
stor@@ 0.03839590127794271
tered 0.0933400916165309
they 0.0065190288623789335
thin 0.12248019428150986
title 0.02854745997069826
vak@@ 0.9354589764021897
witz 0.21938569077515097
yar 0.3857298472774552
zem@@ 0.5669408965193434
zin 0.21803788245201366
Áng@@ 0.17583785043611505
Ø@@ 0.6625016254979633
éré@@ 0.08912148471575582
ün 0.12334635419755065
üş@@ 0.5872528797183818
ɑ@@ 1
κα@@ 0.10195769999906955
ο@@ 0.06420537871323234
τ@@ 0.06361018400136456
к 0.004908340114900639
ская 0.017010443286162667
յ@@ 1
اء 0.1405511117630586
一 0.06706024984543267
189@@ 0.4316965838571431
1st 0.04821370306488954
Aster@@ 0.27184666955155
Code 0.16896333489509635
Colomb@@ 0.5237254652198169
Film@@ 0.07611090688411459
Fort@@ 0.20546637294460127
Italian 0.0520392735489388
Lincol@@ 0.7710967046704881
NAS@@ 0.3021896178058961
Ninh 0.5547012829508747
October 0.014766977545204969
Proj@@ 0.08169160520771927
Sainte 0.13659050397852823
Secre@@ 0.06369057840862485
Sist@@ 0.362880867238932
Sonn@@ 0.14238527683604663
Sph@@ 0.3380791584814792
Thanh 0.3034843260740016
aller@@ 0.11888946842067728
asons 0.12427870966815024
atory 0.08917853132043779
ausen 0.1267928878969607
bourne 0.40350999385574043
bul 0.8273985878344251
cav@@ 0.06954932663545856
cipe 1
classi@@ 0.043740122721453854
debe 0.16400704672301442
emann 0.223467573946998
enso 0.12816183164388595
erer 0.1310106193816894
erine 0.377267347498419
etes 0.09838699796647205
free 0.04253999146857971
game 0.01509995864709342
hausen 0.13262962023398675
icio 0.0735973225883188
idar@@ 0.24541033012139676
ieve 0.07633370281277281
initi@@ 0.04609843041585819
international 0.026279786454982263
istem@@ 0.616867596218439
iterran@@ 0.14210482319107273
km@@ 0.14211830119567992
lé@@ 0.055694065477804276
mans 0.13170330047453666
ois@@ 0.11391554894113923
oking 0.0896439219568789
onds 0.12266344017396204
onic 0.12474988442622299
order 0.02495633791611955
oss 0.12786570405851183
ously 0.050290040722116035
patr@@ 0.03648881599669169
phot@@ 0.036809230826503905
press@@ 0.07572861695461934
rol 0.18742490237256926
sau@@ 0.0983288910092419
seau 0.1480606013300437
soci@@ 0.022339402247290776
spe@@ 0.031083807321794978
television 0.03434855778390098
thus 0.06106619649387869
tif 0.09225711936169265
yeni 0.2617747564724694
µ@@ 0.666305625222708
½ 0.4231442370671417
æ 1
ι 0.07902636161426843
τος 0.17793834966965252
χ@@ 0.05730226024847141
ω@@ 0.06543511544986536
ւ@@ 1
ג@@ 1
إ@@ 0.06673739714468815
الن@@ 0.09105395125289631
ذ@@ 0.11647251011023271
عبد 0.28575643928802175
و 0.04345936824472219
→ 0.27384155190746856
井 0.6735631035057354
口 0.08670556192585248
村 0.09298730197095673
松@@ 0.33095662362611483
Another 0.08025823846022517
Bir 0.2916682755802592
Bình 0.22609872198798286
Canadian 0.04270261538696209
Chor@@ 0.15353172398958878
Constitu@@ 0.06482128699006977
Contin@@ 0.13439962572215722
Cuando 0.12251674010261301
Deutsch@@ 0.1237326330513754
Dru@@ 0.09288465596834712
Eis@@ 0.12753131138976667
Flu@@ 0.13589209074603514
Fot@@ 0.17934545287753492
HD 0.1714557248161584
Inf@@ 0.18386192739970833
July 0.014150496161104262
June 0.013950827556080089
Lew@@ 0.42776758367861767
Must@@ 0.4900507788931498
Neur@@ 0.2229441594048763
Nguyễn 0.20464912342317843
Nueva 0.082225005148225
Ort@@ 0.11514736358453002
Plaza 0.19268445837245116
Pyr@@ 0.21769875303994426
Quang 0.576162375743283
Se 0.023832365792932155
Su 0.032140281067813505
These 0.027956167202715425
Tiy@@ 1
Vak@@ 0.7746076132174519
Wien 0.08884561245418308
Yes@@ 0.5924081088439765
\ 0.16875906101607346
abb@@ 0.16400297329854377
acid 0.160588729065458
anese 0.23618491032945418
award 0.06668290980395375
ayak@@ 0.7717718752208158
berger 0.09206463401911563
box@@ 0.09725945674644801
cab@@ 0.03909678034135767
cant@@ 0.08221953898083643
cep@@ 0.05587032252947722
cer 0.08497083495116597
coron@@ 0.17742611811820821
dicho 0.2192397964589273
dif@@ 0.2722128820365942
disco 0.1272915497592198
ead 0.0914501527462276
edral 0.08522886529008443
elos 0.23528926067647432
ense@@ 0.09270595575822888
enth@@ 0.05899984523725737
ership 0.06870598381055326
esch@@ 0.059006976239127644
football 0.01848950572325914
fro@@ 0.13593291473027133
fru@@ 0.07394564177435067
ible 0.06791545036281889
icht 0.030584093468447076
idental 0.26786583985327284
igne 0.1509016783516998
ince 0.21118848353984826
ition 0.04360955209248056
iyi 0.29087256720849747
last 0.02161568050735031
liga 0.06349460037154483
lines 0.051524478867513296
mani@@ 0.11792056149091354
met 0.027364874291324903
mua 0.5524837647505277
muz@@ 1
namo 0.43139829635750093
ners 0.05668010661688064
ogen 0.04796226570396139
page 0.08135671174777978
pec@@ 0.14252237367523485
phe 0.124609432674355
phi@@ 0.25051451403089553
plo@@ 0.1725143887421932
produc@@ 0.01258198828232517
rab@@ 0.15309082484657763
refu@@ 0.10432293771366055
rique 0.42279569581252924
roc@@ 0.08568035107682276
sey@@ 0.40377513464845627
spap@@ 0.6822038808765893
stars 0.08433235146286323
sters 0.13911524293288619
stock 0.08633386386466235
sul 0.21366947695431004
table 0.06058756670190944
taine 0.13217994867625182
tat@@ 0.3537122220930422
them 0.011454030296471072
tly 0.032867830189600926
ues 0.028308182516228613
using 0.01910765582932127
utt@@ 0.3281829209177231
vek@@ 0.8903749441619299
vel 0.6388378903773406
vor@@ 0.010804988748533301
women 0.023207540179509566
wr@@ 0.05980282298055223
ónom@@ 0.23085066929504833
Ž@@ 0.25904981270066285
ʉ@@ 1
ί@@ 0.06397124283734296
Ա@@ 1
տ@@ 1
اد 0.20571340869740384
ار@@ 0.08729831555335003
الج@@ 0.10088120771600544
Ἰ@@ 1
三 0.18650326058144975
小@@ 0.03737135834155818
雄 0.3073585105213468
9. 0.09115304900867903
Asp@@ 0.21302832905925242
Assemb@@ 0.21370251021243916
Ban 0.1816877799627854
Benjam@@ 1
Bundes@@ 0.03737049063891926
Chrys@@ 0.3825705418019031
Depor@@ 0.21112460432365499
Des 0.06299012744994557
February 0.015923085079130955
Giang 0.45931197309765376
Greek 0.06212528409536525
Italy 0.05870213608053129
Kapit@@ 0.14544108435301845
Library 0.09279882328640142
Lü@@ 0.20164134043899676
Marine 0.088413948769076
Milit@@ 0.0673249562406842
Nintendo 0.19493490526296658
Parti@@ 0.08016821120596282
Philos@@ 0.09674463131051293
Pérez 0.2071857958000361
Soh@@ 0.3126365408924498
Un 0.027741196769655873
abei 1
about 0.008571543769347004
abra 0.2365291459057611
academ@@ 0.05953196526136077
aking 0.05769422810794289
alc@@ 0.2526558248714099
allen 0.06934044033414673
anian 0.09091043060975773
ators 0.04297006894938967
ayed 0.06307917966682083
azz 1
bed@@ 0.05248298800726029
cen@@ 0.19149310834597408
chia 0.1785729745147178
class@@ 0.042992395746025806
club 0.01216703869089596
cola 0.2065157394421213
dance 0.09153510015908338
ders@@ 0.48081461518838003
divis@@ 0.17248079114248316
dès 0.08074855205341344
eci 0.27818700823515596
education 0.032278450129265876
egen 0.036217258674485275
elling 0.041535204997466706
enty 0.0794279134694221
etz 0.08094436635572042
ext@@ 0.026065336482104115
eñ@@ 0.1998781935892268
fang@@ 0.06235365193606959
fera 0.22906498206043766
fle@@ 0.03259146746306621
flor@@ 0.12327070838856609
gro@@ 0.017068492534320075
haus@@ 0.09039240784577547
hé@@ 0.10746106678859353
iles 0.0523719462373227
ilk 0.06841875090153525
irk 0.1509688945591529
ismo 0.036972006494193466
iste 0.02190276840218039
köy 0.40496920311879764
lie@@ 0.08533923939439314
lieu 0.03832043912116958
ligence 0.09419599854480482
lot 0.03046823601769924
lower 0.04066267302776039
main@@ 0.0368837223878009
manus@@ 0.11679971714877478
mey@@ 0.756990796311746
mt 0.10081547972868812
new@@ 0.06208523461183234
nig 0.2842026626631524
nucle@@ 0.07812552792791347
olar 0.13050077170646696
oration 0.09488110276515373
parti@@ 0.02642484192367446
pay@@ 0.05215157502812625
ped@@ 0.09724266011768964
perior 0.24956824253713694
person 0.046633661576826586
phys@@ 0.03935998472373171
pios 0.2779194152760399
ply 0.036707877830489066
prol@@ 0.14278054797409243
rug@@ 0.31081157801442705
rés 0.09810931768563659
sous 0.014800737775110092
sts 0.08334953757261797
taş 0.5631833488761447
techn@@ 0.02505624167561868
tem 0.13748652161831412
titu@@ 0.04777426213037452
ulan 0.5164012927343336
ump 0.20319194484164854
uses 0.024384225364990214
vania 0.39498565037494554
ww@@ 1
yal 0.6415120197914342
years 0.0069651525085601155
yet 0.0816323436054529
yla 0.6178747622959638
ysis 0.07020107116289752
Öz@@ 0.23506221534243932
équ@@ 0.10976948821745593
õ@@ 0.33638577137652115
Đồng 0.39420818913237166
ė 0.6275998760675904
ğr@@ 0.8994722731310641
ż@@ 0.33873264885124105
ɨ@@ 1
φ@@ 0.04883229722241329
р 0.008900417551769816
ז@@ 1
ס@@ 1
ب 0.0620421789062871
رَ@@ 1
غ@@ 0.06007417032715832
ق 0.08465468908079192
يد 0.2053415479584997
አ@@ 1
ọ 0.4186782211599969
ῆ@@ 1
三@@ 0.03109804937736015
原 0.10646912247471862
和@@ 0.10947017143115402
福@@ 0.0834723083832455
21@@ 0.5284424326782559
7. 0.08478004632302147
Akadem@@ 0.4243333105342628
Arsen@@ 0.9895494045458527
Basket@@ 0.10938807171853596
Bezir@@ 0.1376431700760253
Canton 0.30679431679440994
Der 0.005414024377344683
Fest@@ 0.09341106332465522
Films 0.14082408743718305
Fé@@ 0.16620545006771162
Galax@@ 0.2165585875862798
González 0.17397073272867833
Ha 0.1574177125836948
Hous@@ 0.3861393872086534
Irish 0.05803297453304429
Jug@@ 0.1776619185241772
Lt@@ 0.2898877910811704
Notre 0.14669748019102746
Nür@@ 0.1829751685231085
Regional 0.1080760379500432
Rep@@ 0.20950182695587252
Sociedad 0.24629985400357238
Spi@@ 0.0998150786897234
Spor@@ 0.19436199409699287
Tech@@ 0.14670521393276725
Theater 0.08604666568527522
Their 0.06560937380799797
Theo 0.16423705123745522
acht 0.027512712096808337
acio 0.12020292506264885
aday 0.6270342159719909
aill@@ 0.08660501321587716
alli 0.22513776735932384
amber 0.10937660644011041
ampli@@ 0.09820817880339841
ativa 0.08590897543594476
aub@@ 0.12792812454336766
ave@@ 0.08107854584475542
aving 0.3342676096677112
ağ@@ 0.12834605855056977
ble@@ 0.05084169578082603
c. 0.5517552989954785
capit@@ 0.05491168669392685
deu@@ 0.32859692794816525
dies 0.03870129409328682
dil 0.45613077729551077
dot@@ 0.10111225763278735
drome 0.1540552966193537
eco 0.17379688875717886
egio 0.18896610496958027
eiro 0.5264264307123049
enas 0.09033086687821386
enz 0.04791765444446663
epis@@ 0.06503463533566586
erra 0.20680316463210388
estro 0.13662834665440998
fire 0.040916083482781605
gian 0.05544891737758013
gut 0.08103132754305793
ief 0.0635274558183063
inin 0.07253239458071457
ios 0.11096416606013314
isco 0.40973416203440916
ished 0.03228829944557886
itze 0.13409900492251361
jour@@ 0.11587665419461568
k. 0.6324016022612747
langu@@ 0.08702254231026953
later 0.007759060094020554
latter 0.068598773615434
lek@@ 0.21151353707169046
line@@ 0.08201002540805516
mai 0.11233939393853185
may 0.011568212453416299
mee 0.47678880330398277
meni 0.6073503002037821
mé@@ 0.019367840997610637
neum@@ 0.2508702141522376
noch 0.01380606389341094
novi@@ 0.8075385520846475
onale 0.09701273097649252
operation 0.04835268918624474
others 0.025994191556120788
pain@@ 0.02799565914081806
pot 0.12357923678587047
prov@@ 0.027540076505608368
public 0.014519042963121375
que@@ 0.05806445781627858
rate 0.048698774712713715
rog@@ 0.12454994258296663
rom 0.29364005386648445
sional 0.0635446218070148
siti@@ 0.4094026212613632
tam 0.36792197401780863
teen 0.05534837353654608
teh@@ 0.6085900165081893
termin@@ 0.025229897961564586
territ@@ 0.0503924061379403
tet 0.029180743685830485
tique 0.040188483347098444
tir 0.05126441785740173
uch 0.08545958849853959
urs@@ 0.08050233408340247
utz 0.1307604186962242
white 0.037655907638688625
zey 0.9287793904935291
â 0.5888438406948395
çon 0.17872498798880523
íncipe 0.24841425175043774
ης 0.06394764860417762
в 0.0006415981913195869
الم@@ 0.03454485231279919
عَ@@ 1
مَ@@ 1
ية 0.03717259788786812
ܪ@@ 1
中@@ 0.01980218425270042
佐@@ 0.43572815321125746
岡@@ 0.7149076044916366
正@@ 0.06227984939032707
長@@ 1
6. 0.07526142344587863
Autom@@ 0.10851201468524352
Bach 0.1577112473228947
Berg 0.1398116332063187
Bret@@ 0.2293483403059264
Böl@@ 0.3068450601481636
Chu 0.3194577708778873
Direc@@ 0.06202021767768154
División 0.08820182167349581
Dresden 0.13909879934084535
Ehr@@ 0.07538266950658633
España 0.04365999818946914
Gesellschaft 0.08233944685778131
Gle@@ 0.14837711344951657
Gün@@ 0.18505479781341197
HC 0.1827091022289533
His 0.012829303691650923
Hist@@ 0.25761410321626926
Itali@@ 0.13150758473917334
January 0.011735701612934496
Milli@@ 0.09471768919767111
Nha 0.2803839634087992
Nouvelle 0.11360677275924522
Princip@@ 0.14809841079363875
Rac@@ 0.21114960078833286
René 0.15842106597488698
Restaur@@ 0.14972677756220884
Sign@@ 0.1330824660613403
Soviet 0.047612658663549495
Tax@@ 0.11159206344967997
Tierra 0.20108485700171225
Vladi@@ 0.7249815864132351
Yap@@ 0.7638945156263273
alar 0.1851699681314499
aller 0.03030154300222764
ampi@@ 1
arri@@ 0.03516703534990528
athol@@ 0.2569885511330368
atur 0.08383658342455208
cara 0.2174324980154745
comm@@ 0.020248380787016487
cord 0.08408648291016176
cross 0.07126363436977139
dav@@ 0.13418319153561786
district 0.01780416134438258
endro@@ 0.18597799842050095
erst@@ 0.03467818969241758
essen 0.06034161591120145
estig@@ 0.09976953899638907
estre 0.11701077783769108
ever@@ 0.06533506169729601
fic 0.039360791370755176
formed 0.02479195933388613
française 0.04540306434275214
fres@@ 0.07328011416045557
ged@@ 0.10430592790148414
late 0.02030341610034915
ledge 0.07348946054579392
list@@ 0.036012072827842766
lose 0.10493757601981936
mec@@ 0.14910949350928349
med 0.11888985257452182
mek 0.18628338101232442
mula 0.14071866649480438
nez 0.20294557967174523
orig@@ 0.059164129073444635
polit@@ 0.24112103374782906
publi@@ 0.05602817734678139
round 0.02210541479323744
rum@@ 0.10597140207704227
said 0.016949852027893415
software 0.08472303283317273
such@@ 0.1439467127293449
tig 0.04824988139095797
unit 0.051697815536070196
uss 0.05258689514376132
ution@@ 0.086866159244183
vez 0.029645018115305163
virus 0.13778134107535409
with@@ 0.06723720514765455
ä 0.23614883320465846
èle 0.10313392818837451
éra 0.1728098813829358
ì 0.2189085095588849
ío 0.08595702706455755
ück 0.061072154134228264
ɐ@@ 1
ʃ@@ 1
λογία 1
της 0.007583156079395675
ω 0.25394670326710694
в@@ 0.005104965310768605
евич 0.04564990370424037
ла@@ 0.011119186401554008
ский 0.006787652585259243
ш@@ 0.006555108748060486
і@@ 0.2863616047010782
կ@@ 1
أَ@@ 1
الك@@ 0.07463131521666251
ط@@ 0.052463027484236126
ܕ@@ 1
ἰ@@ 1
安@@ 0.03774040754870228
川@@ 0.24548273558968
187@@ 0.3569294117324349
4. 0.06154664832026928
AV@@ 0.18730730815849334
Ab 0.047528483401106034
Arth@@ 0.6223365426554166
Bibli@@ 0.07635528347025002
Dollar 0.1414511772370822
Early 0.028063582758969193
Fall@@ 0.15322453690594126
Guillaume 0.1644030115673927
Gü@@ 0.08869111127260457
Inh@@ 0.11493620182490533
Janu@@ 1
Kauf@@ 0.14342921903867928
Ley 0.20377693691298296
Mal 0.07108193659418553
Panz@@ 0.14243674836364173
Pays 0.11554107269054881
Person@@ 0.06850979245658037
Phone 0.32800304696884675
Police 0.0784852477762779
Sachsen 0.13803718325532818
Soc@@ 0.19116752369063805
Software 0.16919925520140427
Spiel@@ 0.033047533081522563
Sur 0.05116058776834695
Tenn@@ 0.1158305317936048
Test@@ 0.10894030072482384
USD 0.19578499926451257
Université 0.09654754601973937
Version 0.12075670335584177
aband@@ 0.08419218105891375
acer@@ 0.11362769872714754
algo 0.13012109407627961
ark 0.10841745221960652
arte 0.08823763440476089
bec@@ 0.12419857963519369
big 0.07850185322701578
brig@@ 0.08561421993992821
comun@@ 0.0906743190589286
cont@@ 0.011997857633639778
cula 0.23276374438139294
dır 0.3053300252889725
eger 0.13011881247092677
elten 0.05027227601346233
endra 0.13239147809823443
ered 0.02067948722952688
evento 0.23109293974505046
fs 0.040151830917194785
gence 0.10653106512709506
ging 0.027361201614308953
head@@ 0.02302857938286214
heb@@ 0.10018348399348181
ibar 1
inet 0.07477043068932247
internet 0.1557850073921882
ises 0.026265878065662343
itar 0.11425489129352549
ival@@ 0.17212703967858572
ive 0.049250308179401805
kent 0.47622274568414485
lec@@ 0.04873905818628144
ligh@@ 0.027155095864469306
liter@@ 0.024111672473435743
local 0.013133264431208012
national 0.013616375698523153
nec@@ 0.041853206552718424
nek@@ 0.6340075128901865
network 0.04931888209260781
ologie 0.020187630828013357
onc@@ 0.06979562771816657
pero 0.01663076975658791
plic@@ 0.0436674714799452
ppi 1
proc@@ 0.03160626838207903
program@@ 0.08581222568701541
pru@@ 1
rich@@ 0.0223264448224012
rou@@ 0.032036838403339735
sever@@ 0.07247914415388255
sign@@ 0.029604157471304137
singles 0.06841725689519179
some 0.00830638423447095
station 0.01182126649296002
tag 0.060396533932001166
tema 0.13656506776269473
utz@@ 0.07795469135990238
val 0.10776875504114537
value 0.06651883034123969
versit@@ 0.11604699175277873
week 0.04193326345882778
woman 0.046489316572683605
xima 0.1995305567105802
­ 0.19064692566599498
ät@@ 0.04963307918175924
éal 0.14558322496685838
érieure 0.08568885965084916
éro@@ 0.051509135951960994
ê 0.12617625393620724
ös@@ 0.08330516658946764
ł 0.5183529571544557
Ō@@ 0.2380846346350703
Α@@ 0.04782930725085119
Μ@@ 0.047628846172410685
вич 0.038977652774376
н 0.006220436229185257
ь 0.011514888233134875
ն@@ 1
الس@@ 0.07105811374505121
الش@@ 0.10470624413905616
بِ@@ 1
ت 0.04780989369238622
نا 0.1750174748731884
ܬ@@ 1
185@@ 0.37744864097926045
186@@ 0.3728366047433875
192@@ 0.7389606061085813
Académie 0.13515716251645013
Bask@@ 0.281520905884155
Battle 0.044685312733580014
Beş@@ 0.6150328980426326
Campeonato 0.08336312588698183
Ent@@ 0.030260149871834778
Feb@@ 1
Final 0.06317832673007773
Ital@@ 0.7362625279086928
Japanese 0.031090336205577888
Kateg@@ 0.1357293707314117
Mark@@ 0.11509069235632967
Mec@@ 0.18930976696533888
Moder@@ 0.11887437740752413
Nieder@@ 0.03316771414709018
Philippines 0.0862507779766703
Renn@@ 0.13668941815092028
Rural 0.11425149037565568
Sez@@ 0.5440425905148965
Spanish 0.036257975312949615
Stat@@ 0.11775165874612592
They 0.011002444415956816
USS 0.13991964413847746
Universität 0.02718607831235219
Wilhel@@ 0.1933236432559673
aces 0.035884215493775476
aching 0.029350543397379813
aint 0.12435995542185191
alli@@ 0.030738261536701027
amen 0.046136644513623176
amount 0.061804347981674765
andes 0.19556261950326753
anni 0.44224427094331187
argent 0.11466010640729202
arias 0.07465574196196077
artist 0.04436529840928534
atik 0.22390115141558142
atives 0.028905370725482958
añ@@ 0.04357609043635465
cars 0.06704487162119624
cerc@@ 0.19849762115410974
chn@@ 0.17726280372031236
ected 0.01099869590222867
edition 0.05182699335644649
embran@@ 0.12439108543500998
emer@@ 0.061410724463494784
enen 0.011572563019917773
esen 0.04974593849966742
family 0.008588889449371185
fantas@@ 0.12399423648046123
fie 0.1391305446915033
fin 0.017673435464796352
ihe 0.14532235889517445
inco 0.46730106641203956
ivo 0.09961760148646107
key@@ 0.10465111693744858
khi@@ 0.7473754768447375
mark@@ 0.0671422537876682
mechan@@ 0.05102157360827586
metro 0.13415762009023438
nic@@ 0.16032596937740945
nie 0.06122076987433001
omel@@ 1
only 0.005974421189491427
open 0.03073439136500854
orer 0.15107699681229209
original 0.01476445472465089
orium 0.1136718510213594
oğlu 0.22624945937133692
play@@ 0.0515354044913958
polog@@ 0.1197542690009939
porting 0.04927154187235643
process@@ 0.07834617670778163
qué 0.056750848383474974
rd 0.0493482575195812
road 0.01886984699817115
science 0.04523312197636727
short 0.024857905145485252
sol 0.08755884973424083
sten@@ 0.1062899755732667
stri@@ 0.06886154953289424
studi@@ 0.07989600489473717
tent@@ 0.05257487937766051
through 0.007916265370767662
tom 0.057672000847298864
too 0.04267998727755242
trad@@ 0.07032260132225372
transl@@ 0.06174346240256701
type 0.024297158415483106
ules 0.03096647887015848
unter@@ 0.009248685705979639
upon 0.037395891236644926
vas 0.10510329311481441
vet 0.1854171619836953
vida 0.04350088713383485
ç 0.10176476494901099
çal@@ 0.2722554935314538
ét@@ 0.01688761195374073
íos 0.13883484421535314
ð 1
ù 0.22988284790699
ý 0.0684708317664005
ım 0.09133984056047999
ım@@ 0.08875012280207735
ń 0.22827617227356736
Τ@@ 0.046464506005698666
ξ@@ 0.08606032591366979
στ@@ 0.045077492345831666
το@@ 0.09173972751105038
ль@@ 0.004329652835384591
н@@ 0.006693302147905394
на 0.0009731758492130899
ի 1
צ@@ 1
ا@@ 0.09071455559957542
دي 0.13846732599311815
دی 0.24530401883638292
ر 0.059841338989297284
مل@@ 0.17875215833217895
من 0.010327216114280512
ون 0.06149894032344651
ስ 1
ὁ 1
⁄ 1
↑ 1
也 0.016394760860606282
司 0.1999840352485588
島 0.09056988564708107
森@@ 0.19207202071228277
樹 0.5951956732009444
治 0.07423631201704385
直@@ 0.08548190239244625
ﬁ@@ 1
188@@ 0.26344578722746337
20th 0.05514444676593479
8. 0.06529681887958418
@ 0.35529251280650537
Akad@@ 0.9578327655694482
Assembly 0.047658408054661615
Atl@@ 0.3047067419599376
But 0.052373813834786204
Casa 0.13110187911352864
Emper@@ 0.06932976336588462
Eurovision 0.16210378893773114
Galatasaray 0.5223351554818831
Hay 0.15451783155954713
Ide@@ 0.09691700102684135
Kinder 0.06451055182727988
Martín 0.13945615527744093
Motor 0.09946078745464458
Muhar@@ 0.8416810315374023
Norman@@ 0.19954971934587076
Ord@@ 0.07461502054417607
Popular 0.13797008877215777
Population 0.14551287619015718
Portugal 0.05788074074419836
Quảng 0.3189012483569221
Roll@@ 0.21432361756652
Roman@@ 0.09327091929722031
Société 0.11388790931613195
Spain 0.049791791158346164
Tam 0.40184103213759254
Tradi@@ 0.08439345868539089
Wahl 0.11347392706928847
Wahl@@ 0.05953193653429256
after 0.003747379588123906
alled 0.053400016594461835
andan 0.37147219987958974
andere 0.04979389126418449
aí@@ 0.19804637094477184
baseball 0.07240231617217921
bem@@ 0.13573911253766116
bles 0.026156525961744143
cent 0.03981718923798576
cole 0.624731641679443
contr@@ 0.009758798488037426
cum@@ 0.05880729180896707
cut 0.05212470402301759
division 0.023918430613253706
down@@ 0.05420148600163852
echa 0.17029868647176064
efe 0.16075929532427896
eil@@ 0.05842104223165704
eing 0.06479314980312323
elas 0.11280562743192449
eling 0.06714213807404068
ements 0.009463671899228391
enek@@ 0.8830010631393608
ersch@@ 0.044734673008207416
esses 0.026242364781131188
essor 0.05689156693824072
estos 0.05143108145216646
evol@@ 0.05071484441681049
eyi 0.37640348498856785
furt 0.22999250204715535
gas 0.04654303012214517
gener@@ 0.016289129375067362
giy@@ 0.5405326383180262
guer@@ 0.10587143945989824
gü@@ 0.11957585550666722
history 0.016098488660395573
hyp@@ 0.08461616463866985
iker 0.04785069801464516
inden 0.05422728771871679
intern@@ 0.0656118783565099
inti@@ 0.6322134577474602
ions 0.06654520438427147
isons 0.055071951670401
ized 0.02936402014143651
kâ@@ 0.7408041435020295
label 0.04745499492276983
lí@@ 0.04729530166396767
many 0.007905742420644912
maya 0.11108228451325053
mission 0.019103197918776606
muz 1
ned 0.025819894415607256
ograp@@ 0.058041130384372155
oles 0.05781631800292315
omer@@ 0.15280153239975736
opsis 0.07168412803925027
orph@@ 0.0787673646082076
paral@@ 0.18605809183189218
rem 0.6224856981876415
room 0.03504477412907003
roy@@ 0.05974007100740905
seu@@ 0.19473797552095762
sevi@@ 0.5822145992194835
singer 0.04476181109744443
six 0.014176699954030572
siz@@ 0.10671797248365146
suit 0.042578161356563726
syst@@ 0.05931007433269962
tas 0.04619107228560049
tav@@ 0.1723120365632665
tax@@ 0.057264358251640717
team 0.006428054622658934
their 0.0026815484392077324
theory 0.053179591213612695
tik 0.04707789693413588
tur 0.0471217991784556
tz@@ 0.10656559580173129
ulizo 1
used 0.004863200477392618
usion 0.08128272193626081
ved 0.010530986582819606
vent 0.04936441492983076
wart 0.199552785709092
when 0.005128026610000324
where 0.005137882745159786
who 0.002866174731931953
ác@@ 0.07018709267765576
ém 0.4129844692507737
érie 0.10101665138609306
öy 0.7053170017157603
ù@@ 0.46137409441825344
ún 0.07410620144825397
ül@@ 0.04599459041307971
ă 0.29430033620973073
ıl@@ 0.06148145152559418
ő@@ 0.4027882706985075
Ś@@ 0.25414491047772086
δ@@ 0.040182362479549046
ει@@ 0.09112103563498095
λ@@ 0.04708421244911562
τι@@ 0.06243231750810352
ων 0.03557100105343904
О@@ 0.006464471920356587
С@@ 0.005788917785778639
а@@ 0.007025840520196032
ј@@ 1
أ@@ 0.024889835641121107
الب@@ 0.07979634537639456
الع@@ 0.057906550057702684
الق@@ 0.052366633206407484
الل@@ 0.20149100301920186
بع@@ 0.14610551664087146
بَ@@ 1
خ@@ 0.05365528787759709
م 0.042314147954691
ܡ@@ 1
ṯ@@ 1
ἐ@@ 1
Ἐ@@ 1
一@@ 0.008431472081914807
中 0.00926775730219976
人 0.00634937000863476
林 0.05466671424430058
男 0.2720839874204483
道 0.020466976573034798
Alter@@ 0.07619408212129607
Anc@@ 0.5571126827795186
Braun@@ 0.13339421917015323
Cao 0.15828602206217504
Dies@@ 0.16965929454052958
Distribu@@ 0.08740598149318421
Dutch 0.050336043891246934
Ferdin@@ 0.8866694131443148
Fig@@ 0.06198859831472968
Guin@@ 0.3120217356783885
Hockey 0.06912888257583027
Hoh@@ 0.07339129811123495
Ins@@ 0.06930887156227653
Irel@@ 1
López 0.1187523168916508
Mez@@ 0.25414567566099056
Montr@@ 0.12877727486931526
Monum@@ 0.08925101042678321
NS 0.133129136099567
Operation 0.07802208934529896
Para 0.0505669644767169
Phys@@ 0.08857055570968858
Premio 0.11562333060476428
Primera 0.07662109161056722
Québec 0.08069693250952059
Reich 0.09308505939065716
Speci@@ 0.12235507096304278
Valle 0.1667547642055851
Yug@@ 0.2759176281064132
ability 0.02027610075036812
achen 0.04207884880960129
against 0.006965807276390123
aged 0.014072196045547797
ahn@@ 0.12983380368615474
ails 0.04919931953521915
appe@@ 0.019777023744430234
aque 0.0691027370075338
atos 0.05570560635446008
aum 0.05012221832842593
auth@@ 0.03118797044004769
best@@ 0.0219510181538824
bic@@ 0.08892652831252022
blan@@ 0.03582343038415602
books 0.03358736583458723
bran@@ 0.026477274564950245
cartes 0.14430501195206885
cath@@ 0.09143347627677659
cent@@ 0.02341732372737185
chant 0.0630358967833741
cina 0.1794556821650497
coll@@ 0.018273643147954648
crit@@ 0.05467237940526145
critique 0.10370224126487917
dek 0.37527476484494693
dial 0.0850336293994308
diam@@ 0.05862106121728428
dice 0.0704606378294078
dimen@@ 0.052443284793129805
document@@ 0.03508823637569597
dru@@ 0.030914918483936307
echo 0.15513577793339353
eden@@ 0.06106198517726934
endi@@ 0.03202111607644119
enos 0.19975655604490333
ential 0.02676559611737882
eurs 0.01771642738901828
fait 0.008891151335226295
fest 0.09835489885128283
film@@ 0.034875533655217665
flora 0.201475372899196
gal 0.46571289610175265
hem 0.1172672055971709
home 0.011613109025455936
itter 0.11474644608205044
iç@@ 0.15502608496191655
laya 0.5779947284073566
leben 0.06326375331180252
led@@ 0.10846109029288253
metal 0.048220542794383585
mic@@ 0.10688350589662103
mile 0.062251645606361504
mill@@ 0.07834142614106013
mittee 0.06577558633707709
named 0.010266545105509608
native 0.040952342850612077
nda 0.1460952752454892
odes 0.03576191752748471
ombi@@ 0.10411051075546665
once 0.020353033145189908
organ@@ 0.024798422311030893
party 0.02069698319993732
porte 0.022796402127066132
ports 0.022159281011649906
pose 0.022705703620617114
positive 0.050004163392532074
post@@ 0.044056014945445345
run 0.02105658127083434
rég@@ 0.03515728897896657
sali@@ 0.1000215991801883
sanc@@ 0.08328697046491473
sequ@@ 0.032195092307223
sine 0.3597465399392208
stein@@ 0.07747071419975382
tei 0.10753737921935774
texte 0.074279174456322
tiers 0.09993456332987487
tiva 0.07328336251671344
tiy@@ 0.440034448210578
traduc@@ 0.10151278742960418
uer 0.08261706382451703
ulation 0.04243885655730629
urban 0.06881015269257319
usse 0.13604747527824676
uzak@@ 0.7917210963667967
vide@@ 0.06627409436973862
vision 0.06689580119250797
writer 0.028965823425835393
zed 0.02908304758160934
± 0.3268030032998911
Öster@@ 0.12618458853504125
ày 0.4299156482855959
édition 0.05991158374742358
ý@@ 0.264445263569357
İn@@ 0.27623998393610244
ţ@@ 0.782270776436113
Δ@@ 0.06948539565849778
π 0.20592400858557489
ρ 0.09958217253485073
ών 0.030256819226844346
У@@ 0.00750885562254087
и 0.0006259153708201089
ма@@ 0.006828830512841779
ро@@ 0.005038250118245598
Մ@@ 1
ս@@ 1
ּ 1
ث@@ 0.05183819251301545
ج 0.08894817451326016
را@@ 0.05642185257043046
ل 0.05685412952801607
لا@@ 0.06036898132046398
محافظة 0.6429594251539686
مو@@ 0.07363419545545556
مي@@ 0.06399668847226077
া@@ 1
ር@@ 1
ụ@@ 0.23222416120250894
ῦ 1
ῶ@@ 1
宮@@ 0.37296498882725104
島@@ 0.19353690626675463
西 0.03622722867594981
西@@ 0.01723868860203324
谷 0.2093415971175578
1980s 0.04769910739984309
Afgh@@ 0.27088268767484625
Amerik@@ 1
Ayr@@ 0.542689844568026
Bey 0.28214314615063324
Castilla 0.16148427973211638
Cem@@ 0.08173282278256527
Dist@@ 0.07775131424973479
Europ@@ 0.02602277385342852
Exper@@ 0.09621997339247244
Fenerbahçe 0.49899634204217425
Geh@@ 0.0740169390896412
Grou@@ 0.12286401759368171
Gymnasium 0.10559223838824071
Haupt@@ 0.020442774947951946
Hyp@@ 0.19010642509111186
Im 0.005087040676236835
Instituto 0.08996509575060238
Jewish 0.042599950255018414
Kaiser 0.08134279973936935
Minn@@ 0.4505428398743132
Musik@@ 0.034815513100444395
Part@@ 0.09927855335296809
Segunda 0.07725700068667038
Sich@@ 0.2174342469074831
Stadi@@ 0.12787032052768274
Tag 0.06186906745408796
Tier@@ 0.11746263206034827
Wald@@ 0.08754865742189664
ably 0.022504233329090604
aches 0.03497061380002696
achsen 0.12315356038607254
achus@@ 1
acu@@ 0.04755076659704122
adal@@ 1
alen 0.02844489040211075
alista 0.07124640860462372
alogue 0.07847708600550471
anthus 0.30854616370813787
aring 0.040081348017322854
arla 0.21889230319229885
atta@@ 0.08726313835223806
auf 0.001925026144698532
based 0.008821494243566841
baz@@ 0.24150816667248384
being 0.006037671417455309
brit@@ 0.6417845596133983
buch 0.07831255339520872
canal 0.05858603024239869
cla@@ 0.03470479365316375
class 0.02027166675821354
common 0.02245588233311031
control 0.018187317862206478
corpor@@ 0.05360412706682646
culture 0.026574460510987507
development 0.016873066577435977
dial@@ 0.08089411706262876
dist@@ 0.028585215245812885
docum@@ 0.03278050270768419
dyn@@ 0.0646379729159371
ecia 0.14825075452412373
econom@@ 0.03164513061036532
edit@@ 0.04164401254783077
egu@@ 0.20859621831893074
eil 0.04512570044040711
eler@@ 0.07335550738710958
emiti@@ 0.12845319256747773
endem@@ 0.07344941142037363
erh@@ 0.030995175487950628
essed 0.050253097737413294
europ@@ 0.0386809863602664
eval 0.06793642445915543
ference 0.040235211157504516
fier 0.06760673814531132
hasta 0.012191130170236878
hof 0.053363334956612614
iben 0.09001383957573007
idential 0.03711063199108761
igher 0.1990542096197207
imal 0.05532691513377926
imz@@ 0.6711553453080966
include 0.011951883067853485
iques 0.048835014683853505
isation 0.034157715564711456
isse 0.02521848491671658
itation 0.03149568753606868
jos 0.06073050135544136
lande 0.05298258556777943
lead@@ 0.02235162932115418
libr@@ 0.04053602503271977
logo 0.06632530955832101
minor 0.053315027310732746
most 0.005251354059219161
mundo 0.04252362404898623
neu 0.052200166957895984
oft 0.0533007307261908
olay@@ 0.3629789148221086
onie 0.08639081851151593
onnen 0.06833640132076091
partement 0.38584045900845026
perten@@ 0.1459530767971518
phố 0.06264801522951638
porter 0.04052982596102091
pression 0.03214603586808671
prises 0.04255223463679304
production 0.012995057470168384
raz@@ 0.09186283353223776
region 0.018247603953309786
related 0.029002752516147375
released 0.007402353488557611
reste 0.03993739604732731
rive 0.06822289683579587
scher 0.030002348741630318
segu@@ 0.06097936003777156
sil 0.08382429081741068
siy@@ 0.3896902185245337
small 0.012793498611515047
source 0.032868004883747415
stell@@ 0.03560964276164646
strat@@ 0.10669342268551857
tard 0.030638054008793544
tex@@ 0.029262750639312225
tigen 0.025242389832243948
timi 0.41978848249867184
two 0.0027575135116895957
volume 0.06270942689382591
while 0.006294816485645961
yard 0.051811168320307126
yum 0.4586177496574011
zone 0.03300845561335265
´ 0.2728949325047141
Â@@ 0.12465408755078371
ß 0.015805557664553483
ève 0.04496782839572094
ías 0.023950647661408198
ónica 0.08519468372381296
ôn 0.09525494114067555
öh@@ 0.02310572022645659
öz@@ 0.11362682879008984
ücken 0.06597973623742498
ě@@ 0.12200884998613187
ınar 0.7153210848875253
ış@@ 0.07703724411332814
ŋ@@ 1
ũ 0.29065230701973477
ʊ@@ 1
ʒ@@ 1
Ε@@ 0.04474009285530168
ά@@ 0.03731803458508293
ή 0.01738038539371274
ε 0.055402092436775664
εια 0.22495273840860883
εύ@@ 0.11008585841518678
ζ 0.2547689776369225
να@@ 0.09912736908509838
ρι@@ 0.05059918086575865
σι@@ 0.07901241785044351
υ@@ 0.05643463717588703
Б@@ 0.009938714169454481
Рес@@ 0.1658043823090354
а 0.004275459355478276
ка 0.004285889742319679
л@@ 0.004990337018970256
т 0.0033882743326967735
ы@@ 0.010955106658361545
Հ@@ 1
الف@@ 0.0597483167038904
ح 0.06791777096933195
رة 0.0738347897738399
سع@@ 0.3667340340647991
عب 0.3910867613637405
علي 0.3297618545973865
ك 0.058176641781265026
لَ@@ 1
ون@@ 0.06124070973775738
يل 0.11555786557939042
ين 0.03214037387082414
ّ 0.2446935898424881
ა@@ 0.7307235214294481
ም 1
ን@@ 1
ḇ@@ 1
ὶ 1
ー 0.7170259856953608
二 0.12479104242174469
太 0.28039476552810677
本@@ 0.02456147125057874
清@@ 0.05818698164619147
良@@ 0.2580708384015298
野@@ 0.1668582131904479
1,2 0.18420563953471408
Americ@@ 0.052788107035505266
Asian 0.043718748811461
Ave@@ 0.3732220924359663
CEO 0.0865805582104954
Coupe 0.05378652419088097
Deutschland 0.022097113174231704
Felipe 0.12616562535681286
GB 0.08125049796630768
Geg@@ 0.04060504039248701
Graf@@ 0.056187705662025716
Göl@@ 0.4833500135057738
Hà 0.11008457173643711
Institu@@ 0.0894864964534075
Instrum@@ 0.08978651189795044
Libr@@ 0.17673633424743013
Malay@@ 0.1503568828668015
Mün@@ 0.03968063741335253
NCA@@ 0.3311325626373364
November 0.005931123173746325
Olympics 0.03235822403547675
Provin@@ 0.06574644018883909
Rhein@@ 0.06561790612870104
Russian 0.023900250362729598
Stad@@ 0.07365406643259645
Universidad 0.027632342482551274
Vier@@ 0.04515250879553801
Wür@@ 0.1044094589475358
aborat@@ 0.09248600756951628
abras 0.1585406669635464
ación 0.0025281710320243203
acre 0.07745488127761706
active 0.020624252194324393
adas 0.007499152068653024
afé 0.11029519500499274
alian 0.3005631785409121
ambre 0.06979198753142554
americana 0.13372193836636198
arn 0.09759089834063626
around 0.009906598223162264
arp@@ 0.19091624633000062
arten 0.10077748484026236
arı 0.11640809538871326
assen 0.030686628507390474
atre 0.0515149709702522
aux@@ 0.09196584723708084
ağı 0.16039485632487438
aşa 0.566956647502744
bloc@@ 0.04374611473438495
bre 0.023212447557065603
canc@@ 0.02827720613655088
care 0.034428544192041256
case 0.017847742663271316
categ@@ 0.03768250799593348
championship 0.03935813886744308
chief 0.03783438992731214
child 0.032636638898115675
chr@@ 0.048043010905330856
ción 0.007178408311353088
clar@@ 0.06759804155916688
condi@@ 0.08065512683076867
contempor@@ 0.033342653372677875
countries 0.026085014942854874
cá@@ 0.04462154208331241
date 0.020476452745019382
dej@@ 0.06491283549066648
det 0.041116528322769824
dido 0.07767008285839144
double 0.03279819603055893
ectiv@@ 0.021819501158187902
elt@@ 0.05891177127659863
ended 0.00964204331857937
erei 0.083682728634284
fall 0.02101032813220181
featured 0.02505868041579843
full 0.01833295683198408
function 0.04663144062074696
g. 0.05588060343989092
gang 0.02880380865370815
gau@@ 0.10654858595199536
good 0.025271497600300386
grou@@ 0.2002889208759988
hin 0.0570468785158775
hydr@@ 0.07408456366974678
ific@@ 0.025936028187078866
illed 0.05211354170764622
iness 0.1316345277641056
istin 0.13961357869173668
ived 0.03940130205398003
jet@@ 0.10382935917765877
journ@@ 0.020539558803614688
kiye 1
kleri 0.7311729691943306
koy@@ 0.4156558084205183
langen 0.0776133660802556
ld 0.4256609563683986
league 0.01982189522322419
loss@@ 0.07819866943415094
mak 0.08336344372544391
management 0.03520810054004018
mann@@ 0.09094612663095633
mid 0.026968821538825367
movement 0.03070814684599723
nomin@@ 0.01741633871820162
nou@@ 0.16412814929074254
oil 0.04723413936259089
opter@@ 0.16405162282918603
osas 0.04402812852257555
outre 0.1060833276335657
person@@ 0.025166718343680727
pf@@ 0.021374803157995156
power@@ 0.03673329943913513
province 0.024951871197635974
public@@ 0.013641469114207749
rang@@ 0.04906457838299914
rant 0.034931235848679694
ray@@ 0.0978980176261862
recht 0.04748141550574412
refer@@ 0.018959058440852126
resp@@ 0.016398070170958238
rest 0.03093128282695333
rir 0.07921064150220769
role 0.01432853088433685
schen@@ 0.07944129043768643
schwe@@ 0.08901108577977253
sed 0.013763095770395922
semb@@ 0.08393122304110294
semble 0.057027110868899
sn@@ 0.06106892893972351
social 0.015289995826831408
sof@@ 0.16155800283589916
sports 0.03574187427790192
syl@@ 0.11641606427039013
sym@@ 0.046457341303211205
systems 0.030119577128548184
tary 0.027132183321341364
thành 0.014111208851462819
tillo 0.12963104463241798
tribut@@ 0.025555883678444743
trou@@ 0.05140751996446488
tés 0.04672368708263982
unci@@ 0.07137374201768956
uten 0.0431982742953357
vert 0.09795628801799934
wth 0.04519570870827763
xo@@ 0.37922837973340084
yeri 0.41131611178727306
young 0.023206059662461184
zel@@ 0.19781545113718002
Æ@@ 0.3732903631048103
Ú@@ 0.16742724816807317
ím@@ 0.12452427123635446
ön 0.2150554058320382
ź 0.2577166797612367
ž 0.626597812890376
ɛ 1
ʾ 1
Χ@@ 0.047771742857108196
ας 0.03932416131646915
ι@@ 0.02812893713450336
μ 0.10436033614027415
τη@@ 0.09814095476595572
χ 0.2991357017035146
όν@@ 0.07518231898072374
ва 0.007092776124986451
й 0.004030422667301391
м@@ 0.003978659429995018
мо@@ 0.004639068025796546
с@@ 0.0028640579937643687
т@@ 0.003977432651610473
ד 1
الأ@@ 0.029120296082978163
الر@@ 0.08645804235920997
اَ@@ 1
ة@@ 0.5582099012586511
ت@@ 0.01896198278605415
ري@@ 0.04943613206090603
فة 0.12170663054626099
من@@ 0.05517443592837845
ن 0.055158627916354744
وم 0.18269505434390124
ير 0.07108435070890466
ی@@ 0.09576003289543122
ܩ@@ 1
ር 1
ới 0.5151471088558027
Ἄ@@ 1
‌ 0.7471273914554356
久@@ 0.46822314542524246
州 0.01610899627427457
幸 0.7434257766926691
忠@@ 0.29833977910315146
藤@@ 0.39098435778468343
金@@ 0.02686677827044695
1.000 0.2839105707724959
184@@ 0.302442979076589
2,5 0.09436632011433702
2nd 0.03266757822101499
5.000 0.16433565715792336
Adem@@ 1
Argent@@ 0.04876163679902742
Ark@@ 0.4199722084610397
Bau 0.0456505909046477
Centro 0.07973118590578464
Cá@@ 0.08183509486875919
Desp@@ 0.39249888580709114
Distr@@ 0.05382809324403879
Grün@@ 0.045725527175154344
Hoa 0.0449778947514655
Hòa 0.18374356057046895
Infan@@ 0.04309373365054116
Plan 0.06897830221213438
Racing 0.0652411830740052
Regi@@ 0.1373356751099906
Schul@@ 0.02404391540569631
Some 0.02011363594002937
Stoc@@ 0.43727554651765355
Süd@@ 0.02084637066265509
Thé@@ 0.07754170255614616
Welt 0.05598564839259666
Yay@@ 0.37363756417783717
adora 0.04919141194836337
adul@@ 0.030405794612660613
aging 0.034478254545950875
ained 0.00930072189284531
angeb@@ 0.053413678111958775
angeg@@ 0.09468322481094832
aning 0.03344833665059258
aper@@ 0.09927997012029052
apon 0.12978587354701887
appeared 0.01609071336459041
ases 0.04140853608445599
ataifa 1
aught 0.029813571030463004
azine 0.8151793802864035
aç 0.2543858646412622
aña 0.10626440490175372
bajo 0.022326075379454805
başı 0.5385778417394754
best 0.012427537166052811
bew@@ 0.07262079031933505
bier@@ 0.060934828698450245
bres 0.03377940579046473
bt 0.035513685926801195
chs 0.09540581910475578
cian 0.1411646046001976
clim@@ 0.034712824193934504
clo@@ 0.03705716087905185
commerce 0.07949817166701506
compl@@ 0.013028260663186703
culp@@ 0.16622629909286213
degree 0.023519500012117316
deki 0.07549013776717166
dicha 0.1319402333904043
dire 0.06561499457645584
dır@@ 0.28446780447371767
eces 0.05364535814911044
empl@@ 0.04620129384714495
enca 0.13639463251792414
erin 0.029180590689187692
eten 0.014124521174432199
etos 0.09903723180703798
exp@@ 0.008430062161096704
famili@@ 0.03257968905143383
food 0.033425797340181126
former 0.007451291228660697
för@@ 0.07248969356745741
gest@@ 0.01644635684105272
govern@@ 0.02211850560187085
graphi@@ 0.04958452672635273
gues 0.055456468288518135
ically 0.01502322685848964
icos 0.01596613652614826
identi@@ 0.01045829969905539
ilien 0.08500509675664839
information 0.01993253948135228
ingen@@ 0.07480404642048165
inning 0.07425790472144246
institu@@ 0.01596558691258786
iser 0.039324600829566535
issen 0.041701175915441535
iten 0.017029890979702002
itung 0.03573821880886676
juni@@ 0.051722572589935234
known 0.004450473535054708
lak 0.32899188396094997
legi@@ 0.03936481992988875
lied 0.027097791110121394
limited 0.03258335119511522
mayo 0.031755886382720304
nation 0.03875789148154842
né 0.011044794126874433
ober@@ 0.03538296053631392
ools 0.09512111906928007
ople 0.12820198148380166
orf 0.12207896724634437
osen 0.04045676102703674
oslav@@ 0.29465157295762473
ought 0.01880302311938674
où 0.009844756180381423
pendiente 0.09063655359753557
phi 0.1470478617694549
plant@@ 0.031214102884463774
pre 0.03463078927272891
pris@@ 0.053862475209935166
pron@@ 0.04350789240331417
published 0.009778584527321416
reas 0.20112589263397626
[...]
