् 8669031
के 1670469
। 1546065
में 1261793
, 1226863
है 1085862
प 902381
की 802223
स 703702
और 690486
़ 656794
से 624164
का 612116
को 505310
क 462014
एक 453923
य 433254
) 387192
( 385418
ट 376663
हैं 373996
त 369441
ने 347604
र 343794
&quot; 332340
पर 329960
व 312653
द 308104
न 290093
. 278513
@-@ 274189
किया 242885
म 242533
र@@ 237378
था 235111
ज 234158
लिए 227242
कर 224118
भी 205380
या 196156
ड 196074
ल 191703
यह 190775
ग 187250
म@@ 184603
स@@ 183120
इस 182315
वर 179363
गया 178847
न@@ 164774
कि 162745
श 159848
क@@ 159445
य@@ 158144
ध 152529
त@@ 148906
रूप 145579
ष 144835
फ 144513
री 144002
ल@@ 143947
रा@@ 142295
कार 142282
व@@ 142058
अ@@ 141801
वि@@ 140554
ता 138604
ब 137163
आ@@ 136575
प@@ 135338
उन 134751
जो 131657
ही 129762
ब@@ 128655
जाता 125218
ज@@ 125108
ण 120372
साथ 117304
ं@@ 117212
ली 115994
करने 115682
वा@@ 115160
सं@@ 114425
ह@@ 113656
उत 112411
ग@@ 111387
हो 109770
राज 109653
का@@ 107590
वारा 107481
थे 106352
ना 105764
द@@ 105670
रो@@ 104223
भारत 104191
&apos; 102958
ना@@ 102767
नि@@ 102696
ति 102599
ट@@ 102352
बाद 101804
: 101376
तक 101366
च@@ 100943
ए@@ 100924
नहीं 100235
ला@@ 98920
तर 96319
या@@ 95211
श@@ 94134
निर 93304
मा@@ 91768
बा@@ 91764
नी 90728
थी 90561
पा@@ 90134
ी 89563
अन 88733
इ@@ 88277
च 87014
े 86932
तथा 86774
रे@@ 86755
पूर 86202
ला 85673
अपने 84981
यक 83949
ा 83789
रि@@ 82532
ती 81876
दी 81273
दिया 80613
ता@@ 80261
सा@@ 79978
रा 78562
मे@@ 77618
ड@@ 76550
षेत 76360
वह 75556
होंने 74573
जा 72628
जा@@ 72460
सर 72416
होता 72228
सु@@ 72040
थ 71211
को@@ 71137
ई 70380
सी@@ 68730
ह 66688
इन 66290
हुआ 65799
थित 65446
वे 64763
ख@@ 64037
ते 63241
लि@@ 62781
जन 62479
सम 62404
दा@@ 62319
यू@@ 62277
ले@@ 62136
नाम 61909
सि@@ 61884
ध@@ 61871
उ@@ 61238
ले 60616
कुछ 59681
मि@@ 59597
राष 59304
गा@@ 59020
भ@@ 58536
हें 58524
रीय 58342
विश 58003
मु@@ 57819
दर 57345
वे@@ 57143
मो@@ 56556
शन 56062
रों 55979
फ@@ 54957
करते 54291
ति@@ 53775
सन 53663
हुए 53613
टी 53472
तो 53360
गाँव 53341
थ@@ 53305
सी 53147
नों 53086
री@@ 53074
कु@@ 52899
बे@@ 52862
ष@@ 52595
ये 52404
- 52300
समय 52188
टर 52007
इसके 51274
ख 51254
जी 51133
एवं 50970
पुर 50095
होने 50029
कई 49377
उनके 49272
ने@@ 49183
कि@@ 49121
संस 49054
ियों 49048
षा 48985
बर 48628
मा 48367
शा@@ 48165
; 48076
ंग@@ 48029
यों 47734
उप@@ 47257
भारतीय 47133
गो@@ 47110
कों 47070
से@@ 47036
अधिक 46933
भा@@ 46560
वाले 46536
घ@@ 46379
वी 45453
बड 45450
ों 45229
लो@@ 45165
मार 45130
सबसे 45118
ण@@ 45027
कारण 44805
सा 44731
पत 44679
हा@@ 44569
अपनी 44513
कम 44436
करता 44377
होती 44225
कै@@ 44082
ई@@ 43929
मुख 43928
दे@@ 43858
पहले 43722
ओं 43705
गत 43623
अनु@@ 43428
थान 43114
अर 43099
गए 43078
ंग 42691
दो 42663
षण 42466
रकार 42181
सकता 41932
चित 41887
सो@@ 41881
ठ@@ 41291
फिल 41181
महा@@ 41070
जी@@ 41031
किसी 40978
देश 40874
रू@@ 40832
ओ@@ 40791
बी@@ 40788
के@@ 40620
&#93; 40456
जब 40447
गई 40309
&#91; 40299
ो@@ 40143
मन 40128
ि@@ 39933
रक 39765
गु@@ 39589
१@@ 39567
रु@@ 39531
पी@@ 39426
चा@@ 39365
बि@@ 39310
कहा 39249
दक 39049
े@@ 39008
लेकिन 38596
ित 38492
रम 38485
‍ 38393
रदेश 38348
ंड@@ 38076
राप 38065
हि@@ 37928
टी@@ 37839
बन 37803
भाषा 37717
ा@@ 37582
जाती 37345
हुई 37289
खा@@ 37132
बहुत 37039
लिया 36972
शामिल 36859
नी@@ 36705
ली@@ 36676
ो 36656
रत 36588
दि@@ 36462
ं 36344
टे@@ 36325
रिया 35924
ए 35867
भ 35783
वास 35708
टा@@ 35621
जैसे 35415
मान 35293
होते 34920
ी@@ 34701
.@@ 34577
जिले 34545
ार@@ 34472
/ 34375
विद 34282
पे@@ 34035
डे@@ 33949
रस 33920
करण 33766
रहे 33491
िल 33083
शि@@ 33033
िक 32951
तान 32876
धर 32797
बार 32791
डा@@ 32682
कल 32571
उनकी 32293
सू@@ 32150
उस 32123
बो@@ 32045
राज@@ 32038
जाने 32037
ँ@@ 31901
यालय 31653
दा 31639
मी 31576
माण 31437
पड 31306
बीच 31257
छ@@ 31217
लों 31211
भाग 31190
टि@@ 31162
उसके 31143
डि@@ 31137
तु@@ 31096
उद 31088
रहा 31024
पि@@ 31014
तों 30952
सभी 30951
जि@@ 30915
पन 30856
पो@@ 30808
काल 30690
तरह 30673
जिसमें 30586
पश 30579
यात 30361
वा 30340
मान@@ 30338
रति@@ 30224
शिक 30170
वी@@ 30167
इसे 30132
दु@@ 30124
वार 30102
रह 30070
ार 29826
आर 29746
इसका 29716
मै@@ 29705
मक 29696
अनुसार 29398
कर@@ 29360
ु 29358
यो@@ 29110
बु@@ 29039
तहसील 28994
जे@@ 28960
लक 28922
बी 28868
हो@@ 28818
टो@@ 28764
पु@@ 28683
ंस 28672
ू 28615
रमुख 28499
परि@@ 28435
करना 28396
काम 28394
पै@@ 28219
वाली 28211
अव@@ 28151
रॉ@@ 28049
ीय 27945
टा 27743
उसे 27696
अध 27669
बल 27627
डी 27617
भू@@ 27581
राम 27555
कोई 27527
लोगों 27496
झ@@ 27477
कृत 27466
तन 27316
िया 27280
ठ 27271
वै@@ 27243
अक 27204
महत 27194
चार 27011
मी@@ 26846
बढ 26749
ञान 26719
धि 26648
उपयोग 26562
पार 26559
मण 26535
रे 26499
यु@@ 26470
अल 26428
ारी 26400
जीवन 26370
हिन 26366
निक 26028
ु@@ 25913
लिये 25861
विज 25754
जाते 25746
दी@@ 25703
मध 25701
लैंड 25522
1 25504
रण 25469
हे@@ 25464
&#124; 25310
नगर 25197
दोनों 25174
तु 25144
आदि 25112
तियों 24849
रह@@ 24846
यर 24843
सिंह 24784
सम@@ 24755
मों 24595
कॉ@@ 24554
शब 24547
टन 24536
मूल 24527
नो@@ 24499
शहर 24496
वस 24420
लगभग 24406
कन 24343
रयोग 24219
दौरान 24186
यहाँ 24054
० 24024
गढ 24014
हर 23848
ंड 23845
साहित 23741
रेस 23702
२@@ 23663
अंग 23626
ओर 23494
पर@@ 23353
सरकार 23298
बै@@ 23273
गि@@ 23270
अं@@ 23237
शक 23171
डल 23137
अब 23120
तीन 23085
लै@@ 23020
ताओं 22950
शुरू 22915
फिर 22847
तर@@ 22827
गर 22690
लोग 22684
एं 22614
सर@@ 22603
ऑ@@ 22600
पास 22555
% 22547
ू@@ 22537
षिण 22486
जिसे 22445
अलग 22320
ते@@ 22305
विकास 22223
मे 22128
चु@@ 22036
जर 22020
की@@ 21975
शे@@ 21970
2 21753
युद 21729
दार 21711
यान 21679
था@@ 21668
करती 21602
योग 21593
वीं 21567
ऑफ 21553
ीन 21545
फे@@ 21535
ौ@@ 21532
एँ 21484
पद 21446
है@@ 21362
ंट 21284
सत 21045
रता 21006
केवल 20931
अंतर 20907
यम 20866
१ 20863
जिन 20825
राजा 20822
दिन 20807
संख 20804
ंद 20794
जाना 20713
षित 20624
रिकेट 20614
चि@@ 20598
चर 20588
सकते 20563
विशेष 20477
मंदिर 20444
इसकी 20427
ंक 20343
नु@@ 20300
हार 20249
यन 20190
ंत 20146
सार 20120
२ 19978
डी@@ 19950
&amp; 19926
जन@@ 19830
लु@@ 19830
विस 19822
मिक 19813
चौ@@ 19761
सिद 19731
धा@@ 19716
कभी 19576
ै@@ 19560
दू@@ 19461
वत 19460
खे@@ 19427
मित 19358
वाला 19355
उनका 19334
विभिन 19323
सदस 19317
टीम 19312
५ 19272
रदर 19219
इतिहास 19127
जो@@ 19111
सै@@ 19044
वाद 18987
योंकि 18953
साल 18952
गा 18941
उच 18904
इसमें 18898
कड 18860
ारा 18841
पी 18765
ती@@ 18724
रै@@ 18711
मंत 18674
नदी 18604
लन 18572
फा@@ 18564
रख@@ 18546
वपूर 18531
माना 18498
शु@@ 18440
अपना 18422
इसी 18378
लं@@ 18348
जु@@ 18346
दों 18310
सभा 18292
कहते 18274
हालांकि 18211
३@@ 18184
थिति 18176
वन 18154
रही 18131
हिस 18101
कुल 18057
तत 18049
पू@@ 17919
किए 17888
अन@@ 17857
दिल 17839
कार@@ 17834
पक 17832
तम 17794
षा@@ 17785
लय 17755
ढ@@ 17722
फि@@ 17681
रिया@@ 17672
रिक 17662
हन 17649
रसिद 17645
चे@@ 17582
रथम 17501
वों 17492
रिय@@ 17484
आ 17422
गे@@ 17379
५@@ 17374
रित 17357
गी 17323
॰ 17310
तब 17301
मर 17272
वविद 17241
पहली 17220
दो@@ 17194
ि 17189
3 17145
ियाँ 17132
ान 17107
ोर 17090
रं@@ 17083
आवश 17031
रदान 17012
४ 16945
धन 16933
सामान 16929
विक 16897
पुरस 16893
अस 16862
ढ 16793
रन 16767
खु@@ 16758
३ 16632
रिय 16604
यता 16561
हम@@ 16558
बना 16542
ारों 16541
एस 16533
मू@@ 16502
संयुक 16450
कृष 16434
शी@@ 16394
बना@@ 16352
दूसरे 16332
जिसके 16319
रां@@ 16283
अमेरिका 16276
जल 16258
मौ@@ 16255
िया@@ 16212
केंद 16185
निय@@ 16183
अप@@ 16080
थापित 16023
सक 16002
दे 15990
शास 15902
घर 15882
समर 15879
लॉ@@ 15873
उल 15859
णा 15842
धि@@ 15827
ऊ@@ 15822
आई@@ 15810
टेशन 15807
भर 15806
हु@@ 15760
देशों 15734
तमान 15711
उसकी 15697
चा 15678
समा@@ 15615
रान 15601
जबकि 15591
यहां 15544
१९@@ 15524
नर 15511
संग 15508
मात 15485
अप 15448
राइ@@ 15421
६ 15415
िय@@ 15403
टि 15376
यी 15345
गी@@ 15320
ऐ@@ 15314
रवा@@ 15303
जिसका 15289
णी 15273
पाकिस 15194
सेना 15174
अभि@@ 15172
बच 15158
वो@@ 15141
लड 15140
आज 15060
इं@@ 15032
ॉ@@ 15027
तार 15022
4 14969
ृ@@ 14966
डा 14949
४@@ 14906
माध 14879
मं@@ 14866
लम 14844
०@@ 14838
थापना 14832
लने 14784
करा@@ 14743
जिला 14720
तौर 14708
िले 14708
शी 14701
यू 14680
घा@@ 14677
नौ@@ 14638
रो 14633
८ 14606
समूह 14572
’ 14563
रति 14540
तिक 14522
एल 14500
कता 14499
नि 14497
ूर 14475
अत 14466
कारों 14466
‘ 14432
पिता 14423
शो@@ 14382
20 14348
हम 14342
दुर 14308
गयी 14276
लिक 14257
रखा 14241
यवस 14237
सह@@ 14237
मृत 14228
राम@@ 14227
७ 14222
बनाया 14220
णों 14219
नामक 14196
अनेक 14180
आधार 14151
अधि@@ 14142
पानी 14108
पार@@ 14099
पुस 14086
कोड 14045
भे@@ 14045
देख@@ 14021
यास 14010
एस@@ 14001
5 13998
बारे 13992
उसने 13954
टिक 13953
कला 13946
मत 13900
थि@@ 13879
परिवार 13874
९ 13818
चन 13807
बा 13800
चाहिए 13749
देने 13748
चक 13711
बात 13707
फै@@ 13684
आम 13670
ंच@@ 13662
कृति 13554
ययन 13548
पौ@@ 13516
जारी 13515
संगीत 13457
बिहार 13448
कूल 13433
वक 13417
पह@@ 13415
सेवा 13401
उपलब 13391
ची@@ 13377
षक 13354
आं@@ 13324
वित 13316
ऐसा 13243
पुरा@@ 13216
अच 13166
षों 13160
तीय 13140
यु 13117
सकती 13057
लेख 13043
6 12952
जै@@ 12940
यत 12938
आप@@ 12935
राय@@ 12934
भु@@ 12913
रभाव 12901
पुत 12893
राचीन 12885
२०१@@ 12877
कारी 12873
केन 12869
दूर 12859
दृष 12851
ऐसे 12836
जहां 12813
डो@@ 12797
नै@@ 12796
महिला 12778
बद@@ 12766
देव@@ 12760
आई 12748
मस 12742
बनाने 12709
ञा@@ 12689
चिम 12676
टल 12661
परिवर 12633
थीं 12631
अलावा 12607
छोड 12604
वृत 12560
वादी 12486
अफ 12400
यिक 12372
देता 12365
ंद@@ 12332
लगा@@ 12332
भूमिका 12305
तः 12279
बॉ@@ 12274
मैच 12271
करके 12270
पादन 12232
ः 12206
माता 12203
लर 12177
तराखण 12170
चे 12161
जुड 12154
निम 12128
चिकित 12111
जिससे 12095
येक 12083
खिलाफ 12075
लाइ@@ 12054
मार@@ 12045
इस@@ 12044
ऑस 12020
यदि 12019
धा 11990
वतंत 11961
ँ 11951
धार 11941
सिं@@ 11937
चै@@ 11930
कंपनी 11922
रोग 11919
पता 11912
पात 11905
खो@@ 11845
काफी 11842
डे 11825
सामाजिक 11814
10 11811
समस 11807
कालीन 11777
हों 11777
६@@ 11777
ीं 11758
नाओं 11748
दुनिया 11747
लेकर 11704
दू 11700
२००@@ 11684
ंगे 11669
चुनाव 11645
आत 11632
वान 11631
उसका 11629
लग@@ 11615
बन@@ 11605
निश 11565
जिस 11558
लता 11545
कू@@ 11543
तरी 11512
लू@@ 11507
हस 11493
फु@@ 11489
जों 11479
कप 11477
निक@@ 11474
रण@@ 11456
नई 11449
रम@@ 11442
सिक 11442
सौ@@ 11415
शताब 11402
रिटिश 11354
औ@@ 11350
साइ@@ 11349
पहला 11348
लाल 11339
जोड 11331
गये 11319
परीक 11310
विशेष@@ 11298
गों 11284
अथवा 11273
टों 11269
आन 11267
सुरक 11252
ओ 11249
टै@@ 11207
ियां 11180
नाथ 11169
खेल 11167
समान 11132
जल@@ 11087
इंग 11067
इसलिए 11057
किये 11054
ऋ@@ 11050
दन 11040
वाल 11028
पति 11018
शुरुआत 11015
भाई 11008
रीका 11005
युक 10996
भूमि 10994
आगे 10963
अमेरिकी 10958
णन 10953
छोटे 10949
जहाँ 10942
ौर 10922
– 10895
नए 10894
तेमाल 10880
कह@@ 10874
रणाली 10870
वरूप 10869
उम 10867
= 10857
एम@@ 10843
रात 10838
आधारित 10828
ियन 10815
देव 10765
धान 10752
रेन 10693
रकाशित 10691
ॉर 10688
पा 10687
छा 10680
वीप 10678
इन@@ 10633
मनो@@ 10630
तित 10593
उदाहरण 10591
लौ@@ 10575
रेज 10573
तो@@ 10563
दान 10540
लगा 10535
टिंग 10533
वंश 10526
मल 10521
दर@@ 10514
सों 10483
साम 10473
रेलवे 10472
जनवरी 10456
समाज 10424
णा@@ 10422
वैज 10410
भो@@ 10409
खि@@ 10408
पूरी 10407
इससे 10394
फर 10391
राजस 10390
मुक 10384
वं@@ 10359
घट@@ 10347
बाहर 10345
शा 10333
इनके 10325
रच@@ 10324
अंत 10306
समझ@@ 10285
शासन 10274
नियंत 10258
गल 10248
सिस 10245
ारे 10233
गण@@ 10225
गं@@ 10221
विकसित 10210
फो@@ 10197
बं@@ 10181
होगा 10181
वो 10168
मद 10167
लोक 10161
गांव 10157
चल 10141
सल 10141
ही@@ 10140
थों 10094
पदार 10054
8 10053
जाति 10035
इंड@@ 10027
छा@@ 10001
रहता 9979
अम@@ 9977
भगवान 9971
वन@@ 9970
बहु@@ 9965
मह@@ 9964
संघ 9963
दस 9958
थन 9951
दशक 9939
जान@@ 9937
बनी 9935
कृ@@ 9921
मुद 9921
थल 9900
रेणी 9900
निया 9899
बने 9887
निस 9870
रंग 9804
सब 9803
देते 9797
जिनमें 9783
रहते 9773
7 9757
9 9738
अतिरिक 9710
आधुनिक 9705
! 9701
होकर 9689
नक 9679
तरा@@ 9676
एम 9641
हा 9641
अधिकांश 9639
गति 9636
मानित 9621
मई 9592
रृंखला 9587
शरीर 9580
शीर 9580
रमण 9575
रिस 9564
फी@@ 9549
ाई 9544
रेजी 9520
कला@@ 9504
gt 9500
भी@@ 9480
लोकप 9479
तना 9465
थिक 9461
उपा@@ 9446
अगस 9438
भौ@@ 9434
शर 9401
देखा 9396
बद 9368
उन@@ 9344
नो 9312
पॉ@@ 9312
पाल 9309
यादा 9306
तंत 9294
हू@@ 9281
बांग 9268
लिंग 9255
संक 9249
बस 9240
टॉ@@ 9239
टूबर 9234
गम 9220
जय@@ 9208
लिख@@ 9199
लते 9195
रास 9185
मिल 9172
वल 9170
अधिकार 9139
डर 9130
lt 9121
नन 9119
मानव 9115
उसी 9113
यद 9106
3@@ 9097
एन@@ 9086
जू@@ 9064
दूसरी 9059
विभाग 9056
भिन 9043
रभा@@ 9038
रैल 9037
एं@@ 9035
पं@@ 9033
फल 9027
सूर 9021
विधि 9015
यंत 9008
आप 8981
वाचन 8979
संबंध 8976
जून 8970
चीन 8939
सान 8936
the 8934
ें 8934
जगह 8931
हॉ@@ 8917
मिश 8911
राजधानी 8907
जुलाई 8900
देवी 8889
पूरा 8888
ऊपर 8877
-@@ 8854
चिमी 8825
तव 8823
रानी 8818
रोत 8803
नियों 8799
काव 8796
लो 8787
ये@@ 8775
ठा 8771
राजनीतिक 8753
णि@@ 8750
of 8747
पल 8743
विचार 8743
विष 8742
पष 8740
पहुँ@@ 8734
सूची 8734
तैयार 8723
दल 8716
विषय 8705
बिना 8702
हीं 8691
सप 8686
ची 8684
मीटर 8681
अग 8643
चो@@ 8643
लोक@@ 8638
लब 8636
भाव 8633
7@@ 8622
सीमा 8618
जीत 8617
टेस 8605
यार 8598
गति@@ 8586
शल 8565
किन 8556
विधानसभा 8554
लेने 8551
युग 8548
पों 8526
रचना 8526
राय 8509
टे 8495
ञानिक 8487
युत 8479
पृथ 8474
दास 8470
वयं 8467
यि@@ 8465
शै@@ 8465
कीय 8462
निष 8461
अंतिम 8458
कौ@@ 8456
खिलाड 8453
धी 8445
लिखा 8442
गोल 8435
चों 8404
ंच 8398
हित 8391
जनसंख 8388
गै@@ 8384
आकर 8381
यौ@@ 8375
ञ 8365
इला@@ 8360
थानीय 8360
हत 8360
षी 8348
कोर 8346
भक 8337
रपति 8333
जे 8322
वृद 8316
उर 8301
ॅ@@ 8301
समुद 8294
सहायता 8291
ंडर 8282
योजना 8280
टूर 8269
नात 8263
हल 8252
कुमार 8243
आने 8241
नीचे 8238
दियों 8226
रेट 8211
15 8207
धार@@ 8205
८@@ 8165
मूर 8142
यापक 8142
लिय@@ 8132
फी 8128
७@@ 8124
काल@@ 8123
कश 8108
ऐसी 8105
संगठन 8100
कहानी 8099
टू@@ 8095
तृ@@ 8095
कांग 8094
होना 8082
देश@@ 8081
१८@@ 8080
समाप 8074
सफल 8070
ठी 8068
हिंदी 8065
पहुंच@@ 8052
पढ 8046
वरण 8042
छात 8029
अभी 8019
12 8013
पाया 8010
तुलना 8007
कॉलेज 8004
रहने 8004
चंद 7995
लू 7986
रकाश 7978
रस@@ 7973
ंप@@ 7967
नाग@@ 7956
0 7952
बम 7944
इल 7943
आक 7936
रवेश 7928
पण 7925
वें 7917
मिला 7906
शैली 7897
चाह@@ 7896
गौ@@ 7890
रव 7882
नाटक 7873
षि@@ 7871
लीग 7836
मां@@ 7833
वितीय 7820
दौ@@ 7818
किलोमीटर 7814
मीर 7812
पूरे 7810
एक@@ 7809
सैन 7803
चात 7801
बह@@ 7798
विशिष 7787
रभावित 7780
सहित 7766
तकनी@@ 7765
षमता 7757
सदी 7752
गिर@@ 7748
दूरी 7742
दृश 7738
अवधि 7735
वार@@ 7735
तं@@ 7718
योग@@ 7714
सिर 7706
हे 7692
अवस 7689
बंध 7684
संबंधित 7672
रंग@@ 7670
नल 7667
गल@@ 7652
पहाड 7648
तुर 7640
णु 7639
एंड 7637
एन 7627
सूत 7623
चार@@ 7620
17@@ 7615
रयास 7611
किंग 7607
नेट 7606
वश 7604
लाइन 7597
घु@@ 7593
लगे 7586
2008 7585
सेवा@@ 7585
आबादी 7571
किमी 7561
सब@@ 7561
कुमाऊँ 7553
खर 7545
ऐतिहासिक 7527
९@@ 7524
मिलता 7510
कथा 7509
मुस 7509
धित 7508
पोर 7507
बुद 7506
मैं 7501
बोर 7500
बाज 7496
बे 7496
वहाँ 7496
उड 7487
चू@@ 7484
यकता 7481
कं@@ 7479
इंटर@@ 7467
ञ@@ 7466
खान 7459
इनमें 7456
डॉ@@ 7446
ठा@@ 7444
थाप@@ 7412
पित 7401
रियों 7401
शं@@ 7401
ोड 7397
अर@@ 7395
बार@@ 7388
4@@ 7384
आर@@ 7384
रेष 7348
लाया 7346
माने 7343
5@@ 7339
करे@@ 7331
तहत 7328
घोषणा 7323
यापार 7317
मिल@@ 7314
रहती 7310
राव@@ 7306
19 7302
लाम 7288
लित 7287
2007 7286
मैन 7286
तुत 7268
वीकार 7266
आकार 7262
दिए 7259
काओं 7257
विधान 7252
,@@ 7247
धी@@ 7247
आता 7235
30 7234
मेंट 7231
लिम 7223
पुरुष 7220
विन 7217
बू@@ 7216
दूसरा 7215
चाई 7208
जनगणना 7198
कट 7193
आते 7188
चरण 7184
हाल 7172
आयोजित 7169
सके 7166
सां@@ 7158
कम@@ 7148
हाथ 7124
गीत 7123
चारों 7121
नियम 7120
नग@@ 7109
परा@@ 7106
ऊर 7083
नव@@ 7083
वायु 7075
मदद 7067
ौ 7067
रेलिया 7065
लिस 7042
एशिया 7040
थो@@ 7040
थे@@ 7038
बौद 7038
जिसने 7025
लादेश 7009
टार 7004
बनाए 6997
11 6992
टर@@ 6990
गुप 6985
दिखा@@ 6985
इनका 6980
दिखाई 6977
झा@@ 6972
बता@@ 6970
विवाह 6957
धारा 6956
तियाँ 6953
6@@ 6950
2018 6947
टो 6945
जग@@ 6941
ऊ 6926
मॉ@@ 6917
रु 6912
2019 6909
टाइ@@ 6888
थात 6884
बाल 6884
थर 6881
जाए 6872
टम 6869
मारी 6864
हरा@@ 6862
आती 6844
आया 6839
खा 6827
तल 6809
2009 6808
भावना 6808
नामेंट 6802
हेतु 6800
धांत 6783
एल@@ 6776
मत@@ 6775
लास 6772
विष@@ 6768
रखने 6758
याय 6752
गन 6747
तुम 6745
बताया 6731
8@@ 6730
लस 6727
ारण 6727
सामने 6726
अंतरराष 6723
गू@@ 6722
घ 6721
शील 6721
शादी 6706
बैंक 6695
थानों 6694
भार@@ 6688
महिलाओं 6682
खंड 6672
मिली 6672
रारंभिक 6670
नत 6647
लियों 6633
उपन 6631
पांच 6629
15@@ 6628
ियर 6626
डन 6612
लिन 6612
नू@@ 6610
रू 6606
राह 6601
साक 6598
2@@ 6594
रप 6592
नियुक 6585
पुलिस 6580
9@@ 6572
लाने 6571
रशिक 6570
बंद 6567
वाह@@ 6558
18 6556
रुद 6546
मास 6534
फोर 6532
नेतृत 6531
पुनर 6520
25 6516
कवि 6514
याव@@ 6508
भाषा@@ 6487
हवाई 6477
‌ 6472
रेल 6471
कक 6465
नस 6463
धे 6459
गो 6449
ंज 6446
चला 6443
अम 6437
रद 6417
सात 6399
घटना 6396
किस 6390
शाह 6385
16@@ 6383
कस 6381
सांस 6377
रिका 6373
परिषद 6371
फरवरी 6359
रिकॉर 6355
लेखक 6347
पैदा 6346
राकृतिक 6346
ढा@@ 6335
जीव 6332
दिशा 6327
बर@@ 6326
संरक 6326
भिक 6311
डॉ 6309
वेस 6294
देशक 6293
छत 6289
टु@@ 6287
नीति 6282
तने 6279
बंगाल 6277
मनुष 6276
मिलियन 6274
ंटी 6273
परे@@ 6267
अरब 6261
रिंग 6257
वती 6257
यवहार 6247
बंध@@ 6240
नृत 6235
रल 6234
ताल 6227
सितंबर 6223
दारी 6221
लती 6216
20@@ 6214
गैर 6205
जानकारी 6201
वापस 6201
वामी 6198
ईस 6191
जित 6182
खड 6177
2006 6176
कोशि@@ 6173
लेक 6171
जनता 6170
आश 6161
लाभ 6160
S@@ 6155
तरण 6154
मना@@ 6151
गार 6148
छि@@ 6142
षिणी 6141
लाह 6136
वजनिक 6132
ंडा 6123
जिन@@ 6108
दिनों 6104
मनी 6104
छोटी 6099
14 6089
नेता 6087
समुदाय 6065
16 6063
राण@@ 6063
यूरोप 6057
भि@@ 6056
सड 6040
ऊँ@@ 6037
रांत 6036
टेड 6019
दै@@ 6017
भीतर 6009
हासिल 6006
पुष 6004
राव 5979
मुख@@ 5972
वेल 5970
ूल 5960
कानून 5952
एच@@ 5941
धों 5924
कब 5923
इनकी 5921
खोज 5917
आमतौर 5911
हिं@@ 5905
अगर 5901
शाली 5901
अड 5893
शित 5893
बजे 5891
देती 5886
धीरे 5880
सरकारी 5880
छी 5878
वास@@ 5874
सामग 5874
यल 5873
C@@ 5870
दय 5863
वीर 5861
पहचान 5857
लकर 5857
राजमार 5853
निका@@ 5851
मन@@ 5845
D@@ 5841
शिव 5841
सत@@ 5835
पीछे 5829
दिक 5823
इलेक 5822
कृतिक 5815
मृ@@ 5813
सिटी 5811
B@@ 5810
H@@ 5807
बाई 5804
रतिशत 5804
षिक 5803
जिम 5801
2010 5781
उपस 5767
चले 5763
कृषि 5758
तै@@ 5758
जिसकी 5756
तू@@ 5756
मेल 5749
तरफ 5747
वॉ@@ 5745
हरी 5744
मिस 5734
21 5729
नीय 5727
वाड 5719
१९९@@ 5708
समिति 5707
नेशनल 5698
पाठ 5691
कथा@@ 5690
ईं 5683
दिसंबर 5682
परिणाम 5670
लगता 5668
सागर 5665
यही 5663
दम 5655
टिन 5654
ंगल 5653
? 5648
रहण 5644
जैसा 5624
सहायक 5623
विध@@ 5621
अभिनय 5619
नवंबर 5617
फा 5614
बिल 5607
डिग 5596
चीनी 5593
यर@@ 5591
लाख 5586
महान 5585
अनुसंधान 5583
ईसा 5581
N@@ 5574
बिक 5573
मौजूद 5571
कंप 5569
वर@@ 5569
रज 5568
17 5566
टीवी 5565
रौद 5548
सेंट 5546
कमी 5541
नलिखित 5538
पंजाब 5535
सें@@ 5535
खुद 5534
ञात 5526
साधारण 5521
तिगत 5509
वासी 5508
अकादमी 5499
ताकि 5499
जीता 5493
M@@ 5491
जैन 5487
वजह 5475
शिया 5474
तानी 5473
अपेक 5464
बिन 5461
तुओं 5457
आधिकारिक 5455
यतः 5454
शेष 5454
टेक 5449
माइ@@ 5445
टेली@@ 5444
तीर 5438
निजी 5436
लेख@@ 5434
मानक 5432
गुरु 5429
पाद 5426
सिन 5414
साध@@ 5410
हर@@ 5405
रांस 5401
भाषाओं 5388
बैठ@@ 5385
नता 5382
पट@@ 5378
शू@@ 5377
लिका 5372
रिलीज 5371
बदल 5358
औसत 5353
याप 5350
धारित 5349
विय@@ 5347
रेम 5346
जाएगा 5340
षे@@ 5338
एकल 5337
आंदोलन 5335
योगदान 5335
नेपाल 5333
बाहरी 5328
रेड 5327
यूरोपीय 5324
विशाल 5324
धु@@ 5322
पिक 5322
विभा@@ 5321
उससे 5318
गृ@@ 5316
िला 5310
ियम 5308
बाजार 5305
13 5302
50 5297
P@@ 5293
हरा 5290
यूटर 5287
वेद 5286
अनुमति 5270
रीज 5267
ताप 5264
रेक 5264
उनमें 5256
वहां 5254
रमा@@ 5253
दिर 5251
ियाई 5249
पट 5241
पृष 5240
दु 5235
जैसी 5230
मुंबई 5228
बां@@ 5219
नं@@ 5216
रोक 5214
किंतु 5213
अली 5202
2014 5200
पालन 5199
नें 5198
बच@@ 5197
सूचना 5197
s 5193
पूजा 5192
यस 5190
2011 5186
कान 5182
मंडल 5181
2016 5180
थक 5179
समी@@ 5178
नपुर 5177
हाइड 5174
रिश 5173
कहला@@ 5169
ठीक 5164
णय 5156
तनी 5153
काउ@@ 5146
रबंधन 5143
and 5141
_ 5139
विजय 5139
2017 5138
लाई 5137
दित 5136
चुके 5131
सेन 5126
T@@ 5122
विल 5121
शान 5121
राह@@ 5119
िये 5116
डब 5113
संचालित 5106
कत 5104
रधान 5104
संदर 5103
देखने 5093
विरोध 5092
सीमित 5089
कविता 5088
आध@@ 5084
निकों 5084
आसपास 5076
अनुवाद 5075
तीस@@ 5073
कल@@ 5072
तरित 5070
लग 5067
आस 5065
रतियोगिता 5065
2005 5064
शां@@ 5054
ंश 5052
G@@ 5046
मजब@@ 5044
लियन 5042
हिमा@@ 5042
पहु@@ 5041
पेक 5038
लागू 5034
ियो@@ 5031
कारियों 5029
ंगा 5025
खरी@@ 5024
टक 5022
लगाया 5022
ंब@@ 5019
रीन 5013
मामले 5012
बचा@@ 5006
एफ@@ 5003
अंग@@ 5000
सफलता 4999
बेल 4995
a 4987
यूनि@@ 4975
जीव@@ 4974
रजा@@ 4964
सुधार 4958
नेटवर 4954
करें 4951
शासक 4945
चलता 4944
छ 4935
०० 4922
पटना 4921
महीने 4911
+ 4910
तियां 4907
राब 4904
संघर 4902
कें 4901
इंडिया 4898
भोजन 4898
शु 4894
फू@@ 4893
एड@@ 4888
योगिकी 4882
योगी 4876
इका@@ 4872
जार 4871
सॉफ 4863
बंधित 4862
इत 4861
शो 4861
जहा@@ 4860
महाराष 4859
गंज 4857
24 4856
बावजूद 4853
ंदर 4844
जॉन 4844
in 4841
कंप@@ 4841
मिलती 4841
शुक 4838
बनाई 4834
R@@ 4832
नया 4828
उठा@@ 4823
रसा@@ 4823
ऑक 4820
गंगा 4819
मोड 4818
गुण@@ 4807
तविक 4803
भारी 4799
शुद 4799
2012 4798
घंटे 4796
कने 4793
लख@@ 4784
सेल 4784
पना 4782
शिष 4778
बैंड 4771
रोध 4771
जापान 4770
षम 4770
ंत@@ 4769
करी 4768
22 4762
परन 4761
पाए 4760
रिटेन 4756
लत 4751
अधिनियम 4746
भार 4745
कहीं 4742
मरा@@ 4741
थि 4738
रुप 4738
डिंग 4735
षर 4733
I 4732
चरित 4732
सुन 4732
लेट 4726
संबंधी 4724
आए 4722
धारण 4721
2000 4720
मॉडल 4713
संभव 4711
ारि@@ 4710
रयुक 4709
छह 4705
A@@ 4704
झ 4700
अभिनेता 4699
खें 4699
E@@ 4696
100 4687
याख 4679
तमिल 4677
वाज 4677
१९८@@ 4677
आय@@ 4675
लियम 4675
लु 4675
अपरा@@ 4671
गठन 4671
संकेत 4660
वुड 4658
अभ@@ 4656
राट 4650
मिट 4649
झील 4646
परम 4646
शिव@@ 4641
जरू@@ 4640
संभा@@ 4640
नम 4637
शों 4635
पेन 4630
याग 4630
2020 4629
तें 4628
डिय@@ 4623
रेखा 4609
मिनट 4607
परंतु 4606
हिंदू 4602
करोड 4601
माल 4592
पीड 4589
कोशिश 4582
उपचार 4581
ंसी 4579
छे@@ 4579
रिपोर 4579
ूत 4579
परिचय 4572
ारित 4570
संरचना 4568
आरम 4562
रतिनिधित 4562
विवरण 4560
परियोजना 4559
घो@@ 4556
माँ 4554
वज 4547
गड 4545
रूस 4537
णित 4533
छोटा 4527
मीडिया 4524
मामलों 4523
अंत@@ 4521
दत 4521
आरो@@ 4518
हरे 4511
होगी 4506
भाव@@ 4505
यं@@ 4505
मानते 4499
मील 4498
डिया 4490
खू@@ 4485
रसाद 4484
णु@@ 4481
डु 4476
रिज 4475
तट 4470
मुरादाबाद 4470
तृत 4468
ंगी 4465
रोड 4465
रतिक 4463
राक 4461
लेखन 4461
आइ@@ 4457
विपरीत 4455
तेज 4449
वि 4449
रहा@@ 4446
2015 4443
अधिकारी 4441
भव 4428
षि 4426
डियम 4420
ताब 4420
संविधान 4409
एफ 4407
जान 4401
रियर 4399
अभियान 4395
दीन 4395
सही 4395
भागों 4394
ेक 4390
L@@ 4382
वय@@ 4382
शकों 4382
2004 4379
रि 4378
देना 4377
महल 4375
रत@@ 4375
23 4370
रका@@ 4369
भा 4367
आयोजन 4363
पुराने 4363
रीम@@ 4358
रकाशन 4355
लेषण 4354
रोधी 4353
सहयोग 4351
इंजीनिय@@ 4350
चिन 4350
अनुभव 4346
40 4345
एयर@@ 4344
खों 4340
परिव@@ 4336
रतिष 4332
रकृति 4330
आईसीसी 4328
अगले 4326
तिष 4326
याओं 4321
खण 4320
मिला@@ 4316
पाई 4311
नां@@ 4306
हाइ@@ 4306
गुरु@@ 4295
सफ@@ 4293
आचार 4291
पुरी 4290
घोषित 4289
डॉलर 4286
फाइनल 4284
सुविधा@@ 4284
१९७@@ 4283
लि 4276
कोट 4274
लगातार 4273
इच 4266
वेक 4266
लेते 4265
चुका 4260
साधन 4257
14@@ 4254
साम@@ 4253
काम@@ 4250
मुहम 4250
विधायक 4245
पेट 4244
चि 4243
पदक 4243
भविष 4240
मेन 4236
वीडियो 4236
तेल 4235
2013 4234
बहा@@ 4234
शाखा 4232
शाही 4232
रश 4227
कित 4226
मीन 4226
26 4225
ओलंपिक 4221
संसद 4221
0@@ 4220
आयु 4217
उद@@ 4213
डु@@ 4211
लंदन 4211
रतिस 4208
अहम@@ 4206
धारा@@ 4202
बनने 4201
सक@@ 4200
रचित 4199
कहा@@ 4196
गुण 4195
जय 4194
पेश@@ 4192
सिल 4192
गांधी 4182
समीक 4181
अतः 4177
2021 4176
घरेलू 4171
धिक 4170
सित 4168
कुर 4159
उसमें 4158
विभाजित 4158
विधियों 4157
कठि@@ 4156
निवास 4153
पिछले 4153
विदेशी 4152
रशं@@ 4151
दौर 4146
करीब 4143
लेस 4143
अनि@@ 4142
खेलों 4134
भवन 4134
लगी 4133
कैं@@ 4125
शस 4125
रंथ 4123
रशासनिक 4123
नामित 4121
राजनीति 4116
गुजरात 4115
यादि 4112
रशा@@ 4111
अज 4110
कमा@@ 4110
टिल 4110
योगिक 4110
समू@@ 4109
षेप 4107
नंद 4101
जम 4100
योज@@ 4097
मानों 4096
लीय 4096
किनारे 4090
अफ@@ 4089
मल@@ 4089
वाय@@ 4088
इसने 4087
रीकी 4087
बोली 4086
निकट 4085
सेट 4085
२० 4083
आदेश 4081
नेस 4081
करणों 4080
धो@@ 4080
रखते 4080
जिनके 4075
लाह@@ 4074
“ 4067
छु@@ 4065
डिजाइन 4065
पस 4064
शियाई 4064
हार@@ 4063
$ 4061
पकड 4061
भेद 4061
वालों 4057
युवा 4052
सूक 4052
बू 4049
टबॉल 4039
यायालय 4039
फॉर 4030
दौरा 4028
रौ@@ 4028
आउ@@ 4022
इलाहाबाद 4022
टने 4019
W@@ 4018
दबा@@ 4013
रती 4010
आठ 4009
अपना@@ 4006
सद 4006
रचलित 4000
सुविधा 4000
मेट 3999
पवित 3996
यूज 3993
उपकरण 3992
गुज@@ 3992
मिलकर 3992
F@@ 3986
चुना 3982
माइक 3980
परिणामस 3979
थायी 3978
वृ@@ 3972
थोड 3971
शोध 3971
ै 3966
” 3966
पारंपरिक 3965
हमारे 3965
अली@@ 3964
जोर 3957
13@@ 3956
28 3956
पसं@@ 3954
ताव 3953
ताक 3952
केट 3948
रार 3947
रुप@@ 3946
लें 3944
संगठ@@ 3943
10@@ 3942
तस 3941
अनुमान 3940
यम@@ 3940
सन@@ 3939
ाने 3939
मैचों 3935
निवे@@ 3934
विड 3934
मंग@@ 3929
रेल@@ 3924
नारायण 3923
अभिनेत 3920
तरीके 3920
वाधिक 3920
नार 3917
नाइट 3916
ंस@@ 3915
रारंभ 3915
सारे 3915
यपि 3905
लयों 3905
खेला 3904
सांख 3902
इमार@@ 3900
27 3898
औद 3898
चेन 3898
भीर 3898
दिसम 3895
आदर 3894
याया@@ 3893
रवर 3893
ंक@@ 3892
वप 3892
ः@@ 3891
दावा 3890
नाइ@@ 3888
​ 3886
लिखी 3880
पाँच 3874
रोह 3874
नान 3873
१९६@@ 3868
रख 3867
है- 3867
यवसाय 3858
यादातर 3856
एजे@@ 3854
ं- 3851
वली 3849
फैस@@ 3845
नेवाले 3842
रीलंका 3840
तकों 3837
छे 3836
लपुर 3836
समझौ@@ 3836
गैस 3833
वृक 3831
सराय 3831
छू@@ 3828
जवा@@ 3827
आगरा 3824
रेशन 3823
अभ 3818
पंचा@@ 3817
वाया 3815
समाचार 3815
I@@ 3811
आग 3810
टेल 3810
राथमिक 3807
मुसल@@ 3805
विकेट 3803
विख 3799
टिस 3798
फोन 3796
चैनल 3795
मौत 3794
रेखा@@ 3794
नवम 3791
नागरिक 3790
नियमित 3790
रीक 3789
उंड 3786
नातक 3786
अना@@ 3784
धारणा 3780
टस 3778
लेखनीय 3778
बजाय 3774
अधीन 3771
निया@@ 3771
लेन 3771
रतीक 3768
पथ 3763
विध 3760
ंडी 3759
थियों 3757
2003 3756
टीन 3756
यॉर 3752
मानी 3751
ियनशिप 3745
संपर 3743
भव@@ 3741
लिपि 3740
00@@ 3735
कलाकार 3732
खाने 3731
थाओं 3731
घाट 3727
डिस 3726
कॉर 3724
निभा@@ 3724
रेरित 3722
अवसर 3721
दोस 3718
गिक 3716
कारक 3714
रचार 3713
वां 3711
2002 3709
साइड 3709
2001 3708
लेता 3708
O@@ 3707
इ 3703
संत 3703
थिय@@ 3697
मंड@@ 3695
अस@@ 3694
चिं@@ 3694
आरंभ 3693
सार@@ 3693
यधिक 3689
सामना 3689
कोल@@ 3688
धियों 3684
अद 3680
नॉ@@ 3680
विकल 3677
रज@@ 3676
रामीण 3675
बित 3672
वैश 3665
गीत@@ 3663
बई 3663
वाक 3660
मिलते 3659
हमेशा 3659
घाटी 3658
१० 3658
संचार 3652
वरों 3648
सुन@@ 3648
भट 3646
विवाद 3643
साइट 3642
पुरा 3641
झे 3640
थितियों 3640
लामी 3638
००० 3637
खाद 3636
उप 3633
विजे@@ 3633
ईश 3631
पुनः 3631
थु@@ 3630
रशासन 3625
A 3621
आँ@@ 3621
धू@@ 3616
लना 3616
निवेश 3615
1990 3609
मैदान 3609
टेट 3606
रचना@@ 3606
रैक 3605
हरि@@ 3604
जॉर 3603
नष 3599
तीसगढ 3598
बिज@@ 3598
समु@@ 3598
डम 3596
रोज 3596
जनरल 3595
पेश 3590
एकमात 3588
खी 3587
योजन 3587
1.@@ 3585
बाजी 3582
अति@@ 3581
आदि@@ 3581
जिनका 3579
गठ@@ 3577
जीवित 3575
रमा 3575
परिस 3569
रधानमंत 3567
लिखित 3567
नाइटेड 3565
याय@@ 3562
मैक 3561
किल 3555
धां@@ 3553
वायु@@ 3553
दिवसीय 3552
तरिक 3551
मधु@@ 3551
१७@@ 3551
राजन@@ 3546
रमों 3545
सचि@@ 3543
कनाडा 3538
खंड@@ 3536
तीसरे 3536
धति 3535
वेन 3534
परमाणु 3533
बिया 3531
संपत 3531
बों 3528
मोर 3528
हराया 3528
हृ@@ 3526
पेड 3524
लाव 3523
चाहते 3518
वाइ@@ 3514
अंतरिक 3513
यज 3513
वेश 3509
अधिकतर 3504
औप@@ 3504
शह@@ 3501
भर@@ 3498
ॉ 3495
रेडियो 3494
एका@@ 3488
टता 3478
पे 3477
यो 3476
नरी 3470
आलोचना 3469
जांच 3469
आका@@ 3468
मू 3468
हज@@ 3468
कानू@@ 3467
किर@@ 3466
चारिक 3463
गेंद@@ 3458
वाई 3457
मिले 3455
बेटे 3454
निंग 3448
बत 3447
वेद@@ 3446
राशि 3444
हाउस 3444
वाता@@ 3440
संशो@@ 3440
वीय 3439
T 3438
पुरुषों 3435
गेम 3434
सव 3434
बेहतर 3432
डियो 3429
यमान 3429
सकों 3427
गणित 3426
मानता 3426
रकट 3425
रिकेटर 3420
कारात 3419
चढ 3416
चुकी 3416
राजा@@ 3416
शय 3416
रामा@@ 3415
नाम@@ 3413
जनक 3410
ंडे@@ 3409
पादित 3408
नवा@@ 3406
रारम 3406
नायक 3405
इंजन 3404
तापमान 3404
रणा@@ 3404
तात 3403
षणों 3403
करियर 3399
पताल 3398
याद 3398
केरल 3397
परिक 3396
परंपरा 3392
शारी@@ 3390
जेल 3389
सीसी 3389
मांग 3388
रासाय@@ 3388
ारी@@ 3388
ईसाई 3384
जिद 3384
सिंग 3381
कीर 3376
विचार@@ 3375
फाइ@@ 3373
बराबर 3369
लंबे 3367
टवेयर 3365
नज 3365
लार 3361
सैनिक 3361
साह@@ 3359
सिने@@ 3357
महासागर 3355
रती@@ 3350
हद 3350
समारोह 3349
केश 3348
शाला 3348
पारी 3346
शहरों 3340
अंदर 3334
संचालन 3334
K@@ 3333
... 3332
टाइम 3332
मेलन 3330
हालाँकि 3330
नतम 3329
ेश 3324
मियों 3323
तीव 3314
विमान 3314
to 3311
पंच@@ 3310
विजन 3310
यां@@ 3305
यूजी@@ 3305
रतिनि@@ 3304
टिकोण 3302
वां@@ 3301
समे 3301
V@@ 3299
मिलित 3292
अख@@ 3288
आग@@ 3280
जोखि@@ 3280
आलो@@ 3265
भूमि@@ 3265
विवा@@ 3240
29 3234
तरी@@ 3234
31 3220
0,000 3185
पान 3157
60 3156
ंकि 3154
भग@@ 3143
0.@@ 3128
२०@@ 3126
अध@@ 3121
कठ@@ 3112
1980 3102
x 3102
गां@@ 3097
ॉन 3087
दि 3074
1999 3068
॥ 3045
000 3035
al 3016
पृ@@ 2983
दृ@@ 2946
चय 2940
कास 2933
कवि@@ 2914
उस@@ 2913
1998 2908
p@@ 2905
दाय 2888
ङ 2885
जाए@@ 2879
formula 2873
M 2870
शत 2857
दोलन 2848
बेह@@ 2842
अग@@ 2826
is 2825
वरी 2815
ing 2799
C 2793
इतिहा@@ 2792
y 2789
12@@ 2778
गाँ@@ 2758
U@@ 2749
80 2726
° 2706
s@@ 2696
पुन@@ 2691
1,@@ 2687
D 2685
2.@@ 2677
70 2674
ुक 2671
परंप@@ 2669
जिक 2655
1996 2643
लेज 2636
यव@@ 2631
an 2624
अमेरि@@ 2621
09 2602
नाव 2581
1970 2564
S 2562
सल@@ 2548
वु@@ 2537
ील 2530
35 2528
E 2521
1997 2519
500 2518
देशी 2513
1@@ 2487
200 2482
शुरु@@ 2467
संबंध@@ 2463
ation 2459
on 2459
बंगा@@ 2454
The 2442
चना 2437
h@@ 2431
J@@ 2390
अधिक@@ 2388
अ 2381
बंधन 2375
1992 2370
B 2369
— 2351
c 2343
साय@@ 2338
P 2337
1994 2329
कोण 2317
1960 2311
90 2307
गणना 2306
L 2296
1991 2291
रवरी 2278
i 2277
1995 2273
b@@ 2272
45 2271
दमी 2266
3.@@ 2265
1993 2260
पंजा@@ 2245
राजनी@@ 2244
-- 2242
ar 2233
पिछ@@ 2232
19@@ 2222
ed 2200
R 2198
e@@ 2188
मद@@ 2174
घं@@ 2155
मही@@ 2129
l 2127
ृंखला 2109
टेन 2107
F 2101
अला@@ 2100
PM 2098
एव@@ 2097
y@@ 2095
उ 2094
करी@@ 2087
t 2085
Z@@ 2081
32 2079
O 2071
तह@@ 2070
ऍ@@ 2065
ृत 2065
d@@ 2061
t@@ 2048
4.@@ 2047
विधा@@ 2046
जब@@ 2037
माम@@ 2036
योगि@@ 2026
महिला@@ 2022
w@@ 2002
75 2000
h 1996
नेत 1995
N 1981
30@@ 1967
1989 1950
n 1943
18@@ 1935
j@@ 1932
1950 1922
यूरो@@ 1915
th@@ 1908
H 1903
25@@ 1902
महि@@ 1874
es 1868
or 1850
ँच 1850
जना 1843
षद 1835
1947 1831
1986 1819
o@@ 1817
36 1810
m@@ 1810
5.@@ 1804
ताप@@ 1802
c@@ 1799
ारो@@ 1796
1988 1794
33 1789
तक@@ 1789
g@@ 1785
in@@ 1782
1984 1774
वस@@ 1771
m 1770
शनल 1768
al@@ 1761
दाबाद 1749
G 1746
a@@ 1746
d 1728
* 1725
k@@ 1720
2,@@ 1709
1985 1707
सॉ@@ 1701
योजित 1700
135 1697
n@@ 1696
br 1690
• 1687
परिणा@@ 1686
b 1670
1987 1665
मि 1664
AM 1663
55 1657
65 1657
1962 1656
1971 1655
संके@@ 1645
us 1642
r@@ 1640
जिस@@ 1639
सहा@@ 1636
1972 1627
ar@@ 1627
1967 1625
ंने 1623
शरी@@ 1623
an@@ 1609
37 1605
1952 1604
g 1591
as 1590
24@@ 1586
34 1582
परियो@@ 1574
उदाह@@ 1572
तिम 1571
6.@@ 1570
पीय 1567
p 1565
# 1564
300 1564
,000 1560
वेयर 1560
3,@@ 1557
47 1556
7.@@ 1553
बरा@@ 1549
साई 1546
38 1545
28@@ 1541
V 1541
26@@ 1532
1977 1513
1982 1513
ch@@ 1510
आरं@@ 1509
मता 1509
er 1507
i@@ 1501
ॆ@@ 1495
जाय 1493
de 1484
ऐ 1482
as@@ 1478
at 1478
e 1459
48 1446
1975 1444
52 1442
.. 1439
x@@ 1435
यवसा@@ 1434
1973 1420
1979 1419
अंतर@@ 1416
ag@@ 1413
am 1413
1948 1411
सरे 1404
amp 1403
64 1401
8.@@ 1401
ic 1399
तिहा@@ 1398
um 1395
1930 1391
1983 1389
1956 1388
अका@@ 1378
05 1375
29@@ 1375
42 1373
समि@@ 1372
1957 1371
f@@ 1368
for 1368
X@@ 1366
v@@ 1365
X 1363
o 1357
re@@ 1347
en 1341
9.@@ 1340
रथ@@ 1338
पुरु@@ 1333
ृ 1333
II 1331
Y@@ 1331
k 1331
44 1326
1978 1325
1965 1322
1981 1318
विशे@@ 1317
07 1313
39 1312
1976 1310
51 1309
W 1308
99 1304
56 1298
08 1294
1969 1288
1974 1288
A. 1283
43 1276
06 1272
विशा@@ 1270
.com 1267
04 1266
l@@ 1261
400 1257
शिप 1257
85 1255
खिला@@ 1254
ळ@@ 1254
कना@@ 1243
4,@@ 1241
अथ@@ 1238
95 1234
53 1224
हाँ 1212
72 1211
01 1207
ph@@ 1202
रतियोगि@@ 1201
ad@@ 1199
27@@ 1194
U 1192
by 1188
1000 1185
1920 1185
मिन@@ 1182
Ch@@ 1180
गू 1180
ीक 1180
1968 1177
https 1175
उदा@@ 1174
1964 1173
किन@@ 1170
छो@@ 1169
1966 1166
रधा@@ 1165
am@@ 1161
on@@ 1161
88 1157
41 1156
ap@@ 1153
68 1150
46 1141
N.@@ 1140
अधिका@@ 1139
54 1127
en@@ 1123
डिजा@@ 1116
00 1115
58 1115
it 1108
org 1107
86 1099
66 1093
1940 1090
61 1087
57 1081
150 1080
49 1076
1961 1072
62 1069
ॆ 1069
lo@@ 1067
03 1066
राथ@@ 1065
that 1064
1963 1062
ate 1053
टवर 1053
at@@ 1048
अमे@@ 1047
आस@@ 1045
u 1040
6,@@ 1037
बॉल 1034
02 1033
63 1032
1955 1031
आधु@@ 1024
er@@ 1022
ङ@@ 1022
78 1021
50@@ 1020
tr@@ 1019
or@@ 1016
are 1015
1949 1012
76 1006
iv@@ 1004
ic@@ 1003
आम@@ 1003
77 1001
th 1001
r 1000
1945 998
le@@ 992
71 991
रधान@@ 990
73 982
1954 980
84 978
IS@@ 976
1946 973
74 968
om@@ 967
लीज 967
67 965
K 962
98 961
e.@@ 959
1958 950
ul@@ 950
87 949
ur 948
59 947
83 945
ॊ@@ 944
1951 940
ity 936
el 933
1959 932
el@@ 932
um@@ 932
5,@@ 931
7,@@ 931
ot@@ 928
96 925
ंपिक 924
600 916
82 911
Q@@ 911
ँकि 911
--@@ 909
ac@@ 906
ent 903
sh@@ 899
81 897
with 897
was 889
di@@ 882
et 880
ine 879
us@@ 879
ab@@ 875
In@@ 872
रतियो@@ 872
arch@@ 869
ia 867
le 866
विधा 863
40@@ 862
ur@@ 861
1857 858
92 856
1942 855
69 855
8,@@ 849
97 848
परमा@@ 845
III 844
नय 844
v 839
11@@ 837
1953 836
ers 836
2022 834
it@@ 834
os@@ 827
is@@ 825
IV 824
नुष 823
कुमा@@ 820
em@@ 815
ary 813
u@@ 810
tion 809
ref 808
800 807
AS@@ 805
po@@ 797
1936 795
79 795
de@@ 789
un@@ 789
ro@@ 788
il@@ 787
89 785
ical 783
li@@ 782
f 781
91 780
es@@ 779
www.@@ 779
web@@ 777
http 775
राश@@ 775
94 774
ol@@ 769
1939 768
ृंख@@ 766
CO@@ 759
ya 755
नाराय@@ 755
1941 748
1937 746
93 746
Y 744
be 743
1900 739
from 738
1919 737
250 736
co@@ 732
web 732
US 731
23@@ 726
id@@ 726
1932 725
ns 725
op@@ 723
ti@@ 723
Z 721
टिश 719
मुरा@@ 719
मति 711
200@@ 709
im@@ 709
one 708
120 706
et@@ 705
st@@ 705
बाव@@ 705
लंका 704
ak@@ 703
सामा@@ 703
ad 701
av@@ 701
ec@@ 701
CA@@ 700
An@@ 698
9,@@ 697
{ 697
पि 694
धानी 692
ology 691
ियान 688
ang@@ 684
age 683
हां 683
oc@@ 681
া@@ 679
Sh@@ 678
ir@@ 678
Al@@ 677
1928 676
आधि@@ 672
la 671
1931 667
ous 667
‎ 666
ated 665
ed@@ 665
1,000 662
1935 658
model 658
201@@ 655
1934 653
£ 653
700 652
0,@@ 651
1921 650
} 650
1924 649
ॅ 648
1918 647
1944 647
हाबाद 647
per@@ 646
समारो@@ 646
Th@@ 645
z@@ 645
dis@@ 644
45@@ 643
संचा@@ 643
1938 642
ex@@ 641
w 636
ath@@ 627
पहा@@ 626
National 624
contributor 621
timestamp 620
5,000 616
Re@@ 616
1943 608
1912 607
`@@ 607
format 607
ik@@ 606
हाला@@ 605
10,000 603
विक@@ 602
SA@@ 600
₹ 599
ay@@ 596
1922 595
1929 595
mer@@ 594
OS 591
− 588
1933 587
se 586
1925 585
2.5 585
username 585
Ro@@ 584
ant 583
qu@@ 582
ॐ 582
1914 580
Ar@@ 579
ite 578
1917 574
India 574
pur 574
तिहासिक 574
1926 571
og@@ 571
कारिक 570
1.5 567
Con@@ 566
con@@ 562
pl@@ 560
Q 556
pr@@ 554
which 549
j 548
mar@@ 546
1927 539
and@@ 535
35@@ 532
ah@@ 529
1908 528
1910 526
ai 526
10.@@ 525
ance 525
· 525
80@@ 521
har@@ 521
ter 520
1905 518
1923 518
ig@@ 518
IN@@ 517
comment 517
di 517
ve 517
IC@@ 516
× 516
1911 515
AT@@ 514
रिके@@ 513
id 512
सील 511
ty 509
ana 508
tic 507
kh@@ 503
z 503
his 501
ence 498
ut@@ 497
ism 496
to@@ 496
1916 494
ations 494
ंतु 494
… 490
In 489
au@@ 489
ऽ@@ 489
DVD 487
NE@@ 487
br@@ 487
od@@ 487
ile 486
बादी 486
als 485
ओल@@ 485
5000 483
bi@@ 483
ory 483
ts 481
ne@@ 480
ure 477
भग 477
US@@ 475
Ph@@ 474
ach@@ 472
ics 472
12.@@ 470
WWE 469
ative 469
Windows 468
J 467
ish@@ 464
MS 462
ळ 462
2,000 461
1915 459
able 459
aw@@ 459
ch 459
11.@@ 456
60@@ 456
par@@ 456
hi@@ 454
mo@@ 454
1906 453
1500 452
AR@@ 452
AD@@ 451
CD@@ 451
180 450
1901 450
he@@ 449
parentid 448
DA 447
Pr@@ 447
Tr@@ 446
aj@@ 446
bo@@ 444
্ 443
AL@@ 442
St@@ 441
160 440
் 436
ari 435
te 435
वज@@ 434
com@@ 433
1904 432
ra 432
se@@ 432
all 431
CH@@ 430
ma 429
ting 429
SO@@ 428
Cl@@ 427
FI@@ 427
Co@@ 426
od 426
1896 424
1909 423
Par@@ 423
1913 421
idi@@ 421
si@@ 420
Microsoft 419
est 418
ons 418
350 417
Man@@ 417
Mar@@ 417
not 417
have 416
ER@@ 415
wiki 415
900 414
RA@@ 414
ov@@ 413
ta 413
UK 411
eg@@ 411
he 409
its 409
ni@@ 409
घोष@@ 409
་ 409
AC 408
NBC 408
tu@@ 408
1907 407
gr@@ 407
no@@ 407
विधान@@ 407
110 405
align 405
Com@@ 404
70@@ 403
ci@@ 401
q 401
चान 401
ob@@ 400
be@@ 399
2.0 398
Bo@@ 398
Per@@ 398
les 398
CI@@ 397
ati@@ 397
130 396
AC@@ 396
1890 395
ment 394
ae 393
ā@@ 393
140 392
Ex@@ 392
has 392
ly 392
me@@ 392
3000 391
AN@@ 391
34@@ 390
sp@@ 390
Kh@@ 387
da 387
108 385
En@@ 385
text 384
अनुसं@@ 384
किलो@@ 383
55@@ 382
TV 382
center 382
ri@@ 382
ver@@ 382
WW@@ 381
Sam@@ 380
name 379
ter@@ 378
----@@ 377
13.@@ 377
also 377
ha 376
3.5 375
1902 374
ST@@ 373
ऊँ 373
ing@@ 372
AT 369
end@@ 368
ans 367
str@@ 367
CD 366
PA 366
hi 366
ho@@ 366
ok@@ 366
Indian 365
BM@@ 364
NA 364
रामी@@ 363
14.@@ 362
1880 361
AM@@ 360
ML 360
MS@@ 360
125 359
AP@@ 358
ऱ 356
Or@@ 355
ata 355
ay 354
pi@@ 354
car@@ 353
tri@@ 352
seau 351
tions 351
man 350
1800 349
1899 349
ent@@ 349
ंख@@ 348
ion 347
na 346
sion 346
os 345
SE@@ 344
do@@ 344
gi@@ 344
tic@@ 344
HT@@ 343
BC 342
codice 341
ha@@ 341
this 340
ess 339
1895 338
Di@@ 338
ted 338
ˈ@@ 338
1903 337
SC 337
ani 337
ol 337
oph@@ 337
ant@@ 336
ens 335
inter@@ 334
1860 333
ari@@ 333
ents 333
1898 332
AS 332
Am@@ 332
Highway 332
ement 332
tical 332
ating 331
1858 330
ep@@ 330
vi@@ 330
ka 329
ist 328
1889 327
22@@ 327
IM@@ 327
elec@@ 327
mon@@ 327
1870 326
a.@@ 326
cr@@ 326
इनल 326
Bar@@ 325
der 325
te@@ 325
AI@@ 324
ak 324
105 323
ain 323
1885 322
33@@ 322
LC 322
ext 322
ge@@ 322
ice 322
101 321
1891 321
TS 321
² 321
1887 320
than 319
MA 318
SA 317
র@@ 317
FC 316
ator 316
BS 315
for@@ 315
ma@@ 315
su@@ 315
hy@@ 314
revision 312
10,@@ 310
can 310
104 309
1897 309
q@@ 309
ti 309
River 308
ra@@ 308
Br@@ 307
CA 307
ages 307
equ@@ 307
ran@@ 307
sub@@ 307
ES@@ 306
system 306
हिए 306
1894 305
Qu@@ 305
ates 305
ta@@ 305
time 305
DP 304
ah 304
eb@@ 304
Ig@@ 303
360 302
ala 302
1888 301
90@@ 301
right 301
1,0@@ 300
ene 300
est@@ 300
ব@@ 300
CS@@ 299
il 299
230 298
ore 298
1882 297
LA 297
ikit@@ 297
pre@@ 297
amp@@ 296
tor 296
Hz 295
ru@@ 295
tics 295
AB@@ 294
36@@ 293
DC 292
MI@@ 292
1886 291
UN@@ 291
ally 291
sc@@ 291
und@@ 291
up@@ 291
war@@ 291
100@@ 289
As 289
ISO 289
Le@@ 289
15.@@ 288
21@@ 288
47@@ 288
Pro@@ 288
action 288
tive 287
1892 286
Car@@ 285
\ 285
dr@@ 285
me 285
16.@@ 284
SP@@ 284
all@@ 284
enti@@ 284
group 284
so@@ 284
102 283
1893 283
Ad@@ 282
MP@@ 282
nam@@ 281
ি@@ 281
AN 280
Me@@ 280
ass@@ 279
their 279
CE 278
Se@@ 278
U.S. 278
pe@@ 278
tric 278
750 277
CP@@ 277
De@@ 277
TA 277
ang 277
ell@@ 277
ue 277
38@@ 276
IP@@ 276
Sp@@ 276
ist@@ 276
Ac@@ 275
^ 275
ind@@ 275
ale 274
ge 274
1884 273
two 273
1200 272
sol@@ 272
Inter@@ 271
duc@@ 271
27.@@ 270
CC@@ 270
Col@@ 270
PC 270
ara 270
fr@@ 269
man@@ 269
ॠ@@ 269
FA 267
col@@ 267
37@@ 266
NH@@ 266
ton 266
more 265
~ 265
ans@@ 264
km 264
450 263
Ab@@ 263
Institute 263
Mah@@ 263
fac@@ 263
ऎ@@ 263
106 262
ere 262
ors 262
1850 261
1881 261
AA 261
ke 261
11,@@ 260
119@@ 260
Ne@@ 260
RE@@ 260
120@@ 259
4000 259
Po@@ 259
were 258
α 258
1867 257
IC 257
SM 257
mi@@ 257
103 256
ings 256
other 256
ie 255
trans@@ 255
18.@@ 254
190@@ 254
ici@@ 254
ick@@ 254
ties 254
ud@@ 254
് 254
ali 253
ks 253
lin@@ 253
1872 252
1876 252
ash@@ 251
eng@@ 251
first 251
number 251
war 251
115 250
but 250
1883 249
RO@@ 249
eh@@ 249
mag@@ 249
170 248
48@@ 248
Raj@@ 248
ou@@ 248
res@@ 248
ug@@ 247
As@@ 246
ann@@ 246
Google 245
MTV 245
hap@@ 245
→ 245
RS 244
This 244
World 244
ase 244
cor@@ 244
had 244
1848 243
1878 243
ea 243
ect 243
used 243
.-@@ 242
109 242
65@@ 242
RI@@ 242
Si@@ 242
uc@@ 242
been 241
1700 240
It 240
ature 240
ot 240
our 240
re 240
yl@@ 240
ম@@ 240
Gr@@ 239
ection 239
1871 238
Mo@@ 238
iti@@ 238
iz@@ 238
ner 238
DS 237
For@@ 237
amb@@ 237
electr@@ 237
ura 237
1865 236
las 236
und 236
21.@@ 235
22.@@ 235
Pal@@ 235
ell 235
go@@ 235
ii 235
low 235
औ 235
S.@@ 234
€ 234
anc@@ 233
yn@@ 233
220 232
PE@@ 232
University 232
1868 231
International 231
Su@@ 231
1861 230
HD 230
az@@ 230
ce 230
em 230
107 229
17.@@ 229
1875 229
fin@@ 229
lu@@ 229
1873 228
Be@@ 228
ev@@ 228
son 228
1877 227
BN 227
CP 227
cre@@ 227
era 226
if@@ 226
్ 226
CE@@ 225
NO@@ 225
SE 224
anti@@ 224
law 224
uk@@ 224
use 224
IP 223
per 223
DNA 222
des 222
ক@@ 222
GB 221
ki 221
126 220
1879 220
Sch@@ 220
ass 220
du 220
gen@@ 220
ual 220
23.@@ 219
int@@ 219
pro@@ 219
sur@@ 219
್ 219
1856 218
320 218
46@@ 218
Cr@@ 218
bit 218
ong@@ 218
oz@@ 218
poem 218
pu@@ 218
who 218
ল@@ 218
1600 217
1859 217
SS 217
land 217
so 217
1830 216
19.@@ 216
Cor@@ 216
EM@@ 216
ane 216
ath 216
mat@@ 216
128 215
1840 215
Un@@ 215
ency 215
ina 215
west 215
56@@ 214
Ge@@ 214
IE@@ 214
ino 214
mas@@ 214
no 214
rom@@ 214
tel@@ 214
ight 213
min@@ 213
114 212
1866 212
2500 212
Elec@@ 212
He@@ 211
gar@@ 211
20.@@ 210
Bi@@ 210
ai@@ 210
ili@@ 210
ong 210
1863 209
ali@@ 209
ver 209
ada 208
form 208
function 208
ian 208
lar@@ 208
out 208
124@@ 207
we@@ 207
া 207
112 206
AP 206
Pat@@ 206
ber@@ 206
44@@ 205
parall@@ 205
Mas@@ 204
ax@@ 204
ets 204
ill@@ 204
हिंद@@ 204
ন 204
43@@ 203
AD 203
Lo@@ 203
ard 203
ds 203
ens@@ 203
gu@@ 203
116 202
122 202
1818 202
25.@@ 202
Dis@@ 202
ess@@ 202
line 202
ऱ@@ 202
॒ 202
12,@@ 201
1854 201
1874 201
Kar@@ 201
Nag@@ 201
cu@@ 201
east 201
her@@ 201
ica 201
li 201
380 200
kar@@ 200
sa 200
190 199
ir 199
value 199
vari@@ 199
111 198
CO 198
ality 198
ists 198
st 198
type 198
BBC 197
CN@@ 197
EC@@ 197
SI 197
atic 197
ib@@ 197
s.@@ 197
ste@@ 197
परी@@ 197
1869 196
49@@ 196
Ap@@ 196
GP@@ 196
rec@@ 196
try 196
124 195
75@@ 195
@ 195
such 195
240 194
CC 194
El@@ 194
New 194
Pl@@ 194
ish 194
ora 194
ə@@ 194
घरेल@@ 194
जूद 194
39@@ 193
NS 193
ace 193
gre@@ 193
ological 193
1815 192
Cal@@ 192
PS 192
Tri@@ 192
log@@ 192
tro@@ 192
un 192
Hy@@ 191
Ma@@ 191
VI 191
ental 191
inc@@ 191
psych@@ 191
they 191
ু@@ 191
Ser@@ 190
TE@@ 190
adi@@ 190
end 190
medi@@ 190
work 190
Bas@@ 189
af@@ 189
ants 189
ning 189
র 189
1864 188
Div@@ 188
cl@@ 188
esh 188
fe@@ 188
ow@@ 188
pp@@ 188
English 187
IT@@ 187
bar@@ 187
energy 187
hu@@ 187
1820 186
He 186
bl@@ 186
ca 186
ther@@ 186
æ@@ 186
SS@@ 185
du@@ 185
into 185
ise 185
ly@@ 185
ms 185
point 185
vol@@ 185
β 185
ॄ@@ 185
117 184
14,@@ 184
II@@ 184
IS 184
do 184
fl@@ 184
over 184
ture 184
ular 184
1855 183
Mon@@ 183
osis 183
up 183
121 182
123 182
650 182
Gu@@ 182
PS@@ 182
Ram@@ 182
between 182
hal@@ 182
om 182
­ 182
118 181
RA 181
Str@@ 181
act 181
ati 181
hai 181
inal 181
ung@@ 181
1803 180
26.@@ 180
aur@@ 180
bu@@ 180
oth@@ 180
pol@@ 180
theory 180
113 179
210 179
Fe@@ 179
Sa@@ 179
ab 179
emati@@ 179
eter 179
eti@@ 179
meth@@ 179
ox@@ 179
ten@@ 179
AF@@ 178
BA 178
IT 178
Im@@ 178
My@@ 178
ain@@ 178
only 178
sa@@ 178
145 177
24.@@ 177
Kal@@ 177
Pan@@ 177
ave 177
produc@@ 177
A.@@ 176
aceae 176
alism 176
dec@@ 176
ins 176
where 176
1400 175
Har@@ 175
Te@@ 175
change 175
cur@@ 175
ey 175
ff@@ 175
language 175
Na@@ 174
ential 174
kr@@ 174
16,@@ 173
1851 173
330 173
ac 173
king 173
yr@@ 173
ে@@ 173
13,@@ 172
550 172
Mal@@ 172
comp@@ 172
idae 172
langu@@ 172
most 172
ne 172
ori@@ 172
pos@@ 172
radi@@ 172
ː@@ 172
1845 171
Fr@@ 171
John 171
Mad@@ 171
Sing@@ 171
left 171
power 171
prot@@ 171
ɪ@@ 171
132 170
1835 170
1853 170
Mag@@ 170
Bal@@ 169
COVID 169
ole 169
que 169
57@@ 168
Er@@ 168
Go@@ 168
H.@@ 168
M.@@ 168
UR@@ 168
` 168
app@@ 168
ding 168
esh@@ 168
ys@@ 168
66@@ 167
RNA 167
ational 167
cap@@ 167
edi@@ 167
ub@@ 167
ve@@ 167
15,@@ 166
NS@@ 166
ation@@ 166
esis 166
met@@ 166
tan@@ 166
tur@@ 166
well 166
118@@ 165
PC@@ 165
XX@@ 165
ba@@ 165
unc@@ 165
will 165
1819 164
Wor@@ 164
ide 164
the@@ 164
স@@ 164
115@@ 163
1817 163
IF@@ 163
dia 163
ek@@ 163
light 163
state 163
au 162
chem@@ 162
den 162
dev@@ 162
ems 162
ome 162
MC 161
United 161
angle 161
colspan 161
set 161
wh@@ 161
ौद 161
॑ 161
দ@@ 161
1843 160
Open 160
Sal@@ 160
TC 160
The@@ 160
ley 160
out@@ 160
pal@@ 160
280 159
Pe@@ 159
Res@@ 159
SI@@ 159
current 159
if 159
sy@@ 159
tor@@ 159
water 159
On 158
PO@@ 158
TP 158
ability 158
arg@@ 158
ble 158
body 158
im 158
life 158
ysis 158
ו@@ 158
att@@ 157
pat@@ 157
SD 156
ies 156
oh@@ 156
π 156
ி@@ 156
abad 155
bers 155
ely 155
may 155
mp@@ 155
́ 155
1847 154
Dr@@ 154
Mor@@ 154
We@@ 154
ales 154
der@@ 154
ean 154
wa 154
127 153
175 153
199@@ 153
67@@ 153
DE@@ 153
GA 153
Sar@@ 153
USA 153
when 153
ா@@ 153
1862 152
270 152
B.@@ 152
SV 152
Sc@@ 152
acle 152
mi 152
ters 152
ন@@ 152
Ver@@ 151
des@@ 151
fi@@ 151
her 151
ome@@ 151
ps 151
red 151
series 151
sive 151
tis 151
wor@@ 151
world 151
ऽ 151
1844 150
ame 150
mor@@ 150
tion@@ 150
1839 149
59@@ 149
Sur@@ 149
mot@@ 149
some 149
י@@ 149
CEO 148
ack@@ 148
aya 148
cat@@ 148
field 148
inf@@ 148
ji 148
tis@@ 148
we 148
17,@@ 147
him 147
la@@ 147
ler 147
oper@@ 147
sec@@ 147
way 147
DR 146
Del@@ 146
Ed@@ 146
Is@@ 146
To@@ 146
ail 146
any 146
force 146
lat@@ 146
ness 146
pen@@ 146
style 146
yp@@ 146
় 146
】 146
1849 145
DI 145
Her@@ 145
Hindi 145
identi@@ 145
igh@@ 145
tra 145
vis@@ 145
Al 144
ach 144
after 144
indi@@ 144
ser@@ 144
【 144
1789 143
1838 143
AV@@ 143
Mac@@ 143
Pol@@ 143
South 143
air@@ 143
iki@@ 143
ng 143
sch@@ 143
ত@@ 143
க@@ 143
53@@ 142
IA 142
Research 142
ade 142
adi 142
differ@@ 142
uri 142
wid@@ 142
152 141
1837 141
American 141
Do@@ 141
RC 141
Rh@@ 141
System 141
ko@@ 141
many 141
order 141
ऩ@@ 141
116@@ 140
1832 140
1842 140
Az@@ 140
Bur@@ 140
Hol@@ 140
LE@@ 140
data 140
ih@@ 140
pur@@ 140
ా@@ 140
155 139
P.@@ 139
So@@ 139
bre@@ 139
fer@@ 139
let@@ 139
nucle@@ 139
1300 138
58@@ 138
Jo@@ 138
UEFA 138
aus@@ 138
cer@@ 138
1801 137
1805 137
260 137
68@@ 137
Ag@@ 137
Ca@@ 137
ME@@ 137
Mc@@ 137
Trans@@ 137
air 137
ame@@ 137
cel@@ 137
ke@@ 137
rel@@ 137
same 137
spec@@ 137
´ 137
119 136
129 136
For 136
Sol@@ 136
TV@@ 136
flu@@ 136
ft 136
ker 136
mu@@ 136
reg@@ 136
sw@@ 136
tre@@ 136
ī@@ 136
Kan@@ 135
YouTube 135
arm@@ 135
arr@@ 135
gener@@ 135
ids 135
mm 135
och@@ 135
oid 135
title 135
इंजी@@ 135
यादा@@ 135
ர@@ 135
Act 134
Arch@@ 134
First 134
Mot@@ 134
Ni@@ 134
RT@@ 134
ap 134
ast@@ 134
dh@@ 134
eli@@ 134
por@@ 134
1824 133
3D 133
Hu@@ 133
cy@@ 133
iy@@ 133
loc@@ 133
non 133
pedi@@ 133
tim@@ 133
য 133
1846 132
AF 132
about 132
ater 132
ni 132
ri 132
ung 132
vo@@ 132
ো@@ 132
ABC 131
CN 131
Kr@@ 131
Mus@@ 131
day 131
els 131
tom@@ 131
॓ 131
Group 130
IBM 130
IG@@ 130
Indi@@ 130
arch 130
coun@@ 130
hr@@ 130
ip@@ 130
ography 130
1799 129
1833 129
1841 129
D. 129
IO@@ 129
Prot@@ 129
Ur@@ 129
bul@@ 129
can@@ 129
eff@@ 129
ena 129
fo@@ 129
int 129
people 129
phys@@ 129
val@@ 129
AB 128
Des@@ 128
La 128
Lee 128
ake 128
ast 128
formation 128
mod@@ 128
ond@@ 128
press@@ 128
tional 128
tiv@@ 128
tors 128
under 128
1826 127
23,@@ 127
AG 127
AL 127
Gar@@ 127
Ho@@ 127
Pre@@ 127
based 127
cell@@ 127
color 127
fil@@ 127
put 127
ster 127
through 127
IB@@ 126
atom@@ 126
cul@@ 126
eth@@ 126
fol@@ 126
hat@@ 126
ini 126
pe 126
rati@@ 126
ym@@ 126
नशिप 126
0s 125
1806 125
1814 125
At@@ 125
FO@@ 125
MO@@ 125
Mul@@ 125
ars 125
bil@@ 125
called 125
form@@ 125
like 125
three 125
117@@ 124
18,@@ 124
Ber@@ 124
Em@@ 124
Gen@@ 124
Technology 124
const@@ 124
ements 124
known 124
lam@@ 124
mal@@ 124
our@@ 124
वजन@@ 124
Dev@@ 123
acc@@ 123
ick 123
net@@ 123
not@@ 123
process 123
second 123
º 123
Mi@@ 122
back 122
circu@@ 122
det@@ 122
ee 122
ines 122
ire 122
num@@ 122
pa 122
there 122
ves 122
would 122
1852 121
Eng@@ 121
Li@@ 121
MP 121
Mer@@ 121
act@@ 121
ever 121
ides 121
onom@@ 121
1825 120
Min@@ 120
Pi@@ 120
ao 120
ard@@ 120
def@@ 120
ep 120
istic 120
ium 120
ok 120
ote 120
Av@@ 119
Pakistan 119
Val@@ 119
ards 119
box 119
cal@@ 119
cop@@ 119
dic@@ 119
inn@@ 119
very 119
yc@@ 119
′ 119
1793 118
AR 118
Can@@ 118
LO@@ 118
agr@@ 118
ani@@ 118
each 118
ey@@ 118
film 118
ization 118
mun@@ 118
plas@@ 118
sel@@ 118
tar@@ 118
ulation 118
ye 118
½ 118
1834 117
EE 117
IX 117
San 117
gro@@ 117
ling 117
ples 117
ying 117
த@@ 117
1836 116
An 116
Corporation 116
Hor@@ 116
No@@ 116
Sim@@ 116
har 116
micro@@ 116
new 116
public@@ 116
sti@@ 116
ర@@ 116
bir@@ 115
kar 115
phot@@ 115
qui@@ 115
် 115
20,@@ 114
Gal@@ 114
Publ@@ 114
Vol@@ 114
ear@@ 114
ects 114
ng@@ 114
oma 114
partic@@ 114
sk@@ 114
super@@ 114
syn@@ 114
é 114
আ@@ 114
1821 113
1831 113
Fl@@ 113
Long@@ 113
PR@@ 113
acy 113
ae@@ 113
ail@@ 113
ama 113
atr@@ 113
ats 113
both 113
distance 113
ial 113
lock 113
ough 113
sin@@ 113
va 113
yst@@ 113
প@@ 113
114@@ 112
1792 112
1829 112
99@@ 112
Au@@ 112
DE 112
EC 112
Rec@@ 112
State 112
art 112
common 112
during 112
gl@@ 112
DV@@ 111
Fre@@ 111
Inc. 111
San@@ 111
Sec@@ 111
chi@@ 111
cs 111
imp@@ 111
net 111
ode 111
these 111
19,@@ 110
EN@@ 110
Plan@@ 110
Tar@@ 110
bel@@ 110
cal 110
enc@@ 110
func@@ 110
hin@@ 110
ki@@ 110
less 110
onal 110
ories 110
ota 110
pres@@ 110
sung 110
tes 110
BI 109
BO@@ 109
CBS 109
Last 109
M. 109
XI 109
co 109
isi@@ 109
led 109
ones 109
then 109
ush@@ 109
ר@@ 109
ــ@@ 109
● 109
1804 108
1827 108
1828 108
Apple 108
Bor@@ 108
Hal@@ 108
Iglesia 108
Sub@@ 108
alg@@ 108
cin@@ 108
complex 108
ective 108
erg@@ 108
hol@@ 108
news 108
nm 108
oni@@ 108
tal@@ 108
using 108
verse 108
1812 107
Categ@@ 107
Char@@ 107
Fin@@ 107
Gl@@ 107
R.@@ 107
code 107
contr@@ 107
include 107
io 107
ko 107
meas@@ 107
pan@@ 107
peri@@ 107
year 107
σ 107
1823 106
BT 106
Ta@@ 106
Temple 106
Ter@@ 106
VI@@ 106
ech 106
fication 106
gan@@ 106
rot@@ 106
sil@@ 106
tw@@ 106
± 106
ு@@ 106
1816 105
Nar@@ 105
Sony 105
States 105
Vis@@ 105
anth@@ 105
crip@@ 105
ek 105
ger@@ 105
ineering 105
mol@@ 105
neg@@ 105
over@@ 105
oy@@ 105
phy@@ 105
side 105
জ@@ 105
1790 104
1798 104
Bel@@ 104
College 104
GM 104
Gi@@ 104
Khan 104
ML@@ 104
One 104
ected 104
ef@@ 104
eral 104
ern@@ 104
esc@@ 104
key 104
ku@@ 104
mis@@ 104
rit@@ 104
son@@ 104
ه@@ 104
হ@@ 104
ಾ@@ 104
Ban@@ 103
Cy@@ 103
Es@@ 103
Fo@@ 103
RT 103
ba 103
ce@@ 103
ella 103
exp@@ 103
fied 103
map@@ 103
pul@@ 103
top 103
ua 103
view 103
yan@@ 103
years 103
� 103
22,@@ 102
C. 102
E. 102
LP 102
Lang@@ 102
North 102
Vi@@ 102
ax 102
del 102
fa@@ 102
ging 102
inde@@ 102
ins@@ 102
ita 102
old 102
ov 102
period 102
south 102
vir@@ 102
ō@@ 102
بن 102
ਾ@@ 102
193@@ 101
195@@ 101
area 101
bor@@ 101
cont@@ 101
ema 101
ful 101
high 101
ich@@ 101
lab@@ 101
my 101
north 101
olog@@ 101
ren@@ 101
wat@@ 101
￼ 101
196@@ 100
Association 100
J. 100
Met@@ 100
ber 100
bin@@ 100
ez@@ 100
ogen@@ 100
si 100
sions 100
tem@@ 100
til@@ 100
ാ@@ 100
1795 99
By 99
Cat@@ 99
Central 99
Mu@@ 99
Tam@@ 99
Techn@@ 99
VII 99
Web 99
XX 99
atis@@ 99
bas@@ 99
bri@@ 99
cript 99
han@@ 99
ich 99
off 99
pot@@ 99
113@@ 98
179@@ 98
All 98
CS 98
I.@@ 98
Leg@@ 98
Rel@@ 98
Tur@@ 98
ash 98
cri@@ 98
dom@@ 98
ese 98
lan@@ 98
oll@@ 98
ry 98
sen@@ 98
sym@@ 98
under@@ 98
192@@ 97
Lin@@ 97
PP@@ 97
SR 97
Shar@@ 97
Society 97
bal@@ 97
bon 97
das 97
hav@@ 97
list 97
lor@@ 97
stat@@ 97
une 97
unit 97
ut 97
θ 97
1802 96
Cap@@ 96
Co 96
EP 96
Fi@@ 96
Medi@@ 96
amm@@ 96
bur@@ 96
ces 96
cine 96
del@@ 96
dy 96
them 96
HC 95
HP 95
Nu@@ 95
Sw@@ 95
asp@@ 95
cos@@ 95
han 95
mer 95
minor 95
plan@@ 95
port 95
sig@@ 95
ம@@ 95
1822 94
Op@@ 94
School 94
T. 94
dem@@ 94
ero 94
ga 94
hor@@ 94
ments 94
obj@@ 94
place 94
ts@@ 94
ల@@ 94
ರ@@ 94
25,@@ 93
Ke@@ 93
Mur@@ 93
Reg@@ 93
Syst@@ 93
aci@@ 93
ato 93
atus 93
cell 93
err@@ 93
made 93
ock 93
ord@@ 93
osa 93
poly@@ 93
position 93
systems 93
za 93
γ 93
हमे@@ 93
Ben@@ 92
Council 92
DO@@ 92
Development 92
Great 92
Kum@@ 92
New@@ 92
R. 92
Social 92
Tel@@ 92
ays 92
book 92
bus@@ 92
fre@@ 92
neur@@ 92
ods 92
ope 92
ster@@ 92
techn@@ 92
ules 92
una 92
« 92
ح@@ 92
1st 91
26,@@ 91
E.@@ 91
EU 91
S. 91
Tal@@ 91
William 91
acid 91
asa 91
chi 91
district 91
eter@@ 91
ju@@ 91
kin@@ 91
oo 91
op 91
osph@@ 91
sam@@ 91
shi@@ 91
table 91
tural 91
ution 91
wn 91
AE@@ 90
Ak@@ 90
Company 90
FIFA 90
Kor@@ 90
Sah@@ 90
Sy@@ 90
defin@@ 90
frequ@@ 90
low@@ 90
men 90
ona 90
section 90
temper@@ 90
wan@@ 90
ऋ 90
.C. 89
1813 89
24,@@ 89
Bl@@ 89
Moh@@ 89
SN@@ 89
Sil@@ 89
Tit@@ 89
being 89
cas@@ 89
conduc@@ 89
enn@@ 89
row 89
ses 89
sho@@ 89
version 89
yo@@ 89
ి@@ 89
B. 88
Cer@@ 88
General 88
Ma 88
Mes@@ 88
Ra@@ 88
emb@@ 88
ences 88
eph@@ 88
given 88
hom@@ 88
iri 88
ista 88
math@@ 88
mechan@@ 88
my@@ 88
ner@@ 88
nom@@ 88
part 88
self 88
umin@@ 88
ures 88
א@@ 88
ச@@ 88
ക@@ 88
AG@@ 87
Cur@@ 87
K. 87
Nav@@ 87
Por@@ 87
Pres@@ 87
Red@@ 87
Science 87
Ste@@ 87
Ther@@ 87
Ti@@ 87
West 87
alis 87
anal@@ 87
development 87
emp@@ 87
ety 87
km2 87
nav@@ 87
rd 87
sed 87
ume 87
ী 87
ப@@ 87
1807 86
1809 86
Aj@@ 86
Ind@@ 86
London 86
Pur@@ 86
asi@@ 86
company 86
dar 86
example 86
following 86
gen 86
ill 86
ital 86
ites 86
ja 86
mit@@ 86
ola 86
quar@@ 86
ro 86
struc@@ 86
tag@@ 86
tt@@ 86
ute 86
ऴ 86
ॊ 86
ા@@ 86
ར@@ 86
1810 85
Chinese 85
Mak@@ 85
TH@@ 85
ack 85
class 85
ease 85
eme 85
esti@@ 85
ide@@ 85
long@@ 85
odi@@ 85
ple@@ 85
rap@@ 85
space 85
tel 85
tha 85
ved 85
while 85
ys 85
ਸ@@ 85
194@@ 84
Det@@ 84
Gan@@ 84
History 84
Linux 84
Loc@@ 84
Mand@@ 84
Tor@@ 84
Year 84
ace@@ 84
anti 84
aria 84
cir@@ 84
conn@@ 84
integr@@ 84
ority 84
play 84
real 84
27,@@ 83
Ang@@ 83
C.@@ 83
Econom@@ 83
Ha@@ 83
LG@@ 83
Mach@@ 83
NBA 83
Organ@@ 83
Psych@@ 83
Union 83
adr@@ 83
af 83
bes 83
cho@@ 83
cle 83
edral 83
effect 83
later 83
leg@@ 83
line@@ 83
mal 83
orr@@ 83
resist@@ 83
sup@@ 83
ula 83
ye@@ 83
you 83
á@@ 83
í@@ 83
■ 83
East 82
Industri@@ 82
Je@@ 82
Life 82
P. 82
Tre@@ 82
UTC 82
den@@ 82
ders 82
free 82
human 82
kg 82
long 82
phase 82
plat@@ 82
plic@@ 82
small 82
soci@@ 82
ven@@ 82
শ@@ 82
1791 81
1794 81
Book 81
China 81
War@@ 81
aph@@ 81
base 81
blo@@ 81
dig@@ 81
gas 81
istr@@ 81
ited 81
ius 81
ler@@ 81
mus@@ 81
near 81
of@@ 81
organ@@ 81
quanti@@ 81
sem@@ 81
surface 81
tern@@ 81
É@@ 81
ɛ@@ 81
μ@@ 81
দ 81
৷ 81
2nd 80
Agr@@ 80
Air 80
Ba@@ 80
Cro@@ 80
Day 80
Dec@@ 80
FM 80
Health 80
High 80
Ko@@ 80
Law 80
Mos@@ 80
Pri@@ 80
Pun@@ 80
ables 80
alp@@ 80
conver@@ 80
entr@@ 80
ery 80
graph@@ 80
hum@@ 80
ika 80
imb@@ 80
liter@@ 80
main 80
ols 80
ond 80
prim@@ 80
public 80
ust 80
ā 80
ਰ@@ 80
வ@@ 80
Bir@@ 79
Cent@@ 79
Int@@ 79
James 79
King 79
Ul@@ 79
Yam@@ 79
You 79
active 79
aka 79
aliz@@ 79
ams 79
arp@@ 79
city 79
cle@@ 79
cyc@@ 79
ensis 79
gh@@ 79
lied 79
mac@@ 79
men@@ 79
nu@@ 79
onic 79
ـ@@ 79
গ@@ 79
ര@@ 79
198@@ 78
21,@@ 78
Black 78
Def@@ 78
Gre@@ 78
Music 78
Oc@@ 78
Pak@@ 78
Santa 78
UC@@ 78
Uni@@ 78
Wh@@ 78
anga 78
aves 78
century 78
control 78
eign 78
eo 78
even 78
has@@ 78
ills 78
ith 78
kal@@ 78
mel@@ 78
off@@ 78
pel@@ 78
science 78
sin 78
source 78
stor@@ 78
urity 78
yg@@ 78
yth@@ 78
ਿ@@ 78
ി@@ 78
Hel@@ 77
Hon@@ 77
Island 77
Kam@@ 77
Kingdom 77
Ran@@ 77
anda 77
ano 77
case 77
char@@ 77
different 77
eri@@ 77
eta 77
illa 77
ney 77
ে 77
180@@ 76
Bud@@ 76
Cas@@ 76
DF 76
FF 76
Far@@ 76
H. 76
On@@ 76
Ros@@ 76
Vir@@ 76
Web@@ 76
aff@@ 76
comm@@ 76
down 76
ect@@ 76
face 76
found 76
hab@@ 76
ida 76
ingu@@ 76
lig@@ 76
mission 76
oa 76
page 76
prob@@ 76
ship 76
sing@@ 76
social 76
sources 76
tron@@ 76
ul 76
vec@@ 76
ه 76
চ@@ 76
Bah@@ 75
Ga@@ 75
Math@@ 75
Net@@ 75
Nor@@ 75
ators 75
bs 75
estr@@ 75
iss@@ 75
ized 75
kan@@ 75
lie 75
mit 75
ply 75
uv@@ 75
win@@ 75
wing 75
» 75
ō 75
ū@@ 75
מ@@ 75
ང 75
At 74
Cre@@ 74
NAS@@ 74
Tun@@ 74
Wi@@ 74
aha 74
ban@@ 74
cycle 74
ded 74
ices 74
ine@@ 74
itu@@ 74
lear@@ 74
pedia 74
pha 74
sim@@ 74
spir@@ 74
ten 74
ze 74
ə 74
ऍ 74
ன 74
ు@@ 74
ོ@@ 74
1797 73
1808 73
Chi@@ 73
Foundation 73
George 73
Hin@@ 73
Mel@@ 73
Pen@@ 73
Power 73
Sat@@ 73
To 73
ark@@ 73
eri 73
ew@@ 73
family 73
idea 73
ision 73
land@@ 73
mtDNA 73
points 73
return 73
standard 73
tec@@ 73
uz@@ 73
ward 73
word 73
é@@ 73
ী@@ 73
Da@@ 72
Egyp@@ 72
GT 72
Medical 72
Ren@@ 72
Sir 72
Sir@@ 72
ange 72
background 72
dition 72
eau 72
g. 72
head 72
hyp@@ 72
information 72
inv@@ 72
mem@@ 72
ori 72
region 72
spo@@ 72
uru 72
الله 72
ি 72
ಿ@@ 72
Comm@@ 71
David 71
GC 71
Gh@@ 71
Space 71
aining 71
ais@@ 71
andi@@ 71
aries 71
don 71
ering 71
fic 71
ger 71
ham@@ 71
hat 71
lo 71
mul@@ 71
multi@@ 71
now 71
other@@ 71
tin 71
ues 71
ó@@ 71
ب@@ 71
ত 71
Bre@@ 70
Centre 70
Chil@@ 70
Is 70
Nap@@ 70
Pas@@ 70
Pu@@ 70
Robert 70
She@@ 70
Vo@@ 70
Wil@@ 70
Wild@@ 70
alme 70
bro@@ 70
gam@@ 70
icul@@ 70
kno@@ 70
mach@@ 70
mes@@ 70
nch@@ 70
nit@@ 70
ose 70
river 70
sen 70
single 70
those 70
thr@@ 70
tit@@ 70
ury 70
---- 69
Cop@@ 69
District 69
Du@@ 69
Earth 69
Fe 69
House 69
However 69
Jag@@ 69
Man 69
Mil@@ 69
N. 69
TO@@ 69
aj 69
alls 69
cep@@ 69
ech@@ 69
econom@@ 69
eth 69
gal@@ 69
ila 69
isa 69
level 69
orph@@ 69
pin@@ 69
proper@@ 69
rul@@ 69
run 69
star 69
uch@@ 69
ה@@ 69
س@@ 69
محمد 69
‚ 69
Bag@@ 68
List 68
No 68
Sab@@ 68
See 68
coll@@ 68
egr@@ 68
emia 68
ended 68
go 68
hydro@@ 68
ign@@ 68
ils 68
ked 68
lar 68
ligence 68
mah@@ 68
proc@@ 68
ros@@ 68
sal@@ 68
test@@ 68
trav@@ 68
trol@@ 68
uk 68
umb@@ 68
uses 68
ving 68
wan 68
ن@@ 68
য@@ 68
Cam@@ 67
Cav@@ 67
City 67
Dr. 67
Kol@@ 67
Mat@@ 67
Office 67
Park 67
Soci@@ 67
Some 67
before 67
cular 67
dens@@ 67
don@@ 67
dra@@ 67
ently 67
ket 67
los@@ 67
much 67
nu 67
ots 67
ree 67
test 67
tra@@ 67
what 67
د 67
सनिक 67
మ@@ 67
မ@@ 67
.S. 66
AK@@ 66
Charles 66
Cu@@ 66
England 66
Le 66
Ob@@ 66
Plus 66
Sel@@ 66
Sen@@ 66
Ven@@ 66
aja 66
alli 66
eva 66
fund@@ 66
hiv@@ 66
ion@@ 66
ker@@ 66
ny@@ 66
ont@@ 66
opo@@ 66
ordin@@ 66
pap@@ 66
ple 66
present 66
ray 66
ret@@ 66
she 66
wal@@ 66
wer@@ 66
ē@@ 66
β@@ 66
Bu@@ 65
Cir@@ 65
Han@@ 65
Kat@@ 65
Live 65
Ltd 65
Pro 65
Service 65
ained 65
calcul@@ 65
centr@@ 65
get 65
ham 65
hem@@ 65
hindi 65
how 65
inst@@ 65
lands 65
ld@@ 65
mann 65
med@@ 65
pi 65
political 65
rac@@ 65
sing 65
ther 65
tho@@ 65
uni@@ 65
van@@ 65
vel@@ 65
1811 64
Army 64
Bil@@ 64
D.@@ 64
French 64
Human 64
Jum@@ 64
She 64
Syn@@ 64
These 64
Var@@ 64
apo@@ 64
art@@ 64
bac@@ 64
cog@@ 64
dri@@ 64
enz@@ 64
eum 64
history 64
ities 64
nor@@ 64
ologies 64
tia 64
unds 64
wer 64
م 64
ऑ 64
ऩ 64
ৰ@@ 64
ಕ@@ 64
‏ 64
Ash@@ 63
Bul@@ 63
Code 63
Direc@@ 63
Global 63
Joseph 63
Name 63
Natur@@ 63
Network 63
Phone 63
Republic 63
Sav@@ 63
Sea 63
Sm@@ 63
Sul@@ 63
Tir@@ 63
above 63
ading 63
ains 63
bit@@ 63
could 63
cro@@ 63
dit 63
fal@@ 63
ights 63
ira 63
ishing 63
je@@ 63
lem 63
let 63
ligh@@ 63
lim@@ 63
major 63
mm@@ 63
mo 63
music 63
mut@@ 63
nam 63
refl@@ 63
theor@@ 63
ust@@ 63
wr@@ 63
ב@@ 63
ל@@ 63
वसीय 63
ল 63
ు 63
197@@ 62
App@@ 62
Center 62
Fil@@ 62
His 62
Kur@@ 62
Lad@@ 62
Pap@@ 62
Play@@ 62
Ri@@ 62
Road 62
Sum@@ 62
Time 62
Tro@@ 62
anim@@ 62
charge 62
che 62
embran@@ 62
endra 62
ense 62
ford 62
four 62
house 62
ik 62
ks@@ 62
large 62
les@@ 62
mov@@ 62
often 62
oti@@ 62
pression 62
prop@@ 62
result 62
sian 62
spe@@ 62
sson 62
tar 62
tures 62
vi 62
xi@@ 62
і@@ 62
ر@@ 62
ു@@ 62
Comput@@ 61
Hem@@ 61
Out@@ 61
Pot@@ 61
Red 61
There 61
actions 61
activ@@ 61
another 61
ava 61
bert 61
books 61
ck 61
come 61
due 61
eds 61
elle 61
eus 61
fier 61
great 61
ically 61
ima 61
imal 61
ington 61
oli 61
ost 61
ost@@ 61
ou 61
positive 61
prec@@ 61
ris@@ 61
run@@ 61
see 61
several 61
since 61
uter 61
vention 61
village 61
ville 61
ways 61
wo@@ 61
ī 61
ɑ@@ 61
ي 61
ి 61
― 61
Dar@@ 60
De 60
European 60
Fer@@ 60
Government 60
Ir@@ 60
Liber@@ 60
Limited 60
Me 60
Micro@@ 60
Phys@@ 60
Poli@@ 60
Sk@@ 60
USD 60
VIII 60
War 60
ag 60
ami 60
anus 60
ayan 60
bot@@ 60
cli@@ 60
continu@@ 60
ges 60
government 60
home 60
ie@@ 60
indic@@ 60
international 60
ised 60
itor 60
kl@@ 60
lion 60
ogr@@ 60
own 60
plac@@ 60
put@@ 60
reduc@@ 60
site 60
tain 60
total 60
urn@@ 60
whe@@ 60
works 60
yl 60
، 60
د@@ 60
ऒ@@ 60
ੰ@@ 60
ం@@ 60
త@@ 60
Aer@@ 59
Amaz@@ 59
Aut@@ 59
Bad@@ 59
Chem@@ 59
Commission 59
Ford 59
From 59
G. 59
Ger@@ 59
Lab@@ 59
March 59
Mem@@ 59
Ori@@ 59
Sem@@ 59
Sho@@ 59
T.@@ 59
White 59
XVI 59
alm@@ 59
atur@@ 59
because 59
country 59
dimen@@ 59
door 59
eas@@ 59
ello 59
general 59
ike 59
ition 59
material 59
org@@ 59
pa@@ 59
phone 59
propor@@ 59
scope 59
structure 59
ude 59
uli@@ 59
vent@@ 59
yan 59
َ@@ 59
188@@ 58
British 58
Gor@@ 58
K.@@ 58
Ki@@ 58
Ru@@ 58
Sci@@ 58
Sha@@ 58
Thomas 58
aft 58
agon 58
alist 58
anced 58
around 58
bat@@ 58
bol 58
bon@@ 58
cus 58
direc@@ 58
early 58
etes 58
ext@@ 58
final 58
fu@@ 58
including 58
mental 58
non@@ 58
oil 58
open 58
ords 58
rate 58
research 58
software 58
ush 58
yu 58
മ@@ 58
★ 58
America 57
Astr@@ 57
Bab@@ 57
Coll@@ 57
Education 57
June 57
Med@@ 57
Media 57
Mov@@ 57
ON@@ 57
Pa@@ 57
Paul 57
Ty@@ 57
W. 57
absor@@ 57
adv@@ 57
aga 57
asi 57
bai 57
compar@@ 57
compon@@ 57
fiel@@ 57
ith@@ 57
ix 57
ket@@ 57
kho@@ 57
ky 57
last 57
must 57
natural 57
occ@@ 57
rop@@ 57
serv@@ 57
should 57
thi 57
tronic 57
won 57
ws 57
ਨ@@ 57
ட@@ 57
ల 57
Airport 56
Dig@@ 56
Force 56
Games 56
Maj@@ 56
Mir@@ 56
Mob@@ 56
Public 56
Pul@@ 56
Rom@@ 56
Wal@@ 56
aa 56
against 56
ances 56
anci@@ 56
aun@@ 56
black 56
com 56
diff@@ 56
dir 56
direct 56
educ@@ 56
ev 56
ff 56
forces 56
industry 56
instrum@@ 56
jo@@ 56
modern 56
onlyinclude 56
oth 56
production 56
rem@@ 56
rup@@ 56
states 56
sul@@ 56
tan 56
ton@@ 56
var@@ 56
vers@@ 56
without 56
zi@@ 56
ʲ@@ 56
ز@@ 56
ِ@@ 56
रारं@@ 56
ਹ@@ 56
క@@ 56
ಮ@@ 56
Blo@@ 55
Business 55
Facebook 55
Green 55
Hum@@ 55
Hydro@@ 55
Kot@@ 55
L. 55
Mac 55
Management 55
My 55
Off@@ 55
Poly@@ 55
Series 55
Sour@@ 55
andi 55
any@@ 55
asis 55
atory 55
ault 55
berg 55
combin@@ 55
course 55
din 55
education 55
eng 55
ference 55
gency 55
hand@@ 55
head@@ 55
him@@ 55
itation 55
lum 55
mati@@ 55
ment@@ 55
published 55
range 55
resp@@ 55
sit@@ 55
species 55
teri@@ 55
term 55
tric@@ 55
was@@ 55
zo@@ 55
م@@ 55
୍ 55
న@@ 55
བ@@ 55
August 54
Bang@@ 54
Bay 54
Bro@@ 54
Cin@@ 54
F. 54
Gener@@ 54
If 54
Long 54
Meth@@ 54
NASA 54
Num@@ 54
Philos@@ 54
Royal 54
Super@@ 54
Western 54
acter@@ 54
ana@@ 54
ania 54
assi@@ 54
bank 54
cm 54
dium 54
ered 54
ex 54
forms 54
ged 54
grap@@ 54
hydr@@ 54
media 54
nature 54
oke 54
others 54
person@@ 54
pic@@ 54
princip@@ 54
recogni@@ 54
san@@ 54
sar@@ 54
sm@@ 54
trac@@ 54
vers 54
win 54
women 54
à@@ 54
ان 54
ش@@ 54
ক 54
ம 54
ல@@ 54
ས@@ 54
ṭ@@ 54
All@@ 53
April 53
Eur@@ 53
I. 53
Jean 53
Kin@@ 53
Kon@@ 53
La@@ 53
Lam@@ 53
Middle 53
Nam@@ 53
Project 53
Records 53
Region 53
Sin@@ 53
Son@@ 53
Sto@@ 53
Studi@@ 53
Sud@@ 53
Sun@@ 53
Tak@@ 53
V. 53
Wo@@ 53
Xi@@ 53
autom@@ 53
bar 53
ching 53
cip@@ 53
cross 53
ett@@ 53
expres@@ 53
fle@@ 53
fore 53
gs 53
ico 53
ili 53
ji@@ 53
lob@@ 53
mb@@ 53
mil@@ 53
nic@@ 53
path@@ 53
property 53
pus 53
sional 53
stage 53
team 53
terms 53
times 53
zed 53
æ 53
ð 53
ָ@@ 53
ة 53
મ@@ 53
ய@@ 53
గ@@ 53
ನ@@ 53
Academy 52
Court 52
Dom@@ 52
Edward 52
France 52
Ker@@ 52
Lake 52
Other 52
Standard 52
VA 52
Wy@@ 52
ads 52
among 52
ands 52
coordin@@ 52
cut@@ 52
environ@@ 52
fix@@ 52
gas@@ 52
had@@ 52
lines 52
lip@@ 52
mos@@ 52
oni 52
operation 52
port@@ 52
represent@@ 52
said 52
sor@@ 52
stone 52
subst@@ 52
support 52
sus 52
tam@@ 52
uli 52
worth 52
¤ 52
§ 52
â@@ 52
ð@@ 52
ε 52
ος 52
ج@@ 52
ప@@ 52
ག@@ 52
″ 52
Baz@@ 51
CF 51
Cel@@ 51
Dy@@ 51
Fac@@ 51
Hind@@ 51
July 51
Kas@@ 51
L.@@ 51
Lu@@ 51
Na 51
Os@@ 51
Sad@@ 51
Shi@@ 51
Tem@@ 51
XIV 51
XV 51
abl@@ 51
ago 51
ait 51
average 51
best 51
ches 51
core 51
divid@@ 51
doc@@ 51
ebo@@ 51
ebr@@ 51
eded 51
ette 51
hur@@ 51
ison 51
make 51
metal 51
obi@@ 51
ons@@ 51
osp@@ 51
parti@@ 51
philosoph@@ 51
pil@@ 51
sine 51
specific 51
sum@@ 51
tab@@ 51
territ@@ 51
tly 51
tran@@ 51
vas@@ 51
wood 51
ْ@@ 51
ম 51
ਮ@@ 51
√ 51
▪ 51
189@@ 50
Ah@@ 50
Bank 50
Bol@@ 50
Commun@@ 50
Dur@@ 50
Internet 50
Kir@@ 50
Ly@@ 50
Orig@@ 50
Pad@@ 50
Sciences 50
Super 50
alan 50
aring 50
awa 50
back@@ 50
cha 50
chan@@ 50
charg@@ 50
dar@@ 50
determin@@ 50
did 50
die 50
ete 50
features 50
ground 50
important 50
mid@@ 50
nec@@ 50
new@@ 50
phon@@ 50
pose 50
process@@ 50
rut@@ 50
sequ@@ 50
sh 50
short 50
star@@ 50
tica 50
ule 50
von 50
zy@@ 50
ك@@ 50
ل@@ 50
ى 50
ধ@@ 50
ভ@@ 50
ವ@@ 50
184@@ 49
Ali 49
Android 49
Ann@@ 49
Anti@@ 49
Bak@@ 49
Canada 49
German 49
Gro@@ 49
Ham@@ 49
Hun@@ 49
Inv@@ 49
Jam@@ 49
Jan@@ 49
Kad@@ 49
Lak@@ 49
Land 49
October 49
Of 49
Old 49
amin@@ 49
dat@@ 49
double 49
dy@@ 49
ending 49
fa 49
fact 49
fas@@ 49
fir@@ 49
grav@@ 49
inae 49
ished 49
law@@ 49
lay@@ 49
lia 49
mak@@ 49
na@@ 49
numer@@ 49
orial 49
oto 49
programm@@ 49
second@@ 49
square 49
stell@@ 49
study 49
tun@@ 49
verte@@ 49
vid@@ 49
white 49
І 49
נ@@ 49
दूस@@ 49
ಿ 49
ು@@ 49
വ@@ 49
ས 49
း@@ 49
Board 48
Ci@@ 48
Eth@@ 48
Gur@@ 48
Henry 48
Jur@@ 48
Station 48
Win@@ 48
accoun@@ 48
ancy 48
ather 48
aul@@ 48
cum@@ 48
ein@@ 48
eli 48
ends 48
enth@@ 48
esses 48
get@@ 48
half 48
hand 48
hip 48
ier 48
ight@@ 48
iliz@@ 48
image 48
kum@@ 48
lic@@ 48
lim 48
ls 48
mad@@ 48
mir 48
ned 48
onia 48
optera 48
ort 48
ron@@ 48
stati@@ 48
tain@@ 48
tern 48
third 48
ths 48
ty@@ 48
ulus 48
ump@@ 48
án 48
ω 48
ּ@@ 48
ੀ 48
ி 48
జ@@ 48
ိ@@ 48
ြ@@ 48
Chap@@ 47
January 47
Jer@@ 47
Ka@@ 47
Louis 47
Men@@ 47
NAT@@ 47
Sid@@ 47
Sudan 47
Tan@@ 47
Ten@@ 47
Tu@@ 47
Vari@@ 47
When 47
Yah@@ 47
ampli@@ 47
ask@@ 47
below 47
bi 47
born 47
business 47
capac@@ 47
cav@@ 47
concentr@@ 47
conserv@@ 47
curr@@ 47
cus@@ 47
dex 47
dist@@ 47
e. 47
equival@@ 47
ert 47
flo@@ 47
food 47
gi 47
ider@@ 47
ime 47
iti 47
lam 47
ners 47
ograph@@ 47
original 47
phil@@ 47
shar@@ 47
stein 47
take 47
tol@@ 47
took 47
trol 47
uma 47
van 47
vey 47
ɔ@@ 47
ɡ@@ 47
ʁ@@ 47
Δ 47
י 47
ོ 47
20th 46
After 46
Asia 46
Coun@@ 46
Ku@@ 46
Library 46
People 46
Progr@@ 46
Ret@@ 46
Services 46
Sym@@ 46
VP 46
Wiki@@ 46
Ze@@ 46
aji 46
amo@@ 46
article 46
board 46
bridge 46
cent@@ 46
consist@@ 46
dle 46
dyn@@ 46
eding 46
having 46
len@@ 46
management 46
million 46
mir@@ 46
motor 46
nh@@ 46
onn@@ 46
ony 46
pole 46
pon@@ 46
population 46
quot 46
sil 46
syl@@ 46
transl@@ 46
ud 46
unger 46
urs 46
versi@@ 46
vil 46
à 46
ع@@ 46
नवं@@ 46
ॿ@@ 46
ਤ@@ 46
ர 46
ಂ@@ 46
ུ@@ 46
185@@ 45
Ari@@ 45
Church 45
Dor@@ 45
Ferr@@ 45
Fu@@ 45
God 45
Him@@ 45
Kun@@ 45
Lord 45
Mun@@ 45
Od@@ 45
Richard 45
Vill@@ 45
York 45
acts 45
andra 45
az 45
design 45
ector 45
ement@@ 45
engine 45
esp@@ 45
full 45
geb@@ 45
hel@@ 45
ho 45
idge 45
ior 45
itch 45
lem@@ 45
national 45
oks 45
ram@@ 45
refer@@ 45
reser@@ 45
suff@@ 45
thus 45
tom 45
trade 45
ural 45
vely 45
vul@@ 45
wide 45
within 45
ʊ@@ 45
α@@ 45
области 45
ש@@ 45
و 45
ং@@ 45
వ@@ 45
Air@@ 44
Award 44
Bos@@ 44
Comp@@ 44
Dal@@ 44
Dan@@ 44
El 44
Four@@ 44
Journal 44
Lar@@ 44
Les 44
Mol@@ 44
Not@@ 44
Nov@@ 44
Ny@@ 44
Sag@@ 44
Sri 44
aching 44
aging 44
ais 44
astr@@ 44
by@@ 44
ece 44
ein 44
ela 44
ests 44
event 44
ident 44
ific@@ 44
ign 44
imm@@ 44
lag@@ 44
length 44
liz@@ 44
match 44
observ@@ 44
ographi@@ 44
ous@@ 44
pas@@ 44
possible 44
proj@@ 44
sign@@ 44
size 44
tains 44
tex@@ 44
tile 44
titu@@ 44
tro 44
uy@@ 44
ze@@ 44
è@@ 44
ה 44
ال@@ 44
শ 44
ਜ@@ 44
ದ@@ 44
≤ 44
大@@ 44
Ay@@ 43
Beng@@ 43
Bet@@ 43
Department 43
End 43
Hi@@ 43
Il@@ 43
María 43
May 43
Milit@@ 43
Ner@@ 43
Neur@@ 43
Radi@@ 43
Rah@@ 43
Rat@@ 43
They 43
Tim@@ 43
Tot@@ 43
Tw@@ 43
Wrest@@ 43
arc@@ 43
ases 43
certain 43
cial 43
cos 43
countries 43
da@@ 43
does 43
dor@@ 43
drome 43
dur@@ 43
edom 43
ele 43
ez 43
former 43
hard 43
hot@@ 43
ict 43
ille 43
independent 43
integ@@ 43
late 43
lot 43
modi@@ 43
par 43
play@@ 43
pri@@ 43
requ@@ 43
scre@@ 43
stand@@ 43
story 43
thi@@ 43
tig@@ 43
tory 43
until 43
urg@@ 43
vis 43
wall 43
written 43
ö@@ 43
ƒ 43
ɾ@@ 43
ʃ@@ 43
ְ@@ 43
ನ 43
പ@@ 43
င 43
↑ 43
Ali@@ 42
And 42
Aqu@@ 42
Bat@@ 42
Bot@@ 42
DJ 42
Division 42
Grand 42
Id@@ 42
Kus@@ 42
Malaysia 42
May@@ 42
News 42
Paris 42
Post 42
Star@@ 42
Tran@@ 42
XII 42
acu@@ 42
aki 42
auth@@ 42
became 42
bile 42
ca@@ 42
cher 42
cit@@ 42
date 42
deriv@@ 42
dies 42
eld 42
gn@@ 42
good 42
groups 42
health 42
ize 42
jo 42
lead 42
ledge 42
lev@@ 42
lis 42
local 42
lower 42
making 42
mark 42
mom@@ 42
neutr@@ 42
oppos@@ 42
part@@ 42
pend@@ 42
post 42
sar 42
school 42
su 42
sus@@ 42
units 42
vin@@ 42
wil@@ 42
Ú@@ 42
ː 42
Δ@@ 42
μ 42
ת 42
། 42
Art 41
Arthur 41
Ball@@ 41
Big 41
Blue 41
Eu@@ 41
F.@@ 41
Hus@@ 41
Mang@@ 41
Many 41
Max@@ 41
Nations 41
Plat@@ 41
Prim@@ 41
September 41
Stu@@ 41
Tol@@ 41
Two 41
Vel@@ 41
ably 41
abol@@ 41
alb@@ 41
appro@@ 41
band 41
broad@@ 41
circul@@ 41
cla@@ 41
compos@@ 41
eci@@ 41
elling 41
eps 41
films 41
materi@@ 41
now@@ 41
ought 41
placement 41
ports 41
sal 41
scienti@@ 41
service 41
unda 41
utive 41
vin 41
writ@@ 41
yon@@ 41
á 41
ç@@ 41
ا 41
را@@ 41
ي@@ 41
య@@ 41
ా 41
Bin@@ 40
Deb@@ 40
Free 40
Ju@@ 40
Kap@@ 40
Korea 40
Liter@@ 40
NCAA 40
Pay@@ 40
Point 40
Produc@@ 40
Ray@@ 40
Rev@@ 40
agre@@ 40
ami@@ 40
apar@@ 40
arian 40
aud@@ 40
bra 40
children 40
considered 40
constitu@@ 40
culture 40
dro@@ 40
dynam@@ 40
enta 40
enter@@ 40
gang@@ 40
iner@@ 40
inj@@ 40
ip 40
isch@@ 40
ka@@ 40
ogen 40
osh@@ 40
oy 40
parts 40
po 40
pper 40
print 40
pros@@ 40
rea 40
record 40
round 40
s. 40
show 40
station 40
still 40
tour@@ 40
va@@ 40
virtu@@ 40
ó 40
φ 40
н@@ 40
ִ@@ 40
ד@@ 40
َّ@@ 40
विपरी@@ 40
প 40
ਾ 40
ന@@ 40
ി 40
ု@@ 40
≥ 40
Af@@ 39
Arab@@ 39
Bon@@ 39
By@@ 39
Cul@@ 39
Dic@@ 39
Fal@@ 39
Kn@@ 39
Ky@@ 39
Let@@ 39
Lev@@ 39
Lim@@ 39
Mich@@ 39
Mod@@ 39
Revolution 39
Saf@@ 39
Sak@@ 39
Sand@@ 39
Second 39
Spe@@ 39
Tag@@ 39
Vid@@ 39
actor 39
ado 39
aly@@ 39
arrang@@ 39
bran@@ 39
cot@@ 39
division 39
eling 39
every 39
few 39
fis@@ 39
guit@@ 39
held 39
ibn 39
iger 39
isation 39
jan@@ 39
ken 39
las@@ 39
manufactur@@ 39
market 39
means 39
min 39
multiple 39
olo@@ 39
omi 39
outh 39
pass@@ 39
results 39
span 39
tre 39
ven 39
weight 39
yi 39
ʒ@@ 39
ق@@ 39
ফ@@ 39
વ@@ 39
ு 39
ം 39
ത@@ 39
ല@@ 39
ན 39
្ 39
Anth@@ 38
Best 38
Boy@@ 38
But@@ 38
Cant@@ 38
Committee 38
FL 38
Gir@@ 38
Gul@@ 38
Leon@@ 38
Meg@@ 38
Moun@@ 38
Peter 38
Pin@@ 38
Rap@@ 38
Sn@@ 38
Software 38
Su 38
Wat@@ 38
Zo@@ 38
aer@@ 38
aning 38
ape 38
approxim@@ 38
aqu@@ 38
asc@@ 38
ason 38
ately 38
bus 38
compl@@ 38
cons@@ 38
days 38
depend@@ 38
dial 38
div@@ 38
ei 38
ells 38
exist@@ 38
expos@@ 38
father 38
fe 38
foc@@ 38
hara 38
hard@@ 38
ht 38
icus 38
iki 38
intern@@ 38
ister 38
kam 38
kat@@ 38
lead@@ 38
mand@@ 38
military 38
mix@@ 38
nati@@ 38
nel 38
network 38
ova 38
person 38
prof@@ 38
quot@@ 38
released 38
religious 38
sat@@ 38
say@@ 38
shire 38
six 38
speed 38
sun@@ 38
tle 38
tu 38
udi@@ 38
unter 38
vic@@ 38
vie@@ 38
zu 38
ø@@ 38
ś@@ 38
δ 38
ف@@ 38
ৰ 38
ା@@ 38
ರ 38
≡ 38
Bod@@ 37
Bom@@ 37
Cle@@ 37
December 37
Fort 37
Gun@@ 37
Hill 37
Hir@@ 37
Independ@@ 37
J.@@ 37
Kab@@ 37
Lat@@ 37
Log@@ 37
Lor@@ 37
Love 37
Mic@@ 37
November 37
Ox@@ 37
Pic@@ 37
Princip@@ 37
Rem@@ 37
Special 37
Star 37
Vik@@ 37
Vit@@ 37
We 37
addition 37
alt@@ 37
alter@@ 37
amount 37
ander 37
atives 37
ave@@ 37
built 37
carri@@ 37
economic 37
edit@@ 37
ega 37
ener@@ 37
exper@@ 37
extr@@ 37
game 37
gir@@ 37
higher 37
included 37
institu@@ 37
kin 37
kn@@ 37
lati@@ 37
lies 37
lin 37
ops 37
otr@@ 37
oty@@ 37
phyl@@ 37
pig@@ 37
provid@@ 37
py@@ 37
related 37
rent 37
sea 37
separ@@ 37
sex 37
sid@@ 37
speci@@ 37
stre@@ 37
tang@@ 37
tered 37
thing 37
thor@@ 37
tiz@@ 37
var 37
voc@@ 37
wi@@ 37
wrote 37
Ω 37
ρ 37
ς 37
ן 37
ِ 37
ॾ@@ 37
த 37
ே@@ 37
ర 37
ന 37
ေ@@ 37
Cass@@ 36
Civil 36
Dem@@ 36
Den@@ 36
Doc@@ 36
Lib@@ 36
Lon@@ 36
Mari@@ 36
Martin 36
Most 36
Mut@@ 36
NFL 36
Ple@@ 36
Rol@@ 36
Saint 36
Sun 36
Sup@@ 36
Tom@@ 36
Wel@@ 36
Women 36
Young 36
absol@@ 36
access 36
ache 36
agin@@ 36
analy@@ 36
avi 36
away 36
bed 36
cause 36
child 36
cru@@ 36
ening 36
enty 36
eti 36
exec@@ 36
experim@@ 36
far 36
fer 36
fic@@ 36
five 36
formed 36
gia 36
haw@@ 36
ief 36
inga 36
ische 36
just 36
k.@@ 36
kara 36
mus 36
named 36
native 36
plant 36
ref@@ 36
repe@@ 36
revol@@ 36
started 36
tak@@ 36
tera 36
top@@ 36
tournament 36
towards 36
usi@@ 36
whose 36
ya@@ 36
yn 36
® 36
³ 36
è 36
ér@@ 36
ˌ@@ 36
λ 36
ν 36
פ@@ 36
ن 36
ট@@ 36
ਦ@@ 36
མ@@ 36
ာ@@ 36
ー@@ 36
￸ 36
187@@ 35
According 35
Amp@@ 35
Ath@@ 35
Band@@ 35
California 35
Contin@@ 35
Die 35
Ev@@ 35
Gam@@ 35
Gran@@ 35
Hil@@ 35
Hom@@ 35
Java 35
Kos@@ 35
League 35
Population 35
President 35
Railway 35
Som@@ 35
Sus@@ 35
Tab@@ 35
Tex@@ 35
ado@@ 35
aking 35
alia 35
aling 35
alog@@ 35
along 35
ause 35
bah@@ 35
basis 35
blu@@ 35
bol@@ 35
but@@ 35
chen 35
conf@@ 35
dom 35
erry 35
eur 35
fel@@ 35
figure 35
ges@@ 35
hen@@ 35
ider 35
ied 35
inger 35
ising 35
kil@@ 35
kul@@ 35
mail 35
normal 35
oli@@ 35
omer@@ 35
oral 35
ord 35
ough@@ 35
ously 35
ow 35
pler 35
poli@@ 35
popular 35
primary 35
produced 35
ras@@ 35
rather 35
result@@ 35
saf@@ 35
sag@@ 35
set@@ 35
sky 35
start 35
tac@@ 35
tam 35
temple 35
tin@@ 35
unter@@ 35
uth 35
veloc@@ 35
wth 35
yo 35
µ@@ 35
خ@@ 35
ਰ 35
ર@@ 35
ି@@ 35
க 35
ಗ@@ 35
ಸ@@ 35
0.000 34
Battle 34
Chief 34
Country 34
Der@@ 34
Digital 34
Dipl@@ 34
Extr@@ 34
Fox 34
Gas@@ 34
Hard@@ 34
Hat@@ 34
Ji@@ 34
Land@@ 34
Line 34
Liv@@ 34
Mount 34
Order 34
Rud@@ 34
Rus@@ 34
Sher@@ 34
So 34
St. 34
Territ@@ 34
Valley 34
Vas@@ 34
aba 34
again 34
ails 34
alli@@ 34
anz@@ 34
architecture 34
areas 34
artic@@ 34
aster@@ 34
ats@@ 34
become 34
bos@@ 34
ces@@ 34
character@@ 34
ched 34
chin@@ 34
dre@@ 34
estim@@ 34
eu@@ 34
expan@@ 34
fish 34
hak@@ 34
hiz@@ 34
intel@@ 34
intr@@ 34
itage 34
lit 34
living 34
lus@@ 34
migr@@ 34
nas@@ 34
nj@@ 34
opter@@ 34
oria 34
orient@@ 34
patr@@ 34
physi@@ 34
played 34
regul@@ 34
ring 34
rol@@ 34
similar 34
spr@@ 34
tif@@ 34
tus 34
ulu 34
wa@@ 34
yal@@ 34
yel@@ 34
ysi@@ 34
zz@@ 34
عبد 34
യ@@ 34
က@@ 34
Africa 33
Arc@@ 33
Autom@@ 33
Bec@@ 33
Beg@@ 33
Chr@@ 33
Christian 33
Dam@@ 33
Ele@@ 33
Ep@@ 33
Europe 33
February 33
Film 33
Fol@@ 33
Fran@@ 33
Ful@@ 33
Hans 33
Home 33
Hospital 33
Ja@@ 33
Mary 33
Mis@@ 33
Museum 33
Nas@@ 33
Navy 33
Oper@@ 33
Rad@@ 33
Sev@@ 33
Si 33
Spir@@ 33
Trich@@ 33
Vic@@ 33
Video 33
Whit@@ 33
XIX 33
aborat@@ 33
across 33
ades 33
age@@ 33
agn@@ 33
airs 33
aman@@ 33
animal 33
anta 33
appar@@ 33
aris 33
avi@@ 33
bin 33
changes 33
ci 33
corpor@@ 33
distribution 33
eing 33
ept@@ 33
esia 33
eur@@ 33
ffer@@ 33
fos@@ 33
gence 33
govern@@ 33
help 33
high@@ 33
hil@@ 33
histor@@ 33
however 33
hun@@ 33
interest 33
invol@@ 33
itz 33
kers 33
kw@@ 33
lah 33
legal 33
lit@@ 33
mani 33
mic@@ 33
mid 33
model@@ 33
moment 33
nar@@ 33
oud 33
para 33
pay@@ 33
runs 33
simple 33
sl@@ 33
solution 33
sometimes 33
standing 33
taken 33
tary 33
tes@@ 33
town 33
transfer 33
udi 33
uh@@ 33
uni 33
val 33
via 33
viol@@ 33
wel@@ 33
ע@@ 33
ار@@ 33
ب 33
و@@ 33
ی@@ 33
۝ 33
ਕ@@ 33
ਗ@@ 33
ਲ@@ 33
ತ@@ 33
ර@@ 33
ྱ@@ 33
ရ@@ 33
⁄ 33
1,2 32
Ach@@ 32
Arm@@ 32
Buil@@ 32
Cos@@ 32
Diam@@ 32
Entertainment 32
Es 32
Forest 32
Juan 32
Kel@@ 32
Key@@ 32
Major 32
Mont@@ 32
Nik@@ 32
Obj@@ 32
Party 32
Phil@@ 32
Prin@@ 32
Refer@@ 32
Tas@@ 32
Tul@@ 32
Um@@ 32
XIII 32
abr@@ 32
aces 32
agu@@ 32
amar@@ 32
aw 32
bat 32
bes@@ 32
big 32
capital 32
concept 32
cut 32
dam@@ 32
degree 32
dep@@ 32
direction 32
diz@@ 32
domin@@ 32
dres@@ 32
dru@@ 32
ectiv@@ 32
either 32
expression 32
fall 32
front 32
further 32
fus@@ 32
gene 32
hir@@ 32
increase 32
isions 32
iting 32
ive 32
jus@@ 32
ku 32
main@@ 32
maxim@@ 32
member 32
names 32
onal@@ 32
personal 32
pet@@ 32
plus 32
received 32
rel 32
resol@@ 32
rig@@ 32
running 32
ser 32
services 32
sound 32
spre@@ 32
squ@@ 32
streng@@ 32
thought 32
today 32
usion 32
volume 32
wers 32
writing 32
yle 32
zone 32
š@@ 32
р 32
ަ@@ 32
খ@@ 32
ன@@ 32
ద@@ 32
ಲ@@ 32
් 32
ད@@ 32
Administration 31
Am 31
Audi@@ 31
Bac@@ 31
Congress 31
Da 31
Dav@@ 31
Exper@@ 31
Fa@@ 31
Fat@@ 31
Federation 31
Gramm@@ 31
Kak@@ 31
Law@@ 31
Les@@ 31
Little 31
Map@@ 31
Nati@@ 31
No. 31
Pass@@ 31
Ped@@ 31
Pir@@ 31
Press 31
Proj@@ 31
Shak@@ 31
Since 31
Sof@@ 31
Spr@@ 31
Times 31
Van 31
Vil@@ 31
Wa@@ 31
Wol@@ 31
Ye@@ 31
You@@ 31
aca 31
academ@@ 31
aff 31
ald 31
alis@@ 31
aller 31
ample 31
announced 31
aran 31
ares 31
aro@@ 31
ate@@ 31
attack 31
auto@@ 31
bal 31
ble@@ 31
cam@@ 31
canc@@ 31
central 31
cou@@ 31
dale 31
developed 31
eb 31
edi 31
edy 31
eman 31
etr@@ 31
evidence 31
evol@@ 31
female 31
follow@@ 31
gar 31
ier@@ 31
ij@@ 31
iled 31
iment 31
incre@@ 31
ink 31
iss 31
ived 31
kon@@ 31
lad@@ 31
lan 31
largest 31
little 31
live 31
night 31
ograp@@ 31
onda 31
organiz@@ 31
orig@@ 31
performance 31
race 31
radio 31
rain 31
ran 31
relation 31
rest 31
rid@@ 31
rights 31
say 31
shows 31
significant 31
treat@@ 31
upon 31
usually 31
uti@@ 31
vision 31
working 31
ão 31
ée 31
й 31
р@@ 31
ַ@@ 31
ם 31
ॲ@@ 31
অ@@ 31
ব 31
ਪ@@ 31
ର@@ 31
ல 31
డ@@ 31
ಪ@@ 31
ು 31
† 31
Abr@@ 30
Back@@ 30
Beh@@ 30
Cham@@ 30
Din@@ 30
Ec@@ 30
Fem@@ 30
Fir@@ 30
Go 30
Inf@@ 30
Lap@@ 30
Lot@@ 30
Mik@@ 30
Nic@@ 30
Post@@ 30
Rich@@ 30
Rock 30
Sap@@ 30
Sor@@ 30
Ster@@ 30
Tow@@ 30
Up@@ 30
Vin@@ 30
What 30
achi 30
acqu@@ 30
ader 30
adu@@ 30
aged 30
alit@@ 30
alized 30
alu@@ 30
amba 30
ament 30
asing 30
assemb@@ 30
aus 30
better 30
bury 30
care 30
cath@@ 30
composed 30
develop@@ 30
did@@ 30
dir@@ 30
dol@@ 30
election 30
established 30
far@@ 30
fem@@ 30
found@@ 30
give 30
hon@@ 30
ications 30
iler 30
instead 30
isti@@ 30
kur@@ 30
larger 30
lier 30
ling@@ 30
list@@ 30
located 30
loss 30
members 30
meter 30
monum@@ 30
move 30
nd@@ 30
nis 30
omb@@ 30
ony@@ 30
operations 30
ores 30
orum 30
pad@@ 30
phi@@ 30
positi@@ 30
post@@ 30
prin@@ 30
propag@@ 30
prov@@ 30
que@@ 30
respon@@ 30
seen 30
seven 30
status 30
ston 30
sts 30
suc@@ 30
tal 30
tend@@ 30
tou@@ 30
tz 30
uf@@ 30
valu@@ 30
ves@@ 30
virus 30
voir 30
¾ 30
ñ@@ 30
γ@@ 30
в@@ 30
л@@ 30
خان 30
ر 30
چ@@ 30
ু 30
ବ@@ 30
ந@@ 30
ோ@@ 30
ತ 30
മ 30
Alexander 29
Au 29
Bay@@ 29
Bruno 29
Cot@@ 29
Cri@@ 29
Dro@@ 29
Dum@@ 29
Est@@ 29
Fel@@ 29
Festival 29
Frederick 29
Fur@@ 29
Gol@@ 29
Greek 29
Hay@@ 29
Lac@@ 29
Light 29
Luc@@ 29
Modern 29
More 29
Organisation 29
Priv@@ 29
Py@@ 29
Roman 29
Russian 29
Sou@@ 29
Tech@@ 29
Terr@@ 29
Zh@@ 29
aker 29
although 29
amber 29
anese 29
award 29
aye 29
ball 29
began 29
bo 29
building 29
came 29
caus@@ 29
clim@@ 29
complete 29
declar@@ 29
eer 29
eh 29
ej@@ 29
employ@@ 29
esa 29
famous 29
gau@@ 29
greg@@ 29
hir 29
illi@@ 29
ito 29
journ@@ 29
lang 29
lec@@ 29
lers 29
los 29
lost 29
medical 29
mill@@ 29
moun@@ 29
movement 29
never 29
official 29
okia 29
opp@@ 29
pers 29
probl@@ 29
rak@@ 29
reci@@ 29
relationship 29
rey 29
sou@@ 29
tax@@ 29
together 29
trad@@ 29
typ@@ 29
uj@@ 29
unt 29
various 29
wealth 29
Ü@@ 29
í 29
λ@@ 29
ον 29
о@@ 29
স 29
ಯ@@ 29
ത 29
ེ@@ 29
ྲ@@ 29
186@@ 28
Arg@@ 28
Arts 28
Aur@@ 28
Billboard 28
Dol@@ 28
Ear@@ 28
God@@ 28
Had@@ 28
Imp@@ 28
Lep@@ 28
Main 28
Max 28
Mess@@ 28
Mid@@ 28
North@@ 28
Now 28
Pand@@ 28
PlayStation 28
Prof@@ 28
Rak@@ 28
Sac@@ 28
Strat@@ 28
Street 28
Termin@@ 28
Tib@@ 28
Van@@ 28
Vie@@ 28
Washington 28
anger 28
ante 28
astronom@@ 28
aut@@ 28
bad@@ 28
bloc@@ 28
bot 28
che@@ 28
clus@@ 28
concre@@ 28
consum@@ 28
crick@@ 28
death 28
digital 28
docum@@ 28
down@@ 28
eck 28
ei@@ 28
ente 28
entum 28
ested 28
exten@@ 28
financial 28
fri@@ 28
fur@@ 28
gave 28
harmon@@ 28
haus@@ 28
influ@@ 28
inten@@ 28
ions 28
irs 28
iser 28
isher 28
ives 28
jan 28
jur@@ 28
loss@@ 28
mark@@ 28
office 28
olar 28
once 28
orer 28
pag@@ 28
perf@@ 28
ping 28
pun@@ 28
radic@@ 28
rep@@ 28
ru 28
ry@@ 28
sab@@ 28
seg@@ 28
sis 28
ski 28
som@@ 28
stan@@ 28
strong 28
studies 28
sub 28
teen 28
termin@@ 28
tri 28
ui@@ 28
ular@@ 28
ution@@ 28
venti@@ 28
ween 28
yap@@ 28
¿ 28
ç 28
ü@@ 28
ɪ 28
ֹ@@ 28
כ@@ 28
এ@@ 28
ਵ@@ 28
ੋ@@ 28
ે 28
ந 28
ూ@@ 28
ె@@ 28
ད 28
≈ 28
ン@@ 28
本@@ 28
Acc@@ 27
Asian 27
Associ@@ 27
Australian 27
Awards 27
Beach 27
Bis@@ 27
Cath@@ 27
Club 27
Conference 27
Early 27
Era 27
Family 27
Germany 27
GmbH 27
Gold@@ 27
High@@ 27
Iron 27
Islam@@ 27
Jacques 27
Japanese 27
Kit@@ 27
Later 27
Nep@@ 27
Ol@@ 27
Pav@@ 27
Rab@@ 27
Real 27
Rot@@ 27
Smith 27
Southern 27
Sph@@ 27
acks 27
ady 27
agon@@ 27
aham 27
ames 27
anna 27
appe@@ 27
apr@@ 27
atri@@ 27
attemp@@ 27
ayed 27
benef@@ 27
bet@@ 27
bic@@ 27
cast 27
chron@@ 27
college 27
confl@@ 27
conv@@ 27
court 27
covered 27
dae 27
dal@@ 27
defe@@ 27
diver@@ 27
eda 27
ef 27
especially 27
fif@@ 27
figur@@ 27
formes 27
frac@@ 27
gold 27
gradu@@ 27
haz@@ 27
hr 27
ible 27
ily 27
independ@@ 27
ino@@ 27
inus 27
ird 27
itself 27
ju 27
least 27
limited 27
lon 27
love 27
mine 27
mother 27
moved 27
neum@@ 27
oda 27
olf 27
omy@@ 27
param@@ 27
pped 27
prom@@ 27
publ@@ 27
regular 27
relations 27
ric@@ 27
saw 27
sector 27
semi 27
sha 27
sion@@ 27
sort 27
tas@@ 27
though 27
thre@@ 27
trop@@ 27
turn 27
volution 27
wala 27
wi 27
ww@@ 27
yet 27
¥ 27
º@@ 27
Ð 27
ã@@ 27
ū 27
ν@@ 27
а@@ 27
н 27
ص@@ 27
من 27
ی 27
ंपरिक 27
ऴ@@ 27
ॐ@@ 27
ড 27
ੀ@@ 27
ட 27
ற@@ 27
ದ 27
ೆ 27
ೆ@@ 27
ೇ@@ 27
േ@@ 27
མ 27
Antar@@ 26
Bran@@ 26
Camp@@ 26
Centr@@ 26
Chal@@ 26
Christ@@ 26
Christi@@ 26
Culture 26
Dow@@ 26
Emp@@ 26
François 26
Hall 26
Hand@@ 26
Hung@@ 26
Juli@@ 26
Li 26
Michael 26
Muhammad 26
Ot@@ 26
Pierre 26
Pyr@@ 26
Roh@@ 26
Shel@@ 26
Stan@@ 26
Stand@@ 26
Tax@@ 26
Tradi@@ 26
Type 26
XVII 26
abe 26
abi 26
ager 26
agog@@ 26
ativ@@ 26
augh@@ 26
available 26
beau@@ 26
break 26
burg 26
cent 26
consci@@ 26
cour@@ 26
cover@@ 26
day@@ 26
died 26
dio 26
done 26
eller 26
eria 26
ership 26
essor 26
eye 26
farm@@ 26
fig@@ 26
fire 26
gin 26
got 26
hip@@ 26
hist@@ 26
igu@@ 26
includes 26
ism@@ 26
ister@@ 26
itter 26
kins 26
lag 26
lang@@ 26
lery 26
liv@@ 26
location 26
mess@@ 26
oms 26
orb@@ 26
organis@@ 26
outside 26
placed 26
press 26
project 26
ques 26
rat 26
rh@@ 26
rier 26
rock 26
sac@@ 26
sak@@ 26
sav@@ 26
sens@@ 26
sey 26
some@@ 26
themselves 26
too 26
training 26
tribut@@ 26
ums 26
use@@ 26
uss@@ 26
ustry 26
vet 26
wed 26
with@@ 26
yon 26
zi 26
ε@@ 26
в 26
ա@@ 26
ط@@ 26
ّ@@ 26
گ@@ 26
ই@@ 26
ঙ 26
ੁ@@ 26
્ 26
ை@@ 26
స@@ 26
ക 26
ട@@ 26
ག 26
ི@@ 26
日@@ 26
Aff@@ 25
Bill 25
Blan@@ 25
Bow@@ 25
Championships 25
Cher@@ 25
Conn@@ 25
Design 25
Enter@@ 25
Friedrich 25
Game 25
Gaz@@ 25
Harry 25
Ide@@ 25
Jak@@ 25
Japan 25
Jud@@ 25
Kath@@ 25
Kom@@ 25
Kul@@ 25
Lag@@ 25
Mars 25
Mill@@ 25
Mission 25
Mr@@ 25
Nah@@ 25
Northern 25
Pep@@ 25
Pon@@ 25
Radio 25
Ras@@ 25
Reser@@ 25
Run@@ 25
SG 25
Sig@@ 25
Story 25
Tap@@ 25
Three 25
Twitter 25
USS 25
Way 25
While 25
Who 25
XVIII 25
Yel@@ 25
acial 25
acquired 25
ague 25
ahi 25
anded 25
arily 25
army 25
arti@@ 25
asia 25
associated 25
aug@@ 25
ban 25
ben@@ 25
bles 25
buil@@ 25
celebr@@ 25
cher@@ 25
civil 25
clo@@ 25
correspond@@ 25
dan 25
desp@@ 25
dil@@ 25
distinc@@ 25
eck@@ 25
ecture 25
elimin@@ 25
ender 25
enia 25
excep@@ 25
fan 25
fort 25
generally 25
global 25
himself 25
hold 25
hood 25
ided 25
igh 25
illed 25
initi@@ 25
iro 25
jar@@ 25
libr@@ 25
m. 25
mar 25
mode 25
money 25
oga 25
onder@@ 25
ophyl@@ 25
ored 25
park 25
plex 25
program 25
pron@@ 25
ps@@ 25
ras 25
rid 25
ron 25
season 25
servat@@ 25
sibil@@ 25
stitu@@ 25
stock 25
tari@@ 25
there@@ 25
tradition 25
tum@@ 25
ult@@ 25
union 25
urg 25
uri@@ 25
video 25
writer 25
÷ 25
ζ 25
اس@@ 25
الر@@ 25
الم@@ 25
۔ 25
উ@@ 25
ਬ@@ 25
ી 25
ે@@ 25
క 25
ಕ 25
འ@@ 25
ལ 25
ྫ@@ 25
တ@@ 25
ḍ@@ 25
Ale@@ 24
Another 24
Ass@@ 24
Assembly 24
Australia 24
Bau@@ 24
Bern@@ 24
Black@@ 24
Broad@@ 24
Cab@@ 24
Canadian 24
Che@@ 24
Coast 24
Dak@@ 24
Don@@ 24
Down 24
Empire 24
Et@@ 24
Express 24
Fri@@ 24
Gem@@ 24
Gold 24
Good 24
Gra@@ 24
Head 24
Islands 24
Lan@@ 24
Lav@@ 24
Meh@@ 24
Men 24
Mit@@ 24
Model 24
Neg@@ 24
Night 24
Olympic 24
Om@@ 24
Pacific 24
Parti@@ 24
Person@@ 24
Pho@@ 24
Phoen@@ 24
Queen 24
Sant@@ 24
Shir@@ 24
Show 24
Shu@@ 24
Sound 24
Studio 24
Ton@@ 24
Top@@ 24
Toy@@ 24
Universal 24
Wilhelm 24
With 24
abil@@ 24
agent 24
alt 24
ased 24
aster 24
author 24
begin 24
cases 24
categ@@ 24
chang@@ 24
characters 24
communication 24
contin@@ 24
craft 24
cription 24
currently 24
ember 24
emer@@ 24
enced 24
enci@@ 24
enna 24
enni@@ 24
establ@@ 24
eval 24
fit 24
folia 24
forced 24
friend 24
hibi@@ 24
hier@@ 24
hours 24
ido 24
illing 24
illy 24
inform@@ 24
itz@@ 24
lif@@ 24
mas 24
months 24
next 24
ody 24
oon 24
osaur@@ 24
ostr@@ 24
particular 24
pes 24
plann@@ 24
player 24
polog@@ 24
power@@ 24
pre 24
produce 24
religion 24
res 24
rich@@ 24
rif@@ 24
room 24
ror 24
sah@@ 24
sexual 24
sible 24
sist@@ 24
ski@@ 24
special 24
thy 24
trag@@ 24
tropical 24
unique 24
uta 24
vent 24
wards 24
week 24
yak@@ 24
yal 24
¸ 24
ô@@ 24
ł@@ 24
̃ 24
ק@@ 24
ار 24
الح@@ 24
الن@@ 24
ان@@ 24
ُ 24
संबर 24
ণ 24
ূ@@ 24
ੱ@@ 24
ମ@@ 24
ெ@@ 24
ை 24
న 24
ා@@ 24
ි@@ 24
ེ 24
ា@@ 24
█ 24
19th 23
ATP 23
Ai 23
Alfred 23
Bish@@ 23
Bridge 23
Bus@@ 23
Chin@@ 23
Cho@@ 23
Conserv@@ 23
Cup 23
Dead 23
Don 23
Dre@@ 23
Educ@@ 23
Eff@@ 23
Emer@@ 23
Field 23
Francis 23
Golden 23
Green@@ 23
Hai 23
Has@@ 23
Hip@@ 23
Histor@@ 23
Instrum@@ 23
Jos@@ 23
Karl 23
Mr. 23
Nad@@ 23
Ng@@ 23
Oxford 23
Pear@@ 23
Plan 23
Prince 23
Rob@@ 23
Sau@@ 23
Sl@@ 23
Square 23
That 23
acher 23
addi@@ 23
ador 23
amer@@ 23
ann 23
ardo 23
ator@@ 23
aut 23
bab@@ 23
bad 23
bud@@ 23
card 23
cia 23
conc@@ 23
construc@@ 23
contribu@@ 23
cord 23
cost 23
created 23
dea 23
dered 23
descri@@ 23
dis 23
edr@@ 23
eins 23
elli 23
embr@@ 23
enes 23
enge 23
ensi@@ 23
ensive 23
entation 23
ento 23
ept 23
flav@@ 23
gol@@ 23
gun 23
ican 23
igg@@ 23
ild 23
ilia 23
ilities 23
isi 23
isol@@ 23
king@@ 23
kor@@ 23
lak@@ 23
leading 23
lik@@ 23
lip 23
luk 23
mai 23
minim@@ 23
mis 23
nik@@ 23
offic@@ 23
oi 23
oking 23
otom@@ 23
ped 23
ped@@ 23
pendi@@ 23
por 23
rang@@ 23
rest@@ 23
road 23
roc@@ 23
sam 23
sites 23
sour@@ 23
tai 23
tice 23
tras@@ 23
ui 23
unk@@ 23
usa 23
yar@@ 23
young 23
zen 23
zer 23
¨ 23
ás@@ 23
č@@ 23
ē 23
ŋ@@ 23
˚ 23
ל 23
أ@@ 23
أبو 23
اب@@ 23
الع@@ 23
ث@@ 23
ح 23
علی 23
ف 23
مو@@ 23
ঁ@@ 23
ન@@ 23
ா 23
ಡ@@ 23
ಶ@@ 23
ള@@ 23
ར 23
ྒ@@ 23
သ@@ 23
္ 23
ṇ@@ 23
↓ 23
李@@ 23
Apo@@ 22
Austr@@ 22
Bapti@@ 22
Bell 22
Brit@@ 22
Carl 22
Concep@@ 22
Cru@@ 22
Dun@@ 22
Eli@@ 22
Ing@@ 22
Its 22
Jan 22
Johann 22
Main@@ 22
Maur@@ 22
NGC 22
Nat@@ 22
Operation 22
Pel@@ 22
Pil@@ 22
Port 22
Swe@@ 22
Taylor 22
Thom@@ 22
Up 22
Wis@@ 22
added 22
additional 22
aim@@ 22
alan@@ 22
alar@@ 22
angi 22
antage 22
apa 22
application 22
atmos@@ 22
awali 22
ayn@@ 22
ball@@ 22
band@@ 22
bis 22
chr@@ 22
classi@@ 22
completed 22
condi@@ 22
conse@@ 22
contact 22
criti@@ 22
dial@@ 22
discipl@@ 22
eca 22
ectu@@ 22
enter 22
ett 22
ever@@ 22
fast 22
foot@@ 22
fourth 22
fru@@ 22
gel@@ 22
hau@@ 22
hes@@ 22
hips 22
human@@ 22
idence 22
iev@@ 22
ises 22
ishi 22
je 22
join@@ 22
joint 22
kes 22
kol@@ 22
lement 22
listed 22
met 22
mos 22
mouth 22
nes 22
nia 22
nik 22
née 22
och 22
oe 22
og 22
otes 22
oti 22
pot 22
proced@@ 22
rates 22
regi@@ 22
required 22
rod@@ 22
role 22
rou@@ 22
sep@@ 22
shown 22
sition 22
situ@@ 22
sk 22
stand 22
stitut@@ 22
students 22
superior 22
tent 22
unge 22
v. 22
views 22
vill@@ 22
villages 22
wife 22
zo 22
¢ 22
É 22
ä@@ 22
èse 22
ì 22
η 22
π@@ 22
вич 22
ֶ@@ 22
צ@@ 22
إ@@ 22
ذ@@ 22
ٱ@@ 22
জ 22
ਤ 22
ਲ 22
દ@@ 22
ལ@@ 22
ི 22
ခ@@ 22
ပ@@ 22
រ@@ 22
ṣ@@ 22
ⴰ@@ 22
2. 21
Alexand@@ 21
Alter@@ 21
Although 21
Andr@@ 21
Anim@@ 21
Avi@@ 21
Be 21
Bou@@ 21
Bour@@ 21
Bru@@ 21
Cambridge 21
Cen@@ 21
Channel 21
Chir@@ 21
Constitu@@ 21
Dan 21
Democ@@ 21
Dep@@ 21
Eastern 21
Fab@@ 21
Fire 21
Fle@@ 21
Front 21
Fut@@ 21
Gau@@ 21
Gil@@ 21
Good@@ 21
Her 21
Hit@@ 21
Hot@@ 21
Il 21
Inst@@ 21
Ireland 21
It@@ 21
Jac@@ 21
Jah@@ 21
Kil@@ 21
Lewis 21
Like 21
Maria 21
Mark 21
Miami 21
Nak@@ 21
Not 21
Over@@ 21
Pedro 21
Pit@@ 21
Prom@@ 21
Satur@@ 21
Secre@@ 21
Sign@@ 21
Speci@@ 21
Stat@@ 21
Suc@@ 21
Supre@@ 21
Test@@ 21
UE@@ 21
Under@@ 21
Ut@@ 21
Water@@ 21
according 21
aine 21
aise 21
amed 21
anch@@ 21
anne 21
atra 21
benz@@ 21
class@@ 21
collec@@ 21
collection 21
colum@@ 21
companies 21
concep@@ 21
conditions 21
continued 21
correc@@ 21
democ@@ 21
dian 21
dice 21
din@@ 21
edition 21
edo 21
elled 21
emat@@ 21
eno 21
event@@ 21
experi@@ 21
ffe 21
fici@@ 21
find 21
fo 21
fon@@ 21
gros@@ 21
ieve 21
igi@@ 21
impl@@ 21
infer@@ 21
ingi@@ 21
investig@@ 21
irat@@ 21
iter 21
kab@@ 21
lac@@ 21
led@@ 21
liqu@@ 21
logo 21
mad 21
meeting 21
month 21
need 21
oes 21
olar@@ 21
opus 21
pain@@ 21
particip@@ 21
pati@@ 21
plant@@ 21
practice 21
rang 21
report 21
response 21
rive 21
shu@@ 21
sn@@ 21
stri@@ 21
subject 21
sur 21
syst@@ 21
types 21
uck 21
vor@@ 21
wali 21
xi 21
yana 21
yer 21
ù 21
ŋ 21
ʊ 21
σ@@ 21
у@@ 21
ג@@ 21
ח@@ 21
ت 21
ت@@ 21
ش 21
غ@@ 21
॔ 21
ও@@ 21
ষ 21
જ@@ 21
କ@@ 21
ସ@@ 21
బ@@ 21
ಬ@@ 21
ಲ 21
ಹ@@ 21
ೀ@@ 21
അ@@ 21
സ@@ 21
ာ 21
ḥ@@ 21
∞ 21
国@@ 21
Administr@@ 20
Agu@@ 20
Alg@@ 20
Back 20
Beau@@ 20
Blu@@ 20
Bri@@ 20
Dru@@ 20
Eg@@ 20
Ever@@ 20
Ey@@ 20
Four 20
Fun@@ 20
Govern@@ 20
Hab@@ 20
Haw@@ 20
Hot 20
Hul@@ 20
Jar@@ 20
Johnson 20
Kav@@ 20
Kho@@ 20
King@@ 20
Lyn@@ 20
Master 20
Matthe@@ 20
Mom@@ 20
Mong@@ 20
Must@@ 20
Nan@@ 20
Out 20
Revol@@ 20
Roc@@ 20
Rub@@ 20
Rural 20
Simon 20
Soviet 20
Stre@@ 20
Theatre 20
Thor@@ 20
Top 20
Was@@ 20
West@@ 20
Wood@@ 20
aco 20
agricul@@ 20
ait@@ 20
almost 20
alogue 20
articles 20
ations@@ 20
atu 20
beg@@ 20
beginning 20
bli@@ 20
career 20
casting 20
competition 20
con 20
concer@@ 20
cost@@ 20
cover 20
create 20
cred@@ 20
dam 20
edia 20
elem@@ 20
elles 20
elt 20
estra 20
ettes 20
existence 20
expl@@ 20
fes@@ 20
genus 20
gin@@ 20
graphi@@ 20
hik@@ 20
ichi 20
ient 20
iller 20
ime@@ 20
individual 20
introduced 20
issue 20
legi@@ 20
len 20
lib@@ 20
liber@@ 20
links 20
male 20
mani@@ 20
matches 20
med 20
mont 20
ms@@ 20
nership 20
nov@@ 20
nt 20
ny 20
odi 20
olia 20
ont 20
ours 20
ovi@@ 20
pair 20
past 20
perial 20
players 20
policy 20
princi@@ 20
principal 20
provide 20
provided 20
railway 20
rece@@ 20
records 20
remain@@ 20
ret 20
rev@@ 20
rio 20
riv@@ 20
separate 20
sett@@ 20
sia 20
soon 20
southern 20
stra@@ 20
strateg@@ 20
student 20
sula 20
sun 20
tail 20
taire 20
tap@@ 20
tioned 20
tir@@ 20
topl@@ 20
track 20
train 20
trich@@ 20
troph@@ 20
versit@@ 20
visit@@ 20
wak@@ 20
yas@@ 20
Ø@@ 20
δ@@ 20
ва 20
д@@ 20
حي@@ 20
رو@@ 20
س 20
سن@@ 20
ق 20
ই 20
ষ@@ 20
ਘ 20
ਸ 20
਼ 20
ા 20
ங 20
ப 20
ள@@ 20
ಟ@@ 20
ട 20
ശ@@ 20
န 20
း 20
◆ 20
African 19
Anne 19
Archit@@ 19
Assist@@ 19
Aus@@ 19
Ax@@ 19
Buc@@ 19
Cape 19
Champ@@ 19
Classi@@ 19
Corn@@ 19
Corpor@@ 19
Crim@@ 19
Disney 19
Distribu@@ 19
Dou@@ 19
Flu@@ 19
Fron@@ 19
Hen@@ 19
INSE@@ 19
Indonesia 19
Mam@@ 19
Motor 19
Ok@@ 19
Palm@@ 19
Profes@@ 19
Rand@@ 19
Ray 19
Rod@@ 19
Sa 19
South@@ 19
Stone 19
Tang@@ 19
Thr@@ 19
Tod@@ 19
Yu@@ 19
adul@@ 19
ahr@@ 19
aire 19
ament@@ 19
ammad 19
aper@@ 19
argum@@ 19
arts 19
becom@@ 19
becoming 19
car 19
chu@@ 19
ción 19
close 19
closed 19
comes 19
command@@ 19
commercial 19
compens@@ 19
contract 19
crim@@ 19
cros@@ 19
diam@@ 19
ehr@@ 19
elev@@ 19
endr@@ 19
enger 19
ensus 19
etti 19
folk 19
future 19
gy 19
hid@@ 19
highest 19
hou 19
ias 19
idas 19
igr@@ 19
impro@@ 19
influence 19
ingly 19
ini@@ 19
isha 19
iter@@ 19
jug@@ 19
jum@@ 19
kad@@ 19
kap@@ 19
kav@@ 19
kel@@ 19
ken@@ 19
kir@@ 19
kt@@ 19
longer 19
loy@@ 19
lu 19
mitted 19
miz@@ 19
motiv@@ 19
mula 19
note 19
open@@ 19
organization 19
party 19
preser@@ 19
prise 19
private 19
quin@@ 19
rag@@ 19
reco@@ 19
recorded 19
release 19
ross 19
sana 19
sap@@ 19
secre@@ 19
serve 19
sik@@ 19
soft 19
specif@@ 19
television 19
thin 19
thu@@ 19
tiles 19
tot@@ 19
tz@@ 19
uer@@ 19
xin 19
yd@@ 19
¼ 19
Å@@ 19
Ï@@ 19
Ù@@ 19
ë@@ 19
ï@@ 19
ón 19
ǎ@@ 19
ɒ@@ 19
ʰ@@ 19
ʻ@@ 19
ζ@@ 19
ρ@@ 19
на 19
بر@@ 19
شا@@ 19
ع 19
ك 19
لَ@@ 19
مح@@ 19
وا@@ 19
ُ@@ 19
پ@@ 19
މ@@ 19
ট 19
ণ@@ 19
ধ 19
ফ 19
ત@@ 19
அ@@ 19
ཐ@@ 19
པ@@ 19
့ 19
ျ@@ 19
ṛ@@ 19
人 19
子 19
字 19
Andrew 18
Arti@@ 18
Batt@@ 18
Bed@@ 18
Bes@@ 18
Boh@@ 18
Cha@@ 18
Cou@@ 18
Cros@@ 18
Do 18
During 18
Elizabeth 18
Europ@@ 18
Fas@@ 18
Frank 18
Hist@@ 18
Hong 18
Hop@@ 18
How@@ 18
Israel 18
Kah@@ 18
Kno@@ 18
Kong 18
Latin 18
Len@@ 18
Lok@@ 18
Marie 18
Minister 18
Morgan 18
Mé@@ 18
Pach@@ 18
Production 18
Rav@@ 18
Ris@@ 18
Rum@@ 18
Russia 18
Señ@@ 18
Sports 18
Syl@@ 18
Tai@@ 18
Tour@@ 18
UNESCO 18
Will 18
Zar@@ 18
acia 18
adio 18
adop@@ 18
aissance 18
aku 18
alle 18
alog 18
alternati@@ 18
ande 18
ander@@ 18
anum 18
ao@@ 18
applic@@ 18
appointed 18
aro 18
asti@@ 18
atures 18
bach 18
bay 18
believed 18
bia 18
bio 18
bom@@ 18
bu 18
changed 18
chor@@ 18
ck@@ 18
claim@@ 18
claimed 18
coc@@ 18
community 18
construction 18
dem 18
difficul@@ 18
directed 18
distr@@ 18
dok@@ 18
eder@@ 18
eline 18
enh@@ 18
eni 18
entry 18
esi 18
esi@@ 18
eton 18
etz@@ 18
eu 18
events 18
explor@@ 18
extrem@@ 18
fried 18
fs 18
fully 18
gran@@ 18
gres@@ 18
gun@@ 18
heavy 18
histori@@ 18
host@@ 18
hua 18
ideas 18
idi 18
iga 18
ilk 18
inda 18
industrial 18
instruc@@ 18
internet 18
interpre@@ 18
jap@@ 18
kata 18
kit@@ 18
lav@@ 18
marri@@ 18
mass@@ 18
may@@ 18
mes 18
mile 18
nak@@ 18
neigh@@ 18
ning@@ 18
oba 18
ock@@ 18
odes 18
ois 18
oj@@ 18
old@@ 18
older 18
ometr@@ 18
omin@@ 18
onds 18
onstr@@ 18
oug@@ 18
peti@@ 18
polis 18
porting 18
pu 18
quali@@ 18
rah@@ 18
red@@ 18
ric 18
sand@@ 18
sons 18
sta 18
stop 18
stream 18
sych@@ 18
tempor@@ 18
tn@@ 18
toral 18
traditional 18
traf@@ 18
uch 18
ump 18
univers@@ 18
vehic@@ 18
vit@@ 18
vo 18
vot@@ 18
whom 18
yam@@ 18
är@@ 18
ñ 18
Ā@@ 18
ɐ 18
ɐ@@ 18
ʿ@@ 18
απ@@ 18
θ@@ 18
τ 18
И@@ 18
У@@ 18
и 18
ный 18
ס@@ 18
ת@@ 18
احمد 18
ال 18
الأ@@ 18
الب@@ 18
تر@@ 18
ل 18
مان 18
ند@@ 18
وَ@@ 18
يد 18
َ 18
গ 18
ਅ@@ 18
ਿ 18
ં@@ 18
ી@@ 18
ା 18
ள 18
చ@@ 18
ే@@ 18
ో@@ 18
ര 18
န@@ 18
ု 18
ွ@@ 18
℃ 18
← 18
山 18
， 18
Ab 17
Abu 17
And@@ 17
Arist@@ 17
Bach@@ 17
Bisch@@ 17
Boul@@ 17
Can 17
Cari@@ 17
Catholic 17
Clar@@ 17
Dim@@ 17
Emper@@ 17
Fres@@ 17
Gard@@ 17
Gib@@ 17
Glo@@ 17
Hav@@ 17
Hyp@@ 17
Initi@@ 17
Isa@@ 17
Jr 17
Jul@@ 17
Justice 17
Lawrence 17
Lit@@ 17
Lou@@ 17
Mann@@ 17
Maxim@@ 17
Nur@@ 17
Pac@@ 17
Personal 17
SK 17
Sach@@ 17
Scott 17
Song 17
Squ@@ 17
Team 17
Tour 17
Trav@@ 17
Wad@@ 17
Wright 17
abor@@ 17
acked 17
actu@@ 17
adap@@ 17
aden@@ 17
aily 17
aircraft 17
alco@@ 17
alled 17
allowed 17
anas 17
anj@@ 17
annel 17
attle 17
attr@@ 17
atum 17
aud 17
audi@@ 17
bas 17
boy 17
boy@@ 17
brought 17
bun@@ 17
canal 17
ceph@@ 17
chap@@ 17
character 17
cho 17
contribut@@ 17
cultural 17
deb@@ 17
defeated 17
denomin@@ 17
described 17
design@@ 17
dé@@ 17
ead 17
eigen@@ 17
engl@@ 17
enses 17
erra 17
ester 17
eto 17
feature 17
fi 17
followed 17
gest@@ 17
gio 17
heim 17
increased 17
isis 17
jun@@ 17
kam@@ 17
kay@@ 17
mans 17
mittee 17
mur@@ 17
nah@@ 17
nat@@ 17
nation@@ 17
near@@ 17
onym@@ 17
ph 17
phy 17
prac@@ 17
pro 17
progres@@ 17
propos@@ 17
rant 17
resid@@ 17
rus@@ 17
satis@@ 17
sciences 17
sent@@ 17
signed 17
six@@ 17
tained 17
taking 17
techniques 17
tent@@ 17
tham 17
tru@@ 17
utt@@ 17
vak@@ 17
verl@@ 17
viv@@ 17
went 17
xa 17
Ì@@ 17
ár@@ 17
å@@ 17
én@@ 17
és 17
ía 17
ör@@ 17
ă@@ 17
ě@@ 17
Š@@ 17
τος 17
ός 17
й@@ 17
к 17
м 17
м@@ 17
ская 17
ский 17
ы@@ 17
қ@@ 17
ө@@ 17
ר 17
ا@@ 17
الق@@ 17
ام@@ 17
حسن 17
شهر 17
علي 17
مع@@ 17
مَ@@ 17
ک@@ 17
ܝ@@ 17
ॼ@@ 17
ৃ@@ 17
ো 17
ਆ@@ 17
ੂ@@ 17
ક@@ 17
ો@@ 17
େ@@ 17
ண 17
ண@@ 17
ய 17
ழ 17
ద 17
య 17
ἀ@@ 17
─ 17
小@@ 17
ﷺ 17
1. 16
Afghanistan 16
Alliance 16
Atlantic 16
Boston 16
Boys 16
Brun@@ 16
But 16
Cla@@ 16
Clin@@ 16
Coc@@ 16
Columbia 16
Cross 16
Dance 16
Day@@ 16
Despite 16
Dist@@ 16
Ein@@ 16
Ek@@ 16
Federal 16
Gom@@ 16
Greg@@ 16
HMS 16
Haz@@ 16
Heinrich 16
Hollywood 16
Howard 16
Ins@@ 16
Italian 16
Jack 16
Jon@@ 16
Kim@@ 16
Kle@@ 16
Kut@@ 16
Las@@ 16
Lau@@ 16
Lec@@ 16
Libr@@ 16
Mau@@ 16
Memorial 16
Monum@@ 16
Naz@@ 16
Ou@@ 16
Over 16
Palest@@ 16
Patr@@ 16
Patri@@ 16
Pau@@ 16
Peti@@ 16
Play 16
Police 16
Que@@ 16
Reb@@ 16
Rog@@ 16
Say@@ 16
Scar@@ 16
Seg@@ 16
Serv@@ 16
Song@@ 16
St 16
Stor@@ 16
Stud@@ 16
Tos@@ 16
Wak@@ 16
Willi@@ 16
Williams 16
Wir@@ 16
Wit@@ 16
Yard@@ 16
Yer@@ 16
Your 16
activities 16
adj@@ 16
airman 16
aled 16
allow 16
alus 16
ando 16
annes 16
anya 16
arab@@ 16
arded 16
arding 16
aters 16
bed@@ 16
brach@@ 16
buildings 16
camp@@ 16
cities 16
commun@@ 16
dan@@ 16
daughter 16
decided 16
dedic@@ 16
definiti@@ 16
destruc@@ 16
diplom@@ 16
dren 16
eas 16
een 16
efforts 16
endi@@ 16
entire 16
ester@@ 16
femin@@ 16
fen@@ 16
flora 16
frag@@ 16
going 16
horiz@@ 16
hut@@ 16
idel@@ 16
ilit@@ 16
implement@@ 16
individu@@ 16
iness 16
ional 16
ique 16
ires 16
itions 16
khi 16
musical 16
nation 16
norm@@ 16
northern 16
ob 16
oles 16
ologi@@ 16
ongo 16
pal 16
pit@@ 16
places 16
playing 16
posterior 16
pp 16
prepar@@ 16
programs 16
quir@@ 16
ratic 16
reported 16
retired 16
retr@@ 16
rich 16
sad@@ 16
sanc@@ 16
sche 16
simul@@ 16
sof@@ 16
spi@@ 16
succes@@ 16
sult@@ 16
teams 16
tista 16
tres 16
uba 16
uka 16
uno 16
w.@@ 16
winning 16
woman 16
 16
ª@@ 16
Á@@ 16
Â@@ 16
Ö@@ 16
Ù 16
én 16
ö 16
ʌ@@ 16
Σ@@ 16
ία 16
К@@ 16
а 16
г@@ 16
евич 16
ка 16
о 16
с@@ 16
آ@@ 16
ام 16
ری 16
سی@@ 16
ض@@ 16
میں 16
ين 16
پاکستان 16
کی 16
ہ@@ 16
ऎ 16
मुंब@@ 16
ગ@@ 16
હ@@ 16
ତ@@ 16
ନ 16
ஸ 16
అ@@ 16
ీ@@ 16
ಚ@@ 16
ಜ@@ 16
ദ@@ 16
ཁ@@ 16
བ 16
ུ 16
☃ 16
♭ 16
の@@ 16
南@@ 16
漢@@ 16
한@@ 16
﻿ 16
Alb@@ 15
Augus@@ 15
Bad 15
Band 15
Barr@@ 15
Bell@@ 15
Bla@@ 15
Boy 15
Britain 15
Capit@@ 15
Cast@@ 15
Championship 15
County 15
Dah@@ 15
Daniel 15
Dir@@ 15
Doctor 15
Fund@@ 15
Gest@@ 15
Guinea 15
Hey@@ 15
Ich@@ 15
Joe 15
Jones 15
Kri@@ 15
Lem@@ 15
Lis@@ 15
Lov@@ 15
Lt@@ 15
Lud@@ 15
Marine 15
Miller 15
Miss@@ 15
Museo 15
Nacional 15
Neu@@ 15
Olympics 15
Otto 15
Philip 15
Pra@@ 15
Program@@ 15
Province 15
Rep@@ 15
Rho@@ 15
Roy 15
Ses@@ 15
Sund@@ 15
Thé@@ 15
Tom 15
Ung@@ 15
Victor 15
Wales 15
a. 15
agen 15
ahl 15
alisation 15
aller@@ 15
amen 15
anthus 15
app 15
aza 15
bau@@ 15
bis@@ 15
bron@@ 15
chil@@ 15
coming 15
competed 15
complet@@ 15
consol@@ 15
cultiv@@ 15
cycl@@ 15
diffus@@ 15
dul@@ 15
eight 15
elin 15
enberg 15
endant 15
endel@@ 15
entes 15
entre@@ 15
eron 15
ers@@ 15
explo@@ 15
extra@@ 15
figh@@ 15
flor@@ 15
forc@@ 15
fran@@ 15
française 15
fro@@ 15
gem@@ 15
goal 15
gor@@ 15
grad@@ 15
gru@@ 15
hib@@ 15
hit 15
hospital 15
hus@@ 15
iden 15
ig 15
igned 15
inclu@@ 15
infr@@ 15
issu@@ 15
itable 15
kat 15
kri@@ 15
lake 15
leist@@ 15
likely 15
limit@@ 15
lins 15
lov@@ 15
lun@@ 15
marine 15
metr@@ 15
mil 15
mission@@ 15
noted 15
numerous 15
nun 15
ogo 15
ording 15
origin@@ 15
orium 15
oso 15
othe@@ 15
pand@@ 15
particularly 15
plan 15
plo@@ 15
prak@@ 15
purch@@ 15
quet 15
r. 15
ray@@ 15
referred 15
relati@@ 15
retur@@ 15
roman@@ 15
sau@@ 15
sch 15
sci@@ 15
sel 15
selected 15
song 15
songs 15
subj@@ 15
supported 15
tad@@ 15
tag 15
tant 15
tard 15
tari 15
tei 15
tier 15
tific@@ 15
transport 15
tribu@@ 15
ube 15
udo 15
uel@@ 15
urb@@ 15
vice 15
victory 15
vir 15
wani 15
weeks 15
wich 15
wir@@ 15
xim@@ 15
yab@@ 15
yes 15
¡ 15
École 15
Ü 15
án@@ 15
ère 15
ño 15
ú@@ 15
ý@@ 15
А@@ 15
О@@ 15
д 15
ла@@ 15
اد@@ 15
الج@@ 15
در 15
در@@ 15
ری@@ 15
عمر 15
لا@@ 15
مد@@ 15
مه@@ 15
مي 15
ود 15
ورة 15
ދ@@ 15
ऺ 15
হ 15
ৌ@@ 15
ਕ 15
ਨ 15
ୁ@@ 15
இ@@ 15
ஜ@@ 15
ಅ@@ 15
ೋ@@ 15
ച@@ 15
ണ@@ 15
പ 15
ൂ@@ 15
ോ@@ 15
ཆ@@ 15
⅓ 15
↔ 15
≠ 15
☑ 15
イ@@ 15
國@@ 15
新@@ 15
Abdul@@ 14
Afr@@ 14
Ahmed 14
Albert 14
Alex@@ 14
Alli@@ 14
Alt@@ 14
Americ@@ 14
Ander@@ 14
Baba 14
Bit@@ 14
Bron@@ 14
Brown 14
Buch@@ 14
Castle 14
Catal@@ 14
Das 14
Death 14
Deutsch@@ 14
Deutschland 14
Domin@@ 14
Ernst 14
Esp@@ 14
Fair@@ 14
Form@@ 14
Franç@@ 14
Hur@@ 14
Institu@@ 14
Karnataka 14
Kid@@ 14
Leo 14
Maz@@ 14
Ministr@@ 14
Mountain 14
Nel@@ 14
Nob@@ 14
Opera 14
Part@@ 14
Penn@@ 14
Peter@@ 14
Phili@@ 14
Pictures 14
Rein@@ 14
Ry@@ 14
Sas@@ 14
Schwar@@ 14
Singapore 14
Siv@@ 14
Son 14
Spar@@ 14
Studios 14
Tig@@ 14
Tou@@ 14
Turk@@ 14
Wall@@ 14
Wilson 14
Zealand 14
Zi@@ 14
aday 14
affa@@ 14
alar 14
anian 14
anni@@ 14
anted 14
aras@@ 14
ario 14
ater@@ 14
athan 14
aun 14
author@@ 14
aux 14
aver@@ 14
bey 14
bian 14
bish@@ 14
box@@ 14
cab@@ 14
cel 14
chart 14
clav@@ 14
communic@@ 14
composition 14
dou@@ 14
eka 14
equip@@ 14
escap@@ 14
esse 14
esta 14
eting 14
etta 14
failed 14
fall@@ 14
fav@@ 14
finished 14
fun@@ 14
gens 14
gul@@ 14
hata 14
hil 14
icum 14
ife 14
ige 14
iku@@ 14
illi 14
ilo 14
imler 14
inclin@@ 14
ingo 14
insec@@ 14
introduc@@ 14
isch 14
isl@@ 14
island 14
iz 14
jana 14
justice 14
kaya 14
kes@@ 14
kid@@ 14
launched 14
leng@@ 14
mam@@ 14
master 14
mig@@ 14
minister 14
minister@@ 14
minutes 14
mond 14
nad@@ 14
nea 14
nomin@@ 14
nos 14
nuc@@ 14
ois@@ 14
online 14
ool 14
opsis 14
owned 14
passed 14
pay 14
pec@@ 14
protein 14
quit@@ 14
reas 14
rein@@ 14
replaced 14
seri@@ 14
ses@@ 14
session 14
ships 14
sol 14
stated 14
sto@@ 14
suggest@@ 14
technique 14
thu 14
tos 14
tur 14
urus 14
ux 14
veget@@ 14
vide 14
wali@@ 14
© 14
¶ 14
Î@@ 14
Ø 14
ña 14
ú 14
ɑ 14
ɡ 14
Α@@ 14
τ@@ 14
χ@@ 14
Ми@@ 14
С@@ 14
Х@@ 14
к@@ 14
ль@@ 14
ш@@ 14
ֵ@@ 14
ז@@ 14
آباد 14
اد 14
بي 14
ستان 14
عن 14
في 14
مسجد 14
من@@ 14
ية 14
ॻ@@ 14
ਭ@@ 14
੍ 14
અ@@ 14
ି 14
ం 14
ಣ@@ 14
ಪ 14
ಳ@@ 14
ಶ 14
റ@@ 14
လ@@ 14
ီ@@ 14
ᱟ@@ 14
ṅ@@ 14
♦ 14
三@@ 14
市 14
明@@ 14
金@@ 14
ꯤ@@ 14
￱ 14
1980s 13
3. 13
Asi@@ 13
Benjamin 13
Brothers 13
Bug@@ 13
Bun@@ 13
Charlie 13
Chev@@ 13
Cour@@ 13
Daw@@ 13
Deutsche 13
Di 13
Dé@@ 13
Eri@@ 13
Fame 13
Feder@@ 13
Ferdinand 13
Final 13
Fried@@ 13
Gab@@ 13
Giovanni 13
Girl 13
Gordon 13
Gott@@ 13
Grim@@ 13
Gru@@ 13
Hamp@@ 13
Herbert 13
Ib@@ 13
José 13
Jun@@ 13
Junior 13
Just 13
Kl@@ 13
Koh@@ 13
Kop@@ 13
Laur@@ 13
Lic@@ 13
Lie@@ 13
Lind@@ 13
Malay@@ 13
Mart 13
Mec@@ 13
Mercedes 13
Mim@@ 13
Olymp@@ 13
Partido 13
Pet@@ 13
Pop@@ 13
Portu@@ 13
Pos@@ 13
Rhy@@ 13
Rober@@ 13
Salvador 13
Samuel 13
Santiago 13
Scotland 13
Spanish 13
Suz@@ 13
Tag 13
Tah@@ 13
Tek@@ 13
Television 13
Thompson 13
Under 13
Venez@@ 13
Wag@@ 13
Walter 13
Wind@@ 13
Yo@@ 13
Yor@@ 13
aches 13
ación 13
adas 13
ago@@ 13
allen 13
allow@@ 13
alo 13
already 13
aman 13
anes 13
anos 13
archi@@ 13
arius 13
arren 13
arry 13
atia 13
attention 13
attribu@@ 13
aught 13
ayo 13
azim@@ 13
bak@@ 13
bass@@ 13
battle 13
bay@@ 13
baz@@ 13
behind 13
bern@@ 13
bomb@@ 13
burgh 13
cer 13
cerem@@ 13
chall@@ 13
chant 13
chen@@ 13
cim@@ 13
coloni@@ 13
comment@@ 13
conqu@@ 13
contains 13
contempor@@ 13
coul@@ 13
critic@@ 13
disco@@ 13
dix 13
duk@@ 13
earlier 13
edra 13
eil 13
elia 13
emplo@@ 13
enem@@ 13
enko 13
enne 13
entered 13
eppe 13
equi@@ 13
erh@@ 13
etto 13
evi 13
fera 13
ful@@ 13
für 13
games 13
gan 13
gestion 13
hay@@ 13
icia 13
idar@@ 13
ieved 13
ift 13
ikan@@ 13
iko 13
iles 13
initial 13
isp@@ 13
ix@@ 13
jah@@ 13
kan 13
kari 13
kel 13
killed 13
kun@@ 13
label 13
lich@@ 13
mainly 13
mari@@ 13
married 13
mec@@ 13
mf@@ 13
mund 13
musici@@ 13
nationale 13
natur@@ 13
nig@@ 13
novi@@ 13
oc 13
occas@@ 13
offici@@ 13
olo 13
oman 13
onna 13
orie 13
otra 13
oz 13
parties 13
pio 13
plays 13
present@@ 13
priv@@ 13
professional 13
protection 13
province 13
question 13
rad@@ 13
rar@@ 13
reached 13
refer 13
reform 13
registr@@ 13
represented 13
reve@@ 13
ré@@ 13
sched@@ 13
sever@@ 13
ska 13
successful 13
tah@@ 13
tat@@ 13
tigen 13
tries 13
tum 13
ubil@@ 13
ufac@@ 13
uld 13
ulo 13
university 13
uro 13
urt 13
vil@@ 13
wana 13
wash@@ 13
wen@@ 13
wick 13
yat 13
yen@@ 13
Ç@@ 13
ê@@ 13
ë 13
ì@@ 13
ò 13
þ@@ 13
Đ@@ 13
ɹ@@ 13
Σ 13
κ@@ 13
φ@@ 13
М@@ 13
т@@ 13
у 13
х@@ 13
ׁ@@ 13
ד 13
ז 13
ע 13
ابن 13
الت@@ 13
الرحمن 13
الص@@ 13
ج 13
سل@@ 13
سم 13
لو@@ 13
محافظة 13
نی@@ 13
هر 13
ور 13
ون@@ 13
ު 13
ऺ@@ 13
ঘ@@ 13
ছ@@ 13
ਬ 13
ન 13
ભ@@ 13
સ@@ 13
ુ@@ 13
ହ@@ 13
எ@@ 13
ழ@@ 13
ట@@ 13
డ 13
హ@@ 13
ೂ@@ 13
ം@@ 13
ീ@@ 13
ൃ@@ 13
ම@@ 13
ස@@ 13
ු@@ 13
น@@ 13
ཀ@@ 13
ན@@ 13
པ 13
စ@@ 13
ည 13
ა@@ 13
ម@@ 13
‑ 13
☉ 13
一@@ 13
中@@ 13
北@@ 13
天@@ 13
東@@ 13
海@@ 13
西@@ 13
김@@ 13
 13
Academ@@ 12
Afgh@@ 12
Alan 12
Alber@@ 12
Amer@@ 12
Aster@@ 12
August@@ 12
Bibli@@ 12
Boeing 12
Card@@ 12
Career 12
Chall@@ 12
Chel@@ 12
Chron@@ 12
Compan@@ 12
Dark 12
Director 12
Donald 12
En 12
End@@ 12
Eug@@ 12
Fon@@ 12
Form 12
Gel@@ 12
Girls 12
Grou@@ 12
Ha 12
Haf@@ 12
Hak@@ 12
Joh@@ 12
Jug@@ 12
Jus@@ 12
KK 12
Kazak@@ 12
Mb@@ 12
Monte 12
Nam 12
Neb@@ 12
Nich@@ 12
Nikol@@ 12
Nintendo 12
Nom@@ 12
Pier@@ 12
Pseud@@ 12
Ric@@ 12
Rock@@ 12
Ross 12
Roy@@ 12
Russell 12
Ré@@ 12
SPD 12
Sali@@ 12
Santo 12
Sever@@ 12
Sieg@@ 12
Sin 12
Sky 12
Stewart 12
Sultan 12
Tat@@ 12
Thi@@ 12
Tokyo 12
Town 12
Tube 12
Wan@@ 12
Will@@ 12
Zen@@ 12
abi@@ 12
abu 12
accep@@ 12
accomp@@ 12
ached 12
adapt@@ 12
adver@@ 12
aler 12
alth 12
ambi@@ 12
ante@@ 12
anterior 12
approximately 12
artists 12
asons 12
associ@@ 12
aten 12
atika 12
att 12
avu 12
awi 12
azi 12
bili@@ 12
brand 12
burn 12
c. 12
cad@@ 12
capit@@ 12
club 12
comple@@ 12
constr@@ 12
coron@@ 12
cula 12
dad@@ 12
decre@@ 12
deg@@ 12
department 12
diction 12
document@@ 12
edly 12
eg 12
eign@@ 12
eles 12
elly 12
emi 12
emper@@ 12
eres 12
ern 12
esser 12
etti@@ 12
eve 12
gal 12
gers 12
gli@@ 12
hala 12
hin 12
igher 12
igne 12
industri@@ 12
iner 12
inet 12
ingen 12
inger@@ 12
inning 12
interpret@@ 12
itas 12
key@@ 12
kov@@ 12
lak 12
latter 12
ley@@ 12
minute 12
motor@@ 12
neo 12
oblig@@ 12
occup@@ 12
offered 12
ogle 12
ole@@ 12
opa 12
opin@@ 12
organisation 12
orn 12
oro 12
oshi 12
oss 12
pak@@ 12
pen 12
phi 12
plans 12
pod@@ 12
popul@@ 12
pour 12
propri@@ 12
qua 12
quer@@ 12
reich@@ 12
ria 12
rie 12
round@@ 12
schools 12
senti@@ 12
sold 12
spor@@ 12
staff 12
stan 12
stars 12
stations 12
tarak@@ 12
tee 12
uf 12
umes 12
umi 12
usu@@ 12
vern@@ 12
visible 12
yar 12
yav@@ 12
yu@@ 12
za@@ 12
zar 12
zin@@ 12
áng 12
ù@@ 12
ü 12
ġ@@ 12
Ÿ@@ 12
κ 12
ρος 12
Д@@ 12
Ле@@ 12
е@@ 12
з 12
ле@@ 12
т 12
ь 12
э@@ 12
ט@@ 12
اب 12
است@@ 12
الخ@@ 12
الك@@ 12
بو@@ 12
ري 12
رَ@@ 12
سر@@ 12
مر@@ 12
نا@@ 12
نام@@ 12
وری 12
ہ 12
ނ@@ 12
ও 12
ਖ@@ 12
બ@@ 12
લ@@ 12
ଦ@@ 12
ର 12
ୋ@@ 12
త 12
భ@@ 12
ಟ 12
ೊ@@ 12
ല 12
ල@@ 12
แ@@ 12
้ 12
ང@@ 12
တ 12
ე@@ 12
ស@@ 12
ῖ@@ 12
ℓ 12
∆ 12
∈ 12
ン 12
山@@ 12
式@@ 12
日 12
道 12
🙏 12
.000 11
Andre@@ 11
Anton@@ 11
Arth@@ 11
BK 11
Benedi@@ 11
Cand@@ 11
Carlo 11
Casa 11
Chor@@ 11
Cra@@ 11
Develop@@ 11
Duke 11
Dutch 11
Eas@@ 11
Emil@@ 11
Ern@@ 11
Frank@@ 11
Galax@@ 11
Ges@@ 11
Gesellschaft 11
Got@@ 11
Guar@@ 11
Hermann 11
Hid@@ 11
Hous@@ 11
Hug@@ 11
Inform@@ 11
Jeux 11
Johannes 11
Jung@@ 11
Kaiser 11
Kamp@@ 11
Kay@@ 11
Kem@@ 11
Kim 11
Kuv@@ 11
Luis 11
Materi@@ 11
Monte@@ 11
National@@ 11
Nicol@@ 11
Pam@@ 11
Petr@@ 11
Poc@@ 11
Racing 11
Raf@@ 11
Rail@@ 11
Regional 11
Roger 11
Rudolf 11
Salv@@ 11
Scot@@ 11
Sep@@ 11
Sierra 11
Songs 11
Stein@@ 11
Stephen 11
Stil@@ 11
Tes@@ 11
Theod@@ 11
Us@@ 11
Walker 11
Yan@@ 11
Zam@@ 11
aber 11
abo@@ 11
actual 11
agan 11
ahl@@ 11
aint 11
alam@@ 11
amu 11
andan 11
ango 11
annual 11
anto 11
aque 11
arri@@ 11
ata@@ 11
aten@@ 11
atura 11
auch@@ 11
autonom@@ 11
awa@@ 11
blan@@ 11
blin 11
borough 11
centre 11
cht 11
church 11
classes 11
consid@@ 11
contro@@ 11
dance 11
deal 11
deli@@ 11
desc@@ 11
destroy@@ 11
dot@@ 11
eber@@ 11
ec 11
ecti@@ 11
eder 11
eim 11
emo 11
ende 11
enf@@ 11
esch@@ 11
essenti@@ 11
esto 11
feder@@ 11
festival 11
fight 11
fli@@ 11
founded 11
fron@@ 11
fut@@ 11
gian 11
grade 11
gut 11
hatt@@ 11
hep@@ 11
hul@@ 11
husband 11
iche 11
idential 11
igo 11
immedi@@ 11
ingham 11
innov@@ 11
issues 11
istan 11
izer 11
jam@@ 11
jit@@ 11
kah@@ 11
km@@ 11
kom@@ 11
kov 11
kus@@ 11
lik 11
lique 11
lived 11
lowing 11
ls@@ 11
lí@@ 11
manif@@ 11
midt 11
miles 11
mon 11
n.@@ 11
nd 11
oides 11
oja 11
olan 11
ologie 11
olympiques 11
omo 11
onale 11
onne 11
ools 11
ophie 11
oration 11
orch@@ 11
ort@@ 11
oul 11
oun 11
ouv@@ 11
performed 11
portr@@ 11
practic@@ 11
previous 11
progr@@ 11
prol@@ 11
qualif@@ 11
qui 11
redu@@ 11
refle@@ 11
regional 11
rej@@ 11
rez 11
rim 11
ris 11
ros 11
royal 11
sang 11
sburg 11
sei 11
sent 11
sert 11
seud@@ 11
sibl@@ 11
sir@@ 11
sports 11
ste 11
stead 11
success 11
sug@@ 11
surround@@ 11
ted@@ 11
tico 11
transform@@ 11
trou@@ 11
tul@@ 11
ually 11
uki 11
umen 11
vac@@ 11
week@@ 11
wit@@ 11
wns 11
worked 11
xima 11
yat@@ 11
zam@@ 11
zan 11
Ö 11
Öster@@ 11
â 11
él@@ 11
ò@@ 11
ć 11
ɔ 11
ɕ@@ 11
ɛ 11
ʰ 11
Τ@@ 11
ι 11
της 11
ων 11
Ка@@ 11
П@@ 11
ба@@ 11
е 11
но 11
нович 11
хо@@ 11
ң 11
ә@@ 11
א 11
از 11
اص@@ 11
الدین 11
الش@@ 11
اني 11
انی 11
با@@ 11
به 11
بَ@@ 11
بِ@@ 11
ري@@ 11
عل@@ 11
عي@@ 11
مة 11
مش@@ 11
يم 11
ۃ 11
ܪ@@ 11
ॠ 11
ॱ 11
খ 11
ঞ 11
থ@@ 11
ਚ@@ 11
ਧ@@ 11
ੁ 11
ੂ 11
છ@@ 11
ણ@@ 11
પ@@ 11
ર 11
િ@@ 11
ନ@@ 11
ீ@@ 11
ట 11
మ 11
ಡ 11
ജ@@ 11
ശ 11
ഷ 11
ഷ@@ 11
ഹ@@ 11
െ@@ 11
ൻ 11
ർ 11
ක@@ 11
ත@@ 11
ය 11
ဒ@@ 11
မ 11
រ 11
ᱚ@@ 11
↵ 11
る 11
ラ@@ 11
ル@@ 11
国 11
文@@ 11
株@@ 11
武@@ 11
民@@ 11
의 11
이 11
인@@ 11
 11
1,5 10
4,5 10
Adam 10
Alem@@ 10
Alice 10
Ame@@ 10
Anderson 10
Anthony 10
Arn@@ 10
Ba 10
Banglad@@ 10
Bill@@ 10
Biz@@ 10
Ble@@ 10
Cad@@ 10
Castil@@ 10
Chi 10
Chrys@@ 10
Clau@@ 10
Colorado 10
Davis 10
Der 10
Des 10
Dream 10
Esc@@ 10
Fall 10
Fam@@ 10
Films 10
Flor@@ 10
Found@@ 10
Gabriel 10
Georges 10
German@@ 10
Graf@@ 10
Guadal@@ 10
Harr@@ 10
Hotel 10
Isab@@ 10
Italy 10
Jacob 10
Jesus 10
Jose@@ 10
Kag@@ 10
Ken@@ 10
Lom@@ 10
Mar 10
Mart@@ 10
Maurice 10
Metropolit@@ 10
Moon 10
Mosco@@ 10
Nec@@ 10
Nev@@ 10
Ni 10
Para 10
Patrick 10
Pf@@ 10
Pom@@ 10
Pow@@ 10
Princ@@ 10
Prov@@ 10
Robin 10
Rolling 10
Roman@@ 10
République 10
Sax@@ 10
Sib@@ 10
Stanley 10
Stars 10
Summer 10
Syr@@ 10
Vall@@ 10
Verte@@ 10
Victoria 10
Wid@@ 10
Zu@@ 10
aban 10
acha 10
acio 10
administration 10
afr@@ 10
aina 10
aliy@@ 10
allas 10
altitude 10
amo 10
anan 10
anza 10
apon 10
appearance 10
appeared 10
architec@@ 10
aron 10
ashi 10
association 10
aum 10
aven 10
aving 10
awarded 10
azar 10
azar@@ 10
añ@@ 10
bul 10
captur@@ 10
cian 10
commerce 10
confirm@@ 10
consider@@ 10
cup@@ 10
cy 10
decision 10
deo 10
deter@@ 10
dur 10
eces 10
editor 10
ego 10
eine 10
elected 10
encour@@ 10
ender@@ 10
estig@@ 10
eventually 10
fabric@@ 10
famili@@ 10
families 10
ffen 10
film@@ 10
forman@@ 10
ged@@ 10
gel 10
gom@@ 10
grand@@ 10
guar@@ 10
habit@@ 10
hari@@ 10
heav@@ 10
helped 10
honor@@ 10
hop 10
ici 10
ident@@ 10
importance 10
ina@@ 10
indu@@ 10
inin 10
initially 10
ischer 10
isco 10
ision@@ 10
isto 10
iyi 10
kilom@@ 10
kut@@ 10
lars 10
lav 10
lea 10
leb@@ 10
legisl@@ 10
lil@@ 10
lon@@ 10
lut@@ 10
lywood 10
magazine 10
mang@@ 10
mano 10
mant@@ 10
manus@@ 10
matr@@ 10
mg@@ 10
nier 10
nin@@ 10
nine 10
notable 10
obr@@ 10
oca 10
oise 10
orta 10
oyn@@ 10
passage 10
police 10
pon 10
pool 10
pos 10
positions 10
prises 10
qu 10
rain@@ 10
rech@@ 10
remains 10
requi@@ 10
restric@@ 10
returned 10
san 10
score 10
served 10
sex@@ 10
shot 10
slo@@ 10
spons@@ 10
subsequently 10
takes 10
theast 10
them@@ 10
throughout 10
tienne 10
tique 10
tut@@ 10
té 10
ug 10
uke 10
ulia 10
undi 10
unga 10
uss 10
uti 10
vas 10
vet@@ 10
wad@@ 10
wah@@ 10
western 10
wo 10
yard 10
yk@@ 10
Å 10
àn 10
ín 10
ís 10
î@@ 10
Ś@@ 10
ž@@ 10
ʀ@@ 10
ʔ@@ 10
̩ 10
Μ@@ 10
Π@@ 10
τί@@ 10
Г@@ 10
б@@ 10
ев 10
л 10
ла 10
на@@ 10
ра@@ 10
ь@@ 10
ү@@ 10
ե@@ 10
آل 10
أحمد 10
أس@@ 10
اء 10
اح@@ 10
اش@@ 10
الد@@ 10
الف@@ 10
الل@@ 10
اله@@ 10
ای@@ 10
باغ 10
بی@@ 10
دة 10
دي@@ 10
رب@@ 10
رة 10
ز 10
سي@@ 10
سید 10
ظ@@ 10
عبد@@ 10
لل@@ 10
مولانا 10
می@@ 10
يل 10
ܐ 10
އ@@ 10
ު@@ 10
सितं@@ 10
ং 10
ড@@ 10
থ 10
ਮ 10
ં 10
શ@@ 10
ஆ@@ 10
ఆ@@ 10
శ 10
ొ@@ 10
ಣ 10
ಯ 10
ഗ@@ 10
യ 10
ප@@ 10
ය@@ 10
ල 10
่ 10
က 10
ယ 10
အ@@ 10
ទ@@ 10
Ḥ@@ 10
ṅ 10
‡ 10
₂ 10
✔ 10
ル 10
上@@ 10
中国@@ 10
会@@ 10
寺 10
川 10
拳 10
日本 10
法 10
田@@ 10
社 10
菠@@ 10
蘿@@ 10
ꯥ@@ 10
국@@ 10
대@@ 10
자 10
 10
️ 10
🌹 10
👉 10
Anna 9
Ant@@ 9
Austria 9
Bass@@ 9
Berg@@ 9
Bob@@ 9
Bra@@ 9
Brazil 9
Bình 9
Carol@@ 9
Cathol@@ 9
Ce 9
Christopher 9
Claude 9
Congo 9
Constant@@ 9
Cum@@ 9
Cô@@ 9
Dad@@ 9
Daily 9
Du 9
Following 9
Football 9
Fro@@ 9
Gary 9
Hamilton 9
Haus@@ 9
Hawai@@ 9
Henri 9
Hier@@ 9
His@@ 9
Hochschule 9
Hub@@ 9
Infr@@ 9
Institut 9
Iran 9
Jack@@ 9
Jewish 9
Kari@@ 9
Kend@@ 9
Kenn@@ 9
Kis@@ 9
Kran@@ 9
Kö@@ 9
Leb@@ 9
Lyon 9
Lé@@ 9
Mass@@ 9
Mexico 9
Michel 9
Miss 9
Municipal 9
NCA@@ 9
Nelson 9
Nicolas 9
Nig@@ 9
Occ@@ 9
Oliver 9
Ontario 9
Ord@@ 9
Oy 9
Parliament 9
Place 9
Pod@@ 9
Pok@@ 9
Presidente 9
Reich 9
Rio 9
Rose 9
Rou@@ 9
Sain@@ 9
Sebasti@@ 9
Slo@@ 9
Stell@@ 9
Sur 9
Their 9
Toronto 9
Vincent 9
Virginia 9
Vog@@ 9
Warner 9
Winter@@ 9
Wolf 9
Wolfgang 9
Yoh@@ 9
abandon@@ 9
adel@@ 9
agi@@ 9
ainer 9
altar 9
ambi 9
amia 9
anak@@ 9
ange@@ 9
anime 9
antes 9
arak 9
ark 9
asked 9
atin 9
atre 9
auer 9
baba 9
batt@@ 9
bek@@ 9
best@@ 9
bid@@ 9
bie 9
bind@@ 9
bor 9
bronze 9
bt 9
buch 9
cali@@ 9
cas 9
cen@@ 9
census 9
chev@@ 9
chief 9
chn@@ 9
cil 9
cio 9
circ@@ 9
clos@@ 9
compet@@ 9
compr@@ 9
conclu@@ 9
conven@@ 9
crimin@@ 9
crit@@ 9
d. 9
designed 9
destin@@ 9
diagn@@ 9
dienst 9
dings 9
disc@@ 9
dorf 9
earned 9
ege 9
egen 9
egio 9
eig@@ 9
ellen@@ 9
elo 9
els@@ 9
emas 9
emen 9
endre 9
enk@@ 9
eros 9
espe@@ 9
essed 9
exclus@@ 9
exerc@@ 9
fan@@ 9
favor@@ 9
fin 9
flan@@ 9
fort@@ 9
front@@ 9
genes 9
gri@@ 9
gu 9
his@@ 9
huri 9
icro@@ 9
idental 9
ien 9
illo 9
imo 9
income 9
incorpor@@ 9
inn 9
inspir@@ 9
install@@ 9
iran 9
isia 9
isine 9
itzer 9
jour@@ 9
kali 9
kim 9
kle@@ 9
kote 9
kshire 9
lage 9
lai 9
laun@@ 9
lave 9
ld 9
leader 9
leaving 9
lus 9
maf@@ 9
manuel 9
mt@@ 9
nac@@ 9
nes@@ 9
newspap@@ 9
novel 9
oci@@ 9
oka 9
olds 9
onc@@ 9
onto 9
opened 9
opening 9
orn@@ 9
osi 9
oven 9
participation 9
perform@@ 9
phe 9
portun@@ 9
premi@@ 9
presented 9
previously 9
prior 9
pris@@ 9
proxim@@ 9
rat@@ 9
remained 9
rog@@ 9
rug@@ 9
rum@@ 9
sali@@ 9
scor@@ 9
sell 9
seu@@ 9
sexu@@ 9
signific@@ 9
singles 9
situation 9
sociation 9
sten@@ 9
stil@@ 9
strat@@ 9
success@@ 9
surviv@@ 9
suspen@@ 9
tane 9
terres@@ 9
terror@@ 9
tie 9
tiers 9
tik@@ 9
tish 9
umbo 9
unci@@ 9
util@@ 9
vel 9
verg@@ 9
vide@@ 9
wand@@ 9
xu@@ 9
ymn@@ 9
zen@@ 9
¹ 9
Æ@@ 9
ß 9
ál@@ 9
än@@ 9
éri@@ 9
ê 9
ă 9
ğ@@ 9
ǐ 9
ʁ 9
ˈ 9
͡ 9
Ε@@ 9
Κ@@ 9
ας 9
λι@@ 9
ο@@ 9
τι@@ 9
ϕ 9
Е@@ 9
Са@@ 9
Т@@ 9
ан@@ 9
г 9
де@@ 9
ко@@ 9
ная 9
х 9
Қ@@ 9
ն@@ 9
ր@@ 9
ב 9
اف@@ 9
بة 9
بي@@ 9
بھ@@ 9
جان 9
حسین 9
دی@@ 9
رسول 9
زی 9
سلطان 9
سى 9
شه@@ 9
صر 9
عی@@ 9
ما@@ 9
مي@@ 9
مِ@@ 9
نو@@ 9
نگ 9
وال@@ 9
ول 9
ول@@ 9
وم@@ 9
ير 9
ٰ@@ 9
ین 9
ީ@@ 9
ް 9
ऒ 9
ৈ@@ 9
ਦ 9
ੇ 9
આ@@ 9
ો 9
କ 9
ଗ@@ 9
ଦ 9
ପ@@ 9
ଳ 9
ச 9
ற 9
ஷ 9
ூ@@ 9
ణ 9
ವ 9
ണ 9
റ 9
ව@@ 9
ේ@@ 9
ວ@@ 9
ྩ@@ 9
ត 9
ន 9
ᱨ@@ 9
ḷ@@ 9
⋅ 9
ⵉ@@ 9
ジ@@ 9
ス@@ 9
七@@ 9
主@@ 9
京@@ 9
包 9
周@@ 9
家@@ 9
島 9
東 9
河 9
阿@@ 9
고@@ 9
민@@ 9
이@@ 9
치 9
ﺍ@@ 9
ﻟ@@ 9
𐩖 9
𝐞@@ 9
1.000 8
3,5 8
5. 8
Actu@@ 8
Adolf 8
Airlines 8
Ann 8
Antonio 8
Apol@@ 8
Aug@@ 8
Berlin 8
Bernard 8
Bib@@ 8
Bob 8
Bret@@ 8
Brian 8
Captain 8
Catherine 8
Clark 8
Community 8
Del 8
Democratic 8
Dj@@ 8
Eric 8
Estr@@ 8
Fati@@ 8
Feli@@ 8
Franc@@ 8
Frances@@ 8
Francisco 8
Geor@@ 8
Georgia 8
Guy 8
Hass@@ 8
Hein@@ 8
Histori@@ 8
Hymenoptera 8
Inh@@ 8
Irish 8
Itali@@ 8
Jane 8
Jay 8
Jersey 8
Jor@@ 8
Jordan 8
Kib@@ 8
Kirch@@ 8
Kre@@ 8
Lady 8
Lig@@ 8
Louise 8
Ludwig 8
Manchester 8
Mann 8
Mark@@ 8
Marshall 8
Massachusetts 8
Minister@@ 8
Moder@@ 8
Motor@@ 8
Moz@@ 8
Norte 8
Ober@@ 8
Olympi@@ 8
Pennsylvania 8
Philippe 8
Poland 8
Port@@ 8
Premier 8
Prix 8
Professor 8
Provin@@ 8
Quer@@ 8
Rech@@ 8
Represent@@ 8
Rome 8
Se 8
Seh@@ 8
Sek@@ 8
Sonn@@ 8
Sport 8
Staff@@ 8
Steph@@ 8
Sz@@ 8
Tay@@ 8
Texas 8
Thu@@ 8
Tony 8
Trin@@ 8
Volks@@ 8
Von 8
Vy@@ 8
Way@@ 8
Wein@@ 8
Woh@@ 8
Yes@@ 8
aband@@ 8
adem@@ 8
adol@@ 8
ainst 8
aired 8
aki@@ 8
album 8
altitu@@ 8
ambu@@ 8
ammed 8
angel@@ 8
anger@@ 8
anl@@ 8
apos@@ 8
arte 8
artiller@@ 8
asse 8
assist@@ 8
ativa 8
avia 8
berger 8
bra@@ 8
castle 8
clu@@ 8
colon@@ 8
comb@@ 8
commune 8
conform@@ 8
continue 8
couple 8
crisis 8
culp@@ 8
dans 8
dav@@ 8
dier 8
diers 8
dies@@ 8
dik@@ 8
dioc@@ 8
director 8
eaux 8
edonia 8
eff 8
einer 8
elor 8
emann 8
enburg 8
endro@@ 8
ener 8
ennes 8
epis@@ 8
eption 8
erst@@ 8
evu 8
explic@@ 8
fam@@ 8
fest@@ 8
font 8
fres@@ 8
gaz@@ 8
grave 8
hasa 8
hospit@@ 8
hous@@ 8
iba 8
icas 8
igan 8
inclus@@ 8
ingen@@ 8
inson 8
invent@@ 8
isten 8
istische 8
iterran@@ 8
iture 8
ité 8
ival@@ 8
ivo 8
jas 8
joined 8
journal 8
laborat@@ 8
lard 8
laya 8
lis@@ 8
mab@@ 8
maj@@ 8
majority 8
mara 8
mens@@ 8
mobil@@ 8
moder@@ 8
mostly 8
mw@@ 8
national@@ 8
ndi@@ 8
nur 8
nus 8
occu@@ 8
odo 8
offs 8
oll 8
ott 8
ouse 8
ouver 8
pion@@ 8
poder@@ 8
polit@@ 8
popular@@ 8
presti@@ 8
profes@@ 8
programme 8
promin@@ 8
publican 8
ques@@ 8
rab@@ 8
raised 8
relativ@@ 8
rem 8
ren 8
respectiv@@ 8
rik 8
ril 8
roman 8
rural 8
rö@@ 8
sang@@ 8
schi@@ 8
schule 8
sis@@ 8
sister 8
solo 8
spect@@ 8
spent 8
sta@@ 8
starting 8
sters 8
suit 8
symb@@ 8
sz@@ 8
temps 8
tend 8
tero 8
tidae 8
tour 8
tung 8
turn@@ 8
udur 8
una@@ 8
undo 8
universit@@ 8
urban 8
usi 8
usu 8
venue 8
vili@@ 8
visi@@ 8
vit 8
volun@@ 8
vy@@ 8
wam@@ 8
wap@@ 8
wen 8
wn@@ 8
xo@@ 8
yen 8
yla 8
ä 8
ège 8
ères 8
état 8
öl@@ 8
ür@@ 8
œ@@ 8
š 8
ʱ 8
Α 8
Β@@ 8
Γ 8
Λ@@ 8
Φ@@ 8
άρ@@ 8
ί@@ 8
ικός 8
ολ@@ 8
ρον 8
χ 8
ω@@ 8
ύ@@ 8
Б@@ 8
Вели@@ 8
Я@@ 8
ва@@ 8
да@@ 8
до@@ 8
ж@@ 8
з@@ 8
и@@ 8
край 8
ре@@ 8
си@@ 8
ские 8
ха@@ 8
ц@@ 8
ъ 8
я 8
є@@ 8
ј@@ 8
ի@@ 8
յ@@ 8
ո@@ 8
ש 8
آب@@ 8
أَ@@ 8
اس 8
اسلامی 8
الإ@@ 8
اللہ 8
المن@@ 8
الْ@@ 8
ای 8
ایران 8
برا@@ 8
بن@@ 8
بند@@ 8
به@@ 8
جامع 8
سع@@ 8
شی@@ 8
صل@@ 8
عَ@@ 8
لان 8
لم 8
لی@@ 8
مار@@ 8
مل@@ 8
ملی 8
ور@@ 8
ون 8
وي@@ 8
ْ 8
پر@@ 8
ڠ@@ 8
ܘ@@ 8
ލ@@ 8
ऌ 8
ৈ 8
ৱ 8
ਜ 8
ੇ@@ 8
ੋ 8
ଙ 8
ତ 8
ଭ@@ 8
ଶ 8
ଷ 8
ୀ 8
ୁ 8
ୟ 8
ொ@@ 8
ణ@@ 8
ష 8
ీ 8
ಗ 8
ಮ 8
ಷ 8
ങ 8
ള 8
ർ@@ 8
ൽ 8
න 8
න@@ 8
ා 8
า@@ 8
ນ 8
ັ@@ 8
ཙ@@ 8
ླ@@ 8
ူ@@ 8
ლ@@ 8
ᱵ@@ 8
ḥ 8
ῆ@@ 8
₩ 8
∂ 8
⏩ 8
✍ 8
ア@@ 8
ク@@ 8
コ@@ 8
ト@@ 8
バ@@ 8
レ@@ 8
中國@@ 8
人@@ 8
会 8
光@@ 8
名@@ 8
和@@ 8
地方 8
文 8
清@@ 8
白@@ 8
皇 8
藩 8
院 8
국 8
성@@ 8
ﺎ@@ 8
： 8
4. 7
Allen 7
Amsterdam 7
Anat@@ 7
Andreas 7
André 7
Andy 7
Anh@@ 7
Antoine 7
Ard@@ 7
Arena 7
Asp@@ 7
Ast@@ 7
Austin 7
Beat@@ 7
Brad@@ 7
Brand@@ 7
Braz@@ 7
Bres@@ 7
Brook@@ 7
Bắc 7
Canal 7
Carr@@ 7
Centro 7
Chicago 7
Colombia 7
Como 7
Conseil 7
Corps 7
Costa 7
Dau@@ 7
Dut@@ 7
Earl 7
Edu@@ 7
Ehr@@ 7
Españ@@ 7
Fort@@ 7
Franklin 7
Franz 7
Frei@@ 7
Fritz 7
Georg 7
Giang 7
Grande 7
Gri@@ 7
Griff@@ 7
Gusta@@ 7
Gö@@ 7
Hali@@ 7
Han 7
Heart 7
Historia 7
Hof@@ 7
Hr@@ 7
Hut@@ 7
Iv@@ 7
Iz@@ 7
Jim@@ 7
Johnny 7
Journ@@ 7
Kais@@ 7
Kaz@@ 7
Kevin 7
Kik@@ 7
Klein@@ 7
Kro@@ 7
Lai 7
Leh@@ 7
Los 7
Lux@@ 7
Lê 7
Magazine 7
Mayor 7
Metro 7
Michigan 7
Milli@@ 7
Moore 7
Orange 7
Orch@@ 7
Phi 7
Philippines 7
Pop 7
Popular 7
Position 7
Quảng 7
República 7
Riv@@ 7
Ruh@@ 7
Soc@@ 7
Société 7
Sport@@ 7
Sta@@ 7
Stadium 7
Stand 7
Sơn 7
Tok@@ 7
Universität 7
Université 7
Vig@@ 7
Wali@@ 7
Waz@@ 7
Werner 7
Wien 7
Ya 7
Yar@@ 7
Yaz@@ 7
Zeit@@ 7
abri@@ 7
acht 7
adam@@ 7
ados 7
afric@@ 7
agne 7
aille 7
alc@@ 7
alla 7
alle@@ 7
ambigu@@ 7
apo 7
arina 7
artisti@@ 7
asha 7
ateur 7
atten@@ 7
atu@@ 7
aup@@ 7
aux@@ 7
avail@@ 7
avo 7
ayak@@ 7
ayi 7
aç@@ 7
bao 7
bel 7
bele 7
bil 7
bir 7
bou@@ 7
bour@@ 7
bres 7
campaign 7
championship 7
chia 7
chim 7
coach 7
competi@@ 7
compil@@ 7
cu 7
debut@@ 7
ded@@ 7
descend@@ 7
det 7
dil 7
disput@@ 7
distribu@@ 7
eco 7
eger 7
egu@@ 7
eki 7
elop@@ 7
elt@@ 7
enda 7
ennis 7
entre 7
eon@@ 7
eses 7
etas 7
eurs 7
evo 7
facil@@ 7
faire 7
favor 7
featur@@ 7
fig 7
fot@@ 7
français 7
haf@@ 7
hava 7
hay 7
haya 7
honor 7
househ@@ 7
iff 7
iges 7
igner 7
ilg@@ 7
iller@@ 7
illes 7
imar@@ 7
immer 7
involved 7
islat@@ 7
isse 7
itali@@ 7
itt 7
iva 7
jia 7
kana 7
kis@@ 7
kiye 7
lance 7
lau@@ 7
lose 7
lyn 7
mel 7
monuments 7
mr@@ 7
municipality 7
mut 7
nan 7
nant 7
ney@@ 7
noi 7
novel@@ 7
oft 7
ogne 7
ongo@@ 7
oper 7
opposition 7
orio 7
orit@@ 7
ose@@ 7
osen 7
owski 7
pas 7
patri@@ 7
pera 7
performances 7
pied 7
plut@@ 7
poin@@ 7
pop 7
portation 7
poss@@ 7
president 7
princ@@ 7
prison@@ 7
publication 7
rad 7
rail 7
realiz@@ 7
relev@@ 7
rement 7
rend@@ 7
rur@@ 7
sai 7
saint 7
sculp@@ 7
sie 7
sif 7
sport 7
summer 7
suppl@@ 7
symbol@@ 7
tas 7
tav@@ 7
tay@@ 7
theater 7
tien 7
til 7
tions@@ 7
tradi@@ 7
transfer@@ 7
uel 7
ularly 7
umba 7
uo 7
urs@@ 7
uso 7
ustr@@ 7
utenant 7
utiliz@@ 7
vat@@ 7
vend@@ 7
vig@@ 7
vor 7
who@@ 7
wol@@ 7
xe 7
xon 7
yani 7
yay@@ 7
yor 7
zar@@ 7
zin 7
zur 7
 7
À@@ 7
Ál@@ 7
Ó 7
Õ@@ 7
ân 7
ène 7
ém@@ 7
ög@@ 7
ön 7
ül@@ 7
ý 7
ı@@ 7
Ō@@ 7
ş@@ 7
ǔ 7
ɨ@@ 7
ʒ 7
ʔ 7
˜ 7
̀ 7
Φ 7
αί@@ 7
ικ@@ 7
ρι@@ 7
ρκ@@ 7
σι@@ 7
σμός 7
ό@@ 7
Алек@@ 7
В@@ 7
Вы@@ 7
За@@ 7
Никола 7
Николай 7
Р@@ 7
Су@@ 7
Ц@@ 7
ан 7
го@@ 7
за@@ 7
ка@@ 7
ков 7
ма@@ 7
мо@@ 7
мы@@ 7
ний 7
ра 7
ри@@ 7
рий 7
с 7
са@@ 7
ы 7
і 7
ғ@@ 7
ו 7
آئین 7
ئ 7
اسلا@@ 7
الدين 7
الز@@ 7
الس@@ 7
المدينة 7
اه@@ 7
اور 7
بنو 7
بني 7
تب@@ 7
تی 7
ث 7
جو@@ 7
جھ@@ 7
حسين 7
دار 7
دار@@ 7
دو@@ 7
دی 7
راء 7
رضا 7
زي@@ 7
ست@@ 7
سما@@ 7
ضلع 7
عة 7
عليه 7
غ 7
فة 7
في@@ 7
قر@@ 7
قص@@ 7
قل@@ 7
كر@@ 7
لا 7
لی 7
مد 7
مُ@@ 7
میم 7
نا 7
ند 7
نور 7
ني 7
وة 7
ولا 7
وم 7
وی 7
وی@@ 7
يا 7
ين@@ 7
ّ 7
ٹی 7
ڌ@@ 7
کر@@ 7
یر 7
ܐ@@ 7
ް@@ 7
ॄ 7
ঠ@@ 7
ৱ@@ 7
ਟ@@ 7
ਡ@@ 7
ੈ 7
ત 7
ૂ@@ 7
ଉ@@ 7
ଚ@@ 7
ଣ 7
ଳ@@ 7
ୀ@@ 7
େ 7
ప 7
ై@@ 7
ಉ@@ 7
ಧ@@ 7
ಷ@@ 7
ಸ 7
ಾ 7
ദ 7
ധ@@ 7
സ 7
ද@@ 7
බ@@ 7
හ@@ 7
ී 7
ง 7
ง@@ 7
ท@@ 7
ม 7
์ 7
ງ 7
ཁ 7
ཕ@@ 7
ཞ@@ 7
ཡ@@ 7
ྗ@@ 7
ྷ@@ 7
ဘ@@ 7
ဝ@@ 7
ံ@@ 7
ი 7
ប@@ 7
ម 7
វ@@ 7
័ 7
Ἰ@@ 7
ὐ@@ 7
‰ 7
∇ 7
⊕ 7
☆ 7
い@@ 7
う 7
か@@ 7
ん 7
エ@@ 7
グ@@ 7
デ@@ 7
メ@@ 7
中 7
五@@ 7
内@@ 7
区 7
大 7
女 7
安@@ 7
帝@@ 7
方@@ 7
明 7
本 7
松@@ 7
特@@ 7
百@@ 7
石@@ 7
空@@ 7
自@@ 7
豆@@ 7
軍 7
銀@@ 7
陀@@ 7
ꠣ@@ 7
ꯁ@@ 7
ꯂ@@ 7
강@@ 7
동@@ 7
리@@ 7
부@@ 7
성 7
에 7
전 7
정@@ 7
조@@ 7
주@@ 7
6. 6
Académie 6
Adams 6
Adri@@ 6
América 6
Ana 6
Angel 6
Angola 6
Art@@ 6
Assemb@@ 6
Baden 6
Baker 6
Bask@@ 6
Benn@@ 6
Born 6
Broadway 6
Bush 6
Chic@@ 6
Chu 6
Ciudad 6
Cruz 6
Dave 6
Diego 6
Distr@@ 6
Dod@@ 6
Dok@@ 6
Ef@@ 6
España 6
Est 6
Europa 6
Fak@@ 6
Fall@@ 6
Film@@ 6
Freder@@ 6
Frit@@ 6
Fré@@ 6
Fé@@ 6
Geh@@ 6
Git@@ 6
Gran 6
Harvard 6
Herz@@ 6
Hoh@@ 6
Inn@@ 6
Instituto 6
Ira@@ 6
Jimmy 6
John@@ 6
Kant@@ 6
Kriegs@@ 6
Leipzig 6
Leopol@@ 6
Loire 6
Lug@@ 6
Luxemb@@ 6
Lý 6
Mek@@ 6
Metal 6
Mex@@ 6
Mey@@ 6
Mp@@ 6
Mw@@ 6
Nobel 6
Oli@@ 6
Portugal 6
Probl@@ 6
Pub@@ 6
Puerto 6
Rac@@ 6
Rest@@ 6
Rid@@ 6
Rit@@ 6
Rodr@@ 6
Roll@@ 6
Seb@@ 6
Sey@@ 6
Sie@@ 6
Single 6
Soh@@ 6
Spain 6
Stal@@ 6
Steve 6
Sá@@ 6
Tenn@@ 6
Theater 6
Town@@ 6
Una 6
Universit@@ 6
Venezuela 6
Viet@@ 6
Virgin@@ 6
Vor@@ 6
XV@@ 6
Xu@@ 6
Yak@@ 6
Yay@@ 6
Zanzibar 6
aat 6
abra 6
aden 6
adil@@ 6
adron 6
afa 6
afi 6
agua 6
aham@@ 6
ahn 6
aires 6
aji@@ 6
aks 6
aland 6
allo 6
amor 6
ampa 6
anat@@ 6
anco 6
appen 6
artist 6
atar 6
atik 6
attach@@ 6
attended 6
aven@@ 6
ayr@@ 6
bach@@ 6
bang 6
bases 6
canti@@ 6
cartes 6
cens@@ 6
chester 6
chung 6
cil@@ 6
clas@@ 6
concert 6
conflic@@ 6
dispos@@ 6
dram@@ 6
dre 6
dér@@ 6
ede 6
ehri 6
eil@@ 6
eke 6
eland 6
emu 6
enas 6
endi 6
ensa 6
enz 6
eras 6
eren 6
erie 6
erk@@ 6
esqu@@ 6
este 6
etc. 6
etu 6
etz 6
eux 6
feld 6
fest 6
festiv@@ 6
football 6
forts 6
fu 6
gare 6
gend 6
gil@@ 6
got@@ 6
graf@@ 6
grup@@ 6
hab 6
hali 6
hang 6
heim@@ 6
heit 6
hen 6
houses 6
igi 6
ikal@@ 6
illustr@@ 6
imi@@ 6
import@@ 6
impres@@ 6
inge 6
inh 6
inner@@ 6
inos 6
ischen 6
isches 6
isel 6
isen 6
iste 6
istes 6
itar 6
itr@@ 6
izi@@ 6
jet@@ 6
jud@@ 6
kas@@ 6
khe@@ 6
kop@@ 6
kus 6
kö@@ 6
league 6
lidae 6
lig 6
loyd 6
magaz@@ 6
manga 6
mann@@ 6
mars 6
mili@@ 6
millions 6
mim@@ 6
muda 6
muj@@ 6
music@@ 6
má@@ 6
nou@@ 6
né 6
oir 6
oire 6
omen 6
omp@@ 6
oux 6
ovo 6
owa 6
paral@@ 6
perior 6
perman@@ 6
pes@@ 6
pom@@ 6
porter 6
premier 6
professor 6
raz@@ 6
recep@@ 6
refu@@ 6
religi@@ 6
resul@@ 6
revel@@ 6
rol 6
route 6
rés 6
sant@@ 6
schaften 6
selves 6
senior 6
sept@@ 6
sera 6
sevi@@ 6
simil@@ 6
sinh 6
suj@@ 6
sul 6
taine 6
tainment 6
tek@@ 6
tem 6
temp@@ 6
thode 6
tik 6
tir 6
tivi@@ 6
tori@@ 6
toria 6
trat@@ 6
trong 6
uda 6
uga 6
uku 6
ume@@ 6
urban@@ 6
usalem 6
uz 6
vania 6
vert 6
vik@@ 6
vu 6
wahi 6
wake 6
wale 6
witz 6
yer@@ 6
yol@@ 6
zu@@ 6
Â 6
àng 6
ás 6
âteau 6
âtre 6
ça 6
ées 6
ét@@ 6
ï 6
ô 6
ör 6
Č@@ 6
đ@@ 6
ę@@ 6
ř 6
ǒ@@ 6
ɲ@@ 6
ʋ@@ 6
ʲ 6
̯ 6
Γ@@ 6
Ι@@ 6
Ν@@ 6
ά 6
άν@@ 6
ή 6
ή@@ 6
αι@@ 6
ακ@@ 6
αν@@ 6
εία 6
ει@@ 6
εια 6
ιν@@ 6
μέ@@ 6
μα 6
ς@@ 6
ψ 6
Ар@@ 6
Ба@@ 6
Бе@@ 6
Гу@@ 6
Л@@ 6
На@@ 6
Ро@@ 6
Со@@ 6
То@@ 6
Хер@@ 6
Ш@@ 6
во 6
го 6
ди 6
лович 6
ля 6
море 6
не@@ 6
ни@@ 6
ник 6
но@@ 6
нов 6
пе@@ 6
пи@@ 6
публики 6
рес@@ 6
ро 6
са 6
ское 6
со@@ 6
сь@@ 6
та@@ 6
ф 6
хал@@ 6
ци@@ 6
ция 6
э 6
ї@@ 6
ائ@@ 6
ات 6
اج@@ 6
اخت@@ 6
الو@@ 6
انه 6
او@@ 6
اي@@ 6
باب 6
باب@@ 6
بیگم 6
ة@@ 6
ته@@ 6
جا 6
جه 6
خر@@ 6
دان 6
دي 6
دہ 6
را 6
رم 6
سيد 6
شو@@ 6
شي@@ 6
صحي@@ 6
صلا@@ 6
عب@@ 6
عباس 6
عت 6
عر@@ 6
على 6
فر@@ 6
كة 6
كري@@ 6
لي@@ 6
لِ@@ 6
مؤ@@ 6
ما 6
مر 6
مرزا 6
مس@@ 6
می 6
نج@@ 6
نص@@ 6
نماز 6
وسلم 6
وف@@ 6
ير@@ 6
يُ@@ 6
ٹ 6
چو@@ 6
کے 6
گی 6
ہے 6
ܟ@@ 6
ރ@@ 6
ި@@ 6
ঝ@@ 6
৳ 6
ਂ 6
ਇ 6
ਪ 6
દ 6
મ 6
ળ@@ 6
સ 6
ଓ 6
ଧ@@ 6
ଶ@@ 6
ୃ@@ 6
ୟ@@ 6
గ 6
శ@@ 6
స 6
ಆ@@ 6
ೀ 6
ೃ@@ 6
ജ 6
ബ@@ 6
ു 6
ග@@ 6
ජ@@ 6
ර 6
ශ 6
ด@@ 6
ต 6
พระ@@ 6
ม@@ 6
ຈ@@ 6
ທ@@ 6
ເ@@ 6
ཚ@@ 6
འ 6
ཤ@@ 6
ྡ@@ 6
ྤ@@ 6
ვ@@ 6
ი@@ 6
ს@@ 6
ል 6
ል@@ 6
ክ@@ 6
ក@@ 6
ង 6
អ@@ 6
ᱢ@@ 6
ᱦ@@ 6
Ṣ@@ 6
ἄ@@ 6
ἰ@@ 6
ῥ@@ 6
‬ 6
℅ 6
○ 6
ⴰ 6
ⵎ@@ 6
ⵣ@@ 6
、 6
た@@ 6
と@@ 6
ん@@ 6
カ@@ 6
ス 6
ッ@@ 6
ナ@@ 6
ブ@@ 6
マ@@ 6
ロ@@ 6
・ 6
ー 6
中国 6
事@@ 6
仁 6
區 6
印@@ 6
孫@@ 6
富@@ 6
島@@ 6
手 6
摩@@ 6
星 6
木 6
林 6
根@@ 6
江@@ 6
沖 6
派 6
湖 6
神@@ 6
經 6
美 6
道@@ 6
部 6
陈@@ 6
高@@ 6
鳥@@ 6
黄@@ 6
龙 6
꫰ 6
개 6
기@@ 6
노@@ 6
반@@ 6
비@@ 6
사@@ 6
선 6
오@@ 6
전@@ 6
화@@ 6
ﺮ@@ 6
ﻣ@@ 6
） 6
🇮 6
🇳 6
🔺 6
2.000 5
Akadem@@ 5
Album 5
Alman@@ 5
Andrea 5
Andro@@ 5
Anton 5
Armen@@ 5
Arsen@@ 5
Bahn 5
Barcelona 5
Bek@@ 5
Ben 5
Bey@@ 5
Bir 5
Bog@@ 5
Boliv@@ 5
Bras@@ 5
Brig@@ 5
Bruce 5
Bu 5
Bundes@@ 5
Canadi@@ 5
Carlos 5
Castro 5
Charlotte 5
Chile 5
Christ 5
Comics 5
Creek 5
DDR 5
Dame 5
Dar 5
Den 5
Deutschen 5
Diy@@ 5
Dop@@ 5
Douglas 5
Ej@@ 5
Ener@@ 5
Ent@@ 5
Euro 5
Evangel@@ 5
Fach@@ 5
Fili@@ 5
Flam@@ 5
Florida 5
Fot@@ 5
Gabri@@ 5
Geometr@@ 5
Glas@@ 5
Grab@@ 5
Grant 5
Guerra 5
Gut@@ 5
Hall@@ 5
Hau@@ 5
Hern@@ 5
Herr@@ 5
Hugo 5
Hồng 5
Ian 5
Ili@@ 5
Kelly 5
Kie@@ 5
Kurt 5
König@@ 5
Lanc@@ 5
Lew@@ 5
Loan 5
Marc 5
Marco 5
Margaret 5
Martin@@ 5
Meter 5
Miguel 5
Mih@@ 5
Mike 5
Minnesota 5
Moy@@ 5
Ms@@ 5
Muh@@ 5
Mustafa 5
Müller 5
Nach@@ 5
Nguyễn 5
Nick 5
Ninh 5
Nis@@ 5
Norman 5
Nou@@ 5
Oscar 5
Paci@@ 5
Papua 5
Partei 5
Parti 5
Peru 5
Philipp@@ 5
Politi@@ 5
Raymond 5
Reichs@@ 5
Renn@@ 5
René 5
Restaur@@ 5
Río 5
Shin@@ 5
Sic@@ 5
Sozial@@ 5
Spor@@ 5
Sydney 5
Syria 5
Trần 5
Uch@@ 5
Un 5
Uta@@ 5
Vak@@ 5
Version 5
Vietnam 5
Vinc@@ 5
Wah@@ 5
Wer@@ 5
Wes@@ 5
Wissen@@ 5
Yug@@ 5
Zer@@ 5
abilidad 5
acces@@ 5
acer@@ 5
achen 5
actr@@ 5
adhi 5
adores 5
afor@@ 5
aines 5
ajo 5
ako 5
alian 5
aliment@@ 5
alition 5
alum@@ 5
americ@@ 5
ampton 5
andro 5
anie 5
anny 5
ansa 5
ansi 5
arn 5
arse 5
asim@@ 5
asser 5
atori@@ 5
atos 5
atz 5
auc@@ 5
auf@@ 5
ausen 5
awe 5
ayar@@ 5
azu 5
azz@@ 5
aña 5
baj@@ 5
bara 5
barr@@ 5
bau 5
bec@@ 5
besch@@ 5
bourg 5
brahim 5
brig@@ 5
brother 5
bunal 5
burg@@ 5
camp 5
candid@@ 5
cant@@ 5
caused 5
champ@@ 5
champion 5
chini 5
chs 5
cic@@ 5
clubs 5
commerci@@ 5
consult@@ 5
corps 5
crec@@ 5
cultur@@ 5
daha 5
debut 5
decor@@ 5
distingu@@ 5
dose 5
droit 5
eastern 5
ebook 5
echo 5
eden@@ 5
efs 5
egal 5
eget@@ 5
elabor@@ 5
eleg@@ 5
endo 5
enzo 5
episode 5
erer 5
erin 5
eshi 5
estar 5
eston 5
ewa 5
fab@@ 5
fabri@@ 5
fern 5
fiction 5
four@@ 5
franch@@ 5
führer 5
git@@ 5
goals 5
grou@@ 5
guer@@ 5
hadi@@ 5
hek@@ 5
hie 5
hii 5
hup@@ 5
icht 5
idad 5
ien@@ 5
ikia 5
iku 5
illon 5
imani 5
impos@@ 5
inas 5
inde 5
introdu@@ 5
iny@@ 5
isme 5
ismus 5
iso 5
isons 5
iye 5
izo 5
kamp@@ 5
kanda 5
kent 5
khai 5
kush@@ 5
liament 5
lich 5
liche 5
lichen 5
lieb 5
lung 5
lé@@ 5
manager 5
mang 5
manufac@@ 5
milli@@ 5
missions 5
mita 5
mite 5
municipal 5
museum 5
namo 5
naz@@ 5
nh 5
nung 5
okrati@@ 5
ologne 5
onald 5
onde 5
onel 5
onship 5
onz@@ 5
opera 5
orf 5
ortho@@ 5
oten 5
otz 5
paci@@ 5
pens@@ 5
pers@@ 5
pia 5
pis@@ 5
plu@@ 5
polici@@ 5
ppe 5
ppi 5
promot@@ 5
publi@@ 5
raine 5
rebel@@ 5
rek@@ 5
reli@@ 5
rence 5
reun@@ 5
rim@@ 5
rom 5
rugby 5
rän@@ 5
sala 5
schrift 5
scored 5
seat 5
sek 5
sev@@ 5
sey@@ 5
singer 5
siz@@ 5
sola 5
sport@@ 5
stad@@ 5
stadt 5
stud@@ 5
succ@@ 5
suite 5
tere 5
terr@@ 5
thel@@ 5
tish@@ 5
tivities 5
tiy@@ 5
tracks 5
trains 5
tras 5
u. 5
ungs@@ 5
ustri@@ 5
utz@@ 5
vera 5
versions 5
vive 5
vivi@@ 5
vote 5
wag@@ 5
wart 5
yao 5
yote 5
zant@@ 5
zer@@ 5
zon 5
zon@@ 5
zw@@ 5
¯ 5
Î 5
ät@@ 5
å 5
ès 5
ég@@ 5
ín@@ 5
ór@@ 5
ø 5
û@@ 5
ün@@ 5
ć@@ 5
Đồng 5
đồng 5
ė 5
ı 5
ǐ@@ 5
ɣ@@ 5
ɦ@@ 5
ɴ 5
ɾ 5
̥ 5
̪ 5
Θ 5
Ο@@ 5
άς 5
άσ@@ 5
έ@@ 5
έρ@@ 5
αλ@@ 5
βά@@ 5
η@@ 5
θος 5
λε@@ 5
σα 5
στ@@ 5
χαλ@@ 5
όν@@ 5
Ал@@ 5
В 5
Ко@@ 5
Ку@@ 5
Росси@@ 5
Си@@ 5
ар@@ 5
бе@@ 5
би@@ 5
вод@@ 5
ге 5
ги@@ 5
гор@@ 5
град 5
да 5
же@@ 5
кая 5
кин 5
ко 5
п 5
рович 5
ру@@ 5
рь 5
си 5
ск 5
ск@@ 5
со 5
сте@@ 5
сть 5
та 5
ха 5
ч@@ 5
ю 5
я@@ 5
ян 5
Ӏ 5
մ@@ 5
ն 5
տ@@ 5
أهل 5
ابو 5
ارة 5
اردو 5
اری 5
از@@ 5
اض 5
اع@@ 5
افغانستان 5
الحسن 5
العزيز 5
الي@@ 5
اک@@ 5
بت 5
بر 5
بل@@ 5
تم@@ 5
تی@@ 5
جة 5
جر@@ 5
جی@@ 5
حی@@ 5
خار@@ 5
خالد 5
خان@@ 5
خوا@@ 5
دا@@ 5
داد 5
درا@@ 5
ده 5
دھ@@ 5
رام 5
رض@@ 5
رف@@ 5
رية 5
زر@@ 5
سب@@ 5
شت 5
شري@@ 5
صاحب 5
ض 5
عائ@@ 5
عثمان 5
عم@@ 5
فت 5
فق@@ 5
فی@@ 5
قاسم 5
قال 5
كت@@ 5
لال 5
له 5
ماء 5
مذ@@ 5
مز@@ 5
مص@@ 5
مق@@ 5
ملك 5
ملک 5
مه 5
میر 5
نق@@ 5
ني@@ 5
نگ@@ 5
وادي 5
وار 5
وان 5
وق@@ 5
يب 5
ٔ 5
پرو@@ 5
ڌ 5
ژ@@ 5
ک 5
کا 5
کر 5
کن@@ 5
کو@@ 5
کھ@@ 5
ڪ@@ 5
گاہ 5
ھ@@ 5
یہ 5
ހ@@ 5
ޙ@@ 5
ॼ 5
উ 5
ঙ@@ 5
ਂ@@ 5
ਇ@@ 5
ਉ@@ 5
ਖ 5
ਗ 5
ਣ@@ 5
ੈ@@ 5
ੌ@@ 5
ક 5
થ@@ 5
શ 5
૦@@ 5
૧@@ 5
ଁ 5
ଗ 5
ଜ@@ 5
ଡ 5
ଣ@@ 5
ଵ@@ 5
ସ 5
଼ 5
ே 5
ధ 5
బ 5
౹ 5
ಎ@@ 5
ಬ 5
ಳ 5
ೈ@@ 5
ೌ@@ 5
വ 5
ൾ 5
අ@@ 5
ක 5
ත 5
ค@@ 5
ว@@ 5
ห 5
็ 5
ນ@@ 5
ຫ@@ 5
ອ@@ 5
ཇ@@ 5
ཏ@@ 5
ྐ@@ 5
ྣ@@ 5
စ 5
ထ@@ 5
ှ@@ 5
თ@@ 5
ნ@@ 5
რ@@ 5
ግ@@ 5
ក 5
ខ 5
ជ 5
ទ 5
ន@@ 5
ស 5
ី@@ 5
ុ@@ 5
ែ@@ 5
ắ@@ 5
ằng 5
Ἀ@@ 5
ᾶ@@ 5
ῦ@@ 5
⁻ 5
™ 5
⊂ 5
ⵀ@@ 5
ⵍ@@ 5
。 5
す@@ 5
ま@@ 5
り 5
イ 5
キ@@ 5
ゴ@@ 5
シ@@ 5
セ@@ 5
タ@@ 5
チ@@ 5
テ@@ 5
ト 5
ド@@ 5
ビ@@ 5
モ@@ 5
不@@ 5
东@@ 5
信@@ 5
元 5
八@@ 5
公司 5
切@@ 5
化@@ 5
北京 5
华@@ 5
原 5
县 5
合@@ 5
四@@ 5
外@@ 5
安 5
定@@ 5
少@@ 5
巴@@ 5
平@@ 5
德 5
性@@ 5
朱@@ 5
村 5
森 5
步@@ 5
武 5
水@@ 5
江 5
治@@ 5
法@@ 5
海 5
王 5
班 5
理 5
田 5
笛 5
羅@@ 5
義@@ 5
育@@ 5
記 5
語 5
谷@@ 5
貴@@ 5
農@@ 5
迦@@ 5
通@@ 5
重@@ 5
雪@@ 5
馬@@ 5
马@@ 5
ꯅ@@ 5
기 5
무@@ 5
박@@ 5
백@@ 5
복 5
삼@@ 5
애@@ 5
어 5
원@@ 5
의@@ 5
젓 5
지@@ 5
한 5
화 5
회@@ 5
 5
𝐚@@ 5
𝐭@@ 5
Adel@@ 4
Akad@@ 4
Alexandre 4
Anto@@ 4
Arbeit@@ 4
Athle@@ 4
Azer@@ 4
Ban 4
Bas 4
Billy 4
Califor@@ 4
Campbell 4
Castilla 4
Cec@@ 4
Cem@@ 4
Chelsea 4
Chris 4
Chu@@ 4
Description 4
Dest@@ 4
Dich@@ 4
Doug@@ 4
Durant 4
Eb@@ 4
Eisen@@ 4
Erd@@ 4
Fantas@@ 4
Feld@@ 4
Felipe 4
Fernando 4
Fig@@ 4
Flug@@ 4
Geb@@ 4
Ghana 4
Gonz@@ 4
Grammy 4
Gren@@ 4
Grenz@@ 4
Grün@@ 4
Guill@@ 4
Guillaume 4
Guin@@ 4
Gustav 4
Hamb@@ 4
Harv@@ 4
Hosp@@ 4
Hud@@ 4
Hà 4
Hö@@ 4
Illinois 4
Indon@@ 4
Ingen@@ 4
Italia 4
Ivoire 4
Jackson 4
Jap@@ 4
Jason 4
Jonathan 4
Julius 4
Kaf@@ 4
Kapit@@ 4
Kent@@ 4
Kinder@@ 4
Klo@@ 4
Kommun@@ 4
Kup@@ 4
Liz@@ 4
Luci@@ 4
Luf@@ 4
Mab@@ 4
Madag@@ 4
Madrid 4
Maf@@ 4
Mal 4
Manuel 4
Margar@@ 4
Mario 4
Marsh@@ 4
Mary@@ 4
Minn@@ 4
Montre@@ 4
Mt@@ 4
México 4
Mỹ 4
Nguyên 4
Nieder@@ 4
Ost@@ 4
Oy@@ 4
Premi@@ 4
Québec 4
Rafael 4
Regi@@ 4
Reich@@ 4
Rek@@ 4
Robinson 4
Rö@@ 4
Sam 4
Schi@@ 4
Schl@@ 4
Schn@@ 4
Schne@@ 4
Schul@@ 4
Schw@@ 4
Schwer@@ 4
Ses 4
Siy@@ 4
Stadi@@ 4
Stadt@@ 4
Stra@@ 4
Tari@@ 4
Thái 4
Trung 4
Tây 4
Univers@@ 4
Uz@@ 4
Wander@@ 4
Well@@ 4
Wilhel@@ 4
Winter 4
Wolf@@ 4
Wur@@ 4
Yas@@ 4
Zanz@@ 4
Zw@@ 4
aam 4
aben 4
abs@@ 4
adan 4
administrative 4
ael 4
aill@@ 4
aises 4
aje 4
aku@@ 4
ald@@ 4
alien 4
alier 4
alim@@ 4
amani 4
amba@@ 4
ambia 4
ambul@@ 4
amen@@ 4
americana 4
anah@@ 4
anh 4
anni 4
anno@@ 4
announc@@ 4
anot@@ 4
antu 4
appear@@ 4
archit@@ 4
argent@@ 4
arist@@ 4
asit@@ 4
assistant 4
assur@@ 4
atif 4
atur 4
austr@@ 4
avant 4
avy@@ 4
axe 4
azo 4
bare 4
bec 4
bek 4
bell 4
bibli@@ 4
bire@@ 4
bourne 4
bre 4
campus 4
carr@@ 4
cars 4
cau@@ 4
ché 4
cid@@ 4
cide 4
collabor@@ 4
coup 4
dad 4
deci@@ 4
dest@@ 4
deutsch@@ 4
dez 4
dido 4
dif@@ 4
dig 4
dipl@@ 4
disci@@ 4
divis@@ 4
dos 4
dos@@ 4
dows 4
duras 4
déj@@ 4
ebe 4
egel 4
eim@@ 4
eler 4
ellschaft 4
enst@@ 4
enti 4
enton@@ 4
eran 4
erre 4
esos 4
evi@@ 4
exclusiv@@ 4
eza 4
faz@@ 4
featured 4
forma 4
för@@ 4
gang 4
garde 4
gether 4
giy@@ 4
grand 4
générale 4
habitants 4
hak 4
hall@@ 4
hao 4
haus 4
heb@@ 4
heit@@ 4
hockey 4
htt@@ 4
icos 4
iden@@ 4
iler@@ 4
iline 4
imba 4
imen 4
imi 4
imin@@ 4
imonio 4
inay@@ 4
inci 4
innen 4
insan@@ 4
internation@@ 4
invas@@ 4
ios 4
isra@@ 4
istas 4
iwa 4
izi 4
japon@@ 4
jed@@ 4
jer@@ 4
jou@@ 4
kim@@ 4
kina 4
kt 4
kurum@@ 4
lac 4
lares 4
leo 4
liches 4
lie@@ 4
lois 4
lug@@ 4
mak 4
mali 4
march@@ 4
mau@@ 4
mayor 4
merc@@ 4
mexic@@ 4
mik@@ 4
milit@@ 4
mini 4
ministr@@ 4
mitt@@ 4
modific@@ 4
monaster@@ 4
mt 4
mé@@ 4
nach@@ 4
nament 4
narr@@ 4
naval 4
nay 4
neces@@ 4
nek@@ 4
nig 4
nin 4
nis@@ 4
occident@@ 4
officer 4
ograf@@ 4
oko 4
olas 4
olm 4
omba 4
omel@@ 4
omon 4
onga 4
onidae 4
ople 4
opo 4
oran@@ 4
oras 4
originally 4
otte 4
ourg 4
ouvre 4
pant@@ 4
permi@@ 4
personnel 4
pf@@ 4
pir@@ 4
politi@@ 4
portant 4
prince 4
prit 4
privil@@ 4
produ@@ 4
promotion 4
puesto 4
puls@@ 4
quel@@ 4
quer 4
quez 4
quán 4
raf@@ 4
rapid@@ 4
recog@@ 4
record@@ 4
regres@@ 4
reich 4
releas@@ 4
reo 4
respons@@ 4
restaur@@ 4
richt 4
riff 4
roqu@@ 4
roy@@ 4
rá@@ 4
sahi@@ 4
sans 4
schen 4
schutz 4
seri 4
serving 4
simpl@@ 4
sozial@@ 4
spiele 4
tek 4
telev@@ 4
templ@@ 4
teur 4
thé@@ 4
tim 4
tiques 4
tival 4
tivo 4
toire 4
trit@@ 4
tropolit@@ 4
tros 4
turned 4
unat@@ 4
unia 4
upe 4
usage 4
uvent@@ 4
uw@@ 4
venir 4
vier 4
voy@@ 4
wach@@ 4
wagen 4
wald 4
west@@ 4
wur@@ 4
zek@@ 4
zones 4
 4
¬ 4
µ 4
À 4
È 4
È@@ 4
Ì 4
Í@@ 4
Österreich 4
ác@@ 4
èque 4
éro@@ 4
év@@ 4
êu 4
ôn 4
ön@@ 4
ún 4
üm@@ 4
İ@@ 4
ł 4
ń@@ 4
Ş@@ 4
ş 4
Ż@@ 4
ǎ 4
ǔ@@ 4
Ǻ 4
ɜ@@ 4
ɫ@@ 4
ɯ@@ 4
ɵ@@ 4
ʃ 4
ʏ@@ 4
ʾ@@ 4
ʿ 4
̰ 4
Θ@@ 4
Κόμμα 4
Λ 4
Περ@@ 4
Τσ@@ 4
Ω@@ 4
ίσ@@ 4
αγ@@ 4
αν 4
ει 4
εύ@@ 4
ης 4
ι@@ 4
ιος 4
κα@@ 4
κύ@@ 4
λί@@ 4
λα@@ 4
ου 4
ουδ@@ 4
πα@@ 4
πος 4
ρα 4
ρα@@ 4
ρό@@ 4
σκ@@ 4
τικός 4
υ 4
υμ@@ 4
χος 4
όν 4
Александ@@ 4
Василь@@ 4
Во@@ 4
Г 4
Га@@ 4
Зем@@ 4
Ке@@ 4
Ма@@ 4
Мар@@ 4
Международ@@ 4
Пет@@ 4
Пре@@ 4
Ре@@ 4
С 4
Север@@ 4
Ха@@ 4
Ч@@ 4
ав@@ 4
бо@@ 4
ве 4
ви@@ 4
вина 4
га@@ 4
гол 4
др 4
ды 4
йн 4
йская 4
кий 4
ку@@ 4
ли 4
ма 4
ми@@ 4
мо 4
мов 4
ниче@@ 4
ну@@ 4
па@@ 4
по@@ 4
пол@@ 4
ран@@ 4
ски 4
сп@@ 4
ст@@ 4
стан 4
сто@@ 4
сы 4
сы@@ 4
ти 4
ти@@ 4
ты 4
щина 4
эн@@ 4
ё@@ 4
ёт@@ 4
հ@@ 4
ր 4
ק 4
آغ@@ 4
أبي 4
إلا 4
إن 4
ئ@@ 4
ات@@ 4
ارت 4
اق@@ 4
البر@@ 4
الري@@ 4
السعودية 4
العربية 4
المملكة 4
امیر 4
انج@@ 4
اُ@@ 4
اہ@@ 4
ایمان 4
بار 4
بال 4
بان@@ 4
بد@@ 4
بش@@ 4
بير 4
تا@@ 4
تف@@ 4
تق@@ 4
تي@@ 4
تَ@@ 4
جبل 4
جي 4
حال@@ 4
حد@@ 4
حدي@@ 4
حركة 4
حضرت 4
خام@@ 4
خو@@ 4
دع@@ 4
دو 4
دير 4
دين@@ 4
دُ@@ 4
رئ@@ 4
راج 4
ران@@ 4
رح@@ 4
رل 4
رون 4
رير 4
ريم 4
زہ 4
زی@@ 4
سان 4
سج@@ 4
سعود 4
سي 4
سية 4
سُ@@ 4
شاہ 4
شد 4
شریف 4
شن 4
ص 4
فا@@ 4
فري@@ 4
قو@@ 4
قُ@@ 4
كر 4
مان@@ 4
مت 4
مج@@ 4
مدينة 4
مسلم 4
مل 4
مين@@ 4
نة 4
نواب 4
نور@@ 4
نی 4
هيم 4
وادی 4
وب@@ 4
وري 4
وف 4
وي 4
وں 4
يخ 4
يم@@ 4
يوم 4
يَ@@ 4
ٌ 4
پن@@ 4
پوری 4
ڑ 4
ژ 4
کا@@ 4
کو 4
کیم 4
ڬ@@ 4
گ 4
گر@@ 4
گل@@ 4
گن@@ 4
گو@@ 4
ھ 4
ھی 4
ہو@@ 4
ہویں 4
یا 4
ܡ@@ 4
ބ@@ 4
ާ@@ 4
ऌ@@ 4
ॢ@@ 4
ॱ@@ 4
ॽ 4
ॿ 4
চ 4
ਣ 4
ਹ 4
ੜ 4
ટ@@ 4
ડ@@ 4
ય@@ 4
લ 4
િ 4
ૃ@@ 4
૨@@ 4
ଂ@@ 4
ଏ@@ 4
ପ 4
ମ 4
ଯ@@ 4
உ@@ 4
வ 4
ீ 4
ఉ@@ 4
ఎ@@ 4
ధ@@ 4
ళ@@ 4
వ 4
ై 4
ో 4
ಂ 4
ಥ 4
ഉ@@ 4
ച 4
ഛ@@ 4
ഞ@@ 4
ബ 4
ഭ@@ 4
ാ 4
ൊ@@ 4
ං@@ 4
ධ@@ 4
ු 4
ො@@ 4
ติ@@ 4
ย@@ 4
ยา@@ 4
ล@@ 4
วั@@ 4
ห@@ 4
อ@@ 4
อุ@@ 4
เข@@ 4
เอ 4
ຂ@@ 4
ດ 4
ດ@@ 4
ພ@@ 4
າ@@ 4
ྦ@@ 4
ྷ 4
ပ 4
ဖ@@ 4
ဟ@@ 4
ါ@@ 4
ខ@@ 4
គ@@ 4
ភ@@ 4
យ 4
យ@@ 4
ᱟ 4
ᱤ@@ 4
ḍ 4
ṇ 4
ẕ 4
ἐ@@ 4
ἴ@@ 4
ὶ 4
ῶ@@ 4
‒ 4
‹ 4
※ 4
⁠ 4
⁰ 4
₣ 4
₨ 4
♯ 4
ⵖ@@ 4
ⵜ@@ 4
ⵢ@@ 4
が@@ 4
け@@ 4
た 4
ち@@ 4
ど@@ 4
み 4
み@@ 4
ク 4
コ 4
サ@@ 4
ョ@@ 4
リ@@ 4
世@@ 4
中央@@ 4
之@@ 4
九@@ 4
京 4
体@@ 4
佛@@ 4
倭 4
克@@ 4
党 4
兵 4
分 4
前@@ 4
功@@ 4
勾@@ 4
千@@ 4
卐 4
原@@ 4
取@@ 4
同@@ 4
唐@@ 4
國 4
夕 4
大學 4
天 4
太@@ 4
子@@ 4
家 4
将@@ 4
岳 4
川@@ 4
州 4
州@@ 4
平 4
年 4
年@@ 4
度@@ 4
徳@@ 4
成@@ 4
文化 4
族@@ 4
月 4
月@@ 4
有@@ 4
朝 4
木@@ 4
术@@ 4
正@@ 4
民 4
無@@ 4
猜@@ 4
理@@ 4
的@@ 4
盆 4
秋@@ 4
立@@ 4
精@@ 4
総@@ 4
维@@ 4
罗@@ 4
羽@@ 4
者 4
股@@ 4
自治@@ 4
色@@ 4
花@@ 4
華@@ 4
藏@@ 4
行 4
角 4
角@@ 4
読@@ 4
議@@ 4
路@@ 4
近@@ 4
郎 4
郭@@ 4
鎮@@ 4
青@@ 4
館 4
馆 4
騰 4
鴻@@ 4
龍 4
龙@@ 4
ꠘ@@ 4
ꯃ@@ 4
ꯇ@@ 4
ꯍ@@ 4
ꯦ@@ 4
관 4
나@@ 4
남@@ 4
도 4
도@@ 4
리 4
배@@ 4
사 4
삼 4
상@@ 4
선@@ 4
스@@ 4
시@@ 4
신@@ 4
아@@ 4
우@@ 4
일@@ 4
정 4
찌@@ 4
 4
ﺳ@@ 4
（ 4
𑐵@@ 4
𝐟@@ 4
2,5 3
Alger@@ 3
Amat@@ 3
Angeles 3
Apr@@ 3
Atl@@ 3
Auf@@ 3
Avenue 3
Aş@@ 3
Bach 3
Barbara 3
Basket@@ 3
Berg 3
Berliner 3
Beruf@@ 3
Bev@@ 3
Bey 3
Buff@@ 3
Bö@@ 3
Büyük@@ 3
Carolina 3
Charl@@ 3
Colomb@@ 3
Columb@@ 3
Comité 3
Con 3
Connecticut 3
Consejo 3
Cumhuriy@@ 3
Denis 3
Dies@@ 3
Dương 3
ESCO 3
Ecuador 3
Eis@@ 3
Elek@@ 3
Entw@@ 3
Estudi@@ 3
Feb@@ 3
Frankfurt 3
Geschichte 3
Gle@@ 3
Grund@@ 3
Gü@@ 3
Gül@@ 3
Harris 3
Haute 3
Hay 3
Heim@@ 3
Histoire 3
Historic 3
Hitler 3
Hoff@@ 3
Hungary 3
Hymen@@ 3
Hòa 3
Hồ 3
Internacional 3
Isra@@ 3
Israeli 3
Jes@@ 3
Jim 3
Josef 3
Kama 3
Kansas 3
Kauf@@ 3
Kenya 3
Kig@@ 3
Kinder 3
Kiswahili 3
León 3
Liver@@ 3
Lo 3
López 3
Lö@@ 3
Maine 3
Mara 3
Martín 3
Marvel 3
Mehmet 3
Mehr@@ 3
Mez@@ 3
Montr@@ 3
Musik@@ 3
Nazi 3
Nha 3
Nord 3
Nord@@ 3
Nouvelle 3
Nueva 3
Ohio 3
Orchestra 3
Oregon 3
Origin@@ 3
Ort@@ 3
Osman@@ 3
Pablo 3
Par 3
Paulo 3
Phúc 3
Regel 3
Rey 3
Rica 3
Rico 3
Rodríguez 3
Rosa 3
Route 3
Rug@@ 3
Sainte 3
Sanat@@ 3
Santos 3
Scottish 3
Singles 3
Sol 3
Sow@@ 3
Spi@@ 3
Sti@@ 3
Stif@@ 3
Stoc@@ 3
Stockh@@ 3
Stur@@ 3
Stuttgart 3
Sus 3
Sü@@ 3
Telev@@ 3
Thủ 3
Tim 3
Township 3
Türk@@ 3
Türkiye 3
Uk@@ 3
Unter@@ 3
Uru@@ 3
Uruguay 3
Villa 3
Viol@@ 3
Viz@@ 3
Việt 3
Vladi@@ 3
Wash@@ 3
Wen@@ 3
Wiener 3
Wirtschafts@@ 3
Wür@@ 3
Württemberg 3
Yên 3
Zel@@ 3
Zürich 3
abilité 3
adal@@ 3
administr@@ 3
adora 3
afe 3
afir@@ 3
afu 3
afé 3
agnie 3
aka@@ 3
akini 3
akula 3
alara 3
alen 3
alik@@ 3
alise 3
alta 3
ambiguation 3
ambo 3
ammlung 3
amor@@ 3
anca 3
angers 3
angu 3
appr@@ 3
arias 3
arriv@@ 3
astron@@ 3
atta@@ 3
atz@@ 3
aub@@ 3
augment@@ 3
auti 3
awala 3
azine 3
bali 3
baya 3
beck 3
bei 3
berg@@ 3
bey@@ 3
biy@@ 3
bois 3
brit@@ 3
cambi@@ 3
cargo 3
cera 3
cette 3
champi@@ 3
chef 3
château 3
confer@@ 3
corresp@@ 3
cours 3
crita 3
cá@@ 3
dej@@ 3
demand@@ 3
derg@@ 3
deutschen 3
disambiguation 3
doba 3
drama 3
drei 3
dü 3
ebu 3
echt 3
eci 3
egem@@ 3
eja 3
eko 3
elas 3
elections 3
eler@@ 3
elik@@ 3
ellen 3
endem@@ 3
enga 3
engi 3
ense@@ 3
entin 3
entos 3
erine 3
esha 3
espace 3
español 3
essen 3
estro 3
estruc@@ 3
estu@@ 3
evangel@@ 3
ezo 3
febr@@ 3
federal 3
femme 3
fik@@ 3
fique 3
firm@@ 3
forsch@@ 3
forte 3
ften 3
fédér@@ 3
gabe 3
gali@@ 3
geg@@ 3
gegen 3
geh@@ 3
genre 3
gesellschaft 3
grab@@ 3
grande 3
gues 3
gus@@ 3
gö@@ 3
hadi 3
hali@@ 3
haline 3
hem 3
histór@@ 3
hoch@@ 3
hosp@@ 3
hud@@ 3
hé@@ 3
ibi 3
icha 3
ichen 3
icht@@ 3
ihe 3
iken 3
iker 3
ilik 3
ilio 3
illet 3
inat@@ 3
incor@@ 3
indi 3
indo 3
ingi 3
interior 3
internationale 3
inu 3
invit@@ 3
irk 3
issen 3
istem@@ 3
its@@ 3
itung 3
iw@@ 3
jaw@@ 3
jeun@@ 3
juni@@ 3
k. 3
kais@@ 3
kalan 3
kari@@ 3
karne 3
kati@@ 3
kaz@@ 3
kia 3
kip@@ 3
kten 3
kuch@@ 3
kuk@@ 3
kum 3
kund@@ 3
kör@@ 3
ladi@@ 3
lanc@@ 3
lara 3
larg@@ 3
laz@@ 3
legen 3
leh@@ 3
lek@@ 3
liga 3
lio 3
mana 3
mash@@ 3
maya 3
maz@@ 3
mez@@ 3
mise 3
mot 3
moto 3
msh@@ 3
musique 3
nen 3
neu 3
nez 3
nous 3
obi 3
occasion 3
occer 3
olay@@ 3
ológ@@ 3
ombe 3
ombi@@ 3
ombo 3
ondo@@ 3
onnes 3
onné 3
ono 3
onte 3
oughout 3
outre 3
pande 3
parents 3
partition 3
pata 3
pays 3
pek@@ 3
pendant 3
perten@@ 3
petite 3
phia 3
piano 3
pierre 3
pointed 3
pok@@ 3
pop@@ 3
ported 3
pour@@ 3
prati@@ 3
presid@@ 3
previ@@ 3
proces@@ 3
provin@@ 3
provincial 3
pson 3
punkt 3
région 3
schw@@ 3
seh@@ 3
sek@@ 3
seur 3
siy@@ 3
soit 3
sous 3
stant@@ 3
stel@@ 3
sti 3
studied 3
studio 3
subsequ@@ 3
tehsil 3
tels 3
tener 3
teri 3
teria 3
terior 3
terre 3
teurs 3
tige 3
timents 3
tours 3
trao 3
trib@@ 3
trik 3
troit 3
tura 3
tí@@ 3
ucion@@ 3
uela 3
uer 3
ulan 3
ungu 3
unu 3
uras 3
urdu 3
usta@@ 3
uten 3
utu 3
utz 3
vement 3
verb@@ 3
vida 3
vio 3
vu@@ 3
waf@@ 3
wanda 3
wig 3
xico 3
yana@@ 3
yaz@@ 3
yoğ@@ 3
yse 3
yü@@ 3
Æ 3
Ç 3
Ñ@@ 3
ß@@ 3
ße 3
ào 3
áp 3
är 3
ème 3
èn 3
ète 3
ètre 3
éc@@ 3
érieure 3
ên 3
ël 3
ías 3
ío 3
òng 3
ól@@ 3
ón@@ 3
óng 3
ów 3
ône 3
ông 3
õ 3
õ@@ 3
öh@@ 3
ös@@ 3
üh@@ 3
ük 3
ül 3
ün 3
ür 3
ütz@@ 3
þ 3
ÿ@@ 3
č 3
Đông 3
ė@@ 3
ğ 3
ń 3
ő@@ 3
ś 3
ɒ 3
ɕ 3
ɖ@@ 3
ɳ@@ 3
ɸ 3
ʑ@@ 3
ʕ@@ 3
ʼ@@ 3
ʾ 3
ˀ@@ 3
ˠ@@ 3
˧ 3
̄ 3
̞ 3
͟ 3
Β 3
Δημοκρατ@@ 3
Ευ@@ 3
Ζ@@ 3
Η@@ 3
Θε@@ 3
Σαρ@@ 3
Υ 3
Χ@@ 3
Ψ 3
ά@@ 3
άπ@@ 3
ές 3
ής 3
ίζ@@ 3
ίν@@ 3
αγγ@@ 3
ασ@@ 3
δελφ@@ 3
δης 3
εδ@@ 3
ην@@ 3
ική 3
ις 3
ισμός 3
κα 3
κρατ@@ 3
λόγ@@ 3
μά@@ 3
μα@@ 3
μον@@ 3
να@@ 3
ναι 3
νη 3
ξ 3
οπ@@ 3
ού@@ 3
πατ@@ 3
πολι@@ 3
πρ@@ 3
πό@@ 3
ρη@@ 3
ρο@@ 3
σμα 3
σσ@@ 3
σύμβ@@ 3
τρα 3
υ@@ 3
υκ@@ 3
φι@@ 3
φιλ@@ 3
φυσ@@ 3
όβ@@ 3
ώ@@ 3
ών 3
Ан@@ 3
Бай@@ 3
Бу@@ 3
Вла@@ 3
Владимир 3
Го@@ 3
Гри@@ 3
Д 3
Да@@ 3
Дмит@@ 3
До@@ 3
Екате@@ 3
Ж@@ 3
З@@ 3
Иванович 3
Кар@@ 3
Ки@@ 3
Ла@@ 3
Ленин@@ 3
М 3
Мен@@ 3
Мон@@ 3
Но@@ 3
При@@ 3
Рес@@ 3
Рос@@ 3
Сер@@ 3
Че@@ 3
Э@@ 3
ак@@ 3
ал@@ 3
бал@@ 3
бир@@ 3
бли@@ 3
во@@ 3
говор@@ 3
государствен@@ 3
гра@@ 3
ден 3
дия 3
ду@@ 3
ер@@ 3
ет@@ 3
ж 3
зы@@ 3
йский 3
ки 3
ки@@ 3
кло@@ 3
края 3
ле 3
ли@@ 3
ло 3
ло@@ 3
лу 3
лы@@ 3
ль 3
льский 3
ман 3
ме@@ 3
мир@@ 3
мия 3
мпи@@ 3
ния 3
ного 3
ност 3
ограниче@@ 3
он 3
ор@@ 3
ос@@ 3
по 3
полу@@ 3
пут@@ 3
ре 3
ри 3
рина 3
ска 3
ской 3
стан@@ 3
ственно 3
стра@@ 3
то 3
ты@@ 3
ур@@ 3
фа@@ 3
ца 3
ч 3
че@@ 3
чи@@ 3
чу@@ 3
ш 3
ым 3
є 3
ѣ 3
қ 3
ҷ@@ 3
Ө@@ 3
Մ@@ 3
կ@@ 3
ց@@ 3
ּ 3
ח 3
ף 3
ץ 3
ء 3
آلہ 3
أ 3
أم 3
ؤ@@ 3
إل@@ 3
إي@@ 3
ئر 3
ئی 3
اء@@ 3
ائے 3
اباد 3
ابل 3
ادة 3
ادی 3
ارہ 3
اسلام 3
افي 3
اق 3
اقبال 3
الأح@@ 3
الإسلا@@ 3
الإسلامية 3
الاح@@ 3
الان@@ 3
البح@@ 3
التح@@ 3
التر@@ 3
الث 3
الجام@@ 3
الجامعة 3
الجه@@ 3
الرا@@ 3
السلام 3
الض@@ 3
الط@@ 3
القدم 3
القي@@ 3
المح@@ 3
المع@@ 3
المق@@ 3
اله 3
امام 3
امت 3
انو 3
اور@@ 3
اول 3
اً 3
اپنے 3
اکبر 3
اں 3
ایت 3
با 3
بار@@ 3
بال@@ 3
بح@@ 3
برج 3
بنت 3
بور@@ 3
بيت 3
بین 3
ةٍ 3
تا 3
تاريخ 3
تر 3
تس@@ 3
تص@@ 3
تع@@ 3
تو@@ 3
تِ 3
ثقافت 3
جا@@ 3
جامعہ 3
جد 3
جز@@ 3
جل@@ 3
جلال 3
جمع@@ 3
جن 3
جه@@ 3
جو 3
جي@@ 3
جہ@@ 3
حان 3
حة 3
خ 3
خت@@ 3
خط@@ 3
خود 3
خي@@ 3
داء 3
دس 3
دون 3
دية 3
ذکر 3
رف 3
رق@@ 3
ره 3
ريا 3
رين 3
رہ 3
ریس 3
ریلو@@ 3
زا 3
زة 3
سا 3
سف@@ 3
سلم 3
سلي@@ 3
سم@@ 3
سو@@ 3
سیم 3
شة 3
شر@@ 3
شرف 3
شع@@ 3
شن@@ 3
شہ 3
شی 3
صح@@ 3
صف@@ 3
صلی 3
طف@@ 3
طل@@ 3
طي@@ 3
عد@@ 3
عش@@ 3
عقی@@ 3
علامہ 3
علیہ 3
عن@@ 3
عون 3
عيد 3
عُ@@ 3
غان 3
غر 3
غري@@ 3
غز@@ 3
غلام 3
فار@@ 3
فت@@ 3
فری@@ 3
فل@@ 3
فَ@@ 3
فی 3
قوم@@ 3
قي 3
قي@@ 3
قَ@@ 3
قی 3
كل 3
كل@@ 3
كية 3
كُ@@ 3
لات 3
لام 3
لت 3
لد 3
لك@@ 3
لكرة 3
لو 3
لوك 3
لي 3
لیم 3
مالك 3
مام 3
مبار@@ 3
مبارک 3
مت@@ 3
مجلس 3
محمود 3
ملائ@@ 3
مهورية 3
مول@@ 3
مک@@ 3
مہ@@ 3
ندر 3
ندی 3
نظام 3
نف@@ 3
نه 3
نه@@ 3
نَ@@ 3
نے 3
هار@@ 3
هي@@ 3
وأ@@ 3
والم@@ 3
وب 3
وت@@ 3
وج@@ 3
ورا 3
وس@@ 3
ولی 3
وما 3
ونی 3
وى 3
ينا 3
ينة 3
يه 3
ِّ@@ 3
ٰ 3
ٹہ 3
ٽ@@ 3
پال 3
پاک@@ 3
پور 3
پی@@ 3
چ 3
چار@@ 3
ډ@@ 3
ڊ 3
ڑ@@ 3
ښ@@ 3
ڤ@@ 3
کار@@ 3
کالج 3
کش@@ 3
کی@@ 3
گا 3
گا@@ 3
گھ@@ 3
ہر 3
ہوں 3
ہی 3
ید 3
یل 3
یم 3
ۍ 3
ێ@@ 3
ې 3
ۓ 3
ܒ@@ 3
ܠ@@ 3
ܢ@@ 3
ܣ@@ 3
ކ@@ 3
ވ@@ 3
ފ@@ 3
ާ 3
ި 3
ެ 3
ެ@@ 3
ऻ@@ 3
ॹ@@ 3
ঢ@@ 3
ৎ 3
ਈ 3
ਘ@@ 3
ਟ 3
ਥ@@ 3
ਧ 3
ਵ 3
ઈ 3
ખ@@ 3
ચ@@ 3
ણ 3
ଇ 3
ଇ@@ 3
ଖ@@ 3
ଚ 3
ଟ@@ 3
ବ 3
ଲ 3
ୌ@@ 3
ஜ 3
ஷ@@ 3
జ 3
ళ 3
హ 3
ృ@@ 3
ే 3
ಘ@@ 3
ಜ 3
ಧ 3
ಭ@@ 3
ಹ 3
ആ@@ 3
ഇ@@ 3
എ@@ 3
ഝ@@ 3
ഞ 3
ഠ@@ 3
ഥ 3
ഥ@@ 3
ഴ@@ 3
ീ 3
ඩ@@ 3
ණ@@ 3
ව 3
ස 3
ළ@@ 3
ි 3
ෙ@@ 3
ก 3
ก@@ 3
กระท@@ 3
การ@@ 3
ข@@ 3
จ@@ 3
ชา@@ 3
ณ@@ 3
ด 3
น 3
บ@@ 3
พ@@ 3
พิ@@ 3
ภาษา@@ 3
มว@@ 3
ร 3
รา@@ 3
ส@@ 3
สา@@ 3
อย@@ 3
ำ@@ 3
เขา 3
ງ@@ 3
ບ@@ 3
ລ@@ 3
ສ@@ 3
ະ 3
ະ@@ 3
ູ@@ 3
ຼ@@ 3
ຽ@@ 3
ཀ 3
ཉ@@ 3
ཊ 3
ཟ@@ 3
ཧ@@ 3
ཨ 3
ཨ@@ 3
ྙ@@ 3
ဂ@@ 3
ဇ@@ 3
ဗ@@ 3
ဲ 3
ံ 3
၊ 3
დ@@ 3
ო@@ 3
ት@@ 3
አ@@ 3
ᐃ@@ 3
ᓄ@@ 3
ᓇ@@ 3
ច@@ 3
ប 3
ព 3
ព@@ 3
ហ@@ 3
ឯ@@ 3
ិ@@ 3
េ@@ 3
ᱜ@@ 3
ᱠ@@ 3
ᱡ@@ 3
ᱮ@@ 3
ᱯ@@ 3
ᱷ@@ 3
ḏ@@ 3
ḫ@@ 3
ṁ@@ 3
ṃ@@ 3
ṣ 3
ṭ 3
ẓ@@ 3
ạch 3
ἡ@@ 3
ἱ@@ 3
Ὀ@@ 3
ὕ@@ 3
ὖ 3
ὰ 3
ὴ@@ 3
ὼ 3
‖ 3
„ 3
‪ 3
₆ 3
₫ 3
№ 3
∧ 3
│ 3
☬ 3
♙ 3
♟ 3
♠ 3
✓ 3
➡ 3
ⴽ@@ 3
ⵉ 3
ⵏ 3
ⵏ@@ 3
ⵓ@@ 3
ⵙ@@ 3
」 3
あ@@ 3
う@@ 3
お@@ 3
き 3
し 3
し@@ 3
て 3
な@@ 3
ゃ@@ 3
ら@@ 3
り@@ 3
わ@@ 3
ア 3
ィ@@ 3
オ@@ 3
ズ 3
タ 3
ド 3
ニ@@ 3
パ@@ 3
プ 3
ボ@@ 3
ミ@@ 3
ラ 3
リ 3
万@@ 3
中國 3
乐@@ 3
二@@ 3
互@@ 3
作@@ 3
傳@@ 3
全@@ 3
兩@@ 3
公@@ 3
兵@@ 3
典 3
出@@ 3
半@@ 3
口 3
古@@ 3
台 3
品@@ 3
唐 3
善 3
园 3
園 3
土@@ 3
在@@ 3
夕@@ 3
大学 3
太 3
夫@@ 3
奥@@ 3
婆@@ 3
字@@ 3
孙@@ 3
学@@ 3
宋@@ 3
宗@@ 3
宮@@ 3
密@@ 3
尔 3
尼 3
尼@@ 3
居 3
岡 3
工@@ 3
常@@ 3
引@@ 3
忠@@ 3
愛 3
愛@@ 3
慶 3
憲@@ 3
所 3
承@@ 3
振@@ 3
探@@ 3
支@@ 3
政府 3
新 3
星@@ 3
時@@ 3
朝@@ 3
林@@ 3
柔@@ 3
柿@@ 3
楽 3
橋 3
機 3
歌 3
正 3
氏 3
汉 3
汉@@ 3
池 3
沢 3
沢@@ 3
泉 3
波@@ 3
洛@@ 3
浦 3
淡@@ 3
港@@ 3
澤 3
然@@ 3
照 3
爱@@ 3
物@@ 3
特 3
玉 3
玉@@ 3
王@@ 3
珍 3
球@@ 3
生 3
生@@ 3
用@@ 3
电@@ 3
画 3
皇帝 3
盧@@ 3
県 3
短@@ 3
社@@ 3
祭 3
秀@@ 3
科 3
章 3
竺@@ 3
米 3
米@@ 3
約 3
維@@ 3
经 3
羅 3
美@@ 3
能@@ 3
臣 3
般@@ 3
草@@ 3
萨@@ 3
蔵@@ 3
衆@@ 3
術 3
衛@@ 3
西 3
訓 3
諸@@ 3
象@@ 3
貨 3
赤@@ 3
银@@ 3
長@@ 3
門 3
関@@ 3
隠@@ 3
雄 3
青 3
静@@ 3
音 3
音@@ 3
风 3
香@@ 3
鬼@@ 3
黃@@ 3
ꜜ@@ 3
ꠟ@@ 3
ꠤ 3
ꯀ@@ 3
ꯄ@@ 3
ꯌ@@ 3
ꯏ@@ 3
ꯕ 3
ꯗ@@ 3
ꯡ 3
ꯨ 3
ꯩ@@ 3
가@@ 3
게@@ 3
고 3
공@@ 3
과 3
광@@ 3
금@@ 3
길@@ 3
녀 3
다 3
대 3
두@@ 3
로 3
만@@ 3
모 3
버@@ 3
부 3
산 3
석 3
설@@ 3
세@@ 3
스 3
안@@ 3
애 3
어@@ 3
여@@ 3
영@@ 3
온@@ 3
옷 3
원 3
은 3
은@@ 3
인 3
일 3
자@@ 3
장@@ 3
재@@ 3
주 3
지 3
진@@ 3
청@@ 3
치@@ 3
트@@ 3
하@@ 3
혜 3
ﺍ 3
ﺔ 3
ﻨ@@ 3
ﻼ@@ 3
￣ 3
𝐜@@ 3
𝐥@@ 3
𝐫 3
🏻 3
0,5 2
14. 2
17. 2
20. 2
5.000 2
9. 2
Academia 2
Alaska 2
Alej@@ 2
Aleksand@@ 2
Alex 2
Alpes 2
Amérique 2
Argentina 2
Arizona 2
Arkansas 2
Arsenal 2
Atlan@@ 2
Atlanta 2
Auf 2
Aun@@ 2
Aus 2
Bei@@ 2
Bien 2
Brasil 2
Budap@@ 2
Bulgar@@ 2
Bé@@ 2
Bürger@@ 2
Bộ 2
Canton 2
Cao 2
Carrera 2
Carter 2
Cet 2
Champions 2
Chart 2
Christoph@@ 2
Chính 2
Clu@@ 2
Congr@@ 2
Copa 2
Coupe 2
Cuba 2
Cá@@ 2
Córdoba 2
Dakota 2
Dani@@ 2
Deniz 2
Depor@@ 2
Dollar 2
Doğ@@ 2
Dres@@ 2
Dresden 2
Ecu@@ 2
Eduardo 2
Ein 2
Eins@@ 2
Engl@@ 2
Er 2
Ere@@ 2
Erz@@ 2
Estados 2
Este 2
Ethiop@@ 2
Ethiopia 2
Famili@@ 2
Fen@@ 2
Fern@@ 2
Fernández 2
Feuer@@ 2
Firma 2
Franco 2
Frau 2
Fred 2
Fuer@@ 2
Für@@ 2
Garc@@ 2
Graf 2
Grec@@ 2
Gruppe 2
Guatemala 2
Gó@@ 2
Halb@@ 2
Hannover 2
Hart@@ 2
Hata 2
Heil@@ 2
Hoch@@ 2
Houston 2
Hoàng 2
Indiana 2
Ital@@ 2
Jahr@@ 2
Jazz 2
Johann@@ 2
Jugend@@ 2
Juni@@ 2
Kamer@@ 2
Kennedy 2
Kent 2
Khánh 2
Kreis 2
Krieg@@ 2
Kunst@@ 2
Kuzey 2
Kwa 2
Köln 2
König 2
Lan 2
Las 2
Laurent 2
Lehr@@ 2
Ligue 2
Lincol@@ 2
Lincoln 2
Literatur 2
Liverpool 2
Lâm 2
Lương 2
Mai 2
Martínez 2
Matt 2
Mf@@ 2
Milan 2
Minh 2
Mississippi 2
Mittel@@ 2
Mosk@@ 2
Muhammed 2
Mundial 2
Munici@@ 2
Müh@@ 2
Napole@@ 2
Nghệ 2
Ngô 2
Nouv@@ 2
Obl@@ 2
Ouest 2
Papa 2
Paraguay 2
Paşa 2
Pek@@ 2
Philadelphia 2
Phong 2
Phú 2
Preu@@ 2
Publi@@ 2
Pueb@@ 2
Quang 2
Queens@@ 2
Quốc 2
Rach@@ 2
Rechts@@ 2
Regiment 2
Rez@@ 2
Rhein@@ 2
Roma 2
Royaume 2
Santi@@ 2
Sarah 2
Schleswig 2
Seine 2
Sich@@ 2
Sicher@@ 2
Situ@@ 2
Slov@@ 2
Sociedad 2
Sos@@ 2
Sov@@ 2
Sprache 2
Staat@@ 2
Sud 2
Suisse 2
São 2
Sé@@ 2
TCN 2
Tanzania 2
Thiên 2
Thủy 2
Tierra 2
Toul@@ 2
Trump 2
Türk 2
Uganda 2
Ukraine 2
Universidad 2
Valencia 2
Valle 2
Vater 2
Vladimir 2
Vĩnh 2
Wald@@ 2
Wasser@@ 2
Wayne 2
Wehr@@ 2
Welt 2
Werke 2
Yen@@ 2
Yun@@ 2
Yüz@@ 2
Zentrum 2
Zimbab@@ 2
abaj@@ 2
acab@@ 2
acias 2
acion@@ 2
acre 2
acus@@ 2
aft@@ 2
agno@@ 2
ahada 2
ahlen 2
aide 2
alie 2
alista 2
altung 2
amento 2
amii 2
amos 2
ampi@@ 2
anay@@ 2
antik 2
anzia 2
apti@@ 2
aray 2
arca 2
aret@@ 2
arqu@@ 2
assen 2
atas@@ 2
atem@@ 2
ateurs 2
atiques 2
atür@@ 2
auch 2
aum@@ 2
auté 2
avier 2
ayd@@ 2
azam@@ 2
azz 2
babu 2
bald 2
bande 2
bea 2
bere@@ 2
besi@@ 2
betr@@ 2
bew@@ 2
bez@@ 2
bild 2
bonne 2
brun@@ 2
bé 2
campe@@ 2
cao 2
cara 2
chos 2
cht@@ 2
chí 2
ciales 2
cina 2
cion@@ 2
cité 2
ció 2
clar@@ 2
cola 2
collaboration 2
coloc@@ 2
combat 2
commen@@ 2
commenc@@ 2
commission 2
como 2
comte 2
comun@@ 2
conom@@ 2
costa 2
county 2
critique 2
cuerpo 2
culos 2
dair 2
dak@@ 2
dari 2
deleg@@ 2
derni@@ 2
deur 2
deutsch 2
deutsche 2
dici@@ 2
dispar@@ 2
doch 2
doctor@@ 2
donn@@ 2
doğan 2
droits 2
duc 2
dungs@@ 2
dès 2
eball 2
eben 2
ección 2
ecia 2
ecken 2
edades 2
ede@@ 2
efe 2
egos 2
eht 2
eines 2
einige 2
eira 2
elen 2
eleza 2
embargo 2
emble 2
emple@@ 2
empres@@ 2
enant 2
encer 2
enden 2
enen 2
engag@@ 2
enor@@ 2
enso 2
envi@@ 2
eos 2
ergie 2
escri@@ 2
esen 2
esine 2
esper@@ 2
estre 2
etts 2
europ@@ 2
euse 2
evin 2
ezi 2
eş@@ 2
fahr@@ 2
fait 2
fak@@ 2
fen 2
ferro@@ 2
fili@@ 2
fils 2
final@@ 2
fiz@@ 2
fonc@@ 2
fond@@ 2
furt 2
fé@@ 2
fér@@ 2
gebr@@ 2
gew@@ 2
ghi 2
giz@@ 2
gol 2
grad 2
group@@ 2
guerre 2
général 2
hakk@@ 2
hamia 2
haut 2
heits@@ 2
herr@@ 2
hif@@ 2
hilo 2
hio 2
historia 2
hoa 2
honneur 2
hui 2
huwa 2
huy@@ 2
hâ@@ 2
hö@@ 2
hệ 2
ibu 2
icio 2
idari 2
idos 2
ift@@ 2
igen 2
ihr@@ 2
ilan 2
ilde 2
ilen 2
ilian 2
illas 2
imbo 2
imiento 2
inah@@ 2
inaugur@@ 2
ingia 2
intro@@ 2
irik@@ 2
isión 2
ismo 2
issen@@ 2
issi@@ 2
istique 2
iten 2
iten@@ 2
itze 2
ités 2
iß@@ 2
jeu 2
jina 2
juli@@ 2
junto 2
kani 2
kea 2
kem@@ 2
kend@@ 2
khu 2
kiz@@ 2
koy@@ 2
kre@@ 2
kub@@ 2
kung 2
kup@@ 2
kura 2
kwa 2
ký 2
lagen 2
lama 2
lege 2
leri 2
lern 2
leur 2
libre 2
licher 2
lichkeit 2
lina 2
liner 2
lir 2
loi 2
lor 2
lui 2
luk@@ 2
lá 2
länd@@ 2
lée 2
lés 2
macht 2
mada 2
madan 2
maji 2
mbal@@ 2
mee 2
meng@@ 2
metre 2
mich@@ 2
mina 2
modern@@ 2
monde 2
most@@ 2
muh@@ 2
municip@@ 2
muz@@ 2
mé 2
naci@@ 2
neas 2
neh@@ 2
nete 2
ngh@@ 2
ngu@@ 2
người 2
noche 2
nom 2
nord 2
nouvelle 2
nten 2
nunca 2
nö@@ 2
nước 2
ocur@@ 2
oine 2
oires 2
ológico 2
onales 2
ondo 2
onen 2
onge@@ 2
onie 2
only@@ 2
onnen 2
onyme 2
operated 2
opol@@ 2
oren 2
osu 2
ouver@@ 2
pale 2
period@@ 2
permet@@ 2
philos@@ 2
polic@@ 2
politician 2
politik 2
politique 2
prendre 2
prison 2
professi@@ 2
prolong@@ 2
provincia 2
pré@@ 2
puer@@ 2
puiss@@ 2
pá@@ 2
quan 2
quarti@@ 2
quel 2
rais 2
rait 2
rangi 2
recherche 2
recht 2
reconn@@ 2
regel@@ 2
rejo@@ 2
reti@@ 2
roi 2
roul@@ 2
rue 2
russ@@ 2
sage 2
sanat@@ 2
scar 2
schaft 2
sche@@ 2
schrif@@ 2
sein 2
seli 2
semble 2
sement 2
serie 2
sich 2
signi@@ 2
siz 2
sobre 2
spap@@ 2
steh@@ 2
sten 2
steri@@ 2
sud 2
sä@@ 2
tech@@ 2
teh@@ 2
teilung 2
tenant 2
tet 2
teş@@ 2
tiller@@ 2
tima 2
titre 2
tiva 2
tora 2
town@@ 2
travers@@ 2
tuy@@ 2
tés 2
tı 2
uca 2
uelle 2
ukumu 2
umbe 2
umi@@ 2
umia 2
umri 2
umu 2
unas 2
unde 2
undu 2
undwa 2
ungen 2
ungo 2
unidad 2
uren 2
urt@@ 2
usal@@ 2
ustos 2
utar@@ 2
uto 2
uwe@@ 2
uyên 2
uç@@ 2
vall@@ 2
vard@@ 2
veau 2
vek@@ 2
vez 2
vile 2
vip@@ 2
volon@@ 2
vos 2
wann 2
waw@@ 2
werk 2
werk@@ 2
wie 2
wissen@@ 2
woh@@ 2
xième 2
yok@@ 2
yor@@ 2
yum 2
yum@@ 2
yıl 2
zeit@@ 2
zey@@ 2
zia 2
zur@@ 2
 2
Ä@@ 2
État 2
Ê 2
Ó@@ 2
Õ 2
Þ@@ 2
ßen 2
ài 2
ái 2
ática 2
âte@@ 2
äl@@ 2
ären 2
çu 2
ève 2
éal 2
école 2
économique 2
éd@@ 2
éli@@ 2
été 2
ême 2
êt 2
ête 2
êtes 2
î 2
öz@@ 2
út@@ 2
û 2
üb@@ 2
üc@@ 2
ücke 2
üd@@ 2
üs@@ 2
üt@@ 2
üz 2
ăng 2
ą 2
ą@@ 2
Đi@@ 2
Định 2
đe 2
đại 2
Ē@@ 2
ę 2
ħ 2
ħ@@ 2
ĩ@@ 2
İ 2
İs@@ 2
İstanbul 2
ık@@ 2
ľ@@ 2
ņ@@ 2
ř@@ 2
Ţ@@ 2
ţ 2
ţ@@ 2
Ū@@ 2
ŭ 2
Ź@@ 2
ż 2
ż@@ 2
Ə@@ 2
ơ 2
ơ@@ 2
ǁ 2
ǁ@@ 2
ǒ 2
ɨ 2
ɲ 2
ɴ@@ 2
ɽ@@ 2
ʂ@@ 2
ʈ@@ 2
ʎ 2
ʙ 2
ʤ@@ 2
ʧ@@ 2
ʹ 2
ʼ 2
ˀ 2
ˤ@@ 2
˥ 2
˩ 2
̂ 2
̆ 2
̟ 2
̮ 2
Άλ@@ 2
Άν@@ 2
Αντι@@ 2
Αργ@@ 2
Δι@@ 2
Ευρωπαϊκ@@ 2
Κα@@ 2
Καρ@@ 2
Κωνσταντινού@@ 2
Με@@ 2
Ν 2
Π 2
Υ@@ 2
άγ@@ 2
άκ@@ 2
άρι@@ 2
έβ@@ 2
έφ@@ 2
ήνη 2
ί 2
ίδ@@ 2
ίδης 2
αδ@@ 2
αλλ@@ 2
αντα@@ 2
ανός 2
αρ@@ 2
αργ@@ 2
αστ@@ 2
ατ@@ 2
βολή 2
γελ@@ 2
γεω@@ 2
δίδ@@ 2
δι@@ 2
διά 2
δο@@ 2
δος 2
δρ@@ 2
εί@@ 2
εις 2
ελ@@ 2
εξ@@ 2
εφ@@ 2
θέ@@ 2
θέν@@ 2
θη 2
θρ@@ 2
θω@@ 2
ιθ@@ 2
ικά 2
και 2
κατ@@ 2
κερ@@ 2
κλ@@ 2
κρά@@ 2
κό@@ 2
λέ@@ 2
λο 2
λύ@@ 2
μέθ@@ 2
μαχ@@ 2
μβ@@ 2
με@@ 2
μετ@@ 2
μμ@@ 2
μν@@ 2
μορφή 2
μος 2
μό@@ 2
νέ@@ 2
νε@@ 2
νω@@ 2
ξέν@@ 2
ξι@@ 2
ο 2
οειδ@@ 2
ολογία 2
ορ@@ 2
ου@@ 2
ους 2
πάρ@@ 2
πτ@@ 2
ρά@@ 2
ρί@@ 2
ραγ@@ 2
ργ@@ 2
ρε@@ 2
ριστο@@ 2
ρο 2
ρυ@@ 2
σχ@@ 2
τά@@ 2
ταυ@@ 2
τη 2
τις 2
το@@ 2
τρι@@ 2
υπ@@ 2
υρ@@ 2
υσ@@ 2
φύ@@ 2
ό 2
όδο@@ 2
όπος 2
όρος 2
όχ@@ 2
ύρ@@ 2
ώ 2
ώς 2
Ϸ 2
АН 2
Аб@@ 2
Александр 2
Алексе@@ 2
Бо@@ 2
Бур@@ 2
Василий 2
Ве@@ 2
Ви@@ 2
Воен@@ 2
Восто@@ 2
Ге@@ 2
Гон@@ 2
Гор@@ 2
Григо@@ 2
Дани@@ 2
Дар@@ 2
Дон@@ 2
Ива@@ 2
К 2
Казах@@ 2
Кам@@ 2
Ком@@ 2
Македо@@ 2
Ман@@ 2
Мари@@ 2
Ме@@ 2
Миха@@ 2
Мор@@ 2
Н 2
О 2
ОО@@ 2
Ор@@ 2
Пав@@ 2
Пан@@ 2
Пе@@ 2
Пере@@ 2
Петер@@ 2
Пол@@ 2
Про@@ 2
Република 2
Республики 2
Ру@@ 2
Сара@@ 2
Северна 2
Сем@@ 2
Сим@@ 2
Совет@@ 2
Ста@@ 2
Тай@@ 2
Тех@@ 2
Ф 2
Фе@@ 2
Фу@@ 2
Фё@@ 2
Хар@@ 2
Хо@@ 2
Ху@@ 2
Ша@@ 2
Ши@@ 2
Я 2
авиацион@@ 2
ад@@ 2
ай@@ 2
атов 2
бай@@ 2
бла@@ 2
бо 2
бург 2
бю@@ 2
вал 2
ван 2
ван@@ 2
ват@@ 2
ве@@ 2
вод 2
вс@@ 2
вский 2
вы 2
вый 2
ген 2
год@@ 2
город 2
гри@@ 2
гу@@ 2
дам 2
ди@@ 2
до 2
дов 2
дор 2
дро@@ 2
дру@@ 2
евна 2
ед@@ 2
ек@@ 2
ел 2
ент 2
жер@@ 2
жество 2
зер@@ 2
зи@@ 2
зиден@@ 2
им 2
имени 2
ин@@ 2
институт 2
ит@@ 2
ите@@ 2
ить 2
йна 2
кан@@ 2
ке 2
ке@@ 2
клет@@ 2
клуб 2
кра@@ 2
ку 2
лай@@ 2
лем 2
лов 2
лов@@ 2
лон 2
лс 2
лу@@ 2
лы 2
лый 2
ля@@ 2
март 2
ме 2
мен@@ 2
мер@@ 2
мет@@ 2
мир 2
мира 2
мор@@ 2
му 2
нал 2
не 2
ни 2
ников 2
нин 2
нин@@ 2
нов@@ 2
ное 2
ок@@ 2
они 2
ора 2
остров 2
от@@ 2
пере@@ 2
пора@@ 2
пре@@ 2
провин@@ 2
публика@@ 2
пы@@ 2
река 2
рен@@ 2
рин 2
рин@@ 2
ро@@ 2
ров@@ 2
руб@@ 2
рус@@ 2
ры 2
сва@@ 2
се 2
ско@@ 2
соци@@ 2
сою@@ 2
сс 2
ствен@@ 2
ство 2
сто 2
стро@@ 2
су@@ 2
сь 2
то@@ 2
тра@@ 2
ть 2
удо@@ 2
ум@@ 2
университет 2
ф@@ 2
хай@@ 2
хан 2
хан@@ 2
хи@@ 2
хов 2
ху@@ 2
це@@ 2
цев 2
ции 2
цкий 2
ча@@ 2
ша@@ 2
ше@@ 2
шев 2
шие 2
ший 2
ья 2
юр@@ 2
ян@@ 2
ћ 2
ң@@ 2
Ա@@ 2
Ի@@ 2
Հ@@ 2
գ@@ 2
զ@@ 2
թ@@ 2
ի 2
լ 2
կ 2
ղ 2
շ@@ 2
ք 2
ֹ 2
־ 2
ׂ@@ 2
ן@@ 2
צ 2
ؒ 2
ء@@ 2
آب 2
آدم 2
آذرب@@ 2
آیت 2
أش@@ 2
أكبر 2
أم@@ 2
أن@@ 2
أه@@ 2
أيام 2
ئن 2
ئي 2
ائن 2
ائی 2
ائی@@ 2
ابی 2
اتحاد 2
اح 2
ادية 2
اذ@@ 2
ارا 2
ارس 2
اره 2
است 2
استاد 2
اسما@@ 2
اسٹیشن 2
اش 2
اض@@ 2
اضي 2
اط@@ 2
اظ@@ 2
اعي 2
افة 2
اك@@ 2
الأر@@ 2
الأس@@ 2
البي@@ 2
الة 2
الت 2
الخط@@ 2
الدولي 2
الدي@@ 2
الرح@@ 2
السل@@ 2
الشه@@ 2
الصح@@ 2
الظ@@ 2
العرا@@ 2
العربي 2
العش@@ 2
العلاقات 2
العمل 2
الغ@@ 2
الغربية 2
القر@@ 2
الكبرى 2
الكبير 2
الكتاب 2
المؤ@@ 2
المج@@ 2
المخت@@ 2
المدرسة 2
المر@@ 2
المس@@ 2
المست@@ 2
النا@@ 2
الهند 2
الوطني 2
امتی@@ 2
امر@@ 2
امن 2
امية 2
امین 2
انس 2
انگ@@ 2
اه 2
اهرة 2
اومة 2
اون@@ 2
اپ@@ 2
اکی@@ 2
اہل 2
بات@@ 2
باد@@ 2
باش@@ 2
بخاری 2
بخش 2
بد 2
برو@@ 2
بع 2
بع@@ 2
بعد 2
بل 2
بلا@@ 2
بلوچستان 2
بيض 2
بين 2
بُ@@ 2
بک 2
بھارت 2
بھی 2
بہادر 2
بی 2
بیر 2
تان 2
تحریک 2
تخب 2
تذ@@ 2
ترو@@ 2
تز@@ 2
تن 2
تن@@ 2
ته 2
تو 2
تونس 2
تي 2
تہ 2
ثابت 2
جام@@ 2
جامعة 2
جان@@ 2
جب@@ 2
جم@@ 2
جن@@ 2
جنة 2
جگ@@ 2
جھیل 2
جہاں 2
جیت 2
حافظ 2
حاق 2
حام@@ 2
حج 2
حدیث 2
حر@@ 2
حم@@ 2
حية 2
حکوم@@ 2
حہ 2
خاتون 2
خدا 2
خر 2
خز@@ 2
خلي@@ 2
خی@@ 2
دا 2
دائ@@ 2
داب 2
دان@@ 2
دت 2
دد 2
درو@@ 2
دري@@ 2
دل 2
دل@@ 2
دم 2
دمشق 2
دن 2
دود 2
دولة 2
دولت 2
ديد 2
دين 2
دیر 2
ذ 2
ذو 2
ذي 2
رائ@@ 2
راب 2
رات 2
راجا 2
رار 2
ران 2
راہ 2
رجل 2
رك@@ 2
رو 2
روح 2
روم 2
رہ@@ 2
رین 2
زب@@ 2
زد 2
زم 2
زي 2
زيز 2
ساتھ 2
سبيل 2
سة 2
سر 2
سرا@@ 2
سرو@@ 2
سز@@ 2
سط@@ 2
سلا@@ 2
سند 2
سنگھ 2
سول@@ 2
سویں 2
سيدي 2
سير 2
سين@@ 2
سٹی@@ 2
سک@@ 2
سی 2
شار@@ 2
شام 2
شاہ@@ 2
شمس 2
شي 2
شید 2
صالح 2
صد@@ 2
صف 2
ضاء 2
ضة 2
ضل 2
طالب 2
طان 2
طة 2
طر 2
طر@@ 2
عائد 2
عالم 2
عالم@@ 2
عبة 2
عظم 2
علا@@ 2
علی@@ 2
عمان 2
عمر@@ 2
عمران 2
فا 2
فات 2
فتح 2
فر 2
فرق 2
فق 2
فل 2
فلسطين 2
فه 2
فو@@ 2
قات 2
قاد@@ 2
قبل@@ 2
قبول 2
قة 2
قد@@ 2
قط@@ 2
قطب 2
قطر 2
قلال 2
قيقة 2
كان 2
كو@@ 2
كي 2
لان@@ 2
لش@@ 2
لغ@@ 2
لمح@@ 2
لن 2
لور@@ 2
لوک 2
لوی 2
لى 2
لية 2
لیل 2
مال 2
مال@@ 2
مانی 2
مبر 2
متح@@ 2
مجمع 2
محبت 2
محفوظ 2
مخ@@ 2
مختار 2
مدر@@ 2
مدرسة 2
مراد 2
مری 2
مز 2
مسة 2
مسلمان 2
مشر@@ 2
مصر 2
معركة 2
ملا 2
ملا@@ 2
ملكة 2
مم@@ 2
منتخب 2
مندر 2
منصور 2
مني 2
مها 2
مون 2
مية 2
مين 2
میاں 2
میری 2
میرے 2
مین 2
ناء 2
ناد@@ 2
نار@@ 2
ندي 2
نس 2
نس@@ 2
نش@@ 2
نشان 2
نظ@@ 2
نية 2
نہ 2
هاب 2
هام 2
هب 2
هذه 2
هن 2
هٔ 2
وال 2
والح@@ 2
وت 2
وح@@ 2
وخ@@ 2
ود@@ 2
ورد 2
وز@@ 2
وش 2
وص@@ 2
وض 2
وط@@ 2
وطن 2
وق 2
ويت 2
وُ@@ 2
ى@@ 2
يات 2
يار 2
يري 2
يز 2
يش@@ 2
يع@@ 2
يك 2
يو 2
يوسف 2
يں 2
ًا 2
ٌ@@ 2
ٍ 2
َّ 2
َّة 2
ّة 2
ٹو@@ 2
ٹھی 2
ټ@@ 2
ٽ 2
پا 2
پاب@@ 2
پار@@ 2
پرا@@ 2
پنجاب 2
پھ@@ 2
پی 2
پیر 2
ځ@@ 2
چھ@@ 2
چی@@ 2
ڈ@@ 2
ڏ@@ 2
ڙ 2
ڙ@@ 2
کراچی 2
کرتا 2
کرتی 2
کری@@ 2
کشمیر 2
کمال 2
کہ 2
کیا 2
کیل 2
گان 2
گر 2
گل 2
گی@@ 2
ڻ@@ 2
ڼ 2
ہار 2
ہندوستانی 2
ہیں 2
ۈ@@ 2
یز 2
یوں 2
یں 2
ە@@ 2
ܚ@@ 2
ܝ 2
ܟ 2
ܠ 2
ܢ 2
ܦ 2
ܫ@@ 2
ܵ@@ 2
ܹ 2
݁ 2
݂ 2
ރ 2
ސ@@ 2
ޑ@@ 2
ޤ@@ 2
ީ 2
ޭ@@ 2
ߊ 2
߬ 2
ॎ 2
ॾ 2
ঁ 2
এ 2
ঞ@@ 2
ঠ 2
ঢ 2
১@@ 2
৪ 2
৯@@ 2
ਆ 2
ਉ 2
ਏ 2
ਏ@@ 2
ਐ@@ 2
ਚ 2
ਫ@@ 2
ਯ@@ 2
ੜ@@ 2
੧ 2
ੰ 2
ઓ@@ 2
ઘ@@ 2
જ 2
ધ 2
ધ@@ 2
પ 2
ફ@@ 2
બ 2
ળ 2
વ 2
૦ 2
૧ 2
ଂ 2
ଆ 2
ଏ 2
ଓ@@ 2
ଖ 2
ଜ 2
ଞ 2
ଠ 2
ଡ@@ 2
ଢ 2
ଧ 2
ଫ@@ 2
ଵ 2
ଷ@@ 2
ୈ 2
ୋ 2
୩ 2
ୱ 2
ୱ@@ 2
ஃ@@ 2
ஈ@@ 2
ஐ 2
ஹ@@ 2
ோ 2
௫@@ 2
ఊ@@ 2
ఖ@@ 2
ఘ@@ 2
ಐ@@ 2
ಠ@@ 2
ഘ@@ 2
ങ@@ 2
ഡ@@ 2
ധ 2
ഫ@@ 2
െ 2
ൈ 2
ൈ@@ 2
ൗ@@ 2
ට@@ 2
ම 2
ෂ 2
හ 2
ී@@ 2
ේ 2
กรม 2
กัน 2
กา@@ 2
ขุ@@ 2
คา@@ 2
งค@@ 2
ช@@ 2
ญ@@ 2
ทร 2
ทอง 2
ป@@ 2
พั@@ 2
ภู@@ 2
มหา@@ 2
มา 2
ยา 2
ยาม 2
ยุ@@ 2
ร@@ 2
ระ 2
รี 2
วรร@@ 2
ศ 2
หลวง 2
อน 2
อย 2
อยุธยา 2
อา@@ 2
ัก@@ 2
ุ 2
฿ 2
เมือง 2
ไ@@ 2
ไทย 2
ປ@@ 2
ມ@@ 2
ແ@@ 2
້ 2
໌ 2
ཌ@@ 2
ཛ@@ 2
ཡ 2
ཱ 2
ཱ@@ 2
ྟ@@ 2
ྣ 2
ྨ 2
ྨ@@ 2
ྭ@@ 2
ྱ 2
င@@ 2
ဇ 2
ဓ@@ 2
ယ@@ 2
ဝ 2
အ 2
ဥ@@ 2
ီ 2
ေ 2
ဲ@@ 2
ြ 2
ွ 2
၆@@ 2
ბ@@ 2
ტ@@ 2
ქ@@ 2
შ@@ 2
ხ@@ 2
ሪ 2
ቀ@@ 2
ን@@ 2
ዕ@@ 2
ዝ 2
ያ 2
ᐊ@@ 2
ᑦ 2
ᑦ@@ 2
ᓗ@@ 2
ᓯ@@ 2
ᖅ 2
ជ@@ 2
ឌ@@ 2
ណ 2
ថ 2
ធ@@ 2
ល 2
ឥ@@ 2
ូ@@ 2
ៀ@@ 2
ោ@@ 2
ំ 2
ះ@@ 2
៊ 2
២ 2
᠎ 2
ᠢ@@ 2
ᠣ@@ 2
ᮔ 2
ᮝ@@ 2
ᮤ@@ 2
᮪ 2
ᱛ 2
ᱛ@@ 2
ᱤ 2
ᱩ@@ 2
ᱪ@@ 2
ᱱ@@ 2
ᱲ 2
ᱹ 2
ᵝ@@ 2
ḱ@@ 2
Ḳ@@ 2
ṉ@@ 2
Ṭ@@ 2
ṯ@@ 2
Ẓ@@ 2
ạc 2
ạn 2
ạnh 2
ẩn 2
ận 2
ắng 2
ẳng 2
ết 2
ện 2
ịnh 2
ử@@ 2
ἁ@@ 2
Ἁ@@ 2
Ἔ@@ 2
ἤ@@ 2
Ἵ@@ 2
ὀ@@ 2
ὅ@@ 2
ῴ@@ 2
‛ 2
⁺ 2
ⁿ 2
ⁿ@@ 2
₃ 2
₤ 2
₭ 2
₮ 2
₱ 2
ℓ@@ 2
⅛ 2
∀ 2
∑ 2
⊖ 2
⋯ 2
⌈ 2
⌉ 2
⏑ 2
◌ 2
☂ 2
♔ 2
♕ 2
♖ 2
♗ 2
♘ 2
♚ 2
♛ 2
♜ 2
♝ 2
♞ 2
✒ 2
⬇ 2
ⴷ@@ 2
ⴻ@@ 2
ⴼ@@ 2
ⵔ@@ 2
ⵕ@@ 2
ⵜ 2
「 2
〜 2
が 2
さ@@ 2
な 2
に 2
ぼ@@ 2
や@@ 2
ょ@@ 2
ら 2
れ 2
ィ 2
ウ 2
ギ@@ 2
ケ@@ 2
ジ 2
ダ@@ 2
ヌ 2
ネ@@ 2
ハ@@ 2
ビ 2
ピ@@ 2
プ@@ 2
ベ@@ 2
ペ@@ 2
ュ@@ 2
ロ 2
ワ@@ 2
世界@@ 2
东 2
並@@ 2
个@@ 2
中华人民共和国 2
中華 2
中華@@ 2
中部 2
主席 2
久@@ 2
义@@ 2
书@@ 2
乳 2
云 2
人民@@ 2
今@@ 2
伟 2
传@@ 2
伯@@ 2
伽@@ 2
住@@ 2
佐@@ 2
何@@ 2
佛 2
使@@ 2
侯 2
侵@@ 2
保 2
保@@ 2
信 2
俣 2
偵 2
備@@ 2
元@@ 2
克 2
公園 2
六@@ 2
共和@@ 2
共和国 2
函@@ 2
列@@ 2
別@@ 2
刺@@ 2
力 2
助 2
動@@ 2
務@@ 2
勝@@ 2
北京@@ 2
南 2
博@@ 2
友@@ 2
可@@ 2
台灣 2
史 2
史@@ 2
右@@ 2
合 2
名 2
君@@ 2
吴@@ 2
命@@ 2
商@@ 2
啟@@ 2
喇@@ 2
喜 2
嘉@@ 2
器@@ 2
國民@@ 2
團@@ 2
圣 2
圣@@ 2
地 2
地@@ 2
坚 2
域@@ 2
基@@ 2
士 2
士@@ 2
夏@@ 2
多@@ 2
夜@@ 2
夫 2
奇 2
奇@@ 2
女@@ 2
妹 2
始@@ 2
姐@@ 2
姫 2
威@@ 2
娘 2
学校 2
宇 2
宗 2
宮 2
寒@@ 2
寶 2
寶@@ 2
寿@@ 2
尔@@ 2
尚@@ 2
局 2
屋 2
岐@@ 2
岛 2
崛@@ 2
巧@@ 2
巴 2
布@@ 2
帝 2
幣 2
幸 2
幼@@ 2
广@@ 2
広@@ 2
庆 2
库@@ 2
府 2
府@@ 2
康 2
康@@ 2
廣@@ 2
式 2
強@@ 2
形@@ 2
彪 2
忍@@ 2
志@@ 2
思@@ 2
总@@ 2
悉@@ 2
情@@ 2
慕 2
我 2
战@@ 2
戰爭 2
戸@@ 2
手@@ 2
才 2
技@@ 2
拉 2
拉@@ 2
振 2
搏 2
擂@@ 2
攝@@ 2
改@@ 2
教 2
教@@ 2
散@@ 2
斌 2
新加坡 2
族 2
昌 2
春@@ 2
昭 2
昭@@ 2
智 2
曲@@ 2
書@@ 2
曾@@ 2
有限公司 2
杉@@ 2
杏 2
条@@ 2
杨@@ 2
果 2
枝 2
條@@ 2
棚@@ 2
業@@ 2
楮@@ 2
楽@@ 2
横@@ 2
樺@@ 2
歌@@ 2
步 2
歲 2
死 2
残@@ 2
比@@ 2
気@@ 2
水 2
沙@@ 2
沪 2
油@@ 2
泰 2
洋 2
洞@@ 2
洲 2
流 2
浄@@ 2
浜@@ 2
淑@@ 2
済@@ 2
渓 2
港 2
湯@@ 2
满@@ 2
滴@@ 2
漫@@ 2
灯@@ 2
熱@@ 2
燈@@ 2
爆@@ 2
牛 2
犯@@ 2
率 2
班@@ 2
現@@ 2
瑟 2
璠 2
瓶 2
由@@ 2
申 2
男@@ 2
町 2
異@@ 2
畿 2
發@@ 2
県@@ 2
真@@ 2
石 2
神 2
福 2
福@@ 2
科@@ 2
秦 2
空 2
竹@@ 2
第@@ 2
算@@ 2
箱@@ 2
精 2
糯@@ 2
紀@@ 2
紅@@ 2
索@@ 2
細@@ 2
経@@ 2
红@@ 2
约@@ 2
线 2
绿 2
羊 2
義 2
老 2
肉@@ 2
臺@@ 2
航@@ 2
良 2
良@@ 2
花 2
英@@ 2
莫@@ 2
菩@@ 2
萬@@ 2
葉@@ 2
蒙 2
蔡@@ 2
薩 2
薩@@ 2
藤@@ 2
蘇@@ 2
處 2
行@@ 2
衣 2
表@@ 2
衫 2
袁@@ 2
訓@@ 2
說@@ 2
説 2
謎 2
讖 2
诚 2
话 2
语 2
谜 2
谷 2
貝 2
赫@@ 2
走@@ 2
赵@@ 2
起 2
跋@@ 2
身 2
軍@@ 2
迅 2
送@@ 2
遍@@ 2
遠@@ 2
都@@ 2
里@@ 2
野 2
野@@ 2
鈴@@ 2
錢 2
鍾@@ 2
長 2
門@@ 2
間@@ 2
関 2
閣@@ 2
间@@ 2
阪@@ 2
际@@ 2
陳@@ 2
陽 2
際@@ 2
雄@@ 2
集@@ 2
震 2
震@@ 2
霜 2
革命 2
韩@@ 2
順 2
食@@ 2
駐@@ 2
髀@@ 2
體@@ 2
高 2
魯@@ 2
鲁@@ 2
鲜@@ 2
鲲 2
麻@@ 2
黑@@ 2
鼠 2
齊 2
齐@@ 2
龍@@ 2
ꠍ@@ 2
ꠐ@@ 2
ꠞ@@ 2
ꠣ 2
ꯃ 2
ꯄ 2
ꯊ@@ 2
ꯔ@@ 2
ꯝ@@ 2
ꯟ 2
ꯟ@@ 2
ꯡ@@ 2
ꯣ@@ 2
ꯤ 2
ꯨ@@ 2
개@@ 2
경@@ 2
공 2
관@@ 2
괴@@ 2
교 2
구@@ 2
글 2
나 2
날 2
내 2
내@@ 2
년 2
는 2
다@@ 2
당@@ 2
동 2
드@@ 2
들@@ 2
등@@ 2
띠 2
라 2
라@@ 2
레@@ 2
름@@ 2
면@@ 2
멸@@ 2
명@@ 2
문@@ 2
물@@ 2
미@@ 2
반 2
방@@ 2
보@@ 2
빛@@ 2
새@@ 2
생@@ 2
세 2
수@@ 2
시 2
식@@ 2
신 2
아 2
액@@ 2
양 2
없@@ 2
역 2
열@@ 2
왕@@ 2
위@@ 2
유 2
장 2
저@@ 2
제@@ 2
조 2
종@@ 2
천@@ 2
철@@ 2
추 2
퀴@@ 2
태@@ 2
톱 2
통@@ 2
투 2
학@@ 2
항@@ 2
해@@ 2
회 2
후@@ 2
 2
ﮔ@@ 2
ﮕ@@ 2
ﮨ@@ 2
ﺏ 2
ﺑ@@ 2
ﺓ 2
ﺘ@@ 2
ﺴ@@ 2
ﻌ@@ 2
ﻗ@@ 2
ﻜ@@ 2
ﻤ@@ 2
ﻦ 2
ﻭ@@ 2
ﻱ 2
ﻲ 2
ﻴ@@ 2
ﻹ@@ 2
～ 2
￷ 2
𐤁@@ 2
𐭓@@ 2
𐭕@@ 2
𑂢 2
𑂫@@ 2
𑂮@@ 2
𑂰@@ 2
𑐒@@ 2
𑐟@@ 2
𑐥@@ 2
𑑀@@ 2
𑑃 2
𑜫 2
𝐝 2
𝐦@@ 2
𝐨@@ 2
𝐭 2
𝐰@@ 2
𝝳@@ 2
🌸 2
🐜 2
💐 2
🚩 2
🜨 2
10. 1
10.000 1
12. 1
13. 1
15. 1
18. 1
19. 1
22. 1
25. 1
30. 1
7. 1
8. 1
Afrika 1
Afrique 1
Aires 1
Akademie 1
Alabama 1
Alberto 1
Alfre@@ 1
Allem@@ 1
Almanya 1
Anadolu 1
Anc@@ 1
Anf@@ 1
Anh 1
Arap@@ 1
Argent@@ 1
Ark@@ 1
Asoci@@ 1
Asociación 1
Ave@@ 1
Avec 1
Ayr@@ 1
Bahari 1
Bahnhof 1
Begriff 1
Benjam@@ 1
Besch@@ 1
Best@@ 1
Bischof 1
Buenos 1
Buna 1
Bundesliga 1
Bundessta@@ 1
Burg 1
Burg@@ 1
Burundi 1
Bà 1
Böl@@ 1
Büh@@ 1
Ceramb@@ 1
Champi@@ 1
Châu 1
Chí 1
Conse@@ 1
Crist@@ 1
Cuando 1
Cumhuriyeti 1
Cô 1
Cộng 1
Daha 1
Dans 1
Dek@@ 1
Denk@@ 1
Departamento 1
Desp@@ 1
Después 1
Deux 1
Dienst@@ 1
Dola 1
Drit@@ 1
Dân 1
Eine 1
Elis@@ 1
Elisabeth 1
Elle 1
Enrique 1
Epis@@ 1
Erk@@ 1
Ermen@@ 1
Estado 1
Esto 1
Eurovision 1
Famil@@ 1
Febru@@ 1
Ferdin@@ 1
Fest@@ 1
Festiv@@ 1
Francia 1
Fren@@ 1
Funk@@ 1
Futbol 1
Fuß@@ 1
Führ@@ 1
García 1
Gast@@ 1
Geg@@ 1
Gemein@@ 1
General@@ 1
Geographie 1
Gesamt@@ 1
Gesch@@ 1
Gew@@ 1
Gia 1
Giov@@ 1
Gleich@@ 1
Gmina 1
González 1
Gord@@ 1
Groß@@ 1
Grund 1
Grupo 1
Grupp@@ 1
Guatem@@ 1
Gymnasium 1
Géographie 1
Gör@@ 1
Gün@@ 1
Güney 1
Hamburg 1
Hamil@@ 1
Haupt@@ 1
Hek@@ 1
Herb@@ 1
Hiv@@ 1
Hockey 1
Holz@@ 1
Hy 1
Hưng 1
Hạ 1
Hải 1
Hậu 1
Hội 1
Ichneum@@ 1
Ih@@ 1
Infan@@ 1
Iowa 1
Jahre 1
Jahrhundert 1
Jamhuri 1
Janeiro 1
Jesús 1
Jew@@ 1
Jorge 1
Kara 1
Không 1
Kip@@ 1
Klasse 1
Kob@@ 1
Konstant@@ 1
Kultur 1
Kultur@@ 1
Kunst 1
Kü@@ 1
Kı@@ 1
Kıbrıs 1
Landes 1
Landes@@ 1
Landkreis 1
Laz@@ 1
Lebens@@ 1
Ley 1
Liga 1
Lima 1
Linc@@ 1
Liên 1
Londres 1
Lucas 1
Ló@@ 1
Lü@@ 1
Machi 1
Marse@@ 1
Mei 1
Meister 1
Ministerio 1
Missouri 1
Muhar@@ 1
Municipal@@ 1
München 1
Nairobi 1
Napo@@ 1
Neben@@ 1
Nguy@@ 1
Nh@@ 1
Nhà 1
Nhân 1
Nigeria 1
Nint@@ 1
Noctuidae 1
Norman@@ 1
Né@@ 1
Nội 1
Oly@@ 1
Orta 1
Panz@@ 1
Pays 1
Pennsyl@@ 1
Perú 1
Pháp 1
Phật 1
Plaza 1
Poliz@@ 1
Por 1
Posteri@@ 1
Privat@@ 1
Produ@@ 1
Produk@@ 1
Pé@@ 1
Pérez 1
Qualif@@ 1
Quan 1
Queensland 1
Quân 1
Qué@@ 1
Rais 1
Regional@@ 1
Reino 1
Roberto 1
Rolle 1
Rom 1
Rugby 1
Ryan 1
Sachsen 1
Salz@@ 1
Savaşı 1
Schiff 1
Schiff@@ 1
Schles@@ 1
Schutz@@ 1
Schweizer 1
Sein 1
Sept@@ 1
Serbia 1
Serie 1
Sevilla 1
Sie 1
Singapo@@ 1
Situation 1
Sok@@ 1
Sommer@@ 1
Sonder@@ 1
Spiel@@ 1
Spieler 1
Staats@@ 1
Stad@@ 1
Stadt 1
Stim@@ 1
Stutt@@ 1
Städ@@ 1
Sult@@ 1
Süd@@ 1
Tage 1
Tam 1
Tanganyika 1
Tanz@@ 1
Teatro 1
Tennessee 1
Thanh 1
Thành 1
Tháng 1
Thánh 1
Tier@@ 1
Tiy@@ 1
Tod 1
Trab@@ 1
Trường 1
Tông 1
Türkçe 1
Tổ 1
Ukr@@ 1
Ulus@@ 1
Um 1
Unidos 1
Unión 1
Unterneh@@ 1
Urugu@@ 1
Uy@@ 1
Val 1
Verfüg@@ 1
Verw@@ 1
Vier@@ 1
Vita 1
Wab@@ 1
Wach@@ 1
Waf@@ 1
Waj@@ 1
Weltkrieg 1
Werk@@ 1
Wisconsin 1
Wrestling 1
Yugoslav@@ 1
Yıl@@ 1
Zeit 1
Zug@@ 1
Zur 1
Zus@@ 1
Zusammen@@ 1
Zwe@@ 1
aal@@ 1
abab@@ 1
abila 1
achsen 1
achten 1
acional 1
aciones 1
acqui@@ 1
acto 1
adhim@@ 1
adini 1
adına 1
affen 1
afu@@ 1
agement 1
agric@@ 1
aguas 1
ahn@@ 1
ahudi 1
aient 1
aifa 1
aile 1
ainsi 1
aison 1
aiss@@ 1
ajou@@ 1
ajwa 1
akadem@@ 1
akati 1
akawa 1
akt@@ 1
aktion 1
albums 1
alem@@ 1
alich@@ 1
alifor@@ 1
alish@@ 1
aliste 1
alité 1
aliye@@ 1
aliza 1
alte 1
alı 1
amac@@ 1
ambre 1
amiento 1
amini 1
ampiy@@ 1
amt 1
amt@@ 1
amua 1
améric@@ 1
américain 1
amı 1
anach@@ 1
anchi 1
ancia 1
ancien 1
ancienne 1
andes 1
angla@@ 1
angwa 1
anischen 1
anistan 1
anlar 1
annen 1
ansas 1
anst@@ 1
antas@@ 1
antigu@@ 1
anz 1
anzi 1
anzo 1
appel 1
arka 1
arkad@@ 1
arla 1
arra 1
arten 1
artist@@ 1
artistes 1
arı 1
arş@@ 1
asist@@ 1
aska 1
assass@@ 1
asse@@ 1
ası 1
atac@@ 1
athol@@ 1
atique 1
atisti@@ 1
ativas 1
ativo 1
atro 1
auf 1
aume 1
aunti 1
autre 1
avec 1
ayant 1
ayna 1
ayud@@ 1
aí@@ 1
año 1
años 1
ağ 1
ağ@@ 1
aş@@ 1
baji 1
banda 1
basketball 1
beginn@@ 1
beiden 1
beit 1
beri 1
betre@@ 1
betrieb 1
bier@@ 1
biç@@ 1
bless@@ 1
bom 1
bord 1
bras 1
bras@@ 1
burger 1
bà 1
bài 1
bé@@ 1
bí 1
bürger@@ 1
büyük 1
bằng 1
camino 1
campa@@ 1
canadi@@ 1
canton 1
carte 1
casa 1
cathol@@ 1
causa 1
centrale 1
cet 1
cez@@ 1
chanson 1
charac@@ 1
chas 1
chemin 1
chez 1
chte 1
chten 1
chủ 1
chữ 1
cias 1
cierto 1
ciones 1
cipe 1
classe 1
cole 1
comman@@ 1
commence 1
commer@@ 1
communes 1
compan@@ 1
conjunto 1
conten@@ 1
contra 1
contre 1
cré@@ 1
création 1
cuer@@ 1
cultura 1
curité 1
curs@@ 1
cây 1
cı 1
daf@@ 1
dah@@ 1
dalg@@ 1
damit 1
dass 1
dau@@ 1
daugh@@ 1
dek 1
ders@@ 1
deten 1
deu@@ 1
deuxième 1
dico 1
diendo 1
dient 1
dieses 1
dific@@ 1
dini 1
dire@@ 1
dirección 1
disco 1
divers 1
divi@@ 1
diye 1
dió 1
données 1
dres 1
ducation 1
dugu 1
dung 1
dée 1
démoc@@ 1
département 1
dévelop@@ 1
día 1
dó@@ 1
dör@@ 1
dır@@ 1
echa 1
ecke 1
económ@@ 1
ecto 1
ecu@@ 1
edad 1
eden 1
effectu@@ 1
egas 1
ehe 1
eher 1
ehr 1
einem 1
einen 1
eint 1
eit@@ 1
ejec@@ 1
ekonom@@ 1
ekt 1
elea 1
elek@@ 1
elik 1
ellik@@ 1
eln 1
emaji 1
ematik 1
emba 1
embar@@ 1
embe 1
emos 1
empl@@ 1
encia 1
encias 1
encontr@@ 1
endorf 1
enfants 1
engo 1
enos 1
enseign@@ 1
entaire 1
entale 1
enten 1
entrada 1
entren@@ 1
entro 1
envir@@ 1
environ 1
erb@@ 1
erc@@ 1
erek 1
erne@@ 1
ersch@@ 1
erse 1
ería 1
esab@@ 1
escal@@ 1
escuela 1
eser@@ 1
esho 1
eshwa 1
esini 1
esinin 1
eso 1
españ@@ 1
estas 1
eten 1
etin 1
etten 1
etwa 1
eté 1
eures 1
européenne 1
eyi 1
eña 1
eño 1
fah@@ 1
fallen 1
famil@@ 1
fang@@ 1
fantas@@ 1
fass@@ 1
feh@@ 1
fica 1
ficas 1
fico 1
financi@@ 1
finanz@@ 1
firme 1
folge 1
folgt 1
franc@@ 1
francesa 1
frei@@ 1
funk@@ 1
fusi@@ 1
gab 1
ganda 1
gaz 1
gebung 1
gegrün@@ 1
gemein@@ 1
gericht 1
gesi 1
ghuli 1
gleich@@ 1
gos 1
gran 1
großen 1
grund@@ 1
grup 1
gruppe 1
guerra 1
gü@@ 1
gün 1
haa 1
habari 1
hac@@ 1
hacer 1
halb 1
halk@@ 1
halten 1
hangi 1
haraka 1
harek@@ 1
hatari 1
hatte 1
haup@@ 1
hausen 1
hija 1
hiki 1
hinter 1
histoire 1
hof 1
homme 1
hommes 1
horas 1
hors 1
hoy 1
huo 1
hàng 1
hör@@ 1
hải 1
học 1
hộ 1
hội 1
ibar 1
ichte 1
ickl@@ 1
idadi 1
iento 1
iert 1
ierte 1
ifa 1
ificación 1
ifu 1
ifu@@ 1
igos 1
ilim@@ 1
illos 1
imu 1
inan@@ 1
inaug@@ 1
incia 1
inco 1
indir@@ 1
individ@@ 1
indwa 1
inen 1
infan@@ 1
ingt 1
insan 1
instal@@ 1
interpr@@ 1
inti@@ 1
inz@@ 1
iques 1
irani 1
iria 1
ishwa 1
isierung 1
isim@@ 1
isinin 1
isième 1
islas 1
ispo 1
isses 1
isti 1
istischen 1
isé 1
itig 1
itos 1
itud 1
iza 1
iç@@ 1
iş@@ 1
jard@@ 1
jazz 1
jefe 1
jeux 1
jos 1
juego 1
juillet 1
juin 1
jähr@@ 1
kaf@@ 1
kale 1
kazi 1
khi@@ 1
khu@@ 1
khẩu 1
kij@@ 1
kik@@ 1
kio 1
kirche 1
klasse 1
kli 1
klin 1
koa 1
kodi 1
kommen 1
konn@@ 1
kreis 1
kte 1
kujit@@ 1
kuli@@ 1
kunde 1
kundi 1
kuw@@ 1
kuwa 1
köy 1
kı 1
laka 1
lamu 1
langue 1
lanz@@ 1
ları 1
lauf@@ 1
layan 1
leit@@ 1
leurs 1
lez 1
lieutenant 1
lili@@ 1
lima 1
linde 1
lise 1
lisi 1
littér@@ 1
logr@@ 1
lte 1
luy@@ 1
lü@@ 1
lığı 1
mahali 1
mains 1
mama 1
manifest@@ 1
manos 1
marc@@ 1
marque 1
maî@@ 1
mbH 1
mehreren 1
meister 1
mej@@ 1
mejor 1
metro 1
mev@@ 1
mey@@ 1
mez 1
ministre 1
minut@@ 1
mip@@ 1
mittel@@ 1
mittler@@ 1
mji 1
modo 1
momento 1
mondi@@ 1
mondiale 1
mont@@ 1
monte 1
mpicos 1
msa@@ 1
muerte 1
munici@@ 1
municipio 1
muz 1
mà 1
mét@@ 1
mê@@ 1
môn 1
mül@@ 1
mün@@ 1
nach 1
nacional 1
naf@@ 1
nahme 1
naye 1
nde 1
nehmer 1
neu@@ 1
neue 1
neur 1
neği 1
nghĩa 1
ngữ 1
nhof 1
nie 1
nim@@ 1
niti@@ 1
nok@@ 1
norte 1
nouv@@ 1
nuevo 1
né@@ 1
nú@@ 1
oben 1
ober@@ 1
obras 1
obst@@ 1
occupation 1
octo@@ 1
oder 1
ografia 1
ographie 1
ográ@@ 1
oku@@ 1
okul@@ 1
ologique 1
olu 1
olur 1
olympi@@ 1
onships 1
opér@@ 1
opération 1
orden 1
orden@@ 1
ordnung 1
origine 1
otras 1
ouverneur 1
ović 1
oza 1
oğlu 1
parec@@ 1
partem@@ 1
partement 1
parti 1
partie 1
passé 1
pek 1
pequeño 1
pero 1
petit 1
pewa 1
phong 1
phủ 1
pier@@ 1
pik 1
pili 1
pino 1
pios 1
plaz@@ 1
plaza 1
pobl@@ 1
población 1
podr@@ 1
porte 1
posible 1
pouv@@ 1
preu@@ 1
primer 1
pris 1
professionn@@ 1
program@@ 1
propose 1
propre 1
protagon@@ 1
protest@@ 1
protég@@ 1
proven@@ 1
präs@@ 1
préc@@ 1
préf@@ 1
prés@@ 1
président 1
publik 1
pueden 1
punk@@ 1
quay 1
queda 1
quelques 1
quier 1
quy 1
qué 1
quả 1
quốc 1
rail@@ 1
raison 1
raum 1
reib@@ 1
reli 1
religie@@ 1
reno 1
reven@@ 1
riere 1
riff@@ 1
rir 1
saat 1
sah 1
sawa 1
sberg 1
schaf@@ 1
schafts@@ 1
schein@@ 1
schen@@ 1
schied@@ 1
schl@@ 1
schluss 1
schreib@@ 1
schutz@@ 1
schwar@@ 1
sechs 1
seig@@ 1
selec@@ 1
senc@@ 1
seph 1
septi@@ 1
seul 1
seurs 1
señ@@ 1
sich@@ 1
sieben 1
sied@@ 1
siempre 1
sigue 1
sind 1
singi 1
siri 1
sita 1
siti@@ 1
siè@@ 1
sión 1
soka 1
sont 1
sos@@ 1
soy@@ 1
statisti@@ 1
stein@@ 1
steller 1
struk@@ 1
studi@@ 1
städ@@ 1
ständi@@ 1
stär@@ 1
such@@ 1
système 1
sé@@ 1
sü@@ 1
sız 1
taille 1
tales 1
tano 1
tarde 1
taus@@ 1
teatro 1
teile 1
tekn@@ 1
tema 1
territoires 1
testen 1
tete 1
thay 1
thiop@@ 1
thuộc 1
ticas 1
tiempo 1
tier@@ 1
tig 1
tigt 1
tiki 1
timm@@ 1
tionn@@ 1
tip 1
tipi 1
tische 1
tiến 1
tiền 1
tnis 1
tober 1
tof@@ 1
toman 1
topr@@ 1
toujours 1
toute 1
tradition@@ 1
tradu@@ 1
trai 1
trang 1
trat 1
travail 1
tren@@ 1
trois 1
trop 1
träge 1
trắng 1
tsch@@ 1
té@@ 1
télé@@ 1
tér@@ 1
tête 1
tín 1
tür@@ 1
tướng 1
ubic@@ 1
ución 1
ucky 1
uerto 1
uku@@ 1
ulaire 1
ulit@@ 1
umani 1
umbu@@ 1
umma 1
umo 1
unca 1
ungano 1
unid@@ 1
urba@@ 1
urch 1
usha 1
usiana 1
usse 1
utili@@ 1
uu 1
uza 1
uzak@@ 1
uzo 1
uş 1
valor 1
verbind@@ 1
verk@@ 1
verkauf@@ 1
vertr@@ 1
verw@@ 1
verz@@ 1
victoria 1
vier@@ 1
villa 1
villes 1
vita 1
viện 1
voie 1
voll@@ 1
vom 1
vya 1
völ@@ 1
wahili 1
waj@@ 1
waka 1
wango 1
wanja 1
waz@@ 1
wech@@ 1
weg@@ 1
wei@@ 1
weise 1
weit@@ 1
weiter 1
werke 1
wes@@ 1
wich@@ 1
wichtig@@ 1
wär@@ 1
wür@@ 1
yali@@ 1
yans@@ 1
yapan 1
yard@@ 1
yazar 1
ycidae 1
yet@@ 1
yine 1
ympi@@ 1
yok 1
z. 1
zahl 1
zaman 1
zas 1
zeh@@ 1
zel@@ 1
zentrum 1
zh 1
zieh@@ 1
zig 1
zil@@ 1
zis@@ 1
ziy@@ 1
zog 1
zor@@ 1
zt 1
zug 1
zuia 1
zul@@ 1
zös@@ 1
 1
 1
 1
 1
¦ 1
Áng@@ 1
Ét@@ 1
Ê@@ 1
Ð@@ 1
Ò@@ 1
Über 1
Über@@ 1
Þ 1
àm 1
àu 1
ác 1
ách 1
ám@@ 1
ánica 1
áo 1
át 1
ático 1
áy 1
âu 1
ã 1
ãi 1
ãn 1
ãy 1
äch@@ 1
ächs@@ 1
äm@@ 1
ände 1
änder@@ 1
ätte 1
ätten 1
äu@@ 1
äuser 1
çat@@ 1
çift@@ 1
ço@@ 1
çı@@ 1
ède 1
èg@@ 1
èmes 1
ènes 1
écn@@ 1
économ@@ 1
écr@@ 1
élé@@ 1
ém 1
éni@@ 1
ép@@ 1
éra 1
ération 1
érie 1
éré 1
éré@@ 1
és@@ 1
éta@@ 1
éti@@ 1
étique 1
étr@@ 1
étu@@ 1
étés 1
ìn 1
ình 1
ích 1
ís@@ 1
île 1
ños 1
óa 1
óc 1
óg@@ 1
ói 1
óm@@ 1
ónom@@ 1
óric@@ 1
ôt 1
öff@@ 1
öne 1
öner@@ 1
öst@@ 1
öster@@ 1
österreich@@ 1
ösung 1
özel 1
öß@@ 1
ùa 1
über 1
über@@ 1
ück 1
ück@@ 1
üge 1
ühr@@ 1
ük@@ 1
ünde 1
üne 1
üst@@ 1
Ā 1
ăm 1
Ć@@ 1
Đế 1
Độ 1
Đức 1
đạo 1
Ė@@ 1
ě 1
ĝ@@ 1
Ğ 1
ĩ 1
ĩnh 1
Ī@@ 1
İl@@ 1
İzmir 1
ıdır 1
ık 1
ıl 1
ıl@@ 1
ım 1
ın 1
ın@@ 1
ını 1
ır@@ 1
ıt 1
ıt@@ 1
ış 1
ķ@@ 1
Ľ@@ 1
Ł 1
ň 1
ŏ@@ 1
ő 1
Œ@@ 1
œur 1
Ŕ 1
ŕ 1
Ş 1
şek@@ 1
şu 1
ť 1
ũ@@ 1
ũng 1
ů 1
ů@@ 1
ű 1
ű@@ 1
ų 1
ź 1
Ž@@ 1
ž 1
Ɔ@@ 1
ư 1
ư@@ 1
ưng 1
ước 1
ườn 1
ường 1
ưởng 1
ǃ 1
ǜ 1
ǧ@@ 1
ǫ 1
ș@@ 1
ɖ 1
ɚ 1
ɣ 1
ɤ@@ 1
ɦ 1
ɯ 1
ɰ@@ 1
ɱ 1
ɳ 1
ɹ 1
ɻ@@ 1
ɽ 1
ʀ 1
ʈ 1
ʉ@@ 1
ʎ@@ 1
ʐ@@ 1
ʙ@@ 1
ʝ@@ 1
ʱ@@ 1
ʷ@@ 1
ʹ@@ 1
ʺ@@ 1
ˆ@@ 1
ˑ@@ 1
ˠ 1
̊ 1
̌ 1
̓ 1
̙ 1
̝ 1
̧ 1
͜ 1
ΐ@@ 1
Αιγ@@ 1
Ακ@@ 1
Αλέξανδ@@ 1
Αν@@ 1
Ανα@@ 1
Ανατολ@@ 1
Απο@@ 1
Γεω@@ 1
Δημ@@ 1
Δημή@@ 1
Δημοκρατία 1
Δημοκρατίας 1
Ε 1
ΕΚ 1
Ελλην@@ 1
Ελληνική 1
Εργ@@ 1
Η 1
Ι 1
Ιν@@ 1
Ισ@@ 1
Κ 1
Κέν@@ 1
Καλ@@ 1
Καν@@ 1
Κιν@@ 1
Κρή@@ 1
Κυβ@@ 1
Κωνσταντινούπολη 1
Λα@@ 1
Μακ@@ 1
Μαλ@@ 1
Μαρ@@ 1
Μεγ@@ 1
Μεσ@@ 1
Μιχαήλ 1
Μουσ@@ 1
Νε@@ 1
Νικ@@ 1
Ο 1
Ολυμπιακ@@ 1
Παν@@ 1
Πανεπιστήμιο 1
Πελ@@ 1
Πλ@@ 1
Πολιτ@@ 1
Προ@@ 1
Πρόεδρος 1
Ρωμα@@ 1
Σημ@@ 1
Σο@@ 1
Σύν@@ 1
Τ 1
Φιλ@@ 1
Χ 1
Ψ@@ 1
άδ@@ 1
άκης 1
άλα 1
άλασ@@ 1
άλι 1
άνα 1
άνα@@ 1
άνη 1
άνθρω@@ 1
άρα 1
άρθ@@ 1
άφ@@ 1
άχ@@ 1
έας 1
έλ@@ 1
έν@@ 1
έπ@@ 1
έρα 1
έρι 1
ήθ@@ 1
ήμα 1
ήμη 1
ήτης 1
ίας 1
ίδα 1
ίδων 1
ίκ@@ 1
ίμ@@ 1
ίων 1
ΰ@@ 1
αία 1
αβ@@ 1
αγι@@ 1
αγορά 1
αζ@@ 1
αθ@@ 1
αμ@@ 1
ανδ@@ 1
αντι@@ 1
αρκ@@ 1
ασθέν@@ 1
ασσ@@ 1
αστερ@@ 1
ατρ@@ 1
ατών 1
αχ@@ 1
βάλλ@@ 1
βα@@ 1
βασ@@ 1
βλ@@ 1
γέν@@ 1
γή@@ 1
γαρ@@ 1
γε@@ 1
γεν@@ 1
γερ@@ 1
γκ@@ 1
γραφ@@ 1
γραφή 1
γραφία 1
δέ@@ 1
δία 1
δε 1
δε@@ 1
δεκα@@ 1
δη 1
δημ@@ 1
δημοκρατ@@ 1
διά@@ 1
δικα@@ 1
δικαι@@ 1
δο 1
δρά@@ 1
δυ@@ 1
είς 1
ειν@@ 1
ειο 1
επ@@ 1
επί@@ 1
εποχή 1
ερ@@ 1
ερν@@ 1
ευ@@ 1
εύει 1
ηδ@@ 1
ημα 1
ηματ@@ 1
ημο 1
ην 1
θάλασσα 1
θάνα@@ 1
θή@@ 1
θαλ@@ 1
θε@@ 1
θρω@@ 1
θυ@@ 1
θύ@@ 1
θύν@@ 1
ια 1
ικής 1
ικό 1
ιου@@ 1
ισης 1
ιστ@@ 1
καθ@@ 1
καθολ@@ 1
καλ@@ 1
καρ@@ 1
καρι@@ 1
κε@@ 1
κης 1
κον@@ 1
κος 1
κράτος 1
κρα@@ 1
κρι@@ 1
κτ@@ 1
κυ@@ 1
κυβερν@@ 1
κυν@@ 1
κυρι@@ 1
κόσμο 1
λεκ@@ 1
λευθερ@@ 1
λευκ@@ 1
λεύ@@ 1
λη 1
λη@@ 1
λις 1
λλ@@ 1
λογία 1
λος 1
λου 1
μάν@@ 1
μένοι 1
μή 1
μαν@@ 1
ματ@@ 1
ματα 1
μεγ@@ 1
μεγάλη 1
μεσ@@ 1
μετρ@@ 1
μη@@ 1
μικρ@@ 1
μο@@ 1
μορ@@ 1
μπο@@ 1
μυ@@ 1
μύ@@ 1
ναϊκ@@ 1
νεκ@@ 1
νησ@@ 1
νο@@ 1
νομ@@ 1
ντ@@ 1
ξ@@ 1
οί 1
οί@@ 1
οβ@@ 1
ογ@@ 1
οδος 1
οι 1
οκ@@ 1
ολόγ@@ 1
οξ@@ 1
ορά 1
οσ@@ 1
οσκ@@ 1
οσφ@@ 1
οφ@@ 1
ού 1
ούδ@@ 1
ούλ@@ 1
ούρ@@ 1
πά@@ 1
πέ@@ 1
πίσ@@ 1
παρ@@ 1
πει@@ 1
πεν@@ 1
περ@@ 1
περί@@ 1
πι@@ 1
πλ@@ 1
πο@@ 1
ποι@@ 1
πολί@@ 1
πολης 1
πολλ@@ 1
πολύ 1
πολύ@@ 1
πρι@@ 1
προ@@ 1
ρέ@@ 1
ρή@@ 1
ρία 1
ρατ@@ 1
ρευ@@ 1
ριν@@ 1
ρου@@ 1
ρω@@ 1
ρύ@@ 1
σε@@ 1
σημει@@ 1
σης 1
σι 1
σιαλ@@ 1
σιμ@@ 1
σμ@@ 1
σπ@@ 1
σπί@@ 1
στ 1
στή@@ 1
σταση 1
στερ@@ 1
στη 1
στρατηγ@@ 1
στό 1
συλλογ@@ 1
συν@@ 1
σφ@@ 1
σω@@ 1
σύ@@ 1
τέ@@ 1
τή@@ 1
τα 1
τα@@ 1
ται 1
ταλ@@ 1
ταξι@@ 1
ταρ@@ 1
τας 1
τε 1
τεία 1
τεκτον@@ 1
τη@@ 1
τικ@@ 1
τική 1
τικό 1
τοιχ@@ 1
τομ@@ 1
τον 1
του@@ 1
τού@@ 1
τρία 1
τρο@@ 1
τω@@ 1
τός 1
υθ@@ 1
υνα@@ 1
υπερ@@ 1
υφ@@ 1
υχ@@ 1
φίλ@@ 1
φαν@@ 1
χα 1
χα@@ 1
χει@@ 1
χλ@@ 1
χν@@ 1
χρ@@ 1
χρυσ@@ 1
χώ@@ 1
ψ@@ 1
ων@@ 1
ωνία 1
ωρ@@ 1
ωση 1
ϊ@@ 1
όγ@@ 1
όδ@@ 1
όκ@@ 1
όλου 1
όμ@@ 1
όμεν@@ 1
όσ@@ 1
ότη@@ 1
όφ@@ 1
ώνη 1
ώρα 1
ϑ 1
ϫ 1
І@@ 1
Ј@@ 1
Ћ@@ 1
Ќ@@ 1
А 1
Ав@@ 1
Авто@@ 1
Ад@@ 1
Ай@@ 1
Ак@@ 1
Ана@@ 1
Андрей 1
Ах@@ 1
Б 1
Бар@@ 1
Бел@@ 1
Бер@@ 1
Би@@ 1
Боль@@ 1
Бре@@ 1
Бро@@ 1
ВМ@@ 1
Вай@@ 1
Вален@@ 1
Вен@@ 1
Виктор 1
Влади@@ 1
Вой@@ 1
Воро@@ 1
Георги@@ 1
Ги@@ 1
Государ@@ 1
Гра@@ 1
Гро@@ 1
Джу@@ 1
Димитър 1
Дру@@ 1
Евге@@ 1
Ел@@ 1
Елена 1
Ер@@ 1
За 1
Запад@@ 1
Зи@@ 1
Иван 1
Из 1
Из@@ 1
Иль@@ 1
Ин@@ 1
Индия 1
Институ@@ 1
Ио@@ 1
Кали@@ 1
Кари@@ 1
Константи@@ 1
Кор@@ 1
Красно@@ 1
Кро@@ 1
Къ@@ 1
Ли@@ 1
Ло@@ 1
Мак@@ 1
Меж@@ 1
Михаил 1
Много 1
Москов@@ 1
Му@@ 1
Н@@ 1
Нар@@ 1
Ни@@ 1
Ниж@@ 1
Никола@@ 1
Нор@@ 1
Ок@@ 1
Ос@@ 1
Отече@@ 1
П 1
Па@@ 1
Пар@@ 1
Первый 1
Петро@@ 1
Пле@@ 1
По@@ 1
Поли@@ 1
Полу@@ 1
РС@@ 1
Ра@@ 1
России 1
СССР 1
Санкт 1
Свя@@ 1
Сергей 1
Сла@@ 1
Сло@@ 1
София 1
Сою@@ 1
Сте@@ 1
Сто@@ 1
Стру@@ 1
Т 1
Те@@ 1
Тер@@ 1
Ти@@ 1
Тран@@ 1
Тру@@ 1
Ту@@ 1
Тур@@ 1
Укра@@ 1
Ф@@ 1
Федера@@ 1
Фран@@ 1
Чер@@ 1
Чу@@ 1
Ш 1
Шар@@ 1
Э 1
Эр@@ 1
Ю 1
Ю@@ 1
Юж@@ 1
ави@@ 1
аври@@ 1
администра@@ 1
акаде@@ 1
ал 1
ален 1
алистиче@@ 1
американ@@ 1
андар@@ 1
ар 1
арти@@ 1
ат@@ 1
ата@@ 1
ати@@ 1
ато@@ 1
б 1
бар@@ 1
бе 1
безопас@@ 1
бер@@ 1
берг 1
би 1
бив@@ 1
бин@@ 1
бло@@ 1
бок 1
боль@@ 1
бра@@ 1
бур@@ 1
бъ@@ 1
бы 1
бы@@ 1
бя@@ 1
вай@@ 1
вана 1
вар@@ 1
вари@@ 1
вая 1
вед@@ 1
вез@@ 1
вели@@ 1
вен 1
вена 1
верх@@ 1
вза@@ 1
вили 1
вна 1
вов 1
вода 1
военно 1
воз@@ 1
вол@@ 1
вом 1
время 1
вро@@ 1
все 1
ву@@ 1
высо@@ 1
вых 1
вян@@ 1
га 1
ган 1
ган@@ 1
гар@@ 1
ге@@ 1
гео@@ 1
глав@@ 1
глу@@ 1
гно@@ 1
гов@@ 1
говори 1
гом 1
гора 1
гори@@ 1
государ@@ 1
гот@@ 1
граждан@@ 1
даль@@ 1
дами 1
дан 1
дворец 1
де 1
действи@@ 1
демокра@@ 1
ден@@ 1
день 1
дер@@ 1
десь 1
дж@@ 1
дин 1
дина 1
дни 1
доро@@ 1
дорож@@ 1
дю@@ 1
ево 1
еле@@ 1
ем 1
ем@@ 1
ен@@ 1
ер 1
ера 1
жа 1
жа@@ 1
ждение 1
женщи@@ 1
жи@@ 1
жил 1
жина 1
жо@@ 1
зан 1
зар 1
зар@@ 1
зат 1
звез@@ 1
зда@@ 1
зе@@ 1
зей 1
земли 1
зен@@ 1
зи 1
зидент@@ 1
зо@@ 1
из@@ 1
избе@@ 1
изо@@ 1
им@@ 1
инди@@ 1
ис@@ 1
искус@@ 1
истори@@ 1
ита 1
ити@@ 1
ито 1
иту@@ 1
йн@@ 1
йско 1
кан 1
кина 1
кипа@@ 1
ков@@ 1
ково 1
кого 1
ком@@ 1
комитет 1
комму@@ 1
компания 1
кор@@ 1
корпус 1
космиче@@ 1
кс 1
лагер@@ 1
лах 1
лев 1
лен@@ 1
лена 1
ление 1
лий 1
лин 1
лит@@ 1
лично 1
лка 1
лова 1
лые 1
льная 1
льное 1
лья@@ 1
любов@@ 1
лё@@ 1
маги@@ 1
мана 1
мар@@ 1
мати@@ 1
мед@@ 1
между 1
международ@@ 1
мел@@ 1
мин 1
миро@@ 1
миче@@ 1
модер@@ 1
мон 1
мона@@ 1
моно@@ 1
мя 1
наро@@ 1
народ@@ 1
нас 1
наси@@ 1
национа@@ 1
нера@@ 1
ние 1
низ@@ 1
низи@@ 1
ница 1
ной 1
нологи@@ 1
ности 1
нуж@@ 1
ны 1
ны@@ 1
ные 1
нь 1
ня 1
ня@@ 1
няя 1
об@@ 1
обо@@ 1
ог@@ 1
од@@ 1
одо@@ 1
око@@ 1
округа 1
оло@@ 1
он@@ 1
они@@ 1
организация 1
ори 1
особен@@ 1
острова 1
от 1
п@@ 1
па 1
партия 1
пи 1
пла@@ 1
пов 1
пов@@ 1
политиче@@ 1
пра@@ 1
прави 1
при 1
продук@@ 1
производ@@ 1
промышлен@@ 1
просто 1
пу 1
пу@@ 1
публика 1
раб@@ 1
рабо@@ 1
раз@@ 1
разработ@@ 1
рай@@ 1
рал 1
рам@@ 1
ран 1
рас@@ 1
револю@@ 1
рен 1
рии 1
рих 1
ров 1
рован@@ 1
рон 1
рон@@ 1
ры@@ 1
рь@@ 1
ря 1
ря@@ 1
сан 1
сбор@@ 1
сви@@ 1
связи 1
се@@ 1
седате@@ 1
село 1
син 1
сия 1
ского 1
сов@@ 1
сова 1
совет 1
совет@@ 1
сом 1
сон 1
сотруд@@ 1
спор@@ 1
сс@@ 1
сса@@ 1
сси@@ 1
ст 1
ста 1
ста@@ 1
ств 1
ства 1
ственной 1
ству 1
степ@@ 1
стер 1
стер@@ 1
сын 1
тат 1
тах 1
те 1
те@@ 1
тель@@ 1
тен@@ 1
техниче@@ 1
технологи@@ 1
тиче@@ 1
тия 1
тка 1
ток 1
тон@@ 1
тора 1
трудо@@ 1
тся 1
ту 1
ту@@ 1
тур 1
тур@@ 1
тя@@ 1
уда@@ 1
укреп@@ 1
ул@@ 1
ун 1
управ@@ 1
усло@@ 1
ут@@ 1
учре@@ 1
фа 1
фе 1
федера@@ 1
флот 1
фронт 1
футбо@@ 1
хо 1
ход@@ 1
художе@@ 1
цията 1
цо 1
ча 1
чар@@ 1
чат@@ 1
че 1
челове@@ 1
чение 1
чень 1
ческая 1
ческий 1
чина 1
чки 1
чно 1
чной 1
шан@@ 1
шая 1
шко 1
шко@@ 1
шу@@ 1
ще 1
щее 1
щен@@ 1
щих 1
ъ@@ 1
ый 1
ье 1
эк@@ 1
электро@@ 1
языка 1
ём@@ 1
ёр 1
ї 1
ў@@ 1
ѣ@@ 1
ѥ@@ 1
ґ@@ 1
ҙ@@ 1
Ү@@ 1
Ұ@@ 1
ұ@@ 1
Һ@@ 1
һ@@ 1
Ә@@ 1
ӣ 1
ө 1
Գ@@ 1
Է@@ 1
Լ@@ 1
Խ@@ 1
Կ@@ 1
Ն@@ 1
Փ@@ 1
ա 1
բ@@ 1
ը 1
լ@@ 1
խ 1
ծ@@ 1
հ 1
ղ@@ 1
չ@@ 1
ջ@@ 1
ս 1
ց 1
ւ 1
ւ@@ 1
ք@@ 1
և@@ 1
ְ 1
ֲ@@ 1
ֳ@@ 1
ַ 1
ֻ@@ 1
ׁ 1
ט 1
ך@@ 1
ס 1
װ@@ 1
؁ 1
؂ 1
؍ 1
ؑ 1
؛ 1
؟ 1
آ 1
آبادی 1
آر@@ 1
آز@@ 1
آزاد 1
آزادی 1
آسيا 1
أت 1
أح@@ 1
أد@@ 1
أر@@ 1
أص@@ 1
أل@@ 1
أمين 1
أن 1
أنها 1
أي@@ 1
أُ@@ 1
إبراهيم 1
إج@@ 1
إلى 1
إن@@ 1
ئر@@ 1
ئے 1
ائب 1
ائنات 1
ابات 1
اة 1
اتا 1
اتح@@ 1
اتذ@@ 1
اتی 1
اث 1
اثر 1
اخ@@ 1
ادات 1
ادر 1
ادل 1
ادم 1
ادي 1
ادھ@@ 1
ادہ 1
اذ 1
ارات 1
ارد 1
اري 1
اریہ 1
اسب 1
اسم 1
اسماعیل 1
اص 1
اطر 1
اع 1
اعة 1
اعدة 1
اعزاز 1
اعظم 1
اغ@@ 1
اف 1
افر 1
افظ@@ 1
افواج 1
اقتص@@ 1
اك 1
الأل@@ 1
الأن@@ 1
الأولى 1
الأي@@ 1
الإج@@ 1
الإسلام 1
الإص@@ 1
الإم@@ 1
الإي@@ 1
الا 1
الاب@@ 1
الات 1
الاتحاد 1
الاس@@ 1
الاشترا@@ 1
الام@@ 1
الب 1
البط@@ 1
التص@@ 1
التق@@ 1
الثالث 1
الثاني 1
الثق@@ 1
الجزائر 1
الجزيرة 1
الجمه@@ 1
الجن@@ 1
الجوية 1
الح 1
الحديث 1
الحر@@ 1
الحق 1
الحكم 1
الحي@@ 1
الخار@@ 1
الخص@@ 1
الذ@@ 1
الرئيسية 1
الرو@@ 1
الزرا@@ 1
الساد@@ 1
السع@@ 1
السو@@ 1
الشع@@ 1
الشيخ 1
الصين 1
الطب 1
العاصمة 1
العالمية 1
العرب 1
العسك@@ 1
العلم 1
الفت@@ 1
الفر@@ 1
الفرنسية 1
القانون 1
القرن 1
القوات 1
الكل@@ 1
الم 1
المتح@@ 1
المسر@@ 1
المسل@@ 1
المسلمين 1
المص@@ 1
المعد@@ 1
المعر@@ 1
المغ@@ 1
المنا@@ 1
المه@@ 1
المي@@ 1
الناس 1
النساء 1
النظ@@ 1
النف@@ 1
النق@@ 1
النه@@ 1
النوع 1
الهي@@ 1
الی 1
الی@@ 1
امة 1
امر 1
انا 1
انجی@@ 1
اند@@ 1
اندر 1
انس@@ 1
انسانی 1
انستان 1
انص@@ 1
انق@@ 1
انقلاب 1
انية 1
انہ 1
انی@@ 1
انیہ 1
او 1
اوقات 1
اول@@ 1
اون 1
اوية 1
اوی@@ 1
اي 1
اُن 1
اٹ@@ 1
اچھی 1
اک 1
اگ@@ 1
اہ 1
ایف 1
ایل 1
ایم 1
این 1
ایک 1
ایک@@ 1
ایہ 1
باء 1
بابا 1
بات 1
باح 1
باد 1
باز 1
بازی 1
باط 1
باغ@@ 1
بالأ@@ 1
بالا 1
باً 1
بج@@ 1
بخ@@ 1
بذ@@ 1
برا 1
برس 1
بري@@ 1
بريل 1
بز@@ 1
بسبب 1
بط@@ 1
بعة 1
بعض 1
بق@@ 1
بلاد 1
بلند 1
بلوچ 1
بلکہ 1
بلی 1
بنا@@ 1
بند 1
بننے 1
بنی 1
بو 1
بوس@@ 1
بون@@ 1
بيا 1
بير@@ 1
بيل 1
بيلة 1
بھائی 1
بھر@@ 1
بہ@@ 1
بہار 1
بہن 1
بیب 1
بیت 1
بیرونی 1
بینک 1
تاب 1
تاب@@ 1
تاج 1
تاح 1
تار@@ 1
تب 1
تبة 1
تبلی@@ 1
تجارت 1
تح@@ 1
تخ@@ 1
تخت 1
ترا@@ 1
ترقی 1
تری 1
تش@@ 1
تصل 1
تض@@ 1
تل@@ 1
تلا@@ 1
تلق@@ 1
تمام 1
تمد 1
تمر 1
تمہ@@ 1
تنظیم 1
توا@@ 1
توب@@ 1
توق@@ 1
تون 1
تون@@ 1
توں 1
تية 1
تين 1
تُ@@ 1
ثار 1
ثلاثة 1
ثم 1
ثناء 1
جاج 1
جار@@ 1
جب 1
جد@@ 1
جر 1
جري 1
جزائر 1
جزيرة 1
جزی@@ 1
جع 1
جعفر 1
جم 1
جماعة 1
جماعت 1
جمال 1
جمع 1
جمہوریہ 1
جنا@@ 1
جنوبی 1
جنگ 1
جوا@@ 1
جون@@ 1
جے 1
حاج@@ 1
حدة 1
حرب 1
حروف 1
حز@@ 1
حزب 1
حس@@ 1
حسب 1
حفاظت 1
حق 1
حق@@ 1
حقوق 1
حقی@@ 1
حك@@ 1
حكومة 1
حل 1
حل@@ 1
حيد 1
حیدر@@ 1
خارج 1
خاص@@ 1
خانہ 1
خت 1
خرا@@ 1
خرج 1
خلا@@ 1
خلی@@ 1
خواجہ 1
خوش 1
خوش@@ 1
خی 1
خیر 1
دات 1
داخ@@ 1
داری 1
دروا@@ 1
دری 1
دری@@ 1
دریا 1
دریائے 1
دست@@ 1
دش@@ 1
دور 1
دور@@ 1
دوس@@ 1
دوسری 1
دوم 1
دوية 1
دھا 1
دیا 1
دیق 1
دین 1
دے 1
ذات 1
ذاتی 1
ذر@@ 1
ذكر 1
ذلك 1
ذہ@@ 1
رأس 1
رائے 1
راج@@ 1
راز 1
رانی 1
راہ@@ 1
رب 1
ربی 1
رت@@ 1
رج@@ 1
رر 1
رس@@ 1
رك 1
رمض@@ 1
رن 1
رنگ 1
رها 1
روز 1
روز@@ 1
روڈ 1
ريد 1
رک@@ 1
ریت 1
ریلوی 1
ریلوے 1
زائ@@ 1
زبان 1
زبانوں 1
زندہ 1
زيد 1
زیادہ 1
زیز 1
سا@@ 1
سات 1
ساح@@ 1
ساحل 1
سار@@ 1
سال@@ 1
سام@@ 1
سب 1
ست 1
ستة 1
ستون 1
سردار 1
سری 1
سعد 1
سك@@ 1
سل 1
سلام 1
سلسل@@ 1
سلسلة 1
سلط@@ 1
سلیم 1
سلیمان 1
سمجھ@@ 1
سن 1
سنة 1
سند@@ 1
سندھ 1
سندھی 1
سنی@@ 1
سو 1
سور 1
سوف 1
سوي@@ 1
سوی 1
سيا 1
سياسي 1
سيس 1
سيم 1
سين 1
سٹ 1
سٹ@@ 1
سپ@@ 1
سکھ 1
سیر 1
سینٹ 1
سے 1
شاد 1
شاع@@ 1
شاعری 1
شان 1
شای@@ 1
شبه 1
شتر 1
شر 1
شف 1
شف@@ 1
شك@@ 1
شو 1
شہ@@ 1
شیخ 1
شیر 1
صار@@ 1
صدر 1
صل 1
صنع@@ 1
صوفی 1
ضر@@ 1
ضم 1
ط 1
طار 1
طالبان 1
طب@@ 1
طرق 1
طريقة 1
طری@@ 1
طل 1
طلب 1
طول 1
طی@@ 1
ظ 1
ظر 1
عات 1
عاش@@ 1
عام 1
عامر 1
عبداللہ 1
عرا@@ 1
عرب 1
عرض 1
عز@@ 1
عط@@ 1
عظ@@ 1
عق@@ 1
علم 1
علماء 1
عم 1
عمرو 1
عمل 1
عنها 1
عنوان 1
عه 1
عهد 1
عية 1
عين 1
غازی 1
غة 1
غر@@ 1
غرب 1
غلا@@ 1
غي@@ 1
غيرة 1
ـ 1
فاق 1
فان@@ 1
فرا@@ 1
فرض 1
فروغ 1
فس 1
فس@@ 1
فض@@ 1
فقد 1
فلم 1
فن 1
فيات 1
فين 1
قائم 1
قانون 1
قب 1
قب@@ 1
قبة 1
قت@@ 1
قد 1
قدر 1
قرب@@ 1
قطع 1
قع 1
قلعہ 1
قه 1
قوانین 1
قوب 1
قومی 1
قی@@ 1
قیام 1
قین 1
كامل 1
كبير 1
كتاب 1
كرا@@ 1
كلا@@ 1
كلي@@ 1
كم 1
كمة 1
كن@@ 1
كون 1
كي@@ 1
لأ@@ 1
لإ@@ 1
لاء 1
لائ@@ 1
لائی 1
لاب 1
لاح 1
لاح@@ 1
لاد 1
لار 1
لاس 1
لاہور 1
لب 1
لب@@ 1
لة 1
لدى 1
لز@@ 1
لس 1
لس@@ 1
لف 1
لف@@ 1
لفة 1
لق 1
لق@@ 1
لكن 1
للا@@ 1
لم@@ 1
لمان 1
لن@@ 1
لول 1
ليس 1
ليل 1
ليون 1
لکھ@@ 1
لگ@@ 1
لیگ 1
مؤسسة 1
مات 1
ماد@@ 1
مار 1
مارے 1
مالی 1
ماية 1
ماہر 1
مای@@ 1
مب@@ 1
مبر@@ 1
متحدہ 1
مثل 1
مجموعة 1
مجھ 1
مجھے 1
محاص@@ 1
محل 1
مخت@@ 1
مختلف 1
مدرسہ 1
مدي@@ 1
مذہب 1
مرا@@ 1
مرة 1
مردوں 1
مرك@@ 1
مرو@@ 1
مرکز 1
مرکزی 1
مزار 1
مس 1
مسر@@ 1
مسعود 1
مسل@@ 1
مسلح 1
مصطلح 1
مض@@ 1
مطار 1
مع 1
معر@@ 1
مفتی 1
مقامات 1
مقدس 1
ملکہ 1
ممتاز 1
مناس@@ 1
مناطق 1
منظر 1
منه 1
منية 1
منٹ 1
منگ@@ 1
منہ 1
مو 1
موت 1
موسم 1
موضوع 1
مول 1
مير 1
ميں 1
مہاج@@ 1
مہی@@ 1
میت 1
میر@@ 1
میرا 1
مینی 1
میڈی@@ 1
میہ 1
نائب 1
نات 1
ناز@@ 1
نامہ 1
نت@@ 1
ندية 1
نر@@ 1
نسی 1
نط@@ 1
نظم 1
نع@@ 1
نقل 1
نل 1
نو 1
نوا@@ 1
نواز 1
نوی 1
نى 1
نُ@@ 1
نٹ 1
نگا 1
نگر 1
نہیں 1
ها 1
ها@@ 1
هات 1
هة 1
هد 1
هذ@@ 1
هم 1
هن@@ 1
هو 1
وأن 1
وإ@@ 1
واء 1
واب 1
واج 1
واح@@ 1
واد 1
واز 1
واق@@ 1
والدین 1
والوں 1
والی 1
وام 1
وان@@ 1
وبا 1
وث 1
وج 1
وجد 1
ودي 1
ودي@@ 1
وز 1
وزیر 1
وس 1
وسی 1
وص 1
وض@@ 1
وط 1
وع 1
وع@@ 1
وغ@@ 1
وفي 1
وك@@ 1
ولت 1
ولو 1
ولي 1
ولي@@ 1
ومات 1
وند 1
وهو 1
وية 1
وير 1
ويل 1
وين 1
وٹ 1
وہ@@ 1
وید 1
يانا 1
يب@@ 1
يت 1
يح@@ 1
يخ@@ 1
يدة 1
يران 1
يز@@ 1
يس 1
يص@@ 1
يف 1
يك@@ 1
يكي 1
ينا@@ 1
يني@@ 1
يه@@ 1
يوليو 1
يين 1
ً@@ 1
١@@ 1
٣ 1
٣@@ 1
٥ 1
ٲ@@ 1
ٹاؤن 1
ٹر@@ 1
ٹو 1
ٹھ@@ 1
ٹیاں 1
ٺ 1
ٻ 1
پ 1
پا@@ 1
پارک 1
پاشا 1
پان@@ 1
پانی 1
پاکستانی 1
پتھر 1
پر 1
پزیر 1
پلی@@ 1
پنج@@ 1
پنجابی 1
پو@@ 1
پورٹ 1
پون@@ 1
پي@@ 1
پھی@@ 1
پہ 1
پہ@@ 1
ٿ 1
ڀ 1
ڀ@@ 1
ڃ 1
ڄ 1
چار 1
چش@@ 1
چند 1
چک 1
چھ 1
چی 1
چین 1
ڇ 1
ڈ 1
ڈاکٹر 1
ډ 1
ڊ@@ 1
ڍ 1
ڏ 1
ڑا 1
ڑی 1
ڦ 1
کال@@ 1
کان 1
کان@@ 1
کت 1
کت@@ 1
کردہ 1
کرو@@ 1
کستان 1
کل 1
کل@@ 1
کوئ@@ 1
کور@@ 1
کوشش 1
کوٹ 1
کوہ 1
کپ@@ 1
کہ@@ 1
کہنا 1
کیونکہ 1
ڪ 1
ګ@@ 1
گھر 1
گھر@@ 1
ڱ 1
ڳ 1
ڵ@@ 1
ں 1
ڻ 1
ہا@@ 1
ہار@@ 1
ہاش@@ 1
ہمیشہ 1
ہند 1
ہند@@ 1
ہندوستان 1
ہو 1
ہوائی 1
ہی@@ 1
ہید 1
ۂ 1
ۃ@@ 1
ۆ 1
یاد 1
یت 1
یرہ 1
یس 1
یور@@ 1
یوسف 1
یک 1
ۏ@@ 1
ے 1
ے@@ 1
ۓ@@ 1
ۤ 1
ۤ@@ 1
۰ 1
۱@@ 1
۲ 1
۳ 1
۹ 1
ܒ 1
ܓ@@ 1
ܕ@@ 1
ܥ@@ 1
ܩ@@ 1
ܬ 1
ܲ@@ 1
ހ 1
ށ@@ 1
އ 1
ވ 1
ދ 1
ގ@@ 1
ޔ@@ 1
ޖ 1
ޖ@@ 1
ޞ@@ 1
ޫ@@ 1
ޮ@@ 1
ߎ 1
ߖ@@ 1
ߞ@@ 1
ߟ@@ 1
߲ 1
ऻ 1
ॎ@@ 1
ॡ 1
ॢ 1
ॶ@@ 1
ॻ 1
ঃ 1
ঃ@@ 1
অ 1
আ 1
ঐ@@ 1
ছ 1
ভ 1
ৄ@@ 1
ৎ@@ 1
৪@@ 1
৬ 1
৭ 1
৭@@ 1
৮ 1
৮@@ 1
৹ 1
ਈ@@ 1
ਊ 1
ਊ@@ 1
ਛ@@ 1
ਝ@@ 1
ਠ@@ 1
ਡ 1
ਢ@@ 1
ਫ 1
ਭ 1
੨ 1
੩ 1
੪ 1
੯ 1
ઇ 1
એ 1
એ@@ 1
ખ 1
ઝ@@ 1
ટ 1
ડ 1
ઢ@@ 1
ફ 1
ય 1
ષ 1
ષ@@ 1
હ 1
઼ 1
ુ 1
ૃ 1
ૈ 1
ૌ@@ 1
૨ 1
૩@@ 1
૪ 1
૫ 1
૭ 1
૯ 1
ଅ 1
ଅ@@ 1
ଆ@@ 1
ଈ 1
ଉ 1
ଊ 1
ଋ 1
ଐ 1
ଔ@@ 1
ଘ 1
ଛ 1
ଛ@@ 1
ଝ 1
ଝ@@ 1
ଟ 1
ଠ@@ 1
ଥ 1
ଫ 1
ଭ 1
ଯ 1
ଲ@@ 1
ହ 1
ୂ 1
ୃ 1
୦ 1
୧ 1
୧@@ 1
୨ 1
୪ 1
୫ 1
୬ 1
୭ 1
୮ 1
୮@@ 1
୯ 1
୯@@ 1
ஃ 1
அ 1
ஆ 1
ஊ@@ 1
ஏ@@ 1
ஐ@@ 1
ஒ 1
ஒ@@ 1
ஓ 1
ஞ 1
ஶ 1
ஹ 1
ெ 1
௭@@ 1
௳ 1
ఈ@@ 1
ఝ@@ 1
థ 1
థ@@ 1
ఫ 1
ఫ@@ 1
భ 1
ఱ 1
ఱ@@ 1
ష@@ 1
ొ 1
ಃ 1
ಓ@@ 1
ಚ 1
ಝ@@ 1
ಠ 1
ಫ 1
ಭ 1
ೂ 1
ೇ 1
ೈ 1
ೊ 1
೦@@ 1
೧ 1
೧@@ 1
೫ 1
ഇ 1
ഉ 1
ഊ@@ 1
ഏ@@ 1
ഒ@@ 1
ഓ@@ 1
ഖ@@ 1
ഗ 1
ഢ@@ 1
ഹ 1
ൂ 1
ൊ 1
ൺ 1
ൻ@@ 1
ൽ@@ 1
ආ@@ 1
ඟ@@ 1
ච@@ 1
ට 1
ඨ@@ 1
ණ 1
ද 1
භ@@ 1
ශ@@ 1
ැ 1
ූ@@ 1
ෛ@@ 1
ෝ@@ 1
กร@@ 1
กรม@@ 1
กุ 1
ครอง@@ 1
จัก@@ 1
จักร@@ 1
จังหวัด 1
จันท@@ 1
จี@@ 1
จุ@@ 1
ฉ@@ 1
ชนะ 1
ชัย 1
ชาติ 1
ชิ@@ 1
ชุ@@ 1
ซิ@@ 1
ฌ@@ 1
ญ 1
ฐ@@ 1
ดา@@ 1
ดิน@@ 1
ดี 1
ตน@@ 1
ตร 1
ตำ@@ 1
ติ 1
ตุ@@ 1
ถ 1
ท 1
ทร@@ 1
ทั@@ 1
ทิ@@ 1
ธิ@@ 1
นก 1
นาง 1
นาง@@ 1
นุ@@ 1
บาท@@ 1
ปก@@ 1
ปฏิ@@ 1
ปร@@ 1
ปล@@ 1
ผ@@ 1
พ.ศ. 1
พย@@ 1
พระพุทธ@@ 1
ฟ 1
ภ@@ 1
ภาค@@ 1
มพ@@ 1
มหาวิทยาลัย@@ 1
มะ@@ 1
มั@@ 1
มา@@ 1
มาร 1
มี 1
ย 1
ยอด@@ 1
รถ 1
รว@@ 1
ระ@@ 1
รั@@ 1
รา 1
ราช 1
ราช@@ 1
ราม 1
ราม@@ 1
ริ@@ 1
ฤ@@ 1
ล 1
ลา 1
ลา@@ 1
ลิ@@ 1
ว 1
วง 1
วง@@ 1
วิ@@ 1
วี 1
วุธ 1
ศ@@ 1
ศรี@@ 1
ศาส@@ 1
ษ@@ 1
ษฐาน 1
ส 1
สง@@ 1
สม@@ 1
สระ 1
สะ@@ 1
สัน@@ 1
สาน 1
สาร@@ 1
สิ@@ 1
สิง@@ 1
สุ@@ 1
ฬ@@ 1
อก 1
อด@@ 1
อธิ@@ 1
อั@@ 1
อักษ@@ 1
อาณา@@ 1
อำนาจ 1
อิน@@ 1
อี@@ 1
อุป@@ 1
ะ 1
ะ@@ 1
ั@@ 1
ันท@@ 1
า 1
าน 1
าน@@ 1
ำ 1
ิ@@ 1
ิง 1
ิด@@ 1
ี 1
ี@@ 1
ียง@@ 1
ื 1
ื@@ 1
ุ@@ 1
เกาะ 1
เกียร@@ 1
เงิน 1
เจริ@@ 1
เช@@ 1
เด 1
เด@@ 1
เท@@ 1
เปล@@ 1
เม@@ 1
เมือง@@ 1
เว@@ 1
เอ@@ 1
โ@@ 1
โค@@ 1
โย 1
โย@@ 1
โลก 1
ไท 1
ไร 1
๐@@ 1
๑ 1
๑@@ 1
ກ@@ 1
ຄ@@ 1
ຊ@@ 1
ຍ 1
ບ 1
ມ 1
ຣ 1
ຣ@@ 1
ວ 1
ຮ@@ 1
ັ 1
ຳ@@ 1
ິ@@ 1
ີ 1
ີ@@ 1
ື@@ 1
ຸ@@ 1
ູ 1
ົ@@ 1
ໄ@@ 1
່ 1
༌ 1
ཅ@@ 1
ཎ 1
ཏ 1
ཕ 1
ཙ 1
ཚ 1
ཝ 1
ཻ 1
ྔ 1
ྕ@@ 1
ྤ 1
ྩ 1
ྫ 1
ྰ@@ 1
ྲ 1
ླ 1
ဉ 1
ည@@ 1
ရ 1
လ 1
သ 1
ဦ@@ 1
ဴ@@ 1
ဵ@@ 1
၁@@ 1
၅ 1
၇@@ 1
၉ 1
ၵ 1
ၵ@@ 1
ၽ@@ 1
ႆ@@ 1
ႇ 1
ႈ 1
ა 1
ე 1
ზ@@ 1
თ 1
მ@@ 1
ო 1
პ@@ 1
ს 1
უ@@ 1
ფ@@ 1
ღ@@ 1
ყ@@ 1
ላ 1
ላ@@ 1
ሌ 1
ሐ@@ 1
ሚ@@ 1
ማ@@ 1
ም@@ 1
ሥ@@ 1
ረ 1
ረ@@ 1
ሪ@@ 1
ራ 1
ራ@@ 1
ር 1
ሮ@@ 1
ሳ@@ 1
በ@@ 1
ባ 1
ቤ@@ 1
ተ 1
ታ@@ 1
ኢ@@ 1
ኦ@@ 1
ካ 1
የ@@ 1
ይ 1
ዮ@@ 1
ደ 1
ዲ 1
ድ 1
ጋ@@ 1
ጵ@@ 1
ፋ@@ 1
ፍ@@ 1
ᐟ@@ 1
ᐧ@@ 1
ᐨ 1
ᑖ@@ 1
ᑭ@@ 1
ᑯ 1
ᒃ 1
ᒡ@@ 1
ᒣ@@ 1
ᒧ@@ 1
ᓗ 1
ᕗ@@ 1
ᕿ@@ 1
ᖃ@@ 1
ᖅ@@ 1
ᖹ@@ 1
គ 1
ឃ@@ 1
ង@@ 1
ឌ 1
ត@@ 1
ថ@@ 1
ល@@ 1
វ 1
ឝ@@ 1
ឧ@@ 1
ា 1
ិ 1
ី 1
ួ 1
ួ@@ 1
ោ 1
ះ 1
៉ 1
់ 1
៌ 1
៍ 1
១ 1
៧ 1
᠌ 1
ᠩ@@ 1
ᠪ@@ 1
ᠭ 1
ᠭ@@ 1
ᠮ@@ 1
ᠯ 1
ᠴ@@ 1
ᮒ@@ 1
ᮓ 1
ᮞ@@ 1
ᮥ@@ 1
ᱞ 1
ᱞ@@ 1
ᱢ 1
ᱥ@@ 1
ᱧ@@ 1
ᱨ 1
ᱰ 1
ᱰ@@ 1
ᱱ 1
ᱲ@@ 1
ᱵ 1
ᱷ 1
ᱸ@@ 1
ᱹ@@ 1
ᱺ@@ 1
ᱽ 1
ᵐ@@ 1
ᵻ@@ 1
ḇ 1
ḇ@@ 1
Ḏ@@ 1
ḗ@@ 1
ḛ@@ 1
ḩ@@ 1
ḱ 1
ḳ 1
ḳ@@ 1
Ḵ@@ 1
ṉ 1
Ṛ@@ 1
ṵ@@ 1
ạ@@ 1
ạng 1
ạp 1
ản 1
ất 1
ầ@@ 1
ần 1
ậu 1
ắc 1
ẵ@@ 1
ẻ 1
ẽ 1
ẽ@@ 1
ế 1
ến 1
ếu 1
ền 1
ệ 1
ệ@@ 1
ệm 1
ệu 1
ỉnh 1
ị 1
ịa 1
ọ 1
ọc 1
ồ 1
ồn 1
ộ 1
ộc 1
ới 1
Ờ 1
ở 1
ợ 1
ục 1
ủ 1
ứ@@ 1
ừ 1
ừa 1
ỳ 1
ἀ 1
ἅ@@ 1
ἔ@@ 1
Ἐ@@ 1
Ἑ@@ 1
ἡ 1
ἢ 1
ἧ@@ 1
Ἠ@@ 1
Ἡ@@ 1
Ἢ 1
ἶ@@ 1
ἷ@@ 1
Ἴ@@ 1
ὁ 1
Ὄ@@ 1
ὑ@@ 1
Ὑ@@ 1
ὠ@@ 1
Ὠ@@ 1
ὰ@@ 1
ὴ 1
ὸ 1
ᾱ@@ 1
᾽ 1
ῆ 1
‐ 1
⁴ 1
⁵ 1
⁶ 1
₀ 1
₁ 1
₄ 1
₈ 1
₪ 1
₴ 1
ℂ 1
ℝ 1
℞ 1
⅜ 1
⅝ 1
Ⅱ 1
↺ 1
⇌ 1
⇔ 1
∃ 1
∏ 1
∗ 1
∩ 1
∪ 1
≃ 1
≫ 1
⊃ 1
⊙ 1
⌠ 1
┼ 1
╘ 1
□ 1
► 1
◦ 1
☀ 1
☊ 1
☒ 1
☫ 1
☸ 1
♂ 1
♆ 1
♎ 1
♐ 1
♣ 1
♥ 1
⚥ 1
⚧ 1
✈ 1
❣ 1
ⲏ@@ 1
ⲙ 1
ⴱ@@ 1
ⴹ@@ 1
ⴽ 1
ⵇ@@ 1
ⵊ@@ 1
ⵍ 1
ⵔ 1
ⵖ 1
ⵛ@@ 1
ⵟ@@ 1
ⵡ@@ 1
々@@ 1
〇 1
《 1
》 1
あ 1
い 1
え@@ 1
お 1
か 1
ぎ@@ 1
く@@ 1
ぐ@@ 1
こ@@ 1
ご@@ 1
さ 1
じ@@ 1
ず 1
ず@@ 1
せ@@ 1
ち 1
っ 1
つ 1
つ@@ 1
て@@ 1
で@@ 1
と 1
に@@ 1
は@@ 1
ば 1
ば@@ 1
ひ@@ 1
び 1
び@@ 1
へ 1
べ@@ 1
ほ 1
ぼ 1
ぽ 1
も@@ 1
ゅ@@ 1
ろ@@ 1
ウ@@ 1
エ 1
ォ@@ 1
カ 1
グ 1
ケ 1
サ 1
ザ 1
ゼ@@ 1
ソ@@ 1
ッ 1
デ 1
ナ 1
ノ@@ 1
ヒ@@ 1
フ@@ 1
ブ 1
ホ 1
ホ@@ 1
ポ@@ 1
ミ 1
モ 1
ャ@@ 1
ュ 1
ユ@@ 1
ヨ@@ 1
ヱ 1
䘯@@ 1
一 1
一个 1
丁 1
三 1
上 1
下@@ 1
与@@ 1
世 1
世界 1
世紀 1
世纪 1
业 1
両@@ 1
严@@ 1
中华人民@@ 1
中心 1
串@@ 1
为 1
主 1
之 1
乌@@ 1
乗@@ 1
乙@@ 1
乞@@ 1
也 1
习@@ 1
了@@ 1
争@@ 1
事 1
事件 1
二十@@ 1
井 1
亜@@ 1
亞@@ 1
交@@ 1
亦@@ 1
产@@ 1
亭 1
亭@@ 1
亻 1
仏 1
仏@@ 1
仑@@ 1
仔@@ 1
仙@@ 1
代 1
代@@ 1
代表 1
令@@ 1
仮@@ 1
件@@ 1
任@@ 1
伊@@ 1
休 1
伝@@ 1
伟@@ 1
伦 1
伴 1
伽 1
佐 1
体 1
作 1
你@@ 1
侍 1
依@@ 1
侠@@ 1
俪 1
修@@ 1
俱@@ 1
俵 1
倍@@ 1
倩@@ 1
倪@@ 1
倭@@ 1
偵@@ 1
傲@@ 1
働 1
働@@ 1
僮 1
儒 1
儒@@ 1
儲@@ 1
儿@@ 1
光 1
党@@ 1
內@@ 1
兩 1
八 1
公 1
兰@@ 1
共@@ 1
关 1
关@@ 1
关系 1
典@@ 1
冀 1
内 1
冊 1
冊@@ 1
写@@ 1
军 1
冬@@ 1
冲 1
冲@@ 1
冷@@ 1
凤 1
凰 1
函 1
刀 1
刃 1
分@@ 1
刊@@ 1
刘@@ 1
刚 1
初@@ 1
利 1
利@@ 1
刷@@ 1
券 1
券@@ 1
剣 1
劉@@ 1
劍 1
力@@ 1
功 1
加@@ 1
动@@ 1
労@@ 1
勇@@ 1
動 1
北 1
匡 1
十 1
十@@ 1
千 1
午@@ 1
卍 1
华 1
卐@@ 1
協@@ 1
単@@ 1
博 1
卡 1
卡@@ 1
卫@@ 1
厳@@ 1
参 1
叉 1
叉@@ 1
友 1
口@@ 1
古 1
台@@ 1
右 1
司 1
吉 1
向@@ 1
君 1
含@@ 1
呂 1
呂@@ 1
周 1
咒 1
哈@@ 1
員@@ 1
哥 1
商 1
喀 1
噶@@ 1
四 1
回@@ 1
团@@ 1
団 1
図 1
固@@ 1
国家@@ 1
图 1
園@@ 1
圓 1
圖 1
團 1
圜 1
土 1
圭 1
地区 1
圳 1
坂 1
坂@@ 1
坊 1
坑@@ 1
坙 1
型 1
垣 1
城 1
埔@@ 1
域 1
基 1
基本 1
堂 1
場 1
場@@ 1
塩@@ 1
增@@ 1
墨 1
墾@@ 1
壊 1
壮 1
壹@@ 1
壽@@ 1
备@@ 1
多 1
夜 1
夢 1
太平洋 1
奈@@ 1
奉@@ 1
套@@ 1
奠 1
奴@@ 1
奶 1
奶@@ 1
好 1
好@@ 1
妞 1
始 1
姑@@ 1
委 1
姦 1
娼@@ 1
婁@@ 1
婉@@ 1
婦 1
媛 1
嫻 1
季@@ 1
学 1
学名 1
学院 1
學校 1
學院 1
宀 1
宁@@ 1
守 1
守@@ 1
宋 1
完成 1
宗教 1
定 1
宝@@ 1
实@@ 1
宠@@ 1
宣@@ 1
家族 1
宿@@ 1
寅 1
寒 1
實@@ 1
寧 1
寨@@ 1
寸 1
寺@@ 1
封@@ 1
専@@ 1
專@@ 1
尊@@ 1
尋@@ 1
少 1
尺 1
尺@@ 1
届@@ 1
屋@@ 1
屏 1
屠@@ 1
岗@@ 1
岡@@ 1
岩 1
岳@@ 1
岸@@ 1
峡 1
峰 1
峰@@ 1
峽 1
崎@@ 1
崩@@ 1
左@@ 1
巻@@ 1
市@@ 1
师 1
希@@ 1
帖 1
帛@@ 1
幌@@ 1
幞@@ 1
平方@@ 1
幹@@ 1
幻@@ 1
幽@@ 1
広 1
庄@@ 1
库 1
店 1
庙 1
庭 1
庶@@ 1
廈 1
廉@@ 1
廊 1
廓 1
廟 1
弁 1
弥 1
弧@@ 1
强@@ 1
弾@@ 1
彊 1
当@@ 1
彦 1
彦@@ 1
彬@@ 1
彭@@ 1
役 1
征 1
很@@ 1
後@@ 1
徒@@ 1
得@@ 1
御@@ 1
徳 1
德@@ 1
心 1
必@@ 1
志 1
念@@ 1
怀 1
怡 1
怡@@ 1
怪 1
怪@@ 1
恒 1
恥 1
恩 1
悟@@ 1
悲@@ 1
想 1
愚 1
慈 1
慧 1
慶@@ 1
應@@ 1
戀@@ 1
战争 1
戦@@ 1
截 1
戰 1
所@@ 1
扇@@ 1
扎@@ 1
打 1
批@@ 1
把 1
抗@@ 1
拙 1
拳@@ 1
持 1
持@@ 1
指@@ 1
挙 1
损 1
揚@@ 1
搜@@ 1
携 1
携@@ 1
摩 1
播@@ 1
擒 1
改 1
放@@ 1
政 1
故事 1
效@@ 1
敏 1
救 1
教育 1
散 1
斤 1
断@@ 1
斯坦 1
方 1
於@@ 1
旅@@ 1
旗 1
无 1
无@@ 1
旭@@ 1
昆@@ 1
昌@@ 1
明朝 1
映 1
映@@ 1
春 1
显@@ 1
晋@@ 1
晨 1
晶 1
曇 1
曇@@ 1
書 1
曼 1
替 1
最@@ 1
會 1
會@@ 1
朗 1
末@@ 1
札@@ 1
术 1
李 1
村@@ 1
来 1
杭@@ 1
杷 1
松 1
板 1
板@@ 1
极 1
枇@@ 1
林匹@@ 1
枚 1
枳@@ 1
柬@@ 1
柯@@ 1
树@@ 1
根 1
格@@ 1
栽 1
桂@@ 1
桃 1
桜@@ 1
桥 1
桶 1
桶@@ 1
梆@@ 1
條 1
梦 1
梦@@ 1
械 1
梶@@ 1
棋 1
棚 1
椅@@ 1
検@@ 1
椰@@ 1
楊@@ 1
楚 1
楞@@ 1
業 1
極@@ 1
楼@@ 1
樂 1
樱@@ 1
樹@@ 1
橋@@ 1
機場 1
次@@ 1
止 1
死@@ 1
殉 1
殉@@ 1
殿 1
毅@@ 1
母 1
母@@ 1
毒 1
毘@@ 1
毛@@ 1
毫 1
氏@@ 1
民國 1
民族 1
气 1
气@@ 1
気 1
氣 1
氣@@ 1
氷@@ 1
永 1
永@@ 1
池@@ 1
汶@@ 1
沃@@ 1
沙 1
沧@@ 1
河@@ 1
沸@@ 1
油 1
泊 1
泰@@ 1
洋@@ 1
洗@@ 1
津 1
洪@@ 1
洲@@ 1
活@@ 1
流@@ 1
浅@@ 1
济@@ 1
浙 1
浪@@ 1
浮@@ 1
液 1
淘@@ 1
深@@ 1
清 1
渋@@ 1
渕@@ 1
湄@@ 1
湾 1
湾@@ 1
源@@ 1
準@@ 1
溪@@ 1
滌@@ 1
滑 1
滿@@ 1
漆@@ 1
漢 1
漿 1
澜@@ 1
濃@@ 1
瀬 1
灣@@ 1
灸 1
灼@@ 1
為 1
為@@ 1
烏@@ 1
焚@@ 1
然 1
熙@@ 1
熟@@ 1
燊 1
燒@@ 1
燕 1
燕@@ 1
爭 1
爱 1
爸 1
爾 1
片 1
版@@ 1
牌 1
牌@@ 1
牛@@ 1
牟@@ 1
犬 1
独@@ 1
狮@@ 1
猫 1
獞 1
獣 1
玄@@ 1
环@@ 1
现@@ 1
玲 1
珞@@ 1
琉@@ 1
琛 1
琵@@ 1
琶 1
瑜 1
瑜@@ 1
瑠@@ 1
瑩 1
璃@@ 1
甘@@ 1
產@@ 1
産@@ 1
甲@@ 1
申@@ 1
电 1
男 1
画@@ 1
界 1
界@@ 1
畜@@ 1
畿@@ 1
疾@@ 1
癘 1
登@@ 1
發 1
白 1
皃 1
盆@@ 1
监@@ 1
盘@@ 1
盛@@ 1
盟 1
相 1
相@@ 1
省@@ 1
眉@@ 1
督@@ 1
瞳 1
瞿@@ 1
矢 1
知@@ 1
砂 1
研@@ 1
磁@@ 1
磨@@ 1
示@@ 1
礼 1
祝@@ 1
祠 1
祥 1
禎@@ 1
禮 1
私 1
秘@@ 1
秦@@ 1
移@@ 1
程@@ 1
稚@@ 1
穴 1
立 1
競@@ 1
竹 1
笏@@ 1
第一@@ 1
第十@@ 1
等 1
等@@ 1
筑@@ 1
策 1
简@@ 1
管理@@ 1
箭@@ 1
箱 1
節 1
篠@@ 1
篪 1
簡@@ 1
簫 1
簾 1
簿 1
粁 1
糎 1
系 1
糾@@ 1
紀 1
約@@ 1
納 1
紗@@ 1
級@@ 1
紛 1
素@@ 1
紫@@ 1
紹@@ 1
組織 1
経 1
統@@ 1
絲@@ 1
網@@ 1
線 1
緬@@ 1
繁@@ 1
織@@ 1
约 1
级@@ 1
纳@@ 1
组 1
组@@ 1
组织 1
细@@ 1
经济 1
统@@ 1
绿@@ 1
罔@@ 1
罗 1
群@@ 1
翁 1
翁@@ 1
習@@ 1
耀 1
考 1
而@@ 1
耕 1
耻 1
联@@ 1
聖@@ 1
聞 1
聯@@ 1
肃 1
肇@@ 1
胎 1
胖@@ 1
胡 1
胡@@ 1
胶@@ 1
脉 1
脏@@ 1
腑 1
腹@@ 1
腺 1
腻@@ 1
腾@@ 1
膏 1
臂 1
臨@@ 1
自 1
臺 1
舜@@ 1
航 1
航空 1
般 1
船@@ 1
色 1
艺@@ 1
节 1
芳 1
芳@@ 1
芸@@ 1
芽@@ 1
苏@@ 1
英 1
英文 1
范@@ 1
荣@@ 1
药@@ 1
荼@@ 1
莊@@ 1
莱 1
菊 1
菜 1
营@@ 1
萧@@ 1
葬 1
蒋@@ 1
蒙@@ 1
蒲@@ 1
蓝 1
蓮@@ 1
蕭@@ 1
薄@@ 1
薬 1
藤 1
藩@@ 1
蘭 1
虛@@ 1
融@@ 1
蠡@@ 1
血 1
術@@ 1
衛 1
衽 1
袍 1
袴 1
袴@@ 1
袵 1
裁 1
裈 1
裕@@ 1
裴@@ 1
製@@ 1
褶 1
褶@@ 1
褾 1
襠 1
襲@@ 1
襴@@ 1
西南 1
親@@ 1
観 1
觀@@ 1
觉 1
解 1
解@@ 1
解放@@ 1
記@@ 1
許@@ 1
訳 1
訶 1
診@@ 1
証 1
証@@ 1
詔 1
試@@ 1
話 1
語@@ 1
誠 1
読 1
論@@ 1
謝 1
譜 1
警@@ 1
護 1
训 1
议@@ 1
记 1
论 1
论@@ 1
诃@@ 1
说 1
诸@@ 1
谱 1
豆 1
豊 1
豫 1
豬 1
貞@@ 1
財 1
貨@@ 1
販 1
貫@@ 1
貴 1
買 1
賓 1
賞 1
賢 1
賣 1
質 1
贝 1
赋 1
赛@@ 1
赣 1
超 1
越@@ 1
趙 1
足@@ 1
跃@@ 1
距@@ 1
跡 1
路 1
踊 1
車 1
軌@@ 1
軒 1
転@@ 1
輪 1
輪@@ 1
辦@@ 1
辰 1
运 1
运@@ 1
运动@@ 1
近 1
进 1
迷@@ 1
退@@ 1
逆@@ 1
逢@@ 1
連@@ 1
週@@ 1
逵 1
遊@@ 1
運動 1
達 1
達@@ 1
遠 1
選@@ 1
邊 1
邊@@ 1
郎@@ 1
郑@@ 1
郞 1
郡 1
都 1
鄂 1
鄰 1
酒 1
酒@@ 1
酢@@ 1
里 1
量@@ 1
針 1
釦 1
鈕 1
鉉 1
鉑 1
鉴 1
銅@@ 1
銖 1
銖@@ 1
鎖@@ 1
鎬 1
鑫 1
鑾@@ 1
针@@ 1
钦 1
钱 1
铜@@ 1
锡 1
镜@@ 1
长@@ 1
開 1
闘@@ 1
關@@ 1
门@@ 1
闪@@ 1
阎 1
阪 1
阶@@ 1
阿拉@@ 1
陡 1
院@@ 1
陰@@ 1
陸@@ 1
隆@@ 1
隊 1
階@@ 1
隧@@ 1
隶 1
雀 1
集团 1
雙@@ 1
雞 1
離 1
難@@ 1
雨 1
雨@@ 1
雪 1
零 1
霑 1
霞@@ 1
静 1
面 1
革@@ 1
韓 1
韓@@ 1
頁 1
頂@@ 1
領 1
領@@ 1
頤@@ 1
頭 1
顺 1
领 1
颐@@ 1
飞@@ 1
飯 1
飯@@ 1
餐@@ 1
首@@ 1
馬 1
験 1
马 1
驻@@ 1
骄@@ 1
骑@@ 1
骨 1
骨@@ 1
鬆 1
魂 1
魄 1
魅@@ 1
魏 1
魔 1
鮮@@ 1
鰯 1
鱲@@ 1
鳳 1
鳳@@ 1
鵝@@ 1
鶯@@ 1
鸭@@ 1
鹏 1
麗 1
麿 1
黑 1
黒@@ 1
黨 1
鼓@@ 1
鼻 1
鼻@@ 1
齐 1
齡 1
龄 1
龜@@ 1
ꠁ 1
ꠁ@@ 1
ꠂ 1
ꠇ@@ 1
ꠈ@@ 1
ꠉ 1
ꠉ@@ 1
ꠋ 1
ꠌ@@ 1
ꠘ 1
ꠛ@@ 1
ꠝ 1
ꠠ 1
ꠤ@@ 1
ꠥ@@ 1
ꦗ@@ 1
ꦧ@@ 1
ꦮ 1
ꦱ@@ 1
ꯉ@@ 1
ꯋ@@ 1
ꯍ 1
ꯑ@@ 1
ꯒ@@ 1
ꯔ 1
ꯕ@@ 1
ꯚ@@ 1
ꯛ 1
ꯜ 1
ꯞ@@ 1
ꯠ 1
ꯢ@@ 1
ꯥ 1
ꯩ 1
가 1
각 1
각@@ 1
간 1
갓@@ 1
강 1
거@@ 1
걸@@ 1
격@@ 1
경 1
계 1
계@@ 1
곡 1
과@@ 1
광 1
괜@@ 1
괴 1
군 1
궁@@ 1
권@@ 1
규@@ 1
근@@ 1
길 1
깃 1
깃@@ 1
깍@@ 1
끝@@ 1
난 1
난@@ 1
남 1
낮@@ 1
낸@@ 1
녀@@ 1
념@@ 1
농@@ 1
는@@ 1
단 1
달@@ 1
댕@@ 1
더 1
덕@@ 1
던@@ 1
돌@@ 1
두 1
뒤@@ 1
득@@ 1
떡 1
뜻 1
뜻@@ 1
란@@ 1
랑 1
랜 1
랜@@ 1
량@@ 1
럭@@ 1
럼@@ 1
려 1
력@@ 1
로@@ 1
록@@ 1
론 1
뢰 1
루 1
류@@ 1
를 1
름 1
릭 1
림 1
립@@ 1
막@@ 1
만 1
말 1
말@@ 1
맘 1
맞@@ 1
맨 1
모@@ 1
몸@@ 1
무 1
물 1
뭉@@ 1
미 1
민 1
밀@@ 1
바@@ 1
박 1
받@@ 1
발@@ 1
밤@@ 1
번@@ 1
법 1
병 1
병@@ 1
보 1
불@@ 1
블@@ 1
빈@@ 1
빔 1
서 1
서@@ 1
섶 1
센 1
센@@ 1
소@@ 1
속@@ 1
솟@@ 1
송 1
쇄@@ 1
수 1
순@@ 1
술@@ 1
숫@@ 1
슬 1
슬@@ 1
쌈 1
쌍@@ 1
악 1
않@@ 1
암@@ 1
압@@ 1
앞@@ 1
앵@@ 1
양@@ 1
억@@ 1
언@@ 1
업 1
연@@ 1
영 1
예 1
예@@ 1
온 1
왕 1
외@@ 1
용@@ 1
우 1
운 1
운@@ 1
울@@ 1
워 1
윤@@ 1
으@@ 1
을 1
음 1
응@@ 1
임 1
입@@ 1
잇@@ 1
잔@@ 1
잠 1
쟁 1
적 1
적@@ 1
절@@ 1
점 1
점@@ 1
제 1
젠@@ 1
졸@@ 1
종 1
좌@@ 1
준 1
즈@@ 1
증@@ 1
진 1
징@@ 1
차 1
찬 1
찬@@ 1
찮@@ 1
천 1
첨@@ 1
청 1
쳐 1
쳐@@ 1
촌 1
촌@@ 1
총@@ 1
추@@ 1
충 1
충@@ 1
취@@ 1
칠@@ 1
침@@ 1
칫@@ 1
코@@ 1
키 1
타@@ 1
택 1
틀@@ 1
파@@ 1
팔 1
팔@@ 1
퍼 1
평@@ 1
폐 1
풀 1
풍 1
프 1
프@@ 1
학 1
해 1
행 1
향 1
허@@ 1
험 1
현 1
현@@ 1
형 1
호 1
호@@ 1
홍 1
활@@ 1
후 1
훈@@ 1
휴@@ 1
힘 1
 1
 1
 1
 1
 1
 1
 1
 1
ﭼ@@ 1
ﮈ@@ 1
ﮓ 1
ﮩ 1
ﮫ 1
ﮭ@@ 1
ﯩ@@ 1
ﯼ 1
﴿ 1
ﷲ 1
ﺃ@@ 1
ﺋ@@ 1
ﺟ@@ 1
ﺠ@@ 1
ﺣ@@ 1
ﺤ@@ 1
ﺩ@@ 1
ﺪ 1
ﺪ@@ 1
ﺭ 1
ﺭ@@ 1
ﺯ@@ 1
ﺰ@@ 1
ﺸ@@ 1
ﺼ@@ 1
ﻀ@@ 1
ﻄ@@ 1
ﻙ 1
ﻠ@@ 1
ﻡ 1
ﻬ@@ 1
ﻮ 1
ﻮ@@ 1
ﻯ 1
！ 1
／ 1
？ 1
ﾠ 1
￡ 1
￥ 1
￳ 1
𐎠@@ 1
𐎱@@ 1
𐎼@@ 1
𐎿 1
𐤀 1
𐤁 1
𐤇@@ 1
𐤉 1
𐤋 1
𐤍@@ 1
𐤏@@ 1
𐤒 1
𐤓 1
𐤓@@ 1
𐤟 1
𐭃@@ 1
𐭊@@ 1
𐭌@@ 1
𐭕 1
𐭤 1
𐭦@@ 1
𐭩@@ 1
𐭫@@ 1
𑀢@@ 1
𑀥@@ 1
𑀦@@ 1
𑀪@@ 1
𑀺 1
𑀽@@ 1
𑂍@@ 1
𑂟@@ 1
𑂱@@ 1
𑂲 1
𑂲@@ 1
𑂶@@ 1
𑄳 1
𑐮 1
𑐮@@ 1
𑐴@@ 1
𑑂 1
𑜀@@ 1
𑜂 1
𑜃 1
𑜇@@ 1
𑜍@@ 1
𑜏@@ 1
𑜢 1
𑜢@@ 1
𑜤 1
𑜨@@ 1
𒂍@@ 1
𒅍 1
𒅎@@ 1
𒆠 1
𒉌@@ 1
𒋼@@ 1
𒌇@@ 1
𝐇@@ 1
𝐚 1
𝐛@@ 1
𝐞 1
𝐡@@ 1
𝐢@@ 1
𝐧 1
𝐨 1
𝐩@@ 1
𝐫@@ 1
𝐬 1
𝐬@@ 1
𝐳@@ 1
𝑩@@ 1
𝑪@@ 1
𝑳@@ 1
𝒅@@ 1
𝒊@@ 1
𝒏@@ 1
𝛍 1
🌉 1
🌱 1
🌲 1
🌺 1
🏞 1
🏠 1
🏹 1
🐖 1
🐛 1
🐝 1
🐷 1
🐸 1
👆 1
👑 1
💪 1
📝 1
📲 1
🔘 1
🔫 1
🗼 1
🚘 1
🚢 1
🤗 1
🥜 1
🦂 1
🧬 1
𡱩 1
