de 1
, 1
. 0.9074046539577327
la 1
en 1
el 1
y 1
a 1
&quot; 1
que 1
del 1
los 1
se 1
un 1
por 1
una 1
con 1
es 1
os 1
las 1
) 0.9105793451326192
( 0.9104055053896739
o 1
ó 1
ado 1
su 1
al 1
as 1
ar 1
ación 1
como 1
para 1
El 1
ada 1
En 1
fue 1
@-@ 0.38963987177464576
La 1
ía 1
re@@ 1
ados 1
más 1
no 1
: 1
í@@ 1
lo 1
an 0.7247189279230982
c@@ 1
in@@ 1
ales 1
ando 1
era 1
sus 1
to 0.2754828247653418
p@@ 1
ido 1
al@@ 1
ac@@ 1
con@@ 1
ente 1
an@@ 1
ta 1
; 1
C@@ 1
r@@ 1
ción 1
ar@@ 1
ón 1
encia 1
adas 1
aciones 1
dos 1
aron 1
ica 1
á@@ 1
ia 1
des@@ 1
entre 1
di@@ 1
es@@ 1
v@@ 1
ó@@ 1
P@@ 1
or@@ 1
l@@ 1
S@@ 0.8690227205245081
o@@ 1
ano 1
u@@ 1
ana 1
M@@ 1
años 1
A@@ 1
le 0.42781514623864403
aba 1
qu@@ 1
ex@@ 1
as@@ 1
s@@ 0.6738018209877803
T@@ 0.9848839239913674
L@@ 0.9598469776433898
también 1
Los 1
ad@@ 1
ante 1
ico 1
ina 1
on@@ 1
tr@@ 1
en@@ 0.9130359519679317
son 1
ec@@ 1
er@@ 1
d@@ 1
este 1
e@@ 1
e 1
g@@ 1
b@@ 1
t@@ 0.9056799354226317
año 1
da 1
D@@ 0.8482355089088169
n@@ 1
entes 1
er 0.3472177772928656
j@@ 1
ent@@ 1
hasta 1
de@@ 1
B@@ 0.8605982733387564
parte 1
or 0.7501326955327999
E@@ 1
esta 1
antes 1
at@@ 1
ti@@ 1
su@@ 1
ida 1
vi@@ 1
amente 1
ic@@ 1
pero 1
sobre 1
im@@ 1
it@@ 1
do 1
N@@ 0.9829278588381962
cu@@ 1
R@@ 0.8519454505426758
O@@ 1
donde 1
« 0.7607519117862404
par@@ 1
» 0.760872341140772
ario 1
per@@ 1
ci@@ 1
idad 1
ha 1
m@@ 1
ador 1
G@@ 0.8579093912647977
ista 1
i@@ 1
est@@ 1
f@@ 0.7596132880169367
V@@ 1
z@@ 1
ser 1
ab@@ 1
desde 1
A 1
car@@ 1
án 1
ores 1
oc@@ 1
F@@ 0.7896753888907299
il@@ 1
almente 1
ino 1
ag@@ 1
am@@ 1
ol@@ 1
Se 1
com@@ 1
ro@@ 1
is@@ 1
H@@ 0.710215489678669
ul@@ 1
durante 1
br@@ 1
ch@@ 0.6517197531642052
% 1
el@@ 0.9584986109835919
po@@ 1
h@@ 0.7710879908448868
on 0.2223811537271071
endo 1
un@@ 1
us@@ 1
ya 1
ciudad 1
cor@@ 1
mar@@ 1
a@@ 1
em@@ 1
tiene 1
ca 1
ap@@ 1
1 0.8039130295027015
az@@ 1
id@@ 1
&apos; 0.630689818804102
ero 1
pi@@ 1
J@@ 1
ur@@ 1
pre@@ 1
rec@@ 1
ión 1
ciones 1
Al@@ 1
ían 1
y@@ 0.9395390892488193
Las 1
primera 1
ones 1
después 1
había 1
Ar@@ 1
2 0.8369146284520418
io 1
col@@ 1
está 1
os@@ 1
tos 1
é@@ 1
pos@@ 1
Con@@ 1
ot@@ 1
le@@ 1
fueron 1
dis@@ 1
icos 1
co 1
eran 1
bi@@ 1
á 1
San 1
uno 1
pr@@ 1
/ 0.7841102514212537
gu@@ 1
cuando 1
primer 1
Su 1
co@@ 1
ir@@ 1
ter@@ 1
otros 1
eg@@ 1
om@@ 1
nombre 1
inter@@ 1
ena 1
za 1
tres 1
forma 1
ri@@ 1
arse 1
s 0.25497919862662344
sin 1
cre@@ 1
idos 1
te 0.4741468764783774
ú@@ 1
mismo 1
entos 1
población 1
ir 1
vez 1
ev@@ 1
jo 1
icas 1
3 0.8465193113266716
ig@@ 1
ato 1
amiento 1
imiento 1
ento 1
aban 1
ver@@ 0.6143271560745823
av@@ 1
gran 1
estr@@ 1
eron 1
l 0.5907126886755052
cual 1
af@@ 1
K@@ 0.5051815078357194
i 0.7914220076194113
puede 1
&#93; 1
&#91; 1
adores 1
Fue 1
us 0.6824734510981433
U@@ 1
is 0.14823469532091485
ismo 1
ita 1
op@@ 1
li@@ 0.9583308807445615
aje 1
Com@@ 1
Mar@@ 1
ese 1
ed@@ 1
te@@ 1
I@@ 1
et@@ 1
familia 1
encuentra 1
tico 1
re 1
pl@@ 1
Car@@ 1
ías 1
esa 1
cas@@ 1
tor@@ 1
ora 1
ura 1
istas 1
muy 1
así 1
lugar 1
tica 1
z 1
An@@ 1
4 0.8405583325848416
contra 1
ven@@ 1
ma 1
va 1
sido 1
um@@ 1
km 1
ej@@ 1
Es 1
bajo 1
res@@ 1
enta 1
encias 1
ten@@ 1
ro 1
uso 1
arios 1
man@@ 1
Tr@@ 1
tras 1
In@@ 1
aria 1
fund@@ 1
aj@@ 1
iz@@ 1
- 0.6304835308196799
todo 1
pas@@ 1
of@@ 1
Ch@@ 0.8166545258341973
equipo 1
án@@ 1
Estados 1
mon@@ 1
sal@@ 1
siglo 1
ito 1
anos 1
d 0.44023737676689506
junto 1
in 0.03745770230455266
ella 1
ber@@ 1
tiempo 1
eo 1
Unidos 1
les 0.24037069071980297
embargo 1
cer@@ 1
her@@ 1
Est@@ 1
The 0.12250023642360512
Z@@ 0.7341970437531656
esc@@ 1
grupo 1
estado 1
eta 1
gr@@ 1
han 1
5 0.843077287943994
mayor 1
ob@@ 1
enc@@ 1
W@@ 0.41045991322929626
pu@@ 1
6 0.8676211901173695
eros 1
ist@@ 1
día 1
cada 1
Cor@@ 1
tes 1
der@@ 1
fr@@ 1
end@@ 1
isión 1
serie 1
í 1
tuvo 1
trans@@ 1
inc@@ 1
edi@@ 1
osa 1
solo 1
pres@@ 1
todos 1
España 1
tor 1
ra 1
hab@@ 1
Universidad 1
contr@@ 1
estaba 1
tura 1
u 0.7623481895191847
ant@@ 1
idades 1
represent@@ 1
quien 1
ni@@ 1
De 1
otras 1
utiliz@@ 1
mo 1
ín 1
Nacional 1
entr@@ 1
idas 1
és 0.9340806543947683
reci@@ 1
ares 1
gan@@ 1
siendo 1
También 1
produc@@ 1
personas 1
má@@ 1
municipio 1
na 1
ut@@ 1
sub@@ 1
aunque 1
mientras 1
das 0.44423213602618705
ticas 1
des 0.12045919487908102
tanto 1
ea 1
aqu@@ 1
oso 1
cos 1
Por 1
vida 1
ara 1
form@@ 1
esp@@ 1
x@@ 1
aci@@ 1
nuevo 1
ran@@ 1
ñ@@ 1
I 0.8602685310799081
Al 1
inos 1
ja 1
so@@ 1
temporada 1
país 1
uc@@ 1
hu@@ 1
bas@@ 1
sol@@ 1
ár@@ 1
ay@@ 1
cion@@ 1
able 0.8533269529492946
hacia 1
ef@@ 1
arr@@ 1
estas 1
ici@@ 1
10 0.8589462473831386
go 1
for@@ 0.9284380951087107
final 1
min@@ 1
og@@ 1
bar@@ 1
ata 1
Y@@ 0.9801656225329294
7 0.84416574674192
si 1
bu@@ 1
Re@@ 0.8333160859628155
to@@ 1
gobierno 1
can@@ 1
ín@@ 1
illa 1
ce 0.7640299041030076
st@@ 0.35900804525191393
Gu@@ 1
ña 1
n 0.4993961085624094
au@@ 0.8042243383927967
álbum 1
pe@@ 1
tom@@ 1
8 0.8252982575298992
general 1
mayo 1
fic@@ 1
lleg@@ 1
dec@@ 1
m 0.5054656449945896
ología 1
tri@@ 1
tar@@ 1
reg@@ 1
ad 1
Par@@ 1
Juan 1
vol@@ 1
cat@@ 1
tenía 1
2010 1
enero 1
añ@@ 1
ona 1
marzo 1
fi@@ 1
ve 0.4534874230225043
octubre 1
septiembre 1
posición 1
public@@ 1
tur@@ 1
pro@@ 1
Sin 1
edad 1
do@@ 1
historia 1
cr@@ 1
² 1
película 1
— 0.2719468816439478
julio 1
total 1
t 0.1932558939215115
varios 1
enci@@ 1
eto 1
dio 1
” 1
cuatro 1
“ 0.4442417820180944
ov@@ 1
junio 1
endi@@ 1
ez 1
Di@@ 1
tu@@ 1
sur 0.5834536989376895
eb@@ 1
Historia 1
él 1
región 1
r 1
pal@@ 1
3@@ 0.8604989086659475
&amp; 0.6142239300533378
prot@@ 1
port@@ 1
diciembre 1
partido 1
mi@@ 1
gen@@ 1
ser@@ 1
ellos 1
habitantes 1
si@@ 0.7746481195939203
ga 1
abril 1
ju@@ 1
ticos 1
dem@@ 1
ental 1
Este 1
agosto 1
pos 1
and@@ 1
José 1
ati@@ 1
ect@@ 1
Col@@ 1
atr@@ 1
cal@@ 1
ens@@ 1
dic@@ 1
17@@ 0.7448131422775633
obra 1
especie 1
número 1
entonces 1
debido 1
ama 1
qui@@ 1
encontr@@ 1
ás 1
aliz@@ 1
noviembre 1
ór@@ 1
20 0.9517348780899335
Durante 1
conocido 1
algunos 1
mundo 1
pueden 1
agua 1
río 1
ma@@ 1
men@@ 1
all@@ 1
luego 1
lí@@ 1
ér@@ 1
fun@@ 1
gi@@ 0.9239734016080486
En@@ 1
tores 1
inici@@ 1
través 1
estos 1
llev@@ 1
k 0.39032863122934564
Or@@ 1
cha 1
so 0.9241522883884115
ución 1
x 0.7560584068721357
lu@@ 1
fer@@ 1
et 0.08401419674368657
vo 1
principal 1
k@@ 0.29909859176129694
val@@ 1
además 1
Según 1
ali@@ 1
sistema 1
4@@ 0.8645739849931856
prom@@ 1
Per@@ 1
norte 1
cuenta 1
cont@@ 1
anas 1
lo@@ 0.5481159657498208
present@@ 1
aría 1
febrero 1
conoc@@ 1
Su@@ 1
banda 1
ición 1
16@@ 0.8091732171844168
presidente 1
Esta 1
err@@ 1
Bar@@ 1
15@@ 1
of 0.024096195905173423
cur@@ 1
9 0.7910377932743478
mu@@ 1
guerra 1
icio 1
du@@ 1
ru@@ 1
oper@@ 1
tas 1
México 1
ega 1
sión 1
otro 1
15 0.9562430892283744
den@@ 1
segundo 1
fu@@ 1
inas 1
ello 1
As@@ 1
Mon@@ 1
cap@@ 1
hizo 1
int@@ 1
c 0.4095595196160092
partir 1
cab@@ 1
sec@@ 1
medi@@ 1
provincia 1
siguiente 1
ari@@ 1
Qu@@ 1
rom@@ 1
trabajo 1
Des@@ 1
puesto 1
od@@ 1
lan@@ 1
esti@@ 1
tarde 1
sem@@ 1
12 0.8373988286688343
osas 1
mat@@ 1
unos 1
esto 1
zona 1
fil@@ 1
trat@@ 1
cul@@ 1
ala 1
canción 1
están 1
direc@@ 1
rey 1
tad@@ 1
tivo 1
Para 1
at 0.10742127967547248
bus@@ 1
az 1
cl@@ 1
é 0.2522295848047009
én@@ 1
cio 1
segunda 1
plan@@ 1
30 0.9818907226607299
consider@@ 1
estadounidense 1
poco 1
realiz@@ 1
neg@@ 1
ing 0.08688307867276754
actu@@ 1
largo 1
mo@@ 0.8133386259363374
extr@@ 1
ece 1
adi@@ 1
ang@@ 0.6700799218404895
nacional 1
ocup@@ 1
Con 1
tienen 1
no@@ 1
cá@@ 1
Sal@@ 1
estudi@@ 1
ias 1
dentro 1
ería 1
h 0.4367529306354913
ell@@ 0.9976413945617207
Santa 1
2011 0.9054299994982192
nor@@ 1
El@@ 1
ne@@ 0.9012715377422159
ing@@ 0.8579674055237323
Nueva 1
destac@@ 1
lat@@ 1
ep@@ 1
señ@@ 1
eza 1
oeste 1
Br@@ 0.7055016361862305
carrera 1
prim@@ 1
por@@ 1
Am@@ 1
ver 1
Después 1
um 0.3350053527409669
muerte 1
María 1
Un 1
0 1
neces@@ 1
sa 0.6501786544154802
vis@@ 1
Además 1
.@@ 0.9369532179273957
anti@@ 1
gener@@ 1
autor@@ 1
pin@@ 1
Mor@@ 1
versión 1
continu@@ 1
ecto 1
super@@ 1
ba@@ 1
centro 1
se@@ 0.5396557358518892
varias 1
ota 1
menos 1
Una 1
vari@@ 1
momento 1
nos 1
ieron 1
Ex@@ 1
ra@@ 1
obras 1
– 0.19597219876399907
eció 1
Guerra 1
género 1
ás@@ 1
cel@@ 1
vuel@@ 1
tipo 1
ces@@ 1
9@@ 1
ate 0.27256081916215713
be 0.24121956046235205
det@@ 1
Mundial 1
asi@@ 1
medio 1
Desde 1
oma 1
Es@@ 1
tim@@ 1
culo 1
5@@ 0.8351800648882278
inf@@ 1
ua 1
Co@@ 0.9803434124264147
Tor@@ 1
casa 1
Tras 1
eno 1
lam@@ 1
español 1
época 1
onia 1
muchos 1
cam@@ 1
dió 1
11 0.8588798849727108
16 0.9678043771259907
constru@@ 1
grandes 1
18 0.8783530796426418
nueva 1
sur@@ 0.9984727260771686
iv@@ 1
ancia 1
hay 1
one 0.25765021266287724
producción 1
hijo 1
atura 1
bien 1
ah@@ 1
tel@@ 1
comenzó 1
mer@@ 0.8932477443053166
elo 1
atos 1
idi@@ 1
lado 1
ie 0.322766351702896
lar@@ 1
2012 0.8727710846046313
25 1
último 1
título 1
ley 1
No 1
mayoría 1
sig@@ 1
misma 1
anza 1
otra 1
metros 1
hace 1
ere 1
ho@@ 1
según 1
del@@ 1
Pr@@ 1
inclu@@ 1
fac@@ 1
ular 1
ño 1
ques 1
llam@@ 1
jug@@ 1
2014 0.8586506204968513
días 1
importante 1
Pal@@ 1
cerca 1
2015 0.8731197585838861
alidad 1
ema 1
música 1
padre 1
illo 1
ori@@ 1
grab@@ 1
ativa 1
Pol@@ 1
14 0.9530487774008687
pen@@ 1
Cr@@ 1
Entre 1
2008 0.8690267730990942
Ro@@ 1
E 1
itos 1
poder 1
il 0.2447767254986554
diferentes 1
Cu@@ 1
manera 1
amb@@ 1
orio 1
2016 0.8770058022528227
agr@@ 1
pul@@ 1
activ@@ 1
jas 1
13 0.9881712081130726
tradi@@ 1
localidad 1
Madrid 1
frente 1
2013 0.8590872456473538
ándose 1
w@@ 0.20292598301328693
hi@@ 0.9878208360280286
the 0.010370844488749484
mis@@ 1
én 1
dia 1
caso 1
acción 1
ier@@ 1
C 0.9130597947454645
B 0.8969814523996794
línea 1
6@@ 0.863991173572416
17 1
ección 1
Estado 1
ectos 1
Carlos 1
mejor 1
hecho 1
nivel 1
liber@@ 1
segu@@ 1
Francia 1
2009 0.8366640947827938
primeros 1
Can@@ 1
adora 1
pel@@ 1
millones 1
política 1
ren@@ 1
descu@@ 1
espec@@ 1
eras 1
trabaj@@ 1
2007 0.8877051415681261
organiz@@ 1
man 0.4836327585301589
ble 1
programa 1
II 1
construcción 1
alcanz@@ 1
cin@@ 1
República 1
Argentina 1
pueblo 1
crí@@ 1
19 0.9376304670923363
comp@@ 1
convirtió 1
2000 1
leg@@ 1
mor@@ 1
llamado 1
juego 1
not@@ 1
8@@ 0.9023411482973392
7@@ 0.8615080828494551
und@@ 0.7930731858258232
rel@@ 0.9687549798744275
ejemplo 1
denomin@@ 1
Le@@ 0.7328151256853133
cho 1
alg@@ 1
der 0.04177147358162572
haber 1
sim@@ 1
cargo 1
cional 1
aza 1
algunas 1
pobl@@ 1
and 0.019640200969303426
tan 1
logr@@ 1
jos 1
cinco 1
arias 1
distrito 1
ela 1
veces 1
Como 1
ío 1
Val@@ 1
ellas 1
Ver@@ 0.40717808549722423
les@@ 1
ón@@ 1
centr@@ 1
apo@@ 1
tam@@ 1
2006 0.8579071544616995
ord@@ 1
ual 1
ima 1
anz@@ 1
bre 1
todas 1
ud 1
2018 0.8119588974431164
tí@@ 1
prop@@ 1
Cal@@ 1
hac@@ 1
nu@@ 1
capital 1
Gr@@ 0.7599832771823264
Sh@@ 0.7097118498353187
ind@@ 1
arm@@ 1
club 1
administr@@ 1
Á@@ 1
ine 0.3053203178064245
miembros 1
establec@@ 1
conocida 1
cuales 1
década 1
finales 1
24 1
Man@@ 1
desarrollo 1
iendo 1
son@@ 1
habían 1
punto 1
mujeres 1
conserv@@ 1
celebr@@ 1
oria 1
def@@ 1
compr@@ 1
De@@ 0.9315052426341415
aus@@ 0.49349442077425354
dad 1
ili@@ 1
comun@@ 1
declar@@ 1
partidos 1
ard@@ 1
hacer 1
fico 1
dur@@ 1
tamente 1
21 0.9783486533634362
hum@@ 1
ables 1
oto 1
Biografía 1
Luis 1
constitu@@ 1
Un@@ 1
Ber@@ 0.9621420678061294
ego 1
orden 1
2017 0.8046130452313041
ecu@@ 1
pesar 1
base 1
º 1
director 1
actual 1
zo 1
cru@@ 1
escu@@ 1
ib@@ 1
disput@@ 1
ún 1
oro 1
ác@@ 1
eci@@ 1
Cat@@ 1
interpret@@ 1
ubicado 1
tal@@ 1
if@@ 0.9935645703166572
culos 1
sus@@ 1
estudio 1
22 1
voc@@ 1
enas 1
ago 1
alt@@ 1
mit@@ 1
unas 1
siguientes 1
toda 1
2@@ 0.8701112955180391
puer@@ 1
ativo 1
Francisco 1
especies 1
principales 1
fl@@ 0.8944137079589011
estudios 1
económ@@ 1
anc@@ 1
casi 1
N 1
Europa 1
eles 1
miembro 1
bo@@ 0.5238844733845813
mar 1
ol 1
res 1
acto 1
Chile 1
igo 1
loc@@ 1
Copa 1
sin@@ 1
Is@@ 1
O 0.8790019017089364
ológ@@ 1
ton 0.5859000640605458
osos 1
inglés 1
alista 1
cas 1
condado 1
2019 0.7929042228364205
23 1
có 0.7409552889109849
clasific@@ 1
llegó 1
desarroll@@ 1
éxito 1
fútbol 1
dej@@ 1
proyecto 1
perman@@ 1
enti@@ 0.7275076276639859
hombres 1
área 1
acuerdo 1
bió 1
aparec@@ 1
Cuando 1
Campeonato 1
domin@@ 1
den 0.09875254079239862
propi@@ 1
eti@@ 1
pes@@ 1
parti@@ 1
mad@@ 1
cons@@ 1
puntos 1
có@@ 1
mediante 1
apar@@ 1
g 0.4033418788343892
compl@@ 1
Pro@@ 1
fon@@ 1
ase 1
ins@@ 1
tener 1
din@@ 1
irse 1
obten@@ 1
integr@@ 1
países 1
cualquier 1
tiva 1
uta 1
ta@@ 1
televisión 1
dr@@ 0.7387225412963937
él@@ 1
porte 1
estilo 1
C. 1
dirig@@ 1
Club 1
ach@@ 0.47353905085323805
cambio 1
2005 0.8848916862979193
mas@@ 1
_ 0.70042601584011
nac@@ 1
comer@@ 1
ez@@ 1
isi@@ 1
fuera 1
estación 1
técn@@ 1
p 0.408148409537474
britán@@ 1
am 0.21933461421134684
vió 1
var@@ 1
X@@ 1
tem@@ 1
bur@@ 1
ud@@ 1
qued@@ 1
ectiv@@ 1
po 1
Partido 1
bl@@ 0.729058811181109
tierra 1
aca 1
termin@@ 1
emente 1
fal@@ 1
origin@@ 1
depor@@ 1
imientos 1
isla 1
Reg@@ 1
ensa 1
retir@@ 1
amp@@ 1
Ac@@ 1
ge@@ 0.3944405784767673
bier@@ 1
origen 1
ola 1
libro 1
bor@@ 1
pan@@ 1
ye 1
York 0.8072722098182762
b 0.500879709845335
formación 1
ió 1
equipos 1
aga 1
Her@@ 0.8473993836237643
1.@@ 1
tió 1
esper@@ 1
ense 1
especi@@ 1
indi@@ 1
bal@@ 1
militar 1
ast@@ 1
hom@@ 1
papel 1
anda 1
asc@@ 1
teriores 1
titu@@ 1
porque 1
manos 1
tras@@ 1
sit@@ 1
puesta 1
$ 0.9642932931991021
recibió 1
000 1
Cas@@ 1
ning@@ 1
ún@@ 1
elec@@ 1
tra 1
edificio 1
ni 1
28 1
emp@@ 1
tir 1
pot@@ 1
Antonio 1
tal 1
Alemania 1
ofici@@ 1
color 1
ay 0.5200373681038358
iciones 1
exist@@ 1
Pedro 1
mag@@ 1
fin@@ 0.561366687857765
grupos 1
vers@@ 1
relación 1
polí@@ 1
result@@ 1
Sus 1
patr@@ 1
particip@@ 1
cientí@@ 1
Real 1
fin 1
dado 1
bre@@ 0.851765237888134
27 1
alrededor 1
2020 0.7357122041086414
última 1
26 1
estuvo 1
Gal@@ 1
Gran 1
Cl@@ 1
14@@ 0.8071972270891035
edición 1
encuentran 1
2004 0.8450125690464936
permi@@ 1
cost@@ 1
ba 1
fici@@ 1
oficial 1
dar 1
alto 1
arquit@@ 1
ambos 1
ajes 1
Vi@@ 1
proceso 1
arte 1
ers 0.12882984053584892
ivo 1
Bel@@ 1
entemente 1
S 0.8188604262025232
principalmente 1
me 0.5568327645790877
elecciones 1
expres@@ 1
público 1
habit@@ 1
compos@@ 1
superficie 1
met@@ 1
iglesia 1
canciones 1
T 0.8182950230279465
unidad 1
enz@@ 1
sac@@ 1
fica 1
amp 0.5529916369530452
División 1
Ed@@ 1
lista 1
General 1
ganó 1
principios 1
mucho 1
th@@ 0.18406503998766885
empresa 1
institu@@ 1
servicio 1
incluso 1
0.@@ 1
estaban 1
estar 1
tic@@ 0.9767898308103912
territorio 1
colabor@@ 1
D 0.7194525518095229
gol@@ 1
ub@@ 1
dieron 1
disco 1
meses 1
ampli@@ 1
rit@@ 1
To@@ 1
dice 1
sería 1
Pl@@ 1
importantes 1
sino 1
Nu@@ 1
llamada 1
nacionales 1
mot@@ 1
Reino 1
50 0.9088758006720051
dol@@ 1
complet@@ 1
oni@@ 1
V 1
he@@ 0.5005589942353337
cop@@ 1
dido 1
contin@@ 1
gen 0.902001572958905
Camp@@ 1
ne 0.28213885424034413
ger@@ 0.6912429928440069
ill@@ 0.7138197264215952
eng@@ 0.5138889625612125
igu@@ 1
cripción 1
icia 1
0,@@ 1
curso 1
ed 0.04759647671469502
Nor@@ 0.9588871358500335
enfrent@@ 1
emb@@ 1
uel@@ 1
cabo 1
agu@@ 1
refer@@ 1
bol@@ 1
Jo@@ 1
tivos 1
isiones 1
propio 1
registr@@ 1
pasó 1
liter@@ 1
político 1
vent@@ 1
asoci@@ 1
par 0.16791729263894195
América 1
seis 1
gar@@ 1
100 0.8451630963758113
L 0.613678533226875
tera 1
St@@ 0.3305315166215768
ática 1
Unión 1
internacional 1
ite 0.3457749951720215
blan@@ 1
diseñ@@ 1
campo 1
ética 1
ejército 1
onales 1
Esp@@ 1
que@@ 1
distribu@@ 1
finalmente 1
pol@@ 1
ónica 1
Em@@ 1
término 1
dir@@ 1
R 0.7084547778542593
tir@@ 1
muchas 1
Fin@@ 1
ades 1
Ma@@ 0.9786814175755173
mes 1
escrit@@ 1
original 1
prob@@ 1
Primera 1
tero 1
famili@@ 1
Liga 1
medios 1
M 0.8160735263733866
che 0.6295318004032545
densidad 1
Ci@@ 1
Norte 1
isti@@ 1
eño 1
musical 1
enda 1
be@@ 0.21407213918781096
Segunda 1
fall@@ 1
cuer@@ 1
fuer@@ 1
sum@@ 1
eso 1
natur@@ 1
aplic@@ 1
Buenos 1
conjunto 1
29 1
etas 1
cuerpo 1
iones 1
icamente 1
sab@@ 1
separ@@ 1
debe 1
afir@@ 1
ende 0.9239834859914221
Aires 1
ug@@ 0.9887160052772486
John 0.6054218769951613
sede 1
Mal@@ 1
dist@@ 1
alm@@ 1
siempre 1
mand@@ 1
ca@@ 1
Rec@@ 1
departamento 1
Be@@ 0.4111182322209703
v 0.8099016678468427
ingres@@ 1
ila 1
Se@@ 0.5552963305386782
ete 1
Internacional 1
protagon@@ 1
francés 1
jun@@ 1
camp@@ 1
madre 1
cad@@ 1
cli@@ 1
aut@@ 1
movimiento 1
acio 1
2003 0.8802855377274886
idente 1
obtuvo 1
tro 1
derrot@@ 1
Aunque 1
sólo 1
ios 1
ae 1
soci@@ 1
avi@@ 1
Po@@ 1
edit@@ 1
alización 1
° 1
tend@@ 1
ático 1
ern@@ 1
observ@@ 1
Ab@@ 0.41652035463605946
deb@@ 1
Manuel 1
prec@@ 1
resto 1
compañía 1
vic@@ 1
Fr@@ 1
posteriormente 1
mujer 1
genes 1
regres@@ 1
oras 1
Lu@@ 1
elección 1
sta 1
frecu@@ 1
Sur 1
media 1
bo 1
acc@@ 0.6861489590488307
sen@@ 1
comunic@@ 1
Sol@@ 1
ce@@ 1
Te@@ 1
hijos 1
alla 1
azo 1
car 1
pequeñ@@ 1
religi@@ 1
seg@@ 1
uro 1
Iglesia 1
pa 1
ará 1
éndose 1
prác@@ 1
13@@ 0.7458171525293864
entren@@ 1
realizó 1
Italia 1
primero 1
uer@@ 1
Cam@@ 1
categoría 1
turas 1
ph@@ 0.26304618522217177
cultura 1
Ros@@ 1
grá@@ 1
nombrado 1
40 0.9119746261456871
igual 1
til@@ 1
Ser@@ 1
signific@@ 1
naci@@ 1
Esto 1
central 1
aún 1
comenz@@ 1
Ram@@ 1
mem@@ 1
viol@@ 1
ización 1
especialmente 1
aya 1
ng@@ 1
chas 1
bot@@ 1
enso 1
difer@@ 1
argent@@ 1
Inter@@ 1
bat@@ 1
2001 0.8187927374067494
don@@ 1
cant@@ 1
rev@@ 1
anterior 1
cit@@ 1
presid@@ 1
Ri@@ 1
fuerzas 1
social 1
eses 1
Deb@@ 1
mb@@ 1
abandon@@ 1
ü@@ 0.6946765897678544
publicado 1
Ter@@ 1
sí 1
fo 1
hija 1
med@@ 1
mal@@ 1
alta 1
Ju@@ 1
P 0.8426211824993742
local 0.9416050611745089
Ciudad 1
ám@@ 1
me@@ 0.4483713004603005
abr@@ 1
hoy 1
ráp@@ 1
edo 1
Mag@@ 1
española 1
único 1
organización 1
sir@@ 1
instal@@ 1
elimin@@ 1
vot@@ 1
histori@@ 1
illas 1
gal@@ 1
bir 0.6759713160884427
tempor@@ 1
tan@@ 1
secre@@ 1
miento 1
exten@@ 1
ubicada 1
2002 0.7987049908658261
batalla 1
For@@ 0.6655602248698254
profes@@ 1
inten@@ 1
Barcelona 1
amos 1
ion@@ 1
into 0.3117068708246662
resultado 1
censo 1
cia 1
Instituto 1
pedi@@ 1
período 1
hermano 1
-@@ 1
dirección 1
control 1
aja 1
aer@@ 1
artí@@ 1
gri@@ 1
Mu@@ 1
Tur@@ 0.9050480570176394
lev@@ 1
ene 0.582574895704478
reconoc@@ 1
ál@@ 1
determin@@ 1
Santiago 1
París 1
ayud@@ 1
ler@@ 0.7405004333104088
compañ@@ 1
jugador 1
moder@@ 1
ter 0.19154670866863924
incluyendo 1
jur@@ 1
conc@@ 1
proy@@ 1
relacion@@ 1
distint@@ 1
bri@@ 1
profesional 1
europ@@ 1
lanz@@ 1
ign@@ 0.7807381481098314
traslad@@ 1
aco 1
estructura 1
caus@@ 1
mur@@ 1
X 1
Cer@@ 1
F 0.7272731866287673
escuela 1
tiv@@ 1
sencillo 1
pon@@ 1
Geografía 1
tema 1
asesin@@ 1
funcion@@ 1
Pas@@ 1
Ad@@ 0.618773872699651
amar@@ 1
jer@@ 1
Ir@@ 1
ví@@ 1
investigación 1
investig@@ 1
dir 1
aliza 1
vel@@ 1
Bal@@ 1
candid@@ 1
revista 1
nombr@@ 1
oblig@@ 1
inform@@ 1
gos 1
ue 0.3993507058775812
consecu@@ 1
propor@@ 1
U 0.8057181306831692
Pe@@ 1
unci@@ 1
isten 1
hombre 1
ús@@ 1
iles 1
caracter@@ 1
óm@@ 1
Lo@@ 0.8944450179621163
31 0.9767932070136173
graf@@ 1
visit@@ 1
modo 1
fot@@ 1
Hu@@ 1
1990 0.9088389886345095
obj@@ 1
comien@@ 1
fecha 1
torneo 1
ística 1
templ@@ 1
Me@@ 0.7601651950571545
llegar 1
defin@@ 1
paso 1
2021 0.7303305296283917
acional 1
ton@@ 1
sea 1
conten@@ 1
idae 1
sali@@ 1
dedic@@ 1
asa 1
Pi@@ 1
cri@@ 1
ces 0.7222562721598773
! 0.7569353487564466
iller@@ 1
antiguo 1
inde@@ 1
actividad 1
apoyo 1
Juegos 1
doc@@ 1
Fu@@ 1
ave 1
rup@@ 1
1999 0.8420703644221086
estro 1
usa 1
formula 0.5893819590905043
tro@@ 0.7325686505694092
vec@@ 1
incorpor@@ 1
datos 1
ust@@ 1
nav@@ 1
uch@@ 1
onal 1
francesa 1
É@@ 0.8359821074556061
orial 1
logo 1
ret@@ 1
actualmente 1
llevó 1
nació 1
ól@@ 1
mej@@ 1
óp@@ 1
decir 1
amientos 1
capit@@ 1
orden@@ 1
... 1
correspon@@ 1
lar 1
sh@@ 0.21404128586538157
Perú 1
ale 0.25111051644504945
popular 1
mostr@@ 1
ahora 1
modelo 1
espacio 1
comunidad 1
str@@ 0.33838804175862014
superior 1
ard 0.40135400760877793
priv@@ 1
emple@@ 1
algo 1
ografía 1
adio 1
ira 1
pues 1
Th@@ 0.30914495898185584
leo 1
hor@@ 1
Luego 1
pat@@ 1
servicios 1
abilidad 1
derecho 1
cial 1
estat@@ 1
ont@@ 1
Bo@@ 0.5944663190498417
act@@ 1
univers@@ 1
Miguel 1
ativas 1
resp@@ 1
eda 1
aparece 1
Mer@@ 1
pil@@ 1
cine 1
Mat@@ 1
cip@@ 1
once 1
alem@@ 1
personal 1
Mur@@ 1
ciudades 1
Go@@ 1
elegido 1
joven 1
mas 1
ayo 1
pens@@ 1
problemas 1
figur@@ 1
lin@@ 0.5370787767231703
histór@@ 1
Mo@@ 0.8714442608685666
w 0.26712804482949687
Nav@@ 1
participó 1
gar 1
presión 1
ge 0.31178176626922877
Jun@@ 1
real 1
san@@ 1
situada 1
cambi@@ 1
interior 1
ís@@ 1
Fl@@ 0.7546141104058091
anci@@ 1
inv@@ 1
autor 1
fus@@ 1
posible 1
Bur@@ 0.8014708820765987
creación 1
Feder@@ 1
ey 0.7239209003635417
deci@@ 1
iva 1
personaje 1
elas 1
encarg@@ 1
rá@@ 1
mil@@ 1
información 1
cic@@ 1
vieron 1
Si 1
arra 1
aves 1
Centro 1
acer@@ 1
Gobierno 1
primeras 1
Cul@@ 1
ocur@@ 1
pendiente 1
ace 0.6621138015374226
descri@@ 1
orr@@ 1
propia 1
única 1
rem@@ 1
Museo 1
Unido 1
pun@@ 1
capacidad 1
iti@@ 0.8766147727884405
ai 0.6336464821367352
campeón 1
fís@@ 1
diseño 1
pe 0.7393669990850723
dest@@ 1
menor 1
Seg@@ 1
cantante 1
apa 1
baj@@ 1
ch 0.27488005068076615
puestos 1
ficos 1
Cá@@ 1
ais@@ 1
anunció 1
logró 1
Río 1
Ne@@ 0.5016820659457624
estim@@ 1
Áng@@ 1
Pan@@ 1
proc@@ 1
aproximadamente 1
mol@@ 1
teri@@ 1
Mad@@ 1
Tri@@ 1
edades 1
asp@@ 1
escri@@ 1
dijo 1
greso 1
negoci@@ 1
ang 0.5398066577297164
estra 1
ría 1
titul@@ 1
Consejo 1
neas 1
ini 0.9521888068600194
ance 0.25246539919492145
victoria 1
oy@@ 0.9869235911643128
recuper@@ 1
bres 1
actor 1
Premio 1
ardo 1
japon@@ 1
Escuela 1
ablemente 1
ak@@ 0.27929553395546847
lic@@ 1
situación 1
casos 1
úa 1
mé@@ 1
raz@@ 1
ell 0.4366239285795084
nunca 1
1998 0.8486959329192321
Inglaterra 1
regi@@ 1
10@@ 0.7643543568313756
jus@@ 1
Demografía 1
objetivo 1
dida 1
f 0.32768219115222935
calle 1
publicó 1
Más 1
nuevos 1
III 1
natural 1
imp@@ 1
envi@@ 1
alismo 1
60 0.961516342384809
Japón 1
proces@@ 1
sigue 1
Bor@@ 1
encial 1
ik@@ 0.36293413733304697
allas 1
temas 1
texto 1
itar 1
fam@@ 1
Brasil 1
Sch@@ 0.1939277178121997
común 1
alemán 1
ográ@@ 1
cuar@@ 1
ambi@@ 1
Pero 1
acia 1
acu@@ 1
allí 1
isa 1
resid@@ 1
suces@@ 1
mos 1
volvió 1
red@@ 1
cir 1
establ@@ 1
Juli@@ 1
cantidad 1
desc@@ 1
áticos 1
1,@@ 0.9960246494502331
Colombia 1
mara 1
partes 1
tenían 1
Estudi@@ 1
abaj@@ 1
principio 1
China 1
igos 1
misión 1
íos 1
vas 1
dó@@ 1
especial 1
concep@@ 1
abier@@ 1
conoce 1
tercer 1
tad 1
2.@@ 1
Vir@@ 1
docum@@ 1
división 1
nea 1
pequeño 1
positi@@ 1
ao 1
monta@@ 1
cias 1
rea 1
acciones 1
rez 1
trata 1
limit@@ 1
elementos 1
80 1
uni@@ 1
Med@@ 1
Ejército 1
diversos 1
Mi@@ 1
últimos 1
1980 1
decidió 1
di 0.7800262101745743
mexic@@ 1
plat@@ 1
Londres 1
uz@@ 1
intent@@ 1
mano 1
Está 1
design@@ 1
ide@@ 1
expl@@ 1
onal@@ 1
escribió 1
costa 1
Y 1
periodo 1
Sp@@ 0.5561994445707902
band@@ 1
Bat@@ 1
enes 1
cristi@@ 1
ben 1
etos 1
fuerza 1
tar 1
mando 1
dom@@ 1
selección 1
campaña 1
altura 1
icios 1
sil@@ 1
Distribución 1
muestra 1
ou@@ 0.2872014132848337
cionales 1
Cab@@ 1
mus@@ 1
erse 1
ote 1
ender 1
derechos 1
grande 1
Fernando 1
anes 1
situado 1
juegos 1
esposa 1
ve@@ 1
antigu@@ 1
bos@@ 1
arca 1
tropas 1
antigua 1
actividades 1
fut@@ 1
planta 1
fir@@ 1
ajo 1
1996 0.8714685498262048
cali@@ 1
ativos 1
acompañ@@ 1
tido 1
consid@@ 1
óric@@ 1
influ@@ 1
0@@ 0.8562611316469133
eve 1
participación 1
ocho 1
alu@@ 1
vivi@@ 1
firm@@ 1
oles 1
prepar@@ 1
go@@ 0.886325235598493
Mil@@ 1
Dis@@ 1
muer@@ 1
mez@@ 1
presencia 1
viv@@ 1
Ger@@ 0.7834309021608461
Bi@@ 0.7118093185588331
Así 1
zonas 1
mant@@ 1
áreas 1
incluye 1
ectura 1
nuevas 1
crec@@ 1
Hab@@ 1
tros 1
Pa@@ 1
Ob@@ 1
inst@@ 1
acab@@ 1
Ori@@ 1
Liber@@ 1
haci@@ 1
Mc@@ 0.639761885084482
pendi@@ 1
libre 1
endas 1
frica 1
tuvieron 1
Medi@@ 1
Censo 1
ango 1
izquier@@ 1
longitud 1
1997 0.8477176323567128
ania 1
lea 1
som@@ 1
estren@@ 1
tific@@ 1
formas 1
clase 1
sitio 1
bil@@ 0.7199185950399604
Ben@@ 1
grado 1
oca 1
ka 0.7068039284314728
vía 1
infer@@ 1
clás@@ 1
ayectoria 1
dicho 1
Prim@@ 1
tig@@ 1
profesor 1
1995 0.8824616275325642
ice 0.31900970999364586
Carrera 1
parec@@ 1
acept@@ 1
películas 1
atac@@ 1
mente 1
arlo 1
vos 1
bles 1
compuesto 1
ólica 1
Der@@ 1
Rom@@ 1
bel@@ 0.5534173949106799
comuna 1
idea 1
vio 1
siete 1
1992 0.8618562559340127
conqu@@ 1
land@@ 0.7390420277818534
mento 1
pública 1
70 1
reempl@@ 1
compar@@ 1
novela 1
art@@ 1
causa 1
tercera 1
flu@@ 1
competi@@ 1
ticamente 1
partici@@ 1
yó 1
ific@@ 1
jefe 1
desarrol@@ 1
tora 1
ígen@@ 1
ven 1
au 0.09058145075523424
tab@@ 1
eñ@@ 1
teatro 1
Ag@@ 1
sp@@ 0.29523195962963233
ezas 1
ron@@ 1
persona 1
G 0.6531087065976271
imagen 1
2,@@ 1
ee 1
referencia 1
sociedad 1
ayuda 1
cuyo 1
person@@ 1
Gi@@ 0.9505749482144216
financi@@ 1
XIX 1
dar@@ 0.8114563217116076
1994 0.8575016661986724
12@@ 0.7530216846782359
fabric@@ 1
California 1
conduc@@ 1
tamaño 1
vid@@ 1
tul@@ 1
ti 0.8034331891552257
Vic@@ 1
quienes 1
mitad 1
fol@@ 1
eleg@@ 1
personajes 1
cierto 1
fuerte 1
noche 1
lucha 1
menudo 1
period@@ 1
ubic@@ 1
= 0.5502068272576239
len@@ 0.9944601597545063
chos 1
chil@@ 1
ísticas 1
Sil@@ 1
ur 0.37581069974838516
Tom@@ 1
similar 1
aller@@ 1
auto@@ 1
autom@@ 1
perteneciente 1
inaugur@@ 1
Estos 1
matrimonio 1
ision@@ 1
León 1
Por@@ 1
ª 1
podría 1
per 0.4286591501930946
niños 1
peri@@ 1
ult@@ 1
jud@@ 1
Europ@@ 1
van 1
pad@@ 1
gracias 1
pudo 1
eos 1
Pu@@ 1
luz 1
Mientras 1
XX 1
ilio 1
finaliz@@ 1
ilit@@ 1
prueba 1
mercado 1
ines 0.6059912195062519
Central 1
forme 1
clar@@ 1
realizar 1
tales 1
públ@@ 1
artís@@ 1
pequeña 1
provoc@@ 1
comple@@ 1
atur@@ 1
ocasiones 1
divi@@ 1
Aut@@ 1
femen@@ 1
adel@@ 1
aire 0.3964561846611968
igió 1
plic@@ 1
quedó 1
pá@@ 1
1970 0.9925876936984286
edra 1
ú 1
Er@@ 0.299209980460575
let@@ 0.6356768027625814
experim@@ 1
mediados 1
Imperio 1
Posteriormente 1
restaur@@ 1
puls@@ 1
He@@ 0.4844317945461449
gas 1
diversas 1
presenta 1
Ti@@ 1
radi@@ 1
it 0.0630443713745989
García 1
libros 1
medida 1
sobre@@ 1
actualidad 1
unión 1
ul 1
edió 1
aprob@@ 1
apareció 1
dor@@ 1
1991 0.8272149279526384
liga 1
tot@@ 1
premio 1
carr@@ 1
Q@@ 0.7853975312393361
cuadr@@ 1
mov@@ 1
San@@ 1
ím@@ 1
excep@@ 1
interés 1
función 1
educación 1
elev@@ 1
ológico 1
aña 1
dico 1
Actualmente 1
españ@@ 1
anto 1
lleva 1
Tiene 1
ejec@@ 1
Gran@@ 1
mencion@@ 1
alizado 1
yo 1
gio 1
Har@@ 0.6508217321892605
egio 1
adquir@@ 1
construy@@ 1
razas 1
plantas 1
artistas 1
fe@@ 0.41203499420788675
tre 0.8034563396967195
90 1
diferencia 1
Fútbol 1
encuentr@@ 1
Sud@@ 1
oría 1
ministro 1
emos 1
identific@@ 1
lares 1
fran@@ 1
ónom@@ 1
Ur@@ 0.9087325312699731
ich 0.6627285425536349
vir@@ 1
aten@@ 1
trabajos 1
ior 1
Venezuela 1
odi@@ 1
enfermed@@ 1
gt 0.46772763503567166
tecn@@ 1
lengu@@ 1
episodio 1
imen 1
ein@@ 0.21214030829148586
ener 1
ónico 1
tario 1
Ha 1
ler 0.29509332806485367
mundial 1
David 0.955760821593624
secu@@ 1
prove@@ 1
Congreso 1
Hol@@ 0.6402444243658973
Gar@@ 0.9364152002008295
adop@@ 1
cm 1
etapa 1
eri@@ 1
murió 1
abor@@ 1
ximo 1
Du@@ 1
numer@@ 1
diendo 1
horas 1
evo 1
mec@@ 1
Cruz 1
Ho@@ 0.9576594474674542
Li@@ 0.5155591674758375
unió 1
lanzado 1
metro 1
Roma 1
queda 1
ole 0.7719545761502334
viaj@@ 1
zar 1
1993 0.837299067882232
Ni@@ 1
Si@@ 0.9078763774112193
istr@@ 1
ner 0.2399537569848167
medalla 1
id 0.38637994111245827
sel@@ 0.6053605399068891
américa 1
obispo 1
ban@@ 0.8037593320907048
sex@@ 1
jugó 1
gobernador 1
emiti@@ 1
Festival 1
pertenec@@ 1
Dr@@ 0.7273382301823743
rí@@ 1
tit@@ 1
red 0.3716222016632483
Arm@@ 1
itas 1
mejores 1
mús@@ 1
ingen@@ 1
canal 1
gl@@ 0.7707217611363817
polic@@ 1
invit@@ 1
energía 1
honor 1
revel@@ 1
uy@@ 1
ataque 1
Constitu@@ 1
bol 1
geográfica 1
ciales 1
H 0.8460353930118244
Hon@@ 1
cuya 1
enses 1
echa 1
estruc@@ 1
Pres@@ 1
ánica 1
Oficina 1
rech@@ 1
guit@@ 1
la@@ 0.4426876284794293
Fer@@ 1
Rusia 1
gira 1
vig@@ 1
cal 1
valor 1
ele 1
vide@@ 1
electr@@ 1
diput@@ 1
defensa 1
permite 1
3.@@ 1
ánico 1
presentó 1
sor@@ 1
Bol@@ 1
mp@@ 1
’ 0.08427411420009692
cabeza 1
ábit@@ 1
características 1
ami@@ 1
aument@@ 1
lugares 1
vir 1
ció 1
contribu@@ 1
ram@@ 1
ticia 1
model@@ 1
Del 1
mpicos 1
mil 1
plaza 1
dirigida 1
relaciones 1
influencia 1
kilómetros 1
econom@@ 1
lt 0.4398257362851243
actriz 1
neo 1
baja 1
carre@@ 1
lig@@ 0.9913997848563106
amento 1
eja 1
barrio 1
formar 1
fase 1
Dom@@ 1
significa 1
clu@@ 1
Academia 1
amo 1
comand@@ 1
ingo 1
Res@@ 1
ustr@@ 1
conven@@ 1
So@@ 0.8218745097775332
conver@@ 1
ños 1
armas 1
indic@@ 1
conoci@@ 1
propiedad 1
Del@@ 1
frontera 1
manten@@ 1
Lor@@ 1
Hor@@ 1
americanos 1
usu@@ 1
alidades 1
coloc@@ 1
Bu@@ 1
temper@@ 1
olo 1
video 1
distancia 1
importancia 1
cultur@@ 1
incluyen 1
dejó 1
pró@@ 1
ónimo 1
anim@@ 1
ucion@@ 1
intel@@ 1
formó 1
eca 1
tista 1
ans 0.16396766583508784
1989 0.8442117845616706
favor@@ 1
ras@@ 1
Casa 1
pec@@ 1
déc@@ 0.8804132184913718
alcal@@ 1
etc. 1
produ@@ 1
secund@@ 1
verano 1
Pre@@ 1
Tierra 1
tierras 1
jugadores 1
abe 1
lab@@ 1
material 1
torno 1
mir@@ 1
Jorge 1
diez 1
vista 1
óg@@ 1
inició 1
trabajó 1
futbolista 1
camino 1
ém@@ 1
respecto 1
iente 1
tillo 1
terminó 1
Mac@@ 1
pag@@ 1
sociales 1
cier@@ 1
gir@@ 1
úl@@ 1
dicha 1
reduc@@ 1
suc@@ 1
sector 1
New 0.19359423049691396
ficas 1
Min@@ 0.6820950399897199
respectiv@@ 1
+ 0.903622600604206
conflic@@ 1
uras 1
condiciones 1
embar@@ 1
generalmente 1
comercial 1
aparición 1
ext@@ 1
ede 1
eter@@ 1
FC 0.8617627752114723
const@@ 1
&#124; 0.877016406501538
debut 1
instrum@@ 1
log@@ 1
ñas 1
siones 1
mes@@ 1
poder@@ 1
unc@@ 0.7433278486983141
esas 1
asist@@ 1
Saint 0.4530272678655249
minutos 1
Olí@@ 1
1@@ 0.9588881901318892
carácter 1
ok@@ 0.4246215394275945
1960 0.9600162128604977
entrada 1
Ay@@ 1
perió@@ 1
calidad 1
combin@@ 1
dan 1
urs@@ 1
Leg@@ 1
Chi@@ 1
aguas 1
campeonato 1
Sim@@ 1
obst@@ 1
mul@@ 1
convirti@@ 1
ficamente 1
egr@@ 1
blanco 1
sistemas 1
portes 1
illos 1
lad@@ 1
escritor 1
Cap@@ 1
arg@@ 1
considerado 1
requ@@ 1
crit@@ 1
acus@@ 1
eléctr@@ 1
abri@@ 1
Patr@@ 1
ré@@ 0.18888812919303227
locales 1
tribu@@ 1
Mas@@ 0.7818521681611745
demostr@@ 1
mm 1
35 0.9212582696054402
organ@@ 1
goles 1
comi@@ 1
500 0.9509264747573861
acceso 1
pasado 1
combate 1
tesis 1
aur@@ 1
consegu@@ 1
hici@@ 1
tru@@ 1
ech@@ 0.7564878996218019
bio 1
land 0.2119909814735541
Bre@@ 0.9696319491273122
ibles 1
ens 0.1825423175651373
did@@ 1
anco 1
estig@@ 1
unidades 1
Fil@@ 1
hib@@ 1
propu@@ 1
gobern@@ 1
Señ@@ 1
parque 1
lanzó 1
Españ@@ 1
amen@@ 1
rock 1
trabajar 1
artista 1
desempeñ@@ 1
inmedi@@ 1
eña 1
productos 1
marca 1
todavía 1
frag@@ 1
up@@ 0.42117557420804747
semana 1
Vill@@ 1
vin@@ 1
bes 1
blo@@ 1
seguridad 1
convertir@@ 1
Algunos 1
ciona 1
20@@ 0.6816751094805764
inal 1
ciertos 1
ah 0.6036083863625057
xima 1
sentido 1
ment@@ 1
put@@ 1
realidad 1
A. 1
apr@@ 1
militares 1
ates 0.2964136736315883
sup@@ 0.6340666666987482
aro 1
consiguió 1
otorg@@ 1
municipal 1
Australia 0.9209282283438639
cump@@ 1
dedi@@ 1
Vil@@ 1
ístico 1
nuevamente 1
imo 1
fines 1
crear 1
experi@@ 1
tra@@ 0.773681262506761
emper@@ 1
quit@@ 1
Mun@@ 1
revol@@ 1
200 0.9195246434015972
ile 0.2995662205130813
aud@@ 1
descrita 1
ocasi@@ 1
clas@@ 1
iliz@@ 1
anta 1
conv@@ 1
feder@@ 1
ultad 1
ses@@ 1
radio 1
1988 0.8283837317972504
Ley 1
Enrique 1
Fund@@ 1
enseñ@@ 1
coordenadas 1
ich@@ 0.47058028918915723
mana 1
humanos 1
taron 1
Bas@@ 0.6825906907275824
tó 1
civil 1
Martín 1
creó 1
echo 1
ciudad@@ 1
ick 0.46681179752700885
Lat@@ 1
inspir@@ 1
voz 1
ibilidad 1
corri@@ 1
India 0.9163781218802693
selec@@ 1
iento 1
líder 1
esos 1
refle@@ 1
adapt@@ 1
materi@@ 1
cent@@ 1
americano 1
ore 0.3802385274416893
etes 1
fá@@ 1
eria 1
ava 1
itali@@ 1
nam@@ 0.7422618625406391
Grupo 1
impres@@ 1
contrato 1
uerto 1
? 0.9961664359580634
eli@@ 1
restos 1
entales 1
versiones 1
lia 1
Mont@@ 1
lanzamiento 1
regul@@ 1
idamente 1
produjo 1
recib@@ 1
coc@@ 1
list@@ 1
aw@@ 0.38440367359609273
iza 1
empezó 1
cambios 1
ambas 1
abra 1
ism@@ 1
ificación 1
empresas 1
cil 1
arqu@@ 1
Pablo 1
leng@@ 1
atori@@ 1
vac@@ 1
toral 1
educ@@ 1
fig@@ 1
Jus@@ 1
Ren@@ 1
iro 1
Kr@@ 0.46903009464215567
ax@@ 1
Asociación 1
realizado 1
cantón 1
escrito 1
pueb@@ 1
italiano 1
Jesús 1
Puerto 1
programas 1
teoría 1
álisis 1
traduc@@ 1
jóvenes 1
1985 0.8999004207938774
islas 1
tex@@ 1
sufici@@ 1
Costa 1
encontrar 1
Sin@@ 1
popul@@ 1
IV 1
debut@@ 1
1987 0.8660635447732641
div@@ 1
cuarto 1
utiliza 1
Hum@@ 1
velocidad 1
sufri@@ 1
1986 0.8693756954524009
Az@@ 1
mayores 1
Mari@@ 1
enem@@ 1
Ministerio 1
til 1
guar@@ 1
numerosos 1
tec@@ 1
gradu@@ 0.7870139014851055
Blan@@ 1
modific@@ 1
conf@@ 0.9360032768269418
cultural 1
lider@@ 1
reo 1
edral 1
dal@@ 1
Ang@@ 0.5134211180777839
ass@@ 0.187029428430078
ulares 1
eco 1
dad@@ 1
roqu@@ 1
Fi@@ 1
lido 1
áneo 1
Mos@@ 1
formado 1
Pacífico 1
Anti@@ 1
ong@@ 0.3813166742917389
Os@@ 1
ak 0.39288365651529705
sold@@ 1
iso 1
vención 1
vas@@ 1
ov 0.9981243162497143
dif@@ 1
entreg@@ 1
cán@@ 1
abras 1
by 0.02988536770018751
cero 1
K 0.6258535111729272
dific@@ 1
Castilla 1
amor 1
plata 1
luch@@ 1
evol@@ 1
rac@@ 0.7606738044663056
solic@@ 1
ide 0.7073976555136376
industr@@ 1
favor 1
uto 1
existe 1
crito 1
edr@@ 1
bul@@ 1
crita 1
Mir@@ 1
itor 1
particular 1
onom@@ 1
nov@@ 1
Sen@@ 0.6409831219871571
bra 1
perten@@ 1
concentr@@ 1
yes 1
Parti@@ 1
ion 0.31339338195450755
At@@ 0.840804245873609
tron@@ 1
viles 1
ros@@ 1
cola 1
ps@@ 1
W 0.7072607073744844
marc@@ 1
Agu@@ 1
anot@@ 1
Presidente 1
adém@@ 1
via 0.9965938361541723
urb@@ 1
bon@@ 1
Fac@@ 1
Jer@@ 1
1984 0.8504056878189122
Teatro 1
1982 0.907577754199258
pis@@ 1
perf@@ 1
veh@@ 1
pio 1
íncipe 1
elabor@@ 1
ectu@@ 1
ans@@ 0.6357041927855643
Dec@@ 1
López 1
premi@@ 1
teriormente 1
mina 1
Av@@ 1
1983 0.9022086123399328
americana 1
Mel@@ 1
Esc@@ 1
Vol@@ 0.9753921796998701
rein@@ 1
Elec@@ 1
equ@@ 1
mi 1
deo 1
ki 0.7459042328940213
audi@@ 1
médi@@ 1
ples 0.793469421792121
ani 0.8174099177095913
hist@@ 1
Hay 1
posterior 1
var 1
mel@@ 1
umin@@ 1
evento 1
ost@@ 1
aver@@ 1
eder@@ 1
Fuer@@ 1
4.@@ 1
serv@@ 0.7273117408760993
tiz@@ 1
és@@ 1
ís 1
animales 1
probl@@ 1
elos 1
compet@@ 1
Oc@@ 1
har@@ 0.6211165485023523
motor 1
ement@@ 1
decor@@ 1
bar 0.8245775365559497
situ@@ 1
32 0.8919958928650744
dig@@ 0.9295321403283425
Le 0.11521854848274748
Tol@@ 1
estu@@ 1
berg 0.4950422961225814
enario 1
retr@@ 1
Ste@@ 0.5090191170787207
All@@ 1
gas@@ 1
3,@@ 1
Gan@@ 1
eas 1
adamente 1
Tem@@ 1
eh@@ 0.33671190607557416
cerc@@ 1
comb@@ 1
Kar@@ 0.49027631771007957
ac 0.8355373440788207
Alej@@ 1
mac@@ 1
enca 1
Sociedad 1
ly 0.10121575136058863
oteca 1
curs@@ 1
ip@@ 1
andro 1
Ál@@ 1
destin@@ 1
Ali@@ 1
rebel@@ 1
dul@@ 1
portu@@ 1
dibu@@ 1
ejempl@@ 1
ros 1
ic 0.15466938617926657
carri@@ 1
Trans@@ 0.8672771487907994
aran 1
oa 1
j 1
ebr@@ 1
45 0.8317393847374256
arc@@ 1
James 0.6527769568491774
plaz@@ 1
cina 1
Educ@@ 1
exp@@ 0.4863168297549578
Cre@@ 1
Revol@@ 1
individu@@ 1
age 0.09135126978298334
conform@@ 1
orient@@ 1
gol 1
edia 1
Men@@ 1
ley@@ 1
bom@@ 1
circ@@ 1
est 0.031777984200552625
fen@@ 1
onto 1
Valencia 1
all 0.11621259623839357
tin@@ 1
Prov@@ 1
gesti@@ 1
Depor@@ 1
esqu@@ 1
munici@@ 1
Mol@@ 1
Distr@@ 1
ecia 1
prueb@@ 1
Ven@@ 1
Soci@@ 1
arro@@ 1
ot 0.39636437544475095
ari 0.9670727403658945
independ@@ 1
erc@@ 1
cara 1
sent@@ 1
Sá@@ 1
Fre@@ 0.42324680748697047
emas 1
1979 0.8561923626623256
eral 1
resol@@ 1
occidental 1
mal 0.9531293772013082
Mus@@ 0.5403145934779885
tran@@ 1
cer 1
condi@@ 1
peti@@ 1
Cur@@ 1
compon@@ 1
75 0.9134854214700333
pios 1
terior 1
escap@@ 1
ann@@ 0.26999562591544257
González 1
1976 0.8813941188903293
expan@@ 1
provin@@ 1
sula 1
ital 1
tima 1
ong 0.4487579214117799
Felipe 1
Sar@@ 1
ensi@@ 1
uma 1
hall@@ 1
resist@@ 1
Santo 1
sa@@ 0.4352300664118937
Córdoba 1
colum@@ 1
ty 0.2168464304362312
ade 0.2992841862514915
conse@@ 1
Rel@@ 0.9972165269564619
music@@ 1
dé@@ 0.13122455997614008
adr@@ 1
afor@@ 1
ant 0.07741599291643197
Im@@ 0.8059160586741232
mite 1
Sant@@ 1
redu@@ 1
are 0.05642549071062121
1950 0.825424920909601
his@@ 1
pér@@ 1
William 0.5668763373813173
deriv@@ 1
adol@@ 1
Super@@ 1
explic@@ 1
gió 1
pant@@ 1
1978 0.8591092617235278
ordin@@ 1
alim@@ 1
ex 1
Aer@@ 1
nati@@ 1
definiti@@ 1
lob@@ 1
Str@@ 0.35989583829470323
1973 0.8737973068844606
tol@@ 1
Paul 0.5927075273581942
ilo 1
Ol@@ 1
eva 1
Departamento 1
Robert 0.6592591539577705
1981 0.8128744795859225
Sa@@ 0.8222032682493167
tiem@@ 1
ani@@ 1
pap@@ 0.9074001740583374
allo 1
dici@@ 1
arch@@ 0.5240807354518568
ster 0.49915301086469394
captur@@ 1
ible 1
uvo 1
embr@@ 1
previ@@ 1
incia 1
And@@ 1
austr@@ 1
Don 1
tis@@ 0.5998712537006916
amer@@ 1
partic@@ 1
fas@@ 1
reser@@ 1
oz 1
ks 0.18712554333669454
emo 1
iga 1
argum@@ 1
olog@@ 0.6099995750013176
1975 0.7923971484952239
aliment@@ 1
onde 1
Ra@@ 1
clav@@ 1
Hi@@ 1
ped@@ 1
program@@ 1
alar@@ 1
Ru@@ 0.9994317000668635
duc@@ 1
altitu@@ 1
pur@@ 0.6309596122961731
qué 1
acter@@ 1
web 1
Rey 1
nú@@ 1
usi@@ 1
Munici@@ 1
introduc@@ 1
quin@@ 1
AR@@ 1
Diego 1
monum@@ 1
ke 0.2925026169928116
nat@@ 1
une 0.05255618674031173
sang@@ 1
enf@@ 0.7597286120412771
33 0.9389548981363938
gran@@ 1
imonio 1
die 0.021067042512147457
títul@@ 1
tante 1
plan 0.935891538940026
oh@@ 0.7283943985048563
alter@@ 1
isl@@ 1
confirm@@ 1
ane 0.4142217595859246
Fernández 1
uo 1
Rodríguez 1
isto 1
produce 1
mig@@ 1
umen 1
1977 0.8620459564073548
ville 0.29742833794879237
TV 0.6123800426184167
Tod@@ 1
Orden 1
ick@@ 0.27011249353381256
motiv@@ 1
Secre@@ 1
Luc@@ 1
George 0.5863413509476357
Pin@@ 1
dispar@@ 1
interpre@@ 1
reun@@ 1
Ig@@ 1
sovi@@ 1
ond@@ 0.6719956866816581
comprom@@ 1
aces 1
exter@@ 1
territori@@ 1
may@@ 1
anunci@@ 1
ai@@ 0.7944745715867774
vil 1
etr@@ 1
Comp@@ 1
dot@@ 1
aí@@ 1
1974 0.7941694720680113
absol@@ 1
hab 1
omo 1
Do@@ 0.7495781628090417
cos@@ 1
aster@@ 1
frances@@ 1
alb@@ 1
astr@@ 1
jard@@ 1
crip@@ 1
nch@@ 1
cum@@ 1
ino@@ 1
arri@@ 1
benef@@ 1
prov@@ 0.7972651307584477
desp@@ 1
onel 1
Era 1
Alfonso 1
Sab@@ 1
imb@@ 1
36 0.9062674615931097
siguió 1
Has@@ 1
Ge@@ 0.27317808330243515
larg@@ 1
Sem@@ 1
cula 1
podr@@ 1
éc@@ 1
lec@@ 1
nomin@@ 0.8222268861744151
1972 0.7503316786673231
sola 1
Villa 1
ombi@@ 1
ker 0.39365039064401464
pic@@ 1
Neg@@ 1
Alg@@ 1
nombres 1
Cant@@ 1
ek@@ 0.2587054336798929
ff@@ 0.27949978222559635
escal@@ 1
1968 0.7744331941919366
mascul@@ 1
34 0.930643534702782
Bl@@ 0.5608559905673125
erte 0.4429561774021517
Guar@@ 1
Inv@@ 1
interes@@ 1
dea 1
Jean 0.542623083979085
ox@@ 1
frac@@ 1
merc@@ 1
lama 1
Ten@@ 1
Direc@@ 1
Portugal 1
Alberto 1
conclu@@ 1
identi@@ 0.5136991170238892
ine@@ 1
elle 0.10753945884568236
rot@@ 1
orn@@ 1
Pueb@@ 1
vierte 1
ases@@ 1
ensis 1
crisis 1
renov@@ 1
tis 1
norm@@ 1
XVIII 1
integ@@ 1
coloni@@ 1
Lo 1
ent 0.047739886078664175
lem@@ 0.7470185354506598
Sec@@ 1
uela 1
paci@@ 1
Pérez 1
Bern@@ 1
CO@@ 1
ts 0.07819657182413574
World 0.23857659502475462
Popular 1
gun@@ 1
ric@@ 1
sigui@@ 1
mod@@ 0.8528155076706393
Occ@@ 1
circul@@ 1
Salvador 1
Lin@@ 0.9084011136443194
anj@@ 1
Son 0.9465193716329715
rod@@ 1
Ric@@ 1
cus@@ 0.8545867110146258
confi@@ 1
epis@@ 1
ons 0.12827929083562248
No@@ 1
parlam@@ 1
hal@@ 0.40391961619176353
bibli@@ 1
Uruguay 1
alo 1
iste 0.5557737347036181
vier@@ 1
art 0.276229319324356
firme 1
Lima 1
Valle 1
plant@@ 1
Isab@@ 1
65 0.7240355899754812
38 0.9126648575380968
We@@ 0.31322161277860655
Radio 1
azar 1
sos@@ 1
isp@@ 1
Organ@@ 1
1969 0.7979283052983359
Poc@@ 1
0.000 1
volun@@ 1
1930 0.9031866231095229
invol@@ 1
Serv@@ 1
ten 0.07452690794906014
Sevilla 1
atus 1
5.@@ 1
pera 1
ford 0.4946959137853442
udi@@ 1
rio 1
Rafael 1
hid@@ 1
aper@@ 1
dispon@@ 1
arla 1
yr@@ 0.422169490636421
oti@@ 1
hel@@ 1
Civil 1
uvent@@ 1
oci@@ 1
urban@@ 1
flor@@ 1
6.@@ 1
Michael 0.6925471224913132
Din@@ 1
Asia 1
términ@@ 1
empez@@ 1
concre@@ 1
ath@@ 0.23987628772766242
ger 0.4400231168748033
reno 1
1940 0.7876472726846638
emat@@ 1
IN@@ 1
izo 1
don 1
alum@@ 1
firma 1
empres@@ 1
ilidad 1
lara 1
plac@@ 1
ches 0.4032416452048124
XVI 1
olas 1
37 0.8971652507240937
1971 0.7250904408508391
Nov@@ 1
trop@@ 1
em 0.2890301978401989
Ó@@ 1
ui@@ 1
confer@@ 1
je 0.9921161022726039
villa 1
Comité 1
abil@@ 1
rest@@ 0.5763494611824785
ige 0.352515457188213
ime 0.5434899588197016
bal 1
oj@@ 1
Records 0.8891700534908581
Crist@@ 1
rég@@ 1
Tar@@ 1
bras 1
introdu@@ 1
D. 1
quez 1
iba 1
1945 0.5101563739014534
Plaza 1
Federal 1
Martínez 1
Tel@@ 1
Hom@@ 1
mens@@ 1
Sur@@ 0.8504403127091082
lag@@ 1
alternati@@ 1
1967 0.771293061922901
ey@@ 0.6563210818251644
Loc@@ 1
von 0.03145294258905
Eduardo 1
City 0.3064504136578034
Categ@@ 1
li 0.6076253006165366
CA@@ 1
men 0.21997253494071317
hier@@ 1
bras@@ 1
Sol 1
incluy@@ 1
cav@@ 1
enos 1
adul@@ 1
coron@@ 1
Arg@@ 1
Nic@@ 1
Washington 0.7001760678426775
1936 0.9731913227005102
condu@@ 1
oz@@ 1
Vel@@ 1
universit@@ 1
ferro@@ 1
respons@@ 1
Austria 1
Tour 0.8797291749456003
League 0.29498222296987275
ono 1
sti@@ 0.38785592423266185
Ministr@@ 1
sala 1
onen 0.8268692199835934
Mar 1
bunal 1
nia 1
sexu@@ 1
5,@@ 1
bau@@ 0.6602375034387968
senti@@ 1
capac@@ 1
Castil@@ 1
ner@@ 0.6110748055832216
dimen@@ 1
Boliv@@ 1
democ@@ 1
rum@@ 1
Ecuador 1
Charles 0.514131345440513
Zar@@ 1
contempor@@ 1
ace@@ 1
fa@@ 0.34593202404913925
mont@@ 1
veget@@ 1
estadounid@@ 1
osis 1
regular 1
sé@@ 0.7813459111677655
1964 0.7607509388848764
Administr@@ 1
ail@@ 0.4407818820229999
lit@@ 1
55 0.898184948357948
gin@@ 1
simil@@ 1
4,@@ 1
proced@@ 1
elen 1
rés 1
Pen@@ 1
gén@@ 1
Bon@@ 1
paral@@ 1
mut@@ 1
fich@@ 1
im 0.03955663832732335
42 0.9140907825223858
Sierra 1
emia 1
1966 0.7704992426515158
orit@@ 1
insec@@ 1
radic@@ 1
Ant@@ 1
Bot@@ 0.745455306164891
ation 0.03274869439482399
Sig@@ 1
64 0.7889376180750992
hol@@ 0.38224115563951594
Ul@@ 0.9312487220989062
vo@@ 0.28721404589445143
mun@@ 1
dev@@ 0.4029320639428464
Cro@@ 0.655646879995483
rep@@ 1
Guadal@@ 1
erra 1
Dem@@ 0.8664766040208213
Bibli@@ 1
CD 1
Mov@@ 1
00 1
Jug@@ 1
och@@ 1
Ja@@ 1
Hel@@ 0.7441022112161572
ski 0.8619507862392832
quer@@ 1
Produc@@ 1
je@@ 0.5027787427809175
Daniel 1
48 0.8705305585798149
Def@@ 1
acial 1
Cel@@ 1
Media 1
Ana 1
Thomas 0.5421798044595459
Ph@@ 0.30423093849349936
agricul@@ 1
narr@@ 1
relev@@ 1
entro 1
Agr@@ 1
Ke@@ 0.8916275607809739
6,@@ 1
1965 0.7395298436988215
300 0.9323768525014151
chi@@ 0.5460219077647133
dram@@ 1
multi@@ 1
avier 1
explor@@ 1
om 0.4844298859977398
pron@@ 1
1920 0.7799505575202323
7.@@ 1
Democ@@ 1
sen 0.34778174965001557
refu@@ 1
ula 1
39 0.9147619789026297
iden 0.9573768968469857
85 0.9467616292956766
fo@@ 0.420572376236895
Sebasti@@ 1
egas 1
Ej@@ 1
fe 0.6716194141166538
diente 1
Rein@@ 1
undo 1
F. 1
uf@@ 0.5150721992639539
barr@@ 1
Dor@@ 0.8760743144671842
Gó@@ 1
Israel 1
yen 1
Mayor 1
ash@@ 0.48515022641505723
Prot@@ 0.783833467319983
resul@@ 1
éro@@ 1
cé@@ 1
Cuba 1
ow@@ 0.22395574728583723
diplom@@ 1
sexual 1
metal 1
yl@@ 0.4322690666058332
bic@@ 1
Wil@@ 0.6505486493699504
Pon@@ 1
duras 1
cir@@ 1
umb@@ 1
1962 0.7690489433746462
avent@@ 1
deleg@@ 1
far@@ 0.7773118498856384
disco@@ 1
uli@@ 1
ain 0.20695014618068702
ster@@ 0.5261794089112066
52 0.9385004017571752
ata@@ 1
document@@ 1
uk@@ 0.42344633879662563
25@@ 0.5552934435910886
Peter 0.60724867404061
simpl@@ 1
mula 1
amor@@ 1
tural 0.8060996914033354
Estr@@ 1
Sist@@ 1
1963 0.7585162456191371
cél@@ 1
Nicol@@ 1
Guatemala 1
Flor@@ 1
erg@@ 0.6131480840996311
Pad@@ 1
cerem@@ 1
legisl@@ 1
inn@@ 0.3047212379385087
virtu@@ 1
ament@@ 1
1939 0.6980031010169118
pod@@ 1
fa 1
ou 0.1338044497026756
44 0.8044608326454633
iy@@ 1
ideas 1
ence 0.09976178561663872
ie@@ 0.32596704427543577
ográfica 1
q@@ 0.7700658959027209
Premi@@ 1
Sovi@@ 1
Econom@@ 1
cla@@ 1
fan@@ 1
culas 1
8.@@ 1
ko 0.814708029439337
Vall@@ 1
Hern@@ 1
ess@@ 0.19504344663937193
tari@@ 1
enzo 1
ener@@ 1
00@@ 0.8959586474311108
sten@@ 1
Roc@@ 1
ste 0.3750073815484204
7,@@ 1
AD@@ 1
# 0.8694770198419467
fera 1
Lag@@ 1
Leon@@ 1
Bos@@ 1
¿ 1
th 0.08405123956658009
Tro@@ 0.6375321112709377
ég@@ 0.5200315812500022
Music 0.5753027515853002
ake 0.48083081337842315
On@@ 0.693386628429931
Wal@@ 0.5285187517731753
osaur@@ 1
Pat@@ 1
ulo 1
vie@@ 0.6402095588591828
elem@@ 1
Eu@@ 1
corresp@@ 1
Sam@@ 0.7922192950021975
Gl@@ 0.672006321440984
can 0.1585995642192499
53 0.985446328974509
zas 1
enor@@ 1
ple 1
ire 0.2200785911982975
poli@@ 1
Dar@@ 0.5113041816022305
abl@@ 1
rol@@ 0.6995477696614737
senc@@ 1
ago@@ 1
alia 1
pros@@ 1
Grec@@ 1
Gre@@ 0.46701157439962876
unda 1
Cir@@ 1
ater@@ 1
mez 1
Form@@ 1
1958 0.75927905529609
ok 0.47589046549288316
41 0.9002869608190887
ras 1
extra@@ 1
Profes@@ 1
perial 1
ple@@ 0.7475292372242048
Met@@ 0.7268047139854624
formes 1
ain@@ 0.2875108593545917
ney 0.4828848628336785
47 0.8970367126965858
Sir@@ 1
J. 0.8356211985680682
fach@@ 1
Far@@ 0.6317622102879731
riv@@ 1
oni 1
Son@@ 1
Grande 1
Sub@@ 0.9012837735762437
Gener@@ 1
Mes@@ 1
pop 1
nez 1
cil@@ 1
oides 1
Hun@@ 1
canc@@ 1
Ya 1
Brit@@ 1
vor@@ 0.19987720788579139
amin@@ 1
od 0.2838617603301128
ieren 1
1944 0.5688762585288532
field 0.29633137187758857
Ca@@ 1
musul@@ 1
Catal@@ 1
manifest@@ 1
30@@ 0.7474004088228589
fis@@ 1
ette 0.34876553848100256
lov@@ 1
micro@@ 1
Monte@@ 1
Bro@@ 0.6268948722151495
umo 1
ber 0.4366178496895809
43 0.9185062234900694
hon@@ 0.9244772037317913
Martin 0.682149310860276
transform@@ 1
ry 0.35552789342043395
1941 0.6087156261209715
responsable 1
Tax@@ 1
series 0.22452747592686342
ilia 1
ical 0.13476052519098375
XVII 1
elli 1
ison 0.501830853672203
51 0.8968803654356806
Vas@@ 1
1956 0.7256196471089542
vil@@ 1
categ@@ 1
aceae 1
númer@@ 1
milit@@ 1
Pel@@ 1
Richard 0.6541981966664928
struc@@ 0.5815750524795807
1948 0.7034923900711652
1961 0.7269964331690468
libr@@ 1
decre@@ 1
cot@@ 1
Pun@@ 1
bern@@ 1
consist@@ 0.7959270803718234
recep@@ 1
avo 1
cau@@ 1
stein 0.5150465264302887
hem@@ 1
telev@@ 1
8,@@ 1
enn@@ 0.2679662855007029
Ast@@ 1
dez 1
Alb@@ 1
Mis@@ 1
bit@@ 1
cep@@ 1
m. 1
landa 1
br 0.6320571908969392
ferrovi@@ 1
ativ@@ 1
Char@@ 0.4923706002065163
S.@@ 1
orado 1
ure 0.12447709126403528
opin@@ 1
56 0.9214164307629477
ille 0.299501479752913
estre 1
nd@@ 1
progres@@ 1
record@@ 1
ings 0.1256667073943708
idental 1
Maria 0.870453944202121
suj@@ 1
cord 1
Gol@@ 1
Barr@@ 1
ional 1
Oli@@ 1
tropical 1
pier@@ 1
umes 1
consol@@ 1
ograf@@ 1
mach@@ 0.8086096331058485
for 0.015596045758932598
Uni@@ 1
tes@@ 1
vive 1
comport@@ 1
Victoria 1
ō@@ 1
fron@@ 1
gel@@ 0.21810087579424
54 0.8925808214485151
46 0.8977283023408932
SS 1
400 0.872772773148513
consiste 1
95 0.9578681286600625
transfer@@ 1
étr@@ 1
tiles 1
discipl@@ 1
migr@@ 1
Red 0.7882473425809287
últim@@ 1
Rica 1
icul@@ 1
Me 1
Laur@@ 1
72 0.9138876618906357
agon@@ 1
28@@ 0.8647030613679921
Dur@@ 1
alc@@ 1
eur@@ 1
human@@ 1
manif@@ 1
pir@@ 1
Atlé@@ 1
industri@@ 1
sat@@ 1
78 0.9799712063692617
mos@@ 1
nucle@@ 1
68 0.9824436020392823
ets 0.15732986482006847
industrial 1
yn@@ 0.5211111742155238
herr@@ 1
cens@@ 1
altar 1
ali 0.7788308237743983
1959 0.7194439932226907
mann 0.404195613940005
distr@@ 1
nit@@ 1
colon@@ 1
Tan@@ 1
You 0.8004748574464694
destruc@@ 1
novel@@ 1
Dr. 0.9866611046409417
ben@@ 0.517958550520362
bus 0.9086410089452327
1957 0.7381788346074702
enden 0.24946357728997307
Mich@@ 1
ét@@ 0.3953993019758962
58 0.9245560589246733
Aqu@@ 1
arti@@ 0.8819400073800177
ish@@ 0.26195951069284407
1955 0.7604550221423646
Hist@@ 1
lav@@ 1
88 0.9359965775160538
49 0.8878303341784758
rus@@ 1
Lim@@ 1
ular@@ 1
Park 0.3837857113499358
1943 0.6136392574721639
obje@@ 1
íses 1
construc@@ 0.7496897666764739
Milit@@ 1
57 0.9265131527138372
Municipal 1
Pir@@ 1
‘ 0.902513276252071
Capit@@ 1
Fili@@ 1
ices 0.5679200600376116
ides 0.41446227161750826
mam@@ 1
hidro@@ 1
76 0.9343019774742516
62 0.916364258968763
66 0.9206468957038622
1942 0.6118826416193676
atri@@ 1
86 0.9340083006771035
Plan@@ 0.9709241733215481
Hal@@ 0.5916246781936868
reco@@ 1
ins 0.1541829700141426
tín 1
encu@@ 1
Mot@@ 0.8096264148246503
Telev@@ 1
ican 0.9596349199775984
proven@@ 1
Bog@@ 1
J 0.8686254632544833
Jac@@ 1
erras 1
prof@@ 0.5824750138812627
obr@@ 1
VI 1
enfer@@ 1
regional 1
relativ@@ 1
Fon@@ 1
Ban@@ 0.7263429877306679
Oper@@ 1
Supre@@ 1
bert 0.6299833030188572
sk@@ 0.26920975030028477
Man 0.8216137936739615
Natur@@ 0.8207903602808664
ki@@ 0.4629710608370973
67 0.9541910224165049
Rev@@ 1
Parlam@@ 1
63 0.9203542437645206
onda 1
ender@@ 1
Mario 1
Au@@ 0.35117813677385895
fili@@ 1
bir@@ 0.4214125004126596
Mah@@ 0.6966383144800832
Texas 0.7042117334217467
Lar@@ 1
otom@@ 1
char@@ 0.48331638789460907
Var@@ 1
Canal 1
ack@@ 0.2680076204841269
mom@@ 1
1946 0.6289737968716786
hospital 1
siti@@ 1
UN@@ 1
Tal@@ 0.9155806158473898
egos 1
Social 1
du 0.024063700384784257
fér@@ 1
kh@@ 0.3014350299094361
respon@@ 0.7081979952108277
ō 0.9905703702623386
74 0.9749073265166427
enl@@ 1
gus@@ 1
1952 0.7087277746416564
ill 0.43687057653514433
mix@@ 0.7829767776841702
1949 0.6761957575473737
Vie@@ 1
Hospital 1
relig@@ 1
ung 0.05470538600937088
9,@@ 1
aman@@ 1
sch@@ 0.07227515693127183
só@@ 1
AC@@ 1
ys 0.5240035547052048
acion@@ 1
Lib@@ 1
AS@@ 0.8401486905433347
Fall@@ 1
83 0.9595098240888049
vul@@ 1
01 0.9139589502262551
77 0.9247863608333529
tia 1
1954 0.7057499346463039
Ari@@ 1
Bau@@ 0.3524998377561615
EE 1
Gen@@ 0.469472492865808
org@@ 0.916802870355662
tav@@ 1
ges@@ 0.3178224995427092
59 0.9194192077744711
1938 0.6561747807152907
Ing@@ 1
82 0.9501847884318417
84 0.9354522739523159
Cop@@ 1
Domin@@ 1
perior 1
Af@@ 1
87 0.9539637671764352
1937 0.7307071584544245
1947 0.6688548812628189
1953 0.7241597123962217
Zel@@ 1
equip@@ 1
echos 1
Atl@@ 1
mani@@ 1
Tre@@ 0.524645386346245
grav@@ 1
dedor 1
Cast@@ 1
hot@@ 1
ES@@ 1
udo 1
Il@@ 0.9318483856116543
afric@@ 1
9.@@ 0.962133074291027
Je@@ 0.45098678223727645
Serie 1
ts@@ 0.23188029050279862
march@@ 1
Nar@@ 1
álb@@ 1
Love 0.9163654227059896
Tam@@ 1
29@@ 0.8800515537537547
Roberto 1
RA@@ 0.9264276744682403
Rock 1
B. 0.5877908512939439
Chicago 0.6983814351937749
ith 0.5587154900079845
terr@@ 1
bin@@ 0.7694126478501976
24@@ 0.720955210780017
American 0.13099236204403775
Florida 0.9133755358455572
nas@@ 1
partam@@ 1
und 0.01062868476239769
Paraguay 1
18@@ 0.5653866155833425
distingu@@ 1
ung@@ 0.23996434371791478
aven@@ 1
61 0.8835819815735948
May@@ 1
correc@@ 1
ha@@ 0.40724349122241355
over 0.10451731412519642
empl@@ 1
versi@@ 0.6456918023152605
Lee 0.8978429805976152
ington 0.5338834244296492
Concep@@ 1
ā@@ 0.6202203671691328
simple 1
nes 0.5112250253858167
Henry 0.5618036646581068
igi@@ 1
92 1
Indi@@ 0.5743845188797126
Bir@@ 0.6058356811099284
71 0.911998696430427
xim@@ 1
Augus@@ 1
écn@@ 1
ors 0.14423726045712806
Lic@@ 1
cera 1
81 0.9227834385400463
coordin@@ 1
99 0.950252721694174
Hid@@ 1
sal 1
patri@@ 1
verse 0.5794809644507682
polis 1
.C. 1
IS@@ 0.8463051625187492
oth@@ 0.29872142586820977
2022 0.687233735472002
ek 0.4043070382770974
ablo 1
ial 1
fru@@ 1
ight 0.23923336176723467
liz@@ 1
Mé@@ 1
tin 0.3617517985992725
eon@@ 1
69 0.9403279381808951
Frances@@ 1
1931 0.8575993709058647
disponible 1
Joseph 0.5230454150581779
Santos 1
monaster@@ 1
Smith 0.6695659754672897
Eur@@ 1
cú 1
College 0.2764234719480049
Ferr@@ 1
itud 1
éx@@ 1
M. 0.824636250604823
cel 1
Bil@@ 0.4152100704863718
Dol@@ 1
igen 0.23166594952492828
1933 0.6700435616336273
05 0.9748927038693993
consum@@ 1
Nat@@ 1
Ap@@ 0.5693391840976266
requi@@ 1
nm 1
ais 0.29843495430674216
Fe 1
uj@@ 1
73 0.9323628108584039
federal 1
tric@@ 1
sub 1
pa@@ 0.7256955999265057
corpor@@ 1
Tab@@ 1
ise 0.1049220313236226
Sand@@ 0.8203353943642636
Escu@@ 1
piano 1
omb@@ 1
agin@@ 1
ump@@ 0.7244077699663157
XIII 1
ling@@ 1
79 0.9501024506091362
S. 0.9516467006434
Pot@@ 1
Provin@@ 1
98 1
its 0.04272520539304963
09 1
Bah@@ 1
yen@@ 1
Bul@@ 0.6351505359377043
exclusiv@@ 1
ms@@ 1
ps 0.30046378234828297
haya 1
cultiv@@ 1
ji 0.7882114903706187
ky 0.5848626566116717
ien 0.2086740612060839
n.@@ 1
Rosa 1
circu@@ 1
Hy@@ 0.6720552766839754
ame 0.49988666080094424
lus@@ 0.7791315328035276
pion@@ 1
Ha@@ 0.6993721140355484
Don@@ 0.8152031350361046
ini@@ 1
oll@@ 0.33447002635972317
Inf@@ 1
ífico 1
presti@@ 1
Maur@@ 1
02 1
ash 0.648487433560089
Universit@@ 1
Independ@@ 1
1934 0.7336776301477153
1951 0.6964749270543901
Castro 1
ão 1
Ah@@ 1
practic@@ 1
equival@@ 1
popular@@ 1
Monte 1
Arch@@ 0.6541240884846607
¡ 1
ume 0.6695466636936988
festival 1
26@@ 0.8666075765003608
na@@ 1
servat@@ 1
st 0.14284003565124664
sol 1
Cari@@ 1
04 1
Fran@@ 0.5232658193861905
alog@@ 1
Mex@@ 0.9210756306773785
rut@@ 1
terres@@ 1
einte 1
ova 1
alfab@@ 1
rol 1
Ba@@ 1
Gir@@ 1
provincial 1
sul@@ 1
impl@@ 1
encer 1
lir 1
aber 0.22826593817911717
96 0.9596557201825786
trac@@ 0.6056445154398015
endr@@ 1
Gor@@ 1
08 0.975996209573288
Herr@@ 1
ary 0.06811296805969322
dil@@ 1
Chil@@ 0.8825165852463812
uri 1
aproxim@@ 1
1935 0.7027570006186056
film@@ 0.8213688590191958
Ú@@ 1
air@@ 0.2906583154864187
St 0.5806039568478687
oza 1
Pil@@ 1
espos@@ 1
depend@@ 1
Ev@@ 0.7161638273918597
Rol@@ 0.8969098296644146
pati@@ 0.963206436694242
School 0.1813467626097005
Ingen@@ 1
EP 1
uv@@ 0.6953538524746428
1929 0.7197525501025271
All 0.3127990234741059
implement@@ 1
Bus@@ 1
ach 0.16207594425088734
1932 0.7547894069391716
vera 1
Centr@@ 1
ri 1
kl@@ 0.3356039660132136
Som@@ 0.8955827126940016
06 1
XX@@ 1
dro@@ 0.5303189665327703
Greg@@ 1
Fem@@ 1
zar@@ 1
Pap@@ 0.7396273397553669
Pau@@ 1
Libr@@ 1
1918 0.5910989960611722
03 1
dola 1
à 0.014586507887576606
tag@@ 0.9541095784638879
VII 1
bases 1
pri@@ 0.5130905791839953
ff 0.5115518545562032
fle@@ 0.4946371592191996
Billboard 1
naval 1
Argent@@ 1
Rus@@ 0.9457785235829455
notable 1
digital 1
07 0.9594942964265939
ame@@ 0.8913355871295097
opsis 1
fusi@@ 1
ometr@@ 1
93 1
fres@@ 1
Wor@@ 0.3398788282164959
.. 1
los@@ 0.43903019662391873
mita 1
Clar@@ 1
š@@ 0.692522606848189
asim@@ 1
Rob@@ 1
chó 1
oral 1
fes@@ 1
ack 0.3044455540458751
lis 0.7688574121090391
atu@@ 1
lut@@ 1
hip@@ 1
ái 1
1928 0.6923975363120211
neur@@ 1
ars 0.21777086081531172
explo@@ 0.6219944123594171
Sac@@ 1
Royal 0.3796430625620358
Rum@@ 1
Louis 0.4123315443674338
chi 0.6840145682954684
dan@@ 1
gres@@ 1
tel 0.3836450230002131
uda 1
Tu@@ 1
Lam@@ 1
UC@@ 1
bah@@ 1
extrem@@ 1
Cy@@ 0.7475409438684862
alles 1
uridad 1
Apo@@ 1
fre@@ 0.2334653624142015
onn@@ 0.22441927425717398
erry 0.6938156410009881
tasa 1
Franco 1
Lug@@ 1
Gabriel 1
National 0.14260265627091523
bes@@ 0.3014082490919321
ess 0.13145617264576717
dy 0.6161918375188372
igr@@ 1
hi 0.6115262149768875
mill@@ 1
19@@ 0.5905395124735296
Cru@@ 1
aki 0.9596128767135219
dat@@ 1
Not@@ 0.5232255249490633
Fo@@ 0.5551724339602282
Ham@@ 0.6614460650298016
monte 1
instruc@@ 1
97 0.9707408084224552
doctor@@ 1
ded@@ 1
bac@@ 1
bas 1
lor@@ 1
Internet 1
94 0.9884199218304472
tic 0.19161401928098085
1000 1
91 0.9947839733068888
matr@@ 1
* 0.19727274610938764
Ale@@ 1
Rod@@ 1
invent@@ 1
well 0.11210246816503025
Blo@@ 0.9064830357616328
Sel@@ 0.7534324294903245
ati 0.7431192579574852
software 1
Jose@@ 1
esia 1
plas@@ 1
XV 1
King 0.36177756164390923
legal 0.6905176529407296
Carolina 0.8784148266453032
visi@@ 1
Sc@@ 0.5850094507257698
miles 1
.000 1
Gil@@ 0.8307655170570445
New@@ 0.48919362487588497
awa 0.865325328130284
Doctor 1
océ@@ 1
1914 0.6656099861680421
Pic@@ 1
acces@@ 1
Lev@@ 0.9214263359194271
teor@@ 1
front@@ 1
afé 1
enen 0.202852909823685
emer@@ 1
Black 0.547307961897133
Sus@@ 0.9403774669419582
een 1
vide 1
89 0.9471384123908178
West 0.24207458828801529
municip@@ 1
festiv@@ 1
Vo@@ 0.6316346346920431
eler@@ 1
sens@@ 1
impos@@ 1
erre 1
NBA 1
marqu@@ 0.7306894562636592
inclin@@ 1
XII 1
1919 0.6030412468210975
ics 0.18082350575406925
Adri@@ 1
Dest@@ 1
global 1
canadi@@ 1
fel@@ 0.48503577958070654
ć 0.7118177701551142
aun 1
Street 0.35161129926459805
ambigu@@ 1
exper@@ 1
desempe@@ 1
q 0.5537157190651824
apos@@ 1
1910 0.7751374382905948
Publ@@ 1
CI@@ 1
onte 1
eri 0.7961778458145132
tax@@ 1
asia 1
olar 1
sc@@ 0.170987196296996
Dan@@ 0.564373737238289
sion@@ 1
king 0.20769040367436128
existi@@ 1
1924 0.6921023776812762
E. 0.9050079461358608
1917 0.6603235254956529
Haw@@ 1
iller 0.6214027669157993
modern@@ 1
ester@@ 1
Cos@@ 1
La@@ 0.8131147327480192
win 0.2668212170848439
otr@@ 1
Fal@@ 0.9108879321681441
Rico 1
Buc@@ 0.9907809202627782
Rem@@ 1
acias 1
igh@@ 0.29380211317660926
Lis@@ 1
ON@@ 1
tu 1
International 0.23764196147586866
médic@@ 1
ke@@ 0.21421905215259282
iss@@ 0.2915085185879104
lan 1
E.@@ 1
Pri@@ 0.386057023251005
ix 0.4958371798619358
Jack 0.8690881177392442
OS 0.9331582819854747
Gro@@ 0.4535192469876861
R. 0.9645107326284516
lun@@ 1
150 0.8577554518455648
Company 0.3934931002271557
satis@@ 1
our 0.1428134933877987
individual 0.7960103614106211
1925 0.7017208686071268
absor@@ 1
Mit@@ 0.4304461209212175
CE@@ 1
off 0.17821137513431362
mic@@ 1
vit@@ 1
cog@@ 1
ear@@ 0.3030383000308098
600 0.952677468991446
War@@ 0.40415818504784434
1927 0.692676974813365
Ko@@ 0.42039768929200805
terror@@ 1
ih@@ 0.38141279568327136
alianza 1
eval 1
AN@@ 1
Ern@@ 1
Lit@@ 1
ory 0.16054457376387898
DVD 1
umba 1
normal 1
rig@@ 1
ép@@ 1
campe@@ 1
crimin@@ 1
Plat@@ 0.5810479251950127
Contin@@ 1
Metropolit@@ 1
ab 0.14323891327391042
AC 0.8247131943189397
suspen@@ 1
1912 0.6971817579975711
Super 0.7696461717594474
Hen@@ 1
My@@ 0.6725948183613029
roc@@ 1
ys@@ 0.4230510818739167
1922 0.682251527159549
rural 0.9443053253760736
quel@@ 1
abol@@ 1
import@@ 1
cré@@ 0.5739195110019563
Gonz@@ 1
tion 0.043186682572978294
san 1
Kir@@ 0.6385358481966175
disc@@ 1
ut 0.30218808701914035
berto 1
Clau@@ 1
aller 0.44303778987201303
Cin@@ 1
cual@@ 1
P. 0.9616063133838385
Mul@@ 0.7545031060294568
itu@@ 1
incre@@ 0.7219534448459237
ogr@@ 1
Ind@@ 1
editor 1
dep@@ 0.7636551870218697
efe 1
els 0.13707422008600265
27@@ 0.8288256438371491
ope 0.5288232419680096
eder 1
1926 0.6640983421402128
artiller@@ 1
ity 0.06340036804298944
IC@@ 0.9151463293893669
Mary 0.5365956906797497
alar 1
Rich@@ 0.5201123658559228
ons@@ 0.44146378426642446
critic@@ 1
Star 0.6639013863769555
ett 0.43215923945724244
isra@@ 1
Rub@@ 1
vern@@ 1
1923 0.6897022519920971
innov@@ 1
SO@@ 1
ui 1
bet@@ 0.8934998150094944
Han@@ 0.5893060844431093
zant@@ 1
atro 1
Z 0.6279097774048682
eger 1
Director 1
Rodr@@ 1
Vit@@ 1
tap@@ 1
ince 1
ally 0.05883983248548066
800 0.9489974350907583
Doc@@ 1
lim@@ 0.4231466719640032
Brown 0.731988576365476
Fun@@ 1
show 0.24408940095785128
Constant@@ 1
aka 0.7528985301479134
va@@ 1
ambia 1
Ta@@ 0.8446033123225524
TA 1
Van 0.8947762216542842
grave 1
Ib@@ 1
• 1
Jur@@ 1
animal 1
venir 1
ites 0.35162929697571865
Í@@ 1
foc@@ 0.4386254690060152
mer 0.1877142721323371
sar@@ 1
old 0.1417114596291856
1900 0.6918678351901741
ester 0.3999194443079925
als 0.02268151368135988
Wat@@ 0.6607684881643525
FI@@ 0.9218254099856537
ko@@ 0.3533278581591338
Regional 1
pez 1
Fe@@ 0.5044811447983929
spir@@ 0.549594441862005
ús 1
Miss 1
úbl@@ 1
Pierre 0.5164620269598201
itz 0.39555257482738726
ble@@ 0.6906010144818335
oph@@ 0.32602378083421035
ander@@ 0.515727283968549
Fab@@ 1
rap@@ 0.3447541238841025
culp@@ 1
rar 1
deu@@ 1
otes 1
Monum@@ 1
Hugo 1
ider 0.4604552894960885
ander 1
ori 0.9957374701811247
Den@@ 0.47343159876833896
ampa 1
cen@@ 1
trav@@ 0.3183738537254547
pers@@ 1
éli@@ 1
Radi@@ 1
1921 0.6439153957174651
Vis@@ 0.9456535046322398
yn 0.7982330355738159
bado 1
onio 1
My 0.7891171770240186
aband@@ 1
renom@@ 1
acha 1
pp@@ 0.24220462319981326
XIV 1
Red@@ 0.6355346352536253
top@@ 0.8810848066113787
bec@@ 1
DC 1
ei 0.4047124444193988
SE@@ 0.9997253848261314
Sw@@ 0.2595233674484614
lin 0.6324158129289112
Riv@@ 1
agn@@ 0.5701193947922937
Trin@@ 1
perteneci@@ 1
territ@@ 0.6639406083751187
ray@@ 1
United 0.09113495393264134
perio 1
Hur@@ 1
ters 0.12492617730779863
aft 0.3246619722725068
tuy@@ 1
Aur@@ 1
aux@@ 1
fur@@ 0.9400124561039256
oga 1
map@@ 1
Frank 0.7223581340879223
AM 1
gó@@ 1
icha 1
gia 0.43966817269455244
Zam@@ 1
alco@@ 1
Mark 0.595090457161985
Tom 0.8204590564170978
Jones 0.7174206208185246
São 1
islat@@ 1
data 0.5883680184097512
intern@@ 1
Christ@@ 0.40800061994375464
tropolit@@ 1
nó 0.853397516336845
bu 0.4635810330094655
way 0.12112802226845197
Pom@@ 1
eira 1
Sor@@ 0.9177816840284235
Iz@@ 1
a.@@ 1
princ@@ 1
gru@@ 1
long@@ 0.5055984519264167
consci@@ 1
Marco 1
ho 1
ández 1
publ@@ 0.7657445415526875
ats 0.14069626163995347
One 0.2532675756578312
propag@@ 1
AM@@ 1
Jam@@ 0.8638904284254424
alis@@ 0.29174990763637715
SA 0.917861258396719
wood 0.4041904520340945
uca 1
kio 1
US@@ 0.602027835311015
vania 1
ami 0.7928045469331512
Sk@@ 0.6129293067318323
Tim@@ 0.8558719514953658
pas 0.13526673180009743
RE@@ 1
AP@@ 0.9780649824854044
spec@@ 0.3271932204696054
Sau@@ 0.7544411881774853
hin@@ 0.407928775673321
destr@@ 1
Georgia 0.876534536921158
Bri@@ 0.5972146952020732
Wo@@ 0.3671030092019109
Americ@@ 1
Jim@@ 1
1913 0.685253240690322
etti 0.9659823826762585
rati@@ 0.5124626657488188
Grand 0.31479653967263727
ä@@ 0.0713260970094696
burg 0.23091924959756474
Astr@@ 1
exclus@@ 1
ock 0.44322941295977614
Cent@@ 1
US 0.1551243519333232
ass 0.18185722828494075
line@@ 1
A.@@ 1
mati@@ 0.7958848469677732
ku@@ 0.4073692057436918
Scott 0.7896409105472505
trol@@ 0.7925071111481616
pré@@ 0.22758007312656908
Jackson 0.8842123714193914
zi 1
Avi@@ 1
play@@ 0.7889087931283817
jam@@ 1
Paulo 1
Princip@@ 1
ública 1
č@@ 0.6673803540081189
Tak@@ 0.73646236826295
L. 0.9575528334194894
laborat@@ 1
Hil@@ 0.658298296223017
anch@@ 1
tang@@ 1
ante@@ 1
expos@@ 0.9041071515724265
prolong@@ 1
Brig@@ 0.7575720484436809
Rot@@ 0.5588250077998558
ider@@ 1
Disney 1
ast 0.2115968223808751
ondo 1
ze@@ 0.23112580083092452
ister@@ 0.44548507625726486
diagn@@ 1
Virginia 0.5459221517108389
xi@@ 1
Williams 0.7206954421099316
fantas@@ 1
elt@@ 1
ité 0.12103480674470057
odo 1
rif@@ 1
Franc@@ 1
Liter@@ 1
post@@ 0.7649670963761771
XI 1
IX 1
Ty@@ 0.4873712137107471
kar@@ 0.34039748565199773
Big 0.620412080986013
anal@@ 0.7594604297167703
ves 0.1385791092666047
Times 0.6101585037116402
bis@@ 1
inco 1
bil 1
irat@@ 1
Sum@@ 0.7764147116527209
sky 0.5982008543184664
Entertainment 1
Op@@ 0.4435041440638984
gan 1
Plan 1
adap@@ 0.8415491643182035
Mach@@ 0.8925469019801128
diver@@ 1
bia 1
egu@@ 1
tion@@ 0.25994400791581135
1911 0.694873652393735
reas 1
Bet@@ 0.4585972661324686
pre 0.7685118431405736
onóm@@ 1
ER@@ 0.9470485490591558
Pach@@ 1
low 0.12483099263225662
horiz@@ 1
Bay@@ 0.6430194841251472
ij@@ 0.7166929385458719
1916 0.7011386905950862
bro@@ 0.21564480255996704
relati@@ 0.5926374931252443
Lan@@ 0.7671822466320853
Actu@@ 1
esis 0.7662099370732038
preser@@ 0.9189622156974322
Refer@@ 0.9878397622547144
rar@@ 1
Tran@@ 0.9979906392398433
hur@@ 0.8607296866713136
ector 1
Spr@@ 0.3297965447786634
zo@@ 1
ques@@ 1
250 0.9817840817534712
oya 1
Final 0.9405232650156096
Amaz@@ 1
Bru@@ 0.6302845468970235
VIII 1
femin@@ 1
1915 0.6719462510059263
alis 1
manus@@ 1
anga 1
ling 0.23842861819213873
Sof@@ 1
protest@@ 1
intr@@ 1
he 0.019033239677362812
Mill@@ 0.8629253626812116
Star@@ 0.6651179346246033
quier@@ 1
nom@@ 0.4007157085319532
ort@@ 0.48855715495705604
CA 0.9484552458300975
I. 0.48981040604161324
greg@@ 1
Hall 0.35648326117176965
Mod@@ 0.6118831294044533
Bad@@ 0.9382530396577627
House 0.2263457729099084
legi@@ 0.8586138037945021
sk 0.8392610143574213
Iv@@ 1
see 0.281580728272601
avia 1
Bab@@ 0.6970001325000772
Max 0.812299183777279
Progr@@ 0.7623046286817405
enter@@ 0.8321003176147527
Eli@@ 1
AN 1
etta 1
jar@@ 1
him@@ 1
cus 0.7691405359719158
ck 0.3686656942452601
bili@@ 1
ous 0.0775809409840581
Gas@@ 0.9425151097458073
Pos@@ 1
s. 0.8236189408694812
Mem@@ 0.7086279531049363
out 0.06238045182187444
asi 1
Hollywood 1
Reb@@ 1
But@@ 0.7644050740164509
Int@@ 1
proxim@@ 1
ham 0.4633125886647782
sist@@ 0.8284502344635037
Alem@@ 1
AT@@ 0.8348878372360687
portun@@ 0.8411222491103728
ist 0.019928683386582748
sing@@ 0.5938229572610619
pand@@ 1
privil@@ 1
Young 0.6746815824676584
Et@@ 0.7809077628591706
compens@@ 1
BA 0.970110657137249
Center 0.3587783557570227
kin 0.6692862291180901
dial@@ 1
cular 1
Sing@@ 0.6860865257247167
adu@@ 1
prol@@ 1
ball@@ 0.679901937614759
Sav@@ 0.5720829905741928
azar@@ 1
Alexander 0.5316402299882865
autonom@@ 1
ish 0.1074473146294574
yp@@ 0.2919452253029664
Sm@@ 0.7524194632287834
rat@@ 1
recog@@ 1
ap 0.30200569951142486
Dic@@ 1
1908 0.6761321093506347
Ly@@ 0.6489535092073887
Joe 0.78339178691785
AS 1
fos@@ 1
SA@@ 0.8265139620470972
Wi@@ 0.39907584743331354
virus 1
ym@@ 0.30318389148332087
In 0.014553301881751655
mari@@ 0.5674826762615319
archi@@ 1
Suc@@ 1
ji@@ 1
Ran@@ 0.779646863977009
Na@@ 0.7042670201670375
1905 0.6486848543374998
West@@ 0.31410263670830535
ly@@ 0.2616557910303684
nar@@ 0.8574096925901501
espe@@ 1
artic@@ 1
N.@@ 1
grad@@ 1
Chris 0.8992641531980939
Palm@@ 1
ieve 0.7512447290167495
Guinea 1
Live 0.8222241542922581
Carr@@ 1
astronom@@ 1
Walter 0.7393697362075615
It 0.03547677261746925
pes 0.8942114480880065
Alfre@@ 1
Audi@@ 1
H. 0.6914519018967605
White 0.41917675256815357
Ford 0.9543555460415069
neutr@@ 1
Arn@@ 0.9511432963150774
Boston 0.633517081768953
ax 0.9891332851874802
eth 0.5423894437047424
inger 0.3646051540377492
elia 1
triz 1
Top 0.6658252370197342
osp@@ 0.640327343907302
usal@@ 1
curr@@ 0.8189807767405464
huy@@ 1
rad@@ 0.8744680727152875
ogen@@ 1
ł@@ 0.43346371720717647
yar 1
Hot 0.9798547232901371
Kn@@ 0.46440882568891123
sever@@ 0.9373182145074413
ze 0.1652953863515509
gn@@ 1
iner@@ 1
lati@@ 1
ances 0.20162896362807264
scar 1
Maz@@ 1
bao 0.8413676261225769
Cad@@ 1
ci 0.3050765254004917
ø@@ 0.6479864894138015
occident@@ 1
Ku@@ 0.7276189714941654
Johnson 0.6477996789071346
Tes@@ 1
ika 0.5303330079770996
Abr@@ 0.9663341618660591
Chap@@ 0.6712537505046909
Jar@@ 1
ush@@ 0.4119647946235843
occ@@ 0.5533109835720872
Football 0.3835765753723583
Fig@@ 0.9805167863110744
yan 0.7198491438538399
opa 1
Hay@@ 0.7818189557552254
canti@@ 1
jazz 1
Extr@@ 1
perí@@ 1
Famil@@ 1
She@@ 0.5979118653744019
Tit@@ 0.5624883980427291
Edward 0.5360844830989153
Team 0.39316637727567166
alre@@ 1
Win@@ 0.4686323776190443
Clu@@ 1
Cle@@ 0.6805137219338436
Div@@ 0.9730291973217219
xa 1
Ball@@ 0.8379804134851364
Card@@ 1
r. 1
Lucas 1
we@@ 0.08001671651685098
C.@@ 1
Ep@@ 1
eces 1
Vietnam 1
ald 0.5928487089963248
TV@@ 1
Lig@@ 1
urg@@ 0.5035663422261055
amba 1
PC 0.9792584835997349
calcul@@ 1
ier 0.24504189462530368
eter 0.2103735582498193
Dev@@ 0.5583667626590947
Les 0.07195246623803507
manga 1
Show 0.7351805070188216
Pod@@ 1
Gab@@ 1
.com 1
Marie 0.4682488172234742
ean 0.3002375252509616
arist@@ 1
NA 1
Fox 0.9566854592478372
berg@@ 0.9977005517508524
tori@@ 1
Kat@@ 0.49156257012573407
Que@@ 0.8626861342416169
cho@@ 0.22520755048433633
1906 0.6756438561525596
Columbia 0.6621456828925413
oy 1
1909 0.6948325661542964
lio 1
azi 1
… 0.3486730247760072
drama 0.7889638724615996
alle 0.27059620179600435
Kal@@ 0.4170147781907126
minister@@ 0.6334103791903579
Industri@@ 0.7691918084411564
acuer@@ 1
ath 0.2994941094460249
ö@@ 0.10565021685921212
Pep@@ 1
hun@@ 1
Universal 1
Dre@@ 0.4136664345240128
ian 0.13096879074619291
Hill 0.4628885125444896
inclus@@ 1
Fron@@ 1
ident@@ 1
Kh@@ 0.32723998325373843
UR@@ 1
1907 0.6632070708830715
ev 0.7723694852482768
set@@ 0.7885935531301588
DE@@ 1
Lav@@ 1
zu@@ 0.3683947441094653
Prom@@ 1
honor@@ 1
eren 0.17694497850872795
né@@ 0.4797842861012181
Sho@@ 0.6116751912871129
ange 0.3439902532509317
Nom@@ 1
ste@@ 0.1468209883204761
fer 0.2181047086188243
ault 0.46532734408582876
alp@@ 0.9024561207748375
Kor@@ 0.2985487973725521
º@@ 1
ds 0.11768137569861667
Pro 0.9402788560783304
Ciud@@ 1
clus@@ 0.9751891683571522
Ben 0.9212701771583485
limpi@@ 1
pet@@ 1
Kur@@ 0.2719282175603814
cro@@ 0.22065885417761036
gem@@ 0.29775379008078906
Windows 0.8940658475532316
ston 0.5881880542630374
ome 0.35874668488515454
lie 0.3889486577101952
tif@@ 1
zi@@ 0.17533514510651826
Metro 1
Anna 0.7631697956322566
Pur@@ 0.8050791378905162
Fut@@ 1
Moh@@ 0.6259142762108423
hospit@@ 1
Mic@@ 1
Township 0.85439342499024
jo@@ 0.2517098748297671
my 0.39296046360482567
Air@@ 0.6236552661133499
Emp@@ 1
kins 0.7171864475732984
Pit@@ 0.7314976801830331
Kon@@ 0.14650139752795618
mont 0.4797477658780926
wa 0.24450743768062166
1904 0.6819367605580718
Illinois 0.6749943247446065
Mid@@ 0.5085229675477357
intér@@ 1
University 0.07220072666416848
aux 0.045456326826630575
Mike 0.7888173321261869
polog@@ 1
Bob 0.843917410990063
Albert 0.6087235843249356
1890 0.7829460258934365
River 0.1848031628442777
esen 0.612035925862256
inda 1
Janeiro 1
rab@@ 1
set 0.14308724749644625
umbo 1
Wilson 0.7783859049860886
compil@@ 1
Log@@ 1
rog@@ 1
infan@@ 1
Band@@ 1
Tai@@ 0.8968536634929936
Pam@@ 1
ministr@@ 1
cher 0.1636105913973008
Boh@@ 1
Time 0.6976646754131625
ik 0.2396690224066954
tical 0.1638150582685115
las@@ 0.7151240476339539
Nev@@ 1
Whit@@ 0.6384333913458647
Lab@@ 0.3957255078039769
rur@@ 1
Margar@@ 1
Ash@@ 0.6462698933410665
arina 1
tern@@ 0.5012277847725873
anti 0.4240562001487414
Peter@@ 0.7754945408891064
Origin@@ 1
demand@@ 1
Represent@@ 0.8509981747873301
aham 0.8331133493663921
700 0.9421606848549638
Oscar 1
imi@@ 1
DA 1
120 0.8568641129783233
ado@@ 0.8218260662884005
uga 1
Christian 0.3141597550129681
contro@@ 0.8013458028200203
aum@@ 1
Sic@@ 1
igan 1
yc@@ 0.41232186516095515
tribut@@ 0.4112641761203372
Miami 1
event@@ 1
brig@@ 1
ning 0.13151044858028363
RO@@ 1
Bow@@ 0.5276053117336976
Ak@@ 0.2764051427066583
Wrestling 1
Kim 0.8796301270262368
1903 0.7016826860819045
G. 0.829379271758474
atar 1
Art 0.23991245326108598
PS@@ 1
dens@@ 0.40093638405328313
Tony 0.9348987542472347
alan@@ 1
seud@@ 1
gul@@ 1
Arthur 0.6186999818773405
ies 0.09109742457373304
Jos@@ 0.993663522453783
Dam@@ 0.7318167963709002
ator 0.1464121538798698
FA 0.7559664571749688
Termin@@ 1
ding 0.16333332589689684
Conserv@@ 0.7764910517899889
Life 0.4061340150949661
itz@@ 0.22263406847218312
Hir@@ 0.7217441441086234
Tig@@ 1
tradu@@ 1
BBC 0.6087526713066463
ae@@ 0.5245926063208496
ye@@ 0.3183909540834758
Corn@@ 0.7336161219165152
PC@@ 1
Fri@@ 0.5156191412720996
franc@@ 1
Person@@ 0.7730017508991585
box@@ 0.8875956757258084
nde 1
individ@@ 1
Brian 1
UEFA 1
Quer@@ 1
Tir@@ 1
sia 1
Ken@@ 1
orb@@ 1
Hitler 1
Steve 0.8174073012256367
Ot@@ 0.44436082153121714
Jan@@ 0.707608022167871
Territ@@ 0.8913774144295633
Q 0.6306908602540183
cle@@ 0.309097365314976
descend@@ 1
CN@@ 1
tidae 1
egal 1
van@@ 0.8599945598605793
Eng@@ 0.30816973742302933
ife 1
è@@ 0.14738408051760113
kr@@ 0.2516160683292631
Meg@@ 1
1902 0.6888134853386844
Bill 0.5988834621035163
trib@@ 1
Jor@@ 1
ond 0.27803773566716716
jeres 1
IM@@ 1
Fel@@ 0.4755131329524608
Harry 0.8177572522857632
restric@@ 0.8797111454874446
Ohio 0.5759625007335034
top 0.1857699058001925
Mak@@ 0.6218182107429399
bury 0.4967147649965145
correspond@@ 0.5781860483901627
1880 0.8326118084391757
polici@@ 1
Dich@@ 1
Kaz@@ 1
Us@@ 1
Kong 0.6875681373286218
iz 1
tus 1
oja 1
tre@@ 0.13080638025832
Sul@@ 0.6414256118622488
Carl 0.6335954700711621
Jud@@ 0.5505033666170167
Ga@@ 0.9435223298611742
Cum@@ 1
High 0.22373501506182492
ns 0.14835672404010136
ig 0.32129321477931333
â@@ 0.19184751816295226
Dir@@ 1
laz@@ 1
Vid@@ 1
gor@@ 1
ules 0.34340295148063976
Mercedes 1
ural 0.9558956028238293
Sha@@ 0.7167011195195125
tas@@ 0.6120964143550209
flora 1
bun@@ 0.9341827168323642
asis 1
sson 1
Top@@ 1
ost 0.28246469797449153
shire 0.3386187479238969
lis@@ 1
― 1
lez 1
end 0.056535220233740906
Papa 1
Beau@@ 0.6327270441458873
Dav@@ 0.5884568570850153
port 0.14381763681098067
telef@@ 1
Sun@@ 0.6980229915513719
Taylor 0.7303209745546422
enne 0.17583322568130244
Land@@ 0.1438382170613067
Kan@@ 0.3422108767319749
empe@@ 1
Green 0.48882762671719476
Racing 1
ont 0.08043508203435842
Air 0.259882820633325
1898 0.7221763123700807
Hotel 0.8713730844260447
Karl 0.43308866343752694
len 0.1451796196472279
ref@@ 0.23227517861296834
Situ@@ 1
ept@@ 0.5830275975320303
ome@@ 0.4591724691447626
Cav@@ 0.8900098573413492
olia 1
North 0.13257500103707542
Dal@@ 0.844862904735257
Ki@@ 0.447095992033854
adver@@ 0.6735594291599373
Society 0.292847287285902
Reser@@ 0.6675062881297357
Ful@@ 0.7065012257448806
ny@@ 0.7949610049231733
1870 0.7574632753522855
divers@@ 1
sey 0.6155300786615606
Viz@@ 1
Mart@@ 1
heb@@ 1
ken 0.08815096770277774
quir@@ 1
op 0.17657449150582816
AP 0.8342862588512842
tér@@ 1
aden@@ 1
side 0.09329077133507038
Lang@@ 0.3657513916594373
MS 0.7367362979952249
Bec@@ 0.47959424862061945
Pak@@ 1
qui 0.030846083086075005
embran@@ 1
test@@ 0.4099006192628864
gest@@ 0.26079359654013956
ther 0.2005976945308201
oder 0.0789237449713908
ham@@ 0.5621330629884135
tha 0.8131995111354317
use 0.07054857835332233
bi 0.593540896337808
AL@@ 1
tut@@ 1
Shi@@ 0.5533448642958938
mond 0.5832843344222556
Blue 0.5774962760067117
Bé@@ 1
Island 0.2797723954798784
COVID 0.8117684142084982
His@@ 1
Spe@@ 0.3313529157323886
MI@@ 1
the@@ 0.12105334998448039
America 0.236015316373442
1901 0.6394142413699191
Rab@@ 0.7643376240682929
Emper@@ 0.8216269770264335
ei@@ 0.9189713949833422
Roger 0.8899048482723501
V. 0.518872177077691
Davis 0.7306450141827289
ingu@@ 0.624766978398884
Les@@ 0.6593252523149143
Petr@@ 1
promin@@ 0.5143288140355824
T. 0.8321999124338133
visible 1
PR@@ 1
South 0.10324887204918333
amen 0.4890624618729459
americ@@ 1
Cand@@ 1
energ@@ 1
1895 0.7239538289156889
inae 1
DE 1
MA 0.795248013444928
anime 1
Napole@@ 1
ingen 0.17548368673504158
VI@@ 1
éd@@ 0.5505468042467915
Alber@@ 0.9765992921393669
200@@ 0.6235610913671655
Mand@@ 0.663277160151043
kg 0.7854409095644759
Sher@@ 0.6440496205590509
evi@@ 1
fort 0.23281849043978367
onna 1
Indonesia 1
lemente 1
LE@@ 1
sam@@ 0.5596813646139006
Sy@@ 0.2971073776946632
Fol@@ 0.3749960617685389
atis@@ 0.4389807922246645
gre@@ 0.10440033570436194
Hong 0.6446357813699389
Serbia 1
naz@@ 1
Bran@@ 0.6570212353560552
nh@@ 0.15860797010041153
Night 0.7854534977856547
W. 0.5575164578816701
ves@@ 1
pino 1
sant@@ 1
rir 1
Series 0.466091464311727
Jersey 0.5891861889905585
CD@@ 0.4958193265253362
ū@@ 0.8621490073360024
elles 0.15535616696566515
aus 0.031142590644977514
flan@@ 1
Shar@@ 0.6242662392749108
LA 0.8405997352706297
Mec@@ 1
Conn@@ 0.6415334892405853
Hub@@ 1
Institu@@ 1
1899 0.6870057513515154
Phil@@ 0.47641986770134287
Stone 0.9127366144375274
Tot@@ 0.7682519345756469
Ret@@ 0.8990427931342444
Ann@@ 0.5232363280810394
Cec@@ 1
Fern@@ 0.6692375173685207
eres 1
anth@@ 0.4181915167403219
mir 1
11@@ 0.599408615038931
hard@@ 0.6201502043898642
lip 1
onga 1
edonia 1
Samuel 0.8191872596726005
Arizona 0.8539150639746508
Irak 1
Rio 0.8278175506138634
Rugby 0.9876369774860759
Maj@@ 0.9004389695802287
Ker@@ 0.46050377798428604
Play@@ 0.3759666220067828
ique 0.1594061084422748
Sou@@ 0.4684855017658525
Marvel 1
Kam@@ 0.4091686344226919
much@@ 1
ep 0.20444629491472951
farm@@ 0.6275184687746682
jan 1
Cot@@ 0.8821412096090268
zan 1
Nag@@ 0.690582734789097
uz 0.8700234824140898
Group 0.2455691981173127
Moder@@ 1
ting 0.048431503546921384
Wol@@ 0.4985314902574005
eus 1
ium 0.3580532322255753
esse 0.19876979487262933
Arti@@ 0.5336138868387343
WWE 1
1897 0.6811070392553443
drome 1
Bou@@ 0.6118121812069082
Anton@@ 1
Jacques 0.5698431684443067
Chrysomelidae 1
Rog@@ 0.9642666362004568
kil@@ 0.3404063504402927
LP 1
tho@@ 0.21083649338767804
Palest@@ 0.9990981508915625
eau 0.1365672884805004
Lake 0.3009080205593301
Donald 0.6870633214404267
Tun@@ 0.47402778294615056
oli@@ 0.7570382858293455
Pop@@ 0.8737388912096986
50@@ 0.7259253057829276
ambre 1
Liv@@ 0.5717331016468653
upe 1
Pav@@ 0.9856666044066809
1896 0.6759783155192549
any@@ 0.325234489396934
ris 0.8181501171408961
war@@ 0.1294983397869344
oli 1
Ever@@ 0.7569323453611556
rug@@ 1
sof@@ 1
eer 0.4255001390949971
iko 0.7480050439507491
bach 0.25166785166475203
Down 1
recu@@ 1
ark@@ 0.3004106883088699
1860 0.7905587572390282
wan@@ 0.3276701063393048
kin@@ 0.29905032328836356
esi@@ 1
Rad@@ 0.4396731931525479
ubil@@ 1
ny 0.5639301673420415
Boy@@ 0.9270082352467932
amm@@ 0.15789628352085253
Simon 0.647201845508496
Bom@@ 0.8143208891651822
IC 1
Premier 0.4914526831671612
Hier@@ 1
omer@@ 1
Alpes 1
FIFA 1
1889 0.7364254429813373
eck 0.35577729957608517
Lewis 0.7158722369193891
lé@@ 0.3860861908345313
anne 0.4884676181585005
sm@@ 0.3282940251605738
Ped@@ 1
Pet@@ 0.8599099205821281
play 0.11594733932486162
Cup 0.14936089412346285
eman 0.53473589844165
ache 0.3138047774915263
Massachusetts 0.5752163432859704
illy 0.6377236051161105
afr@@ 1
Ze@@ 0.2361381577493267
Bulgar@@ 1
ket@@ 0.4071564156932155
gam@@ 1
Bell@@ 1
NE@@ 0.8662816004245953
ongo 1
Colorado 0.8081026351450183
Mik@@ 0.6302672621517615
anna 0.7686512336097684
Lord 0.4187087863555296
dial 1
Bes@@ 0.19033318686986664
uti@@ 0.3564981955494189
Rap@@ 0.5989663304819345
1891 0.7519341900323526
vin 0.6378428610525799
sul 1
Got@@ 0.420243643700911
idel@@ 0.7141346246803308
Giovanni 1
SC 0.5437253667191669
ère 0.09040288873047331
trag@@ 0.32314653086214606
épo@@ 1
Armen@@ 0.7895023562021635
Microsoft 1
TE@@ 1
ald@@ 1
acre 1
Alex 1
aff@@ 0.11346302382221003
Isa@@ 1
Day 0.38866890367922474
ges 0.1900075052215137
hay@@ 1
vér@@ 1
Bob@@ 0.9416350600428912
Imp@@ 1
deg@@ 1
lam 0.6614415572592833
Let@@ 0.9651857283323425
,@@ 1
Yam@@ 1
Port@@ 0.8270650235574764
andra 1
pler 1
AA 0.7033607727301685
fort@@ 0.9987715729382748
AB@@ 0.9000457612499139
diz@@ 1
10.@@ 0.7742215863717876
mental 0.363193999955515
ban 0.2902512235278334
´ 1
Elizabeth 0.5693110021004717
Hip@@ 1
Terr@@ 0.9089692483897021
Cham@@ 0.9366025322526716
Princ@@ 0.7154340612816549
Championship 0.22985942996924735
rop@@ 1
1888 0.7608278003165424
RI@@ 1
Lac@@ 1
Hans 0.4591212430860595
erie 0.38238994565395945
ager 0.28409035087403056
hy@@ 0.23575723781819632
af 0.5357633130739284
Leopol@@ 1
part@@ 0.15385107931524444
bara 1
Coc@@ 1
× 0.586921696580422
atra 1
Bak@@ 0.6678738165150632
yar@@ 1
derni@@ 1
dos@@ 1
Web@@ 0.48338973161285426
Union 0.16074957488698435
Van@@ 1
ever 0.20713387929501234
iki 0.45851147240142437
ech 0.27053093412918156
Net@@ 0.710964683262556
urn@@ 0.35990103669732043
Association 0.18793887579716867
uck 0.46813465245468344
ays 0.2522138133325711
osh@@ 0.9605641572838006
Yugoslav@@ 1
agan 1
sistem@@ 1
Adam 0.7087056461267656
inga 1
pedia 1
Dist@@ 0.9528086773499757
Pek@@ 1
Little 0.5296343677765151
Congo 1
lieg@@ 0.585381032237336
aun@@ 0.4110105180102232
ren 1
à@@ 1
AT 1
ague 0.5989248725168415
François 0.4882664711114946
Infan@@ 0.6076128218553769
ted@@ 1
Sir 0.3691647771791416
ius 0.6015527462455474
oven 1
Hard@@ 0.7254293640719054
Boys 1
tent@@ 0.48532249477008543
1893 0.6915173618164002
Sam 0.8307787165135762
vers 0.0875114286483127
app@@ 0.10947495069662055
1500 0.9902552142372848
aug@@ 0.7420501947176146
ike 0.3233017887057644
uh@@ 0.3373119190844414
academ@@ 0.4296822602629437
oi 0.6620067243510596
tw@@ 0.1239167507873637
enfr@@ 1
Stu@@ 0.3655470570610778
hr@@ 0.26170515537476563
Lem@@ 1
East 0.1745518193252581
anus 0.8942533607067967
lave 1
novi@@ 1
att@@ 0.08250460913757754
Da@@ 0.8535901491697642
hes@@ 1
Eric 0.8862955142407064
Ort@@ 0.8174073818026162
ée 0.02246388829661513
futbol@@ 1
mis 0.34895041515415
Awards 0.2751420595915542
heim 0.3548053781270935
PS 0.5657169304389188
ès 0.20897822118559728
g. 0.7093608666493084
Nintendo 1
Luci@@ 1
km@@ 0.9705181897702636
Sto@@ 0.35013560680176553
astron@@ 1
iten 0.22499757931018288
Shak@@ 0.9111184825707621
c. 1
Nam@@ 0.4651451831433728
dam@@ 0.23470342404988057
with 0.006744157101448459
Brun@@ 0.5917191909873569
low@@ 0.1673958187749477
eu 0.32342413063472364
Tex@@ 0.47188985750777707
vé@@ 0.6378596204866854
Joh@@ 0.7165314821493117
Cass@@ 0.8664158423943218
nic@@ 1
nec@@ 0.34877186322032483
sis 1
1892 0.6840327383307723
1800 1
1868 0.8476030031168011
isco 1
Blu@@ 0.5257133631407724
Hug@@ 0.579052529531346
Num@@ 0.5881867257210841
1885 0.6782203345530539
rugby 0.65123403538429
MTV 1
ingham 0.49684048386827145
Alan 0.9009887177076666
Arab@@ 0.45831273454773896
Ray 0.8884402742081611
lima 1
Bag@@ 0.8312453143508269
Mam@@ 1
eller 0.3100360598987006
stant@@ 1
Friedrich 0.34378428091261676
1894 0.6769402692990952
1886 0.7362808924895261
Kit@@ 0.7102070744100947
Lov@@ 1
It@@ 1
eu@@ 0.4644356792967022
Sony 1
bomb@@ 0.6240725233806347
over@@ 0.11874385031428877
RA 0.9693056190833372
pi 1
Sport 0.7921366324604272
Austr@@ 0.39492207492750636
Game 0.5597893224504561
che@@ 0.5485363093362806
ril 1
etz@@ 0.1844055066194936
ert 0.07177459634002356
Atlanta 0.9320691707238548
Dun@@ 0.4966216021465336
ST@@ 0.6878022056158284
Han 1
ken@@ 0.1907621654755805
lip@@ 0.5649106119100459
Toronto 0.5343248636225826
row 0.2448870580182901
orum 1
Bras@@ 1
Afr@@ 0.9398993610079762
Sat@@ 0.5535027715426557
dri@@ 0.16756604052763294
Wood@@ 0.6148742652549446
Corporation 0.497763382944249
aud 0.4932493520110023
Jim 0.6665247368001446
uki 1
Kansas 0.6713092716020209
Sep@@ 1
YouTube 1
iliano 1
Ka@@ 0.7354843899983298
Ky@@ 0.6317053808097697
atom@@ 0.6531491682809055
CS@@ 0.7050314701463029
Wh@@ 0.43565445182987933
ray 0.5378216700246474
infr@@ 0.6123963808726296
even 0.14015202793870923
Sport@@ 0.43738229390552036
Douglas 0.7676492309381159
1884 0.741159093172687
film 0.047552244277762334
Jan 0.7634359366921757
divid@@ 0.42623826173039375
veloc@@ 1
Anderson 0.8014003195858368
alit@@ 1
ili 0.47149233788028644
Chall@@ 0.703895789898164
progr@@ 0.6055311760597272
olo@@ 0.7425029714506158
Gri@@ 0.7411812201363983
ury 0.21424723979878676
under@@ 0.09740870691704775
CF 1
{ 0.6100773445631276
campus 0.5901535458337293
ABC 0.9111640943987461
1879 0.780978599283136
lac@@ 1
zam@@ 1
Azer@@ 1
Oxford 0.5775694458151791
Stephen 0.6501155362527746
Studios 0.8057071658033377
Beach 0.6263002653208013
mang@@ 1
Pul@@ 0.8393053609700839
kov 1
Jr 0.7011614229157265
Ry@@ 0.8599360558813443
agre@@ 0.20872629021385747
Hamb@@ 1
ör@@ 0.13030579647294313
900 1
verte@@ 0.7269552446575877
Kin@@ 0.2859369112181793
terci@@ 1
Ner@@ 1
Broadway 0.9529219566669138
Jes@@ 0.9618734690413167
Minnesota 0.6229671597434179
1887 0.7115855568942094
opera 0.9353115928744276
fri@@ 0.20492916695259697
ii 1
lot 0.19815177778449714
sw@@ 0.15197156787330196
MP@@ 0.7643431432912514
uel 0.9164275081545712
ū 1
Lincoln 0.7643819031850864
Sun 0.566360496517558
Crim@@ 1
AL 1
Salv@@ 1
Andrea 1
12,@@ 1
Francis 0.5414887287392837
God@@ 0.819956250861375
Id@@ 0.6635968295847451
eld 0.24326597315384588
ask@@ 0.3966960141580331
enberg 0.4637547271500213
Biblia 1
live 0.2180746630620184
Him@@ 1
Asi@@ 1
igg@@ 0.627471385916018
divis@@ 1
Johann 0.3573459769959708
FM 0.5111549630223415
Fa@@ 0.8702246510081125
entí@@ 1
Andrew 0.5662400022010259
simul@@ 0.66390372757151
Lyn@@ 0.8560477657967777
On 0.03744571989885168
1850 0.7621506047066879
uth 0.45791344807643725
ole@@ 1
hir@@ 1
Ges@@ 0.19803953919155862
1881 0.7234461178482983
1876 0.7450178061082613
12.@@ 0.9134702023703045
BM@@ 0.7725429376472163
Indiana 0.7044674363916568
Patri@@ 0.904951162702213
eng 0.5304304704956833
ix@@ 1
roy@@ 0.534827396895859
Kos@@ 0.6137324507021884
iler 0.3557210606168169
Viol@@ 1
dem 0.015735485297067562
Fort 0.40999827442553105
Cri@@ 0.5035083936039835
iny@@ 1
Lou@@ 0.35775471456430247
Itali@@ 1
1871 0.6747993321669545
own 0.09700976869265349
alli@@ 0.2479126423389362
yan@@ 0.45528703156983424
tiller@@ 0.98713929701301
Road 0.21133893590840858
tions 0.03342882742721624
offs 0.6933229435387759
Rand@@ 0.705211885033454
Alfred 0.6296607338900896
aul@@ 0.4571170871785372
Maxim@@ 0.9206071846595582
Gold@@ 0.4652452332377651
gi 0.9025183213749879
Nelson 0.9731805521778398
thi@@ 0.2764950087868541
Bach@@ 0.5404954021516183
Kevin 0.8910401451037165
Miller 0.6918062912638452
Zo@@ 1
ort 0.22165800096981808
ð@@ 1
10,@@ 1
Johnny 0.9921297384348092
ate@@ 1
Ef@@ 1
Michel 0.5811565008092628
PA 0.6279915810253729
eli 0.6640368446464702
ë@@ 0.7735772968369737
11.@@ 0.9019223209001628
tum@@ 1
Bruce 0.9318371780749475
www.@@ 1
Nick 1
K. 0.7046663197710835
Video 0.8578022851459991
Rose 0.7031950260380645
Tradi@@ 0.7603607794829716
AI@@ 0.6043220904019888
Gam@@ 0.941238859829029
gü@@ 1
Ele@@ 0.972283057390528
icus 1
kel@@ 0.33252576471349987
1878 0.6792993242106838
Gh@@ 0.6026682291400922
Junior 0.6066349136491405
bot 0.5348651838219015
Victor 0.6996792452439395
Warner 1
Howard 0.705569837196218
neum@@ 1
Emil@@ 1
Jimmy 0.9604658529860939
air 0.12794325304597753
seri@@ 0.4889380281125292
1882 0.7145151101368331
Evangel@@ 0.8583709795055467
key 0.20382361256922904
adi 0.734416353711066
sel 0.3148824199479856
Vari@@ 0.4828991529262946
ust 0.23586449137031398
Mass@@ 0.5946843697546135
Fantas@@ 1
uke 0.8724566738466573
State 0.09000238327500629
Brook@@ 0.7404898641331649
Ecu@@ 1
23@@ 0.697276371803712
Long 0.4290706766930562
cito 1
dav@@ 1
Nik@@ 0.7515409427509132
tés 0.5151026558713219
worth 0.3881927602978146
Cla@@ 0.7794264345048195
ord 0.38400136033195265
quel 1
1864 0.6945978616877129
Allen 0.7538734722640419
enh@@ 0.2463186925584237
ew@@ 0.20023632399064314
alle@@ 0.5400934932057769
ashi 1
Gun@@ 0.7084147305105669
Hem@@ 0.915681395198164
uss@@ 0.1878901963661197
1883 0.7308675455947927
Epis@@ 0.7253624709152754
Black@@ 0.6003901010549894
CC@@ 0.7466402850918878
laya 1
Boy 0.9472268095145133
Juni@@ 0.8823797720062571
Andr@@ 1
let 0.2838830761445447
lock 0.23297113385942586
Cra@@ 0.6215109453224401
Chu@@ 1
bé@@ 1
cy 0.49083052678145367
Arts 0.2564581299917558
Anthony 0.7186431144333191
Ali 0.552082866181053
Dy@@ 0.6664094255350798
ME@@ 0.9822084576956222
1865 0.7011047832112265
cup@@ 0.9264841587826992
Lau@@ 0.6120365436578656
Len@@ 0.7415465237571356
Aus@@ 0.05403155963206192
Arist@@ 1
Ras@@ 0.8832261058141112
Montre@@ 0.7764832171863753
sept@@ 1
day 0.06840613473609274
Lom@@ 1
Harr@@ 0.703634540987348
3000 1
Arc@@ 0.8228002729006721
Eri@@ 0.8769779677895033
1830 0.8796939547252816
iter@@ 1
1848 0.6592115845817217
Long@@ 0.7736603972389456
internet 1
lyn 0.7764658815672159
Rober@@ 0.6951103974015875
ux 0.17699614697967495
post 0.2269970636542663
EM@@ 1
Bell 0.7810011419787878
andi@@ 0.6530337708368151
ises 0.18745259094224562
nad@@ 1
André 0.6969714350305275
Paris 0.09680273620599229
uri@@ 1
ases 0.487693528216885
Kom@@ 0.14663266863441976
Sid@@ 0.858136594515295
urs 0.12849513776893
rich 0.5074439072024425
ret 0.31210347407868044
Arena 0.9302111992890956
1840 0.8580839252346673
inaug@@ 1
Lady 0.5301604307339252
Bis@@ 0.857490449452489
isis 1
1867 0.7056364094499263
Tap@@ 1
Comics 1
yer@@ 0.9133324099130545
ispo 1
Inst@@ 1
hil@@ 1
London 0.1090403188219127
LG@@ 1
lum 0.616611411251065
Bay 0.2705276811868785
1873 0.7204456392108514
Cambridge 0.5976953878261344
box 0.4095805978521418
Max@@ 0.8214822382573022
enia 1
ws 0.1679734737043058
AR 0.9643552075398072
Moz@@ 1
Kl@@ 0.20877855603680348
Dou@@ 0.42498484293744376
invas@@ 0.677506472964961
line 0.07200264467683341
ficio 1
ATP 1
grup@@ 0.9436541685767378
hard 0.30537082796953774
Ton@@ 0.6167561622072285
oe 0.8828281283798959
1861 0.6672975069688639
oo 0.5757093748786224
ovi@@ 0.8155512047578628
Morgan 0.8630690754523207
Go 0.8810444995688123
promovi@@ 1
promot@@ 0.25497670352550716
Adel@@ 0.7534743811085417
bab@@ 0.7839915751769075
chin@@ 0.3361159725642942
Film 0.1414836406520491
1,5 0.9556451585340949
Gom@@ 1
Queen 0.3558142907095575
1875 0.7076561801649178
idar@@ 1
Moore 0.7689603949517233
afa 1
enni@@ 0.505776830091558
Pier@@ 0.9746455879795846
Is 0.6034544899081488
ç@@ 0.11111997610660182
yer 0.1948801196942733
1872 0.72035712036435
Google 0.9373397816337246
sult@@ 1
Tos@@ 1
Satur@@ 0.6161699896145671
more 0.03661850140100469
polit@@ 1
1869 0.7584594959774478
Gru@@ 0.6997329663760303
house 0.11727850303073371
ail 0.21055293412148574
40@@ 0.7377517648478352
stan@@ 0.514686540949749
té 0.15134406972296024
PlayStation 1
Bac@@ 1
iter 0.24361574930103036
110 0.8045753390907675
ther@@ 0.1257110053116129
Eurov@@ 1
ft 0.11400269338056898
Jane 0.8137658086458537
Anim@@ 1
Bank 0.3132807139090278
Hus@@ 0.6589398681511628
Eg@@ 0.8595171192439471
Up 0.7414511946007324
dney 1
sible 0.25448495002818056
net 0.18953114712188887
enger 0.36188492542293793
Sag@@ 1
Houston 0.7169210718993861
oper 0.6676483730650943
anny 0.9392920723983582
agon 0.4945288121207206
eni 0.7370140811774963
Pop 1
a. 0.4172062287398187
180 0.8594218503551423
1863 0.6750582698657784
Digital 1
1874 0.7028372105126578
Ryan 0.823929006246085
Your 0.83050788760917
Henri 0.5177576612523552
prin@@ 0.31396572678548207
Beat@@ 1
lins 0.6663324971907116
3D 0.970659108738598
Kas@@ 0.38416851310469335
IT@@ 0.8708756725091767
consult@@ 0.6768034694094801
opo@@ 0.6870016171849044
Vig@@ 1
Yo@@ 0.8803979515144056
Men 0.41833218360615243
Kenn@@ 0.49714389726096314
News 0.4321045290363481
ator@@ 0.4382374108691222
lav 0.6720107425401364
Sak@@ 0.6453169068982577
Clark 0.7219318134878416
ria 1
any 0.08865287768419534
Green@@ 0.5700865218646975
ogo 1
tun@@ 0.30497891108184205
Corpor@@ 1
ights 0.25061314168460075
ovo 0.7884232178558566
Clin@@ 0.6278057994851329
thr@@ 0.33186398266685563
pro 0.3888476836764985
SP@@ 0.5862987399095558
nik 0.35264906887170133
Fro@@ 0.8431513359851972
abad 0.7048390801590512
11,@@ 1
Matt 0.942591549035608
Vin@@ 1
umi 1
Conse@@ 1
ube 1
verg@@ 0.5033356849284487
ball 0.147782028775982
Scar@@ 0.983069823645682
Kol@@ 0.2454856143785377
eden 0.6949086772180789
fest@@ 0.3966211357036011
ents 0.03128121999056372
13,@@ 1
troit 0.622069957866721
amo@@ 0.42496488371333485
Harvard 0.7271994128910234
Lind@@ 0.5988194854765664
ž@@ 0.6875194152677406
afu@@ 1
Stan@@ 0.5998752269246751
bie 0.46860956768565987
utili@@ 1
achi 1
Ji@@ 0.7947031188999801
Pac@@ 1
1857 0.8299844702800547
Billy 0.900042154030179
1866 0.560165254266506
liv@@ 0.34677308032655485
ister 0.3010009638833914
Alt@@ 0.45188394188124215
inus 0.9216115994733928
Tul@@ 0.9686834101861583
Journal 0.47689709103756395
PE@@ 1
sibil@@ 0.3410754033225483
fiel 0.8719508875151322
Open 0.2868849454634238
ots 0.15945275596820577
130 0.8365455293207239
ells 0.23160275032087976
we 0.14446431839795293
core 0.46625831115987715
Charlie 0.9275539443864425
BC 0.3343764274974152
ops 0.16429211010574518
git@@ 1
5.000 1
Franklin 0.8670352958175588
Sah@@ 0.8841235623241235
sterdam 1
1877 0.6691749561070964
\ 0.9653390314024974
Rolling 1
back 0.07551171941040266
1862 0.6422714858808478
off@@ 0.0669258910967839
Anne 0.4497794969963712
Dan 0.8040163032229531
apo 1
AF@@ 0.8212223789383923
Dep@@ 0.564472558055189
Athle@@ 0.42514310340009215
trol 0.8836290599516611
Andre@@ 0.8195013715471048
hatt@@ 0.9085004219400769
hip 0.2554765330671212
Amp@@ 1
Iowa 0.6696345028316147
Lot@@ 0.7142002834726994
Girl 0.9025745922834622
ann 0.3722814192623051
Kennedy 0.8113594953001789
Gordon 0.69663661456627
Champ@@ 0.4737218104815414
Fir@@ 0.7005103474473129
Apple 0.8854933418966427
Oliver 0.978179038582695
ery 0.2779075208058373
ran 0.24989595189051622
mito 1
I.@@ 1
IA 1
ck@@ 0.23593192688540127
gh@@ 0.38726806543327913
Dakota 1
nis 0.18309836364443277
Grab@@ 0.6999413015566367
Od@@ 0.8330395115109485
å@@ 0.6814283509225709
Patrick 0.5392119619203307
Nigeria 0.9112436845621943
stre@@ 0.1558364396540635
Lep@@ 1
Yu@@ 0.8469872775915467
bé 0.8566988064565867
erten 0.18723868322014953
quet 0.9523421408383491
Creek 0.36707140763094903
Gib@@ 0.8150752588747767
Stal@@ 0.9571355969372858
Hul@@ 0.8737073591985698
Kil@@ 0.44718378388973573
Yor@@ 0.5167402670759829
ibn 1
wer@@ 0.07839420828269959
Kie@@ 1
ichi 1
} 0.5890579259603589
aborat@@ 0.9338558156117537
IE@@ 0.9423122133485997
Autom@@ 0.6906836705009469
elt 0.10656176604223418
time 0.02524493268389614
impro@@ 0.3304347271557072
AE@@ 1
sy@@ 0.15031997331218414
N. 0.968957626036807
DS 0.5417463199665901
Nak@@ 0.8257582629079887
alan 0.5748571153366382
Chr@@ 0.621486642037495
aut 0.13901904450458838
nen 0.1364549519641884
CP@@ 0.7926015843262239
Om@@ 0.7252893819052856
Cher@@ 0.744449498380572
yo@@ 0.25802686439878125
1810 1
up 0.03417766367177734
Mut@@ 0.6250452314258268
hou 0.7126708735880783
Boul@@ 0.5848743404885979
wal@@ 0.1654025923447822
http 1
loyd 0.7162670584790299
1820 0.785933223897859
ateur 0.144158868788139
DJ 0.8441105886094376
Fle@@ 0.4026347835839941
Sie@@ 1
Yan@@ 0.8450286639954507
Home 0.4485979430714637
crim@@ 0.4738144236566967
Gra@@ 0.3619539940848945
Nad@@ 0.8518947611639414
Sarah 0.7528422621453791
Hav@@ 0.3507715081266228
Ober@@ 0.11182779654038562
Nich@@ 0.5292226421682003
aw 0.4448852482636373
Otto 0.5142007511092898
pus 1
Kelly 0.793919395420073
té@@ 0.7107830791841061
Russell 0.7982084628313348
sequ@@ 0.25101782219136043
Las@@ 0.9808355927562348
TC 0.8657714322829959
Abu 1
ker@@ 0.194163519074293
eff 0.8039698374615742
blu@@ 0.3384034143065946
wich 0.7021238681494847
ough 0.12542789669362042
ms 0.17444198766534014
Chin@@ 0.9519924599291971
ards 0.08478845247081356
anca 1
odio 1
160 0.8694533597662838
Wisconsin 0.5618681723844796
omin@@ 0.8756124331694403
0,000 0.20052430843107008
evangel@@ 0.7209328060226046
wat@@ 0.1756595626771296
Hz 0.96622150646207
Wes@@ 0.3764347812712884
ec 0.719819030396833
ormente 1
Nikol@@ 0.7306461407406426
bec 0.6705838630087756
Network 0.5227001250336514
iri 0.7069054614853526
Ross 0.7490770342545566
Christopher 0.7838944326168573
· 0.07018522405633108
oke 0.3575835480945802
GT 1
1833 1
1812 0.904557402655696
Willi@@ 0.6843517509464693
Old 0.3158028327822069
etto 1
maya 0.843067820469921
Wit@@ 0.3981893312740243
Pictures 1
Rou@@ 0.3789783059695067
pson 1
Alex@@ 0.8740326884652555
min 0.5594969392087119
yle 0.27393137969041953
NO@@ 0.7985755502606298
USA 0.22791598606717453
Benn@@ 0.733017744862707
1821 1
vis 0.7039318445923698
Test@@ 0.7093455241243536
14,@@ 1
Die 0.014270762707824953
Jon@@ 1
Dani@@ 1
D.@@ 1
tano 1
R.@@ 1
nig@@ 1
France 0.057892935919640086
zor@@ 1
ures 0.10323621070601752
vey 0.33275568400882555
Fur@@ 0.3819229443589953
ses 0.031174754855843437
net@@ 0.32212486055236783
Rh@@ 0.27280566527484673
Wall@@ 0.4522571906655662
ă@@ 0.6201274947791375
125 0.8803949389034321
RC 0.6751743780327644
Hamilton 0.5567178137613225
Tw@@ 0.5231247254148085
maf@@ 1
ML@@ 0.6878849237833505
Wilhelm 0.32672106901518305
We 0.35367373046584516
concer@@ 0.14249059235224357
Stor@@ 0.5346411048667546
ody 0.463895164369734
engo 1
igh 0.5952703970876312
AD 0.5896589603957111
Institute 0.180304113006187
vu@@ 1
1859 0.6887682237765161
Grammy 1
Angel 1
lers 0.18060494814625705
The@@ 0.16892335924127702
René 0.9830895374138485
eton 0.49886938292627403
Ple@@ 0.7985237942954774
eas@@ 0.22782609556326264
Franz 0.4334252612630109
Will 0.8626975225991025
80@@ 0.8088370960520168
gro@@ 0.085800459878855
Power 0.5165602697800556
Song 0.38569844582975754
Can 1
ality 0.10674117979386813
Rho@@ 0.5442589438423422
Neu@@ 0.2589249681293047
anger 0.2729448709360297
Carter 0.8563985192461512
Gard@@ 0.6757215876203111
chu@@ 0.9450027289936399
idge 0.3602138049923122
ett@@ 0.20118259593114943
Lon@@ 0.887757793392302
16,@@ 1
tena 1
ket 0.23422572276740602
2,5 0.9857589240294196
Jason 0.8978850618607191
igi 1
Chev@@ 0.7868428680006373
bs 0.2179540462784214
Thi@@ 0.4041017879253562
da@@ 0.5849739892178714
140 0.8500037052459724
Emer@@ 0.6398079846267992
Cour@@ 0.33971540240881687
Gau@@ 0.5560155790487261
quot 1
uk 0.5018878920731783
Andy 0.8895640992864333
alls 0.13118138425379522
Xi@@ 0.8057236904879732
Austin 0.7993871336801546
enga 1
Ok@@ 0.5027484254101453
org 1
ska 0.74210207521554
Det@@ 0.6144541572500293
arren 0.6605745736547588
alus 1
350 0.9022432017987622
ffer@@ 0.4916714986604196
Valley 0.2899797807702149
Bla@@ 0.784251403399619
wen 0.6033586114915703
³ 1
iev@@ 0.35746060361989823
13.@@ 0.9490030010609848
Portu@@ 0.5222039592044716
lina 1
Who 0.8395729729706949
optera 1
Feli@@ 1
Lyon 0.6431329073147589
oth 0.3706052888312953
iss 0.31083382687765476
Do 0.6322208787612149
ow 0.21699851547958215
tics 0.07910321494535985
1858 0.762156853889368
kan@@ 0.18498146728919915
xi 1
Adams 0.7566209885228342
lidae 1
equi@@ 0.8484944207588614
oshi 1
Twitter 1
Nob@@ 1
aa 0.892086102873847
repe@@ 0.44358080588789756
Gur@@ 0.9306160707067367
1856 0.726783295799438
Geor@@ 0.4738563368829893
pha 0.6033062827804331
vet@@ 0.5831349517677343
Kath@@ 0.42860645589816204
ein 0.014633475719935863
unt 0.3981364584124257
Coll@@ 0.48205974293806847
Diam@@ 0.8708426200872686
Martin@@ 1
Bruno 1
e.@@ 0.3968861032266105
British 0.07232576746206493
BT 0.954739319975374
Out 0.6149082469199922
nan 1
yi 0.5335594201688416
Lak@@ 0.5351226858789582
sho@@ 0.08925530450059618
Sz@@ 0.40071218911487755
Brad@@ 0.5751614669673625
ills 0.19019837347102803
chen 0.06831703674398856
sar 1
Trav@@ 0.6230670126304838
Daw@@ 0.762063205923904
ngu@@ 1
Pseud@@ 1
Gabri@@ 1
rat 0.2678531936590559
Nec@@ 1
Theatre 0.33656376816569167
Suz@@ 0.915039271591496
arry 0.6773844099436858
aven 0.6472311845860779
court 0.15564017442496472
Brand@@ 0.3863402478650595
ids 0.17214763334469002
M.@@ 0.6782850256450395
SI@@ 1
1854 0.7490164892738226
Fas@@ 0.6525873141936754
North@@ 0.38235932365044767
Luxemb@@ 0.7638216647762796
Aj@@ 1
Š@@ 0.6291612344248033
HD 0.8456967536521462
Flam@@ 1
1814 0.9267702921555034
Bad 0.4576140860266833
aj 0.8236049234987032
also 0.013213453890694296
Walker 0.7123326510140761
acy 0.1496837352483814
Alice 0.7228373845184565
Ye@@ 0.553610775140188
Pay@@ 0.9862616710430308
lem 0.23136464298040893
1855 0.7456436070456073
Dig@@ 0.9269224460908386
Post 0.34914388149757386
onne 0.20143690662967478
Biz@@ 1
Amér@@ 1
Alaska 0.9367868348638196
Ray@@ 1
ants 0.0400415829995909
AF 0.6516148184114983
ag 0.3717176115054652
atem@@ 1
Il 0.02379665782810634
Band 0.20809104387189684
CH@@ 0.5171607458409704
geb@@ 0.1033746940680072
Airlines 0.9766569147242188
Fres@@ 0.8285962373942092
Bernard 0.5738635207854895
esh 0.291912812320618
from 0.006450260957748822
IS 0.7242775021935356
ment 0.031470122791407436
Channel 0.5309050634567559
Roy@@ 0.7029412407823014
umi@@ 0.8219050648656288
VA 0.9693926952193025
Dro@@ 0.5566516545655907
raf@@ 1
Raf@@ 1
uza 1
ng 0.5141357630684548
Jonathan 0.8774810160233019
eth@@ 0.1564907942985373
Marc 0.7055686450448829
Benjamin 0.6819944444446798
Micro@@ 1
toman 0.6519012071172368
Wag@@ 0.5611748393714193
Che@@ 0.671137155123773
Sports 0.3723207366352021
yst@@ 0.24835287856928714
Dance 0.721483926722769
seu@@ 1
Roy 0.7179044608951766
Liverpool 0.6530372619530952
Restaur@@ 0.8489464814824119
tech@@ 1
fan 0.45913029111290404
Ñ@@ 1
Municipal@@ 1
rie 0.38993912207293313
Harris 0.6907272128665579
Hud@@ 0.6880377427864954
Tim 0.7508947596115092
Dave 0.7455320578938134
eppe 0.8994027525809204
15,@@ 1
eti 0.5642409798622857
Raj@@ 0.42522806825014964
but@@ 0.3166392630064578
King@@ 0.6090027265590585
IP 0.7627235466947383
folk 0.4497771710605869
ty@@ 0.19594995366720913
tz 0.6170364079787046
stone 0.2198096948314062
opo 1
14.@@ 0.9529975826870676
Carlo 1
CBS 0.7846809375628276
oes 0.4560501699224673
chester 0.4285083608531202
Fair@@ 0.5857435738458558
Gé@@ 1
5000 1
1851 0.7555354612397501
IG@@ 0.6878958045391822
sch 0.13164825072359895
boy 0.44001443661118833
ror 0.5918964413875666
120@@ 0.8563869570212757
ords 0.19288247075668852
Naz@@ 0.7735689804641922
Asoci@@ 1
Matthe@@ 0.6301207965113025
CC 0.5920995038167828
Press 0.4592505426272385
owski 0.6042937278021687
1842 0.8888378777770224
Sali@@ 1
ady 0.366798007398861
1835 0.8879475380221044
õ@@ 1
folia 1
Berg@@ 0.27460975037586
UTC 1
view 0.09252914822467548
lug@@ 0.5408091207184522
Of 0.36584207343105024
Wa@@ 0.5218613886637992
Um@@ 0.13996340064664223
Nan@@ 0.9726798455374102
Dead 0.9420866150944295
Claude 0.5694614961477504
Wayne 0.8784775188873534
Co 0.40897239945931435
ater 0.1329928257670858
BI 0.7324869611018083
ancy 0.3493270945584304
Marshall 0.7625614465583432
EN@@ 1
Né@@ 1
Good@@ 0.6597564441108609
uba 1
Lec@@ 0.9675040037206362
Prin@@ 0.45993262257671547
Award 0.13232029427571504
bin 0.4488663117885613
Jacob 0.7156774292921757
Robin 0.9431827385271928
ective 0.13603921431792113
deli@@ 0.3092557805677998
risto 1
sun@@ 0.41455398353537315
Jap@@ 1
za@@ 0.6426981620961191
ted 0.018477007759546117
Mom@@ 0.924022929951462
Angeles 0.19441703605445715
Lie@@ 0.33463343902102
To 0.1950511679070629
1825 1
Exper@@ 0.738011103240911
chen@@ 0.30983704949268187
Swe@@ 0.2986538424944496
Li 0.6652917238469299
lier 0.3259862509411676
60@@ 0.7798192213776951
bis 0.0225736597932139
Ax@@ 0.9352677168724449
ams 0.17411378698025767
Sad@@ 0.7317824426652221
imal 0.40753944240367435
Pear@@ 0.6636301654089721
Bud@@ 0.2754542949766921
Dow@@ 0.4411433523519215
Di 1
Georges 0.5568279404157611
cim@@ 1
101 0.7696678980616485
FO@@ 1
NASA 1
agi@@ 0.9486285023237274
124@@ 0.8784291462072703
Wright 0.7434251637822933
1853 0.7577561375411694
very 0.06421586653230398
param@@ 0.6713991625382696
Be 0.834797543973188
ennis 0.8447422435732733
enz 0.22925803920761442
augh@@ 0.4314420184851478
CE 0.5447805688361165
Linux 1
Women 0.18626084726536282
sep@@ 1
Golden 0.4148786697155546
PO@@ 1
yg@@ 0.4455189450190265
ennes 0.1791841447712937
hop 0.9434559419097353
sional 0.3056785955406097
ostr@@ 1
ric 0.5191063028852347
yth@@ 0.21464819737320512
Nobel 1
mund 0.5195689440915574
nes@@ 0.7051303066518577
Magazine 0.552780262258684
Bien 0.8001347650536906
Nas@@ 0.7326590971314056
Hop@@ 0.6231174324500562
Global 0.6327580810281226
aster 0.4074015775536989
Leo 0.8675813642800758
atum 0.7114876812809534
Shin@@ 1
35@@ 0.7317353544683419
cle 0.2028858157613874
oks 0.3159771923221505
Hamp@@ 0.4730813794501847
eiro 1
Mac 0.9668450241840583
dis 0.7422796971808242
gs 0.20854796357469116
Khan 0.47801812598498766
our@@ 0.10512861121615569
plut@@ 1
Shel@@ 0.8145156832239835
din 0.5102569392946738
fab@@ 1
esi 0.204784798493248
Alter@@ 0.5123609905725308
oba 0.9159190863771606
cide 1
Post@@ 0.45549315497044995
Rud@@ 0.6867982087459218
ated 0.012401828566355596
ders 0.12079159654190136
Metal 0.8980244512943995
ks@@ 0.16273501134245513
1845 0.7834967566924372
aden 0.32775998485685054
kiló@@ 1
Square 0.553164790197521
RS 0.6720846028495848
ambul@@ 1
Best 0.17929812950848426
oman 0.6825150493531145
roman@@ 1
1847 0.7693673449384288
1834 0.8925725034716882
món 1
är@@ 0.1031258336720921
alif@@ 1
ight@@ 0.3370857440096755
metr@@ 1
UK 0.16291540164303528
1852 0.7214460403086898
Baden 0.6116976533302788
ely 0.04713763170360641
iler@@ 0.8034530685646409
https 1
eph@@ 0.35878028842884174
Lanc@@ 0.541473031173965
tz@@ 0.669582848129318
empre 1
Good 0.6322055368825799
Heinrich 0.31352852641875156
aris 1
Soc@@ 1
Hin@@ 0.22904233641363925
17,@@ 1
Grant 0.6680160833654871
ues 0.1166631576746328
unk@@ 0.1510844490735616
Dark 0.8549835036656566
Benedi@@ 0.8462817852156167
Buff@@ 0.5875406307296279
deter@@ 0.7328511760892821
Museum 0.1476489719960271
idi 0.46119691530049484
1849 0.6739663768235017
Acc@@ 0.5534881791027745
diam@@ 0.38083688398382975
Games 0.2177497446762786
ères 0.09046033149028262
itt 0.5171335382506841
Jordan 0.6372489303000616
ement 0.02121492516938417
BS 0.5732293288522404
phy 0.34422789773572393
Tas@@ 0.4350167383000699
Lawrence 0.6219114866681393
ref 0.5240886998709999
Mong@@ 0.6952381215904209
iger 0.11044439571169543
liqu@@ 0.35185429318334904
feld 0.23112831962017216
zy@@ 0.2909116690259831
attle 0.3971230130635258
rique 1
MO@@ 0.8415166602201818
This 0.030627644019749944
sh 0.4928088052236138
vi 0.5682960602638043
hil 0.676066520746477
ī@@ 0.6488974665737314
Shir@@ 0.8779027719415413
unca 1
Girls 0.6998097647269067
Kis@@ 0.9095229437109728
ness 0.11568244004328657
Port 0.3515878050183326
2.000 1
Say@@ 0.9766537850526714
aine 0.1075228433867655
unter 0.04136068158530247
Pand@@ 0.9810251343260256
tier 0.23826384912702267
NBC 0.7385982287191625
Dod@@ 0.7140883794044102
201@@ 0.8977796204316617
Toy@@ 0.874050929792132
MC 0.7041454643338467
Jazz 0.5465391681053952
Boeing 1
æ@@ 0.7172038669521962
Academy 0.1622214250769924
Bra@@ 0.6874250919238099
Charlotte 0.6243861354494993
dale 0.5212293166440842
1824 1
ilde 1
1836 0.8178894811926077
Syl@@ 0.6935509476869671
bit 0.30278351719399776
Zh@@ 0.783389816992558
sche 0.17813369727841621
Ox@@ 0.7156008785760956
Robinson 0.6974929323348548
wer 0.10860780340948542
J.@@ 0.5751770837411905
Manchester 0.422006577672218
Bour@@ 0.41861719294967814
ois 0.2641730372299501
Inform@@ 0.5815807708493589
actr@@ 0.31445100514151497
town 0.06338468146454992
non 0.06547054344159069
Mau@@ 0.5358403180278749
IP@@ 0.8630384403731863
Spir@@ 0.5377285741366202
yu 0.9344313805683278
360 0.9255986641355701
Cho@@ 0.8210782682963209
Thor@@ 0.6425685871942235
maz@@ 1
Sea 0.32247706475498206
Kle@@ 0.27997104357298913
Nati@@ 0.23998267536170598
Chic@@ 1
Mez@@ 1
tier@@ 0.7794702001947108
Gü@@ 0.45860356564277854
venti@@ 0.5068153018779773
1823 1
haz@@ 0.817363054458818
Rach@@ 0.8372758110396976
minim@@ 0.395884065769764
ingi@@ 1
lés 1
obi@@ 0.7462355691347113
indu@@ 1
oud 0.3885497752499311
Point 0.40584211068173986
pit@@ 0.3530323928670196
Carol@@ 0.5730307650167662
criti@@ 0.4549199292261658
vill@@ 0.7250110569111349
chor@@ 0.44328968593570006
L.@@ 0.853774276175553
kur@@ 0.13148884344726755
Chal@@ 0.9430650737687073
16.@@ 1
1846 0.7289765704457861
1837 0.7879386063744143
1839 0.8168668467587085
esh@@ 0.33364336805892897
HMS 0.7749122459552348
tren@@ 1
princip@@ 0.5001900056114648
CO 0.8090148469797035
kat@@ 0.2529717650220862
bor 0.48734848119620877
Hat@@ 0.6124320577738454
rid 0.6626986616350552
Kel@@ 0.46375659354828014
Tow@@ 0.39511469996045656
Java 0.9948098622554673
ï@@ 0.14170398380134816
Alexand@@ 0.45741348817541255
Alabama 0.5572659157688981
annes 0.7133314609382074
Maurice 0.5685776288671487
Way 0.6946957692757352
ô@@ 0.1558458331181614
Ec@@ 0.560506745821501
Philip 0.5196120147786039
Gary 0.7379078434326368
outh 0.16576720125746658
Ach@@ 0.4055016846765973
aha 0.5712291647625901
bran@@ 0.16041413320615922
eme 0.1227922922500518
cher@@ 0.26501318075711017
ls 0.17774608882883292
Play 0.6848905074999438
dam 0.3946304822405502
ect 0.05783328065615649
nus 0.806968675384156
stadt 0.13835915975492488
aye 0.32675094856410225
ouse 0.43848360553237453
sex 0.23926862150732497
System 0.2646709578161651
Beg@@ 0.22906321598668422
Jul@@ 0.7516951183901895
ful 0.09593912762275748
Tag@@ 0.3971562064854538
Fot@@ 0.748986307058822
Hit@@ 0.6898687100155055
ations 0.015752499574966924
eur 0.059150303728463825
Phoen@@ 0.7465911101975405
Stanley 0.6302329135523774
wald 0.3405295279214372
vor 0.04929735247425135
1844 0.7839618450690119
urus 1
her 0.01433547591596407
Ein@@ 0.050921089725585705
stitut@@ 0.3301190077336753
1815 0.7052325062039585
teria 1
15.@@ 0.9508549205908159
Steph@@ 0.5659480519905496
wick 0.5577820085380304
Pow@@ 0.5038385666132006
aska 0.815582512644665
bul 1
Cha@@ 0.9882886410073353
Kab@@ 0.3648858188696376
numér@@ 0.6498072417616692
Sup@@ 0.41037773116261245
Rep@@ 0.9834294502065318
750 1
bon 0.20049729914185088
Iron 0.7391055571616824
Memorial 0.4471209551043672
Baz@@ 1
eston 0.5296300093389336
105 0.8302390227519073
Lad@@ 0.6434191054001269
Tier@@ 0.8076787404105141
onder@@ 0.39092764347773246
yl 0.3241146342507855
DO@@ 0.8424277267509453
Pok@@ 0.4308898201274534
aque 0.42036575103572515
vend@@ 0.669832162079826
act 0.08334142447931325
War 0.05942400343243998
Moon 0.7156562509824742
alt 0.16876020386702065
Great 0.16875096656150057
Mey@@ 0.5799737890571907
1811 1
1838 0.7732091816881963
Jay 0.8216180962564661
lard 0.5214859945983779
Tou@@ 0.33580537398711435
EC@@ 0.9938019910354964
LC 0.5080619279914776
Town 0.24667463239533355
hockey 0.35551716080757345
Saf@@ 0.4956046469360318
ř@@ 0.5488966937554657
Trump 0.6303763239800863
eck@@ 0.16437565087573447
What 0.5002180019633553
SN@@ 0.7085991689459228
ku 0.6849974186142535
kov@@ 0.7104182532229444
Kent 0.6236173468336758
dra@@ 0.10456862998402351
1200 1
Thompson 0.6290664461036912
com 0.729020459842093
atmos@@ 0.5780442772489741
Dipl@@ 0.6844485540110474
Tennessee 0.4443381987302185
borough 0.37989244864762994
embre 1
Heart 0.6528862515565066
Nicolas 0.5721886836938358
fli@@ 0.6106638497532856
1841 0.7659862977378593
wi@@ 0.20255454677428186
aina 1
isi 0.20181661533310052
Buil@@ 0.3358349976361349
incor@@ 1
pig@@ 0.9749835273669634
Under@@ 0.5557927006662035
AG@@ 0.8514136917765811
att 0.46311413562682474
sion 0.03920328410685646
Sever@@ 0.341757564134805
dispos@@ 0.6114778001189296
Facebook 0.9093035174286745
prac@@ 0.5375055497323116
Campbell 0.6398907739114904
1822 1
hosp@@ 1
€ 0.7011813539080002
dose 1
Science 0.21868403491207403
municipal@@ 1
Jack@@ 0.5895936303444752
yd@@ 0.44436913397234185
F.@@ 1
ection 0.07603447157731742
Television 0.45784486533780844
éri@@ 0.08545456911492467
omp@@ 1
Studio 0.5319481835727699
Orange 0.6772692592888089
Fen@@ 0.5077698473941725
Division 0.09207315190325445
Gaz@@ 0.6848204358182022
Beng@@ 0.4464690287565785
Madag@@ 1
Margaret 0.5420612595926552
Gul@@ 0.3502926028504219
Vor@@ 0.047513706858932046
Ian 0.7502070520316534
has@@ 0.4256501712980972
Bod@@ 0.33155559304264876
Bun@@ 0.4566791174300604
Tib@@ 0.551150709841022
imi 0.48772424286936383
Yel@@ 0.7570170339067134
ów 0.37931447992786105
ott 0.4415850861481541
xon 0.7177615974010934
wan 0.30620516160480105
wo@@ 0.1066091070667613
ols 0.17928157598429065
shows 0.18649607600861193
aç@@ 0.283754576717564
1843 0.774665552155494
Vik@@ 0.40898447797092125
hep@@ 1
zu 0.0116997308686869
iti 0.5041216177009356
yon@@ 0.2507563843758286
Wy@@ 0.5491267944229887
dium 0.4224930074653211
onc@@ 0.3283699921751473
Stewart 0.6121457811817103
cut@@ 0.29970347264727915
Chir@@ 0.9798970200810209
Herz@@ 0.31700828743155873
As 0.04583825637279991
Vincent 0.5773680059316797
sil 0.534780976330053
LO@@ 1
tour 0.11660916024069622
Gros@@ 0.7905705040198479
sid@@ 0.6265629082894455
Opera 0.6026448543450801
Univers@@ 1
Thom@@ 0.7765083986647449
RT@@ 0.5926155814285411
1808 0.9501781011938764
amia 1
1813 0.8329625227298836
Space 0.46450605168982173
Ludwig 0.36034200388248505
maj@@ 0.42588471276983253
Melbourne 0.40842563480783844
ward 0.10085888214780342
ê@@ 0.1086261245851632
Maryland 0.44648878825589156
Stadium 0.3238719726315629
tt@@ 0.317974788246587
H.@@ 0.8846340832819161
aph@@ 0.4185017988454949
Arkansas 0.6479246475425995
B.@@ 0.580907953834771
itch 0.27595388801856185
zur@@ 0.7122724039937326
SM 0.7942834765819549
burgh 0.2591264210586413
Pra@@ 0.3696278958494216
17.@@ 0.9467309775180366
orn 0.5132579766494715
18,@@ 1
lon 0.3670335170430276
Brothers 0.6173339640597032
Anth@@ 0.7308229419304528
ana@@ 0.6397541332646836
Sas@@ 1
Grim@@ 0.7681801171176484
Ses@@ 0.9042667106619566
ović 0.7572813104748558
ulia 1
oko 0.9438624442805255
SD 0.8441582108455298
Death 0.3664159867932573
Uta@@ 0.6498082899089577
GB 0.556361245261188
AG 0.3414695055599991
reti@@ 0.27871040421729004
Guy 0.641761175316661
Kap@@ 0.22796728480709968
Sky 0.7269156233016932
450 0.9015925069827184
ien@@ 0.5049067040903966
Budap@@ 0.8294700729055986
ader 0.26294808190212193
Ath@@ 0.2753286863827383
ry@@ 0.7064325862613438
Hot@@ 0.5915670828241446
1600 1
ony 0.13738660951331788
eim 0.32291234124492424
Rat@@ 0.5920379988554202
Zu@@ 0.4493810887709237
Dim@@ 0.8805985506695678
tri 0.8607815433502559
Gel@@ 0.1952340333271442
TO@@ 0.962598686458327
tof@@ 1
ça 0.43836346421447736
uni 0.7073972995864073
semi 0.28548737743518127
Galax@@ 0.9327046736011927
1826 0.8840783529825351
Bush 0.6892094110713609
Sn@@ 0.7898471929214832
Commun@@ 0.1723206659628181
RT 0.6169373108713921
zz@@ 0.561019999046114
Bed@@ 0.29108136684197955
170 0.8488147032612354
sev@@ 0.5954139054291484
Lé@@ 0.3575691058239591
Rid@@ 0.5701595917445469
Anat@@ 1
manuel 0.6533930815698198
Py@@ 0.47988135511154395
Cou@@ 0.5443509691208801
Sl@@ 0.6057436089997736
ture 0.04657095178523124
Art@@ 0.6923069856830927
Ann 0.6163750085273411
Tour@@ 0.16239858889645736
Bach 0.6958931309188895
Lap@@ 0.9243615436811353
Sap@@ 0.9553335565635074
Cros@@ 0.5518589239555111
oux 0.5736419858964074
pp 0.5996324104689128
reli@@ 0.40769576842976973
USS 0.698899016198197
ends 0.09206867619835256
kir@@ 0.2646252488271721
ld@@ 0.3074063175679612
Apr@@ 1
BO@@ 1
Bres@@ 0.6746388569959675
Norman 0.6153601477112912
Kim@@ 0.7936103423269912
oda 1
tac@@ 0.4532326767617793
eber@@ 0.6303204466797219
val 0.4920109491537605
0s 0.04722810369166398
Rock@@ 0.6405045713521855
stat@@ 0.08428089407977321
acomp@@ 1
vik@@ 1
Ontario 0.3114600748911323
Cen@@ 1
Sound 0.5750893046952505
Angola 1
angers 0.3702438964648175
P.@@ 0.9915674016132975
Cór@@ 1
inge 0.43355939488000356
Songs 0.5122538770108606
Priv@@ 0.47529347948065204
ait 0.03659396153260171
enge 0.2473561383617511
kel 0.1864731207908289
Sund@@ 0.29284328091687956
Map@@ 0.8327645604747522
Express 0.5100056008368798
Dum@@ 0.6990999353848815
Last 0.6282523411537438
dre@@ 0.1145590007421637
1829 0.8278351469243972
TS 0.7481737668198956
Toul@@ 0.572018846319126
fé@@ 0.285593624867629
opp@@ 0.1404342972026906
Chart 0.6231214858347043
ef 0.1499810994771084
CP 0.7736440339448033
Fred 0.6465654106164488
DI 0.8628158930522553
Theod@@ 0.48592855589336514
Comput@@ 0.5741160389224619
ods 0.1019352760940199
1831 0.748710259589025
Nep@@ 0.596169626496647
now 0.05186389516503031
codice 0.6144459417973482
ron 0.6819405173929184
ph 0.47554822330138885
GP@@ 0.9383866044079961
SS@@ 0.3983073822671676
County 0.046407249224274034
Laz@@ 1
USD 0.9139621043402609
ision 0.20319706710829094
Ernst 0.4006938140247839
Schwar@@ 0.30181571424678283
1828 0.8035474129156538
Adolf 0.6150103230250461
Reich 0.5116652736876048
Venez@@ 1
Ster@@ 0.4476444141839103
hibi@@ 0.19033512903807673
Latin 0.2649796416801683
Rav@@ 0.6487872989943481
Bang@@ 0.5366592665754795
Out@@ 0.32269659394970934
Bask@@ 1
dh@@ 0.18197503097367423
ree 0.284090366988705
Wur@@ 0.6765918744084186
miz@@ 1
South@@ 0.3570159161919509
ave@@ 0.3133514289056354
lands 0.08984218871328048
20.@@ 0.9685160511696018
Sci@@ 0.4773892965745155
now@@ 0.26048236338563285
1832 0.7031936576891903
Georg 0.33573652481350186
Herbert 0.5545861551490275
oug@@ 0.32704016823208554
Da 0.21531731447582889
CN 0.9227306903456205
ishi 0.7808756546952683
PP@@ 0.954989562536572
alen 0.16148429457013827
3,5 1
ndi@@ 1
He 0.009107535433499897
Water@@ 0.4863150102957164
Bundesliga 0.517065587456678
jed@@ 1
Research 0.19262215817669306
enko 0.8867537714995206
cela 0.48578830395086314
ulan 1
Baker 0.6424738447967516
Kentucky 0.44960307030627994
ums 0.08867090078696081
Math@@ 0.27707383979353106
Aleksand@@ 1
GM 0.7615894824225008
dorf 0.22970278583039946
kan 0.3622839579511303
Bron@@ 0.35769777932753644
Japan 0.11495463108982124
iria 1
daf@@ 1
For 0.06980409211644654
hat@@ 0.3820815394221948
That 0.22107759036977132
Yar@@ 1
Light 0.4509039192504088
ina@@ 1
Ny@@ 0.6334061354857663
Day@@ 0.7010580811338447
Zi@@ 0.23360856619530648
ouver 0.5447112143589868
ats@@ 0.20110421376824236
ense@@ 0.31729993468382645
18.@@ 0.9386748625421629
Ma 0.7315486341274996
wen@@ 0.1058385806611057
öl@@ 0.11410054519624542
Zen@@ 0.5146545853244741
ires 0.10793606558301687
Muhammad 0.6437754539258363
enten 0.1512760724405331
ever@@ 0.2607761454164147
Gold 0.29161856238715367
ecti@@ 1
An 0.08506223061591127
s.@@ 1
Glo@@ 0.5650203799334843
zen 0.08881154564634393
Program@@ 0.40124550885144317
36@@ 0.7813595630652934
bek@@ 0.12962469178145591
First 0.11635895600911422
tern 0.09443237244654344
istan 0.3149543628566761
Kurt 0.71223655347648
Back 0.6478074385542525
anum 1
ML 0.7909869557548932
46@@ 1
Force 0.1639221215403906
Mob@@ 0.4458606600624806
avi 0.7200461317429535
olan 0.150032118182518
SE 0.854037423244803
Wel@@ 0.27061025626586943
abi 0.8860416562073339
119@@ 0.8575315134340983
agog@@ 0.35790426186216023
34@@ 0.7646884833299191
azz@@ 0.6852130904165966
orig@@ 0.23275203566317668
Connecticut 0.4998020104590087
Wiki@@ 1
Well@@ 0.5013254222737593
Gem@@ 0.2768510729075761
dae 1
33@@ 0.7291116694548946
37@@ 0.795374413432483
ka@@ 0.8131321678110036
Dé@@ 0.1793081926636335
int 0.21959234105139266
AV@@ 0.8310045513011821
Dres@@ 0.8654186754039228
wards 0.18146139707994718
May 0.04229723592807529
ways 0.09415813768785201
19,@@ 1
Arsenal 1
Tat@@ 0.5374620231121425
IF@@ 0.8600566971905619
Web 0.9209130624314346
bay@@ 0.5279806040818366
ön@@ 0.10727232658438901
unter@@ 0.03987297776690575
Master 0.30846232531859946
Panz@@ 0.6129938425484749
oc 0.6504576943491025
Griff@@ 0.5947984121559116
tric 0.1657168871519971
spe@@ 0.09624798962438533
IBM 0.9193105328130652
alli 0.8853338852320372
dian 0.473904585064486
occer 0.3461482685308041
Like 0.3497871778627475
20,@@ 1
bad 0.41343722077194606
Line 0.20714272505295236
Hart@@ 0.4712993371831118
burn 0.4645070192959943
Story 0.6410417772325459
Avenue 0.2636023723722969
facil@@ 0.3024589468819093
casting 0.31051984235045266
eh 0.43101891237582696
Hein@@ 0.4136686247154073
ités 0.13367612361523093
Bug@@ 0.8636170994819364
diese 0.09555494071099213
− 0.2940451916258324
Glas@@ 0.3532157040959353
temp@@ 0.7917188356879125
hua 0.7852160783530249
Liz@@ 0.8214187194555316
ather 0.18054566206490547
lif@@ 0.2925370711389138
Kun@@ 0.33452449718863864
ime@@ 1
Maine 0.5326438694587146
ems 0.08114186844312403
Shu@@ 0.8236279227984379
down 0.06370458546057158
toria 1
illi@@ 0.35864800802943564
bud@@ 0.29195356475564777
nier 0.2371786015195785
finanz@@ 0.4696047983913696
WW@@ 0.7758843081420985
UNESCO 0.8463980710574199
Volks@@ 0.19000125514323712
Sri 0.40362668439721805
Peti@@ 0.5193378708280318
rej@@ 0.2643930533033513
év@@ 0.13185208546407515
Tah@@ 1
bay 0.2213764304693609
Had@@ 0.5646659500686648
imbo 1
š 0.6930435073992822
Stars 0.5667161479180928
NS@@ 0.34273764990071026
gy 0.5069414229565646
bach@@ 0.31659346370099856
Dream 0.8096203612723878
lah 0.4666743613265997
og 0.4090925299454465
clim@@ 0.22411712064673892
BN 1
eine 0.010478588906620331
Ide@@ 0.45795465483360237
Thr@@ 0.24513065339054055
ive 0.1973069225298988
berger 0.29833985281389985
star@@ 0.09423605989760447
Antoine 0.5570429778088254
ilan 1
Syst@@ 0.23807312355714497
1816 0.7773433540171856
NH@@ 0.3130697971727711
Santi@@ 1
gin 0.27798909561626733
indo 1
erer 0.40727677778886345
45@@ 0.7577325857050788
Films 0.5158671864796185
kad@@ 0.5176794691490216
web@@ 0.21671580084284553
1817 0.8400644005759409
ough@@ 0.175054112065747
pers 0.3126200211842702
sand@@ 0.40597543681086723
Bapti@@ 0.36577169235382984
plo@@ 0.5695254961187111
Pass@@ 0.3088990968667537
Raymond 0.5908604792006075
ift 0.45481325549400425
MP 0.3581302365147491
Kot@@ 0.6761819320322395
enin 0.5274020819040489
Run@@ 0.5046235021464885
util@@ 0.39736246153527377
Eth@@ 0.36693560893000227
Hermann 0.4362524825046279
Land 0.14873620516283112
ape 0.1833358218051434
omi 1
Histori@@ 1
han@@ 0.3093333909938389
wn 0.06639147614872681
Conference 0.2173371677299562
1819 0.8566324203412707
kon@@ 0.06183277590913794
vier 0.09842399350996411
oka 0.8561654765749744
Bit@@ 0.6349607114452539
xe 0.16805784148394204
gom@@ 0.7144849190640026
T.@@ 1
How@@ 0.555805938377756
Roman@@ 0.4273414434495795
ose 0.17321652156188808
Ord@@ 0.3385082361102928
win@@ 0.07024118318875874
115@@ 0.8327350431180701
elly 0.6780284720003487
light 0.07485467738629153
Poli@@ 0.29038035306354004
ris@@ 0.11825666642122733
say@@ 0.11471502295767787
DP 0.3546915250827854
ici 0.39278642656384466
iche 0.218381254001114
uld 0.5834907431953358
Fire 0.45632550720819337
come 0.136735889461713
Family 0.2603490937853474
Wind@@ 0.3497391610574705
hus@@ 1
ains 0.06990983893568209
MS@@ 0.5976549404510909
Leipzig 0.3731082780605455
Leb@@ 0.25625767118323445
118@@ 0.8806076687834193
tak@@ 0.1715854786521169
Sainte 0.4128095093468537
UE@@ 1
endi 0.910380303608548
Uz@@ 0.8670985214021705
ène 0.14231944942142952
verb@@ 0.3435159569475968
sech@@ 0.6567515312015505
19.@@ 0.9095927138128536
End 0.5217746466749283
kal@@ 0.1501887834518322
Haz@@ 0.6604788996199651
emati@@ 0.12571632703417146
21.@@ 0.9599792402946896
stor@@ 0.10622013847437013
Barbara 0.5016382510908134
α 0.12152343443137173
Law@@ 0.4238687397383417
1809 0.8134370300568456
ful@@ 0.46886286470157995
38@@ 0.7114034519622321
album 0.02824334712464176
xico 1
ony@@ 0.22857492957494366
onz@@ 0.5032947457694351
Two 0.1519745351642811
sou@@ 0.046552557955591996
ò@@ 1
Off@@ 0.1262610902389931
haus@@ 0.29348237449564013
country 0.07417457863522929
1827 0.8038746287931988
II@@ 0.7151725819093959
uses 0.07717021877797112
Spor@@ 0.6938952956373472
Cross 0.2900425936946146
Mang@@ 0.5794759163721829
lau@@ 0.23505375481126678
asha 1
1.5 0.6101822928965668
Summer 0.16872718607401935
Frederick 0.41216887513752853
you 0.13409962952037505
lit 0.13573644086423609
onald 0.9293157104140075
afe 0.6094533125823225
ature 0.07527715211442468
ń@@ 0.49069389110693695
cht 0.08706126600664073
isher 0.3502320389016371
wh@@ 0.06058803975569576
main 0.04812674797018703
2.0 0.914004222776276
Daily 0.531877409226515
star 0.19154284537750108
Ey@@ 0.9515753833645134
Europe 0.07376948610633438
inde 0.19508411612458135
aret 0.8273181526305728
pris@@ 0.3303723893766348
Tay@@ 1
Prince 0.19759123514748886
ischer 0.049278426112246046
ring 0.18217982085137402
opter@@ 0.9765005711943731
chan@@ 0.151330680827183
uer 0.39095311612054195
102 0.7649946118606701
final@@ 0.9232203099070732
lang@@ 0.12838953057914537
paro@@ 0.6012741949620555
135 0.8357531754112946
Hoh@@ 0.3451712941983955
ael 1
eds 0.11036798587846797
eb 0.48448442341306175
4000 1
ode 0.15595461754874018
eum 0.41713598086172804
andi 0.8292067707516498
Enter@@ 0.5933137650767666
Fam@@ 0.5903746856673502
uru 0.6695136369651676
Č@@ 0.6059723388230878
Denis 0.6333692226007238
Will@@ 0.4846046238968257
Project 0.3414964958440981
Yah@@ 1
ahn 0.3484535338364186
zer 0.24483931719756438
Val 0.6125599445471424
128 0.8932384089310609
DF 0.5014528217199131
Chelsea 0.8774941501235468
Amat@@ 0.45481419847565036
ames 0.2752112567991737
istes 0.1358679238241018
1.000 1
mini 0.689671207823108
VP 0.5271475628717041
Dj@@ 0.7161913812844629
tum 0.4467833575834899
Bass@@ 0.5334661054915154
aro@@ 0.43529506690789443
Vog@@ 0.37035151220334844
Motor@@ 0.4254299645891457
1818 0.7065629069959974
Prof@@ 0.3028563333169201
sons 0.12222883626817582
tory 0.1793778780877391
Christi@@ 0.2638799962417918
gros@@ 0.3913240042870084
EC 0.7025663845292718
22.@@ 0.9055861395136726
inn 0.3582004612634481
Centre 0.15901479679684244
People 0.2035029824933925
Nah@@ 0.577501837503972
bron@@ 1
emen 0.22456456642882447
muda 1
ju 0.903727114299354
IB@@ 0.9581499546427272
SI 0.942020619436188
Anton 0.5458825187972302
Rah@@ 0.5032569220173303
clo@@ 0.21837160355978633
ambo 1
face 0.08735012491050541
Oreg@@ 1
egem@@ 1
ordenadas 1
Eug@@ 0.5593818250754634
AB 0.6210964388098509
Syn@@ 0.17336434123225564
Personal 0.20215393420826103
Spar@@ 0.3967000789422349
Hoff@@ 0.5130990362101717
enburg 0.22252958301575532
Ré@@ 0.12066978791752263
Ich@@ 1
out@@ 0.06296700529925538
ebe 0.37177147327993904
Singles 0.3758905554179729
ulu 0.40017958643584667
NFL 0.32847492030222936
try 0.07747647689116333
Foundation 0.21412601412661564
GA 0.5642766393846552
tom 0.22467777332264213
Kus@@ 0.7626206531660805
ege 0.2930851732828602
Yak@@ 0.8960820879628967
70@@ 0.6838888468415399
47@@ 0.8943133387489554
ute 0.09555253673470103
Party 0.07971411011897929
Tang@@ 1
say 0.2528333966232146
strong 0.1469225845336694
By@@ 0.31360743817638387
Philippe 0.3647823938539692
100@@ 0.7606918264257339
ISO 0.9404894802236596
1806 0.6273084738789527
Prix 0.20523762154126646
humo 1
10.000 1
Mann@@ 0.21482132710343227
Stre@@ 0.18139668177117746
PM 0.8468259750974331
Johannes 0.33435138556011856
ako 1
Ghana 0.6978233362124507
heavy 0.23597701001572194
Software 0.6378037264200316
ayan 0.43789661445221656
zin@@ 0.2802130818276355
Associ@@ 0.4095788555120034
arab@@ 0.5094593352432684
déj@@ 1
nik@@ 0.9990380409841136
Tanzania 1
Wolf 0.5511511687363633
isha 0.6031218147222253
rad 0.3870537005475358
kes 0.33730127283497496
1700 0.9641502180792468
104 0.7683990133492494
Key@@ 0.5335597241633739
valu@@ 0.3317817756780257
Motor 0.4160705834628649
Ther@@ 0.20976780426252592
22@@ 0.6138897484849717
sign@@ 0.1046319542466371
ground 0.07873622849854867
,000 0.20079809031733056
Up@@ 0.5667223598501249
tice 0.6787272829820801
lon@@ 0.5504633565359994
Stein@@ 0.21264053358404889
rid@@ 0.23280133931611974
got@@ 0.31310250304592335
eland 0.3128537284977021
gers 0.3427167338844248
neu@@ 0.14401273374942022
ild 0.3661159218281145
adounid@@ 1
phyl@@ 0.8614384401636436
less 0.06741652570744736
aku 1
Atlantic 0.273972762853338
Place 0.44712899204135353
115 0.8201777994059951
108 0.7927575568818309
Squ@@ 0.24683461865940287
head 0.06850894219234586
Hall@@ 0.5020205932635076
103 0.7947952163937321
NCAA 0.32100517129724554
arp@@ 1
ology 0.04655932698851082
ils 0.04316246417892562
ezo 1
ink 0.18326167422430553
tari 1
Fat@@ 0.9498219994785251
uti 1
1,2 1
.S. 0.6955624273720054
Kirch@@ 0.2412004120518002
39@@ 0.7328457907789976
Vier@@ 0.23094737673890342
TP 0.8444912789344462
£ 0.2022124093063777
Country 0.3112157128045268
by@@ 0.23968205759052758
109 0.8104652153514904
hang 0.26669088968610055
1789 0.7210625182732501
ages 0.02882005940205895
Vladimir 0.6755223470685016
21,@@ 1
Four 0.3029405827134926
49@@ 0.7044104109757449
Von 0.07509714359939405
sburg 0.18990254602448803
Forest 0.3136876946423366
Fort@@ 0.5667647018173985
Jag@@ 0.4035768824014748
aup@@ 0.41699229582548114
Hosp@@ 1
Vinc@@ 1
Urugu@@ 1
Jesus 0.3707965181570339
Over@@ 0.26606843737794844
ë 0.8279032557992635
Phili@@ 0.40943178452923396
asse 0.1660908850886693
Earth 0.23861121895220422
Rural 0.43177334922587157
220 0.7713872635506583
Benjam@@ 1
So 0.12733963595497996
istem@@ 1
Rit@@ 0.40652504631738845
zen@@ 0.24933701054089177
Ou@@ 0.37559300973526216
Tari@@ 0.9490137994239495
ingia 1
ö 0.6149971520310826
has 0.008785441360823307
Wer@@ 0.12022737186143423
ous@@ 0.1814730569669798
uten 0.2162281190445359
Hand@@ 0.09087980454519512
chap@@ 0.10851921206447955
Garc@@ 1
wa@@ 0.21234275673346048
Book 0.27080718429956546
dance 0.26505492563165134
Sib@@ 0.7626174018739592
jan@@ 0.7603733799988229
August 0.026646818775485054
opus 0.918378263591483
1790 0.6826220570855673
hen@@ 0.3183752409560663
uli 0.7996902285670956
HP 0.7714147703957264
1793 0.6281590888051594
Catherine 0.4244921774084141
but 0.010820364178835211
Dame 0.3589199006854733
22,@@ 1
ative 0.02507394552854264
Android 0.9358147029157955
lor 1
240 0.8886878987714357
Nur@@ 0.5319726081605095
Ni 1
imin@@ 0.4493907921600979
IO@@ 0.7617044684310422
amed 0.12881663586846762
~ 0.6543231186117899
Kö@@ 0.352113979743318
other 0.015455230401156412
hilo 1
Finanz@@ 0.40498941377395264
23.@@ 0.8046623758638176
Just 0.48131033518880695
Bin@@ 0.7774025407046087
mak@@ 0.0816875275638718
Champions 0.3688087834577694
auer 0.12022004924127419
cast 0.08392019569609198
Orig@@ 0.25923477532533123
2.5 0.6179856954972174
Buch@@ 0.1694225794466009
Sain@@ 0.4225757277671535
ampton 0.44742970648596403
Asp@@ 0.6271930415696502
Mountain 0.27886161457612807
26,@@ 1
singles 0.22894620056466533
acks 0.14101876352898893
24,@@ 1
Louise 0.5076773334982176
Western 0.10342730945284744
Cath@@ 0.2945212411633372
Sé@@ 0.3631359637910818
old@@ 0.22419421446016177
mel 0.5190510025823545
25,@@ 1
unge 0.34030535336988815
boy@@ 0.20311875111404437
sag@@ 0.37375804602334106
bel 0.41230049968284266
Der 0.01562851462667775
Charl@@ 0.47786711871034687
rapid@@ 0.5885023845608405
thy 0.19054117139816582
ā 0.6331947591286033
Nord@@ 0.09367496512363895
GC 0.743357677963578
Apol@@ 0.523097212979288
Free 0.3272220144648376
far 0.1544168095045099
ě@@ 0.5576616543592918
quar@@ 0.0682823106053461
Lud@@ 0.432585620466627
icum 1
aman 0.5845420304698875
bat 0.24724457284731483
wagen 0.3349486366841058
Pacific 0.1615741243868567
107 0.8017959542519505
odes 0.1436521281263286
use@@ 0.36328064489271017
emann 0.5822456785339934
illon 0.32995901045363046
tienne 0.3570854602366759
Broad@@ 0.3437622572136851
Freder@@ 0.7226633857088046
0,5 0.959377877191879
Sym@@ 0.2709991408860821
Kum@@ 0.42117614310366563
lery 0.22941707330212868
anthus 1
asti@@ 0.23183119321808707
zon@@ 1
born 0.02369877326751814
106 0.7550023956674439
fi 0.7038905264455365
ś@@ 0.5873732227218482
ying 0.04290168944114882
High@@ 0.30384389586848487
mon 0.45343555138010716
111 0.7960160953989145
gel 0.2098796761249133
arius 0.7634678170735784
Ago@@ 1
HT@@ 0.8014023942081643
Salz@@ 0.3516789712316337
Model 0.49625112262492044
FF 0.5110700045913806
IT 0.5551496141815474
eux 0.07097604851998977
ayn@@ 0.6480186682484159
Ble@@ 0.4721818191957217
Wrest@@ 1
1792 0.6805024246494199
Uganda 0.7696078606195808
ily 0.13033050216689762
quier 1
Chem@@ 0.20356225584814636
† 0.0759406461753741
John@@ 0.5646113607820481
Kre@@ 0.15223331657922562
4,5 1
gene 0.2650769309111953
Jak@@ 0.32847438698472525
anie 0.3445798003890702
mad 0.6772950296352886
óvenes 1
Eas@@ 0.49759198354977446
Nach@@ 0.08429531238691564
ombo 1
Reich@@ 0.19650120779822353
112 0.7952423225055139
114@@ 0.8241077169929151
rag@@ 0.31469007896467593
dru@@ 0.12079584104574756
imm@@ 0.16939296025081158
pper 0.2500131604764425
rim@@ 1
Now 0.4216441628903161
music 0.041984150866835275
90@@ 0.7278763865679374
edy 0.1587825369823936
Ander@@ 0.3968359428775982
Yas@@ 0.9192631945147911
Hass@@ 0.5607643036017741
éni@@ 0.3220153146545291
Aster@@ 0.6970968893000767
aker 0.19970937612683676
CS 0.4670454846914907
anat@@ 1
athan 0.6130719057448644
futbol 1
Atlan@@ 0.46025722017164095
117@@ 0.8346435265756026
rive 0.2922563312503822
urt 0.3386314365574516
Wolfgang 0.4841742879459536
Comm@@ 0.1409068406906703
wil@@ 0.1365524545714737
Sti@@ 0.24108090298443471
ouv@@ 0.09858210199398101
1807 0.6846569461572778
1801 0.6307726367417785
édi@@ 0.18668823285012173
Flu@@ 0.3496806929183599
Business 0.25157134424482924
23,@@ 1
Basket@@ 0.3110193854639558
iff 0.26824387507475983
name 0.024800782476205718
ür@@ 0.06431323210321305
Anh@@ 0.2971310878466726
test 0.14444780117491124
single 0.04317366869322765
ives 0.1262734751758865
Schw@@ 0.11298039940241
Luf@@ 0.3574784156960916
ush 0.29982278336878926
48@@ 0.7924804311710291
27,@@ 1
tle 0.2690930537735217
vat@@ 0.9122641975418633
dioc@@ 0.2793863328696798
motor@@ 0.3107422861313998
Field 0.24502377456146948
Rac@@ 0.6517200092425633
oslav@@ 1
isch@@ 0.06452804337901852
stock 0.21538527418495612
Four@@ 0.38732060359582365
hir 0.6069519159936503
aks 0.2092567805535655
Hut@@ 0.5485117144424838
320 0.9465119600514191
Guill@@ 1
Fried@@ 0.1673288377151738
mouth 0.23973038076053124
Major 0.18112383308053762
eka 0.7187005563160679
Hispania 1
Not 0.36671823222317
ads 0.10798285108920962
Stil@@ 0.33277836363184704
sung 0.3875659581148469
Banglad@@ 0.3773392343954503
gli@@ 0.20122062710560684
ș@@ 0.4205476987887213
atu 0.8611999531585477
Milan 0.37039043567184016
bers 0.09152099020044688
Neb@@ 0.5183595799014911
fem@@ 0.16902489198474538
rang@@ 0.2194781287983658
1794 0.68717991611214
Edu@@ 0.7220104993801975
History 0.04540306472887896
ladi@@ 0.9316562061975274
Mess@@ 0.3016219018841287
ands 0.06535223972065919
ī 0.6175676959065369
rier 0.2491000804983123
Mount 0.20603047299940885
Queensland 0.30016705245205294
2500 1
Stuttgart 0.407915320045717
sha 0.8449873975970651
FL 0.2636623470775512
25.@@ 0.8029615671252964
1803 0.579672219205703
emi 0.4411466310418497
1300 1
Hey@@ 0.633491273449051
bey 0.3028590218172361
1805 0.6739821896193918
pay@@ 0.13214245465234675
Law 0.15848545183755888
els@@ 0.10933385790340128
Gustav 0.5298940497535838
European 0.06391910787235369
och 0.2339556867423716
179@@ 0.6090209809008402
réc@@ 0.25968190635113597
Probl@@ 0.4335585566961634
App@@ 0.3162984443871463
ern 0.03099832342431539
kshire 0.39040276845707256
jana 1
Gö@@ 0.22435042454133242
Ō@@ 0.7612050048311757
gau@@ 0.4808576038099771
rich@@ 0.06609733375656779
Ž@@ 0.6539125570113253
sei 0.1349580730164763
Ins@@ 0.25744332870195025
Olimpi@@ 1
Hak@@ 0.5190330117514573
iner 0.22551950977424415
190 0.8546632133198211
Ard@@ 0.595448511726962
ason 0.12736265585537337
idir 0.8358196855156538
pia 1
otte 0.21313285980916677
Sud 0.1866234281126914
Plus 0.34032957826932886
sberg 0.3234929549477078
Alexandre 0.481466976681117
Materi@@ 0.3791711071922518
More 0.29395842905068564
Seb@@ 1
oir 0.11696307187324104
beck 0.40216267956550594
1795 0.6649015699111075
Was@@ 0.45251214260500144
Mih@@ 0.9600288072238984
Ris@@ 0.4431287293847348
Beh@@ 0.17882872636607716
Neur@@ 0.5495073526536356
kor@@ 0.14254590421405125
etz 0.20210769305175316
dier 0.29815132550319023
auc@@ 0.25834123109852913
Desp@@ 1
́ 0.05063441795819479
Leh@@ 0.2611712107447879
Zimbab@@ 0.8417561672734505
oul 0.3096851569135862
aume 0.4082079449344348
ulus 0.6449398592606133
Slo@@ 0.230538360718468
Battle 0.13992150115692376
44@@ 0.7909497579215207
24.@@ 0.7700300951742157
hara 1
Mexico 0.1315699006103331
Rudolf 0.41126860691685996
Jum@@ 0.8707284976106874
yat@@ 0.48220267724119276
Rhy@@ 0.4996635265637818
enna 0.2923381854037908
116@@ 0.825090765066876
1804 0.6640923201649419
Roman 0.09594411676451185
Schleswig 0.6467705402141997
Tenn@@ 0.3456046613640327
26.@@ 0.8014336869833573
unga 1
nu 0.6378185261032766
230 0.8692162382396819
Wak@@ 0.6285994749180824
ety 0.05576529699959947
pend@@ 0.15424266364043732
ande 0.2705672872435869
Sev@@ 0.654738502705177
Gast@@ 0.4045723650279056
kw@@ 0.26138288537609855
Head 0.303806746357407
yu@@ 1
Classi@@ 0.32918169281876114
hai 0.09569026861324018
tat@@ 0.8858128627140519
uka 0.7340910651500949
water 0.0479265453923587
Ferdinand 0.34353020992883554
sah@@ 0.5232780941711467
plu@@ 0.5058500165376253
utar@@ 1
Am 0.04282354831575456
alam@@ 1
not 0.00923676579596917
Ost@@ 0.15482309485559728
113@@ 0.8206439596077186
undan 1
midt 0.47369294906539394
Lok@@ 0.2794390506339805
under 0.018698580571469982
tie 0.24302416251646639
Poly@@ 0.3043949952656523
Hockey 0.24625299412860002
kul@@ 0.1170322607069921
Wander@@ 0.43842932980560306
Futbol 1
Kul@@ 0.35530917081337104
ers@@ 0.2725314099867062
114 0.8289403880595296
Kob@@ 0.5053321422413074
Moy@@ 0.4109488624875972
123 0.8430016444375011
1802 0.6159369652177566
qua 0.15744791766578367
imar@@ 0.8637415643053243
Ltd 0.38794796962423006
è 0.5467830179037745
175 0.9040024030555591
127 0.803409228382297
From 0.0643141686999676
vall@@ 0.3450005568811734
Office 0.17102533255647873
agen 0.06409076136856222
urg 0.1918518799011179
ween 0.22562247990621437
kom@@ 0.0571743715743114
Canada 0.05682060013130906
dipl@@ 0.3637857108396293
1799 0.71285658700954
pon 0.20828688955729588
ross 0.6219294737034187
ob 0.22073063300809254
Gest@@ 0.25864794945595
num@@ 0.09561490433650312
turn@@ 0.6992107931448838
1791 0.7139184066934025
entin 0.34200296162330124
Nig@@ 0.44582995254687574
Yer@@ 0.8209788941724506
lu 0.28730927377727167
bridge 0.12799376364917683
Ear@@ 0.366017835405463
Batt@@ 0.2373647155134412
With 0.07563754132757063
Þ@@ 1
ellen@@ 0.2799598541204744
inti@@ 1
210 0.8403301263936166
ahl 0.2701285410287829
Church 0.06301167241063596
65@@ 0.7549429617732404
Meh@@ 0.5131491475507571
Sph@@ 0.7699163618738367
ausen 0.2736295294169844
β 0.5325016189904934
craft 0.3263792734403094
ule 0.10985752375443464
eps 0.27818318573363077
55@@ 0.745200368589381
dex 0.39614111755252834
kers 0.09683203787393142
ories 0.06358455412800348
Alman@@ 1
1798 0.6282716386847867
ē@@ 1
haw@@ 0.8208781496601114
Mars 0.45979179679196214
Southern 0.14121013719502884
113 0.7907295449758441
away 0.07765109075113952
yon 0.406013525052281
fried 0.38233941350184947
Duke 0.2081381602903128
Roh@@ 0.30692386821373124
Inn@@ 0.22342799800152555
124 0.8375145110886596
host@@ 0.10775689736216174
Dak@@ 0.9121908612909798
You@@ 1
ving 0.06328147521925537
God 0.1776324700882784
Penn@@ 0.6744639268881941
Kno@@ 0.319969024933536
ý@@ 0.9813092076516144
isch 0.03619690762382041
kar 0.4376531613582158
Kay@@ 0.6036683785573062
match 0.05029205818881981
ru 0.7053262737463541
י@@ 1
dition 0.08798576046459171
endra 0.3729457694197792
alie 0.246634558349665
Temple 0.27143973263910737
Tok@@ 0.7501808699628915
122 0.7771527033890165
kina 0.9249611418455614
new 0.0168231084237909
Yun@@ 0.8647222894478415
Ł@@ 0.5017784374147619
track 0.07038941816829158
coll@@ 0.06098184196354047
än@@ 0.04276612487450713
get 0.05690965501709107
dre 0.21171727615254177
ói 0.8648644725976941
jet@@ 0.4244960172408721
Gren@@ 0.36867920745314936
Columb@@ 0.5677131930171222
1797 0.6867617240072759
121 0.8155192521514099
Stur@@ 0.3954894140754528
Deutsche 0.22574586614000694
Berlin 0.055229067492954885
Gle@@ 0.38918733682152923
Kad@@ 0.26331952720549745
ext 0.5087867683305769
Ere@@ 0.4016930734933117
lies 0.07392328754233556
ties 0.02747014290136502
Andreas 0.438269661571262
CEO 0.34794129128062545
Ng@@ 0.19546197907886498
260 0.9256518174272277
traf@@ 0.13404933275362974
Ass@@ 0.3533484176344077
mark 0.10689722667689308
aches 0.12542807701293568
amount 0.17810838638063292
atz@@ 0.19555275415178708
eler 0.13233900719666314
î@@ 0.10887795780991692
Speci@@ 0.4165844145369095
Mim@@ 1
NAS@@ 0.6518407328089348
Ahmed 0.5768779607150191
ock@@ 0.15215524077739884
116 0.8230026691003111
Three 0.18045020245407267
Over 0.22826022113232988
pata 1
Philadelphia 0.20549383476519475
Eisen@@ 0.1726116574595092
leva 1
elop@@ 1
Aug@@ 0.29543180194968993
English 0.046632372713159814
pole 0.22735750531938606
dou@@ 0.06939415850913701
ische 0.016075766154588975
ophie 0.18557356283784124
Chor@@ 0.3336072435600157
acle 0.26531602846924335
ating 0.018418310729407607
Navy 0.11291673043216838
ę@@ 0.38096136382103374
edil@@ 0.4699255932813629
gens 0.3881642309873809
Bret@@ 0.6026716132933896
And 0.23700506020340106
Mab@@ 0.9719675314044025
phy@@ 0.30385043235814335
atic 0.0916643482615449
rain 0.23086048386016647
oll 0.3306938866875505
43@@ 0.8117644655596621
She 0.019578610158387355
Service 0.11330794455301917
agne 0.13537394960968424
650 0.8742883034063157
aise 0.10982870924526972
155 0.9242440397984151
Famili@@ 0.21417671266766142
gil@@ 1
126 0.7931204763718911
Aff@@ 0.14098841324062372
dren 0.31854841153637165
eten 0.05888979544697253
get@@ 0.08840220034534459
eil@@ 0.17617283846419557
Techn@@ 0.1479713648139518
isia 0.8733532782564739
Ligue 0.253319845972565
ò 0.5290706255546648
rik 0.5936517154298404
Human 0.27777542107991887
witz 0.431602443382821
Instrum@@ 0.35002574419394855
ede@@ 0.5454163466144786
heim@@ 0.20284368510055922
Festiv@@ 0.7466293853637114
für 0.006959564079329818
hap@@ 0.13824517165634392
550 0.8410323616820715
pen 0.18819098089959257
Castle 0.2086921933698618
einer 0.013107585953776684
quer 0.26568961035415
27.@@ 0.7168482785848835
ý 0.1915039045818287
Josef 0.3478267991914455
Werner 0.45222346147411296
aires 0.03902840524520695
flav@@ 0.5697894622870614
SV 0.27589876527555923
ead 0.19151781717560049
if 0.04121104998627917
280 0.8774769270141407
oon 0.23598609085896108
cy@@ 0.14482674954925054
Main@@ 0.2448454889489779
lao 1
1400 0.9494772293710962
± 1
bed@@ 0.11358434979295434
Bill@@ 0.5948742977521156
khe@@ 0.3005418426501387
117 0.7521173174799971
works 0.04960253997816303
fast 0.10320755261553212
bli@@ 0.23924310375081312
Chron@@ 0.3296256129088689
330 0.935518246160893
itable 0.17890360226416357
ä 0.5975422137644253
mus 0.3858376798901327
Chrys@@ 0.8911369159863054
Bridge 0.19553140081114775
Tokyo 0.22859772667866532
dom 0.21915910917973894
bei 0.011481323085568852
Mann 0.2048258515000271
Scot@@ 0.27936906029268854
Olympi@@ 0.30520086857136774
plex 0.33779646655122575
Notre 0.3381608925635399
elin 0.49777856854776376
usiana 1
Fritz 0.4345553115492474
chez 0.1281027365995776
modi@@ 0.14483991434104235
132 0.9007780073670383
sera 0.15464400370419365
ois@@ 0.2211391030072509
Müller 0.44093284598865257
my@@ 0.1426525509296825
manufac@@ 0.6547156214966692
war 0.006564244873726392
SR 0.20247144242319795
éctr@@ 1
Laurent 0.45674380221341365
270 0.8926885308963357
mine 0.12900867937762953
refl@@ 0.16077654267224106
uss 0.1235273052163834
acher 0.10726770461869793
mex@@ 1
inger@@ 0.34670253858412337
eg 0.21250080611539207
Parlament@@ 0.6465528525935192
anni 1
Orchestra 0.30328574546873766
HC 0.44287966685050095
arts 0.1253720323368916
68@@ 0.7885648370023334
spi@@ 0.09953051510204007
kam@@ 0.25903127514194746
Thé@@ 0.3140221741433579
ls@@ 0.34614618443309314
SG 0.4361235489468769
bank 0.120065103456223
lich@@ 0.08446825965567045
ו@@ 1
Schne@@ 0.289304598435068
75@@ 0.6758796427696301
TH@@ 0.5567347792089579
ude 0.29798628950469525
Sach@@ 0.3139408441892063
had@@ 0.8057028709551918
Fré@@ 0.4209903463521135
Hau@@ 0.2995826800211813
shu@@ 0.3929331988332229
juli@@ 1
Theater 0.1891251237791089
ilian 0.19971928498660466
maxim@@ 0.12324776962888107
ə@@ 0.8528072732810804
eit@@ 0.19390962349410493
produz@@ 0.21958660123713397
mit 0.0042664813976300755
sibl@@ 0.18592916496481993
inen 0.15362965304029758
adil@@ 0.69460567452736
asser 0.27010082830944165
Wehr@@ 0.3375162945391536
145 0.802945875270991
When 0.04681640267275088
Special 0.20351755723258663
octo@@ 1
Franç@@ 0.2815834415193528
eget@@ 0.9963121185089986
oun 0.38772364190582365
dit 0.07288222445744057
atia 0.35293912638251274
edi 0.3311710429422284
ôme 0.2546652854256513
Frank@@ 0.3011702041453614
Standard 0.3225132685769953
Sax@@ 0.3066592194353114
Archit@@ 0.2019486204445429
aim@@ 0.18868862528231167
phon@@ 0.18420815773487698
nam 0.18696216783179603
Koh@@ 0.2435140355976484
aide 0.14677949545095265
omon 0.45012267010805695
vie 0.08173190958293923
118 0.7851348655798609
wor@@ 0.026062548976622045
Gott@@ 0.3694953250200602
Bremen 0.422599526735902
tors 0.046768712716798486
Dru@@ 0.1790186837803084
awi 0.6466586491461203
mid@@ 0.07506510059501234
7,5 0.8449492035043064
Modern 0.27037198446694544
Chi 0.5323155111535174
Coast 0.1646971454220118
Public 0.12198917194137417
Wan@@ 0.7318097913401423
erine 0.7322728603915094
Pf@@ 0.09998465877594277
olds 0.12577352587337184
Sey@@ 0.6571663438601453
enter 0.13320820664710506
hit 0.10750563608786681
57@@ 0.7879843162212853
Year 0.12385231667997522
won 0.023860874976355657
right 0.05310637613491682
École 0.263639561788747
380 0.974955878896963
hat 0.03146140714245171
Empire 0.09177147123637089
Limited 0.3547873060518799
lay@@ 0.12956262093622115
General@@ 0.22566522879729883
cover 0.1049247057871045
trad@@ 0.17762298914681277
vet 0.48424731458265635
@ 1
tou@@ 0.09559826945004846
dy@@ 0.3519327840261054
kol@@ 0.17773576046702136
ith@@ 0.3144392661526446
acht 0.05699944806587237
thor@@ 0.253574974095597
Paragu@@ 1
sau@@ 0.17679443084035457
world 0.03776240702131052
Vy@@ 0.8497856798237479
hiz@@ 0.6293668119706382
trit@@ 0.33120374486948906
strat@@ 0.34110668705522146
kab@@ 0.28155047058847454
Colomb@@ 1
Strat@@ 0.26933002982018767
iyi 0.5701689840560105
Kut@@ 0.6201776032379733
night 0.0931653519881653
U.S. 0.043751257744448185
vain@@ 0.3706335841955213
Kid@@ 0.6830048749848473
table 0.11269776987365829
Dau@@ 0.4196523521223951
Orch@@ 0.42795331855875735
kus 0.31046660361650175
manufactur@@ 0.13300684619210126
Bayern 0.26346203092817305
Wild@@ 0.2306573821613189
stitu@@ 0.1935689978839298
Kag@@ 0.9565690351727205
NGC 0.2205403730634188
guer@@ 0.285098011582063
bid@@ 0.5001135184091247
chac@@ 0.3348829319534852
129 0.8034068199644329
Chel@@ 0.5696002111898307
fiel@@ 0.11248938777218204
Station 0.10787838053244862
Ö@@ 0.13272222992118865
Julius 0.39214888659804453
Sok@@ 0.702439009376436
mada 1
3.5 0.5861150637360776
castle 0.1648968597471612
ait@@ 1
ading 0.09782111293235614
tive 0.03458040218577391
itr@@ 0.34336226838218076
leb@@ 0.16676997026929977
prise 0.10616316391671203
Inc. 0.22009532634732298
Sign@@ 0.29152091592774504
sl@@ 0.11752781420079486
bai 0.3130940464921544
macht 0.22530315505866533
Kem@@ 0.46111768298260153
met 0.04950194029049906
→ 0.49530886211688363
Wein@@ 0.23834679628274788
Maf@@ 0.829855116088207
juni@@ 0.18975950985405393
Abdul@@ 0.5585653371098379
Nord 0.09656438995465484
brahim 0.6863457123807676
pur 0.25158804664106943
unds 0.060329622402602485
Kak@@ 0.7119403442330117
enea 1
ouvre 0.19563518110374128
End@@ 0.24396225773305458
Fall 0.20150870920011454
aly@@ 0.13403272687245854
fix@@ 0.13113646977920201
Sonn@@ 0.24757955578531632
western 0.07181779852486887
Aleks@@ 1
Kri@@ 0.15835889322894303
ustos 1
inson 0.8549141854418654
Pyr@@ 0.40379832902337726
Regi@@ 0.5150289124684037
west 0.03410569402223005
Mün@@ 0.12962770204216847
sz@@ 0.3158374806460648
yak@@ 0.39960221110263316
publican 0.14213018561270516
Management 0.1988514067266349
area 0.022681094399422317
Canadian 0.07581273595453719
wak@@ 0.17820515019605707
ː 1
Obj@@ 0.20793185639250095
echt 0.37042499516846317
119 0.8145312495561027
German@@ 0.3383416684935323
fonso 1
ffe 0.1555971846949495
Hannover 0.35794468589955664
ird 0.21826428978620754
pot 0.2477074787359375
eki 0.7933735774522886
adem@@ 0.46306720134854334
enti 0.881924216222222
sta@@ 0.1781614309048383
Tag 0.183867464103042
cript 0.1655469324245445
sten 0.028238581067357656
Nap@@ 0.3270402917159914
yor@@ 1
tain 0.0411782164564774
chev@@ 0.14284439488465098
iser 0.1387454414637121
nis@@ 0.3540716447810453
56@@ 0.7533433798401431
If 0.10839358461740994
​ 0.47432063381281053
Dad@@ 0.37693004086106996
ος 0.06476209654861598
Michigan 0.1273759258351135
sions 0.05084938450675819
mani 1
stream 0.1510600240592835
gues 0.19519228296581578
phil@@ 0.2300278135983284
hiv@@ 1
Phone 0.7659318454080991
Sieg@@ 0.15019233037590823
zon 0.6578470524845522
NS 0.36589135925104166
igne 0.266636647035776
bak@@ 0.20442275915208394
tn@@ 0.13773421613707199
Council 0.05022572263263683
taine 0.23235241551997243
sap@@ 0.6604198786308649
uren 0.18128098699371556
Na 0.5680576968205523
print 0.14680599812813971
ship 0.030658591006121512
53@@ 0.7883891834215767
Winter 0.169297762918153
199@@ 0.10006137074332988
Bish@@ 0.13660163984946588
Coun@@ 0.1441485504853665
States 0.01973044731525109
ishing 0.05993528286226717
auté 0.26123647957628476
`@@ 1
58@@ 0.7726039333790237
tem 0.252154024623421
illi 0.3541760464012773
Development 0.13289238462520814
Under 0.13403031067088597
Mek@@ 0.6233255305771289
round 0.044158463316074356
lus 0.4353802473759849
DR 0.40044251975420875
hausen 0.21815114662570717
zer@@ 0.14549698049434548
König@@ 0.08939322774013109
e. 0.16832844300421787
was 0.0009729668162477354
Rug@@ 1
than 0.01588669610442236
Ek@@ 0.5818961529859971
ã@@ 0.8551876651988292
lib@@ 0.14350456600149067
Act 0.07297138714271015
gun 0.1537548985528564
pein@@ 0.12880751645131547
wid@@ 0.05048366666794147
nin@@ 0.1959133541194713
Born 0.16767016782155827
got 0.11579369265724535
Hof@@ 0.18342295032528375
lich 0.016123491282520216
wing 0.03744346021323407
DV@@ 0.5546953876165481
egel 0.2575985492952495
life 0.020016937110211932
Technology 0.17074347720878708
bea 1
flo@@ 0.04660486001720551
-- 0.5435909116569797
eting 0.4540849122633537
ping 0.14781287874769947
bourne 0.6835195871163364
sport 0.12909375759035738
pom@@ 0.37710505708785463
onidae 1
oss 0.20513659771199633
ism 0.03010600780074392
ün@@ 0.04385224729833119
Canadi@@ 0.5561825295949517
^ 1
ications 0.16171779929708963
Du 0.22274983577814517
eke 0.5390704027897074
Alliance 0.2464334799561646
Barcel@@ 0.7321262309941846
Elis@@ 1
anan 0.38223209123798396
bad@@ 0.23045622374818894
cid@@ 1
aji 0.4283103286108938
inci 0.589973845365004
edom 0.16067593897965948
sein 0.025336395724443624
histor@@ 0.061440334432053795
enth@@ 0.0969841595179493
usiano 1
kaz@@ 0.6029755465869489
üt@@ 0.06225508516560106
ampi@@ 1
ibar 1
č 0.6239729429809184
152 0.7700659817432997
Roll@@ 0.5251357367063052
Miss@@ 0.3464686916644122
tur 0.11017984380152632
Sydney 0.125049544001588
band 0.027658562896783236
ya@@ 0.6700314244851605
Justice 0.14272953791895157
Ent@@ 0.06551358002229603
59@@ 0.7624646250872766
egen 0.06174975952597832
Amer@@ 0.24700559932735955
case 0.05247594401034216
Rak@@ 0.38067478284387096
anzo 1
Zer@@ 0.3894918467669852
cell@@ 0.06354429936250935
obi 0.9477879461355038
Mr@@ 0.23020442127684104
ize 0.0830578294486899
âteau 0.4048393331228426
INSE@@ 0.6579517505278598
meng@@ 1
Gusta@@ 0.7104522994125148
nel 0.12677623816871594
enton@@ 1
Nazi 0.282908171200597
haus 0.10937102873408637
spr@@ 0.03879137999316224
ć@@ 0.6022557647392628
Elisabeth 0.337288076228874
ahl@@ 0.08901439092218102
Tek@@ 0.4927711034661743
ammed 0.3821430154918527
gaz@@ 0.5753765218597365
67@@ 0.7470346598348117
Court 0.06129714084433447
Gut@@ 0.24933220226361935
Turk@@ 0.17200138287923755
champ@@ 0.4298288688400814
chia 0.30788415231746386
thing 0.08546845810391886
Napo@@ 1
azu 0.30250628138929536
card 0.18385208454882965
sed 0.03967306922628824
zia 0.8453768201600995
mbal@@ 1
Reichs@@ 0.17508168148747133
Wolf@@ 0.43911682386788325
osi 0.8819262018883576
tain@@ 0.08065542100519527
ì 0.42391278040597263
erek 0.26352142631603864
chr@@ 0.139130383342795
Must@@ 0.8402336658213839
sie 0.009552054235692317
ceph@@ 0.834908214333618
seau 0.2260902409329489
isse 0.06615776257046449
ilim@@ 1
Film@@ 0.11461356140979867
sters 0.22256322397096154
Jung@@ 0.27764248893533255
diesen 0.11800890127348086
board 0.06509309573723557
March 0.020953035777327406
66@@ 0.8016662040475458
forman@@ 0.33496895194362836
kt 0.04008198525645
lion 0.0859541725326729
Revolution 0.16146909925407535
law 0.03945693498957413
nin 0.10472198958260716
Kah@@ 0.5862168447698635
ayar@@ 1
sing 0.05555865696613424
ehr@@ 0.07756512066811264
gang@@ 0.1337294297656675
Ili@@ 1
iki@@ 1
Wis@@ 0.46545050111208847
Kingdom 0.07993288561510131
chn@@ 0.3784078622469296
uf 0.180303867144156
ebo@@ 0.29729861374378763
Anc@@ 1
bourg 0.1086884024821166
fire 0.07001268824131772
hav@@ 0.08927382267593421
Pé@@ 0.40138175619305966
eff@@ 0.0256075125183945
anya 0.4045823435406817
Sos@@ 0.8686338363993762
AK@@ 0.4990053409467238
nuc@@ 0.45304286079310213
nah@@ 0.15249324832238764
abi@@ 1
ski@@ 0.205119670698608
ël 0.2233068340430456
blin 0.16402544481741796
Hr@@ 0.8888768458467149
tronic 0.19277472342116073
Sciences 0.1610834911655777
har 0.43481069027640146
¨ 1
Spi@@ 0.17054943594203387
other@@ 0.12605099784270932
ă 0.683371414484663
Nis@@ 0.8978934420356364
Design 0.1729015697514299
itzer 0.22249549898427792
wealth 0.14855935550340912
namo 0.7010988805121195
bora 1
tique 0.06764655901995811
Das 0.013028882553801217
aten 0.034462009114762944
dil 0.8324812219401625
pool 0.22550059767540567
sana 1
tag 0.11457934033865044
Sek@@ 0.13829288292283767
Schul@@ 0.07243255046763124
Ut@@ 0.584507100238722
Eliz@@ 1
afi 1
99@@ 0.7901927863066549
Cô@@ 0.3320920508934602
angel@@ 0.4333035378821072
dle 0.08899461724357488
Indian 0.05256993378494097
Trich@@ 0.5851951995822638
body 0.051622505370385596
Gmina 0.3299773422711143
ahi 0.5123373330805898
ül@@ 0.09847810503854988
py@@ 0.32744919297481473
Hind@@ 0.3952524292639702
Å@@ 0.6697066752220466
Earl 0.18169621423623353
omy@@ 0.57270109167019
vel 1
master 0.10850228501159077
England 0.035009434727341165
zt 0.12088184481972238
book 0.03363024704136403
utt@@ 0.5103696833846713
Hali@@ 0.4157938388541311
Publi@@ 0.48738682433735586
wel@@ 0.07408072274984924
Ç@@ 0.09935965678054351
Africa 0.06826912037277624
lik@@ 0.06323704881827845
ü 0.1035289271528288
cou@@ 0.04309803560701722
ées 0.012024558329019476
Oy@@ 0.4420742686678638
imba 1
bou@@ 0.12026069838886123
mim@@ 0.5650218336468211
Guillaume 0.31043025257709195
öh@@ 0.05645719258084773
communes 0.09552291235020213
gu 0.7587958371433211
phia 0.5797124138424103
Main 0.1258727334744124
Album 0.09544801565598923
pak@@ 0.5580563638763717
propos@@ 0.05328487898105343
After 0.015784328561634364
ophyl@@ 0.6882800131217891
him 0.012295422173538023
mail 0.2753706379688285
wol@@ 0.2620119045988577
inat@@ 1
ché 0.1789742438112265
né 0.031929075707572904
baz@@ 0.6200381403283425
sonr@@ 1
assi@@ 0.125843778334148
eling 0.13988025045175448
unde 0.11326914402880502
Fame 0.19302625713400098
that 0.0018831955639042341
Alli@@ 0.19159334574715323
Rech@@ 0.14663369920530508
Burg@@ 0.21415529960962998
moto 1
endem@@ 0.17781356846286023
Uru@@ 1
cipe 1
ising 0.09120044309845743
lim 0.14484363967965244
mah@@ 0.3064450736787698
ographi@@ 0.08350611996876547
bian 0.17462814609164384
eil 0.10807104596234329
inden 0.1113184970338722
Mal 0.12774278938318642
fu 0.6599728768520096
chef 0.08991761063773608
Board 0.08855250459817869
Produ@@ 0.24697130357780556
izi@@ 0.2607166219099934
signi@@ 0.18945993889883161
Ichneum@@ 1
ém 0.9182345804857507
ects 0.023759389559601753
small 0.03012826266633995
Town@@ 0.46582340306708014
mile 0.13691766913648074
aras@@ 0.7185667540038145
There 0.02325790207637032
anchi 1
K.@@ 0.6004102514126297
power 0.03869916209000318
August@@ 0.24330919062679848
lars 0.15736714031886737
Kamp@@ 0.12851278980162628
Frankfurt 0.16683948842875698
work 0.014672131858930008
Ś@@ 0.5397558865233839
sell 0.20502885384956696
Yes@@ 0.9154044493819211
sav@@ 0.07792254251880089
Wid@@ 0.1928825621049226
mut 0.3014401882778881
most@@ 1
led@@ 0.23926989076045743
abo@@ 0.3298843551272969
Johann@@ 0.3617618058623066
Muh@@ 0.6508032578022015
äl@@ 0.03686931589397457
rou@@ 0.05608576009086713
ˈ@@ 1
endel@@ 0.5561237219735817
kit@@ 0.2540920024179909
Paci@@ 0.633760196345742
grand@@ 0.09332089918938323
Wir@@ 0.08960588544683913
і@@ 0.494184097692313
kn@@ 0.07095142280861685
leist@@ 0.1401074058887315
sita 1
wn@@ 0.35548331310042225
voy@@ 0.0870632771456749
run@@ 0.07687333837595499
kay@@ 0.23848447027451694
self 0.05443438018506718
û@@ 0.10279297195144696
hen 0.22886513875883524
black 0.06513069861760246
sak@@ 0.41191373129452274
asit@@ 1
ident 0.041025364731592504
Institut 0.12003026840012959
Dah@@ 0.27263930212024456
kara 0.6314388653475905
Minister@@ 0.1779662684590831
Kro@@ 0.3441484572007348
Federation 0.161007779263122
style 0.03562364340065077
med 0.19574926175319443
½ 0.5855594776202152
Studi@@ 0.0707434195827746
Ira@@ 0.1532749734562862
Army 0.03995849643619457
ering 0.04978393372716312
wi 0.644421551249498
Société 0.22691728339695752
rd 0.09037891076587326
mama 1
ign 0.10078725175013886
Gord@@ 1
aifa 1
cyc@@ 0.20279974195654094
wall 0.10268882593584559
SK 0.3886206907978299
ń 0.4322155103507942
squ@@ 0.06831326082974663
Railway 0.08979688640285337
active 0.050852209790224305
rak@@ 0.39608809703021797
usi 0.8808600438384555
Bib@@ 0.42578346124287575
Winter@@ 0.16833994386383033
olf 0.4407514232534446
shi@@ 0.06070114918640838
hin 0.1414556505099382
endro@@ 0.30369677889187174
μ@@ 0.07183152438388027
saf@@ 0.08210756733031076
Macar@@ 1
aill@@ 0.13075113018915516
ammad 0.5487860649960269
alier 0.2002219301702766
ą@@ 0.37037810853945774
Bez@@ 0.136635430343406
Rail@@ 0.12922246958638586
app 0.1544183638585578
bra@@ 0.48934240665192763
Academ@@ 0.3163344226546362
Haus@@ 0.09286735858525985
Nou@@ 0.29679123142328395
eaux 0.09072284160000184
rel 0.2658958862436705
lag 0.051290551865629266
ahr@@ 0.06901585972523078
21@@ 0.8542525297865875
his 0.002191531744340379
At 0.021265379156188775
endorf 0.19445834268831813
kle@@ 0.11635833297763865
strateg@@ 0.10732806464680134
tien 0.11502497580158379
thus 0.07747292371301474
lie@@ 0.11989307809846848
Berg 0.22172107135423538
love 0.08606834541154731
Back@@ 0.09938092933385818
Braz@@ 0.19574404942066675
atin 0.1667467261773354
ç 0.1811019245146176
Australian 0.04589114139751187
ã 0.4053147235232614
senior 0.08064470727840053
lower 0.05610957694012637
Sour@@ 0.20418387448960765
ayr@@ 0.25088628366948645
erk@@ 0.058931571942867536
Cao 0.32797269588981626
Library 0.12830050426874953
itter 0.23455119641585265
performance 0.05240130672066721
febr@@ 1
Giov@@ 1
See 0.11407482125778133
Stand@@ 0.09106439609530138
Corps 0.0975992047152939
auf@@ 0.012437040057981298
etti@@ 0.26169853396321086
adan 0.3141328279860921
erre@@ 0.4667605457587429
ogne 0.23501444689737702
Canton 0.45960904391975804
Cem@@ 0.1777565197693214
SPD 0.25130744484351525
illing 0.08680885865437762
ț@@ 0.4314483326878001
kum@@ 0.1900580940574306
rh@@ 0.13095813285087543
aray 1
Seine 0.0627896906289946
Haf@@ 0.15948080203763448
Fest@@ 0.1338748688550559
onic 0.15358279736392896
Eis@@ 0.16500742171800079
Jah@@ 0.19360303178064803
Düssel@@ 0.24278025968938974
stil@@ 0.27152687095091466
big 0.12632434468313508
beg@@ 0.02699943688964986
arch 0.08447229984602084
Kav@@ 0.3438636294021534
chú 0.6508596085922231
kus@@ 0.2090102646202986
ş@@ 0.05817201090664275
poly@@ 0.11055053171251608
tham 0.12320778230604566
utz 0.18747835981574493
undi 0.660521708524055
ological 0.04090393621112606
Sa 0.09033892287495301
Community 0.13523584239235192
Stand 0.10672172964905112
cu 0.35096566126059103
this 0.005936174509286829
Phys@@ 0.17406787191703463
dizi 1
aland 0.6327650871071225
Lü@@ 0.2737275604572853
wo 0.03640619999016364
sous 0.0195073320023713
KK 0.5923968304849748
Sich@@ 0.47716280589573407
gal 0.9962435517830824
jen@@ 0.5149853440554804
ù 0.39957973068712516
stell@@ 0.07455070996860497
kaya 0.9144970309825198
spo@@ 0.05631871987260969
Yaz@@ 0.70012146466362
Gün@@ 0.27881197529810586
Eb@@ 0.11639291210439663
197@@ 0.07031924276541024
onds 0.14692745175682323
anah@@ 1
Vita 1
Kop@@ 0.12731527682667992
pour 0.004385201659370379
stop 0.11067690592617141
migu@@ 1
aliforni@@ 1
auch@@ 0.23496222244609827
Xu@@ 0.7701444424948819
Deutsch@@ 0.15456539059202257
Republic 0.06075900786654356
Hyp@@ 0.4066711555845392
anger@@ 0.15117996291646005
orta 0.8658298121644019
Sept@@ 1
enst@@ 0.09608988509552124
Second 0.06831571182815452
Hymenoptera 1
sive 0.025679630499997816
Pho@@ 0.705911499458879
French 0.02624293207411075
Mia 1
Schi@@ 0.15541271963185443
allen 0.08971977724765635
d. 0.1965582382992248
Tech@@ 0.20283853292568862
Stadi@@ 0.2666794055605226
kun@@ 0.15130488610323506
hem 0.22425697267044079
erst@@ 0.04971106632117065
entry 0.1155780968889372
ths 0.09630282354195246
isim@@ 0.7434325572045998
uko 1
Moun@@ 0.13557742481671764
Mark@@ 0.18813415584058243
Distribu@@ 0.16429622182449038
had 0.003646271834264851
suite 0.04370290988559148
inj@@ 0.08247207697228918
led 0.012851193336586306
Northern 0.07255149309098327
hao 0.6417119127014277
District 0.026354127144907778
Spiel@@ 0.04964888624393252
russ@@ 0.1375542157517924
sona 1
ober@@ 0.08515959156038085
okia 0.7747052493788731
syn@@ 0.04215304887119991
Herb@@ 0.23598776694960666
arian 0.06246811787959567
ø 0.6733725421269826
where 0.00871499297905866
hak@@ 0.29899038414333085
sport@@ 0.21050548878147374
Git@@ 0.2109335215496512
Kaiser 0.16294885833490244
Medical 0.13347424744414724
elling 0.05187652158122706
illes 0.1054904900922696
hand@@ 0.024474109320322582
Kara 0.795126108690896
--@@ 0.8549541360944759
ustry 0.31151394071460453
Name 0.06385745637093591
ause 0.06545049598450275
ency 0.029520305423434586
Schl@@ 0.11679405976105212
ails 0.08961792933834135
rend@@ 0.12148051165173046
Dut@@ 0.4704444229276979
Lew@@ 0.5304675407765115
andes 0.315687286875597
change 0.03087714977582887
bek 0.43135156704872724
open@@ 0.22801354967231988
malar@@ 0.4389546399065736
tival 1
orph@@ 0.1330723095123121
Vladi@@ 1
çon 0.23728897670772708
benz@@ 0.42606945339075236
Olymp@@ 0.3635928666919608
Philos@@ 0.11991079069347221
zin 0.23574460275266282
ening 0.08441238452803039
lub 0.30652677323186256
oise 0.20027792860100394
ר@@ 1
Health 0.09491306009349566
rant 0.07397840358101931
death 0.025460333845883157
Regional@@ 0.20543997284129598
ose@@ 0.8900770524314203
park 0.05136918068833188
aff 0.1815960655053851
Stra@@ 0.139815045864866
essen 0.08236088386639286
5,000 0.18424076903352082
baya 1
phe 0.1451088534489041
Ø@@ 0.7485366153344908
Meth@@ 0.1681950040320496
Sult@@ 1
aines 0.05809049449889149
ß 0.030145939548522595
Kaf@@ 0.4262027741606299
lose 0.1429653829469447
Nel@@ 0.7432896548066924
198@@ 0.20116589281064157
cros@@ 0.07411070136079465
cs 0.07202541632561091
ival@@ 0.25145344683971266
lik 0.13285950821663256
vert 0.20713701304121568
Ung@@ 0.13269949888561208
nay 0.16566086412308237
jum@@ 0.12253947512279971
dings 0.0966469006756855
lanc@@ 0.12860330349683827
sad@@ 0.36245487754190664
bán 0.23436507490185965
zel@@ 0.4254331880065693
fav@@ 0.12044841335674997
196@@ 0.06885862026709332
ì@@ 0.9025984473365967
Sold@@ 0.1766904446822402
ld 0.9663932300212436
sdorf 0.16116318246014258
alog 0.24116065572738657
Đ@@ 0.05392190121660986
apti@@ 0.9978700233415638
cartes 0.2563772169085223
syl@@ 0.24410807725534875
ording 0.07294734132025132
Eff@@ 0.16273184479952488
orer 0.23158858175055855
atre 0.1060550229572212
áu 0.9441231951813107
ż@@ 0.41782796825094987
א@@ 1
fique 0.13163667501971277
Christoph@@ 0.43429705256010986
ged 0.050085178023310334
marine 0.07591481637349803
taire 0.13089867312716275
orie 0.056141304841036306
bey@@ 0.6490218196389088
lois 0.18155140890466878
tere 0.13399315059206798
Ş@@ 0.11023850043483407
kho@@ 0.2848370996752714
recht 0.0971595986076162
anced 0.06500120959836261
road 0.028059842258553184
action 0.02102820751289385
Mission 0.16160685821278506
Type 0.21379880872968526
April 0.011528321260800011
long 0.017151676178670694
ʻ@@ 0.5226952741798567
brit@@ 1
ockey 0.38531638449316213
bí 0.978581153975144
ettes 0.11447326027716169
kö@@ 0.11708838922530901
yana 0.5006014230828384
Peru 0.23501023858692735
pén@@ 0.19953947364148278
Ehr@@ 0.09881208383030397
Front 0.13880042190862685
Siv@@ 0.529377684552862
clubs 0.07335776298386008
eko 1
ilg@@ 0.3105595479506727
fic 0.051230916973386206
pop@@ 0.6284149113545027
Way@@ 0.7039017784853889
ź 0.546034385065031
oft 0.0985114773813073
sci@@ 0.7448992684631285
alme 1
uku 0.7198310126094971
ς 0.1123216438309145
Services 0.13351726868840044
back@@ 0.07897810512488107
Isra@@ 0.24678563359695632
Missouri 0.11811888359794175
irs 0.05216747887728292
olm 0.18253662494657263
By 0.03321318054682044
hindi 1
Fé@@ 0.20637190670162017
abu 0.5643871312230753
ombe 0.5384207449617251
Ave@@ 0.8076961480124648
forte 0.20327988453750734
uch 0.10432289001694303
rate 0.05904335321646768
ambu@@ 1
esch@@ 0.06431288569069765
führer 0.1562067392920931
ned 0.04009319308175764
sis@@ 1
iken 0.14454173457163186
kop@@ 0.13338051155223252
Psych@@ 0.15803550571486352
190@@ 0.3978224682431282
teri 0.8608330753890696
princi@@ 0.15085447872467675
illet 0.4394086480252176
Wald@@ 0.1595598032803198
eser@@ 0.37451656769726577
isol@@ 0.10861109076782574
ê 0.17271744972027128
ա@@ 1
hut@@ 0.347243316081523
Kant@@ 0.20179236070970838
volution 0.1209505577776946
ities 0.029884241595283155
point 0.022840626240825054
yla 0.7524980565066345
Education 0.054914554425596514
kia 0.7564089907733992
Konstant@@ 0.5291405967568298
ologi@@ 0.20262999497992948
lake 0.11349887268851905
′ 0.4498356586504546
iku 0.8130397870607458
thi 0.12518261843510528
trong 0.00924541010970145
text 0.05475943762480856
bem@@ 0.2096742528074091
funden 0.6317201637702896
Song@@ 0.3454508014200298
Wad@@ 0.4733832590390725
room 0.053097218187542164
prior 0.08433855407266491
195@@ 0.08435287537721198
ineering 0.07132679776063364
mans 0.13393996233195118
sts 0.09326321316033477
inning 0.15883065693198456
vehic@@ 0.07227720622536607
later 0.009061402727701113
Bundes@@ 0.04147924805626458
immer 0.051459320281401356
vita 1
Kais@@ 0.13519294971111467
vice 0.06579473857688539
Another 0.08481265955883255
yas@@ 0.2660830565610298
oti 0.784241801107932
oid 0.07388004848772685
form 0.013347903828887746
20th 0.0829329145011799
four 0.013346016339959046
His 0.015762058169727946
stand 0.025952015407425918
ège 0.08187989297804268
formation 0.030936057889205313
phone 0.10544367979800283
wide 0.03679194062714683
Euro 0.11065478182259643
Marine 0.09764818767470808
Doug@@ 0.5959456660877364
Mai 0.03288849448979446
atz 0.1646055565326879
arn 0.1877251156023994
elde 0.3283999662478502
usse 0.2219750186199439
Eastern 0.07465133848110186
Route 0.05880610505981015
Irish 0.06702471802998627
plus 0.006538217595652189
eonato 1
Lt@@ 0.34398073199285173
brun@@ 0.25523073234669075
ainst 0.4250053276617168
new@@ 0.06749978914611653
Mara 1
constr@@ 0.40192269067127817
its@@ 0.1290893083833261
Rus 0.4974355432251125
kap@@ 0.07989338919781672
Renn@@ 0.18987383846043043
Other 0.04386407623486191
amber 0.12564684935470943
ő@@ 0.628123255230271
1,000 0.18489558283694593
isti 1
nationale 0.05024725749369652
non@@ 0.11787640399702082
ark 0.13955446771796529
Pennsylvania 0.07276231636674495
Fren@@ 0.6954051239988794
rent 0.09229436236105203
yal@@ 0.12504629316216573
zones 0.09899289574175285
stead 0.1569269150793673
sam 0.14559819342768004
מ@@ 1
oms 0.07758593107537314
rest 0.0569784415068677
đ@@ 0.03491954517293337
rim 0.42743428618559287
Rez@@ 0.17785807811907317
ilk 0.07285621792175033
onale 0.10949368506220969
ney@@ 0.47095303930097615
Milli@@ 0.11297061385556549
NCA@@ 0.6470117265722499
193@@ 0.10581137399429368
Des 0.06674605421171544
Middle 0.09008462713105171
ṣ@@ 1
Frei@@ 0.14895808375749733
wie 0.013767490575278393
rö@@ 0.1396670946507071
was@@ 0.06308602731915315
194@@ 0.17494869358710316
Mary@@ 0.5001817255367805
Grou@@ 0.20854964049930308
Feld@@ 0.1445263136599781
Unter@@ 0.023069793083711956
ational 0.0332021368922535
porter 0.0676544263431429
leri 0.04837675982183578
major 0.020929527144572895
Den 0.12090720161550807
Burundi 1
ა@@ 1
ffen 0.1007070860496808
pande 1
Inh@@ 0.14416752557172677
arak 0.1380802107528256
Code 0.161706461805664
Ai 0.4961728359624237
Gör@@ 0.3301077721962091
Sta@@ 0.131218308162098
center 0.03884114384364326
orf 0.24700818314219433
aku@@ 0.4135710011577791
indig@@ 0.15707401899150975
Elek@@ 0.13141313428962278
yk@@ 0.37094686760429213
Wales 0.059011675707045325
eign 0.04647996171384775
âtre 0.2207487712875553
Order 0.0773808620930103
kim@@ 0.29998531991650274
aint 0.1653490927295913
ehr 0.07680001852789145
Hous@@ 0.43984008271205893
gency 0.07381086773546155
mich@@ 0.9283087856654353
iques 0.07988857222301281
Heil@@ 0.09176626540594097
align 0.10248108057018672
ht 0.06977881515646077
issi@@ 0.6396777284676122
ority 0.04614479739098099
Cape 0.12061209342009514
aille 0.0868273284300201
ool 0.4210453585809452
ump 0.21222393763912456
ografia 1
ré 0.13870406989576728
tei 0.16303318832764124
izi 0.5730108271071449
ück 0.07003343880757468
ţ@@ 1
kri@@ 0.06633491085699739
put 0.03540230041999722
dér@@ 0.16458232086377858
α@@ 0.0698899711568736
Her 0.03895872154934055
ª@@ 1
Arsen@@ 1
Migu@@ 1
hui 0.06681973399507721
rom 0.3242414822004642
esha 0.7186173367934987
Loire 0.15753221775601056
Single 0.15917087010667516
­ 0.23415657355217745
aries 0.044347165511147583
loss@@ 0.1380186571679452
ists 0.016579930908514787
wns 0.06968728066709667
Graf@@ 0.09863505822973324
scope 0.20229880454335883
ogen 0.04600967303188675
odi 1
Rhein@@ 0.1150027092518357
bois 0.1106173913732235
kilom@@ 0.1479236815728814
Minn@@ 0.7772307472572445
det 0.07167520317662703
Oregon 0.12232270305586809
amu 0.42310717172664036
jit@@ 1
osto 1
subst@@ 0.08900714703038975
üb@@ 0.07416011321933283
ー@@ 1
tán 0.669295655866688
Highway 0.07625139017730909
Lö@@ 0.15885892220306363
Trab@@ 0.627000903533481
gé@@ 0.07427883558256454
ufac@@ 0.39753970697379737
like 0.01562238843401708
Syr@@ 0.2844619502364608
ppe 0.22813601927259197
Captain 0.10032940634502593
otur@@ 1
adam@@ 0.5400104139584648
itage 0.07570257754600537
word 0.05353613238733586
ecture 0.06054280689055716
Î@@ 0.2046873796131585
ports 0.03184530660427157
1,0@@ 0.37067916212205315
GmbH 0.13327503848983105
Klo@@ 0.13647866725389746
liche 0.010499242624387497
conn@@ 0.01864439419208775
Yug@@ 0.41125241968002396
anl@@ 0.0599082494675916
Heim@@ 0.11139057067666609
atrice 0.15577714297522036
eline 0.18901813271215984
law@@ 0.034190074590415426
Zw@@ 0.06458400779687662
olar@@ 0.11766300162511993
sti 0.9662770930625233
uter 0.05786421315627794
Antar@@ 0.16330746055405226
ember 0.10191519869630633
Ruh@@ 0.16572372407766015
type 0.029810644697413992
nak@@ 0.22946115805652345
usta@@ 1
Anf@@ 0.2396611466427493
lique 0.12083492455170278
sun 0.21620782490688614
BK 0.4834267715975858
ône 0.11049087381075427
orch@@ 0.08233095550153254
aking 0.055614142403689344
Compan@@ 0.34575260241669353
Kend@@ 0.465624444817514
doba 1
ô 0.0957734529465282
anz 0.13331154920212582
π 0.29710399210146304
eim@@ 0.16295562594157612
stri@@ 0.08395655832139749
Graf 0.1822937255701453
African 0.03995537585400421
Sultan 0.18160347507696034
Police 0.0892955367228557
Region 0.04510842865837272
angle 0.10352707318264333
eden@@ 0.08528856999914362
iku@@ 0.7847073914415419
Ital@@ 0.9798280156949712
ao@@ 0.5015329881094437
rue 0.06748800229601193
eben 0.032404169359473586
Kauf@@ 0.1635993409628221
Dar 0.9115073880061451
mili@@ 0.15214289489700863
place 0.009119227846749683
onym@@ 0.08390737719634385
river 0.04503231819623845
door 0.06336710823179809
hof 0.07989447280467363
ה@@ 1
adj@@ 0.08746825134468404
fore 0.038380627769518415
ainer 0.06606262161917992
icro@@ 1
utz@@ 0.08737410558235811
iç@@ 0.21662293013518444
rah@@ 0.2736515406528354
tures 0.0256983606953723
irk 0.1429990792298524
inz@@ 0.5956515268627103
nie 0.07284087439375456
ב@@ 1
dres@@ 0.04225837293942018
harmon@@ 0.09940220544497838
weight 0.05727896154831852
chem@@ 0.04473366784291642
Culture 0.11673258312757745
192@@ 0.9609035069832637
Guin@@ 0.44314382004423936
break 0.06737048700569684
ences 0.015424331096006239
Mosco@@ 0.08297345832163355
hood 0.048451857967449656
на 0.0011399860191162712
Histoire 0.05132646299236361
Spanish 0.042626991907372604
othe@@ 0.11824769191839377
vision 0.09104719687297856
Geb@@ 0.045879419777252024
ograph@@ 0.03642696290619784
shot 0.05768593658577026
ève 0.06604552430174984
burg@@ 0.18797431591120745
elor 0.09273603090155277
équ@@ 0.10195669551772502
Wen@@ 0.12349176264948915
Gramm@@ 0.2969650732967664
eig@@ 0.05442941515342634
alter 0.08820925311576291
þ@@ 1
brach@@ 0.3108924947677959
eurs 0.02376276915915218
Wilhel@@ 0.2297150637514028
Bahn 0.1358454459696187
ologies 0.10718355762980557
Most 0.050315011421192754
teur 0.022214340249362568
tah@@ 0.2747058262819468
Hoch@@ 0.04537070583080023
iran 1
icht 0.026484253957110692
devenir 0.1693722566298433
scher 0.04336049783544375
tek 0.2501362360600275
tracks 0.06838255275726252
lieu 0.03492519422828199
utu 0.6759389924941097
furt 0.2926079721367548
online 0.08142636568264644
10,000 0.17464915293022923
Académie 0.15776540042284906
tig 0.049092687176098375
ל@@ 1
dans 0.002284709793833686
hii 0.5864011051576061
ß@@ 0.026118109689024553
part 0.006705507340777662
poste 0.07401016492442704
teen 0.05303505668890191
Feb@@ 1
June 0.011968751138683077
minut@@ 1
dete 0.04790548567506583
lear@@ 0.042081776638877404
wes@@ 0.060081721612434406
main@@ 0.033315806351153825
pose 0.029947546304285772
Chu 0.3330482069023155
saba 1
then 0.007175046197944212
ehem@@ 0.321009149213805
neno 1
ledge 0.07420400099403658
fish 0.07010681514933051
Nam 0.04303489794855056
inté@@ 0.1471077833647338
Mississippi 0.12057672317969256
gether 0.2164615754905461
left 0.0159679575309797
nim@@ 1
stein@@ 0.10204727259785684
list 0.03144001058980193
rul@@ 0.05163879592869928
best 0.021040621307059287
kas@@ 0.15522114625294672
late 0.02021851499690433
German 0.01940399928375189
atas@@ 1
ł 0.5812965936578363
lywood 0.6519024882505773
staff 0.05593629020315241
thin 0.09434536945491488
ching 0.052657967757183344
young 0.03545650363758381
chini 0.7573382160686205
meister 0.07036030803832441
éch@@ 0.04401117410229147
çal@@ 0.3139352111767192
Philipp@@ 0.1425080841715755
termine 0.12508196152555862
Airport 0.07573617526606169
Ame@@ 0.6282524185447401
nament 0.11107864343996789
press 0.06488620253559736
ḥ@@ 0.8201387144457417
Bey 0.4078698118795145
Für@@ 0.09300376918235256
Nations 0.07100224500527295
They 0.012170633177379415
Wiener 0.13908107223609442
tivi@@ 0.4086959370736169
Rest@@ 0.22918237079583034
Uch@@ 1
upo 1
kes@@ 0.11123115464986784
tet 0.026851804068876953
æ 0.9116492724484377
Ankara 0.27641673785538134
å 0.5784978344346667
usha 0.8245335907313281
ography 0.02171493624230037
Lux@@ 0.5403791494961377
Mustafa 0.43708160424977355
affen 0.10708698492959641
dur 0.2539034620072534
pu 0.14089846831276195
Histor@@ 0.07543344239389979
Æ@@ 0.5952208861953004
List 0.039267718040953706
ṇ@@ 1
Sonder@@ 0.1559947631559943
fest 0.12577866606194535
Hung@@ 0.09832813948025655
üh@@ 0.04788822122595717
bile 0.0989310632376316
Anto@@ 0.6316206641557167
home 0.0146241969857353
tay@@ 0.8698238098035179
yel@@ 0.09161600955470925
Nieder@@ 0.03626623461948296
lern 0.09205944150939514
ended 0.014324428432391989
ysis 0.06069547261176746
ð 1
ש@@ 1
Zwe@@ 0.06252415834952615
airs 0.04667000179221167
izer 0.3573340307078619
ought 0.03067796819761953
ungen 0.005572742210011608
Stat@@ 0.12935457874450063
ation@@ 0.11004813081777667
iker 0.0558255016413905
µ@@ 0.5464500345604756
sian 0.07987274760873378
vière 0.38299268457874586
ership 0.05597895442948905
À@@ 1
Hydro@@ 0.2145086547703868
ved 0.012190145397521
biy@@ 0.4821236142578236
oire 0.08415677564668354
inet 0.07614637248919821
Kiy@@ 0.8751568186378886
opol@@ 0.4071819319037054
wana 1
Braun@@ 0.1686460453803459
efs 0.11684358791082981
riff 0.09940716036040628
dies 0.03468776384876723
œ@@ 0.0792662244765917
itung 0.05767310310958784
eshi 0.46753385208893883
chart 0.07295402915051963
iwa 0.5406984044230492
DNA 0.1058165655765752
position 0.013007718813105208
Ab 0.04768533087251877
Minh 0.15510591981759617
ifu@@ 0.9708583323305793
hul@@ 0.23404488997468376
2,000 0.18411109291625008
cred@@ 0.05522872250273424
fs 0.04017897431670593
vention 0.0339522810451951
ging 0.02730761517606434
iting 0.0699543298602625
sn@@ 0.08916994352359978
angi 0.47301289334885865
Elle 0.012273232975646763
urity 0.04149759585718493
Stud@@ 0.06782395848926144
oking 0.0681549002506987
Dop@@ 0.460353768438299
Marsh@@ 0.2510928697103013
Hawai@@ 0.11761600177462475
fall 0.030276318272917057
נ@@ 1
Ba 0.16693450079288444
âte@@ 0.3338914239728101
mid 0.03878401728213105
Spain 0.056271189393409984
Ż@@ 0.48295184308491695
ansa 0.8376807943119131
class 0.026446497332937417
Zanz@@ 1
fen 0.029720960762327407
ppi 1
ople 0.20438101080887555
Rund@@ 0.10724038856462556
semble 0.08127088416035064
uu 1
hio 0.9019608570396713
space 0.03908988682226061
vy@@ 0.5441134050575344
Baba 0.5182579941900554
ending 0.024613812040580146
thel@@ 0.13537016020246112
cian 0.22375668189549902
seen 0.0334737843931027
ät@@ 0.04821226689933954
Islam@@ 0.08066007685067329
assen 0.04330762995786833
Christ 0.09356603079784817
Some 0.031162887032030278
force 0.029246203853237316
alist 0.023391219792713015
they 0.004571564841770629
ators 0.034925392952915316
yok@@ 0.33267951913204885
Mb@@ 0.8278339461340136
Theo 0.14217135614545046
asili 1
weg@@ 0.03418054472126387
ი@@ 1
Kik@@ 0.6538541122412419
kari 0.8573938434371114
ligh@@ 0.02603910750265994
mann@@ 0.1281590605989743
union 0.03840747062646557
Ichneumonidae 0.668114331890341
child 0.04545240027161058
Schwer@@ 0.09208740311924779
maz 0.46106945445445213
free 0.030885319998136842
Schn@@ 0.1337370468953326
entre@@ 0.06901305971132703
mé 0.0956877895195358
wehr 0.14716188551667347
dini 0.593647979651103
Württemberg 0.15901745728912883
sanat@@ 0.4953702560857741
èle 0.09256313771739018
evi 0.3967392006330635
xu@@ 0.5071873229051059
drei 0.01853623783662516
ymn@@ 0.3282969723003778
iness 0.18318443526212871
Olympic 0.06895736428789191
stage 0.029693233134313952
ungs@@ 0.006741030347806301
issen 0.06262277109146683
posta 1
ʿ@@ 0.31202731612121837
Adem@@ 1
itation 0.03923550464909969
pru@@ 1
Kho@@ 0.2847066907130528
etu 1
Deux 0.1280510527340231
anni@@ 0.06955324772328184
bour@@ 0.05927927642106478
schaft 0.01282966034125205
isen 0.07810939950474978
age@@ 0.12127336982355573
Bek@@ 0.0883580550393554
kis@@ 0.2060970862950472
sang 0.06681866282849169
Bas 0.1491975830713661
1. 0.021321177096353533
ateurs 0.0445918445883025
éra 0.15233405253041316
Wah@@ 0.15439140898789924
hau@@ 0.04454383739217977
tries 0.08875677257824592
Dies@@ 0.19590415450763543
hold 0.05687942707212508
films 0.02878827047451444
ungo 1
® 1
Committee 0.03793124308301873
Jew@@ 0.43125706237771827
dres 0.4906187483567407
acid 0.11872331429813122
180@@ 0.4685363928948524
Est 0.09422026094483406
background 0.07395534546468936
ments 0.01732622555440179
naf@@ 1
Scottish 0.061342398537255774
omba 0.8169136301596914
k.@@ 0.34308079336621655
yat 0.5151918762376706
ν 0.06454398698603668
ization 0.05898807107970644
elek@@ 0.17839304428981553
oten 0.09555131323557221
zog 0.04568141905654442
fied 0.015098783050378005
imler 0.37942769435721346
owa 0.2908868998042054
Soh@@ 0.2448058250751241
date 0.027032224204519117
tly 0.02384042836637861
raine 0.17183762010881615
aï@@ 0.09578382947815176
colspan 0.09533280952570466
ologie 0.01825652012057988
Obl@@ 0.12446284301363403
ked 0.015875514504534647
bell 0.2353514788255514
Scotland 0.05606393058954915
kre@@ 0.03577378632471193
lak@@ 0.1530855005964366
alara 1
bü@@ 0.05961556116112698
kno@@ 0.03169060296535495
Production 0.08325403110578909
dua 1
pass@@ 0.013895882896577312
stars 0.06046159740985761
good 0.0328192011113178
meter 0.1087898194611941
will 0.010017464298357636
ː@@ 1
atur 0.0706544818135242
eball 0.1093767016373589
run 0.023082266749127677
ysi@@ 0.10466445668601491
Infr@@ 0.11769220566805579
bass@@ 0.056815299340378767
wiki 0.8812470558713917
Yen@@ 0.5303198747099691
premier 0.016219882383722784
sif 0.1256449234775701
cross 0.059706213245715525
zw@@ 0.043840591957294804
orium 0.10845544993834497
Ener@@ 0.1683396915693967
ṭ@@ 0.8195939571665443
lang 0.03239525355085574
1st 0.03244781332229625
Virgin@@ 0.3786816818743037
auf 0.002259512207646535
minor 0.06301009779588011
Fati@@ 0.3709960314306586
yam@@ 0.6936141330493806
Ban 0.13645453940383925
chs 0.13614954936328963
pf@@ 0.027355727105176978
tung 0.02262941546284687
entum 0.11733027251894436
stan 0.13039250080931794
γ 0.5114106158893839
Andro@@ 1
scre@@ 0.038303271008108285
ème 0.027562600927098887
Zealand 0.03769547535247914
ayec@@ 1
nach 0.0038888370959998413
Tuy 0.13936332773717483
cole 0.6677617261721718
oce 1
Nür@@ 0.14361485706442698
iterran@@ 0.09508459030291952
front 0.026541339255290865
zem@@ 0.37254374949025815
aining 0.0281250745030997
zur 0.006518802654609457
Führ@@ 0.07665661388918663
enk@@ 0.11769668142207634
temple 0.06814100955737105
zone 0.03806800785001738
ciné@@ 0.3191311873026703
ution 0.030625482500431168
omel@@ 1
enty 0.057822933276166055
geh@@ 0.027479395689942333
grap@@ 0.09116039600111685
church 0.020900592494326502
ös@@ 0.07193386108831953
Arth@@ 0.5668381173751178
antas@@ 0.7893257765933743
Hö@@ 0.1738900082935141
math@@ 0.05387176597718486
rang 0.10442636178549614
eye 0.083193324877924
hr 0.09792743658641649
public 0.011007046123354302
upon 0.03408554388145171
cour@@ 0.014398979789875439
pal 0.7799297646992771
jia 1
Islands 0.0662430171100134
white 0.028484954192509022
cell 0.06733729375669302
ș 0.4229430371973997
theater 0.07366502157147253
ements 0.009145928943152108
osph@@ 0.07130106616874
coun@@ 0.018017269214615324
voir 0.047360153413503525
yaz@@ 0.09466170016181932
ǎ@@ 1
elen@@ 0.2731792005607209
niti@@ 1
zul@@ 0.07458254825535857
ament 0.08008473446028676
oren 0.03816730814809142
Gesellschaft 0.06530373945804893
transl@@ 0.055437245343140866
А@@ 0.005944589112795261
aji@@ 0.8488642507927211
sai 0.2518248457390768
─ 0.14106074003497046
ischen 0.0036721071052656456
sey@@ 0.2782932599062035
werk 0.03484522434139033
Early 0.023471182925144714
ours 0.0452532162745675
anted 0.029684395206797647
isches 0.04918078074777621
riff@@ 0.059049284952217916
С@@ 0.005518162476860883
usion 0.07806194857618888
.-@@ 0.1360134511448274
Bü@@ 0.0782201141427248
saw 0.027241861258288622
Kib@@ 0.5222395711937746
leit@@ 0.05826162844424838
Geh@@ 0.08256362081553155
Sov@@ 1
yard 0.05763187907389192
emu 1
reste 0.04432602605615461
ücken 0.07347092268824404
grad 0.09846614987341773
leh@@ 0.06805665960928532
ה 1
β@@ 0.030470271625180057
ė 0.4591004162611538
auff@@ 0.07074494126557979
О@@ 0.006097196318025838
ayi 0.487186065667743
là 0.003577270782653433
she 0.004270861060030279
ön 0.26556284173551514
Frit@@ 0.5768849234170712
Dok@@ 0.16717663669993515
Ireland 0.03265239299774605
Pays 0.0958397487031279
dek 0.39602107327577724
р@@ 0.007786631075623199
signe 0.07726692440869316
erb@@ 0.08268050500972735
soft 0.1724417382717823
Part@@ 0.1095781410395115
eing 0.060920045657186485
woman 0.03814838196343708
éo 0.14878488145488353
2. 0.03534903118313612
gian 0.04036720395241202
atini 1
Commission 0.03807794283604027
ός 0.04756392691050381
Sü@@ 0.051963475860287406
leur 0.011331192333558565
erh@@ 0.03362647320793522
tai 0.3594110616297474
ip 0.20178028722219718
ε 0.060198149307716636
udi 0.3679718719198306
aissance 0.03504509618655677
aat 0.2658171476659479
ners 0.036719363090549614
game 0.009280976118774006
tep@@ 0.633522114020785
Wash@@ 0.5561174960478497
lance 0.06578564313039385
veau 0.13791983490460966
song 0.010919964833615495
due 0.011317658728967018
189@@ 0.27095010567574174
Fach@@ 0.059342418080808416
ambi 0.7051047353633486
politi@@ 0.08158707532372542
prises 0.04552115134702655
Nairobi 0.633936386466448
luy@@ 1
amani 1
native 0.040236452567203304
brand 0.0683462203370233
osha 1
186@@ 0.32649165873245023
cht@@ 0.048746675175713364
straße 0.031677881024386706
adron 0.051851832502734944
Wür@@ 0.1217174026838815
avy@@ 0.282885259709537
oil 0.054650909136997036
aben 0.04243564136227414
aday 0.46258823181770126
dies@@ 0.09096688465874914
oty@@ 0.06793645101095594
ン@@ 1
Une 0.027856259485177844
adv@@ 0.021951951483709205
isel 0.4225573699300841
wr@@ 0.03775620815414629
doch 0.07034272926883148
wit@@ 0.06100676414760476
Erd@@ 0.0935582675537712
yem@@ 0.7513591648555181
eski 0.15122861668472187
Ét@@ 0.15397629381273306
yap@@ 0.06030201770178281
pierre 0.13236651187921986
sto@@ 0.04896245084504253
king@@ 0.09394388106526334
return 0.027114286905446993
unia 1
fro@@ 0.08550401973006667
thu@@ 0.06517060138445456
Geometr@@ 0.9366867045110746
EU 0.08540555522816479
tour@@ 0.015525600071284437
् 0.0013236886451866768
school 0.008075156622992642
ž 0.7674827229501369
大@@ 0.007449777314408624
kut@@ 0.2658678154769495
qu 0.027222906725210456
Best@@ 0.049019580765756784
Staats@@ 0.045128061137242506
press@@ 0.044818480169616086
Frau@@ 0.1140512214935302
care 0.038845010837016546
version 0.013032876528669572
emba 0.7359291294186014
provid@@ 0.02545356943994634
tim 0.11432658253587477
ω 0.1882184377933799
inh 0.07189138681046972
status 0.04198938088815107
arac@@ 0.550566818192125
Ü@@ 0.08861075945992086
zum 0.004051700270653697
Britain 0.04727216237134905
head@@ 0.017711571615071493
hik@@ 0.23832088436192325
bez@@ 0.050825722254048515
muj@@ 1
anzi 1
Rö@@ 0.12114267950856053
team 0.005620820417853854
ï 0.11017730270110658
site 0.01060197191497112
dah@@ 0.11470577507838295
region 0.01859970910994
ת 1
wig 0.2513003542077284
lande 0.054138220876703884
θ 0.338206365386497
ον 0.12714024521496797
вич 0.029788632601065797
monde 0.02345649774486797
suit 0.03716247751883477
rem 0.5758357558430242
ög@@ 0.15025099967878686
Groß@@ 0.0268844801314839
RNA 0.14347935054117203
aum 0.04705522666268306
terre 0.08445519441911986
umu 0.2019000280784354
êt 0.06167184868726005
aft@@ 0.08031257380131791
185@@ 0.3153863520744252
Department 0.02543891348654525
fau@@ 0.16822328116190374
Fak@@ 0.09245646699381353
ע@@ 1
lieb 0.43958822090316757
adal@@ 1
Harv@@ 0.5174624393478101
mw@@ 0.21874793203223228
nj@@ 0.6396986552605366
γ@@ 0.03686282051964847
èg@@ 0.10560580423348166
alya 0.5947030598571302
bere@@ 0.04048855117741206
κ@@ 0.030670601632573038
Rome 0.04035949262218647
akawa 0.9886440613712234
の@@ 1
Kran@@ 0.058229728578445515
lil@@ 0.4283735005844718
aling 0.051408148986611044
àn 0.08421224247154442
baba 1
nig 0.18170878691473888
Ark@@ 0.5295665173500218
phi 0.1784521565768119
Version 0.09062030352011476
league 0.021452379058909305
asons 0.07072884032366868
aught 0.035492578995464256
tile 0.06482785729085487
Grund@@ 0.02639943557023307
crick@@ 0.05604956149462488
ד@@ 1
Thu@@ 0.2055529055761516
ograp@@ 0.04927383147514954
zig 0.1185302642786196
Cep@@ 1
Nouvelle 0.07943973506464987
stel@@ 0.08761768576909218
ease 0.03918954673495218
iden@@ 0.08452932523583262
Bev@@ 0.29271783287433795
ited 0.009602865233169203
ví 0.4042236804640748
haf@@ 0.0378655460890785
ė@@ 0.49454933430294806
Amsterdam 0.09384348674074923
Ä@@ 0.028289390802669657
esser 0.0881601752516448
ù@@ 0.40202389021172186
й 0.004274008294002695
Mart 0.16282249623466222
Δ@@ 0.06271009418582904
alte 0.07736399397470749
tee 0.14514035036974068
full 0.019411311492855562
mai 0.07312820381651339
Championships 0.03161435455674761
aler 0.07846977327208346
Haute 0.11338603456559536
ayna 1
Deutschland 0.0233313137813515
bahn 0.029666922285839455
Administration 0.06613237467017498
peu 0.02602212497353146
nant 0.04156277114184783
″ 0.47019192715459507
ug 0.09432187945611302
zim@@ 0.509605659644421
argent 0.08892646258282014
188@@ 0.22199472174581725
Ló@@ 1
Süd@@ 0.024056202599612653
alifor@@ 0.8268830507041917
ierra 1
But 0.043156358806439414
buch 0.07556060437724081
ğ@@ 0.05830152331763267
feh@@ 0.043854229806016144
Dutch 0.04456500149514912
aises 0.07530284005812508
Kup@@ 0.11362909558794622
Berliner 0.07707350846123583
ected 0.008384189159240595
platz 0.044338857125958406
tsch@@ 0.05473624233185381
Montr@@ 0.11443687971200003
ν@@ 0.033928075303732534
Ayr@@ 0.5463170336567732
erin 0.03332247017400438
„ 0.002657240621641164
Korea 0.05559231771323211
fication 0.01779480096569514
iment 0.03234042485341518
Bö@@ 0.11975322784505203
cent 0.03231219292133472
heit 0.02191463999931096
them 0.006487621562652442
year 0.004422782248688607
high 0.009481070140688415
iges 0.08301498125394358
abs@@ 0.06695305387329806
chang@@ 0.030832182710308766
hadi@@ 1
187@@ 0.25837196105911464
Stad@@ 0.07600292932414568
magazine 0.02821299458647851
graph@@ 0.0394495537501807
omen 0.26742143196337637
rien 0.10311536329658123
auch 0.002930168557512763
aub@@ 0.08009583680867143
tiers 0.08670156154589219
fah@@ 0.11964647255288816
ément 0.06646185740639306
Karnataka 0.2007025786888891
ellen 0.014525983215457927
Öster@@ 0.10938328809725612
publi@@ 0.03680741093095811
andan 0.3050203911096781
offic@@ 0.04773969329634612
fang@@ 0.036494161740655964
eté 0.09624334205125973
н 0.004300380749707134
yal 0.3893107490851831
zh 0.10186355690235822
chant 0.05384381081875007
did 0.009885135323464168
σ@@ 0.02834135034406304
tik 0.03723883618267032
engl@@ 0.054917547980010376
ply 0.021338262501398475
ň@@ 0.6532553341725797
Ouest 0.09298481231375781
yor 0.2339802894269528
amac@@ 1
television 0.01799655940131417
stad@@ 0.18853800418047528
oku@@ 0.3026372571593252
2nd 0.035893065730830225
taifa 1
üs@@ 0.04450211408894438
wich@@ 0.06158681251354872
Schwe@@ 0.06831806194250158
tional 0.018360073397515424
sek 0.5508378453987905
η 0.008467264776054377
cet 0.04696142756681134
λ 0.07301448105620763
Hymen@@ 1
bonne 0.08136922462809326
sik@@ 0.2619794838142998
mau@@ 0.08490456094401624
loy@@ 0.046673082764704436
rail@@ 0.06033525330839312
oyn@@ 0.15453740642108213
É 0.5389416262734692
them@@ 0.08231807055035434
system 0.00936208161934694
üm@@ 0.03506827643733324
ş 0.10838950324531846
mey@@ 0.45099356024614984
vit 0.11836677889172861
ief 0.0381516856000341
schen 0.022469911459193075
Aun@@ 0.9612196604139259
Alab@@ 1
burger 0.06761093230719781
city 0.0075662224198493905
ē 0.9967799203829533
Zürich 0.10351202221193734
two 0.0024524532092354443
alism 0.03288733029186724
èse 0.04217759919948401
tard 0.027252638635913186
how 0.021187129308882308
Guatem@@ 1
Champi@@ 0.06978745626672442
ficie 0.391383945118908
week 0.027827635442183425
Ferdin@@ 0.7845638713724623
Dek@@ 0.11013416936397183
ucky 1
zil@@ 0.6173651723189418
weg 0.053356199975548774
nach@@ 0.02627114862373207
bau 0.02258442192371404
lied 0.028595713059856576
sans 0.018117542301277306
евич 0.028335862256675115
sche@@ 0.03174722264760779
xo@@ 0.3774588884992581
Bisch@@ 0.1052253518543421
onstr@@ 0.03975792916214741
‎ 0.79454772261182
kata 0.2156555815999682
Norman@@ 0.1515380223618155
path@@ 0.05698015587955031
н@@ 0.004662455762900525
about 0.004709559834470005
initi@@ 0.022963043017177526
phot@@ 0.018326292275357054
una@@ 0.6992032595512148
asing 0.042358261429608336
π@@ 0.02871959344227749
wah@@ 0.08362448390973355
leben 0.0509296844622741
schw@@ 0.023484418250046775
shar@@ 0.028156529755007178
yote 0.8295782440572175
isions 0.02849401359953333
----@@ 0.7551513470231063
funk@@ 0.0775027110933369
many 0.005863903484444335
Proj@@ 0.04051518855412379
Ó 0.6031660076955715
Musik@@ 0.030045308794099678
usalem 0.07373353406772351
yol@@ 0.1416119021373893
schule 0.03195072561986328
wann 0.4284342251479522
λ@@ 0.03475106020848306
atique 0.027962585719118728
française 0.02752351694526583
have 0.002365303144778791
trich@@ 0.11621037268970423
Mehmet 0.40243079667727355
guez 1
ı@@ 0.0402834705062855
tek@@ 0.13422827096517456
τ@@ 0.029666922361332802
kim 0.16720391681382582
cut 0.0381688326919434
к 0.0022779734236957256
ρ 0.07881589884403399
Grün@@ 0.04683609970673608
Haupt@@ 0.017391424428120302
ı 0.02278565450158583
3. 0.03390332622443317
suff@@ 0.014743179713090904
éti@@ 0.06509291858339165
mak 0.07775134586461836
Gymnasium 0.09023473687541106
tains 0.031361547239023124
ample 0.10819801321192651
national 0.008623130711381358
δ@@ 0.029149819257751144
mash@@ 0.3959431630482744
reich@@ 0.024921877875171385
ľ@@ 0.9155387918839214
Wach@@ 0.11505631064818993
schwe@@ 0.08244662178601803
Mei 0.6958408841451634
celles 0.07338603527317182
hé@@ 0.057353776255022915
ifu 0.6046934500138144
Chinese 0.02214012647662772
cars 0.04513712376167825
stand@@ 0.017089438581620844
ifa 1
sug@@ 0.05610355517628679
Yap@@ 0.474710530120596
camp 0.03715249535013359
lines 0.025910971820796342
sens 0.05569882313498469
Ein 0.0190842420562502
iß@@ 0.031174051282811265
most 0.00438255264980899
Kip@@ 0.5765911797079195
anno@@ 0.15900238085603374
sanc@@ 0.0644746414734235
ם 1
Government 0.026773214773792384
aş@@ 0.0626827833984255
XV@@ 0.2926778232884858
üc@@ 0.03768114232516016
184@@ 0.3104331359468894
Hai 0.20128051103697212
avant 0.013421559615622894
friend 0.030864731463736233
roi 0.031632620277882356
σ 0.4520030532146381
nou@@ 0.15002918865912404
ingi 0.6923680914200231
sine 0.281776720330731
Funk@@ 0.07647902299483225
éré@@ 0.04011763521745452
в 0.00035109240994615044
nom 0.01099038523255361
lac 0.07888599856851829
museum 0.03870782025939219
verdi 0.2823515916685618
Congress 0.03376882979849193
start 0.02531237046971097
Initi@@ 0.04343189901948232
Kunst@@ 0.042600208560469054
aret@@ 0.37912585444038477
pelí@@ 1
Wali@@ 0.9711195922265978
urdu 0.6420767361934029
érie 0.07115949400430915
ő 0.6494284091425186
ə 0.784772793960356
Müh@@ 0.07515413767188751
day@@ 0.13676844174930436
gaz 0.1526034778328239
ე@@ 1
agnie 0.15741147583530044
aki@@ 0.34322263780786305
commun@@ 0.014167612555100503
vent 0.034497771636028636
comes 0.04086642491871981
wers 0.02760460364393814
в@@ 0.002924721036527524
mm@@ 0.08530125825962125
onie 0.07058544655354293
Musik 0.04989793579809858
4. 0.03742840860790791
armes 0.09903019887189887
inin 0.039215675298739566
Bey@@ 0.23513698412986073
onnat 0.10087224198693295
toba 1
Kriegs@@ 0.04852181859356818
aching 0.018925509411015055
isme 0.019529156654656068
tam 0.20175126145083205
│ 0.03992219637946557
nd 0.13240321155640344
olan@@ 0.4823334121896111
ded 0.01840094736818141
same 0.00652478757052067
lek@@ 0.11430878148926527
oine 0.25151029901502897
் 0.7124918275520119
Asian 0.0382999398780302
tik@@ 0.13442463266389207
Rek@@ 0.07086507675592153
Stockh@@ 0.0880138585449223
uyar@@ 0.48140292613114405
uzo 1
tours 0.07154407418457262
These 0.013392532982560034
group 0.007374928371511509
δ 0.528072635009533
NAT@@ 0.1228403078241557
atures 0.045254312660347545
ération 0.05036102668303932
ן 1
DDR 0.05879638515219039
alogue 0.0628220708076024
state 0.006358995064961922
auth@@ 0.02285181705307561
igher 0.1604549213155572
dik@@ 0.11018188117516549
Au 0.017990023199517972
Sanat@@ 0.7257480264268946
grand 0.01776567253904466
Soviet 0.026609361549674818
ɛ@@ 1
Hamburg 0.04298934537310474
ganda 1
slo@@ 0.057916347457878756
too 0.026953488114908355
ρ@@ 0.03993185886868838
kt@@ 0.04330499011363582
mot 0.09272600035065337
ּ@@ 1
Kent@@ 0.538900239157338
speci@@ 0.030375926680935153
რ@@ 1
temps 0.014343664828902944
Pia 0.6791187558203942
enant 0.07668448985933167
ored 0.01743204511375959
Wien 0.041644795052552565
érieure 0.050255790020917186
büt@@ 0.27905219520714075
д@@ 0.0032310579331980257
イ@@ 1
Phi 0.11985386333786407
trou@@ 0.043601758849228185
р 0.004346712960979179
Landes@@ 0.0274614532427269
eines 0.008723527983674149
я 0.0034332815896886996
Eurovision 0.10836915314383852
ched 0.02146885139825727
Zeit@@ 0.02328492552918567
serve 0.02249122345786308
И@@ 0.00536178984178126
nt 0.03883749060834189
dak@@ 0.35341953429102174
hak 0.40045929321517604
jou@@ 0.02394188060628899
osen 0.03737420325186209
azz 1
semb@@ 0.07067899572336017
vote 0.02935277817909079
Ā@@ 0.5755780525463591
Tsch@@ 0.07709117313058468
ligence 0.045746469592190656
ль@@ 0.002647899672248667
ский 0.0036594253875492848
anak@@ 0.3417470885260386
・ 0.45950416379298104
speed 0.03613379219032488
כ@@ 1
oğlu 0.1394887444614103
college 0.02238149111537876
alian 0.254891459186252
reven@@ 0.050488660316167465
་ 1
books 0.023463977289059877
hif@@ 1
may 0.005825032651405797
zoni 1
jap@@ 0.07764650432170701
Lan 0.06916677908593741
ergie 0.05762145577187548
Viet@@ 0.12135143968785811
kub@@ 0.27599996911094976
Mosk@@ 0.08057335281165652
etten 0.09670927939004903
ε@@ 0.032453090816683475
comm@@ 0.010711590123831952
eş@@ 0.0709598829094533
ка 0.003209278568723274
ools 0.08618405020376003
י 1
μ 0.08586502153620768
Califor@@ 0.11163777580827698
gruppe 0.042877889261154344
station 0.006606512505832231
market 0.023479845934904257
verl@@ 0.014155670695785206
Catholic 0.024805034175657773
Stif@@ 0.051991572427685276
inan@@ 0.38950585618459765
§ 0.11597026487315609
gö@@ 0.07657609360375263
indi 0.35689866309862145
umia 0.6317576227920714
ition 0.019422450030322762
kem@@ 0.18373049943443845
usu 0.0991454459223815
tif 0.03917665999794262
whe@@ 0.01989490855045111
İ@@ 0.04025177935304019
ր@@ 1
Quan 0.2699518616305759
stra@@ 0.03980331593970818
Operation 0.05343761379026944
fed@@ 1
phi@@ 0.11225069964156235
times 0.011878521003860158
л@@ 0.003674224977178579
standing 0.022971999965985875
Arap@@ 0.43695721813390265
Yoh@@ 0.8171572854813357
évol@@ 0.07045054960197214
bloc@@ 0.03507344080330773
ders@@ 0.22797736522150025
Mp@@ 0.6595595255419171
hoa 0.024737265660454102
Register 0.04469825746087944
section 0.014753747275718893
tail 0.039946016452302016
Egyp@@ 0.037252493898586814
hala 0.36909794027582415
Galatasaray 0.3380338074965546
Holz@@ 0.06269289500636913
limited 0.028499220512913436
schen@@ 0.0634153301379976
Α@@ 0.026110558168653965
National@@ 0.02390775756054292
kana 0.4748711727485261
klin 0.542637325586102
5. 0.03656945847391727
done 0.034707004402696424
К@@ 0.005967975514600873
ability 0.013515824029621733
château 0.03851397913187219
äm@@ 0.04647211502428984
äs@@ 0.022315875483940407
Stoc@@ 0.39437045645353086
essor 0.03522347999754511
Fes@@ 0.6140306664464212
Span@@ 0.07960902880246394
arron@@ 0.3232733967043054
mik@@ 0.21391463468074004
ů@@ 0.40415714612248255
ח@@ 1
first 0.0014523375965244817
gang 0.022566046190692843
kav@@ 0.24954648620010011
open 0.017647652317344407
θ@@ 0.024816091075945516
ָ@@ 1
ი 1
Par 0.03590012775696066
ghi 0.10245785718552987
ва 0.005540017238918797
ichte 0.06339511518814869
pik 0.4788383851276381
Eins@@ 0.06122108270941117
istin 0.1099718480464536
sym@@ 0.036292947150338754
ŏ@@ 0.48982154593258137
и 0.0004120744369945596
Kreuz@@ 0.04729074510989741
ι 0.032215061931065866
Ofic@@ 1
known 0.003793659605384515
code 0.03292363122939477
équi@@ 0.11691704375800119
ibi 0.431688225132744
ל 1
Hochschule 0.07904529194118673
Mittel@@ 0.02083226037472159
schi@@ 0.033838469774987064
pay 0.04158255746872138
novel 0.0231700023744827
intro@@ 1
Klein@@ 0.07259404317042525
were 0.0009373428882062284
hie 0.20084637250623041
model 0.021444055321104584
ლ@@ 1
Historic 0.03646350400343123
endre 0.031139390536424717
hasa 0.4931427585357621
after 0.0022408848841550103
nek 0.27708626768436
ecke 0.09942609653209764
ñ 1
avec 0.002301047110033382
mab@@ 0.45472229927678054
umbe 1
geri 0.1600399504653007
intitul@@ 0.07794651352554442
sports 0.027155912939378545
aring 0.027885818333481797
osu 0.21228525873282098
ßen 0.012558936518650213
bed 0.02423751010448122
made 0.0034926889221484074
eneo 0.6995261411743596
Κ@@ 0.021394711431435072
reich 0.04108687001116398
sah 0.09104030357015544
etts 0.28310349547795355
opening 0.02517266307824648
Σ@@ 0.017477007567766267
larla 0.19860365040558756
פ@@ 1
former 0.006128387730436155
tiques 0.04260983342203024
dée 0.04574565898338395
ո@@ 1
Chief 0.029480722185535393
äh@@ 0.018556581164898462
Université 0.0496423266407197
yet@@ 0.1277171018288228
ayed 0.027181053115751076
wur@@ 0.059109548267688716
ibu 0.610560211884139
Rä@@ 0.07942051807747737
criv@@ 0.17930815985162443
acqu@@ 0.024997894305965374
ped 0.04671049804367394
deven@@ 0.06578824257859833
Zug@@ 0.04298172666690094
Develop@@ 0.25234825866940797
anian 0.03890778621446168
arten 0.07480215663605828
enzi 0.7896263827421145
schrift 0.034042284763567944
sour@@ 0.08460219135136027
fiz@@ 0.0601169549865859
zis@@ 0.13888126271871934
Dollar 0.07198795911100983
œur 0.03624554614611756
Russian 0.017544164538625645
actions 0.02005663169469745
bt 0.02864482130998991
ɪ@@ 1
kum 0.09643802283846724
mt@@ 0.10157122035177331
Lincol@@ 0.3041562877646496
yab@@ 0.3029182050244703
ikan@@ 0.03644820001320261
Gonzá@@ 1
kam 0.012309969080298314
sound 0.032702460691134874
chall@@ 0.028957546610001324
ר 1
linde 1
fie 0.0741355578911788
riere 0.13491558802266307
hous@@ 0.1666180036892949
Dresden 0.06517698736120085
kup@@ 0.16393516293617139
ographie 0.05054838861570206
wir@@ 0.023182022892219507
zun@@ 0.2694317305997792
Öz@@ 0.09891552875087974
zek@@ 0.5313704658068557
ラ@@ 1
Bei@@ 0.07508012549025987
В@@ 0.004669517007285521
ück@@ 0.02626302693265341
tart@@ 1
apon 0.10296081592578163
quan 0.024492837031599077
amba@@ 0.9907726443892654
performances 0.03585712989061481
through 0.004135510870686294
Im 0.003317583225753434
President 0.012826568975659473
near 0.00952500172189305
Dez@@ 0.3849974553105512
Kü@@ 0.06267028380157988
arding 0.03131006912508832
nouveau 0.018732629843670037
seur 0.031006189214721966
Govern@@ 0.026736744351691284
Universität 0.014132580390136356
erne@@ 0.14208797611679622
verein 0.06450813661699673
ɔ@@ 1
ְ@@ 1
Jewish 0.027656942207400288
Wahl@@ 0.033107990746989516
wart 0.1119591824396897
м@@ 0.0028065890734408493
ions 0.036979396393985425
ス@@ 1
Diy@@ 0.33917246944978746
Marse@@ 0.07792839973255437
coming 0.026055149102018053
systems 0.021239113174060166
utive 0.015481004296187179
ême 0.051281753025404386
abara 1
Professor 0.02176276039761324
hand 0.020611093145649233
ская 0.005965294572074845
lak 0.26080529570722943
others 0.011134323016488236
а 0.0027444497445059017
imini 0.33231273541467554
kat 0.2603474614622921
Nh@@ 0.06100644455640487
â 0.2582353056978631
dig 0.04170239025312181
Cerambycidae 0.12837162147635914
mission 0.010442530398564388
änder 0.045876137222029545
Bür@@ 0.062334280361513235
Firma 0.0691211202841388
gart 0.7773584256411809
ký 0.08216193544312773
ס@@ 1
子 0.009747045599571551
uw@@ 0.5192773810293319
xin 0.1602083375117632
ution@@ 0.03893895179629224
Pub@@ 0.08742665554820499
alisi@@ 0.04033116237620721
kirche 0.02904804353681496
tane 0.1649987784467109
ŷ@@ 1
া@@ 1
gut 0.034116448710153936
ilen 0.02128702880487257
such@@ 0.06438756675264415
Slov@@ 0.06787293961427002
faire 0.014535586993049503
rail 0.04901303005017782
appen 0.03770497786578684
dissement 0.13014756769045832
ת@@ 1
wam@@ 0.3856371563533309
kent 0.22903850238980655
statt 0.017739331538280275
title 0.00974598485182765
rée 0.0449736781587611
terres 0.06371604326895239
φ 0.13223858016552595
eln 0.017202339115594566
Nguy@@ 0.4187669875581108
forc@@ 0.02935691948041667
ße 0.028893721436004216
≤ 0.762634060720722
Wab@@ 0.41095914428000696
ilien 0.06383197939786375
subj@@ 0.044789940708596904
χ@@ 0.020363878011840253
atory 0.03165135336798184
homme 0.025944543184500315
Ἀ@@ 1
Ce 0.014044131844919032
Tod 0.026688879474190977
áng 0.11233776118341536
Haus 0.03288169885734475
Kör@@ 0.044237763714256764
Uy@@ 0.23077391503746802
tionn@@ 0.01807840528505715
éré 0.03186155170960896
angen 0.03954408211179907
division 0.012610245314018567
mf@@ 0.15165216451073327
troph@@ 0.07130348367979755
φ@@ 0.018983522279925332
№ 0.02363741964388778
6. 0.03270833325159669
Nouv@@ 0.34926811506922384
include 0.0073377389153640345
ète 0.022136966690452082
с@@ 0.0019170410705265806
Ḥ@@ 0.7805431698220536
8. 0.03437736418833007
key@@ 0.05152170634563018
rière 0.05665202032552985
neur 0.03514281950329181
oration 0.03676895757925281
jah@@ 0.06860660409290398
Λ@@ 0.028851331832606898
ο@@ 0.021396331703175196
Alter 0.04241726775634748
äng@@ 0.013896433774824128
ücke 0.025725687025024094
icht@@ 0.020316658865739
otz 0.05308943284664598
seri 0.3254769596635507
abeth 0.2595333558114754
common 0.013655041218868279
unden 0.026786664177546562
к@@ 0.0029803819693659138
pain@@ 0.011331366347736845
kend@@ 0.0848268145631749
span 0.07019361267989184
Erz@@ 0.04337710039739456
atten@@ 0.036748657049595075
manager 0.022413463703201585
ִ@@ 1
meth@@ 0.016007675346616443
arrondissement 0.07333685655879256
opér@@ 0.04790312440339602
yum@@ 0.33143860259786095
ル@@ 1
Verlag 0.07238034220072848
beau@@ 0.046682246627475624
score 0.021507741922289835
Uk@@ 0.6643686729683959
igner 0.04474579400865668
Π@@ 0.022081198803385958
ק@@ 1
abila 1
ential 0.014831294755191847
gali@@ 0.5074796314180441
Juli 0.013214159083699537
complete 0.023189298905834592
istic 0.021664092950816134
tent 0.027380123426775354
gold 0.022615419273430262
liner 0.11198057040106509
carte 0.058730037639539566
using 0.006839860749427098
Lai 0.20627837457029516
last 0.00772821346628231
äger 0.05323574811480707
eding 0.0254083325275868
poem 0.05112639111931008
used 0.002475905199120215
ン 0.5378046846014439
ange@@ 0.04137209691516514
ě 0.4081922386196081
prit 0.05433584846675476
waka 0.9612326928672529
achen 0.02303221773704163
agno@@ 0.07241418636113159
lichen 0.003545782705196451
uelle 0.05644298345351248
ш@@ 0.002733876662344413
Tam 0.20762997611055278
esses 0.013270276844572148
ρος 0.07852951734678017
リ@@ 1
Linc@@ 1
iten@@ 0.05035051938651895
stud@@ 0.061247263024858264
Schles@@ 0.1504580741918395
[...]
