#version: 0.2 - Trained by `huggingface/tokenizers`
e n
e r
i n
c h
t h
a n
e s
o n
u n
i s
a t
i t
i e
o r
a l
th e
r e
s t
a r
d er
i ch
i on
a s
u r
l e
t e
an d
o f
e in
g e
en t
t o
b e
d e
a u
un d
o m
un g
in g
d ie
r o
d en
e l
w i
i g
i c
e d
o l
a m
u s
i m
i l
t er
v er
f or
t en
s ch
o t
s e
at ion
z u
o p
a b
h e
u t
r a
w e
i es
is t
h r
- @
@ -@
e m
u l
o s
c t
n e
b er
q u
g en
l ich
v e
a p
ü r
ich t
al l
u m
is ch
d as
i er
i r
p ro
k e
th at
c on
es t
om m
es s
a re
a ch
s o
au f
wi r
v on
c e
w er
s p
a d
i d
w h
l l
I n
e t
f ür
m it
o ur
l y
k t
er e
or t
ein e
i f
l a
d es
ur op
c k
qu ot
in d
wi th
t r
T he
s u
p r
o w
au s
d ies
o u
V er
de m
E urop
a f
m e
i v
m ent
a g
el l
t s
m en
at e
is s
h a
ap os
a y
e x
U n
ung en
g r
n en
t a
b en
isch en
f r
c om
c o
th is
l o
0 0
i en
n ot
r es
z e
A n
S ie
n icht
s ich
u st
ar t
it y
g es
i ve
h o
m a
an t
er s
S t
a h
en d
ü ber
R e
wer den
i b
ä n
an n
das s
au ch
l ie
l i
i al
s er
b y
p ort
ha ve
w or
s en
f a
D ie
ig en
v or
wi ll
ul d
w o
h t
B e
p e
it s
er n
y ou
f e
te l
ol l
omm iss
d a
t z
i k
al s
ie l
d u
m an
h en
w ie
ion s
T h
m o
n o
Europ e
a c
w as
S ch
W e
h al
th er
t ra
p er
ung s
wh ich
te d
st e
h as
ommiss ion
. .
u p
P ro
s ind
st r
for m
id ent
sch af
fr om
c an
a ge
o ut
f er
ein er
wir d
E n
i p
ar d
f ü
ab le
h at
in ter
d o
im m
f en
ab en
u g
be i
p os
us s
on e
ö n
u re
j e
P ar
E r
ein en
isch e
f in
g er
A r
in e
en n
p l
f t
i z
b es
o d
c l
is e
A u
b r
it e
un ter
er r
am ent
ur ch
p ol
it en
o der
an g
h aben
s h
Europe an
hr en
i ge
z ur
i de
i re
M it
H o
s ie
or e
p o
P r
al so
as s
A us
2 00
un s
all y
h er
i a
ation s
w ar
ch en
lich en
p art
k ön
com p
ct ion
E in
F r
W ir
ation al
it ion
m ö
ä t
ul t
an k
h l
d r
at en
o k
der n
n ach
at ed
g an
sp e
il l
re g
ch e
i o
an ge
ier en
st en
ch t
schaf t
G e
ver y
an s
o g
ic e
o b
ä s
g o
Un ion
g ro
st ell
b le
al le
f f
I ch
S e
D as
ä r
ier t
c ess
at es
y our
k ann
le g
wor k
d ar
v el
E U
u e
e ar
y st
r it
ein em
h in
is h
an der
d urch
w ur
ke it
el t
te t
ig ht
G r
c omm
V or
p t
M r
or d
I t
em ber
ü n
co un
kön nen
n ational
we it
C ommission
B er
yst em
u b
c re
ig n
b o
th ere
H err
lich e
t im
us e
ic al
m ore
f re
h re
a st
b ut
n ow
k en
ig h
be it
am e
om e
omm en
an ce
p re
m ar
wo uld
ö r
A b
ar y
p le
s ho
ü s
u d
s el
ch te
es e
a in
he it
a hr
l ic
En t
be en
a k
L e
1 9
Th is
zu m
Europ ä
p la
l and
l in
c ial
d is
dies e
z en
w ä
g lich
t re
ge l
the ir
an y
i le
m in
b ar
G es
o ther
g t
Un ter
sho uld
in s
u te
A l
ch n
n ur
P res
h and
D e
a v
pol it
u ch
E s
ne h
m er
en s
pro du
c r
ent s
D er
K on
pro v
w ay
un ser
n er
p ar
s oll
a ct
on g
äs ident
ne w
as e
re ich
F or
ut ion
no ch
Ho tel
m ust
ü ck
ier ung
te il
dies er
s ol
D ies
ah l
gr am
K ommission
ge b
un der
ne t
et z
f ul
v ie
S p
i an
coun tr
.. .
k on
st and
ber e
be t
kt ion
f ol
e v
wh o
da ß
el y
me hr
m at
T e
ge m
t ro
ow n
h n
c ent
C o
de d
2 0
Pres ident
form ation
s ein
sch en
c es
m üs
s it
su p
st a
for e
o ver
In ter
Pr äsident
li ke
ab er
ing s
k s
y ear
c ur
of f
the y
ment s
it ies
g lie
u al
k l
s ib
Au f
wi ck
müs sen
ut z
g re
wur de
U m
an z
ge gen
t y
w enn
ß en
on ly
s ystem
e f
imm er
tim e
M a
le ich
ab out
ge t
ser v
d ay
k ommen
f l
n ah
Re g
as sen
st at
ol le
l ament
F ra
ges ch
am p
ne ed
Mit glie
Z e
ct s
n is
neh men
vel op
c y
b ie
p h
al t
pr es
c ed
ol og
z w
ü tz
se hr
li ament
a ck
io us
Par lament
M ar
fü hr
o c
con s
m s
h nen
s ome
th ese
c il
te ll
f ir
it ät
k ing
1 0
M ember
ie d
ta in
im port
il d
am men
at ive
d ire
b is
dies em
s a
l d
de t
at er
au se
w en
M en
ke t
or s
icht ig
se tz
on der
re port
ter n
ib t
weit er
us ammen
ver s
ers on
B es
b est
de velop
d if
k te
st it
ein es
ul ar
ust r
su ch
g u
& #
il ity
ate g
at z
op le
Par liament
i hre
er g
in t
Europä ischen
l os
m y
ur es
hal ten
d am
ig keit
än d
if ic
A s
Mitglie d
und en
sch e
mo st
g est
man y
ge ben
ct ive
v iel
mö chte
com e
iv en
re l
I m
op er
ent r
N e
m al
u ß
c le
su b
pe ople
in to
b al
th o
i ent
ne u
wh at
w ell
the m
b as
i hr
i den
in v
ä l
is m
J ahr
con om
w el
ze it
ig er
m on
at ing
ar beit
d s
j ust
St ates
inter national
ig t
l au
Ze it
ic es
l ung
Ü ber
v o
z ie
h ier
urop ä
p ub
str u
m ach
O r
countr ies
d ition
f o
is ten
c ause
em ent
p or
C on
v is
vie w
M e
h el
am en
te chn
p en
C h
S o
z we
th an
o ch
Ber icht
x t
at s
Fr au
stell en
p on
wer e
an sp
i der
re ad
de c
Co un
pol ic
e uropä
it te
sup port
h ol
Men schen
st ütz
or der
e conom
ro om
ein g
l es
a il
import ant
s on
g leich
er t
etz t
T r
ie den
än der
w end
le d
le gen
dies es
part ic
pro gram
qu al
in cl
ag re
wh en
b re
em p
S tr
k now
all en
con t
fir st
g ibt
ess en
v om
Coun cil
L and
t schaft
r u
ag ain
or y
de ut
ard s
pro pos
ro ug
al e
hal b
ag es
1 2
zw ischen
of t
sib le
U S
en z
e le
l ä
lo c
G er
b in
Mitglied sta
ma ke
N ach
re i
qu est
ho tel
st er
pr ess
Ent wick
h ör
lie ß
P ol
bes onder
ta ke
v ent
we en
F in
m uss
hal t
Z u
ar ge
g ar
for der
en ce
pro ble
w are
er v
b s
iss en
ist r
c our
fa ct
mö glich
igh ts
iv es
wh ere
bet ween
f ra
so wie
C omm
th ing
en g
ge w
be d
B ere
se t
b u
ä ch
wor ld
H e
h is
ma in
g h
be cause
for t
uns ere
je ct
k eine
A ll
w ür
o h
se e
I hre
Pro du
el s
in formation
ur al
u ation
in n
Mitgliedsta aten
F l
b st
ß er
is ter
z ial
m p
is su
Europ a
l ine
I hnen
H er
a kt
M in
tra g
be l
it al
Ar beit
c i
s ame
Ar t
h ere
Gr und
r at
o us
c ted
ver sch
I f
or gan
sp r
r ight
Pro ble
fin den
j ed
n at
ma de
z ahl
t wo
ig ung
b ess
Z usammen
re al
v oll
ä hr
ö ff
W enn
sich er
un kt
cle ar
ion en
ar r
ich er
in k
s icht
year s
br ing
la g
ß e
E x
R at
polic y
d it
l er
ander en
we ver
19 9
res pon
br auch
go od
e very
Vor sch
s c
t ing
ev en
ll en
h igh
le tz
y s
th en
ch ten
K r
ö s
st änd
B r
pr om
we ise
b eing
n um
isch er
th roug
k o
w a
sch ließ
tho se
ch ä
un ity
mit tel
ce pt
nah men
ke iten
m ed
f all
ur ing
P l
gem ein
sp re
H aus
dies en
pub lic
ef fe
M on
be lie
w elt
Bere ich
um an
it ik
wä hr
l ess
um ent
Th ere
mar ket
ion al
am il
ur n
d ann
i um
l ang
m ay
la st
is ation
f ind
at t
D es
b us
of fen
c er
v ir
ste hen
bes te
h ad
ach t
de b
Dies e
j o
w ichtig
it ed
is en
fa hren
be g
ze ich
in nen
p erson
ver n
partic ular
r est
wie der
O n
dam it
te m
h ow
au t
gen er
tr ans
we il
pres ent
dif fer
re qu
B o
g ra
f ach
än dern
W elt
pro cess
l im
1 5
l ish
con c
de l
wur den
ge hen
n ung
ha be
I hr
ic t
J a
S ta
st ar
su re
i or
ra g
tr ä
pla y
pos sible
s ay
w ort
pla ce
H and
ent lich
la ge
G ro
wo hl
a ir
econom ic
unser er
f un
stit ution
wir tschaft
Europä ische
äl t
el le
W o
Y ou
ch ts
reich en
k r
N o
B ür
us ed
v en
ter s
in ess
r ent
v al
all er
r if
jed och
ic k
ow s
ein z
wir k
re e
ap p
c or
a de
au m
lo bal
ou gh
conc ern
in cre
tro l
W as
G em
f ar
ur o
te gr
pro te
T o
fü hren
3 0
h uman
S icher
are a
it i
aus ge
G en
S ystem
f est
comp le
po int
s im
d i
ell en
an gen
ne ue
a th
af ter
Ä n
p ut
polit ical
ind ustr
In formation
s eine
a ce
son dern
F e
ch ange
an ts
la gen
r icht
i th
Pro gram
cont in
h ö
he ute
ges tell
al th
f und
hel p
w ant
el n
er st
it t
Unter nehmen
Än der
B ar
ß nahmen
there fore
pl ic
l assen
ac cess
throug h
gr und
in ce
u er
te xt
wer t
fa hr
m ich
s ur
00 0
B et
do es
ten s
develop ment
read y
tr ansp
ex per
i x
a ur
W ie
bere its
ap pro
is p
r ights
R o
k le
k er
co uld
ad t
le vel
s atz
soll te
In d
A t
pr of
Te il
prov ide
d at
europä ischen
gan z
M an
num ber
again st
ra ft
ex am
gre at
5 0
v ar
go vern
ab ility
P re
lo y
s ign
ic ult
ke y
it ä
p ra
g ung
k om
Entwick lung
ut ions
h ist
oh ne
Fra ge
with in
ier te
ihr er
soll ten
fin an
av ail
countr y
b ack
pe ct
neu en
sel bst
f ung
f le
m uch
zu g
lo ok
A m
R icht
u de
ol d
it z
t al
führ t
ein fach
of fer
Ja hren
op en
as on
k un
Gem ein
M ö
oper ation
M o
oft ware
vir on
ander e
bo th
s m
W er
1 8
l arge
D aten
g ent
ic s
c ap
g a
K o
unter stütz
st ill
Le ben
ier ten
e igen
C hin
fre e
me as
ä tz
v ed
Bür ger
imm t
age ment
qu e
pos ition
K om
gro up
lic k
h op
w oll
hl en
ro s
d own
den en
ul ation
est s
f ur
sch n
in st
I s
pr iv
P art
gr ö
zwe i
viron ment
f ä
pos it
cons ider
e p
as k
so cial
mach en
ff ic
at or
lie gt
h än
to w
differ ent
f ut
l ong
un t
l uss
qual ity
s k
c it
b ur
es en
with out
b il
ze ug
un e
S te
se it
schaf ts
re t
spe c
ke hr
ge ht
K ommiss
Th at
ct or
Mit tel
el d
f ern
ar be
spre chen
bie tet
B ed
in ner
versch ieden
ct ions
lich er
belie ve
serv ices
F re
u x
k omm
cur rent
k ten
B ut
St and
D a
itte e
al ten
po wer
to o
a z
ge f
nah me
way s
r en
ü h
da zu
is ed
is ion
g lobal
requ ire
im e
fut ure
in c
al ready
e ben
stat t
ra p
cer tain
avail able
vie le
str ateg
c ord
kön n
D em
Inter net
sh ip
1 1
bess er
k es
besonder e
P erson
bes ch
j etzt
iv id
f il
ah er
p ass
s or
b t
th ink
can not
ich te
W or
th or
isp iel
ch an
ist s
ust om
m ir
Mö glich
Z iel
bus iness
v es
m ember
le t
to day
m et
oll ow
Ar be
dar auf
i ze
gestell t
cour se
l if
9 3
E R
m b
at ur
fin det
dis c
i ver
Ma ßnahmen
serv ice
am er
kt ur
la w
9 1
stell ung
se hen
b au
leg al
ien st
200 9
Fin anz
be fore
des ign
rit t
u f
emp loy
g ut
n ess
be tr
ah men
om en
n or
i ß
re cht
ent wick
T re
c ing
k ur
techn olog
re du
u ten
en vironment
ro w
En erg
kl är
R es
R ahmen
den n
produ cts
Commission er
quest ion
ent er
cur ity
u ck
Information en
ism us
is l
op t
da für
nis se
in tegr
ok rat
ne g
ic ally
inv est
m or
ank en
p f
a gen
s einer
h ar
im ple
is k
su c
M ed
ien ce
z us
re d
sch on
R uss
fol g
c ase
v ing
issu e
w issen
sit uation
ar ch
im in
spe cial
F all
dat a
fall s
ein ige
los sen
ol ution
deb ate
E N
fa st
j or
at ely
P o
n am
ah re
bie ten
gen d
en erg
ver b
an te
cit iz
A f
z entr
Herr n
s af
C om
con d
u es
bere it
n un
c ar
ful ly
ges am
A mer
be gr
en th
Kommiss ar
K in
finan cial
z usammen
E uro
T ra
sp ra
ö l
room s
ne cess
L age
ind ivid
proble m
con f
re ason
s am
id es
al en
le ist
S erv
gr ess
no v
propos al
An d
setz ung
off ers
f ollow
c ustom
lie gen
on t
act iv
m eine
ach ie
Be i
me et
kun ft
b l
fa ir
w ach
p age
stell t
wür de
Pol itik
Q u
zur ück
woll en
Ho wever
A d
dire ct
sa id
h of
Ver ein
1 6
ch ar
ad v
i hren
sa gen
un i
ud get
ill ion
1 4
pl an
co st
z iel
he iten
imm ung
et t
m iss
reg ard
wor den
S pe
ic a
Re chts
ä ß
ib le
he its
E ine
Aus sch
exam ple
Arbe its
gro w
r ie
p ly
to p
F ür
iv ing
p ay
ste ht
u ally
ant wort
me ans
be wer
P al
bs ite
h af
L a
unser en
au to
il t
J ahre
ie le
c as
ma jor
ab il
fol gen
L änder
ver fü
h il
p unkt
ud ing
coun t
n ie
ap plic
alle m
B est
war en
it er
p end
g l
a ction
c all
comp et
I N
L ös
in en
n a
lo se
is ierung
r on
ta ken
ktion en
w ard
k ün
K olle
am end
c ell
st är
O ur
h ig
t un
sm all
ation en
ich ter
W ith
ä m
f amil
leg t
Pro je
Vorsch lag
il y
L in
1 3
au pt
as se
d uring
N or
s ince
sch ein
Unter stütz
bring en
au thor
if f
en sure
us ing
Parlament s
stru ct
e qu
bas ed
Chin a
w es
Un d
meas ures
ck en
e as
all ow
m us
An t
f fen
comm on
agre ement
or en
th ank
disc uss
Z we
de fin
so zial
Re cht
mo dern
energ y
w icht
y ing
Änder ungs
er halten
citiz ens
Z immer
ent ial
gan gen
St adt
s y
sche id
v i
ord in
et was
währ end
bu ild
sch rif
do ch
U r
o und
con ta
setz en
tr ib
le ben
F ir
s ide
l ungs
d ing
suc cess
arbe iten
con trol
ro ad
g ive
A N
incl uding
e ach
ür lich
ut es
c olle
h m
Te chn
vo te
b ank
in de
M ein
S er
lin ie
c ult
fur ther
2 5
d ra
ge hör
are as
We b
S u
necess ary
t es
as ed
iz ed
Unterstütz ung
c ol
h men
lo g
ar en
20 10
c ity
h ält
Ges chä
spec ific
D urch
ag t
ord nung
A T
st re
ein mal
Mar kt
c a
B ild
re ce
res ult
ges etzt
hop e
ah n
sp iel
ab lish
leg isl
se curity
ver wen
proble ms
Ver fü
s ing
a id
2 4
Proble m
ne xt
ins besondere
un de
m il
I T
th ree
ach e
por te
ir d
ut zen
at ic
schaf ten
Q ual
ch o
au ßer
s um
De b
U N
b udget
Zusammen arbeit
ear ch
w ish
are d
be de
L ändern
um f
ver l
er sten
vent ion
li k
1 7
fe w
g lichen
letz ten
f ts
E C
I S
wh y
k auf
S it
p ack
ad dition
op port
comp any
est ablish
z ess
200 8
Comm ittee
Sp iel
hist or
g ang
grö ß
in es
inc ip
ge d
gen ommen
d ig
E S
k ä
st im
ich ten
dit ions
ul es
co ver
M ad
in ing
kt iv
De ut
Sicher heit
he alth
Ne w
tra gen
For m
co operation
le ad
p at
D ar
p op
comm un
Um welt
l ungen
w he
le icht
w al
dr ess
w alt
pr incip
ent lichen
g lau
em ents
sp l
R est
imple ment
in form
B el
wh ile
beste ht
pra ct
l t
ho wever
h ap
j a
st art
D ienst
inv ol
es se
Reg ierung
ex t
str eng
se qu
Be it
be im
mar kt
aur ant
Gro up
K unden
Fra gen
system s
d rei
um en
O b
program m
ö t
ze pt
f iel
g iven
T ag
ell schaft
ig ten
H in
is es
tre ten
ier ungs
j en
lif e
ein ge
to ur
wä re
It al
n ing
I r
w är
need s
prote ction
la y
ör der
S an
ci ally
z ü
g aben
Or gan
Ges ch
b it
W hat
u c
itä ten
u ge
f te
ch er
comple te
le men
if ied
führ ung
Energ ie
reg ion
bo ok
sh all
ig in
lich t
z o
S ol
re le
B en
Kolle gen
alle d
m ot
re fer
is ing
H il
Be deut
cl os
cons um
The y
wend ung
hand elt
d on
govern ment
ial og
dif f
re chte
sib ility
iv ely
zie h
pr ü
St ra
m uß
Fl ug
an al
sp ol
ze igt
Se ite
G u
at te
ge ther
1 00
ex p
hän g
comp an
porte ur
al ways
M al
A p
bet ter
a der
as ch
Ho use
gen au
Bedeut ung
ichter stat
c are
ap pe
st ay
ie t
ät ze
ie ty
con ne
e ig
n al
in iti
ac cept
N ot
ste p
der en
bere ich
t on
Er geb
hal f
d id
work ing
h ang
L is
inter est
V ol
wel che
da bei
Bes ch
polit ischen
po in
Ent scheid
m ult
re ach
lo ad
tra dition
US A
Ver trag
p ur
En g
dr en
program me
sel f
E ben
W hen
Un ited
Mr s
iv il
produ ction
l ing
200 7
ful l
b ind
ga be
Comm unity
A ber
rap porteur
gro ße
res pect
B us
m m
Re gel
dr uck
c rit
ko sten
el f
in a
il dren
s einen
N amen
k enn
Program m
re cent
wirk lich
tra de
Th ese
Au to
u ter
st ate
b on
transp ort
mat er
r än
M us
ing ungen
chä ft
d om
st ra
Verfü gung
12 4
P ort
an e
ass ung
ateg or
M il
loc ated
be kann
gro ßen
EU R
ck s
Fra ktion
cent r
w ater
Str ateg
Serv ice
issu es
trä ge
k m
l ad
The ma
diff icult
de al
Sta aten
ex ist
w w
l ow
R om
F un
d aher
wi de
G ar
Kin der
not wend
particular ly
ter m
Sch utz
wor d
to gether
ac count
Ber ichterstat
u ft
ke ts
ros s
Proble me
d ate
d an
it or
Se iten
H ier
man agement
A R
ma king
T ur
n on
we e
da von
F ol
ro le
m ut
n äch
K ar
be come
op p
Möglich keit
ch es
er forder
de ta
cl us
h y
Be ispiel
whe ther
um ents
ge legen
pro je
Au ch
ta x
Leben s
dar über
ex tre
je der
con trib
l ist
ent ion
Z ug
i ben
F amil
fo und
se cond
ent en
n ers
W ett
o se
C O
ter ms
re form
Z ahl
re co
hal ts
v ious
jo y
res earch
pro per
w and
as h
ik an
go ing
unterstütz en
F ort
se ver
best imm
st ud
at y
ad dress
könn te
bas is
W ahl
se ctor
i ate
Gen er
view s
A S
f on
dar f
if en
her vor
o th
sh ort
we isen
su chen
komm t
p ers
c arr
sch ied
4 0
V iel
gu ar
ra d
comm it
ex press
um s
in stit
öl ker
Zu kunft
m einer
o cr
Inter national
an other
Frau en
mater ial
t schafts
ar ound
eigen en
M ill
k ein
We g
schn ell
zie hen
k re
spe ak
all es
lich keit
fe ct
fer t
gegen über
ho to
We ise
ge ord
ar s
a im
en zen
ch ildren
ben ef
Ihr er
K re
S oftware
i od
af f
P er
b ild
con ditions
prof ess
dec ision
ü t
who le
v our
200 0
weit ere
w omen
S k
kä mp
la ck
ent fern
kl ar
ges e
Al s
incl u
polit ik
d ist
mat ter
schließ lich
so wohl
A ir
wi er
pr ior
s ite
st immung
w rit
industr y
c ut
or g
Ver s
sch utz
se le
in nov
Ge gen
c el
Sit uation
st o
compan ies
bur g
ie g
we gen
d ings
inst all
ig r
neg ot
b lick
Produ kt
loc al
x im
ne ten
ip t
Ind ustr
Me hr
er reichen
Al le
fre i
sel ves
nat ürlich
g n
au er
Wett bewer
guar ante
sche iden
I I
do c
person al
com es
Richt linie
sh ow
ra cht
cre ate
com ing
d one
ult ur
gese hen
l ight
gesch lossen
es pe
y o
fr ien
we g
im prov
mö chten
ig es
ik a
v est
mon th
Art ik
an c
h im
l auf
For sch
cr is
En de
d istr
ty p
D E
kt or
c al
effe ct
Gr up
besonder s
R olle
at ten
g ere
Z entr
auto mat
cent re
isch es
pro ced
ur y
od y
h ä
i hnen
reg ul
F o
ne ar
var ious
vis it
appro ach
b an
us er
inner halb
ab häng
fa ce
fa vour
j ob
en ces
one y
C hr
z ip
Min ister
ä uß
spol itik
dem and
ge geben
am m
ab ly
H aupt
m illion
is ions
6 0
espe cially
so c
ho ch
d essen
be ach
ie f
ge führt
et y
ame work
gro und
A fr
Ver brauch
ä d
spra che
F ahr
W ähr
exper ience
fin anz
at iven
contin ue
bre ak
be findet
verschieden en
re ally
cord ing
or igin
d ür
pro ject
h ard
fa cil
produ ct
T err
D en
po se
min istr
cris is
equ ip
res olution
Sch luss
po st
th ird
L ie
r ä
Ger man
8 0
priv ate
fe at
he ad
J e
employ ment
I C
viel en
B l
im p
international en
europä ische
s amen
S y
in str
res our
K ol
hat te
Gr ün
under stand
ffic ient
lin es
tro du
entfern t
l äs
pro gress
en de
r un
Wir tschaft
ot s
b ig
W ind
ro p
fo od
Aussch uss
negot i
on s
if iz
t ag
W ar
d ou
d ort
ser ious
Geschä fts
om ent
Berichterstat ter
iz ation
commun ic
t urn
th ough
Com p
dire ctive
ra el
c alled
re present
reg ional
sp ort
ant rag
t est
op in
Deut sch
I hren
Mein ung
i vers
ks am
k ung
Tr ansp
gent lemen
Wir tschafts
w ind
200 6
lo ck
s oftware
some thing
land s
if ft
Ch ar
L i
in stitution
fra ge
ad op
vers ion
il s
Part ner
con tra
in trodu
M y
per iod
its elf
T our
as ing
T O
hin aus
Techn olog
U hr
wel come
dra w
Ges und
In vest
sing le
id ay
A L
gen ann
m äß
an ces
at iv
u gen
z war
schaf fen
te le
an zu
r ules
for ward
C l
Mad am
i ther
F est
organ is
ü hr
k ind
pe ace
in o
ag r
gener al
ur s
R ück
er ste
ich tet
N utz
at ives
ag o
f ang
agre e
lä ge
g ern
ex cell
K l
Lös ung
c lose
ges agt
ol s
dire kt
ke ep
R O
n ame
Artik el
am ong
ier ungen
ul ts
D ire
hl t
tow n
lie ßen
gr at
E l
p a
mar k
lang u
op tim
wer k
einz el
T a
K omm
Ab geord
begr ü
m os
neh mer
h ät
of ten
F rei
ho use
än de
une hmen
t able
ter r
icht s
af fen
str ong
de li
ing en
Zusammen hang
Ger many
beste hen
s he
im ate
o v
Ge bie
Hil fe
fol gt
sever al
fer enz
c ke
ment ion
fle x
p ed
h ome
Präsident in
Ent schließ
sub ject
grow th
instit utions
G leich
polit ische
Hotel s
an ges
ev ent
A G
ta king
rit te
D r
le ast
v ol
mil it
ent sprechen
w ahr
zeit ig
Dem okrat
iv ed
tow ards
F isch
on line
T V
fun ction
we is
ig keiten
ra gen
individ ual
r ange
ab sol
ge legt
our s
Sp ra
Un s
net work
Proje kt
m oney
hn t
P e
i ans
A C
kon n
Tre aty
Dies es
iden cy
aus sch
cr ipt
leist ungen
et s
J an
G ä
itt le
Des halb
le is
on ce
Ver antwort
D o
extre m
partic ip
or n
incre ase
posit ive
Reg ion
A c
teil ung
C ar
bei den
Was ser
ier e
E le
ik en
ff iz
follow ing
opport unity
re icht
iv al
Wor ld
s weise
a way
fiel d
f lo
ic an
D is
Entwick lungs
stand ards
o te
en joy
be h
N atur
Fr ank
st ain
er ien
id ar
au en
K ü
w ün
ra cy
hal te
day s
G o
hl er
as st
d est
Produ kte
I P
Haus halts
cl ass
ein ander
wen iger
W es
dar an
zo gen
E mp
R ed
technolog y
unser em
excell ent
ent scheiden
we b
b itte
com fort
pro chen
S w
teil en
o un
G re
Gemein schaft
St ud
Member s
mach t
fe el
pr ice
forder ungen
ific ation
Z ust
part ners
ün st
ic le
il la
K lim
th ings
on es
Ko sten
resour ces
gr ün
be tre
fä h
p ot
fer ence
m ag
Se p
t lich
h under
B ank
ob je
Ber lin
F il
Par k
propos als
A P
D ate
ge währ
K ultur
u ellen
z er
de f
amend ments
b i
us es
2 3
B as
iden ce
is se
tro ll
2 1
v ia
R u
ru ck
fr amework
ab o
gro ß
öff entlichen
pr ä
me an
f oc
v ier
le ar
P unkt
brauch en
Person en
bar en
u tet
le isten
er war
for ce
famil y
ed om
Sch l
ra ph
an im
l ittle
sign ific
et c
le it
In iti
Sp an
se em
S tell
Ver fahren
e ded
ament al
so ci
reich e
e ver
B au
ta ge
Europ as
Mill ionen
Ab stimmung
ho st
ken nen
l on
J ul
en den
gem acht
tem ber
ver ständ
äch lich
Aus sprache
fra gen
j ähr
y et
er folg
ra ther
ol f
cont ent
sol ution
ele ct
econom y
unt il
in dem
ap art
auf ge
qu ite
Ver hand
know n
sicht lich
Str u
g ilt
g ute
verb unden
gre ifen
um e
Is rael
activ ities
In stitution
loc ation
m ight
Pr iv
pers ön
Dies er
r y
je den
ide o
legisl ation
ent ly
lad ies
200 5
cost s
So zial
saf ety
ens ion
Zug ang
so gar
Pre is
vis ion
Er fahr
c kt
ap an
an st
val ue
b are
unterstütz t
öff entlich
O N
O ne
v ölker
T ür
z immer
adop ted
P a
Eben e
N ational
poin ts
C an
sit u
P at
m ann
at tra
stand ard
stim men
S ü
G eld
dem okrat
alt ung
t t
glau be
ver t
s at
le i
ch allen
re gel
ro und
T ats
St ate
ed uc
b order
con stru
re chts
ger ade
appro pr
m ind
s om
sch l
a ve
dem ocr
u cht
re main
ber al
St re
ein zu
et wa
äm lich
ze igen
mo del
K ap
eben falls
man u
Ge b
ma il
provide d
re quest
Sep tember
mo bil
agr icult
me isten
effe ctive
m ess
We bsite
unter schied
ide d
No v
üs sel
is on
opin ion
n ämlich
z unehmen
vi ol
r aum
g ht
Uns ere
w ahl
s ichtig
if y
A D
sta at
build ing
ein igen
so ur
Be zug
gest immt
r ic
In str
er en
tre at
h aus
der zeit
ob ject
S on
kün ft
dür fen
dar in
p hoto
B al
st y
w in
200 4
r ing
in ge
den ken
Af ter
member s
pro ve
te am
vo ted
wor ds
k ar
ide al
E L
fr ont
incl ude
T ext
f our
r ate
S el
lau b
2 2
respon sibility
id ing
Verbrauch er
con text
b zw
if ul
ag er
ne te
Ab kommen
im es
te ile
r isk
Jahr es
arbeit et
Qual ität
st ant
u en
res ults
p ages
national en
polic ies
ma kes
concern ed
wee k
rel ation
än ger
z a
re comm
to ber
ha ving
b ody
ent ire
tim es
S ou
strateg y
res erv
C D
ad ministr
le ft
import ance
for dern
W ach
quest ions
Strateg ie
proje cts
7 0
fre edom
betr ifft
th od
l en
att ention
ver kehr
Or t
S al
st aff
S ub
nicht s
conta ct
prov ides
Ben utz
min ister
applic ation
ver bess
deut lich
f ig
D ank
er klär
sh op
Re i
Fort sch
l at
M är
Jan u
Re chte
P os
m ass
zeich net
i hn
ic ial
la den
s end
Des ign
we bsite
wi esen
O p
tel le
grat ul
ständ ig
weiter hin
mö glichen
environment al
A ustr
k einen
ble iben
sim ply
ot t
ist an
Le ist
c op
R ates
p ast
wär t
gesch lagen
Änderungs an
Ver bind
B em
F ä
mo der
for ts
Kol leg
sit es
W h
aut iful
ile d
D ok
on a
O S
ne ver
Organ isation
Bo ok
le ase
gre ater
soll en
mos ph
Bes chäft
ans wer
oth ers
un kte
eas y
N icht
che ck
zu stellen
group s
oc racy
akt iv
Deutsch land
beg inn
ot ing
D isk
abo ve
soc iety
b our
kom ple
ition en
s al
struct ure
ad d
su per
Pr of
ent liche
s of
i hm
zus ätz
st um
mit t
S itz
h ip
äch st
dr ück
C he
s einem
w an
gra ph
incre asing
wicht ige
en ted
led ge
geb ung
al ong
Sicher heits
de ll
Ro om
is iert
er ziel
to tal
centr al
amp f
O R
Ma il
wen ig
age d
clear ly
Ges etz
princip le
ben öt
T er
por ted
ist ic
ihre m
wirtschaft lichen
g ing
kur z
An sicht
on str
utz t
Wind ows
be w
E ast
der s
bede utet
h es
un ächst
d ien
c ame
over n
du e
u ell
min utes
Ver kehr
B uch
signific ant
lin k
H ö
l ot
le ader
ess ential
hof fe
st u
su stain
Demokrat ie
Gä ste
sol che
if t
in fl
wür den
c li
c u
author ities
ä re
P ra
ver fahren
ret urn
me chan
fir m
trol le
g as
chan ges
Rest aurant
des halb
su g
2 7
he im
Be zieh
qu ick
terr or
k a
po ol
ll t
sch ö
he art
me thod
N ä
sch wer
St at
J ust
char ac
u elle
P C
be autiful
e hr
Gro ß
Sch ul
for man
ze hn
ver ein
ier s
be half
frien d
un st
Um setzung
gr iff
I ra
hör den
F und
achie ve
B il
propos ed
distr ib
and s
bes ten
n utzen
stru ktur
S a
wer de
Sch we
sh are
l ange
ex tra
yo ung
an a
inter ess
ar ian
st adt
respon sible
in ten
z ä
f ish
setz t
Pro zess
c ir
200 3
b ung
ter min
p assen
fun ktion
au p
fund amental
Ges ellschaft
L o
Menschen rechte
of fe
m oment
require d
ass ist
an ten
O ff
ich en
be ispiel
inter nal
lich es
n u
custom ers
v ement
se i
Me er
teil t
techn ical
manu fact
Fir st
Klim a
zü glich
cr imin
ag ing
Ver besser
näch sten
geb racht
W el
Russ ia
M E
m als
pre c
b ro
rel ated
current ly
Bet rie
H ol
sol utions
l ar
halt ung
dem ocracy
in zip
re mo
Vorsch läge
K ur
N etz
meet ing
se a
saf e
Verantwort ung
am b
au d
Tr ans
gehör t
ander er
J apan
r ichtig
Be völker
fr ist
pos ed
per fect
tra ining
af fe
am a
M or
Ste uer
st ation
nat ural
Z iele
st ück
sch re
Industr ie
Richt ung
at ors
neu er
hen s
lon ger
I D
O pt
D aher
g liche
at al
F örder
t in
wirk ungen
bekann t
ish ed
V on
pl atz
Herr en
Ver tr
i ar
gr up
b ahn
ne eded
pf licht
st or
sub s
19 8
ber g
am es
l änd
an ced
G overn
cor re
a den
G l
aus zu
itä ts
ef forts
umen te
u z
notwend ig
A pr
B y
re f
f ight
Stru ktur
r i
contin u
c ure
implement ation
en e
cult ural
Jahr hunder
enth alten
W ert
l ö
comm od
inter ests
un ver
Nov ember
cap ital
re la
mar kets
bo ten
auf grund
l ab
M ay
gef ähr
tr y
Er weiter
reg ulation
pre vent
en ough
Vers ion
A spe
hap pen
Par te
S h
compet it
Chr ist
aller dings
look ing
democr atic
in ed
un ge
bo ard
en ch
An wendung
month s
sp an
direct ly
H ow
compet ition
Er folg
S port
Bed ingungen
schein t
ke i
s es
c ivil
h ib
sp ir
part ies
d anken
require ments
ta kt
hol iday
app ly
ß t
reco gn
act ive
Inter esse
u th
äs ent
gemein samen
invol ved
fe hl
Deb atte
aur ants
Au ßen
C or
S E
f ile
Grund lage
et zen
reg ions
I M
Wo hn
negoti ations
I de
ch ter
T ro
opt ion
sch luss
P lease
Ihre m
J o
be tra
An gelegen
ber ück
v olle
n ight
Er klär
F ern
viel leicht
ä ter
ie llen
d y
m essen
ll ig
nor mal
sch wier
Ver f
M ore
Mit arbeit
we der
Fr ieden
ult ure
be vor
develop ed
f is
In st
5 00
verwen det
Fun ktion
it es
hin der
gemein sam
K rit
am o
mo dif
l ive
cl ar
st op
organ isation
lin ien
Institution en
fore ign
z el
vor sch
er fü
y p
fü n
mb H
ib ility
Gener al
Wie der
Te le
them selves
beispiel sweise
J u
W ort
Rei he
Schluss el
ev ents
Fo to
extrem ely
br it
D am
ple ase
Apr il
forder t
Gebie t
mer ksam
Ein satz
fre und
m and
ab les
vor geschlagen
unter nehmen
dis k
ap er
Möglich keiten
Entscheid ung
b ath
n immt
c ast
In tegr
mo b
ac cording
far m
cas es
t ä
nat ure
A ktiv
könn ten
Pl an
h on
M er
F ar
ad a
and id
er reicht
K enn
Bes uch
fair s
Änderungs antrag
c amp
rele v
develop ing
Au ßer
t ar
R E
sozial en
h ung
le x
ou ght
al ter
Sel bst
wi der
umf assen
b all
pe ten
de v
appropr iate
h err
Pres idency
sit z
r up
ste ad
ac c
Te am
D och
d ialog
200 1
pre p
Re al
un ch
forman ce
act ions
so on
k or
con tain
D amen
we iß
se par
ac y
Fr üh
T ages
G mbH
P ub
c ard
res pe
se its
har mon
er möglich
pres ented
fund s
9 0
je weil
stand en
ap e
e th
com bin
mon itor
er wä
richt ung
im prove
Pro to
ges etz
th us
gleich en
Disk uss
hin zu
ma xim
Ö ff
hist ory
at ch
min im
gemein same
Aus wirkungen
mo un
Fr om
e uro
it em
Nä he
Her aus
Sch ritt
h ab
cl imate
.. ..
al tern
ch arge
entwick elt
gel ten
l ig
b ra
ch em
de pend
f el
st ates
B rit
den ke
lie d
pre vious
Verhand lungen
S c
hö ch
as es
D ruck
fort un
ty pe
up on
tr ue
es ted
Z us
su cht
c aus
K ön
ind ic
dem onstr
all gem
b ot
Un ser
In sel
re ib
erforder lich
Gesch ichte
kle inen
am t
Mus ik
iten s
Ergeb nis
hel fen
ant i
hel d
Mitglie der
mus ic
ach ten
main tain
langu age
sch o
W issen
en cour
charac ter
addition al
rela x
Ho st
con dition
Re chn
N ie
M ot
in er
at ory
recomm end
un a
Lis te
educ ation
fin al
er hö
ct ors
C our
Ver walt
s us
pr ices
imm ed
facil ities
ist ischen
A M
B re
Fr ance
200 2
ex pect
la im
iel le
a x
welt weit
k ra
cre ated
In form
av o
ent sch
ach en
schrif ten
D u
arbeit ung
fün f
Ant wort
A part
t ats
initi ative
it ions
neh m
prote ct
y l
gu ests
ph one
verschieden e
p ict
Program me
lic ken
Änderungsan träge
anal ys
ex ten
se en
Hin blick
use um
on en
N ord
cent ury
lin ks
Abgeord neten
K raft
Ir an
be finden
Dienst leistungen
2 6
f ör
bis her
hap s
doc ument
e ither
is ieren
ide a
ermöglich t
comm er
h app
sug gest
Pl atz
B ü
K unst
sch ie
un ik
A gr
v ic
Reg ionen
gesam ten
e y
verfü gt
res ol
Kolleg innen
com b
B innen
in tens
ib r
act ually
rece ive
ge tr
D ialog
ing t
ges ellschaft
ür z
proced ure
jen igen
L et
ho ut
L uft
ak zept
angen ommen
m el
Aus druck
if fen
so und
Tats ache
hol d
ver antwort
A ug
imp act
T od
concern s
2 8
K le
an o
bede uten
er he
z one
R aum
kr ä
änder t
work ers
Hand els
dar um
e ffiz
R is
on y
ce ed
Terr or
se ite
einzel nen
miss ion
B lick
Sou th
part ner
sp ace
Ver tre
spiel en
eben so
en able
c ies
R ad
l ändern
al most
Par is
emp has
communic ation
work s
ww w
f am
il ities
Forsch ung
g ain
bild ung
colle ag
P L
r ates
es ten
streng then
Außer dem
re fle
ad urch
f u
pr im
major ity
hat ten
gegen wärt
us ers
l iving
Land es
Off ice
certain ly
invest ment
C as
every thing
he iß
prof it
kämp fung
rest aurant
th re
spre ch
Kr ise
fr ü
p ing
w r
par ts
Ar ch
in ation
aus gest
Min uten
rie ben
Bezieh ungen
be f
v a
Tur key
Bereich en
fäh igkeit
leis tet
ta ck
cr u
igr ation
Haus halt
C H
mittel n
F ühr
ire d
W est
j ud
ab ge
uni que
wach sen
Se it
inclu ded
N et
g ab
exist ing
rel ations
Verein igten
hät te
ch s
ab on
cent er
Amer ican
international e
Beit rag
lead ing
ig ungs
Port ug
ta kes
key word
h or
K os
h end
mention ed
us st
en or
spr äsident
Grup pe
M ob
u le
know ledge
Z um
un ded
weiter en
ac commod
Fr ench
design ed
Ge legen
fol ge
lo k
f fer
t ion
c en
h inter
Wettbewer bs
guarante e
spr icht
wicht igen
H ar
Auf gabe
Tür kei
do ing
l änder
for men
on d
situ ated
d ict
d re
ur en
Z ur
f ive
gen ie
W ill
Bevölker ung
par liament
v ö
U p
an er
cept ion
it ing
Famil ien
l is
amer ikan
writ ing
je dem
con sequ
tern al
On line
co ordin
Ein zel
Re form
il ar
a ware
ch sel
Govern ment
at ure
pra kt
Fisch ere
p al
m id
mit ted
ind est
ble ibt
ra chten
Inter essen
St abil
comm ittee
s ess
rei ben
H a
grö ßer
Pro z
programm es
än den
he ut
Hand el
i ra
ar i
H ome
L on
ass ess
We iter
par k
r ich
Ho ch
amo unt
as soci
l le
m einen
Sta ats
sch le
break fast
z if
en large
c laim
ü lt
se arch
co de
Be g
V is
Kon trolle
ce p
f ten
prü fen
corre ct
ex clus
rel ig
feat ures
dec isions
The men
ö st
Sch af
conne ction
m ü
ac ross
hand eln
bar keit
gangen en
agre ements
med ia
cor por
3 5
m ein
conf lic
Ver pflicht
Erweiter ung
wor ten
reason s
D an
verständ lich
Wer k
br u
throug hout
ne ut
tra vel
Amer ica
profess ional
K a
wirtschaft liche
v il
P lay
bal d
ze ugen
Th ank
absol ute
f li
D i
at tet
Lis bon
men d
s ag
jo int
K ampf
A kt
job s
Be hörden
cl ub
je de
Verbind ung
pr äsent
199 9
Förder ung
l ater
Benutz er
g än
ast er
comfort able
te id
Entschließ ung
fil es
Pr ior
be kommen
B u
H af
out side
Wach stum
an zen
A gen
comple x
comm unity
Zentr um
pack age
er sch
L E
no thing
concern ing
un abhäng
heiß t
av a
Nor th
hand lung
L iss
b ad
it ten
qu is
S or
ap prov
ent re
custom er
val ues
her aus
v in
kt ive
he ar
gleich zeitig
U kra
Stand ard
konn te
v an
cons ult
milit ary
- -
Ver ordnung
Lös ungen
object ives
Lon don
fam ous
P E
con clus
au sch
to ok
integr ation
Ser ver
ra f
complete ly
s ent
has e
unser es
Aug ust
f allen
pub lish
pract ice
sie ht
ra ce
origin al
Dok ument
h ours
ir es
An geb
dig ital
äl le
al d
r ichten
w under
fortun ately
j ahr
per formance
Deb ian
Liss abon
är en
al er
no te
ear ly
M et
p an
p s
all ows
fa il
gar ant
il legal
imm ungen
sp äter
k n
prom ise
nach halt
de te
gem äß
A ben
jed es
Cour t
im age
richt ungen
In nen
pop ulation
form s
es ter
r und
cle an
bu ilt
Fol gen
amer a
C entr
f al
G lobal
2 9
k ungen
ho he
off icial
k oll
down load
ger ichtet
Dam it
M ag
Fin ally
wen den
d le
N ow
spe zie
agricult ural
läs st
ien s
con gratul
Bar cel
äs s
S T
K ern
ig te
na he
4 5
S ince
bed ingungen
ess our
3 00
S ter
conta ins
obje ctive
report s
bas ic
pl ant
part y
g ame
Man agement
cap ac
cre dit
uf ig
un ities
regard ing
K or
ne ben
benef it
us h
för dern
Lin ux
Russ land
ex tens
An al
enth ält
F ur
tradition al
trans fer
os en
sen se
Verbesser ung
establish ed
cr i
In nov
sat is
B itte
R el
f s
bo x
e fficient
k rit
im ent
po or
inclu des
pro zess
A mend
For der
bel ow
appe ar
kle ine
wichtig sten
se x
er weise
r is
it err
ob lig
sim ple
Gesund heit
pot ential
Binnen markt
Book ing
c ategor
spe ed
fon ds
mo ve
ange messen
M ater
P ass
quick ly
trans l
h uge
sch ön
iver sit
L ux
gu ide
Fe bru
entwick eln
Fe hler
Not wend
pl ann
as pe
ver g
gesam t
l ux
applic ations
instr ument
friend ly
cult ure
o vo
be züglich
comp uter
e c
zahl en
De c
Dar über
un sch
ver tr
Au gen
Ergeb nisse
w ise
Frank reich
on om
constru ction
H ere
hin sichtlich
or f
S ome
ie ben
Inform ations
L og
b road
d iv
g ot
ul l
st age
clos ed
be teil
pl ies
tro tz
verbess ern
achie ved
au ber
n issen
p et
schließ end
anz ös
iven ess
ig ent
foc us
F uß
er möglichen
fl ä
dialog ue
vor schriften
D V
inde ed
consum ers
t ic
mehr ere
Nutz ung
sp end
Wo chen
ho ben
rece ived
M acht
verwen den
s an
bre it
Gelegen heit
industr ial
govern ments
seem s
ger ne
set t
M S
be ein
Vol ks
Arbeit spl
l ant
m ing
k ulture
grund legen
E T
ex port
success ful
los s
p ite
Initi ative
amend ment
stell ungen
cho ice
alth ough
K ir
incre ased
al te
O L
Se cond
M ic
b uch
Kon ferenz
Schaf fung
Un ivers
Se e
st off
lear n
G et
gef unden
br igen
E ur
b a
k raft
kenn t
the less
os s
kon kre
on nen
Aus wahl
There fore
er ster
er lau
ser ver
N at
pro b
recent ly
sustain able
G ip
sten s
vö llig
Mitarbeit er
G ree
disk ut
Bus iness
spe ct
inde pend
nu clear
ie b
ge wä
s un
ter rit
t i
ge eig
gan zen
Früh stück
inter net
ik o
arch ite
verfü g
B ahn
sicher heit
schrif tlich
treat ment
wal k
pub lik
n ation
reg ular
sch ließen
ar g
h aupt
ip l
gan ze
cir c
St unden
3 1
j our
O ber
p urch
An fang
cre ation
tre ffen
ir gend
dy nam
og raph
t ung
P an
exper ien
every one
ö hn
dr ing
Ge walt
Fur ther
Wo che
n ern
t liche
st ances
it ness
agre ed
Vor aus
Ver wendung
Ver anst
zeug t
T at
ver stär
reg ister
commit ment
w est
gro ßer
Reg ierungen
offen en
sozial e
bal ance
ger ä
f an
Str and
c ross
m einem
at ast
co unter
subs id
P la
olog ical
Cl ub
ad ded
19 7
equip ped
profess ion
meas ure
sp ar
dire ction
equip ment
Ma ß
Inst all
Änder ungen
li z
An zahl
F ach
L auf
m is
dou ble
Re ise
relev ant
ck er
auf zu
Barcel ona
ex change
üs se
wä hlen
level s
lim ited
in i
Notwend igkeit
new s
ple as
eng ine
Au fen
o il
re in
princip les
deli ver
sichtig t
es h
g al
Aufen th
gu ten
su it
ic les
good s
ein deut
P S
D on
B ur
Centr al
in ne
verfü gen
rif ten
ges prochen
f eld
un ion
Angeb ot
mob ile
H am
genann ten
ma ßnahmen
sor gen
cover ed
sc ient
pr ise
il ität
sh own
J une
hig her
Geb ä
gr enz
f ix
str ess
tem por
ig lich
ver stehen
ster dam
mat ters
ask ed
äuß erst
Ge w
F R
O f
Kr ieg
M iss
L es
pf lich
Mater ial
fahr t
it el
ill s
sh ows
Über ein
Am sterdam
ra il
ör per
Zeit punkt
schn itt
eigen e
ell er
Ex per
pla ced
W TO
w onder
star k
C ol
categor ies
essour cen
sol id
sk i
M ac
stell er
Kon fli
tats ächlich
spe zif
st ic
high ly
best ät
sty le
S to
su fficient
b lo
S S
form er
T age
Her zen
sup ply
D at
gesam te
fr ieden
So cial
einz ig
ategor ien
Kom prom
s ix
größ ten
d raft
op e
let ter
beginn ing
men ted
er ve
wo bei
Sol idar
u fen
Integr ation
Verein bar
Gesund heits
und es
cre en
ie ll
respon se
Ukra ine
Sü d
hin dern
prom ote
Pos ition
H T
b and
Gemein schafts
E igen
r id
redu ce
H inter
i ally
bau en
Ma i
stat us
Stell ung
mo d
innov ative
O c
st ag
O k
em iss
Eng lish
pt ion
z unächst
vor hand
to ol
ster reich
S im
effe cts
Po st
M än
h ne
carr ied
Ein führung
per haps
ist ische
art ige
Beschäft igung
off ice
pop ular
S um
re view
s l
C ity
Ne u
spr uch
prep ared
n ä
Kommissar in
opp el
Wettbewer b
Transp ort
mäß ig
prior ity
press ure
enlarge ment
k am
gewähr leisten
sch t
gehör en
ex ternal
ä hn
kl us
Kos ovo
adv an
An wend
led iglich
In de
opport unities
g ült
O pen
S il
asch inen
cho ose
Fortsch ritte
i ation
De velop
wissen schaft
x is
wün schen
fre ien
z y
Erfahr ung
ma ins
Lie fer
l ies
f ält
Nie der
commer cial
W ahr
Produ ktion
tal k
F erien
li beral
E rachten
S ite
Ausschuss es
aspe cts
Erachten s
hotel s
bestimm te
fund ing
Rom an
b illion
ver treten
sim ilar
L at
Art icle
Be kämpfung
av ing
set ting
accept able
J uni
do or
crit er
läs s
Proto koll
S omm
or ient
wor tern
Af fairs
g y
sp ac
ver suchen
comp re
Aktiv itäten
sup ported
capac ity
v ideo
U R
St ar
W ell
vor liegen
wor th
Au ff
con du
in fra
P f
transp aren
s ize
kon zentr
thank s
e hm
end s
reach ed
c ul
erhe b
ipl om
reg istr
so uth
deta ils
I L
hör en
Z w
D rit
b lock
A uss
D inge
r om
flo or
Vertrag s
A ut
ber t
v olution
auf genommen
consum er
beh ind
k an
Komm unik
Person al
re mains
Kon takt
ve h
ele kt
ver pflich
haf t
atast rop
öff net
Währ end
pos sibility
St im
erfolg reich
Le it
au l
p ie
ob tain
System s
im ension
Afr ica
consider ed
pre t
lat est
bes chäft
Stand punkt
gre en
fl uss
ab or
s mo
se cure
ho hen
u chen
Schlussel wortern
roug ht
lo wer
hig hl
kr imin
wi mm
P unkte
sch ütz
Instr ument
who se
Da bei
k ü
i os
r ang
M ich
Famil ie
tra ffic
ph ys
g ünst
Comp uter
th in
c oll
ieren den
S uch
us ion
gh an
material s
m eines
sof ort
Ju gend
wes entlich
ma ß
E M
iterr ane
S icht
ple ased
bring t
ser ies
ad ap
dec ided
trä gt
ier ter
b ein
T or
D own
ar ily
Sp ain
pre par
B ul
de ck
pr int
en gen
de fen
zwe ite
mor gen
gar den
de termin
s ätz
sprech end
setz ungen
m em
ab zu
ist ics
qu ar
ien cy
sol chen
f urn
Spra che
Hö he
Erklär ung
Kön ig
Pr ä
Med ien
mb ol
De z
con cl
Vorsch riften
f fe
air port
eas ily
sch ätz
ver gangenen
brauch t
ge ts
Ber g
i j
aussch uss
wo hn
su ffer
bestimm ten
Con vention
sol idar
H y
stand s
gere cht
H igh
avo id
mo us
pres ents
E ing
sag te
leg ung
Grup pen
B ud
wert ung
som it
le b
Pre ise
e es
alle in
f angen
prov iding
S up
pla ces
Auf merksam
N ur
ne igh
g ives
An satz
it ation
ic o
ar enz
n ommen
s ätze
wur f
Mehr heit
Um gebung
Sta at
at mosph
sib ilities
Best immungen
C al
Mar ket
agen da
Su per
discuss ion
G olf
industr ie
ä st
Wes tern
vor gesehen
press ion
vir t
cl ick
Bas is
T ät
st ability
com promise
I V
ob wohl
sour ce
independ ent
Entscheid ungen
Technolog ie
dis play
fe hlen
Pr ü
Dec ember
i ately
y a
Priv at
assist ance
hand el
außer dem
os p
regul ations
r ies
u ted
voll en
letz t
j ün
R ot
P h
m ap
ro at
Rat spräsident
S P
ze uge
cre ating
Aufmerksam keit
ak ter
mess age
con cept
or k
Bericht s
Ge fahr
t ät
em er
T ex
kann st
Brit ish
J ava
er ous
ann oun
ein schließlich
accommod ation
er hält
step s
ru le
ru h
Ital y
de ath
it ure
ein heit
sh ar
read ing
einz ige
fis her
r as
Tod ay
war m
Transp arenz
An forderungen
et te
Serv ices
lö sen
B ad
üh ungen
M eine
Mar ch
to m
ab kommen
ev al
produ ced
dan ger
el se
ar m
au st
K op
Flug haf
S telle
be y
qu es
instr uments
ob vious
Land wirtschaft
Re public
oll ar
vor her
Ne ben
Dez ember
w ander
ater al
Verkehr s
produ ce
o ben
stand ing
leit et
d adurch
ot es
An frage
re ign
transp ar
begrü ße
L ast
st ein
legisl ative
Bereich e
l am
po ver
mo vement
spr ün
ex pla
Diskuss ion
Er zeug
199 8
st elle
zahl reiche
Proje kte
le ave
infl u
D om
S ign
Ital ien
Anal y
ex hib
ous ly
stat ement
contrib ution
stär ker
sum mer
modif ied
Invest itionen
Präsident en
be ziehen
proper ty
DV D
c up
w ent
Me tho
re pe
poin ted
al b
A gent
bre chen
er fahren
D et
3 2
fr anzös
ausgest attet
w esen
arr ange
Öff entlich
t ask
Sp a
C re
F ree
ür f
üh m
Frei heit
ü st
Pr inzip
ins gesamt
ständ igen
w all
il en
be zogen
Gr enzen
viol ence
ren e
wichtig er
A ktion
pur pose
proced ures
Agr ar
k it
ke its
k ürz
b rought
re cord
reg ards
gel n
k i
be ll
St är
Sitz ung
zwe iten
iterrane an
activ ity
Janu ary
p ain
Room s
ffic iency
O per
k einer
rit ts
med ium
reib ung
ug s
gro s
vorhand en
benöt igen
er ing
tho us
L oc
T est
ef fort
Schwe iz
f alt
ander s
P ap
n öt
M ult
atmosph ere
contra ct
Ira q
U K
Al so
ing er
Oc tober
Bild ung
Bil der
sit zen
i que
erwar ten
if fe
sch w
wir ken
itz er
con ference
fo ot
Regel n
V ideo
E very
Arbeit nehmer
Mär z
I st
ch ild
transparen cy
get an
y er
l ös
r um
S en
ver se
et imes
H ins
d ut
tr ip
Hins icht
D el
v ital
Af ghan
ver kauf
distrib ution
B on
p ath
Bes tell
Somm er
i ke
ut ter
B ra
d ise
19 6
Y our
Unternehmen s
ein gesetzt
un er
ff et
allow ed
nie dr
er inn
criter ia
res se
lab our
st abil
benef its
möglich keiten
eig entlich
forder ung
leist ungs
relation ship
leg it
zwe if
r ig
W ein
row ser
ail s
C E
dien en
fin e
c ou
l ives
ell ow
europä ischer
in stead
genie ßen
de ten
W ä
et ary
neu es
our selves
comp on
a ther
hä ufig
Med iterranean
par te
gr iffen
P H
T H
T em
ac cep
fish ing
min or
M useum
H ung
akt uellen
g iving
au lt
Ver änder
ün d
unter st
Re de
verb ind
zie ht
ó n
am s
for get
Präsident schaft
de cl
or ed
au ern
pr ises
wimm ing
c os
geb aut
advan tage
N ationen
Part y
Sch wier
S ache
challen ges
qu are
Auff assung
Date i
M od
interest ing
b ase
Further more
u it
durch geführt
Vol k
le ider
Lebens mittel
typ es
Bem ühungen
O s
l änger
K ing
Y ork
prov isions
Ok tober
er kenn
s ort
ex act
cons ist
I A
hö her
pover ty
ele ctions
W ider
oc cur
ex cept
mor row
Bel g
Unter such
Ar mut
P D
integr ated
men sch
solidar ity
K oh
Portug al
lar gest
to ols
congratul ate
M any
olog y
he ben
In stit
tra in
re li
to morrow
St ad
Grün den
C ap
Bür gern
grow ing
V illa
d ient
sur round
konn ten
p aid
ar k
beit ragen
star ted
G el
Jul i
Lin ie
betre ffen
writ ten
He ute
elect ron
compre hens
stud y
kt iven
G ed
se ction
doc uments
Emp fehl
s inn
d ates
schein lich
colleag ues
kon troll
Pal est
dam age
Develop ment
un ten
bew usst
gesch affen
Fl ü
con stit
le iten
fre qu
requ ires
apart ment
human it
pre fer
gew öhn
Jahrhunder t
institution al
ge worden
Kenn t
consequ ences
e he
per form
fil m
if ik
wen ige
R en
A K
use ful
ge ber
ic y
if e
lim it
li ar
Bul gar
G ast
Gr and
ser ve
o st
ber ühm
la unch
Tages ordnung
drück lich
ne y
con ven
les en
St art
oper ating
conflic t
Öffentlich keit
B ot
Fil m
scho ol
de cken
d ank
pos es
Bürger innen
R essourcen
hält nis
Date ien
öff entliche
vic tim
Re publik
verg essen
demokrat ischen
so le
größ te
Auf gaben
Jul y
cur ren
iel t
Sch ließ
m ä
C enter
is land
Ital ian
l isten
Janu ar
be handelt
den ce
it ude
altern ative
Stabil ität
er neut
wo od
cru cial
kom p
ü b
folgen den
lang frist
R ights
Nat ürlich
e qual
E reign
real ity
ren ov
I F
3 6
Be teil
ieren de
zus ch
wer te
b ü
I B
F on
Wer te
con stant
leg ation
L assen
ver standen
P hil
immed iately
ann ual
happ y
ta ins
ihr es
off iz
St äd
N AT
ros oft
L u
pay ment
hes ion
pract ical
produ z
d lich
employ ees
Auf trag
Amend ment
n ice
son st
Forsch ungs
f än
i as
Mil liar
k il
ge leg
d ienst
for ces
per fe
go es
Stra ßen
B ro
imple mented
Nach bar
M art
c raft
er o
en h
St u
zu führen
system e
ele ments
199 7
terror ism
var iety
H el
hät ten
pre is
der al
wi d
w on
g nis
app lied
pl es
entsprechen den
die jenigen
er c
4 8
richt ige
A B
d ent
Fä llen
Flughaf en
Host els
s w
ien z
kle in
Kü che
process es
bil den
ur sprün
w art
ist a
Rechts vorschriften
Zwe itens
zu frieden
S inne
N r
S af
ver hindern
ure d
nor th
ausge zeich
ur ation
wa ste
ste igen
ade qu
anges ichts
analys is
Spe zial
Mon aten
e fficiency
uni vers
M id
conf ig
op ol
be ant
spra ch
k unden
zeich nen
G al
berück sichtigt
un mittel
be halten
Un iversit
Mo dell
Ob je
ent sprechend
Se curity
zeich nung
ver öffentlich
ü brigen
Sch n
dr ive
spe e
organis ations
er kennen
ar a
I R
effiz ient
Mic rosoft
E ven
H ä
Wo hl
monitor ing
war um
cop y
Bed ürf
wür dig
T al
c ement
ze p
fü hl
a ign
im at
fre ie
Finanz ierung
og le
R ats
tempor ary
pa ar
fr esh
dou bt
al ity
dis crimin
frü her
fü gen
B undes
ro ll
D ritt
e her
n es
Vertre ter
partners hip
k ap
besch rän
h om
spir it
ha ir
gew esen
af r
ive au
cript ion
b ür
All er
Fir ma
Tra dition
ex pl
sicht igen
Beg inn
Ko ordin
ad es
zahl t
b or
Be handlung
New s
l s
k ategorien
bed ingt
Vertr auen
ern s
ge wiesen
os op
Al though
say ing
Angelegen heit
Span ish
se ktor
En ter
ler nen
archite ct
oper ations
ber u
bere cht
lich keiten
farm ers
C entre
nach ten
high est
per man
Min der
n ungen
jün g
z i
7 5
v oting
be für
fin ally
her z
tem pt
sport s
est ic
ex pe
comprehens ive
ü cke
wür d
de part
minim um
iz in
qu iet
An streng
opt ions
at o
C r
Ur laub
c ert
leist ung
4 00
Fol ge
D uring
W ann
gel t
be ar
carr y
spl an
Terror ismus
Down load
los en
co ast
technolog ies
it zen
W inter
ver z
bey ond
ide as
Ger icht
é s
kl ass
i ro
ut t
In halt
scient ific
Erfahr ungen
Ver gangen
wert ungen
sal es
d auer
mean ing
E conom
S D
ac cord
access ion
redu ction
m ic
we ist
Second ly
histor ical
Aufenth alt
Gre en
challen ge
M ann
pre ci
sto ck
d eine
s creen
M os
an lage
rest aurants
Änder ung
te x
sele ct
voll ständig
beg in
ad o
b ien
techn ischen
erfü llen
w ards
Kre dit
histor ic
V al
al ität
tra ck
C amp
über haupt
serv ed
end lich
form ul
verl äss
be zieh
stehen den
ver sucht
and en
was ser
rap id
D ien
O st
Pra xis
ell schaften
dist ance
A re
us ch
grup pe
j em
trä gen
wee ks
Al t
oc cas
tar get
f ire
sess ion
l ate
ste uer
schütz en
W il
a be
kr ise
vil lage
shop s
Parte ien
l as
W unsch
Berichterstatter in
f örder
de ep
change d
wahr scheinlich
schö nen
da ily
circ um
G N
T agen
M L
al one
lauf en
tr itt
More over
frien ds
M and
V iele
F lex
Sch ritte
form at
ik er
Al tern
Menschen rechts
de p
wan ted
camp aign
Gr ö
lik ely
jo in
we chsel
kann t
Spiel er
Aspe kte
ständ ige
verantwort lich
Op fer
ay s
w ine
erklär t
or ies
or ial
ein gesch
15 0
vor zu
fr ied
hervor ragen
f as
opp ing
Pub lic
se chs
gen ug
An ge
ag ieren
maxim um
refer ence
num erous
Heraus forderungen
umf ang
olog ie
A F
er folgt
person s
cli ents
k ret
Ver teid
Fl or
Vergangen heit
I re
crit ic
trä cht
th ought
Span ien
ver ab
Is lam
pur su
S oll
Tele fon
H uman
T ier
beg innen
pl ans
te ach
begrü ßen
ne tz
Produkt ions
innov ation
for d
Z ivil
rest r
Aller dings
c andid
business es
G est
ra ised
N un
Go ogle
Ire land
world wide
Solidar ität
P et
At mosph
0 1
em ail
f ill
M ess
verpflich tet
Gebä ude
sich ern
V ir
M oder
offer ing
strateg ic
bess ere
lo st
3 3
start ing
span nen
S m
Entschließ ungs
d aten
se ctors
ad vert
ad opt
C y
s ult
n ungs
S at
Ar ab
leader s
k op
M P
los igkeit
mot or
s il
mach ine
Ein ige
D A
ge kommen
ze iten
i ö
pl us
Austr ia
tr ust
n el
Ber at
inter ested
isch em
ur gent
erwar tet
s äm
ic ated
reich end
prob ably
offer ed
Schwier igkeiten
power s
is te
hol en
im ages
sta aten
any thing
Ad resse
Arch ite
Fall s
Dire ctive
apart ments
moder nen
reg ime
vers or
val id
Arbeitspl ätze
Unter kategorien
Con ference
we iten
Chin ese
jeweil igen
publish ed
Pre m
W aren
Kr ank
Fir men
sub stant
W ik
con centr
kar te
rel ating
fä llt
sor g
hil fe
r ise
br and
D ann
prü ft
pl at
zus etzen
method s
absolute ly
Ver gleich
gemein schaft
se iten
bre ite
D enn
a ktion
call s
D istr
letz te
H off
S hop
be came
zu künft
kämp fen
atal og
a ver
rup tion
n ütz
st ets
grup pen
Afghan istan
Kar te
re views
ander em
just ice
som etimes
g ers
ch ance
o o
bo te
zum indest
Verf assung
In s
199 6
langu ages
moun tain
var i
ell ing
g ames
hon our
dom in
ap preci
Milliar den
sch lag
wr ong
sen s
ange boten
st ieg
emiss ions
O T
sim pl
sc ale
ur ance
Schl üssel
NAT O
Kap ital
Land wir
caus ed
heut igen
mö gen
rele ase
ad just
ver urs
Co de
ext ent
histor ischen
Q L
l angen
automat isch
Rest aurants
oper ate
Agen da
Rom a
Or d
restr ict
flex ible
Verwalt ung
außer halb
Li beral
g ment
Kon zept
affe cted
S onder
über nehmen
leg ant
erinn ern
An nahme
ver m
priv aten
On ly
gen utzt
Wh ile
b ir
sy n
Atmosph äre
accep ted
Sw iss
u ern
Proz ent
Stell en
Ge org
Inde ed
flä che
vor aus
eindeut ig
erlau bt
gesch ütz
en ze
dring end
d ro
fe ed
r aten
d ung
m as
igh ted
bit ten
S M
Er stens
In fra
hil fen
to uch
O ut
ver me
20 20
ge hend
kon om
M ass
ge tragen
rit ten
E G
sit ting
gesch rieben
initi atives
Home page
invest ig
Reg ierungs
K an
führ te
play er
gen u
Ges amt
play ers
br id
ein gehen
zahl reichen
3 8
bank s
ele ment
redu z
Anstreng ungen
de gre
conf idence
B is
min ute
t arge
spezie ll
install ation
Gip fel
A V
e k
Univers ity
process ing
G as
b ul
Ihr es
influ ence
border s
Air port
exper t
Ster ne
d iplom
Da zu
Über wach
s low
he ard
An trag
ges che
iz es
persön lichen
V en
D oppel
pict ures
he av
s av
komple x
tal king
tr ying
rene w
er weiter
neg ative
V e
dan ke
commit ted
es te
Ze ichen
reform s
demand s
manufact ur
Sto ck
crit ical
S lo
re member
statt ung
ch air
Sk y
par king
best immt
St il
G ra
Zentr al
men u
Im mobil
Ob wohl
curren cy
comm ents
over all
Fischere i
Le g
u ded
Ein fluss
Bes onder
wel ches
Betrie bs
e cut
Wahl en
Angelegen heiten
P T
amerikan ischen
Russ ian
ex erc
Tro tz
V oll
Con stitution
f it
il ing
separ ate
express ed
P ak
C a
mor ning
st offe
be mü
bar er
fiel ds
zu dem
vor gelegt
co hesion
st imm
Verpflicht ungen
dat ab
Organisation en
comp ar
sp er
B ay
aus schließlich
En d
prior ities
deut schen
l ier
sp a
des pite
Wissen schaft
System e
iz ing
administr ation
S he
über zeugt
Krit erien
sele ction
stim me
begr enz
größ ere
E m
geb ie
Aussch uß
T ar
fl ü
ben utzt
zusätz liche
allgem einen
ch tet
S QL
I E
T un
Zwe if
bei de
expe cted
be darf
gu est
ü hren
kon stru
ul s
entsch ieden
transpar ent
improv ed
erkenn ung
p un
Sch wer
l ass
br an
accord ance
struct ural
über nachten
In n
go al
Ein richtung
Po wer
dar stellt
C ast
N G
cy cl
sc ope
represent atives
oc cup
V ier
getr offen
Th er
ot ion
Palest in
national e
s ü
b ill
spr ü
inten ded
erst ör
e legant
er ung
Komprom iss
approv ed
Vereinbar ung
lä uft
l ern
Zust immung
Gr ie
ital ien
is ely
o ber
nam ely
N utzen
dec ide
support s
nat ür
al tet
respon d
sy ch
sein es
at tack
milit är
Ver halten
L ang
p oll
Re formen
m ill
for ced
th af
A cht
automat ically
Aus gaben
Best and
in tell
open ing
besch lossen
K auf
re isen
ro b
un employment
Ira k
le bt
competit ive
akt uelle
des cri
val u
E igent
h am
Res erv
Parte i
Ger ä
P hoto
f älle
v otes
posit ions
kauf s
sen sit
se ason
fol ger
ent gegen
Bem er
ic ken
bour g
I G
eth n
increasing ly
s agt
di vers
administr ative
A gre
en ded
ho od
sh opping
bu ffet
Prof ess
c ities
coun ts
Mittel me
e ast
3 4
E ind
L AN
zeich en
un bedingt
cre d
run ning
global en
H ause
ge zeigt
exp lo
encour age
Gar ten
Frank fur
ar us
main ly
Nach t
G old
fre uen
t ies
Ö l
l ück
victim s
tem per
te uer
h offen
her unter
moder ne
conclus ion
V ie
us w
Se ktor
work ed
erwä hnt
der e
Pa ket
to t
Fun ktionen
your self
äl ter
ig ungen
ange geben
redu ced
Le ute
contrib ute
Ide e
glau ben
akzept ieren
sam m
ich ert
l än
anges prochen
g st
h our
W affen
Aus gang
W hy
effect ively
M c
M ex
u be
fä hig
lis ted
circum stances
D ro
deb t
elekt ron
Schließ lich
C ard
entwick el
Frieden s
z t
sich ten
Gl ück
berück sichtigen
table d
pro ceed
cr ime
M ün
des tens
hin weisen
plann ing
suit able
t it
Innov ation
o ten
Ö sterreich
ag raph
D ollar
law s
Vor teile
and a
führ ten
M io
m ix
Konfli kt
ehe mal
sicher zustellen
prote cted
Sch la
entwick lung
con firm
kit chen
er greifen
gener ation
Richt linien
att le
bu y
V ölker
ge ändert
An erkennung
ü ckt
be gan
p hr
agricult ure
ab r
cre t
sour ces
k aum
infra structure
gra f
3 7
f ellow
rel ate
erziel t
br ief
leich ter
L icht
mitt ler
say s
ion e
imm ern
An y
gel öst
D ub
discuss ed
sum mit
dec or
dec kt
bath room
qu em
sh of
ent spricht
S am
m är
F alle
ab we
schrif t
Technolog ien
be ge
an ger
ha gen
ges und
pen dence
verfüg bar
st able
5 5
ol a
ens uring
F akt
V o
at ter
er y
p aper
m i
N ahr
ch ann
mot ion
Ter min
struct ures
Wettbewerbs fähigkeit
N ations
ange b
As ia
gestell ten
D P
Ind ia
selbst verständlich
it ch
F el
com peten
am bit
Produ kten
ifiz ierung
entsprechen de
T y
L ad
K ünst
ris ks
CO 2
Gar ant
Dem ocr
visit ors
h ot
unterschied lichen
ug g
Co sta
ly ing
Ele kt
Zw ischen
Lux em
v illa
it a
I ts
Her z
E miss
r asch
ore a
nah m
Z unächst
will ing
med ic
schre iten
as ks
ro t
s wimming
wä lt
Grie chen
r uss
ar ies
Mit teilung
id s
discuss ions
te te
um gesetzt
develop ments
fun ctions
sp art
We it
power ful
199 0
Bel arus
Ber uf
defin ed
O sten
S L
Ch ance
möglich erweise
L ab
Er d
introdu ced
Durch führung
Stand ards
Stat us
famil ies
gleich e
ke pt
Infra struktur
la ger
ver e
qu ant
D ig
Hinter grund
en se
tour ist
lemen te
deta iled
aup ts
Spra chen
bin den
spe ctive
L iz
ib ilität
man age
mar ks
budget ary
ben utzen
min destens
w ants
ic ip
b ia
h und
re presents
reg ret
mor al
stre et
re chten
iv ity
St ation
see k
understand ing
a ded
E D
H altung
ct ing
wo gen
feat ure
particip ation
bestehen den
S cript
sel ben
anal y
zu letzt
sen den
B anken
Beit ritts
E ffe
mehr eren
r ural
entr y
Währ ung
C ze
ple ment
P or
ain t
le y
kommen den
Install ation
y e
but ton
üt ze
Ab schluss
is ol
art igen
Wor k
l ust
cli ent
av ig
amp ag
ge halten
Netz werk
verkehr s
Zu dem
aim ed
res ort
kl are
c ers
I dent
ä u
ziel le
P ack
er a
ator en
Veranst alt
ly mp
An spruch
war ten
Qual itäts
K al
techn ische
In halte
lie fert
even ing
ach tet
kt oren
i at
as ser
Bo den
Mil it
Pat ient
T hen
sp ann
Kommunik ation
clos ely
Anwend ungen
assess ment
Bus h
all oc
sch lä
fl ow
mult ip
D re
electron ic
man aged
anim als
lie fer
sie he
d io
aud io
nä her
Al p
Fon ds
Reg ional
at tempt
exact ly
Sch aden
st ät
st änden
An pass
im men
finanz iellen
adequ ate
schwier ig
199 5
lo ve
wh ite
t ur
verbess ert
S ing
ange zeigt
ok er
fest gelegt
sch ul
gu ard
ste chn
corpor ate
de ad
speak ing
hoch wert
is er
Vor bereit
erfü llt
st ated
pl ants
ure au
Pe ople
bür ger
K örper
notwend igen
extens ive
sch em
in it
uch s
t p
prec isely
p ension
t ief
Kennt nis
b lack
ger ichte
IS O
ul y
con stitution
ta il
rad io
satis f
bre iten
9 9
gesch ä
in ts
ver folgen
Ab schließend
R and
we ite
market ing
ch ines
k licken
guide lines
discrimin ation
I ON
u als
am ing
S pr
prov ider
Auf nahme
Mot or
am ber
mann er
sp unkt
Mid dle
Klima wand
in come
C li
we ak
specific ally
Christ ian
proper ly
gen cy
ter race
0 8
T R
be coming
Ac cording
Besuch er
erziel en
O lymp
w atch
C S
us ually
Agre ement
Un fortunately
competit iveness
Cze ch
c amera
brit ann
b orn
introdu ction
grün det
zentr um
comm ent
Jo hn
c ia
Hol z
pro port
deli very
Aus bildung
a str
er stellt
0 9
colle ction
mit ten
asch ine
eingesch rän
sy mbol
E ach
h le
con ver
Men sch
link ed
Ne ver
frei heit
Bo ard
enter prises
Su che
verme iden
Bet r
ra hmen
Se a
Ber ichte
erhö hen
genann t
ger ing
lo b
anc en
besonder en
bereit et
B ade
al es
re je
imm igration
program s
lie be
fre ue
at ers
spee ch
J etzt
Aben d
ar ischen
Gree ce
ver ring
improv ing
Pak istan
Leist ungs
ander es
support ing
Tur k
20 11
sicher lich
wer ke
Beit ritt
refer red
thous ands
consider able
Apart ments
Viel en
pur poses
geeig net
finan cing
6 4
pat i
li o
ass ungs
War um
exp and
funktion iert
ab y
sele cted
Ris iko
itzer land
col or
L ib
pr äsident
res ist
fa cing
voll er
at ively
S and
pres idency
G B
ien en
PH P
def ic
pol ice
Ar ten
nach dem
it ter
mit glie
bet onen
M B
v ac
stud ents
phr ase
Grund satz
j ur
we ap
sa ve
Er n
Vor gehen
O ther
Bü ro
Br uss
Ein richtungen
wh om
Sw itzerland
ident ial
Dien ste
E AD
v it
Gu est
elect ric
Instr umente
urop a
fo unded
gr an
stär ken
Stra ße
get ting
J ed
führ er
cre te
pr ison
statt finden
Pres se
comb at
r ück
Groß britann
i ance
w inter
Initi ativen
lie ben
le br
ro y
ik al
O F
dr am
rä ge
Abgeord nete
A ust
af fect
B os
ium s
Bruss els
pre m
B io
olog ischen
pict ure
Stim me
du le
coordin ation
be wertungen
Forder ung
D ol
Ar g
belie b
M oment
Eng agement
prov ision
Viel falt
open ed
dut y
ident s
pleas ant
inter pret
Febru ary
it ate
Sal z
schö ne
richt igen
pop ul
ear lier
Zwe ck
k ern
ün ft
Verwalt ungs
Mon ate
wär en
Regel ung
Immobil ien
for est
jen e
jeder zeit
Veränder ungen
gel angen
Des k
lux ur
st et
We ge
3 9
anim al
4 4
wa gen
pro to
if ying
mechan is
Pro te
comp ens
B i
Rats vor
sub mitted
om et
ver ur
med ical
is ierten
gew ün
if fer
ide t
other wise
wander ung
wal king
fisher ies
Well ness
IN G
ide os
er reich
A k
we gung
il er
Bere it
Pl en
ap plies
hn ung
Mitgliedsta at
L as
au th
Men ge
hän gt
follow ed
Analy se
O ver
Le ider
thin king
exp ens
parliament ary
ö m
f elt
ang ing
m eld
defin it
0 7
re mind
erg än
network s
Verein ten
S om
Sch iff
Prior itäten
3 D
an lagen
comp at
exper ts
open hagen
ar f
prü fung
M aschinen
staat lichen
fix ed
ü p
ur ban
Web seite
Frankfur t
ch mal
B an
haf ten
difficult ies
reco gnis
met res
j u
ut in
au ty
sup pl
Kin dern
konkre te
draw n
H is
Che ck
ge fordert
Priv ate
No te
act ual
Währ ungs
ce lebr
entire ly
le ment
konzentr ieren
compon ents
da gegen
Kom pon
alle y
Zweif el
B and
nie der
M A
Tät igkeit
t te
gew innen
Me chan
deal ing
spiel t
Heraus forderung
flex ibility
An teil
gew icht
par agraph
ru fen
e uch
ip s
geb iet
As soci
Mo st
in al
sol d
a i
conne cted
First ly
dar unter
P un
r ank
wir ks
Un abhäng
S inn
den s
crimin al
Cas ino
exclus ive
be quem
ref uge
4 9
inform ed
be hör
st ände
hinder t
s ized
Res earch
str ict
sho wer
finanz ielle
ester day
ö konom
K atastrop
c ore
ac qu
Pol and
d ish
am in
Gäste bewertungen
hand s
zä hlen
ra in
Den noch
Ein igung
k el
il es
Leist ungen
ges p
E d
durch aus
amen te
el imin
Char akter
Br üssel
aus drücklich
F le
de clar
Har mon
op position
ht tp
Besch l
be mer
Gr enz
co ok
pres ence
ein gerichtet
ch ron
auch er
dar stellen
tour ism
Be cause
ansp r
Program ms
Sch engen
t ut
Bar ro
S ach
Te ile
dom estic
sign al
serious ly
be ds
consider ation
degre e
Ver ständ
inform ieren
D av
haf te
kauf en
Pol icy
T i
play ing
Me ter
Über gang
ent weder
gra du
wel cher
help ful
ex ter
For um
woll te
d rop
sa w
k und
su ite
Tex te
Schla f
Ver sch
ac cur
0 5
R um
gra de
R ä
ber icht
ecut ive
P rag
bes itz
pre ise
Überein kommen
ent stehen
Arbe iten
ordin ary
T op
Zeit raum
On ce
Kr ä
gewähr leistet
bo dies
Br an
ic ks
ic ation
A dr
land sc
ein iger
Ge bieten
verein bar
purch ase
humanit arian
öff nen
be ha
as sure
t ie
fre ut
Un der
deta il
thre at
ä den
Econom ic
B a
benöt igt
est ate
author ity
sp ie
play ed
EAD S
ame ter
möglich st
aim s
sp lä
im press
mö gliche
Le hr
Wor te
König reich
ig keits
ge leistet
Reg ul
Aspe kt
M O
s and
pro pose
näch ste
ver trag
verl oren
er folgen
ver lei
enor mous
be auf
Auf bau
er leben
datab ase
lok alen
P oker
end ing
diskut ieren
sch er
Mit te
ins ide
bel ong
s age
as pect
Leist ung
krä fte
or es
wa it
er stellen
wonder ful
sch reiben
ab geschlossen
c in
Sup port
c ards
lar ger
bes uchen
S em
eas ier
appe ars
19 5
leit ung
con tr
polit ischer
kon ferenz
unterst ütze
PD F
krä ft
s le
licher weise
jeweil s
per cent
meet ings
n y
Haus es
tele phone
offe e
aver age
ome ter
z z
t ests
item s
erklär en
et ze
ic ians
vern ünft
Febru ar
9 5
E P
b io
An ges
eng th
M einer
nen nen
6 5
Ze iten
gesche hen
6 00
G od
is ine
sc en
Flü cht
con crete
Barro so
build ings
8 00
sche ch
Kom fort
bo und
Ent sch
Afr ika
re p
Ap p
Entschließungs antrag
own ers
abil ities
e it
Wir k
qual ität
re ise
ver w
kosten los
n i
bal anced
ge zogen
Stellung nahme
erns thaf
hab it
ch urch
de lay
s in
un acceptable
über prüfen
kom fort
Betrie b
Fre m
Ver such
N ame
ü nen
we ight
Ir ish
M un
Her steller
F en
p ap
pract ices
he t
peace ful
perman ent
k rat
gem üt
isten ce
sign ed
S ur
ent al
star ke
Forder ungen
defen ce
number s
teil weise
dis cover
pl ätze
fü gt
A U
y n
se ts
gel assen
Bre ak
H or
gegen seit
streng th
veröffentlich t
ve y
ph il
polit ics
L ink
W i
be ob
As yl
All gem
fe ar
ho uses
absol ut
implement ing
D ue
Ein haltung
con dem
reason able
stat ements
ent it
An gaben
photo graph
C ur
P s
betra chtet
v ul
ma ßen
gel ungen
veh icles
ö k
avail ability
fail ure
Patient en
M esse
H ard
differ ences
happen ed
ü gen
nat ur
Partner schaft
S amm
my self
Ratsvor sitz
redu cing
E F
European s
Rechn ung
ful fil
order s
h ner
care fully
F i
Großbritann ien
im ag
He alth
Ver hältnis
ack now
Lin ks
E isen
er scheint
t ür
gerä um
Sor ge
prom oting
ä ger
li ance
fl anzen
rei ber
Um fang
is ierte
mon etary
C lick
De fin
fan ta
own ed
US B
Mad rid
B lack
tra ding
Nahr ungs
p unkte
adv anced
gest alten
Acht ung
tä glich
U l
ang s
Entwick lungen
Krit ik
kor re
E st
a head
unabhäng ig
K il
W ald
mach ines
posit iv
kulture llen
beh aup
Ide en
experien ced
produ cers
hol t
persön lich
T ip
le iden
zeug ung
call ing
en te
charge d
Ir land
ap point
Her stellung
pack ages
se h
se ven
be comes
Qu est
Ele ment
W all
unterschied liche
profit ieren
k ul
v ents
er f
ver tre
init ial
tz en
nam es
we tt
ele gan
nie mand
communic ations
0 6
P R
Kommiss ions
econom ies
fest stellen
Arbeits losigkeit
mb ly
Verpflicht ung
ver lassen
establish ment
ver folgt
ga ve
den noch
spac ious
Überwach ung
Se hens
Kom peten
N um
introdu ce
Prior ität
book ing
Tre ffen
Kom ple
ad s
kar ten
gener ally
end gült
Kar ten
h ing
W and
ish ing
gegenwärt ig
Techn ik
Pr ess
ge ograph
F ound
member ship
consum ption
demokrat ische
ein setzen
g g
br uch
wen igen
Stär kung
regional en
av es
ra ise
um in
hin gewiesen
ü ben
agen cies
G ott
hand els
Med ia
Führ ung
improv ement
Mar k
N a
wir ksam
differ ence
An lagen
Pol en
danger ous
strong ly
en nen
acht ung
Austr al
über tragen
Sch w
gegenwärt igen
Pro v
T ic
geleg ten
En vironment
neigh bour
O l
ra y
bere iten
un fortunately
Dis krimin
Les ung
wir kt
Man ager
Sch o
um welt
con vin
h osp
Con trol
mult i
a el
kun fts
King dom
0 3
wor fen
erforder lichen
auf merksam
ro h
ma ck
no on
weiter er
hän gen
Or igin
zu stimmen
T itel
Fortsch ritt
ma ster
cu isine
ear n
For mat
4 7
Be griff
immed iate
voll kommen
versor gung
p asst
act s
komp liz
der er
sch we
verbunden en
ausge wä
O ffen
con v
Stre et
ex pend
p hase
Europä er
Proble men
gr ant
ho se
st one
Ab satz
to ld
st ums
die d
ap par
E X
Kon tin
typ ical
gew alt
C am
F ire
kon text
ü ter
im possible
conven ient
im it
ev idence
att ach
führen den
g ig
Gr an
zu vor
Tra de
II I
Res ort
Gemein samen
einge führt
d ir
m ine
mot iv
Gleich zeitig
st il
W ien
tät ig
ad option
üs s
fact ory
wo hner
20 13
fis cal
Regel ungen
Dig ital
gen et
gram mat
z ig
ro unded
su che
ele ction
umf asst
For men
zentr ale
folgen de
Zust änd
sensit ive
guarante es
wor tet
H O
L am
M ain
ex cess
fra g
model s
Anges ichts
vo ice
Dro gen
E t
combin ation
au ms
ta bel
geschütz t
mit tag
betr offen
Erklär ungen
ie gen
inst alled
j et
genu ine
ehr te
über ein
sh ared
M at
Ge währ
Pr ime
R ein
Never theless
W ür
D R
contin ues
Kle in
Mob il
to ler
government al
recogn ition
Bedürf nisse
Afr ican
d lichen
t asks
comp la
vorliegen den
sp ent
Be wertung
w om
transl ation
qual ifiz
Je der
continu ed
distr ict
med izin
G ent
Ch ancen
Geschä ft
ffiz ienz
Agent ur
garant iert
Ge ist
B ib
f are
B log
sch rän
wish es
ar ia
any one
viel fält
associ ated
än ge
bes tell
tra v
He il
einfach en
grenz über
Griechen land
Geschäfts ordnung
B ern
mit einander
wa iting
Play er
Kop f
andid aten
legit im
offen sichtlich
ins urance
Str om
fü ll
Ind ien
zä hlt
keep ing
back ground
Opt ion
Viel zahl
m un
Pol ize
Terr asse
lin ge
ian o
ex cl
Re zept
appro xim
convin ced
ub a
ateg ory
9 8
tr uly
trans ition
fin ance
Fin n
umfassen de
Y et
hal tet
führ ungen
Nutz er
ch anging
har m
Besch reibung
at ures
Milit är
reserv ation
organ iz
inst ance
pro of
alle l
lös ung
Reg istr
ibr ary
L ive
He imat
clos er
spend ing
Jahrhunder ts
pass ed
fig ures
p i
0 2
K licken
h um
attra ctive
Stud io
coll abor
R ou
st ance
defin ition
Liz enz
beg lück
eing ere
S we
Global isierung
ash ion
ro ck
Tour ismus
E lemente
P il
ar ten
sat ell
ust er
Rechn ungs
register ed
gr enzen
announ ced
Ver lust
Haf en
M el
Mär kte
W ün
Be if
mä cht
en ables
A ct
Th ird
sp o
g ap
z ö
particip ate
p sych
mark ed
reli able
an ia
Distr ib
V ien
n utz
il ateral
ma k
Spe icher
spe zielle
l ength
Er st
ör ter
stu dies
sp ot
sp read
199 4
roug h
stär k
N ah
üs sen
S of
tr an
lear ning
Enter prise
gew iss
conclus ions
ie ht
i h
ern st
W ichtig
M ü
C op
as il
ik ing
pos sibilities
i ßen
bar r
right ly
bie ter
einfach e
qual it
EC U
relig ious
0 4
out come
ge gründet
Ein kommen
ambit ious
at ta
Ma ße
beteil igt
J our
V an
ug os
sicher ung
mic ro
Er hö
great est
würdig keiten
as yl
Associ ation
lang t
schie de
dev ices
aus reichend
cour ses
for th
Ent wurf
ens ions
per spective
tain ment
wün sche
nöt ig
d imension
ten ance
ta ste
mat ic
Ro y
Turk ish
s ides
M ik
An other
on to
Son nen
jähr igen
Kon z
Wor ten
c m
re volution
Fl ash
fin de
fact or
la bel
Mittel n
At lant
ro l
inter vention
Ges prä
re den
d orf
keiner lei
honour able
Koh äs
m ie
über all
We chsel
Ne ther
Comm un
gl ass
ge be
kr ank
bestät igt
C P
kr ieg
W here
4 2
end um
adap t
olog ische
cap able
allow ing
at a
art icle
Ste in
iert es
or ge
st ore
Break fast
adv ance
mat ch
Mitglied s
ven ue
wett bewer
verab schie
asyl um
B ack
b log
exhib ition
ele cted
c lo
Grün de
Java Script
F ind
appe al
Market ing
ere i
Sy n
Palestin ian
d ated
Teil nehmer
citiz en
up date
mo de
Found ation
ge gangen
ind ire
wen det
San ta
se eing
N I
ke te
Pal äst
S A
T ime
con fir
Zahl en
commit ments
inter face
st immt
ad vis
T ab
h aupts
So und
ut ing
respe ctive
des ire
ang t
A lex
sch ir
groß es
um n
des k
Gericht shof
dis pos
mid dle
p hen
pla ys
sol cher
car s
f and
gy pt
größer en
c offee
international er
n om
fa iled
p ure
Mon at
Beteil igung
P PE
s ale
as y
mat ik
wes entlichen
wr ite
architect ure
descri bed
le hnt
Hin weis
F ore
un less
Daten bank
emp fehlen
control s
Universit ät
gr and
säm tliche
Verteid igung
book s
Wieder auf
ch net
Ver brechen
Ru he
h all
star ken
ist isch
Just ice
Just iz
Sch ön
Gr unde
B udget
comple ted
plat form
komple tt
ell os
East ern
6 8
G az
Kom bin
we alth
ist ik
Mar ken
Sehens würdigkeiten
b ag
s cr
advert ising
Beschäft igungs
vorsch lag
vorsch lagen
tot ally
ere cht
dies el
Ur s
sof ern
rel ativ
Flex ibilität
S C
kl ang
r al
kt ors
S et
sp ät
wa hren
cor respon
To des
pay ments
An lage
sk ills
er geben
mo ving
U ser
ll er
En gl
garant ieren
D ut
highl ight
aller y
u des
betra chten
D orf
französ ischen
S aint
rele ased
grund sätz
C ustom
sen sus
dr in
Kon troll
Min utes
Fre und
dise ase
Auss icht
Künst ler
candid ate
Exper ten
Grö ße
un it
ok raten
combin ed
S V
Ge h
comp ared
Archite ktur
obvious ly
sch ung
N iveau
Empfehl ungen
exerc ise
2 50
techn ik
Deut sche
zu folge
ben ach
nachhalt ige
colleag ue
au ßen
y esterday
att form
territ ory
so bald
ch st
Ver b
contr ary
är m
teil nehmen
a ktionen
re ception
achie ving
Zu griff
erhö ht
pos ite
C olle
G ol
M U
M indest
comm and
gut es
Politik er
te ten
national er
organ ised
ro ute
Nether lands
M ir
de lic
weap ons
arbe ite
A ktionen
än glich
dan ach
arg ument
R ob
Verständ nis
el a
fig ur
Ereign isse
sto od
Gre at
erforder t
. -
Bot schaft
T P
ge ist
ob serv
expend iture
Daten schutz
vorgeschlagen en
ausschuss es
D imension
le un
targe ts
hol ung
be wegen
lim its
Bei hilfen
bein haltet
individ uals
C roat
N L
Vor sitzen
mem ory
K ind
ausge wogen
him self
ungs verfahren
sequ ent
Kir che
jüng sten
Metho de
le ct
unter nommen
cy cle
Form ular
ate ver
un able
her gestellt
äl fte
stim ul
Stud ien
fa ces
ann t
Th us
Ris iken
z erstör
Hoff nung
en a
me ant
spe zial
fact ors
Sum mit
E W
s i
ear th
bet t
big gest
p il
exten ded
ein verstanden
inform iert
cour t
ktiv ität
Real ität
S ar
T isch
e quality
go als
S eine
Z oll
tele vision
besitz t
M utter
D ay
Sy r
T hose
recht lichen
Gegen teil
l iter
E ar
am oun
N u
m useum
in spe
w inn
fr uit
lab or
Wel che
om b
govern ance
Gesetz gebung
stor age
fl ug
T ha
t u
er b
Jour nal
hand lungen
Mitglie dern
spol it
Dat a
pro z
gr iffe
ne ither
wind ow
Eben so
brit ischen
Kur z
thre aten
success fully
Foto s
sorg fält
ver teid
tz entr
P aul
Wh ite
Eind ruck
k mal
tro llen
igr ants
win den
ch ain
angen e
pat ent
Fr ont
spezie llen
ver ste
ben e
mittel s
establish ing
Aus land
beach es
beginn t
ö p
us ual
Ham burg
H all
as king
Al ban
est im
S ho
ol o
Fra ktionen
gesch ieht
G anz
g ä
access ible
eval u
pie ce
zusätz lich
hl ten
P ers
Re port
akt ual
tes ten
Gebie te
Rel ig
gran ted
lio the
adv ice
F ert
continu ing
i ques
anc ient
t ten
not ice
Be ob
eng l
Städ te
Be ach
ded icated
sub je
express ion
pro p
ant ages
nehm ern
vul ner
Bahn hof
ra w
außer ord
dar aus
gl ad
test ing
arr ival
Ad ministr
allgem eine
s ong
v oc
ver letz
t ent
aus führ
er neuer
fr aud
ground s
Minder heiten
i ber
ch osen
ap pointed
gr ie
Ob ama
b rowser
agen cy
bind ing
Beif all
B or
regel n
Bed arf
schnell er
sur face
dev ice
ich e
last ung
recommend ations
oblig ations
lä gen
ger ufen
vis ual
inde pendence
Vor teil
Cor por
K now
V il
Verfü g
fest gestellt
row n
Pe ter
P hase
host els
jem and
wichtig ste
Meer es
gew isse
Po ol
constant ly
phil osop
mittel t
s ell
mer ely
S how
Bo x
Re fer
P lä
W ander
K e
p ä
ab len
Arbeits markt
Gegen satz
Unabhäng igkeit
id a
be zeichnet
um p
an ischen
lau t
u a
tr ied
S low
in telle
prom otion
perfect ly
entit led
Li ber
Lat in
sequ ently
ab ol
me ters
Grund rechte
Bl ue
Mein ungs
j un
qu er
kün d
genann te
ed ia
Mus lim
ich ern
ul a
Ver letz
pre vention
claim s
se c
ange ht
Spe cial
Fest ival
L ob
s id
Prü fung
Bestand teil
st ory
Liberal isierung
Über prüfung
stre am
geb il
Eng land
surround ing
Er wart
global e
Vien na
the it
um b
vers ions
mechan ism
bur den
Mich ael
situ ations
adv antages
main tenance
4 6
Wir kung
ber uf
betr offenen
mass ive
E ffizienz
tür k
n ar
ad or
B ol
herz lich
Fore ign
e ur
on ia
sc ience
man chmal
Agen cy
Gree k
w ann
an en
Fin an
ge öffnet
consist ent
O M
ex istence
Unter kunft
ges ellschaften
Voraus setzungen
P RO
strateg ie
p ush
kon tin
zentr al
breit ung
th es
commun ities
richt linie
p as
F itness
haupts ächlich
in stru
intens ive
Ein kaufs
concl ude
Be im
e chte
re c
Teil en
or al
klus ive
R os
io de
beach ten
C af
F a
äs ser
F ax
reco very
Nicht r
Rum än
W al
Mo del
F ü
tr end
sicher stellen
é e
c ategory
d isch
ar ms
near by
Sch rif
gu ter
Nach richten
vere ign
sch lagen
so vereign
ur ge
ke hren
T on
W in
la id
aus länd
R ome
p ul
gesund heit
Diskrimin ierung
mo v
Far ben
Austr ian
qu id
aus reichen
ges pe
con sensus
ve get
Ex press
F ac
int ention
Roman ia
re agieren
örder t
EN T
in ary
ten d
holiday s
m es
einz igen
discuss ing
sch ed
Nieder land
K urs
substant ial
K er
z il
bring ing
besser en
diskut iert
at lant
Ver kauf
fra gt
jour nal
ige m
address ed
organ ization
Mittelme er
c at
person en
be auty
com pl
fü hlen
respon sibilities
16 0
qual ified
put ting
produ ktion
K yo
pl ause
kle iner
fu el
er h
Bild ungs
to s
d einer
Zust and
L T
persön liche
Nichtr aucher
Erhö hung
se min
Ap parte
dr än
organisation en
relax ing
dynam ic
tex ts
Gener ation
exten d
M use
sub mit
veh icle
Metho den
Weit ere
Kyo to
T om
cont ents
rail way
auf en
Swe den
col our
K orea
wer s
employ ed
Pra kt
Besch luss
1 20
con vent
Stad tzentr
Cy pr
comp liance
Koordin ierung
ges te
n ia
We gen
bl ue
strengthen ing
G ut
y r
che ap
gewün sch
aus ende
bo ot
Pf licht
der ation
out standing
bekann ten
it age
territ orial
Sky pe
Bo th
ic kt
p ill
kom bin
Klimawand el
hol ders
ur a
Reg ulation
de le
et ter
g ir
H aut
v ak
be zieht
in ens
tr ifft
Ge fühl
fl u
expla in
ange l
see king
C C
f iz
Teil nahme
ans ion
contain ed
Eng ine
caus es
b ureau
A kte
plann ed
air craft
Energ y
fl ight
weiter es
tal ks
lux ury
9 00
fert igt
registr ation
S un
polit isch
8 5
approxim ately
id ung
g olf
sicht s
kt ions
prakt isch
F älle
beschäft igt
kürz lich
be handeln
Pro di
n ations
al a
ord nungs
Ex port
Män ner
Re aktion
dec ades
guarante ed
he bung
H älfte
au ben
B R
Cl ass
mo dell
bet ont
exam ples
Be denken
inde x
N ik
h igkeit
über nommen
Ged anken
R oh
bind ung
viel er
Ko operation
Stre it
R a
j ungen
some one
me tho
tre ated
respe kt
Hostels club
Ab sicht
ed ge
Ant i
phys ical
atta cks
á n
re ply
pres erv
zu verläss
199 2
ex plan
erv ice
akzept iert
eval uation
br ings
or am
regel mäßig
beein fl
ko ordin
org nis
To ol
us etzen
Re isen
rom ant
An liegen
S ow
ide ale
stell te
länd lichen
An griff
Aust ausch
k y
dispos al
m l
Ch amber
ruh igen
tr uth
s quare
me ist
wo durch
Vorbereit ung
La ke
w ing
Sp iele
ign or
Aus nahme
pati ents
posit iven
attra ctions
an bieten
As s
Alt stadt
lie fern
lä u
fr üh
Zahl ungs
Be weis
schaf ft
präsent iert
m lich
Fen ster
H ist
ategor ie
competen ce
dest roy
Instit ute
is ierungs
fä llen
sch au
ver anst
Unter schiede
In ner
wel chen
def ault
zw ungen
Finan cial
All iance
remo ve
ge iz
Comp any
en ge
1 000
Nach dem
wer ten
Pal ace
Spra ch
F A
lead s
Viel leicht
Diskuss ionen
höch st
Rad io
sib ly
Jahr zehn
sel ten
Det ails
technolog ical
Dok umente
d é
Komm ent
occas ion
G raf
Se hr
in cent
bef assen
Will en
V om
abhäng ig
mag n
Ver öffentlich
invest ments
jähr lich
verl ieren
Fe deral
condu ct
satell ite
est y
kur s
Loc ated
Über nach
iss ens
manufact uring
con solid
ersch einen
w s
ze ß
un to
N on
r iver
co ol
Mart in
isten z
spra chen
ass um
R ules
sur pr
rä ume
verstär kt
ag iert
Um ständen
on ial
International en
condition ing
st ö
rup t
sie ben
se con
de alt
Anpass ung
h it
P op
fol io
gewä hlt
com plic
will kommen
err or
Sign al
as p
Sch war
industr ies
look s
moun tains
L ö
f ein
ex ec
San ktionen
Char ter
4 1
i us
te en
f ashion
un anim
determin ed
B ill
R oll
spac es
st offen
san ctions
qu ir
ac a
ag ue
einzel ne
berühm ten
bereich e
Ange bote
B rowser
er griffen
ge arbeitet
ag ent
Schul den
m igration
sch ritt
spezif ischen
P ay
photo s
Apart ment
dist in
gen der
se itens
ste el
war ded
L ist
L ager
recogn ise
consult ation
ges tern
prim arily
g one
cons ists
P aper
Dut ch
Verfüg barkeit
Ge brauch
Thank s
T im
Ges etze
R em
ent scheid
best and
sur v
4 3
H D
folger ungen
p p
the or
re ject
smo king
M ak
wi m
dam als
optim al
üst ung
re ve
art ists
über zeugen
ther ap
Kolle ge
deut sche
mut ual
Ord nung
Fä higkeit
De legation
wichtig es
unterschied lich
Democr ats
ic ed
la ke
ück en
Sol ar
leader ship
ag no
derzeit igen
im per
grund lage
g igen
bas iert
F er
Ar gent
Hand eln
particip ants
k örper
ig ern
Au dit
pr inzip
beg onnen
spezif ische
gen ü
GN U
speak ers
ex ception
Gl as
ey e
noch mals
b ac
con cil
region ale
ol der
con troll
Auf grund
F ischer
T iere
st ol
s light
sur rounded
divers ity
kt iver
system at
la v
Be fore
ac counts
zu gleich
Mor gen
spart ner
S quare
emphas ise
O K
wach en
kün st
j unge
Bra zil
TH E
sy mp
Dub lin
compat ible
Rezept ion
F eld
f assen
multip le
me ister
Maß nahme
komm un
Strateg ien
f ug
auto m
previous ly
and o
Be wegung
or gt
Amer ika
umfassen den
car bon
A 3
Sch ne
Ant worten
Struktur fonds
form al
fu hr
Gent oo
P flanzen
T yp
e ight
for um
Ein klang
or a
Re volution
manufactur ers
form ed
pl ug
de legation
o ted
Veranstalt ungen
fa vor
Per spe
s oft
significant ly
Land schaft
in spir
bar s
ifiz iert
Landwir te
sm aller
F u
auch en
ship s
near ly
cou ple
J oh
Unter schied
vo us
furn ished
grie ch
pleas ure
S ä
ident ity
gegeben en
Untersuch ung
T wo
í a
sk y
mechanis ms
Al ter
st ations
Up date
Er de
wir t
Prem ier
improv ements
Ti bet
extre me
approv al
h i
ent standen
funktion ieren
em pt
there by
7 00
M ach
tradition ellen
Schwer punkt
ent ially
dr iving
Defin ition
G DP
And re
prep are
Bes itz
kn üp
Voraus setzung
Lauf e
erheb lich
spec ies
Wach stums
Insel n
ampag ne
Leit linien
g s
do k
Gr enze
dis aster
Fern er
9 7
Grund sätze
repe ated
vor genommen
requ ested
Su ite
result ing
R und
cal cul
proport ion
K ey
prim ary
tit le
U se
Mehr wert
reje cted
T A
be hörden
ber aten
f if
know s
Z immern
end or
bil det
n one
polit icians
Aut or
zurück zu
grenzüber schreiten
Re ich
term ine
wer fen
Ein wanderung
T ER
gl ück
aner kannt
geb unden
Des pite
breit et
ik as
represent ative
B ör
ien te
Co ok
dom ain
meld ung
ass ign
Ta i
akt uell
associ ation
K affe
Z ul
Stu die
M ol
turn ed
able d
St unde
mär kte
genau so
sichtig ung
entsch lossen
iger ung
ziel t
atur en
Kr isen
in corpor
ab l
Er wachsen
h aber
Er wä
it ze
Kombin ation
dr ugs
isp iele
landsc ape
D adurch
m 2
bal con
Air bus
flä chen
hor iz
id o
dest ru
B M
D I
D ach
mitt lung
fal sch
a e
akt ive
G U
P in
P od
au x
ob st
geb oren
konkre ten
and al
weg s
Sw ed
f em
En joy
web sites
be ab
dr itten
Hil fs
out put
Reg ime
Ge wicht
hol ding
present ation
schle cht
un zu
us che
f ers
om as
Fre ude
constru ctive
D y
H al
resol ve
L ou
Dienst leistungs
9 6
J un
A ction
L ate
An fragen
Ber ück
höch ste
V ia
f assung
all gemein
viel mehr
or te
m utz
s n
po ten
help ing
S au
im al
ta ct
Pat ent
Eigen schaften
im a
control led
att itude
Ferien wohn
expens ive
subsid iar
qu ote
condem n
H ong
tax es
regel mäß
M aster
renew able
Men ü
Pub lik
ant ly
con temporary
Fre unde
AN D
Allgem einen
li ber
spr ing
Roy al
ser vers
verl angen
Lie be
auth ent
beauf trag
un sten
stra ße
sub stances
s ight
C R
num mer
G lau
R h
k eines
Gew inn
Gen ehm
expert ise
künft ig
pl ate
Sat ell
fa ced
par lament
El tern
refle ct
F ollow
d au
se ien
Tem per
Gen au
Strateg y
disch arge
Zus atz
Tag ung
la ir
wieder um
besch rieben
Nor men
kind s
en ger
scho ols
Rot ary
pen al
hosp ital
te ch
or ien
US D
Ac cess
Stra f
stre ben
depend ent
we ar
in fo
ries igen
ip ul
My SQL
deliver ed
ikan ischen
expect ations
re presented
launch ed
ex ists
help s
zahl ung
ut s
ill ustr
sk in
E gypt
st äd
op posite
per mit
lie b
St ück
Kon sequ
ent deck
welt weiten
beg ann
th ers
Ver träge
af ford
Ges icht
Entwicklungs ländern
Lad ies
Un gleich
Da für
Nach frage
request s
li ability
iet ies
appreci ate
S ens
im b
b ud
d ah
en jo
Gerä te
sol ve
grundlegen den
off ic
199 3
N ice
R am
sch war
ult im
Tour isten
A tom
ger icht
F lä
J ose
K ann
se he
zunehmen d
recognis ed
V ision
p our
schwier igen
Agrar politik
south ern
brid ge
compens ation
install iert
stu ff
dram at
W C
refuge es
forder e
Garant ie
qu ellen
zie mlich
sw itch
hö here
al p
Umwelt schutz
happ ens
extens ion
zu legen
dict ion
s now
um geben
ut il
among st
D ort
ehemal igen
B alt
comp ly
Klima anlage
Vie w
zug änglich
priv acy
feel ing
aktiv ieren
it ime
wes entliche
Go od
kulture lle
O hne
Cop y
bir th
hol ds
gratul ieren
co vers
Met ro
suffer ing
war n
co her
ak es
führen de
institution ellen
wach stum
is ted
Ges am
Mar ia
vent ionen
bed room
tr ial
zweif ellos
bezieh ung
hil ft
Pap ier
vent ure
zusätz lichen
op posed
Ge bur
Fahr zeug
Verbesser ungen
cor ner
direct ives
Saf ety
Ex pl
find ing
pass word
mand ate
sinn voll
oper ators
arrange ments
mensch lichen
uch ten
fight ing
emphas is
v ast
is o
Is land
he ber
be trächt
Haupt stadt
Schwe den
Stadtzentr um
T it
Wes ten
Au dio
Berück sichtigung
Es sen
P age
T el
u ters
il le
bu chen
mob ility
dise ases
Ser ie
Ein stellung
wettbewer bs
K andidaten
bes eit
sh ape
gef ördert
Hin dern
gen ce
freund liche
heav y
u ung
Wahr heit
ap ter
blo od
ann es
ex cit
ho her
amerikan ische
19 80
dis ast
Minister s
jähr ige
comb ating
ie bs
Son n
K amera
health y
h ie
lo aded
Kr anken
entscheiden d
interess iert
drück en
S ud
kurz em
Swed ish
sta ke
amer as
the dr
plic it
af fairs
Vor sitz
be zug
Tats ächlich
sp ok
natur ally
B ö
We iß
stell ungs
ier n
ted ly
er maßen
wes halb
um zusetzen
experien ces
Polize i
ent spannen
Nahrungs mittel
F our
ann er
Zwe i
hand ling
fig ure
cap t
Ta ke
T urn
Frei zeit
recomm ended
repe at
op les
Gä sten
Pla za
Schn itt
Erwart ungen
staat liche
W ur
hl te
K ategorie
m aschinen
In stead
Ru le
J er
di verse
pro ud
engine ering
histor ische
protect ing
Mon t
begr ün
rapporteur s
valu able
man ager
n os
Li ke
cycl ing
Q ue
leb nis
cour age
K MU
L ord
oblig ation
Technolog y
erhält lich
w aters
ver walt
def end
Mittel punkt
Ap plause
N ein
O ld
invol vement
str on
A v
person ally
wissenschaft lichen
intelle ct
außer gewöhn
par allel
Pl ug
contra st
wind igkeit
produ kte
Br enn
geschä ft
confir med
L os
infl ation
c ra
ne ter
trag ung
ausgezeich neten
art icles
famil iar
up pen
gän z
Mün chen
K u
Opt im
Material ien
am i
M assen
The ater
leben s
grundlegen de
K unde
ing u
fil ter
Harmon isierung
ver halten
tre aty
k olle
Proble ms
atte mp
Web sites
betr ieben
Bo ot
nie mals
Origin al
Be ispiele
au ens
Mun ich
ah nen
Bib liothe
Um gang
ko stet
Berat ung
c ro
invol ving
E Z
ar ische
Sch ule
rel atively
incre ases
UN O
quar ter
ausgezeich nete
B SE
re ten
so weit
Emiss ionen
gra d
Mo un
individ uell
thor ough
M ut
er öffnet
isch ung
kon takt
betr ieb
prä z
Be fug
zö ger
A ID
min uten
ict ion
happen ing
abge lehnt
S oc
obst ac
änd ler
automat ic
H ü
Ch amp
sicher ungs
char ming
Brit ain
de termine
r uns
D auer
Kl ar
Sü den
kün fte
fert ig
ul ted
auf zunehmen
Kap az
critic ism
ver ändert
durch zuführen
F ein
L ife
ab ling
kur r
official s
ra re
stra ight
safe guard
Engl isch
K ä
Prü f
mill ions
res erve
draw ing
dest ination
unmittel bar
Bed ien
Nah en
un its
n ischen
produ cing
Über zeugung
He iz
Ste uern
ME Ps
B ucht
S ad
m ur
Drit tens
inten d
W ord
trotz dem
ä ten
ate ful
itä re
fe e
Ab schnitt
equ ally
Wel come
re gen
ver ändern
mar quis
A g
leg ungen
Je an
Rumän ien
mar g
schn elle
hervorragen de
D iv
opin ions
prof ile
nach zu
waren ess
aus gesprochen
kon trolle
deb ates
resol ved
ier end
Aus gabe
cons c
Sch äden
priv ile
enter ed
amoun ts
R iver
sp ür
deta ill
resol utions
Stand ort
spar te
ien e
c atalog
An n
re tain
Pro vin
certain ty
Pun kten
dec is
wh atever
Ver y
Fr ü
u el
re ds
mo ved
be k
mag az
of in
ip p
unkt ions
r ational
20 12
Mitglied schaft
flü ge
eingeschrän kt
be kämpfen
ac quis
Altern ative
li p
cent res
Fl uss
W he
Fr amework
dire kte
large ly
um ping
igen ce
Br asil
Am ts
depend s
B IP
Distrib ution
hard ware
K n
Sp ann
komm e
S zen
Dav id
gew onnen
h off
wes tern
Red ner
reach ing
fl at
pe oples
strateg ies
zentr alen
interess ant
M as
ver langt
a is
star ten
Gesetz es
relig iö
Quest ion
T E
cre ates
obje cts
.. ...
beglück wünschen
s auber
Stud enten
terror ist
liberal isation
bemü ht
bes itzen
Ur lau
Croat ia
schließ t
bü ro
or ten
Entwicklungs länder
str ing
cre ative
Luxem bourg
fä llig
Änderungsan trägen
M em
defin e
vol ume
zu erst
pres ident
Frühstück s
S O
neu esten
ta kte
Anwend ungs
P A
con serv
regul atory
ehr geiz
I X
ro te
re v
Kr imin
an schließen
applic able
entwickel ten
behör de
An gst
lau tet
Vier tel
H aup
z in
ip el
Aus führungen
ge hoben
st es
Dire kt
F OR
Z ert
Proje kten
Abkommen s
in zwischen
C L
dis covered
V i
enth us
Struktur en
natür lichen
an nehmen
contrib utions
exclus ively
Beruf s
Wirk lichkeit
K roat
HT ML
except ional
Un gar
Ho hen
reich ung
künft igen
passen gers
fa ction
Krank heiten
restrict ions
es ch
An bieter
Bulgar ia
ange hör
Frem den
be trägt
ex c
vol unt
ent decken
le ts
m ünd
ein richtungen
aufge fordert
ursprün glichen
Er inner
nam ed
remo ved
g i
Verf assungs
splä tzen
pal äst
SM Es
ch nen
an ze
rest ric
der artige
voll ständige
liegen den
pä ck
W LAN
C ent
G rad
ff end
Me et
Eisen bahn
i ary
bei zu
prov ed
schätz ung
pl en
adv oc
Far b
W are
Nor den
ol i
se cret
me at
ar io
Cli ent
Akt ien
remo te
os sen
er mut
im pression
ach te
Kü ste
Jed es
ü g
sor gt
top ic
y es
ic on
fe hlt
dr itte
Vorsch lägen
berecht igt
ethn ic
zu lassen
wirtschaft licher
paläst inens
gr ateful
betreffen den
ö sterreich
de ter
eigen es
R ich
den k
ver an
disc ip
lis te
C ho
a wareness
ie ßen
schw ed
as ide
Ar men
leg ally
weis ung
he il
help ed
nachhalt igen
An schluss
wirk lichen
Ratspräsident schaft
require ment
italien ischen
E B
P utin
anderer seits
mo dule
real istic
invol ve
prec ise
sh ad
o le
itte es
erweiter t
lob by
bo at
facil itate
In c
ga ther
verabschie det
Ar me
ak a
is men
Part nern
the t
ange hen
ä umen
ed s
Zus ätz
temper ature
Sta hl
Empfehl ung
verurs acht
min i
erlau ben
univers al
würd igkeit
par a
Bau ern
erwä hn
r ichtet
a ward
s ers
Wir d
zeich nis
J ack
u ier
un ent
The ir
serv es
d or
g old
re iz
leg te
T S
c able
Gesch le
G ot
Kohäs ion
teil s
reserv es
schlä gt
Sch atten
198 9
C F
Veranst altung
obtain ed
hig keiten
at iver
wor se
tour s
der art
correct ly
an statt
ent lang
Ver ring
letz ter
priv at
bil ateral
west lichen
lat ter
ver dient
prepar ation
concil iation
leis ure
v ig
ident ify
199 1
hervor heben
oper ational
z ne
de als
il st
parliament s
tele fon
höch sten
Aus führung
ru hig
contin ent
conne ctions
h art
cur s
gew inn
Mus ic
furn iture
Be w
bed rooms
ch a
and on
be wält
Kon to
v ess
Bal kan
minor ity
I l
P uer
an ke
tro p
schätz en
Kompon enten
vis a
Sk i
t lichen
re ported
Pl us
B ug
wh ilst
P en
speak er
kur ze
Zentral bank
Plan ung
sch ef
tre es
Überein stimmung
or ing
wel fare
auf treten
Entscheid ungs
schir m
op s
loc ations
L O
Dritt ländern
p ick
ket te
E dit
er inner
un gefähr
igh ten
fle ge
pro hib
Ma astr
an cy
Scho ol
ah me
mess ages
ap s
Be hinder
ange bot
lang sam
tic ket
außerord entlich
R et
R ent
f änger
be le
conflic ts
frei will
y m
Ex ecutive
CO M
sch auen
gen ehm
vie t
Mo de
colle ctive
k ans
ã o
Pro ced
erst re
Ele ct
F err
Außen politik
ge prüft
wi ld
og raf
off ices
Get rän
Ind ones
st ab
no ise
U M
Fr ien
ru ct
Program men
Am bien
organiz ations
kl aren
Arbeit splätzen
chines ischen
T schech
fir ms
Bemer kungen
wirk ung
produz iert
ar ma
ra c
Kon sens
tag s
Fä higkeiten
answer s
ver besser
Verbind ungen
Kommunik ations
ge äuß
subsid ies
invest ors
Dire ctor
In fl
hab t
le v
fa ster
Opt ionen
angemessen e
ab road
issu ed
au ght
ey es
kontin uier
c am
ge boten
Ch urch
Arbeitspl atz
the mat
can cel
cut ting
foc used
onom ie
Gesprä che
c old
s we
an gesehen
sich ere
d ich
k as
Pol ish
Sub sid
schön sten
Vereinbar ungen
effect iveness
Ambien te
par ents
Gest altung
organis iert
dien ste
Kon text
Auto mobil
stat istics
dep th
Prinzip ien
dish es
durch führen
maintain ed
füll ung
bestät igen
Stim men
Ein stellungen
us sen
char ges
ce eded
über nimmt
us ern
St ift
gew issen
met al
notwend ige
N och
Gleich gewicht
Ka bel
sex ual
our ce
Über setzung
Y es
del ighted
wirtschaft lich
Amer ikan
it ag
ony mous
impress ive
B ir
best immen
Vorschlag s
w affen
z za
verring ern
b attle
fa ith
Ph one
der ung
ver gleich
stre ets
begrü ßt
zep tabel
F arbe
contra cts
spect ac
ko hol
bild ungs
ro hung
remain ing
pie ces
Komm un
i ot
n avig
ass end
regular ly
S AP
ab gestimmt
war r
Cypr us
w itness
em a
ak zeptabel
span ischen
ou d
Z iffer
An wen
Ein heit
bed au
Invest itions
As ien
Stru ct
Israel i
M all
f lag
prom ises
ver we
up dated
Sch uld
akt iven
pass iert
effe ktiv
I ma
e chten
j etz
n d
fü llen
L im
zip lin
Slo vak
E du
k ill
s ah
il fe
vel y
ific ations
aust ausch
Plen um
Per haps
minister s
früher en
ro ot
is to
Bestell ung
T rag
Akt ual
sett ings
display ed
Mon te
Bl ut
hinzu fügen
we ather
produ ctive
Pl attform
Can ada
besch leun
S und
Ge orge
cor ruption
gesp ielt
Verring erung
int ent
sor ge
ver änder
auf nehmen
Ver bot
I K
Kü sten
V ene
leich tern
jour ney
D C
Fo od
D ER
l ists
on sor
Gar den
Japan ese
Regierungs konferenz
Ab häng
enter tainment
C openhagen
spe kt
Agr icult
custom s
beschrän kt
ein s
hl ung
us al
Aus stellung
erg ing
komm unik
Balt ic
class ic
D N
ar ab
is rael
zu ständigen
Er holung
conne ct
d inner
An mer
wer b
lin ed
suc ceed
re chen
ph arma
Sor gen
Was hing
Wer bung
under stood
er leichtern
ar ded
vor legen
sch uld
o gen
defin iert
pat tern
Fr iday
sorgfält ig
A do
does n
ic ans
demand ing
function ing
chann el
ver brauch
sch wä
zu stand
H alb
in ser
Europ ol
Fr an
tic kets
Fakt oren
l u
lic ense
6 6
out door
Des wegen
perfe kt
no ted
ac compan
coun ting
un möglich
B 5
mel den
config uration
fin ished
dis p
emer gency
bemü hen
V ice
be zahlen
conta cts
B O
f oll
sch einen
zug unsten
gän ge
Glau ben
poll ution
K at
re mark
ver hindert
Part ners
wün sch
bi ke
Sa una
Mob ile
tre iben
Ausgang spunkt
ugos la
Tai wan
d ining
vor an
News letter
proto col
d ans
k atastrop
Beit räge
care ful
Werk zeug
anspr uchs
Dy nam
res idence
character istics
m ung
Ver mögen
freund lich
definit ely
some what
colle ct
Buch ung
ig sten
C lear
kur zen
phen omen
gespe ichert
aus geschlossen
sol ar
aus gesetzt
ho le
utt le
N os
an i
le aving
ies t
einzig artige
new ly
Bes orgnis
J es
Ma x
just ified
Char ta
P ia
V ar
Bet re
F air
Subsid iar
declar ation
Gu ide
exp ansion
Bade zimmer
verlei hen
Ado be
E is
getr enn
ra di
Sch ü
Kr ie
activ ely
for schung
B C
electric ity
traffic king
beha vi
recht liche
div ided
Y ear
Be am
ein ig
cor ded
verschieden er
Führ er
ausge führt
b art
jud icial
sup posed
lay er
Amend ments
id den
g allery
ge prä
enth alt
B aby
Ur spr
intens iv
so dass
z ir
Sy mbol
Verfahren s
Late Rooms
install ieren
l ibrary
er al
Washing ton
g ol
al ts
ar tet
pro sper
Er satz
All es
act ing
serv iert
fern er
ir on
Ges ellschaften
cred ibility
kurz frist
Kompeten z
comm ittees
Pol it
P act
c ab
k al
it ar
re place
wel chem
hund reds
im posed
ik es
c af
co hol
Br and
condu cted
E dition
an ne
Fest legung
demonstr ated
on going
ies sen
Mob ilität
vis ible
Tar if
stehen de
ta gen
pe kt
uropä ischen
th and
com ed
Bezieh ung
S K
Proced ure
ge zwungen
proje kt
с т
g or
bot tom
Re ad
par ks
Markt es
dr ug
zusammen arbeiten
road s
E qu
Z yp
in habit
tra ges
Schlaf zimmer
ent y
ultim ately
n ut
dire ctor
appe ared
Ä r
Con gress
P O
you th
interess ante
p ic
tack le
ab andon
mus ste
frequ ently
Fund s
B A
f ab
Aus stattung
recommend ation
grenz ung
fa cts
Ein beziehung
bahn hof
W F
trans atlant
sch ule
Sch au
bil ater
st em
Third ly
m ista
Ge fahren
gelten den
V AT
Mar ina
CO N
entscheiden de
Hol iday
den kt
wo hnen
demonstr ate
Ham as
angegeben en
B lock
wall s
renov ated
C er
Mil ch
print ing
J ac
durch schnitt
äuß ern
Ge heim
AK P
Arg ument
Veröffentlich ung
ge fügt
Al b
höher en
fanta stic
G M
Bes te
Ungar n
C A
minor ities
so zi
Ziel en
heut ige
co al
rest ruct
in put
se at
woll ten
o x
u h
Au thor
De fiz
dr ink
em erging
Energ ien
indic ated
tr aum
inv ite
W ild
Vor be
ian a
s q
dr iver
Je de
ak te
decor ated
8 6
bo ost
first ly
proper ties
M angel
team s
sto ß
nahe zu
Kl asse
Gaz a
fa c
Fe uer
C ha
Mex ico
A ble
Des cription
Web seiten
Pa kete
cast le
sätz en
gef allen
Bal kon
Ne ue
fo hlen
einfach er
invol ves
respe cted
surround ings
if ies
wie gen
Camp ing
tra ditions
sol ange
u ese
fr ame
5 6
Krä fte
Tra ining
Krank heit
sup plement
virt ual
D ass
re iter
ver wand
ou b
Te ch
organ ized
chem ical
F ast
t went
con ce
ow ner
As se
D S
de cre
ver ehrte
aus sprechen
ag gress
iel d
sle ep
k ter
Führ ungs
Ver pack
sche idet
è s
Le gal
bestehen de
endor se
dr ivers
loy ment
Haf t
reve al
Po ten
R iv
W a
Geschä fte
fin ish
Chin as
port s
sa una
sch äd
Soll te
Maastr icht
G ames
k os
teil ungen
P ic
it ra
ro of
do ors
Aus maß
st amm
nun mehr
wes end
zü ge
Op position
ver f
mo ther
flex ib
D usche
Politik en
kre is
Selbst verständlich
z ard
Kon sult
gest altet
amer ika
H of
end ung
7 7
N ap
stron ger
sch icken
pos ing
gerä te
id ge
ken s
Ger ät
russ ischen
star ts
global isation
Wohl stand
la ys
ausge geben
d ur
Fe hl
vorhanden en
Mr d
Hard ware
e u
ie gel
cr imes
document ation
5 2
über ras
after noon
sen sible
beein druck
concl uded
G E
Bemer kung
maintain ing
Mod ul
G R
Mon etary
compet ent
erheb liche
ber ge
lo unge
Untersuch ungen
d os
su gar
use hen
jo ined
ap est
Th urs
Vor haben
pat ient
un fair
verur teilt
Leg isl
einheit lichen
M ur
Ins besondere
su ites
Ger ichte
Vers ionen
k in
k g
Kap itel
prozess es
over come
tats äch
è re
dire kten
Whe ther
n ine
t d
cas h
Can on
aus end
prov en
Sp az
dür fte
f ing
Ein schrän
Res pekt
reduz ieren
g yp
Don ner
correspon ding
spok en
Um feld
aussch uß
Ein w
depend ing
rapid ly
be kämpfung
stor ed
collabor ation
V iet
propos es
beschäft igen
north ern
T own
ob li
eingere icht
sty lish
accompan ied
d im
sh ap
constitution al
foll ows
at re
dar y
i for
it ts
ell es
Ge gend
asse ts
ausgest atte
verstär ken
in ations
well en
zne imit
V ideos
bed auer
verkauf en
Ident ität
behavi our
H imm
ver bringen
ass ume
Kon gress
Fil ter
Miss ion
Erzeug nisse
G laub
Red uz
up dates
vers amm
Nach richt
last ing
Grün dung
Kil ometer
zneimit tel
C hair
H ans
chann els
subsidiar ity
gewähr t
im edia
Portug uese
he ating
strateg ischen
Fle isch
her itage
Ro bert
Ind ivid
Det ail
intellect ual
ver d
z onen
ak ten
schem e
excit ing
Se ktoren
gener ated
entscheiden der
brit ische
ent wurf
Med ik
dig it
glau b
.... ..
Soll ten
Ima ge
k ür
Schluss folgerungen
schwer en
läss lich
b ach
l it
ge he
Kon trollen
Besonder s
J ob
nor m
individ uelle
A ward
T sch
ag ers
Bed rohung
Schweiz er
system en
vulner able
determin ation
bur ger
Form ul
sp akt
distrib uted
bezieh ungen
D O
wieder holen
transport ation
Net work
gros s
copy right
8 8
or ca
show ing
Prag ue
ex plicit
wide ly
schaf fung
imm igrants
dr ückt
program ms
cel er
U T
s ac
in os
kä u
Pers ön
Tab ak
c ow
fa ther
Über setz
Wün sche
G iven
So viet
oun ge
ent steht
N iger
techn iques
acc ident
east ern
look ed
balcon y
vor stellen
cut s
ant worten
Or te
bin det
fä ll
verantwort ungs
erfolg reiche
al cohol
unver züglich
S par
return ed
C le
up per
ame ters
Kon zer
zie le
legit imate
satisf ied
W ho
ge teilt
Bal kans
E mail
V ize
Fest pl
pr in
An sprü
pos sibly
beru ht
he at
iz er
Ge päck
W art
t il
at om
lok ale
des ired
Son ne
ausge zeichnet
präsent ieren
defic it
kon kret
theor et
erinner t
ex ceed
AC P
Lux us
ergän zen
on i
je gliche
k ultur
bank ing
sett lement
B aum
art ist
Rechts staat
Frei heiten
Sem in
Rechnungs hof
pro test
Inter ess
vis ited
letz tlich
encour aging
Mich el
W omen
z ed
Phil osop
gr unde
inter ven
de fe
Res olution
technolog ie
ident ified
sch ieden
Ver breitung
br ut
mar itime
tax ation
beteil igen
c atch
ex klus
trans actions
Ro ad
function al
vier tel
orien ted
gre if
met ro
iz za
vis ed
Zwe cke
mot ive
i bel
fa ßt
vor bereitet
O der
Sing le
Prote ction
Struct ural
Gemein de
shar ing
most ly
des to
Sch e
sign s
Invest ment
Genehm igung
L ounge
u ated
Ver samm
inter pre
offen e
Katastrop he
iss es
found ation
vil le
E vent
ver binden
plen ary
zie llen
Subsidiar ität
Thurs day
N IC
ü bt
ev a
System en
eig net
Belg ium
winn ing
Übernach tung
herr scht
smo oth
m aschine
it ors
wal d
resist ance
fe deral
Mar ke
k amen
in fr
plic ations
passen ger
Profess ional
or ama
St or
aut onom
With out
V P
ens wert
Viet nam
stol z
b ol
ou th
wor r
export s
wid met
con fer
bel angt
exam ine
de x
wer ks
sp aren
Er kennt
horiz on
r é
bei getragen
part ly
chn itten
s amer
be kräft
Son y
übrigen s
depart ment
an wesend
ger ät
Lob by
we ile
Am t
Übergang s
Vor stellung
individ uellen
Bel ast
atten d
perform ed
Nach halt
V ill
sicher en
direct ory
Fund amental
Sud an
pr ene
erg ie
propos ing
bereit gestellt
occas ions
G ang
Bet rag
Kre uz
ud s
dre am
wom an
Fr anc
Glaub würdigkeit
b urn
shar es
er setzt
ange wand
pla cement
Haf tung
Bereit stellung
Mitarbeit ern
P ot
ou red
person nel
fert igen
educ ational
de posit
relax ation
ein bezogen
lä ßt
star s
incl usion
zug ang
bell ing
begrenz t
j ung
r ul
Ver lauf
sol ches
Rechts grundlage
jen en
Au ge
los ses
Schrif t
Lo ok
il ater
ho using
7 2
V ER
b atter
leg ale
contain ing
grundsätz lich
decis ive
d ign
suppl iers
ab sen
Con sum
complic ated
V ater
manufactur er
Ern ähr
Mal ta
North ern
organis ieren
H on
I ll
r ical
An sichten
emp fohlen
La w
Hung ary
interpret ation
Poten zial
c ommission
to bac
information en
Pass wort
prepar ing
Donner stag
z ellen
port al
hol m
Pre isen
einge halten
Kl aus
be handlung
reg arded
r ub
vor rang
ge laden
inhabit ants
L td
inter ior
aus einander
An stieg
Th omas
Ein er
fl ights
spl ans
nation ally
G i
V el
g ige
i ón
r üstung
im pose
Dar um
D al
vis ory
erfolg reichen
Haushalt splan
L etz
Mo z
dist ingu
Wohn ung
verkauf t
compon ent
Beschl üsse
N az
tradition elle
club s
betre iben
Bud apest
her zustellen
kon front
With in
ave c
ur g
offiz iellen
be hoben
provider s
an belangt
sch ne
fle et
else where
ed ition
ad ults
schl uß
cert ific
r or
w ines
Er stellung
schef s
Ap ple
ä cht
zu grunde
schre ck
C it
er lebt
wind ows
5 1
arr ive
B ang
5 8
the me
Kon stru
ansp rechen
angeb racht
pr äch
fer nen
Vers and
cos y
Konsequ enzen
mil k
volunt ary
über prüft
lic ens
Män nern
new sp
un be
s aving
de leg
hä user
ver mitteln
ph ones
gest attet
Bet racht
W ater
enh ance
spann ung
magn ific
X P
fest ival
an cing
ens ures
erreich bar
T enn
Bur g
j i
Bet t
beant worten
br ight
Min i
Ur heber
decl ared
tobac co
c ot
ne un
Con tent
mak ers
am az
ies en
ex it
Besch rän
Ex change
Sicher ung
Fre itag
invest ieren
Schl uß
imm ers
Fre unden
Auto bahn
bon us
S ource
Verhand lungs
alb um
th ir
stra fe
Bulgar ien
ü ne
expl ore
vac ation
G üter
b iz
str ugg
Str as
Euro zone
stud io
L er
Stra ß
cr ib
Zivil gesellschaft
ier a
is tern
chn ung
besch reibung
u che
Hung arian
kern el
ein st
ähn lich
dar k
cep ts
d t
ver boten
Deut schen
EZ B
Spaz ier
5 7
th r
Ver zöger
Will kommen
AID S
L ine
part ment
Pro p
belie bt
Kor ruption
H U
profession als
H at
un iversit
Verbraucher schutz
S ant
Gegen stand
Ear th
is lands
import s
Minister präsident
französ ische
S atz
B ased
S ind
bis lang
bedeuten d
rep air
spe cially
ins ist
Wer be
19 70
D ou
R A
S l
re placed
ab use
Ar zneimittel
Se cret
refer endum
send ing
in klusive
se cur
einer seits
bo ast
Kolleg in
Po int
Ex tre
finanz iert
F I
ver än
ver sichern
zu tage
ce an
RO M
Proz esse
sav ings
re vision
Zahl ung
5 4
W olf
p m
ie be
Puer to
facil ity
broad cast
Kaffe e
all zu
Sch wä
Schul en
gener ate
groß em
Wä hler
iell er
wa ve
bestimm ter
Fuß ball
destru ction
v alley
inter nen
Ent lastung
Wä hlen
rä umen
Brasil ien
Reduz ierung
ch est
st ammen
Al pen
Über legungen
D or
wieder holt
address es
k ö
pack aging
groß zü
elektron ischen
af ft
mensch liche
Follow ing
L ay
ben utz
cover ing
wissenschaft liche
Kroat ien
wer ken
hand le
f ähr
ra ising
Ta x
less ons
Ro ck
spectac ular
är kt
An g
He ad
zentr en
a warded
kehr t
care er
F ün
i ations
Kon takte
ziel en
f itness
Stras bourg
Z one
be währ
wahl en
arg uments
a er
au dit
Gro s
kap ital
d un
in fe
be ur
Ä gyp
ex e
enn ung
cons ent
ib ar
Comm er
sozial er
pr ime
Ma de
tes ted
Ü brigen
commer ce
F ig
führ ungs
tour ists
in sp
aus gerichtet
great ly
beob achten
ur ies
verwalt ung
mer k
co operate
par ad
prosper ity
fre m
bereich en
adop ting
ursprün glich
n iveau
aussch au
excess ive
Asse mbly
er zeugt
em ot
visit ing
L iter
de e
Vor der
umin ium
dok ument
iger t
Pos itionen
Con sult
P as
r t
G erecht
W ire
so u
consider ing
ühr t
fer enzen
Tre ib
harmon isation
Wik itra
ch r
verwen de
sole ly
Zusätz lich
C AP
re corded
il and
resour ce
ifiz ieren
Pol y
ad ding
thous and
genü gend
en det
An lass
bl ing
sto ßen
enable d
ab stimmen
Qu ellen
div ision
W issens
Sch le
Pr äsent
integr iert
AR E
vorzu legen
r ising
ten nis
extra ordinary
Atlant ic
sup plies
s op
deut sch
suggest ions
as en
hin weg
viel es
prom ised
she et
T en
St offe
Fr anz
lif t
z ell
in ational
Sch loss
bed ing
garden s
entwickel te
un ited
vorgeschlagen e
Trotz dem
Model le
Prakt iken
ge kenn
port folio
sen z
sub stance
F is
hunder t
zukünft igen
Wikitra vel
h ill
Wirtschafts wachstum
Alex ander
6 7
ar my
top ics
W etter
bel n
lös ungen
acknow ledge
la belling
iv als
difficult y
never theless
u ble
ge leitet
apply ing
pursu e
ak ing
einz usetzen
To ols
Ind ian
schle chter
Spa ß
Z ür
k ir
Not es
absen ce
lich ten
lie f
Ein wohner
Fern seh
effiz ienz
Städ ten
slight ly
D ra
T och
l or
Sta ates
künft ige
herunter laden
jen er
shad ow
5 3
zu ständig
Wider spruch
Sp itzen
weil en
t or
polit ically
emp f
hund red
ir s
bro chen
alloc ated
spo ke
p ac
er zeug
ver hält
Mon day
z ert
do g
L A
verfüg baren
gebie ten
verteid igen
le hr
accur ate
dem okraten
ges ted
wä l
Flug zeug
satis faction
ver teilt
Wer ke
C all
é n
fol gung
Finanz ierungs
Tre at
V ari
reserv ations
fän gt
er setzen
ele ctor
Qu ark
ir ing
Ab fall
luxur ious
j apan
proble me
unterst reichen
Num mer
A z
l ings
or er
Ver einfach
lo vely
St ill
compar ison
Zu cker
isl am
appear ance
f i
produ kt
host el
V IS
to ile
ord nungen
be hinder
Re f
ger aten
institution elle
Salz burg
gebil det
Provin z
oub tedly
H en
Amer icans
c ation
ein gerichte
Be weg
weis ungen
Do es
bedeuten de
neigh b
g änger
un ning
Fr on
bet ten
ival ent
Prozess es
v ary
iz üg
Ger ade
spec ified
quar ters
Bud gets
f la
an dern
reich er
Text il
H u
appoint ment
konfront iert
lauf enden
suppl ier
unent gel
des erv
vor anzu
beein trächt
Lat ein
gebie te
farm ing
langfrist ige
am ed
Or ient
aktiv iert
l ib
r ats
for ests
se m
cour ts
Energ ies
Al ger
spre che
necess arily
umf assend
hervor gehoben
ge führten
ber gen
Pr om
Me ister
carr ying
pre chen
M eines
wel comed
EC B
S ein
ial e
Bar s
erwä hnen
ange passt
begr iffen
negoti ating
NG Os
fl ows
Z y
Dokument en
A 5
A qu
d iss
el be
kontakt ieren
S atur
An gel
re act
Sy m
Gleich stellung
rob ust
D iplom
re b
not es
unter zeichnet
emp fangen
ged acht
ähn liche
reduz iert
wirks ame
Gerecht igkeit
All ian
behaup ten
K en
l an
con cepts
st ick
Kultur en
Weiter en
Gewähr leistung
BM W
P fe
cri be
L ok
m u
it als
re action
cess ion
Qual ity
town s
dut ies
E th
z auber
vor ange
Unter nehmer
plan et
Zus ch
v ict
ystem e
been det
comple ment
dank bar
Moder nis
V ista
spe ichern
é r
Vize präsident
Toch ter
Mill enn
C up
ro utes
ip ol
Ser bia
Liefer ung
UR L
eur os
zukünft ige
Emiss ions
j ac
ip her
Anwen der
i Phone
re marks
di ver
mod ules
analy se
b ay
list ings
H ot
lä uter
Aktion splan
Eigent um
at i
gehen de
wechsel n
D oc
t ables
ten e
we ge
dis abled
illegal en
abil ität
kap az
s ad
Sch on
Ge fän
Organ e
Obje kt
forth coming
P M
Nachbar n
c rop
ver dienen
G A
ult ane
signific ance
freedom s
ic ing
weit gehend
Met all
MP 3
C ir
ter e
it im
bekann te
sto cks
Agricult ure
relig ion
ket t
entr ance
L ag
S mo
m n
n ien
u ers
Gesch mack
au b
tro vers
represent ation
Di kt
v ideos
grün den
entre prene
wirt schaften
7 8
ab sor
Belg ien
fa x
ship ping
F C
m use
gesch afft
sustain ability
einzig artigen
Bran che
Sund ay
constit ute
militär ische
f ly
g ess
An wesen
Zuständ igkeit
Bör se
é es
CH F
F an
unter scheiden
Fre izüg
man che
Bes ides
Ch i
gra v
soc ieties
mittler en
gebe ten
f ans
ul pt
programm ing
vorliegen de
Profess or
attemp ts
F S
H under
Par ad
Im port
Mon tag
Tra vel
week end
Verhalten s
es cap
ro lle
dem ic
gh ter
afr ika
militär ischen
b lau
Fin land
Sp ir
mon opol
istr y
konzentr iert
gemeinschaft lichen
wel comes
strateg ische
le hnen
letzten dlich
magnific ent
mult ilateral
W äl
e e
for cement
pl enty
hin gegen
ren der
dr y
pre ad
dou b
kn app
Katastrop hen
Plä ne
every day
Krieg s
ab sur
ir ischen
over view
arbeit ungs
optim ale
O mb
gar ten
fle isch
firm ly
M igr
förder ung
gain ed
barr iers
R ap
er freut
inv ent
pay ing
einzig art
Perspe ktive
on ien
sure ly
product ivity
s ha
mit teilen
pr est
St utt
inv ited
Su iten
rece iving
Slo ven
pass ion
super vision
g am
her um
Kon zep
AC H
sug gested
unabhäng igen
real ise
ver bindet
pol y
reserv ed
V I
ab end
uds man
z weit
des cription
herr schen
F ull
ä ume
Corpor ate
P SE
ur teilung
te a
fil led
Eben en
fig uration
Bon us
aut ion
spiel er
prakt ische
R ab
iv a
unentgel tlich
H aving
V O
s cript
y on
cent uries
bisher igen
Be für
gestell te
bel le
jud ge
5 9
ig a
gr enze
günst ig
Audit ors
Frien d
St ability
Um satz
Situation en
sp f
einge gangen
F al
u k
per mitted
hier bei
kle ines
Binnenmarkt es
tra dem
obli ged
M i
wi es
arbe its
v as
vor bei
can cer
Pro ject
democr at
four th
н а
ac celer
ernsthaf t
L aut
fr on
bl ind
Arme e
tre e
mus sten
drin ks
Able hnung
Le iden
Her bst
flo od
ev ident
As ian
uß t
Fr ist
fo x
intell igent
li quid
Mär kten
Wider stand
н о
vent ions
subje cts
n ights
u ous
ô tel
pre ce
wunder schönen
Zyp ern
d liche
t an
st ers
ha st
Finanz krise
Vor lage
ys ide
prevent ing
R unde
ul f
B ord
Be ge
Gu ests
proje kte
Freizüg igkeit
ug ht
spr inzip
Dem onstr
Tenn is
b ann
ar es
sur ve
fäh igen
Th rough
mass age
re ibt
ma x
dire cted
O ste
coordin ated
ic als
nar row
N ic
m elt
inter n
real er
rent al
ref ers
C ub
univers ity
le aves
klär ung
korre kt
T EN
z it
Se arch
hil fre
er fordern
Gr ünen
organ ic
Geh minuten
Pla ce
instru ctions
wie gend
context ual
estim ated
Befug nisse
jetz igen
B all
sh ot
human itäre
ath ol
an ch
Ver arbeitung
lie hen
hy dr
introdu cing
restric ted
Steuer ung
unabhäng ige
Veränder ung
beschrän ken
at trib
ge fragt
ber n
ste igt
UN G
Sho uld
Ä uß
an ische
Auf sichts
gewä hren
kurr enz
ix el
enter prise
Samm lung
al ing
mer z
At tra
Fahr zeuge
R I
und oubtedly
Le on
contrib uted
beauftrag ten
ar men
em bar
hear ing
j unkt
en abling
bestimm ungen
E he
ä um
über w
US S
Bet reiber
Cook ies
St att
nach drücklich
Play a
spie gelt
col ours
Tät igkeiten
en counter
Vor ausschau
so ught
Ab schaffung
rel ative
u den
w rote
í n
et ten
Commission ers
Verletz ung
P ie
an halten
ar bit
Er füllung
voll ständigen
Rück kehr
Schü ler
opol it
Islam ic
l ap
sum mar
bestell en
bud gets
hä fen
J ung
gesch ichte
bed ded
fil ms
investig ation
mult inational
unver gess
indic ate
g art
expla ined
disast ers
z ivil
Ad dition
um setzen
Er lebnis
Trans fer
wi l
erg ibt
continu ous
Ges chen
Regierung schefs
au schen
bre ach
diplom at
bege g
K as
P ac
S oft
Ler nen
F unktions
T M
Ber ichten
Social ist
Beteil igten
S ong
W ed
ab zusch
Re gen
Par ameter
Georg ia
err ors
refle cted
aler ie
L en
g ner
el ess
bes orgt
tim et
C atal
weit ern
Comm on
cell s
event ually
lie ber
fest zulegen
re tail
öff nung
vertr au
Fac ilities
co very
Sch iffe
Fr ie
kil omet
proceed ings
N O
Fin de
Ex istenz
function ality
Tic ket
W är
ir re
gr ös
vorgesehen en
einheit liche
an wend
Famil y
refle cts
Wiederauf bau
N ext
i be
Spe kt
hervorragen den
imag ine
acknow led
obstac les
zw ingen
se g
K no
R io
gener ations
hard ly
ugg age
er hoben
Rat schlag
every body
special ist
geb ühren
kontroll ieren
depart ure
confirm ation
gel esen
Tra in
kor rig
erhö h
D res
Ent fern
Ger ichts
uni form
u um
wer ben
up p
Flücht linge
A 4
Min ute
gesetz ten
tr ends
Ver g
Gemein same
dict ator
Fakt or
concentr ate
sav ed
de i
ine vit
Am ong
in j
ren owned
fe hler
enh anced
Mik ro
zwe ck
L ight
le iter
consider ably
tä us
hom es
Stock holm
par ameters
kil led
Kontin ent
Gol den
ar gu
B ru
D rei
langfrist ig
bed anken
Agent uren
appro ve
period s
der t
as chen
unter liegen
Konfli kte
Zahl ungen
Dol om
Komple x
Mor oc
Kan ada
being s
Sit uated
Wirtschaft spolitik
Gel der
exter nen
geäuß ert
tr ieben
über sch
Secret ary
sc ene
bra chte
metho den
dign ity
r d
un forget
Mon itor
gef asst
miss ing
philosop hy
an zeigen
zu ges
De fen
belie ves
Abhäng igkeit
des wegen
wi ce
Reg ister
Satell iten
K ab
sever e
str öm
Mer kmal
S ob
ard o
suffer ed
foot ball
V ict
it o
gel ingt
Dire ct
einzu führen
wachsen den
Urs achen
exper iment
Med izin
bed ro
viol ations
Sa ison
tä glichen
m ist
S achen
countr yside
Host el
nütz lich
G ame
the ory
ar med
mur der
An dere
mach te
Reserv ierung
re ffen
wi rel
us ive
sim ultane
K atalog
n t
ste uern
umfang reiche
H R
tr ig
men s
oper ative
Bevölker ungs
g ate
An kunft
turn ing
pan oram
Kor re
mitglie der
N avig
T ausende
m ern
he ißen
Krimin alität
wirel ess
H om
er kannt
an schließend
enthalten en
Fern sehen
V ide
Ver teilung
mil es
Proto col
L ith
besonder er
strengthen ed
Sp ace
Entwick ler
angen ehm
verein bart
meaning fully
penal ty
App lik
g ast
ach ter
err y
Kon g
förder t
explo itation
Administr ation
Meet ing
et abl
pla cing
Im plement
exclus ion
G P
ge plant
Ges präch
zurück zuführen
Fahr t
recogn ized
N am
inen ser
f roh
könn t
Ant on
Sad dam
public ation
ck ing
port ug
Paläst inenser
V ort
ir l
über aus
Gen eva
ES S
Wür de
B E
S W
gem ä
trans mission
H aben
to x
E v
wor st
Energie effizienz
Do ha
erh ielt
le ite
ist iken
Gen ießen
jahr es
ot te
cl ause
Zeit ung
M aschine
ch at
design s
pan el
Eing ang
hoff entlich
Vol kes
äu fer
re chnen
b anken
gest ärkt
Vereinfach ung
d ic
н и
Am b
Invest oren
nieder länd
gel d
deli ber
betre ffend
amb ition
LE D
N T
f ugen
ö tz
be kommt
leg ten
rad ical
Bereit schaft
3 50
Ver zeichnis
ell o
Rechtsstaat lichkeit
che cks
dec ade
Gesch windigkeit
Luxem burg
kontext uell
b sp
belie f
normal en
sparte i
X I
s elling
Grund lagen
Park platz
produz ieren
h ers
zu gelassen
her stellung
Allian z
comp act
context ually
fisher men
indire ct
ge we
Qu ad
Wirtschafts krise
grammat ically
K am
Re chten
mm ern
consult ing
h ur
k ampf
in mitten
st ages
Aus flüge
Urlau bs
Omb udsman
ov a
adap ted
zusammen zu
aufge zahlt
normal erweise
gegenwärt ige
grammat isch
l ots
Kommission spräsident
K openhagen
ad ds
Im mer
List ings
se ctions
Ge werk
worth y
sound s
hochwert ige
bewält igen
Berichterstat ters
Desk top
restruct uring
n ör
s au
be wahr
gehen den
Schlussel wort
Schlussel phrase
ökonom ischen
V alen
sch läge
aus gaben
rest ore
Wand el
he m
Pr int
vorsch läge
L IN
we a
unter brochen
Verf asser
Stär ke
mov ements
gewünsch ten
pro spe
comb ine
spolit ischen
H ig
m outh
ange wendet
Tha iland
H alt
c z
ap ers
natür liche
geprä gt
B it
P P
Le vel
charac ters
V alley
an hand
the tic
Ver sor
1 30
9 2
Be wer
Emp fang
Best ät
International e
ivers ary
t ank
end ar
Pro cess
gest r
v ine
Er gänz
exist iert
AS E
entdeck st
I ron
d oppel
it arian
ru f
Deb atten
Registr ierung
sovereign ty
K DE
qu et
hohe m
Cast le
kontext uellen
al arm
ES CO
Bas el
b lic
la h
art istic
ese it
excl uded
inter nationally
Ho he
comp uters
fest gelegten
V ent
ver handlungen
dar gestellt
blo cks
Straß burg
X ML
Stift ung
ang est
Char les
def iz
re put
vor be
Tun es
sicht bar
Di am
urgent ly
convent ional
Amerikan er
P ension
lich em
ger inger
twent y
R uf
sen ken
Last ly
Bibliothe k
muse ums
man aging
schn ellen
Qu elle
kt ure
opp elt
ag a
cl es
unter sucht
ieren der
P fer
gel ö
Gener ationen
o ter
hinzu fugen
afr ikanischen
Komple tt
miss ions
show ed
hor se
enor me
niedr iger
ein gestellt
Pl at
regard less
dienst leistungen
St amm
p rag
er weitern
dies bezüglich
dr iven
Con sequently
mista ke
lin ken
eng age
warr ant
auf gebaut
vor nehmen
under taken
sicher gestellt
delic ious
Erinner ung
to ug
f es
r ide
ES T
deep ly
erst mals
t ö
dist ort
Dom ain
x y
trä glich
gelegen en
günst ige
Kredit karte
Pet itions
ver weisen
polit isches
villa ges
Moun tain
Heiz ung
ig end
ber ichten
arr ived
F L
ant icip
geb lieben
targe ted
unforget table
m än
z un
Groß teil
thre ats
Lehr er
T ests
u chte
ar ise
Be ide
ac ted
dis cre
Res erve
enjoy ed
Leit ung
Jahrzehn ten
Zür ich
effiz iente
m ith
komm er
Nachbar schaft
mitglie d
auf s
Sch reiben
hier für
Che m
Gebur t
B eseit
g ift
cl in
versch l
colle cted
L it
P hän
Ver trages
man if
Pl ane
accept ance
tax pay
Mall orca
ag on
Arbeit geber
Team s
Schwar z
M iß
out ique
Aben dessen
press ed
Öff nung
clean ing
Kohäsion spolitik
W E
Instr uments
Vertr ieb
hon est
Hä user
Ven ice
b ug
er zeugen
su d
ste am
Stutt gart
S har
l amente
t ip
or ation
rang ing
Lang u
be we
Be arbeitung
sufficient ly
1 10
J ames
ist ischer
Zugang s
mun icip
N E
fäh ige
li ge
fre ely
stärk ere
D än
L uf
re construction
ic king
äd chen
IM F
H els
T U
k u
at is
bo ards
geeig nete
Instit ut
in ent
col umn
Rei hen
highl ighted
künst ler
O ffic
ra id
id y
bed ür
wär ts
Schön heit
N ET
b row
d ating
mitt lungs
learn ed
perfe kte
n ord
Is lands
Drit ten
T u
p lied
li a
brief ly
vess els
ze ige
Bet ten
class es
B arr
ed ited
end ors
ann o
gesch ätz
pain t
H IV
re ader
offiz ielle
Lab our
bezogen en
pill ar
destroy ed
Al kohol
mehr fach
techn isch
Tr aum
Kern el
künd igt
Niederland en
v ice
unter suchen
jo ining
komple tte
Satur day
b ing
rel ates
Fahr er
mutz ung
ä ne
ad i
ind o
Per formance
quir y
B I
st ör
be völker
An derer
Ch ile
Arch iv
p in
pla stic
kon vention
whe el
kämp ft
ro ots
haus halt
D ir
event uell
C e
är ten
ystem s
prom pt
tr ies
Park plätze
Sm all
S U
d auern
f ro
f esten
ätz en
ches ter
pen se
statt findet
Dar stellung
lay out
fe es
l unch
Mand at
app ell
Por to
Versor gung
em b
Al ters
fill ing
Währungs union
l ived
Par lamente
Berlin er
freund lichen
quis ite
trip s
Tr uppen
Ac count
reli ability
universit ies
prospe cts
ian ischen
Wel thand
Som it
Custom er
p u
über winden
sup plied
Spiel en
m t
UN ESCO
qualit ativ
be llen
let ters
won ach
portug ies
c ue
An onymous
been den
arbit r
ien ces
Saf e
komfort able
form ats
Sm art
H oll
Wo uld
Mo dule
bur gh
Port al
elekt r
Wes entlichen
Fis her
Beseit igung
po ols
sop hist
J os
K ürz
L ic
be deut
be zahlt
ed itor
dem ograph
integr ierten
C ulture
M igration
i kt
über lassen
versch le
Christ mas
Expl orer
h an
Bild schirm
infr inge
be un
we ich
well ness
zahl ungen
ink el
derzeit ige
Män gel
krat ie
N one
Le iter
Edu cation
T onnen
Z ins
c s
ph p
head ing
B ig
en em
sp iele
Sch lag
inten ds
I deal
l ers
Lin ien
versch är
Mult i
remain ed
zu kommen
ste igern
Inde x
G O
w age
ten den
decl ine
coher ent
G AP
is ations
highl ights
7 1
R enten
türk ischen
Ent spannung
asse mbly
Sport s
Vict or
р а
A ca
gre ift
auf fordern
fo to
angemessen en
Schn ell
Tic kets
H an
sh ift
E vents
Anderer seits
d ollar
ex curs
Über blick
Drit tel
Nachhalt igkeit
con trovers
wor ben
Cas a
beru hen
NIC HT
N ation
b ott
Sch alt
ec ological
Wochen ende
iz ieren
Regul ierung
individ ually
stru kture
char akter
G au
bre ath
Hand y
appropr iations
Kon zentr
present ing
pend ing
jur is
k au
ch amp
men te
press ing
Produ ct
Mechan ismen
Fire fox
n ik
as iat
super ior
tran qu
K ategorien
ent deckt
process ed
erst klass
neg ativen
entscheiden den
ski ing
Sil ver
prin ted
ber ichte
where as
av iation
CD s
neighbour ing
R SS
ag g
sc ar
incre d
satisf y
M ah
S n
Au fr
Benutz ern
Dialog s
Sen kung
f uer
affe cts
minim al
Ass ist
b ahnen
digital en
thedr al
e gal
por ters
efficient ly
Sie g
E p
st ret
so genannten
Er haltung
sh ore
effe ktive
Hand lungs
pa ket
beh err
H it
ap pen
ak s
bar es
ins of
Joh annes
um ul
comp uls
Todes strafe
C hat
K ampagne
P ir
hospital ity
k einem
iel ten
angene h
can cell
Con tin
dra st
transfer red
kontroll iert
ach sen
lossen heit
1 st
en cy
is a
The or
Sob ald
te in
B our
if i
ord an
Ab st
origin ally
oll ars
cr y
oper ates
sm art
Projekt s
Franc is
N ero
r and
We ih
Bran chen
We il
bef asst
Volks gesundheit
ell ers
fun ded
Best immung
cal m
Terr itor
Verteid igungs
proz esse
exec ution
c ater
any where
Kon s
Mag az
kü mmern
junkt ur
put s
ver wal
beg leitet
kom peten
üh ne
horizon tal
Nor mal
A ch
z on
Den mark
ik el
man geln
Zusammen halt
cop e
gefähr det
Pia zza
for got
Belg ian
Hist or
Br ief
Journal isten
alen der
ay a
bo y
plic ation
Sicherheit spolitik
bedeuten den
Augen blick
Austral ia
mo use
hier zu
cas ino
Mechan ismus
L abor
ö ch
ann iversary
flo ors
clar ify
Kir chen
D ingen
F ut
6 2
ex em
Sch icks
Aus einander
sk a
langfrist igen
ling en
candid ates
ge treten
An hör
Bew usst
S ah
wo o
Ha ar
ergän zt
y en
ö der
Sie d
Ägyp ten
in tim
pre dict
sub sequent
wesentlich er
fas cin
phenomen on
ht ml
recht zeitig
grow n
Zust ell
cu ted
6 3
Res ult
Effe kt
Premier minister
W ol
ur m
h ell
man ual
mal er
So hn
e at
Se ver
Geb ühren
länd liche
th row
cre w
produ ces
gu ided
gleich ermaßen
beant wortet
st opp
Ch ildren
ster ben
best re
equ ivalent
neut ral
wi des
tro uble
anz unehmen
Lo hn
fest zustellen
geräum t
amen ities
Hin weise
graph ic
Prä senz
strugg le
dem y
gem essen
Mon tene
Arbeit er
encour aged
Got tes
B lair
k ol
be wahren
co des
cult ures
Auftrag s
M ul
ge fühl
Se ele
Foto graf
Moder n
bran che
S ier
op ens
prof its
Bur ma
mo vie
dr ich
wel coming
ke ten
neh me
Ergeb nissen
luxur iö
griech ischen
re ly
IC E
Tour ism
K und
recht lich
Oper a
Ferienwohn ung
palästinens ischen
ther mal
Aus gleich
ehr ten
dell a
manufact ure
D ritte
ang le
Über tragung
R i
ü mer
ed it
Bud d
quot as
hy dro
Tele kommunik
diplom atic
consc ious
Himm el
E asy
n ische
be hält
Wir ksam
Vor rang
Tr end
Hindern isse
I WF
er sta
reg ionen
fest legen
integr ate
meet s
fem ale
K öl
L esen
schwier ige
Jose ph
re venue
eng aged
prakt ischen
h orn
Gal ile
F ang
n isses
Be achtung
Mit tag
ack s
Eur os
ausgewä hlt
ä le
se kret
europä isches
del n
Außen minister
Wissenschaft ler
Zu verläss
er leichter
De ck
Ma ke
Produ z
mü ß
amaz ing
ink i
War craft
nehm lichkeiten
Vertre tern
U sing
iz en
G ibt
im ents
ma cro
älter en
Temper atur
Plane ten
A gain
M essen
mar ine
aner kann
Aufenth alts
om a
ex h
every where
s ive
ver hältnis
me ter
ko v
scient ists
niedr ig
ein zur
Re present
fund ament
finanz ieren
Früh jahr
coll ap
C N
läss ig
S kr
report ing
mus ical
Bedürf nissen
P flege
n ic
oper ator
ul ous
anz ig
lä dt
gere gelt
ent stand
ap t
kon figur
zie ll
romant ic
angewand t
G ay
Innov ationen
mär kten
Elekt ron
gen z
war ning
fol gend
gew and
fun k
Design er
Sc ience
spezial isiert
Nik on
G T
ra gend
18 0
Flor enz
Ol iven
rec ip
D ör
all o
cr atic
stamm t
b aus
consider s
AL E
anzu bieten
Sou verän
Dokument ation
Sam stag
facil it
Mex iko
mittler weile
Consum er
er wiesen
Ver kaufs
explan ation
Lith u
e b
den jenigen
ver ank
aut or
fair ly
bef ug
Sing ap
G PS
re min
achie vement
char m
log ical
genau e
a wa
An meldung
Industr y
gesetz lichen
norm ally
Versamm lung
c lock
il legale
se gment
order ed
All ah
Dr ing
Steuer zahl
Dan ish
geograph ical
H ave
environment ally
humanit ären
Veranstalt ungs
ol es
In tell
dr uc
suc ceeded
Spe isen
Sch wim
Entwicklungs hilfe
klass ischen
th aus
ein stimm
tra cks
ende av
Constitution al
Relig ion
In fo
war tet
Prem ium
Finn land
an forderungen
ur gency
ab stain
pl ates
tow ard
gült ig
k oh
Jo int
PE G
ado x
so eben
ak er
ows ki
wirk liche
P har
zieh ung
C ivil
m ort
con cer
refer ring
aus ser
Fün f
h u
on n
gekenn zeichnet
ge pf
up grade
acc idents
OL AF
ach er
enn ess
special ists
Ur teil
stud ent
Hels inki
opt ional
vari able
verletz ungen
beeinfl ussen
Infl ation
a w
bewer ten
Z auber
regul ated
virt ually
t ill
Sie mens
fin ed
pat ch
occur red
Bewusst sein
D un
S ex
p ace
la c
Auto s
ad mit
fr ischen
Aus bau
Bes uchen
arbeite te
absur d
K ür
haf tet
Pil ot
n bsp
sch wach
ul en
Ma xim
La den
favour able
anzu wenden
Ober fläche
bein halten
harm ful
Apparte ment
magaz ine
o hl
ut most
tho tel
spl end
Eigent ums
a kei
f els
ic ars
Haupt bahnhof
trav elling
E ure
Z er
Kar l
frü hen
Engine ering
er er
ot ic
con struct
with draw
wides pread
enter ing
wirklich ung
head s
6 9
P ER
au g
profession elle
Muse en
Sonn tag
m ord
u ert
or ous
ip ts
Ad d
Dat um
Frühstücks buffet
im plications
hä re
Modernis ierung
offen bar
attach ed
enthus ia
Fr anzös
gewä hlten
Wik icars
S ort
ess entially
Con ne
var ied
Tre k
lik ed
strict ly
zu fügen
produ kten
müs ste
pass ing
in halt
ver he
herr lichen
Alb um
C at
L änge
V arian
in f
em ark
AR T
Fahr rad
treat ments
Mit entscheid
recogn ize
combin es
Auss age
verste he
usal em
T ok
á s
müs sten
Zimmer beschreibung
ator ium
Wirksam keit
f oss
sur prise
kosten lose
Author ity
M ädchen
program men
hy th
nehm bar
under ground
hop es
poor est
zerstör t
D EN
ex ecutive
inter ne
Im p
Ser bien
stechn ik
Jed och
prison ers
con vention
sel ber
As sozi
pro xim
bo den
hy po
moment an
Liefer anten
Smo king
ung laub
des crib
develop ers
Stre cke
Akt ions
Arg umente
ur laub
us age
res ulted
po ker
19 60
pres erve
Wer den
rä um
Luft fahrt
Nach mittag
Hö chst
wi g
oper ated
achie v
aus üben
i leg
Pr in
Ze ich
S wimming
mit zu
Un ions
St imm
Re chen
gefähr lich
fas zin
samm eln
verring ert
T anz
z io
an sehen
be er
Res idence
incent ives
see ks
Benutz ung
consequ ence
trans form
C lin
u led
ist ical
part ial
air lines
wea ken
con vert
St ör
bes ucht
cr ises
willing ness
un ab
kon zept
Copy right
f abr
Kon junktur
kon sequent
mon t
zeich nungen
t wice
Be grün
Co operation
too th
mäß ige
Sub ject
erklär te
Wed nes
H arr
bere chnet
Betre uung
rest ored
län gst
Treat ies
Phän omen
gesch ickt
IC H
hol der
cho ices
airport s
E ti
st ro
ver folg
auf bauen
str and
amen ded
dau ert
chair man
S CH
h ause
In spe
Ver sicherungs
eng ines
üt ter
caus ing
Rechn er
esty le
an ter
ab schließen
ou ter
secon ds
dis krimin
Kü hl
schl imm
Elekt ro
kl asse
Welt krieg
S old
m ere
Qu art
an wenden
st anz
sich ert
dr yer
pen ded
bel g
ein gebracht
min ing
di ents
incorpor ated
panoram ic
t ab
ce ut
pret ty
Wär me
welt weite
Betrie be
claim ed
E uch
c c
p air
Br ut
compuls ory
at on
str onom
kun st
Wer ten
Friend ly
ke ys
Ver gn
man gel
einge leitet
beg ins
clos ure
F ass
P ier
Auto mat
Mass age
tro ops
Arbeit nehmern
trans fers
f at
vor gestellt
Ge fangen
len ken
sud den
M is
V IP
z icht
verl ust
medic ines
vor zunehmen
EC D
ivers ity
satis factory
pure ly
P ad
ie fer
Ver wirklichung
conver gence
Wil li
P y
st ad
il led
regel ung
s ights
av al
song s
tr at
Ris ik
neighb ours
к о
ver letzt
kauf t
jeden falls
pictures que
bege ister
gradu ally
Gemein schaften
Erzeug er
Are a
en vis
in her
fol der
qual ities
aufzu bauen
v ator
ent fernen
Be vor
her auszu
land schaft
As ht
Jugend lichen
c racy
lo hnt
Ber ge
Br un
C ot
R ail
um gehen
über wachen
Pr im
Hoch schul
chr ist
pil ot
sophist icated
an träge
re agiert
Ab lauf
rat ification
Zuverläss igkeit
pe te
no ck
cl icking
Le ban
Frie drich
an ca
Aus arbeitung
angene hmen
b aby
hen ce
Pro zeß
Er richtung
Mic ro
spf licht
Verbrauch ern
constit utes
beab sichtigt
deserv es
ge liefert
halt ungs
EUR O
fanta st
surpr ised
t ort
Su ites
negoti ation
vict ory
H uss
um zu
desk top
р о
ge führte
gr ünen
Sch r
Vor stellungen
disp ute
U L
conc ert
cult iv
Bü cher
befür worten
8 2
T ieren
ko st
news letter
teach ing
Verein igte
medic ine
ar ising
organ ise
Fe deration
Leg itim
legitim acy
S pl
sch were
ad ays
Lou is
M aus
är er
oft mals
K y
Pass ag
therap y
Dres den
ag ents
ob served
inv o
Sier ra
se cre
kilomet res
O t
ac compl
gros se
oll en
expl os
en forcement
se es
Le ip
gest altung
Ex tra
eigen er
Kön nen
record s
gros sen
Spezial itäten
ig are
fahr er
M ix
N izza
es tens
Be le
ac counting
hin ein
ev ol
chines ische
beseit igen
reput ation
ör tern
Unter künfte
produ cer
kon zip
be arbeiten
particip ating
check ed
Vis a
Sim ilar
imper ial
over looking
graph ics
gemeinsam es
R y
m yst
in folge
vor n
Tun is
acqu ired
9 4
Auf zug
Her ze
address ing
Kl ass
lei hen
percent age
w ed
st unning
Kre is
offiz iell
Slovak ia
T auch
el la
Sch wellen
näch ster
euro zone
Akte ure
Wednes day
un necessary
as set
ir able
vor gelegten
O ECD
P V
stat ten
exh aust
C uba
H z
M I
j an
pro pr
dr ingen
b ö
Spe ed
condition ed
günst igen
Asht on
se ats
reg ierung
govern ing
üt ung
schl üssel
pro spect
sp here
me al
lä ufig
Niger ia
V in
no vel
Se ktors
pre v
schem es
and e
ne ts
Er fordern
kl imat
cap abilities
hilfre ich
C ross
L uc
ein seit
ber s
li able
K äufer
b id
v ibr
fl üss
weit ung
Ro th
h idden
er neu
inst antly
kü ste
ein geb
AL L
N ok
S ir
S now
op ter
iss ance
com position
Bere its
Q U
Th ree
Rat ifizierung
Qual ifik
l anger
ch apter
ing ly
ag og
An ne
po und
Se kunden
Schul z
Kenn zeichnung
Kon vent
arr en
Flug häfen
elimin ate
C ô
sor ry
IN D
bath rooms
Weiter entwicklung
pro zeß
ex pense
19 th
un te
dem ie
Über sicht
syn chron
Entsch lossenheit
Sow ohl
de em
sen sor
bring ung
col ors
T enden
be zeichnen
pr ize
St aff
defin ieren
R uß
i Pod
able hnen
Büro kratie
Konz ert
Vermögen s
C ash
p her
Ein en
confer ences
C ru
R ett
so il
lä uf
größer es
pl ötz
ap el
Obje kte
Komment are
Ansprü che
deb ating
timet able
ie fe
Ne hmen
aner kennen
Ed in
gä ste
W W
er teilt
gr ass
betra cht
M uster
d rag
t schech
th umb
Er reichung
Den ken
ed ig
d umping
effe ktiver
load ing
würd igen
Z war
zu geben
Inter nal
Ha iti
el and
stell ern
prov ince
Ka iser
Innen stadt
Flä che
T ol
err ichtet
associ ations
je glich
approach es
along side
A br
w n
Ver he
effizient er
Soc iety
a he
op enness
Prof il
Cur rent
man chen
Um struktur
ök ologischen
t at
vious ly
Galile o
th res
her stellen
ven ues
Z erstör
p has
Ver ab
ag d
versamm lung
surpr ising
Anmer kungen
6 1
ge kehrt
ver breitet
sp onsor
fe wer
Zeit plan
conf idential
gehör igen
benach teil
Re vision
statt gefunden
Gre m
iet ung
l ere
zer o
Vorder grund
Aus weitung
Caf é
R ing
W under
And al
Bil dern
ö hnen
ver steht
mult ilater
gesellschaft lichen
unmittel barer
teach ers
An im
S i
b omb
her o
P atten
re ifen
instr umente
n utzt
v ior
ha i
wor te
form ular
ear ning
conven ience
Tradition en
Colle ge
Ein fl
Jer usalem
ut ung
ions hip
ste il
italien ische
enjo ys
h iking
an geschlossen
typ ischen
parlament arischen
L CD
vor teil
Souverän ität
T ou
ment al
land wirtschaftlichen
hinzu gefügt
Apparte ments
B ier
g lo
en der
An nehmlichkeiten
bes chä
het or
it ive
gr aben
An reg
ent täus
Beschl uß
Erwachsen e
schwed ischen
Nok ia
F P
insp ired
un eingeschränkt
str asse
special ized
Volks wirtschaften
d än
gleich heit
verwen deten
volle m
Aus bildungs
Zu ge
did n
Ven edig
empt y
B ER
ar ray
ol ive
Ein es
communic ate
Bestell ungen
digit ale
i op
r ess
Kon kurrenz
ket ten
fal se
campaign s
ch ern
aus gehen
enor men
verur teilen
die val
ow ing
innov ativen
A th
C AN
O bst
l uck
zess ion
dam ages
Min im
Qu oten
Air lines
dele te
ge widmet
ple d
short ly
exten ding
Dynam ik
Chair man
m om
s ed
up s
Edin burgh
maxim al
Partners hip
E A
ver öffentlichen
per mission
Über nahme
anzu zeigen
bew ußt
Inter governmental
ü hen
Ge gner
inc ident
hervor ragend
al ia
ges ucht
Auf lösung
spl it
relationship s
Niederland e
H ann
k ings
ges ichert
consider ations
Up dates
Las er
Slow akei
or i
Me ilen
ct ic
constru cted
gewöhn lich
r iding
up gra
navig ation
Latein amerika
in adequate
Ar ena
kl aus
amb od
intent ions
part ition
under lying
F ace
M AN
re cording
economic ally
Stat istiken
op ard
Tr ib
repeated ly
Dän emark
bevölker ung
D üssel
er lassen
de z
ing re
20 15
n ative
Con s
E hre
K G
j ah
n amen
s wi
Oper ation
druc kt
Ko operations
struktur en
in ken
ib il
Re par
weak ness
Ver mittlungs
Rich ard
remark able
Sp itze
M illion
S ha
ü che
le m
le ute
to urn
Grün buch
ra ces
To gether
Aspe kten
sess ions
authent ic
Korre ktur
Montene gro
per su
größ ter
spee ches
Im per
schrif tliche
mäß igen
sp ite
clar ity
Palestin ians
zustand e
F assung
H ändler
v acc
An zeige
geb nis
CE O
sp hase
ik i
Stor age
ü bung
her steller
exam ined
refer ences
sched uled
Klar heit
Beam ten
Entfern ung
ü br
ult imate
serv ing
rei ze
Umwelt fragen
auf recht
lo go
cert ified
Ther ap
aktual isiert
grenzüberschreiten den
for ese
sur vey
Kre ativ
Stabil itäts
sch iff
se her
Be fehl
plan en
Durch setzung
Georg ien
I sol
f ließen
in ely
beg leiten
lö schen
ipel ine
qu a
ex posed
car te
krä ften
Ereign is
f isch
Be hör
ape ut
Konz ern
journal ists
Sch m
bei behalten
E c
ort s
voll es
fortun ate
Offen heit
c row
il li
gest atten
bel s
Gro w
cook ies
Wichtig keit
Cle an
Z un
Г ј
as er
aus wählen
man ipul
ange bote
Ad v
tar iff
pun ish
Festpl atte
Philosop hie
bedro ht
Cô te
Behör de
ä nen
con stra
In kraft
com pete
er teilen
op pose
De partment
AL DE
owners hip
keines wegs
Pac ific
Valen cia
Verhe ugen
co decision
conf ident
14 0
nöt igen
B ou
r an
aus wirken
beg un
Ter ms
s la
be zü
find ung
Vorsitzen den
ir n
ib an
out s
dis count
Commer ce
ingre dients
h after
s qu
er örter
ant as
trag ic
integr ierte
Ver sprechen
stor es
beteil igten
concentr ation
T amp
la sten
Bos nia
Sold aten
L ot
iz iert
setz te
graph y
Aca demy
E IB
M D
p ensions
le ger
Kon ver
Kon vention
two ch
del t
Russ lands
büro krat
ein igt
ib ly
öl f
ged y
it able
Ver d
act ors
fort setzen
hä uf
Vorgehen sweise
Nichtraucher zimmer
g in
wid men
knüp ft
Riv iera
trans action
super b
zweif el
Extre m
h ern
r ating
ch ief
ie fen
Govern ance
öst lichen
Miss brauch
SD L
B lo
F ile
L ong
yst al
deck ung
B enz
V ul
Nach druck
wid th
gir ls
S ams
j er
mon at
rif ft
Wohn zimmer
renov iert
Kompeten zen
on te
qu i
sp häre
descri be
Rä ume
Fisher ies
ab a
gew achsen
8 9
C AD
An tr
Fe ed
found ations
kompliz iert
compla ints
K it
bro ken
altern atives
vertr aut
Ne uer
quant it
An betracht
Vor red
Emp fänger
Ver hält
old est
schö p
ac company
Ein nahmen
comple tion
finan ced
flex ibel
Verhand lung
7 3
ar ts
me als
Or ten
Ser ies
as i
pl ural
gere chte
suggest s
Krie ges
re publik
gel ern
op ho
ach ed
man agers
Se lect
text ile
fal sche
Spir it
Z immers
d ial
d ance
un en
fore cast
Str ände
Protokoll s
drän gen
collap se
Y o
h abil
el ig
distrib ut
üst et
stärk sten
z weiter
er kennt
Schl acht
respekt ieren
Kür ze
he iz
In f
sol ch
gest iegen
ang ers
Ab bau
exam ination
prefer red
arab ischen
er led
so ul
Vis ual
bezogen e
genu inely
ehemal ige
gor ith
G elt
h ü
tra gedy
str äger
los ing
Other wise
städ t
Bestät igung
ad ult
ho hes
bo ats
elegan te
t ang
ge heim
Proble matik
genau er
Spazier gang
op es
Mit twoch
nor men
Werk zeuge
bear ing
R enn
os ing
Re ferenz
Sp iegel
erhe ben
profession ellen
Dom in
stät ten
us can
nach ts
gener ell
Bet rifft
Emp loyment
Schicks al
e uropa
re ci
op pon
ob serve
according ly
T ot
erst es
Internet zugang
sett le
m igr
er arbeitet
Ru br
answer ed
Funktion ieren
Universit äten
af raid
ib ung
Install ations
Dre h
T aten
z ing
Ein fach
ank a
Dies en
exist ieren
hr t
Dan ach
vertr itt
Mod us
Z o
Er folge
fre ier
where by
Frei handels
Leip zig
t ungen
vor über
äs id
tes te
Sol ana
class ical
hochwert igen
Nutz ungs
mix ed
Garant ien
Moroc co
G ate
p um
lo ans
important ly
sp ell
Aus rüstung
ill ance
joint ly
Bu ild
ermut igen
N EW
Kom p
sü dlichen
Rh ein
doub ts
T imes
e ase
em ost
fü llt
wä chst
techn ique
bevor zu
gen e
gar age
Einzel heiten
gegebenen falls
and in
fa ire
ac ión
energ ie
bell a
berühm te
behaup tet
F requ
dead line
fif th
H P
er worben
res um
Kon serv
Spr ing
jun ction
bedauer lich
M au
beit rä
Or der
Dou ble
ansp ru
viol ation
bo om
geb nisse
Grow th
G ü
reich halt
Nor m
stor ies
Urs ache
D im
F ö
Gre ens
splend id
A ff
h ills
st on
fr ucht
bas ieren
krit erien
re vised
Mar ok
Ch ic
Fort setzung
respe cts
Terror isten
Ren nen
Beschrän kungen
j ing
er ungen
un dern
as che
met all
Log istik
Syr ia
b ought
k orea
fe et
decl are
bewe gt
E hr
ein her
ge ehrte
uz zi
W en
ac io
fre cht
La sten
Fel der
R ichter
est r
vir us
Hä fen
Minder heit
ampag nen
E IN
anzu passen
Är z
h us
ess el
su ited
di agno
klär en
regional er
Gew ässer
E ver
fre ul
Pal ette
mut lich
Sc ot
stät igkeit
endgült ige
H A
v re
be weisen
cure ment
chem ische
Net ze
Trag ö
F lag
N RO
i ated
ber ichterstat
stell ten
Ind ik
maß geb
sch r
Fisch ler
krank ungen
pharma ceut
ver wiesen
se bene
ber ger
ad venture
str ö
besonder es
log ic
elektron ische
beha vior
boast s
Sams ung
K W
st ä
Mar co
por ter
üb lichen
forgot ten
D est
F abr
th y
ber ichtet
ll a
kur se
Pal ma
health care
elect rical
eth ical
getrenn t
überras cht
7 6
x en
Der zeit
arr est
ill er
Kon sum
Industr ial
verbind ung
dram atic
Graf ik
H S
un ions
res idential
Fil me
transl ated
Altern ativen
neighbour hood
Vene zu
to ll
co ach
igh ter
Che f
E del
F uss
F utter
id ad
li zen
ard in
cons isten
He ads
Elect ron
Aus richtung
f ell
komplex en
A y
R S
T W
par ameter
Dem okraten
we i
vi able
initi ally
Wohn ungen
Sow jet
des erve
Ziel setzungen
druck s
guarante eing
Mos cow
präz ise
en viron
ion es
gefähr den
verurs achen
for emost
so ever
Aus be
Rück gang
reib ungs
iner y
assure d
A dam
K lassen
wi en
our met
ben ch
lange m
Flor ence
compar able
H ände
deut liche
sus pended
verab schieden
Rein igung
ic ations
felt reffen
Gefän gnis
Geschen k
f anden
ath y
erleichter t
andin av
af fil
Prof it
y ards
sch icht
tens ion
Lebensmittel sicherheit
woo den
or ted
aut umn
dep loy
occup ation
ausländ ischen
B L
ason ic
Bürger beauftragten
klär t
erheb lichen
Gip feltreffen
re call
ges to
wachsen de
Urspr ungs
Ver käu
ide l
Ste igerung
represent ing
jähr lichen
ähn lichen
b ird
se cut
dies bezü
str ike
terr ible
komplex e
M C
S av
g age
ign ore
vertr auen
Loc ation
B ureau
X X
g ie
ar ks
isch t
ad m
sa ke
S tern
zur zeit
Ges ell
zug ute
inform al
schre ibt
schle chte
expand ed
taxpay ers
G a
comm end
bewer tet
Ord ner
K red
a issance
zu zu
ho c
chn er
bel t
bro ader
indo or
n ament
re m
de voted
ös s
reichen de
princip al
bran ch
R oc
er weisen
gest artet
Doppel zimmer
transition al
Z E
ra ge
trib ute
appar ent
s izes
wel le
Ex ternal
betr iebe
Invest ition
Vertr iebs
Sau di
Wire less
um gehend
In genie
oss ier
Nichtraucher zonen
sekret är
F ans
er werben
ch ung
se ktors
ichtig keit
post al
Di agno
K ra
n ier
t um
ab gegeben
he ight
Sch re
Ab teilung
Gemein sam
continu ously
Auss agen
Sever al
tourn ament
fert igung
Fo ot
Ta belle
198 8
und ry
bei der
Aus nahmen
design er
diesel ben
B S
re med
no body
arch ive
ativ ity
Sa al
N ichts
b at
be ef
An ders
da vor
cal endar
Ma jor
demokrat isch
measure ment
P ut
ta st
Er arbeitung
ass urance
aktiv itäten
spect rum
stress ed
ar ians
wir ft
Ch ief
Kennt nisse
Fremden verkehr
H old
Inter vention
Con troll
Res iden
öffentlich er
listen ing
Bos nien
elector al
fe hle
affect ing
spür en
Geschle chter
er arbeiten
integr ity
unterschied licher
Sar ko
el der
ver mittelt
ve z
tr am
may be
Tal iban
Chancen gleichheit
erwähn ten
wick lung
un certainty
Ver ordnungen
Er öffnung
ange kündigt
Unter richt
Gemein den
Finn ish
Welthand els
auf nahme
cl imb
more over
sam ple
t win
ver geben
str engen
Zert ifik
Düssel dorf
L or
m ant
t é
zu gestimmt
Geträn ke
S MS
t ier
erforder liche
arg ue
B aden
T os
re cru
geb ä
olog ne
ven ted
befür wortet
cred ible
secon dary
zeich nete
fun ktionen
span ische
Mittelme err
drän gt
7 4
se as
pr inter
mar king
Mon tage
access ories
stu died
cert ification
FA Q
assign ed
g iene
tra ined
Publik um
install ations
Z ut
ul tra
In tel
ine a
ev olution
Men gen
thank ing
Alp ha
inspe ction
rub ber
mom ents
zw anzig
inn ere
verbind lich
Ins gesamt
catalog ue
um es
gesch mack
Erfolg s
oblig ator
worr ying
ipol itik
re cession
green house
Ver länger
sen sib
He im
gemein samer
au te
gen iessen
frequ ent
bemer kens
K arr
t ter
the atre
deb ated
D IN
F akten
p fl
fall ing
Bil anz
Bro k
ger ingen
President s
what soever
Chr is
arrange ment
Hig hl
т о
for cing
con i
not ified
pres idential
diesel be
Langu age
C AM
M ap
c uss
Sm ith
äl sch
fu hren
-- --
expens es
R un
sa al
ux e
Col om
frequ ency
toug h
H ör
ü se
ein laden
fr ank
mechan ismus
Pr est
aud ience
L ud
P ed
be weg
kosten losen
tät igen
T reiber
dass elbe
ret ten
kombin iert
dah in
C lim
auf re
Re cent
Bar on
Zwe iten
jüng ste
Mensch heit
Se ction
He kt
schwier iger
Nord ic
wohn ern
Wün schen
Jes us
simultane ously
H änden
R ass
s ach
con vey
ze igte
Zur ück
Mac ed
path s
K ein
an passen
Reg ard
üh le
heraus ragen
Millenn ium
E cht
H our
K anal
ch ed
Deutsch lands
begeg nen
J ur
min es
chair s
gemüt liche
Refer endum
ch i
Her kunfts
rat ified
Ja zz
seem ed
Wahr ung
fab ric
Formul ierung
Phar ma
ir ische
über mitteln
viol ent
Sh are
orient ation
Represent ative
Zun ahme
er öffnen
de lays
20 th
turn s
eindeut ige
kam mer
Con tact
M ie
os is
Produ ktivität
ga stronom
benef icial
foc using
remo val
begrün det
D L
K atal
er kunden
Re icht
fre ige
Mal ays
big ger
K ore
ver teilung
aus sehen
reich es
ose x
defic its
nom in
Steuerzahl er
arbeit er
emp fängt
verm ieden
pap ers
f ault
z og
tr as
Con serv
Rel ax
ausführ lich
Köl n
um so
vor sieht
ens ionen
Zur ich
prepar ations
Grö ßen
alloc ation
Re is
Aus grenzung
gef angen
iod iversity
coast al
tatsäch lichen
Z imb
An reize
subs cribe
formul iert
art ific
No bel
zentr aler
post s
mechanis men
Hist ory
un zä
prom oted
gerecht fertigt
niedr igen
l assung
per pet
prof ound
einge tragen
foc uses
Pan orama
Klimawand els
bureau cracy
B ah
R in
er läuter
ein führen
pla in
Sc ott
Vir t
W eine
l ively
п о
ic ian
Te e
Bes teuer
integr ieren
innov ations
gol den
8 7
r ix
in ity
techn ischer
kom pon
qu elle
olog isch
ref use
genie ßt
verz err
K m
R od
sub sequently
unst able
chem icals
klein ere
Kommissions vorschlag
der selben
ind igen
Be zeichnung
akt ions
modif y
Weiter hin
verstär kte
Huss ein
H alle
Re lease
bu ying
sicher er
angenommen en
medizin ische
enjo ying
3 60
at ember
et a
sh uttle
Pe ters
Aut onomie
umfang reichen
ökonom ische
Zimb abwe
Auf hebung
Fin anzen
Sol utions
Verab schied
Tamp ere
B av
ul ate
fre ight
land es
De posit
alt ungen
gelegen e
atember auben
il ation
ap es
vor liegt
inner en
Dan iel
mä h
IB M
behinder ten
K eine
r aums
ent spann
bas ically
view ed
fascin ating
th ick
ge ar
Mon ti
anal og
cir cu
relev anten
surve illance
S Y
per ipher
fo ster
kur zer
ling u
heim ischen
demonstr ates
in akzeptabel
ph an
express ly
Privat sphäre
renew ed
deter ior
R aums
w is
ro chen
San ter
research ers
SL R
auth ors
Austral ien
afford able
S ri
n ail
tra ce
geb ühr
gl as
Dienst leistung
ckt ail
pul se
Verabschied ung
y ard
do ctor
fahr ts
ruh ige
om in
best ände
pers ist
progress ive
manufact ured
quant ity
be an
19 50
Mein ungen
verständ nis
arbeite ten
Konver genz
Er schein
Pr äsid
Dar fur
Je wish
wärt ige
C anc
am big
kön ne
cre ature
Unter drück
prom ising
demokrat ischer
l ens
Ma ur
incl usive
auto motive
Vertr auens
indic ators
accur acy
st an
ce iling
ank ommen
durch zusetzen
hör t
Univers al
popul ations
explicit ly
gelern t
C I
Volk spartei
k ong
ant es
sc ore
app ing
character istic
K art
b aut
ein treten
em on
under take
sign als
grant ing
fl ash
belie ved
rele ases
eig entliche
Liber alen
F ord
r öm
ic ts
geb ill
negoti ated
el i
auf gestellt
employ ers
Stu fe
Menschenrechts verletzungen
compl iment
ordnungs gemäß
Z ahn
b licken
lo d
mal e
er ation
Gesetz geb
Kern kraft
Betr ug
achiev ements
ab geben
ide ally
Br ücke
necess ity
Wh ich
fac to
stopp ed
y ers
Sp y
Dritt staaten
spie geln
belong s
elegan ten
cab in
H OT
L ibrary
Ma ils
just ify
mittel alter
Energie quellen
Fischere ipolitik
escap e
C ologne
k lin
ver mögen
clos ing
Ph ys
arrange d
dim ensions
R af
Y O
lo v
ann i
ip ulation
mat isch
attra ct
ursprün gliche
j k
ag anda
AN T
gegenseit igen
gewünsch te
D J
V it
to wer
he ct
schre it
T ank
kun de
cancell ation
br ands
wä sche
Kre bs
ro us
plan ung
civil ian
religiö sen
F inger
en kt
im ported
An träge
pat ents
consist ently
ausländ ische
4 50
N A
ge habt
um m
observ ation
beschleun igen
zus agen
famil ien
arbitr ary
p it
ver sehen
sho ck
Es s
schen ken
i i
s wert
pos sess
Spezial isten
900 1
GU E
al in
ein stellen
greifen de
e ure
re lief
ver schaffen
ungs bereich
tax i
nachhalt ig
verz ichten
con version
zusammen arbeit
famil i
sag ten
krit ischen
läu fe
verpflich ten
sec ution
De leg
Funktion alität
adjust ment
privile ged
M s
z ia
te mp
Re ader
ehr lich
Vis um
prem ium
cancel led
Belast ung
in sufficient
hol z
prec ision
höch ster
änder ungen
zug s
down loaded
sch alten
ill as
Begrün dung
p ig
ein iges
be wegung
ü d
re fresh
zw ölf
fel der
Kir k
sch m
per ce
beg ünst
leben den
spect ives
kö mm
8 3
T emp
t ausend
me dieval
Ne ues
Abgeord neter
Erzeug ung
Vir us
Termin al
Menschen rechten
purch ased
Sum me
evalu ate
Kapaz ität
Einw anderer
Oste uropa
mist akes
n it
sch la
Coun try
real isiert
Pe ace
gebä ude
ger inge
trans it
log istics
ref used
feed back
Spekt rum
р е
Un til
Mil an
metho de
Ver folgung
ste cken
You th
heut zutage
Innov ations
Club s
idy ll
H ab
M ischung
Con ver
UN D
automat ische
publish ing
sper iode
ge ograf
fr ustr
Aus blick
ak ul
mechan ical
Aben teuer
K uba
En ts
dar gelegt
Ber gen
Zusammen setzung
Mil ose
Log ik
österreich ischen
certific ate
io x
leich te
Amer ikas
Süd afrika
liefer ung
Re zession
Zerstör ung
gel ang
Min istry
f acht
it is
be cken
he ft
dr ives
bus y
industr iellen
pass ieren
bl att
Berat ungen
irl pool
c ameras
l é
gel ingen
D iffer
on ic
ser b
Kon figuration
Pl ätze
nu kle
G ir
L od
ç a
ot ten
pre vented
wün scht
russ ische
sold iers
ärm sten
Ausbe utung
st ipul
ter en
Ge win
Al ps
av en
tho use
In halten
adv ise
negot iate
distin ction
Präsent ation
G 20
O x
m ble
be am
ab gesehen
ir t
Um stände
contra dict
death s
pun kten
Ruß land
K lang
Pro test
mer ken
typ isch
vernünft ig
M ug
P i
b ist
ü re
int uit
real istisch
Gro ßen
cop ying
Wieder herstellung
refle ction
Plen ar
C T
P sych
ill on
Beob achter
b ast
ver arbeitet
Ser b
Ob viously
Besch werden
Olymp ic
ir ts
auf geführt
verein t
reib ungen
Schnitt stelle
H i
J et
o ul
ver arbeitung
inter active
AS S
stimm ungs
einstimm ig
L ern
b ow
B in
G or
g ip
find s
red und
Pf lichten
8 1
ie hlt
w inner
at ik
ro se
Ver suche
stu fen
motor way
endgült igen
v ot
str om
og a
interess anten
coordin ate
medizin ischen
überw acht
M und
os ition
et r
pos ure
Er halt
ass ungen
c ache
ver mutlich
fr u
Her kunft
emer ged
interven e
Marok ko
T EC
es telle
ge achtet
et schen
fa ils
Adr essen
Corpor ation
Erwä gung
israel ischen
rul ing
E E
sp unkte
Israel is
Tür en
Bon n
gemüt lichen
B atter
K lin
g ow
an bul
Ver sorg
Jugend liche
conserv ation
juris diction
U fer
er langen
auf er
ind u
vor gehen
Pr ize
agre es
Mö bel
pay s
verfahren s
geeig neten
Lithu ania
C oll
z immern
er ten
wert volle
dest inations
threaten ed
L ip
miss ed
pro curement
An hän
dis put
ys sen
ira k
Ist anbul
ver zeichnen
Ge ben
Le id
Kunst stoff
Olymp us
T ues
g ten
ke en
Be urteilung
hal le
Ar m
cent ers
Hand lungen
modern er
reg imes
mat ure
Ap ache
mand atory
bein ahe
Vil lage
Argent in
ein geräumt
Be h
G ute
L isten
b read
ge plan
when ever
Sc ient
sü d
An gabe
dis ziplin
pot entially
bedau ere
supplement ary
ber at
Kon figur
spec ify
tele communications
Argent ina
D B
ñ a
is ons
ther apeut
last et
terror ists
South ern
Verletz ungen
R on
wh el
St y
Qu ell
über geben
gang s
feat uring
geleg te
F O
R ural
s ul
com prises
sel y
bal ances
Fe ier
citizen ship
beruf lichen
preserv ed
8 4
du al
vis its
Rahmen bedingungen
Bei jing
author ised
exter ne
C lau
w öch
z usehen
and em
unter nehmer
her ein
ru fe
problem los
indic ates
ausreichen de
Tarif a
emot ional
Sarko zy
as so
St raft
Verlänger ung
B ä
D ru
T ief
ver age
op h
Ch ange
zeich neten
Wäl der
H I
d iving
k at
Co st
plan e
maxim ale
ernsthaf te
unanim ously
M eld
т е
ed ing
est ag
hol fen
Energie politik
organis ierte
emiss ion
Spann ungen
ausgestatte te
p se
p od
ro v
end o
Al uminium
mer t
Bes atz
Rass ismus
A ctive
human ity
besch ließen
ü ge
as is
pol nischen
tim ely
glau bt
Berat ungs
konstru ktive
Similar ly
l amp
w ahre
con front
c ket
an es
ber ufen
ident ification
ider s
real ize
Schutz es
Cap ital
Gewin ne
A bo
For ce
möglich keit
prom en
erstre ckt
J ar
post pon
Le ft
staat licher
lass ungen
sp ots
mag net
komfort ablen
Ergänz ung
an x
un k
gen öss
gel angt
star kes
kom pet
bl ame
Arbeits zeit
applic ant
instit ute
il i
men ge
trop ical
Ber ater
Le ague
erneuer baren
T w
Welt wirtschaft
post ed
Char me
S creen
res idents
stütz en
prec ious
warm ly
voc ational
In halts
under mine
far ms
sign ing
invest iert
zunehmen de
trav ellers
Einschrän kungen
g io
w ich
vo ters
ton nes
Dis play
sun ny
respekt iert
angeneh me
L anz
Ver ts
AP I
territ ories
Cho ose
b ib
auf gerufen
An reiz
Slow en
Haup tz
ein nehmen
be wiesen
auf wand
auf einander
str ip
Se en
alt ies
Arbeits losen
convent ions
Ein schätzung
belieb igen
Versorg ungs
B uen
f este
bed ienen
statt dessen
Arbeits gruppe
dra wal
J ugosla
An bindung
Th yssen
fü hle
Was ch
Syr ien
offic ially
M T
S ac
ver liehen
return s
termin al
bis schen
Ferienwohn ungen
nut r
sp are
over whel
Theor ie
C ou
as ien
occup ied
sched ule
excurs ions
erörter t
ha zard
än gen
legen d
announ ce
prest ig
L ap
S end
Fr ied
198 5
H um
c ros
no st
Grund sätzen
einge laden
S ix
d uration
s cre
we hr
ell i
public ations
Sol che
198 6
emer ge
acquis ition
gewinn t
g te
an on
Fest stellung
mitt lere
schw ung
pap ier
the ater
über legen
oc ol
gener ous
author ized
emphas ised
purch asing
Abst immungen
ür en
verbind ungen
Aussch üsse
C ert
G alerie
st ücke
ver sprechen
ver bleiben
comp ass
rat io
ur er
ver sicherung
aus ger
gu ards
defin ing
host s
prev ail
b iodiversity
ber ührt
schließ e
Made ira
k new
st ern
But ton
D F
F ok
ar ier
per iode
jem als
las er
competen ces
Anwesen heit
B ag
C ome
if ts
rie b
kosten frei
date i
sof a
experien cing
Jac ques
ste iger
qual ifications
organ ize
198 7
T ube
e z
o by
Ther mal
lager ung
fähr t
Re präsent
fe as
Le hren
fort gesetzt
tä usch
sl opes
C arr
C AR
P au
S pre
com posed
vor behalten
R ind
er ad
ig o
tr ess
St ick
wo hnt
Fre uen
Com ple
char ter
insof ern
S top
vor sichtig
mo ves
war ming
mach inery
14 9
Exper ience
Inkraft treten
J av
in kl
am ar
An dr
hand lungs
Sp am
mus ik
Gew inner
Prä vention
meld ungen
Andal us
p es
u he
sch a
Gen uss
atten ded
hes itate
Iran ian
wunder schöne
Mol do
L ärm
W esen
al ike
all mäh
nation als
scr utin
Produz enten
g ingen
Ver me
war s
Ko hl
contrib uting
U V
t ight
ad vent
Be kann
unter scheidet
All tag
Holl and
Anhör ung
s enten
are l
Mit t
where ver
map s
Kä mp
Treib haus
Leban on
at em
tr uck
lad ung
ge ziel
tr ennen
Ar c
wirk ungs
erweiter ten
Consult ing
v ens
ok ol
air line
Fre edom
Medik amente
Defen ce
m und
so genannte
weit aus
Br ü
einzu gehen
consisten cy
Y ugosla
all ing
Pan oram
klein eren
NG L
D ist
Ta ste
Komplett preise
P ur
bil anz
organis ierten
Erweiter ungs
Unter haltung
bureau cratic
z ones
pre ced
far ben
rad ik
Cer tain
Yugosla via
a qu
ist all
box es
Commun ist
gir l
Flä chen
S I
fen ster
Pr äm
system atic
del ight
Beschäft igten
lok aler
Clear ly
Konstru ktion
des irable
ill ness
prü f
HOT EL
F uer
W M
a j
ú n
be wirken
son n
fair en
Sitz ungen
kontinuier lich
unter breiten
hand ed
Vertre tung
läu tern
Elektron ik
geplan ten
Pan asonic
Tem po
config ure
J ordan
per spectives
Ele vator
vernünft ige
reveal ed
de tr
cho se
Red u
Sal es
exhib itions
aktual isieren
erwähn te
en rich
lo ved
schaf ter
pl ätzen
bre iter
meas uring
verl änger
abkommen s
Besteuer ung
with drawal
sol ved
Haus halte
initi ated
Weiß buch
un employed
ver wirklichen
Ma zed
alt ar
Technolog ies
occur s
Verb ün
Mehrwert steuer
crop s
kommer ziellen
b om
Be wält
deut lichen
akt iver
wirtschaft ung
Überwach ungs
swi ft
f lying
wi fe
sch aden
qu o
nach läss
ans on
uz z
Democr atic
Rubr ik
po le
vereinbar ten
h ielt
un usual
ag nos
Pal acio
Hy per
Edit or
empf iehlt
re ct
Un sicherheit
ip pe
dis plays
geb rochen
app ed
angeboten en
Roll en
newsp aper
F ed
t ips
be denken
Ver mittlung
inter institutional
nach denken
19 45
get ö
thres hold
Be wohner
ang ere
teil zunehmen
später en
Gebä uden
B ühne
G il
N OT
ge o
ier bar
ange wiesen
Le uten
gl ing
Geb ir
3 000
H ub
R ic
r ival
er örtern
jud gment
Cal ifor
id ance
pursu ed
wirks amen
Frem d
fulfil led
spekt akul
bilater alen
ib iot
zwe itens
lag ern
structure d
Cre dit
nutz bar
Lic ense
etz ung
talk ed
Ost see
Adr i
Äuß erungen
в а
fol glich
entr ies
suggest ion
Scot land
l us
im posing
ange legt
är enz
Techn ical
Schwim mb
P last
e gg
wor ry
besch reibt
recht fertigen
stay ing
krit isch
inter med
real en
Ex p
gesam melt
Every one
vertre ter
d ollars
z eln
bas ierten
Tues day
S hang
re placement
vor bereiten
erf asst
n s
er läutern
as ion
te enth
ge handelt
se mi
An hang
H em
er te
ein halten
Im mun
Aut oren
autom ation
pattern s
beur teilen
Ar ts
Shop ping
beeinfl usst
Bewält igung
7 9
B ow
T ob
b icy
em br
An griffe
sen ior
Unter zeichnung
Ex cell
find ings
Trans l
bor ne
Kapaz itäten
Übersetz ungs
f inger
bas ierte
regul ate
regret table
Sloven ia
S ul
S anti
sh ell
rat ifiziert
hö re
SS L
X L
un known
Europ ar
Pl atten
technolog ische
controll ing
L earning
sch rank
fr isch
eig entlichen
Bl umen
relax ed
ome ters
gesch ritten
Br idge
incent ive
will igen
ren omm
ikan ische
mag ic
cir cle
heav ily
Gerä ten
expand ing
verw alten
Hü gel
M auer
o z
ann ing
treat ies
lies t
Instrument en
Koh le
photograph s
pfl anz
ver arbeiten
ges onder
wa ke
Wil le
Konzentr ation
H L
ir regular
iv ir
hol es
integr al
sonst ige
substant ially
Krä ften
R AM
An bau
ign ored
Min ibar
Mot iv
kapaz ität
controvers ial
J on
icht lich
Se le
Kon ferenzen
Um wel
finan ces
gerä ten
declar ations
un ting
Ver w
forder te
Pat r
intell igence
beizu tragen
D ich
H as
s burg
ce ase
Sch eit
Eing abe
sin cer
Jos é
R ight
al ign
st unden
for tabel
ier tem
technolog ischen
sil ver
schwar z
Optim ierung
trig ger
H ence
men gen
ument en
col onial
stay s
Rück en
Verlust e
agent ur
N ull
ver breite
auf gaben
Inter face
Mult ip
Aktual isierung
manif est
us ste
sil ence
Karr iere
detr iment
F at
H ill
ch ocol
der jenigen
wor ding
Ab schluß
los er
AT ION
marg inal
B om
T AC
ar me
St ich
mer kt
mot ions
keep s
leit ungen
Sub ventionen
Venezu ela
g ul
ra ises
Aus ge
dam al
fo under
Dr ive
best änd
date ien
bew aff
schwer wiegen
Iraq i
Konzep te
age ments
hand led
Ex hib
Ren aissance
appar ently
jeglich er
not ably
che iden
Vor gaben
PC s
Get re
d ia
lo ster
str ange
Zu frieden
conv ince
voll ständ
Auto m
Landwir tschafts
C V
F ab
S IM
f lich
aus drück
iver se
detaill ierte
F as
ein gebunden
verb and
Geschä ften
uner lässlich
S org
Kon tra
Reg imes
mod ular
Ban anen
Prov ence
ausgewä hlten
grenzüberschreiten de
None theless
B ase
D ampf
com pr
Inter pret
enlarge d
Palest ine
Erd be
Rou te
geist igen
aca demic
T uscan
über mittelt
set up
less on
book ed
Gu ant
Kü chen
normal e
Phil ipp
Vorred ner
A er
ab schließend
ausge de
infl uen
Regul ierungs
su ff
bewahr t
Be haupt
Er be
ün den
pre lim
prom ot
equ ity
avo ided
a es
for ums
sch lage
com ings
unter breitet
slow ly
münd lichen
Französ isch
E valu
F ly
ge braucht
cre ativity
Me an
stop s
fit ted
Übereinkommen s
gewiss er
Inner halb
enttäus cht
disput es
K im
bed auern
ohne hin
beru h
Heimat land
F oc
p d
w ast
has en
Ein trag
essen ce
Flug gesellschaften
dev ast
pain ting
Einkommen s
cater ing
B le
P az
S id
w of
it é
pr ere
St orn
Be wertungen
iz z
Ex cel
Gem üse
log in
erinn ere
B ach
e en
par adox
teil te
Fin ance
grundlegen der
schritt weise
Merkmal e
Milose vic
H aupts
t auchen
von einander
je opard
her kömm
ru ft
Fe atures
advert is
toile t
elder ly
sch merz
Stat istik
download ing
irgend wo
Cal a
benutz er
be m
ed a
aus stattung
global er
neg ativ
liegen de
partnership s
R T
d ein
ab stra
ma themat
sh el
sta ats
Com fort
fu els
Bu ffet
nöt ige
concer ts
ch al
ungs weise
develop s
Per u
cop ies
Sim b
clo thing
meant ime
thorough ly
I biz
W atch
ör tlichen
kr ie
bi ological
C old
L D
ta kings
Aus übung
tre as
icher ung
pot ent
bra in
simpl ify
R ac
der artigen
he bt
em en
Str asse
fur b
Every thing
domin ant
transatlant ic
la kes
aus führen
mus ikal
krit ische
Mü ller
Train ings
or ter
spar ungen
K ie
ch tern
st ür
we igh
su chte
lic ence
fahr zeuge
Dar in
Dire ktor
qualifiz ierte
none theless
str enge
einz usch
effizient en
plötz lich
A par
C are
O cean
P ul
S can
tain ing
bus es
break ing
21 st
Dan ke
perform ing
Gest atten
M are
M ahl
r ust
un eingeschrän
le ather
Ein wander
bil der
forman ces
Betr offenen
spolit ische
he ated
em bra
versch mutzung
plat forms
B B
O ra
is st
Kin nock
Trans aktionen
Lanz ar
prestig ious
se y
alle ine
Parliament ary
sc ulpt
kün dig
mäß igkeit
passen de
Betriebs system
pharmaceut ical
pen den
Nie mand
Vis it
dio x
promen ade
ken ne
dis appointed
viel seit
ausge ht
Hin zu
typ ically
Yo ung
G ärten
be arbeitet
br ä
deb ian
Ro und
draft ing
C ult
U P
m ol
Ver stär
Ver markt
ze hnt
cover age
Emp ire
camp s
Bü ros
Hel p
sand y
Class ic
a o
г о
coun cil
änder ung
appro x
specific ations
short comings
dist ur
Nat ural
Süd ti
ruh iger
Jun ior
Konsult ation
r unde
il der
ir y
Ste uers
low est
Geb ühr
GB P
demograph ic
C in
cr ash
att ent
Gem äß
To wer
inten se
RE ACH
cl im
Unter lagen
rece ives
Stud ios
prem ises
Bewer ber
C ro
über wach
fe ars
Über arbeitung
registr iert
condemn ed
Individ ual
Kreativ ität
U s
p g
sa iling
sent ence
conver ted
Schne e
G on
t one
in ischen
mon uments
He ating
genet ic
is n
al i
la ß
ex changes
Con ditions
Arbeits bedingungen
bevor stehenden
F T
ing ung
am ple
head quarters
Komprom iß
unzu reichend
C ube
Vor feld
tre men
De clar
nam ens
freund schaft
prob ieren
Zuständ igkeiten
vielfält igen
drin king
Wart ung
beiträ gt
L uggage
work shop
Techn iken
Super ior
foto graf
Mittelmeerr aum
K alender
an teil
est imate
sp err
ad ing
An weisungen
Re aktionen
vor hin
ph y
Maced onia
re cycling
kon sum
power ed
ober en
Santi ago
P akt
Au di
sol ide
gra ce
Qu ick
fal schen
begrenz te
Legisl ativ
un fortunate
tal ent
neigh bor
älter e
erneuer bare
and t
schl immer
measure d
prelim inary
c aught
il lo
my th
Andre as
ic i
12 5
erläuter t
le ister
Gr iff
Dienst ag
splä ne
b lieb
ar te
Er neuer
De vis
favour ite
Vo gel
mith ilfe
Vergn ügen
M iet
s ä
re per
re formen
pract ically
Chr isten
Sy mp
grat is
General sekretär
rac ism
A str
work shops
ious ly
ci ón
besch reiben
light ing
gain s
größer er
er hol
de cent
not iced
Pro gress
stat istical
har bour
gewün scht
G allery
N av
be trag
Fre il
monitor ed
accommod ate
F lo
r ied
ent worfen
under takings
C au
p reg
am id
kon to
Verteidigung spolitik
ignor iert
Tim or
K och
sh ame
zwe ier
Zu behör
ep i
näch st
Gesprä chen
beruf liche
mov ies
controll er
l ights
zen s
18 th
bereit ung
Flug zeuge
terr asse
expla ins
verz ö
ofin anz
E ll
ced es
Bes itzer
wär mung
erziel ten
pati bel
engl ischen
Gepäck raum
Liter atur
entreprene ur
Repar atur
ste hung
comp are
Auf nahmen
S ER
ar o
Comp et
Tour en
Gip fels
secure d
verbesser te
ne o
ange ben
Ger ichten
kom fortabel
az zo
krit isiert
Cub ase
w ages
de pendence
us a
Un fall
Haushalt splans
favor ite
in no
au ten
trans formation
Col or
contract ual
Regional politik
Ratsvorsitz es
B ell
m esse
sch licht
kon serv
dra f
she ets
Dis cover
amb res
k ulation
ad os
Ab onn
Fra gest
fahr ten
sett led
architect ural
cook ing
Tragö die
d igt
th alten
ver einfachen
Sch ätz
äd igung
finanz iell
Plan et
würd ige
Hekt ar
st ü
pl ing
olog ien
sc andal
Welt bank
Minister rat
gefähr liche
watch ing
spät estens
aufre chter
under line
activ ated
spirit ual
Francis co
H ug
S IS
St ore
mo dest
IN TER
stre icht
express ing
hop ed
ret ire
Fol ter
pal ette
capt ure
batter y
konzip iert
Unterdrück ung
a co
h ors
hä use
schle chten
Lib anon
P AR
S AT
os a
str itten
sho ul
olog ischer
soc io
einzu halten
exe cuted
Lit auen
f ate
im s
gefähr lichen
Aktiv ität
reisen de
in begriffen
den ted
ne ider
19 30
nehm ung
simpl ification
verm ie
C orn
E ther
de utet
vis ions
Ober flächen
Som etimes
nutr ition
coun ted
Rahmen programm
katastrop hen
acknowled ged
getö tet
h ändler
fe iern
gest ütz
modern es
Gel ände
Adri atic
Ser ien
liter ature
bekräft igt
Abo ve
P est
h ide
v r
vor zusch
hen de
wür fe
eigen em
lif eration
Finanz mittel
EM U
municip al
Clim ate
F if
st aben
lo vers
tra il
form ing
Li quid
Natur ally
einzu beziehen
unver zicht
sitz ung
A li
U PS
Ä hn
loy al
Real isierung
Prä z
isol ation
Wien er
Beob acht
Mazed onien
k us
op ing
zunehmen den
beträcht liche
verwal tet
Califor nia
2 nd
on ds
em e
pass es
li de
sen der
real isieren
schön er
Elekt r
L och
t ap
unter wegs
teil genommen
keines falls
Tschech ischen
draf ted
re furb
Eigen schaft
Eigent ümer
ä mp
out set
Ar zt
ün de
teil ten
Lebens mitteln
Declar ation
ö ne
ges chen
vor kommen
sol o
net ze
mult imedia
ifiz ierungs
Social ists
cos met
Commun ication
Lanzar ote
G I
ausge arbeitet
17 0
angeb lich
ök ologische
Amts zeit
st ones
la ying
res ted
do us
special ities
Dis ziplin
gute m
consequ ently
orient ierte
Schatten berichterstat
Indones ia
Gewerk schaften
re verse
Er nen
Co uld
lä ub
Is ra
stre aming
engine ers
E K
x x
th ly
ge leis
ate ur
sh ut
So weit
degre es
S ess
j ack
uld igen
For est
search ing
Log o
rein force
explo it
ersta un
Rechen schaft
Adv anced
s hr
Sch ott
ibr aries
Einzel nen
tail ored
genehm igt
Shang hai
ver größ
ak is
less ly
conf usion
schutz es
irgend welche
roll ing
toler ance
aus zusch
tra ins
urch t
bl ings
harmon y
gegenseit ige
erb aut
ordnungs gemä
describ es
h är
sch es
quot a
can o
Addition ally
A zer
ch sten
lich keits
kon trollen
Hung er
endgült ig
c art
ex posure
Mon tre
Euro stat
klar er
erfolg te
ikal ien
qualifiz ierten
artific ial
L ow
g ien
St off
dam er
Ch an
uell er
shar p
ar ing
be gangen
con vers
con gress
ann a
Se ven
Buch ungs
Drit ter
Zimmers ervice
e cht
ges unden
Be zir
Ent decken
Organ ization
AC K
complex ity
Cap tain
befür worte
Alban ia
Eure x
ckt ails
Koh ärenz
L ul
inter im
lack ing
R ang
d achte
at ro
tell s
sign ature
Muse ums
gebill igt
Fragest unde
K ör
N ature
An na
ern ste
All ow
respon ses
ko dex
Finanz märkte
cho osing
Sh uttle
AK VIS
Stabilität spakt
Komment ar
p act
ra gt
Berichterstat tern
Malays ia
Ibiz a
Sch ienen
wur fs
Tr ends
transl ations
prohib ited
m ad
on ing
ro ut
igen de
Be zahlung
po the
dis appear
zeit genöss
Weiter bildung
accep ts
isol ated
Erwachsen en
Isra els
2 20
B und
C hal
G io
T ut
s can
an schluss
ver kün
indic ation
surv ival
brut al
G 8
k ord
inter view
Min eral
Atlant ik
G ült
L om
in corporate
Herr schaft
Ab u
lok al
Lib ya
proxim ity
Echt zeit
L uz
b aum
re cover
be find
gesch oss
mon ument
offen kund
grün dete
appreci ated
ausgewogen en
Current ly
H ur
ann te
pen alties
Mot to
günst iger
except ions
Flücht lings
künd igung
aus gelöst
Ko hlen
sport ing
interess ieren
photograph y
Anreg ungen
g lob
le z
An zeigen
Al ong
kon solid
kennt nis
sonst igen
d ust
k ore
alle t
vis itor
Kin des
zurück kehren
ersten s
Sozial demokraten
Bis her
Zufrieden heit
A vi
M ID
W A
um a
wir tschafts
tra ur
read s
ensure d
gain ing
registr ieren
Implement ierung
F TP
T able
is ierungen
Con tain
anc ies
Ta bellen
sustain ed
Luft verkehrs
neut r
jour n
A ma
f ought
m ma
ge holfen
aus enden
di agnos
Durch schnitt
Stre cken
handel te
Shop s
zuverläss ig
reiter ate
distingu ish
In haber
Ch ann
gleich er
excell ence
separ ately
Analy sen
Erkennt nisse
C i
H ôtel
b one
er ium
ein drucks
mit geteilt
Ver trägen
str ichen
ill es
min eral
dire ctions
redu ces
Arbeits kräfte
197 9
aggress ive
Prest ige
un ken
sh ots
hö he
Bet on
bro ch
Fern seher
discip line
N ight
ch amber
reg ierungs
Gr ab
Hotel safe
ph i
bre ites
Part ition
stre cken
bir ds
temper atures
Budget ary
tort ure
st ics
ier er
Über setzungen
unge achtet
tack ling
listen ed
Tol er
Tot al
Devis en
B ret
J ak
be at
opt ical
Lebens qualität
Zivil isation
Ernähr ung
Ernähr ungs
L ind
R ö
ver handeln
fe ier
Le hre
gesch neider
Ukra in
schütz t
O P
at ile
Auf wand
symp to
Bedien ung
Beweg ungen
tremen dous
im en
li ver
unter halten
ob servers
Subsidiarität sprinzip
Clin ton
th al
bes tens
redu ctions
stra frecht
gewä hlte
teach er
ethn ischen
acqu ire
estim ates
Verzöger ung
Anhän ger
p ir
ens ional
Priv acy
intell ig
delic ate
d einen
in quiry
un ilateral
ad mitted
ere ien
not ion
St ay
Os lo
endeav our
f liegen
in tr
Se villa
Ju an
Stad ium
asiat ischen
G ulf
mo unt
ungs maßnahmen
under taking
Gegen wart
vö ll
lager t
kurzfrist ig
environ ments
Ein fuhr
tro cken
Produ cts
accept ing
kre dit
proport ional
Y a
beit reten
ru hen
Attra ktionen
ver gleichen
Vor sorge
public ly
back s
typ ische
Entwicklungs zusammenarbeit
orient iert
Distr ict
Fert igung
Er r
Betr ugs
wettbewerbs fähig
Pro per
Ab sichten
respect ively
abge halten
Kredit karten
parad ise
ver ehrten
we ib
In dem
aus es
Rechts rahmen
El ite
challen ging
erziel le
iling ual
Tsch etschen
S per
f et
Ges che
mon d
benef ic
Einschrän kung
Moldo va
un like
ou ver
up coming
Hö hen
Plug in
Jack son
н е
ap ol
Je den
autonom y
Pier re
C ab
F ix
ü ste
ent scheidet
iz ens
mir ror
food s
d in
Er ste
her bei
Sü do
Far m
immen se
Kohäs ions
exklus iven
C ore
gu idance
viel fach
Man che
though ts
Verantwort lichen
analys ieren
üb lich
adjust ed
reje ction
r ific
r hetor
ern oby
zw angs
dam aged
Ch ip
trans mit
Besuch ern
Eing rif
Koordin ation
M ig
Q uer
b und
t ape
Aus nahm
cont est
ließ t
congratul ations
prefer ences
dele ted
einzur ichten
d ün
к а
er re
Auf forderung
Gu ard
cript ions
198 4
л и
wel ve
Markt wirtschaft
pursu ant
Blue tooth
thes is
Monitor ing
Hann over
ha ven
ör t
international es
Dar le
TO R
mail ing
Kur se
Effe kte
surv ive
Mean while
r essourcen
it udes
am bi
fr au
stö ßt
Statt dessen
Mug abe
Scheit ern
ly s
ides how
l uft
ver gangen
lau ghter
sy m
verbind liche
beseit igt
W ellen
in th
str iking
fir es
bon ds
för m
Mos kau
schul den
niederländ ischen
zusammenzu arbeiten
L ido
o ste
sa ison
Fe hlen
sy mb
respect ing
geord net
schl üsse
Mer cedes
chest ra
B lau
P om
w unsch
inv itation
Lie blings
Entschließ ungen
Stud ium
beeinträcht igt
bann ed
Anton io
B ath
be fre
jeweil ige
ambit ions
calcul ated
rand om
Fut ure
deem ed
Z ä
un ification
ab zielen
unter graben
found ing
wenig stens
subsid iary
ias m
IR C
k ed
un prece
ange fangen
Fuer te
d il
л ь
ben annt
beg ab
Dar auf
ersch ienen
incred ible
ernoby l
Spe zif
Lös ungs
Staats an
Sil ber
orient ierten
celebr ate
C ad
m iß
kon sult
bad ly
church es
Nu kle
Defiz it
Z in
al ed
pe z
Fr att
hier mit
rest aur
grö ße
gesund heits
Paläst ina
Vorsitzen der
Fron tex
Ab stand
ak i
Verein igung
haus en
demonstr ation
W örter
ö te
in as
der og
Sch mid
eng agiert
back ing
La bel
Verkäu fer
ent a
den selben
ed iting
mit y
pe ak
tell ing
them es
Tr ink
eig nen
einzel ner
m äss
z iger
ab stimmung
was h
into ler
contin uation
wes ens
Gu inea
fäh iger
bran ches
er freul
st amp
clear er
äuß erung
bert ies
stuff s
Div ision
B outique
is c
tho do
Mon ats
vol unte
character ised
konstru ktiven
Medik ament
verank ert
Ö konom
ch ip
gr üne
Co ast
trä ger
defen se
Befür cht
Gesell schafts
all ies
ze igten
beit rag
Ent spannen
sub stit
har te
einzel staatlichen
enor m
leb te
announ cement
Ausgang s
Willi am
Virt ual
un an
ab und
des per
bo gen
cr yp
hier arch
frei heiten
schön es
quant ities
glück lich
ASE AN
infringe ment
Tunis ia
thumb nail
A A
m igrants
ge opolit
check ing
pet ition
vorher ige
wirks amer
tang ible
fir men
Gebie ts
vorher igen
Assozi ierungs
G all
deb att
moder ate
investig ate
eingere ichten
übr ig
chocol ate
ab ot
ab gest
est a
Mar g
centr ally
Air es
Partner schaften
Tex tes
Vorbereit ungen
Ern st
em bedded
fe els
ide alen
my sq
economic s
contin ental
Organ en
circ ulation
anson sten
3 rd
A to
h üb
i ère
al itäten
Par ks
global ization
hon or
gesellschaft liche
Eti kett
g au
sch alter
auf weisen
do ctors
conne cting
mem or
propr iet
I ER
R ay
den ied
Be achten
ät ter
hä usern
sin ken
iso de
L ange
s alt
im plies
con junction
men ü
br enn
Aus legung
Mar x
Im pf
ru he
board ing
autom ated
B road
k ids
n ick
in cur
br icht
Tats achen
label s
consolid ation
Verzöger ungen
Buen os
unprece dented
ction al
Ein tritt
Initi ativ
fail ing
compat ibility
stake holders
Urspr ung
Pot ential
breath taking
E cke
G am
M ang
c ulation
m ischung
p ipeline
Be auty
fe iert
durch setzen
wom it
w inkel
ab gesch
Al ber
Al gar
cons ulted
ständ igkeit
prom inent
Fol glich
ries ige
öp fen
Jugosla wien
e ken
k la
w uchs
at ie
um stritten
Ab out
12 8
kom patibel
mess er
Heil igen
Gerichtshof s
Minim um
Au fre
def ending
share holders
Ster nen
s lip
versch oben
Qu ar
herr liche
analys es
Alp ine
ignor ieren
tox ic
Brut to
fü hlt
mach ten
eng ag
Kommiss are
gesetz te
Zw angs
steigen den
Out look
schne iden
ies e
vor sitzen
inter action
isp ens
Op fern
be fried
ess er
mar ke
einz iges
komm erzielle
größ t
account ability
Dien sten
pursu ing
K ne
P G
me id
An kündigung
durch geführten
fre ies
bit ter
IL L
P ast
bie gen
forder ten
second ly
host ing
sal on
Integr ations
depart ments
analy t
verw öhnen
M AR
ge fällt
che f
ras che
Flü ge
säm tlichen
aufrechter halten
G raph
str ive
bo oth
cr ystal
contrib utes
mind s
erreich te
mak ro
gä be
Anwendungs bereich
enthus iasm
shap ed
resum ed
Erdbe ben
Fratt ini
un likely
ter y
Ver stö
Ab stimmungs
bereit zustellen
ped estr
greifen den
Aufr uf
E hren
as ma
Mar c
por no
wend ungen
Doc ument
enthusia st
en force
we ißen
aus gesch
ther m
kon sequ
bas es
komple tten
assess ments
Gest alt
semin ars
asp ir
overwhel ming
A ka
G H
activ ate
EC HO
domin ated
wünsch enswert
Hit ler
R ental
k ok
an ony
Se gel
inv ested
att formen
sim ul
fried lichen
bemer kt
ident ical
po et
alle ged
Präsident schafts
Man hat
berecht igten
belong ing
N H
gegenseit ig
Verstär kung
N ev
in wie
ad her
zo om
character ized
Wohl befinden
concentr ated
nütz liche
Hong kong
eingerichte te
Legitim ität
ol as
Alle in
Rand e
convenient ly
Perspe ktiven
Fö deration
be wertung
gr ants
Bed ingung
wan ger
auszu üben
D U
lo op
optim um
tradem arks
c ular
We ek
emp find
real ized
Jugend her
Auftrag geber
stab ile
re ine
el led
ver stoßen
Sch en
stat ut
äuß erster
flo wers
mi xt
Equ ip
S ien
j üd
an to
st anzen
der ived
den y
im prison
Har bour
Rel ations
dring lich
abandon ed
A zur
em it
Me tern
different ly
hy per
jähr liche
Integr ität
Net to
Ca thedral
Relig ions
Ker nen
Cit izens
B ünd
D ur
ter a
all iance
ex zell
nen nt
Wor king
Industr iel
aufge hoben
stärker en
Konflikt s
marg in
Gefangen en
Rind fleisch
ur z
ind ispens
mer ch
net te
gem achten
Nach folgend
contin ually
special ised
Netz es
bor row
türk ische
G L
L ar
в о
es tet
ges unde
combin ing
Armut s
wof ür
ung es
ex klusive
mar ri
gem el
ath on
sus pic
K ok
rail ways
Effe ktivität
die t
ant on
Nor way
stre it
plug in
dee pen
ifi able
we ichen
Vor bild
versch ieben
author isation
lö st
tief st
schwe mm
hum ans
secur ities
D IE
P XI
S wo
or ig
ma ils
AS P
Che mie
Bol kes
G ift
T ast
ung arischen
gr ab
ev il
Or ts
lä gt
stabil ität
appreci ation
K ul
ö ten
An näher
Se ever
dis par
gel ung
Fl ach
month ly
Forsch er
datab ases
gerichte te
parlament arische
japan ischen
W ales
ne ur
AS T
verein facht
Sh ort
gericht shof
habil itation
C M
re if
re tr
res ign
bed ien
Daten banken
Ben ach
OR T
Regard ing
g od
l iv
verb ot
klar es
PC I
Untersuch ungs
unanim ous
S in
d angers
qu ery
Le gen
break s
grundlegen d
unab ding
e cho
p ione
re ward
str ik
gu ides
schein lichkeit
stra ßen
op f
bere ite
ilt on
beschäft igung
Defiz ite
Mitt ler
Seever kehr
zu tiefst
Be weise
per formances
bes cheiden
ill en
betre uung
Jahrzehn te
Reihen folge
ausge legt
kul in
Slowen ien
ic ate
com o
An sprech
Er wer
back ed
home page
197 5
S H
i qu
est one
ach ing
if ferenz
requ iring
Bal i
umfassen des
kürz t
Ca stell
swe et
Sowjet union
sincer ely
Bolkes tein
ch ambres
ten der
ot a
Sp uren
öff nete
Gelegen heiten
Eur or
coher ence
zauber n
M á
d ot
om ed
ro g
sen det
Al arm
ausge glichen
hof ft
gere chnet
bi ologischen
sudden ly
L amp
p y
on ze
ug gling
Ber u
eng agement
markt es
begrenz ten
lingu istic
Finanz minister
197 8
Ereign issen
K loster
ge kauft
con fron
inter governmental
schwer er
Druck er
Ka thedr
qualit ative
Therap ie
y ellow
Ab gesehen
oc ra
Energie versorgung
re z
end igung
pol is
Mar ine
intens iven
benach richtig
er be
un certain
unter streicht
Ab fälle
vers prochen
proje kten
Moz illa
Tenden z
Simb abwe
V IE
ex empt
Re cord
ins ula
Auf sicht
Bar ack
adequ ately
Fu j
Mem ory
stret ch
p ine
viel falt
Kl uft
B ast
H osp
o ge
Ge ber
Man chmal
capac ities
abol ition
N ear
S ak
T iro
r ivers
ge klärt
for tz
auf trag
end ienst
energ ies
Tra ck
196 7
bag s
portugies ischen
Foc us
D M
S OL
k id
ver nachläss
pr on
err ichten
IS T
Lie b
ott i
Wh irlpool
perman ently
vorange gangenen
korrig ieren
klaus el
Algar ve
wer be
et us
zeit raum
dest abil
rob ots
freie m
fried liche
h ire
un limited
der iv
wir r
gest alte
Ty pe
Präsid ium
R ather
d icht
k ommission
govern ed
down town
bereit stellen
inform ations
prevent ive
irgend einer
M old
Ber lus
Bar nier
spiel te
Jahres bericht
wan dern
tie fe
winn ers
veget ables
ocra cies
N R
р и
re venues
inter essen
distin ct
Getre ide
Sorg falt
I O
W HO
wer tet
ste ckt
let te
Spe c
transl ate
assum ed
eingerichte ten
jah rel
S us
d ul
v ierte
re conciliation
el son
Menschen handel
Spiel raum
tä gliche
string ent
Chem ikalien
t tes
az z
Internet seite
stät te
scen ery
Baron ess
Schwimmb ad
el ite
An reise
dis agree
fra gment
Mal ware
IC A
Nicht regierungs
Dan ube
Mobil telefon
Graf iken
circu it
v ina
be zahl
In fe
De kor
sur fing
return ing
iar ies
clar ification
Fein d
münd liche
o cean
la de
writ er
competit ors
Unser er
Hinsicht lich
defiz it
I DE
ger y
Golf platz
Hor iz
H orn
K arel
ein schrän
unter en
land wirtschaftliche
Über rasch
voll ziehen
present ations
Pal ast
Tag ungs
müß te
p ull
ange hören
effe ktiven
Pal m
install ing
IC T
wenig sten
tur no
dictator ship
T ap
Con c
All gemein
amend ing
verständ igen
Ak zept
be her
art ikel
fin est
Über leben
deut licher
führen der
furn ish
Zul assung
Tunes ien
qu art
unter liegt
prof iles
grün dlich
Est onia
adapt ation
glob ally
N OR
g on
p iano
be legt
Ma ison
dam aging
Stand punkte
dauer hafte
investig ations
newsp apers
gelö scht
Manhat tan
M uch
ap olog
Ver lag
über setzt
For en
14 2
camp ing
fein d
Leiden schaft
Einfl uß
b ungen
ct ure
mo des
aten te
Land e
Sol ange
Sum mer
kü m
Mult imedia
vertrag s
rough ly
Build ing
U B
p ad
st reichen
material ien
Car ib
intens iver
motiv ated
Ganz es
Dring lichkeit
G VO
W ritten
ü sten
am an
dies mal
Be endigung
müs se
Stat ut
Alban ien
Lod ge
ver setzt
sh af
ue ber
bo le
Fund ament
Binnenmarkt s
Pan el
leb ten
SP A
Lu kas
Ty rol
verlei ht
semin ar
al on
aus wärtige
not ification
just ification
versch winden
Hil fen
sty les
independ ently
gy m
genet ically
Einw ände
be greifen
il a
ho b
ium ph
Su chen
demand ed
DVD s
Lib yen
s arge
er mitteln
or gen
be e
ta ine
hand ic
Arbeits weise
La eken
Hier bei
Pe king
sour cing
analys iert
obtain ing
Semin ar
Nachbarschaft spolitik
begeister t
K el
g aming
ver suche
prom otes
öl le
Mag ic
ar rested
de central
art ig
off set
sk ill
leben d
particip ated
gas es
mod ul
formul a
regelmäß igen
at tain
be ars
Fre ie
druck en
scen ario
re vol
wi dr
aus gebaut
Sie he
uld ung
inter faces
num er
Kre atur
ideal er
laub nis
super visory
DN A
Tax i
Ärz te
Err ungen
7 50
lo ader
Er reichen
Aus sichten
best immung
Bal ance
Don au
Enter tainment
Element en
zuges chnitten
belg ischen
R F
is ms
no se
Er ika
part ially
now adays
Fun k
beach tet
condition al
Vorsitzen de
Ann ual
G EL
w olle
al ive
ant ic
Aus stellungen
Sp onsor
Tr ust
verschieden sten
besser es
Med ical
Geschäfts bedingungen
acc used
zukünft ig
tradem ark
enem y
sol ving
invest ing
gere chten
remo ving
General dire
mel det
Loc al
kir che
einzigart ig
N ar
V öl
c kets
wi re
all a
tie fer
alp ine
B ob
C res
P ict
ein genommen
tr itts
lo ben
che ese
zie he
lä ß
tens ions
Wer de
C K
G astr
c ens
or th
as mus
us sten
so w
che aper
med iterr
Wo od
DE M
permit s
Lay out
Victor ia
Ernen nung
D id
ct u
vor ne
weiter zu
stru ck
schn itts
stay ed
conv iction
elig ible
y an
re ale
ver knüpft
ine quality
ph on
los es
deut scher
finanz ieller
Pf ad
curren cies
weap on
Schiff s
personen bezogenen
anne x
constra ints
indispens able
VIE W
C u
F ine
f usion
ex ecut
br uck
ahr t
Im pulse
meisten s
Moder ne
Archite kten
Kred ite
re chnung
pr an
Aus fuhr
Parlament en
real ised
Nor wegen
kenn ung
län gere
H ass
de penden
For st
Mar bella
neues te
Lim ited
Kore an
cros sing
A ge
M ary
pr ints
lin der
Her berge
wand eln
profit able
bol lah
reb ungen
Zustell betten
K up
N i
t aught
ge folgt
den z
ält esten
Besonder heiten
Ein heiten
Fl otte
zahl reicher
Gen f
betr ug
Qu artet
graph ical
freund licher
Ausnahm ere
L ama
i ös
industr ielle
Zug leich
Informations gesellschaft
Del uxe
dro ht
discre tion
adi das
gip fel
benachrichtig t
al ar
re press
dis mant
gra ve
bl as
Mehr ere
verhe er
S äm
Z ellen
b org
h aut
kon fli
Res pon
bevor zug
separ ated
div ide
klass ische
Inn s
sü dlich
Rand lage
CP U
Anmer kung
m ild
н ы
zu kunfts
Re view
bes ie
mer zen
Ste fan
employ ee
ME D
Sim ply
Wahr scheinlichkeit
Wolf gang
paint ings
exem pl
Unions bürger
g li
to wel
wo zu
Le der
chs lungs
Kompon ente
hazard ous
Cult ural
änder ungs
Welt markt
Zwe cken
stimul ate
Que en
defe cts
D eine
F RE
p up
s lich
we t
co d
über wiegend
dis covery
kommen de
know ing
Sy ner
hung er
Kons umenten
Umstruktur ierung
Conver ter
B ike
L ust
O ze
g ste
l ibraries
t v
out lined
durch gesetzt
Ent stehung
setz ungs
anst elle
hinzu weisen
seek ers
co inc
res cue
Vor stand
bo da
dis semin
Con tra
wieder hol
design ers
Che chn
Singap ore
quantit ative
Verme idung
t w
al and
ive aus
Be frei
hen sible
schn itte
Ziel setzung
Rahmen s
Dol met
systemat isch
schwed ische
jung er
Argentin ien
Fok us
H art
b ou
r of
ma j
Dies el
week ly
allgem einer
unmittel baren
Lok al
B ung
a wait
b ust
an streben
the ast
sch ol
ab uses
tr es
Ein wohnern
ill ing
bin sel
Grund freiheiten
Gleich behandlung
flo wer
Met al
ausgewogen e
summar y
ver bieten
get estet
cap ability
constit u
simpl ified
gather ed
Ret urn
Weih nachts
M u
N ob
W ats
th ro
an bietet
al ition
auch t
sur plus
hope fully
EC T
ucht ung
cri bed
Bi ok
abstain ed
um gekehrt
Be griffe
Vor wand
iger weise
lif estyle
größten teils
cul inary
block ed
observ ations
fif teen
zwangs läufig
G h
J en
in y
sie d
anz usch
Sen ior
delay ed
zerstör en
Szen e
in je
ter in
pl ot
star tet
Mo unt
imp etus
Hal binsel
Sort iment
PV C
Kathedr ale
S R
e urop
ic ular
sp ont
ma ker
Aus fahrt
ord nen
einmal ige
rece ipt
bound aries
Treibhaus gas
D ES
S ab
us chen
Auf träge
star ker
Car l
einzu stellen
harmon ised
Inner es
Behinder ungen
ann ten
igen te
Sch okol
bes etzt
Ch ild
saf ely
Trans it
Neu igkeiten
korre kte
Erwä g
lev ard
Cha os
zu lässig
An zeichen
up load
Mit wirkung
Finanz iellen
Chechn ya
S her
k ers
r hyth
re ck
Her angehen
Fortsch ritts
Vir en
clo thes
Tha i
explan ations
Temper aturen
interpre ted
Auseinander setzung
S ave
tr enn
sup ple
sk illed
Sk la
institution en
Tip ps
Champ ionship
häuf iger
strö me
s ick
an bieter
sch rieb
he ik
fr es
gre w
ko oper
Konfli kten
constit uen
Stellen wert
Fel sen
Frü hl
vot re
ge fahren
Se gment
schl ies
dien sten
conv inc
labor atory
Cot on
ó w
In cl
15 00
Mö chten
zusammen hängen
speak s
distr icts
Christ ians
HT TP
veranst altungen
inevit able
Kernen ergie
b ands
d ol
Komm ando
Roh stoff
C os
D rag
k andidaten
al beit
don ors
ba thing
L aur
Bere chnung
198 2
radi ation
Chann el
ein schlä
ges orgt
vor haben
act or
review ed
belieb ten
islam ischen
oppon ents
Swo boda
т а
ab teilung
Sch uh
ator ies
rein forced
re fined
vor geschrieben
heit lich
ven te
Grün der
anzu gehen
Pra ct
ench ant
hinzu zufügen
197 6
IV E
ifik ation
L an
M asse
M PEG
T C
ö hnt
le idet
ver glichen
mo on
ty pen
Kr upp
trans formed
cal culation
automat ischen
rä gen
begrü ß
heim er
prec aution
Eur oc
Kop ie
el ong
Ge geben
mach e
fort schritt
tem plate
house hold
wahr nehmen
emiss ionen
Allgem eine
Automobil industrie
nör dlichen
Ab sol
chn ungen
ian ische
Dire ctors
stop pen
advoc ate
Spl it
R ational
ge ehr
bie tern
tin y
verhält nisse
b ub
Ze ug
Fre ien
pat ri
vic inity
IG C
bemer ken
inevit ably
preg n
Toler anz
t ighten
er we
an melden
Her itage
stär ke
counter fe
Wats on
A venue
K lick
mehr erer
gesch windigkeit
Bas ic
kennt nisse
anders wo
proto koll
celebr ated
fundament ally
Coton ou
k amera
sch ar
prov in
best icht
open ly
Mer kel
bra chten
vorhand ene
ek ut
Gran ada
vielfält ige
Sä ule
distribut ors
A X
L anka
Auf stieg
New sp
SE O
Mer cos
verstär kten
deliver ing
touch ed
vorrang ig
Vermarkt ung
al ows
für chte
leich ten
Kar ls
geschlossen en
öp fe
Dafür halten
Face book
H ell
f its
y ch
an che
it ären
ge omet
os ion
gu itar
Zu erst
med ien
Mon opol
wirk licht
Gegen stände
gelten d
Wachstum spakt
Mü he
cool ing
hect ares
pran ational
f ter
s laughter
be wirkt
ut ility
Ber ichtig
Span isch
vorsch lägt
amt ierender
Telekommunik ations
Controll er
S ust
an as
el abor
so cially
unter einander
verl iert
wal ks
Ap plication
Kol um
Demokrat ien
avo iding
electron ics
kompeten z
dän ischen
B liz
u ct
ein geben
wor auf
tra ils
genau en
dre hen
geschätz t
Reicht um
Tschetschen ien
ver wirklicht
ut ze
Se cure
Br ust
rest oration
groß artige
OR K
Sitzung speriode
Swimming pool
C lose
an fangen
inst ant
optim alen
wunder bare
Komprom isse
Cr imin
stechn ologie
koordin ieren
Ora cle
P hasen
iz ität
fil ters
vernünft igen
inspir ation
Ether net
Mercos ur
zu gewiesen
des ert
zum al
Inter view
coal ition
C athol
fin der
kl en
Bege ister
Tou ch
Indik atoren
Aufre chter
Carib bean
M achen
v illas
л е
er suchen
Ex porte
Sub stanzen
frist ig
chem ischen
chs elt
hinter lassen
pan els
Grand e
EG F
gerichte ten
tran se
ab schluss
gr id
pl atten
Gr ill
hel m
He idel
Zusammen bruch
law yers
tradition ell
hervor zu
erwar te
Leistungs fähigkeit
nachzu denken
Nam ens
Annäher ung
n an
af firm
crimin als
Ul tra
Ot to
H aust
K ameras
t ub
In tens
ungs system
ide ological
wen de
carr ier
Mot oren
IF A
gradu al
mie ten
imper ative
R ating
Ver sicherung
must er
gre y
Jahr estag
sprech ung
resort s
landsc apes
vig il
Orient ierung
pro liferation
Re den
fa ktor
far b
Stadt teil
Zahl reiche
Gleich heit
Fil es
expl oring
erweiter te
beglück wünsche
Kranken haus
e co
l oud
v ierten
er zeugung
up pe
war men
Ge we
work force
Gro ße
Ju den
ari os
congratul ating
abwe chslungs
te c
bes agt
count less
schnell es
aufge worfen
dauer haft
moral ische
luxuriö se
Varian te
Berlus coni
K E
b ugs
d al
Au th
ak ed
Entwicklung spolitik
selbst änd
bew undern
Spezif ik
F F
K la
t ü
ge werb
ab zielt
la va
ser ial
pl äne
bre cher
strateg ien
Dr y
exten ds
et ime
Se kret
Fre ib
Form el
Christ demokraten
Bre men
Sign ale
D ays
M ä
re fund
el ast
Er leben
ins ight
Kl är
infra structures
Muslim s
h ütung
Ver schie
Vor gänger
Pub lish
roh ungen
P OS
ign ano
amb ience
Solidar ity
Solidar itäts
maler ischen
D ifferenz
U EN
ge änder
auf tritt
ins on
Tr ennung
Natur a
wärt ig
ausführ liche
M é
Z a
k anz
er l
com od
co ding
fünf zehn
Verpack ung
Anne x
Verhält nisse
p pe
urop as
subs cription
I sa
J ud
trans mitted
further more
Buch staben
L y
ein bringen
kle idung
benöt igten
Sl ideshow
Zin sen
V M
f ere
s elt
re production
st eine
be legen
im ir
pol ize
Pal azzo
Hier zu
Comp act
Augen merk
öhn ung
IL O
außergewöhn liche
Säm tliche
ac id
Kon solid
weiter gegeben
Nach teil
ausge drückt
sur f
abzu lehnen
systemat ically
dee per
u ay
al ien
st ahl
inst ability
Sicherheits rat
sex uellen
Erd öl
disast rous
Bang lad
refurb ished
W agen
au ction
am ination
letz tes
mult ilingual
jähr iger
Sozial politik
distingu ished
warrant y
clin ical
A x
p ix
t welve
be weist
besch luss
16 th
top s
Aufrechter haltung
or ange
mus lim
colle ctions
feel ings
Stat ute
sus pension
Work shops
Bör sen
Vorbe halte
beeinträcht igen
U g
Un like
Fr isten
inv al
consist ing
indire kt
Tw itter
be fehl
weit em
lin king
proced ural
opho bia
p el
ein wand
ent ities
über wält
Ein ladung
Sa x
credit ed
Entschließungs anträge
genü gt
á r
the men
ess o
wick elt
sa il
cer em
Bet ween
dat um
row s
IM P
concl udes
beant ragt
Messen ger
S ett
d oppelt
Kon vents
Ne pal
pra ise
vertr ieben
Wur zeln
Applik ationen
influen ced
b old
h ub
v ation
in sel
vor ge
tel n
man o
cer am
imin i
Les er
Material s
Mart ini
griech ische
fortz usetzen
T ony
b unt
be freien
Jahr zehnt
ru led
Ve get
Fert igungs
Welthandels organisation
recru it
Exhib ition
B SD
C av
re präsent
ein heiten
ol ly
he i
was hing
bre ast
Man u
var ian
Port folio
Roman ian
Prov ider
anwend ungen
Johannes burg
cuss ions
K K
el en
gel aufen
zeit lich
integr ating
Bl u
Car los
beant ragen
Indones ien
Dikt atur
Mold au
h ou
pr ide
dem ocracies
ex quisite
Un less
bau ten
Rechts sicherheit
entreprene urs
L arge
ens hr
zw ing
Im ages
restrict ive
tatsäch liche
argu ed
gestr ichen
allmäh lich
B ind
t aten
Aus stellungs
Pat ch
kill ing
R ate
r unden
st roll
Un ix
port ion
Au ft
ok ed
eng agieren
ton s
gratul iere
civil ians
fehlen de
bill igen
W ay
Sp enden
einz eln
198 1
separ ation
Tor re
Sien a
L ett
R oss
ung erecht
ra cing
su pranational
Ver z
bei hilfen
bes uch
fahr zeug
ton ight
Tour ist
C annes
ü chter
de kor
ver teilen
Gesetz geber
dre ams
Col um
Rä um
K az
p flanzen
Mit bürger
pre ises
Ne ed
inv ites
chan ces
optim ieren
bro ther
Außen grenzen
herr schaft
Maß stab
Rede zeit
Entsch ädigung
schlimm sten
icht ung
ad dit
lo an
Ab wicklung
zwe imal
bestell t
Tit an
R osen
qu oten
du plic
sho es
Gu atem
dete ction
Territor ium
K andid
R ES
o ve
ver breiten
Be at
sh if
cess ions
after wards
uf fer
betra chte
select ing
zuverläss ige
eli hood
scrutin y
R ain
Er stellen
mehr mals
inc ere
passen den
Hol y
dynam ischen
envis aged
Imper ial
indigen ous
Crimin al
ne ys
ex isted
com promises
vo ices
Gegen wärtig
contain er
Wahr nehmung
veröffentlich ten
voraus gesetzt
tit les
Dub ai
excl ude
S z
f ib
de cess
kt on
Se hen
gän gen
folger ung
herunter geladen
D ia
L etzt
Ein bindung
ikan en
Viel mehr
limit ations
Cr ist
Hoff nungen
Nahr ung
resist ant
Colle ction
exc use
c end
in correct
id al
Er leichter
bar bar
Spiel ern
Natur katastrophen
stu hl
criter ion
religiö se
B eing
E tagen
An sätze
do gs
No vo
adv ances
unver meid
Landwir ten
Camping platz
Navig ation
fes thalten
G ur
is mo
inter ference
schein end
aren a
Frankreich s
dauer haften
adjust ments
nutz ung
lac ier
S og
к и
en er
ar ises
om s
com forts
St immung
bes ides
unter strichen
pre decess
bed ient
ausge übt
top ical
Kos met
exec ute
Ten er
Inns bruck
A la
M es
P ent
c ere
al y
st ir
St alin
invest itionen
Ur ban
bekann testen
Haushalts jahr
Erd gas
t auschen
il ty
sch äden
Th un
del le
Demokrat isierung
retire ment
Nichtregierungs organisationen
r ischen
er ie
re pression
differ enz
gra fen
Gesch ichten
reach es
cycl es
quer ies
quir ies
м е
Grund stück
har ten
überein stimmen
threaten ing
inno cent
O h
in comes
tra p
Unter haltungs
exam ining
Angeb ots
bü cher
sensit ivity
koh är
Erneuer ung
Nukle ar
M ast
R ückt
In sofern
iss on
Ze ile
Zeit ungen
main tains
persön licher
moun ted
Gal ax
vac uum
Passag iere
Chic ago
fru its
E ck
uss y
mar ried
Lo ve
197 3
Download s
Any one
earn ed
sight seeing
Inf os
anspru chn
compliment ary
pre isen
rei he
bu ffer
Finanz rahmen
defin itions
sy ner
schnell st
vol umen
mod us
Beitritts verhandlungen
transatlant ischen
Z ell
r in
ad verse
aus bildung
men us
spr ung
jud ges
Stellung nahmen
Oper ationen
B end
N ür
b ä
fr iger
unter halb
betre ibt
consult ations
kil ometers
Infrastruktur en
Environment al
Atom waffen
Gesam theit
fla vour
unvergess lichen
tranqu il
fest gehalten
Bar o
geord neten
Währ ungen
cin ema
ausgestatte ten
Quad rat
ad mission
über flüss
sho oting
Her stellern
nam o
carr ies
climb ing
B urn
de priv
gener ating
Bet a
cra fts
Angel es
bedür ft
lizen z
vorzusch lagen
d imin
s incere
Hindern is
Schau spieler
decre ase
mangeln de
L au
m ud
p fe
tr i
tr au
Re ifen
bl ut
resol ving
symbol ic
kommun istischen
agg reg
qua ke
anspruchn ahme
zu greifen
Ver ona
stat ute
äl en
Tr äger
bü ros
offic ers
überras chen
Hold ing
t licher
versch w
organ s
cell or
Mail and
Kraft stoff
Up grade
stabil en
Lab VIEW
unanim ity
G ibr
M oh
st ere
ion i
auf rufen
co at
Be förderung
pre vents
len e
rig id
rig orous
audio vis
worr ied
E VP
g üter
w aves
ein setzt
fin ishing
let t
Air ways
einzu leiten
capital ism
feed ing
monopol y
S N
u to
ar re
Sch iffen
gesch le
inge hend
Pos selt
sprach igen
elegan ce
koordin iert
E gal
G anzen
ro les
ra chte
ck te
sie b
ange führt
lin ess
techn ically
carr iers
assess ed
download s
subje cted
katastrop hal
C SS
O ME
W ant
is i
zu cht
po ul
Dem ocracy
acc umul
ersch ien
ffe kt
gemeinschaft liche
regelmäß ige
schwar zen
män n
B G
st unde
im o
auf richtig
ag eing
ges prä
comm only
fl our
best raft
philosop h
Bru der
X V
de ar
pro tests
sh ire
196 8
Anpass ungen
Excell ent
T win
ein leiten
Wir t
Me gap
No ten
Ste el
gesetz liche
Nord ir
Sto l
Super visory
hair dryer
berecht igung
vorzu bereiten
Versch ieden
Guant á
W hil
and auern
ter ia
sch ien
Sch wach
Pr ix
gent le
ichter stattung
Gast freundschaft
erf assen
proportion ate
Peters burg
Völ kern
E V
be hindert
af fung
mar ken
view ing
Projekt es
verein baren
rup ted
refuge e
reci pro
Hauptz iel
if un
ck ten
sh ine
her an
process or
erfahren en
pill ars
schuld ig
bedeutend sten
abzusch ließen
G anze
V ic
re actions
ges enkt
wo ody
Ein blick
Le ader
währ ung
Dem o
Can aria
198 3
Bre it
Glück s
men schen
ex ert
zeit ige
iti ver
Dienst es
vari ables
leite te
h lige
p estic
un al
ge zielt
icht igen
str enger
ident ifizieren
Er werb
finanz ierung
Partner schafts
wood s
config ured
Verpack ungs
Z ap
k ow
ad minister
str ic
Ne ither
wieder hole
15 th
key board
design ated
stud ios
National park
symp athy
Frü chte
durchschnitt lich
M ale
n as
be kämpft
ic ons
aus machen
Ver hinder
IN I
Dienst stellen
deli vers
rob at
Künst lern
Guantá namo
u i
al gorith
ab hängen
pre jud
lin ary
hel ic
frü here
indirect ly
prag mat
städt ischen
M uss
ver such
dynam ische
sil ent
inser t
glo be
Apar thotel
Ansprech partner
K amin
lin ing
regel ungen
steuer ung
dah ingehend
bekräft igen
Gült igkeit
k w
k lick
auf kommen
ger man
deleg ations
a al
i ors
w ein
ge liefer
ver träge
auf hören
no ble
posit ives
Sen der
Parad ies
Komplex ität
Sah ara
e ating
end less
ty ard
ähr t
gewand elt
L um
X Press
an lässlich
ig ter
Vor gang
Auf lagen
sum s
Hol ly
gült igen
kin der
convinc ing
A sh
h ut
m art
v iert
an ien
An leger
En gel
ans a
Ges etzen
enz a
point ing
model le
Volks wagen
button s
Cli ents
erreich ten
P OL
v ou
mat ches
saf er
pack en
bedür fen
Akzept anz
Sust ain
C anal
a wards
ß ig
Die jenigen
inst aller
bereit schaft
Ele ganz
explo ited
schul en
tie fen
rare ly
endors ed
verschär ft
so zusagen
Produ ction
E co
ges chnitten
du b
Ein kauf
20 14
immer hin
vis as
pass ive
J agd
b less
n ad
p id
ch art
se aside
AR D
Lauf zeit
Ged anke
scen es
E specially
J ane
om an
Ab weich
führ end
dire kter
than ol
Ziel s
begr enzen
custom ized
Netz werke
gesetz lich
gän gig
Ratspräsident en
compla int
Dör fer
pedestr ian
U sers
er kl
est ro
sp äten
Ver gabe
Ver band
mo le
cur y
bre eding
Eben falls
Den k
leis te
Musik er
Stein berg
symb ols
Whil st
B IL
R imini
c ements
j ar
r ice
ze u
develop er
access ed
dest ro
EL L
Lat via
therap ie
dramat ically
obstac le
ow der
fa kt
Al bert
some where
best anden
Zentr en
div isions
Sof ern
voranzu treiben
I cel
P um
ein beziehen
ann ually
ser klärung
lang jährige
Teil nehmern
Priv ileg
Eur ob
Wi Fi
Mitglieds staaten
beliebt esten
Canc ún
Konfigur ations
D ür
In anspruchnahme
aus geben
aus genommen
mo od
loc ally
Gar da
meaning ful
consolid ated
en compass
ie th
al uminium
wert ungs
Wor ks
zurück kommen
Ter mine
verm ietung
App ell
Infl ations
b ör
u an
com pound
arr iving
17 th
Gesundheits wesen
kop ieren
beob achtet
Skr ipt
Begeister ung
D G
d ive
m ischen
Un glück
pre ference
Con go
pf legen
dür ften
graph ie
Bang kok
Offic er
tschech ischen
A wards
G lo
M ust
En des
Nutz ern
mobil en
young er
dete ct
Hunder te
diesbezü glichen
B olog
O d
af fair
Pr ince
Vor sicht
cre am
prov es
wach stums
miss ible
attra ktiv
maß geschneider
exception ally
cot ton
Leon ardo
Geburt stag
Immun ität
L U
M ER
no ten
che cken
Str änden
fort geschritten
bi of
aster y
parte i
pd f
B N
O ffer
ver ify
if er
Internet seiten
amend o
lauf ende
Cast ro
zivil en
Silver Fast
multilater alen
be zaubern
sp am
ad resse
än gern
Se g
Europä isches
arch iv
Fest ung
pal ace
block iert
rum än
Doppel bett
Rä umen
Job s
ro tt
ab geschafft
Un it
Wo hler
klar stellen
Schließ ung
Moun tains
Migr anten
Diagno se
5 000
gel ände
par alle
Ze ilen
Durch führungs
commun ist
Verbind ungs
track ing
frag ile
antas ie
1 15
M oney
me er
ktion ismus
197 4
Polit ical
seg ments
Quart al
L L
le id
Ver stoß
form ally
dec iding
Hand buch
wert vollen
bereit gestellten
AS A
Sozial partner
Staats bürger
Ty pen
Joh ann
secur ing
Schott land
h ungen
aus wahl
ank omm
corpor ations
stock ung
Lam an
Solar ium
L ater
is tet
all erg
pl ung
dis appoint
No thing
Ste p
opt ionen
üst ungs
paragraph s
Naz i
Again st
Colom bia
N V
R C
re tro
re vers
sicher ungen
car go
wish ing
dist ant
mein t
stimul us
Meinungs äußerung
Straf gerichtshof
P el
or o
au ert
work er
angemessen er
Ferien haus
Icel and
Wohler gehen
de pl
ans äss
De ep
cost ly
gehör ige
Zwischen zeit
Mark us
autonom ous
inwie weit
un iverse
ber ühr
kt ives
co ins
br illi
Ho heits
ira c
unmittel bare
vereinbar ung
Zo om
C ell
g aller
re fra
audio visual
advis ed
Ungleich heiten
Newsp apers
r ated
so zio
Tr ip
sc rap
Ro se
sam ples
Spiel s
introdu ces
Temp el
MID I
G ig
re iten
be hindern
ib us
alt es
icher ten
music ians
ec os
determin ing
Alp es
safeguard ing
Darle hen
Gegeben heiten
es cal
it ert
de pos
end anger
setz ten
Bed rohungen
Kön n
hear ts
schwe igen
ausgewä hlte
Verhaltens kodex
hors es
Z it
r anges
au gen
ab ort
work place
new est
fest ivals
ichte te
Fort un
Verkehrs mittel
österreich ische
vine yards
res id
inter ventions
vie wer
Finanz ielle
Lin ken
distrib ute
Bro sch
Autor ität
Gio v
E ye
H ut
ä ts
be haltung
The atre
Fra gestell
respon ding
Bet räge
ME DA
Altern ativ
scr ipts
außergewöhn lichen
bedau re
Migr ations
ent lassen
sp ur
10 5
bas ierend
Vol umen
Geschäfts führer
ris iko
Cy ber
medic inal
certific ates
g os
ä gern
Un regelmäß
Über schwemm
Str ess
12 3
reichen den
stre bt
Dar aus
don or
verlänger t
prere quisite
S ich
l asst
he aded
ze ile
fa den
Th ess
ak h
rat ify
To ile
posit ory
Stand orten
transpar enter
appar at
Ram blas
be arbeitung
da iry
sup porters
son t
lad imir
amm ern
irgend eine
enh ancing
dep loyment
spart nern
Look ing
O W
re ben
sch all
stat ic
Med ina
send s
Stabil isierung
ari at
thin ks
Lad y
Sof ia
preserv ation
Result at
H ER
tr ick
end ums
Al c
Kon go
Co hesion
Krit erium
abzu geben
schätz t
Bestell er
confir ms
Übersetz er
H und
us ions
tr ation
port ra
Ge fähr
fol d
vo y
rest ra
Fahr zeugen
Cre ative
Streit kräfte
q m
ap pr
ier bare
sp at
per ception
Aus lands
Nord korea
niedr ige
marri age
A raf
L ü
un ches
Se qu
ord entlich
text iles
reason ably
erkenn bar
Gewähr ung
Wart ungs
embar go
N ick
W ies
Er krankungen
let scher
modern isation
amerikan ischer
renov ierte
Photo shop
Bir ma
Song s
Zut aten
intuit ive
Transl ation
F ro
L angen
de feat
ern annt
hal ter
19 20
Über mittlung
Con f
Best rebungen
improv es
mark iert
Sal v
gam bling
Kühl schrank
geschen kt
D up
L ago
gu ilty
wahr genommen
Vier tens
J i
er for
auf weist
geb ucht
stand e
Bes ichtig
ys is
asse mble
administr ator
pan orama
Schrif tliche
Pay Pal
broadcast ing
Thyssen Krupp
ent ity
ex ac
Auf klärung
Im mo
Besch leun
Sal on
cast ing
Ged ächt
Pop ular
T T
W alter
un ified
ul o
ges endet
imm unity
Grund prinzip
Gleich wohl
broad ly
P ixel
c attle
w rap
y ield
ent f
gen oc
Über trag
fahr ung
wissen schaften
uni qu
pack ed
lay ers
Tur m
class ification
Stre am
lis her
reader s
u els
re ar
stat ing
Nach teile
Sozial isten
lat ein
Wä sches
Bay er
Königreich s
gewalt ige
angehör igen
licens ed
Cons ider
punish ment
F ont
T aschen
ger t
geb rachten
Bas il
freund liches
ürz t
Gemeinschafts recht
Vie h
dead lines
pac kt
C ards
R ichtigkeit
en cry
re me
ein gest
ver handelt
ad ian
anz usehen
Ch allen
Ger ne
prote ctive
Tra v
AT E
demonstr ations
Fischerei abkommen
Word Press
l anges
go vina
bas ket
Nach folger
Zusammen fassung
har sh
dra fts
Afr ikas
grün de
wis dom
küm mert
ü ger
ung leich
human e
steigen de
Auth ent
Verhinder ung
om ass
Re flex
fe der
Ent deckung
kre uz
Ange boten
alp ha
A lic
C art
ing ton
spre is
Chin esen
rä der
accommod ations
Flücht lingen
geräum igen
dau ghter
gi ant
Alger ia
furnish ings
Gibr altar
c um
ur ity
pl ante
Land schaften
Fl üss
sc ape
want ing
Beispiel sweise
cred its
etter ing
Schätz ungen
Konsolid ierung
5 th
D é
R ub
ein satz
comm ands
Ent täusch
lim iting
pat ron
Artik els
Zentr alb
Kan äle
Ungleich heit
Dolom iten
Tok yo
ankomm t
C amer
K S
to lle
ah ll
Ar my
Pr ice
omen te
attra ktive
jud ic
sex uelle
west liche
compre hensible
Ath ens
perce ived
berat ung
ver weist
ir anischen
ess im
fr ische
igen en
dis abilities
ster ity
Zu kunfts
scheid ung
whole hear
Je ws
Dis abled
mass iven
Tro cken
altern ativen
indic ations
dre w
valid ity
stechn ologien
Adr ia
knüp fen
Stör ungen
Bolog na
L if
s ister
er mor
at um
ro up
qu asi
ass ador
Aus ser
So le
Exper t
berühm t
Olymp ischen
forest ry
push ed
hers elf
Ox ford
Wäsches ervice
E li
R ica
i ents
ge zahlt
for ge
Sch ritten
hal ben
kon tra
kl am
det ention
col on
Mail ing
attempt ing
recognis es
Wechsel kurs
kommun izieren
Thess alon
C MS
H unde
re friger
be ts
Er fassung
Mon d
Ter race
Ren ov
Bol iv
witness ed
Zins sätze
Recent ly
n est
ve t
sel ts
Fl u
tun nel
aim ing
class ified
gewöhn liche
Schwer punkte
asser t
Fabr ik
sow jet
Euroc opter
A then
N ich
b les
h ôtel
v y
el te
über trieben
ile mma
kon stitution
Mar ie
Me thod
high way
Hand hab
seit dem
beautiful ly
encour ages
Zert ifizierung
Konzer te
shoul der
A le
D ial
V ö
ere ig
cl auses
lif ting
Rechts an
pain ful
rück en
aka dem
sac rific
G oth
T akt
in land
ie ur
ver setzen
Se bast
Po ints
revolution ary
consolid ate
remed y
Nordir land
H ague
ab st
ste ep
You Tube
personal ity
AC E
Pos it
wider spiegeln
dynam isch
län glich
Pun ta
Vari ablen
vorbe halt
W ende
ein richten
im balances
weit et
exp liz
tag on
Ta sten
safe guards
Tex as
intell igente
Zul iefer
Schluß folgerungen
Contain er
H op
T hr
g un
am ment
Sie b
str ikes
ident ifying
Par allel
Da von
Mach ine
kompon enten
Interpret ation
B rown
hy giene
Erweiter ungen
amt ierende
Ster e
Rh ine
L earn
In zwischen
We is
Ex ekut
fair er
Artik eln
imp liz
Kle idung
emphas ize
Überein kunft
zep te
Kapital ismus
ober fläche
schlä gen
theoret ical
Herze govina
wed ding
Gesetzgeb ungs
Chan cellor
rout ine
Ukrain ian
C IA
P oc
er ne
ver ordnung
Fr ucht
nach teil
Vor stands
Um geb
Welt meister
di am
kün ften
Zentr ums
Design s
kapaz itäten
Kam mer
A dress
O ft
ant iken
bet es
umen ted
anzu erkennen
Kl aren
Inst abilität
profit iert
197 7
geschütz ten
Tun nel
Persön lichkeiten
Festpl atten
diplomat ischen
beherr schen
n nen
t ube
im on
ap pl
mo uld
Me as
proble matisch
val uation
Form ate
Sy d
Raum fahrt
Liz enzen
earth quake
thir ty
diox ide
R essour
з а
am as
ter races
Mar s
vo or
Po ettering
wish ed
feat ured
Stre ben
modif ication
virt uellen
arm ament
definit ive
Vort rag
H ir
R iesen
e chter
Ä ra
am ik
Be grenzung
Gen fer
Best ände
optim iert
overn ight
vorzu gehen
bag gage
Schnitt stellen
freiwill ig
foss il
invo ice
retr ie
j ub
au lic
ro ph
ab ends
St ütz
man s
Kommissar s
comfort ably
engine er
decor ation
mixt ure
alar ming
se ch
legen dary
Ben j
Besch werde
erziel te
infra struktur
ruh igt
jem anden
anspruchs volle
zü gen
Rück sicht
Jahrhunder te
sus pe
cou ples
Obje ctive
säm tlicher
Gra z
manage ments
kür zen
feas ible
E po
P av
ex zellen
com pos
Re cycling
min ded
amt ierenden
Mitglieds länder
flexib ler
precaution ary
G öt
T iefe
se ed
geb ir
protection ism
Ul tim
kompliz ierten
sec ular
accompany ing
F usion
R out
Fe der
understand able
bi ologische
attra ction
vorgesehen e
rene wal
flü gel
anspr üche
Mü ll
benach bar
beauftrag te
complement ary
Verg essen
appell iere
exac erb
S cr
d ossier
er bringen
aus zus
Ver schlechter
An re
Pro be
stell end
kl ing
Bes etzung
äl er
gew ichte
Br anden
hil fs
exklus iv
Quark XPress
l uggage
bes etz
wenn gleich
rel uct
hol ungs
Gen der
Bre ite
Bulgar ian
trial s
bilater ale
E OS
r ation
in et
em otion
bo ys
order ing
lauf end
A Y
O G
ge einigt
ter rain
ex akt
bes ide
Ein sparungen
Aussch üssen
Wes te
Grem ien
W id
über trag
lie derung
Pr omen
Zeit alter
Tr i
back up
list ing
wind igkeits
EL DR
AV I
diplom acy
Rob oter
Erkennt nis
tenden cy
beweg ungen
B org
be ck
ul ated
wh oles
event uelle
Vo y
inspe ctions
Fü lle
4 th
f ed
be heben
ern ing
min s
US E
prote cts
Kap it
parte ment
Work shop
sparte ien
Hen ry
b ikes
ver danken
ag na
An sehen
gew ann
rif t
ausge hend
komm ent
genet isch
Sens or
Beweg ungs
scre ens
L IF
U pon
s lo
it uation
pr icing
comp iled
Um stellung
kar a
Wh atever
assess ing
smo ke
spa ket
frem den
democrat ically
Beobacht ungs
Slideshow s
ü pf
rest ri
Sou ven
Foto kop
Bro t
ICE cat
V ital
l ighten
istr ib
aufge griffen
Card iff
Est land
Publik ationen
Glauben s
uneingeschrän kte
cerem ony
B ass
L ittle
r ug
Alger ien
orig ins
Zentralb anken
l ending
be c
ir respective
An leitung
leg acy
hin nehmen
Vor mittag
ER P
Bei hilfe
tour istischen
kre ative
Som alia
advis ory
dor thin
vess el
bicy cle
H ein
P ots
be acht
he aling
dem o
Se attle
ausge liefert
bau te
fas c
Gelt ungsbereich
c igare
il ien
zu erhalten
aus gestellt
Ver wenden
Über sch
famil ie
üt te
veröffentlich te
GN OME
beun ruhigt
Deleg ationen
Be y
De pression
inv iting
emp fehl
inc idents
üt ten
betre iber
attra ktiven
corre ction
ref usal
Em br
Biok raft
ine ffe
ong ol
ong ue
sur faces
pra xis
Bei behaltung
Bel ow
Tag ungen
jen ige
Ital iens
israel ische
BA E
blic ke
forese e
Feed back
N iel
e per
zu ständige
um gebung
Ein stieg
bre a
line ar
trans national
War nung
optim ized
aufge führten
Cor bett
Maß stä
Ra keten
Turn ier
flexib len
Unregelmäß igkeiten
W ollen
auf halten
proble men
cor respond
Ko dex
verl ängern
she ep
Inst aller
Mot ion
Bu y
PH ARE
hom ogen
Wall ström
tel s
iel ds
tra f
sam keit
OR E
Prote ktionismus
Pfe iler
korrig iert
k öst
m ira
ch ap
st if
ein stellungen
ho o
stütz t
Zu fall
vert ical
wider spiegelt
separ at
krit isieren
handel ten
engl isch
H ack
h unting
un weit
ro ten
ver mehr
con cessions
any way
kl er
ausge prä
einge bet
Natur schutz
zy klus
barr ier
ehrgeiz ige
macro economic
aufrecht zuerhalten
D og
S F
re im
ne z
In telle
br un
ausge gangen
Kin o
bon d
Zus agen
poor er
Por sche
Ke ep
Funktions weise
er zählt
in te
es k
gen ossen
ag an
spe icher
Ch irac
proble matic
sur gery
kosten freien
Roh stoffe
poten ziellen
Cathol ic
K anz
L ac
T ester
s kept
sp reading
Aus sehen
stär kt
vol umes
aufge treten
Band breite
Fert ig
privile ges
Herze gow
Gon z
Fortun ately
b outique
g asse
w ins
ge halt
be hold
for ma
Fra cht
ath let
Bürger rechte
24 0
Bus se
OS ZE
blo ß
Wiederauf nahme
Caf e
Prüf ungen
regen de
GM Os
2 30
B la
D ivers
k ne
k ör
au sterity
über denken
br ush
kehr ungen
gehör te
Industr ies
kop f
Jac uzzi
durchschnitt liche
flood s
B row
L yon
k anal
De pending
Del ta
attemp ted
diver sen
S TO
S ardin
il m
zu halten
fr ames
fer ry
fast est
betre ut
pot ato
schl ug
wan ne
agent uren
T rop
in appropriate
be lastet
pro be
par ent
Ne igh
hy brid
OS CE
amb ots
ibr ation
Höhe punkt
Econom y
zö gern
batter ies
B ull
D ere
we iger
Aus kunft
min der
Zu wanderung
Man chester
Kol onial
unge he
umfassen der
transparen te
proz essen
push ing
Ama zon
C IT
L ack
und i
Ein stimm
Te uf
stat tet
stre cke
initi ate
block ing
definit iv
Vul kan
Brü der
damal igen
G EN
T s
ö cke
er mittelt
ed y
os es
Sch ein
fol k
bank rupt
Gemeinschaft sebene
Can ary
anze ige
Sym bole
Telekommunik ation
confidential ity
irregular ities
G utes
O liver
ch ips
ful filling
organ ising
icher heit
Br ücken
richt linien
AT A
Bü gel
irgend wie
Quest ions
evalu ated
T an
em pl
tr u
St ars
ac ute
Sch wanger
tra gt
ige bie
nach t
La undry
near est
Bibliothe ken
Konserv ativen
N erv
o on
r ors
s é
to ys
über tragung
part nern
pre dic
Auf preis
Nach weis
modern sten
Fest ivals
Klim asch
archite kton
Gebä udes
grenz t
psych ological
beschleun igt
sau bere
W ass
ver sicherungs
dem selben
spe isen
Ge häuse
Med ium
Li ikanen
Genau igkeit
B AS
e g
ge brauch
ver stand
ve ter
dem nächst
ank ungen
vir uses
Sit es
ST AT
roy al
erhöh te
weakness es
Araf at
D ell
iv o
ful fill
vers org
defin es
bekann tlich
wind ung
continu ity
vertr auens
irgend wann
cou p
Fotograf ie
myst er
Cru z
Evalu ierung
Befürcht ungen
v ag
in ch
ir r
ta ged
über schreiten
per secution
Er hebung
Str assen
vent ura
Her man
lag a
Gegen den
Industrie politik
Hy dr
Gal ic
beeindruck ende
Pfer de
vibr ant
ausger üstet
V ak
i pe
ge kr
br ennen
Unter bre
lag geben
priv ileg
technolog ien
wes ter
sequ ence
bild ungen
verbunden e
Sc andinav
Rot ter
verwand eln
V all
c atal
auf geben
ac comod
gesch ah
Mar io
bin nen
teilnehmen den
territorial en
Freil assung
Hosp ital
Gastr onomie
genoc ide
K ub
K ampagnen
de du
ver gabe
ad mir
vor läuf
respon ded
Val ent
verurs achten
schrift lichen
olo gen
F X
H ad
т и
or ious
est änd
wir st
co operative
cht est
minister ium
Stu dies
burn ing
Imp uls
unglaub lich
Handhab ung
n ein
p av
un ya
is ierter
ag ra
alle ys
Pl attformen
gra pher
Sicher stellung
And or
IS S
food stuffs
Gleich e
Informations austausch
kompliz ierte
Know ledge
galler ies
H allen
K L
K eller
un um
at ar
le er
be tragen
se ment
vis ibility
lim itation
enjoy able
dien te
commod ity
Fischere ise
advan taged
geräum ige
Spann ung
bele bung
Guatem ala
R auch
S hip
u kra
ä glich
ge fertigt
möglich er
small est
prior it
Dienstleistungs richtlinie
C ra
G um
c and
r ush
be kam
Sch reib
Sp äter
legisl ativen
AR C
Sk ip
Chr isto
wissenschaft lich
Vir gin
Rett ung
Verschlechter ung
F ett
ed t
ne ck
con fort
ide ology
Ein reise
Zeit schrift
gere chter
modif ications
freund lichkeit
kulture ller
valu ed
journal ist
retain ed
G it
Z ie
u v
w ör
л о
un expected
re lie
ent ziehen
sp un
there of
Über windung
att itudes
Industr ien
verantwort ung
erhe bt
wunder baren
rom ag
vergleich bar
or gung
be lastung
Be wirtschaftung
gew ahrt
transp orted
Pre ises
Tre ff
vert iefen
höher er
Herz lich
1990 s
Ros a
Ever est
reim bur
F res
R ud
W ave
to ck
Un i
ben en
bes orgnis
sh aus
kon kurr
gemein t
kre bs
post ing
heim ische
getr offenen
coordin ating
leite ten
Scient ific
A 1
ent nehmen
ver zeichnis
ern er
nach folgenden
ast on
Le icht
fol ged
Auf stockung
defin ite
Energie verbrauch
näch stes
FRE E
Thessalon iki
e hren
ge denkt
de vote
den oun
with drawn
Sch ad
Ges tern
Auf stellung
hard t
Cl ar
Wieder ein
abge deckt
geleg entlich
Tier schutz
preserv ing
europa weit
diagnos is
rhetor ic
folged essen
B ody
wer ter
Be handlungen
man ually
20 50
oper a
Fuß gänger
aul ts
Bot schaften
fem in
großzü gig
Ausge wogen
oste uropäischen
Bliz zard
L iv
al ters
ein räumen
bes ichtigen
unter laden
Kon dition
comple ting
posit ively
entsprechen der
mass iv
IM O
36 5
formul ieren
veranst altet
GU I
Clean ing
vermie ten
S ure
Z igare
ne ust
ind ischen
ute te
sub t
bl ow
sort s
Certain ly
Heidel berg
O ffiz
d ungs
as cript
le uten
tr inken
ze ilen
tim ing
cont amin
spec ulation
measure ments
Fa hren
veran lassen
ivir us
gemel det
ver sichert
In cre
priv ater
zusammen gestellt
deal ers
Red ing
Sub mitted
condu cting
jün ger
Bio technologie
Equip ment
S AR
ie ß
zur ufen
land ing
antwort ung
War saw
Eur atom
engl ische
anerkann ten
Benj amin
exzellen te
S elf
T ul
V A
k eln
if ahr
pos itiver
hn te
gra in
IT E
Beschäftigung spolitik
hom osex
ober ste
gewalt igen
sn acks
maßgeb lich
C hen
e commerce
le ug
econom ical
met als
stud ying
tack led
Folgen ab
Flor ida
CR M
Má laga
er holen
St offen
str ich
mittel ständ
access ibility
Ste phen
abzu stimmen
pain ted
absor b
Applik ation
Pest iz
G y
W andern
k od
be geben
ser ie
pl äd
dis advantage
Parlament arier
zwe cken
emp fehle
Per l
Pa ar
Schul ung
former ly
proz ent
hervorzu heben
E mot
V itor
ex otic
Un recht
Ein mal
produ ktiv
schein bar
tempor arily
Analy t
Straßen verkehr
Letz ten
liquid ity
Verbün deten
ent ers
Ein leitung
Ch or
Pol ice
tour en
ausch t
Act iv
Gros s
Harr y
Herzegow ina
A mp
u ber
su its
An schließend
Al z
produ ctions
zü gig
hinaus gehen
Ac robat
Offic ial
an schauen
for b
Bo gen
Qu ite
hoch rang
Lie chten
vol ta
persu ade
abgest imm
C row
h au
om o
gr ip
com press
Er ziehung
Ge hör
offen er
conserv ative
Jar z
H ay
K B
ar ium
el o
ies ter
co b
St ufen
fahr zeugen
success es
[...]
