, 0.9998973733148009
. 0.9372845089164946
του 1
και 1
της 1
το 1
&quot; 0.9437350690670328
την 1
από 1
με 1
ο 1
η 1
) 1
( 1
να 1
τον 1
που 1
των 1
στην 1
σε 1
για 1
στο 1
τη 1
είναι 1
τα 1
Η 1
τους 1
οι 1
Το 1
Ο 1
@-@ 0.457675153785403
ήταν 1
στη 1
ως 1
τις 1
ή 1
: 1
στις 1
ένα 1
ότι 1
μια 1
στον 1
« 1
» 1
στα 1
δεν 1
Οι 1
΄ 1
είχε 1
ών 1
κατά 1
έχει 1
αλλά 1
Σ@@ 1
ενώ 1
ική 1
ικό 1
ος 1
οποία 1
ία 1
ων 1
θα 1
όπως 1
ου 1
δύο 1
&apos; 0.9940112034820396
- 1
αν@@ 1
ες 1
ό 1
μετά 1
ίας 1
ής 1
επίσης 1
ά 1
ικά 1
όπου 1
ικής 1
α 1
ους 1
ές 1
/ 1
σ@@ 1
Π@@ 1
Τα 1
ικές 1
τ@@ 1
ι 1
ός 1
Κ@@ 1
όταν 1
Τ@@ 1
μία 1
φ@@ 1
ι@@ 1
εν@@ 1
χ@@ 1
ης 1
καθώς 1
ικού 1
προ@@ 1
β@@ 1
οποίο 1
αν 1
απο@@ 1
ο@@ 1
Μ@@ 1
Α@@ 1
στους 1
ικών 1
Α 1
π@@ 1
μέχρι 1
δι@@ 1
μεταξύ 1
ν@@ 1
ού 1
Λ@@ 1
ά@@ 1
Ν@@ 1
μ@@ 1
αυτό 1
Β@@ 1
έγινε 1
έχουν 1
χρόνια 1
κ@@ 1
Ρ@@ 1
πρώτη 1
εκ@@ 1
2 0.9696641745535098
πιο 1
τ 1
προς 1
Β 1
α@@ 1
δ@@ 1
γ@@ 1
Στις 1
εξ@@ 1
γκ@@ 1
; 0.37994322731276026
ας 1
1 0.8164419250654585
περιοχή 1
πόλη 1
μπορεί 1
Φ@@ 1
θέση 1
ζ@@ 1
αυτή 1
υπο@@ 1
Χ@@ 1
μπ@@ 1
ε@@ 1
ου@@ 1
ομάδα 1
ίου 1
θ@@ 1
ε 1
ί@@ 1
διάρκεια 1
λ@@ 1
αρ@@ 1
ς 1
ό@@ 1
αιώνα 1
έ@@ 1
Δ@@ 1
ιν@@ 1
ένας 1
ρι@@ 1
αντι@@ 1
στ@@ 1
ρο@@ 1
Ο@@ 1
λι@@ 1
οποίος 1
Μπ@@ 1
Από 1
απ@@ 1
Ι@@ 1
ικός 1
αλ@@ 1
ει 1
&amp; 1
Ε@@ 1
3 0.9271172167071547
Στην 1
ούς 1
είχαν 1
% 0.7111414597068862
ί 1
συν@@ 1
– 0.4416945065892459
περίοδο 1
έναν 1
ω@@ 1
ικ@@ 1
μέρος 1
μόνο 1
ενός 1
πολύ 1
άν@@ 1
κ 1
τι@@ 1
επι@@ 1
μαζί 1
Μετά 1
Γ@@ 1
έως 1
ακ@@ 1
κατα@@ 1
ανα@@ 1
ν 1
Με 1
τσ@@ 1
τική 1
παρ@@ 1
επ@@ 1
υ@@ 1
ίες 1
η@@ 1
περίπου 1
βρίσκεται 1
τα@@ 1
κα@@ 1
ρ@@ 1
έν@@ 1
ού@@ 1
όμως 1
4 0.9259541682079662
ρ 1
τικό 1
ή@@ 1
ουν 1
οί 1
σαν 1
ισ@@ 1
ύ@@ 1
ια 1
ον@@ 1
μα 1
όνομα 1
βι@@ 1
αργότερα 1
Ζ@@ 1
Στο 1
τότε 1
ερ@@ 1
το@@ 1
κάθε 1
Κατά 1
λ 1
ατ@@ 1
μέσα 1
ίων 1
σι@@ 1
εία 1
αγ@@ 1
σκ@@ 1
φορά 1
προσ@@ 1
τος 1
&#93; 1
ση 1
ώ@@ 1
&#91; 1
Τον 1
Είναι 1
Σε 1
πρώτο 1
μ 1
5 0.90786087057181
σης 1
ευ@@ 1
Γκ@@ 1
άρ@@ 1
λόγω 1
τικά 1
πως 1
ίδια 1
πριν 1
ει@@ 1
υπό 1
Ά@@ 1
ταινία 1
ρα@@ 1
κυρίως 1
Την 1
ον 1
ομ@@ 1
μη 1
περι@@ 1
συνέχεια 1
τες 1
ξ@@ 1
εν 1
ασ@@ 1
κλ@@ 1
ορ@@ 1
ήθηκε 1
σειρά 1
Για 1
πάνω 1
Αν@@ 1
πλ@@ 1
άς 1
μετα@@ 1
μένη 1
ελ@@ 1
ήσει 1
έργο 1
τρ@@ 1
ρί@@ 1
όν@@ 1
10 0.8619297220952881
ετών 1
Ελλάδα 1
Στη 1
αι@@ 1
ησε 1
φορές 1
2011 1
χωριό 1
Ήταν 1
δια@@ 1
6 0.8205288591428026
έ 1
ολ@@ 1
τά@@ 1
ικούς 1
σήμερα 1
ηση 1
να@@ 1
τικής 1
χωρίς 1
Έ@@ 1
υπ@@ 1
ρά@@ 1
τού 1
ονται 1
ούν 1
αυτά 1
μιας 1
ψ@@ 1
πι@@ 1
Δι@@ 1
ισμό 1
τικών 1
ίσ@@ 1
Γ 1
ίδιο 1
ίν@@ 1
ιο 1
ρα 1
σύμφωνα 1
Τζ@@ 1
ώντας 1
Επίσης 1
μέσω 1
τι 1
λε@@ 1
Σύμφωνα 1
μεγάλη 1
μένο 1
αφ@@ 1
αποτέλεσμα 1
εί 1
ρος 1
θε@@ 1
θεί 1
εται 1
μέλος 1
πόλης 1
είς 1
εποχή 1
_ 1
ομάδες 1
ιστορία 1
έτσι 1
Τσ@@ 1
πολλές 1
άν 1
τικές 1
γι@@ 1
τμήμα 1
όν 1
όρ@@ 1
εκλογές 1
ότητα 1
στοιχεία 1
όλα 1
έλαβε 1
τζ@@ 1
έκανε 1
μα@@ 1
τρεις 1
άλλα 1
αμ@@ 1
αρχές 1
8 0.844269813679958
ερ 1
π.Χ. 1
ιών 1
αναφέρεται 1
ισμού 1
τέλος 1
τη@@ 1
λα@@ 1
χώρα 1
12 0.8876346196761251
είας 1
ρου 1
μι@@ 1
Ωστόσο 1
επί 1
20 0.9118388185630849
ωση 1
= 1
κοντά 1
έρ@@ 1
ήσεις 1
μον@@ 1
7 0.8025176509799362
έκ@@ 1
αποτελεί 1
τίτλο 1
Προ@@ 1
πολλά 1
υλ@@ 1
Γι@@ 1
κά@@ 1
Θ@@ 1
κι 1
τόσο 1
άλλες 1
οπ@@ 1
ηλικία 1
έδρα 1
ιά 1
τερ@@ 1
ξεκίνησε 1
ώθηκε 1
γιος 1
άλ@@ 1
κο@@ 1
Καρ@@ 1
The 0.07361790705731881
ζωή 1
υπάρχει 1
θηκαν 1
είο 1
οδ@@ 1
εκ 1
πρωτάθλημα 1
οντας 1
ρε@@ 1
κόρη 1
μεγάλο 1
ικοί 1
Παρ@@ 1
εί@@ 1
2010 0.7412369096780544
π 1
ούσε 1
κατοίκους 1
15 0.9010008464767186
ώστε 1
ρο 1
έργα 1
είται 1
χρήση 1
όσο 1
εισ@@ 1
ιλ@@ 1
μέλη 1
Ιουλίου 1
τε@@ 1
Αυγούστου 1
.@@ 1
ων@@ 1
of 0.021378642269742742
Μαρτίου 1
Εθνική 1
χρόνο 1
τικού 1
οκ@@ 1
μένα 1
Ου@@ 1
αυτές 1
έλ@@ 1
αφού 1
πο@@ 1
άκ@@ 1
μάτων 1
υπάρχουν 1
Σεπτεμβρίου 1
ισμός 1
Οκτωβρίου 1
βάση 1
εκτός 1
ω 1
ακόμη 1
formula 1
’ 0.23473678748215868
Ιουνίου 1
Στα 1
οποίες 1
Μαΐου 1
γύρω 1
εγ@@ 1
περιοχές 1
Όταν 1
Ιανουαρίου 1
Αρ@@ 1
σύστημα 1
μέ@@ 1
ίδα 1
δεύτερη 1
ησης 1
πρέπει 1
Γου@@ 1
ήσουν 1
συχνά 1
Απριλίου 1
άσ@@ 1
ακόμα 1
σεζόν 1
Μαρ@@ 1
τρι@@ 1
είου 1
ομάδας 1
9 0.7882649786928588
καλ@@ 1
Συν@@ 1
ήθηκαν 1
κυβέρνηση 1
μά@@ 1
μορφή 1
αρχικά 1
Αυτό 1
Αγίου 1
νέα 1
Νοεμβρίου 1
τελευταία 1
Ό@@ 1
εκεί 1
ρού@@ 1
Ιστορία 1
16 0.9489678789475908
ντε 1
νε@@ 1
11 0.844332492814252
Αθήνα 1
εναντίον 1
30 0.8889821036853371
οφ@@ 1
ονομασία 1
όλη 1
είτε 1
Αλ@@ 1
πρώην 1
14 0.9764130983795507
2012 0.781167280632055
όσ@@ 1
ζ 1
ησαν 1
τών 1
κοινότητα 1
αγώνες 1
όχι 1
τελικά 1
σχετικά 1
ογ@@ 1
γλώσσα 1
Έχει 1
δηλαδή 1
οβ@@ 1
συνήθως 1
κέντρο 1
Δεκεμβρίου 1
πήρε 1
2009 0.7771335092349174
υ 1
βασιλιά 1
gt 1
2008 0.77527716011919
ρόλο 1
β 1
2014 0.7508165678464411
εύ@@ 1
πρώτος 1
μπορούν 1
εφ@@ 1
υπερ@@ 1
ώσει 1
18 0.8089111476104596
μέτρα 1
ότητας 1
οσ@@ 1
πλέον 1
όπ@@ 1
ϊ@@ 1
lt 1
Φεβρουαρίου 1
κατηγορία 1
άλλη 1
2015 0.7486487745853683
άλλων 1
περ@@ 1
μένος 1
13 0.9491417680734328
φ 1
2013 0.7499023698091838
ειας 1
μεγαλύτερο 1
γεννήθηκε 1
Δ 1
Ευ@@ 1
Βιογραφία 1
αδ@@ 1
άλμπουμ 1
φορ@@ 1
ματος 1
αγώνα 1
αχ@@ 1
αβ@@ 1
καθ@@ 1
γίνει 1
άγ@@ 1
τον@@ 1
αρχ@@ 1
τικός 1
άρχισε 1
πρ@@ 1
ανάμεσα 1
κυκλοφόρησε 1
ωσης 1
γεγονός 1
του@@ 1
17 0.9473687322597901
κάτω 1
παιδιά 1
Ως 1
έτος 1
Πανεπιστήμιο 1
2007 0.766485884048978
θη@@ 1
25 0.9202965617045707
σπ@@ 1
κέρδισε 1
μεγαλύτερη 1
μαν@@ 1
πρώτα 1
Αν 1
δε@@ 1
2016 0.722032735922526
de 0.01320882416108461
δεύτερο 1
πολιτική 1
ΗΠΑ 1
ματ@@ 1
χώρας 1
γνωστή 1
χρονιά 1
τρία 1
Η@@ 1
ην@@ 1
σχεδόν 1
δεκαετία 1
ολογία 1
χω@@ 1
τέ@@ 1
υπήρξε 1
ιστ@@ 1
όρος 1
Ελλάδας 1
βλ@@ 1
όλες 1
γνωστό 1
τέλη 1
σχέση 1
ιδιαίτερα 1
αυ@@ 1
τά 1
χώρες 1
πρό@@ 1
περιοχής 1
Έτσι 1
τς 1
2006 0.7519005920751783
ουλ@@ 1
Μά@@ 1
επειδή 1
παν@@ 1
υγ@@ 1
ουν@@ 1
κυ@@ 1
τί@@ 1
τού@@ 1
μο 1
όμ@@ 1
εια 1
εσ@@ 1
0 1
οποίοι 1
αζ@@ 1
ωσε 1
Κα@@ 1
σία 1
the 0.008844438024592722
περισσότερο 1
ιν 1
Ανα@@ 1
ιμ@@ 1
μου 1
αντ@@ 1
θάνατο 1
19 0.8366798664219568
μερ@@ 1
Εν@@ 1
συμμετείχε 1
τας 1
ταν@@ 1
ώνεται 1
κόσμο 1
οχ@@ 1
οποι@@ 1
ίδιος 1
τρόπο 1
2019 0.7418712999763785
Ευρώπη 1
Υ@@ 1
-@@ 1
μάχη 1
παραγωγή 1
ηθεί 1
γίνεται 1
θούν 1
με@@ 1
κάνει 1
ίσει 1
πληθυσμό 1
κα 1
βά@@ 1
όλο 1
Κου@@ 1
ήματα 1
εκείνη 1
αστ@@ 1
θέ@@ 1
συ@@ 1
ωστόσο 1
ελ 1
μας 1
ντ 1
πολ@@ 1
πέντε 1
απογραφή 1
άζει 1
Αγ@@ 1
φιλ@@ 1
ουσ@@ 1
ματα 1
όγ@@ 1
πατέρα 1
2017 0.6871273510361107
χρησιμοποιείται 1
γκ 1
νέο 1
όλων 1
πρόεδρος 1
2018 0.6574382305372862
γραφ@@ 1
ούσαν 1
παράδειγμα 1
αρκετά 1
σσ@@ 1
άτομα 1
ανά 1
εμ@@ 1
πέθανε 1
οικογένεια 1
21 0.9216364303882468
πά@@ 1
λί@@ 1
Αθηνών 1
χιλιόμετρα 1
Γαλλία 1
Μια 1
Ε 1
Κά@@ 1
2004 0.8467695745203818
θεωρείται 1
επαν@@ 1
Ένα 1
βόρεια 1
θηκε 1
αλλ@@ 1
ιδρύθηκε 1
2000 0.7604896675305747
Καλ@@ 1
αριθμός 1
ώσεις 1
ούν@@ 1
μεν@@ 1
Πρωτάθλημα 1
ίνη 1
αυτο@@ 1
νότια 1
δυνάμεις 1
ώ 1
όλ@@ 1
ζωής 1
κιν@@ 1
πατέρας 1
επιτυχία 1
μπο@@ 1
ημα 1
οικισμός 1
δυο 1
ώνει 1
βρίσκονται 1
ίζει 1
Ντ@@ 1
χαρ@@ 1
έα 1
περιλαμβάνει 1
εις 1
ξη 1
νη 1
τραγούδι 1
ώς 1
22 0.9551445017889676
ις 1
παρά 1
ίστηκε 1
ίδες 1
έδωσε 1
αυτός 1
κατάσταση 1
λά@@ 1
σει 1
λλ@@ 1
ήματος 1
s 0.20122402391668665
ποι@@ 1
ιδ@@ 1
ήδη 1
Άν@@ 1
ούνται 1
2005 0.7578764826852724
καν@@ 1
πόλεις 1
χώρο 1
καρ@@ 1
ίζεται 1
υρ@@ 1
τερ 1
Μα@@ 1
ελληνική 1
διάστημα 1
ρέ@@ 1
σεις 1
κου@@ 1
Απο@@ 1
νομ@@ 1
24 0.8504372386351537
εργ@@ 1
έγιναν 1
κρατ@@ 1
έπ@@ 1
ειδ@@ 1
τή 1
ρού 1
μουσική 1
συμβ@@ 1
Γεννήθηκε 1
μένες 1
μήκος 1
βα 1
κας 1
δε 1
ασκ@@ 1
ίνα 1
τικ@@ 1
ιστική 1
τυ@@ 1
σημείο 1
αυτού 1
ριν@@ 1
αυτών 1
γεν@@ 1
γνωστός 1
τελ@@ 1
βασιλιάς 1
ετ@@ 1
πέ@@ 1
&#124; 1
amp 0.5902012717565326
ανάπτυξη 1
ιος 1
ανέλαβε 1
τε 1
όρο 1
ρίας 1
κτ@@ 1
πίσω 1
ορι@@ 1
πολυ@@ 1
2001 0.8865536521134705
ονομ@@ 1
Στον 1
Κλ@@ 1
ονταν 1
ντ@@ 1
αί@@ 1
άλλους 1
μυ@@ 1
οποίων 1
αυτόν 1
περιόδου 1
κάποια 1
σμ@@ 1
Αυτή 1
όκ@@ 1
εκατομμύρια 1
23 0.9531666741046768
στα@@ 1
ιού 1
εποχής 1
στο@@ 1
έκδοση 1
στική 1
ηλ@@ 1
άλλο 1
χ 1
άστηκε 1
Γερμανία 1
ρω@@ 1
εντός 1
βασ@@ 1
αυτής 1
ήσεων 1
είδος 1
ανακ@@ 1
επίπεδο 1
μπορούσε 1
έφ@@ 1
διάφορες 1
κάτι 1
ικα 1
όνομά 1
Αντι@@ 1
ότερα 1
πλευρά 1
άφ@@ 1
σα 1
επέστρεψε 1
τούν 1
πόλεμο 1
λη@@ 1
Δεν 1
Νέα 1
ίδας 1
οι@@ 1
είδη 1
δυ@@ 1
ριο 1
νησί 1
αριθμό 1
σχ@@ 1
ψηφ@@ 1
Παν@@ 1
δεκαετίας 1
Έλληνας 1
Λου@@ 1
μαχ@@ 1
Βι@@ 1
τές 1
εξής 1
εταιρεία 1
· 0.8357530341301865
μητέρα 1
28 0.9950485703987585
αναφέρει 1
100 0.8014214680791731
οργαν@@ 1
Γαλλίας 1
πολέμου 1
συμμετοχή 1
Παγκόσμιο 1
C 0.8235661583014254
βρισκόταν 1
τής 1
θέσεις 1
περισσότερα 1
μόλις 1
θ 1
ώθηκαν 1
λογ@@ 1
Μαρία 1
ουρ@@ 1
Μον@@ 1
ιζ@@ 1
νο@@ 1
είων 1
βαρ@@ 1
άρι 1
ιρ@@ 1
χαρακτηριστικά 1
κάτοικοι 1
ότ@@ 1
Ένωση 1
έβ@@ 1
ΐ@@ 1
ονομάζεται 1
κι@@ 1
υσ@@ 1
νι@@ 1
ταλ@@ 1
λίγο 1
Απ@@ 1
ιστεί 1
κατασκευή 1
άμ@@ 1
χλμ. 1
δημιουργία 1
1990 0.9539400955716878
καριέρα 1
ποτέ 1
τιμ@@ 1
ίκ@@ 1
ωθεί 1
παρα@@ 1
Κύπελλο 1
όμενο 1
μήνες 1
ξης 1
λέ@@ 1
έξι 1
τελικό 1
μένων 1
! 0.8103523112086214
βιβλίο 1
ηγ@@ 1
επόμενη 1
άρα 1
ανήκει 1
τεχν@@ 1
26 0.9530073575211214
υν@@ 1
ιερ@@ 1
παρέμεινε 1
έν 1
Ιταλία 1
2002 0.7903745547328098
Θε@@ 1
σημαίνει 1
χωριού 1
ματική 1
όπουλος 1
αμπ@@ 1
50 0.9442310486559004
Κορ@@ 1
ότητες 1
πρωτεύουσα 1
27 0.954181586671352
2020 0.5852936219468923
σημαντικό 1
περίπτωση 1
βαθμό 1
ανδρών 1
Ί@@ 1
όμενος 1
μαρ@@ 1
2003 0.7899176533579733
μο@@ 1
περισσότερες 1
άρ 1
δο@@ 1
ουμε 1
αντ 1
Σου@@ 1
οικ@@ 1
Ιωάννης 1
τό 1
ωρ@@ 1
ογραφία 1
άδα 1
ών@@ 1
... 1
ίν 1
Ιωάννη 1
έχοντας 1
Μπρ@@ 1
κατασκευ@@ 1
γαλλικά 1
αρχή 1
νίκη 1
πάλι 1
άκη 1
ανά@@ 1
ητής 1
τρο@@ 1
αποτελούν 1
σκοπό 1
1999 0.8471714339101631
επαρχία 1
οποίου 1
έγραψε 1
πε@@ 1
τέσσερις 1
σώμα 1
10@@ 1
τρα 1
Μακ@@ 1
Με@@ 1
τικούς 1
ίνο 1
Εξ@@ 1
φαίνεται 1
μελ@@ 1
γιο 1
ταινίες 1
φυ@@ 1
έκταση 1
τικοί 1
σημαντική 1
έγ@@ 1
Κατ@@ 1
ρυ@@ 1
ότερο 1
ρίου 1
μικρό 1
πληθυσμού 1
επικεφαλής 1
δύναμη 1
ιτ@@ 1
Επι@@ 1
λο 1
κατέκτησε 1
δος 1
στι@@ 1
άσει 1
ίζουν 1
S@@ 0.22861325656421985
ιάς 1
επίσημα 1
όμενη 1
αυτήν 1
ιστές 1
πρόγραμμα 1
Σι@@ 1
ρου@@ 1
έσ@@ 1
κατάφερε 1
Εθνικής 1
μαν 1
29 0.98557016732645
1η 1
ύ 1
σον 1
Θεσσαλονίκης 1
1997 0.963971191556854
ημ@@ 1
Έλληνες 1
ξανά 1
εκκλησία 1
ενεργ@@ 1
επί@@ 1
αγι@@ 1
Παρίσι 1
σύνολο 1
εξουσία 1
πρώτες 1
ξι@@ 1
μ. 1
αποτελείται 1
σημ@@ 1
οποίηση 1
διά@@ 1
γυναίκες 1
ητή 1
πα@@ 1
συνολικά 1
άζ@@ 1
διάφορα 1
οπότε 1
Πολέμου 1
μικρή 1
Μπο@@ 1
μεγάλες 1
in 0.01042639787239947
έπειτα 1
υφ@@ 1
ψυχ@@ 1
έλ 1
δική 1
Σχολή 1
αθ@@ 1
ακή 1
απέκτησε 1
γάμο 1
μην 1
άκης 1
χρ@@ 1
σχέδιο 1
κολ@@ 1
απόσταση 1
έτη 1
ρον@@ 1
σκι 1
συγκρότημα 1
Νε@@ 1
έας 1
σπίτι 1
κατ@@ 1
ελλ@@ 1
διακ@@ 1
ιδι@@ 1
κορ@@ 1
καταστ@@ 1
ανατολικά 1
M@@ 0.2973375901034937
άνα 1
ίδης 1
παραγωγής 1
νης 1
όβ@@ 1
στικό 1
αυτούς 1
ξ 1
σή 1
μέτρων 1
κατά@@ 1
T@@ 0.26074960273356496
διαφ@@ 1
εγκ@@ 1
Φιλ@@ 1
ίστηκαν 1
αγωνίστηκε 1
χος 1
ωμα 1
ύν@@ 1
εθνική 1
Δημοκρατίας 1
τρί@@ 1
οδήγησε 1
εβ@@ 1
πληθυσμός 1
ίλ@@ 1
εδ@@ 1
1998 0.8233132443474961
πατ@@ 1
έφτασε 1
δυτικά 1
λερ 1
προέρχεται 1
ώματα 1
αρχαι@@ 1
χορ@@ 1
στρατό 1
ότερη 1
1991 0.9456539765701184
συγκ@@ 1
ητές 1
προκειμένου 1
κοινό 1
1980 0.9948993283719163
άκι 1
ναν 1
Επ@@ 1
σίας 1
σφ@@ 1
στά@@ 1
γαλ@@ 1
ιου 1
and 0.011272707894162666
Δημοκρατία 1
υπήρχε 1
Πόλεμο 1
Παπ@@ 1
Δήμου 1
υψόμετρο 1
στιγμή 1
Βασίλειο 1
τσι@@ 1
μερικές 1
παλ@@ 1
ημέρα 1
1996 0.867960564492489
ναυ@@ 1
μη@@ 1
Πέ@@ 1
οτ@@ 1
μέσο 1
ολογίας 1
αρκετές 1
δρ@@ 1
θρ@@ 1
επίθεση 1
σημαντικά 1
ρία 1
.. 1
Αρχ@@ 1
μή@@ 1
εχ@@ 1
μένοι 1
άδες 1
ίγ@@ 1
όνα 1
απεβίωσε 1
δη 1
ποδοσφαίρου 1
Αργότερα 1
Λι@@ 1
ηθ@@ 1
Βαλ@@ 1
br 1
πηγές 1
Τρι@@ 1
πρωταθλήματος 1
C@@ 0.28973418563081615
φάση 1
ροφ@@ 1
δο 1
Άλ@@ 1
βοήθεια 1
αφορά 1
κόμμα 1
δύ@@ 1
ημάτων 1
παρουσία 1
Περ@@ 1
λέξη 1
Χά@@ 1
αξι@@ 1
μένης 1
πολλούς 1
κομ@@ 1
νερό 1
θέμα 1
έφερε 1
οξ@@ 1
Ένωσης 1
ίνης 1
+ 1
ρας 1
H@@ 0.2815390405981868
ψη 1
αρχαία 1
Νέας 1
τεί 1
1970 1
π.χ. 1
ημέρες 1
εμπ@@ 1
άβ@@ 1
μέγεθος 1
σχέσεις 1
όρους 1
αγγλικά 1
P@@ 0.2272961956693044
όφ@@ 1
a 0.011622561748817685
άνο 1
B@@ 0.22793158635390376
κράτος 1
άδ@@ 1
αϊ@@ 1
καλοκαίρι 1
βραβείο 1
ζω@@ 1
περί 1
έρ 1
ωσαν 1
A 0.17227173679402888
1992 0.8428120288822479
ίζοντας 1
ταινίας 1
ιστικό 1
A@@ 0.26471793761950246
θέματα 1
έλεγχο 1
ακό 1
εστ@@ 1
ωνα 1
οπλ@@ 1
πολιτικός 1
Κοιν@@ 1
απλ@@ 1
διαδικασία 1
31 0.9126805433808816
αργ@@ 1
οικογένειας 1
τοι 1
2021 0.5834166761376679
δικα@@ 1
Ιν@@ 1
Κύπρου 1
ξει 1
Σήμερα 1
λόγο 1
κο 1
1960 1
ίζονται 1
περιλαμβάνουν 1
Πολιτείες 1
μηχαν@@ 1
τμήματα 1
τύπου 1
D@@ 0.2327389613444403
Κο@@ 1
παράδοση 1
Γερμανίας 1
άστηκαν 1
δημιουργήθηκε 1
γυναίκα 1
F@@ 0.26240836106183874
έμ@@ 1
δούκα 1
Κόμμα 1
τρίτη 1
ιγ@@ 1
κρι@@ 1
άρια 1
Ντι@@ 1
ίδων 1
δήμο 1
1994 0.8333784869150804
Αυτοκρατορίας 1
βί@@ 1
κύ@@ 1
Ερ@@ 1
G@@ 0.22653408649226692
1993 0.8804376697227134
αλ 1
Ω@@ 1
αία 1
Επιπλέον 1
Μέχρι 1
ζε 1
Ηνωμένες 1
γιατί 1
κατοικ@@ 1
40 0.8294385014209921
όλους 1
Σκ@@ 1
λα 1
Πλ@@ 1
δόθηκε 1
τομ@@ 1
μένου 1
τέσσερα 1
Βρίσκεται 1
Ορ@@ 1
Παλαι@@ 1
νέου 1
έπρεπε 1
όρια 1
ητική 1
δικό 1
έχ@@ 1
R@@ 0.24004307804152436
ίσουν 1
Ξ@@ 1
πολλοί 1
μφ@@ 1
Σαρ@@ 1
λευ@@ 1
άλλοι 1
δράση 1
βουλευτής 1
τό@@ 1
μβ@@ 1
πος 1
Κύ@@ 1
λειτουργία 1
μακ@@ 1
πρωτο@@ 1
1995 0.8031699146174616
ρό@@ 1
ίο 1
κατοίκων 1
σειράς 1
Υπο@@ 1
μεταλλ@@ 1
παλαι@@ 1
υμ@@ 1
L@@ 0.21131071799957785
1989 0.908796237377774
γυναικών 1
τσα 1
νομού 1
ώνοντας 1
παιχνίδι 1
ζει 1
έρα 1
Καν@@ 1
τοπ@@ 1
γι 1
τιν@@ 1
γκα 1
Ιανουάριο 1
ίζ@@ 1
νη@@ 1
Πανεπιστημίου 1
παντρεύτηκε 1
από@@ 1
πάντα 1
ούνταν 1
πέρασε 1
συνέχισε 1
στερ@@ 1
1974 1
σύν@@ 1
μεσ@@ 1
Οικογένεια 1
° 0.9617407121825686
ιακή 1
γον@@ 1
Ρώμη 1
χρον@@ 1
εξελέγη 1
χή 1
Μουσείο 1
τραγούδια 1
ώρα 1
απέναντι 1
υπολογ@@ 1
Μετα@@ 1
ομάδων 1
κάποιο 1
περιπτώσεις 1
ροι 1
φθ@@ 1
Υπάρχουν 1
λύ@@ 1
χει@@ 1
όχ@@ 1
απ 1
ίνι 1
πορεία 1
Αγώνες 1
Μου@@ 1
Και 1
κε 1
συγγραφέας 1
γκολ 1
κυβέρνησης 1
θυ@@ 1
αμέσως 1
Εκ@@ 1
Κολ@@ 1
όνι 1
άνδρες 1
τολ@@ 1
έζ@@ 1
ποταμού 1
2@@ 1
ταν 1
πορ@@ 1
αγγ@@ 1
Πά@@ 1
ητών 1
μει@@ 1
Ευρώπης 1
πιστ@@ 1
Ρωσία 1
ανό 1
ραν@@ 1
διασ@@ 1
στής 1
Ένας 1
είες 1
Γεώργιος 1
γραμμή 1
Κον@@ 1
περιέχει 1
Μάρ@@ 1
τηση 1
αποφάσισε 1
εμφάνιση 1
Οκτώβριο 1
χριστιαν@@ 1
δήμου 1
περί@@ 1
ώνα 1
αρι@@ 1
ητικό 1
δί@@ 1
τουλάχιστον 1
Ελλάδος 1
Σεπτέμβριο 1
Σύ@@ 1
ικο 1
E@@ 0.273076912739773
ισε 1
κάστρο 1
Λού@@ 1
μάλιστα 1
ώσουν 1
Περι@@ 1
ώνονται 1
κατέ@@ 1
ούτε 1
Αγίας 1
οδηγ@@ 1
μέρη 1
Βαρ@@ 1
ποσοστό 1
ώνουν 1
Ιούνιο 1
άι@@ 1
Μέ@@ 1
προβλήματα 1
Εθνικό 1
ειών 1
Πρόεδρος 1
Άγιος 1
ασης 1
ρατ@@ 1
ηθοποιός 1
N@@ 0.23977214944088787
ακολούθησε 1
όλοι 1
ύψος 1
τιμή 1
στικά 1
ίδη 1
συλλογή 1
Εκεί 1
εμφανίζεται 1
συμ@@ 1
ίδ@@ 1
έτους 1
μετ@@ 1
ιση 1
κόμη 1
μ.Χ. 1
συνθήκες 1
στές 1
ητ@@ 1
τοπική 1
συνεργασία 1
ουσα 1
Μάιο 1
Μελ@@ 1
μν@@ 1
χρησιμοποιούνται 1
Κάτω 1
έδ@@ 1
εντ@@ 1
συγκεκριμένα 1
άζεται 1
1940 1
ότερες 1
άνη 1
διατ@@ 1
τελευταίο 1
ματικό 1
άντα 1
φέρει 1
ικ 1
ψει 1
άπ@@ 1
ελληνικό 1
θεωρία 1
Μάρτιο 1
κερ@@ 1
ηθούν 1
κύρια 1
γαλλική 1
οφ 1
Ιούλιο 1
μένους 1
Σαλ@@ 1
δρα@@ 1
ελλην@@ 1
υπήρχαν 1
μος 1
o 0.1572174231920836
νομό 1
κοσμ@@ 1
βολ@@ 1
μέση 1
δικ@@ 1
Αντ@@ 1
συγκροτήματος 1
έπαιξε 1
χαρακτήρα 1
Αύγουστο 1
πραγματοποιήθηκε 1
μάν@@ 1
Γεν@@ 1
επίσημη 1
προσπάθεια 1
άχ@@ 1
ούλ@@ 1
συνεχ@@ 1
κύριο 1
Οίκο 1
βρέθηκε 1
οποίας 1
Αγγλίας 1
Ασ@@ 1
K@@ 0.22488738587326837
ναός 1
i 0.2832914161396286
Δήμος 1
Παγκοσμίου 1
άνι 1
κορυφή 1
διοίκηση 1
ανού 1
Αμερική 1
παράλληλα 1
I 0.22845221268329607
Παλ@@ 1
Αμ@@ 1
Κωνσταντινούπολη 1
ράς 1
Νικ@@ 1
πον@@ 1
υδ@@ 1
άει 1
μετρ@@ 1
τησαν 1
κατηγορίας 1
επτά 1
γενικά 1
Δημ@@ 1
ικαν@@ 1
μόν@@ 1
60 0.971708611073878
ίνου 1
Κι@@ 1
αντίθεση 1
καμπ@@ 1
λιο 1
1.@@ 1
ψε 1
γνω@@ 1
σω@@ 1
κράτους 1
κον@@ 1
ολογική 1
έδαφος 1
εργάστηκε 1
άντ@@ 1
όρι@@ 1
Βόρεια 1
επόμενο 1
υπέγραψε 1
Δεκέμβριο 1
ρακ@@ 1
ίσως 1
άσεις 1
ταμ@@ 1
δα 1
ρη 1
Τζον 1
ραγ@@ 1
ορίζεται 1
y 0.0273594891509212
ασαν 1
μικρο@@ 1
σε@@ 1
Κατα@@ 1
ώρες 1
φαν@@ 1
ήλ@@ 1
Στα@@ 1
όνια 1
φων@@ 1
Αυτοκρατορία 1
αγων@@ 1
αποτελέσματα 1
νέ@@ 1
ειδικά 1
υποστήριξη 1
αντί@@ 1
ίμ@@ 1
Εκκλησία 1
διοργάνωση 1
παρά@@ 1
1981 0.9842204033839996
Α.@@ 1
Αγία 1
ειο 1
έρευνα 1
ίρ@@ 1
έργου 1
αντίστοιχα 1
μελέτη 1
άνθρωποι 1
άλη 1
διπλ@@ 1
κό@@ 1
σπουδές 1
Νοέμβριο 1
στρατού 1
μαζ@@ 1
Γαλ@@ 1
ρύ@@ 1
μισ@@ 1
ρά 1
τιο 1
Πολωνίας 1
έμεινε 1
εδάφη 1
σεων 1
Ελ@@ 1
Ψ@@ 1
ιβ@@ 1
1950 0.9704099648668847
ζεται 1
αση 1
έλα 1
υψ@@ 1
ορισμένες 1
συμμετείχαν 1
στη@@ 1
παρακάτω 1
συστήματος 1
άλ 1
ταρ@@ 1
τηκε 1
όμενα 1
Όπως 1
Κερ@@ 1
μέρα 1
θρόνο 1
Μαν@@ 1
στεί 1
Αγγλία 1
τώρα 1
σ 1
ίνος 1
καν 1
ινγκ 1
V@@ 0.24647846790030686
Απρίλιο 1
δρο@@ 1
ειες 1
σιο 1
ματο@@ 1
Εκτός 1
κόρης 1
τέχνης 1
οποίους 1
σύνθεση 1
ίνας 1
γλώσσες 1
αδελφός 1
όδ@@ 1
O@@ 0.24047302742558846
ρίν@@ 1
ωμένη 1
Μιχαήλ 1
τελική 1
θεωρ@@ 1
γράφ@@ 1
δου 1
ώδη 1
εμφανίστηκε 1
διαθέτει 1
Παρά 1
πληροφορίες 1
δήλωσε 1
ιστής 1
βιβλία 1
συνα@@ 1
τευ@@ 1
βαθμ@@ 1
ριος 1
τησε 1
ανθρώπους 1
ημένο 1
τω@@ 1
νω@@ 1
αποκ@@ 1
κλι@@ 1
σμού 1
στατ@@ 1
μό 1
Λιγκ 1
Ελλήνων 1
λόγους 1
σκοπ@@ 1
ανός 1
80 1
λιγότερο 1
οντα 1
νο 1
οπο@@ 1
μαγ@@ 1
Άρ@@ 1
βαν@@ 1
3@@ 0.9386622379155929
εξαιτίας 1
επαρχίας 1
περίοδος 1
όριο 1
αγωγ@@ 1
μέρες 1
Τη 1
σχολείο 1
συλλ@@ 1
λιος 1
κόσμου 1
ίδιου 1
δήμος 1
αυξ@@ 1
ξε 1
ούρ@@ 1
κακ@@ 1
έξω 1
ισης 1
ασία 1
χά@@ 1
οικονομική 1
μουσικής 1
Δήμο 1
συμφωνία 1
1945 0.710693890050584
Κ 1
τσι 1
θερμ@@ 1
ήγ@@ 1
θερ@@ 1
επιφάνεια 1
συγ@@ 1
άλα 1
ρεκόρ 1
1985 0.8588387804368024
έων 1
αρ 1
σημερινή 1
άδας 1
Πι@@ 1
1944 0.937523527770811
βιτς 1
σχε@@ 1
Είχε 1
Ελλην@@ 1
Βεν@@ 1
αναπ@@ 1
τρο 1
μικ@@ 1
άρχισαν 1
περιφέρεια 1
σμα 1
Μπου@@ 1
ταχ@@ 1
μέν@@ 1
πρω@@ 1
ήρ@@ 1
εύει 1
νησιού 1
Κυ@@ 1
χρησιμοποιήθηκε 1
απόφαση 1
επιτυχ@@ 1
ηματ@@ 1
τρίτο 1
δίνει 1
νό@@ 1
συγκεντρ@@ 1
διοικητική 1
ήττα 1
εντάχθηκε 1
αντί 1
δημιούργησε 1
αλληλ@@ 1
x 0.5558331604474892
τεύ@@ 1
εμφαν@@ 1
αποτέλεσε 1
κάποιες 1
ηλι@@ 1
αρχηγός 1
ήμ@@ 1
d 0.14799837320152331
ειρ@@ 1
1988 0.7551026068560889
υπέρ 1
Λε@@ 1
επικ@@ 1
εκπαίδευση 1
περιοδικό 1
κίνηση 1
αναφέρονται 1
αστεί 1
1986 0.81464999552973
Πολωνία 1
λεκ@@ 1
κυβερν@@ 1
πηγή 1
ικότητα 1
Ε.@@ 1
άλλ@@ 1
τίτλος 1
Χρ@@ 1
θέατρο 1
μεγάλα 1
αίνει 1
200 0.8859616321889027
εξ 1
έργων 1
αρχική 1
άρχ@@ 1
Τελικά 1
ντεμπούτο 1
άρχης 1
ωνία 1
ιακό 1
ζαν 1
Πολ@@ 1
άρι@@ 1
ιχ@@ 1
κατηγορίες 1
καθηγητής 1
άζουν 1
ανδ@@ 1
σί@@ 1
δημοσι@@ 1
ργ@@ 1
αγορά 1
Λέ@@ 1
Ρου@@ 1
ίδρυση 1
υλικό 1
I@@ 0.3092055462826198
19ου 1
πολλών 1
Όμως 1
κατέλαβε 1
άνης 1
κόμματος 1
κρα@@ 1
αγκ@@ 1
τέρ@@ 1
ελληνικής 1
πολεμ@@ 1
σμό 1
άνια 1
δημ@@ 1
ρες 1
ρη@@ 1
Ρωσίας 1
διαβ@@ 1
σμός 1
Μακεδονίας 1
Συ@@ 1
1987 0.7941895991985111
όζ@@ 1
Ιταλίας 1
Στ@@ 1
παραπάνω 1
θη 1
χωριά 1
ίτες 1
Εργ@@ 1
ατική 1
σύνορα 1
μετέπειτα 1
Κομ@@ 1
πλαίσιο 1
ιας 1
ότητά 1
μύ@@ 1
οτήτων 1
Χαρ@@ 1
θάνατό 1
αναφορά 1
Μπαρ@@ 1
αλλαγή 1
κομμάτι 1
ενδιαφέρον 1
Ισπαν@@ 1
4@@ 0.8986743075623416
θεραπεία 1
έλλ@@ 1
ζουν 1
στρατιώτες 1
αυτοκράτορα 1
τρα@@ 1
εμβ@@ 1
χαλ@@ 1
ανακοίνωσε 1
σχέδια 1
συλλόγου 1
ολογ@@ 1
λάβει 1
αρκ@@ 1
βαλ@@ 1
σημαντικές 1
έχασε 1
on 0.024705032132355705
πόντους 1
n 0.2873541100585485
χν@@ 1
στικής 1
ώματος 1
ζήτησε 1
ύρ@@ 1
προβλ@@ 1
όρου 1
1920 1
Λονδίνο 1
Χριστιαν@@ 1
τραυματ@@ 1
ήρθε 1
λιγ@@ 1
Γεωργίου 1
ώσεων 1
ίδρυσε 1
Θεσσαλονίκη 1
άσεων 1
ψης 1
πλοία 1
οργάνωση 1
1975 0.8487531550940135
ιστών 1
επίδραση 1
οκτώ 1
κοινότητας 1
περισσότεροι 1
1984 0.7951634606588904
λειτουργ@@ 1
δυνατότητα 1
νεκ@@ 1
ιστούν 1
1982 0.8425975628874699
έστειλε 1
δημιουργ@@ 1
κλη@@ 1
ρική 1
Κωνσταντίνος 1
ναό 1
Κάρ@@ 1
άνιο 1
Καλλικράτης 1
Ενώ 1
Παράλληλα 1
πρόσ@@ 1
σι 1
τύ@@ 1
κυρι@@ 1
Λα@@ 1
Ντά@@ 1
παιδί 1
εκστρατεία 1
θάλασσα 1
ώρ@@ 1
Φεβρουάριο 1
ατζ@@ 1
Ηνωμένων 1
τομέα 1
άνω 1
γου@@ 1
χι@@ 1
Σαν 1
νερού 1
ρι 1
ξαν 1
ιπ@@ 1
λος 1
Ελληνική 1
εξέλιξη 1
σχήμα 1
εντοπ@@ 1
ισμούς 1
Αρχικά 1
έτα 1
αποκαλ@@ 1
Ντα@@ 1
70 1
ορθ@@ 1
ώνη 1
W@@ 0.19702804863611192
1979 0.8416609837975739
Πρ@@ 1
ίτ@@ 1
πραγματικότητα 1
Μπι@@ 1
δώσει 1
συμπεριλαμβανομένων 1
άποψη 1
πήγε 1
άζοντας 1
συνεργ@@ 1
πό@@ 1
τούσε 1
Βασιλείου 1
Γκα@@ 1
ξουν 1
Μικ@@ 1
1967 0.9500171805298083
ταγ@@ 1
διεξήχθη 1
μιλ@@ 1
S 0.654962232568897
Κύπρο 1
δομή 1
διορίστηκε 1
συμβόλαιο 1
υπουργός 1
ελληνικά 1
αύξηση 1
ισαν 1
εαυτό 1
στόχο 1
Μαλ@@ 1
μπορούσαν 1
παρουσιάζει 1
όρων 1
εύεται 1
ασι@@ 1
ανθ@@ 1
ανήκε 1
1941 0.9065519798411694
1912 1
ίτη 1
t 0.16325302958908
ερμην@@ 1
νέων 1
ειν@@ 1
ρών 1
σύντομα 1
κος 1
όνων 1
ορο@@ 1
ωμένο 1
γέν@@ 1
έστ@@ 1
m 0.20986264869920934
ρκ@@ 1
στή 1
όμενες 1
κυκλοφορία 1
μπι 1
έννοια 1
Συμβούλιο 1
τριών 1
ματικά 1
ώνας 1
πιθαν@@ 1
όντων 1
επο@@ 1
πρόσωπο 1
εφημερίδα 1
” 0.2897815343731966
Αθήνας 1
Ισπανία 1
ιστο@@ 1
σο@@ 1
τορ@@ 1
δέκα 1
έμπ@@ 1
αζε 1
σουν 1
γεγονότα 1
δικαιώματα 1
ρίων 1
εργασία 1
νησιά 1
στρατιωτική 1
ουσι@@ 1
διαδέχθηκε 1
βο@@ 1
αποστολή 1
δεύτερος 1
ώσ@@ 1
ητικά 1
δικαίωμα 1
Ασία 1
Στέ@@ 1
Χρυσ@@ 1
Μεταξύ 1
φω@@ 1
λεπτά 1
Κόμματος 1
ίπ@@ 1
γλ@@ 1
στικές 1
τιος 1
έναντι 1
ωπ@@ 1
ιδέα 1
άνου 1
συμβολ@@ 1
“ 0.08856071358587257
Ι 1
O 0.4826613976265862
μοντέλο 1
1978 0.8396213439902526
μορφές 1
εάν 1
ιντ 1
90 1
στών 1
us 0.22037692781048338
1983 0.7934976309325552
λειτουργεί 1
λη 1
Σαμ@@ 1
πραγματ@@ 1
ενέργεια 1
συστήματα 1
o@@ 0.2426909168642937
ένωση 1
φόρ@@ 1
στερ 1
τεχνική 1
πα 1
1973 0.8495469568472019
εικόνα 1
γρήγορα 1
ευση 1
μην@@ 1
ηλεκτρον@@ 1
παγ@@ 1
τακ@@ 1
Π 1
εντά@@ 1
έζησε 1
χών 1
γνωστοί 1
πολιτικής 1
Σά@@ 1
διευθυντής 1
ομοι@@ 1
1976 0.8235706036058533
Ναυ@@ 1
Επιτροπής 1
συζύγου 1
βασιλ@@ 1
1930 0.995571370962054
επιρροή 1
ημι@@ 1
Κού@@ 1
ταυτόχρονα 1
500 0.9214216978147277
Κατηγορία 1
είπε 1
χο 1
πί@@ 1
Βερ@@ 1
ιλι@@ 1
1977 0.8628059793938405
εκδοχή 1
σημασία 1
υδρο@@ 1
σύλλογος 1
στρατ@@ 1
1971 0.826960593193695
εφ 1
γύρο 1
λει@@ 1
ούσ@@ 1
είδους 1
μερικά 1
σκορ 1
αδελφό 1
ωνίας 1
Α. 1
Επιτροπή 1
Πριν 1
κανον@@ 1
αερ@@ 1
ματά 1
ωνικό 1
γη 1
2.@@ 1
έρι 1
καιν@@ 1
ίνες 1
εσωτερικό 1
σιος 1
έδρας 1
7@@ 1
εμπο@@ 1
ισχυ@@ 1
περιβάλλον 1
1972 0.7741420088568739
Ρό@@ 1
1968 0.8046855804613966
πάρει 1
Ιταλ@@ 1
δρόμο 1
τή@@ 1
γ 1
επιπλέον 1
ότερος 1
αίο 1
θερμοκρασία 1
5@@ 0.9444077276428168
χρησιμοποιεί 1
χρόνου 1
εζ@@ 1
κρί@@ 1
κτίριο 1
σύζυγος 1
1964 0.894617591915317
εφαρμογή 1
ινή 1
πρώτου 1
όρ 1
γράφει 1
λεγ@@ 1
ατών 1
Νομ@@ 1
εταιρείας 1
καταγωγή 1
R 0.5935006866844617
ανατ@@ 1
Μεγάλη 1
τούς 1
ακριβώς 1
Άννα 1
ημένη 1
πνευ@@ 1
αποτελούσε 1
ίτης 1
ανάλογα 1
κατ 1
κυκλ@@ 1
Τότε 1
ανταγων@@ 1
κεντρική 1
μπουργκ 1
1961 0.9945989218401511
ασε 1
αστική 1
εξωτερικό 1
Εκκλησίας 1
Αφρική 1
Τσι@@ 1
αλλαγές 1
ποταμό 1
χρονικό 1
δημόσια 1
έρχεται 1
Σ 1
χθηκε 1
Βιογραφικά 1
1939 0.8793373265743055
μεθ@@ 1
ίσεις 1
προστασία 1
πλειοψηφία 1
ελι@@ 1
στ 1
ψουν 1
μορφ@@ 1
εκπαιδευ@@ 1
Μπλ@@ 1
στρ@@ 1
et 0.021448024727801922
ραβ@@ 1
μαλ@@ 1
ροί 1
ερι@@ 1
αι. 1
ατικό 1
πους 1
δολάρια 1
χώρος 1
Κοινότητα 1
αγωνίζεται 1
κάνουν 1
αξ@@ 1
σημεία 1
ιαν@@ 1
ψεις 1
αυτοί 1
κω@@ 1
αίου 1
καταγωγής 1
1821 1
κράτη 1
Ολυμπιακούς 1
έτο 1
Λόγω 1
πρώτης 1
Καστ@@ 1
τύπος 1
θμ@@ 1
κομμουν@@ 1
1963 0.9340278809291682
κοπ@@ 1
διαφορετικές 1
καθεστώς 1
μίας 1
γνωστά 1
ποδοσφαιριστής 1
ώνες 1
μης 1
άνοδο 1
δυνάμεων 1
ρούς 1
παραμένει 1
δίπλα 1
υπηρεσίες 1
Μουσ@@ 1
αναδείχθηκε 1
Κάρολος 1
έκαναν 1
σας 1
μεγαλ@@ 1
Σα@@ 1
γονείς 1
οί@@ 1
Βασιλ@@ 1
Νότια 1
πίνακα 1
μεγαλύτερος 1
8@@ 0.9774149532602033
βοηθ@@ 1
Καθώς 1
αρχία 1
επιλογή 1
υπηρέτησε 1
ορίστηκε 1
ανασ@@ 1
βάρος 1
ακολουθεί 1
μονή 1
Κό@@ 1
επιστροφή 1
ύπαρξη 1
τηκαν 1
εντ 1
# 1
μετάλλιο 1
τούσαν 1
πολιτικό 1
μπροστά 1
τια 1
τρια 1
ιστορικό 1
προπονητής 1
παράγεται 1
Αφού 1
άτ@@ 1
συνδυ@@ 1
θέσεων 1
τεν@@ 1
ιστικά 1
προσπάθησε 1
τυπ@@ 1
L 0.4221651925815925
εμφανίσεις 1
επηρε@@ 1
διετέλεσε 1
ονομάστηκε 1
πρόβλημα 1
δρομ@@ 1
υπόθεση 1
μήνα 1
Πολι@@ 1
ται 1
βερ@@ 1
τροφ@@ 1
ιστικής 1
σύγχρονη 1
εργασίας 1
Γκου@@ 1
δεκ@@ 1
εκδόσεις 1
μονα@@ 1
1943 0.8551104461514357
γλώσσας 1
ηχ@@ 1
αγωγή 1
1969 0.8098549725813633
ίστ@@ 1
Χαλ@@ 1
άσουν 1
ανθρώπων 1
μικρά 1
δεκα@@ 1
Ερρίκος 1
λυ@@ 1
νίκες 1
1946 0.9036980417239561
ηγεσία 1
βελτι@@ 1
χρησιμοποιώντας 1
κατόπιν 1
λιμάνι 1
άνθρακα 1
βρα@@ 1
φασ@@ 1
καλά 1
χα@@ 1
νέες 1
παρουσι@@ 1
κερδίσει 1
πολιτι@@ 1
to 0.008726918159528052
επεκ@@ 1
μή 1
ριστ@@ 1
αθλη@@ 1
ϋ@@ 1
σταδιοδρομία 1
θος 1
ιστορίας 1
Αντί@@ 1
Ιερ@@ 1
ονόματα 1
κη 1
αγρο@@ 1
στρατεύματα 1
έτ@@ 1
Όσκαρ 1
Κυπέλλου 1
ισσ@@ 1
Ακ@@ 1
ανή 1
To 1
χρώμα 1
επιχειρήσεις 1
ιω@@ 1
Πέθανε 1
ναού 1
Άγιο 1
αίνουν 1
σιμο 1
τροπ@@ 1
στοιχείο 1
Ή@@ 1
γνωστ@@ 1
Σε@@ 1
οδό 1
δημοκρατ@@ 1
χειρο@@ 1
τοκ@@ 1
διοργαν@@ 1
έξ@@ 1
ξεις 1
στάδιο 1
ιτς 1
μυθ@@ 1
τέχνη 1
εξαιρετικά 1
Αλέξανδρος 1
παί@@ 1
γεω@@ 1
καλύτερη 1
τύπο 1
στρατός 1
τήριο 1
F 0.6061965457902041
έκθεση 1
σκα 1
Υπήρξε 1
μάχης 1
δεδομένων 1
ρό 1
φερ@@ 1
χιλι@@ 1
ενάντια 1
Συμβουλίου 1
6@@ 0.9201925966427611
αντζ@@ 1
γενε@@ 1
δεξι@@ 1
ιες 1
Ευρωπαϊκό 1
σμούς 1
μεγάλου 1
έδειξε 1
οιν@@ 1
σημείωσε 1
υπηρεσία 1
1965 0.8233082696639618
απο 1
σπουδ@@ 1
έι@@ 1
οντ@@ 1
ριζ@@ 1
πρωταθλήματα 1
σκηνή 1
ιοι 1
ρή 1
προκάλεσε 1
δών 1
πεδίο 1
ψαν 1
σου 1
Στρ@@ 1
αξία 1
πρωθυπουργός 1
γραμ@@ 1
διά 1
αναγνω@@ 1
ξε@@ 1
αι 1
Μι@@ 1
Π.@@ 1
Χάρ@@ 1
Πατ@@ 1
θυμ@@ 1
απέ@@ 1
έδρες 1
σκηνοθεσία 1
ίχ@@ 1
στικών 1
οντάς 1
ημερ@@ 1
Σερ@@ 1
ωνε 1
Βραβείο 1
ίωση 1
άτομο 1
δεδομένα 1
παιχνίδια 1
έρν@@ 1
γνώρισε 1
Καμ@@ 1
1918 0.9538911267140813
άου@@ 1
ατρ@@ 1
όνη 1
χρησιμοποιηθεί 1
ικότητας 1
χημ@@ 1
ήσ@@ 1
ερν@@ 1
πιθανώς 1
μήκους 1
σημει@@ 1
τοποθεσία 1
χέρια 1
άμπ@@ 1
ολόγος 1
Δια@@ 1
άμε@@ 1
σώματος 1
καθαρ@@ 1
μπερ@@ 1
Μάχη 1
πλη@@ 1
Μεσ@@ 1
τερμάτισε 1
προσπάθειες 1
οργ@@ 1
Τρ@@ 1
καιρό 1
1966 0.8146512990842641
άι 1
διέ@@ 1
Άνω 1
εύτηκε 1
ποίηση 1
έγκ@@ 1
έναρξη 1
Ηνωμένο 1
ξυλ@@ 1
αιν@@ 1
Μπερ@@ 1
ύστερα 1
Δυ@@ 1
Σπούδασε 1
H 0.8698678142908063
μελών 1
χαρακτηριστικό 1
χρυσό 1
20@@ 1
X 0.5896875264789475
Έπειτα 1
αποφασ@@ 1
μάν 1
οικογένειες 1
μπου@@ 1
εργασίες 1
ύγ@@ 1
πρωτ@@ 1
συμπ@@ 1
D 0.4701451935528412
Μία 1
ηλεκτρ@@ 1
χάρη 1
τέκνα 1
πραγματοποίησε 1
ολοκληρώθηκε 1
χρονιάς 1
Ισπανίας 1
ινό 1
γραμμές 1
εση 1
σταυ@@ 1
Του@@ 1
μεγάλης 1
αντικείμενο 1
ηκε 1
αρνήθηκε 1
ίους 1
καμία 1
δού@@ 1
λεύ@@ 1
300 1
κλει@@ 1
ήν@@ 1
Βασ@@ 1
Πρω@@ 1
Κρήτης 1
δης 1
Ν 1
έτ 1
ωλ@@ 1
εθνικής 1
σχολή 1
θητεία 1
σχολ@@ 1
ενέργειας 1
λαβ@@ 1
άζονται 1
έλαβαν 1
είδ@@ 1
φον 1
τισμού 1
που@@ 1
ρίες 1
κοινή 1
μό@@ 1
κού@@ 1
1928 1
Σύστημα 1
ίλ 1
Γεωγραφία 1
ρυθμ@@ 1
πόν@@ 1
δαν@@ 1
εικον@@ 1
Κιν@@ 1
Κίνα 1
Εφ@@ 1
λίμνη 1
τορα 1
βαθμούς 1
υβ@@ 1
φυσική 1
τελευταίος 1
οστ@@ 1
ωμ@@ 1
φυλακ@@ 1
πρόταση 1
δραστηριότητες 1
ήθελε 1
σκ 1
Φω@@ 1
ολόκληρη 1
κίνημα 1
Πα@@ 1
ικη 1
όμενοι 1
δρόμου 1
ισμένη 1
φρά@@ 1
φαν 1
διοικ@@ 1
σπούδασε 1
ΣΤ 1
διδ@@ 1
κυριαρχία 1
λι 1
βασίλειο 1
προσκ@@ 1
1947 0.9018338466610304
Ντε@@ 1
νά@@ 1
δραστηριότητα 1
πηγ@@ 1
παρελθόν 1
χρησιμοποιούν 1
άλλαξε 1
βο 1
ουά 1
σταθμός 1
ταυ@@ 1
ουργ@@ 1
στεν@@ 1
Καναδά 1
εισβολή 1
σημερινό 1
ίκα 1
μαγνη@@ 1
βίντεο 1
δου@@ 1
ίνων 1
συμμετοχές 1
έι 1
Ιαπωνία 1
Τουρκία 1
προγραμματ@@ 1
ίρ 1
αδελφή 1
ευσης 1
άλι 1
κριτική 1
τός 1
9@@ 0.9607377730966845
Σω@@ 1
ίσματος 1
νέος 1
παραγωγ@@ 1
πολίτες 1
γραφή 1
ατόμων 1
Πε@@ 1
βελ@@ 1
περαιτέρω 1
καλλιτέχνες 1
ολογικά 1
διαφορά 1
πολι@@ 1
ανίας 1
χιλιάδες 1
σου@@ 1
χής 1
Γερ@@ 1
32 0.8999652141863556
ελληνικού 1
χαρακτη@@ 1
οξύ 1
ανέ@@ 1
Σοβιετική 1
αντικείμενα 1
ισμένο 1
ωνική 1
δυν@@ 1
πολιτικές 1
σελ@@ 1
αγαπ@@ 1
ανατολική 1
παίκτης 1
1948 0.815421976929876
Αμερικής 1
σύζυγό 1
1958 0.8430072291529728
δείχνει 1
Ισ@@ 1
Κάθε 1
Τέλος 1
διεθνή 1
πτώση 1
1@@ 1
πρίγκιπα 1
δευ@@ 1
δικά 1
επαφή 1
αγωνιστική 1
κανείς 1
μεταφορά 1
κου 1
Καριέρα 1
1962 0.8035273371871273
χρώματα 1
λόγ@@ 1
τάξη 1
Μονή 1
άρχη 1
επανάσταση 1
συγκεκριμένη 1
ξεκίνησαν 1
Που@@ 1
1956 0.8290851172638977
Ζαν 1
σύ@@ 1
ρός 1
Γιώργος 1
ακού 1
άτα 1
Μορ@@ 1
μοναστήρι 1
βα@@ 1
πλοίο 1
B 0.3378637093364342
Πρόκειται 1
ζόταν 1
άτο 1
Σί@@ 1
τηλε@@ 1
μοναδικό 1
ομιλ@@ 1
γλωσσ@@ 1
Μπέ@@ 1
Βου@@ 1
συχν@@ 1
Ελισάβετ 1
υπηρε@@ 1
ιώ@@ 1
35 0.8060061104194234
διών 1
συμπερι@@ 1
Δύο 1
Λονδίνου 1
ισχυρ@@ 1
διότι 1
ΦΚ 1
προϊόντα 1
Πειραιά 1
κεφαλ@@ 1
Ακαδημία 1
διαφορετικά 1
πεζ@@ 1
αμβ@@ 1
λλα 1
ατα 1
ματικές 1
σεν@@ 1
ερμηνεία 1
πίεση 1
ην 1
ημένα 1
νου 1
κεντρικό 1
λέει 1
Κ. 1
δίδ@@ 1
ξεν@@ 1
αντά@@ 1
ειά 1
Γη 1
μού 1
κομμάτια 1
Φαρ@@ 1
ίσματα 1
Ανατολικής 1
βεν@@ 1
όπουλου 1
Λί@@ 1
εθνικ@@ 1
επίπεδα 1
βιομηχανία 1
όνο 1
εδώ 1
νεο@@ 1
Τελ@@ 1
καταστροφή 1
Καζ@@ 1
σκλη@@ 1
Σημ@@ 1
ερω@@ 1
μεγαλύτερες 1
δεκαετίες 1
νες 1
ίος 1
ευσε 1
θύ@@ 1
δίσκο 1
τοξ@@ 1
κατάκτηση 1
πν@@ 1
μικρές 1
οικονομικά 1
μυθιστόρημα 1
παθ@@ 1
σταθερ@@ 1
Τι@@ 1
ογράφ@@ 1
Αυτός 1
αποκλειστικά 1
δυτική 1
ρή@@ 1
κοιν@@ 1
όντα 1
πυρ@@ 1
μεταφέρθηκε 1
μπα 1
Μάν@@ 1
θέν@@ 1
μετονομάστηκε 1
ινο 1
μεθυλ@@ 1
ακολουθ@@ 1
αρχικό 1
1919 0.9422471051365786
Ομοσπονδία 1
Στους 1
έρας 1
αρχίας 1
επόμενα 1
Υόρκης 1
δουλειά 1
πράξη 1
αίας 1
μόνη 1
λέγεται 1
ιου@@ 1
γκο 1
Σοσιαλ@@ 1
αντίδραση 1
παραδ@@ 1
Νό@@ 1
δίκτυο 1
τυχ@@ 1
μισό 1
απλά 1
μάλλον 1
ρούν 1
ορισμένα 1
κων 1
Τιμ@@ 1
άρκ@@ 1
ιστικές 1
κείμενο 1
λογία 1
ασσ@@ 1
στρα@@ 1
κάποιος 1
Φρ@@ 1
δοκιμ@@ 1
1955 0.8778909817319265
ακού@@ 1
λεπ@@ 1
διαγωνισμό 1
ιστή 1
κορυφ@@ 1
πληρ@@ 1
πόλεμος 1
τισ@@ 1
Πολιτειών 1
φυσικό 1
Φλ@@ 1
Σάν@@ 1
μακριά 1
ανεξαρτησία 1
βγ@@ 1
συγκεκριμένο 1
Τά@@ 1
Κρ@@ 1
ενότητα 1
βρεθεί 1
εξέγερση 1
ετ 1
οποίησης 1
s@@ 0.10404028992779023
σενάριο 1
άντ 1
ολογικό 1
κατοχή 1
φύση 1
1959 0.8217172071249866
αγορ@@ 1
is 0.015316032698582114
δω@@ 1
γερμανική 1
γγ@@ 1
ακής 1
Αγγλ@@ 1
άδης 1
e 0.12467064307895945
διοικητής 1
Z@@ 0.19424977733755258
πέτυχε 1
δια 1
επιστρέψει 1
ασφαλ@@ 1
συνδυασμό 1
Αμπ@@ 1
καλαθοσφαίρισης 1
ταχύτητα 1
μιν@@ 1
ούμενη 1
δούκας 1
λου 1
βρεταν@@ 1
Βρετανία 1
ενς 1
σεως 1
Θεοδ@@ 1
συνέπεια 1
1942 0.7143931299265148
αναφορές 1
πλήρως 1
πλο@@ 1
γιου 1
παλιά 1
λιθ@@ 1
— 0.04079113484180767
σταθμό 1
χώ@@ 1
Κέντρο 1
Τ 1
ιμο 1
ριών 1
αξίωμα 1
πολης 1
φυσικά 1
φύ@@ 1
Λευκ@@ 1
κρά@@ 1
υπουργ@@ 1
παραλ@@ 1
Βά@@ 1
άνος 1
ζώνη 1
ρικής 1
άδων 1
άνοντας 1
διεθνής 1
σειρές 1
Ελληνικής 1
Σπ@@ 1
αίων 1
al 0.05434948488435299
Βαλκαν@@ 1
αστικό 1
μονάδες 1
παιδ@@ 1
p 0.33247934542612434
τήσει 1
ζώα 1
αποκτήσει 1
Μακεδονία 1
κόμης 1
εθνικό 1
κατασκευάστηκε 1
οντες 1
ref 1
ηγε@@ 1
Μαζί 1
ίς 1
ποδόσφαιρο 1
1951 0.921710791031406
Ενότητα 1
Αργ@@ 1
ακολούθησαν 1
υπόλοιπο 1
διεκδικ@@ 1
Δ. 1
Στρατού 1
Ρά@@ 1
ερς 1
πλήρη 1
ηδ@@ 1
παρακ@@ 1
ορ 1
Έν@@ 1
έφυγε 1
γραφής 1
εθν@@ 1
1922 1
ματικής 1
απαγορ@@ 1
Ντέ@@ 1
κίν@@ 1
λή@@ 1
σταδιακά 1
ΦΕΚ 1
μεγάλος 1
Υπουργείο 1
οικονομία 1
προσωπικό 1
άρη 1
δυσ@@ 1
ικώς 1
κλίμα 1
βου@@ 1
Επανάσταση 1
πλαίσια 1
εκδ@@ 1
Μερ@@ 1
1936 0.8373606537602375
όπουλο 1
έφεραν 1
αέρα 1
βία 1
μελε@@ 1
Ακαδημίας 1
ζονται 1
πωλ@@ 1
ήτη 1
μές 1
υπάγεται 1
λιν 1
οικισμό 1
λίγα 1
εκτελ@@ 1
ουσιαστικά 1
Εθνικού 1
θεση 1
άτες 1
λιά 1
ότες 1
ερχ@@ 1
φυσι@@ 1
κυβερνη@@ 1
μείωση 1
φοβ@@ 1
ασίας 1
κατασκευής 1
επιβ@@ 1
άγεται 1
ίζονταν 1
1949 0.7882664647044778
Αυστρίας 1
βασίζεται 1
P 0.6102961253895126
αϊκ@@ 1
σύγκρουση 1
τήρ@@ 1
ειδών 1
βρίσκονταν 1
χρησιμοποίησε 1
Βόρειας 1
ετία 1
U@@ 0.24554077268169716
απαρ@@ 1
γερμανικά 1
ρν@@ 1
άνων 1
βραβεία 1
ντα 1
αναγ@@ 1
αποικ@@ 1
δά@@ 1
Κωνσταντίνου 1
ανήκουν 1
l 0.09146159366608347
γυ@@ 1
επιθέσεις 1
γραμμ@@ 1
νευ@@ 1
la 0.007035980093621098
απελευθερ@@ 1
δυναμ@@ 1
πανεπιστήμιο 1
σύζυγο 1
Κέν@@ 1
αστικά 1
σερ@@ 1
Αίγυπτο 1
χτίστηκε 1
ανέφερε 1
φέρεται 1
Μόν@@ 1
εγκαταστάθηκε 1
ολογικές 1
μετακόμισε 1
ούμενος 1
όσα 1
ίβ@@ 1
ηκαν 1
καλλιεργ@@ 1
μπού@@ 1
Αλλά 1
Ύ@@ 1
άρθρο 1
γκα@@ 1
1957 0.8027802202997913
Έγινε 1
χώρου 1
J@@ 0.17517608428191817
λου@@ 1
μαθητές 1
Ασίας 1
είσ@@ 1
πτ@@ 1
Νικόλαος 1
παρόμοια 1
Νι@@ 1
1938 0.768540407630101
δομ@@ 1
Μπα@@ 1
Λουδοβίκος 1
ταξ@@ 1
45 0.7204558583166616
βραβ@@ 1
ουντ 1
φλ@@ 1
κάτοικοί 1
ονομαζόταν 1
πίνακας 1
παγκόσμια 1
στες 1
πια 1
γράμματα 1
θους 1
ήχ@@ 1
αστυνομ@@ 1
διακοσμ@@ 1
ανακοινώθηκε 1
θω@@ 1
οφείλεται 1
άθ@@ 1
τησης 1
λόγος 1
Αλεξ@@ 1
νίκησε 1
ίσθηκε 1
πιθανότατα 1
0,@@ 1
ανάπτυξης 1
αναπτύχθηκε 1
1952 0.8027831223742402
τελε@@ 1
ιστορική 1
στεγ@@ 1
τικότητα 1
βρέθηκαν 1
κ.ά. 1
Ισραήλ 1
γήπεδο 1
τέθηκε 1
ημένες 1
όρα 1
βασίλισσα 1
γειτον@@ 1
τεν 1
Χ 1
βρ@@ 1
Αττικής 1
Σερβίας 1
Φεστιβάλ 1
Νέ@@ 1
ούρα 1
ωμένα 1
αισθη@@ 1
βιομηχαν@@ 1
λαμβάνει 1
ότερους 1
g 0.26112398646839324
κοινού 1
1924 0.9971041793477455
άνθρωπος 1
ησή 1
ιους 1
μάχ@@ 1
ησ@@ 1
Αυτές 1
Αμερικαν@@ 1
Ρομ@@ 1
χωρ@@ 1
αριθμ@@ 1
Αυτά 1
ύλ@@ 1
νικ@@ 1
ακά 1
Σού@@ 1
Ζ 1
άκ 1
φως 1
συμφ@@ 1
Μπέρ@@ 1
άσι@@ 1
ντε@@ 1
Ινστιτούτο 1
διεξήχθησαν 1
ευκαιρία 1
πρώτοι 1
οποιήθηκε 1
φτάσει 1
1927 1
όνος 1
Απεβίωσε 1
κοινωνική 1
συνδέεται 1
παι@@ 1
περιφερ@@ 1
αλι@@ 1
κατακτήσει 1
ξή 1
εμπόριο 1
λεϊ 1
πρόκειται 1
άτη 1
τάν 1
γίνονται 1
ρισ@@ 1
φι@@ 1
Ινδία 1
αμερικαν@@ 1
μουσείο 1
γνώ@@ 1
νας 1
δεξιά 1
χαρακτηρίζεται 1
ώνης 1
Μπεν@@ 1
Ρώμης 1
άσκ@@ 1
έρι@@ 1
σπίτια 1
V 0.5027813869031974
παρατηρ@@ 1
σημαία 1
400 0.8857710147894282
Σαν@@ 1
σωματ@@ 1
ντα@@ 1
Κρι@@ 1
ανι@@ 1
μνημείο 1
κλασ@@ 1
βασιλείας 1
λευκ@@ 1
Τρί@@ 1
ετα@@ 1
κατάστασης 1
οικογένειά 1
απελευθέρωση 1
παγκοσμίως 1
ϊκ@@ 1
um 0.11494878066277205
οχή 1
περιλαμβάνονται 1
e@@ 0.1394711316073196
θο 1
οδηγεί 1
Μιλ@@ 1
τιμές 1
υποστήριξε 1
ητο 1
πλατ@@ 1
άκια 1
συγγραφείς 1
βρήκε 1
λίγες 1
περισσότερους 1
λαντ 1
αγγλ@@ 1
θεν@@ 1
ώνται 1
πέρα 1
ιστορικός 1
τίτλους 1
1953 0.8122457429516309
εκδόθηκε 1
µ@@ 1
Ανατολική 1
Σχολής 1
κοινωνία 1
επιβεβαι@@ 1
μελέτες 1
ογεν@@ 1
συμπεριφορά 1
κριτικές 1
δρά@@ 1
σύμβολο 1
υκλ@@ 1
αντιμετωπ@@ 1
δέχτηκε 1
φαινόμενο 1
υπό@@ 1
Άρη 1
μόνος 1
εντολή 1
παρέχει 1
ώδης 1
Υόρκη 1
Δημήτριος 1
ανεξάρτη@@ 1
ίλα 1
αναγκάστηκε 1
ρεύ@@ 1
χρω@@ 1
1929 0.9027261377240091
ιστορικά 1
ικος 1
1954 0.7784866689447439
γάμος 1
ευρέως 1
πόλ@@ 1
δοκ@@ 1
χωρών 1
σο 1
βόρειο 1
ησι@@ 1
Βρεταν@@ 1
έπεσε 1
Οικονομ@@ 1
ήσεως 1
Αυτοκράτορα 1
παλαιότερα 1
Αφ@@ 1
διεξ@@ 1
κείμενα 1
ζη@@ 1
Ομ@@ 1
επισκ@@ 1
Δυτικής 1
αρχίζει 1
ωρι@@ 1
γενική 1
τμήματος 1
όλ 1
Όλ@@ 1
πλατεία 1
προστατ@@ 1
σιμη 1
όμενων 1
Γκά@@ 1
ριακή 1
ειακό 1
εμφανίζονται 1
τίου 1
1935 0.8677460915812203
άτου 1
ανατολικό 1
ρίζουν 1
πρόσβαση 1
ιατρ@@ 1
κύριος 1
ευρώ 1
Πρά@@ 1
χθεί 1
τζ 1
Μ 1
σκοτ@@ 1
διακρι@@ 1
θανάτου 1
άμ 1
ημερολόγιο 1
ιακά 1
Δυτική 1
Αι@@ 1
αντα@@ 1
καλύτερα 1
παρατ@@ 1
τοπικό 1
διαλύ@@ 1
χιλιομέτρων 1
απέκτησαν 1
ευε 1
συγγραφέα 1
χορηγ@@ 1
άσματα 1
έσει 1
τισμός 1
συμφων@@ 1
Νίκος 1
αρχι@@ 1
συμμαχ@@ 1
υδρ@@ 1
ίδι 1
Θέ@@ 1
νόμο 1
άνεται 1
αεροπο@@ 1
εχθρ@@ 1
μενος 1
Λάν@@ 1
φρου@@ 1
εκλογή 1
κεν@@ 1
συνταγ@@ 1
άμεσα 1
Άλλες 1
λίστα 1
ξέν@@ 1
n@@ 0.14667256922480743
αγώνων 1
Μιν@@ 1
όνου 1
ουσία 1
αρχαίας 1
γης 1
επιχείρηση 1
θέα 1
μυθολογία 1
μοναδική 1
στούντιο 1
Γεω@@ 1
b 0.27334659017940655
συλλογ@@ 1
Βουλή 1
άριος 1
αγώνας 1
μεγάλων 1
νόμ@@ 1
τορας 1
Ρού@@ 1
εκφρά@@ 1
μονάδα 1
ύλου 1
ιζε 1
συμμετάσχει 1
Αϊ@@ 1
Σχ@@ 1
θεραπ@@ 1
Σοβιε@@ 1
υκ@@ 1
χολ@@ 1
υθ@@ 1
δοθεί 1
πού@@ 1
Πόλεμος 1
δολοφονία 1
αναπαρ@@ 1
3.@@ 1
M 0.47275921886965755
λαϊκ@@ 1
μαθηματ@@ 1
έλη 1
γα 1
ιδιότητες 1
πεί@@ 1
παίκτες 1
δημιουργήσει 1
ράφ@@ 1
έντονα 1
er 0.029186784418632546
περιγράφει 1
Τμήμα 1
έδωσαν 1
τάξης 1
ώνων 1
Ε.Π.Σ. 1
Ξεκίνησε 1
αναγκα@@ 1
διαίρεση 1
διοργανώσεις 1
Τεχν@@ 1
ενσωματ@@ 1
πόδια 1
τηρίου 1
μνήμη 1
πρώτους 1
τέτοια 1
δημοσίευσε 1
T 0.4544175601204
οθέ@@ 1
κε@@ 1
διεθνείς 1
παίζει 1
Κινηματογράφου 1
δημοτική 1
ερευνη@@ 1
νών 1
ιζόταν 1
Ν. 1
ηλικίας 1
1926 0.9514120690791161
ΑΕΚ 1
ανδρ@@ 1
ασμό 1
σαρ@@ 1
el 0.015477537703073767
πο 1
δημο@@ 1
επαρχίες 1
Ού@@ 1
ασθεν@@ 1
Ε. 1
ρασ@@ 1
πλήθος 1
οικονομ@@ 1
οϊ@@ 1
ωσ@@ 1
Βο@@ 1
αιτ@@ 1
δες 1
χη 1
πρόσωπα 1
αποστ@@ 1
είσοδο 1
τάν@@ 1
χρόνων 1
όνας 1
άσης 1
κύκλο 1
ονα 1
σού@@ 1
τάφ@@ 1
ολοκληρω@@ 1
όροι 1
αίν@@ 1
Γιάννης 1
κατάληψη 1
πραγματικό 1
ατο@@ 1
ούμενο 1
Καλλι@@ 1
επέκταση 1
Κάστρο 1
μής 1
σβ@@ 1
χλμ 1
γινόταν 1
Μέσα 1
εκκλησι@@ 1
στό 1
Σύνταγμα 1
άνοιξε 1
ανάλυση 1
σει@@ 1
Λα 1
γενν@@ 1
διάσ@@ 1
Αιγύπτου 1
βασικό 1
es 0.029318320458009743
βαθ@@ 1
καλή 1
ia 0.21857937514982112
θεωρούνται 1
συνθήκη 1
διαφόρων 1
χρήματα 1
αμφ@@ 1
ικανότητα 1
μικρότερο 1
νεφ@@ 1
παπ@@ 1
Ιστορικό 1
ζωνταν@@ 1
εβδομάδες 1
τηθεί 1
ντι 1
οποιαδήποτε 1
λαχ@@ 1
Στάδιο 1
2η 1
περιόδους 1
άδεια 1
αρχος 1
γεωργ@@ 1
1933 0.7458161761986929
Ολλανδ@@ 1
σεν 1
Τζέιμς 1
δέ@@ 1
άριο 1
αίες 1
απειλ@@ 1
Γενικά 1
πολύ@@ 1
ιδιω@@ 1
πρόεδρο 1
ασχολήθηκε 1
μά 1
Επιστ@@ 1
αμά@@ 1
Ουγγαρίας 1
Αβ@@ 1
Ιδρύθηκε 1
μελλον@@ 1
Θέατρο 1
Κωνσταντινούπολης 1
αρχιτεκτονική 1
θει@@ 1
Εγ@@ 1
Υπάρχει 1
όσον 1
Ντου@@ 1
αμ 1
ψήφ@@ 1
μεγαλύτερα 1
οικισμού 1
δείξει 1
ισμένα 1
στάση 1
Ρόμπερτ 1
ποταμός 1
γλυκ@@ 1
άφησε 1
απεικον@@ 1
αυτοκράτορας 1
εταιρείες 1
1934 0.831542067175963
Ρέ@@ 1
μητέρας 1
άνουν 1
οειδή 1
υποψήφιος 1
-- 1
υπήρξαν 1
Αφρικής 1
χρονολογείται 1
Καρόλου 1
τηλεοπτική 1
λειτουργίας 1
ότεροι 1
φέρουν 1
Ευρωπαϊκή 1
Παρισιού 1
ϊ 1
δημοσιεύ@@ 1
1937 0.7545067049665148
νησι@@ 1
όδου 1
εννέα 1
χέρι 1
χρησιμοποι@@ 1
πακ@@ 1
Περσ@@ 1
φος 1
πολιτικών 1
Νικολ@@ 1
ιστικού 1
γράφτηκε 1
γράψει 1
Κρί@@ 1
φαντα@@ 1
παραμ@@ 1
κ.α. 1
εύσει 1
ζωγράφος 1
μαθήματα 1
πώς 1
μάχες 1
τερο 1
επιτρέπει 1
ιακές 1
Πορ@@ 1
Συνολικά 1
αναλάβει 1
δίσκος 1
ψηλ@@ 1
οθε@@ 1
όργανα 1
Αυστραλία 1
1923 0.9516120296810602
Πολων@@ 1
όλου 1
ιδών 1
μι 1
σχηματ@@ 1
κεφάλι 1
φωτο@@ 1
X@@ 0.42252182398094484
ηλεκτρο@@ 1
Αχαΐας 1
Διακ@@ 1
Τουρκ@@ 1
Ελευθερ@@ 1
έντονη 1
Καλλ@@ 1
πρότεινε 1
βιβλιοθήκη 1
κίνδυνο 1
παραστάσεις 1
περιστ@@ 1
δας 1
ακτές 1
εκτέλεση 1
διο 1
εύκολα 1
ογραφ@@ 1
φάν@@ 1
κόμ@@ 1
1932 0.8656748715144319
αιώνες 1
ενέργειες 1
ιδιαίτερη 1
Πολλοί 1
αρίου 1
πολιορκία 1
Κί@@ 1
ίκης 1
προπονητή 1
Εύ@@ 1
προηγ@@ 1
μετά@@ 1
ξεων 1
Ολυμπιακό 1
δολοφον@@ 1
κατεύθυνση 1
ομώνυμο 1
πεν@@ 1
φυλ@@ 1
όγκ@@ 1
https 1
θαν@@ 1
πρωταγων@@ 1
υνση 1
χαρακτήρες 1
φωτός 1
Αχ@@ 1
ριά 1
υπόλοιπα 1
αθλητές 1
Αραβ@@ 1
εκκλησίας 1
προγράμματος 1
Κρήτη 1
ημένος 1
έλι@@ 1
αμυν@@ 1
Ατ@@ 1
όφιλ@@ 1
Χίτλερ 1
αύ@@ 1
N 0.530709384739762
Αμερικανός 1
δων 1
πυρην@@ 1
Τεχνών 1
Ειδ@@ 1
αρτη@@ 1
ητα 1
Γερμανοί 1
Ερρίκου 1
εκτελε@@ 1
τραγουδ@@ 1
παρο@@ 1
ταξίδι 1
τουριστ@@ 1
ανών 1
εγκαταστάσεις 1
κτίρια 1
συνέ@@ 1
παραιτήθηκε 1
σιν@@ 1
λάβ@@ 1
πολιτικά 1
βασιλική 1
συμπεριλαμβ@@ 1
ακ 1
δίσκου 1
χώρους 1
κέντρα 1
σοσιαλ@@ 1
φιλοξεν@@ 1
θλ@@ 1
κοινων@@ 1
φά@@ 1
φήμη 1
δίκη 1
αναγνώριση 1
κάν@@ 1
Καμπ@@ 1
‘ 0.8370112715925873
ing 0.04886306927769739
τέτοιο 1
ημερομηνία 1
οικοδομ@@ 1
an 0.01730720447334859
Αρχι@@ 1
ητήριο 1
συρ@@ 1
εγκαταστάθηκαν 1
Φίλιππος 1
στυλ 1
Εν 1
Να@@ 1
μικρ@@ 1
κανένα 1
μπεργκ 1
φαιν@@ 1
Βουλγαρία 1
ισμένος 1
μεν 1
1917 0.827398255045848
καταρ@@ 1
ραφ@@ 1
Κέ@@ 1
βοηθήσει 1
Αρχαι@@ 1
εξέ@@ 1
Ουρ@@ 1
θάλασσας 1
ένιο 1
κατέλαβαν 1
Κουρ@@ 1
Μαγ@@ 1
τουργ@@ 1
μετακιν@@ 1
1925 0.8970650059707556
Πολεμ@@ 1
γερμ. 1
ριακό 1
Στά@@ 1
υγείας 1
Τερ@@ 1
Γκι@@ 1
στοιχείων 1
πατρι@@ 1
Συνθήκη 1
προσφέρει 1
διώ@@ 1
ιστικών 1
στηκε 1
εύθηκε 1
άμεση 1
Λουδοβίκου 1
ακτή 1
όμενου 1
σα@@ 1
Σερβ@@ 1
ανθρωπ@@ 1
κοινότητες 1
Κόν@@ 1
ρωσ@@ 1
αρχαιότητα 1
πλούσια 1
Διαδ@@ 1
προέρχονται 1
γων@@ 1
επανα@@ 1
περιοδεία 1
Μεν@@ 1
κωμ@@ 1
βολής 1
βοήθησε 1
ονία 1
γραμματ@@ 1
μικρότερη 1
ονομάζονται 1
βρά@@ 1
ραδιοφ@@ 1
Ελληνικό 1
ρικό 1
εντελώς 1
συμμετέχει 1
πίνακες 1
ανάγκη 1
ριση 1
μενη 1
ήθ@@ 1
χρυσ@@ 1
ωνικής 1
συμπεριλαμβανομένου 1
απόψεις 1
Γ. 1
ιατρική 1
μειον@@ 1
οβιτς 1
πετρ@@ 1
ρευ@@ 1
επιτροπή 1
πόλεων 1
τρου 1
βυζαντιν@@ 1
σμοί 1
στερε@@ 1
εκείνος 1
οδήγησαν 1
γιους 1
μεταβλ@@ 1
πραγματοποι@@ 1
στρω@@ 1
Αλ 1
τεκ@@ 1
ιων 1
πουλ@@ 1
πάν@@ 1
επεισόδιο 1
παράσταση 1
Λίγο 1
33 0.8465601469428525
G 0.46038631023482934
σύλλογο 1
άκρο 1
Κεντρική 1
κύπελλο 1
ουσες 1
Πολιτική 1
Επειδή 1
υπέστη 1
άνδρα 1
τηλεόραση 1
ίτσα 1
Σελ@@ 1
επίσημο 1
λω@@ 1
κρε@@ 1
κυνηγ@@ 1
αυλή 1
δίν@@ 1
νου@@ 1
ακαδημαϊκ@@ 1
Γης 1
σοβιε@@ 1
τοί 1
Σαιν 1
τελευταίες 1
ισμοί 1
πυ@@ 1
υλικά 1
δ 1
περιέχουν 1
διορ@@ 1
ποικιλία 1
πρακτική 1
πυρο@@ 1
Βραβεία 1
λεξ@@ 1
όντ@@ 1
τετρα@@ 1
παρουσίασε 1
ανατολ@@ 1
πρεσβ@@ 1
k 0.17905444457868588
πατρίδα 1
1914 0.7834213555096802
έργ@@ 1
Βολ@@ 1
Πεν@@ 1
έλλειψη 1
Μάλιστα 1
Γουλιέλμος 1
στρατόπεδο 1
τω 1
κάρ@@ 1
όφων@@ 1
θια 1
E 0.4197976605268298
και@@ 1
συμβούλιο 1
άδη 1
διευ@@ 1
ρές 1
χλ@@ 1
ούζ@@ 1
c@@ 0.14181727794585403
Συγκεκριμένα 1
ήριο 1
Μυ@@ 1
ιδίως 1
κύτταρα 1
άτων 1
προστ@@ 1
διαμέρισμα 1
ερευν@@ 1
πασ@@ 1
ἐ@@ 1
στασης 1
νότιο 1
προέδρου 1
Σ. 1
εκπαίδευσης 1
ωνας 1
μπήκε 1
χειρ@@ 1
Δανίας 1
σπάνια 1
αποφ@@ 1
εξέδωσε 1
ς.@@ 1
χυ@@ 1
σκηνές 1
κρίση 1
Έδρα 1
ητικές 1
διάφορους 1
δαλ@@ 1
Πρώ@@ 1
εργάζεται 1
εξουσίας 1
κη@@ 1
πράξεις 1
αντιπροσωπ@@ 1
Eurovision 1
Περιφέρεια 1
ετή 1
μικρός 1
αιώνας 1
επιφαν@@ 1
Εταιρείας 1
ελε@@ 1
προγράμματα 1
στρατηγός 1
άσθηκε 1
Γάλλος 1
ποδοσφαιρική 1
Βελ@@ 1
Μπό@@ 1
σχετίζεται 1
υψηλή 1
βουλευτικές 1
ανία 1
φυλακή 1
Σερβία 1
ακών 1
στρατηγ@@ 1
θεωρήθηκε 1
ταινιών 1
υποστηρίζει 1
ωγ@@ 1
La 0.04383427441139862
άνει 1
h 0.21430680314679562
αστές 1
εμπορική 1
Ιερουσαλήμ 1
εκπομπή 1
μάτια 1
σχολεία 1
βρει 1
εύουν 1
μουσικό 1
χρήσης 1
διοργάνωσης 1
βας 1
θανά@@ 1
τούτου 1
άλας 1
αρν@@ 1
στικός 1
διάδοχος 1
τσο 1
φτάνει 1
κτήριο 1
τρόπος 1
0@@ 0.6716851938496213
καριέρας 1
μπά@@ 1
συμβαίνει 1
τήθηκε 1
ακριβ@@ 1
Μαρίας 1
Οικ@@ 1
ιές 1
Μασ@@ 1
Επαρχία 1
ίκη 1
προσωπ@@ 1
τρέ@@ 1
k@@ 0.14340968249526584
m@@ 0.15252623256458628
εισαγωγή 1
κατε@@ 1
i@@ 0.1823994770026972
απόδοση 1
μου@@ 1
νέας 1
Κυβέρνηση 1
ιδρυ@@ 1
τοποι@@ 1
ενα@@ 1
ιδρύ@@ 1
ώδες 1
Κεντρικής 1
Παι@@ 1
Ιωαννίνων 1
μητρο@@ 1
ερείπια 1
Ρο@@ 1
Τούρκους 1
Σιν@@ 1
μερ 1
Μπάρ@@ 1
Αυγ@@ 1
απόλυτο 1
μπλ@@ 1
γραφία 1
εκπροσωπ@@ 1
75 0.8583886019626003
τιμήν 1
αισ@@ 1
έμβ@@ 1
τραγουδιού 1
New 0.08940674060846705
τισμό 1
εργαζ@@ 1
λογική 1
πολη 1
Βασιλιά 1
Μπαλ@@ 1
τέταρτη 1
αυλ@@ 1
ευτεί 1
d@@ 0.121059879951966
δία 1
Πέτρος 1
Τζι@@ 1
αρντ 1
σκόπ@@ 1
τωση 1
άλλος 1
έρτο 1
Νικολάου 1
Κοινοβούλιο 1
άξ@@ 1
ίτσ@@ 1
u 0.17657084234427234
19ο 1
36 0.8077761758077889
ροπ@@ 1
αξιοσημείω@@ 1
δείχνουν 1
γν@@ 1
ήν 1
ογράφος 1
1913 0.9341706575251556
1931 0.8170618908106586
βασιλείου 1
χε 1
ίδιας 1
ρισμός 1
Σοβιετικής 1
Αστ@@ 1
πολιορκ@@ 1
Συμ@@ 1
πη 1
τουρνουά 1
συνολικό 1
Θ 1
Ματ@@ 1
Νότιας 1
Σοφία 1
Φραγκ@@ 1
τουρκική 1
ούντα 1
όφ 1
ανικά 1
εδάφους 1
παράγει 1
ρίστηκε 1
χειμώνα 1
Γιου@@ 1
κόμματα 1
ριες 1
παράγοντες 1
ποδοσφαι@@ 1
άντρες 1
αίος 1
Τρο@@ 1
εκτιμάται 1
σκοτώθηκε 1
ιερό 1
κανάλι 1
όπλα 1
όργανο 1
Βιβλιοθήκη 1
γραμμής 1
μένει 1
μολ@@ 1
αγγέλ@@ 1
δράσης 1
Αδ@@ 1
τέτο@@ 1
ακές 1
πρίγκιπας 1
περιοχών 1
Αποτελεί 1
ξη@@ 1
c 0.18804909377968607
επίσκοπος 1
νησ@@ 1
μων 1
34 0.8392343117237505
θέσης 1
ιδέες 1
Αυστρία 1
δικαι@@ 1
φεστιβάλ 1
λαμβάνουν 1
εκείνο 1
ξεκινήσει 1
Αζ@@ 1
βραχ@@ 1
κυριαρχ@@ 1
κ. 1
μενο 1
τορ 1
Επίσ@@ 1
ευτική 1
εκδηλώσεις 1
ορισμός 1
μπαλ@@ 1
τερματ@@ 1
Διεθνές 1
άγει 1
λογοτεχν@@ 1
γαλλ@@ 1
ιδε@@ 1
Ομοσπονδίας 1
γει@@ 1
πιθανόν 1
άνοιξη 1
αποχώρησε 1
συμμετέχουν 1
Γκλ@@ 1
νύχτα 1
Βλ@@ 1
Φορ@@ 1
επιστολή 1
ρίσ@@ 1
γέφυρα 1
όρε@@ 1
a@@ 0.19925181489344407
Μετ@@ 1
μνημ@@ 1
έχουμε 1
αστεροειδής 1
ισχύ 1
θρησκεία 1
Κώστας 1
αστής 1
κυκλοφόρησαν 1
Καθολ@@ 1
y@@ 0.15039151602165135
ποιητής 1
Δω@@ 1
θησης 1
Κρά@@ 1
ουδ@@ 1
ραμ@@ 1
Νο@@ 1
Τόμας 1
Αυστ@@ 1
περιελάμβανε 1
ωθούν 1
διω@@ 1
μέθοδος 1
λογαριασμό 1
γκεν 1
ζευγάρι 1
επέ@@ 1
έλθει 1
τηρ@@ 1
Τουρκίας 1
Τε@@ 1
διαδρομή 1
ιάν@@ 1
ζυγ@@ 1
οικισμούς 1
τεράστια 1
χεί@@ 1
γνωστές 1
χρή@@ 1
βάσει 1
Παγ@@ 1
προκαλεί 1
προ 1
ρισμό 1
δεί@@ 1
4.@@ 1
βασιλεία 1
έφτασαν 1
κή@@ 1
υψηλής 1
τισαν 1
Ευρωπαϊκής 1
at 0.01891491743060184
ανάγκες 1
επάνω 1
τιν 1
δραστηρι@@ 1
αναλ@@ 1
ελέγχου 1
σκόρερ 1
Πρωταθλήματος 1
άντο 1
συμμαχία 1
συνεδ@@ 1
γερ@@ 1
τοποθε@@ 1
Αλβαν@@ 1
ίκ 1
πλευρές 1
Εθν@@ 1
τυπο@@ 1
σχετίζονται 1
φρούριο 1
σύμβουλος 1
είτο 1
αραβ@@ 1
χαμηλ@@ 1
σύζυγός 1
προτιμ@@ 1
Βουλής 1
Μόσχα 1
αντιδράσεις 1
ιον@@ 1
Αδρι@@ 1
βίας 1
μεγέθους 1
νομοθε@@ 1
προώθηση 1
διέταξε 1
ενεργό 1
ομένων 1
απαι@@ 1
διαν@@ 1
μακρο@@ 1
K 0.47313904817984265
πράγμα 1
τροχ@@ 1
επιχειρηματ@@ 1
ισχυρή 1
νόμου 1
προσέγγιση 1
Βάλ@@ 1
φόρο 1
ποιν@@ 1
1900 0.8416525491552886
Μ. 1
σιμα 1
Γερμανούς 1
ισμα 1
σελίδα 1
σώματα 1
τεχνικές 1
Αυ@@ 1
ατσ@@ 1
εϊ 1
Επιστημών 1
όνης 1
μοντέλα 1
άτης 1
ασίες 1
ποδ@@ 1
θου 1
λαμ@@ 1
περιοδ@@ 1
Ανατολή 1
Λος 1
Τύ@@ 1
Φυσικά 1
άνθρωπο 1
οδος 1
ραν 1
επιτυχίες 1
ταξι@@ 1
Υπουργός 1
φιλοσοφία 1
έλι 1
δουλ@@ 1
παιχνιδιού 1
φίλ@@ 1
απώλεια 1
εκκλησίες 1
παραδοσιακά 1
ταφ@@ 1
όλης 1
δρόμους 1
συνεχώς 1
χοι 1
Λαμ@@ 1
διαπ@@ 1
προσοχή 1
Παντρεύτηκε 1
μπρ@@ 1
νωρίτερα 1
νερ 1
ποσ@@ 1
ίλι@@ 1
εκλογών 1
μητ@@ 1
πρά@@ 1
θέτει 1
πρόσφατα 1
Ανδρέα 1
εξαφαν@@ 1
ρασε 1
πυροβολ@@ 1
55 0.9470885658185135
άται 1
επαναστατ@@ 1
απογ@@ 1
ασμένο 1
τροποποι@@ 1
αντίσταση 1
12@@ 1
r 0.30586515473194625
Στρατ@@ 1
ασμένη 1
επαγγελματ@@ 1
προηγούμενη 1
ολοκληρ@@ 1
γυναικ@@ 1
Ρωμαϊκή 1
νοτιοδυτικά 1
ρικ@@ 1
αστερ@@ 1
ότερων 1
βαση 1
υψηλ@@ 1
κατοικία 1
στηρι@@ 1
Ελληνικού 1
πυκν@@ 1
Διετέλεσε 1
Επικ@@ 1
εικ@@ 1
Δημήτρης 1
ελά@@ 1
00 0.8264735386370987
κρύ@@ 1
Εταιρεία 1
κατηγορ@@ 1
Ιστορικά 1
αποσπ@@ 1
κάποιον 1
όνιο 1
παίρνει 1
γρ@@ 1
μός 1
περάσει 1
ΠΑ@@ 1
μισθ@@ 1
φορντ 1
ενώσεις 1
ρόλους 1
στικού 1
βορειοδυτικά 1
ισσας 1
μεσαι@@ 1
Ρωμαϊκής 1
Μεγάλου 1
εξαίρεση 1
θημα 1
κοιλάδα 1
Γαλλ@@ 1
Δρά@@ 1
ειακή 1
Δημοτικό 1
ολογικής 1
συνελήφθη 1
εικόνες 1
3η 1
Μόσχας 1
άου 1
κανόνες 1
μπλε 1
προϊόντων 1
Ανακαλύφθηκε 1
επιγραφή 1
επιστημονική 1
άνθ@@ 1
ακου@@ 1
πιθανό 1
ψευδ@@ 1
Ζώνης 1
άλης 1
αρχών 1
ισπαν@@ 1
επιθυμ@@ 1
ητό 1
Ακόμη 1
ετές 1
συνοικία 1
1921 0.7799544164922267
ίλλ@@ 1
προσθήκη 1
άλλου 1
38 0.8158408062234296
κόκκινο 1
καύ@@ 1
αντικ@@ 1
Κ.@@ 1
πλάτος 1
p@@ 0.11390223506335649
Φερ@@ 1
κυβερνήτης 1
σκηνοθέτης 1
βολή 1
άρης 1
κερδίζοντας 1
τουρκ@@ 1
Γκρ@@ 1
Εκείνη 1
Εξωτερικών 1
βασική 1
08 1
βουλγαρ@@ 1
ρίζονται 1
ηττήθηκε 1
δασ@@ 1
παγκόσμιο 1
en 0.006637152870597067
βε@@ 1
έστερ@@ 1
Σ.@@ 1
μεγάλωσε 1
στόχ@@ 1
τ.χλμ. 1
Νυμφεύτηκε 1
λογοτεχνία 1
αυτοκρατορίας 1
ηφ@@ 1
ταξε 1
Θεωρείται 1
μιο 1
φαλ@@ 1
γενιά 1
ευρήματα 1
Μεγάλο 1
αντικαταστάθηκε 1
διαρκ@@ 1
εθνικές 1
έρευνες 1
Πάρ@@ 1
ευνο@@ 1
ματικών 1
di 0.37730505333440184
Επανάστασης 1
Ουγγαρία 1
λύση 1
γένος 1
εκτιμ@@ 1
τραπεζ@@ 1
εγκατέλειψε 1
Πρωτο@@ 1
for 0.012857954734707907
δυτικό 1
χου 1
πωλήσεις 1
σκην@@ 1
φή 1
Οίκου 1
έληξε 1
ινγκ@@ 1
μπο 1
οθ@@ 1
ατικής 1
νους 1
ρόλος 1
Πλά@@ 1
αινε 1
αιρε@@ 1
μαθ@@ 1
τεσσάρων 1
τιση 1
Αντίθετα 1
ανο@@ 1
καλλιτεχν@@ 1
αμφι@@ 1
εβιτς 1
τόν@@ 1
Καπ@@ 1
καταναλ@@ 1
Ηπείρου 1
Ταρ@@ 1
ήλ 1
κατάλ@@ 1
Κόρ@@ 1
δίου 1
ροφής 1
συνολική 1
Φι@@ 1
Π. 1
ασπ@@ 1
Ρωσ@@ 1
ζήτημα 1
ύφος 1
ανέβηκε 1
οθωμαν@@ 1
φα 1
5.@@ 1
Πειραιώς 1
Σουηδία 1
τί 1
κάνοντας 1
πισ@@ 1
Προσ@@ 1
τοπικές 1
ογραφίας 1
g@@ 0.11336556261113426
Αριστο@@ 1
42 0.8842493730989298
αποκλει@@ 1
Άλλα 1
τερα 1
Φρειδερίκος 1
ηματική 1
Ηλιακό 1
τομείς 1
1,@@ 0.7225620618208985
απόκ@@ 1
ωτικό 1
φημ@@ 1
χρονη 1
μείνει 1
επεισόδια 1
ρέφ@@ 1
είχ@@ 1
εδρ@@ 1
20ού 1
Κρατ@@ 1
κυπέλλου 1
Εθνών 1
Χατζ@@ 1
επέτρεψε 1
διαχει@@ 1
ναζ@@ 1
στήρι@@ 1
ποι 1
άσσ@@ 1
παλι@@ 1
συνέβη 1
Καθ@@ 1
μετέ@@ 1
Βορ@@ 1
League 0.19232723381473546
αποτελούσαν 1
δικές 1
ωμένες 1
Τζέ@@ 1
γαμ@@ 1
καταστράφηκε 1
έθεσε 1
ίλι 1
ειδική 1
ειρήνη 1
κατάφεραν 1
II 0.16662701079702394
Έλ@@ 1
Ανδρέας 1
Μηχαν@@ 1
μετάφραση 1
διατηρεί 1
άρων 1
βιβλίων 1
χρη@@ 1
Παρόλο 1
λέξεις 1
πήραν 1
σύγκριση 1
ενισχύ@@ 1
πρότυπο 1
λις 1
Καταλ@@ 1
βορειοανατολικά 1
δέχεται 1
εργασ@@ 1
ινά 1
κινηματογράφου 1
αφιερ@@ 1
δικτύου 1
αίθουσα 1
πεπ@@ 1
ατικά 1
Βερολίνο 1
παρόλο 1
Θάλασσα 1
Λυ@@ 1
εγγ@@ 1
ολοκλήρωσε 1
υπηρέ@@ 1
ανοικ@@ 1
δίνοντας 1
κόμβ@@ 1
Σαβ@@ 1
παρουσιάστηκε 1
ομαδ@@ 1
συνεργάστηκε 1
απλώς 1
αρμ@@ 1
ψήφων 1
όδων 1
Σαξονίας 1
στόχος 1
ήλθαν 1
b@@ 0.11118703855379594
συμπεριλαμβανομένης 1
όρισε 1
ώνιο 1
πεντα@@ 1
γεννημένος 1
παραγωγός 1
πλευ@@ 1
συνδέ@@ 1
ολόκληρο 1
37 0.8481868071361628
κης 1
αναφέρουν 1
Αμφ@@ 1
t@@ 0.09715942200431693
εβδομάδα 1
όμενους 1
1910 0.7882309071048925
λευκό 1
Κίνας 1
αγγλική 1
νοτιοανατολικά 1
Βενετία 1
ελπ@@ 1
ευρύτερη 1
νοσοκομείο 1
Διεθνούς 1
ανε 1
συνάρτηση 1
600 1
πέρασμα 1
παιδιών 1
εκμεταλλ@@ 1
εποχών 1
καταλάβει 1
περ 1
κτη@@ 1
μονής 1
πλανήτη 1
Records 0.5173868237103846
αιτία 1
αυτ@@ 1
επιστ@@ 1
ηχογραφ@@ 1
x@@ 0.3287353208134461
σαλ@@ 1
Καρλ 1
εξω@@ 1
ριμπάουντ 1
σες 1
ραι@@ 1
ύρων 1
εντα@@ 1
ροκ 1
μέρους 1
μορι@@ 1
κληρονομ@@ 1
αμερικανική 1
13@@ 1
οντος 1
Σουηδίας 1
ΕΕ 1
προκρι@@ 1
συμμετοχής 1
φωνή 1
Σέρ@@ 1
διοικητικά 1
πρώτων 1
Βίκ@@ 1
Α.Ο. 1
αυτοκίνητο 1
κάστρου 1
Μο@@ 1
ΕΛ 1
ζώων 1
Μαυ@@ 1
Βυζαντιν@@ 1
Περιγραφή 1
χές 1
σχέ@@ 1
Μάικλ 1
γκου@@ 1
αληθ@@ 1
αντέ@@ 1
ασφάλεια 1
συνδεδε@@ 1
άζονταν 1
πρεμιέρα 1
Οθωμανική 1
χτ@@ 1
αξίας 1
ισμών 1
ούλα 1
τρας 1
όνες 1
επικρατ@@ 1
πραγματοποιήθηκαν 1
Διοικ@@ 1
τάση 1
τίθεται 1
f 0.3172794782854601
ικου 1
συνέχ@@ 1
ρώ@@ 1
καθιερ@@ 1
ούχος 1
τάρ 1
ψία 1
Γεώργιο 1
Καλιφόρνια 1
ανώτερ@@ 1
Βιέννη 1
εταιρία 1
ξεκινά 1
Λιβ@@ 1
Συγκ@@ 1
λιών 1
ρικών 1
προφ@@ 1
ότα 1
Χι@@ 1
συγγεν@@ 1
Νά@@ 1
έψει 1
αριστοκρατ@@ 1
αζαν 1
πολιτισμού 1
αποφοίτησε 1
24@@ 1
μού@@ 1
Παναγίας 1
ξανα@@ 1
πιθανότητα 1
Δούκα 1
πληροφορ@@ 1
Y@@ 0.1875892867943955
World 0.13717338009064467
Άντζελες 1
κατάλογο 1
Προσωπική 1
έρων 1
καθήκοντα 1
ωσή 1
αεροσκάφη 1
μπ 1
τως 1
ηγέτης 1
όμενης 1
κατείχε 1
άδι 1
κλί@@ 1
έλευση 1
μί@@ 1
υχ@@ 1
Μί@@ 1
δεύτηκε 1
Ανδ@@ 1
Θερ@@ 1
Πο@@ 1
λοιπόν 1
λέγοντας 1
στίχους 1
σφαι@@ 1
σίες 1
ωματ@@ 1
αυτοκ@@ 1
διεύθυνση 1
εθελον@@ 1
ενημερ@@ 1
νό 1
πολιτεία 1
ρίστηκαν 1
ότα@@ 1
Ζω@@ 1
Πέτρου 1
στρο@@ 1
Βενετίας 1
διοίκησης 1
εω@@ 1
τέταρτο 1
Χιλ@@ 1
άτ 1
διαγ@@ 1
λο@@ 1
υπέρ@@ 1
ιστορίες 1
στρατιωτικό 1
όμιλο 1
σιμες 1
καφ@@ 1
εξετά@@ 1
θεμελι@@ 1
προσαρτήθηκε 1
Κατάλογος 1
φο 1
συμπτώματα 1
64 0.7005964050366725
ιακής 1
ιτ 1
συντηρη@@ 1
υλικού 1
στρατιωτικές 1
ψήφους 1
Κάν@@ 1
ιμα 1
νομίσματα 1
πράγματα 1
τρίτος 1
65 0.5728172281457646
διέθετε 1
τήρια 1
Βουλγαρίας 1
είδε 1
τισε 1
Μεγάλ@@ 1
πύργ@@ 1
Θα 1
χα 1
θηση 1
άστ@@ 1
Κασ@@ 1
Χα@@ 1
εξελ@@ 1
σχετική 1
800 1
Όλα 1
Βασιλιάς 1
Πάπας 1
150 0.915520373143565
αρχίσει 1
γραμματέας 1
προηγουμένως 1
δει 1
καλύτερο 1
πτυχ@@ 1
ρεμ@@ 1
ύνει 1
Αζερμπαϊτζάν 1
Μεγάλης 1
τίν 1
βάλει 1
Πάπα 1
ανησυχ@@ 1
απευθείας 1
απέχει 1
αλία 1
πλοκ@@ 1
ρυθμό 1
φύλλα 1
παραγ@@ 1
περιοδικά 1
πων 1
Διεθνής 1
προστατευ@@ 1
ανεβ@@ 1
διευθύν@@ 1
ράβ@@ 1
καιρ@@ 1
Ιωσήφ 1
αεροδρόμιο 1
διακρίσεις 1
BBC 0.9202928857449522
τικο 1
ώνου 1
U 0.3016292698438384
single 0.2325088223528424
2ο 1
οργάνωσης 1
ζούσε 1
ιταλική 1
14@@ 1
αριστερ@@ 1
αντίπαλο 1
τειν@@ 1
Χέν@@ 1
γραφείο 1
Τού@@ 1
ολόγ@@ 1
προσωπική 1
1915 0.829886828235841
Καποδίστριας 1
ετε 1
Περιφερειακή 1
βάθος 1
διακή 1
ελεύθερ@@ 1
κινήματος 1
παραδοσιακ@@ 1
Ακολούθησε 1
Ντέιβιντ 1
διαφορετική 1
αδελφού 1
δευτερ@@ 1
τελετή 1
ανοίγ@@ 1
48 0.8307384420709994
Τζάκσον 1
οργανώσεις 1
πόλεως 1
Γερμαν@@ 1
κόστος 1
μετο@@ 1
δημιουργώντας 1
εκατομμυρίων 1
Σεβ@@ 1
ήλθε 1
Αρι@@ 1
Ποδοσφαίρου 1
μάζα 1
μικρού 1
τόπο 1
αίματος 1
ουμ 1
καλύπτει 1
τετρ@@ 1
z@@ 0.11465279888101744
άλια 1
περικ@@ 1
σταμάτησε 1
άσματος 1
οριστεί 1
τιμήθηκε 1
τιου 1
γκερ 1
στοχ@@ 1
j@@ 0.1463886844424225
Κύριας 1
περιοδικού 1
νερά 1
αντίτυπα 1
μεταγενέστερ@@ 1
ολοκλήρωση 1
1908 0.8682730049880465
Υπουργ@@ 1
ανθρώπου 1
νος 1
γραφές 1
δικαιωμάτων 1
Άγγλ@@ 1
Ρουμανία 1
Τί@@ 1
διαφορές 1
Συμμετείχε 1
αποτελ@@ 1
χθηκαν 1
Έρ@@ 1
διεξαγωγή 1
καμ@@ 1
σχεδί@@ 1
σύνδεση 1
πληροφοριών 1
επιτρ@@ 1
κράτησε 1
Λίν@@ 1
Σημαν@@ 1
αδέλφια 1
λεν 1
Γερμανός 1
ελληνικών 1
Γιού@@ 1
Ιερά 1
αρχείο 1
πολλαπλ@@ 1
Θεού 1
Γαλλική 1
Πολυ@@ 1
ασχολείται 1
αναγνωρίστηκε 1
όφσκι 1
Ελένη 1
ρικός 1
Πρώτα 1
Εισ@@ 1
γυμνα@@ 1
κόπ@@ 1
υιοθε@@ 1
προσπαθεί 1
ασχολ@@ 1
χαρακτήρας 1
ροβ@@ 1
ειακές 1
επρόκειτο 1
ερευνητές 1
ζοντας 1
οδηγήσει 1
φυλή 1
Τέχνης 1
ρίζες 1
συγκέντρωσε 1
επόμενες 1
αρχηγ@@ 1
ωδία 1
Πάν@@ 1
ανάκ@@ 1
βάλλει 1
μεί 1
μες 1
αντίπαλ@@ 1
κίνησης 1
κλπ. 1
βυθ@@ 1
ίστας 1
βέρ@@ 1
επιθε@@ 1
οριστικά 1
Α1 1
άκα 1
ίτα 1
αγάπη 1
απώλειες 1
Τούρκοι 1
μέρει 1
ώτες 1
Κρο@@ 1
Συγ@@ 1
αστυνομία 1
δεύτερης 1
θαλ@@ 1
ονίας 1
στούν 1
Πανελλήνιο 1
τονία 1
διαφορ@@ 1
προσφορά 1
απε@@ 1
λόγια 1
αίνοντας 1
αυτοκρατορ@@ 1
ρικές 1
στρατο@@ 1
Μακεδον@@ 1
Σχε@@ 1
ερασι@@ 1
ητικών 1
διεθνές 1
στέγ@@ 1
Λά@@ 1
Μπορεί 1
ακρο@@ 1
όλογ@@ 1
όντας 1
εθ 1
μπαν@@ 1
θεσης 1
φυλλ@@ 1
15@@ 1
βομβαρδι@@ 1
ροή 1
συνεργασίας 1
εξυπηρε@@ 1
επιστήμη 1
ρίζεται 1
ελευθερία 1
Πρόεδρο 1
χρησιμοποιήθηκαν 1
Μπά@@ 1
ώδεις 1
* 0.1906923219158516
θάνατος 1
μάς 1
εκλογ@@ 1
αγγλ. 1
γε@@ 1
ασμού 1
χρει@@ 1
Ντί@@ 1
γενικές 1
κατευθύν@@ 1
π. 1
ιακών 1
τανίας 1
αμμ@@ 1
συνήθ@@ 1
Βόλ@@ 1
ριας 1
Ουκρανία 1
θή@@ 1
ωνικών 1
Ντο@@ 1
ειρην@@ 1
πάει 1
δρα 1
ύλη 1
αρμον@@ 1
ακός 1
σεξουαλ@@ 1
ξύλ@@ 1
φρ@@ 1
John 0.1298400493254417
ύψους 1
Δικα@@ 1
πιν@@ 1
πουν 1
περιγραφή 1
Μεσσηνίας 1
διαχείριση 1
τοπικής 1
ωτές 1
ίτ 1
μορ@@ 1
περιορι@@ 1
στίβου 1
or 0.03180330109203098
διάκριση 1
ούδ@@ 1
αγωνιστεί 1
κρ@@ 1
περιλάμβανε 1
πρωταθλητής 1
κέρ@@ 1
πλού@@ 1
συγκρούσεις 1
δήμαρχος 1
νέους 1
ριακ@@ 1
βιν@@ 1
κόρες 1
προωθ@@ 1
Κομνην@@ 1
εύονται 1
κινηματογραφ@@ 1
τευσε 1
αλκο@@ 1
ώρας 1
Πολιτ@@ 1
γαρ@@ 1
στηρίου 1
αυτοκρατορία 1
ολόκλη@@ 1
φυγ@@ 1
von 0.018636685600084236
ιδρυτής 1
κάλεσε 1
μ.@@ 1
απάντηση 1
ητες 1
παρακολουθ@@ 1
αλο 1
αφήνοντας 1
Ολυμπιακός 1
σύνδεσμοι 1
εκλεγ@@ 1
πίστη 1
Πρόγραμμα 1
λαό 1
47 0.9300333396288362
Βερολίνου 1
βράδυ 1
καπν@@ 1
νόμος 1
1916 0.815973856492112
39 0.8663555759831054
αρκετούς 1
τοπο@@ 1
$ 0.16886836866018395
πυρήνα 1
έρες 1
έτες 1
βενζ@@ 1
ελληνικές 1
ανακάλυψη 1
ώτης 1
μέθοδο 1
Al@@ 0.1510629709248907
Γκέ@@ 1
ζούσαν 1
ορκ@@ 1
σίου 1
βαθμολογία 1
ρίζει 1
Ολλανδία 1
περιουσία 1
εμπειρία 1
αιθ@@ 1
ουζ@@ 1
1ο 1
? 0.36841916628555155
Λύ@@ 1
σκηνοθε@@ 1
θεάτρου 1
ανακαλύ@@ 1
εξηγ@@ 1
κλήθηκε 1
Ar@@ 0.14836704958828514
διπλό 1
συνηθ@@ 1
ωνο 1
ονόματος 1
Γιάννη 1
Υπ@@ 1
ιταλ@@ 1
κινηματογράφο 1
χώρησαν 1
αξιωματού@@ 1
τύπων 1
ωμένος 1
αιχμαλω@@ 1
ζητήματα 1
ποσότητα 1
σιών 1
στηκαν 1
δέν@@ 1
εσωτερική 1
λό@@ 1
οβα 1
σταση 1
Εξωτερικοί 1
ασθενείς 1
αστρονομ@@ 1
Σφ@@ 1
εστι@@ 1
άδια 1
ιάν 1
δημιουργήθηκαν 1
λίγ@@ 1
τοντας 1
Κω@@ 1
ιδίου 1
ικανοποι@@ 1
σπι@@ 1
έρευνας 1
αστρονόμο 1
τινγκ 1
άτι 1
γας 1
βάθ@@ 1
ανής 1
δήποτε 1
ελα@@ 1
έφθασε 1
αγοράς 1
κινη@@ 1
επίσκοπο 1
φυσ@@ 1
Ψυχ@@ 1
διάλυση 1
πρωταθλήτρια 1
ρωμαϊκ@@ 1
44 0.7101084412733372
Β. 1
αγωνιζόταν 1
ενότητας 1
ρεαλ@@ 1
Αξι@@ 1
Τις 1
άνες 1
συνδε@@ 1
ἀ@@ 1
1905 0.7957098183441935
τία 1
Πολλά 1
έλο 1
συναυλίες 1
κομητεία 1
πραγματική 1
στρια 1
παντρ@@ 1
Μεσσ@@ 1
θρησκευ@@ 1
σημασίας 1
z 0.1965197627306979
άρθρα 1
αφηγ@@ 1
βιο@@ 1
δημοτικό 1
ωκε@@ 1
52 0.882465691916534
αναλογ@@ 1
ισμένες 1
υπηρεσιών 1
κέν@@ 1
όλι@@ 1
Επί 1
δομές 1
εβραϊκ@@ 1
σχηματισμό 1
Θράκης 1
Ον@@ 1
Ινδ@@ 1
επιβλ@@ 1
χτυπ@@ 1
φίλος 1
ιέ 1
αυστη@@ 1
18ου 1
λεί 1
ούχο 1
You 0.5413578623858107
συνεχίζει 1
Απόλλωνα 1
έρχονται 1
Ch@@ 0.1331256760069084
Πέρ@@ 1
ινη 1
ομίλου 1
Απέχει 1
Γέν@@ 1
αναλυ@@ 1
μόνον 1
προέλευση 1
0.000 1
όλε@@ 1
ράκ@@ 1
ΕΣΣΔ 1
Ουκρανίας 1
Σύν@@ 1
Διοικητικά 1
γνώση 1
εκτίμηση 1
αίμα 1
δέχθηκε 1
ανακηρύχθηκε 1
κινητήρα 1
πραγματικά 1
Βασιλική 1
βιβλίου 1
επαγγελματική 1
as 0.010291185708983132
ούργ@@ 1
όπλων 1
Δημητρίου 1
κόλ@@ 1
πολεμική 1
ιακού 1
Ιουδ@@ 1
Μαργαρίτα 1
αθλητής 1
ητη 1
απού@@ 1
τονται 1
κατοχής 1
σχεδιασμό 1
αξιόλογ@@ 1
ύβ@@ 1
νευρ@@ 1
αντα 1
ασθένεια 1
σημαντικός 1
τοποθετήθηκε 1
Βί@@ 1
συστ@@ 1
υγεία 1
χρειάζεται 1
Πορτογαλίας 1
εργοστάσιο 1
ζωγραφ@@ 1
κυπ@@ 1
ολογικού 1
τόπος 1
Α2 1
εορτα@@ 1
l@@ 0.09864571412940593
Κάρολο 1
ιταλικά 1
Κυβερν@@ 1
προϊόν 1
ορεινό 1
Μολ@@ 1
Πατρών 1
16@@ 1
Πλα@@ 1
ολυμπ@@ 1
δερ@@ 1
5.000 1
Ίν@@ 1
Ρι@@ 1
γλυπ@@ 1
διαλ@@ 1
επίδ@@ 1
δολοφ@@ 1
ζωγράφ@@ 1
αρχηγό 1
ευγενείς 1
Εβρα@@ 1
Γιουγκοσλαβίας 1
Ταϊ@@ 1
μπερτ 1
ρίζ@@ 1
μοιρά@@ 1
προκαλέσει 1
αστή 1
πή@@ 1
στήρια 1
μάρ@@ 1
ομώνυμης 1
Σολ@@ 1
ιμη 1
όμα 1
ΚΚΕ 1
ίκι 1
αρχιτεκτον@@ 1
γεωργία 1
λλο 1
τόμ@@ 1
αντιμετώπισε 1
κες 1
φωτογραφ@@ 1
ύλης 1
σήμα 1
ισμ@@ 1
Εμ@@ 1
Οθωμανικής 1
αναφερ@@ 1
σλαβ@@ 1
Αθλη@@ 1
αρχο 1
Κόκκιν@@ 1
Παρ 1
τημα 1
καθολ@@ 1
Καλύτερ@@ 1
σπουδών 1
όπο@@ 1
Ο.@@ 1
ανική 1
el@@ 0.09185633580510079
διαμερίσματα 1
πολιτισμό 1
Έκανε 1
βάσεις 1
γεμά@@ 1
εφαρμογές 1
τοπικά 1
Τα@@ 1
γάμου 1
περιορ@@ 1
Πρώτη 1
ηγέτες 1
κεντρ@@ 1
Πετ@@ 1
συμβολή 1
δηλ@@ 1
προτού 1
οικισμοί 1
ΑΣ 1
Αστεροειδών 1
Πον@@ 1
Σκωτίας 1
αιότητα 1
έντα 1
ονες 1
Πολλές 1
εκτετα@@ 1
πού 1
Αλβανία 1
αστικές 1
ελευθερ@@ 1
Δευ@@ 1
ελεύθερη 1
41 0.8556900800825273
Υπερ@@ 1
στενά 1
Υ 1
αστικής 1
ευρ@@ 1
6.@@ 1
οικονομικών 1
ύρωση 1
δυναστείας 1
ωδ@@ 1
συνδέονται 1
αρχαίο 1
ατς 1
τραγουδίστρια 1
on@@ 0.10722167321065783
βολές 1
κλε@@ 1
Γιαν@@ 1
άρκα 1
ανακαλύφθηκε 1
οτεχν@@ 1
πρόσφυγες 1
τορες 1
κώδικα 1
εκείνης 1
εμπορικό 1
04 1
κατέληξε 1
οίκ@@ 1
τάξεις 1
τηλεοπ@@ 1
όξ@@ 1
ξεπερν@@ 1
τρέχουσα 1
ονας 1
τραγ@@ 1
φαρμακ@@ 1
αρχεία 1
ουσας 1
παλιό 1
δημοφιλής 1
Μητρο@@ 1
ατομ@@ 1
J 0.6315523320393168
ar 0.06540815168484203
Χαλκ@@ 1
μασε 1
ρωσική 1
μεταφρά@@ 1
ποσό 1
Στρατηγ@@ 1
Ευαγγελ@@ 1
Σουηδ@@ 1
λήξη 1
πρακ@@ 1
Τρα@@ 1
τριβ@@ 1
λόγου 1
παλάτι 1
συνεχίσει 1
ύχ@@ 1
θήκη 1
πιστεύεται 1
• 1
συνθε@@ 1
man 0.08568442317492925
ατμ@@ 1
Λόρ@@ 1
Νήσ@@ 1
αλλάξει 1
επαγγελματίας 1
θέλ@@ 1
ζητ@@ 1
κοινωνικής 1
οικονομικής 1
περσ@@ 1
τιδα 1
ΚΑ@@ 1
ωνικού 1
Τέ@@ 1
1906 0.8339285916303539
βουλ@@ 1
περιεχόμενο 1
Ανάμεσα 1
δώδεκα 1
Συνέλευση 1
Χρησιμ@@ 1
τυλ@@ 1
ϋ 1
Μεσαίωνα 1
κανονική 1
διαχωρι@@ 1
δό@@ 1
θέσει 1
οστά 1
πάπα 1
διαμάχη 1
καθ 1
νικητής 1
πρότυπα 1
αμοιβ@@ 1
κατανομή 1
πει 1
φυτά 1
μέτρ@@ 1
ρεί 1
συνθέτης 1
85 0.9965591058228099
ΚΑ 1
δύσκολο 1
θρα@@ 1
Πυ@@ 1
διατήρηση 1
άρας 1
ητικής 1
μαύρο 1
οχυρ@@ 1
πει@@ 1
Ινδίας 1
Ναός 1
απέτυχε 1
εύοντας 1
Βουλγαρ@@ 1
επιχειρήσεων 1
εντυπωσι@@ 1
Ελβετία 1
Πάτρα 1
ανέπτυξε 1
κηρύ@@ 1
μέτωπο 1
προηγούμεν@@ 1
− 1
Βισ@@ 1
Αιγ@@ 1
αποσύρθηκε 1
κοινοβουλευ@@ 1
δυνατό 1
εξασφαλ@@ 1
θέλει 1
καλύ@@ 1
ρωσικά 1
τίστηκε 1
align 1
γενιάς 1
Δου@@ 1
καταλ@@ 1
Βοσνίας 1
Λογ@@ 1
υψηλότερη 1
ισχύει 1
μμ@@ 1
ακολουθούν 1
άσου 1
Μεγαλ@@ 1
λειτουργούν 1
ταξινομ@@ 1
Λατ@@ 1
ναύ@@ 1
παντρευτεί 1
ότου 1
κινεζ@@ 1
πάρκο 1
Ηρακλείου 1
αριθμού 1
ντου@@ 1
Γκρέ@@ 1
ασμ@@ 1
δυνατή 1
ιμος 1
ψηφοφορία 1
νι 1
ορειν@@ 1
χρωματ@@ 1
διαθέ@@ 1
πληρω@@ 1
ηπ@@ 1
τεται 1
07 1
Τζορτζ 1
συνάντηση 1
τακτική 1
άχ 1
des 0.009726891640891251
er@@ 0.07169479326442177
Αρκ@@ 1
εγκατάσταση 1
διανο@@ 1
μπάσκετ 1
εξαιρε@@ 1
ρων 1
διν@@ 1
φέρ@@ 1
Music 0.35370020536370567
άξει 1
εξωτερ@@ 1
μαρτυ@@ 1
θεωρεί 1
μαχος 1
πλησι@@ 1
έλεγ@@ 1
γίνουν 1
δημοσιογράφος 1
τελείωσε 1
ανακοιν@@ 1
ανεξάρτητα 1
πρώ@@ 1
βουνά 1
δικηγόρος 1
ισο@@ 1
θεατρ@@ 1
ομορφ@@ 1
ΐα 1
Ηρακλή 1
αλε@@ 1
προκύπτει 1
υπεύθυνος 1
φθινόπωρο 1
έγγραφα 1
λιου 1
Πασ@@ 1
χλω@@ 1
Χάν@@ 1
τιά 1
v@@ 0.1386338870754523
γνώμη 1
επανάστασης 1
διαστημ@@ 1
Μπέν@@ 1
θησε 1
4η 1
βασικά 1
αναφ@@ 1
Άρης 1
Μαχ@@ 1
ασμένα 1
λαού 1
πολιτών 1
άγαλμα 1
αρχιτεκτονικής 1
έτο@@ 1
λεπτό 1
σοβαρά 1
τείχη 1
ετήσια 1
καλλιέργεια 1
τρό@@ 1
43 0.8551361993882519
καθημερ@@ 1
ρίδας 1
ρίσει 1
f@@ 0.09319168905085165
αναφέρθηκε 1
στιγ@@ 1
r@@ 0.09287205283160375
δημοψήφισμα 1
λατιν@@ 1
ζωγραφική 1
Κωνσταντίνο 1
κοινωνίας 1
ρισμού 1
ar@@ 0.09023103269402034
Στέφανος 1
στροφή 1
ότερης 1
Νορβηγία 1
στόλου 1
πρωταγωνίστησε 1
Disney 1
ωτών 1
Χριστού 1
μπουρ@@ 1
νων 1
Αλεξάνδρου 1
φιλοσοφ@@ 1
Κατηγορίας 1
δάση 1
ιόν 1
1904 0.8434394112750553
συλλογές 1
χωρι@@ 1
Αναφέρεται 1
Δημο@@ 1
επικεντρ@@ 1
μεταφρα@@ 1
αγωγής 1
διαστ@@ 1
ωτική 1
βρο@@ 1
διαστάσεις 1
μπορ@@ 1
ΠΑΟΚ 1
είκοσι 1
μεί@@ 1
παρασκευ@@ 1
βουνό 1
μουσ@@ 1
46 0.8604632681878519
Ποδοσφαι@@ 1
εβο 1
συντον@@ 1
τετραγ@@ 1
χρονικά 1
Windows 1
en@@ 0.06281228918801963
άκος 1
ιον 1
Τοπ@@ 1
διαχω@@ 1
Παναγ@@ 1
μοιάζει 1
λιβ@@ 1
τρόπους 1
κατακτ@@ 1
Παρα@@ 1
Χορ@@ 1
καφέ 1
ς- 1
ώτη 1
ρίζοντας 1
βουλευτές 1
γραφική 1
ητικού 1
κάλ@@ 1
οχής 1
Εάν 1
ανθρώπινη 1
λια 1
προσεγγ@@ 1
διατήρησε 1
Χέρ@@ 1
λογίας 1
παρατηρούσε 1
ποικίλ@@ 1
Ούγ@@ 1
Γεωργ@@ 1
25@@ 1
95 0.9580402683446254
ανέβ@@ 1
αναρ@@ 1
γύ@@ 1
σινγκλ 1
Ιαπωνίας 1
έδρ@@ 1
αίσθηση 1
αεροσκάφος 1
Πτολεμα@@ 1
κύριες 1
Ηλείας 1
ηφαιστ@@ 1
Ολυμπ@@ 1
Στί@@ 1
θεωρούν 1
χων 1
ch@@ 0.07831587053668165
ανατολικής 1
εξαρτάται 1
ούμεν@@ 1
προήλθε 1
συνεν@@ 1
αιγυπτι@@ 1
ανεξάρτητη 1
1911 0.7228709270898692
Τάγματος 1
λίου 1
άρχου 1
μευ@@ 1
μοι 1
σμών 1
χρόνους 1
αποσαφήνιση 1
ληφθεί 1
μονο@@ 1
παρέμειναν 1
καρδι@@ 1
γωνία 1
επομένως 1
αντικατέστησε 1
ασίστ 1
ιδίων 1
κλίμακα 1
προηγούμενο 1
αναγνωρισ@@ 1
Συνήθως 1
αριστερά 1
μέλλον 1
Μεξικό 1
αρνη@@ 1
παντρεμένος 1
​ 1
Μαυρο@@ 1
ατικού 1
μπα@@ 1
Οικουμεν@@ 1
DNA 1
άβα 1
λανδ@@ 1
Κρη@@ 1
οικογεν@@ 1
φαρ@@ 1
ύς 1
νεαρή 1
Εμφ@@ 1
καταργήθηκε 1
Αθλ@@ 1
ολλανδ@@ 1
αντιμετωπίσει 1
δημιούργησαν 1
ιστορικοί 1
νύ@@ 1
σχεδίου 1
στροφ@@ 1
Νορ@@ 1
άμι 1
ημο 1
παίξει 1
περιείχε 1
άντες 1
κινήσεις 1
πτήση 1
προχώρησε 1
τωρ 1
Σοφ@@ 1
προσανατολ@@ 1
στικ@@ 1
le 0.010282041795867452
ήττες 1
λαμβάνοντας 1
μεταγραφή 1
όι 1
Κέντρου 1
αλβαν@@ 1
αρισ@@ 1
κατανο@@ 1
γράμμα 1
al@@ 0.0817969252951511
σύγχρονο 1
ϊκή 1
Ερρίκο 1
Χρον@@ 1
ιό 1
ίμ 1
τεχνολογία 1
αναγνώ@@ 1
περιφέρειας 1
οδού 1
συμβουλίου 1
εύτηκαν 1
ιππ@@ 1
1896 1
Αιγαίου 1
χαμ 1
διηγ@@ 1
τώντας 1
φρον@@ 1
Αγι@@ 1
μμα 1
στάδια 1
φέρονται 1
Πρό@@ 1
ευρωπαϊκή 1
Ιράν 1
διαλυ@@ 1
προσδιορ@@ 1
πτυχίο 1
τομή 1
ροσ@@ 1
επιτροπής 1
οχώρι 1
τελ 1
Οικονομικών 1
Παναθηναϊκό 1
έχεται 1
αιρέ@@ 1
56 0.9510818451097295
Έχουν 1
απλό 1
παραμονή 1
κατέχει 1
κειμένου 1
λίμνης 1
Δού@@ 1
τεχνών 1
ίκο 1
εφημερίδες 1
κοκ@@ 1
ρομαν@@ 1
1907 0.7759516176378745
νώ@@ 1
ότερου 1
Έλαβε 1
Σεν@@ 1
ορισ@@ 1
συστημάτων 1
Χου@@ 1
Παπανδρέου 1
Φιλίππου 1
Γιάν@@ 1
μετονομ@@ 1
μετέφερε 1
γματα 1
κατο@@ 1
Νέων 1
Περίπου 1
μεταφοράς 1
Ουκραν@@ 1
αυξήθηκε 1
μεταπτυχ@@ 1
name 0.12773416094628914
ανώ@@ 1
δημοκρατία 1
μπόρεσε 1
Φυσ@@ 1
συνεχίστηκε 1
2022 0.471768458991423
ματός 1
συγχων@@ 1
συνοδεύ@@ 1
πληθ@@ 1
Δία 1
Μάγ@@ 1
στολ@@ 1
περιφέρειες 1
αφορούν 1
μπαρ@@ 1
γελ@@ 1
παραλία 1
ταρ 1
Δομ@@ 1
μεθόδους 1
μαθηματικά 1
παράγοντας 1
Ναζ@@ 1
ημερών 1
φοιτητές 1
Βέρ@@ 1
Βυζαντινή 1
έκρηξη 1
Δ.@@ 1
περιστρέφεται 1
πλά@@ 1
ωτικά 1
καθηγητή 1
εξωτερική 1
εύματα 1
ωφ@@ 1
Ανατολής 1
ήτρια 1
ευρωπαϊκές 1
νά 1
Νέο 1
ήχθη 1
δεια 1
διαπραγματεύσεις 1
προσδι@@ 1
´ 1
ΕΣ@@ 1
οποιοδήποτε 1
Πελ@@ 1
ακρα@@ 1
εκπρόσωπος 1
αντιστοιχεί 1
θάν@@ 1
ισχύ@@ 1
ατόμου 1
εγκαταλείψει 1
ορφ@@ 1
ουελ 1
υποστηρίζουν 1
κυττάρων 1
φου 1
ίνια 1
ανακάλυψε 1
δημιουργεί 1
ρον 1
βοηθός 1
εμποδ@@ 1
πλοίων 1
Αγίων 1
ινών 1
λιν@@ 1
ονος 1
προσωρινά 1
πρωτοβουλία 1
παραμείνει 1
Άλλοι 1
δοχ@@ 1
επιδρομές 1
κρατών 1
παρουσιάζουν 1
ae 0.37598761261819863
Αρμεν@@ 1
Πολιτι@@ 1
Re@@ 0.152084298888263
τίνα 1
επιστήμονες 1
κάτο@@ 1
ρικά 1
Αφγανιστάν 1
Επαν@@ 1
άρο 1
h@@ 0.09892199878285386
διάταγμα 1
ζα 1
παρόμοιο 1
υπόλοιπες 1
ογραφική 1
κύκλου 1
συγκέντρωση 1
υποψηφιότητα 1
51 0.8364079076412162
εισήχθη 1
20ου 1
ασφαλείας 1
εθνο@@ 1
πανηγ@@ 1
Λει@@ 1
άλμα 1
περιλαμβ@@ 1
Νεκ@@ 1
09 1
Γεωργίας 1
Χό@@ 1
αια 1
δημιουργηθεί 1
ρισε 1
Κόμ@@ 1
Μπαν@@ 1
ριακής 1
συνόλου 1
χρήστες 1
Νορβηγίας 1
ευτικό 1
μεταφέρθηκαν 1
ολο@@ 1
1000 0.7733147903471502
κυκλοφορίας 1
Μιχ@@ 1
κόσ@@ 1
72 0.9688038939217943
In@@ 0.16375885153225608
Νορμαν@@ 1
Στίβου 1
ίασε 1
κ.@@ 1
λεψε 1
ορατ@@ 1
αρά 1
αιο 1
υπερασπ@@ 1
1909 0.7823230985793818
Λεον@@ 1
έβαλε 1
δυναστεία 1
Χαν 1
Σο@@ 1
στού 1
όλι 1
Δρα@@ 1
τουν 1
Έκ@@ 1
Αικατερίνη 1
χρονολογ@@ 1
λντ 1
ρις 1
Ταμ@@ 1
οκλ@@ 1
Χριστ@@ 1
βορ@@ 1
τηγ@@ 1
φυσικής 1
Φρειδερίκου 1
τρεψε 1
ύλων 1
Όσ@@ 1
Τούρκων 1
αριθμούς 1
αριθμών 1
ιλ 1
πέν@@ 1
τηλεοπτικό 1
Κατόπιν 1
θερμοκρασίες 1
ολογικών 1
Κάλ@@ 1
σιακ@@ 1
Θεοτόκου 1
διαμαρτυ@@ 1
υπάρχ@@ 1
der 0.005921820775227601
Ξεν@@ 1
άνε 1
διοικητικό 1
τύπους 1
Συμβ@@ 1
αναγκά@@ 1
ομώνυμη 1
οπούλου 1
πλοκή 1
17ου 1
βασιλείς 1
σχεδίων 1
Μέγας 1
κυβερνήτη 1
νούμερο 1
βασικός 1
μπει 1
άνθη 1
εκτείνεται 1
επιτέθηκε 1
τίποτα 1
Ολυμπιακού 1
επικοινων@@ 1
θεωρούσε 1
λαϊκή 1
φη 1
δύναμης 1
κοινοβούλιο 1
όμου 1
χρόνος 1
ήτης 1
συνεισ@@ 1
όλλ@@ 1
an@@ 0.07078070047289196
Δημοσ@@ 1
Ιβάν 1
Φου@@ 1
ρικού 1
ξέσπασε 1
υψηλότερο 1
σταθερά 1
17@@ 1
Προέδρου 1
νομισ@@ 1
παράνομ@@ 1
χτηκε 1
Πρέ@@ 1
άσα 1
Μω@@ 1
ήνης 1
πλοίου 1
Αυτοί 1
στας 1
αποφάσισαν 1
ηθοποιό 1
λόφο 1
φυλές 1
αίτηση 1
μών 1
Περί 1
αιμ@@ 1
διαφορετικό 1
νυμφ@@ 1
συνιστ@@ 1
υψηλό 1
χάρι@@ 1
ωνίου 1
Ευρωπαί@@ 1
δίνουν 1
οικονομικές 1
πελ@@ 1
προσπαθ@@ 1
Αλέξανδρο 1
Ανατολ@@ 1
Πηγές 1
επιστρέφει 1
ωμάτων 1
Αγων@@ 1
γεωμετρ@@ 1
ριακού 1
φυλάκ@@ 1
TV 0.2700569376418914
πειρατ@@ 1
Βίν@@ 1
βαθιά 1
ειδικότερα 1
χρησιμοποιούσαν 1
γενικ@@ 1
απασχολ@@ 1
ειδικό 1
επιτυχημένη 1
καταφύγιο 1
CD 0.5709934540939039
Συρία 1
Μίλ@@ 1
άλου 1
επιπέδου 1
κους 1
Βαυαρίας 1
Κέρκυρας 1
υνε 1
Παραγωγή 1
αίρε@@ 1
εμφανίστηκαν 1
εως 1
όχου 1
γά@@ 1
σταθμ@@ 1
υποδοχ@@ 1
έμφαση 1
ισπανικά 1
εκτάσεις 1
καλλιτέχνη 1
σταθμού 1
χημική 1
Billboard 0.7957889350041025
καὶ 1
Γρηγοριανό 1
απομον@@ 1
νήσ@@ 1
σκηνοθέτη 1
ρωμαϊκή 1
έκλεισε 1
δασκ@@ 1
σύνταγμα 1
Αρμενίας 1
Διά@@ 1
χους 1
Υψηλ@@ 1
ίστα 1
Επισ@@ 1
Υπουργείου 1
χον@@ 1
απλή 1
δημοσιογράφ@@ 1
εξοπλ@@ 1
ηπειρω@@ 1
Μικρά 1
Νομού 1
πειρα@@ 1
Φιλοσοφ@@ 1
κοινά 1
μεγ@@ 1
προσαρ@@ 1
ρούσε 1
τούνται 1
έκφραση 1
ίντ 1
επιζ@@ 1
δρόμος 1
ζύ@@ 1
Μόνο 1
ορισμό 1
τροχιά 1
Βραζιλία 1
μνημεία 1
σατ@@ 1
φύγει 1
10.000 1
ΟΥΕΦΑ 1
δεσμ@@ 1
κρυ@@ 1
χάσει 1
γράφεται 1
δάσος 1
βάρ@@ 1
ετός 1
βλ. 1
ελί@@ 1
λης 1
νυμφεύτηκε 1
σά@@ 1
προεδρικές 1
ανασκαφές 1
ουλ 1
σαφ@@ 1
Μπελ@@ 1
έμαθε 1
δεύτερου 1
οργάν@@ 1
ρης 1
δυνατ@@ 1
Κυριακή 1
πρωί 1
σεβ@@ 1
Γιαν 1
δικηγ@@ 1
καλλιτέχνης 1
Ευρωπαϊκού 1
Ολυμπιακ@@ 1
style 0.2725039109535962
Αλι@@ 1
απαντ@@ 1
απογόνους 1
δυνατόν 1
εφόσον 1
δημιουργίας 1
τιών 1
ρεφ@@ 1
εκλογική 1
ουσίες 1
πλημ@@ 1
σκοτώθηκαν 1
49 0.8078391122738676
επέλεξε 1
κόλπο 1
συμπληρ@@ 1
1.000 1
Τηλε@@ 1
εξακολουθεί 1
καλές 1
μενα 1
νωση 1
στήριο 1
ανιχν@@ 1
οικο@@ 1
παραστ@@ 1
θεατών 1
ματικού 1
06 1
ατμόσφαιρα 1
γενικός 1
εγκλ@@ 1
μεταβ@@ 1
ακόλουθα 1
Θεόδωρος 1
αποδ@@ 1
στε 1
σφαίρισης 1
δικαστήριο 1
εναλλακ@@ 1
συναντ@@ 1
αποστολής 1
επιθυμία 1
ηρω@@ 1
Καζακστάν 1
βελτίωση 1
ζωγραφικής 1
στρά@@ 1
τρομοκρατ@@ 1
57 0.9355474268770758
7.@@ 1
έπει 1
απαιτεί 1
τρού@@ 1
ώνος 1
βλέ@@ 1
ενεργά 1
Δημοκρατ@@ 1
Mar@@ 0.13448783221078045
ελαι@@ 1
κυβ@@ 1
αναστ@@ 1
γεωγραφ@@ 1
επικίνδυν@@ 1
Ομάδα 1
άζ 1
ανοσ@@ 1
γκι 1
εφημερίδας 1
γερμαν@@ 1
ειου 1
σύντομη 1
Ηνωμένου 1
Χάιν@@ 1
συνθέ@@ 1
ψεων 1
in@@ 0.05469131706848459
διαγων@@ 1
ντο 1
στρατιωτικός 1
αποτελούνταν 1
οποίησε 1
ωτή 1
Ιστο@@ 1
μάζ@@ 1
υποθέσεις 1
σις 1
τασης 1
τραγουδιστής 1
αποκατάσταση 1
ειος 1
ταξίδεψε 1
επιχειρ@@ 1
Τό@@ 1
Φ 1
παραδοσιακή 1
Ονομ@@ 1
Ρουμανίας 1
διάδοχο 1
καταστάσεις 1
προστά@@ 1
τριες 1
1897 0.922879586534106
λατινικά 1
53 0.8874509108933127
ήλιο 1
αποτυχία 1
εχθ@@ 1
όγκο 1
Σχολ@@ 1
σκοπο@@ 1
Τουρ@@ 1
δηλ. 1
ντόπ@@ 1
ρίδα 1
όβα 1
ήμης 1
κυτταρ@@ 1
συμφώνησε 1
Μό@@ 1
Πλοκή 1
πτει 1
κάθ@@ 1
ουραν@@ 1
σιδηροδρομ@@ 1
Σημει@@ 1
άμυνα 1
κατάλληλ@@ 1
τροφή 1
αξιωματικός 1
θρησκευτική 1
πανεπιστημι@@ 1
δίσ@@ 1
όσια 1
Ιησού 1
δήλωση 1
ισχυρό 1
ογέν@@ 1
χρόν@@ 1
αρκετοί 1
ειρήνης 1
ποσότητες 1
επεξεργασία 1
κύκλος 1
σχεδιασ@@ 1
όλιο 1
54 0.8587593615211798
γαλλικό 1
γραπ@@ 1
όνε 1
Εβραίοι 1
αγγελ@@ 1
ανώτα@@ 1
θν@@ 1
δημόσιο 1
λάθος 1
σιμ@@ 1
γερμανικό 1
χωρητικότητας 1
Λεβ@@ 1
Παύλου 1
καρδιά 1
μεταφορ@@ 1
or@@ 0.09587716197438988
Υγείας 1
ιδιότητα 1
Βρετανίας 1
Παύλος 1
Προς 1
κυκλοφορήσει 1
ρεπ@@ 1
ινής 1
παγκόσμι@@ 1
Γουλιέλμου 1
προβλημάτων 1
διαπιστ@@ 1
Σικελίας 1
αντίθετα 1
κοινωνικές 1
120 0.9533033935497045
νόμισμα 1
Πί@@ 1
μαϊκ@@ 1
νοτιοδυ@@ 1
πλευρό 1
700 1
Βατ@@ 1
Πιο 1
άκων 1
επαρκ@@ 1
ευόταν 1
κάποτε 1
συγκέντρωσης 1
υποτελ@@ 1
Σβ@@ 1
σωλ@@ 1
άνονται 1
περιγράφεται 1
Αυτοκράτορας 1
επιλέχθηκε 1
ετερ@@ 1
Γαλλικής 1
Ρωσική 1
τικότητας 1
υδρογόνου 1
βασικές 1
ιδιοκτησία 1
Πελοπόννησο 1
διαλύθηκε 1
κορυφαία 1
58 0.916216227590079
κλασική 1
τέν 1
τέρου 1
αθλ@@ 1
γεί@@ 1
Τούρκ@@ 1
έλος 1
Ενότητας 1
θρι@@ 1
ίσταται 1
χο@@ 1
Κυρι@@ 1
ερή 1
συλλόγους 1
φορού@@ 1
ΚΟ@@ 1
ειο@@ 1
ετς 1
ρισαν 1
όσους 1
γλυ@@ 1
λειτουργίες 1
is@@ 0.12171343222940302
διάταξη 1
θων 1
νεαρ@@ 1
βάλλεται 1
μέρ@@ 1
παραδείγματα 1
τήθηκαν 1
ψή 1
ματικός 1
οργανισμούς 1
υπόλοιπη 1
ούδα 1
ούσα 1
τέρματα 1
απειλή 1
ούντας 1
Ώ@@ 1
Αθηνα@@ 1
απόσ@@ 1
ρια 1
βλέπει 1
ουστ@@ 1
π.Χ 1
2.000 1
επαρχ@@ 1
Κώστα 1
Σιγ@@ 1
διδάσκ@@ 1
μάρτυ@@ 1
οξέος 1
ΕΠΣ 1
οσι@@ 1
Σαχ@@ 1
ειακά 1
88 1
Μητ@@ 1
φωτειν@@ 1
χρησιμοποιούνταν 1
16ο 1
Παλαιστ@@ 1
Ι. 1
Μπού@@ 1
έτι 1
εξέχ@@ 1
αγκα@@ 1
άγκ@@ 1
νή 1
πρωταθλ@@ 1
σιν 1
18ο 1
Συντάγματος 1
κατάταξη 1
στόλο 1
υρο 1
os 0.06957252404770634
σιδηρο@@ 1
1903 0.783057905154804
λάμβανε 1
Ελεύθερ@@ 1
Ναυτικού 1
καθή@@ 1
Ευρωπαϊκ@@ 1
επισκόπου 1
χρησιμοποιήσει 1
Εβραίων 1
άρου 1
βου 1
εκλέχθηκε 1
χρησιμοποιούσε 1
διάσημ@@ 1
θεν 1
θρί@@ 1
οσύνης 1
όντο 1
Βουργουνδίας 1
ούλια 1
ραδι@@ 1
τελευταίου 1
τοιχ@@ 1
τοποίηση 1
Ιω@@ 1
άγνω@@ 1
ισλαμ@@ 1
da 0.07631071559255133
Γκαρ@@ 1
Μουσουλμάν@@ 1
Πόλη 1
ίσεων 1
επίσημ@@ 1
καλύτερες 1
συνείδ@@ 1
ύψ@@ 1
26@@ 1
Αδελφ@@ 1
πλούσι@@ 1
στατο 1
καταφέρει 1
αντιμετώπιση 1
απαιτείται 1
Γυναικών 1
Ακόμα 1
Μερικά 1
Τομ@@ 1
Αγκ@@ 1
Ρα@@ 1
γραφεί 1
μέσου 1
σώ@@ 1
ττα@@ 1
πολιτείας 1
φιλελεύθερ@@ 1
Όμιλος 1
Ολλανδίας 1
αγόρ@@ 1
δείκ@@ 1
μάρ 1
Σαβοΐας 1
εισήγαγε 1
καταστροφ@@ 1
συντά@@ 1
εγκαθ@@ 1
ητος 1
κεραμ@@ 1
οειδ@@ 1
σκα@@ 1
κάποιοι 1
ρίγκ@@ 1
Πελοποννήσου 1
γραφεία 1
δηλώνει 1
ελάχιστα 1
at@@ 0.11188916786683473
ζητώντας 1
πολιτικού 1
στρατευμάτων 1
φοιτη@@ 1
μαθητής 1
62 0.9079497469578309
παίκτη 1
σκοπούς 1
Λιμ@@ 1
γενικότερα 1
γκλ@@ 1
επεξ@@ 1
11@@ 1
εμφανιστεί 1
μονία 1
Βρα@@ 1
επιβί@@ 1
μεταφέρει 1
Του 1
συστάθηκε 1
Βέ@@ 1
Μητροπολίτης 1
ποιήματα 1
ΑΣ@@ 1
αποτέλεσαν 1
καθιστά 1
παραμένουν 1
προεδρ@@ 1
Κεντρ@@ 1
συγκρο@@ 1
84 1
Δημήτρη 1
Μερικές 1
Πανα@@ 1
Σίν@@ 1
δελ@@ 1
καθιστώντας 1
αξίες 1
εκθέσεις 1
σύντομο 1
Οθωμαν@@ 1
ξία 1
παροχή 1
διασκ@@ 1
βρίσκει 1
κοιλι@@ 1
πρόποδες 1
συναλλαγ@@ 1
τάχθηκε 1
θεσμ@@ 1
Ιωάννα 1
επισκέπτες 1
πτερ@@ 1
σκοτειν@@ 1
τησή 1
Βλαχ@@ 1
Σύμβ@@ 1
Τράπεζα 1
Τσε@@ 1
απορρί@@ 1
βασαν@@ 1
ενημέρωσης 1
Χαν@@ 1
καλό 1
υπολογιστή 1
συνέχισαν 1
δημοφιλές 1
διοικητή 1
μέτρο 1
ουδέ@@ 1
τέλει@@ 1
Βέλγιο 1
εύκολ@@ 1
σταθερή 1
όχθη 1
ένοπλ@@ 1
ήρθαν 1
σοφ@@ 1
τέν@@ 1
αντιπροσωπεύει 1
μενε 1
ντερ 1
ed 0.036451158271313136
απομακρύν@@ 1
λογοτεχνίας 1
λαβ 1
ύρω@@ 1
άρχες 1
διαθέτουν 1
θορ@@ 1
τέλε@@ 1
τοποθετη@@ 1
Φρανς 1
ήρια 1
Ελληνίδα 1
μεναν 1
παρ 1
ήτ@@ 1
υγρό 1
ϊν@@ 1
ώσεως 1
4ο 1
Ιαπ@@ 1
έβδομ@@ 1
πάρ@@ 1
αναμετρ@@ 1
Ρωμαίοι 1
αυθεν@@ 1
εκατοντάδες 1
μεταβολ@@ 1
68 0.969995842154044
Νου@@ 1
γκελ@@ 1
πυκνότητα 1
5η 1
Τσάμπιονς 1
ειπ@@ 1
Εμμανουήλ 1
Υπό 1
δεύ@@ 1
Πολέμ@@ 1
Φράν@@ 1
δορυφ@@ 1
καθορ@@ 1
λίγους 1
ούμενα 1
προβλήθηκε 1
φώ@@ 1
βασιλικό 1
επισημ@@ 1
μέσων 1
μερικούς 1
πεδίου 1
πτη@@ 1
δεξαμεν@@ 1
67 0.9817377887552252
Γερμανών 1
Ελ 1
τζι 1
1878 1
σημερινής 1
αντιπρόεδρος 1
χρηματ@@ 1
Δημοτική 1
Πάτρας 1
φανέλα 1
αιχμάλω@@ 1
εσε 1
κουν@@ 1
προσώπων 1
Λορ@@ 1
Χρήστος 1
βεβ@@ 1
περιβαλλον@@ 1
στέλ@@ 1
ελέγ@@ 1
μπια 1
πεθάνει 1
An@@ 0.10367414867518451
Μπον@@ 1
ακρίβεια 1
κληρονόμ@@ 1
πλαγιές 1
σύγχρονης 1
φράση 1
άξονα 1
λαν@@ 1
Σαλαμ@@ 1
Διεθνή 1
άντι 1
ύσ@@ 1
χρηματοδο@@ 1
ολογίες 1
ψι@@ 1
Ναυτικό 1
Πορτογαλία 1
Συμμετ@@ 1
νομικά 1
όρη 1
Λίγ@@ 1
Χέ@@ 1
άκρη 1
απογραφές 1
συμμάχ@@ 1
Τσεχ@@ 1
ρολογ@@ 1
Λακ@@ 1
χαμηλή 1
1890 0.8162984410163123
SS 0.7912374976184187
μοναχ@@ 1
πολιτικούς 1
Δανία 1
ΙΙ 1
γραφικά 1
διαιτη@@ 1
πίστευε 1
Βάρ@@ 1
Σύλλογος 1
επώνυμο 1
Λό@@ 1
έκα 1
προπ@@ 1
05 1
2,@@ 0.6899958195196241
Επί@@ 1
έδινε 1
ονική 1
φάλ@@ 1
προειδ@@ 1
συνδέει 1
υποχρε@@ 1
Live 0.771972255221487
Μόρ@@ 1
θεωρηθεί 1
στασ@@ 1
δεχ@@ 1
επισ@@ 1
σταϊν 1
μπέ@@ 1
πραξικόπημα 1
συντελε@@ 1
χρονική 1
ύπ@@ 1
λειτούργησε 1
οφόρων 1
Κόλ@@ 1
αίοι 1
υποστηρικτές 1
πραγματοποιείται 1
στέλεχος 1
δίδαξε 1
επεκτάθηκε 1
ποιητή 1
τολή 1
Αί@@ 1
βη 1
θι 1
ογραφικό 1
συγκρότη@@ 1
17ο 1
αντίστοιχο 1
διαπραγματ@@ 1
τροφίμων 1
Ναπολέοντα 1
άλογα 1
θήκες 1
πριγκίπισσα 1
γράφοντας 1
φυσικού 1
χρονολογούνται 1
Αερ@@ 1
εβί@@ 1
ούτ@@ 1
83 1
Πό@@ 1
τέλεσε 1
ΑΝ@@ 1
Στρατιω@@ 1
δήμους 1
ησία 1
νεύ@@ 1
Ζερ@@ 1
Ορθόδοξη 1
Σουλτάν@@ 1
Δύ@@ 1
Λάρισας 1
κανόνα 1
συνάντησε 1
ωβ@@ 1
Εικ@@ 1
οκα@@ 1
κοιλ@@ 1
μόνιμ@@ 1
τικα 1
Τζό@@ 1
έπαι@@ 1
λεγόμενη 1
ογι@@ 1
επικράτησε 1
διαδικασίες 1
ζι 1
καθε@@ 1
πολέμους 1
μεγάλους 1
παράλληλ@@ 1
σερβ@@ 1
στος 1
κ.λπ. 1
ραφεί 1
Βορείου 1
ορος 1
Πυρ@@ 1
χώρησε 1
ωνι@@ 1
Χημ@@ 1
αλυσ@@ 1
επικράτεια 1
Σκην@@ 1
λεωφορ@@ 1
ταξης 1
επισκέπ@@ 1
εύσεις 1
οριζ@@ 1
πετρελαίου 1
στρατηγό 1
δύσκολη 1
ιφ@@ 1
ότυπο 1
διαφημ@@ 1
συγκεκρι@@ 1
Άρτας 1
διστ@@ 1
κλιν@@ 1
ψευδώνυμο 1
es@@ 0.08753280514421025
Λ 1
Πίτερ 1
ηγέτη 1
λέγ@@ 1
αρμεν@@ 1
βαλλ@@ 1
κατάταξης 1
CO@@ 0.9039965813469686
Αγγελ@@ 1
Αρκαδίας 1
Ντε 1
άλογο 1
διεθνούς 1
θύματα 1
Μάλ@@ 1
Τάγμα 1
έλας 1
ασμός 1
εγκεφαλ@@ 1
ers 0.05762642108948972
Βιέννης 1
δρόμων 1
καθόλου 1
λεια 1
Οσ@@ 1
σκορ@@ 1
διδασκαλία 1
σταματήσει 1
Ρωσικής 1
ήνες 1
αδερφ@@ 1
μουσουλμαν@@ 1
χιον@@ 1
Εκκλησι@@ 1
ημιτελικά 1
καταγ@@ 1
πρι@@ 1
Γιουγκοσλαβία 1
Λεω@@ 1
59 0.9232905480334878
Λειτουργ@@ 1
θέρ@@ 1
Αλεξάντερ 1
Αψβούργων 1
Παρόλα 1
Χρυσή 1
ήσι@@ 1
Αυλ@@ 1
εκατο@@ 1
εντερ@@ 1
ερν 1
ορά 1
πρωτεύουσας 1
Μαζ@@ 1
λεπτομέρειες 1
φάρμακα 1
καθεστώτος 1
ούμε 1
Άλλ@@ 1
Κόσ@@ 1
άνδρας 1
εκδο@@ 1
ευθεί 1
ντεν 1
Αρχαία 1
Σερρών 1
έδειξαν 1
ακτ@@ 1
απόφ@@ 1
βάρους 1
πρωτοπ@@ 1
ούρ 1
παρεμβ@@ 1
πλέ@@ 1
66 0.8905931255399964
Μπουρ@@ 1
βάν 1
επέμβαση 1
προέκυψε 1
Κυπ@@ 1
ευρωπαϊκό 1
ποιότητα 1
πολεμικά 1
ρρο@@ 1
Κλά@@ 1
δίνεται 1
Ιρλανδία 1
Κέρκυρα 1
μετάλλια 1
μηδεν@@ 1
άνοι@@ 1
ριβ@@ 1
καταλήγει 1
πεδιν@@ 1
πρα@@ 1
ύρης 1
Black 0.3797709964232869
Δικαστήριο 1
θεωρούνταν 1
παραδόσεις 1
φιν@@ 1
Αλβανίας 1
Λατιν@@ 1
Πολ 1
μοτί@@ 1
τοποί@@ 1
1899 0.8259043717419241
Αγ 1
Αλε@@ 1
οσίας 1
προσωπο@@ 1
παιδική 1
ρεύμα 1
συστη@@ 1
φίλους 1
16ου 1
βάλ@@ 1
καταργ@@ 1
φτωχ@@ 1
σχηματίζει 1
φωτιά 1
Κοινοβουλίου 1
εδαφ@@ 1
αναφοράς 1
γενν 1
βιβ@@ 1
πνεύμα 1
ριου 1
στάθ@@ 1
σχηματίζουν 1
κωδικ@@ 1
πιθανή 1
αιναν 1
κοι 1
συνεχή 1
αγόρασε 1
63 0.905979698911043
Ρίτσαρντ 1
έβαλαν 1
αφορμή 1
καλύπ@@ 1
ποινή 1
Car@@ 0.1726246395807781
International 0.17577354586820293
Ταξι@@ 1
έκα@@ 1
ανεξ@@ 1
καθιερώθηκε 1
ορισμένων 1
δισκ@@ 1
εύρεση 1
Ηλι@@ 1
ωνόταν 1
92 1
Ίδρυμα 1
άνοιγμα 1
ήνη 1
γματος 1
ζητήσει 1
θησαν 1
ζημιές 1
03 1
κέρδισαν 1
μπος 1
ίδου 1
καιρούς 1
v 0.3054305432553934
απόπειρα 1
διαμορφ@@ 1
τίων 1
Man 0.4328896482963169
Αραγωνίας 1
Οθωμανούς 1
αερο@@ 1
21@@ 1
Αγώνων 1
Αλέ@@ 1
Κρε@@ 1
δραματική 1
κελ@@ 1
δισ@@ 1
Καβ@@ 1
Προεδρ@@ 1
διαφων@@ 1
προετοιμ@@ 1
ιακός 1
ομίλους 1
τσε 1
Γρηγ@@ 1
Πασά 1
σουλ@@ 1
Μεγ@@ 1
δολοφονήθηκε 1
θώ@@ 1
μοι@@ 1
Χριστο@@ 1
δίκ@@ 1
τελετουργ@@ 1
Ζωή 1
ένδειξη 1
αποχώρηση 1
εκπομπές 1
61 0.9374328517313952
Η.Π.Α. 1
Μπορ@@ 1
έκτησε 1
δωρε@@ 1
Γκρά@@ 1
αποστολές 1
αρχαίων 1
βαν 1
Παπαδ@@ 1
προτάσεις 1
Γενικός 1
παρέχουν 1
3ο 1
αγνο@@ 1
αλλού 1
01 1
Μέρ@@ 1
αντάλλαγμα 1
όγειο 1
επιδ@@ 1
κοιμ@@ 1
άγου 1
καλλιτεχνών 1
ξεκινώντας 1
πλησί@@ 1
σής 1
εξαπλ@@ 1
προβολή 1
αποφάσεις 1
δημοσ@@ 1
χωρίζεται 1
Κινέζ@@ 1
Κοζ@@ 1
ανέρχεται 1
γρά@@ 1
Σέ@@ 1
ετούς 1
σκότωσε 1
Αλεξάνδρεια 1
ακρω@@ 1
ανούς 1
αποδίδεται 1
ογραφικά 1
ταυτότητα 1
74 0.9677421308376035
ευρύ 1
ισμένοι 1
κινηματογραφική 1
χαρακτηριστεί 1
άλε 1
ξεκιν@@ 1
παραίτηση 1
Σάντα 1
αγώνισμα 1
ληση 1
νόμους 1
φτάνοντας 1
98 1
υποβιβάστηκε 1
23@@ 1
γράφος 1
χάλκινο 1
βρε@@ 1
δικής 1
εντρ@@ 1
ούλ 1
1870 0.8356697785380329
αντίστοιχ@@ 1
βρίσκ@@ 1
μελετητές 1
ύφ@@ 1
γεται 1
καταστήματα 1
Ρωμαίους 1
θήματα 1
μηχανή 1
αρχιτέκτονα 1
οδός 1
πράσινο 1
τάς 1
τραγουδιών 1
Διατ@@ 1
ευρω@@ 1
στρατηγική 1
σωματείο 1
Αστυνομ@@ 1
Κίν@@ 1
εγγον@@ 1
θεωρίας 1
σχολι@@ 1
επιστημον@@ 1
pop 0.6704256592306571
Ροδ@@ 1
θεωρίες 1
σσεται 1
φαγ@@ 1
εται@@ 1
θαλάσσι@@ 1
όχθες 1
αφρικαν@@ 1
τολόγ@@ 1
8.@@ 1
Μέγα 1
νικ 1
οντ 1
ουζ 1
βιν 1
ιζαν 1
πρώιμη 1
Α.Ε. 1
οικονομίας 1
σετ 1
250 0.8077538013110186
ανθρώπιν@@ 1
δανει@@ 1
άγνωστο 1
ομιλία 1
πληθυσμών 1
υλικών 1
Μέν@@ 1
Φέρ@@ 1
ξεχωριστ@@ 1
τόξ@@ 1
Αριστ@@ 1
Ρ 1
Σταδιοδρομία 1
αριστερό 1
δάσκαλος 1
υρα 1
́ 0.19865396743640729
Δούκας 1
επενδύ@@ 1
υποβιβ@@ 1
ήματά 1
λαμβάνεται 1
τονίας 1
Εξελέγη 1
ίδρυσαν 1
93 1
Γουίλιαμ 1
Καλαμά@@ 1
Πατρι@@ 1
έξοδο 1
ευθύνη 1
όπων 1
1881 1
one 0.031571055465386674
άθλημα 1
ιστάν 1
18@@ 1
Μόλις 1
αλφάβητο 1
αποκλείστηκε 1
γέννηση 1
30@@ 0.7786708614282133
αποκλεί@@ 1
γνωρίζει 1
δημοσιεύθηκε 1
ελεύθερο 1
ικες 1
μορφής 1
Πρώτος 1
επέστρεψαν 1
επανήλθε 1
τάσεις 1
Φωκ@@ 1
εμπορικά 1
Κώ@@ 1
ίνιο 1
Ρί@@ 1
άχθηκε 1
κια 1
πετ@@ 1
προηγούμενες 1
συναυλία 1
81 1
Μερικοί 1
γκο@@ 1
θεμάτων 1
θητείας 1
ινές 1
κιθάρα 1
προκαλώντας 1
Αντρ@@ 1
Βικ@@ 1
Γνω@@ 1
επιτε@@ 1
κάποιου 1
περιβάλλοντος 1
σωματεία 1
Κλε@@ 1
θεώρηση 1
κτιρίου 1
συμπέρασμα 1
εργαζόταν 1
82 1
δαπ@@ 1
διαδεδο@@ 1
ρέν@@ 1
ωνος 1
ύρες 1
βυζαντινή 1
δεικ@@ 1
χαρτο@@ 1
ισχύος 1
κάλυψη 1
ίως 1
μβούργο 1
πέρασαν 1
τζα 1
Ραμ@@ 1
έτης 1
αστικών 1
διάδοχ@@ 1
διάρκειας 1
ημέρας 1
78 0.9877742770005555
Πομ@@ 1
γερμανικής 1
μπολ 1
ήσουμε 1
Νταν@@ 1
ονόμασε 1
ωνικές 1
3.000 1
δυναμικό 1
ώδους 1
73 0.9939905226068738
γεννη@@ 1
ολόγο 1
υπεύθυνη 1
μίλια 1
W 0.42376943123937183
ίδρυμα 1
αρμοδι@@ 1
Sh@@ 0.16059477101716782
Μονής 1
Παγκόσμιος 1
αμο 1
ομοσπονδία 1
υπολογιστών 1
ρέψει 1
ρινή 1
σημεριν@@ 1
Λευκωσίας 1
Μαδρίτης 1
Πιερ@@ 1
Χασ@@ 1
ήσιο 1
εκατό 1
ούπολη 1
όκο 1
Ντού@@ 1
βρετανική 1
ποιότητας 1
στερη 1
ενίσχυση 1
καταδικάστηκε 1
Γυμνάσιο 1
ΕΡ@@ 1
γλύπ@@ 1
θείο 1
ογραφίες 1
όλας 1
ώπου 1
86 1
Όθωνα 1
διακοπ@@ 1
προεδρία 1
Λε 1
ιερέας 1
1902 0.7070536744353882
επικρα@@ 1
ημά 1
μικρότερα 1
ευθύν@@ 1
θέτοντας 1
76 0.9068872978138791
ατη 1
Δί@@ 1
απεικόνιση 1
απονεμήθηκε 1
ενδ@@ 1
πολυτελ@@ 1
Αιτωλοακαρνανίας 1
Υπηρέτησε 1
κτήρια 1
συναισθ@@ 1
Ανθ@@ 1
ήση 1
ανεξαρτησίας 1
γλωσσών 1
ηματο@@ 1
αμερικανικό 1
ομαλ@@ 1
τσας 1
φυσικές 1
χης 1
1880 0.8466187402658267
αυξάνεται 1
ειλ@@ 1
background 0.9124550460731375
δόθηκαν 1
λεπτομερ@@ 1
ορία 1
σκεπ@@ 1
om@@ 0.13210492796931553
άνας 1
αναζήτηση 1
οποιηθεί 1
άγο 1
ωνικά 1
όβια 1
μασ@@ 1
πορτρέ@@ 1
όλια 1
69 0.9634854007852088
87 1
δείγμα 1
δημοφιλή 1
προστασίας 1
στρατηγού 1
τικη 1
όπερα 1
ύτερα 1
αστούν 1
μπι@@ 1
Λυκ@@ 1
Σίτι 1
διάμετρος 1
Λουδοβίκο 1
κατάρ@@ 1
λάμβαναν 1
μορφω@@ 1
πετοσφαίρισης 1
υπογραφή 1
οβο 1
παραδοσιακό 1
ύρι 1
Ηρακλής 1
διήρκεσε 1
θετο 1
μετατράπηκε 1
ύτερ@@ 1
Πακιστάν 1
Συνέδριο 1
θεσε 1
κρο@@ 1
οποιούνται 1
αρο@@ 1
στά 1
Ισλάμ 1
Πιθαν@@ 1
μουσικά 1
ΕΔ@@ 1
Ταξ@@ 1
έρθει 1
μπλ 1
χρησιμοποίησαν 1
Παναγιώτης 1
έκτη 1
αντες 1
καθορι@@ 1
κλίμακας 1
Χω@@ 1
ραδιο@@ 1
αΐ@@ 1
αντλ@@ 1
βουν@@ 1
ενι@@ 1
νει 1
ράν 1
φυτών 1
ασχολούνται 1
πρέσ@@ 1
πύλη 1
Γερμανική 1
δημοτικά 1
μπορούμε 1
σσας 1
σχολής 1
28@@ 1
Παναγία 1
Συνταγ@@ 1
κασ@@ 1
αποδίδ@@ 1
διος 1
μηχανική 1
ορισμένοι 1
ίστρια 1
ίχνη 1
ομοσπονδιακ@@ 1
τομία 1
Αυστραλίας 1
Λομβαρ@@ 1
Παγκόσμια 1
Συχνά 1
Τουρκο@@ 1
παράγουν 1
προσπάθησαν 1
τερη 1
Θεωρ@@ 1
εξέταση 1
νερ@@ 1
ύμν@@ 1
Ρωμαίων 1
επιστήμες 1
ρί 1
τσαρτ 1
Μαρτ@@ 1
ίτιδα 1
στρατιωτών 1
Πολιτισμού 1
Σμύρνης 1
Τουλ@@ 1
κατάλογος 1
color 0.4735196907649954
άνεια 1
έπαιζε 1
εξορ@@ 1
σύνη 1
Έχοντας 1
μακρ@@ 1
φίλο 1
1895 0.7931692301312236
Μέση 1
αλλιώς 1
Δαρ@@ 1
ήσι 1
κοινωνικά 1
οσύνη 1
Πρεσβ@@ 1
Φίλιππο 1
άσμα 1
έται 1
βασιλικής 1
ειές 1
κίτρι@@ 1
Καπ 1
ακολουθούσε 1
διαρ@@ 1
θάλ@@ 1
Πήρε 1
διαιρέ@@ 1
περιέγραψε 1
ροφή 1
χειρουργ@@ 1
1835 1
δεχτεί 1
όπα 1
ΙΑ 1
Πρε@@ 1
αποφασίζει 1
υγι@@ 1
Ν.@@ 1
δολαρίων 1
παλαιότερη 1
παρουσιάζεται 1
ποιος 1
συσσ@@ 1
φάσμα 1
Όλοι 1
Ιταλός 1
αποθηκ@@ 1
θησαυ@@ 1
τυπικά 1
Ειρήνη 1
Συμφ@@ 1
θου@@ 1
σχέσεων 1
71 0.9385951954025786
Φρανκ 1
αμιν@@ 1
δηλώσει 1
as@@ 0.0956787945629935
αναζη@@ 1
κολλ@@ 1
ριχ 1
αστέρες 1
εργαστήριο 1
θι@@ 1
πράσ@@ 1
στάλθηκε 1
ήτες 1
αερίου 1
ικία 1
στεφ@@ 1
ύματα 1
ώνια 1
Σύντομα 1
θεια 1
ικης 1
ιτών 1
μόνιμα 1
αζόταν 1
λαμπρ@@ 1
έσοδα 1
ενσ@@ 1
εξελίχθηκε 1
παρέ@@ 1
τηλ@@ 1
Ρωμαιοκαθολ@@ 1
δρόμ@@ 1
αντίληψη 1
δυνα@@ 1
τύποι 1
Αυτοκρατορ@@ 1
Ρε@@ 1
αρτ@@ 1
ικανότητες 1
Ιππ@@ 1
γη@@ 1
αναγνώρισε 1
δημοσιεύτηκε 1
ιδιαίτερο 1
υποστεί 1
φυσικών 1
θοι 1
λλου 1
ωνες 1
Λι 1
Μαρκ 1
άγονται 1
αιχμαλώ@@ 1
επιλεγ@@ 1
εϊ@@ 1
Βασίλης 1
επίθεσης 1
εργασιών 1
ευρεία 1
μητρ@@ 1
υπουργού 1
ωτά 1
Σύγ@@ 1
τιμής 1
έφυγαν 1
Ταυτόχρονα 1
ανταλλαγή 1
συνεπ@@ 1
κυβερνήσεις 1
καταγόταν 1
μηνών 1
πρώιμ@@ 1
τερος 1
οικονομικό 1
συλλογής 1
φέροντας 1
ακολουθήσει 1
βιντεοπαιχν@@ 1
Αναπ@@ 1
ενμπεργκ 1
ραμα 1
… 0.32459099300876576
Εσ@@ 1
καθαρά 1
οειδών 1
βορειο@@ 1
προσώπου 1
σώζονται 1
Δεκ@@ 1
Καθεδρ@@ 1
Ντρ@@ 1
αυτοκρά@@ 1
ενμπουργκ 1
Αριστερ@@ 1
Πατριάρχης 1
επιπτώσεις 1
τάφο 1
αυτόνομ@@ 1
εξαρτ@@ 1
μίσ@@ 1
υποχρεω@@ 1
καρι@@ 1
σημαντικότερα 1
ύρας 1
ΕΛ@@ 1
δεδομένου 1
ενθουσι@@ 1
καλύπτεται 1
ταύ@@ 1
βιος 1
θεατές 1
Γραμ@@ 1
ίθεται 1
θεί@@ 1
μεμον@@ 1
πέτρι@@ 1
Βασίλισσα 1
Love 0.46671885197331275
πλήρω@@ 1
ίστανται 1
επιδημ@@ 1
λαφ 1
μέσος 1
αυστ@@ 1
εξορία 1
επιδράσεις 1
στρατιωτικών 1
ωτό 1
Le 0.035182501118443545
Μάρτιν 1
βάν@@ 1
επιστήμης 1
οσκ@@ 1
οχυρω@@ 1
ούκ 1
σχεδιάστηκε 1
Δελ@@ 1
διαιρείται 1
απαγόρ@@ 1
είμεν@@ 1
εκείνα 1
κόσμος 1
ie 0.08697075429051156
ανήκαν 1
συνασπ@@ 1
ύτερος 1
Αρμενία 1
δεσμούς 1
θέτως 1
συσκευ@@ 1
Αντιπροσώπων 1
Ευρ@@ 1
έκδοσης 1
βήμα 1
μικρότερος 1
τόνους 1
ίσα 1
απορροφ@@ 1
θαλασσ@@ 1
κατώ@@ 1
ομώνυμου 1
τρε@@ 1
ανθρακ@@ 1
πέμπτη 1
καλεί 1
μερικοί 1
σουηδ@@ 1
όνους 1
ητήρ@@ 1
πιάνο 1
96 0.9177104959137333
Φρου@@ 1
ίμων 1
δείγματα 1
οργανισμός 1
79 1
Q@@ 0.2797169043886997
ol@@ 0.11674868566663496
γράφηκε 1
ιστορικούς 1
Ιππο@@ 1
Σέλ@@ 1
αποφασίστηκε 1
ειδικές 1
συνέντευξη 1
Νόμπελ 1
προσαρτάται 1
ρισης 1
τείνουν 1
χαρντ 1
διπλωματ@@ 1
θρόνου 1
όψη 1
Καλών 1
δείχ@@ 1
διάθεση 1
καθεδρ@@ 1
Γερμανό 1
δουκάτο 1
ποί@@ 1
it 0.019343991694432378
Θάλασσας 1
ισμένων 1
λαός 1
σοβαρές 1
Σικελία 1
ιθαγεν@@ 1
κωμόπολη 1
προσωπικά 1
συμβεί 1
94 1
Γάλλοι 1
λανθ@@ 1
πάντως 1
τύχη 1
Χ. 1
διού 1
ιστοσελίδα 1
κληρονομιά 1
κόν@@ 1
νεϊ 1
ρασης 1
συνέδριο 1
τεχνολογίας 1
τσου@@ 1
υσή 1
Rock 0.507185052278286
γενικό 1
δήμ@@ 1
ευχαρ@@ 1
πλαν@@ 1
ρωση 1
ότ 1
Μεσόγειο 1
Στρατό 1
Τόμ@@ 1
ανάγλυ@@ 1
βήματα 1
θεσή 1
No 0.3540452191165322
λεί@@ 1
μεθαν@@ 1
σκοτώσει 1
τρικ 1
Αρμέν@@ 1
Οργαν@@ 1
Περιστ@@ 1
κέντρου 1
καθημερινή 1
κανονικά 1
κινα 1
τοιχογραφίες 1
Αμαλ@@ 1
Κουν@@ 1
Ναό 1
αξε 1
ατικές 1
οπτική 1
περν@@ 1
υπάρξει 1
αυγ@@ 1
βασισμένη 1
ουκραν@@ 1
προέλευσης 1
τ.@@ 1
Υπηρεσία 1
έκτοτε 1
διεθνώς 1
Άμυνας 1
Λογοτεχν@@ 1
έλες 1
αναλαμβάνει 1
εδαφών 1
ειακών 1
οπαδούς 1
Ερυ@@ 1
γυναίκας 1
δισεκατομμύρια 1
φωτογραφίες 1
χρυσά 1
ύτερο 1
Μονα@@ 1
άση 1
γεγονότων 1
μόνων 1
τλ@@ 1
υρό 1
Βόρ@@ 1
Μπατ@@ 1
αποικία 1
am 0.03534289437284886
Γυμνα@@ 1
Ιράκ 1
Μεθ@@ 1
ένωσης 1
ασμένος 1
ρίσκ@@ 1
ανεξάρτητο 1
ητεία 1
ολόγηση 1
έγγραφο 1
κατασκευάστηκαν 1
νεαρός 1
συσκευές 1
έλα@@ 1
εθνικών 1
ναι 1
οποιεί 1
τοπικών 1
όδια 1
ώνονταν 1
1901 0.6716511545820057
έμειναν 1
ανοί 1
θωρακ@@ 1
μένουν 1
σύμπ@@ 1
αμερικάν@@ 1
κουλ@@ 1
Νόβ@@ 1
Πρωσίας 1
βορρά 1
βόρ@@ 1
ποίημα 1
ic@@ 0.13884007119394334
Πρωθυπουργός 1
ήθελαν 1
αισθ@@ 1
σημαν@@ 1
5ο 1
Σούπερ 1
βιολ@@ 1
μάτι 1
πες 1
φρα@@ 1
{ 0.7931459913457305
Σαιντ 1
τουρκικά 1
δέντρα 1
επίσημες 1
σημαντικ@@ 1
συνεπώς 1
τευση 1
τιζ@@ 1
χες 1
δημόσι@@ 1
οφορ@@ 1
υδατο@@ 1
τέκ@@ 1
ώνυμ@@ 1
Δελφ@@ 1
ήχου 1
δεδο@@ 1
μπασ@@ 1
Σταν@@ 1
Βικτ@@ 1
Βραζιλίας 1
Κροατίας 1
εκείνες 1
οργάνων 1
τηρίων 1
Δράμας 1
Εδώ 1
Μαθ@@ 1
Νικηφ@@ 1
ελαφ@@ 1
κατάρρευση 1
κοψε 1
λοβ@@ 1
μάγ@@ 1
συστατικά 1
συχνότητα 1
ωμένων 1
Γκρι@@ 1
Εβραίους 1
απουσία 1
ζή@@ 1
ιδρύματα 1
νέοι 1
τελικός 1
Κυπριακή 1
Ουν@@ 1
Χίου 1
άγνωστη 1
άσεως 1
αί 1
δημοφιλ@@ 1
ηγορ@@ 1
Top 0.5563847565238539
Αλμπ@@ 1
Λωρραίνης 1
Μουσείου 1
κομματ@@ 1
99 0.8621195037610934
Απόλλων 1
ήρυξη 1
παράγωγ@@ 1
παρακολούθησε 1
όρθ@@ 1
αριθμοί 1
κει@@ 1
πανεπιστημίου 1
προσωριν@@ 1
συγγενείς 1
τοποθεσίες 1
ΠΑΣΟΚ 1
θετική 1
υπολογίζεται 1
1,5 1
καρκίνο 1
μεταβολές 1
προτείνει 1
97 1
Tr@@ 0.13960089917689342
Μεξικού 1
κατακτη@@ 1
τελει@@ 1
μεγαλύτερ@@ 1
πόρ@@ 1
σύλλογοι 1
Γραμματ@@ 1
Διοίκηση 1
διαφορετικών 1
στελέχη 1
Ισλανδ@@ 1
Μύ@@ 1
έχασαν 1
ηψης 1
όλος 1
άλων 1
θρησκευτικές 1
Δικ@@ 1
Πού@@ 1
εξασφαλίσει 1
παραχώρησε 1
τείνει 1
στρατιωτικής 1
ολι@@ 1
αεροπλ@@ 1
εισήλθε 1
εκδήλωση 1
πίεσης 1
στενή 1
συνόρων 1
Σεν 1
έγραφε 1
εκδηλ@@ 1
φορτηγ@@ 1
άντη 1
άπο@@ 1
διαδικτυ@@ 1
διευθυντή 1
μοναδικός 1
πιστεύουν 1
χρησιμοποιηθούν 1
Φοίν@@ 1
μικρών 1
τρό 1
όδρομος 1
ka 0.18733836081306426
γιατ@@ 1
ιτζ@@ 1
Ρέν@@ 1
Χόλ@@ 1
αναφερθεί 1
απόλυτη 1
τοποθετείται 1
φύσης 1
Γιόχαν 1
ίνσκι 1
αρχής 1
ναυπηγ@@ 1
Me 0.5761515899255675
Έξ@@ 1
αμε 1
στέμμα 1
Αλλ@@ 1
Γάλλους 1
Ρωμαϊκ@@ 1
μικρής 1
μπροστ@@ 1
ομοί@@ 1
6ο 1
Χάρι 1
κοντιν@@ 1
οια 1
πολωνικά 1
υπουργό 1
ώρι@@ 1
Βασιλικό 1
Κοινότητας 1
ισπανική 1
ica 0.21169439164601353
Όρ@@ 1
όργ@@ 1
ώνιος 1
θιο 1
μηχανικός 1
παρατήρ@@ 1
Ορθόδοξ@@ 1
ήμα 1
μέγιστο 1
χήρα 1
w@@ 0.08661825487378769
ανοιχ@@ 1
ιστορικές 1
Γκού@@ 1
ΟΗΕ 1
Παρασκευή 1
Χαρακτηριστικά 1
άλει 1
πόσο 1
σταθμούς 1
ινς 1
Θεσσαλίας 1
Σαμπ@@ 1
επαναλ@@ 1
ηλικιω@@ 1
μένοντας 1
οχος 1
περιορισ@@ 1
σφαίρα 1
τρέχ@@ 1
Δήμ@@ 1
Στάν@@ 1
επικοινωνία 1
νεοσύ@@ 1
αστρο@@ 1
ουγγρ@@ 1
Ζακ 1
βαδ@@ 1
διαμόρφωση 1
ετο@@ 1
λειτουργούσε 1
ούταν 1
αναμ@@ 1
βλήθηκε 1
Αύγουστος 1
διάσημο 1
κεντρικής 1
Ελληνικά 1
Σταυ@@ 1
Βραβ@@ 1
Ρεάλ 1
επεξεργαστ@@ 1
επιτέθηκαν 1
παλαιά 1
27@@ 1
Φρά@@ 1
αποδείχθηκε 1
συνθέσεις 1
στρα 1
φορείς 1
άλλον 1
έκτακ@@ 1
ερί 1
9,@@ 1
Κάσ@@ 1
αίθουσες 1
περίφημ@@ 1
Cor@@ 0.1955314618139843
Πανελλήν@@ 1
άλλοτε 1
βό@@ 1
όντια 1
άλες 1
δυσκολίες 1
κουζ@@ 1
συνθέτη 1
cm 0.4332895239616363
Όλες 1
ίζα 1
ρέει 1
Ιστορίας 1
Κορινθ@@ 1
θρησκ@@ 1
πολιτισμ@@ 1
1898 0.7056468161589925
Ανδρ@@ 1
Θεός 1
επικοινωνίας 1
Αλέξανδρου 1
φωνητικά 1
νομική 1
συνέβαλε 1
ωρών 1
ζήτησαν 1
ποίησης 1
πολέμησε 1
στησε 1
συμβάλλ@@ 1
Ραδι@@ 1
έκρινε 1
ειδή 1
εκδίδ@@ 1
ουγκ@@ 1
παραγγελ@@ 1
Γενική 1
Μουν@@ 1
έργη 1
ενδιαφέρ@@ 1
θεά 1
κτίστηκε 1
ούχων 1
παράγονται 1
πης 1
τιδας 1
mm 0.31659215961230086
Χαμ@@ 1
δίων 1
ορισμένους 1
παράκ@@ 1
παραλλαγές 1
προπον@@ 1
διακρίνονται 1
77 0.8873226031666536
Βελιγράδι 1
ικοι 1
ολογείται 1
οργανισμό 1
91 0.9817838555736553
Κολομ@@ 1
άφους 1
ατ 1
αφιέρ@@ 1
επίδοση 1
επαγγελματικό 1
000.000 1
ήσια 1
πράκ@@ 1
ότητές 1
Ισαβέλλα 1
απόδειξη 1
εμπορίου 1
νεα@@ 1
ντοκιμαντέρ 1
σκάφος 1
Αλγερ@@ 1
Θράκη 1
αφήσει 1
δέρμα 1
ϊκό 1
ta 0.1353020262516667
Ιπ@@ 1
ήφ@@ 1
όσοι 1
αέριο 1
κόρ@@ 1
οκρατ@@ 1
άμα 1
θαρ@@ 1
θαυμα@@ 1
λων 1
τωμα 1
φάσης 1
Λέν@@ 1
ημένων 1
ξένων 1
ξεφ@@ 1
ανάγκασε 1
νότο 1
οργανισμού 1
Βιομηχαν@@ 1
Παναθηναϊκός 1
Πραγ@@ 1
είν@@ 1
ενδείξεις 1
ομοφυλ@@ 1
περιβάλλ@@ 1
ωφ 1
Ελλ@@ 1
Ιάκωβος 1
Περιοχή 1
αναπτύσσεται 1
ατιού 1
στρατιω@@ 1
ανη@@ 1
απάντησε 1
κοβιτς 1
μετανάστευ@@ 1
ομό@@ 1
άμου 1
ούμενοι 1
συνολ@@ 1
Γκον@@ 1
γένους 1
γιοι 1
θυγατρ@@ 1
οδότη@@ 1
γράφων 1
ελλαδ@@ 1
μούς 1
ρίδες 1
φιλοξενεί 1
Μίν@@ 1
αγορές 1
σύλληψη 1
it@@ 0.09989185209785571
καταγράφ@@ 1
οσσ@@ 1
σήμαινε 1
σύμβολα 1
Έντ@@ 1
εργαλεία 1
Αναγέννηση 1
αυτό@@ 1
εμπιστο@@ 1
συγκεκριμένες 1
υποψηφ@@ 1
All 0.17680890980012945
Con@@ 0.14276741001300022
Λευ@@ 1
αποτελούνται 1
διάκ@@ 1
επιγραφές 1
ιανός 1
προτάθηκε 1
ηλικ@@ 1
κυκλοφορού@@ 1
ρίζα 1
Βαρσοβίας 1
Εθνικός 1
πλευράς 1
ποδοσφαιριστές 1
Πόρ@@ 1
αίτημα 1
καλύτερ@@ 1
ώπ@@ 1
ειρα 1
όρι 1
Μικράς 1
νοσ@@ 1
τηλεοπτικές 1
δόκ@@ 1
Το@@ 1
ολόγου 1
02 1
άφιξη 1
νωρίς 1
υψηλές 1
φρόν@@ 1
ευτές 1
κί@@ 1
πορτογαλ@@ 1
πυρι@@ 1
φασματικός 1
ομοσπον@@ 1
Δύση 1
Χού@@ 1
γραμμα 1
φέ@@ 1
0.@@ 0.38296051503273876
έλια 1
ίφ@@ 1
αλογ@@ 1
αντικειμένων 1
κωμωδία 1
συγγραφ@@ 1
χωρήσει 1
Μή@@ 1
αλήθεια 1
λατ@@ 1
πλήρης 1
Κατασκευ@@ 1
θετικές 1
ξεχωριστή 1
πολις 1
φυλής 1
Nissan 1
Σλοβεν@@ 1
κιλά 1
κύκλους 1
Κυκλ@@ 1
δημοκρατίας 1
εκστρατείας 1
ωθ@@ 1
Ειδικότερα 1
Κέι@@ 1
αδρ@@ 1
ασυνήθι@@ 1
δευτερόλεπτα 1
κατανάλωση 1
σκο 1
φρού@@ 1
γαλλικής 1
διάμετρο 1
δράσεις 1
κατοικίες 1
Λουί 1
αντού@@ 1
εξισ@@ 1
αναμεν@@ 1
διαι@@ 1
ονό@@ 1
ρικούς 1
ριστεί 1
τίμ@@ 1
χερσ@@ 1
ine 0.09664191380190786
εξοπλισμό 1
ορθόδοξ@@ 1
ύπν@@ 1
Καλαθοσφαίρισης 1
Οδ@@ 1
ήχο 1
βεν 1
εθ@@ 1
εμφ@@ 1
επιστημονικής 1
θεατρικό 1
περιορισμένη 1
τάφηκε 1
Άννας 1
αραβικά 1
επισκοπή 1
μουσουλμάν@@ 1
ονομασίες 1
Γιώργο 1
Δεκα@@ 1
Νορμανδίας 1
θηλα@@ 1
τυχαν 1
89 0.9638573653649223
Ιλ 1
εισόδου 1
ισσα 1
οδρομ@@ 1
πρότ@@ 1
Αχιλλ@@ 1
ευγενών 1
θολ@@ 1
θον@@ 1
μαρ 1
ται@@ 1
Α.Σ. 1
Επιχειρ@@ 1
τριας 1
Χανίων 1
ένταση 1
συνέβ@@ 1
Νορβηγ@@ 1
άρει 1
ένκο 1
ανικό 1
μιρ 1
σκευ@@ 1
Τζέν@@ 1
επιτυγχ@@ 1
συλλόγων 1
σύνδρομο 1
τρι 1
NGC 0.9526478931683967
ήρωα 1
αυτοκίνητα 1
καυ@@ 1
παγκόσμιας 1
στολή 1
αναλογία 1
θετικά 1
μακρά 1
πανεπιστήμια 1
Times 0.4417028350261277
μορ 1
ωμένοι 1
Πληθυσμός 1
εικα@@ 1
σύνθε@@ 1
Επισκοπ@@ 1
Καναδ@@ 1
Σώμα 1
Τσαρλς 1
στόλος 1
άλους 1
ακριβής 1
λατρεία 1
μουσικός 1
νοτιο@@ 1
συζήτηση 1
φανερ@@ 1
χρώματος 1
Άραβες 1
αφιερωμένο 1
ότζ@@ 1
13ο 1
Γλ@@ 1
Δούναβη 1
ακυρ@@ 1
δεκάδες 1
εμπνευσ@@ 1
ηκ@@ 1
del 0.014679640456708349
ευτικά 1
ουρά 1
ΕΛΑΣ 1
κατέφυγε 1
νοσοκομ@@ 1
στρο 1
ύλα 1
Αγγλικά 1
Σμιθ 1
έρο 1
βιομηχανίας 1
οποιήσει 1
πλέγ@@ 1
σκι@@ 1
στράφηκε 1
όμορφη 1
St@@ 0.13063702749190398
αγρι@@ 1
απεικονίζει 1
καταλή@@ 1
παρατηρήσεις 1
σοβαρή 1
Βελγίου 1
αντίστοιχη 1
απελευθέρ@@ 1
Ματθ@@ 1
αρχαίος 1
δρομή 1
ζωντανά 1
κατακτώντας 1
υποδεικνύ@@ 1
Μοχ@@ 1
διατηρούσε 1
επιρροές 1
πλέι 1
εγερ@@ 1
ρους 1
σελίδες 1
στης 1
παχ@@ 1
τείται 1
ώνυμο 1
Επαγγελ@@ 1
ιδιαίτερ@@ 1
κτηνοτροφία 1
ουφ@@ 1
υποδύ@@ 1
όμετρο 1
NBA 0.856343596945352
One 0.18070547273389642
Ρω@@ 1
ευαν 1
Παυσ@@ 1
στραμ@@ 1
αντιπάλους 1
δικτα@@ 1
κλάδο 1
κύκλ@@ 1
νυχτερ@@ 1
υφίσταται 1
Μιλάνο 1
Νόρ@@ 1
τιστεί 1
ηβ@@ 1
έκ 1
γυμ@@ 1
χτύπ@@ 1
Σλοβακ@@ 1
μέγιστη 1
οξείδ@@ 1
οποί@@ 1
Αγγ@@ 1
Μπρι@@ 1
Συρίας 1
έμβλημα 1
επιτυχώς 1
ισχυρίστηκε 1
ζόν 1
ξύλο 1
τετραγωνικά 1
1889 0.7729950652956118
Βασίλ@@ 1
Μητρόπολη 1
γραφικό 1
ισοδύνα@@ 1
λεγόμενο 1
μονομ@@ 1
αντές 1
μικρότερες 1
φτι@@ 1
χωρητικότητα 1
na 0.12084720736864218
Βόρειο 1
Κωνσταντ@@ 1
ατικών 1
9.@@ 1
Σκωτία 1
τουρκικό 1
φιλανθρωπ@@ 1
Έντουαρντ 1
οξι@@ 1
υπόψη 1
Έσσης 1
δη@@ 1
εξειδικευ@@ 1
παρατηρείται 1
100.000 1
άντας 1
ευτικές 1
Αφρικαν@@ 1
αυξαν@@ 1
διατηρήσει 1
επισκευ@@ 1
ανγκ@@ 1
συγγραφή 1
ωνύ@@ 1
Θεόδω@@ 1
Παιδείας 1
αρχαίου 1
μέτρηση 1
πεδο 1
στήλη 1
et@@ 0.10497996793623683
Τάρ@@ 1
αριθμούσε 1
καπ@@ 1
κοινωνικό 1
παίζοντας 1
φιγ@@ 1
αλφαβ@@ 1
βαριά 1
Νάπολης 1
Σκο@@ 1
Τσεχοσλοβακ@@ 1
γιατρός 1
εγκληματ@@ 1
Πωλ 1
κοφ@@ 1
μεταρρυθμίσεις 1
οκομ@@ 1
ουκ 1
τουρκο@@ 1
Λήμ@@ 1
πάρα 1
σκοπός 1
Έρευ@@ 1
Επέστρεψε 1
έψ@@ 1
διαδικασίας 1
θέας 1
πυρα@@ 1
ριζε 1
Οδυσσ@@ 1
Τζων 1
παρουσίαση 1
φυτό 1
Εσωτερικών 1
άσια 1
ανθρώπινο 1
διαφορετικούς 1
στρατόπεδα 1
ina 0.12904524430418368
αποκαλείται 1
επισκέφθηκε 1
μεγαλύτερους 1
πλήρες 1
άθλ@@ 1
άτσ@@ 1
απολύ@@ 1
αψ@@ 1
λήψη 1
ολόγησης 1
υπόγ@@ 1
Th@@ 0.1663048713621608
Εμφαν@@ 1
Οίκος 1
E9E9E9 1
Νυ@@ 1
κίνη@@ 1
οφιλ@@ 1
Εδουάρδος 1
Πετρ@@ 1
Σύνοδο 1
ευτής 1
Όρος 1
Πάνω 1
εγγονός 1
ισχ@@ 1
Ανδρών 1
απέρριψε 1
ετησίως 1
τιμών 1
Λέων 1
Σερ 1
πολλαπλασι@@ 1
προκαλ@@ 1
χερσόνησο 1
προσευ@@ 1
Ανήκει 1
Ρόδου 1
Θάνατος 1
άνα@@ 1
πλαισ@@ 1
ηχογραφήσεις 1
θεού 1
λιση 1
2,5 1
id 0.2860516990280315
αμερ@@ 1
Ινστιτούτου 1
δεχθεί 1
νεαρό 1
συνέλευση 1
τροπή 1
15ο 1
Πρωθ@@ 1
εργάτες 1
καλείται 1
μαντ@@ 1
μετατρέ@@ 1
πετύχει 1
My 0.503150457104933
ντι@@ 1
πολίτευ@@ 1
φυσικός 1
Περιφέρειας 1
αφαιρέ@@ 1
δουλεύ@@ 1
μονα 1
νύχ@@ 1
υδροξ@@ 1
Le@@ 0.13635656357961992
Τζόρ@@ 1
ξενοδοχ@@ 1
ουσιών 1
δίσκους 1
κήρυξε 1
Ολυμπιακών 1
Ρόλου 1
Τραπεζ@@ 1
αργά 1
ονόματι 1
στάιν 1
ad 0.1643852135417794
metal 0.5766568358554984
Αμέσως 1
Βερν@@ 1
Λεμεσού 1
διαδοχή 1
σκέψη 1
όμε@@ 1
Μανουήλ 1
αντίστροφ@@ 1
ναϊκ@@ 1
μαρμά@@ 1
Αντώνιος 1
Δε@@ 1
Διαφ@@ 1
Καστίλης 1
Σάβ@@ 1
Τραγουδιού 1
ανανε@@ 1
εθνικά 1
θεραπείας 1
κλάδος 1
πρωθυπουργού 1
σπουδαι@@ 1
Διοικητική 1
Ζι@@ 1
ειδικ@@ 1
κν@@ 1
πελλα 1
σφραγ@@ 1
Ορθ@@ 1
ραγκ@@ 1
Μονάχου 1
άγι@@ 1
αναφερόταν 1
αυτοκινήτων 1
επιβι@@ 1
ανάλογ@@ 1
γρα@@ 1
κυλ@@ 1
αναλύ@@ 1
ητικός 1
κλασσ@@ 1
ρύθμιση 1
χειμερ@@ 1
ation 0.03708231850759907
Γ.Σ. 1
Στρα@@ 1
αναπτυχθεί 1
απαιτήσεις 1
τάφος 1
Αγρο@@ 1
Βρετανική 1
Σχέδιο 1
Τέτο@@ 1
ζονταν 1
κάς 1
λαση 1
ορυκτ@@ 1
ούρι 1
σια 1
σκλάβ@@ 1
Αργεντινή 1
Βον@@ 1
Κοζάνης 1
κάποιους 1
ωνικός 1
Θεό 1
καλύψει 1
σύγχρονες 1
τηλεόρασης 1
u@@ 0.10905370654421442
Ανγκ@@ 1
άνγκ 1
βίαι@@ 1
ικίας 1
κρατική 1
ΟΣ 1
αργύρου 1
Κορέα 1
Φρανσουά 1
σκο@@ 1
ΑΕ 1
θεσαν 1
σύσταση 1
1830 1
Πέτρο 1
γεννα@@ 1
σχεδι@@ 1
όλυ@@ 1
2ου 1
os@@ 0.11688963797456842
Θεάτρου 1
έθηκε 1
αλλάζει 1
δοκιμα@@ 1
Πρίγκιπα 1
Πρωταγων@@ 1
άσκηση 1
αντιπολίτευσης 1
κς 1
WWE 1
Γι 1
Κριμαίας 1
αριστ@@ 1
γερμανικές 1
επισήμως 1
κοί 1
κρέ@@ 1
ολοκλήρου 1
Χάμ@@ 1
άκου 1
άρε@@ 1
ατο 1
Ποι@@ 1
πλήρωμα 1
Γεωργία 1
Διασ@@ 1
Ειρήνης 1
Λαυ@@ 1
δάσκαλ@@ 1
εκτελέστηκε 1
6η 1
ήχθησαν 1
ίδιες 1
αιθαν@@ 1
μετρι@@ 1
ύρια 1
ύρου 1
Εθνοσυνέλευση 1
Τοποθεσία 1
αστών 1
περιλαμβάνεται 1
ωδίες 1
1885 0.7565341161144713
Br@@ 0.1599829830259066
III 0.22431904502401395
th@@ 0.09136407044469941
δυνατότητες 1
σοβαρ@@ 1
τάζ 1
χαρακτήρων 1
Γιανν@@ 1
Φαλ@@ 1
διάγνωση 1
διαφοροποι@@ 1
ερυθρ@@ 1
Γκαλ@@ 1
εσης 1
ιαπ@@ 1
άκρα 1
μέτρησης 1
σελ 1
χρήστη 1
Δημοκρατικό 1
Ιησ@@ 1
άδος 1
ακόλουθες 1
διάδ@@ 1
καλλ@@ 1
πλα 1
προβιβ@@ 1
όντος 1
Μεσογείου 1
Νερ@@ 1
Προφ@@ 1
πάροδο 1
προϊστο@@ 1
τερματο@@ 1
τοποθέτηση 1
Τζέρ@@ 1
αϊκή 1
βασίζονται 1
ηνα@@ 1
θεός 1
ιθ@@ 1
στησαν 1
υπέ@@ 1
Κροατία 1
οθόνη 1
Ακτ@@ 1
Γ.@@ 1
αφήν@@ 1
19@@ 1
Ντάν@@ 1
αδελφ@@ 1
κόκ@@ 1
Γερουσία 1
Κράτους 1
Στι@@ 1
Φώ@@ 1
κόντρα 1
σκάφη 1
ταξίδια 1
Αθηναίων 1
Μπολ@@ 1
Σλάβ@@ 1
έντο 1
εκπομπής 1
εξασφάλισε 1
επιμελ@@ 1
14ο 1
απόρ@@ 1
προσωρινή 1
ρίδιο 1
ίκων 1
ορού@@ 1
σύμμαχ@@ 1
CH2@@ 1
Ναζί 1
Πέρσες 1
γιορ@@ 1
ευαισθη@@ 1
ηγήθηκε 1
νεότερος 1
προστέθηκε 1
πτω@@ 1
συνοδευ@@ 1
Ποδοσφαιρική 1
δυτικής 1
Εξαιτίας 1
Πρα@@ 1
βος 1
ρασαν 1
ῶν 1
Βασίλειος 1
Μακεδ@@ 1
Μπί@@ 1
προκαλούν 1
τριάντα 1
Καλύτερης 1
Πανι@@ 1
συνοικ@@ 1
Ομίλου 1
αυθ@@ 1
επιστρέφ@@ 1
κατέστησε 1
λατινική 1
μειώθηκε 1
ορυχ@@ 1
περνάει 1
σύνθεσης 1
Saint 0.09931548803785067
ανακηρύ@@ 1
δέντρο 1
καθένα 1
Κιλ@@ 1
Σλαβ@@ 1
έλυσε 1
ίω@@ 1
δακ@@ 1
συμβουλ@@ 1
ταξιδεύ@@ 1
ότο 1
αμφισβητ@@ 1
απάν@@ 1
νησιών 1
1860 0.7818483050814697
Έθελ@@ 1
Ανδρόν@@ 1
άνους 1
επικράτ@@ 1
παρείχε 1
ευγεν@@ 1
στοιχ@@ 1
αναγκ@@ 1
αφ 1
διαστάσεων 1
υλι@@ 1
Ο. 1
αντιδρα@@ 1
συντομ@@ 1
Ακολούθησαν 1
Κλέ@@ 1
υλο 1
Δυνάμεων 1
Κίνημα 1
έλαιο 1
έφαλ@@ 1
ανα 1
προμή@@ 1
Βυζαντινής 1
Ουάσινγκτον 1
Πειρα@@ 1
χώρηση 1
ενορ@@ 1
λε 1
πρωτό@@ 1
σύγχρονα 1
w 0.22371298079907032
Αθανάσιος 1
Μέτωπο 1
Χερσ@@ 1
δοκιμές 1
κινητήρες 1
νοτι@@ 1
φαι@@ 1
ακαδημ@@ 1
ανακαιν@@ 1
ετική 1
ιακούς 1
Σακ@@ 1
διατυπ@@ 1
εξέγερσης 1
ημιτελ@@ 1
μπού 1
τέλ 1
αντίθε@@ 1
δύνα@@ 1
ειάς 1
καλλιτεχνική 1
κρίθηκε 1
πρωτεύ@@ 1
DVD 0.6198572435587951
κακή 1
Άγγλος 1
κενό 1
κυκλοφορεί 1
στάν 1
du 0.011408476628482697
ήθη 1
δίκτυα 1
θείος 1
κοινο@@ 1
ότητος 1
Γενικό 1
ΠΟ@@ 1
στήριξη 1
υπόλοιποι 1
1848 0.8249028452421301
Ζα@@ 1
Ηθ@@ 1
Σέρβ@@ 1
ακόλου@@ 1
am@@ 0.08750033683986719
εκ. 1
σχεδια@@ 1
Star 0.3947997316654428
ήντα 1
βιλ 1
δωμάτιο 1
εστιατ@@ 1
πολιτιστική 1
στου 1
σαν@@ 1
Χάλ@@ 1
έλαγος 1
γοτθ@@ 1
γυναικεία 1
ετεροθαλ@@ 1
έζ 1
αποδεκ@@ 1
βαρύτη@@ 1
μόνιμη 1
διαδραματ@@ 1
ιακ@@ 1
καζ@@ 1
νυ@@ 1
τρων 1
Δουκάτο 1
Εποχή 1
Πολύ@@ 1
αγωνίσματα 1
κυρ@@ 1
λάν@@ 1
λίμνες 1
ποτε 1
γεωγραφικό 1
ορθογ@@ 1
συσκευή 1
ΕΠ@@ 1
Ωκε@@ 1
ήτου 1
ακολουθώντας 1
καταλήφθηκε 1
οινων@@ 1
παραχωρ@@ 1
συγκροτήματα 1
Ύστερα 1
βγήκε 1
πρωθυπουργό 1
ψυχαγωγ@@ 1
Ιεράς 1
δοκί@@ 1
ομίλων 1
παρόν 1
Εμπ@@ 1
αντο@@ 1
εδρεύει 1
εργαστεί 1
ρούχα 1
συγχώνευση 1
όσημο 1
Εί@@ 1
βοήθ@@ 1
στία 1
Αδόλ@@ 1
θεία 1
μηχανές 1
πεδία 1
συνόδευ@@ 1
φιλόσοφος 1
χρονιές 1
York 0.0826445354330034
Οργανισμού 1
διατήρ@@ 1
ερχόταν 1
πήγ@@ 1
πηγαίνει 1
δημοσίευση 1
Φραγκίσκος 1
άγιος 1
αύξ@@ 1
οδηγίες 1
ποταμών 1
Γραφ@@ 1
ήρυξε 1
δεσμεύ@@ 1
ευρύτερ@@ 1
υποψήφια 1
φαντασίας 1
Αποτελέσματα 1
υποστήριζε 1
αποφεύγ@@ 1
επωνυμία 1
μυρ@@ 1
τέχνες 1
χρωμ@@ 1
Νικόλαο 1
Παλάτι 1
Σικ@@ 1
άσκησε 1
είνουν 1
Ανθρω@@ 1
οξειδ@@ 1
φρουρά 1
In 0.011178722877552059
Κιλκίς 1
άλει@@ 1
ία@@ 1
γυαλ@@ 1
εξετάσεις 1
ιατρικής 1
νομιμ@@ 1
Συνέχισε 1
βρήκαν 1
εμφάνισή 1
καλύπτουν 1
πολογ@@ 1
υποστήρι@@ 1
Ντάρ@@ 1
έλλειψης 1
βασίστηκε 1
συμπεριλήφθηκε 1
όπη 1
Σάλ@@ 1
Φόρ@@ 1
έθ@@ 1
ίδος 1
ευκολ@@ 1
θείου 1
στόχους 1
ley 0.12575266103136493
Οικονομία 1
ημιτελικό 1
κατάργηση 1
τρόφιμα 1
ύκ@@ 1
Εδ@@ 1
Καρο@@ 1
Νήσων 1
γυρίσματα 1
διαφορε@@ 1
διόρισε 1
ινός 1
κυριαρχίας 1
τόπου 1
20.000 1
Γενεύ@@ 1
Δρ@@ 1
Τους 1
δότησε 1
εκτοπ@@ 1
έκτασης 1
αναπτύσσ@@ 1
μάζας 1
πλείστον 1
Όν@@ 1
ΕΚ 1
Ρωμα@@ 1
ζώνες 1
κοινωνικών 1
έλεγχος 1
εννο@@ 1
σπάν@@ 1
συζητ@@ 1
συνεργάτες 1
Ριζ@@ 1
Στάλιν 1
ενδο@@ 1
προσκυν@@ 1
ριακές 1
τέρμα 1
Αντόνιο 1
ζι@@ 1
μετανάστες 1
σημειώνοντας 1
Άρχ@@ 1
ισον 1
10.@@ 0.8325624269668166
αγροτική 1
αδερφή 1
ειακής 1
πουλιά 1
φόρου 1
χρονο 1
² 0.18240930056170399
Σικάγο 1
Χοεν@@ 1
βίλ 1
εξόρι@@ 1
καταστροφές 1
περισσότερων 1
American 0.06153506067407662
διδακτορικό 1
συνορεύει 1
κάτου 1
τερς 1
διανομή 1
διασχ@@ 1
εφηβ@@ 1
κινδύ@@ 1
μόρφω@@ 1
όμηση 1
ίκια 1
ειακού 1
εκατοστά 1
κατοχ@@ 1
μαυ@@ 1
πρωτότυπο 1
ρουμαν@@ 1
σερ 1
συνδέθηκε 1
απεσταλ@@ 1
μήνυμα 1
Βόλου 1
δι 1
πραγματοποιήσει 1
τριπλ@@ 1
βες 1
επηρέασε 1
σωμάτων 1
τέ 1
τακτικά 1
ύθηκε 1
Time 0.5540046517708216
Ιδιαίτερ@@ 1
Χο@@ 1
θεώρησε 1
De@@ 0.16842568658108026
× 0.6024584155851032
Έρικ 1
Ενω@@ 1
οχήματα 1
στίχοι 1
ώρου 1
Νοτιο@@ 1
άσο 1
εφαρμόσ@@ 1
φάσεις 1
φυλε@@ 1
γεν. 1
πνεύ@@ 1
Καβάλας 1
Λίμνη 1
αντς 1
δικαίου 1
ινι@@ 1
ιστορικών 1
Εγκ@@ 1
Σμύρνη 1
αποτυχ@@ 1
ετυμ@@ 1
εφοδιασ@@ 1
ητά 1
ολόγοι 1
σχηματίστηκε 1
τραγουδιστή 1
χρέ@@ 1
ύγει 1
ασθένειες 1
εξίσωση 1
ξέρ@@ 1
άντης 1
ελέγχ@@ 1
φοράς 1
Μαραθ@@ 1
Φιλιππ@@ 1
άνοι 1
αναπαραγωγής 1
εντυπω@@ 1
προσέφερε 1
πότε 1
Qu@@ 0.1923129428086459
Φινλανδία 1
αποθήκ@@ 1
βασί@@ 1
νησή 1
ρίς 1
συμπαίκ@@ 1
όγδο@@ 1
ΑΟ 1
Πρώτο 1
νικώντας 1
σχεδιασμού 1
σύρ@@ 1
Λιθουανίας 1
Πατριάρχη 1
διαδηλ@@ 1
λιο@@ 1
πληθυσμούς 1
πολωνική 1
σημεί@@ 1
Λαζ@@ 1
ολογικός 1
υπολογιστές 1
όπλο 1
ασμα 1
Κοσ@@ 1
θαλάσ@@ 1
ολόγων 1
πλούσιο 1
Ερευ@@ 1
Ηλία 1
ήτων 1
οπή 1
ρε 1
σώζεται 1
Ενε@@ 1
ΣΥ@@ 1
επάγγελμα 1
μηδέν 1
Μπερν@@ 1
αγιά 1
τυπο 1
φαινόμενα 1
άλεσε 1
ελαφρώς 1
εμπορικές 1
ενισχυ@@ 1
προφανώς 1
υιοθέτησε 1
φιλοσοφίας 1
επανεξελέγη 1
οντα@@ 1
προώ@@ 1
σημερινού 1
1866 0.7349718700800091
Δήμαρχος 1
αχθεί 1
δίκαιο 1
δίω@@ 1
εύς 1
ιμπ@@ 1
ξύ@@ 1
οφθαλ@@ 1
σημαντικότερο 1
τίζεται 1
Αιτωλ@@ 1
Παναθηναϊκού 1
δεύτερ@@ 1
εμπό@@ 1
ινούς 1
υποψήφιοι 1
Γκο@@ 1
Καλαμ@@ 1
άλογ@@ 1
ήγαγε 1
εγκαταστ@@ 1
ζώνης 1
Play 1
st@@ 0.07135326182568892
Βαλδου@@ 1
νεκροταφείο 1
πτήσεις 1
1ου 1
ήρας 1
αριστερή 1
αστρονόμ@@ 1
ενώσεων 1
πολίτης 1
αιτι@@ 1
αυτοκινητο@@ 1
δείτε 1
εκλεγεί 1
εργο@@ 1
θαλάσσια 1
φίλοι 1
χαρακτηριστική 1
Ιρλανδ@@ 1
Ντεν@@ 1
Πάρκο 1
άσος 1
αριού 1
προσωπικότητα 1
συνεργάτης 1
ot@@ 0.09832202094722359
Παγκόσμιας 1
Χένρι 1
λόφου 1
σημαντικότερες 1
Μόναχο 1
Σιλ@@ 1
Σμ@@ 1
απονέ@@ 1
γιορτά@@ 1
ελεγχ@@ 1
νταν 1
π.@@ 1
ενοχ@@ 1
φοι@@ 1
Βουρβόνων 1
ορίζει 1
πλασ@@ 1
It 0.02663792981273823
ΑΤ@@ 1
Κυν@@ 1
αδερφός 1
διάβ@@ 1
θαύ@@ 1
συν 1
φού@@ 1
Μάντσεστερ 1
άσι 1
εφαρμό@@ 1
στέφθηκε 1
τώ 1
Ελβ@@ 1
επιστήμ@@ 1
θαμ@@ 1
θει 1
ιστορι@@ 1
ποταμ@@ 1
τει 1
Ιρλανδίας 1
Λαμπ@@ 1
Περιφερειακής 1
αδελφούς 1
βιογραφία 1
πάντοτε 1
ύρος 1
Έγραψε 1
Πλέ@@ 1
μουσικούς 1
φάρμακο 1
1894 0.7163439052192231
ul@@ 0.10383093491946009
Ναβ@@ 1
Σταθμός 1
έψεις 1
διατηρη@@ 1
παλαιότερο 1
συγκλ@@ 1
σχόλια 1
ana 0.11354715609951885
άμεν@@ 1
διακοπή 1
εφαλ@@ 1
κατάλληλη 1
πύργος 1
ρυθμού 1
επιστολές 1
τεράστιο 1
Σόφ@@ 1
έζα 1
δυσκολ@@ 1
εθεί 1
κατανόηση 1
πε 1
σχηματίζοντας 1
υποστηρίξει 1
Ελε@@ 1
Σάρ@@ 1
Συμφωνία 1
εγκρίθηκε 1
μνήμης 1
ορδ@@ 1
συνέπειες 1
τζο 1
1879 0.8415447705999228
Αεροπορίας 1
Αυλή 1
Πρί@@ 1
Χίλ@@ 1
εγκατα@@ 1
εξαιρετική 1
εων 1
ροής 1
τέτοιες 1
Πρόσ@@ 1
Συλλόγου 1
προσελκύ@@ 1
ton 0.1162803794858694
Γρηγόριος 1
Σιδη@@ 1
Σιμ@@ 1
Φερν@@ 1
ένια 1
ηρε@@ 1
κλίση 1
Βέλ@@ 1
βάσης 1
μεγαλύτερου 1
μους 1
Αγωνίστηκε 1
παραθ@@ 1
προσωπικού 1
ανν@@ 1
θρω@@ 1
λογισμικού 1
12ο 1
Γάλλο 1
ήρυ@@ 1
ισθη@@ 1
σερβικά 1
ύλιο 1
Cup 0.15005420504094838
ατιν@@ 1
γιορτή 1
ενδεχ@@ 1
τρεψαν 1
Παγκόσμιου 1
βασισμένο 1
συμπερ@@ 1
υρι@@ 1
δετερ@@ 1
επιθετικός 1
μόρφωση 1
περ. 1
πιστοποι@@ 1
τίμησε 1
επιτρέπουν 1
καλαθοσφαιριστής 1
σχηματίζεται 1
τυφλ@@ 1
CE 1
Di@@ 0.1600840897668084
καθυστερ@@ 1
λουλ@@ 1
μύθο 1
πεδιάδα 1
αίσ@@ 1
διοργανώθηκε 1
παράδ@@ 1
τέκνο 1
ώρια 1
Y 0.3879562511338828
Κοι@@ 1
καθυστέρ@@ 1
οργάνωσε 1
στήλ@@ 1
χημικό 1
ύν 1
Δυνάμεις 1
Ράι@@ 1
Στρατός 1
Συνα@@ 1
έντι 1
έτρ@@ 1
δούλ@@ 1
καταλαμβάνει 1
παρέμβαση 1
ριντ 1
γίνονταν 1
κατασκευές 1
περιγράφ@@ 1
τεχνικό 1
τιλ@@ 1
15ου 1
Κορέας 1
αποικίες 1
εκφρα@@ 1
κρατούμεν@@ 1
πρακτικές 1
προερχ@@ 1
De 0.1206890357998728
Ζεν@@ 1
ανθρώπινης 1
απεικονίζεται 1
Εργάστηκε 1
Ολύ@@ 1
Τρεις 1
άνονταν 1
νού@@ 1
παρουσιάζονται 1
σιγά 1
στέκ@@ 1
αναπτύξει 1
επιχείρησης 1
οδηγώντας 1
παραλλαγή 1
πολιτισμός 1
ότητάς 1
Στιούαρτ 1
ίγκ@@ 1
κινδύνου 1
κριτήρια 1
ντελ 1
οφόρα 1
ὐ@@ 1
Πετρούπολη 1
μέσ@@ 1
νοι@@ 1
παίρνοντας 1
σχεδίασε 1
Κάποια 1
Λαϊκό 1
Συλλογ@@ 1
αλλαγής 1
διεξαγωγής 1
ευημερ@@ 1
μαθηματικών 1
άγους 1
έχθηκε 1
διαταραχή 1
δραστηριότητας 1
μαθη@@ 1
ολοκληρωθεί 1
πρωτότοκος 1
χαρακτηρίστηκε 1
όμορφ@@ 1
2ος 1
Ημέρα 1
έπε 1
βέβαια 1
δίπλωμα 1
δωρεάν 1
θρο 1
ξεως 1
σκληρή 1
Δαλ@@ 1
ΕΣ 1
Ποταμ@@ 1
μεσα 1
πέμπτο 1
συνεργαστεί 1
ταξί@@ 1
τελείου 1
τοκρά@@ 1
φυλακίστηκε 1
Στερε@@ 1
άργ@@ 1
ελεύθερος 1
μετάδοση 1
Γουιν@@ 1
Σπάρτη 1
καταστήσει 1
ματς 1
Γκραν 1
Χουάν 1
έντονο 1
ανε@@ 1
εκδοχές 1
λησης 1
Χάρι@@ 1
κατοικούσαν 1
Co@@ 0.15258610075044737
Hot 0.6649584962239804
ζεύγος 1
ινες 1
νομοθεσία 1
σεξουαλική 1
ψυχή 1
En@@ 0.1579831656237569
ειακ@@ 1
παίζουν 1
τμημάτων 1
όρν@@ 1
ύτερη 1
Βορρά 1
αγκά@@ 1
αστικού 1
στασίου 1
Γκραντ 1
Κρέ@@ 1
Νότιο 1
άντρα 1
διακυβέρνηση 1
θερμοκρασίας 1
λευσε 1
οξυγόνο 1
Ολ@@ 1
καλύτερος 1
κορυφές 1
περιπέτ@@ 1
πυρκαγιά 1
Ηλίας 1
γυμνάσιο 1
ευτυχ@@ 1
κουλτούρα 1
προορισμό 1
σχήματος 1
Γκό@@ 1
Ηλ@@ 1
ιατ@@ 1
στράτηγ@@ 1
Λάμ@@ 1
ηματικά 1
ογιάν@@ 1
πολύτι@@ 1
σημειώθηκε 1
Λουίζα 1
ινού 1
καρ 1
καρπ@@ 1
οδρόμ@@ 1
Ιστορική 1
Ουίλιαμ 1
Προοδευ@@ 1
ήκ@@ 1
ήνιο 1
βόμβ@@ 1
Έλληνα 1
κομμάτων 1
μπαράζ 1
σχολές 1
ad@@ 0.07045499679737956
} 0.7734714257180035
επίκεντρο 1
ροφυλ@@ 1
χώρισε 1
ῖ@@ 1
οριών 1
τσια 1
Ξάνθης 1
διακρίνεται 1
διαρκεί 1
διαστήματα 1
Σατ@@ 1
Τελευτα@@ 1
ημένης 1
καλα@@ 1
υποψηφιότητες 1
Αμερικανική 1
γή@@ 1
ηχογράφηση 1
ιδιωτική 1
περνά 1
ριακά 1
άνδ@@ 1
ανταπο@@ 1
ηθική 1
χημικά 1
χρηματοδότηση 1
χώροι 1
Βούλγαρ@@ 1
Παράδ@@ 1
μοίρα 1
νότιας 1
οποιείται 1
ταχύτητας 1
τιμάται 1
χαρακτηρίζονται 1
Διονύ@@ 1
κυμαίνεται 1
τιμος 1
ΕΡΤ 1
Σπυρί@@ 1
αδερφό 1
αντίστασης 1
αντιστασ@@ 1
εκτεν@@ 1
ετής 1
κερδίζει 1
μετέβη 1
ομιλίες 1
οξυγόνου 1
census 0.35913778981602973
γκτον 1
κατόρθωσε 1
λεσ@@ 1
οξείδιο 1
ορισμού 1
ουχ@@ 1
1892 0.6915912983489291
Γκάρ@@ 1
Κατο@@ 1
Λιν@@ 1
απαραίτητη 1
πνευματική 1
ταυτ@@ 1
όφυ@@ 1
School 0.08846808207851974
Σαρλ 1
επλ@@ 1
κόκκιν@@ 1
ολό@@ 1
hous 1
­ 1
Αρά@@ 1
Εύβοιας 1
άντε 1
κριτικούς 1
σιακά 1
National 0.07340969956954947
Ισλαμ@@ 1
αρα 1
διασώ@@ 1
επίσκεψη 1
ερασ@@ 1
μοιρα@@ 1
ξεκινάει 1
ποινα 1
ελικ@@ 1
επικρά@@ 1
καινο@@ 1
ξερ@@ 1
πάπας 1
σύντροφ@@ 1
www.statistics.gr 1
Αξιοθέατα 1
Γαλατ@@ 1
Πέρα 1
ούλι 1
ριζαν 1
ωδίας 1
Νίκο 1
Πλατ@@ 1
Τατ@@ 1
άλβεδό 1
ανάδειξη 1
βη@@ 1
μαχίας 1
.Το 1
ίνει 1
θεωρούσαν 1
κίτρινο 1
μαρκ@@ 1
ύγουν 1
Ονομασία 1
οργανισμών 1
περιεχομένου 1
στάθηκε 1
τήτων 1
sh@@ 0.09631164871274098
Βρετανοί 1
Μιχα@@ 1
αγωνιστικές 1
εύρος 1
κραν@@ 1
προσφύγων 1
σπαν@@ 1
ψυχρ@@ 1
Γουλιέλμο 1
Δεύτερη 1
αγωγές 1
αναρχ@@ 1
περιεκ@@ 1
πρωταγωνιστές 1
ρίαση 1
ύλακες 1
ΕΟ@@ 1
ίκους 1
αίρεση 1
βιομηχανική 1
είσοδος 1
εκτιμήσεις 1
εξάδελφ@@ 1
κυβέρνησε 1
σταφ@@ 1
συγκαταλ@@ 1
τεία 1
ότερ@@ 1
Γκαμπ@@ 1
έμ 1
ανατολικές 1
ολυμπιονίκης 1
συνεχείς 1
τέλους 1
υποστηρί@@ 1
βορειοδυ@@ 1
εφαλής 1
σος 1
ur@@ 0.09661006374082748
Μάρκο 1
διατηρού@@ 1
Ιβη@@ 1
Σίλ@@ 1
στευ@@ 1
li@@ 0.10501497370333314
έλτα 1
αλγ@@ 1
αρχιτέκτονας 1
πληγ@@ 1
ρούνται 1
φλοι@@ 1
Αλή 1
Σουλ@@ 1
Χολ@@ 1
δίωξη 1
επεξεργασίας 1
οσία 1
ούχου 1
ποντας 1
άλλης 1
δημόσιες 1
σουλτάν@@ 1
χρυσού 1
Ακρω@@ 1
έντρ@@ 1
αναγκάστηκαν 1
διάδοση 1
ενν@@ 1
οικοδόμ@@ 1
πιστεύει 1
Βαβυλ@@ 1
ΕΤ@@ 1
διατηρήθηκε 1
δραστηριοτήτων 1
ρούσαν 1
τέλης 1
ασβεστ@@ 1
εμφύ@@ 1
κρέας 1
ναί 1
στάσιο 1
φυγή 1
χαρακτηριστ@@ 1
Βουδ@@ 1
Κέρ@@ 1
Νίκαιας 1
λεξε 1
υποδηλώνει 1
Ίδρυ@@ 1
κά 1
μετατροπή 1
προσχ@@ 1
Θή@@ 1
Σοφίας 1
ακτιβ@@ 1
ακτινοβολία 1
αρκετών 1
διαγωνισμού 1
Εκείν@@ 1
Λαϊκή 1
εμπλέκ@@ 1
ζημ@@ 1
κυρί@@ 1
προσφέρουν 1
συνάν@@ 1
ίδιοι 1
ηνίας 1
ξενοδοχείο 1
φορο@@ 1
χάρτη 1
ac@@ 0.08440485879666226
Πηγ@@ 1
μαύρη 1
Βουλευ@@ 1
Ιάπ@@ 1
διαφέρουν 1
ενδιαφέροντος 1
ξεχωριστά 1
όμορφα 1
Γενικού 1
βερ 1
δεσπό@@ 1
νουν 1
ολική 1
Πρωταθλητής 1
Ταχ@@ 1
αγρότες 1
φωλι@@ 1
αεροσκαφών 1
βλάστηση 1
δικού 1
θηλυκά 1
Καυ@@ 1
διαφέρει 1
Ερζεγοβίνης 1
Λόγ@@ 1
απαραίτητα 1
κατηγορού@@ 1
πολιτ@@ 1
AN@@ 0.7660703989283751
Άντρι@@ 1
Νιού@@ 1
Ολο@@ 1
Πολύ 1
Πρωτεύουσα 1
απορ@@ 1
αρχίες 1
βορει@@ 1
σύγκ@@ 1
φτάνουν 1
έμου 1
απευθύν@@ 1
γνωρίζουμε 1
γνώσεις 1
πομπ@@ 1
σκυ@@ 1
υποχρέ@@ 1
4ου 1
Ήλιο 1
Βιετνάμ 1
Βοσνία 1
θρο@@ 1
λής 1
μαζική 1
υιοθέ@@ 1
υπερβ@@ 1
Μπακ@@ 1
Τράπεζας 1
Χει@@ 1
αρσενικά 1
δον@@ 1
ποτά@@ 1
ψυχής 1
ab@@ 0.055025736318896776
Δημητ@@ 1
Λεοπόλ@@ 1
Ράιν@@ 1
εσωτερικά 1
οντο@@ 1
σακ@@ 1
1871 0.7278945661894028
Hall 0.23336530405878297
Ιζ@@ 1
Ρωμαν@@ 1
Σπουδ@@ 1
ακολουθία 1
ενήλ@@ 1
λλας 1
πονται 1
διεξάγεται 1
εκστρατείες 1
Microsoft 0.9429754881160685
έμπο@@ 1
ανιψ@@ 1
ελατ@@ 1
σύνης 1
τωνα 1
7ο 1
αδελφοί 1
ερώ@@ 1
4.000 1
άρντο 1
ίωσης 1
διατηρ@@ 1
σύνθετος 1
υσι@@ 1
Ευρω@@ 1
Τορ@@ 1
διαχείρισης 1
κατευθυν@@ 1
ens 0.08875296150738947
son 0.021212724011173297
www.@@ 1
απαραίτητο 1
βακτη@@ 1
ευμένη 1
κινείται 1
ωναν 1
όρθωση 1
Νιου 1
βης 1
εμπει@@ 1
κόλπου 1
ρίκ@@ 1
Ιλλ@@ 1
Κιέβου 1
Τρε@@ 1
Φυσικής 1
δικούς 1
μπάλα 1
Gr@@ 0.16833212401759054
ίκτυο 1
ίσσ@@ 1
αρο 1
λαδ@@ 1
περιφερειακής 1
Μουσική 1
αερίων 1
κατάλληλο 1
μς 1
σύμβ@@ 1
Δη@@ 1
Θερινούς 1
Ινδον@@ 1
απεργ@@ 1
λί 1
Απολλ@@ 1
αμφισβη@@ 1
ιδρυτικό 1
κινουμένων 1
κύμα 1
μάτισε 1
μέθοδοι 1
οπολ@@ 1
σκόραρε 1
συνεχεία 1
όχους 1
Μαϊ@@ 1
Σταυροφορία 1
ανακοίνωση 1
αποτελεσ@@ 1
ασφάλειας 1
ηνία 1
τιμωρ@@ 1
υπερασ@@ 1
φαρμάκων 1
Χατζη@@ 1
ρισμα 1
βρέ@@ 1
επιτροπ@@ 1
κατηγορήθηκε 1
ρόλου 1
Άμστερνταμ 1
Βελιγραδίου 1
Εμπο@@ 1
Σχολείο 1
Φαν@@ 1
δράμα 1
κτι@@ 1
οδυναμ@@ 1
πολεμικές 1
τερσον 1
υση 1
Δημιουργ@@ 1
Μουσικής 1
θεώρ@@ 1
κανα@@ 1
υπογράψει 1
δοξ@@ 1
προκάλεσαν 1
εκτ@@ 1
ηρυ@@ 1
ισοπαλία 1
ποια 1
Βασιλικής 1
Ξη@@ 1
Φύ@@ 1
άκου@@ 1
δημιουργείται 1
τονομ@@ 1
UNESCO 1
Γιώργου 1
ημένου 1
πλακ@@ 1
ραχ@@ 1
συγκεντρώσει 1
χωρη@@ 1
900 1
Μαυροβουνίου 1
εκατομμύριο 1
χρήσεις 1
ψάρια 1
Ντελ@@ 1
βοηθη@@ 1
διαθέσιμο 1
οστών 1
πέφτει 1
παλαιό 1
14ου 1
Γραμματέας 1
Κελ@@ 1
αυξηθεί 1
οητευ@@ 1
πλεονέκτημα 1
τορπιλ@@ 1
φωτογραφία 1
Μολδαβίας 1
Ρίο 1
ίσχυ@@ 1
ερα 1
κληση 1
νικητές 1
ορυκ@@ 1
κυρία 1
ταχυδρομ@@ 1
φύλακας 1
11,@@ 1
Κέρδισε 1
εκτοξ@@ 1
ισι 1
van 0.30088700518015554
έννοιες 1
αντάρτες 1
εναπο@@ 1
πλατφόρμα 1
βέν@@ 1
εταιρίας 1
λήφθηκε 1
ναλ 1
παραιτηθεί 1
Μυκ@@ 1
Νί@@ 1
έστερη 1
ελκυ@@ 1
ιώτης 1
μεταρρύθμιση 1
ουσίας 1
ποικίλλ@@ 1
1893 0.6557530319899081
αερό@@ 1
ενταχθεί 1
ναυτικό 1
νευρο@@ 1
πτέρυγα 1
τρέφ@@ 1
όνησε 1
1822 1
Γάλλων 1
θετα 1
κάτοχος 1
κιν 1
συζητήσεις 1
όου 1
άγιο 1
1888 0.6944775517385399
Θεοφ@@ 1
απόκτηση 1
ιανού 1
ιώτη 1
σί 1
σταθερό 1
Βοημίας 1
Σομ@@ 1
απεικόν@@ 1
ισορροπ@@ 1
κάπως 1
πιλ@@ 1
προσπάθ@@ 1
χαρακ@@ 1
Αιγάλεω 1
ανταλλ@@ 1
εναλλ@@ 1
θεώρημα 1
κρίν@@ 1
στόμα 1
τοίχ@@ 1
Πλατεία 1
θηκ@@ 1
κώ@@ 1
τελικούς 1
χριστιανική 1
ύλες 1
ύλους 1
λογισμικό 1
νόσ@@ 1
Όσον 1
άχν@@ 1
αποτελεσματική 1
αρσεν@@ 1
μοί@@ 1
Φλωρεντία 1
ένιος 1
αριθ@@ 1
αριών 1
επιλογής 1
λέξης 1
μνημον@@ 1
σηματοδο@@ 1
υποχρεώσεις 1
χρε@@ 1
10,@@ 1
Be@@ 0.12624880472282238
Γύρω 1
Λύκειο 1
Φράγκ@@ 1
αρχαιότητας 1
αστέρια 1
βασίλισσας 1
ηρο 1
μετάλλ@@ 1
ch 0.1115198230071113
βρετανικό 1
δισκογραφική 1
Μαρσ@@ 1
είλ@@ 1
εξελίξεις 1
οκτ@@ 1
πολλ@@ 1
σπαθ@@ 1
29@@ 1
Jean 0.14419136103782132
Super 0.39272551220697477
Δημοκρατικού 1
Κλί@@ 1
Συμμάχ@@ 1
γραμμένο 1
εξερευν@@ 1
χάρ@@ 1
Τεν@@ 1
ηδες 1
τράπεζ@@ 1
ήρωας 1
ίζ 1
διπλωμά@@ 1
εγκατασταθεί 1
ελαφρ@@ 1
μετανάστευση 1
ata 0.17649737222161918
αποκτά 1
γνώριζε 1
καταφέρνει 1
κρατήσει 1
στηρίζεται 1
1884 0.7357575811247213
Γιουνάιτεντ 1
Ράν@@ 1
αθλητικό 1
διοικητικές 1
εκδιώ@@ 1
ετό 1
ουλος 1
ποσοστά 1
Αξ@@ 1
Βε@@ 1
Ελβετίας 1
Μωάμεθ 1
διαί@@ 1
επιδόσεις 1
μετασχηματ@@ 1
πρωτεΐ@@ 1
σύμ@@ 1
Ιουλι@@ 1
Υπήρ@@ 1
ανικής 1
μελέτης 1
ρινγκ 1
ροβολ@@ 1
τιες 1
110 0.9103460373084598
7η 1
ΝΑΤΟ 1
μπε 1
μπε@@ 1
.000 1
ανασκαφ@@ 1
κριτικής 1
σόλο 1
τρώ@@ 1
όρις 1
Ανατολικό 1
Ανζού 1
διακρίν@@ 1
δρο 1
χαμηλό 1
Αλφ@@ 1
επίπεδ@@ 1
θρησκευτικό 1
ικόν 1
σοβιετική 1
τάει 1
Έφ@@ 1
Ζαχαρ@@ 1
διαταγή 1
επισκεφ@@ 1
μοντέλου 1
πόρων 1
Μάρκος 1
Μαξ 1
Χόλσταϊν 1
ίδρυσης 1
av@@ 0.11148249661411176
te 0.041952655339564854
διαδοχ@@ 1
Βιρτζίνια 1
Ηρ@@ 1
Θου@@ 1
βακ@@ 1
διοργάνωσε 1
ματοποι@@ 1
στείλει 1
στρώματα 1
ένταξη 1
δικός 1
πεν 1
σόου 1
τίτλου 1
Καίσαρα 1
διάσημος 1
ζεύγ@@ 1
κεντρικός 1
πληθυσμοί 1
υι@@ 1
Βρ@@ 1
Λω@@ 1
δικτύ@@ 1
Αεροδρόμιο 1
άμυνας 1
δευτερεύ@@ 1
εκάστοτε 1
ναλ@@ 1
υδρογόνο 1
όδρομο 1
Βοστ@@ 1
Προτεστ@@ 1
καλυμ@@ 1
σχολείου 1
ὰ 1
Νέου 1
Ρος 1
αγγελι@@ 1
ποπ 1
υπόλοιπους 1
Ασι@@ 1
Παρθέν@@ 1
γύρος 1
εορτά@@ 1
επιστημονικά 1
συμφωνίας 1
χη@@ 1
Αμερικανίδα 1
Ισα@@ 1
ανσ@@ 1
αποφοί@@ 1
μεται 1
οροσειρά 1
παραπέ@@ 1
τισης 1
ότυπα 1
by 0.006809017366743252
βουνού 1
διακόπ@@ 1
μείγμα 1
συμπεριφοράς 1
Ρώσοι 1
ίθενται 1
καταδικ@@ 1
μονάδων 1
μπου 1
ολιθ@@ 1
τραυματίστηκε 1
φου@@ 1
Λέσβου 1
έγκριση 1
απαγόρευση 1
επισκοπ@@ 1
ογκ@@ 1
παρότι 1
τισσα 1
ψευ@@ 1
University 0.05368489882599392
Υπόθεση 1
δολ@@ 1
δυναμική 1
εθνικού 1
προσωπικότητες 1
σημαντικότερους 1
Ηρόδο@@ 1
βραβεύτηκε 1
κτισμένο 1
παρόμοιες 1
ριζόταν 1
όβι@@ 1
1ος 1
Σιδηροδρομ@@ 1
πολύπλοκ@@ 1
Αρχιτεκτον@@ 1
Λεων@@ 1
έφσκι 1
επέκ@@ 1
θυρε@@ 1
μεταρρυθμ@@ 1
οξέα 1
πρα 1
Μεσογ@@ 1
διάσπαση 1
κατασκεύασε 1
πρόσθε@@ 1
King 0.17432299693822284
έπι@@ 1
δείξεις 1
εδρών 1
οχω@@ 1
ard 0.13855450329934987
Αποτελείται 1
ευαίσθη@@ 1
ια@@ 1
μειωθεί 1
πλατιν@@ 1
στί@@ 1
ήβων 1
διακεκρι@@ 1
εορ@@ 1
υποβρύ@@ 1
όκ 1
Νίκου 1
ΟΚ 1
βόρειας 1
δημοτικής 1
θευ@@ 1
οδηγούν 1
ούλης 1
προτερ@@ 1
σχετικές 1
Κορρά@@ 1
Πρι@@ 1
ανί@@ 1
δράσεων 1
ενδυ@@ 1
κυν@@ 1
μοναχός 1
πόρους 1
ριακών 1
Q 0.5494492066772291
Κοντά 1
Φρανσίσκο 1
έχονται 1
ίσκο 1
ευρωπαϊκ@@ 1
ιερείς 1
καλοκαι@@ 1
κουρ@@ 1
περισσότερη 1
πρωταθλητή 1
στάν@@ 1
1867 0.7667425817927538
Citroën 1
πρόγον@@ 1
συγκρι@@ 1
Οθωμανών 1
ήρα 1
ζήσει 1
ταξινόμηση 1
ate 0.044746584635370915
Βιλ@@ 1
Ρώσ@@ 1
γαι@@ 1
τημάτων 1
υπν@@ 1
re@@ 0.02476595707559969
Αναγέννησης 1
πυρε@@ 1
βάλλ@@ 1
εξίσου 1
κοντινή 1
στρατιωτικά 1
Λιθου@@ 1
κρίσης 1
μαρτυρίες 1
προέρχονταν 1
πρωταγωνιστ@@ 1
.com 0.6609010453495422
FIFA 0.905366033118644
Ηράκλειο 1
Ντέιβις 1
Στέφανο 1
αποκλ@@ 1
δυτικές 1
προϋ@@ 1
ργκ 1
φιλντ 1
χημικών 1
Μπάν@@ 1
άξεις 1
ενίσχυ@@ 1
ζευγ@@ 1
κατατάσσ@@ 1
λιμ@@ 1
Ζου@@ 1
Καθολική 1
άξουν 1
πολεμικό 1
υλίου 1
φοίτησε 1
Ιωανν@@ 1
θρησκευτικά 1
ιππο@@ 1
ag@@ 0.08153754910787572
ογνω@@ 1
φυλακές 1
1886 0.6945748424977778
Cr@@ 0.2513878626594009
Κάρο@@ 1
Οδός 1
Σύνδεσμ@@ 1
Φερδινάνδος 1
γραμμάτων 1
ηλεκτρικό 1
λειμ@@ 1
λόφ@@ 1
περίπλοκ@@ 1
Βιογραφικό 1
ίοι 1
ετήσιο 1
νυν 1
πόδι 1
ti@@ 0.08894666136862987
έλλα 1
Συμμετο@@ 1
αστέρων 1
ερωτ@@ 1
ικο@@ 1
κοινοτήτων 1
κτισ@@ 1
περιστατικό 1
θεό 1
ορίζ@@ 1
πριγκιπά@@ 1
ρεύματος 1
όφωνο 1
1891 0.6486515767611803
Se@@ 0.12595666842905867
Στοκχόλ@@ 1
ανο 1
βαφ@@ 1
ισοβ@@ 1
νε 1
νεκρούς 1
φλεγ@@ 1
Καισ@@ 1
Μαρκ@@ 1
Τομ 1
ασμούς 1
γιν@@ 1
δάκ@@ 1
δημοσί@@ 1
εντολές 1
ηνός 1
καθάρι@@ 1
νόσου 1
οφείλ@@ 1
πέναλτι 1
όδους 1
ˈ@@ 1
Ανώτα@@ 1
Κε@@ 1
Χέρμαν 1
αξιωματ@@ 1
ονικό 1
Ντό@@ 1
πώ@@ 1
Εδουάρδου 1
δότη@@ 1
καταγραφή 1
παραπ@@ 1
ρινό 1
τυχαία 1
Ακολου@@ 1
θηλυκό 1
ομοσπονδίας 1
ρικ 1
ριπ@@ 1
τείχος 1
ύπαρξης 1
Club 0.14391332870516732
άσχ@@ 1
αναπτυσσ@@ 1
θρησκείας 1
σκηνής 1
σύγχρον@@ 1
ταλέντο 1
χειρόγραφα 1
όχος 1
εφευρέ@@ 1
κύματα 1
ς@@ 1
σπουδάσει 1
υλο@@ 1
11ο 1
1500 0.8741134695449162
Βιβλ@@ 1
κλάδου 1
οκίν@@ 1
πώληση 1
τσες 1
Li@@ 0.22846079232501515
j 0.31919941275903846
Βαγ@@ 1
Μπε@@ 1
διακρίθηκε 1
ηπειρωτική 1
πέτρα 1
ρίνη 1
οπαδοί 1
χημεία 1
όκα 1
1864 0.7202918512830109
ah 0.1782367334862158
γιάν@@ 1
πριγκ@@ 1
right 0.19251131100730176
άνε@@ 1
ανοί@@ 1
διδακ@@ 1
ημένοι 1
κλειστό 1
οδο 1
υπηρεσίας 1
Ερασι@@ 1
Μαδ@@ 1
Παλατιν@@ 1
Ριχάρ@@ 1
έφαλο 1
τυχε 1
ύδ@@ 1
ανακάλυψ@@ 1
αυξημένη 1
Νιγ@@ 1
Ούν@@ 1
Σπουδών 1
Τέξας 1
εκείνους 1
ριού 1
σκελε@@ 1
τοπίο 1
Δικαιοσύνης 1
Καστοριάς 1
Ούλ@@ 1
αξιόπ@@ 1
εικονογραφ@@ 1
μαγν@@ 1
προφορά 1
€ 1
6.000 1
Βαλκάνια 1
Ραβ@@ 1
Φα@@ 1
άγη 1
ήσαν 1
απώ@@ 1
δώσουν 1
ελεύθερα 1
χαρακτήρισε 1
Ρόζ@@ 1
Στατι@@ 1
Τόσο 1
εκτεταμένη 1
κανάλια 1
Πληροφορ@@ 1
ίτσας 1
λ. 1
οδο@@ 1
ριακός 1
σιά 1
1840 0.8961682754139358
Αθηναϊκ@@ 1
Μέλ@@ 1
Ρον@@ 1
ίτσι 1
αντίν 1
ηλίου 1
τεχνίας 1
Εντούτοις 1
ράτ 1
σταλ@@ 1
τοπία 1
άκο 1
καθένας 1
κυνήγι 1
σύλλ@@ 1
Τολ@@ 1
έλιο 1
αντι 1
αφορούσε 1
δηλώνοντας 1
πείσει 1
1850 0.7477990047117893
Metal 1
ale 0.08841791941827132
Γραφείο 1
μόλ@@ 1
Π.χ. 1
Τζόουνς 1
ενδιάμεσ@@ 1
οθωμανική 1
παντρε@@ 1
παύ@@ 1
προετοιμασία 1
προηγούμενα 1
όραση 1
Ερνέ@@ 1
αδυναμία 1
καθοδήγηση 1
λατρ@@ 1
πέσει 1
Βίβλ@@ 1
Βρέ@@ 1
ΣΕ@@ 1
Φ.@@ 1
δρά 1
ισορροπία 1
νοια 1
όψει 1
Paul 0.1362274124880265
ΡΙ@@ 1
ετίας 1
μαθή@@ 1
πολιτείες 1
σημειώνει 1
Σταυροφ@@ 1
ίαση 1
αντικαθιστώντας 1
αντικαταστήσει 1
δημιουργούν 1
ευρύτερης 1
μόρια 1
φροντίδα 1
22@@ 1
Πάσχα 1
Σταυρού 1
αναμέτρηση 1
απασχόλ@@ 1
αποδεικνύ@@ 1
αστι@@ 1
πρωταγωνιστικό 1
φελ@@ 1
0,0@@ 1
Δημήτριο 1
Πολυτεχν@@ 1
αμπ 1
ανέγερση 1
κίνδυνος 1
κυκλο@@ 1
τασε 1
τγκ@@ 1
υψηλά 1
ino 0.1657032931419422
Οξφόρ@@ 1
άρος 1
κεφάλαιο 1
μεταναστ@@ 1
φι 1
Pr@@ 0.1702846617776486
Μαντ@@ 1
ίλη 1
απαντά 1
ασχοληθεί 1
διορθ@@ 1
εγχώ@@ 1
εστ 1
Εκπαίδευση 1
Ιταλική 1
Σέν@@ 1
ζε@@ 1
ρής 1
Αιν@@ 1
γερουσι@@ 1
ιερέα 1
νται 1
πέρας 1
πλεον@@ 1
ρίδης 1
σματα 1
σφαγή 1
Mon@@ 0.1366669039470459
Περιφερ@@ 1
εινε 1
επαν 1
ηθοποιούς 1
παρουσί@@ 1
off 0.10205803842904482
πέθαναν 1
σχεδιάσ@@ 1
Νησι@@ 1
Σιβη@@ 1
έρια 1
μέλεια 1
πηδ@@ 1
1887 0.6837278672931187
Βίλ@@ 1
Νομική 1
Πινακοθήκη 1
δημιουργήσουν 1
εδροι 1
καταλήγ@@ 1
καταστράφηκαν 1
λείψανα 1
λλην@@ 1
ραξη 1
σκόπιο 1
υπαλλήλ@@ 1
χαμ@@ 1
Ετυμολογία 1
απαντάται 1
κανένας 1
τήρα 1
ταρχ@@ 1
Bo@@ 0.17347212675894927
Αργεντινής 1
Αυτοκιν@@ 1
Ευρυ@@ 1
Νόμ@@ 1
στοίχ@@ 1
φεύγει 1
Θ. 1
Καθηγ@@ 1
έζησαν 1
τέρα 1
Ήδη 1
Ημερ@@ 1
Μασσ@@ 1
αντανακλ@@ 1
αώ 1
παράδοσης 1
Ασκ@@ 1
οδηγούσε 1
συνταξι@@ 1
τάνα 1
υγρα@@ 1
El@@ 0.14221863077480396
Φραντσέσκο 1
ισή 1
χια 1
ter 0.06721261823988814
ήγηση 1
αγου@@ 1
ακριβή 1
αλου@@ 1
δοσ@@ 1
αναβί@@ 1
θεατρική 1
ορχήστρα 1
ποδα 1
ρέφοντας 1
όλεϊ 1
Un@@ 0.16865012213537237
Γιορ@@ 1
Λιού@@ 1
Τρω@@ 1
οζ@@ 1
παρουσίας 1
ύτα@@ 1
Bar@@ 0.12041338216798271
αδύνα@@ 1
βιβλιοθήκης 1
επέτρεπε 1
κρασί 1
James 0.13744532729813078
Z 0.39057906714444324
Γοδεφρ@@ 1
Τόκιο 1
άνδης 1
μυστική 1
ογλου 1
προκρίθηκε 1
1882 0.7152456697574681
se 0.009807787028695654
ατό 1
τραβ@@ 1
Αλβέρ@@ 1
Κυβέρνησης 1
Μισ@@ 1
Τζόνσον 1
κάθε@@ 1
κεντρικά 1
σημαντικούς 1
τήρες 1
φθάνει 1
Studios 0.7534771501103065
έκλει@@ 1
ακέρα@@ 1
απαραίτη@@ 1
βασης 1
διδε 1
επαναστάτες 1
καρδινά@@ 1
νησε 1
σύμφ@@ 1
τερματίζοντας 1
Δεύτερο 1
Φάλ@@ 1
δόγ@@ 1
μέταλλα 1
παραβί@@ 1
προγραμματισμού 1
πρόσφατη 1
συναντά 1
ταραχές 1
1833 1
Ομοσπονδιακ@@ 1
βάλλουν 1
κβαν@@ 1
προνόμια 1
στήρ@@ 1
φούρ@@ 1
χειρουργική 1
Έκτοτε 1
Ερυθρ@@ 1
γιου@@ 1
ουβ@@ 1
περιστατ@@ 1
ρυ 1
ρώσ@@ 1
000 0.2525391299243902
Πύργος 1
Στυ@@ 1
Χερ@@ 1
δακτυ@@ 1
δηλώσεις 1
διαμερ@@ 1
εισβολής 1
επιφάνειας 1
κλπ 1
μυθιστορήματα 1
ουλευ@@ 1
παρατηρηθεί 1
σιμότητα 1
σκού@@ 1
Αττική 1
έρω@@ 1
ιδιοκτησίας 1
πλοκ 1
ριχ@@ 1
David 0.1475697264405724
OS 0.699599932701039
Περικ@@ 1
αίους 1
ανάκτορο 1
επιτρέποντας 1
κάμερ@@ 1
τελικώς 1
τιοι 1
13ου 1
1883 0.7341545012669013
Com@@ 0.16880208616895712
Life 0.2871621981788925
έγερση 1
ήτριες 1
αξιώματα 1
οροφή 1
ουλο 1
σκηνοθέτησε 1
στάσεις 1
Γρα@@ 1
Τμήματος 1
βια 1
νού 1
οδηγός 1
ούπολης 1
Ντέν@@ 1
Παλαιά 1
Τοπική 1
εξακολουθούν 1
ναυτική 1
παρασ@@ 1
Γκέρ@@ 1
Ιδρύματος 1
Κή@@ 1
Καρχηδ@@ 1
Παπα@@ 1
Χώρα 1
ηγεμόνα 1
ινα 1
κατσ@@ 1
πεδ@@ 1
William 0.12605636747891338
άτι@@ 1
εγγύ@@ 1
κατέστ@@ 1
φρασης 1
Μάρκου 1
Τσάρ@@ 1
ελαφρά 1
κανδιναβ@@ 1
μυθιστορήματος 1
χωρισ@@ 1
Μ.@@ 1
έσπ@@ 1
ακτο@@ 1
ατομικό 1
γυναικείο 1
δεξί 1
εγκατέλειψαν 1
μπιν 1
πρωτεΐνες 1
IV 0.3009691899485197
Ζηλανδία 1
ονγκ 1
Πύλη 1
Ρεπουμπλικαν@@ 1
ανοιχτό 1
αυτονομία 1
διαταγές 1
παράλια 1
σπήλαιο 1
τεθεί 1
όριζε 1
em@@ 0.08673028952580443
Αποστολ@@ 1
Σαρδ@@ 1
Χιού@@ 1
Δεδομένου 1
Μνημείο 1
δικαιοδοσία 1
εξωτερικά 1
ηλεκτρική 1
.-@@ 1
Όσο 1
Ανάπτυξης 1
Εσωτερ@@ 1
Ρον 1
ιζερ 1
ολόγους 1
υψηλού 1
1,2 1
Θησ@@ 1
γερμανικών 1
γραφίες 1
10ο 1
FIBA 1
αντισφαίρισης 1
αποφύγει 1
απρό@@ 1
δεσ@@ 1
οίκο 1
φθεί 1
1828 1
Πολωνοί 1
συνδυασμός 1
χρησιμεύ@@ 1
κακό 1
μεσαιωνική 1
ξέσπασμα 1
πραγμάτων 1
συνεισφορά 1
χώρων 1
Βοιωτίας 1
αθηναϊκ@@ 1
αλή@@ 1
αποδοχή 1
μιά 1
ολοκληρώσει 1
Συνεπώς 1
ανοιχτά 1
βοσκ@@ 1
δανεικός 1
μειώνεται 1
ντέ@@ 1
συνθηκών 1
tr@@ 0.06385143878782856
ήρων 1
βοηθήσουν 1
ύπαρ@@ 1
Αλα@@ 1
Παιδ@@ 1
Στο@@ 1
ένα@@ 1
ισοδ@@ 1
νής 1
παρόντος 1
Μπέρν@@ 1
Χοσέ 1
διδάκ@@ 1
επιβεβαίωσε 1
θεσμό 1
ιδιωτικό 1
οδοξ@@ 1
τεια 1
ya 0.06033068479732053
ΗΣ 1
ίλια 1
γεφ@@ 1
εγκλήματα 1
κατέστρεψε 1
οικοδόμηση 1
οκρι@@ 1
Έργα 1
Γκορ@@ 1
έρονταν 1
αξιωματικούς 1
αφιερωμένη 1
χαλκού 1
12,@@ 1
Λευκωσία 1
Μπαγ@@ 1
Σκοτ 1
Χέλ@@ 1
ενημέρω@@ 1
κατασκευαστεί 1
πλάκα 1
ποδοσφαιριστ@@ 1
σχεδιασμός 1
τούνταν 1
υποταγ@@ 1
Εβ@@ 1
Κρατικό 1
άμπ 1
πίστευαν 1
πούλησε 1
ύρωσε 1
Έθν@@ 1
ισμάτων 1
ολόγια 1
συστατικό 1
φορολογ@@ 1
Αθηναίοι 1
Μνημ@@ 1
Ναρ@@ 1
λή 1
οικία 1
οπαθ@@ 1
περιηγ@@ 1
πολίτη 1
πύ@@ 1
σχετικό 1
τυπική 1
φαγητό 1
Μπασ@@ 1
Παλλ@@ 1
άτος 1
έλου 1
είμ 1
ευεργ@@ 1
1834 1
Έπαιξε 1
Αποφοίτησε 1
άγνωστος 1
άιτ 1
έντονες 1
εκδικ@@ 1
ελευθέρ@@ 1
κληρονόμησε 1
οποιώντας 1
Ex@@ 0.16881508134869244
Αντώνης 1
Λέσ@@ 1
Φάση 1
Χαϊ@@ 1
αγάλματα 1
αναγράφ@@ 1
επιμέρους 1
ιφά@@ 1
ωμένου 1
Βα@@ 1
Μαγι@@ 1
Μιλάνου 1
ιδιοκτήτης 1
1877 0.7330871243688262
un 0.006818248072712076
Βρετανούς 1
Νεί@@ 1
Προπον@@ 1
αστέρας 1
γενή 1
εξόρυ@@ 1
ιδρυτή 1
ολοκλήρω@@ 1
πανδημ@@ 1
παρήγαγε 1
Αποστ@@ 1
Βίτ@@ 1
Κωνστ@@ 1
αμφισβή@@ 1
ιτέχ@@ 1
κερδ@@ 1
κηδεία 1
ομολογ@@ 1
ορίζονται 1
παρόμοι@@ 1
ic 0.09027393876143054
ke 0.13881355530625983
Καταγ@@ 1
Μισέλ 1
αντικατάσταση 1
ασή 1
βατ@@ 1
ολαίας 1
Βενιζ@@ 1
Καρυ@@ 1
Μαρι@@ 1
Μπαρτσελόνα 1
Τρικάλων 1
ούνι 1
πολέμ@@ 1
ρεύματα 1
ψήφου 1
Σκι@@ 1
απει@@ 1
γεωγραφική 1
διάλεκ@@ 1
θμα 1
πύργο 1
σιδήρου 1
στηρί@@ 1
τίμηση 1
μαλλιά 1
ροια 1
χειμ@@ 1
9ο 1
Ίσ@@ 1
Οχ@@ 1
γαλλικού 1
γωγ@@ 1
δήλ@@ 1
ενήλικες 1
τρά 1
χωριών 1
80@@ 1
Ουζ@@ 1
αναφορ@@ 1
ατμοσφαι@@ 1
γεννημένη 1
όσι@@ 1
αντίκ@@ 1
απομακρ@@ 1
εκκλη@@ 1
προκαλείται 1
σαφώς 1
τητα 1
χρειαζόταν 1
Διευθυντής 1
Παρέμεινε 1
διευκολ@@ 1
ζητά 1
ντράμερ 1
υπεύθυν@@ 1
φόβ@@ 1
1815 1
Ευρωλίγκα 1
Κεν@@ 1
Μεταρ@@ 1
κλασικό 1
μετακομ@@ 1
Deep 1
άσκαλ@@ 1
έδει@@ 1
αθλήτρια 1
ουρα@@ 1
ρωσικό 1
τοπικού 1
έντον@@ 1
βέβ@@ 1
διακόσμηση 1
περιγράψει 1
ρασι@@ 1
τσον 1
Γουίν@@ 1
Κομμουν@@ 1
εποπτεία 1
θεατρικά 1
ούλη 1
Όμιλο 1
Αρν@@ 1
αναδ@@ 1
δολοφονίας 1
δομών 1
λαύ@@ 1
ναούς 1
ψίας 1
Κάποιοι 1
Φιλαδέλφ@@ 1
έροντας 1
απου@@ 1
βαπ@@ 1
καταγράφηκε 1
κοιτά@@ 1
μόριο 1
Επομένως 1
ψυ@@ 1
Καίσ@@ 1
Μιχάλης 1
έστειλαν 1
ήγησης 1
καταγραφεί 1
τρόπ@@ 1
3,5 1
ανέθεσε 1
αρχικές 1
μαθητών 1
στοιχει@@ 1
χλωρι@@ 1
όμιλος 1
αντιμετώπ@@ 1
αρνήθηκαν 1
ατύχημα 1
ετοι@@ 1
ευκ@@ 1
ξεχωριστό 1
φθορο@@ 1
χνε 1
ti 0.2226899108106957
Όθων 1
άο 1
θρύ@@ 1
θύμα 1
ράκη 1
χτισμένο 1
δισε 1
εύσουν 1
κατοίκ@@ 1
παραδόθηκε 1
τροπο@@ 1
χάνοντας 1
OH 1
Αμερικανικό 1
διατηρείται 1
ξεκάθ@@ 1
id@@ 0.09540507220750295
Κρακο@@ 1
ΝΒΑ 1
Πορτογ@@ 1
υσίας 1
Κυκλοφόρησε 1
διαδέχτηκε 1
γκαρντ 1
οδον@@ 1
σμά 1
Μανι@@ 1
βιομηχανίες 1
θάμ@@ 1
ιστορικού 1
μεσογ@@ 1
τέως 1
όρες 1
ΑΚ@@ 1
Φρειδερίκο 1
άγρια 1
ακο@@ 1
ερημ@@ 1
φυλάσσ@@ 1
3ος 1
Κάι@@ 1
Φραγκίσκου 1
άγγελ@@ 1
αρχαίους 1
δεικνύ@@ 1
διατύπ@@ 1
ερωτεύ@@ 1
κειμένων 1
κινηματογράφ@@ 1
Channel 0.672282916243477
Κατσ@@ 1
Κυρί@@ 1
ίκας 1
γραπτά 1
δίας 1
ευρισκ@@ 1
κτιρίων 1
όπλ@@ 1
Ανθρ@@ 1
απομόν@@ 1
ενθαρρ@@ 1
φεμιν@@ 1
ec@@ 0.10146828477356779
Μαλαισ@@ 1
Τζακ 1
δειγ@@ 1
εξουσίες 1
καταστάθηκαν 1
μαξ@@ 1
μοντ 1
τελικού 1
Μερκ@@ 1
Χρησιμοποιείται 1
αμυντικός 1
αποδειχθεί 1
ιταλικό 1
καταιγ@@ 1
μεμβρ@@ 1
βαρι@@ 1
ενασχόλ@@ 1
μουσικών 1
Ναπολέων 1
ίση 1
γιγ@@ 1
εισαγγελ@@ 1
μεταβολή 1
τορφ 1
Awards 0.24298999558915396
Υπολογ@@ 1
αδελφές 1
εκλέγεται 1
θεωρού@@ 1
μεγέ@@ 1
στρατιώ@@ 1
Ήπειρο 1
Μέλη 1
ΣΕ 1
έθνος 1
αμαξ@@ 1
ομένου 1
ταί@@ 1
χαμηλής 1
ωρα@@ 1
Βαυαρ@@ 1
Ραφα@@ 1
ΣΤ@@ 1
ευσαν 1
μπαρόκ 1
ούμενες 1
πραγματοποιηθεί 1
χερσονήσου 1
180 0.9762213844268411
Κοιλ@@ 1
άγγελος 1
άγνωστα 1
έλευ@@ 1
λήμμα 1
ξεχω@@ 1
οσμ@@ 1
τοσ@@ 1
Κατοχής 1
Πόντου 1
Φιλι@@ 1
δήλωσαν 1
διαλέκ@@ 1
ιστία 1
προπαν@@ 1
σηματο@@ 1
απέσπασε 1
αστέρα 1
γεύση 1
δειν@@ 1
ευγ@@ 1
παρέδωσε 1
υποστηρι@@ 1
αιφν@@ 1
αφαίρεση 1
εμφύλιο 1
ηφαίστ@@ 1
ιο@@ 1
τάσεων 1
1861 0.6688713603220412
Βασίλη 1
ενιαίο 1
ηχογραφήθηκε 1
θεταν 1
κρη@@ 1
προχω@@ 1
σεισμό 1
σκέ@@ 1
1876 0.6833581604704128
Par@@ 0.11935691332049143
Δυναστεία 1
Ιούλιος 1
Λέοντα 1
Σάμου 1
έρα@@ 1
τροπος 1
φθηκαν 1
Σεμπ@@ 1
αγγει@@ 1
διεκδίκησε 1
εφαρμογής 1
ομβ@@ 1
σημαντικών 1
τιέ 1
τολής 1
φιλία 1
Έχ@@ 1
Κούρ@@ 1
Οθωμανοί 1
Σωτή@@ 1
ακόλουθη 1
αντιστοιχ@@ 1
δρομές 1
ζέ 1
κον 1
νοση@@ 1
οφόρο 1
ρίτης 1
φυλάκιση 1
ΑΕΠ 1
Βρετανός 1
δραπέ@@ 1
μπαχ 1
ουα 1
πυροβ@@ 1
φτερά 1
φωσφ@@ 1
ώντα 1
έλης 1
γεμ@@ 1
ημη 1
καπο@@ 1
μείζ@@ 1
όσες 1
οπρα@@ 1
χε@@ 1
όδιο 1
Διαθέτει 1
έφτι@@ 1
ακίν@@ 1
κορίτσια 1
οξειδίου 1
οργανισμοί 1
πέμπ@@ 1
ρόπολη 1
ψηφίστηκε 1
Ακουι@@ 1
Βαν 1
Ιακώβου 1
Ιμπ@@ 1
Κολοκοτρ@@ 1
έρος 1
ανθρω@@ 1
δικών 1
επιλογές 1
ωνύμιο 1
όμοια 1
Μοζ@@ 1
Χονγκ 1
στρώμα 1
Αμβέρσα 1
Πρωταθλήματα 1
Συμμαχία 1
νεκρών 1
οδοτ@@ 1
Βιν@@ 1
Παραπομπές 1
αλυσίδα 1
ανθρώπινα 1
διαταραχές 1
εξωτερικού 1
παράγοντα 1
τέλεια 1
Μολδαβ@@ 1
οφόροι 1
τήσουν 1
ἰ@@ 1
di@@ 0.07183524006031963
un@@ 0.032054749503001766
Ρουμάν@@ 1
καταγράφεται 1
χημικές 1
αντιν@@ 1
αρσενικό 1
δέκατο 1
επιβάτες 1
ομέ@@ 1
σπο@@ 1
έβη 1
ενδιαφέρον@@ 1
ιδρύσει 1
φορτίο 1
ωτής 1
όδρο@@ 1
Διακρίσεις 1
ανεπτυγ@@ 1
ατος 1
λινα 1
τάκη 1
όα 1
Γαλλικά 1
Λατινική 1
ελάχιστη 1
νομός 1
συγκεντρώσεις 1
άμβ@@ 1
αρχηγού 1
προκύ@@ 1
χρησίμευ@@ 1
όκι 1
Άσ@@ 1
Βενιζέλου 1
Δολ@@ 1
Μη@@ 1
Πιερ 1
άλυση 1
αντιμέ@@ 1
ανόδου 1
εικόνας 1
οχημ@@ 1
στήρα 1
σφαί@@ 1
τέθηκαν 1
ra 0.08823331429157662
Γρ@@ 1
Τζαμ@@ 1
εκείνων 1
καλύτερους 1
μετάβαση 1
προταθεί 1
ρίνης 1
χρονών 1
1875 0.7018539918713401
8ο 1
ήγαγαν 1
ήνων 1
διδακτορ@@ 1
εγγυ@@ 1
πληρώσει 1
φτω@@ 1
Βρετανικό 1
Μαγνη@@ 1
εναλλακτική 1
επιστημών 1
επιχει@@ 1
κατεχ@@ 1
νεώ@@ 1
οκύ@@ 1
οσφαι@@ 1
πρωτοπο@@ 1
φτερ@@ 1
όλυση 1
Βαρσοβία 1
Διαγωνισμό 1
Κηφισ@@ 1
βασιλέων 1
εύρ@@ 1
ιστορικής 1
ουρανό 1
υποψήφιο 1
ειρο 1
τόνων 1
1863 0.6820854008548246
Ανεξάρτη@@ 1
Κατερ@@ 1
αποκάλυψε 1
βις 1
ευγενής 1
ησίας 1
μετεγ@@ 1
πυραμ@@ 1
ρύθμισης 1
φύλο 1
χάλ@@ 1
130 0.8555219377151531
Company 0.1780288737336816
ΚΟ 1
Κυβ@@ 1
Μπουλ@@ 1
Ορισμένοι 1
βορειοανατολική 1
δέσ@@ 1
επαναληπ@@ 1
μεγαλύτερης 1
πέτρες 1
στε@@ 1
τεχνικής 1
όσφαι@@ 1
απολογ@@ 1
γαλλ. 1
διαθέσιμα 1
επαγγελματικά 1
καταλύ@@ 1
υργ@@ 1
ωστε 1
College 0.10380838573068392
Δαμασκ@@ 1
Επαρχίας 1
Ομάδας 1
Ταν@@ 1
αξιοθέατα 1
επαναλαμβαν@@ 1
κληρονομιάς 1
μορφών 1
πληροφορία 1
προχωρήσει 1
τμ@@ 1
Am@@ 0.14348648825306404
Τύπου 1
στενό 1
House 0.12758441608157384
Βοημ@@ 1
Ορισμένες 1
ήφθηκαν 1
κοφ 1
ρίζονταν 1
ρωμαϊκής 1
σχεδιαστ@@ 1
υπέγραψαν 1
φέρθηκε 1
8,@@ 0.9179308279975118
Sch@@ 0.07262724350197677
oc@@ 0.11116316971759206
Κωνσταντινουπόλεως 1
Ναού 1
Ουλ@@ 1
δίδυ@@ 1
θήκης 1
πεζικού 1
πλειονότητα 1
τραπέζ@@ 1
υδρα@@ 1
Λ. 1
Μπάλ@@ 1
ήμερ@@ 1
ινγκεν 1
οτι@@ 1
Δικαίου 1
Μογγ@@ 1
Νάπολη 1
διάφοροι 1
καλλιτεχνικό 1
κορίτσι 1
κρυσταλλ@@ 1
οχυρό 1
ρυθμός 1
χαλκ@@ 1
διοργανώνει 1
πράγματι 1
Αμβ@@ 1
ενσωματώθηκε 1
κόμισσα 1
πρωταθλημάτων 1
συγγραφέων 1
τεκμηρι@@ 1
αντιπρόσω@@ 1
ικων 1
οφυλ@@ 1
συχ@@ 1
1868 0.6961861458264278
αφήνει 1
εκτήματα 1
καπι@@ 1
τούτοις 1
αιρ@@ 1
πολυμερ@@ 1
1825 1
us@@ 0.08977545337940653
Σκοπός 1
ακερ@@ 1
επιχειρηματίας 1
ησα 1
θε 1
κρυπτο@@ 1
συνένωση 1
ωτικού 1
Αμμοχώστου 1
Κληρονομιάς 1
αποτυπ@@ 1
καθολική 1
μβανε 1
νάς 1
τύπ@@ 1
Βρετανικής 1
Κονγκ 1
Κυπελλ@@ 1
αρχίζουν 1
εισοδ@@ 1
εξαδέλφ@@ 1
ευρύ@@ 1
μίρ 1
ματοποί@@ 1
περιβάλλεται 1
προστέθηκαν 1
συγκρού@@ 1
Ανώτατο 1
έγκλημα 1
έσκ@@ 1
αντικειμεν@@ 1
εκμετάλλευση 1
λλαγ@@ 1
ονόμ@@ 1
συναντήσει 1
τελειώνει 1
Θεσσαλία 1
αφοσι@@ 1
Αιγύπ@@ 1
ακμή 1
βιομ@@ 1
εμφανίζει 1
κανονικής 1
λέξεων 1
τάρι 1
τειρα 1
Robert 0.1363008024295536
έξοδα 1
αναπτύχθηκαν 1
ασημένιο 1
πέδων 1
προκρίθηκαν 1
υποστήριξης 1
5ου 1
CH3@@ 1
Αξιοσημείω@@ 1
Γαλλικό 1
Καππα@@ 1
Φράγκων 1
ήγησε 1
διατηρούν 1
δωμάτια 1
ξένες 1
Αργολ@@ 1
Μπράουν 1
Χάου@@ 1
διάσημη 1
ισχυρι@@ 1
ριστές 1
σφαίριση 1
Πίν@@ 1
δομής 1
παραβι@@ 1
Ρόμ@@ 1
νεότερη 1
πάρουν 1
παράταση 1
ταιρι@@ 1
Νομό 1
Ροβ@@ 1
εγκαινιάστηκε 1
επιτρέπεται 1
εταιρειών 1
λεκάνη 1
προέ@@ 1
πρόθεση 1
For@@ 0.1723388465880915
μπάντα 1
στασι@@ 1
qu@@ 0.1106511341311066
Μαίρη 1
Τρικ@@ 1
αγν@@ 1
αναβαθμ@@ 1
βον@@ 1
θουν 1
ολα 1
φύγ@@ 1
Πολιτικής 1
Χανς 1
θέν 1
λάδι 1
Βαρκελώνης 1
Μπάμπ@@ 1
αυγά 1
γραφίας 1
δούκισσα 1
μετακινήθηκε 1
ονομάζονταν 1
50@@ 0.8066023400589469
`@@ 1
Ομάδες 1
έλεγε 1
δυστυχ@@ 1
εξαπ@@ 1
πύλες 1
υποστηρικ@@ 1
ότοπος 1
ώνυμα 1
3ου 1
Radio 0.26804988810566
ΟΥ@@ 1
Φίλ@@ 1
αυξάνει 1
ξένους 1
Κύκλ@@ 1
Ρωμαίος 1
ανάγκης 1
γονιμ@@ 1
διατριβή 1
είπει 1
μαργ@@ 1
ομπ@@ 1
παρχ@@ 1
ποδοσφαιρικό 1
ανεκ@@ 1
δοκία 1
δραστηριοποιείται 1
εισέβαλε 1
ισθεί 1
παραμονής 1
Str@@ 0.15384108360442117
Χωρίς 1
έπα@@ 1
εκδίκ@@ 1
εξέφρασε 1
εργαστήρια 1
εργοστάσια 1
καλλιέργειες 1
πλην 1
no 0.028193190496378348
Παρισ@@ 1
ήμη 1
ίλιαμς 1
δαι@@ 1
καλύτερης 1
κουζίνα 1
λευε 1
μπορν 1
τολφ 1
όπερας 1
ini 0.18933898681523573
Μπρί@@ 1
αισθητική 1
αντίγραφο 1
είρ@@ 1
χώρησή 1
Χριστιανοί 1
αντιπροσωπεύουν 1
αρκετό 1
βού@@ 1
γόν@@ 1
διασκευ@@ 1
ενί@@ 1
επενδυ@@ 1
καταλάβουν 1
πολιτιστικό 1
σταθ@@ 1
υιοθετήθηκε 1
ice 0.15433912130071492
Μονακό 1
Σλέσβιχ 1
άγος 1
ίαν 1
γενέστερ@@ 1
ενέκρινε 1
θυν@@ 1
λεγόταν 1
λλιο 1
μματος 1
οποιήθηκαν 1
παγετ@@ 1
παιδιού 1
ώμα 1
Επο@@ 1
Ισραηλ@@ 1
αστυνομίας 1
ειό 1
μαι 1
μητρική 1
συνέλευσης 1
ωπηλ@@ 1
Λεύ@@ 1
διατηρώντας 1
εφαρ@@ 1
ζωντανή 1
καμιά 1
μάλ 1
πατος 1
πιλό@@ 1
le@@ 0.0724884654486449
Πόλης 1
έντεκα 1
ελευθερίας 1
εσωτερικές 1
τύρ@@ 1
Τυν@@ 1
απόσπασμα 1
ερυθ@@ 1
μακεδ@@ 1
προφορ@@ 1
ραντ 1
Ούγγ@@ 1
άρθ@@ 1
αναπληρω@@ 1
ασκεί 1
βροχ@@ 1
επαναστά@@ 1
επηρεάζει 1
ζωγράφου 1
ισχυρίζεται 1
λεσε 1
μοιάζουν 1
Πεζικού 1
ανήλ@@ 1
καταγεγραμ@@ 1
καταστολή 1
υνσης 1
Association 0.15441004672354153
ίωμα 1
δει@@ 1
καρυ@@ 1
μαζικής 1
μαθαίνει 1
συνορι@@ 1
τίζει 1
ano 0.12140929161027575
Αυτο@@ 1
Βλαντι@@ 1
Πάντως 1
Τρίτη 1
ανατροπή 1
ανεμ@@ 1
ανθρωπο@@ 1
αρνητική 1
είλει 1
καταλαμβάνοντας 1
μουσικές 1
παρατήρηση 1
πληθυσμ@@ 1
χίλια 1
ωνυμ@@ 1
Grand 0.16010512792548728
Αυστρα@@ 1
ΕΑ 1
έιν 1
δηλητηρι@@ 1
επισκέφτηκε 1
ιερά 1
μουν@@ 1
Θηβ@@ 1
Καρδίτσας 1
αποσύρ@@ 1
βιβλιο@@ 1
εφαρμόζεται 1
μπριτζ 1
τηρεί 1
Σπάρτης 1
επαφ@@ 1
ετοιμ@@ 1
παιχνιδιών 1
σταδιοδρομίας 1
Κοπ@@ 1
Σορ@@ 1
Τσου@@ 1
αβε 1
δημοφιλείς 1
διάλεκτο 1
κλασικής 1
πολέμων 1
ποτάμι 1
Μαυροβούνιο 1
Πυθ@@ 1
Τέσσ@@ 1
Φιλε@@ 1
άριου 1
συνέθεσε 1
χορήγηση 1
Μετέ@@ 1
θεμέλια 1
κηδε@@ 1
λύθηκε 1
μαχία 1
οκρατίας 1
ουτ@@ 1
τορία 1
Michael 0.16223985124533333
http 1
Ανν@@ 1
Βαϊ@@ 1
ανεπιθύ@@ 1
εντύπωση 1
επίτευξη 1
ηθοποιού 1
ικότερα 1
μονες 1
προγραμμάτων 1
ρεια 1
σφαγ@@ 1
φήμες 1
χ. 1
γεννι@@ 1
εξοπλισμού 1
ητός 1
ιστος 1
μεταγράφηκε 1
ράκης 1
σάλ@@ 1
σύνολα 1
τύμπαν@@ 1
χαμηλότερη 1
CH@@ 0.7476259964691495
il@@ 0.09147737377948283
Μπολόνια 1
έτας 1
ρωμ@@ 1
τραχ@@ 1
8η 1
Άρν@@ 1
Ευγ@@ 1
Ι.@@ 1
Περιλαμβάνει 1
ειξη 1
ποικ@@ 1
ψηλά 1
Κύπρος 1
αρχον@@ 1
ενώπιον 1
εξου@@ 1
ιέρ@@ 1
λήψεις 1
σώσει 1
τελείως 1
Me@@ 0.1603865093737736
Γκόλ@@ 1
Παλαιότερα 1
Τιβ@@ 1
βρυ@@ 1
μονοπ@@ 1
συντάκτης 1
υπόσχ@@ 1
1862 0.6500625393220693
1873 0.6730025119145073
Γερμανικής 1
Ερν@@ 1
άπη 1
αδι@@ 1
διαδίκτυο 1
ειρά 1
εκτελέσεις 1
ελέγχεται 1
θάνα@@ 1
κατάστημα 1
λατινικό 1
τροφής 1
Βιβλίο 1
άγνωση 1
αρχείων 1
δήμων 1
διακυβέρνησης 1
ερεύνηση 1
εχθρούς 1
κόβ@@ 1
Κλειστό 1
επιτευχθεί 1
θηκών 1
μοίως 1
City 0.07654922231583774
Ε.Σ.@@ 1
Να 1
Ροβέρτος 1
ήνος 1
αδέρφια 1
αναπληρωτής 1
εγκυμ@@ 1
ικανό 1
λάβουν 1
ντο@@ 1
συνολικού 1
φόρος 1
Ριχάρδος 1
άβει 1
αγγεία 1
αντιπολίτευση 1
αρίων 1
ενδιαφερ@@ 1
σχημά@@ 1
τέρ 1
χρειάζονται 1
χό 1
ΑΠΟ@@ 1
Αίθ@@ 1
Κλει@@ 1
Κουλ@@ 1
Παρασκευής 1
Στοιχ@@ 1
επιστημονικό 1
μιση 1
προπαγάν@@ 1
Air 0.1774804876075952
ΚΕ 1
Ρέι@@ 1
αγροτικές 1
πρόκριση 1
Per@@ 0.12957596860784382
Γουόλ@@ 1
Ζή@@ 1
Πριγκιπά@@ 1
άρκου 1
ούκα 1
ne 0.04396756086293624
Γουίλ@@ 1
Μετά@@ 1
Ντέι@@ 1
θεσμού 1
θορά 1
ιταλικής 1
νόημα 1
ολιγ@@ 1
ορφαν@@ 1
σημειωθεί 1
στιχουργ@@ 1
φεουδ@@ 1
χώρι 1
Χρυσό 1
αγωγών 1
κρυφά 1
πειραματ@@ 1
προμη@@ 1
Δημόσι@@ 1
Ζωγράφ@@ 1
Πρίγκιπας 1
γνώσης 1
γύρισε 1
δακτύ@@ 1
διδασκαλίας 1
επιρροής 1
ερμηνείες 1
ετη@@ 1
κερ 1
μόνιμους 1
παραδοσιακές 1
ποιητές 1
προϋπόθεση 1
ριμ@@ 1
δημιουργός 1
κεντρικού 1
οβολ@@ 1
σπιτιού 1
σταματ@@ 1
σύμπλεγμα 1
τοίχο 1
Mo@@ 0.16531354140106755
Σωματείων 1
έπαιξαν 1
απόλυ@@ 1
βιβλι@@ 1
εκκλησιαστική 1
ιστό 1
κρεμ@@ 1
3,@@ 0.5726634960972758
km 0.06241347307905232
Πιέρ 1
ευμένο 1
κατεδαφ@@ 1
οικογενειών 1
ουλα 1
παραγωγές 1
σωστή 1
ΔΗ@@ 1
Επαναστατ@@ 1
Ζά@@ 1
Ορέ@@ 1
βαθμολογίας 1
διατάξεις 1
ευρωπαϊκών 1
κανονικό 1
κεφαλή 1
κυκλοφορ@@ 1
μόδας 1
Group 0.1817549689660737
έχτηκε 1
εκρηκ@@ 1
τελευταίας 1
υμβ@@ 1
όσεων 1
1800 0.8211815661746088
Ιεροσ@@ 1
Νοσοκομείο 1
οδομ@@ 1
οπισθ@@ 1
συναρτήσεις 1
σύνταξη 1
χάνει 1
ja 0.19302314835839912
Αχαι@@ 1
Πόλε@@ 1
λεξαν 1
πρωταρχ@@ 1
συμμάχους 1
ταρα@@ 1
τεχνικά 1
υποτροφία 1
Συνέλευσης 1
ιδιοκτή@@ 1
ισχυρές 1
ομο@@ 1
τσου 1
υπέστησαν 1
όμαστε 1
play 0.10425207385695827
Επιχείρηση 1
Στρατιωτική 1
ιερ 1
κάλυπ@@ 1
κόμικς 1
λαών 1
πρακτικά 1
φύλου 1
Φλαμαν@@ 1
εκείνοι 1
ερήμ@@ 1
κατέκτησαν 1
παραχωρήθηκε 1
σαφές 1
σεναριογράφος 1
σεϊ 1
χωρίζονται 1
Άγκ@@ 1
Αιθιοπ@@ 1
Βρυξέλλες 1
αρχαίοι 1
γάλα 1
γυρίστηκε 1
Αθη@@ 1
Ασχολ@@ 1
Επαρχ@@ 1
Κυβερνήτης 1
Μπρο@@ 1
Περισσ@@ 1
γραμμών 1
ευρωπαϊκά 1
ξεχ@@ 1
πειράματα 1
πηγών 1
πορτο@@ 1
τείν@@ 1
φιλόσοφ@@ 1
1836 1
Ελπ@@ 1
Λάρισα 1
Ρήγ@@ 1
Φθιώτιδας 1
Φλόριντα 1
απομάκρυνση 1
εκπαιδευτικό 1
επαφές 1
συνελήφθησαν 1
Βέρν@@ 1
Βυζάντιο 1
Μάγκ@@ 1
έπεται 1
βλάβη 1
διαδοχικά 1
επιλέγ@@ 1
κλινική 1
προσχώρησε 1
Αικατερίνης 1
Αρσ@@ 1
Μυρ@@ 1
Φερδινάνδου 1
Φυλ@@ 1
έξυπ@@ 1
απόγονοι 1
εξηγεί 1
προσπαθούν 1
συμφωνίες 1
υρία 1
όγου 1
ler 0.07978027327232952
Ηγ@@ 1
Ράσ@@ 1
Σαξ@@ 1
Τουρκοκρατίας 1
άρτηση 1
αεροπορική 1
αποσυρθεί 1
βίν@@ 1
οπα@@ 1
πόνο 1
τεχνικών 1
ed@@ 0.10843719187955837
Αδελαΐ@@ 1
Στε@@ 1
έστω 1
αγόρι 1
ανγκ 1
δυσκολία 1
ηρη@@ 1
παλαιότερες 1
συμφέροντα 1
Άγγελος 1
Καπο@@ 1
δεικτικά 1
διάλυμα 1
διαδηλώσεις 1
ευτικής 1
θέματος 1
θηλυκ@@ 1
ιαπωνική 1
προήχθη 1
τόπους 1
ΣΚ 1
Υποδ@@ 1
διασπ@@ 1
μάθει 1
ριοι 1
ς. 1
1ης 1
AR@@ 0.516983648387166
Αριστοτέλη 1
Βυζαντινών 1
Συνορεύει 1
απέν@@ 1
απορρόφ@@ 1
ενιαία 1
ερευ@@ 1
ξηρά 1
ξηρα@@ 1
όγκου 1
do 0.0667248126640607
Πέντε 1
ατικός 1
δίδεται 1
ερίου 1
μπάν 1
πυγ@@ 1
ωρα 1
1826 1
προοδευ@@ 1
συλλαμβ@@ 1
τζαμ@@ 1
υτ@@ 1
φρε@@ 1
1869 0.703250036542052
ήρες 1
αναλαμβ@@ 1
βά 1
βοηθά 1
ερεύ@@ 1
ετοί 1
μαύ@@ 1
πρωταγωνιστή 1
les 0.008404162350479555
Δικαι@@ 1
Ιουστιν@@ 1
Καπε@@ 1
Καρα@@ 1
Φίλιπ@@ 1
ίτο 1
γγυλ@@ 1
σπηλι@@ 1
συμπληρω@@ 1
σφοδ@@ 1
ψύ@@ 1
Col@@ 0.12999555864895848
Ιωάννου 1
Κεφαλ@@ 1
Λιθουανία 1
Μπολσεβ@@ 1
ανέλαβαν 1
ανταλλαγ@@ 1
γκέι 1
διακά 1
εμβολ@@ 1
κακο@@ 1
ούρια 1
πλάτη 1
4,@@ 0.5935065089802276
εκλέκ@@ 1
ιστούσε 1
μετέφεραν 1
μουσικοί 1
παρακολούθηση 1
πλειοψηφ@@ 1
τρόπαιο 1
υποψήφ@@ 1
Αποτελ@@ 1
ασαφ@@ 1
ειναν 1
ευτή 1
ολλ@@ 1
προσπαθώντας 1
σύγχυση 1
φιλμ 1
όπολη 1
UEFA 0.6533928955728266
Δάφ@@ 1
Ντόναλντ 1
Φόρμουλα 1
αγορα@@ 1
αντιμετωπίζει 1
διασφαλ@@ 1
πας 1
στιγμές 1
φόβο 1
UN@@ 0.5514216171884156
Φινλανδίας 1
αλγόριθμ@@ 1
ανεπαρκ@@ 1
αξιολογ@@ 1
λαμβ@@ 1
οριστική 1
ταλι@@ 1
τυπικό 1
RNA 1
ent 0.03731240251364919
έγι@@ 1
ήχηση 1
διχ@@ 1
κάποιων 1
κοινής 1
περιορισμό 1
Οργανισμός 1
Πράγματι 1
Τρά@@ 1
διαδοχής 1
μεταναστών 1
μόνα 1
σον@@ 1
τζιο 1
χρονος 1
He@@ 0.17347230491050372
Διοίκησης 1
Ιδρ@@ 1
άρτημα 1
κυβέρ@@ 1
κωμική 1
συνοδεία 1
τιους 1
ύσματα 1
Γκε@@ 1
Ηλεκτ@@ 1
αποδεκτή 1
ατυχ@@ 1
αυξανόμενη 1
επιτελ@@ 1
ευκαι@@ 1
ιππό@@ 1
καρδιακ@@ 1
συμβολίζει 1
ap@@ 0.07783459186007015
έτου 1
ηλα@@ 1
συνεχόμενη 1
DC 0.4662485813237965
with 0.005612138667994175
Στεφαν@@ 1
Φού@@ 1
αφήγηση 1
βιβλιοθήκες 1
είωση 1
εκλέγονται 1
θεωρώντας 1
ινου 1
συνεχόμενες 1
Επιπρόσθετα 1
Θεω@@ 1
Μπιλ 1
αναμένεται 1
αποκαλύφθηκε 1
αποστάσεις 1
ασθενών 1
λαμβάνονται 1
λογικής 1
τάξεως 1
τάριο 1
όχθ@@ 1
Αρχαιολογικό 1
Ολυμπιάδα 1
μεταφορές 1
πολιτικοί 1
στατη 1
χορό 1
Κακ@@ 1
Κρις 1
Μαρί 1
Πρέβεζας 1
αρχικής 1
ευρύτερα 1
στασίας 1
συναισ@@ 1
ite 0.10712287131160009
Γκρί@@ 1
ελήφθη 1
καθημερινά 1
πρός 1
συναν@@ 1
σύμβαση 1
φωση 1
ci@@ 0.13605146729720632
Ακολουθεί 1
Πετρούπολης 1
ίφη 1
βιβλιογραφία 1
ημί@@ 1
κτισμένη 1
σίν@@ 1
υπονο@@ 1
φερ 1
1872 0.6604568594492947
Κριστ@@ 1
Λιβύ@@ 1
Νόμος 1
διεθνών 1
εμφάνισης 1
ενδεχομένως 1
εξασφάλι@@ 1
πρωθυπουργία 1
τέλει 1
φιλοδοξ@@ 1
Αγώνα 1
Τοσκ@@ 1
ακαν@@ 1
αμερικανικής 1
δημητ@@ 1
επόμενης 1
λόγιος 1
ορεινός 1
πτέρυγες 1
ροειδ@@ 1
Or@@ 0.14344148887793648
Έργο 1
Ιλ@@ 1
Νίκη 1
άλυψη 1
αποτελεσματικά 1
δορ@@ 1
θεμα 1
ιγι@@ 1
καλι@@ 1
σεξ 1
συναντήθηκε 1
τζαμί 1
Lo@@ 0.19935889192933373
Φινλανδ@@ 1
έσπασε 1
ανέφεραν 1
βαθμού 1
μπάσο 1
πανελλήνιο 1
ποδηλ@@ 1
τράπεζα 1
Βού@@ 1
Κλεοπά@@ 1
δίχ@@ 1
επιτεθεί 1
καστ@@ 1
μπεκ@@ 1
νόμων 1
πιέσεις 1
BMW 1
Εκδόσεις 1
Μη 1
ανάλυσης 1
μιγ@@ 1
νικήτρια 1
ορα@@ 1
ριστής 1
τονήθηκε 1
top 0.1276523938184347
Αρκα@@ 1
ΕΝ@@ 1
αφότου 1
εκπροσώπους 1
ελπίδα 1
κυριολεκτικά 1
φον@@ 1
Αμερικανικής 1
Λεόν 1
Πεκ@@ 1
Φαίνεται 1
ερωμένη 1
καρκιν@@ 1
παρεκκλ@@ 1
ραϊκ@@ 1
τσαρ@@ 1
1865 0.6139713195003873
Purple 1
Βεατρί@@ 1
Σπύρος 1
δικαιώ@@ 1
πόρτα 1
ρίνα 1
συμμετέχοντες 1
συστηματική 1
1874 0.6512396431943156
Ro@@ 0.16082460602165946
Αυτ@@ 1
Γεννη@@ 1
ελέγχει 1
ισομ@@ 1
μεταφερθεί 1
πεθερ@@ 1
συναντάται 1
Ευρωμπάσκετ 1
απαιτ@@ 1
ορα 1
ρίσκεται 1
φορών 1
ir@@ 0.08765396173803654
Πομερ@@ 1
ασθέν@@ 1
κατάλληλα 1
τηλεφ@@ 1
χαρακτηρίζει 1
Λουξεμβούργου 1
Προβηγκ@@ 1
έσεις 1
ασμένες 1
επίλυση 1
σπάσει 1
τσεν@@ 1
ա@@ 1
βρουν 1
διασχίζει 1
εσωτερ@@ 1
μεταφέρουν 1
μπελ 1
τελευταίων 1
τόμους 1
Ρώσος 1
Τραγ@@ 1
ένων 1
αξιολόγηση 1
γλω@@ 1
ραγωγ@@ 1
σήμ@@ 1
συμμε@@ 1
χρόνως 1
Entertainment 0.475693573516584
ani 0.17860411023773762
Καντ@@ 1
Πίσ@@ 1
Ωκεανό 1
διαμορφω@@ 1
ημισ@@ 1
χαν 1
όπεδ@@ 1
Μοναστήρι 1
εκδότης 1
ιατρός 1
ινγκραντ 1
κέρδη 1
καθαρό 1
ρεψαν 1
χωρήσουν 1
ανς 1
ινε 1
ροφ 1
συμπλήρω@@ 1
υρός 1
Άμ@@ 1
Κολέγιο 1
Φιλελεύθερ@@ 1
αθλήματα 1
αρνητικά 1
κατηγόρησε 1
οποιός 1
s.@@ 1
Γέφ@@ 1
αποσπάσματα 1
πάγκο 1
ροντας 1
συμφώνησαν 1
τικώς 1
ā@@ 0.2615350367724122
Αιγυπτι@@ 1
Αμπελ@@ 1
Ρουμαν@@ 1
Σκωτσέζ@@ 1
Σώματος 1
αναπαράσταση 1
επικεντρώνεται 1
ζάχαρ@@ 1
λένε 1
ολόγιο 1
τύχ@@ 1
1.0@@ 1
Αθλητικός 1
Ιερό 1
Πόλ@@ 1
Ρομά 1
Σουλτάν 1
έγκυ@@ 1
ίστ 1
φρέ@@ 1
El 0.02502307110764692
Γερμανικό 1
Κράτος 1
Λίβερπουλ 1
Μητροπολίτη 1
Φ. 1
ανατέθηκε 1
αντίστοιχες 1
βαρυ@@ 1
ερμήνευσε 1
ετού 1
ολο 1
ψεως 1
όμετρα 1
30.000 1
Google 0.828119874824366
Στράβ@@ 1
Τσί@@ 1
διαμάχες 1
εγκα@@ 1
καρδιακή 1
κύματος 1
σκάνδ@@ 1
τρίτου 1
φραγ@@ 1
ύλια 1
Τζούν@@ 1
έος 1
αέρια 1
απόγευμα 1
ορκίστηκε 1
πλάκες 1
συνθέτες 1
χρησιμ@@ 1
350 0.9334502239700555
Αβρα@@ 1
Θω@@ 1
Καλαβρύτων 1
Σέρβων 1
Φρί@@ 1
δεν@@ 1
καταφύγ@@ 1
λευκά 1
μάρκ@@ 1
μίλ@@ 1
νήσου 1
ρίσουν 1
ψηφοφορίας 1
όγκος 1
όποι 1
As@@ 0.15237241353816264
Συρακ@@ 1
ανώτερη 1
σιου 1
στού@@ 1
τάγμα 1
φιλοξένησε 1
ca 0.17438107500393224
de@@ 0.060527729704979806
Κοσσυφοπεδίου 1
Τορίνο 1
Τρίπολης 1
αγωγική 1
πούς 1
ράμματα 1
σημαντικότερη 1
στό@@ 1
συμμετέχοντας 1
συνοδ@@ 1
φορέας 1
Κλαρ@@ 1
Πατριαρχείου 1
αστερισμό 1
γωνο 1
ρωσικής 1
φορέα 1
Mor@@ 0.13897643377489804
Πικ@@ 1
αποτελεσμάτων 1
αρχικού 1
αυτόνομη 1
εβραϊκή 1
κοπέλα 1
μοντέρν@@ 1
νακ@@ 1
ομπ 1
περνούσε 1
υπόλοι@@ 1
Λουκά 1
Πρωταθλήτρια 1
δηλώνουν 1
δώρο 1
καλλιέργ@@ 1
ληψη 1
περίεργ@@ 1
13,@@ 1
Charles 0.12216143494049776
έπεισε 1
έρευ@@ 1
αντίθετη 1
δισεκατο@@ 1
οδεύ@@ 1
αδελφής 1
αποκαλύπτει 1
δραπετεύ@@ 1
ιστι@@ 1
τηλεφων@@ 1
υπουργείο 1
Po@@ 0.1933042337349977
Κρυ@@ 1
ηγεμόνας 1
κριτικός 1
κτηνο@@ 1
νοντας 1
τολών 1
υποστήριξαν 1
6ου 1
Ατλαν@@ 1
Μικρασι@@ 1
Ορλεάνης 1
διέσχ@@ 1
επαγγελματίες 1
ευμένος 1
μελη@@ 1
ξεπέρασε 1
στέρ@@ 1
Σχεδόν 1
κτήσεις 1
κόστους 1
ντά@@ 1
σκέψης 1
φαίνονται 1
q 0.3727556529320444
Διεθνείς 1
Ελευ@@ 1
Πτολεμαίος 1
κύρι@@ 1
νύμφ@@ 1
σωστά 1
υποστηρικτής 1
φιλικό 1
χιο 1
αγωνιστής 1
γερμανικού 1
γμα 1
ενώθηκε 1
ισσες 1
μπρο@@ 1
bit 0.5852954717292885
Πάλ@@ 1
αμος 1
ασμάτων 1
γεωγραφικά 1
δων@@ 1
κολλο 1
πενήντα 1
τίθενται 1
ity 0.06926460539436455
Άγγλους 1
Άκ@@ 1
Προηγ@@ 1
άρτη 1
επιστρέψουν 1
ευτικών 1
οπρεπ@@ 1
πάγου 1
πυροβόλα 1
ϊν 1
Ιμπραήμ 1
Κόριν@@ 1
Λάζ@@ 1
αναπνευ@@ 1
αντίγραφα 1
θετικό 1
θρησκευτικών 1
ταυτίζεται 1
υπάλληλος 1
χθούν 1
12.@@ 0.8653466629902417
San 0.06850455460461727
Αιγαίο 1
Διεξ@@ 1
ακτινοβολίας 1
αναγεν@@ 1
γκαν@@ 1
εργαλείο 1
θεότητα 1
μεσο@@ 1
ναρκωτικών 1
ομορφιά 1
παικτών 1
τέταρτος 1
im@@ 0.06504272394582362
Ζοζ@@ 1
Καρλομάγ@@ 1
Παραδείγματα 1
αλίας 1
σσεξ 1
τσερ 1
Διον@@ 1
Σκύ@@ 1
ίκου 1
αδελφών 1
ανίχν@@ 1
γειτονική 1
εξάπλωση 1
εργάζονται 1
μπερ 1
τσών 1
ύρους 1
Δαβίδ 1
Μεδίκων 1
Οξι@@ 1
Στεφάνου 1
ανώτερο 1
κατατάχθηκε 1
λλος 1
μετείχαν 1
ναρκ@@ 1
ούντ@@ 1
ση@@ 1
τραγουδι@@ 1
Young 0.3320795628676991
op@@ 0.08612924068422675
Βρανδεμβούργου 1
Ρεθύμνου 1
ΣΔ 1
ήρωες 1
πετυχ@@ 1
ύποπ@@ 1
11.@@ 0.7701958799656826
Sp@@ 0.17424788256621745
Ασφαλείας 1
Κάρλος 1
έγραψαν 1
έδιο 1
βλεπε 1
δημοτικότητα 1
δώρα 1
επεμβ@@ 1
ιδα 1
μεσολάβ@@ 1
σκηνοθέ@@ 1
τοποθετηθεί 1
τριγ@@ 1
γίν@@ 1
επισκοπής 1
ετήσι@@ 1
κριν@@ 1
περιόδευ@@ 1
τακτικό 1
τυχόν 1
Βαλέν@@ 1
Κομμουνιστικού 1
Πράσιν@@ 1
ηλεκτρικής 1
λευκή 1
μεικ@@ 1
νικήσει 1
πραξικοπ@@ 1
προκύπτουν 1
συνέν@@ 1
όφωνα 1
Royal 0.1405470278575297
ma 0.12592582415512332
Όπερ@@ 1
Μέσης 1
Ορθόδοξης 1
άγονταν 1
έρωτα 1
ίρι 1
αρχιεπίσκοπος 1
επαναπ@@ 1
κυρίαρχη 1
παραθαλάσ@@ 1
τίζουν 1
ώνησε 1
γνωστούς 1
ολιθική 1
Red 0.21769712421343812
αποτελέσ@@ 1
αρχαίες 1
μαρτυρία 1
μοντέλων 1
πυρήνας 1
σκληρά 1
υσμα 1
χαμηλά 1
1824 1
land 0.06004282704579417
δ. 1
εγγεγραμ@@ 1
ηνή 1
καταδίκα@@ 1
μιος 1
προκλ@@ 1
χαρτί 1
ωτικών 1
όχημα 1
Εκλογές 1
ανάδ@@ 1
επισκεπ@@ 1
ζώο 1
οπτικά 1
πρόσωπ@@ 1
συμπί@@ 1
συνωμ@@ 1
ωτικές 1
± 1
Αεροπορία 1
Κόσμου 1
αμερικανικού 1
διαταρα@@ 1
διενεργ@@ 1
ευρωπαϊκής 1
θλι@@ 1
συντήρηση 1
τιού 1
Εκλ@@ 1
Καποδίστρια 1
Κινηματο@@ 1
Ντον@@ 1
αναγνωρίζεται 1
ανακοίν@@ 1
βαείο 1
διεκδίκ@@ 1
λάν 1
πεποίθηση 1
σκότ@@ 1
υπολοχαγ@@ 1
Γκότ@@ 1
Κοινοβουλευτική 1
ήγγειλε 1
ματο 1
ορο 1
σήραγ@@ 1
ons 0.07075566335600493
Καρδι@@ 1
Λαρ@@ 1
Νάξου 1
Σχεδ@@ 1
ανιψιός 1
αξιών 1
βάλλονται 1
κεφάλαια 1
λόγοι 1
μπουν 1
παραδο@@ 1
συμπαγ@@ 1
συχνές 1
ότσαρ@@ 1
9η 1
Μπράουν@@ 1
Πατριαρχείο 1
Παύλο 1
Προϊ@@ 1
Ροσ@@ 1
αρμογ@@ 1
αρχαιολογικά 1
κατορ@@ 1
μαστε 1
προδοσία 1
προσωνύμιο 1
τελετές 1
υποστηρίζοντας 1
επιδιώκ@@ 1
οδυ@@ 1
περιφέρεται 1
ai 0.11931734234055101
Πρι 1
Ράιχ 1
ίσης 1
διατροφή 1
καθηγητές 1
κινηματογραφικές 1
ρότητα 1
φόρους 1
Γερουσίας 1
Κομμουνιστικό 1
Σάμ@@ 1
Χώρες 1
άντε@@ 1
αποσπάστηκε 1
επιστημονικές 1
ιτσα 1
κάστρα 1
κατέγραψε 1
μιμ@@ 1
μυθιστορ@@ 1
ναοί 1
οστού 1
οφόρος 1
πεθαίνει 1
ρεσης 1
τορική 1
τούρα 1
10η 1
Αντου@@ 1
Ελένης 1
Κλίμα 1
Οκτα@@ 1
ανές 1
ελάχιστες 1
εμπειρίες 1
οτέχ@@ 1
τοις 1
codice 0.871309056738908
Αναστ@@ 1
άγουν 1
απαιτούν 1
παρεκκλήσι 1
πετυχαίνοντας 1
πολιόρκ@@ 1
χειρόγραφο 1
Γιοχ@@ 1
Κλι@@ 1
Λακωνίας 1
αστέρι 1
ημερομ@@ 1
μουσείου 1
οφείλει 1
ταμ 1
τοίχους 1
τροχιάς 1
χτισμένη 1
χώρ@@ 1
όμορφο 1
age 0.038295358566329304
Νο 1
αξιωματικοί 1
δημόσιας 1
εκείνον 1
ημένους 1
ισχυρά 1
κινέζ@@ 1
ογράφο 1
ούδας 1
τρισ@@ 1
Κοπεγχ@@ 1
Ναβάρ@@ 1
άρρ@@ 1
έθνους 1
δίδει 1
εκλέχτηκε 1
εξυπηρετεί 1
κτηρίου 1
λευθέρων 1
μέταλλο 1
μύθος 1
πριοι 1
φύλλ@@ 1
ϊκά 1
40@@ 0.7733847249247298
Ακολούθως 1
άρες 1
αρμό@@ 1
γες 1
δωρ@@ 1
λωρίδα 1
μάτι@@ 1
ψεύ@@ 1
όκου 1
Ρώσους 1
Σιδ@@ 1
Ταλ@@ 1
δόσεις 1
οφόρους 1
ραση 1
ότοπο 1
Πελοπον@@ 1
αρχηγούς 1
ιός 1
κρύβ@@ 1
μελετη@@ 1
μουσεία 1
χαμηλότερο 1
Μυτιλή@@ 1
αθούν 1
απέκλει@@ 1
γυρισ@@ 1
μονάχα 1
νοή 1
ορχήστρας 1
προσβά@@ 1
συντρόφ@@ 1
φτιαγ@@ 1
1829 1
to@@ 0.10350544442800973
Κλαύ@@ 1
Μέγαρο 1
Νεο@@ 1
Φλάνδρας 1
Φραγκίσ@@ 1
ανακαλύφθηκαν 1
αποκτήθηκε 1
εθνικός 1
κιθαρ@@ 1
τέταρ@@ 1
τρίτης 1
φάρ@@ 1
φυλών 1
ωρο 1
Καφ@@ 1
άθεια 1
αυστηρά 1
γενέτ@@ 1
γυμν@@ 1
ερμαν@@ 1
θίασ@@ 1
ιζόμενη 1
μπορέσει 1
προσβολή 1
ώγ@@ 1
Διοικητικές 1
Χριστόφ@@ 1
αρνείται 1
πλουσι@@ 1
πτηνά 1
συνασπισμού 1
συνοικίες 1
Κασσ@@ 1
Υπηρε@@ 1
ανακαίν@@ 1
διαδρα@@ 1
δωματ@@ 1
κοπο@@ 1
μικρούς 1
μοναστήρια 1
νήσο 1
σχημάτισε 1
ταχύτη@@ 1
Ντον 1
επιτρέψει 1
κομητ@@ 1
κονσ@@ 1
νηση 1
παρών 1
Pol@@ 0.1891491623988948
Ολοκα@@ 1
αμφιβολ@@ 1
γκλας 1
διάδρο@@ 1
εκσυγχρον@@ 1
οκ 1
πούδ@@ 1
όρε 1
Κόλπο 1
έλλας 1
ανακαλύπτει 1
αντιπροσώπ@@ 1
μακρό@@ 1
συνταγματ@@ 1
τασή 1
τικ 1
χορού 1
Αθανασίου 1
Ατλαντικό 1
Γυμναστήριο 1
Ιατρικής 1
αρθρ@@ 1
γλυπτά 1
δικαιολογ@@ 1
ελάχ@@ 1
κλείσει 1
κλειδί 1
κρίσεις 1
πέραν 1
συγγέν@@ 1
Εκλογ@@ 1
Ουαλίας 1
Ωδείο 1
ίλα@@ 1
αμέ@@ 1
αρωματ@@ 1
ελληνικός 1
παππούς 1
παραλίες 1
πλάι 1
πρόσοψη 1
σιλ@@ 1
χάρτες 1
Δημιουργήθηκε 1
Νικολάι 1
απαιτούσε 1
κοινοβουλίου 1
λαίου 1
παγι@@ 1
παρακμή 1
ταλ 1
τοφ 1
Θρησκευ@@ 1
Οργάνωση 1
αυτοκινήτου 1
λατρείας 1
πάλης 1
περιουσίας 1
προω@@ 1
ριων 1
Λίγα 1
Μαδρίτη 1
Πύργου 1
Σαου@@ 1
αρραβωνι@@ 1
δελφ@@ 1
εμφανίζουν 1
ολντ 1
τομέας 1
Μεσοπο@@ 1
βυζαντινής 1
ειρας 1
ισοπ@@ 1
κιβώ@@ 1
κομητείας 1
ραλ@@ 1
τεράστι@@ 1
ύστερ@@ 1
office 0.1730972785315425
Καραϊβ@@ 1
έντομα 1
αποκτήσουν 1
κήπο 1
παράθυρα 1
ώνυμος 1
AL@@ 0.655685412587578
Ουέ@@ 1
αυτοκρατορική 1
ισμένους 1
λεβ@@ 1
προαναφερ@@ 1
Ιον@@ 1
ίκευση 1
αρκετή 1
εβδομαδια@@ 1
εμπλ@@ 1
ηχογράφησε 1
τούν@@ 1
όβου 1
Cl@@ 0.2980459424284143
Τανζ@@ 1
δεκαν@@ 1
διωγ@@ 1
διώξεις 1
καθεδρικό 1
μετε@@ 1
οποιημένη 1
σουλτάνου 1
χαμηλές 1
ωτο 1
1856 0.7368630831739553
é 0.03268115182801097
Βίος 1
αδύνατο 1
ανθεκ@@ 1
ελάχιστο 1
θετε 1
χαιρε@@ 1
Τζο 1
έπαυ@@ 1
ίκες 1
ετέρου 1
τάξει 1
τελικής 1
χρήσ@@ 1
140 0.9104162298017326
ro@@ 0.0818519396399316
Ελληνικών 1
Ιάκωβ@@ 1
Μέσω 1
αυτονομ@@ 1
βαθμός 1
βαθμών 1
κοινωνι@@ 1
ποτάμια 1
τζού@@ 1
όσιο 1
Βυρτεμβέργης 1
έθιμα 1
ακατοίκ@@ 1
αποκλεισμό 1
διπλή 1
Μπράιαν 1
Χριστιανός 1
ζωγράφισε 1
θαυμ@@ 1
περιστασιακά 1
συνεχίζεται 1
Γκίλ@@ 1
Ποσειδώνα 1
Χαϊδελβ@@ 1
αντικατοπτ@@ 1
αραβική 1
διασπο@@ 1
δύσκολ@@ 1
πόντοι 1
ρεν@@ 1
στάλ@@ 1
συνεχίζουν 1
Ἀ@@ 1
Maria 0.22748978876477735
Marvel 1
ΕΜ@@ 1
Ειρηνικού 1
Εκστρατ@@ 1
Κρού@@ 1
Παπαδόπουλος 1
Τέχ@@ 1
Φασ@@ 1
δικτατορίας 1
κιλ@@ 1
σταδίου 1
σύγχρονων 1
φαράγ@@ 1
όπους 1
ve 0.030184130115538988
Ανεξαρτη@@ 1
Δίκαιο 1
βουλευτή 1
κινήματα 1
προηγούμενης 1
σαράντα 1
1854 0.7669203111343766
Εμπορίου 1
Λεγε@@ 1
Λον@@ 1
ΝΑ. 1
Τόνι 1
κρίνεται 1
μπαν 1
ούμενων 1
πέδιο 1
τετράγ@@ 1
τετράγωνο 1
Ποδ@@ 1
έστ 1
ακτι@@ 1
εζ 1
ειδικών 1
ζήτηση 1
κολύμβ@@ 1
ρόπολης 1
συνεργάζεται 1
φωτι@@ 1
ψί@@ 1
Αυτοκρά@@ 1
εξωτερικών 1
ημιτελικούς 1
οικογενειακό 1
οπτικές 1
προκατ@@ 1
σμπαχ 1
στροφές 1
Περίοδος 1
εμπιστ@@ 1
λεηλατ@@ 1
πληροφ@@ 1
ριζοσπ@@ 1
στικότητα 1
συνεχίστηκαν 1
τελευταίοι 1
Na@@ 0.47498213255573374
Λασιθίου 1
Πάφου 1
Παναγιώτη 1
Χαρακτηριστικό 1
αγωνίστηκαν 1
δημιουργούνται 1
θεύ@@ 1
λιμάνια 1
μηχανικής 1
οτροφ@@ 1
σοβαρό 1
τοποθέτησε 1
ώτου 1
Βενεζου@@ 1
ΙΔ 1
Καρλότ@@ 1
Κυρ@@ 1
Ορχή@@ 1
διάν@@ 1
ικανός 1
μουντ 1
οδική 1
πήγαν 1
τσί@@ 1
Έβρου 1
Μπρους 1
δέκατη 1
εύσεων 1
λειτουργικό 1
συγκεκριμένου 1
συμβούλ@@ 1
160 0.8876239557676647
200@@ 0.9327691845318263
Αλφόνσος 1
Διονύσιος 1
αράς 1
ημα@@ 1
κεφ@@ 1
παίρνουν 1
παρούσα 1
ποσο@@ 1
σίδ@@ 1
τεχνοτροπ@@ 1
1859 0.6683006904106145
Κομοτη@@ 1
Τσέχ@@ 1
απομακρυσ@@ 1
νάτριο 1
νησης 1
οδοι 1
πρόσφ@@ 1
Αρχηγός 1
Λευκορωσίας 1
απόσυρ@@ 1
εισι@@ 1
ζήτησης 1
λυκ@@ 1
τείνεται 1
Ξεκ@@ 1
ΡΙΖ@@ 1
ακιν@@ 1
γειτονικές 1
στός 1
Αργυ@@ 1
Ροδόλ@@ 1
Ρούν@@ 1
αιμορ@@ 1
αποτελείτο 1
διασκευή 1
καθιέρωσε 1
μερική 1
ρίχν@@ 1
σιμος 1
σωζ@@ 1
τελειώσει 1
υνθεί 1
ύλακα 1
.gr 1
7,@@ 0.7517124430911479
ist 0.011936076093799267
Πάολο 1
Παρκ 1
Τ. 1
αγωνιστικής 1
ανω@@ 1
γηπέδου 1
εκπαιδεύ@@ 1
λύσεις 1
μάρμαρ@@ 1
υποδοχή 1
ωμένους 1
όγων 1
Αμερικανό 1
Τορόντο 1
ακόλουθο 1
αποζημ@@ 1
γουεϊ 1
διατελέσει 1
εγκαταλείφθηκε 1
επίβλεψη 1
ράν@@ 1
συναντήσεις 1
σχήματα 1
1844 0.9340582679476355
Αρχιεπίσκοπος 1
Λένιν 1
Νοβ@@ 1
Τσα@@ 1
αρίθμ@@ 1
ζευγάρια 1
καρκίνου 1
μετεω@@ 1
ογραμ@@ 1
οπαί@@ 1
τριχ 1
ωμένης 1
ώδ@@ 1
450 1
Night 0.4810665645714985
Ιατρική 1
αγοράσει 1
αναδεικνύ@@ 1
αυτόματα 1
γεγονότος 1
διεξάγονται 1
νίκησαν 1
προδιαγραφ@@ 1
τωσης 1
Παρατηρ@@ 1
αποχωρήσει 1
εντάχθηκαν 1
κατείχαν 1
ραδιόφωνο 1
τίτ@@ 1
em 0.12639965490051974
ανταρ@@ 1
εβδ@@ 1
επιθυμούσε 1
ιδιο@@ 1
πλατφόρ@@ 1
Αστέρας 1
Ορισμένα 1
Χριστου@@ 1
έπαθ@@ 1
αποτελώντας 1
βικ 1
εκδόθηκαν 1
κορυφαίος 1
μέλους 1
ορντ 1
σορ@@ 1
συνεχής 1
Κρου@@ 1
ιδρύθηκαν 1
κτήματα 1
λαιμό 1
λυφ@@ 1
πουλήσει 1
ριον 1
τοῦ 1
χορο@@ 1
35@@ 0.8007822940183502
Ελληνοκύ@@ 1
Μελε@@ 1
ίνγκ 1
βλάβ@@ 1
διάφορων 1
δρου 1
δόξ@@ 1
επιχείρησε 1
ητού 1
θέτουν 1
οπαδών 1
συνωμοσία 1
Εκλογική 1
Νεά@@ 1
άνοδος 1
βασίλεια 1
εξέλιξης 1
κατηγοριών 1
μάζει 1
μετατραπεί 1
σιακή 1
υπηκοότητα 1
υποβιβασ@@ 1
Μπαχ@@ 1
βαλκαν@@ 1
γέφυρας 1
γεωμετρία 1
δέκα@@ 1
μετακίνηση 1
ύνεται 1
AC 0.36847765487138184
ak@@ 0.09247709201471396
Γεωργι@@ 1
Μέσ@@ 1
απόφοι@@ 1
γρήγορη 1
δέχθηκαν 1
δισκογραφικής 1
εκπροσώπ@@ 1
μετρήσεις 1
μόνιμο 1
ύκλ@@ 1
Apple 0.7775317842124051
Αλί 1
Γερμανικά 1
Δεύτερ@@ 1
Μπουν@@ 1
Προσω@@ 1
βασιλέα 1
γέννησε 1
δεσμό 1
κρατικό 1
πτήσης 1
πυρκαγι@@ 1
όδωρος 1
eg@@ 0.10229129475300747
Αυστροουγγαρ@@ 1
Σαπ@@ 1
Τίτλοι 1
άδου 1
ίδιους 1
ακτής 1
βραχώ@@ 1
διακόπηκε 1
κατάγ@@ 1
ουλφ 1
οφειλ@@ 1
σύγχρονου 1
me 0.0909860380800619
po@@ 0.08358665854185088
Λάρνακας 1
αιγίδα 1
ακτίνα 1
αυτοκινητ@@ 1
δώ@@ 1
μιών 1
μυκη@@ 1
οτε 1
προοπτική 1
συνέγραψε 1
co 0.08618343109137272
Έκθεση 1
Αλέξιος 1
Πνεύ@@ 1
άξονες 1
λιοντ@@ 1
νατρίου 1
ογραφικές 1
στρατιωτικού 1
τούμενη 1
υπηρετήσει 1
υπολείμματα 1
όργαν@@ 1
ea 0.18777668901840455
Ανάκ@@ 1
αγίου 1
αντρών 1
ασφάλ@@ 1
βαλντ 1
ρωμαϊκό 1
σμπεργκ 1
Ber@@ 0.12011554243087769
αναπτύσσονται 1
θεωρείτο 1
τούργ@@ 1
υποβιβασμό 1
φύλλο 1
άζα 1
άνευ 1
ίνους 1
δωσε 1
ηθοποι@@ 1
χαϊμ 1
χιλ@@ 1
ωδών 1
ans 0.044738189668754105
Αλίκη 1
Βυζαντινούς 1
ήρου 1
αντιστοιχούν 1
απόλυτα 1
εμφυλίου 1
ιάνα 1
ιανή 1
μαγειρ@@ 1
μεγάλοι 1
σιτς 1
Game 0.40655114163672645
Δήμη@@ 1
Θεσ@@ 1
Κλασ@@ 1
Σταθμ@@ 1
άστι@@ 1
ανεγέρθηκε 1
ενθάρρ@@ 1
θεών 1
σπορ 1
στι 1
έιλ 1
αναπαραστ@@ 1
γνά@@ 1
διάσταση 1
κήρυξη 1
κλα 1
πικ@@ 1
πινακ@@ 1
σχέσης 1
υποτιθέ@@ 1
όμη 1
κυμαίν@@ 1
τραμ 1
υπερβολικά 1
1814 0.9110967219661338
Pe@@ 0.21886320065776513
Κόλπου 1
Ομόν@@ 1
ήποτε 1
αναγνωρίσει 1
αποτελέσει 1
αύρου 1
μβούργου 1
νησίδα 1
ξαφνικά 1
πειθ@@ 1
προκαλέσουν 1
ρίθηκε 1
όκαστρο 1
Αστέρα 1
Γαρ@@ 1
άρνηση 1
αλλαγών 1
εκλογικές 1
εκτικά 1
επιβεβαί@@ 1
ηρία 1
καστ 1
περάσουν 1
φιναλίστ 1
όροφο 1
ύνουν 1
q@@ 0.2839781111994801
αίτια 1
δημοτικές 1
εκείνου 1
ηματικό 1
ιππικό 1
νόσο 1
περιστροφή 1
σταθεί 1
στρες 1
τοκύ@@ 1
Αντιόχειας 1
ζητούσε 1
πόλε@@ 1
τομο 1
φίλη 1
ig@@ 0.09796811592496155
Αφροδίτη 1
Λέγεται 1
Μοσχ@@ 1
ανταρτών 1
αντιληπτ@@ 1
εμβολι@@ 1
επίθετο 1
ιδιοκτήτες 1
καλυφθεί 1
ρικοί 1
όνγκ 1
Αλλαγ@@ 1
ΙΙΙ 1
ενέπ@@ 1
νότιες 1
ορει@@ 1
ούται 1
περιελάμβαναν 1
συνταγματάρχη 1
τέρων 1
φαινομεν@@ 1
χρέη 1
ωτικής 1
όμησης 1
IS@@ 0.4432641535017921
lo@@ 0.08157043488350052
Βαθμολογία 1
Ευσ@@ 1
Κεφαλλ@@ 1
Σελήνη 1
αγωνιζόμενος 1
αποδο@@ 1
απορρίφθηκε 1
εξώ@@ 1
καταδικα@@ 1
προάστιο 1
προσπαθούσε 1
πρόοδο 1
σκου@@ 1
ὸν 1
Άρθουρ 1
Πληροφ@@ 1
ίντα 1
εκπέμπει 1
θέντες 1
θεατρικές 1
λας 1
λεγόμενα 1
νομή 1
ονότι 1
4ος 1
ant 0.0391056107325529
Αρχή 1
Ηνω@@ 1
Θεοδω@@ 1
διατηρηθεί 1
διατρ@@ 1
λαούς 1
νευσε 1
οκράτες 1
παρέμενε 1
George 0.10822137675972889
Αστρονομ@@ 1
Επιστημον@@ 1
Πύ@@ 1
Τρία 1
Χαβά@@ 1
αθλητών 1
ακτών 1
ανση 1
αντιπάλου 1
δέσμ@@ 1
δεσμευ@@ 1
μοστεί 1
συγχέεται 1
τάφοι 1
ευθύ@@ 1
θεούς 1
καταγράφει 1
συγκεκριμένης 1
συντάγματος 1
τεστ 1
υπέβαλε 1
Παλι@@ 1
ήμισυ 1
διαθήκη 1
διαμέ@@ 1
δύν@@ 1
εορτή 1
επηρεάστηκε 1
εποχές 1
ιστού 1
κυρίαρχ@@ 1
μενοι 1
σκληρό 1
υπέρο@@ 1
District 0.10510735551019407
αγγλικό 1
προσαρμογή 1
τημ@@ 1
12ου 1
Bal@@ 0.16502686697811247
Ιλι@@ 1
Μαντόνα 1
Τυρ@@ 1
ακαδημίες 1
αποστολ@@ 1
θία 1
νορβηγ@@ 1
πλοκές 1
τυφ@@ 1
υφιστ@@ 1
υψηλότερα 1
χωρεί 1
1820 0.6987312650042629
NO@@ 0.7298874211801886
Βιβλιοθήκης 1
Λαϊκής 1
Περίοδο 1
εγι@@ 1
κορυφαίους 1
κυαν@@ 1
λιμαν@@ 1
ολίνι 1
στρέμματα 1
Αλβέρτος 1
Αρα@@ 1
γάμους 1
ηθοποιοί 1
καθαρή 1
κατέληξαν 1
παραγωγό 1
Τρέ@@ 1
Τσερ@@ 1
άλματος 1
εξορίστηκε 1
επίσημος 1
ούρων 1
παιδικά 1
προβλήματος 1
στήθος 1
τίας 1
Award 0.14558944953835273
Αντιόχεια 1
Πρόσφ@@ 1
Πύλου 1
αποδίδει 1
βιχ 1
δή 1
εναρ@@ 1
κέρματα 1
καταλυ@@ 1
ομηχαν@@ 1
πολεμικών 1
χώρισαν 1
όφελος 1
ώτρια 1
Αρχαίας 1
Δόξα 1
έστη 1
καντ@@ 1
οπρ@@ 1
πάσα 1
προκριματικά 1
τρόφ@@ 1
τυπα 1
Μίσ@@ 1
Ναμ@@ 1
εκπροσώπησε 1
τιμωρία 1
τουάζ 1
τούρκ@@ 1
Αναστά@@ 1
Ρόδο 1
Φιλίπ@@ 1
αμπελ@@ 1
ανθρώπινου 1
βλε@@ 1
γκαρ 1
εών 1
σιδηρ@@ 1
σχεδιαστεί 1
φτάσουν 1
Νότου 1
έγονται 1
μιλούν 1
προσπάθειά 1
τιλι@@ 1
χρωμάτων 1
ύμνος 1
ner 0.09239513519388746
Άλαν 1
Άνοι@@ 1
Κατερίνα 1
Συνασπ@@ 1
Τ.@@ 1
άδελφ@@ 1
έστης 1
ίδεται 1
ερο 1
θεσπ@@ 1
στέ@@ 1
Βούλγαροι 1
Εργασίας 1
Ουρουγου@@ 1
έντ 1
γειτονικό 1
εκβολές 1
μηχανικό 1
ψήφισε 1
den 0.007887614078412488
Βυζαντίου 1
Θωμά 1
Υπήρχαν 1
εγκαταλεί@@ 1
εμπορευ@@ 1
επιτυχημένο 1
καρν@@ 1
λεπτών 1
προκρί@@ 1
συνέδε@@ 1
υπόβαθρο 1
όσι 1
ανανέ@@ 1
αντικατασταθεί 1
αντιμετώπιζε 1
ανώτατο 1
ενηλικ@@ 1
ιδεολογία 1
λεηλ@@ 1
συλ@@ 1
und 0.0033845967484344773
Δημοκρατική 1
Δρυ@@ 1
Εσπερ@@ 1
Μάρκ@@ 1
Μπεν 1
Νίκαια 1
εγκεφάλου 1
ζων@@ 1
κυρίου 1
μετάλλων 1
μιρά@@ 1
οκρατία 1
συγκρούσεων 1
σύγχρονοι 1
ΐας 1
Γυνα@@ 1
ανου@@ 1
διανυσ@@ 1
νασσ@@ 1
πτυχές 1
τεινε 1
υστερ@@ 1
Αραγ@@ 1
ΒΔ. 1
απλού@@ 1
βοήθησαν 1
κοιλάδας 1
μηχανισμός 1
μιούζικαλ 1
μπουλ@@ 1
ολοένα 1
ομή@@ 1
ουλεύ@@ 1
όδοξ@@ 1
ότσ@@ 1
Εκπαίδευσης 1
αστικ@@ 1
βαρύ 1
επιταχ@@ 1
κλείσιμο 1
ουγ@@ 1
σιέ 1
συμμετάσχουν 1
όλεως 1
Παί@@ 1
Ση@@ 1
ανοικτό 1
ιδεών 1
κόρυφ@@ 1
μερικών 1
οχημάτων 1
παραγόντων 1
προξεν@@ 1
1832 0.9246517412376658
Αντρέ 1
Σικελι@@ 1
Σφαίρα 1
άρους 1
έρον@@ 1
ακα 1
εισβολ@@ 1
επόμενους 1
ιδιωτικά 1
μεσολαβ@@ 1
περίφημο 1
Βασιλικού 1
Πιν@@ 1
Χάρβαρντ 1
Χριστίνα 1
αρος 1
βλέποντας 1
ευτούν 1
ζωγράφο 1
μακρύ 1
οικογένειάς 1
προϋπολογισμό 1
σκοτώνει 1
συνηθισμένο 1
ak 0.12383098780734658
Καρολίνα 1
Πρωταθλ@@ 1
Φλωρεντίας 1
άλγεβ@@ 1
άσπρο 1
αλληλουχ@@ 1
ασταθ@@ 1
δέχονται 1
δέχτηκαν 1
δευτεροβάθ@@ 1
διοικητικής 1
εκτελέστηκαν 1
ζώ@@ 1
παλιότερα 1
παρουσίαζε 1
ταχυ@@ 1
τρόμου 1
υγή 1
ὲ 1
AS@@ 0.33862278476660074
Αβί@@ 1
Χάρη 1
ίζας 1
ίσσεται 1
βιταμ@@ 1
διαζύγιο 1
ηλεγγύ@@ 1
οβάννι 1
οσο@@ 1
περιορίζεται 1
φτώχ@@ 1
χρηματοδότη@@ 1
5,@@ 0.6052465614502763
Διάσκ@@ 1
Ιατρ@@ 1
Κοκκιν@@ 1
Πύργο 1
άνεμ@@ 1
έσουν 1
ακτίνες 1
δυσαρ@@ 1
κορι@@ 1
λόφους 1
νεότερο 1
οκιν@@ 1
ρέφεται 1
ρακας 1
σήματα 1
χελ@@ 1
→ 1
Κανον@@ 1
Καντα@@ 1
Μεραρχία 1
άλατα 1
έφθ@@ 1
γνωρίσει 1
ιντεν 1
ξεκινούν 1
ριους 1
σχηματίσει 1
τουρ@@ 1
υπερβολική 1
Κουτσ@@ 1
Μικρασιατική 1
άλλαξαν 1
αντικαθ@@ 1
επικαλ@@ 1
ευθ@@ 1
καθορισ@@ 1
υπεράσπιση 1
χάου@@ 1
Λίγκα 1
Πόρτο 1
Σουδάν 1
επέστ@@ 1
εύματά 1
κυρίαρχο 1
μετρό 1
οειδές 1
ραξε 1
τούμεν@@ 1
8.000 1
Πρωταθλητριών 1
ίτζι 1
αποφευ@@ 1
γνωστού 1
γουελ 1
διώκ@@ 1
μεταφερ@@ 1
ολ 1
πρεσιον@@ 1
φέρνοντας 1
Κογκρέσο 1
Λαϊκού 1
απαλλ@@ 1
αυν@@ 1
δρας 1
εκπρόσωποι 1
λημα 1
πολιτιστικά 1
ταρά@@ 1
ότυπη 1
Αραβία 1
Ιακ@@ 1
Νοτίου 1
έφ 1
απόδ@@ 1
βασικών 1
ενδέχεται 1
ηύ@@ 1
θυμίζει 1
κινς 1
μόρ@@ 1
ούντ 1
συνάρτησης 1
ταχθεί 1
1851 0.7564205770159474
Αχμέτ 1
Μεχμέτ 1
Νεβ@@ 1
έναρξης 1
αιώνων 1
ασβ@@ 1
εξελιχθεί 1
επινο@@ 1
κρυφ@@ 1
χαρακτηριστικών 1
όγον@@ 1
Βιβ@@ 1
Πορτογαλ@@ 1
Ρεν@@ 1
αξιωματικών 1
διαθέσιμη 1
εδρίας 1
λογικά 1
παλαί@@ 1
σταθμοί 1
τιτ@@ 1
χάλυ@@ 1
Best 0.19968947480303956
io 0.15250977745430147
Άγι@@ 1
Όρους 1
Γερμανού 1
Νίκολ@@ 1
άντρας 1
ανάγκα@@ 1
δόγμα 1
ερεθ@@ 1
ημάτισε 1
ιε 1
μεσαία 1
προερχόταν 1
πρόκληση 1
σίγουρα 1
σουμε 1
συναδέλφ@@ 1
re 0.07023344441887297
Δημοσι@@ 1
Δυτικό 1
Εκπαιδευ@@ 1
Ζάγκρεμπ 1
Παρότι 1
άλεια 1
απροσ@@ 1
δημοτικού 1
επαρχιών 1
πληθώρα 1
πλοιο 1
προετοι@@ 1
στεγάζεται 1
υνα@@ 1
Βρετάνης 1
Ρότζερ 1
αποφυγή 1
δεκαπέντε 1
ενεργή 1
τάφους 1
ταγμα 1
χρωμοσ@@ 1
116@@ 1
11η 1
Βίκινγκ 1
Ενα@@ 1
Νησ@@ 1
ακολουθούσαν 1
αναγνωρίζει 1
επίσ@@ 1
κατεβ@@ 1
ρακα 1
σύγκρουσης 1
τσος 1
6,@@ 0.7151991007314014
Is 0.48579058719048757
Γάλλου 1
Πλούταρ@@ 1
Σύνοδος 1
δείκτη 1
κοι@@ 1
λωσσ@@ 1
νικηφ@@ 1
παράσ@@ 1
τέα 1
τηρού@@ 1
50.000 1
Πέμπ@@ 1
Ραϋμόν@@ 1
Φρέν@@ 1
ανή@@ 1
απόπ@@ 1
δευτερότοκος 1
ετζ@@ 1
θανατ@@ 1
ναυτικού 1
οικογενειακή 1
οινικ@@ 1
Αναλυ@@ 1
Κριτική 1
Σάο 1
αποκτ@@ 1
βαμβ@@ 1
δους 1
εισέβαλαν 1
επέτειο 1
ευρε@@ 1
ημερολογ@@ 1
ινων 1
λάβ 1
πορείας 1
ρίτη 1
σημάδια 1
συνδέσεις 1
Μέλος 1
Στρατιά 1
ήσιος 1
διοικητικού 1
ενσωμάτωση 1
ναυμαχία 1
ναύτες 1
ομιλητές 1
περιγράφουν 1
σκου 1
συνολικής 1
a.gr 1
il 0.015046582847519568
Αθηνά 1
Κεφαλον@@ 1
Συνόδου 1
ευρεσι@@ 1
λέγονται 1
μόν 1
φύλα@@ 1
Εσθονία 1
Πιστεύεται 1
ήγμα 1
αναφέρ@@ 1
θελ@@ 1
στιν 1
ύρη 1
1843 0.9123928045117692
Ανρί 1
Κολλέγιο 1
Ντάνιελ 1
Χρονικά 1
έιτ 1
ίγια 1
εξεγέρ@@ 1
λοφ@@ 1
ουτσ@@ 1
παρασκευή 1
υγμα 1
Iron 0.8382287273975303
Μαύρη 1
άλω@@ 1
αποτρέψει 1
διαδρομής 1
δικα 1
είμαι 1
εδρα@@ 1
ημικ@@ 1
μολυσ@@ 1
ντόπιους 1
πίστης 1
περιορισμούς 1
πρόσφερε 1
συντριπτική 1
τοι@@ 1
υπαίθ@@ 1
φοιτητών 1
1,3 1
facto 1
Λουθηραν@@ 1
έθνη 1
αιο@@ 1
εκατ. 1
παράνομη 1
πλοί@@ 1
ραφτ 1
php 1
Κάποιες 1
Φραν@@ 1
έθιμο 1
εκφράζει 1
ενδοχ@@ 1
ευλογ@@ 1
μηχανισμό 1
νια 1
σκαλ@@ 1
τειχών 1
χωμα 1
Big 0.25793231475237444
era 0.04583027121745089
Βίλχελμ 1
Βιτ@@ 1
Νέβιλ 1
έκθεσης 1
ένος 1
αστικός 1
δέρματος 1
ειγμα 1
εισηγ@@ 1
εμπρός 1
ενώθηκαν 1
συγκέντρ@@ 1
ator 0.10363972068340085
box 0.42104941800892803
ΟΥ 1
Περιβάλλ@@ 1
θανατη@@ 1
μνης 1
ξιμο 1
πυκ@@ 1
όραμα 1
Έζ@@ 1
Αντωνίου 1
Ενόπλων 1
Νάσσαου 1
αποφάσεων 1
εκατ@@ 1
εκπληκ@@ 1
ενοικ@@ 1
κινητήρας 1
νομο@@ 1
ξής 1
οστοιχ@@ 1
Γιουρ@@ 1
Κιου@@ 1
Κοινοβουλευ@@ 1
Ρασ@@ 1
εκτέλεσης 1
εχθρό 1
θέρμανση 1
ισότητα 1
οποιονδήποτε 1
πραγματοποιούνται 1
σπονδυλ@@ 1
συντεταγμένες 1
τηθούν 1
τροφοδο@@ 1
όνομ@@ 1
ὸ 1
00@@ 0.616555448320243
Ver@@ 0.055560194418466415
co@@ 0.06300034145351331
Εφημερ@@ 1
Κοκ@@ 1
Χριστιανισμό 1
άθροισμα 1
αποτελεσματικότητα 1
γιαγιά 1
γύρου 1
διατε@@ 1
εκπροσωπού@@ 1
οπίσ@@ 1
συμπατρι@@ 1
1858 0.7041264054023699
Διαθήκη 1
Μίλαν 1
Σταμά@@ 1
Φρι@@ 1
διαδόχου 1
επιτάχ@@ 1
καπετ@@ 1
λυρ@@ 1
On 0.02862628568048945
Πέν@@ 1
ατομική 1
αφαιρε@@ 1
διαστη@@ 1
καθιέρωση 1
σταγ@@ 1
σχηματισμού 1
τεράστιες 1
ότης 1
Αλά@@ 1
Απόστολος 1
Γυναικείου 1
Μοί@@ 1
Τακ@@ 1
ήμερο 1
βληθεί 1
δίσουν 1
ησιμ@@ 1
κλάδους 1
παππού 1
πλούτο 1
πρόληψη 1
τρες 1
τρόπου 1
Πατέρας 1
άρθρωση 1
ασθένειας 1
γήπεδα 1
ογγ@@ 1
σεβασμό 1
υπογράφηκε 1
χάρισε 1
.Η 1
Δερ@@ 1
Περού 1
Σεπτέμβ@@ 1
αθλή@@ 1
απόγονος 1
ιππικού 1
κιθαρίστα 1
ούδι 1
παραπόταμ@@ 1
σιδηροδρομική 1
φιλοσόφ@@ 1
ik@@ 0.10292486736915082
Άργος 1
Βουλ@@ 1
Θανά@@ 1
Τώρα 1
Φον@@ 1
άτσο 1
αντίδρασης 1
απομνημον@@ 1
επικρι@@ 1
κτίσμα 1
υπαγόταν 1
ότυπος 1
Ήλιου 1
Ανταρκ@@ 1
Μάλτα 1
Φρανκ@@ 1
επαναλαμβ@@ 1
ερις 1
καταστροφής 1
κινούνται 1
κράτης 1
ξεπεράσει 1
τείχ@@ 1
υπερβολ@@ 1
ψιμο 1
ΕΑΜ 1
Πανιώνιο 1
Πολωνών 1
Στου@@ 1
ακτιν@@ 1
αλογον@@ 1
εμπλου@@ 1
εταιρίες 1
οίκου 1
οδών 1
πίσ@@ 1
συντήρ@@ 1
τανικά 1
όμερ@@ 1
met 0.14997439053200853
ri@@ 0.09626689096535027
Ασφάλ@@ 1
Σιλεσίας 1
Χόρ@@ 1
ανεπάρκεια 1
πτώ@@ 1
πόντων 1
συνειδητοποι@@ 1
Σταυρό 1
έμβριος 1
ανήλθε 1
αποβιβ@@ 1
προφαν@@ 1
πρόσβασης 1
πρόσθεσε 1
χαμηλού 1
1841 0.8736330280353353
1845 0.8026782303090108
Νεπ@@ 1
Παραδ@@ 1
Σάββατο 1
Χαλκιδικής 1
αινα 1
απέζ@@ 1
βουδι@@ 1
εισόδημα 1
ισθ@@ 1
κερδοσκοπ@@ 1
μετατρ@@ 1
μπιν@@ 1
συνέλαβε 1
συρ 1
τάνιο 1
υψηλότερες 1
ωρη 1
Pro@@ 0.13449190583563148
Πανεπιστημι@@ 1
εγώ 1
επιβολή 1
θεσμός 1
κατέστη 1
υποχώρηση 1
1827 1
Αλεξάνδρειας 1
Λιου@@ 1
Μαρίνα 1
άμπι 1
αναπαραγωγή 1
απόδοσης 1
αρθρο@@ 1
γράφτηκαν 1
γρήγορ@@ 1
λογοτεχνικό 1
ροντ 1
τσά 1
υποτίθεται 1
όντως 1
Τραγούδια 1
άουτ 1
ανάγ@@ 1
κολέγιο 1
πάθος 1
παριστ@@ 1
παρουσιάσει 1
πολογία 1
προστάτης 1
πρόβ@@ 1
συμπτω@@ 1
4,5 1
Αγαθ@@ 1
αθλητισμό 1
αξιωματούχους 1
διαγνω@@ 1
ερωτευ@@ 1
κύριους 1
πρεσβεία 1
υφορ@@ 1
Ίνγκ@@ 1
Γιάκ@@ 1
Μανώ@@ 1
Μεγάλος 1
Ρουσ@@ 1
άιλ@@ 1
αφορούσαν 1
ισόπ@@ 1
μεταφράσεις 1
μυστικό 1
οκρά@@ 1
περιήλθε 1
ρίνει 1
Ανωτά@@ 1
Μάλτας 1
Σαίξπηρ 1
Τζού@@ 1
ίρα 1
ανάλογη 1
επωφελ@@ 1
λες 1
ξαναπ@@ 1
ταση 1
Ford 0.41258299366154805
Άντον@@ 1
Βοεβοδ@@ 1
αγάπης 1
αλγεβ@@ 1
βάλουν 1
κειο 1
κοινώς 1
λεϋ 1
πρόσκληση 1
πυρά 1
τασ@@ 1
1823 1
Γούν@@ 1
Γρηγορίου 1
Εθνικ@@ 1
απαγ@@ 1
ασύ@@ 1
διασωθεί 1
δικαλι@@ 1
κιθ@@ 1
λίτρων 1
μειώνει 1
μπήκαν 1
Ολί@@ 1
Ωβέρ@@ 1
δορυφόρος 1
ενε@@ 1
ιταλ. 1
καλαθοσφαίριση 1
μαύρα 1
προγ@@ 1
ρήξη 1
σκαρ@@ 1
συνειδη@@ 1
Κρίστιαν 1
ΠΑ 1
ελίτ 1
νικητή 1
ορεινή 1
ποδοσφαιρικών 1
τομα 1
υποδυ@@ 1
υς 1
Αλέκ@@ 1
Κορίνθου 1
Ναύ@@ 1
εθνόσημο 1
ειων 1
εσωτερικών 1
κατασκεύ@@ 1
κληρο@@ 1
περνώντας 1
πλήρους 1
πνευμον@@ 1
προσδιορισμό 1
συλληφ@@ 1
σχερ@@ 1
Δημοτικού 1
Κυκλάδων 1
Προσωπ@@ 1
Ρογ@@ 1
Σπαν@@ 1
ένζυ@@ 1
έττα 1
αχουσ@@ 1
αύξησης 1
είδαν 1
εξήγηση 1
εξαφάνιση 1
εξουσι@@ 1
τημένη 1
LA 0.5911208102397428
Ανατολικού 1
Ρώσων 1
ΰ@@ 1
βάθμιση 1
βόρειες 1
κεντρο@@ 1
σιμων 1
τραγούδ@@ 1
όδοξη 1
ύρα 1
1812 0.7663485940013895
Άγγελ@@ 1
Αλφόν@@ 1
Ατρόμ@@ 1
Γιόζεφ 1
ίδρυσή 1
εμπορικών 1
εσωτερικής 1
ηνών 1
ναβ@@ 1
ξεχωρίζει 1
παρακολουθεί 1
προϋπολογ@@ 1
πυροβολικού 1
όλου@@ 1
Γιουγκοσλαβ@@ 1
Μορφ@@ 1
Φράνσις 1
Χίν@@ 1
αιτίες 1
είος 1
είσα 1
εκπομπών 1
καταστά@@ 1
κοβ@@ 1
τείες 1
τραγωδία 1
Film 0.11473708841668871
Πασάς 1
γκου 1
επιθεωρ@@ 1
επινό@@ 1
εσωτερικού 1
κοινές 1
νηστ@@ 1
ουσών 1
σπάνιο 1
στατ 1
συνθήκης 1
σύνα@@ 1
Δεσ@@ 1
Εκτελε@@ 1
Ιντι@@ 1
έπεσαν 1
ανακτήσει 1
αποτυχημένη 1
επιφάνειες 1
παραφ@@ 1
περιπλ@@ 1
ρωσης 1
ύγματα 1
Αμερικανοί 1
Ανώ@@ 1
Ελεονώρα 1
Μπρούν@@ 1
Πηγή 1
αραι@@ 1
διέφυγε 1
διαβί@@ 1
ενδημ@@ 1
κατοικίας 1
μετατρέπεται 1
μουσουλμάνοι 1
περίθαλ@@ 1
πραγματοποίησαν 1
προέβλεπε 1
Ιταλοί 1
Πύρ@@ 1
έμπνευση 1
αξ 1
γηγεν@@ 1
ενσωμά@@ 1
επιχειρησι@@ 1
λαγ@@ 1
λογοτέχ@@ 1
μυελ@@ 1
οποίον 1
σταθερότητα 1
τροπής 1
υπεύθυνο 1
φέρνει 1
Διεύθυν@@ 1
Μπομπ 1
Οδού 1
έχτισε 1
ίδραση 1
ακολούθως 1
ηρύ@@ 1
ιστικός 1
καλα 1
προϋποθέσεις 1
τουρκικού 1
υδρογον@@ 1
Λάι@@ 1
έδρια 1
αντίθετο 1
ατολογία 1
αφιερωμένος 1
εισιτήρια 1
μοιράζονται 1
μυστικά 1
ριό 1
υποδομής 1
χρυσή 1
Ανάπτυξη 1
Ορά@@ 1
έρμο 1
γάτες 1
γενέτειρά 1
διάσκεψη 1
εγκατεστη@@ 1
ευθεία 1
τζε 1
Ιταλούς 1
Φλώρινας 1
απολυ@@ 1
επικυρ@@ 1
επισκέπτης 1
ματολογία 1
πρόσφατες 1
σωματίδια 1
σύνοδο 1
τίτλοι 1
υποχρεωτική 1
όντες 1
Κάρλο 1
Κλη@@ 1
Μπράν@@ 1
Τζωρ@@ 1
αγαθών 1
ασθενής 1
επιδρομή 1
πολεμήσει 1
σοβ@@ 1
σύγχρονους 1
υπέφερε 1
Bl@@ 0.1836560018048475
Αλφόνσο 1
ΕΠΟ 1
Μοντε@@ 1
ήθεια 1
δόση 1
ιαπωνικά 1
κορυφαίο 1
ορίων 1
οργανική 1
παρεν@@ 1
ποιητική 1
τελευταίους 1
τσιο 1
Al 0.12174594200045318
SA 0.4286854644974036
ts 0.044562962733799644
Άνχαλτ 1
Αστεροσκοπείο 1
Ουγγρ@@ 1
Σουλεϊ@@ 1
Συνδέσμ@@ 1
αφαι@@ 1
βύθ@@ 1
δάν@@ 1
κατέφυγαν 1
κλήρωση 1
νοημ@@ 1
πάσχ@@ 1
σιαλ@@ 1
ταυτότητας 1
Ag@@ 0.2300900907273948
Δομιν@@ 1
Λοθ@@ 1
ΜΜΕ 1
Σαρακ@@ 1
έγεται 1
έρχονταν 1
αφενός 1
βοταν@@ 1
δυσαρέσκ@@ 1
συνο@@ 1
τείνονται 1
χωρίζει 1
Γραφείου 1
Εσθονίας 1
Κυπριακής 1
Σαχ 1
ήφθη 1
ανατολικού 1
αρχείου 1
καθολικό 1
καλοκαιριού 1
κρατου@@ 1
λαϊκής 1
λοιμώ@@ 1
μένας 1
μελέτησε 1
νίκης 1
ορόφ@@ 1
πανελλήν@@ 1
προκριθεί 1
φεύγ@@ 1
Euro 0.46912791688399247
Your 0.6348692394405006
Κογκρέσου 1
ασημέν@@ 1
βελτί@@ 1
διεξαχθεί 1
επιχείρημα 1
μεταξ@@ 1
πλανήτες 1
υδάτων 1
Tour 0.16861290473130333
Καραϊ@@ 1
Νομοθε@@ 1
Παρτιζ@@ 1
Στέφαν@@ 1
Τίτο 1
αεροπλάνο 1
γενιές 1
γύρους 1
εμπόδια 1
πολλαπλών 1
πτηνών 1
σύχ@@ 1
1853 0.7401746809063482
Εταιρ@@ 1
Ρενέ 1
Σπαρτιάτες 1
Φίλι@@ 1
Χειμερ@@ 1
ήπειρο 1
αβα@@ 1
ασήμ@@ 1
αστρ@@ 1
αφορ@@ 1
θαν 1
λίρες 1
ομιδ@@ 1
πελάτες 1
ταξιδιού 1
τουρκικής 1
³ 0.9892502888400735
Ατλ@@ 1
Σπί@@ 1
Υφ@@ 1
ανοιχτή 1
εριν@@ 1
ιερού 1
κόκκινη 1
μαθητή 1
νοτιοανατολική 1
οβάνι 1
περιφερειακή 1
σταυρό 1
est 0.006157765358358229
ly 0.05677756786017064
Βόν@@ 1
Κόμης 1
έβαλλ@@ 1
αναγνώρισης 1
αποκορύφωμα 1
επένδυση 1
κρυμ@@ 1
μις 1
μονό@@ 1
ορίου 1
προσαρμοσ@@ 1
σχολείων 1
τουρίστες 1
1793 0.9854415814310132
Av@@ 0.28608115581440013
Άλφρεντ 1
Βουν@@ 1
Ιερός 1
Ιωάννινα 1
εικόνων 1
ζεστ@@ 1
θυνε 1
τριτο@@ 1
Man@@ 0.11053020249443832
ce 0.03620770709027729
Αιμ@@ 1
Ακρόπολη 1
Δοκ@@ 1
Ερζεγοβίνη 1
έλε@@ 1
ανάμεσά 1
βουλευτών 1
πιστός 1
ρίδια 1
υποκριτική 1
Γαβρι@@ 1
Δραγ@@ 1
Στό@@ 1
Τρανσυλβαν@@ 1
ανανέωση 1
βαθμολογ@@ 1
ιστες 1
μέα 1
σχηματισμός 1
DS 0.6667206124429487
Αλεξανδρού@@ 1
Δρόμ@@ 1
Εδουάρ@@ 1
Ο.Κ. 1
Τέιλορ 1
Υπηρεσίας 1
ήμες 1
αποκαταστάθηκε 1
βοια 1
δεις 1
διάγραμμα 1
διαμορφώθηκε 1
εκκλησιών 1
επεν@@ 1
ζεκ@@ 1
θέντα 1
καθορίζει 1
κατανομής 1
μοναχοί 1
μπατα@@ 1
σαμ@@ 1
τζερ 1
τομέ@@ 1
φθάσει 1
φθορ@@ 1
Blue 0.31358219767501
Pa@@ 0.4504296607510585
Κρα@@ 1
Μού@@ 1
Πρέμιερ 1
Σέρβοι 1
Σύλλογ@@ 1
ένοπλες 1
ίγμα 1
αναταρα@@ 1
αϊρ 1
δοβ@@ 1
εξοχ@@ 1
κωδικό 1
στρατηγικής 1
όβιο 1
out 0.03276578038408125
Αμερικάν@@ 1
Βουκουρέστι 1
Πριγκίπισσα 1
ίμι 1
επόταν 1
ευγενή 1
κυριλλ@@ 1
μέρισμα 1
μεταφέρεται 1
νόμοι 1
ογενείς 1
Ma@@ 0.13476429226334222
Βουργουν@@ 1
Μπούν@@ 1
Οκτώβ@@ 1
Τσέλ@@ 1
Φρίντριχ 1
βετερ@@ 1
ειακούς 1
εσφαλ@@ 1
τουά 1
Pan@@ 0.23242086344669485
ane 0.14801906720017155
Ελευθέ@@ 1
Σάου@@ 1
Φιλιπ@@ 1
βράχο 1
νοικοκυρι@@ 1
πουργ@@ 1
τρένο 1
Όμη@@ 1
Είχαν 1
Λισαβ@@ 1
Φρού@@ 1
διαμαρτυρ@@ 1
εγχείρημα 1
επανάληψη 1
ερειπ@@ 1
ικερ 1
μείν@@ 1
ποικιλίες 1
σελ. 1
σιακές 1
τρά@@ 1
φύλακα 1
ότυπ@@ 1
1849 0.6827474857584256
ella 0.12569037653688103
ni@@ 0.12016820839635134
Γουέλφ@@ 1
Ζακύνθου 1
Ρεθύ@@ 1
Τζόζεφ 1
αθλητική 1
ανέμ@@ 1
δεχόταν 1
διακρί@@ 1
θέλουν 1
κτήμα 1
πολυάριθμες 1
προσέλκυ@@ 1
ταιν@@ 1
τηρη@@ 1
1837 0.8187036457308855
Pi@@ 0.17746084597094097
Διαθήκης 1
Καραμανλή 1
Στεν@@ 1
αστρονόμος 1
θυγατ@@ 1
κατώτερ@@ 1
μετάδοσης 1
πιαν@@ 1
ποικιλ@@ 1
σταμά@@ 1
τσμπουργκ 1
τωπ@@ 1
φιλε@@ 1
χιλιάδων 1
NASA 0.9955824873286068
Park 0.09624408424775775
Βουλγάρων 1
Κοινοπολιτείας 1
Μαξιμιλι@@ 1
Σλοβ@@ 1
έκτο 1
αρνητικές 1
θυρο 1
ιδρυτές 1
λοίμω@@ 1
λογικό 1
μετανα@@ 1
μπαρ 1
παραδώσει 1
προπονη@@ 1
ταβ@@ 1
Βερσ@@ 1
Πράγα 1
Σόν@@ 1
άβουν 1
αιχ@@ 1
γενικής 1
εγκαταλείψουν 1
ητείας 1
καναλιού 1
μπάμα 1
ουντ@@ 1
πιστο@@ 1
τερματίσει 1
Λούντ@@ 1
Πολωνούς 1
απαν@@ 1
διαγωνισμός 1
διαλέξεις 1
πεθ@@ 1
προτεστ@@ 1
πρόθεσμ@@ 1
τούρ@@ 1
φράγμα 1
ϊκές 1
11ου 1
Day 0.23749720849665748
Thomas 0.11158320538424014
ΒΑ. 1
Κεντ 1
Νεφ@@ 1
Χόλιγουντ 1
έιρα 1
έλθουν 1
ανάληψη 1
γκρουπ 1
γράμματος 1
δραχ@@ 1
ηλεκτρονική 1
κάν 1
κυπελλ@@ 1
πέδου 1
σάκι 1
τιμο 1
φτιάχν@@ 1
χώρια 1
Γρεβενών 1
Ταιν@@ 1
Ταινίας 1
ανακω@@ 1
κατέβ@@ 1
κατέρρευσε 1
οικισμών 1
παραπο@@ 1
πολυάρι@@ 1
ρυθμούς 1
συμπο@@ 1
τῆς 1
χαθεί 1
eb@@ 0.10498366303322028
Κρό@@ 1
Σώ@@ 1
αναγέν@@ 1
αντάρ@@ 1
αντιπάλων 1
διανομ@@ 1
διου 1
καθηγήτρια 1
κώδικας 1
μετατόπ@@ 1
περιπτώσεων 1
σημερινός 1
στοιχείου 1
συμμορ@@ 1
Τουρκική 1
ανταποκρι@@ 1
βροχοπτ@@ 1
γκι@@ 1
διαπίστωσε 1
δυλ@@ 1
επεισοδίων 1
κατάστασή 1
κύριοι 1
μουσικού 1
ντί@@ 1
παρατηρήθηκε 1
πριος 1
προσωπικές 1
υποσχέθηκε 1
Αλεξανδ@@ 1
Θρ@@ 1
Χίο 1
γκαλ@@ 1
ειρες 1
ινγκτον 1
ισοφ@@ 1
ληστ@@ 1
λλη 1
μετρική 1
ουμένων 1
πεύ@@ 1
πλάτους 1
συναντά@@ 1
τακτικές 1
τζια 1
si@@ 0.11752891435756135
Κέλ@@ 1
αντιπαράθεση 1
ανωμαλ@@ 1
γωγή 1
επιτύχει 1
κύττα@@ 1
παραχθεί 1
πεποιθήσεις 1
τζαζ 1
τικο@@ 1
Sonic 1
Αμπντούλ 1
Γύ@@ 1
Λυών 1
Νέστο@@ 1
Τρίπολη 1
Χρονιάς 1
έμπορος 1
αντίπαλος 1
εκτελεί 1
θυμάτων 1
καλοκαίρια 1
μετακόμ@@ 1
πρωτεϊνών 1
σχηματίζονται 1
φωσ@@ 1
ing@@ 0.09393002901576662
ακούς 1
αναγνωριστεί 1
κύλιν@@ 1
μεταγενέστερα 1
ξεπερ@@ 1
ομοιότητες 1
τεχ@@ 1
101 0.7803797972888952
Εθνο@@ 1
Μεξ@@ 1
Χαλκίδα 1
δηλητη@@ 1
διεργασίες 1
επέβαλε 1
οχές 1
συνηθισμένη 1
υγρά 1
105 0.8757163518351012
COVID 0.42404268435994946
Έμ@@ 1
Μουσταφά 1
ΠΑΣ 1
Παντελ@@ 1
Τζου@@ 1
αρη 1
εκλογικό 1
κοντινό 1
ληπ@@ 1
μάθηση 1
περιβάλλοντα 1
ταθεί 1
φαινόταν 1
όρκο 1
ώσπου 1
Άξονα 1
Ματθίλδη 1
Ροζ@@ 1
άγματα 1
αστ 1
αφαίρε@@ 1
ελλεί@@ 1
καβ@@ 1
κατάληξη 1
ούρες 1
προκάτο@@ 1
τεύχος 1
χρυσός 1
Αλεξανδρείας 1
Διοικητής 1
Κάστ@@ 1
Κεμπ@@ 1
Μογγολ@@ 1
Ναύπλιο 1
Πρώιμη 1
Συνθήκης 1
ήλα@@ 1
δρομών 1
επιλέξει 1
ζεν 1
λαμαν@@ 1
προκλη@@ 1
σβαϊ@@ 1
1806 0.903406292703686
Ημι@@ 1
Θηρε@@ 1
Ομοσπον@@ 1
βορειοδυτική 1
εκτόξ@@ 1
θερμότητας 1
θεϊ@@ 1
κατάθλι@@ 1
λεηλά@@ 1
οργανώσεων 1
πληροφόρ@@ 1
ράφη 1
τοπικούς 1
χριστιανικό 1
Ζάκυν@@ 1
Μαργαρίτας 1
Μπόρ@@ 1
Ρήνου 1
Φερρ@@ 1
Χόφ@@ 1
έμοι@@ 1
ηλίκων 1
κατερ@@ 1
μοναχούς 1
νιας 1
ξεκίνημα 1
φρούτα 1
33@@ 0.9027275056531104
Football 0.17131328982514826
Καλογ@@ 1
Ροδόπης 1
Τετ@@ 1
εκδηλώσεων 1
εκστρατ@@ 1
εύγ@@ 1
καυσίμου 1
παρατηρούνται 1
τοποθετούνται 1
όψ@@ 1
Ac@@ 0.16522812050647617
δύσκολα 1
ετο 1
κίονες 1
οπάτια 1
υφυπουργός 1
Δαμ@@ 1
ανιψι@@ 1
γότ@@ 1
διοικητές 1
ελεύθερης 1
καταπολέμ@@ 1
οροσειράς 1
vi@@ 0.1088841731934912
Αλεξάν@@ 1
Λευκορωσία 1
Μεκλεμβούργου 1
Μεταξά 1
έστηκε 1
έφτανε 1
ανθρωπιστ@@ 1
ερνη@@ 1
θεωρητικά 1
λογαρι@@ 1
μερικώς 1
μοναστηριού 1
πεδι@@ 1
τανία 1
Do@@ 0.25264204187829636
Warner 0.7037051534212246
Δικαιωμάτων 1
Ελίζαμπ@@ 1
Ιθ@@ 1
ενισχύσει 1
επανειλημμένα 1
κατακτά 1
ξεκ@@ 1
σηκ@@ 1
σολ@@ 1
σταλλ@@ 1
φλόγ@@ 1
1.500 1
Ανατολικών 1
Βαρκελ@@ 1
Εστ@@ 1
ίδι@@ 1
κρέατος 1
σωματείου 1
1831 0.8790592993767711
Τζαν@@ 1
δουλειές 1
λογικές 1
σιδηροδρομικό 1
στέψη 1
τo 1
φιλοξενήσει 1
όμεν@@ 1
κατατάσσεται 1
υποστηρίζεται 1
117@@ 1
Βλάχ@@ 1
ΕΠΣ@@ 1
αρχαιο@@ 1
βυζαντινό 1
εξώφυλλο 1
επικοινωνιών 1
καταν@@ 1
καυσίμων 1
προοριζόταν 1
χλωρο@@ 1
1857 0.625255992583748
7.000 1
Martin 0.15143467311228712
Άγ@@ 1
Αρε@@ 1
Βρισκόταν 1
Γλώσσα 1
ΕΥ@@ 1
Ζυρί@@ 1
Κορυφ@@ 1
αυλής 1
διοξείδιο 1
επιδειν@@ 1
ov@@ 0.13366265585197315
Άλμπερτ 1
Αρκετοί 1
έρου 1
ακεδ@@ 1
αναζήτησης 1
διπλωματικές 1
ενοποίηση 1
μαλλ@@ 1
μοναρχία 1
παράταξη 1
1792 1
are 0.01050282102898746
Κονγκό 1
αποδεικνύεται 1
κατατά@@ 1
μονοπάτι 1
προσάρτηση 1
συμμετρ@@ 1
τηλέφ@@ 1
τιθέ@@ 1
εφάρμο@@ 1
ηγεμόνες 1
θεάς 1
μακροχρόνια 1
ρεν 1
χι 1
Μεσολογγίου 1
Πιέ@@ 1
έριο 1
αναδείχτηκε 1
εκτίθενται 1
εξεγέρσεις 1
μιγαδ@@ 1
μφισβή@@ 1
περίμενε 1
σωματική 1
Er@@ 0.08910832431325978
Les 0.03334928510400416
Ασφ@@ 1
Ειρηνικό 1
Ναπο@@ 1
Οδηγ@@ 1
Οκ@@ 1
ηλεκτ@@ 1
στικούς 1
th 0.06826377629959365
ίδ 1
διορισμό 1
εντι 1
λαδή 1
μυαλό 1
οίτησε 1
σύνδεσης 1
ψηφι@@ 1
Bur@@ 0.15705888838508647
Αντίγον@@ 1
Ζηλανδ@@ 1
ακτος 1
πολεοδομ@@ 1
πόκ@@ 1
ὴν 1
άστια 1
αντός 1
αποθέματα 1
είωσε 1
καρχαρ@@ 1
οξέων 1
οπαδ@@ 1
ριστή 1
Θανάσης 1
Μπρού@@ 1
διαφορο@@ 1
δοκι@@ 1
Λάρ@@ 1
γος 1
πολί@@ 1
Mer@@ 0.16411054610420217
Βυζαντινοί 1
Ισχ@@ 1
αγαθά 1
αρχαιολογικό 1
παραίτησή 1
σημείων 1
άδο 1
αεροσκ@@ 1
επηρεάζουν 1
κλήρω@@ 1
μελή 1
μοσχ@@ 1
προϊόντος 1
ρίσματα 1
σειρ@@ 1
1789 1
Si@@ 0.30331220399033776
ber@@ 0.0960625025345543
Νίκ@@ 1
no@@ 0.11412390275777351
Αρκε@@ 1
Κορν@@ 1
εκδόσεων 1
επηρέ@@ 1
ματικούς 1
ξί@@ 1
πέφ@@ 1
τοποθετήθηκαν 1
τύμβ@@ 1
Te@@ 0.1475178007270966
άργυ@@ 1
κανόνων 1
συνάδελφ@@ 1
Her@@ 0.12441482720218038
oles 0.6176611584095825
επέκτασης 1
τηλεοπτικής 1
Louis 0.12421532206637066
Άργους 1
ΝΔ 1
Πόν@@ 1
οιας 1
AT@@ 0.45010282627295445
SE@@ 0.46086994384423174
Απελευθερ@@ 1
δακτύλιο 1
ty 0.09374451220372011
είπ@@ 1
οκρα@@ 1
τηλεοπτικά 1
Επτά 1
έλυ@@ 1
εξαλ@@ 1
όσχ@@ 1
CH3 1
Μακεδόνες 1
ῦ@@ 1
Σπύ@@ 1
Richard 0.14381239543999152
Έλλ@@ 1
κατηγ@@ 1
οικει@@ 1
Ab@@ 0.06126031365517618
ετι@@ 1
όνα@@ 1
ευθυν@@ 1
ηχογράφησαν 1
πρόλ@@ 1
καλός 1
προσέγ@@ 1
τάκης 1
1847 0.7242182857542732
end 0.04219123562603737
αιτίας 1
παγαν@@ 1
παρελθ@@ 1
ou@@ 0.09352206255949745
Βικι@@ 1
London 0.08083170343244507
do@@ 0.14554307231007016
άλυψε 1
ριστο@@ 1
ὶ 1
ey 0.12294349520810095
δικαιοσύνη 1
ούδια 1
Αρχηγ@@ 1
Σαμ 1
επαναστατική 1
ευρέ@@ 1
κανέναν 1
Έσ@@ 1
Συμεών 1
ταξιδέ@@ 1
FC 0.12398377476568556
au 0.011347481137997292
ταξη 1
κισσα 1
Μπάντεν 1
έικ 1
αιτέρ@@ 1
ot 0.13552410595919198
ισραηλ@@ 1
τάντ 1
Mc@@ 0.09688056610597
σκεύ@@ 1
υζ@@ 1
Peter 0.1215131693159237
St 0.16037935308331838
έστερα 1
παρατηρού@@ 1
CA@@ 0.39297728457216524
αδια@@ 1
que 0.00478191888305265
~ 0.956886334388968
ίθμ@@ 1
εργαλ@@ 1
1855 0.632747080658842
ph@@ 0.08989039965420423
Δυναστ@@ 1
διαδ@@ 1
οδρο@@ 1
οπά@@ 1
General 0.08468691554772553
Hel@@ 0.26473097435830417
αίνεται 1
προέκυ@@ 1
Show 0.30533374250321405
elli 0.2937554755873525
γεύ@@ 1
1600 1
Φιν@@ 1
στερα 1
Lord 0.23578707769716697
15.000 1
δευτερόλεπ@@ 1
σεβασ@@ 1
Λίμ@@ 1
αντικει@@ 1
per@@ 0.07026263829271415
βρύ@@ 1
Ne@@ 0.10800712281728007
from 0.005862242918961035
ter@@ 0.06303054462350723
όπερ@@ 1
κοπος 1
ωμά 1
bo@@ 0.07605145011552367
Σπαρτι@@ 1
ροταφ@@ 1
1852 0.6624198426434657
Mega 1
kg 0.391408954742767
Χριστός 1
gr 1
za 0.14385129754145334
Τμή@@ 1
βιβλ@@ 1
ψήφισμα 1
ac 0.18259007679265932
EP 0.309557757869139
og@@ 0.12033699490116495
θες 1
πρωτοβουλ@@ 1
στίβ@@ 1
š@@ 0.27546485384962915
αντρ@@ 1
220 1
Καλιφόρ@@ 1
κήρυ@@ 1
τίες 1
13.@@ 0.8139383037434995
eta@@ 1
επιφάν@@ 1
τομη 1
114@@ 1
um@@ 0.06399141662555935
www.e@@ 1
Κοσσυφοπ@@ 1
μελι@@ 1
υπάλληλ@@ 1
PlayStation 0.8301397373513194
sa 0.028527476605562062
Οξ@@ 1
σύνδεσμ@@ 1
ME@@ 0.6271753312162888
mg 1
oik@@ 1
κρατίας 1
Καλαβ@@ 1
Σταυροφορ@@ 1
γέννησης 1
bi@@ 0.0732908254177889
Ιουστ@@ 1
ιδιοκτη@@ 1
200.000 1
Eur@@ 0.46219966149528824
γέφυρ@@ 1
1204 1
ay 0.09806985962283864
Εξωτερ@@ 1
ημέ@@ 1
all 0.02343227217713368
Πεζ@@ 1
εκμετάλλ@@ 1
αλλαγ@@ 1
ροφορ@@ 1
ἔ@@ 1
detail@@ 1
απεί 1
μπόρε@@ 1
συστατ@@ 1
500.000 1
Mus@@ 0.19224051463590666
Of 0.3241135867619915
Ακαδημ@@ 1
Σιδηρο@@ 1
εφαρμ@@ 1
υπη@@ 1
όλα@@ 1
όνησ@@ 1
metab@@ 1
Διαγων@@ 1
Ω 1
201@@ 0.922172671104396
AS 0.3920024359546134
Sony 0.7535651584169096
rock 0.14317100484706244
ita 0.13236100748561896
als 0.009851824131424256
βασιλι@@ 1
Art 0.10900575643881966
μεγάλ@@ 1
νήθηκε 1
τυπω@@ 1
οίν@@ 1
ταξιν@@ 1
τοποθετ@@ 1
Su@@ 0.15340455001932735
άλματα 1
χαρακτή@@ 1
Don 0.24049710928835533
ir 0.09599082267022911
od@@ 0.10648293259103281
πραγματοποί@@ 1
gr@@ 0.07924425657028548
360 0.8345533204414488
YouTube 0.5745001234170998
ότατα 1
βασίλ@@ 1
ρισκ@@ 1
αρχιτέκτον@@ 1
συνε@@ 1
34@@ 0.8464677867260403
γράφου 1
πειρά@@ 1
ki 0.16631091766467324
1797 1
Μανου@@ 1
μπρι@@ 1
1700 1
Min@@ 0.17088582293940038
είστηκε 1
RE@@ 0.4822155626744921
Βραζ@@ 1
ανέπτυ@@ 1
1842 0.7305028031475553
center 0.15185233153109617
Εσθ@@ 1
Ph@@ 0.18783552919709692
Pictures 0.7508667136468905
γάμ@@ 1
αποτελεσματ@@ 1
βουλευ@@ 1
ειλε 1
To@@ 0.2171452537665534
ημέρ@@ 1
40.000 1
60@@ 0.7814227102079301
Mag@@ 0.1985409073531468
χτισ@@ 1
36@@ 0.8475399757327745
US 0.05523577715007076
λιού 1
χρηματο@@ 1
ΕΑ@@ 1
λευθερ@@ 1
επιτρέ@@ 1
λληλ@@ 1
αξαν 1
LE@@ 0.7090588698265908
ker 0.11910959494687275
άντια 1
δάσ@@ 1
ell 0.09738737614603546
διεύθυν@@ 1
περιεχ@@ 1
ανάπτυ@@ 1
εψη 1
Ποσειδ@@ 1
Ροβέρ@@ 1
απόγον@@ 1
A.@@ 0.37514994861020257
Center 0.13430750637425232
Fame 0.5033504294172854
High 0.1030237173903982
ουλι@@ 1
περτ 1
έρρι@@ 1
δείχτηκε 1
εκτε@@ 1
ρίσεις 1
ut@@ 0.0989055060191325
όδω@@ 1
Ge@@ 0.12306636095225135
ol 0.12583676270570238
Διευθυν@@ 1
1813 0.8075676025132064
εταιρ@@ 1
σύγ@@ 1
1846 0.6548912843297768
Die 0.011154141977718909
Street 0.10068829825493868
ore 0.13249110053477228
Αίγ@@ 1
γραφο 1
δρυ@@ 1
102 0.9109221951401548
Πιστ@@ 1
ευμα 1
τοκρατ@@ 1
125 0.6815185633473477
τάγματος 1
à 0.004031898081892469
γα@@ 1
γαν@@ 1
λοι@@ 1
Rolling 0.8540830094618
Super@@ 0.2386425664205643
διαδικα@@ 1
My@@ 0.3005278500410796
ou 0.026706743758539528
ara 0.10875490221833378
Go@@ 0.1685173895587988
ins 0.06541175510141571
διευθυν@@ 1
38@@ 0.8289908214778563
ατμόσφαι@@ 1
Lee 0.20001389980440723
πρόσθετα 1
Σκοπ@@ 1
προϊ@@ 1
1839 0.7191296719199494
45@@ 0.842409797035852
Joseph 0.12325370950262958
Απρί@@ 1
τυγχ@@ 1
1809 0.9331446001040262
up 0.026557674383430426
στιτού@@ 1
Bor@@ 0.14794144259386513
se@@ 0.06222879455449735
Αεροπο@@ 1
μμυ@@ 1
υποψηφι@@ 1
Gu@@ 0.10998719005723917
hp 1
άλωση 1
Βουκου@@ 1
έλφ@@ 1
ήρω@@ 1
ιλία 1
mi 0.23593902496666885
ήνου 1
μάται 1
προορι@@ 1
Inter@@ 0.13483310133375137
br@@ 0.05934124695723178
70@@ 0.8303279542879393
Fe@@ 0.25868631136247183
ick 0.1489171299849784
δεψε 1
στυχ@@ 1
υλ 1
υπτο@@ 1
έρον 1
1810 0.780197878065373
Ad@@ 0.12642274218280397
Ζακ@@ 1
Λευκορ@@ 1
Dis@@ 0.17178678607012454
Mercedes 0.8551104817791243
ST@@ 0.4315620951705879
Society 0.13384696716391095
Corporation 0.2778964616143365
Stone 0.41502799265135626
Υγ@@ 1
σή@@ 1
France 0.04375601963123723
width 0.7383725304473291
επιστημ@@ 1
άσταση 1
Μητρό@@ 1
είνει 1
εφημερ@@ 1
λεκτ@@ 1
109 1
Final 0.30828859589316
Περί@@ 1
άφι@@ 1
λους 1
IN@@ 0.3722566573851429
εγκατέ@@ 1
λέχ@@ 1
λαβαν 1
Ιωάν@@ 1
ιζόμενος 1
κάποι@@ 1
πεδα 1
so@@ 0.11152616873010152
Αφροδί@@ 1
Νοτι@@ 1
λς 1
ρέψουν 1
Ser@@ 0.1495833781773265
άλυψ@@ 1
επίσκε@@ 1
Bel@@ 0.12067402134341844
ωφελ@@ 1
κυτ@@ 1
μω@@ 1
οσπ@@ 1
22.@@ 1
IC@@ 0.41015778153316557
θαυ@@ 1
ναλντ 1
ριάς 1
τοί@@ 1
ES@@ 0.39704087522584763
Fox 0.34544164012208145
καρκ@@ 1
ράφηκαν 1
ράφηκε 1
FM 0.2921043015714685
Ισαβ@@ 1
Europe 0.08919121002654831
Αίγυπ@@ 1
έμφ@@ 1
τρομ@@ 1
Θρη@@ 1
θεατ@@ 1
Alpha 1
Cl 1
σχετί@@ 1
ήνα 1
CE@@ 0.40770700595843873
Festival 0.1274310861860013
Θεοτ@@ 1
στασή 1
MTV 0.6682196097419654
εφο@@ 1
μεύ@@ 1
πυρί@@ 1
CIA 1
Media 0.2609056247134998
Γλώσ@@ 1
εκκλ@@ 1
1790 0.8590619982859891
1818 0.813600264108897
Ιανου@@ 1
ερσ@@ 1
14,@@ 0.8174995322998067
προσαρμογ@@ 1
εκτέλε@@ 1
News 0.27624680405192875
Μέγ@@ 1
ασκαλ@@ 1
Out 0.4492670031883465
1838 0.6759943731945687
Αντα@@ 1
Διεθν@@ 1
κατάργ@@ 1
πολε@@ 1
πτική 1
15,@@ 0.8626094528726974
Έντου@@ 1
εξέφ@@ 1
ρείται 1
ER@@ 0.5003446718591569
Λουξε@@ 1
παραδό@@ 1
Μεταξ@@ 1
So@@ 0.15945385897358455
pi@@ 0.09533442322947802
Σωματ@@ 1
ύχημα 1
MI@@ 0.5982123727991353
πρόσκ@@ 1
τεκτον@@ 1
1200 0.863320844205268
Κριμα@@ 1
λοχαγ@@ 1
οσκοπ@@ 1
πρωθυπουργ@@ 1
σίγου@@ 1
ek 0.15646533031105844
Ε.Π.@@ 1
τέσσ@@ 1
Arts 0.1543578620511946
Queen 0.22058762548455838
στιαν@@ 1
Mal@@ 0.10000041336045075
art 0.06762561936328546
αίτη@@ 1
Box 0.8141372162825278
Cas@@ 0.15568943817121264
NH@@ 1
πληκ@@ 1
Sal@@ 0.12606269648200838
Fre@@ 0.145404494060993
MA 0.4204137281106591
Paris 0.05972525904811048
είμενο 1
1807 0.9020547922313228
á@@ 0.10792310303422335
έφτηκε 1
21.@@ 1
MS 0.3755058118229512
album 0.0332510619671803
kin 0.2562542673492365
ob@@ 0.07623950839883674
ur 0.10789030311297033
Αυστραλ@@ 1
αποτρέ@@ 1
μέλλ@@ 1
CH 1
White 0.14648063910806175
ne@@ 0.08391963642250103
ίχν@@ 1
καταστάθηκε 1
κινητήρ@@ 1
κλειδ@@ 1
πετο@@ 1
Who 0.5763288434492373
mo@@ 0.0892286281473909
αναπτυ@@ 1
We 0.24674746122801391
Μπρά@@ 1
Ho@@ 0.15352228150547148
sp@@ 0.06716723657284224
μαίν@@ 1
συγκροτ@@ 1
1803 0.7948439020192161
IP 0.5571165530063587
Renault 0.9986261569101265
πολυάριθμ@@ 1
συζύγ@@ 1
ότοπ@@ 1
par@@ 0.05136758375351659
ληρω@@ 1
μματα 1
Can@@ 0.17200071646214743
S.@@ 0.41665219175311835
System 0.2300260109885975
ικς 1
1808 0.8275373553427661
Bre@@ 0.17212215485125815
Sc@@ 0.20956575832334215
United 0.028143821932888786
έγερσης 1
γιατρ@@ 1
πονη@@ 1
σεναρι@@ 1
1804 0.9338736907536372
ni 0.10119861017952667
θάλασ@@ 1
πτουν 1
pr@@ 0.06841084264613527
εφαρμογ@@ 1
Kr@@ 0.1277622358466167
RA@@ 0.3638797670638638
per 0.06441193449127126
ουλμαν@@ 1
φροντ@@ 1
14.@@ 0.6802598686951087
2,3 1
Sk@@ 0.23449171614859976
ver@@ 0.02545811425925738
όνησο 1
μετανάστ@@ 1
ουμένως 1
107 0.9857323302035508
39@@ 0.8493075060233956
Journal 0.2969690458900909
orum 0.6472796452585127
άπηκε 1
πλανή@@ 1
υμπ@@ 1
ensis 0.23030050269804123
ορχή@@ 1
πρίγκιπ@@ 1
Be 0.621769207437538
Nintendo 0.7035007367765441
ada 0.03170662168262352
ικάν@@ 1
παση 1
έσκο 1
ήσου 1
αγόταν 1
νημ@@ 1
1798 0.9183670717714588
Απόστολ@@ 1
Ετα@@ 1
Θεριν@@ 1
RI@@ 0.5418805130764625
im 0.00695928101489068
ιστορ@@ 1
106 0.9333948772944224
240 1
Οργάν@@ 1
1795 0.9073769843464079
Fr@@ 0.12053437109944086
Φθ@@ 1
1770 1
100@@ 0.8428199778414321
Tor@@ 0.13414097443520764
ati@@ 0.09814774537924316
Fiat 1
colspan 0.4414222857865534
κοντα 1
απέρρι@@ 1
37@@ 0.7610901078144207
Bank 0.1891714683752265
Little 0.25350957938236357
Ρίτσ@@ 1
βάλ 1
πη@@ 1
ροταφείο 1
συντάκ@@ 1
af@@ 0.07672056575184287
διπλω@@ 1
εμπειρ@@ 1
ens@@ 0.06682430436287726
Συλλ@@ 1
εκδό@@ 1
συναρτ@@ 1
χάλκιν@@ 1
ro 0.23115003926187044
Πριγκ@@ 1
Κωνσταντιν@@ 1
170 0.8629722416183561
Mario 0.4932097670442961
az@@ 0.09015106098367492
ηψη 1
25.000 1
HMS 0.6108428347707217
Har@@ 0.1038789038962845
European 0.08887039609203395
om 0.19245021385321584
έλευσης 1
ένδυ@@ 1
1819 0.8510650165319793
3000 0.5600660026540354
Blackmore 1
CF 0.9964624242820238
Έβ@@ 1
\ 0.5622962235001128
Ελεον@@ 1
Καλλικρά@@ 1
έθηκαν 1
πλήρ@@ 1
Death 0.3284688103948625
ISO 1
PC 0.32067922670996085
δημό@@ 1
επιστη@@ 1
τοποθέ@@ 1
Mas@@ 0.13481197055749683
ευμάτων 1
RO@@ 0.5985897131065427
ess 0.09310878281410662
tes 0.05747041341875436
γκοσ@@ 1
λοί@@ 1
τίο 1
Free 0.4033755379729918
Αλέξ@@ 1
Φερδινάν@@ 1
ανάπ@@ 1
δεκαε@@ 1
μάτιο 1
οη@@ 1
1794 0.8825933018704178
ιονίκης 1
ρότη@@ 1
FI@@ 0.449362903038366
ΒΑ 1
εγκαταλ@@ 1
MP@@ 0.4594802380527044
λοιπ@@ 1
Βιρ@@ 1
Εκκλη@@ 1
ριστιαν@@ 1
be 0.009283514039452226
Κεφ@@ 1
ato 0.14379189507589368
bu@@ 0.11765012373959431
gi@@ 0.1208897757209005
ήνας 1
ge 0.08304215702642556
μετρία 1
127 1
Hill 0.1604811674078433
ενθ@@ 1
πρε@@ 1
104 0.8299576829701021
1805 0.8685589766935816
Open 0.17407664238028261
US@@ 0.2871197272027296
Δεύ@@ 1
SA@@ 0.39745643153036947
back 0.050730512639729546
Βούλ@@ 1
Κληρονομ@@ 1
els 0.08049235958226485
κτί@@ 1
Αθανά@@ 1
αστεροειδ@@ 1
κοσμίου 1
προσωπικ@@ 1
115 0.8868143077327086
16,@@ 0.8163258894408325
750 0.8007945749537542
ary 0.05712046101272473
ford 0.1083844802674582
BA 0.4566625739772092
ko 0.15262691058952574
Ολυμπι@@ 1
απομάκρ@@ 1
γκό 1
εμφάν@@ 1
πίνα@@ 1
SO@@ 0.5117814741223836
ors 0.0515061376225657
αναπτύ@@ 1
ανεξαρτη@@ 1
ότη@@ 1
Χρήσ@@ 1
Des@@ 0.14596749263498573
Gar@@ 0.14619021386875478
West 0.059142304297761204
Αθή@@ 1
Πει@@ 1
άλυ@@ 1
and@@ 0.08277389878215362
108 0.8531908858098081
ατες 1
νινα 1
Green 0.18910152171453606
Val@@ 0.12911209726921855
be@@ 0.039564572927120296
εξε@@ 1
tra 0.16999920176794348
αφν@@ 1
τεκμη@@ 1
Pierre 0.13766657556901815
ais 0.1951750878444539
charts 0.548080255281736
άλε@@ 1
εκλέχ@@ 1
φθηκε 1
ΑΕ@@ 1
ώνυμη 1
Home 0.27535043985164365
Κολλ@@ 1
Sol@@ 0.13695285491342588
Βοιω@@ 1
ονήσου 1
ώβ@@ 1
Up 0.4064953914287264
ari 0.1630727536016667
live 0.11745747775160714
απώλει@@ 1
λαι@@ 1
103 0.8465129129735489
οφόρ@@ 1
διάλυ@@ 1
ειδικευ@@ 1
No@@ 0.19628735297329
ene 0.07926865348564525
Ρόδ@@ 1
PS 0.300492542590639
πτωση 1
ati 0.2270282270160475
Έργ@@ 1
Ηρακλ@@ 1
αίθ@@ 1
1817 0.7852615557433815
FA 0.2830865437046324
mann 0.09631128829590549
Γυναικ@@ 1
μανση 1
ροπή 1
126 1
2.500 1
Friedrich 0.16468774504851716
Reg@@ 0.12779176058762542
θεται 1
16.@@ 0.7340044227509627
A. 0.12257502237939986
στίχ@@ 1
υφή 1
ous 0.04793074147067089
έρχ@@ 1
ατρών 1
τυγ@@ 1
άτω 1
Kil@@ 0.296991136909151
ette 0.09155452535980382
ger 0.12778958307394606
μελλ@@ 1
ρωπα@@ 1
Boeing 0.7611636108610952
Kar@@ 0.10221520553218026
Marie 0.1534307672444266
ets 0.0713574193511576
ένο 1
μιλι@@ 1
1453 1
America 0.09460238052197892
Mark 0.15941072537182677
las 0.010186780818754973
ole 0.15294785520524368
Καστο@@ 1
γράμ@@ 1
τορο 1
ent@@ 0.044127235894629115
li 0.16892169831552747
Jones 0.18938340493986014
O2 1
στή@@ 1
ώρησε 1
Airlines 0.6185923442288159
Αμβέρ@@ 1
παράγ@@ 1
Wrestling 0.46535281122645156
soundtrack 0.6959769504424799
επιθυ@@ 1
Βρε@@ 1
Τσαρ@@ 1
ρονομ@@ 1
ρούσα 1
ade 0.0997644382362686
ξεπ@@ 1
1816 0.7143938532043288
EBU 1
ake 0.1615246440519408
berg 0.0771933288497201
βιντε@@ 1
διάμε@@ 1
Cal@@ 0.122471461513684
Ένω@@ 1
Αυτοκ@@ 1
αρραβ@@ 1
θμισης 1
επιλέ@@ 1
άνιση 1
καφών 1
τύπωση 1
όπος 1
1801 0.7382320575424753
Αθαν@@ 1
Θεσσαλ@@ 1
Ποσ@@ 1
ντρ@@ 1
20.@@ 0.80623164219231
Bi@@ 0.10573299087870235
εκδήλ@@ 1
Αχα@@ 1
τούργησε 1
AC@@ 0.33578912229321567
left 0.05764789619176905
προσώπ@@ 1
σμπερ@@ 1
Hor@@ 0.1636052468202582
απέκ@@ 1
πρωτε@@ 1
1791 0.9208412253785049
Ben@@ 0.16139276423325516
ps 0.11764250492261855
sen 0.09683672702350006
Μαί@@ 1
Men 0.22953948138117689
alis 0.3089500945367044
λήμ@@ 1
ξαφν@@ 1
συμμετο@@ 1
tion 0.0575109338401781
65@@ 0.9727521663385778
Ko@@ 0.14868817332814202
ειχθεί 1
ἄ@@ 1
Du@@ 0.15658026904862088
Ros@@ 0.13981340682278035
συμβόλ@@ 1
1,4 1
jure 1
va 0.09615737199033685
αγαθ@@ 1
Hal@@ 0.1917321244111351
Tri@@ 0.12853256562197815
tica 0.20859920744582153
é@@ 0.0406834179198809
ενέργ@@ 1
1799 0.9077486344530319
Ste@@ 0.13635439178236902
Σπαρ@@ 1
Press 0.3069753666228899
Αυστρο@@ 1
υπεράσ@@ 1
17,@@ 0.7381391887382317
Dar@@ 0.17018608880774608
Fl@@ 0.1233005686844453
ev@@ 0.08490282641039124
σιδη@@ 1
atus 0.23315132001631056
Φεβρου@@ 1
SP@@ 0.34586879062106096
Ουγ@@ 1
νίκ@@ 1
ek@@ 0.08771480477878832
μέτα@@ 1
300.000 1
AT 0.45578920138572965
γνωστο@@ 1
μεταρ@@ 1
90@@ 0.8130192844215612
Παρασκευ@@ 1
ach@@ 0.06556779553550128
Σπάρ@@ 1
αιγ@@ 1
δισαν 1
ξέσπ@@ 1
Σεπ@@ 1
μπορέ@@ 1
ef@@ 0.15729432259260132
go 0.09152137329547298
Στερ@@ 1
0,5 1
ep@@ 0.08996724012158895
text 0.22252928633637228
і@@ 1
Dark 0.5743149122451265
Gillan 1
όδο@@ 1
Mel@@ 0.16915910210686802
ations 0.026497677672444913
Vol@@ 0.19774735134456017
Κρή@@ 1
field 0.05606894230737572
oni 0.24505324303516446
στρας 1
Ger@@ 0.11287901670359583
ire 0.11824948134073099
mar@@ 0.07163444033580366
Γιουν@@ 1
πειτα 1
1630 1
Dr@@ 0.13257235890927038
Gal@@ 0.14763433915453086
ερμπ@@ 1
κλεί@@ 1
Video 0.3991869488565346
ach 0.09372055399909628
Μπράι@@ 1
πειρο 1
Benz 1
IM@@ 0.5120852906174317
Vi@@ 0.1579691466292789
ίλης 1
συνειδ@@ 1
12.000 1
190 0.9915653486298515
Linux 0.7389350110923948
au@@ 0.06836480096511882
sch@@ 0.0388329288977084
εξαρ@@ 1
480 1
Sun 0.2601445087789589
καγι@@ 1
λίνα 1
πτέρυγ@@ 1
ὁ 1
ois 0.3483647584299269
εγκαιν@@ 1
ell@@ 0.08904883775488139
ting 0.055124322916284066
ωγράφ@@ 1
ABC 0.3952799937213016
Co 0.26821266785064285
able 0.02885375804266071
British 0.045955172285924134
Region 0.1460776125527584
οτροπ@@ 1
1715 1
Νάξ@@ 1
βιβασ@@ 1
CN 1
Βρυξ@@ 1
εκπαι@@ 1
προσώπους 1
Βρυ@@ 1
λεω@@ 1
Mac@@ 0.12527468549790777
ha 0.04403867731609762
αγρ@@ 1
διαπίστ@@ 1
ύτη@@ 1
ὸ@@ 1
Gi@@ 0.17045532758858703
Netflix 0.9892210238565712
ala 0.12718693215442273
line 0.045997888554577475
Λεμεσ@@ 1
γραφα 1
παρακολού@@ 1
PS@@ 0.47494076780510636
Santa 0.11025886591350162
Γε@@ 1
ρεψε 1
όπουλ@@ 1
Can 0.6008132139652756
Mary 0.12461694163087388
ov 0.12176040499948156
ry 0.14922797094975446
συγχρον@@ 1
128 0.8102889218630458
1583 1
ούσια 1
Δεδ@@ 1
ήβ@@ 1
περιπέ@@ 1
1,1 1
AD@@ 0.3524085017291792
pH 1
στέμ@@ 1
Es@@ 0.11652949127618539
st 0.08705247932721967
lu@@ 0.11067263307977304
ster 0.12865335208368336
ητριών 1
46@@ 0.8506980188158789
48@@ 0.8580711109699678
Institute 0.10622915640058311
ence 0.07364735313289746
pe@@ 0.08249367512660814
εβδομ@@ 1
λικαν@@ 1
15.@@ 0.6472729923178492
CO 0.5466382316930543
Karl 0.15044015454276596
Κοινοπολι@@ 1
113@@ 1
17.@@ 0.6884696580362101
ίμου 1
Columbia 0.19465893554021743
αζ 1
οσφ@@ 1
je 0.11683987849161569
Dr 0.762935460966986
ena 0.13418003866962672
Χαρακτηριστ@@ 1
Arena 0.42977469932329104
Mat@@ 0.12737182260639823
Η.@@ 1
κ.λ@@ 1
Los 0.034352217662650085
διοίκ@@ 1
καθηγ@@ 1
AD 0.3287941255716557
Mad@@ 0.15625759340898235
Story 0.5292626994290917
ζημι@@ 1
περισσ@@ 1
συνέπ@@ 1
Boy 0.42613938815524366
Glover 1
si 0.06547844193812041
Επέ@@ 1
βιε@@ 1
εκλ@@ 1
550 1
Del@@ 0.15793129956621527
Max 0.21156890024487468
ay@@ 0.08665787527444005
εκρι@@ 1
Studio 0.3856628507676418
κανδι@@ 1
μηση 1
Pro 0.27065858144820465
chi 0.13424811378852353
kh@@ 0.09802926996358734
θήκ@@ 1
ουμεν@@ 1
CD@@ 0.44511316943451024
For 0.05867124573623985
Master 0.2604035228521818
Κατηγορ@@ 1
επιν@@ 1
ικρά@@ 1
aw@@ 0.10647338658170306
ii 0.5347237471204335
te@@ 0.06124977434296195
Καραμαν@@ 1
Σικελ@@ 1
ks 0.06341013415974987
ηρέ@@ 1
con@@ 0.03825782742430873
σκόρ@@ 1
Cam@@ 0.21087911672695506
ma@@ 0.12483826576296847
ήφθηκε 1
ίστοιχ@@ 1
DJ 0.43350075268362276
πρου 1
320 0.9893466295783521
Il 0.01476887962821338
Toyota 0.9935855409105478
τώματα 1
υπόλ@@ 1
23.@@ 0.784664350580468
επίκ@@ 1
ιστον 1
μηδ@@ 1
μμυρίων 1
οιβ@@ 1
Space 0.34154505106728145
This 0.020996481731493218
άλληλ@@ 1
βλεψη 1
Champions 0.3749516136690538
ski 0.1624587142597312
yl@@ 0.11991512441760085
Χοσ@@ 1
Henry 0.09613683181305638
anus 0.3454314519042052
Εκτ@@ 1
γραψε 1
Αφρο@@ 1
γραφε 1
ελέγη 1
κοπο 1
ώπι@@ 1
Cre@@ 0.16420373455827414
Mot@@ 0.28140780695609324
ola 0.16455572030897042
εγκαινι@@ 1
κατανό@@ 1
οση 1
τελεί@@ 1
3D 0.45320292976612414
πείρου 1
προδ@@ 1
Certification 1
Euro@@ 1
δίκα@@ 1
ουήλ 1
ok@@ 0.1221154778885758
ł@@ 0.22780737266267323
IS 0.4556738609617932
est@@ 0.06432839324661076
Γεώργ@@ 1
Σιλε@@ 1
έννοι@@ 1
εδρο 1
μήνυ@@ 1
σφαλ@@ 1
H2@@ 1
19.@@ 0.7514176546662522
43@@ 0.983511594505765
Sir 0.1471590777126634
δυναστ@@ 1
AG 0.25345027809258913
CA 0.336206072731932
Je@@ 0.25014054386204226
Project 0.30728624270058175
ye 0.10434166108031843
Χαλκιδ@@ 1
άρτησης 1
επισήμ@@ 1
οτθ@@ 1
ora 0.1309159847103803
ξικ@@ 1
ταγων@@ 1
18.@@ 0.7031041950519781
Universal 0.4550556006745934
ance 0.049918525433267746
επεισ@@ 1
ρίβ@@ 1
HIV 0.9850182704480944
IC 0.40069524815271695
Im@@ 0.13459129853539328
άνθρω@@ 1
διδασκαλ@@ 1
εδρεύ@@ 1
μόδ@@ 1
υρω@@ 1
ant@@ 0.08404031726685876
pl@@ 0.05556409297078023
tu@@ 0.0943977125487071
α. 1
δέχ@@ 1
At@@ 0.14648430062929246
War 0.04239904835647723
War@@ 0.1377208778876069
μπορού@@ 1
πρόκρι@@ 1
ere 0.08862174087038968
έου 1
εντιν@@ 1
προνόμ@@ 1
ho@@ 0.08558283638793741
Ρωμ@@ 1
We@@ 0.1267475138507501
What 0.3422533738767732
ab 0.03994173833740869
Bad 0.2602574404200156
ain 0.10250388675319481
γκοσλαβ@@ 1
οιχ@@ 1
πρόκει@@ 1
5,5 1
SS@@ 0.4294309540539666
Αστερ@@ 1
απονε@@ 1
Facebook 0.601220695924782
Last 0.45992478962307726
ona 0.10914630647225249
sur 0.011396573968327849
Λαϊκ@@ 1
ΦΑ 1
7,5 1
87@@ 1
Down 0.5245149692036355
Jan 0.30410455815928994
ep 0.35642385788749076
δικτυ@@ 1
πτέρ@@ 1
AIDS 1
elle 0.0200415089631281
ister 0.30957746630658195
Γαβ@@ 1
ψ 1
Band 0.12129838446157898
IF@@ 0.6505973666638966
ah@@ 0.07754457877431307
MVP 1
άχου 1
ῶ@@ 1
Βυζ@@ 1
έφερ@@ 1
θεμέ@@ 1
χή@@ 1
Go 0.3897398730863455
ff@@ 0.10828082328269603
singles 0.2267332675464657
Σμι@@ 1
Android 0.8532415676673962
LP 0.38899442171068027
Tur@@ 0.13245347876093447
video 0.08053842046666414
ύλακ@@ 1
112 0.7742918006057897
ello 0.1497080485477673
Hell 0.9282492496176558
330 1
der@@ 0.05802144190926893
end@@ 0.06108825205398578
mon@@ 0.04649891253327633
ιθαγ@@ 1
κατευ@@ 1
διαλέξ@@ 1
πρόσω@@ 1
280 1
Ban@@ 0.14998024829400763
ion 0.12014384517367911
εγον@@ 1
εξαφ@@ 1
οχαγ@@ 1
τύχει 1
υρί@@ 1
αθμ@@ 1
τογ@@ 1
1802 0.677434186710685
650 1
συμμετέχ@@ 1
Dead 0.5215870309617099
UTC 0.7709860498134736
tri@@ 0.09080177625723718
φερε 1
ὑ@@ 1
47@@ 0.7502685025046347
Edward 0.14307449995346483
RS 0.4512416428698206
so 0.022645032996605582
time 0.014242505241065982
διακυβ@@ 1
Dance 0.3960327219270509
Smith 0.10871454985042743
ετερο@@ 1
ιούργ@@ 1
φθιν@@ 1
1811 0.6702034926602465
Island 0.09247189654253116
PO@@ 0.567695556068519
of@@ 0.1305251829808096
BAFTA 1
Άντζελ@@ 1
Ωδ@@ 1
ama 0.11144210884230006
£ 0.1874766990301437
άσσια 1
AP@@ 0.2834752797109641
Road 0.09092802091426813
Χαρακτη@@ 1
117 0.8925627075466082
Na 0.815434977542836
car@@ 0.04815940622022851
75@@ 0.8407992007127741
AB@@ 0.4367522714900495
C.@@ 0.3739676805397967
Οκτωβ@@ 1
κατεστη@@ 1
τείας 1
τιας 1
hi@@ 0.0932326129054418
wa 0.09411730743400058
ίσι 1
Cur@@ 0.16878904365171624
δικας 1
2,4 1
Scream 1
com@@ 0.06493357354484053
αιν 1
μοναστηρι@@ 1
260 1
Char@@ 0.11714270388219462
iOS 1
Ιρ@@ 1
διαγραφ@@ 1
δρομο 1
ζά@@ 1
mi@@ 0.12183442332540687
Αστεροσκοπ@@ 1
έργης 1
είω@@ 1
τραγουδί@@ 1
AI@@ 0.36004704399736753
1.200 1
1780 0.8244393956512588
44@@ 0.8096099278294298
Great 0.11251295195108416
IP@@ 0.5728029942493108
Nov@@ 0.2165408224987347
αρτ 1
οσης 1
ροφο 1
Grammy 0.5791116670467319
low 0.0717909716788927
βάτες 1
ιλίας 1
1788 0.906795044939482
5000 0.5360784710685709
Bu@@ 0.15438845165450799
GT 0.6289458357305797
Καρλ@@ 1
διακόσ@@ 1
our 0.0854766269989372
προσαρμ@@ 1
υσμ@@ 1
ῦ 1
2,2 1
έφτα@@ 1
ίσμα 1
ακτη@@ 1
│ 0.20931552098582737
Mac 0.5347232909542047
ari@@ 0.1028872484412751
Πρέβεζ@@ 1
μμύ@@ 1
iz@@ 0.07421541974522183
Μαξι@@ 1
οδήγ@@ 1
σσαλ@@ 1
τελεί 1
1796 0.75339244402404
Rom@@ 0.1880318037429084
dr@@ 0.06548667362820622
pe 0.09291135192669248
CI@@ 0.36876175599597033
HD 0.4343979411172819
Ul@@ 0.1884762807686325
su@@ 0.06909845671992323
επε 1
Cap@@ 0.19336284392300437
Pl@@ 0.10768760931342876
οπαι@@ 1
Λίβ@@ 1
1,6 1
19,@@ 0.820806854549045
60.000 1
Heart 0.41319975156202227
Μόσ@@ 1
εργαστ@@ 1
230 0.873354154847624
SI 0.7473565043719486
Wilhelm 0.16543407440796956
Chevrolet 1
ten 0.018741117165338456
ys@@ 0.1368473066800335
ήσης 1
πειρω@@ 1
1783 0.8749239539527024
ings 0.046980430465031364
123 0.8655645286387638
Way 0.4159323506298818
ese 0.057325033206576566
ik 0.11458626330390068
ικα@@ 1
τόπ@@ 1
Ni@@ 0.14234142028342933
αζί 1
αιτέρω 1
ηγεμόν@@ 1
οπτ@@ 1
135 0.7285166141355253
194@@ 1
Office 0.18727243658765844
che 0.08028622565861136
Βιβλιο@@ 1
αρε 1
1100 1
LC 0.7853766300853305
210 0.8703123752355416
MO@@ 0.47476825637033976
Union 0.058465249664958606
show 0.05100883615047376
ura 0.11383578469310202
εξέλι@@ 1
VI 0.2361035285478849
tic 0.09840437484851516
Van 0.17467071716660804
είδιο 1
Dream 0.5831858460918923
Ferrari 0.6853243550321118
ei 0.12107356344751859
ηνα 1
ηξε 1
συντεταγ@@ 1
τραυ@@ 1
Bros 1
CO2 1
Volkswagen 1
du@@ 0.09035364981995848
Οκτ@@ 1
άντιο 1
κάλεσαν 1
όμιλ@@ 1
Internet 0.2223693953638989
Power 0.25409831420587264
ats@@ 0.31422076162044543
etta 0.2733946787418917
ill@@ 0.07243610976795031
εύθυν@@ 1
νακας 1
Science 0.14218302571325486
Song 0.19209217188667668
γκαρ@@ 1
διάρκ@@ 1
ile 0.045717217493591984
Ραφ@@ 1
1300 0.9529002653519784
NA 0.43095044162875223
Ru@@ 0.14835815983715725
ones 0.07594045385692842
στριας 1
τάται 1
1787 0.8767466639639706
Fire 0.34839282632489676
La@@ 0.162380815981587
ῷ 1
Hol@@ 0.10823278943021775
Johann 0.1395691457899431
Post 0.18252419334436715
Τζάκ@@ 1
νορ@@ 1
1400 1
AM@@ 0.31232343621182296
AR 0.44456399176117517
Off 0.7677591467911544
tor@@ 0.07242362710104983
1772 1
Dec@@ 0.15923726877736516
Kon@@ 0.10625282564338684
Lu@@ 0.1534202680350781
RAF 0.5175188308120379
ίκος 1
αγό@@ 1
κατεδ@@ 1
νομής 1
DE@@ 0.3892421235059888
Walt 0.787386870970698
house 0.051762972974857484
Blues 0.4434683752071279
TS 0.5530362399055659
ελεγ@@ 1
Four 0.25996177586270125
Ανω@@ 1
πτώσεις 1
Audi 1
Girl 0.388263941074968
Wal@@ 0.11225463476407309
ure 0.06743305345829086
ō 0.17209956765593748
δοση 1
ann@@ 0.11462090221110004
ομώνυμ@@ 1
ὺ@@ 1
Alexander 0.1247743935813465
ex 0.141996874490331
AM 0.27357573383964645
Research 0.13569238745121384
tin 0.09785657294129213
ë@@ 0.4519278983820523
Οικογέν@@ 1
άνδρ@@ 1
Bas@@ 0.1378531191610239
Is@@ 0.10416245266983978
State 0.037084422205918066
ics 0.08713919384541004
Πακ@@ 1
6,5 1
tro 0.2469393527581067
ys 0.10748228510523718
Αμερ@@ 1
115@@ 1
18,@@ 0.7056231845327187
Championship 0.07892634700657596
Giovanni 0.40120343927443397
Woman 0.5270114485024906
σκολ@@ 1
111 0.6900243427674572
121 0.838014906019108
2.0@@ 1
306 1
ta@@ 0.11260950242535521
τέχ@@ 1
ὰ@@ 1
γύρ@@ 1
παραιτ@@ 1
1774 0.9895274858702253
Theatre 0.1700970955211526
ang@@ 0.05240747501552131
iPhone 1
201 1
Brown 0.13882658671611095
Class 0.3145601183064738
Sports 0.19251022436411114
Vo@@ 0.21025989726171218
ba 0.10637426028141857
ken 0.06176004932616805
less 0.06491064754715378
συμμετ@@ 1
1648 1
Osbourne 1
Si 0.18560984530249652
T1 1
sk@@ 0.08575792250484689
1,8 1
1.5@@ 1
1785 0.9010661042334981
Christian 0.08463881476971434
Foundation 0.17342733726089044
he@@ 0.06472250402592641
Άξ@@ 1
Λισ@@ 1
κλάδ@@ 1
φε@@ 1
Ter@@ 0.13513175517479079
ical 0.04914788236176726
οπολι@@ 1
270 0.9797770471384608
Far@@ 0.15204119747882885
Lady 0.212102932253202
εξάπλ@@ 1
λάχ@@ 1
Albert 0.15512873109689249
μώ@@ 1
000@@ 1
Century 0.5079601297592266
Sky@@ 0.5780506474642542
Ur@@ 0.1116952202036982
die 0.002035661391212246
ds 0.08957929881930617
Inc 0.873564195885288
Network 0.23744779062724727
É@@ 0.09485554999241098
Blood 0.665181454772486
ito 0.12480785515754522
έροντα 1
3,4 1
ενδιά@@ 1
ούλιο 1
32@@ 1
Mil@@ 0.1258586701609019
TE@@ 0.41662440422144326
Θάνα@@ 1
διαπραγ@@ 1
εξίσ@@ 1
ὴ 1
76@@ 1
ante 0.041793414421646156
πλει@@ 1
Basketball 0.3531467072944847
Daily 0.39442633057378257
Ig@@ 0.4391101454520489
ico 0.10323665898594776
č@@ 0.1912764723671265
ə@@ 0.9418973718384638
Ηρά@@ 1
εξελί@@ 1
E.@@ 0.42704117885544773
Greece 0.3665083917359224
str@@ 0.052858739992836044
wood 0.09014012120633334
Αψ@@ 1
ίλου 1
φαρμά@@ 1
IT@@ 0.4244535064624644
North 0.03869675032429257
όδημ@@ 1
ώστου 1
850 1
ακολού@@ 1
′ 0.9398001158533014
San@@ 0.11941213486003828
heavy 0.1883612930101724
ters 0.08048209525929251
κό 1
τρόμ@@ 1
Greek 0.15055792989994152
its 0.008225929277394494
ō@@ 0.2405453569158075
βεζ@@ 1
βλάσ@@ 1
καλαθοσφαι@@ 1
114 0.7826192519475441
Model 0.42775790697772226
αίωνα 1
ελος 1
P. 0.16825231613133318
head 0.056341019796626784
χυση 1
1660 1
ber 0.08522368695104689
Βούλγα@@ 1
J.@@ 0.42550100200924357
Lin@@ 0.1385049094784631
Φρειδερ@@ 1
ανδρο 1
λείψ@@ 1
τζελ@@ 1
ὲ@@ 1
116 0.823532742381663
Division 0.05659428451903181
bl@@ 0.05375492509413134
ji 0.16787885099166155
lin 0.14175011203251758
ua 0.17792339823745812
Βουλγ@@ 1
Sabbath 1
sec 1
επένδυ@@ 1
Gen@@ 0.1095124687714706
Star@@ 0.2211593315745583
tis 0.16745784988787063
δεσπ@@ 1
ὅ@@ 1
Taylor 0.1944298354755057
ling 0.07201684675720031
ῆ@@ 1
118@@ 1
1577 1
Scott 0.15539622710047937
della 0.6369177511171742
βαλλον@@ 1
ρόμ@@ 1
απομπ@@ 1
επιχείρ@@ 1
καλλι@@ 1
ωνυμία 1
1.4@@ 1
οδοσία 1
ράκ 1
eta 0.11319213138286104
ge@@ 0.03546399053700037
βομβαρ@@ 1
μβέργης 1
cor@@ 0.05692611644199559
ny@@ 0.26016967805120783
φτ@@ 1
Cat@@ 0.17793851169304475
Motors 0.8380958726028448
ated 0.019395136152553553
ier 0.09753504701491117
επέτρ@@ 1
20,@@ 0.7145984459463938
55@@ 0.7086259884429187
CBS 0.37270742942370916
Em@@ 0.12609131935933982
Fi@@ 0.20685781941063253
ue 0.06662848307386961
Αμπν@@ 1
Η.Π.@@ 1
μυθιστόρ@@ 1
ότε 1
Nor@@ 0.1325686992719164
Sar@@ 0.11940885447804461
ba@@ 0.09538131567151027
type 0.07249389463099316
Νοσοκομ@@ 1
ύματος 1
1650 1
FBI 0.6762932447909992
Ly@@ 0.1769090607864741
ero 0.08416356455813583
ng@@ 0.15804805370261718
49@@ 0.537407419078179
πάρο@@ 1
υδρογ@@ 1
επεισοδ@@ 1
ευθείας 1
224 1
ISBN 1
Pre@@ 0.10940127389926527
όκα@@ 1
129 0.9086416928853466
ian 0.07967896609407461
lo 0.022041987746254627
ska 0.43745475966912395
ū@@ 0.2604977042944969
έκτημα 1
κατεύθυν@@ 1
Peugeot 1
e.@@ 0.9344985742195739
itz 0.1111152550711647
kW 0.648167349177581
Βουρ@@ 1
Hollywood 0.23857369348361473
South 0.02992104863999499
VII 0.289519363478865
ard@@ 0.11132540090096361
sc@@ 0.08690930284102398
CC@@ 0.3314394154592173
CH2 1
RT@@ 0.4368483298450015
set 0.04111070948469424
θεω@@ 1
κατασταθεί 1
τσέζ@@ 1
Ca@@ 0.26363566882794337
Museum 0.07893324703043267
Sam@@ 0.1267575199996
Απόλλ@@ 1
Jo@@ 0.16014090945184428
SUV 1
eo 0.13106019662565208
τει@@ 1
όσεις 1
1750 0.8879083507330273
370 1
Ga@@ 0.31806117795796157
Johnson 0.14248192556549694
ten@@ 0.050041573166289585
zi@@ 0.13056662731456348
μέγε@@ 1
υποστη@@ 1
χειρό@@ 1
Kn@@ 0.16693919464160312
Like 0.22996242509599635
Mi@@ 0.13213192796920367
RA 0.3733123855280526
Ri@@ 0.1115376438811904
eh@@ 0.06398177190539654
ville 0.03194380326658955
άιτ@@ 1
προϋπο@@ 1
υπάρ@@ 1
1640 1
ft 0.1259532329784587
είμενα 1
συγχών@@ 1
ј@@ 1
Κροατ@@ 1
1689 1
ning 0.23308033215948465
ow@@ 0.10218775750130414
‎ 1
Tar@@ 0.127462264938863
chart 0.19704676500036644
ze 0.095363895388042
Ανζ@@ 1
ουλίου 1
προσέγγι@@ 1
όρκ@@ 1
ћ 1
ap 0.16060269232000987
ul 0.1815344927681998
Όμ@@ 1
Ορλε@@ 1
124 0.7681786707521496
ung 0.0229335207321408
λέσ@@ 1
φεραν 1
Sa@@ 0.1308351092452392
aceae 0.17774404920456002
Νοσ@@ 1
Good 0.3129457822368193
Gre@@ 0.13072645123503324
inger 0.11004047840701164
ong 0.07272206069581283
ut 0.10981861043194951
γά 1
ρονόμ@@ 1
ist@@ 0.07731651736848745
model 0.10965719211748765
ru@@ 0.06168843386681967
κάστ@@ 1
τανε 1
ո@@ 1
CN@@ 0.4465333608271129
Hard 0.8289541075653953
Sport 0.248658327968475
Year 0.14044479688490225
eth 0.3253053853422075
ies 0.0583905514429519
inus 0.34589472655735093
120@@ 1
Book 0.21137797611423684
Team 0.08785844015339608
VI@@ 0.4235023703787404
όκειται 1
Wall 0.42676731770549836
ž@@ 0.26175927834897994
Τοπο@@ 1
Τοποθε@@ 1
δημιούργ@@ 1
ναυπ@@ 1
East 0.056121533931775845
ra@@ 0.09776689381376177
École 0.29325579438991944
145 0.8222415013833945
3,3 1
τσεστερ 1
ῆς 1
150.000 1
195@@ 1
25.@@ 0.6622234174781173
Academy 0.08510285496913278
Back 0.3938990115262767
burg 0.10047633544926855
Intel 0.9054706206908668
ray 0.3568313077072764
Mr 0.4877272289905416
Αμμ@@ 1
εμπνευ@@ 1
1784 0.7434307933725103
Williams 0.13533519222700888
ida 0.05937529466906528
ium 0.17836689043956028
ρόφ@@ 1
ր@@ 1
Ba@@ 0.1576030704498294
Earth 0.18178009941694925
uc@@ 0.13163213775084032
Ἐ@@ 1
Bell 0.271145245653801
Hotel 0.21346768224685658
aj@@ 0.09548373220313952
ax 0.2448398184335318
ula 0.2207624259973604
ó@@ 0.09173601257307963
άμερ 1
περιστασ@@ 1
307 1
Cro@@ 0.17511338710989782
βύ@@ 1
σεκατο@@ 1
1460 1
223 1
Ang@@ 0.11966098920450488
Fo@@ 0.18465190119097663
web 0.21282203011354558
400.000 1
Air@@ 0.2548469821149688
I.@@ 0.49291007365949274
Stadium 0.1830179082601824
me@@ 0.06808334256199965
As 0.02637919993863974
Jack 0.1349299860058285
Light 0.2723168594528746
Pal@@ 0.11055282405184041
Βοσ@@ 1
αιοκαθολ@@ 1
αντιμετώπι@@ 1
καθιέρ@@ 1
Win@@ 0.17968677778997502
ang 0.06808033654107941
διαχεί@@ 1
1688 1
An 0.05335394799468239
Roll 0.792954054143893
Αργεντιν@@ 1
ειλαν 1
μβαναν 1
^ 1
dia 0.19840135686482355
στρέ@@ 1
0,1 1
Chi@@ 0.1378510241635777
DP 0.3912850240055086
Washington 0.06361855852620765
ali 0.15481128673051683
aria 0.10568615079082193
ī@@ 0.3533668590916075
αντά 1
Wi@@ 0.21347042582731193
dy 0.14373112485565398
Πρωτεύ@@ 1
αυτοκινη@@ 1
επικίν@@ 1
MC 0.3395132829583341
Θρά@@ 1
Cu@@ 0.14202952609045724
Ke@@ 0.11725573619852465
Series 0.12400685394783433
Twitter 0.5257661847626858
ath@@ 0.11258592296724941
lin@@ 0.07883160151852647
άληψη 1
έκρη@@ 1
ερμή@@ 1
U21 1
ich 0.08511099084107022
ko@@ 0.1580779981297768
man@@ 0.05460219141814103
ts@@ 0.06941070113186779
175 0.7619442649599509
340 1
Black@@ 0.29018612509128233
DA 0.34723897911950224
Dem@@ 0.16309745602686654
Do 0.263611672639101
STS 1
la@@ 0.12275737394530194
mRNA 1
my 0.1276179628135726
αλάσ@@ 1
Bon@@ 0.1705039315232692
Sega 1
ame 0.15265483932975632
έντε@@ 1
λίγκα 1
μμύρια 1
παγκοσμ@@ 1
118 0.7860317573385877
1570 1
1776 0.722705725333399
God 0.16448268511256825
ler@@ 0.07705993760046322
άφη 1
βγή@@ 1
οδήγηση 1
στιχ@@ 1
8,5 1
Gra@@ 0.36378392322691766
ace 0.1290416375224622
ains 0.10381328671413434
όδευ@@ 1
AP 0.27905810124391806
ασυνήθ@@ 1
1.8@@ 1
Sur@@ 0.12356565471108147
Ϊ 1
καλλιτέχ@@ 1
Chicago 0.08553028033987504
επίλ@@ 1
Frank 0.12369780966464428
for@@ 0.0380024911328309
mol 1
val@@ 0.12061497228915792
Βαθμ@@ 1
Νικόλα@@ 1
άρμο@@ 1
1450 1
Orchestra 0.303674602506221
UK 0.0791432281738509
ish@@ 0.1094769780697374
you 0.09020786750299403
Χίτ@@ 1
ωλ 1
р@@ 0.0830524015198166
1.6@@ 1
113 0.677451437634665
Por@@ 0.11543338730920016
ology 0.05865790376855
Γιώργ@@ 1
168 1
Daniel 0.12034054778972546
Raw 0.7124599180273616
TA 0.29674489480454547
επιστήμια 1
σκεψη 1
Pir@@ 0.27530585851142936
eri 0.17097283827809143
νακο@@ 1
στελέχ@@ 1
Long 0.1435241451256137
Prix 0.142979444758461
Sw@@ 0.16014869196902354
cu@@ 0.06325363400242155
ky 0.12184164299785
mer@@ 0.047450687032591865
ser 0.034876058186025766
καθεστώ@@ 1
κατηγόρ@@ 1
68@@ 0.7485609347855342
Golden 0.19022237241980974
ash@@ 0.1232271165361845
2.0 0.563883930769515
ast 0.11603299373988289
iss@@ 0.1287140590493707
άχα 1
AF 0.38403809328404015
Get 0.6423764770053492
he 0.003889577914020598
ich@@ 0.09081313401890112
έπει@@ 1
ωνστ@@ 1
1550 1
380 0.9487830348328697
Angel 0.449418691662628
Gro@@ 0.15941719400449597
tus 0.26041712584685467
1775 0.6932523328075247
AU 0.7580122215583682
ανεπάρκ@@ 1
ουνίου 1
ᾶ@@ 1
Are 0.584049037530255
First 0.0696153850854202
Gl@@ 0.1563952487672121
Hans 0.1288190400691517
NS@@ 0.3846091876861973
Εκπαι@@ 1
Φραντσ@@ 1
όκιο 1
24.@@ 0.6131071462482157
960 1
Games 0.10428549185827486
cr@@ 0.0437069062045645
Πολλ@@ 1
Dom@@ 0.14272177393037344
αγάπ@@ 1
1620 1
Force 0.09727896301374045
air 0.061436435504000776
§ 0.5107542103363615
οικογέν@@ 1
58@@ 0.8338196381625731
Business 0.1954326034797905
Deutsche 0.203183902162413
ex@@ 0.030893763898015306
pro@@ 0.06790891195716021
way 0.03119662223684454
ολικά 1
250.000 1
ET 0.653898002254636
ius 0.22657689969878575
oh@@ 0.11815421887439091
αϊμ 1
εγχ@@ 1
θερμοκρα@@ 1
GA 0.5838179869635692
ée 0.017610957520072978
Ειρην@@ 1
ακρίβ@@ 1
Δόξ@@ 1
ησί@@ 1
ξιος 1
155 0.7959719437091857
25,@@ 0.7517796790131857
67@@ 0.8598307519404214
Digital 0.34086167857044686
Line 0.12354344338332886
Sky 0.37384138296345437
That 0.12777332255554513
ami 0.14095449222050427
άρθρω@@ 1
ουπόλεως 1
χιλιο@@ 1
1.9@@ 1
Az@@ 0.14525499665204428
Mur@@ 0.12152877421534448
έλλει@@ 1
διατριβ@@ 1
ebo@@ 0.3673885214550072
ori 0.20069601882758611
è@@ 0.21102345386244817
TV@@ 0.3534885202150085
az 0.1305976120116916
more 0.013464255280972792
εδίου 1
τορίας 1
≡ 1
PE@@ 0.4612870485490855
ve@@ 0.11164496700070202
εσαν 1
122 0.7163336206034122
1530 1
80.000 1
Ap@@ 0.1266984463241602
BC 0.15046776951711532
Cer@@ 0.14279299653284694
RAS 1
αυτοκίν@@ 1
βούργ@@ 1
γενέστερα 1
σινγκ@@ 1
ταθλ@@ 1
217 1
Cos@@ 0.207362613423533
M.@@ 0.27687630776332617
Καλαθ@@ 1
aro 0.21439268616047363
Βρετάν@@ 1
ανεγέρ@@ 1
προετο@@ 1
CS@@ 0.2866015979775238
People 0.13294100455399727
Two 0.09629609058312194
ητη@@ 1
λυμπ@@ 1
Carl 0.14127386686025767
Rotten 0.8069995749342973
net 0.1288698081368104
zi 0.2352860854698524
Επιχείρ@@ 1
ίδρ@@ 1
απόγ@@ 1
θελον@@ 1
Bill 0.1318127151470291
Cy@@ 0.24672174583340997
VA 0.4448421557493868
Bol@@ 0.15900242167336556
Der 0.011511994565950472
GB 0.3795997480126314
ci 0.06807363215819902
Ασφαλ@@ 1
Δυνα@@ 1
Τάγ@@ 1
άσκετ 1
κατακ@@ 1
1.7@@ 1
ille 0.09869318536351043
pa 0.13876154778099517
1758 1
22,@@ 0.7334673660859157
Fer@@ 0.14332329434152577
Ltd 0.3177552112219338
Magazine 0.2382832120926704
Rem@@ 0.17380401481427052
stein 0.09349834586128859
ίστα@@ 1
Heaven 0.7781456715909376
ack 0.14461255379732388
Ακου@@ 1
επανειλημ@@ 1
ρίτερα 1
Cel@@ 0.2356559675422838
Let 0.43433734400628005
Walter 0.13641817787314492
domain 0.43214102870201143
ela 0.11560690196160704
Ρώ@@ 1
[...]
