. 0.9227330084387807
، 1
في 1
من 1
على 1
( 1
) 1
إلى 1
&quot; 0.41469471575876693
وال@@ 1
ب@@ 1
ل@@ 1
لل@@ 1
أن 1
عام 1
هو 1
التي 1
مع 1
: 1
ي@@ 1
عن 1
أو 1
و 1
و@@ 1
ك@@ 1
كان 1
أ@@ 1
ما 1
الم@@ 1
هي 1
ه 1
المتحدة 1
بعد 1
ف@@ 1
ت@@ 1
بين 1
« 1
» 1
ها 1
ي 1
الذي 1
ين 1
وت@@ 1
الت@@ 1
ذلك 1
هذه 1
وي@@ 1
ه@@ 1
تم 1
هذا 1
لا 1
- 1
الأ@@ 1
غ@@ 1
حيث 1
كانت 1
ولد 1
وم@@ 1
ية 1
@-@ 0.15946805978261858
الح@@ 1
قبل 1
وقد 1
خلال 1
الولايات 1
بي@@ 1
ح@@ 1
إ@@ 1
لي@@ 1
بن 1
سي@@ 1
كما 1
ة 1
ان 1
ًا 1
د@@ 1
وأ@@ 1
هم 1
ع@@ 1
ج@@ 1
ق@@ 1
ش@@ 1
وفي 1
ز@@ 1
سنة 1
في@@ 1
الس@@ 1
ون 1
قد 1
ال@@ 1
الع@@ 1
ري@@ 1
لم 1
ص@@ 1
والم@@ 1
له 1
ن@@ 1
غير 1
م 1
مثل 1
وب@@ 1
ط@@ 1
م@@ 1
الق@@ 1
الف@@ 1
ت 1
وهو 1
كل 1
عدد 1
س@@ 1
/ 1
مي@@ 1
حتى 1
ته 1
ك 1
ان@@ 1
دي 1
را@@ 1
ين@@ 1
دي@@ 1
الج@@ 1
كرة 1
ب 1
ا 1
لا@@ 1
الك@@ 1
وا@@ 1
ات 1
ثم 1
ى 1
ور@@ 1
رو@@ 1
ر@@ 1
ون@@ 1
الب@@ 1
المملكة 1
ست@@ 1
ق 1
ث@@ 1
لاعب 1
بعض 1
أكثر 1
أمريكي 1
يمكن 1
الش@@ 1
الن@@ 1
ول@@ 1
س 1
ل 1
وهي 1
ر 1
بي 1
د 1
ض@@ 1
لها 1
– 0.6507183997267669
لة 1
أنه 1
بشكل 1
% 1
يا 1
الص@@ 1
خ@@ 1
وس@@ 1
ار@@ 1
ف 1
است@@ 1
تي@@ 1
تها 1
أي 1
الإ@@ 1
ير 1
ن 1
تش@@ 1
وق@@ 1
ز 1
ع 1
سي 1
اً 1
مة 1
بة 1
قدم 1
ني@@ 1
من@@ 1
مدينة 1
رة 1
؛ 1
وك@@ 1
الخ@@ 1
عة 1
وكان 1
تح@@ 1
عبد 1
بها 1
, 0.015506932264794316
لي 1
الر@@ 1
يتم 1
لو@@ 1
ال 1
العديد 1
بال@@ 1
الد@@ 1
ّ@@ 1
أخرى 1
تر@@ 1
دة 1
والتي 1
1 0.755501978859895
يل 1
أول 1
وج@@ 1
مو@@ 1
به 1
بر@@ 1
القرن 1
يد 1
مت@@ 1
ج 1
ار 1
وا 1
تحت 1
ومن 1
مارس 1
ح 1
نادي 1
ور 1
الأول 1
مجلس 1
فيها 1
عندما 1
هناك 1
عشر 1
ولكن 1
الط@@ 1
وح@@ 1
ام@@ 1
بسبب 1
العالم 1
محمد 1
حسب 1
الذين 1
تي 1
منذ 1
ذ@@ 1
مركز 1
تق@@ 1
يكون 1
مح@@ 1
مر@@ 1
الأولى 1
أن@@ 1
رات 1
يات 1
منها 1
2 0.7452119364770532
وتوفي 1
العام 1
جميع 1
غ 1
مع@@ 1
يت@@ 1
عند 1
بو@@ 1
الي@@ 1
ط 1
3 0.8858142854039927
أيضًا 1
أحد 1
الغ@@ 1
لعب 1
جي@@ 1
قة 1
نسمة 1
اني 1
الله 1
اب@@ 1
مي 1
ش 1
كي@@ 1
تم@@ 1
تع@@ 1
اء 1
المح@@ 1
إي@@ 1
2004 1
مرة 1
جامعة 1
حول 1
وف@@ 1
المع@@ 1
الحرب 1
بن@@ 1
ري 1
الأمريكية 1
رية 1
با@@ 1
وع@@ 1
مايو 1
اد@@ 1
زي@@ 1
لات 1
ما@@ 1
ات@@ 1
يُ@@ 1
مجموعة 1
هي@@ 1
تلك 1
حة 1
يناير 1
تف@@ 1
منطقة 1
دون 1
تكون 1
فبراير 1
وص@@ 1
ول 1
ير@@ 1
ود@@ 1
تك@@ 1
علي 1
المت@@ 1
أبريل 1
نا@@ 1
يوم 1
أكتوبر 1
4 0.8753128532431647
ني 1
فقد 1
إلا 1
آ@@ 1
ُ@@ 1
وس 1
مان 1
&#93; 1
الثاني 1
الز@@ 1
&#91; 1
رين 1
بـ 1
فة 1
ام 1
يونيو 1
ولا 1
شي@@ 1
اله@@ 1
العمل 1
يوليو 1
سياسي 1
اي@@ 1
ديسمبر 1
عضو 1
وإ@@ 1
سبتمبر 1
يين 1
يقع 1
لكرة 1
شركة 1
العربية 1
مما 1
فيه 1
اف@@ 1
تين 1
لية 1
قي@@ 1
دية 1
اس@@ 1
فر@@ 1
نة 1
عليه 1
أنها 1
كي 1
5 0.9466451721039991
لت@@ 1
دا 1
نوفمبر 1
القدم 1
فإن 1
ولاية 1
َ@@ 1
اع@@ 1
إن 1
أغسطس 1
تو@@ 1
اد 1
ضد 1
وي 1
6 0.9854106778523541
عدة 1
بح@@ 1
بار@@ 1
طريق 1
ث 1
فقط 1
ارة 1
الأخرى 1
المدينة 1
مست@@ 1
بدأ 1
سك@@ 1
الوقت 1
ذات 1
مس@@ 1
10 0.964250358289659
مية 1
والأ@@ 1
تن@@ 1
عمل 1
المست@@ 1
مار@@ 1
تُ@@ 1
تص@@ 1
علم 1
ود 1
أما 1
بل@@ 1
إحدى 1
سل@@ 1
اس 1
أكبر 1
باسم 1
المنطقة 1
فية 1
بت@@ 1
يق@@ 1
نا 1
ائ@@ 1
دا@@ 1
مج@@ 1
بما 1
رت 1
إذا 1
حالة 1
الحزب 1
أر@@ 1
استخدام 1
بع@@ 1
المص@@ 1
ارات 1
الاست@@ 1
ص 1
يه 1
وكانت 1
ند@@ 1
عليها 1
وذلك 1
سب@@ 1
نظام 1
انية 1
وش@@ 1
حين 1
مق@@ 1
.@@ 1
عبر 1
لكن 1
والذي 1
رئيس 1
كبير 1
ا@@ 1
هما 1
أيضا 1
جون 1
بد@@ 1
حوالي 1
مص@@ 1
ّ 1
قام 1
ٍ 1
الل@@ 1
نفس 1
الرسمي 1
الثانية 1
ةً 1
يع@@ 1
تا@@ 1
آخر 1
أل@@ 1
عل@@ 1
عي 1
واحد 1
مقاطعة 1
وه@@ 1
20 1
8 1
الحكومة 1
اسم 1
مل@@ 1
لت 1
َّ@@ 1
اب 1
ضمن 1
ِ@@ 1
جهة 1
بالإضافة 1
وم 1
مواليد 1
الرغم 1
يت 1
تج@@ 1
أس@@ 1
يك@@ 1
ونادي 1
7 0.9743967932931267
يس 1
بية 1
سن@@ 1
المن@@ 1
بإ@@ 1
فترة 1
لإ@@ 1
يًا 1
وجود 1
الي 1
عملية 1
15 1
لق@@ 1
العامة 1
ض 1
وية 1
داخل 1
الث@@ 1
مُ@@ 1
لك@@ 1
فيلم 1
12 1
يقدر 1
بري@@ 1
حي@@ 1
عية 1
مك@@ 1
كار@@ 1
تاريخ 1
دين 1
بات 1
الوطني 1
أثناء 1
بور@@ 1
ظ@@ 1
برا@@ 1
تب@@ 1
; 0.17508829218591868
ّة 1
بالت@@ 1
ينتمي 1
المغربية 1
جي 1
در@@ 1
را 1
للسكان 1
والإ@@ 1
أم@@ 1
تقع 1
تضم 1
شارك 1
واحدة 1
الية 1
بينما 1
مد@@ 1
لف@@ 1
اته 1
سن 1
ده 1
الض@@ 1
الدولة 1
العالمية 1
جنوب 1
كم 1
مش@@ 1
وري 1
لأ@@ 1
ورة 1
لسنة 1
تا 1
انتخب 1
المر@@ 1
الاتحاد 1
9 1
نية 1
بل 1
19 1
كبيرة 1
لح@@ 1
مه@@ 1
بط@@ 1
اليوم 1
إن@@ 1
نسبة 1
نحو 1
درجة 1
نشط 1
أجل 1
2010 0.8482775758054453
بأن 1
التعليم 1
ومع 1
الملك 1
بر 1
11 1
نوع 1
عم@@ 1
تد@@ 1
قية 1
إقليم 1
سنوات 1
الخاصة 1
الإحصاء 1
رون 1
سو@@ 1
مصر 1
لين 1
سة 1
اك@@ 1
هـ 1
30 1
فو@@ 1
أصبح 1
جن@@ 1
سون 1
دو@@ 1
يم 1
وقت 1
موسم 1
مات 1
نج@@ 1
ابن 1
تخ@@ 1
عين 1
14 1
16 1
معظم 1
عات 1
الحياة 1
برو@@ 1
ست 1
والسكنى 1
الة 1
الفترة 1
مون 1
كة 1
يون 1
اح@@ 1
كت@@ 1
الجيش 1
مؤ@@ 1
ولدت 1
حزبياً 1
قال 1
فرنسا 1
مان@@ 1
كس 1
الوطنية 1
18 1
فا@@ 1
منتخب 1
دات 1
دور 1
ائية 1
25 1
الو@@ 1
2013 0.988469387330536
وط@@ 1
ثلاثة 1
كل@@ 1
خ 1
يح@@ 1
أُ@@ 1
يو@@ 1
وز@@ 1
17 1
عمر 1
يست@@ 1
وغ@@ 1
فيما 1
الان@@ 1
اق@@ 1
راء 1
اه@@ 1
اف 1
13 1
تس@@ 1
نهاية 1
عد@@ 1
المُ@@ 1
مه 1
غي@@ 1
تون 1
شكل 1
ولم 1
الدين 1
كو@@ 1
يبلغ 1
الأرض 1
شر@@ 1
عت 1
نق@@ 1
سم 1
أبو 1
ائي 1
التاريخ 1
رب 1
مر 1
وبعد 1
أص@@ 1
للأ@@ 1
مين 1
ابة 1
دت 1
ـ@@ 1
&amp; 0.45823151841840143
كون@@ 1
اش@@ 1
الرا@@ 1
آيت 1
وض@@ 1
بلغ 1
ئة 1
كا 1
بطولة 1
بريطاني 1
2009 0.9173239756092423
21 1
تهم 1
مليون 1
2007 0.9677159840854868
الفيلم 1
أك@@ 1
فت@@ 1
ألمانيا 1
از@@ 1
حصل 1
2008 0.9041990918143783
ينا 1
أحمد 1
بني 1
بالم@@ 1
سية 1
نو@@ 1
مت 1
جة 1
خاصة 1
بت 1
وان@@ 1
سم@@ 1
والح@@ 1
لو 1
أ 1
أي@@ 1
كية 1
يجب 1
مختلفة 1
دو 1
حزب 1
المق@@ 1
إل@@ 1
الآن 1
بدأت 1
بناء 1
ليس 1
كتاب 1
عي@@ 1
وب 1
24 1
اللغة 1
عدم 1
وت 1
سكانها 1
طة 1
2016 0.8767115961598914
المس@@ 1
الأمريكي 1
وعلى 1
فر 1
الثالث 1
لعام 1
كر@@ 1
توفي 1
المركز 1
يوجد 1
إنتاج 1
كأس 1
َ 1
أح@@ 1
السكان 1
حر@@ 1
نفسه 1
بق@@ 1
تز@@ 1
2006 0.9301214420721698
ادة 1
لمدة 1
كتب 1
اري 1
سكانه 1
جو@@ 1
ئ@@ 1
إذ 1
واست@@ 1
ترا@@ 1
خط@@ 1
الدوري 1
دها 1
يش@@ 1
بأ@@ 1
جديدة 1
اج@@ 1
مز@@ 1
2011 0.7463241215099649
البي@@ 1
حص@@ 1
يو 1
برنامج 1
الشيخ 1
ته@@ 1
عادة 1
شمال 1
المج@@ 1
دير 1
فق@@ 1
بجماعة 1
يني 1
النظام 1
لدى 1
حد 1
22 1
23 1
أنواع 1
تو 1
إدارة 1
أيضاً 1
ضة 1
يف@@ 1
ئ 1
سكان 1
انا 1
قرية 1
المش@@ 1
الدوّار 1
مل 1
أفضل 1
لمشيخة 1
دُوَّار 1
حي 1
وكذلك 1
اص@@ 1
اط@@ 1
وات 1
القوات 1
شه@@ 1
اة 1
الرئيس 1
أوروبا 1
الكويكب 1
رب@@ 1
اتها 1
از 1
الآ@@ 1
ولا@@ 1
وما 1
مباراة 1
دار 1
فريق 1
مها 1
كان@@ 1
ابات 1
مجال 1
2012 0.7614193775459719
منه 1
بش@@ 1
ء 1
تت@@ 1
شخص 1
الأطفال 1
وتح@@ 1
أمريكية 1
أصبحت 1
منصب 1
زي 1
ظهر 1
كندا 1
القانون 1
ينة 1
الرئيسي 1
كلية 1
دولة 1
المناطق 1
سبيل 1
زة 1
ولي 1
البلاد 1
عرض 1
تض@@ 1
الجديدة 1
النساء 1
وتم 1
السي@@ 1
نشر 1
حية 1
عالم 1
شا@@ 1
2000 0.9461335036538298
نف@@ 1
هار@@ 1
الشمالية 1
قي 1
ولة 1
دًا 1
قانون 1
عه 1
ُ 1
مسيرته 1
القديمة 1
للإ@@ 1
الشركة 1
مث@@ 1
الدولي 1
عب@@ 1
لهم 1
الدولية 1
27 1
شرق 1
ره 1
_ 0.778884670477665
وف 1
مغ@@ 1
اغ@@ 1
المؤ@@ 1
سلسلة 1
28 1
لان@@ 1
26 1
نس@@ 1
ثلاث 1
البحر 1
بواسطة 1
الكثير 1
نه@@ 1
الغربية 1
أعمال 1
كو 1
انة 1
راً 1
أقل 1
2015 0.7223491806316632
بداية 1
موقع 1
قائمة 1
بان@@ 1
يم@@ 1
نيويورك 1
حركة 1
لاً 1
الناس 1
أو@@ 1
جانب 1
2014 0.7032756725626632
خي@@ 1
العربي 1
2005 0.9313669702841813
عاماً 1
التح@@ 1
الدول 1
مستوى 1
تل@@ 1
َّة 1
أعلى 1
الاسم 1
لم@@ 1
وحدة 1
فوق 1
الإنسان 1
فات 1
الأعمال 1
فاز 1
مدرسة 1
داً 1
الات 1
محافظة 1
نش@@ 1
اللا@@ 1
دولار 1
ادات 1
لين@@ 1
تتبع 1
طر@@ 1
الهند 1
لان 1
دائرة 1
الطاقة 1
صي@@ 1
يلعب 1
منظمة 1
وار@@ 1
ارية 1
الأمر 1
دان 1
مط@@ 1
المثال 1
المياه 1
فري@@ 1
وري@@ 1
المغ@@ 1
حياته 1
المجلس 1
عر@@ 1
وخ@@ 1
يف 1
ادية 1
مب@@ 1
فل@@ 1
ِّ@@ 1
الدفاع 1
ذكر 1
-@@ 1
مون@@ 1
الفي@@ 1
وضع 1
البر@@ 1
وزارة 1
جر@@ 1
الاجتماعية 1
لأن 1
الذ@@ 1
أخ@@ 1
أد@@ 1
كور@@ 1
فت 1
قص@@ 1
كر 1
29 1
بات@@ 1
بول@@ 1
تر 1
داء 1
المجتمع 1
وهذا 1
يكن 1
ولي@@ 1
باستخدام 1
لب 1
ينية 1
نظ@@ 1
مض@@ 1
تل 1
الرئيسية 1
إعادة 1
جر 1
العشرين 1
لوا 1
قب@@ 1
نتيجة 1
مف@@ 1
سين 1
تصنيف 1
نقل 1
ثة 1
العسكرية 1
اخت@@ 1
دراسة 1
الجنوبية 1
بالإ@@ 1
ممثل 1
لف 1
المرأة 1
وين@@ 1
سان@@ 1
الأكثر 1
منهم 1
المه@@ 1
با 1
السياسية 1
يك 1
الكتاب 1
جائزة 1
سر@@ 1
سان 1
لكل 1
جوائز 1
التع@@ 1
يل@@ 1
بيل 1
وث@@ 1
فين 1
بين@@ 1
جمهورية 1
خارج 1
&apos; 0.13913626659337666
الفرنسية 1
أث@@ 1
الدم 1
سر 1
رقم 1
كانوا 1
يس@@ 1
داد 1
ياً 1
قد@@ 1
قامت 1
درا@@ 1
= 0.935410780557223
رها 1
سا@@ 1
أق@@ 1
مخ@@ 1
تور@@ 1
الصين 1
شهر 1
لذلك 1
الأر@@ 1
ورية 1
المط@@ 1
الشرقية 1
2003 1
2020 0.7383896632047078
الجديد 1
لهذا 1
مور@@ 1
دون@@ 1
يعتبر 1
در 1
الألعاب 1
حالات 1
أمام 1
المخ@@ 1
قر@@ 1
جورج 1
بالنسبة 1
شار@@ 1
2017 0.657685722599161
شع@@ 1
أغ@@ 1
قسم 1
حرب 1
كام@@ 1
السعودية 1
للا@@ 1
٪ 1
التر@@ 1
المعلومات 1
جمعية 1
ادي 1
هر 1
يلي 1
شي 1
اللي@@ 1
تعتبر 1
ينات 1
وني 1
وله 1
خر@@ 1
نز@@ 1
أولاد 1
قل 1
أدى 1
الحكم 1
يز@@ 1
تستخدم 1
غرب 1
السابق 1
وسط 1
البريطانية 1
الحركة 1
كذلك 1
متر 1
جزء 1
وسي@@ 1
بأنه 1
كلي@@ 1
والع@@ 1
رج@@ 1
أشهر 1
به@@ 1
لندن 1
يب 1
خص@@ 1
أربعة 1
الإسلامية 1
التالية 1
بير@@ 1
أمريكا 1
خط 1
السل@@ 1
ؤ@@ 1
كريكت 1
إنشاء 1
يز 1
النا@@ 1
أور@@ 1
فا 1
تطوير 1
نت 1
اض@@ 1
زا 1
ذا 1
جو 1
زيادة 1
طل@@ 1
الشرق 1
رار 1
قط@@ 1
جان@@ 1
هدف 1
والت@@ 1
نهر 1
قل@@ 1
اي 1
ومن@@ 1
أصل 1
أستراليا 1
جيمس 1
عبارة 1
جه@@ 1
انتقل 1
مكان 1
الرو@@ 1
كندي 1
تقدم 1
حكم 1
أهم 1
عها 1
فار@@ 1
التالي 1
وبالتالي 1
يستخدم 1
بلا@@ 1
تست@@ 1
يقوم 1
العليا 1
مال@@ 1
العراق 1
وبة 1
كن 1
وار 1
مرا@@ 1
الصحة 1
كري@@ 1
عمليات 1
او@@ 1
رًا 1
إس 1
هيئة 1
2002 0.8824792951264112
السنة 1
كويكبات 1
المواد 1
اله 1
قوة 1
سجل 1
دف@@ 1
أش@@ 1
وفي@@ 1
تعداد 1
2018 0.5785496916120815
.. 1
ممثلة 1
نص@@ 1
لون 1
... 1
سين@@ 1
اوي 1
مشروع 1
رجل 1
الجزء 1
دوار 1
قاعدة 1
رس@@ 1
العاصمة 1
عنه 1
عد 1
فور@@ 1
الجامعة 1
لاند 1
الخلايا 1
ميل 1
حكومة 1
نت@@ 1
حد@@ 1
أفريقيا 1
طول 1
الجمعية 1
جزيرة 1
أعضاء 1
روا 1
يون@@ 1
قه 1
ذ 1
جل@@ 1
التص@@ 1
قصة 1
بص@@ 1
المي@@ 1
يخ@@ 1
2019 0.6034105226576547
الماء 1
جية 1
توجد 1
صغيرة 1
جين 1
2001 0.8469749568904381
القرية 1
الدي@@ 1
لأول 1
تعلم 1
الحديث 1
عهد 1
إليه 1
العلمي 1
حدث 1
ويمكن 1
التاسع 1
تشمل 1
اما 1
مناطق 1
تحديد 1
31 1
100 0.8057677710053612
مجلة 1
كون 1
أنحاء 1
الشخصية 1
يعمل 1
المختلفة 1
عص@@ 1
وأن 1
الفرنسي 1
الجزائر 1
ويل 1
أهل 1
جل 1
وفق 1
حياة 1
العلوم 1
حات 1
الديمقراطي 1
معركة 1
ألف 1
عقد 1
وسياسي 1
التابعة 1
ترك 1
البحرية 1
الرابع 1
الحالات 1
تعمل 1
المجموعة 1
العصر 1
مرحلة 1
بيت 1
تط@@ 1
بالأ@@ 1
النوع 1
دين@@ 1
جديد 1
سطح 1
وجه 1
دد 1
اليد 1
خت@@ 1
الموقع 1
ٌ 1
يرا 1
كرا@@ 1
قوات 1
غرا@@ 1
المدرسة 1
قات 1
المز@@ 1
بان 1
ملك 1
حل 1
طي@@ 1
يان 1
طلب 1
ويليام 1
البل@@ 1
غري@@ 1
الخاص 1
الأخيرة 1
حقوق 1
اع 1
شو@@ 1
ونية 1
التجارية 1
وَ@@ 1
ورا@@ 1
ارد 1
مختلف 1
إسبانيا 1
انه 1
فه 1
توضيح 1
ضية 1
صح@@ 1
سل 1
إضافة 1
الألمانية 1
الدراسات 1
عائلة 1
هن 1
وتع@@ 1
المحلية 1
الاجتماعي 1
روسيا 1
إيطاليا 1
اليابان 1
ثر 1
جان 1
لويس 1
تقوم 1
أف@@ 1
الشمس 1
قائ@@ 1
الخارجية 1
شخصية 1
سب 1
العملية 1
المك@@ 1
أفلام 1
لال 1
البعض 1
دع@@ 1
العظمى 1
وة 1
عُ@@ 1
صل 1
الأشخاص 1
المف@@ 1
اه 1
دورة 1
معه 1
تأثير 1
البحث 1
يؤدي 1
بار 1
مصطلح 1
وادي 1
وى 1
نطاق 1
وغيرها 1
هام 1
والد@@ 1
الأح@@ 1
الفريق 1
إليها 1
زل 1
كول@@ 1
ِ 1
سبب 1
العلاج 1
ظهرت 1
فض@@ 1
الهجوم 1
قت 1
رك@@ 1
وفاة 1
الوسط 1
يه@@ 1
المغرب 1
دى 1
اح 1
ند 1
طور 1
آل 1
أمر 1
كن@@ 1
اك 1
والده 1
عاد 1
دول 1
دن 1
ارا 1
باب 1
سع@@ 1
بول 1
هر@@ 1
سط@@ 1
العالمي 1
لغ@@ 1
شك@@ 1
النواب 1
نظرية 1
طريقة 1
وتر@@ 1
وتق@@ 1
ماء 1
الحديثة 1
الأراضي 1
الشمال 1
فين@@ 1
ترو@@ 1
وحتى 1
سيدي 1
صر 1
الأساسية 1
الفر@@ 1
ارت 1
1999 0.8413770279919353
الملكية 1
دخل 1
ةٍ 1
مرض 1
الكبير 1
باء 1
صدر 1
دار@@ 1
أج@@ 1
باريس 1
العمر 1
الأمير 1
الثورة 1
البرو@@ 1
الجسم 1
ماك@@ 1
نات 1
عب 1
الجنوب 1
يق 1
معسكر 1
البا@@ 1
أع@@ 1
امة 1
ـ 1
الحصول 1
تحتوي 1
وصف 1
أم 1
سام@@ 1
وزير 1
مؤسسة 1
يعد 1
مار 1
سابقاً 1
أيام 1
للح@@ 1
الكنيسة 1
الأم@@ 1
لديها 1
مذ@@ 1
تان 1
هة 1
بالق@@ 1
اتهم 1
فرقة 1
أواخر 1
دوري 1
نين 1
الأوروبي 1
الانتخابات 1
روس 1
ستون 1
لام 1
الام@@ 1
الحيوانات 1
جمع 1
شبكة 1
الاس@@ 1
ضي@@ 1
كثير 1
ء@@ 1
آسيا 1
تري@@ 1
عامي 1
ريك@@ 1
الجزيرة 1
تصل 1
واق@@ 1
عامة 1
50 0.8722941550010344
الدرجة 1
الميلاد 1
الجوية 1
خدمة 1
يري 1
طي 1
1998 0.8899364823466351
حسن 1
روبرت 1
عا 1
دور@@ 1
ندي 1
فرة 1
أبي 1
الداخلية 1
الكبرى 1
مسلسل 1
الحالة 1
الإمبراطورية 1
رأس 1
يوس 1
معهد 1
الأولمبية 1
وك 1
1990 0.8366106914981442
ستر 1
قين 1
قها 1
ريد 1
بعدها 1
جبل 1
تحقيق 1
تأ@@ 1
كوم@@ 1
المرحلة 1
السلطة 1
الوصول 1
البيانات 1
إسرائيل 1
تغ@@ 1
دعم 1
المنا@@ 1
علماء 1
رواية 1
حاليا 1
واسع 1
طات 1
لجنة 1
المد@@ 1
عنها 1
رق@@ 1
1996 0.9313753324269775
لق 1
كين@@ 1
السياسي 1
افة 1
الطب 1
كين 1
اعات 1
تصميم 1
الأمم 1
كاتب 1
فيروس 1
عط@@ 1
فرا@@ 1
مقابل 1
1992 0.953695638910053
خلالها 1
الطبية 1
فيل 1
لقد 1
عالية 1
تعد 1
الوسطى 1
حق 1
جم 1
بالقرب 1
الإنترنت 1
يني@@ 1
قناة 1
مًا 1
تقديم 1
طويلة 1
زم 1
وصل 1
العرب 1
اره 1
رام 1
انت@@ 1
بير 1
صناعة 1
جهاز 1
باً 1
الحدود 1
عيد 1
أفراد 1
عامًا 1
ملا@@ 1
وفقًا 1
أوائل 1
خاص 1
فن 1
سوريا 1
1997 0.9095651091695949
الإسلام 1
الصحية 1
بع 1
بلدية 1
لكنه 1
الإن@@ 1
بوت@@ 1
فون 1
المث@@ 1
عم 1
نى 1
الوزراء 1
لـ 1
الموسم 1
أس 1
وقال 1
صة 1
خرج 1
قيادة 1
ظل 1
الطبيعية 1
ودي@@ 1
وليس 1
ديد 1
راد 1
أة 1
تمثل 1
الشر@@ 1
هنري 1
اث@@ 1
البداية 1
التش@@ 1
الإنجليزية 1
أعلن 1
وسائل 1
له@@ 1
نصف 1
جنس 1
يّة 1
الألماني 1
البطولة 1
بلو@@ 1
هام@@ 1
الأكبر 1
نقطة 1
القر@@ 1
شبه 1
الشكل 1
المض@@ 1
مات@@ 1
ايا 1
حت 1
الأمن 1
الأن@@ 1
النادي 1
يص@@ 1
0 0.6268622522547777
كات@@ 1
اوية 1
اتحاد 1
الطريق 1
شيء 1
للو@@ 1
بحلول 1
سابق 1
الأس@@ 1
المسيحية 1
موا 1
ورد 1
إنجلترا 1
ظهور 1
للم@@ 1
ْ@@ 1
الشعب 1
اذ@@ 1
بك@@ 1
عشرة 1
يشير 1
لقب 1
بأنها 1
السابقة 1
عق@@ 1
وان 1
المصرية 1
جه 1
formula 0.5235960701590484
الخامس 1
gt 0.6113890895774642
معهم 1
رح@@ 1
دفع 1
عام@@ 1
روا@@ 1
ونة 1
المرض 1
المسلمين 1
مباشرة 1
جيش 1
والك@@ 1
يوم@@ 1
ائر 1
1991 0.9201359040695117
البريطاني 1
بهم 1
الموجودة 1
اليمن 1
اسية 1
سوق 1
الحرارة 1
التق@@ 1
1994 0.9047458718445528
مَ@@ 1
قيمة 1
بس@@ 1
الموا@@ 1
نفسها 1
وفاته 1
حجم 1
تار@@ 1
الأحيان 1
الجمهوري 1
كاليفورنيا 1
كامل 1
العلاقات 1
امي 1
المدارس 1
فان 1
سا 1
الدينية 1
تشير 1
تون@@ 1
معدل 1
تمت 1
يتبع 1
فئة 1
lt 0.6285778727487644
شاركت 1
ذو 1
بون@@ 1
سات 1
الها 1
وست@@ 1
اللعب 1
بالك@@ 1
عش@@ 1
أول@@ 1
طرق 1
البرلمان 1
فها 1
قرار 1
1995 0.8818386787976744
رك 1
كلمة 1
الصغيرة 1
اعة 1
يحدث 1
متوسط 1
رغم 1
وو@@ 1
برامج 1
يرة 1
الرجال 1
وهناك 1
خار@@ 1
جنسية 1
المكان 1
ألعاب 1
فع 1
الثالثة 1
القلب 1
خمسة 1
لاست@@ 1
1980 0.9342749354386476
إبراهيم 1
1993 0.9254209553342143
ماً 1
شركات 1
سوف 1
النظر 1
العلمية 1
الغربي 1
ناحية 1
يش 1
سيتي 1
جاء 1
الشركات 1
اعي 1
العزيز 1
الاقتصادية 1
بالع@@ 1
بغ@@ 1
قتل 1
النباتات 1
العمال 1
اسي 1
1989 0.98356606635211
لًا 1
اق 1
الصيفية 1
اط 1
طن 1
بذلك 1
الشرطة 1
يعرف 1
بط 1
تنظيم 1
؟ 1
رو 1
الحر@@ 1
اتي 1
سو 1
شر 1
لوس 1
سكي 1
اية 1
اج 1
ولكنه 1
تشكل 1
درس 1
ويُ@@ 1
انتخابات 1
اللجنة 1
of 0.00901541200429018
توماس 1
سلة 1
انيا 1
ديفيد 1
سام 1
يته 1
لهذه 1
لاحق 1
مساحة 1
الأسرة 1
اخ@@ 1
لما 1
سير 1
الأوروبية 1
الجهاز 1
بالح@@ 1
دل@@ 1
الجمهورية 1
بًا 1
قيم 1
النق@@ 1
أسرة 1
أه@@ 1
1988 1
الإشارة 1
اعية 1
الشعبية 1
بحيث 1
عمال 1
خان 1
حه 1
مدى 1
يكا 1
بريطانيا 1
سانت 1
بعة 1
بغداد 1
منتصف 1
زية 1
الطريقة 1
واء 1
قو@@ 1
العلماء 1
إجراء 1
معينة 1
رف 1
أعلنت 1
لن 1
خدم 1
كيف 1
إي 1
فهو 1
المدن 1
سوس 1
1984 1
أهمية 1
مرات 1
طلق 1
لصالح 1
السادس 1
يعني 1
بنسبة 1
تسمى 1
الخامسة 1
المتح@@ 1
فهي 1
الإنتاج 1
ربة 1
البط@@ 1
فلسطين 1
تبلغ 1
تظهر 1
خدمات 1
شة 1
الكبيرة 1
لِ@@ 1
غل 1
غر@@ 1
نها 1
انات 1
تحدث 1
1986 1
افي 1
العلم 1
يسمى 1
صف@@ 1
تحمل 1
ضع 1
قيد 1
وقف 1
مول@@ 1
بعنوان 1
جار@@ 1
ارتفاع 1
حق@@ 1
تأسيس 1
ديا 1
تس 1
تولى 1
لاح@@ 1
تش 1
علاج 1
لن@@ 1
politician 1
الشباب 1
تنفيذ 1
تعرف 1
أنهم 1
بلدة 1
تنا@@ 1
قر 1
تشارلز 1
الأحداث 1
40 0.8246855417618946
الثقافة 1
ذي 1
حدود 1
فهم 1
مهمة 1
مين@@ 1
2@@ 1
الجن@@ 1
خل@@ 1
سوي@@ 1
صورة 1
مدر@@ 1
ارب 1
أساس 1
هول@@ 1
مته 1
هل 1
محطة 1
بيع 1
منة 1
أوب@@ 1
10@@ 1
أشكال 1
مال 1
الآخر 1
جعل 1
هؤلاء 1
ريا 1
عًا 1
فكرة 1
هد 1
الواقع 1
الأسر 1
1982 1
التابع 1
لك 1
يقول 1
صحيفة 1
ائل 1
كات 1
فص@@ 1
يناهز 1
نقاط 1
يعود 1
1979 1
امات 1
صور 1
حصلت 1
باب@@ 1
أوك@@ 1
القديم 1
المعروف 1
عز@@ 1
يظهر 1
أغنية 1
1987 1
فرد 1
ائد 1
البرنامج 1
3@@ 1
تأسست 1
خو@@ 1
ضر@@ 1
المحيط 1
كرو@@ 1
باد@@ 1
المالية 1
وكاتب 1
المباراة 1
الإسلامي 1
وبين 1
رائ@@ 1
الا 1
تمكن 1
200@@ 1
ليون 1
1948 1
ها@@ 1
المحكمة 1
بِ@@ 1
رف@@ 1
الأق@@ 1
1985 1
الري@@ 1
أخذ 1
علاقة 1
1945 0.8709873933789172
فورد 1
تَ@@ 1
المصري 1
سيا 1
أحداث 1
السلام 1
ولية 1
لل 1
كتابة 1
امه 1
متعددة 1
غالبًا 1
دم 1
امية 1
بخ@@ 1
الأقل 1
المادة 1
ظه@@ 1
فن@@ 1
بو 1
المخت@@ 1
ريك 1
واسعة 1
الظ@@ 1
جا@@ 1
التن@@ 1
هير@@ 1
موا@@ 1
البيضاء 1
شري@@ 1
يحتوي 1
1970 0.9105939524758702
العق@@ 1
مجموعات 1
الخدمة 1
الهواء 1
بوب 1
والص@@ 1
وفر 1
رجال 1
ينغ 1
نه 1
بدون 1
ظر 1
إم 1
رد 1
قائد 1
الشرقي 1
تونس 1
بنفس 1
أهداف 1
الأنواع 1
ادت 1
معلومات 1
الأبيض 1
يصل 1
ومة 1
وين 1
منح 1
سرطان 1
القط@@ 1
فتح 1
الإعلام 1
متها 1
ونسبة 1
واشنطن 1
ئات 1
الطلاب 1
الأحمر 1
1967 1
التاريخية 1
ولها 1
البشرية 1
ورا 1
ناء 1
تكن 1
الحالي 1
القوة 1
ستة 1
وير 1
رض@@ 1
وحمل 1
ضي 1
1983 1
ائه 1
مير 1
جا 1
حض@@ 1
التقليدية 1
الصح@@ 1
قا 1
الأمراض 1
بَ@@ 1
والق@@ 1
الـ 1
المجال 1
نظر 1
لأنه 1
ورات 1
باللغة 1
فير@@ 1
يوسف 1
المستوى 1
الفنية 1
فول@@ 1
غا 1
وهم 1
الإدارة 1
جزر 1
ً 1
فيد 1
ثي 1
ربية 1
الثانوية 1
أربع 1
النهاية 1
الأخير 1
لبريطانيا 1
نسخة 1
ستي@@ 1
سون@@ 1
محاولة 1
1981 1
الدراسة 1
تحول 1
وأن@@ 1
المنش@@ 1
لغة 1
انو 1
الشخص 1
المتوسط 1
السنوات 1
عديدة 1
ماس@@ 1
التهاب 1
إيران 1
الغرب 1
ضم 1
عَ@@ 1
زات 1
وأيرلندا 1
الحكومية 1
شخص@@ 1
البشر 1
حسين 1
سياسة 1
! 0.5281591741911124
أند@@ 1
ابي 1
البار@@ 1
ظ 1
القاهرة 1
القصة 1
منع 1
والش@@ 1
بقيادة 1
نور@@ 1
الشه@@ 1
الثامن 1
هية 1
مسل@@ 1
مرك@@ 1
بشأن 1
بيانات 1
حب 1
دز 1
للت@@ 1
لى 1
ضغط 1
مدن 1
الرعاية 1
تغيير 1
العل@@ 1
طروادة 1
دمشق 1
السلطان 1
تركيا 1
كنيسة 1
قاد@@ 1
الماضي 1
إطلاق 1
جير@@ 1
الجنسية 1
الاقتصاد 1
ملة 1
بعضها 1
دوا 1
الرواية 1
واع@@ 1
مسي@@ 1
البيئة 1
الكويت 1
+ 0.8892129576713397
زين 1
عرف 1
ومؤ@@ 1
سواء 1
حم@@ 1
مياه 1
الفضاء 1
السياسة 1
للغاية 1
سار@@ 1
مدة 1
الاحترافية 1
وافق 1
اكتشف 1
تزال 1
عمل@@ 1
اند 1
لز 1
اللو@@ 1
ارها 1
النفس 1
خد@@ 1
1974 1
وني@@ 1
الخدمات 1
سميث 1
تعل@@ 1
نيو 1
رفض 1
سلام 1
اعد 1
ثي@@ 1
سلا@@ 1
يمي 1
1975 1
زر 1
يتعلق 1
الكتب 1
1978 1
دبليو 1
نغ@@ 1
ثورة 1
سعيد 1
مكتب 1
1976 1
جدا 1
أَ@@ 1
عن@@ 1
فيلد 1
يج@@ 1
اللون 1
واح@@ 1
جار 1
وتش@@ 1
تابعة 1
أط@@ 1
انت 1
فصل 1
المتعلقة 1
ويتم 1
والث@@ 1
الطفل 1
الكلية 1
السابع 1
القي@@ 1
حل@@ 1
ناف@@ 1
تبا@@ 1
برت 1
بون 1
ساب@@ 1
وع 1
الأوسط 1
شهادة 1
التجارة 1
اليهود 1
َّ 1
الثامنة 1
بالإنجليزية 1
خلايا 1
طية 1
الروسية 1
نان@@ 1
وجد 1
1973 1
باس@@ 1
عمان 1
البلدان 1
ائها 1
الأفراد 1
درجات 1
والف@@ 1
كلا@@ 1
انضم 1
وز 1
وذ@@ 1
حت@@ 1
مدير 1
يكي 1
الطبيعي 1
المرا@@ 1
الموسيقى 1
ديل 1
شغل 1
فرق 1
الور@@ 1
المنظمة 1
بهذا 1
الرومانية 1
نتائج 1
امل 1
قطاع 1
ستان 1
ظة 1
تين@@ 1
الأمريكيين 1
الطائرة 1
ليست 1
الأعلى 1
والعشرين 1
اسمه 1
قطع 1
حال 1
جات 1
لاحقًا 1
ويات 1
تية 1
ولكنها 1
طب 1
عصر 1
وُ@@ 1
بد 1
او 1
أجهزة 1
الأكاديمية 1
الساعة 1
ليل 1
باست@@ 1
ورت 1
الخي@@ 1
ومح@@ 1
نقص 1
فير 1
اض 1
عليهم 1
لَ@@ 1
مخت@@ 1
مملكة 1
وق 1
يزيد 1
ماري 1
تشكيل 1
دواوير 1
الأردن 1
ناد@@ 1
1972 0.9757602080558678
بج@@ 1
هان@@ 1
طائرة 1
فس@@ 1
الولاية 1
جز@@ 1
الزواج 1
دائ@@ 1
المشروع 1
حملة 1
أمراض 1
طف@@ 1
علا@@ 1
القدرة 1
يخ 1
فق 1
وال 1
الرحمن 1
لاء 1
العمليات 1
وانتخب 1
الشعر 1
العثمانية 1
حرارة 1
هان 1
الرياضية 1
السوق 1
المرضى 1
موت 1
خطر 1
طالب 1
حدوث 1
لر 1
الأعضاء 1
البرازيل 1
الضغط 1
باشا 1
تسجيل 1
سلو@@ 1
المعروفة 1
لبنان 1
زن 1
عكس 1
موسيقى 1
الفن 1
الجنسي 1
مانية 1
المكسيك 1
الطرق 1
انتق@@ 1
أجزاء 1
غر 1
ولين 1
توا@@ 1
ثاني 1
قرر 1
سكو 1
1968 0.9906572589600043
الآثار 1
دري@@ 1
مسجد 1
كتابه 1
فيا 1
ران 1
جبال 1
لش@@ 1
1960 0.8627804292865778
جرا@@ 1
يَ@@ 1
يها 1
1977 1
يَّة 1
اند@@ 1
عمله 1
60 0.910526843763564
رير 1
تتضمن 1
تقنية 1
ران@@ 1
والن@@ 1
خمس 1
الأفلام 1
وقعت 1
1971 0.9953296457964899
بلاد 1
تطور 1
مالية 1
تاج 1
يونايتد 1
مفهوم 1
النوادي 1
راب 1
تقد@@ 1
عادةً 1
غار@@ 1
هند@@ 1
كت 1
الزي@@ 1
روب 1
سيد 1
آثار 1
تتكون 1
العسكري 1
صالح 1
ولت 1
تب 1
هات 1
إيه 1
لس 1
ودة 1
سري@@ 1
صاحب 1
فرض 1
تقريبًا 1
التأ@@ 1
دان@@ 1
التف@@ 1
الهدف 1
الدكتور 1
ريق 1
يزال 1
سه@@ 1
1969 1
بطريقة 1
القص@@ 1
1964 1
بالن@@ 1
كاب@@ 1
صف 1
السيد 1
ّر 1
النووي 1
رَ@@ 1
مو 1
سلم 1
” 0.32675359109172847
المسلسل 1
المعهد 1
وه 1
تدريب 1
الجانب 1
ريف 1
السورية 1
المنزل 1
وأصبح 1
عاً 1
الوحيد 1
تعرض 1
بالف@@ 1
تطبيق 1
العدد 1
كوب@@ 1
نو 1
بوس@@ 1
وعندما 1
يض@@ 1
تذ@@ 1
يران 1
ومي@@ 1
جيل 1
غي 1
ونات 1
واله@@ 1
the 0.0037372216745755423
اكتشاف 1
إصدار 1
الأل@@ 1
ينيات 1
إنه 1
وممثل 1
يؤ@@ 1
رش@@ 1
ساعة 1
المهنية 1
فع@@ 1
انظر 1
1963 1
شعر 1
بس 1
الصينية 1
خلا@@ 1
سُ@@ 1
معرفة 1
ريتشارد 1
قصيرة 1
جرة 1
الحالية 1
جري@@ 1
4@@ 0.9319264992896359
نواب 1
بموجب 1
تعود 1
مطار 1
تعتمد 1
وغير 1
انس@@ 1
نان 1
زت 1
قض@@ 1
مهم 1
حياتها 1
1950 0.8958150572877766
لتح@@ 1
آخرين 1
ألف@@ 1
السيطرة 1
مقارنة 1
سلطة 1
البرا@@ 1
صنع 1
رر 1
اء@@ 1
القدس 1
الأساسي 1
جام@@ 1
كلا 1
الأص@@ 1
لديه 1
إير@@ 1
النار 1
النقطة 1
امرأة 1
شرف 1
حماية 1
زيد 1
ونصف 1
ابل 1
ذهب 1
نر 1
ألي@@ 1
اختبار 1
أكد 1
الإي@@ 1
الأدب 1
أمين 1
دول@@ 1
العصور 1
مصدر 1
ساهم 1
محامي 1
سبق 1
القرآن 1
الأصل 1
كتاب@@ 1
فإنه 1
ءات 1
قصر 1
فو 1
تسبب 1
ربما 1
الحيوية 1
الآخرين 1
فًا 1
الإغريق 1
بدلاً 1
والس@@ 1
فضل 1
قت@@ 1
دخ@@ 1
فان@@ 1
الإصابة 1
بذ@@ 1
1962 1
الثقافية 1
خة 1
الجنس 1
هنا 1
المحور 1
أنظمة 1
ماسة 1
نح@@ 1
آنذاك 1
المركزية 1
كيلومتر 1
تز 1
تقل 1
تاب@@ 1
ستر@@ 1
عاصمة 1
مارك 1
مالك 1
ئي 1
جوا@@ 1
فل 1
العائلات 1
وزي@@ 1
عل 1
1965 1
الثلاثة 1
الرسمية 1
قبة 1
جد@@ 1
رز 1
&#124; 0.7248856967264038
ويبلغ 1
إل 1
المبكرة 1
شية 1
الذكور 1
رض 1
1956 1
النقل 1
مد 1
البناء 1
الفرقة 1
إست@@ 1
اختيار 1
ازات 1
وصلت 1
تة 1
الأسود 1
عزلة 1
الإل@@ 1
لار@@ 1
بك 1
وقع 1
بم@@ 1
ريات 1
امين 1
ينو 1
ّل 1
حقق 1
* 0.4359476205084642
القوى 1
توزيع 1
رعاية 1
انها 1
نُ@@ 1
خطوط 1
يار 1
بنية 1
ابية 1
بتاريخ 1
العالي 1
نائ@@ 1
تحليل 1
مواقع 1
طاقة 1
وعية 1
المشاركة 1
الإنجليزي 1
السبب 1
مز 1
العنف 1
بري 1
يسمح 1
ادا 1
يعتقد 1
الاقتصادي 1
وفقا 1
مادة 1
مليار 1
المنتخب 1
والغ@@ 1
أسترالي 1
جور@@ 1
الدور 1
انج@@ 1
وخاصة 1
الاع@@ 1
زال 1
مدرب 1
متحف 1
مهرجان 1
بنا@@ 1
ريح 1
إما 1
القائمة 1
مربع 1
توفير 1
ئية 1
لديهم 1
المؤتمر 1
السلة 1
المصطلح 1
مصادر 1
000 1
للش@@ 1
السلطات 1
الصناعية 1
الممكن 1
تصوير 1
تكوين 1
قدرة 1
الشيوخ 1
العائلة 1
شن 1
المحلي 1
امن 1
لكنها 1
النمو 1
1958 1
مؤتمر 1
مرور 1
الشمالي 1
مدار 1
آسفي 1
السكاني 1
دخول 1
طع 1
روما 1
ملعب 1
كث@@ 1
أسس 1
ريس 1
5@@ 1
العرض 1
8@@ 1
طبي@@ 1
السودان 1
جوزيف 1
ملكة 1
• 1
يتكون 1
يغ@@ 1
وتم@@ 1
سليمان 1
إص@@ 1
تقييم 1
الحقوق 1
1966 0.9981204091322817
ماني 1
العلاقة 1
نع 1
يرو 1
المدنية 1
طر 1
ومات 1
ريب 1
انتشار 1
13@@ 1
ذية 1
لز@@ 1
مواد 1
بسرعة 1
الفلسطينية 1
النهائي 1
غو 1
كثيرة 1
cricketer 1
نائب 1
1961 1
كه 1
ليف 1
إصابة 1
رفع 1
جد 1
يبدو 1
ديه 1
سما@@ 1
الته@@ 1
صغير 1
المال 1
مكان@@ 1
والي 1
نز 1
خر 1
أبناء 1
قياس 1
كيم 1
سري 1
قبل@@ 1
الإج@@ 1
نون 1
صوت 1
يان@@ 1
جب@@ 1
نموذج 1
طرف 1
لور@@ 1
مستويات 1
الديمقراطية 1
بيتر 1
ربي 1
والاست@@ 1
s 0.08723629083506033
اسمها 1
200 0.8117470415141628
وراء 1
المسجد 1
المل@@ 1
المعركة 1
كوك 1
إدوارد 1
تمل 1
سيل 1
كوريا 1
الـ@@ 1
The 0.019134513483943405
وكالة 1
الخط@@ 1
أنَّ 1
يمي@@ 1
خارجية 1
أعماله 1
ريين 1
بينها 1
شعار 1
فصيلة 1
مام 1
واي 1
أطلق 1
مدريد 1
قًا 1
المصادر 1
مم 1
النظ@@ 1
الفرق 1
يع 1
قَ@@ 1
شار 1
غل@@ 1
إطار 1
أسماء 1
برلين 1
سيناريو 1
مستشفى 1
اده 1
ثية 1
هاي@@ 1
ونيا 1
كورونا 1
أبرز 1
ناش@@ 1
نس 1
خالد 1
العهد 1
تلا@@ 1
اها 1
عامل 1
منح@@ 1
الزراعة 1
القيادة 1
فعل 1
ولوجية 1
النج@@ 1
تعريف 1
ندا 1
الذاتية 1
لفترة 1
1944 0.8158343260752707
محمود 1
وبعض 1
قبيلة 1
موق@@ 1
جب 1
فض 1
للع@@ 1
الولادة 1
تعني 1
إلي 1
نار@@ 1
وهذه 1
رى 1
1949 1
سه 1
ّن 1
1947 1
جون@@ 1
دهم 1
سوى 1
هات@@ 1
وظ@@ 1
عرا@@ 1
الخليج 1
دقيقة 1
80 0.9348198588807756
أمير 1
زواج 1
المزيد 1
زوجته 1
وتُ@@ 1
ولوجيا 1
جدًا 1
الشبكة 1
1946 0.995503926847785
معالجة 1
لمحافظة 1
غان 1
أرض 1
بورغ 1
تشي@@ 1
عملت 1
قُ@@ 1
يمثل 1
داف@@ 1
الجنوبي 1
قرى 1
الطعام 1
الاستقلال 1
بوي@@ 1
قرا@@ 1
بهدف 1
حس@@ 1
5.@@ 1
الجوي 1
حالياً 1
التعداد 1
P@@ 0.14469653255670833
بالر@@ 1
كُ@@ 1
ذر 1
جين@@ 1
بعين 1
لعبة 1
بجامعة 1
فرع 1
الروسي 1
بُ@@ 1
فرو@@ 1
أنجلوس 1
يد@@ 1
المؤسسات 1
أقدم 1
ونا 1
المجموعات 1
بالس@@ 1
موسى 1
بز@@ 1
H@@ 0.1760249300026227
الضوء 1
ينز 1
نمو 1
الإمام 1
هد@@ 1
1940 0.8841338916775406
جماعة 1
بمدينة 1
علوم 1
للحصول 1
التصميم 1
أكاديمية 1
اليمنية 1
تحرير 1
ارًا 1
مراكش 1
الحد 1
1941 0.8529104862920164
صلاح 1
الملكي 1
الهيئة 1
النووية 1
الوا@@ 1
رابطة 1
بصورة 1
هار 1
الأصلية 1
الطبقة 1
عون 1
1939 0.9029280296466817
افات 1
تعيين 1
تعليم 1
سمح 1
المستخدمة 1
الاح@@ 1
خلف 1
أسلوب 1
التحكم 1
الصحي 1
لكي 1
شارع 1
وجدت 1
للعمل 1
زب@@ 1
1959 1
1957 1
“ 0.08504465264295644
أدت 1
ترك@@ 1
7@@ 1
سد 1
الشخصيات 1
يكية 1
ثات 1
الإمبراطور 1
كوي@@ 1
سياسية 1
سف@@ 1
1955 1
أساس@@ 1
عائ@@ 1
الوحدة 1
ترف 1
البرامج 1
قطر 1
نشرت 1
قضية 1
تأث@@ 1
دس 1
جغرافيا 1
ابه 1
الإمارات 1
ففي 1
المناخ 1
عسكرية 1
كاف@@ 1
القدر 1
footballer 1
الهندية 1
ومي 1
كيلو@@ 1
برج 1
تاون 1
يعتمد 1
المؤقت 1
نات@@ 1
هجوم 1
مثال 1
المدر@@ 1
قوانين 1
تقدي@@ 1
دام 1
طان 1
وشارك 1
بيا 1
1@@ 1
لد 1
نوا@@ 1
لس@@ 1
الوضع 1
بنى 1
الاستخدام 1
واج@@ 1
أثر 1
النفط 1
بحسب 1
بيه 1
القرار 1
D@@ 0.1455678340565804
القسم 1
الني@@ 1
ومع@@ 1
توفر 1
العثور 1
النظرية 1
رمز 1
1954 1
التركية 1
وّ@@ 1
سباق 1
تبر@@ 1
الحاكم 1
مور 1
تختلف 1
صد@@ 1
الرابعة 1
تدخل 1
عظ@@ 1
اكت@@ 1
الات@@ 1
ليا 1
1952 1
تجاه 1
روة 1
مدي@@ 1
وبلغ 1
مسؤ@@ 1
سرعة 1
ليات 1
500 0.8744058103376686
إنج@@ 1
كيفية 1
قري@@ 1
الحال 1
وبي 1
الرجل 1
مجتمع 1
لاعبة 1
المريض 1
بيئة 1
صلة 1
بلغت 1
حاول 1
يعيش 1
اليونانية 1
زوجها 1
استخدم 1
النبي 1
بينهم 1
لوك@@ 1
الهي@@ 1
اش 1
كشف 1
يحمل 1
الهندسة 1
الصوت 1
تقرير 1
لون@@ 1
فائ@@ 1
كمية 1
واض@@ 1
زان 1
تجمع 1
المطلق 1
الأهلية 1
آن 1
اليين 1
فاء 1
إخراج 1
رحلة 1
النشاط 1
يتح@@ 1
قلب 1
محددة 1
المسلحة 1
ثقافة 1
الإنسانية 1
الحمل 1
بنت 1
برلمان 1
معين 1
زراعة 1
باح@@ 1
ذوي 1
فأ@@ 1
قلعة 1
ده@@ 1
فاف 1
الاتصال 1
المعرفة 1
ديات 1
يدة 1
اهر 1
إحصائيات 1
خاص@@ 1
متح@@ 1
بوا@@ 1
رسالة 1
روي 1
الكندي 1
برة 1
للق@@ 1
يط 1
نام@@ 1
الطائرات 1
لمح@@ 1
الت 1
الطبيعة 1
الكر@@ 1
تعيش 1
زون 1
تاريخية 1
طلاق 1
الدقيقة 1
قرب 1
ماد@@ 1
باكستان 1
ّم 1
جذ@@ 1
دراسات 1
عناصر 1
القمر 1
الدماغ 1
المشتري 1
ْ 1
تغير 1
خلاف 1
A 0.10205014855268463
ومنها 1
واجه@@ 1
الصي@@ 1
زوج@@ 1
للاست@@ 1
البيئية 1
بحث 1
ارض 1
بالفعل 1
كيل 1
والخ@@ 1
1943 0.855392671596172
التصوير 1
تؤدي 1
الإسباني 1
جزءًا 1
صد 1
الفصل 1
نيات 1
احتف@@ 1
امها 1
الطيران 1
عبة 1
افية 1
الدعم 1
ندية 1
هب 1
C@@ 0.1640420287229726
قدر 1
الأصلي 1
بور 1
وعين 1
35 0.9132570067999489
14@@ 1
مشار@@ 1
لاحظ 1
تشغيل 1
G@@ 0.1363723092643203
الإيطالي 1
ثانية 1
John 0.24939865005025566
أراضي 1
الأم 1
المرتبة 1
أيرلندا 1
بحر 1
حاليًا 1
طوله 1
العش@@ 1
انخفاض 1
لفة 1
الفنون 1
6@@ 0.9389430398694496
عاد@@ 1
1953 1
متنوعة 1
الحفاظ 1
معل@@ 1
منزل 1
الملا@@ 1
فَ@@ 1
الأسلحة 1
ُّ@@ 1
كانون 1
فرنسي 1
أصول 1
طري@@ 1
لط@@ 1
هن@@ 1
المثليين 1
ائع 1
تث@@ 1
دته 1
شن@@ 1
غة 1
شرطة 1
أغاني 1
الخط 1
دوية 1
علاقات 1
لأنها 1
يطلق 1
B@@ 0.1311738301336449
رؤية 1
ضعف 1
إج@@ 1
العص@@ 1
آر@@ 1
تجارة 1
طبقة 1
الاخت@@ 1
السكانية 1
ولون 1
70 0.9037285448543623
براون 1
النهائية 1
البلدة 1
السفر 1
العناصر 1
خطة 1
1942 0.83953037634197
اللغات 1
1951 1
راج@@ 1
ة.@@ 1
فيف 1
آلاف 1
السوفيتي 1
طه 1
شير 1
معاهدة 1
رس 1
سك 1
الرقم 1
بلة 1
الكيميائية 1
قليل 1
ضات 1
بعضهم 1
يصبح 1
دل 1
دارة 1
فقة 1
القيام 1
قدمت 1
آي 1
جاك 1
اول@@ 1
شو 1
عنوان 1
مارتن 1
كاس@@ 1
and 0.005965080315247079
مى 1
فيديو 1
حلب 1
المسرح 1
تفاعل 1
الحص@@ 1
وممثلة 1
زوجة 1
ويست@@ 1
بهذه 1
شيو@@ 1
يّ 1
تدري@@ 1
ساك@@ 1
ائب 1
جري 1
أغلب 1
حك@@ 1
ضيف 1
F@@ 0.1517530081145165
معروف 1
ابع 1
الخلية 1
الناحية 1
أساسي 1
بدء 1
تناول 1
الزراعية 1
كريست@@ 1
خلق 1
فعل@@ 1
مناصب 1
هُ 1
الأولية 1
الاحتلال 1
تنظ@@ 1
كمال 1
مقر 1
الكار@@ 1
تمث@@ 1
والج@@ 1
قوا@@ 1
الانتق@@ 1
شت@@ 1
يقصد 1
اور@@ 1
نجاح@@ 1
ترجمة 1
S@@ 0.10778962941331105
ابنة 1
اكتش@@ 1
اللعبة 1
وسجل 1
شهد 1
البرلمانية 1
أمي@@ 1
إد@@ 1
ولعب 1
اور 0.6771738923634859
جمع@@ 1
البع@@ 1
الجليد 1
المرجعية 1
كير@@ 1
الحض@@ 1
الاب@@ 1
النتائج 1
1936 0.9776458873232218
اربة 1
ثنائي 1
مني 1
مِ@@ 1
بالج@@ 1
برغ 1
محرك 1
مول 1
هج@@ 1
N@@ 0.1538118142766876
العوامل 1
القبائل 1
بمثابة 1
راف 1
تحويل 1
التأثير 1
طين 1
لب@@ 1
محكمة 1
أطفال 1
أنّ 1
عاما 1
بالكامل 1
كاملة 1
وصول 1
التمييز 1
سرا@@ 1
ألماني 1
البيض 1
ارس 1
هير 1
90 0.8842118352562253
الواقعة 1
وحصل 1
مير@@ 1
تلقى 1
زر@@ 1
النسخة 1
بالغ@@ 1
تاح 1
فري 1
الذاتي 1
توس@@ 1
للسيدات 1
بكثير 1
كارل 1
أداء 1
موجودة 1
حساب 1
الأي@@ 1
رئاسة 1
ولقد 1
ويعتبر 1
بقية 1
بيان 1
شباط 1
حيات 1
الجوائز 1
الفني 1
قوى 1
إلغاء 1
الأحياء 1
لقى 1
وجه@@ 1
تمثيل 1
ودية 1
in 0.005001676329003272
التج@@ 1
فلكية 1
مقاومة 1
الفرد 1
الأدوية 1
ًّا 1
القانونية 1
9@@ 0.9909325557168212
لإقليم 1
ينت@@ 1
مجالات 1
الإسرائيلية 1
حاكم 1
المواقع 1
الإسرائيلي 1
التدريب 1
العين 1
تجربة 1
مشاركة 1
لقي 1
موس 1
المهمة 1
رغ@@ 1
هور 1
ادل 1
القرى 1
T@@ 0.12813771046384023
السعودي 1
جونز 1
أخر 1
ترض 1
الإناث 1
واد 1
اقة 1
روح 1
M@@ 0.144498946201437
تقد 1
سلطان 1
مج 1
يرون 1
إم@@ 1
غز@@ 1
واصل 1
الخارج 1
والتح@@ 1
الموارد 1
بيروت 1
حلقة 1
العقد 1
الإسبانية 1
مدارس 1
أسط@@ 1
روز@@ 1
جنب 1
R@@ 0.13623255766310674
الأبحاث 1
الزمن 1
اثنين 1
1920 0.8265840273627262
إدار@@ 1
متلازمة 1
تصبح 1
كار 1
الكويكبات 1
جما@@ 1
دليل 1
طوال 1
مبنى 1
ذه@@ 1
ضل@@ 1
السع@@ 1
الإست@@ 1
كوك@@ 1
لشركة 1
ّه 1
شيكاغو 1
المذ@@ 1
سائ@@ 1
عضوًا 1
الملحق 1
مبي@@ 1
حام@@ 1
المؤسسة 1
ربط 1
لص@@ 1
اليهودية 1
الصور 1
ناب@@ 1
استمر 1
يث@@ 1
جرى 1
فقال 1
الفيديو 1
النطاق 1
ّد 1
البشري 1
النش@@ 1
أسب@@ 1
ينغ@@ 1
ممارسة 1
وج 1
أست@@ 1
المعد@@ 1
بولاية 1
جدي@@ 1
وتن@@ 1
استخدامها 1
المسل@@ 1
تان@@ 1
تفسير 1
تميز 1
علام 1
المنتجات 1
المشتركة 1
السفن 1
جمال 1
الكاثوليكية 1
لذا 1
ليين 1
300 0.9810218457938776
فشل 1
فوز 1
ظروف 1
مصطفى 1
جداً 1
أصغر 1
فته 1
وكي 1
الأعراض 1
الغذائية 1
خت 1
ائدة 1
ملايين 1
نظم 1
التصويت 1
مراكز 1
سلالة 1
سعود 1
وحدات 1
تسل@@ 1
معروفة 1
مشاكل 1
ولى 1
201@@ 1
الا@@ 1
دَ@@ 1
ومست@@ 1
وقام 1
طويل 1
تول@@ 1
هندسة 1
استمرت 1
اعتب@@ 1
المجاورة 1
مسرحية 1
كه@@ 1
مايكل 1
عود 1
وريا 1
ذة 1
اليونان 1
سفر 1
مبار@@ 1
روم 1
مشيخات 1
اتفاقية 1
السويد 1
قوية 1
كبار 1
والط@@ 1
توس 1
نظرًا 1
جسم 1
درب 1
ليب 1
طبيعة 1
سرية 1
زمن 1
صرف 1
بلا 1
باي 1
ينه 1
تحسين 1
معها 1
داخ@@ 1
مباريات 1
قاء 1
التعاون 1
الدستور 1
ابنه 1
صب 1
عاش 1
البلد 1
سيما 1
جاك@@ 1
ائح 1
كب 1
سلاح 1
حًا 1
جمي@@ 1
خض@@ 1
نيين 1
شعبية 1
سور 1
فكان 1
أض@@ 1
خاض 1
وبات 1
كويكب 1
الأخ@@ 1
البرية 1
فيل@@ 1
ويع@@ 1
التك@@ 1
زار 1
مديرية 1
2.@@ 1
دث 1
قواعد 1
محل 1
ولاعب 1
L@@ 0.11698579982687118
الموت 1
لندي 1
نزالا 1
الكتابة 1
مصري 1
إر@@ 1
تأسس 1
قيق 1
أري@@ 1
منش@@ 1
وسيلة 1
مساعدة 1
فتح@@ 1
زو 1
كولومبيا 1
متع@@ 1
جونسون 1
تيك 1
الساحل 1
انيين 1
تأليف 1
نشاط 1
الأغنية 1
المسيحيين 1
تبدأ 1
نع@@ 1
الشام 1
الأور@@ 1
تكساس 1
حيل 1
لندية 1
فز 1
فلا@@ 1
التحرير 1
ويلز 1
كش@@ 1
تزوج 1
كمة 1
تسمية 1
تقسيم 1
مراقبة 1
وعدد 1
1930 0.7903868964736555
ةِ 1
اضطراب 1
رتبة 1
وبي@@ 1
شل 1
السوي@@ 1
بولندا 1
كتلة 1
ليكون 1
موضوع 1
ميت 1
الإنج@@ 1
الطيور 1
دولية 1
قاب@@ 1
ّا 1
توق@@ 1
زها 1
أنفسهم 1
سيطرة 1
قبائل 1
مبر@@ 1
يعانون 1
المركزي 1
وأصبحت 1
المنافسة 1
تام@@ 1
حمض 1
ساحة 1
كا@@ 1
البرتغال 1
النجوم 1
ضى 1
ظم 1
الحق 1
إسباني 1
الأك@@ 1
وإلى 1
تقليل 1
32 0.8671025043585991
شف 1
ماريا 1
مرو@@ 1
الحي@@ 1
ويل@@ 1
البحرين 1
الدر@@ 1
الإعلان 1
حدة 1
الأرجنتين 1
دراسته 1
السينما 1
بـ@@ 1
النخ@@ 1
وفة 1
المتحف 1
رئيسي 1
محترف 1
الحديد 1
الوحيدة 1
مشاركًا 1
سس 1
فرنسية 1
قيام 1
كاث@@ 1
التطور 1
رم 1
1938 0.8305492552633281
وتي 1
اليم 1
ستين 1
وفا 1
ّى 1
الداخلي 1
ماي@@ 1
1933 0.8968522683895641
مداره 1
الجلد 1
بيد 1
لله@@ 1
بكر 1
مواسم 1
والد 1
يرية 1
حف@@ 1
التنمية 1
العثماني 1
سال@@ 1
بقي 1
وإن 1
وتعتبر 1
x 0.3783771979961512
تضمن 1
سبعة 1
علامة 1
ضاء 1
واخت@@ 1
مجرد 1
العودة 1
ومنذ 1
الرياضي 1
حج@@ 1
1937 0.9140433313504963
الحجم 1
رؤ@@ 1
المنظمات 1
اون@@ 1
تشرين 1
رُ@@ 1
الأسماك 1
روز 1
القيمة 1
جها 1
الجزائرية 1
مراجع 1
القناة 1
قليلة 1
الفعل 1
ميم 1
وزن 1
تخرج 1
كباقي 1
كز 1
مشكلة 1
انتقلت 1
يرى 1
العالية 1
واجه 1
المساعدة 1
القتال 1
تمامًا 1
وخلال 1
التحق 1
الحجر 1
الشعبي 1
تصر 1
المجتمعات 1
باح 1
تشار@@ 1
الحاجة 1
اللح@@ 1
الكهربائية 1
راع 1
يتها 1
التمثيل 1
فرانك 1
الدورة 1
خراج 1
ثق@@ 1
خز@@ 1
بال 1
الشع@@ 1
صل@@ 1
أز@@ 1
الته 1
الصحافة 1
اليابانية 1
يمر 1
حدي@@ 1
الإطلاق 1
للأطفال 1
وإداريًا 1
عزل 1
فاق 1
نجم 1
الشي@@ 1
E@@ 0.15289109940586343
تتميز 1
الاتصالات 1
يب@@ 1
بث@@ 1
فور 1
جح 1
الجنرال 1
جريدة 1
مستقلة 1
الترا@@ 1
ذك@@ 1
رصده 1
حُ@@ 1
للمرة 1
موض@@ 1
الدار 1
للط@@ 1
199@@ 1
القصر 1
ضافة 1
عمره 1
نشا@@ 1
قف 1
فرط 1
ائط 1
السرطان 1
السيارات 1
تبة 1
يلا 1
شاعر 1
نيوزيلندا 1
والدها 1
عهم 1
غزو 1
الار@@ 1
يرًا 1
سعد 1
ثين 1
لاغرانج 1
لاف 1
الثقافي 1
ــ@@ 1
الجامعات 1
المقاومة 1
حال@@ 1
العراقية 1
المرتبطة 1
سيس 1
ونغ 1
تسمح 1
التقنية 1
الهندي 1
بحرية 1
القضاء 1
عوامل 1
خوان 1
سيارة 1
بوا 1
1918 0.8274139461585339
التط@@ 1
الناتج 1
يبدأ 1
والر@@ 1
الكريم 1
الأساس 1
انتقال 1
عض@@ 1
أرا@@ 1
مكتبة 1
الأصليين 1
السجن 1
قلي@@ 1
الكاتب 1
يقدم 1
أوغ@@ 1
إجمالي 1
إف 1
الروماني 1
الإلكترونية 1
الخص@@ 1
درة 1
آر 1
تبع@@ 1
خطط 1
ديك@@ 1
سلطنة 1
صار@@ 1
مساع@@ 1
وعمل 1
الإص@@ 1
تعديل 1
بعدما 1
ثان@@ 1
45 0.7458669555446108
التز@@ 1
مس 1
قول 1
الحمض 1
الحرة 1
المعل@@ 1
خفض 1
مسافة 1
احة 1
شهدت 1
ويكون 1
الب 1
طفل 1
ورو 1
1935 0.9439489518610631
أصدر 1
الفلسفة 1
الحملة 1
أعم@@ 1
صيف 1
لمدارات 1
اتية 1
واش@@ 1
لتحديد 1
المبنى 1
يتين 1
لمداره 1
أسباب 1
التعين 1
A@@ 0.12690155340920772
ّت 1
لوب 1
لته 1
فيليب 1
التواصل 1
نط@@ 1
MPO@@ 1
تتم 1
نيل 1
باع 1
الجنود 1
ميز 1
إمكانية 1
تدفق 1
مرت 1
وتوفيت 1
التشريعية 1
القوانين 1
يضم 1
الحسن 1
طًا 1
وأخ@@ 1
إسماعيل 1
1.@@ 1
اعتم@@ 1
دعى 1
السوري 1
باقي 1
65 0.852111591104295
هدف@@ 1
يمات 1
ينت 1
y 0.0161748685398928
الصورة 1
الدكتوراه 1
زيارة 1
غرفة 1
شد 1
اللاتينية 1
بالرغم 1
الوزن 1
غول@@ 1
القومية 1
يشمل 1
الاشتراكية 1
سيكون 1
فاس 1
الكائنات 1
البنية 1
الظروف 1
العراقي 1
منت 1
عقب 1
قبول 1
الكربون 1
التعبير 1
المحيطة 1
جع 1
يتع@@ 1
المستخدم 1
وظيفة 1
الروا@@ 1
سكوت 1
سفينة 1
القضايا 1
المار@@ 1
ريم 1
القومي 1
متز@@ 1
عداد 1
المقدس 1
مسرح 1
برية 1
الحين 1
رسم 1
كلو@@ 1
O@@ 0.1454324226259782
استق@@ 1
الجر@@ 1
الحمراء 1
قب 1
رئيسية 1
فران@@ 1
هولندا 1
طبق 1
ربع 1
ويا 1
لفات 1
المستقبل 1
جن 1
للعلوم 1
وبدأ 1
وته 1
وره 1
يسون 1
وهي@@ 1
1931 1
استعمال 1
ونش@@ 1
الرابطة 1
نجاح 1
إعلان 1
صات 1
وهكذا 1
ويوجد 1
وعلم 1
يْ@@ 1
تقنيات 1
قيقة 1
العصبية 1
تشي 1
وأر@@ 1
أصحاب 1
عمو@@ 1
الحديدية 1
ساعد 1
كثافة 1
تقريبا 1
1929 0.9412261472658885
الغاز 1
مراحل 1
ونظ@@ 1
1934 0.9284085659443624
إلكترو@@ 1
نجد 1
حظ@@ 1
تبادل 1
لول 1
الشري@@ 1
الأنظمة 1
التركيز 1
سج@@ 1
ضابط 1
طلا@@ 1
البكتيريا 1
حَ@@ 1
سمي 1
الزوج@@ 1
دوا@@ 1
تحدي@@ 1
صحفي 1
ميات 1
قيل 1
يتضمن 1
الحقيقي 1
للص@@ 1
0@@ 0.8261266143030238
كجزء 1
ليصبح 1
نوعة 1
ذه 1
قصير 1
طها 1
سلط@@ 1
يوب 1
اءات 1
الأربعة 1
الخارجي 1
وائ@@ 1
أنا 1
طالب@@ 1
كافة 1
انتهاء 1
استح@@ 1
الحكومي 1
هول 1
البلا@@ 1
غان@@ 1
ينبغي 1
ميناء 1
القاعدة 1
تمتلك 1
توم 1
سور@@ 1
النمسا 1
تعزيز 1
ثا 1
المستشفى 1
اسة 1
استخد@@ 1
الفنان 1
ثمانية 1
راس 1
طبيب 1
تجارية 1
دُ@@ 1
وبية 1
تعامل 1
كوفيد 1
الكه@@ 1
المدى 1
الوحدات 1
إس@@ 1
الكلمة 1
يفة 1
ءً 1
الطبي 1
غير@@ 1
الفل@@ 1
ستيف@@ 1
يجعل 1
ترتيب 1
ضت 1
ملي@@ 1
يول@@ 1
آي@@ 1
الإيطالية 1
أكسيد 1
العب@@ 1
القطاع 1
خلفية 1
اهد 1
النفسي 1
الجز@@ 1
تاين 1
تخصص 1
ساع@@ 1
مظ@@ 1
صيب 1
إند@@ 1
درج 1
إزالة 1
ائن 1
إح@@ 1
التسمية 1
اولة 1
المتع@@ 1
باستثناء 1
درو@@ 1
كيين 1
اصل 1
وأيضا 1
اللاعب 1
طرح 1
الحي 1
الفق@@ 1
ذها 1
أكاد@@ 1
المدني 1
20@@ 1
سليم 1
ناق@@ 1
المتك@@ 1
الكث@@ 1
تشر 1
لاك 1
ملت 1
ريض 1
تلعب 1
حرية 1
ً@@ 1
الد 1
يقرب 1
الأجهزة 1
وتقع 1
باط 1
غية 1
معايير 1
2م 1
ندر 1
أوس@@ 1
غون 1
ادها 1
صن@@ 1
ولو 1
خش@@ 1
تتراوح 1
وح 1
المطاف 1
a 0.005192142896449459
وسط@@ 1
1922 1
سلات 1
استخدامه 1
الملكة 1
كوس@@ 1
ألبوم 1
أماكن 1
الوج@@ 1
400 0.8740652657710576
تدور 1
وتشمل 1
المقاطعة 1
جاب@@ 1
عان 1
تري 1
بحيرة 1
طوي@@ 1
الرئي@@ 1
توب@@ 1
حن 1
اقتصاد 1
التعليمية 1
شخصيات 1
خصائص 1
النهر 1
ولذلك 1
التعامل 1
المسرحية 1
الأسباب 1
الكرة 1
المحافظة 1
شعب 1
شرا@@ 1
مكة 1
الجبل 1
جامع 1
لعبت 1
ريال 1
الأفريقية 1
يستطيع 1
الرأس 1
أنط@@ 1
نَ@@ 1
وجهة 1
الحقيقة 1
الدرا@@ 1
روف 1
ياس 1
ائيات 1
ياباني 1
ذت 1
عمار 1
وجامعة 1
الصد@@ 1
بطل 1
عسكري 1
بيب 1
زه 1
الثلاث 1
انس 1
ناصر 1
نتج 1
دونالد 1
تبع 1
البطولات 1
ارين 1
ميس 1
الهجرة 1
عثمان 1
وغيرهم 1
النصف 1
تكلفة 1
خص 1
طبق@@ 1
تعاون 1
ملاكم 1
منتج 1
الصغير 1
الحية 1
الكامل 1
المباني 1
جم@@ 1
كس@@ 1
قوس 1
1928 0.8863938320472684
12@@ 1
المسيرة 1
وتف@@ 1
ائق 1
ليلة 1
الهر@@ 1
1919 0.8160459559324696
أسر@@ 1
عمه 1
الحادي 1
والتعليم 1
السر@@ 1
جيد 1
الأماكن 1
السفينة 1
القائد 1
فيين 1
موسيقي 1
مجموع 1
تهدف 1
العصبي 1
الصراع 1
انتخاب 1
ترح 1
وتو 1
قاط@@ 1
القلعة 1
شرح 1
غلا@@ 1
علاق@@ 1
برات 1
جلة 1
كبيرًا 1
أعداد 1
مقتل 1
الأصول 1
المؤس@@ 1
إنها 1
الدموية 1
طلاب 1
عامين 1
قاد 1
ناف 1
أظهرت 1
اطي 1
مباشر 1
غور@@ 1
الحرية 1
حيوانات 1
كونه 1
الجمهور 1
حمل 1
يحيى 1
تسم@@ 1
ستيفن 1
أعراض 1
نوف@@ 1
الدائرة 1
لبعض 1
الشيوعي 1
اقات 1
للأمم 1
المتج@@ 1
تال 1
يرا@@ 1
أنشطة 1
الفوز 1
سَ@@ 1
عج@@ 1
يدعى 1
السريع 1
ينتج 1
الصحراء 1
صفات 1
ويد 1
سياس@@ 1
واستمر 1
اتجاه 1
والعلوم 1
شاه@@ 1
النه@@ 1
منظ@@ 1
قضايا 1
الأدبية 1
قع 1
مالي 1
الأهداف 1
1924 0.9227444744163616
رون@@ 1
موسكو 1
تصنيع 1
خوسيه 1
ارع 1
يمة 1
الرحلة 1
عوا 1
وآ@@ 1
ورها 1
ريان 1
نهائي 1
أبطال 1
الطلب 1
كم@@ 1
أجريت 1
الجبهة 1
التجارب 1
تصدر 1
1932 0.9022272017190295
اطة 1
بقاء 1
إضافية 1
تتح@@ 1
ساعات 1
موند 1
والمع@@ 1
وند 1
زع@@ 1
نظيم 1
فازت 1
طت 1
رسمية 1
سمى 1
فه@@ 1
النموذج 1
انتهت 1
الواحد 1
حمل@@ 1
آخرون 1
الأداء 1
الحماية 1
جرت 1
فعال 1
بشدة 1
كونها 1
يلية 1
منتجات 1
بينهما 1
مؤلف 1
اللازمة 1
سيطر 1
توم@@ 1
وكي@@ 1
دخلت 1
إض@@ 1
أقصى 1
الشاعر 1
1م 1
انق@@ 1
لد@@ 1
مم@@ 1
أستاذ 1
الموسيقية 1
خف@@ 1
السلسلة 1
الفئة 1
بارك 1
بدي@@ 1
هاج@@ 1
وص 1
الأغ@@ 1
باي@@ 1
24@@ 1
زيم 1
البابا 1
فيز 1
الغذاء 1
فلم 1
مجمع 1
الإدارية 1
كَ@@ 1
المائية 1
المنتج 1
لوك 1
روي@@ 1
الرياضيات 1
صدرت 1
تؤ@@ 1
هاب 1
حا 1
ديف 1
لجميع 1
وط 1
1921 0.9442722889880232
الأسنان 1
33 0.9045366140950071
التشري@@ 1
برز 1
الجه@@ 1
الحب 1
الست@@ 1
للك@@ 1
أصدرت 1
دست@@ 1
قق 1
نوبل 1
ويين 1
الجدول 1
1923 0.9631630124395316
ددة 1
التل@@ 1
باعتبارها 1
النفسية 1
باك 1
والمست@@ 1
ترا 1
تركي@@ 1
وتص@@ 1
تنفي@@ 1
ظات 1
خليج 1
دعي 1
غب 1
وبر@@ 1
وش 1
باع@@ 1
فرانسيسكو 1
للفنون 1
de 0.00294390546167572
ثه 1
عالم@@ 1
ؤون 1
الإلكتروني 1
واضحة 1
وبذلك 1
نب 1
ادرة 1
العموم 1
عرب 1
الأنشطة 1
جز 1
هذ@@ 1
وسام 1
وسي 1
مركب 1
يره 1
البقاء 1
حها 1
ستخد@@ 1
يأتي 1
بكل 1
سيم 1
بح 1
تدمير 1
تقدير 1
ساء 1
التعلم 1
يتي@@ 1
متا@@ 1
يرجع 1
تنتج 1
وحيد 1
1917 0.8513972584185311
الاجتماع 1
الدخول 1
ونها 1
اثر 1
كلها 1
كوا@@ 1
مح 1
نقاذ 1
الأسترالي 1
الفيروس 1
النحو 1
توج@@ 1
سقوط 1
مري 1
الأمثلة 1
علمية 1
C 0.24554994998192894
يلة 1
استطاع 1
الغالب 1
بدا@@ 1
بيك 1
تاريخ@@ 1
كاست@@ 1
للمست@@ 1
القديس 1
للغ@@ 1
جودة 1
قطعة 1
قوق 1
واقع 1
W@@ 0.11868459731353909
سوء 1
التنفيذي 1
الكي@@ 1
1000 1
جول@@ 1
فارس 1
مناسبة 1
أقيمت 1
ّف 1
الموج@@ 1
صبح 1
المباشر 1
عملها 1
ميد 1
ريت 1
ساحل 1
وعدم 1
كتش@@ 1
خلي@@ 1
وظائف 1
الجرا@@ 1
القانوني 1
معدلات 1
ترتبط 1
حز@@ 1
توقف 1
أولى 1
الهم 1
سيين 1
واة 1
قيب 1
غار 1
يعيشون 1
التجاري 1
نم@@ 1
ماية 1
أجن@@ 1
استخدمت 1
سمة 1
شان@@ 1
العظ@@ 1
عيسى 1
ونه 1
فما 1
75 0.9334450355102751
نسب 1
دبي 1
سلامة 1
الكروية 1
الميلادي 1
الدع@@ 1
وقة 1
الأخضر 1
يتم@@ 1
كتي@@ 1
والمج@@ 1
لع@@ 1
افتتاح 1
باول 1
دوم@@ 1
سيف 1
1925 0.9097966775569275
الكت@@ 1
قيه 1
ماث@@ 1
العلوي 1
مناف@@ 1
الاش@@ 1
التخ@@ 1
عاص@@ 1
طا 1
لقت 1
الصف@@ 1
الفرا@@ 1
ضوء 1
ازة 1
ريز 1
ليو 1
صحة 1
البيت 1
الشمسية 1
دستور 1
قط 1
ورئيس 1
إفريقيا 1
تاب 1
يمكن@@ 1
آرثر 1
أت 1
دال@@ 1
غذ@@ 1
اتل 1
أطول 1
ظاهرة 1
نًا 1
فيس 1
لوحة 1
اتا 1
الأثرية 1
التقليدي 1
قاع@@ 1
1927 0.8962840261445096
المنصب 1
لاب 1
لوية 1
مساعد 1
التد@@ 1
التغييرات 1
الصيني 1
النز@@ 1
القضية 1
كونغ 1
ميخائيل 1
المصابين 1
وربما 1
البلدية 1
تبقى 1
عدام 1
الألبوم 1
تن 1
جيم 1
صحيح 1
إحصاء 1
بناءً 1
تركز 1
حمد 1
داث 1
المحرك 1
جنوب@@ 1
راي 1
لتون 1
منز@@ 1
اعم 1
قدر@@ 1
جات@@ 1
يخت@@ 1
الأوراق 1
قاعة 1
الأز@@ 1
العاملة 1
بيين 1
أبر@@ 1
فاي@@ 1
مرتين 1
مسار 1
وفقاً 1
قادة 1
أدوات 1
اللقب 1
لج@@ 1
القبض 1
تقلي@@ 1
مهندس 1
الاد@@ 1
التونسية 1
ثلاث@@ 1
فقدان 1
إنش@@ 1
لاس 1
انع 1
خليفة 1
born 0.15597204449045152
التعل@@ 1
امرة 1
بق 1
ذر@@ 1
مواجهة 1
لفين 1
الوطن 1
{ 1
بيري 1
نف 1
الموس@@ 1
زيل 1
غالبا 1
تركيز 1
تشري@@ 1
قصص 1
انغ 1
جع@@ 1
روع 1
والأر@@ 1
V@@ 0.12470303522877096
العظيم 1
منخفضة 1
ديم 1
الأطباء 1
وإذا 1
الانتخابية 1
حر 1
الوقود 1
قلة 1
بوم@@ 1
يُعرف 1
الحس@@ 1
فى 1
طرد 1
وعند 1
الإيرانية 1
بريطانية 1
جُ@@ 1
الخطوط 1
198@@ 1
رسول 1
نشأت 1
ينها 1
1914 0.7947683190876246
فظ 1
يذكر 1
للج@@ 1
اردو 1
اعت@@ 1
فتها 1
لتحقيق 1
ارض@@ 1
والتر@@ 1
أولي@@ 1
الأصغر 1
الكبد 1
بلغ@@ 1
بنك 1
فإن@@ 1
الفلسطيني 1
ذاته 1
وهما 1
يشكل 1
حضر 1
سات@@ 1
سميت 1
ألمانية 1
التركيب 1
التوالي 1
زوج 1
سبي@@ 1
فلا 1
منط@@ 1
الف 1
نمط 1
يرات 1
والدته 1
الحج@@ 1
المفتوحة 1
توي@@ 1
رح 1
رسوم 1
قيين 1
ويت 1
وأس@@ 1
البحوث 1
التربية 1
المتوقع 1
الفردية 1
رن 1
رين@@ 1
عربية 1
إصدار@@ 1
الإجمالي 1
تاي@@ 1
تتطلب 1
سابقة 1
فاً 1
ساف@@ 1
قته 1
الذهبية 1
لأي 1
أدي@@ 1
عتها 1
تفع 1
حف 1
قمة 1
تؤثر 1
K@@ 0.10567478677626538
النص 1
المواطنين 1
لعدة 1
فنان 1
ويلسون 1
أشار 1
بدلا 1
بمعنى 1
ديث 1
معتم@@ 1
المرة 1
غام@@ 1
كسي@@ 1
باش@@ 1
وائي 1
1926 0.8578245375899891
الكشف 1
باعتباره 1
طى 1
ائف 1
الجبال 1
الطر@@ 1
التربة 1
الفكرة 1
شرات 1
لائ@@ 1
أبحاث 1
ساح@@ 1
تشكي@@ 1
شف@@ 1
عباس 1
نشأ 1
اكي 1
0.@@ 0.7693497684886536
الأسط@@ 1
تقول 1
العلامة 1
بته 1
طرة 1
فلسفة 1
اللبنانية 1
داي 1
7م 1
فاد@@ 1
اتصال 1
الحيوان 1
الأول@@ 1
المعارضة 1
شب@@ 1
الصناعة 1
ونت 1
باك@@ 1
حينها 1
رِ@@ 1
الملعب 1
ساب 1
قاً 1
فرصة 1
طاء 1
ويض 1
خل 1
شغ@@ 1
لاه@@ 1
موي 1
يكو 1
النرويج 1
بلي@@ 1
مماثلة 1
التشغيل 1
الأمريك@@ 1
اليومية 1
مؤسس 1
شا 1
المصدر 1
الأفكار 1
النبات 1
ليون@@ 1
S 0.36874810377038314
8م 1
الجيل 1
الكندية 1
ذكرت 1
رئي@@ 1
سابقًا 1
مكافحة 1
I@@ 0.16338113066954632
تابع 1
الهادئ 1
الآسيوية 1
عالمية 1
الإجراءات 1
التذ@@ 1
طيف 1
يسبب 1
السلوك 1
ومج@@ 1
1912 0.8673095881264131
ّي 1
الأمور 1
الكون 1
الكون@@ 1
فعالية 1
تلق@@ 1
جورجيا 1
ريو 1
علامات 1
لمة 1
تات 1
لاق 1
وأكثر 1
وكل 1
توأمة 1
هُ@@ 1
اعتماد 1
ٌ@@ 1
الصحف 1
إقامة 1
الحسين 1
مشاريع 1
هور@@ 1
وزراء 1
جنود 1
أشخاص 1
قوي 1
وعي 1
المشاكل 1
بث 1
عمدة 1
وتكون 1
زمة 1
لبن@@ 1
للدولة 1
خان@@ 1
داول 1
الخلفية 1
الشرا@@ 1
اليا 1
حكوم@@ 1
توفيت 1
وضعت 1
شديدة 1
34 0.86435590247989
الإض@@ 1
ولات 1
يحصل 1
عك@@ 1
مساحتها 1
اذ 1
زعيم 1
إشارة 1
العرش 1
تزيد 1
ثنائية 1
هيل 1
الذاكرة 1
الطوارئ 1
سلوك 1
طبيعية 1
قالت 1
وايت 1
التلفزيون 1
الين 1
ثت 1
معرض 1
الأدلة 1
الحروب 1
ثرة 1
الأرضية 1
المحتمل 1
للتح@@ 1
عبد@@ 1
مود 1
لوي 1
ممث@@ 1
ناه 1
تاد 1
فحص 1
ويك@@ 1
التحليل 1
فمن 1
مغنية 1
المقاطعات 1
وض 1
الفضائية 1
تيل 1
عرفت 1
هوكي 1
وأك@@ 1
واص@@ 1
ينش@@ 1
ترنت 1
افر 1
الأف@@ 1
رياضة 1
0م 1
شهرة 1
افع 1
الكهرباء 1
الأث@@ 1
الاختبار 1
نيك@@ 1
أحيانًا 1
العضوية 1
دتها 1
مسر@@ 1
سياسات 1
الأيام 1
ضرب 1
جيدة 1
وصلات 1
قِبل 1
أوت@@ 1
إز@@ 1
الكتلة 1
باري 1
خيص 1
شاع@@ 1
يتطلب 1
السيدة 1
طق 1
بلد 1
بوس 1
بيلي 1
قادرة 1
مجموع@@ 1
5م 1
إتش 1
الكلي 1
المجالات 1
الجائزة 1
آت 1
تمام 1
كاي@@ 1
اريا 1
لنا 1
الغابات 1
الفار@@ 1
ايدة 1
O 0.27111133361103595
فيتش 1
متعدد 1
إرسال 1
لإنتاج 1
موز@@ 1
الرياض 1
تشخيص 1
التركي 1
مسابقة 1
الغير 1
6م 1
William 0.3172102938960144
اعتق@@ 1
الليبرالي 1
الوفاة 1
البول@@ 1
الرباط 1
الهند@@ 1
كومة 1
وفاز 1
يور@@ 1
3م 1
التكنولوجيا 1
حدثت 1
الإث@@ 1
نك@@ 1
أولئك 1
بلاده 1
تسع 1
جهزة 1
سبع 1
علاوة 1
وإي@@ 1
وطنية 1
المهني 1
كريس 1
مخرج 1
رت@@ 1
عادت 1
للنساء 1
والمح@@ 1
اختياره 1
الجل@@ 1
حقيقة 1
الأشياء 1
المنف@@ 1
صندوق 1
رئ@@ 1
الأد@@ 1
الإسك@@ 1
صية 1
لتكون 1
السير 1
36 0.7960818722812247
الجهة 1
الرئاسية 1
سمع@@ 1
التحالف 1
الحاسوب 1
النسبة 1
مبدأ 1
معد@@ 1
مقاطعات 1
عته 1
196@@ 1
اقترح 1
الاشتراكي 1
سيتم 1
ثقاف@@ 1
غرق 1
الرأي 1
السيرة 1
مغني 1
مأ@@ 1
غزة 1
كيلو 1
ءة 1
ضر 1
قان 1
نيس 1
وام 1
يختلف 1
اشية 1
آلة 1
ليبيا 1
المركبات 1
بجانب 1
عى 1
معنى 1
هِ 1
وعة 1
بدور 1
تسب@@ 1
عار@@ 1
الألمان 1
طائرات 1
يقارب 1
سكنية 1
صُ@@ 1
قص 1
بعاد 1
درك 1
اللاحقة 1
تشيلي 1
نجوم 1
الاهتمام 1
تد 1
اليون@@ 1
باخت@@ 1
دانيال 1
دود 1
لدعم 1
الإر@@ 1
رود 1
التراث 1
تقريباً 1
الاعتراف 1
25@@ 1
نص 1
السادسة 1
فرز 1
اسب 1
المناعة 1
أساليب 1
أنش@@ 1
مقدمة 1
الأسبوع 1
طل 1
قار@@ 1
تيس 1
مؤسسات 1
37 0.9192422449637849
نجح 1
الحقيقية 1
وبعدها 1
برشلونة 1
قضاء 1
متص@@ 1
القراءة 1
السن 1
الأسب@@ 1
دورًا 1
السرعة 1
تمييز 1
سوية 1
شرك@@ 1
غوا@@ 1
كاه@@ 1
الطبيب 1
زالت 1
197@@ 1
زرا@@ 1
لـ@@ 1
كلارك 1
B 0.23293517950238163
نانة 1
القنيطرة 1
المؤرخ 1
خري@@ 1
دري 1
يرتبط 1
البق@@ 1
اللاعبين 1
والمعلومات 1
والمن@@ 1
وعادة 1
تتعلق 1
حديقة 1
المعر@@ 1
اني@@ 1
سورية 1
التقدم 1
تينية 1
الفردي 1
بأي 1
موظ@@ 1
ميث@@ 1
أمريك@@ 1
تمد 1
الأدنى 1
i 0.12205487603053429
ادم 1
تدريس 1
كثيرا 1
إندونيسيا 1
التفاعل 1
المضادة 1
بوسطن 1
ولاد 1
الأب 1
فريدريك 1
ائلة 1
التغذية 1
دراك 1
التدريس 1
وأُ@@ 1
تقارير 1
المساواة 1
حفل 1
لنادي 1
لج 1
وليام 1
ياس@@ 1
الأولي 1
الرومان 1
الضفة 1
تيني 1
الممتاز 1
ثابت 1
والرابعة 1
بوجود 1
دوق 1
مله 1
القصيرة 1
اهتمام 1
لقة 1
مثلا 1
المقابل 1
الموضوع 1
جس@@ 1
الشهير 1
قامة 1
هيكل 1
48 0.9278384261279113
السطح 1
سويسرا 1
الأمة 1
الصناعي 1
مند@@ 1
موقف 1
يح 1
واضح 1
الوظائف 1
عند@@ 1
بالد@@ 1
أسفل 1
أنشأ 1
كلم 1
ابر 1
اسكتلندا 1
الأغاني 1
يستخد@@ 1
فذ 1
باني 1
وأنه 1
4م 1
باد 1
بوت 1
تكار 1
سالم 1
فضاء 1
قديمة 1
ضح 1
لوي@@ 1
رسمي 1
منهما 1
ويعد 1
ؤ 1
الجماعة 1
تعرض@@ 1
حظر 1
صال 1
كاري 1
صار 1
الأشعة 1
الإسكندرية 1
نيسان 1
ومرا@@ 1
فورت 1
لأكثر 1
هدفًا 1
سول@@ 1
عازف 1
16@@ 1
جاه@@ 1
المنق@@ 1
شبكات 1
الإم@@ 1
الطرف 1
مقاطعه 1
مواط@@ 1
تبه 1
هاري 1
اجتماع 1
اشتهر 1
السوداء 1
سيلف@@ 1
ويه 1
} 1
شديد 1
بالش@@ 1
ترج@@ 1
سند@@ 1
احتج@@ 1
فلي@@ 1
أفكار 1
طان@@ 1
هتلر 1
يتميز 1
التفكير 1
الابن 1
الممثل 1
نيت 1
بمع@@ 1
فيات 1
اتفاق 1
الوق@@ 1
قابلة 1
لغات 1
إع@@ 1
البح@@ 1
كلمات 1
نج 1
الليل 1
المشترك 1
موج@@ 1
نظمة 1
يكس 1
15@@ 1
اث 1
شح 1
9م 1
أعط@@ 1
انته@@ 1
مري@@ 1
وليد 1
1910 0.8234308429717291
الباب 1
دولارًا 1
رسميًا 1
توقع 1
دب@@ 1
ملكية 1
الأموال 1
تمتد 1
سال 1
كتبت 1
محتر@@ 1
إيجابية 1
سبورغ 1
مانويل 1
والستين 1
دج 1
بحوث 1
حدو@@ 1
قدي@@ 1
ريًا 1
الأه@@ 1
الإقليمية 1
سوا 1
قتها 1
قراءة 1
James 0.3209660540707138
الديني 1
جندي 1
حركات 1
صدي@@ 1
وحد@@ 1
الشؤون 1
تصني@@ 1
قاضي 1
الأصوات 1
ريل 1
عمرو 1
الوعي 1
منظمات 1
بوب@@ 1
150 0.9838772479917904
السري@@ 1
55 0.9249348590098769
باه@@ 1
اسات 1
لاحقا 1
ميز@@ 1
يلي@@ 1
الماجستير 1
المشاريع 1
الوجه 1
صاد@@ 1
الحلفاء 1
الحلقة 1
الطويل 1
تلفزيوني 1
ثلاثين 1
اجتماعية 1
البلو@@ 1
الحدث 1
مراجعة 1
تارودانت 1
1915 0.8964877886777189
الجامعي 1
الضرائب 1
عمرها 1
الْ@@ 1
صاح@@ 1
الدنمارك 1
رمضان 1
قرة 1
منصبه 1
والتر 1
غيرها 1
شات 1
الغر@@ 1
الموجود 1
افي@@ 1
التشخيص 1
الميث@@ 1
غالباً 1
38 0.8059883227460457
الشتاء 1
النيل 1
نعة 1
فإنها 1
تشبه 1
منية 1
التيار 1
ولوجي 1
ماساتشوستس 1
وتي@@ 1
المقام 1
ناث 1
البروتين 1
الجزر 1
جاكسون 1
التصنيف 1
وارد 1
كنت 1
هرة 1
P 0.43513846349188245
الجزائري 1
تحاد 1
مقبرة 1
أشعة 1
الدخل 1
الرسوم 1
تجارب 1
جبهة 1
سيرة 1
آذار 1
الكنائس 1
ةٌ 1
لتصبح 1
النمط 1
سلا 1
المعنى 1
طراز 1
فترات 1
فلور@@ 1
أساسية 1
جاءت 1
للولايات 1
E 0.3694484738935922
اعتبارًا 1
البحري 1
وخسر 1
التنظيم 1
وقية 1
الكل@@ 1
مرتبطة 1
لدراسة 1
الخصائص 1
بتون 1
اجي 1
ألا@@ 1
الكلمات 1
بسهولة 1
بنتيجة 1
الذهبي 1
المدير 1
الموافقة 1
ظاه@@ 1
مشرو@@ 1
خرية 1
جهود 1
ريش 1
عر 1
تدعى 1
تعليم@@ 1
us 0.11340427879695161
العمارة 1
الكويتي 1
بقوة 1
رضي 1
كسي 1
نبات 1
الأطراف 1
اللغ@@ 1
المقدسة 1
طبيعي 1
ادر 1
تخذ 1
لمنع 1
ورغم 1
الياباني 1
الانتقال 1
المحافظين 1
الملح@@ 1
خام@@ 1
ديان 1
لأفضل 1
كهرب@@ 1
مقد@@ 1
on 0.011804751537866337
أسود 1
أكيد 1
بلي 1
خم 1
الك 1
المعايير 1
اقتر@@ 1
الصيف 1
صنعاء 1
واحدًا 1
اكا 1
سعر 1
أسابيع 1
المغربي 1
عائلته 1
n 0.13674449469307517
فلوريدا 1
المعالجة 1
بني@@ 1
العائ@@ 1
العضلات 1
النف@@ 1
بسي@@ 1
محطات 1
ألبرت 1
ابها 1
صور@@ 1
الشريف 1
لإعادة 1
ائهم 1
الأجن@@ 1
هيدرو@@ 1
تقي@@ 1
اتخاذ 1
البريد 1
مسألة 1
العض@@ 1
عضوا 1
مونت@@ 1
بوي 1
فيلي@@ 1
ضعي@@ 1
الذهب 1
النصوص 1
الفض@@ 1
الفيدرالية 1
الكلاسيكية 1
شراء 1
أين 1
البكالوريوس 1
غادر 1
نور 1
وست 1
تايلور 1
سجلت 1
ترجم 1
والز@@ 1
3.@@ 1
تماما 1
رج 1
إيجاد 1
ثالث 1
هونغ 1
للحزب 1
ومنتخب 1
رسون 1
ستخدم 1
التخطيط 1
نفسي 1
النقاد 1
وريين 1
خذ 1
عيين 1
قام@@ 1
والتع@@ 1
الأردنية 1
الغلاف 1
سؤ@@ 1
I 0.091562587625699
الأش@@ 1
سرى 1
إثر 1
روسية 1
شاه 1
J@@ 0.12318787144212508
البنك 1
للرجال 1
الكات@@ 1
أت@@ 1
سطات 1
محلية 1
سارة 1
غاز 1
ويقع 1
التحديد 1
وتر 1
لاح 1
التض@@ 1
زاد 1
طُ@@ 1
الصلة 1
ضخم 1
خلف@@ 1
فيينا 1
بيات 1
الانق@@ 1
الغزو 1
سكر 1
للسي@@ 1
الأمطار 1
الجو 1
ربي@@ 1
D 0.27972316544577325
إجراءات 1
الكيمياء 1
تطبيقات 1
حضور 1
كبي@@ 1
برتغ@@ 1
18@@ 1
42 0.8541195586955305
خرة 1
الجامعية 1
القتل 1
الكام@@ 1
المسيح 1
النصر 1
الهوية 1
وبدأت 1
وها 1
2021 0.19134120867340346
أمثلة 1
أقسام 1
احتي@@ 1
الناتجة 1
ڤ@@ 1
ة- 1
قون 1
أرسل 1
المبكر 1
ريون 1
الوث@@ 1
التاريخي 1
رأ@@ 1
1916 0.8789006320480567
تصف 1
نماذج 1
هيك@@ 1
الأجنبية 1
خوا@@ 1
1913 0.8202220530544287
المشكلة 1
الواق@@ 1
بلدان 1
تتألف 1
دينية 1
رئيسًا 1
رته 1
كير 1
ناً 1
وأم@@ 1
آدم 1
الافترا@@ 1
المكتب 1
مصنع 1
ويت@@ 1
سلبية 1
مارات 1
ناز@@ 1
بريد 1
بند@@ 1
تعليمه 1
ذن 1
كانا 1
هاء 1
اعتزل 1
العاملين 1
ترى 1
وعن 1
ونتيجة 1
الكثافة 1
بجائزة 1
تمر 1
عودة 1
الج 1
روك 1
اهم 1
حصول 1
مؤشر 1
الأنسجة 1
دوره 1
تخصص@@ 1
مشتركة 1
قبال 1
الابتدائية 1
رمز@@ 1
سابقا 1
لاحقاً 1
مضرب 1
موضع 1
أخيه 1
استُ@@ 1
عراض 1
السوفيتية 1
ديين 1
زاوية 1
ورن 1
ومية 1
يعقوب 1
ومث@@ 1
دني 1
فيلادلفيا 1
إصلاح 1
بلقب 1
زايد 1
وجيزة 1
الوا 1
ولكن@@ 1
amp 0.12788248942394226
الهيكل 1
تربية 1
التحقيق 1
سها 1
الرئة 1
حاج@@ 1
ميد@@ 1
R 0.3057510250369817
بعده 1
الجميع 1
بقايا 1
قررت 1
الصدر 1
رع@@ 1
ولهم 1
ضا 1
عدا 1
العام@@ 1
العمو@@ 1
للمركز 1
يمور 1
الخليفة 1
العم@@ 1
هزيمة 1
والعديد 1
أندية 1
طرية 1
فرج 1
وسيا 1
المستوط@@ 1
الموافق 1
بمساعدة 1
دمج 1
فح@@ 1
محدودة 1
وعضو 1
أون@@ 1
روبر@@ 1
مائ@@ 1
تبعد 1
تحالف 1
طلاع 1
للمدينة 1
195@@ 1
ثلاثي 1
إكس 1
زف 1
ممن 1
الباحثين 1
القيم 1
1908 0.8800463979396477
النتيجة 1
مترو 1
الفنانين 1
إنس@@ 1
المستقلة 1
النجم 1
تعيينه 1
دمان 1
أسعار 1
ئاب 1
النجاح 1
جميل 1
دراجات 1
قانونية 1
الإع@@ 1
المجر 1
يوفر 1
بلجيكا 1
فاس@@ 1
النهضة 1
فيصل 1
مكناس 1
أدلة 1
دن@@ 1
قن@@ 1
وير@@ 1
السائل 1
تسجي@@ 1
السفلي 1
املة 1
ماي 1
زًا 1
فرت 1
للمرأة 1
ابا 1
الاتحادية 1
الكمبيوتر 1
المخاطر 1
عال 1
المب@@ 1
تح 1
سكا 1
نال 1
الأشجار 1
المنازل 1
ناس@@ 1
الحم@@ 1
المجلة 1
اعل@@ 1
الأجزاء 1
المسيحي 1
آلية 1
شراف 1
طري 1
غيرات 1
لحقوق 1
معرو@@ 1
اعتبار 1
دّ 1
طار 1
كتور 1
وبري@@ 1
الفكر 1
بيض 1
فون@@ 1
كها 1
17@@ 1
الدف@@ 1
السلو@@ 1
اليه 1
كد 1
مقياس 1
ينين 1
تخزين 1
حاجة 1
مستقل 1
بديل 1
روسي 1
والسي@@ 1
وتعد 1
تعرضت 1
الطويلة 1
جرائم 1
فريد 1
يعاني 1
متق@@ 1
وبل@@ 1
ياته 1
الرسالة 1
العاشر 1
تساعد 1
الأحزاب 1
ولل@@ 1
الأخبار 1
النازية 1
جسر 1
نسي@@ 1
المتعددة 1
سفي@@ 1
نيه 1
والتق@@ 1
الأسواق 1
الترتيب 1
منص@@ 1
يونغ 1
مئات 1
مشترك 1
وفية 1
السوفي@@ 1
ليد 1
أسيس 1
القاضية 1
حكومية 1
مبادئ 1
ناول 1
ومو@@ 1
L4 1
إِ@@ 1
ضباط 1
للقوات 1
الكحول 1
بارة 1
وسع 1
بعثة 1
الشهيرة 1
الفرعية 1
القارة 1
سافر 1
عاية 1
للحكومة 1
معبد 1
كثيرًا 1
ماة 1
ينس 1
الفن@@ 1
وكتب 1
المخرج 1
بحوالي 1
والمؤ@@ 1
ءه 1
ميلي@@ 1
الاق@@ 1
الدراسية 1
المور@@ 1
كافية 1
أنطونيو 1
تزوجت 1
ديها 1
معًا 1
يانا 1
سرعان 1
كارلوس 1
مئوية 1
رسل 1
زيرة 1
أل 1
انى 1
مائة 1
الأطلسي 1
تبين 1
تصمي@@ 1
ثها 1
L 0.22097859563040498
المخط@@ 1
كشاف 1
انيون 1
التدري@@ 1
وبسبب 1
تستطيع 1
تفاع 1
شين@@ 1
المجموع 1
حجر 1
الرياضة 1
الكاملة 1
الإذاعة 1
العظام 1
وعبد 1
اتصالات 1
مقابلة 1
جائحة 1
متن 1
اتفاقيات 1
انًا 1
تايمز 1
شرة 1
فال@@ 1
التغ@@ 1
الطبقات 1
أطلقت 1
أندرو 1
المهام 1
دولي 1
الموض@@ 1
علن 1
كبيرا 1
كيز 1
أب@@ 1
ألكسندر 1
ازي 1
نظرة 1
استقلال 1
الأقصى 1
نساء 1
ئين 1
سهل 1
غالبية 1
كوكب 1
إدخال 1
التطبيقات 1
القادر 1
بحاث 1
جاي 1
عنصر 1
فوا 1
الفري@@ 1
والذين 1
العدالة 1
القصص 1
صعوبة 1
صفحة 1
الدواء 1
ق.م 1
مبكر 1
أقرب 1
ألا 1
المسي@@ 1
سى 1
كالي@@ 1
مانشستر 1
يقل 1
الأشكال 1
19@@ 1
التركيبة 1
العنص@@ 1
المكت@@ 1
الإداري 1
الدوائر 1
المجمع 1
فتاة 1
قدره 1
64 0.6680431318143369
ابت 1
اعدة 1
افترا@@ 1
السكنية 1
العقل 1
علان 1
مقرها 1
الإصلاح 1
باف@@ 1
ينا@@ 1
التونسي 1
الرقمية 1
جنيه 1
قى 1
ماك 1
هورة 1
روض 1
إنهاء 1
الجماعية 1
الجميلة 1
بابا 1
دائمًا 1
ملاح@@ 1
ومحمد 1
ورم 1
الأبعاد 1
الرس@@ 1
شائ@@ 1
شيخ 1
وهات 1
إدو@@ 1
الوادي 1
ايت 1
ديز 1
لاحات 1
وود 1
ازية 1
الصوتية 1
ومخرج 1
600 0.9369641177569837
فات@@ 1
باغ@@ 1
تنتمي 1
صيد 1
وديو 1
الحوا@@ 1
النس@@ 1
جًا 1
ليك 1
إليزابيث 1
الناج@@ 1
محدد 1
دامة 1
لحماية 1
القائم 1
يرها 1
T 0.32104991810010675
الرحم 1
السياسات 1
الكومي@@ 1
بيرغ 1
دام@@ 1
يُعتبر 1
الصار@@ 1
سجن 1
الباب@@ 1
سانتا 1
عضوية 1
اللواء 1
حققت 1
13.@@ 1
التعرض 1
القاد@@ 1
خمس@@ 1
معة 1
1911 0.8053325993716259
اكس 1
الجماعات 1
صنا@@ 1
القضائية 1
قاموا 1
واج 1
جَ@@ 1
إخ@@ 1
اكم 1
قوا 1
كانية 1
للعديد 1
للكريكت 1
يؤثر 1
إعداد 1
المكتبة 1
سلي@@ 1
طبقات 1
° 0.3133683614036392
إغلاق 1
خي 1
محركات 1
مركبات 1
ةُ 1
جريمة 1
مخط@@ 1
مارة 1
استي@@ 1
حديث 1
ؤدي 1
السينمائي 1
تخطيط 1
تقري@@ 1
نك 1
وعالم 1
المتحركة 1
لعلاج 1
العدوى 1
كاتبة 1
1905 0.8036271399585768
أداة 1
الفيزياء 1
درو 1
وضح 1
والولايات 1
الحيوي 1
بيون 1
افتتا@@ 1
البروتينات 1
أستاذ@@ 1
الأكسجين 1
بفضل 1
صر@@ 1
عقود 1
اليمين 1
تكنولوجيا 1
جاج 1
حفظ 1
وثيقة 1
الحرارية 1
الصخور 1
تشاب@@ 1
جامعي 1
استجابة 1
القل@@ 1
خصوصا 1
يهود 1
الأمين 1
عضاء 1
موريس 1
الأفريقي 1
هود 1
أخبار 1
للإحصاء 1
موافقة 1
اوا 1
وبحلول 1
عرض@@ 1
بسيطة 1
فار 1
ميين 1
اجات 1
والاجتماعية 1
السيارة 1
طاق@@ 1
مجة 1
تبط 1
الأفارقة 1
للجيش 1
معاد@@ 1
الهولندية 1
تغي@@ 1
جوانب 1
يساعد 1
السلا@@ 1
تحصل 1
راتيجية 1
مايك 1
منا 1
اريس 1
البالغ 1
التفا@@ 1
الثدي 1
وائية 1
تسعة 1
تور 1
كال 1
39 0.849655253336589
M 0.3243654983380848
ثمار 1
فنلندا 1
مجد@@ 1
أحد@@ 1
عنف 1
كيت 1
مجتم@@ 1
اص 1
المساحة 1
تيد 1
حان 1
للطاقة 1
ارته 1
الساح@@ 1
فيكتوريا 1
مالا 1
نصر 1
احات 1
بارية 1
تخرج@@ 1
يقال 1
سلي 1
سيرته 1
لبناء 1
ملوك 1
الأخلا@@ 1
القاطنين 1
بلية 1
قوم 1
وائل 1
ابق 1
السود 1
غيير 1
والدتها 1
َّا 1
المركبة 1
ذور 1
قاسم 1
أية 1
القطع 1
المتص@@ 1
المستمر 1
ساي@@ 1
احتلال 1
نخ@@ 1
امت 1
خفاض 1
لاعب@@ 1
للكتلة 1
النقد 1
تياز 1
جت 1
رق 1
وتست@@ 1
التغيير 1
بدلًا 1
بنات 1
تجميع 1
وطة 1
وظي@@ 1
أراد 1
افه 1
الأند@@ 1
مركبة 1
معر@@ 1
X 0.3133599189544589
أعد@@ 1
بعينيات 1
زيمة 1
قِ@@ 1
السلع 1
بروتين 1
الفرنسيين 1
الممثلة 1
جيب 1
ينيين 1
التقارير 1
الصيد 1
ضبط 1
وور@@ 1
الرب@@ 1
توني 1
قرن 1
وإعادة 1
التحول 1
الدفع 1
تدى 1
المول@@ 1
طيلة 1
غضون 1
لواء 1
متم@@ 1
الدما@@ 1
جعفر 1
دعا 1
شاب 1
معي@@ 1
العدل 1
رأى 1
للتع@@ 1
يشبه 1
أفغانستان 1
الرئ@@ 1
المقرر 1
اول 1
لفت 1
هى 1
أوهايو 1
الأزرق 1
وُلد 1
1909 0.8810892636899453
السكك 1
رياض@@ 1
تضمنت 1
للمر@@ 1
ألك@@ 1
العادية 1
شيوعًا 1
يط@@ 1
الإجه@@ 1
التنفس 1
ودي 1
49 0.9411942675517267
جهات 1
الرسم 1
باتجاه 1
شمس 1
غال 1
مشاه@@ 1
نموذ@@ 1
الخلي@@ 1
أقوى 1
يتمكن 1
اجتماعي 1
متط@@ 1
منفصلة 1
يشار 1
تفاضة 1
تِ@@ 1
ساس@@ 1
صباح 1
الاتجاه 1
الغذائي 1
تأتي 1
وبشكل 1
جمه@@ 1
نباتي 1
هوب@@ 1
ستا 1
ؤه 1
ستان@@ 1
كميات 1
وغرا@@ 1
الاستعمار 1
الرياح 1
دعوة 1
سار 1
مرضى 1
عث@@ 1
تراجع 1
وكما 1
الاحتي@@ 1
الواحدة 1
الوفيات 1
بْ@@ 1
جذب 1
زيت 1
مكت@@ 1
ميلر 1
الطي@@ 1
تاريخها 1
تحتاج 1
ربيع 1
عرضة 1
الشائعة 1
اوف 1
قابل 1
أخت@@ 1
بالب@@ 1
بالضربة 1
هارفارد 1
يمتد 1
التحتية 1
خري 1
شارة 1
التعرف 1
بدرجة 1
يومًا 1
شخصًا 1
ستيوارت 1
الخضراء 1
رفض@@ 1
كاز@@ 1
كثرة 1
ّع 1
القاضي 1
صفوف 1
صي 1
كيلي 1
لولاية 1
أخلا@@ 1
انفص@@ 1
مثلاً 1
250 1
رادات 1
التحر@@ 1
الأج@@ 1
والعمل 1
إله 1
العاط@@ 1
القواعد 1
بام@@ 1
معارضة 1
وقت@@ 1
المنظ@@ 1
يدي 1
قرط@@ 1
زن@@ 1
أنثى 1
دورات 1
صفة 1
كته 1
ونس 1
يهدف 1
أبو@@ 1
الحاج 1
الغز@@ 1
بروس 1
تمي@@ 1
جانية 1
سوري 1
بران@@ 1
ثناء 1
أطل@@ 1
الصرف 1
مائية 1
الشعوب 1
المعادن 1
روايات 1
مكونات 1
الأجسام 1
ديدة 1
ديلات 1
غم 1
يجري 1
أوري@@ 1
مثلت 1
واحي 1
القليل 1
توجيه 1
طقة 1
ولاً 1
الحر 1
الوح@@ 1
ثارة 1
مناه@@ 1
نوب@@ 1
اتين 1
السابعة 1
العلامات 1
المنط@@ 1
ارو 1
الكونغرس 1
حافظ@@ 1
التجربة 1
أصوات 1
العمي@@ 1
اليس 1
مويل 1
الخلا@@ 1
المتوسطة 1
تجه 1
تشارك 1
روية 1
شت 1
أولاً 1
عامر 1
نشاء 1
نيا 1
فردي 1
d 0.057384514843138335
ذب 1
طيع 1
ظهار 1
وريات 1
الأسماء 1
الإقليم 1
البوذية 1
الين@@ 1
طوي 1
تاف@@ 1
صحية 1
أكدت 1
أوروب@@ 1
تلال 1
توحيد 1
يسجل 1
الويب 1
مساح@@ 1
اراً 1
علية 1
متلكات 1
ثلاثية 1
يّ@@ 1
بالتعاون 1
رومانيا 1
غن 1
التي@@ 1
الجيولوج@@ 1
بولي@@ 1
1906 0.8298503848579236
ضاف 1
كيب 1
جماعات 1
هز@@ 1
المراكز 1
حدد 1
خطاب 1
ظلت 1
95 0.9911859314157461
المنخفضة 1
بعي@@ 1
فيهم 1
وقبل 1
زاب@@ 1
لتطوير 1
ماذا 1
اليمنى 1
جامعات 1
القن@@ 1
بدل 1
ضيق 1
قاط 1
ولوج@@ 1
المفهوم 1
عددًا 1
أثار 1
السلاح 1
تقي 1
جيا 1
George 0.2665850861619633
آلات 1
800 0.879056549480866
أسو@@ 1
التلفزيونية 1
الرومان@@ 1
شملت 1
طبية 1
فروع 1
للاتحاد 1
الألوان 1
التدخل 1
التعريف 1
عمق 1
وأص@@ 1
دائما 1
زرع 1
سيات 1
شجرة 1
المهاجرين 1
الناش@@ 1
كلي 1
لمجموعة 1
يحاول 1
إيطالي 1
المحليين 1
بالط@@ 1
سلطات 1
مجرة 1
نفسية 1
أزمة 1
الآداب 1
دوب@@ 1
سفن 1
بوصف@@ 1
ستكون 1
ارعة 1
شائعة 1
عالي 1
السماح 1
العبيد 1
الغرض 1
المشاة 1
ضرورة 1
فيتنام 1
كوف 1
لدرجة 1
وجنوب 1
وده 1
احية 1
توى 1
السياحة 1
حرف 1
إعطاء 1
الصوديوم 1
بعدم 1
واجهة 1
30@@ 1
استعادة 1
التسويق 1
الكرا@@ 1
كلما 1
سيًا 1
والمرا@@ 1
44 0.6637266064859525
دائم 1
راض 1
ستيف 1
أندرسون 1
الانتشار 1
البور@@ 1
الطالب 1
العدو 1
تج 1
حافظ 1
حديثة 1
رال 1
الجينات 1
افا 1
العد@@ 1
بالخ@@ 1
وزيادة 1
41 0.823508654227845
أنماط 1
البرتغ@@ 1
اللق@@ 1
المحي@@ 1
الهيدرو@@ 1
إنتاجه 1
الداخل 1
الزاوية 1
السباق 1
بادة 1
وأحي@@ 1
U@@ 0.14382512635560635
الاعتبار 1
بعيد 1
ويجب 1
الإله 1
الثلاث@@ 1
طاع 1
لاز@@ 1
القرا@@ 1
راضي 1
عرضه 1
الأدوات 1
الحاضر 1
الخيرية 1
الموظفين 1
والأربعين 1
ارتبا@@ 1
المقدمة 1
بيل@@ 1
تدعم 1
سير@@ 1
محاولات 1
85 0.9734693809046655
سائل 1
عدن 1
تردد 1
مارسة 1
مهنة 1
هاي 1
قصيدة 1
أبيض 1
السريرية 1
المائة 1
يورو 1
الخز@@ 1
تكري@@ 1
لإنشاء 1
لتلك 1
لمدينة 1
لُ@@ 1
آب 1
الاتفاق 1
الكلام 1
واريخ 1
F 0.29183115789277825
بصفة 1
رْ@@ 1
شون 1
اليهودي 1
تموز 1
شان 1
لوف 1
بعض@@ 1
نْ@@ 1
اشي 1
الإمبراط@@ 1
الثلا@@ 1
الحضرية 1
جناح 1
راق 1
المسافة 1
علمي 1
لند@@ 1
هاب@@ 1
نفس@@ 1
الاستجابة 1
اتٍ 1
الشديد 1
دعم@@ 1
ضه 1
إسرائ@@ 1
تفق 1
1907 0.8002942644999785
56 0.9776947385679848
المغناطيسي 1
استن@@ 1
مخطط 1
البة 1
جراء 1
ارتك@@ 1
الجناح 1
بشكلٍ 1
تيم 1
طلقت 1
— 0.02292477273684559
أوكرانيا 1
ثمان@@ 1
لاخت@@ 1
والبي@@ 1
يمتلك 1
اتخ@@ 1
ثار 1
جيمي 1
حصار 1
قيات 1
الفم 1
مهام 1
1900 0.6472814581856636
اختي@@ 1
يصف 1
يُعد 1
أغلبية 1
السماء 1
مسقط 1
أنشأت 1
القريبة 1
تاز 1
رول 1
مسيرة 1
أسماك 1
أونتاريو 1
باتريك 1
حزيران 1
دوس 1
ضغ@@ 1
المحاكم 1
المعدنية 1
فعلى 1
البروتست@@ 1
الحركات 1
مالة 1
منصور 1
الجمعة 1
داخلية 1
خطأ 1
ويب 1
إث@@ 1
إمارة 1
الجودة 1
المناسبة 1
مرمى 1
47 0.8344020328564569
إذ@@ 1
أشجار 1
الروايات 1
وجهات 1
أظهر 1
النظم 1
بقيت 1
جزائ@@ 1
سعة 1
المتط@@ 1
شاء 1
ماد 1
X@@ 0.27959424999204435
التقنيات 1
الفضل 1
ميزات 1
الإصدار 1
الكيميائي 1
طوكيو 1
فريق@@ 1
لعب@@ 1
H 0.42460087848324535
العملاء 1
بنفسه 1
الصعب 1
تفظ 1
توف@@ 1
أعقاب 1
تملك 1
يشارك 1
الممارسة 1
تجة 1
دورا 1
زالة 1
يمث@@ 1
المبادئ 1
شمل 1
فرص 1
هري 1
شريك 1
طم 1
المراجع 1
تشجيع 1
كريستيان 1
أرسل@@ 1
أسست 1
رسائل 1
مطلع 1
القادة 1
اليون 1
ختلف 1
طرا@@ 1
متوا@@ 1
الكهربائي 1
النقاط 1
الهاتف 1
بنحو 1
غهام 1
كيميائي 1
ومق@@ 1
الأندية 1
ضخمة 1
رواد 1
الفقر 1
ثبت 1
كثيراً 1
مؤلفاته 1
يتان 1
الحراري 1
الموسيقي 1
حصن 1
قرابة 1
لاع 1
ضع@@ 1
وتعل@@ 1
وغالبًا 1
أيار 1
التنفيذ 1
السنين 1
كتبها 1
اختلاف 1
ارتفاع@@ 1
سعى 1
نسبيًا 1
نوا 1
الهيدروجين 1
بالعمل 1
تطوي@@ 1
مسا@@ 1
ميلان 1
ّب 1
أعيد 1
الربيع 1
المؤلف 1
بوش 1
مؤس@@ 1
1904 0.8224185827280461
البيئي 1
الرئاسة 1
لتها 1
لعدم 1
بدوره 1
تتمتع 1
الرق@@ 1
المدرب 1
مكسيكي 1
نشر@@ 1
43 0.8281729966891203
الاعتماد 1
التقلي@@ 1
المخدرات 1
وامت@@ 1
بلان@@ 1
تركيب 1
حوض 1
مدادات 1
مرش@@ 1
مناقشة 1
وذكر 1
ولهذا 1
إك@@ 1
اسم@@ 1
t 0.06513736566716141
الفيروسات 1
شكلت 1
قصد 1
ميكان@@ 1
تحدد 1
خطاء 1
صرا@@ 1
والدين 1
استمرار 1
واط 1
David 0.2683456969727855
عربي 1
الأوعية 1
وأول 1
بورت 1
فتاء 1
شروط 1
الشيء 1
دقة 1
فكانت 1
روج 1
لمجلس 1
خار 1
أعوام 1
انتهى 1
194@@ 1
الحربية 1
المشاركين 1
الده@@ 1
الاختلافات 1
تقدر 1
الشرعية 1
المتو@@ 1
خروج 1
اخر 1
منه@@ 1
استئ@@ 1
تخفيف 1
تيار 1
إسحاق 1
الجريمة 1
المناخية 1
ساس 1
فُ@@ 1
محاض@@ 1
مريض 1
خسر 1
الفات@@ 1
مره 1
يمت@@ 1
إسك@@ 1
الآلهة 1
تطورت 1
لإدارة 1
اضطرابات 1
الجلي@@ 1
الوط@@ 1
للف@@ 1
الناصر 1
الوزير 1
53 0.946520602968677
كينغ 1
يدخل 1
الاختبارات 1
المحتوى 1
المساه@@ 1
خوة 1
شه 1
46 0.8254744714203325
المسلمون 1
الهولندي 1
طلبات 1
مقاب@@ 1
استر@@ 1
الجراحة 1
بمعدل 1
ديب 1
سيدني 1
أهمها 1
المرمى 1
الذات 1
ديس 1
متف@@ 1
البريطانيين 1
الترجمة 1
للمح@@ 1
الشهر 1
سياق 1
شاشة 1
الاصطنا@@ 1
الرك@@ 1
المرو@@ 1
ملية 1
موجود 1
دورها 1
سيل@@ 1
ماس 1
أرض@@ 1
انهيار 1
درا 1
زين@@ 1
موية 1
نغ 1
52 0.7773027183404646
http 1
الخل@@ 1
انح@@ 1
غياب 1
خرا@@ 1
فيفة 1
للحفاظ 1
مشابهة 1
تُعرف 1
اظ 1
الاستثمار 1
بلوم 1
جاز 1
رّ@@ 1
غلي@@ 1
p 0.17933476856425443
افت 1
الإحص@@ 1
كًا 1
الاث@@ 1
ضمان 1
ارف 1
التشريعي 1
المراحل 1
لح 1
المعارك 1
التشي@@ 1
المباشرة 1
سنتين 1
صلاة 1
مازي@@ 1
نافس 1
ادين 1
الفائ@@ 1
شيا 1
علي@@ 1
بقيمة 1
مقات@@ 1
ملح@@ 1
وجين 1
وقوع 1
حضارة 1
وعد@@ 1
يث 1
الخمسة 1
تُستخدم 1
راز 1
عضواً 1
مكون 1
الشبكات 1
ترامب 1
ذين 1
التقرير 1
المعاصرة 1
صرح 1
مشاهدة 1
والخدمات 1
وَّ@@ 1
أسي@@ 1
أنشئت 1
الأسلوب 1
الريفية 1
المالي 1
محمية 1
تمان 1
جدول 1
رياضي 1
وقيل 1
الحكومات 1
عمة 1
كور 1
مصرية 1
وإن@@ 1
وخ 1
المري@@ 1
بالذ@@ 1
وتا 1
الفلبين 1
دينام@@ 1
رأس@@ 1
انون 1
ثابتة 1
حراسة 1
خرى 1
نيوزلندي 1
اقتصادي 1
خرجت 1
عاء 1
الثقافات 1
رأسه 1
رئيسة 1
ريه 1
اؤه 1
رع 1
قطار 1
ويس 1
b 0.16257216619919257
يء 1
أوف 1
نام 1
وفد 1
الأستاذ 1
رسام 1
ثانوية 1
ربا 1
قطر@@ 1
ماكس 1
يعطي 1
الحرس 1
الغدة 1
بعدة 1
ديون 1
الاغ@@ 1
متطلبات 1
وإنما 1
بز 1
لوت 1
ذيب 1
فإذا 1
هاد@@ 1
يتحدث 1
أبن@@ 1
جراحة 1
c 0.13219287941527202
تواصل 1
توسيع 1
شعب@@ 1
المطار 1
تقدات 1
ليه 1
ميلا@@ 1
تاجر 1
المبار@@ 1
المكونات 1
يعر@@ 1
1- 1
الفت@@ 1
الجامع 1
الأرثوذكسية 1
العسك@@ 1
المعمارية 1
راجع 1
غور 1
هامة 1
تنا 1
شين 1
طون 1
كتبه 1
ينج 1
أوق@@ 1
ائفة 1
سمية 1
مرتبة 1
www.@@ 1
بإنشاء 1
الفور 1
ديرة 1
رفي@@ 1
عسك@@ 1
موسيقية 1
\ 1
بأن@@ 1
وليامز 1
يحتاج 1
باعة 1
شاركة 1
وابن 1
وبد@@ 1
يده 1
1901 0.8457905258995473
السك@@ 1
المحطة 1
تخت@@ 1
Robert 0.25647506719499724
اجتماع@@ 1
الحضارة 1
المثل 1
تعري@@ 1
ومد@@ 1
الأض@@ 1
الانتهاء 1
القول 1
الملوك 1
قم 1
ليني 1
أعظم 1
الشخصي 1
تجاوز 1
نظرا 1
واب@@ 1
وفو 1
الكري@@ 1
المجتم@@ 1
المسار 1
درست 1
سيارات 1
ميدان 1
is 0.007899727722355062
مسلم 1
صنف 1
لأسباب 1
التنفيذية 1
ديو 1
غتون 1
الشريعة 1
هنالك 1
وريد 1
اقترا@@ 1
التقسيم 1
المخابرات 1
طاقم 1
ومحامي 1
أنفاق 1
الخطاب 1
دنا 1
لوصف 1
ووص@@ 1
حيثُ 1
منصة 1
أعمالها 1
التكلفة 1
لاحية 1
هج 1
120 0.9844074147743462
العقلية 1
دريس 1
فردة 1
للد@@ 1
ليم 1
وابن@@ 1
أحيانا 1
الأهمية 1
مترا 1
يُعتقد 1
اجية 1
الهجمات 1
ديفيس 1
سيمات 1
ادق 1
يعملون 1
1903 0.8212031217334286
الوكالة 1
دعاء 1
كوت@@ 1
التقى 1
الوس@@ 1
بيني 1
العرقي 1
ذاك 1
اللاجئين 1
النسائية 1
سمه 1
لتقديم 1
مارسات 1
وقامت 1
يجيد 1
يُستخدم 1
اءة 1
التنظ@@ 1
عبيد 1
لدي@@ 1
يرس 1
الأوق@@ 1
اهتم@@ 1
عادل 1
متكر@@ 1
أحكام 1
الجهود 1
سعودي 1
مبراطورية 1
يتراوح 1
أثينا 1
اعتبر 1
تطبي@@ 1
رضا 1
مؤرخ 1
متابعة 1
ويح@@ 1
السكر 1
ايات 1
جنة 1
الجري@@ 1
القرون 1
الورم 1
كفاءة 1
البري@@ 1
جنا@@ 1
كري 1
54 0.8754180197644396
الرح@@ 1
تجار@@ 1
وشي@@ 1
ومان 1
الصناعات 1
الموقف 1
حقيقية 1
داود 1
ذاتية 1
ووضع 1
الدب@@ 1
ساو 1
to 0.0037530118023160162
التقاليد 1
دِ@@ 1
قضى 1
أسبوع 1
السج@@ 1
تشف 1
سحب 1
يدع@@ 1
فنية 1
نيك 1
والثقافة 1
وقتها 1
الجهد 1
المتاحة 1
الاستعمارية 1
رشيد 1
شاهد 1
ندق 1
الشيوعية 1
العامل 1
شام@@ 1
شح@@ 1
d@@ 0.08150796572003853
الأردني 1
الدعوة 1
الصغرى 1
الفتيات 1
اللاه@@ 1
كسية 1
هوارد 1
إسب@@ 1
استبدال 1
اعلات 1
ذاتها 1
الأهلي 1
المأ@@ 1
الياب@@ 1
بعينات 1
ستن 1
مهما 1
جال 1
طف 1
كتوراه 1
للإشارة 1
محر@@ 1
مخاطر 1
نسخ 1
ومركز 1
الكاثوليك 1
المقالات 1
الأوك@@ 1
الصيغة 1
دمت 1
ستار@@ 1
شُ@@ 1
ويقول 1
يتي 1
شقي@@ 1
غرين 1
مسيرتها 1
‌ 1
اؤها 1
المؤرخين 1
الهض@@ 1
رومان@@ 1
اءً 1
تعالى 1
صياغة 1
طرت 1
القادمة 1
تلى 1
شير@@ 1
an 0.010716813938019668
الخمس@@ 1
جير 1
رحلات 1
اصط@@ 1
الحقبة 1
دال 1
رأي 1
قانوني 1
واني 1
الأزمة 1
الدرافت 1
المتقدمة 1
المشرو@@ 1
باستمرار 1
جاي@@ 1
كينيدي 1
مستقبل 1
يمه 1
قريبة 1
الماضية 1
بضعة 1
ذكره 1
المظ@@ 1
الوزارة 1
قلبية 1
نجليزية 1
أمل 1
إلينوي 1
تلفزيونية 1
سمع 1
موجة 1
ادو 1
المنح@@ 1
مكسي@@ 1
ملاحظة 1
ناية 1
وّل 1
e@@ 0.07656007677271612
درت 1
عف 1
مفتوحة 1
المو@@ 1
دث@@ 1
سح@@ 1
والتنمية 1
اشترا@@ 1
شق@@ 1
مدين@@ 1
يمها 1
الزمني 1
سبت 1
شائع 1
القرارات 1
بدورها 1
بقى 1
دران 1
وتضم 1
2- 1
جغرا@@ 1
سيب 1
مساه@@ 1
يسوع 1
الألم 1
النسيج 1
رؤساء 1
رايت 1
الرصاص 1
طيران 1
1898 0.8815971540724288
اختبارات 1
تجري@@ 1
لزيادة 1
الرسائل 1
أفريقي 1
الطلبة 1
الميدالية 1
نائية 1
نسون 1
وفيات 1
أدب 1
صلات 1
واهر 1
يي 1
هلاك 1
وحي@@ 1
النفايات 1
سترا@@ 1
كله 1
أمور 1
تحقق 1
تشرة 1
تناسب 1
النماذج 1
تغطي 1
وإدارة 1
1902 0.8051821433115285
حلقات 1
مترًا 1
آث@@ 1
تفوق 1
رسميا 1
فقات 1
وث 1
التها 1
الحشرات 1
تيبة 1
جهد 1
حارس 1
خلية 1
كولن 1
المادية 1
المباريات 1
تيا 1
صلا@@ 1
ممكن 1
منخفض 1
تفاصيل 1
فرانسيس 1
51 0.7802848671461763
الخض@@ 1
الوظيفة 1
صاص 1
عرضت 1
فوج@@ 1
وقعة 1
الفلك 1
بنيت 1
تكاليف 1
مكانة 1
الجسيمات 1
تأثيرات 1
فرعية 1
مقالات 1
الأجانب 1
الصادر 1
النص@@ 1
ذكور 1
روح@@ 1
يتمتع 1
أسرع 1
شَ@@ 1
كيك 1
.com 1
خور 1
أحمر 1
تجنب 1
ضحايا 1
ممة 1
193@@ 1
آنا 1
إضاف@@ 1
كرب@@ 1
متخصصة 1
موسمين 1
نزي 1
الفص@@ 1
المطلوبة 1
النشر 1
الوجود 1
حيوان 1
راج 1
الضر@@ 1
تُعتبر 1
سائر 1
صع@@ 1
الأندلس 1
التطوير 1
الروح 1
الما 1
شيئ@@ 1
فعالة 1
يتك@@ 1
يحد@@ 1
الضباط 1
دلي 1
سنت 1
عارضة 1
كولوم@@ 1
ؤها 1
الشرف 1
اليوناني 1
برازيلي 1
بكلية 1
زز 1
فني 1
وعاد 1
ويعتقد 1
العضل@@ 1
محاك@@ 1
وياً 1
الواضح 1
يأ@@ 1
الأيمن 1
الحدي@@ 1
دوغلاس 1
ويًا 1
الره@@ 1
ديمقراطية 1
اقتصادية 1
غاية 1
لأن@@ 1
وانات 1
التوجه 1
ذى 1
رخ 1
فندق 1
نحن 1
الباحثون 1
السبا@@ 1
وبلغت 1
وبناء 1
84 1
ناطيسية 1
هجمات 1
أبي@@ 1
دنية 1
صراع 1
ينما 1
الأسد 1
عنا@@ 1
72 0.8935842359264893
ارهم 1
تاريخه 1
ساو@@ 1
عتبر 1
الصلبة 1
حكمه 1
زائ@@ 1
عمارة 1
يرن 1
26@@ 1
الأسطول 1
حلة 1
عرق 1
ونشر 1
الملابس 1
الهامة 1
تجار 1
عمومًا 1
تصور 1
23@@ 1
احتمال 1
بعث 1
تسون 1
سًا 1
التغيرات 1
المذهب 1
جواز 1
درالية 1
محور 1
وأستاذ 1
وسية 1
ألين 1
الاحترا@@ 1
تميز@@ 1
وتسمى 1
نهج 1
وأه@@ 1
ارك 1
السويدية 1
بنظام 1
قات@@ 1
وفرنسا 1
c@@ 0.08829249650435143
حيين 1
للتعليم 1
مغادرة 1
هت 1
وتطوير 1
إقلي@@ 1
اؤ@@ 1
صدار 1
فيك 1
مّ@@ 1
نيفة 1
يوود 1
× 0.8262597771562583
الصباح 1
بيري@@ 1
ربين 1
العُ@@ 1
بوز@@ 1
عراق 1
ماليزيا 1
ملي 1
وأف@@ 1
واستخد@@ 1
آخ@@ 1
اليسار 1
سخ@@ 1
الساحلية 1
العادة 1
العرقية 1
فرجينيا 1
ليبر@@ 1
ألبوم@@ 1
ازد@@ 1
امنة 1
جزي@@ 1
واح 1
أفلا@@ 1
البصرة 1
حينما 1
يمية 1
وطن 1
ينظر 1
جنرال 1
سيمون 1
فلسط@@ 1
لوث 1
مسؤولية 1
يملك 1
انضمام 1
فضلاً 1
استث@@ 1
الثقة 1
الزيتون 1
السنوي 1
عطاء 1
كريم 1
لط 1
وبا 1
وتار@@ 1
حاً 1
حبي@@ 1
شرط 1
لفزيون 1
التأثيرات 1
الخطة 1
عْ@@ 1
مستخد@@ 1
إيجاب@@ 1
الأزواج 1
تميزة 1
أبد@@ 1
اقد 1
ذاكرة 1
اعتمد 1
خطيرة 1
رص@@ 1
أوبلاست 1
ضًا 1
عشرات 1
ى@@ 1
ألان 1
الأميرة 1
المسب@@ 1
تُعد 1
المناسب 1
معا 1
الاتفاقية 1
الرؤية 1
جاني 1
ملائ@@ 1
والثاني 1
الأدبي 1
تنسيق 1
داني 1
فوكس 1
فيزياء 1
ورقة 1
57 0.8801127086992314
N 0.3079357103114605
الدهون 1
النوم 1
للوصول 1
ةَ 1
تحكم 1
حادث 1
لضمان 1
اختراع 1
البه@@ 1
الكورية 1
المحتر@@ 1
وتية 1
وضعها 1
ومر@@ 1
الكسندر 1
المحتملة 1
تفعات 1
كبيراً 1
متر@@ 1
هزم 1
هون@@ 1
er 0.015904111897150224
تايوان 1
ثان 1
دراج 1
قرارات 1
لْ@@ 1
28@@ 1
بورن 1
حجم@@ 1
دش@@ 1
للبحث 1
البيولوجية 1
الحادث 1
داع 1
سينما 1
طيب 1
v 0.32074530512479177
الأعصاب 1
الجدد 1
باق 1
زيا 1
نيسة 1
المرش@@ 1
ديق 1
منت@@ 1
يريد 1
القطب 1
رفضت 1
سريع 1
لنظام 1
اقتراح 1
المخطط 1
الى 1
ولًا 1
الجهات 1
مرية 1
700 0.9878454524455922
بيكر 1
حيز 1
خير 1
موقعها 1
أحدث 1
اجة 1
المغول 1
بارزة 1
بشر 1
دوائر 1
ميل@@ 1
الذكاء 1
براطور 1
تمويل 1
لعدد 1
مانة 1
ماير 1
أر 1
تواجد 1
جوه@@ 1
ولما 1
َّى 1
بوط 1
تبات 1
جيال 1
لنقل 1
موسي@@ 1
هارت 1
واحل 1
ببناء 1
تداء 1
حديد 1
يكفي 1
NGC 1
أحياء 1
المحددة 1
المذكورة 1
تبدو 1
متو@@ 1
1890 0.8165922462838043
إلقاء 1
ازي@@ 1
البث 1
المهندس 1
بمنطقة 1
مكونة 1
الجذ@@ 1
بتقديم 1
جلي@@ 1
دوج 1
سوم@@ 1
غيره 1
ويستخدم 1
1899 0.8505057734831093
الأوب@@ 1
البوا@@ 1
الدوا@@ 1
تجديد 1
ذان 1
كليات 1
العمرية 1
مركزية 1
أحر@@ 1
عارض 1
عودته 1
اطع 1
السرية 1
انتشرت 1
رقام 1
مطالب@@ 1
يحدد 1
تهر 1
نظريات 1
كبرى 1
نغال 1
أوراق 1
الاً 1
المناصب 1
بصفته 1
بى 1
توقيع 1
وأحد 1
ودا 1
أدوار 1
الحديقة 1
حقي@@ 1
و0.@@ 1
00 0.5449048146835441
حرة 1
كلين@@ 1
وقتل 1
جماع 1
كوف@@ 1
متهم 1
الجماعي 1
هاجر 1
يأخذ 1
ابون 1
الدول@@ 1
الًا 1
جزيئات 1
حاد 1
هيو@@ 1
² 0.240301487239225
الرياض@@ 1
الوصف 1
راحة 1
صت 1
قسم@@ 1
62 0.8761673288291189
s@@ 0.04833234995955675
قيس 1
ونسو 1
العلا@@ 1
الفرنسي@@ 1
جوجل 1
مستعمرة 1
مسيحية 1
موط@@ 1
ومص@@ 1
يدل 1
o 0.0429615595737939
المركب 1
بشير 1
زلي 1
ميذ 1
هوف@@ 1
58 0.8604949574954107
رائد 1
قصور 1
إليهم 1
إنتر@@ 1
التمويل 1
الجنسين 1
برئاسة 1
وتعني 1
29@@ 1
تماث@@ 1
دفن 1
كوم 1
معية 1
الصلي@@ 1
باها 1
البن@@ 1
ديوان 1
طيور 1
قناع 1
كوين 1
وقود 1
الساحة 1
ة@@ 1
جوز 1
موارد 1
اكمة 1
غاد@@ 1
القرنين 1
فيت 1
كوين@@ 1
الحصار 1
الخصوص 1
الكول@@ 1
تصاب 1
تماماً 1
سينمائي 1
اشات 1
المهاج@@ 1
هوي@@ 1
يكونوا 1
12.@@ 1
حكام 1
فاق@@ 1
فبلغ 1
وروب@@ 1
الاضطرابات 1
فيكتور 1
التاسعة 1
الممارسات 1
دقائق 1
مونت 1
الأدوار 1
الدستورية 1
الفحص 1
ببساطة 1
مختلف@@ 1
البارزة 1
الجغرافي 1
بتح@@ 1
سوا@@ 1
الأيسر 1
ريبة 1
قوائم 1
ليصل 1
الخطر 1
فهد 1
يقات 1
جعله 1
قيدة 1
كفر 1
وتستخدم 1
الصف 1
المحافظ 1
المناف@@ 1
بحة 1
سكان@@ 1
مجل@@ 1
هلة 1
ومنهم 1
1896 0.8437538728913426
الملاح@@ 1
تنافس 1
رخ@@ 1
66 0.8895371673409217
Charles 0.22218870516529854
إيفان@@ 1
بيضاء 1
جوم 1
لندا 1
واقف 1
إشراف 1
الرسول 1
الوثائق 1
اوى 1
رويج 1
وضاع 1
أمن 1
الإلكترو@@ 1
التوا@@ 1
القوية 1
المدنيين 1
تذكر 1
الثنائي 1
معظمها 1
الشارع 1
المصريين 1
بمو@@ 1
بيتا 1
لهما 1
محتوى 1
الاج@@ 1
الاقتراع 1
المتق@@ 1
باحث 1
بطولات 1
تجعل 1
قديم 1
لتع@@ 1
مينيسوتا 1
يصنف 1
السف@@ 1
القذ@@ 1
بطال 1
بلغاريا 1
تنقسم 1
وتوزع 1
السبعينيات 1
السلط@@ 1
المعماري 1
رودري@@ 1
عشرين 1
كوكبة 1
يج 1
يوت 1
المعبد 1
المكسي@@ 1
بنجاح 1
تجهي@@ 1
تسويق 1
شؤون 1
ضمت 1
غاري 1
مناس@@ 1
نواة 1
هين@@ 1
ببعض 1
تأثر 1
موث@@ 1
امتداد 1
ره@@ 1
للجدل 1
الفلا@@ 1
بمجرد 1
خاض@@ 1
فاهيم 1
قريب 1
نوبة 1
وطات 1
جام 1
جوا 1
عما 1
وفيها 1
ادى 1
بيلة 1
عمالة 1
للدفاع 1
y@@ 0.09333206734783749
السيدات 1
المتبقية 1
المستشفيات 1
ثقافية 1
جاع 1
رياضية 1
قراطية 1
متس@@ 1
1,@@ 0.47777836499920123
المسؤولين 1
المفو@@ 1
عيم 1
مهاج@@ 1
الجولة 1
الطفولة 1
المالك@@ 1
وزوجته 1
صَ@@ 1
عملة 1
مضاد 1
وجيه 1
البالغين 1
الجنين 1
تلقت 1
طلبت 1
مكن 1
نب@@ 1
وقالت 1
الحدو@@ 1
بعون 1
جند@@ 1
ضين 1
مزي@@ 1
الشعور 1
بدءًا 1
حادثة 1
رتها 1
كست@@ 1
موم 1
واز@@ 1
وانية 1
يتألف 1
يعرض 1
استف@@ 1
الدو@@ 1
تنتشر 1
موسم@@ 1
الأوائل 1
الإيراني 1
وكث@@ 1
الجي@@ 1
الرط@@ 1
الشيعة 1
الهلال 1
بوضع 1
زيين 1
عاش@@ 1
كوميدي 1
أهيل 1
الحبوب 1
بالمدينة 1
جيف 1
يتون 1
يمكنها 1
المنورة 1
امًا 1
قدام 1
1897 0.8276583095652846
بدر 1
تلو@@ 1
دٍ 1
صموئيل 1
فيروسات 1
ائرات 1
ازت 1
الخلافة 1
بادل 1
بوابة 1
تدل 1
عالمي 1
للمساعدة 1
67 0.9296732081006917
الخروج 1
بدعم 1
خطوة 1
ساد 1
Z@@ 0.08742106100185332
ابت@@ 1
السنوية 1
النقدية 1
شباب 1
شياء 1
غرام 1
كيس 1
الأساليب 1
أخذت 1
المرور 1
باين 1
وانتقل 1
بخ 1
بيته 1
طرابلس 1
لقاء 1
لمع@@ 1
وبرا@@ 1
وطني 1
داي@@ 1
الجانبية 1
رواح 1
نسان 1
يوغ@@ 1
احي 1
الظاهرة 1
براط@@ 1
سول 1
عاب 1
سلمان 1
آب@@ 1
بطاقة 1
سنين 1
ويقوم 1
يتجاوز 1
اندلاع 1
بيرو 1
تركي 1
تصوي@@ 1
توب 1
نديين 1
الجغرافية 1
بعمل 1
كارولاينا 1
بعيدة 1
دسون 1
موجو@@ 1
السوفييتي 1
ويست 1
ّق 1
البحيرة 1
جزاء 1
ربات 1
كاني 1
والمق@@ 1
ولايات 1
يشغل 1
يقد@@ 1
88 0.9502741251770963
الحرم 1
السلامة 1
تهما 1
حاصل 1
كتابات 1
نوكيا 1
البدي@@ 1
التسجيل 1
الفقه 1
الكالسيوم 1
الند@@ 1
طنة 1
G 0.2583140049793413
أوز@@ 1
الإشع@@ 1
الإفري@@ 1
ومُ@@ 1
اعل 1
الصهي@@ 1
وات@@ 1
يكتب 1
النباتية 1
بغض 1
ريكي 1
كريات 1
p@@ 0.07265422874122855
الاستيلاء 1
السريعة 1
الفلس@@ 1
تفسي@@ 1
تير@@ 1
ادته 1
الموال@@ 1
الهوائية 1
بروتوكول 1
قائه 1
ميتش@@ 1
رئيسا 1
زمي@@ 1
فتر@@ 1
كوا 1
وأما 1
Y@@ 0.12670733412464041
التكوين 1
الخطأ 1
الصعيد 1
تحولت 1
للشباب 1
مارشال 1
Thomas 0.2346828347150516
المرافق 1
جزءا 1
ساوث 1
86 1
الصحفي 1
انتص@@ 1
جيري 1
كرى 1
ملف 1
ورك 1
الخيال 1
الفتاة 1
الفدرالي 1
انضمت 1
بفيروس 1
تصرف 1
ديًا 1
لطة 1
يجد 1
البك@@ 1
المعاهدة 1
اوض 1
توجه 1
مسب@@ 1
يبقى 1
التناس@@ 1
الثلاثي 1
باليد 1
حساس 1
فلو@@ 1
نصوص 1
هندي 1
اجم 1
النض@@ 1
تشو 1
غيرة 1
قطاب 1
لينا 1
أبيه 1
تناف@@ 1
لتعزيز 1
ماري@@ 1
اعفات 1
الكواكب 1
المحركات 1
عرفة 1
ناة 1
يري@@ 1
50@@ 1
a@@ 0.11955990286400961
أمثال 1
ببطولة 1
بعدد 1
ترجع 1
سرب 1
صيغة 1
المحدودة 1
الوليد 1
الثمانينيات 1
الغناء 1
تدريجي@@ 1
صربيا 1
11.@@ 1
63 0.874818656489037
الإعلامية 1
ريقة 1
مفر@@ 1
يقة 1
إذاعة 1
افت@@ 1
قرأ 1
لرئيس 1
مدخل 1
وحصلت 1
أدنى 1
التخصصات 1
التمرد 1
بروكلين 1
جده 1
ذكرى 1
مولاي 1
27@@ 1
حقل 1
دوى 1
شدة 1
فقه 1
وشمال 1
1895 0.8127623962543766
ألق@@ 1
اغ 1
النسخ 1
روق 1
وامل 1
وبالرغم 1
الاز@@ 1
التكن@@ 1
التنوع 1
التوص@@ 1
قري 1
مشاة 1
الفرصة 1
جبت 1
كسر 1
ومنتج 1
الشاب 1
المميزة 1
عِ@@ 1
ميزة 1
يحت@@ 1
الأسترالية 1
بدقة 1
كتب@@ 1
ئذ 1
الاول@@ 1
تات@@ 1
خلاله 1
طفول@@ 1
قرون 1
يهودية 1
أخير 1
اكر 1
الأفضل 1
الحاكمة 1
خلت 1
خُ@@ 1
شاب@@ 1
نصب 1
ref 1
أفري@@ 1
باه 1
تقر 1
كوبا 1
إنسان 1
الاي@@ 1
المعدة 1
99 0.9197805023340524
السما@@ 1
القياس 1
رأي@@ 1
فيلا 1
لتوفير 1
بتها 1
ديدات 1
وتوجد 1
ومس@@ 1
الخام 1
الستينيات 1
المشا@@ 1
الهنود 1
الوار@@ 1
تتمثل 1
مستمر 1
وامر 1
b@@ 0.07192686948170768
اقية 1
الاستقرار 1
التجري@@ 1
10.@@ 1
الأع@@ 1
الجبلية 1
الحوز 1
ايد 1
راعات 1
عددهم 1
الإندوني@@ 1
البرمجيات 1
تعاني 1
موس@@ 1
هَ@@ 1
ائة 1
الذهاب 1
تلفزيون 1
تنق@@ 1
غرار 1
وأم 1
واستمرت 1
يراً 1
الإس@@ 1
الزوجي 1
فريات 1
كروا@@ 1
لتحسين 1
مبيعات 1
وعشرين 1
r 0.18668259263986786
مختبر 1
القبيلة 1
توث@@ 1
رجان 1
ودور 1
1892 0.8925478424339286
um 0.054559236404106724
أعطى 1
الاتح@@ 1
القض@@ 1
الخشب 1
الدنيا 1
سيو 1
متوسطة 1
مريم 1
يتس 1
أعض@@ 1
المثلية 1
المستعمرات 1
انتظار 1
دراما 1
فضل@@ 1
فضلا 1
وكانوا 1
ويرجع 1
الرمز 1
العضلة 1
القياسية 1
ددت 1
ريني 1
صه 1
m 0.0668289717005931
السلبية 1
العقود 1
طب@@ 1
قنوات 1
َّه 1
احترا@@ 1
الفارسية 1
قُتل 1
مسرحي 1
بياً 1
شور@@ 1
استهلاك 1
الخار@@ 1
الفصيلة 1
الكيان 1
مقال 1
والثانية 1
ياء 1
اضي 1
الحجري 1
سماح 1
والمر@@ 1
أمر@@ 1
أنغ@@ 1
بدايات 1
حدى 1
هاوس 1
هيرو@@ 1
المبيعات 1
المَ@@ 1
قتين 1
e 0.053624559725043694
الأساطير 1
الأط@@ 1
الفرسان 1
المراه@@ 1
بمرض 1
بيك@@ 1
توت@@ 1
ضها 1
يقو@@ 1
أمه 1
الرحلات 1
الساخ@@ 1
تار 1
تك 1
دادي 1
طنجة 1
فيسور 1
كتات@@ 1
ويعمل 1
البصري 1
المطلوب 1
النازي 1
بتهمة 1
حتها 1
لمساعدة 1
يابانية 1
التخلص 1
الجسر 1
المدف@@ 1
قن 1
ناها 1
الآلاف 1
باز 1
ربت 1
طلبة 1
فلات 1
الإعدام 1
الخش@@ 1
المعنية 1
براج 1
بروك 1
بعد@@ 1
مالك@@ 1
وكات@@ 1
اخ 1
النواة 1
رغبة 1
سباقات 1
كريستوفر 1
للتكنولوجيا 1
للشركة 1
وتعمل 1
وقدم 1
ولادة 1
بالص@@ 1
سجلات 1
بغ 1
غاب@@ 1
ملم 1
نوعًا 1
ويندوز 1
اصر 1
الثوري 1
الشح@@ 1
الفتح 1
المراقبة 1
بكة 1
حاض@@ 1
فيق 1
وتخرج 1
أسواق 1
المستخدمين 1
بالعديد 1
تعدد 1
جاهات 1
05 1
المرء 1
بض@@ 1
بوج@@ 1
تعلق 1
ساهمت 1
للحياة 1
نبذة 1
الانتباه 1
المسؤول 1
يعادل 1
· 0.12613795660675003
الأتراك 1
توليد 1
11@@ 1
الترب@@ 1
شبي@@ 1
ندرية 1
هيم 1
الأورام 1
التقويم 1
القليلة 1
المفترض 1
ماركوس 1
متراً 1
إرنست 1
اريات 1
المسؤولية 1
بجدية 1
فاكيا 1
لحزب 1
للاح@@ 1
ّها 1
أشارت 1
الولا@@ 1
انج 1
ربا@@ 1
زادت 1
سجين 1
شعوب 1
كيميائية 1
وذك@@ 1
أيلول 1
السياق 1
الطول 1
العذ@@ 1
ظى 1
لاحقة 1
موه@@ 1
َة 1
الاكت@@ 1
الجوانب 1
المتخصصة 1
المساجد 1
المنزلية 1
خليل 1
رسم@@ 1
كليزية 1
نقابة 1
يمل@@ 1
الصلب 1
تسلسل 1
سوس@@ 1
شرو@@ 1
طارق 1
ميا 1
مسؤول 1
البوسنة 1
التعد@@ 1
المقات@@ 1
كتها 1
مباشر@@ 1
وأل@@ 1
احمد 1
الزراعي 1
بسيط 1
بطول 1
دارات 1
مواطن 1
ورين 1
ويم 1
ينص 1
59 0.8455758577151746
اقتصاد@@ 1
رهم 1
فد 1
الجمه@@ 1
العيش 1
تسعى 1
داد@@ 1
زيف 1
سنان 1
منافسة 1
مونتريال 1
ابد 1
البيع 1
التلفزيوني 1
الجغرافيا 1
الحة 1
توص@@ 1
مبارك 1
ميونخ 1
اته@@ 1
التطبي@@ 1
الضحايا 1
المعاصر 1
قانون@@ 1
الأمامية 1
البيزنط@@ 1
بالسجن 1
عبين 1
قهم 1
لاري 1
متزايد 1
ممك@@ 1
وأغ@@ 1
وصفه 1
تأكيد 1
تجاري 1
ثًا 1
راك 1
سبير 1
طيل 1
لمن 1
ليلعب 1
الأمنية 1
مسة 1
أود@@ 1
إمبراطورية 1
تخضع 1
درز 1
فاطمة 1
لَّ@@ 1
وافقت 1
يشن 1
3000 1
إين@@ 1
الصلاة 1
سلحة 1
يتسبب 1
إسطنبول 1
لقب@@ 1
الكهرو@@ 1
برنام@@ 1
تجاو@@ 1
تغطية 1
توصيل 1
جولة 1
السياسيين 1
بإعادة 1
عال@@ 1
للحرب 1
هال 1
هين 1
ارتف@@ 1
الراحل 1
اللبناني 1
مثّل 1
أنصار 1
اغتيال 1
بالفرنسية 1
جعل@@ 1
ذرة 1
سبانيا 1
فيلم@@ 1
96 0.9198426559300449
الجاذبية 1
بولو 1
تنمية 1
جدة 1
لاي@@ 1
الاص@@ 1
زب 1
ماش 1
ياب@@ 1
71 0.9188052224408019
n@@ 0.06936818371045726
البعثة 1
بيدرو 1
جوي 1
حرم 1
سيدة 1
عرضها 1
لكية 1
أى 1
الأغذية 1
فِي 1
مقارن@@ 1
ديك 1
زياء 1
شقيقه 1
مدافع 1
وبطولة 1
الفائز 1
تباد@@ 1
تورونتو 1
فج@@ 1
منزله 1
والتكنولوجيا 1
68 0.8472571685847693
بحوا 1
وبقي 1
1889 0.8428749327776047
أيدي 1
النزاع 1
انتخ@@ 1
انقلاب 1
باليابانية 1
داثة 1
صلى 1
ميلاد 1
وعل@@ 1
الموجات 1
جدار 1
طاقات 1
لفظ 1
هرباء 1
ياتها 1
أنتوني 1
المدار@@ 1
المشر@@ 1
حن@@ 1
داف 1
رسال 1
لكن@@ 1
نظراً 1
سامي 1
مغربي 1
مميزة 1
ابهة 1
الأخلاقية 1
الإقليمي 1
حار@@ 1
مزيج 1
يجمع 1
3- 1
ئون 1
الأرقام 1
الطف@@ 1
المستويات 1
ردود 1
فتي 1
فلونزا 1
مرافق 1
وليات 1
ويورك 1
اري@@ 1
الاستح@@ 1
باس 1
جوة 1
سوة 1
فحسب 1
المعالم 1
اين 1
بره 1
تتواجد 1
عيان 1
نباتات 1
الاستث@@ 1
العروض 1
الفكرية 1
غون@@ 1
وبرو@@ 1
يمنع 1
بيريا 1
ليت 1
35@@ 1
أولا 1
إعلا@@ 1
المهارات 1
النسوية 1
تعليمية 1
عدوى 1
قليات 1
كييف 1
وتبلغ 1
وتقوم 1
الروس 1
العي@@ 1
بوية 1
حاولت 1
حياتهم 1
ديزني 1
عدل 1
التوازن 1
الركاب 1
الستة 1
المان@@ 1
جيه 1
لحم 1
مهند@@ 1
واس 1
القابلة 1
تدي 1
عالمي@@ 1
لعملية 1
American 0.07165801756642828
أتباع 1
الغرفة 1
جزئ@@ 1
فئات 1
5000 1
ابو 1
است 1
الم 1
رياض 1
ضوئية 1
الجدار 1
بالتالي 1
جزئة 1
متعل@@ 1
أصيب 1
الجمع 1
الميناء 1
خسائر 1
صالح@@ 1
طيات 1
للمشاركة 1
واري 1
والته@@ 1
ويحمل 1
يمكنه 1
1885 0.8411280518622933
الفلسطينيين 1
عاب@@ 1
أمرًا 1
الحميد 1
العرا@@ 1
العظم 1
جولي@@ 1
ستي 1
سلسل 1
غيت 1
مصلحة 1
ميشيل 1
1894 0.84811684902306
الصحيح 1
القنوات 1
الو 1
اوة 1
بكالوريوس 1
بمحافظة 1
عاط@@ 1
هوم@@ 1
ائرة 1
كلاهما 1
مضادات 1
’ 0.02050587038427744
61 0.8506654972332174
ألفا 1
المعلمين 1
المنت@@ 1
شمال@@ 1
لوزارة 1
مبادرة 1
هرمون 1
ومار@@ 1
ارتباط 1
شتوكة 1
مقاط@@ 1
ميكرو@@ 1
40@@ 1
الرئوي 1
الطراز 1
القياسي 1
القيود 1
نادق 1
الليبرالية 1
هاريس 1
1891 0.8556257066587992
اشتهرت 1
افظ 1
الرؤ@@ 1
النظريات 1
برع 1
تحوي 1
راتيجيات 1
سنويًا 1
صنة 1
كك 1
مناخ 1
وْ@@ 1
g 0.11402075893728572
البول 1
المعدات 1
تالية 1
صديق 1
ومجموعة 1
69 0.9054812109037393
98 0.9195148488597632
بؤ 1
عمر@@ 1
موث 1
وكس 1
يتر@@ 1
أنت 1
إداريّاً 1
ائنات 1
الأحكام 1
التجمع 1
تشتهر 1
روى 1
مقالة 1
الريف 1
الشعرية 1
حث 1
أعاد 1
إنجليزي 1
داية 1
مبكرة 1
وتك@@ 1
جميعها 1
فوس 1
هل@@ 1
واستخدام 1
اظ@@ 1
الصادرة 1
قيا 1
والاتحاد 1
أوقات 1
التقدي@@ 1
كامبريدج 1
لفت@@ 1
بيير 1
جعلها 1
سنغافورة 1
عيون 1
مخص@@ 1
والسياسية 1
الاغتصاب 1
السياحية 1
رادة 1
هلا@@ 1
وبالإضافة 1
وغواي 1
ومنطقة 1
بلديات 1
تمع 1
حديثًا 1
دّ@@ 1
عنهم 1
غا@@ 1
مترات 1
والمه@@ 1
الفحم 1
اناً 1
اورة 1
بتع@@ 1
دييغو 1
طبيق 1
نيكولاس 1
وكو 1
الإطار 1
التحقيقات 1
الحسيمة 1
الوراثية 1
تركت 1
ضب 1
وجاء 1
اسبة 1
العمود 1
بئر 1
قادر 1
لأغراض 1
مجتمعات 1
مكاف@@ 1
نيلسون 1
1893 0.8218093868350972
t@@ 0.058534105587578204
الأمير@@ 1
التوسع 1
فرانكلين 1
يوزي@@ 1
82 0.9354227049757533
أهداف@@ 1
النحاس 1
حى 1
صناعات 1
صوت@@ 1
عاز@@ 1
وأثناء 1
وائد 1
83 0.9685610541731616
اجر 1
اييس 1
كوتا 1
لتق@@ 1
لمكافحة 1
نيف 1
73 0.9126574042318047
المحاصيل 1
لوح@@ 1
ناسا 1
نوعها 1
الاجتماع@@ 1
ثور@@ 1
نفذ 1
يقلل 1
الآباء 1
البصرية 1
امر 1
تزايد 1
مناص@@ 1
واللا@@ 1
أتي 1
بينه 1
لاع@@ 1
نادرة 1
al 0.022257353167714787
الارتفاع 1
فرنسي@@ 1
قيت 1
قيود 1
لَ 1
مسح 1
هشام 1
هولة 1
وتحدي@@ 1
يربط 1
Q@@ 0.27001849326927946
الإشارات 1
النارية 1
انسحاب 1
تنتهي 1
خلاص 1
ليفزي@@ 1
وملحن 1
الدراسي 1
توية 1
خصوصاً 1
راسة 1
فوس@@ 1
لات@@ 1
موظف 1
ائز 1
نهم 1
نوية 1
الأميركية 1
الغشاء 1
المنزلي 1
باولو 1
فرنسيس 1
ليند@@ 1
هوا@@ 1
النح@@ 1
ذهبية 1
سبا@@ 1
فضت 1
قان@@ 1
1888 0.8627811419922868
V 0.2183956026489454
الكش@@ 1
الوص@@ 1
تنشأ 1
روبنسون 1
فلما 1
ويعود 1
البضائع 1
المضي@@ 1
طاني 1
يدعم 1
الخمس 1
الوظيفي 1
زيز 1
مقب@@ 1
اصيل 1
الشوارع 1
النمساوية 1
بروتينات 1
تعليق 1
حاس@@ 1
روابط 1
ماغ@@ 1
أعلاه 1
ابن@@ 1
الاستراتيجية 1
الباردة 1
التفسير 1
تشابه 1
شرقي 1
فال 1
وجائزة 1
وسلو@@ 1
وسيط 1
عدداً 1
مهاجمة 1
يوان 1
انض@@ 1
بنسلفانيا 1
تعلمت 1
حمد@@ 1
سكن 1
سْ@@ 1
كونت 1
مخصصة 1
أجرا@@ 1
التصنيع 1
الدقيق 1
تسهيل 1
جنيد 1
منيوم 1
1880 0.7741228789526069
اعتقال 1
المعتم@@ 1
بأكملها 1
شك 1
وكا 1
يكون@@ 1
اقفة 1
تأخذ 1
نسي 1
البرج 1
شقيق 1
والنساء 1
76 0.8249144784304258
87 0.9533157801480011
المعلم 1
تخصيص 1
تى 1
ثون 1
سطة 1
قوم@@ 1
التوزيع 1
الثدييات 1
الطرفين 1
الكائن 1
النبلاء 1
النموذ@@ 1
الوسطي 1
بحاجة 1
كيه 1
وفر@@ 1
الديانة 1
الشهادة 1
بالذكر 1
طئ 1
مقدار 1
C. 0.3365749107054678
التأمين 1
الخلفي 1
الدليل 1
جعلت 1
حسن@@ 1
سمت 1
ورًا 1
الجما@@ 1
المهند@@ 1
اون 1
الزجاج 1
وء 1
التس@@ 1
تأسيسها 1
تكرار 1
تمثال 1
للاستخدام 1
لمنظمة 1
وانتهت 1
الوقاية 1
بسون 1
قوش 1
تعم@@ 1
ستوك@@ 1
أمم 1
الهيك@@ 1
دوين 1
مشاهد 1
معارك 1
1884 0.9071327679491569
الإيمان 1
العملا@@ 1
تمرد 1
حصان 1
شيات 1
ضعاف 1
مؤلف@@ 1
مزرعة 1
وأخذ 1
4.@@ 0.9352095171048634
79 0.9586917352912584
أكسفورد 1
ألبر@@ 1
ابتد@@ 1
قائلاً 1
قلت 1
نسجة 1
ودين 1
ونال 1
الكويتية 1
نائي 1
ويسمى 1
ويف 1
الإبلاغ 1
التسلسل 1
بريل 1
ثم@@ 1
للكاتب 1
والرا@@ 1
أتلان@@ 1
الآلات 1
برا 1
فلت 1
الأديان 1
الوراثة 1
دوي 1
ستار 1
قتال 1
كذا 1
واحت@@ 1
الاحتفال 1
الاعتقاد 1
التقييم 1
بانيا 1
حصة 1
دوس@@ 1
شعره 1
مشواره 1
ميه 1
وتعادل 1
أجر@@ 1
بطة 1
عرش 1
كيمياء 1
ورث 1
أدار 1
الكبار 1
رياضيات 1
فوف 1
وقاضي 1
البلدين 1
الخوا@@ 1
الدنمار@@ 1
الضخمة 1
المهدي 1
تطلب 1
مجه@@ 1
مكانه 1
استقل@@ 1
الجرائم 1
تتوفر 1
ثى 1
ذرو@@ 1
وعُ@@ 1
الأحوال 1
البترو@@ 1
تيكو 1
درسة 1
شعاع 1
كلات 1
ماب@@ 1
هض@@ 1
وعد 1
يتهم 1
الحاس@@ 1
العادي 1
تصويت 1
192@@ 1
93 0.9210131690555056
ارعين 1
بمدرسة 1
زعم 1
شارية 1
وسين 1
وظل 1
يمين 1
الموجة 1
ثاً 1
خلص 1
وأيضاً 1
والشيخ 1
ابتك@@ 1
التدخ@@ 1
حتي 1
عشرون 1
قلق 1
معات 1
أفكار@@ 1
العبودية 1
خسارة 1
ريتش@@ 1
لاستخدام 1
نض@@ 1
اثنان 1
اكو 1
الأعداد 1
الفئات 1
دائية 1
الناص@@ 1
تأمين 1
تواجه 1
لتف@@ 1
ويبدو 1
ئت 1
تميل 1
كره 1
مجموعه 1
والمس@@ 1
وايا 1
وسيع 1
حاص@@ 1
افتتح 1
الزمان 1
الكونغو 1
باط@@ 1
والتف@@ 1
نشرها 1
وليكي 1
ابير 1
الدبلوماسية 1
السوبر 1
رجاء 1
شاير 1
غارسيا 1
ملحوظ 1
والاقتصادية 1
البحار 1
المتز@@ 1
انتظام 1
عددها 1
عروض 1
غلو@@ 1
قدرها 1
وأيضًا 1
78 0.8672576464221118
الجيوش 1
تنش@@ 1
جوان 1
عبادة 1
ناجحة 1
وأبو 1
ذي@@ 1
كروز 1
والمي@@ 1
احتلت 1
الإفرا@@ 1
الفيزي@@ 1
تعاون@@ 1
جائ@@ 1
يؤكد 1
احتياجات 1
الجدل 1
الهجري 1
شارل 1
صها 1
للنظام 1
لورانس 1
موجات 1
وكاتبة 1
بطري@@ 1
دَّ@@ 1
غازي 1
منتج@@ 1
السن@@ 1
المسر@@ 1
الفعلي 1
دوران 1
فائدة 1
لتشكيل 1
نوعية 1
1886 0.8586709478626
البغ@@ 1
السابقين 1
الكليات 1
تحقي@@ 1
تشكلت 1
حاك@@ 1
فقر 1
مفاج@@ 1
وبما 1
1870 0.7168446069665633
أقيم 1
الصومال 1
الظهر 1
تراث 1
حقبة 1
حملات 1
دوجة 1
كامبل 1
ومغني 1
ابقة 1
المتا@@ 1
الوسائل 1
تمكنت 1
للملك 1
والمملكة 1
وسلافيا 1
تحلي@@ 1
كولورادو 1
1887 0.8670020711844675
إريك 1
اوت@@ 1
ترو 1
داس 1
زيمات 1
ظاهر 1
هوية 1
81 0.8935185855275153
آراء 1
الباحث 1
السود@@ 1
العقوبات 1
العكس 1
اللجوء 1
جاو@@ 1
متاحة 1
إيطالية 1
داخلي 1
عنص@@ 1
مهارات 1
نمو@@ 1
هداف 1
والحزب 1
وجوده 1
وقي 1
ووصل 1
ووكر 1
تنتقل 1
سمك 1
فيتامين 1
مروان 1
معسك@@ 1
بدا 1
شريف 1
كوري 1
لعائلة 1
1500 1
الإذ@@ 1
الإرهاب 1
الدينام@@ 1
الفعلية 1
الموصل 1
انطلا@@ 1
بيانو 1
تقام 1
ثيو@@ 1
دائمة 1
راشد 1
احتمالية 1
الثقيلة 1
الظاه@@ 1
تستمر 1
جوية 1
زمنية 1
ملها 1
موظفي 1
العثمانيين 1
الون 1
انوس 1
تنص 1
زام 1
مواضيع 1
الأحد 1
الأنهار 1
الثمانينات 1
طولها 1
لعلم 1
للقيام 1
ودفن 1
أمير@@ 1
النسبية 1
كرم 1
للغة 1
منتخ@@ 1
ينتقل 1
يومنا 1
actor 0.4270865248213712
الإخ@@ 1
الذرية 1
تيح 1
سرائيل 1
غرو@@ 1
فشلت 1
وحر@@ 1
وراس 1
يستمر 1
انهم 1
تلقائ@@ 1
لث 1
وصحفي 1
الأغلبية 1
الاثنين 1
الخير 1
الفوس@@ 1
القلق 1
عاشت 1
كنوا 1
معتزل 1
1878 0.8591712942195033
أنتج 1
الاحتفاظ 1
جنوبي 1
دراستها 1
عثر 1
كوز@@ 1
للبلاد 1
لمنطقة 1
موسو@@ 1
نفط 1
اسل 1
التعادل 1
الفلاح@@ 1
المتس@@ 1
المشكلات 1
بتة 1
نما@@ 1
ويعرف 1
وتقديم 1
وّر 1
ارتفع 1
المقص@@ 1
الهادي 1
بالقاهرة 1
مهور 1
ميزوري 1
يلون 1
البيزنطية 1
الشديدة 1
المفرو@@ 1
بلوماسي 1
روجر 1
طائفة 1
عمران 1
لإجراء 1
مرشح 1
يدية 1
77 0.8418360735307464
بسط 1
سلسل@@ 1
مورغان 1
ولان 1
أهالي 1
الجزي@@ 1
الحرف 1
الكوكب 1
نشأته 1
والثقافية 1
وفى 1
تتجاوز 1
روائي 1
أنهى 1
التسعينات 1
الظهور 1
ربه 1
صناعية 1
طبع@@ 1
فلادي@@ 1
فوذ 1
قصف 1
مفيدة 1
وحده 1
أوسكار 1
الأرجح 1
الإمار@@ 1
رسمياً 1
سمات 1
مرسوم 1
مقدم 1
ودرس 1
1882 0.8974206304153346
New 0.04467092490380956
العملة 1
الفساد 1
لأحد 1
es 0.01289374935240803
الجمعيات 1
انتقادات 1
دارس 1
كَ 1
ليوم 1
الأسعار 1
خبرة 1
وصى 1
ومه@@ 1
يقومون 1
الأربع 1
تسي@@ 1
تملة 1
سينا 1
لينغ 1
مجرى 1
يشعر 1
أقام 1
السين@@ 1
الغدد 1
المجر@@ 1
بحكم 1
مارية 1
مدع@@ 1
مواصلة 1
نِ@@ 1
هدفين 1
وصفت 1
k 0.08565300198256033
ءها 1
الشامل 1
بنو 1
شارات 1
لكين 1
هاجم 1
ووفقًا 1
البطن 1
امهم 1
لع 1
نيجيريا 1
وشركة 1
اضطهاد 1
الآسي@@ 1
بأنهم 1
بعضهما 1
طار@@ 1
ماق 1
مزيد 1
نار 1
وفيتش 1
أجرى 1
الأمامي 1
الصواريخ 1
محافظ@@ 1
1881 0.8740293288156539
جرات 1
شاطئ 1
مذهب 1
وسل@@ 1
04 0.9293955982576854
أبرزها 1
أسلحة 1
الاعتق@@ 1
القضاة 1
المتمردين 1
المسته@@ 1
بشر@@ 1
الاختيار 1
التوق@@ 1
خبر@@ 1
روني 1
فران 1
لوان 1
ابلة 1
العاب@@ 1
المنس@@ 1
انتخابه 1
رشاد 1
سرد 1
ماكن 1
مقعد 1
اجتم@@ 1
البطل 1
العناية 1
خين 1
طاب@@ 1
فاب@@ 1
معدات 1
الأنص@@ 1
الاختلاف 1
المفاهيم 1
تعطي 1
حدر 1
قيض 1
ڭ@@ 1
الصحيفة 1
المعادلة 1
بحق 1
تومسون 1
جريت 1
سفة 1
طهران 1
أصد@@ 1
المكونة 1
تتع@@ 1
روحة 1
عري@@ 1
لجامعة 1
والدة 1
يحي@@ 1
D8 1
أنتجت 1
أوسع 1
الشاطئ 1
المحتلة 1
ناد 1
هاين@@ 1
وألمانيا 1
وضعه 1
i@@ 0.08922872737846667
الاستوائية 1
الشعراء 1
سبانية 1
لفاء 1
وبحسب 1
وغيره 1
أندريه 1
بالغ 1
غال@@ 1
أذربيجان 1
العصب 1
لبة 1
ائم 1
افها 1
العبرية 1
العمل@@ 1
المحر@@ 1
الهول@@ 1
بود@@ 1
رينا 1
عله 1
وردت 1
وسلم 1
يطلب 1
الإنساني 1
الخبراء 1
اهرة 1
مرتب@@ 1
ميشيغان 1
يدي@@ 1
المهاجم 1
بّي 1
شور 1
عضلة 1
غلال 1
وو 1
أرجنتيني 1
الاستخدامات 1
الاقترا@@ 1
الوع@@ 1
اولات 1
داع@@ 1
روك@@ 1
شعبة 1
فرانك@@ 1
وانضم 1
الائ@@ 1
بحاث@@ 1
برل@@ 1
بلاي 1
جزءاً 1
جوهر 1
راس@@ 1
كينز 1
موح 1
مَّ@@ 1
id 0.2808732107130507
اقبة 1
تحديث 1
جنبا 1
خلل 1
ّز 1
g@@ 0.06097025543332087
الخري@@ 1
حاز 1
دَ 1
ضمنها 1
فاد 1
كشفت 1
مرتفعة 1
البولندية 1
التمي@@ 1
الخبرة 1
تْ 1
طائر 1
نابليون 1
التجار 1
الصندوق 1
الميكرو@@ 1
بضع 1
تصفيات 1
دواء 1
روجين 1
فِ@@ 1
أخذ@@ 1
الاشترا@@ 1
بأك@@ 1
بلاك 1
تسع@@ 1
سينغ 1
صفر 1
مسؤولة 1
وثائق 1
ائيين 1
الزيادة 1
الفيدرالي 1
بمتوسط 1
تألفت 1
لجائزة 1
للطلاب 1
et 0.006355566322171124
الآلية 1
الانح@@ 1
المبدأ 1
ولمدة 1
أحدهما 1
الثانوي 1
تلاف 1
جيني 1
دقيق 1
راتيجي 1
نيوتن 1
ّات 1
انتقد 1
برد 1
حاف@@ 1
عبور 1
كول 1
ليان 1
بإجراء 1
تربط 1
صوب@@ 1
قوله 1
قيرة 1
مونات 1
والمناطق 1
غينيا 1
لوحات 1
مراد 1
1.5 1
أتل@@ 1
أهمي@@ 1
التحضير 1
الحاد 1
الشروط 1
يجعل@@ 1
l 0.03486468036763427
الأمي@@ 1
المملو@@ 1
المناه@@ 1
رويجية 1
طانية 1
مستشار 1
البدء 1
بروسيا 1
حيح 1
سند 1
فنزويلا 1
ميني 1
وأش@@ 1
الرقص 1
الشائع 1
رد@@ 1
ريج 1
للدراسات 1
وتبعد 1
يتج@@ 1
ّس 1
E. 0.4936243202901164
إه@@ 1
الظه@@ 1
القاسم 1
خصوصًا 1
طيار 1
فاع 1
محت 1
ونقل 1
ينيا 1
تغييرات 1
فيزيائي 1
مراء 1
أسلو@@ 1
إلي@@ 1
ابط 1
التعديل 1
الروم 1
المدع@@ 1
راض@@ 1
طلقة 1
متين 1
مهمًا 1
74 0.7824171199889353
ادهم 1
جوناثان 1
هولم 1
89 0.8981703930785092
إطلا@@ 1
اختار 1
الإعلا@@ 1
الميكانيكية 1
تصالات 1
ليفربول 1
مايكروسوفت 1
عوام 1
يتخ@@ 1
استبد@@ 1
الزع@@ 1
بعيدًا 1
تاي 1
ثقافي 1
شأنه 1
معظمهم 1
والموس@@ 1
وبها 1
بدأ@@ 1
جأ 1
خلفه 1
لكنهم 1
1861 0.8520278347083067
92 0.8184742435270042
عظم 1
فاظ 1
يعل@@ 1
يورك 1
الزمنية 1
جيت 1
شاري 1
وتط@@ 1
إحص@@ 1
الأثر 1
الأوس@@ 1
الصوم@@ 1
النهار 1
حروب 1
سورة 1
أموال 1
إثبات 1
استم@@ 1
المسائل 1
بمق@@ 1
غرف 1
كرئيس 1
ليوب@@ 1
وشاعر 1
يتا 1
يوحنا 1
U 0.16891730970870322
الثابتة 1
المزمن 1
خزين 1
صابة 1
نست@@ 1
نورث 1
الأزهر 1
المواقف 1
انف@@ 1
رفت 1
ضئ@@ 1
أكمل 1
إيقاف 1
الحارث 1
المساع@@ 1
بيتر@@ 1
صحي@@ 1
مكث@@ 1
وفن@@ 1
الجزيئات 1
السائدة 1
السبع 1
زاً 1
سوب@@ 1
فنون 1
يعاب 1
أمن@@ 1
الاه@@ 1
التحاق 1
التكاليف 1
المسابقة 1
باركر 1
تلي@@ 1
مبلغ 1
معاً 1
وآخرون 1
الأحماض 1
الخلوي 1
الفيزيائية 1
المحمولة 1
ليلى 1
يار@@ 1
1883 0.8823362718578484
المرجح 1
المعيشية 1
بداع 1
ترشيح 1
رومان 1
للرئيس 1
يجوز 1
الجام@@ 1
الزعيم 1
حو 1
داني@@ 1
والمواد 1
اعتُ@@ 1
الأرز 1
الشاف@@ 1
المبر@@ 1
المسيحي@@ 1
الهندسية 1
تشيل@@ 1
ضير 1
عقدت 1
ملابس 1
ويسكونسن 1
1876 0.8609834293971437
الطبي@@ 1
المشهد 1
المعقدة 1
شق 1
فرناندو 1
قدرات 1
كيفن 1
لبية 1
لينز 1
معالج@@ 1
البسيطة 1
ضرر 1
معقدة 1
وحدها 1
وكار@@ 1
00@@ 0.9923144711324895
اتح@@ 1
استراتيجية 1
الدراما 1
الضروري 1
اللهجة 1
المسؤولة 1
عددا 1
كاتدرائية 1
للأشخاص 1
وارث 1
W. 0.5248725554508292
إيفان 1
الأكاديمي 1
الأوسكار 1
الحوار 1
القوق@@ 1
بعاثات 1
تحاول 1
للمنطقة 1
نسب@@ 1
والبحث 1
والتاريخ 1
يركز 1
ٍّ 1
خيال 1
محاص@@ 1
مستشار@@ 1
ناس 1
وفاتها 1
الإح@@ 1
الجنائية 1
الفرس 1
اِ@@ 1
كارتر 1
مستقبلات 1
91 0.8770289375837899
تمرات 1
فيليبس 1
كال@@ 1
كوس 1
مبل@@ 1
واب 1
ويقال 1
الخطوة 1
ربون 1
قز@@ 1
مادي 1
هربرت 1
Henry 0.25591807249810256
أمتار 1
الدرقية 1
ثماني 1
سِ@@ 1
صحف 1
لحق 1
نانين 1
يوش 1
السبت 1
تمال 1
للجنة 1
وأعلن 1
وطلب 1
ويك 1
أهلها 1
الخوف 1
المستقبلية 1
المقط@@ 1
بالي@@ 1
تاً 1
ساعدت 1
سيطر@@ 1
لمسافة 1
يسعى 1
التّ@@ 1
انتية 1
ثيوبيا 1
فاه 1
فيرجينيا 1
مستمرة 1
مليات 1
التجريبية 1
التغير 1
بزيادة 1
عليا 1
فسي@@ 1
فيزي@@ 1
وانة 1
إمام 1
ابته 1
اللوحة 1
المسمى 1
المفاوضات 1
تيان 1
خاط@@ 1
خَ@@ 1
كيو 1
وعازف 1
التخص@@ 1
الهبوط 1
خِ@@ 1
سريعة 1
سنويا 1
مَّ 1
وتعرف 1
يهودي 1
التفاعلات 1
التَّ@@ 1
تجد 1
منى 1
L5 1
العاشرة 1
العنوان 1
الهندوسية 1
الوهاب 1
فرسان 1
وسرعان 1
يدرس 1
أسطورة 1
ابين 1
اشتراك 1
حلول 1
ساه@@ 1
شيرة 1
ليًا 1
مارتين@@ 1
محدود 1
ing 0.021160679831999017
الصحي@@ 1
بمقدار 1
تجري 1
تشارلي 1
غيل 1
مكاتب 1
وتز@@ 1
1860 0.753117796717866
آبار 1
الثق@@ 1
السكري 1
السوائل 1
بطر@@ 1
دهار 1
زام@@ 1
لمان 1
ويتكون 1
يحضر 1
التطبيق 1
الدا@@ 1
بالدوري 1
تخلص 1
حبيب 1
مساهمة 1
وحسب 1
يوهان 1
آليات 1
أدبية 1
اختص@@ 1
الإصابات 1
الملح 1
توسع 1
جوني 1
إحياء 1
اقل 1
السمات 1
دوم 1
كرات 1
هيو 1
ودعم 1
ورى 1
الإسرائ@@ 1
كتيبة 1
نُشرت 1
ويؤ@@ 1
يجعلها 1
يميل 1
1871 0.7761994015902192
al@@ 0.052772108242589794
أحياناً 1
التسعينيات 1
الجماهير 1
الكرو@@ 1
المئة 1
توح 1
شعراء 1
غت 1
قلاع 1
معان@@ 1
إسلامية 1
الغوا@@ 1
القصي@@ 1
غوردون 1
المطبو@@ 1
بوصة 1
سكة 1
كبري@@ 1
وشه@@ 1
يستعمل 1
f@@ 0.05832994954625753
أب 1
الألياف 1
بالكانا 1
تخفيض 1
حزمة 1
حيط 1
دع 1
ِبة 1
الس 1
حذ@@ 1
سقطت 1
طرنج 1
لاد 1
والمص@@ 1
وكلية 1
الثنائية 1
الفوت@@ 1
امتلا@@ 1
تمت@@ 1
توظيف 1
دف 1
شريط 1
غلاديش 1
لفية 1
وتج@@ 1
ونق@@ 1
الانفص@@ 1
الطوائف 1
فلسطينية 1
كيات 1
لتجنب 1
موع 1
ميدالية 1
وتين 1
01 0.8474027842361872
أوتو 1
الكور@@ 1
المريخ 1
الورق 1
خيار 1
يتواجد 1
أيرلندي 1
الاك@@ 1
السوفياتي 1
جميلة 1
حالت@@ 1
حزاب 1
عيل 1
غضب 1
فوزه 1
منتظ@@ 1
حياء 1
دبلوماسي 1
ستراليا 1
واجز 1
ومت@@ 1
اسا 1
اعتقد 1
الحلقات 1
الذكر 1
الضوئي 1
تلاند 1
طانة 1
لمركز 1
لود@@ 1
أبدًا 1
اتذة 1
اوم 1
بغرض 1
خام 1
زملائ@@ 1
نتي@@ 1
يةً 1
اجل 1
الأمعاء 1
المقالة 1
اُ@@ 1
خطورة 1
صيني 1
للمجتمع 1
واقع@@ 1
وعرض 1
وود@@ 1
يمس 1
1879 0.8427069806573486
أوم@@ 1
بالولايات 1
دافع 1
دبل@@ 1
دفاع 1
راث 1
لقياس 1
واف 1
والأن@@ 1
80@@ 1
آد@@ 1
الارتباط 1
المنه@@ 1
طيين 1
ـة 1
مناز@@ 1
ناج@@ 1
ويلي@@ 1
يدور 1
اعف 1
الأصفر 1
تسليم 1
تغيرات 1
تفورد 1
راي@@ 1
طرس 1
عدّ 1
فاست@@ 1
لحركة 1
وسر@@ 1
أدر@@ 1
استع@@ 1
بشرية 1
حرق 1
سيادة 1
مقدون@@ 1
إستر@@ 1
المحافظ@@ 1
اطية 1
الذرة 1
السط@@ 1
تايلاند 1
حميد 1
ريخ 1
وعم@@ 1
ابيع 1
الانضمام 1
الكرب@@ 1
دلي@@ 1
قياس@@ 1
ليتم 1
منحة 1
واللغة 1
ينيون 1
for 0.006430902546558979
أثير 1
المعرض 1
الممثلين 1
بالمقارنة 1
جذور 1
شيف 1
صباح@@ 1
عشاب 1
يَّ@@ 1
الدوران 1
الصالح 1
تنمو 1
جور 1
دالة 1
عمرة 1
فؤاد 1
فعال@@ 1
لوجود 1
نسبيا 1
أورا@@ 1
اختر@@ 1
الأسهم 1
الظهير 1
الهاش@@ 1
بارات 1
توصل 1
حري@@ 1
ديترويت 1
وبهذا 1
وجيه@@ 1
وول@@ 1
أيدي@@ 1
الطابع 1
صوفيا 1
عاة 1
عضلات 1
قضائية 1
كوز 1
نسيج 1
آند 1
ألة 1
الثقيل 1
بنشر 1
جراءات 1
مسبق@@ 1
ملو@@ 1
الانقلاب 1
الهواتف 1
ببط@@ 1
سوداء 1
عائلات 1
عقوبة 1
فيًا 1
للصحة 1
لمواجهة 1
والت 1
9.@@ 1
ادعى 1
استقال 1
اضطر 1
جزئيًا 1
حامل 1
فاية 1
فقدت 1
أغني@@ 1
أولا@@ 1
التاب@@ 1
الشاملة 1
الملفات 1
جيدًا 1
ستانلي 1
فاش@@ 1
لائحة 1
ابتن 1
الجزائ@@ 1
الجمال 1
تراكم 1
جلد 1
شفاء 1
متش@@ 1
ميلو@@ 1
نوي 1
وتد@@ 1
يُطلق 1
أطف@@ 1
المشاهد 1
بالله 1
بست@@ 1
شعور 1
طيرة 1
فيشر 1
للز@@ 1
للعلاج 1
هرب 1
97 0.8645237107795601
أسهم 1
الانفجار 1
المنصور 1
ترشح 1
ريفي@@ 1
غونز@@ 1
مصالح 1
نقد 1
الحادثة 1
المرتبط 1
تقدون 1
توت 1
دورية 1
فش@@ 1
لوبيز 1
مكعب 1
مملو@@ 1
34@@ 1
ادًا 1
المصطلحات 1
النائب 1
سفير 1
وجي@@ 1
وصفها 1
ويش@@ 1
يتعرض 1
الثة 1
الحج 1
بتر@@ 1
بحي@@ 1
دلالة 1
صفقة 1
كندية 1
أبوظبي 1
إبرا@@ 1
إنتاجها 1
الصع@@ 1
رومانية 1
ضريبة 1
عدات 1
محاكمة 1
مواطنين 1
أنوا@@ 1
تصار 1
تياغو 1
عملاء 1
غراهام 1
ماثيو 1
يُمكن 1
الأعظم 1
ثُ@@ 1
درات 1
سبور@@ 1
الاستخبارات 1
القدي@@ 1
النهج 1
الوباء 1
دق 1
دوراً 1
سيون 1
مشهد 1
همة 1
09 0.7836747725303845
ئران 1
البد@@ 1
المؤقتة 1
انتح@@ 1
انيه 1
جست@@ 1
حوله 1
طبا@@ 1
عراقي 1
كوبر 1
كيون 1
مساء 1
ورق 1
يوضح 1
# 0.29554596882788486
الاستفادة 1
الجسدية 1
الدستوري 1
مثلما 1
إسلا@@ 1
الأعراق 1
فوائد 1
لر@@ 1
نرويجي 1
وقي@@ 1
Michael 0.20412004006395618
أوامر 1
المنخفض 1
حمام 1
للسيطرة 1
ويكيبيديا 1
يتش 1
البر 1
الموجهة 1
حكمت 1
مهورية 1
يابان 1
ارن 1
انط@@ 1
اهي 1
سياً 1
شأنها 1
نسية 1
البخار@@ 1
حيوية 1
واتي 1
ولف 1
الاخ@@ 1
الربع 1
العقيدة 1
القسطنطينية 1
المشاعر 1
النامية 1
بوف@@ 1
ضربات 1
ماركس 1
تمنح 1
حون 1
سرا 1
شاملة 1
إشارات 1
الأسئلة 1
السهل 1
القة 1
المقر 1
ملحن 1
نيًا 1
والدراسات 1
أخرة 1
البريدي 1
الديمو@@ 1
الفرع 1
الكبريت 1
المناعي 1
عز 1
وبا@@ 1
استناد@@ 1
الأرمن 1
الاستئ@@ 1
الانتداب 1
الير@@ 1
دولف 1
طلع 1
كنة 1
للأسر 1
مشتق@@ 1
هاشم 1
يام@@ 1
التحلي@@ 1
التقدمي 1
بالضرورة 1
تبت 1
قلال 1
قوط 1
هائلة 1
العيون 1
المبادرة 1
الهياكل 1
تتحدث 1
تفشي 1
صديقه 1
أعمارهم 1
برمن@@ 1
تجاه@@ 1
جابر 1
صحافة 1
فتيات 1
قصائد 1
معاملة 1
وفيما 1
ومه 1
Richard 0.2382393833401626
ألوان 1
اخرى 1
الوز@@ 1
سوريّة 1
شباب@@ 1
عقد@@ 1
قليلاً 1
مستوطنة 1
وجودها 1
أبواب 1
أثبتت 1
الثورية 1
الحملات 1
المهم 1
اميم 1
برنار@@ 1
تشتمل 1
خلات 1
غرة 1
كلير 1
مشابه 1
ia 0.08531303656311971
المرك@@ 1
جامين 1
زى 1
مهاجم 1
هيد 1
الشاشة 1
المند@@ 1
حمص 1
غلاق 1
وأمريكا 1
واحد@@ 1
الإط@@ 1
المجلات 1
المعرو@@ 1
امرات 1
كارول 1
كتين 1
كلاعب 1
K 0.21830804320493372
أنجي@@ 1
الكمية 1
ظت 1
علاء 1
قبض 1
هوائية 1
وبر 1
احتل 1
التخلي 1
المشي@@ 1
امتصاص 1
تيم@@ 1
غز 1
لتر@@ 1
مئ@@ 1
يوما 1
الإسبان 1
الانسحاب 1
الحروف 1
السينمائية 1
المدي@@ 1
روان 1
عموما 1
قومية 1
كاش@@ 1
وأوروبا 1
وصية 1
$ 0.09172809639060965
أستر@@ 1
حولها 1
راديو 1
وتشير 1
ومدرسة 1
ومصر 1
التسل@@ 1
الدير 1
تير 1
ثيقة 1
عندها 1
فلس@@ 1
كند@@ 1
لأنهم 1
مام@@ 1
مقيمة 1
مناسب 1
الخضر 1
القصور 1
رجانات 1
ساد@@ 1
مصمم 1
مِن 1
واحدا 1
المعارض 1
باغ 1
بيس 1
سبرغ 1
يذهب 1
أنشأ@@ 1
الخرطوم 1
بخصوص 1
تمتع 1
البولي@@ 1
توفيق 1
تيري 1
رفية 1
لسوف 1
الأمد 1
البية 1
التجمعات 1
الرقمي 1
الشار@@ 1
القصير 1
بب 1
كاد@@ 1
ناعة 1
نر@@ 1
اتيح 1
التحقق 1
الكلى 1
تبره 1
زرق 1
شال 1
للحد 1
ويليامز 1
ينيسي 1
التين 1
المتف@@ 1
المعم@@ 1
امتدت 1
ذكرها 1
روت 1
سوبر 1
مجمة 1
التدفق 1
الحكام 1
الدائم 1
تمّ 1
سرح 1
نادر 1
ائحة 1
استولى 1
الغابة 1
ساءة 1
معادلة 1
واث@@ 1
1867 0.8056133860409267
أخر@@ 1
الأرجن@@ 1
الأنف 1
المستهلك 1
ريتشار@@ 1
قنا@@ 1
موراي 1
ميك 1
وجير@@ 1
جرز 1
خبر 1
دريك 1
لهلم 1
مبنية 1
والإي@@ 1
والفنون 1
اسط@@ 1
الأوروبيين 1
الزرقاء 1
القمح 1
ايك@@ 1
بعملية 1
مسعود 1
ميغيل 1
نزاع 1
والأطفال 1
وتوفي@@ 1
أرضية 1
إحدا@@ 1
السويدي 1
الكفاءة 1
اللغوية 1
تأسي@@ 1
سترو@@ 1
لاي 1
مُن@@ 1
وذ 1
أسسها 1
أليكس 1
انش@@ 1
شعر@@ 1
مؤكدة 1
والمعروفة 1
وسة 1
َّل 1
or 0.01691536950069874
الاحتياجات 1
القطبية 1
القوا@@ 1
المؤتمرات 1
المجرات 1
براءة 1
تبني 1
تتك@@ 1
زو@@ 1
طفل@@ 1
فالن@@ 1
فكر 1
ملفات 1
منظور 1
مْ@@ 1
الإقامة 1
بدراسة 1
تنقل 1
شفيات 1
ليوس 1
وتحتوي 1
94 0.812725425999
اجز 1
الأرث@@ 1
الألو@@ 1
اليمني 1
بائ@@ 1
صح 1
فيون 1
مدني 1
والأدب 1
وقر@@ 1
2.5 1
إلخ 1
الطاقم 1
جس 1
مارغريت 1
منازل 1
موني 1
نفو@@ 1
وراً 1
الرض@@ 1
الرموز 1
الشريان 1
الضرر 1
بوضوح 1
راوي 1
عتين 1
هو@@ 1
اعتز@@ 1
البلج@@ 1
انتهاكات 1
جنيف 1
لتص@@ 1
مسمى 1
el 0.005831967282484893
أراضيها 1
الإنجليز 1
السجناء 1
المادي 1
ترتفع 1
تفاق 1
حرس 1
كّ@@ 1
للن@@ 1
منهج 1
أساسا 1
إدارية 1
الإسلا@@ 1
القدرات 1
الميزانية 1
اير 1
صين 1
قالة 1
نورمان 1
as 0.005616754080332094
انخفض 1
بتطوير 1
خطوات 1
ميلادي 1
والصحة 1
آخر@@ 1
اكتشفت 1
العوا@@ 1
انتُ@@ 1
تؤكد 1
زيه 1
صحيحة 1
عينة 1
فريدة 1
مركزي 1
يحمل@@ 1
يخص 1
أحادي 1
الطقس 1
سلكية 1
عمود 1
غوط 1
4,@@ 0.7367427780974667
الإضافية 1
السيادة 1
الصفات 1
العميل 1
القوي 1
المنهج 1
جابة 1
لحة 1
واي@@ 1
03 0.9181738395089574
33@@ 1
آدامز 1
اديين 1
اربين 1
الاعتداء 1
المئ@@ 1
سعودية 1
شرع 1
عالة 1
عمها 1
مَ 1
واز 1
والمث@@ 1
وثائ@@ 1
الأقسام 1
الأُ@@ 1
البريطانيون 1
الرغبة 1
ررة 1
عقدة 1
موضوع@@ 1
افل 1
غريب 1
فك 1
متحركة 1
نشأة 1
المسرحي 1
بلندن 1
تنز@@ 1
ساي 1
طفاء 1
عرب@@ 1
لاقة 1
أثرت 1
إجرا@@ 1
انتخابية 1
عُرف 1
مؤسسي 1
ناط@@ 1
إلا@@ 1
استغلال 1
الديمقرا@@ 1
بؤ@@ 1
تمر@@ 1
توضع 1
مؤخرًا 1
1877 0.8079686033468678
L. 0.5493060554404902
الفطريات 1
بأمر 1
بفعل 1
بكين 1
رصد 1
غربي 1
يحقق 1
الإغريقية 1
بحري 1
بروك@@ 1
خوض 1
كنز 1
للفريق 1
ملحوظ@@ 1
مّ 1
الأطعمة 1
الراديو 1
ترشي@@ 1
جلب 1
خية 1
سطين 1
غيز 1
والكتابة 1
وغو 1
يرين 1
الكلاب 1
جمعيات 1
حجة 1
ظاهرات 1
لاستخد@@ 1
ماج 1
ناضول 1
نقلة 1
هجرة 1
وتمت 1
ونظام 1
أرمينيا 1
الجراحية 1
العالم@@ 1
المة 1
بارز 1
دخال 1
سرقة 1
قتصاد 1
متتالية 1
نفا@@ 1
يخرج 1
08 0.7567299163123701
احب 1
البشرة 1
تاريخي 1
تستعمل 1
دوي@@ 1
شبيلية 1
شج@@ 1
للمص@@ 1
موعد 1
ووزير 1
Paul 0.14356534198865267
m@@ 0.06442075910837199
أزياء 1
اختلا@@ 1
الشمسي 1
الكومنولث 1
توافق 1
جلال 1
ذكر@@ 1
لتر 1
ماجستير 1
وتتكون 1
وران 1
وكندا 1
07 0.8024599432263173
1873 0.8027697956248955
أسقف 1
إد 1
القهوة 1
المشاه@@ 1
الناشئة 1
تمرير 1
توزع 1
دفورد 1
شى 1
ضرورية 1
طاً 1
هذة 1
وغالبا 1
التنظيمية 1
بانية 1
خه 1
رئيساً 1
شامل 1
لويد 1
الحمام 1
الدين@@ 1
الممتدة 1
بطرق 1
تام 1
فيت@@ 1
ومغنية 1
برايان 1
تاد@@ 1
تاس@@ 1
تدهور 1
ترأس 1
خب 1
ق.م. 1
قليم 1
محسن 1
نسا 1
هلك 1
والمؤسسات 1
أبا 1
الجدران 1
السفلى 1
المحدد 1
المذك@@ 1
المفاج@@ 1
اندلعت 1
تيريا 1
جال@@ 1
صنّف 1
قاتل 1
للاع@@ 1
مامة 1
يحة 1
ُّ 1
x@@ 0.15652819225464
التعليمي 1
برمجة 1
تخب 1
صاروخ 1
لتك@@ 1
وأد@@ 1
1848 0.7238398996452168
أسم@@ 1
اعر 1
الدائمة 1
الكلاسيكي 1
المزارع 1
المنتخ@@ 1
جيرات 1
خريطة 1
راتي@@ 1
كنتاكي 1
والان@@ 1
يرز 1
يعبر 1
2,@@ 0.46591832054189597
الأشهر 1
الانتح@@ 1
المعتمد 1
تاجية 1
خال@@ 1
شاط 1
ِيَّة 1
Mc@@ 0.1547003154476738
f 0.15230116490470522
أصدقاء 1
التسم@@ 1
الدقة 1
العاص@@ 1
القشرة 1
المقتر@@ 1
انتصار 1
بجوار 1
خضع 1
وتقدم 1
وتولى 1
التوتر 1
تعقي@@ 1
دارية 1
عار 1
والي@@ 1
ومقر@@ 1
on@@ 0.05835944474759327
أولمبي@@ 1
إثارة 1
السح@@ 1
المجرة 1
تثبيت 1
دح@@ 1
رموز 1
مؤلفة 1
وسبة 1
14.@@ 1
900 0.9999455768597472
الاحتجاجات 1
السمك 1
الصغار 1
وتتميز 1
العنا@@ 1
المكرمة 1
بوك 1
صم@@ 1
فرق@@ 1
لفه 1
ماريو 1
والمنظ@@ 1
يوف 1
أقر@@ 1
اتخذ 1
الإيدز 1
باله@@ 1
بيًا 1
تفجير 1
قدمها 1
نشاطه 1
وأنها 1
o@@ 0.058009060409613074
استعم@@ 1
الباكستانية 1
البرتغالي 1
البيان 1
الحيوانية 1
الكاث@@ 1
المقي@@ 1
ثبات 1
حاسوب 1
سيئة 1
كارولينا 1
نجحت 1
َا 1
الإشعاع 1
بعرض 1
سلمين 1
متجر 1
أخيرًا 1
الحوض 1
العنصر 1
تجاهل 1
تفر@@ 1
أيمن 1
الفقراء 1
فاة 1
كاي 1
هابية 1
الإخوان 1
الالتزام 1
الفسي@@ 1
المجرية 1
المرسوم 1
باسمه 1
تدابير 1
جمعت 1
السودانية 1
الشوا@@ 1
تق 1
ضخ@@ 1
لحظة 1
هيل@@ 1
الجين 1
الملو@@ 1
تطوان 1
ثمّ 1
جنبًا 1
صدام 1
غطية 1
37@@ 1
اعتمادًا 1
روط 1
شراكة 1
متازة 1
هياكل 1
وجميع 1
in@@ 0.03413219387340213
ابنته 1
الرأسمالية 1
بنان 1
جبر 1
حمي@@ 1
رجع 1
روش 1
غوري 1
مباني 1
son 0.020348414650098196
أركان 1
أنابيب 1
إذن 1
الإغلاق 1
التوقيع 1
السطحية 1
سلو 1
طعام 1
لونغ 1
1875 0.7835122934595908
آكل 1
البحثية 1
الحاف@@ 1
والمعروف 1
1866 0.6561473986357304
أوج@@ 1
العلاجات 1
تسميتها 1
تيت 1
جاب 1
خرو@@ 1
صدا@@ 1
والمنا@@ 1
والهرسك 1
يبي 1
1865 0.7458639677861882
en 0.0029887762112211693
آباد 1
إعد@@ 1
الحقائق 1
تاج@@ 1
خبراء 1
هاميلتون 1
ی@@ 1
قبر 1
ميني@@ 1
أتى 1
ادلة 1
الإعلانات 1
البالغة 1
الباً 1
البيولوجي 1
دياد 1
طلحات 1
قيح 1
كيني@@ 1
مضادة 1
1864 0.7282503478082828
أخو@@ 1
الجزيئية 1
المصالح 1
طور@@ 1
عاءات 1
معماري 1
190@@ 1
السيناريو 1
اموا 1
اوي@@ 1
بلغة 1
حيم 1
كاً 1
البندقية 1
الخفيفة 1
المواضيع 1
بينية 1
روش@@ 1
طاة 1
للسلام 1
منفصل 1
والل@@ 1
1868 0.7797270956488538
استقرار 1
السلالة 1
المخصصة 1
المعدل 1
النبات@@ 1
بتي@@ 1
دانة 1
ديني 1
زيلي 1
قمر 1
نيون 1
هارون 1
هيوستن 1
إمكان@@ 1
اطير 1
الجوفية 1
بيعة 1
جوي@@ 1
خصص 1
قوب 1
للحركة 1
معيار 1
نابلس 1
نمية 1
وأخرى 1
130 0.9485893084711519
الغازات 1
جاد 1
دريش 1
شأن 1
صفحات 1
العذراء 1
العَ@@ 1
المؤرخون 1
تعادل 1
صول 1
عدي 1
للتنمية 1
واكه 1
أدولف 1
التث@@ 1
القرص 1
بيرو@@ 1
حمز@@ 1
صادق 1
والمجتمع 1
ويشمل 1
بمفرده 1
تقليدية 1
ثقة 1
حوا 1
رَ 1
عائلتها 1
Al@@ 0.0763418330260007
آلهة 1
التوجيه 1
الدائ@@ 1
الصليب 1
المتعدد 1
المسح 1
النور 1
كيان 1
لدت 1
ويحتوي 1
العرق 1
ثروبولوجيا 1
110 0.8779078364733608
Smith 0.2664297709705136
الإيجابية 1
بغي 1
تولي 1
حقيقي 1
سوم 1
وحقق 1
180 1
الاندماج 1
الجانبين 1
الزوج 1
المكث@@ 1
تتعرض 1
سيه 1
مقام 1
نشطة 1
ومعظم 1
man 0.04566602051298511
الاقتص@@ 1
كنائس 1
الحُ@@ 1
الموضوعات 1
تباع 1
صحراء 1
والآخر 1
يسم@@ 1
الجليل 1
مرتبط 1
نوم@@ 1
المدخل 1
المرتفعة 1
المكون 1
الملائ@@ 1
اوم@@ 1
ساً 1
سينات 1
طيع@@ 1
فراز 1
كليفلاند 1
football 0.11717151248751212
تمكين 1
خرفة 1
خصية 1
شوا@@ 1
شيك@@ 1
عو 1
عين@@ 1
وتعزيز 1
.و 1
اعتراف 1
الضعي@@ 1
المدافع 1
النوا@@ 1
النّ@@ 1
تقال 1
جونيور 1
خفض@@ 1
سقط 1
ضاً 1
كِ@@ 1
06 0.7901906758776754
المنص@@ 1
زاك@@ 1
سامسون@@ 1
مشر@@ 1
معالم 1
نته 1
السبعة 1
انغ@@ 1
ذاعة 1
مفو@@ 1
ولوا 1
الصليبية 1
العز@@ 1
الناخبين 1
لّ@@ 1
محافظات 1
محيط 1
إنجاز@@ 1
التطورات 1
الوظي@@ 1
ترب 1
زهرة 1
سته 1
سيان 1
سُج@@ 1
نجة 1
وبان 1
ودها 1
توازن 1
حساب@@ 1
الطابق 1
جلا@@ 1
كدة 1
لكون 1
للقانون 1
ينر 1
الآراء 1
الأذ@@ 1
الأسفل 1
انقراض 1
بوبي 1
محلي 1
4- 1
البسي@@ 1
الحجاز 1
القدماء 1
جهاد 1
دائماً 1
شيئا 1
وانتهى 1
لمد@@ 1
مصانع 1
1872 0.7739427498332135
r@@ 0.05042242181966323
ابتداء 1
خلافة 1
سيناء 1
للذ@@ 1
وسلا@@ 1
ينيك 1
لتحرير 1
ومز@@ 1
ابًا 1
تتأ@@ 1
تمديد 1
فك@@ 1
كلاً 1
وارع 1
البنوك 1
جاذ@@ 1
عمار@@ 1
60@@ 1
an@@ 0.041170470648888145
أند 1
المقر@@ 1
تاء 1
كام 1
مماثل 1
1869 0.8092384913645352
مسئ@@ 1
اعده 1
خصوص@@ 1
عصره 1
قبرص 1
نفر 1
يوت@@ 1
الميكان@@ 1
انز@@ 1
بارد 1
حلق@@ 1
والسك@@ 1
ذار 1
ستاني 1
قشت@@ 1
نازل 1
وِ@@ 1
at 0.007841331819465884
اقم 1
التاج 1
الخمسينيات 1
الدي 1
الفة 1
النقاش 1
شوف 1
كلاسي@@ 1
اختصاص@@ 1
المسؤ@@ 1
دائق 1
عهده 1
غام 1
لفظ@@ 1
أسد 1
بعات 1
راعة 1
رقص 1
سيليا 1
شخ@@ 1
علانات 1
فلك 1
وشر@@ 1
الخليل 1
العن@@ 1
حوادث 1
خوف 1
طلي@@ 1
طواف 1
يُع@@ 1
الرشيد 1
النانوية 1
ستو 1
تعبير 1
مفتاح 1
اعه 1
المشار@@ 1
رجب 1
1874 0.7546517506658603
ئًا 1
رل 1
ئمة 1
استقبال 1
الحصن 1
تال@@ 1
تند@@ 1
ثمان 1
فاح 1
بعاء 1
تغل 1
اديث 1
الث 1
تيال 1
روبن 1
طَ@@ 1
قس 1
ماج@@ 1
وجب 1
ومغ@@ 1
W 0.2872478276163076
السّ@@ 1
جزائر 1
سلاسل 1
ضل 1
مزارع 1
المفر@@ 1
تعز 1
حص 1
زونا 1
لله 1
وفان 1
S. 0.3608337251358994
ارضة 1
الميد@@ 1
انتشر 1
بعه 1
حزب@@ 1
شيش@@ 1
صيلة 1
عظام 1
لار 1
بولس 1
جنين 1
حور 1
طرب 1
الجان@@ 1
روماني 1
ِّ 1
نظري@@ 1
160 1
الفصول 1
مقط@@ 1
الإير@@ 1
الشب@@ 1
خات 1
قائق 1
الجة 1
خدمت 1
ريكو 1
عجاب 1
إنتا@@ 1
الطب@@ 1
توزي@@ 1
سد@@ 1
ظفار 1
ندو 1
اصة 1
قائم 1
اوضات 1
مشتق 1
Y 0.3304147734193095
احترام 1
فوت@@ 1
يلو 1
ديمقرا@@ 1
شِ@@ 1
بدء@@ 1
وولف 1
احت@@ 1
خول 1
كاس 1
متنا@@ 1
نزوي@@ 1
بيرة 1
جوع 1
حْ@@ 1
مرا 1
واقب 1
ابتدا@@ 1
خور@@ 1
سيني 1
فريقيا 1
لترا 1
مناق@@ 1
يونس 1
l@@ 0.04834282195408332
الحساب 1
انفجار 1
قذ@@ 1
الرحيم 1
الليبر@@ 1
ٍ@@ 1
ماه 1
أحي@@ 1
إيق@@ 1
02 0.8331060664331943
تخص@@ 1
فرن@@ 1
نين@@ 1
بابل 1
تشك@@ 1
شخاص 1
عمد 1
لص 1
صادر 1
بعل 1
رفعت 1
عذ@@ 1
وجا 1
1863 0.7018451099059968
عبر@@ 1
ar 0.032469410514136696
اعترا@@ 1
بض 1
ذُ@@ 1
عود@@ 1
خدم@@ 1
ed 0.021979696273226372
باعتب@@ 1
جول 1
R. 0.4221229924363488
لازمة 1
زق 1
اين@@ 1
خدمين 1
صدور 1
ازن 1
انتباه 1
انتش@@ 1
ثلث 1
زار@@ 1
فاءة 1
مشوار@@ 1
تراوح 1
تقرر 1
حاق 1
أكس@@ 1
لانو 1
تت 1
وسا 1
la 0.0020960307912578596
الحجاج 1
حدائق 1
مجالس 1
زيانا 1
سبة 1
ياتي 1
D9 1
اتو 1
5,@@ 0.7552141083334841
u 0.06672863181120973
القد@@ 1
الهج@@ 1
تشار 1
بنا 1
كيمي@@ 1
هيار 1
ورئ@@ 1
الاف@@ 1
انتخاب@@ 1
خسر@@ 1
شل@@ 1
ويلك@@ 1
تجرب@@ 1
ونز 1
الزب@@ 1
قسطنط@@ 1
برس 1
رقت 1
شمالي 1
نفوذ 1
h 0.07880917563335935
غض@@ 1
فرانسوا 1
مقر@@ 1
B. 0.20842989797364822
en@@ 0.0318855364626935
لّ 1
نزع 1
1857 0.8508853349270163
اقب 1
رط@@ 1
وعض@@ 1
الرب 1
فيدة 1
هون 1
حلي@@ 1
بواب 1
مرتفع 1
النفا@@ 1
داعش 1
كولي@@ 1
تغلب 1
سكي@@ 1
الإدار@@ 1
تنوع 1
عنا 1
فصول 1
رم@@ 1
0,000 1
38@@ 1
90@@ 1
h@@ 0.05222036915683615
الوك@@ 1
جسم@@ 1
رز@@ 1
مباد@@ 1
مرق@@ 1
Ch@@ 0.06195110500340954
اهل 1
بلو 1
رش 1
ضربة 1
نقاش 1
الإغ@@ 1
المقال 1
قرص 1
مصف@@ 1
برو 1
قتة 1
حقوق@@ 1
خيرة 1
رالف 1
رَّ@@ 1
اتباع 1
حاد@@ 1
غات 1
نيوك@@ 1
تلة 1
ذير 1
مولر 1
نوي@@ 1
بقدر 1
لسان 1
نيوز 1
يوني 1
نبول 1
1850 0.6754283321646696
ميري@@ 1
انخ@@ 1
طه@@ 1
غرنا@@ 1
مَا 1
or@@ 0.05320951138955834
استخراج 1
النسب 1
مقت@@ 1
طائ@@ 1
نطق 1
ئلة 1
انسداد 1
مشتر@@ 1
1862 0.6644477123944456
فوج 1
350 1
الإيط@@ 1
تكن@@ 1
وران@@ 1
وفاء 1
بنفس@@ 1
II 0.06708889460331398
جيني@@ 1
قس@@ 1
مفتوح 1
ائعة 1
الإيجاب@@ 1
الخبر 1
^ 1
التزام 1
ممت@@ 1
اصرة 1
الرغ@@ 1
النمس@@ 1
بروز 1
ابعة 1
انسون 1
شيد 1
قطب 1
استطاعت 1
المعارف 1
براطورية 1
حيدة 1
عرو@@ 1
مائي 1
وزوج@@ 1
آداب 1
الذك@@ 1
املات 1
تجت 1
قاق 1
مخر@@ 1
الاحتف@@ 1
مطبو@@ 1
الاستي@@ 1
تعي@@ 1
اوج 1
ختم 1
كتورا@@ 1
لزم 1
1859 0.7553075798486507
الورا@@ 1
ماز@@ 1
22@@ 1
المؤمنين 1
الزرا@@ 1
حدات 1
داة 1
قوت@@ 1
ميري 1
7.@@ 0.9170110917534864
خيل 1
ذات@@ 1
اتش 1
رُ 1
مبيوتر 1
محد@@ 1
دوج@@ 1
شام 1
جِ@@ 1
رن@@ 1
مك 1
ميامي 1
وئية 1
D. 0.3260815959687879
series 0.06790965446030307
י@@ 1
بارا 1
تران@@ 1
حيدر 1
راد@@ 1
مصور 1
وراق 1
3,@@ 0.5743326020218794
الإنس@@ 1
اقتص@@ 1
فف 1
لازما 1
الكوك@@ 1
مش 1
انتون 1
باور 1
جلو@@ 1
ستول 1
غول 1
موضوعات 1
عبدالله 1
وَ 1
اجتماعات 1
انوية 1
حوا@@ 1
دروس 1
معلم 1
يرلندا 1
الغطاء 1
تجات 1
ورس 1
كى 1
استط@@ 1
النسي@@ 1
ذج 1
بلوماسية 1
حصر 1
فوق@@ 1
خوف@@ 1
شوار@@ 1
ماض 1
اختلافات 1
المقارنة 1
حسان 1
تسو@@ 1
زع 1
الحن@@ 1
الشيو@@ 1
بعمر 1
غلاف 1
البص@@ 1
دما@@ 1
مسائل 1
6.@@ 0.7943590115178198
سيق 1
شنا@@ 1
طرابات 1
قبض@@ 1
واجبات 1
لبر@@ 1
نون@@ 1
لاج@@ 1
4000 1
ائزة 1
j@@ 0.05952002801791109
اللحم 1
امام 1
ation 0.02584985061335602
وزيع 1
باتات 1
بورو 1
سطو 1
ميك@@ 1
Joseph 0.17701850753287005
اشتر@@ 1
دستان 1
Edward 0.2929224914854194
مشق 1
نم 1
النَّ@@ 1
حفا@@ 1
دينار 1
ئك 1
المتب@@ 1
المقد@@ 1
حِ@@ 1
125 0.9612481992671752
المستقبل@@ 1
مثلًا 1
هيرة 1
الابتد@@ 1
محلول 1
1856 0.7786683493383025
70@@ 1
اصطنا@@ 1
خادم 1
راني 1
ريكا 1
معز@@ 1
نجلي@@ 1
الخ 1
دوان 1
مؤخر@@ 1
? 0.1539283798431598
يمز 1
يِّ@@ 1
ac@@ 0.0650458552222083
متلك@@ 1
الذه@@ 1
36@@ 1
Ar@@ 0.06175271246232088
توي 1
Re@@ 0.072733447581022
خوارز@@ 1
واسط 1
ine 0.06292130312651631
k@@ 0.0478058405677315
اقتب@@ 1
v@@ 0.06240444989124013
العباس 1
الجنا@@ 1
سنا 1
تهي 1
خات@@ 1
منتظم 1
1849 0.8088762032237973
39@@ 1
Australian 0.18173959358159197
os@@ 0.07928208576733965
باز@@ 1
الباكست@@ 1
المتمر@@ 1
خن 1
نجر 1
ايل 1
تّ@@ 1
دِ 1
وارنر 1
تمو@@ 1
حضرموت 1
قلا@@ 1
مجيات 1
ملبورن 1
140 0.9381615858382765
ar@@ 0.04039019596950602
اوت 1
جوب@@ 1
فرنان@@ 1
مساجد 1
ترام 1
رابع 1
أته 1
ظن 1
مثال@@ 1
ملال 1
الجس@@ 1
انز 1
شيل@@ 1
نْ 1
1840 0.7241514162732536
ولن 1
المسا@@ 1
رخص@@ 1
لوز@@ 1
مِنْ 1
البحي@@ 1
افظ@@ 1
الباس@@ 1
سوت@@ 1
2022 0.21636141877067708
احتم@@ 1
واضع 1
Frank 0.30976966697594377
السو@@ 1
دُ 1
مساب@@ 1
سخ 1
1854 0.7803504669157552
الأكاد@@ 1
كلار@@ 1
مجر@@ 1
نوت 1
ِل 1
راف@@ 1
لُ 1
ورز 1
1830 0.7251001204556382
er@@ 0.031064365729023293
اللسان 1
بيلي@@ 1
صق@@ 1
غَ@@ 1
1858 0.7737743888987063
مرد 1
name 0.058103485141221246
قران 1
مسان 1
ch@@ 0.03467404793730673
مرغ@@ 1
توا 1
ويند@@ 1
Peter 0.14858808082905992
ديش 1
المخص@@ 1
جسد 1
زلز@@ 1
5- 1
قيلة 1
الموظ@@ 1
سرت 1
رتا 1
ضاب@@ 1
ضان 1
om@@ 0.0736743910425447
الح 1
مطلو@@ 1
منفص@@ 1
100@@ 1
وند@@ 1
بريت 1
تداد 1
محافظ 1
ورش 1
فقت 1
لائل 1
تيجة 1
قرار@@ 1
كرية 1
مباب@@ 1
45@@ 1
خلاء 1
6,@@ 0.7589506779598911
Z 0.310506378343805
ركة 1
غن@@ 1
واجد 1
بعل@@ 1
وغ 1
as@@ 0.053436709476120836
أغراض 1
الأوروب@@ 1
الداخ@@ 1
جاس@@ 1
كلين 1
1800 0.7314195578167461
Mar@@ 0.06322843790407569
رنا 1
فارقة 1
التشخ@@ 1
شيما 1
الدار@@ 1
تلف 1
حاء 1
رئيس@@ 1
ol@@ 0.06622256198166276
ناظ@@ 1
وصح@@ 1
الأطل@@ 1
جراح 1
شعبان 1
ae 0.16629300112139414
el@@ 0.03677054826422982
عشر@@ 1
فخر 1
مخالف@@ 1
الاستعم@@ 1
حماس 1
ثرو@@ 1
فجر 1
An@@ 0.05134600022375591
وعش@@ 1
امر@@ 1
ضَ@@ 1
عظيم 1
عنق@@ 1
تمرار 1
رود@@ 1
عمرات 1
استغ@@ 1
الاحتج@@ 1
جدل 1
فتو@@ 1
مثيل 1
حلف 1
مران 1
450 1
div 1
قرض 1
تقدمة 1
حب@@ 1
زَ@@ 1
موسوم 1
النسل 1
قبلات 1
250@@ 1
العثمان@@ 1
شمس@@ 1
طانيا 1
صيل 1
ممل@@ 1
ولز 1
افس@@ 1
بلاغ 1
سني 1
فساد 1
نمر 1
ic@@ 0.07758169635428805
اتب 1
ازان 1
نَ 1
هِ@@ 1
حاب 1
طبع 1
كنساس 1
لوم 1
ate 0.032753874710116586
محم@@ 1
مُ 1
ِّي 1
الجنوب@@ 1
اوب@@ 1
حامد 1
قبر@@ 1
188@@ 1
بوقت 1
7,@@ 0.7150514451904492
واس@@ 1
ab@@ 0.038064291766179384
حوال@@ 1
z@@ 0.04067957415072352
درائية 1
مسم@@ 1
مورا@@ 1
الأولمب@@ 1
ו@@ 1
اندا 1
ترقي@@ 1
نبو@@ 1
15.@@ 1
w@@ 0.048632693932835674
اوس 1
جئين 1
ثَ@@ 1
سعد@@ 1
صنف@@ 1
سبن@@ 1
مصنف@@ 1
ويلي 1
اختصار 1
فاص@@ 1
وليكية 1
خاد@@ 1
عات@@ 1
عدنان 1
ميون@@ 1
النات@@ 1
صلح 1
نبات@@ 1
اَ@@ 1
زمان 1
اطئ 1
نوت@@ 1
نَّ@@ 1
AS@@ 0.33103528503460855
باخ 1
سطس 1
بَ 1
طس 1
لونة 1
معالج 1
ائي@@ 1
ظبي 1
189@@ 1
عضو@@ 1
هَا 1
101 0.8209778388994327
الحكوم@@ 1
صدر@@ 1
In@@ 0.06867849648767055
ذَ@@ 1
غرس 1
القاع@@ 1
تمام@@ 1
نيكولا@@ 1
طلال 1
حلو@@ 1
Brown 0.2656310353894561
الاتفاق@@ 1
الخوارز@@ 1
ندوق 1
1851 0.7308734854577292
السفل@@ 1
دارفور 1
واق 1
360 0.9661610161094152
صلاح@@ 1
z 0.07129894101140172
باش 1
درس@@ 1
مْ 1
آن@@ 1
اير@@ 1
ستور 1
قطت 1
وليك 1
جيك 1
زور 1
CO@@ 0.42293158176575363
كاك@@ 1
غط 1
1853 0.7462204321383136
ie 0.04515536916724888
ئل 1
اتنا 1
ذرات 1
فتا@@ 1
كيا 1
− 0.3976600148180925
1200 1
المحد@@ 1
تانا 1
تيب 1
عنو@@ 1
فرو 1
كيلي@@ 1
ناطيسي 1
Car@@ 0.08178450895145956
استعداد 1
الله@@ 1
المعاد@@ 1
غو@@ 1
3.5 1
الحك@@ 1
سبقت 1
كلة 1
نوس 1
بنظ@@ 1
باربرا 1
فادة 1
برن@@ 1
جنون 1
خطر@@ 1
ربان 1
65@@ 1
اريو 1
خاطر 1
مب 1
os 0.030399716871359322
Martin 0.15565872422428037
التركي@@ 1
ملكي 1
16.@@ 1
أعل@@ 1
1847 0.7590623024594544
باو 1
مستوط@@ 1
وفات 1
1835 0.8247721863954526
حوص@@ 1
فط@@ 1
مقاتل 1
واد@@ 1
10000 1
CD@@ 0.6930102273599555
التقد@@ 1
المتعل@@ 1
طول@@ 1
وراث@@ 1
1839 0.8405456114212526
بحت 1
ودر@@ 1
1852 0.7126561582682971
am 0.01810209913522423
الأو@@ 1
السياس@@ 1
1837 0.8094015630900298
ley 0.07414119600263157
جواب 1
دْ@@ 1
الان 1
امتد@@ 1
ساق@@ 1
مصح@@ 1
مِّ@@ 1
Scott 0.2972652321876772
المعيش@@ 1
تسوي@@ 1
حزم 1
منق@@ 1
عدا@@ 1
1845 0.7592458784644365
ائر@@ 1
ينَ 1
1832 0.842317512201903
1855 0.6634903794754928
th@@ 0.05160067005693994
الَ 1
لول@@ 1
ؤلاء 1
كاون@@ 1
لاسي@@ 1
ليف@@ 1
ا- 1
ot@@ 0.0585573595849372
ترن 1
فرانز 1
105 0.8607888051690065
Le@@ 0.0752112275380394
راش@@ 1
لوج 1
ad@@ 0.043096552888339114
di@@ 0.05266781630727225
اضر 1
اطق 1
متض@@ 1
مدد 1
قرب@@ 1
بلس 1
Lee 0.22715625841575898
17.@@ 1
55@@ 1
ئر 1
دب 1
8.@@ 0.8897186452566268
is@@ 0.05059518310827793
آ 1
1820 0.6150364940663565
codice 0.7179170089514811
ايير 1
البوس@@ 1
موال@@ 1
1844 0.7957808095281858
am@@ 0.0493283222740469
راست@@ 1
زنج@@ 1
فيض 1
سانت@@ 1
187@@ 1
46@@ 1
طالبان 1
نوات 1
J 0.21958052335232014
جيع 1
ونيسيا 1
1834 0.8313153637848415
Mark 0.21314514495782527
جرم 1
سمو@@ 1
محلات 1
مطالب 1
1846 0.7222677206985755
آل@@ 1
المباد@@ 1
مرح@@ 1
ST@@ 0.48936368336261965
ميلة 1
G. 0.3753670822030519
le 0.0038047869123757384
baseball 0.43075899726416245
اطب 1
حم 1
استخدامات 1
اشا 1
سود 1
مدرس 1
آش@@ 1
براسكا 1
خا 1
كز@@ 1
Tom 0.2838174965224629
التقي@@ 1
1843 0.8098800097350596
184@@ 1
Joe 0.3092327529764781
id@@ 0.0662101296565569
اتِ 1
فاض@@ 1
مسو@@ 1
معدن 1
1815 0.7044715712324091
Bill 0.28208225736616194
الشعر@@ 1
الغ 1
رجح 1
فاروق 1
ماو 1
تناس@@ 1
قاض@@ 1
مصالح@@ 1
نجا 1
اغو 1
النسب@@ 1
تِ 1
فلاح 1
8,@@ 0.6486735174817302
اتفاق@@ 1
عزم 1
it@@ 0.050122147725512184
السَّ@@ 1
بِ 1
عماد 1
by 0.0042598846649714184
23.@@ 1
اضط@@ 1
ic 0.06088439618847623
فرح 1
قار 1
ونيو 1
وون 1
ana 0.06419414751587679
der 0.002218376171779468
فز@@ 1
مصر@@ 1
حتم@@ 1
ظلم 1
يرلندي 1
نقش 1
AD@@ 0.4931090883198968
at@@ 0.04519303262570211
أمة 1
الِ@@ 1
1.2 1
اولا@@ 1
دودة 1
Jack 0.25827010006227274
le@@ 0.05177774243175487
جند 1
دلال 1
De@@ 0.09235527209567981
اسلا@@ 1
10,000 0.7995965246046212
1838 0.7600513910917467
عموماً 1
Alexander 0.20728311602998287
La 0.011045098123490655
Sh@@ 0.07091625608952605
es@@ 0.03652813285825598
بلج@@ 1
علومات 1
1842 0.7494878486559594
Daniel 0.23694166279467846
الرضا 1
بدو 1
ولس 1
6- 1
اومة 1
جوس 1
معترف 1
نسل@@ 1
1812 0.67321676637003
اوس@@ 1
فْ@@ 1
لوح 1
منظم 1
جاسم 1
زد 1
170 1
آز@@ 1
صوف@@ 1
1836 0.7445915700051993
انص@@ 1
بطن 1
درج@@ 1
ثوم 1
صاب@@ 1
Con@@ 0.06902010281028025
مدا@@ 1
مشغ@@ 1
2500 1
صغ@@ 1
صِ@@ 1
مِ 1
اللبن@@ 1
انتظ@@ 1
فوربس 1
راو 1
رقاء 1
محفو@@ 1
يوك@@ 1
قيقات 1
واتف 1
Q 0.3298168254286239
oc@@ 0.07536722030509659
ثمر 1
داب 1
48@@ 1
فلي 1
1821 0.7816503319349658
اعون 1
5,000 0.6833000678913276
بخار 1
تُ 1
ستاد 1
مداف@@ 1
‘ 0.191021397908604
9,@@ 0.5343727594188369
اعتقاد 1
فس 1
واجب 1
1841 0.7388935449892347
Williams 0.24678022942869787
ترجم@@ 1
علما 1
كْ@@ 1
وعات 1
البرل@@ 1
لازم 1
بريدج 1
وبيا 1
47@@ 1
AC@@ 0.420411032972578
رسومات 1
ومو 1
AL@@ 0.49822790503557945
آرا@@ 1
بج 1
ضائع 1
شاف@@ 1
ئا 1
بشار 1
ملا 1
75@@ 1
بتت 1
تمي 1
حرا@@ 1
حضرات 1
شوق@@ 1
لؤ@@ 1
لِ 1
موجب 1
نامج 1
وجود@@ 1
Co@@ 0.08253991410191251
التنفي@@ 1
سماع 1
ماجد 1
اثناء 1
جود 1
البو@@ 1
هوم 1
186@@ 1
مولا 1
1833 0.7783916916068601
اصمة 1
جنو@@ 1
يص 1
220 0.99768114493049
Jim 0.375738817588547
https 1
نعت 1
تصاد@@ 1
25.@@ 1
جج 1
عوض 1
وائف 1
19.@@ 1
اعتراض 1
الانف@@ 1
دوز 1
لتا 1
IS@@ 0.34365378808249264
اونت 1
قْ@@ 1
لسون 1
20.@@ 0.9748125602627397
الألي@@ 1
خضر 1
ذربي@@ 1
فنا 1
خراسان 1
صدق 1
1831 0.7582074528988005
ur@@ 0.052148108187925014
24.@@ 1
Na@@ 0.354502100856377
ice 0.10171332196956576
ستخدام 1
وسف 1
تراك 1
خمة 1
شستر 1
اعت 1
عقاب 1
SP@@ 0.42325507085921277
تعال 1
سفر@@ 1
Bob 0.32888165020428783
ea 0.14219336796610935
ton 0.059963259581845625
الممث@@ 1
توكول 1
محرم 1
بلاء 1
وارئ 1
José 0.15182261691074522
da 0.027872588410602382
Johnson 0.23746556608668756
سانس 1
ناك 1
اسكت@@ 1
التصني@@ 1
ووا@@ 1
18.@@ 0.9425453280597775
غالب 1
لحن 1
لور 1
128 1
وافر 1
التسوي@@ 1
انتقام 1
بالتر@@ 1
بندر 1
قيمت 1
لام@@ 1
49@@ 0.8743628580648848
تاز@@ 1
خواص 1
240 1
Mike 0.30345170495443335
التون@@ 1
اللّ@@ 1
بسم@@ 1
فائز 1
وغير@@ 1
بلوماس@@ 1
زُ@@ 1
وزو 1
وفاق 1
32@@ 1
تائج 1
100,000 1
140@@ 1
22.@@ 1
et@@ 0.0482654911420298
انَ 1
مخلو@@ 1
Jones 0.21846311170203217
ella 0.10316465753951796
اقب@@ 1
تحريك 1
خو 1
لاج 1
لسن 1
نسن 1
68@@ 1
SS 0.2899256691528231
ul@@ 0.05201371582127553
idae 0.1523377643283035
one 0.012396444934750893
اشة 1
21.@@ 1
6000 1
Arthur 0.26541627029454334
ina 0.05904646350223811
آباء 1
برش@@ 1
تزوج@@ 1
26.@@ 1
27.@@ 1
re@@ 0.013699929837701292
الترج@@ 1
102 0.8547237403877846
حسام 1
Canadian 0.1515443098233708
University 0.029289410144438567
ob@@ 0.0777608790478097
سوز@@ 1
عباد 1
نَّ 1
ap@@ 0.051259203096899415
it 0.007985722392755796
حضرت 1
الرَّ@@ 1
حاول@@ 1
عه@@ 1
عَلَ@@ 1
وسعت 1
ومجمو@@ 1
Chris 0.30230614511546466
ti@@ 0.04887879097935362
اللَّ@@ 1
الوسط@@ 1
تاجها 1
حروف 1
Walter 0.25264685569392875
co@@ 0.04827295015865908
بمب@@ 1
جْ@@ 1
جدت 1
اغوا 1
اليب 1
بوتر 1
ter 0.03785713878999372
الساب@@ 1
ترال 1
صاب 1
نوح 1
وجام@@ 1
1810 0.7362040261788806
انسان 1
كتوريا 1
خال 1
دريا 1
لاية 1
57@@ 1
اجا 1
مترا@@ 1
1826 0.7998648223415353
AT@@ 0.3706107982761212
1814 0.6487313639211901
IC@@ 0.39172997847424296
ارون 1
شم@@ 1
ata 0.09237048577012874
شم 1
عدت 1
67@@ 1
7- 1
ph@@ 0.07568986820427709
ابرا@@ 1
اقوت 1
2.0 0.9693849020715447
Cor@@ 0.08151771265692662
نسخ@@ 1
نقاد 1
135 1
ensis 0.23236322475341314
تفاوت 1
ثور 1
جزء@@ 1
شروع 1
مونرو 1
… 0.1280193559606552
جاد@@ 1
دماغ 1
زبر@@ 1
عصاب 1
وانين 1
1825 0.7450510342661355
ءت 1
توظ@@ 1
ثعل@@ 1
رانيا 1
مقدار@@ 1
نقوش 1
53@@ 1
DNA 0.4480598899488269
u@@ 0.04848348519680153
انوي 1
محص@@ 1
مساف@@ 1
750 0.8399855410609486
ملون 1
موز 1
ندن 1
الفلسط@@ 1
نِ 1
اطفال 1
كلٍ 1
ثالث@@ 1
ضيع 1
مقبول 1
0.5 1
Taylor 0.28930958183035016
اشتق@@ 1
حذف 1
مثلث 1
محق@@ 1
4.5 1
آغا 1
ستير 1
ضح@@ 1
فيلا@@ 1
قدرت 1
هوة 1
104 0.8542706802653784
خوذ 1
ملازم 1
وزع 1
Di@@ 0.0757459101978653
حرب@@ 1
رويجي 1
الممت@@ 1
حاتم 1
صنعت 1
معتدل 1
320 1
World 0.033825647382551706
مانيا 1
متوقع 1
هْ@@ 1
ونو 1
الموسيق@@ 1
103 0.8856240541907301
109 0.9106605623995828
آمر 1
الحقي@@ 1
الكوي@@ 1
فخ@@ 1
مارش 1
مبل 1
28.@@ 1
الخالق 1
زمان@@ 1
زنط@@ 1
غارت 1
56@@ 1
Th@@ 0.07079417683345693
ايم 1
بند 1
ونَ 1
توسط 1
1829 0.7352451688026781
per 0.06232599622661724
تناز@@ 1
نجرز 1
تَ 1
شب 1
ورث@@ 1
Andrew 0.2930320838292661
وإدار@@ 1
basketball 0.24482120841017427
ادئ 1
الشخص@@ 1
اندر 1
وقائع 1
1828 0.7172202441614324
ica 0.08310509532915697
ويلة 1
1824 0.7457946871869351
99@@ 1
AC 0.24613401834626758
مراج@@ 1
پ@@ 1
115 0.8894687408094508
امو 1
بقا 1
مختص@@ 1
جيم@@ 1
ــــ@@ 1
اكي@@ 1
مفصل 1
صنع@@ 1
لوا@@ 1
مواز@@ 1
44@@ 1
66@@ 1
الرزاق 1
توقعات 1
جواد 1
غرض 1
قوف 1
ناض@@ 1
190 1
White 0.13640391517065134
Br@@ 0.0675833441128585
COVID 0.31515079518619
Col@@ 0.07751320994321396
SO@@ 0.5096878583808799
لوبي@@ 1
1600 0.868391613515788
المقاط@@ 1
دانا 1
غاف@@ 1
معمر 1
107 0.9240102610999915
امور 1
جرو@@ 1
راما 1
مينيا 1
قرآن 1
Wilson 0.266235366771952
ناص@@ 1
الحار@@ 1
الحافظ 1
سمر 1
ضلع 1
قور@@ 1
مشي 1
st@@ 0.031504326151795166
with 0.0033294269365686364
خلو@@ 1
210 1
أراض@@ 1
جبر@@ 1
عوف 1
111 0.916699723469659
1819 0.809972059495267
الهات@@ 1
امان 1
روان@@ 1
1822 0.7763686879053899
ارتق@@ 1
خون 1
اطلاع 1
سلر 1
مقار@@ 1
تاو 1
خبارات 1
وئ@@ 1
تارا 1
حا@@ 1
طفال 1
Cr@@ 0.12245043112776445
Francis 0.2656529973907271
سلف 1
لقات 1
ed@@ 0.062346939149230694
ne 0.02495466978930983
فرانس 1
معاص@@ 1
1.3 1
58@@ 1
ازم 1
تعال@@ 1
شْ@@ 1
نسل 1
Se@@ 0.061011517388672276
جوش 1
مصط@@ 1
106 0.8484375618267442
108 0.8165276743501043
7.5 1
Steve 0.2806249790910363
قح@@ 1
des 0.002569175640705056
البريطان@@ 1
حماد 1
CA@@ 0.29387994290505
TV 0.07767665734681033
ag@@ 0.03905814382563091
أنفس@@ 1
أوه@@ 1
ملحق 1
1.6 1
ro@@ 0.050350643227997156
حقائق 1
سرو@@ 1
محمد@@ 1
معتمد 1
→ 0.8054848657890649
آذ@@ 1
الصلا@@ 1
ولر 1
ک@@ 1
w 0.0910895247553125
كريك 1
Samuel 0.315041646028449
ers 0.018438403899179077
op@@ 0.05077713563983289
اهدة 1
بام 1
شفى 1
1808 0.7280409656021121
230 1
بلغراد 1
غاس@@ 1
سيمة 1
غسل 1
قند@@ 1
1806 0.6299334055890405
~ 0.7019370513489087
تاس 1
AR@@ 0.28691820804126805
WWE 0.5883223329007893
بتا@@ 1
محاذ@@ 1
مطلوب 1
Allen 0.3666384025782913
رِ 1
لائي 1
ad 0.06397680534204318
ma 0.07354018405173221
افراد 0.9084673013437371
حنا 1
رضية 1
قوان@@ 1
ينوي 1
Cl@@ 0.17857211344601445
MS 0.3235876016136138
الملك@@ 1
علا 1
نظر@@ 1
1827 0.7441429312575003
افري@@ 1
section 0.11880263187601083
حسب@@ 1
As@@ 0.08673377730295745
المطلب 1
9- 1
AN@@ 0.33329163797338185
th 0.0478639807351352
جامع@@ 1
تنام 1
نث@@ 1
Davis 0.264841544949538
Mor@@ 0.0788066547809758
تقر@@ 1
راؤ@@ 1
نعم@@ 1
ظفر 1
1.1 1
ase 0.1261149560037654
صالات 1
1804 0.7970156309748592
na 0.045276288783386257
ائمة 1
مرجع 1
117@@ 1
30.@@ 1
5.5 1
SA 0.2828132786944448
التجار@@ 1
تمعات 1
مختار 1
مط 1
والا 1
1789 0.7193583433954184
29.@@ 1
8- 1
Albert 0.19369693801065174
ta 0.048552861139273464
إلغ@@ 1
الفطر 1
لونا 1
يناء 1
sen 0.09286732299107446
ائيل 1
بولا 1
ذِ@@ 1
عادات 1
لادن 1
78@@ 1
q@@ 0.17144158782744806
131 1
1818 0.6599048141859604
الخوار@@ 1
وسطي 1
III 0.0853485246270972
مورو 1
175 1
بخار@@ 1
0.1 1
St@@ 0.04755452948896601
ستون@@ 1
شطرنج 1
1.4 1
AS 0.2861375957932199
الحرام 1
مؤرخ@@ 1
MA 0.34587151154708606
li@@ 0.043932486351521007
استاد 1
بالا 1
مثلة 1
IM@@ 0.4968585339493714
المبي@@ 1
جمال@@ 1
نقط@@ 1
Al 0.07833909484328297
ick 0.11550670836307118
تصاص 1
رونا 1
سجيل 1
الرأسم@@ 1
كيبي@@ 1
185@@ 1
Lewis 0.2708901829110693
ec@@ 0.0489312598699709
سفار@@ 1
330 1
AP@@ 0.3112548487411986
SE@@ 0.3110014407039702
اجستير 1
جاه 1
ممتاز 1
وئي 1
واع 1
1823 0.7181258423087671
Don 0.1746837707122738
سرز 1
سنا@@ 1
طلح 1
قاف@@ 1
270 1
א@@ 1
الكوا@@ 1
ثن@@ 1
ذاب 1
فاضل 1
1813 0.6008198302847892
59@@ 1
Bar@@ 0.05485021863045953
ist 0.006857440729156097
ناقص 1
‍ 1
ch 0.04750520455444944
امتحان 1
حائل 1
ماف@@ 1
نوال 1
54@@ 1
الجب@@ 1
حلال 1
لمب@@ 1
121 0.9850854349171294
88@@ 1
Par@@ 0.057134226215700114
بحر@@ 1
شمول@@ 1
OS 0.31610677091393846
ter@@ 0.04359871891196593
اتم 1
جرح 1
زحل 1
ماع 1
مناظ@@ 1
International 0.052332545615103844
افرا@@ 1
القاط@@ 1
مخز@@ 1
يور 1
1300 1
ER@@ 0.39382818305111955
Harry 0.25619520662027506
Miller 0.30602379039123345
Stephen 0.2760677620989512
اترا 1
المشتر@@ 1
برس@@ 1
116@@ 1
1790 0.6656562448433299
us@@ 0.043713529401767835
ר@@ 1
مقص@@ 1
1809 0.6922811722753095
US@@ 0.2444668343394155
hockey 0.2538875401856747
im@@ 0.03488427969731651
القان@@ 1
برن 1
جلوس 1
مرو 1
منشور 1
٬ 1
چ@@ 1
1,000 0.4943111082186375
43@@ 0.9944419204339624
اجن@@ 1
تدو@@ 1
عقل 1
نيوز@@ 1
محفوظ 1
معلوم@@ 1
المجمو@@ 1
ثنا 1
دماج 1
طغرل 1
مطلق 1
PS 0.2610658129996534
Tr@@ 0.04567901358354161
ملر 1
1811 0.7060533496918259
ent 0.019038627875143505
tr@@ 0.028843219431104312
ya 0.027306150375372193
2000@@ 1
Ray 0.34898021589882244
lo@@ 0.04647991448663695
العاش@@ 1
نست 1
Anderson 0.32614075044230395
اندل@@ 1
عزت 1
ir@@ 0.04512247699321342
سنو 1
مونا 1
1798 0.7333203276973997
2,000 0.6182736518612038
اغة 1
الامام 1
خلدون 1
ناشر 1
وارن 1
0,@@ 0.1518881577000282
1700 0.8473850546243341
1816 0.6238726868120802
550 1
74@@ 1
El@@ 0.06208829738025453
ارد@@ 1
اوق@@ 1
تزل 1
قسمت 1
مبر 1
132 1
Ex@@ 0.07569274828332644
King 0.07276604609809971
po@@ 0.04653167014495227
بلال 1
رابط@@ 1
قاس@@ 1
7000 1
RA@@ 0.2870413049821931
il@@ 0.04451032146001501
أرجن@@ 1
المنز@@ 1
منتق@@ 1
وجل 1
ity 0.03600202577153301
to@@ 0.055103918653265076
لاو 1
مغرب 1
ممن@@ 1
69@@ 1
حج 1
عاصم 1
112 0.7852170263965239
114@@ 1
1807 0.6914504883577594
280 1
Brian 0.29902807362789663
أيض@@ 1
عارف 1
نما 1
1.8 1
from 0.0038796061559238175
الارتبا@@ 1
منطق 1
123 0.9241019882891092
Fred 0.47335735667433415
عس@@ 1
كريك@@ 1
† 0.07967677683310251
yl@@ 0.11554152768927346
ھ@@ 1
145 1
حش@@ 1
وروبا 1
95@@ 1
1801 0.631726063992346
المكر@@ 1
جوان@@ 1
ميش@@ 1
ە@@ 1
زِ@@ 1
نوك 1
Howard 0.29849295823010474
Ad@@ 0.09039090323082243
التحض@@ 1
عرفات 1
ماذج 1
,000 0.9316713580342019
8000 1
ATP 0.5038453531767956
اسما@@ 1
انحراف 1
113 0.8747689650028647
63@@ 1
98@@ 1
IP 0.42109255013463887
RNA 0.7421694201602077
Young 0.16785838891092408
الق 1
ايو 1
حصص 1
117 0.8983806358755902
1776 0.9184601803032809
1792 0.6554655771392031
20,000 0.903933444182933
em@@ 0.03703624311540481
الإند@@ 1
صاف 1
كسيكو 1
260 1
Er@@ 0.05459092190161911
اضاف@@ 1
تدار 1
شكال 1
1400 1
Alan 0.33463939660938113
ES@@ 0.2848266771008494
ديز@@ 1
رزق 1
AT 0.3930185250247011
الأستر@@ 1
دج@@ 1
قومي 1
Hall 0.0889003014149947
α 0.2802343270970047
اليف 1
CS@@ 0.3836979532754029
se@@ 0.04322890869928829
جماع@@ 1
سسات 1
نافع 1
36.@@ 1
ai 0.06012282938681705
مشاع@@ 1
NO@@ 0.39012420646285173
bi@@ 0.04730164101801818
j 0.12859892113830382
musician 0.4494376978731381
ضرور@@ 1
مرز@@ 1
33.@@ 1
sh@@ 0.035779450894136644
מ@@ 1
اثنا 1
اجد 1
عائد 1
مسلح 1
نوف 1
اتر 1
بمفر@@ 1
مصباح 1
مولة 1
نود 1
واً 1
1,0@@ 0.9824960514920132
1799 0.7606155878103634
1817 0.6315886653607892
2.2 1
CT@@ 0.8232981541899984
ell 0.06506198769823907
قلم 1
AP 0.34720686187428396
Frederick 0.3377527296043847
جمل 1
Clark 0.31988038412349157
day 0.039796014443967645
onlyinclude 0.306997417638815
البند@@ 1
العاص 1
فورا 1
شاد 1
ــ 1
فوت 1
نزول 1
Gordon 0.32081453247092556
Retrieved 1
تماش@@ 1
116 0.9069838654473533
ator 0.056728627443027604
av@@ 0.042817257205377074
ler 0.036963543001469895
q 0.18007359218027175
ارم 1
راجا 1
التسع@@ 1
باطن 1
تحصيل 1
PA 0.30587339585732604
actress 0.32008742699301984
انشاء 1
21@@ 1
77@@ 1
Am@@ 0.062342568578331405
تهرت 1
روبن@@ 1
وابط 1
text 0.18610674924446133
المرج@@ 1
خدرات 1
صوم@@ 1
10,@@ 0.46457888179442375
64@@ 1
ing@@ 0.05393893041766325
الإغري@@ 1
تسا 1
خدا@@ 1
مسافر 1
واخر 1
2030 1
A. 0.09677190419549499
York 0.02769255890897302
فاتح 1
مشرف 1
ممالك 1
124 0.8752908867874568
34.@@ 1
PC 0.24001225047275454
الكلاسي@@ 1
الجمع@@ 1
Jackson 0.18749548856877843
ah 0.06908423891165386
ner 0.04797370095416501
طاق 1
قصى 1
مانا 1
مجلس@@ 1
موف 1
British 0.038616616683894156
CP@@ 0.45928773032922454
Mon@@ 0.05371845206017593
be 0.006978065362419468
امون 1
1795 0.6548061642163221
1803 0.5617328730565214
الناخ@@ 1
Li@@ 0.08773774494292005
og@@ 0.07329126494308172
und 0.001751461415896719
وبط@@ 1
114 0.8289780114149953
جنا 1
مخد@@ 1
مدار@@ 1
1783 0.8487390909488111
SS@@ 0.38958527663886156
do@@ 0.0852087430223348
رحم@@ 1
سوفت 1
Mo@@ 0.07300932509311454
سحر 1
الصنا@@ 1
تفاض@@ 1
155 0.9798625749921517
180@@ 1
K. 0.27993973366887964
de@@ 0.027929545550855
ly 0.03104044341193403
Kevin 0.33360235787477766
ans 0.02224649318839734
ay 0.059536165539530554
اعضاء 1
انواع 1
1.7 1
te 0.015380866490353471
اسو 1
برق 1
ضمان@@ 1
ماط 1
You 0.1039524357164681
un@@ 0.013186595884418017
حايا 1
144 1
فاعل 1
متصل 1
AM@@ 0.30556340269373
UN@@ 0.24233835089196043
فنان@@ 1
مخطوطات 1
وظ 1
1805 0.6291016036361365
79@@ 1
Carlos 0.14035954529818248
se 0.0037607993516936087
زبان 1
مدح 1
گ@@ 1
650 0.9106394753975997
Gr@@ 0.05901036300526925
الكيمي@@ 1
متناس@@ 1
ممد@@ 1
1793 0.5224818486117045
340 1
Be@@ 0.04499345783481146
J. 0.09887861284936424
Man@@ 0.05912492638576022
Bur@@ 0.0870613990681626
CE@@ 0.26716895227157966
di 0.06197804641154672
ستاذ 1
13,@@ 0.49577698257447744
Patrick 0.2358881673543855
end 0.023786652162559478
مدت 1
Com@@ 0.06414872798267819
Jean 0.05106857919633089
Lab 1
National 0.024849793266177755
ni@@ 0.06422796271996449
زند@@ 1
عبرت 1
か@@ 1
AB@@ 0.39459449603690455
Green 0.13766715437282065
OH 1
Ryan 0.33014383105561507
Thompson 0.36975714439086577
احتجاج 1
تقاض@@ 1
مترجم 1
En@@ 0.052471937727634525
az@@ 0.06305957140185434
class 0.07871402657077592
دأ 1
صدار@@ 1
MI@@ 0.39358650738855266
Walker 0.3417602715821315
معام@@ 1
122 0.8545827637740872
2.4 1
الحيو@@ 1
براء 1
رقي 1
مارا 1
وديوم 1
إيط@@ 1
اسوب 1
مشيخة 1
مناظر 1
6.5 1
Rec@@ 0.12556444889302076
جوار 1
فرات 1
نجات 1
يكرو@@ 1
76@@ 1
Bruce 0.333683712434195
English 0.05087710991824163
IN@@ 0.23421904642252292
ارنة 1
1780 0.7372815611687604
35.@@ 1
Eric 0.2846513341137329
129 0.9329950206764902
MP@@ 0.3194429639535172
ology 0.06610511830371604
زائد 1
85@@ 1
A7 1
CI@@ 0.33207314315899966
In 0.0034492339110831004
Pr@@ 0.061797605838235174
RE@@ 0.282671275683438
Wi@@ 0.2339305233710539
مِنَ 1
133 1
Cal@@ 0.08979237190027799
اطلاق 1
11,@@ 0.5104170189939587
خطيط 1
ذوق 1
كيرو@@ 1
.org 1
Str@@ 0.061542820736290506
ey 0.0668057016226643
ov@@ 0.07063779020676059
ב@@ 1
الفقار 1
152 0.991746955879941
Alfred 0.22554862756423125
si@@ 0.0608978858060228
تقار@@ 1
لفزي@@ 1
معاملات 1
منفرد 1
يعيش@@ 1
1788 0.7955611424578106
For@@ 0.06817929631669734
Moore 0.2923415243828337
Robinson 0.3661292290041547
are 0.0055317326299625155
علت 1
ووس@@ 1
136 1
Black 0.08956124530158519
ME@@ 0.3493349793943198
فيرج@@ 1
138 1
Dan 0.3202614062222268
IV 0.10909662476358695
ard 0.04756326086468098
1775 0.7701895070539244
1791 0.6641596415712825
Donald 0.3127027572085185
Roy 0.3358661134576473
دارا 1
نعمان 1
120@@ 1
225 1
IC 0.3263197879523923
IS 0.36778567678292184
html 1
od@@ 0.06039240062288184
ائس 1
معاصر 1
نقص@@ 1
ولث 1
يولوج@@ 1
Ap@@ 0.1442462684550832
Juan 0.08849068998194366
بولا@@ 1
حيث@@ 1
خا@@ 1
127 0.8227375549765108
اورا@@ 1
86@@ 1
ens 0.02883639187427754
les 0.003414774883170236
اطر 1
مبا 1
منظر 1
1100 1
1802 0.5648910677943223
CA 0.26972262681432096
SA@@ 0.26681807437314853
انعقاد 1
ايس 1
حاضر 1
صحن 1
عطا 1
12,@@ 0.4807368985451602
ak@@ 0.04138068259023329
حجاج 1
مانع 1
134 1
ol 0.07241050764483012
s.@@ 0.9121580042692266
اعداد 1
منسوب 1
H2O 1
Love 0.1166614909571545
جنت 1
مفع@@ 1
Hill 0.10647413379948527
الأحي@@ 1
تعاقب 1
لسان@@ 1
لمذ 1
مودا 1
124@@ 1
1784 0.7554049335945243
الثمان@@ 1
خوار@@ 1
دز@@ 1
LE@@ 0.3972580201608152
Qu@@ 0.056964532760771666
no@@ 0.058232131064616555
بوم 1
رسن 1
لال@@ 1
-- 0.6682721853460395
1.0 1
300@@ 1
Mar 0.4747607679414486
صورت 1
نن 1
201 1
Zone 0.3552945783403485
ep@@ 0.0645951756997283
اعمال 1
الإسب@@ 1
113@@ 1
118 0.8150142392910832
119 0.9117589124391765
Gary 0.3760954595232429
برز@@ 1
حصاء 1
عجب 1
معاش@@ 1
3,000 0.6170563833183101
Ac@@ 0.08165273731679262
Harris 0.3109894517291472
بساطة 1
تساب 1
تصادم 1
مني@@ 1
1796 0.6301764303557396
ri@@ 0.044834073562058006
التاريخ@@ 1
التدف@@ 1
اندر@@ 1
دلت 1
ميخ@@ 1
وذكسية 1
38.@@ 1
39.@@ 1
O2 1
ak 0.055683304008649896
ism 0.06595923049562155
اعلا@@ 1
شمع@@ 1
عابد 1
89@@ 1
Billy 0.33100092865385145
Ro@@ 0.06389290151054945
ti 0.07882121210362622
نيوزي@@ 1
130@@ 1
Wright 0.34323816958350145
الرحمان 1
CH@@ 0.28033067531402783
ה@@ 1
جاح 1
126 0.8420855217818368
1797 0.6244270762893065
20000 1
Dave 0.3281976534603021
اخذ 1
بدر@@ 1
صفت 1
ی 1
154 1
Campbell 0.33809929433482766
Russell 0.3101841081525958
style 0.05400918067489914
ל@@ 1
ابرات 1
تلامذ@@ 1
مستع@@ 1
380 0.9837566380648882
De 0.0354894587771863
بود 1
سرب@@ 1
1794 0.5527760551333484
Tony 0.20879033855840248
ty 0.04628837666586079
حالي@@ 1
سوان@@ 1
وتن 1
14,@@ 0.4705385475128501
Per@@ 0.04856327977572617
ah@@ 0.060299462401447526
e.@@ 0.867901156923249
فرز@@ 1
قتص@@ 1
2.3 1
235 1
CD 0.10984924724469355
Louis 0.06084153700744341
صفو@@ 1
معاء 1
184 1
Ross 0.2918344147797898
mon@@ 0.03632370100071091
السيوم 1
لاش 1
0.000 0.6290308396086629
Bo@@ 0.056970764277851825
ir 0.05038405463423352
ابيب 1
قسط@@ 1
تلا 1
رضوان 1
ومت 1
146 1
CC@@ 0.3053596611084389
Ag@@ 0.10498907309970017
باج@@ 1
دلائل 1
سالم@@ 1
Lawrence 0.2913895449160575
Sch@@ 0.025588877078709667
Sp@@ 0.06825697394389293
eb@@ 0.04880044350503248
حاش@@ 1
32.@@ 1
802.@@ 1
Charlie 0.3270927400171863
Gar@@ 0.09151350787600272
خاصا 1
دراست@@ 1
فلوري@@ 1
لاش@@ 1
مائل 1
Har@@ 0.06287960150212286
ada 0.01876533962364015
den 0.0033515140558832385
mo@@ 0.051834749735314295
vi@@ 0.050988864647478545
CC 0.32124277361635517
ous 0.03062265582520092
فرعون 1
موص@@ 1
Alex 0.2674352593491174
Ian 0.3785400527916314
School 0.02553460384335805
So@@ 0.09038551598093644
atus 0.15440057439737292
اضية 1
تاث@@ 1
ناز 1
نش 1
142 1
143 1
1787 0.7135605107062302
8.5 1
96@@ 1
97@@ 1
Ne@@ 0.05314871818874536
field 0.0377015935851923
تبر 1
غوث@@ 1
ناطي@@ 1
000@@ 0.9566410435706058
Sam 0.23028553219252285
model 0.1010395534130764
درالي 1
ذبح 1
001 1
AI@@ 0.2784295659762194
Benjamin 0.2847959772132621
IP@@ 0.44297093275544613
Luis 0.1399734264178042
سوار 1
غروب 1
معقول 1
137 0.9418282464625984
202 1
211 1
Baker 0.3559608861194273
Herbert 0.3080348974058193
اعتد@@ 1
مرشد 1
0.2 1
165 0.8700951998686631
Her@@ 0.05817153158575844
Mac@@ 0.08482529985451116
go@@ 0.12206768171989651
ns 0.1145337697126924
sa 0.014078896494848222
هُمْ 1
وامي 1
161 1
185 1
87@@ 1
oph@@ 0.11679191115220701
par@@ 0.02925572212461043
ساؤ@@ 1
لانا 1
193 1
37.@@ 1
اولاد 1
115@@ 1
206 1
Dis@@ 0.09115924408070732
انتهاك@@ 1
طاس 1
مختصر 1
153 1
205 0.9805126471991734
30,000 0.990453005647893
850 1
Douglas 0.22217057590713962
Gu@@ 0.057665589883585944
HD 0.33409798060842977
157 1
1763 0.8606461854737651
179@@ 1
Craig 0.4864192704571207
Ed 0.4343224456527143
Stewart 0.30637994578368005
ale 0.027197292254620302
kh@@ 0.06762118235583263
بلح@@ 1
فرار 1
ونتو 1
148 1
1785 0.7329522821366942
Des@@ 0.08749478125364966
ary 0.034100279419302666
public 0.03115961727090098
● 1
168 1
Group 0.06380653024527727
MP 0.24051624771194685
ite 0.038566864156537546
رور@@ 1
ضوابط 1
وفيا 1
ووك@@ 1
50,000 0.7930544709676541
Bell 0.24647936591277034
Te@@ 0.06718172464500968
car@@ 0.035790994382412414
ש@@ 1
مَنْ 1
16,@@ 0.47955450657392795
Andy 0.33120217858539286
Carl 0.14054833761744018
Graham 0.3280301427811694
My@@ 0.15320310089686479
Tim 0.3022562660135324
ts 0.019188238096021368
عَلَيْ@@ 1
كترو@@ 1
171 1
ex@@ 0.0298694859537759
oma 0.1318892029517088
β 0.45887196878601955
اصطلاح 1
شوال 1
151 1
Wil@@ 0.10480692227701541
شراب 1
عثمان@@ 1
نسق 1
1.9 1
17,@@ 0.46083893873769
Le 0.007728500279978148
Me@@ 0.05480138076086674
format 0.15035650402437048
ra 0.02889457633807672
May 0.02457655068064411
do 0.023270615155773184
un 0.002138574983170607
رحم 1
مخلوق 1
ويسك@@ 1
176 1
Marshall 0.30974970024907555
Ph@@ 0.09156643286167628
TS 0.42950789975124287
qu@@ 0.03678400057970302
اجزاء 1
اران 1
اعتراضات 1
اوا@@ 1
بسن 1
زور@@ 1
شاف 1
1786 0.7584440012933189
3500 1
49.@@ 1
Kelly 0.2770580516434573
Po@@ 0.06953297357880779
ps 0.07218272502239477
الباح@@ 1
تحف@@ 1
تحفظ 1
فِ 1
139 1
CR@@ 0.47336542700205153
Evans 0.3499244669183581
Pro@@ 0.05535317566066706
im 0.003849269778726883
ka 0.04192604404144289
زوال 1
سارا 1
غزوات 1
0.3 1
181 1
land 0.021796609024499775
منز 1
منو@@ 1
وكيو 1
84@@ 1
eg@@ 0.03903301306736941
خاتون 1
Ma@@ 0.056817545144921794
Simon 0.15943972306063783
all 0.010957095670762184
tic 0.07376106751793549
tion 0.03497857785977
فرغ@@ 1
لعل 1
Anthony 0.2168811815398581
il 0.006006247958254674
شعاع@@ 1
147 0.9764853357496348
1781 0.7781287496356233
He@@ 0.059332761955864614
Zealand 0.0989344406559749
ov 0.0774819428064091
تأس@@ 1
تورا@@ 1
لارا 1
موصل 1
166 1
256 0.9954023964305182
AM 0.20902807952331837
PO@@ 0.39908370897490636
Roger 0.19592657014627712
align 0.19132274433704344
ance 0.03371878568325232
الرز@@ 1
1770 0.6973450316802182
Un@@ 0.049652030227707845
ano 0.03969378488919393
ik@@ 0.0411935275823159
انِ 1
ثلا@@ 1
قِ 1
معجز@@ 1
1774 0.7545604601309429
عِ 1
167 1
195 1
Christopher 0.2689883883141046
age 0.01367484259509616
ig@@ 0.036936760168693544
جوء 1
شرائط 1
نَا 1
156 0.9683282784995565
2.6 1
48.@@ 1
94@@ 1
النا 1
غص@@ 1
لَا 1
نهار 1
192 1
be@@ 0.02226687141613584
over@@ 0.053021977017779366
per@@ 0.03126772371022629
tri@@ 0.06271593048661157
بلدي@@ 1
199 1
P. 0.13185161682898577
غزل 1
0.4 1
158 1
2.1 1
3.6 1
9000 1
Jason 0.311516196743212
Mas@@ 0.0731634420692755
af@@ 0.04098274269871192
ida 0.05023995775013872
إ 1
معص@@ 1
173 1
Larry 0.4281905424647291
von 0.00262363812141973
ثقل 1
زد@@ 1
Adams 0.26983163968981083
able 0.01752891788011668
أعلا@@ 1
النو@@ 1
زستان 1
سرور 1
212 1
310 1
ISO 0.5348688687981452
Ken 0.4094943001749617
Lo@@ 0.06625017106412733
Manuel 0.1513381693245018
My 0.1146460662273264
RS 0.3059707385787378
no 0.00888128433739947
st 0.05374693860828399
اخراج 1
برى 1
خائر 1
فرانسي@@ 1
169 1
208 1
3.7 1
film 0.013911225451827634
ختر 1
مند 1
١@@ 1
163 1
Adam 0.1740546381405884
DA 0.29643381784882883
ve 0.010697874493133717
آم@@ 1
141 0.8497962951591502
2.7 1
20,@@ 0.5568588819189153
4,000 0.7188720891020411
Or@@ 0.04716901778943136
داز 1
داغ@@ 1
مؤثر 1
ま@@ 1
1,4@@ 1
15,@@ 0.42337343466909866
204 1
737 1
Hugh 0.38055804565634066
Jimmy 0.2627411579539142
RO@@ 0.31501099774681124
TO@@ 0.4319440908409016
berg 0.04343154065095984
boxer 0.915903673741338
du 0.00266178244227506
ke 0.04014953890561574
159 1
سنجر 1
217 1
Norman 0.28755655854656714
mar@@ 0.0418619782526964
اتذ@@ 1
سبا 1
نن@@ 1
い@@ 1
186 1
365 1
420 1
Ca@@ 0.20606754452823917
MS@@ 0.34074074436024243
Morgan 0.2483092464202242
TE@@ 0.3078768741511877
ini 0.05793484928483464
ذربيجان 1
لوع 1
3.2 1
Pol@@ 0.06433999195987541
Ron 0.4304625760659093
دييات 1
ظالم 1
290 1
DE@@ 0.27462310401131695
Jonathan 0.3097714094744082
Ly@@ 0.13546624545069405
Mitchell 0.3271386062212291
RI@@ 0.27287845347304607
اكرة 1
جلا 1
فنزوي@@ 1
DS 0.2567056757566033
Jeff 0.3106050193096661
Mal@@ 0.048708296971360435
ay@@ 0.052467544500347706
اليه@@ 1
عفان 1
لباس 1
215 1
DO@@ 0.3468998716829184
Dennis 0.4082946189533889
ER 0.500760349281701
br@@ 0.027325157836028468
ارير 1
13.5 1
Bi@@ 0.05824216614666529
Nelson 0.25369186928199305
ics 0.06165401674238058
te@@ 0.03703049227015928
um@@ 0.027130914406552777
بلن 1
سندر 1
2.8 1
Antonio 0.100587081749905
Christian 0.06045529309668519
del 0.0031157886681619884
ene 0.042235223444696074
era 0.016798445514669764
נ@@ 1
الإنجلي@@ 1
غلام 1
1750 0.676160977847284
Keith 0.39551595607379475
M. 0.08539267135122511
type 0.054465455158771
yl 0.17923898838412688
نوج@@ 1
209 1
301 1
ence 0.043140887121053594
اعلان 1
تاش 1
غريت 1
معظ@@ 1
194 1
216 1
West 0.030648209273724178
co 0.029584269510936758
value 0.1388720337779134
ā@@ 0.08278548238511521
الشعب@@ 1
لائق 1
مثبت 1
172 1
Murray 0.26626072937411543
background 0.16787521405916914
الإضافة 1
177 1
ABC 0.22290310161858864
الإقلي@@ 1
مقدس 1
196 1
ISBN 1
LA 0.21583394311653303
Ward 0.3132597385243971
جمعات 1
دوغ@@ 1
نعر@@ 1
し@@ 1
179 1
Terry 0.3678551034610909
pr@@ 0.03286644249423449
الَّ@@ 1
رستم 1
ضرو@@ 1
غرى 1
191 1
200,000 1
203 0.9837836205387566
207 1
Ben 0.15501908032602899
ge 0.04168224660872331
اوج@@ 1
000,000 1
Ab@@ 0.023941001111412598
Matt 0.2646685889404009
TNA 1
آفاق 1
اصد 1
جراث@@ 1
سرائ@@ 1
た@@ 1
15000 1
1777 0.6660362398453812
1779 0.7286390759010167
ati@@ 0.04736642696403863
± 0.8228853570714261
اوند 1
بازار 1
تخطي@@ 1
جانات 1
طالبات 1
さ@@ 1
Dick 0.3698762701769226
Miguel 0.17404807666104705
تمبر 1
محصول 1
164 1
480 0.9962625757258591
El 0.007691027002072923
Morris 0.29173708462374287
ani 0.054518852955638984
bo@@ 0.03037203424928307
مبا@@ 1
3.3 1
4.6 1
500@@ 1
8,000 0.8164788361160846
Fe@@ 0.1125834317935387
London 0.03128457516177343
آغ@@ 1
بش 1
روفة 1
ساج@@ 1
فاط@@ 1
ماؤ@@ 1
مختص 1
178 1
au 0.004398914071200698
ical 0.03338772951628312
ins 0.028030636544895644
sp@@ 0.031146503834351125
ut@@ 0.04180411550043574
23,@@ 0.5890276292594931
Hamilton 0.17478276605897713
ys 0.0717574850502547
عاشور 1
كش 1
NE@@ 0.303943847154581
RA 0.27020450585930833
ara 0.04618013859664161
ca 0.052892619541947024
انقلا@@ 1
زنا 1
1772 0.671497327510707
182 0.9588182785074347
183 1
One 0.036132199076981696
PS@@ 0.25885473104763446
SD@@ 0.4766695695109123
ce 0.013003921360900745
ole 0.07746403969705802
فاسو 1
متنوع 1
149 0.9370923287134341
19,@@ 0.5126283960285282
221 1
370 0.980704324161873
DC 0.13652606852228735
Stanley 0.24238440178837906
Turner 0.30737770756979355
ci@@ 0.04013211439505671
ابان 1
مبيا 1
1778 0.6284953595977788
222 0.9875320945284966
228 1
232 1
787 1
AD 0.18246537895646928
Mil@@ 0.08493646019326469
Ver@@ 0.019024918284961636
ach@@ 0.03443558846874957
امتحانات 1
بوض@@ 1
طنين 1
عشق 1
0.8 1
12.5 1
275 1
Ber@@ 0.038711415034820465
Day 0.0851019078010485
Sal@@ 0.05651254805985201
South 0.02119059625423111
con@@ 0.021439800512798268
الاختلا@@ 1
الميز@@ 1
مضمون 1
موج 1
0.6 1
162 0.9103009297797428
3.1 1
4.2 1
47.@@ 1
Edwards 0.37524405336278105
FA 0.13959556431362322
Hol@@ 0.06935470137473079
Mer@@ 0.06045448231754507
begin 0.19182128414462218
الَّذِ@@ 1
٢@@ 1
CN@@ 0.3212622892535598
Hor@@ 0.08290380141158094
IT@@ 0.2843282604428167
contributor 0.8475117803180426
int 0.2654558718963606
ita 0.052234041845349494
timestamp 1
اواخر 1
خوا 1
علی 1
174 1
AR 0.28230569370613934
ne@@ 0.037445077750289955
new 0.012435924461491384
soccer 0.3094300896426482
username 1
اديمية 1
ثروبولوج@@ 1
田@@ 0.2674907332166598
0.7 1
CM@@ 0.4566110585657845
ber@@ 0.03506047579277503
ell@@ 0.04675866320044204
tis 0.11342624277982774
سولو 1
طرز 1
منبر 1
1782 0.5922811046624358
18,@@ 0.4515513696727403
243 1
Bor@@ 0.0610641138905703
IEEE 1
IF@@ 0.3737582240227158
Warren 0.2987209321333817
als 0.003850636132088218
درد 1
طروا@@ 1
كُمْ 1
منتشر 1
189 1
198 1
IBM 0.3966577757115776
STS 1
تلر 1
188 1
281 1
400@@ 1
PE@@ 0.360532190066395
Tommy 0.3737006811686784
comment 0.468168643393954
der@@ 0.03358272522947668
ino 0.04022157931748467
ver@@ 0.011351796416274125
ה 1
اندا@@ 1
218 1
238 1
BM@@ 0.3730394200977747
HTML 1
ane 0.0511113328543206
آند@@ 1
اصغر 1
بسا@@ 1
مطالبات 1
1,5@@ 0.9865239429107776
110@@ 1
Bobby 0.344201686443843
Me 0.1037242253346947
Ralph 0.34121533919355035
ys@@ 0.08254233191912319
آس@@ 1
بخت@@ 1
حالت 1
مدراس 1
187 1
AA 0.22620678111586107
Ger@@ 0.05731528856176048
US 0.02164145350977465
tu@@ 0.05241233025300192
متعلق 1
محب 1
AB 0.30401447939711657
AE@@ 0.3145784763933377
Francisco 0.061822534618067186
Inter@@ 0.05467311563186239
Lin@@ 0.09076215647405396
Man 0.0691752517047283
ho@@ 0.047533235620916124
اقت 1
الفتا@@ 1
المرتب@@ 1
سراج 1
فوراً 1
منج@@ 1
وارا 1
213 1
3.8 1
PC@@ 0.2862876233819884
Red 0.06305957177916836
lin@@ 0.05689304084490148
أمت@@ 1
اسن 1
برئ@@ 1
تعل 1
قلات 1
كشن 1
Cook 0.30544439605124324
Raymond 0.2659743765796593
Reg@@ 0.060286881205258415
sw@@ 0.07322825478306838
ura 0.06830603809012487
جيك@@ 1
متبادل 1
Dr@@ 0.06629436581824985
SN 0.9025154188082163
United 0.012113503930118402
ated 0.012783515237630058
ies 0.040140965064323124
sc@@ 0.05815755559521794
wood 0.057584070837423826
الشرق@@ 1
شرت 1
224 1
Matthew 0.26671317318940113
Mel@@ 0.0837704006561581
NH@@ 0.636667147997173
a.@@ 0.4262492366569837
ha 0.022330972554316927
ou@@ 0.0331011163487794
was 0.0008527860393069714
العث@@ 1
تصوف 1
توان@@ 1
رحال 1
مطاب@@ 1
معارف 1
1769 0.767674819227843
H2@@ 1
Journal 0.12757385377861705
Park 0.032293436780372754
man@@ 0.038840452163900634
اوغ@@ 1
داغستان 1
رشد 1
لنج 1
Mr 0.3348646006049009
ab 0.02174338664940522
tin 0.05963197831721276
الن 1
جانا 1
ماتا 1
214 0.9886482058266194
46.@@ 1
6,000 0.6921805588818437
All 0.0316624614478118
As 0.01833575931695484
Jordan 0.2140141997050437
223 1
Johnny 0.22146798722590239
Max 0.10867808872231174
ot 0.047639013252559974
رافع 1
وزار@@ 1
وعاز@@ 1
-1 1
Roberts 0.3177074898452141
pi@@ 0.039018196839623806
المؤر@@ 1
غانستان 1
فلورنس 1
مرتض@@ 1
500,000 0.8053293143624998
AN 0.3585033244755336
EC@@ 0.42136969629775967
Go@@ 0.06470055140962176
Les 0.01127501394439322
Mat@@ 0.06457008145680444
NA 0.252555780372996
pe 0.05284495890685638
توضي@@ 1
ساط 1
صفا 1
,@@ 0.7115235541532704
242 1
27,@@ 0.5889685546390263
40,000 0.9719610401750041
A.@@ 0.1409115823470789
Bennett 0.42010155305951896
Cl 1
Oliver 0.2478856682131306
ac 0.06493205824924582
if 0.030906864484588802
pe@@ 0.04126267527169335
رنز 1
مضر 1
وسر 1
Bernard 0.17250311048932182
Carter 0.23602800674250224
EC 0.32094830306517436
Gal@@ 0.07106883279271539
Ge@@ 0.046340017912898164
ker 0.0443955344408817
حرام 1
داغ 1
197 1
SC 0.10955189526586126
Si@@ 0.10168331649618581
دفتر 1
سنن 1
صابر 1
IL 0.38898494619532653
time 0.007718936221119304
لايات 1
مزار 1
262 1
com@@ 0.03555316851895381
ge@@ 0.022135855706481335
ko 0.06632968919890435
é 0.00919941727287332
الفح@@ 1
مست 1
1765 0.7366466368210948
255 1
Eddie 0.33329354458543914
NS@@ 0.2700491061939483
io 0.04578343348820099
حس 1
や@@ 1
118@@ 0.9601253443750066
21,@@ 0.5530303906012143
26,@@ 0.5615123043951936
460 1
Maria 0.0636353516303518
SI@@ 0.360364922007634
Sc@@ 0.0848227720688871
التار@@ 1
باقر 1
بدار 1
رجوع 1
سرخ@@ 1
كرك@@ 1
Leonard 0.35367106932080977
Murphy 0.33447060068871953
امز 1
حنبل 1
ڨ@@ 1
ひ@@ 1
100.000 0.7316466285356277
22,@@ 0.5286454480152813
3D 0.22680300657779498
cr@@ 0.030424855971030326
sson 0.20865714060755125
tic@@ 0.0862049528884169
اصول 1
تلفزي@@ 1
ٱ@@ 1
0.9 1
241 1
Cooper 0.2591929282207389
Fre@@ 0.05733889154448682
Kar@@ 0.04493617445503224
Parker 0.2586698636966955
Sol@@ 0.05908519978673249
Wallace 0.3511437791210355
Wood 0.22381029279129536
aths 1
em 0.035458906431248036
ons 0.01901700687926538
اثات 1
زاب 1
ھا 1
5.6 1
B1 1
CO 0.26092298795982144
Ernest 0.29708309600366956
Franklin 0.20962233478233533
Price 0.3807320891211381
ant 0.011162591170087144
ן 1
تصورات 1
سماعيل 1
واضيع 1
き 1
--@@ 1
245 1
251 1
284 1
325 1
GA 0.4032781792571496
Is@@ 0.059316106412372026
aria 0.06930036129833743
ire 0.05442304670450957
re 0.02056768027036001
su@@ 0.03735880375538968
£ 0.09851722640122906
ד@@ 1
تشدد 1
سست 1
سی@@ 0.9626343195976008
مصعب 1
1768 0.6563223314646306
239 1
24,@@ 0.5186254275422492
99.@@ 0.9198923981995951
Dean 0.22085522335629046
MC 0.22203795532605825
ations 0.012103858987065112
colspan 0.17735841271268504
ent@@ 0.01919948378081643
est 0.0018928826488858806
اهز 1
فرائ@@ 1
لوبة 1
226 1
5.3 1
Gray 0.2914980947237693
IG@@ 0.4040571838759676
ant@@ 0.041921717938168575
that 0.0017771693223214942
احت 1
عرفان 1
هاد 1
् 0.002882020907550475
し 1
1,6@@ 0.9530590914625617
264 1
440 0.9144461158789976
Cameron 0.3708529614655888
Conn@@ 0.19021204518367738
II@@ 0.33917565398506494
ang@@ 0.029696851024580608
بتا 1
خندق 1
مقرر 1
1,8@@ 0.97144566989687
Barry 0.2577498311468113
HA 0.6375439624455423
Jerry 0.2883769526622874
MO@@ 0.25588758436628367
Ros@@ 0.06156266300065043
San@@ 0.06936203014931205
Vi@@ 0.07165313192095144
alis 0.13528797250103156
cher 0.06192025784827302
gen@@ 0.03647438279820988
ger 0.05459859515695117
ome 0.09778622091020354
singer 0.08563626230293123
ע@@ 1
آتش@@ 1
اخبار 1
فاض 1
ناظم 1
257 1
4.3 1
Mary 0.05742056967020252
Philip 0.16891443241490559
net 0.08927002429752798
width 0.2669374572721216
دبا@@ 1
موش 1
1760 0.6097685957687726
252 1
AF 0.253995748525568
Con 0.0914119294867859
Life 0.06172733694078403
We@@ 0.06250382187206635
ales 0.020254663604676065
ens@@ 0.026498884298866134
fo@@ 0.06994064897819194
اخلا@@ 1
الأفري@@ 1
زخ@@ 1
ڤ 1
430 0.95151108796448
Far@@ 0.08520999759465328
Fox 0.12585970244895323
Grant 0.2017693993899729
Jay 0.2647115058512069
McDonald 0.5151282785418607
aceae 0.10836167490691884
he@@ 0.036181935359550534
me 0.024689268893194474
خلفاء 1
فربول 1
ماسات@@ 1
متاز 1
0.0@@ 1
150@@ 1
1773 0.6249684992265748
410 0.9742493992260142
Award 0.040132136421294935
Little 0.09906265330524792
Neil 0.29571924328257526
Ser@@ 0.05412761095850434
System 0.0876738600738707
Wayne 0.2456241078466263
osa 0.06363992080793854
wiki 1
جاسوس 1
شنطن 1
مماث@@ 1
منس 1
227 1
285 1
313 1
375 0.929197023666435
CN 0.6234524475344216
CS 0.23313190174131965
Co 0.11953706075252374
Kenneth 0.42129730122266124
eb 0.2712993870805827
ma@@ 0.058512243930980215
تخصي@@ 1
جيريا 1
12.7 1
4.7 1
A1 0.47996499129352965
Can@@ 0.06498703790158297
Foster 0.3839262057711659
Micro@@ 0.2964463656249153
Nick 0.20491724835772396
SI 0.3859018859888047
SN@@ 0.3118603974218636
Val@@ 0.05241471245860027
center 0.05114857722153434
gr@@ 0.026473300580595573
iro 0.11628272790827937
php 1
تعظ@@ 1
1596 1
247 1
249 1
3.4 1
30,@@ 0.7044279363693067
Connor 0.4505665872977261
FI@@ 0.17668050440015
House 0.028750440919930956
It 0.004817655127252056
Time 0.09790401061197157
dis@@ 0.013421369012291271
ht@@ 0.8149217527820428
ium 0.10907737425136158
lis 0.10787832364408736
شجاع 1
1740 0.645291374305175
Aaron 0.36577069214365393
News 0.1000037875286108
ess 0.03644127188484969
lin 0.08012321786443048
شتو@@ 1
معاذ 1
منبع 1
نفوس 1
286 1
390 1
AG@@ 0.2702876881833454
Collins 0.2680629603899186
Im@@ 0.06367245411219952
ks 0.029101312202961676
بالاد@@ 1
بذات 1
خوان@@ 1
نسر 1
CF@@ 0.34508051435690695
DP 0.23987661931540274
Gil@@ 0.12862192375189097
ion 0.05850351658607186
parentid 1
الخام@@ 1
رام@@ 1
شاد@@ 1
لاست 1
محض 1
مصنف 1
25,@@ 0.4855191141583816
3.0 0.7021053094336793
Gene 0.44929228164034296
Music 0.038461311191898925
Pedro 0.10276973251918796
TE 0.4648452858897652
ala 0.055763757700155646
mann 0.03880525432577716
me@@ 0.04126634200595035
ق.@@ 1
كارول@@ 1
معلوم 1
می@@ 0.8959725973603662
يّاً 1
← 1
253 1
272 1
3.9 1
300,000 1
AG 0.11754578460429096
BO@@ 0.4087658805831951
Fr@@ 0.045148769426301874
González 0.24499494115363205
Google 0.19785041976916293
Rogers 0.2954739985444737
TA 0.18552915293708905
Watson 0.31985988657417125
ek@@ 0.03690224767368273
اساس 1
تغلق 1
شنو 1
محقق 1
1756 0.7081101897959726
4500 1
640 1
BA 0.1771779714392994
Harold 0.28361902405206607
Long 0.089759258277844
On 0.007872521892964184
VA 0.2910199017965927
up 0.008998239943880593
إسط@@ 1
1,7@@ 0.9553215637169279
254 1
Blue 0.08909444458282871
Edwin 0.4540591149510912
FM 0.10116798718664495
Min@@ 0.05527397278778295
SH 0.5126079731905884
Stone 0.14141737819566927
TP 0.4300219761775905
cor@@ 0.0317177998001156
ja 0.04414737953186082
si 0.029091772199637864
اسد 1
244 1
263 1
4.8 1
BR@@ 0.5119027248132328
Brooks 0.43138052454929454
Doug 0.5578354310775298
Du@@ 0.0642097349944117
and@@ 0.032081530616463114
yr@@ 0.09492060638562254
ת 1
ادب 1
اكل 1
الجغرا@@ 1
راز@@ 1
229 1
Fernando 0.1476835179760042
H. 0.08393864704865524
LO@@ 0.31016584124267504
Press 0.12571630260727618
Windows 0.11463927013580724
ington 0.08012985652098273
اللَّهِ 1
اوز@@ 1
تايل@@ 1
تلمذ 1
سغ@@ 1
な@@ 1
269 1
DS@@ 0.3638040311338812
Danny 0.32096666354231135
Lloyd 0.2483839704949595
anus 0.1539900111205848
ō 0.08814102768456027
البالغ@@ 1
فی 1
233 1
248 1
At@@ 0.06651014630542497
Curtis 0.4268520346331944
Gilbert 0.2504879922261849
N1 1
Pierre 0.05286102198689256
Sullivan 0.31718158384242723
TV@@ 0.2226366858965287
Vincent 0.1841940196008715
ok@@ 0.05467307012050438
の@@ 1
265 0.9821648596878642
273 1
Austin 0.1921464049652063
H5@@ 1
Pe@@ 0.05530485423506251
Todd 0.3829298393158984
ei 0.060065953818933655
immer 0.06669610966908078
inae 0.21701691076403748
án 0.04243523952868381
تائ@@ 1
جبل@@ 1
سعو@@ 1
٠@@ 1
あ@@ 1
1,9@@ 0.9555639547191694
DR@@ 0.4681061834868422
García 0.17931872447094305
Harrison 0.2332689780685424
Pre@@ 0.05986696902870992
Sar@@ 0.06488344633422838
Shar@@ 0.15391376023854594
hi@@ 0.04402019435884578
lu@@ 0.0469340058771033
جمل@@ 1
غالب@@ 1
مفل@@ 1
1689 0.812927097929719
1755 0.6767121805256376
302 1
333 1
5.1 0.9785318901449671
5.2 1
5.4 1
Bel@@ 0.040268202466399845
Do@@ 0.07113624142521115
Kr@@ 0.04519871979935404
Phillips 0.32843953335433623
ors 0.019311877668620293
́ 0.02629792703870831
ادر@@ 1
اقسام 1
بستر 1
ذخائر 1
274 1
305 0.8234643504703341
9.5 1
AF@@ 0.2170798663404542
Hy@@ 0.10479401566809436
NET 1
Su@@ 0.04726428181230713
Washington 0.036863098814880355
pl@@ 0.024712987964069934
ry 0.06211839101791228
ارس@@ 1
تحال 1
درن 1
زبور@@ 1
قرآ@@ 1
مقرا@@ 1
1759 0.7011615736881179
Tak@@ 0.0960707101604786
om 0.06940025508458487
ula 0.125218713483254
نوان 1
1758 0.6327878600614566
1771 0.6356262080924404
306 1
Ko@@ 0.05821223072511557
March 0.016037838186385874
To@@ 0.0671795660165833
eh@@ 0.0348094602032012
tes 0.020794772054373283
tia 0.12678839330366423
ա@@ 1
باعث 1
ضمام 1
وی@@ 1
15,000 0.7120496491183189
237 1
258 1
45.@@ 1
EP 0.09121519257572214
Earl 0.1431430938553898
Harvey 0.31538076306470947
RT@@ 0.23398633421975587
اثان 1
براير 1
1766 0.6650974597497656
4.4 1
950 0.9463542877762994
CO2 0.6622589482834325
Duncan 0.4010505010152512
Fin@@ 0.10193535840156931
Gre@@ 0.07136239769532955
Prince 0.07736021105822968
ari@@ 0.0479040835779394
illa 0.05903829750888566
ru@@ 0.03375696382863956
بدن 1
جائز 1
رقب@@ 1
وائز 1
واسط@@ 1
1660 0.5880411928801451
1764 0.6207250543106876
234 0.9981356791148974
7,000 0.7083092988759705
Art 0.032586299710249976
Bryan 0.37173748150322905
Die 0.0034721791789730496
Karl 0.0617796923111772
Research 0.06639663707079299
ain 0.04486259631405086
gi@@ 0.043398068699810326
kin 0.08631273199483928
mi@@ 0.05582173221190321
osis 0.12918325353404655
י 1
مومن 1
1762 0.6199318133167974
2.9 1
283 1
31@@ 1
470 0.9322331069672837
540 1
6.4 1
747 0.9892625354317023
College 0.021052497975766315
DM 0.3399958919625836
Ho@@ 0.05184591162153404
How@@ 0.28006542638498977
Ke@@ 0.06621260458173792
Pi@@ 0.047298519367945185
Richardson 0.4197696600726809
Ronald 0.34338194004771955
Shaw 0.3328052991843026
Star 0.06156503921005462
row 0.08195769965415617
ser@@ 0.03636069953321819
tor@@ 0.034823171472936704
خالص@@ 1
1,3@@ 0.8498899935526999
323 1
6.2 1
Hunter 0.2419746112676331
ML@@ 0.372773735706615
Mur@@ 0.07220159153610355
Perry 0.2605241055250445
Pl@@ 0.04966191018871319
Stuart 0.25923230228185856
hy@@ 0.10090559954933467
za 0.04147034065706766
دی@@ 1
متن@@ 1
1757 0.6914814954389129
246 1
288 1
44.@@ 1
CT 0.3619542809931441
City 0.016004450074747944
Cu@@ 0.07934412283152308
Es@@ 0.04686712955283626
Pat 0.3671077806505638
Power 0.11934698916425845
Sa@@ 0.06981484458398687
ack 0.08771506080406662
so@@ 0.035413116251849314
اندرا 1
بخش 1
قدة 1
مستند 1
1517 1
2100 1
240@@ 1
5.7 1
777 1
Allan 0.36610002814931775
Association 0.03170309214184984
DVD 0.09457930647694496
FC 0.034443220383786693
Ford 0.1045071725029822
ID 0.3129093146397211
LS 0.5229384443699255
eri 0.09736398630756964
ide 0.07288223547849455
ili@@ 0.06466521608414348
out 0.008572133846683174
ָ@@ 1
بلخ 1
خراب 1
طريات 1
مقصود 1
∈ 1
276 1
Ellis 0.38607042049518697
die 0.0009939380044028346
ou 0.008154430326796771
ּ@@ 1
اطراف 1
حفاظ@@ 1
سوع 1
مجرم 1
محراب 1
1492 1
303 0.8267780144636817
CP 0.2810811602666259
Clarke 0.31229944876081905
Hal@@ 0.07184083267764774
Jacob 0.17647230645075815
Marcus 0.27700463047321067
Rodríguez 0.23862014644473323
Society 0.04146098824739124
ari 0.058208823963786724
du@@ 0.04176458706285588
sch@@ 0.014997024570655182
ō@@ 0.11872228592515997
تراجم 1
خلا 1
سمرقند 1
قاز@@ 1
متفق 1
1350 1
60,000 1
660 1
AL 0.2590031503791574
Rose 0.126930824317329
SH@@ 0.3992077832715141
Service 0.06072694767215926
ian 0.04061556297860707
ure 0.03165960712564084
ئم 1
صحت 1
فورس 1
مقدمات 1
4.1 1
Center 0.0397653165073076
Martínez 0.2813327091917567
Mus@@ 0.05464255722573248
chi@@ 0.07183414222947898
cu@@ 0.03535619695450651
iz@@ 0.03300258161964452
li 0.060833239688600875
pro@@ 0.0387041603930323
امراض 1
بانو 1
قرأت 1
كاليف 1
مبالغ@@ 1
يونين 1
′ 0.4542654178667392
‹ 1
160@@ 1
297 1
720 1
Arnold 0.2152392188086789
Davies 0.3631438909151801
Dec@@ 0.07341264829205514
Justin 0.3062599253630547
Mason 0.30856023416514206
RC 0.16240965831964652
Steven 0.24973573940790306
ist@@ 0.04011029502458954
بمث@@ 1
داست@@ 1
نفاذ 1
25,000 0.6363594042859654
293 1
296 1
312 1
Bailey 0.40167190930293484
Bl@@ 0.045864671153611904
Black@@ 0.15648126689492814
Ul@@ 0.08306232272610248
end@@ 0.025840982712917876
its 0.003981422116032057
ki 0.04766286190692247
system 0.019295520677718628
á@@ 0.03447444738637083
ارِ 1
ازدوا@@ 1
رسك 1
فرمان 1
231 0.8895142442445977
28,@@ 0.49170435854003935
321 1
Cy@@ 0.14202183406862112
Hughes 0.279833002662517
IE@@ 0.4349985072657858
Live 0.08744758972513768
North 0.018527279971029285
T. 0.11154408142247581
Ter@@ 0.0633597688657061
Victor 0.12404148507906629
of@@ 0.05552784220645135
ro 0.07649239556028967
tro@@ 0.06824076153591534
عبدالرحمن 1
ميع 1
282 1
36,@@ 0.6094238504152703
Az@@ 0.08173560713978688
Club 0.02482535853342528
N2 1
RT 0.2237322596654304
Science 0.06376998311620852
Spencer 0.30300613567903945
Tom@@ 0.10688891092727863
ber 0.04097308452914748
cap@@ 0.04686336240151782
cer@@ 0.05330777101922677
ev@@ 0.03093985500003777
ock 0.07884223864965964
oney 0.3998422299854004
الحاد@@ 1
طغ@@ 1
مولانا 1
1714 0.7803938710293212
2,0@@ 0.9152758932107455
267 1
277 1
324 1
520 0.9495826779773252
610 1
7.1 1
B.@@ 0.23115965903874694
Butler 0.27639414631601406
List 0.05211029292164533
Media 0.07969313535653305
Robertson 0.38805541522527753
back 0.017072388003209975
ox@@ 0.13043936098871536
خوزستان 1
راغب 1
فضائل 1
ملاز@@ 1
268 1
501 0.7462727607043627
630 1
BBC 0.07446864463807115
IR@@ 0.31075065755187287
Silva 0.27024890449110023
Tri@@ 0.046118861129398295
ang 0.035442362557931484
ath@@ 0.05924869107402254
ابتة 1
تناظر 1
پس 1
1250 0.8775792289751364
1720 0.6103494667999907
Rick 0.2569579852800166
Rob 0.323230868256842
ach 0.03433199433758479
volleyball 0.43151435604646127
well 0.009930113109182329
التغي@@ 1
بقول 1
عرس 1
نسو 1
﴾ 1
5.8 1
BS 0.2684708175781028
Ba@@ 0.08016296847953196
Bow@@ 0.13952785099011905
Ig@@ 0.20294856927961738
Rob@@ 0.12152069365726917
ama 0.04624657294480312
ech@@ 0.05880241514227832
ni 0.031723126845852774
sin@@ 0.05145469118541763
thi@@ 0.13218466909308765
الفرنس@@ 1
خوس@@ 1
رائم 1
رخين 1
ری@@ 0.7964427068332677
﴿ 1
10.5 1
219 0.8754353681342137
278 1
322 1
5.9 1
560 1
680 1
GP@@ 0.3765824439591806
Hernández 0.4879031113240262
Porter 0.38762658628509705
VI@@ 0.21016680946065608
au@@ 0.02483260565299588
bl@@ 0.02521904467510926
data 0.05403574665436705
sy@@ 0.11468757984933609
ur 0.03321221325175703
خوارزم 1
ديي@@ 1
نگ@@ 1
1742 0.7074725605669636
236 1
33,@@ 0.5904322168795259
@ 0.5420502303791619
AI 0.3090115130215098
EM@@ 0.32260082317286626
IB@@ 0.31987010984186415
Is 0.1107317274824749
López 0.19456472356316656
Reid 0.42875540534544915
Trans@@ 0.07408565415888499
mer@@ 0.02508475710196306
ona 0.043412643071909465
العبو@@ 1
مورس 1
1718 0.7977377894976045
1754 0.6583767012923767
287 1
8.1 1
Cox 0.3886025789058354
Met@@ 0.10529799606347504
Patterson 0.6318422536984087
br 0.035726890197883256
cy@@ 0.12578410576380736
ver 0.05382797329732048
الكهرب@@ 1
ستم 1
شعل@@ 1
كويك@@ 1
1550 0.6883058765176723
1610 0.7390470427482239
1648 0.5614944330310461
1650 0.5742605559083827
1745 0.6398154999300806
4.0 0.7529159462456227
6.1 1
BC 0.08154831322767403
Eugene 0.3418181641838748
Fl@@ 0.042917236377754846
Hir@@ 0.13021568260410524
Knight 0.19632518300311255
Mills 0.29712788077514873
Ni@@ 0.060143726618700814
Op@@ 0.07564120665780573
SL@@ 0.34529869268406477
SM@@ 0.3111876344696638
Super 0.062256205742767176
cc 0.45294936411691644
ii 0.19971543904653233
› 1
1767 0.5799398928093955
1920@@ 1
266 1
525 1
570 1
Bro@@ 0.08130712298181678
DI 0.3190108411818665
GE 0.39485193899583804
Health 0.08500502425725451
Men@@ 0.070403670953113
Microsoft 0.14404127382853582
PR@@ 0.2767085956912796
Pérez 0.22830015188415984
Tel@@ 0.10612853684367665
if@@ 0.042049387765285454
ito 0.05584228949140045
sel@@ 0.04267711077170585
ue 0.03106958615921593
ung 0.011063044279191199
آف 1
الر 1
انتداب 1
اوائل 1
خسرو 1
ین 1
170@@ 1
1730 0.5768590624685023
29,@@ 0.49818494036474587
338 1
7.8 1
Air 0.033405181640612194
Av@@ 0.06717890552847948
CE 0.18145451857650122
CL@@ 0.40087955107665507
Entertainment 0.09315187426234196
History 0.019572308332438136
Lane 0.1769170728882644
Mario 0.1532002449801284
Pan@@ 0.054951411881471256
WHO 0.9063339173255358
ek 0.04629689056782085
for@@ 0.019442072033075037
ting 0.019531051316907907
vin 0.15658848530997266
ם 1
اصحاب 1
تاريو 1
ثبوت 1
1688 0.7132084294040398
1741 0.7002528523055819
1761 0.6131049966104746
315 0.9742152974209662
6.3 1
7.6 1
A2 0.5649764984542102
Bu@@ 0.06261923342369638
FDA 0.6935103901788431
Gibson 0.3434605793818924
Page 0.3200514189148495
This 0.00783402622546698
USB 0.6517082127723219
Vol@@ 0.06872488777438857
ative 0.029852595326590754
ensen 0.3955185392048043
sk@@ 0.03743760315283205
this 0.004885421481687361
van 0.04648124399926422
آبادي 1
اشخاص 1
سورا@@ 1
عجائب 1
فخر@@ 1
10.000 0.36893539042967766
304 0.9407068882816975
4.9 1
Char@@ 0.04689128445689734
ES 0.3364819557639527
Elliott 0.43913102442072466
St. 0.02209547900978838
ebes 1
est@@ 0.024153604179170608
ora 0.04940172767493398
امِ 1
تلفظ 1
2O@@ 1
Bal@@ 0.03520825946816518
Company 0.03149574246214339
Gen@@ 0.04916888792247581
No 0.04216156120341836
ng 0.19425595404495977
ory 0.046584184566302284
ח@@ 1
ק@@ 1
تاكي 1
تسلط 1
لی@@ 0.9014897043579723
مداخ@@ 1
1748 0.6578626477764212
2050 1
317 1
Brien 0.385781736788756
CR 0.26371293707056104
Carroll 0.43094229092244624
LP 0.14890544387441393
NXT 0.7521510352634814
cin@@ 0.08303690080082383
ford 0.03396604428188949
fr@@ 0.03356367850736112
احم@@ 1
الوداع 1
1707 0.7037681072787854
307 0.9911223718202106
America 0.03053617404033001
Em@@ 0.05670071514032469
Henderson 0.36358684711184003
Mag@@ 0.05203301470787343
Network 0.1022245252227672
State 0.01563395819458089
ap 0.07452134005036826
cal@@ 0.04837024913337204
jo 0.07429018949740789
line 0.016010500959804674
onia 0.09662256653578814
yn@@ 0.06511793536531248
العار@@ 1
سنغاف@@ 1
غلبية 1
34,@@ 0.5758024759030432
490 1
Bas@@ 0.057704273623612225
Cap@@ 0.07689702639366265
Chapman 0.49134718529647625
Cur@@ 0.0657208015144607
GSM 1
Royal 0.02734295177272948
Van 0.07090019084248257
Vo@@ 0.08881414248046625
dr@@ 0.02599717285471653
ill@@ 0.029573069646281768
str@@ 0.02288870877901192
ə@@ 0.4035616701635199
مصنو@@ 1
نجليزي 1
يلتون 1
1640 0.5719903350926729
271 1
6.7 1
Cs 0.47349766221247097
Hay@@ 0.10840692823118962
Kent 0.15600833930368765
Night 0.09718685449101638
P.@@ 0.2584689377352173
RN@@ 0.39576620259801437
Reed 0.30484385181556145
ce@@ 0.08077740421445916
ez@@ 0.051364305353887585
ore 0.03496459734096229
محبوب 1
مطلب 1
1620 0.6225121478738532
35,@@ 0.6071994110485491
505 1
6.8 1
7.7 1
Business 0.09794541714171504
Colin 0.3113088345691836
Fisher 0.3045966992830865
GS 0.3493105863240722
Institute 0.03677218579872981
No@@ 0.061297122233336505
Sam@@ 0.056950540613728076
Sean 0.2764742256397913
TC 0.17394068596164589
athlete 0.3153066886408409
cases 0.0631963104476629
icus 0.18356175298924957
ters 0.03458954477263329
بابر 1
2200 1
261 0.9757811819109835
299 1
620 1
C.@@ 0.1422081311417092
High 0.026698555666857235
IA 0.2976417437077223
Isaac 0.23882532983938223
Jamie 0.38698159668493476
Kay 0.3305740859515865
Kennedy 0.1436723132868249
PP@@ 0.303941433242493
Show 0.07352023704229046
ass@@ 0.027242625526538812
ba 0.04415689355027519
color 0.052510708163288934
سمن@@ 1
مرتب 1
نافذ 1
6.9 1
EL@@ 0.30795620761825937
EN@@ 0.2735097655043197
FS 0.4618362986305659
Greg 0.2791330003495656
Hunt 0.28330528119821125
Reynolds 0.35647702825532057
SD 0.3276958489072748
ann@@ 0.046592792283388626
lam@@ 0.05245332088522571
اشع@@ 1
Dale 0.4237746385279418
Foundation 0.0712815641378157
Hart 0.26109556107284504
Johnston 0.4154433080525953
Neill 0.3846536405494122
Owen 0.28767222984385327
XX 0.08747745394352022
ax@@ 0.06464371772265817
bit 0.10889418383245335
ette 0.028407745473005546
return 0.04210691442964566
انفرا@@ 1
انو@@ 1
خوب@@ 1
زخم 1
فارغ 1
مواصلات 1
12,000 0.8045585891774034
139@@ 1
298 1
311 0.9495275588876448
395 1
8.2 1
AK@@ 0.3636267051880171
Brandon 0.48354312207047306
Crawford 0.4017649747853786
ME 0.3291839793956689
MT@@ 0.4089565485708928
Red@@ 0.0634350023404253
SO4 1
ates 0.017600413355700697
can@@ 0.036592286952284954
oa 0.11077165800370146
que 0.001127509585078441
ye 0.03698686468871438
تاق 1
شرم 1
نواز 1
37,@@ 0.6277695221475402
960 1
Best 0.04107032028725552
Dar@@ 0.05404086646220639
Derek 0.44298069867162104
GB 0.1896526456816028
Lucas 0.1997903317235824
Ted 0.2764732977915569
ao 0.05427785094285732
ax 0.11119141813274772
bar@@ 0.022113892892684117
ides 0.037714884614496555
à 0.0010316909916867818
ارو@@ 1
خالق 1
دست 1
ستس 1
ー@@ 1
1603 0.6935626931643433
600@@ 1
7.9 1
Cer@@ 0.07019032827828857
Coleman 0.46596287909041434
Education 0.0488653585721482
F. 0.07638517969039152
LED 0.6319738104987703
SR 0.12034074206409673
Wells 0.25261620261966616
acteri@@ 1
anti@@ 0.03485954812684071
bu@@ 0.034314787366598605
ra@@ 0.04361836940747015
السكان@@ 1
متناسب 1
ممنوع 1
نول 1
1538 1
425 1
André 0.1095149842261383
ED@@ 0.37322462849277027
Ed@@ 0.08583034350167842
IT 0.19563554185715848
July 0.013404329175948899
Kim 0.08989414716209031
Leslie 0.3231236780137937
PT@@ 0.36057268655876135
Ther@@ 0.12979221129578175
art 0.018302840801355875
low 0.02668732493874556
out@@ 0.03182833780261578
pal@@ 0.05155632838380796
right 0.028700536604678705
tive 0.03371979293140077
حالف 1
1644 0.6741744808132007
1715 0.5419345756678146
294 1
295 0.8377763978664353
39,@@ 0.7081087955846135
7.2 1
Big 0.05261318388293456
Hel@@ 0.06082565344758154
Lind@@ 0.1234604753243333
Pat@@ 0.07091471331025612
Prot@@ 0.07889849534808699
RAM 0.4385326255341148
Super@@ 0.05979587540762705
War 0.014764080933365903
inter@@ 0.015355380194465095
we 0.03222300176289894
ר 1
الاول 1
المؤمن@@ 1
خون@@ 1
دشت 1
غوث 1
259 1
337 1
512 0.9682943100658278
6.6 1
Jan 0.10644011865908082
Mah@@ 0.05960746139431583
Maurice 0.1288685016249428
UC@@ 0.3058445474715964
Win@@ 0.08031345518625148
ade 0.030082652842986533
ett 0.049093300961793034
ney 0.05899859511416735
سوتا 1
مظفر 1
نبذ@@ 1
1749 0.6741662596744797
1752 0.619065550468105
399 1
Anna 0.07448545924138489
Fraser 0.34784088490441273
IL@@ 0.3628870084717216
Oscar 0.13945896842271996
Pa@@ 0.09471448059054544
Simpson 0.26382034413129557
TT@@ 0.6211632456392957
WA 0.2975803819514334
ess@@ 0.035111466645909604
ly@@ 0.06674913462123562
ment 0.019295086894713466
occus 0.9283315158538791
استاذ 1
سمر@@ 1
مصلح@@ 1
مندر 1
يكروسوفت 1
1701 0.6475628227104305
279 1
291 1
309 0.9297878017679773
Active 0.7304285380760467
Fi@@ 0.0850532291512239
Fletcher 0.48511698977952866
Golden 0.08731210104279952
Jar@@ 0.11869178865210768
LGBT 0.2827652128107539
S.@@ 0.11126921218848869
ish@@ 0.04980788688065079
more 0.00638855680171785
va 0.02924009841888192
wan 0.1345875354258574
web 0.09332753551019088
ִ@@ 1
اسلوب 1
بحال 1
سعار 1
مسن 1
نانا 1
ونسب 1
ED 0.47267502889206026
Junc@@ 1
Por@@ 0.05226697824920012
SL 0.31568412644886035
char@@ 0.05069070346957435
ef@@ 0.048285667992017466
ish 0.03645057101271059
mer 0.03039764047109894
ta@@ 0.04333422568873883
α@@ 0.1960067411208405
دوست 1
سطنط@@ 1
صحاف@@ 1
طاعون 1
فرش 1
مقبر@@ 1
289 1
316 1
336 1
Armstrong 0.26638685476251833
Brad 0.4151900123019193
Bradley 0.32515092320483713
Freeman 0.4623652714119094
San 0.012046104967741932
ash@@ 0.05584846112298494
ation@@ 0.12206758583666082
ba@@ 0.03880956261327876
hi 0.08022260012866364
min@@ 0.026725339470814194
tica 0.0625929744630306
і@@ 0.30748321580943455
البشر@@ 1
شغف 1
ــــــــ@@ 1
قبائ@@ 1
قدس 1
مردم 1
1260 1
1743 0.6483586089172971
319 1
7.3 1
Anne 0.07537827492873266
DR 0.2058602024656984
Nicholas 0.17471310988474603
Thomson 0.3782030990140841
ali@@ 0.04466712833324942
all@@ 0.03138891783120743
ema 0.0871953897005099
ents 0.022469742429803836
eria 0.1921926262793596
ff@@ 0.03700779513766198
ile 0.01690160580393051
my@@ 0.10154343033771795
our 0.030427800826537402
ְ@@ 1
ولِ 1
159@@ 1
331 1
Gerald 0.3265826154784107
Law 0.05901905945032774
Mul@@ 0.08388252672854014
Pro 0.08638535351496449
Sub@@ 0.052040601392234105
Times 0.049514235509222064
Tor@@ 0.03575413155794588
Will 0.1491516025331586
dium 0.21810928071921504
ler@@ 0.033753182837139434
ong 0.03024991142342313
tra 0.04765772425669428
vir@@ 0.08836413707100657
void 0.5935412509396426
ym@@ 0.08386606328196321
الكويك@@ 1
تينات 1
سلاو 1
عصمت 1
ゆ@@ 1
ら 1
31.@@ 0.8688446889082871
359 1
404 0.982926024330594
7.4 1
978 1
Chuck 0.3341103236581859
Cohen 0.30437285208817505
EP@@ 0.27032552629030626
Gregory 0.2232404214035617
Os@@ 0.06211576631453217
PH 0.8756476205535325
Phil 0.1938159128282029
Torres 0.26733035054596493
aw@@ 0.033906637775971825
he 0.0017360779693832604
ier 0.038751112264389584
ji 0.06562791462281374
ola 0.05325619010812083
rom@@ 0.0590188819290228
ל 1
كيوب@@ 1
مخالف 1
مناف 1
نصر@@ 1
お@@ 1
1735 0.6163526413488338
292 1
346 1
354 1
760 1
9.3 1
An 0.022670617851387628
Carr 0.5034339380366716
Cross 0.08363032069462496
IN 0.328762498895468
SE 0.21151260270948954
UM@@ 0.4902658875830893
Willis 0.4890843482527045
edi@@ 0.06298976853131033
ex 0.052377071726452805
ome@@ 0.12388554311447457
pos@@ 0.035013621393917074
اندوز 1
دلا@@ 1
وزر 1
1630 0.5600644492192922
1746 0.6247037565377288
2400 1
Ali 0.08081243597206016
CY@@ 0.8654380833294771
LC 0.27676118616332845
LE 0.4356056827261161
Malcolm 0.33742085872230687
Project 0.09905018758134326
Randy 0.4091725835487362
Ti@@ 0.05709295032697844
Wrestling 0.13118894352840335
ating 0.014667295504637834
don 0.047528644448001374
elli 0.06326812737464947
آخذ 1
باطل 1
つ@@ 1
129@@ 1
510 0.9743008706601632
89.@@ 1
Andrews 0.3000720441816651
Gro@@ 0.06971922118540218
Guy 0.14808575801261
Lu@@ 0.05526617253058625
María 0.05963227659832579
Rafael 0.1736680577513413
Rice 0.297642422555621
UT@@ 0.4125666052556231
acid 0.14047878429922148
ato 0.03843201409822781
atum 0.19521214024823236
dia 0.08317202554416028
ena 0.04132270281539809
ese 0.02009160313371661
ip@@ 0.087570451086377
iv@@ 0.051564100304124
mu@@ 0.04519711662953384
سوخ 1
مزاج 1
い 1
1744 0.6152268519446986
1751 0.5931913113709553
353 1
355 0.9965349639708423
367 1
Cole 0.25424090792483944
FL@@ 0.41156685094812556
HC 0.1867910446263139
HP 0.27175626395639524
ISC 1
Il@@ 0.06532043728665791
Mol@@ 0.0590510535412417
Na 0.27173332784148047
PDF 1
PI 0.38407276346769537
Pearson 0.517321993957998
States 0.010038916991039315
Ste@@ 0.039073826568569586
micro@@ 0.08138001955374513
oides 0.19430795925049468
ον 0.3499799075588622
ندو@@ 1
نسبت 1
子 0.042361330698323985
1450 0.7275675661836829
530 0.8226793324269435
580 0.9424917116188392
625 0.9061084648860899
Barnes 0.3702295177546152
Ben@@ 0.045443110123512126
Burns 0.3305005567880805
IO@@ 0.5887318857152779
Leon 0.25244649203328406
Mu@@ 0.06585013544800679
PI@@ 0.5731117360100216
Powell 0.28165311840881563
S2 0.8386054996619019
alism 0.06148939224434529
chi 0.041160022631556555
folia 0.3361440798489162
ick@@ 0.042332703283550446
sub@@ 0.016597712539411204
the@@ 0.04478599606921457
uk 0.11292588787746742
ئن 1
التا 1
نائس 1
み@@ 1
1624 0.7424471651834234
332 1
345 0.9623631488070605
347 1
385 1
93.@@ 0.7572181798724256
DI@@ 0.37910648632810323
DL 0.42599492847320075
Linux 0.21310041958868445
Mad@@ 0.047294687305751607
Otto 0.08408810279489917
Sánchez 0.22576840424651903
V. 0.0802618185640325
Wal@@ 0.03986159596676221
ame 0.06351032228813026
can 0.0073169372837546525
col@@ 0.026115182182778286
her@@ 0.022825686153151243
writer 0.04733756975571402
الدست@@ 1
تمم 1
پ 1
گان 1
と@@ 1
も@@ 1
大@@ 0.019832497216711476
20.000 0.48038065637888516
Burton 0.30583069716053507
CI 0.27805979550734183
Dav@@ 0.11075604227836439
FO@@ 0.2974091550505165
OC 0.7401562551055223
Ricardo 0.22996215444510784
Rus@@ 0.07560333097216111
Sur@@ 0.05144504734218908
go 0.026053265223071696
org@@ 0.1083525405082552
up@@ 0.03172517605399741
مانس 1
ورو@@ 1
1000@@ 1
401 0.7640810887554138
98.@@ 0.6788405923920463
April 0.008748731435904359
Arch@@ 0.10880523206361649
August 0.008415754979403601
CDC 0.8887944717797465
Ferguson 0.3917702224292464
Holmes 0.2530704199722916
Inc. 0.10042018019184097
Poly@@ 0.13805282504228705
Row@@ 0.17070082916635312
Walsh 0.3753223206647098
aga 0.07774892178306769
ally 0.0144675793124605
amp@@ 0.05485412247510404
ids 0.06184500676881729
ng@@ 0.059623082698214105
tics 0.0536912632722462
tw@@ 0.042160444043924356
ve@@ 0.048461727610074556
פ@@ 1
إليزاب@@ 1
ستيو@@ 1
محدث 1
منصف 1
318 0.9416839818915677
32,@@ 0.5784645205906226
342 1
5.000 0.31629826921649645
59.@@ 0.8356843644518497
AK 0.3525890238901593
AV@@ 0.2621033129697858
Claude 0.10467174762998804
For 0.017517009720276807
H2 1
PG 0.3901623813233257
SW@@ 0.24507974994220835
Wh@@ 0.0953828773158363
ati 0.060077339909243486
ison 0.08108505661075704
mat@@ 0.03462718752834312
my 0.05187093017613261
oth@@ 0.057323158596659894
π 0.37516773547846816
آس 1
تخصصة 1
دفاتر 1
ذول 1
شقند 1
مطالع@@ 1
1430 1
362 1
366 1
670 1
Cre@@ 0.049500995406893726
Davidson 0.42597744196298154
Great 0.036624875962448636
HT@@ 0.49683641191054895
Hayes 0.35026983970757103
MacDonald 0.551187885542977
Morton 0.40211328398122564
Nathan 0.2732930521033086
Office 0.06262699812908241
PP 0.28259517457399747
RI 0.36547261021211197
Rock 0.04904107541178092
Timothy 0.41226342409776334
U.S. 0.0196829695782606
Women 0.036188600473682477
mayor 0.030449193899839546
é@@ 0.01116341614956173
ابو@@ 1
رعة 1
شوق 1
فردوس 1
فرنس@@ 1
فورنيا 1
معمول 1
نواع 1
だ 1
1,500 0.49221564839284343
1680 0.5099107468341002
2600 1
329 1
351 1
363 1
536 1
Blair 0.3553722462146167
DF 0.21258853405951691
FF 0.18951015571805496
Hansen 0.37858902054369037
Ltd 0.13711831882344383
Mann 0.0824931607526718
Marc 0.12227233340639851
NBC 0.1408809503054171
PR 0.1959522829530067
To 0.03705590943434465
Up 0.10500271799193624
Virginia 0.040599049133021765
ds 0.031545898590904405
oh@@ 0.049475522107103265
use 0.009979955367702202
you 0.036698001514199385
اطلا@@ 1
لاؤ@@ 1
1649 0.6648472483062371
1753 0.43211761560373235
2025 0.664382015156318
371 1
389 1
Cas@@ 0.036470677375522974
DSM 0.9474892270036307
Dixon 0.402594407456317
Li 0.11956408122962843
NP 0.43972254541781375
PD 0.278715227809871
Paris 0.01403789568400397
Robin 0.16365129141134177
SF@@ 0.25945064604446055
Santos 0.17730035920342216
Tyler 0.27923266688508375
aki 0.07674595724234218
ets 0.018686474595544122
pre@@ 0.01627358082592831
syndrome 0.24849254537727924
اعتدال 1
توبر 1
جرائد 1
حبش@@ 1
دولت 1
فرانس@@ 1
مخلوط 1
ورما 1
150,000 0.8924901383698199
1702 0.6422066784913425
1710 0.5156012856963971
1721 0.6127912374566039
327 1
8.3 1
C1 0.4983549296850021
C6@@ 1
COM 0.4858924429641242
Corporation 0.061506852837042415
DE 0.21022752607492562
Gi@@ 0.047754831305093365
Gl@@ 0.06386243110933107
HS 0.2905373901190793
Kyle 0.3211785791377088
Management 0.08953360924460811
Percy 0.3811549723853516
Power@@ 0.30140386601938507
air 0.025259465178601507
ali 0.060497487842986725
ela 0.04944895593073394
eng@@ 0.025992946364438326
has 0.002649906773134639
tions 0.017302044654285358
γ 0.6202529268015854
وانب 1
1521 0.7362901996993834
1580 0.5876442968266353
1616 0.7305747214124038
1713 0.5772842380483861
2,5@@ 0.9324752005664424
326 0.9881380096863621
386 0.9580257374321554
999 0.8839483737190778
Bir@@ 0.06934944536008689
Boyd 0.44209170193182273
Bre@@ 0.04033879568449557
Ir@@ 0.06486446592873173
Leo 0.15311003129543124
Milton 0.2883695685100161
NT@@ 0.26389380345448926
PD@@ 0.4399342060470459
Pete 0.2540121200891205
Tar@@ 0.04724091214896207
Willie 0.35410227209394857
XX@@ 0.26722075033375475
aj@@ 0.036509485841303875
arg@@ 0.0765041360450827
ines 0.026892119668637346
oo 0.13997027451515995
so 0.007012172609745422
الجاذ@@ 1
سجاد 1
قون@@ 1
لائف 1
112@@ 1
1325 1
1683 0.6084478711799736
1733 0.6042393864334281
314 0.9188266806756664
AND 1
Dev@@ 0.06984398154436933
Gabriel 0.11439682360006777
Jesse 0.2979554930433721
Jo@@ 0.058257703975618906
Joel 0.31984397914715706
Kenny 0.31964433911798706
Mi@@ 0.04825323824051829
Net@@ 0.1911718711673034
Open 0.042758334119613946
PL@@ 0.21916406894366747
Ram@@ 0.052519328787011425
Ramírez 0.4690183059550529
Rich 0.3312218845988981
SR@@ 0.35319148686645724
Tam@@ 0.08659169731531721
Woods 0.27807728794069575
enc@@ 0.03244282611540308
ger@@ 0.027219217568251134
ira 0.05665875267446023
lock 0.09574122359886017
met@@ 0.04316259039489174
sen@@ 0.035907530742427994
und@@ 0.030535487958846256
yp@@ 0.10071066199943575
ַ@@ 1
اشم 1
الكومن@@ 1
امار@@ 1
تنازع 1
ربن 1
لغت 1
يزاب@@ 1
1570 0.5793093262905394
1605 0.684611383882163
1727 0.5582223878198297
2023 0.3748411440555313
349 1
8.9 1
Dunn 0.5655919430798375
Greene 0.35517494724131976
Je@@ 0.0728316461454857
McK@@ 0.34830026849505646
NI@@ 0.5603661315905446
Proc@@ 0.16661160206694167
Ru@@ 0.04819841469349944
elle 0.005987192197373224
fer@@ 0.02213967554423889
gu@@ 0.02607686882292183
pu@@ 0.03781836888035855
revision 0.6097740601941051
ts@@ 0.026736043881797015
ut 0.040380827969814514
we@@ 0.03179742442761108
כ@@ 1
ס@@ 1
ابِ 1
قوت 1
ميشي@@ 1
山@@ 0.07311274896976457
2300 1
415 0.9908708504574736
429 1
8.4 1
9.7 1
Ang@@ 0.0448676846859314
BB@@ 0.43022660866974144
CH 0.3285170024688169
CO3 1
Kn@@ 0.06001100926945727
Morrison 0.29565467576220794
PE 0.4241621579529512
Systems 0.13997054853898652
Union 0.018629657976509336
War@@ 0.04012748942063097
df 1
eta 0.039589983789356735
ha@@ 0.04361064505826035
his 0.0013023842341939227
ima 0.06249818535396848
net@@ 0.11858984805058347
not 0.003330481208057017
way 0.012468986155873042
ؤاد 1
بسم 1
دادا 1
عقائد 1
250,000 0.7259077790381382
381 1
384 1
412 1
422 1
780 1
911 0.6492280659913373
96.@@ 0.6779842313214213
Awards 0.032203069872510315
Burke 0.33875470405669017
Cul@@ 0.09416973193443168
Edgar 0.22148968179763992
France 0.009356357515200647
Gor@@ 0.05647911453915493
Nag@@ 0.08910152711547717
Riley 0.3949725496875903
Stevens 0.24288458260197476
artist 0.046285570074678734
eo 0.046600543060199236
inger 0.03983959856183372
od 0.07149845040241817
orum 0.14761097098796988
por@@ 0.035613756965169836
tar@@ 0.03968195280839089
ty@@ 0.05040518437213603
ای@@ 0.5216369438123654
جيات 1
حيد 1
صبر 1
نقصان 1
٩@@ 1
き@@ 1
こ 1
.net 1
1066 1
1516 0.9423700827361506
1737 0.5804051489173148
1739 0.5731729019484417
2,4@@ 1
3,8@@ 1
3200 1
328 0.9363029280121551
476 1
508 1
8.8 1
810 1
AMD 0.8251679346654579
Clarence 0.4362755711658104
Duke 0.07244805802898877
ET 0.2561519049948033
Gardner 0.3751994924567511
Lynn 0.30943797549954666
Marie 0.03804341425298694
Mir@@ 0.06650651609615031
OR 0.5310586154713183
Ren@@ 0.05796853911954402
ST 0.21275775626254834
Sy@@ 0.06947340798522911
Web 0.20100141177515962
ie@@ 0.04159488908739288
lard 0.13513732048097343
och@@ 0.05986947099592863
tom@@ 0.055007622628986
wikitext 1
צ@@ 1
اتار 1
انا@@ 1
1340 1
1420 0.9687462695906027
1662 0.6540967004814285
393 1
707 1
710 1
9.1 1
BI 0.2573120484411478
C2 0.5008823811316865
Del@@ 0.043137240157620764
Fran@@ 0.09017894004415104
French 0.016526380406806974
GP 0.21544091799815143
Grand 0.02205854271533384
Nor@@ 0.04559348007020063
Pres@@ 0.05519276577003318
Warner 0.12536786449747614
für 0.002614487533209402
ri 0.066764339843203
scale 0.0750135948509536
ul 0.06429963423413655
ος 0.10069623517922256
اسمِ 1
الدن@@ 1
سخت 1
عاشق 1
す@@ 1
0.0 0.6855400012667004
1590 0.5969164855174375
1672 0.5838571697162854
1731 0.6337849352021094
2,6@@ 0.9679506397666644
2,7@@ 0.9587819598230017
308 0.6828312709576431
334 0.9881317457767217
383 1
4,0@@ 1
405 0.7672332087809403
70,000 1
767 1
80,000 1
870 1
980 1
A4 0.7131755091184683
Cle@@ 0.15542245071273103
Dawson 0.4295873333793302
Der@@ 0.07612037497345855
GR@@ 0.4576983096858618
Ha@@ 0.048542097250637024
Hugo 0.12526118064336572
Lynch 0.33456410818264154
Ol@@ 0.04650722303564467
Palmer 0.23238434513256748
Preston 0.29472146263017274
Ps 0.380966136144957
Saint 0.010062435686890503
Sand@@ 0.05883441086355073
Street 0.020383506781678554
asp@@ 0.2604925986430876
dy 0.052892490458552335
eck 0.05663765279189118
eus 0.12401586969163152
firm@@ 0.26950926904115563
hu@@ 0.039169437302530155
la@@ 0.04552544837371805
lar@@ 0.045320591936727335
left 0.014370169092168712
ms 0.049413650811893355
ord@@ 0.045594292720715975
tor 0.030189236377120454
uc@@ 0.04755540502436017
اعظم 1
العرق@@ 1
حجاب 1
خفضة 1
مجاز 1
مشروط 1
کان 1
-2 1
1453 0.9101017083552048
3,5@@ 1
369 1
509 1
790 1
Alberto 0.14139297519894684
CF 0.22540577226416247
Cam@@ 0.05720285898608933
Data 0.2119732645815476
GT@@ 0.19415000327676946
Lam@@ 0.0818153463077686
Montgomery 0.21673498284388673
NT 0.4148937780312406
WCW 0.7366082051590072
Whit@@ 0.07362262810245415
ai@@ 0.055890135485806215
aur@@ 0.06612523278479733
hydro@@ 0.10637722375274879
onas 0.3662696974271624
phen@@ 0.18190728263224323
unc@@ 0.10512272282652697
رحلت 1
طبر@@ 1
عقاد 1
€ 0.13365753256243873
1642 0.5390052032595679
1696 0.708431875645228
730 0.9903454977503566
9.2 1
Au@@ 0.0659995958268845
Diego 0.06756598171465338
FF@@ 0.21950514928492754
Global 0.10654490627182442
Irish 0.04848338731358989
LD 0.43618820721737434
Mos@@ 0.06414072166406785
PLC 1
UI 0.512141058813862
USA 0.03459361769646132
aya 0.047196021690049154
dic@@ 0.045298086302216566
iko 0.11392488874992869
mb@@ 0.1030374980294467
pa 0.05454058689657137
quot 0.17640219879723484
sey 0.06465223438795344
ת@@ 1
جينيا 1
ورِ 1
وفضل 1
1150 0.8583032288317953
1609 0.608156636592892
1729 0.606503167400261
2,8@@ 0.9670464431125402
431 1
451 0.9994723391671883
Barrett 0.43180450294709805
Bou@@ 0.05955680532149815
Bryant 0.44734929745433094
CM 0.2893209402852387
CoV 0.9496496999035671
Hem@@ 0.1083256830078679
Island 0.02652318068296245
Jan@@ 0.0709830800348767
Ran@@ 0.08709672241538285
Sk@@ 0.05109989739671747
UL@@ 0.45444891336648324
VI 0.07112032369886999
ard@@ 0.03753639660478463
ros@@ 0.06806981961864886
tel@@ 0.035646496946864274
دبا 1
う@@ 1
1632 0.5895616903969604
1747 0.5038875895553788
2700 1
361 1
373 1
449 1
705 1
All@@ 0.0723992011868288
BP 0.317847205562622
Japan 0.025274595657647014
Pal@@ 0.03902901242077043
Sarah 0.10356142304211269
Tur@@ 0.037052839875924684
aa 0.15595674940272497
aka 0.06390736219258902
atic 0.0525668973001191
disease 0.08232358411581603
ere 0.024268197789724485
ga 0.05104294413753792
ling 0.023474714167942015
ok 0.04897263086470671
urus 0.32359829795862416
ترويت 1
مسند 1
335 0.7696291848572419
356 0.8884512455287752
403 0.9049401630770043
454 1
94.@@ 0.7671120712493857
Academy 0.02931446866105675
CBS 0.12154428346886878
Cunningham 0.4605113392077657
Donn@@ 0.21724980391792598
Ham@@ 0.06510507322921125
M.@@ 0.10473934796846883
MB 0.3033958266584136
MR 0.3690311814110408
ON@@ 0.25339875333488443
PN@@ 0.23123018495634431
Pablo 0.12350848393529142
Pur@@ 0.07195885508503802
ROM 0.48492070548002447
Richards 0.28285024683001925
Sun 0.06473208477210768
TCP 0.9922658987262295
UK 0.02862166969603938
cl@@ 0.027053294312781355
ein 0.00244382027914962
ik 0.033678683823438
isa 0.09608677406086034
language 0.024763162920576388
m.@@ 1
ost@@ 0.047276866011018576
wer 0.0782417163962743
اشرف 1
التأث@@ 1
التلفزي@@ 1
فی@@ 1
معزول 1
منافع 1
1390 1
1631 0.6655450958365632
1670 0.5033054429416182
1734 0.5441952034129542
3,0@@ 0.9547486972828829
343 0.9039533029085456
368 1
392 1
411 0.9413578321545694
57.@@ 0.9165431817791382
97.@@ 0.548398337097851
Deb@@ 0.08441596068235062
European 0.019477043797013368
Fil@@ 0.06706135713735352
Go 0.10675222628731719
Gra@@ 0.1288315818422111
Jeffrey 0.3501686936771825
Khan 0.07958304285499383
Lake 0.029645498419139143
Lord 0.04211285084973383
MIT 0.3235854043464329
Maxwell 0.32091438918614434
O3 1
Ri@@ 0.037008098330751395
SM 0.21907080256259456
SV@@ 0.37181597697563973
Trevor 0.41009846463421495
WWF 0.3757408392548779
ami 0.052321997116821936
bor@@ 0.03468109486775273
cas@@ 0.031019217937939336
ement 0.011317198939474664
ency 0.04891070329165341
group 0.011214326345353605
ib@@ 0.04216365614426623
inc@@ 0.02839110022225127
ings 0.013682329576969205
una 0.0021732009494335406
بزر@@ 1
لطف 1
مطابق 0.6603651227474245
128@@ 1
178@@ 1
357 0.8829856576684927
417 0.9669123754013489
426 1
590 0.9800888500020267
6.0 0.8682004616872835
600,000 1
970 1
AO@@ 0.4007439176081502
Ann 0.1195495206634464
Barbara 0.11392635593321124
But@@ 0.10491947226413853
Chi@@ 0.047800072585660096
EA 0.25040212480912083
First 0.025242490718309994
Force 0.0354707682512785
Human 0.09416872721798208
India 0.01939671103170041
La@@ 0.0480278055716515
Lar@@ 0.06932645477652188
Medi@@ 0.08126720884572843
Miles 0.22977434709764274
Rap@@ 0.11638954812439781
Rh@@ 0.115099702414132
Scottish 0.06047600899496681
Sky 0.1372629232756771
Tim@@ 0.08365266776941145
Ur@@ 0.03437127815065253
ago 0.05499398852072429
ail@@ 0.05828986563401234
article 0.04254953279243003
fil@@ 0.052663367820977046
hom@@ 0.039257857491137756
ich@@ 0.03272949692743378
inus 0.11556205803208128
loc@@ 0.03550032565595686
بی@@ 0.48943482780907593
سز 1
لادي 1
お 1
は@@ 1
000.000 1
1520 0.5344669514747227
1625 0.5447396745142795
1699 0.5786522264526739
465 1
5.0 0.6867843594857449
8.6 1
820 1
975 1
Ak@@ 0.04013503449441327
Berry 0.2570018665907419
Blake 0.23076824355391187
Cecil 0.35746843645730203
Der 0.004301050056551787
Herman 0.2881507317839758
Jeremy 0.2877568953605283
Series 0.04288197424193834
Shi@@ 0.07916174089993788
Star@@ 0.06947160578629405
fl@@ 0.02102318903744427
inf@@ 0.03306963375896171
lum 0.1036320519942823
mal@@ 0.031110130443267985
mi 0.04552397835924008
pes 0.07360472761286203
yc@@ 0.09130995260114959
š@@ 0.049004915078282266
افز@@ 1
التحت@@ 1
خرم 1
دائر@@ 1
شتر 1
ん@@ 1
1560 0.5440160491382419
1712 0.5761950644445831
1722 0.5160296639388918
421 1
42@@ 1
639 1
Ball 0.14854622216495028
Cat@@ 0.056115264289939404
Glenn 0.26364274169644586
Jenkins 0.37899878828228484
ability 0.02544975645764222
adi@@ 0.03987743070481428
ages 0.017095044777979195
ast 0.04101904257963699
bus 0.04564481684045303
lan@@ 0.04098976372035359
minor 0.0630187465535985
اجز@@ 1
حی@@ 1
دفت@@ 1
شروعات 1
■ 1
中@@ 0.02478612172410367
1.0@@ 0.4005386825060447
1385 1
1434 1
1585 0.6384805121156397
1690 0.47495841658673343
364 0.9818597361718067
377 1
88.@@ 1
910 1
Casey 0.3551191320791362
Edmund 0.21334577431578922
Hen@@ 0.07611946831291307
Ker@@ 0.0588119254624529
MTV 0.13031139252832946
Server 0.3529272760392325
Sm@@ 0.12940596725318373
Travis 0.42685919641442105
arab@@ 0.19249252269208078
com 0.1797878144480962
ee 0.03363692406520715
ki@@ 0.040612225524941974
ont 0.008585047917529365
ten 0.005268082132623729
Ángel 0.22798170109100724
اسباب 1
راست 1
عذاب 1
منقطع 1
ندس 1
″ 0.5457607826896035
1370 0.992608847769568
1526 0.6502524376331963
1647 0.6711204859510711
1654 0.5501582392388479
2,9@@ 0.9889629015885963
341 0.9325180170257432
376 1
379 1
394 1
40,@@ 0.6676189274697684
400,000 0.8434227760856083
504 1
73@@ 1
880 0.8751196640005265
Barr@@ 0.08784328213780154
East 0.018303804435763845
Game 0.05826634745817171
HD@@ 0.4257962308236616
Hale 0.4266818712390563
Javier 0.22551025489817966
Line 0.043939560589542494
MAC 0.5242056947335028
MD 0.1981686579667532
Nu@@ 0.08318540172861771
Radio 0.032999351945704254
Roberto 0.1570133300687617
ine@@ 0.06041063140605321
mus@@ 0.04948260266163221
ori@@ 0.044229788217360184
ster 0.03124294023014349
trans@@ 0.0190605352472277
tur@@ 0.027152824999285192
1724 0.5157789112626446
1725 0.5100087912664346
374 1
378 1
38,@@ 0.47604610996024915
475 0.9724002443472222
605 1
6500 1
Ay@@ 0.06813535597897126
Clifford 0.4349438365881338
Fernández 0.1548009862850171
Fleming 0.4454087416651126
Hans 0.04470142690805719
Luke 0.1608700122944332
Newton 0.1698383976431557
Open@@ 0.15836033351089457
Payne 0.4687818208742381
Res@@ 0.06255781078456225
`@@ 0.4783927410198784
bas@@ 0.028790976006091328
bur@@ 0.030154252226261165
hand@@ 0.051355818616724815
icum 0.2657208218010849
index@@ 0.5112095781567623
ness 0.03199440757010029
poly@@ 0.06473266810022539
self 0.036644071109100104
vo@@ 0.05792001238405194
آق@@ 1
امتز@@ 1
井@@ 0.5112503818905019
1348 1
1547 0.6633076188538728
1623 0.589080191152493
1717 0.5049124921501902
1732 0.5181828527160279
1736 0.5122663777979841
40.000 0.7408702555782958
447 1
8.7 1
AMC 0.6646965993142516
B2 0.7196233529868983
GPS 0.42372883164027475
Hu@@ 0.041456861537987055
Jackie 0.32885352085213243
Jane 0.09483608526859695
Kam@@ 0.05429284980074075
Ken@@ 0.09656053508628469
Reichs@@ 0.07457044112610536
Stan 0.2924034368906071
What 0.08687019410171545
Wisconsin 0.07388397181337807
action 0.02318136155687485
book 0.015601082304610193
elly 0.16323662548501386
ense 0.05529489269458259
essman 0.5131151521560248
iki 0.047539657859544907
ko@@ 0.05240601629547731
oni 0.05647192396347962
ops 0.0775377210805349
oy@@ 0.05400189875937102
ski 0.04016002745468553
yer 0.037940215084909815
½ 0.2763589247801853
عور@@ 1
فنس 1
ماور@@ 1
مذاق 1
مصرو@@ 1
يزيا 1
よ@@ 1
1431 1
1540 0.4918184968799876
1704 0.5310012685109022
3,7@@ 1
372 1
387 1
416 1
461 1
58.@@ 0.8806542138128184
Bruno 0.14420393593128084
Championship 0.022445264254601655
Costa 0.07773502468616288
Dow@@ 0.10908929243681394
Drew 0.3434500958315282
General 0.014040809199038363
Jon 0.16028925255612772
Of 0.055475228850927816
Public 0.04336160570763004
Schmidt 0.16175628019090627
Sec@@ 0.07946291692402302
Syn@@ 0.08920980923436171
T.@@ 0.20298203150581284
Ta@@ 0.05841240721341404
Tucker 0.38190191384435085
bre@@ 0.025220703130166153
des@@ 0.012155584830205996
log@@ 0.0473004434013741
oshi 0.17914989907847784
which 0.0016827965303269573
zo 0.06280497732179097
§ 0.1744025620718662
آصف 1
روسات 1
طوفان 1
متعارف 1
مقصد 1
نذر 1
1380 0.9585166550531814
1402 1
1415 1
1598 0.5538417872731343
202@@ 1
3,9@@ 1
626 1
AMP 0.9972252444815586
Ban@@ 0.03841531178875444
Bet@@ 0.09678680007638668
Cruz 0.08136856184214679
Floyd 0.2758245047055338
Good 0.09714342667478297
Holland 0.15884925204119396
Logan 0.2783549482643279
Michel 0.06293015115104329
PM 0.18457021020427875
Sherman 0.2948619521952589
Sho@@ 0.07202729509823019
Sim@@ 0.05822998973758331
Vir@@ 0.09145265904634776
Webb 0.32952730180593215
ail 0.058211777830773956
ake 0.03503257833606833
cat@@ 0.03385228512935736
org 0.28415863466427915
ow@@ 0.031511668592804014
res@@ 0.016007308606565903
tus 0.08749922243519734
xx 0.46923170086701876
اسود 1
باؤ@@ 1
تخت 1
تعارف 1
حضر@@ 1
1530 0.5042823744414144
1618 0.4969610015408171
1664 0.5753834654177881
1665 0.5621643830268148
1711 0.5211038376971459
344 0.9362733219663901
348 0.9762925893428472
382 1
DB 0.21031291470193886
Don@@ 0.052400750175189206
Dur@@ 0.07097934025292614
E.@@ 0.1223737613843986
Harper 0.2535692215240995
Lindsay 0.3898947812864802
On@@ 0.07158626838365167
PW 0.7462818760304637
Rom@@ 0.049538112127068774
Team 0.027239398696135758
UR@@ 0.28082029187356355
Vernon 0.31053818112465864
Wilhelm 0.043934051657757094
acter 0.42853945910568464
ani@@ 0.05526728225646809
ash 0.06082216574366854
awa 0.07417395166279948
cul@@ 0.044191412377781576
dec@@ 0.023962130644059405
ding 0.03478347910731906
fer 0.02613620276087146
je 0.027392956542382975
mel@@ 0.03800859189783247
ong@@ 0.04564706841855156
son@@ 0.036698063677168255
ther@@ 0.05061144160961536
uk@@ 0.03990330189139612
ón 0.017394799837428674
ג@@ 1
آرام 1
آزاد 1
اتر@@ 1
خدا 1
سز@@ 1
فرش@@ 1
فرم@@ 1
وحنا 1
ھ 1
1608 0.6429770467588986
1655 0.5794400816082795
1667 0.5258813213805921
1685 0.48290482465815837
358 0.9933124228770848
396 1
616 1
632 1
661 1
830 0.9532520184041534
A5 1
African 0.02909316824537341
Book 0.06484425985426447
Film 0.01688234878139587
Ja@@ 0.19584070066833464
Josh 0.2248754531900038
MT 0.3300331264322321
Nov@@ 0.05590440997576787
P1 0.8265979560074902
Romero 0.3323985699186335
Steele 0.47830177843514904
Tre@@ 0.044427075650546995
ania 0.06987461006256604
director 0.018611773264597693
ery 0.042937593545747985
ici@@ 0.04623337622160986
iner 0.08612769720858032
kl@@ 0.032988373706399995
mor@@ 0.026867077289197593
mot@@ 0.04211811970024681
ological 0.03108869865291853
ser 0.011444395352521048
ui 0.09885485268447483
world 0.013427189067908114
انور 1
متنازع 1
وعظ 1
1433 1
1513 0.8570764181059475
1621 0.5259594391646133
352 0.8673723664964944
391 1
428 1
612 1
840 0.8721744712002786
860 0.9656266952279473
Cup 0.01380201274526151
Field 0.06381361551204429
GO@@ 0.22072571776427458
Ga@@ 0.09449994971606453
German 0.01500042978104867
Hart@@ 0.15305283635674058
ID@@ 0.35597495438001747
Ivan 0.14387620146428032
Jake 0.26104421420016943
Kal@@ 0.03499668949382151
Myers 0.4345562278947293
Ras@@ 0.10492619430876568
Republic 0.032146356353380014
Sw@@ 0.051993564330582144
Wade 0.353939149902354
Wales 0.039074980657574476
Wilkinson 0.5638545319320167
ace 0.04119277948292031
ain@@ 0.03457750175436836
deria 1
esis 0.13721638136527992
ew@@ 0.04453951225992383
jpg 1
title 0.016970991066179428
ائج 1
اباد 1
امتح@@ 1
تعجب 1
خانم 1
ساز@@ 1
سلف@@ 1
فتوحات 1
گو@@ 1
ⴰ@@ 1
1080 1
1437 1
1638 0.5555633918873788
1666 0.5409090820365504
1674 0.6126662672847967
1681 0.6062067379571207
1697 0.5326375677728825
432 0.9907524253049717
479 1
503 1
614 1
7500 1
9,000 0.6814969753600637
Bishop 0.06551433662367316
Forbes 0.2291671179991991
Griffin 0.3158003828057396
June 0.009037138102712084
Moreno 0.26978663208935394
O4 1
Pen@@ 0.0498582531180981
TH@@ 0.2302031793744182
We 0.04613148310891356
Your 0.09212609853283146
bal@@ 0.02901489074665167
congr@@ 0.23389069575545957
den@@ 0.02297797237045961
esp@@ 0.04395443982298012
judge 0.09466026110521716
men 0.008872547347372682
pp@@ 0.044397123278877744
ran@@ 0.02548996501424166
rie 0.10396446080428427
set 0.012073933799461657
true 0.07068643996261222
ture 0.04032820148778426
ud@@ 0.04270481556585986
ular 0.052215330522829596
ves 0.023221881789452333
yi 0.08721566642128567
yn 0.06727297045549412
جوزف 1
ری 0.6664542269715491
سنس 1
موئيل 1
.000 0.3713683520292806
.jpg 1
1604 0.5621473335345706
1656 0.5444323905778692
1695 0.5802042204910572
1738 0.4935308175129372
200.000 0.69774148813567
444 1
486 1
Abraham 0.13050619216746553
Apple 0.10150135398804962
Bot@@ 0.05631766102673851
Cel@@ 0.0794661285079712
DH@@ 0.5096972590389025
H.@@ 0.14423203426141443
Julian 0.18750050858619408
League 0.008770304732738059
Men 0.04820779923697769
Mes@@ 0.06933885040335601
PCR 0.703847551300528
PH@@ 0.5236898278748144
Plat@@ 0.0898544615028838
Rad@@ 0.04175659768053423
Ty@@ 0.08048921682880086
` 1
ares 0.04212514168888338
atr@@ 0.04305644098499805
cell 0.06334732841387557
gen 0.03041658520701404
ister 0.07444367874467339
mag@@ 0.050307759030968416
news 0.05222285987116792
off 0.010485365980232064
omy@@ 0.45225949041012653
oz@@ 0.053511968295958695
tical 0.046034348581838094
tim@@ 0.041628092476934726
ø@@ 0.06069947113839286
الی@@ 1
بغا@@ 1
فاتح@@ 1
معاون 1
وغالب@@ 1
0000@@ 1
0s 0.036253035384574174
1572 0.5584286178499057
2024 0.48570912946630385
339 0.9082584861462952
427 1
539 1
555 0.9602625353204969
740 0.8784162873390745
Be 0.11547829936595289
Christ@@ 0.0955205655729163
Core 0.3573191722834604
EX@@ 0.4234190486142955
Eduardo 0.15802521691304078
Family 0.05282588404692483
GmbH 0.08975072057751347
HO@@ 0.3213788204946045
Jennings 0.4807381614134581
Jensen 0.4304371293003198
Kas@@ 0.0494991494477684
May@@ 0.05617437922216585
NAD@@ 0.9090287901823484
Potter 0.2574202180883618
Rem@@ 0.05785276090515007
UTC 0.18618108531511637
Wagner 0.1481727209836001
Wo@@ 0.0938724922463519
bert 0.051531974057943714
coach 0.02642655858993482
eter 0.05050030157995194
fe@@ 0.02671185077895301
function 0.053905254727138745
gol@@ 0.09092811735458615
ill 0.030884357324597406
los@@ 0.07571202332773616
sal@@ 0.026512547607853983
ten@@ 0.014494644661388964
آسام 1
اسحاق 1
بلقان 1
شاخ 1
مباح@@ 1
مباش@@ 1
と 1
む@@ 1
1399 1
1659 0.5551099134649673
1676 0.5324306702720162
1708 0.47706884416308165
1728 0.4966710774026196
3,6@@ 1
418 1
585 1
770 0.9724941309016063
CW 0.34150494354631455
Clayton 0.3786845153149209
DT@@ 0.3498962312638016
Garrett 0.4444724993238014
HBO 0.2931275769985085
Home 0.054208543154888426
IF 0.19787725859575642
Ireland 0.031153583742611193
Marsh 0.33786854831410845
Med@@ 0.07871391515488046
Multi@@ 0.14479901079767843
Pas@@ 0.039804117979020594
RH 1
SY@@ 0.6263671832279577
Sat@@ 0.08752060854115733
Sergio 0.24693334383098078
agan 0.14104042794704175
ants 0.012261989527913363
cur@@ 0.025695008823543003
first 0.0021242206870200563
iss@@ 0.04039526824603576
king 0.020267362735705324
lat@@ 0.04289543164471918
ota 0.04126449177036532
pH 0.316588591755974
pan@@ 0.039968977835443315
sion 0.025846984331942314
tan@@ 0.033911077702857076
ó@@ 0.027369512039002113
ˈ@@ 0.7625375190841499
Δ@@ 0.16108288195085582
الغذ@@ 1
القسطنط@@ 1
شنز 1
عروج 1
قاصر 1
村@@ 0.29411694994422277
1050 0.868316486506429
1240 0.8447816080366829
1525 0.5150492472854712
1652 0.545133445729121
1716 0.502078531145244
522 1
618 1
715 1
BM 0.32339665093428
Banks 0.23714870079585962
Barton 0.379089619080291
Che@@ 0.0882929206878588
Digital 0.10820540542559412
Fuller 0.405220446131417
Geoffrey 0.316934922593014
Gill 0.43363724033623774
Gutiérrez 0.3782340262595223
Gómez 0.20431066400703424
Hod@@ 0.24761495215756474
Intel 0.26315075897333107
L1 0.9178006707521323
NF 0.6225568348662709
PL 0.3219739001728049
Quinn 0.3314331351086622
Ramos 0.36668370543225354
SP 0.2067434991472728
Stephens 0.4858763246693607
Texas 0.025169497738030813
Wang 0.13281765466915665
Williamson 0.406759907513934
eli@@ 0.06627408986122099
inn@@ 0.04482152453730659
itz 0.03126705707766927
men@@ 0.029882985491352005
plex 0.2510283659865864
tion@@ 0.043211884478548394
vis 0.10992006170085093
جاوا 1
قائل 1
う 1
1368 0.9827486286049819
1515 0.6862453863875724
1541 0.6633069326773633
1627 0.5292107724106416
1669 0.5857079273557033
457 1
641 1
800@@ 1
Barker 0.3922174587016286
Bat@@ 0.04706725588495305
Bert 0.48078959781132247
Canada 0.0156694396389826
Di 0.17189875650252434
Dor@@ 0.045920328347777754
François 0.043291205165741524
Israel 0.03810165408328667
Kan@@ 0.03749587961985625
Kir@@ 0.05389277117879988
Meyer 0.17033880706164392
Morales 0.31663083545922915
OR@@ 0.2987607115949548
Pin@@ 0.054995217444172156
Pot@@ 0.06298340028755979
Pratt 0.34323583656214646
SAT 0.5507722483946627
Sil@@ 0.05715400263495649
Way 0.10252694596855821
ero 0.02325398063700985
ial 0.06913502319721676
sky 0.0425975344477265
u.@@ 0.8046949379349669
were 0.0013770170612803204
غائب 1
کو@@ 0.6022831135593416
け@@ 1
ろ@@ 1
1349 1
1360 0.9117450452748248
1613 0.5714031196041921
1687 0.5595024130365794
419 1
44,@@ 0.5509909060970679
527 1
633 1
642 1
711 1
Archibald 0.46739385252307447
Brent 0.5301705978088749
Cad@@ 0.09968553597259305
Cos@@ 0.06540946637364366
Den@@ 0.07186777158382414
England 0.014484439804602886
Ep@@ 0.0951659004654537
Fac@@ 0.08895527293158592
HIV 0.21961716181610175
Ing@@ 0.06398192788863151
João 0.3212058109862065
Ku@@ 0.05812438355498163
LT@@ 0.4005312992137921
ML 0.27397080386058564
Meth@@ 0.24418200385437724
Muñoz 0.4295157192144871
River 0.012824163968284348
Shane 0.31018490458977704
Sin@@ 0.05955805686984319
Thi@@ 0.07962408178952479
Tro@@ 0.04500541055974582
act@@ 0.07236413589181208
bri@@ 0.09971534781376701
ika 0.0564638274949181
ila 0.05135323699683442
journalist 0.08584330006320647
pha 0.27341576569344167
port 0.023901527480038563
rec@@ 0.015069925642219966
service 0.010796726015109588
sol@@ 0.026059139823111182
ulus 0.15887434683764745
water 0.012816320549328835
® 1
المباش@@ 1
انار@@ 1
شدت 1
محك@@ 1
مخلص 1
نواح 1
نی@@ 0.58623631673116
٠ 1
《 0.009250735743764445
1290 0.9076644976965387
1503 0.799948076551511
1524 0.6498709620160799
1559 0.5669177912824014
1606 0.5761433015409497
1709 0.47905376105590325
438 1
604 1
627 1
741 1
California 0.016317187390894553
Central 0.019125284391224188
Dudley 0.3537116770884873
GE@@ 0.41383744520714233
Head 0.07789340676696187
IW@@ 0.40871345644638385
Sun@@ 0.08342268936721076
amine 0.20660257191277545
ast@@ 0.03744860330738844
ays 0.025777276476060075
che 0.0195661000439633
cho@@ 0.05515310852961871
eme 0.08736783056218045
iah 0.34772808012200085
ich 0.024960127731064524
ius 0.0694836155247375
ow 0.03464988658408392
uli@@ 0.06354006054371324
ville 0.008825144419697848
ør@@ 0.17931699682081037
ט@@ 1
صارف 1
本@@ 0.0537209408189706
1070 1
1346 1
1389 1
1612 0.5295726743452132
1645 0.4751274487913539
1658 0.5294212597135205
1661 0.44767317303010956
1684 0.5406806080926723
408 0.8706139906816259
467 1
518 1
638 1
CSS 0.7981253689000164
Dan@@ 0.06585676851585809
EF@@ 0.3219795720935583
Ear@@ 0.11543118367417403
Gard@@ 0.23335234478236144
Harr@@ 0.1753927842869493
Hopkins 0.22152466771192034
I. 0.030865563169618217
Mack 0.41962173799245467
O. 0.13693447962097086
Randall 0.4704795941004586
SPD 0.11470538877393478
Sher@@ 0.10898688550970423
Simmons 0.3974494735838096
Stu@@ 0.0755786142334469
WO@@ 0.4416930439744058
XML 0.5306096635346369
ans@@ 0.03580883249667445
ath 0.03636284979523459
ech 0.07646131227650346
ender 0.0343600354275966
ker@@ 0.044305640284133696
ori 0.061549697983347806
ost 0.05830624493601599
pp. 0.9686055043668901
super@@ 0.02430700409806949
sus 0.006301736727577298
اوه@@ 1
دانت 1
ذائ@@ 1
مائع 1
مقامات 1
نل 1
1395 1
30.000 0.4917951143183702
406 0.6825061293544412
575 1
581 1
628 1
Ash@@ 0.056067887748159406
Battle 0.03532536470835758
Bul@@ 0.06799319084992739
Chase 0.20494518331889738
Chry@@ 0.5767617096485239
Gol@@ 0.05325999910959397
Haw@@ 0.07925204863397636
Kerr 0.42059815475841483
Klein 0.16652339263672478
Marco 0.1273868073323613
Marvin 0.4331221692921642
Medical 0.06607504134690555
NA@@ 0.3812153766955126
Nak@@ 0.10433643679642068
Not@@ 0.0423675453231109
Out 0.07473571762862842
Pap@@ 0.0486251929310267
Ronnie 0.38095124908746475
S1 0.6056696825379355
Sidney 0.2634721890926218
Solomon 0.20988965407235374
Video 0.07983200061097061
WW@@ 0.23688715788455134
asi@@ 0.05073491317520015
ats 0.019498688311394112
ault 0.0514106797516492
ca@@ 0.08083847620144495
eda 0.09504765768752978
ise 0.011838046275664359
oni@@ 0.04387996550810541
op 0.050555079884508525
red 0.017176589930036092
theory 0.04504673536199791
thr@@ 0.06050664823104725
you@@ 0.39858417326321205
ائيو 1
احسن 1
اوقات 1
خالص 1
شفا 1
فارد 1
み 1
川@@ 0.23757294177973853
1204 0.8254833417194544
1280 0.8310937286925761
1607 0.5506842269508316
1651 0.5162305463062938
1694 0.5592298636878519
177@@ 1
2O3 1
423 0.9918137589746912
455 0.8978033639027623
481 1
50.000 0.4827310879232328
565 0.9632830923375185
636 1
656 1
And 0.06483249959628087
Anti@@ 0.07022806094915296
Atkinson 0.5837359138183483
Control 0.1221867337737654
Elizabeth 0.046243285958670576
F2 0.7244822511802214
FR 0.45150897681834073
Friedrich 0.030669782660925137
Garcia 0.22201946953689966
Hawkins 0.37252001975797655
Holt 0.3927666959193506
Howe 0.35038061804929926
Hudson 0.11900420304891403
Jesús 0.1380902956051018
Kirk 0.2947212710815741
Laura 0.12845593731606866
Martín 0.11697430515406748
NS 0.13967648109179365
Pierce 0.3087424787866464
Wolf 0.1084997146454777
anda 0.06435748426852717
ho 0.10029279518983067
phy@@ 0.10609448603265047
pol@@ 0.026989919865360763
sa@@ 0.03808727554910982
state 0.008179257180113128
tery 0.11003106235192889
ua 0.04572012307743389
yg@@ 0.12672829336068941
دی 0.2628087314295546
رانا 1
م. 1
مباحث 1
نسو@@ 1
ٰ 1
گ 1
藤@@ 0.4183904496858867
1010 1
1330 0.8134294560649407
1637 0.5151538313546261
1675 0.4751524749977858
350@@ 1
458 0.9955450174061576
499 1
725 1
801 0.9992397474763234
920 0.9365863117053496
BT 0.2869805478122952
Baldwin 0.2565461171581661
CL 0.2567418231691574
ECW 0.7502999859481548
Ernst 0.06587158173116212
Kor@@ 0.030809782634927
Shannon 0.3379504831900281
Shor@@ 0.3372203399912269
Technology 0.0587884342360085
The@@ 0.04358639528877949
aba 0.013061244634484506
acet@@ 0.1987049077177087
amb@@ 0.03493865672978603
eman 0.059431095650469404
gar@@ 0.0353264756475811
har@@ 0.019903688066997008
have 0.0026724296565877976
ins@@ 0.021398340154896996
mas@@ 0.024408211456201118
min 0.06927212147795932
reg@@ 0.019217623428257044
tis@@ 0.03872972136502184
æ@@ 0.09661791723454098
ī@@ 0.09839752584054941
جمش@@ 1
روشن 1
شمع 1
محدث@@ 1
ورادو 1
ە 1
1230 0.7301932040133166
1320 0.8616138113979901
1396 1
1502 0.8473632012858097
1555 0.5576368194332989
1679 0.5039697147964219
1686 0.5140588335441554
388 0.9452226023922603
488 1
541 1
586 1
690 0.9016363160479178
925 1
Alejandro 0.1601966239138068
Bank 0.0323289787466677
Billboard 0.04265527592842384
Ca 0.44126043972548
Calvin 0.3364624785100512
Girl 0.09226115009454595
HMS 0.1049450934025028
Heart 0.09420390218766049
Hicks 0.5795007678161043
Jacques 0.04292935487515849
Joan 0.12524904938024894
Kat@@ 0.040840223889052014
Lawson 0.477289363522656
MR@@ 0.361885408339401
Matthews 0.3486940747806139
Newman 0.24574392628379166
Northern 0.034512101470235
O.@@ 0.1977773170388512
Out@@ 0.08987466997866528
Pennsylvania 0.04092444735215747
Road 0.02018452397925251
Three 0.04828429112273719
VO@@ 0.2691903811698371
Wesley 0.33777424385464966
Who 0.0950517305852214
ald 0.11117597566425678
aph@@ 0.08696223810292344
ars 0.021566370355903978
ava 0.06049501924095021
code 0.04429091990212153
del@@ 0.029707508026969663
edu 1
eri@@ 0.07907306402435567
gl@@ 0.03392452492779984
lan 0.07209650099703901
less 0.015736959683635095
lo 0.005711752571345906
nia 0.10678865236366712
odi@@ 0.05773876464605767
ster@@ 0.0348238280427775
t.@@ 0.9014837678174725
tha 0.10209469063758973
ub@@ 0.04820413363868449
uki 0.17091596688592184
É@@ 0.02329429168988205
ú@@ 0.04892561656942708
ē@@ 0.2733401636323383
اعداد@@ 1
بلت@@ 1
صبا 1
1220 0.7798707922509704
1344 1
1401 1
1403 1
1406 1
1428 1
1432 1
1519 0.6768793811274313
1578 0.5861170358261546
1636 0.4877665158658741
2,500 0.4819690624201541
424 0.9883822293466645
442 0.9582869696819551
471 1
533 0.9343382878802615
930 0.8786626585916218
Ahmed 0.14621630988323955
Ashley 0.27700463047321067
Bon@@ 0.047103459980167225
Buchanan 0.4112765063561876
Castillo 0.18044556103992726
Denis 0.11485579929451675
Hardy 0.22400614542219158
Internet 0.05138500833637559
Jerome 0.3476235035919704
Joyce 0.27742009368595066
Kh@@ 0.03027356928858
Kur@@ 0.027580823679216215
Mic@@ 0.13137622260708115
[...]
