ya 422317
. 410951
na 310834
, 300899
wa 295947
katika 123455
kwa 114605
ni 107431
&quot; 96989
) 84269
( 84121
la 82423
za 66154
mwaka 42311
cha 42167
kama 41404
yake 38623
@-@ 38001
kuwa 32825
nchini 28672
: 27603
au 22672
ku@@ 21994
kutoka 21150
kwenye 20178
pia 19283
lugha 19223
zaidi 18897
vya 18893
watu 18559
&#91; 17132
&#93; 17076
mji 16781
wake 16496
alikuwa 16459
kati 16345
; 16275
Mto 15849
M@@ 15369
kwanza 14316
mwa 14293
Kwa 14030
nchi 14010
hii 13969
Tanzania 13766
pamoja 13396
hadi 13194
wakazi 13178
miaka 13049
Mwaka 12965
m@@ 12664
jina 12617
&apos; 12525
Afrika 12463
wakati 12446
U@@ 12279
juu 12149
Kenya 11966
lakini 11675
u@@ 11613
ilikuwa 11601
huko 11581
hu@@ 11399
moja 11361
tarehe 11339
Ki@@ 11294
kata 11181
ali@@ 11063
mto 10867
mara 10720
hiyo 10626
ndani 10479
mnamo 10478
kazi 10329
ambayo 10189
wali@@ 10085
Bahari 10082
i 10076
idadi 9886
ili 9767
ak@@ 9539
Mkoa 9448
Katika 9361
Kati 9254
eneo 9189
sana 9174
Maji 9138
sehemu 9133
hatimaye 9088
u 8978
ani 8941
ki@@ 8887
nyingi 8881
uli@@ 8841
baada 8749
mkoa 8659
kwamba 8654
yao 8530
kubwa 8497
o 8385
iko 8320
kundi 8300
ik@@ 8294
ili@@ 8288
Marekani 8227
Wilaya 8178
N@@ 8124
ambao 7978
chini 7946
K@@ 7849
unapatikana 7831
hasa 7786
hivyo 7721
Kusini 7650
huo 7575
tu 7509
mkuu 7439
am@@ 7359
ana 7289
ia 7243
an@@ 7079
yanaishia 7054
kawaida 6939
sensa 6939
sababu 6933
mbalimbali 6815
Baada 6763
aji 6643
in@@ 6621
- 6581
um@@ 6563
ut@@ 6525
Uganda 6512
wasemaji 6433
huu 6365
ina 6346
namba 6319
Mashariki 6273
kaskazini 6267
yenye 6210
a@@ 6157
wengi 6147
wilaya 6143
timu 6126
kila 6111
kaunti 6057
w@@ 6004
a 5975
1 5915
KK 5910
vile 5910
maji 5894
alizaliwa 5892
ika 5877
un@@ 5875
oni 5867
2 5794
ini 5789
bahari 5696
kum@@ 5649
ambaye 5645
Kufuatana 5616
k@@ 5605
isha 5592
wapatao 5551
uainishaji 5537
lake 5530
Wakati 5526
kabla 5512
j@@ 5497
Mungu 5485
iliyofanyika 5445
2012 5434
Mnamo 5410
siku 5393
magharibi 5362
yote 5360
at@@ 5343
/ 5329
Ali@@ 5328
Kanisa 5327
Kristo 5285
wak@@ 5276
we 5272
kuna 5251
inayozungumzwa 5244
upande 5227
Ni 5211
karne 5191
mbili 5168
ambapo 5163
Uingereza 5161
kusini 5150
hali 5131
al@@ 5117
as@@ 5114
njia 5065
T@@ 5060
akiwa 5060
muziki 5058
imehesabiwa 5057
im@@ 5034
dhidi 5008
Naili 4992
p@@ 4988
tena 4952
W@@ 4946
ajili 4923
I@@ 4911
karibu 4908
aina 4905
aa 4895
kus@@ 4884
Kik@@ 4882
us@@ 4874
wenye 4868
it@@ 4866
inahusu 4858
uk@@ 4851
taifa 4842
Papa 4831
jimbo 4815
muda 4785
filamu 4760
ali 4736
sasa 4723
zake 4720
mtu 4702
Makala 4691
nyingine 4679
tofauti 4653
B@@ 4635
hata 4625
y@@ 4586
tangu 4559
wote 4549
wao 4548
– 4544
mmoja 4535
3 4526
serikali 4501
kadhaa 4469
mashariki 4453
anga 4445
kutokana 4442
humo 4426
hivi 4419
om@@ 4407
nafasi 4404
aka 4392
Kaskazini 4380
ab@@ 4376
ar@@ 4372
wengine 4337
kuliko 4334
i@@ 4326
ma@@ 4309
hilo 4299
wan@@ 4265
S@@ 4260
tatu 4255
Tangu 4248
Kongo 4246
ua 4246
o@@ 4236
n@@ 4229
maisha 4227
pili 4222
&amp; 4214
oa 4214
&#124; 4186
Chuo 4173
H@@ 4163
si 4118
af@@ 4110
Mji 4103
Kim@@ 4096
kuhusu 4076
ap@@ 4074
ang@@ 4064
asi 4061
hili 4011
chake 4001
ag@@ 3997
baadaye 3991
duniani 3988
ziwa 3985
leo 3984
ama 3979
Sikukuu 3956
mujibu 3952
zi 3939
maeneo 3928
il@@ 3922
G@@ 3889
asili 3887
ari 3880
Ulaya 3849
kut@@ 3845
mkubwa 3830
D@@ 3828
ah@@ 3803
muhimu 3801
Kiingereza 3790
Ufaransa 3784
“ 3773
A@@ 3766
nje 3754
5 3752
on@@ 3747
shule 3743
Pia 3741
mchezaji 3740
4 3739
vi@@ 3733
mw@@ 3706
walikuwa 3696
Kis@@ 3692
maarufu 3687
bila 3679
Hindi 3675
kufanya 3673
ita 3666
kale 3663
O@@ 3647
Wak@@ 3625
Ujerumani 3615
mjini 3611
ch@@ 3610
ur@@ 3599
wana@@ 3595
Eneo 3593
watoto 3589
yaani 3586
Magharibi 3584
zote 3584
or@@ 3575
familia 3574
of 3572
aw@@ 3564
is@@ 3564
z@@ 3560
pekee 3554
kupitia 3550
” 3544
iki 3543
imani 3527
ikiwa 3513
ai 3501
Kib@@ 3492
una 3491
ok@@ 3488
mi@@ 3482
L@@ 3476
ul@@ 3460
wanawake 3448
20 3445
de 3441
zamani 3436
% 3427
kabisa 3424
The 3417
vita 3413
J@@ 3412
h@@ 3377
kuu 3374
Januari 3369
ek@@ 3369
ano 3357
Mei 3337
klabu 3336
ona 3328
kutumia 3321
ka 3314
wimbo 3312
habari 3307
os@@ 3297
ala 3288
ot@@ 3280
Wakristo 3275
up@@ 3270
mwisho 3263
elimu 3239
huwa 3231
bora 3220
E@@ 3211
10 3210
maana 3205
mtakatifu 3204
P@@ 3199
Oktoba 3198
Japani 3195
awali 3190
Italia 3161
ishwa 3141
Ch@@ 3137
mita 3131
wat@@ 3130
bunge 3129
mpya 3129
kipindi 3128
sh@@ 3126
mengine 3115
Kikuu 3112
albamu 3102
Julai 3091
hizi 3091
Roma 3090
BK 3089
Wa@@ 3086
mat@@ 3085
m 3083
Juni 3080
ambazo 3062
iwa 3048
6 3047
kupata 3040
ny@@ 3040
eni 3030
kuanzia 3030
mpira 3021
Novemba 3015
ishi 3015
Burundi 3012
waishio 3006
ad@@ 2996
okea 2994
19 2992
ing@@ 2981
kim@@ 2979
jamii 2975
mito 2967
umri 2962
ung@@ 2952
al 2946
Machi 2944
hayo 2942
biashara 2937
milioni 2932
Desemba 2927
Kit@@ 2923
Agosti 2918
Septemba 2910
2000 2905
Maisha 2892
Aprili 2876
huadhimishwa 2875
km 2874
Mak@@ 2873
mfano 2868
anza 2865
Historia 2864
in 2864
Mas@@ 2860
umia 2857
New 2854
wa@@ 2844
ata 2839
b@@ 2836
iri 2835
awa 2829
12 2826
takriban 2826
dunia 2825
pa 2825
usawa 2818
ati 2816
ir@@ 2813
una@@ 2812
idi 2808
2014 2802
alipo@@ 2793
itwa 2791
miguu 2781
7 2780
kifo 2770
aj@@ 2763
nguvu 2761
kimataifa 2759
F@@ 2758
Nigeria 2758
kiasi 2751
nyimbo 2747
Kuna 2746
isi 2743
2007 2741
Ma@@ 2736
oka 2730
15 2726
makuu 2721
amu 2720
msingi 2719
g@@ 2717
amba 2708
eli 2706
v@@ 2704
zili@@ 2701
em@@ 2697
weza 2691
Februari 2689
Yesu 2689
dini 2682
matumizi 2679
Z@@ 2671
Tuzo 2667
s 2667
endelea 2644
ea 2637
kisiwa 2637
mrefu 2637
Dunia 2636
ile 2628
amezaliwa 2627
ima 2627
zin@@ 2627
anda 2624
michezo 2624
Mw@@ 2620
x 2607
yan@@ 2607
binadamu 2604
unga 2603
an 2596
Hata 2589
Jamhuri 2587
en@@ 2581
mwenye 2581
hapo 2578
eti 2576
zao 2575
e@@ 2570
mengi 2555
historia 2554
alit@@ 2546
ulikuwa 2526
hizo 2522
Wan@@ 2520
kampuni 2513
es 2508
Katoliki 2507
ao 2506
Idadi 2501
f@@ 2500
aliye@@ 2496
aki@@ 2494
2008 2489
lili@@ 2486
ara 2485
V@@ 2484
2009 2483
18 2474
mechi 2470
fulani 2466
e 2465
ambalo 2463
the 2463
mpaka 2454
uwezo 2454
9 2452
olewa 2451
iti 2443
alicheza 2436
mtoto 2434
baadhi 2429
ig@@ 2428
mab@@ 2428
rasmi 2427
utawala 2426
ug@@ 2425
Y@@ 2420
uch@@ 2420
ema 2419
8 2416
mfumo 2414
2006 2410
of@@ 2408
Misri 2405
kwenda 2397
sheria 2396
inaweza 2393
ish@@ 2388
umika 2386
11 2381
oma 2381
lin@@ 2372
R@@ 2365
2011 2362
d 2361
inga 2356
Lakini 2351
uni 2348
Jina 2347
and@@ 2346
16 2342
mwandishi 2341
ol@@ 2340
Was@@ 2331
haki 2330
kiwango 2325
’ 2320
nne 2317
zinaz@@ 2317
on 2311
el@@ 2309
unda 2308
damu 2307
t@@ 2307
yo 2305
13 2303
di 2303
onekana 2303
wam@@ 2297
mwingine 2294
eza 2291
Kazi 2276
tuzo 2275
jumla 2273
2015 2270
17 2269
was@@ 2265
30 2264
mwili 2262
s@@ 2260
In@@ 2253
us 2253
Kil@@ 2243
shirika 2243
op@@ 2241
Marejeo 2240
rangi 2231
ugonjwa 2223
iliyo@@ 2212
ub@@ 2205
umiwa 2203
yeye 2202
chama 2201
az@@ 2186
14 2183
Ziwa 2183
ilit@@ 2178
ash@@ 2177
azi 2173
kucheza 2172
tu@@ 2170
kutoa 2167
ndege 2158
wal@@ 2157
ongo 2155
yali@@ 2154
neno 2151
id@@ 2141
asilimia 2139
ay@@ 2135
wana 2133
Umoja 2128
ambako 2117
kin@@ 2117
ndio 2117
Ku@@ 2115
onyesha 2115
uka 2112
Kin@@ 2108
sita 2106
mahali 2104
enda 2103
kumi 2100
am 2097
uma 2096
ila 2089
if@@ 2082
Ny@@ 2081
kuf@@ 2080
chuo 2077
nyota 2075
hapa 2074
iki@@ 2071
es@@ 2065
askofu 2061
Tanganyika 2058
mfalme 2057
da 2056
Mkuu 2050
halafu 2048
uhuru 2048
I 2047
Uturuki 2046
ich@@ 2042
mak@@ 2041
uwanja 2040
wanyama 2037
Amerika 2031
inay@@ 2028
bado 2026
ko 2025
ach@@ 2018
mambo 2016
mwezi 2012
2005 2007
ame@@ 2005
imu 2001
amb@@ 1994
mdogo 1993
og@@ 1990
jeshi 1989
ungu 1985
usi 1985
er@@ 1977
ingawa 1974
kik@@ 1973
fu@@ 1972
olojia 1972
Mar@@ 1967
21 1960
Wam@@ 1958
asilia 1958
katikati 1958
enga 1955
uchaguzi 1954
io 1952
ati@@ 1948
A 1947
Jimbo 1943
25 1939
II 1939
mama 1937
.@@ 1935
and 1935
mazingira 1934
kikuu 1932
alim@@ 1931
chakula 1931
ki 1929
Wakatoliki 1928
ndogo 1925
Uwanja 1918
Rais 1915
Atlantiki 1909
julikana 1904
kuj@@ 1904
2002 1898
² 1898
mwenyewe 1895
imba 1891
2010 1890
walio@@ 1889
kijiji 1883
kwake 1881
Sh@@ 1877
sawa 1877
zile 1875
Guinea 1874
Hii 1873
dawa 1872
huelekea 1872
hao 1869
aga 1864
Kig@@ 1861
Mat@@ 1856
Alikuwa 1854
Baadaye 1854
ungwa 1852
nyumbani 1850
An@@ 1849
Al@@ 1848
24 1846
fuata 1844
y 1843
ina@@ 1840
isho 1839
uf@@ 1838
eta 1836
Yeye 1832
jinsi 1831
li@@ 1829
okana 1828
makubwa 1824
ayo 1823
ule 1819
Mia 1818
namna 1818
aja 1815
Tarafa 1811
ha 1811
Kiarabu 1809
kup@@ 1807
maj@@ 1806
ta 1806
= 1805
Mara 1794
ziliz@@ 1792
ime@@ 1791
Waorthodoksi 1787
Kifaransa 1786
visiwa 1783
mp@@ 1778
wanaoishi 1777
C@@ 1776
Ng@@ 1776
au@@ 1776
ar 1775
ja 1775
rais 1775
Kama 1774
Ukristo 1772
Ghana 1771
hut@@ 1768
inat@@ 1766
mbali 1762
mu@@ 1762
kuz@@ 1759
pwani 1755
lilikuwa 1754
upo 1751
kisiasa 1749
hatari 1747
amia 1744
Vita 1742
Watu 1741
urefu 1741
baba 1738
wi 1728
2016 1726
matokeo 1724
Yohane 1723
alianza 1720
ha@@ 1719
mas@@ 1718
anaheshimiwa 1716
aliy@@ 1714
huduma 1714
kulingana 1714
mt@@ 1714
tano 1713
Mpya 1706
wenyewe 1703
kidogo 1702
adi 1700
tun@@ 1699
Kid@@ 1696
22 1689
saba 1688
hak@@ 1683
2018 1681
Orodha 1681
kitabu 1680
Tarehe 1677
ewa 1676
kanda 1673
av@@ 1672
ji 1667
Paulo 1666
amini 1665
kw@@ 1665
ana@@ 1660
nyumba 1659
spishi 1657
ob@@ 1655
mlima 1654
kit@@ 1653
huku 1652
watakatifu 1652
inayo@@ 1650
Jamii 1648
hewa 1648
d@@ 1647
hi 1645
kis@@ 1644
Urusi 1639
uzi 1639
ang 1637
picha 1637
vitabu 1637
Dar 1636
maneno 1634
haya 1633
walit@@ 1628
bali 1627
ambo 1625
mwigizaji 1625
joto 1624
miji 1624
Kuu 1622
Dola 1620
utamaduni 1617
wawili 1617
2017 1608
Hispania 1607
iga 1604
umbo 1603
vijana 1603
ti 1600
di@@ 1598
Kilatini 1597
ingia 1597
2013 1596
ikia 1594
r@@ 1594
mojawapo 1592
ale 1588
ba 1588
kuch@@ 1586
milima 1585
po@@ 1583
binafsi 1582
korongo 1576
ud@@ 1576
hi@@ 1575
Australia 1568
k 1567
2020 1563
makao 1561
aya 1560
23 1559
gt 1558
yanay@@ 1558
kur@@ 1557
abu 1556
Kiswahili 1555
shughuli 1554
ira 1552
umu 1551
masomo 1550
hicho 1546
uz@@ 1546
vin@@ 1544
Wab@@ 1540
hiki 1540
2019 1539
ho@@ 1539
postikodi 1539
andikwa 1536
et@@ 1536
ino 1536
l@@ 1535
sauti 1535
moyo 1534
si@@ 1534
majina 1533
ajwa 1532
msimu 1531
eh@@ 1530
ane 1529
lt 1528
Biblia 1527
et 1527
izi 1527
eka 1526
mbele 1525
! 1524
hatua 1523
Am@@ 1521
kilomita 1512
Hivyo 1510
Asia 1509
uru 1507
ndiyo 1506
ambacho 1505
100 1504
Ethiopia 1504
yak@@ 1501
Bonde 1497
2003 1495
ing 1492
ep@@ 1490
York 1489
2001 1488
Shule 1486
do 1485
wale 1485
alifariki 1484
John 1482
kili@@ 1482
th@@ 1480
linalopatikana 1479
mwimbaji 1479
28 1478
vyake 1478
iz@@ 1477
wap@@ 1474
yaliy@@ 1474
alik@@ 1470
iliy@@ 1470
27 1468
aki 1467
Wal@@ 1462
aka@@ 1459
anay@@ 1458
mabadiliko 1458
1990 1457
Salaam 1456
kul@@ 1455
ah 1454
kun@@ 1454
kote 1453
ong@@ 1453
2004 1450
kisha 1450
ardhi 1445
kuv@@ 1445
Mal@@ 1438
Uhindi 1434
wala 1434
umba 1433
26 1429
fu 1429
yako 1426
ip@@ 1425
Kir@@ 1424
apo 1423
eg@@ 1423
B 1421
utafiti 1421
mwanachama 1419
mfululizo 1418
od@@ 1418
maendeleo 1417
Kibantu 1414
kituo 1414
uj@@ 1413
mwanamke 1411
China 1409
um 1406
kitaifa 1404
ezwa 1399
Wat@@ 1398
ito 1398
kufikia 1397
Zanzibar 1395
any@@ 1395
.. 1392
ibu 1392
h 1389
kisasa 1389
soka 1387
bu@@ 1385
ez@@ 1379
n.k. 1376
ada 1375
aliwa 1375
walio 1375
Ak@@ 1371
majimbo 1370
posta 1370
oh@@ 1369
eng@@ 1368
naye 1368
vizuri 1368
alipata 1366
halisi 1364
uko 1364
ie 1362
haraka 1360
eb@@ 1358
to 1358
Waislamu 1357
Kigiriki 1355
asa 1355
kifupi 1352
Ufa 1349
mag@@ 1347
ifu 1344
aha 1339
ura 1339
29 1337
ishaji 1336
kiongozi 1335
aliz@@ 1333
walik@@ 1333
kikubwa 1332
Chama 1330
aba 1325
map@@ 1325
rekodi 1323
alifanya 1315
oko 1315
Vi@@ 1314
miwili 1314
matatizo 1313
vit@@ 1311
Maj@@ 1309
fanya 1308
eo 1307
Kale 1304
ji@@ 1301
upendo 1301
kub@@ 1300
undi 1299
Maria 1298
Kirumi 1297
mb@@ 1297
oz@@ 1297
oto 1296
esha 1295
tabia 1293
hakuna 1291
jiji 1290
sanaa 1289
mwanzo 1288
Makao 1285
ae 1285
hus@@ 1285
zo 1285
zinazo@@ 1284
Nairobi 1282
uchumi 1281
Wah@@ 1277
ib@@ 1277
kamili 1277
uh@@ 1277
lik@@ 1276
kuishi 1275
Mlima 1274
Lugha 1273
mashindano 1271
siasa 1271
angaza 1269
ou@@ 1269
kali 1267
matibabu 1266
ye 1264
wenzake 1261
Mataifa 1260
at 1257
kusababisha 1255
umeme 1255
Mag@@ 1254
Man@@ 1254
ela 1253
msanii 1253
el 1252
amani 1250
unao@@ 1250
uli 1249
afya 1248
ih@@ 1247
kina 1246
ti@@ 1246
ma 1245
kuingia 1244
waf@@ 1243
ndiye 1241
bo@@ 1239
mah@@ 1239
nyuma 1239
uri 1239
Kiaustronesia 1238
huitwa 1238
uta 1237
ombe 1236
Wimbo 1235
wiki 1235
ari@@ 1234
uv@@ 1234
Kar@@ 1232
kweli 1232
omo 1230
ania 1229
mwanasiasa 1229
atia 1228
ate 1227
ole 1227
vifaa 1226
ow@@ 1225
é 1225
sifa 1222
acha 1221
mwan@@ 1217
orodha 1217
Turkana 1216
kike 1215
wanafunzi 1215
bara 1214
uliwa 1214
Ar@@ 1212
ov@@ 1212
kabila 1211
we@@ 1208
Kimataifa 1205
Mad@@ 1205
ej@@ 1205
kilimo 1205
Kal@@ 1204
mshindi 1203
seli 1203
ba@@ 1202
Bar@@ 1201
kijamii 1200
anzisha 1198
kuh@@ 1197
dalili 1194
hal@@ 1194
31 1193
is 1193
udi 1193
1999 1191
afu 1190
akawa 1190
10@@ 1189
ogo 1188
ukubwa 1188
ango 1187
kushinda 1186
ongoza 1184
inayot@@ 1182
Kikristo 1181
egemea 1178
huru 1178
mkono 1177
alis@@ 1175
indi 1175
tarakimu 1174
Kombe 1172
mchezo 1171
Bwana 1170
endo 1170
lenye 1168
maalumu 1168
Kiafrika 1167
pewa 1167
Shirika 1166
g 1166
ulit@@ 1164
omba 1161
enzi 1160
och@@ 1160
oro 1160
bendi 1159
du 1159
ele 1159
Indonesia 1156
inayofuata 1156
mafuta 1154
jua 1153
mingi 1151
alijiunga 1150
awe 1149
umma 1149
lazima 1148
Hapo 1146
Un@@ 1145
amp 1144
uti 1144
As@@ 1142
aza 1137
zenye 1136
akili 1135
as 1135
b 1134
Kas@@ 1133
awala 1133
kumbukumbu 1133
mg@@ 1133
Th@@ 1132
bu 1132
uhusiano 1130
kuli@@ 1129
ato 1128
bi@@ 1128
kura 1127
ng@@ 1127
anat@@ 1125
wani 1125
kuzuia 1124
ungua 1123
walioishi 1122
zilizo@@ 1120
ong 1118
1991 1117
Siku 1116
ndugu 1116
Kijerumani 1114
mapema 1114
er 1113
tasa 1113
vijiji 1113
wafiadini 1113
Kih@@ 1111
apo@@ 1111
mamlaka 1111
Albamu 1110
maziwa 1110
mbinu 1109
nusu 1109
badala 1108
kuto@@ 1108
iriki 1107
kulikuwa 1107
watumwa 1107
isi@@ 1106
heshima 1105
wach@@ 1105
vitu 1103
Map@@ 1100
undwa 1100
miezi 1099
zil@@ 1098
kikundi 1097
kuw@@ 1096
tar 1096
yoyote 1096
Mu@@ 1094
zwa 1094
hadithi 1093
unaweza 1093
tayari 1092
vy@@ 1092
shahada 1089
kufa 1087
pokea 1087
bidhaa 1086
miongoni 1086
Sudan 1085
kitu 1082
kutangulia 1081
zim@@ 1081
era 1079
1995 1077
-------- 1076
unat@@ 1076
vingine 1076
apa 1075
inayoandikwa 1075
l 1075
Baba 1074
Ab@@ 1073
isa 1073
mafanikio 1070
moto 1069
Ingawa 1068
angwa 1068
hawa 1068
iliyot@@ 1065
kid@@ 1065
1994 1064
barabara 1064
ezi 1064
kuk@@ 1064
safari 1064
Kam@@ 1063
lilil@@ 1063
Kif@@ 1062
kuji@@ 1062
alama 1061
zinaweza 1060
angazwa 1059
irika 1059
yam@@ 1059
huyo 1058
nane 1058
wanaweza 1057
Sehemu 1056
? 1055
po 1055
ke 1053
tisa 1053
50 1052
Mb@@ 1052
hau@@ 1052
kuanzisha 1052
anacheza 1051
wanaume 1051
Ivoire 1050
aribu 1050
karibuni 1050
Hasa 1048
ai@@ 1047
ezo 1047
wahi 1047
Kisiwa 1046
Miaka 1046
aliyekuwa 1046
indwa 1046
mawili 1041
mch@@ 1041
1993 1040
mimea 1040
oti 1040
umwa 1040
zi@@ 1040
Al 1039
linal@@ 1037
wasanii 1037
mit@@ 1036
mkataba 1036
40 1035
ain@@ 1035
dia 1034
makabila 1034
1997 1033
awi 1033
koloni 1032
en 1031
inda 1031
iti@@ 1031
kichwa 1031
mz@@ 1030
Wayahudi 1029
Waziri 1027
ongozwa 1027
msaada 1026
engo 1025
uo 1025
Aliwahi 1022
akuwa 1022
elekea 1021
har@@ 1021
kuzaliwa 1021
man 1021
oli 1021
Baadhi 1020
kimo 1019
mashuhuri 1019
amua 1018
azo 1018
elewa 1018
1998 1017
t 1016
Elimu 1014
Nchi 1013
are 1008
maalum 1007
War@@ 1006
vil@@ 1006
wazi 1006
oj@@ 1005
Mtakatifu 1004
zilikuwa 1004
Kiniger 1003
wadogo 1003
Israeli 1002
ham@@ 1002
osa 1002
anzishwa 1001
enea 1001
kutengeneza 1001
ulimwengu 1001
alishinda 1000
cheo 1000
London 999
programu 998
ike 997
Kidemokrasia 994
Wali@@ 994
mar@@ 992
yalikuwa 992
1996 991
mik@@ 991
Cote 990
1980 989
kijeshi 989
mad@@ 989
1970 988
Mab@@ 988
vingi 988
Pamoja 987
hai 987
kutokea 987
or 987
ulio@@ 986
safu 985
haz@@ 984
Papua 983
kush@@ 983
lina 983
ahidi 981
anywa 980
kil@@ 980
pu@@ 980
video 980
wako 980
viongozi 978
1992 977
Mwan@@ 977
chache 976
Tana 975
onga 975
kuanza 974
mpango 974
wen@@ 973
jo 972
usiku 972
eri 971
kuunda 971
ra 970
Nyanza 969
City 966
imekuwa 966
vu 965
2@@ 964
dola 964
jambo 964
jirani 964
uso 963
zina@@ 963
mwanamuziki 962
ine 961
kar@@ 961
kuelekea 960
ono 960
United 957
imo 957
televisheni 956
virusi 956
be@@ 955
fedha 955
ishia 955
pande 955
athari 954
jeni 953
Uislamu 952
Leo 951
kuchukua 950
masuala 949
waka@@ 949
kanuni 948
wah@@ 948
kujenga 946
California 945
esi 945
kanisa 945
makazi 945
ote 945
pale 945
angalia 944
kupunguza 942
mwanzilishi 942
ush@@ 942
Kabla 941
ng 941
usha 940
Korea 939
kujiunga 939
mfiadini 938
ori 938
ambavyo 937
esh@@ 937
Kiy@@ 936
du@@ 936
ota 936
Waarabu 934
aidia 934
ezea 934
Brazil 933
Nobel 933
alif@@ 933
waki@@ 933
wame@@ 933
anya 931
kua 931
baridi 930
wakilisha 930
Muziki 929
iliwa 929
ulia 928
• 928
alia 925
mapokeo 925
sala 925
uliopo 925
umb@@ 925
one 924
ge 923
hifadhi 922
aweza 921
kwani 921
mfupi 921
magonjwa 919
ko@@ 918
ed@@ 916
Hapa 915
maf@@ 915
ef@@ 914
ora 914
ume 914
chati 913
mataifa 913
pata 913
engenezwa 912
osi 912
kushika 911
mtandao 911
ak 910
yaliyo@@ 910
dhuluma 909
Har@@ 908
kurudi 908
meli 907
ilianzishwa 906
lengo 906
viwango 906
kadiri 905
osh@@ 905
vilevile 905
ngozi 904
Mp@@ 903
umi 903
nao 902
C 901
Injili 901
mikoa 901
Ligi 900
vyombo 899
atwa 898
ulioko 898
kuendelea 897
engwa 896
kilikuwa 896
kusoma 896
mtindo 896
Taifa 895
man@@ 894
afuta 893
bar@@ 893
ge@@ 893
Arusha 892
anajulikana 892
kan@@ 892
mawasiliano 892
wezesha 890
Bunge 889
embe 889
ikwa 889
roho 888
El@@ 887
Waf@@ 887
wanat@@ 887
jit@@ 886
mbio 886
mraba 886
wanao@@ 886
hutumika 885
zinazot@@ 885
avu 884
mbaya 884
zina 884
Kuanzia 883
lil@@ 883
Tanga 882
Vigawo 882
200 881
ad 881
maambukizi 881
makundi 881
Ili@@ 880
anaweza 880
1988 879
ezaji 879
matukio 879
mvua 879
kando 878
1960 877
Kab@@ 877
Kip@@ 877
le 877
saa 877
kuongeza 876
pe@@ 876
utu 875
Ali 874
umbali 874
hat@@ 873
kuona 873
mali 873
adi@@ 872
Vijijini 871
basi 871
ngazi 870
Di@@ 869
Vietnam 868
je 868
unganisha 868
Kanada 867
andika 867
chanzo 867
mbunge 867
muundo 867
ou 867
ibada 866
kutaja 866
uku 866
Msimbo 863
r 862
vyote 861
wadudu 861
mwanzoni 860
ru@@ 860
uny@@ 860
usi@@ 860
vili@@ 860
Alit@@ 858
ida 858
mwalimu 857
wananchi 857
ndoa 856
waz@@ 856
ilia 855
kon@@ 855
n 855
penda 855
yanayo@@ 854
war@@ 853
yale 853
Bo@@ 852
uongozi 851
afanya 850
taasisi 850
Kitabu 849
Kutokana 849
dogo 849
miti 849
st@@ 849
wasi@@ 849
Ut@@ 848
alisema 848
sekondari 848
4@@ 847
Mah@@ 847
opatikana 847
unguka 847
hay@@ 845
ingo 845
padri 845
wakiwa 845
z 845
Mjini 844
kujit@@ 843
uza 843
kufika 842
ongezeka 841
Sheria 840
mach@@ 840
kompyuta 839
yetu 839
askari 838
Morogoro 837
kutumika 837
pot@@ 837
alish@@ 836
kumu@@ 836
ta@@ 836
waliot@@ 836
Hali 834
ij@@ 832
kuwepo 832
zingine 831
kam@@ 830
Ame@@ 829
kusaidia 828
ene 827
inap@@ 827
ungo 827
Serikali 826
akam@@ 826
wastani 826
heri 825
dhahabu 824
Wap@@ 823
ambuliwa 823
mmojawapo 823
taarifa 822
Wanawake 821
samaki 821
tiki 821
4,@@ 818
Kwanza 818
Rwanda 818
maonyesho 817
1989 816
kilich@@ 816
olo 816
‘ 816
lililo 814
ilik@@ 812
yi 812
1987 810
anyika 810
juhudi 810
ujenzi 810
fupi 809
Waingereza 808
Botswana 807
Filamu 807
Uholanzi 807
gazeti 807
kinach@@ 807
ufalme 807
ofanya 806
silaha 806
to@@ 806
wingi 806
mtunzi 804
Ru@@ 803
barani 803
ligi 803
adili 802
0 801
ath@@ 801
chang@@ 801
Na 800
kasi 799
ga 798
hutumia 797
kiuchumi 797
os 797
ulu 797
utaratibu 797
kuandika 796
msh@@ 796
ongeza 796
uw@@ 796
liwa 795
ubongo 795
husika 794
sayansi 794
umaarufu 794
re@@ 793
te@@ 792
ushindi 791
biwa 790
do@@ 790
eshi 790
li 790
baina 789
ukua 788
maadili 787
India 786
ilitolewa 786
un 786
ilianza 785
kuwa@@ 785
Akiwa 784
Dodoma 783
Kiz@@ 782
tarafa 782
Zimbabwe 781
ikawa 781
yal@@ 781
1,@@ 780
wenyeji 780
mke 779
sa 779
eleza 778
Wakazi 777
kupiga 777
mafundisho 777
maumivu 777
pengine 777
2021 775
Kiislamu 775
Paris 775
ambua 774
iliopo 774
mabao 774
omu 774
1@@ 773
Kan@@ 773
iliyokuwa 773
mafunzo 773
pombe 773
Fransisko 772
mwishoni 772
Angola 771
ake 771
nzuri 771
upya 771
La 770
isipokuwa 770
5@@ 769
maandishi 769
Alizaliwa 768
Sahara 768
iliyo 768
mwendo 768
uchunguzi 768
akit@@ 767
ako 767
Mi@@ 766
asi@@ 766
kiume 766
aliandika 765
imb@@ 765
zinat@@ 765
jukumu 764
pesa 764
Mtume 763
isti 763
kuonekana 763
mchanganyiko 763
amp@@ 762
iba 762
madhehebu 761
uu 760
Kila 759
West 759
alihamia 759
yo@@ 759
vid@@ 757
kuja 756
Ta@@ 755
bi 755
raia 755
umoja 755
waj@@ 755
Mur@@ 754
imet@@ 754
B.K. 753
Wag@@ 753
lao 753
mkutano 753
Ad@@ 752
iv@@ 752
wataalamu 752
mashirika 750
apatikana 749
bakteria 749
barua 749
ere 749
mno 749
wazazi 749
teknolojia 748
amo 747
harakati 747
sa@@ 747
Kich@@ 746
Mus@@ 746
binti 746
kudumu 746
yanaweza 746
Kamerun 745
iku@@ 745
kesi 744
Michael 743
Tar@@ 743
ech@@ 743
emb@@ 743
toleo 743
wash@@ 743
Hakuna 742
akana 742
faida 742
walipo@@ 742
lime@@ 740
wanachama 740
unguza 737
ando 735
ukoloni 735
Yerusalemu 734
kwao 734
wafuasi 734
Sanaa 733
Ush@@ 733
gari 733
reli 733
wezi 733
Asili 732
dh@@ 732
kip@@ 732
waliokuwa 732
0,000 731
U 731
Mbeya 730
le@@ 730
mimba 729
wag@@ 729
Sam@@ 728
fika 728
Upande 727
Ureno 727
ei 727
En@@ 726
Hu@@ 726
angu 726
ilisha 726
lina@@ 726
wakubwa 726
ofisi 725
ula 725
uwezekano 725
3@@ 724
III 724
kom@@ 723
mradi 723
uku@@ 723
kushiriki 722
su@@ 722
upinzani 722
Spishi 721
daraja 721
vipindi 721
Olimpiki 720
Uchina 720
kui@@ 720
mal@@ 720
unaot@@ 720
Kol@@ 719
hutokea 718
kufuata 718
° 718
kaisari 717
Bal@@ 716
Kor@@ 716
Ugiriki 716
end@@ 716
it 716
iy@@ 716
madogo 716
Cape 715
James 715
akat@@ 715
dhambi 715
hutumiwa 715
alitoa 714
br 714
chi 714
de@@ 714
Wajerumani 713
for 713
ilim@@ 713
kuweka 713
pi@@ 713
alianzisha 712
ovu 712
riwaya 712
macho 711
ri 711
sha 710
Kat@@ 709
Sal@@ 709
Wasifu 709
chu@@ 709
kumaliza 709
monasteri 708
6@@ 707
Aina 706
Visiwa 706
ni@@ 706
wagonjwa 706
yenyewe 706
kikosi 705
Algeria 704
Neno 704
Roho 704
be 704
eng 704
kihistoria 704
kutolewa 704
viwanda 704
ehe 703
ir 703
jengwa 703
kab@@ 702
Lu@@ 701
Nyumba 701
uki@@ 701
Kampuni 699
bandari 699
enti 699
ev@@ 699
ola 699
studio 699
Mo@@ 698
kilicho@@ 697
ro@@ 697
Aleksandria 696
Mt@@ 696
tisha 696
R 695
kuonyesha 695
ujumla 695
yana@@ 695
Agano 694
ishara 694
jumuisha 694
Kitaifa 693
Il@@ 692
alij@@ 692
redio 691
se@@ 691
weka 691
Is@@ 690
anaye@@ 690
Mchezaji 689
Waafrika 689
mauaji 689
umbu@@ 689
Ag@@ 688
amekuwa 688
onyeshwa 688
soko 688
1982 687
Africa 687
haw@@ 687
kutafuta 687
vik@@ 687
Kigoma 686
Muungano 686
ambaa 686
Mkristo 685
alipokuwa 685
asema 685
c 685
jenasi 685
anam@@ 684
ume@@ 683
adilika 682
kinga 682
1981 681
Baraza 681
Shirikisho 681
nia 681
uzwa 681
1986 679
unganishwa 679
ukweli 678
African 677
chukua 677
igo 677
idh@@ 675
uzito 675
bo 674
iro 674
ena 673
mapinduzi 673
500 672
Kur@@ 672
Petro 672
alichaguliwa 671
kia 671
lilit@@ 671
makala 671
ony@@ 671
Mtwara 670
amet@@ 670
mk@@ 670
q@@ 670
Somalia 669
tukio 669
Milima 668
amri 668
alipokea 667
amil@@ 667
majaribio 666
zilizot@@ 666
Ubelgiji 665
apata 665
ushwa 665
Kut@@ 664
Ufalme 664
hop 664
mtayarishaji 664
iliyopita 663
60 662
VVU 662
kiungo 662
Galana 661
athiri 660
pan@@ 660
elezea 659
ende 659
had@@ 659
1985 658
Mfalme 658
polisi 658
yat@@ 658
1984 657
alo 657
evu 657
idae 657
El 656
FIFA 656
Pius 656
katiba 656
kich@@ 656
ofu 656
zilit@@ 656
angi 655
fa 655
kupokea 655
Nam@@ 654
itaji 654
ju@@ 654
mitatu 654
mj@@ 654
nakala 654
p 653
Austria 652
FC 652
angani 652
hip 652
ri@@ 652
uhusu 652
waliouawa 652
William 651
mawe 651
uzazi 651
aswa 650
hum@@ 650
3,@@ 649
hup@@ 649
taratibu 649
ubali 649
wanaheshimiwa 649
imep@@ 648
Habari 647
Kilimanjaro 647
haku@@ 647
mayai 647
vikundi 647
Hadi 646
Vy@@ 646
herufi 646
wanajeshi 646
aliza 645
hul@@ 645
ilich@@ 645
usu 645
mbegu 644
Mama 643
Mon@@ 643
ilipo@@ 643
kat@@ 643
X 642
mf@@ 642
sherehe 642
5,@@ 641
George 641
Athi 640
afanana 640
kufu@@ 640
simu 640
und@@ 640
ami 639
aye 639
hawak@@ 639
kula 639
kinyume 638
hur@@ 637
7,@@ 636
Kaisari 636
Msumbiji 636
athiriwa 636
mis@@ 636
oo 636
usimamizi 636
wachache 636
Paul 635
sura 635
te 635
me@@ 634
walim@@ 634
wazo 634
kas@@ 633
ndi@@ 633
tak@@ 633
wafanyakazi 633
iliyopo 631
inas@@ 631
ol 631
ame 630
baharini 630
kukam@@ 630
lililo@@ 630
Joseph 629
Unguja 629
ingana 629
mawazo 629
wenda 629
Jua 628
Jeshi 627
King@@ 627
O 627
vituo 627
Far@@ 626
gesi 626
Utafiti 625
Alianza 624
kij@@ 624
tiba 623
Kaunti 622
chombo 622
elek@@ 622
watatu 622
waziri 622
Chini 621
uba 621
Zambia 620
adiriwa 620
alil@@ 620
iny@@ 620
kiny@@ 620
tawi 620
Iko 619
mirefu 619
toka 619
ungaji 619
* 618
300 618
Ko@@ 618
Malcolm 618
Waj@@ 618
jijini 618
kisayansi 618
400 617
Taasisi 617
Uchaguzi 617
afiri 617
kijijini 617
Chi@@ 616
inak@@ 616
kutosha 616
sayari 616
eshwa 615
Jum@@ 614
kutu@@ 614
siri 614
udia 614
ee 613
mash@@ 613
oga 613
ukiwa 613
kuongezeka 612
K.K. 611
Sabaki 611
usa 611
fun@@ 610
huyu 610
ondo 610
vikuu 610
waji 610
mashairi 609
pin@@ 609
6,@@ 608
majira 608
neema 608
matunda 607
2,@@ 606
National 606
far@@ 606
kutambua 606
Uswidi 605
X@@ 604
w 604
Mor@@ 603
afuata 603
ishirini 603
Q@@ 602
ika@@ 602
ingi 602
mifumo 602
nadharia 602
CCM 601
Mer@@ 601
okeza 601
ombo 601
wachezaji 601
Par@@ 600
misitu 600
oy@@ 600
shida 600
Ka@@ 599
Wach@@ 599
aanisha 599
engeneza 599
mam@@ 599
ujuzi 599
ze 599
Ig@@ 597
endel@@ 597
min@@ 597
mwana 597
nguo 597
iliki 596
jiunga 596
ugu 596
viungo 596
80 595
Hatimaye 595
Saint 595
ilikadiriwa 595
nzima 594
ten@@ 594
Ser@@ 593
andaa 593
hospitali 593
kuleta 593
mikubwa 593
mwanaharakati 593
uia 593
ne 592
Mik@@ 591
Us@@ 591
kidini 591
kuenea 591
nini 591
ra@@ 591
ungana 591
Si@@ 590
alfabeti 590
huj@@ 590
ukuliwa 590
inah@@ 589
kupatikana 589
ond@@ 589
East 588
Mis@@ 588
Nak@@ 588
haj@@ 588
mapigano 588
walianza 588
wanah@@ 588
1964 587
Jiografia 587
afa 587
milki 587
Bora 586
Robert 586
avy@@ 586
isim@@ 586
kaka 586
majani 586
undo 586
walish@@ 586
Awards 585
Maz@@ 585
ingwa 585
rahisi 585
aliwahi 584
nayo 584
apishwa 583
kusema 583
uzalishaji 583
kiroho 582
mikono 582
pen@@ 582
Bu@@ 581
Matumizi 581
ende@@ 581
ya@@ 581
zik@@ 581
UKIMWI 580
aguliwa 580
ajiri 580
mi 580
nyeupe 580
Charles 579
kuhamia 579
nishati 579
row 579
vifo 579
0@@ 578
Up@@ 578
Kituo 577
ulimwenguni 577
ushirikiano 577
vyama 577
yon@@ 577
zime@@ 577
Me@@ 576
ajabu 576
chem@@ 576
70 575
anap@@ 575
gharama 575
kundinyota 575
Re@@ 573
1950 572
Benki 572
peke 572
South 571
Uajemi 571
shu@@ 571
sin@@ 571
etea 570
kiko 570
pat@@ 570
alisoma 569
mingine 569
San 568
dakika 568
kilometa 568
madini 568
Nile 567
chuma 567
endesha 567
ngoma 567
uliot@@ 567
vyo 567
David 566
E 565
linalo@@ 565
mipango 565
D 564
Le@@ 564
TV 564
gi@@ 564
mpangilio 564
viwili 564
+ 563
Ina@@ 563
Mit@@ 563
Tabora 563
ekwa 563
ui 563
afiki 562
umishi 562
umuhimu 562
-@@ 561
International 561
elementi 561
Kagera 560
milele 560
ndefu 560
ofanana 560
ohusiana 560
tan@@ 560
akazi 559
ekundu 559
iriwa 559
kutoweka 559
unzi 559
Jumuiya 558
ajulikana 558
ay 558
chenye 558
kimoja 558
mkurugenzi 558
single 558
usalama 558
mia 557
sahihi 557
Kisha 556
masi 556
ulinzi 556
yanaelekea 556
yangu 556
# 555
aliweza 555
ambia 555
anak@@ 555
kiz@@ 555
nyama 555
iitwayo 554
kufuatana 554
mahitaji 554
mil@@ 554
90 553
Njia 553
Viungo 553
adh@@ 553
isitiza 553
lote 553
maskini 553
omea 553
medali 552
Na@@ 551
Records 551
ue 551
ukoo 551
10,000 550
Kh@@ 550
aliendelea 550
alipewa 550
izwa 550
fasihi 549
hinda 549
vyuo 549
Be@@ 548
Kwenye 548
avyo 548
avyo@@ 548
benki 548
jadi 548
majengo 548
mzuri 548
viumbe 548
wekwa 548
Lindi 547
kug@@ 547
nyekundu 547
tatizo 547
Senegal 546
T 546
aliyet@@ 546
x@@ 546
Mpaka 545
North 545
andi 545
iliana 545
ku 545
ushahidi 545
Guthrie 544
Sayansi 544
ic@@ 544
wanamuziki 544
f 543
N 542
aliteuliwa 542
he 541
thamani 541
vipimo 541
1979 540
falsafa 540
Her@@ 539
Manchester 539
a.@@ 539
kile 539
mwanafunzi 539
ongezeko 539
tr@@ 539
ung 539
yanayot@@ 539
ab 538
emba 538
isiyo 538
usisha 538
Kihindi 537
Maendeleo 537
imbaji 537
kir@@ 537
wez@@ 537
ziko 537
Mwezi 536
huweza 536
kuimba 536
opo 536
1977 535
Ur@@ 535
abati 535
itumia 535
olea 535
uki 535
Peter 534
ed 534
Muh@@ 533
Mwanza 533
Ndugu 533
kitovu 533
mig@@ 533
1978 532
Huko 532
Jackson 532
kijana 532
School 531
eke 531
1983 530
9,@@ 530
Car@@ 530
kupita 530
ley 530
Biashara 529
Kw@@ 529
Mfano 529
Sa@@ 529
bei 529
kisheria 529
kuwas@@ 528
Mtaguso 527
V 527
ant@@ 527
kuacha 527
5,000 526
andi@@ 526
kitamaduni 526
1975 525
Mapinduzi 525
aliyo@@ 525
euliwa 525
icho 525
imara 525
inaf@@ 525
kumw@@ 525
mashamba 525
World 524
aria 524
Jersey 523
hudumu 523
kinacho@@ 523
Kiebrania 522
Ni@@ 522
Pili 522
akati 522
fainali 522
indana 522
sim@@ 522
akifunga 521
gh@@ 521
kukaa 521
kuongoza 521
risasi 521
usika 521
7@@ 520
Hifadhi 520
Mkoani 520
Pwani 520
Tu@@ 520
nasaba 520
Kutoka 519
maelezo 519
shinikizo 519
so@@ 519
yaliyot@@ 519
Kon@@ 518
Muhammad 518
Wazungu 518
son 518
ujumbe 518
undua 518
Kom@@ 517
Michezo 517
Wad@@ 517
8,@@ 516
ekuwa 516
elea 516
ew@@ 516
mapafu 516
waandishi 516
é@@ 516
... 515
ambi 515
se 515
Gregori 514
lia 514
mtaalamu 514
tam@@ 514
umo 514
Kum@@ 513
akim@@ 513
bin 513
hisia 513
osha 513
udumu 513
usafiri 513
Kundi 512
Tak@@ 512
daktari 512
kufuatia 512
mchakato 512
vilivy@@ 512
1969 511
IV 511
jangwani 511
magari 511
mazao 511
ik 510
kulia 509
ndipo 509
nyakati 509
ushi 509
yana 509
1976 508
Ruvuma 508
inajulikana 508
yalit@@ 508
Gu@@ 507
bao 507
ilipata 507
j 507
kh@@ 507
sal@@ 507
wanak@@ 507
Basi 506
Music 506
ac@@ 506
irikiana 506
ur 506
uy@@ 506
vyo@@ 506
1963 505
Bur@@ 505
Kap@@ 505
Li@@ 505
Mali 505
c@@ 505
maoni 505
mipaka 505
sera 505
wanap@@ 505
Mombasa 504
ifanya 504
pas@@ 504
takribani 504
gu@@ 503
ikilia 503
ist@@ 503
mazoezi 503
wenzao 503
Argentina 502
eto 502
kisiwani 502
kuuza 502
linat@@ 502
oidi 502
uti@@ 502
vidogo 502
vis@@ 502
Alipata 501
Kirusi 501
hesabu 501
ilish@@ 501
minne 501
mo@@ 501
kana 500
wowote 500
Sous 499
kujitawala 499
mapenzi 499
faa 498
gani 498
kukuza 498
kuta 498
mstari 498
Su@@ 497
Utawala 497
amiwa 497
barafu 497
hupatikana 497
kavu 497
préfecture 497
upasuaji 497
eki 496
1972 495
scope 495
vim@@ 495
dada 494
kibiashara 494
ukuaji 494
Ram@@ 493
cho@@ 493
him@@ 493
hutoa 492
ikit@@ 492
ilhali 492
kud@@ 492
lo@@ 492
mwenyekiti 492
ubaguzi 492
ulianza 492
ye@@ 492
Ang@@ 491
hufanya 491
kukua 491
suala 491
ufu@@ 491
Nyam@@ 490
awa@@ 490
fa@@ 490
wanaot@@ 490
Askofu 489
Ho@@ 489
Wikipedia 489
par@@ 489
aji@@ 488
osababisha 488
wav@@ 488
Uf@@ 487
inayoitwa 487
mashine 487
mwanga 487
ondoka 487
1961 486
1974 486
Or@@ 486
Tam@@ 486
Town 486
Uchumi 486
imbia 486
adilishwa 485
kalenda 485
mich@@ 485
mzima 485
ulianzishwa 485
Ber@@ 484
Juu 484
Uswisi 484
beba 484
esabiwa 484
kuondoka 484
kushindwa 484
onia 484
utia 484
Kivuka 483
Kus@@ 483
You 483
jinsia 483
Iringa 482
Sar@@ 482
by 482
embo 482
gea 482
injini 482
matatu 482
muungano 482
ome 482
Kulingana 481
Singida 481
Vilevile 481
atu 481
ey@@ 481
fik@@ 481
yeyote 481
Ndege 480
iria 480
omunisti 480
upana 480
wali 480
Bas@@ 479
Kiv@@ 479
Nyerere 479
Se@@ 479
alichunguza 479
alikua 479
hula 479
onda 479
asidi 478
huenda 478
sik@@ 478
tovuti 478
Malawi 477
Pakistan 477
Te@@ 477
Uz@@ 477
anz@@ 477
hara 477
ind@@ 477
taa 477
1973 476
Kioseaniki 476
Ndiyo 476
kubali 476
alimtangaza 475
baki 475
chumvi 475
mti 475
oi 475
wasichana 475
We@@ 474
hitimu 474
ke@@ 474
mkali 474
rafiki 474
wanda 474
1967 473
polepole 473
Ilikuwa 472
afikia 472
huz@@ 472
protini 472
Mau@@ 471
St@@ 471
aminika 471
em 471
ista 471
kani 471
pe 471
sumu 471
tim@@ 471
uga 471
data 470
hibi@@ 470
udongo 470
urithi 470
weusi 470
Urefu 469
aulu 469
ekea 469
iliz@@ 469
utendaji 469
vinavy@@ 469
alitumia 468
ingi@@ 468
kurekodi 468
ms@@ 468
vinavyo@@ 468
esheni 467
kampeni 467
marufuku 467
Washington 466
ani@@ 466
azama 466
jengo 466
madhara 466
mpiga 466
runinga 466
sw@@ 466
walij@@ 466
win@@ 466
andishi 465
atikana 465
mshairi 465
watawala 465
Kinapatikana 464
Tofauti 464
husababisha 464
ii 464
inj@@ 464
msimbo 464
ngumu 464
ondoa 464
ro 464
M 463
anzi 463
ava 463
dhana 463
iwe 463
mapya 463
unap@@ 463
Kihispania 462
Kitui 462
Mch@@ 462
Ndani 462
anisha 462
desturi 462
Mil@@ 461
Tun@@ 461
kujua 461
uandishi 461
ababishwa 460
ago 460
etu 460
isheni 460
wasio 460
yanat@@ 460
1965 459
ahili 459
safi 459
wageni 459
35 458
600 458
8@@ 458
Duniani 458
Uch@@ 458
alishiriki 458
emi 458
ihusisha 458
kuuawa 458
Anatolia 457
alifunga 457
eko 457
ipo 457
sio 457
wakuu 457
Mt 456
alirudi 456
anaj@@ 456
ataa 456
eshimiwa 456
kombe 456
mwen@@ 456
ncha 456
ofanywa 456
Mambo 455
hati 455
ilo 455
onge 455
Pol@@ 454
kukubali 454
zifuatazo 454
Mach@@ 453
Mkutano 453
obaki 453
son@@ 453
anayejulikana 452
ayarishwa 452
bilioni 452
Vit@@ 451
Wengine 451
afiti 451
alivy@@ 451
ilivyo 451
imbwa 451
ivu 451
miz@@ 451
mwingi 451
thi 451
usishwa 451
dio 450
lim@@ 450
majukumu 450
por@@ 450
wetu 450
Ina 449
Moroko 449
agua 449
asha 449
ilif@@ 449
iliyop@@ 449
mani 449
mapato 449
metali 449
neva 449
Per@@ 448
homa 448
kr@@ 448
mfu@@ 448
wer@@ 448
Bi@@ 447
Haki 447
vir@@ 447
1971 446
jini 446
kipimo 446
kizazi 446
kuham@@ 446
mgongo 446
pitia 446
tia 446
Billboard 445
Afya 444
Sababu 444
matendo 444
ubu 444
upe 444
waamini 444
Kr@@ 443
im 443
kinat@@ 443
kutumiwa 443
zilizo 443
800 442
Muk@@ 442
Zaidi 442
asim@@ 442
uyu 442
wakimbizi 442
Sak@@ 441
kk 441
kubadilisha 441
labda 441
mzunguko 441
vyakula 441
ze@@ 441
De@@ 440
Tr@@ 440
Wav@@ 440
adhili 440
asia 440
chukuliwa 440
mchanga 440
mdomo 440
Msh@@ 439
Uhuru 439
kiini 439
land 439
vipande 439
1962 438
Az@@ 438
Richard 438
awaliwa 438
ek 438
kuendeleza 438
kuondoa 438
nuru 438
sk@@ 438
32 437
S 437
alip@@ 437
kibinafsi 437
mitano 437
Ha@@ 436
Hal@@ 436
Kata 436
makampuni 436
mitindo 436
ofanyika 436
undisha 436
volkeno 436
wanaj@@ 436
Bak@@ 435
angulia 435
indi@@ 435
jamhuri 435
sugu 435
tishwa 435
wakifuata 435
Ky@@ 434
Mahakama 434
River 434
istoria 434
odi 434
onesha 434
Kisovyeti 433
alich@@ 433
id 433
mtawala 433
okoa 433
vich@@ 433
Awali 432
Ok@@ 432
Ufilipino 432
University 432
atibu 432
izo 432
kujitegemea 432
msimamo 432
pembe 432
uhai 432
yen@@ 432
1945 431
Mtu 431
Timu 431
angavu 431
atiwa 431
ber@@ 431
kibinadamu 431
kuitwa 431
kuwat@@ 431
L 430
ifunza 430
lika 430
linaloitwa 430
owahi 430
ukosefu 430
weze 430
Ri@@ 429
Tunisia 429
ahamu 429
haswa 429
michuano 429
mmonaki 429
,000 428
Black 428
Wagiriki 428
andaliwa 428
ero 428
lo 428
maaskofu 428
ozi 428
rej@@ 428
Bay 427
Denmark 427
etezi 427
ilip@@ 427
inapatikana 427
kufunga 427
kuigiza 427
wazima 427
Wash@@ 426
ames@@ 426
ingatia 426
irikisha 426
kupanda 426
miradi 426
sekta 426
ter@@ 426
zu 426
Mg@@ 425
Mtanzania 425
Nchini 425
makanisa 425
CC@@ 424
Familia 424
Kish@@ 424
awishi 424
azamwa 424
he@@ 424
ka@@ 424
kif@@ 424
madaraka 424
nyeusi 424
wewe 424
Bikira 423
anah@@ 423
azidi 423
nafsi 423
Nd@@ 422
kufundisha 422
ufu 422
Thomas 421
Vik@@ 421
atak@@ 421
daima 421
hakika 421
hudhuria 421
kezwa 421
ph@@ 421
1,000 420
ahi 420
airi 420
fikia 420
madawa 420
Jiji 419
Lin@@ 419
Maf@@ 419
Poland 419
adilisha 419
isababisha 419
tamaduni 419
kuboresha 418
kudhibiti 418
uzima 418
wakulima 418
wokovu 418
Hivi 417
K 417
egem@@ 417
embelea 417
haina 417
kulevya 417
kupewa 417
kutawala 417
ogoro 417
opita 417
1966 416
Massachusetts 416
Mz@@ 416
ese 416
imbo 416
mu 416
ufa 416
Tibeti 415
ababisha 415
anikiwa 415
elfu 415
10,@@ 414
Dh@@ 414
Ham@@ 414
Ili 414
Mashindano 414
ch 414
ers 414
il 414
kuongea 414
ubiri 414
vilivyo@@ 414
Kiyahudi 413
Martin 413
Ol@@ 413
P 413
Park 413
gitaa 413
ikiwemo 413
kupinga 413
maz@@ 413
mnyama 413
pi 413
1968 412
20@@ 412
Bug@@ 412
Chanzo 412
Gar@@ 412
Lo@@ 412
hali@@ 412
kal@@ 412
lile 412
Mfumo 411
Mkurugenzi 411
Mug@@ 411
jarida 411
tawimto 411
34 410
Kup@@ 410
Pasifiki 410
aro 410
kuzingatia 410
oksijeni 410
urahisi 410
Mbali 409
UEFA 409
bea 409
Vip@@ 408
aliishi 408
mwilini 408
ton 408
ut 408
G 407
Kisino 407
Lagos 407
amizi 407
mahakama 407
mungu 407
Sim@@ 406
mtazamo 406
watumiaji 406
aliamua 405
ion@@ 405
shirikisho 405
ukia 405
zu@@ 405
La@@ 404
baadae 404
jamaa 404
mashauri 404
meno 404
Sab@@ 403
mv@@ 403
profesa 403
umiaji 403
utambuzi 403
Uk@@ 402
ard 402
ey 402
hairi 402
kujifunza 402
sikukuu 402
tamthilia 402
uharibifu 402
achana 401
nywele 401
uigizaji 401
utwa 401
wezekana 401
yule 401
aktari 400
kuanzishwa 400
om 400
tamasha 400
wanaishi 400
chembe 399
kaz@@ 399
kubaliwa 399
la@@ 399
ost@@ 399
Shahada 398
ete 398
kifaa 398
utumwa 398
yame@@ 398
Pi@@ 397
ababishi 397
bonde 397
hawana 397
inayopatikana 397
kiti 397
muongo 397
omwa 397
umaini 397
… 397
Kamati 396
Kiroma 396
Maeneo 396
Tiba 396
afsiri 396
ajali 396
aliye 396
has@@ 396
ishinda 396
madai 396
wanam@@ 396
11,@@ 395
35@@ 395
chochote 395
kig@@ 395
kule 395
utana 395
Mazingira 394
aguzi 394
aliyem@@ 394
ekani 394
fur@@ 394
hari@@ 394
kisanii 394
tajiri 394
vipengele 394
Mwanzoni 393
Wizara 393
adhabu 393
aliyezaliwa 393
haik@@ 393
mateso 393
uasi 393
Hak@@ 392
anach@@ 392
homoni 392
jipya 392
malaria 392
ore 392
ukuma 392
wafanyabiashara 392
Isi@@ 391
kina@@ 391
marafiki 391
taaluma 391
udiwa 391
F 390
hujulikana 390
kuweza 390
mbinguni 390
onyesho 390
Em@@ 389
Mwanam@@ 389
Nyota 389
enge 389
enia 389
hisi 389
icha 389
kuhitimu 389
kupanga 389
kutekeleza 389
malengo 389
rasi 389
tab@@ 389
May@@ 388
Teknolojia 388
Way@@ 388
eba 388
endeleza 388
eon@@ 388
kemikali 388
na@@ 388
osisi 388
pos@@ 388
ulio 388
Katibu 387
inayojulikana 387
kuzaa 387
magazeti 387
saratani 387
takatifu 387
uto 387
yu 387
Uh@@ 386
inaitwa 386
kumaanisha 386
msaidizi 386
ope 386
ungi 386
zo@@ 386
2,000 385
Ba@@ 385
Love 385
Men@@ 385
esa 385
huohuo 385
jangwa 385
kilele 385
kumt@@ 385
ser@@ 385
wasiwasi 385
Bara 384
Nyak@@ 384
ford 384
kuku 384
sinema 384
tumbo 384
uhusiwa 384
wad@@ 384
33 383
Berlin 383
Bon@@ 383
Mash@@ 383
adai 383
alipot@@ 383
awiwa 383
changia 383
eti@@ 383
fin@@ 383
mon@@ 383
orodheshwa 383
Br@@ 382
Fal@@ 382
Gr@@ 382
angalau 382
iliyoko 382
oke 382
sam@@ 382
zaji 382
Af@@ 381
ega 381
ishe 381
kushirikiana 381
mahusiano 381
tw@@ 381
Asi@@ 380
San@@ 380
akatifu 380
ambu@@ 380
esia 380
fan@@ 380
jaa 380
kifalme 380
mshambuliaji 379
okuwa 379
unza 379
$ 378
Anajulikana 378
Baringo 378
Bun@@ 378
adil@@ 378
hud@@ 378
iliyofuata 378
mbadala 378
wamisionari 378
1000 377
Konstantinopoli 377
Min@@ 377
Ngu@@ 377
Nyimbo 377
ileta 377
mbwa 377
upepo 377
abi 376
ashiria 376
br@@ 376
hifadhiwa 376
makosa 376
nj@@ 376
taji 376
unja 376
Namibia 375
So@@ 375
Watoto 375
abiri 375
afi 375
akia 375
beki 375
chapisha 375
mchana 375
uliza 375
Cor@@ 374
Jipya 374
King 374
Una 374
ami@@ 374
awamu 374
endeshwa 374
fanyika 374
idara 374
igwa 374
mid@@ 374
Hadithi 373
age 373
agiza 373
apokuwa 373
linalot@@ 373
me 373
oda 373
ot 373
tar@@ 373
wajibu 373
wangu 373
1958 372
36 372
Hat@@ 372
Nj@@ 372
emekana 372
furaha 372
kikoloni 372
mabaki 372
omb@@ 372
unge 372
usiana 372
wazee 372
1959 371
Miji 371
Party 371
afisa 371
re 371
yaliyo 371
700 370
Coast 370
Ireland 370
Kipama 370
Rasi 370
balozi 370
bia 370
elekeza 370
eswa 370
mwelekeo 370
ufundi 370
zinabaki 370
DJ 369
Johannesburg 369
Mir@@ 369
Narok 369
ahitaji 369
ambukizwa 369
ande 369
kibao 369
kinachot@@ 369
kubeba 369
Er@@ 368
endi 368
kamati 368
koo 368
kukom@@ 368
kuunganisha 368
lit@@ 368
mabaya 368
upa 368
vi 368
0.@@ 367
Eritrea 367
He@@ 367
Kiti@@ 367
Pr@@ 367
Sek@@ 367
Viktoria 367
ameichezea 367
anzia 367
esho 367
kiwa 367
kuti@@ 367
waw@@ 367
zit@@ 367
Madrid 366
Mand@@ 366
ajit@@ 366
kigeni 366
no 366
ofautiana 366
shaba 366
uhandisi 366
uishe 366
upungufu 366
utengenezaji 366
Kanda 365
Kimarekani 365
Kiw@@ 365
astronomia 365
azwa 365
ilis@@ 365
jitokeza 365
mhusika 365
ongea 365
ungumza 365
unua 365
urais 365
1930 364
Kij@@ 364
giza 364
kupungua 364
mila 364
ngono 364
ubora 364
von 364
ziara 364
zisizo 364
Jean 363
Ne@@ 363
Wareno 363
fi@@ 363
huadhimisha 363
ikuu 363
lu@@ 363
udhibiti 363
Alimfuata 362
Es@@ 362
Kipindi 362
ichezea 362
kutetea 362
lahaja 362
maafisa 362
tafsiri 362
45 361
Bab@@ 361
Central 361
Mc@@ 361
aliuawa 361
jumuiya 361
kikamilifu 361
kuelewa 361
wafalme 361
Ana 360
Huduma 360
Kiroho 360
Maw@@ 360
Rufiji 360
Sultani 360
Vijana 360
biolojia 360
inataja 360
patikana 360
tel@@ 360
umbi 360
8,000 359
Kichina 359
Malaysia 359
ahamika 359
chumba 359
eja 359
ikua 359
iliyotolewa 359
itu 359
jumba 359
liko 359
sanamu 359
tah@@ 359
uwepo 359
Chad 358
Mohamed 358
Wany@@ 358
haiku@@ 358
kufun@@ 358
linaweza 358
maarifa 358
umet@@ 358
unia 358
Los 357
eleka 357
hav@@ 357
ho 357
magadi 357
upili 357
vij@@ 357
Henry 356
Kisi@@ 356
Msingi 356
fah@@ 356
kadhalika 356
Alipo@@ 355
Amani 355
hakuwa 355
hoteli 355
ondo@@ 355
osababishwa 355
vyenye 355
Hungaria 354
Takwimu 354
Ub@@ 354
chao 354
ombea 354
pasipo 354
so 354
wawa 354
yasiy@@ 354
Arsenal 353
Karne 353
Musa 353
Mzee 353
Uko 353
aliwa@@ 353
dis@@ 353
fariki 353
hin@@ 353
matawi 353
mifano 353
saidia 353
Ke@@ 352
Mwishoni 352
Shinyanga 352
ambi@@ 352
eno 352
hisa 352
kuchangia 352
kushoto 352
kusudi 352
penye 352
pl@@ 352
waya 352
9@@ 351
Julius 351
Mul@@ 351
Mwana 351
Sch@@ 351
Ti@@ 351
achukua 351
hibiti 351
ic 351
ikisha 351
mimi 351
saf@@ 351
ungan@@ 351
v 351
Ben@@ 350
Waz@@ 350
hitaji 350
inaadhimishwa 350
kambi 350
kol@@ 350
kutana 350
liturujia 350
tasnia 350
vyanzo 350
zaa 350
At@@ 349
Mwalimu 349
Postikodi 349
aminifu 349
kish@@ 349
mtangazaji 349
thelathini 349
1957 348
Bor@@ 348
Louis 348
Sp@@ 348
To@@ 348
Waliozaliwa 348
bodi 348
doa 348
haja 348
imbi 348
karatasi 348
tiwa 348
weni 348
Nakuru 347
Tab@@ 347
Tabia 347
ambamo 347
amuzi 347
etwa 347
hamu 347
huf@@ 347
ingine 347
kurej@@ 347
mot@@ 347
mwamba 347
pende@@ 347
walis@@ 347
andam@@ 346
aum@@ 346
hai@@ 346
isionari 346
waliuawa 346
Bus@@ 345
Mediteranea 345
Mitume 345
Nyungan 345
hughulikia 345
mada 345
men@@ 345
mume 345
wany@@ 345
Co@@ 344
Sel@@ 344
aminiwa 344
aus@@ 344
indaji 344
jozi 344
makumbusho 344
uamuzi 344
undu 344
Kumbe 343
VI 343
Wadogo 343
chanjo 343
hisabati 343
huk@@ 343
mishipa 343
pak@@ 343
takwimu 343
wanas@@ 343
watawa 343
1940 342
Com@@ 342
ahi@@ 342
engen@@ 342
ganda 342
mgonjwa 342
mkoani 342
ok 342
uhusika 342
ukumbi 342
umbuiza 342
wakit@@ 342
wanne 342
Col@@ 341
Kufikia 341
anas@@ 341
arib@@ 341
hofu 341
iliendelea 341
iliyoitwa 341
jum@@ 341
maandiko 341
mabawa 341
makali 341
akifanya 340
alivyo@@ 340
che 340
laini 340
mahindi 340
tut@@ 340
waliop@@ 340
ziada 340
Sir@@ 339
Toleo 339
hewani 339
linatokana 339
ripoti 339
sit@@ 339
taka 339
walifariki 339
Gal@@ 338
TANU 338
araka 338
hadhi 338
hesabiwa 338
inaonekana 338
teolojia 338
uno 338
Me 337
elew@@ 337
hana 337
ifu@@ 337
jumuia 337
kutibu 337
mwake 337
panya 337
tendo 337
viz@@ 337
Dam@@ 336
Fel@@ 336
Kadiri 336
Syria 336
amba@@ 336
est@@ 336
haij@@ 336
inae 336
sadaka 336
walimu 336
Alis@@ 335
Anat@@ 335
Man 335
Utamaduni 335
XIII 335
ambuzi 335
kuandaa 335
misingi 335
ongozi 335
pop 335
vip@@ 335
visa 335
1948 334
Bel@@ 334
Im@@ 334
Milki 334
Ruyigi 334
akap@@ 334
alionekana 334
jenga 334
maradhi 334
ushawishi 334
12,@@ 333
1956 333
3,000 333
Mk@@ 333
Nje 333
akilishi 333
aku@@ 333
ambulika 333
bin@@ 333
mhandisi 333
salama 333
Benin 332
Sen@@ 332
bak@@ 332
chi@@ 332
der@@ 332
edi 332
engi 332
imi 332
vibaya 332
1954 331
Ker@@ 331
Matokeo 331
Palestina 331
baraza 331
duni 331
kukimbia 331
kulinda 331
mbu@@ 331
ufanisi 331
yeji 331
33@@ 330
Wengi 330
XII 330
alitangaza 330
auri 330
diwa 330
emia 330
gavana 330
hamia 330
hudumia 330
iliyozungumzwa 330
kea 330
kipekee 330
mauzo 330
mkusanyiko 330
37 329
Alifanya 329
Ger@@ 329
ais@@ 329
angia 329
bain@@ 329
hiri 329
inapo@@ 329
lang@@ 329
lolote 329
mema 329
mfanyabiashara 329
nus@@ 329
waliweza 329
1949 328
Makueni 328
Pemba 328
UB 328
Wen@@ 328
abar@@ 328
alisha 328
isia 328
itajika 328
mwenzake 328
pendekeza 328
waliz@@ 328
yasiyo 328
Ghuba 327
Mary 327
epata 327
kimsingi 327
kuendesha 327
kuten@@ 327
lingine 327
miundo 327
mkia 327
pokuwa 327
pol@@ 327
q 327
tal@@ 327
Amechaguliwa 326
aidi 326
aliitwa 326
ambulia 326
ein@@ 326
kiasili 326
kuit@@ 326
okaa 326
pa@@ 326
Nas@@ 325
amech@@ 325
angulizi 325
huka 325
imiza 325
kupambana 325
kuua 325
mikutano 325
mkopo 325
pofu 325
sisi 325
unguzwa 325
upi 325
Waswahili 324
irik@@ 324
kijani 324
kitengo 324
nd@@ 324
per@@ 324
rapa 324
walitumia 324
Bah@@ 323
Kiny@@ 323
Kun@@ 323
Meru 323
Nyeusi 323
Yosefu 323
chan@@ 323
dua 323
kaboni 323
malipo 323
mapadri 323
F.C. 322
Hassan 322
Maana 322
Mahali 322
Mexico 322
P. 322
Video 322
ica 322
iliza 322
kutunga 322
mitaa 322
mta@@ 322
mwanas@@ 322
tishu 322
unukiwa 322
vigumu 322
wakilishi 322
23@@ 321
Klabu 321
Mkataba 321
Sw@@ 321
bul@@ 321
ikolojia 321
jaribio 321
kipya 321
miungu 321
vinaweza 321
Award 320
Ay@@ 320
Benedikto 320
Moshi 320
Wataalamu 320
fani 320
imwa 320
inde 320
ite 320
malkia 320
michache 320
oweka 320
Con@@ 319
Mifano 319
Ofisi 319
arajiwa 319
der 319
kukosa 319
pelekwa 319
sil@@ 319
wir@@ 319
1920 318
J. 318
Jazz 318
Kiulaya 318
Manyara 318
Mwisho 318
Real 318
achia 318
afanua 318
don@@ 318
elezwa 318
go 318
kara 318
kodi 318
kuchang@@ 318
magumu 318
moshi 318
ofaa 318
uke 318
wahusika 318
weupe 318
1947 317
Du@@ 317
Georgia 317
Idara 317
Mari@@ 317
My 317
Tan@@ 317
akis@@ 317
bas@@ 317
berg 317
idhi 317
jwa 317
kukusanya 317
lam@@ 317
ous 317
oza 317
tropiki 317
kor@@ 316
sem@@ 316
shindano 316
tazama 316
Anaheshimiwa 315
Daniel 315
Dawa 315
Gitega 315
Homa 315
Iran 315
akaf@@ 315
fanikiwa 315
hamsini 315
huishi 315
ian 315
kuruka 315
mazuri 315
nyuklia 315
ofia 315
vikubwa 315
Ir@@ 314
Kad@@ 314
St. 314
UN@@ 314
kahawa 314
kupi@@ 314
mchango 314
mmea 314
umikia 314
Afghanistan 313
Alicheza 313
Edward 313
Maelezo 313
Mut@@ 313
Nik@@ 313
air@@ 313
ajiriwa 313
bilia 313
kupoteza 313
mpakani 313
sanifu 313
ubunifu 313
waliendelea 313
47 312
Kampala 312
alikufa 312
enya 312
hua 312
maduka 312
unduliwa 312
wahamiaji 312
1918 311
Angeles 311
Brown 311
Pulitzer 311
aini 311
alimu@@ 311
anyiwa 311
azimishwa 311
dhar@@ 311
ensi 311
funguvisiwa 311
sm 311
uel@@ 311
uvamizi 311
agizo 310
ambulisha 310
ikana 310
kiv@@ 310
kupima 310
meneja 310
1955 309
Alisoma 309
Ikiwa 309
Waw@@ 309
adilifu 309
ekelezwa 309
mavazi 309
vikosi 309
wito 309
100,000 308
Fr@@ 308
Hospitali 308
Kajiado 308
Kiasia 308
Shab@@ 308
abaki 308
dom@@ 308
hekalu 308
imekaribia 308
kujiua 308
lenyewe 308
wanadamu 308
20,000 307
Simba 307
fundisha 307
halijoto 307
ishiwa 307
jen@@ 307
masaa 307
pig@@ 307
tum@@ 307
viv@@ 307
wo@@ 307
zimet@@ 307
B. 306
Bou@@ 306
DNA 306
Karibi 306
Muda 306
Wafiadini 306
Wang@@ 306
endwa 306
likiwa 306
molekuli 306
nyoka 306
umbuzi 306
— 306
1952 305
Bre@@ 305
Dalili 305
Mich@@ 305
Sheikh 305
aikolojia 305
alichukua 305
alig@@ 305
anayet@@ 305
des 305
huv@@ 305
mapatano 305
mtaa 305
ongwe 305
tamaa 305
uaji 305
Academy 304
Karibu 304
Sau@@ 304
Tor@@ 304
ache 304
ens@@ 304
imi@@ 304
imp@@ 304
kifedha 304
kutunza 304
lililot@@ 304
49 303
Elizabeth 303
a. 303
asubuhi 303
hab@@ 303
iliyoanzishwa 303
mgombea 303
peleka 303
sp@@ 303
ukuu 303
Albert 302
Bongo 302
Cas@@ 302
Daudi 302
My@@ 302
One 302
Waisraeli 302
Waroma 302
ajiunga 302
amer@@ 302
eshaji 302
igiza 302
kusafiri 302
lio 302
makoloni 302
matangazo 302
nyuzi 302
vyao 302
wamet@@ 302
Dar@@ 301
Smith 301
Ugonjwa 301
ajumuisha 301
atika 301
edi@@ 301
oe 301
pigwa 301
tish@@ 301
State 300
anti 300
anti@@ 300
asai 300
ghafla 300
her@@ 300
masharti 300
miamba 300
uk 300
Go@@ 299
Lam@@ 299
Victoria 299
fuatwa 299
halali 299
idai 299
mifugo 299
mifupa 299
owekwa 299
pana 299
pole 299
shamba 299
vijijini 299
vipaji 299
County 298
Os@@ 298
anyia 298
ask@@ 298
cheza 298
ilio 298
les 298
walifanya 298
Halafu 297
Jumba 297
Ms@@ 297
Pal@@ 297
Qu@@ 297
Ro@@ 297
adhaiko 297
amt@@ 297
avi 297
inayom@@ 297
kong@@ 297
misuli 297
mitandao 297
mwenyeji 297
sah@@ 297
yuko 297
1.@@ 296
Barcelona 296
De 296
Mbinu 296
Muundo 296
Nyeri 296
Tume 296
atokea 296
inayoh@@ 296
kifodini 296
lilianzishwa 296
oku@@ 296
osim@@ 296
sekunde 296
uliofuata 296
umbe 296
13,@@ 295
FA 295
Jubba 295
Lee 295
Uli@@ 295
Wafaransa 295
arobaini 295
bele 295
bure 295
manispaa 295
mashabiki 295
wab@@ 295
Alishinda 294
It 294
Kiitalia 294
Sol@@ 294
Zealand 294
ado 294
ainishwa 294
alijit@@ 294
aliv@@ 294
elli 294
go@@ 294
kutangaza 294
mkojo 294
ukuta 294
Jambo 293
Kenyatta 293
Sekondari 293
Um@@ 293
Yakobo 293
amiza 293
andamizi 293
hariri 293
kadi 293
kimwili 293
kuungana 293
mjumbe 293
ongo@@ 293
ungano 293
usafi 293
wel@@ 293
1900 292
900 292
Geita 292
Norwei 292
Sk@@ 292
dea 292
ine@@ 292
inus 292
kuchaguliwa 292
kuhakikisha 292
kuwapa 292
mwanariadha 292
njaa 292
pu 292
sigara 292
uteuzi 292
uzaji 292
uzoefu 292
150 291
Math@@ 291
Sasa 291
Watakatifu 291
bahati 291
gr@@ 291
kikapu 291
kosa 291
ly 291
maili 291
misaada 291
ne@@ 291
wanaf@@ 291
zuia 291
Mun@@ 290
Nab@@ 290
fuat@@ 290
kuzalisha 290
msichana 290
tabaka 290
udishwa 290
wil@@ 290
0,@@ 289
azimio 289
fursa 289
kuamua 289
kuzi@@ 289
mkondo 289
mzee 289
tambarare 289
wapinzani 289
1946 288
Hot 288
ondolewa 288
ongezwa 288
wo 288
ā@@ 288
39 287
Buk@@ 287
Niger 287
Times 287
aliongoza 287
anapo@@ 287
ikuja 287
iyo 287
majeraha 287
mumewe 287
ofika 287
ubwa 287
udi@@ 287
watano 287
1953 286
42 286
Kireno 286
Texas 286
athira 286
farasi 286
haf@@ 286
kamwe 286
kuchunguza 286
wepo 286
Mwanzo 285
aliji@@ 285
amano 285
ation 285
bwana 285
egawanyika 285
faulu 285
kirefu 285
lebo 285
onde 285
paswa 285
thibitishwa 285
utalii 285
utheri 285
va 285
wachanga 285
zinapatikana 285
Don@@ 284
Kag@@ 284
Kiambu 284
Kikatoliki 284
Kimungu 284
Pangani 284
haikuwa 284
hiari 284
ichi 284
kuwaf@@ 284
umbukwa 284
unjika 284
za@@ 284
Njombe 283
Wana@@ 283
alihitimu 283
atilia 283
digrii 283
hawa@@ 283
ilig@@ 283
kukutana 283
ler 283
marefu 283
zilizokuwa 283
48 282
Foundation 282
Mabadiliko 282
Sher@@ 282
abiria 282
akwa 282
anguka 282
anus 282
fizikia 282
mlango 282
mo 282
ner 282
nim@@ 282
njano 282
pel@@ 282
ramani 282
ufafanuzi 282
usanya 282
ville 282
45@@ 281
Cal@@ 281
Khan 281
adha 281
akaendelea 281
alishwa 281
awan@@ 281
futwa 281
hait@@ 281
hio 281
ini@@ 281
jer@@ 281
kuzunguka 281
ufi 281
IC@@ 280
Pro@@ 280
Wote 280
bur@@ 280
ingizwa 280
kijivu 280
ongozaji 280
tawala 280
ushauri 280
wanapo@@ 280
75 279
Jo@@ 279
Sin@@ 279
Sum@@ 279
aliona 279
athirika 279
bendera 279
bol@@ 279
hukumu 279
jaribu 279
lisha 279
tarakilishi 279
ubi 279
Karthago 278
Wanyama 278
Ya 278
achangia 278
adui 278
apaswa 278
awanyika 278
az 278
die 278
gia 278
igh@@ 278
kitaaluma 278
kununua 278
maandamano 278
umu@@ 278
utajiri 278
viny@@ 278
38 277
Gi@@ 277
Juma 277
Kanuni 277
Matibabu 277
Serbia 277
Van 277
alizika 277
alu 277
atomu 277
boa 277
eleweka 277
ilir@@ 277
itia 277
mshauri 277
mwangaza 277
mweusi 277
oba 277
sab@@ 277
unah@@ 277
wanash@@ 277
Elfu 276
Mel@@ 276
Yoh 276
elelezi 276
ianchi 276
ilib@@ 276
kuy@@ 276
mlipuko 276
nak@@ 276
opewa 276
wandani 276
wapo 276
Aj@@ 275
anyiko 275
embamba 275
huonekana 275
k.m. 275
kupumua 275
okus@@ 275
sum@@ 275
Bururi 274
Kah@@ 274
Kemia 274
Kifo 274
Kilele 274
Kiorthodoksi 274
No@@ 274
Ud@@ 274
aani 274
ast@@ 274
babu 274
cho 274
ick 274
ilishinda 274
imek@@ 274
injili 274
je@@ 274
kilit@@ 274
kingine 274
kujik@@ 274
ogopa 274
saini 274
sukari 274
ungumzia 274
uvuvi 274
washiriki 274
Ash@@ 273
Kilimo 273
Lengo 273
afaa 273
akafuatwa 273
akas@@ 273
amana 273
ec@@ 273
edonia 273
kuimarisha 273
kuny@@ 273
makamu 273
mikononi 273
mwanafizikia 273
pal@@ 273
tambu@@ 273
vitendo 273
wakiwemo 273
zawadi 273
zima 273
1939 272
55 272
Chelsea 272
Fizikia 272
Takriban 272
avyot@@ 272
ipata 272
jia 272
kahawia 272
kutaka 272
usambazaji 272
visi@@ 272
vyema 272
yafuatayo 272
Rangi 271
Wana 271
ajira 271
alitaka 271
anishwa 271
chaguliwa 271
igizaji 271
ilivy@@ 271
imef@@ 271
isiyo@@ 271
kezo 271
kutenda 271
udisha 271
CD 270
Picha 270
Ug@@ 270
afu@@ 270
alikubali 270
ary 270
gun@@ 270
hotuba 270
ishughulisha 270
iw@@ 270
izaji 270
kima@@ 270
mbao 270
shuleni 270
thibitisha 270
uhamisho 270
uziki 270
14,@@ 269
Bin@@ 269
Che@@ 269
Fl@@ 269
Kikan@@ 269
Mwenyekiti 269
Tatu 269
Vir@@ 269
afsiriwa 269
bibi 269
emp@@ 269
ez 269
huch@@ 269
ipoti 269
pr@@ 269
temi 269
usio 269
ustawi 269
yap@@ 269
250 268
Katiba 268
Libya 268
Mexiko 268
akadiriwa 268
alikwenda 268
ambukiza 268
amiaji 268
fuko 268
kiafya 268
kuza 268
makundinyota 268
mhariri 268
sak@@ 268
1888 267
AN@@ 267
E. 267
Kilwa 267
O.@@ 267
Uchunguzi 267
Vitabu 267
Wahispania 267
anaishi 267
anta 267
ap 267
huruma 267
kuangalia 267
kujif@@ 267
wek@@ 267
000 266
Andrea 266
Kak@@ 266
Said 266
UNESCO 266
Union 266
amisha 266
bay@@ 266
hawaj@@ 266
hazina 266
hekima 266
kusik@@ 266
mazungumzo 266
mizigo 266
nyasi 266
ushirika 266
utaji 266
Bul@@ 265
Cha 265
Licha 265
Mbu@@ 265
Mwenyezi 265
Nepal 265
Rus@@ 265
_ 265
alir@@ 265
anaf@@ 265
atili 265
bidii 265
ent@@ 265
inaz@@ 265
itisha 265
kunywa 265
sabini 265
shabaha 265
ulizi 265
vig@@ 265
vilivyo 265
14@@ 264
1886 264
All 264
Mpango 264
Mtoto 264
Ngozi 264
aliana 264
alimu 264
burudani 264
mapambano 264
ukanda 264
utakatifu 264
vina@@ 264
waliok@@ 264
Moja 263
Pe@@ 263
awas@@ 263
geni 263
hoja 263
inaonyesha 263
kocha 263
kupo@@ 263
majadiliano 263
marehemu 263
nik@@ 263
ongwa 263
opata 263
uwa 263
41 262
Dini 262
Fasihi 262
Florida 262
Pasaka 262
achwa 262
ambaza 262
anafanya 262
aume 262
huhu@@ 262
ilihesabiwa 262
majini 262
nyanda 262
petroli 262
tisho 262
ty 262
unaopatikana 262
vol@@ 262
Bi 261
J 261
Liberia 261
Togo 261
aje 261
anzania 261
araj@@ 261
ebe 261
hari 261
kadha 261
kati@@ 261
kupot@@ 261
maumbile 261
ve 261
wi@@ 261
yapo 261
Ime@@ 260
Zamani 260
maelfu 260
mand@@ 260
omi 260
ufugaji 260
utiwa 260
Mdo 259
Soka 259
dansi 259
gol@@ 259
huanza 259
kandanda 259
kujulikana 259
kurudisha 259
manne 259
mny@@ 259
ongozo 259
pun@@ 259
uhakika 259
unguliwa 259
unuliwa 259
utume 259
15,@@ 258
Alitokea 258
IX 258
ate@@ 258
ayansi 258
del 258
elezo 258
jo@@ 258
kamusi 258
liki@@ 258
mguu 258
mtendaji 258
ororo 258
osema 258
ubao 258
usiano 258
vina 258
Machakos 257
Pan@@ 257
XX@@ 257
ger@@ 257
hush@@ 257
hutegemea 257
ikuwepo 257
ilishwa 257
katoliki 257
kufik@@ 257
misimu 257
orodhesha 257
shirikisha 257
ukamilifu 257
vikali 257
Don 256
FM 256
Wil@@ 256
efanya 256
eva 256
kilichot@@ 256
mbuga 256
sar@@ 256
tas@@ 256
ulich@@ 256
13@@ 255
Jumapili 255
Kipapua 255
M. 255
Mac@@ 255
Mip@@ 255
Moi 255
Sala 255
afsi 255
dutu 255
ekana 255
iganaji 255
matamshi 255
mitambo 255
nahodha 255
vilikuwa 255
Hatua 254
Society 254
anyi 254
emasi 254
inam@@ 254
inzani 254
jiwe 254
mm 254
mwanah@@ 254
nafaka 254
no@@ 254
pelekea 254
tumaini 254
Abu 253
Armenia 253
Ish@@ 253
Pen@@ 253
Rukwa 253
Sul@@ 253
ach 253
ele@@ 253
imes@@ 253
kukab@@ 253
liv@@ 253
mahojiano 253
maigizo 253
mistari 253
nadra 253
ov 253
tihani 253
ukawa 253
uzamili 253
wafanyikazi 253
waka 253
wema 253
American 252
Simiyu 252
akij@@ 252
ario 252
ayarisha 252
bab@@ 252
inal@@ 252
kunako 252
mtaguso 252
ujiza 252
waliona 252
zisiz@@ 252
1951 251
30@@ 251
Chicago 251
Hut@@ 251
Meksiko 251
Msimu 251
Say@@ 251
ambulisho 251
dhaifu 251
ingiza 251
ishika 251
jike 251
kamp@@ 251
kijinsia 251
unene 251
vo 251
zikiwa 251
Alexander 250
Alipokuwa 250
Ju@@ 250
Kuz@@ 250
Mradi 250
bal@@ 250
bunduki 250
elo 250
fung@@ 250
mip@@ 250
sen@@ 250
ubini 250
uvi 250
yas@@ 250
H 249
Songwe 249
akash@@ 249
alam@@ 249
alsafa 249
bon@@ 249
kiwanda 249
mboga 249
pua 249
qu@@ 249
umekuwa 249
43 248
Binadamu 248
Ji@@ 248
Manisipaa 248
Sam 248
ajiliwa 248
aliingia 248
ans 248
aru 248
bizi 248
eket@@ 248
ell 248
kifua 248
kukataa 248
ografia 248
sitini 248
tani 248
tisini 248
tra 248
yewe 248
zaliwa 248
44 247
Aw@@ 247
Group 247
Imam 247
League 247
Romanum 247
afan@@ 247
akaanza 247
ambatana 247
antu 247
hukumiwa 247
ido 247
ilika 247
inawezekana 247
ire 247
iya 247
jam@@ 247
kueneza 247
kuishia 247
kupigwa 247
kuwekwa 247
muigizaji 247
ofa 247
ohusika 247
onge@@ 247
protestanti 247
tir@@ 247
uliokuwa 247
watalii 247
ziki@@ 247
Ana@@ 246
Hor@@ 246
Jones 246
Kinyume 246
Mos@@ 246
Tena 246
changamoto 246
darasa 246
esabu 246
hafla 246
iliyof@@ 246
kugundua 246
kuhifadhi 246
kuhusiana 246
limetokana 246
piga 246
utekelezaji 246
1941 245
Lyon 245
akato 245
amatwa 245
ange 245
ass@@ 245
ella 245
hawaku@@ 245
hutofautiana 245
iwapo 245
kumbe 245
maabara 245
maadui 245
makubaliano 245
pon@@ 245
tuna@@ 245
wizara 245
52 244
Democratic 244
Makamu 244
Waprotestanti 244
Z 244
ambazwa 244
amej@@ 244
arakati 244
auti 244
aweka 244
ayarishaji 244
eri@@ 244
harusi 244
ikuwa 244
ilikiwa 244
malezi 244
manyoya 244
matam@@ 244
ugumu 244
ukali 244
wanga 244
zilizopo 244
1500 243
1914 243
Bom@@ 243
C. 243
Gabon 243
Makamba 243
Martyrologium 243
Sifa 243
Val@@ 243
adhimisha 243
ain 243
aliyefia 243
all 243
ans@@ 243
aribia 243
azamo 243
eze 243
fahamu 243
gen@@ 243
ken@@ 243
kib@@ 243
kutengen@@ 243
kuvuta 243
ling@@ 243
mawaziri 243
mwanakemia 243
pwa 243
ul 243
van 243
waliom@@ 243
wamekuwa 243
wamonaki 243
1936 242
Barabara 242
College 242
Grammy 242
Madagaska 242
Mam@@ 242
Ulimweng@@ 242
akah@@ 242
den 242
king@@ 242
kujali 242
kusim@@ 242
mtawa 242
nabii 242
ova 242
taneti 242
uru@@ 242
wamebaki 242
watazamaji 242
wau@@ 242
yol@@ 242
1917 241
Bis@@ 241
Domin@@ 241
Kim 241
Kufuatia 241
Le 241
Uyahudi 241
achama 241
angazia 241
hayajulikani 241
kimbari 241
kufanikiwa 241
kutegemea 241
ladha 241
manufaa 241
ufanya 241
yey@@ 241
zidi 241
1944 240
High 240
Imani 240
Kiajemi 240
Majina 240
Makumbusho 240
Ver@@ 240
aguo 240
akik@@ 240
anasema 240
azimisha 240
dhati 240
ens 240
kifu@@ 240
kiumbe 240
kudai 240
kuing@@ 240
walipaswa 240
1933 239
Kamb@@ 239
Kijiji 239
Mabingwa 239
Majimbo 239
Star 239
amesh@@ 239
anja 239
bor@@ 239
bustani 239
hazi@@ 239
ibuka 239
imar@@ 239
khalifa 239
kiowevu 239
niaba 239
obo 239
wasomi 239
65 238
Grand 238
Ilianzishwa 238
Kinaga 238
Kisumu 238
Leb@@ 238
Williams 238
alimaliza 238
asiriamali 238
atomi 238
idi@@ 238
inach@@ 238
jin@@ 238
kinapatikana 238
kitawa 238
unas@@ 238
unzwa 238
utoaji 238
Chakula 237
Jer@@ 237
Kibo@@ 237
Tim@@ 237
Vil@@ 237
Yos@@ 237
azimika 237
funga 237
hawezi 237
ibn 237
imin@@ 237
indani 237
jukwaa 237
miili 237
nyembamba 237
oc@@ 237
utano 237
wakfu 237
Han@@ 236
Island 236
Rom@@ 236
Samburu 236
Y 236
alimw@@ 236
baya 236
divyo 236
emo 236
evi 236
imegawanywa 236
jioni 236
karibia 236
kudumisha 236
kuvutia 236
limet@@ 236
opo@@ 236
sia 236
utashi 236
walowezi 236
waumini 236
Ah@@ 235
Mnara 235
Radio 235
aham@@ 235
alikutana 235
chapishwa 235
k.mf. 235
kitendo 235
kuwasaidia 235
maswali 235
mkononi 235
themanini 235
.com 234
Daraja 234
Gh@@ 234
Ken@@ 234
Shughuli 234
agi 234
akina 234
amef@@ 234
angazaji 234
ange@@ 234
beg@@ 234
kemia 234
kufanywa 234
kuki@@ 234
kusimamia 234
licha 234
lishe 234
mabaharia 234
mizizi 234
pop@@ 234
unguzi 234
vitatu 234
46 233
Aki@@ 233
Babeli 233
Braz@@ 233
Cel@@ 233
For@@ 233
Ros@@ 233
Son@@ 233
Tazama 233
Upili 233
Vienna 233
Wahindi 233
ardhini 233
ashi 233
elim@@ 233
haijulikani 233
hutolewa 233
kiserikali 233
ndoto 233
oshi 233
rasilimali 233
waimbaji 233
2.@@ 232
3000 232
85 232
House 232
Jack 232
Kiwango 232
Lamu 232
Moscow 232
SA@@ 232
Vol@@ 232
Wiki 232
amka 232
asisi 232
asiy@@ 232
bika 232
bun@@ 232
hatarini 232
janga 232
kupelekwa 232
mshiriki 232
ransisko 232
viumbehai 232
wasifu 232
zana 232
Antiokia 231
Association 231
Hip 231
Muyinga 231
aidiwa 231
akaj@@ 231
ci@@ 231
iliv@@ 231
kuingiza 231
kutembea 231
mati@@ 231
mawimbi 231
msimamizi 231
msu@@ 231
nin@@ 231
orodheshwi 231
uji 231
umaskini 231
unapo@@ 231
unu 231
£ 231
Chile 230
Go 230
Kuhusu 230
andar@@ 230
but@@ 230
eria 230
for@@ 230
malaika 230
marekani 230
ujauzito 230
utak@@ 230
uvimbe 230
wabunge 230
wateja 230
Alitangazwa 229
Ath@@ 229
Bujumbura 229
Carey 229
Kiongozi 229
Ng 229
Pad@@ 229
Safari 229
Ter@@ 229
Wain@@ 229
ahadi 229
alipos@@ 229
bes@@ 229
bikira 229
ca 229
elektroni 229
endeshaji 229
gam@@ 229
hupata 229
ikilinganishwa 229
ilijulikana 229
ilisababisha 229
itikadi 229
kulima 229
kusikia 229
pand@@ 229
somo 229
walil@@ 229
Char@@ 228
Huu 228
Jar@@ 228
Kamp@@ 228
Kiar@@ 228
Mkw@@ 228
Tur@@ 228
abo 228
ambani 228
atengen@@ 228
atiririka 228
aur@@ 228
azamiwa 228
ekodiwa 228
emavu 228
inar@@ 228
ish 228
ist 228
kufungwa 228
kunaweza 228
kuvunja 228
kuwap@@ 228
len@@ 228
ougou 228
takiwa 228
ulo 228
unaf@@ 228
uwiano 228
waliishi 228
Chan@@ 227
Hill 227
Ib@@ 227
Kibaki 227
Michigan 227
Po@@ 227
Programu 227
Tamasha 227
abudu 227
akiolojia 227
aku 227
alendo 227
dir@@ 227
département 227
engele 227
fukuzwa 227
ilioni 227
kuathiri 227
ori@@ 227
uawa 227
vyumba 227
Math 226
Mawasiliano 226
Mh@@ 226
Msalaba 226
Ndi@@ 226
alikataa 226
husisha 226
imaji 226
kipande 226
kuelezea 226
kukata 226
kumpa 226
maktaba 226
maua 226
mchekeshaji 226
mwandiko 226
sakramenti 226
walipata 226
yalif@@ 226
16,@@ 225
Bl@@ 225
Burkina 225
Hi@@ 225
Johnson 225
Lug@@ 225
aid@@ 225
andiko 225
awahi 225
eme 225
ile@@ 225
kilichopo 225
kujaribu 225
michoro 225
mvuke 225
olenga 225
shimo 225
6,000 224
Ahmed 224
Club 224
Dan@@ 224
ade 224
afisha 224
anoni 224
anyo 224
aso 224
hani 224
inayop@@ 224
inzi 224
ju 224
kushambulia 224
kuu@@ 224
kuundwa 224
maamuzi 224
nazo 224
upanuzi 224
zama 224
Gen@@ 223
Mikoa 223
Milano 223
RC 223
St 223
Women 223
abe 223
amo@@ 223
angazi 223
ataka 223
baji 223
gerezani 223
hap@@ 223
hasi 223
kuepu@@ 223
kutazama 223
met@@ 223
msitu 223
pendelea 223
puko 223
rati@@ 223
umep@@ 223
undu@@ 223
wakat@@ 223
walir@@ 223
Kimal@@ 222
Madola 222
alihudhuria 222
anafahamika 222
dur@@ 222
fumbo 222
hawakuwa 222
isikia 222
kinaweza 222
kuhubiri 222
kujitolea 222
kulipa 222
kutambuliwa 222
masoko 222
mkewe 222
pembeni 222
tor@@ 222
umbani 222
unyenyekevu 222
zetu 222
26@@ 221
Hitler 221
Jam@@ 221
Jay 221
Patri@@ 221
Usaf@@ 221
anaitwa 221
arki 221
dr@@ 221
ikali 221
kujipatia 221
kupigana 221
robo 221
sambamba 221
ubaliwa 221
ungukwa 221
utotoni 221
walei 221
Athari 220
Da@@ 220
Nz@@ 220
Rutana 220
Sok@@ 220
akuja 220
ber 220
ige 220
kozi 220
kubaki 220
kuchagua 220
msalaba 220
mwanasheria 220
ohitajika 220
sikiti 220
sta@@ 220
sultani 220
tengen@@ 220
ukombozi 220
viti 220
walifika 220
yanak@@ 220
« 220
4,000 219
56 219
Hab@@ 219
Marmara 219
Mtandao 219
S.@@ 219
Ulinzi 219
akisema 219
amem@@ 219
assa 219
atomia 219
div@@ 219
iliyok@@ 219
islamu 219
itak@@ 219
jela 219
kibali 219
kupindukia 219
kutia 219
simba 219
unak@@ 219
viatu 219
zikiwemo 219
» 219
Imepakana 218
Kwale 218
Mandela 218
Moy@@ 218
On@@ 218
Pokot 218
Ra@@ 218
abii 218
ahis@@ 218
esababisha 218
geza 218
haa 218
inge@@ 218
jitihada 218
kubuni 218
kuhari@@ 218
kumfanya 218
onjwa 218
oyo 218
waanzilishi 218
wakawa 218
17@@ 217
25@@ 217
Cr@@ 217
Disemba 217
Google 217
Kinilo 217
Malkia 217
Mbunge 217
Sierra 217
Ul@@ 217
Uskoti 217
Young 217
ahari 217
anganya 217
baini 217
elle 217
field 217
iliundwa 217
kuwafanya 217
milango 217
mwanamume 217
nit@@ 217
taafu 217
waa 217
1934 216
27@@ 216
95 216
AD@@ 216
Accra 216
Dem@@ 216
Gor@@ 216
Has@@ 216
Maandishi 216
Soko 216
Uv@@ 216
adhi 216
aliigiza 216
andalizi 216
aribio 216
bezi 216
buluu 216
furah@@ 216
gar@@ 216
hor@@ 216
italia 216
itisi 216
juli@@ 216
kelewa 216
kuomba 216
kuzwa 216
madarakani 216
maswala 216
oshiriki 216
sen 216
utata 216
wanja 216
wawakilishi 216
yoka 216
zika 216
1922 215
1925 215
1929 215
BBC 215
Ban@@ 215
Ly@@ 215
Queen 215
Santa 215
Str@@ 215
Wales 215
White 215
Yo@@ 215
badilisha 215
bozi 215
hub@@ 215
imama 215
iso 215
kute@@ 215
nam@@ 215
pake 215
rika 215
1942 214
67 214
Cankuzo 214
DC 214
Katavi 214
Leone 214
Media 214
Mol@@ 214
Stars 214
akapata 214
aliyeuawa 214
ata@@ 214
fe 214
ilivyo@@ 214
mahar@@ 214
mamalia 214
poromoko 214
refu 214
tamthiliya 214
umi@@ 214
5000 213
Alik@@ 213
Company 213
Do@@ 213
W 213
XI 213
XVI 213
alb@@ 213
chochea 213
futi 213
itikio 213
kueleza 213
lav@@ 213
vinavyot@@ 213
16@@ 212
1885 212
24@@ 212
Dubai 212
Kl@@ 212
Kou@@ 212
Kuk@@ 212
Nar@@ 212
Pat@@ 212
Uzam@@ 212
Waos@@ 212
akan@@ 212
anifu 212
bingwa 212
bom@@ 212
duara 212
fereji 212
hughu@@ 212
iliweza 212
ishani 212
jusi 212
madola 212
msom@@ 212
mwambao 212
ofariki 212
ombi 212
oni@@ 212
uhamishoni 212
upatikanaji 212
usanifu 212
ute 212
visiwani 212
wafungwa 212
walihamia 212
wawe 212
12@@ 211
1943 211
Bendi 211
Bizanti 211
Canada 211
Cher@@ 211
Francis 211
Hula 211
Kaizari 211
Kor 211
Maneno 211
Rob@@ 211
Siasa 211
Utawa 211
Wafany@@ 211
adamu 211
adhi@@ 211
alme 211
husaidia 211
inaj@@ 211
jibu 211
ker@@ 211
kikemia 211
kitenzi 211
mpenzi 211
ungum@@ 211
ure 211
vurugu 211
15@@ 210
88 210
Had@@ 210
Mwar@@ 210
Nor@@ 210
Sik@@ 210
Ukraine 210
achiliwa 210
aliondoka 210
fiwa 210
fr@@ 210
fuka 210
gel@@ 210
inajumuisha 210
indua 210
ingereza 210
makaa 210
nani 210
onaki 210
ongezea 210
tad@@ 210
uni@@ 210
1926 209
54 209
Aliendelea 209
Bungoma 209
Sil@@ 209
abari 209
afir@@ 209
alijulikana 209
egemezi 209
ekezaji 209
ilionekana 209
inab@@ 209
magoli 209
ngano 209
oruba 209
rap 209
ufukara 209
urekebisho 209
vilabu 209
walianzisha 209
Aliandika 208
Band 208
Japan 208
Long@@ 208
Mif@@ 208
Miongoni 208
Si 208
Waturuki 208
abila 208
adiria 208
aiti 208
aitwaye 208
idisha 208
kuifanya 208
kujengwa 208
kuwah@@ 208
majirani 208
mchoraji 208
ndilo 208
ngome 208
onya 208
shaka 208
tis@@ 208
uzulu 208
wakil@@ 208
wengineo 208
1890 207
A. 207
Ilit@@ 207
Kituruki 207
Myanmar 207
Naf@@ 207
News 207
Oblast 207
Patrick 207
Umbali 207
afwa 207
aiwa 207
akicheza 207
ant 207
ase 207
dari 207
eji 207
funguliwa 207
ibika 207
isaidia 207
ith 207
kansa 207
kijiografia 207
kimatibabu 207
kuin@@ 207
lat@@ 207
makadirio 207
mzaliwa 207
ogelea 207
pum@@ 207
shinda 207
vua 207
zia 207
17,@@ 206
Abr@@ 206
Av@@ 206
Miz@@ 206
Og@@ 206
Q 206
The@@ 206
adala 206
aman@@ 206
angany@@ 206
kurasa 206
mauti 206
nururisho 206
pokezi 206
poromoka 206
prot@@ 206
undaji 206
upigaji 206
ushindani 206
AS@@ 205
Aidha 205
Dom@@ 205
Lus@@ 205
Mjerumani 205
Prussia 205
Vif@@ 205
akach@@ 205
alifaulu 205
amek@@ 205
amino 205
atio 205
hasara 205
ikulu 205
imetoweka 205
itakuwa 205
ity 205
ker 205
kuang@@ 205
kuge@@ 205
mish@@ 205
mwanam@@ 205
nyanja 205
shi 205
shingo 205
ubali@@ 205
ukumu 205
ukurasa 205
ust@@ 205
Ph@@ 204
Urithi 204
aibu 204
fund@@ 204
kipenyo 204
lis@@ 204
mwanaf@@ 204
ohusu 204
osoaji 204
ukar@@ 204
ustaarabu 204
yab@@ 204
zilianza 204
64 203
Augustino 203
Juli@@ 203
Katikati 203
Kic@@ 203
Port 203
Reli 203
Sauti 203
alii 203
aweze 203
dume 203
ekeleza 203
eshimu 203
fanywa 203
hasira 203
ibu@@ 203
inaendelea 203
inavyo@@ 203
ispania 203
jeraha 203
kitongoji 203
kondoo 203
kuvuka 203
mfereji 203
mzazi 203
our 203
per 203
toba 203
ultani 203
uria 203
yalis@@ 203
י@@ 203
120 202
Ben 202
CH@@ 202
Hay@@ 202
Klem@@ 202
Rose 202
Ujenzi 202
Uropa 202
akab@@ 202
aliacha 202
angahewa 202
asimulia 202
elekwa 202
futa 202
imej@@ 202
ingiliano 202
ipotiwa 202
isri 202
jahazi 202
mafuriko 202
mtume 202
onekano 202
sel@@ 202
tari 202
yot@@ 202
1,0@@ 201
116 201
30,000 201
Gambia 201
Ge@@ 201
Kimb@@ 201
Por@@ 201
Uhandisi 201
aendelea 201
ahau 201
busara 201
ewe 201
hogo 201
ifuatavyo 201
inayoweza 201
indu 201
kupan@@ 201
kuruhusu 201
kusimama 201
kuwash@@ 201
mer@@ 201
mlinzi 201
mmisionari 201
pita 201
tasari 201
tiririko 201
uhaba 201
umbwa 201
unaingia 201
utio 201
yaliyokuwa 201
zani 201
39@@ 200
65@@ 200
CO@@ 200
Faso 200
Hili 200
Kifilipino 200
Lim@@ 200
Miss 200
Ndiye 200
Reg@@ 200
Scott 200
Wazazi 200
aila 200
akak@@ 200
anuwai 200
ariki 200
awanywa 200
gom@@ 200
huzuni 200
ikat@@ 200
ikweta 200
imarisha 200
katuni 200
lililokuwa 200
manabii 200
many@@ 200
mikataba 200
mwao 200
parokia 200
umbuka 200
unikwa 200
wakili 200
waliv@@ 200
wood 200
58 199
Bay@@ 199
MTV 199
Marie 199
Sha@@ 199
Sir 199
Taylor 199
Wa 199
amf@@ 199
amilika 199
area 199
badilishwa 199
co 199
co@@ 199
ebaki 199
elekeo 199
fia 199
huria 199
idhin@@ 199
ilini 199
ime 199
inaanza 199
inamaanisha 199
kand@@ 199
kizu@@ 199
kukabiliana 199
kukatwa 199
kupanua 199
letu 199
lojia 199
mababu 199
mtandaoni 199
mwakilishi 199
tuli@@ 199
udu 199
ulipo@@ 199
unifu 199
vimelea 199
waigizaji 199
wea 199
zinah@@ 199
18,@@ 198
1910 198
1937 198
Alifariki 198
But@@ 198
Chris 198
Hek@@ 198
Kilifi 198
Mohammed 198
Mot@@ 198
afr@@ 198
alijaribu 198
ege 198
elez@@ 198
himaya 198
mashtaka 198
mkaapweke 198
sampuli 198
theluji 198
usia 198
utani 198
utoto 198
wisha 198
yony@@ 198
Bagamoyo 197
Cap@@ 197
Christian 197
Dr. 197
Kul@@ 197
Luka 197
Ndio 197
ac 197
ahawa 197
bad@@ 197
demokrasia 197
gez@@ 197
hubiri 197
huy@@ 197
indo 197
kari 197
koni 197
kupeleka 197
kuwal@@ 197
lisilo 197
makini 197
manowari 197
nad@@ 197
nambari 197
sindano 197
tofautitofauti 197
uka@@ 197
utar@@ 197
uzuri 197
1938 196
53 196
Anafahamika 196
Hus@@ 196
Inasemekana 196
Kakamega 196
Kris@@ 196
Mbar@@ 196
Migori 196
Mtendaji 196
Mv@@ 196
Profesa 196
Simon 196
Vati@@ 196
Verde 196
akaw@@ 196
akaz@@ 196
amishwa 196
bio 196
chanya 196
haiwezi 196
ilitangaza 196
inatoa 196
inayoz@@ 196
irikishwa 196
kano 196
kufanana 196
kutuma 196
kuwak@@ 196
lipo 196
milia 196
nafuu 196
nying@@ 196
nzito 196
omaji 196
the@@ 196
ubia 196
102 195
1905 195
Anthony 195
Bendera 195
Met@@ 195
Mwandishi 195
Mwingereza 195
Tenno 195
Walakini 195
duka 195
fi 195
hek@@ 195
kujiuzulu 195
kuku@@ 195
mata 195
mchungaji 195
mli@@ 195
mwanamitindo 195
ozidi 195
san@@ 195
uhalifu 195
utumbo 195
yesi 195
61 194
Hum@@ 194
Mamlaka 194
YouTube 194
alishaji 194
amuru 194
atizwa 194
ghas@@ 194
husishwa 194
ilitoa 194
inezo 194
karama 194
kasoro 194
kupel@@ 194
kutokuwa 194
matoleo 194
ojit@@ 194
otea 194
tro 194
ubatizo 194
ui@@ 194
usaidizi 194
viwanja 194
wakala 194
walau 194
wanasayansi 194
3.@@ 193
Alish@@ 193
Big 193
Can@@ 193
Hil@@ 193
Kichadiki 193
Kikundi 193
Life 193
Mark 193
Rhodesia 193
Theod@@ 193
VIII 193
ajeshi 193
alikamatwa 193
alisaini 193
alishindwa 193
ambukizi 193
apot@@ 193
arifa 193
awanyiko 193
awaz@@ 193
hem@@ 193
hidro@@ 193
jeria 193
kubadilika 193
kulinganisha 193
mwanadamu 193
poke@@ 193
sentim@@ 193
shauri 193
uleule 193
undishwa 193
uraia 193
usu@@ 193
wan 193
67@@ 192
Best 192
Inat@@ 192
Kari@@ 192
Kong 192
LA 192
Matatizo 192
Westlife 192
ajua 192
anzo 192
chagua 192
duliwa 192
goli 192
harani 192
hihir@@ 192
husu 192
katibu 192
kuteka 192
kuzungumza 192
ler@@ 192
leseni 192
mmiliki 192
th 192
umilia 192
undombinu 192
Anti@@ 191
Bw 191
Kie@@ 191
Nadharia 191
New@@ 191
Nyanda 191
Pon@@ 191
Royal 191
Zi@@ 191
achi 191
adr@@ 191
ambana 191
anisa 191
arini 191
armenia 191
asisha 191
fal@@ 191
figo 191
hawawezi 191
iliyom@@ 191
imech@@ 191
ishu 191
kaburi 191
kipaji 191
kipengele 191
kufuzu 191
kung@@ 191
makaburi 191
paa 191
pitishwa 191
sav@@ 191
udhaifu 191
utukufu 191
vent@@ 191
wanamgambo 191
zinazoendelea 191
1919 190
36@@ 190
51 190
Busia 190
Category 190
Kiaryan 190
Kibu@@ 190
Pengine 190
Ubangi 190
akif@@ 190
alimt@@ 190
burg 190
ekesho 190
euzi 190
idhiwa 190
ilenga 190
kielelezo 190
kukulia 190
mann 190
nukta 190
poteza 190
sarafu 190
tuko 190
uchi 190
unaonyesha 190
vema 190
zipo 190
1923 189
7,000 189
Barua 189
British 189
Bub@@ 189
In 189
Kayanza 189
Northern 189
People 189
Usimamizi 189
adilishana 189
akish@@ 189
anash@@ 189
domo 189
inganisha 189
itishwa 189
kuambukizwa 189
kutembelea 189
majibu 189
rek@@ 189
ukw@@ 189
uro 189
wajumbe 189
zinduliwa 189
1931 188
2022 188
Abdallah 188
Anglikana 188
Cham@@ 188
Columbia 188
Congress 188
Dor@@ 188
Kais@@ 188
Kaz@@ 188
Kinshasa 188
Kitai 188
Mwin@@ 188
Nis@@ 188
Torati 188
Umma 188
angaji 188
angeweza 188
bah@@ 188
ess@@ 188
hufanyika 188
hufanywa 188
inayotumika 188
inuko 188
kitaalamu 188
kutimiza 188
mashambulio 188
mmen@@ 188
ongoni 188
theluthi 188
uchoraji 188
ulivu 188
wakoloni 188
wemo 188
wing@@ 188
Alich@@ 187
Anach@@ 187
Des@@ 187
Illinois 187
KANU 187
Kijapani 187
Mf@@ 187
Mkon@@ 187
Ste@@ 187
Waanglikana 187
Yugoslavia 187
anye 187
ardinali 187
atima 187
dhah@@ 187
emu 187
endana 187
igi 187
mes@@ 187
mkate 187
nyara 187
pendwa 187
shi@@ 187
uen@@ 187
uenezi 187
uhiwa 187
1912 186
Bila 186
Dr@@ 186
Fre@@ 186
Gavana 186
Israel 186
Lut@@ 186
Mr@@ 186
afakari 186
afirisha 186
aio 186
anaz@@ 186
hamini 186
haniwa 186
ingatiwa 186
itu@@ 186
kisukari 186
kulit@@ 186
kupigania 186
kurekebisha 186
nusufamilia 186
oria 186
ter 186
uniwa 186
ushuru 186
utend@@ 186
waliwa 186
1927 185
200@@ 185
Bukoba 185
Entertainment 185
Hizi 185
I. 185
Lit@@ 185
Mimi 185
Rad@@ 185
UK 185
aliyeitwa 185
ash 185
bamba 185
bandia 185
dy 185
elektroniki 185
etatu 185
falme 185
hujumuisha 185
iliyos@@ 185
iliyoundwa 185
kio 185
mwishowe 185
ohitaji 185
thibi@@ 185
ufahamu 185
ufunuo 185
weng@@ 185
000,000 184
50,000 184
Ap@@ 184
Fedha 184
Makerere 184
Mito 184
Mtindo 184
Nyar@@ 184
Tom@@ 184
Wamarekani 184
ail@@ 184
akaenda 184
alitunga 184
aliyes@@ 184
anj@@ 184
apos@@ 184
avi@@ 184
dham@@ 184
haramu 184
ilivyokuwa 184
kime@@ 184
kuanguka 184
kumbuka 184
kuthibitisha 184
mwenza 184
pendeza 184
tek@@ 184
ugaji 184
umati 184
wanasiasa 184
with 184
zilizop@@ 184
180 183
Kuba 183
Luther 183
Telev@@ 183
Watutsi 183
adam@@ 183
alay 183
aliweka 183
amefanya 183
amin@@ 183
ann@@ 183
api 183
apor@@ 183
esh 183
fil@@ 183
fon@@ 183
hun@@ 183
kufungua 183
kuharibu 183
lilim@@ 183
marekebisho 183
nji@@ 183
okozi 183
opende@@ 183
pro@@ 183
rithi 183
tamka 183
unajulikana 183
ungumzwa 183
wanaz@@ 183
wapya 183
304 182
73 182
AP@@ 182
Carl 182
Hong 182
Kiholanzi 182
Uthai 182
Zambezi 182
buka 182
ent 182
inganishwa 182
kiburi 182
mashambulizi 182
oks@@ 182
ome@@ 182
sumaku 182
wavulana 182
zimep@@ 182
99 181
Alama 181
Antak@@ 181
Badala 181
Hawa 181
Istanbul 181
Jumla 181
Msanii 181
Pierre 181
alikwa 181
fet@@ 181
iana 181
iliitwa 181
kap@@ 181
kau@@ 181
kikabila 181
kuchapishwa 181
kuondolewa 181
maudhui 181
nguzo 181
ofautisha 181
ongaji 181
radi@@ 181
riadha 181
tafiti 181
tathmini 181
tembo 181
ts 181
uliendelea 181
ungwe 181
uzani 181
ve@@ 181
yan 181
{ 181
Akw@@ 180
Bandari 180
Dj@@ 180
Eire 180
Euro 180
Kabar@@ 180
Mafunzo 180
Uarabuni 180
Wanam@@ 180
abor@@ 180
afanuliwa 180
afirishaji 180
akishirikiana 180
aliyep@@ 180
amepata 180
amiati 180
anaendelea 180
chap@@ 180
darubini 180
ith@@ 180
jik@@ 180
kiakili 180
lan@@ 180
les@@ 180
oea 180
ruhusu 180
shina 180
unni 180
unzaji 180
wambia 180
zw@@ 180
Ac@@ 179
Hur@@ 179
Isa@@ 179
Jike 179
Kalenda 179
Lab@@ 179
Marsabit 179
Mchezo 179
Nelson 179
Ob@@ 179
Usalama 179
Wit@@ 179
Yordani 179
akarudi 179
alikuja 179
alin@@ 179
ambukizo 179
amu@@ 179
apokea 179
embea 179
huri 179
hutengenezwa 179
iliyoongozwa 179
julikani 179
kilabu 179
kilicho 179
kingamwili 179
kiraia 179
kufanyika 179
machache 179
masimulizi 179
mnara 179
opti 179
sk 179
tom@@ 179
treni 179
umizi 179
viazi 179
wapa 179
wende 179
AK@@ 178
Cu@@ 178
Kroatia 178
Mafanikio 178
Moh@@ 178
Nag@@ 178
Ou@@ 178
Rock 178
UM 178
VII 178
Vis@@ 178
Yuda 178
ambara 178
emeko 178
hauri 178
hospitalini 178
ice 178
igu@@ 178
ikamana 178
kimap@@ 178
lava 178
lilianza 178
mus@@ 178
nyepesi 178
uchapishaji 178
ugua 178
vilivyot@@ 178
Air 177
Alichaguliwa 177
Alishiriki 177
Hop 177
Hoteli 177
Kong@@ 177
Mwen@@ 177
Mwili 177
Nyasa 177
Rub@@ 177
Shamu 177
Sydney 177
Wao 177
ambar@@ 177
andikia 177
atiki 177
bichi 177
endekeza 177
endeleo 177
gal@@ 177
jumuishwa 177
kipo 177
kuhama 177
kulenga 177
kutor@@ 177
lem@@ 177
lililopo 177
makusudi 177
nom@@ 177
tang@@ 177
thabiti 177
upe@@ 177
ver@@ 177
vibao 177
Bag@@ 176
Eli@@ 176
Francisco 176
Gaz@@ 176
IS@@ 176
MA 176
May 176
Raj@@ 176
Rekodi 176
Wanafunzi 176
asababisha 176
aua 176
hel@@ 176
heshimu 176
ikam@@ 176
ille 176
jumaa 176
kutofautisha 176
miongo 176
mtumishi 176
mun@@ 176
ogwe 176
oleta 176
tumbaku 176
tunda 176
upimaji 176
1928 175
303 175
66 175
Diokletian 175
Jamaika 175
Kabila 175
Kilom@@ 175
Liverpool 175
Masasi 175
Mog@@ 175
Polisi 175
Rio 175
Southern 175
alidai 175
day@@ 175
ham 175
induzi 175
jani 175
kubalika 175
mabara 175
ster@@ 175
uang@@ 175
wakam@@ 175
wele 175
yanyasaji 175
1889 174
Eu@@ 174
Frank 174
Ivory 174
Joe 174
Nyab@@ 174
S. 174
Single 174
Thi@@ 174
anchi 174
eshima 174
gan@@ 174
ilimia 174
imamu 174
kari@@ 174
lango 174
linamaanisha 174
maombi 174
omaanisha 174
op 174
wanach@@ 174
Bot@@ 173
DM 173
Kay@@ 173
Sura 173
Thoma 173
Western 173
aal@@ 173
ce 173
des@@ 173
e.@@ 173
endelevu 173
erman@@ 173
ius 173
jumbe 173
madhumuni 173
peo 173
plasti@@ 173
ref 173
rut@@ 173
ry 173
sent@@ 173
sul@@ 173
tri@@ 173
ts@@ 173
wakim@@ 173
yar@@ 173
} 173
72 172
AM@@ 172
Anna 172
Cl@@ 172
Run@@ 172
ax@@ 172
chapa 172
dor@@ 172
jip@@ 172
kt@@ 172
lip@@ 172
o.@@ 172
ombia 172
rowspan 172
Arthur 171
Carlos 171
Cross 171
Iraq 171
Mig@@ 171
Omar 171
Ptolem@@ 171
aika 171
anik@@ 171
ban@@ 171
faransa 171
iva 171
jan@@ 171
jano 171
kel@@ 171
‎ 171
119 170
98 170
AC 170
Adam 170
Hom@@ 170
Ik@@ 170
Kiku@@ 170
Knowles 170
Kuf@@ 170
Mesopotamia 170
Odinga 170
Sing@@ 170
beri 170
isiy@@ 170
lilik@@ 170
ons 170
yai 170
15,000 169
1903 169
1916 169
Diamond 169
Fil@@ 169
Munich 169
Natal 169
Tig@@ 169
Tri@@ 169
Zama 169
akich@@ 169
angaz@@ 169
atua 169
bl@@ 169
eth@@ 169
han 169
its 169
mag 169
maumb@@ 169
mfany@@ 169
mir@@ 169
okot@@ 169
shwa 169
sur@@ 169
Ford 168
Hen@@ 168
Karl 168
Luk@@ 168
Star@@ 168
anii 168
ego 168
23,@@ 167
57 167
Aleks@@ 167
Amet@@ 167
CD@@ 167
Nandi 167
Teresa 167
Virginia 167
anne 167
atizo 167
deni 167
diko 167
ige@@ 167
isani 167
jana 167
lahi 167
und 167
vul@@ 167
1.5 166
28@@ 166
62 166
AL@@ 166
Ex@@ 166
Tony 166
Viv@@ 166
Wilson 166
Yer@@ 166
adudu 166
antibiot@@ 166
atano 166
bani 166
ejulikana 166
ikab@@ 166
mav@@ 166
Bangladesh 165
Golden 165
It@@ 165
Juba 165
Limited 165
NBC 165
Tokyo 165
alizi 165
ator 165
bert 165
hama 165
iku 165
ilifu 165
ingira 165
kot@@ 165
pemb@@ 165
sho@@ 165
wang@@ 165
yoo 165
zis@@ 165
1935 164
Beth@@ 164
Dak@@ 164
Fu@@ 164
Harvard 164
Samuel 164
Sand@@ 164
Yemen 164
afrika 164
atana 164
bot@@ 164
dens@@ 164
eny@@ 164
ilin@@ 164
kop@@ 164
madar@@ 164
pori 164
rock 164
rom@@ 164
tik@@ 164
ukio 164
ys 164
19,@@ 163
1932 163
Alim@@ 163
Gre@@ 163
Hel@@ 163
Kau@@ 163
Kimar@@ 163
Pl@@ 163
Rip@@ 163
Shu@@ 163
eneza 163
otaka 163
wango 163
ć 163
α 163
1908 162
1913 162
20,@@ 162
Cairo 162
Fatima 162
Jin@@ 162
Kri@@ 162
R. 162
SC 162
Shar@@ 162
Sur@@ 162
Zu@@ 162
alifu 162
bete 162
bir@@ 162
ell@@ 162
igaji 162
jener@@ 162
kaa 162
kto 162
opa 162
tus@@ 162
uvu 162
wet 162
yem@@ 162
1896 161
1906 161
Delta 161
Ed@@ 161
Mim@@ 161
Ras@@ 161
Studio 161
Super 161
Sy@@ 161
Vid@@ 161
W. 161
amata 161
ekar@@ 161
ello 161
ensis 161
hwa 161
ins 161
ipa 161
irikiano 161
mek@@ 161
ozaliwa 161
yn 161
Abu@@ 160
Ari@@ 160
Bil@@ 160
Bulgaria 160
Ek@@ 160
Fer@@ 160
Hao 160
Hol@@ 160
Omani 160
Queensland 160
Stefano 160
Tw@@ 160
ace 160
eana 160
hambu@@ 160
ihi 160
kien@@ 160
kumbu 160
kuni 160
kupas@@ 160
mith@@ 160
otu 160
shar@@ 160
umbu 160
í@@ 160
€ 160
Bad 159
Walter 159
adhim@@ 159
anthropo@@ 159
atifu 159
bel@@ 159
bil@@ 159
eha 159
ekan@@ 159
imita 159
odi@@ 159
ongoro 159
papa 159
pend@@ 159
safa 159
04 158
2.5 158
29@@ 158
79 158
83 158
Dal@@ 158
Nany@@ 158
Uj@@ 158
anal@@ 158
bud@@ 158
eso 158
seti 158
tol@@ 158
urah@@ 158
vish@@ 158
1870 157
59 157
Andrew 157
Baad@@ 157
Bill 157
Gat@@ 157
No 157
Pel@@ 157
Sc@@ 157
ds 157
ech 157
gu 157
obi 157
oli@@ 157
osho 157
tus 157
Chang@@ 156
D. 156
Green 156
Hall 156
Ing@@ 156
Mj@@ 156
Rhine 156
agwa 156
anar@@ 156
chai 156
ette 156
ks 156
tha 156
07 155
350 155
Bes@@ 155
Bibi 155
Boston 155
Cam@@ 155
Carolina 155
Fo@@ 155
Kiko 155
Sav@@ 155
WWE 155
eli@@ 155
jazz 155
manga 155
nae 155
1860 154
200,000 154
Aegean 154
Benjamin 154
Center 154
Geneva 154
Nu@@ 154
Om@@ 154
Tro@@ 154
ajemi 154
dha 154
etti 154
fumb@@ 154
iru 154
kutofau@@ 154
mili@@ 154
pati@@ 154
uwe 154
,@@ 153
1902 153
63 153
Ach@@ 153
Alfa 153
Alpi 153
Diok@@ 153
Ibrahim 153
Marko 153
Mati@@ 153
Shin@@ 153
Time 153
adiki 153
ahada 153
aleta 153
apu 153
ill@@ 153
kung 153
su 153
yl@@ 153
zam@@ 153
zuri 153
09 152
Antonio 152
Dis@@ 152
Ev@@ 152
Jib@@ 152
Kiaus@@ 152
Nyan@@ 152
Pot@@ 152
Red 152
Siberia 152
Vincent 152
alika 152
ff@@ 152
insi 152
keza 152
kiw@@ 152
mez@@ 152
wahili 152
1907 151
59@@ 151
Bat@@ 151
Cer@@ 151
Gro@@ 151
Kel@@ 151
Oxford 151
Qur@@ 151
Show 151
ambazaji 151
any 151
hir 151
inad@@ 151
ington 151
ise 151
kad@@ 151
sela 151
tezi 151
1924 150
9.@@ 150
Amin 150
Astronom@@ 150
Christopher 150
Dun@@ 150
EP 150
Id@@ 150
Pin@@ 150
Prince 150
Sud@@ 150
Vo@@ 150
Yas@@ 150
ben@@ 150
daw@@ 150
ence 150
ie@@ 150
ikim@@ 150
liz@@ 150
oth@@ 150
oua 150
A.@@ 149
AB@@ 149
Day 149
Fa@@ 149
Hon@@ 149
Laos 149
Liga 149
Nah@@ 149
Napoli 149
Old 149
Otto 149
Peru 149
Sep@@ 149
Sou@@ 149
Steve 149
Tom 149
adri 149
agga 149
estr@@ 149
izo@@ 149
liza 149
tika 149
tis 149
1800 148
4.@@ 148
68 148
69 148
AS 148
Azim@@ 148
Der@@ 148
Disney 148
Haw@@ 148
Pent@@ 148
Sah@@ 148
Sem@@ 148
Som@@ 148
Umb@@ 148
Up 148
abaka 148
ark@@ 148
arr@@ 148
delta 148
dik@@ 148
dikt@@ 148
res@@ 148
yid 148
1625 147
Bayer 147
Buh@@ 147
Hamburg 147
M.@@ 147
Neg@@ 147
Osmani 147
Pom@@ 147
Song@@ 147
Tem@@ 147
afanuzi 147
akini 147
akus@@ 147
angala 147
angilio 147
arab@@ 147
arak@@ 147
awaida 147
chor@@ 147
esab@@ 147
inev@@ 147
lak@@ 147
pp@@ 147
unya 147
was 147
ו@@ 147
109 146
40,000 146
Bob 146
Cib@@ 146
Del@@ 146
Je@@ 146
K. 146
Lok@@ 146
US@@ 146
ahudi 146
akar@@ 146
arida 146
ger 146
heria 146
ins@@ 146
inti 146
isiwa 146
jiografia 146
kok@@ 146
nyan@@ 146
rud@@ 146
yer@@ 146
1836 145
71 145
76 145
89 145
Frederick 145
Hir@@ 145
Kand@@ 145
Kuch@@ 145
Mau 145
Mn@@ 145
Tal@@ 145
Ty@@ 145
hit@@ 145
kete 145
ney 145
oki 145
que 145
www.@@ 145
1911 144
25,@@ 144
Abdul@@ 144
Kind@@ 144
Lag@@ 144
Pennsylvania 144
Pretoria 144
Sor@@ 144
Vin@@ 144
atani 144
atu@@ 144
aunti 144
aw 144
eda 144
glut@@ 144
kaya 144
oste 144
pap@@ 144
市 144
1880 143
1921 143
America 143
IA 143
IN@@ 143
José 143
Kany@@ 143
Khar@@ 143
MC 143
Saf@@ 143
Tand@@ 143
Tours 143
US 143
West@@ 143
ard@@ 143
athi@@ 143
bra 143
car@@ 143
hiwa 143
japani 143
pro 143
ren@@ 143
sea 143
ugo 143
ustani 143
ving@@ 143
6.@@ 142
91 142
AI@@ 142
Bid@@ 142
Bol@@ 142
C.@@ 142
Eng@@ 142
Jordan 142
Kub@@ 142
Mang@@ 142
ahara 142
ambuli@@ 142
baa 142
bira 142
bung@@ 142
hed@@ 142
http 142
kukat@@ 142
mali@@ 142
oja 142
vitamini 142
ˈ@@ 142
​ 142
110 141
Aur@@ 141
DP 141
Hai@@ 141
Mr. 141
Orchestra 141
She@@ 141
adirio 141
ambul@@ 141
ante 141
ates 141
azamaji 141
ekeb@@ 141
gi 141
hu 141
jaw@@ 141
mark 141
mer 141
oleo 141
oso 141
piano 141
singi 141
tari@@ 141
unde 141
uwe@@ 141
wane 141
37@@ 140
96 140
Antoni 140
Bir@@ 140
Bos@@ 140
Boy 140
Dav@@ 140
Filipo 140
Jab@@ 140
Khalifa 140
Mav@@ 140
Mike 140
Nach@@ 140
Norway 140
Ontario 140
Plat@@ 140
Scotland 140
São 140
all@@ 140
ampa 140
arabu 140
ehebu 140
engine 140
est 140
fus@@ 140
hil@@ 140
ies 140
ikio 140
illa 140
issa 140
kimya 140
misaf@@ 140
oper@@ 140
ras@@ 140
sur 140
tumb@@ 140
ufe 140
uham@@ 140
war 140
1,4@@ 139
12,000 139
1884 139
1887 139
1904 139
Afro 139
Bad@@ 139
Gol@@ 139
Lincoln 139
Ma 139
Nus@@ 139
Pac 139
Pas@@ 139
Press 139
Sun 139
abi@@ 139
asiye 139
his@@ 139
jal@@ 139
kulu 139
lar@@ 139
moy@@ 139
tro@@ 139
uit@@ 139
Beach 138
Institute 138
Nim@@ 138
Oy@@ 138
Peters 138
RA 138
Saba 138
Tut@@ 138
Zab@@ 138
age@@ 138
buni 138
from 138
idia 138
inka 138
km2 138
udio 138
une 138
1899 137
Ally 137
Blue 137
Bro@@ 137
Durban 137
Fi@@ 137
G. 137
aceae 137
dar@@ 137
doni 137
hy@@ 137
lind@@ 137
low 137
otor@@ 137
ping@@ 137
tago 137
toa 137
wimbi 137
zen@@ 137
Abit@@ 136
God@@ 136
Great 136
Lazio 136
Qaeda 136
SA 136
Sultan 136
Tav@@ 136
Win@@ 136
Yus@@ 136
ejeo 136
ern@@ 136
huba 136
kaf@@ 136
kupum@@ 136
lif@@ 136
nor@@ 136
obe 136
omali 136
ongoji 136
sy@@ 136
1891 135
53@@ 135
87 135
EC@@ 135
Kang@@ 135
Peace 135
Sweden 135
Territory 135
abab@@ 135
aluma 135
ekodi 135
imeh@@ 135
mini 135
patia 135
run@@ 135
sou@@ 135
tem@@ 135
unach@@ 135
1898 134
Britania 134
Day@@ 134
ES@@ 134
Gaza 134
Gold 134
Haf@@ 134
Road 134
Trans 134
Tupac 134
Ven@@ 134
agu@@ 134
beta 134
dai 134
ks@@ 134
let@@ 134
pik 134
wor@@ 134
160 133
5.@@ 133
57@@ 133
97 133
Bin 133
Est@@ 133
Frankfurt 133
Ibn 133
Iw@@ 133
Jr 133
Lor@@ 133
Lum@@ 133
Margaret 133
Neb@@ 133
Vanuatu 133
`@@ 133
adiliko 133
ci 133
da@@ 133
elezi 133
ifuat@@ 133
ikan@@ 133
non 133
owe 133
thi@@ 133
toum 133
yok@@ 133
74 132
Bang@@ 132
Ca@@ 132
Fort 132
Gau@@ 132
Mariah 132
Romania 132
Seg@@ 132
Wel@@ 132
acho 132
ais 132
azia 132
bero 132
gre@@ 132
indano 132
kran@@ 132
ode 132
oud 132
oya 132
solo 132
thiop@@ 132
uhu 132
well 132
1,6@@ 131
11.@@ 131
92 131
93 131
AC@@ 131
ARC 131
Anne 131
CL@@ 131
Fe@@ 131
Gas@@ 131
Hes@@ 131
Jen@@ 131
Kaw@@ 131
Kot@@ 131
Max@@ 131
Ml@@ 131
Rug@@ 131
Sag@@ 131
Ze@@ 131
alid@@ 131
efu 131
ekw@@ 131
enz@@ 131
indu@@ 131
kumbu@@ 131
kuru 131
media 131
ns 131
oué 131
panda 131
sok@@ 131
ա@@ 131
1791 130
1839 130
1915 130
22,@@ 130
94 130
Abba 130
Andes 130
Dol@@ 130
Od@@ 130
Roger 130
Toyota 130
ess 130
hug@@ 130
mang 130
ology 130
tic 130
use 130
val@@ 130
11@@ 129
1897 129
1901 129
84 129
AR@@ 129
AT@@ 129
Alex 129
Brian 129
Fon@@ 129
Gir@@ 129
Is 129
Nin@@ 129
Rab@@ 129
Russia 129
Solomon 129
Tov@@ 129
XIV 129
amerika 129
ich 129
lich@@ 129
lima 129
pom@@ 129
ps 129
uja 129
ô@@ 129
08 128
140 128
Amb@@ 128
CE@@ 128
Film 128
Fin@@ 128
His@@ 128
Lom@@ 128
Orange 128
ajika 128
ambe 128
aud@@ 128
ebu 128
elem@@ 128
fululizo 128
ico 128
kuliwa 128
lis 128
mn@@ 128
od 128
ole@@ 128
pil@@ 128
popo 128
xi 128
47@@ 127
500,000 127
60,000 127
82 127
86 127
Baden 127
Davis 127
Klara 127
Kos@@ 127
Mob@@ 127
Wilhelm 127
Ya@@ 127
aam 127
aland 127
amar@@ 127
che@@ 127
enza 127
fre@@ 127
hira 127
my@@ 127
nav@@ 127
uala 127
ugenzi 127
uzam@@ 127
00@@ 126
1866 126
77 126
9,000 126
Addis 126
Cambridge 126
DA 126
Emmanuel 126
France 126
Gabriel 126
Hesse 126
Hippo 126
Krist@@ 126
Lang@@ 126
Misa 126
Movement 126
Obama 126
Panama 126
Pre@@ 126
Sad@@ 126
Sho@@ 126
Street 126
auso 126
bar 126
bera 126
bury 126
ism 126
juk@@ 126
neo 126
olia 126
sey 126
sho 126
00 125
81 125
ANC 125
Arts 125
Free 125
Fur@@ 125
Kairo 125
Steven 125
Trans@@ 125
als 125
banda 125
den@@ 125
inger 125
meth@@ 125
oph@@ 125
sand@@ 125
som@@ 125
tur@@ 125
ukwaa 125
wili 125
130 124
27,@@ 124
Bank 124
Dakar 124
Fat@@ 124
Goguryeo 124
Hollywood 124
Laur@@ 124
Lil@@ 124
Mass@@ 124
Ong@@ 124
Post 124
Pu@@ 124
Ruv@@ 124
Shakur 124
Sis@@ 124
anze 124
asin 124
emokrasia 124
ener@@ 124
ful@@ 124
kos@@ 124
laz@@ 124
lu 124
mashu@@ 124
opera 124
sonia 124
tata 124
uri@@ 124
1892 123
75@@ 123
Beijing 123
Cop@@ 123
Earth 123
England 123
Grace 123
Howard 123
Hussein 123
Lil 123
RE@@ 123
Rashid 123
Venezuela 123
alla 123
ao@@ 123
ations 123
ays 123
bus@@ 123
del@@ 123
dem@@ 123
gul@@ 123
ichana 123
isiti@@ 123
izi@@ 123
my 123
num@@ 123
ongoz@@ 123
sou 123
thro@@ 123
unj@@ 123
weke 123
201@@ 122
24,@@ 122
7.@@ 122
Be 122
Centre 122
Chem@@ 122
Development 122
Lat@@ 122
Naz@@ 122
Pap@@ 122
Prot@@ 122
Qatar 122
Ross 122
Sever@@ 122
andinavia 122
bomba 122
ehem@@ 122
etta 122
hala 122
imia 122
keti 122
orea 122
raga 122
reg@@ 122
tume 122
„ 122
103 121
105 121
1895 121
Alfred 121
Dani@@ 121
Dũng 121
Ellen 121
Haya 121
Iceland 121
Isaac 121
Juventus 121
Len@@ 121
Nap@@ 121
On 121
Pau@@ 121
Sat@@ 121
Taiwan 121
Tamb@@ 121
UK@@ 121
Ufu@@ 121
We 121
ariadha 121
bos@@ 121
idizi 121
isini 121
itaka 121
kiza 121
krom@@ 121
okia 121
olo@@ 121
ten 121
ungufu 121
zuka 121
101 120
4000 120
78 120
Bosnia 120
Brothers 120
Fox 120
Kitur@@ 120
L. 120
Live 120
Lạc 120
Main 120
Napoleon 120
Nye@@ 120
Shir@@ 120
Tag@@ 120
Vig@@ 120
XV 120
Zin@@ 120
adan 120
cu@@ 120
dei 120
eski 120
eu 120
gl@@ 120
huang 120
imto 120
ion 120
rav@@ 120
rei 120
til@@ 120
yc@@ 120
34@@ 119
Daily 119
Die 119
H. 119
Haiti 119
Kem@@ 119
Kok@@ 119
Laden 119
Laz@@ 119
Lem@@ 119
Nov@@ 119
Now 119
Rail@@ 119
Shi@@ 119
WHO 119
akh 119
ales 119
amoto 119
athi 119
atr@@ 119
eck 119
erina 119
ett 119
giji 119
haria 119
ikal@@ 119
land@@ 119
106 118
360 118
Ahmad 118
Canterbury 118
Foreign 118
Global 118
Haz@@ 118
Shay@@ 118
Sicilia 118
adhimishwa 118
bs 118
dan 118
ebi 118
ebo@@ 118
eh 118
fo 118
haba 118
hr@@ 118
iri@@ 118
ishati 118
jili 118
jumu@@ 118
klin@@ 118
mbing@@ 118
miliki 118
poli@@ 118
ster 118
tete 118
ty@@ 118
uda 118
1200 117
1861 117
1871 117
Allen 117
Bum@@ 117
Da 117
Ga@@ 117
Gil@@ 117
Kaf@@ 117
Lake 117
Lub@@ 117
Mub@@ 117
Sig@@ 117
Stanley 117
Tas@@ 117
Tek@@ 117
auli@@ 117
ayi 117
bis@@ 117
eland 117
fas@@ 117
ifuata 117
iliyor@@ 117
int@@ 117
ja@@ 117
kak@@ 117
lin 117
mor@@ 117
out 117
pag@@ 117
tendaji 117
tin 117
uth@@ 117
ys@@ 117
01 116
1,8@@ 116
Ann@@ 116
Bonif@@ 116
CNN 116
F.C 116
Fran@@ 116
Hem@@ 116
Hills 116
Kelly 116
Lati@@ 116
Nan@@ 116
Qur 116
Red@@ 116
SS@@ 116
Uy@@ 116
aster@@ 116
atan@@ 116
ayan 116
dugu 116
ide 116
igano 116
izofr@@ 116
kimb@@ 116
meng@@ 116
onea 116
ria 116
sol@@ 116
tok@@ 116
umisha 116
ão 116
05 115
1,9@@ 115
10.@@ 115
1893 115
26,@@ 115
8.@@ 115
Algiers 115
Allah 115
Alliance 115
Ard@@ 115
Num@@ 115
OS 115
Usw@@ 115
Wand@@ 115
Zaire 115
aksi 115
inth@@ 115
kamera 115
mojaw@@ 115
pyuta 115
ran@@ 115
tet@@ 115
vena 115
way 115
zab@@ 115
25,000 114
450 114
Ashanti 114
Bundesliga 114
Diego 114
EMA 114
Harris 114
Long 114
Max 114
Santos 114
Suez 114
Tim 114
Tus@@ 114
Villa 114
Wau@@ 114
aan 114
ance 114
kin 114
ky 114
unguko 114
1894 113
Ababa 113
Alpha 113
Atlanta 113
Claire 113
Eric 113
Jan@@ 113
Ltd 113
Luis 113
Ohio 113
Ony@@ 113
Orleans 113
Pan 113
Sun@@ 113
WA 113
adia 113
akal@@ 113
aq 113
awia 113
ax 113
band@@ 113
ets 113
hayaj@@ 113
hep@@ 113
lor@@ 113
more 113
vo@@ 113
zee 113
ø@@ 113
ː 113
06 112
170 112
1840 112
43@@ 112
Ankara 112
Bayern 112
Cup 112
Dioecesis 112
F. 112
Girls 112
Kazakhstan 112
Lak@@ 112
Lesotho 112
Microsoft 112
Pale 112
Serie 112
Stephen 112
Sulawesi 112
Sus@@ 112
Theatre 112
Yam@@ 112
abiashara 112
abr@@ 112
bai 112
bie 112
edia 112
enzo 112
ga@@ 112
grav@@ 112
him 112
ispaa 112
okrasia 112
pari 112
semin@@ 112
tes 112
yor@@ 112
107 111
21,@@ 111
Adolf 111
Anderson 111
Arabia 111
CB 111
Darfur 111
Den@@ 111
Ezra 111
Ful@@ 111
Sas@@ 111
Seng@@ 111
Sinai 111
ador 111
ag 111
bee 111
chin@@ 111
esti 111
han@@ 111
ias 111
key 111
kez@@ 111
mazo@@ 111
oth 111
pet@@ 111
tilia 111
umbusho 111
usur@@ 111
03 110
BC 110
Baby 110
Buy@@ 110
Dennis 110
Faus@@ 110
Front 110
Hand@@ 110
Hans 110
Harry 110
Marcus 110
Med@@ 110
Missions 110
Morocco 110
Shah 110
Silva 110
Soul 110
Tre@@ 110
Trier 110
Youth 110
aidizi 110
ainishaji 110
amas@@ 110
apar@@ 110
bati@@ 110
bez@@ 110
ck 110
iza 110
may@@ 110
nh@@ 110
odha 110
omin@@ 110
ons@@ 110
our@@ 110
soni 110
tin@@ 110
ָ@@ 110
Art 109
Dou@@ 109
Kili@@ 109
Les@@ 109
NA 109
RI@@ 109
Rap 109
Same 109
Seoul 109
Sit@@ 109
Tou@@ 109
Tuk@@ 109
Var@@ 109
^ 109
andisi 109
angi@@ 109
att@@ 109
aun@@ 109
biu 109
chen@@ 109
elia 109
ep 109
ex@@ 109
fes@@ 109
lie 109
ling 109
madeni 109
md@@ 109
ofau@@ 109
ors 109
80@@ 108
BA 108
Barbara 108
CS@@ 108
Cre@@ 108
Denis 108
Dub@@ 108
Fad@@ 108
Gb@@ 108
Gur@@ 108
Houston 108
Ij@@ 108
Lac@@ 108
Lawrence 108
Milan 108
Mum@@ 108
Nat@@ 108
Queens 108
Rut@@ 108
Song 108
Tsh@@ 108
Valley 108
Victor 108
Wallace 108
Yak@@ 108
aguso 108
alum 108
fel@@ 108
fuatia 108
ize 108
kg 108
kugawa 108
kukus@@ 108
kutambu@@ 108
ose 108
owa 108
poin@@ 108
yang@@ 108
ym@@ 108
én@@ 108
ï@@ 108
1,7@@ 107
2,0@@ 107
34,@@ 107
Bell@@ 107
Country 107
Cur@@ 107
Galil@@ 107
Kuh@@ 107
Minnesota 107
Mississippi 107
Nation 107
Ot@@ 107
Rem@@ 107
Sarah 107
Sev@@ 107
Slovenia 107
Timor 107
Uruguay 107
chui 107
con@@ 107
dam@@ 107
din 107
mom@@ 107
muh@@ 107
ometr@@ 107
ski 107
taki 107
tan 107
ukat@@ 107
yn@@ 107
ABC 106
Abdul 106
Afric@@ 106
Amsterdam 106
Can 106
Daw@@ 106
Inter@@ 106
Juan 106
Konstant@@ 106
Lewis 106
Luc@@ 106
Nur@@ 106
Ray 106
Sid@@ 106
Whit@@ 106
aalamu 106
aia 106
alie 106
anna 106
atus 106
hom@@ 106
lig@@ 106
lov@@ 106
mtaal@@ 106
oster@@ 106
ric@@ 106
ser 106
taba 106
tisi 106
undisho 106
á@@ 106
ō@@ 106
1881 105
Abdullah 105
Cordoba 105
District 105
Fun@@ 105
Girl 105
Joseon 105
Mafia 105
Nol@@ 105
Raf@@ 105
Ruk@@ 105
SS 105
Saturn@@ 105
Sports 105
Suleiman 105
eman 105
graf@@ 105
ide@@ 105
ien 105
ill 105
inn@@ 105
kipen@@ 105
kl@@ 105
lands 105
nach@@ 105
olanzi 105
ont@@ 105
satel@@ 105
teri 105
tivo 105
ward 105
Banda 104
Brooklyn 104
Cat@@ 104
Chin@@ 104
Donald 104
Jaz@@ 104
Kath@@ 104
Kennedy 104
Lup@@ 104
Op@@ 104
Oscar 104
Rah@@ 104
UU 104
Ung@@ 104
ambuliaji 104
blog@@ 104
ehemu 104
enn@@ 104
etab@@ 104
hudi 104
ikira 104
kilogr@@ 104
kitab@@ 104
ony 104
ow 104
para 104
situ 104
str@@ 104
tof@@ 104
town 104
wang 104
290 103
38@@ 103
AF@@ 103
Bam@@ 103
Bernard 103
Bé@@ 103
COVID 103
Corps 103
Felix 103
Jacob 103
Je 103
Marais 103
Mauret@@ 103
Nature 103
Patr@@ 103
Porto 103
RT 103
Shia 103
Sow@@ 103
TK@@ 103
Township 103
Wenger 103
able 103
alay@@ 103
aran@@ 103
asio 103
ated 103
atie 103
audio 103
baj@@ 103
ff 103
got@@ 103
onek@@ 103
riz@@ 103
up 103
wara 103
1,3@@ 102
3,0@@ 102
AR 102
Beng@@ 102
CA@@ 102
Colorado 102
Copa 102
Div@@ 102
Emmy 102
Equ@@ 102
Little 102
Lombardia 102
Mom@@ 102
Mongolia 102
Nana 102
Network 102
PA 102
Pir@@ 102
Sm@@ 102
T. 102
Tol@@ 102
XVII 102
Yo 102
Zak@@ 102
Zel@@ 102
beb@@ 102
dol@@ 102
fer@@ 102
inz@@ 102
kah@@ 102
lol@@ 102
nas@@ 102
uklia 102
utaka 102
vur@@ 102
108 101
1830 101
1850 101
320 101
50@@ 101
Alaska 101
Barn@@ 101
Bolivia 101
Boys 101
Brooks 101
Council 101
Game 101
Helen 101
Maryland 101
Pak@@ 101
Pemb@@ 101
Pop 101
Rak@@ 101
TA 101
Tang@@ 101
Ten@@ 101
ahu 101
alon@@ 101
arg@@ 101
bou@@ 101
department 101
ei@@ 101
fo@@ 101
iss@@ 101
keli 101
kh 101
kilo 101
log@@ 101
men 101
pete 101
thumb 101
urujia 101
á 101
1600 100
1700 100
1909 100
28,@@ 100
Ale@@ 100
Bra@@ 100
Bush 100
Business 100
Chil@@ 100
Church 100
Corporation 100
Cro@@ 100
Dre 100
Dur@@ 100
Forbes 100
Haj@@ 100
Hy@@ 100
Iz@@ 100
Kamer@@ 100
Leon@@ 100
Leopold 100
Livingstone 100
MS@@ 100
Polin@@ 100
Tel@@ 100
apishaji 100
biana 100
dal@@ 100
ef 100
eter@@ 100
giz@@ 100
inge 100
not@@ 100
ord@@ 100
orum 100
teria 100
ump@@ 100
1869 99
36,@@ 99
Aires 99
Ann 99
Azerbaijan 99
Bavaria 99
Bell 99
Benn@@ 99
Chal@@ 99
Haji 99
Huy@@ 99
Ian 99
Lady 99
Lov@@ 99
Luanda 99
Mario 99
Not@@ 99
Oliver 99
Seb@@ 99
Thailand 99
Tottenham 99
Wamar@@ 99
aff@@ 99
anisi 99
ath 99
cr@@ 99
dop@@ 99
ien@@ 99
likana 99
linam@@ 99
out@@ 99
piza 99
sti@@ 99
tung@@ 99
u.@@ 99
æ@@ 99
1,5@@ 98
270 98
Abo@@ 98
Albania 98
Athens 98
Bahrain 98
Buenos 98
Cabo 98
Cent@@ 98
Ci@@ 98
FDA 98
FO@@ 98
Firenze 98
Gel@@ 98
Henri 98
Heroes 98
Lebanon 98
Ludwig 98
Pa@@ 98
RD 98
Sera 98
Tennessee 98
Tik@@ 98
Valencia 98
Wall 98
aik@@ 98
doo 98
een 98
feri 98
iche 98
ikh 98
jar@@ 98
kugun@@ 98
likia 98
mr@@ 98
nurur@@ 98
ran 98
ros@@ 98
senti@@ 98
ê@@ 98
300,000 97
550 97
Ass@@ 97
Beta 97
Chim@@ 97
Deci@@ 97
Din@@ 97
Ep@@ 97
Gordon 97
Karag@@ 97
Mok@@ 97
Naj@@ 97
Pic@@ 97
Plateau 97
Rom 97
USA 97
Windows 97
Württemberg 97
XL@@ 97
alm@@ 97
art 97
assi 97
atar@@ 97
besi 97
ein 97
ekn@@ 97
ensa 97
ides 97
lara 97
leh@@ 97
leri 97
plat@@ 97
risto 97
taz 97
ud 97
150,000 96
1882 96
Alb@@ 96
Bruce 96
Bruno 96
Cole 96
Gary 96
Hawaii 96
Ind@@ 96
Joyce 96
Lucas 96
Mahdi 96
Movie 96
Philip 96
akula 96
anda@@ 96
col@@ 96
ings 96
into 96
ister@@ 96
itz 96
lea 96
mate 96
nch@@ 96
off 96
oug@@ 96
pare 96
ray 96
sch@@ 96
37,@@ 95
Clinton 95
Deb@@ 95
Douglas 95
Eg@@ 95
Emer@@ 95
Gab@@ 95
Gl@@ 95
Guyana 95
Irak 95
Jonathan 95
Lik@@ 95
Pil@@ 95
Puerto 95
Rico 95
Sime@@ 95
Standard 95
ait@@ 95
aita 95
auf@@ 95
erg@@ 95
eru 95
esi@@ 95
galaksi 95
if 95
insia 95
lei 95
mari 95
pur@@ 95
timi@@ 95
uc@@ 95
usim@@ 95
wei 95
ə@@ 95
Anast@@ 94
Cool 94
ET 94
Facebook 94
Family 94
IP@@ 94
Johannes 94
Junior 94
Maur@@ 94
Mauritania 94
NBA 94
PE@@ 94
PhD 94
SE@@ 94
Shi 94
Tanz@@ 94
Tet@@ 94
That 94
Tum@@ 94
Volta 94
Water@@ 94
amm@@ 94
anag@@ 94
asso 94
hir@@ 94
house 94
igu 94
inia 94
lat 94
name 94
ofi 94
ologia 94
poti 94
sing@@ 94
sky 94
var@@ 94
1883 93
63@@ 93
Cav@@ 93
Dah@@ 93
Emb@@ 93
F.@@ 93
Greenland 93
Gun@@ 93
Hai 93
KwaZulu 93
Ligue 93
MS 93
Magdalena 93
Nathan 93
Saudi 93
Singles 93
Toronto 93
Wais@@ 93
Wall@@ 93
Wayne 93
aifa 93
air 93
ank@@ 93
asy 93
ator@@ 93
cl@@ 93
emaji 93
ente 93
gon 93
ikizo 93
ishowe 93
lah 93
opot@@ 93
port 93
pul@@ 93
tii 93
umbehai 93
zito 93
β 93
104 92
305 92
70@@ 92
Aleksander 92
Bologna 92
Claude 92
Dami@@ 92
ER@@ 92
European 92
For 92
Friedrich 92
Jane 92
Lar@@ 92
Mih@@ 92
Satur@@ 92
Somaliland 92
Studios 92
Warner 92
Yan@@ 92
Zo@@ 92
eini 92
epa 92
estro@@ 92
igizo 92
ison 92
istil@@ 92
mau@@ 92
ment 92
pik@@ 92
pora 92
ste@@ 92
sti 92
sy 92
tay@@ 92
tera 92
ting 92
yr@@ 92
zur@@ 92
ē@@ 92
100@@ 91
112 91
750 91
Anam@@ 91
Angela 91
Back 91
Baf@@ 91
Bec@@ 91
Dada 91
Franklin 91
Himalaya 91
Hot@@ 91
Ice 91
Jennifer 91
Kevin 91
ML@@ 91
Petr@@ 91
Quebec 91
Rouge 91
Sara 91
Ton@@ 91
Top 91
Zan@@ 91
antan 91
arufu 91
azam@@ 91
bah 91
engel@@ 91
enne 91
ers@@ 91
esta 91
eus 91
ft 91
hadi@@ 91
hol@@ 91
isio 91
isti@@ 91
iwemo 91
leng@@ 91
nz@@ 91
opi 91
sig@@ 91
udani 91
usan 91
2,9@@ 90
Afr@@ 90
Amar@@ 90
Atan@@ 90
Chik@@ 90
Emilia 90
Festival 90
Gallia 90
Hid@@ 90
Kali@@ 90
Khal@@ 90
MO 90
Marrak@@ 90
Marvel 90
Mr 90
ST@@ 90
Sabri 90
Southampton 90
TE@@ 90
Viz@@ 90
Wi@@ 90
aca 90
ack 90
aman 90
amilia 90
ansi 90
bat@@ 90
edo 90
gee 90
ines 90
king 90
lev@@ 90
metab@@ 90
nu@@ 90
nun@@ 90
ory 90
spek@@ 90
ther@@ 90
ī@@ 90
1865 89
210 89
AD 89
Agostino 89
Aks@@ 89
Aqu@@ 89
CM@@ 89
Campania 89
Cuba 89
Dec@@ 89
God 89
IP 89
Kalim@@ 89
Kenneth 89
Kura 89
Lah@@ 89
Pep@@ 89
Raymond 89
Ruh@@ 89
Tok@@ 89
Ume@@ 89
Wol@@ 89
amis 89
aph@@ 89
bron@@ 89
chim@@ 89
jed@@ 89
marais 89
meme 89
o. 89
ock 89
pp. 89
ram@@ 89
taw@@ 89
wai 89
18@@ 88
240 88
6000 88
650 88
Angel 88
Arab 88
Charlotte 88
Cy@@ 88
E.@@ 88
Gis@@ 88
Gul@@ 88
Jimmy 88
Joshua 88
Key@@ 88
Las 88
Luxemburg 88
Newton 88
Paraguay 88
Shim@@ 88
Sunni 88
Uzbekistan 88
Westfalia 88
XIX 88
adies 88
ams 88
andra 88
arm@@ 88
ayar@@ 88
dhul@@ 88
elius 88
endaji 88
epo 88
ics 88
idge 88
ishana 88
lan 88
luk@@ 88
mej@@ 88
mkus@@ 88
ness 88
ogi 88
st 88
sun@@ 88
ukom@@ 88
wand@@ 88
zio 88
él@@ 88
1857 87
Alexandria 87
All@@ 87
Ambro@@ 87
Bog@@ 87
Brit@@ 87
Channel 87
Chiba 87
Din 87
Europa 87
Gang@@ 87
Gem@@ 87
Good 87
Kn@@ 87
Les 87
Let@@ 87
Many@@ 87
Marshall 87
Maurice 87
Migu@@ 87
Mont@@ 87
Opera 87
Rum@@ 87
Salvador 87
Santiago 87
Secondary 87
alis 87
ambu 87
aut@@ 87
bro@@ 87
dos 87
habiki 87
hand@@ 87
kan 87
oge 87
owevu 87
ton@@ 87
via 87
ב@@ 87
1838 86
1867 86
Alan 86
Cab@@ 86
Jak@@ 86
Kho@@ 86
Kosovo 86
Kud@@ 86
Leon 86
Master 86
Mod@@ 86
Montenegro 86
Mount 86
Republican 86
To 86
Vladimir 86
ally 86
amilifu 86
asu 86
diana 86
epu@@ 86
her 86
inflam@@ 86
ingen 86
isipaa 86
life 86
nan 86
neur@@ 86
omey 86
oun 86
pah@@ 86
polio 86
sei 86
ū@@ 86
1.2 85
113 85
260 85
325 85
380 85
Akh@@ 85
Apple 85
Bernardo 85
Bit@@ 85
Cot@@ 85
Hos@@ 85
I.@@ 85
Jac@@ 85
Jan 85
Khmer 85
Law 85
Mek@@ 85
Mes@@ 85
Missouri 85
Muz@@ 85
Nad@@ 85
Ne 85
Oman 85
Res@@ 85
Ses@@ 85
Sib@@ 85
Unit 85
Wor@@ 85
XVIII 85
atao 85
choch@@ 85
fos@@ 85
has 85
imoto 85
itus 85
jug@@ 85
omp@@ 85
pakana 85
pokeo 85
ron@@ 85
star@@ 85
tion 85
ugi 85
uma@@ 85
uvisiwa 85
ver 85
1,500 84
1815 84
1856 84
220 84
230 84
280 84
313 84
Abe@@ 84
Adams 84
Alice 84
Bau@@ 84
DD 84
Eliz@@ 84
Football 84
Giovanni 84
Hag@@ 84
Ho 84
Irene 84
Isa 84
Leg@@ 84
Miami 84
Mid@@ 84
Nev@@ 84
SI 84
Shak@@ 84
Shet@@ 84
Thes@@ 84
Trento 84
Wood@@ 84
Yi 84
abisha 84
adini 84
agr@@ 84
alam 84
anana 84
bon 84
effer 84
eu@@ 84
harama 84
hindi 84
ifa 84
ikaans 84
kar 84
med@@ 84
mes 84
othe@@ 84
path@@ 84
tiana 84
yoy@@ 84
zav@@ 84
1864 83
400,000 83
Alfab@@ 83
Bismarck 83
Bob@@ 83
DVD 83
Ernest 83
Eus@@ 83
Ferdinand 83
Florence 83
Git@@ 83
Grant 83
Jacques 83
Johann 83
Kati@@ 83
Lav@@ 83
Lisbon 83
Mali@@ 83
Miller 83
Moses 83
Nikola 83
Power 83
Ren@@ 83
Ry@@ 83
Sevilla 83
Shil@@ 83
Slovakia 83
Sykes 83
Tah@@ 83
Uni@@ 83
Uso 83
Walt 83
Will 83
Yor@@ 83
` 83
af 83
alist@@ 83
amen@@ 83
dish 83
ede 83
ete@@ 83
ick@@ 83
miza 83
naf@@ 83
osta 83
ouk 83
reh@@ 83
ret@@ 83
were 83
ר@@ 83
12.@@ 82
1863 82
3,7@@ 82
310 82
330 82
Adi@@ 82
Air@@ 82
Arizona 82
Community 82
Dublin 82
Heinrich 82
Hun@@ 82
Indiana 82
Kach@@ 82
Kash@@ 82
Leeds 82
Lev@@ 82
Mem@@ 82
North@@ 82
Rid@@ 82
Ryan 82
Salim 82
Shel@@ 82
Sinema 82
Susan 82
Thel@@ 82
Trinidad 82
Vel@@ 82
Wiss@@ 82
Yoh@@ 82
Zen@@ 82
abara 82
abo@@ 82
acom 82
api@@ 82
arra 82
atta 82
eb 82
ester@@ 82
hariki 82
hea 82
hist@@ 82
i.@@ 82
kha 82
lam 82
optera 82
rid@@ 82
ru 82
ted 82
tic@@ 82
uge 82
urani 82
zah@@ 82
ó@@ 82
ː@@ 82
א@@ 82
02 81
115 81
1300 81
Alt@@ 81
Ball@@ 81
CU@@ 81
DO@@ 81
Ez@@ 81
Finland 81
Force 81
Herzegovina 81
Kardin@@ 81
Matt 81
Milo 81
PN@@ 81
Sony 81
Taliban 81
Television 81
Yeh@@ 81
alo@@ 81
anim@@ 81
aro@@ 81
aten@@ 81
bay 81
fen@@ 81
fuatana 81
geg@@ 81
gus@@ 81
hid@@ 81
ier 81
nar@@ 81
other@@ 81
sar 81
sis 81
tul@@ 81
ā 81
11,000 80
1862 80
Alberto 80
Apo@@ 80
Aston 80
Baltimore 80
Bok@@ 80
Costa 80
Dance 80
Do 80
Dro@@ 80
EC 80
Hope 80
IL@@ 80
Julia 80
Kle@@ 80
Nations 80
Petersburg 80
Sri 80
Stone 80
Tung@@ 80
alifor@@ 80
ento 80
fran@@ 80
har 80
ken 80
latitu@@ 80
long@@ 80
mm@@ 80
née 80
oi@@ 80
osoma 80
tend@@ 80
ters 80
ī 80
́ 80
ְ@@ 80
13.@@ 79
211 79
340 79
Abd 79
Abdel@@ 79
Arch@@ 79
Black@@ 79
Bremen 79
CA 79
Caesar 79
Chit@@ 79
Cle@@ 79
Dul@@ 79
Duma 79
Education 79
Fab@@ 79
Fiji 79
Franco 79
Gam@@ 79
Home 79
Hotel 79
IM@@ 79
Kuwait 79
Lig@@ 79
Magaz@@ 79
Mauritius 79
Meng@@ 79
Michelle 79
Mk 79
Pres@@ 79
Ran@@ 79
Sass@@ 79
Syl@@ 79
Vienne 79
Way 79
What 79
Wu 79
Your 79
aj 79
ambano 79
ass 79
assie 79
aus 79
gur@@ 79
iliya 79
jap@@ 79
kane 79
rah@@ 79
uan 79
ven@@ 79
won 79
š@@ 79
116@@ 78
13,000 78
1858 78
1879 78
2500 78
AA 78
Anak@@ 78
Arg@@ 78
Bac@@ 78
Baghdad 78
Buch@@ 78
Congo 78
Connecticut 78
Côte 78
Dag@@ 78
Dev@@ 78
Djib@@ 78
Elia 78
Et@@ 78
Eva 78
Franz 78
Grande 78
Gw@@ 78
Helena 78
Herbert 78
ISBN 78
Inter 78
Kano 78
Kansas 78
Lib@@ 78
Lina 78
Lord 78
Men 78
NASA 78
Nde@@ 78
Pam@@ 78
Path@@ 78
Project 78
Siri 78
Stadium 78
Stewart 78
This 78
Yale 78
Yu@@ 78
Zulu 78
agh@@ 78
akan 78
alle 78
aram@@ 78
ativ@@ 78
atur@@ 78
azim@@ 78
bosch 78
engenezaji 78
eth 78
hid 78
isotop@@ 78
izer 78
kem@@ 78
line 78
ny 78
rad@@ 78
raf@@ 78
she 78
tit@@ 78
trans@@ 78
uzo 78
yl 78
117 77
1873 77
29,@@ 77
420 77
AM 77
Abraham 77
As 77
Bet@@ 77
Birmingham 77
Bond 77
Cho@@ 77
D.@@ 77
Fili@@ 77
General 77
Gon@@ 77
Kemal 77
Ket@@ 77
Magic 77
Monte 77
Princess 77
Rif@@ 77
Woman 77
ampuni 77
asemekana 77
atch 77
atil@@ 77
austr@@ 77
eir@@ 77
ev 77
gen 77
hon@@ 77
ical 77
lar 77
law@@ 77
lies 77
mah 77
net 77
old 77
opl@@ 77
osom@@ 77
side 77
taya 77
tico 77
tor 77
uthi 77
ה@@ 77
125 76
2,6@@ 76
An 76
Ax@@ 76
Aziz 76
Beg@@ 76
Dab@@ 76
Emir 76
Fri@@ 76
Good@@ 76
Grass@@ 76
Hamilton 76
Jam 76
Jun@@ 76
Lad@@ 76
Law@@ 76
Lis@@ 76
Lou@@ 76
MP@@ 76
Morav@@ 76
Pit@@ 76
Prim@@ 76
RA@@ 76
Rh@@ 76
Rock@@ 76
SP@@ 76
Sang@@ 76
Spe@@ 76
Sé@@ 76
Vill@@ 76
abar 76
ades 76
ail 76
aire 76
album 76
anao 76
atam@@ 76
boya 76
char@@ 76
eye 76
gun 76
ilian 76
k.@@ 76
osia 76
oy 76
vio 76
yang 76
114 75
14.@@ 75
1400 75
1878 75
3.5 75
40@@ 75
Ajax 75
Bud@@ 75
Cambodia 75
Cameroon 75
Dan 75
Dr 75
Element@@ 75
Fir@@ 75
Inc. 75
Kaj@@ 75
Karak@@ 75
Lol@@ 75
Morgan 75
Morris 75
Philadelphia 75
Pop@@ 75
RNA 75
SW@@ 75
Shane 75
So 75
Super@@ 75
Taf@@ 75
Urban 75
amel@@ 75
ape 75
atini 75
azini 75
els 75
enj@@ 75
ents 75
eshim@@ 75
gn@@ 75
had 75
ibia 75
ikw@@ 75
oglob@@ 75
oloni 75
ores 75
rand 75
tri 75
å@@ 75
ּ@@ 75
1.3 74
1100 74
129 74
1859 74
2,4@@ 74
Amer@@ 74
B.@@ 74
Bass@@ 74
Diana 74
Down 74
Duke 74
EL@@ 74
Face 74
Fol@@ 74
Gandhi 74
Hasan 74
IG@@ 74
Java 74
Just 74
Martha 74
Mask@@ 74
Miy@@ 74
Nav@@ 74
Oc@@ 74
Out 74
Patricia 74
Point 74
Ruf@@ 74
Stockholm 74
Ubun@@ 74
Uta@@ 74
Vij@@ 74
atem@@ 74
bifu 74
cor@@ 74
diploma 74
fe@@ 74
fields 74
form@@ 74
gy 74
hoa 74
hui 74
iliyoz@@ 74
ipot@@ 74
isto 74
ium 74
kou 74
kro@@ 74
mivu 74
oh 74
oon 74
ord 74
unk@@ 74
wafany@@ 74
yatak@@ 74
zan 74
zilishi 74
× 74
114@@ 73
137 73
1837 73
1844 73
1876 73
250,000 73
35,@@ 73
451 73
540 73
70,000 73
74@@ 73
80,000 73
AT 73
AZ@@ 73
Abbas 73
Armstrong 73
CIA 73
CN@@ 73
Campbell 73
Dig@@ 73
Dob@@ 73
Eb@@ 73
Ele@@ 73
Epidem@@ 73
Iran@@ 73
Isid@@ 73
Ivan 73
Jal@@ 73
Jap@@ 73
Just@@ 73
Kiev 73
LO@@ 73
Marley 73
Marseille 73
Norman 73
Palm 73
Pri@@ 73
Pur@@ 73
Ray@@ 73
Rhodes 73
Roberto 73
Rosa 73
Ruth 73
Schleswig 73
Tch@@ 73
Toscana 73
UN 73
V. 73
Zam@@ 73
aci@@ 73
anger 73
didae 73
ikar@@ 73
kee 73
lywood 73
ops 73
pri@@ 73
reggae 73
sini 73
thu@@ 73
ugen@@ 73
uya 73
wur@@ 73
· 73
ë@@ 73
1.6 72
1875 72
19@@ 72
212 72
520 72
Ade@@ 72
Austin 72
Austr@@ 72
Band@@ 72
Bern@@ 72
Bran@@ 72
Burma 72
CP@@ 72
Child 72
Eugene 72
Fernando 72
Fund@@ 72
Future 72
Gn@@ 72
Hau@@ 72
J.@@ 72
Jose 72
Kund@@ 72
Lanka 72
Lili@@ 72
Louisiana 72
Lucy 72
Mond@@ 72
Money 72
Of 72
PC 72
RO@@ 72
Sean 72
Service 72
Siria 72
Tibet 72
Venezia 72
Voice 72
Zuh@@ 72
amad@@ 72
angan 72
anis@@ 72
aren 72
dad@@ 72
dale 72
diz@@ 72
enberg 72
end 72
fam@@ 72
film 72
gio 72
hambulia 72
inc@@ 72
itz@@ 72
klor@@ 72
olog@@ 72
ones 72
otho 72
ovich 72
pres@@ 72
tif@@ 72
worth 72
田 72
1.4 71
1874 71
3,6@@ 71
39,@@ 71
480 71
850 71
Aber@@ 71
Anton@@ 71
Bih@@ 71
D.C. 71
Dallas 71
Everton 71
Fred 71
Get 71
Gray 71
IT@@ 71
Kro@@ 71
Night 71
RI 71
Robin 71
Schutz@@ 71
Sergio 71
She 71
Space 71
Stellen@@ 71
Story 71
Ther@@ 71
Toledo 71
abak@@ 71
abul@@ 71
bit@@ 71
cher@@ 71
cio 71
deb@@ 71
don 71
egawanywa 71
enburg 71
fit@@ 71
haut@@ 71
iji 71
islam 71
itw@@ 71
kubor@@ 71
mwanak@@ 71
odia 71
olim@@ 71
oti@@ 71
tai 71
tica 71
u. 71
viel@@ 71
yoya 71
zek@@ 71
zie 71
111 70
135 70
1841 70
19.@@ 70
2,5@@ 70
251 70
30,@@ 70
302 70
32,@@ 70
370 70
46@@ 70
Afro@@ 70
Aman@@ 70
Anay@@ 70
Brussels 70
CP 70
Catherine 70
DE@@ 70
Dream 70
Esp@@ 70
Ey@@ 70
Falls 70
Gra@@ 70
Han 70
Harrison 70
Heart 70
Him@@ 70
IAAF 70
Manuel 70
Meg@@ 70
Nicolas 70
Pug@@ 70
Reb@@ 70
Rot@@ 70
Rup@@ 70
Sanc@@ 70
Santo 70
Sec@@ 70
Sheffield 70
Singapore 70
Tour 70
Wuhan 70
Zah@@ 70
ado@@ 70
amine 70
atlan@@ 70
aug@@ 70
diplom@@ 70
ean 70
fol@@ 70
ges@@ 70
hie 70
inger@@ 70
insul@@ 70
ishug@@ 70
mel@@ 70
mong 70
opath@@ 70
osis 70
ovi@@ 70
pedia 70
rem@@ 70
sinte@@ 70
vertebr@@ 70
vin 70
wasi 70
yg@@ 70
ʿ@@ 70
0.5 69
1.8 69
1820 69
2,7@@ 69
311 69
33,@@ 69
35,000 69
Abd@@ 69
Bakr 69
Barack 69
Boyz 69
Duncan 69
EN@@ 69
Fame 69
Got 69
Grim@@ 69
Guinness 69
IF@@ 69
Jah@@ 69
Jason 69
Kuv@@ 69
Mary@@ 69
Mili@@ 69
Mission 69
Nic@@ 69
Palmer 69
Pasha 69
Pra@@ 69
Ras 69
Sea 69
Seattle 69
Stalin 69
States 69
Stella 69
Sung@@ 69
Ted@@ 69
Tib@@ 69
WH 69
With 69
agara 69
alio 69
aq@@ 69
arak 69
aton 69
ban 69
dev@@ 69
dij@@ 69
enta 69
enter@@ 69
kay@@ 69
lock 69
odo 69
plaz@@ 69
sc@@ 69
ses 69
sos@@ 69
truppe 69
tua 69
É@@ 69
ḥ@@ 69
16,000 68
17.@@ 68
1846 68
306 68
410 68
430 68
560 68
90@@ 68
Adrian 68
Alabama 68
Castro 68
Chap@@ 68
Cru@@ 68
DSM 68
DV@@ 68
Fah@@ 68
Flor@@ 68
Fortun@@ 68
Fro@@ 68
Graham 68
Hermann 68
Iowa 68
Kent 68
Liber@@ 68
Madi@@ 68
Nash 68
O. 68
P.@@ 68
Saleh 68
Science 68
Shig@@ 68
Sofia 68
Tul@@ 68
U.S. 68
Uran@@ 68
aim@@ 68
ano@@ 68
ave 68
ce@@ 68
dog@@ 68
gae 68
hayat@@ 68
ikazi 68
inho 68
itindo 68
kuma 68
nat@@ 68
oraji 68
own 68
teki 68
that 68
ukta 68
ulam 68
urdu 68
ux 68
1847 67
1848 67
1868 67
1877 67
203 67
309 67
Agnes 67
Andr@@ 67
Ani@@ 67
Auxerre 67
Banks 67
Baz@@ 67
Blackburn 67
Blo@@ 67
Cant@@ 67
Carter 67
Cruz 67
Dave 67
First 67
Ghost 67
Hugo 67
Jolie 67
Kant@@ 67
LE@@ 67
MI@@ 67
Melbourne 67
Mill@@ 67
Monica 67
NATO 67
Nazar@@ 67
Organization 67
Phil@@ 67
Pope 67
Posta 67
Ronald 67
Sidi 67
Sto@@ 67
UC@@ 67
aduni 67
afunzi 67
aharia 67
anc@@ 67
art@@ 67
atha 67
aul@@ 67
avana 67
bana 67
e. 67
fom@@ 67
heim 67
kei 67
mkon@@ 67
ml@@ 67
nam 67
omia 67
opar@@ 67
ple@@ 67
sie 67
sim 67
tes@@ 67
ukari 67
yd@@ 67
è@@ 67
ó 67
מ@@ 67
127 66
190 66
215 66
314 66
4,0@@ 66
680 66
7000 66
Abdel 66
Airport 66
Alf@@ 66
Apar@@ 66
Bamb@@ 66
Biz@@ 66
Championship 66
Chel@@ 66
Colombia 66
Edgar 66
Ernst 66
Globe 66
Homo 66
Internet 66
Lob@@ 66
Magellan 66
Mu 66
Musev@@ 66
Noah 66
Orlando 66
Ow@@ 66
PL@@ 66
Pant@@ 66
Prize 66
SPD 66
TO@@ 66
Ting@@ 66
Tito 66
Ust@@ 66
Vod@@ 66
Warren 66
Wikimedia 66
airo 66
alaya 66
anth@@ 66
ape@@ 66
atir@@ 66
aura 66
bola 66
cm 66
ebo 66
fah 66
format 66
kang@@ 66
lini 66
mem@@ 66
proj@@ 66
sang@@ 66
sis@@ 66
taf@@ 66
tig@@ 66
tz 66
ulana 66
wit@@ 66
yaz@@ 66
yekevu 66
à 66
éd@@ 66
1.7 65
124 65
157 65
204 65
209 65
3,8@@ 65
Abidjan 65
Agr@@ 65
Arkansas 65
Aï@@ 65
Cologne 65
Cos@@ 65
Disk@@ 65
Emirates 65
Gloria 65
Independent 65
Jed@@ 65
Karen 65
Ki 65
Kre@@ 65
Land@@ 65
Leonard 65
Litu@@ 65
Log@@ 65
MO@@ 65
MT@@ 65
Marche 65
Rap@@ 65
Raw@@ 65
Rec@@ 65
Rod@@ 65
Rog@@ 65
Roy 65
Sahel 65
Samp@@ 65
Tin@@ 65
Vic@@ 65
Waang@@ 65
Wright 65
aburi 65
aine 65
azi@@ 65
beck 65
bela 65
bet@@ 65
biri 65
com@@ 65
dak@@ 65
gan 65
hij@@ 65
hip@@ 65
ibi 65
iland 65
inyota 65
ipi 65
oaji 65
otom@@ 65
oye 65
ozi@@ 65
pol 65
radio 65
rag@@ 65
rah 65
san 65
seroton@@ 65
sius 65
taro 65
tel 65
tola 65
ulaya 65
undi@@ 65
unge@@ 65
usiwa 65
ventr@@ 65
wal 65
water 65
wol@@ 65
zuk@@ 65
1852 64
199@@ 64
307 64
4.5 64
600,000 64
640 64
66@@ 64
8000 64
Alig@@ 64
Amazon 64
Anah@@ 64
Au@@ 64
Bishop 64
Boh@@ 64
Carson 64
Did@@ 64
Fas@@ 64
File 64
François 64
Ge 64
Hali@@ 64
Holstein 64
Hospital 64
If 64
Ith@@ 64
Kentucky 64
Ler@@ 64
Marathon 64
Nig@@ 64
Nom@@ 64
Portland 64
Pos@@ 64
Productions 64
Rita 64
Sa 64
Sac@@ 64
Sham@@ 64
Sub@@ 64
Technology 64
There 64
Transvaal 64
Vich@@ 64
Vor@@ 64
alg@@ 64
ast 64
biot@@ 64
blu@@ 64
bre@@ 64
cher 64
eaux 64
ex 64
hang@@ 64
ib 64
irani 64
iz 64
kilis@@ 64
kov@@ 64
kupig@@ 64
och 64
orn 64
ort 64
semi 64
sv@@ 64
tini 64
tot@@ 64
ulus 64
win 64
yani 64
yek@@ 64
ō 64
נ@@ 64
120@@ 63
123 63
1854 63
1872 63
201 63
206 63
214 63
3,5@@ 63
365 63
431 63
470 63
48@@ 63
5,0@@ 63
AU 63
Ada 63
Allan 63
Andal@@ 63
Boy@@ 63
CBS 63
Chi 63
Clar@@ 63
Curtis 63
Dee 63
Delhi 63
Dir@@ 63
Eastern 63
End 63
Gad@@ 63
Janet 63
Johnny 63
Kav@@ 63
Kilim@@ 63
ME@@ 63
Mac 63
Mercy 63
Mic@@ 63
Michel 63
Olu@@ 63
Ori@@ 63
Palace 63
Pay@@ 63
Silv@@ 63
Simpson 63
Sind@@ 63
T.@@ 63
Tat@@ 63
Tour@@ 63
Vim@@ 63
Walker 63
XXIII 63
adu 63
agawa 63
ight 63
ikom@@ 63
italiano 63
kini 63
leen 63
model 63
oku 63
ostr@@ 63
ox@@ 63
see 63
sson 63
ungu@@ 63
wari 63
yay@@ 63
yon 63
′ 63
1853 62
312 62
440 62
ARA 62
Adri@@ 62
Alvarez 62
BS 62
Barr@@ 62
Bauer 62
CO 62
CT@@ 62
Ce@@ 62
Children 62
Dim@@ 62
Gama 62
Gran@@ 62
Hotspur 62
How 62
Jim 62
KT 62
Kofi 62
Konya 62
Kwa@@ 62
Laura 62
Lloyd 62
Lost 62
Madonna 62
Main@@ 62
Manga 62
Mbe@@ 62
Mud@@ 62
Mé@@ 62
Newcastle 62
PF 62
PO@@ 62
Plato 62
Powell 62
Salzburg 62
Sup@@ 62
Ukraina 62
Universal 62
Valent@@ 62
Venice 62
Versailles 62
When 62
Yal@@ 62
Year 62
aban 62
aida 62
alum@@ 62
andao 62
ander 62
anzilishi 62
astr@@ 62
athe@@ 62
bal 62
bel 62
din@@ 62
etr@@ 62
helik@@ 62
icill@@ 62
igi@@ 62
koa 62
kt 62
loc@@ 62
ly@@ 62
mar 62
mavi 62
nas 62
ning@@ 62
ondi 62
ović 62
ovo 62
put@@ 62
try 62
yakula 62
ος 62
121 61
193 61
49@@ 61
530 61
Adam@@ 61
Agency 61
Bao 61
Buddha 61
Chad@@ 61
Choice 61
Dum@@ 61
Dut@@ 61
FI@@ 61
Fac@@ 61
G.@@ 61
Gal 61
Garcia 61
Glasgow 61
Haley 61
Land 61
Lot@@ 61
Monaco 61
Moore 61
Nam 61
Nancy 61
Ner@@ 61
Nevada 61
Nih@@ 61
Nikol@@ 61
Niz@@ 61
Off 61
Oper@@ 61
Plan@@ 61
Ror@@ 61
Sar 61
Screen 61
Sound 61
Sr. 61
Zim@@ 61
abil@@ 61
aden@@ 61
alaria 61
aldo 61
asta 61
ating 61
ats 61
auch@@ 61
can 61
cat@@ 61
country 61
dira 61
elik 61
emat@@ 61
entr@@ 61
epe 61
etto 61
fl@@ 61
hia 61
illo 61
itap@@ 61
itio 61
less 61
mat 61
matem@@ 61
ment@@ 61
nan@@ 61
nis@@ 61
platinum 61
posa 61
s.@@ 61
stein 61
tula 61
van@@ 61
waliou@@ 61
you 61
ç@@ 61
ès 61
ş@@ 61
ש@@ 61
118 60
139 60
14,000 60
18,000 60
202 60
216 60
301 60
308 60
361 60
460 60
ANU 60
Ama@@ 60
Atlas 60
By@@ 60
Cit@@ 60
Co 60
Cou@@ 60
Death 60
Def 60
Delgado 60
Derby 60
Ere@@ 60
Flam@@ 60
Forum 60
Fos@@ 60
Get@@ 60
Gum@@ 60
ICC 60
Innocent 60
Jerome 60
Kosta 60
Ladies 60
Out@@ 60
Pauli 60
Pedro 60
Pictures 60
Poly@@ 60
Premier 60
RT@@ 60
S.C. 60
Sz@@ 60
Village 60
Visa 60
Wo@@ 60
adir 60
agin@@ 60
andamano 60
ardi 60
arn@@ 60
asiasa 60
dal 60
dan@@ 60
dic@@ 60
dig@@ 60
ency 60
entina 60
foro 60
gua 60
istr@@ 60
jab@@ 60
jan 60
kunde 60
lib@@ 60
magma 60
meg@@ 60
obo@@ 60
okula 60
oré 60
piram@@ 60
school 60
sir@@ 60
traf@@ 60
umbia 60
wich 60
world 60
ú@@ 60
1.1 59
115@@ 59
155 59
1789 59
1814 59
2,8@@ 59
223 59
23.@@ 59
AG@@ 59
Amp@@ 59
Are 59
Area 59
Ast@@ 59
Brunei 59
CT 59
Cameron 59
Craig 59
Dogg 59
End@@ 59
Epi@@ 59
Fund 59
Germain 59
Gram 59
Guatemala 59
Guy 59
Head 59
IT 59
Jackie 59
Kop@@ 59
Kush@@ 59
Mish@@ 59
Moto 59
Nest@@ 59
PR 59
Pascal 59
Pavia 59
Pol 59
Sao 59
Stanford 59
Tajikistan 59
Tobago 59
Wrestling 59
Yusuf 59
ael 59
agog@@ 59
ahu@@ 59
aille 59
allo 59
anto 59
ants 59
avia 59
brah@@ 59
cer@@ 59
dare 59
day 59
dee 59
ense 59
enti@@ 59
esco 59
eter 59
etown 59
etus 59
fich@@ 59
fri@@ 59
gar 59
hakikisha 59
hat 59
hou 59
ibe 59
ibo 59
iye 59
lau@@ 59
mikro@@ 59
molek@@ 59
obu 59
pili@@ 59
pre@@ 59
qi@@ 59
shab@@ 59
sion 59
stone 59
tein 59
ther 59
tre 59
ves 59
− 59
.jpg 58
16.@@ 58
229 58
316 58
381 58
390 58
ATA 58
Act 58
Atle@@ 58
Avon 58
Basilika 58
Beyoncé 58
Bohemia 58
Bush@@ 58
Caes@@ 58
Calvin 58
Georg 58
Leonardo 58
Lon@@ 58
Mills 58
Mitchell 58
Mong@@ 58
Monte@@ 58
Mozart 58
Obi 58
Pearl 58
Phoenix 58
Ronaldo 58
Siena 58
Sof@@ 58
South@@ 58
Stade 58
Ster@@ 58
Sumatra 58
Wesley 58
Wing@@ 58
Wolfsburg 58
Yen@@ 58
abl@@ 58
aitw@@ 58
altar@@ 58
amii 58
angu@@ 58
apartheid 58
apweke 58
aventura 58
awan 58
contributor 58
das 58
dibu@@ 58
diy@@ 58
etse 58
fir@@ 58
hija 58
ign@@ 58
iss 58
lus@@ 58
modi@@ 58
ozo@@ 58
seg@@ 58
tie 58
tras@@ 58
ube 58
ulikani 58
uss@@ 58
viol@@ 58
³ 58
án 58
â@@ 58
ś@@ 58
ִ@@ 58
117@@ 57
122 57
128 57
182 57
1821 57
225 57
22@@ 57
630 57
99@@ 57
Abi@@ 57
Almag@@ 57
Augusto 57
BM@@ 57
Betty 57
Bh@@ 57
Bissau 57
Break 57
Champions 57
Chief 57
Cleveland 57
Coc@@ 57
Come 57
Digital 57
Dong@@ 57
Emma 57
Estonia 57
Gabri@@ 57
Gan@@ 57
Hampshire 57
Hits 57
Janeiro 57
K.@@ 57
Kali 57
Magazine 57
Moon 57
Nguy@@ 57
Nike 57
Peak 57
Pro 57
RIAA 57
Rainbow 57
Retrieved 57
Richards 57
Sent@@ 57
Sweet 57
System 57
Tos@@ 57
Whitney 57
ZA 57
afuatwa 57
agan 57
aniki 57
ann 57
ars 57
atic 57
ats@@ 57
bria 57
can@@ 57
dera 57
eg 57
emonte 57
habu 57
humuni 57
itt 57
izikia 57
las 57
leta 57
makus@@ 57
mea 57
nes 57
oho 57
oksid@@ 57
ott 57
pH 57
rey 57
sta 57
star 57
tag@@ 57
trop@@ 57
ï 57
1517 56
175 56
18.@@ 56
1810 56
207 56
208 56
213 56
323 56
André 56
Army 56
Aut@@ 56
Auto 56
BH@@ 56
Brom@@ 56
Cecil 56
Dest@@ 56
Edinburgh 56
Gates 56
Ghaz@@ 56
Hudson 56
IC 56
Jos@@ 56
Lip@@ 56
Lun@@ 56
Manhattan 56
Moravia 56
Nept@@ 56
Next 56
PS 56
Pakistani 56
Pepe 56
Prison 56
Ra 56
Ravenna 56
Ric@@ 56
Romagna 56
SE 56
Samb@@ 56
Shang@@ 56
Smo@@ 56
Son 56
Sug@@ 56
Suz@@ 56
Tay@@ 56
Til@@ 56
Tran@@ 56
Travis 56
Tuf@@ 56
Volume 56
Who 56
afe 56
ald@@ 56
anum 56
aten 56
ater@@ 56
burn 56
dom 56
domin@@ 56
ekel@@ 56
ering 56
gat@@ 56
itis 56
ksi 56
los 56
mas 56
mol@@ 56
mur@@ 56
ob 56
odini 56
ossa 56
ous@@ 56
rik 56
sah 56
stad 56
thu 56
timestamp 56
ubaliano 56
unta 56
ustan 56
viet@@ 56
wh@@ 56
xis 56
yasa 56
ør@@ 56
ր@@ 56
118@@ 55
2.4 55
205 55
217 55
256 55
264 55
406 55
44@@ 55
AG 55
AP 55
Afrique 55
Age 55
Ain 55
Album 55
Alois 55
Ant@@ 55
Bath@@ 55
Beau@@ 55
Cent 55
Cook 55
DF 55
Diploma 55
Elias 55
Flores 55
Green@@ 55
Gregory 55
He 55
ISO 55
Ismail 55
Jih@@ 55
Joel 55
Journal 55
Lic@@ 55
Malta 55
Mustafa 55
Oregon 55
PR@@ 55
Pun@@ 55
Randy 55
Reh@@ 55
Roosevelt 55
Sandra 55
Seine 55
Shan@@ 55
Tot@@ 55
Trade 55
Triangle 55
Tripoli 55
Vul@@ 55
Wisconsin 55
adj@@ 55
akani 55
alar@@ 55
cia 55
dum@@ 55
ekom@@ 55
gli@@ 55
idan 55
ink@@ 55
isan 55
kov 55
lab@@ 55
lug@@ 55
mane 55
misa 55
owe@@ 55
ram 55
robot@@ 55
rot@@ 55
sh 55
ston 55
teri@@ 55
theid 55
username 55
way@@ 55
yet@@ 55
zon@@ 55
zy 55
ַ@@ 55
ם 55
15.@@ 54
1835 54
218 54
222 54
227 54
335 54
About 54
Are@@ 54
Atlantic 54
Au 54
Belarus 54
Brescia 54
Bri@@ 54
Brook 54
Cass@@ 54
Christina 54
DT 54
Daddy 54
Danny 54
Faith 54
Fati@@ 54
Garden 54
Gy@@ 54
Kass@@ 54
Kingston 54
Lel@@ 54
Li 54
Lul@@ 54
Madagascar 54
Miguel 54
More 54
Museum 54
Nicholas 54
Nick 54
Or 54
Pak 54
Palermo 54
Paula 54
Perry 54
Pet 54
Pet@@ 54
Pradesh 54
Primary 54
Rach@@ 54
Roc@@ 54
Shah@@ 54
Spice 54
Torres 54
Utah 54
Vib@@ 54
Zor@@ 54
agi@@ 54
ahan 54
alfa 54
amaz@@ 54
chlor@@ 54
ck@@ 54
estina 54
etti@@ 54
ever 54
gon@@ 54
jah 54
kanaji 54
min 54
mit 54
nah@@ 54
onom@@ 54
open@@ 54
otic 54
parentid 54
pens@@ 54
pepti@@ 54
pros@@ 54
rec@@ 54
sel 54
skop@@ 54
sup@@ 54
upta 54
weg@@ 54
-- 53
181 53
1832 53
1849 53
185 53
1851 53
199 53
20.@@ 53
24.@@ 53
3,9@@ 53
354 53
38,@@ 53
Agu@@ 53
August 53
Bali 53
Bar 53
Berkeley 53
Big@@ 53
Broadcasting 53
Bru@@ 53
CAF 53
Camp@@ 53
Capital 53
Convention 53
Davies 53
Dep@@ 53
Destiny 53
Greatest 53
Guardian 53
Gö@@ 53
Hin@@ 53
Isma@@ 53
Jem@@ 53
LP 53
Lan@@ 53
Latin 53
Lithuania 53
Lorenzo 53
Minneapolis 53
Montreal 53
Netflix 53
PC@@ 53
Pand@@ 53
Pittsburgh 53
Public 53
Remix 53
Rolling 53
Sap@@ 53
Sardin@@ 53
Sot@@ 53
Strath@@ 53
Sunday 53
Tad@@ 53
Thompson 53
Thriller 53
Vista 53
War 53
Wolfgang 53
Yem@@ 53
adu@@ 53
amoja 53
anatom@@ 53
angal@@ 53
egu 53
ert 53
illi@@ 53
ishan@@ 53
kateg@@ 53
music 53
nde@@ 53
ocho 53
opi@@ 53
ose@@ 53
rell 53
remix 53
sat@@ 53
stadt 53
sus@@ 53
thai 53
tham 53
tho@@ 53
western 53
yanyas@@ 53
İzmir 53
113@@ 52
136 52
145 52
151 52
1521 52
165 52
177 52
179 52
1831 52
226 52
283 52
397 52
3D 52
401 52
55@@ 52
60@@ 52
7.5 52
8,0@@ 52
Am 52
Amazonas 52
Aus@@ 52
Ba 52
Barry 52
Basel 52
Benz 52
Book 52
Britain 52
Buz@@ 52
Calabria 52
Ces@@ 52
Chu@@ 52
Di 52
Dion@@ 52
Dog@@ 52
Dre@@ 52
Edwin 52
English 52
Fior@@ 52
Foster 52
Godfrey 52
Granada 52
Holland 52
Honduras 52
Hugh 52
Indian 52
Jamaica 52
Keith 52
LL 52
Line 52
Medical 52
Milton 52
Minh 52
Nal@@ 52
Nish@@ 52
Peninsula 52
Punjab 52
Rud@@ 52
Rudolf 52
Sankt 52
Sky 52
Sugar 52
Tob@@ 52
Too 52
Tra@@ 52
Trump 52
Trust 52
Van@@ 52
Winn@@ 52
Yang@@ 52
Ye@@ 52
ady 52
asis 52
atan 52
band 52
bes 52
ebra 52
elini 52
ere@@ 52
gor@@ 52
influ@@ 52
itwayo 52
pho 52
pio 52
pos 52
res 52
rie 52
rio 52
sub@@ 52
ubu@@ 52
ungumzo 52
uva 52
wick 52
yah 52
yos@@ 52
zus@@ 52
ég@@ 52
ṣ@@ 52
.S. 51
131 51
144 51
167 51
402 51
56@@ 51
6.5 51
711 51
Aristotle 51
Billy 51
Bordeaux 51
Butler 51
CC 51
Chen 51
Cul@@ 51
Data 51
Detroit 51
Diz@@ 51
Dow@@ 51
Es 51
Eth@@ 51
Fabaceae 51
Fak@@ 51
Gamb@@ 51
Geor@@ 51
Glad@@ 51
Gren@@ 51
Harold 51
Haut 51
Hed@@ 51
Heights 51
IBM 51
Ich@@ 51
Jor@@ 51
Jubilee 51
Kimber@@ 51
L.@@ 51
Lopez 51
Mann@@ 51
Marc 51
Marco 51
Matthew 51
Medi@@ 51
Mith@@ 51
Mountain 51
N.@@ 51
Nun@@ 51
Oth@@ 51
Our 51
Over 51
Pico 51
Plas@@ 51
Province 51
Py@@ 51
Rev@@ 51
Ricardo 51
Rovers 51
Russell 51
SO@@ 51
Simone 51
Tong@@ 51
Upper 51
W.@@ 51
Wake 51
Zeus 51
aada 51
adren@@ 51
aid 51
anes 51
app@@ 51
apti@@ 51
arare 51
aux 51
cin@@ 51
dub@@ 51
ely 51
emin@@ 51
ett@@ 51
fer 51
gil 51
halika 51
imulizi 51
indon@@ 51
inf@@ 51
jerumani 51
kuyu 51
mana 51
mor 51
odoro 51
okovu 51
penal@@ 51
pok@@ 51
pra 51
qui@@ 51
rup@@ 51
sian 51
super@@ 51
text 51
vok@@ 51
yum@@ 51
ɛ@@ 51
ɪ@@ 51
146 50
1845 50
195 50
2.2 50
224 50
233 50
257 50
258 50
331 50
407 50
49,@@ 50
490 50
510 50
610 50
710 50
970 50
AIDS 50
Angelina 50
Antoine 50
Any@@ 50
Apol@@ 50
Bik@@ 50
Bond@@ 50
CE 50
Cassidy 50
Cour@@ 50
Dead 50
Feld@@ 50
Ferguson 50
Fly 50
Freedom 50
GO 50
Gamma 50
Hilton 50
Human 50
Instagram 50
Jeff 50
Jerry 50
Justin 50
Mariana 50
Micro@@ 50
Ministry 50
Murphy 50
Nazi 50
Nes@@ 50
Nickelodeon 50
Nit@@ 50
Owen 50
Prix 50
Renaissance 50
Snoop 50
Sophia 50
Suzuki 50
Theodore 50
Ts@@ 50
UNICEF 50
Valeri@@ 50
Watur@@ 50
Wer@@ 50
Wiki@@ 50
Without 50
agonjwa 50
aup@@ 50
azar@@ 50
azu 50
bio@@ 50
boy 50
bus 50
buy@@ 50
cap@@ 50
edr@@ 50
erian 50
hakim@@ 50
hifad@@ 50
ikil@@ 50
lad@@ 50
leg@@ 50
let 50
lon 50
marathon 50
mont 50
obi@@ 50
oliki 50
oslov@@ 50
oé 50
ron 50
ry@@ 50
sag@@ 50
sburg 50
stan 50
tao 50
thr@@ 50
tors 50
umer@@ 50
urn@@ 50
wing 50
í 50
ž@@ 50
بن 50
1227 49
149 49
153 49
163 49
2.6 49
275 49
670 49
Aaron 49
Alexandra 49
Anglo 49
Apollo 49
Bridge 49
Caroline 49
Chak@@ 49
Change 49
Cir@@ 49
Climate 49
Comics 49
Corona 49
Dakota 49
Deng 49
Dok@@ 49
Du 49
EU 49
Eur@@ 49
Evans 49
FF 49
Fair@@ 49
Fresh 49
Gardens 49
Gib@@ 49
Gibraltar 49
Gustav 49
Hannah 49
Islands 49
Keb@@ 49
Last 49
Lives 49
Loc@@ 49
Lynn 49
Mao 49
Mars 49
Mumbai 49
Muslim 49
N. 49
NL 49
Never 49
OT 49
Plata 49
Play 49
Pred@@ 49
R.@@ 49
RS 49
Raphael 49
Rav@@ 49
Republic 49
Research 49
Rouen 49
SM@@ 49
Schrö@@ 49
Series 49
Sey@@ 49
Shakespeare 49
Social 49
Sog@@ 49
Square 49
Stan@@ 49
Surinam 49
Two 49
Vancouver 49
Werner 49
Wh@@ 49
XX 49
aco 49
adiliano 49
ae@@ 49
agon@@ 49
alism 49
aly 49
ambuk@@ 49
athy 49
bank 49
ben 49
boro 49
eca 49
ege@@ 49
epidem@@ 49
eton 49
face 49
fan 49
formes 49
gang@@ 49
handisi 49
haribi 49
inan@@ 49
jem@@ 49
jer 49
kala 49
lizi 49
magazine 49
mina 49
nazi 49
oine 49
one@@ 49
onz@@ 49
qa 49
raine 49
red 49
soul 49
stown 49
tima 49
time 49
toni 49
tow 49
ude 49
uhak@@ 49
ulima 49
umbr@@ 49
vu@@ 49
wer 49
yp@@ 49
ד@@ 49
ל@@ 49
1250 48
126 48
133 48
138 48
166 48
168 48
178 48
1806 48
1855 48
192 48
253 48
259 48
286 48
30.@@ 48
315 48
345 48
377 48
525 48
6,0@@ 48
720 48
980 48
Anj@@ 48
Augustine 48
Bei 48
Bello 48
Bird 48
Bov@@ 48
Brah@@ 48
Bung@@ 48
Byrne 48
Byz@@ 48
Camp 48
Celtic 48
Chiefs 48
Cin@@ 48
Clou@@ 48
Edmund 48
Ef@@ 48
Empire 48
Express 48
FBI 48
Fall 48
Fernández 48
Flora 48
Francesco 48
From 48
Goldman 48
Hey@@ 48
Hier@@ 48
Hip@@ 48
Hud@@ 48
Hul@@ 48
Hull 48
Idr@@ 48
Islam 48
Khalid 48
Lamb@@ 48
Lang 48
Level 48
Louise 48
Muy@@ 48
Nice 48
Oran@@ 48
Pompe@@ 48
Provence 48
Rabat 48
Région 48
Still 48
TV@@ 48
Thur@@ 48
Tir@@ 48
Tommy 48
Umar 48
Vasco 48
Vol 48
WT@@ 48
Wadi 48
Web@@ 48
Will@@ 48
Yorkshire 48
Za@@ 48
ack@@ 48
agia 48
also 48
arid 48
astani 48
ater 48
aze 48
aziz 48
china 48
ement 48
entia 48
err@@ 48
formula 48
ful 48
head 48
his 48
hot@@ 48
ids 48
ier@@ 48
itar@@ 48
jas@@ 48
jiang 48
kund@@ 48
mifu@@ 48
ms 48
ogr@@ 48
omy@@ 48
otr@@ 48
otte 48
oula 48
oum 48
paz@@ 48
polis 48
prop@@ 48
sin 48
ska 48
tina 48
top@@ 48
tum 48
tuz@@ 48
urs 48
vers 48
yam 48
yer 48
ö@@ 48
1492 47
169 47
1750 47
221 47
241 47
285 47
321 47
332 47
362 47
404 47
587 47
76@@ 47
780 47
870 47
960 47
Adr@@ 47
Aff@@ 47
Ati@@ 47
Bash@@ 47
Bed@@ 47
Ble@@ 47
Boris 47
CV 47
Cardiff 47
Cha@@ 47
Constantine 47
Crystal 47
Cun@@ 47
Ellis 47
Fatma 47
Floyd 47
Georges 47
Herald 47
Hez@@ 47
Hizo 47
IB@@ 47
Il 47
Ja@@ 47
Josephine 47
Kids 47
Königsberg 47
LC 47
Latvia 47
Lau@@ 47
Lima 47
Lind@@ 47
Lisa 47
Martino 47
Miriam 47
Miss@@ 47
Mo 47
NA@@ 47
NSDAP 47
Nagasaki 47
Nh@@ 47
Nina 47
Ober@@ 47
Pacific 47
Panther 47
Pass@@ 47
Pieter 47
Platinum 47
Plu@@ 47
Pé@@ 47
Raw 47
Reading 47
Ris@@ 47
Robinson 47
Run 47
Réunion 47
Springs 47
Stuttgart 47
Sufi 47
Tip 47
Us 47
Weimar 47
Yous@@ 47
Youtube 47
Zou@@ 47
anon 47
apr@@ 47
aris 47
bach 47
borg 47
cius 47
dis 47
dok@@ 47
ebr@@ 47
eed 47
eem 47
entino 47
ester 47
ezaliwa 47
hit 47
ici@@ 47
icus 47
iken 47
imer@@ 47
inder 47
ino@@ 47
koro 47
log 47
los@@ 47
mon 47
mos@@ 47
n.@@ 47
nu 47
okol@@ 47
ots 47
outi 47
ris@@ 47
ship 47
spir@@ 47
tirir@@ 47
uela 47
umuisha 47
wiki@@ 47
zer 47
än 47
ה 47
ע@@ 47
Ἀ@@ 47
大@@ 47
134 46
147 46
1597 46
1807 46
1824 46
1843 46
235 46
248 46
249 46
252 46
269 46
333 46
334 46
344 46
347 46
366 46
395 46
40,@@ 46
405 46
660 46
AB 46
AFC 46
AK 46
Albion 46
Arabic 46
Arles 46
Arnold 46
Beirut 46
Bobby 46
CI 46
Charlie 46
Conference 46
Dad@@ 46
Darwin 46
Dorothy 46
East@@ 46
Eminem 46
Fuk@@ 46
Fut@@ 46
GT 46
Gom@@ 46
Hydro@@ 46
ID 46
Jacqueline 46
Jay@@ 46
Jesus 46
Joan 46
Julian 46
Larry 46
Laurent 46
Lec@@ 46
León 46
Like 46
Mad 46
Mai 46
Marina 46
Martin@@ 46
Mason 46
Maxim@@ 46
Mediter@@ 46
Mens@@ 46
Metro 46
Metz 46
Nai@@ 46
Nath@@ 46
Nixon 46
Not 46
Nova 46
Number 46
Olivia 46
Order 46
Pang@@ 46
Pot 46
Rel@@ 46
Rights 46
Rodney 46
Ron@@ 46
Singh 46
Six@@ 46
Strait 46
Summer 46
Tanaka 46
Theodosius 46
Tunis 46
Twitter 46
UAE 46
Va@@ 46
Vivian 46
Zaw@@ 46
Zh@@ 46
abad 46
adha@@ 46
ages 46
alan@@ 46
aqu@@ 46
bag@@ 46
betr@@ 46
born 46
bula 46
cal@@ 46
chel@@ 46
chum@@ 46
city 46
deg@@ 46
dell 46
dida 46
dos@@ 46
dy@@ 46
edu 46
ekebisho 46
eledi 46
este 46
far 46
fis@@ 46
hib@@ 46
hif@@ 46
imbali 46
ix 46
jou@@ 46
kham 46
kitaal@@ 46
las@@ 46
migu@@ 46
msim@@ 46
neutr@@ 46
off@@ 46
okee 46
oland 46
orius 46
pes@@ 46
rat 46
sisko 46
trol@@ 46
tron@@ 46
ubio 46
uge@@ 46
yah@@ 46
è 46
éré 46
ía 46
ę@@ 46
ן 46
152 45
1540 45
176 45
1813 45
1818 45
1842 45
197 45
238 45
263 45
287 45
32.@@ 45
329 45
348 45
379 45
409 45
413 45
44,@@ 45
538 45
642 45
787 45
86@@ 45
9000 45
Aba@@ 45
Alfonso 45
Bab 45
Bach@@ 45
Berg@@ 45
Bomb@@ 45
Bradley 45
CI@@ 45
Chau@@ 45
Chess 45
Collins 45
Duffy 45
Edo 45
Emily 45
Estr@@ 45
Eul@@ 45
GSM 45
Galileo 45
Gri@@ 45
Guru 45
Haute 45
Hav@@ 45
Hood 45
Isabel 45
Jon 45
Kara 45
Kiel@@ 45
Kingdom 45
Klo@@ 45
Lane 45
Lap@@ 45
Leicester 45
Llor@@ 45
Lopes 45
Madison 45
Management 45
Matter 45
McDonald 45
Memphis 45
Middle 45
Nero 45
Oklahoma 45
PD 45
Petrus 45
Powers 45
Rangers 45
Rej@@ 45
Rey 45
Roberts 45
SOS 45
Schalke 45
Sv@@ 45
Thu@@ 45
Toulouse 45
Tsu@@ 45
VI@@ 45
Vision 45
Xbox 45
Zag@@ 45
Zw@@ 45
ait 45
akt@@ 45
al- 45
alta 45
ambaz@@ 45
ander@@ 45
angep@@ 45
anu 45
asit@@ 45
aste 45
asti@@ 45
asuaji 45
ault 45
awany@@ 45
awo 45
back 45
cel@@ 45
comment 45
con 45
cul@@ 45
cy@@ 45
enes 45
enna 45
epesi 45
ewski 45
gil@@ 45
hero@@ 45
ilimali 45
india 45
ingham 45
int 45
inter@@ 45
len 45
lers 45
mchang@@ 45
onto 45
ough 45
right 45
sle@@ 45
tara 45
taz@@ 45
tion@@ 45
uano 45
ush 45
ushima 45
vera 45
zy@@ 45
Ç@@ 45
132 44
1825 44
1828 44
183 44
187 44
188 44
198@@ 44
21.@@ 44
282 44
29.@@ 44
317 44
337 44
3500 44
384 44
411 44
417 44
453 44
483 44
54@@ 44
570 44
590 44
790 44
Action 44
Adel@@ 44
Aden 44
Ala 44
Alo@@ 44
Angel@@ 44
Ank@@ 44
Augsburg 44
Aya 44
Baker 44
Belize 44
Blake 44
Bonn 44
Bow@@ 44
Bronx 44
Brun@@ 44
Bryan 44
Carol@@ 44
Chand@@ 44
Chang 44
Chir@@ 44
Clermont 44
Cola 44
DL@@ 44
Dik@@ 44
Dy@@ 44
Dz@@ 44
ER 44
Evening 44
Fan@@ 44
Federal 44
Fle@@ 44
Fom@@ 44
Fou@@ 44
GR 44
Geb@@ 44
Gilg@@ 44
Gou@@ 44
Grey 44
Health 44
Hob@@ 44
Iberia 44
Industry 44
Ip@@ 44
Jag@@ 44
Kler@@ 44
Kond@@ 44
Laf@@ 44
Lal@@ 44
MIT 44
MV 44
Mack@@ 44
Make 44
Marino 44
Marne 44
Messi 44
Mou@@ 44
Non@@ 44
Pall@@ 44
Perugia 44
PlayStation 44
Rogers 44
Rotterdam 44
Ruby 44
Say 44
Shik@@ 44
Sud 44
Tali@@ 44
Tend@@ 44
Tog@@ 44
Tyler 44
Usher 44
Vegas 44
Ves@@ 44
Yak 44
Yar@@ 44
Zar@@ 44
aff 44
agu 44
andro@@ 44
ardo 44
atar 44
benz@@ 44
biza 44
bridge 44
cha@@ 44
cop@@ 44
cy 44
dag@@ 44
diki 44
dinger 44
dizi 44
ekee 44
gana 44
hee 44
icia 44
ider@@ 44
ife 44
ig 44
illy 44
ket@@ 44
kins 44
kle@@ 44
lier 44
nataka 44
opoli 44
otro@@ 44
oui 44
oul@@ 44
pan 44
plan@@ 44
swana 44
tap@@ 44
telegr@@ 44
uca 44
union 44
vali 44
zor@@ 44
č@@ 44
1795 43
1799 43
1822 43
1829 43
228 43
244 43
262 43
268 43
341 43
342 43
375 43
429 43
509 43
605 43
760 43
ADN 43
AMA 43
Acc@@ 43
América 43
App 43
Authority 43
Beat 43
Bod@@ 43
Boul@@ 43
CDU 43
Carr@@ 43
Clark 43
Curie 43
Dand@@ 43
Democracy 43
Dortmund 43
Edith 43
Edwards 43
Eff@@ 43
Fischer 43
Fraser 43
Fuj@@ 43
Gate 43
Gilbert 43
Greenwich 43
Hannover 43
Hunter 43
Ih@@ 43
Iv@@ 43
Joh@@ 43
Justice 43
Karat@@ 43
Lep@@ 43
Lionel 43
Liv@@ 43
Living 43
Mae 43
Maine 43
Meyer 43
Mix@@ 43
Montana 43
Net@@ 43
Ox@@ 43
Pete 43
Rivers 43
SMS 43
Sanders 43
Semb@@ 43
Severus 43
Spencer 43
Syn@@ 43
True 43
Wik@@ 43
a- 43
ace@@ 43
ads 43
agh 43
ago@@ 43
anos 43
ayn 43
ayn@@ 43
azak@@ 43
borough 43
bura 43
dolar 43
eau 43
ekebisha 43
erie 43
ery 43
fak@@ 43
gig@@ 43
inas 43
isario 43
izu 43
jee 43
jong 43
lett 43
ll 43
mende 43
mio 43
og 43
oji 43
otop@@ 43
pek@@ 43
plas@@ 43
px 43
quar@@ 43
rit@@ 43
riwa 43
set 43
thia 43
tions 43
tori 43
tuk@@ 43
umani 43
usho 43
var 43
wy 43
zif@@ 43
är@@ 43
ép@@ 43
ı@@ 43
県 43
143 42
148 42
1520 42
1572 42
161 42
184 42
194 42
2.3 42
232 42
26.@@ 42
288 42
318 42
336 42
339 42
346 42
355 42
356 42
357 42
422 42
50,@@ 42
515 42
580 42
58@@ 42
604 42
622 42
625 42
7,0@@ 42
Alum@@ 42
Amy 42
Ansel@@ 42
Arap 42
Atlético 42
Avenue 42
BO@@ 42
Bati@@ 42
Batista 42
Bib@@ 42
Broadway 42
Bros@@ 42
Buffalo 42
Burger 42
Ches@@ 42
Coca 42
Como 42
Corn@@ 42
Département 42
EA 42
ESA 42
Five 42
Fland@@ 42
Flav@@ 42
Forest 42
Frid@@ 42
Games 42
Gran 42
Hap@@ 42
Hass@@ 42
Hopkins 42
ITA 42
Indo@@ 42
Jeremy 42
Knight 42
Lay@@ 42
Leipzig 42
MB 42
Magh@@ 42
Manu@@ 42
Marx 42
Meh@@ 42
Morning 42
Moss 42
Motown 42
NE@@ 42
NO@@ 42
NS@@ 42
Nakamura 42
Naw@@ 42
Neo 42
Original 42
Pter@@ 42
Rice 42
Sabah 42
Sales 42
Sali@@ 42
Set@@ 42
Stor@@ 42
Tao 42
Toch@@ 42
Top@@ 42
Turner 42
Under@@ 42
Veneto 42
VfL 42
Web 42
Winston 42
Yvonne 42
abol@@ 42
agar 42
aise 42
anini 42
apia 42
assé 42
bac@@ 42
book 42
dar 42
dii 42
duk 42
eia 42
ensi@@ 42
eraha 42
gs 42
hair@@ 42
high 42
holanzi 42
ider 42
iman 42
ind 42
kno@@ 42
kopo 42
lamu 42
language 42
long 42
mbal@@ 42
million 42
new 42
org@@ 42
otti 42
pes 42
poda 42
prim@@ 42
rani 42
sus 42
tawa 42
ulata 42
unt 42
v. 42
vel@@ 42
wald 42
wanza 42
ł@@ 42
محمد 42
∘ 42
1,200 41
162 41
173 41
1809 41
1812 41
1834 41
191 41
254 41
276 41
36.@@ 41
373 41
386 41
609 41
632 41
649 41
8.5 41
950 41
98@@ 41
ACP 41
AO@@ 41
Ado@@ 41
Airbus 41
Airways 41
Andre 41
Android 41
Arn@@ 41
BE 41
Bahamas 41
Blood 41
Brid@@ 41
Bundestag 41
CR 41
Cann@@ 41
Chart 41
Chip@@ 41
Christ@@ 41
Ciudad 41
Coll@@ 41
DO 41
DR 41
DS 41
Forever 41
Gao 41
Geoffrey 41
Hall@@ 41
Harcourt 41
Hard 41
Hop@@ 41
Hou@@ 41
Jul@@ 41
Kai@@ 41
Kay 41
Köln 41
LM 41
Lahore 41
MRI 41
Manz@@ 41
Mar 41
Meth@@ 41
Mind@@ 41
Ming 41
Mist@@ 41
Nasser 41
Nez@@ 41
Nicol@@ 41
Oce@@ 41
Oh@@ 41
PP@@ 41
Rahman 41
Rama 41
Rodriguez 41
Saw@@ 41
Secret 41
Seven 41
Spir@@ 41
Stoke 41
Stuart 41
TH@@ 41
Takri@@ 41
Tang 41
Taw@@ 41
Terr@@ 41
Trav@@ 41
Troyes 41
Vu@@ 41
Wang 41
Wiz@@ 41
Wolf 41
Yek@@ 41
aer@@ 41
ague 41
alisi@@ 41
aran 41
assi@@ 41
ataba 41
aurus 41
bish@@ 41
blues 41
bomb@@ 41
chur@@ 41
danc@@ 41
ders 41
devi@@ 41
dit 41
eksi 41
elec@@ 41
eller 41
eni@@ 41
enko 41
eon 41
esis 41
eville 41
frey 41
habit@@ 41
intang 41
itihada 41
ix@@ 41
kum 41
lai 41
low@@ 41
mano 41
mel 41
mg 41
nova 41
nur@@ 41
oir 41
owo 41
ret 41
rod@@ 41
shut@@ 41
sley 41
stil@@ 41
taj@@ 41
tics 41
tria 41
ture 41
uld 41
wu 41
zoni 41
ä@@ 41
ée 41
Š@@ 41
ς 41
1519 40
159 40
1802 40
1811 40
1833 40
292 40
327 40
387 40
476 40
484 40
69@@ 40
730 40
79@@ 40
Again 40
Airlines 40
Alber@@ 40
Amos 40
Andorra 40
Athletic 40
Back@@ 40
Batman 40
Bonaparte 40
Borussia 40
Call 40
Captain 40
Deutsche 40
Doha 40
Dop@@ 40
ESPN 40
Economic 40
Eduardo 40
Eleu@@ 40
Four 40
Freeman 40
Giuseppe 40
Gob@@ 40
Hash@@ 40
Hippo@@ 40
Hiroshima 40
History 40
IS 40
Jorge 40
Kaya 40
Kid 40
Koch 40
Kru@@ 40
Lakes 40
Let 40
Liberation 40
Lif@@ 40
Linda 40
Low@@ 40
Lud@@ 40
Ludov@@ 40
Lyn@@ 40
Maya 40
Mountains 40
Nikon 40
Nord@@ 40
Nottingham 40
Osh@@ 40
Ost@@ 40
PS@@ 40
Pain 40
Phillips 40
Pointe 40
Prom@@ 40
Quincy 40
Radi@@ 40
Region 40
Reims 40
Rig@@ 40
Río 40
SH@@ 40
Samoa 40
Samsung 40
Semin@@ 40
Sharon 40
Sob@@ 40
TH 40
Tac@@ 40
Tap@@ 40
Tau@@ 40
Ted 40
Theodor 40
Torino 40
Trabzon 40
Tub@@ 40
Tula 40
Vanessa 40
View 40
Wai@@ 40
Wind@@ 40
XXII 40
Yahya 40
abur@@ 40
adv@@ 40
aea 40
alp@@ 40
anen 40
arian 40
arin 40
atas@@ 40
atol@@ 40
away 40
bek 40
bey 40
bid@@ 40
body 40
chu 40
codice 40
cur@@ 40
della 40
dez 40
ding 40
esti@@ 40
hiv@@ 40
ilde 40
imbe 40
iola 40
iso@@ 40
itas 40
kn@@ 40
kong 40
lard 40
loy@@ 40
lum 40
lut@@ 40
mere 40
mut@@ 40
nes@@ 40
nig@@ 40
not 40
number 40
ornis 40
ost 40
outh 40
pera 40
prom@@ 40
rh@@ 40
sev@@ 40
thal@@ 40
tier 40
urg@@ 40
uze 40
zz@@ 40
☉ 40
0.3 39
000@@ 39
141 39
142 39
1816 39
198 39
2.7 39
2.8 39
219 39
245 39
246 39
293 39
295 39
298 39
319 39
322 39
324 39
349 39
374 39
378 39
382 39
391 39
408 39
419 39
432 39
445 39
449 39
56,@@ 39
616 39
620 39
88@@ 39
Alberta 39
Alek@@ 39
Animation 39
Archi@@ 39
Baj@@ 39
Bant@@ 39
Beni 39
Bermuda 39
Boc@@ 39
CDC 39
Canis 39
Challenge 39
Classic 39
Clement 39
Columbus 39
Connor 39
Corr@@ 39
Creek 39
Cube 39
Denizli 39
Dhar@@ 39
Dit@@ 39
Dream@@ 39
Eddy 39
Federation 39
Fire 39
German 39
Gulf 39
Gutenberg 39
Ham 39
Harlem 39
Herr@@ 39
Hew@@ 39
High@@ 39
Honey 39
Jamal 39
Jeh@@ 39
Jel@@ 39
Jesse 39
Jessica 39
Jose@@ 39
Joy@@ 39
João 39
Kar 39
Karim 39
Kelvin 39
Kier@@ 39
Kings 39
Labrador 39
Lenin 39
Loire 39
Luigi 39
Metropolitan 39
Moldova 39
Monaster@@ 39
Nass@@ 39
Nil@@ 39
Pac@@ 39
Paolo 39
Parker 39
Place 39
Pod@@ 39
Poitiers 39
Portsmouth 39
Python 39
Rag@@ 39
Rash@@ 39
Rat@@ 39
Recording 39
Ring 39
Row 39
Sahi@@ 39
Siy@@ 39
Small 39
Sos@@ 39
TS 39
Talent 39
Tribune 39
Trinity 39
Twe@@ 39
UT@@ 39
Vall@@ 39
Vas@@ 39
Vieira 39
Vodafone 39
Ward 39
Water 39
adre 39
ager 39
ajara 39
akh@@ 39
alini 39
amus 39
angazo 39
arama 39
arius 39
atari 39
atis@@ 39
atoliki 39
atom@@ 39
awesi 39
azep@@ 39
bik@@ 39
ches 39
eira 39
endok@@ 39
enny 39
esper@@ 39
fut@@ 39
hik@@ 39
iano 39
iné 39
issen@@ 39
jak@@ 39
kary@@ 39
keno 39
lars 39
leigh 39
odo@@ 39
oefu 39
otrans@@ 39
pam@@ 39
pha 39
phon@@ 39
pour 39
rania 39
sella 39
stati@@ 39
this 39
tiv@@ 39
unzo 39
upan@@ 39
urus 39
uz 39
wes@@ 39
zai 39
ín 39
î@@ 39
ð@@ 39
ʻ@@ 39
† 39
1610 38
1780 38
1801 38
1803 38
189 38
2,500 38
2.0 38
2.1 38
236 38
239 38
243 38
265 38
274 38
343 38
363 38
4.3 38
403 38
444 38
46,@@ 38
60,@@ 38
668 38
690 38
820 38
910 38
AE@@ 38
Abel 38
Achil@@ 38
Against 38
Akar@@ 38
Akira 38
Alpes 38
And@@ 38
Anita 38
Antalya 38
Anth@@ 38
Australian 38
Bhutan 38
Bing@@ 38
Bj@@ 38
Bosco 38
Brig@@ 38
Burg@@ 38
Bursa 38
Burton 38
Carlo 38
Chong@@ 38
Commercial 38
Design 38
Dong 38
Drake 38
Ed 38
Enrique 38
Exchange 38
Fem@@ 38
Funk 38
Gener@@ 38
Ghetto 38
Gold@@ 38
Have 38
Her 38
Hindu 38
Hispan@@ 38
Honor@@ 38
Imperial 38
Journ@@ 38
Kai 38
Kashmir 38
Ken 38
Kisov@@ 38
Korn@@ 38
Logan 38
Mahar@@ 38
Micha@@ 38
Mine 38
Moreno 38
Mous@@ 38
NY@@ 38
Nec@@ 38
Negro 38
Opr@@ 38
Phil 38
Publi@@ 38
Rebecca 38
Record 38
Rich@@ 38
Rihanna 38
SD 38
SU@@ 38
Sed@@ 38
Shanghai 38
Sisters 38
Songs 38
Spider 38
Sul 38
Sutherland 38
Telec@@ 38
Terry 38
Text 38
Things 38
Tonight 38
Uru@@ 38
X. 38
Yon@@ 38
act@@ 38
ahewa 38
alog 38
alt@@ 38
annes 38
ares 38
atis 38
aver 38
biom@@ 38
ble 38
bok 38
digit@@ 38
dinosaur@@ 38
ekeshaji 38
emir@@ 38
eum 38
evo 38
hard 38
heter@@ 38
ift 38
ignan 38
ija 38
imen@@ 38
irini 38
jur@@ 38
kes 38
kes@@ 38
kri@@ 38
ké 38
lane 38
micro@@ 38
nin 38
nm 38
oba@@ 38
oji@@ 38
ological 38
ouf 38
pers 38
plant 38
quot 38
rap@@ 38
sist@@ 38
tarak@@ 38
tib@@ 38
tive 38
tou 38
umin@@ 38
ν 38
ח@@ 38
כ@@ 38
0,0@@ 37
1220 37
158 37
1622 37
164 37
1648 37
1826 37
186 37
247 37
25.@@ 37
266 37
271 37
3.2 37
368 37
455 37
475 37
507 37
54,@@ 37
597 37
608 37
612 37
615 37
628 37
68@@ 37
705 37
880 37
Amir 37
And 37
Andy 37
Arena 37
At 37
Atal@@ 37
Basil@@ 37
Castle 37
Christ 37
Christmas 37
Const@@ 37
Crazy 37
Cum@@ 37
DI 37
Dalm@@ 37
Damian 37
Derr@@ 37
Desmond 37
Deutsch 37
Dib@@ 37
Ej@@ 37
Eli 37
Esther 37
Ethiop@@ 37
Fat 37
Feder@@ 37
Frances 37
Frig@@ 37
Fus@@ 37
Gand@@ 37
Gerard 37
Hann@@ 37
How@@ 37
II@@ 37
IMF 37
KA 37
Kate 37
Kerala 37
Light 37
Lille 37
Liu 37
Lop@@ 37
Lux@@ 37
Mainz 37
Mercury 37
Methodist 37
Molly 37
NCAA 37
Nashville 37
Nord 37
Park@@ 37
Pat 37
Phyl@@ 37
Princeton 37
Pum@@ 37
Range 37
Rast@@ 37
Rein@@ 37
Rich 37
Roz@@ 37
Rugby 37
Ruiz 37
SV 37
Sant@@ 37
Sivas 37
Sl@@ 37
Sporting 37
TP 37
Talk 37
Thomson 37
Toni 37
UR@@ 37
UT 37
Utrecht 37
Walsh 37
Wikim@@ 37
aar 37
afak@@ 37
ald 37
aldi 37
ante@@ 37
ara@@ 37
arch@@ 37
auer 37
awadi 37
ayama 37
bach@@ 37
ball 37
brook 37
cas@@ 37
coli 37
cus 37
dec@@ 37
eder@@ 37
eline 37
enc@@ 37
ender 37
esif@@ 37
euro 37
hab 37
hand 37
ial 37
ifuatazo 37
ily 37
laf@@ 37
lings 37
mang@@ 37
meh 37
muj@@ 37
nil@@ 37
né@@ 37
ojo 37
oman 37
osefu 37
osi@@ 37
par 37
pep@@ 37
raeli 37
rak@@ 37
ree 37
rop@@ 37
skul@@ 37
sl@@ 37
tez 37
ties 37
tran@@ 37
umen 37
ury 37
usun 37
xi@@ 37
yu@@ 37
zeit@@ 37
ça 37
ü@@ 37
ɡ@@ 37
ܝ@@ 37
0.4 36
1.9 36
154 36
1792 36
1804 36
1817 36
196@@ 36
2030 36
255 36
277 36
28.@@ 36
291 36
296 36
3.7 36
33.@@ 36
39.@@ 36
393 36
399 36
415 36
421 36
5.5 36
559 36
619 36
629 36
64@@ 36
704 36
740 36
751 36
869 36
AN 36
Ahmad@@ 36
Ama 36
Andri@@ 36
Anton 36
April 36
Arc@@ 36
Aristot@@ 36
Augustus 36
Ball 36
Berger 36
Bill@@ 36
Blaise 36
Blu@@ 36
Boeing 36
Bolton 36
Booth 36
Bour@@ 36
Bretagne 36
Burnley 36
CU 36
Chr@@ 36
Christi@@ 36
Computer 36
Conn@@ 36
Crew 36
Czech 36
Deu@@ 36
Dion 36
Dé@@ 36
Emil 36
Erik 36
Field 36
Friends 36
Gall@@ 36
García 36
Glenn 36
Got@@ 36
Gui@@ 36
HA 36
Harr@@ 36
Herman 36
Holy 36
Hug@@ 36
Idol 36
Inc 36
Iron 36
Jana 36
Jefferson 36
Josef 36
Jou@@ 36
Joy 36
Jude 36
Judith 36
KK@@ 36
Kayseri 36
Kob@@ 36
Kod@@ 36
Kug@@ 36
Ligh@@ 36
MD 36
Macbeth 36
Marath@@ 36
Margar@@ 36
María 36
McCarthy 36
Meridi@@ 36
Muhammed 36
Murray 36
Napole@@ 36
Norte 36
Ocean 36
Only 36
Orig@@ 36
Oslo 36
Pach@@ 36
Parma 36
Pek@@ 36
Pereira 36
Rhy@@ 36
Ricky 36
Rol@@ 36
Roman 36
Romano 36
Rome 36
SI@@ 36
Shal@@ 36
Sport 36
Station 36
Strasbourg 36
Stu@@ 36
Teb@@ 36
Tes@@ 36
Theft 36
Tina 36
Tit@@ 36
Tower 36
Traf@@ 36
Turkmenistan 36
UB@@ 36
Universe 36
Verona 36
Vicente 36
Virgin 36
Weekly 36
Wis@@ 36
Wonder 36
Xi 36
Yah@@ 36
Yosh@@ 36
Zer@@ 36
acet@@ 36
aden 36
alan 36
aragua 36
ariensis 36
arya 36
ative 36
atiz@@ 36
att 36
ayat 36
azz@@ 36
bil 36
bot 36
ca@@ 36
cas 36
doksi 36
eson 36
etia 36
fum@@ 36
horn 36
https 36
hukum@@ 36
hydro@@ 36
i. 36
ices 36
igula 36
ionale 36
kers 36
kewe 36
krit 36
ley@@ 36
monaster@@ 36
olamo 36
olini 36
oney 36
orious 36
oru 36
osp@@ 36
osu 36
oto@@ 36
ough@@ 36
pierre 36
poli 36
pper 36
ps@@ 36
ramenti 36
sek 36
shire 36
spor@@ 36
tamb@@ 36
tim 36
tos 36
uf 36
ug 36
ón 36
ú 36
ān 36
μ@@ 36
1221 35
1453 35
171 35
1740 35
1787 35
1808 35
1827 35
196 35
279 35
299 35
3.4 35
383 35
396 35
492 35
496 35
502 35
512 35
514 35
516 35
534 35
555 35
634 35
661 35
ACT 35
AF 35
Allison 35
Andrews 35
Baja 35
Balıkesir 35
Beatrice 35
Benfica 35
Billie 35
Borneo 35
Braun 35
Budapest 35
CF 35
CO2 35
Canal 35
Chlor@@ 35
Colin 35
Crosby 35
Cyril 35
DH 35
Dean 35
Dek@@ 35
Dil@@ 35
Doh@@ 35
Dominic 35
Double 35
Dove 35
Eun@@ 35
Fisher 35
Flight 35
GM 35
Greater 35
Hamas 35
Hamb@@ 35
Henderson 35
Hind@@ 35
Hughes 35
ID@@ 35
IK@@ 35
Idi@@ 35
Iglesias 35
Image 35
Indi@@ 35
Interscope 35
Jaw@@ 35
Jensen 35
Jo 35
Josi@@ 35
Jur@@ 35
Lydia 35
McKin@@ 35
Mussolini 35
Nem@@ 35
Norwich 35
Nos@@ 35
Novgorod 35
Oran 35
Over@@ 35
Pamela 35
Persia 35
Ph.D. 35
Pitt 35
Prague 35
Praha 35
Pride 35
Pris@@ 35
Pul@@ 35
Reserve 35
Rica 35
Right 35
Riv@@ 35
Ron 35
Ruanda 35
SN@@ 35
Sco@@ 35
Scor@@ 35
Shakira 35
Shor@@ 35
Sound@@ 35
Special 35
Strat@@ 35
Suk@@ 35
TC 35
TR 35
Taz@@ 35
Tehran 35
Theresa 35
Titan 35
Today 35
UM@@ 35
Umw@@ 35
Under 35
VA 35
Wanna 35
Watson 35
Willem 35
Wing 35
Word@@ 35
Yaz@@ 35
You@@ 35
Zürich 35
acon 35
afro@@ 35
aft@@ 35
agus 35
aines 35
akura 35
alem@@ 35
andin@@ 35
ansen 35
ashara 35
atsu 35
augh@@ 35
automati@@ 35
avirus 35
avo 35
azaki 35
azar 35
beat 35
bet 35
bibli@@ 35
black 35
but 35
dou 35
duk@@ 35
dé@@ 35
eer 35
eit@@ 35
eki@@ 35
elly 35
els@@ 35
ener 35
fid@@ 35
glo@@ 35
haifu 35
harti 35
hn@@ 35
ici 35
igr@@ 35
illi 35
ique 35
isc@@ 35
ision 35
ister 35
ites 35
jera 35
kor 35
lang 35
lian 35
madh@@ 35
modeli 35
mun 35
nov@@ 35
ody 35
ogy 35
onn@@ 35
onna 35
oyle 35
patri@@ 35
quel@@ 35
rep@@ 35
reti 35
rik@@ 35
rugby 35
sept@@ 35
series 35
show 35
silon 35
stad@@ 35
tenga 35
trus@@ 35
tuy@@ 35
uriko 35
ushing 35
ust 35
ylo@@ 35
à@@ 35
én 35
ə 35
ե@@ 35
ո@@ 35
ἀ@@ 35
0.2 34
0.7 34
1054 34
119@@ 34
174 34
1760 34
1770 34
1775 34
1783 34
1793 34
1797 34
22.@@ 34
231 34
242 34
267 34
27.@@ 34
281 34
289 34
3.3 34
35.@@ 34
353 34
359 34
438 34
45,@@ 34
458 34
479 34
529 34
533 34
535 34
539 34
541 34
57,@@ 34
58,@@ 34
606 34
613 34
618 34
623 34
722 34
732 34
76,@@ 34
810 34
85@@ 34
Aar@@ 34
Adelaide 34
Anaf@@ 34
BD 34
Bois 34
Bollywood 34
Bonn@@ 34
Born 34
Brand@@ 34
Buc@@ 34
CMA 34
Calgary 34
Castel@@ 34
Clara 34
Coalition 34
Commission 34
Cooper 34
Copenhagen 34
Critics 34
Cub@@ 34
Culture 34
Dod@@ 34
Doris 34
EMI 34
Eddie 34
Ella 34
Elvis 34
Erzurum 34
FK 34
Fit@@ 34
Flavius 34
Flying 34
Frauen 34
Ga 34
Gerald 34
Guz@@ 34
HTML 34
Haus@@ 34
Hayes 34
Hill@@ 34
Hof@@ 34
IH@@ 34
Jon@@ 34
Ka 34
Kapo@@ 34
Kiss 34
Kurt 34
Luna 34
Machine 34
Madeira 34
Mikhail 34
Mohammad 34
Mour@@ 34
Nay@@ 34
Newfoundland 34
Nissan 34
Nou@@ 34
Och@@ 34
Own 34
PM 34
Patrice 34
Penny 34
Phillip 34
Pik@@ 34
Pru@@ 34
Rang@@ 34
Rov@@ 34
Sana 34
Scot@@ 34
Senior 34
Services 34
Soy@@ 34
Stam@@ 34
Stop 34
Sucre 34
Taur@@ 34
Them@@ 34
Thun@@ 34
Veronica 34
Vä@@ 34
Watanabe 34
Yamaguchi 34
Yuri 34
Zaragoza 34
acc@@ 34
agne 34
aleg@@ 34
aly@@ 34
asc@@ 34
atum 34
bir 34
biz@@ 34
brand 34
chat@@ 34
chester 34
dem 34
dir 34
egen@@ 34
eros 34
esse 34
ew 34
fot@@ 34
fug@@ 34
gram 34
gy@@ 34
hauer 34
het 34
hil 34
ht@@ 34
igan 34
illus 34
irie 34
isp@@ 34
istan 34
itude 34
lag@@ 34
left 34
lich 34
love 34
mith 34
mul@@ 34
nier 34
oia 34
oll 34
otok@@ 34
park 34
pei 34
ref@@ 34
ril 34
rin 34
say@@ 34
shin@@ 34
system 34
tath@@ 34
tidae 34
tine 34
ukur@@ 34
uleni 34
uny 34
yav@@ 34
year 34
yezi 34
yya 34
ère 34
ö 34
ık 34
ն 34
ֹ@@ 34
1550 33
1640 33
1650 33
1690 33
172 33
1776 33
1798 33
1805 33
1819 33
237 33
272 33
326 33
338 33
37.@@ 33
371 33
4.2 33
4.8 33
412 33
414 33
423 33
425 33
446 33
4500 33
461 33
472 33
505 33
55,@@ 33
614 33
698 33
701 33
747 33
78@@ 33
830 33
840 33
920 33
930 33
999 33
AW@@ 33
Alab@@ 33
Alto 33
Amat@@ 33
Ambrose 33
Angels 33
Ans@@ 33
Apolo 33
Aug@@ 33
Aul@@ 33
Bahn 33
Bailey 33
Bek@@ 33
Benson 33
Blan@@ 33
Bristol 33
CK 33
Cartoon 33
Chamb@@ 33
Charity 33
Civil 33
Commonwealth 33
Contemporary 33
DA@@ 33
DL 33
Das 33
Def@@ 33
Diab@@ 33
Drama 33
EM@@ 33
Emir@@ 33
Everest 33
Fashion 33
Fau@@ 33
Fid@@ 33
French 33
Gang 33
Gos@@ 33
Gospel 33
H.@@ 33
Hiti@@ 33
IN 33
IR@@ 33
Internationale 33
Joey 33
Julio 33
Jupiter 33
KO 33
Know 33
Konstanz 33
Kütahya 33
Limoges 33
Lion 33
Manisa 33
Melan@@ 33
Memorial 33
Müller 33
Nair@@ 33
Nantes 33
Norbert 33
Nothing 33
Of@@ 33
Ordu 33
Palma 33
Pav@@ 33
Pisa 33
Plain 33
Polyn@@ 33
Polytechnic 33
Price 33
Professor 33
Ralph 33
Rhein 33
Rhythm 33
Samo@@ 33
Shen@@ 33
Shield 33
Sidney 33
Sn@@ 33
Sol 33
Starr 33
Sti@@ 33
Stre@@ 33
Sunshine 33
Swansea 33
Sánchez 33
Trevor 33
Viol@@ 33
Volga 33
Wagner 33
Want 33
Yong@@ 33
Yose@@ 33
Zero 33
Zub@@ 33
aal 33
agio 33
agno@@ 33
ahe 33
akadem@@ 33
allah 33
amali 33
amie 33
anka 33
atidae 33
aud 33
audi@@ 33
baad@@ 33
bass 33
bri 33
bur 33
cat 33
ceph@@ 33
dil@@ 33
dorf 33
efa 33
eig@@ 33
enger@@ 33
entista 33
entius 33
erini 33
etano 33
gin@@ 33
have 33
hen@@ 33
hoe 33
idade 33
iger 33
igg@@ 33
imini 33
ink 33
inv@@ 33
iny 33
ists 33
kal 33
kaza 33
kun 33
like 33
lington 33
mac@@ 33
melan@@ 33
meridi@@ 33
mim@@ 33
nik 33
nitr@@ 33
ography 33
oris 33
orus 33
pon 33
pur 33
rapper 33
ris 33
rol@@ 33
seh@@ 33
she@@ 33
sichana 33
street 33
suya 33
thon 33
trus 33
uman 33
unc@@ 33
usul@@ 33
va@@ 33
web@@ 33
work 33
xton 33
yth@@ 33
~ 33
École 33
ène 33
ë 33
ɾ@@ 33
ṭ@@ 33
.C. 32
0.1 32
0.9 32
1560 32
1591 32
1790 32
3.1 32
328 32
351 32
358 32
367 32
385 32
416 32
427 32
435 32
443 32
477 32
521 32
527 32
536 32
547 32
563 32
601 32
602 32
603 32
664 32
669 32
741 32
969 32
AZ 32
Abas@@ 32
Abe 32
Ago@@ 32
Amen@@ 32
Arab@@ 32
Auckland 32
BL 32
Batt@@ 32
Bella 32
Bergen 32
Bourges 32
Brandenburg 32
Casablanca 32
Cic@@ 32
Civ@@ 32
Comp@@ 32
Conrad 32
Cornell 32
Coron@@ 32
Croatia 32
Cuban 32
Cynthia 32
Danc@@ 32
Diony@@ 32
Doctor 32
Einstein 32
Elisabeth 32
Engineering 32
Eskişehir 32
Ever@@ 32
Fair 32
Flo@@ 32
Freiburg 32
Fulham 32
Félix 32
Gig@@ 32
Hard@@ 32
Heath 32
Heritage 32
Hg 32
Hubert 32
Hunt 32
IF 32
Information 32
Internaz@@ 32
Ja 32
Jong 32
Jules 32
KO@@ 32
Kant 32
Kastamonu 32
Klin@@ 32
Ko 32
Kraków 32
Krishna 32
Lek@@ 32
Lid@@ 32
Ling@@ 32
Lo 32
Lou 32
Lower 32
Luiz 32
ME 32
Mann 32
March 32
Matrix 32
Mecklenburg 32
Mori@@ 32
Morton 32
Nami@@ 32
Neal 32
Nebraska 32
Novo 32
Oakland 32
Ov@@ 32
Oz@@ 32
Padua 32
Pag@@ 32
Part 32
Porter 32
Rho@@ 32
Richardson 32
Ridge 32
Riy@@ 32
Rodrigues 32
Rosario 32
Salisbury 32
Samsun 32
Sasha 32
Save 32
Sebasti@@ 32
Sex@@ 32
Seymour 32
Shirley 32
Tari@@ 32
Tay 32
Tow@@ 32
Urbano 32
Usu@@ 32
Watch 32
Zaf@@ 32
Zhang 32
acks 32
adol@@ 32
aks 32
angel@@ 32
ank 32
atl 32
aven 32
bat 32
berto 32
cam@@ 32
corona 32
court 32
dre@@ 32
ear@@ 32
egi 32
elik@@ 32
endorf 32
eor@@ 32
eran 32
esto 32
estown 32
ges 32
gir@@ 32
heli@@ 32
huel@@ 32
iel 32
igny 32
inha 32
iten@@ 32
jpg 32
juz@@ 32
kê 32
leaf 32
lid 32
litz 32
lop 32
mal 32
mona 32
mond 32
mus 32
nau@@ 32
neg@@ 32
oll@@ 32
ond 32
opus 32
orr@@ 32
oud@@ 32
ovir@@ 32
pandemia 32
phus 32
phy@@ 32
pist@@ 32
priv@@ 32
put 32
red@@ 32
roy 32
rung 32
ström 32
tili@@ 32
tos@@ 32
tre@@ 32
tsunami 32
uck@@ 32
vic@@ 32
wig@@ 32
yir@@ 32
yk@@ 32
zig@@ 32
Île 32
ū 32
ֶ@@ 32
0.8 31
1. 31
1516 31
1535 31
1598 31
197@@ 31
234 31
261 31
273 31
284 31
364 31
433 31
463 31
467 31
47,@@ 31
482 31
506 31
518 31
519 31
532 31
546 31
551 31
553 31
599 31
681 31
70,@@ 31
77@@ 31
786 31
806 31
978 31
990 31
Adriano 31
Alc@@ 31
Alessandro 31
Almeida 31
Amaz@@ 31
Amin@@ 31
Apostol@@ 31
App@@ 31
Bang 31
Board 31
Books 31
Box 31
Brad 31
Cartagena 31
Cec@@ 31
Chase 31
Clarke 31
Coun@@ 31
Córdoba 31
Dei 31
Dus@@ 31
Ec@@ 31
Esta 31
Euse@@ 31
Fe 31
Food 31
Gertrude 31
Gru@@ 31
Hit@@ 31
Hubble 31
IB 31
Indianapolis 31
Initiative 31
Iso@@ 31
Jack@@ 31
Jalisco 31
Jas@@ 31
Jungle 31
Kent@@ 31
Kiss@@ 31
Kyoto 31
Latina 31
Lauren 31
Lena 31
Loyola 31
MI 31
MR 31
McG@@ 31
Mess@@ 31
Miles 31
Mona 31
Monroe 31
München 31
Nadia 31
Nokia 31
Northwest 31
Né@@ 31
Oak 31
Ole 31
Orth@@ 31
Other 31
Penguin 31
Pirates 31
Production 31
Railways 31
Review 31
Rib@@ 31
Rosem@@ 31
Row@@ 31
Scar@@ 31
Sebastian 31
September 31
Serena 31
Shaw 31
Sinclair 31
Somali 31
Sophie 31
Squad 31
Strep@@ 31
Sung 31
Symphony 31
Tech 31
Teen 31
Tenerife 31
Thing 31
Timothy 31
Training 31
U.@@ 31
Val 31
Vogue 31
Von 31
Wanderers 31
Warriors 31
Watt 31
Wes@@ 31
Woods 31
Worcester 31
Y. 31
Zek@@ 31
Zucker@@ 31
ahr@@ 31
alpa 31
anime 31
aras@@ 31
aren@@ 31
asco 31
atra 31
bian 31
bius 31
dian 31
dle 31
down 31
duda 31
ede@@ 31
elles 31
ety 31
first 31
gas@@ 31
hus 31
iliano 31
irikisho 31
kisi@@ 31
koh@@ 31
kola 31
lay 31
nati@@ 31
neb@@ 31
obia 31
ongez@@ 31
ore@@ 31
phone 31
pir@@ 31
plasma 31
play 31
plus 31
poly@@ 31
prin@@ 31
program 31
qui 31
rae 31
song 31
stead 31
sui 31
thar@@ 31
tius 31
tru@@ 31
ufun@@ 31
vier 31
yenyekevu 31
zum@@ 31
émon 31
ũ@@ 31
γ 31
ск 31
ת 31
وَ@@ 31
藤 31
--- 30
1210 30
1498 30
156 30
1675 30
372 30
388 30
392 30
426 30
428 30
439 30
462 30
465 30
503 30
508 30
513 30
523 30
624 30
626 30
639 30
676 30
679 30
715 30
717 30
718 30
752 30
917 30
96@@ 30
975 30
Adana 30
Anthro@@ 30
Aran@@ 30
Arist@@ 30
Atatürk 30
BT 30
Base 30
Bee 30
Belle 30
Beverly 30
Biennale 30
Bish@@ 30
Brenda 30
Bros. 30
Brunswick 30
By 30
Call@@ 30
Capitol 30
Caribbean 30
Cath@@ 30
Chamberlain 30
Clair@@ 30
Comedy 30
Crow@@ 30
Cunningham 30
Cyprus 30
Daisy 30
Dangerous 30
Dark@@ 30
Dic@@ 30
Environmental 30
Fish@@ 30
Galv@@ 30
Gaulle 30
Gene 30
Goa 30
HIV 30
Hart 30
Havana 30
Hawkins 30
Head@@ 30
Hell 30
Helsinki 30
Homer 30
IMA 30
Ill@@ 30
John@@ 30
Jung 30
Kenn@@ 30
Konrad 30
Look 30
Lucia 30
Lucky 30
Lur@@ 30
Mahmoud 30
Malatya 30
Malay 30
Mayo 30
Name 30
Nel@@ 30
Nen@@ 30
Niagara 30
Nob@@ 30
Norfolk 30
ON@@ 30
Open 30
Osaka 30
Paz 30
Ple@@ 30
Railway 30
Resistance 30
Rhode 30
Ring@@ 30
Saga 30
Sait@@ 30
Savage 30
Sina 30
Springfield 30
Stevenson 30
Studies 30
Suc@@ 30
Sussex 30
Teh@@ 30
Titus 30
Toy@@ 30
Tu 30
Ulu@@ 30
Viet@@ 30
Week 30
Wet@@ 30
What@@ 30
Wood 30
XXI 30
Zach@@ 30
Zanz@@ 30
Zem@@ 30
adio 30
agn@@ 30
aho 30
aker 30
akter@@ 30
ale@@ 30
alu@@ 30
alus 30
asil@@ 30
aç@@ 30
bit 30
com 30
cona 30
cre@@ 30
diya 30
eless 30
ems 30
engen 30
erere 30
eron 30
erry 30
erty 30
flam@@ 30
fungi@@ 30
gem@@ 30
got 30
hiz@@ 30
hotep 30
html 30
inius 30
inski 30
inta 30
ip 30
iting 30
kod@@ 30
law 30
lot@@ 30
lun@@ 30
milli@@ 30
mka@@ 30
msa@@ 30
nai@@ 30
occus 30
oidea 30
ologi@@ 30
omus 30
onso 30
opatra 30
orith@@ 30
otra 30
peri@@ 30
phen@@ 30
ping 30
qi 30
quin@@ 30
rel@@ 30
reno 30
sai 30
song@@ 30
sons 30
tila 30
tional 30
tona 30
tone 30
ub 30
uji@@ 30
ushu 30
wais@@ 30
ware 30
wiano 30
ws 30
xen 30
yen 30
yeti 30
yin 30
yne 30
yst@@ 30
zan@@ 30
zer@@ 30
és 30
ʁ@@ 30
י 30
פ@@ 30
् 30
.org 29
0.6 29
1.0 29
1050 29
1215 29
1547 29
1555 29
1580 29
1730 29
1762 29
1823 29
2. 29
278 29
297 29
369 29
389 29
418 29
442 29
448 29
456 29
457 29
487 29
528 29
572 29
578 29
635 29
638 29
67,@@ 29
708 29
719 29
721 29
737 29
774 29
796 29
815 29
832 29
860 29
87@@ 29
94@@ 29
972 29
974 29
ATP 29
Aydın 29
Barnard 29
Benedict 29
Bengali 29
Benito 29
Berry 29
Blues 29
Burning 29
Cabr@@ 29
Carol 29
Carrillo 29
Certific@@ 29
Chan 29
Chen@@ 29
Circle 29
Clo@@ 29
Cohen 29
Commons 29
Cool@@ 29
Covid 29
Dhabi 29
Dylan 29
Ecuador 29
Eisenhower 29
Elis@@ 29
Elo@@ 29
Eugenio 29
Europe 29
Evelyn 29
Eye 29
Ferrari 29
Fidel 29
GA 29
GO@@ 29
Germany 29
Gian@@ 29
Grav@@ 29
Guadalajara 29
Guangdong 29
HP 29
Habsburg 29
Harmon@@ 29
Harriet 29
Haydn 29
Heli@@ 29
Hep@@ 29
Idaho 29
Ingolstadt 29
Johns 29
Jol@@ 29
Julie 29
Karachi 29
Klaus 29
Kobe 29
Kyr@@ 29
LS 29
Lama 29
Leslie 29
Lorraine 29
Los@@ 29
Louisville 29
MB@@ 29
MG 29
Major 29
Mant@@ 29
Maxwell 29
Medici 29
Melissa 29
Midlands 29
Morrison 29
NET 29
Nacional 29
Nau@@ 29
Neil 29
Ngo@@ 29
No. 29
Oda 29
Oli@@ 29
PDF 29
PSG 29
Pablo 29
Palmas 29
Patterson 29
Ped@@ 29
Pig@@ 29
Post@@ 29
Regina 29
Rest@@ 29
Reynolds 29
Rutherford 29
Salah 29
Sant 29
See 29
Soccer 29
Sparta 29
Stand@@ 29
Steph@@ 29
Syri@@ 29
Take 29
Teg@@ 29
Turkey 29
Té@@ 29
Ural 29
Vie@@ 29
Vivi@@ 29
Willie 29
Willis 29
Yang 29
abus 29
agon 29
ampo 29
anas 29
anger@@ 29
aspir@@ 29
atham 29
athini 29
aver@@ 29
ayana 29
ayet@@ 29
azy 29
bant@@ 29
bau@@ 29
bro 29
cis 29
eich@@ 29
enton 29
etz@@ 29
fac@@ 29
fish 29
flo@@ 29
force 29
fort 29
gastro@@ 29
gri 29
hill 29
imbab@@ 29
iran 29
isch 29
ital@@ 29
jah@@ 29
kam 29
lade 29
lidae 29
lou 29
loven@@ 29
maine 29
makam@@ 29
news 29
nio 29
ocar@@ 29
odor@@ 29
oides 29
oplas@@ 29
orie 29
ove 29
owski 29
pler 29
point 29
programming 29
propaganda 29
quis 29
revision 29
rif@@ 29
rist@@ 29
sant@@ 29
sep@@ 29
sola 29
sulfur@@ 29
sum 29
tere 29
thouse 29
tino 29
torate 29
toro 29
trof@@ 29
tude 29
under 29
wikitext 29
yat 29
ying 29
yle 29
zh@@ 29
ár@@ 29
ô 29
č 29
ħ@@ 29
الله 29
ه@@ 29
1219 28
1450 28
1507 28
1530 28
1536 28
1603 28
1620 28
1670 28
1774 28
193@@ 28
2.9 28
294 28
3. 28
3.0 28
352 28
394 28
4.4 28
424 28
434 28
485 28
486 28
4x@@ 28
5. 28
511 28
531 28
542 28
591 28
598 28
607 28
646 28
687 28
707 28
743 28
754 28
770 28
775 28
824 28
835 28
89@@ 28
97@@ 28
988 28
992 28
AY@@ 28
Abbey 28
Abruz@@ 28
Afyonkarahisar 28
Agri@@ 28
Alba 28
Andreas 28
Angelo 28
Anti 28
Astr@@ 28
Bahr@@ 28
Baptiste 28
Barbados 28
Beatles 28
Bennett 28
Bess@@ 28
Bhar@@ 28
Bureau 28
CR@@ 28
Camer@@ 28
Cash 28
Cena 28
Chapman 28
Clifford 28
Cob@@ 28
Confeder@@ 28
Court 28
Cry 28
Cuc@@ 28
DN@@ 28
Del 28
Díaz 28
Echo 28
Elliott 28
Era 28
Essex 28
Estate 28
Freud 28
Fritz 28
Generation 28
Giresun 28
Gone 28
Government 28
Guy@@ 28
Hamm@@ 28
Hanover 28
Haven 28
Hong@@ 28
IU@@ 28
Institut 28
Islamic 28
Isparta 28
Ivan@@ 28
Jeanne 28
Karab@@ 28
Kenny 28
Killer 28
Linux 28
Magnus 28
Maritime 28
Maximilian 28
Maynard 28
Mi 28
Minor 28
Molek@@ 28
Morse 28
Nanj@@ 28
Newman 28
Nicole 28
Ninja 28
Odessa 28
Pa 28
Parad@@ 28
Paradise 28
Peri@@ 28
Pes@@ 28
Philippe 28
Pi 28
Rachel 28
Rafael 28
Ramon 28
Región 28
Rowland 28
Rubin 28
SK 28
Sabr@@ 28
Sark@@ 28
Serge 28
Simmons 28
Sister 28
Stranger 28
TCP 28
TR@@ 28
TU 28
Team 28
Telegraph 28
Tonga 28
Tril@@ 28
Unity 28
Valentine 28
Vermont 28
Vish@@ 28
WS 28
Well@@ 28
Willy 28
Xi@@ 28
Yun@@ 28
Zurich 28
abia 28
acy 28
ahl 28
akama 28
anan 28
anch@@ 28
anh 28
anto@@ 28
arina 28
assy 28
atma 28
awak@@ 28
bala 28
bergen 28
bonne 28
bé 28
code 28
company 28
dae 28
dama 28
eber@@ 28
ect 28
edio 28
elev@@ 28
entes 28
eph@@ 28
esin@@ 28
essa 28
estra 28
fif@@ 28
gens 28
get 28
gri@@ 28
haup@@ 28
huku@@ 28
hurst 28
iTunes 28
idea 28
insk 28
ires 28
jin 28
jun@@ 28
kho@@ 28
köping 28
lee 28
leton 28
lino 28
live 28
lus 28
mari@@ 28
ments 28
mier@@ 28
nay 28
nd 28
ner@@ 28
nus 28
oc 28
ohama 28
ont 28
orio 28
otto 28
padre 28
power 28
ques 28
rez 28
ric 28
rows 28
s. 28
sain 28
spr@@ 28
stat@@ 28
tende 28
ths 28
top 28
tv 28
uit 28
ullah 28
umen@@ 28
uzu 28
ué 28
vaux 28
vey 28
wet@@ 28
will 28
wind@@ 28
zen 28
Çanakkale 28
élé@@ 28
ém@@ 28
ér@@ 28
ël 28
ʾ@@ 28
ֵ@@ 28
ת@@ 28
1240 27
1418 27
1605 27
1619 27
1660 27
1756 27
3,500 27
436 27
447 27
491 27
495 27
501 27
504 27
537 27
548 27
552 27
554 27
561 27
573 27
586 27
611 27
621 27
641 27
651 27
656 27
68,@@ 27
696 27
702 27
703 27
727 27
762 27
782 27
788 27
826 27
843 27
929 27
935 27
Alg@@ 27
Alvin 27
Always 27
Ander@@ 27
Antonia 27
Antony 27
Ars@@ 27
Attila 27
BE@@ 27
BN 27
Barre 27
Bas 27
Beautiful 27
Body 27
Boz@@ 27
Brad@@ 27
Bron@@ 27
Brother 27
Cac@@ 27
Camb@@ 27
Campus 27
Cap 27
Cassini 27
Chab@@ 27
Chapel 27
Christine 27
Compton 27
Control 27
Cork 27
Cristina 27
Dame 27
Delaware 27
Den 27
Department 27
Didier 27
Dora 27
Edge 27
Elle 27
Emin 27
En 27
Etim@@ 27
Eust@@ 27
FL@@ 27
FS 27
Fam@@ 27
Finn 27
Francois 27
Fuku@@ 27
Gallery 27
Genesis 27
Ghar@@ 27
Gibson 27
Goethe 27
Greg 27
Göttingen 27
Harbor 27
Harun 27
Hastings 27
Hector 27
Holdings 27
Hour 27
INE 27
ITV 27
JavaScript 27
Jerusalem 27
Jonas 27
Josh 27
Judy 27
Katrina 27
Keep 27
Khor@@ 27
Kipap@@ 27
Kobayashi 27
Kocaeli 27
Koz@@ 27
Lancaster 27
MA@@ 27
Martins 27
Modern 27
Mtw@@ 27
NFL 27
NI@@ 27
Natalie 27
Need 27
Neu@@ 27
News@@ 27
Nikolai 27
Noel 27
Nur 27
Oh 27
Pens@@ 27
Player 27
Po 27
Provincia 27
Rais@@ 27
Revolution 27
Rhap@@ 27
Riz@@ 27
Rosen@@ 27
SARS 27
Samson 27
Sci@@ 27
Scottish 27
Sheila 27
Sky@@ 27
Sta@@ 27
Stephanie 27
Söder@@ 27
Tash@@ 27
Tasmania 27
Thor@@ 27
Three 27
Together 27
Tracks 27
Troy 27
Tudor 27
Veracruz 27
Visual 27
Wings 27
Works 27
Years 27
adada 27
agen 27
aig@@ 27
alls 27
amor@@ 27
ards 27
asse 27
asy@@ 27
bad 27
blo@@ 27
bom 27
bor 27
chet 27
cic@@ 27
coc@@ 27
coni 27
drama 27
dt 27
dul@@ 27
ebe@@ 27
ebes 27
ec 27
eld 27
eles 27
emon 27
eren 27
father 27
form 27
gab@@ 27
gai 27
giriki 27
hen 27
hiro 27
hito 27
hiy@@ 27
hood 27
hor 27
hou@@ 27
iah 27
icum 27
ih 27
isis 27
ism@@ 27
itab@@ 27
itali@@ 27
its@@ 27
kel 27
lep@@ 27
m. 27
manu@@ 27
mine 27
oecesis 27
ogen@@ 27
oideae 27
olu 27
onal@@ 27
ool 27
otus 27
ovic 27
ples 27
rat@@ 27
sal 27
sapiens 27
ss 27
tab 27
test@@ 27
than@@ 27
thel@@ 27
toc@@ 27
tou@@ 27
tries 27
ucci 27
uck 27
uridae 27
uth 27
vai 27
vari 27
vic 27
vić 27
w.@@ 27
yr 27
ò 27
ĩ@@ 27
şehir 27
ɔ@@ 27
ի@@ 27
ל 27
ר 27
ܐ 27
1010 26
1080 26
1130 26
1216 26
1274 26
1427 26
1534 26
1588 26
1637 26
1680 26
195@@ 26
2100 26
31.@@ 26
38.@@ 26
493 26
499 26
524 26
549 26
59.@@ 26
633 26
636 26
64,@@ 26
644 26
645 26
648 26
652 26
666 26
672 26
712 26
713 26
768 26
792 26
795 26
807 26
809 26
821 26
896 26
903 26
911 26
928 26
931 26
993 26
994 26
AO 26
Achi@@ 26
Administration 26
Agatha 26
Ais@@ 26
Atak@@ 26
Barb@@ 26
Barrow 26
Bass 26
Bla@@ 26
Boss 26
Browns 26
Burdur 26
CF@@ 26
CW 26
Cali 26
Catalonia 26
Catholic 26
Ch 26
Cliff 26
Coleman 26
Connection 26
Conservation 26
Construction 26
Cran@@ 26
Cri@@ 26
DN 26
Desert 26
Docum@@ 26
Dragon 26
Duk@@ 26
Dw@@ 26
Economics 26
Energy 26
Eti@@ 26
Eugen@@ 26
Evangel@@ 26
Fabian 26
Fabri@@ 26
Ferrand 26
Fik@@ 26
Fres@@ 26
Gerhard 26
Giant 26
Gil 26
Griffin 26
Gros@@ 26
Gujarat 26
Heaven 26
Honda 26
IMO 26
Ily@@ 26
Irving 26
Johan 26
Kalm@@ 26
Kepler 26
Klein 26
Koh@@ 26
Kopenhagen 26
Kron@@ 26
LAN 26
Labour 26
Lea 26
Leh@@ 26
Leng@@ 26
Leverkusen 26
Liz@@ 26
Macau 26
Maharashtra 26
Mans 26
Martinique 26
Mika 26
Min 26
Most 26
Moul@@ 26
Nassau 26
Natasha 26
Nep@@ 26
Nicky 26
Noire 26
Olympic 26
Ottoman 26
Pasteur 26
Pauline 26
Peterburg 26
Phar@@ 26
Phot@@ 26
Piz@@ 26
Presley 26
Putin 26
Qing 26
RB 26
Race 26
Ramsey 26
Rand@@ 26
Rau@@ 26
Richmond 26
Saj@@ 26
Salv@@ 26
Sanchez 26
Scher@@ 26
Scotia 26
Second 26
Sequ@@ 26
Soci@@ 26
Spring 26
Stanton 26
Summit 26
Syracuse 26
TI 26
Tai 26
Tip@@ 26
Tof@@ 26
Trail 26
Tsun@@ 26
Tübingen 26
Warrior 26
Warsaw 26
Watford 26
Winchester 26
Woj@@ 26
abaj@@ 26
ajo 26
arc@@ 26
aret 26
aribifu 26
arts 26
asius 26
atl@@ 26
aut 26
azer 26
banks 26
bers 26
bis 26
cell 26
chie 26
dah@@ 26
dium 26
edan 26
egr@@ 26
elio 26
eps 26
erikali 26
eur 26
evich 26
für 26
gin 26
group 26
host@@ 26
ican 26
icius 26
icky 26
igh 26
illon 26
iner 26
inian 26
irus 26
ital 26
kat 26
kie 26
lah@@ 26
level 26
liber@@ 26
loi 26
lé 26
master 26
mod@@ 26
moon 26
nom 26
odie 26
oran 26
oskop@@ 26
over@@ 26
oz 26
pas 26
pass@@ 26
passi@@ 26
poem 26
rel 26
rev@@ 26
rig@@ 26
ror@@ 26
ross 26
saw@@ 26
sek@@ 26
sid@@ 26
simamizi 26
sman 26
sun 26
tero 26
thir@@ 26
tland 26
tric@@ 26
ual 26
ularis 26
utsi 26
vale 26
view 26
wen 26
word 26
xit 26
zano 26
zun@@ 26
Çorum 26
Étienne 26
án@@ 26
év@@ 26
ă@@ 26
ē 26
ış 26
ła 26
Ş@@ 26
山@@ 26
木 26
本 26
田@@ 26
野 26
001 25
1030 25
1070 25
1120 25
1226 25
1247 25
1253 25
1260 25
1270 25
1312 25
1380 25
1401 25
1420 25
1499 25
1609 25
1642 25
1644 25
1763 25
1794 25
2400 25
2700 25
398 25
400@@ 25
43,@@ 25
45.@@ 25
452 25
464 25
468 25
498 25
517 25
526 25
545 25
557 25
565 25
589 25
592 25
6.4 25
647 25
657 25
675 25
685 25
73@@ 25
776 25
779 25
823 25
842 25
901 25
945 25
953 25
95@@ 25
962 25
Access 25
Aden@@ 25
Alex@@ 25
Alfredo 25
Amad@@ 25
Amas@@ 25
Amiens 25
Anal@@ 25
Anhalt 25
Artist 25
Audi 25
Bartol@@ 25
Basil 25
Benz@@ 25
Bertr@@ 25
Bez@@ 25
Bono 25
Bryant 25
Bu 25
CS 25
Case 25
Chic@@ 25
Cleopatra 25
Clu@@ 25
Committee 25
Crown 25
Dear 25
Deep@@ 25
Dick 25
Dirty 25
Division 25
Donovan 25
EP@@ 25
Evolution 25
FAO 25
Franc@@ 25
GPS 25
Gibbs 25
Glu@@ 25
Guil@@ 25
Gómez 25
H2O 25
HMS 25
Hang@@ 25
Hey 25
Hidro@@ 25
Hig@@ 25
Hillary 25
Hiroshi 25
Hotels 25
Index 25
Isab@@ 25
KZ 25
Karnataka 25
Lai 25
Lao 25
Lod@@ 25
Loy@@ 25
Lucius 25
Luxembourg 25
Malik 25
Mans@@ 25
Market 25
Mathe@@ 25
Mirror 25
Modi@@ 25
Mont 25
Much@@ 25
Musical 25
Myr@@ 25
Naomi 25
Net 25
Newark 25
Oj@@ 25
Oly@@ 25
Origen 25
Osman 25
Ottawa 25
PAN@@ 25
Pf@@ 25
Phi@@ 25
Philipp@@ 25
Pierce 25
Plin@@ 25
Polo 25
Publishing 25
Pus@@ 25
Quil@@ 25
Rally 25
Richie 25
Rick 25
Riley 25
Rob 25
Rochester 25
Rocky 25
Roll 25
Roots 25
Rou@@ 25
ST 25
Saig@@ 25
Sain@@ 25
Santana 25
Saxony 25
Schne@@ 25
Schuster 25
Sheriff 25
Side 25
Sing 25
Siz@@ 25
SmackDown 25
Sod@@ 25
Sokrates 25
Source 25
Spo@@ 25
Stein@@ 25
Takashi 25
Taun@@ 25
Tell 25
Tex@@ 25
Thai 25
Tod 25
Tomé 25
Tracy 25
Turn@@ 25
UA 25
UE@@ 25
Univers@@ 25
Urs@@ 25
Viel@@ 25
Viktor 25
Wyn@@ 25
Yozgat 25
Zagreb 25
Zhu@@ 25
acker 25
adel@@ 25
adem@@ 25
akes 25
amar 25
amin 25
amma 25
amwili 25
angem@@ 25
anges@@ 25
anie 25
arat 25
asem@@ 25
ases@@ 25
asum@@ 25
atin 25
auto@@ 25
avir@@ 25
bek@@ 25
bri@@ 25
chess 25
dah 25
digital 25
dou@@ 25
duki 25
eal 25
ean@@ 25
ellen 25
enh@@ 25
estan 25
eux 25
feld 25
fizi@@ 25
funk 25
ged 25
gees 25
gir 25
gius 25
hay 25
hiidae 25
himu 25
hini 25
hipa 25
hos@@ 25
idon 25
ieri 25
ihan@@ 25
iler 25
illas 25
ious 25
isson 25
istic 25
iyama 25
joh@@ 25
juana 25
kett 25
kuanz@@ 25
ky@@ 25
lama 25
lap@@ 25
linzi 25
lip 25
lom@@ 25
luk 25
matr@@ 25
miner@@ 25
mum@@ 25
nel 25
nis 25
now 25
ois 25
olan 25
olla 25
omys 25
onas 25
onidae 25
ories 25
over 25
ovi 25
owari 25
paradig@@ 25
people 25
pert 25
pin 25
ple 25
plut@@ 25
pup@@ 25
pus 25
py@@ 25
qua 25
return 25
ros 25
rus@@ 25
same 25
sau 25
say 25
space 25
suka 25
syn@@ 25
tau 25
tepe 25
thor@@ 25
trac@@ 25
tree 25
trig@@ 25
tura 25
ugu@@ 25
ums 25
undra 25
vir 25
which 25
xa 25
zar@@ 25
zon 25
Ö@@ 25
ė@@ 25
ׁ@@ 25
ῖ@@ 25
郎 25
1012 24
1066 24
1090 24
1170 24
1180 24
1230 24
1303 24
1414 24
1415 24
1439 24
1532 24
1570 24
1582 24
1590 24
1595 24
1607 24
1618 24
1630 24
1632 24
1667 24
1710 24
1765 24
190@@ 24
3.9 24
31,@@ 24
376 24
42.@@ 24
454 24
46.@@ 24
466 24
469 24
478 24
49.@@ 24
543 24
558 24
569 24
582 24
585 24
595 24
617 24
627 24
643 24
653 24
654 24
671 24
673 24
677 24
678 24
682 24
686 24
693 24
695 24
709 24
723 24
728 24
739 24
746 24
756 24
765 24
797 24
798 24
811 24
816 24
851 24
893 24
897 24
907 24
909 24
919 24
940 24
ABA 24
ASP 24
Actors 24
Adnan 24
Alonso 24
Alph@@ 24
Anastasia 24
Annie 24
Ar 24
Artvin 24
Ata 24
Bahia 24
Bala 24
Baptist 24
Bartolom@@ 24
Bengal 24
Bing 24
Boyd 24
Bradford 24
Brand 24
Britann@@ 24
Carl@@ 24
Charleston 24
Cl 24
Cli@@ 24
Clim@@ 24
Coch@@ 24
Complex 24
Cornwall 24
Cres@@ 24
DB 24
Daimler 24
Dais@@ 24
Dalton 24
Ded@@ 24
Denise 24
Derek 24
Dioc@@ 24
Dip@@ 24
Diplom@@ 24
Dreams 24
Dundee 24
Earl 24
Ech@@ 24
Enzo 24
Erie 24
Fay@@ 24
Federico 24
Female 24
Fern@@ 24
Fine 24
Fitzgerald 24
Friday 24
Fu 24
GNU 24
Gee 24
Gemini 24
Ges@@ 24
Gin@@ 24
Giov@@ 24
Glory 24
Gorg@@ 24
Gron@@ 24
Guern@@ 24
Hadi@@ 24
Hampton 24
Hamza 24
Heil@@ 24
Hein@@ 24
Heller 24
Highlands 24
Hoff@@ 24
Holocaust 24
Horn 24
Huang 24
Imag@@ 24
Jacobs 24
Jad@@ 24
Javier 24
Jeffrey 24
Jenn@@ 24
Jesús 24
Jord@@ 24
Juni@@ 24
Jura 24
Justini@@ 24
Kirchner 24
Krasno@@ 24
LGBT 24
Levi 24
Limburg 24
Linnaeus 24
Locke 24
Luc 24
Luch@@ 24
Lyons 24
Manila 24
Marcel 24
Mari 24
Martial 24
Mitsubishi 24
Moskva 24
Moz@@ 24
Nati@@ 24
Natural 24
Navy 24
Nelly 24
Night@@ 24
Nijer@@ 24
Ocean@@ 24
Off@@ 24
Office 24
Oliveira 24
Olympique 24
Our@@ 24
PSV 24
Pati@@ 24
Per 24
Perth 24
Pier@@ 24
Pietro 24
Plant@@ 24
Poetry 24
Potsdam 24
Primo 24
Pseud@@ 24
Publishers 24
Rain 24
Re 24
Reagan 24
Reed 24
Rij@@ 24
Rin@@ 24
Rodríguez 24
Rudi 24
Sale 24
Sax@@ 24
Saxon 24
Seth 24
Shiv@@ 24
Sic@@ 24
Six 24
Slam 24
Solanum 24
Spears 24
Spirit 24
Spr@@ 24
Strange 24
Strong@@ 24
Suf@@ 24
TB 24
TNT 24
Technologies 24
Terror 24
Tha 24
Thames 24
Thir@@ 24
Timur 24
Tokat 24
Tucker 24
Tug@@ 24
Tunes 24
Universit@@ 24
Ved@@ 24
Venus 24
Vernon 24
Volk@@ 24
WWF 24
Westminster 24
Xavier 24
Xin@@ 24
Yel@@ 24
Yu 24
Zay@@ 24
Zul@@ 24
aban@@ 24
aci 24
aen@@ 24
aling 24
alya 24
anali@@ 24
anco 24
anner 24
aries 24
arith@@ 24
asar 24
asp@@ 24
atz 24
aves 24
belt 24
bire@@ 24
bou 24
burg@@ 24
bute 24
centr@@ 24
chen 24
cos@@ 24
cum 24
dafi 24
dey 24
di.@@ 24
dim 24
dro@@ 24
ebel 24
ect@@ 24
ective 24
eds 24
ells 24
enst@@ 24
erk@@ 24
essy 24
fed@@ 24
fem@@ 24
fib@@ 24
fly 24
four 24
gene 24
git@@ 24
hass@@ 24
hn 24
igno 24
ikal 24
ikon 24
ior 24
isra@@ 24
ivi@@ 24
kali@@ 24
kre@@ 24
lac@@ 24
lation 24
lige 24
liy@@ 24
lyn 24
mens@@ 24
meta 24
mol 24
movie 24
ning 24
ograd 24
oid 24
okie 24
olet 24
online 24
orta 24
oupe 24
oux 24
palest@@ 24
parach@@ 24
parad@@ 24
phr@@ 24
raf 24
rhythm 24
rini 24
sing 24
stadium 24
stan@@ 24
sten 24
suk@@ 24
suy@@ 24
sz@@ 24
tee 24
tiz@@ 24
tros 24
uh 24
unds 24
urg 24
wers 24
yel@@ 24
yoga 24
Å@@ 24
öl@@ 24
ğ@@ 24
β@@ 24
ܘ@@ 24
‏ 24
1101 23
1110 23
1245 23
1280 23
1305 23
1309 23
1310 23
1330 23
1430 23
1501 23
1512 23
1515 23
1522 23
1524 23
1549 23
1720 23
1741 23
1767 23
1796 23
194@@ 23
3.6 23
34.@@ 23
47.@@ 23
489 23
522 23
544 23
556 23
571 23
575 23
594 23
655 23
662 23
674 23
699 23
725 23
729 23
734 23
735 23
749 23
758 23
759 23
763 23
80,@@ 23
804 23
814 23
828 23
829 23
84@@ 23
852 23
859 23
867 23
890 23
925 23
933 23
ACC 23
AJ 23
Actress 23
After 23
Ahr@@ 23
Ain@@ 23
Aleksand@@ 23
Amanda 23
Andre@@ 23
Apr@@ 23
Arj@@ 23
Ashley 23
Aub@@ 23
Auguste 23
Aval@@ 23
Avengers 23
BAS@@ 23
Bachelor 23
Baldwin 23
Barton 23
Bel 23
Bergamo 23
Bertha 23
Better 23
Bey@@ 23
Block 23
Bolu 23
Brabant 23
Break@@ 23
Brug@@ 23
Buff@@ 23
Cagliari 23
Cannes 23
Cat 23
Cay@@ 23
Century 23
Champion 23
Championships 23
Chester 23
Christian@@ 23
Christophe 23
Chung 23
Cis@@ 23
Civic 23
Clan 23
Clayton 23
Clive 23
Cloud 23
Clyde 23
Cow@@ 23
DE 23
Dale 23
Dana 23
Das@@ 23
Dat@@ 23
Dawn 23
Denver 23
Diane 23
Diyarbakır 23
Düsseldorf 23
EL 23
EM 23
ESCO 23
Easy 23
Elec@@ 23
Eman@@ 23
Emp@@ 23
Enter@@ 23
Eph@@ 23
Erzincan 23
Eyes 23
FF@@ 23
Factor 23
Fant@@ 23
Fen@@ 23
Fleming 23
Four@@ 23
Frederic 23
GE@@ 23
Gebr@@ 23
Gent@@ 23
Gif@@ 23
Gond@@ 23
Grenoble 23
Guadeloupe 23
Guill@@ 23
Gustaf 23
Gut@@ 23
HV@@ 23
Hale 23
Halle 23
Happy 23
Heidelberg 23
Hungary 23
Igor 23
Isle 23
Jamie 23
Job 23
Jr. 23
KN@@ 23
KP@@ 23
Kabul 23
Kamera 23
Kanye 23
Kars 23
Krak@@ 23
LE 23
Lab 23
Lamp@@ 23
Las@@ 23
Legend 23
Liechtenstein 23
List 23
MP 23
Marian 23
Mariano 23
Mathias 23
Mauro 23
Mend@@ 23
Mercedes 23
Miranda 23
Moun@@ 23
Multi@@ 23
Muğla 23
NG@@ 23
Nathaniel 23
Neville 23
Nij@@ 23
Nikolaus 23
Norr@@ 23
Oct@@ 23
Organisation 23
PCC 23
Peg@@ 23
Performance 23
Petrol@@ 23
Plymouth 23
Pog@@ 23
Potosí 23
Protec@@ 23
Qin 23
Rai 23
Ram 23
Recordings 23
Renato 23
Report 23
Rhône 23
Rodrigo 23
Roh@@ 23
Roland 23
Rush 23
SB 23
Sakarya 23
Savannah 23
Schi@@ 23
Serra 23
Serv@@ 23
Shr@@ 23
Silver 23
Some@@ 23
Soto 23
Spar@@ 23
Stand 23
Stefan 23
Stock 23
Stream 23
Sullivan 23
Swe@@ 23
Sylvester 23
Sylvia 23
Theory 23
Todd 23
Trich@@ 23
Triple 23
Try@@ 23
UCLA 23
Wade 23
Waterloo 23
Weber 23
Wendy 23
Whe@@ 23
Where 23
Wigan 23
Wild 23
Winter@@ 23
Work 23
Z. 23
ader 23
afat 23
affiti 23
amino@@ 23
ancy 23
andaoni 23
ands 23
anted 23
ardt 23
arum 23
arus 23
atayo 23
ation@@ 23
atorio 23
avan 23
awak 23
aï@@ 23
back@@ 23
bahn 23
balls 23
board 23
bog@@ 23
brom@@ 23
by@@ 23
chir@@ 23
cliffe 23
cone 23
deh 23
edra 23
egal 23
eit 23
elektr@@ 23
eley 23
ember@@ 23
enk@@ 23
erson 23
esc@@ 23
essing 23
eve 23
fact 23
fat 23
ffe 23
fini 23
gie 23
gii 23
gué 23
how 23
hya 23
ibus 23
iet 23
ifer@@ 23
immun@@ 23
infrar@@ 23
insky 23
jima 23
kas 23
lax@@ 23
lik 23
lob@@ 23
made 23
male 23
mawas@@ 23
mei 23
mko@@ 23
mouth 23
nea 23
ngo@@ 23
non@@ 23
nos 23
obus 23
oco 23
oglo@@ 23
orchestra 23
orian 23
otta 23
oul 23
petrol@@ 23
ph 23
press 23
quil@@ 23
records 23
ren 23
rier 23
roll 23
sang 23
ses@@ 23
shu 23
sion@@ 23
sitcom 23
squ@@ 23
style 23
sung 23
than 23
thera 23
tle 23
topo@@ 23
toria 23
uer@@ 23
unes 23
urai 23
veri 23
vern@@ 23
vis 23
wave 23
wis@@ 23
xe 23
xico 23
xx 23
yem 23
å 23
ères 23
édi@@ 23
ò@@ 23
øn@@ 23
Č@@ 23
ʼ@@ 23
ν@@ 23
א 23
ק@@ 23
Ḥ@@ 23
″ 23
--@@ 22
1015 22
1213 22
1232 22
1244 22
1316 22
1431 22
1505 22
1523 22
1531 22
1533 22
1537 22
1565 22
1581 22
1592 22
1748 22
1772 22
2025 22
2200 22
3.8 22
437 22
5.4 22
5.6 22
574 22
577 22
588 22
596 22
659 22
66,@@ 22
691 22
714 22
716 22
724 22
726 22
738 22
745 22
755 22
764 22
769 22
771 22
785 22
789 22
799 22
803 22
817 22
846 22
854 22
884 22
946 22
965 22
976 22
AH 22
AW 22
Affairs 22
Agriculture 22
Albany 22
Alexandre 22
Andro@@ 22
Arras 22
Audrey 22
Auvergne 22
BM 22
BO 22
Barrett 22
Belgrade 22
Bloom@@ 22
Boliv@@ 22
Bord@@ 22
Bravo 22
Brisbane 22
Britney 22
Burns 22
Cecilia 22
Champ@@ 22
Champagne 22
Chin 22
Cho 22
Collection 22
Consult@@ 22
Cox 22
Crane 22
César 22
DS@@ 22
Dark 22
Dinamo 22
Domingo 22
Doug@@ 22
Dwight 22
ES 22
Edition 22
Eduard 22
Egypt 22
Eil@@ 22
Ein@@ 22
Elazığ 22
Elbe 22
Emilio 22
Encyclopedia 22
Epic 22
Esc@@ 22
Fai@@ 22
Fais@@ 22
Farrell 22
Feel 22
Flag 22
Form@@ 22
Frank@@ 22
Fried@@ 22
Fy@@ 22
GC 22
GE 22
Gag@@ 22
Gard@@ 22
Gay@@ 22
Genti@@ 22
Giuli@@ 22
Goth@@ 22
Gour@@ 22
Grammar 22
Gud@@ 22
Guerrero 22
Guevara 22
Göteborg 22
HSV 22
Harper 22
Hart@@ 22
Harvey 22
Hatay 22
Herak@@ 22
Hern@@ 22
Herschel 22
Hodg@@ 22
Holding 22
Hyderabad 22
Hyper@@ 22
Indies 22
Islam@@ 22
Jacob@@ 22
Jerem@@ 22
Jim@@ 22
Kall@@ 22
Kost@@ 22
Kyle 22
Kırşehir 22
LD 22
Lamborghini 22
Lola 22
Luís 22
Lynd@@ 22
MN 22
MU@@ 22
Made 22
Mail 22
Mall 22
Marianne 22
Martínez 22
Mel 22
Merkel 22
Merr@@ 22
Milwaukee 22
Moc@@ 22
Model 22
Msum@@ 22
Municipal 22
Native 22
Nico 22
Nie@@ 22
Niels 22
Olymp@@ 22
Online 22
Ono 22
PAC 22
PE 22
PHP 22
Palau 22
Palm@@ 22
Pearson 22
Phy@@ 22
Pie@@ 22
Pizarro 22
Plus 22
Prof. 22
Prosp@@ 22
Providence 22
Puebla 22
Pyrénées 22
Ramón 22
Rand 22
Raúl 22
Rise 22
Roy@@ 22
Rush@@ 22
SN 22
Sai@@ 22
Salem 22
Sato 22
Sciences 22
Security 22
Seh@@ 22
Split 22
Statistics 22
Steel 22
Sten@@ 22
Stevie 22
Stur@@ 22
Sym@@ 22
Tai@@ 22
Taj@@ 22
Takah@@ 22
Tarn 22
Technical 22
Tel 22
Temple 22
Tep@@ 22
Toh@@ 22
Toul@@ 22
Tree 22
UD 22
Uri@@ 22
Uttar 22
WO@@ 22
Webb 22
Wein@@ 22
Wembley 22
Whar@@ 22
Wid@@ 22
Winter 22
Wr@@ 22
XXX 22
Yuan 22
Yves 22
Zap@@ 22
Zir@@ 22
aard 22
aat 22
action 22
adh 22
ality 22
amina 22
amn@@ 22
amt 22
angol@@ 22
ansa 22
antal 22
antan@@ 22
aransa 22
are@@ 22
arge 22
arl@@ 22
asing 22
athers 22
atitis 22
atri@@ 22
atrix 22
awards 22
been 22
bright 22
cala 22
card 22
chan 22
chart 22
chem 22
cini 22
cir@@ 22
cot 22
cover 22
dete 22
disease 22
duc@@ 22
duo 22
ecas 22
ench@@ 22
enheim 22
ening 22
enska 22
epi@@ 22
ern 22
erus 22
es.@@ 22
evan 22
fat@@ 22
femin@@ 22
ficha 22
fou@@ 22
franchise 22
greg@@ 22
hon 22
idas 22
ieu 22
inos 22
itch 22
join@@ 22
kav@@ 22
khe@@ 22
kim 22
know 22
kot 22
ković 22
list 22
litur@@ 22
lon@@ 22
lows 22
lula 22
machine 22
medi 22
mings 22
mos 22
nada 22
obr@@ 22
occ@@ 22
olm 22
omi@@ 22
onio 22
oras 22
pard 22
pic@@ 22
pod@@ 22
post 22
pou@@ 22
priori 22
rim 22
rus 22
ré@@ 22
sahi@@ 22
sam 22
self 22
sell 22
sesi 22
set@@ 22
seus 22
soap 22
sor@@ 22
state 22
stro@@ 22
t. 22
tered 22
they 22
tian 22
tio 22
title 22
tonshire 22
under@@ 22
uy 22
vak@@ 22
ven 22
version 22
yar 22
yev 22
zin 22
zir@@ 22
Ø@@ 22
éré@@ 22
ü 22
ɑ@@ 22
յ@@ 22
一 22
夫 22
川 22
1160 21
1179 21
1209 21
1223 21
1484 21
1490 21
1525 21
1529 21
1546 21
1552 21
1556 21
1563 21
1596 21
1599 21
1601 21
1608 21
1624 21
1627 21
1649 21
1655 21
1721 21
1764 21
1782 21
189@@ 21
3200 21
459 21
473 21
494 21
497 21
5.7 21
562 21
576 21
579 21
593 21
5G 21
658 21
665 21
667 21
684 21
688 21
689 21
69,@@ 21
692 21
697 21
706 21
744 21
748 21
772 21
778 21
801 21
808 21
813 21
827 21
838 21
839 21
847 21
858 21
862 21
874 21
882 21
908 21
914 21
926 21
939 21
948 21
949 21
957 21
971 21
99.@@ 21
AL 21
ASA 21
Acacia 21
Ad 21
Adolfo 21
Ami@@ 21
Antar@@ 21
Aq@@ 21
Arach@@ 21
Arlington 21
Arm@@ 21
Associated 21
Augusta 21
Axel 21
BS@@ 21
Bari 21
Baron 21
Beb@@ 21
Beh@@ 21
Benedic@@ 21
Bernad@@ 21
Bit 21
Brag@@ 21
Braga 21
Bride 21
Bright 21
Buchanan 21
Bunny 21
CL 21
Cah@@ 21
Cali@@ 21
Cam 21
Capit@@ 21
Capr@@ 21
Card@@ 21
Care 21
Carmen 21
Chas@@ 21
Churchill 21
Cla@@ 21
Code 21
Compostela 21
Conservative 21
Cooke 21
Dante 21
Dash@@ 21
Donn@@ 21
Dover 21
Eagle 21
Edi@@ 21
Elton 21
Erica 21
Everett 21
Examin@@ 21
Exeter 21
Far 21
Fi 21
Garrett 21
Gaziantep 21
Germania 21
Gill@@ 21
Give 21
Golf 21
Gonzaga 21
Goodman 21
Greg@@ 21
Guadalupe 21
Guar@@ 21
HO@@ 21
Hague 21
Hare 21
Hath@@ 21
Heart@@ 21
Hilda 21
Hod@@ 21
Holmes 21
ISS 21
Ida 21
Ign@@ 21
Io@@ 21
Italian 21
Jet 21
Jin 21
Jov@@ 21
Kaliningrad 21
Kendall 21
Kla@@ 21
Late 21
Lle@@ 21
Loh@@ 21
MBA 21
MK 21
MK@@ 21
MX 21
Making 21
Marilyn 21
Marx@@ 21
Mata 21
McC@@ 21
Medina 21
Meer 21
Meiji 21
Mell@@ 21
Mendes 21
Mer 21
Mersin 21
Messier 21
Midd@@ 21
Middlesex 21
Mission@@ 21
Mother 21
Motors 21
Myers 21
NB 21
NC 21
NEC 21
NXT 21
Netherlands 21
Ninh 21
Nino 21
Nuevo 21
Oaxaca 21
October 21
Olom@@ 21
Oriental 21
Orthodox 21
PN 21
PP 21
Param@@ 21
Paz@@ 21
Percy 21
Petro@@ 21
Philipp 21
Pho@@ 21
Pist@@ 21
Pras@@ 21
Principe 21
Produc@@ 21
Qing@@ 21
Rain@@ 21
Rize 21
Room 21
SUV 21
Sainte 21
Sandy 21
Schmidt 21
Schwe@@ 21
Script 21
Shannon 21
Ship@@ 21
Somerset 21
Spring@@ 21
Ston@@ 21
TY 21
Tamil 21
Tampa 21
Tata 21
Te 21
Techn@@ 21
Teng@@ 21
Territ@@ 21
Thanh 21
Tiger 21
Touch 21
Trig@@ 21
Tulsa 21
Underground 21
Valladolid 21
Volkswagen 21
Wellington 21
Wur@@ 21
XL 21
Xia@@ 21
Yoshi@@ 21
Zed@@ 21
Zhou 21
abat@@ 21
abri@@ 21
ading 21
alt 21
amaduni 21
andal 21
app 21
arium 21
arti@@ 21
athon 21
atoria 21
atory 21
aumini 21
ause 21
bul 21
burgh 21
cal 21
chrom@@ 21
cons@@ 21
cri@@ 21
debe 21
det@@ 21
dina 21
dun@@ 21
dura 21
edes 21
eleg@@ 21
elo@@ 21
emann 21
engu@@ 21
enig@@ 21
enso 21
enus 21
erer 21
ezani 21
fik 21
fina 21
free 21
game 21
gamma 21
gata 21
geny 21
grey 21
halde 21
hero 21
high@@ 21
ifera 21
igner 21
illian 21
ils 21
international 21
iriki@@ 21
iscus 21
istem@@ 21
iston 21
iv 21
jamb@@ 21
jang@@ 21
jav@@ 21
jen 21
jung@@ 21
ladi@@ 21
lap 21
lave 21
lem 21
lfriend 21
light 21
ls 21
lug 21
math@@ 21
medi@@ 21
mgu@@ 21
mixtape 21
muhafaza 21
nag@@ 21
naz@@ 21
o- 21
ols 21
onic 21
oning 21
oo@@ 21
opidae 21
org 21
orn@@ 21
oue 21
ously 21
ovia 21
oyama 21
pach@@ 21
pedi@@ 21
phy 21
pium 21
prof@@ 21
pé 21
reb 21
rian 21
scher@@ 21
sef 21
skii 21
tain 21
tau@@ 21
television 21
tenburg 21
thus 21
tif 21
ting@@ 21
tori@@ 21
té 21
udo 21
ulf 21
ulin 21
ult@@ 21
ulum 21
ures 21
urn 21
ustr@@ 21
uten@@ 21
uts 21
vas@@ 21
vere 21
vie 21
weight 21
xley 21
yad 21
yekiti 21
yeni 21
yx 21
zar 21
zek 21
½ 21
Çankırı 21
æ 21
Şanlıurfa 21
γ@@ 21
ρ@@ 21
ւ@@ 21
ג@@ 21
عبد 21
→ 21
井 21
山 21
村 21
松@@ 21
002 20
1.0@@ 20
1001 20
1035 20
1060 20
1150 20
1202 20
1241 20
1257 20
1320 20
1538 20
1539 20
1542 20
1545 20
1566 20
1567 20
1593 20
1612 20
1616 20
1621 20
1633 20
1679 20
1717 20
1728 20
1758 20
1769 20
1773 20
2050 20
32@@ 20
4.1 20
4.7 20
474 20
48,@@ 20
481 20
5.1 20
5.8 20
58.@@ 20
581 20
584 20
6.2 20
637 20
663 20
683 20
753 20
767 20
77,@@ 20
773 20
793 20
80.@@ 20
805 20
841 20
845 20
849 20
868 20
872 20
885 20
891 20
912 20
938 20
941 20
968 20
977 20
979 20
984 20
985 20
Adult 20
Agen@@ 20
Aig@@ 20
Akbar 20
Alien 20
Alvar@@ 20
Amasya 20
Amour 20
Anim@@ 20
Another 20
António 20
Archibald 20
Art@@ 20
Atkinson 20
Att@@ 20
August@@ 20
Avell@@ 20
BOL 20
Because 20
Beethoven 20
Bern 20
Bernardino 20
Bir 20
Björ@@ 20
Blanc 20
Boca 20
Bolsh@@ 20
Brach@@ 20
Brittany 20
Brooke 20
Bình 20
Campo 20
Canadian 20
Cand@@ 20
Carnegie 20
Carval@@ 20
Chance 20
Chom@@ 20
Chor@@ 20
Christie 20
Chuck 20
Communications 20
Cortes 20
Count 20
Creative 20
Cuando 20
Cypri@@ 20
Dai 20
Damon 20
Danube 20
Danzig 20
Deborah 20
Deg@@ 20
Dom 20
Donna 20
EF@@ 20
EN 20
Ear@@ 20
Eastwood 20
Edirne 20
Eis@@ 20
Eri@@ 20
Fey@@ 20
Fidel@@ 20
Fif@@ 20
Film@@ 20
Finance 20
Flu@@ 20
Fot@@ 20
Fowler 20
Fuz@@ 20
Garfield 20
Goldberg 20
Gow@@ 20
Grands 20
Grove 20
Guanaj@@ 20
Guide 20
Guild 20
HD 20
Hack@@ 20
Hahn 20
Hand 20
Hands 20
Hans@@ 20
Hati@@ 20
Hit 20
Horace 20
Horst 20
Hunt@@ 20
IE@@ 20
Imp@@ 20
Inf@@ 20
Iron@@ 20
Jazz@@ 20
Jens 20
Jes@@ 20
July 20
June 20
Kahramanmaraş 20
Kane 20
Kazan 20
Ked@@ 20
Kerry 20
Kes@@ 20
Khali@@ 20
Kung 20
Kuy@@ 20
Kö@@ 20
Language 20
Lew@@ 20
Liège 20
Lof@@ 20
Maastricht 20
Manning 20
Mardin 20
Marta 20
Marvin 20
Mechan@@ 20
Mobile 20
Mund@@ 20
NK 20
Naples 20
Newport 20
Nguyễn 20
Nueva 20
OC 20
Orion 20
Oro@@ 20
Osiris 20
PRO@@ 20
Pah@@ 20
Paper 20
Pavel 20
Penn@@ 20
Pis@@ 20
Planet 20
Plaza 20
Presbyterian 20
Private 20
Proj@@ 20
Pyr@@ 20
Quang 20
Ramos 20
Ranch 20
Rhin@@ 20
Rik@@ 20
Rit@@ 20
Rocha 20
Rok@@ 20
Rost@@ 20
Rostov 20
Rox@@ 20
Saddam 20
Sang 20
Saturn 20
Se 20
Second@@ 20
Sekond@@ 20
Shawn 20
Shire 20
Sinf@@ 20
Sinop 20
Smithsonian 20
Solo 20
Sph@@ 20
Stay 20
Stock@@ 20
Stri@@ 20
Su 20
Suzanne 20
Switzerland 20
TE 20
Taus@@ 20
These 20
Timberlake 20
Tiy@@ 20
Tomas@@ 20
Truman 20
Turbo 20
Ubuntu 20
Vag@@ 20
Vega 20
WCW 20
WW@@ 20
Walk 20
Wat 20
Wed@@ 20
Weekend 20
Wells 20
Wien 20
Wong 20
Wy@@ 20
Wyoming 20
Yes@@ 20
Yok@@ 20
Yuc@@ 20
\ 20
abb@@ 20
aber 20
abis 20
acea 20
acia 20
acid 20
adar 20
aghan 20
ahl@@ 20
aira 20
akr@@ 20
ament@@ 20
anese 20
anun@@ 20
apan 20
apur 20
apy 20
arif 20
asser 20
aster 20
atibabu 20
ational 20
ato@@ 20
award 20
ayak@@ 20
ayor 20
azan 20
beats 20
berger 20
berry 20
bol 20
car 20
chio 20
dat 20
dicho 20
dige 20
disco 20
dollar 20
dor 20
ead 20
ecker 20
edy 20
einer 20
elen 20
eler 20
enci@@ 20
enf@@ 20
ennes 20
eno@@ 20
ense@@ 20
eny 20
ept@@ 20
equ@@ 20
eral 20
erumani 20
esch@@ 20
etary 20
etes 20
eur@@ 20
ezer 20
football 20
gaz@@ 20
gran@@ 20
hag@@ 20
halif@@ 20
heit 20
hoven 20
hyper@@ 20
icon 20
idal 20
iformes 20
igne 20
ild 20
iller 20
indio 20
ingu@@ 20
irat@@ 20
isten 20
itaria 20
ives 20
iyi 20
jag@@ 20
jesu@@ 20
judo 20
kley 20
km@@ 20
kupa 20
kuze@@ 20
lati@@ 20
leuk@@ 20
ming 20
mir 20
mono@@ 20
mua 20
muz@@ 20
nica 20
nific@@ 20
ochem@@ 20
ochet 20
ods 20
ofauti@@ 20
ogen 20
olle 20
onian 20
onius 20
onte 20
oples 20
orno 20
oros 20
oscop@@ 20
otoni 20
page 20
palli@@ 20
pec@@ 20
piz@@ 20
rax 20
rique 20
rou 20
rov@@ 20
sad@@ 20
sec@@ 20
seh 20
server 20
sez@@ 20
sher@@ 20
sir 20
smith 20
stars 20
sul 20
tando 20
tat@@ 20
tec 20
test 20
them 20
tilla 20
trea 20
uato 20
ubi@@ 20
urst 20
utt@@ 20
vek@@ 20
vel 20
vers@@ 20
vette 20
vor@@ 20
women 20
zem@@ 20
ın@@ 20
ş 20
š 20
Ž@@ 20
ʉ@@ 20
ία 20
ον 20
ρος 20
Ա@@ 20
տ@@ 20
Ἰ@@ 20
三 20
小@@ 20
雄 20
高@@ 20
1020 19
1095 19
1111 19
1217 19
1254 19
1350 19
1409 19
1410 19
1447 19
1497 19
1503 19
1506 19
1510 19
1511 19
1513 19
1568 19
1613 19
1623 19
1629 19
1643 19
1671 19
1676 19
1689 19
1713 19
1725 19
1729 19
1732 19
1736 19
1744 19
1768 19
1781 19
250@@ 19
4.0 19
42,@@ 19
44.@@ 19
48.@@ 19
566 19
567 19
7.2 19
731 19
742 19
7500 19
761 19
777 19
784 19
791 19
794 19
812 19
819 19
836 19
837 19
844 19
853 19
876 19
883 19
9. 19
905 19
932 19
936 19
937 19
951 19
952 19
963 19
964 19
966 19
983 19
99,@@ 19
A.C. 19
ATV 19
AY 19
Advanced 19
Adıyaman 19
Agath@@ 19
Aim@@ 19
Alexis 19
Alicia 19
Alphonse 19
Amazing 19
Amo@@ 19
Anders 19
Andrés 19
Angers 19
Aph@@ 19
Arrow 19
Arti@@ 19
Asp@@ 19
Atac@@ 19
Atari 19
Aten@@ 19
Atlantis 19
Aurora 19
Avignon 19
BAFTA 19
BI@@ 19
BV 19
Ban 19
Barnes 19
Basra 19
Baxter 19
Beauty 19
Benjam@@ 19
Bever@@ 19
Bilecik 19
Bingöl 19
Blood@@ 19
Bo 19
Booker 19
Bosch 19
Bot 19
Bourgogne 19
Bow 19
Bowl 19
Branch 19
Bras@@ 19
Brendan 19
Buffy 19
Bull 19
Bund@@ 19
Bus 19
Calais 19
Caldwell 19
Candy 19
Carac@@ 19
Cathedral 19
Cherry 19
Chihuahua 19
Chun@@ 19
Citizen 19
Class 19
Claudius 19
Cod@@ 19
Crist@@ 19
Cristiano 19
Cross@@ 19
Cruise 19
DR@@ 19
Dead@@ 19
Deep 19
Dell 19
Deme@@ 19
Des 19
Devon 19
Dill@@ 19
Drum 19
ET@@ 19
Edison 19
Edmon@@ 19
Emerson 19
Emil@@ 19
Emile 19
Enterprise 19
Erasmus 19
Eredivisie 19
Erwin 19
FL 19
Fan 19
Fav@@ 19
February 19
Fed@@ 19
Frédéric 19
GS 19
Gardner 19
Giang 19
Gim@@ 19
Glo@@ 19
Glob@@ 19
Gottfried 19
Greek 19
Greene 19
Groningen 19
Guido 19
Hanna 19
Harald 19
Henrik 19
Hilde@@ 19
Human@@ 19
Hyde 19
Hydr@@ 19
IM 19
IPA 19
IU 19
IV@@ 19
Incre@@ 19
Independence 19
Inn 19
Italy 19
JP 19
Jaf@@ 19
Jakarta 19
Jud@@ 19
Judo 19
Junction 19
Jut@@ 19
Kans@@ 19
Kapit@@ 19
Key 19
Keys 19
Kolkata 19
LB 19
Lancashire 19
Lay 19
Leningrad 19
Library 19
Lincolnshire 19
Lions 19
Local 19
Lonely 19
Lu 19
MCA 19
MN@@ 19
Marburg 19
Marcell@@ 19
Marcelo 19
Marcos 19
Marine 19
McCartney 19
Merry 19
Mill 19
Mina 19
Mind 19
Ming@@ 19
Mining 19
Mons 19
Mukh@@ 19
Mä@@ 19
Nagoya 19
Natalia 19
Nate 19
Newspap@@ 19
Nid@@ 19
Nintendo 19
Nir@@ 19
Noy@@ 19
Nu 19
Nug@@ 19
O2 19
Oise 19
Ole@@ 19
Olivier 19
Ork@@ 19
PAR@@ 19
PK 19
PT@@ 19
Page 19
Paw@@ 19
Pioneer 19
Plains 19
Platy@@ 19
Portal 19
Potter 19
Preston 19
Pretty 19
Proc@@ 19
Pérez 19
Quir@@ 19
Raz@@ 19
Rek@@ 19
Rennes 19
Rie@@ 19
Rollins 19
Romeo 19
Sach@@ 19
Sally 19
Salt 19
Salvatore 19
Samantha 19
Sami 19
Saray@@ 19
Saul 19
Send@@ 19
Sharp 19
Silla 19
Sint 19
Sion 19
Sirius 19
Smart 19
Soh@@ 19
Soria 19
Spin@@ 19
Sputnik 19
Stan 19
Stein 19
Sue 19
Superior 19
Survivor 19
Swift 19
Systems 19
Ta 19
Tan 19
Teddy 19
Thor 19
Tomas 19
Total 19
Train 19
Trieste 19
Turing 19
Tyr@@ 19
UC 19
UL@@ 19
Un 19
Ursula 19
VH1 19
Vesp@@ 19
VfB 19
Vigo 19
Villarreal 19
Vinci 19
Vist@@ 19
Wan 19
Warwick 19
Werder 19
Word 19
Words 19
Yer 19
Zhao 19
Zhu 19
abei 19
ables 19
about 19
abra 19
aca@@ 19
acat@@ 19
act 19
afro 19
agre@@ 19
ains 19
ajan 19
alab@@ 19
alc@@ 19
amur@@ 19
apple 19
arie 19
ashtra 19
asus 19
atti 19
autom@@ 19
av 19
ayr@@ 19
azz 19
bage 19
bauer 19
bed@@ 19
bili@@ 19
bourne 19
cab@@ 19
cant@@ 19
cardo 19
chia 19
club 19
cola 19
cream 19
dam 19
dance 19
dek@@ 19
ders@@ 19
dum 19
dus 19
dès 19
ebus 19
eci 19
ector 19
edon 19
education 19
erre 19
estyle 19
etic 19
fera 19
fino 19
fred 19
fusion 19
gambo 19
gate 19
gau 19
geo 19
glu@@ 19
hang 19
hard@@ 19
hes@@ 19
hung 19
hé@@ 19
ibl@@ 19
icon@@ 19
ict 19
ifi 19
ilg@@ 19
indica 19
initi@@ 19
iste 19
iyet 19
jak 19
jk 19
kW 19
kman 19
köy 19
lieu 19
lines 19
lion 19
loe 19
lop@@ 19
luc@@ 19
mani@@ 19
mey@@ 19
mic 19
mie 19
mph 19
mt 19
mund 19
nen 19
ners 19
oca 19
ocy@@ 19
ograf@@ 19
ograph@@ 19
ographic 19
oker 19
oking 19
olithic 19
oly@@ 19
ondr@@ 19
onen@@ 19
onis 19
opp@@ 19
oration 19
osaur@@ 19
oslav 19
oss 19
oste@@ 19
oun@@ 19
owezi 19
owitz 19
pay@@ 19
ped@@ 19
pent@@ 19
person 19
phu 19
pit@@ 19
pm 19
pool 19
rab@@ 19
rett 19
ridge 19
ries 19
rol 19
rpm 19
rug@@ 19
saxoph@@ 19
shan 19
sive 19
sko@@ 19
som 19
sous 19
sville 19
tem 19
thab@@ 19
therap@@ 19
thin 19
tical 19
timo 19
tism 19
ual@@ 19
ubr@@ 19
uel 19
ulan 19
ular 19
ump 19
utes 19
vania 19
vet@@ 19
wey 19
wiz@@ 19
won@@ 19
xy 19
yal 19
ycl@@ 19
years 19
Év@@ 19
Öz@@ 19
ás 19
équ@@ 19
ör@@ 19
Đồng 19
ė 19
šić 19
ż@@ 19
ɨ@@ 19
α@@ 19
ε@@ 19
ז@@ 19
ס@@ 19
رَ@@ 19
አ@@ 19
三@@ 19
和@@ 19
0.0@@ 18
1185 18
1201 18
1204 18
1212 18
1228 18
13.5 18
1301 18
1308 18
1325 18
1370 18
1405 18
1406 18
1417 18
1419 18
1425 18
1480 18
1494 18
1502 18
1527 18
1554 18
1558 18
1571 18
1578 18
1585 18
1586 18
1589 18
1606 18
1617 18
1631 18
1645 18
1651 18
1722 18
1726 18
1778 18
1786 18
1788 18
21@@ 18
2300 18
2600 18
3.0@@ 18
441 18
471 18
57.@@ 18
59,@@ 18
6.7 18
6.8 18
694 18
7. 18
733 18
757 18
766 18
781 18
783 18
833 18
848 18
857 18
875 18
894 18
904 18
944 18
967 18
973 18
996 18
ACE 18
Abel@@ 18
Afrik@@ 18
Akadem@@ 18
Alves 18
Alzheimer 18
Amnesty 18
Andrade 18
Apart 18
Api@@ 18
Arsen@@ 18
Assemb@@ 18
Aster@@ 18
Audi@@ 18
Auschwitz 18
Aviv 18
Ağrı 18
Basse 18
Bauhaus 18
Bav@@ 18
Bayburt 18
Beck@@ 18
Belar@@ 18
Bertrand 18
Bible 18
Bitlis 18
Bloom 18
Bombay 18
Boug@@ 18
Brook@@ 18
Buck 18
Bulls 18
CON@@ 18
Caj@@ 18
Cal 18
Canton 18
Cast@@ 18
Cerro 18
Cet@@ 18
Chall@@ 18
Charl@@ 18
Charlton 18
Chat@@ 18
Chrom@@ 18
Chur@@ 18
Clube 18
Common 18
Coventry 18
DI@@ 18
Dau@@ 18
Der 18
Diam@@ 18
Dick@@ 18
Dictionary 18
Dijon 18
Dominique 18
Dra@@ 18
Durham 18
Dynam@@ 18
Egyptian 18
Eliot 18
Elsa 18
Em 18
Enrico 18
Eras@@ 18
Factory 18
Faw@@ 18
Ferrara 18
Fest@@ 18
Films 18
Fug@@ 18
Gaius 18
Galli@@ 18
Gog@@ 18
González 18
Griffith 18
Gug@@ 18
Gus@@ 18
Gérard 18
HT 18
HT@@ 18
Ha 18
Harmony 18
Hearts 18
Helmut 18
Hendrik 18
Henn@@ 18
Hoffman 18
Holly 18
Hous@@ 18
Hui 18
IEEE 18
IO@@ 18
ION 18
ISA 18
Impact 18
Irish 18
Isabella 18
Jans@@ 18
Jean@@ 18
Jenny 18
Jug@@ 18
Karabük 18
Kies@@ 18
Kırık@@ 18
Lara 18
Lazar@@ 18
Liberal 18
Lilly 18
MR@@ 18
Magdal@@ 18
Mallorca 18
Mansur 18
March@@ 18
Marl@@ 18
Medvedev 18
Mein@@ 18
Melo 18
Mercur@@ 18
Meta 18
Mikro@@ 18
Miracle 18
Monterrey 18
NR@@ 18
Nara 18
Norris 18
Norton 18
Notre 18
Nuremberg 18
Occidental 18
Olympia 18
Osk@@ 18
Padre 18
Pamp@@ 18
Pas 18
Paseo 18
Phili@@ 18
Picture 18
Ping@@ 18
Plate 18
Pose@@ 18
Primetime 18
Prud@@ 18
Príncipe 18
Pupp@@ 18
Que@@ 18
Ques@@ 18
RCA 18
RF@@ 18
Rana 18
Randall 18
Rati@@ 18
Regional 18
Rep@@ 18
Roses 18
Rover 18
Rudolph 18
Rur@@ 18
Salm@@ 18
Search 18
Sergei 18
Seychelles 18
Shiva 18
Show@@ 18
Sigma 18
Singapur 18
Sist@@ 18
Sociedad 18
Souza 18
Spor@@ 18
Stav@@ 18
Steam 18
Storm 18
Sund@@ 18
Sunderland 18
Table 18
Takahashi 18
Tamara 18
Tekirdağ 18
Termin@@ 18
Terre 18
Thal@@ 18
Theater 18
Their 18
Theo 18
Tis@@ 18
Titanic 18
Tok 18
Tru@@ 18
UE 18
UF@@ 18
Uppsala 18
VP 18
VR 18
Ville 18
WH@@ 18
Weg@@ 18
Wide 18
Williamson 18
Winnipeg 18
Yab@@ 18
Yoga 18
Yucatán 18
Yukon 18
Zone 18
aday 18
adin 18
aeg@@ 18
aeus 18
aft 18
agas 18
ainville 18
akta 18
alba 18
alin 18
alists 18
alk@@ 18
allas 18
alli 18
ampli@@ 18
anny 18
arta 18
ason 18
asons 18
ativa 18
aub@@ 18
aving 18
bachelor 18
baum 18
bey@@ 18
biji 18
bli 18
box 18
butter@@ 18
c. 18
capit@@ 18
cav@@ 18
cham@@ 18
cle 18
cou@@ 18
def@@ 18
deng@@ 18
dere 18
deu@@ 18
dica 18
dil 18
dine 18
dison 18
doc@@ 18
dot@@ 18
dow@@ 18
dream 18
egan 18
eiro 18
elin 18
elis 18
ematic 18
emie 18
enzi@@ 18
epith@@ 18
epo@@ 18
eston 18
etz 18
eñ@@ 18
ffer 18
filo 18
finali 18
fire 18
flor@@ 18
foot 18
fro@@ 18
guila 18
hal 18
haus@@ 18
hisar 18
icity 18
igen 18
igen@@ 18
ikon@@ 18
ikos 18
imento 18
inh 18
inin 18
ios 18
isco 18
ishoni 18
islaus 18
itian 18
ities 18
iyet@@ 18
ization 18
jes 18
k. 18
kon 18
latter 18
lecht 18
lek@@ 18
lic@@ 18
lim 18
lès 18
mai 18
mans 18
manuel 18
may 18
mee 18
meni 18
mif@@ 18
monaki 18
nar 18
nee 18
nham 18
nig 18
noch 18
novi@@ 18
odiwa 18
oin 18
ois@@ 18
oles@@ 18
orth@@ 18
ote@@ 18
other 18
otia 18
otype 18
pac@@ 18
paras@@ 18
parti@@ 18
phil@@ 18
pios 18
pland 18
porus 18
pov 18
pp 18
print 18
prol@@ 18
public 18
quer@@ 18
rahman 18
rate 18
rod 18
rog@@ 18
rom 18
ruta 18
sat 18
sch 18
siti@@ 18
spp 18
sq 18
ss@@ 18
tabak@@ 18
tah 18
tam 18
teh@@ 18
tet 18
them@@ 18
tir 18
tium 18
trav@@ 18
tà 18
uch 18
uff 18
undinyota 18
usta@@ 18
vist 18
vus 18
white 18
yes@@ 18
yet 18
yevich 18
you@@ 18
zey 18
â 18
än@@ 18
ço 18
éc@@ 18
émati@@ 18
ño 18
ós 18
ün 18
īn 18
İ@@ 18
Ł@@ 18
Π@@ 18
ός 18
р@@ 18
ܪ@@ 18
佐@@ 18
岡@@ 18
正@@ 18
長@@ 18
.com. 17
0.000 17
1040 17
1099 17
1211 17
1224 17
1231 17
1239 17
124@@ 17
1337 17
1440 17
1514 17
1526 17
1564 17
1584 17
1602 17
1626 17
1652 17
1654 17
1669 17
1705 17
1707 17
1712 17
1715 17
1723 17
1742 17
1745 17
1746 17
1749 17
1779 17
3600 17
41,@@ 17
5.0 17
5.3 17
51,@@ 17
564 17
583 17
6. 17
6500 17
79,@@ 17
818 17
855 17
861 17
865 17
898 17
899 17
9.5 17
906 17
913 17
916 17
923 17
927 17
934 17
942 17
95,@@ 17
959 17
961 17
986 17
ABS 17
AI 17
AV 17
Agn@@ 17
Aksaray 17
Albrecht 17
Albums 17
Allianz 17
Alone 17
Amelia 17
Amor 17
Amur 17
Arc 17
Ardahan 17
Ares 17
Arno 17
Athena 17
Athletics 17
Autom@@ 17
Aviation 17
Azi@@ 17
B.A. 17
BP 17
Bach 17
Basic 17
Bedford 17
Belt 17
Berg 17
Bernie 17
Beyond 17
Bezirks@@ 17
Binh 17
Bio@@ 17
Borges 17
Bratislava 17
Brenn@@ 17
Byron 17
CII 17
CN 17
Cad@@ 17
Ceb@@ 17
Celebr@@ 17
Chronicle 17
Chu 17
Close 17
Coff@@ 17
Cole@@ 17
Colonel 17
Cord@@ 17
Cornelius 17
Cov@@ 17
Crawford 17
Cs 17
Daf@@ 17
Days 17
Diaz 17
Differ@@ 17
División 17
Doc@@ 17
Dog 17
Dome 17
Dos@@ 17
Doyle 17
Dresden 17
Dunn 17
Durango 17
Düzce 17
EPA 17
Earth@@ 17
Eden 17
Educational 17
Ehr@@ 17
Eisen@@ 17
Emmer@@ 17
Erik@@ 17
España 17
Eugène 17
Evan 17
Fairfield 17
Fast 17
Ferr@@ 17
Finn@@ 17
Fis@@ 17
Flash 17
Frederik 17
Fredri@@ 17
Fron@@ 17
Fuego 17
Garr@@ 17
Gay 17
Genoa 17
Gent 17
Gesellschaft 17
Giac@@ 17
Gian 17
Giulia 17
Gle@@ 17
Glen 17
Going 17
Gomes 17
Gomez 17
Gore 17
Grass 17
Griff@@ 17
HC 17
Hamid 17
Hannibal 17
Harding 17
His 17
Hist@@ 17
Honolulu 17
Horus 17
Hov@@ 17
Humphrey 17
Hz 17
IL 17
IST 17
IUCN 17
Ic@@ 17
Igu@@ 17
Industries 17
Ivy 17
JC 17
January 17
Jiang@@ 17
Juliet 17
KG 17
Kader 17
Khu@@ 17
Kill@@ 17
LGBT@@ 17
Laugh@@ 17
Laut 17
Leandro 17
Legacy 17
Lens 17
Lodge 17
Lowell 17
MM 17
Magdeburg 17
Mahmud 17
Mai@@ 17
Mani@@ 17
Marin 17
Martinez 17
Mas 17
McGill 17
McMahon 17
Meredith 17
Mickey 17
Middlesbrough 17
Millennium 17
Mini 17
Montec@@ 17
Montevideo 17
Mouse 17
Moyen 17
Mozambique 17
NE 17
Nai 17
Naur@@ 17
Neill 17
Neub@@ 17
Nha 17
Normandy 17
Nouvelle 17
OK 17
OT@@ 17
Observatory 17
Observer 17
Omega 17
Outstanding 17
PCR 17
Patagonia 17
Pear@@ 17
Pegasus 17
Petit 17
Piano 17
Pill@@ 17
Play@@ 17
Popo@@ 17
Poz@@ 17
Prec@@ 17
Program 17
Programme 17
Puma 17
Rac@@ 17
Raim@@ 17
Raja 17
Rath@@ 17
Reality 17
Regensburg 17
Reggio 17
Reichstag 17
René 17
Rex 17
Rising 17
Robbins 17
Rojo 17
Rosal@@ 17
Rossi 17
Royale 17
Rule 17
SF@@ 17
SM 17
Sai 17
Salazar 17
Salle 17
Sancho 17
Sand 17
Saskatchewan 17
Saône 17
Scorpi@@ 17
Self 17
Shan 17
Shep@@ 17
Sherman 17
Slo@@ 17
Smith@@ 17
Soviet 17
St.@@ 17
Stargate 17
Stark 17
Stories 17
Style 17
Swing 17
Tate 17
Tech@@ 17
Temp@@ 17
Think 17
Thornton 17
Through 17
Thunder 17
Tierra 17
Toshi@@ 17
Tunceli 17
Turn 17
Tuv@@ 17
USSR 17
VS 17
Vak@@ 17
Vale 17
Vila 17
Villiers 17
Vladi@@ 17
Voyager 17
WM 17
Welcome 17
Wend@@ 17
Weston 17
Wich@@ 17
Willi@@ 17
Wind 17
Wolverhampton 17
Worldwide 17
Worth 17
Writers 17
Xen@@ 17
Yahoo 17
Yat@@ 17
Yellow 17
Yol@@ 17
Zuc@@ 17
accalaur@@ 17
adian 17
adle 17
ael@@ 17
aes@@ 17
afuatayo 17
akers 17
akis 17
alar 17
alog@@ 17
alpha 17
amay@@ 17
ampi@@ 17
amy 17
anae 17
anche 17
angek@@ 17
anian 17
anton 17
aray 17
arb@@ 17
aron 17
atom 17
aty@@ 17
aur 17
ayed 17
ação 17
bacteria 17
bak 17
ballet 17
beli 17
ble@@ 17
boda 17
buri 17
camping 17
cara 17
cep@@ 17
chard 17
chus 17
cott 17
cross 17
cup 17
dent@@ 17
dif@@ 17
digo 17
district 17
doba 17
dock 17
dun 17
ease 17
eck@@ 17
eff@@ 17
ejer@@ 17
elip@@ 17
elot 17
elt 17
endale 17
ender@@ 17
erno 17
erst@@ 17
esk@@ 17
esp@@ 17
ext@@ 17
fail 17
fang@@ 17
fold 17
formed 17
française 17
freestyle 17
ged@@ 17
gos@@ 17
gra 17
hart 17
hei 17
heimer 17
hl@@ 17
hoff 17
ht 17
icidae 17
ideae 17
ihara 17
imar 17
imus 17
isher 17
issons 17
iter 17
iter@@ 17
kadi@@ 17
kol 17
kow@@ 17
lab 17
languages 17
late 17
liano 17
lic 17
lie@@ 17
ll@@ 17
mad 17
mary 17
mec@@ 17
mek 17
met 17
ml 17
nai 17
nen@@ 17
nye@@ 17
oci@@ 17
olar 17
olep@@ 17
ollo 17
omen@@ 17
onal 17
onder@@ 17
operation 17
oric 17
osh 17
ospor@@ 17
ovsk 17
parap@@ 17
pasa 17
pasta 17
pau@@ 17
pel 17
phon 17
phot@@ 17
pinyin 17
podcast 17
port@@ 17
ppa 17
ppo 17
protein@@ 17
pura 17
rea 17
refu@@ 17
rosse 17
rug 17
rum@@ 17
ryn 17
said 17
sberg 17
sbury 17
sekon@@ 17
sex 17
sey@@ 17
shore 17
sidi@@ 17
software 17
tae 17
tery 17
thesis 17
tida 17
tig 17
til 17
tly 17
trak@@ 17
tures 17
ufamilia 17
unit 17
united 17
uses 17
uss 17
violin 17
virus 17
wall 17
west 17
with@@ 17
worm 17
ww@@ 17
yra 17
yrus 17
Á@@ 17
ä 17
èle 17
éra 17
ɐ@@ 17
ʃ@@ 17
η 17
λογία 17
ο@@ 17
ω 17
і@@ 17
կ@@ 17
أَ@@ 17
ح@@ 17
ز@@ 17
و 17
ܕ@@ 17
ọ 17
ἰ@@ 17
川@@ 17
1024 16
1075 16
1140 16
1190 16
1198 16
1207 16
1214 16
1225 16
1248 16
1265 16
1279 16
1294 16
1311 16
1324 16
1378 16
1424 16
1433 16
1481 16
1493 16
1559 16
1575 16
1577 16
1611 16
1614 16
1615 16
1701 16
1727 16
1761 16
1771 16
1777 16
1784 16
187@@ 16
4. 16
568 16
6.3 16
631 16
7.1 16
7.3 16
8.4 16
802 16
825 16
831 16
834 16
856 16
866 16
871 16
878 16
879 16
888 16
918 16
922 16
924 16
947 16
954 16
956 16
958 16
981 16
997 16
998 16
A1 16
AH@@ 16
Ab 16
Abdur@@ 16
Abig@@ 16
Adidas 16
Advoc@@ 16
Aeg@@ 16
Aer@@ 16
Aix 16
Ala@@ 16
Alain 16
Alar@@ 16
Alive 16
Almat@@ 16
Alps 16
Als@@ 16
Alsace 16
Amor@@ 16
Andersen 16
Aquila 16
Aquitaine 16
Artem@@ 16
Arth@@ 16
Asim@@ 16
Aud@@ 16
BMG 16
BW@@ 16
Bail@@ 16
Barthol@@ 16
Bartın 16
Bear 16
Belfast 16
Believe 16
Bent@@ 16
Benton 16
Beth 16
Biden 16
Boyle 16
Brighton 16
Brown@@ 16
Building 16
CAT 16
Campe@@ 16
Canaria 16
Cancer 16
Che 16
Cheng@@ 16
Cities 16
Clarence 16
Claudia 16
Clem@@ 16
Clos@@ 16
Coco 16
Colony 16
Communication 16
Competition 16
Condé 16
Constitu@@ 16
Corpus 16
Crime 16
Dam 16
Damas 16
Dard@@ 16
Dayton 16
Deh@@ 16
Deportivo 16
Det@@ 16
Dinh 16
Dollar 16
Dumas 16
ED 16
Early 16
Eccl@@ 16
Edit@@ 16
Edmond 16
Electronics 16
Engel@@ 16
Episcopal 16
Ern@@ 16
Escape 16
Esk@@ 16
Etienne 16
Eum@@ 16
Euph@@ 16
FP 16
Fall@@ 16
Fantasy 16
Fell@@ 16
Fiesta 16
Financial 16
Firefox 16
Frankie 16
Freddie 16
Freddy 16
Freder@@ 16
Fá@@ 16
Gabrielle 16
Gali@@ 16
Galway 16
Gav@@ 16
Gavin 16
Geographic 16
Giv@@ 16
Gong@@ 16
Grac@@ 16
Grand@@ 16
Grimm 16
Guillaume 16
HBO 16
HS 16
Hain@@ 16
Hal 16
Heb@@ 16
Hef@@ 16
Hercules 16
Here 16
Hoffmann 16
Horiz@@ 16
Humboldt 16
IJ@@ 16
IR 16
IW@@ 16
Imper@@ 16
Indo 16
Inh@@ 16
Inspector 16
Intel 16
Intelligence 16
Intercontinental 16
Ipswich 16
Itur@@ 16
Janu@@ 16
Journey 16
Jubil@@ 16
Jung@@ 16
Kalin@@ 16
Kara@@ 16
Karl@@ 16
Katz 16
Kend@@ 16
Kirby 16
Kirk@@ 16
Kit 16
Klar@@ 16
Kno@@ 16
Kristi@@ 16
Kuala 16
Lafayette 16
Laguna 16
Laurence 16
Leroy 16
Ley 16
Lombar@@ 16
Lublin 16
Lyc@@ 16
Lynx 16
Mabel 16
Magn@@ 16
Mal 16
Manitoba 16
Matsum@@ 16
Matthias 16
Mendoza 16
Met 16
Michoacán 16
Milo@@ 16
Minas 16
Mire@@ 16
Moll@@ 16
Moran 16
Mosk@@ 16
Mov@@ 16
Muc@@ 16
Muş 16
Málaga 16
Mö@@ 16
NAS@@ 16
NC@@ 16
Neu 16
Neur@@ 16
Nigerian 16
Nikki 16
Normand@@ 16
Nürnberg 16
OF 16
Olive 16
One@@ 16
Ordin@@ 16
Osi@@ 16
Osmaniye 16
PBS 16
PL 16
Panz@@ 16
Parkinson 16
Parti@@ 16
Payne 16
Pays 16
Peder@@ 16
Penn 16
Petersen 16
Pink 16
Pla@@ 16
Plut@@ 16
Pok@@ 16
Police 16
Pont@@ 16
Purple 16
Put@@ 16
Rai@@ 16
Rancho 16
Rau 16
Reginald 16
Reigns 16
Reilly 16
Return 16
Richter 16
Robertson 16
Rooney 16
Rum 16
SF 16
Sachsen 16
Sanskrit 16
Scan@@ 16
Schw@@ 16
Schwarzen@@ 16
Selena 16
Selim 16
Sieg@@ 16
Slav@@ 16
Sli@@ 16
Soc@@ 16
Software 16
Speed 16
Spek@@ 16
Sper@@ 16
Squ@@ 16
Stap@@ 16
Sterling 16
Stones 16
Studi@@ 16
Sultan@@ 16
Supreme 16
Sur 16
Swar@@ 16
Tales 16
Tall@@ 16
Ten 16
Thierry 16
Tif@@ 16
Till 16
Toc@@ 16
Tong 16
U. 16
USD 16
Universi@@ 16
Universities 16
Université 16
Uşak 16
VV@@ 16
Vac@@ 16
Version 16
Victory 16
Voc@@ 16
WC 16
Wars 16
Webster 16
Wey@@ 16
Whist@@ 16
Wic@@ 16
Willard 16
Wine 16
Yap@@ 16
Yun 16
Zion 16
Zit@@ 16
Zoe 16
Zoo 16
aband@@ 16
acer@@ 16
actus 16
adam 16
adiri 16
ager@@ 16
agos 16
alak@@ 16
alas 16
aller 16
aller@@ 16
ames 16
anet 16
angef@@ 16
anic 16
anism 16
aras 16
arro 16
ary@@ 16
asian 16
ateur 16
ather@@ 16
ators 16
ave@@ 16
avera 16
awn 16
ayashi 16
aïa 16
aş@@ 16
ballad 16
bella 16
big 16
bs@@ 16
chenko 16
chil@@ 16
chol@@ 16
chy 16
computer 16
coronavirus 16
cula 16
daf@@ 16
dat@@ 16
dion 16
egui 16
eku@@ 16
ellia 16
elling 16
elten 16
encia 16
endra 16
ental 16
epis@@ 16
erd@@ 16
etum 16
evedo 16
evento 16
ezya 16
fluor@@ 16
frame 16
gano 16
ging 16
hausen 16
heb@@ 16
ibar 16
idin 16
ifad@@ 16
illing 16
ineo 16
inist 16
inn 16
inom@@ 16
internet 16
isch@@ 16
ises 16
islav 16
ité 16
ival@@ 16
ivi 16
ić 16
jp@@ 16
keb@@ 16
ked 16
kem 16
kent 16
khan 16
kus 16
kut 16
kuts@@ 16
lav 16
lewood 16
list@@ 16
local 16
loway 16
magn@@ 16
mam 16
manus@@ 16
metaf@@ 16
mose 16
mst@@ 16
nah 16
national 16
nek@@ 16
nell 16
net@@ 16
network 16
ocer@@ 16
oid@@ 16
olin 16
onc@@ 16
ood 16
opolis 16
ort@@ 16
otis 16
pero 16
pick 16
por 16
ppi 16
pping 16
program@@ 16
pru@@ 16
que@@ 16
raj 16
ras 16
redo 16
reux 16
rid 16
rop 16
rou@@ 16
rum 16
sap@@ 16
sau@@ 16
sever@@ 16
shor@@ 16
sien 16
singles 16
sip@@ 16
some 16
spitze 16
station 16
table 16
tain@@ 16
tema 16
tn@@ 16
tric 16
ull 16
unter 16
unum 16
uris 16
utz@@ 16
value 16
vá@@ 16
ways 16
week 16
woman 16
wr@@ 16
xima 16
zburg 16
­ 16
Álvarez 16
äl@@ 16
ê 16
ì 16
ñ@@ 16
ów 16
ün@@ 16
ł 16
Ō@@ 16
π@@ 16
τος 16
ն@@ 16
بِ@@ 16
ܬ@@ 16
福@@ 16
.000 15
004 15
006 15
1025 15
1085 15
1115 15
1118 15
1139 15
1147 15
12.5 15
1218 15
1285 15
1290 15
1298 15
1307 15
1317 15
1323 15
1334 15
1348 15
1402 15
1412 15
1416 15
1456 15
1460 15
1470 15
1485 15
1548 15
1579 15
1587 15
1604 15
1634 15
1636 15
1639 15
1641 15
1656 15
1665 15
1666 15
1681 15
1696 15
1698 15
1703 15
1709 15
1737 15
1757 15
1759 15
185@@ 15
186@@ 15
192@@ 15
2800 15
2A 15
300@@ 15
4.6 15
488 15
5.9 15
53,@@ 15
6.1 15
6.6 15
6.9 15
65,@@ 15
736 15
8.7 15
863 15
864 15
877 15
881 15
915 15
955 15
98.@@ 15
987 15
APA 15
AV@@ 15
Aberdeen 15
Académie 15
Adon@@ 15
Aftermath 15
Alejandro 15
Alexand@@ 15
Alison 15
Alma 15
Alt 15
Amadeus 15
Amber 15
Anis@@ 15
Antoinette 15
Aquino 15
Aragon 15
Armag@@ 15
Armenian 15
Assy@@ 15
Ats@@ 15
Azur 15
Ballet 15
Bangalore 15
Barth 15
Basketball 15
Battle 15
Bean 15
Beatriz 15
Beaufort 15
Bened@@ 15
Benedikt 15
Bhag@@ 15
Bianca 15
Bieber 15
Bird@@ 15
Birds 15
Bourne 15
Buena 15
Burgos 15
Byzantine 15
C1 15
Camille 15
Campeonato 15
Canon 15
Car 15
Carlton 15
Carp@@ 15
Carri@@ 15
Carthage 15
Cephal@@ 15
Chartres 15
Chiang 15
Cig@@ 15
Cim@@ 15
Clair 15
Colombo 15
Comm@@ 15
Concert 15
Cong@@ 15
Conte 15
Crus@@ 15
Cultural 15
Cus@@ 15
Cél@@ 15
DOS 15
Dado 15
Dawson 15
Defence 15
Detective 15
Ding@@ 15
Dram@@ 15
Eben@@ 15
Eind@@ 15
Eleanor 15
Electronic 15
Elliot 15
Ent@@ 15
Erin 15
Eve 15
FOX 15
FR@@ 15
FRE@@ 15
Falk@@ 15
Farm 15
Feb@@ 15
Ferg@@ 15
Fernandez 15
Ferry 15
Fest 15
Final 15
Fog@@ 15
Forces 15
Formula 15
Free@@ 15
Gaga 15
Galaxy 15
Georgetown 15
Gly@@ 15
Grun@@ 15
Guerr@@ 15
Gun 15
Guzmán 15
Gümüşhane 15
HB 15
Haag 15
Half 15
Halifax 15
Hansen 15
Heavy 15
Heavyweight 15
Heg@@ 15
Hendrix 15
Hero 15
Hidalgo 15
Higgins 15
Himmler 15
Hoc@@ 15
Hokka@@ 15
Holiday 15
Hoover 15
IA@@ 15
IATA 15
Inde@@ 15
Ira@@ 15
Isla 15
Ital@@ 15
Jacksonville 15
Jade 15
Jae 15
Japanese 15
Jena 15
Jing@@ 15
Jobs 15
Jus@@ 15
Jú@@ 15
Kadi@@ 15
Kan 15
Kang 15
Karaman 15
Kat 15
Katal@@ 15
Kateg@@ 15
Katherine 15
Katie 15
Kitab@@ 15
Kov@@ 15
Koy@@ 15
Kyiv 15
Kırklareli 15
Lago 15
Lausanne 15
Leadership 15
Lean 15
Leiden 15
Leigh 15
Liberty 15
Limerick 15
Ltd. 15
Luisa 15
Lynch 15
MT 15
Macron 15
Mansfield 15
Marion 15
Mark@@ 15
Marlborough 15
Marsh@@ 15
Mec@@ 15
Mega 15
Method 15
Michelangelo 15
Michele 15
Midi 15
Midnight 15
Mow@@ 15
Ms 15
NHS 15
NY 15
Nadal 15
Nadu 15
Nationale 15
Nefer@@ 15
Nielsen 15
Nine 15
Ning@@ 15
Niğde 15
Now@@ 15
ON 15
Official 15
Olga 15
Ona 15
PD@@ 15
PET 15
PG 15
PT 15
Paramount 15
Paraná 15
Pari@@ 15
Perez 15
Person@@ 15
Philippines 15
Pier 15
Pine 15
Pitts@@ 15
Political 15
Power@@ 15
Prime 15
Progressive 15
Pros@@ 15
Pueblo 15
Qi@@ 15
Quar@@ 15
Quest 15
Quito 15
RFC 15
Renn@@ 15
Rim@@ 15
Rioja 15
Ronal@@ 15
Rufus 15
Rural 15
Ré@@ 15
Sacramento 15
Sammy 15
Scholar@@ 15
Score 15
Scrip@@ 15
Season 15
Set 15
Sex 15
Sez@@ 15
Silver@@ 15
Silvio 15
Slim 15
Sorbonne 15
Soyuz 15
Spanish 15
Spi@@ 15
Spielberg 15
Spit@@ 15
Stafford 15
Stol@@ 15
Suffolk 15
TO 15
Tati@@ 15
Tesla 15
Than 15
Than@@ 15
They 15
Thr@@ 15
Tor 15
Tourism 15
Towers 15
Tristan 15
Tuesday 15
Tyson 15
USS 15
Ultra 15
Universität 15
Uwe 15
VO@@ 15
Vand@@ 15
Vera 15
Verb@@ 15
Vic 15
Vilnius 15
Vu 15
Warr@@ 15
Wester@@ 15
Win 15
YO@@ 15
Yamag@@ 15
Yen 15
Zach 15
acher 15
aco@@ 15
adis 15
adona 15
agne@@ 15
aign 15
aint 15
anidae 15
anni 15
antic 15
apit@@ 15
apu@@ 15
argent 15
arine 15
arry 15
artist 15
atik 15
atur 15
autónoma 15
ball@@ 15
cano 15
cars 15
cerc@@ 15
cheon 15
chn@@ 15
cipi@@ 15
classical 15
desa 15
did@@ 15
dra 15
dri@@ 15
eco 15
edition 15
egio 15
eje 15
embr@@ 15
embri@@ 15
emer@@ 15
ences 15
enen 15
enger 15
entom@@ 15
ert@@ 15
estes 15
estri@@ 15
even 15
eves 15
family 15
fast 15
ferr@@ 15
fiadini 15
fie 15
fig@@ 15
fin 15
flu@@ 15
franco 15
fried 15
gama 15
graphy 15
hach@@ 15
haven 15
heart 15
here 15
hipot@@ 15
hora 15
hulisha 15
icide 15
iden@@ 15
ights 15
ihe 15
inal 15
inco 15
indis@@ 15
ingers 15
inosa 15
inson 15
ire@@ 15
irr@@ 15
irs 15
itig@@ 15
itta 15
ivo 15
jet 15
kai 15
kezi 15
khi@@ 15
kii 15
kis 15
kw 15
letian 15
lide 15
liga 15
lins 15
macul@@ 15
metro 15
mist@@ 15
mium 15
mosa 15
nab@@ 15
namb@@ 15
nano 15
neux 15
nic@@ 15
nie 15
nos@@ 15
nut 15
ofil@@ 15
oik@@ 15
ojiano 15
olus 15
omel@@ 15
oming 15
oms 15
only 15
open 15
operative 15
orin 15
ority 15
orium 15
ott@@ 15
ovna 15
part 15
peace 15
peline 15
pen 15
peninsula 15
phe 15
phth@@ 15
pid 15
pies 15
ply 15
polo 15
pot 15
publi@@ 15
qing 15
quez 15
raj@@ 15
rano 15
rich 15
rift 15
rii 15
rin@@ 15
rojo 15
science 15
screen 15
secondary 15
short 15
shō@@ 15
sm@@ 15
sol 15
sted 15
sten@@ 15
strong@@ 15
such@@ 15
sworth 15
tac@@ 15
teen 15
telenovela 15
tell 15
tent@@ 15
then@@ 15
through 15
ticul@@ 15
ticus 15
too 15
toral 15
tra@@ 15
tres 15
tron 15
type 15
ugen 15
uil 15
ukufu 15
ule@@ 15
ulidae 15
umewe 15
umul@@ 15
upon 15
vas 15
vid 15
vida 15
vik 15
vino 15
vius 15
wed@@ 15
ween 15
works 15
yatta 15
ystal 15
zih@@ 15
çal@@ 15
ð 15
ória 15
ù 15
θ@@ 15
ի 15
צ@@ 15
ان 15
د 15
دی 15
ه 15
ስ 15
ὁ 15
⁄ 15
↑ 15
也 15
原 15
口 15
司 15
島 15
森@@ 15
樹 15
治 15
直@@ 15
ﬁ@@ 15
10000 14
1016 14
1096 14
1143 14
1153 14
1205 14
1243 14
1252 14
1258 14
1272 14
1291 14
1297 14
1304 14
1314 14
1329 14
1360 14
1389 14
1390 14
1397 14
1403 14
1404 14
1413 14
1428 14
1458 14
1471 14
1473 14
1491 14
1509 14
1518 14
1543 14
1544 14
1551 14
1557 14
1562 14
1569 14
1574 14
1576 14
1658 14
1662 14
1668 14
1678 14
1682 14
1683 14
1685 14
1686 14
1704 14
1716 14
1724 14
1734 14
1747 14
1754 14
1766 14
179@@ 14
188@@ 14
1st 14
20th 14
4.9 14
43.@@ 14
5.2 14
52,@@ 14
7.6 14
8. 14
86,@@ 14
88,@@ 14
887 14
895 14
902 14
97,@@ 14
@ 14
A7 14
Acro@@ 14
Adal@@ 14
Adel 14
Adver@@ 14
Agricultural 14
Aid 14
Akr@@ 14
Albuquerque 14
Aleksandr 14
Alger 14
Allmusic 14
Ames 14
Anatom@@ 14
Andhra 14
Andrey 14
Anglican 14
Antigua 14
Antonius 14
Ask@@ 14
Assembly 14
Asy@@ 14
Atl@@ 14
B2 14
Bacon 14
Bastia 14
Beat@@ 14
Beck 14
Becker 14
Benedi@@ 14
Benny 14
Bernhard 14
Bihar 14
Bilbao 14
Bismar@@ 14
Blas@@ 14
Bochum 14
Bone 14
Boone 14
Boot 14
Boulogne 14
Box@@ 14
Boyer 14
Brandon 14
Brandt 14
Bres@@ 14
Broken 14
Bros 14
Bundes@@ 14
But 14
CBE 14
CM 14
Ca 14
Casa 14
Centr@@ 14
Chav@@ 14
Chol@@ 14
Classics 14
Clint 14
Cobb 14
Cog@@ 14
Concord 14
Cricket 14
Dancing 14
Defense 14
Dendro@@ 14
Devil 14
Dickinson 14
Dimitri 14
Disco@@ 14
Divine 14
Dixon 14
Doo 14
Dry 14
Dudley 14
[...]
