ya 1
. 1
na 1
, 0.8374056950022604
wa 1
katika 1
kwa 1
ni 1
&quot; 0.7976442304252885
) 1
( 1
la 1
za 1
mwaka 1
cha 1
kama 1
yake 1
@-@ 0.5059465842647367
kuwa 1
nchini 1
: 1
au 1
ku@@ 1
kutoka 1
kwenye 1
pia 1
lugha 1
zaidi 1
vya 1
watu 1
&#91; 1
&#93; 1
mji 1
wake 1
alikuwa 1
kati 1
; 1
Mto 1
M@@ 1
kwanza 1
mwa 1
Kwa 1
nchi 1
hii 1
Tanzania 1
pamoja 1
hadi 1
wakazi 1
miaka 1
Mwaka 1
m@@ 1
jina 1
&apos; 1
Afrika 1
wakati 1
U@@ 1
juu 1
Kenya 1
lakini 1
u@@ 1
ilikuwa 1
huko 1
hu@@ 1
moja 1
tarehe 1
Ki@@ 1
kata 1
ali@@ 1
mto 1
mara 1
hiyo 1
ndani 1
mnamo 1
kazi 1
ambayo 1
wali@@ 1
Bahari 1
i 1
idadi 1
ili 1
ak@@ 1
Mkoa 1
Katika 1
Kati 1
eneo 1
sana 1
Maji 1
sehemu 1
hatimaye 1
u 1
ani 1
ki@@ 1
nyingi 1
uli@@ 1
baada 1
mkoa 1
kwamba 1
yao 1
kubwa 1
o 1
iko 1
kundi 1
ik@@ 1
ili@@ 1
Marekani 1
Wilaya 1
N@@ 1
ambao 1
chini 1
K@@ 1
unapatikana 1
hasa 1
hivyo 1
Kusini 1
huo 1
tu 1
mkuu 1
am@@ 1
ana 1
ia 1
an@@ 1
yanaishia 1
kawaida 1
sensa 1
sababu 1
mbalimbali 1
Baada 1
aji 1
in@@ 1
- 1
um@@ 1
ut@@ 1
Uganda 1
wasemaji 1
huu 1
ina 1
namba 1
Mashariki 1
kaskazini 1
yenye 1
a@@ 1
wengi 1
wilaya 1
timu 1
kila 1
kaunti 1
w@@ 1
a 0.08289080839470332
1 0.8663655977022994
KK 1
vile 1
maji 1
alizaliwa 1
ika 1
un@@ 1
oni 1
2 0.9571130094244966
ini 1
bahari 1
kum@@ 1
ambaye 1
Kufuatana 1
k@@ 1
isha 1
wapatao 1
uainishaji 1
lake 1
Wakati 1
kabla 1
j@@ 1
Mungu 1
iliyofanyika 1
2012 1
Mnamo 1
siku 1
magharibi 1
yote 1
at@@ 1
/ 0.7475735914900347
Ali@@ 1
Kanisa 1
Kristo 1
wak@@ 1
we 1
kuna 1
inayozungumzwa 1
upande 1
Ni 1
karne 1
mbili 1
ambapo 1
Uingereza 1
kusini 1
hali 1
al@@ 1
as@@ 1
njia 1
T@@ 1
akiwa 1
muziki 1
imehesabiwa 1
im@@ 1
dhidi 1
Naili 1
p@@ 1
tena 1
W@@ 1
ajili 1
I@@ 1
karibu 1
aina 1
aa 1
kus@@ 1
Kik@@ 1
us@@ 1
wenye 1
it@@ 1
inahusu 1
uk@@ 1
taifa 1
Papa 1
jimbo 1
muda 1
filamu 1
ali 1
sasa 1
zake 1
mtu 1
Makala 1
nyingine 1
tofauti 1
B@@ 1
hata 1
y@@ 1
tangu 1
wote 1
wao 1
– 0.45539880193714805
mmoja 1
3 0.9120925056593067
serikali 1
kadhaa 1
mashariki 1
anga 1
kutokana 1
humo 1
hivi 1
om@@ 1
nafasi 1
aka 1
Kaskazini 1
ab@@ 1
ar@@ 1
wengine 1
kuliko 1
i@@ 1
ma@@ 1
hilo 1
wan@@ 1
S@@ 0.9795364548313383
tatu 1
Tangu 1
Kongo 1
ua 1
o@@ 1
n@@ 1
maisha 1
pili 1
&amp; 0.9469078299952097
oa 1
&#124; 1
Chuo 1
H@@ 1
si 1
af@@ 1
Mji 1
Kim@@ 1
kuhusu 1
ap@@ 1
ang@@ 1
asi 1
hili 1
chake 1
ag@@ 1
baadaye 1
duniani 1
ziwa 1
leo 1
ama 1
Sikukuu 1
mujibu 1
zi 1
maeneo 1
il@@ 1
G@@ 1
asili 1
ari 1
Ulaya 1
kut@@ 1
mkubwa 1
D@@ 1
ah@@ 1
muhimu 1
Kiingereza 1
Ufaransa 1
“ 0.6125052500823821
A@@ 1
nje 1
5 1
on@@ 1
shule 1
Pia 1
mchezaji 1
4 0.8791170978491629
vi@@ 1
mw@@ 1
walikuwa 1
Kis@@ 1
maarufu 1
bila 1
Hindi 1
kufanya 1
ita 1
kale 1
O@@ 1
Wak@@ 1
Ujerumani 1
mjini 1
ch@@ 1
ur@@ 1
wana@@ 1
Eneo 1
watoto 1
yaani 1
Magharibi 1
zote 1
or@@ 1
familia 1
of 0.03851116948322582
aw@@ 1
is@@ 1
z@@ 1
pekee 1
kupitia 1
” 1
iki 1
imani 1
ikiwa 1
ai 1
Kib@@ 1
una 0.5242375897355165
ok@@ 1
mi@@ 1
L@@ 0.939789299213495
ul@@ 1
wanawake 1
20 1
de 0.029293836217256702
zamani 1
% 0.5464937591039873
kabisa 1
The 0.11798871995052972
vita 1
J@@ 1
h@@ 1
kuu 1
Januari 1
ek@@ 1
ano 1
Mei 1
klabu 1
ona 1
kutumia 1
ka 1
wimbo 1
habari 1
os@@ 1
ala 1
ot@@ 1
Wakristo 1
up@@ 1
mwisho 1
elimu 1
huwa 1
bora 1
E@@ 1
10 0.9555481158108775
maana 1
mtakatifu 1
P@@ 0.8642866889280217
Oktoba 1
Japani 1
awali 1
Italia 1
ishwa 1
Ch@@ 1
mita 1
wat@@ 1
bunge 1
mpya 1
kipindi 1
sh@@ 1
mengine 1
Kikuu 1
albamu 1
Julai 1
hizi 1
Roma 1
BK 1
Wa@@ 1
mat@@ 1
m 1
Juni 1
ambazo 1
iwa 1
6 0.9000344200937476
kupata 1
ny@@ 1
eni 1
kuanzia 1
mpira 1
Novemba 1
ishi 1
Burundi 1
waishio 1
ad@@ 1
okea 1
19 1
ing@@ 1
kim@@ 1
jamii 1
mito 1
umri 1
ung@@ 1
al 0.3966210852545932
Machi 1
hayo 1
biashara 1
milioni 1
Desemba 1
Kit@@ 1
Agosti 1
Septemba 1
2000 1
Maisha 1
Aprili 1
huadhimishwa 1
km 1
Mak@@ 1
mfano 1
anza 1
Historia 1
in 0.03126860062415284
Mas@@ 1
umia 1
New 0.8241269257883957
wa@@ 1
ata 1
b@@ 1
iri 1
awa 1
12 1
takriban 1
dunia 1
pa 1
usawa 1
ati 1
ir@@ 1
una@@ 1
idi 1
2014 1
alipo@@ 1
itwa 1
miguu 1
7 0.9935306855105491
kifo 1
aj@@ 1
nguvu 1
kimataifa 1
F@@ 0.8859498840899074
Nigeria 1
kiasi 1
nyimbo 1
Kuna 1
isi 1
2007 1
Ma@@ 1
oka 1
15 1
makuu 1
amu 1
msingi 1
g@@ 1
amba 1
eli 1
v@@ 1
zili@@ 1
em@@ 1
weza 1
Februari 1
Yesu 1
dini 1
matumizi 1
Z@@ 1
Tuzo 1
s 0.4173539978909895
endelea 1
ea 1
kisiwa 1
mrefu 1
Dunia 1
ile 1
amezaliwa 1
ima 1
zin@@ 1
anda 1
michezo 1
Mw@@ 1
x 1
yan@@ 1
binadamu 1
unga 1
an 0.13450316694149775
Hata 1
Jamhuri 1
en@@ 0.7107931989048318
mwenye 1
hapo 1
eti 1
zao 1
e@@ 0.9560415316676294
mengi 1
historia 1
alit@@ 1
ulikuwa 1
hizo 1
Wan@@ 1
kampuni 1
es 0.20912150452352765
Katoliki 1
ao 1
Idadi 1
f@@ 1
aliye@@ 1
aki@@ 1
2008 1
lili@@ 1
ara 1
V@@ 0.9393099022056821
2009 1
18 1
mechi 1
fulani 1
e 0.7479069450268402
ambalo 1
the 0.014879548790575325
mpaka 1
uwezo 1
9 1
olewa 1
iti 1
alicheza 1
mtoto 1
baadhi 1
ig@@ 1
mab@@ 1
rasmi 1
utawala 1
ug@@ 1
Y@@ 1
uch@@ 1
ema 1
8 0.872921156369927
mfumo 1
2006 1
of@@ 1
Misri 1
kwenda 1
sheria 1
inaweza 1
ish@@ 1
umika 1
11 1
oma 1
lin@@ 1
R@@ 0.7145652091461939
2011 0.9657334660065694
d 0.5716599573382748
inga 1
Lakini 1
uni 1
Jina 1
and@@ 1
16 1
mwandishi 1
ol@@ 1
Was@@ 1
haki 1
kiwango 1
’ 0.2821274326595662
nne 1
zinaz@@ 1
on 0.09760801712587866
el@@ 0.879350085185763
unda 1
damu 1
t@@ 0.8127365562354208
yo 1
13 1
di 1
onekana 1
wam@@ 1
mwingine 1
eza 1
Kazi 1
tuzo 1
jumla 1
2015 1
17 1
was@@ 1
30 1
mwili 1
s@@ 0.569717970088619
In@@ 1
us 0.9113557863757764
Kil@@ 1
shirika 1
op@@ 1
Marejeo 1
rangi 1
ugonjwa 1
iliyo@@ 1
ub@@ 1
umiwa 1
yeye 1
chama 1
az@@ 1
14 1
Ziwa 1
ilit@@ 1
ash@@ 1
azi 1
kucheza 1
tu@@ 1
kutoa 1
ndege 1
wal@@ 1
ongo 1
yali@@ 1
neno 1
id@@ 1
asilimia 1
ay@@ 1
wana 1
Umoja 1
ambako 1
kin@@ 1
ndio 1
Ku@@ 1
onyesha 1
uka 1
Kin@@ 1
sita 1
mahali 1
enda 1
kumi 1
am 0.4383002379266388
uma 1
ila 1
if@@ 1
Ny@@ 1
kuf@@ 1
chuo 1
nyota 1
hapa 1
iki@@ 1
es@@ 0.9529278221103529
askofu 1
Tanganyika 1
mfalme 1
da 0.786724733322236
Mkuu 1
halafu 1
uhuru 1
I 0.6806240348848658
Uturuki 1
ich@@ 1
mak@@ 1
uwanja 1
wanyama 1
Amerika 1
inay@@ 1
bado 1
ko 1
ach@@ 1
mambo 1
mwezi 1
2005 1
ame@@ 1
imu 1
amb@@ 1
mdogo 1
og@@ 1
jeshi 1
ungu 1
usi 1
er@@ 0.6105462656379367
ingawa 1
kik@@ 1
fu@@ 1
olojia 1
Mar@@ 1
21 1
Wam@@ 1
asilia 1
katikati 1
enga 1
uchaguzi 1
io 1
ati@@ 1
A 0.4020124997685951
Jimbo 1
25 1
II 1
mama 1
.@@ 1
and 0.024328869721060513
mazingira 1
kikuu 1
alim@@ 1
chakula 1
ki 1
Wakatoliki 1
ndogo 1
Uwanja 1
Rais 1
Atlantiki 1
julikana 1
kuj@@ 1
2002 1
² 1
mwenyewe 1
imba 1
2010 0.6722351773890168
walio@@ 1
kijiji 1
kwake 1
Sh@@ 1
sawa 1
zile 1
Guinea 1
Hii 1
dawa 1
huelekea 1
hao 1
aga 1
Kig@@ 1
Mat@@ 1
Alikuwa 1
Baadaye 1
ungwa 1
nyumbani 1
An@@ 0.9882563443073442
Al@@ 1
24 1
fuata 1
y 0.07514688379519716
ina@@ 1
isho 1
uf@@ 1
eta 1
Yeye 1
jinsi 1
li@@ 1
okana 1
makubwa 1
ayo 1
ule 1
Mia 1
namna 1
aja 1
Tarafa 1
ha 1
Kiarabu 1
kup@@ 1
maj@@ 1
ta 1
= 1
Mara 1
ziliz@@ 1
ime@@ 1
Waorthodoksi 1
Kifaransa 1
visiwa 1
mp@@ 1
wanaoishi 1
C@@ 0.5948324468771314
Ng@@ 1
au@@ 1
ar 0.487414766603546
ja 1
rais 1
Kama 1
Ukristo 1
Ghana 1
hut@@ 1
inat@@ 1
mbali 1
mu@@ 1
kuz@@ 1
pwani 1
lilikuwa 1
upo 1
kisiasa 1
hatari 1
amia 1
Vita 1
Watu 1
urefu 1
baba 1
wi 1
2016 0.7958301271653944
matokeo 1
Yohane 1
alianza 1
ha@@ 1
mas@@ 1
anaheshimiwa 1
aliy@@ 1
huduma 1
kulingana 1
mt@@ 1
tano 1
Mpya 1
wenyewe 1
kidogo 1
adi 1
tun@@ 1
Kid@@ 1
22 1
saba 1
hak@@ 1
2018 0.7998213734359669
Orodha 1
kitabu 1
Tarehe 1
ewa 1
kanda 1
av@@ 1
ji 1
Paulo 1
amini 1
kw@@ 1
ana@@ 1
nyumba 1
spishi 1
ob@@ 1
mlima 1
kit@@ 1
huku 1
watakatifu 1
inayo@@ 1
Jamii 1
hewa 1
d@@ 0.6451719136602425
hi 1
kis@@ 1
Urusi 1
uzi 1
ang 1
picha 1
vitabu 1
Dar 1
maneno 1
haya 1
walit@@ 1
bali 1
ambo 1
mwigizaji 1
joto 1
miji 1
Kuu 1
Dola 1
utamaduni 1
wawili 1
2017 0.7917149133291606
Hispania 1
iga 1
umbo 1
vijana 1
ti 1
di@@ 0.9929779828460781
Kilatini 1
ingia 1
2013 0.7254299981327332
ikia 1
r@@ 0.6445918481818166
mojawapo 1
ale 1
ba 1
kuch@@ 1
milima 1
po@@ 1
binafsi 1
korongo 1
ud@@ 1
hi@@ 1
Australia 1
k 0.8707672468434148
2020 0.8503560746991312
makao 1
aya 1
23 1
gt 1
yanay@@ 1
kur@@ 1
abu 1
Kiswahili 1
shughuli 1
ira 1
umu 1
masomo 1
hicho 1
uz@@ 1
vin@@ 1
Wab@@ 1
hiki 1
2019 0.7894919037854496
ho@@ 1
postikodi 1
andikwa 1
et@@ 1
ino 1
l@@ 0.6211873559969286
sauti 1
moyo 1
si@@ 1
majina 1
ajwa 1
msimu 1
eh@@ 1
ane 1
lt 1
Biblia 1
et 0.06432305398450183
izi 1
eka 1
mbele 1
! 1
hatua 1
Am@@ 1
kilomita 1
Hivyo 1
Asia 1
uru 1
ndiyo 1
ambacho 1
100 1
Ethiopia 1
yak@@ 1
Bonde 1
2003 1
ing 0.21786957158128217
ep@@ 1
York 0.8352264608942384
2001 1
Shule 1
do 0.9198238440882504
wale 1
alifariki 1
John 0.757215021512639
kili@@ 1
th@@ 0.891973104647685
linalopatikana 1
mwimbaji 1
28 1
vyake 1
iz@@ 1
wap@@ 1
yaliy@@ 1
alik@@ 1
iliy@@ 1
27 1
aki 1
Wal@@ 1
aka@@ 1
anay@@ 1
mabadiliko 1
1990 1
Salaam 1
kul@@ 1
ah 1
kun@@ 1
kote 1
ong@@ 1
2004 0.9007043937620991
kisha 1
ardhi 1
kuv@@ 1
Mal@@ 1
Uhindi 1
wala 1
umba 1
26 1
fu 1
yako 1
ip@@ 1
Kir@@ 1
apo 1
eg@@ 1
B 1
utafiti 1
mwanachama 1
mfululizo 1
od@@ 1
maendeleo 1
Kibantu 1
kituo 1
uj@@ 1
mwanamke 1
China 1
um 0.4306194686750676
kitaifa 1
ezwa 1
Wat@@ 1
ito 1
kufikia 1
Zanzibar 1
any@@ 1
.. 1
ibu 1
h 0.9443080455672168
kisasa 1
soka 1
bu@@ 1
ez@@ 1
n.k. 1
ada 0.6448834905137039
aliwa 1
walio 1
Ak@@ 1
majimbo 1
posta 1
oh@@ 1
eng@@ 1
naye 1
vizuri 1
alipata 1
halisi 1
uko 1
ie 0.6907386284025211
haraka 1
eb@@ 1
to 0.024408935000689972
Waislamu 1
Kigiriki 1
asa 1
kifupi 1
Ufa 1
mag@@ 1
ifu 1
aha 1
ura 1
29 1
ishaji 1
kiongozi 1
aliz@@ 1
walik@@ 1
kikubwa 1
Chama 1
aba 1
map@@ 1
rekodi 1
alifanya 1
oko 1
Vi@@ 1
miwili 1
matatizo 1
vit@@ 1
Maj@@ 1
fanya 1
eo 1
Kale 1
ji@@ 1
upendo 1
kub@@ 1
undi 1
Maria 1
Kirumi 1
mb@@ 1
oz@@ 1
oto 1
esha 1
tabia 1
hakuna 1
jiji 1
sanaa 1
mwanzo 1
Makao 1
ae 1
hus@@ 1
zo 1
zinazo@@ 1
Nairobi 1
uchumi 1
Wah@@ 1
ib@@ 1
kamili 1
uh@@ 1
lik@@ 1
kuishi 1
Mlima 1
Lugha 1
mashindano 1
siasa 1
angaza 1
ou@@ 1
kali 1
matibabu 1
ye 1
wenzake 1
Mataifa 1
at 0.0797311340311713
kusababisha 1
umeme 1
Mag@@ 1
Man@@ 1
ela 1
msanii 1
el 0.05445406032150416
amani 1
unao@@ 1
uli 1
afya 1
ih@@ 1
kina 1
ti@@ 0.8694073148467543
ma 1
kuingia 1
waf@@ 1
ndiye 1
bo@@ 1
mah@@ 1
nyuma 1
uri 1
Kiaustronesia 1
huitwa 1
uta 1
ombe 1
Wimbo 1
wiki 1
ari@@ 1
uv@@ 1
Kar@@ 1
kweli 1
omo 1
ania 1
mwanasiasa 1
atia 1
ate 0.4279108702721327
ole 1
vifaa 1
ow@@ 1
é 0.4028194864128376
sifa 1
acha 1
mwan@@ 1
orodha 1
Turkana 1
kike 1
wanafunzi 1
bara 1
uliwa 1
Ar@@ 0.7179021537012882
ov@@ 1
kabila 1
we@@ 1
Kimataifa 1
Mad@@ 1
ej@@ 1
kilimo 1
Kal@@ 1
mshindi 1
seli 1
ba@@ 1
Bar@@ 1
kijamii 1
anzisha 1
kuh@@ 1
dalili 1
hal@@ 1
31 1
is 0.04441052819623562
udi 1
1999 0.9647876190406699
afu 1
akawa 1
10@@ 1
ogo 1
ukubwa 1
ango 1
kushinda 1
ongoza 1
inayot@@ 1
Kikristo 1
egemea 1
huru 1
mkono 1
alis@@ 1
indi 1
tarakimu 1
Kombe 1
mchezo 1
Bwana 1
endo 1
lenye 1
maalumu 1
Kiafrika 1
pewa 1
Shirika 1
g 0.7916351594832008
ulit@@ 1
omba 1
enzi 1
och@@ 1
oro 1
bendi 1
du 0.08896758822870533
ele 1
Indonesia 1
inayofuata 1
mafuta 1
jua 1
mingi 1
alijiunga 1
awe 1
umma 1
lazima 1
Hapo 1
Un@@ 1
amp 0.5442412283819428
uti 1
As@@ 1
aza 1
zenye 1
akili 1
as 0.04762979192361995
b 0.8545958239907087
Kas@@ 1
awala 1
kumbukumbu 1
mg@@ 1
Th@@ 1
bu 1
uhusiano 1
kuli@@ 1
ato 1
bi@@ 1
kura 1
ng@@ 1
anat@@ 1
wani 1
kuzuia 1
ungua 1
walioishi 1
zilizo@@ 1
ong 1
1991 1
Siku 1
ndugu 1
Kijerumani 1
mapema 1
er 0.09046679428313209
tasa 1
vijiji 1
wafiadini 1
Kih@@ 1
apo@@ 1
mamlaka 1
Albamu 1
maziwa 1
mbinu 1
nusu 1
badala 1
kuto@@ 1
iriki 1
kulikuwa 1
watumwa 1
isi@@ 1
heshima 1
wach@@ 1
vitu 1
Map@@ 1
undwa 1
miezi 1
zil@@ 1
kikundi 1
kuw@@ 1
tar 1
yoyote 1
Mu@@ 1
zwa 1
hadithi 1
unaweza 1
tayari 1
vy@@ 1
shahada 1
kufa 1
pokea 1
bidhaa 1
miongoni 1
Sudan 1
kitu 1
kutangulia 1
zim@@ 1
era 0.5399557146369646
1995 1
-------- 1
unat@@ 1
vingine 1
apa 1
inayoandikwa 1
l 0.2496038025302504
Baba 1
Ab@@ 0.7912197752900292
isa 1
mafanikio 1
moto 1
Ingawa 1
angwa 1
hawa 1
iliyot@@ 1
kid@@ 1
1994 1
barabara 1
ezi 1
kuk@@ 1
safari 1
Kam@@ 1
lilil@@ 1
Kif@@ 1
kuji@@ 1
alama 1
zinaweza 1
angazwa 1
irika 1
yam@@ 1
huyo 1
nane 1
wanaweza 1
Sehemu 1
? 1
po 1
ke 1
tisa 1
50 0.9151533528180059
Mb@@ 1
hau@@ 1
kuanzisha 1
anacheza 1
wanaume 1
Ivoire 1
aribu 1
karibuni 1
Hasa 1
ai@@ 1
ezo 1
wahi 1
Kisiwa 1
Miaka 1
aliyekuwa 1
indwa 1
mawili 1
mch@@ 1
1993 1
mimea 1
oti 1
umwa 1
zi@@ 1
Al 1
linal@@ 1
wasanii 1
mit@@ 1
mkataba 1
40 1
ain@@ 1
dia 1
makabila 1
1997 1
awi 1
koloni 1
en 0.023981552109786558
inda 1
iti@@ 1
kichwa 1
mz@@ 1
Wayahudi 1
Waziri 1
ongozwa 1
msaada 1
engo 1
uo 1
Aliwahi 1
akuwa 1
elekea 1
har@@ 1
kuzaliwa 1
man 0.36844425397173947
oli 1
Baadhi 1
kimo 1
mashuhuri 1
amua 1
azo 1
elewa 1
1998 0.9079993568863755
t 0.2966467807963274
Elimu 1
Nchi 1
are 0.12487689075560396
maalum 1
War@@ 1
vil@@ 1
wazi 1
oj@@ 1
Mtakatifu 1
zilikuwa 1
Kiniger 1
wadogo 1
Israeli 1
ham@@ 1
osa 1
anzishwa 1
enea 1
kutengeneza 1
ulimwengu 1
alishinda 1
cheo 1
London 0.9773833502488112
programu 1
ike 1
Kidemokrasia 1
Wali@@ 1
mar@@ 1
yalikuwa 1
1996 0.9595488651210231
mik@@ 1
Cote 1
1980 1
kijeshi 1
mad@@ 1
1970 1
Mab@@ 1
vingi 1
Pamoja 1
hai 1
kutokea 1
or 0.12383437553373594
ulio@@ 1
safu 1
haz@@ 1
Papua 1
kush@@ 1
lina 1
ahidi 1
anywa 1
kil@@ 1
pu@@ 1
video 1
wako 1
viongozi 1
1992 0.9787194512801676
Mwan@@ 1
chache 1
Tana 1
onga 1
kuanza 1
mpango 1
wen@@ 1
jo 1
usiku 1
eri 1
kuunda 1
ra 0.743449572652141
Nyanza 1
City 0.6726631286872995
imekuwa 1
vu 1
2@@ 1
dola 1
jambo 1
jirani 1
uso 1
zina@@ 1
mwanamuziki 1
ine 0.5812651428898783
kar@@ 1
kuelekea 1
ono 1
United 0.39381558496500396
imo 1
televisheni 1
virusi 1
be@@ 0.5926807990164049
fedha 1
ishia 1
pande 1
athari 1
jeni 1
Uislamu 1
Leo 1
kuchukua 1
masuala 1
waka@@ 1
kanuni 1
wah@@ 1
kujenga 1
California 1
esi 1
kanisa 1
makazi 1
ote 1
pale 1
angalia 1
kupunguza 1
mwanzilishi 1
ush@@ 1
Kabla 1
ng 1
usha 1
Korea 1
kujiunga 1
mfiadini 1
ori 1
ambavyo 1
esh@@ 1
Kiy@@ 1
du@@ 1
ota 1
Waarabu 1
aidia 1
ezea 1
Brazil 1
Nobel 1
alif@@ 1
waki@@ 1
wame@@ 1
anya 1
kua 1
baridi 1
wakilisha 1
Muziki 1
iliwa 1
ulia 1
• 1
alia 1
mapokeo 1
sala 1
uliopo 1
umb@@ 1
one 0.16092747417634723
ge 1
hifadhi 1
aweza 1
kwani 1
mfupi 1
magonjwa 1
ko@@ 1
ed@@ 0.9189004519844338
Hapa 1
maf@@ 1
ef@@ 1
ora 1
ume 1
chati 1
mataifa 1
pata 1
engenezwa 1
osi 1
kushika 1
mtandao 1
ak 1
yaliyo@@ 1
dhuluma 1
Har@@ 1
kurudi 1
meli 1
ilianzishwa 1
lengo 1
viwango 1
kadiri 1
osh@@ 1
vilevile 1
ngozi 1
Mp@@ 1
umi 1
nao 1
C 0.6440497710858809
Injili 1
mikoa 1
Ligi 1
vyombo 1
atwa 1
ulioko 1
kuendelea 1
engwa 1
kilikuwa 1
kusoma 1
mtindo 1
Taifa 1
man@@ 1
afuta 1
bar@@ 1
ge@@ 0.7067305517309524
Arusha 1
anajulikana 1
kan@@ 1
mawasiliano 1
wezesha 1
Bunge 1
embe 1
ikwa 1
roho 1
El@@ 1
Waf@@ 1
wanat@@ 1
jit@@ 1
mbio 1
mraba 1
wanao@@ 1
hutumika 1
zinazot@@ 1
avu 1
mbaya 1
zina 1
Kuanzia 1
lil@@ 1
Tanga 1
Vigawo 1
200 1
ad 0.9419255811408848
maambukizi 1
makundi 1
Ili@@ 1
anaweza 1
1988 1
ezaji 1
matukio 1
mvua 1
kando 1
1960 1
Kab@@ 1
Kip@@ 1
le 0.040328740253208685
saa 1
kuongeza 1
pe@@ 1
utu 1
Ali 1
umbali 1
hat@@ 1
kuona 1
mali 1
adi@@ 1
Vijijini 1
basi 1
ngazi 1
Di@@ 0.985746409032981
Vietnam 1
je 1
unganisha 1
Kanada 1
andika 1
chanzo 1
mbunge 1
muundo 1
ou 0.3107950844746687
ibada 1
kutaja 1
uku 1
Msimbo 1
r 0.9015129770284693
vyote 1
wadudu 1
mwanzoni 1
ru@@ 1
uny@@ 1
usi@@ 1
vili@@ 1
Alit@@ 1
ida 1
mwalimu 1
wananchi 1
ndoa 1
waz@@ 1
ilia 1
kon@@ 1
n 0.4190945975066692
penda 1
yanayo@@ 1
war@@ 1
yale 1
Bo@@ 1
uongozi 1
afanya 1
taasisi 1
Kitabu 1
Kutokana 1
dogo 1
miti 1
st@@ 0.42280520142137906
wasi@@ 1
Ut@@ 1
alisema 1
sekondari 1
4@@ 1
Mah@@ 1
opatikana 1
unguka 1
hay@@ 1
ingo 1
padri 1
wakiwa 1
z 0.670984431392652
Mjini 1
kujit@@ 1
uza 1
kufika 1
ongezeka 1
Sheria 1
mach@@ 1
kompyuta 1
yetu 1
askari 1
Morogoro 1
kutumika 1
pot@@ 1
alish@@ 1
kumu@@ 1
ta@@ 1
waliot@@ 1
Hali 1
ij@@ 1
kuwepo 1
zingine 1
kam@@ 1
Ame@@ 1
kusaidia 1
ene 1
inap@@ 1
ungo 1
Serikali 1
akam@@ 1
wastani 1
heri 1
dhahabu 1
Wap@@ 1
ambuliwa 1
mmojawapo 1
taarifa 1
Wanawake 1
samaki 1
tiki 1
4,@@ 1
Kwanza 1
Rwanda 1
maonyesho 1
1989 0.940773997483255
kilich@@ 1
olo 1
‘ 1
lililo 1
ilik@@ 1
yi 1
1987 1
anyika 1
juhudi 1
ujenzi 1
fupi 1
Waingereza 1
Botswana 1
Filamu 1
Uholanzi 1
gazeti 1
kinach@@ 1
ufalme 1
ofanya 1
silaha 1
to@@ 0.8280243400960575
wingi 1
mtunzi 1
Ru@@ 1
barani 1
ligi 1
adili 1
0 0.5517809254711628
ath@@ 1
chang@@ 1
Na 1
kasi 1
ga 1
hutumia 1
kiuchumi 1
os 0.27694977561242967
ulu 1
utaratibu 1
kuandika 1
msh@@ 1
ongeza 1
uw@@ 1
liwa 1
ubongo 1
husika 1
sayansi 1
umaarufu 1
re@@ 0.1531550404662536
te@@ 0.870679137791142
ushindi 1
biwa 1
do@@ 1
eshi 1
li 1
baina 1
ukua 1
maadili 1
India 1
ilitolewa 1
un 0.044708552544852904
ilianza 1
kuwa@@ 1
Akiwa 1
Dodoma 1
Kiz@@ 1
tarafa 1
Zimbabwe 1
ikawa 1
yal@@ 1
1,@@ 1
wenyeji 1
mke 1
sa 0.2799730121224241
eleza 1
Wakazi 1
kupiga 1
mafundisho 1
maumivu 1
pengine 1
2021 0.5432234682091868
Kiislamu 1
Paris 0.6676450829887668
ambua 1
iliopo 1
mabao 1
omu 1
1@@ 1
Kan@@ 1
iliyokuwa 1
mafunzo 1
pombe 1
Fransisko 1
mwishoni 1
Angola 1
ake 1
nzuri 1
upya 1
La 0.10720370118107128
isipokuwa 1
5@@ 1
maandishi 1
Alizaliwa 1
Sahara 1
iliyo 1
mwendo 1
uchunguzi 1
akit@@ 1
ako 1
Mi@@ 1
asi@@ 1
kiume 1
aliandika 1
imb@@ 1
zinat@@ 1
jukumu 1
pesa 1
Mtume 1
isti 1
kuonekana 1
mchanganyiko 1
amp@@ 1
iba 1
madhehebu 1
uu 1
Kila 1
West 0.7006202943008909
alihamia 1
yo@@ 1
vid@@ 1
kuja 1
Ta@@ 1
bi 1
raia 1
umoja 1
waj@@ 1
Mur@@ 1
imet@@ 1
B.K. 1
Wag@@ 1
lao 1
mkutano 1
Ad@@ 1
iv@@ 1
wataalamu 1
mashirika 1
apatikana 1
bakteria 1
barua 1
ere 1
mno 1
wazazi 1
teknolojia 1
amo 1
harakati 1
sa@@ 1
Kich@@ 1
Mus@@ 1
binti 1
kudumu 1
yanaweza 1
Kamerun 1
iku@@ 1
kesi 1
Michael 1
Tar@@ 1
ech@@ 1
emb@@ 1
toleo 1
wash@@ 1
Hakuna 1
akana 1
faida 1
walipo@@ 1
lime@@ 1
wanachama 1
unguza 1
ando 0.5948352075044012
ukoloni 1
Yerusalemu 1
kwao 1
wafuasi 1
Sanaa 1
Ush@@ 1
gari 1
reli 1
wezi 1
Asili 1
dh@@ 1
kip@@ 1
waliokuwa 1
0,000 1
U 0.8319903024911852
Mbeya 1
le@@ 0.47428216937747486
mimba 1
wag@@ 1
Sam@@ 1
fika 1
Upande 1
Ureno 1
ei 1
En@@ 0.8220726891310147
Hu@@ 1
angu 1
ilisha 1
lina@@ 1
wakubwa 1
ofisi 1
ula 1
uwezekano 1
3@@ 1
III 1
kom@@ 1
mradi 1
uku@@ 1
kushiriki 1
su@@ 0.9947983988043961
upinzani 1
Spishi 1
daraja 1
vipindi 1
Olimpiki 1
Uchina 1
kui@@ 1
mal@@ 1
unaot@@ 1
Kol@@ 1
hutokea 1
kufuata 1
° 0.8916928496331477
kaisari 1
Bal@@ 1
Kor@@ 1
Ugiriki 1
end@@ 0.8360468710286569
it 0.0813010417688578
iy@@ 1
madogo 1
Cape 1
James 0.7969262486491409
akat@@ 1
dhambi 1
hutumiwa 1
alitoa 1
br 1
chi 1
de@@ 0.4149930432401903
Wajerumani 1
for 0.032345613165799925
ilim@@ 1
kuweka 1
pi@@ 0.9694744256036045
alianzisha 1
ovu 1
riwaya 1
macho 1
ri 1
sha 1
Kat@@ 1
Sal@@ 1
Wasifu 1
chu@@ 1
kumaliza 1
monasteri 1
6@@ 1
Aina 1
Visiwa 1
ni@@ 0.9734800186523825
wagonjwa 1
yenyewe 1
kikosi 1
Algeria 1
Neno 1
Roho 1
be 0.10043639957205006
eng 1
kihistoria 1
kutolewa 1
viwanda 1
ehe 1
ir 0.8693709560475479
jengwa 1
kab@@ 1
Lu@@ 1
Nyumba 1
uki@@ 1
Kampuni 1
bandari 1
enti 1
ev@@ 0.9882213824934813
ola 1
studio 1
Mo@@ 1
kilicho@@ 1
ro@@ 0.5746434102750367
Aleksandria 1
Mt@@ 1
tisha 1
R 0.790555149045342
kuonyesha 1
ujumla 1
yana@@ 1
Agano 1
ishara 1
jumuisha 1
Kitaifa 1
Il@@ 1
alij@@ 1
redio 1
se@@ 0.5818819139103796
weka 1
Is@@ 1
anaye@@ 1
Mchezaji 1
Waafrika 1
mauaji 1
umbu@@ 1
Ag@@ 1
amekuwa 1
onyeshwa 1
soko 1
1982 0.9916545736872764
Africa 1
haw@@ 1
kutafuta 1
vik@@ 1
Kigoma 1
Muungano 1
ambaa 1
Mkristo 1
alipokuwa 1
asema 1
c 0.4218190539131533
jenasi 1
anam@@ 1
ume@@ 1
adilika 1
kinga 1
1981 0.9947886883933588
Baraza 1
Shirikisho 1
nia 1
uzwa 1
1986 0.9009767059652033
unganishwa 1
ukweli 1
African 1
chukua 1
igo 1
idh@@ 1
uzito 1
bo 1
iro 1
ena 1
mapinduzi 1
500 1
Kur@@ 1
Petro 1
alichaguliwa 1
kia 1
lilit@@ 1
makala 1
ony@@ 1
Mtwara 1
amet@@ 1
mk@@ 1
q@@ 1
Somalia 1
tukio 1
Milima 1
amri 1
alipokea 1
amil@@ 1
majaribio 1
zilizot@@ 1
Ubelgiji 1
apata 1
ushwa 1
Kut@@ 1
Ufalme 1
hop 1
mtayarishaji 1
iliyopita 1
60 0.9332709649683518
VVU 1
kiungo 1
Galana 1
athiri 1
pan@@ 1
elezea 1
ende 0.8739915038244754
had@@ 1
1985 0.8956457748078354
Mfalme 1
polisi 1
yat@@ 1
1984 0.8930620854728765
alo 1
evu 1
idae 1
El 0.15707874161851934
FIFA 1
Pius 1
katiba 1
kich@@ 1
ofu 1
zilit@@ 1
angi 1
fa 1
kupokea 1
Nam@@ 1
itaji 1
ju@@ 1
mitatu 1
mj@@ 1
nakala 1
p 0.5362288982924638
Austria 1
FC 0.9824460084577616
angani 1
hip 1
ri@@ 0.6925748662410969
uhusu 1
waliouawa 1
William 0.6718067547668329
mawe 1
uzazi 1
aswa 1
hum@@ 1
3,@@ 1
hup@@ 1
taratibu 1
ubali 1
wanaheshimiwa 1
imep@@ 1
Habari 1
Kilimanjaro 1
haku@@ 1
mayai 1
vikundi 1
Hadi 1
Vy@@ 1
herufi 1
wanajeshi 1
aliza 1
hul@@ 1
ilich@@ 1
usu 1
mbegu 1
Mama 1
Mon@@ 0.7063520536586724
ilipo@@ 1
kat@@ 1
X 0.8181716136518421
mf@@ 1
sherehe 1
5,@@ 1
George 0.7268916864961705
Athi 1
afanana 1
kufu@@ 1
simu 1
und@@ 1
ami 1
aye 1
hawak@@ 1
kula 1
kinyume 1
hur@@ 1
7,@@ 1
Kaisari 1
Msumbiji 1
athiriwa 1
mis@@ 1
oo 1
usimamizi 1
wachache 1
Paul 0.6914437295171695
sura 1
te 0.20426204501587533
me@@ 1
walim@@ 1
wazo 1
kas@@ 1
ndi@@ 1
tak@@ 1
wafanyakazi 1
iliyopo 1
inas@@ 1
ol 1
ame 1
baharini 1
kukam@@ 1
lililo@@ 1
Joseph 1
Unguja 1
ingana 1
mawazo 1
wenda 1
Jua 1
Jeshi 1
King@@ 1
O 0.5518476354905513
vituo 1
Far@@ 1
gesi 1
Utafiti 1
Alianza 1
kij@@ 1
tiba 1
Kaunti 1
chombo 1
elek@@ 1
watatu 1
waziri 1
Chini 1
uba 1
Zambia 1
adiriwa 1
alil@@ 1
iny@@ 1
kiny@@ 1
tawi 1
Iko 1
mirefu 1
toka 1
ungaji 1
* 0.46013004196807644
300 1
Ko@@ 1
Malcolm 1
Waj@@ 1
jijini 1
kisayansi 1
400 1
Taasisi 1
Uchaguzi 1
afiri 1
kijijini 1
Chi@@ 1
inak@@ 1
kutosha 1
sayari 1
eshwa 1
Jum@@ 1
kutu@@ 1
siri 1
udia 1
ee 1
mash@@ 1
oga 1
ukiwa 1
kuongezeka 1
K.K. 1
Sabaki 1
usa 1
fun@@ 1
huyu 1
ondo 1
vikuu 1
waji 1
mashairi 1
pin@@ 1
6,@@ 1
majira 1
neema 1
matunda 1
2,@@ 1
National 0.3231777667340249
far@@ 1
kutambua 1
Uswidi 1
X@@ 0.744535401178861
w 0.9044766775700458
Mor@@ 0.8053809228670818
afuata 1
ishirini 1
Q@@ 0.9831605131589274
ika@@ 1
ingi 1
mifumo 1
nadharia 1
CCM 1
Mer@@ 1
okeza 1
ombo 1
wachezaji 1
Par@@ 0.6138914290577908
misitu 1
oy@@ 1
shida 1
Ka@@ 1
Wach@@ 1
aanisha 1
engeneza 1
mam@@ 1
ujuzi 1
ze 1
Ig@@ 1
endel@@ 1
min@@ 0.8806607665140171
mwana 1
nguo 1
iliki 1
jiunga 1
ugu 1
viungo 1
80 1
Hatimaye 1
Saint 0.3937716534278697
ilikadiriwa 1
nzima 1
ten@@ 0.6807878415949413
Ser@@ 1
andaa 1
hospitali 1
kuleta 1
mikubwa 1
mwanaharakati 1
uia 1
ne 0.2376058897539984
Mik@@ 1
Us@@ 1
kidini 1
kuenea 1
nini 1
ra@@ 1
ungana 1
Si@@ 1
alfabeti 1
huj@@ 1
ukuliwa 1
inah@@ 1
kupatikana 1
ond@@ 1
East 0.7764167653405484
Mis@@ 1
Nak@@ 1
haj@@ 1
mapigano 1
walianza 1
wanah@@ 1
1964 0.9982183523804761
Jiografia 1
afa 1
milki 1
Bora 1
Robert 0.705163021144184
avy@@ 1
isim@@ 1
kaka 1
majani 1
undo 1
walish@@ 1
Awards 1
Maz@@ 1
ingwa 1
rahisi 1
aliwahi 1
nayo 1
apishwa 1
kusema 1
uzalishaji 1
kiroho 1
mikono 1
pen@@ 1
Bu@@ 1
Matumizi 1
ende@@ 1
ya@@ 1
zik@@ 1
UKIMWI 1
aguliwa 1
ajiri 1
mi 1
nyeupe 1
Charles 0.6808399893318355
kuhamia 1
nishati 1
row 1
vifo 1
0@@ 1
Up@@ 1
Kituo 1
ulimwenguni 1
ushirikiano 1
vyama 1
yon@@ 1
zime@@ 1
Me@@ 0.8371858556267567
ajabu 1
chem@@ 1
70 1
anap@@ 1
gharama 1
kundinyota 1
Re@@ 0.4000482141573724
1950 0.8347120904719618
Benki 1
peke 1
South 0.3885336457200693
Uajemi 1
shu@@ 1
sin@@ 1
etea 1
kiko 1
pat@@ 1
alisoma 1
mingine 1
San 0.3775095248796858
dakika 1
kilometa 1
madini 1
Nile 1
chuma 1
endesha 1
ngoma 1
uliot@@ 1
vyo 1
David 0.6809887193260438
E 0.7376229695538798
linalo@@ 1
mipango 1
D 0.5764729948979992
Le@@ 0.49939071335591
TV 0.7158584399936553
gi@@ 1
mpangilio 1
viwili 1
+ 0.7039000332001882
Ina@@ 1
Mit@@ 1
Tabora 1
ekwa 1
ui 1
afiki 1
umishi 1
umuhimu 1
-@@ 0.5542203765564301
International 0.5280238769785023
elementi 1
Kagera 1
milele 1
ndefu 1
ofanana 1
ohusiana 1
tan@@ 1
akazi 1
ekundu 1
iriwa 1
kutoweka 1
unzi 1
Jumuiya 1
ajulikana 1
ay 0.6931116473117634
chenye 1
kimoja 1
mkurugenzi 1
single 0.48984314870419404
usalama 1
mia 1
sahihi 1
Kisha 1
masi 1
ulinzi 1
yanaelekea 1
yangu 1
# 1
aliweza 1
ambia 1
anak@@ 1
kiz@@ 1
nyama 1
iitwayo 1
kufuatana 1
mahitaji 1
mil@@ 1
90 1
Njia 1
Viungo 1
adh@@ 1
isitiza 1
lote 1
maskini 1
omea 1
medali 1
Na@@ 1
Records 1
ue 0.8232750419776946
ukoo 1
10,000 1
Kh@@ 1
aliendelea 1
alipewa 1
izwa 1
fasihi 1
hinda 1
vyuo 1
Be@@ 0.5250544990654686
Kwenye 1
avyo 1
avyo@@ 1
benki 1
jadi 1
majengo 1
mzuri 1
viumbe 1
wekwa 1
Lindi 1
kug@@ 1
nyekundu 1
tatizo 1
Senegal 1
T 0.6901742862496099
aliyet@@ 1
x@@ 0.65172349487342
Mpaka 1
North 0.4586292668874417
andi 1
iliana 1
ku 1
ushahidi 1
Guthrie 1
Sayansi 1
ic@@ 0.44746317973066463
wanamuziki 1
f 0.6324115858187701
N 0.8493787523035617
aliteuliwa 1
he 0.05287142829928629
thamani 1
vipimo 1
1979 0.7933043601209957
falsafa 1
Her@@ 0.8005399549195986
Manchester 1
a.@@ 1
kile 1
mwanafunzi 1
ongezeko 1
tr@@ 0.284575639684811
ung 0.28664735279775383
yanayot@@ 1
ab 0.40235110424337944
emba 1
isiyo 1
usisha 1
Kihindi 1
Maendeleo 1
imbaji 1
kir@@ 1
wez@@ 1
ziko 1
Mwezi 1
huweza 1
kuimba 1
opo 1
1977 0.8598084239458816
Ur@@ 1
abati 1
itumia 1
olea 1
uki 1
Peter 0.7929456772331398
ed 0.09943580123783527
Muh@@ 1
Mwanza 1
Ndugu 1
kitovu 1
mig@@ 1
1978 0.8113337760044
Huko 1
Jackson 1
kijana 1
School 0.34082099216338174
eke 1
1983 0.7658494218589458
9,@@ 1
Car@@ 0.48991082106567996
kupita 1
ley 0.45477284157662157
Biashara 1
Kw@@ 1
Mfano 1
Sa@@ 1
bei 0.15661995986334917
kisheria 1
kuwas@@ 1
Mtaguso 1
V 0.6988065982298679
ant@@ 0.8219951399154745
kuacha 1
5,000 1
andi@@ 1
kitamaduni 1
1975 0.7600460391747332
Mapinduzi 1
aliyo@@ 1
euliwa 1
icho 1
imara 1
inaf@@ 1
kumw@@ 1
mashamba 1
World 0.26630176388494364
aria 1
Jersey 1
hudumu 1
kinacho@@ 1
Kiebrania 1
Ni@@ 1
Pili 1
akati 1
fainali 1
indana 1
sim@@ 1
akifunga 1
gh@@ 1
kukaa 1
kuongoza 1
risasi 1
usika 1
7@@ 0.9999717542270129
Hifadhi 1
Mkoani 1
Pwani 1
Tu@@ 1
nasaba 1
Kutoka 1
maelezo 1
shinikizo 1
so@@ 0.7996428356667852
yaliyot@@ 1
Kon@@ 1
Muhammad 1
Wazungu 1
son 0.0817925920273815
ujumbe 1
undua 1
Kom@@ 1
Michezo 1
Wad@@ 1
8,@@ 1
ekuwa 1
elea 1
ew@@ 1
mapafu 1
waandishi 1
é@@ 0.34819043046111986
... 0.5446102168926765
ambi 1
se 0.0410251139791429
Gregori 1
lia 1
mtaalamu 1
tam@@ 1
umo 1
Kum@@ 1
akim@@ 1
bin 1
hisia 1
osha 1
udumu 1
usafiri 1
Kundi 1
Tak@@ 1
daktari 1
kufuatia 1
mchakato 1
vilivy@@ 1
1969 0.836777127435583
IV 1
jangwani 1
magari 1
mazao 1
ik 1
kulia 1
ndipo 1
nyakati 1
ushi 1
yana 1
1976 0.7722193748254608
Ruvuma 1
inajulikana 1
yalit@@ 1
Gu@@ 0.7558198749833773
bao 1
ilipata 1
j 1
kh@@ 0.8891523180594196
sal@@ 1
wanak@@ 1
Basi 1
Music 0.7693285106193617
ac@@ 0.31445503188052276
irikiana 1
ur 0.7896605054679702
uy@@ 1
vyo@@ 1
1963 0.9257589800728937
Bur@@ 0.9387493989770399
Kap@@ 1
Li@@ 0.9105326162327979
Mali 1
c@@ 0.2237288946239582
maoni 1
mipaka 1
sera 1
wanap@@ 1
Mombasa 1
ifanya 1
pas@@ 1
takribani 1
gu@@ 0.8297671034812414
ikilia 1
ist@@ 0.9066317850300604
mazoezi 1
wenzao 1
Argentina 1
eto 1
kisiwani 1
kuuza 1
linat@@ 1
oidi 1
uti@@ 1
vidogo 1
vis@@ 1
Alipata 1
Kirusi 1
hesabu 1
ilish@@ 1
minne 1
mo@@ 0.6488675769489342
kana 1
wowote 1
Sous 1
kujitawala 1
mapenzi 1
faa 1
gani 1
kukuza 1
kuta 1
mstari 1
Su@@ 0.9805922569941186
Utawala 1
amiwa 1
barafu 1
hupatikana 1
kavu 1
préfecture 1
upasuaji 1
eki 1
1972 0.7250931058652945
scope 1
vim@@ 1
dada 1
kibiashara 1
ukuaji 1
Ram@@ 1
cho@@ 1
him@@ 1
hutoa 1
ikit@@ 1
ilhali 1
kud@@ 1
lo@@ 0.41952641536021906
mwenyekiti 1
ubaguzi 1
ulianza 1
ye@@ 1
Ang@@ 1
hufanya 1
kukua 1
suala 1
ufu@@ 1
Nyam@@ 1
awa@@ 1
fa@@ 1
wanaot@@ 1
Askofu 1
Ho@@ 1
Wikipedia 1
par@@ 0.366321765109363
aji@@ 1
osababisha 1
wav@@ 1
Uf@@ 1
inayoitwa 1
mashine 1
mwanga 1
ondoka 1
1961 0.9281179540940165
1974 0.737847436649128
Or@@ 0.6566378770491997
Tam@@ 1
Town 1
Uchumi 1
imbia 1
adilishwa 1
kalenda 1
mich@@ 1
mzima 1
ulianzishwa 1
Ber@@ 0.6016805266460826
Juu 1
Uswisi 1
beba 1
esabiwa 1
kuondoka 1
kushindwa 1
onia 1
utia 1
Kivuka 1
Kus@@ 1
You 1
jinsia 1
Iringa 1
Sar@@ 1
by 0.025337021219143063
embo 1
gea 1
injini 1
matatu 1
muungano 1
ome 1
Kulingana 1
Singida 1
Vilevile 1
atu 1
ey@@ 1
fik@@ 1
yeyote 1
Ndege 1
iria 1
omunisti 1
upana 1
wali 1
Bas@@ 1
Kiv@@ 1
Nyerere 1
Se@@ 0.47371363599423033
alichunguza 1
alikua 1
hula 1
onda 1
asidi 1
huenda 1
sik@@ 1
tovuti 1
Malawi 1
Pakistan 1
Te@@ 0.8390018427215316
Uz@@ 1
anz@@ 1
hara 1
ind@@ 1
taa 1
1973 0.7405553283189319
Kioseaniki 1
Ndiyo 1
kubali 1
alimtangaza 1
baki 1
chumvi 1
mti 1
oi 1
wasichana 1
We@@ 1
hitimu 1
ke@@ 1
mkali 1
rafiki 1
wanda 1
1967 0.7869198793279265
polepole 1
Ilikuwa 1
afikia 1
huz@@ 1
protini 1
Mau@@ 1
St@@ 0.389170846407834
aminika 1
em 0.6102414220821142
ista 0.9943336333388034
kani 1
pe 0.8708620702633668
sumu 1
tim@@ 1
uga 1
data 1
hibi@@ 1
udongo 1
urithi 1
weusi 1
Urefu 1
aulu 1
ekea 1
iliz@@ 1
utendaji 1
vinavy@@ 1
alitumia 1
ingi@@ 1
kurekodi 1
ms@@ 1
vinavyo@@ 1
esheni 1
kampeni 1
marufuku 1
Washington 0.7169581715873109
ani@@ 1
azama 1
jengo 1
madhara 1
mpiga 1
runinga 1
sw@@ 1
walij@@ 1
win@@ 1
andishi 1
atikana 1
mshairi 1
watawala 1
Kinapatikana 1
Tofauti 1
husababisha 1
ii 1
inj@@ 1
msimbo 1
ngumu 1
ondoa 1
ro 1
M 0.6048787288311376
anzi 1
ava 1
dhana 1
iwe 1
mapya 1
unap@@ 1
Kihispania 1
Kitui 1
Mch@@ 1
Ndani 1
anisha 1
desturi 1
Mil@@ 1
Tun@@ 1
kujua 1
uandishi 1
ababishwa 1
ago 1
etu 1
isheni 1
wasio 1
yanat@@ 1
1965 0.7916811156858536
ahili 1
safi 1
wageni 1
35 0.8494722308421646
600 1
8@@ 0.8868894894836313
Duniani 1
Uch@@ 1
alishiriki 1
emi 1
ihusisha 1
kuuawa 1
Anatolia 1
alifunga 1
eko 1
ipo 1
sio 1
wakuu 1
Mt 1
alirudi 1
anaj@@ 1
ataa 1
eshimiwa 1
kombe 1
mwen@@ 1
ncha 1
ofanywa 1
Mambo 1
hati 1
ilo 1
onge 1
Pol@@ 0.8546173842086361
kukubali 1
zifuatazo 1
Mach@@ 1
Mkutano 1
obaki 1
son@@ 1
anayejulikana 1
ayarishwa 1
bilioni 1
Vit@@ 1
Wengine 1
afiti 1
alivy@@ 1
ilivyo 1
imbwa 1
ivu 1
miz@@ 1
mwingi 1
thi 1
usishwa 1
dio 1
lim@@ 1
majukumu 1
por@@ 1
wetu 1
Ina 1
Moroko 1
agua 1
asha 1
ilif@@ 1
iliyop@@ 1
mani 1
mapato 1
metali 1
neva 1
Per@@ 0.5290774931577967
homa 1
kr@@ 1
mfu@@ 1
wer@@ 1
Bi@@ 0.7726657130281649
Haki 1
vir@@ 1
1971 0.6891142572988922
jini 1
kipimo 1
kizazi 1
kuham@@ 1
mgongo 1
pitia 1
tia 1
Billboard 1
Afya 1
Sababu 1
matendo 1
ubu 1
upe 1
waamini 1
Kr@@ 0.8315117484824871
im 0.04579907066498913
kinat@@ 1
kutumiwa 1
zilizo 1
800 1
Muk@@ 1
Zaidi 1
asim@@ 1
uyu 1
wakimbizi 1
Sak@@ 1
kk 1
kubadilisha 1
labda 1
mzunguko 1
vyakula 1
ze@@ 1
De@@ 0.5105170829566341
Tr@@ 0.3670645171130764
Wav@@ 1
adhili 1
asia 1
chukuliwa 1
mchanga 1
mdomo 1
Msh@@ 1
Uhuru 1
kiini 1
land 0.257857469158782
vipande 1
1962 0.803658148804182
Az@@ 1
Richard 0.7566089592940043
awaliwa 1
ek 0.9809482953643591
kuendeleza 1
kuondoa 1
nuru 1
sk@@ 0.7978352107833363
32 0.8871428090042714
S 0.5044937148983385
alip@@ 1
kibinafsi 1
mitano 1
Ha@@ 1
Hal@@ 1
Kata 1
makampuni 1
mitindo 1
ofanyika 1
undisha 1
volkeno 1
wanaj@@ 1
Bak@@ 1
angulia 1
indi@@ 1
jamhuri 1
sugu 1
tishwa 1
wakifuata 1
Ky@@ 1
Mahakama 1
River 0.4575855737324352
istoria 1
odi 1
onesha 1
Kisovyeti 1
alich@@ 1
id 0.8008811638783593
mtawala 1
okoa 1
vich@@ 1
Awali 1
Ok@@ 1
Ufilipino 1
University 0.17927806744637345
atibu 1
izo 1
kujitegemea 1
msimamo 1
pembe 1
uhai 1
yen@@ 1
1945 0.48491961038538073
Mtu 1
Timu 1
angavu 1
atiwa 1
ber@@ 0.49292331882156
kibinadamu 1
kuitwa 1
kuwat@@ 1
L 0.3662329166945243
ifunza 1
lika 1
linaloitwa 1
owahi 1
ukosefu 1
weze 1
Ri@@ 1
Tunisia 1
ahamu 1
haswa 1
michuano 1
mmonaki 1
,000 1
Black 0.8632163663647963
Wagiriki 1
andaliwa 1
ero 0.8103966371947372
lo 0.2137728118771701
maaskofu 1
ozi 1
rej@@ 1
Bay 1
Denmark 1
etezi 1
ilip@@ 1
inapatikana 1
kufunga 1
kuigiza 1
wazima 1
Wash@@ 1
ames@@ 1
ingatia 1
irikisha 1
kupanda 1
miradi 1
sekta 1
ter@@ 0.3332695182251853
zu 0.07012923227836568
Mg@@ 1
Mtanzania 1
Nchini 1
makanisa 1
CC@@ 1
Familia 1
Kish@@ 1
awishi 1
azamwa 1
he@@ 0.5838843146232746
ka@@ 1
kif@@ 1
madaraka 1
nyeusi 1
wewe 1
Bikira 1
anah@@ 1
azidi 1
nafsi 1
Nd@@ 1
kufundisha 1
ufu 1
Thomas 0.5412465313213161
Vik@@ 1
atak@@ 1
daima 1
hakika 1
hudhuria 1
kezwa 1
ph@@ 0.46425505656925303
1,000 1
ahi 1
airi 1
fikia 1
madawa 1
Jiji 1
Lin@@ 1
Maf@@ 1
Poland 1
adilisha 1
isababisha 1
tamaduni 1
kuboresha 1
kudhibiti 1
uzima 1
wakulima 1
wokovu 1
Hivi 1
K 0.6630476467312141
egem@@ 1
embelea 1
haina 1
kulevya 1
kupewa 1
kutawala 1
ogoro 1
opita 1
1966 0.7267714839036659
Massachusetts 1
Mz@@ 1
ese 0.4805164536758239
imbo 1
mu 1
ufa 1
Tibeti 1
ababisha 1
anikiwa 1
elfu 1
10,@@ 1
Dh@@ 1
Ham@@ 1
Ili 1
Mashindano 1
ch 0.35059964203764427
ers 0.12597136112888083
il 0.0676697547706602
kuongea 1
ubiri 1
vilivyo@@ 1
Kiyahudi 1
Martin 0.7354196904608676
Ol@@ 1
P 0.6327054908386648
Park 0.4568058697064844
gitaa 1
ikiwemo 1
kupinga 1
maz@@ 1
mnyama 1
pi 1
1968 0.6273649649178821
20@@ 1
Bug@@ 1
Chanzo 1
Gar@@ 0.9391717378761145
Lo@@ 0.7737174983264711
hali@@ 1
kal@@ 1
lile 1
Mfumo 1
Mkurugenzi 1
Mug@@ 1
jarida 1
tawimto 1
34 1
Kup@@ 1
Pasifiki 1
aro 1
kuzingatia 1
oksijeni 1
urahisi 1
Mbali 1
UEFA 1
bea 1
Vip@@ 1
aliishi 1
mwilini 1
ton 0.3344926475421338
ut 1
G 0.5731574135977069
Kisino 1
Lagos 1
amizi 1
mahakama 1
mungu 1
Sim@@ 1
mtazamo 1
watumiaji 1
aliamua 1
ion@@ 1
shirikisho 1
ukia 1
zu@@ 1
La@@ 1
baadae 1
jamaa 1
mashauri 1
meno 1
Sab@@ 1
mv@@ 1
profesa 1
umiaji 1
utambuzi 1
Uk@@ 1
ard 0.43172254350246375
ey 0.5981712263282982
hairi 1
kujifunza 1
sikukuu 1
tamthilia 1
uharibifu 1
achana 1
nywele 1
uigizaji 1
utwa 1
wezekana 1
yule 1
aktari 1
kuanzishwa 1
om 1
tamasha 1
wanaishi 1
chembe 1
kaz@@ 1
kubaliwa 1
la@@ 1
ost@@ 1
Shahada 1
ete 1
kifaa 1
utumwa 1
yame@@ 1
Pi@@ 0.8083316217968919
ababishi 1
bonde 1
hawana 1
inayopatikana 1
kiti 1
muongo 1
omwa 1
umaini 1
… 0.7429768462390375
Kamati 1
Kiroma 1
Maeneo 1
Tiba 1
afsiri 1
ajali 1
aliye 1
has@@ 1
ishinda 1
madai 1
wanam@@ 1
11,@@ 1
35@@ 1
chochote 1
kig@@ 1
kule 1
utana 1
Mazingira 1
aguzi 1
aliyem@@ 1
ekani 1
fur@@ 1
hari@@ 1
kisanii 1
tajiri 1
vipengele 1
Mwanzoni 1
Wizara 1
adhabu 1
aliyezaliwa 1
haik@@ 1
mateso 1
uasi 1
Hak@@ 1
anach@@ 1
homoni 1
jipya 1
malaria 1
ore 0.6913606060008942
ukuma 1
wafanyabiashara 1
Isi@@ 1
kina@@ 1
marafiki 1
taaluma 1
udiwa 1
F 0.49337589571211465
hujulikana 1
kuweza 1
mbinguni 1
onyesho 1
Em@@ 1
Mwanam@@ 1
Nyota 1
enge 1
enia 1
hisi 1
icha 1
kuhitimu 1
kupanga 1
kutekeleza 1
malengo 1
rasi 1
tab@@ 1
May@@ 1
Teknolojia 1
Way@@ 1
eba 1
endeleza 1
eon@@ 1
kemikali 1
na@@ 1
osisi 1
pos@@ 0.7703977679091256
ulio 1
Katibu 1
inayojulikana 1
kuzaa 1
magazeti 1
saratani 1
takatifu 1
uto 1
yu 1
Uh@@ 1
inaitwa 1
kumaanisha 1
msaidizi 1
ope 1
ungi 1
zo@@ 1
2,000 1
Ba@@ 1
Love 1
Men@@ 1
esa 1
huohuo 1
jangwa 1
kilele 1
kumt@@ 1
ser@@ 0.6025464204673736
wasiwasi 1
Bara 1
Nyak@@ 1
ford 0.6459939282418626
kuku 1
sinema 1
tumbo 1
uhusiwa 1
wad@@ 1
33 0.9869566800114195
Berlin 0.493656520852251
Bon@@ 1
Mash@@ 1
adai 1
alipot@@ 1
awiwa 1
changia 1
eti@@ 1
fin@@ 0.7349294653017222
mon@@ 0.3402972720473091
orodheshwa 1
Br@@ 0.4025414523139903
Fal@@ 1
Gr@@ 0.4787041331316696
angalau 1
iliyoko 1
oke 1
sam@@ 1
zaji 1
Af@@ 1
ega 1
ishe 1
kushirikiana 1
mahusiano 1
tw@@ 0.957249116892705
Asi@@ 1
San@@ 0.9895689982881549
akatifu 1
ambu@@ 1
esia 1
fan@@ 1
jaa 1
kifalme 1
mshambuliaji 1
okuwa 1
unza 1
$ 0.253386878168477
Anajulikana 1
Baringo 1
Bun@@ 1
adil@@ 1
hud@@ 1
iliyofuata 1
mbadala 1
wamisionari 1
1000 1
Konstantinopoli 1
Min@@ 0.8357478768289717
Ngu@@ 1
Nyimbo 1
ileta 1
mbwa 1
upepo 1
abi 1
ashiria 1
br@@ 0.3037610218153445
hifadhiwa 1
makosa 1
nj@@ 1
taji 1
unja 1
Namibia 1
So@@ 0.8519666606068212
Watoto 1
abiri 1
afi 1
akia 1
beki 1
chapisha 1
mchana 1
uliza 1
Cor@@ 0.44493829275780944
Jipya 1
King 0.5048270885535712
Una 1
ami@@ 1
awamu 1
endeshwa 1
fanyika 1
idara 1
igwa 1
mid@@ 1
Hadithi 1
age 0.1411489129891398
agiza 1
apokuwa 1
linalot@@ 1
me 0.3504462979852986
oda 1
ot 0.6163358010167725
tar@@ 0.9509821830829265
wajibu 1
wangu 1
1958 0.7118294668490048
36 0.9654277113727703
Hat@@ 1
Nj@@ 1
emekana 1
furaha 1
kikoloni 1
mabaki 1
omb@@ 1
unge 1
usiana 1
wazee 1
1959 0.732747089228129
Miji 1
Party 0.5176144434218819
afisa 1
re 0.2812522910121044
yaliyo 1
700 1
Coast 1
Ireland 0.9203889774657875
Kipama 1
Rasi 1
balozi 1
bia 1
elekeza 1
eswa 1
mwelekeo 1
ufundi 1
zinabaki 1
DJ 1
Johannesburg 1
Mir@@ 1
Narok 1
ahitaji 1
ambukizwa 1
ande 1
kibao 1
kinachot@@ 1
kubeba 1
Er@@ 0.3875427256458593
endi 1
kamati 1
koo 1
kukom@@ 1
kuunganisha 1
lit@@ 1
mabaya 1
upa 1
vi 1
0.@@ 0.8722132221548907
Eritrea 1
He@@ 0.5946116171521091
Kiti@@ 1
Pr@@ 0.5010499304031287
Sek@@ 1
Viktoria 1
ameichezea 1
anzia 1
esho 1
kiwa 1
kuti@@ 1
waw@@ 1
zit@@ 1
Madrid 1
Mand@@ 1
ajit@@ 1
kigeni 1
no 0.09212069210355532
ofautiana 1
shaba 1
uhandisi 1
uishe 1
upungufu 1
utengenezaji 1
Kanda 1
Kimarekani 1
Kiw@@ 1
astronomia 1
azwa 1
ilis@@ 1
jitokeza 1
mhusika 1
ongea 1
ungumza 1
unua 1
urais 1
1930 0.6692589233918155
Kij@@ 1
giza 1
kupungua 1
mila 1
ngono 1
ubora 1
von 0.026879077336021923
ziara 1
zisizo 1
Jean 0.3977780589251569
Ne@@ 0.4864008699685753
Wareno 1
fi@@ 0.8560337186732181
huadhimisha 1
ikuu 1
lu@@ 0.703847848236536
udhibiti 1
Alimfuata 1
Es@@ 0.738021323710282
Kipindi 1
ichezea 1
kutetea 1
lahaja 1
maafisa 1
tafsiri 1
45 0.6634445433591125
Bab@@ 1
Central 0.5734073618784653
Mc@@ 0.4269630316507003
aliuawa 1
jumuiya 1
kikamilifu 1
kuelewa 1
wafalme 1
Ana 1
Huduma 1
Kiroho 1
Maw@@ 1
Rufiji 1
Sultani 1
Vijana 1
biolojia 1
inataja 1
patikana 1
tel@@ 0.8649986362584493
umbi 1
8,000 1
Kichina 1
Malaysia 1
ahamika 1
chumba 1
eja 1
ikua 1
iliyotolewa 1
itu 1
jumba 1
liko 1
sanamu 1
tah@@ 1
uwepo 1
Chad 1
Mohamed 1
Wany@@ 1
haiku@@ 1
kufun@@ 1
linaweza 1
maarifa 1
umet@@ 1
unia 1
Los 0.2179281752049572
eleka 1
hav@@ 1
ho 1
magadi 1
upili 1
vij@@ 1
Henry 0.6224552311788508
Kisi@@ 1
Msingi 1
fah@@ 1
kadhalika 1
Alipo@@ 1
Amani 1
hakuwa 1
hoteli 1
ondo@@ 1
osababishwa 1
vyenye 1
Hungaria 1
Takwimu 1
Ub@@ 1
chao 1
ombea 1
pasipo 1
so 0.154566909490261
wawa 1
yasiy@@ 1
Arsenal 1
Karne 1
Musa 1
Mzee 1
Uko 1
aliwa@@ 1
dis@@ 0.18367890138435392
fariki 1
hin@@ 1
matawi 1
mifano 1
saidia 1
Ke@@ 1
Mwishoni 1
Shinyanga 1
ambi@@ 1
eno 1
hisa 1
kuchangia 1
kushoto 1
kusudi 1
penye 1
pl@@ 0.3629657145726876
waya 1
9@@ 0.7552712248974485
Julius 1
Mul@@ 1
Mwana 1
Sch@@ 0.22301069324338996
Ti@@ 1
achukua 1
hibiti 1
ic 0.26443840038130106
ikisha 1
mimi 1
saf@@ 1
ungan@@ 1
v 0.575205242356414
Ben@@ 0.9276080605779232
Waz@@ 1
hitaji 1
inaadhimishwa 1
kambi 1
kol@@ 1
kutana 1
liturujia 1
tasnia 1
vyanzo 1
zaa 1
At@@ 0.9494986158660449
Mwalimu 1
Postikodi 1
aminifu 1
kish@@ 1
mtangazaji 1
thelathini 1
1957 0.7069374741809705
Bor@@ 0.6959393741808338
Louis 0.5163528062491107
Sp@@ 0.5897950517039369
To@@ 0.9857645910102409
Waliozaliwa 1
bodi 1
doa 1
haja 1
imbi 1
karatasi 1
tiwa 1
weni 1
Nakuru 1
Tab@@ 1
Tabia 1
ambamo 1
amuzi 1
etwa 0.4371291658960164
hamu 1
huf@@ 1
ingine 1
kurej@@ 1
mot@@ 1
mwamba 1
pende@@ 1
walis@@ 1
andam@@ 1
aum@@ 1
hai@@ 1
isionari 1
waliuawa 1
Bus@@ 1
Mediteranea 1
Mitume 1
Nyungan 1
hughulikia 1
mada 1
men@@ 0.8311992352147709
mume 1
wany@@ 1
Co@@ 0.3756464149391148
Sel@@ 1
aminiwa 1
aus@@ 0.2681979808034923
indaji 1
jozi 1
makumbusho 1
uamuzi 1
undu 1
Kumbe 1
VI 1
Wadogo 1
chanjo 1
hisabati 1
huk@@ 1
mishipa 1
pak@@ 1
takwimu 1
wanas@@ 1
watawa 1
1940 0.5662862289039986
Com@@ 0.47073716623462813
ahi@@ 1
engen@@ 1
ganda 1
mgonjwa 1
mkoani 1
ok 1
uhusika 1
ukumbi 1
umbuiza 1
wakit@@ 1
wanne 1
Col@@ 0.41210141735183353
Kufikia 1
anas@@ 1
arib@@ 1
hofu 1
iliendelea 1
iliyoitwa 1
jum@@ 1
maandiko 1
mabawa 1
makali 1
akifanya 1
alivyo@@ 1
che 0.5524842630724557
laini 1
mahindi 1
tut@@ 1
waliop@@ 1
ziada 1
Sir@@ 1
Toleo 1
hewani 1
linatokana 1
ripoti 1
sit@@ 1
taka 1
walifariki 1
Gal@@ 0.847524153833863
TANU 1
araka 1
hadhi 1
hesabiwa 1
inaonekana 1
teolojia 1
uno 0.5717517416777855
Me 1
elew@@ 1
hana 1
ifu@@ 1
jumuia 1
kutibu 1
mwake 1
panya 1
tendo 1
viz@@ 1
Dam@@ 1
Fel@@ 1
Kadiri 1
Syria 1
amba@@ 1
est@@ 0.3970945203506271
haij@@ 1
inae 1
sadaka 1
walimu 1
Alis@@ 1
Anat@@ 1
Man 0.77752836853333
Utamaduni 1
XIII 1
ambuzi 1
kuandaa 1
misingi 1
ongozi 1
pop 1
vip@@ 1
visa 1
1948 0.6181550968196821
Bel@@ 0.5583916371101096
Im@@ 0.8325536500632549
Milki 1
Ruyigi 1
akap@@ 1
alionekana 1
jenga 1
maradhi 1
ushawishi 1
12,@@ 1
1956 0.6313348919439163
3,000 1
Mk@@ 1
Nje 1
akilishi 1
aku@@ 1
ambulika 1
bin@@ 1
mhandisi 1
salama 1
Benin 1
Sen@@ 1
bak@@ 1
chi@@ 1
der@@ 0.3680331785856439
edi 1
engi 1
imi 1
vibaya 1
1954 0.6893066966517293
Ker@@ 1
Matokeo 1
Palestina 1
baraza 1
duni 1
kukimbia 1
kulinda 1
mbu@@ 1
ufanisi 1
yeji 1
33@@ 1
Wengi 1
XII 1
alitangaza 1
auri 1
diwa 1
emia 1
gavana 1
hamia 1
hudumia 1
iliyozungumzwa 1
kea 1
kipekee 1
mauzo 1
mkusanyiko 1
37 1
Alifanya 1
Ger@@ 0.6300786679749125
ais@@ 1
angia 1
bain@@ 1
hiri 1
inapo@@ 1
lang@@ 1
lolote 1
mema 1
mfanyabiashara 1
nus@@ 1
waliweza 1
1949 0.6471898041358889
Makueni 1
Pemba 1
UB 1
Wen@@ 1
abar@@ 1
alisha 1
isia 1
itajika 1
mwenzake 1
pendekeza 1
waliz@@ 1
yasiyo 1
Ghuba 1
Mary 0.708040613324113
epata 1
kimsingi 1
kuendesha 1
kuten@@ 1
lingine 1
miundo 1
mkia 1
pokuwa 1
pol@@ 0.7559905994750851
q 1
tal@@ 1
Amechaguliwa 1
aidi 1
aliitwa 1
ambulia 1
ein@@ 0.2561842142234893
kiasili 1
kuit@@ 1
okaa 1
pa@@ 1
Nas@@ 1
amech@@ 1
angulizi 1
huka 1
imiza 1
kupambana 1
kuua 1
mikutano 1
mkopo 1
pofu 1
sisi 1
unguzwa 1
upi 1
Waswahili 1
irik@@ 1
kijani 1
kitengo 1
nd@@ 1
per@@ 0.28224122553134695
rapa 1
walitumia 1
Bah@@ 1
Kiny@@ 1
Kun@@ 1
Meru 1
Nyeusi 1
Yosefu 1
chan@@ 1
dua 1
kaboni 1
malipo 1
mapadri 1
F.C. 1
Hassan 1
Maana 1
Mahali 1
Mexico 0.9091551304314147
P. 1
Video 1
ica 0.4109532527768259
iliza 1
kutunga 1
mitaa 1
mta@@ 1
mwanas@@ 1
tishu 1
unukiwa 1
vigumu 1
wakilishi 1
23@@ 1
Klabu 1
Mkataba 1
Sw@@ 1
bul@@ 0.9299074444711802
ikolojia 1
jaribio 1
kipya 1
miungu 1
vinaweza 1
Award 0.4909850876546986
Ay@@ 1
Benedikto 1
Moshi 1
Wataalamu 1
fani 1
imwa 1
inde 1
ite 0.321992318784169
malkia 1
michache 1
oweka 1
Con@@ 0.28176540069089173
Mifano 1
Ofisi 1
arajiwa 1
der 0.008798516079101499
kukosa 1
pelekwa 1
sil@@ 1
wir@@ 1
1920 0.5796718117419792
J. 0.6693678803919835
Jazz 1
Kiulaya 1
Manyara 1
Mwisho 1
Real 1
achia 1
afanua 1
don@@ 1
elezwa 1
go 0.48999589528343673
kara 1
kodi 1
kuchang@@ 1
magumu 1
moshi 1
ofaa 1
uke 1
wahusika 1
weupe 1
1947 0.6342769652821463
Du@@ 0.820267796162438
Georgia 1
Idara 1
Mari@@ 1
My 1
Tan@@ 1
akis@@ 1
bas@@ 0.6640882293780869
berg 0.3970340311417368
idhi 1
jwa 1
kukusanya 1
lam@@ 0.8544740985680223
ous 0.24322810224473554
oza 1
tropiki 1
kor@@ 1
sem@@ 1
shindano 1
tazama 1
Anaheshimiwa 1
Daniel 0.9426717251953408
Dawa 1
Gitega 1
Homa 1
Iran 1
akaf@@ 1
fanikiwa 1
hamsini 1
huishi 1
ian 0.5684994732103211
kuruka 1
mazuri 1
nyuklia 1
ofia 1
vikubwa 1
Ir@@ 1
Kad@@ 1
St. 0.3394585629387272
UN@@ 1
kahawa 1
kupi@@ 1
mchango 1
mmea 1
umikia 1
Afghanistan 1
Alicheza 1
Edward 0.8626829563310503
Maelezo 1
Mut@@ 1
Nik@@ 1
air@@ 0.7019726160248223
ajiriwa 1
bilia 1
kupoteza 1
mpakani 1
sanifu 1
ubunifu 1
waliendelea 1
47 1
Kampala 1
alikufa 1
enya 1
hua 1
maduka 1
unduliwa 1
wahamiaji 1
1918 0.6299587665978233
Angeles 0.6992511600452433
Brown 0.9149983238394822
Pulitzer 1
aini 1
alimu@@ 1
anyiwa 1
azimishwa 1
dhar@@ 1
ensi 1
funguvisiwa 1
sm 1
uel@@ 1
uvamizi 1
agizo 1
ambulisha 1
ikana 1
kiv@@ 1
kupima 1
meneja 1
1955 0.6475618718041125
Alisoma 1
Ikiwa 1
Waw@@ 1
adilifu 1
ekelezwa 1
mavazi 1
vikosi 1
wito 1
100,000 1
Fr@@ 0.5522047039673216
Hospitali 1
Kajiado 1
Kiasia 1
Shab@@ 1
abaki 1
dom@@ 1
hekalu 1
imekaribia 1
kujiua 1
lenyewe 1
wanadamu 1
20,000 1
Simba 1
fundisha 1
halijoto 1
ishiwa 1
jen@@ 1
masaa 1
pig@@ 1
tum@@ 1
viv@@ 1
wo@@ 1
zimet@@ 1
B. 0.5499110224200411
Bou@@ 1
DNA 1
Karibi 1
Muda 1
Wafiadini 1
Wang@@ 1
endwa 1
likiwa 1
molekuli 1
nyoka 1
umbuzi 1
— 0.03066087244193234
1952 0.6282250580477133
Bre@@ 0.766374119273495
Dalili 1
Mich@@ 1
Sheikh 1
aikolojia 1
alichukua 1
alig@@ 1
anayet@@ 1
des 0.012777580514282216
huv@@ 1
mapatano 1
mtaa 1
ongwe 1
tamaa 1
uaji 1
Academy 0.6105707659753352
Karibu 1
Sau@@ 1
Tor@@ 0.6078804958272099
ache 1
ens@@ 0.3051206168284915
imi@@ 1
imp@@ 1
kifedha 1
kutunza 1
lililot@@ 1
49 1
Elizabeth 1
a. 1
asubuhi 1
hab@@ 1
iliyoanzishwa 1
mgombea 1
peleka 1
sp@@ 0.2960456799250115
ukuu 1
Albert 1
Bongo 1
Cas@@ 0.6757881758183654
Daudi 1
My@@ 1
One 0.3462692835199327
Waisraeli 1
Waroma 1
ajiunga 1
amer@@ 1
eshaji 1
igiza 1
kusafiri 1
lio 1
makoloni 1
matangazo 1
nyuzi 1
vyao 1
wamet@@ 1
Dar@@ 0.8518605075658577
Smith 0.6314598185043669
Ugonjwa 1
ajumuisha 1
atika 1
edi@@ 1
oe 1
pigwa 1
tish@@ 1
State 0.2336386434143366
anti 0.7328293725874689
anti@@ 0.5511008888300186
asai 1
ghafla 1
her@@ 0.40207439805540907
masharti 1
miamba 1
uk 1
Go@@ 0.6766564556418438
Lam@@ 1
Victoria 0.9971427513625936
fuatwa 1
halali 1
idai 1
mifugo 1
mifupa 1
owekwa 1
pana 1
pole 1
shamba 1
vijijini 1
vipaji 1
County 0.20396166592979786
Os@@ 1
anyia 1
ask@@ 1
cheza 1
ilio 1
les 0.02329544896454545
walifanya 1
Halafu 1
Jumba 1
Ms@@ 1
Pal@@ 0.7877086002937771
Qu@@ 0.39497866973927337
Ro@@ 0.45200717179788014
adhaiko 1
amt@@ 1
avi 1
inayom@@ 1
kong@@ 1
misuli 1
mitandao 1
mwenyeji 1
sah@@ 1
yuko 1
1.@@ 0.7517805452323333
Barcelona 1
De 0.25391244654358613
Mbinu 1
Muundo 1
Nyeri 1
Tume 1
atokea 1
inayoh@@ 1
kifodini 1
lilianzishwa 1
oku@@ 1
osim@@ 1
sekunde 1
uliofuata 1
umbe 1
13,@@ 1
FA 1
Jubba 1
Lee 0.7937859617136558
Uli@@ 1
Wafaransa 1
arobaini 1
bele 1
bure 1
manispaa 1
mashabiki 1
wab@@ 1
Alishinda 1
It 0.05490902468087433
Kiitalia 1
Sol@@ 0.6346033402572411
Zealand 0.7941616977476038
ado 0.12322592024302306
ainishwa 1
alijit@@ 1
aliv@@ 1
elli 1
go@@ 0.9158849184271998
kutangaza 1
mkojo 1
ukuta 1
Jambo 1
Kenyatta 1
Sekondari 1
Um@@ 0.8125205361766585
Yakobo 1
amiza 1
andamizi 1
hariri 1
kadi 1
kimwili 1
kuungana 1
mjumbe 1
ongo@@ 1
ungano 1
usafi 1
wel@@ 1
1900 0.8240317076286029
900 1
Geita 1
Norwei 1
Sk@@ 1
dea 1
ine@@ 1
inus 1
kuchaguliwa 1
kuhakikisha 1
kuwapa 1
mwanariadha 1
njaa 1
pu 1
sigara 1
uteuzi 1
uzaji 1
uzoefu 1
150 0.9911900848110792
Math@@ 1
Sasa 1
Watakatifu 1
bahati 1
gr@@ 0.29726791016789533
kikapu 1
kosa 1
ly 0.18792385643362608
maili 1
misaada 1
ne@@ 0.35397954310207463
wanaf@@ 1
zuia 1
Mun@@ 1
Nab@@ 1
fuat@@ 1
kuzalisha 1
msichana 1
tabaka 1
udishwa 1
wil@@ 1
0,@@ 0.8121291873131643
azimio 1
fursa 1
kuamua 1
kuzi@@ 1
mkondo 1
mzee 1
tambarare 1
wapinzani 1
1946 0.5273195067311052
Hot 1
ondolewa 1
ongezwa 1
wo 0.4197631128339615
ā@@ 0.7177791915561926
39 0.9780231455971219
Buk@@ 1
Niger 1
Times 0.7948125986379841
aliongoza 1
anapo@@ 1
ikuja 1
iyo 1
majeraha 1
mumewe 1
ofika 1
ubwa 1
udi@@ 1
watano 1
1953 0.6161960139334678
42 0.8891997920542706
Kireno 1
Texas 0.5802348319498453
athira 1
farasi 1
haf@@ 1
kamwe 1
kuchunguza 1
wepo 1
Mwanzo 1
aliji@@ 1
amano 1
ation 0.06910689818336715
bwana 1
egawanyika 1
faulu 1
kirefu 1
lebo 1
onde 1
paswa 1
thibitishwa 1
utalii 1
utheri 1
va 0.45366531087782663
wachanga 1
zinapatikana 1
Don@@ 1
Kag@@ 1
Kiambu 1
Kikatoliki 1
Kimungu 1
Pangani 1
haikuwa 1
hiari 1
ichi 1
kuwaf@@ 1
umbukwa 1
unjika 1
za@@ 1
Njombe 1
Wana@@ 1
alihitimu 1
atilia 1
digrii 1
hawa@@ 1
ilig@@ 1
kukutana 1
ler 0.20864495631588328
marefu 1
zilizokuwa 1
48 0.8814698120518517
Foundation 1
Mabadiliko 1
Sher@@ 1
abiria 1
akwa 1
anguka 1
anus 1
fizikia 1
mlango 1
mo 1
ner 0.2758554209139726
nim@@ 1
njano 1
pel@@ 0.9445636794148338
ramani 1
ufafanuzi 1
usanya 1
ville 0.20662727443065484
45@@ 1
Cal@@ 0.5588275767825478
Khan 1
adha 1
akaendelea 1
alishwa 1
awan@@ 1
futwa 1
hait@@ 1
hio 1
ini@@ 1
jer@@ 1
kuzunguka 1
ufi 1
IC@@ 1
Pro@@ 0.41624645065482224
Wote 1
bur@@ 0.6143110385797349
ingizwa 1
kijivu 1
ongozaji 1
tawala 1
ushauri 1
wanapo@@ 1
75 0.7645198331471185
Jo@@ 1
Sin@@ 1
Sum@@ 1
aliona 1
athirika 1
bendera 1
bol@@ 1
hukumu 1
jaribu 1
lisha 1
tarakilishi 1
ubi 1
Karthago 1
Wanyama 1
Ya 1
achangia 1
adui 1
apaswa 1
awanyika 1
az 0.9369559454057623
die 0.012143776139559801
gia 0.5417000378379435
igh@@ 1
kitaaluma 1
kununua 1
maandamano 1
umu@@ 1
utajiri 1
viny@@ 1
38 0.7802360840441319
Gi@@ 0.8177733936504605
Juma 1
Kanuni 1
Matibabu 1
Serbia 1
Van 0.9846002142385873
alizika 1
alu 1
atomu 1
boa 1
eleweka 1
ilir@@ 1
itia 1
mshauri 1
mwangaza 1
mweusi 1
oba 1
sab@@ 1
unah@@ 1
wanash@@ 1
Elfu 1
Mel@@ 0.7885307869084038
Yoh 1
elelezi 1
ianchi 1
ilib@@ 1
kuy@@ 1
mlipuko 1
nak@@ 1
opewa 1
wandani 1
wapo 1
Aj@@ 1
anyiko 1
embamba 1
huonekana 1
k.m. 1
kupumua 1
okus@@ 1
sum@@ 0.8744456733766012
Bururi 1
Kah@@ 1
Kemia 1
Kifo 1
Kilele 1
Kiorthodoksi 1
No@@ 0.852368565093074
Ud@@ 1
aani 1
ast@@ 0.8523031127672188
babu 1
cho 0.23713171530691593
ick 0.5555433368704342
ilishinda 1
imek@@ 1
injili 1
je@@ 1
kilit@@ 1
kingine 1
kujik@@ 1
ogopa 1
saini 1
sukari 1
ungumzia 1
uvuvi 1
washiriki 1
Ash@@ 1
Kilimo 1
Lengo 1
afaa 1
akafuatwa 1
akas@@ 1
amana 1
ec@@ 0.23554555552761158
edonia 1
kuimarisha 1
kuny@@ 1
makamu 1
mikononi 1
mwanafizikia 1
pal@@ 0.7465393940539102
tambu@@ 1
vitendo 1
wakiwemo 1
zawadi 1
zima 1
1939 0.4628009291265617
55 0.87167729139282
Chelsea 1
Fizikia 1
Takriban 1
avyot@@ 1
ipata 1
jia 1
kahawia 1
kutaka 1
usambazaji 1
visi@@ 1
vyema 1
yafuatayo 1
Rangi 1
Wana 1
ajira 1
alitaka 1
anishwa 1
chaguliwa 1
igizaji 1
ilivy@@ 1
imef@@ 1
isiyo@@ 1
kezo 1
kutenda 1
udisha 1
CD 0.7231638457720496
Picha 1
Ug@@ 1
afu@@ 1
alikubali 1
ary 0.23944458331784477
gun@@ 1
hotuba 1
ishughulisha 1
iw@@ 1
izaji 1
kima@@ 1
mbao 1
shuleni 1
thibitisha 1
uhamisho 1
uziki 1
14,@@ 1
Bin@@ 1
Che@@ 1
Fl@@ 0.5517441348838967
Kikan@@ 1
Mwenyekiti 1
Tatu 1
Vir@@ 1
afsiriwa 1
bibi 1
emp@@ 1
ez 0.9765394143008331
huch@@ 1
ipoti 1
pr@@ 0.27011090113741565
temi 1
usio 1
ustawi 1
yap@@ 1
250 1
Katiba 1
Libya 1
Mexiko 1
akadiriwa 1
alikwenda 1
ambukiza 1
amiaji 1
fuko 1
kiafya 1
kuza 1
makundinyota 1
mhariri 1
sak@@ 1
1888 1
AN@@ 1
E. 0.8769217151504775
Kilwa 1
O.@@ 1
Uchunguzi 1
Vitabu 1
Wahispania 1
anaishi 1
anta 1
ap 0.9914570452230796
huruma 1
kuangalia 1
kujif@@ 1
wek@@ 1
000 0.5461282747139243
Andrea 1
Kak@@ 1
Said 1
UNESCO 1
Union 0.3157635693307614
amisha 1
bay@@ 1
hawaj@@ 1
hazina 1
hekima 1
kusik@@ 1
mazungumzo 1
mizigo 1
nyasi 1
ushirika 1
utaji 1
Bul@@ 1
Cha 1
Licha 1
Mbu@@ 1
Mwenyezi 1
Nepal 1
Rus@@ 1
_ 0.1257631679774054
alir@@ 1
anaf@@ 1
atili 1
bidii 1
ent@@ 0.18835888537182363
inaz@@ 1
itisha 1
kunywa 1
sabini 1
shabaha 1
ulizi 1
vig@@ 1
vilivyo 1
14@@ 1
1886 1
All 0.28865182558750907
Mpango 1
Mtoto 1
Ngozi 1
aliana 1
alimu 1
burudani 1
mapambano 1
ukanda 1
utakatifu 1
vina@@ 1
waliok@@ 1
Moja 1
Pe@@ 0.5977852045154113
awas@@ 1
geni 1
hoja 1
inaonyesha 1
kocha 1
kupo@@ 1
majadiliano 1
marehemu 1
nik@@ 1
ongwa 1
opata 1
uwa 1
41 0.9245349836776726
Dini 1
Fasihi 1
Florida 0.7112526615601618
Pasaka 1
achwa 1
ambaza 1
anafanya 1
aume 1
huhu@@ 1
ilihesabiwa 1
majini 1
nyanda 1
petroli 1
tisho 1
ty 0.29398331417085943
unaopatikana 1
vol@@ 0.5970898095396595
Bi 1
J 0.6867723462742044
Liberia 1
Togo 1
aje 1
anzania 1
araj@@ 1
ebe 1
hari 1
kadha 1
kati@@ 1
kupot@@ 1
maumbile 1
ve 0.07967665436936892
wi@@ 1
yapo 1
Ime@@ 1
Zamani 1
maelfu 1
mand@@ 1
omi 1
ufugaji 1
utiwa 1
Mdo 1
Soka 1
dansi 1
gol@@ 1
huanza 1
kandanda 1
kujulikana 1
kurudisha 1
manne 1
mny@@ 1
ongozo 1
pun@@ 1
uhakika 1
unguliwa 1
unuliwa 1
utume 1
15,@@ 1
Alitokea 1
IX 1
ate@@ 1
ayansi 1
del 0.023936864021949153
elezo 1
jo@@ 1
kamusi 1
liki@@ 1
mguu 1
mtendaji 1
ororo 1
osema 1
ubao 1
usiano 1
vina 1
Machakos 1
Pan@@ 0.6829048821603593
XX@@ 1
ger@@ 0.43896226087090556
hush@@ 1
hutegemea 1
ikuwepo 1
ilishwa 1
katoliki 1
kufik@@ 1
misimu 1
orodhesha 1
shirikisha 1
ukamilifu 1
vikali 1
Don 0.7915239789120431
FM 1
Wil@@ 0.7089048671897511
efanya 1
eva 1
kilichot@@ 1
mbuga 1
sar@@ 1
tas@@ 1
ulich@@ 1
13@@ 1
Jumapili 1
Kipapua 1
M. 0.6507193325485365
Mac@@ 0.5519903890448609
Mip@@ 1
Moi 1
Sala 1
afsi 1
dutu 1
ekana 1
iganaji 1
matamshi 1
mitambo 1
nahodha 1
vilikuwa 1
Hatua 1
Society 0.4653802059195229
anyi 1
emasi 1
inam@@ 1
inzani 1
jiwe 1
mm 0.4910168655326927
mwanah@@ 1
nafaka 1
no@@ 0.34528765183307253
pelekea 1
tumaini 1
Abu 1
Armenia 1
Ish@@ 1
Pen@@ 0.9786019756281303
Rukwa 1
Sul@@ 1
ach 0.4033593953265284
ele@@ 1
imes@@ 1
kukab@@ 1
liv@@ 1
mahojiano 1
maigizo 1
mistari 1
nadra 1
ov 0.535175975705526
tihani 1
ukawa 1
uzamili 1
wafanyikazi 1
waka 1
wema 1
American 0.10648264543131818
Simiyu 1
akij@@ 1
ario 0.6163474911304946
ayarisha 1
bab@@ 1
inal@@ 1
kunako 1
mtaguso 1
ujiza 1
waliona 1
zisiz@@ 1
1951 0.5688749841933783
30@@ 1
Chicago 0.5298110169194659
Hut@@ 1
Meksiko 1
Msimu 1
Say@@ 1
ambulisho 1
dhaifu 1
ingiza 1
ishika 1
jike 1
kamp@@ 1
kijinsia 1
unene 1
vo 1
zikiwa 1
Alexander 0.6524638132767738
Alipokuwa 1
Ju@@ 1
Kuz@@ 1
Mradi 1
bal@@ 0.5625945532803938
bunduki 1
elo 1
fung@@ 1
mip@@ 1
sen@@ 0.5633374750961706
ubini 1
uvi 1
yas@@ 1
H 0.4658904523888287
Songwe 1
akash@@ 1
alam@@ 1
alsafa 1
bon@@ 1
kiwanda 1
mboga 1
pua 1
qu@@ 0.24438244886893046
umekuwa 1
43 0.9130978320266065
Binadamu 1
Ji@@ 1
Manisipaa 1
Sam 1
ajiliwa 1
aliingia 1
ans 0.11507337598012932
aru 1
bizi 1
eket@@ 1
ell 0.31792989410905154
kifua 1
kukataa 1
ografia 1
sitini 1
tani 1
tisini 1
tra 0.6609711722801124
yewe 1
zaliwa 1
44 0.7010986615144496
Aw@@ 1
Group 0.4111385292245489
Imam 1
League 0.1695731904719995
Romanum 1
afan@@ 1
akaanza 1
ambatana 1
antu 1
hukumiwa 1
ido 0.4380315295039741
ilika 1
inawezekana 1
ire 0.49543512492088854
iya 1
jam@@ 1
kueneza 1
kuishia 1
kupigwa 1
kuwekwa 1
muigizaji 1
ofa 1
ohusika 1
onge@@ 1
protestanti 1
tir@@ 1
uliokuwa 1
watalii 1
ziki@@ 1
Ana@@ 1
Hor@@ 0.6598652320034345
Jones 0.7503066733629082
Kinyume 1
Mos@@ 1
Tena 1
changamoto 1
darasa 1
esabu 1
hafla 1
iliyof@@ 1
kugundua 1
kuhifadhi 1
kuhusiana 1
limetokana 1
piga 1
utekelezaji 1
1941 0.3927326258289486
Lyon 1
akato 1
amatwa 1
ange 1
ass@@ 0.34074778134211925
ella 0.3530844840085121
hawaku@@ 1
hutofautiana 1
iwapo 1
kumbe 1
maabara 1
maadui 1
makubaliano 1
pon@@ 1
tuna@@ 1
wizara 1
52 0.8622942828633089
Democratic 0.8796750370334484
Makamu 1
Waprotestanti 1
Z 0.7701000682436213
ambazwa 1
amej@@ 1
arakati 1
auti 1
aweka 1
ayarishaji 1
eri@@ 1
harusi 1
ikuwa 1
ilikiwa 1
malezi 1
manyoya 1
matam@@ 1
ugumu 1
ukali 1
wanga 1
zilizopo 1
1500 1
1914 0.5858684842299543
Bom@@ 1
C. 0.5011495917321064
Gabon 1
Makamba 1
Martyrologium 1
Sifa 1
Val@@ 0.49147063423693527
adhimisha 1
ain 0.46668572416883636
aliyefia 1
all 0.07221712594412757
ans@@ 0.7300671221235464
aribia 1
azamo 1
eze 1
fahamu 1
gen@@ 0.3326249615205054
ken@@ 0.857446335465021
kib@@ 1
kutengen@@ 1
kuvuta 1
ling@@ 1
mawaziri 1
mwanakemia 1
pwa 1
ul 1
van 0.5493696987926949
waliom@@ 1
wamekuwa 1
wamonaki 1
1936 0.5030828232421412
Barabara 1
College 0.21922828280419215
Grammy 1
Madagaska 1
Mam@@ 1
Ulimweng@@ 1
akah@@ 1
den 0.020260330786920456
king@@ 1
kujali 1
kusim@@ 1
mtawa 1
nabii 1
ova 1
taneti 1
uru@@ 1
wamebaki 1
watazamaji 1
wau@@ 1
yol@@ 1
1917 0.5930631567096605
Bis@@ 1
Domin@@ 1
Kim 1
Kufuatia 1
Le 0.049377989113090354
Uyahudi 1
achama 1
angazia 1
hayajulikani 1
kimbari 1
kufanikiwa 1
kutegemea 1
ladha 1
manufaa 1
ufanya 1
yey@@ 1
zidi 1
1944 0.35668080075109543
High 0.3271242475694924
Imani 1
Kiajemi 1
Majina 1
Makumbusho 1
Ver@@ 0.14601097843913316
aguo 1
akik@@ 1
anasema 1
azimisha 1
dhati 1
ens 0.15842018251696924
kifu@@ 1
kiumbe 1
kudai 1
kuing@@ 1
walipaswa 1
1933 0.5055580513792751
Kamb@@ 1
Kijiji 1
Mabingwa 1
Majimbo 1
Star 0.6332094430778712
amesh@@ 1
anja 1
bor@@ 0.572620839772179
bustani 1
hazi@@ 1
ibuka 1
imar@@ 1
khalifa 1
kiowevu 1
niaba 1
obo 1
wasomi 1
65 0.5075705724458086
Grand 0.34248989663298857
Ilianzishwa 1
Kinaga 1
Kisumu 1
Leb@@ 1
Williams 0.7639395001276267
alimaliza 1
asiriamali 1
atomi 1
idi@@ 1
inach@@ 1
jin@@ 1
kinapatikana 1
kitawa 1
unas@@ 1
unzwa 1
utoaji 1
Chakula 1
Jer@@ 1
Kibo@@ 1
Tim@@ 1
Vil@@ 1
Yos@@ 1
azimika 1
funga 1
hawezi 1
ibn 1
imin@@ 1
indani 1
jukwaa 1
miili 1
nyembamba 1
oc@@ 0.23035601714734946
utano 1
wakfu 1
Han@@ 0.9668454025689094
Island 0.42175685000512403
Rom@@ 0.8819328942074371
Samburu 1
Y 0.6472045560173468
alimw@@ 1
baya 1
divyo 1
emo 1
evi 1
imegawanywa 1
jioni 1
karibia 1
kudumisha 1
kuvutia 1
limet@@ 1
opo@@ 1
sia 1
utashi 1
walowezi 1
waumini 1
Ah@@ 1
Mnara 1
Radio 0.5592320278495884
aham@@ 1
alikutana 1
chapishwa 1
k.mf. 1
kitendo 1
kuwasaidia 1
maswali 1
mkononi 1
themanini 1
.com 1
Daraja 1
Gh@@ 1
Ken@@ 1
Shughuli 1
agi 1
akina 1
amef@@ 1
angazaji 1
ange@@ 1
beg@@ 1
kemia 1
kufanywa 1
kuki@@ 1
kusimamia 1
licha 1
lishe 1
mabaharia 1
mizizi 1
pop@@ 1
unguzi 1
vitatu 1
46 0.8692505623582936
Aki@@ 1
Babeli 1
Braz@@ 1
Cel@@ 1
For@@ 0.35566115133809906
Ros@@ 0.5383115454713604
Son@@ 1
Tazama 1
Upili 1
Vienna 1
Wahindi 1
ardhini 1
ashi 1
elim@@ 1
haijulikani 1
hutolewa 1
kiserikali 1
ndoto 1
oshi 1
rasilimali 1
waimbaji 1
2.@@ 0.6382583235317133
3000 1
85 0.9700929556792056
House 0.2585808971249359
Jack 0.7507092025393968
Kiwango 1
Lamu 1
Moscow 1
SA@@ 1
Vol@@ 0.775537655466082
Wiki 1
amka 1
asisi 1
asiy@@ 1
bika 1
bun@@ 1
hatarini 1
janga 1
kupelekwa 1
mshiriki 1
ransisko 1
viumbehai 1
wasifu 1
zana 1
Antiokia 1
Association 0.32016433152873847
Hip 1
Muyinga 1
aidiwa 1
akaj@@ 1
ci@@ 0.295296051727778
iliv@@ 1
kuingiza 1
kutembea 1
mati@@ 1
mawimbi 1
msimamizi 1
msu@@ 1
nin@@ 1
orodheshwi 1
uji 1
umaskini 1
unapo@@ 1
unu 1
£ 0.8387301338596109
Chile 0.8359788886072455
Go 1
Kuhusu 1
andar@@ 1
but@@ 1
eria 1
for@@ 0.2161907779426998
malaika 1
marekani 1
ujauzito 1
utak@@ 1
uvimbe 1
wabunge 1
wateja 1
Alitangazwa 1
Ath@@ 1
Bujumbura 1
Carey 1
Kiongozi 1
Ng 1
Pad@@ 1
Safari 1
Ter@@ 0.6589072395063331
Wain@@ 1
ahadi 1
alipos@@ 1
bes@@ 0.8690191987307861
bikira 1
ca 0.38284454715454724
elektroni 1
endeshaji 1
gam@@ 1
hupata 1
ikilinganishwa 1
ilijulikana 1
ilisababisha 1
itikadi 1
kulima 1
kusikia 1
pand@@ 1
somo 1
walil@@ 1
Char@@ 0.5230837981377326
Huu 1
Jar@@ 1
Kamp@@ 1
Kiar@@ 1
Mkw@@ 1
Tur@@ 0.5739656872787461
abo 1
ambani 1
atengen@@ 1
atiririka 1
aur@@ 0.9997290278746905
azamiwa 1
ekodiwa 1
emavu 1
inar@@ 1
ish 0.4554177525633909
ist 0.027811924536797348
kufungwa 1
kunaweza 1
kuvunja 1
kuwap@@ 1
len@@ 0.6572538706600055
ougou 1
takiwa 1
ulo 1
unaf@@ 1
uwiano 1
waliishi 1
Chan@@ 1
Hill 0.5609314822281438
Ib@@ 1
Kibaki 1
Michigan 0.8307593994903912
Po@@ 0.4224723496885089
Programu 1
Tamasha 1
abudu 1
akiolojia 1
aku 1
alendo 1
dir@@ 1
département 0.6749494267486534
engele 1
fukuzwa 1
ilioni 1
kuathiri 1
ori@@ 0.724091192990567
uawa 1
vyumba 1
Math 1
Mawasiliano 1
Mh@@ 1
Msalaba 1
Ndi@@ 1
alikataa 1
husisha 1
imaji 1
kipande 1
kuelezea 1
kukata 1
kumpa 1
maktaba 1
maua 1
mchekeshaji 1
mwandiko 1
sakramenti 1
walipata 1
yalif@@ 1
16,@@ 1
Bl@@ 0.4660369400199189
Burkina 1
Hi@@ 1
Johnson 0.733338248048653
Lug@@ 1
aid@@ 1
andiko 1
awahi 1
eme 1
ile@@ 1
kilichopo 1
kujaribu 1
michoro 1
mvuke 1
olenga 1
shimo 1
6,000 1
Ahmed 1
Club 0.2539122795598172
Dan@@ 1
ade 0.36200587226266706
afisha 1
anoni 1
anyo 1
aso 1
hani 1
inayop@@ 1
inzi 1
ju 1
kushambulia 1
kuu@@ 1
kuundwa 1
maamuzi 1
nazo 1
upanuzi 1
zama 1
Gen@@ 0.5396738302898167
Mikoa 1
Milano 1
RC 1
St 0.43664873687669387
Women 0.48777085923742
abe 1
amo@@ 1
angazi 1
ataka 1
baji 1
gerezani 1
hap@@ 1
hasi 1
kuepu@@ 1
kutazama 1
met@@ 0.604013467611732
msitu 1
pendelea 1
puko 1
rati@@ 1
umep@@ 1
undu@@ 1
wakat@@ 1
walir@@ 1
Kimal@@ 1
Madola 1
alihudhuria 1
anafahamika 1
dur@@ 1
fumbo 1
hawakuwa 1
isikia 1
kinaweza 1
kuhubiri 1
kujitolea 1
kulipa 1
kutambuliwa 1
masoko 1
mkewe 1
pembeni 1
tor@@ 0.33265878333677085
umbani 1
unyenyekevu 1
zetu 1
26@@ 1
Hitler 1
Jam@@ 1
Jay 1
Patri@@ 1
Usaf@@ 1
anaitwa 1
arki 1
dr@@ 0.28793773033780135
ikali 1
kujipatia 1
kupigana 1
robo 1
sambamba 1
ubaliwa 1
ungukwa 1
utotoni 1
walei 1
Athari 1
Da@@ 1
Nz@@ 1
Rutana 1
Sok@@ 1
akuja 1
ber 0.4115978820297276
ige 0.3473033224649094
kozi 1
kubaki 1
kuchagua 1
msalaba 1
mwanasheria 1
ohitajika 1
sikiti 1
sta@@ 1
sultani 1
tengen@@ 1
ukombozi 1
viti 1
walifika 1
yanak@@ 1
« 0.01934317034497875
4,000 1
56 0.9274472131242217
Hab@@ 1
Marmara 1
Mtandao 1
S.@@ 1
Ulinzi 1
akisema 1
amem@@ 1
assa 1
atomia 1
div@@ 1
iliyok@@ 1
islamu 1
itak@@ 1
jela 1
kibali 1
kupindukia 1
kutia 1
simba 1
unak@@ 1
viatu 1
zikiwemo 1
» 0.019274955343929787
Imepakana 1
Kwale 1
Mandela 1
Moy@@ 1
On@@ 1
Pokot 1
Ra@@ 1
abii 1
ahis@@ 1
esababisha 1
geza 1
haa 1
inge@@ 1
jitihada 1
kubuni 1
kuhari@@ 1
kumfanya 1
onjwa 1
oyo 1
waanzilishi 1
wakawa 1
17@@ 1
25@@ 1
Cr@@ 0.42625482710883184
Disemba 1
Google 1
Kinilo 1
Malkia 1
Mbunge 1
Sierra 1
Ul@@ 0.81403490651116
Uskoti 1
Young 0.698926533972338
ahari 1
anganya 1
baini 1
elle 0.08213804183473336
field 0.2062257854992082
iliundwa 1
kuwafanya 1
milango 1
mwanamume 1
nit@@ 1
taafu 1
waa 1
1934 0.5133737017935452
27@@ 1
95 0.9018462315268376
AD@@ 1
Accra 1
Dem@@ 0.8589541457624771
Gor@@ 0.7835556587212212
Has@@ 1
Maandishi 1
Soko 1
Uv@@ 1
adhi 1
aliigiza 1
andalizi 1
aribio 1
bezi 1
buluu 1
furah@@ 1
gar@@ 0.6603775126630297
hor@@ 0.6585083708888885
italia 1
itisi 1
juli@@ 1
kelewa 1
kuomba 1
kuzwa 1
madarakani 1
maswala 1
oshiriki 1
sen 0.34401334151399976
utata 1
wanja 1
wawakilishi 1
yoka 1
zika 1
1922 0.5734540751028316
1925 0.5758808356782438
1929 0.5176711122082536
BBC 0.7393339086743523
Ban@@ 0.6172769346137762
Ly@@ 0.8546346193131004
Queen 0.6787787261777654
Santa 0.41129193445738277
Str@@ 0.29463241235914084
Wales 0.6454966386391097
White 0.4561536234220685
Yo@@ 1
badilisha 1
bozi 1
hub@@ 1
imama 1
iso 1
kute@@ 1
nam@@ 1
pake 1
rika 1
1942 0.37148501642512155
67 1
Cankuzo 1
DC 0.9304860743784168
Katavi 1
Leone 1
Media 0.7831244232917584
Mol@@ 0.7315722280973743
Stars 1
akapata 1
aliyeuawa 1
ata@@ 1
fe 0.7781304322458793
ilivyo@@ 1
mahar@@ 1
mamalia 1
poromoko 1
refu 1
tamthiliya 1
umi@@ 1
5000 1
Alik@@ 1
Company 0.3301700175008301
Do@@ 0.6289489370483647
W 0.5003327976870507
XI 1
XVI 1
alb@@ 0.7978924015012783
chochea 1
futi 1
itikio 1
kueleza 1
lav@@ 1
vinavyot@@ 1
16@@ 1
1885 1
24@@ 0.9218372655254167
Dubai 1
Kl@@ 0.9419900772706156
Kou@@ 1
Kuk@@ 1
Nar@@ 0.9987828952889082
Pat@@ 0.8024966597963461
Uzam@@ 1
Waos@@ 1
akan@@ 1
anifu 1
bingwa 1
bom@@ 1
duara 1
fereji 1
hughu@@ 1
iliweza 1
ishani 1
jusi 1
madola 1
msom@@ 1
mwambao 1
ofariki 1
ombi 1
oni@@ 0.788531699358595
uhamishoni 1
upatikanaji 1
usanifu 1
ute 0.9334957789902901
visiwani 1
wafungwa 1
walihamia 1
wawe 1
12@@ 1
1943 0.36401270705809297
Bendi 1
Bizanti 1
Canada 0.2690725180200606
Cher@@ 1
Francis 0.8985013850210128
Hula 1
Kaizari 1
Kor 1
Maneno 1
Rob@@ 1
Siasa 1
Utawa 1
Wafany@@ 1
adamu 1
adhi@@ 1
alme 1
husaidia 1
inaj@@ 1
jibu 1
ker@@ 0.7843331373135197
kikemia 1
kitenzi 1
mpenzi 1
ungum@@ 1
ure 0.296771852503959
vurugu 1
15@@ 1
88 1
Had@@ 1
Mwar@@ 1
Nor@@ 0.6246796580537357
Sik@@ 1
Ukraine 1
achiliwa 1
aliondoka 1
fiwa 1
fr@@ 0.34898298694543534
fuka 1
gel@@ 0.3882570251243428
inajumuisha 1
indua 1
ingereza 1
makaa 1
nani 1
onaki 1
ongezea 1
tad@@ 1
uni@@ 1
1926 0.5515438782912158
54 0.8688391078991103
Aliendelea 1
Bungoma 1
Sil@@ 0.9725124401299948
abari 1
afir@@ 1
alijulikana 1
egemezi 1
ekezaji 1
ilionekana 1
inab@@ 1
magoli 1
ngano 1
oruba 1
rap 1
ufukara 1
urekebisho 1
vilabu 1
walianzisha 1
Aliandika 1
Band 0.4767390725263881
Japan 0.35712579315332615
Long@@ 1
Mif@@ 1
Miongoni 1
Si 0.8189131699909851
Waturuki 1
abila 1
adiria 1
aiti 1
aitwaye 1
idisha 1
kuifanya 1
kujengwa 1
kuwah@@ 1
majirani 1
mchoraji 1
ndilo 1
ngome 1
onya 1
shaka 1
tis@@ 0.6971882085949809
uzulu 1
wakil@@ 1
wengineo 1
1890 0.8666344530827028
A. 0.4053230868585278
Ilit@@ 1
Kituruki 1
Myanmar 1
Naf@@ 1
News 0.8062811193614691
Oblast 1
Patrick 1
Umbali 1
afwa 1
aiwa 1
akicheza 1
ant 0.08477611579236258
ase 0.4439184883658334
dari 1
eji 1
funguliwa 1
ibika 1
isaidia 1
ith 1
kansa 1
kijiografia 1
kimatibabu 1
kuin@@ 1
lat@@ 0.7087605423873605
makadirio 1
mzaliwa 1
ogelea 1
pum@@ 1
shinda 1
vua 1
zia 1
17,@@ 1
Abr@@ 1
Av@@ 0.6691063308012812
Miz@@ 1
Og@@ 1
Q 0.874854758561986
The@@ 0.7771039612614897
adala 1
aman@@ 1
angany@@ 1
kurasa 1
mauti 1
nururisho 1
pokezi 1
poromoka 1
prot@@ 0.5486793567571447
undaji 1
upigaji 1
ushindani 1
AS@@ 0.740079284537951
Aidha 1
Dom@@ 0.7414583303210083
Lus@@ 1
Mjerumani 1
Prussia 1
Vif@@ 1
akach@@ 1
alifaulu 1
amek@@ 1
amino 1
atio 1
hasara 1
ikulu 1
imetoweka 1
itakuwa 1
ity 0.1375174538019411
ker 0.3210008664042056
kuang@@ 1
kuge@@ 1
mish@@ 1
mwanam@@ 1
nyanja 1
shi 1
shingo 1
ubali@@ 1
ukumu 1
ukurasa 1
ust@@ 1
Ph@@ 0.49829523133622455
Urithi 1
aibu 1
fund@@ 1
kipenyo 1
lis@@ 1
mwanaf@@ 1
ohusu 1
osoaji 1
ukar@@ 1
ustaarabu 1
yab@@ 1
zilianza 1
64 0.5276647765357745
Augustino 1
Juli@@ 1
Katikati 1
Kic@@ 1
Port 0.8623303431939091
Reli 1
Sauti 1
alii 1
aweze 1
dume 1
ekeleza 1
eshimu 1
fanywa 1
hasira 1
ibu@@ 1
inaendelea 1
inavyo@@ 1
ispania 1
jeraha 1
kitongoji 1
kondoo 1
kuvuka 1
mfereji 1
mzazi 1
our 0.3430343586401107
per 0.1921357892782713
toba 1
ultani 1
uria 1
yalis@@ 1
י@@ 1
120 0.9352924715649549
Ben 0.9599418380754219
CH@@ 1
Hay@@ 1
Klem@@ 1
Rose 1
Ujenzi 1
Uropa 1
akab@@ 1
aliacha 1
angahewa 1
asimulia 1
elekwa 1
futa 1
imej@@ 1
ingiliano 1
ipotiwa 1
isri 1
jahazi 1
mafuriko 1
mtume 1
onekano 1
sel@@ 0.4143518886805742
tari 1
yot@@ 1
1,0@@ 1
116 1
30,000 1
Gambia 1
Ge@@ 0.32851966193671533
Kimb@@ 1
Por@@ 0.5756913287520419
Uhandisi 1
aendelea 1
ahau 1
busara 1
ewe 1
hogo 1
ifuatavyo 1
inayoweza 1
indu 1
kupan@@ 1
kuruhusu 1
kusimama 1
kuwash@@ 1
mer@@ 0.23815572988305644
mlinzi 1
mmisionari 1
pita 1
tasari 1
tiririko 1
uhaba 1
umbwa 1
unaingia 1
utio 1
yaliyokuwa 1
zani 1
39@@ 1
65@@ 1
CO@@ 0.9432448700962841
Faso 1
Hili 1
Kifilipino 1
Lim@@ 1
Miss 1
Ndiye 1
Reg@@ 0.4077510488857376
Scott 0.6888329895398796
Wazazi 1
aila 1
akak@@ 1
anuwai 1
ariki 1
awanywa 1
gom@@ 1
huzuni 1
ikat@@ 1
ikweta 1
imarisha 1
katuni 1
lililokuwa 1
manabii 1
many@@ 1
mikataba 1
mwao 1
parokia 1
umbuka 1
unikwa 1
wakili 1
waliv@@ 1
wood 0.3910822661078158
58 0.8893416179997269
Bay@@ 0.9933525807709114
MTV 1
Marie 0.49000542445842266
Sha@@ 1
Sir 0.5390075338777339
Taylor 0.8557719530854541
Wa 1
amf@@ 1
amilika 1
area 0.1282232799084139
badilishwa 1
co 0.177218874403897
co@@ 0.13726429261743192
ebaki 1
elekeo 1
fia 1
huria 1
idhin@@ 1
ilini 1
ime 1
inaanza 1
inamaanisha 1
kand@@ 1
kizu@@ 1
kukabiliana 1
kukatwa 1
kupanua 1
letu 1
lojia 1
mababu 1
mtandaoni 1
mwakilishi 1
tuli@@ 1
udu 1
ulipo@@ 1
unifu 1
vimelea 1
waigizaji 1
wea 1
zinah@@ 1
18,@@ 1
1910 0.5606853657218361
1937 0.42961643252165155
Alifariki 1
But@@ 1
Chris 0.8525497971590255
Hek@@ 1
Kilifi 1
Mohammed 1
Mot@@ 1
afr@@ 1
alijaribu 1
ege 1
elez@@ 1
himaya 1
mashtaka 1
mkaapweke 1
sampuli 1
theluji 1
usia 1
utani 1
utoto 1
wisha 1
yony@@ 1
Bagamoyo 1
Cap@@ 0.7592426878724162
Christian 0.35458030013775127
Dr. 0.5205545283723872
Kul@@ 1
Luka 1
Ndio 1
ac 0.44922055695514773
ahawa 1
bad@@ 1
demokrasia 1
gez@@ 1
hubiri 1
huy@@ 1
indo 1
kari 1
koni 1
kupeleka 1
kuwal@@ 1
lisilo 1
makini 1
manowari 1
nad@@ 1
nambari 1
sindano 1
tofautitofauti 1
uka@@ 1
utar@@ 1
uzuri 1
1938 0.383345903522817
53 0.8365960600409712
Anafahamika 1
Hus@@ 1
Inasemekana 1
Kakamega 1
Kris@@ 1
Mbar@@ 1
Migori 1
Mtendaji 1
Mv@@ 1
Profesa 1
Simon 0.8471957094940973
Vati@@ 1
Verde 1
akaw@@ 1
akaz@@ 1
amishwa 1
bio 1
chanya 1
haiwezi 1
ilitangaza 1
inatoa 1
inayoz@@ 1
irikishwa 1
kano 1
kufanana 1
kutuma 1
kuwak@@ 1
lipo 1
milia 1
nafuu 1
nying@@ 1
nzito 1
omaji 1
the@@ 0.511723710017579
ubia 1
102 1
1905 0.6205994642154782
Anthony 1
Bendera 1
Met@@ 0.9755495406267449
Mwandishi 1
Mwingereza 1
Tenno 1
Walakini 1
duka 1
fi 1
hek@@ 1
kujiuzulu 1
kuku@@ 1
mata 1
mchungaji 1
mli@@ 1
mwanamitindo 1
ozidi 1
san@@ 0.663222406507656
uhalifu 1
utumbo 1
yesi 1
61 0.9729865816448523
Hum@@ 1
Mamlaka 1
YouTube 1
alishaji 1
amuru 1
atizwa 1
ghas@@ 1
husishwa 1
ilitoa 1
inezo 1
karama 1
kasoro 1
kupel@@ 1
kutokuwa 1
matoleo 1
ojit@@ 1
otea 1
tro 1
ubatizo 1
ui@@ 1
usaidizi 1
viwanja 1
wakala 1
walau 1
wanasayansi 1
3.@@ 0.7829743379347526
Alish@@ 1
Big 0.5419654883276238
Can@@ 0.4839165618704565
Hil@@ 1
Kichadiki 1
Kikundi 1
Life 0.45116809173988626
Mark 0.49432896271101084
Rhodesia 1
Theod@@ 1
VIII 1
ajeshi 1
alikamatwa 1
alisaini 1
alishindwa 1
ambukizi 1
apot@@ 1
arifa 1
awanyiko 1
awaz@@ 1
hem@@ 1
hidro@@ 1
jeria 1
kubadilika 1
kulinganisha 1
mwanadamu 1
poke@@ 1
sentim@@ 1
shauri 1
uleule 1
undishwa 1
uraia 1
usu@@ 1
wan 1
67@@ 1
Best 0.4128137516709945
Inat@@ 1
Kari@@ 1
Kong 0.7613343745146911
LA 1
Matatizo 1
Westlife 1
ajua 1
anzo 1
chagua 1
duliwa 1
goli 1
harani 1
hihir@@ 1
husu 1
katibu 1
kuteka 1
kuzungumza 1
ler@@ 0.36234946511944
leseni 1
mmiliki 1
th 0.15504559755850034
umilia 1
undombinu 1
Anti@@ 1
Bw 1
Kie@@ 1
Nadharia 1
New@@ 1
Nyanda 1
Pon@@ 1
Royal 0.2617228102257776
Zi@@ 1
achi 1
adr@@ 1
ambana 1
anisa 1
arini 1
armenia 1
asisha 1
fal@@ 0.6962195375682059
figo 1
hawawezi 1
iliyom@@ 1
imech@@ 1
ishu 1
kaburi 1
kipaji 1
kipengele 1
kufuzu 1
kung@@ 1
makaburi 1
paa 1
pitishwa 1
sav@@ 0.9516597616083673
udhaifu 1
utukufu 1
vent@@ 1
wanamgambo 1
zinazoendelea 1
1919 0.4224717944841389
36@@ 1
51 0.7247337608830476
Busia 1
Category 1
Kiaryan 1
Kibu@@ 1
Pengine 1
Ubangi 1
akif@@ 1
alimt@@ 1
burg 0.4503689486739212
ekesho 1
euzi 1
idhiwa 1
ilenga 1
kielelezo 1
kukulia 1
mann 0.2913113121132113
nukta 1
poteza 1
sarafu 1
tuko 1
uchi 1
unaonyesha 1
vema 1
zipo 1
1923 0.5200740847377764
7,000 1
Barua 1
British 0.14918357461207557
Bub@@ 1
In 0.014402053671421746
Kayanza 1
Northern 0.5704642172908085
People 0.6547423056268153
Usimamizi 1
adilishana 1
akish@@ 1
anash@@ 1
domo 1
inganisha 1
itishwa 1
kuambukizwa 1
kutembelea 1
majibu 1
rek@@ 1
ukw@@ 1
uro 1
wajumbe 1
zinduliwa 1
1931 0.4943166385653743
2022 0.4002390788955352
Abdallah 1
Anglikana 1
Cham@@ 1
Columbia 0.6447382866687557
Congress 0.647843080246651
Dor@@ 0.7027201906957752
Kais@@ 1
Kaz@@ 1
Kinshasa 1
Kitai 1
Mwin@@ 1
Nis@@ 1
Torati 1
Umma 1
angaji 1
angeweza 1
bah@@ 1
ess@@ 0.3569311936023466
hufanyika 1
hufanywa 1
inayotumika 1
inuko 1
kitaalamu 1
kutimiza 1
mashambulio 1
mmen@@ 1
ongoni 1
theluthi 1
uchoraji 1
ulivu 1
wakoloni 1
wemo 1
wing@@ 1
Alich@@ 1
Anach@@ 1
Des@@ 0.42539196044560507
Illinois 0.677962746825841
KANU 1
Kijapani 1
Mf@@ 1
Mkon@@ 1
Ste@@ 0.422937368958928
Waanglikana 1
Yugoslavia 1
anye 1
ardinali 1
atima 1
dhah@@ 1
emu 1
endana 1
igi 1
mes@@ 0.9318393465071353
mkate 1
nyara 1
pendwa 1
shi@@ 1
uen@@ 1
uenezi 1
uhiwa 1
1912 0.5049645221911447
Bila 1
Dr@@ 0.4187018186585315
Fre@@ 0.3895211649073454
Gavana 1
Israel 0.5768297776801807
Lut@@ 1
Mr@@ 1
afakari 1
afirisha 1
aio 1
anaz@@ 1
hamini 1
haniwa 1
ingatiwa 1
itu@@ 1
kisukari 1
kulit@@ 1
kupigania 1
kurekebisha 1
nusufamilia 1
oria 1
ter 0.10114775777284592
uniwa 1
ushuru 1
utend@@ 1
waliwa 1
1927 0.49280378539191527
200@@ 1
Bukoba 1
Entertainment 0.8331732283225782
Hizi 1
I. 0.47897655403648576
Lit@@ 1
Mimi 1
Rad@@ 0.6048098333349533
UK 0.3626888943696878
aliyeitwa 1
ash 0.8487094071193501
bamba 1
bandia 1
dy 0.6434909103830092
elektroniki 1
etatu 1
falme 1
hujumuisha 1
iliyos@@ 1
iliyoundwa 1
kio 1
mwishowe 1
ohitaji 1
thibi@@ 1
ufahamu 1
ufunuo 1
weng@@ 1
000,000 1
50,000 1
Ap@@ 0.6038565312731811
Fedha 1
Makerere 1
Mito 1
Mtindo 1
Nyar@@ 1
Tom@@ 0.8980003035337119
Wamarekani 1
ail@@ 0.7472109016113906
akaenda 1
alitunga 1
aliyes@@ 1
anj@@ 1
apos@@ 1
avi@@ 1
dham@@ 1
haramu 1
ilivyokuwa 1
kime@@ 1
kuanguka 1
kumbuka 1
kuthibitisha 1
mwenza 1
pendeza 1
tek@@ 1
ugaji 1
umati 1
wanasiasa 1
with 0.009682001388425681
zilizop@@ 1
180 1
Kuba 1
Luther 1
Telev@@ 1
Watutsi 1
adam@@ 1
alay 1
aliweka 1
amefanya 1
amin@@ 1
ann@@ 0.4379907292709523
api 1
apor@@ 1
esh 1
fil@@ 0.6713952608954467
fon@@ 1
hun@@ 1
kufungua 1
kuharibu 1
lilim@@ 1
marekebisho 1
nji@@ 1
okozi 1
opende@@ 1
pro@@ 0.3163585129291947
rithi 1
tamka 1
unajulikana 1
ungumzwa 1
wanaz@@ 1
wapya 1
304 1
73 0.9946122594243304
AP@@ 0.9995370402805579
Carl 0.6713003728170794
Hong 0.7411241319781809
Kiholanzi 1
Uthai 1
Zambezi 1
buka 1
ent 0.06341715239645329
inganishwa 1
kiburi 1
mashambulizi 1
oks@@ 1
ome@@ 1
sumaku 1
wavulana 1
zimep@@ 1
99 0.9216685090688252
Alama 1
Antak@@ 1
Badala 1
Hawa 1
Istanbul 1
Jumla 1
Msanii 1
Pierre 0.391189633266171
alikwa 1
fet@@ 1
iana 1
iliitwa 1
kap@@ 1
kau@@ 1
kikabila 1
kuchapishwa 1
kuondolewa 1
maudhui 1
nguzo 1
ofautisha 1
ongaji 1
radi@@ 0.8670761093728379
riadha 1
tafiti 1
tathmini 1
tembo 1
ts 0.0911859129747292
uliendelea 1
ungwe 1
uzani 1
ve@@ 0.5224510980724143
yan 0.9119345747710594
{ 0.8439898374738568
Akw@@ 1
Bandari 1
Dj@@ 1
Eire 1
Euro 0.9524205664326022
Kabar@@ 1
Mafunzo 1
Uarabuni 1
Wanam@@ 1
abor@@ 1
afanuliwa 1
afirishaji 1
akishirikiana 1
aliyep@@ 1
amepata 1
amiati 1
anaendelea 1
chap@@ 1
darubini 1
ith@@ 1
jik@@ 1
kiakili 1
lan@@ 0.5228366086767425
les@@ 0.686039380002585
oea 1
ruhusu 1
shina 1
unni 1
unzaji 1
wambia 1
zw@@ 1
Ac@@ 0.34505002940529356
Hur@@ 1
Isa@@ 1
Jike 1
Kalenda 1
Lab@@ 1
Marsabit 1
Mchezo 1
Nelson 1
Ob@@ 1
Usalama 1
Wit@@ 1
Yordani 1
akarudi 1
alikuja 1
alin@@ 1
ambukizo 1
amu@@ 1
apokea 1
embea 1
huri 1
hutengenezwa 1
iliyoongozwa 1
julikani 1
kilabu 1
kilicho 1
kingamwili 1
kiraia 1
kufanyika 1
machache 1
masimulizi 1
mnara 1
opti 1
sk 0.979360705172942
tom@@ 0.6373058286202493
treni 1
umizi 1
viazi 1
wapa 1
wende 1
AK@@ 1
Cu@@ 0.6141079007669902
Kroatia 1
Mafanikio 1
Moh@@ 1
Nag@@ 1
Ou@@ 1
Rock 0.5275802335206907
UM 1
VII 1
Vis@@ 1
Yuda 1
ambara 1
emeko 1
hauri 1
hospitalini 1
ice 0.24538020070226202
igu@@ 1
ikamana 1
kimap@@ 1
lava 1
lilianza 1
mus@@ 0.6351313254970167
nyepesi 1
uchapishaji 1
ugua 1
vilivyot@@ 1
Air 0.28584649133701157
Alichaguliwa 1
Alishiriki 1
Hop 1
Hoteli 1
Kong@@ 1
Mwen@@ 1
Mwili 1
Nyasa 1
Rub@@ 1
Shamu 1
Sydney 0.6792596809821526
Wao 1
ambar@@ 1
andikia 1
atiki 1
bichi 1
endekeza 1
endeleo 1
gal@@ 0.7515859649668485
jumuishwa 1
kipo 1
kuhama 1
kulenga 1
kutor@@ 1
lem@@ 1
lililopo 1
makusudi 1
nom@@ 0.8436113284112832
tang@@ 1
thabiti 1
upe@@ 1
ver@@ 0.06631554641029669
vibao 1
Bag@@ 1
Eli@@ 1
Francisco 0.364935496350171
Gaz@@ 1
IS@@ 0.8117938129780642
MA 1
May 0.11503341409128694
Raj@@ 1
Rekodi 1
Wanafunzi 1
asababisha 1
aua 1
hel@@ 1
heshimu 1
ikam@@ 1
ille 0.456436018829098
jumaa 1
kutofautisha 1
miongo 1
mtumishi 1
mun@@ 1
ogwe 1
oleta 1
tumbaku 1
tunda 1
upimaji 1
1928 0.42113709755666195
303 1
66 0.8191567428775943
Diokletian 1
Jamaika 1
Kabila 1
Kilom@@ 1
Liverpool 1
Masasi 1
Mog@@ 1
Polisi 1
Rio 0.9191108954871706
Southern 0.55898559880364
alidai 1
day@@ 1
ham 0.6666663794244679
induzi 1
jani 1
kubalika 1
mabara 1
ster@@ 0.5329556740807251
uang@@ 1
wakam@@ 1
wele 1
yanyasaji 1
1889 0.8511130210904385
Eu@@ 1
Frank 0.5319114292343285
Ivory 1
Joe 0.6547663154673018
Nyab@@ 1
S. 0.5146423122781548
Single 1
Thi@@ 1
anchi 1
eshima 1
gan@@ 0.9394425380533723
ilimia 1
imamu 1
kari@@ 1
lango 1
linamaanisha 1
maombi 1
omaanisha 1
op 0.7455649703097429
wanach@@ 1
Bot@@ 0.7628349309852018
DM 1
Kay@@ 1
Sura 1
Thoma 1
Western 0.3411465299592957
aal@@ 1
ce 0.07138279457439474
des@@ 0.15570924812469458
e.@@ 1
endelevu 1
erman@@ 1
ius 0.9983475177610295
jumbe 1
madhumuni 1
peo 1
plasti@@ 1
ref 1
rut@@ 1
ry 0.4482914942080885
sent@@ 1
sul@@ 1
tri@@ 0.3021983031306998
ts@@ 0.29243085202494673
wakim@@ 1
yar@@ 1
} 0.956406614504944
72 0.7615611828720745
AM@@ 1
Anna 0.692760823203297
Cl@@ 0.513577258295216
Run@@ 1
ax@@ 0.5747345554980553
chapa 1
dor@@ 0.6641833912442856
jip@@ 1
kt@@ 1
lip@@ 1
o.@@ 1
ombia 1
rowspan 1
Arthur 0.6376491047575367
Carlos 0.5080367509755909
Cross 0.8106599827467132
Iraq 1
Mig@@ 1
Omar 1
Ptolem@@ 1
aika 1
anik@@ 1
ban@@ 0.553435937490688
faransa 1
iva 1
jan@@ 1
jano 1
kel@@ 0.9529723120263802
‎ 1
119 1
98 0.9250291851805071
AC 0.6430229306527836
Adam 0.8438365595766241
Hom@@ 0.7427797344388279
Ik@@ 1
Kiku@@ 1
Knowles 1
Kuf@@ 1
Mesopotamia 1
Odinga 1
Sing@@ 1
beri 1
isiy@@ 1
lilik@@ 1
ons 0.11808104085547508
yai 1
15,000 1
1903 0.6550149650806221
1916 0.542539745214407
Diamond 1
Fil@@ 0.7829056941490588
Munich 1
Natal 1
Tig@@ 1
Tri@@ 0.35985352170316187
Zama 1
akich@@ 1
angaz@@ 1
atua 1
bl@@ 0.20015359193452772
eth@@ 0.5062240264012474
han 0.2922261684317132
its 0.03038378438483316
mag 1
maumb@@ 1
mfany@@ 1
mir@@ 0.8230519758497836
okot@@ 1
shwa 1
sur@@ 0.21312687115706505
Ford 0.7674398650657169
Hen@@ 0.9141785231732952
Karl 0.44423587200992337
Luk@@ 1
Star@@ 0.8200421878265686
anii 1
ego 1
23,@@ 1
57 0.7441616458499963
Aleks@@ 1
Amet@@ 1
CD@@ 1
Nandi 1
Teresa 1
Virginia 0.4127858928155764
anne 1
atizo 1
deni 1
diko 1
ige@@ 1
isani 1
jana 1
lahi 1
und 0.006009558395593425
vul@@ 1
1.5 1
28@@ 1
62 0.7532440589200862
AL@@ 1
Ex@@ 0.23300582266323455
Tony 0.8394603905030126
Viv@@ 1
Wilson 0.693371393347371
Yer@@ 1
adudu 1
antibiot@@ 1
atano 1
bani 1
ejulikana 1
ikab@@ 1
mav@@ 1
Bangladesh 1
Golden 0.7841549034620754
It@@ 1
Juba 1
Limited 1
NBC 1
Tokyo 0.9210662898985201
alizi 1
ator 0.1866586627147133
bert 0.6720980017978437
hama 1
iku 1
ilifu 1
ingira 1
kot@@ 1
pemb@@ 1
sho@@ 0.6209969099514956
wang@@ 1
yoo 1
zis@@ 1
1935 0.3829762596968748
Beth@@ 1
Dak@@ 1
Fu@@ 1
Harvard 1
Samuel 0.8493588211795609
Sand@@ 0.6344902965391604
Yemen 1
afrika 1
atana 1
bot@@ 0.7609611407227267
dens@@ 1
eny@@ 1
ilin@@ 1
kop@@ 1
madar@@ 1
pori 1
rock 0.2994288694303341
rom@@ 0.544877982828128
tik@@ 1
ukio 1
ys 0.3704740657710852
19,@@ 1
1932 0.41124961648586084
Alim@@ 1
Gre@@ 0.4952752776176456
Hel@@ 0.5291230715324937
Kau@@ 1
Kimar@@ 1
Pl@@ 0.35012232422190254
Rip@@ 1
Shu@@ 1
eneza 1
otaka 1
wango 1
ć 0.9463900091350895
α 0.886132408936222
1908 0.5314391468613424
1913 0.4862190981371884
20,@@ 1
Cairo 1
Fatima 1
Jin@@ 1
Kri@@ 1
R. 0.578195873259821
SC 0.6285064357780898
Shar@@ 1
Sur@@ 0.4927944532972339
Zu@@ 1
alifu 1
bete 1
bir@@ 0.9193404894670796
ell@@ 0.24700287292204537
igaji 1
jener@@ 1
kaa 1
kto 1
opa 1
tus@@ 1
uvu 1
wet 1
yem@@ 1
1896 0.7145818047255571
1906 0.5625121639150652
Delta 1
Ed@@ 0.7327185227825908
Mim@@ 1
Ras@@ 1
Studio 1
Super 0.47891036790012914
Sy@@ 0.723938093389002
Vid@@ 1
W. 0.573565515998634
amata 1
ekar@@ 1
ello 0.45860656193080296
ensis 0.54627545122427
hwa 1
ins 0.1415485957256678
ipa 1
irikiano 1
mek@@ 1
ozaliwa 1
yn 0.8400086726580993
Abu@@ 1
Ari@@ 1
Bil@@ 0.7225906508737854
Bulgaria 1
Ek@@ 1
Fer@@ 0.603531906598081
Hao 1
Hol@@ 0.35755771288131344
Omani 1
Queensland 0.9762164061342136
Stefano 1
Tw@@ 1
ace 0.5063197729303033
eana 1
hambu@@ 1
ihi 1
kien@@ 1
kumbu 1
kuni 1
kupas@@ 1
mith@@ 1
otu 1
shar@@ 1
umbu 1
í@@ 0.2551880708877209
€ 1
Bad 0.7738773881637762
Walter 0.5732353006042359
adhim@@ 1
anthropo@@ 1
atifu 1
bel@@ 0.44621400223273705
bil@@ 0.5614193531157893
eha 1
ekan@@ 1
imita 1
odi@@ 0.8029327094562047
ongoro 1
papa 1
pend@@ 1
safa 1
04 0.9494764881069452
2.5 1
29@@ 1
79 0.929072265583157
83 0.9151468956438881
Dal@@ 0.9032426918681096
Nany@@ 1
Uj@@ 1
anal@@ 1
bud@@ 1
eso 1
seti 1
tol@@ 1
urah@@ 1
vish@@ 1
1870 0.7086504825517862
59 0.7589965357322527
Andrew 0.7015000520620517
Baad@@ 1
Bill 0.5413963474975366
Gat@@ 1
No 0.32574638704445824
Pel@@ 0.9367065148304748
Sc@@ 0.47991630228818366
ds 0.30152122919550334
ech 1
gu 1
obi 1
oli@@ 1
osho 1
tus 1
Chang@@ 1
D. 0.4613595140834034
Green 0.46170978830501336
Hall 0.26931588074278273
Ing@@ 0.8205567384181303
Mj@@ 1
Rhine 1
agwa 1
anar@@ 1
chai 1
ette 0.22906123746578522
ks 0.17765548604341022
tha 1
07 0.9390558226264136
350 1
Bes@@ 1
Bibi 1
Boston 0.48653619282726457
Cam@@ 0.5877220029733637
Carolina 0.4807586919540025
Fo@@ 0.6833160611646725
Kiko 1
Sav@@ 0.7595671252207918
WWE 1
eli@@ 0.8279357872013933
jazz 0.9387750172761214
manga 1
nae 1
1860 0.7963822521782195
200,000 1
Aegean 1
Benjamin 1
Center 0.27350918682853387
Geneva 1
Nu@@ 0.9237708026985474
Om@@ 1
Tro@@ 0.5697285384267894
ajemi 1
dha 1
etti 0.640660324015847
fumb@@ 1
iru 1
kutofau@@ 1
mili@@ 1
pati@@ 1
uwe 1
,@@ 1
1902 0.6002152027574206
63 0.7346690752519126
Ach@@ 1
Alfa 1
Alpi 1
Diok@@ 1
Ibrahim 1
Marko 1
Mati@@ 1
Shin@@ 1
Time 0.5805519648827655
adiki 1
ahada 1
aleta 1
apu 1
ill@@ 0.22673877913464918
kung 1
su 0.026733741710348702
yl@@ 0.33300078259482363
zam@@ 1
zuri 1
09 0.8484160985658828
Antonio 0.455085543424148
Dis@@ 0.3568290889709612
Ev@@ 1
Jib@@ 1
Kiaus@@ 1
Nyan@@ 1
Pot@@ 0.7792190905433342
Red 0.322777398301566
Siberia 1
Vincent 1
alika 1
ff@@ 0.3123692892114035
insi 1
keza 1
kiw@@ 1
mez@@ 1
wahili 1
1907 0.5240284588071487
59@@ 1
Bat@@ 0.5784331007690814
Cer@@ 0.5583550109576934
Gro@@ 0.6050590941524678
Kel@@ 1
Oxford 0.6714100561041683
Qur@@ 1
Show 0.5666695681116988
ambazaji 1
any 0.12759134789304039
hir 1
inad@@ 1
ington 0.48976310199007567
ise 0.15146068177688074
kad@@ 1
sela 1
tezi 1
1924 0.38486533700321723
9.@@ 1
Amin 1
Astronom@@ 1
Christopher 1
Dun@@ 0.7389047383605178
EP 0.5795179282260995
Id@@ 1
Pin@@ 0.6714078985894532
Prince 0.4940546448545393
Sud@@ 1
Vo@@ 0.6675593882966561
Yas@@ 1
ben@@ 0.6179741033535114
daw@@ 1
ence 0.19406373915746702
ie@@ 0.4037809088892482
ikim@@ 1
liz@@ 1
oth@@ 0.5158352975672255
oua 1
A.@@ 0.7370729502165267
AB@@ 1
Day 0.4069478606829379
Fa@@ 1
Hon@@ 0.7764775046152155
Laos 1
Liga 0.3808616024939404
Nah@@ 1
Napoli 1
Old 0.4708801474234055
Otto 0.7355342654732845
Peru 1
Sep@@ 1
Sou@@ 0.8510871711623382
Steve 0.6792872099558697
Tom 0.5138834497994821
adri 1
agga 1
estr@@ 0.49937060257425964
izo@@ 1
liza 1
tika 1
tis 0.5509486473097246
1800 1
4.@@ 0.8490553605244257
68 0.7270575981037739
69 0.7930138589731505
AS 0.7376563321544812
Azim@@ 1
Der@@ 0.7407909950895528
Disney 0.7806629328945855
Haw@@ 0.9941445810542624
Pent@@ 1
Sah@@ 1
Sem@@ 0.761188592044081
Som@@ 1
Umb@@ 1
Up 0.9461426912719181
abaka 1
ark@@ 0.7849647671759846
arr@@ 0.36704625469743785
delta 1
dik@@ 1
dikt@@ 1
res@@ 0.17701005882666157
yid 1
1625 1
Bayer 1
Buh@@ 1
Hamburg 0.6692850245036646
M.@@ 1
Neg@@ 1
Osmani 1
Pom@@ 1
Song@@ 1
Tem@@ 1
afanuzi 1
akini 1
akus@@ 1
angala 1
angilio 1
arab@@ 1
arak@@ 1
awaida 1
chor@@ 1
esab@@ 1
inev@@ 1
lak@@ 1
pp@@ 0.5060827155901776
unya 1
was 0.004274925137285774
ו@@ 1
109 1
40,000 1
Bob 0.6540818791089232
Cib@@ 1
Del@@ 0.41081880250139813
Je@@ 0.6722849426332705
K. 0.8490518513250991
Lok@@ 1
US@@ 0.6451660073356009
ahudi 1
akar@@ 1
arida 1
ger 0.299095520085149
heria 1
ins@@ 0.27029795559393033
inti 1
isiwa 1
jiografia 1
kok@@ 1
nyan@@ 1
rud@@ 1
yer@@ 1
1836 1
71 0.7698377723350209
76 0.7283300248318398
89 0.8662593942789397
Frederick 0.9656525065294993
Hir@@ 0.902015418979532
Kand@@ 1
Kuch@@ 1
Mau 1
Mn@@ 1
Tal@@ 0.5912441959788156
Ty@@ 0.9137413936921013
hit@@ 1
kete 1
ney 0.45951092117994785
oki 1
que 0.008503940565215943
www.@@ 1
1911 0.45629687131607033
25,@@ 1
Abdul@@ 1
Kind@@ 1
Lag@@ 1
Pennsylvania 0.5153357550589857
Pretoria 1
Sor@@ 0.6266683628892458
Vin@@ 1
atani 1
atu@@ 1
aunti 1
aw 1
eda 1
glut@@ 1
kaya 1
oste 1
pap@@ 0.8988373384025721
市 0.3921217261465663
1880 0.6728125603725809
1921 0.384169713449766
America 0.21749062037134126
IA 1
IN@@ 0.7311460710041464
José 0.2975723406301095
Kany@@ 1
Khar@@ 1
MC 1
Saf@@ 1
Tand@@ 1
Tours 1
US 0.1033813166142459
West@@ 0.36115629130171606
ard@@ 0.36161209869357175
athi@@ 1
bra 1
car@@ 0.13393525385489005
hiwa 1
japani 1
pro 0.5076369434978037
ren@@ 0.23355291378111237
sea 0.3318414761930678
ugo 1
ustani 1
ving@@ 1
6.@@ 1
91 0.84503150045667
AI@@ 1
Bid@@ 1
Bol@@ 0.5916845563774491
C.@@ 1
Eng@@ 0.8558275338706601
Jordan 1
Kub@@ 1
Mang@@ 1
ahara 1
ambuli@@ 1
baa 1
bira 1
bung@@ 1
hed@@ 1
http 1
kukat@@ 1
mali@@ 1
oja 1
vitamini 1
ˈ@@ 1
​ 1
110 0.9698204741677113
Aur@@ 1
DP 1
Hai@@ 1
Mr. 0.7625140580050129
Orchestra 1
She@@ 0.9014669244711768
adirio 1
ambul@@ 1
ante 0.1274560706018586
ates 0.12908240622545789
azamaji 1
ekeb@@ 1
gi 1
hu 1
jaw@@ 1
mark 0.6248791661045976
mer 0.23482814879775993
oleo 1
oso 0.5010124518770882
piano 0.7196091718121326
singi 1
tari@@ 1
unde 1
uwe@@ 1
wane 1
37@@ 1
96 0.7430502904284061
Antoni 1
Bir@@ 0.6045087783174696
Bos@@ 0.7734383094332133
Boy 1
Dav@@ 0.9167968872442361
Filipo 1
Jab@@ 1
Khalifa 1
Mav@@ 1
Mike 0.5885707194514578
Nach@@ 0.4978199015051455
Norway 0.9856299135755423
Ontario 0.6134529654263489
Plat@@ 0.9848782628561893
Scotland 0.5456622091860649
São 1
all@@ 0.2440200868655443
ampa 1
arabu 1
ehebu 1
engine 0.4997807460570127
est 0.009810372250828994
fus@@ 0.9624449529073448
hil@@ 1
ies 0.19082052363022076
ikio 1
illa 0.3519102052654725
issa 1
kimya 1
misaf@@ 1
oper@@ 0.5858557928022929
ras@@ 0.7620335171623164
sur 0.030004507931594947
tumb@@ 1
ufe 1
uham@@ 1
war 0.023427413219894985
1,4@@ 1
12,000 1
1884 0.7730292025070837
1887 0.7596259065026556
1904 0.5071967223423715
Afro 1
Bad@@ 0.7433024295242596
Gol@@ 0.6273674582104655
Lincoln 0.8142291078823521
Ma 1
Nus@@ 1
Pac 1
Pas@@ 0.44151787745087007
Press 0.7072093047040321
Sun 0.6162853268361025
abi@@ 1
asiye 1
his@@ 1
jal@@ 1
kulu 1
lar@@ 0.41419916618749064
moy@@ 1
tro@@ 0.4306345260764127
uit@@ 1
Beach 0.6635968860319572
Institute 0.25742579477705885
Nim@@ 1
Oy@@ 1
Peters 1
RA 1
Saba 1
Tut@@ 1
Zab@@ 1
age@@ 1
buni 1
from 0.010045506751025678
idia 1
inka 1
km2 1
udio 1
une 0.015426068206349342
1899 0.5977913040875589
Ally 1
Blue 0.48920799269760323
Bro@@ 0.535279409134014
Durban 1
Fi@@ 0.6341523878313188
G. 0.6198840899928021
aceae 0.5646510478542295
dar@@ 0.6508438420883745
doni 1
hy@@ 0.597810902333726
lind@@ 1
low 0.1938525212585433
otor@@ 1
ping@@ 1
tago 1
toa 1
wimbi 1
zen@@ 1
Abit@@ 1
God@@ 0.9606484999054282
Great 0.30099936286072004
Lazio 1
Qaeda 1
SA 0.6560042338330662
Sultan 1
Tav@@ 1
Win@@ 0.5866661316858003
Yus@@ 1
ejeo 1
ern@@ 0.3582408292461617
huba 1
kaf@@ 1
kupum@@ 1
lif@@ 1
nor@@ 0.5609588094050251
obe 1
omali 1
ongoji 1
sy@@ 0.7323332608151857
1891 0.6827566900227113
53@@ 1
87 0.7828150175781168
EC@@ 1
Kang@@ 1
Peace 1
Sweden 0.8240333530927025
Territory 1
abab@@ 1
aluma 1
ekodi 1
imeh@@ 1
mini 1
patia 1
run@@ 1
sou@@ 0.43834989196013036
tem@@ 0.7674867769237017
unach@@ 1
1898 0.5724331982847329
Britania 1
Day@@ 1
ES@@ 0.7367827966686258
Gaza 1
Gold 0.5768741711149709
Haf@@ 1
Road 0.23649271963020657
Trans 1
Tupac 1
Ven@@ 0.8059695946024413
agu@@ 0.5392288141559026
beta 1
dai 1
ks@@ 0.55250150735595
let@@ 0.670377633046071
pik 1
wor@@ 0.4238499027777562
160 1
5.@@ 0.8598131632611941
57@@ 1
97 0.812671995986595
Bin 1
Est@@ 0.40327465568416365
Frankfurt 0.7811403184439655
Ibn 1
Iw@@ 1
Jr 0.7128909238586824
Lor@@ 0.6934270468720762
Lum@@ 1
Margaret 0.9319821394267408
Neb@@ 1
Vanuatu 1
`@@ 1
adiliko 1
ci 0.23747137527699635
da@@ 1
elezi 1
ifuat@@ 1
ikan@@ 1
non 0.11373008780269414
owe 1
thi@@ 0.8207025325096864
toum 1
yok@@ 1
74 0.6869677721388086
Bang@@ 1
Ca@@ 0.791961610144749
Fort 0.440539744952387
Gau@@ 0.7411381196667334
Mariah 1
Romania 1
Seg@@ 0.874930412049871
Wel@@ 0.8405924462385552
acho 1
ais 0.40414622973456915
azia 1
bero 1
gre@@ 0.8614175236877618
indano 1
kran@@ 1
ode 0.8421523500488106
oud 1
oya 1
solo 0.2184594587516641
thiop@@ 1
uhu 1
well 0.060860371999818905
1,6@@ 1
11.@@ 0.9737209292894556
92 0.7158938324625994
93 0.7468701342735569
AC@@ 0.7186252059438893
ARC 1
Anne 0.548292140315161
CL@@ 1
Fe@@ 0.4606414664902235
Gas@@ 0.7360468432991968
Hes@@ 1
Jen@@ 1
Kaw@@ 1
Kot@@ 1
Max@@ 1
Ml@@ 1
Rug@@ 1
Sag@@ 1
Ze@@ 0.6340035509984734
alid@@ 1
efu 1
ekw@@ 1
enz@@ 0.32981863276220513
indu@@ 1
kumbu@@ 1
kuru 1
media 0.24231142726651453
ns 0.38271740089717166
oué 1
panda 1
sok@@ 1
ա@@ 1
1791 1
1839 1
1915 0.4048991892211734
22,@@ 1
94 0.780158123078461
Abba 1
Andes 1
Dol@@ 0.5773408111256693
Od@@ 1
Roger 0.6970753576360631
Toyota 1
ess 0.184497399443789
hug@@ 1
mang 1
ology 0.18927535608744608
tic 0.25998962956312366
use 0.07898164605471326
val@@ 0.3874573461100954
11@@ 1
1897 0.5719428094916851
1901 0.508877120928565
84 0.7057216652930149
AR@@ 0.6146090007792885
AT@@ 0.6912239267152384
Alex 0.8658250171408661
Brian 0.7208059992646856
Fon@@ 1
Gir@@ 0.8221567850040852
Is 0.674516002634297
Nin@@ 1
Rab@@ 0.951574632274195
Russia 0.4146566129818155
Solomon 1
Tov@@ 1
XIV 1
amerika 1
ich 0.26731277201845166
lich@@ 0.8236611426082251
lima 1
pom@@ 1
ps 0.24918030984498815
uja 1
ô@@ 0.8694515421520758
08 0.7300655587828065
140 1
Amb@@ 1
CE@@ 0.7288563829603003
Film 0.16444492428076632
Fin@@ 0.5554377996755139
His@@ 1
Lom@@ 1
Orange 1
ajika 1
ambe 1
aud@@ 0.8284263184079179
ebu 1
elem@@ 1
fululizo 1
ico 0.286093519171901
kuliwa 1
lis 0.5350988207993497
mn@@ 1
od 0.5876057584119073
ole@@ 1
pil@@ 0.5677441947914833
popo 1
xi 1
47@@ 1
500,000 1
60,000 1
82 0.7099543053536311
86 0.714688420386733
Baden 0.8914262357599486
Davis 0.5689698421653184
Klara 1
Kos@@ 0.9431237137920812
Mob@@ 1
Wilhelm 0.420722450891465
Ya@@ 1
aam 1
aland 1
amar@@ 1
che@@ 0.6345980266553054
enza 1
fre@@ 0.2984709948493038
hira 1
my@@ 0.7160247877864141
nav@@ 1
uala 1
ugenzi 1
uzam@@ 1
00@@ 0.844715913907683
1866 0.639555171035419
77 0.678108985261042
9,000 1
Addis 1
Cambridge 0.6416631106487294
DA 1
Emmanuel 1
France 0.07569309047846356
Gabriel 0.9042445555124694
Hesse 1
Hippo 1
Krist@@ 1
Lang@@ 0.4456499269967327
Misa 1
Movement 1
Obama 1
Panama 1
Pre@@ 0.3114655589294079
Sad@@ 1
Sho@@ 0.6781168193730618
Street 0.16886104506767233
auso 1
bar 0.2703188957750711
bera 1
bury 0.6298545429247799
ism 0.19733258489533795
juk@@ 1
neo 1
olia 1
sey 0.5443076361164082
sho 1
00 0.35228593384155066
81 0.704348156197236
ANC 1
Arts 0.2762856343312395
Free 0.7666453027282052
Fur@@ 1
Kairo 1
Steven 1
Trans@@ 0.4373250768207296
als 0.015759802909893737
banda 0.47933790430987466
den@@ 0.2227004235232313
inger 0.3197428441525395
meth@@ 1
oph@@ 0.3735373694443997
sand@@ 0.9019241251393552
som@@ 0.6365218378427926
tur@@ 0.24469192248550672
ukwaa 1
wili 1
130 0.9156633437642756
27,@@ 1
Bank 0.35052157874385964
Dakar 1
Fat@@ 1
Goguryeo 1
Hollywood 0.6710198566894682
Laur@@ 0.9763552138638567
Lil@@ 1
Mass@@ 1
Ong@@ 1
Post 0.4668885043911723
Pu@@ 0.7286532562996754
Ruv@@ 1
Shakur 1
Sis@@ 1
anze 1
asin 1
emokrasia 1
ener@@ 0.7200608292317144
ful@@ 0.9263682194004027
kos@@ 1
laz@@ 1
lu 1
mashu@@ 1
opera 0.8704935257168012
sonia 1
tata 1
uri@@ 1
1892 0.6118771152192881
75@@ 1
Beijing 1
Cop@@ 0.6921033029920308
Earth 0.5308015623627028
England 0.1464228955699715
Grace 1
Howard 0.6987711274964663
Hussein 1
Lil 1
RE@@ 0.766847551270538
Rashid 1
Venezuela 0.6946540316503435
alla 1
ao@@ 1
ations 0.055111816886573683
ays 0.2632208579126271
bus@@ 0.5365021320366309
del@@ 0.31949789900670084
dem@@ 0.2817826431109134
gul@@ 1
ichana 1
isiti@@ 1
izi@@ 1
my 0.3827169423292628
num@@ 1
ongoz@@ 1
sou 1
thro@@ 0.9174409372226663
unj@@ 1
weke 1
201@@ 1
24,@@ 1
7.@@ 1
Be 1
Centre 0.33129244762550536
Chem@@ 1
Development 0.47416869018078955
Lat@@ 0.6368492801709884
Naz@@ 1
Pap@@ 0.5026745063450077
Prot@@ 0.5136111503497757
Qatar 1
Ross 0.8694307661393371
Sever@@ 1
andinavia 1
bomba 1
ehem@@ 1
etta 0.6808187191401238
hala 1
imia 1
keti 1
orea 1
raga 1
reg@@ 0.2028365627848635
tume 1
„ 0.02861434611397189
103 1
105 1
1895 0.541435896722602
Alfred 0.6086779828418986
Dani@@ 1
Dũng 1
Ellen 1
Haya 1
Iceland 1
Isaac 1
Juventus 1
Len@@ 1
Nap@@ 1
On 0.038002222534777585
Pau@@ 1
Sat@@ 0.8450968540700947
Taiwan 1
Tamb@@ 1
UK@@ 1
Ufu@@ 1
We 0.4328040788252912
ariadha 1
bos@@ 1
idizi 1
isini 1
itaka 1
kiza 1
krom@@ 1
okia 1
olo@@ 0.9992206840457758
ten 0.045554421297843144
ungufu 1
zuka 1
101 1
4000 1
78 0.6503826577591831
Bosnia 1
Brothers 0.9765169653725554
Fox 0.5743668562299176
Kitur@@ 1
L. 0.4953232812599554
Live 0.47635095693131296
Lạc 1
Main 0.515481879835653
Napoleon 1
Nye@@ 1
Shir@@ 1
Tag@@ 1
Vig@@ 1
XV 0.9244762181915758
Zin@@ 1
adan 1
cu@@ 0.18948344510389006
dei 1
eski 1
eu 0.44170458205040575
gl@@ 0.3559528946546107
huang 1
imto 1
ion 0.27600116617936227
rav@@ 1
rei 1
til@@ 0.44115731399126634
yc@@ 0.7696829828061229
34@@ 1
Daily 1
Die 0.017686105756865547
H. 0.40426790431744647
Haiti 1
Kem@@ 1
Kok@@ 1
Laden 1
Laz@@ 1
Lem@@ 0.907311785485627
Nov@@ 0.5062680278485313
Now 0.9616348112474318
Rail@@ 1
Shi@@ 0.6617150828565022
WHO 1
akh 1
ales 0.09127810919845146
amoto 1
athi 1
atr@@ 0.40105801294555454
eck 0.44311983902437846
erina 1
ett 0.3137800928357587
giji 1
haria 1
ikal@@ 1
land@@ 0.3043726251712983
106 1
360 1
Ahmad 1
Canterbury 1
Foreign 0.8314614537803796
Global 0.8400060416114815
Haz@@ 1
Shay@@ 1
Sicilia 1
adhimishwa 1
bs 0.34860084257189283
dan 0.358096721711564
ebi 1
ebo@@ 1
eh 0.818444335701497
fo 1
haba 1
hr@@ 0.488978592067599
iri@@ 1
ishati 1
jili 1
jumu@@ 1
klin@@ 1
mbing@@ 1
miliki 1
poli@@ 0.9763417882678297
ster 0.2657802265831275
tete 0.5869570525405658
ty@@ 0.3818753042814592
uda 1
1200 1
1861 0.6653663258060009
1871 0.6259772017471402
Allen 0.7133397194592691
Bum@@ 1
Da 0.36891437739251104
Ga@@ 0.8492917592982482
Gil@@ 0.5914624064147015
Kaf@@ 1
Lake 0.2395439252535868
Lub@@ 1
Mub@@ 1
Sig@@ 0.8572800016471793
Stanley 0.9023043918968366
Tas@@ 1
Tek@@ 1
auli@@ 1
ayi 1
bis@@ 1
eland 0.756818105942644
fas@@ 0.9630048401838293
ifuata 1
iliyor@@ 1
int@@ 0.3551962094307151
ja@@ 1
kak@@ 1
lin 0.3650181687844439
mor@@ 0.23921065589082452
out 0.04384236446378182
pag@@ 0.990588272776787
tendaji 1
tin 0.2398501510268738
uth@@ 1
ys@@ 0.32120970713045643
01 0.6812008436667178
1,8@@ 1
Ann@@ 0.610336752106636
Bonif@@ 1
CNN 1
F.C 1
Fran@@ 0.6822673163778773
Hem@@ 0.8464447189742315
Hills 0.9423203105080283
Kelly 0.8590530172943651
Lati@@ 1
Nan@@ 1
Qur 1
Red@@ 0.3826966695447253
SS@@ 0.9309163979498764
Uy@@ 1
aster@@ 1
atan@@ 1
ayan 1
dugu 1
ide 0.3694913899534934
igano 1
izofr@@ 1
kimb@@ 1
meng@@ 1
onea 1
ria 1
sol@@ 0.24844110499262512
tok@@ 1
umisha 1
ão 0.9561254914610106
05 0.6775662498173983
1,9@@ 1
10.@@ 0.650190583264305
1893 0.5648510768588508
26,@@ 1
8.@@ 1
Algiers 1
Allah 1
Alliance 0.8474910715843642
Ard@@ 1
Num@@ 1
OS 0.6509529712942814
Usw@@ 1
Wand@@ 1
Zaire 1
aksi 1
inth@@ 1
kamera 1
mojaw@@ 1
pyuta 1
ran@@ 0.22727879560083752
tet@@ 1
vena 1
way 0.09135314483433714
zab@@ 1
25,000 1
450 1
Ashanti 1
Bundesliga 0.8393912513392463
Diego 0.5146337996737321
EMA 1
Harris 0.8357190962410134
Long 0.4080869992410329
Max 0.4294097416967373
Santos 1
Suez 1
Tim 0.9032119680212838
Tus@@ 1
Villa 0.6010832378593622
Wau@@ 1
aan 1
ance 0.10528460119690616
kin 0.42104992261677676
ky 0.34651767405115186
unguko 1
1894 0.5639920102789969
Ababa 1
Alpha 1
Atlanta 0.7624840961405659
Claire 1
Eric 0.7037017100534113
Jan@@ 0.5403097526496808
Ltd 0.9430700981108495
Luis 0.40088460090243777
Ohio 0.3773950386702498
Ony@@ 1
Orleans 1
Pan 1
Sun@@ 0.7826400081979834
WA 1
adia 1
akal@@ 1
aq 1
awia 1
ax 0.6575368737644876
band@@ 0.8917854641639287
ets 0.12950281689515186
hayaj@@ 1
hep@@ 1
lor@@ 1
more 0.03929049601775247
vo@@ 0.4760121738667335
zee 1
ø@@ 0.5368848913690721
ː 1
06 0.6990816570718174
170 1
1840 0.7900920074969068
43@@ 1
Ankara 1
Bayern 0.786590043088315
Cup 0.11873221056899276
Dioecesis 1
F. 0.4506189130981516
Girls 0.9116786072404875
Kazakhstan 1
Lak@@ 1
Lesotho 1
Microsoft 0.7750111161080707
Pale 1
Serie 0.4041418186069727
Stephen 0.5562386884052631
Sulawesi 1
Sus@@ 0.7695187583414868
Theatre 0.4026836167346064
Yam@@ 1
abiashara 1
abr@@ 0.7736206524531191
bai 1
bie 1
edia 1
enzo 1
ga@@ 1
grav@@ 0.641316078138914
him 0.048163471628107656
ispaa 1
okrasia 1
pari 1
semin@@ 1
tes 0.09815062803918409
yor@@ 1
107 1
21,@@ 1
Adolf 0.9498358456050424
Anderson 0.6641585922143752
Arabia 1
CB 1
Darfur 1
Den@@ 0.6556572342294336
Ezra 1
Ful@@ 1
Sas@@ 1
Seng@@ 1
Sinai 1
ador 0.21579295617808147
ag 0.6541642010315323
bee 1
chin@@ 1
esti 1
han@@ 0.8973996187976346
ias 0.9254252887597271
key 0.298683098682377
kez@@ 1
mazo@@ 1
oth 0.6728001331668565
pet@@ 1
tilia 1
umbusho 1
usur@@ 1
03 0.7525585386889433
BC 0.42850514287966424
Baby 1
Buy@@ 1
Dennis 1
Faus@@ 1
Front 0.6855463158399894
Hand@@ 0.4687322522836688
Hans 0.35761892676674945
Harry 0.5070423005096576
Marcus 1
Med@@ 0.6909026880199483
Missions 1
Morocco 1
Shah 1
Silva 1
Soul 1
Tre@@ 0.37188548051357856
Trier 1
Youth 0.7784114660591599
aidizi 1
ainishaji 1
amas@@ 1
apar@@ 1
bati@@ 1
bez@@ 1
ck 0.45064035472428177
iza 1
may@@ 0.6723243330500345
nh@@ 0.3145550284297638
odha 1
omin@@ 1
ons@@ 0.3413483614202473
our@@ 0.3973327958594964
soni 1
tin@@ 0.6428827040580054
ָ@@ 1
Art 0.15201826408801994
Dou@@ 0.7561219357914757
Kili@@ 1
Les@@ 0.6879982737919307
NA 0.9615833162533908
RI@@ 0.8717444135090741
Rap 1
Same 1
Seoul 1
Sit@@ 1
Tou@@ 1
Tuk@@ 1
Var@@ 0.5647388986918082
^ 1
andisi 1
angi@@ 1
att@@ 0.2618226886844071
aun@@ 0.6367347607490805
biu 1
chen@@ 0.5185014816358103
elia 1
ep 0.729780085917828
ex@@ 0.08574614852359966
fes@@ 1
lie 0.4016100716028976
ling 0.17378886057008489
madeni 1
md@@ 1
ofau@@ 1
ors 0.08736590298936009
80@@ 0.9300758157974188
BA 0.7628390092906399
Barbara 0.8568767977475189
CS@@ 0.8050036589637443
Cre@@ 0.323034682511296
Denis 1
Dub@@ 1
Fad@@ 1
Gb@@ 1
Gur@@ 0.9943086627287931
Houston 0.6707666210669222
Ij@@ 1
Lac@@ 0.8269412838445702
Lawrence 0.7800235841821018
Milan 0.8017900074861045
Mum@@ 1
Nat@@ 0.929371408141601
Queens 1
Rut@@ 1
Song 0.42449457209899993
Tsh@@ 1
Valley 0.32789586104925833
Victor 0.6080089087318795
Wallace 1
Yak@@ 1
aguso 1
alum 1
fel@@ 0.544134814812063
fuatia 1
ize 0.6582348324010986
kg 0.5239091666206285
kugawa 1
kukus@@ 1
kutambu@@ 1
ose 0.4821743785375691
owa 1
poin@@ 1
yang@@ 1
ym@@ 0.5062871004819752
én@@ 0.3023556172666555
ï@@ 0.3890361858420594
1,7@@ 1
2,0@@ 1
34,@@ 1
Bell@@ 0.8199380471347315
Country 0.5906725335523367
Cur@@ 0.35232600413790743
Galil@@ 1
Kuh@@ 1
Minnesota 0.5165943657972887
Mississippi 0.753206107186899
Nation 1
Ot@@ 0.6934085520124448
Rem@@ 0.4891818497430183
Sarah 0.7525579189463969
Sev@@ 1
Slovenia 1
Timor 1
Uruguay 0.9397840055320016
chui 1
con@@ 0.07363870875307779
dam@@ 0.6842468686147719
din 0.9331949257014002
mom@@ 1
muh@@ 1
ometr@@ 1
ski 0.31531330858735346
taki 1
tan 0.29390051185824684
ukat@@ 1
yn@@ 0.34697819981284933
ABC 0.7156859600571567
Abdul 1
Afric@@ 1
Amsterdam 0.8465741971075043
Can 1
Daw@@ 1
Inter@@ 0.1943498480503297
Juan 0.21342547950919583
Konstant@@ 1
Lewis 0.5054773168363399
Luc@@ 0.5661493151619587
Nur@@ 1
Ray 0.6770156139583016
Sid@@ 1
Whit@@ 0.5171826782268638
aalamu 1
aia 1
alie 1
anna 0.8476423057579733
atus 0.41095745887151597
hom@@ 0.28981747739987157
lig@@ 0.3663137515992613
lov@@ 0.9433172167093362
mtaal@@ 1
oster@@ 1
ric@@ 0.8429756281041282
ser 0.09231314858129001
taba 1
tisi 1
undisho 1
á@@ 0.16499320492603553
ō@@ 0.5558005992839581
1881 0.5929829663072524
Abdullah 1
Cordoba 1
District 0.11585430906911408
Fun@@ 0.9857714414500733
Girl 0.8470539764616187
Joseon 1
Mafia 1
Nol@@ 1
Raf@@ 1
Ruk@@ 1
SS 0.42604655492820803
Saturn@@ 1
Sports 0.4278390151559779
Suleiman 1
eman 0.5398744949063508
graf@@ 1
ide@@ 0.3373901393302591
ien 0.21709490605118975
ill 0.2562625124086907
inn@@ 0.3792016475808782
kipen@@ 1
kl@@ 0.2635799387567466
lands 0.2978663816213102
nach@@ 0.39971218262813396
olanzi 1
ont@@ 0.6779907121685017
satel@@ 1
teri 1
tivo 1
ward 0.2983851479893896
Banda 1
Brooklyn 0.8595352033854337
Cat@@ 0.4134505163545116
Chin@@ 0.9144607683356297
Donald 0.7348419764359421
Jaz@@ 1
Kath@@ 1
Kennedy 0.7623864087999883
Lup@@ 1
Op@@ 0.3757839334066702
Oscar 0.7838932683934287
Rah@@ 1
UU 1
Ung@@ 1
ambuliaji 1
blog@@ 1
ehemu 1
enn@@ 0.2814567269382291
etab@@ 1
hudi 1
ikira 1
kilogr@@ 1
kitab@@ 1
ony 0.6512983653920935
ow 0.29915487191368734
para 0.0246656173013306
situ 1
str@@ 0.11928013449119129
tof@@ 1
town 0.09246303055008877
wang 1
290 1
38@@ 1
AF@@ 0.9319300811484584
Bam@@ 1
Bernard 0.6261798594241023
Bé@@ 1
COVID 0.5050846496322645
Corps 0.3889519879387716
Felix 1
Jacob 0.8025806487930197
Je 1
Marais 1
Mauret@@ 1
Nature 1
Patr@@ 0.8848330475882289
Porto 1
RT 1
Shia 1
Sow@@ 1
TK@@ 1
Township 0.4605046699754372
Wenger 1
able 0.050985346488963905
alay@@ 1
aran@@ 1
asio 1
ated 0.04471296175079598
atie 1
audio 1
baj@@ 1
ff 0.3567217367469142
got@@ 1
onek@@ 1
riz@@ 1
up 0.03697428228042224
wara 1
1,3@@ 1
3,0@@ 1
AR 0.9339931924590846
Beng@@ 1
CA@@ 0.4887592039556227
Colorado 0.5490246533069859
Copa 0.44529612885467007
Div@@ 0.6315315878490125
Emmy 1
Equ@@ 1
Little 0.3860661014698726
Lombardia 1
Mom@@ 1
Mongolia 1
Nana 1
Network 0.5191719795436113
PA 0.6241199559951888
Pir@@ 0.6979807669221574
Sm@@ 0.9431700725445807
T. 0.5163819760238182
Tol@@ 0.7227274156566135
XVII 0.9379015380164759
Yo 1
Zak@@ 1
Zel@@ 1
beb@@ 1
dol@@ 0.7083389111716301
fer@@ 0.1427575933379592
inz@@ 1
kah@@ 1
lol@@ 1
nas@@ 1
uklia 1
utaka 1
vur@@ 1
108 1
1830 0.7237216091095295
1850 0.597092484742019
320 1
50@@ 0.7175299170608136
Alaska 0.9608337860344656
Barn@@ 1
Bolivia 1
Boys 0.7397426144806731
Brooks 1
Council 0.14793224206954372
Game 0.42422697212515426
Helen 1
Maryland 0.6012739596228663
Pak@@ 1
Pemb@@ 1
Pop 0.9471207136314977
Rak@@ 1
TA 0.7433422214899635
Tang@@ 1
Ten@@ 0.6860736699950967
ahu 1
alon@@ 1
arg@@ 0.48100871786895594
bou@@ 0.5166363524220523
department 0.4071335238581474
ei@@ 1
fo@@ 0.2674468623073965
iss@@ 0.32553752284219917
keli 1
kh 1
kilo 1
log@@ 0.3537013328579441
men 0.06947869371565885
pete 1
thumb 1
urujia 1
á 0.22354000865371082
1600 1
1700 1
1909 0.358687680379269
28,@@ 1
Ale@@ 0.9834747840417534
Bra@@ 0.9220501916572206
Bush 0.9174288185337551
Business 0.49672376773327814
Chil@@ 0.6947295384067849
Church 0.14272001885102703
Corporation 0.3800168194826306
Cro@@ 0.41724093554469793
Dre 1
Dur@@ 0.5351461718553914
Forbes 1
Haj@@ 1
Hy@@ 0.4369804873374646
Iz@@ 1
Kamer@@ 1
Leon@@ 1
Leopold 1
Livingstone 1
MS@@ 0.9911120011296792
Polin@@ 1
Tel@@ 0.5098667655332946
apishaji 1
biana 1
dal@@ 1
ef 0.7418070643337912
eter@@ 0.8407128879301538
giz@@ 1
inge 0.8129333967332016
not@@ 0.25607267938158396
ord@@ 0.2997470736654007
orum 0.9474894864002471
teria 1
ump@@ 0.5881800449877559
1869 0.641373094431891
36,@@ 1
Aires 0.46080647477360565
Ann 0.8241698133379817
Azerbaijan 1
Bavaria 1
Bell 0.6377191785610428
Benn@@ 1
Chal@@ 1
Haji 1
Huy@@ 1
Ian 0.9396773482771172
Lady 0.4472677358687528
Lov@@ 0.7357597781622599
Luanda 1
Mario 0.7328078305979514
Not@@ 0.3553771689720768
Oliver 0.8608206067095365
Seb@@ 1
Thailand 0.9438794624499453
Tottenham 1
Wamar@@ 1
aff@@ 0.2879776107323984
anisi 1
ath 0.301896352640457
cr@@ 0.10951641221799031
dop@@ 1
ien@@ 1
likana 1
linam@@ 1
out@@ 0.1670562847369734
piza 1
sti@@ 0.31684639873840154
tung@@ 1
u.@@ 1
æ@@ 0.8275119216027915
1,5@@ 1
270 1
Abo@@ 1
Albania 1
Athens 1
Bahrain 1
Buenos 0.4561381911199947
Cabo 1
Cent@@ 0.8120355919359628
Ci@@ 0.5800858570966614
FDA 1
FO@@ 1
Firenze 1
Gel@@ 0.5261022286857633
Henri 0.45113935467598
Heroes 1
Lebanon 1
Ludwig 0.474803273962817
Pa@@ 0.5017176721022468
RD 1
Sera 1
Tennessee 0.5610998420229685
Tik@@ 1
Valencia 0.962849908708007
Wall 0.9756488111649474
aik@@ 1
doo 1
een 0.6525639405146663
feri 1
iche 0.7474732015822092
ikh 1
jar@@ 1
kugun@@ 1
likia 1
mr@@ 1
nurur@@ 1
ran 0.2372585191505818
ros@@ 0.4493233238498071
senti@@ 1
ê@@ 0.6172834175672111
300,000 1
550 1
Ass@@ 0.9471519661717476
Beta 1
Chim@@ 1
Deci@@ 1
Din@@ 0.6767134097313319
Ep@@ 0.7586327240968508
Gordon 0.6179108093657074
Karag@@ 1
Mok@@ 1
Naj@@ 1
Pic@@ 0.5965976324485892
Plateau 1
Rom 0.9689338617828464
USA 0.22419401042948697
Windows 0.44995518668576684
Württemberg 1
XL@@ 1
alm@@ 0.42891231932744983
art 0.09412862524550121
assi 1
atar@@ 1
besi 1
ein 0.01623481604034015
ekn@@ 1
ensa 1
ides 0.19147808110929768
lara 0.9099406876449585
leh@@ 1
leri 0.5431610781929348
plat@@ 0.6934966209796852
risto 1
taz 1
ud 0.7433450061377028
150,000 1
1882 0.5525895942787187
Alb@@ 0.8224994649827365
Bruce 0.698645589617082
Bruno 1
Cole 1
Gary 0.8481840488520623
Hawaii 1
Ind@@ 1
Joyce 1
Lucas 1
Mahdi 1
Movie 1
Philip 0.6108139226367713
akula 1
anda@@ 1
col@@ 0.14716150803004294
ings 0.09071176186808215
into 0.029459192584158283
ister@@ 0.7671822030050579
itz 0.24184685024429384
lea 1
mate 1
nch@@ 1
off 0.0787864438558277
oug@@ 0.7750130347943616
pare 1
ray 0.8070552426285139
sch@@ 0.0636099431052062
37,@@ 1
Clinton 0.9733651092880004
Deb@@ 0.5537648792998138
Douglas 0.5447233610044171
Eg@@ 0.6951854342042548
Emer@@ 1
Gab@@ 0.9290056098964652
Gl@@ 0.37483223360740986
Guyana 1
Irak 1
Jonathan 0.8622098024751181
Lik@@ 1
Pil@@ 0.5498671132329763
Puerto 0.47270411592833805
Rico 0.7498518229967106
Sime@@ 1
Standard 0.7743271145501651
ait@@ 1
aita 1
auf@@ 0.09606602603432954
erg@@ 0.5179626380791871
eru 1
esi@@ 1
galaksi 1
if 0.1031054882374017
insia 1
lei 1
mari 1
pur@@ 0.2647050311113409
timi@@ 1
uc@@ 0.2970018605871709
usim@@ 1
wei 1
ə@@ 1
Anast@@ 1
Cool 1
ET 1
Facebook 1
Family 0.39238395794865444
IP@@ 1
Johannes 0.5402128956712544
Junior 0.4629368261580054
Maur@@ 0.8798227345866445
Mauritania 1
NBA 0.5061042419138482
PE@@ 1
PhD 1
SE@@ 0.5155575909427853
Shi 1
Tanz@@ 1
Tet@@ 1
That 0.3079203248912664
Tum@@ 1
Volta 1
Water@@ 0.8674912551504479
amm@@ 0.5575991764315651
anag@@ 1
asso 1
hir@@ 1
house 0.1009999915193292
igu 1
inia 1
lat 1
name 0.05438364593487062
ofi 1
ologia 1
poti 1
sing@@ 0.7053348687350405
sky 0.32581347849429604
var@@ 0.5231582966233015
1883 0.5524516380150841
63@@ 1
Cav@@ 0.773763817484612
Dah@@ 1
Emb@@ 1
F.@@ 1
Greenland 1
Gun@@ 0.7535624070267326
Hai 1
KwaZulu 1
Ligue 0.5563643005898447
MS 0.5025497622585016
Magdalena 1
Nathan 1
Saudi 1
Singles 0.5898689509340936
Toronto 0.37608453262481584
Wais@@ 1
Wall@@ 0.6475228287739835
Wayne 0.8721100288821972
aifa 1
air 0.14514957569521575
ank@@ 1
asy 1
ator@@ 0.7239941494782907
cl@@ 0.1723010624885646
emaji 1
ente 0.12137271876693952
gon 1
ikizo 1
ishowe 1
lah 1
opot@@ 1
port 0.18268025504163246
pul@@ 0.3535670645560676
tii 1
umbehai 1
zito 1
β 1
104 1
305 1
70@@ 1
Aleksander 1
Bologna 1
Claude 0.57750328430453
Dami@@ 1
ER@@ 0.6512032103816076
European 0.12374748793491236
For 0.09667064214023081
Friedrich 0.24155265256387096
Jane 0.6401296822566903
Lar@@ 0.4441561821733176
Mih@@ 1
Satur@@ 1
Somaliland 1
Studios 0.558282638961148
Warner 0.7520787998183752
Yan@@ 1
Zo@@ 0.8064572805037292
eini 1
epa 1
estro@@ 1
igizo 1
ison 0.44739948416593955
istil@@ 1
mau@@ 1
ment 0.09597347388864427
pik@@ 1
pora 1
ste@@ 0.17386209429992405
sti 1
sy 0.9185062844686604
tay@@ 1
tera 0.7545681623727936
ting 0.08685995747277377
yr@@ 0.3516478635223887
zur@@ 1
ē@@ 1
100@@ 1
112 1
750 1
Anam@@ 1
Angela 1
Back 0.8425510805763596
Baf@@ 1
Bec@@ 1
Dada 1
Franklin 0.6991072367449013
Himalaya 1
Hot@@ 1
Ice 1
Jennifer 1
Kevin 0.6318034348498287
ML@@ 1
Petr@@ 0.7228475099430303
Quebec 0.7028336605232269
Rouge 1
Sara 1
Ton@@ 0.589123031047541
Top 0.2999725096810002
Zan@@ 1
antan 1
arufu 1
azam@@ 1
bah 1
engel@@ 1
enne 0.19970705001905084
ers@@ 0.7030667883129719
esta 0.10404147478762991
eus 0.7417692925305154
ft 0.26304691711313716
hadi@@ 1
hol@@ 0.26475959584249464
isio 1
isti@@ 0.536228939841618
iwemo 1
leng@@ 1
nz@@ 1
opi 1
sig@@ 0.582181320975046
udani 1
usan 1
2,9@@ 1
Afr@@ 1
Amar@@ 1
Atan@@ 1
Chik@@ 1
Emilia 1
Festival 0.16070199889145986
Gallia 1
Hid@@ 1
Kali@@ 1
Khal@@ 1
MO 1
Marrak@@ 1
Marvel 0.9385567291931672
Mr 1
ST@@ 0.5295325306884406
Sabri 1
Southampton 1
TE@@ 0.8060418658038638
Viz@@ 1
Wi@@ 0.46440518223725186
aca 0.5142812871030369
ack 0.3431375999491589
aman 1
amilia 1
ansi 1
bat@@ 0.26979580212218773
edo 0.7302255950011404
gee 1
ines 0.15067813948146716
king 0.1455399225538854
lev@@ 0.7172277892737782
metab@@ 1
nu@@ 0.5421944165658563
nun@@ 1
ory 0.20628691169311528
spek@@ 1
ther@@ 0.3434158515291514
ī@@ 0.7660774121305715
1865 0.5135307698109518
210 1
AD 0.5187642903531214
Agostino 1
Aks@@ 1
Aqu@@ 0.7504488027776279
CM@@ 1
Campania 1
Cuba 0.622921665787088
Dec@@ 0.2933288541928196
God 0.3580795542745594
IP 0.7175255523983386
Kalim@@ 1
Kenneth 1
Kura 1
Lah@@ 1
Pep@@ 1
Raymond 0.7994065292198249
Ruh@@ 1
Tok@@ 1
Ume@@ 1
Wol@@ 0.61594854120703
amis 1
aph@@ 0.6766507308513865
bron@@ 1
chim@@ 1
jed@@ 1
marais 1
meme 1
o. 1
ock 0.3202677385777893
pp. 1
ram@@ 0.4523135859775155
taw@@ 1
wai 1
18@@ 0.7341566434414303
240 1
6000 1
650 1
Angel 0.990506138643939
Arab 0.6697748247837406
Charlotte 0.646897994557858
Cy@@ 0.5671124319634513
E.@@ 0.8117897941172304
Gis@@ 1
Gul@@ 0.9525203962341656
Jimmy 0.6633426021541428
Joshua 1
Key@@ 1
Las 0.11368623108849849
Luxemburg 1
Newton 1
Paraguay 1
Shim@@ 1
Sunni 1
Uzbekistan 1
Westfalia 1
XIX 0.3800967317842436
adies 1
ams 0.3319963136494952
andra 1
arm@@ 0.30045750941345145
ayar@@ 1
dhul@@ 1
elius 1
endaji 1
epo 1
ics 0.1609135321197513
idge 1
ishana 1
lan 0.5546778087748931
luk@@ 1
mej@@ 1
mkus@@ 1
ness 0.204757868303911
ogi 1
st 0.13399371392518244
sun@@ 0.531613437506092
ukom@@ 1
wand@@ 0.8674080703566581
zio 1
él@@ 0.4066962252911837
1857 0.6354008480868399
Alexandria 1
All@@ 0.4277392892401668
Ambro@@ 1
Bog@@ 0.6612778154922219
Brit@@ 1
Channel 0.492921260191009
Chiba 1
Din 1
Europa 0.2380758623827429
Gang@@ 1
Gem@@ 0.7695571137338848
Good 0.6313229754705482
Kn@@ 0.33256385332262534
Les 0.03430288836762464
Let@@ 1
Many@@ 1
Marshall 0.7176591745649737
Maurice 0.6019370923250985
Migu@@ 1
Mont@@ 0.30257284892379105
Opera 0.6842138872065882
Rum@@ 0.8855447242509896
Salvador 0.7567824139148345
Santiago 0.45215542447154883
Secondary 1
alis 0.44137879828360044
ambu 1
aut@@ 0.5408733971440111
bro@@ 0.3491522938967073
dos 0.06523932768186264
habiki 1
hand@@ 0.3249186306553497
kan 0.6392644268016064
oge 1
owevu 1
ton@@ 0.3336452727555212
via 0.1701700721127073
ב@@ 1
1838 0.8178935135958203
1867 0.5082541338855822
Alan 0.5552066350667497
Cab@@ 0.5611636793285578
Jak@@ 1
Kho@@ 1
Kosovo 1
Kud@@ 1
Leon 1
Master 0.4000866623371738
Mod@@ 0.6589885265355265
Montenegro 1
Mount 0.3634925621523462
Republican 0.3720135012485985
To 0.19398138269091858
Vladimir 0.9920728518550891
ally 0.07409412380461357
amilifu 1
asu 1
diana 1
epu@@ 1
her 0.017435278127963427
inflam@@ 1
ingen 0.17439342339587452
isipaa 1
life 0.05531827536534097
nan 1
neur@@ 0.42799476504138695
omey 1
oun 1
pah@@ 1
polio 1
sei 0.24455350811689663
ū@@ 0.5061287968172025
1.2 1
113 1
260 1
325 1
380 1
Akh@@ 1
Apple 0.6751757218294728
Bernardo 1
Bit@@ 0.862906000656666
Cot@@ 0.6863105538236619
Hos@@ 1
I.@@ 0.9982109145440428
Jac@@ 0.6408219733963375
Jan 0.48578160955605415
Khmer 1
Law 0.28040641129452026
Mek@@ 1
Mes@@ 0.46125924548325875
Missouri 0.4548611829360629
Muz@@ 1
Nad@@ 1
Ne 1
Oman 1
Res@@ 0.3866803111069856
Ses@@ 1
Sib@@ 1
Unit 1
Wor@@ 0.4673622217674118
XVIII 0.6047102298091521
atao 1
choch@@ 1
fos@@ 1
has 0.013918217855823195
imoto 1
itus 1
jug@@ 0.539616115537382
omp@@ 1
pakana 1
pokeo 1
ron@@ 0.7843947338232817
star@@ 0.5265737631986847
tion 0.08062532182938136
ugi 1
uma@@ 1
uvisiwa 1
ver 0.21730283122992797
1,500 1
1815 0.7208669879392838
1856 0.616904584312244
220 1
230 1
280 1
313 1
Abe@@ 1
Adams 0.6390486112961388
Alice 0.6285931880068449
Bau@@ 0.15811409544663804
DD 1
Eliz@@ 1
Football 0.1676887808318711
Giovanni 0.7068366384241995
Hag@@ 0.8771546157336586
Ho 1
Irene 1
Isa 1
Leg@@ 0.41807266252633163
Miami 0.5155623602081965
Mid@@ 0.6062761260204685
Nev@@ 1
SI 1
Shak@@ 1
Shet@@ 1
Thes@@ 1
Trento 1
Wood@@ 0.4801401620844558
Yi 1
abisha 1
adini 1
agr@@ 0.5698646832897967
alam 1
anana 1
bon 0.49571733868520573
effer 1
eu@@ 0.5089871051801447
harama 1
hindi 1
ifa 1
ikaans 1
kar 0.81177448453572
med@@ 0.3758548026394728
mes 0.19388381760609089
othe@@ 1
path@@ 0.4571747053199379
tiana 1
yoy@@ 1
zav@@ 1
1864 0.4689833916122401
400,000 1
Alfab@@ 1
Bismarck 1
Bob@@ 1
DVD 0.3430073827914174
Ernest 0.9031952188526176
Eus@@ 1
Ferdinand 0.6068339554349522
Florence 0.8199973643558445
Git@@ 1
Grant 0.6364926247412838
Jacques 0.3115119920519099
Johann 0.23905119615117085
Kati@@ 1
Lav@@ 0.6992176158535776
Lisbon 1
Mali@@ 1
Miller 0.4567725043588364
Moses 1
Nikola 1
Power 0.4304877748932127
Ren@@ 0.31130006377687985
Ry@@ 0.6081941630457598
Sevilla 1
Shil@@ 1
Slovakia 1
Sykes 1
Tah@@ 1
Uni@@ 0.42830375596336917
Uso 1
Walt 1
Will 0.6917185155234337
Yor@@ 1
` 1
af 0.6410726573896579
alist@@ 1
amen@@ 1
dish 0.8288566897783689
ede 0.5634744601967535
ete@@ 1
ick@@ 0.20476592712626443
miza 1
naf@@ 1
osta 1
ouk 1
reh@@ 1
ret@@ 0.25909720983891504
were 0.00930003351049011
ר@@ 1
12.@@ 0.6811302688564197
1863 0.4833665068474485
3,7@@ 1
310 1
330 1
Adi@@ 1
Air@@ 0.49925813825375137
Arizona 0.44105934525064117
Community 0.4368826325749562
Dublin 0.5850561830414163
Heinrich 0.3058332330139401
Hun@@ 0.5932334498561957
Indiana 0.45339831698118316
Kach@@ 1
Kash@@ 1
Leeds 0.9807188175540792
Lev@@ 0.5532669737649476
Mem@@ 0.6072616156736029
North@@ 0.800534150010796
Rid@@ 0.6315530842876772
Ryan 0.5811001240275975
Salim 1
Shel@@ 1
Sinema 1
Susan 1
Thel@@ 1
Trinidad 1
Vel@@ 0.4986032175106073
Wiss@@ 1
Yoh@@ 1
Zen@@ 1
abara 1
abo@@ 1
acom 1
api@@ 1
arra 1
atta 1
eb 0.8530956016557457
ester@@ 0.7942094350671065
hariki 1
hea 1
hist@@ 1
i.@@ 1
kha 1
lam 1
optera 1
rid@@ 0.9479369266862747
ru 1
ted 0.05469101781510775
tic@@ 0.2569311005349899
uge 1
urani 1
zah@@ 1
ó@@ 0.1790654174255493
ː@@ 1
א@@ 1
02 0.563849299325466
115 1
1300 1
Alt@@ 0.44717642251675926
Ball@@ 0.4297779093465589
CU@@ 1
DO@@ 0.8288826844335163
Ez@@ 1
Finland 0.8683882603948951
Force 0.20008771026833547
Herzegovina 1
Kardin@@ 1
Matt 0.6588094540389726
Milo 1
PN@@ 1
Sony 0.7722571121396022
Taliban 1
Television 0.481523689557689
Yeh@@ 1
alo@@ 1
anim@@ 0.43209345148789535
aro@@ 0.8125333150617293
aten@@ 1
bay 0.33572647013905704
fen@@ 0.6270390242999323
fuatana 1
geg@@ 0.6706354850629459
gus@@ 1
hid@@ 1
ier 0.17666058449586214
nar@@ 0.6094574024212681
other@@ 0.6792062151327803
sar 0.8762427347098246
sis 0.7704280717637523
tul@@ 1
ā 0.928748068100205
11,000 1
1862 0.46824424355266275
Alberto 0.7493649719293862
Apo@@ 1
Aston 1
Baltimore 0.6376558040290564
Bok@@ 1
Costa 0.4603519667281601
Dance 0.6089409236201728
Do 0.5132845332921736
Dro@@ 0.5782838750025712
EC 0.9039656891473598
Hope 0.9616502416906179
IL@@ 1
Julia 0.9384280579779468
Kle@@ 0.5952180646917237
Nations 0.34147716600674566
Petersburg 0.8335728880744869
Sri 0.4895733676612614
Stone 0.4532085644887962
Tung@@ 1
alifor@@ 1
ento 0.4310757691055047
fran@@ 0.8183259986271467
har 1
ken 0.10473011770956595
latitu@@ 1
long@@ 0.620731588338786
mm@@ 1
née 0.2517235231659346
oi@@ 1
osoma 1
tend@@ 0.43333383874280634
ters 0.14035961405968445
ī 0.9682712844313494
́ 0.08731235276203621
ְ@@ 1
13.@@ 0.8002423659860014
211 1
340 1
Abd 1
Abdel@@ 1
Arch@@ 0.511692473070093
Black@@ 0.5577869464772194
Bremen 0.8462357388798828
CA 0.4882545960258075
Caesar 1
Chit@@ 1
Cle@@ 0.8068655817269348
Dul@@ 1
Duma 1
Education 0.20332960056215024
Fab@@ 0.7998944988023349
Fiji 1
Franco 0.7533740580384083
Gam@@ 0.8341424097767932
Home 0.34166353536352956
Hotel 0.4008555422226398
IM@@ 0.6853248798537658
Kuwait 1
Lig@@ 0.5188853866499432
Magaz@@ 1
Mauritius 1
Meng@@ 1
Michelle 1
Mk 1
Pres@@ 0.28434739579487295
Ran@@ 0.4633838585765201
Sass@@ 1
Syl@@ 1
Vienne 1
Way 0.6589426329122153
What 0.5034672564968087
Wu 1
Your 0.5641614834232248
aj 0.6784018958882766
ambano 1
ass 0.3152970622220176
assie 1
aus 0.019474175353637203
gur@@ 1
iliya 1
jap@@ 1
kane 1
rah@@ 1
uan 1
ven@@ 0.19778230075372152
won 0.050464019614309664
š@@ 0.27190006758832386
116@@ 1
13,000 1
1858 0.5968184654142576
1879 0.4577516692573807
2500 1
AA 0.5886581014761165
Anak@@ 1
Arg@@ 0.5863592865758079
Bac@@ 0.8645174011685858
Baghdad 1
Buch@@ 0.3936013803504907
Congo 0.7658411379213474
Connecticut 0.5689739460531024
Côte 1
Dag@@ 0.9897338444097799
Dev@@ 0.34169094647285403
Djib@@ 1
Elia 1
Et@@ 0.4441495728520941
Eva 1
Franz 0.3413988014038526
Grande 0.33349944591126757
Gw@@ 1
Helena 1
Herbert 0.610080652621601
ISBN 1
Inter 1
Kano 1
Kansas 0.3926316778844481
Lib@@ 0.5467445888414849
Lina 1
Lord 0.22682771434253318
Men 0.29428256775596584
NASA 0.8818478231701937
Nde@@ 1
Pam@@ 1
Path@@ 1
Project 0.4407607837240188
Siri 1
Stadium 0.34133305743649806
Stewart 0.6183026099428468
This 0.029714345809260065
Yale 0.9594956068079283
Yu@@ 1
Zulu 1
agh@@ 1
akan 1
alle 0.14054614899265572
aram@@ 1
ativ@@ 0.9873269106668364
atur@@ 0.6622034868705293
azim@@ 1
bosch 1
engenezaji 1
eth 0.5903652993950502
hid 1
isotop@@ 1
izer 1
kem@@ 1
line 0.06219746070486541
ny 0.3684044431245374
rad@@ 0.6028186311497958
raf@@ 1
she 0.025363610500305386
tit@@ 0.7310718501044464
trans@@ 0.10717443414676346
uzo 1
yl 0.4173421002557413
117 1
1873 0.4664410706026536
29,@@ 1
420 1
AM 0.44032027903718535
Abraham 0.7863006907535296
As 0.048747749100320543
Bet@@ 0.5566630126863849
Birmingham 0.648660033843022
Bond 1
Cho@@ 1
D.@@ 0.8614063184920157
Fili@@ 0.8665358427705102
General 0.0800447444343078
Gon@@ 1
Kemal 1
Ket@@ 1
Magic 0.9891557960893259
Monte 0.6911283253017334
Princess 0.7829710172109503
Rif@@ 1
Woman 0.8497643137374506
ampuni 1
asemekana 1
atch 1
atil@@ 1
austr@@ 1
eir@@ 1
ev 0.35752090552210214
gen 0.183303274659076
hon@@ 0.41147642041520477
ical 0.08062605844614482
lar 0.2194697838753875
law@@ 0.49335686921369154
lies 0.17144834461251257
mah 1
net 0.25900500901843254
old 0.07712879733348514
opl@@ 1
osom@@ 1
side 0.06868978308673919
taya 1
tico 0.33845447325252065
tor 0.1528191732463314
uthi 1
ה@@ 1
125 0.6863912484980621
2,6@@ 1
An 0.09764657932840277
Ax@@ 1
Aziz 1
Beg@@ 0.5052683196659691
Dab@@ 1
Emir 1
Fri@@ 0.5203469105401866
Good@@ 0.8126520099882775
Grass@@ 1
Hamilton 0.417817632226423
Jam 1
Jun@@ 0.8433535520814257
Lad@@ 0.6052345213114227
Law@@ 0.8546833669649067
Lis@@ 0.9004858914249381
Lou@@ 0.6434122740732434
MP@@ 0.5322929922444377
Morav@@ 1
Pit@@ 0.7034872691230213
Prim@@ 0.5312028416290339
RA@@ 0.4047767292981232
Rh@@ 0.6090294378042281
Rock@@ 0.7911156648936772
SP@@ 0.4369915981307268
Sang@@ 1
Spe@@ 0.4119401689809739
Sé@@ 0.7769575972865671
Vill@@ 0.41776586537758614
abar 1
ades 0.1802558081642379
ail 0.330485387111313
aire 0.09248195335506901
album 0.036520770712287494
anao 1
atam@@ 1
boya 1
char@@ 0.2110300370040698
eye 0.47394184617753593
gun 0.34572080944417444
ilian 1
k.@@ 1
osia 1
oy 0.5641012355013629
vio 0.7276098480872673
yang 1
114 1
14.@@ 0.744625143855061
1400 1
1878 0.41016119948138774
3.5 1
40@@ 0.5685040983911241
Ajax 1
Bud@@ 0.7433023726414134
Cambodia 1
Cameroon 1
Dan 0.5411041889269357
Dr 1
Element@@ 1
Fir@@ 0.678945907011724
Inc. 0.44834981937997503
Kaj@@ 1
Karak@@ 1
Lol@@ 1
Morgan 0.5418720697115011
Morris 0.6798905664657133
Philadelphia 0.35977218678058875
Pop@@ 0.5699415414639541
RNA 1
SW@@ 1
Shane 1
So 0.17534682553335598
Super@@ 0.23926748782605012
Taf@@ 1
Urban 0.8574615335016091
amel@@ 1
ape 1
atini 1
azini 1
els 0.09345770723530919
enj@@ 1
ents 0.09357171728824525
eshim@@ 1
gn@@ 0.7723276089752711
had 0.011446317493088456
ibia 1
ikw@@ 1
oglob@@ 1
oloni 1
ores 0.1682221181013482
rand 1
tri 1
å@@ 0.609253509365407
ּ@@ 1
1.3 1
1100 1
129 1
1859 0.49951398596619934
2,4@@ 1
Amer@@ 1
B.@@ 0.784442296856159
Bass@@ 0.6444159484898885
Diana 1
Down 0.7274104567637808
Duke 0.3468393411525424
EL@@ 1
Face 1
Fol@@ 0.401368165011321
Gandhi 1
Hasan 1
IG@@ 1
Java 0.8554765043240067
Just 0.6460887052345066
Martha 1
Mask@@ 1
Miy@@ 1
Nav@@ 0.556159444957002
Oc@@ 0.52270580141913
Out 0.4685001421085924
Patricia 1
Point 0.3674384608287483
Ruf@@ 1
Stockholm 0.7950256329261041
Ubun@@ 1
Uta@@ 1
Vij@@ 1
atem@@ 1
bifu 1
cor@@ 0.09407899874323483
diploma 1
fe@@ 0.15619324827198386
fields 0.39699551968690067
form@@ 0.1964139407983701
gy 0.6839076877819352
hoa 0.22052795217786922
hui 0.25708922805827744
iliyoz@@ 1
ipot@@ 1
isto 1
ium 0.3127145056241764
kou 1
kro@@ 1
mivu 1
oh 1
oon 0.49273475538853007
ord 0.5534272864044877
unk@@ 0.4271208340590926
wafany@@ 1
yatak@@ 1
zan 1
zilishi 1
× 0.30521677769261446
114@@ 1
137 1
1837 0.6795867654831858
1844 0.6896055144769964
1876 0.4242214180876634
250,000 1
35,@@ 1
451 1
540 1
70,000 1
74@@ 1
80,000 1
AT 0.5545169588951254
AZ@@ 1
Abbas 1
Armstrong 1
CIA 1
CN@@ 0.7572899286990905
Campbell 0.5934517357257647
Dig@@ 1
Dob@@ 1
Eb@@ 1
Ele@@ 1
Epidem@@ 1
Iran@@ 1
Isid@@ 1
Ivan 0.8063848415574637
Jal@@ 1
Jap@@ 1
Just@@ 1
Kiev 1
LO@@ 0.915060786474938
Marley 1
Marseille 0.8270151152276595
Norman 0.6084605750252524
Palm 1
Pri@@ 0.3843278054581773
Pur@@ 0.3596725687408327
Ray@@ 0.8972431576101568
Rhodes 1
Roberto 0.8259003907217001
Rosa 0.6966834630097077
Ruth 1
Schleswig 0.962385712535696
Tch@@ 0.9244260618740685
Toscana 1
UN 0.6934797817643737
V. 0.3438318550349713
Zam@@ 1
aci@@ 0.27862144246121684
anger 0.3913310227002303
didae 1
ikar@@ 1
kee 1
lywood 1
ops 0.41524447516559243
pri@@ 0.3828782303128988
reggae 1
sini 1
thu@@ 1
ugen@@ 1
uya 1
wur@@ 1
· 0.05253379873752977
ë@@ 0.6880776468073844
1.6 1
1875 0.4354053290732713
19@@ 1
212 1
520 1
Ade@@ 1
Austin 0.5678757639142351
Austr@@ 0.9569066693245761
Band@@ 0.5052498925936639
Bern@@ 0.6294526539772245
Bran@@ 0.5109026453695003
Burma 1
CP@@ 0.6738120077108438
Child 0.9860508920883239
Eugene 1
Fernando 0.4301232895592509
Fund@@ 0.5574838214880808
Future 0.9240712488588694
Gn@@ 1
Hau@@ 0.9511943202266003
J.@@ 0.6707129683216762
Jose 0.765086602717421
Kund@@ 1
Lanka 0.6903573967238937
Lili@@ 1
Louisiana 0.5799632410532115
Lucy 1
Mond@@ 1
Money 1
Of 0.29568096794092186
PC 0.35006198560583607
RO@@ 0.6526822428673247
Sean 1
Service 0.19417332148393013
Siria 1
Tibet 1
Venezia 1
Voice 1
Zuh@@ 1
amad@@ 1
angan 1
anis@@ 1
aren 0.9021009149788973
dad@@ 1
dale 0.4469245104143372
diz@@ 0.749210139268244
enberg 0.3086828376963641
end 0.03664797441912191
fam@@ 0.58612519213334
film 0.028480620237042946
gio 0.9437406372963346
hambulia 1
inc@@ 0.14116083439704546
itz@@ 0.2932970799707095
klor@@ 1
olog@@ 0.6189635187921974
ones 0.11237687706204122
otho 1
ovich 0.9505608286641929
pres@@ 0.15094456361657632
tif@@ 0.6209918929095457
worth 0.2717885244519655
田 0.723162806317897
1.4 1
1874 0.4345962736135944
3,6@@ 1
39,@@ 1
480 1
850 1
Aber@@ 1
Anton@@ 1
Bih@@ 1
D.C. 0.542941252681852
Dallas 0.5671324880229665
Everton 1
Fred 0.6298532102166037
Get 1
Gray 0.7683054786118168
IT@@ 0.6520036409808964
Kro@@ 1
Night 0.34774235865907654
RI 1
Robin 0.7121438857453392
Schutz@@ 0.7203956809474414
Sergio 1
She 0.033418457809345915
Space 0.43822098019899575
Stellen@@ 1
Story 0.6644334857019336
Ther@@ 0.4883096628207312
Toledo 1
abak@@ 1
abul@@ 1
bit@@ 0.35120589854633244
cher@@ 0.4472578694202838
cio 0.5033467513030552
deb@@ 0.5511976585924642
don 0.19255216464509398
egawanywa 1
enburg 0.3979829220342378
fit@@ 1
haut@@ 1
iji 1
islam 1
itw@@ 1
kubor@@ 1
mwanak@@ 1
odia 1
olim@@ 1
oti@@ 1
tai 1
tica 0.24505387602892031
u. 0.3139699720110058
viel@@ 1
yoya 1
zek@@ 1
zie 1
111 1
135 1
1841 0.6687170716751789
19.@@ 0.9605242870489529
2,5@@ 1
251 1
30,@@ 1
302 1
32,@@ 1
370 1
46@@ 1
Afro@@ 1
Aman@@ 1
Anay@@ 1
Brussels 1
CP 0.8680309655593587
Catherine 0.5357559110697011
DE@@ 0.5632201333926634
Dream 0.8272277849611472
Esp@@ 0.37564012536768143
Ey@@ 1
Falls 0.6788304820852131
Gra@@ 0.6225290993694098
Han 0.650332936793507
Harrison 0.6734610192618504
Heart 0.5764164440880009
Him@@ 1
IAAF 1
Manuel 0.2999151030610045
Meg@@ 0.5951637470577641
Nicolas 0.5096400606887306
Pug@@ 1
Reb@@ 0.5773144718138326
Rot@@ 0.31778471154825516
Rup@@ 1
Sanc@@ 1
Santo 0.6291530910017928
Sec@@ 0.4117338293329347
Sheffield 0.9742559016213566
Singapore 0.48623091281163083
Tour 0.13367734871072423
Wuhan 1
Zah@@ 1
ado@@ 0.8982170056926394
amine 1
atlan@@ 1
aug@@ 0.5743908842945189
diplom@@ 0.5729628169620289
ean 0.430699280609786
fol@@ 0.33318503632996765
ges@@ 0.1563534942123471
hie 1
inger@@ 0.6897501804930184
insul@@ 1
ishug@@ 1
mel@@ 0.2005813923700495
mong 1
opath@@ 1
osis 0.3867925472756524
ovi@@ 1
pedia 1
rem@@ 0.25091908850963895
sinte@@ 1
vertebr@@ 1
vin 0.5294752108067874
wasi 1
yg@@ 0.7592037456502242
ʿ@@ 1
0.5 1
1.8 1
1820 0.5030080492130582
2,7@@ 1
311 1
33,@@ 1
35,000 1
Abd@@ 1
Bakr 1
Barack 1
Boyz 1
Duncan 1
EN@@ 0.9680456523916171
Fame 0.45702485162994727
Got 1
Grim@@ 0.8857268944995922
Guinness 1
IF@@ 0.8424003948118942
Jah@@ 1
Jason 0.6016447397304205
Kuv@@ 1
Mary@@ 1
Mili@@ 1
Mission 0.49527310058994073
Nic@@ 0.5084142142074475
Palmer 1
Pasha 1
Pra@@ 0.951539256814951
Ras 1
Sea 0.27372453261379076
Seattle 0.5274609757931974
Stalin 1
States 0.040088264305577576
Stella 1
Sung@@ 1
Ted@@ 1
Tib@@ 0.7823746635552934
WH 1
With 0.11768389092839943
agara 1
alio 1
aq@@ 1
arak 0.9215312815136667
aton 1
ban 0.20021783555655012
dev@@ 0.24239101021670648
dij@@ 1
enta 0.30737242997693
enter@@ 0.3919696587383385
kay@@ 1
lock 0.41427872333497595
odo 1
plaz@@ 1
sc@@ 0.13622914821409252
ses 0.029876988573181607
sos@@ 1
truppe 1
tua 1
É@@ 0.1405194455232842
ḥ@@ 1
16,000 1
17.@@ 0.8182261254425022
1846 0.5884752823055261
306 1
410 1
430 1
560 1
90@@ 0.9184049764150084
Adrian 1
Alabama 0.4612182789867356
Castro 0.8403890392769797
Chap@@ 0.8052063863782433
Cru@@ 0.5688206939577387
DSM 1
DV@@ 1
Fah@@ 1
Flor@@ 0.5796878901750626
Fortun@@ 1
Fro@@ 0.6420142365680969
Graham 0.5843663714455569
Hermann 0.4595088985248552
Iowa 0.41614009585216555
Kent 0.5344540238313251
Liber@@ 0.47791116109599624
Madi@@ 1
Nash 1
O. 0.7805927441446588
P.@@ 0.8849981685898886
Saleh 1
Science 0.19792021022168646
Shig@@ 1
Sofia 1
Tul@@ 0.7159594179343761
U.S. 0.08087463605345702
Uran@@ 1
aim@@ 0.8999452959987065
ano@@ 0.8471425367110987
ave 0.404074525278957
ce@@ 0.2768345548860984
dog@@ 1
gae 1
hayat@@ 1
ikazi 1
inho 1
itindo 1
kuma 1
nat@@ 0.5502692395276236
oraji 1
own 0.06683113629153571
teki 1
that 0.004493969776142448
ukta 1
ulam 1
urdu 1
ux 0.41898017295479184
1847 0.5802308341049875
1848 0.3682153840402937
1868 0.40628431811221316
1877 0.40582209112177214
203 1
309 1
Agnes 1
Andr@@ 0.8973671931393268
Ani@@ 1
Auxerre 1
Banks 1
Baz@@ 0.9579306998596023
Blackburn 1
Blo@@ 0.5748078164287975
Cant@@ 0.5784457731601522
Carter 0.5569652746868341
Cruz 0.4071986565972015
Dave 0.5271858900619969
First 0.11778029067236036
Ghost 1
Hugo 0.5515032870653337
Jolie 1
Kant@@ 0.8014013333207218
LE@@ 0.6196747345174614
MI@@ 0.5686966278843265
Melbourne 0.36599819448249554
Mill@@ 0.5329879956997181
Monica 1
NATO 0.961368109042552
Nazar@@ 1
Organization 0.708272015162546
Phil@@ 0.45760036694169254
Pope 0.4919772866053844
Posta 1
Ronald 0.9879958541412267
Sidi 1
Sto@@ 0.4111871450821141
UC@@ 1
aduni 1
afunzi 1
aharia 1
anc@@ 0.2538626407871286
art@@ 0.38047135081185957
atha 1
aul@@ 0.3835737182555885
avana 1
bana 1
e. 1
fom@@ 1
heim 0.22823217538125248
kei 1
mkon@@ 1
ml@@ 1
nam 0.32297456012019526
omia 1
opar@@ 1
ple@@ 0.21583116911580985
sie 0.021469195610088705
sim 1
tes@@ 0.43264663235690265
ukari 1
yd@@ 0.49858670502912106
è@@ 0.3635194156554332
ó 0.03076335498424761
מ@@ 1
127 1
190 1
215 1
314 1
4,0@@ 1
680 1
7000 1
Abdel 1
Airport 0.2986288412623184
Alf@@ 1
Apar@@ 1
Bamb@@ 1
Biz@@ 1
Championship 0.10967312941481912
Chel@@ 0.9766813726125958
Colombia 0.38349481259082874
Edgar 0.9377046711452037
Ernst 0.3760372003209828
Globe 1
Homo 1
Internet 0.2996606282482836
Lob@@ 0.9232457392902682
Magellan 1
Mu 1
Musev@@ 1
Noah 1
Orlando 1
Ow@@ 1
PL@@ 0.9065985406945469
Pant@@ 1
Prize 0.3937621055914516
SPD 0.6346695072629122
TO@@ 0.819683803032419
Ting@@ 1
Tito 1
Ust@@ 1
Vod@@ 1
Warren 0.6442918580032588
Wikimedia 1
airo 1
alaya 1
anth@@ 0.5068107838861382
ape@@ 1
atir@@ 1
aura 0.9427651854302649
bola 1
cm 0.17353571278912772
ebo 1
fah 1
format 0.2628093086118371
kang@@ 1
lini 1
mem@@ 0.36323600009267604
proj@@ 0.433618402096375
sang@@ 1
sis@@ 1
taf@@ 1
tig@@ 0.29919260443782797
tz 0.5231079209848409
ulana 1
wit@@ 1
yaz@@ 1
yekevu 1
à 0.0035643557591146287
éd@@ 0.7692828986374889
1.7 1
124 1
157 1
204 1
209 1
3,8@@ 1
Abidjan 1
Agr@@ 0.7624727971070818
Arkansas 0.5511281386100532
Aï@@ 1
Cologne 1
Cos@@ 0.34934592642196605
Disk@@ 1
Emirates 1
Gloria 1
Independent 0.4889917751986489
Jed@@ 1
Karen 1
Ki 1
Kre@@ 0.36151652896737096
Land@@ 0.11616474091847212
Leonard 0.8304444893113072
Litu@@ 1
Log@@ 0.4933738859852141
MO@@ 0.6231880094571516
MT@@ 1
Marche 1
Rap@@ 0.5266650814261233
Raw@@ 1
Rec@@ 0.17775843112474488
Rod@@ 0.6287457758389008
Rog@@ 0.826726064229821
Roy 0.4930685977628545
Sahel 1
Samp@@ 1
Tin@@ 0.7609686036342821
Vic@@ 0.43635958052402696
Waang@@ 1
Wright 0.5317099167056821
aburi 1
aine 0.26066666257630194
azi@@ 1
beck 0.8258692247681965
bela 1
bet@@ 0.534450278282519
biri 1
com@@ 0.08255731267274087
dak@@ 1
gan 0.6267675851818623
hij@@ 1
hip@@ 1
ibi 1
iland 1
inyota 1
ipi 1
oaji 1
otom@@ 1
oye 1
ozi@@ 1
pol 0.9775809840841188
radio 0.11860309664290514
rag@@ 0.6387596576593686
rah 1
san 0.5711660430922397
seroton@@ 1
sius 1
taro 1
tel 0.2525381532698393
tola 1
ulaya 1
undi@@ 1
unge@@ 1
usiwa 1
ventr@@ 1
wal 1
water 0.06846189995164617
wol@@ 1
zuk@@ 1
1852 0.5234700162089818
199@@ 1
307 1
4.5 1
600,000 1
640 1
66@@ 1
8000 1
Alig@@ 1
Amazon 1
Anah@@ 1
Au@@ 0.28215275131481504
Bishop 0.3250127792568889
Boh@@ 0.5876405036548878
Carson 1
Did@@ 1
Fas@@ 0.8321954662307419
File 1
François 0.22541714222234238
Ge 1
Hali@@ 1
Holstein 0.8517501042233651
Hospital 0.23654581698811933
If 0.1989572064075178
Ith@@ 1
Kentucky 0.4130396532841418
Ler@@ 1
Marathon 1
Nig@@ 1
Nom@@ 0.83262542129952
Portland 0.5788160277462688
Pos@@ 0.4965687289943049
Productions 0.7511396445929296
Rita 1
Sa 0.22879994760974132
Sac@@ 0.6967489226155937
Sham@@ 1
Sub@@ 0.18615804498242372
Technology 0.3254349497965099
There 0.053002471568208656
Transvaal 1
Vich@@ 1
Vor@@ 0.07845386726623439
alg@@ 0.2965395514562048
ast 0.18596297344545598
biot@@ 1
blu@@ 0.9662534968865375
bre@@ 0.11949856519154754
cher 0.1486586461229217
eaux 0.32022678817856004
ex 0.18994616369735612
hang@@ 0.6415664559226736
ib 1
irani 1
iz 0.5720086484245148
kilis@@ 1
kov@@ 0.6945091203555345
kupig@@ 1
och 1
orn 0.5234332550287498
ort 0.2865458376808804
semi 0.2535331840059744
sv@@ 1
tini 1
tot@@ 0.3685524506700936
ulus 0.8352262094683596
win 0.09059296317295469
yani 1
yek@@ 1
ō 0.2293852622874684
נ@@ 1
120@@ 1
123 1
1854 0.4842968210371549
1872 0.38845538943438035
201 1
206 1
214 1
3,5@@ 1
365 1
431 1
470 1
48@@ 0.938893016454775
5,0@@ 1
AU 1
Ada 1
Allan 1
Andal@@ 1
Boy@@ 0.7951229962978443
CBS 0.5241579053044049
Chi 0.8429326867579511
Clar@@ 0.5605865443212726
Curtis 1
Dee 1
Delhi 0.6396074393560331
Dir@@ 0.9820276506952061
Eastern 0.22655499648647992
End 0.5165650908632758
Gad@@ 1
Janet 1
Johnny 0.48313681432948263
Kav@@ 1
Kilim@@ 1
ME@@ 0.494280304413426
Mac 0.6641183792098386
Mercy 1
Mic@@ 0.7311415491797956
Michel 0.2961372634288382
Olu@@ 1
Ori@@ 0.4981056916980921
Palace 0.4996065463944909
Pay@@ 0.8851873730915875
Silv@@ 1
Simpson 0.8974355891706012
Sind@@ 1
T.@@ 0.9460812789675247
Tat@@ 0.5927949211721539
Tour@@ 0.40374724659308825
Vim@@ 1
Walker 0.46449081025024663
XXIII 1
adu 1
agawa 1
ight 0.30828137977785275
ikom@@ 1
italiano 0.8941545389550334
kini 1
leen 1
model 0.16085186211936894
oku 1
ostr@@ 1
ox@@ 0.37701782878277035
see 0.1006596824839153
sson 0.47739585130541323
ungu@@ 1
wari 1
yay@@ 1
yon 0.6085909847864959
′ 1
1853 0.516331294227906
312 1
440 1
ARA 1
Adri@@ 0.7888494663586002
Alvarez 1
BS 0.7760681401131381
Barr@@ 0.3924924740821554
Bauer 1
CO 0.592547441407394
CT@@ 0.9998282972400037
Ce@@ 1
Children 0.4725391828886588
Dim@@ 0.8906392406956923
Gama 1
Gran@@ 0.3477980340123381
Hotspur 1
How 0.7590481179606476
Jim 0.3098802102506891
KT 1
Kofi 1
Konya 1
Kwa@@ 1
Laura 0.6815375706200222
Lloyd 0.6255965156931339
Lost 0.8810218691553734
Madonna 0.8904607586292983
Main@@ 0.8107721009030725
Manga 1
Mbe@@ 1
Mud@@ 1
Mé@@ 0.30104951491847054
Newcastle 0.7633815233651541
PF 1
PO@@ 0.67594701342228
Plato 1
Powell 1
Salzburg 1
Sup@@ 0.42650255740991305
Ukraina 1
Universal 0.5192926866092632
Valent@@ 1
Venice 0.9726070829916691
Versailles 1
When 0.0752685569970294
Yal@@ 1
Year 0.20303142518282544
aban 0.12340065342129246
aida 1
alum@@ 0.8978097586733169
andao 1
ander 0.6123009070609937
anzilishi 1
astr@@ 0.3513477274681662
athe@@ 1
bal 0.6990642834863154
bel 0.4728834666861054
din@@ 0.2833038081444703
etr@@ 0.9740667398452222
helik@@ 1
icill@@ 1
igi@@ 1
koa 1
kt 0.3683997440882731
loc@@ 0.15327343708020996
ly@@ 0.22368237987438802
mar 0.25918616541874545
mavi 1
nas 1
ning@@ 1
ondi 1
ović 0.6110896228952396
ovo 0.7660541584627379
put@@ 0.763210060816801
try 0.24667062321148017
yakula 1
ος 0.40703138342593054
121 1
193 1
49@@ 0.7341107369911294
530 1
Adam@@ 1
Agency 0.5631695852668952
Bao 1
Buddha 1
Chad@@ 1
Choice 1
Dum@@ 0.6896418521584669
Dut@@ 1
FI@@ 0.4173401750358295
Fac@@ 0.4458184751953566
G.@@ 0.9537723205407005
Gal 1
Garcia 1
Glasgow 0.5198096221372777
Haley 1
Land 0.1451219534921909
Lot@@ 0.6260079640959527
Monaco 1
Moore 0.398484021177216
Nam 0.15433789114810792
Nancy 0.6388214040912176
Ner@@ 0.5849403056409388
Nevada 0.6512138351652774
Nih@@ 1
Nikol@@ 1
Niz@@ 1
Off 0.9603802939670022
Oper@@ 0.38122998568798594
Plan@@ 0.30257884808805435
Ror@@ 1
Sar 1
Screen 1
Sound 0.4798941562993799
Sr. 0.9739415470469764
Zim@@ 1
abil@@ 0.5499064840821981
aden@@ 0.8676720208298996
alaria 1
aldo 0.9351749138001952
asta 1
ating 0.05105924787225011
ats 0.10076859185278567
auch@@ 0.6305572386763776
can 0.02620020737470439
cat@@ 0.15426122971795803
country 0.07556204152457814
dira 1
elik 1
emat@@ 1
entr@@ 0.13954787765397542
epe 1
etto 0.7660002026602771
fl@@ 0.09007275288979426
hia 1
illo 0.3026062361837533
itap@@ 1
itio 1
less 0.08392494464115732
mat 1
matem@@ 1
ment@@ 0.2506898081954729
nan@@ 1
nis@@ 0.6019848007242798
platinum 1
posa 1
s.@@ 1
stein 0.15013640395825928
tula 1
van@@ 0.5197240591147866
waliou@@ 1
you 0.13625449528275202
ç@@ 0.22732262865934139
ès 0.23826114950648233
ş@@ 0.4885069325206012
ש@@ 1
118 1
139 1
14,000 1
18,000 1
202 1
216 1
301 1
308 1
361 1
460 1
ANU 1
Ama@@ 1
Atlas 1
By@@ 0.6597159436333707
Cit@@ 0.7406649910528957
Co 0.2752327108357531
Cou@@ 0.443228015284302
Death 0.2987557929600369
Def 1
Delgado 1
Derby 0.7539000701243062
Ere@@ 1
Flam@@ 0.7783799353883052
Forum 0.7216939309791929
Fos@@ 1
Get@@ 1
Gum@@ 1
ICC 1
Innocent 1
Jerome 1
Kosta 1
Ladies 1
Out@@ 0.4713305638909084
Pauli 1
Pedro 0.24347956270701585
Pictures 0.5813766478744233
Poly@@ 0.4929558839844208
Premier 0.20027833978115972
RT@@ 0.5938964399132799
S.C. 1
Sz@@ 0.4590232723487265
Village 0.4177316898545628
Visa 1
Wo@@ 0.4449319107593644
adir 1
agin@@ 1
andamano 1
ardi 1
arn@@ 1
asiasa 1
dal 0.7541034695766532
dan@@ 0.4750999906488641
dic@@ 0.18156265898340102
dig@@ 0.27898117657486005
ency 0.2026304559943356
entina 1
foro 1
gua 1
istr@@ 0.6670686880947627
jab@@ 1
jan 0.6407290817989995
kunde 1
lib@@ 0.7522262019742623
magma 1
meg@@ 0.9712067652272852
obo@@ 1
okula 1
oré 1
piram@@ 1
school 0.03922950404579208
sir@@ 0.6130109022690291
traf@@ 1
umbia 1
wich 0.7621017859051874
world 0.06130263637199958
ú@@ 0.25661458114200275
1.1 1
115@@ 1
155 1
1789 0.7226618379177997
1814 0.552929059337082
2,8@@ 1
223 1
23.@@ 0.8307012733751734
AG@@ 0.6230236012632221
Amp@@ 1
Are 0.8646751822795109
Area 0.3534184274135925
Ast@@ 0.6311570873200835
Brunei 1
CT 0.9265751165265709
Cameron 0.8154212891141968
Craig 0.7414450608054513
Dogg 1
End@@ 0.45542663929623317
Epi@@ 1
Fund 0.6027543955246315
Germain 0.9849488507983397
Gram 1
Guatemala 0.6398630569911808
Guy 0.5017479062319646
Head 0.3814049981825176
IT 0.611355117200193
Jackie 1
Kop@@ 0.652160962439409
Kush@@ 1
Mish@@ 1
Moto 1
Nest@@ 1
PR 0.703129937234492
Pascal 1
Pavia 1
Pol 1
Sao 1
Stanford 0.7793514434811414
Tajikistan 1
Tobago 1
Wrestling 0.4414480602869802
Yusuf 1
ael 0.9687367010266345
agog@@ 1
ahu@@ 1
aille 1
allo 0.9650970076732917
anto 1
ants 0.057722492413807766
avia 1
brah@@ 1
cer@@ 0.1435562769982329
dare 1
day 0.04648385610810381
dee 1
ense 0.23933609095841268
enti@@ 0.11296125238232846
esco 1
eter 0.23540644921676215
etown 1
etus 1
fich@@ 1
fri@@ 0.35681132139670746
gar 0.4253590083188014
hakikisha 1
hat 0.04971290533661377
hou 0.923803363858822
ibe 1
ibo 1
iye 1
lau@@ 0.5655756624762621
mikro@@ 1
molek@@ 1
obu 1
pili@@ 1
pre@@ 0.058882312877580424
qi@@ 1
shab@@ 1
sion 0.12166671542570151
stone 0.15016498580318016
tein 1
ther 0.3947434229510994
tre 0.20212603871559812
ves 0.10621687676185418
− 0.2636501197291811
.jpg 1
16.@@ 0.6745512486130745
229 1
316 1
381 1
390 1
ATA 1
Act 0.12633475209507056
Atle@@ 1
Avon 1
Basilika 1
Beyoncé 1
Bohemia 1
Bush@@ 1
Caes@@ 1
Calvin 1
Georg 0.2809943296347759
Leonardo 1
Lon@@ 0.8986911778877997
Mills 0.8220128162337941
Mitchell 0.5556466178564505
Mong@@ 1
Monte@@ 0.9327884507076122
Mozart 1
Obi 1
Pearl 0.8346327983071031
Phoenix 0.6007726745051962
Ronaldo 1
Siena 1
Sof@@ 1
South@@ 0.5426403892833527
Stade 0.7610063587206325
Ster@@ 0.662299006353483
Sumatra 1
Wesley 1
Wing@@ 1
Wolfsburg 1
Yen@@ 1
abl@@ 0.4812859085527426
aitw@@ 1
altar@@ 1
amii 1
angu@@ 1
apartheid 1
apweke 1
aventura 1
awan 1
contributor 1
das 0.008340385563022808
dibu@@ 1
diy@@ 1
etse 1
fir@@ 0.4191647509396861
hija 0.48212753518725754
ign@@ 0.2091994135975897
iss 0.5100214295621021
lus@@ 0.4652858664232253
modi@@ 0.5277538555017764
ozo@@ 1
seg@@ 0.5717249680102562
tie 0.3052080186067154
tras@@ 0.3840839021308186
ube 1
ulikani 1
uss@@ 0.27273613073169367
viol@@ 0.2077828767005679
³ 0.6440107798495203
án 0.1011110601210478
â@@ 0.3521098620342308
ś@@ 0.6299418361026472
ִ@@ 1
117@@ 1
122 1
128 0.796093565931605
182 1
1821 0.573041334661251
225 1
22@@ 0.5878396060495831
630 1
99@@ 1
Abi@@ 1
Almag@@ 1
Augusto 1
BM@@ 0.7028588063438873
Betty 1
Bh@@ 1
Bissau 1
Break 1
Champions 0.38656441349044945
Chief 0.2054215479730449
Cleveland 0.4292101873397244
Coc@@ 0.8218038081416768
Come 1
Digital 0.49674123739342846
Dong@@ 1
Emma 0.7065807036952026
Estonia 1
Gabri@@ 1
Gan@@ 0.5845847948674274
Hampshire 0.5448396020368048
Hits 1
Janeiro 0.6549982817959205
K.@@ 1
Kali 1
Magazine 0.35689923178582955
Moon 0.5039294557074673
Nguy@@ 1
Nike 1
Peak 0.8813057914955681
Pro 0.27515948296001325
RIAA 1
Rainbow 1
Retrieved 1
Richards 1
Sent@@ 1
Sweet 1
System 0.1909190139944257
Tos@@ 0.9556360341490577
Whitney 1
ZA 1
afuatwa 1
agan 0.6411053852157448
aniki 1
ann 0.35430386076276893
ars 0.10746844279126484
atic 0.203462671311621
ats@@ 0.36525744138196936
bria 1
can@@ 0.10846937436628153
dera 1
eg 0.6546430197321529
emonte 1
habu 1
humuni 1
itt 0.5912032516557358
izikia 1
las 0.009343853747594862
leta 1
makus@@ 1
mea 1
nes 0.21159527651278354
oho 1
oksid@@ 1
ott 0.45192495821474776
pH 1
rey 0.20771137455649336
sta 0.6694138087521136
star 0.18953512812455453
tag@@ 0.5032990483972387
trop@@ 0.4810903874491017
ï 0.7481173410586648
1517 1
175 1
18.@@ 0.7223940581941084
1810 0.5909693482966856
207 1
208 1
213 1
323 1
André 0.32497608753079715
Army 0.08222944355444486
Aut@@ 0.3011921332178948
Auto 0.7430841549131154
BH@@ 1
Brom@@ 1
Cecil 1
Dest@@ 1
Edinburgh 0.44680246333147344
Gates 1
Ghaz@@ 1
Hudson 0.5702674644020186
IC 0.4138632393079091
Jos@@ 0.6865481190203363
Lip@@ 1
Lun@@ 0.7646244043183874
Manhattan 0.5135679707565431
Moravia 1
Nept@@ 1
Next 0.7703822882359727
PS 0.2664649897503089
Pakistani 1
Pepe 1
Prison 1
Ra 1
Ravenna 1
Ric@@ 0.5534448978293837
Romagna 1
SE 0.6705769587572871
Samb@@ 1
Shang@@ 1
Smo@@ 1
Son 0.1056749860309673
Sug@@ 1
Suz@@ 1
Tay@@ 1
Til@@ 0.7111883490733678
Tran@@ 0.3424809040925109
Travis 1
Tuf@@ 1
Volume 1
Who 0.46522435000507784
afe 1
ald@@ 0.9315783893632845
anum 1
aten 0.17113878699726598
ater@@ 0.6231774742376078
burn 0.556111220868137
dom 0.49818971682217417
domin@@ 0.22282401187714648
ekel@@ 1
ering 0.23491207206114922
gat@@ 1
itis 0.9258750506294271
ksi 1
los 0.005691971557556211
mas 0.6495799461295237
mol@@ 0.27093575347047344
mur@@ 0.3127560998967138
ob 0.4079543282176606
odini 1
ossa 1
ous@@ 0.5372100126960883
rik 1
sah 0.6142199170412559
stad 1
thu 0.4535213557688318
timestamp 1
ubaliano 1
unta 1
ustan 1
viet@@ 1
wh@@ 0.17908475555556522
xis 1
yasa 1
ør@@ 0.8330391948695473
ր@@ 1
118@@ 1
2.4 1
205 1
217 1
256 1
264 1
406 1
44@@ 0.8680582737567341
AG 0.25648282221714347
AP 0.3762654547460333
Afrique 0.3699924621034782
Age 0.4469612729084461
Ain 1
Album 0.17999970499466963
Alois 1
Ant@@ 0.7528902473686863
Bath@@ 1
Beau@@ 0.5041787539617218
Cent 1
Cook 0.5669877184315599
DF 0.7110101985043572
Diploma 1
Elias 1
Flores 1
Green@@ 0.45968348074821735
Gregory 0.6903023724813429
He 0.007527579711303341
ISO 0.8305086792176387
Ismail 1
Jih@@ 1
Joel 1
Journal 0.24006341331700307
Lic@@ 0.7482618462451633
Malta 0.7695794313580562
Mustafa 1
Oregon 0.3513780369349438
PR@@ 0.7302307979651655
Pun@@ 0.6304296841456088
Randy 1
Reh@@ 0.8208896580867538
Roosevelt 0.6767103694523207
Sandra 1
Seine 0.1353510110181263
Shan@@ 0.8605796627157196
Tot@@ 0.6998622764092316
Trade 0.5335111871691275
Triangle 1
Tripoli 1
Vul@@ 0.6289286058201398
Wisconsin 0.2980851153896708
adj@@ 0.6346852289678656
akani 1
alar@@ 0.4160027278487378
cia 0.6053325459984588
dum@@ 1
ekom@@ 1
gli@@ 0.6010440904137786
idan 1
ink@@ 0.7323702785005863
isan 1
kov 0.4766278742503863
lab@@ 0.2638288618919293
lug@@ 0.6168233426790833
mane 1
misa 1
owe@@ 1
ram 0.8716018508709948
robot@@ 1
rot@@ 0.19561988607272116
sh 0.613904422091595
ston 0.38321566880104946
teri@@ 0.6891419351839416
theid 1
username 1
way@@ 1
yet@@ 1
zon@@ 0.9848971922659965
zy 0.886929105794924
ַ@@ 1
ם 1
15.@@ 0.6102656556093444
1835 0.508510508290417
218 1
222 1
227 1
335 1
About 0.3771421806250699
Are@@ 1
Atlantic 0.2602311087534814
Au 0.10270738605203106
Belarus 1
Brescia 1
Bri@@ 0.28426194236818786
Brook 1
Cass@@ 0.5436203652091927
Christina 1
DT 1
Daddy 1
Danny 0.7037068491467317
Faith 1
Fati@@ 1
Garden 0.4324338921289748
Gy@@ 0.6943830126250166
Kass@@ 1
Kingston 0.8895562286457367
Lel@@ 1
Li 0.39573616168566683
Lul@@ 1
Madagascar 0.9327139129742787
Miguel 0.2911226264458513
More 0.33140893070821986
Museum 0.09717789174147247
Nicholas 0.5233859496264897
Nick 0.42637966371810787
Or 0.640804977261671
Pak 1
Palermo 1
Paula 1
Perry 0.607524345880474
Pet 1
Pet@@ 0.39779186081062623
Pradesh 0.6350861042633877
Primary 0.8268801245746663
Rach@@ 1
Roc@@ 0.37547032135097747
Shah@@ 1
Spice 1
Torres 0.8113976257095373
Utah 0.4706850143114003
Vib@@ 1
Zor@@ 1
agi@@ 1
ahan 1
alfa 1
amaz@@ 1
chlor@@ 0.8473233942392773
ck@@ 0.3229279013834938
estina 1
etti@@ 0.695939042227402
ever 0.09779709743209337
gon@@ 1
jah 1
kanaji 1
min 0.32352179368631084
mit 0.006150360982603302
nah@@ 0.5879437336949653
onom@@ 0.5411237435439852
open@@ 0.7193628902292794
otic 0.424122412474146
parentid 1
pens@@ 0.49399119443621875
pepti@@ 1
pros@@ 0.5510571870727883
rec@@ 0.06687560553723583
sel 0.2722543841844281
skop@@ 1
sup@@ 0.285815445155007
upta 1
weg@@ 0.8650982887656786
-- 0.825170053525678
181 1
1832 0.5168659926843382
1849 0.41174903352108877
185 1
1851 0.42764574338639477
199 1
20.@@ 0.6917879846327208
24.@@ 0.8166139070115864
3,9@@ 1
354 1
38,@@ 1
Agu@@ 0.9561395361232186
August 0.02656191742597204
Bali 1
Bar 0.48816001525464503
Berkeley 0.637710360480462
Big@@ 0.6895757005834967
Broadcasting 0.637710360480462
Bru@@ 0.3275566914076338
CAF 1
Camp@@ 0.31354261440779485
Capital 0.4550423098969159
Convention 0.42398854886089055
Davies 0.862394144904445
Dep@@ 0.6357808407978011
Destiny 1
Greatest 1
Guardian 0.6788538128001598
Gö@@ 0.6799849397965219
Hin@@ 0.3230395547761587
Isma@@ 1
Jem@@ 1
LP 0.39037287415279476
Lan@@ 0.32087325100124514
Latin 0.20317404540401912
Lithuania 1
Lorenzo 0.6970613543631228
Minneapolis 1
Montreal 0.3932203598009494
Netflix 0.8979456346938395
PC@@ 0.5100589425183202
Pand@@ 0.7974906949899646
Pittsburgh 0.45031577244367493
Public 0.17012215331402986
Remix 1
Rolling 0.600253161649348
Sap@@ 0.7956275190623165
Sardin@@ 1
Sot@@ 1
Strath@@ 1
Sunday 0.33202325342973305
Tad@@ 1
Thompson 0.42043632847519874
Thriller 1
Vista 1
War 0.04175551909030793
Wolfgang 0.49193383419922115
Yem@@ 1
adu@@ 1
amoja 1
anatom@@ 0.934710601054035
angal@@ 1
egu 1
ert 0.07894734322083849
illi@@ 0.5267462407924008
ishan@@ 1
kateg@@ 1
music 0.045364146711991425
nde@@ 1
ocho 0.5553411721258195
opi@@ 1
ose@@ 1
rell 0.6178425026973914
remix 1
sat@@ 0.5730512515154186
stadt 0.20281854840506194
sus@@ 0.4191907022452301
thai 1
tham 0.2559269550549826
tho@@ 0.5047823268633833
western 0.13429488503600415
yanyas@@ 1
İzmir 1
113@@ 1
136 1
145 0.9974497963110777
151 1
1521 1
165 1
177 1
179 1
1831 0.5305721146651808
226 1
283 1
397 1
3D 0.42821778083968975
401 1
55@@ 0.8190308438527489
60@@ 0.5262326103710563
7.5 1
8,0@@ 1
Am 0.04907725281019556
Amazonas 1
Aus@@ 0.06302663287739275
Ba 0.5422408056858762
Barry 0.5021052078601064
Basel 0.6271034534918735
Benz 1
Book 0.2565144013978941
Britain 0.20000219414964482
Buz@@ 1
Calabria 1
Ces@@ 1
Chu@@ 1
Di 0.7268164587359606
Dion@@ 1
Dog@@ 1
Dre@@ 0.3056780162430228
Edwin 0.9437457438526893
English 0.05780420442648341
Fior@@ 1
Foster 0.7683349959785217
Godfrey 1
Granada 0.8045456758182215
Holland 0.6166865851992268
Honduras 0.845768055206984
Hugh 0.5670958365298913
Indian 0.09176182202334887
Jamaica 0.8085064417072186
Keith 0.6129106027682826
LL 1
Line 0.16468425464812184
Medical 0.29103220704284055
Milton 0.9321788526046536
Minh 0.498807053644898
Nal@@ 1
Nish@@ 1
Peninsula 0.7207398319908013
Punjab 0.9361415088288922
Rud@@ 0.6224306114883881
Rudolf 0.4450580711240484
Sankt 0.8334875618287829
Sky 0.4967867221724277
Sugar 1
Tob@@ 1
Too 1
Tra@@ 1
Trump 0.4112151175672582
Trust 0.4026472815599686
Van@@ 0.5199971182400093
Winn@@ 1
Yang@@ 1
Ye@@ 0.5650323230362668
ady 0.45508295610014704
asis 0.8591769938537952
atan 1
band 0.04708497441221366
bes 0.2595583935497474
ebra 1
elini 1
ere@@ 1
gor@@ 0.5399925491130367
influ@@ 0.4471447301007998
itwayo 1
pho 1
pio 1
pos 0.5265872299728453
res 0.19436317631133673
rie 0.4189565159669808
rio 0.9301743593437969
sub@@ 0.05030159435356757
ubu@@ 1
ungumzo 1
uva 1
wick 0.47165696226035747
yah 1
yos@@ 1
zus@@ 0.60235644846417
ég@@ 0.23576765652228884
ṣ@@ 1
.S. 0.6975299345247384
131 1
144 1
167 1
402 1
56@@ 1
6.5 1
711 1
Aristotle 1
Billy 0.4011349176460235
Bordeaux 0.6303335854205817
Butler 0.6460689990041703
CC 0.4095256030420218
Chen 0.7702828257130304
Cul@@ 0.30820806038632487
Data 0.7157167746612397
Detroit 0.35255335937437643
Diz@@ 1
Dow@@ 0.41171140496447256
Es 0.03652208412066389
Eth@@ 0.39958320371491995
Fabaceae 1
Fak@@ 1
Gamb@@ 0.8839938359458198
Geor@@ 0.6350766729451979
Glad@@ 0.9908133675951312
Gren@@ 0.6473276206985955
Harold 0.5759847346508886
Haut 0.7504767696400491
Hed@@ 0.7015670786481375
Heights 0.8778045236511371
IBM 0.663174273129933
Ich@@ 1
Jor@@ 1
Jubilee 1
Kimber@@ 1
L.@@ 0.6510349473838778
Lopez 1
Mann@@ 0.657575929556597
Marc 0.3793697189624012
Marco 0.5501497819817032
Matthew 0.4630013219694594
Medi@@ 0.28854675372557886
Mith@@ 1
Mountain 0.26523713302349305
N.@@ 0.8411924278109956
Nun@@ 0.9816634300834581
Oth@@ 1
Our 0.49467432195552297
Over 0.27097280756043285
Pico 1
Plas@@ 0.9032512768459816
Province 0.17306142345595094
Py@@ 0.5533467255506481
Rev@@ 0.314384823904564
Ricardo 0.692538282949917
Rovers 0.9071657853292294
Russell 0.3803779782880083
SO@@ 0.40373205432574333
Simone 1
Tong@@ 1
Upper 0.4663961196482107
W.@@ 1
Wake 1
Zeus 1
aada 1
adren@@ 1
aid 0.3383349473074985
anes 0.3417563556903227
app@@ 0.21378088816495344
apti@@ 1
arare 1
aux 0.01827823102914685
cin@@ 0.20955706875839464
dub@@ 1
ely 0.09327995639887182
emin@@ 0.7200441979930552
ett@@ 0.20111415383406714
fer 0.10048987554089202
gil 1
halika 1
imulizi 1
indon@@ 1
inf@@ 0.11844906998481812
jerumani 1
kuyu 1
mana 1
mor 1
odoro 1
okovu 1
penal@@ 1
pok@@ 1
pra 1
qui@@ 0.208533470858245
rup@@ 0.7940580994278026
sian 0.9915783946110122
super@@ 0.10394899438379505
text 0.19091416924717325
vok@@ 1
yum@@ 1
ɛ@@ 1
ɪ@@ 1
146 1
1845 0.4391803853335258
195 1
2.2 1
224 1
233 1
257 1
258 1
331 1
407 1
49,@@ 1
490 1
510 1
610 1
710 1
970 1
AIDS 0.9812478532511374
Angelina 1
Antoine 0.42022751888123105
Any@@ 1
Apol@@ 1
Bik@@ 1
Bond@@ 1
CE 0.43811475437879954
Cassidy 1
Cour@@ 0.23077290568450912
Dead 0.49883006203257113
Feld@@ 0.3591702595438567
Ferguson 1
Fly 1
Freedom 0.566414272394647
GO 1
Gamma 1
Hilton 1
Human 0.3277753358552936
Instagram 1
Jeff 0.4564446583685846
Jerry 0.5400378130938044
Justin 0.6863515953780996
Mariana 1
Micro@@ 0.5707655398698541
Ministry 0.23936502190495101
Murphy 0.6040787612731013
Nazi 0.4319481291549009
Nes@@ 0.9410108440177306
Nickelodeon 1
Nit@@ 1
Owen 0.7421734296631683
Prix 0.1782636251146953
Renaissance 0.4559264585920153
Snoop 1
Sophia 1
Suzuki 1
Theodore 0.967190736698801
Ts@@ 1
UNICEF 1
Valeri@@ 1
Watur@@ 1
Wer@@ 0.20741572349061316
Wiki@@ 1
Without 0.9947627980588886
agonjwa 1
aup@@ 0.5973857969646164
azar@@ 1
azu 1
bio@@ 0.8835250508875649
boy 0.27045470915491654
bus 0.16165659220774384
buy@@ 1
cap@@ 0.10695244529082398
edr@@ 0.4464791526873982
erian 1
hakim@@ 1
hifad@@ 1
ikil@@ 1
lad@@ 0.35094992303014
leg@@ 0.17777111087276715
let 0.1504986232073095
lon 0.7460243071087335
marathon 1
mont 0.26128194507410696
obi@@ 1
oliki 1
oslov@@ 1
oé 1
ron 0.5379797421597579
ry@@ 0.46620639725686536
sag@@ 0.7070506910891199
sburg 0.47184456272318925
stan 0.8550169193359106
tao 1
thr@@ 0.25625861901279373
tors 0.14866537685325418
umer@@ 1
urn@@ 0.46716482313221036
wing 0.12511244157429507
í 0.13796223404133043
ž@@ 0.3057925432621405
بن 0.29587382394884504
1227 1
149 1
153 1
163 1
2.6 1
275 1
670 1
Aaron 0.6963658230972986
Alexandra 1
Anglo 0.6141693056440046
Apollo 0.8751997967225006
Bridge 0.23443557943285165
Caroline 0.5234300668023687
Chak@@ 1
Change 1
Cir@@ 0.41816009925657466
Climate 0.7713226835918733
Comics 0.46163616595987417
Corona 1
Dakota 0.45196561723033163
Deng 1
Dok@@ 1
Du 0.3261397842294313
EU 0.33546710214299424
Eur@@ 0.28500734786952214
Evans 0.4593185334624752
FF 0.5647054450105858
Fair@@ 0.35113946956816805
Fresh 1
Gardens 0.859739873004949
Gib@@ 1
Gibraltar 0.9231789815666869
Gustav 0.5190500482796407
Hannah 1
Islands 0.23830005009153346
Keb@@ 1
Last 0.4213595853732526
Lives 1
Loc@@ 0.3467548268729268
Lynn 0.9795529973916619
Mao 1
Mars 0.4919509374615926
Mumbai 0.8835845590391692
Muslim 0.32945599726086844
N. 0.429130488287219
NL 1
Never 0.9184060632166369
OT 1
Plata 0.6771540218104065
Play 0.4048260826839623
Pred@@ 1
R.@@ 0.4873349096001858
RS 0.42393023490050885
Raphael 1
Rav@@ 0.5338913226106397
Republic 0.12096694761390617
Research 0.1392005482166926
Rouen 1
SM@@ 0.7271561887204465
Schrö@@ 1
Series 0.14756349654125134
Sey@@ 1
Shakespeare 0.6324450647147717
Social 0.21164771466523782
Sog@@ 1
Square 0.31156959854521243
Stan@@ 0.5740427642298507
Surinam 1
Two 0.12294964382380404
Vancouver 0.4319687280854209
Werner 0.5160810639314025
Wh@@ 0.28022101300308006
XX 0.2214382924266649
aco 0.4001108403645524
adiliano 1
ae@@ 0.74777316052604
agon@@ 0.6165248281061971
alism 0.1755548817398031
aly 0.831249376312081
ambuk@@ 1
athy 1
bank 0.14922905211206566
ben 0.12506313553702553
boro 0.7926839545853801
eca 0.4797705556815734
ege@@ 1
epidem@@ 1
eton 0.35755552506978955
face 0.08352277375243014
fan 0.4074636921550472
formes 0.3288153138945686
gang@@ 0.7679621679216074
handisi 1
haribi 1
inan@@ 1
jem@@ 1
jer 1
kala 1
lizi 1
magazine 0.12310679508586105
mina 0.8393801503325268
nazi 1
oine 1
one@@ 0.8666435133535024
onz@@ 1
qa 1
raine 1
red 0.07130469829338683
soul 0.6381293086080315
stown 0.9412417169337112
tima 1
time 0.013455742550153056
toni 1
tow 1
ude 0.7890669581284165
uhak@@ 1
ulima 1
umbr@@ 0.9145424987767343
vu@@ 1
wer 0.262461320419656
yp@@ 0.30941988150270966
ד@@ 1
ל@@ 1
1250 1
126 0.9651534910172186
133 1
138 1
166 1
168 1
178 1
1806 0.49951247804952353
1855 0.36976908453312146
192 1
253 1
259 1
286 1
30.@@ 0.9429115553727434
315 1
345 1
377 1
525 1
6,0@@ 1
720 1
980 1
Anj@@ 1
Augustine 1
Bei 0.06888346871345503
Bello 1
Bird 0.7349562385540246
Bov@@ 1
Brah@@ 0.7354880710430695
Bung@@ 1
Byrne 1
Byz@@ 1
Camp 0.38584489159030105
Celtic 0.7338105828264282
Chiefs 1
Cin@@ 0.35511174056484124
Clou@@ 1
Edmund 0.7310396756808147
Ef@@ 1
Empire 0.11768219442177434
Express 0.3390447003864465
FBI 0.7242910706903206
Fall 0.2670425700265353
Fernández 0.5399890382614357
Flora 0.7412542624108904
Francesco 0.6095983228343534
From 0.06897568674351728
Goldman 1
Hey@@ 0.599530152019919
Hier@@ 0.6816032457442821
Hip@@ 1
Hud@@ 1
Hul@@ 1
Hull 0.8665585211551279
Idr@@ 1
Islam 0.4209345760169973
Khalid 1
Lamb@@ 0.8862382022070834
Lang 0.8895876861826433
Level 0.938636838278389
Louise 0.4440342364646515
Muy@@ 1
Nice 0.8230519758497836
Oran@@ 1
Pompe@@ 1
Provence 0.6939675707179033
Rabat 1
Région 1
Still 0.8867126431996399
TV@@ 0.43629736161024996
Thur@@ 0.781691495687435
Tir@@ 0.45570791717385917
Tommy 0.5904744271009776
Umar 1
Vasco 1
Vol 1
WT@@ 1
Wadi 1
Web@@ 0.5461282747139243
Will@@ 0.43946574059111704
Yorkshire 0.48544735530126615
Za@@ 1
ack@@ 0.18557578690872886
agia 1
also 0.007084569516864051
arid 1
astani 1
ater 0.2570561986479313
aze 0.9110630545719608
aziz 1
china 0.9630750314362528
ement 0.03751429363758852
entia 1
err@@ 0.16696541381594726
formula 0.027950984854782927
ful 0.10961303787019347
head 0.05926921905327686
his 0.003982693986578749
hot@@ 0.5414403932318831
ids 0.1767265175012995
ier@@ 0.14191532988215494
itar@@ 1
jas@@ 1
jiang 0.8575522945306585
kund@@ 1
mifu@@ 1
ms 0.155901749169527
ogr@@ 0.49414766701038476
omy@@ 1
otr@@ 0.4317608024770836
otte 0.47468345302425186
oula 1
oum 1
paz@@ 1
polis 0.5308676451149527
prop@@ 0.21649280715573185
sin 0.07475949161032934
ska 0.47321177660438324
tina 1
top@@ 0.3714984271585536
tum 0.46134926301656604
tuz@@ 1
urs 0.1551246549856356
vers 0.053737609493405974
yam 1
yer 0.13360704869331907
ö@@ 0.10569350321247922
1492 1
169 1
1750 0.9450665225663514
221 1
241 1
285 1
321 1
332 1
362 1
404 1
587 1
76@@ 1
780 1
870 1
960 1
Adr@@ 1
Aff@@ 0.45929513350092704
Ati@@ 1
Bash@@ 1
Bed@@ 0.4288352836868164
Ble@@ 0.41810355112104847
Boris 0.7223274553075877
CV 0.9994900329387356
Cardiff 0.8260952558691497
Cha@@ 0.9624312033915445
Constantine 1
Crystal 0.8696015831899255
Cun@@ 0.9378808593512934
Ellis 0.7954379997295578
Fatma 1
Floyd 0.9672142360540682
Georges 0.2930465794665821
Herald 0.8843001135546333
Hez@@ 1
Hizo 1
IB@@ 0.7086278391959202
Il 0.012559822343554381
Ja@@ 0.6997500331279165
Josephine 1
Kids 0.8869869214104374
Königsberg 1
LC 0.7411674845657202
Latvia 1
Lau@@ 0.31052310201541555
Lima 0.4742938860463129
Lind@@ 0.3094325540794814
Lisa 0.5789602343242135
Martino 1
Miriam 1
Miss@@ 0.4866112227395781
Mo 1
NA@@ 1
NSDAP 0.94941043130568
Nagasaki 1
Nh@@ 1
Nina 1
Ober@@ 0.06844636526966404
Pacific 0.14560297300758407
Panther 1
Pass@@ 0.3716815118882306
Pieter 1
Platinum 1
Plu@@ 1
Pé@@ 1
Raw 0.8258304068479375
Reading 0.819447908288332
Ris@@ 0.6142899252733659
Robinson 0.3842681150892615
Run 0.6008625006601702
Réunion 1
Springs 0.5464963224230218
Stuttgart 0.38547572886303477
Sufi 1
Tip 1
Us 0.8145397567543134
Weimar 0.89262811266714
Yous@@ 1
Youtube 1
Zou@@ 1
anon 1
apr@@ 0.906956160124102
aris 0.7291349438552023
bach 0.11108092894496868
borg 0.7114485349002744
cius 1
dis 0.4330464529579894
dok@@ 1
ebr@@ 0.39749877293748254
eed 1
eem 1
entino 1
ester 0.271370230986347
ezaliwa 1
hit 0.13356491269902027
ici@@ 0.1653176030198801
icus 0.43717523409486236
iken 0.3530171336228426
imer@@ 1
inder 1
ino@@ 0.8053714655173966
koro 1
log 0.9589746035764598
los@@ 0.28109935372391764
mon 0.400450451510383
mos@@ 0.25776513887940977
n.@@ 1
nu 0.6120233311871849
okol@@ 1
ots 0.1473575621811105
outi 1
ris@@ 0.2971893184960019
ship 0.06558813701139808
spir@@ 0.40929121052736156
tirir@@ 1
uela 0.9626639404482915
umuisha 1
wiki@@ 1
zer 0.2345757211591843
än 1
ה 1
ע@@ 1
Ἀ@@ 1
大@@ 0.054712451050916946
134 1
147 1
1597 1
1807 0.5922143802795387
1824 0.5248342209949783
1843 0.45125994994893265
235 1
248 1
249 1
252 1
269 1
333 1
334 1
344 1
347 1
366 1
395 1
40,@@ 1
405 1
660 1
AB 0.46809120333828386
AFC 0.6845773099025626
AK 0.9709551990586753
Albion 1
Arabic 0.5610048103468804
Arles 1
Arnold 0.4440181354335229
Beirut 1
Bobby 0.5255228193499923
CI 0.7550201269545826
Charlie 0.3737895522898527
Conference 0.1593457904330349
Dad@@ 1
Darwin 0.8848186817195518
Dorothy 0.9417262686541404
East@@ 0.789935719960371
Eminem 1
Fuk@@ 1
Fut@@ 0.47069248115328366
GT 0.5669492616669303
Gom@@ 0.977934112640044
Hydro@@ 0.7597986506364447
ID 0.6279186932113859
Jacqueline 1
Jay@@ 0.7841114290030724
Jesus 0.3031938204269388
Joan 0.503441354239985
Julian 0.6744611999000681
Larry 0.5526137900386814
Laurent 0.5081088168830314
Lec@@ 0.5747346451180091
León 0.344572780884788
Like 0.24198636142968416
Mad 1
Mai 0.07301322935600144
Marina 0.6206621457227877
Martin@@ 1
Mason 0.6361390857693097
Maxim@@ 0.7636706845289629
Mediter@@ 1
Mens@@ 1
Metro 0.3497952424153011
Metz 0.8904625490639919
Nai@@ 1
Nath@@ 1
Nixon 0.9943150705623722
Not 0.3365685222514091
Nova 0.43054722568588377
Number 0.9531193009484928
Olivia 1
Order 0.18097655337056323
Pang@@ 1
Pot 1
Rel@@ 0.22700672941402325
Rights 0.3872625801846039
Rodney 1
Ron@@ 0.855943809519481
Singh 0.41054047633436724
Six@@ 0.5672869592774217
Strait 1
Summer 0.12869640643827904
Tanaka 1
Theodosius 1
Tunis 1
Twitter 0.5843577007233227
UAE 1
Va@@ 0.8325652716057643
Vivian 1
Zaw@@ 1
Zh@@ 0.70891164626257
abad 0.3520739545424294
adha@@ 1
ages 0.05570830970203858
alan@@ 0.49497565988092684
aqu@@ 0.17404672798707757
bag@@ 0.8982449748800103
betr@@ 0.3869409131955285
born 0.02165697504804324
bula 1
cal@@ 0.11079189853618986
chel@@ 1
chum@@ 1
city 0.032565158097035966
deg@@ 0.9134847174041377
dell 0.9125122423499464
dida 0.9782242875570605
dos@@ 0.6394801922776773
dy@@ 0.42153990839431427
edu 1
ekebisho 1
eledi 1
este 0.041661810252296254
far 0.13577813977782122
fis@@ 1
hib@@ 1
hif@@ 1
imbali 1
ix 0.29740168822306834
jou@@ 0.33885169581317154
kham 0.8829411307468054
kitaal@@ 1
las@@ 0.3628033732874793
migu@@ 1
msim@@ 1
neutr@@ 0.5246157916915555
off@@ 0.12740065482902926
okee 1
oland 1
orius 1
pes@@ 0.44997125849326935
rat 0.19347395013700888
sisko 1
trol@@ 0.5733583390607223
tron@@ 0.399813074177433
ubio 1
uge@@ 1
yah@@ 1
è 0.781808542411389
éré 0.46207049429068836
ía 0.04895456864753997
ę@@ 0.4033994323003137
ן 1
152 0.9890836691072679
1540 1
176 1
1813 0.47866500342262785
1818 0.5100270990436959
1842 0.42382729648097994
197 1
238 1
263 1
287 1
32.@@ 1
329 1
348 1
379 1
409 1
413 1
44,@@ 1
538 1
642 1
787 1
86@@ 1
9000 1
Aba@@ 1
Alfonso 0.5121140804185709
Bab 1
Bach@@ 0.41809201884511343
Berg@@ 0.16161353330193537
Bomb@@ 1
Bradley 0.8054379615358662
CI@@ 0.3292880183609373
Chau@@ 0.8243465916198973
Chess 1
Collins 0.4712087265081368
Duffy 1
Edo 1
Emily 0.7310213528461977
Estr@@ 0.8474575556321221
Eul@@ 1
GSM 1
Galileo 1
Gri@@ 0.3659701091966619
Guru 1
Haute 0.4362548009967013
Hav@@ 0.5324646640816354
Hood 1
Isabel 0.5863731647080177
Jon 0.5336031620652137
Kara 1
Kiel@@ 1
Kingdom 0.11649518514960662
Klo@@ 1
Lane 0.38443656781914354
Lap@@ 0.5440447893930755
Leicester 0.9289286934414849
Llor@@ 1
Lopes 1
Madison 0.4908766745476341
Management 0.24883387035383478
Matter 1
McDonald 0.8788284245454121
Memphis 0.7475353501727343
Middle 0.20173832623499569
Nero 1
Oklahoma 0.32173264307586275
PD 0.7679788187091381
Petrus 1
Powers 1
Rangers 0.43727399223817
Rej@@ 1
Rey 0.44943793977432817
Roberts 0.4967449545009357
SOS 1
Schalke 1
Sv@@ 0.675794127172598
Thu@@ 1
Toulouse 0.5161934900616578
Tsu@@ 1
VI@@ 0.44353748293913886
Vision 0.8233752484247443
Xbox 0.722405838513155
Zag@@ 1
Zw@@ 0.5137771144770842
ait 0.045059430059548634
akt@@ 1
al- 1
alta 0.3327059075814815
ambaz@@ 1
ander@@ 0.3491673341643804
angep@@ 1
anu 1
asit@@ 1
aste 1
asti@@ 0.47542458241904106
asuaji 1
ault 0.19596475615471037
awany@@ 1
awo 1
back 0.035269086497112086
cel@@ 0.16771781715325554
comment 0.6930076141719363
con 0.006485588375483558
cul@@ 0.14990424170514888
cy@@ 0.2686737348511556
enes 0.2916589634144317
enna 0.8441133835951595
epesi 1
ewski 1
gil@@ 1
hero@@ 0.7553329787195845
ilimali 1
india 1
ingham 0.5979216721304618
int 0.38576656560628597
inter@@ 0.03687229305730267
len 0.138271038163262
lers 0.11312650803744051
mchang@@ 1
onto 0.2737219685827472
ough 0.24052979581997372
right 0.06846714598989473
sle@@ 0.3952511680394813
tara 1
taz@@ 1
tion@@ 0.1566435310131288
uano 1
ush 0.36214827244981884
ushima 1
vera 1
zy@@ 0.28724097812984184
Ç@@ 0.4488797632790302
132 0.9082657098288694
1825 0.47906526449219394
1828 0.48197722430340395
183 1
187 1
188 1
198@@ 1
21.@@ 0.6361566830608777
282 1
29.@@ 0.8144671053409497
317 1
337 1
3500 1
384 1
411 1
417 1
453 1
483 1
54@@ 0.9678803639033413
570 1
590 1
790 1
Action 0.4167258578382892
Adel@@ 0.5870456640669897
Aden 1
Ala 1
Alo@@ 1
Angel@@ 0.7285333714790478
Ank@@ 1
Augsburg 0.9746920471986026
Aya 1
Baker 0.3974344903742779
Belize 1
Blake 0.7123296752932411
Bonn 0.5224501416298272
Bow@@ 0.28641095501443437
Bronx 1
Brun@@ 0.41327257233858583
Bryan 0.6983624267580795
Carol@@ 0.8532359158540985
Chand@@ 0.8738797470342994
Chang 0.9492560740315384
Chir@@ 0.6499440785922254
Clermont 1
Cola 1
DL@@ 1
Dik@@ 1
Dy@@ 0.5038354674998589
Dz@@ 1
ER 0.6489563529068548
Evening 1
Fan@@ 0.8750362401145387
Federal 0.16552161478879482
Fle@@ 0.35133286608268577
Fom@@ 1
Fou@@ 0.839021138213795
GR 1
Geb@@ 0.37706213898994695
Gilg@@ 1
Gou@@ 0.8382319718056276
Grey 0.6032960929659023
Health 0.17965892196128505
Hob@@ 0.6893899405217527
Iberia 1
Industry 0.5668105470186798
Ip@@ 1
Jag@@ 0.5676110492935217
Kler@@ 1
Kond@@ 1
Laf@@ 0.9643739634695245
Lal@@ 1
MIT 0.9815297805182689
MV 0.8459117001594243
Mack@@ 0.7470264922121476
Make 1
Marino 1
Marne 0.7023828118414465
Messi 1
Mou@@ 0.6853675195293079
Non@@ 0.6372246407462114
Pall@@ 0.8421062183013089
Perugia 1
PlayStation 0.45519179228432183
Rogers 0.5151107359912296
Rotterdam 0.9999164059984883
Ruby 1
Say 1
Shik@@ 1
Sud 0.17329241180204014
Tali@@ 1
Tend@@ 1
Tog@@ 1
Tyler 0.7522906210545579
Usher 1
Vegas 0.46055625499237196
Ves@@ 0.7829816989729362
Yak 1
Yar@@ 0.6814370719780253
Zar@@ 0.6254607328490612
aff 1
agu 1
andro@@ 1
ardo 0.8431800903582143
atar 0.941754486862532
benz@@ 1
biza 1
bridge 0.12616160305882684
cha@@ 0.7386276429816764
cop@@ 0.24599055999139532
cy 0.33799364168859264
dag@@ 1
diki 1
dinger 1
dizi 1
ekee 1
gana 1
hee 1
icia 0.789845724887789
ider@@ 0.39106510486822244
ife 0.441509222443765
ig 0.2133012098023634
illy 0.3150617357828862
ket@@ 0.4172857850910111
kins 0.5083085073978105
kle@@ 0.45439964544516026
lier 0.23165487225156542
nataka 1
opoli 1
otro@@ 0.9178437402186553
oui 1
oul@@ 1
pan 0.5094518667436251
plan@@ 0.1345372383170971
swana 1
tap@@ 0.3335495412120518
telegr@@ 1
uca 0.6514416693913144
union 0.16028657095037505
vali 1
zor@@ 0.9747383982006804
č@@ 0.18197003228454126
1795 0.574106558566758
1799 0.6407394999914287
1822 0.5283945921453979
1829 0.47742781867702727
228 1
244 1
262 1
268 1
341 1
342 1
375 1
429 1
509 1
605 1
760 1
ADN 1
AMA 1
Acc@@ 0.5402440494688845
América 0.27269426523135193
App 1
Authority 0.4246287995131224
Beat 0.9995478649850069
Bod@@ 0.32132561739223664
Boul@@ 0.5115803194461138
CDU 0.5439187299943531
Carr@@ 0.5039862876322657
Clark 0.2717066780816694
Curie 1
Dand@@ 1
Democracy 1
Dortmund 0.8507544536421835
Edith 1
Edwards 0.5186065937847285
Eff@@ 0.4174607991878967
Fischer 0.5757401448079912
Fraser 0.8069384059068656
Fuj@@ 1
Gate 0.6915619957615796
Gilbert 0.439637845824663
Greenwich 1
Hannover 0.4232023955428989
Hunter 0.4493217811924685
Ih@@ 1
Iv@@ 0.8320258764400338
Joh@@ 0.9149282446438309
Justice 0.18814957886105857
Karat@@ 1
Lep@@ 0.7761566533596309
Lionel 1
Liv@@ 0.4234528905661565
Living 0.7696407188009388
Mae 1
Maine 0.34075186248821204
Meyer 0.5954914454637404
Mix@@ 1
Montana 0.5370071038612416
Net@@ 0.515132412390887
Ox@@ 0.536762479922614
Pete 0.6790203212905556
Rivers 0.9168755687484624
SMS 1
Sanders 1
Semb@@ 1
Severus 1
Spencer 0.5936824334854341
Syn@@ 0.2838822177251661
True 0.9247484702459217
Wik@@ 1
a- 1
ace@@ 0.34191511603850805
ads 0.23227953858464645
agh 0.6380455164272028
ago@@ 0.6239157474687608
anos 0.1294129286582984
ayn 1
ayn@@ 0.9162674498322219
azak@@ 1
borough 0.2583951625429009
bura 1
dolar 1
eau 0.08156820814577807
ekebisha 1
erie 0.18918823007179789
ery 0.14046652142947225
fak@@ 0.6772755054936194
gig@@ 0.8422941295194699
inas 0.1796549669570898
isario 1
izu 1
jee 1
jong 1
lett 0.6592108134475938
ll 1
mende 1
mio 1
og 0.4899279465895108
oji 1
otop@@ 1
pek@@ 1
plas@@ 0.4519525063903261
px 1
quar@@ 0.4063378262230749
rit@@ 0.2489583647758794
riwa 1
set 0.04025068768520323
thia 1
tions 0.04596833848494842
tori 1
tuk@@ 1
umani 1
usho 1
var 0.45566386088196437
wy 1
zif@@ 1
är@@ 0.13620621205458758
ép@@ 0.25308837858482885
ı@@ 0.6889456411147541
県 1
143 1
148 1
1520 1
1572 1
161 1
184 1
194 1
2.3 1
232 1
26.@@ 0.6750596570428367
288 1
318 1
336 1
339 1
346 1
355 1
356 1
357 1
422 1
50,@@ 1
515 1
580 1
58@@ 0.882664902889543
604 1
622 1
625 1
7,0@@ 1
Alum@@ 1
Amy 0.6938276058051049
Ansel@@ 1
Arap 1
Atlético 0.5759074446230461
Avenue 0.16833222838720022
BO@@ 0.6796676128079013
Bati@@ 1
Batista 1
Bib@@ 0.9862683521474471
Broadway 0.299037752201274
Bros@@ 1
Buffalo 0.4683788947382533
Burger 1
Ches@@ 1
Coca 1
Como 0.2141592772537331
Corn@@ 0.4051392334351632
Département 0.430358233965732
EA 0.7314376556534162
ESA 1
Five 0.33000095413017577
Fland@@ 1
Flav@@ 1
Forest 0.23483594471531344
Frid@@ 1
Games 0.11076503729269933
Gran 0.23915746230497376
Hap@@ 1
Hass@@ 0.86357520225547
Hopkins 0.77938143602219
ITA 1
Indo@@ 1
Jeremy 0.8475640178431871
Knight 0.393475949118171
Lay@@ 0.9169150394779884
Leipzig 0.24864613723607715
MB 0.871188706721333
Magh@@ 1
Manu@@ 1
Marx 0.6032804504779556
Meh@@ 0.7028122982111805
Morning 0.6234654123351302
Moss 1
Motown 1
NE@@ 0.40260904109103557
NO@@ 0.31963131311814574
NS@@ 0.40625806563264616
Nakamura 1
Naw@@ 1
Neo 1
Original 0.4864581884835111
Pter@@ 1
Rice 0.7171217611340575
Sabah 1
Sales 1
Sali@@ 1
Set@@ 0.8524755057360546
Stor@@ 0.3858406115265743
Tao 1
Toch@@ 1
Top@@ 0.42498787023548057
Turner 0.4103048425601295
Under@@ 0.4711591771495564
Veneto 1
VfL 1
Web 0.5456561220933446
Winston 0.9334060811440525
Yvonne 1
abol@@ 0.45605844946915736
agar 0.9516569746297846
aise 0.24870618943683453
anini 1
apia 1
assé 1
bac@@ 0.4590652753933214
book 0.04807707720333557
dar 0.15898906303627064
dii 1
duk 1
eia 1
ensi@@ 0.3811280888635861
eraha 1
gs 0.1994280981760098
hair@@ 0.8260229062926585
high 0.03535511539513962
holanzi 1
ider 0.23733416914204508
iman 0.9947425679953763
ind 0.798872734209871
kno@@ 0.7727632043090586
kopo 1
lamu 1
language 0.07121999111788546
long 0.032534787507453436
mbal@@ 1
million 0.04688575957283142
new 0.016965104074407534
org@@ 0.26888924640313694
otti 0.799754402088784
pes 0.21705902040615996
poda 1
prim@@ 0.21162743848118565
rani 1
sus 0.022195201341655733
tawa 1
ulata 1
unt 0.324083872820199
v. 0.18866584610096965
vel@@ 0.2552954966779454
wald 0.23707247752212596
wanza 1
ł@@ 0.17484342822075322
محمد 0.5097529230743453
∘ 1
1,200 1
162 1
173 1
1809 0.5109684225730702
1812 0.3481320759989807
1834 0.4067236829550698
191 1
254 1
276 1
36.@@ 1
373 1
386 1
609 1
632 1
649 1
8.5 1
950 1
98@@ 1
ACP 1
AO@@ 1
Ado@@ 1
Airbus 1
Airways 0.9171986242590318
Andre 1
Android 0.6583621437237626
Arn@@ 0.4262479446443812
BE 0.7655514911046566
Bahamas 1
Blood 0.5821761533664582
Brid@@ 0.6958012441373435
Bundestag 1
CR 0.5343632082245496
Cann@@ 0.746783865794889
Chart 0.35096275613403055
Chip@@ 1
Christ@@ 0.30932513019474916
Ciudad 0.29819122200040715
Coll@@ 0.6878452922146422
DO 1
DR 0.4680736221436118
DS 0.3094328740635088
Forever 1
Gao 1
Geoffrey 1
Hall@@ 0.463035325742929
Harcourt 1
Hard 0.7854643617120094
Hop@@ 0.4623963625519314
Hou@@ 0.7597503590592526
Jul@@ 1
Kai@@ 1
Kay 0.690356357022756
Köln 0.3046186896686642
LM 1
Lahore 1
MRI 1
Manz@@ 1
Mar 0.45408549644738905
Meth@@ 0.8217417782373221
Mind@@ 0.8528765612793355
Ming 0.919361932686887
Mist@@ 1
Nasser 1
Nez@@ 1
Nicol@@ 0.5742384219226745
Oce@@ 1
Oh@@ 0.7606429371393898
PP@@ 0.6348488192508045
Rahman 1
Rama 1
Rodriguez 1
Saw@@ 1
Secret 0.5944705453506203
Seven 0.4203335017236123
Spir@@ 0.45370257501205724
Stoke 1
Stuart 0.4589133495493718
TH@@ 0.7308668791019047
Takri@@ 1
Tang 0.6540560287504308
Taw@@ 1
Terr@@ 0.41095045187017404
Trav@@ 0.42839907032949215
Troyes 1
Vu@@ 1
Wang 0.4384546939744976
Wiz@@ 1
Wolf 0.38062084179253053
Yek@@ 1
aer@@ 0.3257979880693239
ague 0.538931832719246
alisi@@ 1
aran 0.3717096762884988
assi@@ 0.3184192879910988
ataba 1
aurus 0.8245976967758264
bish@@ 1
blues 0.6411031200177927
bomb@@ 0.4434787812661391
chur@@ 1
danc@@ 1
ders 0.12199047791891726
devi@@ 0.9831798909515392
dit 0.11140157394200671
eksi 1
elec@@ 0.19655200106582088
eller 0.14851651900274937
eni@@ 0.885600415058658
enko 0.49773914344904174
eon 0.4645613764717204
esis 0.4317887632040982
eville 0.49844056868838116
frey 1
habit@@ 0.32580076677760095
intang 1
itihada 1
ix@@ 0.48214631573610534
kum 0.948183987468418
lai 0.8691183177816745
low@@ 0.22063284529583768
mano 0.40316508145880336
mel 0.57828945596373
mg 1
nova 0.9649015712228183
nur@@ 0.3412435752723746
oir 0.28313744434006716
owo 0.6145744305158014
ret 0.29485379303719034
rod@@ 0.4481877286801769
shut@@ 0.7390826797550577
sley 0.5453797479103989
stil@@ 0.663704079630617
taj@@ 1
tics 0.13105489730970252
tria 1
ture 0.12816856842897506
uld 0.49761594871543224
wu 1
zoni 1
ä@@ 0.05959367846617569
ée 0.01846061013768811
Š@@ 0.2892169709275521
ς 0.5225791171186648
1519 1
159 1
1802 0.5164319254265036
1811 0.5140243505900279
1833 0.4120811325601871
292 1
327 1
387 1
476 1
484 1
69@@ 1
730 1
79@@ 1
Again 0.7095789011343692
Airlines 0.39648697767411245
Alber@@ 0.5375963744569364
Amos 1
Andorra 1
Athletic 0.32684452668740693
Back@@ 0.5017001664779048
Batman 0.6796599395706637
Bonaparte 0.9849042909822723
Borussia 1
Call 0.6910401161965178
Captain 0.21262590838617365
Deutsche 0.20648349733211185
Doha 1
Dop@@ 1
ESPN 0.8911050037415285
Economic 0.4187910131193541
Eduardo 0.49907990125585155
Eleu@@ 1
Four 0.21594377982789648
Freeman 1
Giuseppe 0.594401631096338
Gob@@ 1
Hash@@ 1
Hippo@@ 1
Hiroshima 1
History 0.03784296874848645
IS 0.33303063729483223
Jorge 0.31663375927339166
Kaya 1
Kid 0.8212744824910353
Koch 0.7579992976137616
Kru@@ 0.6675825072365106
Lakes 0.8526148127768978
Let 0.4572006117610467
Liberation 0.9229041744007875
Lif@@ 0.9312292220509295
Linda 0.6840260900919223
Low@@ 0.9664633558901016
Lud@@ 0.5633746045634714
Ludov@@ 1
Lyn@@ 0.9348734062431818
Maya 0.8534348599999588
Mountains 0.33096919651940643
Nikon 1
Nord@@ 0.11438821079885635
Nottingham 0.8733752072011015
Osh@@ 1
Ost@@ 0.16727392206502928
PS@@ 0.3279201177879102
Pain 1
Phillips 0.5440474367743274
Pointe 1
Prom@@ 0.35283118074772263
Quincy 1
Radi@@ 0.26744404990726955
Region 0.10021726266296878
Reims 0.9750096399151873
Rig@@ 0.6254139768493884
Río 0.2435357808144797
SH@@ 0.7074238049102751
Samoa 1
Samsung 1
Semin@@ 1
Sharon 1
Sob@@ 0.9354131037493588
TH 1
Tac@@ 0.48700791211225497
Tap@@ 0.5107136088702269
Tau@@ 0.5504762627801391
Ted 0.5778490009377337
Theodor 0.5933322740678894
Torino 1
Trabzon 1
Tub@@ 1
Tula 1
Vanessa 1
View 0.8302950532801203
Wai@@ 1
Wind@@ 0.320291119207245
XXII 1
Yahya 1
abur@@ 1
adv@@ 0.31944553132481485
aea 0.7480338304425483
alp@@ 0.5102451220098605
anen 1
arian 0.25978915517502615
arin 0.7020532263295569
atas@@ 1
atol@@ 1
away 0.07077435463047448
bek 0.7329542828635134
bey 0.5074867022506427
bid@@ 0.884065792111925
body 0.07115541986756747
chu 0.9243233578828394
codice 0.34000979368730566
cur@@ 0.08199752577338609
della 0.5608396307972642
dez 0.5874864976744781
ding 0.10488456517321809
esti@@ 0.19014471377867112
hiv@@ 1
ilde 0.7557090837773133
imbe 1
iola 1
iso@@ 1
itas 0.30609845887490206
kn@@ 0.15174430148079857
kong 1
lard 0.34951553983961103
loy@@ 0.6453632823606109
lum 0.2910023149326384
lut@@ 0.5784229934266367
mere 0.6809763638876276
mut@@ 0.19889309979121234
nes@@ 0.5813736247364117
nig@@ 0.6648789243288054
not 0.00848707187030162
number 0.025420148564551836
ornis 1
ost 0.19552677026724904
outh 0.6104970671877827
pera 0.9241858268190503
prom@@ 0.1449285365764126
rh@@ 0.45521807625052774
sev@@ 1
thal@@ 1
tier 0.1618713095390204
urg@@ 0.2088966747559077
uze 1
zz@@ 0.49358047104798625
☉ 1
0.3 1
000@@ 0.9364973873663981
141 0.9429375536477553
142 1
1816 0.44811803060721017
198 1
2.7 1
2.8 1
219 1
245 1
246 1
293 1
295 1
298 1
319 1
322 1
324 1
349 1
374 1
378 1
382 1
391 1
408 1
419 1
432 1
445 1
449 1
56,@@ 1
616 1
620 1
88@@ 0.9606371085212492
Alberta 0.41116742251384747
Alek@@ 1
Animation 1
Archi@@ 0.8212475676306079
Baj@@ 0.8866139284536576
Bant@@ 1
Beni 1
Bermuda 1
Boc@@ 0.7139985189879595
CDC 1
Canis 1
Challenge 0.3566418537730777
Classic 0.4028794295419304
Clement 1
Columbus 0.5741388356373444
Connor 0.6790017309454768
Corr@@ 0.8635825323180969
Creek 0.1369292693425493
Cube 1
Denizli 1
Dhar@@ 0.9597743899684684
Dit@@ 1
Dream@@ 1
Eddy 1
Federation 0.2260818351666319
Fire 0.2791434172990416
German 0.04493010433684658
Gulf 0.37580385183233095
Gutenberg 1
Ham 1
Harlem 1
Herr@@ 0.3692918128119219
Hew@@ 1
High@@ 0.3634227681687512
Honey 1
Jamal 1
Jeh@@ 1
Jel@@ 1
Jesse 0.7276679409195204
Jessica 0.7986833416818606
Jose@@ 0.662064730969813
Joy@@ 1
João 1
Kar 1
Karim 1
Kelvin 1
Kier@@ 1
Kings 0.41599233674287045
Labrador 1
Lenin 1
Loire 0.31660754946819425
Luigi 0.8085649131003415
Metropolitan 0.32213138972700334
Moldova 1
Monaster@@ 1
Nass@@ 1
Nil@@ 0.8721849842734511
Pac@@ 0.6157408430457576
Paolo 0.8768786772965936
Parker 0.3677891678794308
Place 0.3011170756007346
Pod@@ 0.2780987044889081
Poitiers 1
Portsmouth 0.7824479129571319
Python 1
Rag@@ 0.5591373315762818
Rash@@ 1
Rat@@ 0.30918287169163694
Recording 0.7614278541903197
Ring 0.43793205695675946
Row 1
Sahi@@ 1
Siy@@ 1
Small 0.5776712394050372
Sos@@ 1
TS 0.44549186687529113
Talent 1
Tribune 0.8638083592016225
Trinity 0.4393989797426235
Twe@@ 1
UT@@ 0.9222828222198144
Vall@@ 0.5418688374042419
Vas@@ 0.30763062269139024
Vieira 1
Vodafone 1
Ward 0.37099608574274817
Water 0.2868677111263273
adre 1
ager 0.14923954668781703
ajara 1
akh@@ 1
alini 1
amus 1
angazo 1
arama 1
arius 0.6951483352110395
atari 1
atis@@ 0.4063395170125834
atoliki 1
atom@@ 0.49873858885769523
awesi 1
azep@@ 1
bik@@ 1
ches 0.06392676069017393
eira 0.6762217335358663
endok@@ 1
enny 0.5049906694529317
esper@@ 0.4749196004419846
fut@@ 0.4560425044845595
hik@@ 0.7673614341488479
iano 1
iné 1
issen@@ 0.8126881221582216
jak@@ 1
kary@@ 1
keno 1
lars 0.6781906497035397
leigh 1
odo@@ 0.894603211212454
oefu 1
otrans@@ 1
pam@@ 1
pha 0.875062581394284
phon@@ 0.3501397108176866
pour 0.006966056217511572
rania 1
sella 1
stati@@ 0.8085649131003415
this 0.009265203393513366
tiv@@ 0.17996274871261927
unzo 1
upan@@ 1
urus 0.8555306703196517
uz 0.7985780231163325
wes@@ 0.5788215023228025
zai 1
ín 0.12599551523556912
î@@ 0.37918830619890476
ð@@ 0.5828697245719642
ʻ@@ 0.8712230232291042
† 0.05840182751097964
1610 1
1780 0.6104418047717902
1801 0.45332723585646795
1803 0.43552673473268005
189 1
2,500 1
2.0 0.5334720156880676
2.1 1
236 1
239 1
243 1
265 1
274 1
343 1
363 1
4.3 1
403 1
444 1
46,@@ 1
60,@@ 1
668 1
690 1
820 1
910 1
AE@@ 0.40005428076197797
Abel 1
Achil@@ 1
Against 0.7562458089788596
Akar@@ 1
Akira 1
Alpes 0.3786891262691384
And@@ 0.561529005442574
Anita 1
Antalya 1
Anth@@ 0.5619033105820578
Australian 0.06667131887929716
Bhutan 1
Bing@@ 1
Bj@@ 1
Bosco 1
Brig@@ 0.6358777936196396
Burg@@ 0.27963796753091663
Bursa 1
Burton 0.6857863052174155
Carlo 0.4152473439574283
Chong@@ 1
Commercial 0.6710208823235337
Design 0.2147426368398807
Dong 1
Drake 0.7795579485897985
Ed 0.4264460479530039
Enrique 0.3907512062463224
Exchange 0.5452199672470477
Fem@@ 0.6607024930607676
Funk 1
Gener@@ 0.22753034191599322
Ghetto 1
Gold@@ 0.2178518040879316
Have 1
Her 0.07696074141180242
Hindu 0.4856437929433251
Hispan@@ 0.9734775163780772
Honor@@ 0.5466088804118246
Imperial 0.2667339982758944
Journ@@ 0.6120670042381975
Kai 0.9396821348078216
Kashmir 1
Ken 0.43960420419377794
Kisov@@ 1
Korn@@ 1
Logan 0.7890088204928305
Mahar@@ 1
Micha@@ 0.8863731766055202
Mine 0.7264080878383695
Moreno 0.7936427660424634
Mous@@ 1
NY@@ 0.5735271386038504
Nec@@ 0.7640963373940712
Negro 0.62428416901457
Opr@@ 1
Phil 0.4140575374026886
Publi@@ 1
Rebecca 0.9209104901327687
Record 0.5783521267831007
Rich@@ 0.33427501362571793
Rihanna 1
SD 0.6382161696137703
SU@@ 0.9978130824968799
Sed@@ 0.6685247794171773
Shanghai 0.4304853153843402
Sisters 0.8224401550165928
Songs 0.2688424793696982
Spider 0.5953722092145813
Sul 1
Sutherland 1
Telec@@ 1
Terry 0.4258817758883979
Text 0.5168224307070287
Things 0.9543223211718453
Tonight 1
Uru@@ 1
X. 0.9159785727298534
Yon@@ 1
act@@ 0.22590432669840604
ahewa 1
alog 0.4981834577673785
alt@@ 0.11722303309368827
annes 0.6513910029650113
ares 0.12526280261233966
atis 0.8825946999340453
aver 0.772128405843768
biom@@ 0.913332055338827
ble 0.14220006664559753
bok 1
digit@@ 0.6068840857272153
dinosaur@@ 1
ekeshaji 1
emir@@ 1
eum 0.4426159071016551
evo 0.5445742204352098
hard 0.1617008622660621
heter@@ 0.5500738590984617
ift 0.559895053185854
ignan 0.9936962528601502
ija 1
imen@@ 1
irini 1
jur@@ 0.21902160121470288
kes 0.3622193281683015
kes@@ 0.5577780475967213
kri@@ 0.5811813223210593
ké 1
lane 0.39091515538771193
micro@@ 0.17888510735891455
nin 0.127622068637549
nm 1
oba@@ 1
oji@@ 1
ological 0.08988239004905925
ouf 1
pers 0.22336458656291153
plant 0.1103810909943173
quot 0.4474094398366564
rap@@ 0.16071360581563035
sist@@ 1
tarak@@ 1
tib@@ 1
tive 0.067924854129671
tou 1
umin@@ 0.6651587313422566
ν 0.5746162202284268
ח@@ 1
כ@@ 1
0,0@@ 1
1220 1
158 1
1622 1
164 1
1648 0.9888333703313734
1826 0.42615720907496835
186 1
247 1
25.@@ 0.5736464365243175
266 1
271 1
3.2 1
368 1
455 1
475 1
507 1
54,@@ 1
597 1
608 1
612 1
615 1
628 1
68@@ 0.6865842569358549
705 1
880 1
Amir 1
And 0.20528634185792666
Andy 0.3209390846133796
Arena 0.28066524694884865
At 0.029736027413731617
Atal@@ 1
Basil@@ 1
Castle 0.18419730034299756
Christ 0.222897825229329
Christmas 0.24354937338117985
Const@@ 0.9514962450039287
Crazy 1
Cum@@ 0.40434823712969725
DI 0.5660357452381257
Dalm@@ 1
Damian 1
Derr@@ 1
Desmond 1
Deutsch 0.49770741891763765
Dib@@ 1
Ej@@ 1
Eli 1
Esther 1
Ethiop@@ 1
Fat 1
Feder@@ 0.4579812803934097
Frances 0.7587091503761849
Frig@@ 1
Fus@@ 0.8046287364678556
Gand@@ 0.946454409480063
Gerard 1
Hann@@ 0.7340866472847601
How@@ 0.4449928868241382
II@@ 0.46764215308063833
IMF 1
KA 0.9791992318276476
Kate 0.5146716774633076
Kerala 0.5865897930249854
Light 0.24103923978612565
Lille 0.6241776776058291
Liu 0.511760647206727
Lop@@ 1
Lux@@ 1
Mainz 0.5872293022024452
Mercury 0.6725332427424467
Methodist 0.6523362466930143
Molly 1
NCAA 0.20849461994600454
Nashville 0.5140270332293382
Nord 0.09895657091328082
Park@@ 0.4922633331404467
Pat 0.58910588301677
Phyl@@ 0.8756975297589883
Princeton 0.5881008744304952
Pum@@ 1
Range 0.45783530057098526
Rast@@ 1
Rein@@ 0.3271555642111429
Rich 0.7672366285302428
Roz@@ 1
Rugby 0.2278810706097659
Ruiz 0.8214437629626921
SV 0.3109543388251264
Sant@@ 0.3828174231703757
Sivas 1
Sl@@ 0.3022702151455758
Sporting 0.6499011925511818
TP 0.6358870537241263
Talk 0.8883802947245731
Thomson 0.7751204963909776
Toni 1
UR@@ 0.782137469234086
UT 1
Utrecht 0.986541194416402
Walsh 0.8250217536974042
Wikim@@ 1
aar 0.8482249195761015
afak@@ 1
ald 0.35943142933918965
aldi 1
ante@@ 0.3738135195186712
ara@@ 1
arch@@ 0.1124017221071705
auer 0.1844061910917055
awadi 1
ayama 1
bach@@ 0.5702775721102473
ball 0.10905357965155053
brook 0.5876397210591401
cas@@ 0.07924888206590068
coli 1
cus 0.3045292310644199
dec@@ 0.06683892243356834
eder@@ 0.2811986830828466
eline 0.371781639469089
enc@@ 0.07529208928737463
ender 0.10659497696805598
esif@@ 1
euro 1
hab 0.488565724521214
hand 0.1097902427695807
ial 0.2080655047409636
ifuatazo 1
ily 0.44669969621744077
laf@@ 1
lings 0.9994117344531452
mang@@ 0.414141315446994
meh 1
muj@@ 1
nil@@ 1
né@@ 0.38297478093711285
ojo 1
oman 0.9636516075389913
osefu 1
osi@@ 1
par 0.005328556757266499
pep@@ 1
raeli 1
rak@@ 0.8098648911453351
ree 0.2776027456634912
rop@@ 0.645616798510953
skul@@ 0.7878395867193605
sl@@ 0.16858059620365173
tez 1
ties 0.06341417951864994
tran@@ 0.2679531523527993
umen 0.3131434420043633
ury 0.29653943188380505
usun 1
xi@@ 0.2764739624539233
yu@@ 0.8977034180488095
zeit@@ 0.353526360682306
ça 0.3752540026832018
ü@@ 0.0982489546200522
ɡ@@ 1
ܝ@@ 1
0.4 1
1.9 1
154 0.9308157329142028
1792 0.45177342133036624
1804 0.48606643170538916
1817 0.4458462597345525
196@@ 1
2030 1
255 1
277 1
28.@@ 0.6198099255258317
291 1
296 1
3.7 1
33.@@ 1
39.@@ 1
393 1
399 1
415 1
421 1
5.5 0.9640715736779737
559 1
619 1
629 1
64@@ 0.8133323824493897
704 1
740 1
751 1
869 1
AN 0.45014848975091437
Ahmad@@ 1
Ama 1
Andri@@ 1
Anton 0.3229849116472347
April 0.01875569412693339
Arc@@ 0.5505205350725533
Aristot@@ 1
Augustus 0.7594650421119097
Ball 0.37853257177490046
Berger 0.9384464374200604
Bill@@ 0.4967272987357145
Blaise 1
Blu@@ 0.316568013060918
Boeing 0.4360619636473957
Bolton 0.9568111287927652
Booth 1
Bour@@ 0.28630338466121263
Bretagne 0.3320070687436811
Burnley 1
CU 1
Chr@@ 0.6158043240830298
Christi@@ 1
Computer 0.3889354358847652
Conn@@ 0.25544548619867163
Crew 1
Czech 0.3141103203737592
Deu@@ 1
Dion 1
Dé@@ 0.1606416569433527
Emil 0.6281441676466915
Erik 0.6403523190559267
Field 0.1763840476644828
Friends 0.5071904873634209
Gall@@ 0.5173687200344036
García 0.26625769313681125
Glenn 0.6713573682912407
Got@@ 0.32952482777425557
Gui@@ 1
HA 0.857278316161799
Harr@@ 0.5289963586441193
Herman 0.7273814651247046
Holy 0.2634055893056982
Hug@@ 0.8493976428239055
Idol 1
Inc 0.6683473970276055
Iron 0.325012976093086
Jana 1
Jefferson 0.41441403231973883
Josef 0.29484272998031263
Jou@@ 0.7436207542363459
Joy 0.8872345286168232
Jude 1
Judith 0.9523286235045537
KK@@ 1
Kayseri 1
Kob@@ 0.952572040550691
Kod@@ 0.8490536178571887
Kug@@ 1
Ligh@@ 1
MD 0.513692132812056
Macbeth 1
Marath@@ 1
Margar@@ 0.6595939926418434
María 0.12332932832712679
McCarthy 1
Meridi@@ 1
Muhammed 1
Murray 0.28903205728616566
Napole@@ 1
Norte 0.24003473828724847
Ocean 0.2708284007544077
Only 0.2568618021123478
Orig@@ 1
Oslo 0.4852577274281016
Pach@@ 0.8141220447057059
Parma 1
Pek@@ 1
Pereira 1
Rhy@@ 0.9345243687785344
Ricky 1
Rol@@ 0.2962960938492627
Roman 0.07470491808060578
Romano 1
Rome 0.12137237873923598
SI@@ 0.4663785717043074
Shal@@ 1
Sport 0.20841212730421024
Station 0.10617100840362242
Strasbourg 0.5800234167401107
Stu@@ 0.2280770713982754
Teb@@ 1
Tes@@ 0.5659879873750085
Theft 1
Tina 1
Tit@@ 0.31713372464690276
Tower 0.3130695015665172
Traf@@ 1
Turkmenistan 1
UB@@ 1
Universe 0.674435255365366
Verona 1
Vicente 0.5156189718651865
Virgin 0.41204670851501063
Weekly 0.5304856172178085
Wis@@ 0.519709537324218
Wonder 0.8961955357192962
Xi 1
Yah@@ 1
Yosh@@ 1
Zer@@ 0.4210521481274213
acet@@ 0.6181649886623488
aden 0.22421663003255776
alan 0.22721339475155894
aragua 1
ariensis 1
arya 1
ative 0.05225132551378197
atiz@@ 1
att 0.4708898639575227
ayat 1
azz@@ 0.704243687820572
bil 1
bot 0.3512479094347151
ca@@ 0.24645838197565162
cas 0.11124603775030557
doksi 1
eson 0.616812205668292
etia 1
fum@@ 0.5786026000074244
horn 0.3876901591611903
https 0.70406629273978
hukum@@ 1
hydro@@ 0.25364702325277255
i. 1
ices 0.1490115692382175
igula 1
ionale 0.937109245636745
kers 0.21960986132279436
kewe 1
krit 1
ley@@ 0.3839753425202672
monaster@@ 1
olamo 1
olini 1
oney 0.6553667347902534
orious 1
oru 1
osp@@ 0.4229529409072959
osu 1
oto@@ 1
ough@@ 0.21407199417817338
pierre 0.37768860347082833
poli 1
pper 0.37642545923673887
ps@@ 0.4630178647132852
ramenti 1
sek 1
shire 0.2601227993751532
spor@@ 0.5328791783014851
tamb@@ 1
tim 1
tos 0.1263467315074901
uf 1
ug 1
ón 0.047210676721969866
ú 0.297241376094065
ān 0.8975385100302484
μ@@ 0.3572145152065091
1221 1
1453 1
171 1
1740 0.8755354888755115
1787 0.6260909162731055
1808 0.4188629615574221
1827 0.43418884857222556
196 1
279 1
299 1
3.4 1
383 1
396 1
492 1
496 1
502 1
512 1
514 1
516 1
534 1
555 1
634 1
661 1
ACT 1
AF 0.33605382830257247
Allison 1
Andrews 0.6023926123283104
Baja 0.8519743770912718
Balıkesir 1
Beatrice 1
Benfica 1
Billie 1
Borneo 1
Braun 1
Budapest 0.40582578476433273
CF 0.5221333987121469
CO2 0.9823267647658883
Canal 0.23131114007468243
Chlor@@ 1
Colin 0.5515691426594345
Crosby 1
Cyril 1
DH 1
Dean 0.285693302872486
Dek@@ 0.4296919130737703
Dil@@ 0.616853043340807
Doh@@ 1
Dominic 1
Double 0.5254313313004484
Dove 1
Eun@@ 1
Fisher 0.5397017474581425
Flight 0.5135568496648413
GM 0.5760651382897597
Greater 0.42064600091804166
Hamas 1
Hamb@@ 1
Henderson 0.6322453667946648
Hind@@ 0.44940559368212163
Hughes 0.44382724651461664
ID@@ 0.9549408247384452
IK@@ 1
Idi@@ 1
Iglesias 1
Image 1
Indi@@ 0.40734153550314073
Interscope 1
Jaw@@ 1
Jensen 1
Jo 0.662091271078706
Josi@@ 1
Jur@@ 0.20183405615800717
Lydia 1
McKin@@ 1
Mussolini 1
Nem@@ 0.5253551462545863
Norwich 0.9204391803987927
Nos@@ 0.7629338655928227
Novgorod 1
Oran 1
Over@@ 0.22522114597320514
Pamela 1
Persia 1
Ph.D. 0.5856979539329051
Pitt 1
Prague 0.418239781489437
Praha 1
Pride 0.9455539560752872
Pris@@ 1
Pul@@ 0.2569078963457687
Reserve 0.25391129102040383
Rica 0.39691467900688226
Right 0.5503218172840845
Riv@@ 0.3069459071440391
Ron 0.4391827512884636
Ruanda 1
SN@@ 0.420185283327128
Sco@@ 0.7632910276477792
Scor@@ 0.5948868812603697
Shakira 1
Shor@@ 1
Sound@@ 0.8827405669356115
Special 0.18167460170128322
Strat@@ 0.6321105544539123
Suk@@ 1
TC 0.3084761215310462
TR 1
Taz@@ 1
Tehran 1
Theresa 1
Titan 1
Today 0.21283928231764315
UM@@ 0.9693902697217047
Umw@@ 1
Under 0.13716782812301373
VA 0.4054977652163499
Wanna 1
Watson 0.4434349490490417
Willem 1
Wing 0.4649573571045203
Word@@ 1
Yaz@@ 0.9184430160024907
You@@ 1
Zürich 0.3368940149510138
acon 0.5286511783147725
afro@@ 1
aft@@ 1
agus 0.9691885895253053
aines 0.24297597224583056
akura 1
alem@@ 1
andin@@ 1
ansen 0.7701957836313665
ashara 1
atsu 0.8717204684337154
augh@@ 0.40613915984566673
automati@@ 0.9665457135327651
avirus 1
avo 1
azaki 1
azar 0.5516064631691125
beat 0.21886918104012637
bet 0.6645334165427325
bibli@@ 0.6192426753355189
black 0.08247276592564
but 0.007180912178356447
dou 1
duk@@ 1
dé@@ 0.02407679282684757
eer 0.2927175390313318
eit@@ 0.5963010511496256
eki@@ 1
elly 0.41881992400678686
els@@ 0.24761055220483863
ener 0.10153068022669252
fid@@ 0.7623631010232483
glo@@ 0.5041950535464226
haifu 1
harti 1
hn@@ 0.8639374561708418
ici 0.2781581916624878
igr@@ 1
illi 0.6311318278851209
ique 0.10008323343165418
isc@@ 0.7218283885950156
ision 0.3154895877861904
ister 0.20384774101962522
ites 0.07959199836753289
jera 1
kor 1
lang 0.11578821528737603
lian 0.9023304264968157
madh@@ 1
modeli 1
mun 1
nov@@ 0.3726608987379825
ody 0.26108342100214915
ogy 0.46658061644253
onn@@ 0.1308465651885836
onna 0.6576713648461857
oyle 1
patri@@ 0.22317418546338819
quel@@ 0.5129671115804377
rep@@ 0.13854316035895547
reti 1
rik@@ 1
rugby 0.16692510114084977
sept@@ 1
series 0.021595861722121103
show 0.03624187906359124
silon 1
stad@@ 1
tenga 1
trus@@ 0.3662733829402272
tuy@@ 1
uriko 1
ushing 0.37807029730520364
ust 0.13842495047487594
ylo@@ 0.7184568450508599
à@@ 0.6300465498998865
én 0.25562904623657295
ə 1
ե@@ 1
ո@@ 1
ἀ@@ 1
0.2 0.9954317457972683
0.7 1
1054 1
119@@ 1
174 1
1760 0.7816424715993404
1770 0.648162061803173
1775 0.5892415261626948
1783 0.591828574432629
1793 0.37664377202908833
1797 0.5076623735397437
22.@@ 0.484723106354916
231 1
242 1
267 1
27.@@ 0.5514042793870472
281 1
289 1
3.3 1
35.@@ 1
353 1
359 1
438 1
45,@@ 1
458 1
479 1
529 1
533 1
535 1
539 1
541 1
57,@@ 1
58,@@ 1
606 1
613 1
618 1
623 1
722 1
732 1
76,@@ 1
810 1
85@@ 1
Aar@@ 0.7970416779012297
Adelaide 0.4177122269964986
Anaf@@ 1
BD 0.7267510426380305
Bois 0.5556990517762735
Bollywood 1
Bonn@@ 0.6573485048040355
Born 0.1688914835974583
Brand@@ 0.4201555069501488
Buc@@ 0.2566902019845267
CMA 1
Calgary 0.6016985668035496
Castel@@ 0.7353891829906786
Clara 0.4819208976831143
Coalition 0.7439904280733354
Commission 0.09940822704466322
Cooper 0.32126756502410164
Copenhagen 0.702183948008478
Critics 0.6548075417348425
Cub@@ 0.5056849839009382
Culture 0.2234894945464366
Dod@@ 0.6792526041364283
Doris 1
EMI 0.9200053568339471
Eddie 0.4056709112465131
Ella 0.4956831715853736
Elvis 0.9897092650515972
Erzurum 1
FK 0.4302914253997809
Fit@@ 0.7052009004119874
Flavius 1
Flying 0.5412387993183856
Frauen 0.1712452128103321
Ga 1
Gerald 0.6194173842221793
Guz@@ 1
HTML 1
Haus@@ 0.19848135618111826
Hayes 0.71800413532733
Hill@@ 0.4403033490375491
Hof@@ 0.20353792171752158
IH@@ 1
Jon@@ 0.5205512282924125
Ka 1
Kapo@@ 1
Kiss 0.797884853319895
Kurt 0.34346707051476727
Luna 0.5885299479146581
Machine 0.5014027738533424
Madeira 1
Mikhail 1
Mohammad 0.7363464538936884
Mour@@ 1
Nay@@ 1
Newfoundland 0.9352432596175628
Nissan 0.9747861170725441
Nou@@ 1
Och@@ 0.7443750457398832
Own 1
PM 0.4683267954835374
Patrice 1
Penny 1
Phillip 1
Pik@@ 1
Pru@@ 1
Rang@@ 0.48099888315020917
Rov@@ 1
Sana 1
Scot@@ 0.5465522946653061
Senior 0.24124488379704723
Services 0.2049867308150676
Soy@@ 1
Stam@@ 0.7370488947278082
Stop 0.9150093716495226
Sucre 1
Taur@@ 1
Them@@ 1
Thun@@ 1
Veronica 1
Vä@@ 1
Watanabe 1
Yamaguchi 1
Yuri 1
Zaragoza 0.7174674861049662
acc@@ 0.1163792766401284
agne 0.5099342323289463
aleg@@ 0.9206738293517736
aly@@ 0.4945147280044096
asc@@ 0.18816192432868123
atum 0.38095130055687604
bir 0.022424763415521017
biz@@ 1
brand 0.18258733462737095
chat@@ 1
chester 0.5002783393320669
dem 0.004725630253836166
dir 0.15486570184408857
egen@@ 1
eros 0.1296918541287373
esse 0.17329969444068075
ew 0.4901911772357592
fot@@ 0.4940905034315423
fug@@ 0.7189329682380843
gram 1
gy@@ 0.45235654947316034
hauer 1
het 1
hil 1
ht@@ 1
igan 0.7030410681012577
illus 1
irie 1
isp@@ 0.8921515319938736
istan 0.5439899788175998
itude 0.706537848700936
lag@@ 0.14201773761737727
left 0.03212033908004675
lich 0.04340595759449722
love 0.11077603046047003
mith 1
mul@@ 0.21745558196044917
nier 0.2325202181986147
oia 1
oll 0.29504060322544606
otok@@ 1
park 0.08446825922209371
pei 1
ref@@ 0.14192865599660595
ril 0.8619058157567129
rin 0.6689535086055343
say@@ 0.6090562466883249
shin@@ 1
system 0.029620565064473952
tath@@ 1
tidae 0.6601017826274036
tine 0.4848121280457066
ukur@@ 1
uleni 1
uny 1
yav@@ 1
year 0.013336352388390808
yezi 1
yya 1
ère 0.05500189160707937
ö 0.4702595594920946
ık 0.6693210033491056
ն 1
ֹ@@ 1
1550 1
1640 0.9478952278284781
1650 0.9017988387940552
1690 1
172 1
1776 0.5790302945412252
1798 0.44426682093813424
1805 0.4375150071127944
1819 0.4212579071307445
237 1
272 1
326 1
338 1
37.@@ 1
371 1
4.2 1
4.8 1
412 1
414 1
423 1
425 1
446 1
4500 1
461 1
472 1
505 1
55,@@ 1
614 1
698 1
701 1
747 1
78@@ 0.8391356334564551
830 1
840 1
920 1
930 1
999 1
AW@@ 0.7820804723588766
Alab@@ 1
Alto 0.5062391676794632
Amat@@ 1
Ambrose 1
Angels 0.6035477525390546
Ans@@ 0.6861092923735721
Apolo 1
Aug@@ 0.5326183974265412
Aul@@ 1
Bahn 0.25559200959195066
Bailey 0.596822921225338
Bek@@ 0.42570239269279625
Benson 0.9874403317546493
Blan@@ 0.34240516749275585
Bristol 0.3188518735400305
CK 1
Cartoon 1
Chamb@@ 0.947457077126884
Charity 1
Civil 0.11462695491803372
Commonwealth 0.23192572573957904
Contemporary 0.49366467477793413
DA@@ 1
DL 0.8228757523242832
Das 0.014355490691201938
Def@@ 0.44400377792315215
Diab@@ 1
Drama 0.4262158061722073
EM@@ 0.5016713105527195
Emir@@ 1
Everest 1
Fashion 0.9761852174829984
Fau@@ 0.9036010583037829
Fid@@ 0.8490067269521323
French 0.03556835883778972
Gang 0.5843678414460888
Gos@@ 0.3713500768143549
Gospel 0.8815278860555226
H.@@ 0.37221773818847625
Hiti@@ 1
IN 0.6135442530700135
IR@@ 0.47241832779946097
Internationale 0.49114118959512654
Joey 0.9186939256534652
Julio 0.4925890319919976
Jupiter 0.7412587301664622
KO 0.7699764496217103
Know 0.8394563864425413
Konstanz 1
Kütahya 1
Limoges 1
Lion 0.5887881730757869
Manisa 1
Melan@@ 1
Memorial 0.18609197253248427
Müller 0.35051677698304207
Nair@@ 1
Nantes 0.5663694066581534
Norbert 1
Nothing 0.9111254885122096
Of@@ 1
Ordu 1
Palma 0.8777779886899968
Pav@@ 0.2639634060495932
Pisa 1
Plain 1
Polyn@@ 1
Polytechnic 1
Price 0.4596559914162944
Professor 0.09333777450204009
Ralph 0.37368348294616444
Rhein 0.4809687854492689
Rhythm 1
Samo@@ 1
Shen@@ 1
Shield 0.8320054556974756
Sidney 0.7355309588250165
Sn@@ 0.533089373382653
Sol 0.43514959253063457
Starr 1
Sti@@ 0.3243173098652403
Stre@@ 0.23932567086102108
Sunshine 1
Swansea 1
Sánchez 0.4366947363838951
Trevor 0.9322033111953344
Viol@@ 0.3401211280224401
Volga 1
Wagner 0.3860565488861832
Want 1
Yong@@ 1
Yose@@ 1
Zero 0.6609043143923071
Zub@@ 1
aal 1
agio 1
agno@@ 1
ahe 1
akadem@@ 1
allah 1
amali 1
amie 0.8687745015497178
anka 1
atidae 1
aud 0.22295007149736787
audi@@ 0.32360389438953924
baad@@ 1
bass 0.26508768114433473
bri 1
bur 1
cat 0.4497254426154012
ceph@@ 1
dil@@ 0.20644966735276019
dorf 0.1748716278571523
efa 1
eig@@ 0.3510851349697915
enger@@ 1
entista 1
entius 1
erini 1
etano 1
gin@@ 0.7664638183637761
have 0.0076292061373847125
hen@@ 0.5287439097808133
hoe 0.9276749120431016
idade 1
iger 0.1072209518639544
igg@@ 0.8483742062814082
imini 1
ink 0.29811054927323644
inv@@ 0.11243218293526894
iny 0.7034233135016705
ists 0.06444809325740626
kal 0.6999483132961006
kaza 1
kun 1
like 0.03146815524077556
lington 0.658554407219237
mac@@ 0.21352377969654437
melan@@ 1
meridi@@ 1
mim@@ 0.8651077549196544
nik 0.2631455803649822
nitr@@ 0.49282590299011836
ography 0.1541203431190293
oris 1
orus 0.7310364166114536
pon 0.6354565478225139
pur 0.2261345337322986
rapper 0.6973131091772774
ris 0.6311777305354844
rol@@ 0.3960012056754101
seh@@ 0.48543394240087967
she@@ 0.36686151214495655
sichana 1
street 0.16210137348273862
suya 1
thon 1
trus 1
uman 1
unc@@ 0.22976444800541432
usul@@ 1
va@@ 0.7181111668771346
web@@ 0.3708663089374874
work 0.01855259140689772
xton 0.892816726481532
yth@@ 0.5695694709220748
~ 0.3823787681401435
École 0.22681181797948108
ène 0.17592827819141538
ë 0.46285290032433374
ɾ@@ 1
ṭ@@ 1
.C. 0.3891232562834618
0.1 0.7942414293031744
0.9 1
1560 1
1591 1
1790 0.3826605928815803
3.1 1
328 1
351 1
358 1
367 1
385 1
416 1
427 1
435 1
443 1
477 1
521 1
527 1
536 1
547 1
563 1
601 1
602 1
603 1
664 1
669 1
741 1
969 1
AZ 0.8040516389747185
Abas@@ 1
Abe 1
Ago@@ 1
Amen@@ 1
Arab@@ 0.2825993817363276
Auckland 0.4285008878263612
BL 0.5069585916201762
Batt@@ 0.38307359433093785
Bella 1
Bergen 0.4952366162782393
Bourges 1
Brandenburg 0.3810856365205159
Casablanca 1
Cic@@ 0.5724040005602765
Civ@@ 0.5180399425420934
Comp@@ 0.2716583729526698
Conrad 0.550443740735222
Cornell 0.6846606984150682
Coron@@ 0.7998882508298919
Croatia 0.47198319993006843
Cuban 0.6450365585595846
Cynthia 1
Danc@@ 1
Diony@@ 1
Doctor 0.20571614220192344
Einstein 0.8319400277138868
Elisabeth 0.32854599401827694
Engineering 0.22131504352318662
Eskişehir 1
Ever@@ 0.5143400402508809
Fair 0.41750783886266013
Flo@@ 0.33291907422541217
Freiburg 0.47709645826091057
Fulham 1
Félix 0.5390972583028816
Gig@@ 0.7486499290172398
Hard@@ 0.3086327757806085
Heath 0.7622005003881419
Heritage 0.26032267020451383
Hg 1
Hubert 0.618847889515382
Hunt 0.4647364078559469
IF 0.5046332115770309
Information 0.257975553977525
Internaz@@ 1
Ja 1
Jong 1
Jules 0.3692028131856719
KO@@ 0.7976839354982491
Kant 1
Kastamonu 1
Klin@@ 0.7647028514718006
Ko 1
Kraków 1
Krishna 0.8386563930571748
Lek@@ 1
Lid@@ 1
Ling@@ 0.799759509997118
Lo 0.386700667624516
Lou 0.7248428175917184
Lower 0.313053065228667
Luiz 1
ME 0.5466589921557521
Mann 0.16061367566777762
March 0.021627148097852072
Matrix 1
Mecklenburg 0.6424235551979693
Mori@@ 1
Morton 0.7754833993961026
Nami@@ 1
Neal 0.9336204287963474
Nebraska 0.38163685995215896
Novo 1
Oakland 0.5013323486326309
Ov@@ 1
Oz@@ 0.9633966062359054
Padua 1
Pag@@ 0.5433613044137517
Part 0.3449005098525336
Porter 0.5809023999139303
Rho@@ 0.7752212687064812
Richardson 0.576209554582014
Ridge 0.37429206921326424
Riy@@ 1
Rodrigues 1
Rosario 0.5632128376375729
Salisbury 0.9571490183692113
Samsun 1
Sasha 1
Save 1
Sebasti@@ 1
Sex@@ 0.3434384441278474
Seymour 0.9701680639478886
Shirley 0.9195113117808587
Tari@@ 0.7732709506479551
Tay 1
Tow@@ 0.4696338411754546
Urbano 1
Usu@@ 1
Watch 0.612000878010973
Zaf@@ 1
Zhang 0.4999955520498845
acks 0.1876548972997052
adol@@ 1
aks 0.17799224356090673
angel@@ 0.6375194537309704
ank 0.4601601267642506
atl 1
aven 0.4217483558702903
bat 0.22756004772802432
berto 0.6372060692295745
cam@@ 0.193365381897076
corona 0.9169096682612425
court 0.0558132958923478
dre@@ 0.10994746715387715
ear@@ 0.13799245001635013
egi 1
elik@@ 1
endorf 0.23066392353956214
eor@@ 1
eran 0.05691031889528836
esto 0.13755062155737485
estown 1
ges 0.09858194025474426
gir@@ 0.3120079824729223
heli@@ 1
huel@@ 1
iel 0.8099273253424945
igny 0.403053017712111
inha 1
iten@@ 0.6652884092734985
jpg 1
juz@@ 1
kê 1
leaf 0.40777179475049663
lid 1
litz 0.46751293315534337
lop 1
mal 0.0884275559769325
mona 1
mond 0.36100834007195604
mus 0.352276709713499
nau@@ 0.6297628907351307
neg@@ 0.15217555519182605
oll@@ 0.16672483278539427
ond 0.14713197444275727
opus 0.5019653973092442
orr@@ 0.3374674270001535
oud@@ 0.9989691664661604
ovir@@ 1
pandemia 1
phus 0.5972761739123458
phy@@ 0.2904625187364343
pist@@ 0.3544376852857634
priv@@ 0.18816890998196564
put 0.07867196201584446
red@@ 0.16711546634445537
roy 0.4977583981365104
rung 1
ström 0.8744716012548414
tili@@ 0.7907655829292778
tos@@ 0.5701163547792822
tre@@ 0.0892096886128908
tsunami 1
uck@@ 0.6974253145847286
vic@@ 0.1800735338152081
wig@@ 1
yir@@ 1
yk@@ 1
zig@@ 1
Île 0.4602382644825959
ū 0.3530400802034643
ֶ@@ 1
0.8 1
1. 0.04495686813996514
1516 1
1535 1
1598 1
197@@ 1
234 1
261 1
273 1
284 1
364 1
433 1
463 1
467 1
47,@@ 1
482 1
506 1
518 1
519 1
532 1
546 1
551 1
553 1
599 1
681 1
70,@@ 1
77@@ 0.8696416938612732
786 1
806 1
978 1
990 1
Adriano 1
Alc@@ 0.6516818577734793
Alessandro 0.9377448031337858
Almeida 1
Amaz@@ 0.7584700613582093
Amin@@ 1
Apostol@@ 0.5508255923814361
App@@ 0.3178376170494828
Bang 0.618893887385802
Board 0.09664140404305854
Books 0.3281435608230204
Box 0.3589453791899659
Brad 0.7078706910573159
Cartagena 1
Cec@@ 1
Chase 0.5376296477517704
Clarke 0.4267893125353992
Coun@@ 0.3762707130865113
Córdoba 0.3682400481490247
Dei 1
Dus@@ 0.5796447767624751
Ec@@ 0.31595659191275427
Esta 0.11983312769536768
Euse@@ 1
Fe 0.38148910231832794
Food 0.38239318871086847
Gertrude 1
Gru@@ 0.25904087908770207
Hit@@ 0.35308728528753797
Hubble 1
IB 1
Indianapolis 0.5099858730889678
Initiative 0.39174983298548166
Iso@@ 1
Jack@@ 0.5625299925311742
Jalisco 1
Jas@@ 0.5820511050848536
Jungle 1
Kent@@ 1
Kiss@@ 1
Kyoto 0.9369234741142701
Latina 0.8857229579723574
Lauren 1
Lena 1
Loyola 1
MI 0.5708575933693172
MR 0.7816020332996132
McG@@ 1
Mess@@ 0.22868926914962157
Miles 0.4953613682386136
Mona 1
Monroe 0.5815120386671621
München 0.13905089709078244
Nadia 1
Nokia 1
Northwest 0.543824890538893
Né@@ 0.5507520677418979
Oak 0.5603146630554756
Ole 1
Orth@@ 0.927833850638331
Other 0.06666391218245242
Penguin 1
Pirates 0.7570188435121905
Production 0.17998155436373645
Railways 0.536501159775622
Review 0.26733191351833213
Rib@@ 0.4487514361971444
Rosem@@ 1
Row@@ 0.3147754908291622
Scar@@ 0.2977857732833006
Sebastian 0.37772729567535845
September 0.015477761482583749
Serena 1
Shaw 0.442834318734792
Sinclair 0.8709266331912254
Somali 1
Sophie 0.39820410214140806
Squad 1
Strep@@ 1
Sung 1
Symphony 0.38919486243980816
Tech 0.3554599150382825
Teen 1
Tenerife 1
Thing 1
Timothy 0.7701394538175774
Training 0.2665547500024974
U.@@ 0.3811266519294899
Val 0.3056127052654365
Vogue 1
Von 0.042580147626484356
Wanderers 0.8339600940294115
Warriors 0.594107578659274
Watt 1
Wes@@ 0.24824695250821346
Woods 0.5398000212409937
Worcester 0.8018027854233692
Y. 1
Zek@@ 1
Zucker@@ 1
ahr@@ 0.3158391192332237
alpa 1
anime 0.30776527434862017
aras@@ 1
aren@@ 1
asco 0.7969355978290548
atra 0.8217640178826245
bian 0.3795739359790859
bius 0.9257224338628399
dian 0.48270309913128784
dle 0.3518013609973399
down 0.034607151040124955
duda 1
ede@@ 0.6634631184738153
elles 0.05459651644465898
ety 0.36493195952391944
first 0.00525421486075656
gas@@ 0.24711065046090133
hus 1
iliano 1
irikisho 1
kisi@@ 1
koh@@ 0.8813982708206112
kola 1
lay 0.2678401255299356
nati@@ 0.3520371987777364
neb@@ 0.8631702560150805
obia 1
ongez@@ 1
ore@@ 0.6685927900303388
phone 0.19082268486978293
pir@@ 0.35044821316880953
plasma 0.7062954524373513
play 0.029701193945233066
plus 0.009873471357151537
poly@@ 0.14588688667242794
prin@@ 0.4454363741540169
program 0.05327358400553459
qui 0.006209500159098129
rae 1
song 0.02645422707099295
stead 0.6410791720089807
sui 1
thar@@ 1
tius 0.8411491958097855
tru@@ 0.3200884370077533
ufun@@ 1
vier 0.054923241510789915
yenyekevu 1
zum@@ 1
émon 1
ũ@@ 1
γ 1
ск 0.13639087062669403
ת 1
وَ@@ 1
藤 1
--- 1
1210 1
1498 1
156 0.8004251174071778
1675 1
372 1
388 1
392 1
426 1
428 1
439 1
462 1
465 1
503 1
508 1
513 1
523 1
624 1
626 1
639 1
676 1
679 1
715 1
717 1
718 1
752 1
917 1
96@@ 1
975 1
Adana 1
Anthro@@ 0.8021019054684378
Aran@@ 0.6959698488548256
Arist@@ 0.6076402769594698
Atatürk 1
BT 0.7435119596695835
Base 0.2607500895559327
Bee 1
Belle 0.523414263775185
Beverly 0.8583884620065921
Biennale 1
Bish@@ 0.5448932684782176
Brenda 1
Bros. 0.626812995601423
Brunswick 0.38519417747142004
By 0.04559710846377244
Call@@ 0.40419431252687776
Capitol 0.5652916391922065
Caribbean 0.37121781127377185
Cath@@ 0.37658944368653957
Chamberlain 1
Clair@@ 1
Comedy 0.4983924449887424
Crow@@ 0.5957255077870085
Cunningham 0.9432973946157285
Cyprus 0.6426515784116674
Daisy 1
Dangerous 1
Dark@@ 1
Dic@@ 0.36390538875974704
Environmental 0.48991017299456036
Fish@@ 0.6826436707744207
Galv@@ 1
Gaulle 0.9235369271388948
Gene 0.5307693568268482
Goa 1
HIV 0.5407398935937058
Hart 0.40411249891360856
Havana 1
Hawkins 0.9545727639035091
Head@@ 0.6379141204094086
Hell 0.5250069516681126
Helsinki 0.44003912372453363
Homer 0.6309730710158168
IMA 1
Ill@@ 1
John@@ 0.6253125371900636
Jung 0.6128093025774188
Kenn@@ 0.30998286661556246
Konrad 0.5402591058423275
Look 0.997140490880049
[...]
