. 7756106
, 7734839
là 3280710
và 2801032
&quot; 2741386
của 2651967
một 2635602
được 2354748
trong 2097967
năm 1909549
có 1781504
các 1474183
) 1435615
( 1434603
này 1228827
đã 1065442
người 1059885
họ 1039642
với 1012926
ở 1000829
loài 934119
cho 926689
đầu 884578
học 864240
vào 809905
@-@ 745506
thành 722925
tháng 705008
số 670753
từ 646669
không 633153
đến 620635
những 597290
tại 571373
khi 570579
tả 558234
tiên 544067
ngày 536033
ra 529259
khoa 528275
thể 526746
Loài 525263
đó 507575
vật 505204
: 500195
công 495477
thực 493175
về 489671
để 484104
thuộc 480258
sự 475697
như 463004
bị 458696
trên 457515
chính 450756
ông 446823
sau 415649
dân 409322
gia 398890
quân 398193
nhà 384483
động 383733
; 379591
lại 375030
cũng 373974
làm 371508
thời 367469
nước 356271
nhất 354938
hiện 352777
mô 339302
Nam 332801
sử 332207
phát 329546
hành 328800
bộ 328052
nhiều 320160
theo 309280
hoa 307532
hai 303261
khác 301598
việc 297481
quốc 287917
quan 285535
con 280992
sinh 278178
thế 277134
chỉ 275470
cùng 275104
xã 273613
nhân 273315
hình 270148
hơn 268905
dụng 267932
chiến 266076
định 265403
thứ 264737
do 262427
Quốc 258233
đồng 256960
xuất 256512
viên 253975
còn 249259
độ 246082
1 245486
miêu 244012
Trung 243893
thị 243040
cách 241071
tỉnh 240721
nó 236368
vị 236093
2 235797
tên 235641
cuộc 233667
bản 232965
Việt 228967
/ 228454
giới 224640
trở 224510
bởi 223678
hợp 223374
Các 222807
lập 221775
nhưng 221325
rằng 221254
khu 218864
phía 218531
lớn 218237
cao 216631
điểm 216613
bằng 216511
tự 216270
phần 216121
đội 215829
đại 214180
nhận 214091
kết 213579
chức 212963
trước 211554
hội 211459
trường 209309
giải 208682
hoặc 207554
Năm 207342
tiếng 207257
Anh 206723
3 206227
vùng 205856
cả 205615
Trong 204392
phải 203343
trình 203108
gồm 202867
thường 201854
Hoa 201837
tiếp 200688
điều 200497
lượng 200030
chủ 198200
qua 196500
- 195182
phân 195140
lý 194899
sản 193960
Kỳ 193698
mà 192731
thống 191830
loại 190796
sẽ 190772
tế 189983
huyện 189020
cơ 188473
trung 185086
tính 181638
diễn 181232
lên 180087
đối 179020
anh 177943
phố 177458
bao 177095
tích 175817
vụ 175782
gọi 175443
thông 174869
sống 174559
tác 172750
đi 172652
hàng 172217
bắt 172032
phim 171071
tạo 170670
vì 169587
lực 169197
4 168253
mình 167272
nhiên 167184
quyền 165702
vực 164844
hệ 163184
cánh 162888
địa 162885
Đại 162799
trị 162781
&amp; 162255
đường 161356
lần 161144
nghiệp 160663
5 160182
us 159329
giáo 159085
đánh 156946
diện 156434
chi 156383
cấp 156103
đấu 154688
chúng 153830
thủ 153407
Pháp 152824
cầu 152563
khoảng 152291
sĩ 150793
10 150619
mới 150500
Sau 150182
thức 150142
đoàn 148403
hóa 147784
trận 147657
Đức 146152
tranh 146083
cô 146080
hay 145682
6 145013
đêm 144769
pháp 143883
đề 143565
Tây 143338
T@@ 143134
% 141874
– 141777
liên 141153
tập 141053
tham 141007
nhạc 140905
tàu 140789
chuyển 140441
biển 139083
thấy 138070
bay 138004
máy 137905
bố 137182
truyền 136364
Mỹ 136105
thì 136022
năng 135451
km 135078
mặt 134539
ta 134112
toàn 134023
nên 133823
gian 133641
rất 132952
ban 131657
hiệu 131427
văn 129737
phương 129725
tới 129444
hoạt 129436
đô 128967
đây 128770
bang 128163
trí 127814
nam 127338
giữa 127188
B@@ 127094
đạo 127045
triển 127037
đặc 126776
12 126728
7 126256
H@@ 126149
tổ 126064
nhau 125716
âm 125523
bướm 125448
Bắc 125376
nghĩa 125327
đá 124739
8 124495
danh 124471
cứng 123829
ba 123694
Một 123473
Ông 122780
biệt 121140
tử 119828
bóng 119593
thiết 119370
chế 119299
đất 119121
đang 119118
S@@ 119030
nằm 118930
kinh 118668
bình 118452
đổi 118245
thuật 117925
ảnh 117696
kỳ 117483
tâm 117366
9 117233
nơi 116982
dài 116951
đơn 116433
dưới 116091
chất 115959
Nó 114721
cuối 114249
phủ 114045
Công 113791
ch@@ 113537
bọ 113094
kế 112145
Liên 111990
dịch 111975
Đông 111905
ý 111817
L@@ 111592
Lan 111201
M@@ 111184
nữ 110676
&apos; 110505
D@@ 110455
nhiệm 110396
tiểu 109871
điện 109676
sách 109610
Nhật 109455
nói 109213
Vào 109048
biết 108769
r@@ 108715
phẩm 108684
sáng 108448
thay 108387
tăng 108056
châu 107676
bảo 107650
biến 107485
trưởng 106355
nguyên 106294
an 106200
11 106104
Thái 106084
báo 105810
đều 105734
b@@ 105694
tin 105572
l@@ 105468
mục 105397
ăn 105397
vẫn 105355
cứu 104702
ia 104676
thi 104646
gần 104312
trọng 104232
đảo 104116
C@@ 103856
tình 103381
chơi 101901
thu 101689
tiến 101513
amp 101173
cá 101139
giá 100980
bài 100924
Bộ 100841
đặt 100813
tiêu 100727
thân 100677
tương 100469
nay 100409
tư 100334
án 100240
nhóm 99658
Ngày 99453
dự 99450
nhỏ 99298
tìm 98982
tổng 98891
phòng 98848
c@@ 98696
dùng 98198
m@@ 97914
n@@ 97409
bắc 97308
N@@ 97272
ngoài 97005
lịch 96746
đông 96741
s@@ 96206
hòa 95839
bà 95804
bên 95754
tài 95657
hậu 95655
nổi 95255
i 94790
màu 94744
ca 94334
dẫn 94274
h@@ 94255
quả 93618
phong 93560
ứng 93347
tuổi 93129
tinh 92918
Dân 92734
phục 92496
kỷ 92440
biểu 92032
đưa 91937
ata 91809
sát 91758
đời 91632
Tuy 91403
đình 91336
viết 91323
th@@ 91303
um 91202
G@@ 90851
t@@ 90267
tục 90033
Thành 89995
giao 89995
&#93; 89430
Hà 89119
Ch@@ 88879
miền 88800
mang 88668
v@@ 88544
Bản 88505
m 88285
quận 88059
yếu 87847
mùa 87841
hát 87709
giữ 87565
Hoàng 87557
rộng 87505
tướng 87426
trang 87382
vô 87097
in 86960
thương 86832
liệu 86649
sông 85968
&#91; 85596
² 85583
bán 85577
nhập 85486
quyết 85172
từng 85082
dựng 84473
V@@ 84289
bất 84189
idae 84141
đóng 84123
tấn 84033
sở 83783
bỏ 83774
Th@@ 83761
thần 83567
Dương 83557
quá 83519
phụ 83352
Xã 83167
chiếc 82821
g@@ 82808
chương 82527
viện 82390
di 81951
dù 81669
is 81661
Đ@@ 81641
ph@@ 81536
thắng 81459
câu 81387
nghệ 81387
vận 81353
Hải 81327
Văn 81280
hoàn 81237
nhiệt 81020
Cộng 81002
2010 80879
Theo 80786
Độ 80756
vai 80667
y 80643
binh 80442
lạc 80313
xây 80313
khí 80255
ensis 80057
cung 79751
cử 79483
cổ 79326
vệ 78920
nào 78831
Ấn 78566
giống 78453
hạng 78180
xác 78173
d@@ 78049
tra 77988
Tổng 77861
tiền 77652
Nguyễn 77281
K@@ 77240
hoàng 76868
trò 76867
vua 76765
aceae 76584
đ@@ 76414
x@@ 76167
Bình 76072
P@@ 75895
mở 75709
Minh 75111
Những 75110
y@@ 75015
tây 74939
sân 74856
ngữ 74793
chống 74789
hướng 74719
chung 74568
cái 74558
trợ 74378
làng 73939
chiếm 73894
chưa 73583
R@@ 73433
Từ 73433
hộ 73262
ghi 73050
tượng 72827
on 72765
Ban 72707
cộng 72447
giả 72285
minh 72181
de 72006
đạt 71739
ty 71690
mất 71525
triệu 71356
dạng 71080
kiến 70419
phản 70303
quản 70294
nh@@ 70170
bệnh 70153
mạnh 70096
sang 70061
chết 70022
hạn 69743
A@@ 69702
lúc 69617
Quân 69492
giờ 69304
tộc 69269
cảnh 69260
lãnh 69248
gây 69101
xe 69007
nguồn 68903
chứng 68813
kể 68618
kích 68594
nghiên 68317
chia 68191
trấn 68084
kiện 67928
ký 67914
20 67886
lệ 67647
tất 67619
Chúng 67536
đoạn 67384
ngôi 67229
hữu 67014
thư 66989
lưu 66984
yêu 66961
Khi 66726
a 66721
vương 66721
Tr@@ 66715
tay 66484
cây 66385
chân 66166
Vương 66046
vòng 65297
thuyết 65065
ít 65033
giúp 65012
phép 65010
thêm 64996
Nga 64982
Chính 64952
Ba 64406
Châu 64137
độc 64020
thích 64004
phá 63988
trực 63875
mỗi 63792
Sơn 63609
Âu 63536
hưởng 63293
vậy 63138
chọn 63109
The 62779
O@@ 62747
khỏi 62696
Sự 62656
sắc 62652
sư 62630
Hội 62588
cảm 62496
vấn 62108
Chiến 61548
vi 61264
cần 61238
hết 61119
Giải 61088
ng@@ 61064
Nhà 60956
em 60869
tốt 60840
địch 60642
luật 60575
cư 60250
La 60095
so 59991
xem 59991
nội 59730
xếp 59581
tỷ 59340
sao 59298
tr@@ 59240
lấy 59108
An 58953
gốc 58908
khả 58422
quy 58414
2011 58366
dương 58214
chí 58198
mạng 58196
giành 57854
áp 57827
Thanh 57781
ước 57558
núi 57512
trai 57446
mật 57280
Người 57039
mắt 56849
15 56639
on@@ 56626
ai 56542
bàn 56541
triều 56528
Đây 56333
cố 55869
niên 55804
giảm 55659
ấy 55648
huy 55630
khai 55544
Nhĩ 55543
Quận 55471
ana 55437
lời 55331
tuyến 55267
lệnh 55016
Ph@@ 54532
Đảng 54402
khiến 54218
khách 54143
Nha 54108
cáo 53938
Thổ 53936
trẻ 53908
bầu 53870
duy 53685
Mã 53673
thảo 53157
vũ 53083
sức 53044
Thế 52984
Tân 52972
bại 52871
an@@ 52824
tuần 52666
chuyên 52636
ngoại 52576
k@@ 52543
đa 52541
Tháng 52505
... 52361
u 52013
đồ 51626
dục 51586
môi 51586
album 51473
Nhân 51429
ea 51376
Nội 51362
Lý 51225
quay 51186
riêng 51185
chuẩn 51053
phổ 50969
Tại 50882
thiên 50876
đới 50828
thúc 50743
gặp 50665
đế 50654
hầu 50345
Xô 50324
nghiệm 50299
Do 50271
lớp 50212
nghị 50165
thanh 50140
lợi 50133
hạt 50051
Long 50004
kh@@ 49786
Phi 49767
o@@ 49716
ma 49695
chữ 49676
e@@ 49662
o 49650
30 49572
of 49524
doanh 49431
al@@ 49382
lễ 49344
nền 49310
xuống 49236
chạy 49142
18 48933
phiên 48900
la 48653
Danh 48508
biên 48392
19 48302
X@@ 48302
thái 48235
Lịch 48033
E@@ 48006
s 47990
gái 47913
bổ 47748
kiểm 47634
vây 47546
ic@@ 47343
Hòa 47280
da 47071
dòng 47053
the 46984
tồn 46934
luận 46898
Hán 46891
tưởng 46816
Hồ 46804
rồi 46797
muốn 46726
16 46719
i@@ 46679
tuyên 46638
thấp 46565
vàng 46477
Đế 46462
ol@@ 46271
in@@ 46246
New 46072
tiết 46017
mọi 45956
or@@ 45947
khẩu 45877
cha 45876
cực 45831
Á 45770
Giáo 45650
tức 45619
đứng 45538
ae 45411
gi@@ 45390
cửa 45299
tịch 45298
du 45295
nhanh 45228
2007 45164
14 45130
giám 45042
Ngoài 45030
Trường 44991
mức 44910
mẹ 44725
thờ 44704
ina 44647
coi 44536
trúc 44327
Trần 44319
thất 44299
ốc 44297
đáng 44227
dụ 44134
Có 44092
nữa 44092
kỹ 44019
dựa 43973
cận 43968
oc@@ 43878
phi 43841
os@@ 43827
giáp 43802
giai 43783
I@@ 43762
ngay 43756
Hồng 43691
mặc 43582
hạ 43494
đôi 43457
Nguyên 43379
bảng 43373
13 43324
tối 43318
quần 43269
quanh 43082
phái 43023
lâu 42942
thủy 42938
dung 42928
tuyển 42899
nhện 42802
phóng 42711
Thiên 42623
Hàn 42553
lục 42468
17 42412
đốc 42383
ar@@ 42382
vài 42373
nhằm 42334
nếu 42291
pháo 42251
el@@ 42230
ngôn 42112
I 42066
Đô 42014
Tư 41995
2006 41993
tố 41963
cải 41954
2008 41885
thập 41823
Đồng 41776
đủ 41725
Không 41680
en@@ 41633
thưởng 41569
atus 41449
Kinh 41403
ac@@ 41397
Lê 41240
Ý 41221
bạn 41199
cấu 41114
A 40938
Chủ 40936
mẫu 40867
giết 40652
Vũ 40593
mét 40592
hỗ 40509
chiều 40426
II 40268
luyện 40250
Ở 40117
Kh@@ 39977
xa 39869
25 39788
lá 39692
Tông 39609
Cô 39589
ô 39582
bắn 39555
phạm 39518
kéo 39474
a@@ 39387
kim 39374
hoạch 39180
ella 39156
di@@ 39107
chấp 39094
om@@ 39053
Ng@@ 39004
bốn 38889
rừng 38885
2016 38775
đài 38701
Geometridae 38675
F@@ 38653
er@@ 38579
Họ 38541
Tiên 38518
lộ 38515
Kim 38478
môn 38471
chứa 38263
rõ 38258
J@@ 38252
trùng 38219
tỏ 38196
sóng 38156
buộc 38018
Ủy 37979
cứ 37960
chịu 37929
at@@ 37764
Cao 37736
phận 37662
dành 37629
cạnh 37608
ủng 37562
lửa 37522
ngành 37517
2009 37455
ti@@ 37371
tôi 37349
tôn 37307
p@@ 37306
toán 37305
đổ 37267
mềm 37185
đàn 37178
cụ 37136
ot@@ 37136
trao 37049
tốc 36962
2004 36866
hải 36841
khởi 36754
am@@ 36686
đĩa 36668
Điều 36654
2015 36627
Z@@ 36551
Đài 36472
bờ 36431
nông 36395
alis 36336
khúc 36260
z@@ 36213
hồ 36187
nặng 36160
trắng 36157
Quảng 36153
thổ 36044
Địa 35965
Bảo 35937
ánh 35851
2000 35747
ngắn 35735
21 35728
al 35717
op@@ 35691
lĩnh 35640
2014 35631
nối 35619
Bà 35582
2005 35452
hại 35418
ương 35361
Lưu 35333
Đến 35243
ruồi 35221
hôn 35177
Nh@@ 35151
Tiểu 35136
2012 35132
hồi 35102
t 35086
khảo 35014
chú 34921
chuyện 34897
Giang 34877
sâu 34864
xảy 34695
tòa 34678
trạng 34619
to 34570
ủy 34487
2017 34474
trả 34441
Ar@@ 34371
2013 34332
24 34282
gì 34180
trụ 34142
1999 34089
thiếu 34087
ur@@ 34002
Thượng 33848
2018 33825
Noctuidae 33825
đen 33816
niệm 33740
thuốc 33725
nhìn 33684
100 33676
loạt 33625
An@@ 33550
khó 33541
chiếu 33519
Gia 33489
mối 33412
li@@ 33220
Đường 33203
rút 33189
as@@ 33173
xử 33116
d 33090
2019 33061
n 33050
nuôi 33026
chim 33018
tái 32937
bức 32926
vượt 32823
Y@@ 32797
Thị 32760
cũ 32731
thuận 32682
Di@@ 32667
xung 32395
Triều 32263
tước 32221
is@@ 32177
mua 32116
U@@ 32101
u@@ 32080
vốn 31894
id@@ 31829
đầy 31771
sai 31678
thơ 31666
mại 31665
gt 31662
tội 31493
to@@ 31431
Hiệp 31398
Cerambycidae 31359
băng 31356
ap@@ 31303
trục 31264
ang 31262
23 31259
22 31030
mm 30957
phối 30954
en 30894
súng 30889
lt 30866
tạp 30862
Phó 30861
_ 30768
Mặc 30667
áo 30616
suất 30613
h 30534
ống 30527
Ninh 30494
soát 30474
song 30385
p 30375
đai 30363
Cổ 30356
Cúc 30343
linh 30330
sa 30287
chủng 30264
buổi 30254
kịch 30182
xét 30142
tia 30092
trái 30058
thử 30024
W@@ 30023
et 29976
càng 29925
ica 29905
k 29890
osa 29831
Gi@@ 29768
Al@@ 29758
góp 29657
rời 29623
and 29612
truyện 29550
đỏ 29543
dễ 29469
Trước 29447
ong 29431
31 29376
kiếm 29372
sứ 29346
e 29325
ngựa 29296
tầng 29292
2001 29285
đảm 29246
tải 29225
Chi 29186
trách 29185
luôn 29159
chuyến 29124
trì 29064
ag@@ 29042
cập 29003
dấu 28997
phí 28988
đích 28949
aria 28906
Thủ 28894
am 28831
ấn 28812
Mặt 28811
ul@@ 28772
suốt 28741
50 28735
Tập 28714
suy 28662
bào 28568
Hai 28563
Hy 28539
l 28516
Thánh 28492
at 28472
đăng 28448
kiểu 28433
xỉ 28383
Khu 28356
Yên 28292
xanh 28230
Cơ 28225
2020 28191
đào 28100
khá 27913
lược 27891
khối 27879
Tổ 27823
căn 27814
Với 27810
vợ 27798
qu@@ 27793
dần 27774
lòng 27770
đảng 27756
tín 27716
hãng 27696
Việc 27682
j@@ 27675
hàm 27632
trưng 27566
ung 27511
xứ 27493
es 27438
Úc 27406
cuốn 27351
ro@@ 27318
28 27278
kê 27272
Viện 27259
Lạp 27118
Giám 27106
bụng 27088
Phương 27061
đương 27009
mực 27000
lượt 26941
nghi 26860
et@@ 26832
xuyên 26752
Quang 26746
= 26731
đột 26701
il@@ 26700
27 26670
it@@ 26662
ar 26642
26 26622
ê 26611
thịt 26610
họa 26595
Phần 26575
phê 26574
Cuộc 26546
ya 26540
2002 26465
dữ 26459
mã 26447
C 26378
hủy 26358
mạch 26323
bi@@ 26301
kính 26216
Đào 26189
thừa 26154
0 26134
Đậu 26126
Sân 26085
tuy 26072
đạn 26061
Thời 26036
Par@@ 26029
kẻ 26025
ho@@ 26018
Chu 26004
nạn 25992
huấn 25952
thoại 25887
hỏi 25880
ig@@ 25880
x 25870
era 25865
vừa 25859
Lâm 25837
khóa 25833
hiệp 25830
trời 25811
Thụy 25777
Phong 25729
Phú 25702
2003 25695
Con 25625
as 25607
lo@@ 25567
League 25542
Vì 25453
chúa 25427
Định 25421
ví 25324
Xuân 25263
B 25253
Mar@@ 25230
ngăn 25217
os 25140
ab@@ 25134
đẩy 25132
Sh@@ 25127
giác 25096
ẩm 25076
no@@ 25074
trừ 25030
el 25011
loạn 24955
nổ 24883
er 24791
ad@@ 24782
TCN 24602
thật 24564
trải 24507
San 24452
chóng 24399
lao 24322
lính 24320
Chí 24278
im@@ 24188
sơ 24175
na 24092
mộ 24091
Erebidae 24086
Phật 24052
1990 24032
hạm 23960
vọng 23949
diệt 23946
es@@ 23916
điển 23877
ích 23868
ir@@ 23863
29 23804
Số 23765
ưu 23764
thiện 23759
40 23684
cm 23676
c 23669
em@@ 23525
ly 23514
.@@ 23476
thao 23421
Tham 23406
sửa 23392
Đội 23386
bước 23305
Trương 23225
nhờ 23198
xin 23152
lai 23149
thú 23125
khắp 23121
Sư 23090
thí 23090
ò 23067
phù 23053
phút 23050
đem 23043
tách 23005
trào 22964
ái 22951
ni@@ 22950
ec@@ 22908
Tòa 22869
thụ 22859
ru@@ 22835
ẩn 22828
ach@@ 22772
cắt 22763
! 22738
ri@@ 22724
chẳng 22719
Nhưng 22709
nhiễm 22692
Trái 22684
hương 22683
man 22631
nguy 22629
bày 22627
quý 22558
đỉnh 22512
tu 22511
gửi 22501
lông 22476
Q@@ 22474
Đất 22462
chỗ 22444
&#124; 22414
nghe 22382
kháng 22357
John 22348
xâm 22260
anus 22252
hiểu 22243
g 22232
cai 22220
Huyện 22190
oides 22175
cầm 22163
le@@ 22135
ens 22123
sắt 22098
ha 22094
hiểm 22080
à 22014
ngầm 21998
ao 21995
tiện 21993
tàng 21968
Tên 21962
đẹp 21951
Thông 21932
vành 21916
nâng 21911
khắc 21910
liền 21889
hơi 21882
tầm 21874
Nhiều 21867
liệt 21806
sớm 21804
chỉnh 21792
Ngô 21770
thăm 21732
êm 21715
kênh 21636
ura 21634
cường 21605
ác 21588
thăng 21520
chảy 21500
po@@ 21498
tuyệt 21490
Hưng 21474
tù 21459
1998 21457
ắc 21414
Tỉnh 21413
ex 21409
xúc 21408
U 21366
or 21362
sáu 21361
T 21359
us@@ 21346
Đạo 21340
ôn 21335
bão 21299
nửa 21286
dọc 21246
? 21196
1945 21192
it 21149
màn 21148
tò 21137
co@@ 21118
đọc 21098
thôn 21051
ob@@ 21044
formula 21031
máu 21014
Về 21012
mưu 21006
Để 21000
quảng 20997
quán 20974
Hiện 20940
giản 20911
tán 20887
át 20881
Nếu 20875
rêu 20826
ơ 20784
ôi 20780
vò 20726
tan 20646
Vĩnh 20631
un 20625
á 20625
ệt 20611
Bar@@ 20570
Hồi 20542
per@@ 20527
og@@ 20500
chồng 20441
đe 20383
Cách 20310
ạn 20309
thẳng 20304
Ai 20302
ồn 20294
Ngọc 20243
ang@@ 20224
1997 20217
dầu 20217
Ichneumonidae 20214
Đặc 20210
Ne@@ 20192
ngược 20171
phó 20154
dạy 20118
Phúc 20108
ed@@ 20085
săn 20084
ết 20027
Lương 19964
bí 19958
truy 19954
one 19940
ổn 19917
ả 19907
Cục 19843
Hạ 19838
2021 19827
dọa 19825
oph@@ 19823
+ 19753
ak@@ 19752
atum 19727
Canada 19716
York 19713
Phân 19705
b 19700
Tam 19677
bậc 19656
Áo 19646
ấm 19541
Thủy 19527
thoát 19517
video 19504
Quan 19484
1980 19474
Car@@ 19412
thiệu 19384
w@@ 19384
tặng 19381
Karnataka 19374
1991 19363
tháp 19347
cậu 19346
bò 19331
chi@@ 19309
Lai 19293
Paris 19253
thước 19226
° 19219
Thống 19196
Phạm 19181
eri 19176
ga 19172
Hành 19151
đúng 19114
lan 19106
bom 19096
gắn 19075
xạ 19050
Mùa 19038
phiếu 18999
Chỉ 18987
onia 18961
och@@ 18947
Hymenoptera 18924
od@@ 18900
​ 18871
Loan 18847
Y 18840
st@@ 18816
Cor@@ 18789
nghiêm 18788
khoản 18750
trích 18749
Hậu 18740
Ho@@ 18732
ur 18714
eg@@ 18703
Cá 18685
sẵn 18685
Le@@ 18677
Qu@@ 18657
chó 18655
tehsil 18627
Per@@ 18614
hút 18606
bãi 18598
un@@ 18594
tá 18586
sung 18539
lo 18521
1996 18508
Rêu 18506
av@@ 18496
lẫn 18496
trại 18447
ka 18392
chặn 18359
D 18336
rơi 18318
F 18308
Tử 18281
yl@@ 18243
ạ 18241
Tự 18235
thù 18207
siêu 18194
đoán 18188
ám 18172
cờ 18151
Saint 18138
si@@ 18116
gắng 18108
Cập 18098
cựu 18095
2@@ 18056
As@@ 18056
tắc 18053
tránh 18024
lâm 18006
dây 17975
Nghệ 17966
khiển 17964
lương 17950
1995 17940
bác 17937
cỏ 17925
nắm 17924
60 17921
pha 17909
ine 17896
Cal@@ 17886
thác 17880
Mông 17873
1975 17867
thượng 17861
Khánh 17848
r 17828
hấp 17804
ưa 17777
Hệ 17772
ense 17756
St@@ 17749
Bài 17734
ồng 17731
Bồ 17711
lưng 17699
World 17670
1992 17668
é 17664
ảo 17661
Chương 17648
phán 17616
hè 17615
Cuối 17608
ối 17601
nhớ 17586
thánh 17537
Sch@@ 17531
tắt 17496
họp 17433
Phổ 17430
1.@@ 17429
Tống 17427
quang 17391
USD 17383
ki 17353
nghỉ 17338
vĩ 17310
đáp 17310
thua 17307
Tôn 17286
In@@ 17280
ci@@ 17255
đo 17228
Nghị 17215
f@@ 17212
trồng 17212
nhánh 17209
Đình 17202
C.@@ 17196
X 17196
Trịnh 17194
ành 17171
tai 17169
v 17168
lẽ 17138
ne@@ 17134
sắp 17116
ràng 17108
Am@@ 17104
Linh 17095
ục 17092
Đầu 17070
quê 17064
món 17055
1993 17038
Phòng 17038
bánh 17030
oma 17005
par@@ 17004
nhật 16995
tống 16987
đuổi 16943
khăn 16938
Khoa 16934
tạm 16908
ov 16904
Trận 16882
nhẹ 16875
đuôi 16871
ei 16864
khô 16860
cấm 16852
Trên 16846
vuông 16829
Đối 16827
z 16813
Br@@ 16807
ita 16802
V 16801
bật 16791
ula 16785
so@@ 16778
xương 16766
lựa 16737
ngờ 16735
III 16728
ii 16715
Học 16688
phạt 16672
hài 16669
1994 16664
quỹ 16657
nghề 16642
Sinh 16636
ên 16621
ida 16591
trữ 16580
opsis 16550
côn 16535
nỗ 16519
sh@@ 16493
Mal@@ 16472
bề 16469
dậy 16457
Hóa 16446
Tính 16409
thuyền 16407
ep@@ 16404
Bí 16397
ngân 16390
phức 16358
Phát 16357
cặp 16334
Thể 16308
1970 16286
Chúa 16281
Tiến 16273
ẻ 16269
chữa 16265
car@@ 16256
Brasil 16252
dưỡng 16251
sợ 16245
mời 16242
hi@@ 16235
àn 16213
chối 16192
ala 16174
thậm 16167
chùa 16155
giấy 16155
ào 16140
ng 16115
hôm 16114
Hợp 16069
Bo@@ 16056
đền 16035
cảng 16034
thi@@ 16034
Cup 16030
Câu 16028
ân 16008
Nữ 16004
đỡ 15979
ạc 15961
O 15956
khủng 15956
M 15895
trú 15864
br@@ 15826
hoá 15820
che 15814
re@@ 15810
ut@@ 15806
Ả 15795
El@@ 15776
hu@@ 15770
Triệu 15769
tàn 15757
no 15715
àng 15702
Na 15678
ngang 15664
Chrysomelidae 15663
nghĩ 15659
vong 15651
bạc 15646
1960 15643
mưa 15624
su@@ 15624
rắn 15601
khỏe 15596
ấu 15586
Cảnh 15577
Cùng 15568
Lực 15546
bé 15543
âu 15542
Điện 15542
C. 15541
A.@@ 15539
Điển 15536
tỉ 15505
ona 15502
son 15491
hoang 15475
ing 15473
ồi 15456
Su@@ 15451
gỗ 15435
1989 15432
game 15413
hùng 15410
thiệt 15407
A. 15406
ides 15396
vườn 15359
mười 15356
mo@@ 15349
Vân 15334
ạt 15330
le 15326
eo 15325
ost@@ 15325
ov@@ 15325
lui 15320
phường 15314
des 15289
ena 15267
tờ 15267
sub@@ 15261
ani 15253
tis 15241
ara 15232
Vua 15220
Sở 15219
odes 15215
đẳng 15179
ys@@ 15176
Thần 15169
gió 15162
Lễ 15148
uống 15144
giảng 15143
ys 15127
ak 15120
folia 15116
“ 15106
gà 15103
dia 15089
miễn 15071
tus 15069
Kiến 15068
khán 15062
Thân 15052
đua 15039
200 15019
ing@@ 14996
California 14992
ã 14986
rãi 14982
trứng 14962
đau 14953
Di 14923
Cũng 14922
Thuận 14922
Hy@@ 14914
Chi@@ 14909
êu 14901
icus 14890
ì 14887
Thạch 14882
” 14871
Thiếu 14867
dãy 14865
Hiến 14856
hiến 14852
ay 14836
Lục 14830
10@@ 14805
Sĩ 14804
trăm 14804
mi@@ 14798
Kết 14797
mẽ 14772
cân 14767
sáp 14761
thẩm 14760
bá 14757
Tấn 14750
ốt 14736
um@@ 14731
ổ 14729
nóng 14722
chấm 14693
yr@@ 14690
kì 14682
Rập 14671
ột 14650
2.@@ 14646
Mon@@ 14641
ber@@ 14630
se@@ 14628
mũi 14619
dị 14604
va 14596
80 14589
ki@@ 14562
Con@@ 14551
trốn 14549
ăng 14535
tận 14531
tùy 14518
cơn 14509
1988 14488
Nghĩa 14485
đực 14452
and@@ 14436
Or@@ 14435
Cầu 14425
Arctiinae 14403
tròn 14387
xu 14374
hồng 14371
chép 14346
L 14320
ép 14312
võ 14286
chị 14275
Đoàn 14261
Thiến 14259
bo@@ 14250
Ví 14235
vi@@ 14212
ton 14209
J.@@ 14162
hỏa 14161
Đan 14133
Se@@ 14131
góc 14105
Thiết 14081
.. 14064
ora 14062
Col@@ 14046
chinh 14004
quyển 14004
tri@@ 13998
ừng 13989
Co@@ 13951
rượu 13943
Tất 13917
eb@@ 13903
Philippines 13902
70 13899
ley 13880
ate 13817
Như 13811
nâu 13800
Tương 13790
Được 13789
S 13787
lối 13778
soạn 13765
vỏ 13747
ngũ 13741
chắc 13740
ans 13739
oth@@ 13732
ah 13731
lan@@ 13719
í 13714
90 13704
ell@@ 13691
ạo 13690
Là 13680
can 13675
Thường 13662
H 13659
dày 13649
ti 13649
kia 13643
Tiếng 13641
dặm 13641
Er@@ 13625
ức 13619
Cy@@ 13590
lưới 13590
ter@@ 13586
thỏa 13586
bảy 13585
ải 13585
3@@ 13580
En@@ 13576
kém 13572
hổ 13555
tho@@ 13544
Hầu 13527
ium 13487
vịnh 13475
K 13462
tường 13460
ati@@ 13448
mar@@ 13405
1986 13399
au 13392
lu@@ 13388
Tần 13383
cal@@ 13362
dium 13353
Mor@@ 13352
Mi@@ 13348
ngọt 13335
hô 13329
man@@ 13326
ch 13309
mệnh 13299
vỡ 13276
de@@ 13270
tụ 13263
bạo 13259
lỗi 13259
ad 13245
Pr@@ 13244
nhu 13244
web 13244
R 13213
te@@ 13211
Trang 13207
4@@ 13198
tảng 13197
Sông 13177
san 13176
úy 13170
Li@@ 13148
Sao 13135
tấm 13094
hiếm 13091
Tuyên 13074
ném 13074
cục 13065
Tiền 13055
chuồn 13054
đức 13049
Hữu 13043
Kông 13025
Tri@@ 13007
Lào 13005
P 12997
inus 12984
trống 12984
Sài 12979
biện 12976
1950 12945
ất 12939
Cả 12933
đám 12915
tu@@ 12903
N 12900
1987 12893
đồn 12893
vẽ 12887
ấp 12872
phe 12855
thuế 12852
Luật 12847
To@@ 12829
hư 12814
Phim 12811
Huy 12808
1985 12796
đoạt 12768
1942 12760
phỏng 12755
Đà 12752
United 12723
giọng 12715
Toàn 12683
Hoàn 12680
Hungary 12648
mon@@ 12642
cháu 12640
kg 12636
đốt 12630
mong 12626
lạnh 12623
az@@ 12601
ne 12600
hòn 12583
ari@@ 12580
nguyện 12580
gai 12575
Man@@ 12574
ola 12574
rối 12572
sch@@ 12567
đợt 12557
xưa 12555
đứa 12535
vẻ 12529
Vòng 12512
ema 12505
Lộc 12502
45 12481
Phan 12475
ếm 12465
Ngụy 12462
Elateridae 12461
mỏ 12446
sóc 12446
35 12445
ath@@ 12443
Cung 12439
Viên 12436
sót 12432
1981 12416
Môi 12380
tọa 12380
au@@ 12378
Nhóm 12371
eus 12363
0,@@ 12358
óc 12351
Tác 12341
Sử 12333
Lo@@ 12310
mạc 12306
1944 12300
giàu 12298
Tào 12296
1979 12283
điệu 12280
Sa 12267
mái 12245
1940 12241
1984 12225
Ngoại 12225
Bạch 12216
cừu 12192
ngừng 12183
ik@@ 12182
ino 12182
tám 12181
Giao 12163
nhảy 12163
mắc 12162
vợt 12162
kho@@ 12159
chu 12129
cháy 12127
H.@@ 12121
vú 12105
hà 12089
Lạc 12088
Quý 12087
nhắc 12085
đòi 12079
ận 12068
khổ 12054
Gòn 12052
khơi 12046
Har@@ 12027
Cát 12018
cự 12001
áng 11977
Indonesia 11963
khám 11960
dàng 11958
1982 11956
Mas@@ 11954
Grand 11949
George 11948
chuỗi 11948
dõi 11940
Séc 11919
L.@@ 11912
ant@@ 11909
khái 11905
khấu 11903
ờ 11901
la@@ 11887
chạm 11886
Mỗi 11880
’ 11877
pi@@ 11868
ay@@ 11866
-@@ 11853
Lúc 11837
chặt 11835
Bá 11834
ie 11824
Dự 11820
vinh 11803
buôn 11787
1941 11762
tổn 11754
S.@@ 11747
ô@@ 11741
ano 11716
thiểu 11715
lỵ 11714
1983 11689
chăm 11688
Thu 11672
ỗ 11670
aur@@ 11668
olo@@ 11668
Album 11662
cãi 11655
voi 11637
bar@@ 11627
bu@@ 11625
ama 11623
bèn 11615
Bi@@ 11614
Mac@@ 11612
ol 11605
Và 11601
Uy 11595
1972 11593
1943 11588
do@@ 11583
ada 11560
anum 11555
500 11554
ou@@ 11553
ich@@ 11529
Tôi 11525
Hương 11503
thai 11500
pl@@ 11497
ù 11478
thạch 11453
ệ 11453
ỉ 11436
su 11435
ặc 11428
tim 11419
ser@@ 11416
yn@@ 11414
Thương 11410
William 11405
1978 11399
Israel 11395
lôi 11392
co 11391
con@@ 11385
thảm 11377
von 11377
James 11376
Cho 11374
tựa 11365
Kar@@ 11364
Ngay 11362
Mel@@ 11351
cất 11350
ua 11340
Me@@ 11332
ninh 11331
ếp 11329
cột 11320
1930 11316
G 11314
hứng 11308
1976 11302
ev@@ 11293
Truyền 11288
Cẩm 11286
3.@@ 11283
Ber@@ 11273
— 11268
bia 11262
viễn 11251
cướp 11250
tệ 11239
ầm 11227
eta 11221
dứt 11220
Bên 11191
xưng 11189
bối 11177
L. 11174
ima 11171
cốt 11169
anthus 11157
chắn 11148
giam 11145
inh 11140
Mer@@ 11134
FC 11132
Thư 11131
Cúp 11124
đón 11124
ah@@ 11115
chậm 11113
Phiên 11111
E 11108
Võ 11097
R.@@ 11096
300 11095
Crambidae 11095
tri 11070
sàng 11050
Mô 11046
ài 11046
nghèo 11045
ắt 11015
Du 10976
Biển 10971
è 10961
ăm 10961
gen 10960
Bor@@ 10944
dừng 10932
mồi 10929
ota 10924
ist@@ 10910
Syria 10904
sẻ 10897
mu@@ 10880
pes 10880
ngồi 10825
Gr@@ 10822
ền 10817
Bọ 10810
ặt 10803
kiêm 10795
Poly@@ 10790
Pter@@ 10779
1968 10773
ba@@ 10768
ộc 10766
Ag@@ 10763
thả 10758
li 10748
trúng 10746
dàn 10739
kèm 10730
lia 10719
Re@@ 10718
Biên 10716
Hàng 10702
kêu 10690
non 10685
khẳng 10684
1946 10680
Dưới 10674
ō 10669
chở 10650
hung 10644
lái 10641
Trị 10637
răng 10636
Nhạc 10635
Âm 10633
Vùng 10630
Xuyên 10625
5@@ 10608
Mu@@ 10598
khi@@ 10594
cỡ 10592
32 10589
ania 10581
pal@@ 10577
Mục 10574
alb@@ 10565
7@@ 10560
Tài 10559
chín 10554
1973 10552
pr@@ 10540
triết 10533
dư 10524
khuôn 10518
thuê 10516
cụm 10494
huyết 10494
1954 10465
Te@@ 10465
khuyến 10462
sánh 10459
Ti@@ 10458
Ac@@ 10447
gh@@ 10437
Vinh 10436
Charles 10433
land 10431
đậu 10426
ic 10406
tần 10406
Luân 10402
ách 10401
Bur@@ 10397
f 10394
ngọn 10392
thải 10385
Tiêu 10382
Mai 10377
tông 10360
èo 10360
Bằng 10358
Gu@@ 10356
ox@@ 10350
đồi 10343
Ko@@ 10328
Bal@@ 10327
Ngân 10327
Trichoptera 10326
1974 10308
Be@@ 10303
Ser@@ 10298
cam 10280
cer@@ 10269
1965 10261
Duy 10260
yc@@ 10260
Limoniidae 10247
M.@@ 10246
Trời 10244
mảnh 10219
Quyết 10191
Bu@@ 10189
Phước 10171
Henry 10167
tic@@ 10164
City 10162
Windows 10160
hỗn 10156
cu@@ 10148
ọc 10142
km2 10138
Ireland 10135
M. 10112
ếu 10109
w 10102
pe@@ 10101
Ca 10093
Al 10091
Kể 10079
chứ 10077
lỗ 10073
Campuchia 10071
Ma@@ 10045
… 10032
tiêm 10020
Chân 10017
Thọ 10014
Sc@@ 10013
ini 10008
quen 10008
tha 9998
gấp 9996
Her@@ 9989
Tứ 9976
ớt 9973
Pal@@ 9970
ếch 9969
đệ 9965
iz@@ 9964
ôm 9958
1977 9954
1@@ 9950
ops 9950
hi 9948
ế 9947
Malaysia 9936
Ma 9929
Mạc 9927
0@@ 9924
1967 9917
tô 9915
West 9913
yp@@ 9905
48 9900
Mạch 9898
vở 9898
tân 9896
6@@ 9894
Pol@@ 9889
Cer@@ 9887
chìm 9887
cor@@ 9885
miệng 9879
sữa 9850
út 9842
Phụ 9841
Dù 9840
TV 9833
De@@ 9821
David 9818
vui 9818
1964 9813
vết 9807
8@@ 9796
Đảo 9796
Huế 9789
Quyền 9788
Mc@@ 9783
nig@@ 9778
dã 9772
65 9767
Pi@@ 9759
cản 9747
lang 9745
Ki@@ 9739
ật 9736
phu 9734
Lu@@ 9729
Robert 9725
Str@@ 9722
ranh 9722
1963 9713
Đinh 9711
ell 9704
aph@@ 9699
Ni@@ 9684
Hình 9682
Washington 9681
lis 9669
aw@@ 9663
ỏ 9652
ten@@ 9637
lọt 9632
Dr@@ 9619
dinh 9613
Tachinidae 9585
cr@@ 9584
vạn 9584
Động 9583
Ukraina 9577
ạng 9576
1939 9575
IV 9566
khích 9554
Singapore 9552
phúc 9552
Tor@@ 9541
chấn 9536
min@@ 9533
Tàu 9526
tam 9524
Pro@@ 9519
ọng 9519
ét 9497
Mexico 9496
may 9487
ói 9484
sc@@ 9482
Paul 9477
ại 9459
Mo@@ 9455
Tình 9452
trạm 9450
yi 9446
ầu 9442
Hạm 9440
vững 9439
Vị 9433
Pennsylvania 9426
ard 9414
der 9409
flav@@ 9395
Kế 9394
Thứ 9380
úng 9377
ila 9369
Dung 9362
Trọng 9362
Cha 9361
oa 9355
Đôn 9355
Đó 9350
1971 9348
ngư 9344
ngại 9343
cương 9340
ngợi 9339
hẹp 9335
J. 9324
ene 9324
ma@@ 9324
ê@@ 9322
B.@@ 9316
osus 9315
Sal@@ 9314
kỵ 9312
đẻ 9310
ran@@ 9287
Ro@@ 9285
Đa 9285
òng 9276
Cái 9275
1920 9271
ion 9270
oni 9267
si 9266
lũng 9255
Thu@@ 9249
van 9248
atr@@ 9244
1969 9242
F.@@ 9216
hoảng 9214
Kr@@ 9209
1962 9203
ề 9195
ven 9180
Po@@ 9171
Thực 9165
ke 9164
thang 9159
đầm 9155
lợn 9146
cú 9130
Nghiên 9124
trầm 9124
men 9111
1956 9097
ax@@ 9096
9@@ 9095
màng 9094
canh 9089
Liêu 9080
thách 9080
Bel@@ 9078
Illinois 9064
Trưởng 9064
cát 9061
ter 9061
Cr@@ 9058
kỉ 9049
Chiêu 9048
ốn 9046
ạch 9039
Louis 9038
lin@@ 9032
khuẩn 9026
Lăng 9020
ip@@ 9018
cán 9017
Cas@@ 9010
Lee 9010
gu@@ 9007
ek@@ 9005
H. 9001
tidae 8995
Quy 8981
Tak@@ 8980
oni@@ 8977
aya 8971
1955 8965
ann@@ 8965
ill@@ 8965
ghế 8964
Hol@@ 8962
uy 8960
Diễn 8955
Ver@@ 8955
Tar@@ 8954
aea 8953
ex@@ 8952
ong@@ 8952
1966 8949
lẻ 8946
ưng 8945
Bỉ 8943
thuần 8938
kho 8933
tor@@ 8930
ra@@ 8920
than 8915
ngàn 8909
Cu@@ 8901
by 8899
mạn 8898
ale 8897
4.@@ 8886
thép 8886
Vụ 8880
if@@ 8864
sky 8858
Sel@@ 8840
não 8840
Song 8835
khổng 8834
Khoảng 8815
sụp 8814
Nông 8809
ok@@ 8807
Hùng 8804
chụp 8799
lỏng 8799
Tề 8795
Bảng 8794
Ly@@ 8774
Lãnh 8769
xuân 8766
thầy 8764
br 8757
dải 8756
lồ 8755
Đệ 8742
trương 8733
duyệt 8731
á@@ 8731
E.@@ 8715
ản 8714
long 8712
gr@@ 8711
nhấn 8701
S. 8697
xấu 8694
ey 8693
Tuấn 8691
London 8688
ri 8687
già 8666
ập 8666
hiển 8657
chợ 8656
Texas 8650
hy 8643
bụi 8638
Điền 8636
der@@ 8625
muối 8625
1958 8600
ới 8600
dường 8592
Du@@ 8587
dis@@ 8584
Is@@ 8583
mel@@ 8576
mọc 8569
ax 8567
ồ 8567
1947 8559
1936 8556
Cần 8550
col@@ 8549
Thi@@ 8546
Phil@@ 8545
én 8541
j 8536
khung 8536
cà 8531
xám 8531
38 8514
Khang 8507
flora 8505
Sar@@ 8496
400 8493
Maria 8492
Zealand 8492
dao 8476
75 8475
ent@@ 8464
gián 8463
01 8445
sạch 8442
hoan 8437
ư 8437
Eu@@ 8435
Hiếu 8435
Vi@@ 8425
phú 8421
uc@@ 8421
Iran 8420
pop 8419
êng 8415
im 8409
ver@@ 8408
Pseud@@ 8405
So@@ 8404
top 8400
anime 8397
can@@ 8391
nhạt 8386
ú 8384
Entertainment 8372
thoái 8372
te 8367
go@@ 8366
be@@ 8361
ari 8346
52 8340
hộp 8338
nòng 8337
nương 8333
34 8332
Tokyo 8331
ỷ 8326
Vườn 8322
Tĩnh 8316
niềm 8314
Mic@@ 8300
ều 8294
lạ 8281
đập 8281
× 8279
36 8277
chuột 8276
sợi 8274
Ger@@ 8272
33 8271
thám 8271
pa 8269
se 8265
Nhất 8261
ja 8260
1961 8255
Michael 8249
Pe@@ 8249
1949 8239
1959 8239
chăn 8237
ji 8237
oxy 8237
lọc 8232
nét 8223
thọ 8219
tiềm 8213
Com@@ 8198
Thomas 8195
CP 8192
èn 8188
tứ 8183
eri@@ 8174
Hyp@@ 8173
mê 8173
Iowa 8172
ek 8172
ili@@ 8170
ọt 8169
ón 8168
tháo 8159
Argentina 8155
Dakota 8149
fer@@ 8149
tung 8148
ly@@ 8146
Bệnh 8145
ko 8144
tan@@ 8144
viêm 8144
ngực 8141
Xương 8140
Ge@@ 8138
Nghi 8136
ngủ 8130
ł@@ 8126
sưu 8125
Vệ 8123
nghìn 8122
Ohio 8119
hào 8117
du@@ 8113
hang 8110
xoay 8106
Thiệu 8099
$ 8088
Huệ 8082
đi@@ 8081
Giống 8080
sơn 8074
iss@@ 8070
Dịch 8066
bột 8066
chu@@ 8065
Giai 8063
Min@@ 8061
ứ 8056
ane 8052
Ex@@ 8050
Hoài 8048
Tur@@ 8046
Billboard 8044
Trich@@ 8042
q@@ 8037
ỏi 8017
ed 8013
za 8013
chờ 8012
P. 8007
1957 8003
Ngôi 8000
ler 7998
1,@@ 7996
Quần 7988
55 7976
ọ 7975
đàm 7970
Quản 7969
ice 7966
1953 7965
47 7957
illa 7949
México 7943
eli@@ 7928
UEFA 7921
eh@@ 7921
You 7920
hy@@ 7920
ez@@ 7917
bọc 7914
mac@@ 7913
Pl@@ 7911
lắp 7909
ass@@ 7907
sp@@ 7896
ùng 7892
Tiếp 7873
Đỗ 7867
àm 7860
Scotland 7857
cưới 7857
dược 7854
khôi 7853
Tro@@ 7851
ãn 7845
trần 7844
64 7834
hâm 7834
Sách 7832
yên 7828
bấy 7826
Sp@@ 7817
virus 7808
protein 7806
anth@@ 7804
lăng 7797
1938 7796
hạnh 7794
trông 7789
Fr@@ 7787
mèo 7782
elia 7781
E. 7778
dâng 7775
thợ 7772
điệp 7772
5.@@ 7769
mát 7764
Huyền 7758
il 7758
orum 7749
Viễn 7747
1948 7741
usa 7740
ami 7738
Đơn 7734
ố 7729
dr@@ 7727
ere 7725
Môn 7721
1937 7716
Thuật 7712
bè 7709
Tô 7708
ce 7703
Ste@@ 7701
thiệp 7696
At@@ 7695
ok 7688
andra 7674
hoà 7672
mai 7670
mãn 7668
escens 7666
xi@@ 7665
Chiếc 7663
str@@ 7660
hắn 7656
ị 7654
ō@@ 7653
Hem@@ 7650
Cuba 7649
bạch 7648
chút 7647
trộn 7647
giận 7641
Mẹ 7640
ym@@ 7640
Park 7638
ib@@ 7637
mi 7636
1951 7631
ni 7628
del 7627
ần 7625
oh@@ 7620
vir@@ 7619
af@@ 7617
Mur@@ 7616
Huấn 7615
xưởng 7615
Gar@@ 7609
bọn 7608
đáy 7608
ae@@ 7607
sus 7607
37 7601
ruột 7600
Tướng 7596
dáng 7582
P.@@ 7579
Video 7577
Cửu 7576
khen 7576
thận 7575
nô 7570
mat@@ 7550
Ak@@ 7548
hồn 7547
ớ 7540
hầm 7532
France 7531
Kur@@ 7530
Đặng 7526
Nguồn 7521
mươi 7519
South 7518
Ab@@ 7515
ius 7512
Còn 7509
ry@@ 7505
aj@@ 7502
Lợi 7501
ềm 7501
lân 7500
Myr@@ 7498
nhượng 7497
icum 7494
ơi 7492
ãi 7490
Des@@ 7486
Si@@ 7485
Khắc 7479
Can@@ 7476
for 7473
Phục 7469
00 7464
1952 7463
Ur@@ 7460
tóc 7460
Kỹ 7458
ze@@ 7458
Chung 7451
ện 7448
Báo 7446
khoáng 7445
oi 7444
ou 7442
úc 7439
Phủ 7434
Cảng 7432
ổi 7421
óng 7414
44 7413
Mat@@ 7402
bùng 7396
phus 7396
l. 7395
mơ 7392
ir 7386
Latinh 7383
ngo@@ 7380
me 7377
ỗi 7376
amb@@ 7374
nhuận 7373
đốm 7371
khuyên 7370
Anth@@ 7368
Thừa 7367
lô 7366
ủ 7365
Music 7363
úp 7361
ref 7360
1934 7357
1929 7351
tica 7351
eria 7346
hưu 7342
bi 7340
dịp 7339
Nước 7321
ngập 7321
phẳng 7320
ros@@ 7319
ngự 7315
ĩ 7314
1935 7310
51 7310
son@@ 7310
42 7306
Chánh 7304
mer@@ 7304
đợi 7301
esia 7297
ực 7290
nhị 7288
id 7279
Tâm 7278
49 7277
ầy 7271
har@@ 7270
Phù 7260
Cây 7257
Richard 7256
chư 7251
My@@ 7240
ulata 7237
kín 7233
lồng 7223
Internet 7221
Eri@@ 7211
hề 7206
phy@@ 7204
He@@ 7198
lãm 7196
Máy 7195
lưỡng 7195
ash@@ 7186
tĩnh 7183
Ngũ 7181
2,@@ 7180
lật 7180
chàng 7176
thẻ 7167
căng 7165
ner 7161
ày 7154
Berlin 7153
Martin 7146
ira 7145
phẫu 7141
ữ 7130
Quá 7126
ây 7124
Á@@ 7112
ắn 7109
Lao 7102
Hơn 7097
Ô 7092
B. 7090
46 7088
ót 7084
adi@@ 7081
berg 7080
Ad@@ 7072
tuyết 7069
cel@@ 7067
Bang 7064
Giới 7064
rã 7064
Huân 7062
chôn 7062
King 7058
cin@@ 7053
ali@@ 7052
all@@ 7051
Kan@@ 7050
ese 7046
opus 7038
20@@ 7031
Thắng 7028
Tường 7028
ite 7025
long@@ 7018
Sam@@ 7015
xong 7012
Asilidae 7011
ai@@ 7011
giây 7010
đèn 7007
thus 7005
Cre@@ 6997
1931 6996
rom@@ 6991
Hel@@ 6990
Mộc 6985
mượn 6978
om 6978
ạp 6976
Tipula 6968
ers 6967
Wales 6966
Manchester 6964
1914 6962
D. 6952
Kho@@ 6946
ghép 6942
Val@@ 6939
uk@@ 6939
1918 6936
ro 6936
loc@@ 6935
ey@@ 6930
of@@ 6930
ũ 6929
ênh 6928
ụy 6928
rot@@ 6921
aki 6917
phila 6916
uli@@ 6914
iv@@ 6906
1900 6904
lúa 6895
Lập 6894
nề 6891
Ly 6890
rau 6885
thịnh 6879
Hàm 6865
los@@ 6865
sạn 6864
Sph@@ 6861
me@@ 6860
Minnesota 6859
th 6850
č@@ 6846
ơn 6846
Mol@@ 6843
tươi 6843
com@@ 6836
Phái 6834
ính 6833
abr@@ 6832
Edward 6830
ville 6829
lằn 6827
thr@@ 6825
inc@@ 6824
Tạng 6822
nạp 6820
awa 6815
rock 6808
El 6805
ạm 6803
1912 6802
bre@@ 6800
Kansas 6797
nỗi 6796
are 6794
Cải 6792
cổng 6790
ụ 6790
dâm 6789
tar@@ 6788
uyên 6787
6.@@ 6784
Los 6782
Hi@@ 6777
Hi 6773
bút 6769
ot 6769
gỡ 6767
nia 6763
Sm. 6762
One 6761
den 6758
nấm 6758
uta 6756
dò 6754
pan@@ 6754
Mes@@ 6753
huyền 6753
ội 6753
ụt 6752
Siêu 6747
sen 6747
ator 6738
Ấu 6734
aga 6731
ev 6730
vé 6727
Tu@@ 6726
Love 6725
Pan@@ 6722
Trà 6718
ược 6712
Trăng 6707
1891 6704
yl 6704
ngã 6697
sin@@ 6697
lặp 6696
39 6693
Kitô 6692
Ros@@ 6681
sườn 6675
cus 6674
nấu 6672
mỹ 6671
Thập 6670
tuân 6669
ty@@ 6664
punc@@ 6661
kịp 6660
Sản 6653
Kam@@ 6652
und@@ 6637
ỡ 6625
ảm 6622
Ba@@ 6620
Jean 6616
43 6614
Sol@@ 6613
điền 6612
lam 6611
Bùi 6606
ase 6605
K. 6604
Ta@@ 6599
m. 6598
lò 6595
Por@@ 6594
les 6590
Diên 6589
ộ 6589
ậu 6588
ă@@ 6583
axit 6582
41 6581
nhãn 6579
ow@@ 6575
nhịp 6573
ine@@ 6572
ta@@ 6571
io 6567
ngưỡng 6567
Dòng 6560
khứ 6560
yth@@ 6560
Lượng 6558
1933 6557
asi@@ 6557
mấy 6556
Bị 6555
1922 6553
Thạnh 6553
1917 6552
gợi 6549
Hạt 6547
Neuroptera 6545
arg@@ 6544
òi 6544
Lữ 6538
den@@ 6538
ẩu 6538
vang 6535
bor@@ 6530
W.@@ 6527
1913 6519
ắm 6516
Os@@ 6514
lệch 6511
Moskva 6508
sàn 6508
Sa@@ 6504
thung 6503
Friedrich 6497
53 6493
treo 6490
Tháp 6487
Cos@@ 6481
end@@ 6479
ằng 6473
Mad@@ 6469
Mus@@ 6468
í@@ 6467
600 6461
1932 6459
1924 6457
Joseph 6448
sur 6446
ud@@ 6445
bê 6441
rô 6435
ge@@ 6434
No@@ 6433
nàng 6425
ster@@ 6423
Hydro@@ 6419
1925 6418
Iraq 6414
Vô 6412
é@@ 6412
Scarabaeidae 6402
củng 6402
ượng 6400
lành 6394
1908 6393
Đăng 6387
ori@@ 6386
thuẫn 6383
đáo 6383
ide 6377
ển 6376
Kỷ 6374
Lepto@@ 6373
Khu@@ 6366
he@@ 6364
inch 6364
lầm 6364
mây 6360
Tuần 6354
bồi 6349
ệp 6349
bền 6348
Smith 6343
nêu 6343
Bất 6342
Hor@@ 6342
gan 6342
Bol@@ 6340
bơi 6340
dời 6340
ā@@ 6340
thằn 6338
dỡ 6336
est@@ 6335
ễu 6329
Ter@@ 6324
Jackson 6322
fl@@ 6320
1919 6319
Go@@ 6318
ahalli 6316
đậm 6315
cul@@ 6310
đựng 6309
Trinh 6304
Tùng 6296
nhầm 6295
I. 6294
lar@@ 6288
06 6283
Cực 6281
1910 6279
1916 6279
05 6268
Le 6265
Pakistan 6265
ft 6265
Phường 6263
mor@@ 6263
Mil@@ 6261
ye 6261
1905 6259
sk 6258
72 6256
điêu 6255
1911 6254
T.@@ 6252
54 6251
7.@@ 6251
cong 6251
alli 6246
Cl@@ 6240
ợ 6235
Mao 6234
ịch 6232
Thơ 6228
St. 6222
lắng 6220
G.@@ 6218
For@@ 6216
Cà 6212
Colombia 6208
tang 6208
ve 6206
Quả 6201
manga 6199
ung@@ 6199
gen@@ 6196
ậy 6194
ler@@ 6189
ny@@ 6187
Brazil 6184
Top 6181
Phía 6180
bl@@ 6180
Bayern 6179
poly@@ 6177
Hoạt 6175
xứng 6173
Micro@@ 6168
Loire 6163
Lind@@ 6162
ó 6157
fr@@ 6155
Peter 6154
02 6150
F. 6150
suối 6147
Vịnh 6142
150 6139
quát 6139
isti@@ 6137
oz@@ 6137
K.@@ 6135
Gor@@ 6133
Cat@@ 6132
Kính 6132
ford 6132
ỗng 6131
agn@@ 6124
Alpes 6123
Hiệu 6121
USS 6118
lãng 6116
Met@@ 6114
mãi 6109
D.@@ 6106
b. 6106
Tu 6098
pu@@ 6089
800 6084
mì 6075
xóa 6071
Đôi 6071
Vạn 6070
Sy@@ 6068
nở 6063
re 6063
hỏng 6061
ova 6061
1927 6055
Heter@@ 6049
Sem@@ 6046
Tế 6046
Ru@@ 6035
ệu 6034
La@@ 6031
sổ 6029
0.000 6028
Afghanistan 6027
Thiện 6027
1923 6026
ND 6021
soái 6020
Sten@@ 6014
đúc 6014
ó@@ 6012
phế 6011
Müll 6007
chẽ 6004
ùi 6002
amp@@ 5998
Missouri 5995
San@@ 5995
tật 5992
2022 5991
Ram@@ 5989
cạn 5984
yd@@ 5984
Lam 5983
tii 5980
Giá 5976
pin@@ 5974
Cương 5973
R. 5972
nh 5972
Bối 5971
Me 5963
xóm 5962
Ke@@ 5961
1906 5960
gói 5955
Man 5954
leo 5953
1928 5949
04 5946
orus 5942
buồn 5935
Lep@@ 5932
urus 5931
yg@@ 5915
ằm 5915
for@@ 5913
Hal@@ 5912
táng 5910
ướt 5908
phun 5902
56 5901
Chu@@ 5900
mảng 5898
alia 5891
TV@@ 5887
ac 5886
cap@@ 5886
J 5885
Baker 5873
Venezuela 5871
Hir@@ 5870
Phyl@@ 5870
ori 5868
Australia 5866
Bulbophyllum 5864
Ry@@ 5864
ub@@ 5861
ỳ 5855
09 5853
Hướng 5853
03 5852
fus@@ 5851
nhắm 5849
yo@@ 5848
sừng 5839
Đo@@ 5839
ỉnh 5836
dẹp 5831
hoãn 5831
Mak@@ 5821
ngh@@ 5818
Tinh 5816
quái 5815
ela 5813
Tin 5812
cho@@ 5807
Nẵng 5805
aris 5805
ifolia 5802
DNA 5798
formis 5795
por@@ 5793
Cói 5792
War@@ 5792
Mật 5789
enia 5789
Chấp 5788
mừng 5788
Ang@@ 5786
hứa 5784
ophyllum 5784
Olympic 5781
chuông 5781
Ân 5781
Tú 5778
Bố 5776
Dor@@ 5775
trinh 5773
Hook@@ 5769
De 5766
giỏi 5765
ularis 5765
Kal@@ 5764
nhựa 5764
ul 5763
Nho 5760
07 5758
Super 5757
tes 5757
chào 5756
cống 5756
ins@@ 5748
ẹt 5747
osum 5743
nợ 5738
Mở 5737
Simon 5737
don 5737
58 5734
tata 5734
W 5733
anti@@ 5733
ens@@ 5731
khía 5727
Microsoft 5725
eli 5722
túi 5721
Thiền 5719
Mary 5710
nhì 5709
Mag@@ 5707
bur@@ 5705
aka 5697
đỗ 5695
ko@@ 5693
đói 5692
My 5691
ato 5691
her@@ 5690
Đỏ 5690
hạc 5687
kov 5687
Lệ 5686
Mãn 5686
bữa 5684
Guinea 5683
folium 5683
Angeles 5675
quét 5675
odon 5673
Thục 5670
Apidae 5668
yph@@ 5665
Gal@@ 5663
Hu@@ 5661
acid 5661
Điểm 5659
Sáng 5658
gl@@ 5657
sa@@ 5657
ech@@ 5656
uyện 5655
85 5649
đâu 5646
ess@@ 5644
lep@@ 5642
08 5635
ast@@ 5631
.f. 5630
57 5630
the@@ 5630
1926 5629
sy@@ 5629
Lỗ 5625
bốc 5619
thô 5618
tel@@ 5617
Salticidae 5614
phấn 5614
mùi 5609
ha@@ 5608
lừa 5607
Est 5606
longi@@ 5605
gạo 5603
Thất 5599
mal@@ 5594
ạnh 5594
1909 5592
Trân 5588
ulus 5586
yan@@ 5586
Đi@@ 5586
1921 5583
Chiều 5583
otus 5581
Hot 5578
Tín 5574
otis 5573
lum 5572
iy@@ 5569
trâu 5568
lam@@ 5567
mỏng 5561
Wil@@ 5557
thỉnh 5548
Santa 5547
Cap@@ 5546
Thịnh 5545
q 5543
9,@@ 5541
optera 5541
1895 5537
Ath@@ 5536
bây 5532
õ 5532
anensis 5531
Khai 5530
Quỳnh 5529
wa 5526
Kor@@ 5520
Men@@ 5519
sọc 5519
mer 5516
Der@@ 5514
Cấp 5511
súc 5510
sim@@ 5504
Cụm 5502
hằng 5498
T. 5494
sốt 5492
62 5491
Chile 5491
cúp 5491
Seoul 5490
Francisco 5488
Qua 5484
1915 5483
Hitler 5483
ịt 5483
Florida 5482
ẫn 5479
huy@@ 5475
thôi 5474
95 5473
nhọn 5473
Cam 5470
eum 5468
Do@@ 5464
ứt 5460
Es@@ 5458
hẹn 5458
tốn 5454
kiên 5448
Nak@@ 5446
Khí 5445
đòn 5444
Division 5443
Nguyệt 5443
rạp 5443
iro 5442
Thay 5441
tỏa 5441
Serbia 5440
sk@@ 5439
trich@@ 5439
Lư 5438
zi@@ 5437
cat@@ 5436
chục 5435
Trạch 5434
eng@@ 5434
phiến 5432
rạn 5432
sil@@ 5430
Tối 5429
tràn 5428
uyền 5428
dội 5423
ử 5422
men@@ 5421
lõi 5415
Sil@@ 5411
nồng 5411
Quỹ 5409
yst@@ 5408
ến 5406
ẳng 5405
Loại 5403
tro@@ 5402
Ottoman 5400
xu@@ 5400
Lin@@ 5399
bông 5399
Mười 5398
Virginia 5398
ellus 5397
osp@@ 5397
Av@@ 5394
Kol@@ 5393
ểm 5393
Mah@@ 5391
ễ 5390
unc@@ 5386
Dicran@@ 5384
Football 5374
khu@@ 5366
ali 5364
tum 5359
Not@@ 5355
cas@@ 5355
vịt 5355
Champions 5349
uma 5349
ani@@ 5347
hẳn 5345
Ap@@ 5344
Bạc 5344
Mark 5344
Lim@@ 5341
didae 5341
phổi 5340
lão 5338
ruộng 5338
Han@@ 5337
Xuất 5337
isa 5336
dốc 5335
ứa 5333
áy 5331
inae 5330
Del@@ 5329
Thi 5327
mìn 5325
ìm 5325
Meg@@ 5322
xích 5319
Sải 5318
ửu 5318
Mẫu 5316
Ol@@ 5314
túc 5314
ằn 5314
Nhờ 5313
3,@@ 5311
trượt 5307
ặng 5304
duệ 5299
luân 5299
inia 5296
ut 5295
Roma 5293
mòn 5293
don@@ 5286
Google 5284
gọn 5284
khẩn 5284
mạo 5281
ug@@ 5280
nút 5279
Dũng 5275
Khmer 5274
áu 5273
liều 5268
ind@@ 5262
Đời 5262
bon 5261
ab 5255
len@@ 5255
ren@@ 5255
lidae 5253
Bre@@ 5252
ito 5252
ian 5251
Lang 5246
Lâu 5245
Ay@@ 5242
sii 5242
Arg@@ 5241
onidae 5237
pil@@ 5237
Bulgaria 5236
Thăng 5236
xướng 5234
FIFA 5233
Q 5232
acea 5232
ts@@ 5224
Armenia 5220
ham 5218
Vi 5216
ski 5214
cl@@ 5213
iana 5210
ilis 5209
Kiều 5208
Astragalus 5207
Diego 5202
Disney 5200
România 5200
ect@@ 5198
Kun@@ 5196
Sang 5196
Hawaii 5194
Kiểm 5193
off 5193
Căn 5190
huống 5190
ticus 5183
Đĩa 5182
cy@@ 5181
Vol@@ 5179
he 5178
đứt 5178
Az@@ 5176
Khải 5175
sti@@ 5173
ể 5172
CD 5171
pol@@ 5171
Karl 5168
cối 5168
rồng 5167
# 5164
vời 5163
ừa 5163
phi@@ 5161
Kat@@ 5158
Plat@@ 5155
ami@@ 5152
kar@@ 5152
Oscar 5146
mờ 5146
Don 5144
hưng 5143
lạm 5143
Mạng 5138
63 5136
Trò 5136
béo 5135
sel@@ 5135
tur@@ 5134
ự 5133
1903 5132
ff@@ 5132
ín 5132
Binh 5131
COVID 5129
Tăng 5128
bội 5127
Hổ 5118
Cử 5117
Tùy 5116
ci 5115
dắt 5114
vil@@ 5114
ent 5111
ore 5109
ẻo 5109
tre 5108
Viết 5106
Mit@@ 5100
North 5099
duyên 5099
12@@ 5094
Nag@@ 5093
Alexander 5090
Ruồi 5090
1904 5087
ach 5087
Far@@ 5086
móng 5084
sul@@ 5083
ish@@ 5082
ation 5080
mag@@ 5079
Khởi 5077
cậy 5076
radar 5075
ary 5074
ão 5074
Núi 5068
Dryopteridaceae 5067
Ha@@ 5067
quỳ 5067
ểu 5065
Black 5064
ie@@ 5062
làn 5059
age 5056
Nov@@ 5053
FA 5052
lũy 5050
Wisconsin 5043
G. 5041
Kiên 5039
lũ 5037
elli 5035
Ben@@ 5033
otrich@@ 5033
nộp 5032
cac@@ 5028
Bến 5027
Gmina 5027
up@@ 5025
Van 5024
dae 5024
1907 5022
khuyết 5022
Phố 5021
da@@ 5020
Khê 5019
ther@@ 5019
hoại 5018
Nintendo 5017
vải 5017
pos@@ 5016
Wal@@ 5015
chuyền 5013
Kir@@ 5012
be 5009
VI 5005
od 5004
Lần 5003
dê 5003
gương 5001
Victoria 5000
mann 5000
tin@@ 5000
tản 4996
Ứng 4996
nus 4993
1898 4992
anthes 4991
ình 4987
Jo@@ 4981
Vàng 4980
ẫm 4979
Trình 4975
Chế 4973
Polypodiaceae 4973
mốc 4971
Ec@@ 4970
Tom@@ 4969
Làng 4968
Tỷ 4968
hãm 4968
ưỡng 4966
phia 4963
ngẫu 4962
Thẩm 4961
1000 4958
ain@@ 4956
zia 4955
Doanh 4952
tím 4948
Peru 4944
Harry 4943
Z 4943
8.@@ 4940
opo@@ 4939
International 4928
mâu 4926
Un@@ 4924
Tuyến 4922
76 4919
ỵ 4919
Cyr@@ 4916
ỹ 4915
ễn 4914
Gen@@ 4913
ile 4909
1.000 4908
Ri@@ 4902
giấu 4898
1897 4897
700 4894
Ka@@ 4894
dính 4894
cia 4893
ặm 4892
Nigeria 4891
tiệc 4891
It 4889
estr@@ 4889
sen@@ 4889
ello 4887
ger@@ 4886
W. 4883
ago 4883
59,5 4882
1899 4880
ard@@ 4878
1902 4877
eph@@ 4877
múa 4877
13@@ 4876
61 4874
Il@@ 4872
nhiếp 4871
Madrid 4867
kin 4867
120 4862
Serie 4861
đà 4861
Elizabeth 4859
CH@@ 4858
Cro@@ 4856
cúng 4850
Aquitaine 4847
Linyphiidae 4845
trừng 4842
uti@@ 4842
Trí 4841
ngai 4841
Trấn 4839
Na@@ 4837
túy 4834
ngón 4829
9.@@ 4827
nghịch 4826
oto 4826
lưỡi 4823
dic@@ 4821
Quách 4816
hal@@ 4816
ber 4815
Tả 4813
tom@@ 4812
4,@@ 4810
lati@@ 4810
59 4806
Bách 4806
Mạnh 4804
tê 4804
icola 4803
vay 4801
24@@ 4799
Ecuador 4793
Phùng 4790
ìn 4790
66 4787
bến 4785
Bảy 4783
kiệt 4783
yum 4782
Xa 4781
mù 4781
Premier 4779
idi@@ 4778
Đồ 4778
Chùa 4777
On@@ 4776
tic 4773
Air 4769
oe 4769
1896 4765
Tháo 4765
ichi 4763
ocarpus 4763
14@@ 4759
68 4758
Tour 4758
Quán 4753
Hoằng 4744
mầm 4744
Bát 4743
Pen@@ 4741
7,@@ 4740
micro@@ 4740
pp@@ 4737
tùng 4737
asa 4734
mỡ 4732
guitar 4731
eur@@ 4730
đâm 4730
Bão 4729
khỉ 4728
Carl 4726
Gre@@ 4726
DC 4725
atha 4725
ylo@@ 4722
* 4721
Khi@@ 4720
Hung 4719
ậm 4719
Giả 4717
ửa 4715
Dic@@ 4713
Nar@@ 4713
kĩ 4713
tơ 4709
Milan 4707
ca@@ 4707
Nói 4706
aul@@ 4705
eni 4703
Tai 4702
chiêu 4699
tis@@ 4699
bul@@ 4698
Lincoln 4696
ik 4694
Chất 4692
Bl@@ 4691
ful@@ 4690
ơm 4690
Dar@@ 4689
Hỏa 4685
ừ 4684
Char@@ 4682
Chelsea 4682
Ca@@ 4680
Ku@@ 4678
pro@@ 4677
Brach@@ 4676
ùa 4676
5,@@ 4675
ộn 4675
1901 4672
Cam@@ 4672
st 4671
Chợ 4669
67 4666
lầy 4665
hối 4663
Ham@@ 4661
eng 4661
ich 4661
Rad@@ 4660
nom@@ 4660
Bởi 4657
ke@@ 4657
ocer@@ 4654
sal@@ 4653
Tưởng 4652
ngừa 4652
ř@@ 4651
ảng 4651
field 4649
Bốn 4645
rào 4645
ựu 4645
ge 4642
Records 4640
ky 4638
lây 4638
~ 4635
Sin@@ 4634
88 4633
vit@@ 4633
viếng 4633
Vận 4627
ous 4626
Ga 4624
Đạt 4620
Johnson 4619
69 4613
oria 4613
Đốc 4612
aca 4608
Mộ 4606
Xem 4605
lườn 4602
nhậm 4601
chốt 4598
uy@@ 4598
ho 4597
5.000 4596
inn@@ 4594
una 4594
Lam@@ 4593
ặn 4593
Red 4588
bit 4588
In 4587
hr@@ 4586
iki 4586
Sak@@ 4584
nghiêng 4583
nhạy 4582
15@@ 4581
Ale@@ 4581
SS 4579
thở 4579
ton@@ 4579
Bán 4578
1,5 4577
dũng 4577
ngộ 4577
Diệp 4576
Onthophagus 4574
hảo 4573
8,@@ 4572
lin 4569
77 4568
chừng 4567
all 4566
lat@@ 4564
1894 4563
ick 4562
itz 4559
Chlor@@ 4557
Biểu 4552
Dol@@ 4552
trật 4552
Ngh@@ 4551
đạp 4549
Arkansas 4548
ette 4547
Vật 4545
with 4539
Em@@ 4538
trăng 4536
bù 4535
ici@@ 4535
vic@@ 4535
ava 4533
miếu 4533
DVD 4532
rễ 4530
ềng 4526
Town 4525
Cop@@ 4524
hir@@ 4524
Chrys@@ 4523
bớt 4523
We@@ 4522
uk 4521
Stalin 4520
AS@@ 4516
Dav@@ 4514
Bas@@ 4511
ati 4509
xá 4509
ường 4508
đắc 4507
Fre@@ 4505
10.@@ 4503
tấu 4501
DC. 4497
nhi 4496
ũng 4496
idaceae 4495
rác 4494
ts 4491
aus@@ 4490
cuồng 4490
uca 4488
dii 4485
dec@@ 4484
tị 4484
Đề 4483
Michigan 4480
Italia 4479
Occitanie 4479
sói 4476
Ban@@ 4475
khớp 4471
Chuẩn 4469
Che@@ 4466
Tuổi 4464
Frank 4461
ick@@ 4461
Lạt 4460
So 4460
osia 4459
ve@@ 4459
Hạng 4458
mad@@ 4456
Liverpool 4450
iti@@ 4450
Game 4447
Ul@@ 4447
thỏ 4441
Rhône 4440
Đánh 4435
aer@@ 4434
gi 4433
Les@@ 4430
pic@@ 4430
Kon@@ 4426
gốm 4426
Khối 4422
antes 4422
š@@ 4421
ista 4420
250 4418
Nobel 4414
phyllum 4411
eth@@ 4410
sút 4410
triệt 4410
Độc 4410
Tetr@@ 4409
dion 4409
móc 4407
Pap@@ 4404
bin 4403
icul@@ 4403
sol@@ 4403
Euphorbia 4400
rửa 4399
Túc 4398
hum@@ 4398
Tiết 4397
Tri 4397
tảo 4396
UB@@ 4395
bát 4394
otr@@ 4394
Ky@@ 4392
ole@@ 4392
73 4390
Huỳnh 4390
gạch 4390
Cấu 4389
mặn 4389
đắp 4389
đeo 4388
hôi 4386
Sor@@ 4385
Mậu 4383
bal@@ 4383
Taylor 4381
trà 4381
õm 4379
ụi 4379
etta 4378
mũ 4377
Pyr@@ 4374
val@@ 4373
name 4370
Bác 4369
YouTube 4369
ker@@ 4368
mes@@ 4363
82 4362
illar@@ 4362
Croatia 4360
anga 4354
Đền 4354
aly@@ 4351
Cỏ 4348
dạ 4346
gấu 4345
ign@@ 4343
vạch 4343
ovich 4341
Pa@@ 4340
ole 4340
zy@@ 4336
Í@@ 4333
din@@ 4332
iidae 4332
ten 4332
74 4328
Giữa 4327
Gray 4327
ger 4324
asc@@ 4323
arc@@ 4322
Mường 4319
khói 4317
Nouvelle 4315
Ty@@ 4314
Prot@@ 4312
Năng 4311
sis 4311
ộng 4309
1889 4308
Gần 4307
cur@@ 4307
cài 4306
Phản 4305
ust@@ 4304
esi 4303
ps 4300
opter@@ 4299
1890 4294
cóc 4293
xen 4293
odi@@ 4291
ụn 4291
bàng 4289
eda 4288
phylla 4286
macro@@ 4285
Nav@@ 4283
Lept@@ 4275
Lĩnh 4274
ẽ@@ 4273
thơm 4271
Ư@@ 4271
86 4269
uyển 4269
79 4267
ệm 4263
pe 4260
Đen 4260
Columbia 4256
Maz@@ 4256
lùi 4256
pennis 4254
Times 4253
71 4252
99 4252
rẽ 4252
ist 4251
Bàn 4250
16@@ 4248
Ox@@ 4247
Real 4247
đãi 4247
giáng 4246
not@@ 4237
V. 4236
ophora 4235
trop@@ 4235
American 4233
quỷ 4232
Da@@ 4230
Jack 4225
des@@ 4225
Slovakia 4222
omyia 4219
umi 4218
vượng 4218
OS 4217
carbon 4217
HĐ@@ 4214
thùy 4214
ven@@ 4213
TP 4209
bách 4207
Càn 4206
var@@ 4205
Star 4202
84 4200
vân 4200
ưởng 4195
ngụ 4194
go 4192
Ran@@ 4191
Lã 4188
Pháo 4188
Pel@@ 4184
Shin@@ 4183
6,@@ 4177
PC 4175
ap 4174
23@@ 4169
uch@@ 4168
Halictidae 4167
dor@@ 4167
vẹn 4162
Jones 4161
Leuc@@ 4161
Pas@@ 4161
Apple 4157
Mim@@ 4157
khánh 4157
Thích 4154
98 4151
Rhynch@@ 4151
yo 4150
ngọc 4149
HMS 4148
giật 4147
oshi 4146
ủi 4146
bó 4145
ee 4145
ãy 4144
Sw@@ 4142
ū@@ 4141
Carex 4138
nảy 4138
xít 4136
Khả 4135
isi@@ 4135
muộn 4134
óm 4134
trôi 4132
anes 4131
3D 4128
ling 4127
Orth@@ 4126
Benth. 4122
ites 4122
QĐ 4121
Hãn 4120
del@@ 4120
Hiền 4119
Hãng 4119
tựu 4119
Lá 4117
Giáp 4116
onom@@ 4115
78 4113
Cường 4113
ennis 4111
1885 4109
Albert 4109
châm 4109
olus 4109
81 4108
Pot@@ 4108
arius 4108
chil@@ 4108
pseud@@ 4106
opteris 4104
ce@@ 4101
lụt 4101
Latin 4100
melan@@ 4100
Oxy@@ 4098
nướng 4097
eu@@ 4096
• 4095
Sri 4094
Tipulidae 4094
Pil@@ 4091
tráng 4091
Cố 4090
Tom 4089
vari@@ 4085
Nhơn 4084
nhu@@ 4083
sét 4080
hố 4079
− 4079
pin 4077
Ký 4076
chổi 4076
30@@ 4070
series 4068
Pod@@ 4067
ham@@ 4066
cuống 4064
Ble@@ 4063
iko 4062
uki 4061
10.000 4059
Australasia 4059
Phụng 4058
Wilhelm 4058
khiêu 4058
éo 4058
Mik@@ 4056
Pic@@ 4055
Luc@@ 4054
Megachilidae 4054
kép 4054
Agr@@ 4053
Camp@@ 4050
Ánh 4049
96 4043
iri 4043
ure 4043
Kas@@ 4040
ãng 4039
Cle@@ 4038
sia 4035
vĩnh 4033
ant 4032
xoắn 4031
per 4028
Dicranomyia 4027
chẩn 4026
Sur@@ 4025
enn@@ 4025
Club 4024
UNESCO 4024
Tích 4016
Pit@@ 4015
Big 4014
Java 4014
NĐ 4013
Sho@@ 4013
1878 4011
sẫm 4011
NGC 4010
ze 4007
đấy 4007
Hymen@@ 4005
vắng 4004
antha 4002
Williams 3999
Bắt 3998
use 3996
nu@@ 3994
ush@@ 3993
mic@@ 3992
Xá 3990
Lời 3987
Cai 3986
Je@@ 3985
ilus 3985
mas@@ 3985
Màu 3980
elle 3976
Bóng 3973
ượt 3972
pul@@ 3968
burg 3963
heo 3959
Pseudo@@ 3958
Dis@@ 3957
lor@@ 3957
Jac@@ 3952
Trụ 3952
amo@@ 3952
ę@@ 3952
Ep@@ 3951
Trump 3951
adi 3951
ear@@ 3948
mắn 3948
chém 3946
ome 3946
Awards 3945
ans@@ 3945
Nhận 3944
gar@@ 3941
Lớn 3938
opidae 3938
umb@@ 3938
ales 3936
Cten@@ 3935
GDP 3934
Psychotria 3934
Var@@ 3933
bas@@ 3929
say 3928
1870 3927
Cryp@@ 3927
Nhi 3926
rải 3926
thụy 3926
táo 3924
Rh@@ 3921
anc@@ 3919
att@@ 3918
Khương 3916
sôi 3914
khoán 3913
Sim@@ 3912
83 3909
Pre@@ 3908
2.000 3907
Congo 3907
eti@@ 3906
ophyllaceae 3906
cưỡng 3905
hãi 3903
spin@@ 3901
Dal@@ 3899
ui 3899
chòm 3898
đệm 3896
hãy 3894
Kiểu 3889
MTV 3888
dám 3887
2,5 3886
Bourgogne 3886
ngưng 3886
tambon 3884
ngon 3882
chánh 3881
thoảng 3879
Hay@@ 3878
Măng 3878
giãn 3876
nén 3872
ria 3872
Nhị 3871
Hauts 3870
istr@@ 3869
Ái 3869
Cur@@ 3868
Syn@@ 3868
bon@@ 3868
Chăm 3867
Cánh 3867
ãnh 3867
Hom@@ 3865
Mand@@ 3865
Calli@@ 3864
White 3863
Eugène 3862
nhiễu 3862
sur@@ 3862
icidae 3860
tuệ 3858
26@@ 3856
Eur@@ 3856
Rock 3856
hạch 3855
je@@ 3855
87 3854
chua 3851
91 3849
ony@@ 3847
ny 3845
quế 3845
phora 3844
thâm 3844
ván 3842
osoma 3841
bol@@ 3839
Molophilus 3837
Ngôn 3837
xi 3837
ros 3836
tera 3835
quên 3834
tro 3834
hoạn 3833
Marie 3830
lứa 3830
onii 3830
vel@@ 3828
cẩn 3826
cười 3825
kii 3825
nem@@ 3824
Sav@@ 3822
Tho@@ 3822
Young 3821
met@@ 3821
Nơi 3819
Pat@@ 3815
chướng 3815
Giáng 3814
Sáu 3813
abilis 3813
Oc@@ 3811
CN@@ 3810
trộm 3809
bám 3807
Xiêm 3806
gãy 3806
ini@@ 3805
pus 3805
xoáy 3803
93 3801
TH@@ 3798
ika 3798
quãng 3798
Rio 3795
tru@@ 3794
Time 3791
Rôma 3788
Pri@@ 3787
vòm 3787
Bat@@ 3780
sor@@ 3780
alum 3779
Brown 3778
Tan@@ 3778
ain 3778
ates 3776
Chú 3774
Normandie 3773
Shim@@ 3770
Macedonia 3769
thự 3768
wood 3768
han 3766
ngục 3766
gii 3764
Xích 3761
Arthur 3760
Bon@@ 3760
Pic 3760
yx 3760
Ước 3759
bic@@ 3756
ein@@ 3756
esi@@ 3755
Haute 3752
đo@@ 3752
nhũng 3751
trội 3750
Moore 3748
lặng 3748
cuộn 3746
mộc 3746
0.@@ 3745
atia 3745
hàn 3745
92 3743
Tạp 3743
Liệt 3742
Quế 3742
khử 3742
feet 3741
dom@@ 3740
oid 3740
tắm 3740
ray 3738
Phượng 3737
Dom@@ 3736
cola 3736
cop@@ 3736
Ç@@ 3736
Steph@@ 3734
otes 3732
oy@@ 3732
Nghi@@ 3729
lộn 3729
tig@@ 3729
Mont@@ 3728
ele 3728
xấp 3728
Đắk 3727
1893 3725
27@@ 3724
Ple@@ 3724
MiG 3723
rìa 3723
Diệm 3722
Ra@@ 3722
Shi@@ 3722
Pierre 3720
Kit@@ 3718
17@@ 3717
bil@@ 3715
Pomeranian 3711
oba 3711
Cir@@ 3709
pat@@ 3707
khe 3705
ornis 3704
Costa 3703
Carolina 3702
000 3700
Cáp 3700
Algérie 3698
Nhiệm 3698
rol@@ 3698
Hộ 3696
1859 3695
fur@@ 3695
Panama 3694
ởi 3691
Sen@@ 3690
imb@@ 3687
Sz@@ 3683
nhấm 3681
rùa 3681
Ảnh 3680
Ash@@ 3678
Scott 3677
Vĩ 3676
10,@@ 3675
rẻ 3675
pel@@ 3673
thùng 3673
Voivodeship 3672
ượn 3672
SE@@ 3669
mos@@ 3668
ốp 3667
Euro 3666
Miến 3666
bệ 3665
lí 3664
pen@@ 3664
xo@@ 3663
podium 3662
Chicago 3661
und 3657
Tiệp 3656
ker 3655
Cửa 3653
tenu@@ 3653
tôm 3653
1882 3652
Gl@@ 3651
vo@@ 3648
tal@@ 3647
lữ 3646
Chó 3645
mol@@ 3644
97 3643
Đã 3643
ìa 3637
1886 3636
ắng 3636
ẹo 3636
ừu 3636
Miền 3633
VII 3633
Ta 3632
bìa 3632
miếng 3631
Chức 3629
May@@ 3628
san@@ 3627
AC 3626
Thức 3625
khoang 3625
Ấ@@ 3625
São 3624
Boston 3623
Nhiệt 3620
củ 3619
lường 3617
Lanka 3615
Pav@@ 3614
Wilson 3613
NQ 3612
ern@@ 3612
icornis 3611
Julius 3610
25@@ 3609
giặc 3609
Kav@@ 3608
ngạc 3604
Daniel 3603
Dys@@ 3602
Bou@@ 3601
N.@@ 3601
ace@@ 3600
phụng 3599
Chữ 3598
tụng 3597
ś@@ 3596
Vây 3595
cốc 3595
res@@ 3593
Schltr. 3592
ngột 3590
Indiana 3588
Kenya 3586
Walter 3585
lấn 3582
1880 3581
Pa 3581
Ach@@ 3579
Ung 3579
Xưởng 3578
Comté 3577
oga 3577
play 3577
ốm 3577
nam@@ 3576
Mua 3575
kem 3575
buồng 3573
Franche 3572
ophila 3572
89 3571
sam@@ 3569
ów 3567
1875 3566
Fl@@ 3566
Fri@@ 3566
1888 3565
Sab@@ 3565
Sóc 3562
Vit@@ 3562
bổng 3560
solo 3560
apur 3559
Show 3558
Vai 3558
All 3553
nho 3552
Acanth@@ 3551
Eupithecia 3549
rh@@ 3547
rủi 3544
Don@@ 3543
flor@@ 3543
ry 3542
Napoléon 3541
oli@@ 3541
1860 3540
Lại 3539
etes 3537
Live 3533
Chik@@ 3532
plat@@ 3532
Lac@@ 3531
gũi 3531
viền 3531
vươn 3530
XIX 3527
alus 3527
Tel@@ 3526
Plagi@@ 3525
Côn 3522
Win@@ 3521
hái 3521
thuỷ 3521
National 3520
Fer@@ 3519
Kháng 3519
Tam@@ 3519
1871 3518
bo 3518
Night 3517
thổi 3517
Cư 3515
CN 3513
Hollywood 3513
ire 3513
ẩy 3513
war@@ 3512
Wood@@ 3511
quật 3511
AP@@ 3510
any@@ 3510
vôi 3510
Dec@@ 3509
astr@@ 3508
11.@@ 3506
Uganda 3506
lùn 3506
EP 3504
alm@@ 3504
ợn 3503
Nai 3501
til@@ 3500
Gy@@ 3499
Tầm 3495
đày 3495
hor@@ 3494
29@@ 3493
aba 3493
ổng 3493
rec@@ 3492
ngô 3491
gal@@ 3490
Kiệt 3489
Mir@@ 3489
jo 3488
MV 3484
Mẫn 3484
est 3484
Pottiaceae 3483
khoan 3483
Euc@@ 3482
Anne 3481
vin@@ 3480
Tranh 3479
lea 3478
thiền 3478
28@@ 3477
pur 3477
lut@@ 3476
ef@@ 3475
mia 3475
dệt 3472
Bos@@ 3471
skie 3470
Sum@@ 3469
BBC 3468
Kom@@ 3466
Hill 3463
Hoà 3462
3.000 3461
94 3461
ơ@@ 3461
1879 3460
bùn 3460
Cậu 3457
Thác 3456
Cuốn 3455
Đổng 3455
nát 3454
Lạng 3453
chặng 3453
à@@ 3453
Khách 3452
ashi 3452
Ir@@ 3451
Tới 3451
Lasioglossum 3450
thắt 3448
ệnh 3447
bưu 3446
Li 3445
ett 3444
Gru@@ 3443
apo@@ 3443
bel@@ 3442
chlor@@ 3441
emon 3440
dâu 3438
fera 3438
óa 3438
Khác 3437
eti 3437
Rom@@ 3436
esti@@ 3436
giấc 3436
Barcelona 3435
Group 3433
ếng 3433
Sùng 3432
coc@@ 3432
Hằng 3431
Cockerell 3429
uz@@ 3428
Media 3427
stis 3427
Rhy@@ 3425
end 3424
ons 3423
zi 3423
ue 3422
Uỷ 3419
electron 3419
hiên 3418
Miêu 3417
cens 3417
Nor@@ 3416
Broth. 3415
XX 3413
sten@@ 3413
Trì 3412
hiếp 3411
asia 3409
bium 3409
Phu 3408
lê 3408
Ober@@ 3406
Lib@@ 3405
az 3404
Ci@@ 3402
bếp 3402
eon@@ 3402
aro 3401
Okinawa 3400
ngòi 3400
Vấn 3399
Bao 3397
phyl@@ 3397
Nhi@@ 3394
uri 3393
Ker@@ 3391
Tre@@ 3387
agin@@ 3386
ih@@ 3384
Castile 3383
vảy 3381
aen@@ 3377
nit@@ 3377
Bro@@ 3376
Bái 3376
Grammy 3375
emia 3375
Py@@ 3373
cắn 3372
ond@@ 3372
hiếu 3370
đính 3369
cáp 3368
1887 3366
Hab@@ 3366
1883 3365
Dev@@ 3364
Asplenium 3363
đụng 3363
Cốc 3362
que 3362
ụng 3362
line@@ 3361
1892 3359
Ren@@ 3358
Anna 3354
ghét 3354
wi@@ 3354
Trực 3353
Tám 3353
Chim 3352
ọa 3352
giày 3351
ỉa 3350
1869 3349
Hed@@ 3349
Khổng 3349
bat@@ 3348
Tượng 3346
Neph@@ 3345
Airlines 3344
Wi@@ 3344
1873 3343
brun@@ 3342
Bức 3341
rium 3341
jo@@ 3340
1884 3339
CLB 3336
kiệm 3336
bắp 3334
Wang 3333
him@@ 3332
lấp 3332
Dụ 3330
Go 3330
my@@ 3328
yia 3328
Games 3327
han@@ 3327
Perry 3325
hydro 3325
ảy 3325
arm@@ 3324
Warsaw 3321
nis 3319
nốt 3318
quà 3318
quy@@ 3317
Blue 3316
tràng 3316
Khẩu 3314
ophylla 3314
N. 3311
Ngựa 3311
Pin@@ 3311
Rắn 3311
INE 3310
piano 3310
dem@@ 3308
chr@@ 3307
kin@@ 3305
Thung 3304
Lộ 3303
fi@@ 3303
reg@@ 3302
Dem@@ 3301
fer 3301
uni@@ 3301
yu 3301
Arsenal 3300
thia 3300
dong 3299
uyết 3299
grandi@@ 3298
miện 3298
ở@@ 3297
130 3296
uyệt 3296
Đàm 3294
Boeing 3293
‘ 3291
Nem@@ 3290
khóc 3287
Cựu 3286
err@@ 3286
Asp@@ 3285
Crypto@@ 3284
hụt 3281
Aph@@ 3280
Triết 3279
Em 3277
cơm 3277
Bích 3276
iscus 3276
Ôn 3276
1866 3275
Khâm 3275
Ngược 3272
Cambridge 3271
Myanmar 3271
vắc 3269
ễm 3264
Dam@@ 3263
inata 3263
tú 3261
cưỡi 3260
Diệu 3258
ẫy 3258
Cận 3257
from 3257
Max 3255
n. 3255
ộp 3255
buýt 3251
Xây 3250
Dơi 3248
1864 3247
sey 3245
Bry@@ 3243
Xe 3243
phil@@ 3243
sem@@ 3243
Uyên 3242
kan@@ 3240
sắm 3239
ney 3238
Mich@@ 3236
900 3234
1877 3233
Gil@@ 3233
soni 3233
uke 3233
Belarus 3232
cành 3231
nhẵn 3231
tam@@ 3230
ington 3229
obr@@ 3229
Christian 3228
Lớp 3228
đắm 3227
ồm 3227
mb@@ 3225
AS 3224
lac@@ 3223
1876 3222
chéo 3222
cua 3220
Palestine 3219
Jan@@ 3218
1838 3216
Giác 3216
12.@@ 3215
aux 3215
Heli@@ 3214
Sul@@ 3214
ilia 3214
trùm 3214
Băng 3210
110 3208
Chiêm 3206
Araceae 3204
lossum 3201
icollis 3200
1861 3198
Cand@@ 3198
won 3197
bus 3196
O.@@ 3194
Cham@@ 3193
ock 3193
.com 3192
Bay@@ 3192
bach 3192
pa@@ 3190
cắm 3188
vách 3186
Hal 3184
cắp 3182
ron@@ 3182
Massachusetts 3180
tẩy 3180
Đêm 3179
Ther@@ 3178
eaceae 3177
py@@ 3177
Thạc 3176
Vel@@ 3176
lig@@ 3176
12,@@ 3173
Cher@@ 3173
US 3172
Acacia 3170
Arc@@ 3170
town 3170
v.v. 3167
Model 3166
Ráy 3166
inger 3166
1867 3165
mil@@ 3165
ùm 3165
chin@@ 3164
nhẫn 3164
Dược 3162
hin@@ 3161
ocera 3161
eon 3160
ade 3159
luồng 3157
õ@@ 3157
Island 3154
ks 3154
dại 3153
Life 3148
opa 3148
stein 3146
11,@@ 3145
Bờ 3144
Championship 3144
UFO 3144
meg@@ 3144
hit 3143
1868 3141
Bay 3140
bos@@ 3140
Dựa 3139
Star@@ 3139
VIII 3139
wal@@ 3139
Gly@@ 3137
1881 3135
Nam@@ 3134
Mos@@ 3131
Lão 3130
ow 3130
ọi 3129
1874 3128
Chuyến 3128
Mul@@ 3127
kr@@ 3127
Juan 3125
1863 3124
trọn 3124
Tạ 3123
Cel@@ 3118
Gà 3118
Dầu 3116
Hen@@ 3116
lí@@ 3115
eni@@ 3114
plex 3114
vol@@ 3113
Madagascar 3111
kilômét 3111
lặn 3111
ě@@ 3110
Kos@@ 3109
esta 3109
iculata 3109
ku@@ 3109
Nhìn 3108
Rid@@ 3108
ack 3108
Liễu 3107
Tanzania 3105
thiêng 3102
lus 3100
gác 3099
Aleyro@@ 3097
MC 3096
leuc@@ 3096
uv@@ 3095
Hiển 3094
neo 3094
zo 3094
ophy@@ 3092
By@@ 3090
Mari@@ 3090
bóc 3090
Begonia 3089
enz@@ 3089
mập 3089
Austr@@ 3086
Lab@@ 3086
Mọi 3086
chn@@ 3086
kiềm 3086
ū 3086
Lor@@ 3085
Thuần 3085
sonii 3085
Sand@@ 3084
els 3084
mồ 3084
alp@@ 3082
Trắng 3081
Ngãi 3080
Vo@@ 3080
tiễn 3079
XIII 3078
opera 3078
Đàn 3077
Kuntze 3076
Dan@@ 3075
bra 3074
180 3072
Nepal 3072
gối 3072
ath 3071
gan@@ 3070
ake 3069
palli@@ 3069
Centr@@ 3068
Pom@@ 3067
nắng 3067
Call@@ 3066
ắp 3066
nor@@ 3065
ọn 3065
isia 3064
Araneidae 3061
Khan 3061
Senecio 3061
Jordan 3060
agri@@ 3060
oku 3060
ome@@ 3060
ủa 3060
ẻ@@ 3057
Marshall 3056
osh@@ 3056
Lit@@ 3053
Pres@@ 3053
Nu@@ 3052
phiêu 3052
eps 3051
Pomerania 3050
ins 3050
Kong 3048
lip@@ 3045
Khái 3044
ity 3044
Fo@@ 3043
nhiêu 3043
ico 3041
Hal. 3039
chúc 3037
tour 3037
ero 3036
acul@@ 3033
Ghana 3032
wo 3031
Megachile 3029
chèo 3028
odendron 3028
vis@@ 3028
phosph@@ 3027
tồi 3027
Cent@@ 3024
Op@@ 3024
imus 3024
1850 3023
Clu@@ 3022
đắt 3022
acc@@ 3021
loa 3021
ú@@ 3021
ame 3020
top@@ 3015
aden@@ 3014
bit@@ 3014
Rob@@ 3013
Sudan 3013
Samsung 3012
Albania 3011
Bul@@ 3011
Rob. 3010
Hos@@ 3007
Mun@@ 3007
nhường 3007
Da 3002
Gro@@ 3002
vội 3001
eck@@ 3000
ngài 2999
Thor@@ 2998
Andrena 2997
Ngài 2997
etus 2996
Nền 2994
ướng 2994
form@@ 2993
we@@ 2993
Dre@@ 2992
Ten@@ 2991
dis 2990
ớn 2990
anda 2989
Gioan 2988
hận 2988
rag@@ 2988
thu@@ 2987
José 2986
khát 2986
laria 2986
Green 2984
ophorus 2984
1.0@@ 2983
Royal 2983
ui@@ 2983
đu@@ 2982
enes 2981
Had@@ 2980
Vin@@ 2980
udi@@ 2980
Liêm 2979
èze 2979
gris@@ 2978
Spar@@ 2976
Mot@@ 2975
The@@ 2974
ish 2974
Cụ 2973
pogon 2973
bầy 2972
ines 2972
nghiện 2972
Lar@@ 2971
Petr@@ 2970
illi@@ 2969
CH 2967
Kênh 2966
Lãng 2966
Fe@@ 2965
1862 2964
Yang 2964
rop@@ 2964
obscur@@ 2961
Diện 2960
Hòn 2960
Ari@@ 2959
Ed@@ 2957
enc@@ 2957
Hassan 2956
dol@@ 2953
Sphaer@@ 2952
aci@@ 2952
ric@@ 2951
1865 2950
orn@@ 2947
ST@@ 2946
köy 2946
ỏa 2946
Hong 2945
etia 2944
Tịnh 2943
cre@@ 2942
edi@@ 2941
olata 2940
sar@@ 2940
đê 2940
ets 2939
yn 2939
tric@@ 2938
Tuyết 2937
elis 2937
omum 2937
ếc 2935
Sti@@ 2934
Rose 2933
Nghiệp 2932
well 2931
quạt 2930
chì 2929
ju 2929
xà 2929
ą@@ 2929
Ra 2927
fan 2927
Gh@@ 2926
Mis@@ 2926
Cốt 2924
Niên 2924
León 2923
Anis@@ 2922
Haw@@ 2922
Hil@@ 2921
Riêng 2920
osperma 2920
CO@@ 2919
Davis 2919
Yam@@ 2919
PT 2918
Dur@@ 2917
ì@@ 2917
Xanth@@ 2915
East 2914
Nom@@ 2914
Romania 2914
Pu@@ 2911
nic@@ 2911
pap@@ 2911
101 2910
13,@@ 2910
Auvergne 2910
F.C. 2910
Sam 2910
Thuốc 2910
100.000 2909
Thelypteridaceae 2906
Chris 2902
Doãn 2902
Val 2902
Š@@ 2902
1858 2901
Tết 2900
osaurus 2899
khuất 2898
tiếc 2898
ylus 2898
ais 2897
Kaz@@ 2895
idea 2895
raion 2895
Lom@@ 2893
Xê 2893
1848 2892
Ali 2892
ngơi 2892
omys 2892
trướng 2890
leri 2888
Andrenidae 2886
Tim@@ 2885
itis 2885
nik 2883
Stone 2882
Su 2881
Mi 2880
lụa 2880
Red@@ 2879
Síp 2878
Meloidae 2877
Hieracium 2876
int@@ 2876
1840 2875
Chứng 2874
Trach@@ 2874
hol@@ 2874
xoa 2874
Bru@@ 2873
isch@@ 2873
nghiệt 2873
sọ 2873
Bag@@ 2872
Chuyển 2868
Day 2868
hab@@ 2867
pula 2867
SC 2866
ido 2866
agus 2864
kl@@ 2863
I.@@ 2862
omia 2861
ollis 2859
Litva 2857
khuynh 2856
unda 2856
yne 2856
Dryopteris 2855
Ken@@ 2855
odon@@ 2854
usia 2854
khoai 2853
Bac@@ 2852
anica 2852
bẫy 2852
uốn 2852
van@@ 2852
Nic@@ 2851
hươu 2850
avi@@ 2849
obi@@ 2847
Biến 2846
tể 2846
naceae 2845
Sony 2844
mộng 2844
Sid@@ 2843
IX 2842
Lake 2842
Lewis 2842
cos@@ 2842
fo@@ 2841
ogr@@ 2841
NH@@ 2840
Norfolk 2840
Pand@@ 2840
len 2839
ờ@@ 2838
Ethiopia 2836
Mach@@ 2836
low 2836
rậm 2836
Puerto 2834
dĩ 2834
inum 2834
ịn 2834
đằng 2832
Little 2831
chuộng 2831
tem@@ 2831
natri 2830
Liga 2829
hiền 2829
NATO 2828
phím 2828
rich@@ 2828
ć 2828
num 2826
show 2826
Amp@@ 2824
rụng 2823
News 2822
Anti@@ 2821
GP 2819
ưới 2817
Pleur@@ 2814
bể 2814
ecium 2814
Bab@@ 2813
enta 2813
lora 2813
Phaolô 2812
act@@ 2812
fu@@ 2811
tóm 2811
Thêm 2810
Gol@@ 2809
láng 2809
Hứa 2807
Vũng 2807
tor 2806
ịu 2806
alensis 2805
Copel@@ 2804
hom@@ 2804
Sas@@ 2802
was 2802
Company 2801
Fiss@@ 2801
kí 2800
thầu 2800
1857 2798
Wall@@ 2797
alan@@ 2796
ck 2796
olejeunea 2796
bin@@ 2794
dập 2794
sấu 2793
acet@@ 2792
pter@@ 2792
yro@@ 2791
Út 2791
Bri@@ 2790
Luer 2788
tatus 2787
3,5 2784
Om@@ 2784
chus 2784
fal@@ 2784
Thúc 2783
1830 2782
Trúc 2782
Norman 2781
ier@@ 2781
lei 2781
ás 2781
Amph@@ 2780
Dy@@ 2780
ẹp 2780
Liban 2779
Mau 2779
Nes@@ 2778
XII 2778
nea 2778
agu@@ 2776
Douglas 2775
Sydney 2775
Fox 2774
trán 2774
Trùng 2773
Allen 2772
Georgia 2772
pre@@ 2771
dy 2768
lad@@ 2767
Caribe 2766
ya@@ 2765
cyan@@ 2763
roi 2763
anahalli 2762
enti@@ 2761
ocephalus 2761
onn@@ 2760
Dich@@ 2759
IN@@ 2758
Ah@@ 2757
WWE 2757
opogon 2757
Miên 2756
Aeg@@ 2755
bộc 2755
illo 2753
CS 2751
Canh 2751
Oregon 2751
lội 2751
1854 2750
80@@ 2750
emma 2750
Nậm 2749
Rap@@ 2749
cula 2749
ĩnh 2749
CD@@ 2748
Hon@@ 2748
eci@@ 2748
gân 2748
lùng 2748
College 2747
chay 2747
Epidendrum 2746
kề 2745
wan 2745
Som@@ 2744
oth 2744
Bromeliaceae 2742
Franklin 2742
Tuân 2741
dig@@ 2741
quyến 2741
Trác 2740
amus 2740
Alexand@@ 2739
Mối 2739
20.000 2738
Cass@@ 2738
Lap@@ 2738
Tum@@ 2737
ram@@ 2737
nhốt 2735
ía 2735
amine 2734
thuôn 2733
Cape 2732
Pir@@ 2732
AN@@ 2731
chry@@ 2731
.-@@ 2730
1836 2730
She@@ 2729
Apo@@ 2728
mot@@ 2728
imp@@ 2727
lắm 2727
xông 2727
dal@@ 2726
Can 2725
Lyc@@ 2725
Đá 2725
Ludwig 2724
Hall 2723
Joe 2723
ky@@ 2722
Boy 2721
margin@@ 2721
thói 2721
Sat@@ 2720
ộm 2720
Bank 2719
Yến 2719
.000 2718
Rus@@ 2718
Kỵ 2717
đành 2717
chùm 2714
utt@@ 2714
Duyên 2713
mis 2713
Y.@@ 2712
ille 2712
les@@ 2712
wan@@ 2712
Miy@@ 2711
Yu@@ 2711
Giê@@ 2710
Sức 2709
eto 2709
Nik@@ 2708
Colle@@ 2706
· 2704
ess 2703
nắp 2702
XIV 2701
dan@@ 2701
RNA 2700
grac@@ 2700
1849 2699
Bill 2699
ấ@@ 2698
Ing@@ 2697
Kad@@ 2697
Yêu 2697
sương 2696
Chart 2695
úa 2695
mép 2694
nếp 2694
ocy@@ 2694
America 2693
uka 2692
IS@@ 2691
khoác 2691
ũ@@ 2691
luyến 2690
ươi 2688
Rất 2687
aku 2687
trưa 2687
our 2686
Thảo 2685
mến 2685
trơn 2684
Azerbaijan 2683
Biệt 2683
Mam@@ 2683
Shar@@ 2681
bính 2681
35@@ 2680
Moon 2680
Seine 2680
Fran@@ 2679
LGBT 2679
lãi 2679
Lepid@@ 2678
Och@@ 2678
Szczecin 2678
Ric@@ 2677
Bangladesh 2676
ier 2676
phidae 2675
ž@@ 2675
log@@ 2673
IC@@ 2672
Android 2671
ingen 2671
Vài 2669
tim@@ 2669
ater 2668
char@@ 2668
Pro 2667
ebr@@ 2667
wat@@ 2667
1841 2664
Ching 2662
ance 2660
vis 2660
app@@ 2659
bái 2659
mari@@ 2659
1872 2658
Acro@@ 2658
ướp 2658
Ny@@ 2657
bro@@ 2657
une 2657
Dubai 2656
ois 2654
f. 2653
It@@ 2652
ớp 2652
CM 2651
nhắn 2648
p. 2648
Carlos 2647
dọn 2646
mir@@ 2646
ceph@@ 2645
14,@@ 2642
1851 2642
hydro@@ 2642
Melan@@ 2641
heter@@ 2641
Henri 2638
rung 2638
aeus 2637
ij@@ 2635
stri@@ 2635
Lan@@ 2634
kon@@ 2633
Linux 2632
ken@@ 2632
PlayStation 2630
Bengal 2629
v.@@ 2629
Cin@@ 2628
Sag@@ 2628
Arch@@ 2627
ill 2627
ẹ 2627
Baltic 2626
ech 2626
eton 2626
oxide 2626
Pradesh 2625
Facebook 2624
Rac@@ 2624
mus 2624
Pon@@ 2623
out 2623
yon 2623
assi@@ 2621
zon@@ 2620
Jersey 2619
kẽ 2618
pora 2618
Kẻ 2616
1846 2615
Hex@@ 2614
pau@@ 2614
Stand@@ 2613
ff 2613
ứu 2613
Leg@@ 2612
gran@@ 2612
kal@@ 2611
160 2610
eros 2609
Will@@ 2608
nung 2608
pho 2606
Chil@@ 2605
has@@ 2605
Ann@@ 2602
Corporation 2600
Cyclo@@ 2599
iga 2599
50@@ 2597
Br. 2596
Vu 2595
agi 2595
Hop@@ 2592
ras@@ 2592
Street 2589
dera 2588
Queen 2587
pulch@@ 2586
Iceland 2585
iner@@ 2585
phen@@ 2585
ariidae 2580
140 2578
1753 2578
c. 2578
amm@@ 2577
jin 2577
úi 2577
Adam 2575
Francis 2575
nha 2574
yna 2573
Bàng 2572
Rica 2571
thor@@ 2571
ythro@@ 2571
Air@@ 2570
British 2569
amin@@ 2569
ett@@ 2569
ku 2568
Gel@@ 2567
MS 2567
Sk@@ 2567
ken 2566
Gom@@ 2563
isi 2563
nai 2563
11@@ 2562
aensis 2562
aqu@@ 2562
Fair@@ 2561
dev@@ 2561
Araneus 2559
BT 2558
lov@@ 2557
Bec@@ 2556
Im@@ 2556
Maj@@ 2556
abis 2556
Loph@@ 2555
Anderson 2554
Mike 2553
ades 2553
opteryx 2553
Scopula 2552
athea 2551
ulosa 2549
anot@@ 2548
leu@@ 2548
ặp 2546
1844 2545
Dendrobium 2545
aff@@ 2545
charis 2545
radio 2545
onis 2544
ovo 2543
sea 2543
entr@@ 2542
ispa 2542
Jan 2541
kor@@ 2541
uh@@ 2538
Sir@@ 2537
Ven@@ 2537
eniaceae 2537
sum@@ 2536
angusti@@ 2535
Andrew 2534
Marne 2534
sum 2534
Swift 2533
40@@ 2532
AT@@ 2532
Team 2532
rãnh 2532
Vir@@ 2531
Arecaceae 2530
Ga@@ 2528
pot@@ 2528
Piper 2526
orr@@ 2526
phot@@ 2526
fic@@ 2525
gán 2525
vu 2525
15,@@ 2523
Philip 2523
hel@@ 2523
Best 2521
macul@@ 2521
our@@ 2521
1853 2520
SA 2520
pi 2520
simil@@ 2520
1845 2519
Mec@@ 2517
ı@@ 2517
350 2516
Ok@@ 2516
St 2514
inensis 2514
multi@@ 2512
codice 2511
ecta 2511
Pedro 2508
onium 2508
chilus 2507
Kum@@ 2506
Open 2506
oli 2506
sei 2506
yan 2506
oti@@ 2505
ữa 2504
Elap@@ 2502
County 2501
ướ@@ 2501
ợt 2498
chai 2496
pis 2496
Merr@@ 2495
d. 2495
00@@ 2493
astrum 2491
Antonio 2490
je 2490
Sachsen 2489
ýt 2489
ỏ@@ 2489
Bot@@ 2488
ostoma 2488
Kon 2486
Ki 2485
Kus@@ 2485
Alaska 2484
Ere@@ 2484
ych@@ 2484
ö@@ 2484
Otto 2483
aus 2483
Grande 2482
Slam 2482
frons 2482
Kn@@ 2478
Arist@@ 2477
idus 2477
13.@@ 2475
single 2475
School 2473
icata 2473
arr@@ 2471
gracilis 2468
hem@@ 2468
Lawrence 2466
Sun 2466
dan 2466
Croton 2465
rit@@ 2465
Lenin 2464
oridae 2464
pseudo@@ 2464
Fun@@ 2463
V.@@ 2463
XI 2463
nang 2462
olo 2460
4.000 2459
Bes@@ 2459
õi 2459
ựa 2459
ATP 2458
MA 2458
Philadelphia 2458
aem@@ 2458
jeun@@ 2458
kur 2458
Paulo 2457
Lycosidae 2455
NS@@ 2455
ple@@ 2454
ulaceae 2454
Dendro@@ 2453
Hypo@@ 2453
Studios 2453
als 2453
equ@@ 2453
estes 2451
kov@@ 2450
Frederick 2449
Lav@@ 2449
Oli@@ 2449
endron 2449
Cyc@@ 2447
enus 2447
vul@@ 2447
ưở@@ 2447
ử@@ 2447
Uruguay 2446
dus 2446
owski 2446
trium 2444
AT 2443
Dun@@ 2443
nan@@ 2442
Gon@@ 2441
ec 2441
Ố@@ 2440
Kl@@ 2439
Adams 2438
anthera 2438
Ō@@ 2438
cata 2437
Great 2436
lid@@ 2436
ầng 2436
Bolivia 2435
albi@@ 2434
Hamilton 2432
yer@@ 2432
ion@@ 2431
dea 2429
ord@@ 2429
ský 2428
UN@@ 2427
ogen 2427
37@@ 2426
Reg@@ 2426
Lang@@ 2425
105 2424
itz@@ 2424
ươ@@ 2424
dius 2422
omi@@ 2422
Theri@@ 2421
tol@@ 2421
Girls 2420
Kin@@ 2420
rup@@ 2420
ré@@ 2420
Aul@@ 2419
tos@@ 2417
Ukraine 2416
bergia 2415
sch 2415
SA@@ 2413
Stephen 2413
aud@@ 2413
Rico 2410
iger 2410
16,@@ 2409
Kil@@ 2409
enko 2408
DD 2407
Ye@@ 2406
lı 2406
ưỡi 2406
Pent@@ 2404
Si 2404
Galaxy 2403
ein 2403
Tec@@ 2402
Ze@@ 2402
proc@@ 2402
Mk 2401
aculata 2400
É@@ 2399
ùy 2399
Wimbledon 2398
Mang@@ 2397
Pet@@ 2397
ges@@ 2397
idens 2397
Inter@@ 2395
gel@@ 2395
òn 2395
Mordellidae 2394
Theridiidae 2394
folius 2394
US@@ 2392
esh@@ 2392
Kazakhstan 2391
centr@@ 2391
Ore@@ 2390
ịa 2390
Coel@@ 2388
ino@@ 2388
art 2386
fasciata 2386
Queensland 2385
icolor 2385
Grac@@ 2383
Pokémon 2383
pid@@ 2383
Rome 2381
achi 2381
roc@@ 2380
XVI 2379
bius 2379
dosa 2379
Centre 2377
Hat@@ 2376
Vill@@ 2376
ats@@ 2376
prop@@ 2376
360 2375
incta 2375
port 2374
sin 2373
amar@@ 2372
enberg 2371
ew@@ 2371
DS 2370
enzyme 2370
ński 2370
pros@@ 2368
bar 2367
Côte 2366
Dragon 2366
Fal@@ 2366
pur@@ 2366
gy@@ 2365
sty@@ 2365
Marx 2364
elegans 2364
Spr@@ 2363
Aur@@ 2361
taria 2361
ix@@ 2358
owo 2358
Â@@ 2358
Plec@@ 2357
ack@@ 2357
lu 2356
Raj@@ 2352
eno 2352
Gymn@@ 2351
Cerat@@ 2350
illus 2350
ons@@ 2350
ç@@ 2350
AR@@ 2349
Fin@@ 2349
Vladimir 2349
Tem@@ 2348
hao 2347
Ot@@ 2346
ote 2346
hiza 2345
set 2345
hat@@ 2340
Rem@@ 2339
AM 2337
itus 2337
v. 2337
Hid@@ 2336
quin@@ 2336
SP@@ 2334
elli@@ 2334
House 2333
Libya 2333
Osaka 2333
NO@@ 2332
Rick 2332
anna 2331
Fi@@ 2330
thon 2329
Bob 2328
Newton 2328
Super@@ 2328
rho@@ 2328
Kot@@ 2327
1856 2326
Mississippi 2325
Pur@@ 2325
36@@ 2324
Papua 2324
esch@@ 2324
inea 2324
Eugenia 2323
ji@@ 2323
Ben 2322
Schmidt 2322
ris 2320
Bad@@ 2319
Syzygium 2318
ellata 2318
oceph@@ 2318
PS 2316
ez 2316
azi@@ 2315
phon 2315
Bet@@ 2313
Xen@@ 2313
niti@@ 2313
Union 2312
cher 2312
Les 2311
heim 2311
dar@@ 2310
uss@@ 2310
cú@@ 2308
Pul@@ 2307
asi 2307
14.@@ 2306
Tal@@ 2306
land@@ 2305
ấc 2305
Cot@@ 2303
Kim@@ 2303
euro 2303
Cantharidae 2302
Pfalz 2302
Plan@@ 2302
Got@@ 2301
Sung 2301
amer@@ 2301
Tre 2299
kaz 2299
Muhammad 2298
Schl@@ 2298
amensis 2298
k. 2297
kat@@ 2296
purpur@@ 2296
uchi 2296
dre@@ 2295
Sau@@ 2294
ron 2294
vu@@ 2294
ø@@ 2294
17,@@ 2293
Buc@@ 2293
Creek 2292
General 2291
Rho@@ 2290
quadr@@ 2290
Slovenia 2289
ega 2289
ident@@ 2289
Amaryl@@ 2288
Bad 2288
AFC 2287
Girl 2287
hoe 2287
mod@@ 2286
olep@@ 2286
AC@@ 2285
po 2285
Lag@@ 2284
Gregory 2283
iensis 2283
Alfred 2280
Rich@@ 2280
Has@@ 2279
Bangkok 2278
omatidae 2278
Ẩ@@ 2278
Roger 2277
che@@ 2277
mis@@ 2277
rac@@ 2277
Solomon 2276
mus@@ 2275
khan 2274
Malta 2272
On 2272
Rol@@ 2272
luc@@ 2272
cic@@ 2271
xy@@ 2271
Series 2270
Bus@@ 2267
Jamaica 2266
icia 2266
Thomisidae 2265
aurea 2265
yra 2263
Abr@@ 2262
Phy@@ 2262
arch@@ 2262
website 2260
hii 2259
nov@@ 2259
phon@@ 2259
ún 2259
mur@@ 2258
asis 2257
6.000 2256
ais@@ 2255
los 2255
Yak@@ 2254
Cav@@ 2253
Port 2251
SM 2251
ben@@ 2251
Bud@@ 2249
alidae 2249
mg 2249
ska 2248
mini 2247
Dinh 2245
Wikipedia 2245
200@@ 2244
Bak@@ 2244
dam@@ 2244
ingi@@ 2244
lit@@ 2244
teri 2244
Lady 2243
min 2242
1847 2241
Astr@@ 2241
gly@@ 2241
ẹn 2241
Prim@@ 2239
cay 2239
Max@@ 2238
EU 2237
Vas@@ 2235
oll@@ 2235
Sultan 2234
som@@ 2234
Catherine 2233
Est@@ 2232
Ele@@ 2231
Ś@@ 2230
Alice 2228
Donald 2228
net 2228
Cour@@ 2227
Ford 2226
ocarpa 2225
Asteraceae 2224
Cuc@@ 2224
HIV 2224
wil@@ 2224
bicolor 2223
Chen 2222
issa 2222
ster 2221
Pad@@ 2220
sep@@ 2220
Center 2219
Zo@@ 2219
bis@@ 2219
iceps 2218
Steve 2217
hat 2216
ver 2216
xia 2216
Tol@@ 2215
lii 2215
Din@@ 2213
kali 2211
Chel@@ 2209
1,2 2208
Radio 2208
ence 2207
uro 2206
Clark 2205
nigric@@ 2205
ulum 2205
pent@@ 2203
Jung 2202
18@@ 2201
Harvard 2201
Margaret 2201
acantha 2201
alt@@ 2200
Yo@@ 2199
ju@@ 2198
section 2198
1837 2197
eki 2197
oko 2195
CA@@ 2194
Herbert 2194
Inc. 2194
andi@@ 2194
gas@@ 2194
Hang 2193
uni 2193
Bis@@ 2192
Brit@@ 2192
aha 2192
CBS 2190
Leu@@ 2188
esp@@ 2188
lio 2187
nat@@ 2187
1833 2186
Sir 2186
Cameroon 2185
tz 2185
Shir@@ 2184
zh@@ 2184
Dod@@ 2182
Ich@@ 2182
ace 2182
perus 2182
1842 2181
Alabama 2181
Jerusalem 2180
Yemen 2180
Gau@@ 2179
Howard 2179
aena 2179
mati@@ 2178
oscel@@ 2177
ũi 2177
AD@@ 2175
Sicilia 2175
Gn@@ 2174
way 2174
Ball@@ 2173
IS 2172
rier 2171
45@@ 2170
ỳnh 2170
Alexandria 2169
Schleswig 2169
Sun@@ 2169
TS 2169
Whit@@ 2169
Estonia 2168
Gun@@ 2168
Xi@@ 2168
evich 2168
Bell@@ 2167
pec@@ 2167
pus@@ 2167
tiv@@ 2167
vo 2167
Dolich@@ 2166
Gul@@ 2166
Ivan 2165
aro@@ 2165
oder@@ 2164
ỏng 2164
125 2163
gay 2163
Chaet@@ 2162
Qatar 2162
tt@@ 2162
Ferdinand 2161
Praha 2161
Yas@@ 2161
zii 2161
opl@@ 2160
Europa 2159
ifera 2159
Hang@@ 2158
igu@@ 2158
Maroc 2156
GS 2155
ash 2155
Tang 2154
entris 2154
Rheinland 2153
Sierra 2153
Your 2153
court 2152
Villa 2148
ẽ 2148
Gang@@ 2147
Oxford 2147
1824 2146
Tortric@@ 2145
oro 2145
urai 2144
Black@@ 2143
psych@@ 2143
Asia 2141
Ju@@ 2141
mo 2141
Bell 2140
Ray 2140
ept@@ 2140
hip@@ 2140
oy 2140
Long@@ 2139
philus 2138
obus 2137
Sm@@ 2136
TT@@ 2136
Cab@@ 2135
Lig@@ 2135
Fle@@ 2134
Mill@@ 2134
Odon@@ 2134
trans@@ 2134
one@@ 2133
Vil@@ 2132
color 2132
internet 2132
1852 2129
33@@ 2129
athus 2129
lem@@ 2129
meth@@ 2128
ời 2128
Set@@ 2127
ellia 2126
Borneo 2124
Schw@@ 2124
iss 2124
ope 2124
via 2124
oensis 2123
old 2123
usi@@ 2122
culus 2121
vitamin 2121
Miller 2120
Nep@@ 2119
nghi@@ 2119
大@@ 2119
Hook 2118
elong@@ 2118
ọp 2118
z. 2117
chloride 2116
ns 2114
1843 2113
aru 2113
gol@@ 2113
mul@@ 2112
1839 2111
osidae 2111
0,5 2110
arum 2109
cz@@ 2109
Shu@@ 2108
Alex 2107
River 2106
amoto 2106
sun@@ 2106
Amazon 2105
Clinton 2105
Napoli 2105
UK 2105
line 2105
opy@@ 2105
ye@@ 2105
Aer@@ 2103
HD 2103
Tamil 2103
op 2103
Socorro 2102
NASA 2100
No 2100
Lov@@ 2099
Macro@@ 2099
Nec@@ 2099
bert 2099
brevi@@ 2099
inf@@ 2099
Dao 2098
Lis@@ 2098
row 2098
wer@@ 2098
more 2097
parvi@@ 2097
University 2096
15.@@ 2095
ban@@ 2095
Tunisia 2094
dy@@ 2094
sta@@ 2094
ado 2093
Grant 2092
Kry@@ 2092
yak@@ 2092
ail@@ 2091
lop@@ 2091
1832 2090
we 2090
Kag@@ 2089
Pti@@ 2089
Anime 2088
Jar@@ 2088
New@@ 2088
16.@@ 2086
Ali@@ 2086
Torino 2085
pia 2085
inter@@ 2084
108 2083
Walker 2083
din 2082
Up 2081
up 2081
igh@@ 2080
Champion 2079
Af@@ 2078
Victor 2078
xanth@@ 2078
Colorado 2077
dai 2077
Bog@@ 2076
onica 2076
Rub@@ 2075
Bir@@ 2074
Quercus 2074
Sci@@ 2074
Hyper@@ 2073
Arizona 2072
imi@@ 2072
Sax@@ 2071
Channel 2069
etti 2069
olim@@ 2069
but@@ 2068
ory 2068
Eric 2067
ỉ@@ 2067
acia 2066
logic 2066
neg@@ 2066
Kennedy 2065
enburg 2065
Ader@@ 2064
Cactaceae 2064
ith@@ 2064
ste@@ 2064
王 2064
Mordell@@ 2063
Thelypter@@ 2063
istena 2063
èm 2063
Ophi@@ 2062
anz@@ 2062
sko 2062
Hum@@ 2061
ý@@ 2060
Babylon 2058
Watson 2058
RA@@ 2057
hog@@ 2057
ider@@ 2057
Baden 2056
brach@@ 2056
omorpha 2056
1834 2055
cost@@ 2055
Hog@@ 2054
thes 2054
Eng@@ 2053
allia 2053
Clarke 2052
pyr@@ 2051
Vor@@ 2050
eron 2050
CC@@ 2049
sec@@ 2049
Alan 2047
Lô 2047
Scar@@ 2047
Č@@ 2047
1827 2045
Bau@@ 2045
aine 2045
any 2044
ishi 2043
robus@@ 2043
sz@@ 2043
inidae 2041
ulatus 2041
ruf@@ 2040
38@@ 2038
ylis 2038
Med@@ 2037
Spil@@ 2036
ợi 2036
Angola 2035
ık 2035
Chal@@ 2033
Guam 2033
eva 2033
Brian 2032
Constant@@ 2032
tenus 2031
Final 2030
Tin@@ 2030
dale 2030
omus 2030
1855 2029
Au@@ 2029
Twitter 2029
otar@@ 2029
Kab@@ 2028
Phi@@ 2027
oda 2027
Houston 2025
gig@@ 2024
Vis@@ 2022
ag 2022
emb@@ 2022
220 2021
Studio 2021
aster 2021
orph@@ 2021
18,@@ 2020
Glen@@ 2019
Yos@@ 2019
Son@@ 2018
air@@ 2017
Allium 2016
Uy@@ 2016
60@@ 2014
All@@ 2014
Ast@@ 2014
Vic@@ 2014
amia 2014
issima 2014
assa 2013
lb 2013
liv@@ 2013
pet@@ 2013
tà 2012
Mitt@@ 2011
side 2011
flu@@ 2010
yla 2010
Alo@@ 2009
Manila 2009
oka 2009
Tony 2008
eck 2008
High 2007
ej@@ 2007
Sumatra 2006
West@@ 2006
Fir@@ 2005
Kraków 2005
Coen@@ 2004
Gir@@ 2004
Ji@@ 2004
Land@@ 2004
acty@@ 2004
ovsky 2003
tula 2003
Franz 2002
Hun@@ 2002
Lec@@ 2002
aulis 2002
issus 2002
Pach@@ 2001
Tok@@ 2001
elii 2001
Hand@@ 1998
Lat@@ 1998
mannii 1997
Jane 1996
ei@@ 1996
First 1995
ciner@@ 1995
Tir@@ 1993
ka@@ 1993
39@@ 1992
Pictures 1992
atin 1992
gin@@ 1992
Zimbabwe 1991
otom@@ 1990
pan 1990
Ix@@ 1989
Ax@@ 1988
Byzantine 1988
Somme 1988
ison 1988
Salvia 1987
anidae 1987
eau 1986
Champ@@ 1985
able 1985
Wa@@ 1984
Ú@@ 1982
Nan@@ 1981
Phan@@ 1981
Mog@@ 1980
anta 1980
Coc@@ 1979
dur@@ 1979
Bruce 1978
Holstein 1978
Bush 1977
Is 1977
Kiev 1976
Lev@@ 1976
CIA 1975
Xbox 1975
pra@@ 1974
PA 1972
inosa 1971
Bit@@ 1970
Bangalore 1969
34@@ 1968
Cho@@ 1968
Esp@@ 1968
apura 1968
109 1967
Two 1967
ovi@@ 1967
fa 1966
omi 1966
Ig@@ 1965
Am 1964
Beatles 1964
oniaceae 1964
rel@@ 1964
450 1963
God@@ 1963
Guatemala 1963
Ish@@ 1963
minor 1963
nar@@ 1963
apic@@ 1962
{ 1962
Provence 1961
sima 1961
Chang 1960
Yen@@ 1960
ngu@@ 1960
Chim@@ 1959
aceus 1957
this 1957
obius 1956
Bang@@ 1955
amba 1955
leria 1955
rig@@ 1955
102 1954
Vietnam 1953
Fel@@ 1952
Moh@@ 1952
chen@@ 1952
Beach 1951
Yosh@@ 1950
CA 1949
IP 1949
1800 1948
auda 1948
Gur@@ 1947
Rhin@@ 1947
atsu 1947
17.@@ 1946
alc@@ 1945
Caesar 1944
Conn@@ 1944
alli@@ 1944
atis 1944
Palomar 1943
Pass@@ 1943
set@@ 1943
hen@@ 1942
ode 1942
1825 1941
Leyte 1941
Toronto 1941
eman 1941
pos 1941
ère 1941
NA 1940
Rat@@ 1940
Brunei 1939
Harrison 1939
acr@@ 1939
teri@@ 1939
Madonna 1938
asci@@ 1938
1831 1937
Gali@@ 1937
Kis@@ 1937
bec@@ 1937
DP 1936
Dance 1936
Epi@@ 1936
elius 1936
opoda 1936
Abu 1935
Gris@@ 1935
eza 1934
Dus@@ 1933
dán 1933
òm 1933
70@@ 1932
Bow@@ 1932
We 1932
Fur@@ 1931
Japan 1931
Jung@@ 1931
München 1931
eh 1931
Co 1930
Sap@@ 1930
esii 1930
Erica 1929
Il 1929
Maine 1929
Will 1929
gn@@ 1929
ouv@@ 1929
AR 1928
Jun@@ 1927
Network 1927
fil@@ 1926
glau@@ 1926
AI@@ 1925
Iso@@ 1925
Point 1925
Tab@@ 1925
chum 1925
Sed@@ 1924
AM@@ 1923
ES@@ 1923
Moselle 1922
Siberia 1922
25,@@ 1921
Jefferson 1921
plan@@ 1921
Alt@@ 1920
Tat@@ 1920
Pop@@ 1919
19,@@ 1918
CE@@ 1918
Cheil@@ 1918
Ni 1918
Tim 1918
beta 1918
insky 1918
nes 1918
pub@@ 1917
tari@@ 1917
Gaga 1916
àu 1916
Pedi@@ 1915
Wit@@ 1915
ellidae 1915
ks@@ 1915
Old 1914
Sis@@ 1914
24,@@ 1913
Fro@@ 1913
igo 1913
170 1912
adr@@ 1912
AP 1910
Van@@ 1909
Bran@@ 1908
This 1908
feld 1908
gram@@ 1908
lar 1908
Syr@@ 1907
ander 1907
test@@ 1907
Chir@@ 1906
Dj@@ 1904
japon@@ 1904
ò@@ 1903
Bun@@ 1902
Clem@@ 1902
UTC 1902
Bid@@ 1901
chol@@ 1901
lon@@ 1901
Ficus 1900
s. 1900
auc@@ 1899
kan 1899
ako 1898
Moscow 1897
SS@@ 1897
die 1896
wa@@ 1896
María 1895
Mozambique 1894
eský 1893
Roc@@ 1892
enth 1892
ż@@ 1892
Fu@@ 1890
ics 1890
ocentr@@ 1889
3000 1888
47@@ 1888
Vatican 1888
22@@ 1887
ée 1887
opis 1885
Bed@@ 1884
Valley 1884
ayi 1884
dro@@ 1883
hynchus 1883
Île 1883
Jong 1882
XV 1882
Turner 1881
omy@@ 1881
CT 1880
Sym@@ 1880
Wayne 1880
Hamp@@ 1879
eca 1879
AL@@ 1878
brac@@ 1878
Junior 1877
Liv@@ 1877
neutron 1876
Lasi@@ 1875
quar@@ 1875
Athens 1874
Ji 1874
lossa 1874
ped@@ 1873
tía 1873
Pop 1872
hydr@@ 1872
Ped@@ 1871
Vy@@ 1871
arium 1871
1828 1870
Trig@@ 1870
wo@@ 1870
ạy 1870
104 1869
Heinrich 1869
Kyoto 1869
rapper 1869
oo 1868
opti@@ 1868
worth 1867
ùn 1867
Spe@@ 1866
ariensis 1866
Mug@@ 1865
α 1865
Semi@@ 1864
Russell 1863
otica 1863
Arn@@ 1862
Johann 1862
nica 1862
LV 1861
Şanlıurfa 1861
Gran@@ 1860
Rau 1860
Anthony 1859
Quay 1859
4,5 1858
48@@ 1858
Bretagne 1858
Mey@@ 1858
ifolium 1858
May 1857
Nyc@@ 1857
Schum@@ 1857
ister@@ 1857
Rhap@@ 1856
aster@@ 1856
opes 1854
ospermum 1854
Digital 1853
Thy@@ 1853
amino 1852
angay 1852
ili 1852
robot 1852
Miss 1850
alg@@ 1849
isp@@ 1848
lé@@ 1848
Mario 1847
aa 1847
Beau@@ 1846
Crass@@ 1845
Tag@@ 1845
Thai 1845
ert 1845
tea 1845
tw@@ 1844
Prince 1843
spi@@ 1843
Tsu@@ 1842
bri@@ 1842
ise 1842
ắk 1842
Jam@@ 1841
1835 1840
Dro@@ 1840
Luxembourg 1839
Greene 1838
esa 1838
mand@@ 1838
30.000 1837
Lob@@ 1837
Wak@@ 1837
otro@@ 1837
species 1837
Jr 1836
alaria 1836
chan@@ 1836
ướm 1836
quad@@ 1835
Gym@@ 1833
LA 1833
Munich 1832
Gag@@ 1830
odactylus 1830
prot@@ 1830
ựng 1830
Be 1827
C1 1827
gensis 1827
20,@@ 1826
Blume 1826
ogn@@ 1826
François 1825
Wu 1825
estris 1825
ith 1824
26,@@ 1823
Shin 1823
ep 1823
istis 1823
pon@@ 1823
Award 1822
Barn@@ 1822
Potter 1822
ret@@ 1822
vus 1822
But@@ 1821
Leningrad 1821
Neg@@ 1821
Koch 1820
idi 1820
ina@@ 1820
kam@@ 1820
Next 1819
neum@@ 1819
novel 1818
ors 1818
Baz@@ 1817
Tillandsia 1817
cau@@ 1817
Hier@@ 1816
Land 1816
thy@@ 1816
Las 1815
laser 1814
Bil@@ 1813
aut@@ 1813
DJ 1812
Marvel 1812
Conus 1811
Than 1811
dioxide 1811
elus 1810
hon 1810
Road 1809
aja 1809
talis 1808
Sky@@ 1807
ale@@ 1807
asti@@ 1807
190 1806
Warner 1806
acer@@ 1805
Chin@@ 1804
Magn@@ 1804
Manga 1804
TC 1804
Eucalyptus 1803
Den@@ 1802
GB 1802
omer@@ 1802
Prom@@ 1801
bass 1801
bau@@ 1801
nham 1801
amph@@ 1800
carpa 1800
onal@@ 1800
Jacques 1799
cá@@ 1798
hop 1797
Roosevelt 1796
27,@@ 1795
Mikhail 1795
Jin 1794
Ner@@ 1794
Ryan 1794
Sus@@ 1794
ylon 1794
Nas@@ 1793
XVIII 1793
atica 1793
320 1792
Ambl@@ 1791
Gam@@ 1791
Tach@@ 1791
gun 1791
Echin@@ 1790
PS@@ 1790
Rab@@ 1790
cip@@ 1790
Golden 1789
Obama 1789
dot 1788
Rod@@ 1787
Nat@@ 1786
teria 1786
tus@@ 1786
yris 1786
Napoleon 1785
actus 1784
arra 1784
orn 1784
Zen@@ 1783
eth 1783
mun@@ 1783
18.@@ 1782
8.000 1782
Lau@@ 1782
Crot@@ 1781
Müll@@ 1781
23,@@ 1780
cher@@ 1780
hid@@ 1780
Wo@@ 1779
light 1779
1826 1778
Aus@@ 1778
Stein@@ 1778
bes@@ 1778
sit@@ 1778
poli@@ 1777
ana@@ 1776
bury 1776
zu 1776
Nob@@ 1775
Tul@@ 1775
adel@@ 1775
thium 1775
ud 1775
Aleksandr 1773
Christopher 1772
Ela@@ 1772
Net@@ 1772
ose 1772
rug@@ 1771
Miami 1770
acum 1770
enza 1770
Guadalcanal 1769
Phal@@ 1769
rix 1769
AB@@ 1768
Taliban 1768
AD 1767
Balkan 1767
CS@@ 1767
Scot@@ 1767
Hap@@ 1766
Philippe 1766
camera 1766
olia 1766
Morgan 1765
Samuel 1765
Mé@@ 1764
dri@@ 1764
pach@@ 1764
its 1763
metal 1763
not 1763
tium 1763
IM@@ 1762
ophyl@@ 1762
olepis 1761
Cardi@@ 1760
Chor@@ 1759
Raymond 1759
Ichneum@@ 1758
ST 1757
Iz@@ 1756
tella 1756
TO@@ 1755
ide@@ 1755
lie 1755
Hans 1754
apa 1753
chel@@ 1753
lim@@ 1753
Kevin 1751
inga 1751
ä@@ 1751
Ostr@@ 1749
Tw@@ 1749
ast 1749
lav@@ 1749
Banks 1748
SO@@ 1748
erus 1746
Jim 1745
cron@@ 1745
ès 1745
Pyrénées 1744
asp@@ 1744
oxy@@ 1744
rep@@ 1744
Bah@@ 1743
Nelson 1743
kur@@ 1743
onensis 1743
Khar@@ 1742
AIDS 1740
rap 1740
Maritime 1739
Dig@@ 1738
MI@@ 1738
Cant@@ 1737
glo@@ 1737
Good 1735
Spring 1735
ars 1735
bó@@ 1735
onius 1735
tab@@ 1735
Lucas 1734
aj 1734
³ 1734
alis@@ 1733
ocar@@ 1733
Wright 1732
ater@@ 1732
128 1731
Gas@@ 1731
Patrick 1730
Platy@@ 1730
alba 1730
ean 1730
olig@@ 1730
Rider 1729
esper@@ 1729
nan 1729
Ery@@ 1728
Play 1728
Venezia 1728
öy 1728
107 1727
20.@@ 1726
osis 1725
wh@@ 1724
Hur@@ 1723
idis 1723
1829 1722
Nova 1722
onlyinclude 1722
Pau@@ 1721
Santiago 1721
hip 1721
lon 1721
odia 1721
Mut@@ 1720
Nicholas 1720
Rec@@ 1720
amin 1720
aç@@ 1720
Ae@@ 1719
王@@ 1719
oper@@ 1718
AU 1717
Jaeger 1717
Lem@@ 1717
Warszawa 1717
house 1716
Kra@@ 1715
Rolling 1715
uru 1715
22,@@ 1714
50.000 1714
DE 1714
FI@@ 1714
urn@@ 1714
Blake 1713
Power 1713
kham 1713
mit@@ 1713
李@@ 1713
ander@@ 1712
cili@@ 1712
urga 1710
Bom@@ 1709
coma 1709
Heart 1708
IC 1708
Pog@@ 1708
aun@@ 1708
leg@@ 1708
ề@@ 1708
Yok@@ 1707
1820 1706
DA 1706
oan 1706
Xu 1705
crass@@ 1705
Lon@@ 1704
Wat@@ 1704
ń 1704
Bolsh@@ 1703
Carter 1703
RO@@ 1703
inium 1703
kei 1703
ting 1703
Alex@@ 1702
Grim@@ 1702
Lamp@@ 1701
ault 1701
gens 1701
Aires 1700
Myan@@ 1700
agr@@ 1700
cha@@ 1700
yrus 1698
Garonne 1697
Men 1697
neri 1697
90@@ 1696
Melbourne 1696
actylus 1696
may@@ 1696
Darwin 1695
Hak@@ 1695
Robin 1695
Sec@@ 1695
olis 1695
sac@@ 1695
acus 1694
affinis 1693
lich@@ 1693
odrom@@ 1693
rap@@ 1693
22.@@ 1692
Band@@ 1692
Nord@@ 1692
super@@ 1692
usta 1692
Batman 1690
Rud@@ 1690
Hag@@ 1689
Son 1689
hal 1689
21.@@ 1688
Buenos 1688
1810 1687
Eup@@ 1687
ran 1687
rei 1687
anch@@ 1686
edo 1686
7.000 1685
isha 1685
ẫu 1685
Hit@@ 1684
acumin@@ 1684
foli@@ 1684
Bundesliga 1683
Eul@@ 1683
âng 1683
Barbara 1682
hynch@@ 1682
phr@@ 1682
106 1681
115 1681
Cruz 1680
RI@@ 1680
anii 1680
gem@@ 1680
Boh@@ 1679
las 1679
uyến 1679
War 1678
asu 1678
AF@@ 1676
Endom@@ 1676
Fantasy 1676
Levi 1676
Somalia 1676
benz@@ 1676
cid@@ 1676
comp@@ 1676
etum 1676
ling@@ 1676
na@@ 1676
sag@@ 1676
Id@@ 1675
Mart@@ 1675
103 1673
Namibia 1673
gu 1673
stach@@ 1673
Genti@@ 1672
Kul@@ 1672
Ontario 1672
lav 1672
tae 1672
Shah 1671
Dou@@ 1670
lida 1670
urg@@ 1670
Lei@@ 1669
Lombardia 1669
yros 1669
Eil@@ 1668
Hin@@ 1668
Cun@@ 1667
ave 1667
bir@@ 1667
bula 1667
ostr@@ 1667
Mac 1666
ding 1666
oki 1666
agro@@ 1665
sonia 1665
ā 1665
Bruch@@ 1664
Duy@@ 1664
Nebraska 1664
Santo 1664
「 1664
Gold@@ 1663
MP 1663
eme 1663
Harris 1662
Home 1662
pol 1662
aco 1661
ark@@ 1661
esis 1661
win 1661
CO 1660
Dum@@ 1660
oke 1660
ont@@ 1660
sson 1660
trac@@ 1660
wen@@ 1660
」 1660
Dact@@ 1659
Inter 1659
model 1659
Madison 1658
uri@@ 1658
Scinc@@ 1657
hin 1657
Adi@@ 1656
Sai@@ 1656
argent@@ 1656
n.@@ 1656
Bath@@ 1655
Bra@@ 1655
Gle@@ 1655
porus 1655
Tiger 1654
kab@@ 1654
key 1654
ń@@ 1654
Rot@@ 1653
Assy@@ 1652
cidae 1652
Tennessee 1651
Tokugawa 1651
Gabriel 1650
Latvia 1650
Sou@@ 1650
othal@@ 1650
Einstein 1649
Lord 1649
Sad@@ 1649
Lyon 1648
Sant@@ 1648
aspis 1648
tre@@ 1648
air 1647
anos 1647
w. 1647
ayat 1646
ias 1646
Oh@@ 1645
Lith@@ 1644
agara 1644
Ivan@@ 1643
Milano 1643
Ralph 1643
Lup@@ 1642
O. 1642
Zambia 1641
nati@@ 1641
tag@@ 1640
Adolf 1639
king 1639
} 1638
Solanum 1637
ịnh 1637
oliv@@ 1636
111 1634
fili@@ 1634
Buch@@ 1632
Him@@ 1632
Green@@ 1631
Web 1631
ectus 1631
Cous@@ 1630
Marcus 1630
poda 1630
Alb@@ 1629
Sankt 1629
actyla 1629
ocol@@ 1629
ữu 1629
113 1628
ston 1628
Kō@@ 1627
lex 1626
lod@@ 1626
tz@@ 1626
ser 1625
tul@@ 1625
127 1624
China 1624
Orch@@ 1623
cun@@ 1623
radi@@ 1623
Ama@@ 1622
Jimmy 1622
Kepler 1622
maculata 1622
Mall@@ 1621
Tric@@ 1621
Kay@@ 1620
Ray@@ 1620
bón 1620
yer 1620
Cul@@ 1619
Tran@@ 1618
ado@@ 1618
chen 1618
mont 1618
zar@@ 1618
jav@@ 1617
proton 1617
sl@@ 1617
eana 1615
that 1615
Xy@@ 1614
eb 1614
ș@@ 1614
Gö@@ 1613
Luis 1613
Ves@@ 1613
rem@@ 1613
240 1612
Post 1612
Sher@@ 1612
pac@@ 1612
Association 1611
fre@@ 1611
sha 1611
Min 1610
Sek@@ 1609
Story 1609
bu 1609
aug@@ 1608
uga 1608
Fort 1607
ASEAN 1606
Uzbekistan 1606
Sivas 1605
Sper@@ 1605
Orange 1604
Sharp 1604
Syl@@ 1604
brachy@@ 1604
BC 1603
Maya 1603
Og@@ 1602
1500 1601
46@@ 1601
Cog@@ 1601
ID 1601
IBM 1600
then 1600
tion 1600
Mete@@ 1599
emp@@ 1599
mang@@ 1599
oon 1599
sing@@ 1599
stone 1598
win@@ 1598
yar@@ 1598
19.@@ 1597
dil@@ 1597
eland 1597
pH 1597
Kel@@ 1596
Type 1596
qui@@ 1596
Medvedev 1595
far@@ 1595
leb@@ 1595
losa 1594
Bern@@ 1593
Game@@ 1593
Megal@@ 1593
Neo@@ 1593
Sea 1592
ostic@@ 1592
ord 1591
pod@@ 1591
Polyg@@ 1590
ings 1590
ostris 1590
wi 1590
IUCN 1589
X. 1589
ds 1589
edia 1589
Paraguay 1588
Sang@@ 1588
australis 1588
his 1588
lax 1588
phth@@ 1588
CP@@ 1587
Manuel 1587
ao@@ 1587
gor@@ 1587
28,@@ 1586
Barr@@ 1586
Stor@@ 1586
Witt@@ 1586
egia 1586
Juventus 1585
ery 1585
1.500 1584
1806 1584
Apollo 1584
MO@@ 1584
RE@@ 1584
anti 1584
lob@@ 1584
55@@ 1583
Charlie 1583
Mobile 1583
lus@@ 1583
200.000 1582
A1 1582
formes 1582
Kak@@ 1581
hydrox@@ 1581
panch@@ 1581
Ou@@ 1580
ort 1580
oster@@ 1580
Vincent 1579
sut@@ 1579
Hindu 1578
area 1578
ism 1578
syn@@ 1578
eriana 1577
ust 1577
21,@@ 1576
TVB 1576
lag@@ 1576
onyx 1576
Fil@@ 1575
Nevada 1575
azi 1575
100@@ 1574
viol@@ 1574
Carey 1573
Afr@@ 1572
ame@@ 1572
low@@ 1572
orientalis 1571
time 1571
AN 1569
Calais 1569
yle 1569
Deb@@ 1568
Netflix 1568
Newport 1568
tot@@ 1568
210 1567
Haiti 1567
Jura 1567
jan@@ 1567
thoph@@ 1567
Typh@@ 1566
hormone 1565
nucle@@ 1565
ulin 1565
Cook 1564
Festival 1564
pid 1564
NT@@ 1563
Sarah 1563
otte 1563
CC 1562
Gad@@ 1562
file 1562
pınar 1562
tem 1562
André 1561
elma 1561
Did@@ 1560
Saf@@ 1560
Z. 1560
camp@@ 1560
1.5@@ 1559
ated 1559
gro@@ 1559
rod@@ 1559
.C. 1558
Edo 1558
emer@@ 1558
medi@@ 1558
cir@@ 1557
cot@@ 1557
Pays 1556
Pyotr 1556
å@@ 1556
aurus 1555
Brom@@ 1554
Ja@@ 1554
alo@@ 1554
uli 1554
AG@@ 1553
Boul@@ 1553
Ful@@ 1553
Um@@ 1552
gos@@ 1552
kh 1552
ograd 1552
65@@ 1551
Chr@@ 1551
TE@@ 1551
yana 1551
40.000 1549
Fest@@ 1549
Sai 1549
Ngu@@ 1548
abi 1548
1801 1547
cord@@ 1547
odor 1547
shū 1547
var. 1547
Chr. 1546
â@@ 1546
ŏ@@ 1546
Boys 1545
Budapest 1545
idia 1545
ī@@ 1545
Ł@@ 1545
IP@@ 1543
Mass@@ 1543
yon@@ 1543
Han 1542
Pis@@ 1542
jazz 1542
mani 1542
pon 1541
wang 1540
Helic@@ 1539
tit@@ 1539
Fabr@@ 1538
agar 1538
ostig@@ 1538
OH 1537
Santos 1537
atis@@ 1537
plus 1537
Brandenburg 1536
Key 1536
illy 1536
mé@@ 1536
Roy 1535
diesel 1535
Elm@@ 1534
Intel 1534
Pec@@ 1534
XVII 1534
bot@@ 1534
paris 1534
Carthage 1533
arp@@ 1533
itch 1533
omb@@ 1532
1812 1531
EC 1531
HQ 1531
IF@@ 1531
inella 1531
Jason 1530
Zor@@ 1530
base 1530
Aqu@@ 1529
1789 1528
dos 1528
Sen 1527
Andy 1526
Bismarck 1525
Glo@@ 1525
Kaw@@ 1525
Wes@@ 1525
evik 1525
tepe 1525
etis 1523
mon 1523
Dry@@ 1522
Log@@ 1522
lik@@ 1522
FF 1521
Maryland 1521
Ton@@ 1521
squ@@ 1521
Ka 1520
Kane 1520
clav@@ 1520
hiro 1520
orth@@ 1520
Tap@@ 1519
Y. 1519
ono 1519
Arena 1518
avan 1518
ott 1518
Clar@@ 1517
Oct@@ 1517
Silva 1517
h. 1517
Amsterdam 1516
MW 1516
1802 1515
Aragon 1515
Kelly 1515
Light 1515
Saône 1515
ader 1515
dav@@ 1515
montana 1515
Like 1514
Gram@@ 1513
System 1513
What 1513
Gordon 1512
Leo 1512
Malawi 1512
Steven 1512
cro@@ 1512
1.4@@ 1511
112 1511
APG 1511
Koz@@ 1511
onum 1511
2.0@@ 1509
Artem@@ 1509
Bhutan 1509
Toy@@ 1508
æ@@ 1508
ợp 1508
49@@ 1507
Cou@@ 1507
big@@ 1507
Jur@@ 1506
Alc@@ 1505
Card@@ 1505
Dream 1504
cephalus 1502
toa 1502
Hus@@ 1501
Pan 1501
Walt 1501
135 1500
Dim@@ 1500
Po 1500
inii 1500
rog@@ 1500
Ut@@ 1499
oug@@ 1499
Hoff@@ 1498
Neur@@ 1498
fe@@ 1498
you 1498
Oz@@ 1497
andi 1497
rad@@ 1497
Universal 1495
plaz@@ 1495
.S. 1494
AL 1494
Habsburg 1494
Kuwait 1494
Mau@@ 1494
1821 1493
44@@ 1493
Nick 1493
igata 1493
zu@@ 1493
ABC 1492
DI 1492
jeunea 1492
1.6@@ 1491
Sig@@ 1491
aan 1491
152 1490
Honduras 1490
Schiz@@ 1490
atic 1490
yri@@ 1490
aman@@ 1488
Idi@@ 1487
ệc 1487
Ross 1486
Sahara 1486
ail 1486
elec@@ 1486
Leon@@ 1485
Sac@@ 1485
aban 1485
tes@@ 1485
Dark 1484
MS@@ 1484
pig@@ 1484
ave@@ 1483
isc@@ 1482
tak@@ 1482
fon@@ 1481
web@@ 1481
erman@@ 1480
Fon@@ 1479
Luke 1479
Salvador 1479
lot@@ 1479
rey 1479
Delhi 1478
Euph@@ 1478
German 1478
Kod@@ 1478
Res@@ 1478
las@@ 1478
stan 1478
23.@@ 1477
how 1477
tiana 1477
Key@@ 1476
State 1476
VI@@ 1476
loan 1476
uf@@ 1476
‎ 1476
Nev@@ 1475
Ob@@ 1475
Row@@ 1475
frag@@ 1474
Eum@@ 1473
Laur@@ 1472
rosa 1472
Gyeong@@ 1471
Benjamin 1470
abad 1470
cam@@ 1470
clar@@ 1470
AV@@ 1469
Đ 1469
ER@@ 1468
Sent@@ 1468
Timor 1468
kir@@ 1468
olor 1468
29,@@ 1467
Lak@@ 1467
cell@@ 1467
Pachy@@ 1466
pall@@ 1466
uria 1466
fas@@ 1465
500.000 1464
Brachy@@ 1464
Giovanni 1463
Hamburg 1463
inda 1463
ballad 1462
Sit@@ 1461
gium 1461
lera 1461
let@@ 1461
è@@ 1461
Spir@@ 1460
af 1460
Dan 1459
ther 1459
cryp@@ 1458
dent@@ 1458
eff@@ 1458
peti@@ 1458
vor@@ 1458
ago@@ 1457
CI@@ 1456
Ia 1456
Seg@@ 1456
Mariana 1455
Project 1455
plic@@ 1455
1,3 1454
Arach@@ 1454
Stap@@ 1454
cy 1453
opterus 1453
yeon 1453
75@@ 1452
Cru@@ 1452
Fuj@@ 1452
Jo 1452
manni 1452
Venice 1451
let 1451
ocarp@@ 1451
rugin@@ 1451
ş@@ 1451
Meli@@ 1449
Philip@@ 1449
Piedmont 1449
Vienna 1449
Yuri 1448
mak@@ 1448
750 1447
Abraham 1447
Agri@@ 1447
Allo@@ 1447
ical 1447
phara@@ 1447
rus 1447
230 1446
Anom@@ 1446
Gek@@ 1446
Lennon 1446
Stewart 1445
dance 1445
Amar@@ 1444
Clo@@ 1444
iPhone 1444
vers@@ 1444
Zero 1443
Caroline 1442
Cha@@ 1442
Eury@@ 1442
Forbes 1442
Montenegro 1442
Oliver 1442
Sub@@ 1442
ác@@ 1442
1,8 1441
Andr@@ 1441
anger 1441
sho@@ 1441
ustr@@ 1441
Augustus 1439
Lun@@ 1439
Murray 1439
Bohemia 1438
Kastamonu 1438
Tham@@ 1438
Wolf 1438
acon@@ 1438
arti@@ 1438
erul@@ 1438
Boc@@ 1437
Now@@ 1436
Samoa 1436
Foundation 1435
Thr@@ 1435
Tottenham 1435
itter 1435
Leon 1434
Miz@@ 1434
Titan 1434
To 1434
forme 1434
onne 1434
pas@@ 1434
Dong 1433
Paras@@ 1433
Ö@@ 1433
Jag@@ 1432
Luther 1432
Ptolemaios 1432
els@@ 1432
Christ 1431
Domin@@ 1431
Jay 1431
Office 1431
PO@@ 1431
chip 1431
fasciatus 1431
Alpha 1429
Tru@@ 1429
Vern@@ 1429
arus 1429
ü@@ 1429
iti 1428
ator@@ 1427
Monte 1426
Wood 1425
orpha 1425
ë@@ 1425
1,6 1424
144 1424
Art 1423
Robinson 1423
ango 1423
see 1423
Hot@@ 1422
Tad@@ 1422
That 1422
salis 1422
Emb@@ 1421
Ras@@ 1421
fa@@ 1421
August 1420
ISO 1420
Nixon 1420
Singles 1420
Wor@@ 1420
dere 1420
Corse 1419
igny 1419
Dipl@@ 1418
Sco@@ 1418
Uli@@ 1418
hinus 1418
oride 1418
Line 1417
ante@@ 1417
blog 1417
Mid@@ 1416
AK 1415
LC 1415
iku 1415
ones 1415
Scy@@ 1414
ask@@ 1414
irus 1414
lev@@ 1414
Cler@@ 1413
Frankfurt 1413
dita 1413
± 1413
ë 1413
000.000 1412
280 1412
Ole@@ 1412
Out 1412
abra 1412
zh 1411
ören 1411
Div@@ 1410
Junc@@ 1410
ble@@ 1410
Way 1409
Austin 1408
Shaw 1407
immel 1407
plum@@ 1407
Seattle 1406
anol 1406
sos@@ 1406
He 1405
tua 1405
Ž@@ 1405
Ses@@ 1404
eville 1404
ulu 1404
Stu@@ 1403
unga 1403
census 1402
Evans 1401
anthe 1401
MP@@ 1400
Nicaragua 1400
audi@@ 1400
tr 1400
vid@@ 1400
TT 1399
ats 1399
ayo 1399
avius 1398
nad 1398
nom 1398
Phoenix 1397
Valencia 1397
gil@@ 1396
Castro 1395
Sports 1395
bak@@ 1395
fin@@ 1395
Ev@@ 1394
Louisiana 1394
Yar@@ 1393
ime 1393
Gos@@ 1392
Graham 1392
Thal@@ 1392
Wol@@ 1391
out@@ 1391
Trinidad 1390
avi 1390
ellip@@ 1390
ris@@ 1390
speci@@ 1390
Epic@@ 1389
Jang 1389
Matthew 1389
Roman 1389
fat 1389
iec 1389
lab@@ 1389
1805 1388
Michel 1388
bet@@ 1388
Eleu@@ 1387
Kamen 1387
ike 1387
odor@@ 1387
enth@@ 1386
Boy@@ 1385
Castel@@ 1385
pun@@ 1385
trach@@ 1385
Yel@@ 1384
cover 1384
esh 1384
Fernando 1383
Lou@@ 1383
Sant 1383
aren@@ 1383
Eg@@ 1382
Global 1382
Hey@@ 1382
Women 1382
LO@@ 1381
Wii 1381
agon@@ 1381
hex@@ 1381
Central 1380
330 1379
Lub@@ 1379
ante 1379
ies 1379
ticul@@ 1379
5000 1377
ares 1377
back 1377
imi 1377
nier 1377
org@@ 1377
Lic@@ 1376
abe 1376
né 1376
123 1375
Eus@@ 1375
Ken 1375
Saur@@ 1375
oscor@@ 1375
Charlotte 1374
Christ@@ 1374
ME@@ 1373
Florence 1372
uba 1372
Newcastle 1371
Scap@@ 1371
Square 1371
kom@@ 1371
topo@@ 1371
án@@ 1371
DF 1370
Trans@@ 1370
obia 1370
1819 1369
Calyp@@ 1369
ando 1369
phis 1369
resc@@ 1369
19@@ 1368
SI 1368
doc@@ 1368
Kap@@ 1367
Maur@@ 1367
gram 1367
Cairo 1366
Jacob 1366
Nokia 1366
ười 1366
57@@ 1365
ges 1365
nano 1365
omo 1365
AI 1364
Berg@@ 1364
Cameron 1364
Las@@ 1364
Stockholm 1364
oby 1364
Denis 1363
Mord@@ 1363
Shō@@ 1363
atar 1363
jam@@ 1363
lès 1363
net@@ 1363
rom 1363
ím 1363
inopolis 1362
isch 1362
phone 1362
soi 1362
Chap@@ 1361
Lili@@ 1361
Warren 1361
ers@@ 1361
54@@ 1360
Janeiro 1360
Kang 1360
Wer@@ 1360
iOS 1360
Isch@@ 1359
mes 1359
onic 1359
ticum 1359
→ 1359
Athena 1358
Pak@@ 1358
RS 1358
eu 1358
occident@@ 1358
phar@@ 1358
260 1357
aenidae 1357
meri 1357
ochr@@ 1357
Anton@@ 1356
Bour@@ 1356
Fus@@ 1356
kil@@ 1356
mar 1356
nium 1356
ont 1356
r. 1356
Acr@@ 1355
Brid@@ 1355
Rum@@ 1355
alla 1355
email 1354
fen@@ 1354
occ@@ 1354
ren 1354
trix 1354
Ă@@ 1354
Bi 1353
Bo 1353
Brah@@ 1353
aire 1353
alpha 1353
eira 1352
kard 1352
lec@@ 1352
Ho 1351
Ha 1350
Psil@@ 1350
Stach@@ 1350
TA 1350
ought 1350
zen 1350
BA 1349
Lo 1349
spin 1349
tif@@ 1349
wald 1349
1,4 1348
1.7@@ 1348
Cad@@ 1348
PE@@ 1348
lov 1348
ops@@ 1348
Kut@@ 1347
Stan@@ 1347
ters 1347
1818 1346
Iberia 1346
lau 1346
sex@@ 1346
15.000 1345
Cus@@ 1345
enne 1345
201@@ 1344
Cic@@ 1344
Luzon 1344
alar@@ 1344
kel@@ 1344
riv@@ 1344
sand@@ 1344
Eure 1343
Linnaeus 1343
Minas 1343
oj@@ 1343
utus 1343
vern@@ 1343
Et@@ 1342
Sik@@ 1342
Stig@@ 1342
ret 1342
1.8@@ 1341
Bahrain 1341
Lach@@ 1341
ment 1341
Fiji 1340
Gab@@ 1340
Works 1340
aye 1340
brom@@ 1340
ete 1340
neur@@ 1340
osaur@@ 1340
CPU 1339
Cath@@ 1339
eles 1339
peru@@ 1339
trat 1339
erg@@ 1338
etto 1338
Dixon 1337
Kentucky 1337
aza 1337
trunc@@ 1337
43@@ 1336
Lot@@ 1336
Montgomery 1336
dorf 1336
Agro@@ 1335
Daily 1335
Maxim@@ 1335
Raw 1334
Say@@ 1334
Was@@ 1334
cep@@ 1334
Cephal@@ 1333
Mali 1333
Sound 1333
diana 1333
yun@@ 1333
124 1332
Gothic 1332
King@@ 1332
Sarawak 1332
Tik@@ 1332
alpin@@ 1332
cinia 1332
1,1 1331
Airways 1331
Corn@@ 1331
1815 1330
Wel@@ 1330
itar@@ 1330
ores 1330
ovice 1330
117 1329
McCartney 1329
O2 1329
ardi 1329
them@@ 1329
Palau 1328
ano@@ 1328
unk@@ 1328
BTS 1327
Duc@@ 1327
Mecklenburg 1327
Nikolai 1327
Stanley 1327
aum 1327
ović 1327
ume 1327
Bernard 1326
Lad@@ 1326
Od@@ 1326
Württemberg 1326
biaceae 1326
rov@@ 1326
Loc@@ 1325
ror@@ 1325
Sherman 1324
opp@@ 1324
pov 1324
Proc@@ 1323
Strand 1323
ses 1323
Mitchell 1322
App@@ 1321
Atlanta 1321
Hav@@ 1321
Slav 1321
ento 1321
Pep@@ 1320
bey 1320
155 1319
Batt@@ 1319
Comp@@ 1319
Cyan@@ 1319
Georges 1319
Jonathan 1318
art@@ 1318
gul@@ 1318
Aug@@ 1317
Fed@@ 1317
Poec@@ 1317
icius 1317
CEO 1316
Dil@@ 1316
FM 1316
RAM 1316
Tō@@ 1316
Kyr@@ 1315
Matt 1315
Wild 1315
eil@@ 1315
has 1315
letes 1315
sius 1315
uncul@@ 1315
Ô@@ 1315
Byr@@ 1314
uth 1314
Berber@@ 1313
com 1313
hop@@ 1313
nin 1313
ost 1313
58@@ 1312
Chan 1312
nd@@ 1312
Biał@@ 1311
End 1311
Riv@@ 1311
iji 1311
off@@ 1311
qui 1311
ventr@@ 1311
pyg@@ 1310
Johannes 1309
Sparta 1309
eter@@ 1309
Fern@@ 1308
Nord 1308
Rhodod@@ 1308
Rwanda 1308
Virgin 1308
« 1308
Songs 1307
ces@@ 1307
ely 1306
sig@@ 1306
270 1305
Hunter 1305
Oklahoma 1305
adensis 1305
i.@@ 1305
sign@@ 1305
igi@@ 1304
ĩa 1304
Chryso@@ 1303
aver@@ 1303
skii 1303
Book 1302
leyi 1302
post@@ 1302
vin 1302
evo 1301
rio 1301
Flor@@ 1300
Genève 1300
Psych@@ 1300
ann 1300
cle@@ 1300
pri@@ 1300
Justin 1299
Sr@@ 1299
axis 1299
ches 1298
less 1298
sik@@ 1298
7,5 1297
Anc@@ 1297
Calam@@ 1297
126 1296
Chrom@@ 1296
Greenland 1296
Hay 1296
ilio 1296
Charente 1295
Gold 1295
Miguel 1295
RT@@ 1295
cheon 1295
England 1294
crist@@ 1294
ikaze 1293
Ain 1292
Dasy@@ 1292
andro@@ 1292
my 1292
gene 1291
Gilbert 1290
Mysore 1290
Slo@@ 1290
ople@@ 1290
trum 1290
1814 1289
Danube 1289
chor@@ 1289
ectes 1289
1804 1288
Germain 1288
Ron 1288
USA 1288
Urban 1288
1822 1287
Dub@@ 1287
Benn@@ 1286
CCD 1286
£ 1286
Scheff@@ 1285
Scho@@ 1285
ayan 1285
etti@@ 1285
urani 1285
ères 1285
1823 1284
pum@@ 1284
Weber 1283
sap@@ 1283
175 1282
Engl@@ 1282
Film 1282
Online 1282
RC 1282
Tos@@ 1282
eder@@ 1282
SN@@ 1281
emat@@ 1281
ikawa 1281
mec@@ 1281
Stalingrad 1280
allus 1280
lard 1280
mum 1280
Delta 1279
atrix 1279
116 1278
Airbus 1278
boat 1278
121 1277
Petersburg 1277
Pras@@ 1277
Press 1277
xis 1277
122 1276
Song@@ 1276
ants 1276
endr@@ 1276
mp@@ 1276
war 1276
etidae 1275
bac@@ 1274
anag@@ 1273
aup@@ 1273
oun 1273
1803 1272
rur@@ 1272
ượ@@ 1272
ingia 1271
ix 1271
Ling@@ 1270
toni 1270
tsch@@ 1270
Claude 1269
Hermann 1269
foot 1269
nm 1269
Dow@@ 1268
lax@@ 1268
rea 1268
ẵn 1268
Society 1267
Utah 1267
ửi 1267
Express 1266
Olig@@ 1266
adu@@ 1266
ellar@@ 1266
fe 1266
oneta 1266
Ts@@ 1265
Vig@@ 1265
cz 1265
www.@@ 1265
Sto@@ 1264
ass 1264
iken 1264
Bosnia 1263
Istanbul 1263
Jose 1263
pubes@@ 1263
stan@@ 1263
Baby 1262
Who 1262
otrop@@ 1262
550 1261
acan@@ 1261
major 1261
ław@@ 1261
Param@@ 1260
amma 1260
que@@ 1260
Actin@@ 1259
Weekly 1259
lock 1259
5,5 1258
Campo@@ 1258
Mars 1258
Stevens 1258
ations 1258
etz@@ 1258
kow@@ 1258
ru 1258
thera 1258
Rox@@ 1257
ylla 1257
BO@@ 1256
sph@@ 1256
Gry@@ 1255
Vegas 1255
fes@@ 1255
nes@@ 1255
oidea 1255
Copa 1254
Scr@@ 1254
Sega 1254
Sky 1254
stro@@ 1254
Julia 1253
adn@@ 1253
bach@@ 1253
elt 1253
ket@@ 1253
montan@@ 1253
mu 1253
Dru@@ 1252
Jun 1252
Mom@@ 1252
Rog@@ 1252
Azur 1251
Len@@ 1251
NE@@ 1251
ouk 1251
Ż@@ 1251
End@@ 1250
HT@@ 1250
Louise 1250
Vorpommern 1250
abus 1250
aira 1250
grap@@ 1250
GR@@ 1249
Mr. 1249
Pas 1249
eller 1249
hon@@ 1249
Haz@@ 1248
NG 1248
Tour@@ 1248
kim@@ 1248
obi 1248
文@@ 1248
114 1247
Dir@@ 1247
Zh@@ 1247
lun@@ 1247
tra@@ 1247
uel@@ 1247
Hydr@@ 1246
Just 1246
olog@@ 1246
tei 1246
Polyn@@ 1245
Pun@@ 1245
Ted 1245
mea 1245
thal@@ 1245
β 1245
Yokohama 1244
zo@@ 1244
天@@ 1244
56@@ 1243
CO2 1243
INSEE 1243
Oise 1243
WC 1243
XP 1243
Zhu@@ 1243
ieri 1243
ilo 1243
oste@@ 1243
Master 1242
Oh 1242
Suzuki 1242
diidae 1242
rid@@ 1242
1813 1241
Fred 1241
Ster@@ 1241
Wall 1241
Ş@@ 1241
Jeffrey 1240
Nefer@@ 1240
hiz@@ 1240
ór@@ 1240
Panzer 1239
Ti 1239
Uni@@ 1239
him 1239
118 1238
145 1238
AG 1238
Ever@@ 1238
Himalaya 1238
Leone 1238
Tac@@ 1238
hypo@@ 1238
sburg 1238
Top@@ 1237
fide 1237
woo 1237
ịp 1237
1817 1236
Earth 1236
def@@ 1236
hil@@ 1236
Fabaceae 1235
Gamb@@ 1235
Ori@@ 1235
Phot@@ 1235
pep@@ 1235
SE 1234
enger 1234
spic@@ 1234
Blan@@ 1233
Chase 1233
Churchill 1233
Pyc@@ 1233
Sainte 1233
Sn@@ 1233
WHO 1233
公 1233
Adri@@ 1232
Boris 1232
Kop@@ 1232
jan 1232
Xing@@ 1231
ushima 1231
John@@ 1230
Manhattan 1230
Tig@@ 1230
edr@@ 1230
nagar 1230
ovic 1230
Ð@@ 1230
ár@@ 1230
ạ@@ 1230
Birmingham 1229
Koh@@ 1229
Raf@@ 1229
Ris@@ 1229
day 1229
Chry@@ 1228
Gibraltar 1228
Monroe 1228
Vul@@ 1228
tric 1228
» 1228
Johnny 1227
Maurice 1227
czy@@ 1227
Thun@@ 1226
aia 1226
anom@@ 1226
ocr@@ 1226
Zyg@@ 1225
rons 1225
try 1225
Cher 1224
hara 1224
pres@@ 1224
wak@@ 1224
zer@@ 1224
Rhine 1223
Space 1223
adia 1223
fum@@ 1223
sic@@ 1223
ves 1223
sak@@ 1222
then@@ 1222
Opera 1221
Wy@@ 1221
nch@@ 1221
neb@@ 1221
other@@ 1221
Back 1220
CV@@ 1220
een 1220
eer 1220
med@@ 1220
wel@@ 1220
yu@@ 1220
Rib@@ 1219
bis 1219
uno 1219
Neu@@ 1218
Wed@@ 1218
Yan@@ 1218
atidae 1218
intermedia 1218
tier 1218
Anhalt 1217
Last 1217
Rosa 1217
aw 1216
gang 1216
1.9@@ 1215
Arts 1215
Sailor 1215
Sl@@ 1215
sel 1215
Fire 1214
PL@@ 1214
bank 1214
logo 1214
Andre@@ 1213
Iron 1213
Mozart 1213
Amen@@ 1212
PT@@ 1212
pend@@ 1212
Dallas 1211
Tox@@ 1211
Vancouver 1211
izu 1211
má@@ 1211
onus 1211
Ed 1210
Science 1210
129 1209
Dylan 1209
Putin 1209
otri@@ 1209
Aut@@ 1208
Asian 1207
Edwards 1207
ids 1207
1,7 1206
Cly@@ 1206
JT@@ 1206
Manche 1206
dh@@ 1206
yevich 1206
ays 1205
begin 1205
caud@@ 1205
wich 1205
Dead 1204
ener 1204
olle 1204
troph@@ 1204
zy 1204
165 1203
Carl@@ 1203
Porto 1203
Yu 1203
kai 1203
1775 1202
Fraser 1202
Tch@@ 1202
ley@@ 1202
Billy 1201
Sah@@ 1201
Syng@@ 1201
củ@@ 1201
wer 1201
Pink 1200
cus@@ 1200
ner@@ 1200
Blo@@ 1199
SBS 1199
Uttar 1199
iae 1199
mix@@ 1199
sat@@ 1199
hyper@@ 1198
64@@ 1197
AB 1197
kaya 1197
pet 1197
stric@@ 1197
ward 1197
Cooper 1196
mut@@ 1196
ushi 1196
6,5 1195
EX@@ 1195
Prix 1195
atti 1195
Ann 1194
Nymph@@ 1194
Penn@@ 1194
cali@@ 1194
star@@ 1194
undi@@ 1194
53@@ 1193
67@@ 1193
Sing@@ 1193
cari@@ 1193
egr@@ 1193
later@@ 1193
zen@@ 1193
Marc 1192
Silesia 1192
arab@@ 1192
dei 1192
ư@@ 1192
Kem@@ 1191
http 1191
kun@@ 1191
igi 1190
Salix 1189
este 1189
stig@@ 1189
­ 1189
č 1189
1788 1188
IL 1188
eka 1188
rostr@@ 1188
view 1188
Forest 1187
Kent 1187
Thompson 1187
Wh@@ 1187
başı 1187
rang 1187
Çorum 1187
,@@ 1186
68@@ 1186
Gary 1186
H2O 1186
opotam@@ 1186
suki 1186
Sofia 1184
aman 1184
arms 1184
ingo 1184
sam 1184
studio 1184
FK 1183
Selen@@ 1183
Khr@@ 1181
Phil 1181
Yer@@ 1181
ight 1181
orius 1181
oux 1181
rus@@ 1181
tiaceae 1181
Dob@@ 1180
Gabon 1180
ovi 1180
tetr@@ 1180
Gaon 1179
Kızıl@@ 1179
Medi@@ 1179
Brad@@ 1178
Choi 1178
ted 1178
tir@@ 1178
trad@@ 1178
Dra@@ 1177
Nicolas 1177
fish 1177
smi@@ 1177
Ek@@ 1176
Rak@@ 1176
Zel@@ 1176
elles 1176
lot 1176
Mauritius 1175
achia 1175
ef 1175
Dean 1174
Timberlake 1174
anya 1174
did@@ 1174
lex@@ 1174
pit@@ 1174
sab@@ 1174
tas@@ 1174
Aloe 1173
Oliv@@ 1173
Connecticut 1172
Kens@@ 1172
Kosovo 1172
iba 1172
mid@@ 1172
ology 1172
120@@ 1171
Bé@@ 1171
Christina 1171
Midway 1171
brasili@@ 1171
Eug@@ 1170
FDA 1170
IT@@ 1170
eran 1170
Calcio 1169
Down 1169
Western 1169
gio 1169
nav@@ 1169
747 1168
Kath@@ 1168
Sev@@ 1168
ophr@@ 1168
Fab@@ 1167
Gros@@ 1167
Holmes 1167
RT 1167
TN@@ 1167
uridae 1167
İ@@ 1167
Alder@@ 1166
Galicia 1166
Gerais 1166
Lud@@ 1166
Or 1166
Portland 1166
Garden 1165
\ 1165
nii 1165
30,@@ 1164
Ball 1164
Empire 1164
Ges@@ 1164
Kind@@ 1164
Trag@@ 1164
water 1164
146 1163
Moldova 1163
otheca 1163
ể@@ 1163
Ant@@ 1162
ige 1162
Aisne 1160
LE@@ 1160
Leopold 1160
Peterburg 1160
Pug@@ 1160
avia 1160
Jennifer 1159
Lut@@ 1159
Nadu 1159
Page 1159
ady 1159
cu 1159
uer@@ 1159
300.000 1158
Arm@@ 1158
Gren@@ 1158
ibn 1158
lic 1158
spl@@ 1158
Berg 1157
Cli@@ 1157
Karak@@ 1157
Zy@@ 1157
Boz@@ 1156
Journal 1156
VN 1156
sangu@@ 1156
Denn@@ 1155
Hell@@ 1155
elin 1155
North@@ 1154
Web@@ 1154
ehr 1154
landia 1154
Hudson 1153
Ian 1153
LV@@ 1153
chui 1153
della 1153
pole@@ 1153
psy@@ 1153
132 1152
Beijing 1152
enna 1152
1792 1151
Busan 1151
Sv@@ 1151
Tus@@ 1151
eshi 1151
obo@@ 1151
Hugo 1150
Animation 1149
Bros. 1149
Tet@@ 1149
za@@ 1149
Shik@@ 1148
tí@@ 1148
DE@@ 1147
plagi@@ 1147
Belg@@ 1146
650 1145
Eph@@ 1145
Wah@@ 1145
otia 1145
parti@@ 1145
tria 1145
Are 1144
ayama 1144
kara 1144
stein@@ 1144
thes@@ 1144
Heidelberg 1143
Montana 1143
Soul 1143
Takahashi 1143
dé@@ 1143
icop@@ 1143
ingi 1143
kas@@ 1143
sw@@ 1143
25.000 1142
Cac@@ 1142
Cannes 1142
Copenhagen 1142
Huy@@ 1142
res 1142
24.@@ 1141
Baroque 1141
bei 1141
ib 1141
Rev@@ 1140
ườ@@ 1140
Bass@@ 1139
rum 1139
， 1139
Singh 1138
Ward 1138
alta 1138
pta 1138
ries@@ 1138
rik 1138
uda 1138
Leh@@ 1137
Oman 1137
iton 1137
lap@@ 1136
ER 1135
Monaco 1135
lers 1135
pinn@@ 1135
skaya 1135
Aden@@ 1134
aina 1134
kol@@ 1134
mek@@ 1134
syl@@ 1134
1808 1133
25.@@ 1133
magn@@ 1133
š 1133
1.200 1131
Aj@@ 1131
Athletic 1131
hyun 1131
joh@@ 1131
sium 1131
380 1130
Carol 1130
Sul 1130
hen 1130
yria 1130
Ceph@@ 1129
Dip@@ 1129
gamma 1129
star 1129
acker 1128
Das@@ 1127
Rhin 1127
Uro@@ 1127
cad@@ 1127
wet@@ 1127
Butler 1126
Albums 1125
EA 1125
SK 1124
Stere@@ 1124
Stre@@ 1124
ck@@ 1124
euk@@ 1124
ihan@@ 1124
DT 1123
Sic@@ 1123
minut@@ 1123
sy 1123
ves@@ 1123
Academy 1122
Harold 1122
Parker 1122
Dni@@ 1121
ecker 1121
eter 1121
nigra 1121
wol@@ 1121
osi@@ 1120
185 1119
225 1119
Bristol 1119
capit@@ 1119
kel 1119
Brothers 1118
Yor@@ 1118
alan 1118
tran@@ 1118
Cyn@@ 1117
Hiroshi 1117
His@@ 1117
People 1117
Smil@@ 1117
beri 1117
but 1117
cera 1117
eler 1117
wit@@ 1117
Chao 1116
Ernst 1116
Metro 1116
Zeus 1116
Weise 1115
oti 1115
rif@@ 1115
Antioch@@ 1114
Gli@@ 1114
Jon 1114
Monte@@ 1114
Rangers 1114
Tou@@ 1114
ecus 1114
har 1114
26.@@ 1113
BM 1112
Bourbon 1112
Dend@@ 1112
Lus@@ 1112
lance@@ 1112
tiva 1112
1807 1111
AA 1111
Dream@@ 1111
Pier@@ 1111
Sass@@ 1111
imar@@ 1111
ogo 1111
Campbell 1110
Hills 1110
Jer@@ 1110
Spo@@ 1110
inck 1110
Ang 1109
Sug@@ 1109
atri 1109
dom 1109
Over@@ 1108
Tay 1108
Tit@@ 1108
Yamato 1108
ego 1108
esses 1108
Pra@@ 1107
inho 1107
Bond 1106
By 1106
Gra@@ 1106
Leonard 1106
PH@@ 1106
Phys@@ 1106
endorf 1106
lom@@ 1106
CR@@ 1105
PR 1105
SD@@ 1105
Idol 1104
Marco 1104
fle@@ 1104
hap@@ 1104
Map@@ 1103
Oro@@ 1103
arina 1103
odo@@ 1103
ux 1103
lava 1102
uce 1102
12.000 1101
59@@ 1101
66@@ 1101
Abdul 1101
Clay 1101
Rafael 1101
corn@@ 1101
nas@@ 1101
Manisa 1100
idum 1100
xy 1100
Ana 1099
Generation 1099
IA 1099
Slav@@ 1099
azaki 1099
hotep 1099
000@@ 1098
Cyrus 1098
Of 1098
Rey 1098
Roberts 1097
Stars 1097
Versailles 1097
Voss 1097
agan 1097
bus@@ 1097
elas 1097
her 1097
anae 1096
spa 1096
Roman@@ 1095
sid@@ 1095
136 1094
RA 1094
Emma 1093
Hall@@ 1093
Laura 1093
Lisa 1093
Open@@ 1093
lett 1093
triang@@ 1093
30.@@ 1092
Pacific 1092
ange 1092
anni 1092
owice 1092
pper 1092
2,4 1091
Tot@@ 1091
akh 1091
conf@@ 1091
Die 1090
awi 1090
2.500 1089
Tan 1089
Tax@@ 1089
fran@@ 1089
2.0 1088
Bonaparte 1088
Cum@@ 1088
Dave 1088
Emilia 1088
Eugen 1088
Mek@@ 1088
SL@@ 1088
Sud@@ 1088
ester 1088
hisp@@ 1088
ult@@ 1088
val 1088
Gib@@ 1087
abri@@ 1087
egi@@ 1087
ough 1087
tron 1087
Free 1086
Chester 1085
Franco 1085
duc@@ 1085
eby 1085
mail 1085
stel@@ 1085
Aub@@ 1084
D.C. 1084
ally 1084
ush 1084
Comics 1083
ET 1083
Io@@ 1083
Zi@@ 1083
ahu 1083
aut 1083
gon 1083
Hokkaidō 1082
Say 1082
notes 1082
tide 1082
2,3 1081
Cleopatra 1081
Vent@@ 1081
ams 1081
polis 1081
Gri@@ 1080
Kle@@ 1080
Niger 1080
cair@@ 1080
ente 1080
gland@@ 1080
litz 1080
stell@@ 1080
28.@@ 1079
Eni@@ 1079
Path@@ 1079
Phillips 1079
a.@@ 1079
m2 1079
spr@@ 1079
tos 1079
Ajax 1078
Dong@@ 1078
Neb@@ 1078
Tut@@ 1078
kor 1078
omel@@ 1078
134 1076
1816 1076
Bailey 1076
Haus@@ 1076
Nicol@@ 1076
Yeşil@@ 1076
shi 1076
Brun@@ 1075
How 1075
LP 1075
gs 1075
99@@ 1074
Calvin 1074
Capr@@ 1074
Gan@@ 1074
Mem@@ 1074
Willis 1074
ald 1074
frig@@ 1074
1758 1073
Euch@@ 1073
Hip@@ 1073
Isaac 1073
PC@@ 1073
bal 1073
bian 1073
emus 1073
tel 1073
tubercul@@ 1073
119 1072
Lie@@ 1072
Westminster 1072
emi 1072
emis 1072
Oricon 1071
Party 1071
Gaz@@ 1070
Trot@@ 1070
gon@@ 1070
lay 1070
ndi@@ 1070
And@@ 1069
Barb@@ 1069
Store 1069
eld 1069
t. 1069
ın@@ 1069
Ahmed 1068
Sakura 1068
aud 1068
clip 1068
hur@@ 1068
osta 1068
yal@@ 1068
340 1067
Crawford 1067
Masters 1067
Taş@@ 1067
rans 1067
737 1066
BT@@ 1066
Fujiwara 1066
Honda 1066
Kov@@ 1066
iz 1066
wick 1066
young 1066
ň@@ 1066
Mount 1065
Saig@@ 1065
Wur@@ 1065
ents 1065
pir@@ 1065
tril@@ 1065
zel@@ 1065
Cole@@ 1064
Cra@@ 1064
Câ@@ 1064
Mud@@ 1064
Ronaldo 1064
Up@@ 1064
trig@@ 1064
Alek@@ 1063
Bermuda 1063
For 1063
Jessica 1063
ig 1063
Guy 1062
Normandy 1062
Reagan 1062
cylin@@ 1062
dop@@ 1062
ime@@ 1062
mol 1062
Big@@ 1061
Grap@@ 1061
Schwarz 1061
Hughes 1060
Now 1060
Rou@@ 1060
bridge 1060
hee 1060
Angel 1059
Kobe 1059
aser 1059
iTunes 1059
As 1058
Fol@@ 1058
Hunt 1058
Jih@@ 1058
tke 1058
85@@ 1057
Cran@@ 1057
Metacritic 1057
Mod@@ 1057
Reed 1057
kw@@ 1057
ñ@@ 1057
Bruno 1056
Electric 1056
How@@ 1056
ew 1056
él@@ 1056
ī 1056
Buk@@ 1055
Kamp@@ 1055
atri@@ 1055
137 1054
1798 1054
Sep@@ 1054
fel@@ 1054
gir@@ 1054
Brooklyn 1053
Campan@@ 1053
Donn@@ 1053
Fut@@ 1053
Gw@@ 1053
Ind@@ 1053
Nab@@ 1053
Philippine 1053
umbr@@ 1053
uto 1053
Fos@@ 1052
Gustav 1052
auer 1052
ore@@ 1052
sdorf 1052
́ 1052
BM@@ 1051
Ernest 1051
Zach@@ 1051
atra 1051
oud 1051
Erzurum 1050
ason 1050
hav@@ 1050
Beat@@ 1049
Dhar@@ 1049
bea 1049
core@@ 1049
fri@@ 1049
ingham 1049
otea 1049
Akh@@ 1048
Houten 1048
Ty 1048
ape 1048
dov@@ 1048
ová 1048
235 1047
Nancy 1047
dul@@ 1047
ebes 1047
ox 1047
69@@ 1046
Edinburgh 1046
Kub@@ 1046
enf@@ 1046
uku 1046
Enterprise 1045
Force 1045
Hart@@ 1045
Stic@@ 1045
Terry 1045
auch@@ 1045
live 1045
omor@@ 1045
Ily@@ 1044
Kand@@ 1044
Ltd 1044
SH@@ 1044
Chen@@ 1043
Christmas 1043
Let 1043
Rhein 1043
eir@@ 1043
ști 1043
1790 1042
AE@@ 1042
Ass@@ 1042
Barry 1042
Meuse 1042
ael@@ 1042
angala 1042
ond 1042
pop@@ 1042
rech@@ 1042
Chit@@ 1041
Eugene 1041
Grace 1041
Jeff 1041
Von 1041
lah 1041
子 1041
modi@@ 1040
Gem@@ 1039
Naz@@ 1039
ahl 1039
ble 1039
dich@@ 1039
1799 1038
rati@@ 1038
sula 1038
157 1037
DS@@ 1037
bella 1037
oh 1037
tar 1037
eae 1036
Garr@@ 1035
Good@@ 1035
borough 1035
acta 1034
prol@@ 1034
Ligue 1033
Punjab 1033
Tav@@ 1033
non@@ 1033
tad@@ 1033
F1 1032
andinavia 1032
kar 1032
raga 1032
PM 1031
141 1030
206 1030
Grove 1030
Hebrew 1030
Rai 1030
Rovers 1030
elt@@ 1030
into 1030
县 1030
1600 1029
Nielsen 1029
anh@@ 1029
bie 1029
etr@@ 1029
gri@@ 1029
suy@@ 1029
Hass@@ 1028
Hiroshima 1028
Liu 1028
Thel@@ 1028
IG@@ 1027
imoto 1027
AF 1026
Pes@@ 1026
Tajikistan 1026
astes 1026
eg 1026
ente@@ 1026
fi 1026
teen 1026
214 1025
Adel@@ 1025
Broadway 1025
Silla 1025
inin 1025
tern@@ 1025
27.@@ 1024
Georg 1024
Myc@@ 1024
Niz@@ 1024
Samsun 1024
USB 1024
Zhang 1024
away 1024
wor@@ 1024
Haj@@ 1023
Neil 1023
Poc@@ 1023
Wars 1023
ecia 1023
Cole 1022
Fas@@ 1022
Magazine 1022
Rech@@ 1022
Ron@@ 1022
alifor@@ 1022
insig@@ 1022
2,2 1021
Leipzig 1021
cum 1021
indica 1021
sinu@@ 1021
1809 1020
Amphi@@ 1020
Ankara 1020
Sha@@ 1020
agawa 1020
Kok@@ 1019
had 1019
の@@ 1019
Liberia 1018
Our@@ 1018
chl@@ 1018
gea 1018
ệch 1018
Bryan 1016
Ceb@@ 1016
Spin@@ 1016
esterol 1016
imum 1016
int 1016
rates 1016
205 1015
76@@ 1015
Delph@@ 1015
cum@@ 1015
simum 1015
ọ@@ 1015
Blu 1014
Cres@@ 1014
Thüringen 1014
itt 1014
otti 1014
Nagasaki 1013
amaz@@ 1013
mexicana 1013
131 1012
Death 1012
Kö@@ 1012
Leit@@ 1012
Liber@@ 1012
Mare 1012
asper@@ 1012
ozi@@ 1012
philipp@@ 1012
Cross 1011
Rhodes 1011
Turkmenistan 1011
fol@@ 1011
ē@@ 1011
ố@@ 1011
Bod@@ 1010
Nadal 1010
mark 1010
ő@@ 1010
Limited 1009
Lip@@ 1009
Spears 1009
mich@@ 1009
ony 1009
tip@@ 1009
€ 1009
Reh@@ 1008
bs 1008
erina 1008
fem@@ 1008
Belle 1007
LED 1007
MG 1007
Magic 1007
Marseille 1007
Sib@@ 1007
alin 1007
arpa 1007
awan 1007
ski@@ 1007
33,@@ 1006
CL@@ 1006
Lot 1006
allo@@ 1006
fru@@ 1006
Buf@@ 1005
Pax 1005
das 1005
0,1 1004
21@@ 1004
GM 1004
Kru@@ 1004
Pou@@ 1004
cons@@ 1004
vers 1004
Ả@@ 1004
116@@ 1003
133 1003
Buz@@ 1003
Carlo 1003
FBI 1003
Helena 1003
Nin@@ 1003
Thomson 1003
lib 1003
ophi@@ 1003
sax@@ 1003
tex@@ 1003
Bung@@ 1002
Geor@@ 1002
Princess 1002
Southern 1002
ahi 1002
oso 1002
147 1001
Khal@@ 1001
Main 1001
Pag@@ 1001
Pho@@ 1001
Water@@ 1001
bim@@ 1001
by@@ 1001
card 1001
red 1001
sal 1001
ụp 1001
Blackburn 1000
Kuz@@ 1000
gar 1000
211 999
Emmy 999
Sup@@ 999
ahu@@ 999
quer@@ 999
DL 998
DO@@ 998
Malaya 998
Wallace 998
anium 998
cona 998
ms 998
zano 998
Tha 997
ellum 997
nu 997
är@@ 997
Arnold 996
Cleveland 996
Gall@@ 996
Rama 996
Rein@@ 996
Tib@@ 996
cio 996
1811 995
Berkeley 995
IGN 995
Jakarta 995
Mancha 995
SP 995
if 995
ness 995
Mercury 994
Tas@@ 994
acca 994
atina 994
cal 994
pound 994
Gill@@ 993
Nau@@ 993
Ship@@ 993
Yak 993
Zar@@ 993
ér@@ 993
ör@@ 993
Jab@@ 992
Ruiz 992
agon 992
amo 992
annes 992
Crystal 991
Fa@@ 991
opil@@ 991
143 990
aji 990
nei 990
′ 990
138 989
Iw@@ 989
dica 989
ga@@ 989
lif@@ 989
world 989
Conte 988
Hein@@ 988
Kiy@@ 988
ario 988
veri 988
Hampshire 987
Suz@@ 987
azione 987
Ames 986
Hou@@ 986
book 986
head 986
hyp@@ 986
sol 986
zan@@ 986
148 985
aur 985
cori@@ 985
esian 985
maire 985
és 985
şehir 985
Andro@@ 984
Bobby 984
Fall 984
iva 984
peri@@ 984
DM 983
Plus 983
angu@@ 983
pis@@ 983
208 982
Asi@@ 982
Dag@@ 982
Italy 982
Mez@@ 982
Punk 982
Simpson 982
Summer 982
born 982
Andes 981
PP@@ 981
Sind@@ 981
Sok@@ 981
cat 981
DOS 980
NBC 980
Ost@@ 980
gre@@ 980
pura 980
203 979
VA 979
VO@@ 979
hak@@ 979
schi@@ 979
Hope 978
Hul@@ 978
Lucy 978
ík 978
202 977
Armstrong 977
Beg@@ 977
Cl 977
Guardian 977
Hoch@@ 977
Ravenna 977
Viet@@ 977
turbine 977
Burundi 976
Core 976
ussia 976
209 975
BS 975
Explorer 975
Hyun 975
Marion 975
Springs 975
hio 975
oz 975
trick 975
Guyana 974
Yong 974
Algeria 973
Fe 973
Mikha@@ 973
illi 973
Luna 972
Rut@@ 972
rata 972
Berry 971
Hart 971
Holt 971
TE 971
ifol@@ 971
Horn@@ 970
Lop@@ 970
Newfoundland 970
Wagner 970
icill@@ 970
tiế@@ 970
Andrea 969
Biden 969
Franch@@ 969
Uh@@ 969
Yuk@@ 969
kare 969
ớm 969
English 968
Nish@@ 968
ograp@@ 968
Fighter 967
Jerry 967
Steel 967
29.@@ 966
Aaron 966
Faso 966
Ronald 966
alu 966
iner 966
oca 966
4000 965
Carr@@ 965
ME 965
fica 965
rie 965
166 964
310 964
Geneva 964
Kash@@ 964
Naruto 964
Three 964
ider 964
marketing 964
zer 964
Burkina 963
Lane 963
Palace 963
Service 963
enzy@@ 963
rev@@ 963
117@@ 962
162 962
Aguilera 962
Cô@@ 962
Fat@@ 962
Hu 962
lies 962
114@@ 961
Alexandre 961
Bridge 961
Happy 961
eidae 961
nov 961
oly@@ 961
osph@@ 961
168 960
Balıkesir 960
Knight 960
Rudolf 960
adin 960
Charleston 959
Orleans 959
Year 959
Zu@@ 959
illidae 959
195 958
256 958
Angel@@ 958
Bosna 958
Cay@@ 958
Kang@@ 958
Liberty 958
Not 958
Tasmania 958
氏 958
Pay@@ 957
Stuart 957
mata 957
yov 957
Nur@@ 956
Phili@@ 956
Tek@@ 956
Youtube 956
hay@@ 956
lid 956
omena 956
Holland 955
Laurent 955
NBA 955
chrom@@ 955
ots 955
ous@@ 955
unif@@ 955
Herzog 954
Saudi 954
Sob@@ 954
cken@@ 954
format 954
77@@ 953
rae 953
Alberto 952
Pell@@ 952
dida 952
mine 952
ả@@ 952
ộ@@ 952
1200 951
Lorraine 951
ben 951
fall@@ 951
oru 951
ー@@ 951
156 950
Niedersachsen 950
Szcz@@ 950
evsky 950
iya 950
och 950
Wiel@@ 949
baz@@ 949
pers@@ 949
Aman@@ 948
Edition 948
Ehr@@ 948
Spi@@ 948
hausen 948
ikh 948
stadt 948
370 947
Rural 947
his@@ 947
itaria 947
ovina 947
Atlas 946
DV@@ 946
Everton 946
Field 946
SL 946
Yoo 946
ushu 946
142 945
Kid@@ 945
Yoon 945
aland 945
mantis 945
154 944
Caribbean 944
junc@@ 944
text 944
Camp 943
Dah@@ 943
Kashmir 943
Leicester 943
Thom@@ 943
Viking 943
ft@@ 943
ury 943
Aleksand@@ 942
Ardennes 942
Jin@@ 942
Linda 942
Shak@@ 942
Won 942
berry 942
jug@@ 942
lik 942
sar 942
én@@ 942
Collins 941
Paral@@ 941
SD 941
kowski 941
map@@ 941
Battle 940
Institute 940
Link 940
Lund@@ 940
Suez 940
suff@@ 940
tara 940
vector 940
Amy 939
Chau@@ 939
Ham 939
Morris 939
dot@@ 939
fu 939
seu@@ 939
sus@@ 939
215 938
Voice 938
hiy@@ 938
安@@ 938
217 937
Bin@@ 937
Federer 937
Foster 937
Put@@ 937
Sean 937
Uran@@ 937
Uz@@ 937
arin 937
bolivi@@ 937
ios 937
kha 937
Basil@@ 936
CM@@ 936
Gian 936
Poh@@ 936
Seo 936
ump@@ 936
Botswana 935
Nad@@ 935
Note 935
gam@@ 935
vania 935
Cla@@ 934
Palermo 934
Petro@@ 934
abi@@ 934
esz@@ 934
idge 934
139 933
38.@@ 933
Chamber@@ 933
Del 933
Portsmouth 933
dist@@ 933
ebo 933
pag@@ 933
punk 933
1786 932
Abdullah 932
Form@@ 932
Joh@@ 932
ennes 932
imm@@ 932
tics 932
Dz@@ 931
Phoen@@ 931
gy 931
itas 931
jap@@ 931
sley 931
Band 930
Hannibal 930
Pant@@ 930
etz 930
spir@@ 930
European 929
Hik@@ 929
bag@@ 929
yen@@ 929
Child 928
Müller 928
dir@@ 928
Kaiser 927
Virus 927
cru@@ 927
153 926
Wells 926
sav@@ 926
妃 926
305 925
84@@ 925
Helen 925
Lima 925
UAE 925
esus 925
Delaware 924
Kah@@ 924
Yale 924
aton 924
var 924
ươn 924
176 923
32,@@ 923
Calvados 923
Tyrann@@ 923
okawa 923
pera 923
Colombo 922
Haf@@ 922
Nog@@ 922
Valent@@ 922
Ve@@ 922
acu@@ 922
coron@@ 922
kn@@ 922
nú@@ 922
osema 922
Bologna 921
Juli@@ 921
Loir 921
chir@@ 921
vat@@ 921
yat@@ 921
Cann@@ 920
Coch@@ 920
Cord@@ 920
Theod@@ 920
oric 920
88@@ 919
API 919
Mitsubishi 919
Savoie 919
Whitney 919
ating 919
istes 919
met 919
seus 919
violin 919
zek 919
201 918
Hau@@ 918
Joan 918
kes 918
par 918
umo 918
CE 917
Cau@@ 917
Chiang 917
Euler 917
Mnet 917
Phar@@ 917
Z.@@ 917
bek 917
imo 917
zel 917
Family 916
Kuala 916
Pos@@ 916
Tell 916
ache 916
endi@@ 916
ister 916
lip 916
C2 915
Dr. 915
Hispanic 915
Krish@@ 915
Passi@@ 915
Pérez 915
Veneto 915
Wein@@ 915
azu 915
ierz 915
mach@@ 915
Atlético 914
Clin@@ 914
Cym@@ 914
HP 914
Mohammed 914
Mou@@ 914
Rau@@ 914
You@@ 914
concert 914
evi@@ 914
yas@@ 914
3.0@@ 913
35,@@ 913
Hotspur 913
Single 913
Us@@ 913
anne 913
hac@@ 913
2,6 912
63@@ 912
Jump 912
Tower 912
indic@@ 912
lis@@ 912
Eich@@ 911
Kre@@ 911
Lloyd 911
odi 911
oros 911
Bunge 910
Kate 910
Saus@@ 910
Vista 910
ecki 910
enda 910
lier 910
luk 910
asta 909
eux 909
fan@@ 909
spar@@ 909
Guy@@ 908
Quebec 908
Take 908
ensi@@ 908
myr@@ 908
Minsk 907
Sur 907
Tommy 907
kul@@ 907
avar@@ 906
ebra 906
golf 906
ily 906
Cob@@ 905
Tarn 905
Tau@@ 905
glu@@ 905
lymph@@ 905
子@@ 905
Bug@@ 904
Nan 904
eyi 904
151 903
Andrei 903
Cloud 903
Teph@@ 903
aven 903
bic 903
boy 903
60.000 902
CT@@ 902
SmackDown 902
Teen 902
Zan@@ 902
ascus 902
enst@@ 902
hot@@ 902
wei 902
三@@ 902
Gardner 901
Hugh 901
Nel@@ 901
Pall@@ 901
SK@@ 901
anak@@ 901
ering 901
nick 901
zz@@ 901
Capitol 900
Cric@@ 900
Nim@@ 900
Rag@@ 900
Southampton 900
atten@@ 900
hot 900
law 900
éc@@ 900
AK@@ 899
Tang@@ 899
Volga 899
ric 899
ture 899
Eud@@ 898
Hard@@ 898
MBC 898
Mont 898
Out@@ 898
SARS 898
ede 898
yeong 898
ượu 898
AV 897
EC@@ 897
Floyd 897
Gür@@ 897
Mark@@ 897
Zak@@ 897
ayn@@ 897
bat 897
chan 897
deg@@ 897
ș 897
Elec@@ 896
Lancaster 896
brid@@ 896
orch@@ 896
Edgar 895
Four 895
Research 895
Rihanna 895
Silver 895
Stanford 895
apar@@ 895
tina 895
174 894
Alps 894
Cry@@ 894
tima 894
192 893
2025 893
Owen 893
aten 893
cri@@ 893
indi@@ 893
rell 893
zan 893
Çam@@ 893
ː 893
212 892
Captain 892
Hautes 892
Tokat 892
Under@@ 892
Vall@@ 892
eia 892
insk 892
nix 892
ự@@ 892
Ce@@ 891
McC@@ 891
PP 891
Secret 891
Spencer 891
alam@@ 891
auta 891
cyn@@ 891
pris 891
sta 891
º@@ 891
Ê@@ 891
ế@@ 891
186 890
Amer@@ 890
Novgorod 890
Rommel 890
engo 890
new 890
prim@@ 890
480 889
AKB48 889
Parap@@ 889
Anton 888
Château 888
Lockheed 888
Num@@ 888
rin 888
Felipe 887
Luz@@ 887
NT 887
Nile 887
odontidae 887
Camb@@ 886
Gard@@ 886
Television 886
yr 886
1700 885
Bahamas 885
Iris 885
Spor@@ 885
dum 885
loss@@ 885
uya 885
ˈ@@ 885
1787 884
Eli@@ 884
Rogers 884
Wis@@ 884
had@@ 884
74@@ 883
Sevilla 883
aim@@ 883
dina 883
CG 882
Cri@@ 882
Inca 882
also 882
andr@@ 882
1791 881
275 881
Campania 881
District 881
Norte 881
Reich@@ 881
Samp@@ 881
Tae 881
arist@@ 881
media 881
tac@@ 881
ınar 881
Fleisch@@ 880
Noth@@ 880
Yukar@@ 880
dioc@@ 880
onga 880
plasma 880
tens 880
toc@@ 880
ươu 880
164 879
Hind@@ 879
Jesus 879
angi 879
oc 879
ship 879
urs 879
172 878
204 878
Diana 878
MB 878
Rav@@ 878
abar@@ 878
atta 878
incer@@ 878
ires 878
Má@@ 877
icro@@ 877
290 876
Eb@@ 876
Sebastian 876
Sey@@ 876
euc@@ 876
1793 875
Alto 875
Ferr@@ 875
Imp@@ 875
Switch 875
U. 875
hir 875
semi@@ 875
Bomb@@ 874
Dortmund 874
Harr@@ 874
Mountain 874
cosa 874
fasci@@ 874
ket 874
ophilus 874
Age 873
Coast 873
Guinness 873
Joyce 873
Mab@@ 873
Mason 873
Messi 873
Mour@@ 873
Shah@@ 873
Til@@ 873
chromis 873
have 873
皇@@ 873
Doğ@@ 872
Mae 872
YG 872
amide 872
ici 872
omorph@@ 872
tec 872
delic@@ 871
ilidae 871
ł 871
Colum@@ 870
Cost@@ 870
Fam@@ 870
Harvey 870
Ju 870
Konya 870
Leeds 870
Standard 870
Teut@@ 870
azep@@ 870
box 870
ello@@ 870
Felix 869
Torres 869
Trin@@ 869
aber 869
dives 869
shire 869
0,6 868
Agath@@ 868
Jon@@ 868
Muh@@ 868
Vik@@ 868
dos@@ 868
1794 867
Dublin 867
EF 867
Eisenhower 867
God 867
ink 867
ovsk 867
yō 867
ç 867
孝@@ 867
Amaz@@ 866
Jae 866
Linn@@ 866
Mini 866
Sabah 866
States 866
ppo 866
183 865
207 865
Arth@@ 865
Chang@@ 865
Sardin@@ 865
chon 865
het 865
jō 865
was@@ 865
Macar@@ 864
Morrison 864
Send@@ 864
Small 864
Sund@@ 864
gata 864
ment@@ 864
orax 864
ovka 864
2,8 863
Abe 863
Dmi@@ 863
Galileo 863
Scor@@ 863
aks 863
tius 863
Chand@@ 862
Omar 862
Soph@@ 862
cass@@ 862
ilen 862
189 861
Kou@@ 861
Poznań 861
Sicily 861
Watanabe 861
atea 861
rub@@ 861
uck 861
visual 861
viv@@ 861
167 860
221 860
Ashley 860
BP 860
Ey@@ 860
GP@@ 860
Princeton 860
Roberto 860
alay@@ 860
tas 860
Alexandra 859
Aristotle 859
Diyarbakır 859
Nis@@ 859
asha 859
ogaster 859
phan@@ 859
uva 859
850 858
Eut@@ 858
Medina 858
SM@@ 858
Summer@@ 858
Yorkshire 858
lung 858
orb@@ 858
École 858
ı 858
Bull 857
Burg@@ 857
Carol@@ 857
Rachel 857
Software 857
Zer@@ 857
board 857
date 857
gren 857
olana 857
ém 857
元@@ 857
173 856
Aster@@ 856
Conan 856
Gig@@ 856
II@@ 856
Powell 856
aik@@ 856
left 856
retic@@ 856
tn@@ 856
âz@@ 856
Emp@@ 855
carp@@ 855
mos 855
nar 855
ram 855
vac@@ 855
ğ@@ 855
115@@ 854
Bursa 854
Columbus 854
Kro@@ 854
More 854
Psy@@ 854
WTA 854
ambo@@ 854
cont@@ 854
domin@@ 854
icon 854
ody@@ 854
otz@@ 854
sui 854
238 853
Blu@@ 853
Dul@@ 853
Murphy 853
Qaeda 853
Rep@@ 853
Republic 853
There 853
entia 853
rat@@ 853
0,2 852
0,3 852
Acid 852
Panther 852
Venus 852
under 852
Atlantic 851
Gov@@ 851
Todd 851
ingu@@ 851
laur@@ 851
179 850
Alberta 850
Chan@@ 850
Hig@@ 850
Pascal 850
alea 850
pho@@ 850
tai@@ 850
0,8 849
163 849
Brussels 849
Fili@@ 849
Fou@@ 849
Mill 849
Muk@@ 849
Non 849
Vladi@@ 849
alı 849
esc@@ 849
onda 849
terus 849
Clara 848
Toyota 848
agi@@ 848
hwa 848
istan 848
parado@@ 848
schn@@ 848
325 847
Back@@ 847
Kai 847
Verde 847
ampa 847
vier 847
Bill@@ 846
Dioc@@ 846
Saw@@ 846
online 846
pium 846
Chak@@ 845
Elo@@ 845
Jay@@ 845
Maxwell 845
Morton 845
Sheffield 845
cham@@ 845
ques 845
ycidae 845
yev 845
Belize 844
Kurt 844
Mind@@ 844
tao 844
Korea 843
Puy 843
chev 843
gne 843
ogen@@ 843
ığ 843
皇后 843
Isabella 842
Leonardo 842
Stefan 842
mah@@ 842
meridi@@ 842
thiop@@ 842
184 841
199 841
Aren@@ 841
Mohamed 841
dal 841
geri 841
明@@ 841
193 840
9.000 840
Bahia 840
Glenn 840
Togo 840
azz@@ 840
estan 840
noc@@ 840
stedt 840
Capo@@ 839
Never 839
Planck 839
Roh@@ 839
Sung@@ 839
Viola 839
tle 839
Akira 838
Antig@@ 838
Bar 838
Fuk@@ 838
High@@ 838
Lumpur 838
africana 838
anj@@ 838
box@@ 838
itta 838
yang 838
222 837
420 837
Alliance 837
Corr@@ 837
Instagram 837
Oth@@ 837
Palae@@ 837
Peters 837
Vienne 837
nitr@@ 837
Are@@ 836
Aston 836
Kabul 836
borg 836
burg@@ 836
oll 836
style 836
8,5 835
Glasgow 835
Jas@@ 835
Kütahya 835
Marina 835
Than@@ 835
tosa 835
177 834
Falcon 834
Fu 834
Parac@@ 834
Sophie 834
building 834
fron@@ 834
Days 833
Diplo@@ 833
Doctor 833
Hib@@ 833
Marcel 833
Movie 833
Productions 833
contr@@ 833
liqu@@ 833
osi 833
oter@@ 833
wr@@ 833
Atlan@@ 832
Yozgat 832
inski 832
kus@@ 832
lach@@ 832
ps@@ 832
rou@@ 832
yrin@@ 832
武@@ 832
178 831
2,7 831
Achil@@ 831
Elena 831
Frey@@ 831
Nass@@ 831
anea 831
aon 831
capa 831
ders 831
Bavaria 830
Business 830
Chun 830
Dist@@ 830
Khan@@ 830
Nations 830
Post@@ 830
Tel 830
atom@@ 830
onymus 830
½ 830
ə@@ 830
Five 829
Logan 829
Maximilian 829
Nah@@ 829
Oslo 829
Phone 829
Pont 829
Run 829
Woman 829
Yaz@@ 829
gic 829
tie 829
Bradford 828
Luk@@ 828
Mann@@ 828
Ornith@@ 828
ande 828
1776 827
262 827
34,@@ 827
Karen 827
RPG 827
Sty@@ 827
Wyoming 827
dio 827
glucose 827
ypter@@ 827
Lazio 826
Ricardo 826
Traf@@ 826
dollar 826
eras 826
kins 826
ymus 826
308 825
Rhode 825
SV@@ 825
iler 825
nev@@ 825
ák 825
ık@@ 825
182 824
265 824
365 824
Caledonia 824
Cycl@@ 824
Rotten 824
abl@@ 824
aica 824
decor@@ 824
esti 824
lang@@ 824
plac@@ 824
vet@@ 824
ław 824
Adele 823
Erich 823
Mess@@ 823
Mirage 823
Money 823
Pseudom@@ 823
Sunni 823
Aki@@ 822
Ferguson 822
Tay@@ 822
ege 822
magni@@ 822
tt 822
BAFTA 821
Dau@@ 821
Lu 821
Pac@@ 821
adan 821
ajima 821
yeri 821
264 820
Brest 820
Cola 820
Dh@@ 820
Emer@@ 820
Eth@@ 820
Metz 820
Orlando 820
Pero 820
Roy@@ 820
aes@@ 820
ces 820
icans 820
ph 820
BD 819
Kras@@ 819
Nach@@ 819
Tanaka 819
aran@@ 819
atu 819
bor 819
caria 819
eba 819
elo 819
ifer@@ 819
228 818
36,@@ 818
78@@ 818
95@@ 818
Bern 818
Box 818
Hob@@ 818
Rang 818
glut@@ 818
ld 818
IF 817
akov 817
bou@@ 817
form 817
gó@@ 817
sov 817
300@@ 816
Henderson 816
LG 816
M1 816
Yay@@ 816
ough@@ 816
sion 816
ỷ@@ 816
Africa 815
Cz@@ 815
Duke 815
Face 815
Nguy@@ 815
Pros@@ 815
Pus@@ 815
Ret@@ 815
Roth@@ 815
actr@@ 815
illon 815
tsch 815
vertic@@ 815
Augusta 814
Epis@@ 814
Essex 814
Gund@@ 814
Hanover 814
López 814
Yus@@ 814
elea 814
pard 814
Yi 813
edon 813
linear@@ 813
EN@@ 812
Gandhi 812
Grey 812
Naples 812
Sle@@ 812
Smolensk 812
comment 812
over@@ 812
223 811
3,2 811
98@@ 811
Bob@@ 811
Rocky 811
ate@@ 811
Eritrea 810
GNU 810
Jorge 810
Jos@@ 810
Karab@@ 810
With 810
kie 810
kot 810
ów@@ 810
1795 809
181 809
188 809
Bali 809
Caes@@ 809
Grav@@ 809
Hill@@ 809
Lil@@ 809
Soc@@ 809
alen 809
ebu 809
ort@@ 809
sev 809
ợ@@ 809
Bres@@ 808
CL 808
Cron@@ 808
Eagle 808
Edge 808
Grig@@ 808
Morning 808
Richmond 808
SN 808
Saxony 808
Sweet 808
kea 808
utu 808
Adelaide 807
Ağrı 807
Herschel 807
Nice 807
Server 807
insul@@ 807
path@@ 807
trin@@ 807
ysi@@ 807
Calabria 806
Cichlidae 806
FO@@ 806
Soo 806
Ural 806
jer@@ 806
國@@ 806
Pam@@ 805
Paran@@ 805
Pompe@@ 805
Scotia 805
ahara 805
raya 805
sberg 805
sylv@@ 805
unt 805
劉@@ 805
州 805
Beautiful 804
Get@@ 804
Herac@@ 804
Ibrahim 804
Wat 804
acy 804
ansen 804
tila 804
196 803
PL 803
Seb@@ 803
Station 803
arbor@@ 803
ná 803
olan 803
phag@@ 803
198 802
Dick 802
cab@@ 802
idel@@ 802
taxi 802
xo 802
304 801
Bas 801
Jal@@ 801
Zon@@ 801
owska 801
xima 801
Hack@@ 800
Keith 800
colspan 800
egu 800
wid@@ 800
Camus 799
Casey 799
Deme@@ 799
Din 799
Ko 799
Visual 799
Wembley 799
Yoshi@@ 799
cott 799
limb@@ 799
xus 799
ça 799
KBS 798
Major 798
Olivier 798
Ono 798
endi 798
opal@@ 798
Blood 797
CONCACAF 797
EM 797
Play@@ 797
recur@@ 797
t.@@ 797
149 796
Assam 796
Bamb@@ 796
Craig 796
Kenneth 796
Rend@@ 796
YP 796
aux@@ 796
cyclo@@ 796
ej 796
seri 796
simul@@ 796
tap@@ 796
255 795
After 795
Cast@@ 795
Gdańsk 795
Get 795
Greg@@ 795
MHz 795
PR@@ 795
Shakespeare 795
Symp@@ 795
cium 795
erk@@ 795
ml 795
plut@@ 795
tyn 795
Ler@@ 794
Sara 794
See 794
Tyler 794
antan 794
cas 794
chap@@ 794
iwa 794
mph 794
pio 794
tur 794
type 794
158 793
Hussein 793
MIT 793
Nagoya 793
Northern 793
Saxon 793
dag@@ 793
171 792
Gav@@ 792
HM@@ 792
Kau@@ 792
Montreal 792
demo 792
dict@@ 792
Celtic 791
Edmund 791
Kri@@ 791
Raz@@ 791
leigh 791
lima 791
og 791
Ế@@ 791
1782 790
213 790
Acan@@ 790
Baltimore 790
Navarre 790
apr@@ 790
epi@@ 790
rain 790
vas@@ 790
ậ@@ 790
Indian 789
acro@@ 789
sn@@ 789
Dick@@ 788
Iv@@ 788
VC 788
c.@@ 788
cath@@ 788
chem@@ 788
oissi@@ 788
ovir@@ 788
paci@@ 788
shō@@ 788
sti 788
1783 787
38,@@ 787
Ent@@ 787
Fall@@ 787
Fi 787
Hawk 787
Justicia 787
atin@@ 787
carbon@@ 787
group 787
schmi@@ 787
uj@@ 787
1772 786
191 786
31.@@ 786
Aircraft 786
Autom@@ 786
Basque 786
Beyoncé 786
Chev@@ 786
Cros@@ 786
Jen@@ 786
Lug@@ 786
South@@ 786
abo@@ 786
das@@ 786
ub 786
་ 786
南@@ 786
219 785
Anto@@ 785
Bh@@ 785
Imag@@ 785
Jud@@ 785
Kw@@ 785
Pablo 785
Stade 785
Vosges 785
aly 785
dem 785
dub@@ 785
hard 785
red@@ 785
ôme 785
187 784
197 784
Buck 784
Drake 784
Jules 784
Name 784
ara@@ 784
aze 784
icor@@ 784
umin@@ 784
37,@@ 783
García 783
Hood 783
Kob@@ 783
Rhe@@ 783
Terr@@ 783
acar@@ 783
aker 783
ifer 783
igan 783
municipal 783
tum@@ 783
wiki 783
Day@@ 782
Fag@@ 782
HC 782
aklı 782
bria 782
buc@@ 782
cke 782
roy 782
tat@@ 782
two 782
1797 781
GA 781
Nassau 781
Radi@@ 781
Sunday 781
bay@@ 781
cyc@@ 781
inos 781
sp. 781
Moto@@ 780
NES 780
Senior 780
aber@@ 780
ael 780
nak@@ 780
ững 780
Haplo@@ 779
Josh 779
Miranda 779
Pavel 779
Today 779
coph@@ 779
toph@@ 779
ỗn 779
Casablanca 778
Hello 778
Sénégal 778
ková 778
ppa 778
312 777
Hannover 777
Krak@@ 777
Rz@@ 777
Shor@@ 777
china 777
gom@@ 777
ses@@ 777
Adobe 776
Deep 776
Theodore 776
Zhu 776
acco 776
bas 776
confer@@ 776
muth 776
太@@ 776
Horn 775
Mardin 775
Rock@@ 775
abol@@ 775
CR 774
Glau@@ 774
MT 774
Mih@@ 774
Nos@@ 774
Rég@@ 774
Tomatoes 774
Triple 774
Ud@@ 774
cav@@ 774
coli 774
cut@@ 774
fun@@ 774
spect@@ 774
区 774
113@@ 773
400.000 773
767 773
79@@ 773
Jeanne 773
TR@@ 773
Torre 773
Unix 773
alim@@ 773
cius 773
mose 773
Cry 772
Cube 772
Danny 772
René 772
Sánchez 772
dimi@@ 772
entino 772
Century 771
Challenge 771
Jut@@ 771
Kant@@ 771
Second 771
four 771
德@@ 771
0,4 770
161 770
NH3 770
Sergei 770
Shan 770
aki@@ 770
att 770
ayana 770
team 770
ǎ@@ 770
Braun 769
Québec 769
Wind@@ 769
elop@@ 769
endrum 769
fac@@ 769
interrup@@ 769
sola 769
Bois 768
Hew@@ 768
Rob 768
Zaragoza 768
aphy@@ 768
eas@@ 768
khe@@ 768
orium 768
金@@ 768
194 767
Afro@@ 767
Computer 767
Detroit 767
Dial@@ 767
Pang@@ 767
Sol 767
Soyuz 767
gate 767
ning 767
onian 767
Geh@@ 766
Law@@ 766
SU 766
enh@@ 766
lau@@ 766
shi@@ 766
Andhra 765
Bella 765
Demir@@ 765
Erik 765
Stanisław 765
Stark 765
acha 765
deser@@ 765
Göl@@ 764
Lynch 764
Saturn 764
cant@@ 764
debut 764
erst@@ 764
run 764
termin@@ 764
track 764
If 763
MT@@ 763
OVA 763
Pha@@ 763
Porter 763
Scol@@ 763
aeg@@ 763
aş 763
enor@@ 763
itr@@ 763
mim@@ 763
pra 763
right 763
sac 763
ulidae 763
vic 763
226 762
3,3 762
Nacional 762
250.000 761
Flam@@ 761
João 761
Maharashtra 761
Oaxaca 761
akan 761
echn@@ 761
oty@@ 761
yard 761
150.000 760
Abu@@ 760
Human 760
Hut@@ 760
Management 760
gros@@ 760
440 759
GO@@ 759
Homo 759
auge 759
lic@@ 759
maj@@ 759
para 759
vie 759
Å@@ 759
89@@ 758
Bolu 758
Gironde 758
Lily 758
Mack@@ 758
Rin@@ 758
Valeri@@ 758
conc@@ 758
itsu 758
kit@@ 758
lı@@ 758
sche 758
under@@ 758
Bey@@ 757
Dennis 757
Fletcher 757
Olympi@@ 757
Special 757
Sunderland 757
Yuki 757
ern 757
orio 757
tec@@ 757
tron@@ 757
wing 757
234 756
Anim@@ 756
Antalya 756
Idaho 756
Jr. 756
Latino 756
commune 756
mene 756
obu 756
yans@@ 756
232 755
Elisabeth 755
Magu@@ 755
Sheikh 755
Squ@@ 755
ank@@ 755
cricket 755
jur@@ 755
rah 755
stor@@ 755
uchus 755
vir 755
169 754
CV 754
Comic 754
Over 754
Paolo 754
aca@@ 754
Eva 753
Hok@@ 753
som 753
vie@@ 753
159 752
2023 752
Cit@@ 752
Flo@@ 752
Jum@@ 752
Lion 752
Nero 752
Wrocław 752
Yon@@ 752
aft 752
rim@@ 752
39,@@ 751
Ahmad 751
Corin@@ 751
Gambia 751
Köppen 751
Leb@@ 751
McDonald 751
gil 751
parall@@ 751
430 750
Antoine 750
Bub@@ 750
CF 750
Emily 750
Metal@@ 750
Stuttgart 750
Vid@@ 750
act 750
amii 750
bid@@ 750
1,9 749
Amur 749
CF@@ 749
SW@@ 749
chal@@ 749
glob@@ 749
opi@@ 749
own 749
phal@@ 749
ü 749
Born 748
CNN 748
Fischer 748
PD 748
ROM 748
Roland 748
Wan 748
Wanderers 748
bra@@ 748
evi 748
kum@@ 748
oue 748
u.@@ 748
3,6 747
Cabrera 747
Civ@@ 747
Graf 747
Kes@@ 747
Mohammad 747
Woo 747
chem 747
fasc@@ 747
ikov 747
led@@ 747
remix 747
ws 747
zon 747
् 747
Kursk 746
Sophia 746
Systems 746
Ultra 746
Wellington 746
osti@@ 746
sheim 746
Fukuoka 745
Raven 745
Yang@@ 745
aron 745
bol 745
ogly@@ 745
press@@ 745
umani 745
Call 744
Francesco 744
ball 744
chenko 744
Çay@@ 744
316 743
Bail@@ 743
Betty 743
Carib@@ 743
Johnston 743
Laden 743
Michelle 743
Orne 743
augh 743
bart 743
nec@@ 743
Aristi@@ 742
Kannada 742
Knowles 742
Stil@@ 742
U.@@ 742
Werner 742
anni@@ 742
icula 742
jac@@ 742
köprü 742
lands 742
Hotel 741
down 741
nos@@ 741
ols 741
87@@ 740
Anglo 740
Cass 740
Ech@@ 740
IOC 740
asim@@ 740
urt 740
Drive 739
Guill@@ 739
Hend@@ 739
LT@@ 739
Lost 739
ages 739
bell@@ 739
ful 739
horn 739
oł@@ 739
400@@ 738
777 738
Dynam@@ 738
Nil@@ 738
RAF 738
SI@@ 738
254 737
Doubs 737
Kaliningrad 737
Lea 737
Plymouth 737
cell 737
imit@@ 737
kiewicz 737
orea 737
sh 737
ẳ@@ 737
Head 736
Ibn 736
adona 736
asco 736
oris 736
osom@@ 736
yam@@ 736
yap@@ 736
Brisbane 735
HD@@ 735
coch@@ 735
oci@@ 735
pink 735
sey@@ 735
tun@@ 735
Cu 734
Forster 734
Meurthe 734
Władysław 734
ondo 734
onna 734
reduc@@ 734
ño 734
227 733
279 733
Art@@ 733
Hardy 733
Joachim 733
Just@@ 733
Lopez 733
Phantom 733
Verd@@ 733
Wrestling 733
ata@@ 733
iller 733
which 733
Çanakkale 733
öl@@ 733
ă 733
A2 732
Cub@@ 732
Ellen 732
Seychelles 732
Tehran 732
Whe@@ 732
agen 732
akura 732
aule 732
dula 732
vik 732
Country 731
Got 731
Trav@@ 731
distinc@@ 731
drama 731
impres@@ 731
isth@@ 731
oglossum 731
shin 731
ï@@ 731
1784 730
218 730
224 730
Greg 730
India 730
Köln 730
Palm@@ 730
Rel@@ 730
XX@@ 730
Ya 730
Yahoo 730
gab@@ 730
owa 730
229 729
86@@ 729
Cham 729
Nap@@ 729
Río 729
Tah@@ 729
deb@@ 729
ead 729
96@@ 728
Alber@@ 728
Fast 728
Julian 728
Meth@@ 728
Ordu 728
Soccer 728
Sulawesi 728
When 728
kle@@ 728
lit 728
over 728
Hull 727
Mys@@ 727
Prunus 727
Sot@@ 727
abo 727
blatt 727
fos@@ 727
lie@@ 727
mexic@@ 727
高@@ 727
303 726
Beta 726
Giuseppe 726
Isa@@ 726
Lil 726
Polk 726
Youth 726
Zam@@ 726
band 726
exil@@ 726
lug@@ 726
1400 725
1785 725
Bratislava 725
Capital 725
Daph@@ 725
Meh@@ 725
Siv@@ 725
Titanic 725
eling 725
i. 725
lim 725
ril@@ 725
yt@@ 725
özü 725
Dep@@ 724
Indre 724
Olom@@ 724
hist@@ 724
sous 724
virgin@@ 724
Anatolia 723
Borussia 723
Engel 723
Gay 723
Johannesburg 723
Olympia 723
Rice 723
alti@@ 723
anov 723
oya 723
sack 723
trus 723
İzmir 723
32@@ 722
Irwin 722
Kron@@ 722
Vau@@ 722
Winston 722
fid@@ 722
hya 722
iden 722
rian 722
258 721
Bradley 721
Catalonia 721
Ces@@ 721
Gand@@ 721
Heath 721
Kids 721
Sham@@ 721
bull 721
kay@@ 721
odus 721
phosphate 721
umi@@ 721
Bech@@ 720
Dordogne 720
Truman 720
modes 720
sou@@ 720
suka 720
3,7 719
Choice 719
Dresden 719
Mart 719
Riga 719
Rodríguez 719
Undertaker 719
Wend@@ 719
iger@@ 719
-- 718
239 718
245 718
Bremen 718
Pinus 718
Sullivan 718
Wonder 718
allas 718
eleg@@ 718
twe@@ 718
ysis 718
Chiba 717
EL@@ 717
Gates 717
Kaf@@ 717
Knox 717
anza 717
pei 717
plas@@ 717
pole 717
2030 716
Beth@@ 716
DB 716
IE@@ 716
Kud@@ 716
Psittac@@ 716
Troy 716
Wr@@ 716
ador 716
lyr@@ 716
vip@@ 716
Amiens 715
Bach 715
Biz@@ 715
Johan 715
Wad@@ 715
inaria 715
nos 715
rana 715
249 714
EM@@ 714
Flow 714
Krishna 714
Mant@@ 714
Richardson 714
aun 714
schw@@ 714
Łódź 714
Again 713
Fisher 713
GHz 713
Vand@@ 713
Vinc@@ 713
chev@@ 713
cs 713
ever 713
fiel@@ 713
hei 713
its@@ 713
tuber@@ 713
unov 713
vag@@ 713
KB 712
Oph@@ 712
Pasha 712
aldo 712
ester@@ 712
Chad 711
Diamond 711
Flash 711
Hara 711
bric@@ 711
dit 711
namo 711
odont@@ 711
sug@@ 711
tiques 711
32.@@ 710
Agar@@ 710
Hero 710
Igor 710
Kost@@ 710
Lucia 710
Wolfgang 710
bai 710
gas 710
ệ@@ 710
2D 709
Heb@@ 709
Lebanon 709
Motors 709
Osh@@ 709
bio 709
rat 709
Hannah 708
Marc@@ 708
Parma 708
asse 708
bab@@ 708
chio 708
dar 708
ild 708
sex 708
té 708
0,7 707
301 707
Baş@@ 707
Conference 707
EST 707
Francis@@ 707
Reynolds 707
Shan@@ 707
Winter 707
leton 707
Adon@@ 706
Blü@@ 706
Curtis 706
Seven 706
Tao 706
Xi 706
ardia 706
blan@@ 706
heim@@ 706
tank@@ 706
Brook@@ 705
Dres@@ 705
Gate 705
iPad 705
lian 705
sanc@@ 705
1780 704
263 704
Ghost 704
NK 704
U21 704
age@@ 704
ahn 704
sonar 704
ulia 704
ỡ@@ 704
2,1 703
Abbas 703
Hz 703
Stur@@ 703
Tes@@ 703
Xu@@ 703
comune 703
eko 703
hia 703
pist@@ 703
uter 703
Matsum@@ 702
Patr@@ 702
Pete 702
Ring 702
Stam@@ 702
first 702
methyl@@ 702
oshima 702
rav@@ 702
Gou@@ 701
Nou@@ 701
Trabzon 701
bran@@ 701
fire 701
gui@@ 701
ocamp@@ 701
阮@@ 701
3,8 700
Baldwin 700
Beng@@ 700
Bron@@ 700
Canc@@ 700
Eleanor 700
Hali@@ 700
ICAO 700
Technology 700
Wade 700
alaya 700
ubia 700
umba 700
山@@ 700
216 699
Cardiff 699
Hash@@ 699
Let@@ 699
Marcos 699
aven@@ 699
bet 699
cea 699
data 699
edra 699
film 699
lev 699
sman 699
History 698
LM 698
Tobago 698
get 698
metall@@ 698
polit@@ 698
rhy@@ 698
410 697
Arab@@ 697
Bordeaux 697
Davies 697
Evil 697
NS 697
dek 697
kale 697
ongo 697
pedi@@ 697
31,@@ 696
Lok@@ 696
Rain 696
True 696
isto 696
nhi@@ 696
self 696
Auto 695
Buckley 695
Daryl 695
Orléans 695
Rainbow 695
SH 695
SV 695
Wong 695
jar@@ 695
Öz@@ 695
山 695
Basel 694
Freedom 694
Haut 694
Holocaust 694
Joy 694
Mercedes 694
Mo 694
Night@@ 694
basis 694
cast 694
ffer 694
tal 694
timestamp 694
ydr@@ 694
500@@ 693
80.000 693
Guil@@ 693
SR 693
Yonne 693
seg@@ 693
thys 693
ńska 693
Gladi@@ 692
González 692
Isère 692
Lin 692
Ov@@ 692
Tesla 692
aul 692
aş@@ 692
brand@@ 692
cent@@ 692
ensky 692
glomer@@ 692
lich 692
tv 692
Escobar 691
Jazz 691
Kingdom 691
ML@@ 691
Nig@@ 691
Yur@@ 691
anlı 691
azar 691
bour@@ 691
console 691
det@@ 691
issi@@ 691
之@@ 691
285 690
Andrews 690
Descartes 690
Hopkins 690
Law 690
Metal 690
PG 690
PI 690
abor@@ 690
arga 690
ilov 690
inj@@ 690
Avi@@ 689
BB 689
Flu@@ 689
Gü@@ 689
Paul@@ 689
Valle 689
hol 689
ja@@ 689
1763 688
3DS 688
Barack 688
Devon 688
Kerala 688
Krasno@@ 688
Nakamura 688
Paraná 688
Vasil@@ 688
Viktor 688
adam@@ 688
atur@@ 688
contributor 688
quai 688
Gaza 687
Helsinki 687
Indi@@ 687
Joel 687
Public 687
Spl@@ 687
Swe@@ 687
alo 687
ayak@@ 687
inger@@ 687
pes@@ 687
tek 687
BL@@ 686
Bon 686
Electronic 686
Hippo@@ 686
Malay 686
Senna 686
color@@ 686
ān 686
243 685
Ard@@ 685
Blanco 685
Monster 685
alma 685
denti@@ 685
nikov 685
prom@@ 685
ň 685
Block 684
Britney 684
CoV 684
LD 684
Plant@@ 684
aku@@ 684
alu@@ 684
asso 684
escu 684
286 683
9,5 683
Auguste 683
Bennett 683
Kali 683
Lorenzo 683
Orton 683
andal 683
arak 683
ecr@@ 683
gelen@@ 683
imia 683
lak@@ 683
1A 682
Lisbon 682
Philipp@@ 682
Seth 682
aburi 682
afric@@ 682
stream 682
Concert 681
Kuch@@ 681
Petit 681
Thymus 681
annul@@ 681
chis 681
itia 681
oğlu 681
quist 681
taş 681
vill@@ 681
242 680
4.0@@ 680
501 680
Bieber 680
Chic@@ 680
Jack@@ 680
Marketing 680
Poir@@ 680
Rang@@ 680
ager 680
heli@@ 680
nik@@ 680
Aconitum 679
Ib@@ 679
Kiss 679
buri 679
hisar 679
kirchen 679
niv@@ 679
pher@@ 679
tura 679
urs@@ 679
HF 678
Hubble 678
Kiss@@ 678
Larry 678
Malatya 678
Wake 678
elly 678
pling 678
quis@@ 678
sten 678
tang@@ 678
Ani@@ 677
Eis@@ 677
Heg@@ 677
Ic@@ 677
Jub@@ 677
MD@@ 677
Port@@ 677
Shield 677
Xer@@ 677
auli@@ 677
eres 677
geon 677
hun 677
lem 677
point 677
1768 676
Card 676
Friends 676
Ingrid 676
Ocean 676
Riz@@ 676
bog@@ 676
cla@@ 676
251 675
Antonius 675
Benfica 675
Erzincan 675
atorium 675
enton 675
trag@@ 675
Bus 674
Estr@@ 674
Films 674
Julie 674
Leslie 674
Rollins 674
Tun@@ 674
ador@@ 674
flag@@ 674
iman 674
yun 674
Jake 673
Kingston 673
NC 673
UI 673
https 673
sé@@ 673
陳@@ 673
1781 672
French 672
GT@@ 672
Hancock 672
Hes@@ 672
IATA 672
Somerset 672
alina 672
sad@@ 672
username 672
35.@@ 671
A.C. 671
Claire 671
Giresun 671
Jonas 671
Mumbai 671
Planet 671
Tonga 671
ağı 671
cana 671
core 671
ideae 671
leh@@ 671
ân@@ 671
295 670
Dog@@ 670
Gibson 670
Lah@@ 670
N1 670
Ottawa 670
Salzburg 670
allo 670
amu 670
asma 670
ensa 670
trap@@ 670
Andal@@ 669
Bash@@ 669
Gujarat 669
Kara 669
Mong@@ 669
Nara 669
Peg@@ 669
Plaza 669
Watch 669
anie 669
cık 669
mel 669
Cov@@ 668
Deg@@ 668
Elmer 668
Machine 668
Mans@@ 668
Senegal 668
Village 668
Wester@@ 668
elor@@ 668
mê@@ 668
ose@@ 668
oslav 668
yurt 668
Cali@@ 667
Rostov 667
Tatar 667
Toc@@ 667
Ya@@ 667
bain 667
code 667
coni 667
nin@@ 667
張@@ 667
Adıyaman 666
Part 666
Roth 666
eke 666
estra 666
opar@@ 666
1778 665
Anac@@ 665
Blair 665
Eun@@ 665
Fayette 665
Kann@@ 665
Kobayashi 665
Nicole 665
Pont@@ 665
Robot 665
byte 665
coronavirus 665
epis@@ 665
esma 665
ien 665
252 664
Cena 664
Place 664
angol@@ 664
bun@@ 664
gut@@ 664
jima 664
Constantinople 663
Engel@@ 663
HE@@ 663
Rhiz@@ 663
UR@@ 663
arii 663
austr@@ 663
bad@@ 663
coll@@ 663
emati@@ 663
gee 663
nil@@ 663
scope 663
thel@@ 663
wall 663
ãm 663
257 662
Brad 662
CI 662
Carroll 662
Fres@@ 662
bes 662
irō 662
ize 662
233 661
33.@@ 661
Josef 661
Susan 661
^ 661
ainville 661
aray@@ 661
arion 661
berger 661
ele@@ 661
haw@@ 661
nerv@@ 661
phin 661
shu 661
302 660
Aff@@ 660
Gott@@ 660
Hedgehog 660
MacArthur 660
Shōnen 660
neus 660
patr@@ 660
tax@@ 660
1796 659
DR 659
ect 659
emann 659
jung 659
num@@ 659
race 659
tras@@ 659
侯 659
Ches@@ 658
Falls 658
Kara@@ 658
Pale@@ 658
e.@@ 658
iza 658
tive 658
ward@@ 658
Ê 658
éri@@ 658
Andreas 657
Dit@@ 657
ES 657
Eck@@ 657
Fig@@ 657
Fitz@@ 657
Mindanao 657
Run@@ 657
Schult@@ 657
cog@@ 657
obsol@@ 657
ping@@ 657
3,4 656
560 656
Acer 656
Fernández 656
Fy@@ 656
Galli@@ 656
Lagos 656
Matt@@ 656
RIAA 656
Seng@@ 656
Webb 656
ank 656
berg@@ 656
bot 656
burn 656
cara 656
deci@@ 656
idine 656
tram 656
trim@@ 656
vesti@@ 656
ß@@ 656
Albion 655
Countdown 655
Derby 655
Janet 655
Pf@@ 655
gli@@ 655
music 655
Angela 654
Cl2 654
Lower 654
Math@@ 654
Percy 654
angel@@ 654
bad 654
garh 654
law@@ 654
ourt 654
pas 654
uko 654
vs 654
241 653
Acon@@ 653
Adam@@ 653
Bok@@ 653
Kawasaki 653
St.@@ 653
Steg@@ 653
amis 653
astra 653
endra 653
AZ 652
Carmen 652
Lamb@@ 652
Suk@@ 652
UT@@ 652
ische 652
zav@@ 652
BN 651
Eddie 651
Mega 651
WT@@ 651
hach@@ 651
lib@@ 651
noi 651
organ 651
rocket 651
ucci 651
zam@@ 651
Hug@@ 650
Rich 650
TH 650
ambo 650
ede@@ 650
ile@@ 650
pru@@ 650
520 649
Barbados 649
Classic 649
NKVD 649
Nest@@ 649
Pietro 649
Salt 649
bah@@ 649
dost@@ 649
lium 649
nice 649
occus 649
olin 649
386 648
Buffalo 648
Castell@@ 648
Dahl@@ 648
Dmitri 648
GE 648
IT 648
Oda 648
beck 648
essa 648
iola 648
were 648
Dalm@@ 647
Fed 647
Guar@@ 647
Shig@@ 647
al. 647
aper@@ 647
mann@@ 647
tay@@ 647
upta 647
zyn 647
ø 647
Spielberg 646
blues 646
mend@@ 646
ocon@@ 646
uo 646
ța 646
Observatory 645
Teresa 645
Yah@@ 645
apos@@ 645
ique 645
ktop 645
sul 645
tuy@@ 645
460 644
GPS 644
Marino 644
Mu 644
Parad@@ 644
Yū@@ 644
Zürich 644
amata 644
iki@@ 644
illo@@ 644
kis 644
master 644
318 643
Alain 643
Ef@@ 643
Flying 643
Jupiter 643
Morav@@ 643
Saddam 643
Va@@ 643
acles 643
mare 643
penn@@ 643
Étienne 643
Aurora 642
Becker 642
Development 642
Fame 642
Gat@@ 642
Harper 642
Hud@@ 642
Hung@@ 642
Lay 642
Mach 642
asto@@ 642
idas 642
rin@@ 642
uss 642
1740 641
231 641
Aube 641
Bund@@ 641
Dak@@ 641
Gong@@ 641
Mother 641
Toledo 641
Webster 641
dice 641
elleri 641
ä 641
1774 640
950 640
Canon 640
Lorentz 640
Noel 640
Oak 640
Reb@@ 640
UN 640
aves 640
ement 640
jun@@ 640
lington 640
mun 640
中@@ 640
307 639
390 639
Cow@@ 639
César 639
ET@@ 639
Gó@@ 639
IR@@ 639
KA 639
Kid 639
Klo@@ 639
Luca 639
Oblast 639
Rok@@ 639
Salamanca 639
Side 639
Veg@@ 639
bb@@ 639
tris@@ 639
Lew@@ 638
Pie@@ 638
Pol 638
Trento 638
ebe 638
entina 638
gall@@ 638
ilius 638
mani@@ 638
和@@ 638
Castil@@ 637
Flanders 637
Gud@@ 637
Himmler 637
IB@@ 637
Ment@@ 637
Moses 637
O4 637
Steiermark 637
AO@@ 636
Gaulle 636
Jamie 636
Philos@@ 636
SF@@ 636
Ye 636
eyn 636
idon 636
neph@@ 636
sper@@ 636
thre@@ 636
İn@@ 636
℃ 636
西@@ 636
323 635
Bayer 635
Brunswick 635
Firefox 635
Halifax 635
Jaw@@ 635
Ten 635
Wight 635
aco@@ 635
dow@@ 635
liano 635
module 635
omat@@ 635
podi@@ 635
ıç@@ 635
。 635
市 635
001 634
1767 634
Denver 634
Monica 634
Odessa 634
Randy 634
alk@@ 634
face 634
hier@@ 634
kit 634
oce 634
sir@@ 634
530 633
Church 633
Dae@@ 633
EN 633
Hoh@@ 633
Józef 633
Nike 633
Sin 633
ilg@@ 633
sim 633
thodes 633
ン@@ 633
Aw@@ 632
Doc@@ 632
Eust@@ 632
Jes@@ 632
Klein 632
Lotus 632
Meyer 632
Nih@@ 632
Perkins 632
Rig@@ 632
Sait@@ 632
Woj@@ 632
car 632
clor@@ 632
lina 632
lind@@ 632
mam@@ 632
othe@@ 632
sie 632
36.@@ 631
Asper@@ 631
Edwin 631
Fey@@ 631
Lyn@@ 631
Suc@@ 631
Thur@@ 631
Tip@@ 631
Za@@ 631
concer@@ 631
enga 631
ism@@ 631
ory@@ 631
qué 631
246 630
268 630
94@@ 630
Adana 630
Akk@@ 630
Angelo 630
Bird 630
Crim@@ 630
Kars 630
List 630
Miss@@ 630
Sims 630
eber@@ 630
sau@@ 630
soc@@ 630
Ỷ 630
1760 629
Const@@ 629
DR@@ 629
Gif@@ 629
Gül@@ 629
Ps@@ 629
bel 629
depres@@ 629
Genoa 628
H2@@ 628
HBO 628
Joc@@ 628
Saturday 628
U.S. 628
action 628
adh 628
ambi@@ 628
ayr@@ 628
hu 628
oco 628
usi 628
ří@@ 628
Hub@@ 627
Perth 627
Prop@@ 627
SO4 627
Teg@@ 627
americana 627
engine 627
gel 627
orno 627
schul@@ 627
uza 627
236 626
37.@@ 626
Burton 626
Hagen 626
Hod@@ 626
WWF 626
atlan@@ 626
col 626
elen@@ 626
owi@@ 626
Bethlehem 625
Court 625
Gin@@ 625
Gres@@ 625
HTML 625
Review 625
Sonic 625
Sport 625
bern@@ 625
etsu 625
league 625
like 625
link 625
mas 625
otype 625
ON 624
Schul@@ 624
Sut@@ 624
abu 624
alle 624
apo 624
ettel 624
gad@@ 624
igne 624
izer 624
opy 624
oras 624
quet 624
288 623
Hindi 623
Khalid 623
Pok@@ 623
Ubuntu 623
ener@@ 623
mera 623
rich 623
tico 623
ute 623
2500 622
313 622
Dwight 622
Fan@@ 622
Gale@@ 622
Gay@@ 622
Naj@@ 622
Pyth@@ 622
Rush 622
Wanda 622
alty 622
maur@@ 622
ved@@ 622
1777 621
253 621
Adr@@ 621
Cannon 621
Lara 621
lada 621
sko@@ 621
tris 621
ů@@ 621
1770 620
306 620
ASA 620
Amasya 620
Glob@@ 620
Halic@@ 620
Mersin 620
Turin 620
Warriors 620
yat 620
Equ@@ 619
Mend@@ 619
Rain@@ 619
Ré@@ 619
Salem 619
Under 619
chin 619
islaus 619
mat 619
ymn@@ 619
ț@@ 619
3.0 618
Children 618
Coll@@ 618
Flag@@ 618
Kyō@@ 618
Sound@@ 618
Stol@@ 618
gr 618
kent 618
787 617
Both@@ 617
Dynamo 617
Eminem 617
Europe 617
FS 617
Gim@@ 617
Lati@@ 617
Lena 617
Snow 617
Stan 617
Zeppelin 617
fluor@@ 617
mit 617
open@@ 617
sbury 617
thias 617
trat@@ 617
xel 617
271 616
278 616
Beauty 616
Chopin 616
Dut@@ 616
Hell 616
Howe 616
Neo 616
antum 616
ards 616
olan@@ 616
315 615
34.@@ 615
Apol@@ 615
Ket@@ 615
MO 615
Regel 615
Rup@@ 615
Salam@@ 615
Tai@@ 615
Tito 615
Toscana 615
Verona 615
Viol@@ 615
ague 615
diver@@ 615
eff 615
iformes 615
mod 615
nova 615
reo 615
sibir@@ 615
Dion 614
Granada 614
Hokka@@ 614
Sarat@@ 614
Spreng@@ 614
aise 614
bir 614
carol@@ 614
ochrom@@ 614
ody 614
onen 614
outi 614
unia 614
wana 614
610 613
Fuji 613
McK@@ 613
Nun@@ 613
One@@ 613
SpaceX 613
kW 613
shan 613
BE 612
Come 612
Data 612
Gomez 612
Grand@@ 612
Quest 612
Scu@@ 612
Tep@@ 612
Vla@@ 612
Windsor 612
debil@@ 612
ision 612
kap@@ 612
p.@@ 612
70.000 611
Andorra 611
Baku 611
From 611
ISS 611
Louvre 611
Maggie 611
Thomis@@ 611
Voyager 611
biidae 611
dz@@ 611
edi 611
morph@@ 611
1.5 610
247 610
Aşağı@@ 610
Calédonie 610
Gün@@ 610
Hit 610
KO@@ 610
Réunion 610
Saga 610
Short 610
Slovak 610
gra 610
kes@@ 610
multic@@ 610
uti 610
ène 610
39.@@ 609
Brooks 609
Ear@@ 609
Ellis 609
Emmanuel 609
IN 609
Laz@@ 609
Preston 609
Them@@ 609
Touch 609
Yes@@ 609
inek 609
zem@@ 609
一@@ 609
平@@ 609
640 608
Dog 608
Fen@@ 608
Fior@@ 608
Fury 608
Nippon 608
align 608
enter 608
flex@@ 608
iter@@ 608
itu 608
kop@@ 608
lice 608
nis@@ 608
sud@@ 608
Bergamo 607
NH 607
NY@@ 607
Nie@@ 607
Prague 607
Radar 607
Rond@@ 607
Sinop 607
UC@@ 607
Zab@@ 607
flash 607
icat 607
icz 607
uan 607
244 606
269 606
Atom@@ 606
Doug@@ 606
Pist@@ 606
Power@@ 606
Price 606
Raw@@ 606
Rudy 606
They 606
Tis@@ 606
been 606
bere@@ 606
ector 606
lius 606
Cagliari 605
Cil@@ 605
Lanc@@ 605
PV@@ 605
Puc@@ 605
Se 605
TM 605
acoustic 605
hood 605
inas 605
omin@@ 605
FIDE 604
HO@@ 604
Jet 604
Messier 604
Pixar 604
Vichy 604
Vl@@ 604
aar 604
coin 604
einf@@ 604
ström 604
ubr@@ 604
1771 603
Aless@@ 603
Bowl 603
Nash 603
Symph@@ 603
Talk 603
arn@@ 603
boa 603
gin 603
hib@@ 603
va@@ 603
Control 602
Eastern 602
Roll 602
clo@@ 602
ibu 602
ignano 602
jah 602
pad@@ 602
qi 602
zard 602
Ü@@ 602
ö 602
Gener@@ 601
Ludwig@@ 601
Muş 601
Ony@@ 601
Rach@@ 601
York@@ 601
akawa 601
nut@@ 601
tail 601
ã@@ 601
ır@@ 601
י@@ 601
LE 600
LS 600
Mix@@ 600
Plut@@ 600
Suriname 600
Us 600
ainer 600
ait@@ 600
alternative 600
aura 600
oideae 600
tag 600
Den 599
Gleich@@ 599
Joshua 599
Marine 599
Mesa 599
Noah 599
Watts 599
bom@@ 599
dun@@ 599
eno@@ 599
itzer 599
lil@@ 599
outh 599
ule 599
97@@ 598
Bach@@ 598
Beethoven 598
Cod@@ 598
Donetsk 598
Eden 598
Full 598
Horus 598
Ice 598
Karate 598
Memphis 598
Mori 598
Vist@@ 598
Wiki@@ 598
erson 598
icki 598
ườn 598
248 597
266 597
Arrow 597
Atel@@ 597
Bolton 597
Covid 597
Kish@@ 597
Malcolm 597
Our 597
Want 597
alog 597
colum@@ 597
emaker 597
igg@@ 597
sville 597
warts 597
・ 597
Afyonkarahisar 596
Baghdad 596
Bin 596
Chapelle 596
Fang 596
Kik@@ 596
Kraj@@ 596
MI 596
Mr@@ 596
Reigns 596
Theodor 596
alin@@ 596
maf@@ 596
seri@@ 596
watch 596
319 595
540 595
Ada 595
América 595
Aydın 595
Bryant 595
Dôme 595
Elbe 595
Fav@@ 595
Gyp@@ 595
Marg@@ 595
Micha@@ 595
Quar@@ 595
Selena 595
Shadow 595
Trinity 595
Vie@@ 595
got@@ 595
mond 595
other 595
rob@@ 595
237 594
Barrett 594
Fidel 594
Maxim 594
Oliveira 594
Swar@@ 594
WS 594
ansk 594
kun 594
mina 594
nio 594
273 593
Alonso 593
Cohen 593
ald@@ 593
ero@@ 593
pool 593
sian 593
199@@ 592
321 592
570 592
Catalunya 592
Cec@@ 592
Dante 592
Humboldt 592
Kay 592
Norwich 592
cos 592
esha 592
eston 592
gs@@ 592
loi 592
sang@@ 592
trailer 592
èvre 592
ð@@ 592
311 591
Future 591
Liz@@ 591
Loh@@ 591
Prairie 591
Rah@@ 591
Sporting 591
UFC 591
Wid@@ 591
apti@@ 591
cis 591
eson 591
isco 591
leben 591
zin@@ 591
ør@@ 591
仁@@ 591
Amanda 590
Fortune 590
Glad@@ 590
Hard 590
Olden@@ 590
assi 590
šice 590
1300 589
Beh@@ 589
Chom@@ 589
Henri@@ 589
Lim 589
Player 589
Rus 589
She 589
Voc@@ 589
islav 589
vius 589
35.000 588
99,@@ 588
Pleist@@ 588
Pu 588
Tree 588
Vega 588
apur@@ 588
boc@@ 588
love 588
nitz 588
ulo 588
Ander@@ 587
Bez@@ 587
Bras@@ 587
Coul@@ 587
DT@@ 587
Duncan 587
ED@@ 587
Gen 587
Herman 587
Homer 587
Lal@@ 587
NP 587
Neck@@ 587
Yamamoto 587
ensen 587
ichthys 587
orf 587
silv@@ 587
times 587
vina 587
Bam@@ 586
Bén@@ 586
Jenn@@ 586
Kır@@ 586
PN@@ 586
Tiber@@ 586
ains 586
digit@@ 586
entum 586
fo 586
luca 586
suc@@ 586
ár 586
Bates 585
Buck@@ 585
Forever 585
Jav@@ 585
Non@@ 585
Plato 585
SB 585
Schön@@ 585
Thunder@@ 585
XXI 585
Yev@@ 585
enson 585
fors 585
hut@@ 585
kig@@ 585
uranium 585
ycl@@ 585
ysz@@ 585
ül@@ 585
261 584
Agu@@ 584
Nature 584
Right 584
Strasbourg 584
atu@@ 584
hatta 584
iş@@ 584
ll 584
ĩ@@ 584
Constantine 583
Gers 583
Hercules 583
Levant 583
Lys@@ 583
Nikol@@ 583
Romagna 583
X.@@ 583
colo 583
gun@@ 583
o.@@ 583
onas 583
poli 583
px 583
tilla 583
375 582
960 582
Australian 582
Carp@@ 582
Castle 582
Cat 582
Cornwall 582
Drama 582
Elsa 582
Make 582
Pavia 582
U19 582
augh@@ 582
auri 582
odes@@ 582
ree 582
ugi 582
《 582
Auckland 581
Mer 581
Potsdam 581
Vanuatu 581
Zag@@ 581
bine 581
esse 581
laceae 581
mara 581
oten 581
》 581
1B 580
@ 580
Bliz@@ 580
Cey@@ 580
Crown 580
Gerald 580
Lé@@ 580
Marathon 580
Muğla 580
Sergey 580
erc@@ 580
isse 580
nag@@ 580
rid 580
274 579
284 579
Alfonso 579
Barnes 579
Beirut 579
Caracas 579
Catalan 579
Factory 579
HS 579
Led@@ 579
Niederösterreich 579
Sasha 579
Stoke 579
Wien 579
atori@@ 579
aver 579
isma 579
rax 579
ril 579
sci@@ 579
teo 579
ting@@ 579
šov 579
Cabo 578
Craw@@ 578
Deutsche 578
Falk@@ 578
Know 578
Rooney 578
Sato 578
Starg@@ 578
Waw@@ 578
Westfalen 578
Zap@@ 578
a. 578
otos 578
thé@@ 578
ː@@ 578
580 577
Alba 577
Ağ@@ 577
Gauss 577
Jesse 577
Krist@@ 577
RI 577
Tub@@ 577
dafi 577
oia 577
oyan 577
vs. 577
1648 576
333 576
Champagne 576
Colin 576
Dame 576
Daw@@ 576
Firenze 576
Friend 576
Goth@@ 576
Jeremy 576
Martin@@ 576
Oy@@ 576
Rita 576
Sof@@ 576
Woods 576
eley 576
get@@ 576
hik@@ 576
izi@@ 576
lary 576
ük 576
đ 576
600.000 575
Command 575
Darius 575
Destiny 575
Dhabi 575
Factor 575
Luigi 575
Nathan 575
Poli@@ 575
UL@@ 575
excel@@ 575
lou@@ 575
membran@@ 575
neutr@@ 575
Catarina 574
Groen@@ 574
Messina 574
Palmer 574
Toulouse 574
Zagreb 574
Zal@@ 574
alpa 574
dens 574
orian 574
soul 574
toria 574
ós 574
イ@@ 574
陵 574
Pın@@ 573
Ridge 573
Russian 573
Springfield 573
Vernon 573
Water 573
alda 573
diversi@@ 573
fort 573
oscop@@ 573
thal 573
trios 573
ị@@ 573
Arag@@ 572
Chaplin 572
Collection 572
Fritz 572
Lean 572
Queens 572
Tamb@@ 572
amura 572
118@@ 571
630 571
Giorgio 571
Jord@@ 571
Kuhn 571
Sever@@ 571
UR 571
chim@@ 571
gard@@ 571
itan 571
jet 571
osu 571
ular 571
About 570
Lund 570
Mok@@ 570
Motor 570
arat 570
公主 570
322 569
Aude 569
B1 569
Bek@@ 569
Cromwell 569
GC 569
Grum@@ 569
Hach@@ 569
Trust 569
Tyr@@ 569
ien@@ 569
mart@@ 569
mona 569
omp@@ 569
otov 569
ậc 569
298 568
XL 568
astro@@ 568
basil@@ 568
zey@@ 568
3.500 567
Abel 567
Britain 567
Como 567
Dé@@ 567
Paw@@ 567
Shel@@ 567
Tennis 567
UV 567
Vu@@ 567
anis@@ 567
lova 567
mana 567
sv@@ 567
1759 566
281 566
335 566
Fabian 566
GO 566
Lév@@ 566
ahl@@ 566
asy 566
eur 566
quit@@ 566
soph@@ 566
usz 566
ו@@ 566
ẵng 566
720 565
CB 565
Hamm@@ 565
Jerzy 565
Kazak@@ 565
Nexus 565
Pope 565
brow@@ 565
ethyl@@ 565
ils 565
misch 565
pom@@ 565
trom@@ 565
ău 565
326 564
406 564
Allier 564
Amin 564
Austral@@ 564
Cross@@ 564
Herzegovina 564
Koy@@ 564
Miles 564
Pak 564
Peri@@ 564
Sapporo 564
azine 564
dle@@ 564
ece 564
gius 564
incon@@ 564
iri@@ 564
iru 564
kill 564
lanceol@@ 564
suya 564
thar@@ 564
uil 564
ux@@ 564
üm@@ 564
福@@ 564
267 563
618 563
Mars@@ 563
Metz@@ 563
Mori@@ 563
Nashville 563
Pat 563
ape@@ 563
arta 563
cit@@ 563
hard@@ 563
high 563
quin 563
ych 563
1644 562
272 562
404 562
Besch@@ 562
Canberra 562
Gis@@ 562
Hat 562
Kazim@@ 562
Legend 562
Tech@@ 562
alon 562
corona 562
diff@@ 562
omyc@@ 562
tit 562
xen@@ 562
xit 562
year 562
259 561
Act 561
Avengers 561
Color 561
Four@@ 561
Shi 561
class 561
ency 561
erium 561
igen@@ 561
integri@@ 561
nev 561
Bartın 560
Connor 560
Drew 560
Gör@@ 560
IL@@ 560
Musa 560
apoder@@ 560
chas@@ 560
dt 560
ls 560
staff 560
tion@@ 560
uki@@ 560
A4 559
Belle@@ 559
Griff@@ 559
Lour@@ 559
RCA 559
Vera 559
Wich@@ 559
Wonder@@ 559
Zw@@ 559
ocia 559
place 559
quel@@ 559
sworth 559
Bart@@ 558
Beck 558
Stri@@ 558
cô@@ 558
eas 558
hov 558
ital 558
pav@@ 558
pot 558
Aviation 557
Bihar 557
Kong@@ 557
Lucius 557
RO 557
Turk@@ 557
Tz@@ 557
iso 557
minim@@ 557
uen@@ 557
ệng 557
0,9 556
Duf@@ 556
H2 556
ID@@ 556
KGB 556
Produ@@ 556
Tetra@@ 556
knot 556
mans 556
rab@@ 556
395 555
Boles@@ 555
Canadian 555
Eff@@ 555
Fair 555
Kahramanmaraş 555
Pim@@ 555
Pow@@ 555
Show@@ 555
enny 555
esk@@ 555
known 555
rent 555
s.@@ 555
tori 555
1750 554
1762 554
Associ@@ 554
B2 554
Bf 554
Chat@@ 554
ED 554
Free@@ 554
Islam 554
Milli@@ 554
Perfect 554
Yong@@ 554
alle@@ 554
baz 554
elot 554
fino 554
ulla 554
waj@@ 554
zac 554
470 553
Atr@@ 553
Kazan 553
Plas@@ 553
ato@@ 553
cou@@ 553
det 553
edil@@ 553
lee 553
nut 553
pler 553
rel 553
、 553
聖@@ 553
660 552
AO 552
Bath 552
Fan 552
Joker 552
Konstantinos 552
Net 552
Sali@@ 552
Shep@@ 552
Vermont 552
amer 552
bara 552
conn@@ 552
eberg 552
nel@@ 552
nius 552
郡@@ 552
Apr@@ 551
Burgos 551
Burke 551
Columb@@ 551
Hodg@@ 551
Industries 551
Jacob@@ 551
Lay@@ 551
Liechtenstein 551
Order 551
Ried@@ 551
Wan@@ 551
aday 551
aden 551
chuk 551
dieu 551
ender 551
new@@ 551
sulfur@@ 551
283 550
6000 550
Api@@ 550
CU 550
Gilg@@ 550
Goldman 550
Kami@@ 550
Pittsburgh 550
Reid 550
Wesley 550
arin@@ 550
asan 550
atan 550
brit@@ 550
camer@@ 550
pina 550
rose 550
sant@@ 550
276 549
Hyundai 549
Jak@@ 549
Ruby 549
Starr 549
athi 549
ağaç 549
div@@ 549
dog@@ 549
ells 549
enfeld 549
hill 549
riches 549
Arab 548
Clapton 548
Maru 548
Rap 548
Sharon 548
Soh@@ 548
Tag 548
Turn@@ 548
Universe 548
Wald@@ 548
anto@@ 548
itor 548
ocene 548
pendi@@ 548
qa 548
wad@@ 548
Adventure 547
Brass@@ 547
Det@@ 547
Jol@@ 547
Luci@@ 547
Newman 547
ON@@ 547
Shane 547
Shr@@ 547
alde@@ 547
nem 547
vić 547
Cox 546
Def@@ 546
Der 546
Glass 546
Greater 546
Lol@@ 546
Only 546
av 546
lois 546
saurus 546
scand@@ 546
ule@@ 546
355 545
East@@ 545
Hrad@@ 545
M2 545
Sergio 545
Yellow 545
anat@@ 545
atrop@@ 545
cli@@ 545
enidae 545
ois@@ 545
sobr@@ 545
weiler 545
299 544
CON@@ 544
Christine 544
IMF 544
Kass@@ 544
Maiden 544
Mainz 544
Nation 544
Race 544
Robertson 544
Shia 544
Social 544
Strep@@ 544
Vogue 544
angi@@ 544
arian 544
bana 544
chat@@ 544
most@@ 544
tions 544
282 543
4,7 543
Cambr@@ 543
Elvis 543
Lionel 543
Narc@@ 543
ovna 543
ró@@ 543
semic@@ 543
undi 543
324 542
Barney 542
Cuenca 542
Fac@@ 542
Günther 542
Jenny 542
PD@@ 542
Pelop@@ 542
Stop 542
Vito 542
epo@@ 542
etic 542
igen 542
lán 542
retr@@ 542
siti@@ 542
sun 542
ük@@ 542
Allison 541
App 541
Conrad 541
Dana 541
Here 541
Hesse 541
KS 541
Kemp@@ 541
PG@@ 541
Third 541
Vicente 541
ausen 541
force 541
franc 541
kaz@@ 541
m3 541
subs@@ 541
Ø@@ 541
620 540
Batista 540
Brag@@ 540
Cis@@ 540
Garcia 540
NET 540
Natal 540
OR@@ 540
Schar@@ 540
Shab@@ 540
Timur 540
Tsun@@ 540
UM@@ 540
ecti@@ 540
hide 540
isca 540
jin@@ 540
rii 540
roll 540
walk 540
291 539
352 539
40,@@ 539
Army 539
Blues 539
Gómez 539
Purple 539
Winn@@ 539
Zonguldak 539
inson 539
oter 539
spec@@ 539
And 538
Annie 538
Ero@@ 538
Gibbs 538
Krause 538
Mafia 538
S2 538
aeidae 538
ebel 538
enos 538
intermedi@@ 538
pili@@ 538
ě 538
4,6 537
510 537
Baja 537
Kall@@ 537
MD 537
Sog@@ 537
Toshi@@ 537
ative 537
gri 537
宗 537
1757 536
Altın@@ 536
Clayton 536
Dawn 536
Fah@@ 536
Galil@@ 536
Modern 536
Nairobi 536
Room 536
äl@@ 536
296 535
Bee 535
Code 535
Hr@@ 535
ONE 535
Patricia 535
Sarthe 535
Stock@@ 535
Sł@@ 535
Tripoli 535
WrestleMania 535
are@@ 535
arsen@@ 535
ebo@@ 535
olla 535
shot 535
Ó@@ 535
† 535
293 534
Gümüşhane 534
Het@@ 534
Igu@@ 534
Rober@@ 534
Upper 534
andia 534
kot@@ 534
log 534
rels 534
server 534
utes 534
vulgar@@ 534
Aba@@ 533
Ah 533
Bean 533
Düzce 533
Fa 533
Margar@@ 533
McN@@ 533
Sá@@ 533
tili@@ 533
Barbarossa 532
Emil 532
Mozilla 532
Olga 532
craft 532
ink@@ 532
pp 532
yok@@ 532
év@@ 532
ür@@ 532
長@@ 532
401 531
Bosch 531
Cecil 531
Chin 531
Cornelis 531
Lond@@ 531
SF 531
Zamora 531
alii 531
enk@@ 531
greg@@ 531
guatem@@ 531
ial 531
omen@@ 531
sich@@ 531
ures 531
14.000 530
Bonn@@ 530
Campo 530
PV 530
Push@@ 530
Salerno 530
Thir@@ 530
ardo 530
iste 530
iston 530
rol 530
shu@@ 530
xim@@ 530
4,2 529
5,6 529
Dunn 529
Huang 529
Hutch@@ 529
Ik@@ 529
Lowell 529
Mail 529
Mandela 529
Re 529
Severus 529
Sō@@ 529
anas 529
arch 529
bro 529
cabin 529
dum@@ 529
sio 529
tok@@ 529
uld 529
urg 529
òa 529
1773 528
2.5 528
385 528
Baptiste 528
HK@@ 528
Karat@@ 528
Katy 528
Lum@@ 528
Milton 528
Paramount 528
Pick@@ 528
Pike 528
Vickers 528
Yamag@@ 528
aran 528
egen@@ 528
endo 528
hun@@ 528
iso@@ 528
mom@@ 528
onea 528
oyama 528
ufa 528
ş 528
Discovery 527
Holdings 527
Kiel 527
Lviv 527
Magnus 527
Naur@@ 527
Spirit 527
Tonight 527
flam@@ 527
put@@ 527
1.0 526
2026 526
309 526
BSD 526
Divisi@@ 526
Dug@@ 526
Jug@@ 526
Klu@@ 526
Shepard 526
agua 526
aler 526
egu@@ 526
mena 526
opol@@ 526
stra 526
tah@@ 526
uş@@ 526
0,0@@ 525
384 525
Gramm@@ 525
Interactive 525
Pin 525
Reading 525
Rivera 525
Rockefeller 525
Smo@@ 525
anto 525
atari 525
bed@@ 525
grav@@ 525
obo 525
oid@@ 525
owicz 525
system 525
utz@@ 525
人 525
Albi@@ 524
Gaziantep 524
Nina 524
Sinai 524
Stav@@ 524
Thor 524
Veracruz 524
bola 524
boro 524
ender@@ 524
mic 524
rita 524
sbach 524
sle@@ 524
ég@@ 524
45,@@ 523
ATM 523
EF@@ 523
Electronics 523
Hermi@@ 523
Peace 523
Toro 523
Velvet 523
egan 523
gir 523
ihara 523
sugu 523
Ace 522
Coca 522
Konstantin 522
Lev 522
PF 522
View 522
aller 522
asy@@ 522
case 522
site 522
130@@ 521
Aver@@ 521
IU 521
Kant 521
RP 521
Sex@@ 521
Yvelines 521
dens@@ 521
onville 521
rion 521
ứ@@ 521
110@@ 520
345 520
357 520
Action 520
Aran@@ 520
Blum@@ 520
Broadcasting 520
Fleming 520
NO 520
Pasteur 520
Tong@@ 520
Vision 520
abat 520
cour@@ 520
idan 520
tree 520
194@@ 519
331 519
Bingöl 519
Bitlis 519
Camar@@ 519
Ferrara 519
Jam 519
Kyle 519
March 519
Moun@@ 519
Python 519
Ruth 519
Schneider 519
alber@@ 519
host 519
imper@@ 519
kal 519
leon@@ 519
onte 519
their 519
ullah 519
zor@@ 519
Aster 518
Chapman 518
Crist@@ 518
Lancashire 518
Lich@@ 518
Rana 518
feria 518
iria 518
ob 518
oba@@ 518
3,1 517
CK 517
Dw@@ 517
Elliott 517
Groß@@ 517
Nolan 517
Plu@@ 517
RM 517
Vij@@ 517
body 517
chy 517
elling 517
ende 517
iter 517
modest@@ 517
only 517
osper@@ 517
row@@ 517
shar@@ 517
xx 517
277 516
44,@@ 516
Alph@@ 516
Antwerp 516
Bess@@ 516
DI@@ 516
FF@@ 516
Merlin 516
Morales 516
Most 516
Plant 516
Said 516
allen 516
bris 516
iland 516
mid 516
pak@@ 516
stat@@ 516
xes 516
ła 516
371 515
Abys@@ 515
Body 515
Córdoba 515
Education 515
Franc@@ 515
Gloria 515
Pfe@@ 515
Plata 515
Que@@ 515
Yamaguchi 515
bera 515
deri 515
343 514
356 514
Armor 514
Crac@@ 514
Domingo 514
Mills 514
Ngo@@ 514
Phillip 514
Pierce 514
Racing 514
Rize 514
cent 514
cup 514
entry 514
hed@@ 514
hug@@ 514
inka 514
mRNA 514
mé 514
olina 514
onie 514
oss 514
sych@@ 514
Çankırı 514
190@@ 513
314 513
351 513
405 513
Isabel 513
KV@@ 513
Kuk@@ 513
Piano 513
Reichs@@ 513
cation 513
lum@@ 513
tenburg 513
yab@@ 513
海@@ 513
150@@ 512
328 512
49,@@ 512
Bonif@@ 512
DF@@ 512
Dani@@ 512
Far 512
Mn@@ 512
Rik@@ 512
Rov@@ 512
Tara 512
Total 512
Viv@@ 512
Wolff 512
bud@@ 512
ext@@ 512
roch@@ 512
zin 512
680 511
Algiers 511
Díaz 511
Plin@@ 511
Ski@@ 511
eif@@ 511
ifu 511
nic 511
ulf 511
4,3 510
Allan 510
Eiff@@ 510
Hampton 510
Jou@@ 510
Lexington 510
Off 510
Quincy 510
emen 510
gur@@ 510
hn@@ 510
piz@@ 510
wood@@ 510
yeong@@ 510
4.0 509
525 509
AH 509
Chas@@ 509
Cramb@@ 509
Eduard 509
Flores 509
Furn@@ 509
Pereira 509
Phen@@ 509
Puebla 509
lach 509
maxim@@ 509
scop@@ 509
try@@ 509
317 508
Arti@@ 508
COM 508
FL 508
GPU 508
Gun 508
Hern@@ 508
IEEE 508
Ili@@ 508
Ling 508
Sing 508
Taur@@ 508
ucle@@ 508
uela 508
umen@@ 508
人@@ 508
367 507
Aviv 507
Bishop 507
Boug@@ 507
Brande@@ 507
Los@@ 507
Presley 507
Ranger 507
convex@@ 507
ere@@ 507
isen@@ 507
iyama 507
ode@@ 507
ray@@ 507
ual 507
çak@@ 507
ầ@@ 507
Fog@@ 506
Rahman 506
Sigismund 506
Six 506
TF 506
Ultimate 506
Vinci 506
Zone 506
hand@@ 506
kad@@ 506
kut@@ 506
match 506
mini@@ 506
ories 506
rul@@ 506
ás@@ 506
2,9 505
287 505
289 505
346 505
Ambrose 505
Heaven 505
Inf@@ 505
Lazar@@ 505
Lucien 505
Mussolini 505
Paula 505
Ramb@@ 505
Serge@@ 505
Xavier 505
hes@@ 505
Augsburg 504
Cincinnati 504
EP@@ 504
Emirates 504
Jah@@ 504
Kalim@@ 504
Lublin 504
Mati@@ 504
Nana 504
Pearl 504
Strauss 504
Sud 504
Trophy 504
Valentine 504
arcade 504
lor 504
ware 504
yah 504
zki 504
zur@@ 504
Benson 503
Cet@@ 503
Devil 503
Engels 503
Fox@@ 503
Gogh 503
Hearts 503
Hepburn 503
IV@@ 503
March@@ 503
Nu 503
akh@@ 503
dle 503
invol@@ 503
mouth 503
ovia 503
prin@@ 503
ubil@@ 503
Genesis 502
Goethe 502
HA 502
Lambert 502
Low@@ 502
Palais 502
Protein 502
Rand@@ 502
Rey@@ 502
Spec@@ 502
Telegraph 502
comm@@ 502
orst 502
11.000 501
Baron 501
Brown@@ 501
Double 501
Eduardo 501
Hann@@ 501
Jasper 501
KO 501
Lipp@@ 501
Sting 501
Verb@@ 501
cogn@@ 501
lay@@ 501
remot@@ 501
1660 500
341 500
Design 500
Deux 500
Fum@@ 500
Horse 500
Manz@@ 500
Martín 500
NHK 500
Peter@@ 500
Pich@@ 500
Rossi 500
after 500
ezi 500
jk 500
sco@@ 500
3,9 499
Adrian 499
Claudius 499
Luftwaffe 499
Lö@@ 499
Madame 499
Rebecca 499
Renn@@ 499
Storm 499
Sussex 499
Vilnius 499
atos 499
come 499
cruci@@ 499
fax 499
hui 499
pella 499
y.@@ 499
ớ@@ 499
198@@ 498
336 498
Casimir 498
Duch@@ 498
Enter@@ 498
Heinz 498
Jose@@ 498
LAN 498
Martínez 498
Tudor 498
azia 498
cella 498
erre 498
mill@@ 498
ombie 498
otta 498
337 497
48,@@ 497
98,@@ 497
Amas@@ 497
BL 497
Chuck 497
Dome 497
Medici 497
Muz@@ 497
Ortho@@ 497
Schwarzen@@ 497
Search 497
Snow@@ 497
Taj@@ 497
Wide 497
alar 497
aught 497
ikal 497
rop 497
tram@@ 497
47,@@ 496
Blade 496
Dai 496
Highland 496
Justice 496
MR@@ 496
Palm 496
Tog@@ 496
Yo 496
aines 496
background 496
chard 496
nen 496
ports 496
taur@@ 496
ć@@ 496
1100 495
Admir@@ 495
Elliot 495
En 495
Greatest 495
Hun 495
Kings 495
MR 495
Paz 495
Perci@@ 495
Sain@@ 495
Spartak 495
Takah@@ 495
Things 495
antia 495
chester 495
istic@@ 495
mal 495
onc@@ 495
phys@@ 495
vert 495
yar 495
Bagr@@ 494
Dik@@ 494
Engineering 494
F2 494
German@@ 494
Hatay 494
Mickey 494
Orion 494
Quin@@ 494
Ram 494
aldi 494
oles 494
verse 494
Aud@@ 493
Brighton 493
Eurovision 493
Eyes 493
Heavy 493
Olivia 493
bari 493
chs 493
indie 493
king@@ 493
mei 493
ober@@ 493
oi@@ 493
zona 493
成@@ 493
124@@ 492
354 492
Atari 492
Denizli 492
Goa 492
Kyiv 492
Mind 492
Mish@@ 492
Unter@@ 492
Wul@@ 492
Yol@@ 492
epid@@ 492
feri 492
pay 492
sec 492
vig@@ 492
Ứ@@ 492
Albrecht 491
Andrés 491
Angu@@ 491
Coff@@ 491
Djib@@ 491
Fashion 491
Gök@@ 491
Heroes 491
Islands 491
Kirk 491
Lightning 491
Mili@@ 491
Pi 491
Production 491
Schulz 491
Tomas@@ 491
heimer 491
inen 491
iran 491
school 491
scor@@ 491
tav@@ 491
16.000 490
Brno 490
Bureau 490
Flem@@ 490
Khor@@ 490
Lid@@ 490
Parsons 490
Soy@@ 490
Tash@@ 490
casting 490
eren 490
ire@@ 490
omni@@ 490
宗@@ 490
1765 489
AW@@ 489
Afric@@ 489
Barnard 489
DH@@ 489
Hand 489
Hath@@ 489
Landes 489
Silent 489
Wanna 489
ahan 489
bur 489
comi@@ 489
eusz 489
lide 489
rest@@ 489
361 488
425 488
Cyprinidae 488
Julien 488
Lac 488
MK 488
Nay@@ 488
Roads 488
Thér@@ 488
Wool@@ 488
cay@@ 488
cht 488
real 488
work 488
้ 488
Dais@@ 487
Gunn 487
Nol@@ 487
Pli@@ 487
Schen@@ 487
ahr@@ 487
izen 487
linger 487
nek 487
pand@@ 487
BK 486
Büyük@@ 486
Coral 486
DL@@ 486
Dalton 486
Gaming 486
Gil 486
McCl@@ 486
McMahon 486
Patton 486
Rous@@ 486
Singer 486
Steam 486
VP 486
aret 486
entra 486
incar@@ 486
neu@@ 486
okie 486
quart 486
status 486
tun 486
uso 486
ー 486
13.000 485
338 485
Goi@@ 485
Koc@@ 485
Nottingham 485
Tiberius 485
aming 485
bourg 485
constr@@ 485
epe 485
kos@@ 485
ms@@ 485
otox@@ 485
where 485
ır 485
Gum@@ 484
Nit@@ 484
Ow@@ 484
Rotterdam 484
Shiva 484
Tech 484
Tong 484
bek@@ 484
enti 484
god@@ 484
iche 484
jean 484
ká 484
mass@@ 484
wara 484
372 483
5,2 483
8.1 483
980 483
Apache 483
Bhar@@ 483
Crimea 483
Croix 483
Fulham 483
Mia 483
Rajasthan 483
Roche 483
Temple 483
UC 483
assim@@ 483
ball@@ 483
cheo 483
dah 483
hea 483
ises 483
lula 483
505 482
Auschwitz 482
Candy 482
Crow@@ 482
Independent 482
Kno@@ 482
Marche 482
Raja 482
Sakarya 482
Stella 482
aq 482
fia 482
ife 482
liber@@ 482
loe 482
ogi 482
playoff 482
revol@@ 482
ried 482
stad 482
ure@@ 482
ynski 482
і@@ 482
帝 482
1766 481
4,4 481
Benton 481
Cumberland 481
Durham 481
Ida 481
Kayseri 481
Ley@@ 481
Nieder@@ 481
Pey@@ 481
Serena 481
bee 481
key@@ 481
sera 481
tero 481
transist@@ 481
ät@@ 481
1779 480
415 480
Alves 480
Bissau 480
Crus@@ 480
Krasnodar 480
Lille 480
Thé@@ 480
Timothy 480
ağ 480
circum@@ 480
dell 480
ecu@@ 480
elen 480
girl 480
kas 480
mess@@ 480
mund@@ 480
vá@@ 480
332 479
490 479
Ardèche 479
Brand 479
Ethernet 479
Ghaz@@ 479
Hansen 479
Lori 479
Marguerite 479
Memorial 479
Neville 479
Scorpi@@ 479
Sugar 479
api@@ 479
aub@@ 479
iev 479
lane 479
sto@@ 479
trata 479
่ 479
上@@ 479
昭@@ 479
96,@@ 478
Christie 478
Cold@@ 478
Riy@@ 478
Schi@@ 478
ahar 478
center 478
eger 478
holt 478
itsa 478
jen@@ 478
kina 478
ocul@@ 478
Albany 477
Alf@@ 477
BR 477
Half 477
MLS 477
Phas@@ 477
Romero 477
Uşak 477
Vat@@ 477
Yat@@ 477
cycl@@ 477
dep@@ 477
eaux 477
hipp@@ 477
ladi@@ 477
now 477
297 476
45.@@ 476
Benedict 476
Case 476
EMI 476
Fuku@@ 476
Kurz 476
Naomi 476
Orph@@ 476
Sarı@@ 476
fir@@ 476
rating 476
ties 476
umen 476
yad 476
907 475
Bass 475
Billie 475
Britann@@ 475
Carr 475
Gram 475
Gut@@ 475
Kenn@@ 475
Minogue 475
Montevideo 475
Moy@@ 475
Season 475
Somali 475
Tunceli 475
Turing 475
ehr@@ 475
erie 475
ffen 475
inz@@ 475
nub@@ 475
through 475
383 474
476 474
555 474
Baj@@ 474
Beast 474
Bla@@ 474
Dib@@ 474
Gard 474
Heart@@ 474
Hg 474
Mass 474
Polo 474
Sos@@ 474
Weimar 474
arac@@ 474
chari@@ 474
eline 474
inius 474
isson 474
m.@@ 474
oglo@@ 474
sine 474
sultan 474
BB@@ 473
Castilla 473
Crazy 473
Jed@@ 473
Keynes 473
Martina 473
Mell@@ 473
Nine 473
Oakland 473
Roi 473
Wiz@@ 473
Zem@@ 473
beyli 473
embr@@ 473
rew@@ 473
294 472
334 472
Ai@@ 472
Alten@@ 472
Andrzej 472
Books 472
Brug@@ 472
Exeter 472
Hale 472
Jans@@ 472
Jolie 472
Lle@@ 472
Mayer 472
Multi@@ 472
Oppen@@ 472
Solo 472
Walking 472
Wendy 472
ables 472
agh 472
amme 472
estina 472
olay@@ 472
parentid 472
pay@@ 472
say@@ 472
scher 472
stom@@ 472
thro@@ 472
20th 471
Akç@@ 471
Ariège 471
Jacobs 471
Juni@@ 471
Kep@@ 471
Lucky 471
Midlands 471
Moc@@ 471
Pig@@ 471
Pisa 471
Roch@@ 471
ads 471
hang@@ 471
ignon 471
lah@@ 471
ning@@ 471
stipul@@ 471
wski 471
ıy@@ 471
ṇ@@ 471
329 470
46,@@ 470
55,@@ 470
930 470
Barton 470
Châ@@ 470
Enrique 470
Eric@@ 470
Sebasti@@ 470
Strat@@ 470
amon 470
ayev 470
imin@@ 470
onal 470
zw@@ 470
Ổ 470
4,8 469
403 469
999 469
Aden 469
Away 469
BR@@ 469
Cheng 469
Cosmo@@ 469
Gray@@ 469
Hua@@ 469
Kai@@ 469
NR@@ 469
Pér@@ 469
Riley 469
SMS 469
Warwick 469
Willem 469
Winchester 469
about 469
akin 469
berto 469
hic 469
micro 469
uber@@ 469
ympi@@ 469
小@@ 469
Alessandro 468
Cen@@ 468
Galer@@ 468
Graph@@ 468
Hebr@@ 468
Hip 468
Oste@@ 468
atoria 468
aşa 468
biana 468
ious 468
ković 468
olls 468
ská 468
tah 468
江@@ 468
730 467
Avenue 467
Chol@@ 467
Côtes 467
Labrador 467
Lithuania 467
MM 467
Mb@@ 467
NN 467
Odys@@ 467
Tup@@ 467
UD 467
Veronica 467
asius 467
bird 467
empl@@ 467
iel 467
jed@@ 467
por 467
402 466
Brooke 466
ML 466
Pleasant 466
Shop 466
Walsh 466
dog 466
gradi@@ 466
jar 466
wang@@ 466
Belfast 465
Dead@@ 465
Doyle 465
Ninja 465
SG 465
Shannon 465
Smart 465
Wyatt 465
dra@@ 465
obli@@ 465
pat 465
ıklı 465
ổ@@ 465
東@@ 465
白@@ 465
3.5 464
BASIC 464
Beat 464
Beno@@ 464
Doha 464
Down@@ 464
Fra@@ 464
Gond@@ 464
Jor@@ 464
Lynn 464
Nazar@@ 464
Noctu@@ 464
Rij@@ 464
abil@@ 464
brah@@ 464
dock 464
lion 464
oui 464
yk 464
ılı 464
559 463
780 463
8000 463
820 463
Abdul@@ 463
Bari 463
Hartmann 463
Main@@ 463
Mendes 463
Nur 463
Wings 463
olar@@ 463
ortho@@ 463
walker 463
ũy 463
97,@@ 462
Bov@@ 462
Brittany 462
Miner@@ 462
anu 462
cel 462
dou@@ 462
ille@@ 462
ondr@@ 462
simpl@@ 462
stic@@ 462
ラ@@ 462
18.000 461
292 461
Baba 461
Beth 461
Honolulu 461
Hérault 461
Tic@@ 461
Tyson 461
eru 461
frac@@ 461
inge 461
tell@@ 461
ungu@@ 461
yor@@ 461
Banda 460
Bret@@ 460
Carab@@ 460
Esk@@ 460
Fais@@ 460
Kach@@ 460
Off@@ 460
Sheridan 460
Ung@@ 460
Variety 460
Wi 460
comarca 460
heavy 460
indi 460
vit 460
ál@@ 460
5,7 459
Fly 459
Mar 459
Mustafa 459
Tracy 459
UB 459
abbrevi@@ 459
along@@ 459
antis 459
cuta 459
disco 459
km@@ 459
put 459
sonne 459
soundtrack 459
sq 459
ắ@@ 459
342 458
Brock 458
Canterbury 458
Guadalajara 458
Hawkins 458
Style 458
agos 458
riff 458
show@@ 458
tical 458
very 458
757 457
Antilles 457
Engine 457
Hacı@@ 457
Lombard 457
Mariah 457
Mous@@ 457
OK 457
Pine 457
Spider 457
Swan 457
derby 457
entis 457
iny 457
新@@ 457
5,3 456
7000 456
Ame@@ 456
Cornell 456
Kirch@@ 456
Original 456
Set 456
Stadium 456
Try@@ 456
VB 456
ampi@@ 456
amur@@ 456
anka 456
aras@@ 456
chic@@ 456
fall 456
kow 456
lana 456
libr@@ 456
plur@@ 456
朱@@ 456
2B 455
Laf@@ 455
Lie 455
Nus@@ 455
SQL 455
beng@@ 455
maz@@ 455
ogy 455
ohl 455
opia 455
osc@@ 455
ult 455
wall@@ 455
zilla 455
zim@@ 455
üt@@ 455
250@@ 454
Advance 454
Bedford 454
Epic 454
Faw@@ 454
Gulf 454
Isle 454
Metropolitan 454
Pron@@ 454
Ren 454
Rim@@ 454
Services 454
Vale 454
Vish@@ 454
flo@@ 454
moc@@ 454
mou@@ 454
nee 454
oney 454
palm@@ 454
yos@@ 454
0.5 453
57,@@ 453
Alg@@ 453
Amazing 453
August@@ 453
Brescia 453
DA@@ 453
Dinamo 453
Gloucester 453
asus 453
bah 453
hoff 453
ip 453
1650 452
Arc 452
Chandler 452
Clement 452
Hessen 452
Küçük@@ 452
Person@@ 452
Sedan 452
Strong@@ 452
Vivi@@ 452
Well@@ 452
ever@@ 452
oglob@@ 452
rex 452
rov 452
till@@ 452
uth@@ 452
神@@ 452
道@@ 452
Her 451
Kerr 451
Mund@@ 451
PK 451
Too 451
Wind 451
ampli@@ 451
cand@@ 451
eine 451
eiro 451
ević 451
iköy 451
Carpenter 450
Chinese 450
Drac@@ 450
Giuli@@ 450
Heights 450
KT 450
Léon 450
Magellan 450
PO 450
Sylvia 450
Tahiti 450
Takashi 450
Tart@@ 450
Teddy 450
Test@@ 450
Vet@@ 450
Vr@@ 450
alog@@ 450
awk 450
cox 450
eleph@@ 450
emo 450
iku@@ 450
ool 450
Ơ@@ 450
Alsace 449
Bik@@ 449
Cari@@ 449
Castel 449
Combin@@ 449
Gallo 449
HT 449
Hayes 449
Hector 449
Herr@@ 449
Irene 449
Jú@@ 449
Korean 449
Mali@@ 449
Mission 449
Neptune 449
Round 449
Steiner 449
Suffolk 449
Te 449
VR 449
arn 449
enas 449
pro 449
quez 449
tiz@@ 449
이@@ 449
Belgrade 448
Gene 448
Indo@@ 448
Middle 448
Nati@@ 448
Sèvres 448
Trit@@ 448
Vendée 448
ather@@ 448
dat@@ 448
enthal 448
eski 448
now@@ 448
pers 448
ıl@@ 448
58.@@ 447
Bear 447
Fields 447
Geoffrey 447
Jet@@ 447
Martha 447
Navarra 447
RN@@ 447
Week 447
enea 447
ibo 447
oughton 447
semif@@ 447
zewski 447
Ávila 447
195@@ 446
C3 446
EV@@ 446
Eh@@ 446
Imperial 446
Manning 446
Mehmed 446
Mercer 446
Pot 446
Thames 446
Winter@@ 446
Yug@@ 446
amphi@@ 446
analog 446
bull@@ 446
hasa 446
mere 446
swe@@ 446
tau@@ 446
yk@@ 446
363 445
Alam@@ 445
Anat@@ 445
Carnegie 445
Curie 445
Dop@@ 445
Eliz@@ 445
Esther 445
Federation 445
Friedman 445
Hyde 445
Kib@@ 445
Mein@@ 445
Moran 445
Must@@ 445
Satan 445
Tra@@ 445
Vaughan 445
Wei 445
Welsh 445
ansky 445
erh@@ 445
hit@@ 445
nie 445
racia 445
rant 445
rek 445
tez 445
tilia 445
tose 445
uit 445
venez@@ 445
Christi@@ 444
Drag@@ 444
FT 444
Health 444
Hilbert 444
Kuy@@ 444
Oder 444
Rash@@ 444
Seymour 444
Shelby 444
Ville 444
Zey@@ 444
acor@@ 444
ait 444
alism 444
anl@@ 444
chang 444
eve 444
hl 444
obe 444
ouin 444
12,7 443
327 443
Archi@@ 443
Aveyron 443
Eye 443
Index 443
Kill 443
Lans@@ 443
Muse 443
Sidi 443
Telecom 443
Worth 443
amen 443
dru@@ 443
ionale 443
mania 443
plug@@ 443
uzman@@ 443
Berger 442
Geb@@ 442
Glen 442
Ground 442
Göring 442
Khalifa 442
Ku 442
Nut@@ 442
OECD 442
Santander 442
athan 442
atz@@ 442
dur 442
ezo 442
post 442
rar@@ 442
sm@@ 442
GN@@ 441
Gregor 441
Guitar 441
Hitch@@ 441
Moravia 441
Nikon 441
Oriental 441
RF 441
Sé@@ 441
Un 441
Vä@@ 441
Yun@@ 441
abell@@ 441
ayer 441
geny 441
54,@@ 440
590 440
870 440
Clair 440
Extremadura 440
Flora 440
Hac@@ 440
Hillary 440
Hilton 440
McCarthy 440
Ptolemy 440
RD 440
Sciences 440
awan@@ 440
isme 440
lug 440
rang@@ 440
shell 440
Ớ@@ 440
永@@ 440
0,000 439
475 439
710 439
Andersen 439
Buckingham 439
Dracula 439
Eber@@ 439
Hez@@ 439
Kimber@@ 439
Quentin 439
Waterloo 439
alls 439
cc 439
cible 439
ibia 439
icha 439
ieu 439
inst@@ 439
nuc@@ 439
otto 439
references 439
sitcom 439
正@@ 439
1.2 438
1640 438
376 438
512 438
ARM 438
Blanche 438
Brien 438
Brus@@ 438
CAF 438
Chav@@ 438
Ciudad 438
Fulton 438
Guide 438
Heavyweight 438
Hong@@ 438
Ismail 438
Nürnberg 438
Ramos 438
Rashid 438
Rubin 438
Zara 438
bli@@ 438
bos 438
g. 438
kon 438
40.@@ 437
670 437
760 437
860 437
ASCII 437
Barker 437
Benz@@ 437
CCTV 437
Cag@@ 437
Eskişehir 437
Gear 437
Ille 437
Minneapolis 437
TB 437
ajo 437
bok 437
edes 437
edy 437
ków 437
onde 437
serp@@ 437
street 437
width 437
ña 437
œ@@ 437
359 436
387 436
49.@@ 436
581 436
Aberdeen 436
CH3 436
Council 436
Counties 436
Marqu@@ 436
Pann@@ 436
Randolph 436
Tob@@ 436
agu 436
ecraft 436
ight@@ 436
oper 436
stok 436
usha 436
yav@@ 436
44.@@ 435
830 435
Andri@@ 435
Kan 435
Paradise 435
RB 435
Rumble 435
Tex@@ 435
Theory 435
Vez@@ 435
Waters 435
arom@@ 435
hou@@ 435
iris 435
ring 435
tid@@ 435
toum 435
Beaufort 434
Brandt 434
Cool 434
Esc@@ 434
Holy 434
Juno 434
Karaman 434
LCD 434
Lesotho 434
Made 434
Mani@@ 434
Mann 434
Rodrigo 434
Schind@@ 434
Termin@@ 434
Uru@@ 434
aal@@ 434
anap@@ 434
atine 434
eper 434
inv@@ 434
ithecus 434
vili 434
2O@@ 433
353 433
399 433
Abruz@@ 433
Aq@@ 433
Braun@@ 433
Craft 433
Fic@@ 433
Grab@@ 433
Notre 433
PE 433
Phel@@ 433
Rip@@ 433
Spring@@ 433
Tern@@ 433
Wik@@ 433
Zaw@@ 433
blog@@ 433
dige 433
icon@@ 433
ock@@ 433
pic 433
pu 433
tena 433
γ 433
50,@@ 432
Abbey 432
Brand@@ 432
Gran 432
Ked@@ 432
Language 432
Rex 432
St.-@@ 432
U2 432
Ulu@@ 432
Vesp@@ 432
Vilaine 432
Wild@@ 432
crip@@ 432
egger 432
istic 432
juli@@ 432
olu 432
Audi@@ 431
Digimon 431
Elias 431
Ferrari 431
Hov@@ 431
Kush@@ 431
Montréal 431
Uch@@ 431
Verdun 431
Ville@@ 431
aglia 431
igula 431
ries 431
unge 431
Anjou 430
Bruxelles 430
Dobr@@ 430
Flower 430
Kitty 430
Market 430
Nikita 430
Prosp@@ 430
Spot 430
T1 430
Tekirdağ 430
Tung@@ 430
Wey@@ 430
ballet 430
ignac 430
ring@@ 430
uu 430
vent@@ 430
6,2 429
Baptist 429
Greenwich 429
Griffin 429
Leopard 429
Lieb@@ 429
Occit@@ 429
Prima 429
Qui 429
Theatre 429
asch@@ 429
irat@@ 429
ụ@@ 429
364 428
Fisch@@ 428
Hatt@@ 428
Omega 428
Taekwondo 428
Target 428
ary@@ 428
baum 428
dil 428
eus@@ 428
exc@@ 428
hito 428
liz@@ 428
lé 428
medium 428
opo 428
ospor@@ 428
rak@@ 428
soci@@ 428
uris 428
ées 428
394 427
911 427
Ceylon 427
FL@@ 427
Hey 427
Pratt 427
Reggio 427
adj@@ 427
amel@@ 427
anis 427
anova 427
dian 427
ebus 427
emor@@ 427
enbach 427
tour@@ 427
347 426
368 426
56,@@ 426
880 426
Brabant 426
CY@@ 426
Energy 426
Félix 426
Infinity 426
Ital@@ 426
Leigh 426
Rin 426
Sally 426
Savoy 426
Yun 426
ht@@ 426
marathon 426
organ@@ 426
part 426
reta 426
uz 426
432 425
Aar@@ 425
Carrie 425
Dreams 425
Giac@@ 425
Hick@@ 425
JR 425
Look 425
Mash@@ 425
Parall@@ 425
Paz@@ 425
SG@@ 425
Schalke 425
Schiff@@ 425
Snap@@ 425
irat 425
nil 425
quir@@ 425
shaw 425
witz 425
恭@@ 425
339 424
377 424
479 424
Bic@@ 424
Bio@@ 424
CJ 424
Diane 424
Fontaine 424
Madeira 424
Pill@@ 424
Pix@@ 424
Rick@@ 424
Royce 424
Sint 424
Theodosius 424
disco@@ 424
dra 424
erry 424
hoff@@ 424
ugu@@ 424
1756 423
369 423
Ami@@ 423
Axel 423
Broad@@ 423
CDC 423
Clarence 423
Clyde 423
Gaius 423
Herb@@ 423
Liss@@ 423
Master@@ 423
Rit@@ 423
Toch@@ 423
Trieste 423
app 423
ause 423
ciano 423
deres 423
ior 423
mitt 423
spp 423
ude 423
utsu 423
vod@@ 423
世@@ 423
412 422
Athen 422
Br 422
Cartoon 422
Nagano 422
PN 422
Saar@@ 422
Shell 422
Sputnik 422
alyp@@ 422
campan@@ 422
eco@@ 422
esland 422
gang@@ 422
imer 422
nac@@ 422
oul@@ 422
troc@@ 422
ɪ@@ 422
周@@ 422
416 421
5,8 421
Ahr@@ 421
Bolívar 421
Boone 421
Cerro 421
Foc@@ 421
Gain@@ 421
Gang 421
ND@@ 421
Nich@@ 421
Schne@@ 421
Sne@@ 421
VIP 421
Vogel 421
bli 421
chang@@ 421
dine 421
iPod 421
625 420
Bayburt 420
Frances 420
IPA 420
ISBN 420
KV 420
Keys 420
MX 420
eit@@ 420
ental 420
ets@@ 420
hass@@ 420
hion 420
ind 420
kreis 420
lez@@ 420
moi 420
suke 420
1592 419
379 419
5,4 419
Anh@@ 419
Björ@@ 419
Canis 419
Erd@@ 419
Have 419
IO@@ 419
Johns 419
Junkers 419
Leonid 419
MF 419
Osiris 419
Sorbonne 419
UNICEF 419
WA 419
adis 419
ality 419
day@@ 419
ferr@@ 419
inx 419
mí 419
192@@ 418
366 418
431 418
Alleg@@ 418
Chall@@ 418
Constance 418
EFL 418
Hits 418
Hohen@@ 418
ISC 418
Kör@@ 418
LR 418
Mav@@ 418
Neill 418
Patterson 418
Penn 418
Richter 418
Rug@@ 418
Thess@@ 418
Tina 418
angalia 418
asser 418
etown 418
keg@@ 418
nur 418
omb 418
tava 418
who 418
381 417
604 417
62@@ 417
705 417
770 417
Alicia 417
Garfield 417
HK 417
Hidalgo 417
Mode 417
Nikolay 417
Other 417
Plo@@ 417
Rô@@ 417
Sex 417
Tez@@ 417
Turbo 417
Woll@@ 417
aid@@ 417
ecz@@ 417
ees 417
itum 417
rein@@ 417
they 417
town@@ 417
visa 417
wn@@ 417
ève 417
968 416
Activ@@ 416
Ats@@ 416
Dale 416
Dio 416
LG@@ 416
Rodrigues 416
Schwarz@@ 416
Ston@@ 416
ation@@ 416
dam 416
dou 416
esser 416
euti@@ 416
mont@@ 416
org 416
produc@@ 416
than@@ 416
tom 416
1661 415
362 415
398 415
Agnes 415
Caucas@@ 415
Edirne 415
Fish 415
Guillaume 415
Jobs 415
Kalm@@ 415
MP3 415
McKin@@ 415
Museum 415
Odyssey 415
Tallinn 415
Unity 415
Villeneuve 415
Yoga 415
ados 415
athi@@ 415
bass@@ 415
cc@@ 415
delta 415
kav@@ 415
obe@@ 415
oslav@@ 415
scho@@ 415
she 415
tennis 415
392 414
393 414
397 414
6,6 414
ARC 414
Ail@@ 414
Charlemagne 414
Class 414
Dok@@ 414
Fernandes 414
Forrest 414
Fried@@ 414
GT 414
Haven 414
Jus@@ 414
Kit 414
Laj@@ 414
Late 414
Linz 414
Loiret 414
M3 414
Monti@@ 414
Norris 414
Riemann 414
Ritter 414
SR@@ 414
Sej@@ 414
Wing 414
afe 414
break 414
dex 414
gramm@@ 414
hig 414
ikos 414
illas 414
št@@ 414
349 413
378 413
Artvin 413
Buff@@ 413
E3 413
Elite 413
Freud 413
Gent@@ 413
JP 413
Judith 413
Sche@@ 413
Soci@@ 413
Together 413
Town@@ 413
Valois 413
Where 413
eback 413
jah@@ 413
lier@@ 413
rit 413
samb@@ 413
ṣ@@ 413
AND 412
Bulbo@@ 412
Canyon 412
Financial 412
Göttingen 412
Magdalena 412
Moul@@ 412
Nirvana 412
Source 412
Train 412
pen 412
stown 412
wen 412
ź@@ 412
465 411
Access 411
Graz 411
Jedi 411
Marlborough 411
Serra 411
Trier 411
boy@@ 411
iler@@ 411
inoc@@ 411
odo 411
pita 411
ém@@ 411
ル@@ 411
宮 411
惠@@ 411
007 410
Aksaray 410
Argent@@ 410
Donau 410
Johansson 410
Mir 410
Penny 410
Shirley 410
Sue 410
Swansea 410
Utrecht 410
agen@@ 410
aic 410
ament@@ 410
ardt 410
compres@@ 410
divis@@ 410
list 410
odr@@ 410
roqu@@ 410
tner 410
ví@@ 410
ías 410
Amb@@ 409
Angels 409
Oberösterreich 409
Pitt 409
Revolution 409
Sirius 409
Walk 409
annis 409
gues 409
insol@@ 409
oun@@ 409
undo 409
公@@ 409
1769 408
409 408
840 408
Another 408
Atl@@ 408
Cap 408
Carson 408
Moldav@@ 408
Myco@@ 408
Norton 408
Pens@@ 408
Ware 408
Wick@@ 408
Zanzibar 408
adren@@ 408
aley@@ 408
alit@@ 408
council 408
schi 408
sing 408
step@@ 408
unic@@ 408
光@@ 408
12,5 407
407 407
502 407
Advanced 407
Bayr@@ 407
Bloom 407
Caj@@ 407
Duv@@ 407
Elle 407
Heller 407
Hispania 407
Joey 407
Konstantin@@ 407
Levy 407
Phoebe 407
Salazar 407
bold 407
hipo@@ 407
incur@@ 407
3A 406
535 406
Crow 406
Erik@@ 406
Ez@@ 406
Mortal 406
PPP 406
Till@@ 406
Wadi 406
Website 406
adol@@ 406
iber@@ 406
scher@@ 406
turn@@ 406
ụm 406
605 405
Abd 405
Aï@@ 405
Break 405
Dür@@ 405
Faith 405
Habana 405
Harbor 405
Living 405
Rod 405
Theft 405
VHS 405
band@@ 405
folk 405
got 405
graph@@ 405
kut 405
zone 405
zzo 405
ğlu 405
707 404
740 404
AE 404
Benz 404
ESA 404
Fire@@ 404
Giant 404
Heis@@ 404
MK@@ 404
Malik 404
Prin@@ 404
Vol 404
Way@@ 404
akap@@ 404
apan 404
asaki 404
bank@@ 404
fly 404
free 404
idai 404
satur@@ 404
second 404
58,@@ 403
Antigua 403
Atal@@ 403
Bremer@@ 403
Burnley 403
Derr@@ 403
Euphor@@ 403
Fourier 403
Halloween 403
Hop 403
Lafayette 403
NXT 403
Naw@@ 403
Negr@@ 403
Schlesien 403
UT 403
aces 403
afat 403
atan@@ 403
ational 403
ellen@@ 403
emo@@ 403
endro@@ 403
excav@@ 403
hag@@ 403
ican 403
icana 403
yük 403
zai 403
ù@@ 403
楊@@ 403
196@@ 402
2A 402
Chamberlain 402
Gaul@@ 402
Gian@@ 402
Gow@@ 402
Guerrero 402
Holoc@@ 402
Konrad 402
MAC 402
Martins 402
Nek@@ 402
Northampton 402
Tod@@ 402
abel@@ 402
beat 402
curv@@ 402
hoven 402
teg@@ 402
vec@@ 402
374 401
391 401
Carbon 401
Creative 401
Dancing 401
Gao 401
Gus@@ 401
Gust@@ 401
Need 401
Poz@@ 401
amid@@ 401
avo 401
cala 401
chat 401
eini 401
genus 401
lac 401
lyc@@ 401
mode 401
wal 401
Ư 401
不@@ 401
-1 400
429 400
455 400
Inc 400
Laun@@ 400
Mech@@ 400
Morocco 400
Qur 400
Rivière 400
adri@@ 400
anas@@ 400
illet 400
kern@@ 400
mili@@ 400
sler 400
ön@@ 400
ün@@ 400
ŭ@@ 400
太后 400
1764 399
344 399
373 399
ABA 399
Admiral 399
Eve 399
Frédéric 399
Hastings 399
Linden 399
Lydia 399
Reeves 399
Sach@@ 399
Yal@@ 399
alco@@ 399
arest 399
auff@@ 399
bers 399
eden@@ 399
enin 399
ged 399
五@@ 399
Cinema 398
Claudia 398
Dorothy 398
Galac@@ 398
Grosso 398
Harv@@ 398
ISA 398
Mens@@ 398
Oud@@ 398
Summit 398
Talent 398
Tomé 398
Toulon 398
arov 398
black 398
bow@@ 398
evan 398
hira 398
ice@@ 398
nah@@ 398
nau@@ 398
septentr@@ 398
zio 398
.org 397
1761 397
AMP 397
At 397
Bih@@ 397
Cassini 397
Cody 397
Community 397
Cut@@ 397
Iber@@ 397
Imper@@ 397
Ladies 397
Liège 397
M4 397
N2 397
Oran 397
Pearson 397
Spit@@ 397
Sword 397
Williamson 397
alt 397
deni 397
estone 397
heb@@ 397
onnais 397
petr@@ 397
yte 397
Ổ@@ 397
408 396
451 396
910 396
Asturias 396
Clav@@ 396
Dynasty 396
Hof@@ 396
Peak 396
Professional 396
Romeo 396
Ruh@@ 396
Running 396
Schmal@@ 396
Stock 396
UP 396
Zin@@ 396
block 396
gios 396
haus@@ 396
hispan@@ 396
hua 396
immer@@ 396
oles@@ 396
yen 396
3G 395
534 395
Allah 395
Amat@@ 395
Bloom@@ 395
Duma 395
Lass@@ 395
Mahar@@ 395
Mil 395
PCR 395
Ring@@ 395
Spotify 395
Without 395
adas 395
agh@@ 395
basa 395
cie 395
eig@@ 395
scrip@@ 395
thumb 395
vice 395
vinyl 395
Álvarez 395
北@@ 395
0.0@@ 394
389 394
417 394
557 394
Andrey 394
Animal 394
Bish@@ 394
Bö@@ 394
Carac@@ 394
Cedar 394
Chrome 394
Havana 394
Inn@@ 394
Motion 394
Prime 394
Ramsey 394
Saale 394
Sarg@@ 394
Simon@@ 394
Suárez 394
Tours 394
Tunis 394
akat@@ 394
eco 394
gmina 394
hoch@@ 394
kang@@ 394
otyp@@ 394
pith@@ 394
plen@@ 394
ẹ@@ 394
197@@ 393
422 393
Albu@@ 393
Cim@@ 393
Daisy 393
Dorset 393
Ex 393
Myth@@ 393
Parado@@ 393
Philipp 393
Richards 393
Vanessa 393
Vass@@ 393
Zuc@@ 393
agia 393
aso 393
front 393
hul@@ 393
kana 393
steri 393
tiger 393
vietnam@@ 393
1620 392
2O3 392
496 392
Beverly 392
Bonn 392
Camera 392
Cherokee 392
Guillermo 392
Hubert 392
J2 392
Jov@@ 392
Kirk@@ 392
Kni@@ 392
Mix 392
Nen@@ 392
UE 392
Vari@@ 392
Wave 392
ehouse 392
hem 392
life 392
oval 392
øn@@ 392
396 391
528 391
Bard@@ 391
Compton 391
Dat@@ 391
Durban 391
Finn 391
Independence 391
McDonnell 391
PSG 391
Pioneer 391
Sarr@@ 391
Start 391
aşı 391
calyp@@ 391
ensi 391
eten@@ 391
kub@@ 391
oec@@ 391
382 390
981 390
Brother@@ 390
Buy@@ 390
Oto@@ 390
Rochester 390
Shil@@ 390
Something 390
Tok 390
Tow@@ 390
aler@@ 390
altern@@ 390
ching 390
elo@@ 390
fice 390
found 390
jon@@ 390
kers 390
mian 390
nell 390
oline 390
ref@@ 390
stead 390
uck@@ 390
x86 390
い@@ 390
1.1 389
4.5 389
483 389
5,1 389
509 389
Alp@@ 389
Goul@@ 389
Kylie 389
Kırşehir 389
Marek 389
Marx@@ 389
Octav@@ 389
Phon@@ 389
RF@@ 389
Theresa 389
apia 389
ench@@ 389
kau@@ 389
oul 389
ques@@ 389
sert 389
will@@ 389
AJ 388
BMW 388
BO 388
Caus@@ 388
Contest 388
Dawson 388
Derek 388
Ferreira 388
Fowler 388
Jamm@@ 388
MPEG 388
Mex@@ 388
Obi 388
PVC 388
Salv@@ 388
Stern 388
Wehrmacht 388
cano 388
igna 388
inam@@ 388
otic 388
pale@@ 388
person@@ 388
quem@@ 388
roy@@ 388
small 388
林@@ 388
A3 387
Alexis 387
CO3 387
Dud@@ 387
Front@@ 387
Justini@@ 387
Lauren 387
Olympique 387
Pah@@ 387
Scal@@ 387
Shal@@ 387
adem@@ 387
americ@@ 387
assault 387
atur 387
ices 387
lü 387
marine 387
mart 387
ornith@@ 387
osci@@ 387
osh 387
çal@@ 387
1707 386
348 386
4,9 386
411 386
Assass@@ 386
Cherry 386
Gala 386
Javier 386
Kenny 386
Kog@@ 386
Kung 386
Mato 386
Omaha 386
RFC 386
Rolls 386
atro@@ 386
eal 386
inth@@ 386
iser 386
keyboard 386
oku@@ 386
pola 386
rim 386
tech@@ 386
čić 386
.jpg 385
2024 385
Beyond 385
Bohem@@ 385
Common 385
Kahn 385
König 385
Mall 385
Mata 385
Tiffany 385
Vampire 385
aram 385
enig@@ 385
guan@@ 385
hof 385
nel 385
tenberg 385
éry 385
Defense 384
Rodriguez 384
Six@@ 384
Tuz@@ 384
Twin 384
Yum@@ 384
`@@ 384
aard 384
bey@@ 384
iden@@ 384
isol@@ 384
kand@@ 384
kote 384
sali@@ 384
trol@@ 384
tv@@ 384
ulis 384
vé@@ 384
ésie 384
1. 383
2. 383
Ate@@ 383
Bly@@ 383
Charlton 383
Fabio 383
Fau@@ 383
Irving 383
Karabük 383
König@@ 383
Milo@@ 383
Reyes 383
Rhein@@ 383
Schumacher 383
Syst@@ 383
Ug@@ 383
Wag@@ 383
abia 383
apor@@ 383
eder 383
esen 383
eves 383
gest@@ 383
ht 383
onder@@ 383
param@@ 383
plo@@ 383
reich@@ 383
seroton@@ 383
stress 383
ump 383
vy@@ 383
ン 383
358 382
810 382
Adult 382
Ardahan 382
Beaver 382
Bulls 382
Caen 382
Cinc@@ 382
Crit@@ 382
Ein@@ 382
HB 382
Kremlin 382
Pass 382
Tales 382
beg@@ 382
dah@@ 382
full 382
ikan@@ 382
nad@@ 382
nific@@ 382
tian 382
tland 382
193@@ 381
427 381
435 381
548 381
6,8 381
Artist 381
Buchanan 381
Ced@@ 381
Chem@@ 381
Gob@@ 381
His 381
Hitchcock 381
Jana 381
JavaScript 381
Niğde 381
Novak 381
Shakira 381
Sr. 381
Technologies 381
Tá@@ 381
Valladolid 381
WO@@ 381
laz@@ 381
plin 381
xx@@ 381
551 380
Abi@@ 380
Augustine 380
Beatrice 380
Fak@@ 380
Federal 380
Gerard 380
LB 380
MGM 380
Macau 380
Marcello 380
Nueva 380
Ord@@ 380
Quinn 380
Schultz 380
Stef@@ 380
Xia@@ 380
azzi 380
cipi@@ 380
có@@ 380
hero@@ 380
opin@@ 380
oton 380
rem 380
rê@@ 380
serv@@ 380
vio 380
ừ@@ 380
1630 379
2,0 379
413 379
690 379
Attila 379
Base 379
Capit@@ 379
Fight 379
Ist@@ 379
Kerry 379
Lod@@ 379
Natur@@ 379
Pari@@ 379
Sarık@@ 379
Surrey 379
TCP 379
Thes@@ 379
Zurich 379
aham@@ 379
approxim@@ 379
cik 379
dow 379
ios@@ 379
parag@@ 379
she@@ 379
wag@@ 379
2- 378
59,@@ 378
Ait@@ 378
Anders 378
Bonnie 378
Boom 378
Dad@@ 378
Dickinson 378
Effect 378
Freder@@ 378
Kati@@ 378
Mick@@ 378
Ne 378
Renault 378
Rhodesia 378
Sandy 378
Sov@@ 378
Vend@@ 378
Wunder@@ 378
Yankee 378
azzo 378
burgh 378
ems 378
mm@@ 378
ní 378
platin 378
1,5@@ 377
601 377
Acu@@ 377
Almeida 377
Cash 377
Hahn 377
Maurit@@ 377
Mg@@ 377
Muc@@ 377
Sagan 377
Villers 377
aci 377
aka@@ 377
cina 377
combe 377
coster@@ 377
district 377
ean@@ 377
elem@@ 377
green 377
jer 377
semin@@ 377
tox@@ 377
388 376
Championships 376
Guardi@@ 376
Haag 376
Ion 376
Lagrange 376
Mai@@ 376
Olymp@@ 376
Publishing 376
Rights 376
Salle 376
Simone 376
Stones 376
ancy 376
arca 376
chain 376
claus@@ 376
fut@@ 376
illes 376
kuma 376
tet 376
theus 376
valid@@ 376
verd@@ 376
zir@@ 376
105@@ 375
1407 375
1730 375
444 375
Area 375
Austria 375
Bauer 375
Chip@@ 375
Chun@@ 375
Khali@@ 375
Marcelo 375
Mendoza 375
Málaga 375
Pers@@ 375
Qur@@ 375
RH 375
Romance 375
Vier@@ 375
adena 375
argen@@ 375
bak 375
holm 375
iah 375
iles 375
integ@@ 375
lade 375
oir 375
opol 375
tex 375
will 375
yes 375
ön 375
4,1 374
Camer@@ 374
Campos 374
Czech 374
DH 374
Forst@@ 374
Jad@@ 374
Marius 374
Raúl 374
Rosen@@ 374
amy 374
anian 374
arry 374
cone 374
ewski 374
fro@@ 374
hiye 374
houn 374
ological 374
raf@@ 374
yang@@ 374
zana 374
ž 374
慈@@ 374
1,0 373
1642 373
433 373
Agency 373
Das 373
Feld@@ 373
Hurricane 373
Minn@@ 373
Pulitzer 373
Samantha 373
Still 373
Yucatán 373
acht 373
eben@@ 373
hl@@ 373
ott@@ 373
room 373
sah@@ 373
toi 373
定@@ 373
親王 373
.1 372
532 372
Alejandro 372
Alien 372
BS@@ 372
Carre@@ 372
Kup@@ 372
Mob@@ 372
Monthly 372
Payne 372
SB@@ 372
Sanc@@ 372
Sidney 372
Silver@@ 372
akia 372
conflu@@ 372
ecik 372
gien 372
iks 372
imet@@ 372
tell 372
50.@@ 371
7,2 371
925 371
Anastasia 371
Bergen 371
Clear@@ 371
Communications 371
Ebert 371
Fit@@ 371
Glory 371
Herrera 371
L1 371
Nick@@ 371
Robbie 371
S.C. 371
Temp@@ 371
afa 371
avis 371
fis@@ 371
imov 371
ls@@ 371
schlech@@ 371
telenovela 371
ɛ@@ 371
城 371
1688 370
414 370
486 370
602 370
727 370
Anast@@ 370
Artemis 370
Bernad@@ 370
Bilecik 370
Break@@ 370
Canal 370
FAO 370
Hoover 370
Marsh@@ 370
Middlesbrough 370
Northumberland 370
PSV 370
Sherlock 370
Silicon 370
Stal@@ 370
VH1 370
Ved@@ 370
Wir@@ 370
Word 370
acci 370
bolt 370
enius 370
frame 370
hep@@ 370
igma 370
rot 370
rugby 370
shausen 370
urlu 370
428 369
Aim@@ 369
BI 369
Cáceres 369
Emir@@ 369
Fad@@ 369
Gaston 369
Gui@@ 369
Handel 369
Moon@@ 369
Natasha 369
Nothing 369
Record 369
SC@@ 369
SU@@ 369
Sens@@ 369
Sousa 369
Ulys@@ 369
Years 369
aat 369
anderen 369
enzel 369
esque 369
itel 369
iyo 369
kari 369
ló 369
mau@@ 369
omer 369
opolis 369
stand@@ 369
works 369
xton 369
¥ 369
424 368
452 368
538 368
920 368
Abbott 368
Archae@@ 368
Bord@@ 368
Cold 368
Epstein 368
Gore 368
Jörg 368
Kelvin 368
Oper@@ 368
PI@@ 368
Picasso 368
Reuters 368
Samb@@ 368
Stand 368
Walther 368
atz 368
cis@@ 368
hou 368
rance 368
unter 368
vey 368
์ 368
1683 367
189@@ 367
42.@@ 367
488 367
6,4 367
Blanc 367
Browning 367
Concor@@ 367
Cristiano 367
Darren 367
Ericsson 367
GPL 367
Greenwood 367
HTC 367
Inn 367
Mirror 367
News@@ 367
Ratt@@ 367
Resident 367
Santana 367
Sarajevo 367
Tolst@@ 367
Unicode 367
XML 367
deu@@ 367
dragon 367
eces 367
far 367
jal@@ 367
ove 367
pre 367
sion@@ 367
Dewey 366
Germania 366
Gog@@ 366
Kier@@ 366
Marin@@ 366
Mov@@ 366
Peñ@@ 366
Qui@@ 366
Strong 366
Watford 366
addin 366
api 366
auto@@ 366
ehir 366
evento 366
exig@@ 366
metric 366
nj@@ 366
opr@@ 366
ồ@@ 366
Ụ@@ 366
阿@@ 366
436 365
506 365
515 365
970 365
Akbar 365
Che 365
Cornelius 365
Eas@@ 365
Isol@@ 365
Marta 365
Middleton 365
Modena 365
Oil 365
PM@@ 365
Palatin@@ 365
QS 365
Rouge 365
SO 365
Sonny 365
actu@@ 365
aes 365
azer 365
azo 365
dge 365
dik@@ 365
hana 365
k.@@ 365
ṭ@@ 365
439 364
507 364
Amber 364
Amor@@ 364
Barth@@ 364
Blas@@ 364
Cunningham 364
Earl 364
Edison 364
Flight 364
Hasan 364
Mari 364
Musical 364
Plan 364
Reims 364
Siirt 364
Urdu 364
Weib@@ 364
Why 364
ajan 364
brook 364
frey 364
hiv@@ 364
ned 364
nick@@ 364
prof@@ 364
spo@@ 364
union 364
wur@@ 364
yal 364
1720 363
445 363
Bagn@@ 363
Dark@@ 363
Erie 363
Erwin 363
H1 363
Hep@@ 363
Herald 363
Jim@@ 363
Krem@@ 363
Natalie 363
Nir@@ 363
Plac@@ 363
Poul@@ 363
T2 363
UE@@ 363
Yves 363
Zol@@ 363
agra 363
bacterium 363
cler@@ 363
crom@@ 363
für 363
gau 363
gren@@ 363
hali@@ 363
hos@@ 363
inet 363
lass 363
main@@ 363
ofu 363
ppi 363
tain 363
Çak@@ 363
し@@ 363
940 362
Andre 362
BI@@ 362
Claus@@ 362
Committee 362
Dayton 362
Gone 362
Mayenne 362
No. 362
OT@@ 362
Schumann 362
anor 362
eler@@ 362
kuz@@ 362
nach 362
park 362
test 362
trit@@ 362
ủ@@ 362
109@@ 361
453 361
616 361
7,7 361
Aquila 361
Concerto 361
Ever 361
Fai@@ 361
Freeman 361
Guin@@ 361
Hain@@ 361
Pris@@ 361
Report 361
S1 361
Shay@@ 361
ampl@@ 361
anim@@ 361
cache 361
grand@@ 361
ming 361
otra 361
part@@ 361
sp 361
Çal@@ 361
″ 361
554 360
576 360
589 360
African 360
April 360
Date 360
Emerson 360
ITF 360
Katherine 360
Library 360
Lisboa 360
Nigel 360
Petra 360
Police 360
Province 360
Selim 360
Stern@@ 360
Tula 360
Vargas 360
Whis@@ 360
Woody 360
acan 360
avat@@ 360
commun@@ 360
cut 360
dağ 360
drich 360
ellen 360
feed 360
kHz 360
power 360
quer 360
ular@@ 360
veira 360
国@@ 360
1643 359
485 359
Alzheimer 359
Ark 359
Baf@@ 359
Cess@@ 359
Department 359
Deu@@ 359
Fem@@ 359
Hegel 359
Hermes 359
Pear@@ 359
Remix 359
Stephanie 359
Yen 359
alter@@ 359
emont 359
hil 359
olles 359
reti@@ 359
sek 359
tona 359
upa 359
vena 359
vid 359
yazma 359
ying 359
zero 359
ッ@@ 359
1715 358
549 358
7,6 358
768 358
FN 358
Faus@@ 358
Girard 358
ICE 358
IQ 358
Manitoba 358
Martino 358
Montec@@ 358
Morse 358
Saray@@ 358
Strike 358
anese 358
caf@@ 358
inal 358
mica 358
olm 358
oman@@ 358
paragu@@ 358
wy 358
ışla 358
八@@ 358
504 357
508 357
AMD 357
Abel@@ 357
Alta 357
Bravo 357
Ch 357
Co. 357
Dominique 357
Hous@@ 357
Norr@@ 357
Pose@@ 357
Rojas 357
Stein 357
Stra@@ 357
Thing 357
asen 357
aí@@ 357
dak@@ 357
enz 357
igr@@ 357
radic@@ 357
synth@@ 357
α@@ 357
四@@ 357
419 356
454 356
Algar@@ 356
Bernardo 356
Birds 356
Bluetooth 356
Expo 356
Livingston 356
Michelangelo 356
Spani@@ 356
bru@@ 356
half 356
jit@@ 356
jub@@ 356
kak@@ 356
kos 356
mak 356
nak 356
owitz 356
yas 356
趙@@ 356
黎@@ 356
1527 355
477 355
5,9 355
577 355
6,1 355
6,7 355
Ars@@ 355
Bush@@ 355
Deutschland 355
Doo 355
Everything 355
Front 355
IM 355
Kirby 355
Lama 355
Maver@@ 355
Souza 355
Survivor 355
Ubisoft 355
Wilde 355
city 355
ders@@ 355
dim 355
enter@@ 355
ffy 355
graf 355
jou@@ 355
main 355
moor 355
soft 355
sym@@ 355
ụa 355
寺 355
1521 354
426 354
Ariel 354
Caldwell 354
Harley 354
Laguna 354
Messer@@ 354
NME 354
Nij@@ 354
Noy@@ 354
Security 354
TNT 354
Yan 354
aill@@ 354
aius 354
ampo 354
anning 354
aten@@ 354
ecio 354
enstein 354
erre@@ 354
grad 354
icos 354
intr@@ 354
ists 354
lieu 354
lingen 354
proxim@@ 354
tain@@ 354
u. 354
éd@@ 354
ő 354
リ@@ 354
1701 353
8,8 353
Any@@ 353
Boulogne 353
Haas 353
Josi@@ 353
Molina 353
NF 353
Nico 353
Pamp@@ 353
Ponte 353
Rez@@ 353
Sanders 353
Tuc@@ 353
Zim@@ 353
anca 353
dish 353
eim 353
einer 353
function 353
kova 353
port@@ 353
ubic@@ 353
1368 352
188@@ 352
2050 352
457 352
639 352
935 352
ARIA 352
Aram@@ 352
Attack 352
CW 352
Gallia 352
Irish 352
Kafka 352
Latr@@ 352
Martinique 352
Myster@@ 352
Oz 352
Rocket 352
Rosario 352
Silv@@ 352
Suleiman 352
Sü@@ 352
U17 352
akr@@ 352
bide 352
egen 352
faci@@ 352
ffe 352
ikat@@ 352
inn 352
map 352
oman 352
sana 352
three 352
vij@@ 352
yol 352
ópolis 352
日@@ 352
471 351
565 351
76,@@ 351
890 351
Avon 351
Bá@@ 351
D1 351
DG 351
Dom 351
Goy@@ 351
Guér@@ 351
HTTP 351
Humph@@ 351
Laurence 351
Leibniz 351
Milwaukee 351
Mito 351
Old@@ 351
Sami 351
Tribune 351
Wheeler 351
a- 351
anco 351
composite 351
cra@@ 351
dule 351
enni@@ 351
good 351
imperi@@ 351
inny 351
isis 351
mate 351
oqu@@ 351
return 351
revision 351
unker 351
urban@@ 351
version 351
清@@ 351
花@@ 351
2.2 350
48.@@ 350
636 350
719 350
Burns 350
Catalina 350
Cell 350
Chat 350
DSM 350
Gomes 350
Hanna 350
Ith@@ 350
Larsen 350
Luiz 350
Mallorca 350
Mw@@ 350
Neumann 350
Pé@@ 350
Roz@@ 350
Wab@@ 350
Westph@@ 350
atil@@ 350
ağ@@ 350
deo 350
lipo@@ 350
mac 350
macOS 350
mir 350
mondi@@ 350
wig 350
敬@@ 350
水@@ 350
667 349
Aleksander 349
Alem@@ 349
Antoinette 349
Benito 349
Bier@@ 349
Castillo 349
Fib@@ 349
Goodman 349
Gottfried 349
Gümüş@@ 349
Hispan@@ 349
KDE 349
Kli@@ 349
Peterson 349
Savage 349
Truth 349
Unit 349
arif 349
idin 349
ilian 349
lein 349
mem@@ 349
mig@@ 349
schen 349
Ó 349
ım@@ 349
533 348
617 348
675 348
Bombay 348
Bremer 348
Breslau 348
Coron@@ 348
FR 348
Gamma 348
Globe 348
Guadalupe 348
June 348
Locke 348
Logo 348
Montpellier 348
NAS@@ 348
Segovia 348
Shen@@ 348
Sioux 348
Some@@ 348
Whiteh@@ 348
alier 348
awak@@ 348
child 348
dod@@ 348
edt 348
erin 348
html 348
jaw@@ 348
lü@@ 348
ography 348
quot 348
rah@@ 348
scandal 348
shir@@ 348
twood 348
ʻ@@ 348
1680 347
43.@@ 347
Cecilia 347
Dell 347
Fighting 347
Halle 347
Ip@@ 347
Jackie 347
Jensen 347
Kie@@ 347
MCA 347
Match 347
Mons 347
Networks 347
Noble 347
Prize 347
River@@ 347
Sinatra 347
Société 347
Superman 347
Tucker 347
ark 347
bri 347
cot 347
ection 347
icke 347
icks 347
illé 347
ić 347
kuh@@ 347
sil 347
space 347
1000@@ 346
1550 346
186@@ 346
472 346
487 346
531 346
7,8 346
Before 346
Dutch 346
Hole 346
Ortiz 346
PAL 346
Spy 346
Thatcher 346
Trent 346
Via 346
Win 346
Yukon 346
ambigu@@ 346
buch@@ 346
compact 346
fug@@ 346
hos 346
icky 346
jab@@ 346
lace 346
max 346
mites 346
prob@@ 346
umia 346
upp@@ 346
Çer@@ 346
有@@ 346
石@@ 346
418 345
632 345
875 345
Bond@@ 345
CAM 345
Canaria 345
Friday 345
Hague 345
IAAF 345
Ja 345
Led 345
Mad 345
Marcell@@ 345
Palma 345
Paulus 345
RE 345
Rao 345
Satur@@ 345
Vita 345
Volta 345
Zul@@ 345
anche 345
aring 345
giy@@ 345
hau@@ 345
lars 345
rau@@ 345
uddin 345
ulg@@ 345
your 345
456 344
466 344
541 344
545 344
572 344
628 344
7.5 344
Alt 344
Boyle 344
Clan@@ 344
Crosby 344
Evangel@@ 344
Fine 344
Jel@@ 344
Julio 344
Jürgen 344
Kow@@ 344
Toni 344
ambi 344
aper 344
doni 344
ensk 344
entin 344
home 344
latt 344
most 344
unds 344
1- 343
1428 343
1645 343
499 343
6,3 343
612 343
613 343
89,@@ 343
C4 343
Circle 343
Cré@@ 343
DB@@ 343
Dimi@@ 343
Hooker 343
IMAX 343
Moz@@ 343
Speed 343
Vila 343
ames 343
dard 343
engen 343
ident 343
ival@@ 343
leta 343
onz@@ 343
riz@@ 343
thy 343
û@@ 343
1745 342
Bilbao 342
Burdur 342
Cage 342
Chab@@ 342
Chávez 342
Dab@@ 342
Kard@@ 342
Mary@@ 342
Pati@@ 342
Real@@ 342
UK@@ 342
Wang@@ 342
Werder 342
anam@@ 342
made 342
mium 342
pren@@ 342
utia 342
üm 342
師@@ 342
423 341
468 341
478 341
585 341
68,@@ 341
BOL 341
BV 341
Board 341
Braz@@ 341
Dominic 341
Ethan 341
FX 341
GSM 341
GmbH 341
ICC 341
Lars 341
Low 341
Madeleine 341
Midnight 341
Moj@@ 341
Moody 341
Seh@@ 341
Soundtrack 341
Toy 341
WB 341
aji@@ 341
anten 341
christ@@ 341
d4 341
emin 341
iker 341
kuts@@ 341
level 341
opla 341
princ@@ 341
silon 341
umbo 341
yle@@ 341
1755 340
493 340
511 340
547 340
938 340
Airport 340
Calcutta 340
Collège 340
Hamas 340
Katie 340
Oracle 340
Randall 340
Rothschild 340
Screen 340
Seid@@ 340
Sta@@ 340
VF 340
Viz@@ 340
Wigan 340
amen@@ 340
añ@@ 340
coe 340
curr@@ 340
ebi 340
enan 340
erne 340
hey@@ 340
ignan 340
âr@@ 340
3C 339
42,@@ 339
Antony 339
Camille 339
Exchange 339
Gustave 339
Holly 339
Jakob 339
Jericho 339
Leip@@ 339
Ltd. 339
Mahmoud 339
Nanj@@ 339
Oldenburg 339
Rutherford 339
Skr@@ 339
ading 339
agna 339
aird 339
antic@@ 339
auf@@ 339
cyr@@ 339
mano 339
peso 339
positi@@ 339
reci@@ 339
sr@@ 339
straße 339
tov@@ 339
uel 339
ól@@ 339
1603 338
41,@@ 338
529 338
923 338
Andersson 338
Aquino 338
Continental 338
Coventry 338
Dominican 338
Dunk@@ 338
Frit@@ 338
Japanese 338
Jaz@@ 338
Joaqu@@ 338
Liszt 338
Nid@@ 338
Osman@@ 338
Regina 338
Rose@@ 338
atlı 338
cim@@ 338
dee 338
dir 338
eben 338
fj@@ 338
fren@@ 338
later 338
load 338
loy@@ 338
peregr@@ 338
piza 338
sidi@@ 338
1st 337
522 337
Everest 337
Feu@@ 337
Mahmud 337
NFL 337
Nicholson 337
Number 337
Performance 337
Scri@@ 337
Taw@@ 337
Theater 337
agne 337
compl@@ 337
inian 337
smart@@ 337
tung@@ 337
и 337
א@@ 337
春@@ 337
貴@@ 337
1,0@@ 336
10,5 336
1689 336
473 336
621 336
Bel 336
Brent@@ 336
Bruch 336
Carth@@ 336
Early 336
Fokker 336
Gould 336
Hohenzollern 336
Königsberg 336
Lauter@@ 336
Macintosh 336
Marilyn 336
PSP 336
Salah 336
Sandra 336
Saul@@ 336
TI 336
Tarsus 336
XXIII 336
blo@@ 336
ewell 336
polym@@ 336
round 336
sad 336
them 336
vand@@ 336
皇帝 336
1735 335
421 335
619 335
7,3 335
Aegean 335
Cyril 335
Fairfield 335
Havilland 335
Hendrix 335
Kari@@ 335
LLC 335
Lou 335
Makerere 335
Mine 335
Mort@@ 335
Serv@@ 335
Strange 335
Valve 335
Voj@@ 335
Voltaire 335
Zack 335
ayas 335
dex@@ 335
iano 335
infl@@ 335
isk 335
jong 335
max@@ 335
offic@@ 335
ofia 335
orig@@ 335
sura 335
way@@ 335
3.1 334
937 334
Basic 334
Better 334
Connell 334
Cortés 334
Davidson 334
Doug 334
Fitzgerald 334
Giv@@ 334
Golf 334
K2 334
Mansfield 334
Mub@@ 334
Myers 334
Novo 334
Oster@@ 334
Pack@@ 334
Talbot 334
amor@@ 334
arb@@ 334
cle 334
lini 334
magma 334
mono@@ 334
nois 334
в 334
ス@@ 334
1427 333
722 333
800@@ 333
AIM 333
Arms 333
Des 333
HR 333
Hec@@ 333
Judy 333
Pik@@ 333
RMS 333
Reno 333
Schwar@@ 333
Villar@@ 333
WW@@ 333
Wass@@ 333
amos 333
imba 333
isl@@ 333
lıca 333
ote@@ 333
oud@@ 333
public 333
trav@@ 333
yazı 333
516 332
518 332
527 332
552 332
626 332
64,@@ 332
AST 332
Bant@@ 332
Brandon 332
Breton 332
Cabr@@ 332
Dam 332
Madi@@ 332
Mod 332
NG@@ 332
Parkinson 332
Safari 332
Space@@ 332
amas 332
anner 332
bles 332
ché 332
dyn@@ 332
enau 332
iliana 332
sip 332
vil 332
城@@ 332
的@@ 332
905 331
921 331
990 331
Cris@@ 331
Diesel 331
Evelyn 331
FI 331
Flav@@ 331
Lab 331
Lodge 331
Mig@@ 331
Parti@@ 331
Reporter 331
Vad@@ 331
Witch 331
Yek@@ 331
bifur@@ 331
edel@@ 331
gemeinde 331
gener@@ 331
illing 331
led 331
lefield 331
lene 331
mil 331
oua 331
separ@@ 331
sted 331
wikitext 331
you@@ 331
180@@ 330
492 330
561 330
Appal@@ 330
Astronom@@ 330
Clark@@ 330
Dangerous 330
Dard@@ 330
Georgetown 330
Höl@@ 330
Joseon 330
Juliet 330
Logic 330
Lonely 330
Perez 330
Sterling 330
Tata 330
Uri@@ 330
Wine 330
akal@@ 330
club 330
common 330
elip@@ 330
istère 330
simplic@@ 330
tern 330
usse 330
447 329
458 329
681 329
756 329
790 329
Branch 329
Byron 329
Crane 329
Donna 329
Fatima 329
Fay@@ 329
Glu@@ 329
Gour@@ 329
Huber 329
Kadi@@ 329
Murad 329
Nal@@ 329
Wen@@ 329
cen@@ 329
digital 329
emin@@ 329
estre 329
gie 329
giore 329
iç@@ 329
kt 329
porte 329
tigny 329
unk 329
ß 329
„ 329
1471 328
2.1 328
47.@@ 328
503 328
965 328
Alma 328
Archer 328
CDP 328
EX 328
Hume 328
Infin@@ 328
Ivy 328
Martinez 328
Melanie 328
Mustang 328
Pegasus 328
USE 328
Warrior 328
Yellow@@ 328
Zah@@ 328
conj@@ 328
dison 328
elos 328
penalty 328
pt@@ 328
sidium 328
stre@@ 328
write 328
[...]
