۔ 1
کے 1
میں 1
، 1
کی 1
ہے 1
اور 1
سے 1
کا 1
اس 1
نے 1
پر 1
کو 1
ایک 1
ہیں 1
) 0.9053572600707317
( 0.8868010087480659
. 0.1606615217499775
جو 1
کیا 1
ان 1
یہ 1
کہ 1
&quot; 0.33200373374503667
تھا 1
واقع 1
بھی 1
کر 1
وہ 1
تھے 1
@-@ 0.39471347798342804
و 1
لیے 1
گیا 1
بعد 1
: 1
یا 1
جس 1
آبادی 1
ہو 1
بن 1
ساتھ 1
تھی 1
نہیں 1
مجموعی 1
افراد 1
کرنے 1
; 1
تک 1
دیا 1
اپنے 1
تفصیلات 1
مشتمل 1
&amp; 1
طور 1
کاؤنٹی 1
جاتا 1
ہوئے 1
تو 1
آپ 1
ہی 1
پاکستان 1
ہوا 1
نام 1
متحدہ 1
شہر 1
دی 1
اللہ 1
زیادہ 1
ضلع 1
امریکا 1
انہوں 1
گئے 1
اپنی 1
علاقہ 1
سطح 1
ریاستہائے 1
نہ 1
شپ 1
میٹر 1
گئی 1
جب 1
حاصل 1
دو 1
محمد 1
لیکن 1
کرتے 1
مربع 1
ک@@ 1
رقبہ 1
ہوئی 1
ٹاؤن 1
ی@@ 1
بہت 1
بلندی 1
پ@@ 1
کیلومیٹر 1
اسے 1
سب 1
سال 1
وقت 1
کہا 1
وں 1
پہلے 1
ہونے 1
شامل 1
ہوتا 1
گ@@ 1
والے 1
کچھ 1
/ 1
کسی 1
رہے 1
gt 1
سی 1
lt 1
خان 1
ہ@@ 1
ای@@ 1
بی@@ 1
چ@@ 1
وجہ 1
اسی 1
س@@ 1
ن@@ 1
آباد 1
طرح 1
می@@ 1
سی@@ 1
‘ 1
حکومت 1
رہائشی 1
جنگ 1
جن 1
ڈ@@ 1
و@@ 1
ری@@ 1
کام 1
علی 1
ہ 1
ر@@ 1
ب@@ 1
سو 1
طرف 1
ان@@ 1
کی@@ 1
دور 1
سمندر 1
ٹ@@ 1
کوئی 1
لے 1
د@@ 1
لیا 1
شاہ 1
خلاف 1
ل@@ 1
کم 1
ش@@ 1
استعمال 1
حضرت 1
ز@@ 1
آ@@ 1
فلم 1
دے 1
’ 0.7347328996181038
انہیں 1
پی@@ 1
زبان 1
ار@@ 1
تعلیم 1
بھارت 1
لی@@ 1
ک 1
مطابق 1
شروع 1
صوبہ 1
پیدا 1
ے 1
زندگی 1
وی@@ 1
لا 1
رہا 1
ج@@ 1
م@@ 1
والی 1
ٹ 1
ہر 1
پھر 1
لا@@ 1
نی@@ 1
لی 1
تھیں 1
تمام 1
را@@ 1
کو@@ 1
رو@@ 1
دوران 1
صرف 1
عام 1
ِ 1
س 1
گا 1
اب 1
ملک 1
کرکٹ 1
مقام 1
مشہور 1
لئے 1
کتاب 1
ری 1
یہاں 1
کیے 1
ٹی 1
کئی 1
تین 1
کر@@ 1
بی 1
ہوتی 1
جہاں 1
غیر 1
اے 1
کرنا 1
کرتا 1
خود 1
پیش 1
ن 1
لوگوں 1
مختلف 1
اسلام 1
تا 1
عبد 1
موجود 1
تاریخ 1
بر@@ 1
ف@@ 1
ڈ 1
بے 1
حصہ 1
جاتی 1
&#124; 1
ہم 1
اور@@ 1
ال@@ 1
دنیا 1
عمر 1
پر@@ 1
ت@@ 1
امام 1
فرانسیسی 1
قائم 1
دوسرے 1
اہم 1
دار 1
پہلی 1
ابن 1
جائے 1
آف 1
ا 1
سینٹ 1
ہوائی 1
احمد 1
دونوں 1
ریاست 1
تی 1
نا 1
جا 1
وفات 1
&#93; 1
یں 1
ا@@ 1
دریا 1
بات 1
انی 1
- 0.6963486658321864
دی@@ 1
اردو 1
جنوبی 1
&#91; 1
ڈی 1
الدین 1
علاوہ 1
ی 1
جانے 1
ائی 1
یعنی 1
اس@@ 1
بین 1
ہزار 1
م 1
ہو@@ 1
بڑے 1
من@@ 1
ل 1
of 0.042774402980225334
؛ 1
وی 1
مو@@ 1
ڈی@@ 1
ح@@ 1
&apos; 0.38980281348315965
بار 1
فوج 1
دیگر 1
ون 1
پی 1
فہرست 1
پور 1
ہی@@ 1
پاس 1
علیہ 1
شی@@ 1
سلطنت 1
یونیورسٹی 1
ور@@ 1
جیسے 1
اسٹیشن 1
بڑا 1
لوگ 1
رہی 1
بڑی 1
ہندوستان 1
لو@@ 1
ور 1
ایران 1
ہوں 1
دن 1
سید 1
ش 1
نی 1
نا@@ 1
ہوتے 1
جبکہ 1
, 0.01006397576654811
اگر 1
ٹی@@ 1
ز 1
خاندان 1
سو@@ 1
صدی 1
گی 1
علم 1
خواتین 1
اڈا 1
تے 1
لینڈ 1
خ@@ 1
ام@@ 1
وا@@ 1
ابو 1
ریلوے 1
کھ@@ 1
دوسری 1
قومی 1
شمالی 1
ق@@ 1
سر 1
جی@@ 1
ین 1
مگر 1
بھ@@ 1
جاری 1
صدر 1
اپنا 1
رہ 1
مغربی 1
سن 1
بیان 1
تر 1
سر@@ 1
بارے 1
گی@@ 1
عدد 1
پنجاب 1
ابتدائی 1
درمیان 1
آئی 1
او@@ 1
یوں 1
خاص 1
ت 1
بنا 1
تعلق 1
اب@@ 1
ر 1
ٹیسٹ 1
عمل 1
جسے 1
ع@@ 1
آغاز 1
فرانس 1
کرتی 1
تاہم 1
والد 1
ھ 1
نیو 1
علاقے 1
جاتے 1
حسین 1
زی@@ 1
نظر 1
تھ@@ 1
والا 1
کردار 1
کالج 1
گن 1
چار 1
کل 1
الاقوامی 1
تعمیر 1
امریکی 1
نگ 1
گاؤں 1
سیاسی 1
ٹیم 1
کار 1
گے 1
بو@@ 1
با@@ 1
2 0.48677804287775883
فی@@ 1
گھر 1
فی 1
ون@@ 1
عرب 1
تعداد 1
– 0.29081381856695726
انگریزی 1
چین 1
صاحب 1
جی 1
جگہ 1
ممالک 1
سکتا 1
شادی 1
تی@@ 1
مسجد 1
چی@@ 1
پیدائش 1
کیونکہ 1
دھ@@ 1
شیخ 1
مسلم 1
مکمل 1
می 1
کہتے 1
اسلامی 1
“ 0.447315053359311
قریب 1
کار@@ 1
لاہور 1
1 0.400318240943856
دہ 1
اری 1
کس 1
وزیر 1
گ 1
حیثیت 1
یونین 1
قبل 1
عربی 1
اک@@ 1
مر@@ 1
مشرقی 1
سلطان 1
چھ@@ 1
مولانا 1
ذریعہ 1
نو@@ 1
مدد 1
قدیم 1
آئے 1
3 0.5194605204143841
ٹر 1
ار 1
الینوائے 1
اں 1
رکھا 1
ایس 1
قتل 1
نظام 1
عظیم 1
سن@@ 1
شائع 1
فرمایا 1
حملہ 1
جو@@ 1
انہ 1
نو 1
ب 1
ٹن 1
وہاں 1
” 1
ج 1
ھ@@ 1
بلکہ 1
علاقوں 1
واپس 1
آیا 1
ذکر 1
اختیار 1
بعض 1
ختم 1
کن@@ 1
د 1
ما@@ 1
تحریک 1
ق 1
فتح 1
بنایا 1
نگ@@ 1
میچ 1
شخص 1
ط@@ 1
فوجی 1
قرآن 1
پ 1
مین 1
زمین 1
گو@@ 1
ك@@ 1
ص@@ 1
لہ 1
را 1
ؓ 1
دینے 1
پہلا 1
اعظم 1
کوشش 1
مل 1
ادا 1
تقسیم 1
مزید 1
برطانوی 1
جان 1
پاکستانی 1
ایم 1
رسول 1
انھوں 1
رنز 1
ئ@@ 1
ائے 1
غ@@ 1
دو@@ 1
جانب 1
وغیرہ 1
لکھا 1
آخری 1
خدمات 1
اد@@ 1
اسکول 1
ام 1
تیار 1
20 0.8925672522468343
کاونٹی 1
بھائی 1
مارچ 1
ترکی 1
پانی 1
پانچ 1
كاونٹي 1
كاؤنٹي 1
4 0.5190489872144428
جمہوریہ 1
ۃ 1
بولا 1
ال 1
اتی 1
آج 1
ویں 1
چند 1
قرار 1
این 1
بنیاد 1
تو@@ 1
5 0.5928439408735274
وری 1
انجام 1
ایسے 1
حسن 1
دین 1
هٔ 1
مار@@ 1
کبھی 1
خیال 1
کراچی 1
مسلمانوں 1
سٹ@@ 1
خدا 1
من 1
ف 1
ترقی 1
روس 1
ترین 1
موجودہ 1
ي@@ 1
مرکزی 1
وا 1
شمار 1
10 0.6199370483384256
متعلق 1
عالم 1
اہل 1
تم 1
کونسل 1
آزاد 1
تحت 1
گر@@ 1
مینیسوٹا 1
سندھ 1
حدیث 1
بادشاہ 1
عالمی 1
ایسا 1
آزادی 1
کرکے 1
بنیادی 1
ذیل 1
اگست 1
دل 1
مقامی 1
قیام 1
انے 1
سلسلہ 1
متعدد 1
گروپ 1
پارٹی 1
سرکاری 1
ادب 1
انڈیانا 1
ول@@ 1
رکھنے 1
انا 1
قانون 1
رکھتے 1
جنوری 1
سفر 1
آخر 1
سنگھ 1
6 0.5802233458108039
اش@@ 1
ما 1
حکم 1
موت 1
مشی 1
دیتے 1
اصل 1
زیر 1
پوری 1
ہند 1
اکتوبر 1
اگ@@ 1
قسم 1
مسلمان 1
دسمبر 1
قبضہ 1
فر@@ 1
ولی 1
دوبارہ 1
در@@ 1
جون 1
انتخابات 1
مئی 1
تر@@ 1
ذریعے 1
ء 1
بیٹے 1
کافی 1
ہاتھ 1
فن 1
قابل 1
اعلان 1
جدید 1
ستمبر 1
مہ@@ 1
اپ@@ 1
شمال 1
رکن 1
بل@@ 1
گئیں 1
قوم 1
بھارتی 1
ائ@@ 1
جولائی 1
چھ 1
درجہ 1
صورت 1
جانا 1
دان 1
حق 1
گھ@@ 1
ٹس 1
نومبر 1
دہلی 1
لاطینی 1
ات@@ 1
از 1
مش@@ 1
منتخب 1
آسٹریلیا 1
ملا 1
بہترین 1
سامنے 1
جن@@ 1
چ 1
مذہبی 1
عوامی 1
کیریئر 1
ي 1
سکتے 1
لفظ 1
ات 1
مع@@ 1
اکثر 1
جرمنی 1
لندن 1
کیں 1
مح@@ 1
آنے 1
بنانے 1
بار@@ 1
اسمبلی 1
شکست 1
ایسی 1
ڈاکٹر 1
بہ 1
جنوب 1
ول 1
دیں 1
ذ@@ 1
روسی 1
اپریل 1
یت 1
بہ@@ 1
فارسی 1
انتقال 1
ٹا 1
مل@@ 1
رات 1
برطانیہ 1
بطور 1
؟ 1
ابی 1
پو@@ 1
جھ@@ 1
کریں 1
بنائے 1
آ 1
سوویت 1
فروری 1
مقرر 1
سا 1
تقریباً 1
جامعہ 1
کرے 1
تحصیل 1
12 0.6606814806268055
توں 1
15 0.7340733739134095
جنرل 1
قبول 1
جات 1
8 0.6075120418324541
کامیاب 1
رے 1
بد@@ 1
شن 1
نئی 1
بند 1
تاریخی 1
دہائی 1
دیکھا 1
پسند 1
سین 1
عہد 1
مہ 1
لو 1
پھ@@ 1
مان@@ 1
کل@@ 1
ٹاون 1
ظاہر 1
رین 1
بچوں 1
ست@@ 1
7 0.5846101706341427
امیر 1
شاعری 1
انگ@@ 1
روایت 1
میر 1
000 1
شام 1
شی 1
الم@@ 1
ہوئیں 1
چنانچہ 1
السلام 1
ٹو@@ 1
خانہ 1
حالات 1
مرکز 1
سک@@ 1
شریف 1
اول 1
ۂ 1
بن@@ 1
شاعر 1
مس@@ 1
اف@@ 1
مذہب 1
آئیووا 1
صلی 1
رائے 1
اندر 1
اثر 1
جماعت 1
وس@@ 1
شکل 1
یو@@ 1
بھر 1
سیاست 1
غلام 1
ند@@ 1
چھوٹا 1
نتیجے 1
ٹر@@ 1
بنی 1
موقع 1
9 0.6600515837439335
مشرق 1
ڑ 1
فیصد 1
اسرائیل 1
_ 0.7394160416085879
میری 1
افغانستان 1
معلوم 1
قصبہ 1
سکے 1
دس 1
نئے 1
او 1
الی 1
ِ@@ 1
الگ 1
شدہ 1
حصے 1
اِس 1
ہر@@ 1
کن 1
تاکہ 1
اگرچہ 1
یہی 1
11 0.7159700959709911
کلومیٹر 1
وال@@ 1
درج 1
یر 1
دریائے 1
انسان 1
ترک 1
روں 1
لیگ 1
19 0.8558754304450635
اُس 1
فیصلہ 1
داخل 1
نمبر 1
انسانی 1
ہندو 1
کاری 1
از@@ 1
فٹ 1
دا 1
یل 1
اوہائیو 1
پائی 1
ترجمہ 1
حد 1
ع 1
علامت 1
حقوق 1
کردیا 1
انداز 1
ملی 1
14 0.7949373073358565
آر 1
الی@@ 1
ٹھ@@ 1
سات 1
لوں 1
مصر 1
کنساس 1
حال 1
خواجہ 1
جواب 1
چو@@ 1
فراہم 1
مت 1
کردہ 1
دیے 1
چکے 1
ایل 1
والوں 1
جمع 1
کتب 1
رکھی 1
ہندوستانی 1
باہر 1
آر@@ 1
ں 1
مقصد 1
ث@@ 1
رو 1
رام 1
اُن 1
معروف 1
کمپنی 1
اداکارہ 1
زمانے 1
ئی 1
چی 1
وسلم 1
مراد 1
ئے 1
30 0.6920238609520931
شاہی 1
بر 1
ادارہ 1
گر 1
سابق 1
لگا 1
اجازت 1
محل 1
دا@@ 1
دوسرا 1
باوجود 1
پڑا 1
رنگ 1
سیریز 1
16 0.7183818588277175
پس 1
وسطی 1
ثابت 1
قلعہ 1
مرتبہ 1
تشکیل 1
کلی@@ 1
حمایت 1
عوام 1
نٹ 1
اتحاد 1
سل@@ 1
اج@@ 1
داری 1
18 0.6522967246303272
باقی 1
تنظیم 1
واشنگٹن 1
نس 1
حملے 1
چھوڑ 1
تا@@ 1
ضرورت 1
برائے 1
25 0.7823881566873951
پار@@ 1
13 0.7698224967976718
ہونا 1
بغیر 1
تعلیمی 1
مغرب 1
کا@@ 1
زمانہ 1
یہودی 1
وس 1
مدینہ 1
برا@@ 1
ﷺ 1
منتقل 1
کیلیفورنیا 1
مک@@ 1
یو 1
جے 1
سمجھا 1
علامہ 1
کشمیر 1
انگلینڈ 1
در 1
17 0.7705561706257333
کمیون 1
اسٹ@@ 1
3@@ 1
نوں 1
خدمت 1
گو 1
زی 1
اي@@ 1
الفاظ 1
کھیل 1
کھلاڑی 1
سری 1
حالت 1
نڈ@@ 1
مد@@ 1
Saint 0.8465737568809327
خلافت 1
ڈے 1
پاک 1
جڑواں 1
بغاوت 1
اعلیٰ 1
ماں 1
نماز 1
ڑ@@ 1
فلموں 1
! 0.9209324127728584
روز 1
میرے 1
آگے 1
ئر 1
یورپ 1
چھوٹے 1
بری@@ 1
قی@@ 1
ناول 1
است@@ 1
سينٹ 1
ریہ 1
ایف 1
افواج 1
اولاد 1
عبد@@ 1
سٹ 1
حلقہ 1
جلد 1
نک@@ 1
معنی 1
تعلقات 1
وار 1
حوالے 1
میدان 1
چکی 1
پرو@@ 1
ایوارڈ 1
طاقت 1
ڈا 1
تربیت 1
سنہ 1
ہوگا 1
مقابلہ 1
کامیابی 1
1,@@ 1
سماجی 1
رہتے 1
ے@@ 1
سکتی 1
سخت 1
تبدیل 1
دیتا 1
فری@@ 1
نسل 1
رہنے 1
متاثر 1
خاتون 1
وم@@ 1
= 0.819846051014261
دیکھ 1
کیوں 1
امن 1
انتہائی 1
نہایت 1
تیں 1
پنسلوانیا 1
گری@@ 1
ولادت 1
پولینڈ 1
پا 1
جرمن 1
سائنس 1
اضافہ 1
نور 1
کرو@@ 1
ادبی 1
مصنف 1
باعث 1
نامی 1
گڑھ 1
ٹری@@ 1
کری@@ 1
الح@@ 1
جنہوں 1
مملکت 1
نقل 1
کہانی 1
وج@@ 1
عثمانی 1
ہدایت 1
نیشنل 1
مج@@ 1
بتایا 1
لینے 1
واقعہ 1
انھیں 1
ذیلی 1
کپ 1
بلند 1
باز 1
علمی 1
.@@ 1
میل 1
ٹیلی 1
نس@@ 1
نیا 1
پری@@ 1
مال@@ 1
موسیقی 1
کلاس 1
جیسا 1
چونکہ 1
بندی 1
the 0.00691245731750904
فیلڈ 1
لگے 1
نز 1
گنتی 1
مت@@ 1
شر@@ 1
مثال 1
خط 1
الہ 1
یاد 1
ہلاک 1
محبت 1
سم@@ 1
چینی 1
بانی 1
وسیع 1
مالک 1
با 1
مون@@ 1
سعودی 1
حی@@ 1
مابین 1
بیٹی 1
انڈیا 1
ٹو 1
10@@ 1
کور@@ 1
Canton 1
ه@@ 1
عراق 1
چلے 1
منظر 1
واقعات 1
لاکھ 1
روزہ 1
محمود 1
جر@@ 1
مست@@ 1
حوالہ 1
ض@@ 1
مہم 1
کان@@ 1
24 0.7416761014826243
گاہ 1
اقبال 1
پہنچ 1
مي@@ 1
قدر 1
ہار@@ 1
بنگلہ 1
ویل 1
اعزاز 1
ای 1
دیش 1
راج 1
ژ@@ 1
بنے 1
مسائل 1
ویسٹ 1
شریک 1
مجھے 1
اضلاع 1
21 0.7347354370154294
وار@@ 1
7@@ 1
پورے 1
جارجیا 1
ڈھ@@ 1
22 0.795579666907721
تسلیم 1
ماہ 1
مکہ 1
پردیش 1
عددی 1
طویل 1
یم 1
قیادت 1
کون@@ 1
شہروں 1
نبی 1
بل 1
بجائے 1
ورلڈ 1
جزیرہ 1
وت@@ 1
ایرانی 1
8@@ 1
ہسپانوی 1
23 0.8380260757624538
واضح 1
تقریبا 1
ميں 1
سردار 1
9@@ 1
پیر 1
چاہیے 1
ح 1
ذمہ 1
علوم 1
کول@@ 1
افریقہ 1
اح@@ 1
ولی@@ 1
کلام 1
قبیلہ 1
ٹیکساس 1
لکھی 1
انگ 1
عباس 1
اُ@@ 1
ہندی 1
لحاظ 1
نظاموں 1
آل 1
گور@@ 1
نگار 1
شہری 1
پولیس 1
فل@@ 1
انتخاب 1
کش@@ 1
پایا 1
شکار 1
برو@@ 1
موں 1
چلا 1
ري@@ 1
ڈو@@ 1
بلحاظ 1
خلیفہ 1
مقابلے 1
والدہ 1
مقبول 1
ڑی 1
آٹھ 1
مور@@ 1
تحریر 1
اینڈ 1
ہائی 1
نمایاں 1
کینیڈا 1
اہمیت 1
فرسٹ 1
کتابیں 1
چکا 1
جاپان 1
13@@ 1
وطن 1
ملکی 1
محفوظ 1
علما 1
توجہ 1
ﺎ@@ 1
اہ@@ 1
اقوام 1
ڑا 1
یورپی 1
رکھتا 1
مضامین 1
صوبے 1
مار 1
ریکارڈ 1
مسیح 1
وادی 1
مطلب 1
فلمی 1
گروہ 1
حکمران 1
ڈگری 1
2@@ 1
رہیں 1
ایشیا 1
وسکونسن 1
ند 1
بہتر 1
مقامات 1
ابھی 1
لڑائی 1
صحیح 1
County 0.6829055483397767
مخصوص 1
حیات 1
مختار 1
بچے 1
نور@@ 1
رہ@@ 1
آتا 1
گورنر 1
پیمانے 1
حقیقت 1
تحقیق 1
شیعہ 1
نگر 1
پور@@ 1
ہمیشہ 1
خ 1
مر 1
کردی 1
زبانوں 1
معاہدے 1
ہجرت 1
بنائی 1
6@@ 1
موسم 1
وب@@ 1
بیٹا 1
2018 0.46695639688359847
نار@@ 1
ريلوے 1
دار@@ 1
جسم 1
ابراہیم 1
اظہار 1
یوسف 1
مجموعہ 1
شو@@ 1
ماہر 1
چھوٹی 1
آتے 1
وي@@ 1
اسٹيشن 1
پورا 1
جان@@ 1
لین 1
اوسط 1
ضروری 1
شہرت 1
e 0.2929021950912009
صحت 1
عمارت 1
انکار 1
ممتاز 1
اروں 1
بلے 1
نڈ 1
مب@@ 1
ذاتی 1
معاہدہ 1
سب@@ 1
26 0.8259819992790894
ؒ 1
لائن 1
پہاڑ 1
اق@@ 1
لائ@@ 1
چل 1
عی@@ 1
یارک 1
ائی@@ 1
نواب 1
کنٹرول 1
سمیت 1
كي 1
پیچھے 1
معلومات 1
سا@@ 1
چیز 1
مختصر 1
نتیجہ 1
بال 1
گرد 1
عیسوی 1
قانونی 1
طریقہ 1
كے 1
پروگرام 1
ونی 1
28 0.8103479709863719
نج@@ 1
27 0.8313365707280627
نامہ 1
خی@@ 1
ورجینیا 1
مبنی 1
یات 1
تباہ 1
دولت 1
شخصیت 1
فو@@ 1
ئی@@ 1
مال 1
روڈ 1
زندہ 1
پنجابی 1
وے 1
جنگی 1
امی@@ 1
اقتدار 1
یونانی 1
بیوی 1
جہاز 1
کہیں 1
بری 1
آیت 1
انقلاب 1
انی@@ 1
کتابوں 1
ٹے 1
0ء 1
رب@@ 1
گل 1
ثقافت 1
باپ 1
سارے 1
واحد 1
ڈو 1
ظ@@ 1
جائیں 1
قہ 1
برس 1
ستان 1
نصف 1
انعام 1
کھیلے 1
District 1
نیز 1
طالب 1
سعید 1
دورہ 1
اع@@ 1
عبداللہ 1
عرصہ 1
بینک 1
شہید 1
الق@@ 1
نسب 1
ریاستوں 1
ارہ 1
سلسلے 1
نش@@ 1
حافظ 1
آواز 1
لیک 1
پورٹ 1
عرصے 1
ہاں 1
روانہ 1
ك 1
ایچ 1
وَ@@ 1
مان 1
ملین 1
تصور 1
سٹی 1
روم 1
طرز 1
ملتا 1
محکمہ 1
سان 1
ڈن 1
وال 1
ط 1
4@@ 1
الع@@ 1
بیت 1
ولا 1
کرا@@ 1
پارک 1
اوپر 1
شرح 1
لکھتے 1
پروفیسر 1
ایڈ@@ 1
نما 1
وق@@ 1
تھی@@ 1
بڑھ 1
پہنچا 1
پل 1
مندرجہ 1
کھیلا 1
َ@@ 1
نر 1
بننے 1
وجود 1
ﺍ@@ 1
0 0.6016046505177934
الحکومت 1
عورت 1
مطالعہ 1
زور 1
شرکت 1
مق@@ 1
منصوبہ 1
ویب 1
مرزا 1
رن 1
نیوزی 1
ين@@ 1
فرماتے 1
چک 1
تھ 1
لنکا 1
بھیجا 1
14@@ 1
ء@@ 1
نمائندگی 1
ہمارے 1
وکٹیں 1
کمی 1
50 0.7463866734771983
باب 1
اخبار 1
اداکار 1
تلاش 1
سپ@@ 1
اک 1
سیزن 1
بخش 1
معاشی 1
اصطلاح 1
پائے 1
رس 1
نجی 1
in 0.009261085982796255
بیعت 1
حصوں 1
سربراہ 1
جاسکتا 1
جنسی 1
مدرسہ 1
29 0.8357682108138779
ابتدا 1
دریافت 1
انتظام 1
ثقافتی 1
تن@@ 1
سٹی@@ 1
وف@@ 1
سامنا 1
قبائل 1
روایات 1
کہنا 1
لیں 1
ادی 1
نقصان 1
جل@@ 1
استاد 1
ڈر 1
بان@@ 1
فضل 1
-@@ 0.825407340047391
خبر 1
ہیپلو 1
اد 1
اِ@@ 1
تخت 1
مشترکہ 1
شدید 1
تجارت 1
خصوصی 1
یاں 1
رہتا 1
زائد 1
سبب 1
امریکہ 1
2019 0.4255380363531605
الج@@ 1
بال@@ 1
مرد 1
آدمی 1
رس@@ 1
آئ@@ 1
روایتی 1
ندی 1
ممکن 1
بیس 1
ڈز 1
عہدے 1
سالوں 1
وم 1
ترتیب 1
لگایا 1
کان 1
عملی 1
ائیں 1
عثمان 1
100 0.568075718275972
فار@@ 1
فقہ 1
ازاں 1
درس 1
ادارے 1
مجبور 1
لان@@ 1
اٹھ@@ 1
ارا 1
وو 1
منٹ 1
ہا 1
اکبر 1
کوٹ 1
برقرار 1
شاہ@@ 1
بیشتر 1
کیرولائنا 1
مز@@ 1
ویژن 1
سون@@ 1
وو@@ 1
% 0.12840550976023868
شہنشاہ 1
قاضی 1
ناکام 1
تشدد 1
عدالت 1
لان 1
ُ@@ 1
بدھ 1
قید 1
اگلے 1
صوبائی 1
اننگز 1
1ء 1
شیر 1
کہ@@ 1
2013 0.36293239111644915
ؤ 1
مضبوط 1
گرفتار 1
پیشہ 1
ؤ@@ 1
خون 1
کمیونٹی 1
ونگ 1
کس@@ 1
طے 1
دوم 1
سہ 1
نظ@@ 1
بلوچستان 1
حل 1
تیز 1
پرا@@ 1
2ء 1
دینا 1
اسٹی@@ 1
کرکٹر 1
رضا 1
نظم 1
ّ@@ 1
الا 1
کام@@ 1
ns 1
رہنما 1
تجارتی 1
model 1
اعلی 1
دہشت 1
کرو 1
5ء 1
پہنچے 1
تعریف 1
رکھ 1
کمیٹی 1
ڑے 1
2,@@ 1
کنارے 1
حالانکہ 1
کشی 1
مخالف 1
انٹرنیشنل 1
format 1
الب@@ 1
0@@ 1
بہار 1
contributor 1
timestamp 1
مغل 1
وابستہ 1
9ء 1
ص 1
سائ@@ 1
کوڈ 1
لز 1
فوجیوں 1
ہاتھوں 1
مند 1
جیت 1
مشکل 1
راستے 1
زمرہ 1
انڈ@@ 1
موضوع 1
‌ 1
کانگریس 1
مص@@ 1
لکھے 1
روشنی 1
شا@@ 1
تفسیر 1
کلب 1
ہجری 1
لوک 1
شا 1
حکمرانی 1
ملاقات 1
چر 1
راہ 1
سنی 1
وہی 1
مرا@@ 1
مسوری 1
نظریہ 1
مستقل 1
username 1
طلبہ 1
قی 1
ملے 1
بول@@ 1
بہن 1
سرحد 1
بنگال 1
br 1
نامزد 1
فیض 1
موسیٰ 1
رکھتی 1
راجا 1
شعبہ 1
بي@@ 1
گرا@@ 1
خوش 1
سابقہ 1
حیدرآباد 1
عطا 1
تبدیلی 1
نیٹ 1
عل@@ 1
ہار 1
تع@@ 1
دیتی 1
رضی 1
باغ 1
مالی 1
راست 1
نیچے 1
میچوں 1
نوازا 1
برابر 1
شہ@@ 1
ہوگئے 1
آن 1
40 0.7578006297347709
محدود 1
ئ 1
سکا 1
بحیرہ 1
جنہیں 1
اختتام 1
بارہ 1
دیر 1
پناہ 1
دنوں 1
12@@ 1
ایا 1
اعداد 1
اباد 1
سي@@ 1
خیبر 1
رائ@@ 1
وان 1
دینی 1
میڈیا 1
ورا 1
دہ@@ 1
واں 1
یافتہ 1
5@@ 1
مبارک 1
سان@@ 1
سنت 1
نسبت 1
ذات 1
انتظامی 1
سزا 1
منعقد 1
الف@@ 1
ني@@ 1
ہوکر 1
یمن 1
لي@@ 1
برگ 1
تعالیٰ 1
دوست 1
مزار 1
7ء 1
میاں 1
گیند 1
میرا 1
ساری 1
بلدیہ 1
کریم 1
4ء 1
ى 1
6ء 1
بور@@ 1
2018ء 1
mtDNA 1
امور 1
اؤ 1
ود 1
نزدیک 1
انوں 1
انگلستان 1
آئین 1
بالکل 1
بنت 1
جا@@ 1
خطے 1
ٹری 1
جھیل 1
فلسطین 1
معمولی 1
لہذا 1
سلیمان 1
مخالفت 1
8ء 1
آب 1
دفاع 1
اتے 1
آتی 1
2015 0.31867390941932455
مز 1
مندر 1
2013ء 1
كا 1
چلی 1
comment 1
لایا 1
بورڈ 1
دوں 1
بیرونی 1
وسط 1
لائے 1
2014 0.3108074090800296
فرق 1
کون 1
ارکان 1
تنقید 1
ملتان 1
دعوت 1
جامع 1
کمال 1
سکی 1
and 0.008755295298767488
راستہ 1
بازی 1
تصنیف 1
مدت 1
جہ@@ 1
حاضر 1
گا@@ 1
بیگم 1
زہ 1
وکٹ 1
شن@@ 1
ه 1
نٹ@@ 1
16@@ 1
3ء 1
آبشار 1
الزام 1
بازار 1
اداکاری 1
اتا 1
پتہ 1
اختلاف 1
دفتر 1
روک 1
اشاعت 1
1@@ 1
31 0.7501399996065407
اداروں 1
مجلس 1
کارکردگی 1
سعد 1
ثانی 1
حر@@ 1
كي@@ 1
حامل 1
اوقات 1
اصول 1
سام@@ 1
مثلاً 1
تہ 1
اص@@ 1
اورا@@ 1
تیسری 1
ئن 1
مقدس 1
جاپانی 1
سورج 1
ملتی 1
العلوم 1
بحری 1
شماری 1
وزارت 1
وف 1
سنگ 1
عبادت 1
قر@@ 1
تعاون 1
Gmina 1
پابندی 1
پن 1
تب 1
رز 1
ساز 1
لقب 1
شخصیات 1
اخ@@ 1
حضور 1
جنھوں 1
اندازہ 1
ذرائع 1
اکثریت 1
پہ 1
پیداوار 1
ہند@@ 1
ائن 1
مضمون 1
T@@ 0.1874583978303697
محسوس 1
formula 0.38790587514755265
کثیر 1
اعتبار 1
فروغ 1
لشکر 1
منسلک 1
چہ 1
ٰ@@ 1
ین@@ 1
تخ@@ 1
کوریا 1
قوت 1
بند@@ 1
خطاب 1
اقسام 1
لگ 1
مفتی 1
مول@@ 1
نام@@ 1
آمد 1
جیسی 1
تخلیق 1
سائٹ 1
بزرگ 1
گن@@ 1
فیصل 1
لیتے 1
میہ 1
ين 1
گل@@ 1
نیو@@ 1
حقیقی 1
لاس 1
چیف 1
شوہر 1
2008 0.2949065530392193
لال 1
نز@@ 1
كو@@ 1
کٹ@@ 1
نائب 1
مطالبہ 1
دل@@ 1
رہتی 1
زر 1
یک 1
parentid 1
داد 1
دشمن 1
کٹ 1
َ 1
جزائر 1
جنس 1
فکر 1
سکھ 1
اوائل 1
ریاستی 1
ونا 1
تذکرہ 1
زم 1
ملازمت 1
ووڈ 1
ہوگی 1
انگریزوں 1
درخواست 1
کے@@ 1
نيو 1
ﻣ@@ 1
تک@@ 1
ڈراما 1
لر 1
مردم 1
اری@@ 1
الن@@ 1
سال@@ 1
نشان 1
الحق 1
پہاڑی 1
وز@@ 1
مسلسل 1
تہذیب 1
رقم 1
رک 1
دفعہ 1
ایئر 1
اء 1
2012 0.2775689373921295
علاقائی 1
ریڈیو 1
ایمان 1
آذربائیجان 1
شہادت 1
منظور 1
آگ 1
محض 1
آرمی 1
نوا@@ 1
آثار 1
تشریف 1
والدین 1
اتر 1
رون 1
مقیم 1
بابا 1
وائ@@ 1
2010 0.2229386087618572
سلی@@ 1
15@@ 1
ساحل 1
ابھ@@ 1
ملا@@ 1
خان@@ 1
چار@@ 1
خوبصورت 1
غازی 1
مین@@ 1
کوں 1
الس@@ 1
باقاعدہ 1
تجویز 1
اٹ@@ 1
18@@ 1
معاشرے 1
پشاور 1
4,@@ 1
شان 1
یقین 1
سور@@ 1
کلا@@ 1
بغداد 1
بلا@@ 1
مُ@@ 1
عنوان 1
گار@@ 1
آسٹریا 1
خانے 1
لوٹ 1
چے 1
خط@@ 1
بورو 1
عدم 1
دست@@ 1
چا 1
ڈالر 1
سار@@ 1
عت 1
الو@@ 1
عثمانیہ 1
مسیحی 1
رپورٹ 1
اچھی 1
معاملات 1
گرو@@ 1
قدم 1
پے 1
کال@@ 1
ٹوں 1
جر 1
تیزی 1
لم 1
زخمی 1
x 0.550238913089281
اکیڈمی 1
رد 1
قبیلے 1
ڈویژن 1
2017 0.29980961832991315
انڈین 1
طریقے 1
رت 1
روحانی 1
پزیر 1
رہائش 1
ؤں 1
ماؤنٹ 1
پال 1
صحابہ 1
2016 0.27905771417224545
شناخت 1
تحفظ 1
ﻮ@@ 1
جارج 1
سامان 1
شو 1
يا 1
چاہتے 1
ایئرپورٹ 1
لف@@ 1
گان 1
بس 1
٪ 1
زا 1
صنعت 1
سونے 1
میونسپل 1
کھانے 1
بالا 1
بت 1
شہرستان 1
غور 1
شاید 1
جلال 1
شمولیت 1
پڑ@@ 1
ہائے 1
تب@@ 1
3,@@ 1
اکی@@ 1
زن 1
فروخت 1
پتھر 1
بخاری 1
چر@@ 1
خالد 1
نکل 1
آئیں 1
دائیں 1
صبح 1
نسلی 1
عمرو 1
واپسی 1
60 0.8338823018717348
بدر 1
سٹن 1
پالیسی 1
صلاحیت 1
صی@@ 1
پھی@@ 1
ورک 1
ہمیں 1
دربار 1
گجرات 1
دیکھنے 1
سالہ 1
تِ 1
190@@ 1
اطلاع 1
تاج 1
مے 1
ٰ 1
2011 0.2394495660290585
غالب 1
نشانہ 1
ہٹ 1
حرکت 1
ہری 1
انس@@ 1
ہزاروں 1
فائدہ 1
دارالحکومت 1
بنو 1
وش@@ 1
ائر 1
رخ 1
سہ@@ 1
براہ 1
ـ 1
مخ@@ 1
بولی 1
ٹورنامنٹ 1
ڈیبیو 1
اف 1
2008ء 1
شاخ 1
لائی 1
قیمت 1
نوجوان 1
جگ@@ 1
بالآخر 1
دھا 1
زے 1
مانی 1
اتفاق 1
اہ 1
باب@@ 1
بھی@@ 1
روح 1
سازی 1
فارس 1
موجودگی 1
اسکور 1
خصوصیات 1
سوی@@ 1
جانی 1
حروف 1
سفید 1
رک@@ 1
۱@@ 1
آہستہ 1
خوا@@ 1
بدل 1
یار 1
الرحمن 1
اڑ@@ 1
داخلہ 1
یکم 1
ریل 1
فا@@ 1
ٹاؤنشپ 1
آؤٹ 1
بوں 1
تصانیف 1
جعفر 1
تل@@ 1
ساتھی 1
ارے 1
ﯿ@@ 1
غلط 1
پختونخوا 1
بحر 1
حفاظت 1
ریوں 1
لانے 1
بچپن 1
ست 1
ملکہ 1
سوال 1
فلپائن 1
مردوں 1
کش 1
ڈائریکٹر 1
ہل 1
یاد@@ 1
فائز 1
جیل 1
ہوگئی 1
بحث 1
مغ@@ 1
افغان 1
کین 1
ہوگیا 1
قدرتی 1
مقدار 1
مائ@@ 1
سرزمین 1
وفاقی 1
انڈیز 1
متعارف 1
نیویارک 1
لن 1
ممبئی 1
فر 1
نوبل 1
تار@@ 1
دستخط 1
کوہ 1
حج 1
1.@@ 1
رفتار 1
مجھ 1
میکسیکو 1
اون@@ 1
جدوجہد 1
اپ 1
ڈکوٹا 1
کھا 1
مسیسپی 1
سمجھتے 1
ریا 1
سلیم 1
آئرلینڈ 1
وہیں 1
ریڈ 1
شوں 1
مسلح 1
پاشا 1
اسماعیل 1
اثرات 1
یہودیوں 1
بلوچ 1
خواہش 1
شعر 1
یون@@ 1
بکر 1
دراصل 1
ماؤنٹین 1
تق@@ 1
چرچ 1
کہہ 1
de 0.004692248143548809
علاج 1
فورڈ 1
ُ 1
کپتان 1
مَ@@ 1
ادہ 1
وڈ 1
ٰی 1
لیس 1
ادی@@ 1
سربراہی 1
قوانین 1
دورے 1
تیسرے 1
رسم 1
تیس 1
حملوں 1
20@@ 1
خاتمہ 1
طر@@ 1
17@@ 1
مسئلہ 1
ثبوت 1
الت@@ 1
فائ@@ 1
بہادر 1
ْ@@ 1
ٹیوٹ 1
کمیشن 1
البتہ 1
نان@@ 1
اتنا 1
لگ@@ 1
منصوبے 1
ڈال 1
برصغیر 1
عی 1
رج@@ 1
ندر 1
شمس 1
سٹر 1
2020 0.2935181520642226
رانی 1
نر@@ 1
طی@@ 1
متعلقہ 1
کینٹکی 1
بلی@@ 1
جانوروں 1
کور 1
کولمبیا 1
کربلا 1
تصویر 1
خاتمے 1
قبرص 1
احادیث 1
تم@@ 1
بو 1
ترا@@ 1
لَ@@ 1
انت@@ 1
قاسم 1
اسرائیلی 1
کنگ 1
الجزائر 1
عہ 1
فورس 1
آپریشن 1
صوفی 1
ماہرین 1
کوفہ 1
سندھی 1
2009 0.23913649014095228
دری@@ 1
دور@@ 1
تکمیل 1
وک 1
کرلی 1
پوچھا 1
پیرس 1
نگرانی 1
عم@@ 1
80 0.9030409346110627
کرایا 1
فری 1
کارروائی 1
189@@ 1
انگریز 1
فہ 1
حصول 1
مارشل 1
2007 0.2524104751152318
کرام 1
طلب 1
نیپال 1
عورتوں 1
اوی@@ 1
تش@@ 1
خوف 1
پن@@ 1
اَ@@ 1
لکھ@@ 1
مط@@ 1
دلچسپی 1
اؤں 1
راہ@@ 1
کمپیوٹر 1
2019ء 1
تص@@ 1
کین@@ 1
ہتھیار 1
عمران 1
سالانہ 1
شار@@ 1
منہ 1
زر@@ 1
فاطمہ 1
عرض 1
قطب 1
کانفرنس 1
خو@@ 1
تیاری 1
دری 1
رومی 1
صفحات 1
گلی@@ 1
باری 1
تیل 1
ضد 1
اسک@@ 1
خد@@ 1
سنگ@@ 1
دفن 1
ٹل 1
گرم 1
200 0.7451774161984525
نواز 1
پي@@ 1
اسلامیہ 1
ایل@@ 1
شے 1
ڑوں 1
خوب 1
سلا@@ 1
نق@@ 1
ائي 1
دعا 1
اتنی 1
اشارہ 1
پیک 1
0.@@ 1
انسٹی 1
ماضی 1
پرست 1
مواد 1
امی 1
اٹلی 1
دم 1
زئی 1
قل@@ 1
معیشت 1
آرکنساس 1
ولا@@ 1
سرخ 1
مولوی 1
فاصلے 1
دادا 1
5,@@ 1
ﺮ@@ 1
eh 1
عنہ 1
دیوی 1
بیماری 1
کاروبار 1
خارجہ 1
درست 1
سوانح 1
قط@@ 1
گردی 1
منظم 1
الش@@ 1
دیو 1
سینٹر 1
وت 1
ٹیکنالوجی 1
70 0.9412934697668086
بچ@@ 1
عزیز 1
سائنسی 1
مرتب 1
ستہ 1
بائیں 1
کوئ@@ 1
سوں 1
عائد 1
ماحول 1
نک 1
h 0.3396925021186091
نیبراسکا 1
آب@@ 1
آپ@@ 1
فرار 1
اجلاس 1
راج@@ 1
شک@@ 1
چاہتا 1
یزید 1
رب 1
نظریات 1
رکھے 1
خاں 1
La 0.06920415712395661
صاف 1
پرستی 1
35 0.9236797426488623
منی 1
لکھنے 1
چلتا 1
مہاراشٹر 1
2.@@ 1
تصدیق 1
دستیاب 1
ران 1
عروج 1
قریبی 1
سوار 1
ﯽ 1
نہ@@ 1
گیت 1
لکھنؤ 1
بیل 1
سرمایہ 1
abad 1
غزل 1
قبضے 1
ود@@ 1
24@@ 1
ہنگری 1
188@@ 1
اسٹیٹ 1
انتظامیہ 1
حاجی 1
تفصیل 1
کوس@@ 1
جزیرے 1
کٹر 1
معاویہ 1
بلا 1
لار@@ 1
وٹ 1
ہمراہ 1
لس 1
مارے 1
انوے 1
اول@@ 1
خفیہ 1
فارم 1
ووٹ 1
آس 1
ابہام 1
رار 1
یوم 1
انہی 1
عب@@ 1
کورٹ 1
لگی 1
عہدہ 1
حرارت 1
بجلی 1
ورا@@ 1
ڈبلیو 1
ساؤتھ 1
معاشرتی 1
آلہ 1
جہ 1
نقطہ 1
اساتذہ 1
ٹنگ 1
شہریوں 1
یونان 1
ﺑ@@ 1
اما 1
ایسوسی 1
باشندوں 1
مارٹن 1
اك@@ 1
سپر 1
منسوب 1
توانائی 1
پلا@@ 1
مسعود 1
احتجاج 1
ایسٹ 1
لڑکی 1
23@@ 1
روپے 1
انصاف 1
متحرک 1
کرم 1
انیس 1
تری@@ 1
سلام 1
لیہ 1
نامور 1
ایشن 1
سربیا 1
2015ء 1
برادری 1
الص@@ 1
فلوریڈا 1
وضاحت 1
2006 0.23585837326115394
نگاری 1
پڑے 1
احساس 1
لي 1
جیتا 1
کم@@ 1
موضوعات 1
2021 0.331855570364751
امداد 1
لباس 1
ٹھ 1
بیچ 1
کھانا 1
گاندھی 1
ریس 1
انتخابی 1
غ 1
کہلاتا 1
2016ء 1
روشن 1
بح@@ 1
طالبان 1
دروازہ 1
پلی@@ 1
سند 1
گانے 1
سنچری 1
نتائج 1
شیا 1
ہل@@ 1
بیک 1
ٹرو@@ 1
سک 1
چاند 1
وقوع 1
کائنات 1
ٹک 1
پارلیمنٹ 1
وین 1
بون@@ 1
ملنے 1
اہتمام 1
يو@@ 1
ایشیائی 1
دگی 1
کاروں 1
کھیلی 1
سلوک 1
500 0.7920373341707794
آنحضرتﷺ 1
مصروف 1
19@@ 1
گرو 1
فرد 1
مظاہرہ 1
نف@@ 1
پان@@ 1
گول@@ 1
2014ء 1
حمل 1
سلو@@ 1
مستقبل 1
خطرہ 1
an 0.02388652070726358
ریت 1
تس@@ 1
قلعے 1
کھیلنے 1
تھائی 1
فرائض 1
قص@@ 1
وائٹ 1
سروس 1
تدریس 1
حیدر 1
روکنے 1
قائد 1
ریلویز 1
کروڑ 1
کھلاڑیوں 1
27@@ 1
ائیر 1
جرسی 1
امت 1
ث 1
زبردست 1
صحافی 1
خیر 1
مپ@@ 1
ہسپتال 1
سڑک 1
معیار 1
ٹرز 1
پھیل 1
گھروں 1
زون 1
کمزور 1
ریلیز 1
محافظہ 1
باد 1
​ 1
آنحضرت 1
برج 1
جنم 1
مف@@ 1
ملتے 1
مٹی 1
دکھائی 1
توسیع 1
ہال 1
ادیب 1
کھیلوں 1
فرو@@ 1
گفتگو 1
گنج 1
مہدی 1
اسد 1
قول 1
درد 1
دباؤ 1
ماد@@ 1
کلو 1
چڑھ@@ 1
کھو@@ 1
امر 1
2000 0.25315487387078284
بک 1
طب 1
قبرستان 1
ﯾ@@ 1
کوم@@ 1
ئیر 1
بھیج 1
تہ@@ 1
ستی 1
راولپنڈی 1
سیاہ 1
سکیں 1
ویلز 1
کمیونسٹ 1
خلیج 1
45 0.8224767336108932
خر@@ 1
جیکسن 1
ایوان 1
بالی 1
Z 1
ناتھ 1
نکال 1
گرام 1
لن@@ 1
وان@@ 1
خواب 1
بان 1
طبی 1
ہن@@ 1
اشعار 1
تجربہ 1
آبائی 1
زید 1
کمانڈر 1
28@@ 1
دع@@ 1
شوق 1
نگی 1
ڈالا 1
آز@@ 1
کھڑے 1
تھیٹر 1
پک@@ 1
کروں 1
6,@@ 1
اؤ@@ 1
درجے 1
جناب 1
حکمت 1
مناسب 1
یس 1
2017ء 1
ابی@@ 1
ڈر@@ 1
شعبے 1
غریب 1
وز 1
تاب@@ 1
نیم 1
زبانیں 1
بع@@ 1
عقائد 1
رشتہ 1
لینا 1
چن 1
ناموں 1
29@@ 1
خاطر 1
اندرونی 1
ماڈل 1
وہ@@ 1
یے 1
رجوع 1
صادق 1
مور 1
دي@@ 1
گون@@ 1
برٹش 1
بھاری 1
درخت 1
عامر 1
الْ@@ 1
ﮐ@@ 1
ير 1
پہلو 1
عین 1
فون 1
کرلیا 1
خراسان 1
نافذ 1
پول@@ 1
خیل 1
چلنے 1
گرین 1
جمال 1
الے 1
تف@@ 1
ظلم 1
شہ 1
حزب 1
نائ@@ 1
دیکھتے 1
فرا@@ 1
مہارت 1
گورنمنٹ 1
آسان 1
صح@@ 1
عموماً 1
الغ@@ 1
ٹائ@@ 1
داروں 1
جموں 1
پہ@@ 1
پندرہ 1
ہماری 1
رَ@@ 1
کوششوں 1
الخ@@ 1
پہنچ@@ 1
ڈیم 1
برعکس 1
اختر 1
الاباما 1
زوال 1
سرگرمیوں 1
انج@@ 1
دروازے 1
اغ@@ 1
جون@@ 1
عباسی 1
یادگار 1
أَ@@ 1
حکام 1
شمالي 1
في@@ 1
ؔ 1
جام@@ 1
ڈنگ 1
گھریلو 1
الز@@ 1
فت 1
2011ء 1
پال@@ 1
آیات 1
سیر 1
ہاؤس 1
a 0.00589323148579786
اسم 1
سری@@ 1
مارا 1
ٹوئنٹی 1
چچا 1
باس@@ 1
بولنے 1
پہنچنے 1
شریعت 1
شہزادہ 1
قب@@ 1
پٹ@@ 1
کابل 1
انجمن 1
حدود 1
زوں 1
s 0.0660723163787549
صدیوں 1
غی@@ 1
لیوں 1
ویل@@ 1
4.@@ 1
کرنسی 1
پائ@@ 1
فلمیں 1
پا@@ 1
3.@@ 1
آسانی 1
اصلاح 1
جین 1
ڈین 1
دعویٰ 1
اردن 1
کہنے 1
مزاحمت 1
بِ@@ 1
تج@@ 1
پڑی 1
ڈری@@ 1
ﺎ 1
انقلابی 1
تمہارے 1
حبیب 1
حکیم 1
امین 1
علی@@ 1
الله 1
فلسفہ 1
ڑہ 1
سکول 1
مراکش 1
ٹنے 1
جائزہ 1
صحابی 1
پرانے 1
اقدامات 1
يل 1
ڈیل 1
مصری 1
جانور 1
سیرت 1
زي@@ 1
+ 0.5198522049866232
اسحاق 1
بلغاریہ 1
تینوں 1
90 0.7896452048138504
بت@@ 1
جہاد 1
تمل 1
صوبوں 1
دہی 1
اوا 1
بشمول 1
نادر 1
ارشاد 1
مجید 1
چل@@ 1
ایک@@ 1
ریاضی 1
معاون 1
کاموں 1
کوچ 1
شر 1
وری@@ 1
بیگ 1
زار 1
مہینے 1
میک 1
چھی@@ 1
نشر 1
آن@@ 1
راؤ 1
ناک 1
300 0.9044461443258047
اعتماد 1
حاکم 1
میر@@ 1
ناصر 1
تَ@@ 1
مس 1
سوسائٹی 1
شت 1
کیوبک 1
کولوراڈو 1
wiki 1
استنبول 1
حی 1
غز@@ 1
وب 1
سنسکرت 1
خی 1
علا@@ 1
فار 1
فرمائی 1
لات 1
يہ 1
لينڈ 1
یر@@ 1
امید 1
انڈونیشیا 1
جسمانی 1
text 1
تحقیقی 1
6.@@ 1
گیارہ 1
رسائی 1
عشق 1
افسر 1
فائنل 1
فرزند 1
شک 1
فیصلے 1
187@@ 1
ونیا 1
سکندر 1
مو 1
نیوز 1
سين 1
آسٹریلوی 1
افریقی 1
وکٹوریہ 1
راس 1
سُ@@ 1
قبر 1
تیسرا 1
خیالات 1
ندہ 1
اصلاحات 1
حکمرانوں 1
محنت 1
مشن 1
مقاصد 1
شاندار 1
عائشہ 1
1,0@@ 1
رق@@ 1
رہنماؤں 1
قلم 1
چھو@@ 1
5.@@ 1
Rural 1
اسکواڈ 1
مری@@ 1
شاگرد 1
وبی 1
پیغام 1
اکرم 1
تور@@ 1
سمجھ 1
ولیم 1
پڑھنے 1
کمار 1
2005 0.23432441971684276
رومانیہ 1
غرض 1
نوٹ 1
بمطابق 1
عَ@@ 1
ومی 1
کامل 1
مسل@@ 1
ممکنہ 1
اط@@ 1
حساب 1
اوریگون 1
رواج 1
بلی 1
دعوی 1
یک@@ 1
ارادہ 1
فور@@ 1
ہا@@ 1
32 0.8071491260839058
ائیوں 1
انڈيانا 1
امیدوار 1
عزت 1
فرقہ 1
كر@@ 1
نے@@ 1
30@@ 1
شائر 1
محلہ 1
مہر 1
یور@@ 1
جانشین 1
تعارف 1
پانے 1
کُ@@ 1
ہیمپشائر 1
2009ء 1
ٹینیسی 1
معاملہ 1
توڑ 1
7,@@ 1
فق@@ 1
نت 1
اصحاب 1
بڑھ@@ 1
جناح 1
درا@@ 1
مات 1
مد 1
امتحان 1
مری 1
انیہ 1
اِن 1
باضابطہ 1
شور 1
33 1
نازل 1
26@@ 1
حوصلہ 1
محدث 1
2004 0.24277931453287957
وزن 1
زیارت 1
تری 1
علماء 1
زب@@ 1
سول 1
گروہوں 1
آندھرا 1
فوری 1
L@@ 0.10507805377365502
نڈر 1
2012ء 1
revision 1
186@@ 1
اعتراف 1
جار@@ 1
لکھ 1
wikitext 1
ارب 1
داس 1
معاملے 1
نارتھ 1
گلو@@ 1
ؑ 1
بم 1
مون 1
شین 1
لڑ@@ 1
یہود 1
داؤد 1
سکور 1
صدیق 1
1990 0.32857576446514825
اطالوی 1
تبلیغ 1
مقدمہ 1
عمر@@ 1
مند@@ 1
ناقابل 1
پہاڑوں 1
تقریب 1
جوش 1
صف@@ 1
9.@@ 1
خطوط 1
شدت 1
عمان 1
گوئی 1
دیہ 1
ڈرامے 1
اوہائيو 1
قادری 1
ض 1
امہ 1
دیوار 1
پیپلز 1
اني 1
رقص 1
اچھا 1
دُ@@ 1
پرورش 1
ونی@@ 1
ﺭ@@ 1
عراقی 1
2020ء 1
قریش 1
مینار 1
پاس@@ 1
بلدیات 1
پیری 1
2007ء 1
انِ 1
زراعت 1
34 1
تصوف 1
شرف 1
اث@@ 1
ye 0.73052678965708
روا@@ 1
بھگ 1
پڑتا 1
نم@@ 1
2010ء 1
36 0.9835053263832033
لون@@ 1
کارکن 1
بوس@@ 1
ساز@@ 1
ٹي 1
پانچویں 1
‎ 1
عبرانی 1
خاندانی 1
صنعتی 1
مساوات 1
ورڈ 1
فا 1
منافع 1
بنگالی 1
جرم 1
پشتو 1
ماس@@ 1
مداخلت 1
مشورہ 1
منصور 1
ہوگئیں 1
ﮧ 1
رف@@ 1
معین 1
جوا@@ 1
سوا 1
75 1
لیتا 1
عبور 1
لگتا 1
انصاری 1
مکان 1
ڈیزائن 1
گھنٹے 1
سون 1
نان 1
25@@ 1
مذاہب 1
آئی@@ 1
جنت 1
روی 1
لہ@@ 1
بوسنیا 1
township 1
جد 1
سي 1
پار 1
پریس 1
کیفیت 1
اچھے 1
غزوہ 1
نبوی 1
امیہ 1
محمد@@ 1
چارلس 1
گری 1
ہارون 1
سل 1
انور 1
ملکیت 1
نکاح 1
بڑھا 1
تہران 1
حہ 1
دان@@ 1
نیک 1
نگٹن 1
امارات 1
حامی 1
گار 1
ائل 1
وصول 1
ممبر 1
نل 1
ير@@ 1
بچ 1
روزنامہ 1
عش@@ 1
پون@@ 1
کھ 1
ہرا 1
دائرہ 1
سط@@ 1
مونٹانا 1
گنی 1
وسائل 1
اٹھایا 1
* 0.27234255757801296
شمار@@ 1
اسٹیڈیم 1
ریاستیں 1
مرحوم 1
سلم 1
کاس@@ 1
سرا@@ 1
ظفر 1
فرما 1
کھو 1
گھرانے 1
اقتصادی 1
انو@@ 1
کاروباری 1
رنگ@@ 1
1947ء 1
الينوائے 1
سم 1
آکر 1
بلو@@ 1
لبنان 1
جنگل 1
ساتھیوں 1
چندر 1
ڈائ@@ 1
گوشت 1
ہائ@@ 1
ﺳ@@ 1
خواہ 1
سیوں 1
مرض 1
7.@@ 1
سادہ 1
شراکت 1
ناگ@@ 1
دیہی 1
ماسٹر 1
لت 1
پرچم 1
عمومی 1
مرو@@ 1
نوعیت 1
چالیس 1
آور 1
تح@@ 1
رومن 1
پرانی 1
2006ء 1
اتحادی 1
سسٹم 1
مقبرہ 1
ٹھی 1
9,@@ 1
اخلاق 1
اق 1
لائنز 1
ﮯ 1
الحسن 1
پہچان 1
خراب 1
سبھا 1
ماسکو 1
وفد 1
یقینی 1
سین@@ 1
ہیڈ 1
ﻨ@@ 1
اذ@@ 1
خالی 1
مقبولیت 1
الد@@ 1
الف 1
الہ@@ 1
بحریہ 1
سمجھ@@ 1
فَ@@ 1
قو@@ 1
ہوا@@ 1
نشین 1
دمشق 1
سنا 1
ﻭ@@ 1
55 1
بھائیوں 1
فضائی 1
امتیاز 1
برازیل 1
برقی 1
رحمہ 1
نین 1
پریفیکچر 1
چاندی 1
کنیت 1
کیسے 1
The 0.012273531919990957
آرٹ 1
اعزازات 1
ہول@@ 1
شعرا 1
طبیعیات 1
پڑ 1
قابو 1
بد 1
چینل 1
کاپ@@ 1
تباہی 1
دکھایا 1
چوتھی 1
کثرت 1
گیس 1
ائمہ 1
اڈ@@ 1
بڑھتی 1
بائی 1
آدم 1
ترمیم 1
سٹھ 1
عر@@ 1
ماتحت 1
میڈیکل 1
کئے 1
آغا 1
جم@@ 1
محاصرہ 1
نیل 1
وآلہ 1
یحییٰ 1
پیغمبر 1
رائج 1
یار@@ 1
انسانوں 1
الر@@ 1
بلیک 1
دکن 1
کشن 1
آپس 1
ازبکستان 1
جیمز 1
ضرور 1
جمہوری 1
رض@@ 1
بَ@@ 1
بچہ 1
پیٹ 1
رمضان 1
مانا 1
پڑھا 1
38 0.9803940491835385
آمدنی 1
خوشی 1
کریک 1
بستی 1
ورو 1
تنگ 1
ں@@ 1
ارد 1
دست 1
پچاس 1
گناہ 1
گنا 1
K@@ 0.11261988897520948
منڈی 1
ہوجاتا 1
دون@@ 1
لِ@@ 1
دیو@@ 1
سفیر 1
وعدہ 1
یہیں 1
احترام 1
عناصر 1
کھی@@ 1
علمائے 1
عقیدہ 1
نبوت 1
8.@@ 1
برف 1
نمائش 1
وائی 1
ارت 1
تي 1
سیف 1
42 1
زرعی 1
چوں 1
گول 1
افریقا 1
برا 1
فارغ 1
فوجوں 1
مواقع 1
ّ 1
2003 0.25173257795863657
8,@@ 1
شری@@ 1
بازو 1
جہلم 1
مسترد 1
ٹیکس 1
2004ء 1
وجوہات 1
جنوبي 1
خطہ 1
رسالہ 1
الاسلام 1
جوہر 1
مستحکم 1
کاش@@ 1
ئل 1
بھٹو 1
ﻧ@@ 1
انٹرنیٹ 1
روابط 1
اون 1
سپرد 1
ئم 1
ویلی 1
37 1
ﺗ@@ 1
انانکارپوریٹڈ 1
دودھ 1
سافٹ 1
ٹور@@ 1
دہلوی 1
گز@@ 1
سمت 1
ابو@@ 1
دِ@@ 1
ائیاں 1
ارک 1
مجمع 1
اوکلاہوما 1
تقریر 1
لڈ 1
رکھنا 1
قت 1
لنگ 1
شب 1
منفرد 1
کھڑا 1
بندرگاہ 1
تنظیموں 1
سنی@@ 1
سکھوں 1
ویڈیو 1
بھاگ 1
تنازع 1
صد@@ 1
جنگوں 1
رحمت 1
منزل 1
پارلیمان 1
آسمان 1
اشیاء 1
بش@@ 1
سمی@@ 1
سوم 1
سے@@ 1
ابوال@@ 1
بحال 1
دوسروں 1
خصوصیت 1
دیکھیے 1
سبز 1
اٹھا 1
تحقیقات 1
پت 1
گائے 1
حکومتی 1
کلاسیکی 1
اسپین 1
ڈیرہ 1
کنگ@@ 1
بادشاہت 1
رسوخ 1
فوراً 1
معیاری 1
انیوں 1
بارش 1
دیوان 1
رُ@@ 1
طاقتور 1
65 0.709334952786096
اند@@ 1
سرگرم 1
ایوب 1
باہمی 1
ایڈیشن 1
بیرون 1
رابطہ 1
جانتے 1
فاتح 1
پوسٹ 1
ہور@@ 1
برہ@@ 1
زین 1
ﺟ@@ 1
بحالی 1
خلی@@ 1
زو@@ 1
یروشلم 1
ورہ 1
کہتا 1
d 0.07972246104507821
متن 1
غم 1
مِ@@ 1
داد@@ 1
عالیہ 1
پڑھ 1
ادائیگی 1
لل@@ 1
فل 1
مساجد 1
وسی 1
ویوں 1
ﻠ@@ 1
ران@@ 1
ﺩ@@ 1
ملکوں 1
400 0.7622664418648439
بصرہ 1
بنانا 1
دیوبند 1
سماج 1
فض@@ 1
مورخین 1
تعلیمات 1
یوکرین 1
1990ء 1
افسانہ 1
بھو@@ 1
کرا 1
محبوب 1
سما@@ 1
ملی@@ 1
نسی 1
ہسپانیہ 1
الط@@ 1
2002 0.23440869112207585
انو 1
قد@@ 1
پہنچی 1
کابینہ 1
تصاویر 1
حرف 1
فعال 1
یری 1
سور 1
نت@@ 1
وصال 1
بط@@ 1
فعل 1
لکڑی 1
S@@ 0.07438448922623499
اولین 1
راضی 1
سکی@@ 1
روز@@ 1
لائبریری 1
2005ء 1
47 1
لڑکے 1
چودہ 1
ﺮ 1
39 1
A@@ 0.10232169813097107
شامی 1
شنل 1
عصر 1
لڑکیوں 1
وول@@ 1
پاكستان 1
جغرافیائی 1
لڑنے 1
ٹیوں 1
44 0.9158679503352201
48 1
اخذ 1
جاوید 1
داستان 1
ري 1
منی@@ 1
ٹھا 1
1980 0.3497875559316061
انٹر@@ 1
مرکوز 1
دي 1
پھول 1
الک@@ 1
فراہمی 1
مینی@@ 1
وبا 1
تون@@ 1
حیرت 1
چکوال 1
کری 1
الملک 1
جم 1
محاذ 1
کیر@@ 1
یاتی 1
اشرف 1
صدارتی 1
قرض 1
متبادل 1
پل@@ 1
52 1
مات@@ 1
نشست 1
چیئرمین 1
عن@@ 1
َّ@@ 1
انس 1
پڑھ@@ 1
گاڑی 1
بیٹنگ 1
مرک@@ 1
منگ 1
کاؤنٹیاں 1
سع@@ 1
سفیان 1
چیت 1
صدیقی 1
طلاق 1
ویک 1
پچ@@ 1
سك@@ 1
جذبات 1
سنیما 1
عارضی 1
رضوی 1
سیٹ 1
41 1
بحرین 1
مانہ 1
مشرف 1
پسندوں 1
گوا@@ 1
زیریں 1
قطر 1
ڑھ@@ 1
اش 1
ربیع 1
قبائلی 1
ھا 1
185@@ 1
راجہ 1
سز@@ 1
سعود 1
سند@@ 1
منایا 1
باتیں 1
عربوں 1
مہیا 1
کالم 1
ایکٹ 1
تنازعات 1
منصب 1
منفی 1
شراب 1
فخر 1
في 0.12437230312651593
ہرات 1
خشک 1
سپی@@ 1
موسی 1
43 1
اہے 1
جمعہ 1
طریقوں 1
ٹوٹ 1
١@@ 1
کمیون@@ 1
حالیہ 1
ہوجاتی 1
اٹک 1
جوہری 1
فرض 1
ﭘ@@ 1
M@@ 0.09934663115420915
ملائیشیا 1
پورہ 1
این@@ 1
لگانے 1
وند 1
85 1
رش@@ 1
عمدہ 1
ٹون@@ 1
58 1
ڈچ 1
کپور 1
وش 1
پیار 1
ہیرو 1
آتش 1
اتحادیوں 1
بوس 1
پبلک 1
محروم 1
کروایا 1
گیم 1
اڈے 1
رح@@ 1
واس 1
وي 1
ﻤ@@ 1
مہاجرین 1
نکلا 1
ویتنام 1
ہے@@ 1
اخبارات 1
اسلحہ 1
خاک 1
خوراک 1
عقیدت 1
راوی 1
مشي 1
پھانسی 1
حسب 1
ولہ 1
پردہ 1
بائبل 1
المعروف 1
دانوں 1
46 1
بنا@@ 1
سرور 1
فت@@ 1
لک 1
کلو@@ 1
گس 1
آرٹس 1
بہاؤ 1
تہوار 1
راء 1
فوت 1
بمبئی 1
جنازہ 1
مائی 1
بیر 1
واٹر 1
چک@@ 1
2021ء 1
واقعے 1
جایا 1
سمندری 1
ویر 1
العزیز 1
بُ@@ 1
خارج 1
عبید 1
وائرس 1
گیری 1
تیرہ 1
چاروں 1
کلی 1
ناٹ 1
ٹاونشپ 1
آئینی 1
بھرپور 1
علیحدگی 1
ڈالی 1
ہہ 1
ا- 1
اسلا@@ 1
برداشت 1
برسوں 1
بٹ 1
ساتویں 1
ظاہری 1
ہیلی 1
اُسے 1
جماعتوں 1
شمسی 1
فرم@@ 1
فنون 1
قیس 1
سورت 1
عسکری 1
لازمی 1
وک@@ 1
پوزیشن 1
ar 0.08325495482946309
دفاعی 1
مانے 1
نائی 1
وید 1
گلی 1
حرام 1
رحمۃ 1
34@@ 1
سہولت 1
تعینات 1
نعت 1
ذی@@ 1
سیل 1
شاہراہ 1
صالح 1
آلات 1
اختیارات 1
امان 1
مارکیٹ 1
میوزک 1
کمان 1
منورہ 1
یل@@ 1
بحران 1
دھ 1
ڈالنے 1
احکام 1
سرے 1
گلوکار 1
نم 1
آنکھوں 1
ریجنل 1
گزر 1
جگہوں 1
مث@@ 1
منظوری 1
يں 1
گویا 1
ترا 1
شاہد 1
عبدالرحمن 1
عیسائی 1
وقف 1
چاہ@@ 1
سوچ 1
ابشار 1
بادشاہوں 1
دکھ@@ 1
ناروے 1
کیمپ 1
کیو 1
57 1
ایجاد 1
گرامی 1
ماخذ 1
نمونہ 1
پنسلوانيا 1
1945 0.3357554011161193
اوی 1
حارث 1
حضرات 1
سولہ 1
کالونی 1
54 1
صوبهٔ 1
میڈی@@ 1
2001 0.21465270878860246
محقق 1
دلیل 1
پھیلا 1
اض@@ 1
طبقے 1
القرآن 1
قم 1
مقابلوں 1
دراز 1
چیک 1
184@@ 1
33@@ 1
اخلاقی 1
لف 1
پولی@@ 1
کنی@@ 1
ایوارڈز 1
کات@@ 1
ایڈیٹر 1
باشندے 1
بگ@@ 1
خانقاہ 1
P@@ 0.07975611321090849
on 0.012475313229087993
شل 1
میوزیم 1
ٹین 1
آصف 1
ئي 1
چند@@ 1
یعقوب 1
53 1
محرم 1
ظہور 1
عجائب 1
مونٹ 1
جرائم 1
جہازوں 1
کیلئے 1
بجے 1
بس@@ 1
نسخہ 1
گاوں 1
نژاد 1
عمری 1
کپڑے 1
گانا 1
مایا 1
مفہوم 1
وارڈ 1
95 1
روپ 1
سادات 1
پیش@@ 1
ہفتہ 1
خرچ 1
مصنفین 1
چیزوں 1
جنگ@@ 1
صلح 1
چاہے 1
56 1
مي 1
مڈ@@ 1
ھی 1
2000ء 1
الان@@ 1
جوان 1
درہ 1
شور@@ 1
مک 1
گھوڑے 1
ref 1
باد@@ 1
عبدالعزیز 1
عصمت 1
فن@@ 1
مبتلا 1
مثبت 1
پیروی 1
49 1
آفس 1
صحافت 1
الت 1
جیتنے 1
رجحان 1
مادہ 1
2002ء 1
to 0.005188172064648097
تنازعہ 1
حج@@ 1
خت@@ 1
عات 1
مراکز 1
مڈل 1
جي@@ 1
فیروز 1
مریم 1
ولید 1
آی@@ 1
ڈیا 1
ریز 1
شرائط 1
فطرت 1
ءمیں 1
عمرؓ 1
Ch@@ 0.1552596381646049
آرمینیائی 1
ورانہ 1
بول 1
سارا 1
61 1
B@@ 0.07787914410479578
مرے 1
انعقاد 1
راک 1
فے 1
لڑی 1
وما 1
1980ء 1
تجزیہ 1
ریاض 1
فرمان 1
مشکلات 1
مظفر 1
ٹرافی 1
گراؤنڈ 1
Q@@ 0.4667022464366445
تالیف 1
تیوں 1
جد@@ 1
سپریم 1
محیط 1
وین@@ 1
کاشت 1
طاقتوں 1
میساچوسٹس 1
گریجویشن 1
ھو 1
انگلش 1
سویڈن 1
فال@@ 1
يم 1
ابوبکر 1
دلی 1
مذکورہ 1
کوئٹہ 1
72 1
مشیر 1
کیپ 1
y 0.011562883306342597
فلسطینی 1
تازہ 1
خاندانوں 1
فیڈریشن 1
قاری 1
اء@@ 1
سنچریاں 1
شری 1
نامے 1
ٹي@@ 1
کرناٹک 1
کرنل 1
۲@@ 1
راز 1
فاؤنڈیشن 1
نجات 1
امکان 1
وح@@ 1
ْ 1
کیتھولک 1
ہوم 1
دِ 1
میت 1
پروڈیوسر 1
بون 1
رکھ@@ 1
چان@@ 1
انڈر 1
لسٹ 1
چون@@ 1
عط@@ 1
G@@ 0.07850490329728861
انیسویں 1
تن 1
ناد@@ 1
... 0.2970931610306932
پسندی 1
کرداروں 1
ایجنسی 1
کلکتہ 1
استفادہ 1
ترجیح 1
سینئر 1
قصبے 1
مشاہدہ 1
مينيسوٹا 1
وانی 1
51 1
کویت 1
اتھ 1
اطراف 1
تیمور 1
جہانگیر 1
راجپوت 1
شعبوں 1
2001ء 1
جوں 1
عوض 1
عید 1
ہان 1
افسران 1
انگیز 1
رہنمائی 1
صلاحیتوں 1
اقدام 1
رل 1
عز@@ 1
مخدوم 1
چھوڑ@@ 1
ید 1
64 0.7234136698831836
D@@ 0.07870382227082182
ربی 1
شعری 1
H@@ 0.09172600953517682
جہان 1
صفحہ 1
وقار 1
زن@@ 1
علاحدہ 1
فیئر 1
قرا@@ 1
پتی 1
تبادلہ 1
رشید 1
مجموعے 1
نن 1
پین 1
صد 1
نما@@ 1
وکیل 1
چنے 1
افزائی 1
تیلگو 1
سفارتی 1
طاہر 1
کیچ 1
باز@@ 1
فنی 1
مذاکرات 1
88 1
اجتماعی 1
ارات 1
دیکھی 1
مسیحیت 1
چوتھے 1
وارث 1
واقف 1
کوی@@ 1
2003ء 1
مبر@@ 1
مرحلے 1
کٹی@@ 1
اسپی@@ 1
اٹھارہ 1
بروز 1
زمینی 1
لاتے 1
نگا 1
دخل 1
رسمی 1
ریسرچ 1
اين 1
بدولت 1
فاصلہ 1
پو 1
86 1
بیٹھے 1
حکومتوں 1
انفرادی 1
سرحدی 1
لہٰذا 1
نفس 1
ٹیک 1
بچانے 1
تد@@ 1
نج 1
وکٹوں 1
گولی 1
رائل 1
سانتا 1
طبقہ 1
68 1
اجی 1
اکی 1
شرط 1
نٹس 1
ولے 1
ٹک@@ 1
ٹیموں 1
پیرو 1
87 1
برلن 1
لائٹ 1
ہے- 1
خرید 1
1970ء 1
ایت 1
بائ@@ 1
بیٹوں 1
زمبابوے 1
مالا 1
فین 1
کیل 1
ینی 1
رز@@ 1
سہولیات 1
طل@@ 1
فتوحات 1
قائ@@ 1
اضافی 1
سول@@ 1
مرہ 1
مِ 1
ہن 1
آرام 1
سورہ 1
شیں 1
ﮨ@@ 1
انٹرویو 1
دیوتا 1
سرو@@ 1
عالم@@ 1
کوششیں 1
— 0.027067226327116122
افی 1
ایئر@@ 1
خیز 1
ستر 1
ہتھیاروں 1
اراکین 1
شعور 1
فورسز 1
یز 1
عارف 1
ڈي@@ 1
دماغ 1
قدیمہ 1
وك@@ 1
آرڈر 1
قسطنطنیہ 1
کمی@@ 1
گیر 1
ہيں 1
ئر@@ 1
الرحمٰن 1
اچانک 1
لم@@ 1
احاطہ 1
سعادت 1
فاضل 1
وع@@ 1
اترپردیش 1
الل@@ 1
انڈی@@ 1
اگر@@ 1
ترکوں 1
شہزادی 1
قرون 1
مرشد 1
1970 0.32055135790004413
J@@ 0.11984950611323841
یرہ 1
لمبائی 1
مظ@@ 1
مہمان 1
63 1
66 1
قَ@@ 1
ھے 1
جیو 1
حمید 1
96 1
سیل@@ 1
فاروق 1
نسن 1
62 1
بیر@@ 1
درمیانی 1
سپر@@ 1
كھ@@ 1
جب@@ 1
شکر 1
عجیب 1
سفارت 1
پچھلے 1
1992 0.26580030953533407
سلمان 1
سود 1
سینی@@ 1
لون 1
لیٹ 1
پاؤں 1
انکا 1
بالخصوص 1
بیٹھ 1
تلوار 1
چشتی 1
1991 0.2730358581303498
تناسب 1
جاسکے 1
جغرافیہ 1
جمہوریت 1
سالار 1
1948ء 1
1999 0.21421595343326194
92 1
باؤلنگ 1
باغی 1
بنتا 1
ریٹ 1
متوفی 1
ٹہ 1
ازی 1
تي@@ 1
علي 1
مظہر 1
ٹاور 1
مذ@@ 1
ورثہ 1
پرویز 1
اتنے 1
جوزف 1
سنائی 1
فقیہ 1
ادات 1
سَ@@ 1
چوٹی 1
کرنی 1
انحصار 1
يو 1
الاس@@ 1
تحری@@ 1
موبائل 1
اطلاعات 1
زیاد 1
لک@@ 1
چترال 1
67 1
ادھ@@ 1
الحدیث 1
سترہ 1
مذکور 1
پکڑ 1
ہاشم 1
یونس 1
ایام 1
سکونت 1
طبع 1
لغت 1
مؤ@@ 1
میگزین 1
منگ@@ 1
جاسکتی 1
جسٹس 1
ہندوؤں 1
تعالی 1
داخلی 1
حرم 1
زیوں 1
سلامتی 1
کہلاتے 1
اٹ 1
چلانے 1
بز@@ 1
قریشی 1
قیامت 1
کت@@ 1
آگیا 1
بغ@@ 1
ریٹائرمنٹ 1
عظمت 1
مورخ 1
کہانیاں 1
1960 0.34534656577856954
93 1
99 1
بہاولپور 1
شافعی 1
شیو 1
کوش@@ 1
ماہی 1
تاہے 1
زند@@ 1
سیالکوٹ 1
عقل 1
عیسیٰ 1
محسن 1
ناز 1
نوجوانوں 1
پُ@@ 1
1950 0.3767621342984384
بخ@@ 1
صدارت 1
مدیر 1
تیر 1
جملہ 1
صاح@@ 1
ضبط 1
قد 1
Municipality 1
قدرت 1
زمان 1
صنف 1
طوفان 1
غزنوی 1
مراٹھی 1
عص@@ 1
گاہوں 1
74 1
بناتے 1
بھال 1
وسكونسن 1
بیسویں 1
ذہن 1
فرید 1
فضائیہ 1
مزاحیہ 1
59 1
الخط 1
ٹيكساس 1
حفظ 1
ہوسکتا 1
جل 1
ناظم 1
1947 0.5113414700469258
باللہ 1
لسانی 1
نہر 1
03 1
73 1
آنکھ 1
شع@@ 1
فورٹ 1
لز@@ 1
مزاج 1
پوجا 1
کرد 1
کہاں 1
گرما 1
زیب 1
پٹی 1
ادوں 1
جائز 1
دیت 1
ویہ 1
پرانا 1
اوس@@ 1
قدمی 1
150 0.8665262365223209
بدلے 1
تکلیف 1
جام 1
ساخت 1
ویت 1
الي@@ 1
لاکھوں 1
اسکولوں 1
مدار 1
77 1
آرمینیا 1
مسند 1
میڈ@@ 1
1999ء 1
98 1
ذخیرہ 1
شہاب 1
مبینہ 1
کوٹ@@ 1
گلگت 1
83 1
ایڈاہو 1
فضا 1
گنگا 1
توا@@ 1
ہون 1
بھر@@ 1
جنگجو 1
حمد 1
دامن 1
زبیر 1
اعمال 1
بي 1
جائ@@ 1
قیاس 1
ندا 1
رابرٹ 1
سیریل 1
نیت 1
تمہیں 1
کیٹ 1
بیش 1
سیکرٹری 1
فرینکلن 1
موا@@ 1
ڈیوڈ 1
گیٹ 1
جارجيا 1
شي@@ 1
فیل@@ 1
نگاہ 1
پھل 1
ڈراموں 1
کاو@@ 1
کینی@@ 1
A 0.05164456755993735
ماہ@@ 1
نازی 1
ويل 1
پلیٹ 1
اً 1
کنیکٹیکٹ 1
کوہ@@ 1
اجداد 1
گزار 1
94 1
اوراس 1
مرنے 1
يَ@@ 1
کلے 1
11@@ 1
راجستھان 1
فیس 1
ﻋ@@ 1
10.@@ 1
امراض 1
سیاحت 1
عثمانیوں 1
ٹار@@ 1
76 1
لیاں 1
97 1
84 1
ایکشن 1
سرپرستی 1
صفر 1
نصب 1
چیزیں 1
یونٹ 1
قاہرہ 1
لنکن 1
مغربي 1
نکلے 1
يارك 1
جنگلات 1
مصنوعات 1
ڈبلن 1
کال 1
ہوسکتی 1
بھیجے 1
ضیاء 1
کہانیوں 1
جنکشن 1
نظامی 1
کارکنوں 1
1998ء 1
خلا@@ 1
وج 1
چیمپئن 1
کشتی 1
1998 0.2198269230473707
ائیڈ 1
یسوع 1
تاً 1
دھی 1
دہائیوں 1
مغلیہ 1
ڑنے 1
89 1
اوری@@ 1
حق@@ 1
خیر@@ 1
ظ 1
78 1
بیٹھ@@ 1
فران@@ 1
ورجينيا 1
کشمیری 1
ہوچکی 1
ریو 1
فورا 1
ویئر 1
یکساں 1
1960ء 1
دیہات 1
سرد 1
سیا 1
ٹائم 1
کبیر 1
کھی 1
اہی 1
ریں 1
پڑھی 1
گنے 1
ﮐﮯ 1
91 1
اصولوں 1
اطالیہ 1
تلامذہ 1
خالص 1
خلیل 1
كس 1
ڈینی@@ 1
اچ@@ 1
حص@@ 1
متحد 1
ونٹ 1
اختلافات 1
اخراجات 1
روزانہ 1
ٹرک 1
تعین 1
سمجھنے 1
قفقاز 1
کاک@@ 1
کینیا 1
گنبد 1
ترو@@ 1
خراج 1
ستانی 1
سلمہ 1
ضروریات 1
ضی@@ 1
ماخوذ 1
پنج@@ 1
اوب@@ 1
خانوں 1
لمبی 1
مفید 1
» 0.021353271941700242
اننگ 1
سازش 1
ژاں 1
گلیشیر 1
گہری 1
69 1
کمپنیوں 1
کوک 1
باغیوں 1
سرکار 1
لیتی 1
منصوبوں 1
يون@@ 1
پٹ 1
ڈرا@@ 1
ڈھانچے 1
82 1
بقول 1
خام 1
لام 1
حَ@@ 1
عرف 1
موری@@ 1
نوری 1
کیمیائی 1
ﺘ@@ 1
تابعین 1
جزوی 1
خل@@ 1
ٔ 1
چھٹی 1
گزشتہ 1
ماہنامہ 1
نوب@@ 1
آنا 1
اج 1
بھاگ@@ 1
خاموش 1
سبھی 1
عمارتوں 1
مع 0.9649344173962383
ڈیٹا 1
district 0.2527791108596848
بیل@@ 1
دوستی 1
عنصر 1
متی 1
09 1
خطرے 1
سڈنی 1
نوآبادیاتی 1
کھیلتے 1
آٹھویں 1
إِ@@ 1
انتہا 1
بچنے 1
ذوق 1
فحش 1
موہن 1
يك@@ 1
کوا@@ 1
است 1
اصلی 1
بالائی 1
رفتہ 1
عہدوں 1
غالباً 1
سوائے 1
سورۃ 1
معمول 1
نفرت 1
نون 1
وئی 1
ڈس 1
اڑ 1
بگ 1
دیئے 1
صلاح 1
مربوط 1
لاک 1
کونسلیں 1
گہرا 1
افت 1
الحال 1
الوں 1
سس 1
پرواز 1
سج@@ 1
مذمت 1
مہینوں 1
نصر 1
ورژن 1
گوئ@@ 1
یٰ 1
1,4@@ 1
سوئ@@ 1
لارڈ 1
پشتون 1
81 1
انصار 1
فسادات 1
وط@@ 1
ٹیاں 1
انڈسٹری 1
ساحلی 1
سوشل 1
قرارداد 1
ليك 1
پریشان 1
چودھری 1
71 1
الا@@ 1
اہلیہ 1
ریٹائر 1
لگائے 1
نگز 1
1ھ 1
N@@ 0.0779892681732327
انتداب 1
سدھ@@ 1
مول 1
ذہنی 1
زان 1
شروعات 1
صارفین 1
معی@@ 1
ني 1
کیہ 1
ایلن 1
سینکڑوں 1
نڈی 1
کیس 1
05 1
تاجر 1
تجربات 1
سپاہی 1
غلطی 1
600 0.8630753083181862
اکائی 1
جلا 1
خش@@ 1
رن@@ 1
نیوں 1
چھوڑنے 1
پوتے 1
بلایا 1
تاب 1
دستاویزات 1
دوس@@ 1
ساک@@ 1
علوی 1
قلب 1
کاٹ 1
زل 1
میڈیسن 1
United 0.09636035226418967
al 0.031517484424260465
انت 1
خلائی 1
نِ 1
پھیلی 1
ہنری 1
1989 0.2696647897410719
دش@@ 1
آفتاب 1
امامت 1
تلفظ 1
گرانٹ 1
انتظار 1
تحریری 1
تدفین 1
پہنچایا 1
چوک 1
1997 0.22605070229839036
ah 0.3285465442775336
بات@@ 1
لِ 1
نمائندہ 1
گورن@@ 1
یان 1
بسر 1
میزبانی 1
وص@@ 1
یوگنڈا 1
حتمی 1
رم 1
شوکت 1
مدھ@@ 1
تھامس 1
کلارک 1
گلوکارہ 1
ہوچکا 1
ارجنٹائن 1
الزامات 1
بابر 1
سرگودھا 1
لانگ 1
میجر 1
جج 1
دشمنی 1
قین 1
800 0.8631322013814601
آگ@@ 1
اُردو 1
حلقوں 1
فلا@@ 1
مدی@@ 1
کف@@ 1
گز 1
گھاٹ 1
1,6@@ 1
امارت 1
حک@@ 1
رِ@@ 1
مدارس 1
پڑھتے 1
کوب@@ 1
زاد 1
سونا 1
لطف 1
ناب@@ 1
نص@@ 1
نظیر 1
ٹیک@@ 1
پلے 1
ہرزیگووینا 1
ادھر 1
برآمد 1
توپ 1
باتوں 1
پین@@ 1
الیس 1
خزانہ 1
رومان@@ 1
لیل 1
اموات 1
ایلی@@ 1
سیکس 1
وچ 1
ٹز 1
پوپ 1
کھر 1
R@@ 0.06919229523933365
minor 1
رتی 1
پنے 1
کشش 1
ہٹلر 1
الام@@ 1
درآمد 1
سمجھے 1
چاہئے 1
آغ@@ 1
حلقے 1
زادہ 1
متع@@ 1
ہری@@ 1
1992ء 1
جور@@ 1
جیفرسن 1
شرا@@ 1
ہفتے 1
1940 0.3773704129372041
79 1
is 0.008476853560504117
ایشیاء 1
حیاتیات 1
نصیر 1
یہودیت 1
بھرتی 1
تار 1
تبہ 1
تمہاری 1
نَ@@ 1
کالا 1
کالی 1
تقی 1
تھوڑی 1
ستارے 1
معاشیات 1
افرا@@ 1
رہنا 1
پچیس 1
1950ء 1
تض@@ 1
كار@@ 1
مساوی 1
ٹائمز 1
کھڑی 1
municipality 0.7856843566647893
آگاہ 1
ئس 1
احد 1
اریوں 1
اسلوب 1
الیہ 1
سمجھی 1
ہاکی 1
اسلم 1
اکر 1
راں 1
غلامی 1
کرسکتے 1
کسی@@ 1
ہؓ 1
1996 0.21854458899425375
انسانیت 1
توب@@ 1
جمعیت 1
عد 1
ماؤ@@ 1
وایا 1
پوچھ@@ 1
الدين 1
انجن 1
ایہ 1
لب 1
پیٹر 1
ڈاک@@ 1
اولمپکس 1
جاؤ 1
جات@@ 1
دستور 1
قات 1
وَ 1
پرتگالی 1
گان@@ 1
ہمارا 1
بولتے 1
عن 0.9827269316038787
قائل 1
وتی 1
پھر@@ 1
ادوار 1
اپنایا 1
بزرگوں 1
درو@@ 1
رانا 1
مرکب 1
ناکامی 1
وسعت 1
06 1
جوڑے 1
خری@@ 1
مض@@ 1
ہتر 1
ئیں 1
جاکر 1
کمرے 1
دوستوں 1
دول@@ 1
1918 0.45320838860117907
الیکشن 1
تل 1
سالم@@ 1
ورزی 1
پہن@@ 1
کینٹ 1
اشی 1
بلتستان 1
لٹن 1
میزائل 1
میک@@ 1
یاب 1
دف@@ 1
مثالیں 1
پیٹر@@ 1
استحکام 1
اصفہان 1
عد@@ 1
فطری 1
مالیاتی 1
مگ@@ 1
ٹرین 1
اثنا 1
تز@@ 1
رنجیت 1
ساس@@ 1
موسیقار 1
پش@@ 1
کیم 1
02 1
الرشید 1
تُ@@ 1
عنایت 1
لیبیا 1
مائل 1
ہاشمی 1
النہار 1
جینی@@ 1
ریاں 1
نثر 1
ویر@@ 1
بیہ 1
وْ@@ 1
گور 1
رول 1
لاش 1
وري 1
ڈھاکہ 1
کارپوریشن 1
دوا 1
دھو@@ 1
كل@@ 1
مسٹر 1
منڈ 1
بلقان 1
حجر 1
کہلاتی 1
الاسکا 1
الحاق 1
توقع 1
قیمتی 1
ملوث 1
منتقلی 1
يت 1
چو 1
ڈاک 1
ہوچکے 1
افضل 1
اگلی 1
بٹلر 1
موقف 1
نیہ 1
گراف 1
تراجم 1
محققین 1
کانگ 1
رپور@@ 1
پیرش 1
کرہ 1
گایا 1
كو 1
مراحل 1
مسافر 1
گرینڈ 1
1997ء 1
رام@@ 1
لٹ 1
میز 1
والہ 1
07 1
دیکھے 1
پریمیئر 1
تحریروں 1
غلبہ 1
لوئس 1
گرجا 1
ہوٹل 1
1993 0.2348638694604204
تسلط 1
خطیب 1
نذر 1
ولد 1
ٹھیک 1
یہو@@ 1
نظریاتی 1
ڈون@@ 1
04 1
آسام 1
اوران 1
بازنطینی 1
جیک 1
ذی 1
مارکس 1
مثلا 1
ملت 1
کرمان 1
کلیسیا 1
ائز 1
ترقیاتی 1
دسویں 1
شجرہ 1
08 1
علامات 1
لکھیں 1
پرائمری 1
چکر 1
تیرے 1
جوڑ 1
روزگار 1
1920 0.39446182690939074
i 0.08878150190092775
بادشاہی 1
گریٹ 1
گیلانی 1
93.@@ 1
قدامت 1
مستعمل 1
موثر 1
کارروائیوں 1
ﮭ@@ 1
اضافے 1
تیری 1
سز 1
عزم 1
لارنس 1
موضع 1
وائیومنگ 1
۰@@ 1
بج@@ 1
مرو 1
ولایت 1
بڑ@@ 1
خطرناک 1
ساوتھ 1
طارق 1
نصاب 1
کپتانی 1
States 0.1248513056694229
امجد 1
اونٹ 1
ثر 1
مچھلی 1
تخمینہ 1
جلدوں 1
حجاز 1
نمودار 1
انوی 1
راش@@ 1
لیکر 1
کیرئیر 1
گزرنے 1
ہرے 1
1993ء 1
Ohio 0.7162410439224074
اسی@@ 1
سروے 1
سوڈان 1
کنی 1
قیدیوں 1
1971ء 1
ایکسپریس 1
شرعی 1
طیارے 1
پوں 1
گرفتاری 1
1996ء 1
sur 0.045681152493417275
ارض 1
ارڈ 1
جنگجوؤں 1
قربانی 1
نفاذ 1
نچ 1
ووڈ@@ 1
250 0.9378930092807114
الٰہی 1
دائ@@ 1
ستارہ 1
مانتے 1
میری@@ 1
نکالا 1
وروں 1
ونڈ 1
ڈور 1
المومنین 1
ایتھ@@ 1
بحیثیت 1
جدا 1
خام@@ 1
دیکھیں 1
سائی@@ 1
مریض 1
مشغول 1
وینی@@ 1
کارڈ 1
اولی@@ 1
مسلک 1
نقشہ 1
یوٹاہ 1
تشریح 1
برٹ 1
دوب@@ 1
ستاروں 1
سیلاب 1
فوجیں 1
O@@ 0.07835529180417494
q@@ 0.6250824967875448
اعی 1
ضرب 1
كول@@ 1
کمان@@ 1
کیپ@@ 1
ہوجائے 1
ہیرو@@ 1
یلی 1
ضم 1
طبقات 1
میٹرک 1
ناڈو 1
هُ 1
اوبلاست 1
برو 1
سختی 1
سين@@ 1
ماجد 1
چوری 1
ڈان 1
بخارا 1
بقیہ 1
قری@@ 1
کرائی 1
کعب 1
700 1
آلو@@ 1
ازیں 1
خار@@ 1
منع 1
مکتب 1
چا@@ 1
ہمہ 1
فلی@@ 1
متعین 1
ﻟ@@ 1
برز@@ 1
تکنیکی 1
خصوصاً 1
خلفاء 1
1941 0.3360618371671693
احمد@@ 1
بالترتیب 1
بوجھ 1
بڑھانے 1
ثق@@ 1
قلمی 1
مام 1
ڑھی 1
1,3@@ 1
10,@@ 1
تعالٰی 1
زیں 1
کھول 1
تاجکستان 1
ثی 1
جبل 1
جز@@ 1
رحیم 1
کلنٹن 1
ہائی@@ 1
11.@@ 1
1988ء 1
} 1
المن@@ 1
تحلیل 1
حامد 1
مدنی 1
مقالہ 1
مکی 1
ٹون 1
ہمت 1
ہٹا 1
1,8@@ 1
ضی 1
مقابل 1
آم@@ 1
رسالت 1
لوی 1
لکھنا 1
مجاہدین 1
افسانے 1
بنگ@@ 1
بہتری 1
طریقت 1
فقیر 1
نقش 1
تائید 1
سوی 1
طلباء 1
مائی@@ 1
مسئلے 1
نْ@@ 1
گرا 1
بٹ@@ 1
تھر@@ 1
فلو@@ 1
لمبے 1
مزدور 1
پایہ 1
ڑیاں 1
انچ 1
فرنٹ 1
کرشن 1
1,7@@ 1
آسٹ@@ 1
جذبہ 1
فيلڈ 1
وابستگی 1
کیمبرج 1
1988 0.25303904785572107
جلاوطنی 1
خلیات 1
صاحبزادے 1
معاش@@ 1
پسندیدہ 1
کرن 1
کیلی 1
ورنہ 1
کرانے 1
1977ء 1
اصرار 1
بلاک 1
ساٹھ 1
قات@@ 1
ماری@@ 1
البم 1
مریخ 1
چوہدری 1
ڈنمارک 1
I 0.06821468193621347
اورنگ 1
دید 1
رئیس 1
فرن@@ 1
لیم 1
لیڈر 1
ملازم 1
واہ 1
ڈینس 1
01 1
آل@@ 1
فلکیات 1
مبی@@ 1
مسوري 1
واک 1
ورمونٹ 1
يس 1
پڑھائی 1
گولڈ 1
14.@@ 1
دشمنوں 1
رون@@ 1
ستم 1
شکایت 1
قبر@@ 1
نقاد 1
چراغ 1
1,5@@ 1
آئندہ 1
اتِ 1
نویں 1
نکلنے 1
1985ء 1
آسٹریلیائی 1
جنگلی 1
حمزہ 1
زینب 1
شب@@ 1
معرکہ 1
نصیب 1
پیرا 1
پیچیدہ 1
en 0.004741621640048954
اتر@@ 1
الاول 1
اوور 1
بتاتے 1
حقائق 1
شیعوں 1
وجے 1
پلی 1
پینے 1
کلمہ 1
183@@ 1
2ھ 1
امتیازی 1
اُنہوں 1
سرگرمیاں 1
سزائے 1
مفت 1
اسود 1
منسوخ 1
پوس@@ 1
ہول 1
جانتا 1
زِ 1
سرائیکی 1
سکریٹری 1
شیطان 1
فائر 1
وائس 1
اسٹو@@ 1
دَ@@ 1
سکون 1
ندے 1
پیرا@@ 1
کیا@@ 1
ﺪ@@ 1
مائیکل 1
مستند 1
يم@@ 1
چش@@ 1
1995ء 1
بک@@ 1
سیکیورٹی 1
لیو 1
ڈپٹی 1
حنفی 1
سنبھال 1
عورتیں 1
W@@ 0.0698037059689485
at 0.012769409473772156
قواعد 1
نظمیں 1
پابند 1
ہوجاتے 1
پارلیمانی 1
پوائنٹ 1
چوبیس 1
کھلے 1
منقسم 1
میلبورن 1
نفسیات 1
ۃ@@ 1
اسپ@@ 1
باکس 1
عالمگیر 1
an@@ 0.06633861765294086
اسباب 1
بیوں 1
صحبت 1
ِّ@@ 1
چہرے 1
گروپوں 1
اسٹریٹ 1
رسائل 1
لنے 1
پول 1
ہیر 1
1939 0.3399524661006743
بیڑے 1
فانی 1
فیہ 1
مرید 1
ٹکڑے 1
ڑو 1
کوری@@ 1
1971 0.30816255480996146
انکشاف 1
دستے 1
رحم 1
عاش@@ 1
کعبہ 1
1944 0.2960838435936005
1982ء 1
Sh@@ 0.1779641662177421
تھک 1
خطبہ 1
میم 1
واج 1
پیر@@ 1
کانوں 1
کسانوں 1
ہزارہ 1
ﮐﯽ 1
40@@ 1
فوائد 1
مجدد 1
ڈرامہ 1
1989ء 1
name 0.11489475049275666
C@@ 0.06636885609894337
e@@ 0.07368858136505035
بزنس 1
تقری@@ 1
جاوا 1
رخصت 1
ضے 1
قز@@ 1
وصیت 1
وِ@@ 1
13.@@ 1
سرائے 1
سنگاپور 1
پروڈکشن 1
چم@@ 1
کاس 1
گرہن 1
ائم 1
براعظم 1
سرگرمی 1
قمر 1
ٹرا@@ 1
چوتھا 1
ہیم 1
روپیہ 1
مہاراجا 1
نٹن 1
یْ@@ 1
« 0.01733152598852842
فرقے 1
زو 1
نفسیاتی 1
کھل 1
ہٹ@@ 1
ؐ 1
تھر 1
جھڑ@@ 1
دانی 1
فون@@ 1
مخلوق 1
کرائے 1
1995 0.19891893403065483
بیمار 1
جز 1
خت 1
لانگ@@ 1
نیدرلینڈز 1
ٹا@@ 1
پھو@@ 1
ڈي 1
# 0.41497108582545505
12.@@ 1
اوهایو 1
تنقیدی 1
سار 1
فرعون 1
لاتی 1
نمونے 1
کھلی 1
کیپر 1
گلا@@ 1
گھوم@@ 1
ہانگ 1
اسم@@ 1
الو 1
اُنہیں 1
شہر@@ 1
مدر@@ 1
ویکیپیڈیا 1
پتا 1
کات 1
الدولہ 1
دیستریک 1
سوت@@ 1
غار 1
قابض 1
منط@@ 1
منگول 1
میا 1
یز@@ 1
180@@ 1
1979ء 1
Z@@ 0.09214127196386629
جھنگ 1
دلچسپ 1
دیسی 1
مبر 1
میٹروپولیٹن 1
نظریے 1
پاک@@ 1
گذ@@ 1
گریڈ 1
1948 0.36090766243352146
V@@ 0.07363365166489244
اموی 1
بینک@@ 1
رگ@@ 1
شیر@@ 1
قادر 1
موسوم 1
ڈیلاویئر 1
کانتی 1
تنہا 1
خور@@ 1
راشد 1
رِ 1
ستا 1
سینا 1
سیکنڈ 1
مکھ@@ 1
نغمہ 1
ڑھ 1
گردش 1
گوا 1
ینگ 1
آگرہ 1
اٹھ 1
اہلِ 1
زد 1
فات 1
ماحولیاتی 1
کورس 1
ئے@@ 1
سوا@@ 1
نائی@@ 1
ڈن@@ 1
E@@ 0.07184076151967768
لہجہ 1
چنا 1
ابرا@@ 1
امرتسر 1
تغ@@ 1
قیدی 1
ویو 1
پارہ 1
کب 1
آس@@ 1
ایریزونا 1
جائداد 1
دھرم 1
کھلا 1
ﮩ@@ 1
اغوا 1
تارکین 1
تسم@@ 1
سلط@@ 1
لطیف 1
رين 1
سارہ 1
صورتحال 1
مطالعے 1
کھوار 1
گھی@@ 1
120 0.8926995185462858
z@@ 0.08394331095147106
اصطلاحات 1
العلماء 1
امِ 1
بینڈ 1
عکس 1
پیمائش 1
1974ء 1
استحصال 1
بائیس 1
قصہ 1
اسپتال 1
ایتھوپیا 1
رجب 1
قیہ 1
سیدہ 1
صف 1
غربت 1
منا 1
مناظر 1
ھو@@ 1
1994 0.19459480648304123
ترجمان 1
جابر 1
جھگ@@ 1
دفاتر 1
رویہ 1
سراج 1
قابلِ 1
مجاہد 1
ندوی 1
چاہتی 1
b 0.14383750161420997
دستاویز 1
مخالفین 1
ولو 1
ٹاپ 1
پورٹو 1
اجن@@ 1
اشع@@ 1
سفار@@ 1
عذاب 1
میزبان 1
پونچھ 1
چٹ@@ 1
ارتقا 1
ایکس 1
باقر 1
تھو@@ 1
فس@@ 1
فوں 1
ٹیوب 1
گوجرانوالہ 1
احسان 1
اگو 1
بظاہر 1
بلین 1
تاری@@ 1
قندھار 1
مطلق 1
نتالیس 1
وراثت 1
وکالت 1
ارد@@ 1
انڈے 1
اپیل 1
بلغ@@ 1
تبدیلیاں 1
توحید 1
خرا@@ 1
مرحلہ 1
ٹیلی@@ 1
پاد@@ 1
پروگراموں 1
ہد@@ 1
ہمایوں 1
ہي@@ 1
رئ@@ 1
سرب@@ 1
ملٹری 1
اعوان 1
انیاں 1
ایڈورڈ 1
دیواروں 1
رکاوٹ 1
لتا 1
ٹیز 1
1000 0.6703442410312201
بنائیں 1
بين@@ 1
ریکو 1
زلزلے 1
نمبر@@ 1
ۓ 1
ابت 1
اتھ@@ 1
برتن 1
داعش 1
سکاٹ 1
شنز 1
چھت 1
ڈک@@ 1
ڈیجیٹل 1
کث@@ 1
گرمی 1
بڑھنے 1
حان 1
خالق 1
ریٰ 1
سپاہیوں 1
فنڈ 1
میٹ@@ 1
ناس@@ 1
وضع 1
ومت 1
2022 0.400949788250814
افسوس 1
انٹر 1
بناتا 1
حجاج 1
لیت 1
1984ء 1
village 0.1451370319514055
اکا 1
درحقیقت 1
متنازع 1
نذیر 1
واری 1
پاور 1
گھر@@ 1
1930 0.3450681132090485
22@@ 1
اط 1
افتتاح 1
الرحمان 1
بہرائچ 1
بیٹھا 1
زیدی 1
سٹوں 1
سچ 1
لیز 1
يور@@ 1
گہرائی 1
2,0@@ 1
آدمیوں 1
شاپ@@ 1
غائب 1
ّی 1
گنگ@@ 1
یاس@@ 1
المع@@ 1
امر@@ 1
امرا 1
بڑھتے 1
جھو@@ 1
داغ 1
ملازمین 1
میں@@ 1
ہروں 1
1965ء 1
Y@@ 0.12963317567864277
بہادری 1
تدریسی 1
زبانی 1
سٹر@@ 1
طہ 1
نعیم 1
چہرہ 1
اري 1
سائز 1
لال@@ 1
ڈیموکریٹک 1
1972ء 1
اوس 1
كنساس 1
مصطفی 1
پیروکار 1
چیچن 1
کھاتے 1
گہ 1
ﺣ@@ 1
ایس@@ 1
بردار 1
خوبصورتی 1
عکاسی 1
وارانہ 1
ڈار@@ 1
ہالی 1
00 0.5239217448147543
بنتی 1
1975ء 1
خور 1
زدہ 1
سوشلسٹ 1
لڑکا 1
مشین 1
الکاہل 1
الیون 1
محترم 1
پرتگال 1
چنگ 1
کائ@@ 1
انکی 1
سویں 1
شہریت 1
فلسفی 1
ٍ 1
ٹران@@ 1
کمانڈ 1
الذکر 1
اواخر 1
ایجن@@ 1
بري@@ 1
جنھیں 1
ریزی 1
سنبھ@@ 1
فاروقی 1
نگے 1
پاپ@@ 1
گاڑیوں 1
F@@ 0.059126076753191724
بھٹی 1
دھی@@ 1
سڑکوں 1
عادل 1
معزول 1
مين 1
سرداروں 1
متفق 1
مسی@@ 1
میئن 1
چھتیس 1
دینار 1
صحرا 1
لگائی 1
مارک 1
گریجویٹ 1
تفصیلی 1
مْ 1
مہی@@ 1
کیوبا 1
c 0.1127323876588568
بیری 1
تامل 1
تشیع 1
روسیوں 1
لفظی 1
مولا 1
نزول 1
ٹکٹ 1
کارنامہ 1
آبی 1
ادي 1
اِسی 1
ثہ 1
خوان 1
درانی 1
مؤرخ 1
مپ 1
کاف@@ 1
آرتھر 1
اص 1
بچا 1
زکریا 1
لوزیانا 1
ونس 1
ً 1
کچ@@ 1
by 0.009579266724538875
جال 1
دات 1
سواری 1
قصور 1
میرا@@ 1
چاول 1
1984 0.24732074495456463
آمادہ 1
تلا@@ 1
خاصی 1
سیارے 1
عظ@@ 1
عقبہ 1
مرضی 1
1986 0.24104783609219407
et 0.007652257594781267
اسٹالن 1
ذر 1
مرا 1
واڈور 1
d@@ 0.07102423935707988
اوٹ@@ 1
ایگزیکٹو 1
بازوں 1
رهٔ 1
روٹی 1
معجز@@ 1
وجی 1
ّہ 1
1956ء 1
بصری 1
نجف 1
ونڈ@@ 1
الاح@@ 1
الہی 1
موڑ 1
تبریز 1
تہجی 1
خمینی 1
درہم 1
صفائی 1
ہوش 1
35@@ 1
استدلال 1
اندازے 1
جادو 1
حف@@ 1
دوچار 1
ماننے 1
گرافی 1
ﮔ@@ 1
11,@@ 1
بچھ@@ 1
دبئی 1
رچرڈ 1
سیال 1
ممالك 1
کسان 1
1979 0.2640398636870116
دھماکے 1
فائرنگ 1
لیون 1
چیسٹر 1
۳@@ 1
خلاصہ 1
ذ 1
شل@@ 1
كور@@ 1
معصوم 1
پڑتی 1
ڈین@@ 1
00@@ 1
احکامات 1
رسومات 1
سائی 1
صر 1
لاً 1
گنی@@ 1
یوری@@ 1
1,9@@ 1
اطاعت 1
بے@@ 1
نوح 1
1991ء 1
تعبیر 1
تمغا 1
شاخیں 1
پرنسپل 1
1987ء 1
اؤن@@ 1
بین@@ 1
جدہ 1
دوڑ 1
سات@@ 1
لگیں 1
مدھیہ 1
ندیم 1
ونسب 1
پائی@@ 1
کاغذ 1
کلیدی 1
ہدف 1
ہشام 1
1994ء 1
بائی@@ 1
بندر 1
تلاوت 1
تیر@@ 1
روش 1
ستون 1
سٹي 1
كيرولائنا 1
یا@@ 1
آرتھوڈوکس 1
أ@@ 1
نقوی 1
کورونا 1
ﺴ@@ 1
u 0.10145837664066971
تصوی@@ 1
رہائی 1
پودوں 1
پینٹ@@ 1
چلتے 1
ڈال@@ 1
گندم 1
افسانوں 1
افسانوی 1
تیاں 1
فور 1
نوم@@ 1
انجیل 1
اٹھانے 1
اینٹی 1
جشن 1
داء 1
دلائل 1
جلیل 1
قحط 1
قوں 1
كان@@ 1
نڈے 1
ڈل 1
ھر 1
ہدایات 1
اکیس 1
بابل 1
لازم 1
ویس 1
ڈومیسٹک 1
la 0.0031524753893033336
اعتراض 1
ایجوکیشن 1
بشیر 1
تذ@@ 1
سہارا 1
سیدنا 1
فِ 1
مردہ 1
نپولین 1
وارن 1
چلائی 1
بیٹیاں 1
شات 1
شاگردوں 1
ظر 1
مجسمہ 1
وریا 1
چشمہ 1
1985 0.23886054995549874
اتھارٹی 1
جئے 1
شان@@ 1
فتنہ 1
مصنوعی 1
{ 0.8188081242667753
اسٹار 1
زیادتی 1
عدی 1
متصل 1
يْ@@ 1
پیشکش 1
ڈیو@@ 1
گیندوں 1
36@@ 1
اندلس 1
ایسٹ@@ 1
سجاد 1
شنوں 1
كيليفورنيا 1
لوئر 1
لینڈ@@ 1
ماری 1
ٹرا 1
پیری@@ 1
چڑھ 1
کمشنر 1
بنتے 1
بولنگ 1
تاجروں 1
سپہ 1
عج@@ 1
فیشن 1
پہنچانے 1
کیرولینا 1
ہیملٹن 1
اقدار 1
اقوال 1
اکٹھا 1
ساح@@ 1
ساڑھے 1
مروان 1
میانمار 1
پیدا@@ 1
ابلاغ 1
اصغر 1
النجوم 1
الیکٹ@@ 1
بڑھایا 1
رای@@ 1
17.@@ 1
as 0.007293539486199062
جاتاہے 1
رکھیں 1
سرہ@@ 1
عے 1
لاد 1
نیازی 1
1986ء 1
New 0.050072895416077616
اکاؤن@@ 1
بنیں 1
ظہ 1
عرفان 1
مفادات 1
ملہ 1
نامعلوم 1
ہنگ@@ 1
ﻣﯿﮟ 1
I@@ 0.08889307993229528
اینڈ@@ 1
سرپرست 1
سفر@@ 1
نہرو 1
ورم 1
کیپٹن 1
آنکھیں 1
استع@@ 1
بارگاہ 1
عابد 1
مسیحیوں 1
چلتی 1
گم 1
گون 1
1930ء 1
رشتے 1
سوات 1
سینٹرل 1
فراغت 1
قاد@@ 1
وژن 1
ہالینڈ 1
یف 1
12,@@ 1
j@@ 0.09614526606749635
سکھ@@ 1
مترجم 1
ٌ 1
گام@@ 1
ﺷ@@ 1
آئس 1
باؤلر 1
دوری 1
راب 1
لش@@ 1
ماریون 1
ولف 1
وٹ@@ 1
.com 0.8823155862334604
16.@@ 1
ایٹمی 1
بانو 1
برن 1
تبصرہ 1
حتی 1
روا 1
نمائندے 1
ننگ 1
کروائی 1
گہرے 1
آپری@@ 1
اونچی 1
لح@@ 1
مقدونیہ 1
ورٹ 1
ڈفورڈ 1
ہجوم 1
براؤن 1
تعمیرات 1
روکا 1
محی 1
نسواں 1
وحید 1
1987 0.2258954336007892
راغب 1
شائ@@ 1
فقہی 1
لغ@@ 1
چائے 1
ڑھے 1
گرے 1
ہموار 1
ﺋ@@ 1
آخ@@ 1
بمباری 1
تصادم 1
دود 1
سیاحوں 1
قوتوں 1
لنک@@ 1
وحی 1
گھنٹہ 1
1978ء 1
1981ء 1
اسٹاک 1
رومیوں 1
سد@@ 1
سننے 1
فصل 1
منشی 1
اجزاء 1
ادے 1
تقویت 1
جلدی 1
سولہویں 1
مقبرے 1
آزادانہ 1
اخراج 1
خود@@ 1
ربانی 1
مزاح 1
میوں 1
يات 1
چھوڑا 1
ہِ 1
1975 0.24555331976590902
or 0.021277155419717607
اخت@@ 1
الشان 1
امریکیوں 1
تردید 1
جاگیر@@ 1
جٹ 1
ضل@@ 1
فوق@@ 1
معافی 1
ٹیج 1
ینگ@@ 1
1919 0.37684665267936435
48@@ 1
اطلاق 1
خسرو 1
دیوبندی 1
سخن 1
سنبھالا 1
معنوں 1
پاتے 1
کاؤن@@ 1
کمپ@@ 1
کوت@@ 1
کِ@@ 1
انجینئری 1
تحسین 1
حس@@ 1
عار@@ 1
قیصر 1
کرسٹ@@ 1
کہے 1
200@@ 1
q 0.6066081352618595
الزبتھ 1
تقویم 1
جوانی 1
سلی 1
شاهٔ 1
مرتض@@ 1
پتے 1
پشت 1
باقیات 1
جَ@@ 1
حجم 1
غلاموں 1
مبل 1
مکانی 1
مینے 1
نیات 1
چہارم 1
گيا 1
ہلال 1
ہیڈ@@ 1
اچھ@@ 1
تھوڑا 1
جک@@ 1
حلقهٔ 1
سینٹی 1
غزنی 1
نانا 1
نڈز 1
ایڈی@@ 1
خدا@@ 1
درکار 1
غزوات 1
فاط@@ 1
قازقستان 1
پھینک@@ 1
179@@ 1
T20 1
بجٹ 1
تبت 1
غہ 1
لك@@ 1
مینی 1
نویس 1
پذیر 1
گنجائش 1
گیوں 1
1958ء 1
اکھ@@ 1
بنی@@ 1
تسمیہ 1
روک@@ 1
عامہ 1
مود 1
موزوں 1
نمک 1
وق 1
پھیلاؤ 1
گارڈ 1
1974 0.25368767845772466
آکسفورڈ 1
جع@@ 1
سرحدوں 1
عام@@ 1
لہر 1
پختہ 1
ﺭ 1
1942 0.2897320409201349
زمرے 1
شرما 1
عوامل 1
لیفٹیننٹ 1
مائے 1
مقدمے 1
مگر@@ 1
نوا 1
انٹ@@ 1
ایبٹ 1
عطیہ 1
ٹرانس@@ 1
تمہارا 1
دنی@@ 1
دیل 1
سہیل 1
مومن 1
نیں 1
ڈكوٹا 1
یونی@@ 1
آش@@ 1
تختہ 1
رابطے 1
سائنسز 1
شاپیل 1
پرستوں 1
کیمپس 1
station 0.12299458854437302
ایکڑ 1
بست@@ 1
ترغیب 1
جائی@@ 1
رسالے 1
پنڈ@@ 1
کوس 1
ہونی 1
1982 0.23868658094214812
دت 1
دستاویزی 1
رع@@ 1
عقیل 1
لیاقت 1
مواصلات 1
میتھ@@ 1
٭ 1
1976ء 1
اتوں 1
اینگلو 1
بدلہ 1
تسلسل 1
جبو@@ 1
سیر@@ 1
كى 1
گوج@@ 1
1949ء 1
1978 0.25138542000762154
بیانات 1
جاننے 1
دھمکی 1
لمبا 1
مختاری 1
ينا 1
بیٹ 1
حم@@ 1
روان 1
شاد 1
غل@@ 1
غوث 1
ماب@@ 1
1983 0.23737522699286556
اگ 1
عبی@@ 1
فري@@ 1
معاشرہ 1
منعقدہ 1
مکانات 1
کیشن 1
آخرت 1
بِ 1
ذر@@ 1
سوالات 1
لمیٹڈ 1
نرم 1
گران@@ 1
1973ء 1
تال 1
حالی 1
قسمت 1
بعید 1
تقریبات 1
دھن 1
شاعروں 1
شم 1
مجد@@ 1
محدثین 1
مشق 1
n 0.07995294036298439
بنیادوں 1
تخلص 1
سکو 1
لبرل 1
مارنے 1
متح@@ 1
ً@@ 1
کلاں 1
آبنائے 1
اعلٰی 1
بدن 1
بق@@ 1
بولے 1
دستہ 1
سمتیہ 1
سپین 1
مجرم 1
نظموں 1
کیاں 1
گروو 1
اسکاٹ 1
جانسن 1
شار 1
نکالنے 1
نیر 1
ائیووا 1
ریڈ@@ 1
سنگین 1
قدس 1
مظاہرے 1
ar@@ 0.06371251582318403
lu 1
t 0.04729736666408065
آئيووا 1
آفیسر 1
ائيووا 1
افعال 1
الي 1
اين@@ 1
بوت@@ 1
تول@@ 1
حب 1
فام 1
فو 1
لارا 1
لور@@ 1
متیں 1
اندا@@ 1
حض@@ 1
خاص@@ 1
دیوں 1
فنکار 1
منص@@ 1
ناقدین 1
چال 1
گولڈن 1
ہلاکتوں 1
انقرہ 1
ستائیس 1
عنہا 1
غزہ 1
ـ@@ 1
محافظ 1
معتبر 1
ڈھانچہ 1
ڈیو 1
جنگیں 1
رومانوی 1
صفات 1
قوموں 1
لونگ 1
معانی 1
نائٹ 1
عمارتیں 1
ّت 1
کیمی@@ 1
for 0.007286078832572662
اللهٔ 1
ایٹ 1
دستوں 1
سف@@ 1
شیوں 1
صلیبی 1
عقیدے 1
فکری 1
لس@@ 1
يك 1
ٹیل 1
پولس 1
1946ء 1
1969ء 1
38@@ 1
افتخار 1
باطنی 1
توازن 1
رجی 1
رقبے 1
سراہا 1
شبہ 1
لانا 1
مقت@@ 1
مناسبت 1
نقشبندیہ 1
کلینڈ 1
0,@@ 0.4501376401856689
ارو 1
اسماء 1
بھیجی 1
جنتا 1
زہر 1
صہی@@ 1
فک 1
كون@@ 1
منظ@@ 1
نگل 1
پریم 1
گھو@@ 1
ہاتھی 1
اوز@@ 1
اٹھائیس 1
بنوں 1
تھن 1
جي 1
دیشی 1
فضیلت 1
لڑے 1
مقصود 1
کفر 1
گي@@ 1
1962ء 1
باغات 1
جمیل 1
مانند 1
1973 0.24772770320531112
k 0.08841626373276754
آئرش 1
ابواب 1
جبر@@ 1
عمل@@ 1
لاگو 1
محور 1
پنڈت 1
پڑھے 1
s@@ 0.04004459078202469
ریاض@@ 1
لوب 1
ہانی 1
1983ء 1
ak 0.20989242196512514
المر@@ 1
اونچائی 1
جرمنوں 1
خاکہ 1
عموما 1
لوس 1
مثل 1
ڈوب@@ 1
کیرلا 1
کیری 1
اسٹیج 1
بریلوی 1
جارحیت 1
حد@@ 1
رياست@@ 1
سنہری 1
طبیعت 1
عملے 1
غر 1
نوع 1
ہندو@@ 1
1917 0.3893469482142042
ازم 1
جڑے 1
زاہد 1
ظہیر 1
نال 1
وسی@@ 1
ٹھے 1
ٹینی@@ 1
چیلنج 1
ﻗ@@ 1
15.@@ 1
m 0.059341042867768465
اناطولیہ 1
ایمی@@ 1
باؤ@@ 1
رغ@@ 1
واس@@ 1
www.@@ 1
الیا 1
ریور 1
سام 1
سرفراز 1
غر@@ 1
وغ@@ 1
ٹرسٹ 1
کرسکتا 1
1920ء 1
برپا 1
جبر 1
خلق 1
سلے 1
شہرہ 1
صفوی 1
مورگن 1
موہ@@ 1
نشریات 1
همپشائر 1
ڑیوں 1
1967ء 1
ئو 1
برما 1
تان 1
جاں 1
حیران 1
زبردستی 1
سماعت 1
سوری 1
شرو@@ 1
عاشق 1
قُ@@ 1
مظاہرین 1
ممبروں 1
گزارا 1
گیمز 1
اوم@@ 1
محاصرے 1
مدراس 1
نکل@@ 1
٫ 1
کالے 1
کبھار 1
کنڈ@@ 1
گین 1
ئرز 1
بنگلور 1
جانچ 1
دکان 1
ذا 1
سینے 1
مجر@@ 1
ویٹ 1
چي 1
گزار@@ 1
النا 1
برکت 1
تنا@@ 1
ثانوی 1
جواہر 1
جول@@ 1
زیہ 1
سوس@@ 1
عبارت 1
مجاز 1
چلایا 1
چي@@ 1
گرد@@ 1
تخلیقی 1
تقاض@@ 1
حامیوں 1
لُ@@ 1
مضامين 1
ملٹن 1
وفاق 1
1940ء 1
h@@ 0.07078151725792607
احسن 1
الکریم 1
اه@@ 1
بھوپال 1
شجاع 1
ضہ 1
كيرولينا 1
يني 1
پادری 1
کاغذی 1
کافر 1
کوف 1
13,@@ 1
1954ء 1
جگر 1
ربط 1
غذا 1
قرآنی 1
مثنوی 1
پالیسیوں 1
استقبال 1
دیکھ@@ 1
فِ@@ 1
لینگ@@ 1
1956 0.29345047474051683
تات@@ 1
جلاوطن 1
جُ@@ 1
راکٹ 1
سوم@@ 1
ووو 1
پیشے 1
چون 1
ڈسٹرکٹ 1
کراس 1
b@@ 0.06203446828596429
افکار 1
المطلب 1
جتنی 1
دعوے 1
سلا 1
سورۂ 1
صفت 1
صفی 1
نُ@@ 1
وات 1
يونين 1
کفار 1
1967 0.2564930620930687
1969 0.252444092296192
اسکالر 1
خطوں 1
درختوں 1
موم 1
ولر 1
ونگ@@ 1
چھبیس 1
کاہ@@ 1
گجراتی 1
1952ء 1
اشرافیہ 1
برہمن 1
جھوٹ 1
سانس 1
فرڈ 1
محافظ@@ 1
مزدوروں 1
پوش 1
گذر@@ 1
37@@ 1
ببر 1
تصنیفات 1
سید@@ 1
طی 1
لکشمی 1
مہار@@ 1
چن@@ 1
ڈرا 1
اموں 1
انجی@@ 1
بریگیڈ 1
تصورات 1
عیسائیوں 1
لینن 1
مبار@@ 1
پیروکاروں 1
1972 0.2241786147420804
C 0.10935722937383449
ئین 1
جیتے 1
راستوں 1
ویانا 1
ڈیڑھ 1
کاربن 1
Kh@@ 0.40917277815442454
ایندھن 1
داشت 1
سلاطین 1
عسکریت 1
ملیالم 1
گوری 1
اتار 1
اعجاز 1
تبدیلیوں 1
جهٔ 1
پرنس 1
ہفتوں 1
,@@ 1
آگئے 1
بتیس 1
بڑھے 1
بھیجنے 1
جتنا 1
حات 1
دائرے 1
روئے 1
رواں 1
سالگرہ 1
سرطان 1
متعلقهٔ 1
میل@@ 1
پڑنے 1
گزر@@ 1
ہوسکتے 1
18.@@ 1
سکھر 1
مؤثر 1
میسر 1
پڑھیں 1
چونتیس 1
بیچلر 1
حریف 1
ستر@@ 1
مچھ@@ 1
نعمت 1
ولوں 1
۵@@ 1
۸@@ 1
50@@ 1
اشوک 1
ایڈمز 1
رف 1
سرما 1
سنٹر 1
عدالتی 1
غصہ 1
لَّ@@ 1
ہستی 1
ہوجائیں 1
ﺍﻭﺭ 1
اع 1
الثانی 1
حي@@ 1
سِ@@ 1
عق@@ 1
فارمی@@ 1
مشاہ@@ 1
ملاحظہ 1
گزاری 1
المص@@ 1
بتائی 1
جزیروں 1
دیوتاؤں 1
سمجھتا 1
عالی 1
علاء 1
مہمات 1
وفادار 1
ہد 1
یئ@@ 1
… 0.2822644385419394
ﺖ 1
1914 0.3631307468090134
اوت 1
تجربے 1
فوج@@ 1
ٹروں 1
ڈون 1
Airport 0.681250532528162
II 0.08951971932263109
تاریخ@@ 1
تناؤ 1
تہائی 1
جامعات 1
حسینی 1
زیر@@ 1
متوجہ 1
منحصر 1
يري 1
ٹائی@@ 1
پتھروں 1
کتاب@@ 1
اسرار 1
اوسی@@ 1
اکتیس 1
بخت@@ 1
برس@@ 1
بھری 1
خادم 1
صبر 1
لاتا 1
لق@@ 1
ٹینک 1
پری 1
پھینک 1
پیدائشی 1
چیر@@ 1
کوارٹر 1
10ء 1
a@@ 0.09862721933934973
انتیس 1
انقلا@@ 1
دانش 1
دیپ 1
ضمانت 1
غوری 1
قطع 1
مباح@@ 1
معر@@ 1
نکس 1
هِ 1
پکارا 1
چھپ 1
ڈبل 1
گانہ 1
1981 0.21815686000983386
اسٹوڈیو 1
اطمینان 1
انص@@ 1
جمع@@ 1
حادثے 1
مصالح@@ 1
میڈیم 1
1955ء 1
بالش@@ 1
تحریکوں 1
ریب 1
لٹی 1
نسلوں 1
واد 1
واٹ@@ 1
کنندہ 1
کول 1
60@@ 1
آگئی 1
اسا 1
التحصیل 1
الیاس 1
عمومًا 1
لنگ@@ 1
لوہے 1
مہاجر 1
چرز 1
ادت 1
اسسٹنٹ 1
اولیاء 1
حلف 1
فرش@@ 1
فص@@ 1
متوا@@ 1
موری 1
ٹریٹ 1
پام@@ 1
پرساد 1
کھولا 1
ارِ 1
بہرحال 1
روٹ 1
سایہ 1
سفارش 1
سلطنتوں 1
فیل 1
متوقع 1
معاش 1
نوی@@ 1
واجب 1
گوتم 1
ﻌ@@ 1
اسیر 1
اقب 1
اہلکار 1
برے 1
تمغ@@ 1
زاب@@ 1
واقعی 1
ٹنڈ@@ 1
گال 1
یونیورسٹیوں 1
ﺍﻟ@@ 1
آرٹیکل 1
اراضی 1
خبروں 1
دھر@@ 1
سواں 1
عباس@@ 1
عمارات 1
ًا 1
ٹائی 1
پروجیکٹ 1
چاہا 1
کھڑ@@ 1
3ھ 1
International 0.1387423894549402
اپن@@ 1
تقلید 1
جاندار 1
خلجی 1
دام@@ 1
دکھائے 1
ذرا 1
سیہ 1
متاثرہ 1
ڈویژ@@ 1
کروز 1
ہلاکت 1
تخلیقات 1
تفریح 1
سیاح 1
y@@ 0.07329426498248515
ایشین 1
بیماریوں 1
عطاء 1
فاسو 1
لائیں 1
لالہ 1
لغوی 1
مرثیہ 1
مینا 1
گردن 1
الڈ 1
باغ@@ 1
راد 1
فہم 1
میٹرکس 1
ناراض 1
نعم@@ 1
ورس 1
پہاڑیوں 1
سویڈش 1
شواہد 1
عہدِ 1
قے 1
مصنفہ 1
130 1
اداکاروں 1
امات 1
رجمنٹ 1
سفی@@ 1
عہدیداروں 1
مشاور@@ 1
نول 1
ٸ@@ 1
ہج@@ 1
۰ 1
1968ء 1
45@@ 1
انیا 1
سائیڈ 1
ضائع 1
لڑکوں 1
پیغ@@ 1
39@@ 1
اترا 1
خلف@@ 1
رفیع 1
سنن 1
فش@@ 1
نتیس 1
نوی 1
پڑھنا 1
گواہی 1
ہز@@ 1
آد@@ 1
الاق@@ 1
رحمان 1
ویمن 1
کروا 1
1949 0.28599301865928684
1951ء 1
ارجن 1
اسپورٹس 1
الٹ 1
ایڈمن@@ 1
تعاقب 1
جوابی 1
مك@@ 1
نگاروں 1
کاسٹ 1
کھین@@ 1
ہت 1
19.@@ 1
آرا@@ 1
بھوک 1
تال@@ 1
تجدید 1
ضلعی 1
لسانیات 1
مشورے 1
نیواڈا 1
گاہ@@ 1
اجتماع 1
انجینئر 1
اوورز 1
جھی@@ 1
حال@@ 1
خلا 1
سیت 1
سینہ 1
میئر 1
کمپلیکس 1
ہور 1
1976 0.21896406635000104
1977 0.23148548187198556
° 0.17883993668336504
اہو 1
خوب@@ 1
دریاؤں 1
ذيلي 1
رونما 1
روی@@ 1
سکر@@ 1
عمروبن 1
نیاز 1
وشنو 1
ٹھوس 1
پولش 1
پیشوا 1
کھائی 1
1946 0.26334040039975926
le 0.006610771714835561
آرا 1
الیوں 1
بکھ@@ 1
دلائی 1
ذخائر 1
رکنیت 1
طول 1
مشائخ 1
کالی@@ 1
کمر@@ 1
کونے 1
گذشتہ 1
1964ء 1
آئوٹ 1
انبیا 1
بیورو 1
دۂ 1
روش@@ 1
ریزرو 1
سائڈ 1
شہزادے 1
قدر@@ 1
مای@@ 1
مسو@@ 1
مپٹن 1
نن@@ 1
پٹنہ 1
گھنٹوں 1
ہنر 1
؁ 1
اشتراکی 1
بیوہ 1
ترویج 1
تینتیس 1
جرا@@ 1
رورل 1
زلزلہ 1
سٹری 1
عیسی 1
لکھتا 1
مقدمات 1
نقصانات 1
ﯿﮟ 1
urban 0.7619899559426294
آف@@ 1
اہوں 1
بسا@@ 1
بلوچی 1
رند 1
زمینوں 1
عون 1
كينٹكي 1
مدرس 1
مصوری 1
پالی@@ 1
کاب@@ 1
ﮑ@@ 1
ثم 1
جاب@@ 1
جاد@@ 1
حویلی 1
داخلے 1
وکمال 1
گوں 1
ہیئت 1
110 0.9818161954411326
1965 0.24556084131446018
900 1
List 0.3408856907906131
بااثر 1
دارالعلوم 1
درگاہ 1
لاگت 1
معاف 1
موصول 1
نَ 1
کینسر 1
1958 0.27194309615692897
اعزازی 1
عہ@@ 1
كر 1
كن 1
لمح@@ 1
لہجے 1
موازنہ 1
ولسن 1
ٹیلر 1
کمزوری 1
اودھ 1
حُ@@ 1
صغیر 1
لائف 1
مودی 1
چشم 1
کتابت 1
یوس@@ 1
النساء 1
بٹالین 1
بہرائچی 1
بیو@@ 1
حاضری 1
دادی 1
علیا 1
عْ@@ 1
قابلیت 1
معد@@ 1
مغلوں 1
ناممکن 1
ّے 1
پائلٹ 1
پڑوسی 1
پکڑنے 1
کلیئر 1
ہیکل 1
اظ@@ 1
اولمپک 1
اونٹاریو 1
بھیج@@ 1
توثیق 1
جیک@@ 1
شیرازی 1
لائی@@ 1
وام 1
کاظم 1
14,@@ 1
اجات 1
بارہویں 1
ثانیہ 1
كيوبك 1
نغ@@ 1
نیٰ 1
چور@@ 1
ڈا@@ 1
کلر 1
کپ@@ 1
201@@ 1
49@@ 1
kh@@ 0.24670388400198157
حسن@@ 1
دھما@@ 1
زہرہ 1
عظمی 1
میچز 1
ورتھ 1
یام@@ 1
Qeshlaq 1
ation 0.034044409571837374
اؤنڈ 1
بوٹ 1
توبہ 1
دستی 1
صنفی 1
٢@@ 1
پہلوی 1
کہتی 1
گلے 1
13ء 1
1936 0.2914397193422761
بھا 1
جلوس 1
جواز 1
خبریں 1
راحت 1
زمیندار 1
سرا 1
غنیمت 1
مخلوط 1
نیس 1
کامیڈی 1
کک 1
کیتھرین 1
آرکی@@ 1
بسم@@ 1
عم 1
كين@@ 1
مظالم 1
مٹھ@@ 1
نقشبندی 1
نٹی 1
چین@@ 1
کاٹ@@ 1
گرہ 1
1962 0.25608200145976706
آوا@@ 1
البرٹا 1
انات 1
جدول 1
حنیف 1
طرفہ 1
مدفون 1
نط@@ 1
ورے 1
پیس 1
چانسلر 1
گرفت 1
۷@@ 1
80@@ 1
جاگیر 1
سخ@@ 1
سوس 1
صدر@@ 1
نشینی 1
وخ@@ 1
ویک@@ 1
کیر 1
یونانیوں 1
65@@ 1
ایرانیوں 1
باندھ 1
تعمیراتی 1
حلال 1
ذب 1
شکوہ 1
لند@@ 1
مضافات 1
ڈیز 1
گھوڑوں 1
ہفت 1
ﺳﮯ 1
امری@@ 1
ايڈ@@ 1
شاہکار 1
موصوف 1
میموریل 1
l 0.032136725728804154
انتقام 1
بیا 1
جڑی 1
سرفہرست 1
قل 1
كہ 1
مونٹگمری 1
میٹرو 1
نچلے 1
ولِ 1
کرسکے 1
کنو@@ 1
کولی@@ 1
یال 1
یش 1
Province 0.4695353293542124
تھے@@ 1
جوڑی 1
دال 1
زخم 1
شورش 1
گوہر 1
یی@@ 1
X 0.17566131930753187
ائیو 1
اسٹاف 1
اشا 1
اضی 1
جوڑا 1
خوش@@ 1
ذو 1
سحر 1
سٹک 1
فائل 1
فقہا 1
لیبر 1
مدرسے 1
چمک@@ 1
کیرول 1
اثاث@@ 1
سيد 1
فلسفے 1
مالٹا 1
مظاہروں 1
کارہ 1
کمپنیاں 1
کیت 1
ہریانہ 1
العاص 1
بریلی 1
تیرا 1
رضاک@@ 1
سیکھ@@ 1
شف@@ 1
قاسمی 1
وزیر@@ 1
چھپا 1
یکا 1
● 1
امپھؤ 1
تاج@@ 1
خز@@ 1
دلوں 1
ریشم 1
صلی@@ 1
صومالیہ 1
لعل 1
آمد@@ 1
اسلامک 1
بای@@ 1
تالیس 1
سکو@@ 1
مانوں 1
موئ@@ 1
يل@@ 1
اعظمی 1
بھتیجے 1
تان@@ 1
جری 1
جمہوريہ 1
حنبل 1
سالم 1
ضمن 1
غزوۂ 1
ودھ@@ 1
وینا 1
پروان 1
چادر 1
کتے 1
کنز 1
یوروپی 1
O 0.11984228764348692
n@@ 0.05496133972127439
ساسانی 1
شفیع 1
عادت 1
پیسے 1
ڈروں 1
کارا 1
کمائی 1
گزارے 1
گست@@ 1
اجرا 1
ارتی 1
بہبود 1
خانم 1
ربیعہ 1
رت@@ 1
ساہیوال 1
شماریات 1
لْ@@ 1
نمون@@ 1
نکتہ 1
وفا 1
ٹیڈ 1
پھولوں 1
کیف 1
ہاک@@ 1
ﮨﮯ 1
20.@@ 1
اتھا 1
بالغ 1
ة 1
جعفری 1
خر 1
دعو@@ 1
سردیوں 1
سنبھالنے 1
فریڈرک 1
لٹل 1
مایوس 1
معزز 1
منیر 1
مید 1
وسطیٰ 1
11ء 1
16,@@ 1
ایٹم 1
جاسوسی 1
جونز 1
سٹون 1
غیر@@ 1
مادی 1
مونٹ@@ 1
نڈن 1
گاہیں 1
ہڑ@@ 1
ﺒ@@ 1
ﺧ@@ 1
Regional 0.8169526174246353
اجاگر 1
جعفرآباد 1
حادثہ 1
رفت 1
لت@@ 1
میز@@ 1
نار 1
پرندوں 1
گزرے 1
1945ء 1
امرو@@ 1
اہت 1
اینٹی@@ 1
زیرِ 1
سیکریٹری 1
لگاتے 1
نڈل 1
گھڑ@@ 1
B 0.10483277197675273
آقا 1
برکینا 1
دارا 1
دهٔ 1
غسل 1
فلاح 1
میدانوں 1
نمائندوں 1
ورن 1
کاری@@ 1
گوگل 1
یع@@ 1
U@@ 0.08324298237130887
al@@ 0.049108623973771776
g 0.0910776259922633
اکادمی 1
باطل 1
برداری 1
بکثرت 1
تنخواہ 1
جارجیائی 1
حوں 1
خطرات 1
زہد 1
سعد@@ 1
عملہ 1
عیت 1
فنکشن 1
مرمت 1
مسافروں 1
مظاہر 1
نظر@@ 1
واد@@ 1
کڑی 1
گلاب 1
یلے 1
ﻓ@@ 1
برآں 1
برن@@ 1
توہین 1
جذب 1
دھے 1
ذہبی 1
سیّد 1
عمار 1
مامور 1
مہینہ 1
نسخے 1
واسطہ 1
گوی@@ 1
ad 0.14283044970323913
آریائی 1
ائس 1
باقاعدگی 1
دیس 1
رین@@ 1
قض@@ 1
لڑ 1
ماریہ 1
مزدوری 1
منسٹر 1
منگولوں 1
میانوالی 1
نصرت 1
نيبراسكا 1
پوشیدہ 1
کہی 1
گپتا 1
ہالٹ 1
بڑھتا 1
شعبان 1
قلی 1
مختص 1
مدعو 1
معاہدوں 1
ڈگلس 1
المجید 1
انک 1
بص@@ 1
جبری 1
جمادی 1
حیاتیاتی 1
سیمی 1
لاز@@ 1
مکرمہ 1
نٹل 1
نکات 1
نیکوسیا 1
وای@@ 1
کاظمی 1
کرس@@ 1
ہدایتکار 1
1963ء 1
آفاق 1
اخ 1
اشیا 1
الرحیم 1
تلے 1
حب@@ 1
قاتل 1
مادے 1
مسلمہ 1
کزن 1
کڑ@@ 1
گري@@ 1
ھم 1
ra@@ 0.304782348796948
اسکرین 1
القاعدہ 1
انسداد 1
تائیوان 1
جمی@@ 1
حراست 1
حسینؑ 1
درا 1
دیکھنا 1
رخ@@ 1
نایاب 1
ومن@@ 1
پہل 1
یونیسکو 1
town 0.11762043253146742
بینٹن 1
ریح 1
شیلڈ 1
لاحق 1
مناظ@@ 1
میلہ 1
ہوتاہے 1
احوال 1
جاہلیت 1
دون 1
راسخ 1
زائ@@ 1
زینت 1
سیکھنے 1
مصطفٰی 1
مطالبات 1
نشستیں 1
نِ@@ 1
چتر@@ 1
چھین 1
ہلز 1
1957 0.2675864728577129
1968 0.2005447554813504
Olya 1
افتتاحی 1
تناظر 1
جوئی 1
خوبی 1
دوز@@ 1
عشر@@ 1
فاتح@@ 1
قلیل 1
موومنٹ 1
پنگ 1
کمیت 1
् 0.01411414126282441
-دے 1
آنند 1
ائي@@ 1
اسن 1
اوٹ 1
ایش@@ 1
تقرری 1
درویش 1
ساب@@ 1
فرانسس 1
مَا 1
پاگئے 1
کاشت@@ 1
کیری@@ 1
46@@ 1
اﷲ 1
توج@@ 1
رفیق 1
فائیٹ 1
فیسٹیول 1
قادریہ 1
مناف@@ 1
نسی@@ 1
وسا 1
پانچواں 1
چارج 1
کارل 1
ھن 1
178@@ 1
ادارت 1
اقلیت 1
اورنج 1
خات@@ 1
قبیلوں 1
مسٹر@@ 1
مطلع 1
منوں 1
بخشی 1
جاس@@ 1
راتی 1
عری@@ 1
فورنیا 1
نع@@ 1
وقفے 1
ویلا 1
ٹکنالوجی 1
پکوان 1
پیدل 1
گنج@@ 1
المقدس 1
خداوند 1
سست 1
مخت@@ 1
معرفت 1
منگولیا 1
میرزا 1
ڈور@@ 1
کنارہ 1
1964 0.22102689303991085
47@@ 1
ODI 1
اسماعیلی 1
تورات 1
دوا@@ 1
دیکھتا 1
سبزی 1
طالب@@ 1
عیسائیت 1
مشاع@@ 1
هم 1
چور 1
ڈیوز 1
کرشنا 1
آہنگی 1
به@@ 1
جونیئر 1
دانت 1
سیلی@@ 1
ڈالے 1
گذر 1
۴@@ 1
r 0.13531475593844658
آذ@@ 1
برباد 1
تھام@@ 1
رود 1
شام@@ 1
طبیب 1
لائق 1
پہلوؤں 1
ڈیپارٹمنٹ 1
1963 0.23675594660136512
om@@ 0.09581323100092094
ئیے 1
اوت@@ 1
اوڈیشا 1
تدوین 1
خطاطی 1
سنگھ@@ 1
طلحہ 1
عب 1
متغیر 1
مردان 1
گرنے 1
امیر@@ 1
اکابر 1
باء 1
دیہ@@ 1
زاں 1
سجدہ 1
سوریہ 1
فرمائے 1
فریدی 1
كَ@@ 1
للہ 1
مہا 1
ولز 1
ویز 1
کشی@@ 1
p 0.10558514888250949
آباد@@ 1
تھم 1
جيكسن 1
خاموشی 1
روضہ 1
زوجہ 1
ساو@@ 1
سوچا 1
لگنے 1
نشو 1
وسیم 1
پیرو@@ 1
کندہ 1
Sofla 1
es 0.01069750784947807
اکہ 1
قاصر 1
قبی@@ 1
لڑتے 1
مقناطیسی 1
موٹر 1
نوے 1
ٗ 1
چارٹر 1
گروں 1
ہیں- 1
city 0.09067143324565259
سیٹ@@ 1
لين@@ 1
ملیشیا 1
گندھ@@ 1
گولہ 1
15,@@ 1
1935 0.2985597364072563
am 0.026693141301095496
انگا 1
بلیو 1
تھام 1
سبی 1
شنکر 1
شیوخ 1
عرب@@ 1
ملاز@@ 1
مونرو 1
نعمان 1
پونے 1
چرا@@ 1
180 1
ارٹ 1
ایان 1
جیلانی 1
حر 1
خوشبو 1
داریاں 1
سامی 1
سلج@@ 1
عبوری 1
لانی 1
ماس 1
نجر 1
پیٹ@@ 1
ہیر@@ 1
1961ء 1
Ar@@ 0.07530542882016791
https 1
آئینہ 1
ائیت 1
انگو@@ 1
بجا 1
جاہ 1
حاض@@ 1
داں 1
زخ@@ 1
لیول 1
مشرکین 1
موسی@@ 1
میسور 1
نسیم 1
پٹھان 1
پٹی@@ 1
چھی 1
کمر 1
codice 1
اسٹر@@ 1
انتشار 1
بالوں 1
جارحانہ 1
راہی 1
سبق 1
لتے 1
مادری 1
نجم 1
نڈر@@ 1
وگ@@ 1
ٹوی@@ 1
ڈائری@@ 1
کھیلتا 1
گبول 1
گرمیوں 1
گریز 1
1953ء 1
اللّٰ@@ 1
اورنگزیب 1
اکثریتی 1
دائی 1
دھات 1
صحن 1
فاق@@ 1
ماء 1
مائع 1
مشہد 1
ناولوں 1
نوکری 1
کرز 1
گوس@@ 1
1943 0.21807897679069513
القادر 1
اوسط@@ 1
ایتھنز 1
بْ@@ 1
تالاب 1
تحصيل 1
سرم@@ 1
سمرقند 1
لاح@@ 1
لاگ 1
لد 1
معاوضہ 1
مٹ@@ 1
وکا 1
کونسل@@ 1
140 1
اندرون 1
بدعنوانی 1
بلال 1
خوزستان 1
ظالم 1
عا 1
فورم 1
میات 1
نٹو 1
وارد 1
کانگو 1
آئل 1
آوروں 1
انجینئرنگ 1
تحصی@@ 1
تفریحی 1
تقریبا@@ 1
راؤ@@ 1
سمتھ 1
شجاعت 1
شنگ@@ 1
صاحبزادہ 1
ضمیر 1
لیک@@ 1
محلے 1
پنچ@@ 1
1937ء 1
T 0.15863181257333114
تباد@@ 1
تکنیک 1
رگ 1
سلووینیا 1
ملحقہ 1
منانے 1
پھوٹ 1
پہنچتا 1
• 0.8136128728717973
L 0.10666086249767033
آندرے 1
امل 1
اٹھائے 1
بولر 1
بھیڑ 1
تفویض 1
ریکار@@ 1
شعیب 1
صوب@@ 1
متاثرین 1
مریضوں 1
ولس 1
170 1
g@@ 0.05027163248573806
t@@ 0.04398772591323603
بینکوں 1
سنٹرل 1
قوی 1
منتشر 1
مندروں 1
ٹیکل 1
پودے 1
چپ@@ 1
گزارنے 1
گزرا 1
گود 1
البر@@ 1
ایکسچینج 1
بش 1
بیدار 1
تاخیر 1
خاک@@ 1
دال@@ 1
دلی@@ 1
سکوں 1
شنگ 1
مرگ 1
وقی 1
ٹم 1
ﺪ 1
1935ء 1
النبی 1
اندراج 1
اوپن 1
جامع@@ 1
درمی@@ 1
عامل 1
فنکاروں 1
معص@@ 1
وث@@ 1
پرنس@@ 1
پریشانی 1
0,000 1
1953 0.2674895253358449
1966ء 1
ازبک 1
بھول 1
بینی 1
شق 1
فضائل 1
قرہ 1
وران 1
پرفارمنس 1
ہینری 1
ینہ 1
ﻦ 1
آری@@ 1
ارکنساس 1
باش@@ 1
بیج 1
جذباتی 1
طیارہ 1
عر 1
عمو@@ 1
فیت 1
لینڈز 1
منور 1
نکلتا 1
ٹیمیں 1
کوو 1
الناس 1
انفنٹری 1
جارہی 1
خون@@ 1
ستے 1
سینیٹ 1
شوال 1
ضا 1
طیاروں 1
فیئر@@ 1
لٹ@@ 1
مرجع 1
کروانے 1
کشف 1
الب 1
شَ@@ 1
طبی@@ 1
عاصم 1
فلپ 1
قبلہ 1
معطل 1
میراث 1
ودی@@ 1
وہب 1
پروپی@@ 1
ﯼ 1
Maz@@ 0.7486046806699255
ئى 1
اپور 1
ایڈز 1
تس 1
شیخوپورہ 1
نسبتا 1
ٹریفک 1
پھیلانے 1
کت 1
ہما@@ 1
آخر@@ 1
ارباب 1
استعفیٰ 1
اسپیکر 1
الیگزینڈر 1
اوقیانوس 1
اہداف 1
باریک 1
تفتیش 1
سامعین 1
شاخوں 1
شرم 1
صر@@ 1
علاقهٔ 1
عوں 1
مامون 1
معاصر 1
ملائ@@ 1
ناجائز 1
پاپوا 1
ژو 1
گُ@@ 1
ہرا@@ 1
3,0@@ 1
رحمتہ 1
روانی 1
شنا@@ 1
فلٹن 1
مقبوضہ 1
ودی 1
کارٹون 1
کیم@@ 1
کیمیا 1
Central 0.1940327651368834
o 0.02740853958548772
اسامہ 1
اینی@@ 1
تلنگانہ 1
دانشور 1
ریج 1
عوف 1
مام@@ 1
منطق 1
ندیوں 1
نسل@@ 1
وڑ 1
ڈھان@@ 1
ڈھوک 1
کرپ@@ 1
کوسٹ 1
گردوں 1
ﺕ 1
اھ@@ 1
خیالی 1
دوس 1
سنبھالی 1
صارف 1
فیات 1
كلي@@ 1
مش 1
گواہ 1
1957ء 1
آہ@@ 1
ترکیب 1
حت 1
خرابی 1
خریدا 1
دھر 1
رنگین 1
قي@@ 1
لنا 1
مجموع@@ 1
مخاطب 1
وتھ 1
۶@@ 1
ing 0.01770982696662731
ابات 1
اٹھاتے 1
ایجنٹ 1
جانشی@@ 1
دھوکا 1
رح 1
شم@@ 1
شناس 1
مرتفع 1
ممل@@ 1
نتھ 1
پروفی@@ 1
پھیلے 1
کریمیا 1
ﻡ 1
ایات 1
برانچ 1
بناتی 1
جتوئی 1
حن@@ 1
ختی 1
رائٹ 1
رْ@@ 1
زبرگ 1
سدھنوتی 1
سٹار 1
قلندر 1
مجسمے 1
ملیں 1
ویکی 1
چائ@@ 1
کتنی 1
یب 1
ابدالی 1
ادریس 1
اشخاص 1
البی@@ 1
بخت 1
بھارتیہ 1
تھوڑے 1
حتیٰ 1
داعی 1
روایتوں 1
رچلینڈ 1
سرحدیں 1
صحافیوں 1
قلات 1
ورکس 1
ٹلینڈ 1
پگھ@@ 1
ہادی 1
160 1
احتمال 1
اعت 1
اقدس 1
برتری 1
تھری 1
جارہا 1
جزو 1
حفاظتی 1
خیمہ 1
دوپہر 1
دھماکا 1
فیکلٹی 1
موس 1
میڈل 1
نسبتاً 1
نقاب 1
وقتی 1
ویلی@@ 1
پتلی 1
پي 1
پٹھ@@ 1
کنونشن 1
ہنگامی 1
199@@ 1
آمیز 1
ابویوسف 1
القاسم 1
ایر@@ 1
باکو 1
ترجمے 1
تعزی@@ 1
خا 1
سردی 1
عیہ 1
قال 1
لبرٹی 1
لوئیس 1
لگانا 1
مفصل 1
موز@@ 1
مين@@ 1
نائجیریا 1
ومن 1
گھاس 1
ﺁ@@ 1
2022ء 1
du 0.009202906837884838
بعد@@ 1
بين 0.8402422502003112
بہر 1
جدی@@ 1
جوانوں 1
دیہاتوں 1
صی 1
قربان 1
مروی 1
مشتاق 1
وئ@@ 1
واپ@@ 1
ویچ 1
ٹینس 1
ہون@@ 1
یتیم 1
یکجا 1
1937 0.25967546364491795
اشاع@@ 1
اینڈرسن 1
بھرا 1
تنوع 1
جوی@@ 1
خَ@@ 1
راگ 1
زیل 1
غان 1
فاس@@ 1
قوت@@ 1
ليے 1
مصدر 1
منقطع 1
نشانات 1
وطہ 1
پخت@@ 1
کانسی 1
ہیٹ 1
101 1
68@@ 1
برک 1
بندہ 1
جاپ@@ 1
ربی@@ 1
طب@@ 1
فرقوں 1
لیون@@ 1
نگہ@@ 1
کردستان 1
کرکٹرز 1
کہکش@@ 1
گاڑیاں 1
1951 0.26993968581742933
استونیا 1
الك@@ 1
انضمام 1
بستیوں 1
خدیجہ 1
طاری 1
نوآبادیات 1
کِ 1
اسکی@@ 1
اعلا@@ 1
بوی@@ 1
تشویش 1
ثناء 1
جری@@ 1
حلب 1
دیکھو 1
شد 1
فریم 1
قلعوں 1
ماموں 1
نشستوں 1
وثی 1
ﺎﺭ@@ 1
1952 0.24412664102174464
6ھ 1
70@@ 1
بنادیا 1
ترکمانستان 1
جوڑ@@ 1
خزانے 1
خوانی 1
دربار@@ 1
لارنٹ 1
مقالے 1
نتی@@ 1
وتوں 1
َا 1
ٹین@@ 1
کھدائی 1
کیریبین 1
اجتہاد 1
احتیاط 1
ادیا 1
اعانت 1
بیڈ@@ 1
دکھ 1
رائی@@ 1
ریپبلکن 1
شفقت 1
شہز@@ 1
لبری@@ 1
کنبہ 1
گانوں 1
1932ء 1
ch@@ 0.040777995738538096
تیہ 1
خودمختاری 1
سْ@@ 1
سیم 1
قا 1
نازک 1
یہ@@ 1
حل@@ 1
ذہ@@ 1
ذہانت 1
ریم 1
غیاث 1
قارئین 1
كري@@ 1
مطبوعہ 1
نصیحت 1
٣@@ 1
کوالا 1
اندازی 1
انکو 1
تحریریں 1
حماد 1
صاب@@ 1
ناد 1
واح@@ 1
1959ء 1
350 1
ااور 1
ربہ 1
روت 1
زي 1
عليہ 1
قطعی 1
مرح@@ 1
نشی@@ 1
یزی 1
ﮦ 1
ﻧﮯ 1
1912 0.3173272537880699
1959 0.23072248146195012
Republic 0.28864328858506116
p@@ 0.04641383696367909
ابہ 1
املاک 1
تاثر 1
تغلق 1
ریات 1
سیکڑوں 1
عاب@@ 1
عبدالقادر 1
معذ@@ 1
ورِ 1
ویسٹ@@ 1
ڈڈسمنٹ 1
گریٹر 1
گیتوں 1
ہلا@@ 1
1857ء 1
1938 0.2280119020404745
بہرام 1
جرات 1
حنفیہ 1
دہائي 1
دیاں 1
رنگوں 1
سمو@@ 1
محفل 1
ومہ 1
گڈ@@ 1
گیارہویں 1
1944ء 1
63@@ 1
اتي 1
اشک@@ 1
اینجلس 1
بسٹر 1
تربیتی 1
تفریق 1
رایا 1
زنی 1
سنگم 1
سہرا 1
شوق@@ 1
فرانسسکو 1
لاء 1
مثالی 1
مستحق 1
مسکن 1
1936ء 1
1961 0.22142514531203306
o@@ 0.05174909209947979
اشتراک 1
جنی@@ 1
حصار 1
سد 1
سروسز 1
فیڈرل 1
مصور 1
معاذ 1
نگوں 1
چوٹ 1
ڈار 1
ڑھا 1
ہڑتال 1
1938ء 1
20ء 1
v@@ 0.06945372843744575
اصط@@ 1
بننا 1
بیریا 1
دئے 1
ذوالفقار 1
سفلی 1
مقالات 1
نیند 1
پلان@@ 1
ڈائی@@ 1
ہنی 1
یحیی 1
20,@@ 1
us 0.04664406229593338
آرائی 1
ائ 1
الذ@@ 1
بندر@@ 1
جاپانیوں 1
دماغی 1
رسل 1
طبق@@ 1
متص@@ 1
وفاداری 1
ينڈ 1
کھیلتی 1
گراں 1
ہنگامہ 1
am@@ 0.06782343575505276
العابدین 1
اندی@@ 1
سلسل@@ 1
سیارہ 1
عدل 1
عُ@@ 1
فریق 1
محترمہ 1
نب@@ 1
ولن 1
وکی 1
گائی@@ 1
ہمدان 1
یان@@ 1
1933 0.2430183419546302
44@@ 1
ادر 1
ارتھ 1
اسٹھ 1
اوزار 1
تیا 1
حسين 1
خودکار 1
لڑکیاں 1
لگتے 1
مآخذ 1
ملحق 1
نکولس 1
ویسے 1
ٹریک 1
چھاپ@@ 1
ہیل 1
یکے 1
17,@@ 1
T20I 1
j 0.2882693682540091
k@@ 0.05263124521894577
بخوبی 1
بنارس 1
ترکستان 1
جِ@@ 1
سٹو@@ 1
فلک 1
قمری 1
لوی@@ 1
متوسط 1
منصف@@ 1
منقول 1
وامی 1
پران 1
ہیریسن 1
ﻮ 1
198@@ 1
ad@@ 0.058063050964882575
http 1
الطاف 1
ایٹ@@ 1
باہم 1
بوب@@ 1
جملے 1
دستبردار 1
روف 1
ریٹ@@ 1
سیکھا 1
شاه 1
شخصی 1
قدرے 1
لسن 1
لمپور 1
مہاراجہ 1
ناقص 1
ناٹ@@ 1
ٹیو@@ 1
ڈانس 1
ڈیوس 1
1954 0.23744241893954132
5ھ 1
N 0.1786091752054487
البانیا 1
امکانات 1
اٹلان@@ 1
اہلکاروں 1
باع@@ 1
بھرو@@ 1
تیونس 1
زاویہ 1
سندھ@@ 1
سوامی 1
صوف@@ 1
علموں 1
فٹ@@ 1
وض@@ 1
يس@@ 1
پزیرائی 1
گرمائی 1
گوشہ 1
ﺍ 1
1921 0.3057350910241687
amp 0.054079360843561054
اردگرد 1
حدیثیں 1
خورشید 1
شہباز 1
طبری 1
مؤرخین 1
معل@@ 1
ڈیزائ@@ 1
گوب@@ 1
67@@ 1
المح@@ 1
امریکن 1
اُٹھ@@ 1
بلديہ 1
جلوہ 1
حدی@@ 1
حنیفہ 1
زکو@@ 1
سوان@@ 1
ندوں 1
نسٹ 1
پاتا 1
III 0.16707915531501924
ارتق@@ 1
ایمر@@ 1
تجزی@@ 1
تشخیص 1
تنہائی 1
خضر 1
سٹریشن 1
سہل 1
شیل 1
قاعدہ 1
مانگ 1
منت@@ 1
مکالم@@ 1
مینڈ@@ 1
واج@@ 1
پالی 1
ڈاؤن 1
el@@ 0.042953691202303614
in@@ 0.02986534976099246
اولا@@ 1
توڑنے 1
خارجی 1
خواص 1
صَ@@ 1
علیؓ 1
فنا 1
لاؤ@@ 1
موصل 1
پنجم 1
پکڑے 1
کنگز 1
کَ@@ 1
کیمیاء 1
گرلز 1
ۡ@@ 1
اسکندریہ 1
اعتدال 1
الک 1
بازی@@ 1
ترمذی 1
خوشحالی 1
رال 1
ساہتیہ 1
شاد@@ 1
فساد 1
كركٹ 1
نوف@@ 1
پیسہ 1
55@@ 1
75@@ 1
؍ 1
ابھر@@ 1
اصلاحی 1
بعہ 1
بہا 1
ثیت 1
حمی@@ 1
دآباد 1
داریوں 1
سیستان 1
شاست@@ 1
عاد 1
فیملی 1
قاف@@ 1
لدھی@@ 1
متوں 1
مشی@@ 1
نڈم 1
پیٹری@@ 1
کیمرون 1
1942ء 1
8ھ 1
المبارک 1
انخلا 1
بلاشبہ 1
توم@@ 1
حت@@ 1
خودکشی 1
زائرین 1
زبی@@ 1
صدی@@ 1
لتی 1
لوپ 1
مقدم 1
نسائیت 1
ویاں 1
وینس 1
کلیم 1
کوچنگ 1
کیل@@ 1
ہراس@@ 1
ہیل@@ 1
177@@ 1
\ 0.9504022289179845
آبا@@ 1
ئہ 1
تابع 1
تجھ 1
سیری@@ 1
طیب 1
لکھنوی 1
لیکچ@@ 1
نانک 1
وبہ 1
پٹن 1
پیں 1
چارہ 1
گھانا 1
ہڈی 1
اندر@@ 1
انواع 1
بادل 1
تجرب@@ 1
جڑ 1
خواندگی 1
سٹائل 1
سیاں 1
فتہ 1
فیکٹری 1
قران 1
لوٹ@@ 1
مدا@@ 1
مینجمنٹ 1
نارتھ@@ 1
نبھایا 1
ڈان@@ 1
کتنے 1
گي 1
ہمسایہ 1
یوراگوئے 1
‏ 1
V 0.14741292534601408
اریاں 1
اسٹریٹجک 1
اندرا 1
انفارمیشن 1
ایشی@@ 1
تسا 1
دب@@ 1
شیئر 1
طاہ@@ 1
فاسٹ 1
پدم 1
گیندیں 1
باً 1
بلخ 1
تنظیمیں 1
خلاء 1
شرقی 1
طیف 1
قاب@@ 1
مراعات 1
وائے 1
پاؤ@@ 1
پبل@@ 1
پت@@ 1
پہچ@@ 1
کوت 1
23.@@ 1
Sainte 0.7246464689668732
آراستہ 1
ثقافتوں 1
جذ@@ 1
حسنی 1
ذبح 1
ذہین 1
فتویٰ 1
لارڈز 1
لوٹا 1
ماج@@ 1
مانچسٹر 1
منز@@ 1
منٹو 1
پيري 1
پکار@@ 1
کتوں 1
گشت 1
گوریلا 1
باط 1
تحفہ 1
تون 1
سیار@@ 1
میسن 1
پروا@@ 1
ڈاکٹریٹ 1
ڈرل 1
ہمالیہ 1
1931ء 1
59@@ 1
اجرت 1
بتاتا 1
ساختہ 1
سرنگ 1
سیس 1
كرا@@ 1
پوٹ@@ 1
۲ 1
176@@ 1
1928ء 1
58@@ 1
E 0.1432952607426781
اقی 1
خصوصا 1
خوفناک 1
زنج@@ 1
عائ@@ 1
علیٰ 1
فس 1
فلاحی 1
قان 1
معراج 1
ورز 1
پردے 1
پروٹسٹنٹ 1
1966 0.1913035117819899
بیلاروس 1
دریں 1
سائے 1
سروں 1
لوگن 1
ميري 1
نات@@ 1
پروین 1
پینس@@ 1
ڈرن 1
ڈزنی 1
ڈیس 1
ڈیوک 1
کاشی 1
کریٹ 1
کوی 1
کیش 1
$ 0.07321841439977493
r@@ 0.044146265663238864
ابا 1
اتوار 1
اوصاف 1
تور 1
جزی@@ 1
جنا 1
خریداری 1
خوشگوار 1
راً 1
رویے 1
سینڈ@@ 1
شیراز 1
لنگر 1
معاونت 1
نث@@ 1
نْ 1
یٹ 1
ﻞ 1
آتش@@ 1
البانی 1
بہتا 1
ثن@@ 1
خاصا 1
دیواریں 1
رر 1
سنجیدہ 1
سیراب 1
عصری 1
نجیب 1
ونیو 1
ٹرمپ 1
پولی 1
کہا@@ 1
گھون@@ 1
یوکرائن 1
اظہر 1
اقلیتوں 1
بتوں 1
بذریعہ 1
ترسیل 1
تھل 1
دارانہ 1
سالی 1
قسمیں 1
يز 1
ٹور 1
گزرتا 1
ہارڈ 1
ہیری 1
105 1
Dar@@ 0.3068148677362736
sh@@ 0.0760607374287418
ارتک@@ 1
اساط@@ 1
الیک@@ 1
ایڈمرل 1
بابو 1
بتا 1
برطان@@ 1
بھوٹان 1
زگور@@ 1
سٹیشن 1
شرک 1
ضعیف 1
قیم 1
لیات 1
مسيسپي 1
پرندے 1
چوہ@@ 1
کردیتے 1
کرچکے 1
کھایا 1
ہمدانی 1
یلا 1
175@@ 1
21.@@ 1
اشتہ@@ 1
الفر@@ 1
بھگوان 1
تارا 1
تقرر 1
خانی 1
خزاں 1
راجن 1
ریف 1
سادگی 1
عبدالح@@ 1
محب 1
نارائن 1
ﻮﮞ 1
21@@ 1
24.@@ 1
30ء 1
ائش 1
ائیر@@ 1
الہی@@ 1
بتاتی 1
بریک 1
تند@@ 1
جال@@ 1
جہنم 1
رياست 1
ضاب@@ 1
قلت 1
ماہانہ 1
يان 1
ٰۃ 1
پسماندہ 1
کچر 1
ابوب@@ 1
اسمتھ 1
اسٹائل 1
اسپن 1
اوول 1
بدوش 1
بوئ@@ 1
تبلیغی 1
خص@@ 1
رود@@ 1
كل 1
ناز@@ 1
نح@@ 1
نوشتہ 1
ڈیٹ 1
کینڈا 1
125 0.9715979801036452
1929ء 1
1955 0.22481869897405768
انعامات 1
بنگ 1
بورن 1
تبص@@ 1
تحف@@ 1
جرنیل 1
دلہن 1
زرخیز 1
زنا 1
سیکولر 1
صدام 1
لگتی 1
مالیہ 1
نعرہ 1
واسطے 1
ویسٹرن 1
کلچر 1
گھٹ@@ 1
1921ء 1
1922ء 1
1934ء 1
D 0.10932327139419297
ed 0.019919946901030154
بھان@@ 1
زرتش@@ 1
سویل 1
شاع@@ 1
قافلہ 1
قومیت 1
لطیفہ 1
ماننا 1
محصول 1
مشر@@ 1
مطلوبہ 1
منتظم 1
میو 1
وست@@ 1
پای@@ 1
چشتیہ 1
ڈوب 1
گرمین 1
ھائی 1
102 1
c@@ 0.04726758812925417
التا 1
الرا@@ 1
بچایا 1
بہنے 1
ثالث 1
حاتم 1
خودمختار 1
سرکردہ 1
فصیل 1
وعد@@ 1
ٹوکیو 1
چاریہ 1
ڈیاں 1
ژ 1
ہمدر@@ 1
ہنس 1
ہولی 1
4ھ 1
7ھ 1
اعضاء 1
اناج 1
انفرا@@ 1
تاس@@ 1
ذمے 1
لودھی 1
مطمئن 1
میشن 1
نشاندہی 1
نصی@@ 1
نفیس 1
ونڈوز 1
پروڈیوس 1
کرافورڈ 1
یونی 1
القادری 1
بیداری 1
تاشقند 1
جانبدار 1
زیشن 1
طلائی 1
طنز 1
فکشن 1
لیث 1
نویسی 1
وکے 1
ویا 1
چنگ@@ 1
کیک 1
گھوڑا 1
یاسر 1
57@@ 1
Al@@ 0.06358885446519276
اتو 1
باس 1
بھگت 1
تمھ@@ 1
درن 1
سنتے 1
صنع@@ 1
غی 1
محص@@ 1
منیسوٹا 1
نفوس 1
وزیراعظم 1
چھاپے 1
کتنا 1
کرامت 1
کروائے 1
197@@ 1
آبادیوں 1
ائیل 1
ابادی 1
الاز@@ 1
انسی 1
اولڈ 1
اوکاڑہ 1
اینٹوں 1
برخلاف 1
تام@@ 1
توت@@ 1
رتن 1
شاپور 1
شعل@@ 1
فرمائیں 1
نمٹنے 1
وظیفہ 1
ٹریننگ 1
ٹرینی@@ 1
1919ء 1
1934 0.2503584661509894
22.@@ 1
el 0.004579461237553742
آکسیجن 1
استح@@ 1
انا@@ 1
دنیاوی 1
شہد 1
لاؤ 1
لوڈ 1
نوک 1
نگران 1
وسکی 1
ٹرانسپورٹ 1
پچھلی 1
ڈسن 1
گوری@@ 1
اجسام 1
اینگ@@ 1
بشپ 1
دورِ 1
عتی@@ 1
قار@@ 1
متوازی 1
نبھ@@ 1
نقوش 1
کپڑا 1
2,8@@ 1
66@@ 1
الاع@@ 1
دقی@@ 1
راجیہ 1
زگ@@ 1
سٹری@@ 1
مایوسی 1
وامي 1
وجا 1
گھڑی 1
2,5@@ 1
اجر 1
انوالہ 1
باگو 1
بٹھ@@ 1
تجھے 1
جوب@@ 1
خوشحال 1
سپاہ 1
سگ@@ 1
شاعرہ 1
مزاح@@ 1
وکی@@ 1
چھٹے 1
ہوجانے 1
18,@@ 1
with 0.005481517110422232
اركنساس 1
البانیہ 1
بوری 1
بڑھی 1
بیکر 1
تعل@@ 1
جمشید 1
زمیند@@ 1
سیاستدان 1
فرانسیسیوں 1
وحدت 1
ووا 1
ى@@ 1
پتھ@@ 1
کاش 1
کتب@@ 1
کندھ@@ 1
ہرن 1
ہیلتھ 1
1924ء 1
1932 0.26226364807976144
Mar@@ 0.06737762835741
اح 1
بحق 1
برائ@@ 1
جاو@@ 1
داماد 1
رسوم 1
رضامندی 1
روہ 1
ستلج 1
سراغ 1
سلسلۂ 1
سماع 1
عباسیہ 1
عروہ 1
مذاق 1
منشیات 1
موج@@ 1
واز 1
ولادی@@ 1
پائیں 1
پلو@@ 1
ڈونلڈ 1
کروا@@ 1
.. 0.4658582864002295
99@@ 1
ate 0.03612190339102025
احمر 1
اونچا 1
جرسي 1
جڑ@@ 1
ختہ 1
سائنسدانوں 1
سٹریٹ 1
قر 1
مانی@@ 1
محراب 1
مصطفیٰ 1
نکا 1
ولي@@ 1
يش@@ 1
ٹیکنیکل 1
پکڑا 1
پہننے 1
ڈول 1
ڈول@@ 1
کارنامے 1
کرسمس 1
آپؒ 1
استاذ 1
الشیخ 1
اوق@@ 1
برائی 1
جماعتیں 1
روانڈا 1
سانحہ 1
سکہ 1
فاق 1
لانڈ@@ 1
متفقہ 1
نحو 1
نخ@@ 1
ولي 1
پاشی 1
گیتا 1
m@@ 0.05035756146615373
اریہ 1
ترانہ 1
حکومتیں 1
دلکش 1
رہم 1
علیحدہ 1
مفسرین 1
مکتبہ 1
ناس 1
وسٹا 1
چورا@@ 1
کشمکش 1
گارڈن 1
گیاں 1
ہاڑی 1
Bot 1
ارستان 1
الائ@@ 1
الرزاق 1
تلقین 1
حاد@@ 1
ریڈی 1
صوفیہ 1
غنی 1
قامت 1
ماہر@@ 1
نغمے 1
194@@ 1
25.@@ 1
الٰ@@ 1
بشر 1
بغدادی 1
دلا@@ 1
دوستانہ 1
صفدر 1
عقی@@ 1
فیئرفیلڈ 1
متضاد 1
نیوٹن 1
ّا 1
ٹیو 1
پلانٹ 1
یوتھ 1
یوگوسلاویہ 1
آرمینی 1
آگاہی 1
آہنگ 1
افت@@ 1
اکرام 1
بارود 1
بمقابلہ 1
بیجنگ 1
تعصب 1
جیش 1
غیب 1
مددگار 1
نسائی 1
وري@@ 1
پک 1
l@@ 0.041226340641840914
اہلسنت 1
بندوں 1
تانبے 1
جلا@@ 1
حبشہ 1
خض@@ 1
دشت 1
دلیپ 1
فرش 1
فقی@@ 1
لڑائیوں 1
معلم 1
ممنوع 1
موتی 1
مہر@@ 1
نظرانداز 1
يُ@@ 1
چیچنیا 1
ڈیشن 1
کبڈی 1
گزی@@ 1
ہینکوک 1
ﭼ@@ 1
اخبار@@ 1
اطلا@@ 1
افی@@ 1
الوہاب 1
بطن 1
بہنوں 1
خزرج 1
رچمنڈ 1
سیان 1
صداقت 1
صہ 1
عدالتوں 1
عزی@@ 1
مقررہ 1
نافع 1
نوش 1
نڈا 1
ٹينيسي 1
ڈھونڈ@@ 1
کلمات 1
کوالیفائر 1
کیمپوں 1
Region 0.25417905106965105
re@@ 0.01957498237046345
آکس@@ 1
ائف 1
اقلیتی 1
الوی 1
بقا 1
جیٹ 1
رجحانات 1
سٹا 1
سیدھے 1
مثلًا 1
منو@@ 1
موق@@ 1
میلے 1
نواح 1
وضو 1
گیر@@ 1
ہیرا 1
ﺯ@@ 1
1926ء 1
R 0.1149336608123595
f 0.11770044688273314
آدھی 1
ابیہ 1
بیٹھنے 1
تعظیم 1
تے@@ 1
دانشوروں 1
سانپ 1
سترہویں 1
سجادہ 1
عبدالملک 1
معمر 1
موسمی 1
نوج@@ 1
ورثے 1
پائن 1
پرائیویٹ 1
ڈوس 1
ڈھائی 1
یانگ 1
1913 0.3027346309915332
ay 0.12517661428123772
برانڈ 1
تزئین 1
خوارزم 1
دخ@@ 1
رموز 1
ریلی 1
زمانۂ 1
سہارنپور 1
سیاحتی 1
سیاروں 1
شاہین 1
صرا@@ 1
صنعتوں 1
فرہ@@ 1
والم@@ 1
کیلی@@ 1
کیلے 1
گمان 1
یَ@@ 1
۱۹@@ 1
آند@@ 1
امانت 1
امنی 1
انار@@ 1
اکنام@@ 1
اگیا 1
بیٹیوں 1
تاتار 1
جتنے 1
حسی@@ 1
عالمي 1
فیر 1
چناب 1
یاء 1
z 0.07956431350216636
احتج@@ 1
ادویات 1
اوّل 1
بخار@@ 1
بشارت 1
بع 1
طلوع 1
لڑا 1
ٹيك@@ 1
چود@@ 1
کوم 1
کھنڈ 1
یی 1
90@@ 1
ur@@ 0.07056374766487326
الیکٹران@@ 1
تلا 1
خودی 1
خوشاب 1
ذرات 1
سوئٹزرلینڈ 1
سوئی 1
ليا 1
معائ@@ 1
ندوۃ 1
ٹائٹل 1
چھا 1
ژن 1
کہلائے 1
ہارٹ 1
۱ 1
1922 0.2659730242343844
1927ء 1
An@@ 0.053230918195926256
انوار 1
اوک 1
اپر 1
بزر@@ 1
بیٹ@@ 1
حوال@@ 1
خورد 1
خٹک 1
روایتیں 1
رور@@ 1
علیہم 1
عِ@@ 1
مشتق 1
معمار 1
ملایا 1
پلاٹ 1
پُر 1
ڈرو 1
کٹرز 1
آسٹریلین 1
اذان 1
اردو@@ 1
الوج@@ 1
اندھی@@ 1
بھار@@ 1
بہنیں 1
ترے 1
تلو@@ 1
حجاب 1
حری@@ 1
سیاس@@ 1
شادیاں 1
صن@@ 1
مشترک 1
مفاد 1
مقد@@ 1
مندی 1
منز 1
مِنْ 1
مکرر 1
مہتمم 1
ڈرز 1
کامیابیوں 1
ہزار@@ 1
ﻲ 1
1923ء 1
1941ء 1
آنسو 1
ابوالحسن 1
اقرار 1
برادریوں 1
داللہ 1
درسگاہ 1
دلانے 1
شیائی 1
شیما 1
عظمیٰ 1
فلاں 1
فيئر@@ 1
مائیکرو@@ 1
منہاج 1
نعتیہ 1
نیپالی 1
وؤں 1
ڈیلٹا 1
کامران 1
۳ 1
امیدواروں 1
برق 1
بیڑا 1
جرائد 1
راؤنڈ 1
سہروردی 1
متنوع 1
میگ@@ 1
نَّ@@ 1
نٹی@@ 1
گند@@ 1
گوم@@ 1
ﻴ@@ 1
ازدواجی 1
الحسین 1
اوا@@ 1
بھا@@ 1
ثقہ 1
قازق 1
لیڈی 1
ندھ@@ 1
نقد 1
نوس 1
پہنچتی 1
ڈویلپمنٹ 1
کولا 1
19,@@ 1
220 1
9ھ 1
آسمانی 1
ادم 1
الٹی 1
بدای@@ 1
جہیز 1
زاہ@@ 1
زروی@@ 1
قضا 1
قیمتوں 1
مادر 1
میان@@ 1
ويسٹ 1
چٹان 1
174@@ 1
27.@@ 1
ابل 1
ادبیات 1
ادیبوں 1
اشارے 1
امتزاج 1
بام@@ 1
بیح 1
تئیس 1
تہذیبی 1
حے 1
زویل 1
سبی@@ 1
سنہ@@ 1
سٹس 1
سیکنڈری 1
فرینک 1
فصلوں 1
منت 1
ناش@@ 1
ڈاڈ 1
کوریائی 1
۹@@ 1
انتظامات 1
اڑا 1
جریدے 1
ذوال@@ 1
ساگر 1
شیواجی 1
فال 1
مانسہرہ 1
ہات 1
یوحنا 1
ﮨﻮ@@ 1
108 1
2,6@@ 1
240 1
5000 1
امدادی 1
اڈوں 1
براؤ@@ 1
بچی 1
تیرہویں 1
جذبے 1
جلی 1
جیکٹ 1
خوار@@ 1
رستم 1
ستی@@ 1
سینی 1
قدیمی 1
نیٹو 1
چغتائی 1
کاٹنے 1
کرائ@@ 1
کھیتی 1
ﮐﺎ 1
1931 0.25555955943076536
ارادے 1
اساس 1
اقب@@ 1
ایڈیلیڈ 1
بخش@@ 1
تاثیر 1
تعمیل 1
جنیوا 1
سمر@@ 1
طاق@@ 1
لار 1
مرہٹہ 1
مزہ 1
مشرقي 1
مطابقت 1
میٹ 1
ناص@@ 1
نثار 1
نَّ 1
کرین 1
2,4@@ 1
43@@ 1
Kandi 1
آرٹسٹ 1
بتائے 1
توق@@ 1
جاگ@@ 1
جمعرات 1
حز@@ 1
رائی 1
طر 1
مارٹل 1
معز@@ 1
موج 1
ناگپور 1
ٹھہ 1
ڈائی 1
ڈنٹ 1
کھلا@@ 1
کیوبیک 1
ہم@@ 1
ﻢ 1
1933ء 1
2,7@@ 1
JarBot 1
اعدادوشمار 1
برززن@@ 1
دانہ 1
روپ@@ 1
سچائی 1
كن@@ 1
لگاتار 1
مجیب 1
نیکی 1
پانڈ@@ 1
پچھ@@ 1
ڈاٹ 1
ینے 1
آمنہ 1
ئیس 1
القدر 1
اناؤ 1
تِ@@ 1
حجت 1
شایع 1
لائسنس 1
ماڈلنگ 1
منگل 1
میامی 1
والح@@ 1
وور@@ 1
ویدک 1
ٹھو@@ 1
چوڑائی 1
کٹس 1
i@@ 0.05612406423715879
بھرے 1
خانق@@ 1
سوز 1
عک@@ 1
فوٹو 1
فہ@@ 1
قف 1
لانچ 1
لَا 1
لیب 1
مانگی 1
مير 1
وين 1
پوم@@ 1
ڈٹ 1
کنو 1
ہیومن 1
Bar@@ 0.09341144945650558
آرائش 1
انیں 1
بدقسمتی 1
بندوق 1
بہم 1
حساس 1
راجپوتوں 1
رینی 1
سنے 1
ضابطہ 1
غت 1
فنان@@ 1
كام@@ 1
لیلی 1
مایہ 1
مبلغ 1
مکران 1
ٹیبل 1
کرسکتی 1
کھنڈر 1
گاری 1
گنگ 1
یارکشائر 1
ﷲ 1
104 1
ur 0.1489440088285006
اجل 1
اٹھانا 1
بھٹ 1
ثعلبہ 1
جند@@ 1
حافظہ 1
خدشہ 1
ستیہ 1
صلا@@ 1
فیصلوں 1
لوگو 1
مجاہ@@ 1
منڈل 1
نباتات 1
پود@@ 1
پھیلنے 1
کتابی 1
کھیلنا 1
ہمدردی 1
ہُ@@ 1
اخلاقیات 1
اك 1
بھکر 1
تھو 1
داہ 1
دھم@@ 1
ذخی@@ 1
سپلائی 1
قسط 1
قصیدہ 1
مئ@@ 1
مالی@@ 1
مانگ@@ 1
ماچ@@ 1
مجتہد 1
مهٔ 1
وزڈن 1
وینزویلا 1
چینگ 1
ڈومینیکن 1
کررہی 1
کمپیو@@ 1
1939ء 1
اکس 1
تجاویز 1
جار 1
جسامت 1
زاوی@@ 1
صفہ 1
فز@@ 1
قافلے 1
لڑاکا 1
مرتک@@ 1
مردانہ 1
مفاہ@@ 1
ونَ 1
پہنچتے 1
چھاپہ 1
کلائ@@ 1
کوئینز 1
ہوشی@@ 1
یونٹوں 1
F 0.11969800977315377
G 0.13324116404940314
بوسٹن 1
جالندھر 1
جک 1
جھنڈے 1
دري@@ 1
سوز@@ 1
فیئرویو 1
قرضوں 1
قصر 1
ليس 1
مہلک 1
نَا 1
وارانسی 1
ومِ 1
ٓ@@ 1
کتا 1
کرسکیں 1
کنڑ 1
گلہ 1
گنیز 1
یونائیٹڈ 1
1929 0.2272299291757721
2,9@@ 1
آلو 1
ادراک 1
العین 1
ایمپ@@ 1
حا 1
خوں 1
رسد 1
زیورات 1
فاؤن@@ 1
فول@@ 1
كَ 1
مکھی 1
میدانی 1
ناف 1
نستعلیق 1
ٹانگ@@ 1
پرور@@ 1
ڈرامائی 1
ڈپلو@@ 1
کررہا 1
یمنی 1
1914ء 1
Iowa 0.5766505770019611
ائب 1
ابوس@@ 1
استوار 1
البرٹ 1
انط@@ 1
تھانہ 1
سیکر@@ 1
غصے 1
قت@@ 1
كت 1
ناظرین 1
نگو 1
ها 0.6867982303971979
وارا 1
وزراء 1
ویژ@@ 1
ٹویا 1
پان 1
چرچل 1
چمپ@@ 1
ڈونگ 1
کز@@ 1
ﻝ 1
193@@ 1
California 0.127077702244796
er@@ 0.028946555056845465
باڈی 1
بلدی@@ 1
عان 1
عبدالمطلب 1
علامتی 1
غربی 1
قومي 1
لنک 1
لکیر 1
مشاہدات 1
مضبوطی 1
مم@@ 1
نہر@@ 1
٠@@ 1
ٹام 1
چیل@@ 1
کثافت 1
کردیتا 1
115 1
as@@ 0.051186360476220126
اعتراضات 1
اپوزیشن 1
اۃ 1
ایشز 1
بالٹک 1
بلو 1
درپیش 1
دنیائے 1
ربن 1
صحی@@ 1
طفیل 1
طیبہ 1
فقط 1
لنگٹن 1
منزلیں 1
مۃ 1
والی@@ 1
چری 1
کاؤ@@ 1
کٹک 1
ہدایتکاری 1
1917ء 1
78@@ 1
اشتہارات 1
اصد 1
اونی 1
بدنام 1
توی 1
دائر@@ 1
دروازوں 1
راف 1
عَلَ@@ 1
قان@@ 1
معالج@@ 1
نسر 1
نیول 1
واق@@ 1
ورو@@ 1
پہنا 1
کلیسی@@ 1
یائے 1
ﺤ@@ 1
190 1
are 0.011512917844115863
آلپ 1
افسروں 1
الث@@ 1
اورحضرت 1
بندوبست 1
تبتی 1
تحقی@@ 1
حفیظ 1
رشد 1
ستوں 1
سنایا 1
شوگر 1
شکاگو 1
عدنان 1
عنو@@ 1
لتھو@@ 1
میٹنگ 1
کانیں 1
کرایہ 1
کردیئے 1
کھجور 1
کیشنز 1
ہان@@ 1
ہما 1
ہوی 1
56@@ 1
on@@ 0.0414419288652878
آرک@@ 1
باڑی 1
جس@@ 1
ریٹائرڈ 1
سچے 1
صوفیا 1
عمیر 1
فریضہ 1
ماریا 1
منصف 1
منہدم 1
ونت 1
چائنا 1
چیوان 1
گزرتی 1
1925ء 1
· 0.06649250389265744
آئرن 1
آركنساس 1
آزمائش 1
ائیے 1
اٹھارویں 1
اکلو@@ 1
ترجم@@ 1
تونس 1
جاسکتے 1
حْ@@ 1
دوم@@ 1
رج 1
رینہ 1
صاحبِ 1
فرخ 1
قادی@@ 1
لبن@@ 1
لنڈ@@ 1
لوا 1
مالیت 1
نبرگ 1
ٹریڈ 1
پڑھایا 1
کووڈ 1
100@@ 1
NA 0.8141618076378555
South 0.06265623020601604
آدھے 1
ايل 1
بخار 1
بصیرت 1
سوچ@@ 1
شفیق 1
شکلوں 1
فجر 1
مضافاتی 1
معذور 1
منبر 1
پرتاپ 1
پرہ@@ 1
ڈوں 1
کماری 1
گراڈ 1
یۃ 1
ﺎﻧ@@ 1
1924 0.2356958815617066
1943ء 1
ani 0.15584926310727726
ia 0.05693992582501371
العل@@ 1
بایزید 1
تشہیر 1
خندق 1
دوڑ@@ 1
دکھانے 1
رضاکارانہ 1
ساہ@@ 1
سیو 1
شوٹنگ 1
شيخ 1
صالح@@ 1
صور 1
صور@@ 1
طف@@ 1
قرطبہ 1
قي 1
ملتانی 1
میلا 1
نہاد 1
نہيں 1
ينگ 1
پرامن 1
پینل 1
ڈھیر 1
کشیدگی 1
کمونے 1
کوفی 1
ہلکی 1
ہندوستانیوں 1
یقیناً 1
130@@ 1
54@@ 1
ir 0.11314232415782456
آمدات 1
اسناد 1
برفانی 1
بور 1
تخت@@ 1
تریا 1
جانبد@@ 1
جمہوری@@ 1
حذی@@ 1
ذائقہ 1
رم@@ 1
روزمرہ 1
رینج 1
زنجی@@ 1
سوتی 1
شعبۂ 1
طبعی 1
عرس 1
فرنس@@ 1
لفظوں 1
لیو@@ 1
متنازعہ 1
واٹر@@ 1
پیچھا 1
پیچی@@ 1
کھیتوں 1
ہاؤ@@ 1
‍ 1
1500 0.6240706387235707
195@@ 1
آداب 1
آراء 1
اصفہانی 1
اله@@ 1
انگو 1
جریدہ 1
خونی 1
دبانے 1
روح@@ 1
رونا 1
سٹین 1
شتر 1
فلسطینیوں 1
كتاب 1
لکی 1
مترادف 1
مشنری 1
مڈوے 1
نایا 1
ونیت 1
ينَ 1
اتباع 1
المعارف 1
امتحانات 1
اکر@@ 1
بحي@@ 1
بز 1
تالوں 1
تمغے 1
طائف 1
فلوريڈا 1
مداف@@ 1
معارف 1
میلان 1
ناگ 1
والیہ 1
وين@@ 1
ََ 1
ٹھہرا@@ 1
کاک 1
کردوں 1
یوٹیوب 1
64@@ 1
Haj@@ 1
اللَّ@@ 1
بارڈر 1
باش 1
باہ 1
تساب 1
ثقل 1
حاملہ 1
سٹل 1
غریبوں 1
قرار@@ 1
قصے 1
لب@@ 1
محكمہ 1
میکس 1
وقفہ 1
يد 1
ٹیپو 1
پرت@@ 1
پسندانہ 1
ہدی 1
ہسپانویوں 1
یوکری@@ 1
106 1
آرگنائزیشن 1
اینڈریو 1
جسٹ 1
حارثہ 1
رحمانی 1
ردعمل 1
سائیکل 1
سیالوی 1
سیکشن 1
شیشے 1
طبر@@ 1
فلسفیانہ 1
كُ@@ 1
نش 1
پلٹ 1
پہلوان 1
ڈاکٹروں 1
کھینچ 1
کیسل 1
گھا@@ 1
اداک@@ 1
ارشد 1
اسکے 1
المق@@ 1
اونچے 1
بدترین 1
جنوں 1
خُ@@ 1
داستانوں 1
رہو 1
ستھ@@ 1
سمجھنا 1
ضخ@@ 1
ضیا 1
ظات 1
فرات 1
فرمان@@ 1
مطالعات 1
٩@@ 1
پارے 1
چنگیز 1
گلستان 1
گنڈا 1
ﻼ@@ 1
👈 1
155 1
1912ء 1
360 0.9607843686154265
ارون 1
اُن@@ 1
جزيرہ 1
حاوی 1
داست@@ 1
دران 1
رائٹس 1
ربا 1
رکنی 1
سخی 1
شوز 1
لیف@@ 1
مماثلت 1
مورس 1
مہاتما 1
میرٹھ 1
نیلی 1
پہا@@ 1
کمرہ 1
ﺗﮭ@@ 1
94.@@ 1
اسکو@@ 1
اوپری 1
جعلی 1
خریدنے 1
درستی 1
ریاضت 1
سولو 1
صحرائے 1
عتبہ 1
محمدی 1
مرغ@@ 1
مصیبت 1
نگھم 1
وزی@@ 1
وطی 1
٢ 1
پیشرفت 1
چھٹا 1
گجر 1
107 1
114 1
Minnesota 0.43156188392823613
افری@@ 1
الحرام 1
الم 1
تمیم 1
جیانگ 1
خروج 1
درجنوں 1
رعایا 1
روزے 1
رومانی 1
فرح 1
قرب 1
محتاط 1
نامکمل 1
نانی 1
ٹري@@ 1
ٹڈ 1
کاپی 1
گارڈ@@ 1
گراہم 1
گوش 1
ید@@ 1
109 1
235 1
it 0.010106393236527728
ئیم 1
اسٹری@@ 1
انڈرگراؤنڈ 1
تیزاب 1
جانداروں 1
جین@@ 1
خم 1
دادو 1
دب 1
سادھ@@ 1
علالت 1
فاف 1
ماؤ 1
معام@@ 1
يني@@ 1
ڈیفنس 1
۵ 1
112 1
امپائر 1
اڑیسہ 1
تھلگ 1
حالت@@ 1
ریکارڈنگ 1
طان@@ 1
لمحہ 1
مجالس 1
پذیری 1
گذرے 1
گناہوں 1
117@@ 1
25,@@ 1
450 1
at@@ 0.049914908597173124
f@@ 0.03585792689665959
أت 1
ارض@@ 1
اونٹ@@ 1
ایلی 1
برڈ 1
تاتاری 1
تحصیلوں 1
تہذیبوں 1
جلسہ 1
سوراخ 1
شہزاد 1
غذائی 1
فان@@ 1
لاہوری 1
مملوک 1
پشتون@@ 1
پنڈی 1
کاؤ 1
یع 1
28.@@ 1
آبادکاری 1
آسو@@ 1
ائٹ 1
اسٹڈیز 1
السّلام 1
املا 1
انسائیکلوپیڈیا 1
بلوم 1
بوٹ@@ 1
بچاؤ 1
بیروت 1
جست@@ 1
خالصہ 1
دہند@@ 1
روانگی 1
رکوع 1
سڑ@@ 1
سیداں 1
شبلی 1
طوسی 1
عدلیہ 1
فتو@@ 1
مبصرین 1
معقول 1
میون@@ 1
نجد 1
پابندیوں 1
پولو 1
یقینا 1
1918ء 1
des 0.0036818682240499253
آئلینڈ 1
افہ 1
التے 1
انگلی 1
اولمپ@@ 1
بھڑ@@ 1
تعجب 1
خانیوال 1
راشدی 1
رانہ 1
شکلیں 1
فائی 1
پسپا 1
چھپی 1
ہرہ 1
w@@ 0.045878863136310725
اقتب@@ 1
اندوز 1
انسپکٹر 1
اِسے 1
اٹھے 1
اہلیت 1
بسا 1
بنگلا 1
به 1
تعری@@ 1
جنید 1
حسد 1
خواہشات 1
دائے 1
دک 1
سلطنت@@ 1
سپرنگ 1
سیون 1
شیفیلڈ 1
طریق@@ 1
عتی 1
فہر@@ 1
قاتی 1
محاور@@ 1
واضع 1
وٹو 1
ٹرائے 1
کالجوں 1
commune 0.08164335433628532
ابنِ 1
اِن@@ 1
ایکسپ@@ 1
تالیفات 1
جید 1
شعر@@ 1
صوتی 1
ممبران 1
منگٹن 1
نووڈ 1
وعہ 1
پرائز 1
پہچانا 1
چاکر 1
چز 1
کولمبس 1
ہٹانے 1
128 1
اخلا@@ 1
امپیریل 1
اوتار 1
بخود 1
بروک 1
بفیلو 1
جھارکھنڈ 1
جیتی 1
حصّہ 1
صدقہ 1
كرو@@ 1
متھ@@ 1
محک@@ 1
ملر 1
نفی 1
ٹرانس 1
پد@@ 1
پرکاش 1
پیا 1
چھوڑے 1
کیلنڈر 1
گرجاگھر 1
ہرگز 1
124@@ 1
اجمیر 1
الحارث 1
الکبیر 1
انچارج 1
خا@@ 1
زرداری 1
سمند@@ 1
سمٹ 1
عماد 1
قائدین 1
قح@@ 1
مارکی@@ 1
مستعفی 1
منظوم 1
مڈ 1
نریندر 1
والیس 1
ٹیس 1
پطرس 1
چرو@@ 1
کاتھولک 1
کسر 1
کوہستان 1
گاروں 1
ہلیری 1
32@@ 1
آو@@ 1
ابِ 1
اصناف 1
الرحم@@ 1
اوند 1
ایریا 1
برہم 1
بنک 1
تاث@@ 1
تمباکو 1
تنزانیہ 1
توسط 1
جیا 1
خال@@ 1
رسن 1
صل 1
صورتوں 1
مدتی 1
مروجہ 1
مہاراج 1
واب 1
ٹھہر@@ 1
پروٹوکول 1
پست 1
پوشی 1
پیارے 1
کرۂ 1
گیور@@ 1
یق 1
ﮐﺮ@@ 1
ﻥ 1
1908ء 1
23,@@ 1
Qar@@ 1
en@@ 0.023723391607464596
آجائے 1
ارنے 1
ارو@@ 1
اوكلاہوما 1
اوپننگ 1
بًا 1
تاجک 1
رقاص@@ 1
سرب 1
سینما 1
شادیوں 1
ضمنی 1
طباعت 1
عقلی 1
ماف@@ 1
محکمے 1
منائی 1
منبع 1
واقفیت 1
وعظ 1
ٹومب 1
پس@@ 1
چیمپیئن 1
گلوکاروں 1
ھوں 1
ہارٹ@@ 1
1915ء 1
اض 1
التو 1
جھنڈا 1
دبا 1
درجن 1
دکھا 1
شیروں 1
فارسٹ 1
فضاء 1
قاجار 1
قع 1
لعنت 1
ماسٹرز 1
ميڈي@@ 1
نوٹس 1
نکی 1
ٹکڑوں 1
پہن 1
چنا@@ 1
ڈارون 1
کوہاٹ 1
گود@@ 1
ہوت 1
ہیا 1
ہیو@@ 1
اشاریہ 1
باں 1
ثے 1
خراسانی 1
دبا@@ 1
ریشن 1
شعب@@ 1
صحیفہ 1
طریق 1
كشن 1
لگاؤ 1
مسودہ 1
ملاپ 1
منج@@ 1
ولوجی 1
وُ@@ 1
پاتی 1
پاپ 1
پیشاب 1
کرک 1
گرل 1
گرین@@ 1
53@@ 1
x@@ 0.10185553932235718
اسلح@@ 1
الض@@ 1
اپا 1
بتدریج 1
برطرف 1
بستر 1
تمنا 1
دائر 1
رسول@@ 1
سائیں 1
عزاداری 1
علمبر@@ 1
غزلیں 1
فریقین 1
فہمی 1
لادن 1
موس@@ 1
میونسپ@@ 1
نون@@ 1
واڑ 1
ٹیں 1
پندرہویں 1
پکا 1
چرل 1
کاراب@@ 1
کانپور 1
کوئنز 1
103 1
126 1
3000 0.719221056776222
ab 0.06361486298970738
آئر 1
آبادي 1
احم@@ 1
الرحمہ 1
بھلا 1
بہاؤالدین 1
بیور 1
تمدن 1
ثالث@@ 1
دريا 1
رشوت 1
سنجر 1
سنٹ 1
صفین 1
طواف 1
مشابہت 1
منزلہ 1
واٹ 1
ٹیل@@ 1
ڈھال 1
گلزار 1
گھرا 1
114@@ 1
ic 0.06388252898225051
اسکوا@@ 1
افغانی 1
المؤمنین 1
اکائیوں 1
تسخیر 1
ریست@@ 1
شخ@@ 1
شي 1
فلمس@@ 1
مدح 1
نوشی 1
وتہ 1
وسٹن 1
پہنے 1
چمک 1
چُ@@ 1
کپڑوں 1
۴ 1
196@@ 1
ów 0.6194477455516841
اسٹیل 1
ايك@@ 1
ایڈ 1
بھگ@@ 1
تشبیہ 1
دگار 1
رؤ@@ 1
روزگاری 1
سرٹی@@ 1
سمر 1
سنان 1
طالبات 1
فرضی 1
قرأت 1
مزارات 1
مفسر 1
ممانعت 1
مویشی 1
مویشیوں 1
نامزدگی 1
وفضل 1
ہاک 1
er 0.006846355553985299
ol 0.1407970610526259
الاش@@ 1
ایلیٹ 1
جمالی 1
دالہ 1
شاعرانہ 1
صابر 1
مخط@@ 1
مسن 1
مشابہ 1
وارسا 1
وبائی 1
وزرائے 1
ووس@@ 1
پنڈ 1
کاتب 1
ہائیڈروجن 1
ہڈسن 1
116@@ 1
1915 0.2616345723426858
es@@ 0.038708504263333436
آرزو 1
ارس@@ 1
استعم@@ 1
افادیت 1
تقویٰ 1
روزویلٹ 1
زہ@@ 1
ساؤ 1
سیک@@ 1
صفیہ 1
فالز 1
فرحت 1
مديرية 1
نقشے 1
وراڈو 1
ورما 1
پير@@ 1
ڑیا 1
کارانہ 1
کریاں 1
کلثوم 1
گزین 1
گیلری 1
یابی 1
یول 1
ﺎﻥ 1
116 1
2.5 0.930628605143009
21,@@ 1
76@@ 1
79@@ 1
98@@ 1
M 0.10928940881398896
احاطے 1
باک 1
جاؤں 1
جمنا 1
درباری 1
روبی 1
زع@@ 1
سبرگ 1
ستگی 1
سلطانہ 1
سڑکیں 1
شہنش@@ 1
عبدالحمید 1
فصی@@ 1
فیچر 1
قطعہ 1
مبارکہ 1
متون 1
مودودی 1
مُ 1
نووی 1
چوتھائی 1
ہوائي 1
29.@@ 1
ICC 1
آرمینی@@ 1
ادر@@ 1
استعفی 1
باج@@ 1
جیب 1
روکنا 1
زنگ 1
شانہ 1
شتی 1
على 0.12600982114952358
غداری 1
فیفا 1
لاڑکانہ 1
مٹ 1
نواحی 1
وتو 1
وجوہ 1
ٹوپی 1
چٹانوں 1
ڈسپ@@ 1
کامرس 1
کھانوں 1
گرس 1
122 1
26.@@ 1
260 1
that 0.005492814462580703
ئیل 1
احباب 1
افزائ@@ 1
ايئر 1
باطن 1
جوار 1
جڑیں 1
حوزہ 1
دھول 1
رانجھا 1
روہ@@ 1
طار 1
مجوزہ 1
مرہٹوں 1
مسر@@ 1
منڈے 1
نیش 1
کریڈٹ 1
گائوں 1
گھڑ 1
ہڈیوں 1
ﺍﺱ 1
124 1
165@@ 1
22,@@ 1
ؤڈ 1
اتراکھنڈ 1
ایوان@@ 1
بیاہ 1
بیلی 1
بیمار@@ 1
تعامل 1
رمز 1
ريس 1
سیکی@@ 1
شاب@@ 1
طورپر 1
طہ@@ 1
لهٔ 1
نيك@@ 1
ٹوئ@@ 1
پابندیاں 1
پارسی 1
چڑیا 1
129 1
ag@@ 0.05267361835594053
ابوحنی@@ 1
اکٹھے 1
بائیکاٹ 1
بزرگوار 1
تحائف 1
تحویل 1
حاشیہ 1
داود 1
دھوپ 1
ریک 1
صوفیانہ 1
عمرہ 1
فیف 1
كولمبيا 1
كُمْ 1
پٹیل 1
پھلوں 1
کھولی 1
کیرو@@ 1
برابری 1
برتاؤ 1
برنز@@ 1
تسل@@ 1
جامی 1
حرکات 1
راکی 1
رساں 1
سائبیریا 1
غیرت 1
لۂ 1
مختص@@ 1
مقدسہ 1
ملانے 1
هُ@@ 1
وفیات 1
ولٹ 1
ویلنگٹن 1
ٹرون 1
پومیرانیان 1
کانام 1
گریس 1
گزرتے 1
یدہ 1
166 1
280 1
74@@ 1
railway 0.21181426130323297
آق@@ 1
انیت 1
بھ 1
بھتی@@ 1
بینی@@ 1
تعلقہ 1
خاصہ 1
دھار 1
سوب@@ 1
شباب 1
ظاہ@@ 1
غارت 1
قِ 1
لوئی 1
محم@@ 1
مْ@@ 1
نات 1
وائسرائے 1
ورت 1
يون 1
پائیدار 1
پروگرامنگ 1
پریری 1
پوٹی@@ 1
کامی@@ 1
کمب@@ 1
کوالی@@ 1
ہیکٹر 1
135 1
88@@ 1
آبا 1
النسل 1
الوجی 1
تدبیر 1
تفہیم 1
حسرت 1
خدائی 1
خرد 1
دج@@ 1
ساحہ 1
ستیں 1
فتاویٰ 1
لیف 1
منڈ@@ 1
میکان@@ 1
ندگان 1
نسو@@ 1
نمائی 1
واست@@ 1
وك 1
پاکپتن 1
پلس 1
H 0.15236779453897387
S 0.09398708575038758
ul@@ 0.059385716195229706
اچی@@ 1
تقاریب 1
تمغہ 1
جعفراباد 1
رش 1
سمن@@ 1
علمِ 1
قرب@@ 1
قزوین 1
مکالمہ 1
میرپور 1
نقطۂ 1
نوائے 1
نڈہ 1
پوک 1
چاہیں 1
چوہان 1
کمالات 1
کھولنے 1
ہیڈکوارٹر 1
یکجہتی 1
164@@ 1
ab@@ 0.03308976932620013
י@@ 1
ادیں 1
افغانوں 1
المسلمین 1
برہان 1
جملوں 1
خلو@@ 1
درک 1
روحانیت 1
ريك@@ 1
سقوط 1
قطار 1
مراہ 1
مساب@@ 1
وفی 1
يوسف 1
ٹھٹہ 1
کلیہ 1
ﷺ@@ 1
121 1
آث@@ 1
الار@@ 1
اللہ@@ 1
اونٹوں 1
ایج@@ 1
بدر@@ 1
بیلجیم 1
جمیکا 1
جنا@@ 1
جوابات 1
خالہ 1
دانی@@ 1
ساؤ@@ 1
سٹوڈیو 1
شاکر 1
فرشتہ 1
قیوں 1
لیبار@@ 1
متا@@ 1
مشاہیر 1
معبود 1
نف 1
نمو 1
پورم 1
پیٹرو@@ 1
کاتا 1
کنواں 1
کوٹی 1
کپاس 1
کیتھی@@ 1
ھویں 1
ہید 1
1857 0.5894769211372425
320 1
U 0.09166894895809202
Y 0.2210302012391685
آشنا 1
ابان 1
ادو 1
اقامت 1
اقتصادیات 1
بہاول@@ 1
تصادفی 1
جلتی 1
جڑا 1
حاج@@ 1
ریش@@ 1
زہری@@ 1
سیکٹر 1
شائقین 1
شبیر 1
عینی 1
قبولیت 1
مشتعل 1
مچ@@ 1
نتیج@@ 1
نکلتی 1
ونز 1
ونہ 1
پاکیزہ 1
چاڈ 1
کمبو@@ 1
یخ 1
175 1
1916 0.25790571449208294
آستانہ 1
ادیوں 1
بسنے 1
بمب@@ 1
تاکید 1
تنظی@@ 1
جرو@@ 1
جریر 1
خبردار 1
دھیان 1
سرسید 1
سواروں 1
شتوں 1
صاحبزادی 1
صغ@@ 1
لط@@ 1
لووی@@ 1
مسرت 1
مطالب@@ 1
میرین 1
مینٹ 1
ناظ@@ 1
ڈرائی@@ 1
ڑي 1
ہلاکتیں 1
132 1
210 1
De@@ 0.09283112225482097
آوری 1
اسپر@@ 1
اوے 1
بکری 1
بیویوں 1
جھٹ@@ 1
دانت@@ 1
عس@@ 1
علاؤ 1
فف 1
لح 1
لول 1
ماحولیات 1
ماڈ@@ 1
نيا 1
واش@@ 1
وني 1
ونگسٹن 1
پارٹ@@ 1
پگ@@ 1
ڈرائیور 1
گوس 1
1.5 0.7706521959440162
115@@ 1
230 1
270 1
29,@@ 1
87@@ 1
آک@@ 1
انیات 1
بمقام 1
بیاء 1
تلی 1
حقی@@ 1
داڑھی 1
دق 1
قنا@@ 1
قونصل 1
لیوس 1
مرسر 1
نعرے 1
يت@@ 1
پاناما 1
پرتھ 1
پیادہ 1
چوان 1
کرانی 1
کیمس@@ 1
گڑھی 1
گھس 1
ہران 1
ہيمپشائر 1
170@@ 1
18ء 1
1923 0.2187184363725588
آپریٹنگ 1
اجمل 1
اربعہ 1
العظ@@ 1
انٹرٹینمنٹ 1
انٹیلی 1
اوور@@ 1
اوکس@@ 1
اٹل 1
اپی@@ 1
اگلا 1
ایلس 1
برتنوں 1
بلوچوں 1
بندے 1
جلیں 1
زریں 1
مبرگ 1
متقی 1
مسم@@ 1
نابینا 1
ناپید 1
ولینڈ 1
پارٹیوں 1
پاگل 1
پکڑ@@ 1
چوکی 1
ہنٹ@@ 1
یاری 1
120@@ 1
ءکو 1
اسکالرز 1
الین 1
اچ 1
بالہ 1
تعدد 1
تنا 1
تواریخ 1
جھيل 1
حلیف 1
خودکش 1
درود 1
دشوار 1
سلفی 1
سٹرڈ 1
سیب 1
شیریں 1
صاحبز@@ 1
فراموش 1
فیاض 1
قالین 1
قربت 1
لائیڈ 1
لکش@@ 1
لیلیٰ 1
نافرمانی 1
نکاراگوا 1
نگیں 1
وزیرستان 1
ووٹوں 1
ٹیمپ@@ 1
پرستش 1
چول@@ 1
کرافٹ 1
ﺠ@@ 1
Ali 0.36415060380351866
ł@@ 0.32881023465084497
اسکالر@@ 1
اکیلے 1
برنار@@ 1
توس@@ 1
ثواب 1
حلیم 1
خانیت 1
دورانیہ 1
ديش 1
صحافتی 1
قند@@ 1
لوہا 1
ملنا 1
مولی 1
وانگ 1
وانیا 1
وینی 1
ٹوبا 1
ٹھنڈا 1
ٹھی@@ 1
پرائ@@ 1
کھون 1
گولیاں 1
ہاتھ@@ 1
یوروپ 1
اجماع 1
اسکرپٹ 1
اسکوائر 1
الیکٹرک 1
ایری@@ 1
بیب 1
جند 1
خو 1
رائن 1
شاپ 1
عہدیدار 1
فتا@@ 1
ملالہ 1
مندوں 1
نوابی 1
نواں 1
وبی@@ 1
ورق 1
ولین 1
پڑھانے 1
چٹاگانگ 1
کالونیوں 1
ہست@@ 1
ﺅ@@ 1
1926 0.20677549173128357
3,5@@ 1
اجزا 1
الحک@@ 1
امار@@ 1
امي 1
اکمل 1
بارٹن 1
بالع@@ 1
برمنگھم 1
دہندگان 1
رد@@ 1
زد@@ 1
سنچریوں 1
ظہر 1
فخر@@ 1
قِ@@ 1
لہر@@ 1
معدوم 1
مورا@@ 1
میدی 1
نووا 1
ّد 1
پسند@@ 1
پڑھاتے 1
ڈالتے 1
ڈرڈ 1
کتہ 1
گوپال 1
117 1
160@@ 1
1906ء 1
is@@ 0.046959608102806756
u@@ 0.055728276478454346
الاعتقاد 1
انحراف 1
تقدیر 1
جلسے 1
سپرنگز 1
سچ@@ 1
شہی@@ 1
عي@@ 1
مجلس@@ 1
ٹائن 1
چیانگ 1
ڑک@@ 1
Township 0.3480281066543744
was 0.0022618701565831493
ابت@@ 1
اعشار@@ 1
التی 1
الخلافہ 1
اورینٹل 1
بالی@@ 1
بغاوتوں 1
تاک@@ 1
جلی@@ 1
جیوں 1
خلل 1
خوفزدہ 1
دیگرے 1
زیرقیادت 1
سرہندی 1
فعالیت 1
مثال@@ 1
مظلوم 1
منیلا 1
نبات@@ 1
ندي 1
يز@@ 1
پرہیز 1
پیئ@@ 1
کنویں 1
یونیور@@ 1
ﺩ 1
1900 0.2186875541281503
الوا 1
ایڈور@@ 1
بالواسطہ 1
تجاوز 1
رہائ@@ 1
ریپ@@ 1
سائنس@@ 1
ساجد 1
سبکدوش 1
ستار 1
معتدل 1
وپ@@ 1
کاز@@ 1
یزد 1
ﮐﻮ 1
192@@ 1
19ء 1
24,@@ 1
69@@ 1
اترے 1
تائی 1
دانِ 1
دنا 1
راہب 1
رحلت 1
ستور 1
سلجوق 1
طاس 1
فتوی 1
فقدان 1
مصرو@@ 1
مناف 1
وسیلہ 1
پیکر 1
چھاؤنی 1
ڈیکی@@ 1
ہتھ@@ 1
ہود 1
ہویں 1
ﮏ 1
140@@ 1
3,6@@ 1
3,8@@ 1
Martin 0.13696051035453827
um 0.02355441292110791
اسمِ 1
انسٹی@@ 1
بحر@@ 1
بنام 1
حاجت 1
ساسک@@ 1
شاذ 1
شت@@ 1
شتہ 1
شیلبی 1
صوم@@ 1
مؤلف 1
مشروط 1
کشور 1
کلین 1
ﮕ@@ 1
ﮞ 1
111 1
144 1
1916ء 1
77@@ 1
ology 0.11163114725046906
اشترا@@ 1
المج@@ 1
انچ@@ 1
انھ@@ 1
اوج@@ 1
ترک@@ 1
خوآن 1
رحم@@ 1
رچر@@ 1
سنکی@@ 1
ٹاریو 1
گزینوں 1
۷ 1
123 1
K 0.12140738097794769
os@@ 0.058586059450206424
un@@ 0.021167708358313473
آٹھ@@ 1
اخان 1
الوداع 1
انڈونی@@ 1
بپ@@ 1
جراث@@ 1
جماع@@ 1
رجال 1
رضوان 1
طبع@@ 1
طرابلس 1
لائبری@@ 1
لغاری 1
مجتہ@@ 1
معتمد 1
موافق 1
يكا 1
کہو 1
113 1
118 1
137 1
26ء 1
آؤ 1
آسم@@ 1
ئرو@@ 1
اتب 1
الفضل 1
برخ@@ 1
ختر 1
خرم 1
داران 1
دوروں 1
ربان 1
شطرنج 1
عبرت 1
مازندران 1
پسپ@@ 1
ڈمین 1
یحی@@ 1
ﺻ@@ 1
26,@@ 1
ari 0.19503148902967057
آرٹ@@ 1
اختصار 1
الغ 1
سہر@@ 1
لاپتہ 1
لر@@ 1
منو 1
میٰ 1
پرو 1
کہلا@@ 1
گوال@@ 1
المال 1
حِ@@ 1
شفا 1
شق@@ 1
غروب 1
مبا@@ 1
مراقبہ 1
مصائب 1
وبر@@ 1
وینیا 1
پریش@@ 1
ڈیموکری@@ 1
138 1
4,0@@ 1
se@@ 0.0633432816212744
حنا 1
ريا 1
سنو 1
صبا 1
ضوابط 1
فلورنس 1
قرم 1
ماور@@ 1
نجوم 1
هُمْ 1
يران 1
131 1
150@@ 1
ایکس@@ 1
سلور 1
لل 1
مؤخر 1
منہ@@ 1
ُّ@@ 1
145 1
بریگی@@ 1
تائ@@ 1
حائل 1
حسین@@ 1
سلاسل 1
فردوس 1
قصد 1
مرث@@ 1
da 0.028451239590457793
na 0.057432265776475575
ارون@@ 1
اعتقاد 1
شغف 1
عمال 1
غضب 1
مباد@@ 1
متنا@@ 1
مورو 1
ٹرول 1
چودھ@@ 1
ہمی@@ 1
85@@ 1
community 0.10630534069700844
poem 0.531491525795807
آنس 1
اران 1
افسر@@ 1
باق 1
بسم 1
درجات 1
رازی 1
زرد 1
لاو 1
وصف 1
چوب@@ 1
ﻘ@@ 1
750 0.9116781716315807
North 0.062127713140063164
تاريخ 1
تبع 1
شعاع@@ 1
عثمانؓ 1
مبا 1
مثلث 1
منشور 1
نسا 1
وع 1
کارکن@@ 1
ہمس@@ 1
330 1
Khan 0.4046744267703466
territorial 0.8941014321263506
é 0.02418260325553086
استغ@@ 1
انتق@@ 1
باتی 1
ربت 1
متن@@ 1
ناسا 1
ڈیوں 1
کٹو 1
142 1
City 0.051004346852501006
entity 1
les 0.005728869640567356
اختلا@@ 1
الاب@@ 1
ایاں 1
بالاد@@ 1
جوا 1
حمد@@ 1
غرنا@@ 1
لغات 1
نیدر@@ 1
ونو 1
ٖ@@ 1
ڪ@@ 1
ہین 1
۶ 1
119 1
27,@@ 1
region 0.11154905985793903
تبر@@ 1
حمام 1
رچ@@ 1
شمع 1
فاش@@ 1
مباحث 1
نسخ@@ 1
اتفاق@@ 1
انیان 1
ایجو@@ 1
داغستان 1
داً 1
سنجی@@ 1
سپورٹ 1
طغرل 1
عضو 1
فریڈ@@ 1
واقع@@ 1
وتر 1
وود@@ 1
133 1
3,7@@ 1
Qal@@ 1
ak@@ 0.06900325149401772
ka 0.0815682877723407
ابتد@@ 1
درج@@ 1
مشغ@@ 1
واع@@ 1
گولی@@ 1
134 1
86@@ 1
P 0.11052187629048893
اطفال 1
ايس 1
لاب 1
مصلح@@ 1
ﻻ@@ 1
1,000 0.6434040317177088
28,@@ 1
3,9@@ 1
ئرنگ 1
حیدر@@ 1
ضر 1
طس 1
فید 1
مخلص 1
میٹر@@ 1
12ء 1
1878 0.3919832869297903
1905 0.22791921721325073
az@@ 0.09737572628711653
الات 1
بط 1
ته@@ 1
زمان@@ 1
لاش@@ 1
مہاراش@@ 1
نصر@@ 1
1910 0.20199314545396777
ابع 1
الدو@@ 1
المش@@ 1
توس 1
شرق 1
غاس@@ 1
فوس@@ 1
کارپو@@ 1
17ء 1
1925 0.19029925803621
205 1
or@@ 0.03335616121251259
ot@@ 0.048823073505195644
العار@@ 1
بروس 1
حسان 1
حوص@@ 1
سلو 1
طاعون 1
طل 1
ملو@@ 1
موجو@@ 1
from 0.0051507697045941525
اختراع 1
سرائی@@ 1
سعيد 1
سوشل@@ 1
قسمتی 1
قطر@@ 1
مذہ@@ 1
نری@@ 1
ڈش 1
203 1
X@@ 0.08683490071989458
ah@@ 0.10331785488520655
آذرب@@ 1
اسب 1
افل 1
دوار 1
طا 1
غذ@@ 1
ــ 1
مانس 1
وکٹو@@ 1
۸ 1
un 0.003992719686223781
ارہویں 1
اسو 1
ترن 1
تنے 1
حوا@@ 1
سرز 1
سرچ 1
محلات 1
وانات 1
پرتگ@@ 1
یتی@@ 1
192 1
1927 0.18627565080122802
As@@ 0.10208676940883588
ו@@ 1
ارك 1
جدت 1
داغ@@ 1
سنا@@ 1
عقد 1
ــ@@ 1
قوس 1
مپی@@ 1
چیمپ@@ 1
1928 0.16760770809232808
206 1
232 1
le@@ 0.045226671895083025
level 0.1067449882885653
الرسول 1
الفقار 1
بوز@@ 1
ترکی@@ 1
توف@@ 1
ثنا 1
مفل@@ 1
نجا 1
وون 1
کز 1
136 1
146 1
il@@ 0.057388459676985845
ity 0.04652528135830015
ازان 1
جاسوس 1
ذول 1
ضر@@ 1
مانیہ 1
معظ@@ 1
مینہ 1
نری 1
نشا@@ 1
هَ@@ 1
واسط@@ 1
والد@@ 1
وفر 1
یورو@@ 1
201 1
225 1
India 0.09333105626570057
؎ 1
قون@@ 1
منتظ@@ 1
منق@@ 1
ناٹک 1
نیوی@@ 1
ولات 1
185 1
94@@ 1
id 0.1271918167877474
برد 1
ثات 1
جلو@@ 1
جنو@@ 1
خي@@ 1
دانش@@ 1
ده 1
صادر 1
نظری@@ 1
نمائ@@ 1
کھول@@ 1
159 1
1908 0.22481677955279641
97@@ 1
W 0.16094522638694206
برل@@ 1
بولا@@ 1
حصص 1
روب 1
قاط 1
وزر 1
یاف@@ 1
158 1
167 1
1870 0.30810209340581163
1911 0.2162780699771976
256 1
ائد 1
اقت 1
اوغ@@ 1
تلمذ 1
حوض 1
زیانا 1
صفو@@ 1
يلي 1
153 1
193 1
650 1
ang 0.11120676889771186
ائنٹ 1
الحاج 1
الَّذِ@@ 1
تقار@@ 1
حمص 1
دیث 1
صحر@@ 1
يرا 1
ڈس@@ 1
کیات 1
30.@@ 1
Par@@ 0.06920877139633563
th@@ 0.04075060979188872
تاش 1
جنون 1
جھا 1
دفت@@ 1
رافع 1
زِ@@ 1
علت 1
كريك 1
مرات 1
مرتب@@ 1
184 1
1848 0.3707291527151109
1890 0.28217349169407274
Pakistan 0.29802384319002934
no 0.016960846593712796
اعل@@ 1
الامام 1
جہانگ@@ 1
حاک@@ 1
رك@@ 1
لين 1
مَ 1
155@@ 1
262 1
Jean 0.07352647178260364
ابہ@@ 1
ازد@@ 1
المد@@ 1
بیلجی@@ 1
جبل@@ 1
سیکری@@ 1
عفان 1
لوت 1
گائ@@ 1
ﺸ@@ 1
159@@ 1
1907 0.23199071466425447
ans 0.031007940925659273
ol@@ 0.04561535827777175
المدارس 1
خال 1
رَ 1
مست 1
مصطف@@ 1
١ 1
165 1
168@@ 1
255 1
Air 0.10748010325317216
Am@@ 0.0833438731608025
ir@@ 0.05532097139085786
top 0.0802338106355325
ابتداء 1
البا@@ 1
درات 1
قاع@@ 1
له 0.8245878095813058
متناسب 1
ﻔ@@ 1
152 1
186 1
1880 0.31192416930783695
ism 0.10379956494219855
اقوت 1
تط@@ 1
جرح 1
درخوا@@ 1
عادات 1
كوم@@ 1
واب@@ 1
کمل 1
129@@ 1
القر@@ 1
رسم@@ 1
سسٹ@@ 1
شعراء 1
عود@@ 1
غالبا 1
كان 0.3421920775015972
لائل 1
معبد 1
ورد 1
181 1
550 1
Re@@ 0.045860440526526366
ay@@ 0.10153934319898972
ابي 1
تعال 1
سح@@ 1
سلاو 1
صدور 1
كال@@ 1
وبر 1
ویٰ 1
يار@@ 1
٣ 1
کیتھ@@ 1
149 1
163 1
187 1
Se@@ 0.0646841484872153
ine 0.03955273937092934
ارم 1
بلان@@ 1
ذری@@ 1
طان 1
علاق@@ 1
فق 1
لاہ@@ 1
لری 1
وراث@@ 1
ٹوم@@ 1
کلاسی@@ 1
156 1
194 1
92.@@ 1
96@@ 1
الر 1
الن 1
ثت 1
ريفي@@ 1
طَ@@ 1
كاس@@ 1
معاص@@ 1
نمائند@@ 1
هن@@ 1
يان@@ 1
پہلو@@ 1
141 1
166@@ 1
84@@ 1
Ab@@ 0.04779638308729742
China 0.09067288142449527
ai 0.07610789914915016
انق@@ 1
اوہ@@ 1
زبور@@ 1
عدالت@@ 1
فلت 1
لبر@@ 1
ماتا 1
ڈرو@@ 1
162 1
183 1
247 1
265 1
D8 1
eh@@ 0.09474991363183263
الشام 1
الیگزی@@ 1
برٹ@@ 1
بلد 1
حرب 1
شِ@@ 1
فیلو 1
لوا@@ 1
مبالغ@@ 1
مصر@@ 1
ندیاں 1
واح 1
ہارا 1
171 1
us@@ 0.05075994715550712
راز@@ 1
رمز@@ 1
سانی 1
مجل@@ 1
وزیرا@@ 1
221 1
West 0.059063927931153226
unincorporated 1
العباس 1
العرب 1
اند 1
ساخت@@ 1
فرینک@@ 1
منازل 1
میوزی@@ 1
پہر 1
پیشر@@ 1
ہاٹ 1
176 1
217 1
3.5 0.9752301855588684
اسرائی@@ 1
العلم 1
تعی@@ 1
جمل 1
حس 1
زور@@ 1
سطو 1
طبا@@ 1
عدن 1
عرا@@ 1
متم@@ 1
مصعب 1
مضر 1
ممن@@ 1
ورٹی 1
کوئی@@ 1
ہیز 1
148 1
154 1
1860 0.328290143580119
195 1
Ho@@ 0.1415762348192266
Tol@@ 0.4500569782436968
ana 0.050629656467547975
ائیہ 1
المت@@ 1
اوڈی@@ 1
درس@@ 1
فیکٹ@@ 1
كا@@ 1
معظم 1
وافر 1
۹ 1
ﻭ 1
147 1
156@@ 1
189 1
1909 0.22671642495974875
197 1
268 1
World 0.03210180179331438
ac 0.14407234900221447
ائر@@ 1
فع 1
قسط@@ 1
متر 1
٤@@ 1
204 1
Department 0.13247489408830965
Jersey 0.2366189738760837
آبادیاتی 1
استقلال 1
سري@@ 1
سغ@@ 1
سوي@@ 1
معدن 1
مورخ@@ 1
هر 1
کتیں 1
139 1
168 1
89@@ 1
Bol@@ 0.26099913387212403
Es@@ 0.12761686982421705
Pierre 0.13534147340524375
الموت 1
بلن 1
درو 1
دلت 1
ستون@@ 1
صفا 1
مخلو@@ 1
227 1
275 1
v 0.10212806983486775
تماش@@ 1
ثبت 1
ساط 1
فُ@@ 1
ڈومینی@@ 1
کرش@@ 1
5,0@@ 1
آبادیات 1
الج 1
العاص@@ 1
حدیث@@ 1
زَ@@ 1
سڈ@@ 1
٠ 1
15ء 1
191 1
209 1
259 1
بذات 1
بیتی 1
توب 1
زرا@@ 1
سبا 1
غرق 1
ﺐ 1
207 1
ارف 1
المست@@ 1
زت 1
ساس 1
صع@@ 1
عاشور 1
مخطوطات 1
مرق@@ 1
161 1
164 1
241 1
In@@ 0.04629314043443146
domain 0.6976431250978286
اللَّهِ 1
حك@@ 1
دام 1
ذَ@@ 1
زستان 1
غض@@ 1
فعل@@ 1
متو@@ 1
ملك 1
182 1
1897 0.2702585822437859
253 1
32.@@ 1
bot 0.595620878984933
اضاف@@ 1
تد 1
دوز 1
ساج@@ 1
لاج 1
مطبو@@ 1
وزار@@ 1
2.2 1
London 0.05928860352784827
ang@@ 0.06728275656519037
area 0.039079376194097154
man 0.021879599480660546
ā@@ 0.151127483343904
اینٹ@@ 1
باط@@ 1
حانہ 1
داز 1
دين 1
لَ 1
ندو 1
وردی 1
وسط@@ 1
ہف@@ 1
یوکر@@ 1
113@@ 1
127 1
1895 0.2702534238900328
ec@@ 0.05208376385047317
ثور 1
دف 1
دوان 1
هِ@@ 1
وطنی 1
پمنٹ 1
178 1
245 1
305 1
ترج@@ 1
جزي@@ 1
حذف 1
حضرموت 1
خلف 1
صنعاء 1
ضان 1
مدن 1
وظائف 1
ّر 1
212 1
30,@@ 1
Bal@@ 0.10363565969487287
county 0.1818977720386667
ابر 1
بري 1
تث@@ 1
جمال@@ 1
جونی@@ 1
زبر@@ 1
سرخ@@ 1
سمع@@ 1
ميون@@ 1
ينس 1
گوئے 1
218 1
272 1
be 0.008491737887607532
tube 0.8289825882554013
ؒ@@ 1
آبادی@@ 1
اي 1
ایو 1
قسم@@ 1
واز@@ 1
وانوں 1
٦@@ 1
کشائر 1
1200 0.7254624454335064
202 1
222 1
254 1
Qu@@ 0.07878096569560393
Sar@@ 0.15876057070912816
Sea 0.23517151027251698
ارس 1
اینج@@ 1
راو 1
ﻬ@@ 1
1876 0.34295351102027244
242 1
370 1
4000 1
Th@@ 0.06315606865972202
جواد 1
حماس 1
خبر@@ 1
غلا@@ 1
محاذ@@ 1
مَنْ 1
ويا 1
پیڈیا 1
38.@@ 1
University 0.02435126493645966
reh 1
قذ@@ 1
مني@@ 1
مہاج@@ 1
نیاں 1
وکٹ@@ 1
া@@ 1
169 1
1901 0.23046596571097594
? 0.0855240549760626
Mal@@ 0.08378744906570518
Tr@@ 0.048712208034875644
ard 0.06270755444766604
ong 0.0987830820542802
ville 0.042790913728917766
اثناء 1
الوا@@ 1
زوج@@ 1
طق 1
عِ 1
ﺰ@@ 1
172 1
ary 0.051541910932242724
الست@@ 1
بالغ@@ 1
بدلا 1
بود 1
ةِ 1
تبلی@@ 1
حديث 1
شعار 1
غَ@@ 1
مطلوب 1
وائی@@ 1
کاون@@ 1
143 1
284 1
beh 1
القدس 1
سوٹا 1
عل 1
عَلَيْ@@ 1
عیات 1
مقدون@@ 1
196 1
198 1
Japan 0.09882897775396815
il 0.00940821338786561
one 0.01002371425473166
اجا 1
البلا@@ 1
الما 1
اہل@@ 1
ترجی@@ 1
عار 1
عض@@ 1
فرائ@@ 1
لوي 1
مفع@@ 1
موز 1
موسم@@ 1
پختون@@ 1
کولمب@@ 1
118@@ 1
1906 0.200161803553771
95@@ 1
Mon@@ 0.06289130850443521
Mor@@ 0.07646114822502492
استعداد 1
انجین@@ 1
ایگزی@@ 1
باخت@@ 1
تعال@@ 1
توت 1
ريكي 1
رہن 1
غون 1
ویکی@@ 1
173 1
213 1
244 1
Sal@@ 0.10339999489406886
اقل 1
الين@@ 1
بران@@ 1
حرا@@ 1
عباد 1
فِي 1
كس@@ 1
لوان 1
وتن 1
ﭖ 1
14ء 1
177 1
1812 0.48230771777997417
380 1
اسماعی@@ 1
انشاء 1
شاء 1
عیب 1
لاج@@ 1
لور 1
مائي 1
معاو@@ 1
پروڈ@@ 1
139@@ 1
151 1
1896 0.2505416069172059
271 1
310 1
34.@@ 1
agh 0.8395535961642998
العالم 1
المنا@@ 1
بوقت 1
تورا@@ 1
جوق 1
رض 1
غوث@@ 1
مري 1
ناء 1
ويلي 1
154@@ 1
302 1
36.@@ 1
ou@@ 0.06338673692941159
اوم 1
بسن 1
خالص@@ 1
سباق 1
شارع 1
عاط@@ 1
فان 1
نفر 1
ونيا 1
پروگرا@@ 1
کاغ@@ 1
ہیں@@ 1
158@@ 1
269 1
299 1
340 1
Kar@@ 0.09170882670233216
se 0.00445101307646979
الحر@@ 1
روما 1
فاعل 1
فقت 1
كسيكو 1
لوف 1
وراء 1
ٴ 1
1- 1
174 1
1877 0.3370319354085703
1904 0.20290939301624417
199 1
252 1
39.@@ 1
420 1
ian 0.1003139304380815
li 0.151067283171152
أُ@@ 1
اضطراب 1
تمث@@ 1
نٹین 1
پارٹمنٹ 1
1898 0.23636690523440873
215 1
228 1
249 1
290 1
326 1
ra 0.04236867575292099
اطی 1
الدار 1
المغ@@ 1
بوج@@ 1
تالی@@ 1
ثار 1
دن@@ 1
شال 1
ولم 1
يلا 1
َّا 1
پرائی@@ 1
2- 1
224 1
gh@@ 0.3110623034638331
اسي 1
الاف@@ 1
بولو 1
ستانیوں 1
فرغ@@ 1
كش@@ 1
مقر@@ 1
نسق 1
نوف 1
وائف 1
ويك 1
یونیورسٹی@@ 1
157 1
188 1
216 1
37.@@ 1
av@@ 0.04675566389693436
ji 0.20231082480499182
ère 0.08859917990165117
أ 1
الزمان 1
الوط@@ 1
امون 1
سائل 1
مب 1
متناس@@ 1
معالج 1
پاك@@ 1
ہرزی@@ 1
ہسپ@@ 1
﴾ 1
16ء 1
273 1
انتظ@@ 1
ناشر 1
والت 1
1800 0.40470080927561664
211 1
223 1
239 1
251 1
National 0.02889338775767623
ki 0.11663837132584236
os 0.018826827452459123
الأ@@ 0.47916019686839634
تاس 1
صباح 1
فيصل 1
كوس@@ 1
ويل@@ 1
کالج@@ 1
277 1
4.5 1
ed@@ 0.05403943040405307
جیریا 1
شُ@@ 1
مودا 1
وراس 1
وه 1
َّ 1
ٹزرلینڈ 1
243 1
291 1
35,@@ 1
Be@@ 0.05136564434868357
Park 0.05930284227890613
اسات 1
استث@@ 1
اقلی@@ 1
الور@@ 1
ايم 1
بوا@@ 1
داؤ@@ 1
ستاني 1
طور@@ 1
عنق@@ 1
گاؤ 1
1.6 1
1899 0.23284418677313906
اوي@@ 1
حکوم@@ 1
ساو 1
سپی 1
شیل@@ 1
عذ@@ 1
عرفات 1
فتاری 1
فتح@@ 1
فرت 1
كلا@@ 1
موف 1
کاررو@@ 1
2.3 1
208 1
279 1
301 1
de@@ 0.0308345173850113
it@@ 0.03276366177134966
ستان@@ 1
مانع 1
کامیاب@@ 1
1.2 0.9425276519772628
233 1
Chapelle 1
aq 1
افري@@ 1
الات@@ 1
باح 1
بلج@@ 1
جور 1
درز 1
دوق 1
راض 1
شمع@@ 1
لونا 1
لگو 1
مارش 1
هَا 1
231 1
248 1
292 1
430 1
San 0.03488816475492373
اشتق@@ 1
انک@@ 1
جوس 1
روض 1
واجد 1
واصل 1
واڈا 1
پیپ@@ 1
کردگی 1
Ag@@ 0.13567708369518236
Man@@ 0.06572692041148413
ac@@ 0.03244914428160958
انڈر@@ 1
جماع 1
صاب 1
قانون@@ 1
مصادر 1
مَّ@@ 1
وست 1
10,000 0.5201205340555711
214 1
263 1
285 1
286 1
37,@@ 1
im@@ 0.032796751914126454
اتم 1
تائی@@ 1
جما@@ 1
رفع 1
ضرور@@ 1
قسطنط@@ 1
وض 1
﴿ 1
234 1
Kal@@ 0.1389062776778912
ابراہ@@ 1
الواحد 1
داخ@@ 1
ذِ@@ 1
صب 1
فاء 1
قوف 1
مپیئن 1
پاگ@@ 1
پیدائ@@ 1
گنا@@ 1
ﺌ@@ 1
ﻳ@@ 1
1830 0.36842593273333063
283 1
288 1
303 1
33.@@ 1
34,@@ 1
Pennsylvania 0.18391573910210543
borough 0.3090539527532
اسما@@ 1
بیات 1
تقسيم 1
لیڈ 1
مشرو@@ 1
مير@@ 1
پاکی@@ 1
33,@@ 1
Sa@@ 0.155135727905158
ins 0.04492981636408233
je@@ 0.20373471736992282
اجز 1
بوا 1
راما 1
نقش@@ 1
واء 1
ٹاہ 1
ﮢ@@ 1
219 1
35.@@ 1
آزاد@@ 1
اكي 1
الناصر 1
الِ@@ 1
بادشاہ@@ 1
تاء 1
رفی@@ 1
زلز@@ 1
شهد 1
عث@@ 1
عليا 1
غازي 1
مرز@@ 1
نقاط 1
وحد@@ 1
يوم 1
ٖ 1
پیو@@ 1
ﮬ@@ 1
2.6 1
238 1
ers 0.01537750079347184
ic@@ 0.04155911870658769
البر 1
التر@@ 1
الجن@@ 1
تصرف 1
جالندھ@@ 1
سكي 1
فراز 1
نبو@@ 1
٥ 1
ﻃ@@ 1
1882 0.28945577436957787
2,000 0.5720376768664146
2.7 1
human 0.1185772431983874
انح@@ 1
دد 1
شاف@@ 1
غاف@@ 1
فقر 1
نوال 1
وتع@@ 1
کینٹ@@ 1
125@@ 1
1892 0.24870333909067932
257 1
293 1
5,000 0.44078613532977423
id@@ 0.0403331647468226
language 0.08477252108508632
ؓ@@ 1
افات 1
الَ 1
بناء 1
عاد@@ 1
فلي 1
كِ@@ 1
نجرز 1
نشاط 1
نٹری 1
وائل 1
٧ 1
297 1
ap@@ 0.03621141022983486
ze@@ 0.1567471535074376
ائع 1
تاؤ 1
رابط@@ 1
صل@@ 1
عجب 1
قصی@@ 1
ممد@@ 1
مملو@@ 1
مه@@ 1
1.1 0.9816172380771112
246 1
258 1
281 1
295 1
89.@@ 1
Morocco 1
ti@@ 0.03445442436869033
آذربائی@@ 1
احب 1
اخر 1
بلاد 1
جول 1
دما@@ 1
راست@@ 1
سکری@@ 1
محلول 1
2.9 1
226 1
278 1
306 1
307 1
Gu@@ 0.0732137602280615
ash@@ 0.15137867519108245
آمر 1
الظ@@ 1
توقعات 1
جرز 1
حش@@ 1
صلى 1
فخ@@ 1
قْ@@ 1
مِنَ 1
السل@@ 1
باف@@ 1
بوم@@ 1
تت@@ 1
زاب 1
سورا@@ 1
طي@@ 1
علا 1
فتار 1
مماثل 1
يرس 1
٦ 1
ﮍ@@ 1
ﺏ 1
179 1
1881 0.27444354936117255
1894 0.2425242580222721
264 1
ical 0.05086893272434575
البحر 1
النَّ@@ 1
بك@@ 1
رُ 1
مخالف@@ 1
وادي 1
چیئر@@ 1
کوز 1
2.0 0.6793744755818036
266 1
312 1
Airlines 0.4793830398211651
Br@@ 0.050880048155373225
ie 0.024477035549393258
الفق@@ 1
جمہوري@@ 1
حلق@@ 1
خرید@@ 1
راس@@ 1
ربا@@ 1
سلف 1
عاص@@ 1
مدار@@ 1
ناف@@ 1
٨@@ 1
1871 0.2569676293773561
1902 0.18837338752233165
325 1
Autonomous 1
Kingdom 0.12434221684186829
St@@ 0.039662029452499956
section 0.09580359808159428
ָ@@ 1
استن@@ 1
بذ@@ 1
زار@@ 1
سرت 1
سورة 1
شْ@@ 1
عظيم 1
قیات 1
مة 0.906717548602789
هو@@ 1
وسطي 1
وشی 1
ولک 1
يع@@ 1
٤ 1
236 1
294 1
31.@@ 1
Bo@@ 0.06669803687871104
Q 0.20268488343859983
Voivodeship 0.4997428659216286
di 0.06313321085766506
hi 0.21123558276462004
ya 0.023854067068889585
أبو 1
القض@@ 1
بجانب 1
تاو 1
ستول 1
سپاہ@@ 1
قب 1
مَّ 1
پتن 1
کوان 1
46.@@ 1
du@@ 0.08756523209198562
qi 1
اجتماعات 1
المنصور 1
دانا 1
دز@@ 1
غرب 1
ــــــــ@@ 1
فرو 1
كم 1
ملكي 1
نسخ 1
٧@@ 1
ٹیکس@@ 1
1903 0.18282978689139234
229 1
267 1
311 1
AD 0.275092661559933
In 0.003594563142378146
administrative 0.1657436190696507
ai@@ 0.1747684818827364
صلاحی@@ 1
عرو@@ 1
فاض@@ 1
فیظ 1
كار 1
لائي 1
پریفی@@ 1
ہیپ@@ 1
1815 0.4027165057533177
1887 0.2562994838033
289 1
all 0.013935252110669451
az 0.15797612514967604
em@@ 0.03341900483377655
ha 0.03570632662480164
land 0.0275379851230735
تعلی@@ 1
حلو@@ 1
خاد@@ 1
ديا 1
ساب 1
مسقط 1
مصباح 1
پرچ@@ 1
ہاش@@ 1
1.7 1
276 1
36,@@ 1
Con@@ 0.04116394968840287
ent 0.016241113395330034
ow@@ 0.10975204922873202
الخالق 1
امو 1
بحی@@ 1
ذاب 1
رع 1
زدگی 1
زیاد@@ 1
ساد 1
ستو 1
سك 1
شه@@ 1
غا 1
لاحی 1
مخز@@ 1
وند@@ 1
يب 1
ِل 1
٥@@ 1
ton 0.037974534956919874
اجز@@ 1
العمل 1
المط@@ 1
جسم@@ 1
رزق 1
زام@@ 1
ساد@@ 1
ساچوسٹس 1
صق@@ 1
فع@@ 1
ماح@@ 1
معترف 1
وآ@@ 1
ودا 1
ّم 1
چائی 1
ﻄ@@ 1
1.8 1
1884 0.2561325196035238
261 1
296 1
365 1
410 1
Bag@@ 0.41233916420329125
Mah@@ 0.14744628508847177
di@@ 0.028586862500466912
ابتدا@@ 1
ارن 1
الحك@@ 1
الواق@@ 1
الوقت 1
شريف 1
عاز@@ 1
عود 1
فرانز 1
فوق 1
فْ@@ 1
قاز@@ 1
مجسم@@ 1
نسب@@ 1
چیس 1
298 1
DNA 0.30118995271066146
Lower 0.44836152424526343
Wisconsin 0.24820646754871958
احترا@@ 1
باربرا 1
بشر@@ 1
دُ 1
شير 1
ووك@@ 1
کمز@@ 1
1.3 1
237 1
282 1
309 1
England 0.05415212403742811
te 0.014629618735996339
ادیاں 1
التف@@ 1
العزيز 1
انف@@ 1
تاح 1
حار@@ 1
حفا@@ 1
زيانا 1
محر@@ 1
معاہ@@ 1
وقائع 1
ومح@@ 1
پذی@@ 1
1.4 1
2.4 1
province 0.10303553024437123
ר@@ 1
الینڈ 1
تها 0.8374822632274236
خن 1
ظم 1
فلور@@ 1
میٹڈ 1
وير 1
يوان 1
ﮮ 1
2.1 1
2.8 1
287 1
han 0.07768194446985736
ice 0.06193025831873302
iy@@ 0.2133539162372206
local 0.03704412988034183
اعتق@@ 1
حسام 1
سيل@@ 1
قدی@@ 1
لاك 1
ويك@@ 1
يار 1
کانگری@@ 1
0.7 1
1879 0.2621374408525261
850 1
East 0.05891497445500817
She@@ 0.2854673312716845
lu@@ 0.08652864565675808
yn@@ 0.14480018115789176
ازات 1
الفطر 1
تين 1
حف 1
حید 1
دائم 1
سوال@@ 1
سيل 1
سیال@@ 1
معلوم@@ 1
ندو@@ 1
نوت@@ 1
والي 1
يش 1
---- 1
274 1
321 1
Col@@ 0.053601716792234404
Le 0.009089510115462987
River 0.046760486214436736
ons 0.030814804246336692
آں 1
بتا@@ 1
بلغراد 1
توان@@ 1
تُ 1
خلدون 1
خلي@@ 1
شخصی@@ 1
عاً 1
عرق 1
مونا 1
وظ@@ 1
يشن 1
ٌ@@ 1
8.5 1
has 0.0072184642918021544
og@@ 0.06635684324828858
ous 0.033819865845241305
البلد 1
جراح 1
رفعت 1
شید 1
صال 1
فرسن 1
قبائ@@ 1
كاري 1
لط 1
ماد 1
موجب 1
پند@@ 1
,000 0.7777304022114281
2500 0.9896123845302378
af@@ 0.05034414479257874
he@@ 0.06029600159217195
ne 0.01757735365414383
w 0.06554618056104886
ּ@@ 1
اگوا 1
بام 1
حرب@@ 1
حور 1
خوان@@ 1
ستاد 1
صار@@ 1
غير 0.5481688823979164
وسف 1
وه@@ 1
1886 0.23486934781965454
1891 0.2201334326137841
ari@@ 0.0887718291036877
ge@@ 0.034422063382547684
tic 0.08704476109729341
type 0.07082612430123972
מ@@ 1
الصباح 1
اویہ 1
ثلاث@@ 1
جيم@@ 1
حضر 1
خواہ@@ 1
ريل 1
زحل 1
فرز@@ 1
قضاء 1
لق 1
میکسی@@ 1
نای@@ 1
ويت 1
يرو 1
يوك@@ 1
پارلی@@ 1
گوار 1
ہسپان@@ 1
ﺼ@@ 1
128@@ 1
313 1
460 1
Mohammad 0.9391005124243832
Per@@ 0.051047577755315786
li@@ 0.03320931204993178
اوکا@@ 1
بازن@@ 1
حا@@ 1
سوخ 1
ويلز 1
چیچ@@ 1
் 1
333 1
375 1
Islands 0.20904042017029895
geographic 1
ina 0.03568370512140044
were 0.004813671708505519
ائزیشن 1
اريو 1
جلي@@ 1
دين@@ 1
راك 1
ره 1
رومان 1
رين@@ 1
عیل 1
لطی@@ 1
مفر@@ 1
يد@@ 1
1864 0.24125687163874504
329 1
6000 1
Ma@@ 0.0657565986796649
Mo@@ 0.06447973114721521
People 0.1478316430420123
au 0.0058890477263685214
ce 0.01761010527320442
et@@ 0.028733745101919304
ri@@ 0.045309594843694526
اختی@@ 1
بود@@ 1
جاز 1
حساب@@ 1
طرا@@ 1
غن 1
لام@@ 1
نقص 1
هْ@@ 1
وجد 1
وح 1
0.8 1
109@@ 1
1856 0.311544467247006
1885 0.20962287482382952
Az@@ 0.15820844605066092
Gen@@ 0.10258814800044506
age 0.01604284754002179
tion 0.040219218300733856
الرو@@ 1
امتی@@ 1
بيت 1
جاسک@@ 1
حسب@@ 1
خول 1
دارفور 1
ضح@@ 1
ضعف 1
غا@@ 1
كوي@@ 1
مقناطی@@ 1
نصوص 1
وارنر 1
1813 0.44854530145434246
3- 1
308 1
316 1
317 1
334 1
390 1
Shu@@ 0.5031992318548036
ek 0.09426222134666958
to@@ 0.04323746811287423
زيد 1
عظام 1
علي@@ 1
عنا@@ 1
فوف 1
متق@@ 1
مدين@@ 1
ملاح@@ 1
مکر@@ 1
نه@@ 1
هن 1
کابی@@ 1
کعب@@ 1
ہیری@@ 1
ﻀ@@ 1
1814 0.3924388289714167
324 1
Go@@ 0.094645520719917
ę@@ 0.3672484112947638
اكي@@ 1
السَّ@@ 1
تفاعل 1
شای@@ 1
طاق 1
طاقم 1
عشر 0.9803420217402714
قاس@@ 1
لتھ 1
نى 1
304 1
315 1
Har@@ 0.06525404963283504
Mi@@ 0.12580712760181545
Mississippi 0.29261816540147917
ali 0.15535954061608384
aw@@ 0.07931580559769232
meh 1
ola 0.12457936778478164
انَ 1
بني 1
بوتر 1
جہتی 1
خص 1
دْ@@ 1
زات 1
ساع@@ 1
سترو@@ 1
صاد@@ 1
غلاف 1
كيا 1
لُ 1
مسي@@ 1
ووا@@ 1
ٔ@@ 1
٨ 1
پاب@@ 1
32,@@ 1
Al 0.0567555857045766
Ru@@ 0.12577526952729323
country 0.05113471069146246
man@@ 0.05489048781723398
this 0.009806061337541017
جْ@@ 1
خوارز@@ 1
رة 0.8048927536476723
ریجن@@ 1
عند@@ 1
فران 1
قور@@ 1
لوے 1
میٹرو@@ 1
وجل 1
وّ@@ 1
٬ 1
ڈگ@@ 1
ۡ 1
135@@ 1
1850 0.24242202300455887
480 1
787 1
Ber@@ 0.050939255504037405
En@@ 0.04638690417123854
Germain 0.6854361648235068
ahr@@ 0.41819471173805756
ch 0.03470828565940167
افس@@ 1
الدر@@ 1
الرجال 1
النے 1
بئر 1
توا 1
حو 1
رقام 1
شوا@@ 1
عدا@@ 1
قرط@@ 1
مقاب@@ 1
نفس@@ 1
680 1
Shah@@ 0.7818003470969095
ph@@ 0.044882357555624766
ابوح@@ 1
اده 1
اطب 1
الخطاب 1
بوت 1
تداد 1
تقد 1
تك@@ 1
خار 1
ذات@@ 1
سوق 1
فاس 1
لوح 1
ماً 1
مقبر@@ 1
ورث@@ 1
ومو 1
ڙ@@ 1
0.5 0.838856022753715
1.9 1
520 1
br@@ 0.03265835421459233
ni@@ 0.055705583179531816
́ 0.04413221415814845
ؔ@@ 1
ئا 1
اعز@@ 1
ده@@ 1
ذت 1
سكو 1
طون 1
لؤ@@ 1
مسان 1
هر@@ 1
1889 0.19637143223802844
314 1
322 1
323 1
Gol@@ 0.18122854380812994
Su@@ 0.07916215700604905
aux 0.01439097947376796
ro@@ 0.03308748804738735
state 0.02811631388765091
tr@@ 0.02119446736052295
É@@ 0.08178404511053407
آباء 1
أبي 1
اري@@ 1
العالم@@ 1
الوجود 1
اير@@ 1
تركي 1
تصنی@@ 1
جمش@@ 1
سليمان 1
صار 1
فرآباد 1
لص@@ 1
مطالب 1
نض@@ 1
چوس@@ 1
← 1
1893 0.19586698896545074
39,@@ 1
York 0.022347080613061086
الان 1
باور 1
بيل 1
ثُ@@ 1
رق 1
سؤ@@ 1
سانت@@ 1
سبت 1
4.2 1
Co@@ 0.04322266697586165
Mas@@ 0.08122030534987948
iz@@ 0.05835580070126763
ly 0.025564532130462198
اغ 1
الرَّ@@ 1
جسد 1
حوا 1
داع@@ 1
دوش 1
دَ 1
شج@@ 1
طرت 1
عجائ@@ 1
عي 1
مصی@@ 1
مطالع@@ 1
موضوع@@ 1
ولت 1
يوس 1
ہمی 1
1867 0.2323989973320914
332 1
State 0.030610352953436178
aj@@ 0.08935784199925571
ez@@ 0.1017978158506173
احتی@@ 1
ارجن@@ 1
الاص@@ 1
الشر@@ 1
الفتح 1
انٹرو@@ 1
بؤ@@ 1
تفر@@ 1
تنی 1
دروس 1
ذن 1
شون 1
طائ@@ 1
ڈومی@@ 1
یانہ 1
1888 0.20330487592729954
440 1
BC 0.15205677529023523
Me@@ 0.05668826852019487
Sey@@ 0.8799775769724542
ek@@ 0.05717618978569172
ica 0.049798637116917156
its 0.007016853465950468
א@@ 1
الثق@@ 1
المنت@@ 1
ةً 1
شعاع 1
عدت 1
عرش 1
لاف 1
لیری 1
وكا 1
ياتي 1
ہتھی@@ 1
110@@ 1
6,0@@ 1
J 0.10192377490285091
Parish 0.4904456845797378
bdi 1
chi 0.0929601033119385
co@@ 0.026726305838062903
government 0.03192428628444919
not 0.008221700035530298
style 0.050423561413852416
ائخ 1
اتح@@ 1
بير@@ 1
ةَ 1
حافظ@@ 1
زونا 1
شرات 1
فاص@@ 1
كلارك 1
مقدار@@ 1
ملحوظ 1
منح@@ 1
وث 1
٩ 1
پروڈی@@ 1
ہین@@ 1
328 1
352 1
40,@@ 1
7.5 0.9169549268432758
od@@ 0.052724793633316974
الحافظ 1
الوار@@ 1
شرع 1
قوم@@ 1
ماني 1
مندر@@ 1
نب 1
ندن 1
يلي@@ 1
کھیل@@ 1
1700 0.5958748191076247
327 1
40.@@ 1
48.@@ 1
D9 1
Nebraska 0.4560292970760345
Or@@ 0.0515683406542964
U.S. 0.04542082258738333
ثمر 1
جوان@@ 1
رابع 1
سیکول@@ 1
شيا 1
عقب 1
فرج 1
وني@@ 1
چہار@@ 1
335 1
38,@@ 1
381 1
45.@@ 1
Tar@@ 0.11149274263476859
Un@@ 0.051720134741888864
^ 1
اعتم@@ 1
الآثار 1
بدو 1
تَ 1
رونی 1
سبقت 1
غار@@ 1
غل 1
كْ@@ 1
مالك 1
مم 1
ولوج@@ 1
گھن@@ 1
ﭽ@@ 1
ﻑ 1
ﻫ@@ 1
0.6 1
59.@@ 1
Ne@@ 0.05039929574774764
ance 0.034749485087868376
ci@@ 0.048091422436505035
ru@@ 0.05407987892350449
ə@@ 0.76041823333279
الجام@@ 1
امک@@ 1
تبا@@ 1
خزر@@ 1
ريو 1
سري 1
سہار@@ 1
ضَ@@ 1
فروع 1
لات@@ 1
لیکس 1
مونٹگ@@ 1
ودر@@ 1
ينز 1
پنس@@ 1
ڈیل@@ 1
র@@ 1
345 1
372 1
395 1
41.@@ 1
560 1
CO@@ 0.17606530774182208
Indian 0.06591009211155871
Mont@@ 0.1299008168264217
ala 0.08226738447446504
ator 0.04224486563001023
ing@@ 0.040661635999714146
world 0.03815832220398169
بج 1
تناز@@ 1
جاب 1
ضاء 1
لزم 1
معرو@@ 1
مینیا 1
وولف 1
ﭩ@@ 1
Car@@ 0.03424668974833232
Com@@ 0.050999575271198964
Moh@@ 0.2682977547161418
Ur@@ 0.08872941183092105
au@@ 0.04322143421236083
bi@@ 0.034295803622847384
rural 0.13321837329004288
zy@@ 0.2367236840720149
اوقیان@@ 1
اوي 1
اکیڈ@@ 1
صوت@@ 1
قهٔ 1
كيرو@@ 1
وتا 1
وتق@@ 1
يف@@ 1
گوان 1
گہر@@ 1
318 1
336 1
354 1
44,@@ 1
47.@@ 1
Gar@@ 0.08379065293895847
Khan@@ 1
Santa 0.07035307622271869
Ver@@ 0.022376369019486152
ne@@ 0.04473430742731844
é@@ 0.024813744357926357
ש@@ 1
المذ@@ 1
تاز@@ 1
تحمل 1
تفاوت 1
ثقاف@@ 1
ثَ@@ 1
رصد 1
رضي 1
سوسائ@@ 1
عليه 1
قرص 1
كوك 1
مہات@@ 1
ومنٹ 1
چینج 1
338 1
348 1
Dash@@ 1
Her@@ 0.05417881406588776
Pr@@ 0.049817560324152785
qu@@ 0.035820738885684426
states 0.09167919092981287
الخوار@@ 1
ايا 1
بير 1
تانی 1
تحريك 1
تز 1
كام 1
مناس@@ 1
منسو@@ 1
ولان 1
-- 0.5646562878568168
1849 0.2815766885553772
20,000 0.6266898365840392
339 1
45,@@ 1
College 0.032809391251136764
John 0.018493263902616398
Le@@ 0.03205874562664096
Shar@@ 0.23012886699205914
als 0.004566733565191278
and@@ 0.04680947986619097
ik@@ 0.041003616753257796
uy@@ 0.22727102815730804
الدع@@ 1
الغرض 1
بشار 1
ريكو 1
قن 1
كاون@@ 1
موا 1
ينو 1
ٗ@@ 1
119@@ 1
31@@ 1
Far@@ 0.11648719179833263
Ro@@ 0.05468320134942899
del 0.0033344703072256785
oc@@ 0.0349290491560572
ś@@ 0.39067167324364205
ة@@ 1
تانا 1
تعليم 1
طین 1
فنک@@ 1
وزو 1
ويس 1
1858 0.27296133290677616
1a 1
357 1
363 1
49.@@ 1
570 1
8000 1
Korea 0.17418128254316817
Lan@@ 0.2159957518457792
ara 0.05204266064757843
end 0.018151361655241442
re 0.027028044542384274
ל@@ 1
البغ@@ 1
الجامع 1
الرؤ@@ 1
انگری@@ 1
حام@@ 1
حول 0.9800311069707108
حیات@@ 1
دير 1
رالف 1
رط@@ 1
سيا 1
عثمان@@ 1
قاق 1
كتب 1
كوك@@ 1
كير@@ 1
لاق 1
مصنف@@ 1
مطاب@@ 1
ملائی@@ 1
نص 1
1840 0.24960379819698658
344 1
362 1
540 1
Ali@@ 0.23711588750842252
Bas@@ 0.10229345129966375
aj 0.3039440473042246
ant 0.014488826485389098
cities 0.14056772206697732
ma@@ 0.07948327136882935
ni 0.05240391281193349
te@@ 0.03886308842834892
ְ@@ 1
أن 0.11312638947513307
ئت 1
ابلا@@ 1
ادائی@@ 1
العصر 1
بكر 1
تمر 1
حنی@@ 1
طلال 1
غرا@@ 1
فضلا 1
كول 1
متز@@ 1
ٽ@@ 1
0.9 1
1873 0.21267996965827432
319 1
331 1
337 1
355 1
5.5 0.9423324711768091
Ab 0.10475794607432704
CC 0.28201546660553
Laurent 0.3880528001373889
ha@@ 0.09751513061265288
ts 0.01768157707853485
ؑ@@ 1
اه 1
تفری@@ 1
جود 1
سرگر@@ 1
فیڈری@@ 1
مقتل 1
موی@@ 1
ولیت 1
ਰ@@ 1
ﮫ 1
.p@@ 1
1300 0.6753526709441302
3.3 1
364 1
530 1
Di@@ 0.03945920464600734
Tal@@ 0.14195661047834676
UN@@ 0.17800271533943923
dan 0.1056631298523788
he 0.0034025258012895096
ics 0.0636703484945826
jan 0.37208188343437837
pa@@ 0.20234041194772587
ב@@ 1
المخت@@ 1
تري@@ 1
زُ@@ 1
صدا@@ 1
صدق 1
غور@@ 1
قبہ 1
مصط@@ 1
معرض 1
0.2 1
1861 0.1964133182287377
351 1
356 1
Time 0.13103179232132942
ber@@ 0.039483714238558246
si 0.04027552644594153
ה@@ 1
ضرر 1
عين 1
غو@@ 1
مجھ@@ 1
مراجع 1
والق@@ 1
وزہ 1
کیمپ@@ 1
گفت@@ 1
یوگوسلا@@ 1
3.4 1
3.6 1
6.5 0.9916421221321412
640 1
Char@@ 0.07857020186805584
Kur@@ 0.08349903121879636
ane 0.05800831647723082
bar@@ 0.039652526923889125
ta 0.02846813987601871
ה 1
ازت 1
الآ@@ 1
انوس 1
اویر 1
خصائص 1
خصوص@@ 1
عمار@@ 1
فرنس 1
قن@@ 1
ماو 1
مران 1
کمال@@ 1
1875 0.20552266362919344
347 1
366 1
396 1
57.@@ 1
Prefecture 0.6028834421389342
Sub@@ 0.09884152931580789
able 0.016817933625674016
no@@ 0.04617675309371157
ob@@ 0.03741512747686228
po@@ 0.02932007718446367
th 0.027434169414329086
افغ@@ 1
براون 1
خدی@@ 1
زين@@ 1
ستانہ 1
صِ@@ 1
ظن 1
عظم 1
غال 1
فاح 1
وسي@@ 1
وص 1
گوجران@@ 1
0.3 0.9158824996553426
000@@ 0.8107851070065478
1804 0.45548945253531614
490 1
Ku@@ 0.16097132389940838
Loire 0.27372816697928715
ash 0.15452705119360938
object 0.3197798569643121
ot 0.05565061213459643
استم@@ 1
البي@@ 1
اناط@@ 1
ةٍ 1
تْ 1
خرو@@ 1
طراز 1
ظت 1
قتال 1
كاؤن@@ 1
كات@@ 1
متعل@@ 1
پسم@@ 1
چغ@@ 1
3,000 0.48518144110199335
346 1
367 1
385 1
48,@@ 1
639 1
Hu@@ 0.10164819236628629
Li@@ 0.060200729781634744
Shah 0.41431456350055634
adi@@ 0.09440271094055949
ama 0.07214742728025952
ةُ 1
ترو 1
حاش@@ 1
سلک 1
سہارن@@ 1
قصائد 1
قفق@@ 1
لول@@ 1
مقص@@ 1
پولین 1
﻿ 1
3.1 1
342 1
343 1
7,0@@ 1
IS@@ 0.15277959453979936
Is@@ 0.0724114382454706
do 0.0205040978308997
eb@@ 0.04013487090298862
era 0.016571795144429493
ho@@ 0.05281816308589286
× 0.13668418043954766
المتو@@ 1
بعنوان 1
جين@@ 1
خيل 1
راجپ@@ 1
روج 1
زين 1
ساق@@ 1
طعام 1
فرانس@@ 1
فري 1
قلا@@ 1
لما 1
مارس 0.7583358001216027
ٴ@@ 1
8,0@@ 1
Bi@@ 0.05675173287690094
Mir@@ 0.14138087071744518
ul 0.13777505680270374
السع@@ 1
بقاء 1
حضر@@ 1
صت 1
كين 1
ماتح@@ 1
مقبوض@@ 1
ویش 1
ﺨ@@ 1
1400 0.6899566258080085
1839 0.3136218339301334
1872 0.2009027624820499
349 1
Bel@@ 0.05443215572317104
Ham@@ 0.14522709000331951
Ser@@ 0.06737632081836772
ig@@ 0.03328422793590416
ok@@ 0.07279661826469873
اؤن 1
المثل 1
المز@@ 1
النج@@ 1
بصی@@ 1
روق 1
سكا 1
شمس@@ 1
ضي 1
عبر@@ 1
عیس@@ 1
فوربس 1
نك@@ 1
يول@@ 1
ِّ 1
ّن 1
یوگ@@ 1
ﺲ 1
￼ 1
1600 0.4355123221470406
369 1
96.@@ 1
99.@@ 1
AR@@ 0.15383349799094642
Ba@@ 0.12084172437980165
Lab@@ 0.24834085090839272
Pi@@ 0.06570588966648921
ated 0.014017528320247755
ite 0.032484201225086426
op@@ 0.027049017426771432
ִ@@ 1
ئون 1
ائیس 1
اكا 1
اندل@@ 1
اني@@ 1
انيا 1
بالم@@ 1
بلي@@ 1
تناس@@ 1
جزئ@@ 1
حيدر 1
راض@@ 1
ساء 1
صول 1
فائی@@ 1
فرانسی@@ 1
قرآ@@ 1
مركزي 1
مسئ@@ 1
موسو@@ 1
پروٹ@@ 1
ﺿ@@ 1
1865 0.18472408363287765
353 1
359 1
368 1
42.@@ 1
44.@@ 1
9.7 1
It 0.005978063730871454
Kor@@ 0.08532137795861748
Po@@ 0.05955993635284278
Poland 0.12627350073578597
esh@@ 0.20424296408851783
ley 0.027455673831463894
ong@@ 0.11017007373551335
system 0.027888600574243638
ارانہ 1
الاد@@ 1
المقد@@ 1
بلي 1
بيا 1
ثاني 1
حبيب 1
روای@@ 1
نزدی@@ 1
نفا@@ 1
کاروب@@ 1
کالون@@ 1
ݨ 1
ਾ@@ 1
་ 1
ﻏ@@ 1
ﻱ 1
378 1
5.2 1
Lin@@ 0.09655933077997635
Russia 0.10198312522280555
ille 0.08227056742845248
ish@@ 0.08600346951475446
par@@ 0.02376161699088728
st@@ 0.01579483945990397
اکث@@ 1
جغرا@@ 1
خطر 1
خیص 1
راع 1
رنا 1
ساتھ@@ 1
قار 1
ملبورن 1
ومي 1
يام@@ 1
ﺅ 1
1.0 0.7581425721955327
386 1
Av@@ 0.10211242842579496
Bor@@ 0.06285867277299764
Gal@@ 0.0788069091691656
Now@@ 0.4081964918380133
ach@@ 0.03462440823760285
افر 1
بم@@ 1
ریلو@@ 1
ساف@@ 1
ستار@@ 1
عز 1
قصص 1
ماز@@ 1
مونت@@ 1
্ 1
0.1 0.7752030063889195
379 1
403 1
470 1
630 1
999 1
Cor@@ 0.037066390715921
Ha@@ 0.09946609058074046
So@@ 0.0707635776076015
Sol@@ 0.06724637445306501
department 0.1256412416713433
ex@@ 0.024518099110089165
mar@@ 0.03788115462808393
استف@@ 1
تعالى 1
تعم@@ 1
جاسم 1
خمس@@ 1
دائرة 1
عقاب 1
فين@@ 1
كيلي 1
لسان 1
− 0.13930997973711182
1828 0.33859349851162285
1859 0.20854360017830634
1862 0.1808139618664307
1883 0.18349576180458674
341 1
393 1
5.4 1
6,000 0.7358270135267545
Hasan 0.8741144814861126
em 0.039997279715406425
ey@@ 0.11107401600684087
me@@ 0.05035182549654044
ءت 1
المقابل 1
زیز 1
عروض 1
قرن 1
كت@@ 1
مناصب 1
مه 1
نقط@@ 1
يه@@ 1
1838 0.2911399106999591
371 1
376 1
391 1
4- 1
4.0 1
46,@@ 1
88.@@ 1
Kam@@ 0.12192981537932607
Lake 0.06266039429562245
Peru 0.31937543427362225
im 0.003164013312179276
people 0.01815325593770183
ve 0.00934265714822118
ès 0.1195672545712792
ادق 1
المخ@@ 1
المهدي 1
انز@@ 1
اہب 1
بوي@@ 1
رك 1
سيان 1
صوت 1
عة 0.6056222129319109
عيل 1
فلسفی@@ 1
كاس 1
كريم 1
384 1
IV 0.07464560214310062
Mac@@ 0.06562083464528012
Nord 0.08112041282251872
Ph@@ 0.07405356802742623
Ra@@ 0.1586838999509566
UTC 0.44618789208123355
ja 0.05366105185837497
ou 0.01086743252446133
ą@@ 0.4056614648283924
اشرا@@ 1
الثاني 0.9427263831287245
سمرق@@ 1
صندوق 1
طری@@ 1
قيس 1
لد@@ 1
منس 1
مِّ@@ 1
وكي 1
ﺍﻭ@@ 1
1832 0.2931611190583628
1853 0.2503053994961115
50,@@ 1
79.@@ 1
Georges 0.18740102116938354
Pal@@ 0.07964032881352698
languages 0.15270837428219752
our 0.05076036197357096
pi@@ 0.04081517353806554
their 0.005780176422995413
ˈ@@ 1
ַ@@ 1
اسکر@@ 1
انتون 1
بوب 1
تات 1
جروں 1
رضام@@ 1
صحيح 1
طن 1
فح@@ 1
وأ@@ 0.3320116609067684
وَّ@@ 1
ﻒ 1
1863 0.17547266730618755
404 1
5.6 1
54,@@ 1
660 1
960 1
Bu@@ 0.0906153693516526
Ex@@ 0.04177344147371665
Ger@@ 0.056974520066674535
Taz@@ 1
eg@@ 0.03140012315299094
estan 0.6018512546876057
geographical 0.8075452564061687
have 0.006881040308800175
lès 0.7550795523412234
ma 0.0365433937416074
ng@@ 0.10567022158778548
noinclude 1
osis 0.16449534672217864
pr@@ 0.029880947904187414
آئر@@ 1
آسٹری@@ 1
استر@@ 1
الحاد 1
الشاف@@ 1
بعل@@ 1
حاص@@ 1
فلوری@@ 1
قاض@@ 1
قديم 1
مقب@@ 1
ناہ 1
وير@@ 1
ویات 1
ٹورنام@@ 1
گت 1
1866 0.14963116087295295
398 1
405 1
412 1
5.8 1
610 1
720 1
Ban@@ 0.0846172020725987
Ko@@ 0.07231533302552405
RE@@ 0.18378746002859117
Si@@ 0.10614565094466485
Ta@@ 0.1275039686790999
est 0.0020659536183261764
go@@ 0.09178748525854499
ment 0.030756291499363132
um@@ 0.023728692171761084
اسل 1
الس 1
بعث 1
بیو 1
تام 1
تروی@@ 1
تکلی@@ 1
خوا 1
دح@@ 1
سندر 1
غن@@ 1
فلسف@@ 1
لکھن@@ 1
مصنع 1
نساء 1
والع@@ 1
وصی@@ 1
ٰن 1
05@@ 1
1,200 1
1806 0.3040780943860226
373 1
399 1
435 1
481 1
49,@@ 1
510 1
58,@@ 1
60,@@ 1
AM@@ 0.18814499586531072
Ac@@ 0.056282055698719066
Empire 0.0716047484145651
Maryland 0.17384717838399355
Paul 0.031777664969684746
more 0.010153503172552295
pur 0.20021107509709907
إ@@ 0.3052551180546734
بغض 1
بيل@@ 1
ثلث 1
حزم 1
رخص@@ 1
سوف 1
شري@@ 1
شك@@ 1
كز@@ 1
كون 1
لفظ@@ 1
يف 1
گجرا@@ 1
100,000 0.4052377971482226
1826 0.333376349760928
1846 0.25036447708038806
1851 0.23345789554385993
1869 0.18736989232785684
3.2 1
361 1
401 1
408 1
55,@@ 1
760 1
91.@@ 1
Fer@@ 0.10906671326537316
Julien 0.5721636906140223
Lam@@ 0.15680561479153146
Lar@@ 0.1396319567082615
St. 0.0312581297491352
gu@@ 0.04767524583992719
اسکند@@ 1
الرضا 1
اللحم 1
المس@@ 1
تخصص 1
تکنی@@ 1
سنس 1
صاص 1
متش@@ 1
ومو@@ 1
425 1
78.@@ 1
AL@@ 0.18694693154768308
Carni@@ 1
No@@ 0.08904358857170021
San@@ 0.07452470933004113
la@@ 0.08571891702230534
lam@@ 0.0771515608043027
me 0.026901042389670355
ؤٹ 1
ادری 1
التح@@ 1
اوج 1
براء 1
بنات 1
خمس 1
سبک@@ 1
وسي 1
وقعت 1
ومع@@ 1
یکس@@ 1
ﭨ@@ 1
358 1
387 1
394 1
406 1
47,@@ 1
Bon@@ 0.11805139711884695
Nas@@ 0.23112951331496634
mon@@ 0.02519064279557888
oli 0.20990041073355833
ov@@ 0.044596419601063884
ut@@ 0.03717963274276955
za 0.05086222312231167
اشم 1
العلا@@ 1
النور 1
انگل@@ 1
اکین 1
بوط 1
جارج@@ 1
جت 1
داول 1
ذائ@@ 1
زال 1
غي@@ 1
ــــ@@ 1
قشت@@ 1
كلين@@ 1
لاح 1
نوي@@ 1
وقت@@ 1
ّل 1
″ 1
 1
1834 0.27871700846807623
1854 0.21591292004838195
382 1
388 1
50,000 0.5800589164483837
525 1
620 1
661 1
830 1
Arabic 0.34268161449053725
At@@ 0.07633579064157833
Bois 0.45945058978594816
IA@@ 1
Sad@@ 0.2694169692569809
Stadium 0.12288633361590579
be@@ 0.01741587010045969
der 0.0007744455587720321
ford 0.047211687724587545
ill@@ 0.041607605494455004
si@@ 0.03817235073880044
ter 0.015268503626074693
ure 0.03948593670608938
ó@@ 0.061318447416116084
آرگن@@ 1
اظ 1
البق@@ 1
جاء 1
خِ@@ 1
سوتا 1
سپ 1
مبل@@ 1
محاص@@ 1
نع 1
نوتی 1
ٹیکنی@@ 1
0.4 0.9568143401989021
377 1
392 1
69.@@ 1
730 1
Bur@@ 0.05163174364299005
Em@@ 0.0784905339991753
English 0.0309022850160231
Union 0.03299120231291313
Val@@ 0.05620380498627162
ais 0.08509962791535687
الاست@@ 1
الروا@@ 1
المو@@ 1
انش@@ 1
رہنما@@ 1
شغل 1
كيو 1
لوم 1
کیوب@@ 1
گلگ@@ 1
یقی@@ 1
0,0@@ 1
1831 0.28090595712783
397 1
424 1
452 1
590 1
7.7 1
AS@@ 0.09929911996555038
Ad@@ 0.0475093888378602
Ah@@ 0.19015207741226217
ast@@ 0.08554397575295768
deh 1
ty 0.030870001925576686
you 0.0614696253412112
á@@ 0.04283072490241116
اجد 1
بح 1
تناول 1
جديد 1
حذ@@ 1
ريز 1
ریاست@@ 1
شنو 1
قندھ@@ 1
لوث 1
لّ@@ 1
ماي@@ 1
مشار@@ 1
ڈویل@@ 1
کھوں 1
1821 0.27393358253216865
1835 0.2565911403683409
383 1
4,000 0.5583242556186455
428 1
441 1
445 1
Pro@@ 0.040477381934152755
bi 0.15942800951112937
ca 0.04552299470940235
cr@@ 0.030129344024633933
division 0.04960209664391549
do@@ 0.0478950240229123
field 0.02588074486952704
lar 0.07763495007929194
ti 0.051114382493911675
ze 0.05995075911780777
الشمس 1
ةٌ 1
تصر 1
تطوان 1
توم 1
دري 1
دز 1
ساك@@ 1
سیاست@@ 1
فتوں 1
مفتاح 1
وزير 1
يق@@ 1
ٹان 1
1790 0.3226018426254572
1818 0.3057007150870841
1820 0.1965458126324502
1845 0.23686860625270423
3.9 1
374 1
4.7 1
56,@@ 1
Archiv@@ 0.9008620003784066
COVID 0.1321773796685818
Internet@@ 1
hi@@ 0.04899448655473099
ita 0.04554398914554433
owo 0.40440944343165514
population 0.018024610714295407
sa 0.009685242480373129
ter@@ 0.021082002685004514
wa 0.04945888149700504
ادیت 1
زه 1
غات 1
مظاہ@@ 1
معي@@ 1
مك 1
نمر 1
ولاد 1
ّس 1
ٕ@@ 1
ۖ 1
07@@ 1
09@@ 1
1874 0.16330320116193237
423 1
438 1
El@@ 0.030642757082514634
Lo@@ 0.05006178860893483
Now 0.21551196485601679
Ow@@ 0.4073199094522822
also 0.003937078080130326
car@@ 0.024982533449166663
ji@@ 0.3055024496033313
line 0.021270756504424875
rah@@ 0.5864095768205327
which 0.0033234999693402393
ادل 1
بني@@ 1
جزء 1
ربع 1
ربيع 1
شوار@@ 1
طيف 1
عبدالله 1
كوا@@ 1
مساف@@ 1
ملال 1
وسل@@ 1
يمي 1
کریا 1
ہائیڈرو@@ 1
1809 0.3291705847443683
1868 0.1600790122506007
415 1
433 1
493 1
495 1
6.4 1
950 1
97.@@ 0.998620008280722
Bah@@ 0.1731969158555093
Council 0.03865801056081315
Trans@@ 0.09233080658984433
appe@@ 0.30226434072364394
ati@@ 0.03861569893864265
ba@@ 0.0564923746580797
ence 0.034144611794903065
ie@@ 0.07103740273250939
per@@ 0.02298713624658014
single 0.023159854495371307
الصح@@ 1
العب@@ 1
النص@@ 1
الوہ@@ 1
بقدر 1
حم 1
سبن@@ 1
شمل 1
ضوں 1
طول@@ 1
قاء 1
قوط 1
لج@@ 1
لوج 1
ميا 1
نقاش 1
هـ 1
وجود@@ 1
وزي@@ 1
ٍ@@ 1
ٹاؤن@@ 1
1799 0.3894201154458441
389 1
426 1
473 1
5.9 1
656 1
670 1
7000 0.9518921371178276
For@@ 0.03985096252738621
IC@@ 0.14810352968896018
Island 0.046654006306199126
Mol@@ 0.08922952359374665
Mosque 0.9802736263586186
ali@@ 0.06476047926734656
ations 0.011700145441470952
ge 0.0333702446697453
oma 0.0906457544219081
ابن@@ 1
الجرا@@ 1
الجز@@ 1
الفار@@ 1
المُ@@ 1
انکارپو@@ 1
بعل 1
تقد@@ 1
ته 0.3609008816191915
دلچ@@ 1
راي@@ 1
سعودي 1
غری@@ 1
قبض 1
ليل 1
نظري@@ 1
وتي 1
وذ@@ 1
ٹرل 1
₹ 1
ﮪ 1
432 1
442 1
455 1
57,@@ 1
58.@@ 1
8.1 1
978 1
Haute 0.25055492058211015
Hilaire 1
IN@@ 0.13204117164326615
Tang 0.4124518801308645
Western 0.050931116230195646
ada 0.012107680431346577
ale 0.01821145569587525
ئری 1
الشعر@@ 1
المغرب 1
تقال 1
جہاز@@ 1
حدث 1
قبل@@ 1
مرش@@ 1
مسا@@ 1
ورات 1
ولون 1
ونسو 1
يزيد 1
ہدای@@ 1
ি@@ 1
001 0.6553848141712948
3.0 0.7063734493489441
30,000 0.6499985799305971
4.6 1
418 1
456 1
Games 0.06739536052780641
Lag@@ 0.17799292692195856
Sar 1
Sav@@ 0.12517126642423124
ets 0.029282312540462558
ish 0.051022757061936035
ku@@ 0.1324958841795359
yn 0.13326129761568106
افز@@ 1
الحج 1
الحجاج 1
باخ 1
برادری@@ 1
برکی@@ 1
تخلی@@ 1
تنز@@ 1
جه@@ 1
حضرت@@ 1
حيات 1
خات 1
دوغ@@ 1
ديل 1
شخصيات 1
موسي@@ 1
نوت 1
نکھ 1
وذ 1
ڊ@@ 1
409 1
43.@@ 1
465 1
7.6 1
Borough 0.34294066591857686
Dow@@ 0.20407366904422952
Dynasty 0.5480584594655469
Sab@@ 0.12000179110630826
air@@ 0.05664482493483722
alism 0.09055298631447331
ey 0.03758379107014682
son 0.0039899750528839565
yan 0.12725911918967797
التص@@ 1
السّ@@ 1
المسلمون 1
بعمر 1
تدار 1
جيك 1
راعات 1
روبن 1
شخص@@ 1
صنف@@ 1
صُ@@ 1
عات@@ 1
عال@@ 1
قوا@@ 1
كيم 1
ليون 1
محافظات 1
مصح@@ 1
مقاتل 1
ممبر@@ 1
وتم 1
وّر 1
پنسلو@@ 1
کستان 1
ਸ@@ 1
3.7 1
4.9 1
439 1
444 1
545 1
586 1
786 1
860 1
940 1
980 1
AN@@ 0.140219244233992
Ash@@ 0.11870776471202105
Gol 1
Gr@@ 0.03130384343540064
Great 0.055302294340843806
History 0.02364350094980429
Islamic 0.18898066481596773
Lac@@ 0.19131458379064645
Tak@@ 0.10062095589461077
US 0.018065616683507906
over 0.009410011666967767
Étienne 0.3337201130507062
آسٹریلی@@ 1
المث@@ 1
امپ@@ 1
تنظيم 1
ضي@@ 1
عنص@@ 1
لاه@@ 1
مترا 1
وسلا@@ 1
️ 1
105@@ 1
1100 0.5823773912472414
1855 0.19041039399857282
3.8 1
411 1
485 1
543 1
6.1 1
6.3 1
Cas@@ 0.05526346582488976
DB 0.39167990805776937
Sur@@ 0.07514559248198491
System 0.08277141168942607
ao 0.07019055281966026
elle 0.00935232269675404
ens 0.016308354149209992
ette 0.036277562325286325
ghost 0.831637102666117
html 1
ik 0.056988405648008625
most 0.011006682155422762
om 0.07187958634558038
ran 0.05981940474162124
space 0.062269757092169545
تیب 1
خصوصًا 1
دلال 1
ظروف 1
مجتمع 1
نفوذ 1
واسط 1
ياس@@ 1
یروش@@ 1
1,500 0.7308619410001358
1789 0.2993210198148982
413 1
421 1
422 1
446 1
454 1
737 0.8262759740310485
Bad@@ 0.13059163714373964
Ni@@ 0.07018295765755933
Ray@@ 0.3003044202283343
Sy@@ 0.10980312288175893
bot@@ 0.11330428531801302
bu@@ 0.044155234959589076
can 0.010492387274711171
che 0.03967743751034697
hu@@ 0.06290357554774537
number 0.015524807680549478
war 0.004087769329799406
ادیث 1
تلف 1
رًا 1
رَّ@@ 1
غام@@ 1
فرق@@ 1
قري@@ 1
ماق 1
مالي 1
موش 1
ميري@@ 1
ناک@@ 1
نه 1
ਦ@@ 1
1801 0.28824954367486655
1847 0.20915878894963053
4.8 1
402 1
416 1
417 1
448 1
484 1
580 1
68.@@ 1
7,000 0.7296071193853615
André 0.14015801852334292
Bey@@ 0.7776490661700947
Lahore 0.9131490028966235
Mad@@ 0.06703124248329895
Ou@@ 0.2159050049265576
Spain 0.08628582163598607
ano 0.026339397508402376
lo@@ 0.020582886389089457
נ@@ 1
ازي 1
اعتب@@ 1
الاث@@ 1
البشر 1
الحديث 1
الخوارز@@ 1
باح@@ 1
بعض@@ 1
جعل 1
جين 1
زز 1
طرب 1
غز 1
كاك@@ 1
مري@@ 1
وفى 1
़ 0.03417605465784246
ক@@ 1
ﭙ@@ 1
ﯽ@@ 1
1837 0.22221225916166631
300@@ 0.9104015787942185
407 1
414 1
437 1
5- 1
515 1
64,@@ 1
930 1
975 1
Deh@@ 0.7008717673290505
Gor@@ 0.0865343488763145
Romania 0.26156964383909076
VI 0.11432325255801254
Zum@@ 1
aki 0.1123120908840834
ba 0.05378684766593002
bo@@ 0.02256183250121886
ess@@ 0.045303253949467624
fac@@ 0.09602645697378637
non 0.020407907968528767
time 0.006554055024280516
آندھ@@ 1
اجتہ@@ 1
انعام@@ 1
تؤ@@ 1
تاد@@ 1
ثا 1
جمي@@ 1
خليج 1
دفع 1
زق 1
سلر 1
صنا@@ 1
صي@@ 1
لك 1
متھ 1
وتن@@ 1
کمو@@ 1
1810 0.2489825625798
1817 0.2922900693082196
419 1
427 1
494 1
499 1
5.3 1
548 1
6.9 1
642 1
652 1
740 1
790 1
AC@@ 0.1293496420625975
Bak@@ 0.15096523148554625
Jon@@ 0.3614063546926283
Muhammad 0.21566694464517255
Pan@@ 0.06264221593077149
Valley 0.07160320493299284
adi 0.16641891455046398
den 0.0019746005157183096
ju@@ 0.10140585036077288
ome 0.08650602292160929
parish 0.10707162481597073
sp@@ 0.02303937092758499
tu@@ 0.041286666286015426
use 0.014329269391981569
الاخ@@ 1
البل@@ 1
انسائی@@ 1
بالت@@ 1
بض 1
سيف 1
فرانسي@@ 1
مرہ@@ 1
مًا 1
هو 0.08250404351691595
ية 0.2171781308381816
ੀ 1
ﻊ 1
08@@ 1
112@@ 1
1829 0.25888052816620577
1842 0.21958179116562013
459 1
468 1
486 1
544 1
632 1
8,000 0.5916926566044185
Est 0.1501219971197911
Ge@@ 0.03808276493244437
House 0.025970726637018843
Hungary 0.19311565960860166
Jan@@ 0.11141676802309243
Las 0.030107537676339547
PO@@ 0.2541445207511072
ata 0.03129143447091951
est@@ 0.027533937126047386
mo@@ 0.030166096946500374
settlements 0.3505318581204369
uz@@ 0.10344811439671239
va 0.03708462637472476
ver@@ 0.00873129621854085
Ś@@ 0.4255099143509053
إلى 0.046293360920463475
ازن 1
المرا@@ 1
تسو@@ 1
داع 1
ديه 1
سير 1
شح@@ 1
شیدہ 1
مى 1
ميل 1
نابلس 1
وظ 1
وعمل 1
پید 1
1520 0.8631795770197217
1844 0.217523564137319
436 1
457 1
483 1
507 1
51.@@ 1
549 1
6.6 1
840 1
Do@@ 0.06795858457415795
Inter@@ 0.04221304119441244
Mat@@ 0.051973346371474216
anti@@ 0.04227776674831321
har@@ 0.039644025229841166
ke 0.026650440222248054
s.@@ 0.4818558109592337
will 0.01627069422683235
ye@@ 0.13372484741700771
yg@@ 0.24975246644733065
ō@@ 0.12071001473214747
ע@@ 1
امتح@@ 1
بیلار@@ 1
تى 1
حدگی 1
طع 1
كوب@@ 1
لى 1
ماري 1
متر@@ 1
محق@@ 1
مخد@@ 1
منتج 1
نين 1
پسمان@@ 1
1807 0.2929484374813491
429 1
5.1 0.9190723575978446
527 1
565 1
59,@@ 1
6.2 1
810 1
910 1
Aubin 1
Kah@@ 0.42657538554153807
La@@ 0.07606807772887016
Mur@@ 0.07100417939174664
ST@@ 0.13380903301176367
core 0.1385057439769392
countries 0.05418168592915234
rate 0.06859312867775642
width 0.22853895898162105
yk@@ 0.8063216239260237
ائص 1
اعترا@@ 1
الاغ@@ 1
السن@@ 1
بارات 1
باو 1
تش 1
راگوئے 1
روان@@ 1
ريت 1
ريم 1
زيل 1
سى 1
طلق 1
فیٰ 1
كاب@@ 1
مجرد 1
وظی@@ 1
يحي@@ 1
يكي 1
کمش@@ 1
ﮈ@@ 1
ﺀ 1
ﺯ 1
ﻈ@@ 1
4.3 1
447 1
512 1
555 1
7.3 1
870 1
El 0.005377918736430959
He@@ 0.036376053216470465
Land@@ 0.04014564266414295
Pl@@ 0.04824074983682203
Road 0.03963998694128906
Var@@ 0.11636332437495585
class 0.038119162567838275
had 0.003428229024690669
his 0.0018638110653038556
ip 0.5714897382774278
ko 0.053219256163258795
mu@@ 0.05833816695830655
two 0.0051847171876830585
ys@@ 0.061662396562978394
آرتھو@@ 1
اتذ@@ 1
بغ 1
تبات 1
ثعل@@ 1
دوج@@ 1
دّ@@ 1
راد@@ 1
سرائ@@ 1
شفاء 1
صدي@@ 1
فورنيا 1
كث@@ 1
مني 1
ميك@@ 1
ميني 1
نعر@@ 1
يي 1
ﷲ@@ 1
434 1
466 1
497 1
516 1
518 1
643 1
Bay@@ 0.11065556805308972
Chesh@@ 1
DA 0.18728517566052977
Jar@@ 0.14322487046951402
Lu@@ 0.07044011743180559
SA@@ 0.13562127434846452
TV 0.02813605768838716
VII 0.14554373395498146
end@@ 0.025880525018614292
ino 0.02944055900405628
ion 0.05101381091749553
life 0.01426823104458017
ran@@ 0.04383590399659666
ta@@ 0.052656583395899105
way 0.017620344030859776
ć 0.12872334452884382
احت 1
البرو@@ 1
المل@@ 1
تاد 1
ترقي@@ 1
تکمی@@ 1
شاخ@@ 1
شيما 1
طلاح 1
عرص@@ 1
مباش@@ 1
مدي@@ 1
موريس 1
واجبات 1
وبي 1
وفو 1
ہمد@@ 1
ਿ@@ 1
ﭦ 1
1000@@ 1
1707 0.7652183515645856
449 1
458 1
463 1
478 1
5.0 1
551 1
602 1
625 1
674 1
780 1
AB@@ 0.1854151906627889
CEO 0.17324497221858196
Nar@@ 0.10311233570912327
Netherlands 0.1292940265415961
Qur@@ 0.6568374609805331
ant@@ 0.03413515434243575
ative 0.03179016562854332
ency 0.07396927653254612
que 0.0012844581100482201
str@@ 0.025118311606096302
they 0.0065185944211593565
ura 0.050574797909180506
ابق 1
ابوی@@ 1
اشي 1
اصف@@ 1
اكت@@ 1
المف@@ 1
بالن@@ 1
بدا@@ 1
بولي@@ 1
بوم 1
تست@@ 1
تعلم 1
توقف 1
ثم@@ 1
راجستھ@@ 1
طلا@@ 1
عضلات 1
فلا 1
قاط@@ 1
لقت 1
لًا 1
وسر 1
يلو 1
يَّ@@ 1
ہوما 1
ہيم@@ 1
ব@@ 1
․ 1
🔹 1
--- 1
1526 1
467 1
5.7 1
572 1
726 1
820 1
970 1
ae 0.03716496064911038
cell 0.10718386041792428
ell@@ 0.032960384442260425
ile 0.020290385186012706
settlement 0.10500646912420188
sk 0.11822117490171383
tan@@ 0.058496068043625914
ts@@ 0.0365398817143793
urdu 1
ת 1
اث 1
ارتباط 1
الباس@@ 1
الجما@@ 1
الملك 1
ترکمان@@ 1
ثبات 1
سترا@@ 1
عند 0.5515952241710621
فط@@ 1
كلو@@ 1
مؤلف@@ 1
مارك 1
مقط@@ 1
مماث@@ 1
ميت 1
ميم 1
وئي 1
ينا@@ 1
ন 1
ﮌ@@ 1
ﺫ@@ 1
431 1
453 1
475 1
536 1
6.7 1
651 1
7.2 1
76,@@ 1
AT@@ 0.11431026913077484
Hill 0.05271067973208622
Kas@@ 0.08346248539218523
Punjab 0.38435112645101965
Quebec 0.16479563868297428
SE@@ 0.11702856196140347
Tur@@ 0.053698395484692435
ability 0.03847423469936914
dar@@ 0.1013467263070196
iec 0.6751595836791904
mer@@ 0.02528043239239124
quot 0.2513730424581485
uk@@ 0.06419689517503688
zi@@ 0.0637116085808834
استطاعت 1
اسط@@ 1
الإمام 1
الخلا@@ 1
الون 1
باست@@ 1
جارجی@@ 1
جدل 1
دًا 1
ذُ@@ 1
سكي@@ 1
غام 1
كور 1
لسان@@ 1
ويد 1
پندر@@ 1
1770 0.40179580702954165
1819 0.26898021562934
4.4 1
482 1
511 1
552 1
589 1
594 1
6.8 1
65,@@ 1
7.9 1
98.@@ 0.8490411895307706
American 0.00889773881977161
Burkina 0.5690398158023949
CA@@ 0.10089524461528394
Cal@@ 0.04186169526831046
Chi@@ 0.0700979733865423
ES@@ 0.11574965694165808
Hasan@@ 1
Khar@@ 0.4220277655646593
Les 0.008303199168882735
ME@@ 0.1652391178109026
MO@@ 0.20192339915266938
Ol@@ 0.06438204583042083
RC 0.1534685432498735
Sweden 0.128492140361148
bar 0.045174263861880226
begin 0.13003607282941695
esh 0.17081498858534072
ev@@ 0.02974419850929002
function 0.0896945016588338
hou 0.3298227011979992
ut 0.0537516823658545
اختر@@ 1
النس@@ 1
الواقع 1
اندا 1
برش@@ 1
ترقی@@ 1
حلول 1
حمل@@ 1
دَّ@@ 1
دیوار@@ 1
روي@@ 1
ريكا 1
سني 1
شرقي 1
ظل 1
كيني@@ 1
لاند 1
مخر@@ 1
مسح 1
ومات 1
کب@@ 1
ਤ@@ 1
1795 0.2775387985656089
1824 0.23714825408600004
25,000 0.5950904146060175
43,@@ 1
462 1
469 1
479 1
505 1
508 1
539 1
672 1
717 1
777 1
880 1
Air@@ 0.1265013838685013
British 0.01639923444168522
Dis@@ 0.0487683427824453
Faso 0.5669278788048249
Sam@@ 0.06001508609854187
Sor@@ 0.09039407864899938
WT@@ 0.538120535859579
gen@@ 0.028434619786329086
gr@@ 0.021220636368024223
her@@ 0.02783881073919222
ist 0.0025345106407847636
istan 0.3326726401833303
ke@@ 0.063084769422814
ole 0.0510486843595035
public 0.01683486816352707
ue 0.031021867632761293
£ 0.07539652158056853
ères 0.05568146493691858
الجزائ@@ 1
الشيخ 1
باع 1
بيان 1
تقر@@ 1
حوادث 1
خير 1
دورا 1
شير@@ 1
طري@@ 1
فات@@ 1
قاً 1
مشک@@ 1
هون 1
ّات 1
ۂ@@ 1
ﺱ 1
1453 1
15,000 0.6158823434671742
1783 0.35705193333265034
1836 0.19364117241822448
4.1 1
42@@ 1
451 1
477 1
506 1
521 1
522 1
6- 1
612 1
711 1
72.@@ 1
911 0.8523288273779405
A. 0.0401242130672925
Ay@@ 0.10155210581125705
Ram@@ 0.0675221147199029
Shir@@ 0.3149703078610327
Tri@@ 0.043635665027385015
XI 0.18238431945897807
arg@@ 0.09760391547743359
ates 0.018763624927764625
con@@ 0.014106176065891972
eng@@ 0.032918965932170606
row 0.07225197096733116
yr@@ 0.07834010069256826
ֹ@@ 1
اة 1
ازب@@ 1
التن@@ 1
الرب 1
الرح@@ 1
الصدر 1
بب 1
بلدي@@ 1
بَ 1
جمہ@@ 1
لانو 1
مؤرخ@@ 1
مِن 1
ناج@@ 1
نساس 1
ڈیز@@ 1
۞ 1
ﮯ@@ 1
1803 0.23180369857257732
1833 0.2083453878604508
501 0.6938655100166475
509 1
532 1
542 1
559 1
603 1
685 1
705 1
718 1
722 1
914 1
Ang@@ 0.057778315684747235
Bab@@ 0.12429177753597578
SA 0.09748354527718243
Seine 0.049753744630992594
`@@ 0.7023257069581981
ain 0.03881259171666051
ami 0.07303904118080506
arr@@ 0.05012780506053688
ati 0.07284132155736765
ault 0.08804966849870707
com@@ 0.025677562327259523
ent@@ 0.014367584299207248
ep@@ 0.030650135768515392
fi@@ 0.04764002057518031
form 0.01922476311560872
list 0.037647176782329574
national 0.01728175001849858
ubi 1
van 0.04568627165056991
wikipedia.org 1
š@@ 0.06957904293877157
ם 1
اختبار 1
افي 1
التار@@ 1
بة 0.3826444516995818
جاد 1
حص 1
خل 1
خوس@@ 1
زرلینڈ 1
سبع 1
سیع 1
غوا@@ 1
قام@@ 1
لازما 1
لحم 1
متہ 1
نزاع 1
ّق 1
٘ 1
کنون@@ 1
1793 0.2209409830564982
491 1
500@@ 0.7140301604426131
502 1
517 1
52.@@ 1
524 1
534 1
576 1
577 1
585 1
588 1
66,@@ 1
67,@@ 1
69,@@ 1
690 1
7.1 1
70,@@ 1
745 1
868 1
CA 0.12320533417084244
Colombia 0.11584102982764041
George 0.022591433388828984
Maurice 0.13791565422153518
Portugal 0.08280681998517067
Str@@ 0.027313879918169963
This 0.007594577817809165
Vi@@ 0.05358315994574686
aza 0.1846805989976902
ebo@@ 0.1879680874724859
ham@@ 0.14836819979066604
lah 0.3581854860304245
mi@@ 0.04762007287222743
ny 0.09415603345479368
oph@@ 0.05956376469477029
qa 0.6646175461979351
tics 0.06373051211230067
ā 0.22855607520387972
ارتفاع 1
الحوز 1
النفس 1
اله 1
ترك@@ 1
تصف 1
تیش 1
جورج 1
راف@@ 1
ستي@@ 1
سرح 1
غزو@@ 1
فة 0.6266554171252934
فلي@@ 1
لمع@@ 1
مراء 1
مرت 1
مفتوح 1
موض@@ 1
مولر 1
ميامي 1
نشر@@ 1
نوي 1
نيل 1
ولاية 0.6656178664609816
يرا@@ 1
ڏ@@ 1
ڙ 1
10000 1
1788 0.34818534418898495
474 1
528 1
537 1
557 1
584 1
604 1
609 1
659 1
775 1
844 1
920 1
Asian 0.07848275622302853
Azerbaijan 0.29080783205404825
Can@@ 0.04926544885065097
European 0.02643673214897786
Fo@@ 0.0866140398639499
IW@@ 0.6661741057250344
Ju@@ 0.09626078907618599
Kan@@ 0.05996260614763513
Khal@@ 0.46041283230943514
Na@@ 0.09423431393294604
Sud 0.07741900840999706
book 0.02249969896998822
dis@@ 0.010225603119130126
gi@@ 0.0365027816770595
oh@@ 0.059187198382268436
ors 0.01575338552696252
ps 0.03796154601991204
trans@@ 0.027006261768157055
wi@@ 0.10923486213128776
ابد 1
الدار@@ 1
السلا@@ 1
املات 1
ایتھو@@ 1
تك 1
خسر@@ 1
خليل 1
دستان 1
سليم 1
غالبًا 1
فيض 1
لیٰ 1
مشتر@@ 1
نافر@@ 1
واث@@ 1
وتر@@ 1
وفي 0.22351348702887186
ٶ 1
1792 0.24324017546095203
1843 0.19010703858787428
1852 0.15847288021559416
461 1
464 1
533 1
558 1
60.@@ 1
601 1
626 1
636 1
644 1
673 1
683 1
746 1
815 1
86,@@ 1
Beau@@ 0.17762566959209283
Bou@@ 0.0777116127990238
Company 0.030024656347805892
Division 0.024153759740941097
Egypt 0.14789962490952127
Er@@ 0.0203961910314756
Hey@@ 0.24205615197132008
IM@@ 0.16805561326652313
Islam 0.16993516805329642
Koh@@ 0.1873797496284477
Lang@@ 0.06850990754809605
Michel 0.09107301349611635
Qas@@ 1
RNA 0.2745961637604547
Reg@@ 0.03948795711648123
ach 0.03087869850464741
ag 0.1141490977332974
historic 0.08657525178037905
hol@@ 0.0563643538732104
illy 0.13875558970995114
ography 0.09049997453565055
ory 0.04440488804828773
other 0.005895442147367084
oux 0.18980120101107473
pe@@ 0.028070072995778416
pol@@ 0.0447625426425694
ren@@ 0.031638579049690814
ri 0.08434741746005836
sc@@ 0.038251194463602166
ud 0.14843719406079678
up@@ 0.0363363671006505
wo 0.028228452655002456
ī@@ 0.164881103244097
الخوا@@ 1
السلط@@ 1
بيس 1
تجاو@@ 1
تقدم 1
حدہ 1
حي 1
دخول 1
رقت 1
شمال@@ 1
شين@@ 1
عاب 1
غول 1
كمال 1
ليو 1
ماه 1
مقعد 1
ملي 1
نيس 1
ويلك@@ 1
ويلي@@ 1
ویم 1
ِّي 1
ﮎ 1
ﻖ 1
0.0 0.8582230243940095
1791 0.2857434921877254
1825 0.20794462581987924
20I 1
3D 0.1572557910384186
504 1
538 1
567 1
575 1
622 1
655 1
664 1
698 1
7.4 1
710 1
762 1
770 1
AK@@ 0.36047836530910515
Airways 0.42741036615264
My@@ 0.07672507989682878
RA@@ 0.10168712222771695
ess 0.02709503746803599
ki@@ 0.05540751272227491
omali 1
sous 0.015702994155166124
آکسی@@ 1
أن@@ 0.4783212833653043
اقتص@@ 1
الآخر 1
البد@@ 1
الغز@@ 1
اللغ@@ 1
النوع 1
اٹھار@@ 1
تنوں 1
تّ@@ 1
جغرافی@@ 1
حصن 1
خف@@ 1
ريد 1
سخ 1
قبال 1
مقاط@@ 1
هي@@ 0.5559139640512197
ومي@@ 1
وى 1
يب@@ 1
ې 1
ー@@ 1
1762 0.5000467955700334
1776 0.3303051027668107
1805 0.2495392978120844
200,000 0.5743942414655353
3500 0.823706014301462
471 1
526 1
571 1
582 1
597 1
628 1
657 1
678 1
731 1
73@@ 1
915 1
95.@@ 1
Bala 1
Denis 0.19089131211414517
Diz@@ 0.8317976593736147
Gur@@ 0.1731295957953458
Hal@@ 0.059692744561442114
Human 0.12334114630750638
Metropolitan 0.15542684092826
Min@@ 0.04167383581275112
Mu@@ 0.07218456812464041
Rah@@ 0.2686516603822756
School 0.012070986874612744
Tor@@ 0.03759876158000586
US@@ 0.08310089265276317
ann@@ 0.045012610051312574
ht 0.24525501669750807
lan@@ 0.05462485244417826
mad 0.7323628579083612
mad@@ 0.11993896370773384
pl@@ 0.01939258654077396
place 0.01041606910017579
var 0.19940886343626488
who 0.003868529169132178
á 0.041634042082221816
الد 1
المؤ@@ 1
ایوار@@ 1
تغلب 1
جوز 1
حاس@@ 1
ربي@@ 1
روع 1
زمی@@ 1
طبي@@ 1
فيت 1
كوت@@ 1
مبي@@ 1
وصل 1
يكو 1
يمي@@ 1
پرفار@@ 1
چسٹر 1
گیند@@ 1
਼ 1
ﺝ 1
1808 0.22186856641526823
1827 0.22998992589882633
514 1
535 1
593 1
613 1
662 1
699 1
841 1
853 1
Ahmad 0.3433361909563242
Mak@@ 0.08721937001228822
Ouest 0.15579125949220943
Tomb 1
War 0.014600296898903829
William 0.019111772221019795
ain@@ 0.04921158920403299
any 0.01565776230917771
atic 0.06615211856861972
dec@@ 0.03347888853836528
gar@@ 0.056629627696847394
gene 0.13858170900789454
group 0.014352098453742367
mont 0.09684947417222967
od 0.08504764997341387
table 0.06730111482407879
up 0.006652352170583834
č@@ 0.07664935499867968
ן 1
اتذہ 1
افسان@@ 1
البند@@ 1
العاب@@ 1
القاد@@ 1
الیٰ 1
انز 1
ثان@@ 1
دة 0.4046789881170625
دراج 1
سعو@@ 1
سيني 1
شہن@@ 1
فتاء 1
فظ 1
كروز 1
كلار@@ 1
كوريا 1
كير 1
مركز 0.45780282929875615
مصالح 1
ميدان 1
يعقوب 1
يكس 1
پرست@@ 1
ۓ@@ 1
ﻐ@@ 1
476 1
487 1
496 1
519 1
547 1
553 1
561 1
624 1
629 1
633 1
637 1
681 1
736 1
819 1
823 1
892 1
997 1
@ 0.465874716046147
AI@@ 0.1286459913427475
Cr@@ 0.03583923571795619
Eastern 0.06563337914515237
Il@@ 0.0689767614337118
Mus@@ 0.044530294021621335
OS 0.10327808666835331
Sc@@ 0.055772883513184775
Sha@@ 0.20425983658283425
Vis@@ 0.10562083999928176
a.@@ 0.2645656362031392
ap 0.06771758420952087
arrondissement 0.18479055787529197
ast 0.05303177689939799
ating 0.015276872556390104
bl@@ 0.021612628575239858
constituency 0.12675020413160973
ine@@ 0.07946699536727264
onlyinclude 0.11070662657754521
so@@ 0.028099013544634184
tions 0.019511453839524923
ular 0.07387415614531333
uri 0.1275392616325603
vernorate 0.6956483037017005
ä@@ 0.026529002122835318
البح@@ 1
الرض@@ 1
القص@@ 1
بارا 1
برز 1
دول 1
ديو 1
ذان 1
شيل@@ 1
ضات 1
ضل 1
طم 1
غالب@@ 1
فير@@ 1
كاش@@ 1
نك 1
ولیہ 1
يِّ@@ 1
ٱ@@ 1
ﺬ@@ 1
472 1
541 1
573 1
587 1
62.@@ 1
634 1
635 1
665 1
68,@@ 1
707 1
712 1
765 1
825 1
Bank 0.05078891739656958
Chen@@ 0.4459519647444637
Chinese 0.03960501144748287
Cricket 0.1796093089785894
Development 0.06982692414739651
Ghar@@ 1
Kol@@ 0.072429575031866
Louis 0.02665175740538731
Mand@@ 0.0883712686813372
Nag@@ 0.10276586688333156
Ri@@ 0.045922829083854415
Sel@@ 0.06377415625603694
Upper 0.16435961169334667
alu 0.5822982145990383
aq@@ 1
arab@@ 0.24702076696862074
don 0.048734458144228956
eng 0.0849872112463003
gov@@ 1
ham 0.06842713804654282
ira 0.06386002198629241
than 0.008721045726400183
zi 0.11021466888089833
ד@@ 1
أح@@ 1
ئين 1
الشعراء 1
الموس@@ 1
النبي 1
ایران@@ 1
برت 1
تاف@@ 1
جرت 1
جزر 1
جع 1
خرج 1
خوف@@ 1
دروا@@ 1
شوف 1
طفل 1
طُ@@ 1
عبيد 1
غان@@ 1
فضل@@ 1
فلسطين 1
قوق 1
كرك@@ 1
كيل 1
مفس@@ 1
موال@@ 1
نائس 1
ناك 1
نسي 1
هاي 1
واجی 1
وغ 1
يمز 1
ম@@ 1
ਹ@@ 1
ி@@ 1
ﭔ@@ 1
.org 0.7383394853977209
1740 0.44284101332853065
1763 0.39231644829916507
1774 0.3661922366087036
1798 0.2382504624876825
1841 0.16897743367045598
443 1
488 1
492 1
598 1
627 1
67.@@ 1
675 1
747 0.7486016530272495
776 1
9,000 0.9324063132523154
9.1 1
941 1
990 1
Dam@@ 0.09013614583177243
Grand 0.02544889594677114
IX 0.1386782278854636
Jam@@ 0.1563415545072751
Kr@@ 0.033177818383038536
L4 1
Mag@@ 0.04583283923827407
Mir 0.6508654131999022
SO@@ 0.1400499145405624
Te@@ 0.031090001552589588
Ukraine 0.08580077773637948
Washington 0.027197844784104832
bad 0.10930709179028861
ban 0.051328794619120204
bat 0.1258242407054794
ib@@ 0.05150154053587632
ids 0.06513309803250852
jiang 0.3161257119602556
lin@@ 0.03388539846961112
my 0.05503019757673918
out 0.006628483565768143
tes 0.015501386832737425
uk 0.11636974322201772
ve@@ 0.05104154870283472
would 0.006495878886420327
ż@@ 0.3170317776525973
ائح 1
اتصال 1
الاول@@ 1
الحفاظ 1
الحن@@ 1
بلوچ@@ 1
تري 1
تفاض@@ 1
حدو@@ 1
رتا 1
ريش 1
مجال 1
مکن 1
وط 1
। 0.010651513071085809
স@@ 1
005 1
498 1
53.@@ 1
54.@@ 1
568 1
581 1
595 1
631 1
638 1
641 1
645 1
692 1
704 1
804 1
814 1
826 1
833 1
849 1
878 1
890 1
AM 0.09954160302516649
Ahmad@@ 1
CH@@ 0.11669537899381761
Carolina 0.053979350973215025
Cl@@ 0.05196260467011502
Du@@ 0.04501482700435923
Im@@ 0.04336271684350734
James 0.01938829456783462
Missouri 0.0931470772917188
NH 0.7299553295107878
NO@@ 0.13250663710708385
Socialist 0.23479114983468252
Tu@@ 0.0862639539935524
Women 0.03806392035419946
ath@@ 0.04760657415660566
dar 0.06590523322049412
hir 0.23016002925642753
ider 0.09838532204521287
men 0.011975245211801369
poly@@ 0.08193872846267557
privileg@@ 0.31379831724442236
sar@@ 0.09808071247342144
ser@@ 0.027230828699721144
su@@ 0.023962981205490792
ush@@ 0.11257205911723674
ə 1
أهل 1
الملو@@ 1
بالس@@ 1
بموجب 1
تير@@ 1
تين@@ 1
ذي 1
سيات 1
شعب 1
عسک@@ 1
لمب@@ 1
مراج@@ 1
نست@@ 1
وفاء 1
ونات 1
يه 0.6640848109126148
چوسٹس 1
◼ 1
ﺛ@@ 1
ﺦ 1
1519 1
1524 0.9220014357760274
1540 0.6224840400378953
400@@ 0.634159944778711
563 1
6.0 1
616 1
695 1
7.8 1
799 1
8.6 1
9.5 1
90,@@ 1
AC 0.06475751784671112
AS 0.08532868948663488
Baba 0.5446602563367856
Bay 0.040880424764988765
Bengal 0.23573730094855502
Bl@@ 0.03546372146915422
Chal@@ 0.1874897296615302
Dr@@ 0.038544778533983276
Has@@ 0.1280378774053154
Index 0.2961492224257489
MI@@ 0.14537405577389026
Mil@@ 0.04649509744627041
Northern 0.05167629247527253
Pol@@ 0.032216322256901804
Retrieved 1
Wiel@@ 0.5845635682776469
astr@@ 0.09706163730171023
but 0.0035141383282654877
ix 0.11074792564809868
ological 0.04051549696200176
pref@@ 0.26631733199398344
sub@@ 0.016568655206709984
we 0.029448619654454816
ائق 1
البص@@ 1
التَّ@@ 1
المدر@@ 1
المسائل 1
بہرائ@@ 1
تاکی@@ 1
تنظ@@ 1
جاج 1
داب 1
عربي 1
قاضي 1
كاي@@ 1
كش 1
كيلي@@ 1
مصف@@ 1
وريا 1
ویلٹ 1
ু@@ 1
ਮ@@ 1
1750 0.33885398469611117
1765 0.4432632311737387
50.@@ 1
529 1
658 1
721 1
725 1
733 1
757 1
758 1
764 1
77.@@ 1
782 1
793 1
795 1
8.9 1
895 1
Arab 0.12819557402416887
Ben@@ 0.04461332192379676
Chile 0.06119356532098237
Cro@@ 0.07028057920512433
Der@@ 0.08428589835627973
Gh@@ 0.11867742024552409
IC 0.12451131392858597
L2 1
Marie 0.04146813558992928
Mos@@ 0.0721802726884051
Naz@@ 0.19635956164346002
PA 0.1030562493292797
Party 0.023493973652405784
Sultan 0.1670717858338825
ars 0.03176398245718114
ase 0.0361170421380063
aska 0.9665267413234767
aye 0.1342961034838873
first 0.002855450502418824
following 0.011969973842339257
gan 0.16244146912999607
hal@@ 0.04544910638429608
ind@@ 0.042253445063538106
mal@@ 0.03681065427580858
ry 0.04364194893301024
ski 0.049638674814423384
tri@@ 0.02942253774090459
wood 0.03293341364867137
­ 0.20174276745531414
ë@@ 0.15877557206823115
Ł@@ 0.34248421983140803
إل@@ 0.9921240300292814
إن 0.5693081237203316
اجتماع@@ 1
البط@@ 1
الح 1
اللسان 1
المحد@@ 1
امين 1
باي@@ 1
بوش 1
تأ@@ 1
رص@@ 1
سرگو@@ 1
سير@@ 1
سہرہ 1
عنه 1
عو 1
موص@@ 1
مونت 1
نمو@@ 1
ومان 1
يتا 1
ينيا 1
ڈیمو@@ 1
া 1
ਾ 1
1780 0.26622260047562035
503 1
569 1
607 1
65.@@ 1
677 1
709 1
715 1
735 1
784 1
8.2 1
847 1
854 1
88,@@ 1
919 1
945 1
A7 1
Bonn@@ 0.32045650799906655
Ground 0.26583744179010077
IT@@ 0.1521133322273309
Is 0.0865882455346276
L1 1
Mer@@ 0.03226463364509678
PS 0.07882895239439554
To@@ 0.04688560395556223
acid 0.13365188299584396
ages 0.020063027118638062
all@@ 0.028870792695645176
aya 0.052230309588632146
cells 0.09423752767498468
co 0.01475114585320811
ene 0.02082835192339358
inn@@ 0.05981780299877937
io 0.027211913301096496
lat@@ 0.056691769232768335
million 0.018493856513707378
only 0.00662759802744127
osh@@ 0.19856924878135906
oth@@ 0.056950943320486905
sion 0.034162271822931516
st 0.025223662208722818
und 0.0005961440980545985
ת@@ 1
ادئ 1
البرا@@ 1
الحسين 1
الموا@@ 1
بروك@@ 1
جيك@@ 1
رجاء 1
ریتی 1
سمع 1
سه@@ 1
صورتی 1
غربي 1
فتي 1
كيس 1
لوك 1
مودو@@ 1
ناً 1
وائد 1
واسع 1
وبان 1
وران@@ 1
وقد 0.16530247188989364
ومحمد 1
وکال@@ 1
يوم@@ 1
ہمای@@ 1
আ@@ 1
ল@@ 1
1325 1
1699 0.6602489507182813
1718 0.6142988314354988
1761 0.48383868419824044
1811 0.2093314543410521
2000@@ 1
556 1
562 1
564 1
583 1
591 1
618 1
719 1
724 1
781 1
785 1
836 1
865 1
921 1
925 1
949 1
952 1
962 1
Aer@@ 0.1614185378190919
Af@@ 0.13756283895246435
Cou@@ 0.12030177074082124
General 0.016929176944167543
Gulf 0.1569585304278144
IE@@ 0.32082676737972726
Ir@@ 0.06574852296797248
Kon@@ 0.035834823901697656
L5 1
Meh@@ 0.2725949684965833
Power 0.08445497682543036
Saône 0.44658527008643806
St 0.031877167616177725
Sz@@ 0.12458887833130919
arch@@ 0.0494770654429562
awa 0.09105092343878796
azi 0.243000290457501
der@@ 0.01804721877332809
jpg 1
kan 0.11963683708088041
team 0.007510698713082072
well 0.007508405541326576
zad@@ 1
اذ 1
بوف@@ 1
بيلي@@ 1
تمو@@ 1
جري@@ 1
حمز@@ 1
حميد 1
خسر 1
دراجات 1
دى 1
روي 1
شاري 1
كتاب@@ 1
لمان 1
متف@@ 1
محدث@@ 1
ميني@@ 1
هار 1
هذ@@ 1
ورك 1
يح@@ 0.8558396489625371
ّف 1
ো@@ 1
ਕ@@ 1
ਲ@@ 1
000,000 0.5645543696338393
1648 0.4279769980236094
1772 0.3394548935790065
1802 0.2066832240445008
523 1
546 1
574 1
605 1
608 1
647 1
663 1
667 1
686 1
697 1
7- 1
768 1
78,@@ 1
875 1
931 1
969 1
Arrondissement 0.28756845306318896
Cape 0.09858631550331627
Croix 0.22674372856180586
Garonne 0.37155394725384594
Green 0.04735411665837374
IS 0.1332723309482572
King 0.021593421240322867
M. 0.04081951948409849
Mexico 0.04515265668569863
Nigeria 0.1311045962223584
Sak@@ 0.11378798877607728
Sham@@ 0.3456073463389097
Soviet 0.04502898813286406
aire 0.019475223060014965
ath 0.04879920988689531
berg 0.020038560500573278
ding 0.04196837805586355
ens@@ 0.016059508212142547
ga 0.05547357588266066
inf@@ 0.03717215938501305
kar@@ 0.050897957351055054
ly@@ 0.05774062661960108
oa 0.09215939583650758
ov 0.03384018174443171
uc@@ 0.050029942879751585
xi@@ 0.1196112408667779
yria 1
ys 0.03614524093104429
~ 0.18550656936340518
כ@@ 1
أحمد 0.8833347885278477
أو 0.07027562746604928
اديث 1
اعت@@ 1
البلاد 1
تاريخي 1
ستي 1
فضی@@ 1
لوي@@ 1
مازند@@ 1
نسو 1
هي 0.10396919995494865
وجہد 1
يتي@@ 1
يوب 1
ّب 1
پولیٹن 1
چھاؤ@@ 1
୍ 1
్ 1
004 1
1796 0.23359591794340073
513 1
531 1
579 1
596 1
599 1
619 1
668 1
691 1
761 1
806 1
837 1
838 1
856 1
858 1
869 1
888 1
9.3 1
973 1
Asia 0.053844339877316884
Coast 0.06782015811075486
France 0.009445589734149832
French 0.016948233150145917
LO@@ 0.1970564940522487
Life 0.03674470773175647
Pon@@ 0.09166599712062007
Saf@@ 0.168469830538764
Sauveur 1
Sir 0.0425720180454036
Street 0.021070662373641014
ana@@ 0.28264330903342294
apo@@ 0.06126489490358757
aran 0.14257598872839825
been 0.0038740407745190635
dynasty 0.15062995325649695
eri 0.06688536323086858
ings 0.014857226300715357
inter@@ 0.012884121796833558
ire@@ 0.3826055887652227
istic 0.057817257576722986
ok 0.05229012693793479
set 0.014718837434174882
ting 0.014844956497413908
tive 0.02810755719626097
web 0.07982894224415382
xi 0.17624657724573975
ֶ@@ 1
اقتصادي 1
اكو 1
الشرق 1
الصلا@@ 1
العق@@ 1
الفض@@ 1
المرتب@@ 1
اليس 1
انیف 1
بغرض 1
ترام 1
حون 1
دٍ 1
راول@@ 1
ره@@ 1
ريق 1
زيز 1
سجن 1
سيدي 1
قط 1
مائش 1
موسى 1
وات@@ 1
ياس 1
پڑوں 1
یسہ 1
್ 1
ﮟ 1
008 1
1660 0.38728363001997623
1720 0.43603737870483533
1775 0.2677452394443915
1816 0.1774807132416696
1822 0.18980003987049068
250@@ 0.8643215848202173
578 1
611 1
648 1
688 1
701 1
708 1
727 1
734 1
743 1
755 1
756 1
8.3 1
817 1
862 1
863 1
886 1
89,@@ 1
896 1
9000 0.8951326006284781
903 1
939 1
986 1
Bri@@ 0.08129522977417894
Cer@@ 0.05708285463638626
Dash 0.9892987776747908
Do 0.099067471477865
Don@@ 0.06100123552169482
ISBN 0.6615642752541339
Lap@@ 0.1867308825304612
Lithuania 0.32745474334324437
Léger 1
Mam@@ 0.1404797889390289
NKVD 1
Pe@@ 0.03508380943469903
Sau@@ 0.10972258470344957
Sind@@ 0.38309711439645766
Ti@@ 0.05030508640070399
court 0.026936678347113024
ecture 0.3042515790002782
electric 0.09454644357452643
fra@@ 0.35783042582696234
ho 0.13254443758926035
ization 0.10176796117313243
sac 0.28264013637617924
tra 0.041136636711273565
ud@@ 0.05112335463716461
vi@@ 0.01966273197218501
å@@ 0.12542921397315177
ח@@ 1
פ@@ 1
اليا 1
اُر@@ 1
بالف@@ 1
بيك@@ 1
بيون 1
تدری@@ 1
حاق 1
خدم@@ 1
دع 1
راق 1
سفي@@ 1
سنة 0.178060557662824
ضعی@@ 1
ضًا 1
عقد@@ 1
عنوانی 1
فى 1
لة 0.27031057172785805
نقشبند@@ 1
وقال 1
يمس 1
ڑائی 1
ਨ@@ 1
ﺡ 1
.jpg 1
1739 0.5607635301359136
489 1
500,000 0.42471152820587865
554 1
614 1
623 1
684 1
687 1
689 1
7.0 1
714 1
773 1
774 1
818 1
822 1
828 1
845 1
876 1
898 1
934 1
944 1
956 1
965 1
996 1
A.@@ 0.07496765435413205
AP@@ 0.08320868709282248
Act 0.033026267761679176
As 0.009598995204281289
Cre@@ 0.04534389626985314
DC 0.06587803864606057
Dom@@ 0.054808397547930286
EC@@ 0.22279839212667468
Hor@@ 0.04064890571253769
Ji@@ 0.16729337957182877
Kus@@ 0.21891424046092475
Maj@@ 0.08619340832713389
Mel@@ 0.04328951758081933
Mé@@ 0.07362017672475955
Por@@ 0.04340763649409402
Pot@@ 0.07768740191257162
Res@@ 0.06896617221183744
TR@@ 0.30391882559235694
White 0.03215749375979443
about 0.0068706521961634836
bal 0.170943306524491
bol@@ 0.07579422399673756
hr@@ 0.06281349422491746
ida 0.02135909338499793
ist@@ 0.027305780666978384
ites 0.034481823565756145
land@@ 0.03877482612147278
money 0.04756947597975538
ona 0.031082105644433936
ota 0.04991398142612212
ros@@ 0.06950364498840816
sa@@ 0.049431407705736605
schools 0.03535684035756389
shan 0.3288503852875817
skie 0.44906716419301723
yed 0.4274875885488088
zyn 0.6780299904575923
اتش 1
اره 1
اللغات 1
النظ@@ 1
بمع@@ 1
توئی 1
خوض 1
سینک@@ 1
طلاب 1
عال 1
فين 1
كسي@@ 1
لوز@@ 1
مجموعات 1
محی@@ 1
مساعد 1
منگول@@ 1
نسان 1
نيوز@@ 1
هما 0.5938605536902614
هنري 1
وائي 1
يمور 1
يين 0.4860233555076012
1570 0.5433690590534043
1580 0.5427947181281598
1687 0.6827095514237882
1784 0.26025130039540717
1823 0.1882317170766456
566 1
679 1
741 1
751 1
79,@@ 1
792 1
805 1
821 1
871 1
872 1
882 1
887 1
891 1
904 1
916 1
918 1
982 1
987 1
Abbas 0.5324557711161948
Assembly 0.050890989399319186
Banner 0.6378299880332006
Baz@@ 0.21272416391576604
Bil@@ 0.06717350238297796
Charente 0.5130869363085414
Church 0.02123755212429267
Guinea 0.1369072840004909
MS 0.08039817854911231
Oxford 0.06613915682356902
RI@@ 0.11896104983068256
Ter@@ 0.042796045088510204
bers 0.07594345397906423
cel@@ 0.05546658351048199
computer 0.07500188397884777
data 0.03775192169212219
date 0.027826967444634088
energy 0.05541803207083246
fl@@ 0.02197399011040875
for@@ 0.013985648628448425
ich@@ 0.033917864799346636
khan 0.6355203868481328
known 0.006652462238679883
locality 0.14906357340069573
port 0.029229599643863777
pro@@ 0.025720210656504306
second 0.007250107079702591
years 0.0054796156840082755
ym@@ 0.06974350499424409
آت 1
الإ@@ 0.2763578218465989
الخط@@ 1
السج@@ 1
امپی@@ 1
انون 1
انکارپوریٹڈ 1
بيكر 1
خطر@@ 1
سٹنٹ 1
صدار@@ 1
غال@@ 1
غو 1
قون 1
كند@@ 1
مترا@@ 1
محافظة 1
مہاراج@@ 1
نيك 1
هل 1
ويب 1
يونس 1
ੰ@@ 1
ﺶ 1
003 1
1515 0.8129282722927867
1556 0.7761034749285425
1605 0.6296478458017818
1683 0.5555413774062765
1760 0.3358152931088769
1769 0.3818002163499156
606 1
617 1
653 1
706 1
716 1
728 1
732 1
752 1
80,@@ 1
802 1
855 1
859 1
864 1
866 1
884 1
9- 1
923 1
974 1
993 1
Ak@@ 0.04115476123912403
BE 0.2726871070328441
Capital 0.12535746796427777
Day 0.039866428629970266
Fir@@ 0.1321463500048327
Henry 0.025514598068799257
LC 0.23026798430095458
Mer 0.3344036801511183
R. 0.05209011429481262
Rec@@ 0.039928094453927324
Sil@@ 0.06788702601765348
We@@ 0.03454876509793674
Zar@@ 0.20757674080334926
abi 0.18080919904498444
amb@@ 0.04412550993391815
anga 0.10492026368658214
anj@@ 0.23050599343478875
ann 0.09075380572098798
arak 0.1949545946938504
aro@@ 0.14641948711141659
eth@@ 0.0437190806874562
eville 0.17752935268961978
ier 0.0318422293788578
ila 0.06160856909933378
ili@@ 0.04125735981774906
lines 0.03950475591414452
mer 0.02431309564273968
ng 0.13941626142503197
ome@@ 0.10245096594051478
out@@ 0.024635929951750585
ow 0.04199246094652138
per 0.013817323335189546
tem@@ 0.08296511925294414
theory 0.05571591343570171
ula 0.07659996907826645
we@@ 0.029345615824704505
work 0.008208691289073151
yl@@ 0.031770911280752524
án 0.0254533001314386
í 0.040287571583770394
ń 0.37902375828334384
ū@@ 0.08591077526001765
الحروف 1
الخ 1
الورم 1
انسپ@@ 1
بك 1
بيري 1
تردد 1
ذكر 1
رقب@@ 1
شياء 1
عرض@@ 1
فیکل@@ 1
لأ@@ 0.6739765016125394
لج 1
لفاء 1
معتم@@ 1
منش@@ 1
مينيا 1
نين@@ 1
هذا 0.12192066204098957
واخت@@ 1
واط 1
وكو 1
ينيك 1
ﻩ 1
007 0.9884379268950416
1550 0.4689608132593769
1757 0.4286703231342139
42,@@ 1
52,@@ 1
654 1
669 1
694 1
723 1
738 1
742 1
744 1
77,@@ 1
796 1
8.8 1
812 1
842 1
861 1
883 1
917 1
929 1
968 1
97,@@ 0.93359003129447
972 1
99,@@ 0.8927954454784043
994 1
America 0.02177631612083494
Bat@@ 0.054833100321920084
Beh@@ 0.11681932525373673
Bos@@ 0.07907034780708964
CC@@ 0.10767440188224738
Ci@@ 0.08473867649782324
De 0.012281162046614953
Federal 0.05387154725888215
Florida 0.03885087718389254
For 0.01504637325295022
Local 0.11502659830355438
Nor@@ 0.04257579766099797
Pont 0.19808675263873374
Pre@@ 0.03539143815150132
Qesh@@ 1
Rad@@ 0.046793776478943304
Rem@@ 0.06545040980156426
Urdu 0.638125843563673
aa 0.15156811779734705
awn 0.2647944892872876
background 0.07254876286536528
bridge 0.04106095201190802
civil 0.0395958342475932
hem@@ 0.1339242457788791
ire 0.02871122746846155
ko@@ 0.055053932390163006
nin 0.048095857424863005
och@@ 0.05546244621766589
oni 0.05932411943685509
onne 0.07640072574301969
pa 0.05217073520047733
site 0.016031066364550855
so 0.006251679901013465
title 0.018664826294323263
â@@ 0.08693116973376645
التزام 1
الخز@@ 1
القمر 1
باري 1
بدا 1
بروك 1
ترال 1
ترك 1
خلال 0.14409382168253493
عه 0.9742905752321653
قاہ@@ 1
كم@@ 1
كيمي@@ 1
ليوس 1
ماري@@ 1
مّ@@ 1
پورٹس 1
ন@@ 1
র 1
ﺜ@@ 1
--@@ 0.585328167803779
002 1
1250 0.5689078186286992
1492 0.6650563639369053
1560 0.5396397774623974
1618 0.524808560660851
1686 0.629649011548621
53,@@ 1
600@@ 1
702 1
729 1
754 1
8- 1
8.7 1
803 1
808 1
813 1
816 1
824 1
839 1
843 1
874 1
905 1
909 1
912 1
943 1
947 1
Armenia 0.21002117123859687
CE@@ 0.07990426735437417
DF 0.18147966821009837
Dec@@ 0.046264708716190296
ER@@ 0.09934250708907223
Government 0.037714056684738165
Gow@@ 0.39349985156616984
IA 0.21292023124234616
Language 0.1808098719421513
Mau@@ 0.12710083824114593
Mes@@ 0.07616976209724242
NS@@ 0.1358106233417197
PS@@ 0.11510422096209093
Pas@@ 0.04458068139216058
Pod@@ 0.10011885804536658
RO@@ 0.12723931251554996
Sch@@ 0.008918142349824472
Town 0.04518981860927698
aff@@ 0.040832132226328734
ago 0.053758383367833125
agu@@ 0.056474932607025734
alan 0.08861711030053895
animation 0.15538707475630562
bal@@ 0.031578444549381246
cri@@ 0.0774520145065581
during 0.005456853379497536
ee 0.033742712004702836
ena 0.03333374591534525
ide 0.04470883102301712
je 0.028992788703538563
killed 0.03486953195470021
lan 0.08846906748580372
nica 0.2083584785420219
of@@ 0.03538446792324645
ori 0.07244672455932702
oz@@ 0.058787993554656415
php 1
power 0.01933178234542877
ster@@ 0.042738629672904295
tery 0.13218327909283975
them 0.008076026698322322
thi 0.08440664244173669
tor@@ 0.021031529725441003
uch@@ 0.06199031575363284
university 0.048742085445230066
vi 0.0939672025769287
water 0.014786765686421106
ː 1
ֵ@@ 1
ائنات 1
افع 1
البلدان 1
النظر 1
بالج@@ 1
تران@@ 1
تفسير 1
جانات 1
راني 1
رى 1
رياض 1
سلي@@ 1
سيم 1
طبق 1
فرط 1
فيد 1
محد@@ 1
محك@@ 1
معا 1
ميك 1
مّ 1
وابن 1
ورجی@@ 1
وكس 1
ويت@@ 1
يج@@ 1
க@@ 1
ﭧ 1
1721 0.5192078251283094
1758 0.36540355162603205
1st 0.039207939006285
31,@@ 0.9834833508203797
52@@ 1
55.@@ 1
615 1
62@@ 1
769 1
788 1
801 1
846 1
857 1
902 1
906 1
932 1
942 1
958 1
961 1
983 1
AF 0.1321218073693887
An 0.01767658280428311
Ap@@ 0.045131577631210895
Centre 0.037353418366755146
Cy@@ 0.08864217350284091
D. 0.04067601904726387
Elec@@ 0.10770949143441697
First 0.02418544652180271
Greater 0.16538579236456663
IP 0.11088380255692082
Ireland 0.034195477836327724
Juan 0.027698608221370744
Maritime 0.22894663323080605
My 0.04466391407294962
Nations 0.05871932385695623
Port 0.05840416795192717
Pu@@ 0.0808099578548102
Red 0.029209802881606087
Roche 0.3546864224728931
Sp@@ 0.023305411311692465
Tahir 1
Vil@@ 0.0822208381626931
act 0.030986298906410185
against 0.007404991759301545
ahar 0.7297877594416642
ahi 0.24213222256082867
arm@@ 0.0469687893690196
aum 0.1270400483096918
ber 0.025731931642175732
capital 0.025546345720346905
ean 0.08464219586250432
enne 0.03019117960971968
ez 0.04990412156716445
go 0.021190597172530197
independent 0.04192508984243108
kin@@ 0.08730850487731885
law 0.017538150641455225
ler@@ 0.025958025605412504
link 0.11703389020900969
nes 0.05107264032269346
net 0.04627480296806587
pe 0.02541768270452236
school 0.008995581756792503
sive 0.054207285283042805
total 0.012287956022171169
tro@@ 0.04261231557064587
und@@ 0.026352438346400192
uv@@ 0.08358091918570788
اتل 1
اعتز@@ 1
الدعوة 1
السي@@ 0.9326776771385936
النا@@ 1
بالق@@ 1
بلغ 0.7719796443597007
ذيب 1
رواد 1
رياضي 1
رکو@@ 1
سجل 1
سمس 1
علام 1
قائق 1
لع@@ 1
لينز 1
نفیہ 1
وخ 1
يانا 1
ত@@ 1
ਸ 1
ା@@ 1
市 0.03745492103467944
12,000 0.5612620311658968
1350 0.6126318692137683
1606 0.6429325392081618
1650 0.36847077153891283
1735 0.4691267390172455
1785 0.25551675531651086
1794 0.17986271464978312
646 1
649 1
693 1
739 1
767 1
771 1
797 1
798 1
800@@ 1
832 1
848 1
897 1
9.2 1
913 1
95,@@ 1
951 1
96,@@ 0.9777400469730287
992 1
AD@@ 0.08267515174819508
Aq@@ 0.7935487502069395
Belg@@ 1
CI@@ 0.09862564245705428
Group 0.02242606347047082
Institute 0.025136854015162864
Je@@ 0.06203066393626866
Kho@@ 0.30595023324987475
Latvia 0.4336919052039307
Self 0.3193813216490223
Sen@@ 0.05653149754317194
Zone 0.11213812789250314
ame@@ 0.1894412826925339
current 0.029254503743327366
divisions 0.08611026444718095
dr@@ 0.017555671565406557
engineering 0.08977576229177112
ever 0.024408626278101853
han@@ 0.10890347706755656
ichi 0.14720084663768798
if@@ 0.02723035629494173
ium 0.056948369266551516
ney 0.04269733496298695
ora 0.032561417844630305
science 0.04082672106042055
tar 0.08591525156697667
tier 0.054543270756069594
½ 0.2729333034097246
البخار@@ 1
الذي 0.09930341491850354
المقال 1
برات 1
بلديات 1
تعمی@@ 1
دستاوی@@ 1
دينار 1
روك 1
روني 1
ريج 1
صحف 1
متاث@@ 1
موند 1
هان 1
هور 1
وائز 1
واع 1
ومنین 1
ياء 1
يع 1
ٍّ 1
ّع 1
ݙ@@ 1
ে@@ 1
ਪ@@ 1
﷤ 1
ﻪ 1
1571 0.634050580237025
1598 0.5445550667415027
1603 0.4801432697577471
1746 0.4687753575033889
1747 0.4504344379219837
1773 0.31391719903891924
40,000 0.4474348199401888
66.@@ 1
682 1
713 1
748 1
749 1
753 1
763 1
807 1
852 1
873 1
899 1
924 1
926 1
937 1
953 1
984 1
Arch@@ 0.08545906789149259
Center 0.023433407379371808
Dur@@ 0.07060135771763146
FI@@ 0.09027937245367923
Fre@@ 0.027628370211482293
Hes@@ 0.34210258067266874
How@@ 0.15873775274285923
Jal@@ 0.2771943290113486
Kuh@@ 0.5241052366562825
Lim@@ 0.07701202485300605
Long@@ 0.0840960060458825
Main 0.05667073271121655
Muslim 0.08872947004074666
One 0.01512667850828013
Royal 0.018079610002347368
Singh 0.11778097048610911
Sw@@ 0.052688564770427014
Switzerland 0.10063438248450146
The@@ 0.049751390318631974
Ul@@ 0.04947194098197996
acy 0.03834856562013689
ard@@ 0.03336311473494147
ass@@ 0.018348958804160598
ational 0.038498055144205616
canton 0.08153844882393456
cin@@ 0.05422471720943409
enc@@ 0.026855295050828315
gu 0.41586649705595574
hai 0.034754871280736475
has@@ 0.08662530278469194
ier@@ 0.03901750670190014
ign@@ 0.04759779054725086
igny 0.16625437898150777
ini 0.02227245512536254
ise 0.013235707321542134
old 0.01321857517500195
ore 0.02325990013877118
phot@@ 0.08562988008800387
ska 0.13010156762944955
tan 0.03624203445711823
ui 0.09922534682610167
ung@@ 0.025865732745054555
value 0.05511555566891866
¿ 0.29008419883821046
і@@ 0.22340441615561146
أس@@ 0.5488576400301932
افترا@@ 1
امیدو@@ 1
انه 1
بعيد 1
بق 1
بلس 1
تيس 1
جاني 1
زرو 1
سلي 1
سيو 1
ضمان@@ 1
قازق@@ 1
كه 1
مخص@@ 1
مطار 1
وتص@@ 1
وقي 1
ٶ@@ 1
′ 0.2669686653629579
ﺹ 1
0000@@ 1
1620 0.4063036761644327
1659 0.570543442093598
1690 0.4373102071603375
1696 0.6090031518541583
1737 0.48354169970820776
703 1
74.@@ 1
778 1
794 1
885 1
901 1
928 1
935 1
971 1
98,@@ 0.874620414320675
985 1
988 1
All 0.01411861454911716
Asi@@ 0.18033451140606566
Cos@@ 0.06941087534687358
Dag@@ 0.16382017316886066
Dor@@ 0.048251412512582866
GDP 0.3635070919993405
God 0.051956713672913414
Hel@@ 0.04191069710320747
Jab@@ 0.2732990161845514
LE@@ 0.11943490060877325
Press 0.06568186164144948
Raj@@ 0.07700268289813837
Sultan@@ 0.41471903644891506
XVI 0.09449471755507002
af 0.0997306759318286
air 0.020157256488076515
ania 0.06865374067592118
article 0.03826798069298287
ax@@ 0.043139533472083706
century 0.011018341723942397
cor@@ 0.016420151732273444
cy@@ 0.07711667102838977
down 0.014419319073626317
ese 0.014912434623596347
ew@@ 0.044176023760822615
hat@@ 0.09372271030645228
munici@@ 0.9809979848893916
ted 0.008614374597795613
territories 0.16416881231942057
wan 0.09453480298389712
wor@@ 0.04084231521074034
Ż@@ 0.3800379687553503
י 1
؂ 1
ازي@@ 1
الشرق@@ 1
المرو@@ 1
المنص@@ 1
بالح@@ 1
بيد 1
تجار@@ 1
جري 1
جعل@@ 1
ديس 1
شاف 1
شديد 1
فريد 1
فصول 1
فقد 0.3969226954495075
ليم 1
ماك@@ 1
نيوك@@ 1
وفاد@@ 1
ٲ@@ 1
پوت 1
ې@@ 1
ۚ 1
ਵ@@ 1
1320 0.9480789006458844
1517 0.7426378822432468
1532 0.7734245916378651
1709 0.5013327531436823
1777 0.2587488341939017
1778 0.2527925381545652
51@@ 1
56.@@ 1
666 1
73.@@ 1
766 1
8.4 1
831 1
879 1
894 1
908 1
933 1
938 1
955 1
959 1
977 1
991 1
995 1
998 1
Africa 0.029341394726358105
Association 0.017507667531201213
B. 0.02269550710676172
Bre@@ 0.03172663738787332
Cap@@ 0.048666362306922534
Cat@@ 0.0502190339064664
Châte@@ 0.3953618924408902
DE@@ 0.10164215219450658
E. 0.04146649234171288
Gold 0.05437323949267673
Gon@@ 0.18256149912102143
Hy@@ 0.05519979982519539
IR@@ 0.18091740755063696
Jaf@@ 0.9442008108212981
Ke@@ 0.03598241792999299
Ker@@ 0.05308934004969648
Lot 0.35909757219656363
Naj@@ 0.45920953773287354
Shi@@ 0.07022953306360556
Twenty20 0.532924205944769
UR@@ 0.2671453856473086
Verde 0.2795008359486205
Xi@@ 0.13155019845254665
body 0.022477065662084836
bor@@ 0.030257992796352134
cad@@ 0.0772576944638623
ds 0.024260819326805856
ella 0.01820395230059572
eux 0.025167007739579632
gold 0.03997071776845933
har 0.1835577963220748
hid 0.33435473058933646
history 0.014594110818387655
ingen 0.025620073579298897
into 0.0038773033950978792
iv@@ 0.037432854069973216
new 0.005103819144702535
osta 0.7529932013125206
point 0.013555618680444503
pu@@ 0.030202410871055328
res@@ 0.015110063379707108
some 0.00658874898589429
ten@@ 0.014471702348359431
under 0.005829375566022481
zów 0.6155770607257868
ée 0.005689190909952861
ē@@ 0.30158308465018435
استخراج 1
اطر 1
المَ@@ 1
النحو 1
الَّ@@ 1
اهل 1
ايت 1
بيريا 1
بيك 1
جه 1
دیوب@@ 1
فض 1
كاد@@ 1
كثير 1
ليون@@ 1
مح 1
منتق@@ 1
موث@@ 1
ميز@@ 1
ناق@@ 1
هل@@ 1
واري 1
والمع@@ 1
وبا@@ 1
وتم@@ 1
وجب 1
وسر@@ 1
ﻪ@@ 1
.1 0.43428368753071966
1379 1
1565 0.597771558890825
1610 0.43416902300851407
1622 0.5037280266947497
1689 0.41456058265510787
1759 0.36149391175182854
60,000 0.6176919312048148
779 1
783 1
811 1
827 1
889 1
927 1
936 1
966 1
AT 0.09382464675628836
B.@@ 0.13092081684696177
Bridge 0.05910768219328095
C.@@ 0.08960245000935456
CD 0.03306880582505243
Carroll 0.2628551332009254
Chad 0.32296201391660523
Congo 0.1212596036702455
Fort 0.04121942438783947
IP@@ 0.13835129193862575
LA 0.08103665184487602
Loup 0.8176947601052587
Lub@@ 0.1886194267689464
M.@@ 0.08857101522008098
Mey@@ 0.2000536886579604
Mount 0.05220859116907461
Op@@ 0.04463046996057448
Pain 0.5041913770478198
SI 0.1834606665073113
Sard@@ 0.3804934925955879
Sem@@ 0.06350514817717332
Vel@@ 0.07510367169068878
War@@ 0.03157679515541033
You 0.02697253029366131
ade 0.019959959593475383
ality 0.03911515048067544
burg 0.029273940728274047
colspan 0.08101611876492462
day 0.009733572419871304
edi@@ 0.04409110775819802
ef@@ 0.03267483007267436
hab@@ 0.05547961758469281
ide@@ 0.03968984172597969
ih@@ 0.06183622245740875
ines 0.020682330760927153
military 0.019728359898470545
orr@@ 0.13030722972776052
programming 0.09668541857829475
ray 0.10381400402245464
rec@@ 0.015300155036721797
su 0.002158674075483005
ub@@ 0.05205653579295187
view 0.0385520862028024
year 0.004846046872066854
zar 0.2067181929494051
à 0.0006672125273333086
ž@@ 0.07555573222972375
ׁ@@ 1
ק@@ 1
إن@@ 0.5828197031899608
اخرا@@ 1
ارة 0.429039067352556
اعتد@@ 1
الأنص@@ 1
التون@@ 1
الفت@@ 1
الفور 1
الوث@@ 1
خي 1
ذار 1
رجان 1
شاه@@ 1
شهر 1
ضع@@ 1
عہدی@@ 1
فك 1
فيل@@ 1
كوز@@ 1
هد 1
واض@@ 1
يري@@ 1
پانچ@@ 1
ੇ 1
ﮉ@@ 1
ﹰ 1
ﺰ 1
ﻇ@@ 1
ﻉ 1
� 1
1290 0.9056503153275505
1530 0.4578381183021369
1722 0.44015661332251454
671 1
676 1
789 1
834 1
954 1
957 1
964 1
976 1
AU 0.2286445368134211
Agu@@ 0.21777335333817643
CG 0.2777276952074735
Cant@@ 0.10421606973025295
Ga@@ 0.08759194062482288
Gav@@ 0.2895665817206421
Germany 0.022726383476235363
Gironde 0.6600412231815704
I.@@ 0.14171536907812624
II@@ 0.15261270610071231
Just 0.10538473311302385
Kuch@@ 0.5802085087004077
Log@@ 0.09162803775125239
Man 0.028002645075945645
Men@@ 0.040834776521840234
Of 0.04957683302343525
PI@@ 0.4019108423553362
Paris 0.010394258728824941
Pir@@ 0.08258450050056532
Rivière 0.34322143605441663
Tah@@ 0.22446090204093513
Theory 0.27442141312167023
Turkish 0.0838313887834403
VIII 0.0996870242696422
ave@@ 0.11272416468773866
between 0.0049645623002686394
ches 0.019790855292741185
des@@ 0.010865686807674703
ec 0.11449564440028402
elles 0.021264565178246566
ement 0.009436199851259524
ert 0.01798448981704446
fer@@ 0.016896780888232578
gues 0.16193186167276308
her 0.0024477653380092375
mes@@ 0.06011855044589426
mi 0.03859907411861178
mis@@ 0.024136502660989663
sey 0.052137499266231166
una 0.0018120928103475722
ust 0.047753421829480926
± 0.30510951115255375
él@@ 0.055787121629233376
اشتر@@ 1
الباب 1
الحرب 0.33722293203080234
الداخل 1
العام@@ 1
القصص 1
انع 1
بالر@@ 1
تداء 1
ثي 1
رشاد 1
علان 1
عيد 1
غي 1
فاد@@ 1
لمن 1
مخطط 1
مما 0.3912860470514976
مینان 1
هار@@ 0.8211608560247832
وء 1
وبل@@ 1
َّى 1
ٸ 1
کاغذ@@ 1
کورہ 1
है 0.010357269846546608
ੁ@@ 1
県 1
ﮓ 1
1541 0.6343442061870148
1697 0.4856342981376921
1753 0.31172797671760105
1756 0.33150724098978046
20000 1
2400 0.7893868809084909
70.@@ 1
759 1
851 1
893 1
907 1
922 1
963 1
Abu 0.1255152103104363
Akh@@ 0.32176987715949523
All@@ 0.05796702662329282
BR 0.2512744070108922
Bro@@ 0.04605865336722621
C. 0.024310403869683302
Caucas@@ 0.36446332953080846
Christophe 0.25775860359315184
Computer 0.1274176175360108
Cruz 0.07166134678209869
Cup 0.01250086865766862
DE 0.1530033419952833
Greece 0.09339835597593767
H. 0.040052039497558714
Highway 0.047484457024539774
I. 0.030520681874120582
Joseph 0.01960089195690967
Karachi 0.47351646247911067
Kat@@ 0.042100512661276575
Lou@@ 0.09980811361449488
Middle 0.05286812169373368
Oblast 0.12006989471380174
SH@@ 0.20857411863105382
Screen 0.3456050577304128
Sin@@ 0.05770611959499424
Southern 0.037652068410797504
Standard 0.09607796428266249
TE@@ 0.10556963042492441
Teh@@ 0.2865724940759313
Victoria 0.0392926274366499
Wal@@ 0.027588839383930225
Wood 0.09625303100572292
after 0.0032276216262622733
age@@ 0.11284715398974265
aine 0.047288266438987925
avan 0.336244942784383
development 0.016656094658919245
ely 0.02156923468628161
ff 0.040833643633896674
ies 0.016071597195330533
kh 0.36894247994913815
king 0.019068990404940825
lands 0.033448230079774495
log@@ 0.04128984688569699
m.@@ 0.913036064098827
mass 0.061726352900598774
mud@@ 0.32480418574451
na@@ 0.11518960848935152
news 0.048190895553775606
organization 0.0320959653066768
ote 0.03290648695826679
owice 0.3367499079123845
small 0.012628847275801158
special 0.02864932882947591
subs@@ 0.13388421649829144
ug@@ 0.04003233926134583
uil 0.22845835229686204
ó 0.0054147423219477455
ר 1
آدامز 1
أم@@ 0.5258423544084845
السلطان 1
المثال 0.8830956434146667
الند@@ 1
انى 1
تعز 1
تفصی@@ 1
تقلی@@ 1
جسر 1
جيني@@ 1
حة 0.3444133908646882
حيث@@ 1
ختلف 1
خيال 1
ريك 1
ساعد 1
سبور@@ 1
ستن 1
سلات 1
سنچ@@ 1
شين 1
عبر 0.45972702909478175
عیسی@@ 1
فيق 1
قبض@@ 1
كولوم@@ 1
لوح@@ 1
ليبيا 1
ماغ@@ 1
مذی 1
مريم 1
مشابہ@@ 1
نائي 1
واحد@@ 1
وتف@@ 1
وليد 1
ہدایت@@ 1
ਗ@@ 1
් 1
 1
-1 0.9851997266507819
1257 1
1409 1
15000 1
1666 0.4813908452963091
1729 0.46868557675538836
1768 0.27839877031814214
300,000 0.47405062423968275
41,@@ 1
772 1
867 1
946 1
Blue 0.04109339579807465
Cyr 0.8107845962693373
Din 0.30199255072351444
Div@@ 0.07124882539671626
Fal@@ 0.06179991371211389
K2 0.8388104656328351
Lal@@ 0.3649247898763971
Land 0.02738671353916701
Liv@@ 0.11336690297263627
Marne 0.1837628396389642
Mirza 0.5461515058835511
Mont 0.13568462269509252
Nam@@ 0.08490358128747774
No 0.023879575265319117
Pap@@ 0.04741658859904539
Pur@@ 0.05671132402433796
Pyrénées 0.22285205535107133
Robert 0.013843475474895409
SP@@ 0.06617965733777001
Som@@ 0.09105461496185832
Tam@@ 0.06250652360222303
aw 0.1064972389817511
ban@@ 0.037242084915650696
bat@@ 0.03450507939239651
death 0.012728177157173497
direct 0.03882780107314262
e.@@ 0.2413181862453498
ff@@ 0.023652510323670356
fo@@ 0.030479012884109747
font 0.06252765815182094
him 0.0049504462074565275
ick 0.023329532955698278
ides 0.022722422138948397
iri 0.08889554210735442
isi@@ 0.0340829472735759
ize 0.07013351701080238
ju 0.16458797913158396
kr@@ 0.03992625659445308
mat@@ 0.02390847846081347
micro@@ 0.05419459676448893
neur@@ 0.05727887034421711
org@@ 0.0737021193159284
organ@@ 0.057417464329365175
see 0.01839320616735014
sil 0.27448037014220805
tel 0.04472280125108228
uan 0.24861204422610997
æ@@ 0.09617716167255844
ô@@ 0.07754219778378912
ț 0.8833692492214679
ؐ@@ 1
إلا 0.3535107420337847
اضر 1
الداخ@@ 1
العد@@ 1
الكبير 1
المار@@ 1
انض@@ 1
تقي 1
جنوب@@ 1
حفاظ@@ 1
خصوصی@@ 1
روسي 1
ريني 1
ریلوی 1
ساي@@ 1
غنی@@ 1
فقال 1
قام 0.45620643205508327
قلال 1
كك 1
ماع 1
مخرج 1
مكت@@ 1
نژ@@ 1
واني 1
وسيا 1
ڈیجی@@ 1
یووا 1
ਰ 1
ு@@ 1
ﻼ 1
006 1
12.5 0.8157361126230778
1323 1
1411 1
1521 0.5125520597927528
1525 0.4648097922413202
1535 0.558689954763953
1595 0.5208951591780995
1658 0.49727999110054844
1672 0.4296379886980145
1710 0.35670380599702894
1714 0.4002854736718247
592 1
621 1
696 1
877 1
967 1
ACA 0.7235195224178138
AN 0.14044670772852003
CD@@ 0.08907726690781655
Category 0.13273120643254321
Cher 0.3556369920041069
Desert 0.22237420262083943
Dá@@ 0.3187117489333549
EB 0.4164549230998066
ET 0.18588593549452592
High 0.015304156402573505
J. 0.023626534145690686
Jah@@ 0.24075701391332693
KO@@ 0.28003272459668277
Las@@ 0.11945641905419972
Mari@@ 0.042290272967191275
NE@@ 0.10766145574641797
No. 0.0325596954846613
Nu@@ 0.06732243608407913
On 0.003527335099449488
PLC 1
Plan@@ 0.05570512189303672
Rab@@ 0.08279081960163331
Rock 0.03327460030376569
S. 0.03320522960575759
Sat@@ 0.07839573608577197
Sho@@ 0.06041617554389266
Sim@@ 0.04884683863176665
Vo@@ 0.04995804876673386
aga 0.05197903233571353
akh 0.30933731975667617
align 0.058780728520794294
ans@@ 0.033721529975214916
bur@@ 0.0246274737533098
cultural 0.035168082180234726
del@@ 0.029167376096756216
device 0.10614134430893052
etic 0.11402705516758026
fe@@ 0.023704567619361055
ft 0.03246071357405951
ich 0.023269068199358343
iss@@ 0.036192867627250644
let 0.03380519487484523
low 0.015889925628282935
mir@@ 0.05466165293401402
now 0.009593974259684354
red 0.016343719997015036
sh 0.12534152855243802
sky 0.038921440669833815
ties 0.019249612962126898
tin 0.0230205403283355
ty@@ 0.03633765267135753
èze 0.4249101739037983
ؕ 1
آي@@ 1
اختيار 1
اعي 1
الخبر 1
السر@@ 1
بخ 1
بلت@@ 1
تعرض 1
تيم@@ 1
جمہو@@ 1
حاء 1
حکمر@@ 1
خاط@@ 1
رفي@@ 1
ريف 1
سرح@@ 1
طف 1
فاب@@ 1
فرز 1
فرنان@@ 1
قلق 1
لوك@@ 1
ماريا 1
مزيد 1
مسار 1
معين 1
ناط@@ 1
نتوں 1
ورش 1
وقتل 1
وقع 1
يق 1
ٹاون@@ 1
پبلکن 1
ம@@ 1
ர@@ 1
⇽ 1
ﭜ@@ 1
1258 1
1562 0.5648373072806633
1642 0.3931053510599761
1708 0.4157561646866593
1713 0.3921835972097106
1744 0.3883914987784316
1749 0.39740802716513923
1764 0.28969182206793553
2030 0.45322981126607526
835 1
979 1
AA 0.08261728422996138
Aj@@ 0.1623153551937035
Ari@@ 0.08591493504509883
Au@@ 0.04827169073193297
Aur@@ 0.08389721386912663
Award 0.016794108911746264
BL 0.17350571027686718
Cham 0.7806163949051736
Champ@@ 0.18607459797214385
Dakota 0.10099639953881034
Dav@@ 0.07165994466350101
Del@@ 0.030803261522283135
Free 0.0671240635105339
GC 0.24226856983379527
German 0.012615730045949637
Jan 0.06256611443803656
Lincoln 0.06410596269885344
Mc@@ 0.012946284725598318
Nan@@ 0.11241853190324187
Neuv@@ 0.7674055119526604
Nur@@ 0.13394586164383115
Old 0.03459407063290877
Pat@@ 0.041423023099140165
Pen@@ 0.04231939624040542
Public 0.03514824315359786
Ros@@ 0.025287649657492663
SS 0.04442040491027072
Sul@@ 0.07930552881003203
Tre@@ 0.03701214292185803
Vol@@ 0.03658085412488973
Zi@@ 0.07520089835345996
ail 0.04761055503845474
amu 0.39433603684963553
atory 0.046712464775200406
bert 0.04458092294057259
center 0.021603439306774982
chen@@ 0.05207243472945011
ell 0.0140344170237321
ere 0.018047545167100852
illon 0.09348570848675616
index@@ 0.40594661526322445
institution 0.08436549094060082
int@@ 0.03323622287689062
ks 0.012468996068902134
lig@@ 0.03783371694179433
mac@@ 0.0708581766507436
min@@ 0.016139510754358304
otic 0.08599676568957029
oy@@ 0.04337956283684015
pap@@ 0.0683050450991211
penetr@@ 0.19227439612179145
rights 0.027619086537334588
san 0.09620155844996106
sch@@ 0.007255640169432422
sub 0.07308650100941008
tar@@ 0.027893715108198398
ther@@ 0.04177598457725366
there 0.005542494038704035
tig@@ 0.0496351611575147
ung 0.0058220349341913955
uni 0.11217257194668374
when 0.004028862952605116
za@@ 0.18874583815392876
ç@@ 0.04080507563535607
ג@@ 1
ז@@ 1
ל 1
الاعتق@@ 1
الحج@@ 1
الحمراء 1
القائم 1
انخ@@ 1
اونت 1
بھار 1
تبدی@@ 1
تزل 1
تيل 1
رجل 1
رّ@@ 1
زوج 1
سهل 1
عري@@ 1
عقدہ 1
فاظ 1
فرانسوا 1
فیص@@ 1
قوش 1
لع 1
موط@@ 1
وبات 1
وة 1
وتح@@ 0.7233361418936987
وتش@@ 1
ودي@@ 1
يخ@@ 1
ٰذا 1
܂ 1
த@@ 1
1522 0.6479208570743922
1542 0.5520045371809872
1627 0.45813400203200144
1656 0.45328757056643104
1684 0.48238789354097433
1695 0.48297379925629885
1703 0.43862732571886687
2,500 0.4533082403142909
8.0 0.9775838047096468
809 1
948 1
Amir 0.5150002440083096
Anti@@ 0.06412463448362156
Châ@@ 0.43437252949805116
Cour@@ 0.04924334596530741
Cur@@ 0.03512477770233445
Des@@ 0.024263210240464513
Education 0.02745888427631769
FA 0.04795396958135105
FL 0.09405856476575267
Gi@@ 0.031476250320879466
Gl@@ 0.04208885021547046
Gul@@ 0.1154244909794069
H.@@ 0.12035606269104689
Jav@@ 0.23593890231386525
Lach@@ 0.19992457787169976
Lav@@ 0.08984960105288635
Mans@@ 0.24708696120330076
Municipal 0.08889191660862535
Neu@@ 0.04018566610649451
Nicolas 0.07766323737201293
Norway 0.07506021330322482
Sah@@ 0.1272210098552905
Sain@@ 0.25580386264454735
Social 0.046084397443338865
XV 0.08214453689166494
Zey@@ 0.9972963192307783
aba 0.01205532459243893
akan 0.45630449417480945
asa 0.060708329781756436
asi@@ 0.04585270433244958
asti@@ 0.1127179820633195
bas@@ 0.022338433576226682
bury 0.05331179122696626
cl@@ 0.01976587606889967
code 0.04130795991844159
col@@ 0.016354606955226014
college 0.026307076782863564
control 0.016243545277928758
eli@@ 0.05695505786625797
ery 0.034854215758095206
esis 0.11236506550273422
force 0.02023561562515628
gas 0.039252193231853305
ignan 0.27901568132960225
illa 0.02681284428909609
ists 0.020838153922132226
light 0.019147155021826994
mail@@ 0.8404675101532295
nay 0.07691989035888856
ness 0.024823456713592526
ode 0.06802927351923574
ois 0.06332967905367419
played 0.006414908965077541
pos@@ 0.021169862133782805
sin 0.01661790985834878
sk@@ 0.01942039885774087
stan 0.18241797031144302
the@@ 0.02784490766520286
tical 0.03843511264510197
ua 0.041752099816849436
ush 0.08586302846907357
yp@@ 0.067371825489427
èvre 0.23111195680690935
Š@@ 0.07526422760173528
ա@@ 0.6029263531108927
اترا@@ 1
اقتصاد 1
اكر 1
التعداد 1
انسون 1
باشا 1
بحري 1
بشير 1
بیچل@@ 1
تلاف 1
تمان 1
تہذی@@ 1
حاف@@ 1
دافع 1
ربي 1
طرق 1
طغ@@ 1
كلي 1
موح 1
نًا 1
وافق 1
وفق 1
ومد@@ 1
ياب@@ 1
يتي 1
يث@@ 1
پروٹو@@ 1
ਂ 1
☆ 1
1296 1
1380 0.7398488984769684
1568 0.49572073843973047
1574 0.5824323448326721
1576 0.5813130225676643
1604 0.45565330408954374
1723 0.38178689459922605
1797 0.15512922525120487
250,000 0.4820199760357641
2600 0.640725699263532
400,000 0.6285352687515701
989 1
Abbas@@ 0.7466977658546771
Black 0.020935587222445144
Book 0.051244894480131815
CO 0.09926514074077979
Canada 0.013245249825221307
Château 0.1339159261036826
Commission 0.03037555235776858
Côte 0.15668106994033762
David 0.012491183580342001
Finland 0.11132322555491354
Fl@@ 0.02129807610709979
Fr@@ 0.01861656919737233
Franklin 0.07977847949603292
G. 0.04698462300327736
Hur@@ 0.059068537718005826
ISO 0.15683084850328388
Isère 0.4570733880518571
Kav@@ 0.1983086076372501
Kel@@ 0.07299290494370006
L. 0.042867140264100594
Law 0.034266669282037206
MP@@ 0.07274221725302805
PC@@ 0.09996533170956932
Peace 0.09890001265721386
Pos@@ 0.08058949561040213
Romain 0.4579383611096266
Rus@@ 0.04641728634483208
Sang@@ 0.14223389327104136
Society 0.01902679263883021
Ste@@ 0.023488378016656784
Strait 0.30702074852584066
Super@@ 0.03313924466514488
TO@@ 0.12897669676439316
V. 0.04892388127580493
W. 0.036993717351640844
West@@ 0.026230771274499076
Wyoming 0.20489496705772905
alia 0.07937743467200946
aman 0.1390225226394855
ani@@ 0.04327806927024049
areas 0.018714291230408176
ato 0.02294109189472604
aug@@ 0.0852236204405309
ayas 0.7562655784650503
cu@@ 0.01640233295732467
dish 0.1036964683190583
ea 0.02014364229403955
eli 0.06731418435115392
fan 0.08638195101267404
gl@@ 0.03080868911917785
hy@@ 0.04531235084813019
las 0.0017030458191029355
lin 0.03240328048117013
min 0.062235616115156524
mus@@ 0.03704979096581569
nucle@@ 0.1660680633217956
ny@@ 0.060202655405639835
pel@@ 0.03476774007023695
qui@@ 0.04247717220382395
right 0.015806682200087168
ro 0.03606390212548642
ruled 0.08030133930739576
sz@@ 0.11987520296700986
tic@@ 0.03254721177003863
uf 0.3049604013476427
ves 0.01870250322438533
vol@@ 0.02366334302765
zor@@ 0.2301122845847798
ław@@ 0.4623348843510784
ɛ@@ 1
أخ@@ 0.795026130494799
افا 1
الاج@@ 1
البع@@ 1
الجمع@@ 1
الرق@@ 1
الصالح 1
الطب 1
امرت@@ 1
انفص@@ 1
اوف 1
ايات 1
بما 0.38571201987544046
بيروت 1
تعظ@@ 1
تماث@@ 1
توح 1
جة 0.5979024732086095
جماعة 1
جير@@ 1
حتى 0.14254599344330496
درك 1
دواء 1
ريات 1
زى 1
ستس 1
سوء 1
ضرو@@ 1
عيسى 1
غير@@ 1
فورد 1
فوس 1
قة 0.2715664545289167
قرأ 1
قوب 1
لائنا 1
معان@@ 1
ملح@@ 1
موسيقي 1
ميد@@ 1
نبات 1
نة 0.34003523989229884
وقامت 1
وكي@@ 1
ينت@@ 1
ੋ@@ 1
ா@@ 1
ﭺ 1
ﻻ 1
1236 1
1340 0.7078951118051682
1528 0.5798089372317895
1572 0.44463606852631876
1701 0.3547207746687743
1715 0.2912762987491404
1716 0.4077515074449477
1730 0.2807690596385522
1736 0.3788044633358522
1754 0.3147041558329198
1787 0.18082361936631833
1920@@ 1
75.@@ 1
829 1
981 1
AG@@ 0.10671285797194412
AP 0.06914305009585307
African 0.02237483504261213
Alpes 0.10073198887047251
Charles 0.011878084902987175
Cir@@ 0.0862526130604361
Corporation 0.03840315682630591
Din@@ 0.07048751266713538
ER 0.14906829224502133
Hab@@ 0.06512576286187648
Hed@@ 0.13902096964241786
Indonesia 0.07420936708551762
Internet 0.04588806279365584
Iran 0.03969717237022094
Ki@@ 0.05022069422572486
May@@ 0.044857093847431584
Moldova 0.4204954488304664
Mul@@ 0.04737818979502947
Neg@@ 0.10219672035349477
PL@@ 0.13878946265611444
Pak@@ 0.14956543907152772
SC 0.03919623666087865
Science 0.02941814463013009
Soci@@ 0.08827621775543142
Sum@@ 0.05922459937149622
TH@@ 0.18017326179824295
Trade 0.0980330241855348
Virginia 0.02497669252637067
Wayne 0.0947363628517564
aan 0.18921577094922865
acc@@ 0.03460010274937803
ains 0.025731442377716036
alm@@ 0.04468363912498616
atr@@ 0.034057073411140004
bei 0.002992270596270926
bit 0.05685279812291934
cas@@ 0.02165049763319944
dan@@ 0.08002444252513835
eed 0.33454714104138245
effect 0.03979361958978631
ein 0.0016917973471582335
engine 0.03607081219127268
ents 0.012610668729813885
house 0.010860301860577916
iki 0.035251803485774225
ima 0.04023203482218635
lab@@ 0.0484835703196736
lar@@ 0.030111253604767615
ling 0.016114567300542334
lymph@@ 0.3597615007814179
mathematics 0.13783073903402593
may 0.00653974646582021
mutation 0.2780583574684369
ner 0.00988547903886868
pas 0.006323776932556371
tal 0.03881707093555775
ten 0.003805464790538604
tim@@ 0.03292754125613497
tumor 0.33175414144906146
ven@@ 0.025303908948023604
vor@@ 0.011527015233911355
wh@@ 0.03232348956780897
أم 1
اريا 1
الحجر 1
الرحيم 1
الغرب 1
النصر 1
امز 1
تنام 1
جاذ@@ 1
حث 1
رقاء 1
شارل 1
شیخو@@ 1
طائر 1
عور@@ 1
فيل 1
قه 0.9658328958523184
كاز@@ 1
كاست@@ 1
كز 1
كيمياء 1
لفات 1
مشتق@@ 1
مصنو@@ 1
ممت@@ 1
مناق@@ 1
مکش 1
میوز@@ 1
نسي@@ 1
وقر@@ 1
ومار@@ 1
ومج@@ 1
يحيى 1
ڄ@@ 1
ۤ 1
শ@@ 1
ﻢ@@ 1
10.5 0.7448328313786493
1390 0.7902839630707522
1405 1
1545 0.5499897883311952
1593 0.533113828013842
1616 0.4449091348949337
1645 0.39052418306481856
1702 0.3883708006505657
1743 0.35228463684112715
1748 0.3186216374756494
1752 0.32756976231173923
1766 0.27699984862010996
1786 0.19835853544492496
35,000 0.7579660592829252
881 1
ACC 0.3102965296237541
Allah 0.4073237241931463
And 0.0545250614620504
Ann@@ 0.051683976993066844
Army 0.014430053971297799
Assam 0.35331776948245175
Authority 0.09703919195533656
Battle 0.02940768574822224
Belgium 0.08889198473979396
Bis@@ 0.09610216629725991
Bot@@ 0.043305586148509156
CS@@ 0.07320884301701236
Earth 0.04239289763704765
Ed@@ 0.04469789645998104
Haz@@ 0.10395238469292738
IN 0.18272261018035793
Kab@@ 0.07880936802721364
Kashmir 0.304304895348391
Lah@@ 0.2025983536783143
Mach@@ 0.07380366265365491
Mali 0.21667447574749718
Money 0.18668657986660964
Nak@@ 0.08682429801850741
Nic@@ 0.07239271027939387
Non 0.11100613447623461
Os@@ 0.034347927194943735
P. 0.03618476846099144
PK 0.39339334032815193
Peter 0.01458142363758482
Puy 0.38875005290781367
Regi@@ 0.3603963629118215
Richard 0.016963520816914438
Rémy 0.8209656591175232
Station 0.028983115752724574
USA 0.022710593536567045
VI@@ 0.0968534012729168
Vas@@ 0.07751633928325208
WA 0.15780345718314695
ally 0.008466576537684137
amm@@ 0.058273911026563326
ask@@ 0.08061126025564763
ava 0.051961149268996816
con 0.0014163780916962257
cricket 0.0730266704641634
czy@@ 0.24621463902704463
das 0.0014131868811115766
eal 0.14408141742809072
ect 0.03670640821077887
educational 0.06852952620415939
eo 0.029395695404992057
esia 0.10027301694323629
even 0.013900961923825578
fourth 0.023892133214704764
hal 0.23365478337555148
hu 0.1668105300808478
kam@@ 0.10236143092384278
mic 0.10185585240547462
nam@@ 0.06275602799233551
ombe 0.23459467066712109
page 0.054295498592466275
pak@@ 0.3394842607295887
path@@ 0.05347140785896504
plat@@ 0.07022779739174051
political 0.014351457674197078
pp@@ 0.0338195229193454
rel 0.09586771923209055
rule 0.04431799149159371
sal@@ 0.020586530497108013
sar 0.10625528009257922
self 0.026185495945118615
standard 0.03015190830881462
stone 0.02501100827161157
tab@@ 0.04508259516855197
technology 0.0414149761229289
these 0.007268926039295145
three 0.004125825503115351
tron 0.19059199425777432
try 0.039094771253246015
tu 0.06718886668333189
tw@@ 0.024668229261501275
ão 0.08094477396092307
ë 0.13784313129300318
í@@ 0.01567077480097578
û@@ 0.11704842374834117
ابد@@ 1
ارع 1
استق@@ 1
الجل@@ 1
الدم 0.8022632082833379
العمال 1
العمر 1
القلب 1
النق@@ 1
بروكلين 1
بلاك 1
جبال 1
جمل@@ 1
حاً 1
دث@@ 1
ريح 1
سبا@@ 1
سه 1
شکل@@ 1
فقار 1
محفو@@ 1
مرك@@ 1
واقب 1
والن@@ 1
ورث 1
وروب@@ 1
ونسن 1
وهو 0.1286023483263257
يغ@@ 1
ښ@@ 1
کاتھ@@ 1
ڪ 1
হ@@ 1
ମ@@ 1
ର@@ 1
ང 1
ﻕ 1
ﻦ@@ 1
0.0@@ 0.5172796408734814
1030 1
1150 0.5489830530070062
1336 1
1360 0.7115698739855613
1389 0.9898312291141236
1420 0.5994893458798622
1516 0.5786626390488266
1611 0.43738313458003125
1629 0.3889890415822406
1694 0.4555971635926607
1712 0.38832671577470046
1751 0.32645611924023765
1755 0.2668333660772639
2200 0.624797936556583
791 1
80,000 0.6994828110112862
Anj@@ 0.8013174256594158
Bagh@@ 0.94412731396025
Bres@@ 0.1976626908335633
Butler 0.12091000251236358
CP 0.11832677164852355
Cel@@ 0.05935130134534988
Chak@@ 0.3093028975491016
Cyprus 0.20452582089308824
Dev@@ 0.04181218939123912
Gaz@@ 0.16510661242982466
Global 0.0679165528299343
Gran@@ 0.053544652079387384
He 0.001306607693464278
IB@@ 0.1439073166065803
Maine 0.07564677477500205
Met@@ 0.0477192168503421
Montana 0.119210103129743
NSW 0.2553651467032102
Nov@@ 0.040599331873397364
PE@@ 0.11329142954260568
PKK 0.8883962669615976
PT@@ 0.18206540763948734
Pri@@ 0.0502501224517647
S.@@ 0.05777117505387343
Sag@@ 0.10499962725997232
Sir@@ 0.09263785267738911
Sun@@ 0.06608189765839165
Territory 0.13487533056575
They 0.007033552473803566
Thomas 0.012266906394948379
Tir@@ 0.09062275521976072
UK 0.018710200330296904
XIII 0.0810606538424059
achi 0.1342483348399293
ales 0.0073222265325418754
alp@@ 0.1217690933646316
amo@@ 0.0860722807925325
amp@@ 0.031175622837222763
anc@@ 0.036167591428464894
ants 0.00933975620557733
around 0.008635984330116845
asse 0.04864437202526396
ax 0.05552407346604439
based 0.007049182652348056
cal@@ 0.022992732036912756
ech@@ 0.026202581261841048
els 0.011895533435713942
fication 0.052449970957109585
head 0.011787827906090325
ick@@ 0.023549252785441246
if 0.010360511471964883
ight 0.04670834497276946
ingham 0.1268286980767352
inh 0.6893988083103019
jar 0.15968803276157117
jer@@ 0.07360052482266873
long 0.0073951957251710155
mag@@ 0.0375801635295141
mail 0.12027400409475633
mine 0.047963932102518904
mor@@ 0.019515039887006567
nia 0.08907985402923901
onia 0.04591389515403107
ord@@ 0.02860991860485606
our@@ 0.03447368116529276
res 0.03568068317589382
scope 0.10973430004958935
sea 0.022147801248545245
ser 0.008313470284576215
star 0.0317419122495049
teachers 0.09796596020419542
té 0.04207544773492299
van@@ 0.08131855389302903
vet@@ 0.11735105778507177
wave 0.07834256770880799
ws 0.03662418750080093
zan 0.14589242417733386
Év@@ 0.20558948374675284
ī 0.11547859660390936
ō 0.03421285344131455
آيت 0.534436305042331
أب@@ 1
إذا 0.35809104331170805
اختبارات 1
الاخت@@ 1
البن@@ 1
القرا@@ 1
الكر@@ 1
النجم 1
الين 1
بالله 1
بها 0.19256599750637618
تمتع 1
ثوم 1
جح 1
جوؤں 1
حیت 1
درت 1
روبر@@ 1
ریلو 1
زلي 1
سيس 1
سیاح@@ 1
شغ@@ 1
طات 1
عدي 1
غون@@ 1
فرع 1
قس 1
كري 1
كنز 1
لكي 1
للو@@ 1
مبارك 1
معاد@@ 1
مقار@@ 1
مواز@@ 1
هد@@ 1
ومر@@ 1
وینز@@ 1
يح 1
يوني 1
ٓ 1
ٹینمنٹ 1
ړ@@ 1
گریجوی@@ 1
ݨ@@ 1
জ@@ 1
ਬ@@ 1
ப@@ 1
1010 1
1147 1
1287 1
1433 1
1512 0.5719502354247578
1555 0.45031645993955943
1566 0.48612066295969897
1589 0.47601548596720855
1590 0.3622447488041832
1612 0.4102364975052886
1621 0.3731260255651681
1628 0.37902343827111973
1632 0.3696431964676212
1640 0.26615540922127556
1663 0.4326459283101781
1711 0.36289952723953484
1741 0.3139735544625143
1779 0.20742970406548197
2nd 0.030405869323349374
Afghanistan 0.08107793960725496
Ahmed 0.11962720468782105
CT@@ 0.14934981754725096
Catedral 0.28590882111280985
Cher@@ 0.0930793523757808
Community 0.04935352244715527
Croatia 0.13666973029431972
DL@@ 0.31673821740172053
Dam 0.14283142274413974
Ecuador 0.09473402378497837
FO@@ 0.16261097859297974
Grande 0.03960953441109457
Had@@ 0.0781940750283166
IT 0.09598533320177999
Kom@@ 0.03134389208653153
Madagascar 0.15998326328715196
Mary 0.020049460162432812
Miy@@ 0.1720341328265373
Mug@@ 0.14238383780019287
Museum 0.016674199664124163
N. 0.0811366138805208
PN@@ 0.14652099208250668
Pul@@ 0.06801292702786763
Raz@@ 0.1709880737091504
Red@@ 0.03056032529709369
Rock@@ 0.09640658477577717
Rom@@ 0.034598635188107095
Rud@@ 0.11088441293543586
Sand@@ 0.03582893141552139
Sid@@ 0.09537980437401995
Tan@@ 0.0489336246039422
Tul@@ 0.09752066482351081
UC@@ 0.15190415353148393
Val 0.09134984237343309
Wil@@ 0.025641837290641456
Yu@@ 0.1216243340260252
Zav@@ 0.5255702455559049
Zh@@ 0.14276764711672582
aches 0.05548746250282029
aka 0.04020368111646748
ake 0.024247322922989815
alb@@ 0.03468481935845983
amarca 0.43627536150703927
anne 0.09061632049439795
any@@ 0.04340773349775894
aria 0.023652813793021962
art 0.008991040069050901
aud@@ 0.05993028061937296
audi@@ 0.09086334059741813
back 0.007262166695128641
blog@@ 0.2916461218709264
c.@@ 0.3167033586522357
cha 0.025771276571263557
cz@@ 0.2072852682842224
da@@ 0.08372628119000382
din 0.08075636427289756
economic 0.030077368517600414
ei 0.022860440772961798
ential 0.08223173867923964
ger@@ 0.015819933578584206
gi 0.08989635701791357
ial 0.05210468508806594
ington 0.03004136413730437
iz 0.08279085929994048
ja@@ 0.3321029757069165
ków 0.46847280516069534
mas@@ 0.019562738310082945
metropolitan 0.16825541042509684
och 0.15332049040974113
ocy@@ 0.17291971664499337
oid 0.07592936422365648
ols 0.046229647607401086
pil@@ 0.041080456502297386
rom@@ 0.03077099075589379
sin@@ 0.022255148354909486
son@@ 0.025632853378171568
story 0.015960703529542486
til@@ 0.03405274103124931
towns 0.0627937973953048
ulation 0.04243290450035288
uli 0.12981980230829013
unit 0.030636457965006775
val 0.07345872988462836
women 0.010799694828843114
yo 0.06131621757520717
ér@@ 0.02163451906580884
ń@@ 0.35582461682883904
ская 0.010572603201168452
اختص@@ 1
الأح@@ 0.9795775392603306
الحس@@ 1
الحم@@ 1
السن 1
الصف@@ 1
الطالب 1
العاش@@ 1
الغطاء 1
الفي@@ 0.702156718462895
اللّ@@ 1
المساجد 1
النو@@ 1
الوق@@ 1
اليم 1
جزائ@@ 1
حقوق@@ 1
دج 1
روبن@@ 1
سمبر 1
سينا 1
صحاف@@ 1
طاب@@ 1
عمد 1
عمود 1
غريب 1
فز 1
قاج@@ 1
كارل 1
كوس 1
كيات 1
لقد 1
لله 1
مؤس@@ 1
مرور 1
نطق 1
نيت 1
نيوز 1
واف 1
يخ 1
ڳ@@ 1
প@@ 1
ੂ@@ 1
ﺚ 1
-2 1
1.5@@ 0.5783757276622269
1206 1
1260 0.5682081234088829
1270 0.6469405163974554
1351 1
1398 1
1414 1
1529 0.5002037692509006
1534 0.4813921956401997
1547 0.4355119281127392
1569 0.4509486254138695
1601 0.4299866599303032
1653 0.41006173314636657
1745 0.27343252816119257
1767 0.24940148609256607
1781 0.18973324604920613
51,@@ 0.6222708899266389
80.@@ 1
Anti 0.10478146396704474
Appal@@ 0.33878633274719033
Area 0.0538129417425711
Australia 0.011985148195920687
B1 0.3890060540047896
BA 0.0634284241955954
Biał@@ 0.31829247109171027
Bosnia 0.144987101996624
Che@@ 0.06388633873273813
DO@@ 0.09189657374838713
Dan@@ 0.04960424191286692
Edward 0.02474405971323916
Hamilton 0.0493838982649709
Hindu 0.11482155980390454
Hus@@ 0.06283993365898807
ION 0.3530304171628673
Library 0.044081863038466784
Oc@@ 0.06344717250769706
Philosophy 0.1941016550855126
Point 0.04460470099202404
SE 0.10756019892307687
SF@@ 0.1427277425226855
SI@@ 0.11639568257533262
See 0.03947195832889206
Sok@@ 0.1825069280381755
Sri 0.05496874651780814
To 0.020264214106510987
Tran@@ 0.05494205005108076
Villeneuve 0.31394750730107157
Vir@@ 0.06135778153993868
Za@@ 0.23011655851406232
aceae 0.03701543280059724
ami@@ 0.07222211921270509
aur@@ 0.0393615303845358
civilians 0.1875736115210189
common 0.01688914814388476
cos@@ 0.05340476340114493
cur@@ 0.018418660839509784
din@@ 0.04105081343505096
disease 0.050213598467951925
eb 0.09342570483994278
eland 0.05808638830268577
emia 0.13079102400061043
equ@@ 0.034259073982971865
es.@@ 0.43628362946545096
eu 0.033061658421139596
hk 0.35861079001812346
ii 0.0856200041133949
inum 0.36332669077657537
ière 0.15514391078750667
jan@@ 0.1320120207238634
jure 0.5672840199351544
kin 0.033175121986934585
mes 0.020736300202579768
oblast 0.4115939958790045
original 0.009319657470871875
oscop@@ 0.1550921741145872
ost@@ 0.02908365538437485
populated 0.1810504408102226
por@@ 0.020540918572003967
post 0.017830859618273173
profile 0.11127607345619589
regional 0.028691124667753365
sexual 0.04348423134795587
uz 0.1839546954861359
wala 0.5932121798599116
yc@@ 0.05759603075524829
yed@@ 1
án@@ 0.04982211254319613
ór@@ 0.0870788287653228
اداری 1
ادمی 1
اطع 1
التي 0.03544789479288736
السما@@ 1
العام 0.2276571924883899
الفل@@ 1
القضاء 1
الورا@@ 1
باك 1
بيري@@ 1
تفاق 1
توي@@ 1
حدائق 1
حصل 0.5141196513040026
خوز@@ 1
داي@@ 1
روك@@ 1
زمن 1
صديق 1
فرسان 1
كالي@@ 1
كبير 0.35103196419754584
كرم 1
مصمم 1
وراق 1
وعل@@ 1
وفي@@ 0.8395757980326018
ويم 1
کھیں 1
ۀ 1
یوال 1
গ@@ 1
ੱ@@ 1
☃ 1
ﮅ@@ 1
🐢 1
.net 0.7018436790017181
1001 0.6419539072955635
1316 0.943000431495913
1341 1
1404 0.9210452823242307
1407 1
1450 0.367291834731198
1498 0.6683536930002351
1502 0.6416491582296742
1527 0.48457240146180997
1578 0.4492966044800472
1594 0.46280909152912464
1599 0.45547900650743345
1624 0.3774459513573886
1635 0.33470093730354317
1639 0.42379827084369
1670 0.30156937791405813
1704 0.34106332369689846
1706 0.3925554823982212
1717 0.32146042931920293
2050 0.7462780630224396
4500 0.629105865399492
AE@@ 0.09162998792019583
AR 0.079648435581073
Aegean 0.8753161047884351
Delhi 0.0883401637313441
Est@@ 0.026384070633151208
Europe 0.010812307544753307
Fe@@ 0.030595990020655064
Gan@@ 0.08924523457279938
Gre@@ 0.026436793706081107
Hak@@ 0.10854027478170768
K. 0.050583209902728514
Kaz@@ 0.09018408352365695
Kin@@ 0.045063728160037626
Kit@@ 0.06041992274753286
Lak@@ 0.08214955136613505
Lat@@ 0.04541424681568902
MS@@ 0.08620664275851832
May 0.005688579364522503
Name 0.023608708100413243
Ostr@@ 0.121197413259779
PC 0.04231128351262509
Peri@@ 0.11019803121037126
[...]
