de 1
, 1
. 0.9995097791773659
la 1
et 1
le 1
à 1
en 1
&quot; 0.9446966928904464
l&apos; 1
des 1
est 1
@-@ 1
du 1
les 1
d&apos; 1
un 1
( 1
) 1
une 1
dans 1
par 1
au 1
’ 1
pour 1
il 1
qui 1
a 0.5043265679030892
que 1
Le 1
sur 1
Il 1
son 1
avec 1
La 1
se 1
: 1
plus 1
l 1
sont 1
En 1
aux 1
é 1
ou 1
Les 1
sa 1
« 1
» 1
été 1
elle 1
ée 1
d 1
s&apos; 1
qu&apos; 1
ce 1
ses 1
comme 1
és 1
deux 1
ne 1
L&apos; 1
ent 1
ant 1
ées 1
pas 1
ont 1
fait 1
dé@@ 1
; 0.7221306569810211
er 0.8670455481442895
entre 1
mais 1
on 0.4131053395628469
y 0.3882203135522209
Elle 1
cette 1
sous 1
é@@ 1
même 1
était 1
être 1
lui 1
n&apos; 1
dont 1
es 0.6629699585362813
après 1
leur 1
% 1
où 1
également 1
commune 1
France 1
s 1
ation 1
ville 1
ait 1
ré@@ 1
alors 1
&apos; 0.6908778079491471
ans 1
aussi 1
autres 1
ainsi 1
Saint 1
partie 1
ie 1
premier 1
ement 1
fut 1
nom 1
première 1
re@@ 1
lors 1
À 1
ces 1
puis 1
années 1
contre 1
peut 1
in@@ 1
trois 1
depuis 1
ale 1
aire 1
avant 1
groupe 1
né 1
plusieurs 1
ations 1
vers 1
ité 1
Cette 1
très 1
Dans 1
ils 1
age 1
jusqu&apos; 1
fois 1
2 0.725020223904024
in 0.04320114784233319
année 1
/ 0.5974631865841515
fin 1
S@@ 1
avoir 1
Paris 1
ère 1
te 1
an 0.20126686327687465
mort 1
Jean 1
avait 1
tout 1
français 1
- 0.697323904575238
e 1
De 1
temps 1
notamment 1
1 0.5777585047778497
famille 1
is 0.137074913329018
el 0.16020275062571981
Ce 1
ine 1
place 1
ch@@ 1
sans 1
Au 1
monde 1
L@@ 1
P@@ 1
saison 1
ques 1
c@@ 1
équipe 1
Après 1
C@@ 1
sud 1
pré@@ 1
leurs 1
ons 1
lieu 1
p@@ 1
suite 1
pays 1
elles 1
ants 1
nord 1
tes 1
eux 1
us 1
D@@ 1
ou@@ 1
Biographie 1
autre 1
3 0.6869657960615542
faire 1
partir 1
États 1
grand 1
Une 1
région 1
aires 1
titre 1
cours 1
bien 1
devient 1
peu 1
B@@ 0.9426469130191241
ci 1
s@@ 0.8657150116911133
non 1
T@@ 0.9781425160280368
F@@ 1
G@@ 0.9682198342410174
par@@ 1
eau 1
&amp; 0.7510748429907339
Un 1
R@@ 1
moins 1
iste 1
guerre 1
quatre 1
V@@ 1
al 0.4158731438325182
soit 1
M@@ 1
en@@ 0.8988024845899591
r@@ 1
C&apos; 1
film 1
encore 1
nouveau 1
u 1
pendant 1
Son 1
aient 1
général 1
tous 1
forme 1
politique 1
vie 1
at 0.17863489651192252
O@@ 1
série 1
n@@ 1
t@@ 1
g@@ 1
ales 1
tant 1
con@@ 1
i 1
4 0.6858996819821889
ligne 1
ar@@ 1
début 1
A@@ 0.9455140640762723
située 1
celle 1
Unis 1
an@@ 0.9768137387228315
État 1
enne 1
nombre 1
ante 1
É@@ 1
celui 1
fils 1
française 1
L 1
grande 1
eur 1
qu 1
ens 1
club 1
N@@ 0.9141235938385478
n 1
donc 1
selon 1
village 1
it 0.28484514497951485
on@@ 1
Pour 1
ouest 1
On 0.8429879819322494
ers 0.8100820775269448
o@@ 1
album 1
tard 1
histoire 1
c 1
ise 1
is@@ 1
ères 1
trouve 1
nouvelle 1
or@@ 1
ac@@ 1
Histoire 1
ensuite 1
quelques 1
ag@@ 1
si 1
l@@ 1
département 1
centre 1
ite 1
compte 1
père 1
re 1
c&apos; 1
président 1
époque 1
b@@ 1
v@@ 1
f@@ 1
deuxième 1
étaient 1
part 1
6 0.7221643498606897
ayant 1
able 1
ages 1
dernier 1
population 1
situé 1
étant 1
période 1
2010 0.8642196295353177
m@@ 1
ique 1
H@@ 0.7834284740179241
environ 1
ins 1
ue 1
dit 1
roi 1
ér@@ 1
Ch@@ 1
po@@ 1
près 1
église 1
nombreux 1
or 0.2688465803473055
d@@ 0.9125369677997142
mois 1
face 1
tour 1
t 0.6508669835046328
origine 1
5 0.6054691043483432
Ils 1
ure 1
èrent 1
im@@ 1
gouvernement 1
ette 1
Ces 1
ap@@ 1
di@@ 1
o 0.47871704167345097
Europe 1
tr@@ 1
isme 1
Pierre 1
ad@@ 1
co@@ 1
j@@ 1
nationale 1
espèce 1
chez 1
of 0.021181139836042816
Ar@@ 1
service 1
al@@ 0.7955009930201483
sur@@ 1
ensemble 1
E@@ 0.8055374291562418
car 1
I@@ 1
cinq 1
me 1
ance 1
homme 1
J@@ 0.9843830395853682
ateur 1
ab@@ 0.8775309825988018
nommé 1
istes 1
The 0.0663625043225011
chef 1
ements 1
permet 1
communes 1
afin 1
ancien 1
Louis 1
eurs 1
2018 1
K@@ 0.6585894812292206
br@@ 1
hui 1
souvent 1
sou@@ 1
ti@@ 1
reste 1
carrière 1
prend 1
el@@ 0.7681207851306465
durant 1
cas 1
y@@ 1
jeu 1
as 0.07658250654853233
effet 1
am@@ 1
armée 1
études 1
mer 1
Nord 1
membre 1
niveau 1
jour 1
at@@ 1
av@@ 1
Mar@@ 1
doit 1
société 1
én@@ 1
rue 1
ét@@ 1
rôle 1
ents 1
national 1
ts 0.9994270644276005
membres 1
us@@ 1
peuvent 1
sera 1
per@@ 1
américain 1
habitants 1
ir 1
h@@ 0.8709261161953833
projet 1
inter@@ 1
Z@@ 0.9049618137930839
tique 1
mise 1
chaque 1
née 1
ï@@ 1
ailleurs 1
ire 1
œuvre 1
Sa 1
i@@ 1
Selon 1
els 1
mondiale 1
point 1
ren@@ 1
présente 1
territoire 1
pl@@ 1
troisième 1
2011 0.7374014290019353
ard 1
10 0.5205256507658435
système 1
premiers 1
a@@ 1
Par 1
dès 1
site 1
finale 1
exemple 1
toujours 1
porte 1
travail 1
Sud 1
Mais 1
f 1
base 1
2000 1
li@@ 1
ille 1
z@@ 0.7737366222658641
poste 1
droit 1
jours 1
7 0.6175242896664974
2014 0.782761728032435
_ 0.8440870458608224
and 0.01998679056273101
match 1
em@@ 1
tions 1
os 0.5953563131928934
toute 1
ol@@ 1
sein 1
Charles 1
it@@ 1
personnes 1
enfants 1
Guerre 1
cr@@ 1
om@@ 1
8 0.6053689394103984
e@@ 0.621471137013237
cet 1
nombreuses 1
ot@@ 1
2015 0.7645425612996852
toutes 1
2009 0.7650437422508392
Lors 1
long 1
ir@@ 1
raison 1
certains 1
Des 1
dis@@ 0.8856408083684973
era 0.8467425880703258
ais 1
ateurs 1
es@@ 0.7707658078981141
ul@@ 1
château 1
bi@@ 1
ill@@ 1
gr@@ 1
│ 1
u@@ 1
ordre 1
six 1
succès 1
mis 1
vi@@ 1
New 0.45466740552262347
antes 1
prix 1
2008 0.7406042843457347
tête 1
pr@@ 1
rapport 1
mon@@ 1
université 1
maison 1
école 1
A 0.3156143838882511
construction 1
the 0.008826864742912902
siège 1
championnat 1
2012 0.6986420041275142
fille 1
mé@@ 1
ur@@ 1
musique 1
type 1
agit 1
che 1
jeune 1
art 1
teurs 1
Grand 1
connu 1
eu 1
grâce 1
va 1
province 1
écrit 1
points 1
sé@@ 1
m 0.5795689497440547
2013 0.7123193892362603
production 1
île 1
met 1
W@@ 0.5262451826969741
hommes 1
ables 1
laquelle 1
développement 1
loi 1
remporte 1
Marie 1
Al@@ 0.9536341348612696
ex@@ 1
2020 0.850589958491534
état 1
ministre 1
principale 1
teur 1
ès 1
femme 1
té 1
– 0.1409019868407406
ter 0.8395764792585989
formation 1
but 0.29420232876100505
as@@ 0.84280678001377
participe 1
II 0.922982612090155
pouvoir 1
ologie 1
ég@@ 1
âge 1
ets 1
joue 1
aujourd&apos; 1
mar@@ 1
ane 1
ités 1
corps 1
car@@ 1
rencontre 1
version 1
public 1
ennes 1
Depuis 1
moyenne 1
mes 1
création 1
qu@@ 1
Paul 1
2016 0.6711312421815039
ass@@ 1
cor@@ 1
Dé@@ 1
2007 0.700908501809198
Allemagne 1
ro@@ 1
2017 0.7152428534337566
route 1
demi 1
commence 1
ci@@ 1
ic@@ 1
formula 0.8527700878189394
au@@ 1
joueur 1
côté 1
2006 0.7101372794582284
Coupe 1
dernière 1
François 1
femmes 1
Car@@ 1
suivante 1
ate 0.4803421462927219
its 0.23945477799264198
football 1
op@@ 1
Y@@ 1
seul 1
Con@@ 1
ancienne 1
grands 1
zone 1
ceux 1
C 1
plan 1
gé@@ 1
th@@ 0.8568111284992116
furent 1
1990 1
passe 1
devant 1
oc@@ 1
ar 0.36209924226102613
petit 1
déjà 1
eaux 1
tion 1
produit 1
quement 1
ia 0.8666215309661486
travaux 1
ines 1
Ré@@ 1
ente 1
retour 1
ence 1
ph@@ 1
isation 1
obtient 1
er@@ 0.4009930503181519
ge 1
militaire 1
direction 1
tre 1
x 1
République 1
différentes 1
Italie 1
terme 1
gu@@ 1
élections 1
date 1
John 0.6776105248427405
chanson 1
anglais 1
ellement 1
mère 1
ies 1
20 0.5163983378074228
si@@ 1
9 0.5443616098085252
parmi 1
Avec 1
ain 1
ver@@ 0.47858553940150333
D&apos; 1
os@@ 1
Mon@@ 1
pi@@ 1
ier 1
euse 1
st@@ 0.6464415917144596
édition 1
genre 1
réseau 1
milieu 1
gt 0.907616874591929
tandis 1
parti 1
il@@ 1
abord 1
ats 1
espèces 1
alité 1
ton 1
ène 1
15 0.5446760644787542
cré@@ 1
dix 1
2005 0.7562068932504523
bo@@ 1
frère 1
parfois 1
urs 1
ent@@ 0.9350936327709547
use 0.782902521660301
2019 0.6489622585873042
communauté 1
id@@ 1
liste 1
to@@ 1
Cependant 1
sols 1
ites 1
da 0.469767703539558
donne 1
trans@@ 1
seulement 1
utilisé 1
Sur 1
particulier 1
Description 1
ot 1
cadre 1
rec@@ 1
proche 1
beaucoup 1
britannique 1
lo@@ 1
huit 1
qué 1
directeur 1
U@@ 0.7759194238271578
zones 1
York 0.6894221275470855
fer@@ 1
américaine 1
aurait 1
Ses 1
division 1
différents 1
Union 1
Jacques 1
ches 1
recherche 1
second 0.585845757787572
k@@ 0.5486653892952642
créé 1
él@@ 1
international 1
scène 1
cour@@ 1
réalisé 1
font 1
sorti 1
livre 1
all@@ 1
ra 0.9547607381915396
one 0.19528200048099417
bataille 1
fonction 1
ade 1
épouse 1
sept 1
12 0.4491586355907484
gare 1
occupation 1
sens 1
ni 1
aide 1
man@@ 1
ides 1
principalement 1
auteur 1
autour 1
2004 0.739249681286293
com@@ 1
victoire 1
bou@@ 1
existe 1
... 1
cependant 1
objet 1
év@@ 1
surtout 1
um 0.3412592875149575
premières 1
Canada 1
rivière 1
ve 0.33891815743182413
aine 1
le@@ 0.7613151714089698
petite 1
équipes 1
An@@ 0.6116827864993978
ig@@ 1
publié 1
plupart 1
mouvement 1
millions 1
so@@ 1
ob@@ 1
lt 0.8406786375632397
seconde 1
Jeux 1
œuvres 1
bois 1
voir 1
1999 0.9603085622313696
tels 1
rejoint 1
style 1
Université 1
man 0.3944421584634599
Conseil 1
allemand 1
na 0.8988532667608646
cause 1
Bar@@ 1
cher 1
activité 1
z 0.9244348685835624
I 0.35844839510788823
Espagne 1
quartier 1
mesure 1
domaine 1
entreprise 1
langue 1
comté 1
h 0.7656361829055792
onn@@ 1
demande 1
lequel 1
ice 1
là 0.28694476219991444
reçoit 1
fer 1
juin 1
Cor@@ 1
avaient 1
haut 1
suivant 1
Afrique 1
Par@@ 1
bar@@ 1
Tr@@ 0.9429592897400512
dire 1
ore 1
marque 1
fin@@ 1
quant 1
position 1
ec@@ 0.9717182962043757
Parti 1
Angleterre 1
déc@@ 1
élu 1
è@@ 1
données 1
appelé 1
seule 1
ner 1
classe 1
ues 1
roman 1
In@@ 0.8290685105084721
manière 1
action 1
finalement 1
aise 1
esse 1
pris 1
ai 1
station 0.802514845807535
gauche 1
jamais 1
conseil 1
ach@@ 1
propre 1
2002 0.7676265244132012
mai 1
européenne 1
historique 1
ni@@ 1
étude 1
lorsque 1
min@@ 1
important 1
nouvelles 1
mars 1
port 1
col@@ 1
possède 1
appar@@ 1
1998 0.965856717644571
Am@@ 1
septembre 1
moment 1
article 1
Per@@ 1
vol@@ 1
ru@@ 1
donné 1
présence 1
voie 1
iques 1
no@@ 1
ant@@ 1
terre 1
certaines 1
organisation 1
ép@@ 1
ta 0.8736689615566101
ter@@ 0.8161191504985331
amp 0.47374913509732497
ay 1
matchs 1
2003 0.7596038011397921
Robert 1
der 0.025754610076154098
principal 1
ém@@ 1
Ligue 1
occasion 1
1980 1
Tour 1
erie 1
cela 1
groupes 1
Henri 1
30 0.48769824290597286
parc 1
référence 1
Gu@@ 1
quand 1
2001 0.7334109798898665
&#91; 0.43611269651179585
entrée 1
cu@@ 1
annonce 1
k 0.5498760260321174
cro@@ 1
voit 1
et@@ 0.6761362877117484
&#93; 0.4319491222977793
jeunes 1
juillet 1
rée 1
Historique 1
généralement 1
! 0.7387054610974592
octobre 1
termine 1
° 1
di 1
canton 1
Mal@@ 1
fort 1
celles 1
mo@@ 1
mettre 1
Carrière 1
travers 1
théâtre 1
isé 1
permettant 1
classement 1
ile 0.965544752694835
Géographie 1
ac 1
16 0.5030256870497033
0 0.6803235008731756
grandes 1
onne 1
11 0.44895707153758363
issent 1
atif 1
= 0.6694591595715715
Joseph 1
Br@@ 1
Mé@@ 1
sort 1
construit 1
professeur 1
capitale 1
course 1
Michel 1
Ainsi 1
prendre 1
Londres 1
taux 1
Est 1
jou@@ 1
Mor@@ 1
Québec 1
bourg 1
éch@@ 1
x@@ 1
1970 1
Japon 1
culture 1
villes 1
14 0.5135468951348954
politiques 1
Nouvelle 1
comp@@ 1
compétition 1
vue 1
bâtiment 1
court 1
18 0.4441398816658148
vient 1
ment 1
Col@@ 1
compagnie 1
administration 1
rapidement 1
ba@@ 1
2021 0.6608052484683423
pe 1
composé 1
res 1
janvier 1
meurt 1
district 1
Ber@@ 1
résultats 1
éri@@ 1
mètres 1
décide 1
internationale 1
Bou@@ 1
retrouve 1
musée 1
meilleur 1
importante 1
B 0.7326404105215492
semble 1
anti@@ 1
tu@@ 1
troupes 1
su@@ 1
bl@@ 1
avril 1
services 1
Di@@ 1
activités 1
1950 1
Liste 1
Ma@@ 1
ser@@ 1
19 0.5167235136221207
auprès 1
ème 1
serait 1
Ver@@ 0.550072375224513
San 0.6047282220377648
campagne 1
Empire 1
tis@@ 1
ures 1
décembre 1
films 1
Ro@@ 1
climat 1
Pays 1
août 1
comprend 1
Grande 1
ceinture 1
13 0.5089076482712331
r 0.9905052939646811
ative 1
sortie 1
carte 1
Or@@ 1
rem@@ 1
ler 0.6677268418620799
rés 1
ing 0.12266977048060133
g 0.6090660452402628
Si 1
ma@@ 1
créée 1
pour@@ 1
seur 1
programme 1
17 0.5222096144039607
Pendant 1
alisation 1
Église 1
ri@@ 0.9888885603875978
novembre 1
comte 1
ettes 1
actuelle 1
cou@@ 1
unique 1
droite 1
ina 0.7444150036072394
populaire 1
rou@@ 1
be 0.1167813668278517
supérieur 1
Com@@ 1
Rome 1
inc@@ 1
rég@@ 1
atteint 1
ences 1
générale 1
enti@@ 1
D 0.9247728080851925
ole 1
ign@@ 1
Mont@@ 1
faisant 1
p 0.7214755509131221
argent 1
ains 1
droits 1
lac 1
ète 1
économique 1
for@@ 0.8354904638246463
terrain 1
voix 1
forces 1
Pologne 1
Seconde 1
total 0.7837739575775804
départ 1
ev@@ 1
Comme 1
am 0.16820671636270362
can@@ 1
Chine 1
terres 1
rel@@ 1
possible 1
ang@@ 0.9948904374032086
ka 1
Sainte 1
cinéma 1
particulièrement 1
En@@ 1
association 1
quer 1
25 0.48462617335060576
signe 1
contrôle 1
modèle 1
découvert 1
russe 1
1960 1
honneur 1
alement 1
sol@@ 1
prise 1
élection 1
Qu@@ 1
ades 1
val@@ 1
mission 1
vis@@ 1
nous 1
produits 1
fi@@ 1
éc@@ 1
intérieur 1
Th@@ 0.9339931832869347
espace 1
og@@ 1
tres 1
champion 1
Ouest 1
nes 1
nouveaux 1
un@@ 0.21823717447601332
ises 1
Belgique 1
désormais 1
façon 1
large 0.7827939297905424
entes 1
tri@@ 1
ois 1
Re@@ 0.5709636092335795
? 1
pro@@ 1
res@@ 1
etc. 1
ances 1
tiques 1
maire 1
municipalité 1
Prix 1
technique 1
… 1
idée 1
territoires 1
critique 1
Se@@ 0.831647876245875
Pr@@ 1
Cet 1
Russie 1
— 0.07604455743968573
arrivée 1
ê@@ 1
1991 0.868400078568298
Philippe 1
lu@@ 1
aines 1
axe 1
do@@ 1
Deux 1
ti 1
éléments 1
personnage 1
Royaume 1
Plusieurs 1
sion 1
ché 1
combat 1
se@@ 0.685169007422563
issant 1
joueurs 1
aucun 1
sol 1
our@@ 1
titres 1
to 0.0132207950268856
centrale 1
février 1
ber@@ 0.9504673356757488
Amérique 1
contrat 1
altitude 1
David 1
importance 1
son@@ 1
sub@@ 0.7846779262841571
Co@@ 0.8965754402563408
vingt 1
accès 1
ch 0.6748622296793485
dessus 1
olympiques 1
montre 1
assez 1
Centre 1
chemin 1
source 1
iser 1
dou@@ 1
char@@ 1
1997 0.7742836449388341
enc@@ 1
buts 1
allemande 1
ux 1
devenu 1
publie 1
fl@@ 1
mor@@ 1
Val@@ 1
double 1
force 1
mal@@ 1
historiques 1
duc 1
attaque 1
température 1
astéroïdes 1
1995 0.8026826463320345
outre 1
Durant 1
évolution 1
24 0.5072072930657588
nommée 1
École 1
émission 1
1996 0.7594744541884128
Le@@ 0.6883317586907235
travaille 1
évêque 1
trop 1
surface 1
Bo@@ 1
100 0.5263929730368828
issement 1
quitte 1
jeux 1
ve@@ 1
situation 1
die 0.03090757597190761
ologique 1
charge 1
formes 1
quatrième 1
taille 1
sal@@ 1
tés 1
bas 1
devenir 1
men@@ 1
journal 1
libre 1
marché 1
III 1
passage 1
situe 1
artistes 1
rouge 1
ô@@ 1
um@@ 0.6076555048531486
kilomètres 1
Gr@@ 0.9938541975979467
pont 1
cl@@ 1
tive 1
affaires 1
Martin 1
passé 1
publique 1
bord 1
main 0.7745270828895362
ç@@ 1
ami 1
connue 1
anciens 1
personne 1
apparaît 1
FC 1
inscrit 1
Bien 1
majorité 1
R 0.8765807974312216
mont 1
italien 1
ut 1
salle 1
acteur 1
lignes 1
rap@@ 1
principaux 1
ana 0.5888576193518841
porté 1
rend 1
tel 1
santé 1
Mo@@ 1
lie 1
pu 1
atique 1
chaîne 1
ori@@ 1
lég@@ 1
1992 0.7495969721039141
ture 1
spéci@@ 1
air 1
F 0.9718705391527123
la@@ 1
ément 1
compris 1
Be@@ 0.7093278969283349
50 0.6373700193610856
pièces 1
parties 1
représente 1
intérêt 1
ta@@ 1
astéroïde 1
utilisation 1
Sh@@ 0.6537493967699751
plutôt 1
end@@ 0.8786969096220258
ouvrage 1
+ 0.9489418509339667
fit 1
1994 0.7523572045389928
Georges 1
heures 1
saint 1
Première 1
por@@ 1
Société 1
ff@@ 1
sa@@ 1
suit 1
divers 1
toutefois 1
ne@@ 0.9080152358939286
uses 1
derniers 1
vidéo 1
recensement 1
az@@ 1
Char@@ 1
faible 1
agricoles 1
arrière 1
éré 1
télévision 1
unité 1
reçu 1
valeur 1
vallée 1
M 0.975042886254376
tor@@ 1
cul@@ 1
21 0.4674072806809715
Du 1
lois 1
simple 1
sor@@ 1
compos@@ 1
sécurité 1
arts 1
telle 1
af@@ 0.838432141953796
ov@@ 1
ins@@ 1
cap@@ 1
b 0.5263481008349421
chant 1
S 0.8393025378833874
bal@@ 1
cité 1
lier 1
côtés 1
malgré 1
constitu@@ 1
fs 1
cour 1
our 1
atrice 1
1981 1
sions 1
tin 1
ves 1
km 0.38899824831933066
aï@@ 1
Bretagne 1
contr@@ 1
sciences 1
Parmi 1
ati@@ 1
ulaire 1
Thomas 0.93378329048835
chapelle 1
peintre 1
aucune 1
ad 0.755599743646786
longueur 1
X 0.9196240243124432
plan@@ 1
considéré 1
armes 1
alisme 1
ano 0.7703144222273887
André 1
des@@ 0.6231433125660925
forte 1
pratique 1
tournoi 1
mariage 1
issue 1
clubs 1
secteur 1
1993 0.7564060619226668
savoir 1
ini 1
acc@@ 1
vice 1
enn@@ 1
Suisse 1
moitié 1
ien 1
conditions 1
part@@ 1
bande 1
sépar@@ 1
livres 1
William 0.7121312188974607
sc@@ 1
petits 1
prom@@ 1
ra@@ 1
Club 0.7869583288906103
onné 1
hé@@ 1
ion 1
propose 1
cas@@ 1
Elles 1
reprises 1
utilisée 1
section 1
dev@@ 1
Plus 1
emb@@ 1
onnement 1
presse 1
maître 1
abbaye 1
22 0.4810582553875818
grav@@ 1
célèbre 1
ur 1
isant 1
ires 1
police 1
influence 1
défense 1
représentant 1
gestion 1
E 0.9045471758612685
As@@ 1
régions 1
fonctions 1
cal@@ 1
vo@@ 1
proximité 1
1975 1
lorsqu&apos; 1
ut@@ 0.9069748378227734
longue 1
For@@ 1
catholique 1
Man@@ 0.8643171633921503
1988 0.8386326921589273
hauteur 1
nuit 1
ten@@ 0.7771073580567722
comptait 1
â@@ 1
ma 0.8391345717975763
presque 1
co 0.588532524483805
faut 1
neuf 1
qualité 1
ge@@ 0.5170605467428007
empereur 1
secrétaire 1
moteur 1
passer 1
sujet 1
te@@ 0.7377736049120097
1971 1
ay@@ 1
pierre 1
texte 1
député 1
médaille 1
int@@ 1
commerce 1
Bel@@ 1
Institut 1
Dès 1
isi@@ 1
lé@@ 1
sélection 1
Sal@@ 1
évolue 1
-@@ 0.6509265784070558
accord 1
entr@@ 1
conn@@ 1
enseignement 1
ak@@ 0.6234122835685791
vitesse 1
tableau 1
hi@@ 1
entreprises 1
personnages 1
types 1
jusqu 1
ley 0.5557058107836076
Claude 1
dic@@ 1
protection 1
X@@ 0.8241001665703723
réalise 1
ager 1
Bas 1
mot 1
soutien 1
w@@ 0.32746594837918425
abilité 1
appel 1
royaume 1
aqu@@ 1
bes 1
inf@@ 1
certain 1
lance 1
lieux 1
doivent 1
indi@@ 1
V 0.8865755732621087
ban@@ 1
aliste 1
arrondissement 1
construite 1
Académie 1
ais@@ 1
tiers 1
relations 1
vit 1
artiste 1
prince 1
mêmes 1
siècle 1
od@@ 0.9139267139711104
hiver 1
ol 1
né@@ 1
fondé 1
actuel 1
23 0.4938469287982586
James 0.7218887178674807
rant 1
enfant 1
0,@@ 1
nature 1
Ab@@ 0.46055143512086694
iss@@ 1
permis 1
fr@@ 1
tur@@ 1
St@@ 0.5189511534534746
major 0.6979777426868847
Entre 1
principales 1
voïvodie 1
George 0.7302140893130902
Uni 1
suivi 1
appelée 1
ain@@ 1
orbite 1
télé@@ 1
épisode 1
hors 1
portant 1
probablement 1
bas@@ 1
moyen 1
Pl@@ 1
O 0.5492516053478733
Championnat 1
directement 1
continue 1
structure 1
vu 1
débuts 1
militaires 1
P 1
1989 0.7322507426625653
ing@@ 0.6876854304718435
monuments 1
Loire 1
fondée 1
professionnel 1
mode 1
pos@@ 1
Australie 1
Nicolas 1
form@@ 1
isée 1
Pi@@ 1
von 0.042287261569674606
rés@@ 1
parents 1
localité 1
composée 1
arrive 1
T 0.7983184800255932
ell@@ 0.986807684458957
nier 1
joué 1
thé@@ 1
décrit 1
naissance 1
seurs 1
ino 0.8396160222404715
offre 1
Sch@@ 0.37760891926179907
and@@ 0.813939940997674
bonne 1
Li@@ 1
out 0.21775645782751274
haute 1
pièce 1
sociale 1
Lyon 1
blanc 1
El@@ 0.7109362249475645
bâtiments 1
rendre 1
régime 1
Premier 1
circonscription 1
tenu 1
acte 1
pied 1
ouverture 1
ski 1
patrimoine 1
dispose 1
éli@@ 1
présent 1
liv@@ 1
traité 1
Po@@ 1
40 0.6221856979380241
navire 1
jouer 1
énergie 1
noms 1
ges 1
compl@@ 1
tionn@@ 1
obtenir 1
dite 1
enfin 1
minutes 1
chansons 1
not@@ 1
éducation 1
U 0.6916124695308837
Ex@@ 0.8736369673100682
mi@@ 1
phase 1
diverses 1
chargé 1
tournée 1
concernant 1
Del@@ 1
derrière 1
bon 1
question 1
figure 1
locale 1
moderne 1
mer@@ 0.7191343039950422
Sé@@ 1
forêts 1
îles 1
catégorie 1
Ser@@ 1
mat@@ 1
élève 1
classique 1
intégr@@ 1
000 1
feu 1
garde 1
venir 1
transport 1
découverte 1
classé 1
ote 1
lettres 1
.@@ 0.5887649098904377
techniques 1
lan@@ 1
Bi@@ 1
tour@@ 1
mi 1
ey 0.9114223956697165
Berlin 0.7756929652788015
capitaine 1
tir 1
hor@@ 1
H 1
ministère 1
écrivain 1
Bal@@ 1
rien 1
édi@@ 1
ologiques 1
G 0.8518799272861454
rive 1
esc@@ 1
choix 1
belge 1
camp 1
So@@ 1
créer 1
courant 1
ari@@ 1
autant 1
je 1
atiques 1
Lo@@ 1
De@@ 0.6823689999596618
eut 1
Richard 1
caractéristiques 1
usage 1
constitue 1
pourrait 1
couleur 1
de@@ 0.3245271628983576
ya 0.2772284648861852
coup 1
viol@@ 1
ov 1
via 1
statut 1
noir 1
ouvert 1
éditions 1
donner 1
Pro@@ 0.8912723886300165
reprend 1
off@@ 1
pan@@ 1
1986 0.7800538260796739
sh@@ 0.39147152651933864
conf@@ 1
autor@@ 1
itaire 1
no 0.13500381216258342
élo@@ 1
Terre 1
utilise 1
sign@@ 1
bassin 1
Vi@@ 1
N 0.9321655927646375
économie 1
nom@@ 1
Bor@@ 1
vol 1
euses 1
Association 0.8104513222403141
Cas@@ 1
Alors 1
aud 1
revient 1
illes 1
ess@@ 1
tar@@ 1
coll@@ 1
navires 1
crée 1
désigner 1
puissance 1
actuellement 1
pu@@ 1
frères 1
tours 1
ani 1
conseiller 1
Her@@ 0.865397661945752
dernières 1
Révolution 1
del 0.048414452087435306
occupe 1
social 0.8073847504961139
Q@@ 0.9623405868827166
eng@@ 0.9450996079264095
hôtel 1
Ac@@ 1
théorie 1
Caractéristiques 1
26 0.47589628305573023
yl@@ 1
exploitation 1
voyage 1
anim@@ 1
réalis@@ 1
sert 1
Synopsis 1
collection 1
stade 1
suivantes 1
peuple 1
actions 1
gi@@ 1
tient 1
eté 1
problèmes 1
emploi 1
industrie 1
architecte 1
latin 1
scientifique 1
participation 1
numéro 1
essentiellement 1
opération 1
seront 1
ex 1
Des@@ 1
ètes 1
sœur 1
cœur 1
soldats 1
1984 0.7674181761496428
frontière 1
mondial 1
étique 1
propos@@ 1
fiée 1
oir 1
entraîneur 1
objectif 1
exposition 1
fon@@ 1
image 1
rent 1
record 0.6476965705233111
conserv@@ 1
défaite 1
auteurs 1
Guillaume 1
Sou@@ 1
décision 1
sources 1
officiellement 1
dur@@ 1
coupe 1
éd@@ 1
tra 1
br 0.9724167431795997
mal 1
ates 0.492391143644431
fonctionn@@ 1
cartes 1
1987 0.7316797763684828
supérieure 1
saisons 1
devait 1
langues 1
Es@@ 1
ah 0.7841066170608402
ang 0.9274709563062864
Su@@ 1
palais 1
bul@@ 1
Vo@@ 1
anc@@ 1
est@@ 0.6439643872540782
gouverneur 1
1985 0.7493516814850527
central 0.9186129974590248
arrêté 1
Malgré 1
commencé 1
land 0.304376347937146
Cr@@ 1
conduit 1
ici 1
sites 1
obtenu 1
pas@@ 1
soviétique 1
lis 1
littérature 1
1930 1
fier 1
actrice 1
1968 0.8423816609508676
déclare 1
fond 1
illon 1
explo@@ 1
naturel 1
remporté 1
existence 1
revue 1
do 0.31804979850497184
Antoine 1
formé 1
ouvre 1
Haute 1
Seine 1
fié 1
lar@@ 1
bre@@ 1
Cour@@ 1
Montréal 1
alités 1
médi@@ 1
loin 1
tenue 1
aller 1
28 0.44566502265566504
rac@@ 1
retraite 1
concours 1
single 0.45568407600620514
importants 1
aises 1
1945 0.5935873944704569
Du@@ 1
rom@@ 1
propriété 1
Alexandre 1
pape 1
épreuve 1
eb@@ 0.64245812987408
physique 1
opposition 1
européen 1
étape 1
construire 1
ali@@ 1
environnement 1
Is@@ 1
mieux 1
em 0.68937264364259
ira 1
changement 1
Moyen 1
ï 1
telles 1
tif 1
indépendance 1
27 0.45327084100301385
Au@@ 1
largement 1
1940 0.901805967852352
quée 1
densité 1
ann@@ 1
istique 1
disposition 1
1982 0.7711557272113543
critiques 1
éti@@ 1
meilleure 1
objets 1
gal@@ 1
Dame 1
établissement 1
ica 0.6708797442989146
ération 1
ache 1
anie 1
studio 1
bres 1
tier 1
National 0.2643524955112404
semaine 1
françaises 1
cre@@ 0.9839949694306999
Cela 1
remplacé 1
ologue 1
viv@@ 1
architecture 1
Mer@@ 1
som@@ 1
illé 1
Assemblée 1
côte 1
recherches 1
ices 1
att@@ 1
semaines 1
Californie 1
idae 1
permettent 1
chev@@ 1
magazine 1
Gar@@ 1
bert 1
ré 1
suivants 1
van 1
passant 1
Royal 0.7115761796813594
relation 1
dés@@ 1
Autriche 1
familles 1
montagne 1
commandant 1
10@@ 0.7530605767080907
me@@ 0.8594169296483296
pe@@ 0.7529612781923821
ly@@ 1
lutte 1
Français 1
Anne 1
rejoindre 1
regroupe 1
du@@ 0.9863991867662761
textes 1
capacité 1
Me@@ 0.753257186969444
religieux 1
japonais 1
1983 0.7476782441524237
peinture 1
communication 1
─ 1
î@@ 1
personnel 1
maisons 1
oire 1
asse 1
processus 1
matière 1
oppos@@ 1
championnats 1
iv@@ 1
forêt 1
berg 0.6362631437226861
kh@@ 0.9238615467480957
sionn@@ 1
adi@@ 1
ond 1
extérieur 1
limite 1
prison 1
isés 1
journaliste 1
superficie 1
be@@ 0.29949223402803293
sup@@ 1
1972 0.7507650387588485
ata 0.6822702842744509
commun 1
ouvrages 1
longtemps 1
couleurs 1
distance 1
régulièrement 1
utiliser 1
projets 1
mis@@ 1
anti 1
Mexique 1
constitué 1
Notre 1
bus 1
utilisés 1
Dieu 1
ules 1
gmina 1
Har@@ 0.8057947105978015
isent 1
tradition 1
fond@@ 1
ouv@@ 1
prati@@ 1
per 0.4629771128420343
if@@ 1
Cré@@ 1
ace 1
El 0.11150928057848178
animaux 1
royale 1
règne 1
arr@@ 1
marquée 1
Bernard 1
radio 0.9482701817088356
ous 0.3693682222535517
Can@@ 1
Maurice 1
diamètre 1
M. 1
durée 1
Albert 1
sommet 1
locaux 1
mari@@ 1
dr@@ 0.6470312336332351
ones 0.7895171733634173
1973 0.7860524306774676
label 1
devint 1
agent 1
cinquième 1
alis@@ 1
Toutefois 1
intitulé 1
former 0.36166725764981017
quelque 1
IV 1
espagnol 1
atteindre 1
eg@@ 0.510936926094769
dollars 1
Fr@@ 0.9148108204663795
signifie 1
veut 1
couple 1
faveur 1
out@@ 0.8541408468243442
information 1
cur@@ 1
sait 1
ea 0.9980228554831829
autorités 1
souff@@ 1
régiment 1
écoles 1
1976 0.7569787622824496
fondateur 1
seigneur 1
oph@@ 1
pén@@ 1
Sous 1
iter 1
crise 1
concer@@ 1
Ri@@ 1
réalisée 1
bronze 1
lettre 1
réserve 1
perd 1
pression 1
1979 0.7259674576677477
ange 1
édifice 1
comporte 1
caractère 1
1920 0.9220968989414253
paroisse 1
tom@@ 1
1977 0.7998451462571576
gl@@ 1
fication 1
Enfin 1
cad@@ 1
1974 0.7498256474848366
No@@ 1
importantes 1
trouver 1
originaire 1
séries 1
plantes 1
tement 1
ep@@ 0.7478857681489245
Ros@@ 1
Bour@@ 1
Certains 1
Vienne 1
Mas@@ 1
préc@@ 1
viennent 1
He@@ 0.8024482943878481
américains 1
Cal@@ 1
paix 1
Pol@@ 0.9485862074418712
uel 1
contient 1
expérience 1
débute 1
ak 0.6395679250015287
connaît 1
sav@@ 1
responsable 1
chacun 1
comité 1
aur@@ 1
Sar@@ 1
entièrement 1
rép@@ 1
trouvent 1
ani@@ 1
répartition 1
train 1
mét@@ 1
chambre 1
affaire 1
cimetière 1
événements 1
cer@@ 1
1978 0.7406404198979116
agé 1
gen@@ 0.657371091578056
Inde 1
faisait 1
conflit 1
prof@@ 1
nouvel 1
alisé 1
rurale 1
onnée 1
ètre 1
participé 1
2@@ 0.7331422297622986
diocèse 1
Michael 0.7037316375680592
étudiants 1
ser 0.4018074795919465
articles 1
Festival 0.8767353721498622
bat@@ 1
dée 1
ki 1
mé 1
Los 0.27584936524074516
fréqu@@ 1
ran@@ 0.98017381275528
Avant 1
civile 1
gar@@ 1
Parlement 1
loc@@ 1
Bruxelles 1
communale 1
don 1
appartient 1
bâ@@ 1
champ 1
Trois 1
déroule 1
privée 1
apparition 1
équ@@ 1
esp@@ 1
juste 1
vers@@ 1
èse 1
Henry 0.8450758763202265
Leur 1
néanmoins 1
Fédération 1
attraction 1
Asie 1
marine 1
filles 1
dessous 1
powiat 1
vari@@ 1
ressort 1
traitement 1
commandement 1
aff@@ 1
parvient 1
lycée 1
reg@@ 0.791429117097021
Brésil 1
lit 1
Ne@@ 0.6211744490535561
petites 1
justice 1
installe 1
provo@@ 1
urbaine 1
usine 1
oux 1
ection 1
romaine 1
Lorsque 1
maladie 1
épisodes 1
hockey 1
pol@@ 1
réalité 1
lumière 1
v 0.7707857387641658
composition 1
Mc@@ 0.5389901398562562
artistique 1
difficile 1
serv@@ 1
der@@ 0.5017564543766192
mains 1
Chambre 1
mil@@ 1
ger 0.9859803620992819
amb@@ 1
Ko@@ 1
60 0.6483463244827556
éro@@ 1
lieutenant 1
tic@@ 1
variables 1
informations 1
Ad@@ 0.8106750755263349
beau 1
hôpital 1
unités 1
onc@@ 1
totale 1
1967 0.7746701717802171
gén@@ 1
ens@@ 0.447298652168265
ball 1
iles 1
ed@@ 0.4465446649522252
élevé 1
principe 1
féminin 1
impos@@ 1
faits 1
explique 1
ys@@ 1
are 0.052036779150687794
amis 1
ara 0.6661618221910343
portent 1
ven@@ 1
analyse 1
maintenant 1
étudie 1
29 0.4358151657517508
italienne 1
ste 1
ond@@ 1
çant 1
indique 1
nég@@ 1
Gal@@ 1
alg@@ 1
habit@@ 1
200 0.6554492949865611
Mat@@ 1
anciennes 1
commission 1
oni@@ 1
ly 0.277393669588763
diffusée 1
jeunesse 1
ili@@ 1
local 0.357935567394601
eff@@ 1
dor@@ 1
organisé 1
diffusion 1
voy@@ 1
professionnelle 1
problème 1
quent 1
infanterie 1
Âge 1
dispos@@ 1
pass@@ 1
mandat 1
approche 1
Cour 1
vous 1
vont 1
couronne 1
ènes 1
porter 1
poids 1
fonds 1
Bé@@ 1
armées 1
doute 1
appelle 1
Pe@@ 1
amour 1
compositeur 1
vente 1
décret 1
cathédrale 1
opérations 1
ez 1
publiée 1
atoire 1
permettre 1
rugby 1
villages 1
Dr@@ 1
déroul@@ 1
prés@@ 1
fortement 1
ram@@ 1
futur 1
lendemain 1
propriétaire 1
Tch@@ 1
municipal 1
finit 1
3@@ 0.6496178815570354
ard@@ 1
code 1
victoires 1
sac@@ 1
Av@@ 1
déclar@@ 1
jug@@ 1
ix 1
manque 1
score 1
Inter@@ 0.8311997444598304
mu@@ 1
développé 1
absence 1
Str@@ 0.6016449347959733
élèves 1
ha@@ 1
nos 1
devenue 1
Gau@@ 1
chinois 1
termes 1
mas@@ 0.9702978159731598
Er@@ 0.45128624558797986
nu@@ 1
1969 0.7268608239587606
uniquement 1
collaboration 1
identi@@ 1
publication 1
Al 0.6002030215528261
étend 1
Puis 1
meilleurs 1
acteurs 1
èmes 1
pal@@ 1
pouvant 1
organ@@ 1
trouv@@ 1
détermin@@ 1
marqu@@ 1
déf@@ 1
voiture 1
connaissance 1
Alpes 1
systèmes 1
mémoire 1
génér@@ 1
basé 1
Laurent 1
réun@@ 1
ger@@ 0.753829538912814
soci@@ 1
tombe 1
écriture 1
û@@ 1
dirige 1
rées 1
agriculture 1
fleuve 1
Mag@@ 1
Go@@ 1
soient 1
appartenant 1
morts 1
ik@@ 0.4791475920233484
mesures 1
sorte 1
régionales 1
q 1
modèles 1
fus@@ 1
Cl@@ 1
80 0.7484874404307083
atifs 1
expression 1
grec 1
outil 1
établir 1
risque 1
Tar@@ 1
réalisateur 1
ête 1
candidat 1
fonde 1
NGC 1
ase 0.9588796520870553
liberté 1
imp@@ 1
cs 1
dispute 1
prolong@@ 1
Pal@@ 1
Maison 1
rang 1
électrique 1
ambi@@ 1
publics 1
Moscou 1
festival 1
portée 1
bureau 1
journée 1
tourn@@ 1
Bl@@ 0.9161716800329949
commande 1
régional 1
iller 1
ed 0.07345865073062911
douze 1
plein 1
rock 0.7929203894859824
lesquels 1
ouverte 1
tures 1
faite 1
mari 1
socialiste 1
ja 0.7629243133311113
bor@@ 1
pay@@ 1
propres 1
parcours 1
élec@@ 1
iti@@ 1
1964 0.7282476438209879
Commission 1
coul@@ 1
résultat 1
tente 1
tro@@ 1
Algérie 1
agricole 1
poursuit 1
lam@@ 1
1962 0.790066772126282
Daniel 1
esprit 1
actifs 1
fondation 1
éviter 1
pose 1
Marseille 1
vin 1
Ren@@ 1
chute 1
valeurs 1
note 1
parti@@ 1
philosophie 1
hom@@ 1
1944 0.623745252296021
mag@@ 1
dispar@@ 1
pé@@ 1
vote 1
ault 1
participer 1
célébr@@ 1
nécessaire 1
naturelle 1
dem@@ 1
enquête 1
parce 1
Ger@@ 0.821697804528941
ie@@ 1
visite 1
chi@@ 1
quet 1
effectue 1
io 0.6929423182616661
application 1
vis 1
ko 1
peine 1
proches 1
vision 1
avion 1
véritable 1
fix@@ 1
chan@@ 1
médecine 1
actif 1
développ@@ 1
dre 1
Irlande 1
Art 0.577356348022334
iers 1
basse 1
lé 1
suisse 1
compose 1
reprise 1
désigne 1
condam@@ 1
Championnats 1
isol@@ 1
èle 1
présenté 1
Vie 1
rend@@ 1
ita 0.7089574241286487
fa@@ 1
produire 1
1965 0.724416389837952
mises 1
dû 1
fil@@ 1
onde 1
gues 1
scientifiques 1
méthode 1
êtes 1
rej@@ 1
4@@ 0.6237397412605359
City 0.2743265578858234
travailler 1
relativement 1
isse 1
cat@@ 1
fusion 1
cher@@ 1
Fl@@ 0.8720651258753336
Ter@@ 1
Ag@@ 1
1966 0.7288282161930596
reine 1
portes 1
31 0.43666082734347605
collabor@@ 1
pes 1
annuelle 1
ient 1
Ph@@ 1
Marc 1
aus@@ 0.30640259232128136
oy@@ 1
gaz 1
collège 1
cit@@ 1
cheval 1
ôme 1
places 1
officier 1
conception 1
nés 1
Peter 0.6043838450859728
officiel 1
ferme 1
pilote 1
neau 1
législatives 1
mène 1
lig@@ 1
René 1
rach@@ 1
moyens 1
bour@@ 1
hér@@ 1
La@@ 1
chanteur 1
graphie 1
cont@@ 1
caractérisée 1
ong 0.6922023221993925
fo@@ 1
fic@@ 1
photos 1
missions 1
puisque 1
log@@ 1
sport 1
World 0.1939714056455829
promotion 1
thème 1
Pré@@ 1
j 1
domin@@ 1
Sol@@ 0.9044396034555314
vert 1
assurer 1
érieures 1
centr@@ 1
ke 0.45672014269156086
communiste 1
ots 1
euros 1
Distribution 1
sau@@ 1
domicile 1
Toulouse 1
poly@@ 1
mur 1
monument 1
voire 1
qués 1
domaines 1
Quelques 1
juge 1
bé@@ 1
ciel 1
voies 1
irent 1
onie 1
Et 1
ae 0.6947653028840791
ich@@ 0.9514949466105583
masse 1
ray@@ 1
sin@@ 1
Chaque 1
den 0.03081818792835835
auté 1
iz@@ 0.5856857658070467
ah@@ 0.5820805481979234
Lu@@ 1
1939 0.684572181308917
trente 1
laisse 1
complexe 1
deur 1
pap@@ 1
Tout 1
aj@@ 0.9428022421425569
crois@@ 1
raisons 1
Cou@@ 1
pouvait 1
rapide 1
pur@@ 1
disque 1
fourn@@ 1
Mari@@ 1
Ni@@ 1
Maria 0.9488135711077479
biens 1
mobil@@ 1
engage 1
aci@@ 1
footballeur 1
arabe 1
polonais 1
intègre 1
procès 1
ferroviaire 1
auto@@ 1
idé@@ 1
Bas@@ 1
écrite 1
autorité 1
économiques 1
Aux 1
mir@@ 1
avions 1
gros 1
arrêt 1
1958 0.7686079520157888
Musée 1
science 1
sauf 1
étranger 1
Angeles 0.9192156126355018
prit 1
élus 1
décor@@ 1
vé@@ 1
dés 1
ule 1
Comité 1
dat@@ 1
tis 1
vot@@ 1
résistance 1
sif 1
aériennes 1
Tur@@ 1
chi 0.9831968590448154
Land 0.9728643243600952
&#124; 0.4675484341232729
pat@@ 1
dirigé 1
distribution 1
auparavant 1
députés 1
bu@@ 0.7128654606531757
prenant 1
prot@@ 1
effectu@@ 1
naît 1
hommage 1
1866 1
her@@ 0.513683551180913
réaliser 1
Celui 1
contexte 1
Jo@@ 1
tent 1
Démographie 1
alli@@ 1
heure 1
assi@@ 1
nant 1
oue 1
ō 1
tran@@ 1
populations 1
super@@ 0.8081980247990822
atives 1
concept 1
apo@@ 1
endémique 1
illustr@@ 1
rement 1
lin@@ 0.752783580891111
mesur@@ 1
direc@@ 1
perdu 1
officielle 1
Étienne 1
bles 1
ist@@ 0.7012931149349405
ju@@ 1
utilisant 1
matériel 1
semi 1
amén@@ 1
til@@ 1
oug@@ 1
ature 1
universitaire 1
go@@ 1
ome 1
rassemb@@ 1
Suède 1
1963 0.7121505565304134
elli 1
ari 1
Kar@@ 0.6303679021277752
effets 1
littéraire 1
initi@@ 1
albums 1
irs 1
uti@@ 1
ablement 1
canal 1
découvre 1
décédé 1
oles 1
im 0.036452083547562415
naturels 1
ards 1
parle 1
Frédéric 1
expos@@ 1
tim@@ 1
due 0.32515572908978957
ume 1
Beau@@ 1
sy@@ 1
bat 1
organise 1
appliqu@@ 1
mouvements 1
aura 1
pres@@ 0.8147040614375362
culturel 1
Mus@@ 0.9661892160183663
Sa@@ 1
Min@@ 0.8658987567524562
pa@@ 1
contrô@@ 1
entier 1
producteur 1
Mac@@ 0.8410224896041889
aye 1
montée 1
éni@@ 1
climats 1
ordres 1
favor@@ 1
capit@@ 1
initialement 1
fabri@@ 1
ton@@ 1
Arts 0.8584529197750167
besoin 1
glace 1
échelle 1
gens 1
épo@@ 1
prises 1
Dev@@ 1
Fer@@ 1
Nouveau 1
ève 1
développe 1
façade 1
ty@@ 1
mann 0.5714668692615845
ein@@ 0.2814630976835021
aéroport 1
respectivement 1
ella 0.5338482813669158
grille 1
Victor 1
tôt 1
sent 0.7803497409960726
chasse 1
yn@@ 1
représent@@ 1
roy@@ 1
correspond 1
Ou@@ 1
pri@@ 1
1956 0.7152574731123207
oniques 1
uelle 1
Bri@@ 1
attribu@@ 1
landais 1
marins 1
prépar@@ 1
circuit 1
concerne 1
Bordeaux 1
1914 0.9323074922900725
affirme 1
préfecture 1
érée 1
colonel 1
sch@@ 0.2332331543550408
Armée 1
plans 1
lancé 1
Dou@@ 1
post@@ 1
Division 0.45151652506546064
historien 1
idées 1
acqu@@ 1
gagne 1
traverse 1
ura 0.8833690230028652
fé@@ 1
by 0.01786150849787304
ha 0.2679025040968228
désign@@ 1
titulaire 1
médecin 1
patr@@ 1
Croix 1
ède 1
tionnelle 1
45 0.6802228795140756
page 1
accueille 1
1948 0.6851354257386394
rest@@ 1
om 1
croix 1
International 0.33140692591137494
St 0.7269560171501259
pot@@ 1
retourne 1
ors 0.28002524442497234
Compagnie 1
monastère 1
ell 0.4580252370067229
mots 1
ège 1
cin@@ 1
rencontres 1
1946 0.6715775758707198
quit@@ 1
caus@@ 1
génération 1
romain 1
agglomération 1
succ@@ 1
entraî@@ 1
réalisation 1
établissements 1
anglaise 1
lou@@ 1
tra@@ 1
occup@@ 1
britanniques 1
ye 0.7065381534128764
croissance 1
K 0.5734849698119889
chap@@ 1
entour@@ 1
6@@ 0.7035766270538605
regroup@@ 1
ba 0.8418827404689211
tionnel 1
Washington 0.5528965150343336
bras 1
ho@@ 0.574332656129926
vainqueur 1
arg@@ 1
1961 0.6978802731441324
inclinaison 1
Écosse 1
ama 0.7995340686252049
lien 1
propos 1
Hu@@ 1
agn@@ 1
Grèce 1
sociétés 1
disponible 1
ref@@ 1
connus 1
conver@@ 1
cô@@ 1
annoncé 1
8@@ 0.7038973537273406
publiés 1
Val 1
obten@@ 1
onyme 1
za 0.6471228210632485
fusi@@ 1
Records 0.6774061683381749
cam@@ 1
périhélie 1
reconn@@ 1
Juifs 1
piste 1
considérée 1
versions 1
Culture 1
1820 1
7@@ 0.6949751520458248
issu 1
icien 1
locales 1
considère 1
ł@@ 1
tel@@ 0.8882029010238726
décès 1
télévisée 1
guerres 1
jo@@ 1
abou@@ 1
rep@@ 1
poète 1
35 0.6650577872726297
termin@@ 1
franch@@ 1
ça 1
pen@@ 1
1959 0.7121476593319971
500 0.6064201259103518
médic@@ 1
automobile 1
choisi 1
olympique 1
Jules 1
Gi@@ 1
Groupe 1
ignant 1
observ@@ 1
cel@@ 1
médias 1
présent@@ 1
bénéfici@@ 1
victimes 1
représentation 1
orchestre 1
échange 1
quel@@ 1
Égypte 1
dan@@ 1
5@@ 0.6364451235001554
ame 1
représentants 1
Ville 1
chevaux 1
US 0.24338516373593705
ze 0.7981387322354585
envoyé 1
entation 1
combats 1
Tor@@ 0.716434137561199
thèse 1
publiques 1
Bon@@ 1
vivant 1
présidence 1
Por@@ 1
Kh@@ 0.9909408554623618
yr@@ 1
contact 1
accessibles 1
At@@ 1
ière 1
marqué 1
final 0.24326482118184745
nomme 1
majeure 1
rie 1
Van 1
delà 1
estim@@ 1
riche 1
assur@@ 1
Île 1
pron@@ 1
ala 0.7924780106279804
concert 1
signific@@ 1
Sp@@ 0.5931852912946475
abbé 1
érant 1
ect@@ 1
1936 0.7411463223705869
ail@@ 1
avance 1
intéress@@ 1
réseaux 1
officiers 1
Bre@@ 0.9152686530953937
vic@@ 1
Ann@@ 1
1947 0.7094976710493822
régionale 1
changements 1
soir 1
lant 1
lesquelles 1
atta@@ 1
ca 0.5814848994404165
déclaré 1
ert 0.5134026328412846
oth@@ 1
ingénieur 1
japonaise 1
ai@@ 1
vir@@ 1
diplôme 1
rier 1
religion 1
impose 1
murs 1
vin@@ 1
musicale 1
exception 1
fil 1
inst@@ 1
Aut@@ 1
ord@@ 1
trains 1
ment@@ 1
sièges 1
Mont 1
exist@@ 1
José 0.7341338102553685
ématique 1
organisée 1
hô@@ 1
Chicago 0.7440634419555262
exp@@ 1
hy@@ 1
vieux 1
Est@@ 1
sexu@@ 1
dépos@@ 1
jardin 1
transports 1
Roger 1
á@@ 0.532127594892679
départemental 1
réussit 1
70 0.6469430172357215
latér@@ 1
esses 1
excentricité 1
Kr@@ 0.649632196818388
culte 1
quitter 1
Château 1
Air 0.5515441117565046
Cro@@ 1
fu@@ 1
aces 1
bibliothèque 1
signé 1
ulation 1
milieux 1
ici@@ 1
ide 1
estimé 1
fac@@ 1
feuilles 1
révolution 1
ler@@ 0.6515176322968045
Tous 1
Rou@@ 1
mén@@ 1
reconnaissance 1
développer 1
physiques 1
morte 1
questions 1
ailles 1
los 0.03216492115220619
q@@ 1
restauration 1
Pan@@ 0.9507042648676649
honor@@ 1
augmentation 1
estime 1
pér@@ 1
har@@ 0.5875959332380621
Insee 1
Dom@@ 1
Do@@ 1
front 0.6593188387513623
alisée 1
ars 0.6476527338975374
appréci@@ 1
refuse 1
Denis 1
Rhône 1
dimin@@ 1
Quand 1
demeure 1
ressources 1
espagnole 1
orité 1
véhicules 1
Christian 0.6132708365980336
temple 1
té@@ 1
anes 1
originale 1
œ@@ 1
sociales 1
ret 1
igu@@ 1
printemps 1
Lé@@ 1
lib@@ 1
certaine 1
précipitations 1
Ang@@ 1
héros 1
prennent 1
Mil@@ 0.9647643686553822
conten@@ 1
différence 1
tué 1
écliptique 1
avocat 1
bout 1
reli@@ 1
Situation 1
Ti@@ 1
1949 0.6724391919008523
continu@@ 1
clo@@ 1
endroit 1
rares 1
pa 1
beaux 1
documents 1
partage 1
essais 1
étr@@ 1
li 0.9575005160134258
1942 0.5826953753171459
Orléans 1
conserve 1
Portugal 1
vivre 1
publi@@ 1
oiseaux 1
hu@@ 0.8999844451803277
1918 0.687892541180352
vite 1
conférence 1
secondes 1
arc@@ 1
mettant 1
nations 1
app@@ 1
fémin@@ 1
Ho@@ 0.7637280979202581
hab@@ 1
Ba@@ 1
flotte 1
figur@@ 1
devrait 1
ji 1
igny 1
ys 0.7722691976145126
branche 1
évo@@ 1
To@@ 0.9946663960605636
Orient 1
nor@@ 1
annex@@ 1
ib@@ 1
Hongrie 1
Ap@@ 1
orient@@ 1
rière 1
sie 0.09955281688300015
cé@@ 1
associé 1
époques 1
métropole 1
tifs 1
tab@@ 1
serbe 1
ographie 1
tie 1
1957 0.6812973533444595
1954 0.6996449743523828
chanteuse 1
profit 1
Pon@@ 1
uss@@ 1
arch@@ 1
inage 1
1943 0.5690094993454341
Alain 1
sociaux 1
1938 0.6512294763871864
agu@@ 1
fête 1
1955 0.7020612548930362
aill@@ 1
expédition 1
Tour@@ 1
ande 1
enfance 1
réforme 1
restaur@@ 1
pon@@ 1
donn@@ 1
ao 0.9849077280842033
vaste 1
chœur 1
consiste 1
aliers 1
zi@@ 1
exemplaires 1
limit@@ 1
yeux 1
32 0.6746566110074257
90 0.6267741277903647
consommation 1
for 0.013765429562023227
étage 1
mont@@ 1
élément 1
édit@@ 1
ada 0.14470611693876517
ca@@ 1
Santa 0.6309031415772542
adaptation 1
traduit 1
table 1
envis@@ 1
nation 1
sixième 1
établi 1
A. 0.6451698547248242
uni@@ 1
forment 1
ath@@ 0.9352892115003445
Bu@@ 1
Léon 1
étrangères 1
mou@@ 1
volonté 1
Simon 1
présents 1
syn@@ 1
candidats 1
vent 1
piano 1
accident 1
basée 1
noire 1
lin 1
revanche 1
allemands 1
ach 0.5148022118230653
1941 0.5177535683915657
inférieur 1
ida 0.45022925427276
ek 0.7433119374636402
lent 1
seuls 1
vend@@ 1
atelier 1
humaine 1
Im@@ 0.8360485872827307
commercial 1
progressivement 1
règles 1
bé 1
consom@@ 1
Auguste 1
Corée 1
Maz@@ 1
possibilité 1
spécialiste 1
rois 1
cycle 1
change 0.7451198642734163
cot@@ 1
massif 1
adjoint 1
Stade 1
scènes 1
modi@@ 1
Israël 1
bon@@ 1
ruisseau 1
Petit 1
appelés 1
neurs 1
sang 1
9@@ 0.7052186651241025
prévoit 1
travers@@ 1
assure 1
aider 1
sme 1
tribunal 1
distinc@@ 1
ignent 1
retrouv@@ 1
disput@@ 1
Don@@ 1
oise 1
voyageurs 1
Genève 1
ême 1
images 1
ble 1
Climat 1
libération 1
endra 1
reconnu 1
placé 1
partis 1
événement 1
ret@@ 1
tue 1
1952 0.6672110500431067
XV 1
origin@@ 1
résidence 1
compar@@ 1
tière 1
techn@@ 1
identité 1
Fo@@ 1
ous@@ 1
conc@@ 1
inform@@ 1
marche 1
tre@@ 0.933005167717268
emplacement 1
Baptiste 1
Congrès 1
érieurs 1
J 0.8727234554267697
présentant 1
travaillé 1
radi@@ 1
ports 1
condu@@ 1
complète 1
connaître 1
romans 1
Mol@@ 1
Madrid 0.9173900058641566
plateau 1
Comté 1
discours 1
original 0.31870869666962376
dro@@ 1
notre 1
tiennent 1
utilisées 1
Tri@@ 0.6863962731402344
ison 1
chemins 1
rati@@ 1
Si@@ 1
béné@@ 1
pens@@ 1
communal 1
tenant 1
trait@@ 1
èche 1
Radio 0.7747713038559667
Chi@@ 1
mique 1
roul@@ 1
Esp@@ 1
fabrication 1
transform@@ 1
tempor@@ 1
su 0.05145281200925921
uv@@ 1
itement 1
Thi@@ 1
1953 0.6919352927619132
positi@@ 1
simplement 1
anger 1
suites 1
servir 1
constituée 1
flor@@ 1
2022 0.6816259744860038
este 0.2744610052660918
organis@@ 1
don@@ 1
puisqu&apos; 1
College 0.27429826462132667
ick 0.6453120471526225
imprim@@ 1
Provence 1
four@@ 1
trou@@ 1
trice 1
boul@@ 1
champions 1
League 0.2055817875149753
cons@@ 1
espaces 1
alt@@ 1
Ju@@ 1
volume 1
otte 1
siècles 1
privé 1
sec@@ 1
ode 1
Peu 1
Nations 1
ail 1
yer 0.9094315514588053
repris 1
prévu 1
érie 1
écr@@ 1
cule 1
programmes 1
ds 0.6023489879433788
Répartition 1
Park 0.33432930841724817
arm@@ 1
tée 1
mention 1
détaillée 1
lir 1
Occupation 1
Édouard 1
aud@@ 1
Mi@@ 0.9969500232310435
Étymologie 1
comm@@ 1
régulière 1
Maroc 1
apprend 1
positions 1
déplac@@ 1
émer@@ 1
religieuse 1
forc@@ 1
chefs 1
fau@@ 1
royal 1
envers 1
concerts 1
Gen@@ 0.7716578354323553
métro 1
accompagn@@ 1
professionnels 1
Strasbourg 1
ores 0.7089667825921887
dét@@ 1
Toponymie 1
appr@@ 1
écriv@@ 1
définitivement 1
Catherine 1
implant@@ 1
internationales 1
denses 1
1937 0.6811822064529361
Côte 1
artillerie 1
eries 1
direct 1
w 0.4555921200796117
personnalités 1
Ol@@ 0.9979054194974849
Jeanne 1
spectacle 1
occidentale 1
hum@@ 1
consacré 1
dehors 1
irement 1
San@@ 0.8299519223852964
précédente 1
niveaux 1
majeur 1
issus 1
psych@@ 1
Hor@@ 0.857364045075335
Milan 1
Ben@@ 0.8452919291309563
difficultés 1
active 0.6183769188770848
cent 1
emment 1
lot 1
rendu 1
coup@@ 1
abrite 1
ori 1
dessin@@ 1
pâ@@ 1
routes 1
connues 1
adop@@ 1
Or 1
Savoie 1
lat@@ 1
jaune 1
ini@@ 1
nationales 1
Économie 1
gique 1
aissent 1
sujets 1
immédiatement 1
concentr@@ 1
logements 1
écrits 1
conçu 1
my@@ 1
Pom@@ 1
baie 1
tionnaire 1
quartiers 1
diffus@@ 1
agne 1
éditeur 1
démocratique 1
aiss@@ 1
oni 1
rôles 1
protest@@ 1
échec 1
1933 0.6511568876589224
danse 1
parler 1
angle 1
liaison 1
Mel@@ 0.9082657777069897
J. 0.6469230074199722
constitution 1
mines 1
ôt 1
Marine 1
comparer 1
ther@@ 1
distingue 1
enseign@@ 1
ong@@ 1
légèrement 1
parallèle 1
Allemands 1
datant 1
mun@@ 1
Bur@@ 0.5634647807114497
fiction 1
aî@@ 1
initiative 1
voitures 1
Sam@@ 0.9171515759118494
Marcel 1
Communauté 1
combin@@ 1
univers 1
ford 0.5049030567220008
fédéral 1
ose 1
1919 0.6823413161336603
tou@@ 1
ts@@ 0.5064521614313295
lée 1
uc@@ 0.9985035110218304
agr@@ 1
courses 1
dépend@@ 1
bro@@ 1
Vol@@ 1
succède 1
mus@@ 1
Théâtre 1
européens 1
intermédiaire 1
décidé 1
aménagement 1
igne 1
Rom@@ 1
Ur@@ 0.7362292395071379
scrutin 1
ros@@ 1
administrative 1
sén@@ 1
tit 1
tenir 1
Mad@@ 0.8645480195414246
isées 1
prisonniers 1
phot@@ 1
allant 1
arrê@@ 1
Urbanisme 1
Gor@@ 1
1951 0.6884162855855691
Men@@ 1
automne 1
blanche 1
enter 1
tives 1
performance 0.6076909229120062
1@@ 0.7318693134418974
marin 1
atte@@ 1
dynastie 1
Comp@@ 1
absolue 1
Politique 1
tourne 1
animation 1
sen 0.46765062050487266
suivent 1
tements 1
dique 1
iment 1
Atlantique 1
normale 1
bin@@ 1
phe 1
all 0.08251497436565565
ajout@@ 1
mettent 1
qualifié 1
établit 1
cho@@ 1
Ordre 1
1935 0.704759579880439
négoci@@ 1
ult@@ 1
établie 1
requ@@ 1
dessinée 1
donnant 1
reur 1
vie@@ 1
arbres 1
introdu@@ 1
écrire 1
associations 1
enseigne 1
Vincent 1
récit 1
Christ 1
étend@@ 1
chevalier 1
cérémonie 1
interprète 1
épreuves 1
présidentielle 1
pourtant 1
Nantes 1
š@@ 1
Bau@@ 0.5546951525418273
statue 1
ola 0.9264054934341089
belle 1
Administration 1
aut 1
Der@@ 1
end 0.1413298845731669
Napoléon 1
peur 1
protéger 1
écologique 1
Tou@@ 1
mand@@ 1
prêtre 1
communautés 1
fortes 1
Pyrénées 1
ry 0.7819396094333958
forts 1
aque 1
onze 1
aéro@@ 1
once 0.548489775281497
suff@@ 1
str@@ 0.32484879152918317
départementale 1
nef 1
intervention 1
échelles 1
Cap@@ 1
rues 1
èvement 1
mathématiques 1
Argentine 1
ic 0.20940744353633123
Monde 1
européennes 1
lait 1
océanique 1
Francisco 0.6081576058251426
Vers 1
tennis 1
consécu@@ 1
Te@@ 0.5081085554590593
Haut 1
nour@@ 1
cach@@ 1
stations 1
dessin 1
basket 1
éré@@ 1
union 1
barr@@ 1
secondaires 1
command@@ 1
alisés 1
chacune 1
dép@@ 1
gien 1
Cassini 1
age@@ 1
up@@ 0.5428712800123721
demand@@ 1
soul@@ 1
enses 1
aspect 1
conséquence 1
fleurs 1
aliser 1
pul@@ 1
Pont 1
fonctionnement 1
cabinet 1
ato 0.6464119917132072
canadien 1
chose 1
bleu 1
étoiles 1
étrangers 1
humains 1
ber 0.5386894879053681
IGN 1
ps 0.5575877014365693
gence 1
érique 1
Sor@@ 1
baron 1
Typologie 1
dos 0.20601836618296482
phénomène 1
flam@@ 1
commerci@@ 1
1929 0.7074849708685537
tait 1
venant 1
impliqu@@ 1
éran@@ 1
suivre 1
Organisation 1
Lang@@ 1
gagn@@ 1
trafic 1
riv@@ 1
Sur@@ 0.9150252974821066
inspiré 1
ider 1
Mir@@ 1
féminine 1
associ@@ 1
accepte 1
ul 1
écou@@ 1
mot@@ 0.9679824148300986
patri@@ 1
avenue 1
1934 0.6925307445162613
vécu 1
dure 1
lique 1
archives 1
Tro@@ 1
éné@@ 1
mine 1
oiseau 1
Roi 1
franco 1
sp@@ 0.2680031296990211
Hol@@ 0.6448081109099664
distribu@@ 1
quinze 1
liés 1
réaction 1
auquel 1
trône 1
appareil 1
Lou@@ 1
Arthur 1
promu 1
pouss@@ 1
solution 1
menée 1
asi@@ 1
cab@@ 1
exig@@ 1
moteurs 1
perte 1
onique 1
fre@@ 0.6780673426452831
ols 1
réponse 1
he 0.025765359836780653
entrer 1
Celle 1
stes 1
humain 1
classes 1
Localisation 1
proportion 1
1932 0.7300205045371395
ri 1
courte 1
ner@@ 0.959715626033678
classification 1
limitée 1
autonome 1
Pic@@ 1
détruit 1
├ 1
cultiv@@ 1
onner 1
ona 0.5806528511070738
retrouver 1
amment 1
impériale 1
émissions 1
tenus 1
Néanmoins 1
entaire 1
1900 0.8226005916536986
sil@@ 1
actes 1
Mur@@ 0.9218762650681804
Gé@@ 1
ogie 1
Ram@@ 0.9793444531672746
diffusé 1
pouvoirs 1
endre 1
mécan@@ 1
duc@@ 1
Service 0.7808444295631795
contraire 1
victime 1
légi@@ 1
restent 1
phil@@ 1
toire 1
révèle 1
nationaux 1
Disney 1
polonaise 1
chau@@ 1
montré 1
tentative 1
matin 1
ienne 1
Barcelone 1
commun@@ 1
ast@@ 0.9103399258269214
circulation 1
enceinte 1
secondaire 1
conservé 1
installé 1
oblig@@ 1
avi@@ 1
Normandie 1
classée 1
enregistré 1
div@@ 1
vern@@ 1
dépend 1
cycliste 1
ów 1
musical 0.6366305675943169
explic@@ 1
Patrick 1
excep@@ 1
Sc@@ 0.8872975587162844
captur@@ 1
situés 1
totalement 1
33 0.7316932322624267
extension 1
primaire 1
th 0.21378531878127827
conseillers 1
Bourgogne 1
correspondant 1
quart 1
ena 0.6679842459952271
so 0.11384701937927999
oppose 1
cav@@ 1
1928 0.6769704321332288
salles 1
Marne 1
pense 1
licence 1
Cam@@ 1
300 0.6106521091358093
igner 1
tisme 1
dia 1
ora 0.6785959608148676
néo 1
auraient 1
assemblée 1
Dor@@ 1
Smith 0.580085189535771
religieuses 1
Vil@@ 1
Lille 1
modernes 1
Vierge 1
terrains 1
Fin 1
èvre 1
School 0.16743776323734208
paru 1
Fon@@ 1
atis@@ 1
aérienne 1
och@@ 1
lo 0.12953410647253896
pêche 1
reven@@ 1
conqu@@ 1
lanc@@ 1
400 0.646003954500539
tan@@ 0.7636623726181424
naturelles 1
écl@@ 1
mod@@ 1
eth@@ 0.854279859792963
Bru@@ 1
format 1
suiv@@ 1
ériques 1
extrême 1
disparu 1
ug@@ 0.9833564314048213
accor@@ 1
destiné 1
occupé 1
quin@@ 1
race 0.4939203327534307
aband@@ 1
Cover 1
compétitions 1
1924 0.7169495936983129
Ru@@ 0.8682194856647945
Corine 1
résist@@ 1
soutient 1
constituent 1
class@@ 1
attention 1
désigné 1
cardinal 1
als 0.032026659677527894
proj@@ 1
intellectu@@ 1
Ban@@ 0.8097161231158303
Cin@@ 1
installer 1
pointe 1
aîné 1
1910 0.796622243347401
Thé@@ 1
visant 1
Lam@@ 1
septième 1
arbre 1
tend@@ 1
représenté 1
ax@@ 0.9584585351420546
empire 1
Guy 1
administratif 1
institutions 1
vendu 1
appellation 1
journ@@ 1
dits 1
chauff@@ 1
ty 0.29398538965922255
isses 1
Mah@@ 0.9098956076756554
voient 1
dres@@ 1
précédent 1
contenant 1
CD 0.7442758202670365
Os@@ 1
AC 1
améliorer 1
Juan 0.5443987617612552
étiques 1
essai 1
gh@@ 1
2,@@ 1
montagnes 1
ification 1
sportive 1
main@@ 1
Né@@ 1
ouvrir 1
Je 1
contribu@@ 1
conduite 1
utilisent 1
Cer@@ 1
fam@@ 1
néerlandais 1
dirigée 1
numérique 1
battu 1
Outre 1
aisse 1
dirigeants 1
éta@@ 1
méthodes 1
ek@@ 0.38629426925507193
tal@@ 0.9969272179072117
condamné 1
démocrate 1
jum@@ 1
doctorat 1
comédie 1
sus@@ 1
trac@@ 1
sel@@ 0.5514869731053129
indépendant 1
oires 1
alise 1
américaines 1
quantité 1
mentionn@@ 1
Un@@ 0.3571206504863225
assemb@@ 1
graphique 1
biophysique 1
Port 1
iens 1
cla@@ 1
édité 1
pratiques 1
puiss@@ 1
phare 1
Famille 1
présentent 1
prairies 1
ami@@ 1
individus 1
évolu@@ 1
inv@@ 0.9633187095091694
températures 1
erait 1
Op@@ 1
Jeunesse 1
véhicule 1
lié 1
lev@@ 1
langage 1
qua 0.9807094463064785
incendie 1
couverture 1
précise 1
modern@@ 1
proch@@ 1
recrut@@ 1
nucléaire 1
collec@@ 1
ker 0.4098513959544866
ks 0.2932157200823024
CLC 1
servi 1
rig@@ 1
uer 1
col 1
Antonio 0.8256535677722798
donnée 1
AS 1
comprenant 1
san@@ 0.9523947915455837
ati 1
égalité 1
érés 1
enf@@ 1
ont@@ 1
pein@@ 1
enregistrement 1
1870 1
Super 0.8174130498675636
Em@@ 0.7714641182504867
structures 1
équipage 1
musiciens 1
ajoute 1
CE@@ 1
installation 1
Bro@@ 1
succes@@ 1
complet 1
uri@@ 1
Tokyo 1
isson 1
similaire 1
Lorraine 1
complètement 1
prim@@ 1
affir@@ 1
venu 1
performances 1
Gir@@ 1
liées 1
vig@@ 1
36 0.6983085586943629
élevée 1
grade 1
oli@@ 1
coopération 1
somme 1
Hom@@ 1
sig@@ 1
cens@@ 1
arriv@@ 1
trouvé 1
Né 1
utilis@@ 1
sel 1
traduction 1
étudier 1
centres 1
organisations 1
raconte 1
inspir@@ 1
égi@@ 1
Jésus 1
1925 0.7177858586641529
ographiques 1
rester 1
intitulée 1
tien 1
attaques 1
trouvait 1
Fin@@ 1
met@@ 0.7255827421709129
lancer 1
esti@@ 1
totalité 1
travaill@@ 1
vas@@ 1
sortir 1
profondeur 1
SC 1
ë@@ 1
présenter 1
spécifique 1
étoile 1
décr@@ 1
nou@@ 1
istiques 1
végét@@ 1
veille 1
coût 1
géographique 1
arde 1
Hal@@ 0.8622506911051468
crimin@@ 1
dig@@ 1
tendance 1
opér@@ 1
cultures 1
Reg@@ 0.5291420049100485
croy@@ 1
hydro@@ 1
éens 1
1912 0.7221121598997262
ali 1
Pou@@ 1
Aur@@ 1
généraux 1
canadienne 1
étab@@ 1
accueil 1
desservie 1
transition 1
illy 1
maximum 1
civil 0.7350135956171789
Raymond 1
propriétés 1
docteur 1
juive 1
Turquie 1
identique 1
Zélande 1
time 0.06660488179828668
deviennent 1
tron@@ 1
1931 0.6944351036005406
preuve 1
répar@@ 1
activ@@ 1
provinces 1
ési@@ 1
quotidien 1
interprétation 1
liée 1
planète 1
construits 1
Je@@ 1
souha@@ 1
amiral 1
accro@@ 1
multiples 1
visible 1
inscription 1
cant@@ 1
nav@@ 1
observatoire 1
Pas@@ 0.8516265704580422
č@@ 1
chapitre 1
affect@@ 1
oncle 1
intr@@ 1
cellules 1
diff@@ 1
pel@@ 0.9009454171433228
Certaines 1
omb@@ 1
itaires 1
oul 1
archevêque 1
rappel@@ 1
Év@@ 1
abond@@ 1
cy@@ 1
parlementaire 1
éo 1
transfert 1
ges@@ 0.5745206015346033
comment@@ 1
instruments 1
diplom@@ 1
jur@@ 1
umes 1
directe 1
interne 1
typologie 1
pleine 1
tournage 1
introduit 1
avis 1
ban 0.7631810142186366
propriétaires 1
dériv@@ 1
aile 1
public@@ 1
Jusqu&apos; 1
tradu@@ 1
liens 1
églises 1
Serbie 1
Sav@@ 1
exécution 1
affluent 1
documentaire 1
peintures 1
Constitution 1
invent@@ 1
quées 1
météorologique 1
étudi@@ 1
masculin 1
antique 1
troit 1
lande 1
postes 1
xe 1
barrage 1
Affaires 1
Music 0.37656049307886214
terminé 1
solo 0.412077462384165
Cat@@ 1
taient 1
cos@@ 1
tiv@@ 1
net 0.8915249018151667
scénario 1
illa 0.6448992285498619
capable 1
Ker@@ 1
besoins 1
AS@@ 0.9642687906444698
remonte 1
Texas 0.5108072044529233
apparaissent 1
Ir@@ 1
Population 1
Lee 0.6935069497268107
Luxembourg 1
remplacer 1
Max 1
vrai 1
commer@@ 1
ā@@ 0.6366317044314053
évolué 1
Palais 1
élevage 1
galerie 1
invasion 1
devenant 1
con 0.033876015150404754
1921 0.6905943130221927
Colombie 1
emprun@@ 1
Wal@@ 0.5936998639752287
origines 1
0@@ 0.5355605891520417
1926 0.6760072102765816
gé 1
orientale 1
provenant 1
Far@@ 0.8490588254184616
accompagné 1
ny 1
United 0.0973236372223555
geant 1
venue 1
èses 1
industriel 1
cy 1
Ukraine 1
lecture 1
usa 1
arc 1
unies 1
dan 0.786762632283518
élite 1
Alfred 1
illage 1
ister 1
Ham@@ 1
récol@@ 1
onnés 1
Finlande 1
agence 1
1922 0.6800463197921779
bass@@ 1
ok@@ 0.5610868763011316
aw@@ 0.47305434663374907
ico 0.5603206114619533
Han@@ 1
davantage 1
destruction 1
définition 1
West 0.22066432602819425
TV 0.30706946075473845
Rus@@ 1
tro 1
ind@@ 0.6339185880442363
situées 1
condition 1
Fort 0.8685597031407856
ventes 1
Wil@@ 0.705257287736688
notion 1
fédér@@ 1
Président 1
pil@@ 1
arme 1
culturelle 1
indé@@ 1
Sénat 1
laissant 1
teau 1
sing@@ 1
Norvège 1
réduit 1
American 0.09883347682041384
tirer 1
essentiel 1
facilement 1
comportement 1
collections 1
ancer 1
Liège 1
icité 1
métrage 1
maritime 1
éen 1
Venise 1
xi@@ 1
détru@@ 1
genres 1
envoie 1
cha 0.7044353884247835
observations 1
Vill@@ 1
Dis@@ 0.5848719637029782
act@@ 1
poésie 1
acquis 1
réc@@ 1
Football 0.49056177171282395
Pap@@ 1
illet 1
Quatre 1
internationaux 1
ple@@ 0.8264414942033851
Danemark 1
décisi@@ 1
recueil 1
lancement 1
Saison 0.44698939790256215
aim@@ 1
Dur@@ 1
gren@@ 1
zième 1
Ben 1
brû@@ 1
Jack 0.8278911418746031
plante 1
Rhin 1
orn@@ 1
laisser 1
Mary 0.5322143283676343
populaires 1
noble 1
érer 1
Force 0.6129594218845835
extrémité 1
Lac@@ 1
PS 1
ligue 1
Ly@@ 1
enregistr@@ 1
mené 1
rapports 1
entraîne 1
assist@@ 1
journaux 1
lard 1
champs 1
bie 1
den@@ 0.43049165667011546
sélectionné 1
gamme 1
bateau 1
vain@@ 1
représentent 1
exc@@ 1
disparition 1
défin@@ 1
Ke@@ 0.7127575945650371
sus 0.12205346746674728
budget 1
1917 0.6066210479729005
tent@@ 1
tiré 1
institu@@ 1
élé@@ 1
amélior@@ 1
indic@@ 1
matériaux 1
fie 1
sculp@@ 1
fut@@ 1
Tom 0.879653147087228
Louise 1
donnent 1
May@@ 1
Az@@ 0.9600534571992331
az 0.8552842803376943
aves 1
Nice 1
itation 1
illée 1
* 0.1723127813698396
1927 0.6586821602447075
unes 1
engagé 1
land@@ 0.6300994169561983
éph@@ 1
onale 1
électronique 1
nomination 1
huitième 1
pensée 1
nière 1
revenir 1
reprendre 1
citoyens 1
gran@@ 1
Eugène 1
aï 1
rev@@ 1
Ét@@ 1
B. 0.42898804833887255
pierres 1
hypothèse 1
conservateur 1
Internet 1
let@@ 1
convo@@ 1
matéri@@ 1
Grâce 1
grecque 1
times 0.3397126376226676
technologie 1
versant 1
attach@@ 1
proposition 1
océan 1
uil 1
installations 1
nécessaires 1
mille 1
tourné 1
ello 0.7031145403220171
deviendra 1
My@@ 1
interdit 1
choisit 1
sportif 1
Mou@@ 1
Fran@@ 1
itz 0.6138556519228745
spectateurs 1
Garonne 1
réduire 1
Dar@@ 0.6965976265795156
exploit@@ 1
divisions 1
canons 1
thi@@ 1
Caroline 1
opéra 1
milliers 1
légende 1
guitare 1
seraient 1
test@@ 1
lour@@ 1
risques 1
Ca@@ 1
38 0.6895448205409997
contenu 1
chercheurs 1
office 0.40857063753935724
congrès 1
supprim@@ 1
informatique 1
Bat@@ 0.9716312820874341
formule 1
Rio 1
Gabriel 1
catholiques 1
mon 1
relais 1
Pacifique 1
bur@@ 0.5239261981882246
tableaux 1
gros@@ 1
eta 0.6089502285959558
récemment 1
montrer 1
Hy@@ 1
lement 1
ieux 1
parts 0.5409268576752309
succession 1
réunion 1
caractérise 1
thèmes 1
aison 1
alliance 1
autrefois 1
sac 1
rait 1
conquête 1
animal 1
cherche 1
duo 1
classiques 1
sti@@ 0.7877544957216086
ôts 1
coups 1
menace 1
produite 1
quasi 1
èques 1
av. 1
Francis 1
concentration 1
34 0.6592762610909711
pre 0.8633928860430554
cavalerie 1
rav@@ 1
parole 1
symbole 1
accept@@ 1
Nor@@ 0.7233593343930684
giques 1
na@@ 1
remplacement 1
ares 0.810624578705176
imagin@@ 1
princesse 1
Sim@@ 1
évoque 1
éclair@@ 1
plac@@ 1
préparation 1
étapes 1
1923 0.6623350350178772
Black 0.47314904695948
sar@@ 1
ez@@ 0.6192330108928064
pom@@ 1
J.-C. 1
intérêts 1
Noël 1
Olivier 1
suppos@@ 1
dessins 1
annonc@@ 1
ost@@ 0.7904130685895803
entale 1
blessé 1
colonie 1
électricité 1
brigade 1
changer 1
hameau 1
sis 1
Parc 1
ense@@ 1
successeur 1
administr@@ 1
je@@ 0.9964852580443966
million 0.25302936189708813
tus 1
pré 1
phon@@ 1
accord@@ 1
tourisme 1
ze@@ 0.7641759518417693
responsabilité 1
id 0.4284305958858985
ev 1
Fre@@ 0.48906705290579716
disponibles 1
finales 1
érieure 1
spatial 1
ennemi 1
ima 0.9917773280209892
compter 1
maintenir 1
dieu 1
tomb@@ 1
Gérard 1
cercle 1
exerc@@ 1
éenne 1
grave 1
Cu@@ 0.8411645599046127
Finalement 1
Renaissance 1
Bass@@ 1
souhaite 1
Frank 0.7341152713337369
Vic@@ 1
tera 1
75 0.6503836882412578
sab@@ 1
Mark 0.6040426431018268
expositions 1
VI 1
venus 1
Bois 1
ref 1
Christophe 1
vues 1
iche 1
antaine 1
tac@@ 1
fédération 1
dot@@ 1
formée 1
êtres 1
variations 1
catégories 1
Na@@ 1
traditionnelle 1
dér@@ 1
libér@@ 1
participent 1
jusque 1
onnais 1
uy@@ 1
Alsace 1
Fi@@ 1
Mau@@ 1
jazz 1
russes 1
manifestations 1
alb@@ 0.9142627314089079
couvre 1
sir@@ 1
flan@@ 1
baisse 1
départements 1
Galles 1
magnitude 1
eh@@ 0.3312567438144146
itant 1
Bil@@ 1
archi@@ 1
URSS 1
mol@@ 1
ym@@ 1
eusement 1
cantons 1
criti@@ 1
télévis@@ 1
souver@@ 1
démar@@ 1
Fondation 1
encour@@ 1
ômes 1
limites 1
vaut 1
impact 1
enté 1
qualifie 1
sœurs 1
Météo 1
formations 1
âtre 1
drapeau 1
Ancien 1
lab@@ 1
gratu@@ 1
vaisseau 1
uz@@ 1
vigueur 1
revenu 1
engagement 1
idé 1
accueillir 1
début@@ 1
changé 1
fiant 1
qualification 1
pic@@ 1
commencent 1
milliards 1
objectifs 1
république 1
pin@@ 1
Journal 1
Jou@@ 1
Emmanuel 1
bil@@ 0.8447955772542072
tig@@ 1
1913 0.7049010504535057
artifici@@ 1
chem@@ 1
interpr@@ 1
Sil@@ 1
Ta@@ 1
renommée 1
alistes 1
gagner 1
ett@@ 0.9536674100071696
fér@@ 1
inférieure 1
montrent 1
relève 1
scénariste 1
embar@@ 1
défen@@ 1
remplace 1
noblesse 1
calendrier 1
pou@@ 1
multi@@ 1
mâle 1
Edward 0.6374971459520736
aujourd 1
usion 1
huile 1
1905 0.746356126988831
inverse 1
conservation 1
Hall 0.385822461222483
tér@@ 1
Mos@@ 1
quali@@ 1
ames 1
oï@@ 1
chinoise 1
peau 1
refus@@ 1
pages 1
éra 1
poissons 1
caractéristique 1
uni 1
fournir 1
recevoir 1
Dan@@ 1
chang@@ 1
aches 1
Origine 1
Var@@ 1
effectué 1
iner 1
contin@@ 1
Émile 1
trav@@ 1
orientation 1
travailleurs 1
endr@@ 1
historiens 1
situ@@ 1
sk@@ 0.40597381889827044
Marguerite 1
démol@@ 1
Yves 1
lit@@ 1
bi 1
1911 0.7376873384526992
employé 1
campagnes 1
industrielle 1
prê@@ 1
régul@@ 1
centaines 1
ō@@ 1
atures 1
Résultats 1
nation@@ 1
fixe 1
nique 1
fédérale 1
chrétienne 1
réglem@@ 1
agée 1
standard 0.7091014216570488
plaine 1
amo@@ 1
cession 1
field 0.20502910647927186
Star 0.602989130923632
Ha@@ 0.7392830725063183
mener 1
pilotes 1
ographique 1
choses 1
entière 1
céré@@ 1
procé@@ 1
lever 1
Red 0.47385801906910424
traces 1
Prince 0.7633373166772418
réussi 1
empris@@ 1
Cap 1
vit@@ 1
transféré 1
effectuer 1
laissé 1
endant 1
Rem@@ 1
caractér@@ 1
portrait 1
frag@@ 1
S&apos; 1
femelle 1
Jérusalem 1
proposé 1
empar@@ 1
Et@@ 1
Fils 1
Lord 0.6625731481818432
conférences 1
Aujourd&apos; 1
ailes 1
meilleures 1
quoi 1
men 0.1459114251351513
séjour 1
nul 1
Uni@@ 1
semblent 1
Munich 1
maç@@ 1
partisans 1
Pu@@ 1
enta 1
zo@@ 1
dirig@@ 1
Florence 1
off 0.1744579708405428
inscrits 1
entretien 1
entre@@ 1
circul@@ 1
Lor@@ 1
da@@ 1
usse 1
bases 1
Sau@@ 1
peuples 1
foresti@@ 1
ignon 1
couvent 1
égyp@@ 1
isti@@ 1
Germain 1
étudié 1
répand@@ 1
évacu@@ 1
pieds 1
climatique 1
leader 0.6077791715971275
rédaction 1
clocher 1
cop@@ 1
Vau@@ 1
banque 1
lec@@ 1
fou@@ 1
illés 1
faculté 1
Cre@@ 0.6777520386208328
cle 1
subit 1
favorable 1
portait 1
pole 1
paroles 1
Ge@@ 0.35435492920980866
Trans@@ 0.8052844750348234
chant@@ 1
relie 1
Trav@@ 1
Luc@@ 1
banlieue 1
noter 1
chrétiens 1
vins 1
cien 1
employés 1
soins 1
frapp@@ 1
ensis 0.7752499570031571
monte 1
amp@@ 0.7429793015296446
Long@@ 1
affich@@ 1
longues 1
prosp@@ 1
gardien 1
suivie 1
accus@@ 1
mécanique 1
Luc 1
incar@@ 1
Rég@@ 1
uli@@ 1
Ste@@ 0.49727752328935276
papier 1
puisse 1
neur@@ 1
Gol@@ 1
accessible 1
annul@@ 1
ó@@ 0.47767246109104444
soutenu 1
avanc@@ 1
titude 1
discipline 1
consacre 1
judiciaire 1
règle 1
ident 1
environs 1
vec@@ 1
Company 0.33170520411700755
quarante 1
Pin@@ 1
Prague 1
autom@@ 1
mauvais 1
ologues 1
mér@@ 1
ouvriers 1
Autres 1
défendre 1
relief 1
supplémentaires 1
compagnies 1
voul@@ 1
42 0.6968099962132911
indépendante 1
Hab@@ 1
min 1
serie 0.4553024756985268
amen@@ 1
ical 0.21997081263946622
mixte 1
consac@@ 1
description 1
bandes 1
danger@@ 1
Bosnie 1
dimanche 1
chiffre 1
ordonn@@ 1
conscience 1
iciens 1
appel@@ 1
laï@@ 1
Congo 1
Gro@@ 0.9215716387291505
Dominique 1
onymes 1
1,@@ 0.5588559462722082
réserv@@ 1
hétérogènes 1
hol@@ 0.6453308352104448
acide 1
portés 1
ub@@ 0.9743480444097231
amie 1
és@@ 1
oli 1
1908 0.7348630889139982
Julien 1
mul@@ 1
présentée 1
violence 1
emp@@ 0.8617648682536435
ro 0.7821479471996615
érité 1
uls 1
Lib@@ 1
Bol@@ 0.9585478145130804
blancs 1
érir 1
Scott 0.7731159452168251
affecté 1
of@@ 0.5492550114884475
côtes 1
allemandes 1
volumes 1
chor@@ 1
Légion 1
front@@ 1
poursuivre 1
repose 1
descend@@ 1
véri@@ 1
possession 1
urg@@ 1
rer 1
réel 1
habitat 1
sélectionn@@ 1
cite 1
précisément 1
he@@ 0.2886340397378801
chargée 1
édée 1
ésie 1
passent 1
C. 0.44084979856393197
ova 1
ere 0.3478992364637347
duché 1
trique 1
attendre 1
principes 1
écran 1
personn@@ 1
sons 0.9170434694390494
quanti@@ 1
Lar@@ 1
appui 1
go 0.3230242587175447
aventure 1
blo@@ 1
util@@ 1
voc@@ 1
dées 1
polé@@ 1
ave@@ 1
King 0.2810130382884978
etti 0.9455921808768648
exprim@@ 1
ary 0.18195969797949751
célèbres 1
O&apos; 1
tél@@ 1
contemporaine 1
pluviométrie 1
personnalité 1
détach@@ 1
scolaire 1
provoque 1
urbain 1
contrairement 1
machine 1
Jan@@ 1
Iran 0.8828453350230546
Mes@@ 1
document 1
ois@@ 1
# 0.44830206520834065
hautes 1
reti@@ 1
particulière 1
responsables 1
juifs 1
débit 1
37 0.6619074441241776
relev@@ 1
user 1
dict@@ 1
montant 1
maîtrise 1
far@@ 1
confirm@@ 1
municipales 1
fruits 1
War@@ 0.5474524064359766
francs 1
législ@@ 1
poèmes 1
stat@@ 1
rare 1
traite 1
isa 1
eront 1
Région 1
atr@@ 0.7385877322831705
reliant 1
atoires 1
comprendre 1
destinée 1
interrom@@ 1
Open 0.5749866265134292
doubl@@ 1
élue 1
ef@@ 0.5661377190038399
exerce 1
âgé 1
menac@@ 1
correspondent 1
remporter 1
machines 1
four 0.12925180191946656
invité 1
taire 1
anges 1
Nu@@ 1
gué 1
résid@@ 1
ey@@ 0.7907693950032495
hal@@ 0.5767938738988163
contest@@ 1
Direction 1
décrite 1
Anna 0.8969716111163465
passagers 1
Bir@@ 0.9706456508620589
sem@@ 1
plat@@ 1
appro@@ 1
mélange 1
Lan@@ 1
frontières 1
vise 1
utes 1
.. 1
calcul@@ 1
ministres 1
stratégie 1
suffrages 1
électr@@ 1
Cur@@ 0.7135703972181986
juridique 1
Walter 0.7882953676278548
puits 1
vint 1
DVD 0.9189609453521148
moines 1
Roumanie 1
Laur@@ 1
Bataille 1
paraît 1
lim@@ 1
réalisés 1
Méditerranée 1
consacrée 1
á 0.46270411089182534
peint 1
présidente 1
orth@@ 1
pertes 1
Il@@ 0.8281498107051599
meur@@ 1
boulevard 1
arables 1
ck 0.906230019628478
vapeur 1
Karl 0.5588934650162916
famili@@ 1
parlement 1
Alger 1
cinquante 1
anciennement 1
abrit@@ 1
Situ@@ 1
Mul@@ 1
EP 0.8460067023773287
dégrad@@ 1
personnelle 1
trait 1
laboratoire 1
indépend@@ 1
universités 1
renouvel@@ 1
soutenir 1
Mer 1
micro@@ 1
graphe 1
organisme 1
orique 1
transformation 1
Boston 0.6696542081431808
quitté 1
pis@@ 1
\ 1
affirm@@ 1
photographie 1
révolutionnaire 1
duquel 1
Ali@@ 1
ox@@ 1
outils 1
64 0.5442309220095594
Homme 1
èges 1
fondateurs 1
révél@@ 1
successivement 1
yd@@ 1
efforts 0.9454057693201126
agents 1
chantier 1
variété 1
del@@ 0.5427901358920013
fle@@ 1
Street 0.26979202674844066
baptisé 1
fera 1
ute 0.971506432570529
traversée 1
Basse 1
bilité 1
Chev@@ 1
baseball 1
Fa@@ 1
Kat@@ 0.7667884694343047
transmission 1
Rec@@ 0.5723804849965999
ave 1
ron@@ 1
engag@@ 1
art@@ 1
autoroute 1
compétences 1
sen@@ 0.4642387365751164
financement 1
organiser 1
illons 1
Kam@@ 0.8646910840619558
enregistre 1
lies 0.4581362166271471
marquis 1
secret 1
spéciale 1
Nancy 1
fondament@@ 1
déterminer 1
natur@@ 1
rose 1
recher@@ 1
contre@@ 1
libéral 1
vestiges 1
Chili 1
mac@@ 1
ament 1
maréchal 1
ling 0.3209048839852579
astr@@ 1
1906 0.7438192751663473
1880 1
comment 1
dramatique 1
Présentation 1
attribué 1
érien 1
erg@@ 1
divis@@ 1
tuer 1
48 0.6555123321834104
revenus 1
spécialisée 1
í 0.5725973314800087
correc@@ 1
conseils 1
ours 1
fran@@ 1
Ford 0.9999510172677222
Lav@@ 1
mani@@ 1
lières 1
continent 1
regroupant 1
ext@@ 1
Arab@@ 1
œurs 1
asser 1
las 0.03150200705579893
Rad@@ 0.686788038844045
Hér@@ 1
ier@@ 0.6152890543972996
réputation 1
correspond@@ 1
jardins 1
battant 1
desserv@@ 1
oubli@@ 1
Jones 0.6349649079224763
phy@@ 1
rouges 1
55 0.6696689962423851
liqu@@ 1
alliés 1
riches 1
frais 1
ES@@ 1
mairie 1
ographe 1
séri@@ 1
défenseur 1
Front 1
recommand@@ 1
introduction 1
test 0.7155607941095534
recens@@ 1
athlète 1
Maur@@ 1
pouvaient 1
tchèque 1
augmenter 1
sports 0.6815589795462492
çon 1
Tom@@ 1
représenter 1
ationn@@ 1
Kal@@ 0.5511034367326939
publications 1
confiance 1
graphiques 1
terror@@ 1
coû@@ 1
Cameroun 1
1907 0.727506226674966
coalition 1
rappelle 1
retrait 1
bilan 1
fouilles 1
ky 0.6284643390790101
relati@@ 1
élabor@@ 1
morceaux 1
rendent 1
Ci@@ 1
ko@@ 0.8142396497612425
paysage 1
Contexte 1
Pat@@ 0.7988405688430794
ron 1
intégré 1
vivent 1
í@@ 0.31567008528061735
Gre@@ 0.6270259313096984
Grenoble 1
tonnes 1
Lab@@ 1
funér@@ 1
mit 0.0216151191376791
seigneurie 1
filiale 1
étition 1
intention 1
tués 1
fenêtres 1
largeur 1
Pa@@ 1
syst@@ 1
citer 1
aille 1
obtenus 1
port@@ 0.9208693697530388
péninsule 1
équivalent 1
agres@@ 1
plais@@ 1
économ@@ 1
airement 1
émie 1
recev@@ 1
dition 1
avantage 1
ral@@ 1
ab 0.14374457466224694
récompens@@ 1
Rouen 1
vier 0.35049948907090683
Gas@@ 1
Tak@@ 0.8508032128829607
placée 1
Cos@@ 1
caractères 1
exil 1
cm 0.5321504228131798
évoluant 1
Boul@@ 1
chois@@ 1
préfet 1
abandonné 1
Hel@@ 0.6679842524235058
mm 0.38281471453145427
générales 1
Gl@@ 0.8290020720112175
fréquemment 1
instrument 1
maladies 1
Nov@@ 0.9014523864588331
exécutif 1
nées 1
marie 1
destination 1
poule 1
franchise 1
fant@@ 1
latine 1
permet@@ 1
fal@@ 0.756963140042766
empêcher 1
neu@@ 1
Ceci 1
répartis 1
méda@@ 1
autonomie 1
collectif 1
administrativement 1
ud@@ 0.6801166440741316
adolesc@@ 1
conséquences 1
roues 1
jouent 1
hydr@@ 1
Dau@@ 1
annu@@ 1
limité 1
institution 1
Voir 1
ei 0.4930241944064809
productions 1
st 0.2960939191596794
syndic@@ 1
climatiques 1
amitié 1
pôle 1
Naples 1
difficulté 1
sév@@ 1
Land@@ 0.3497672563043572
prononciation 1
ian 0.3530909434625252
Super@@ 0.649791016604496
Z 0.6417213911297888
alim@@ 1
SS 0.8475887599095548
adj@@ 1
débat 1
sais@@ 1
électriques 1
blessés 1
effectif 1
bientôt 1
organismes 1
entraînement 1
canon 1
sit@@ 1
Tunisie 1
transfé@@ 1
rich@@ 1
ik 0.45618937690712813
gouvern@@ 1
Anglais 1
seigneurs 1
Élections 1
représentations 1
nois 1
provient 1
domesti@@ 1
uch@@ 0.9282554744207315
influ@@ 1
défini 1
Victoria 0.6777623801555822
Ali 0.9741821914666537
que@@ 1
illant 1
adapté 1
péri@@ 1
marié 1
44 0.5683332229666417
ine@@ 0.9115889303592767
nent 1
oh@@ 0.6057604622031704
Ra@@ 1
dimension 1
porta 1
distingu@@ 1
commerciale 1
homonymie 1
thique 1
PC 1
financière 1
Awards 0.40395299335768187
1904 0.7457732965090724
foi 1
offensive 1
let 0.603818571950871
treize 1
exclusivement 1
Équipe 1
tourner 1
soleil 1
tu 1
trés@@ 1
fili@@ 1
présentation 1
Varsovie 1
eter 0.822438086716957
formant 1
sifs 1
adopté 1
1901 0.8112973349086683
Rev@@ 1
stein 0.48474115923604316
1915 0.6246782383715973
Sab@@ 0.9995850405205773
bach 0.46386356754584673
particip@@ 1
Manuel 0.8887055150281167
sculpture 1
potenti@@ 1
catégorisée 1
secours 1
investis@@ 1
Montpellier 1
étés 1
cu 1
séparation 1
saut 1
découvrir 1
médailles 1
onds 1
remp@@ 1
décident 1
ense 0.8335446541842678
rattachée 1
dédiée 1
révolte 1
tire 1
milli@@ 1
pourquoi 1
conséquent 1
remarquable 1
amateur 1
mê@@ 1
figures 1
otes 1
hon@@ 1
verre 1
rab@@ 1
nommés 1
clip 1
trom@@ 1
échapp@@ 1
Contrairement 1
sk 1
Adam 1
RE@@ 1
Williams 0.6399308392587336
Don 0.6142582772065708
Slov@@ 1
assistant 0.8791061301026598
végétation 1
tori@@ 1
lav@@ 1
mobilier 1
connex@@ 1
franc 1
aver@@ 1
aître 1
1860 1
forteresse 1
lancée 1
bénéficie 1
maximale 1
partiellement 1
ui 1
Salon 1
abor@@ 1
Aff@@ 1
Rouge 1
radic@@ 1
ga 0.6936194913855729
1890 0.8547451614335214
ions 1
commémor@@ 1
tot@@ 1
vide 1
embr@@ 1
batterie 1
voile 1
52 0.7070271096801245
Géorgie 1
quel 1
neveu 1
toit 1
œil 1
atom@@ 1
dizaine 1
side 0.16581890494993473
agir 1
red@@ 1
39 0.6779797511484325
convain@@ 1
consult@@ 1
ki@@ 0.5691877985455941
exercice 1
composés 1
expansion 1
faux 1
Lim@@ 1
citoy@@ 1
Ferdinand 1
lic@@ 1
colonnes 1
élimin@@ 1
inauguré 1
icul@@ 1
paramètres 1
goût 1
Tours 1
Composition 1
remise 1
èrement 1
Man 0.4462689695472563
ener 0.567313665179686
élevait 1
eri 0.8643337794767918
embl@@ 1
oué 1
maîtr@@ 1
dil@@ 1
Carlos 0.5807582427530048
attr@@ 1
déclaration 1
coureur 1
Kor@@ 0.5163921817622834
concurrence 1
poème 1
P. 0.733741753399488
employ@@ 1
mur@@ 1
Auvergne 1
les@@ 0.761463222143015
comportent 1
iné 1
adversaire 1
etta 1
simples 1
Même 1
suprême 1
ero 0.357930443539797
und 0.006479686665311776
dez 1
appareils 1
répondre 1
ût 1
We@@ 0.45318296290391596
ney 0.6204757198154762
1909 0.7104387950548304
édé 1
acquisition 1
parall@@ 1
étages 1
écar@@ 1
César 1
fich@@ 1
Pas 1
suédois 1
Dol@@ 0.9005261614118221
Metz 1
alie 1
jouant 1
charges 1
estimée 1
championne 1
reb@@ 1
aér@@ 1
réduction 1
otr@@ 1
domination 1
étaire 1
divisé 1
faç@@ 1
équipements 1
communi@@ 1
relative 1
dies 0.591800952241237
musicien 1
Joe 0.7443767362977933
troubles 1
proclam@@ 1
roch@@ 1
Sir 0.5199454210090287
négociations 1
orbitales 1
zi 1
participants 1
spécifiques 1
pousse 1
éry 1
contribue 1
confirme 1
Alexander 0.49873722268134707
spatiale 1
prêt 1
Nar@@ 0.9549435576226682
traditionnel 1
disques 1
rédig@@ 1
andi 1
échapper 1
Tourn@@ 1
una 0.026848926586154297
fe 0.7141063091308604
empê@@ 1
20@@ 0.6664997901625904
accords 1
Giovanni 1
CA@@ 0.9726366529162209
Toutes 1
41 0.6902913543882017
moindre 1
alimentation 1
structur@@ 1
Ka@@ 1
varie 1
musulmans 1
périodes 1
uns 1
Gilles 1
rique 1
présentes 1
annon@@ 1
contemporain 1
quin 1
bre 1
humaines 1
65 0.40045261607289145
reconstruction 1
CO@@ 0.9517145801653596
conse@@ 1
attaquant 1
Society 0.34109465501898334
références 1
remis 1
Formule 1
aç@@ 1
concurr@@ 1
1916 0.6201248288553185
détec@@ 1
human@@ 1
wa 0.3414201107863288
gares 1
cités 1
accél@@ 1
colline 1
SA 0.9738792458648204
traits 1
aki 0.9470566365399513
san 1
bataillon 1
minim@@ 1
XIII 1
arrêter 1
propor@@ 1
gor@@ 1
ende 0.24233819923255331
nau@@ 1
externes 1
qui@@ 0.8059855523766736
observation 1
aga 0.9263584054455235
S. 0.5645024762431907
réélu 1
Blan@@ 1
Y 0.5199575976736609
Maj@@ 1
endommag@@ 1
communications 1
han 0.3188878544567009
Q 0.8385264619355102
apprentissage 1
ovie 1
bos@@ 1
applications 1
Versailles 1
sculpteur 1
sph@@ 1
ceau 1
conserver 1
échecs 1
Banque 1
installée 1
Lem@@ 1
achat 1
inal 1
épar@@ 1
villa 1
150 0.6547316706197847
décennies 1
moul@@ 1
Hans 0.6225065474805281
doul@@ 1
cer 1
Love 0.5089194515791059
défaites 1
lave 1
métr@@ 1
hi 0.8740995688444699
Tu@@ 0.9939912645088878
reux 1
efficace 1
ok 0.6368402789354117
Eur@@ 1
définit 1
clé 1
devaient 1
bord@@ 1
fum@@ 1
Mand@@ 0.9828916167839298
aper@@ 1
puissant 1
Samuel 1
intervient 1
affiche 1
audi@@ 1
rencontrent 1
associée 1
noirs 1
récup@@ 1
consist@@ 1
appartenait 1
pop 0.7004466907848107
incorpor@@ 1
mati@@ 1
Parallèlement 1
virus 1
çu 1
échanges 1
préf@@ 1
ela 0.577363204681137
dimensions 1
démission 1
présentées 1
touche 1
import@@ 1
sonne 1
prévue 1
chimie 1
logique 1
cesse 1
val 1
Chapelle 1
écol@@ 1
1848 1
aro 1
araignées 1
nécessité 1
municipale 1
Afin 1
ota 0.6245415398177524
plat 1
jus@@ 1
mut@@ 0.9884830918820611
clair 1
crime 1
chr@@ 1
danger 1
Gare 1
fique 1
laur@@ 1
Pér@@ 1
morceau 1
Mich@@ 1
RC 1
convention 1
natale 1
qualifi@@ 1
Capit@@ 1
héritier 1
magné@@ 1
métier 1
ennemis 1
concl@@ 1
accéder 1
Plan@@ 0.9816858723062801
awa 1
èlement 1
Bos@@ 1
penser 1
accompagne 1
peupl@@ 1
Carl 0.703077942234215
différent 1
norvé@@ 1
expériences 1
souverain 1
existent 1
rédu@@ 1
ateliers 1
lés 1
meurtre 1
On@@ 1
spiritu@@ 1
civils 1
biais 1
électorale 1
Rennes 1
signature 1
pê@@ 1
Floride 1
réunit 1
culaire 1
ismes 1
modé@@ 1
Lin@@ 0.5671992999941492
fournit 1
approuv@@ 1
possèdent 1
exécut@@ 1
imposer 1
ten 0.06545749443004827
conflits 1
tées 1
fun@@ 1
inond@@ 1
dues 1
Saxe 1
sive 0.7513416334404813
fermeture 1
ives 1
secteurs 1
environn@@ 1
Dj@@ 1
alisées 1
diplômé 1
ust@@ 1
adresse 1
ish@@ 0.49922741826334927
heur@@ 1
neur 1
queue 1
iro 0.8664096444619724
issante 1
soirée 1
aka 0.8350822817388801
bons 1
comédi@@ 1
inqui@@ 1
Johnson 0.608181033875447
illi@@ 1
Cham@@ 1
surveillance 1
développée 1
fréquente 1
rog@@ 1
albédo 1
Jos@@ 1
adis 1
prénom 1
Lac 1
tend 1
extrêmement 1
retrouvent 1
eurent 1
symbol@@ 1
théâ@@ 1
terrestre 1
pèler@@ 1
Communes 1
ito 0.4916216324166119
Syrie 1
ich 0.3735518410462234
artis@@ 1
yle 1
entaires 1
journalistes 1
Très 1
quer@@ 1
bateaux 1
1902 0.7411094090643793
signifiant 1
post 0.35611087181873585
ouvr@@ 1
cho 0.1508644928836039
solaire 1
faites 1
proté@@ 1
reçut 1
ax 1
respec@@ 1
Toronto 0.7652819145712829
erne 1
ambassadeur 1
familiale 1
ître 1
Bay@@ 0.9686393235848919
contraint 1
RA@@ 1
portugais 1
raient 1
considér@@ 1
çoit 1
Sac@@ 1
isations 1
Fou@@ 1
seize 1
atus 0.7289510891577852
43 0.688178553019109
junior 1
batt@@ 1
histori@@ 1
traités 1
47 0.6816354086223715
Guy@@ 1
commerciales 1
cousin 1
Tre@@ 0.6260152270650436
Oise 1
Ven@@ 1
voisins 1
asc@@ 1
Fab@@ 1
écart 1
manifest@@ 1
évêques 1
Ed@@ 0.8674919966958355
immédi@@ 1
ukrain@@ 1
facteurs 1
enfu@@ 1
quier 1
1830 1
aissant 1
référ@@ 1
alier 1
pp@@ 0.6360360038036248
Jan 1
indig@@ 1
erreur 1
quelles 1
relé@@ 1
matur@@ 1
mée 1
couche 1
ancé 1
Les@@ 1
prop@@ 0.8557332813465041
bau@@ 0.5735741770405154
classés 1
Ontario 0.8277244035092782
Amsterdam 1
R. 0.6595518217182611
camps 1
uter 1
anniversaire 1
Aix 1
ordin@@ 1
africaine 1
monter 1
Hon@@ 1
urbanisées 1
SP@@ 1
ingen 0.35962969851233234
attaché 1
soumis 1
annes 1
itr@@ 1
rapporte 1
resté 1
orgue 1
L. 0.772532396945793
VII 1
procédure 1
rot@@ 0.6554718575404572
méridi@@ 1
AR@@ 0.90649714273174
remarqu@@ 1
ver 0.4587655411718894
avenir 1
yst@@ 1
suffisamment 1
explor@@ 1
retire 1
cri@@ 1
Racing 1
sortant 1
cible 1
Pot@@ 0.9833866996976532
ever 0.31843864215158124
époux 1
insectes 1
champ@@ 1
inger 0.45820901163092714
Collège 1
carbone 1
méditerran@@ 1
monnaie 1
tournant 1
hongrois 1
intégrer 1
Brown 0.5311131801953437
1903 0.7173022555329976
51 0.7046821906499868
républicain 1
satis@@ 1
Gil@@ 0.9652120199041682
renforc@@ 1
yc@@ 1
libres 1
Pen@@ 0.7139598032066138
cuisine 1
gaz@@ 1
bureaux 1
Ga@@ 1
igné 1
égale 1
ech@@ 0.4921819255660089
consul@@ 1
enterré 1
tracé 1
culturelles 1
commissaire 1
visage 1
Barr@@ 1
IN@@ 0.9741999428118837
Direc@@ 1
Él@@ 1
Rap@@ 1
fais@@ 1
Rh@@ 1
inclut 1
onnées 1
examen 1
soulig@@ 1
esclaves 1
continuer 1
pes@@ 1
Ensuite 1
territoriale 1
senti@@ 1
débar@@ 1
Dem@@ 0.7330336192078376
Sel@@ 0.6472969258504826
ff 0.6299326408278073
Alliance 1
onction 1
soixante 1
Athènes 1
paysages 1
niers 1
All 0.18714072320647068
Ernest 1
envoy@@ 1
théologie 1
W 0.4147415318775206
annuel 1
provisoire 1
clients 1
marchés 1
mes@@ 0.9419858447349595
abandonne 1
Hill 0.43717194218620503
aceae 0.7611408161003648
Palmarès 1
recours 1
adultes 1
Ing@@ 1
considérés 1
sénateur 1
Kong 0.7279249804240944
procédé 1
nie 1
institut 1
dirigeant 1
UA 1
sainte 1
troupe 1
Mouvement 1
Soleil 1
calculer 1
aig@@ 1
acher 1
anime 1
universitaires 1
DC 0.8047217206989704
46 0.6792716670925176
Britanniques 1
phonie 1
capital 0.3223950732558182
érienne 1
aquie 1
étro@@ 1
jette 1
portail 1
rythme 1
salon 1
atri@@ 1
Cant@@ 1
contribué 1
augmente 1
ponts 1
refl@@ 1
protec@@ 1
charbon 1
sent@@ 1
cancer 1
Félix 1
cules 1
Défense 1
rarement 1
respect 1
répond 1
gue 1
Temple 1
Guinée 1
histoires 1
galaxies 1
maillot 1
occuper 1
ium 0.776211376125288
Red@@ 0.5913715377409525
ua 0.7129500957193196
Cup 0.17962217217483908
plant@@ 1
gies 1
jury 1
group@@ 1
saient 1
omé@@ 1
anne 1
différente 1
bri@@ 1
Éducation 1
mobile 1
connaissances 1
longs 1
Nic@@ 1
Bill 0.6185257092872232
trag@@ 0.7628560592913556
travaillent 1
anci@@ 1
israéli@@ 1
énie 1
demander 1
guitariste 1
visiteurs 1
Déc@@ 1
Kir@@ 0.8055370525208567
ué 1
bourge@@ 1
sives 1
télescope 1
bact@@ 1
gri@@ 1
wood 0.3371475466119412
servant 1
Gren@@ 1
Jackson 0.6903370875586111
dynamique 1
médiév@@ 1
logiciel 1
minimum 1
lia 1
acle 1
nourriture 1
hectares 1
vieille 1
Harry 0.84856336245849
White 0.36635801901748927
ématiques 1
Mars 1
Chris 0.7857527894644758
tch@@ 1
rétab@@ 1
Résumé 1
commença 1
neaux 1
rupture 1
sour@@ 1
colonies 1
renouv@@ 1
vingtaine 1
métalli@@ 1
ras@@ 1
élev@@ 1
constat@@ 1
Vel@@ 1
ash@@ 0.5436125436859519
expose 1
capacités 1
étudiant 1
monté 1
cass@@ 1
pourraient 1
web 0.943405446976491
opérationn@@ 1
poursuite 1
harmon@@ 1
archipel 1
tap@@ 1
intéresse 1
spécial 1
atten@@ 1
érées 1
Antiquité 1
blessure 1
minér@@ 1
rétr@@ 1
tivité 1
constructions 1
agré@@ 1
Dal@@ 1
sements 1
financier 1
molé@@ 1
nies 1
bin 0.9291406628638996
fréquence 1
Cav@@ 1
gard@@ 1
ël 1
lanceur 1
zaine 1
équilibre 1
arrivent 1
Convention 1
onom@@ 1
démén@@ 1
E. 0.5785558018342419
Kon@@ 0.3774984709775104
cru@@ 0.7960994535494965
afflu@@ 1
arabes 1
vocation 1
Blanc 1
abl@@ 1
kin 0.6571486722684106
plage 1
centaine 1
académie 1
expliqu@@ 1
dis 1
Navy 0.46371901545843947
lan 1
mentionné 1
collabore 1
fermé 1
gothique 1
mées 1
ouvrent 1
restes 1
chir@@ 1
voisine 1
vendus 1
mos@@ 1
dial@@ 1
Bavière 1
Nous 1
sag@@ 1
Hôtel 1
motifs 1
oz@@ 0.7520857708342892
Anti@@ 1
libéré 1
Not@@ 0.6345597045604784
érance 1
Bruno 1
préci@@ 1
dispositif 1
toile 1
départementales 1
retrouvé 1
repos@@ 1
établ@@ 1
ć 1
moi 1
bloc 1
attend@@ 1
demandé 1
ung 0.0870501491277047
acquiert 1
ands 0.9520712933109113
perspective 1
ę@@ 1
acier 1
critères 1
voisin 1
aph@@ 1
Reims 1
Rose 1
maintien 1
neuvième 1
achet@@ 1
Tony 0.924454930365006
lées 1
Nationale 1
communistes 1
Sébastien 1
ava 0.9719733125485506
Virginie 1
agissait 1
exemples 1
Cot@@ 1
évid@@ 1
arron@@ 1
peintres 1
rencontr@@ 1
liers 1
ètres 1
Bibliothèque 1
House 0.18415425900397597
ë 1
ble@@ 1
appuy@@ 1
homosexu@@ 1
ny@@ 1
potentiel 1
heim 0.5947976363649417
Américains 1
1er 1
color@@ 1
découvertes 1
Jac@@ 1
eu@@ 1
gris 1
cide 1
1793 1
génie 1
pren@@ 1
surviv@@ 1
Constantinople 1
quatorze 1
ignan 1
ball@@ 1
blé 1
rédacteur 1
déplacement 1
colonne 1
ffe 1
Ul@@ 0.6577963758171831
Santé 1
traduc@@ 1
Prusse 1
Field 0.8853128441225123
Corse 1
inventaire 1
manches 1
encad@@ 1
dénomination 1
plaque 1
podium 1
sections 1
vêtements 1
branches 1
ese 0.18978996680114882
associés 1
apporte 1
sier 1
ech 1
49 0.6731746491018773
oi 1
autorisation 1
hou@@ 1
efficacité 1
écrivains 1
tin@@ 1
Transports 1
attaquer 1
Début 1
Accueil 1
1898 0.7566836017340796
Mak@@ 0.8429841744014218
étendue 1
verse 0.9357014620132124
Bot@@ 0.783101174710966
aul@@ 1
rentre 1
Benoît 1
nécessit@@ 1
littéraires 1
ingue 1
accueilli 1
possibles 1
arité 1
remportant 1
Museum 0.2993431364354253
Saône 1
espoir 1
len@@ 0.4917475109133144
Jam@@ 1
aspects 1
uri 1
Clermont 1
tribu 1
ec 1
Flor@@ 1
gagné 1
message 1
Rock 0.5056555830794042
remplacée 1
intégration 1
utile 1
Tam@@ 0.9860827587080758
dépôt 1
marques 1
mourut 1
diminution 1
disant 1
1871 0.9684529988167339
maroc@@ 1
occ@@ 1
stati@@ 1
quai 1
sauver 1
Team 0.34203139354220363
abe 1
document@@ 1
prestigi@@ 1
listes 1
Big 0.4757546694909236
Mike 0.7372069308975161
mexic@@ 1
spécialisé 1
cir@@ 1
intérieure 1
bel@@ 0.474968993295406
Mu@@ 0.6662227087968378
secr@@ 1
conduc@@ 1
quarts 1
rê@@ 1
Boh@@ 1
ajou@@ 1
tol@@ 1
confé@@ 1
littéralement 1
lire 1
tons 1
hiér@@ 1
itent 1
âme 1
op 0.750033219909223
Laval 1
ilien 1
œufs 1
protég@@ 1
résolution 1
tirs 1
tam@@ 1
Maine 1
You 0.3626272851025819
figurent 1
veuve 1
prol@@ 1
cier 1
voyages 1
regard 1
Fil@@ 0.8157285142058941
but@@ 1
Sans 1
Sport 1
Lorsqu&apos; 1
Ay@@ 0.8793387841548688
reconnue 1
bonnes 1
donna 1
portées 1
aliment@@ 1
Young 0.5469110745972232
touch@@ 1
Envir@@ 1
sélections 1
Roland 1
Aquitaine 1
Steve 0.7993871472040777
ans@@ 0.5067748837975465
promouvoir 1
degré 1
chaînes 1
zo 0.8170179119047467
payer 1
top@@ 1
maîtres 1
nien 1
Rue 1
D. 0.49800889800939296
Canal 1
ties 0.2799734833512177
admis 1
admir@@ 1
rh@@ 1
Production 1
tax@@ 1
ums 0.5419934435342852
Chez 1
One 0.18453685734532144
couver@@ 1
hebdomadaire 1
lut@@ 1
africain 1
nobles 1
océ@@ 1
constructeur 1
dy 0.5911914798834462
tension 1
égard 1
québécois 1
Bell@@ 1
Tél@@ 1
cyrillique 1
US@@ 0.7678722460570963
ila 0.7298984117382457
Cy@@ 1
Sports 0.7020900635232844
chaussée 1
itali@@ 1
arrête 1
1896 0.7709947162386944
Pres@@ 0.6123472689829271
écos@@ 1
assassinat 1
Cul@@ 1
més 1
tut@@ 1
proces@@ 1
Europ@@ 1
représentée 1
opposé 1
faute 1
entré 1
wan 1
sé 1
sélec@@ 1
Log@@ 1
isit 1
has@@ 1
Util@@ 1
dédié 1
Mans 1
Cass@@ 1
Ak@@ 0.46891249435840093
doté 1
èque 1
Jus@@ 1
réper@@ 1
naval 1
seules 1
génétique 1
amor@@ 1
modifications 1
Diff@@ 1
chen@@ 0.828913781760013
Mot@@ 0.8999707394237427
ime 1
ajouter 1
sable 1
Hong 0.696947193421176
bibli@@ 1
acad@@ 1
mo 0.8836606575987244
Calais 1
irlandais 1
ris@@ 1
décou@@ 1
montr@@ 1
réclam@@ 1
lès 1
pion@@ 1
Chau@@ 1
justi@@ 1
Top 0.552856834058991
chasseurs 1
commenc@@ 1
fermée 1
tern@@ 1
érig@@ 1
fortune 1
chron@@ 1
mensu@@ 1
manche 1
équipé 1
autel 1
ments 0.36081750412320374
ett 0.4343008032185058
incluant 1
marchandises 1
réalisées 1
analy@@ 0.9669085346419717
guer@@ 1
gués 1
feuille 1
surnommé 1
Jar@@ 1
Rob@@ 1
Bob 0.7706165968947779
forti@@ 1
ordonne 1
Som@@ 1
osa 0.39799842892810555
rain 1
vel@@ 1
Code 1
correspondance 1
froid 1
lun@@ 1
vil@@ 1
ogr@@ 1
électeurs 1
possédait 1
vus 1
Bureau 1
ist 0.018901564923060356
Livre 1
magistr@@ 1
signal@@ 1
hauts 1
Sin@@ 0.8481803232297893
alimentaire 1
différ@@ 1
manuscrit 1
gau@@ 1
gouvernement@@ 1
Sk@@ 0.575090150459675
path@@ 0.9551488098332638
déchets 1
anglo 1
Camp@@ 1
eur@@ 1
ih@@ 0.8681078316579516
australi@@ 1
vul@@ 1
Vit@@ 1
opinion 1
supplémentaire 1
Arg@@ 1
parcour@@ 1
1889 0.844152381293111
ham 0.6401834623842206
olo 1
ele 0.6318274466041027
house 0.16940761931114418
calcul 1
ige 0.251695735237157
bus@@ 0.7424666674481772
tienne 1
atmosphère 1
fiés 1
norm@@ 1
Chal@@ 1
sanctuaire 1
satellite 1
supérieures 1
Pro 0.8294134336686889
rage 1
portraits 1
léger 1
Sem@@ 0.8897858032552896
privilégi@@ 1
Lincoln 1
aviation 1
Gou@@ 1
ern@@ 0.42881653060187574
yn 0.9034350246998529
châ@@ 1
fol@@ 0.8153173637494965
physi@@ 1
gn@@ 1
esque 1
impression 1
réduite 1
Ier 1
Kan@@ 0.5010097179587752
spect@@ 1
spectacles 1
sexe 1
amont 1
destinés 1
bain 1
criv@@ 1
pseudonyme 1
sprint 1
comptes 1
Madeleine 1
Charlotte 1
Sig@@ 1
basque 1
facteur 1
ignes 1
Six 1
Thierry 1
urgence 1
décoration 1
super 1
médecins 1
culturels 1
ster 0.3615200728963947
ruines 1
verte 1
constituer 1
impossible 1
ž@@ 1
vill@@ 1
philosophe 1
Père 1
ilier 1
notes 0.9342814873156169
Kur@@ 0.3921181697821128
athlétisme 1
tissement 1
inspiration 1
rais@@ 1
bourse 1
rez 1
ū@@ 1
Ku@@ 0.8113621425741667
Ceux 1
ika 0.7854382494623164
Lev@@ 1
internet 1
affili@@ 1
abandon 1
retourner 1
normes 1
missionn@@ 1
Sand@@ 0.641767742136449
garanti@@ 1
Johann 0.46684810745070504
Membre 1
chien 1
1895 0.7528656653127406
électoral 1
liné@@ 1
grotte 1
flot@@ 1
doublé 1
Eric 1
Award 0.24067648678770304
dom@@ 1
retirer 1
âgée 1
NBA 0.9247813655356655
liber@@ 0.7321862881962701
kar@@ 0.5179866059926289
délégation 1
préserv@@ 1
faus@@ 1
carré 1
lers 0.4027439830221617
chiffres 1
perdre 1
cents 1
onnage 1
difficiles 1
échan@@ 1
clan 1
ôle 1
partenariat 1
Loi 1
North 0.12957183944772718
éduc@@ 1
partout 1
majoritairement 1
élector@@ 1
wall@@ 1
inclus 1
rières 1
déta@@ 1
gouver@@ 1
probable 1
Pascal 1
voulait 1
fêtes 1
cell@@ 1
guér@@ 1
cherch@@ 1
ignée 1
restaurant 1
{ 0.7817615703141569
réfugiés 1
semb@@ 1
aval 1
grec@@ 1
Pé@@ 1
alla 1
└ 1
subi 1
délé@@ 1
gée 1
1850 1
Pre@@ 0.3932683182862371
Den@@ 1
Élisabeth 1
prest@@ 1
lon@@ 1
tère 1
statistiques 1
Deuxième 1
tiens 1
particuliers 1
× 0.6802284537318526
Chap@@ 1
visibles 1
décor 1
han@@ 1
$ 0.10208098580768422
Sen@@ 0.692427217583461
çons 1
SNCF 1
Ble@@ 1
visi@@ 1
tribus 1
héritage 1
eville 1
individu 1
similaires 1
déliv@@ 1
pauvres 1
âg@@ 1
assé 1
numér@@ 1
ordonné 1
naz@@ 1
Classement 1
cip@@ 1
instruction 1
navig@@ 1
fuite 1
fas@@ 1
anais 1
occidental 1
alé@@ 1
émig@@ 1
mél@@ 1
Diego 0.7470965563028266
cycl@@ 1
bén@@ 1
loge 1
mauvaise 1
Da@@ 1
Miss 0.8475675702896441
progrès 1
diplô@@ 1
amour@@ 1
combatt@@ 1
Lau@@ 1
sû@@ 1
cous@@ 1
adr@@ 1
détruite 1
environnement@@ 1
construites 1
surnom 1
nières 1
Châte@@ 1
accusé 1
chimique 1
Cinq 1
AC@@ 0.9259397544139341
Post@@ 0.8875446615076081
quette 1
53 0.6993023492641068
IX 1
récep@@ 1
financières 1
midi 1
H. 0.5453524765989766
Herzégovine 1
Let@@ 1
coule 1
commencer 1
vitr@@ 1
battre 1
adap@@ 1
Route 0.44973836627160496
crivant 1
occupée 1
1885 0.8219707685474568
1899 0.7155511249739256
Mario 1
Cab@@ 1
conform@@ 1
Cau@@ 1
noyau 1
support 0.20205219606449745
Pétersbourg 1
glo@@ 1
fres@@ 1
ury 1
garçon 1
arque 1
alm@@ 0.7247417264150204
CI@@ 1
ryth@@ 1
périph@@ 1
pétrole 1
tox@@ 1
traditions 1
conclut 1
voil@@ 1
stratégique 1
erte 0.34847872617551445
infrarouge 1
galaxie 1
variable 1
Garde 1
chante 1
eo 0.4729640107258558
Sophie 1
solutions 1
coureurs 1
traversé 1
tenter 1
technologies 1
Group 0.25493380032893387
états 1
expérim@@ 1
Isabelle 1
Island 0.2742468649288176
évidence 1
décède 1
clairement 1
équipement 1
complexes 1
riers 1
importe 1
islamique 1
entame 1
optique 1
majeures 1
Benjamin 1
ester 0.9683779824628399
nat@@ 1
Lit@@ 1
Conservatoire 1
privés 1
SA@@ 1
identifi@@ 1
immeuble 1
Franc@@ 1
reç@@ 1
voû@@ 1
lerie 1
orial 1
comprennent 1
studios 1
lem@@ 1
uk@@ 0.4716615608891488
Énergie 1
prédéces@@ 1
Petite 1
Blanche 1
56 0.6814589961860337
endroits 1
foss@@ 1
optim@@ 1
Rivière 1
Alexand@@ 1
line 0.1188638351753907
entaux 1
800 0.5913829469779345
sensibil@@ 1
const@@ 1
fra@@ 1
lu 1
distinction 1
neutr@@ 1
expliquer 1
future 0.4575593818644575
top 0.181074091318871
paysans 1
juif 1
popularité 1
1893 0.8014356065789495
Chan@@ 1
illustre 1
touristique 1
café 1
“ 0.02380503214392174
matches 0.46822429684643746
1897 0.7140432027013555
odi@@ 0.8246440800247472
num@@ 1
prob@@ 1
publicité 1
Enf@@ 1
morph@@ 1
600 0.5782714487970397
Parcours 1
Ty@@ 1
enter@@ 0.9409891133914504
éries 1
évaluation 1
Té@@ 1
Quant 1
Elizabeth 0.6292101660513907
Libération 1
Pérou 1
Center 0.2687633558719825
usines 1
fidèles 1
temp@@ 1
anda 0.906776625160331
ith 0.9971650341040181
préparer 1
incap@@ 1
métal 1
kilom@@ 1
err@@ 0.5458828766181338
G. 0.7268416037705675
astronom@@ 1
privil@@ 1
ow@@ 0.3601435467027146
chance 1
numéros 1
otique 1
décro@@ 1
Oc@@ 1
Liens 1
taires 1
auto 1
aya 0.4903099801071607
Tol@@ 1
diver@@ 1
aristoc@@ 1
Friedrich 0.4031669794374981
chrom@@ 1
tenues 1
Nom@@ 1
aug@@ 1
dizaines 1
metal 0.5858721853147317
précision 1
escalier 1
ock 0.5636308732287537
Cri@@ 1
national@@ 1
FI@@ 1
étrangère 1
diversité 1
divisée 1
fins 1
minute 0.7848399133136068
rapproch@@ 1
Brest 1
idi@@ 0.9081858338255244
investi@@ 1
Hamilton 0.8970550077386764
chaleur 1
Carlo 1
extra@@ 1
chrétien 1
matr@@ 1
directrice 1
migr@@ 1
stric@@ 1
fasc@@ 1
issage 1
Romains 1
graph@@ 1
nœ@@ 1
ius 0.9451232033453498
urban@@ 1
armé@@ 1
Fal@@ 0.8708577494328149
navigation 1
sacré 1
couvert 1
mâles 1
Alice 1
disputé 1
ench@@ 1
chers 1
apparence 1
implique 1
descendants 1
scol@@ 1
offici@@ 1
contrain@@ 1
Troisième 1
amoureux 1
ill 0.36964179657508617
zy@@ 1
Anvers 1
chercher 1
fontaine 1
terr@@ 1
astiques 1
incendi@@ 1
dém@@ 1
démocratie 1
assaut 1
ignement 1
tionneur 1
brun 1
démissionne 1
partenaire 1
Ministère 1
soi 1
CN@@ 1
comprenait 1
moulin 1
chée 1
tunisi@@ 1
évol@@ 1
Luis 0.5486431284361402
ee 0.3625296186323409
financiers 1
und@@ 0.2858155255396561
approvisi@@ 1
panneaux 1
solide 1
aïque 1
mélo@@ 1
instaur@@ 1
dé 1
nit@@ 1
Ayant 1
Hitler 1
Kol@@ 0.6287549044838401
flu@@ 1
habituellement 1
od 0.7246704289562603
Roc@@ 1
thiop@@ 1
Architecture 1
ègue 1
recu@@ 1
logement 1
pente 1
virtu@@ 1
inée 1
Office 0.5852329876947258
andes 1
Pav@@ 1
AN@@ 0.9042590218849881
Docteur 1
définie 1
syl@@ 1
Gran@@ 0.9030007597644321
paci@@ 1
entreti@@ 1
courts 1
Tal@@ 0.6335199718256417
Françoise 1
Dro@@ 1
interprété 1
Point 0.7867057631102883
1867 0.9565275883169281
indépendants 1
indiens 1
Hugo 1
simultan@@ 1
ene 0.18340899014101408
narr@@ 1
bouche 1
confie 1
toponyme 1
flux 1
répon@@ 1
récits 1
producteurs 1
mait 1
allait 1
courants 1
58 0.6967925890793953
passée 1
54 0.6435810744172246
Neu@@ 0.5783472460764069
divin@@ 1
rattach@@ 1
1790 1
Sciences 0.8337627989096525
ondes 1
Eff@@ 1
ouver@@ 1
installés 1
reconnaît 1
durable 1
glaci@@ 1
surprise 1
bran@@ 1
couverte 1
ruption 1
sey 0.6698188793982249
Place 1
archéologiques 1
cess@@ 1
tramway 1
aum@@ 1
individuel 1
expériment@@ 1
ordinateur 1
idité 1
tournois 1
séance 1
dri@@ 1
plas@@ 1
oncer 1
amateurs 1
Serge 1
utilisateurs 1
manifestation 1
sépare 1
équip@@ 1
différences 1
abil@@ 1
fabric@@ 1
écu@@ 1
Chin@@ 1
phases 1
Survey 1
attest@@ 1
aun@@ 0.9331255052043833
banc@@ 1
pro 0.5386424168038983
réflexion 1
Justice 0.6763283331212475
posséd@@ 1
serp@@ 1
Pau@@ 1
èles 1
Pel@@ 0.9544070747116283
68 0.7672333344343585
deurs 1
Moselle 1
Riv@@ 1
Intérieur 1
14,@@ 1
complétée 1
mini 1
oises 1
enl@@ 1
ectif 1
viande 1
Formation 1
existait 1
Patrimoine 1
récompense 1
85 0.6405334845000066
apparaître 1
témo@@ 1
Gouvernement 1
finances 1
interdiction 1
colons 1
Bertrand 1
Kou@@ 1
Pri@@ 0.8257808891184685
incer@@ 1
tum@@ 1
amélioration 1
habitu@@ 1
décennie 1
vét@@ 1
suppl@@ 1
Fle@@ 1
contemporains 1
SE@@ 0.8628405424156556
ingénieurs 1
héri@@ 1
ignons 1
Covid 1
net@@ 1
tentatives 1
plate 1
Dec@@ 0.4938725042534201
officiels 1
Irak 1
can 0.060585437584059536
Cad@@ 1
pilot@@ 1
vertic@@ 1
ouille 1
renforcer 1
” 0.07356844271487908
achevé 1
quar@@ 1
essenti@@ 1
illi 1
72 0.6776535244100629
initiale 1
patients 1
lion 1
Liv@@ 1
boîte 1
biblioth@@ 1
ism@@ 1
Corps 0.569601347824528
95 0.63473624565072
surve@@ 1
mit@@ 0.3543519805297827
Sec@@ 0.9283659989625129
essay@@ 1
sky 0.5182510232433347
proc@@ 1
Pier@@ 1
57 0.6802418368014257
ado 0.05875773262294357
vend 1
All@@ 0.7574831938193902
universelle 1
linguistique 1
entreten@@ 1
Acc@@ 1
italiens 1
vérité 1
Alphonse 1
nov@@ 1
substitu@@ 1
ics 0.2634620611906792
provenance 1
gol@@ 1
lumin@@ 1
Hen@@ 0.846351169229169
Mis@@ 0.926410704265745
grand@@ 1
lac@@ 1
organisés 1
candidature 1
éliminatoires 1
tests 1
marais 1
aérien 1
Bak@@ 1
tunnel 1
liquide 1
extr@@ 0.7633303178264437
investissement 1
écurie 1
Four@@ 1
vendre 1
âges 1
Mass@@ 1
Tab@@ 0.9456131347993089
soup@@ 1
Illinois 0.5409106795913052
Roy 1
air@@ 0.32481332199116064
ington 0.47990578293929936
reau 1
1892 0.7637879614383388
Dun@@ 0.755401621085414
triom@@ 1
prieuré 1
norme 1
A.@@ 0.758393837512805
sugg@@ 1
syndicat 1
CA 0.9734000093892883
Lewis 0.7276756862086715
précédemment 1
entrain@@ 1
signes 1
èvent 1
navale 1
prêtres 1
Tournoi 1
terminée 1
Wilson 0.6283780525933268
administrateur 1
mâ@@ 1
posée 1
créés 1
modifié 1
néerlandaise 1
jo 0.5507341584359094
limitrophes 1
Sydney 0.5725835693165022
British 0.11052965540305223
restant 1
privées 1
constante 1
traî@@ 1
photo 1
rivières 1
attribue 1
cuivre 1
inspire 1
ud 1
baisser 1
Pékin 1
sbourg 1
plain@@ 1
précédentes 1
we@@ 0.2879894100503409
pistes 1
pav@@ 1
neige 1
Rab@@ 1
dures 1
parisienne 1
till@@ 1
dispositions 1
Son@@ 1
Bay 0.3440426766558418
licenci@@ 1
travaillant 1
án 0.24792472743932484
ann 0.9728919565596372
initial 0.6696058133433368
édie 1
XIV 1
Chamb@@ 1
onge 1
organisées 1
évent@@ 1
médical 1
Eng@@ 0.9371265155427563
égal 1
tru@@ 1
bien@@ 1
mineurs 1
mill@@ 1
liqué 1
prouv@@ 1
remarquer 1
bis 0.03680539564208148
décer@@ 1
1789 1
portation 1
circonscriptions 1
drome 1
mass@@ 1
profite 1
dus 1
publiées 1
romanti@@ 1
concili@@ 1
thér@@ 1
Bran@@ 1
einte 1
militants 1
itin@@ 1
assiste 1
offrir 1
mentation 1
aime 1
inhumé 1
Génér@@ 1
terminant 1
Ric@@ 1
iteur 1
nombres 1
câ@@ 1
èves 1
cordes 1
nécessite 1
1840 1
déclin 1
profession 1
Vén@@ 1
Monaco 1
Œuvres 1
continental 1
hyper@@ 1
oine 1
frac@@ 1
indien 1
aventures 1
adversaires 1
abandonner 1
légère 1
émis 1
Xavier 1
humanité 1
décisions 1
1881 0.8633280673630673
osité 1
Hauts 1
produisent 1
réside 1
programmation 1
espoirs 1
faibles 1
garnison 1
estre 1
nationalité 1
3,@@ 0.7874263266158161
complém@@ 1
réelle 1
orthodoxe 1
adulte 1
issait 1
issons 1
crist@@ 1
souvenir 1
soviétiques 1
entouré 1
issues 0.428161503746808
Lausanne 1
ST@@ 0.9006504381356486
opus 1
sage 1
encadré 1
Éditions 1
option 1
ap 0.5418910030515539
vague 1
volontaires 1
écoul@@ 1
arri@@ 1
arrivé 1
industriels 1
ip@@ 0.7549083721504146
diriger 1
déplo@@ 1
itch 1
bis@@ 1
vraiment 1
archéologique 1
femelles 1
Sy@@ 0.6655942917629442
remplaçant 1
Princip@@ 1
lacs 1
Loc@@ 1
æ@@ 1
poin@@ 1
nettement 1
ênes 1
dépit 1
pique 1
abatt@@ 1
signal 1
Deb@@ 0.8867260058730683
Sul@@ 1
êne 1
Had@@ 1
vet@@ 1
achète 1
estr@@ 0.48320919822413216
brique 1
précédents 1
Lag@@ 1
basilique 1
lignée 1
confirmé 1
rencontré 1
affa@@ 1
élém@@ 1
1876 0.8818810801111087
notables 1
1878 0.8235967414254817
urbanisme 1
rencontrer 1
ander@@ 1
anus 0.9584183817372348
municipalités 1
motif 1
publier 1
Canton 1
manuscrits 1
descente 1
Oxford 0.6537567077259474
Personn@@ 1
Sicile 1
détails 1
héroï@@ 1
AP@@ 0.8249208211648399
photographe 1
ort 0.6584239068099502
phone 0.9387263414327801
Tan@@ 0.7900152269905945
izi@@ 1
garder 1
combattre 1
instar 1
revues 1
adopte 1
érieur 1
ouverts 1
élor@@ 1
Times 0.39244178970902927
réserves 1
sollic@@ 1
régionaux 1
considérablement 1
exprime 1
miques 1
Éric 1
ord 1
1894 0.7397878584065136
compilation 1
débats 1
commandes 1
Gilbert 1
émique 1
South 0.09230546686934196
cérami@@ 1
serte 1
èdent 1
dans@@ 1
rir 1
remportent 1
défend 1
matières 1
iture 1
Davis 0.6555435400725101
pétrol@@ 1
Dav@@ 1
Prés@@ 1
aques 1
rangs 1
Cel@@ 0.9438503916397429
crit 1
majoritaire 1
Général 1
Pos@@ 1
indienne 1
possé@@ 1
ulement 1
stabil@@ 1
biodiversité 1
dites 1
Agence 1
oma 0.4962007724388058
rag@@ 1
synthèse 1
ø@@ 0.6972345208042784
écossais 1
aria 0.35807218491998033
philosophi@@ 1
F. 0.5811706009861722
eint 1
simul@@ 1
Opéra 1
burg 0.3308311931424098
extrait 1
ressemb@@ 1
méth@@ 1
onge@@ 1
géné@@ 1
variétés 1
catalogue 1
artistiques 1
qualités 1
1886 0.80098980096288
Système 1
Conn@@ 1
urent 1
circulaire 1
vid@@ 1
béton 1
terminer 1
marbre 1
mang@@ 1
empêche 1
permanente 1
réci@@ 1
croître 1
musées 1
personnels 1
dos@@ 1
curé 1
différenci@@ 1
Bab@@ 0.9253709761720964
chimiques 1
oy 1
holotype 1
marchands 1
olet 1
républic@@ 1
baptisée 1
reproduction 1
tan 0.38447071810699823
Windows 0.6749423111714506
individu@@ 1
ř@@ 1
mondi@@ 1
démographique 1
vera 1
vertu 1
statues 1
compositions 1
impressionn@@ 1
cap 1
Jersey 0.5360146425524379
joint 0.8748753334200691
Ferr@@ 1
AD@@ 0.9189106861007913
cadet 1
considérable 1
engager 1
discut@@ 1
embouchure 1
Renault 1
eton 1
W. 0.5049031449093406
déroulent 1
répertoire 1
patron 1
Champagne 1
pavillon 1
blessures 1
Clément 1
Alex 1
accent 1
menées 1
proposer 1
Développement 1
transformé 1
Research 0.39601336855372904
créant 1
by@@ 1
émin@@ 1
mix@@ 1
rénovation 1
mentionne 1
IC@@ 0.8373616620207163
interrog@@ 1
Ari@@ 1
automatique 1
manoir 1
perpétu@@ 1
62 0.6536699652119129
éclat@@ 1
adoption 1
Croatie 1
Mik@@ 1
remarquables 1
Hir@@ 0.9270537386318861
choisir 1
gan@@ 0.790438969581093
scand@@ 1
étain 1
séquences 1
réformes 1
plateforme 1
australien 1
phones 1
séqu@@ 1
MS 0.7904667165951104
gi 1
bar 0.29364993098440745
Améric@@ 1
ométrie 1
passa 1
Hé@@ 1
rêve 1
professeurs 1
administratives 1
Fol@@ 0.7930441704413843
London 0.13068814853080202
refuge 1
archie 1
exposé 1
soldat 1
sculptures 1
In 0.010008920750775502
vents 1
aranéomorphes 1
réception 1
plong@@ 1
Championship 0.2248599430888945
attitude 1
gen 0.32669393651674
quelle 1
hong@@ 1
construc@@ 1
Live 0.562036865447302
9,@@ 1
ator 0.15142754916263995
poisson 1
restera 1
renvers@@ 1
jugé 1
cellule 1
subsist@@ 1
Hum@@ 0.9226664419330904
accorde 1
rit@@ 0.8505105720892628
morale 1
Avignon 1
bol@@ 0.7218775960686139
garçons 1
déclench@@ 1
tib@@ 1
UN@@ 0.7393963138102687
chés 1
gne 1
amène 1
chet 1
imb@@ 1
ons@@ 0.4305616540713547
orph@@ 1
révélé 1
Beaux 1
vou@@ 1
agon@@ 1
bombar@@ 1
intégrée 1
São 1
récupérer 1
chambres 1
eck 0.522748409249608
Vladimir 1
algorith@@ 1
put@@ 1
éponyme 1
ections 1
magasin 1
produc@@ 1
District 0.14700162164516978
graves 1
Explorer 1
ectives 1
Taylor 0.6093375689931041
infrastructures 1
inscrite 1
partenaires 1
120 0.6599261607908683
iger 0.4507205536541733
maqu@@ 1
Porto 1
dixième 1
Jacob 1
domine 1
pratiquement 1
roy 1
UCI 1
tric@@ 1
grève 1
occupant 1
Bus@@ 0.6307674385741017
Tim@@ 0.8495844652656956
compatri@@ 1
échoue 1
arbus@@ 1
61 0.7184238045792195
Gh@@ 1
Blue 0.4967913976169514
profondément 1
Alli@@ 1
cus 1
particularité 1
monts 1
synthé@@ 1
Bonn@@ 1
Kim 0.6782918309073799
Venezuela 0.8184502819171849
essence 1
1888 0.7478639415322389
VIII 1
vols 1
Ori@@ 1
Toujours 1
influencé 1
Cir@@ 1
éten@@ 1
250 0.6195659701079491
remportée 1
Lat@@ 0.7485538597654298
connait 1
cau@@ 1
kg 0.6899684275904228
kov 1
éter 1
architectes 1
ié 1
districts 0.8578644333395341
onnent 1
tières 1
sombre 1
1882 0.8332152589573331
enberg 0.6022436708013531
actuels 1
espi@@ 1
Kn@@ 0.531643689700811
13,@@ 1
aigu@@ 1
imag@@ 1
autocht@@ 1
Tran@@ 0.890921968636505
Real 0.48260569890183136
germanique 1
augment@@ 1
communautaire 1
éteint 1
arriver 1
reliefs 1
affronter 1
opposant 1
Hélène 1
Turin 1
couramment 1
RT@@ 1
glob@@ 1
évalu@@ 1
din 1
distinguer 1
tournées 1
1891 0.7180906567116817
gouvernements 1
fisc@@ 1
talent 1
beauté 1
créd@@ 1
entreprend 1
trace 1
Me 0.47390572483746474
eil 1
Nan@@ 1
érieurement 1
CH@@ 0.9839608992815896
enant 1
majeurs 1
ude 1
59 0.6821030548990051
PC@@ 1
dames 1
Charente 1
IC 1
report@@ 1
Gustave 1
observant 1
recue@@ 1
trophée 1
prisonnier 1
Philadelphie 1
policiers 1
évènements 1
Mod@@ 1
dol@@ 1
ètent 1
erre 1
inement 1
industrielles 1
détruire 1
décal@@ 1
Série 1
pandémie 1
design 0.2398740410544352
armé 1
abr@@ 1
1884 0.7931717502148276
ignor@@ 1
Moul@@ 1
eti@@ 0.7387664938546472
chaî@@ 1
cohér@@ 1
abol@@ 1
refusé 1
renommé 1
alis 0.7158690399974192
preuves 1
agement 1
eure 1
sex@@ 1
Long 0.48979150406882715
63 0.6728605900543592
ativement 1
inscr@@ 1
dévelop@@ 1
décid@@ 1
obligatoire 1
Cité 1
régé 1
rassemble 1
ticul@@ 1
Alb@@ 1
Bes@@ 0.9502287998403474
impérial 1
oto 0.8279459972023853
agran@@ 1
Gon@@ 1
frappe 1
IS@@ 0.6420520091469795
enseignant 1
déclen@@ 1
passion 1
manifeste 1
1000 0.4823029152288271
Aires 0.6481971388876833
exprimés 1
refus 1
règlement 1
augmenté 1
sentiment 1
Ast@@ 1
God@@ 1
Ath@@ 1
particules 1
précéd@@ 1
dist@@ 0.8898090426798356
fini 1
Bourbon 1
cinématographique 1
médiévale 1
Jérôme 1
mono@@ 1
pic 1
Cuba 1
consid@@ 1
explosion 1
acheté 1
pris@@ 1
éal 1
gel@@ 0.24316654220285308
Pod@@ 1
ayer 1
ieu 1
ader 0.886996090253152
Activités 1
brièvement 1
ution 1
Champ@@ 1
rus@@ 1
66 0.6495560845415653
Lieux 1
Porte 1
Bulgarie 1
contribution 1
Donald 1
avant@@ 1
dieux 1
Ot@@ 0.9327398433887222
isons 1
centrales 1
int 1
eng 0.6566795117397234
ition 1
procureur 1
hésion 1
propul@@ 1
alentours 1
modeste 1
têtes 1
Green 0.39656415048497873
inom@@ 1
aid@@ 1
fidèle 1
ouvertes 1
University 0.05296549867560843
Bul@@ 0.8150970764564898
couches 1
undi 1
fiées 1
résidences 1
illère 1
manipul@@ 1
remarque 1
invit@@ 1
signi@@ 1
Film 0.16642105635883386
Amiens 1
produ@@ 1
facile 1
sûr 1
heureusement 1
élique 1
christianisme 1
bouddh@@ 1
iries 1
mariée 1
lob@@ 0.8331492511009839
mp@@ 1
Madame 1
osp@@ 1
sexuelle 1
Sing@@ 1
dissolution 1
Cannes 1
participant 1
malade 1
briques 1
parisien 1
orie 1
Nav@@ 1
laine 1
radio@@ 1
pontific@@ 1
argent@@ 1
Stephen 0.6871985653915479
Angers 1
inaugurée 1
alcool 1
envoyer 1
Flandre 1
vérit@@ 1
Fe@@ 0.47252158259411026
balle 1
lourds 1
ît 1
Oscar 1
Franz 0.597693546298284
essa@@ 1
dérivé 1
clergé 1
Vallée 1
lige 1
pyr@@ 1
définir 1
détr@@ 1
rives 1
colonisation 1
Fiat 1
Vis@@ 0.8117002897182043
affrontent 1
Arch@@ 0.9211410483645887
Institute 0.24239661194430528
jugement 1
traditionnels 1
repouss@@ 1
agés 1
aste 1
causes 1
rebelles 1
Vér@@ 1
venait 1
Che@@ 1
énerg@@ 1
motiv@@ 1
musiques 1
souligne 1
bo 0.9402443474055796
implic@@ 1
triques 1
commerciaux 1
urie 1
régulier 1
abords 1
déménage 1
Mohamed 1
BBC 0.458581570894209
ung@@ 0.2543087565364385
grandit 1
Nam 0.3317236526066576
antenne 1
chômage 1
Hou@@ 1
way 0.1008259560357592
ascension 1
fid@@ 1
spécialistes 1
paroisses 1
indu@@ 1
tionnaires 1
Enseignement 1
incl@@ 1
67 0.6835109839155099
titr@@ 1
veur 1
ón 0.16780485558393846
cylin@@ 1
Sénégal 1
maj@@ 1
quotidi@@ 1
Emp@@ 1
Francesco 1
Valence 1
rural 0.4793832053782923
onal 0.5628712200207686
dénon@@ 1
entendre 1
1887 0.7552006948725315
conç@@ 1
mathémati@@ 1
marchand 1
littoral 1
ick@@ 0.3215844412347928
volley 1
travail@@ 1
cie 1
Phil@@ 0.9690793838612558
River 0.13370902592735864
icon@@ 1
ando 0.1020913611936086
cyclisme 1
etto 1
geois 1
progress@@ 1
tâche 1
chin@@ 1
jé@@ 1
RI@@ 1
ke@@ 0.3990008432659843
ènent 1
rance 1
faune 1
contrôler 1
témoigne 1
Orchestre 1
ath 0.400542079171728
aint 1
dépasse 1
Brian 0.770447358938034
Pennsylvanie 1
Gaulle 1
pluie 1
† 0.19095628048299343
Concours 1
Gaston 1
Tibet 1
Pir@@ 0.966882638648923
Leg@@ 0.6774558945024226
gue@@ 1
princip@@ 1
from@@ 1
tables 1
constru@@ 1
coloniale 1
accepter 1
eva 1
racines 1
armement 1
Sz@@ 1
Face 1
richesse 1
pourra 1
fief 1
impulsion 1
Jim 0.6785784197650457
combattants 1
Orange 1
golfe 1
ancée 1
météor@@ 1
monarchie 1
rand@@ 1
consacrer 1
psychi@@ 1
Vall@@ 1
prussi@@ 1
médicale 1
curité 1
Hollande 1
oa 0.7917318555672768
profonde 1
Wilhelm 0.4341930522865619
héré@@ 1
1875 0.8355451181841428
ombe 1
placés 1
décida 1
humides 1
aments 1
anal@@ 1
disparaît 1
Augustin 1
Kas@@ 0.5177892138565902
assurée 1
qualifier 1
suspen@@ 1
élimination 1
foyer 1
auxquels 1
nage 1
suppression 1
mier 1
socialistes 1
Caen 1
continuent 1
rejo@@ 1
reconnaître 1
exploitations 1
Leurs 1
anz@@ 0.39899208586977686
dier 1
dame 1
Lec@@ 1
resp@@ 0.7637115937430552
iki 0.4566020499176392
Pedro 0.5368855587275039
well 0.057090220815542714
Profes@@ 1
Ry@@ 1
essor 1
montrant 1
cryp@@ 1
dra@@ 1
gend@@ 1
Wall@@ 0.9740580563882145
cra@@ 1
protégé 1
ône 1
modification 1
écoslov@@ 1
Musique 1
ces@@ 1
Ball@@ 0.7174798428401087
Villa 0.7122353444282312
My 0.42189033064837483
Wide 1
réellement 1
élevés 1
sement 1
péd@@ 1
Brunswick 1
douce 1
hir 1
tem@@ 0.7727664075876064
allié 1
appelées 1
FM 0.5340785801504
commandé 1
lutter 1
êts 1
retard 1
Mort 1
assassiné 1
ept@@ 1
nik 1
sang@@ 1
maine 1
effort 0.731459518522235
occupent 1
variante 1
désert 1
onnet 1
alle 0.22737128772920281
Bén@@ 1
rate 0.3890036224014985
adi 0.9833497952787636
baccalauréat 1
invités 1
moine 1
OS 0.7660405255892969
sommets 1
Vieux 1
fans 0.7672395168245816
francophone 1
joints 1
acheter 1
Sain@@ 1
débuté 1
hypoth@@ 1
récente 1
Andrew 0.5901412445714924
allong@@ 1
commis 1
magasins 1
désir 1
prêté 1
périodi@@ 1
exécu@@ 1
séminaire 1
externe 1
achève 1
cend@@ 1
larges 1
musicales 1
baroque 1
ajouté 1
Sub@@ 0.37255571514274977
parviennent 1
1863 0.7985183741266887
rappro@@ 1
Jane 0.9621732738669208
East 0.1640801109490466
samedi 1
spec@@ 0.9258681574259215
doctrine 1
Fontaine 1
Ivan 1
oud 1
hospitali@@ 1
Sept 1
sauvage 1
Buenos 0.6143703690167522
défaut 1
continentale 1
urn@@ 1
Océ@@ 1
Yougoslavie 1
édifices 1
œuf 1
parent 1
accède 1
protoc@@ 1
inclu@@ 1
pianiste 1
marquant 1
aineté 1
ille@@ 1
zéro 1
controver@@ 1
entrées 1
pénétr@@ 1
servent 1
carre@@ 1
Occident 1
renvoy@@ 1
88 0.6832070727654139
eant 1
Dijon 1
los@@ 0.807367894579174
1883 0.8008986673113827
dir 0.5982572997379951
ouve 1
apie 1
reçoivent 1
AT@@ 0.7139778676391969
Philippines 0.7762410744524869
passages 1
élarg@@ 1
achevée 1
vra@@ 1
AM@@ 0.8754781768941381
Hambourg 1
emplois 1
Lady 0.5916694170347165
absol@@ 1
registre 1
réd@@ 1
dal@@ 1
Mam@@ 1
otiques 1
Catalogne 1
ago 0.49484674548087854
1868 0.8174813434162498
foule 1
entend 1
Ohio 0.42747059795960884
inclin@@ 1
ZNIEFF 1
Sarah 0.9654995951430817
crat@@ 1
rénov@@ 1
sucre 1
Fem@@ 1
Central 0.19677563704756842
hausse 1
tensions 1
détient 1
heureux 1
j&apos; 1
iments 1
vo 0.6573874203458997
Alan 0.8755121692372808
nombr@@ 1
itude 1
Forces 0.9122396980170059
stratégi@@ 1
Liber@@ 0.9634596605307543
fosse 1
traditionnelles 1
niques 1
suggère 1
tribun@@ 1
oirs 1
particu@@ 1
inéd@@ 1
cuir@@ 1
fruit 1
berger 0.6675435933304803
Douglas 0.764936719196387
ATP 1
blanches 1
emploie 1
référendum 1
rit 1
fonc@@ 1
métropolitaine 1
métiers 1
Stéphane 1
trentaine 1
singles 0.5566767162076033
effond@@ 1
usement 1
fonctionnaires 1
réfugi@@ 1
assuré 1
eine 0.02130811965356392
compag@@ 1
etée 1
laiss@@ 1
merie 1
yp@@ 0.8491066710148508
Britannique 1
rotation 1
Dum@@ 1
SN@@ 1
cord@@ 1
positif 1
impér@@ 1
théories 1
Anci@@ 1
comparaison 1
parcs 1
menant 1
yen 1
turc 1
Ach@@ 0.9436997848451925
ular@@ 1
1872 0.8248051471620648
Vir@@ 0.9255077825038712
signer 1
Anthony 0.7839797036685894
iy@@ 0.6179125307985801
traditionnellement 1
onnes 1
Ville@@ 1
suicide 1
kl@@ 0.3134114203457171
Commune 1
alter@@ 0.8856120561489258
Chel@@ 1
violon@@ 1
Beaucoup 1
chargés 1
conversion 1
Brun@@ 1
Ober@@ 0.1782420657956114
abri 1
policier 1
1815 1
Manchester 0.666169087421523
quasiment 1
compor@@ 1
ope 1
dommages 1
mar 0.5362186087001108
enrich@@ 1
teuse 1
conservée 1
constituant 1
Johnny 1
limiter 1
metteur 1
comprom@@ 1
oll@@ 0.6805713551119282
Š@@ 0.9544819844708328
herbac@@ 1
Nou@@ 1
Pad@@ 1
puis@@ 1
sportifs 1
transforme 1
étendre 1
vacances 1
conçue 1
habilit@@ 1
dessinateur 1
berge 1
asses 1
réput@@ 1
ín 0.4062427305652812
umi@@ 1
interview 0.7042029553256609
tante 1
perc@@ 1
originaires 1
low 0.17200656747685963
Cambridge 0.6613710541080888
Pass@@ 1
ouvrier 1
ś@@ 1
excl@@ 1
couvrant 1
Reich 0.9719817029522239
salariés 1
voûte 1
deau 1
habitation 1
CC@@ 1
typi@@ 1
démonstr@@ 1
retenu 1
joueuse 1
vacc@@ 1
Aussi 1
routier 1
74 0.6755413824290267
clame 1
réuss@@ 1
issance 1
priv@@ 0.7729444893702777
Hugues 1
1877 0.7984836319341281
gag@@ 1
masculine 1
Costa 0.7536677981553913
handball 1
Voici 1
indice 1
Maître 1
avancée 1
Lublin 1
provinci@@ 1
enger 1
oui 1
bit@@ 0.6374968849886125
commen@@ 1
spéciales 1
Monte 1
progression 1
prime 1
enregistrements 1
issements 1
art. 1
Euro 0.6850237898918092
remani@@ 1
coûts 1
vallées 1
Esc@@ 1
ista 0.2577152728761193
Bible 1
astronome 1
1865 0.7531456993329063
restr@@ 1
ordonnance 1
ess 0.1711613310008341
mourir 1
venti@@ 1
more 0.041170024090100926
pend@@ 1
ory 0.28063527882983175
Lucien 1
torpil@@ 1
Lap@@ 1
Département 1
couv@@ 1
Nouv@@ 1
téléfilm 1
1861 0.7395528692354769
canadi@@ 1
ciens 1
feux 1
appropri@@ 1
immun@@ 1
maternelle 1
immense 1
Camille 1
politi@@ 1
plaques 1
Thérèse 1
pédago@@ 1
Indonésie 1
arché@@ 1
atrices 1
enfer@@ 1
protéines 1
inae 1
ple 1
neux 1
équation 1
précis 1
mad@@ 0.8373954364192688
Manche 1
patronyme 1
Sib@@ 1
rum@@ 1
set 0.11144348384746465
Vé@@ 1
assurance 1
internes 1
perdent 1
apparitions 1
Mess@@ 0.9858796714214342
Patr@@ 1
Cath@@ 1
Sho@@ 0.6920687946830723
Hay@@ 0.7037398876014099
Kab@@ 1
apparait 1
adhér@@ 1
révé@@ 1
coopér@@ 1
suc@@ 1
ensembles 1
satellites 1
chapit@@ 1
avoc@@ 1
anth@@ 1
belles 1
plaç@@ 1
session 0.9198675902054376
Bog@@ 1
Confédération 1
1873 0.7878943403666491
rendant 1
1864 0.7289321895614543
Sam 0.7523963751518213
observé 1
up 0.04216966171186475
Olympique 1
attein@@ 1
suspension 1
Actu@@ 1
quait 1
modes 1
libr@@ 1
èches 1
calcaire 1
olithique 1
Haï@@ 1
circonstances 1
comportant 1
consol@@ 1
Comte 1
Ligne 1
entrent 1
caractérisant 1
déploy@@ 1
faibl@@ 1
euil 1
1874 0.7945185333240083
saire 1
obtint 1
Ash@@ 0.6009816725703977
attire 1
clés 1
Entertainment 0.5666857975578622
gallo 1
Dam@@ 0.6483295353734569
Cé@@ 1
autr@@ 1
chronique 1
barre 1
phénomènes 1
mini@@ 1
inaire 1
échang@@ 1
onnant 1
FA 0.5646434549560352
astique 1
DJ 1
parfaitement 1
appartement 1
name 0.06784815640191745
tari@@ 1
Series 0.3682749615254867
plu@@ 1
jud@@ 1
install@@ 1
Résistance 1
palé@@ 1
faciliter 1
observe 1
ectifs 1
qualifications 1
Toulon 1
èg@@ 1
Liban 1
primer 0.19729357510423878
ambassade 1
hau@@ 1
èce 1
spécialement 1
Zurich 1
traj@@ 1
bombard@@ 1
Burkina 1
idence 1
Agriculture 1
campus 0.5650428090703832
collines 1
Pourtant 1
assistance 1
francophones 1
accepté 1
incident 0.9077273344635752
communs 1
apparu 1
live 0.22106829849438667
athlètes 1
charg@@ 1
dates 0.7482654978347181
1879 0.7504725911734917
compétence 1
suédo@@ 1
appuie 1
Didier 1
Ans 1
stockage 1
condi@@ 1
Massachusetts 0.4807234701826716
Jeune 1
pist@@ 1
consci@@ 1
remet 1
anthro@@ 1
loy@@ 1
Roy@@ 1
violon 1
rectang@@ 1
préal@@ 1
endrait 1
uma 0.9134940706854985
ili 0.9645260938081328
dossier 1
arche 1
permettait 1
1792 1
rang@@ 1
unions 1
mic@@ 1
civilisation 1
rapides 1
astre 1
biologique 1
variantes 1
HMS 1
ben 0.3062241745015587
ceci 1
rayon 1
évoluer 1
agricul@@ 1
tenté 1
valor@@ 1
détail 1
heur 1
cheurs 1
Rav@@ 1
répression 1
oration 1
favorables 1
esthétique 1
fall@@ 0.7909828669047695
ays 0.2542641823641037
volant 1
confes@@ 1
gion 1
scolaires 1
icale 1
propositions 1
WISE 1
gs 0.5898000059845877
Poitiers 1
atori@@ 1
dynam@@ 1
veau 1
92 0.6870254177507706
créateur 1
typique 1
confon@@ 1
yo 0.8497070594649675
pair 0.7410888566257305
chars 1
drame 1
fenêtre 1
pid@@ 1
uc 1
considèrent 1
convoi 1
humor@@ 1
Lake 0.2422113410928123
Faso 1
atie 1
remettre 1
rattaché 1
conduire 1
révol@@ 1
prête 1
autrichien 1
ula 0.6555538728496504
posé 1
qualifiés 1
Vend@@ 1
comprise 1
perman@@ 1
CD@@ 1
apprendre 1
77 0.6728560022622964
envoyés 1
sap@@ 1
Roch@@ 1
préserver 1
Infrared 1
assimil@@ 1
Aub@@ 1
Roche 1
bic@@ 1
clar@@ 1
devoir 1
Constantin 1
èze 1
Arizona 0.6714714756285552
atteinte 1
créées 1
ouvrant 1
1862 0.7366885163955056
déser@@ 1
maires 1
Corporation 0.46083024434234815
corruption 1
placer 1
emporte 1
igues 1
dige 1
Lune 1
Mous@@ 1
Wi@@ 0.6405225564083126
76 0.6217410885808039
intercommun@@ 1
collecte 1
phys@@ 0.9700705493623077
démarche 1
Syn@@ 0.8404319106318443
ho 1
tempête 1
aidé 1
générations 1
Pil@@ 0.7252705152338492
eto 0.5556226402616073
puissante 1
agan 1
FF@@ 1
intéres@@ 1
préfér@@ 1
accomp@@ 1
fantas@@ 1
accue@@ 1
gérer 1
charte 1
massacre 1
breton 1
appellent 1
brésilien 1
retiré 1
sens@@ 1
spir@@ 1
Sw@@ 0.48351642255010563
nucléaires 1
bourgeois 1
voisines 1
ottoman 1
chlor@@ 1
adh@@ 1
poud@@ 1
Alexis 1
resta 1
camar@@ 1
géré 1
chaud 1
identifier 1
témoignage 1
dur 1
séquence 1
suffis@@ 1
Win@@ 0.524052984446125
nomin@@ 1
actuelles 1
intern@@ 1
chaire 1
géant 1
enz@@ 0.29644562745853364
lon 1
témoin 1
pun@@ 0.6406352171012554
judici@@ 1
tâ@@ 1
visu@@ 1
revendi@@ 1
ologne 1
éner@@ 1
uts 1
participa 1
ings 0.10825226097357224
firent 1
CS@@ 0.9558822126242462
raine 1
America 0.17579664753882834
professionnelles 1
psychologie 1
Abraham 1
robe 1
Belle 1
irland@@ 1
Sup@@ 0.8721320683246655
influences 1
micro 1
73 0.6748138040033731
GT 1
crimes 1
fron@@ 1
métrique 1
permanent 0.7478524437554468
esser 1
desc@@ 1
fossiles 1
générique 1
‘ 0.2898704445467093
crue 1
vélo 1
aux@@ 1
gram@@ 1
ity 0.07619430688165806
âne 1
extérieure 1
mystéri@@ 1
nez 1
amin@@ 1
Îles 1
oun 1
1869 0.8120362259314794
ó 0.05192296045260336
amme 1
taxe 1
coff@@ 1
AL@@ 0.818081857891631
1,5 1
seuil 1
héberg@@ 1
partielle 1
tenait 1
Mér@@ 1
hélicop@@ 1
inn@@ 0.42959419836233986
aisie 1
quotidienne 1
actualité 1
vê@@ 1
march@@ 1
devenus 1
hip@@ 1
dégâts 1
Action 1
Meuse 1
oxyde 1
batteur 1
guée 1
1800 0.9481040007056273
recettes 1
apporter 1
mécanisme 1
clandest@@ 1
localités 1
Kevin 0.8734385407218402
puissances 1
ondre 1
bill@@ 1
Ig@@ 1
contreb@@ 1
entiel 1
idents 1
repê@@ 1
cadres 1
comptant 1
Van@@ 1
batailles 1
habitant 1
ologiste 1
attente 1
ster@@ 0.35679204464443764
inconnue 1
gre@@ 0.811678009259641
exercer 1
oncé 1
ravit@@ 1
aveur 1
rival@@ 1
destinées 1
simpli@@ 1
clô@@ 1
résol@@ 1
formés 1
plaf@@ 1
Lanc@@ 1
sant 1
circuits 1
AP 0.854314221001266
lements 1
lingu@@ 1
tentent 1
anien 1
ash 0.5501068567130915
Somme 1
finition 1
symp@@ 1
ú@@ 0.510197251008039
Péri@@ 1
ce@@ 0.4838152417729295
Sant@@ 1
réus@@ 1
vitesses 1
acul@@ 1
juridiction 1
cheveux 1
profes@@ 1
astronomie 1
préside 1
marqués 1
camp@@ 1
fonte 1
délégué 1
ost 0.58807714648123
poser 1
Khan 0.667384505747133
acces@@ 1
éliminé 1
rentrer 1
traiter 1
siers 1
ER@@ 0.8829410360290824
Réunion 1
tirage 1
Mathieu 1
fonder 1
ponctu@@ 1
Là 1
chement 1
kov@@ 1
géographie 1
onna 1
matern@@ 1
symbolique 1
acité 1
clinique 1
administratifs 1
inspecteur 1
optères 1
officielles 1
défil@@ 1
fiscalité 1
manga 1
blocs 1
experts 1
kin@@ 0.7783111658959897
fa 1
Premi@@ 1
désignation 1
inj@@ 1
phrase 1
Hollywood 0.652156240928774
brésilienne 1
ric@@ 1
décoré 1
doux 1
botanique 1
levée 1
Fé@@ 1
Earth 0.510055772615149
ă@@ 0.8402856886731657
sportives 1
Paulo 1
préfé@@ 1
ciné@@ 1
visit@@ 1
prépare 1
danois 1
gis@@ 1
ADN 1
Cop@@ 0.6783811703580678
continuité 1
Leb@@ 0.9292092823065675
rette 1
princes 1
surfaces 1
69 0.6421964278335869
attribuée 1
sauvet@@ 1
• 0.7898807487030131
noires 1
elin 1
tionné 1
Viêt 1
suis 1
Wa@@ 0.7100930436898415
² 0.13970609265115863
descendant 1
put 0.28017214024521153
Plan 0.852170432969591
dut 1
erre@@ 1
volon@@ 1
Express 0.870193089517911
décroche 1
quête 1
concile 1
Hi@@ 0.7744835931698485
fabrique 1
logiciels 1
propagande 1
lov@@ 1
résoudre 1
gea 1
ska 1
saints 1
vidéos 1
marquer 1
hôte 1
combinaison 1
mythologie 1
Shi@@ 0.6655272639452458
1851 1
autrichienne 1
habite 1
épaisseur 1
Vig@@ 1
remont@@ 1
.com 0.6079121910535941
organe 1
remplacés 1
I. 0.2944664822033787
matériau 1
Française 1
consul 1
tit@@ 1
audience 0.7171378610749832
collègues 1
approximativement 1
obligation 1
réussite 1
théorème 1
DF 1
diversi@@ 1
rel 1
souris 1
Châ@@ 1
extraordin@@ 1
fri@@ 0.7279714502994782
mineur 1
Din@@ 0.8530867629391996
ry@@ 1
mondiaux 1
redécoupage 1
islam 1
Aéro@@ 1
styl@@ 1
alphabet 1
influenc@@ 1
innov@@ 1
supérieurs 1
addi@@ 1
aisons 1
plomb 1
No 0.23325201952862468
disputer 1
illent 1
faisaient 1
Lév@@ 1
trio 1
disposent 1
Francfort 1
dépendant 1
individuelles 1
demeur@@ 1
guère 1
inconnu 1
photographies 1
ast 0.3306521807140231
Ministre 1
fur@@ 0.6849319822495977
mortal@@ 1
proprement 1
vainqueurs 1
anticip@@ 1
orientales 1
tain 1
tome 1
78 0.6420133609631813
tho@@ 1
vaisseaux 1
ng@@ 0.40759956098456046
ministéri@@ 1
ecte 1
arrêtés 1
state 0.07676701155503655
Duch@@ 1
hier 0.3160744100464306
équipée 1
Cœur 1
primaires 1
attesté 1
écarts 1
Équ@@ 1
bier 1
profil 1
Claire 1
Occidentale 1
vedette 1
distances 1
89 0.7129194149129461
voi 1
onnerie 1
fleur 1
bâti 1
ïque 1
87 0.6893240947067575
chent 1
applique 1
dépression 1
éman@@ 1
Las 0.1425854814567047
inus 0.994476356466712
Léopold 1
Cit@@ 1
adaptée 1
thermique 1
isait 1
Anderson 0.712409392371729
lecteur 1
jouée 1
guide 1
AM 0.676570710940106
bag@@ 1
ombre 1
parlementaires 1
Stan@@ 1
15,@@ 1
adoptée 1
écrites 1
eli@@ 0.6271763652992373
familial 1
Ass@@ 1
sister 0.3974863557112996
étendant 1
accueil@@ 1
kan@@ 0.5062834528569852
ters 0.19420683717962162
High 0.1498946032963327
Tunis 1
ack 0.43621141926299967
mel@@ 0.3228199494307528
prototype 1
Macédoine 1
permit 1
ront 1
sson 0.9240288672734361
descend 1
schéma 1
Mach@@ 0.9142643922194721
Ob@@ 0.7727405581724924
collectivités 1
Noire 1
affron@@ 1
Fau@@ 1
paraître 1
Hydrographie 1
PS@@ 1
Bag@@ 1
dépendance 1
nait 1
Arm@@ 1
désin@@ 1
rall@@ 1
Réseau 1
MC 1
Chron@@ 1
considérer 1
émiques 1
effectifs 1
Fur@@ 1
ONU 1
équivalente 1
S.@@ 0.7166448243908674
anga 0.8673814254311977
répond@@ 1
territoriales 1
1801 1
immeubles 1
Hur@@ 0.6684277928641962
84 0.640401557265663
copie 1
mineures 1
Fri@@ 0.820542372783102
Siège 1
culminant 1
eilles 1
71 0.6193390484571102
Life 0.25975471995916466
Boulogne 1
bot@@ 0.5350859006330783
Franco 1
nouv@@ 1
roise 1
Entr@@ 1
nu 1
oriental 1
Otto 0.5717278298196411
semblable 1
aumes 1
Reine 1
utilisateur 1
ski@@ 1
chantiers 1
Indes 1
Arménie 1
Limoges 1
Kom@@ 0.3816770375714572
pain 1
Pakistan 0.506999825903765
accident@@ 1
Eurovision 1
Billboard 0.42287801334806335
présidents 1
recueil@@ 1
Budapest 1
engagée 1
1855 0.9331660138518503
Castel@@ 1
hydrogène 1
Occitanie 1
Rot@@ 0.5207771982778951
tex@@ 1
Cher 1
prononcé 1
not 0.022711639761553305
observer 1
onnaire 1
Aus@@ 0.13171122872974605
êt 1
Stanley 0.9319564496279126
comtesse 1
ampe 1
interprétée 1
parach@@ 1
perd@@ 1
Dic@@ 1
Aragon 1
remon@@ 1
è 1
Revue 1
Stockholm 1
arbitr@@ 1
Ferrari 1
arrestation 1
cé 1
étroite 1
paire 1
Tin@@ 1
tiennes 1
ulus 1
Anjou 1
tube 1
Gra@@ 1
aure 1
dien 1
93 0.6634064186448313
Cologne 1
Howard 0.6604091127605388
Initi@@ 1
Nag@@ 0.665407684394368
capables 1
dou 1
Academy 0.2198497429931694
che@@ 0.5740130382389327
cum@@ 1
québéco@@ 1
ingéni@@ 1
passes 0.8081527470793151
rejoignent 1
ebo@@ 1
Arc@@ 1
Ray 0.7499275120349541
atterr@@ 1
châs@@ 1
Maritime 1
volution 1
inscriptions 1
tirent 1
T. 0.5809970223483034
agi@@ 1
1859 0.7967850731974521
terrestres 1
protégée 1
saires 1
coréen 1
vendredi 1
Giuseppe 1
cep@@ 1
modifier 1
hydrographique 1
impliqué 1
porteur 1
Province 0.3784836696148839
adress@@ 1
Missouri 0.6160452512154414
missiles 1
Ép@@ 1
romanci@@ 1
lis@@ 1
portug@@ 1
Met@@ 0.572003296533075
ão 0.9955948827960539
roches 1
transformer 1
oxygène 1
ulaires 1
86 0.6498250197231388
éme@@ 1
Star@@ 0.5564881333587739
1814 1
Ivoire 1
préfère 1
vraisemblablement 1
vé 1
Origines 1
définitive 1
ě@@ 1
Camb@@ 1
législature 1
rév@@ 1
volontaire 1
Espagn@@ 1
pig@@ 1
82 0.6438331827387743
activement 1
chants 1
enquê@@ 1
Pet@@ 0.8744954163098525
aie 1
intervenir 1
récentes 1
ott@@ 1
entraîné 1
Bonaparte 1
byzant@@ 1
édant 1
dents 1
feuill@@ 1
vén@@ 1
éliminer 1
gère 1
âteaux 1
énorme 1
Puy 1
gienne 1
juridi@@ 1
Petr@@ 0.9497238829943854
Statisti@@ 1
tz 0.9471192956750423
autorisé 1
registr@@ 1
Christine 1
conservés 1
éth@@ 1
abb@@ 1
Tos@@ 1
agues 1
dépenses 1
Blo@@ 1
96 0.6056869297551228
ague 1
chercheur 1
Chab@@ 1
perturb@@ 1
fiquement 1
produisant 1
communément 1
épousé 1
Taï@@ 1
ecclésiastique 1
Ki@@ 0.563760481642589
résulte 1
Heinrich 0.41461379940458837
amas 1
graines 1
urbains 1
brill@@ 1
épid@@ 1
africains 1
attentat 1
jaun@@ 1
bru@@ 1
dons 1
Franche 1
autobi@@ 1
téléphone 1
usi@@ 0.8090617036287545
Tib@@ 1
Fox 0.5399384744362028
classées 1
vouloir 1
érigé 1
éma 1
patern@@ 1
athlon 1
chal@@ 1
99 0.5765764959239082
spéc@@ 1
règ@@ 1
çait 1
moyennes 1
sensiblement 1
alco@@ 1
Mic@@ 1
State 0.08235955244205558
apostolique 1
croit 1
assass@@ 1
bleue 1
records 0.431748954686205
stable 1
81 0.6428000530657973
gène 1
Madagascar 1
convaincre 1
aveug@@ 1
ourt 1
itions 1
horiz@@ 1
turque 1
syri@@ 1
nér@@ 1
comtes 1
représentés 1
éron 1
tionnelles 1
triple 1
Rich@@ 1
Équi@@ 1
Hubert 1
intelligence 0.9489871536470443
ust 0.43838268911940187
Coul@@ 1
biologie 1
jet@@ 1
ographi@@ 1
municipaux 1
Mill@@ 0.9408396981912964
susp@@ 1
dir@@ 0.8436994335910802
poursuiv@@ 1
réactions 1
défend@@ 1
ordinaire 1
affec@@ 1
10,@@ 1
Miami 0.7029031764579567
itan 1
Nat@@ 1
exactement 1
Isère 1
radical 1
asa 0.6462821236823895
entend@@ 1
levé 1
Big@@ 1
aut@@ 0.7116044791890672
diction 1
old 0.10561060531612955
festivals 1
commandée 1
AI@@ 0.8177392787666252
remplac@@ 1
tor 0.21231808115943632
Ev@@ 0.7875777482477763
fixé 1
congrégation 1
Grégoire 1
épée 1
Cru@@ 0.9914609411251286
nul@@ 1
Lot@@ 1
partent 1
Aucun 1
témoignages 1
confir@@ 1
Castille 1
indiquent 1
manie 1
aro@@ 1
espagnols 1
examin@@ 1
} 0.6238045267889215
piliers 1
trouvant 1
acha 1
restitu@@ 1
contiennent 1
Prot@@ 0.46507069144578533
dotée 1
cardiaque 1
ason 1
favoriser 1
expul@@ 1
aussitôt 1
Rugby 0.7017199840311119
prostitu@@ 1
Baz@@ 1
taine 1
opérateur 1
universel 1
Azerbaïdjan 1
sensible 1
enti 1
lap@@ 1
sympath@@ 1
proven@@ 1
incline 1
maintient 1
révolutionnaires 1
veurs 1
chage 1
phin 1
arbitre 1
fonctionne 1
diplomatique 1
volcan@@ 1
pollution 1
fortifications 1
queur 1
Bon 1
Proj@@ 1
Tré@@ 1
ottom@@ 1
malades 1
Sun 0.4888817352855264
Cord@@ 1
entité 1
effic@@ 1
van@@ 1
eines 0.0986367985371086
réputé 1
identifié 1
tille 1
bec 1
Belgrade 1
Villeneuve 1
endaire 1
paroissiale 1
sécur@@ 1
Div@@ 0.7007240088101218
constatés 1
libérer 1
Navarre 1
Bains 1
finaliste 1
Bad@@ 0.5961931111344114
onales 1
envah@@ 1
mond 1
réservé 1
déclin@@ 1
sanc@@ 1
courir 1
froide 1
Michigan 0.39679897758819854
cède 1
01 0.6595058683707259
pauvreté 1
multipli@@ 1
résult@@ 1
Conférence 1
pent@@ 1
Midi 1
tir@@ 0.8279750420293529
ker@@ 0.40289027357643853
coéquipier 1
Grands 1
Kit@@ 0.7925239875710579
hr@@ 0.45192131203988456
installent 1
feld 0.379830676598766
peuplée 1
voulu 1
menés 1
Science 0.3112173946078955
bordure 1
croire 1
incarne 1
ignac 1
concep@@ 1
fug@@ 1
éraire 1
Laz@@ 1
animé 1
cérémon@@ 1
ein 0.01714743727858139
bel 0.877700357356862
carburant 1
islam@@ 1
buteur 1
instance 1
jal@@ 1
acous@@ 1
extraction 1
iko 0.874681696201211
prière 1
2,5 1
Laf@@ 1
datent 1
Sorbonne 1
enseignants 1
lich@@ 0.7185606592166861
quittent 1
musicaux 1
seuse 1
éventuellement 1
1856 0.8394491225029416
soin 1
Soci@@ 1
Exposition 1
Palestine 1
bury 0.549868226419664
jointe 1
Łódź 1
Monsieur 1
Sak@@ 0.8089959253581342
appeler 1
enregistrer 1
sid@@ 1
cylindres 1
dec@@ 0.1890970705382584
reprennent 1
échap@@ 1
verts 1
accompag@@ 1
massi@@ 1
sum@@ 0.33949806471016725
sim@@ 0.7019599768114549
ument 1
Armand 1
Bres@@ 1
issi@@ 1
Thor@@ 0.8746544046854605
inauguration 1
Champion 1
déplacer 1
insuffis@@ 1
monstr@@ 1
79 0.6540930284531679
cerveau 1
ignit 1
reconstruit 1
baies 1
élaboration 1
agements 1
égal@@ 1
invention 1
urgie 1
tomber 1
Fro@@ 1
débarquement 1
adu@@ 1
situations 1
toiles 1
chette 1
any 0.08687554721502537
ion@@ 0.9058513274841615
artisans 1
blan@@ 1
Loir 1
chon 1
chine 1
dominic@@ 1
1857 0.8295278480348021
VI@@ 1
zé@@ 1
Road 0.18380530044625673
lor@@ 1
pur 0.7727284808525713
bière 1
Lisbonne 1
flore 1
Second 0.29457950435115227
unif@@ 1
Bra@@ 1
Chevalier 1
munitions 1
foul@@ 1
inspirée 1
brut@@ 1
Aï@@ 1
Traité 1
case 0.16913144963974866
dominant 1
existant 1
Ran@@ 0.6490228207788602
Romain 1
basses 1
compréhension 1
notoriété 1
aspir@@ 1
réparties 1
accompagnée 1
décors 1
gardes 1
réalisations 1
voyant 1
Hautes 1
aly@@ 1
républicaine 1
zer@@ 0.5999510567296322
cade 1
Gér@@ 1
lio 1
Bern@@ 1
Lub@@ 1
83 0.6383054570725474
din@@ 0.49412090435546896
paras@@ 1
élie 1
onia 0.5218508571969787
pousser 1
réservoir 1
aba 0.11589566377117524
chancelier 1
UEFA 0.6682297926104344
brou@@ 1
Maxim@@ 1
configuration 1
concession 1
Nintendo 1
belges 1
Jur@@ 0.6341990448450783
industries 1
épiscop@@ 1
seaux 1
Colorado 0.5878028783275709
suspend@@ 1
cles 1
entendu 1
J&apos; 1
remonter 1
auxili@@ 1
reté 1
Gour@@ 1
associe 1
Bâle 1
exprimer 1
ïs 1
1852 0.9323966008387867
fices 1
client 1
Rol@@ 0.9391301614357895
survivants 1
décerné 1
Besançon 1
vér@@ 1
carros@@ 1
ū 1
mant 1
98 0.5926039699155509
berg@@ 0.7788735753194751
serment 1
ken 0.13393581100176394
Andr@@ 1
ô 1
alternative 0.6843904676650281
esclavage 1
saou@@ 1
ampleur 1
dessert 1
Edmond 1
Notes 1
Anton@@ 1
imposant 1
the@@ 0.27201559297591044
Arc 1
Columbia 0.3616773257202307
Vichy 1
pée 1
Seg@@ 0.7343729690195602
Dan 0.8071742208970687
RS 0.9910736757694736
duchesse 1
fan@@ 1
passer@@ 1
réguliers 1
hym@@ 1
Secré@@ 1
umi 1
engagés 1
Empereur 1
occident@@ 1
appartiennent 1
notable 0.4060819722601544
Miguel 0.5850810683394773
loisirs 1
fréquent@@ 1
ouver 1
rébellion 1
diam@@ 1
évang@@ 1
ectiv@@ 1
habitations 1
sir 1
Whit@@ 0.5244847201806772
iff@@ 1
CF@@ 1
But@@ 0.8155373340884002
len 0.3212337749277062
Chac@@ 1
fice 1
Time 0.40066896337233626
Duc@@ 1
affronte 1
chroni@@ 1
occasionn@@ 1
localement 1
Concer@@ 1
amér@@ 1
impéri@@ 1
star 0.34850334449975395
institut@@ 1
sond@@ 1
montag@@ 1
infirmi@@ 1
choc 1
enregistrée 1
enci@@ 1
syndicats 1
Tel@@ 0.548158725944051
quais 1
Thaï@@ 1
logo 1
minaire 1
Kin@@ 0.5572758868180063
contraintes 1
augmentent 1
ologi@@ 1
dale 0.6785794936410212
effectuée 1
aix 1
ective 0.5376816760637081
égation 1
crit@@ 1
icisme 1
zac 1
présidenti@@ 1
1846 0.9827123694431438
Litu@@ 1
entho@@ 1
nar@@ 0.8385685724045923
lage 0.5974678954833127
tige 0.4061632713776612
aissance 1
motor@@ 0.6943088470002591
Dublin 0.789855610380256
effectiv@@ 1
exécuté 1
rad@@ 0.8630204042463551
préd@@ 1
deven@@ 1
considérées 1
triang@@ 1
implantation 1
Lot 1
dénonce 1
vicomte 1
adre 1
libéraux 1
LNH 1
if 0.1093904644014711
capture 0.9125795507537231
cou 1
Déro@@ 1
General 0.1046853747306329
pé 1
Kl@@ 0.4702521597829062
armo@@ 1
tionnellement 1
C.@@ 0.8023104646010697
m. 1
Pie 1
touché 1
constellation 1
tonne 1
1854 0.8546558310676025
sortent 1
symboles 1
Allem@@ 1
démocrates 1
profon@@ 1
Carr@@ 1
luxe 1
ultime 1
confiée 1
deb@@ 0.8622777868670749
primiti@@ 1
yon 1
cription 1
lie@@ 1
location 0.2976953871401978
Vin@@ 1
tionne 1
Viv@@ 1
vass@@ 1
liaisons 1
bloc@@ 1
fro@@ 1
controvers@@ 1
naturellement 1
fourni 1
invite 1
respect@@ 1
ake 0.268089061689338
Bruce 0.8001150316358555
Guil@@ 1
prévention 1
offrant 1
sauveg@@ 1
mour@@ 1
avère 1
courtes 1
milit@@ 1
cine 0.8605062242151768
ids 0.38279446104385
dj@@ 1
jon 1
conventi@@ 1
ouch@@ 1
approfon@@ 1
adron 1
instrum@@ 1
ä@@ 0.14616919242716828
Bis@@ 1
Marco 1
dette 1
hameaux 1
érations 1
lourd 1
nh@@ 0.29320145571287026
sci@@ 1
tile 1
archéologie 1
terminus 1
appelait 1
architectur@@ 1
ologies 1
énique 1
indem@@ 1
zantin 1
Bourg 1
synagogue 1
Adolphe 1
deu@@ 1
Beach 0.5067479616954312
week 0.2686003652878303
accumul@@ 1
divorce 1
Distinc@@ 1
umin@@ 1
alimentaires 1
Ne 1
Socorro 1
Faculté 1
Mali 1
Jimmy 0.8266044007193457
aume 1
tombes 1
Constru@@ 1
souhait@@ 1
anglo@@ 1
Japonais 1
1858 0.8399176202586425
Louvre 1
mammifères 1
RA 0.9485896027060294
Vosges 1
enu 1
excell@@ 1
mage 1
ania 0.5624576727197048
Cent 1
Little 0.3912097733638156
uds 1
produites 1
compositeurs 1
1849 0.8529737198080583
ètement 1
eron 0.39103601197587423
identification 1
issa 1
messe 1
revê@@ 1
alphab@@ 1
colère 1
intense 1
sécu@@ 1
Ky@@ 0.9003873957552748
statistique 1
bords 1
MA 0.6437003914458417
ageant 1
tissu 1
SI@@ 1
chim@@ 1
restée 1
pharm@@ 1
PA 0.6531642614705415
V. 0.4922551041495938
pin 1
entin 1
militant 1
LINEAR 1
Lon@@ 1
mir 1
onais 1
Cél@@ 1
veulent 1
ij@@ 1
ald 1
Atlanta 0.7253209639632191
détention 1
immigration 1
compens@@ 1
nay 0.7808333179959064
sauvages 1
mb@@ 0.7412952166336584
Ma 1
Malte 1
atu@@ 1
bombardement 1
faill@@ 1
suffixe 1
Arist@@ 1
aa 1
XVI 0.7920624194922088
Barbara 0.8662836711400189
nati@@ 1
slov@@ 1
ènement 1
edi@@ 0.3647192832493437
dén@@ 1
talents 1
relégation 1
faces 1
intensité 1
It@@ 1
tia 0.5597877030667242
trich@@ 1
Dix 1
K. 0.6135263405129988
isis 1
Spir@@ 1
quants 1
édon@@ 1
Golden 0.49270326325835373
pitaux 1
Ny@@ 1
expuls@@ 1
compagnons 1
ataire 1
torat 1
protagon@@ 1
élire 1
vi 0.7138905788126271
FF 1
Syl@@ 1
tois 1
s. 1
altern@@ 1
tropicale 1
ception 1
Gab@@ 1
lante 1
D2 1
offensi@@ 1
ûte 1
bruit 1
Ostr@@ 1
émati@@ 1
valid@@ 1
dispers@@ 1
préli@@ 1
Lambert 1
humide 1
isions 1
dirige@@ 1
atte 1
mémo@@ 1
tronçon 1
continentales 1
fragments 1
dialogue 1
riz 1
Game 0.42928200536800687
tic 0.19800777709050962
ish 0.1976974980863717
équipés 1
protestante 1
déput@@ 1
styles 1
700 0.5201767948335404
Kiev 1
ovitch 1
Mili@@ 1
pressions 1
Tarn 1
eth 0.811884221705375
législation 1
ino@@ 1
mosquée 1
humour 1
nazis 1
disciplines 1
91 0.6212414627185225
Alban@@ 1
exploration 1
inter 1
curr@@ 1
chat 1
Pour@@ 1
agers 1
Xi@@ 1
dau@@ 1
cinqu@@ 1
miers 1
bras@@ 1
contacts 1
procur@@ 1
olog@@ 0.9325877762921749
ement@@ 1
escence 1
xi 1
eda 0.8657595233711866
Retour 1
Gordon 0.6672578987875143
paiement 1
fications 1
dissements 1
Pey@@ 1
antic@@ 1
nominations 1
Bank 0.28046215873530284
Township 0.4542267726625442
Gros@@ 1
udi 1
zon 1
noc@@ 1
Ris@@ 1
Corn@@ 1
ham@@ 0.7891225429917781
voirs 1
contradic@@ 1
romains 1
00 0.27904022971242076
Charlie 0.8702617488901794
dominante 1
po 0.8927077972064288
confront@@ 1
var@@ 0.5727254831836867
stimul@@ 1
Miller 0.565650698241137
ichi 1
cheur 1
certi@@ 1
poli@@ 0.8859602729173617
CO 1
ider@@ 0.9613105955930648
anarch@@ 1
psychan@@ 1
joint@@ 1
mobiles 1
sam@@ 0.6862020502888339
igue 1
And@@ 1
Mac 1
adapter 1
worth 0.3771857590599014
ratie 1
ö@@ 0.21505737546632728
Œuvre 1
appu@@ 1
Ng@@ 0.866472590337233
argen@@ 1
sin 0.15058128103120985
NA 0.9478689616137275
cars 0.4523807129970568
della 1
Dr 1
onnel 1
plasti@@ 1
rival 0.8393469244413608
Kansas 0.5106974803205777
asie 1
any@@ 0.47287406184721076
width 1
Li 0.7687558754940406
efs 1
Quentin 1
125 0.9716132008236372
16@@ 0.6256475037955838
confin@@ 1
Trente 1
certain@@ 1
rection 1
Bâ@@ 1
anat 1
secrets 1
certific@@ 1
Pau 1
verg@@ 1
diffuse 1
lors@@ 1
Natura 1
brevet 1
illo 0.5011115134195949
Us@@ 1
trah@@ 1
Fernando 0.6121530756617924
transept 1
Ges@@ 0.5450469534867788
Se 0.11456515628921445
subsiste 1
axes 1
asp@@ 1
Jonathan 0.9728214492892717
11@@ 0.9348547271974834
orum 1
opportun@@ 1
Ō@@ 1
Mem@@ 0.7725310751546377
Show 0.3710827928987661
ef 0.7737816395356066
UE 1
Mexico 0.275316384800389
auss@@ 1
races 0.4422384676215731
possibil@@ 1
Č@@ 1
gymnas@@ 1
impl@@ 0.862355956670808
Boris 1
meub@@ 1
West@@ 0.24508770557480933
chiff@@ 1
Christopher 0.7738505334257311
Res@@ 0.45410075457760374
14@@ 0.6082258183461403
victor@@ 1
évê@@ 1
12,@@ 1
etti@@ 1
orange 1
DE@@ 0.8438619638559864
tes@@ 0.6611582289990379
biographie 1
Robin 1
Bell 0.6589975613286702
Minnesota 0.48248922341939054
solidar@@ 1
Ensemble 1
Bibliographie 1
cord 1
topo@@ 1
Cher@@ 1
Vas@@ 0.8238769892405855
lai 1
AT 0.789405710560212
tion@@ 0.34083943949847106
tira 1
dote 1
faun@@ 1
noy@@ 1
Suc@@ 1
UNESCO 1
coupl@@ 1
myth@@ 1
retar@@ 1
Andrea 1
repos 1
Fond@@ 1
dive 1
èbre 1
ops 0.5731471551030698
ire@@ 1
Nîmes 1
DS 0.7814676534238996
moments 1
entrant 1
civiles 1
1791 1
1831 1
Vie@@ 1
oti@@ 1
Clo@@ 1
seignement 1
propag@@ 1
éat 1
airie 1
onien 1
Afghanistan 0.9196372455829571
motion 0.8051618781863151
Day 0.2629284351236843
moto 1
souvenirs 1
Enfant 1
10.@@ 0.5668257281781471
yl 0.5342185994314892
symphon@@ 1
Aisne 1
aute 1
évèn@@ 1
réqu@@ 1
ouvent 1
Havre 1
ater 0.5340947040195002
juniors 1
arbor@@ 1
Ahmed 1
confusion 1
ME@@ 0.8106035031174
atti@@ 1
onymie 1
Jura 1
bal 1
Kos@@ 0.7612626053534952
sibil@@ 1
musulman@@ 1
oul@@ 1
Isaac 1
Leipzig 0.5937136556468333
SO@@ 0.8171567499101668
andre 1
4,@@ 0.5462368934628206
laire 1
ą@@ 1
grosse 1
illard 1
uniforme 1
Flam@@ 1
individuelle 1
programm@@ 1
insurrection 1
Journ@@ 1
auc@@ 1
Services 0.6040813029554484
adres@@ 1
sible 1
pli 1
globale 1
org@@ 0.6434756084732626
èvres 1
onautique 1
3D 0.8495253890207213
iler 0.46119845196386194
seigneur@@ 1
punk 1
obst@@ 1
analyses 1
abs@@ 1
sorties 1
cut@@ 1
geance 1
Barth@@ 1
Ton@@ 0.6489339592573541
Égl@@ 1
oro 0.4281142843024197
uit 1
pologie 1
1795 1
Act 0.2053398744498321
Rel@@ 0.48325689114576464
Ernst 0.5638193993699311
Microsoft 0.6965453947084072
char 1
Wo@@ 0.7519606877493528
sym@@ 1
Études 1
ben@@ 0.39832246555167633
Hot 0.46076148274808615
normal@@ 1
Finances 1
sentiments 1
Mit@@ 0.326281639091195
NO@@ 0.7727015411264587
Prom@@ 0.9117505799007333
Han 0.9666361960941643
Hav@@ 1
sec 1
Théodore 1
Clar@@ 0.919566061154095
proph@@ 1
Pop@@ 0.7702483651368062
tribune 1
persu@@ 1
affront@@ 1
06 0.619641550630669
complex@@ 1
App@@ 1
ag 0.5817639013686923
Hô@@ 1
Mun@@ 0.6125070028683123
Ridge 1
tenance 1
12@@ 0.5176934610737272
María 0.3263836833812512
tz@@ 1
Archives 1
ôles 1
ières 1
Ves@@ 1
ema 0.46973579940718
ial 0.5517604881400712
ow 0.2716399893709112
1794 1
gon@@ 1
transporter 1
corpor@@ 1
hin@@ 0.3716780459196487
attribution 1
découver@@ 1
facil@@ 1
empre@@ 1
magazines 1
Hil@@ 0.6674251821571403
Tra@@ 1
das 0.01307994255586079
Vatican 1
1853 0.8476444867350493
plication 1
Allen 0.6003558853512111
export@@ 1
manne@@ 1
chiens 1
Johannes 0.563006356156859
antiques 1
Clark 0.6242117472579886
1845 0.8988860990812491
Épo@@ 1
Kennedy 0.7338813140285161
sultan 1
entraîn@@ 1
Auc@@ 1
Santiago 0.5046495415934967
départem@@ 1
ses@@ 1
coc@@ 0.9029388641610423
degr@@ 1
esta 0.10506053632739608
ebr@@ 0.8600471892935383
Morgan 0.7214055454214899
Fré@@ 1
exclu@@ 1
Tir@@ 0.9793777732898206
itres 1
tine 1
Entre@@ 1
Magazine 0.6161005289133626
palest@@ 1
13@@ 0.5781471675053402
compil@@ 1
Poly@@ 0.8303749971662708
Régime 1
sch 0.3369799833355188
cuis@@ 1
ido 0.16373540544691034
Die 0.013435052648424704
ran 0.2254657285365224
eni 0.856757706862689
€ 0.9019544593730222
oua 1
Hau@@ 1
tères 1
lent@@ 1
py@@ 1
provincial 0.6356028554547924
long@@ 0.7766151226983857
Type 0.9689758068533987
conjug@@ 1
Chy@@ 1
ize 0.5951412462771533
gras 1
PL@@ 1
anonyme 1
ns 0.27296067882774777
voter 1
hél@@ 1
UMP 1
Mut@@ 0.7873629876903407
assa 1
TA 0.7305769186496751
pauv@@ 1
Herbert 0.7812019405673104
palmar@@ 1
Ferrand 1
enqu@@ 1
Calédonie 1
hostil@@ 1
inien 1
spati@@ 1
contamin@@ 1
exer@@ 1
30@@ 0.40395476360838123
devi@@ 1
tesse 1
urba@@ 1
méd@@ 1
oko 1
Télé@@ 1
collective 1
XI 0.8998068179096628
94 0.582006890054721
bud@@ 1
posth@@ 1
Non 1
Class@@ 1
aïa 1
fou 1
The@@ 0.3542521772649453
habitats 1
1837 0.9451048190130483
sul@@ 0.6985833070504063
œuv@@ 1
ović 1
tubes 1
Duc 1
ériens 1
olo@@ 0.8243293542309262
récomp@@ 1
Moulin 1
pre@@ 0.09024903847356189
rech@@ 0.5675491374860517
roche 1
Gand 1
montage 1
Mémo@@ 1
entra 1
Berne 1
gènes 1
ott 0.7860924855666273
Gis@@ 1
territorial 1
Nick 0.781938875057789
isi 0.622057207081881
gest@@ 0.29305585265733947
rin 1
Louisi@@ 1
1812 0.8478498684788637
bombe 1
abus 1
box 0.4324185550914848
yo@@ 0.9202817538033029
massive 0.9717545160967727
sine 1
MI@@ 0.8462541220367205
Fel@@ 0.5369495997422341
conclu@@ 0.9384749399023534
Alberto 0.944845417896108
wald 0.5404078513877886
lag@@ 0.39182073128150746
patient 1
gir@@ 0.9885995521987136
nig@@ 1
owski 0.9170844321681692
Bac@@ 1
Extr@@ 1
jan@@ 1
04 0.5764569449620867
110 0.6678184374076243
Studio 0.6662292913316765
Gri@@ 0.8042607790172435
entu@@ 1
Om@@ 1
1847 0.8609113296710751
Billy 0.7730336019316213
Sén@@ 1
AF@@ 0.9033270057938108
IM@@ 0.8614827221318696
locut@@ 1
Russell 0.7279617837689755
aler 0.6501831257151528
rans 1
Mour@@ 1
poche 1
Imp@@ 1
handi@@ 1
Pay@@ 1
March@@ 1
lera 1
Nelson 0.7325763442987567
accuse 1
noctur@@ 1
vesti@@ 1
Helsinki 1
Margaret 0.677048902832519
tica 0.3179367995701103
1832 0.9800686486018445
Grand@@ 1
Philip 0.609280040875626
Kil@@ 0.4449678254272908
Dém@@ 1
istan 1
siens 1
Ain 1
Guer@@ 1
icus 0.9270271283396285
amphibi@@ 1
vre 1
24@@ 0.4042403093226606
tiles 1
chanter 1
raf@@ 1
Stal@@ 1
Dre@@ 0.5577337293101543
vor@@ 0.10162168879589004
ennent 1
temples 1
wi@@ 0.5245561029659938
exil@@ 1
va@@ 1
régu@@ 1
pi 1
cane 1
xes 1
An 0.11441590671062511
Sag@@ 1
Nigeria 0.7999763710869269
97 0.5794269936311311
Berg@@ 0.3294249450482547
pt 1
peloton 1
Fred 0.8741336664707487
Syndic@@ 1
ken@@ 0.3229970157697909
autés 1
8,@@ 0.7718548479287283
Hermann 0.6462517178004707
Station 0.2680397225238805
ado@@ 1
Liverpool 0.6660168921374786
án@@ 0.5214434112341884
relatives 1
Eg@@ 0.7041009406531643
Internationale 1
Janeiro 1
prolif@@ 1
Lad@@ 0.7729723511934821
USA 0.20794518622875954
Ah@@ 0.6606206216906051
AG@@ 1
TF1 1
endi@@ 0.8206224997775515
assassin@@ 1
Match 1
Mission 0.6874676791394737
catastrophe 1
TER 1
module 1
Houston 0.5865514413473844
mies 1
CE 0.8574969774663228
Raoul 1
tril@@ 1
grot@@ 1
Google 0.7574956674158132
yg@@ 1
mobili@@ 1
anatom@@ 1
gardi@@ 1
Neuve 1
quels 1
Magdalena 1
apti@@ 1
RD 1
Grecs 1
Spé@@ 1
ballon 1
cha@@ 1
chard 1
Uruguay 0.8572802693229259
eils 1
coqu@@ 1
NASA 1
férence 1
atlan@@ 1
bir@@ 0.5300968928567595
iri 0.7423038945919347
quad@@ 1
aluminium 1
tification 1
gendes 1
outh 1
syndrome 1
cle@@ 0.5132739783167568
obus 1
Rod@@ 0.9534309592411282
Stadium 0.40115870207415594
pollu@@ 1
atur@@ 0.8226801310145291
ric 1
Esprit 1
Sl@@ 0.7876944225192195
Donn@@ 1
jamb@@ 1
MP@@ 0.6637834879241874
libre@@ 1
mers 1
1836 0.9255883264308401
découpage 1
dédi@@ 1
vies 1
Fid@@ 1
Pâ@@ 1
å@@ 0.7810417229536122
votes 0.4472196199779157
attent@@ 1
zu@@ 0.32917621591141905
olles 1
inhum@@ 1
Julie 1
11,@@ 1
japon@@ 1
alternati@@ 1
conv@@ 0.9236097859319043
ye@@ 0.5397612385249574
absor@@ 1
1833 1
Ross 0.6736579478676298
NE@@ 0.9378725033761225
parisi@@ 1
Eure 1
07 0.5641073819275831
Web 1
romane 1
passi@@ 1
Observat@@ 1
ister@@ 0.7623466515456788
Ten@@ 0.6373564936677322
éder 1
Fut@@ 1
ario 0.21656899240737312
authenti@@ 1
confi@@ 1
concepts 1
Hun@@ 0.6817329403726726
istr@@ 1
Lettres 1
Nikol@@ 1
ć@@ 1
1841 0.9287182354230022
Shanghai 1
cio 0.6659213773131859
jam@@ 1
1835 0.9129180785388414
alan 0.5865198855826166
Ras@@ 0.766255922904277
ambe 1
bu 0.20455100321672195
08 0.5251959734891517
Meil@@ 1
terie 1
Georg 0.4410120796685103
Sym@@ 1
innovation 1
Ken@@ 0.6640302545730713
Nak@@ 0.8476256947943801
oche 1
Command@@ 1
équi@@ 1
Prim@@ 0.6532658626726274
Protection 1
lara 0.9054942330834959
Masters 0.9254424230225673
baptis@@ 1
avier 1
tromp@@ 1
positive 0.3458148170541597
quadr@@ 1
tron 1
Ryan 0.6610829896524947
Conse@@ 1
raffin@@ 1
pers@@ 1
vall@@ 1
atin 1
bris 1
ovo 1
dre@@ 0.3052712400522594
interven@@ 1
Bob@@ 1
Bowl 0.6281738794378849
Studios 0.5568671831082294
anisme 1
Hat@@ 0.7836468737447686
hétéro@@ 1
box@@ 1
sho@@ 0.3346273704575102
Sher@@ 0.8722288872740617
Naz@@ 1
mascul@@ 1
core 0.5576752524666864
sax@@ 1
aret 1
Bré@@ 1
leg@@ 0.31479523487738825
versi@@ 0.8733213047620544
Bach@@ 0.8869921224030383
Vancouver 0.8361306495188932
Commun@@ 1
mous@@ 1
Andre@@ 1
amend@@ 1
polit@@ 1
trail@@ 1
firme 1
Loiret 1
ji@@ 1
agog@@ 1
Bar 0.8759266893618818
Wit@@ 0.629675663260719
Analyse 1
Andy 0.818550818376623
duit 1
Dordogne 1
Zone 0.7807917467403046
estu@@ 1
éro 1
mess@@ 1
bomb@@ 1
Coc@@ 1
Roman 0.1793984186680191
pera 1
responsabil@@ 1
architectural 1
DA 0.7919821947348186
Lov@@ 0.6876595157932043
Vendée 1
Astr@@ 0.8675502671061811
invers@@ 1
radar 1
09 0.5036538549324036
otypes 1
Apple 0.739500705205761
Salvador 0.8176494141199849
15@@ 0.5961572210701633
Las@@ 1
unis 1
expres@@ 0.5953203081773464
osse 1
colon@@ 1
manager 0.27054647752993305
énor@@ 1
Agn@@ 1
anna 0.7428855619998233
tabl@@ 1
entales 1
hip 0.4185504719289727
Song 0.34633004676362356
Habitat 1
confron@@ 1
dose 1
probation 1
vette 1
kr@@ 0.3033111956275941
susceptibles 1
uer@@ 0.5722276210209482
Lus@@ 1
Zo@@ 0.8206743702608885
exhaus@@ 1
Aqu@@ 0.7853837475596517
ecti@@ 1
Len@@ 0.8039036429595233
1806 0.9956328615168103
Chem@@ 1
éto@@ 1
Sun@@ 0.6318542704478133
WWE 0.9233359771630232
She@@ 0.5790638017386411
autonom@@ 1
ting 0.07988090074394448
ambul@@ 1
restaurants 1
Arnaud 1
1842 0.8877077953152274
hell@@ 1
drain@@ 1
sais 1
conclusion 1
try 0.3488907735642986
monum@@ 1
gro 1
Chef 1
chré@@ 1
pon 1
enverg@@ 1
ew@@ 0.2975765258152818
théor@@ 1
unanim@@ 1
Pac@@ 1
1839 0.9072792912836023
Lach@@ 1
discussions 1
Lucas 0.9949321567212859
Main 0.3771452211827578
Lun@@ 1
aigne 1
tropicales 1
Trinité 1
yan@@ 0.7018242835616866
Bad 0.42965666976746525
Matt 0.7492813911303993
Jun@@ 1
LO@@ 1
équival@@ 1
marines 1
Ludwig 0.4273948665637541
ej@@ 0.5683419019847923
master 0.31742268520305816
bits 1
rat 0.3679766049093676
atisation 1
foc@@ 1
tation 1
drag@@ 1
ks@@ 0.3597679747864136
itz@@ 0.35522392468666986
1843 0.9215774065634236
elot 1
cache 1
ace@@ 0.728500245968089
1834 0.9326043184877797
Troph@@ 1
ouk 1
oblast 1
RN 1
définiti@@ 1
Arn@@ 0.9821957532960911
locomotives 1
Near 1
Syst@@ 1
Our@@ 1
toires 1
dramatur@@ 1
provis@@ 1
CS 0.8265500882722835
Louvain 1
Sm@@ 0.8577511623047569
Sard@@ 1
moral 0.9449751952987454
Yo@@ 0.9173379799996845
conflu@@ 1
possessions 1
TV@@ 0.8413122921516035
Moore 0.5845190055213049
Seigneur 1
dy@@ 0.8481978560305481
Jason 0.8019643253726368
IS 0.7618611355287307
arn 1
ky@@ 1
eus 0.7435241231084275
Harvard 0.5746579727127272
new 0.033453967255187934
AR 0.8456514533265815
ouche 1
etz 1
accompl@@ 1
stone 0.2161186826677237
Ange 1
exemp@@ 1
cog@@ 1
Olympi@@ 1
spirit@@ 1
R.@@ 0.9274361824369611
diagnostic 1
carri@@ 0.8516997706621818
arti@@ 0.7792888606660552
lyc@@ 1
nag@@ 1
adapt@@ 1
conte 1
Temp@@ 1
diss@@ 1
tariat 1
Shin@@ 1
Has@@ 0.6736061228244524
Indre 1
Mec@@ 1
vain 1
Fonds 1
odes 1
Hus@@ 0.6257116134583411
Tim 0.7168729913973688
cre 1
Stone 0.49806187216281383
oun@@ 1
Aug@@ 1
recru@@ 0.9357302835662592
exempl@@ 1
Comics 0.8687601829376284
subir 1
ammes 1
édia 1
Frères 1
Adri@@ 1
23@@ 0.4957577877102778
disper@@ 1
anos 0.25548464191470177
Étoile 1
Od@@ 0.9249925019196339
Galerie 1
Agr@@ 1
OTAN 1
States 0.04786861410215969
Tech@@ 1
Abbaye 1
Ze@@ 0.4195420071474898
1838 0.8753237493138326
ameaux 1
ange@@ 0.8058355988605548
Mohammed 1
oz 1
Seul 1
irie 1
Ibn 1
accusations 1
Temps 1
Gironde 1
Indien 1
1844 0.8669898064570571
lot@@ 1
gas@@ 0.7178647616366531
ck@@ 0.524604657241879
Aig@@ 1
plur@@ 1
play 0.07901925546458059
bonus 1
Plat@@ 0.6246251239428819
opo@@ 0.8919866673343279
thr@@ 0.444475493739159
ahi 1
Rochelle 1
Fres@@ 1
amide 1
det@@ 0.22984018994518712
renom@@ 1
coin 1
Eu@@ 1
silence 1
auts 1
cantonal 1
vac@@ 0.6044106645136621
EC 1
botan@@ 1
Ron@@ 1
ery 0.27607806773079124
jour@@ 1
omni@@ 1
Ale@@ 0.9019085514252826
timbre 1
persist@@ 1
5,@@ 0.5643044938289165
conven@@ 0.75743293473175
mans 1
messages 1
Walt 1
ampli@@ 0.9271737019236231
Crim@@ 1
intim@@ 1
borough 0.523766676591643
sati@@ 1
Territoire 1
abat@@ 1
Math@@ 1
Dave 0.7008921608235513
Nobel 1
Europa 0.22871911824213711
Jupiter 1
démis@@ 1
Ja@@ 1
orien 1
fine 0.6588339692214382
fib@@ 1
religions 1
orthodo@@ 1
collectiv@@ 1
Iz@@ 1
homog@@ 1
Wol@@ 0.6068011987124637
copies 0.5581352577187565
AD 0.5040996151266133
Bah@@ 0.5726878632755272
intermédi@@ 1
exéc@@ 1
grim@@ 1
Rig@@ 1
phosph@@ 1
uves 1
fur 1
las@@ 0.6995109924061406
Berry 1
nd@@ 0.6935857224706962
occidentales 1
zy 1
dop@@ 1
sonde 1
pneum@@ 1
Go 0.6482303151853881
ix@@ 1
Emma 1
mathém@@ 1
comman@@ 1
alpin 1
osph@@ 1
ka@@ 1
ocol@@ 1
perception 1
amine 1
coupé 1
Adrien 1
Cercle 1
inhabit@@ 1
Mid@@ 0.6320234890708732
pit@@ 0.8506629268173824
contributions 0.736453750911258
Raphaël 1
démocrati@@ 1
anche 1
Rub@@ 1
ouse 1
trophe 1
Forêt 1
Médic@@ 1
Bet@@ 0.6322299195194458
Moh@@ 0.6327070044450501
Ottawa 1
carto@@ 1
pharmac@@ 1
alo 1
imi@@ 1
Grim@@ 1
Mr 1
Tul@@ 0.9579716853907396
GT@@ 1
brig@@ 1
elier 1
secré@@ 1
uro 0.7960602217747778
néces@@ 1
Hervé 1
Vid@@ 1
Sir@@ 0.8721872555642238
angél@@ 1
angles 1
my 0.25751970703435917
supervis@@ 0.9291878541528342
imes 1
progres@@ 1
Fribourg 1
XII 0.8781059645072344
lad@@ 0.6085221244542417
1810 0.9568664986360541
conj@@ 1
variation 1
comics 1
Ariège 1
ries 0.8106975739205432
polici@@ 1
with 0.004191746191951251
comb@@ 1
valent 1
corte 1
défense@@ 1
Gos@@ 1
destruc@@ 1
Lind@@ 0.5656536273690269
Abo@@ 1
emental 1
confis@@ 1
eller 0.3001056446166028
agi 1
amm@@ 0.5050182066598198
interro@@ 1
mages 1
eb 0.9359950679968811
Rangers 0.8668589720668969
we 0.1391076265686165
Fernand 1
dot 1
tos 0.28987270293712103
News 0.32288334642149197
Sylv@@ 1
mistice 1
échal 1
rey 0.3012837964667036
exam@@ 1
aillons 1
ocy@@ 1
Asteroid 1
uta 0.6929560455225174
rent@@ 1
Nicol@@ 1
abri@@ 1
nia 0.8263152176677494
Dim@@ 1
usé 1
occu@@ 1
doc@@ 0.7977844062956996
ceaux 1
dres 1
cerc@@ 1
fi 1
ony@@ 1
oshi 1
Scar@@ 0.8516229072962901
Angoulême 1
Conception 1
Recherche 1
card 0.4838355973207997
PlayStation 0.9249566230517182
global 0.44677865715418796
manu@@ 1
marx@@ 1
show 0.08261644197683579
dam@@ 0.5432629182416719
Kelly 0.6368345961374011
Droit 1
féré 1
harmonie 1
attendant 1
roqu@@ 1
paqu@@ 1
vement 1
chas@@ 1
polym@@ 1
Asp@@ 1
ort@@ 1
éger 1
Copenhague 1
Co 0.3802859315102594
toy@@ 1
Gén@@ 1
lucr@@ 1
TE@@ 0.7826007213314419
sug@@ 1
discussion 1
nec@@ 0.8453347396442294
Publications 1
alp@@ 1
igo 1
cut 0.3273315063105525
mysti@@ 1
olle 1
Mercedes 1
ui@@ 1
Night 0.406289492997274
terri@@ 1
Franklin 0.6588686649872628
espr@@ 1
improvis@@ 1
cami@@ 1
arios 0.3452121867211475
atmosph@@ 1
sy 0.8797883798853996
16,@@ 1
Appar@@ 1
Vor@@ 0.09720877070286804
roc@@ 0.8482952661536202
Panama 1
divor@@ 1
Avenue 0.3280189210525815
Med@@ 0.527917006997113
automobiles 1
Tribunal 1
Grant 0.6550841343260205
longu@@ 1
PE@@ 1
onnaise 1
ision 0.7828075116591812
Melbourne 0.4540579905582411
peste 1
sauv@@ 1
130 0.626962584252872
Mississippi 0.5952600632072034
Stuart 0.9968790023085091
progr@@ 1
Challenge 0.7932241991892368
dera 1
nac 1
Lom@@ 1
arcades 1
nin 0.27160014992563547
console 1
Lig@@ 0.5514259125619091
NFL 0.46260028954930277
II@@ 1
Structure 1
Dipl@@ 1
étu@@ 1
Sovi@@ 1
nich@@ 1
Gam@@ 0.9297350100428508
š 1
Antilles 1
AB@@ 0.725981034027843
éventu@@ 1
af 0.6561838580600633
dial 1
bay@@ 1
hospit@@ 1
spé@@ 1
chirurg@@ 1
complot 1
Num@@ 0.9682568135363105
transpar@@ 1
coordination 1
yan 0.4135891927874562
Centrale 1
als@@ 1
potable 1
Dup@@ 1
Peti@@ 1
arin 1
cross 0.34212015610263635
PD@@ 1
Proc@@ 0.9227401654418381
dication 1
couples 0.925475321547555
ibn 0.9696728757905049
originales 1
traction 1
Haw@@ 0.5612631286389834
Kaz@@ 0.9061465008410219
Village 0.5837283622771933
afric@@ 1
gain 0.6274700059053324
miner@@ 1
Hall@@ 0.9981114917231927
Rac@@ 1
Pit@@ 0.7967771045381157
instant 1
Canadiens 1
Wat@@ 0.857567327314008
omes 1
épis@@ 1
ray 0.7155423767255344
oisie 1
eter@@ 0.7151623019618027
Saints 1
series 0.04793826363169152
Indiana 0.45435797623910723
feu@@ 1
Cleveland 0.6334280027405318
Wood@@ 0.47043784238843633
17@@ 0.5946767826237673
Boliv@@ 1
Pietro 1
istre 1
tage 1
05 0.4854717155846636
Pes@@ 1
solid@@ 1
eman 0.4198458736629049
normal 0.4094588300967942
3,5 1
audio 0.8535379007269621
mano 0.849168757644891
sangu@@ 1
Monte@@ 1
oke 0.567680657809213
orbit@@ 1
horizont@@ 1
hist@@ 1
AE@@ 0.9156775010836931
Léonard 1
zar@@ 0.7224376503939555
Rid@@ 0.64648589648331
Sid@@ 0.8923636360237321
Commonwealth 0.58535969722279
colonial 0.5933653729288593
ku@@ 0.42228417264662627
CC 0.676385368752844
Line 0.2518658637655112
ption 1
Arti@@ 1
extinction 1
Sap@@ 1
Comm@@ 1
Jazz 0.534669537241932
arab@@ 1
valle 1
perfec@@ 1
vau@@ 1
fe@@ 0.16550636326029644
Roberto 0.9893737514615601
formul@@ 1
zer 0.4043823333030512
Aud@@ 1
film@@ 0.4927559978215116
hop 0.8822281126584938
herbe 1
oria 0.6422592072707181
Ł@@ 1
usias@@ 1
teaux 1
Jeff 0.7757186265762874
Jr 0.4352140227811937
confluence 1
usions 1
vive 1
nis@@ 0.8457360047345539
AF 0.8203112988099186
IP 0.6756498496584542
ingu@@ 1
lat 1
viers 1
Games 0.20739942774446202
02 0.5752087001648629
partition 1
accusation 1
Franck 1
XV@@ 1
Bér@@ 1
margin@@ 1
èv@@ 1
Transport 0.5975681822824354
compati@@ 1
équili@@ 1
probl@@ 1
eler 0.5023348875065656
immer@@ 1
codes 1
yth@@ 1
Édi@@ 1
titudes 1
Nam@@ 0.6108106082227999
Reb@@ 0.6899525251996078
acres 0.928280387798496
améli@@ 1
gou@@ 1
Edgar 1
Bit@@ 0.8683020681314679
iss 0.7398625532568986
Marvel 0.8943396535804083
lex@@ 1
Pur@@ 0.39561169298737114
terne 1
wo 0.11247554751094686
Hesse 1
illac 1
Restauration 1
interface 1
nazi 1
trices 1
lus 1
articul@@ 1
ects 0.27172203503770564
Jum@@ 1
Dragon 1
lâ@@ 1
arium 1
ku 0.9496798055930913
suffrage 1
fir@@ 0.5936676716083575
Alber@@ 1
CP@@ 0.788028316319087
Boc@@ 1
Anton 0.7520820267569857
approxim@@ 1
Nik@@ 0.8204629647582238
Salomon 1
empr@@ 1
Gold 0.3410681073362476
udi@@ 1
Adolf 0.712200765519989
afro 1
ley@@ 0.9112243762101789
Int@@ 1
oute 1
cic@@ 1
accidents 1
ore@@ 1
illustrations 1
ape 1
did@@ 1
spontan@@ 1
Jordan 0.6050316308090807
employe@@ 1
Rog@@ 1
pard 1
Kent 0.6472154475988088
Lut@@ 1
ographies 1
cél@@ 1
itre 1
rat@@ 1
EN@@ 1
Namur 1
Galli@@ 1
gio 1
drap@@ 1
yi 0.5483756681189823
aus 0.01858435887557076
icule 1
Suzanne 1
tas 0.5342246115142957
hall 0.4480936804044923
andis 1
ballet 1
zon@@ 1
Chr@@ 1
bless@@ 1
Baie 1
Hain@@ 1
Tit@@ 0.7299663074103646
MO@@ 0.8015367267280793
Til@@ 1
alar@@ 0.6171468036141607
attend 0.7067536047915957
issé 1
magn@@ 1
kine 1
Boy 0.6155486104720225
inte 1
Master 0.36650871267980223
ż@@ 1
Rosa 0.795699312136232
sembl@@ 1
Arnold 0.8057268603594288
Saï@@ 1
Air@@ 0.4871626752263837
Iowa 0.4896211351073192
halte 1
CF 1
dél@@ 1
ano@@ 1
retr@@ 1
ras 1
compéti@@ 1
Buc@@ 0.6134921613247865
dération 1
Lis@@ 1
Sanc@@ 1
Vass@@ 1
Ian 0.7882847117974616
islas 1
Murray 0.6555731242201815
slalom 1
taines 1
batteries 1
emont 1
insist@@ 1
unt 0.6267051887872426
03 0.5496782637994886
Aj@@ 1
elon 1
sou 1
Abdel@@ 1
niens 1
AG 0.36499605719420986
Tennessee 0.45341843112887914
cathol@@ 1
conces@@ 1
Commerce 1
Media 0.2828980075443338
26@@ 0.5333339640645677
chen 0.14970868963392306
civil@@ 1
tume 1
Princ@@ 1
draft 0.5815702467643945
sivement 1
intensi@@ 1
dense 1
ros 1
egr@@ 0.7503262831052714
obli@@ 1
oscop@@ 1
aco 0.66343683587799
ador 0.14716580754199393
alias 1
pois@@ 1
Blu@@ 0.7192788376440019
impres@@ 1
Chartres 1
XX@@ 1
lais 1
amer 1
tropole 1
cli@@ 0.855547529809212
esthé@@ 1
incur@@ 1
ieur 1
E.@@ 0.7569637169352362
Power 0.4062554357916943
ionale 1
marti@@ 1
assum@@ 1
Dunkerque 1
escal@@ 1
lle 1
caf@@ 1
demanda 1
ourg 1
f. 1
composer 0.5558943833145327
Gun@@ 0.6549880915750567
popular@@ 1
17,@@ 1
affin@@ 1
boud@@ 1
esqu@@ 1
sacri@@ 1
uli 1
LE@@ 0.7572916828051268
pure 1
vol. 1
finance 1
Inter 1
Nas@@ 0.658024180574782
Jardin 1
kab@@ 0.7773536889850376
ON@@ 1
étrang@@ 1
Sus@@ 0.545963243676723
diesel 1
taur@@ 1
point@@ 1
notation 1
Sto@@ 0.4832783975189467
prestige 1
inos 0.343549658910411
SK 1
habil@@ 1
eli 0.511875411682787
itat 1
centim@@ 1
Luigi 1
Pul@@ 0.5851123717902533
exige 1
lus@@ 0.6443014663410159
obligations 1
pros@@ 0.8407886589094028
27@@ 0.5400051616164143
inge 0.6532369250143718
Bach 0.7597423465901489
PR 1
det 0.7179872303636101
6,@@ 0.6130811534437005
Robinson 0.6572293084177782
Forum 1
Pen 1
stell@@ 0.6476891663434876
Lionel 1
inces 1
aty@@ 1
Af@@ 0.6804654063279265
soc@@ 1
acre 1
eh 0.5487696202322239
Sierra 0.590114953138181
blues 1
portion 0.4644004062523039
abord@@ 1
tw@@ 0.18901820562515315
disciplin@@ 1
parking 1
magni@@ 1
Lion 1
uk 0.5177053545383957
expert 1
visions 1
Carter 0.6670165411078363
Gan@@ 0.8418355755888333
~ 0.9662668481806869
Major 0.280383747345859
Source 1
Aveyron 1
Ji@@ 0.9135431241978063
invitation 1
innoc@@ 1
thier 1
stru@@ 1
à@@ 1
isie 1
limi@@ 1
Tat@@ 0.7633016899871071
Cast@@ 0.9806178354988708
Press 0.39262827298799047
Great 0.16553455775608372
Indo@@ 1
marketing 0.8306901935478475
graphi@@ 1
1824 0.94529936860055
Montagne 1
Vari@@ 0.5556270221912973
1825 0.8960250935302078
Bug@@ 1
Sarkozy 1
Oliver 0.6967813985768395
tillon 1
Cho@@ 1
clin@@ 0.952174958098386
itable 0.8378641196511566
opp@@ 1
plaçant 1
musul@@ 1
Beaumont 1
rot 0.9976005287317905
Sep@@ 0.9945430669084518
paral@@ 1
Gall@@ 1
SE 0.9956694937714178
· 0.052734379958605554
elage 1
Sat@@ 0.5474992432719034
bad@@ 0.5470453784176937
dain 1
1802 1
Tas@@ 0.8909635916874917
dine 1
fati@@ 1
portu@@ 1
Best 0.15964436357645911
IR@@ 1
nus 1
HC 0.883039199916663
boî@@ 1
Jon@@ 1
Ner@@ 0.7725699696732242
Quin@@ 1
mac 1
Marcus 1
Verdun 1
textile 1
Gary 0.7051818038164538
gly@@ 1
Isle 1
Kad@@ 0.8476865286820504
migration 1
Kenya 0.8745248958843495
thon 1
ciple 1
itures 1
1803 0.9413706715505868
inale 1
duel 1
clav@@ 1
Steven 0.916177926660397
piers 1
élites 1
missile 1
Glasgow 0.6753553730644967
sures 1
Carp@@ 1
Cruz 0.4684229655093435
teure 1
ș@@ 0.9381928316039855
WTA 1
giens 1
Ther@@ 0.5346153702300508
roman@@ 1
YouTube 0.5753908136581812
Car 0.8885778091846606
Contr@@ 1
trajec@@ 1
df@@ 1
gia 0.1433088897634752
CR@@ 1
kur@@ 0.3480992234942086
adelle 1
percus@@ 1
revi@@ 1
New@@ 0.4195110546078086
gres@@ 1
oll 0.6864203373098355
orn 0.6431089705677189
Renaud 1
Square 0.4899351710331442
Trump 0.6199330360231841
myst@@ 1
Warner 0.6421686570476086
chirurgie 1
ES 1
SS@@ 0.6286477171798538
auch@@ 0.8314957830318211
violent 0.9777117488453116
iron 0.5482201358516616
jus 1
mutation 1
estres 1
comparable 1
prudence 1
Champs 1
opath@@ 1
Police 0.3726014862821856
Haye 1
PK 1
1808 0.9795143368674992
sentir 1
Lombar@@ 1
partisan 1
entrepreneur 1
courage 1
festiv@@ 1
litur@@ 1
tium 1
Mart@@ 1
Laura 0.8879382496227402
Prov@@ 1
insurg@@ 1
haut@@ 1
presby@@ 1
press@@ 1
tenay 1
Adams 0.5906869897727499
Nicole 1
Troyes 1
ennement 1
Noir 1
infin@@ 1
Seattle 0.5932502905046586
automati@@ 1
achi 1
espagn@@ 1
accep@@ 1
wo@@ 0.2832250698952942
Sad@@ 0.7598333890387385
ends 0.19292681639299042
EP@@ 1
Pablo 0.6610593258500461
uh@@ 0.6278929523343652
Marshall 0.6426357838516084
Blois 1
It 0.013348514847828567
dî@@ 1
Châtel@@ 1
bes@@ 0.28139579063923137
rais 1
ilde 1
mpi@@ 1
ibil@@ 1
trop@@ 0.6577797640060805
achev@@ 1
Simone 1
abi 1
Kot@@ 0.8100221416060107
Mitterrand 1
1813 0.8491011077675382
1828 0.8776105796237342
Cambr@@ 1
asion 1
rurales 1
oth 0.4593004143032424
scén@@ 1
SD@@ 1
Cooper 0.7434503424262424
doubles 0.8274637982551976
toral 1
Dallas 0.6178989705930341
indre 1
Arles 1
vais 1
amba 1
substance 1
rup@@ 1
Got@@ 0.7167832419309059
ples 1
vic 0.957374702697387
Barry 0.7598457580078039
ustr@@ 1
oc 1
facilit@@ 0.7905003605535237
evin 1
patrim@@ 1
tal 0.2834225667402032
za@@ 1
pir@@ 0.9056772303110233
nai@@ 1
assign@@ 1
RO@@ 0.7071598586953427
Amour 1
Blues 0.716433429190627
Parker 0.7386160654881201
back 0.05593879468493803
vietnam@@ 1
pomp@@ 1
andi@@ 0.8368260558718601
jac@@ 1
projection 1
180 0.6353941003718911
interventions 1
édo@@ 1
Amér@@ 1
ack@@ 0.2841000648262839
gab@@ 1
carbur@@ 1
Iv@@ 1
Home 0.31898796491987325
Bod@@ 0.5701595500337362
Nad@@ 1
Art@@ 1
progressive 1
scénar@@ 1
accession 1
tiges 1
ling@@ 0.694290569038733
ñ@@ 0.3795744172652558
poul@@ 1
Black@@ 0.5354056313141823
sien 1
sale 0.46977791943299196
cath@@ 1
cumul@@ 1
elet 1
canon@@ 1
dent@@ 1
oste 1
assis 1
fav@@ 1
hard 0.31223643885358043
Obj@@ 1
Stu@@ 0.4752029073154324
interaction 1
candidate 0.3095551303996961
ig 0.3576162916589757
ussi@@ 1
eri@@ 0.5209075023931143
pension 1
ono 0.8791323860311874
titul@@ 1
Stein@@ 0.2724593107966489
Java 0.9165416571869031
arsen@@ 1
stage 0.14184649116633535
Kosovo 1
León 0.5677204289236604
Ok@@ 0.5846182924563685
actu@@ 1
costume 1
encyc@@ 1
Queen 0.2283359970536919
cali@@ 0.9733687511731126
Lawrence 0.5450741663934646
parado@@ 1
Rib@@ 1
Chang@@ 1
ston 0.5243226671594977
kon@@ 0.18758394464874603
pseud@@ 1
aller@@ 1
7,@@ 0.5759819058865678
1821 0.7818579090403343
Out@@ 0.5960129721369058
Unter@@ 0.12183298169309799
Martinique 1
nica 1
Mons 1
fru@@ 1
Baltimore 0.6049088579569667
promot@@ 1
Austin 0.5978631716546589
CNRS 1
alon 1
documentation 1
Peugeot 1
Corr@@ 1
toise 1
alo@@ 1
Histori@@ 1
Thur@@ 1
obstacles 1
1,2 1
Ey@@ 1
Style 1
Afric@@ 1
umb@@ 0.44929514852402674
Argent@@ 1
Rouss@@ 1
pyram@@ 1
hex@@ 1
eil@@ 0.7688891618197132
faction 1
Copa 0.31734126501481397
p. 1
triangle 1
angs 1
dyn@@ 1
jean 1
ègne 1
otti 1
neus 1
owo 1
Ann 0.6302870603513991
kat@@ 0.4572194079813703
diques 1
country 0.08709494084569377
opinions 1
relevant 0.9630447323249499
anta 0.5679959917533124
Allier 1
Stewart 0.5967955594402622
Broadway 0.5313282588910471
mographie 1
1809 0.9860870375908455
Geneviève 1
ashi 1
1826 0.901140259022796
Ep@@ 0.5866740720039249
Alaska 0.7266757595557434
cim@@ 1
mane 1
wan@@ 0.4551220269965576
Nation 0.7392620160482061
Nord@@ 0.20349778471217228
Relations 1
1827 0.9776453064779432
cis@@ 1
dog@@ 1
Bow@@ 0.4805464050948193
Mey@@ 1
Shar@@ 0.4677553892888645
är@@ 0.22573979870802713
venues 1
esi 0.45869293352159024
Justin 1
Loup 1
ako 1
Grav@@ 1
1500 0.5047557043578759
ellip@@ 1
ination 1
Kel@@ 0.5205443244467726
ass 0.286382827654263
porno@@ 1
estin 1
Theatre 0.25676648606413516
v. 0.32383593558751245
angers 1
1829 0.8585333471032578
Construction 0.6611230721956441
ris 1
Tw@@ 0.7099618336425937
awa@@ 1
sieur 1
soph@@ 1
Lens 1
industri@@ 1
lang@@ 0.46736491951970704
tet 0.2907280725757032
Sum@@ 0.4273868261569954
rasse 1
bap@@ 1
Lic@@ 1
Meg@@ 0.637373686294692
Main@@ 1
rob@@ 0.6065149318680735
FIFA 0.5152866024573308
Fir@@ 0.6821356591178604
merc@@ 1
Harris 0.5418911741966624
Cent@@ 0.6187508387799686
costumes 1
Jay 0.765249760987678
rio 1
stock@@ 1
cycles 1
Kurt 0.769099751709102
abre 1
tram@@ 1
ecclési@@ 1
350 0.6636211135894321
M.@@ 0.5284729148860201
ft 0.20370271474872365
Julia 0.9074662076355136
Arena 0.561025219618189
Valley 0.21413416500260096
900 0.5626542437363746
Gru@@ 0.622867003890776
continua 1
rain@@ 1
00@@ 0.4905495759703984
Garcia 1
supporters 0.8529820960582916
voyag@@ 1
Post 0.26729517736962005
ask@@ 0.6101053040242679
calc@@ 1
ongo 1
sez 1
ABC 0.4941287458583251
ingi@@ 1
fraction 1
trouble 1
arder 1
Ful@@ 0.8272073936076382
hyp@@ 1
Rousseau 1
niv@@ 1
Chemin 1
101 0.6713746548817234
audiovis@@ 1
nis 0.4496318540905855
sailles 1
Creek 0.2478791490514991
excellence 1
lact@@ 1
Fron@@ 1
septentr@@ 1
1816 0.8813908965378259
imens 1
ophi@@ 1
1807 1
invest@@ 1
ission 1
ole@@ 1
Brooklyn 0.6114532206535571
Ž@@ 1
Camp 0.5934613257213578
littér@@ 1
maintenance 0.8373723038649121
stoc@@ 1
trol@@ 0.9654285534231465
ativ@@ 0.9819415149145978
aup@@ 0.9199598691261062
J.@@ 0.6965771329954662
eck@@ 0.32731273119198634
grains 1
Civ@@ 1
raid 0.9238900114572081
pec@@ 1
Jerry 0.8198270948065695
water 0.07226119556052686
ONG 1
Mon 1
Nog@@ 1
tail@@ 1
TC 0.6542084137605774
Sporting 1
Danube 1
Consid@@ 1
tigny 1
CI 1
Pointe 1
Rach@@ 1
Jé@@ 1
mutu@@ 1
luxemb@@ 1
tamb@@ 1
Languedoc 1
zen 0.2301334345364018
Fac@@ 0.5319041981298963
sensibles 1
pital 1
Monuments 1
oku 1
supports 0.8714437298054533
IT@@ 0.6806959659130561
disciples 1
Voy@@ 1
instructions 1
war@@ 0.11603014503338459
Guill@@ 1
ency 0.235671837053204
obs@@ 1
ital 0.5179585164921339
Alberta 0.7923656490142795
Mang@@ 0.6794776529523541
Junior 0.3486525294986538
Rafael 0.7439737544487582
cus@@ 1
Aim@@ 1
ril 1
DI 1
ppe 1
jet 1
trim@@ 1
Céc@@ 1
oyer 1
ecture 1
0,0@@ 1
Grou@@ 1
Ray@@ 0.9370597784658905
erc@@ 1
ariat 1
Vinc@@ 1
carbon@@ 1
Rep@@ 0.8849429385406029
dragon 1
monast@@ 1
eppe 1
uf 1
Ardennes 1
Joan 0.8205613188066686
ancement 1
ther 0.4794396280370461
Bel 1
Lisa 0.9369555032132701
cipi@@ 1
Mikha@@ 1
diffic@@ 1
immig@@ 1
audit@@ 1
ete 0.21493413416910853
raci@@ 1
Avent@@ 1
Manhattan 0.6734835937446265
istère 1
gentil@@ 1
squ@@ 0.5159774173452072
Wrestling 0.5395290781775081
PCI 1
Space 0.43871448767610705
Fos@@ 1
Lef@@ 1
28@@ 0.5145328791438776
Compos@@ 1
ä 1
métropolit@@ 1
Graham 0.6249251567876027
1823 0.9599854302004803
Elisabeth 0.7596353561872089
gent 1
zz@@ 0.9332136997957583
sion@@ 0.41727258644393467
Brabant 1
Fu@@ 0.4987866180392368
hypo@@ 1
destin@@ 0.9762414329882112
frage 1
Maxime 1
chaux 1
Marche 1
dh@@ 0.6087197286086692
coéqui@@ 1
Atlas 1
Offici@@ 1
ultés 1
Top@@ 0.7449939716680566
Spe@@ 0.38000251067046986
eno 0.4738847315362754
Pla@@ 1
Poul@@ 1
Py@@ 0.8044575074762385
sach@@ 1
Condé 1
Nem@@ 1
flo@@ 0.26140475887696135
Salle 1
nil 1
serve 0.27495052230253786
Guadeloupe 1
quet@@ 1
stadt 0.2636600956448239
mie 1
natal 1
promet@@ 1
salari@@ 1
Cim@@ 1
Cog@@ 1
Wor@@ 0.3849400752479707
Pittsburgh 0.6133642247606195
ams 0.2595758756587845
Evans 0.68276689225027
Mant@@ 1
Italiens 1
ascend@@ 1
monopo@@ 1
caric@@ 1
usses 1
ár@@ 0.49648365774195286
laborat@@ 1
insul@@ 1
uki 1
Gaz@@ 1
1822 0.9211513065077599
1798 1
Crac@@ 1
Wright 0.5868121844286603
angla@@ 1
Productions 0.8737860858047827
Rous@@ 1
Abr@@ 0.7127040202213001
Frederick 0.469817431475417
Wurtemberg 1
Campbell 0.5821901836998481
Mozart 1
lots 1
Sky@@ 0.9204003809554855
Wh@@ 0.3992103075561077
Sic@@ 1
lins 1
entrepren@@ 1
interactions 1
Terr@@ 0.73066057142462
pol 1
lation 1
commis@@ 1
gramm@@ 1
Testament 1
rur@@ 1
Beng@@ 1
LA 0.4606767066762144
Centr@@ 0.8684183121635544
Town 0.21866723837797966
row 0.24010313481082582
rap 0.9691448181412771
Montre@@ 1
brun@@ 1
System 0.22758771975472047
iga 0.6001909486732233
Figaro 1
diers 1
Ve@@ 1
patron@@ 1
lav 1
vamp@@ 1
Dub@@ 1
plates 1
tant@@ 1
â 1
cruci@@ 1
encourage 1
Paolo 1
Bourges 1
oms 0.680491639798669
enade 1
Sony 0.684986725989197
paroissi@@ 1
abolition 1
restruc@@ 1
Hong@@ 1
29@@ 0.5478607842811654
hou 1
pause 1
œur 1
mouv@@ 1
signale 1
ü@@ 0.1780408820110142
Fen@@ 1
Istanbul 0.9870272461460492
arcade 1
1818 0.8289989115303102
ication 1
Moy@@ 1
propulsion 1
permanentes 1
orch@@ 1
alia 0.5370896441861571
client@@ 1
ferrovi@@ 1
Martin@@ 1
ectes 1
D.@@ 0.8146750970149338
tuy@@ 1
Audi@@ 1
orchestr@@ 1
Azur 1
confrontation 1
Var 1
emi 1
lys@@ 1
Is 0.3579769899861217
archiv@@ 1
aca 0.39293098788785813
décl@@ 1
win 0.09337366809047243
Wagner 0.8550521345474976
pili@@ 1
tention 1
dal 0.9263515017512743
chô@@ 1
liban@@ 1
euf 1
intersection 0.8079061229242587
Charlemagne 1
Rochefort 1
sto@@ 1
para 0.015449219682572325
Lorient 1
alogie 1
Auxerre 1
dispositi@@ 1
multip@@ 1
wa@@ 0.3741756411543161
extrémit@@ 1
illustration 1
pét@@ 1
hiz@@ 1
absten@@ 1
avi 0.9017094460688486
key 0.17911442685456597
Alex@@ 1
ango 0.9026199394480511
cis 1
écur@@ 1
FK 0.9309892201710261
Bret@@ 1
sain 1
mas 0.8430794536819349
landes 1
rite 1
1.@@ 0.16839494368079536
beek 1
enko 0.8865127720310254
acr@@ 1
vois@@ 1
Dakar 1
Aude 1
ī@@ 0.598122978887352
Walker 0.5121504814697876
ult 1
Publi@@ 1
sah@@ 1
township 0.6178246634185834
Nature 0.8706000716202157
relate 1
Clé@@ 1
18,@@ 1
infiltr@@ 1
Bec@@ 0.8340115198508464
hygi@@ 1
King@@ 0.7788215366841588
ingr@@ 1
1804 0.9958722024076663
Alabama 0.46682800491574494
Royale 1
Fig@@ 1
1811 0.9404165220979455
yne 1
infection 1
kel 0.3841794720423243
Viol@@ 0.734101152875975
amar@@ 0.7522531176672359
omo 0.7451834382165401
asy@@ 1
outs 0.5959854982555842
Gold@@ 0.38980821214532474
Honoré 1
Thompson 0.5511580547940373
ritu@@ 1
pag@@ 0.5909461670399628
canc@@ 0.6324842696319712
filtr@@ 1
gres 1
atum 0.8040910134146484
Mayenne 1
param@@ 0.8900224803913855
vast@@ 1
Champions 0.46508756055052564
Ib@@ 1
1817 0.8986593728720346
env@@ 1
infrastructure 0.7513424498342022
Gy@@ 0.9368374948543481
saga 1
uler 1
Will 0.5793706708913455
accum@@ 1
exclusion 1
ago@@ 1
rou 1
Vert 1
centage 1
troph@@ 1
forcement 1
unier 1
chol@@ 1
lay 0.6016570832053758
airs 0.6742533227193498
Origin@@ 1
uck 0.6999372619975318
Jord@@ 1
bride 1
dign@@ 1
Lycée 1
140 0.6330830123091461
shire 0.4955612330750702
indo 1
gré 1
Conrad 1
1,3 1
Duf@@ 1
Alg@@ 1
substances 1
ii 0.66781960652596
bra 0.6793696918380521
opot@@ 1
taxes 1
25@@ 0.5414259863373866
aube 1
Marianne 1
pairs 1
ê 1
BD 1
pertin@@ 1
zen@@ 0.540107427545209
ilo 0.5756254186476223
aer@@ 0.5467983323617285
escor@@ 0.856336574637692
cia 0.7804204765562248
destroyers 1
amph@@ 1
ctu@@ 1
suic@@ 1
García 0.505570036553115
ernes 1
philosoph@@ 0.5552817667765777
Bucarest 1
Andal@@ 1
FL@@ 1
enth@@ 0.7433767888293266
uces 1
Radi@@ 0.4528447252543037
Casablanca 1
sessions 0.8952038877484968
Rotterdam 1
Chirac 1
évision 1
Bourg@@ 1
ophile 1
Brande@@ 1
com 0.9228133799380938
IF@@ 0.8716373136310184
Capr@@ 1
contraste 1
Old 0.20634031608060058
Mén@@ 1
Phil 0.7670452997245948
Dig@@ 0.9941569241872775
onville 1
vent@@ 0.8814929105175267
fiques 1
Cla@@ 1
acht 0.1726087948398362
porte@@ 1
pare 1
pous@@ 1
segment 0.8031959988372267
Coll@@ 1
Estr@@ 1
roid@@ 1
Sci@@ 1
patin@@ 1
1780 1
1799 1
Fair@@ 0.48521814792023993
music@@ 1
fusil 1
vention 0.7260755271529505
Will@@ 0.63174578140389
masses 1
Hem@@ 0.4940541846706244
TO@@ 0.8851165638880885
én 0.4947550962898119
Landes 0.5264757638031442
0,5 1
Marin 1
lum@@ 1
récu@@ 1
Adé@@ 1
Principe 1
compatible 1
tat@@ 1
Simpson 1
regard@@ 1
issy 1
edo 0.5518059629326472
Cler@@ 1
Geoff@@ 1
Boeing 0.8573083966539765
natures 1
Étu@@ 1
Stat@@ 0.7111944279186283
traumati@@ 1
Di 1
lum 0.48999110576744415
Chen@@ 1
Jorge 0.5360662952190762
Shakespeare 0.9184359150086865
dicap 1
Joachim 1
engr@@ 1
thor@@ 0.5564657771144014
DO@@ 0.7080732249889633
eland 0.43123702000976855
Pis@@ 1
etc 0.45326902654847084
Christ@@ 0.5081713843688398
Stars 0.5758360065520343
saxoph@@ 1
Chil@@ 0.4648027684375047
1819 0.905085350697305
40@@ 0.510264572403407
Dresde 1
Stuttgart 0.555436391287692
Was@@ 0.6434868404609514
enay 1
Kō@@ 1
grou@@ 1
Fland@@ 1
AA 0.5073404442091735
commissions 1
Rat@@ 0.5350258185549924
Merc@@ 1
latitude 1
Valenciennes 1
ingt 1
rol 0.7486747845408522
Harrison 0.658953521446179
Ant@@ 0.9766473504243621
Cic@@ 1
Sidi 1
Pent@@ 0.9012594251476924
isy 1
Wang 0.7396410335383917
apeuti@@ 1
centen@@ 1
gir 1
Card@@ 1
Network 0.3330640269950269
abstr@@ 1
Lep@@ 1
oxy@@ 1
AB 0.6987840826487074
Forest 0.3673649374607126
Que 1
idon 1
rites 1
aphy@@ 1
PO@@ 0.7532188846572221
bio 0.7767947404838152
mement 1
Rudolf 0.5772857185099753
bet 1
È@@ 1
alyse 1
terminal 0.6019203191113358
Jol@@ 1
î 1
AL 0.7963294911971351
CP 0.8672933198159953
Damas 1
day 0.04935266306711944
Eus@@ 1
Bond 1
fos@@ 1
ogo 1
jan 0.733251648387544
idi 0.7245192320532006
nic@@ 0.7376977306833963
Campagne 1
Matthew 0.6132777966243261
Ghana 0.7980295895818829
corr@@ 1
mam@@ 1
tri 1
Spor@@ 1
iz 0.602467840990927
asi 0.6649002404408626
esh@@ 0.41953951972369696
Fili@@ 0.7753949727629942
bac@@ 0.7510470405266652
tibles 1
lock 0.3933085319330718
wer@@ 0.17656739058284926
Army 0.09224463709481996
ignées 1
embre 1
multi 0.45067533816870964
icie 1
hind@@ 1
Hérault 1
incul@@ 1
plantations 1
zu 0.010201331963968698
alien 0.9409575987124166
Alt@@ 0.35907926622881253
Poznań 1
aule 1
Ler@@ 1
comités 1
astres 1
cyc@@ 1
Boys 0.4841142282916005
infr@@ 1
indon@@ 1
Bangladesh 0.6419809607940735
Patrice 1
aing 1
arn@@ 1
ga@@ 1
édrale 1
ive 0.9021676280898304
got 0.21981384296294387
Gamb@@ 1
Neil 0.7739601475014415
cardin@@ 1
excellent 1
Richelieu 1
Vice 0.4717880369947959
Hos@@ 0.9806643456150653
Marx 1
colombi@@ 1
Cook 0.699563346490713
allo@@ 0.8499479942911645
cid@@ 1
invasi@@ 1
zan 1
Silva 0.8629278433506369
franc@@ 1
orium 0.7443174819476555
wilaya 1
Hell@@ 0.9990101141040428
Parisi@@ 1
mauv@@ 1
Linux 0.8646149546115306
radios 1
Imag@@ 0.967533671954317
Note 0.6497664963000513
wick 0.6066894359173558
Angel 0.768311258721057
susceptible 1
Just@@ 1
conforme 1
sar 0.7348529109045813
manuel 1
Charleroi 1
Hag@@ 0.7058947370196856
Mog@@ 1
cig@@ 1
lith@@ 1
than@@ 1
Moldav@@ 1
Palatin@@ 1
déch@@ 1
Stefan 0.8599670017745393
diagnos@@ 1
divine 1
1805 0.9206586951601897
ouc 1
August 0.03086590975936699
First 0.10947880650405105
Pag@@ 1
aman@@ 1
Beauvais 1
Yvelines 1
Bobby 0.7780877702657866
Harold 0.768161017655508
codice 0.5628721672740596
diment@@ 1
envel@@ 1
Cao 0.8396085769349305
Mai 0.09858181831989908
aris 1
imi 0.719632726858971
Hak@@ 0.8577705094857868
Impact 1
tort 1
Annie 1
PP@@ 1
TP 1
Matth@@ 1
engagements 1
Jour@@ 1
sheim 0.7857683217325158
1,6 1
GP 0.9776934148779068
GE 1
Tru@@ 1
antiqu@@ 1
lions 1
War 0.04838326567962614
SM 1
ME 1
indispensable 1
By@@ 0.7412873948723752
olig@@ 1
Dark 0.6406864043092881
dem 0.00847787210411364
Eli@@ 0.9240340402542999
Cay@@ 1
PR@@ 0.9142265402364306
Mines 1
Og@@ 0.9070070870840405
160 0.589151154596504
1796 1
Vietnam 0.33783536078741055
Liga 0.15894134196750243
105 0.6707480354748854
Wayne 0.6204474076801049
Lorenzo 0.9024228688780546
inaugur@@ 1
tral 1
Maryland 0.3812302548304965
expressions 1
satur@@ 1
Ambro@@ 1
Hydr@@ 1
lou 1
hique 1
ikh 1
file 0.6998345882335535
auer 0.3159482154498092
Belle@@ 1
Hudson 0.6774061699870804
minorit@@ 1
Lie@@ 1
Band@@ 0.4528843634190849
Arras 1
Bush 0.6038589164284244
Industrie 1
occasions 0.7539286455392219
vibr@@ 1
Sauveur 1
ibl@@ 1
Party 0.08545315943690084
Morris 0.5953524942847594
Baker 0.5931438069886887
robus@@ 1
Aul@@ 1
Saf@@ 0.7146003192232465
aries 0.19289767555881854
compare 1
chances 1
Up 0.40886982920415993
Poitou 1
duction 1
maf@@ 1
ás 0.7249605606717483
supporter 1
IF 1
Montmor@@ 1
dys@@ 1
cht@@ 0.5414883445835368
Eddie 0.8025444650997217
Identi@@ 1
Sign@@ 0.7184193177377189
indication 1
inflam@@ 1
initiatives 1
igh@@ 0.264529457727776
ór@@ 0.6374642070609493
iges 0.5566259832569405
tos@@ 1
arrang@@ 1
sis@@ 1
mart@@ 1
Oslo 0.918734400285002
angu@@ 1
Indiens 1
Mâ@@ 1
1797 1
communau@@ 1
GM 1
Band 0.1404824265480144
Gard 1
Magh@@ 1
kil@@ 0.7576954412510108
50,@@ 1
Sofia 1
plantation 1
encer 1
pers 0.3718003791299828
Sarthe 1
cluse 1
sun@@ 0.3823497810804068
Dest@@ 1
Ple@@ 0.9025595589884516
vières 1
Ost@@ 0.26022745776833844
Cô@@ 1
tripl@@ 1
aj 0.5556167610609469
serg@@ 1
Collection 0.8275824975693229
seau 1
Juli@@ 1
iliens 1
Oregon 0.40492532078317583
Sang@@ 0.9296898662320303
obj@@ 0.49219470193137593
flexi@@ 1
Mét@@ 1
polar@@ 1
prin@@ 0.9810947374786501
Œ@@ 1
Lil@@ 1
borne 0.825645938604478
empl@@ 1
Tel 1
pan 0.7682818090965564
tranqu@@ 1
Kun@@ 0.5296726545347035
mercen@@ 1
pill@@ 1
RDA 1
trot@@ 1
socio 1
otro@@ 1
pot 1
Programme 1
luc@@ 1
enus 1
Finale 0.4198925107558237
citation 1
Ley@@ 1
inser@@ 0.9949845220230998
Clau@@ 1
gier 1
IG@@ 1
exten@@ 0.7429572507085487
enton 1
Gel@@ 0.3346755780508155
Birmingham 0.5397343464171078
Constance 1
24,@@ 1
enburg 0.3496506679829026
ect 0.22913429091791437
bler 1
Western 0.1190548051623425
Inf@@ 0.7815816750270885
oo 0.5583932314739051
BA 0.44591138894089977
noise 1
B.@@ 0.6912083430602732
LP 0.4662231561760912
Liu 0.9303356046708169
agnes 1
Colin 1
otype 1
Beatles 1
pres 1
bra@@ 1
criptions 1
hydrau@@ 1
axi@@ 1
Airlines 0.6416609197252272
ato@@ 1
sal 0.4478118663480775
Nati@@ 1
oses 1
aki@@ 1
Vegas 0.6806954890710353
nutri@@ 0.9424987641053743
alternatif 1
Connecticut 0.46041133583083954
joy@@ 1
Chou@@ 1
ambre 1
moni@@ 1
chanc@@ 1
nad 1
transit@@ 1
Fun@@ 0.6031356024782003
Tommy 0.8123940695739879
alc@@ 1
minor@@ 1
Classification 1
fines 0.6671418104138672
Luke 0.7673786470256934
appe 1
Wer@@ 0.25420510339126273
Norman 0.5299501387363277
RT 0.6599383879678251
Bayonne 1
verses 1
Boy@@ 0.8347714179418924
concurrent 1
ely 0.10970069918394296
Bous@@ 1
4,5 1
Marina 0.8989521652561571
band@@ 0.4987690925515211
dei 1
néerland@@ 1
leau 1
Exempl@@ 1
Raw 1
Sev@@ 0.8893936808603771
Dy@@ 0.7470699409831292
Sky 0.6123556892716594
USS 0.5997649733776632
antan@@ 1
Railway 0.20029091298167562
oré 1
Sources 1
Fame 0.4130849523630426
dit@@ 1
kal@@ 0.26333812059649997
iner@@ 0.7764524883618162
german@@ 1
NS@@ 0.6194677427353488
Nab@@ 1
Méd@@ 1
Omar 1
ress@@ 1
cler@@ 0.5954693667089662
Johan 1
Mitchell 0.6123086320816227
Raf@@ 1
Standard 0.5138355027900587
absorb@@ 1
mel 0.9399265852085902
Doc@@ 0.6155182708904454
charts 0.54130594091936
Chir@@ 0.9903459238566422
combustion 1
Turner 0.6245534190389407
catal@@ 1
lière 1
oriente 1
50@@ 0.44294605891843536
20,@@ 1
raids 1
Pérez 0.7069365780078829
Ralph 0.7332738406209506
pertur@@ 1
imm@@ 0.8833365161780137
ats@@ 0.39640843142547055
Haz@@ 0.679464406269303
Atlan@@ 1
ectu@@ 1
ving@@ 1
Lamb@@ 1
isser 1
conting@@ 1
icide 1
adaptations 1
corn@@ 1
360 0.6838033160671415
hur@@ 0.36406267066481196
pell@@ 1
Sha@@ 0.7211921066824692
lip@@ 0.7193567869390649
distribut@@ 1
golf 0.8517080328921465
Rico 0.49301098903766355
Bud@@ 0.6304130150056518
Films 0.4907439726832089
onnaires 1
ilienne 1
ornith@@ 1
Arsenal 0.9376506628726746
astes 1
Bois@@ 1
Nassau 1
Kentucky 0.3972862595263021
35@@ 0.509235700672905
ough 0.32580552791534184
transcription 1
Medi@@ 0.34551879793484297
Human@@ 0.6519565591755617
Pyramide 1
grap@@ 0.983095321784369
endur@@ 1
18@@ 0.5210675567833682
haus@@ 0.8027419756785792
aune 1
cue 1
gro@@ 0.33600449808182664
injection 1
Nob@@ 1
Project 0.3444092450678804
Domin@@ 0.768230423389002
polis 0.7075880547862745
ide@@ 0.19167782089615623
verb@@ 0.629535923274934
colspan 0.40258013755467226
ventr@@ 1
Achille 1
Gat@@ 0.8342012159946808
ffer 0.8437222172576728
Wolfgang 0.5832140410535644
Â@@ 1
MI 1
isible 1
iti 0.8636922418460495
Jon 0.762217657106363
standards 0.4520571053275585
ampl@@ 1
euro 1
substanti@@ 1
Châtillon 1
pirates 1
Kazakhstan 1
Phase 0.787657002933698
stars 0.2541469579815425
CB 1
Yam@@ 1
consultation 1
Macron 1
Facebook 0.7155838096896432
aéri@@ 1
pseudo 1
management 0.1910100301335424
huiti@@ 1
ymologie 1
Cincinnati 0.7203542125003721
inaug@@ 1
Warren 0.6132117320360306
indis@@ 1
Quali@@ 1
acles 1
19,@@ 1
blind@@ 1
Va@@ 1
ame@@ 0.9177386730716413
déficit 1
Gram@@ 1
tarde 0.2349434910533792
gende 1
DE 0.8379585706678855
eti 0.5808207831031322
uranium 1
Rin@@ 1
sic@@ 1
gel 0.8219825341319257
glacier 1
nome 1
Ś@@ 1
Autom@@ 0.6007785626824147
Jug@@ 1
classi@@ 1
cz@@ 1
dimen@@ 1
Soul@@ 1
yu 0.7932034557878378
Roux 1
Site 1
mitig@@ 1
chair 0.46621532099290014
Disco@@ 1
Neuchâtel 1
strat@@ 1
Pokémon 1
Gav@@ 1
N. 0.5423483719505576
wal@@ 0.24002294907817112
dar@@ 0.28391597666526697
Qatar 1
copal 1
guet 1
jol@@ 1
Manif@@ 1
ding 0.15384994385223738
Mountain 0.31186286974266886
1,4 1
Universal 0.5162210639473559
Ivan@@ 1
fiscal 1
fan 0.5120949706895729
ventions 1
Batt@@ 0.7616629284757553
transport@@ 1
modest@@ 1
lama 1
Tap@@ 0.8172740117092947
agnol 1
astron@@ 1
CM 1
Lah@@ 1
osaurus 0.929658713592797
stal@@ 1
DP 0.5838328298006731
acer@@ 0.8467828968374517
dio 0.2220791014652923
P.@@ 0.8326618324239398
andin@@ 1
emple 1
anec@@ 1
Sebastian 0.7734307463327381
Clara 0.9160275838967682
Monument 1
entrev@@ 1
amphi@@ 1
Double 0.976919247595274
O. 0.7227948677555875
avent@@ 1
dorf 0.31599953522468716
ls 0.2510053787323565
Roosevelt 0.779865355399479
Rhodes 1
sat@@ 0.6757939969908568
orit@@ 1
Channel 0.33816192623024466
Dick 0.7181128909780418
apper 1
Yu@@ 0.8365672607174199
Ken 0.726779217000917
brillante 1
Sri 0.3660334439391564
TS 0.7160562035555461
oso 0.2078929170706341
applic@@ 1
sand@@ 0.4353074463531005
ways 0.1801695007183987
Collins 0.6503170142606948
Bris@@ 1
Danny 0.8277423250491724
Sas@@ 0.8213186299019817
117@@ 1
militante 1
Stor@@ 0.5634568754905915
argument 0.9347344843777219
Mode 1
Tac@@ 0.7666243599698894
alogue 1
encer@@ 1
Baron 0.4529383746956505
tubercul@@ 1
Gustav 0.6568480528415348
Pacific 0.18009482550689784
Shim@@ 1
Leclerc 1
other@@ 0.5095009517011901
Lloyd 0.622268845574467
him@@ 0.8505658476363859
siv@@ 1
dice 0.3588519571601864
Guatemala 0.6729476830553536
ivre 1
mation 1
Jacqueline 1
amental 1
Hippolyte 1
arguments 1
I.@@ 0.7334485070313005
verne 1
aku 1
Tag@@ 0.5403597299593892
nova 1
pétr@@ 1
May 0.03710106874681078
hem 0.8248369276756763
Lud@@ 0.8973381986422704
crits 1
Marion 1
Der 0.017085978847141314
Josef 0.49484323053280216
Pont@@ 1
quot@@ 0.8376575472319635
tha 0.5423065583868142
transpor@@ 1
extra 0.4526469992364401
nan 1
CIA 0.9672948007297789
Rica 0.703642697712322
Oran 1
relat@@ 1
yor@@ 1
fret 1
insec@@ 1
7,5 1
Dôme 1
Presse 1
dialog@@ 1
nel 1
questi@@ 0.7479708969349957
Call@@ 0.8511093330420828
Just 0.5285291508162877
Cyr 1
114@@ 1
xie 1
Produ@@ 1
see 0.09100265626291286
Islam 0.5304993806377811
Oklahoma 0.42652326463271495
mites 1
ror@@ 1
agh 0.9470384115775191
écla@@ 1
chs 0.7588483955832787
SF@@ 1
2.@@ 0.1579066415957921
Bill@@ 0.8717814203664088
cinémat@@ 1
Raj@@ 0.3514886676234108
Lima 0.6164002459338435
Sot@@ 1
iert 0.13500019955961934
Cra@@ 1
Mathilde 1
umière 1
č 1
RI 1
e.@@ 1
33,@@ 1
Gul@@ 0.6631518363255039
Angola 1
Italien 0.4646637780537203
omp@@ 1
insky 0.8410887740895852
22,@@ 1
nch@@ 0.9455666367333174
Influ@@ 1
Norm@@ 1
dioc@@ 1
Caz@@ 1
IP@@ 0.6868248328920786
Chat@@ 1
Wisconsin 0.31625103974489305
Vent@@ 0.9084294876012174
Who 0.49668227574517515
respirat@@ 1
uke 1
evo 0.9031491794021496
Côtes 1
ink 0.5429781578783915
Particip@@ 1
FN 1
cardi@@ 1
Phoenix 0.6287795819865849
Malo 1
vez 0.10381875720024691
expertise 1
embran@@ 1
Sour@@ 1
cann@@ 1
dispens@@ 1
amer@@ 0.6447311017853357
conspir@@ 1
Clem@@ 1
conventions 1
tide 1
hos@@ 1
biom@@ 1
Vilaine 1
Antoinette 1
kol@@ 0.36226652971682394
Fritz 0.6318180887067097
Green@@ 0.4970551633928698
To 0.12748533770579673
terrible 1
116@@ 1
gives 0.3344934455967696
ps@@ 0.7943533187500298
Serie 0.2058327525786292
Amaz@@ 1
Fant@@ 1
Osaka 1
Rick 0.7290658814093265
www.@@ 0.8217441247571237
Fan@@ 1
ush@@ 0.3775922470069093
rar@@ 1
Roubaix 1
orgi@@ 1
Paler@@ 1
BC 0.2222671859149851
Cloud 1
Salz@@ 0.9075149983458493
Mongol@@ 1
PIB 1
isch 0.07151566207326486
aman 0.8274201460102862
restrictions 0.9596229362247299
directions 1
efficient 0.779355841270413
ineau 1
Julius 0.6257218018001
Newton 0.7555581279685355
bridge 0.16199095651165318
Alonso 1
Bla@@ 1
Eau 1
bet@@ 0.4849530102967124
ento 0.31035961641766313
dor 1
Nie@@ 1
leaders 0.267139704866981
Off@@ 0.46025820996577016
ep 0.38950886486489095
geur 1
Associ@@ 1
Pie@@ 1
2,4 1
ories 0.327785778928916
polo 1
Lak@@ 0.5612245141762519
Universit@@ 1
collision 1
oka 1
Niger 1
PN@@ 0.9940273089126895
recycl@@ 1
anom@@ 1
European 0.07474308791955647
hostile 1
low@@ 0.30895429144715997
ogne 1
Wolf 0.5506181352985434
vot 1
lip 0.7005337573429089
Wel@@ 0.368210661430866
marathon 1
Queensland 0.35184798337828777
Bras@@ 1
Adap@@ 1
azz@@ 1
eption 0.8886027965372122
Wood 0.47854198384075336
Holstein 0.8152191608464704
consensus 1
nas@@ 0.8170834686476449
perform@@ 1
xy@@ 1
Bristol 0.5734720030526
Diane 1
fail@@ 1
Montau@@ 1
Out 0.3651187720423696
kan 0.42729219359345
torture 1
ât 1
conclusi@@ 1
1788 1
Tō@@ 1
û 1
Bull 0.9339112234209782
36@@ 0.6573217397071596
dispon@@ 1
Foundation 0.20749822506209092
Vul@@ 0.6872705559152809
phyl@@ 1
Santos 0.6496634010260761
liquid@@ 1
ouin 1
fr 1
senior 0.17245771075152386
Gray 0.6462483477662223
Harvey 0.8139759017177567
nam@@ 0.36738348161720397
effective 0.3282686913954511
Biz@@ 1
destitu@@ 1
arith@@ 1
Hassan 1
Pauline 1
López 0.5397351878096605
lass@@ 0.842012435701368
suscit@@ 1
Ec@@ 0.6041945406483484
ael 1
inten@@ 0.8045086664479513
may@@ 0.349959330795753
yes 1
Mong@@ 1
analog@@ 1
tar 0.3657815323884181
ophone 1
lop@@ 1
gy 0.5424205356494652
imental 1
agin@@ 1
GA 0.9127038442229969
Strat@@ 1
anthropo@@ 1
immigrants 0.7593588388600643
Utah 0.509056012465162
from 0.003962871195604518
MS@@ 0.5840205848482237
Hey@@ 0.7527411603957661
Tax@@ 1
missariat 1
Gur@@ 0.5389521661573979
pos 0.5976094825629107
tou 1
Girl 0.46748639419319576
Port@@ 0.8887420189390456
Polyn@@ 1
ör@@ 0.25682808846879845
25,@@ 1
Aer@@ 0.5833913134693822
sberg 0.5254446711391679
segments 1
ste@@ 0.10416439071750003
1775 1
spor@@ 0.9084913199844313
camer@@ 1
options 0.9492813387792114
Micro@@ 0.6798705073856889
Of 0.23016186249192566
arom@@ 1
CM@@ 0.9101378014832973
bey 0.7635662977555056
dha 1
33@@ 0.6146699944732025
Balkans 1
Cross 0.26664698744923965
EL@@ 0.9752954015518983
Milit@@ 1
Platon 1
tex 1
icor@@ 1
Activ@@ 1
Soc@@ 1
allo 1
ivi@@ 1
rid@@ 0.6873920935734468
donation 1
kam@@ 0.6135540972425302
pora 1
Ferry 1
TT 1
1784 1
Yos@@ 1
ren 0.5878617699614023
octo@@ 1
austr@@ 1
consultant 1
een 0.37937130275410885
ocre 1
CFA 1
Carcas@@ 1
inski 1
Freud 1
lar 0.15735256338109113
1,8 1
hie 1
osaur@@ 1
Keith 0.699744565605571
Terry 0.6621100480104793
Comment@@ 1
1770 1
lets 0.36162955594498564
Ce@@ 1
contempor@@ 1
ensi@@ 0.5262378074276501
Dani@@ 1
eon 0.6695653841083493
Erik 1
folkl@@ 1
ISO 0.9205366955650125
dest@@ 1
got@@ 0.712376214957017
inet 1
Tang 0.9796014938214411
arre 1
Churchill 1
Beg@@ 0.376987564127116
Castro 0.7346411218190775
onnie 1
liner 0.9476434410784526
ingo 0.890623398773123
Wis@@ 0.8732476947180314
tico 0.24449809852697585
uld 0.7197261890223134
transvers@@ 1
Business 0.2774454516855976
Portug@@ 1
tul@@ 1
paravant 1
Gom@@ 1
toi 1
ardo 1
aton 0.9694307832580361
attractions 1
instances 1
Sarr@@ 1
Nev@@ 1
Pra@@ 0.8271398596161786
itte 1
tester 1
autrich@@ 1
sanctions 1
ń 1
Fat@@ 1
Sèvres 1
ring 0.2015526699457602
compression 1
town 0.04795825746658738
Rey 0.5795013977376213
Nova 0.5401657220170816
Geor@@ 0.7373689642895576
explorer 1
oum 1
Hard@@ 0.5571835407207718
ograph@@ 0.6255044395446856
Dag@@ 0.7514139666951608
escu 0.8964433647972008
IA 0.9175045538848858
2,3 1
Gallery 0.42691298310146847
bs 0.16148063491307021
Base 0.497596128216345
Belfort 1
alet 1
ët 1
Quer@@ 1
cod@@ 1
casting 1
ussy 1
1,1 1
alan@@ 0.6252396341866924
omb 1
dent 1
toil@@ 1
Tad@@ 1
Pand@@ 0.9044537815824156
ara@@ 1
rs 1
euv@@ 1
reporter 0.8909934083548681
Eva 0.8601655024297405
DS@@ 0.8844805879928576
ju 0.8528149646134142
ylo@@ 1
0,1 1
Person@@ 0.5791611296875285
fluor@@ 1
synchron@@ 1
Portland 0.5157511949823113
confér@@ 1
vier@@ 0.37133420308596526
Libre 1
Qui 1
Barn@@ 0.7130760633319884
Dra@@ 0.7165847285022716
oud@@ 1
Gag@@ 1
Your 0.40067433881705633
Nathalie 1
fat@@ 0.8862492903116351
Box 0.6736227136444929
ego 0.5066794746245384
Wehrmacht 1
Moreau 1
Holmes 0.9004161854344557
Noy@@ 1
ainville 1
Via 1
mitage 1
Berkeley 0.7013592278270133
ulu 0.8973041800164431
emper@@ 1
Cherbourg 1
Rud@@ 0.6963954787258547
Tem@@ 0.5434844012898494
ator@@ 0.43729340368305575
Doubs 1
avo@@ 1
Westminster 0.8999590302105387
27,@@ 1
Ardèche 1
Andreas 0.5624418610167274
maxim@@ 1
Deutsche 0.2837998540062199
absorption 1
imit@@ 0.8962072014738274
male 0.19364698107874043
Parti@@ 0.6367672873713924
Yonne 1
discrimination 1
Wak@@ 0.761014797551116
Citroën 1
Over@@ 0.3570609273859813
eme 0.4048125078033656
Meyer 0.8163327110456519
Lob@@ 0.8251095730402523
BM@@ 0.7171702601873207
odor@@ 1
AN 0.7279579535901437
extrê@@ 1
Neuilly 1
aissances 1
her 0.010695800608391976
mant@@ 0.6664975354953995
Be 0.51590605214862
Leo 0.5404529901995939
Juliette 1
1783 1
igt 1
Cha@@ 1
onte 0.8363352235231477
Canadi@@ 1
α 0.2978111840803206
Quim@@ 1
Twitter 0.738371274796634
rail 0.35886039081053744
saur@@ 1
juris@@ 1
1600 0.7878454660415768
mark 0.24072135224674404
Á@@ 0.5657711493517928
bio@@ 1
termina 1
Global 0.3945981070875543
matricul@@ 1
Men 0.20368460752933967
coph@@ 1
grain 1
ellen@@ 0.8224288813453392
Laborat@@ 1
suj@@ 1
Monta@@ 1
bec@@ 0.9890920840377977
Antarc@@ 1
34,@@ 1
Bin@@ 0.8009879511740746
Hilaire 1
Public 0.1722055531156484
ð@@ 0.8812439172404879
Cle@@ 0.5786740165575118
grad@@ 1
sacrifice 1
ng 0.5379340490458304
Max@@ 0.9149315423268285
Babyl@@ 1
Nil 1
Que@@ 1
1750 1
resse 1
Grandes 1
ers@@ 0.4283492261681738
amorph@@ 1
Hugh 0.6202379566542641
subdivision 1
êque 1
Champ 1
oga 0.5989072591042954
yro@@ 1
igration 1
mau@@ 1
Church 0.07522391451002654
apa 0.5234545481373802
phant 1
sets 0.29307217929567775
Nombre 1
anch@@ 0.6042124047643644
Say@@ 0.6676532967519718
phine 1
og 0.6487319066180091
Castell@@ 1
macul@@ 1
orne 1
sz@@ 0.6573012139692849
oki 1
Clinton 0.5768917851966545
Pasteur 1
trail 0.8248743654722788
Do 0.3504749924587304
Larry 0.6864949515193557
Armstrong 0.8567855736801494
Brothers 0.45018963461563766
D1 1
Voltaire 1
escar@@ 1
nuclé@@ 1
Paraguay 0.7625793049451731
Lions 0.698180450579838
Sergio 1
Dir@@ 0.9158517612551255
Zi@@ 0.37599839988696443
uf@@ 0.4081324408423177
urus 1
Wimbledon 1
expér@@ 1
signat@@ 1
Rum@@ 0.5713428061086464
essis 1
archev@@ 1
atrième 1
accio 1
Alexandra 1
Sauv@@ 1
els@@ 0.3872325002847115
Guér@@ 1
Sach@@ 0.6465058474317725
arp@@ 1
Julian 0.8528794853143443
Werner 0.5922219254468765
pus 1
elia 0.6216950298815813
Pictures 0.5407629944648411
Wes@@ 0.4410392722304099
rements 1
Ron 0.716690740656552
Ts@@ 1
incidents 1
Anth@@ 0.8600425504162488
Lucie 1
arches 1
Voyage 1
37@@ 0.6367838142181393
appell@@ 1
Book 0.2646046673057774
North@@ 0.5436695856080992
anglic@@ 1
cogni@@ 1
apos@@ 1
til 0.6715329130640945
102 0.6804967339625887
39@@ 0.7044527986167983
SI 0.8607000319254275
Zhang 0.9117164501145509
Calvados 1
Ish@@ 0.9856756723197974
biot@@ 1
Aube 1
Flo@@ 0.5813276857100116
parap@@ 1
illance 1
thel@@ 1
Hug@@ 1
ark@@ 0.28425105135459866
aper 1
Feu@@ 1
Artois 1
34@@ 0.6063537084585068
Miy@@ 1
rell 0.6560489976715909
Müller 0.5926810852484322
vić 1
Río 0.32769774250367373
motions 1
Sax@@ 1
Gin@@ 1
Thess@@ 1
Gard@@ 1
Susan 0.7103082985220872
eria 0.5934095089308077
ougou 1
vidé@@ 1
red 0.07545027188511497
collo@@ 1
ā 0.6418045735124848
kar 0.5330779699417206
Æ@@ 1
mos 0.5856444716697241
Hass@@ 1
etz@@ 0.32107600179475015
Westph@@ 1
Lieutenant 0.4048729248460087
Allan 0.92620214845528
1787 1
Angelo 1
Rho@@ 1
ao@@ 1
sins 1
26,@@ 1
Wild 0.5557615146109004
absent 1
Dead 0.5505997441692718
animales 0.8007199246444505
ovi@@ 0.9855396734757418
edi 1
tible 1
Roman@@ 0.5677236060971224
Wells 0.7523660884466747
ander 0.5440168371372922
Fabr@@ 1
Kate 0.7913488557640267
ò 0.9355938961489033
aza 0.5074864422903851
stock 0.3105407993002353
450 0.6494560601110531
eline 0.5538141602548982
´ 1
Santo 0.4908583749653347
kel@@ 0.2961793739322609
NR@@ 0.8205820600800593
uka 0.9060860910552574
améric@@ 1
star@@ 0.3307739433356539
convertir 1
combustible 1
SV 0.4562619974505436
Wy@@ 0.6232836973470643
ilia 0.8608537405883
Mob@@ 1
enr@@ 1
æ 1
ympi@@ 1
Cli@@ 0.7717512942385275
Rachel 0.9100990303296311
einture 1
instruc@@ 0.8174893637428039
constant 0.5638016191014401
Orne 1
Light 0.3477942912506673
bli@@ 1
Information 0.43537519007504877
ady 0.4749309137191573
Cohen 0.9919793480593139
fiable 1
Free 0.325630097057226
orig@@ 1
ved@@ 1
alto 0.3613600486167671
Sea 0.2072017611753873
Marais 1
Marc@@ 1
borg 0.8627482935950817
clus@@ 0.9497071761114887
mig@@ 0.716134874509759
reb 1
ward 0.14708746332693032
Magn@@ 1
contra 0.11046165009805094
cen@@ 1
ński 0.9848032663812273
SM@@ 0.8421991592196735
Tah@@ 1
Porsche 1
jar@@ 0.9706511678186811
oyen 1
Schneider 0.9750016199696794
21,@@ 1
Richmond 0.5239430953414326
etière 1
Vand@@ 1
forum 1
phylo@@ 1
Nathan 0.9461748930481535
Trou@@ 1
Reich@@ 0.28630625194458365
restric@@ 1
carol@@ 1
lane 0.5613527953754944
tave 1
estamp@@ 1
ike 0.32670707428358847
Promotion 0.8522634379322327
Sv@@ 0.8497822095004305
GC 1
cister@@ 1
Gabon 1
Dom 1
Henriette 1
folk 0.4479159000826474
Kap@@ 0.3101587236141739
Race 0.6057030856505135
prud@@ 1
admission 1
Story 0.504547012981472
Perry 0.6155750049869926
Valentin 1
Strauss 1
Io@@ 1
Bess@@ 1
Cyr@@ 1
1785 1
Sok@@ 1
douin 1
UC 1
isc@@ 1
régi@@ 1
Zh@@ 0.869599070943569
elt 0.24854538931632894
lice 1
mutations 1
Tes@@ 0.8889448717959284
occurrence 1
pati@@ 1
Dubois 1
Laurence 1
ultra 1
Down 0.5290123199221486
Elena 1
cataly@@ 1
1778 1
Nes@@ 1
Bid@@ 1
Marius 1
rants 1
uth 0.9027296050402843
Mickey 1
Rwanda 1
king 0.08168737917662022
inales 1
Triple 0.776714795795229
Um@@ 0.14108391578796298
ovice 1
dura 1
isin 1
titu@@ 1
Madonna 0.7977997841792319
Nau@@ 1
Rohan 1
Carthage 1
Ed 0.6081001948007025
Breton 1
intercep@@ 0.8280652241181771
CR 0.715935105980384
Coast 0.22167630734109492
bli 1
Dow@@ 0.4266576988929063
Chav@@ 1
écolo@@ 1
Ottomans 1
informe 1
Hach@@ 1
osh@@ 0.6519111752562615
Suz@@ 1
BMW 0.9141360170526572
condens@@ 1
lands 0.1439690734122484
teville 1
Pyr@@ 0.7373557524050673
osom@@ 0.9930933801925531
38@@ 0.5956474817395028
Install@@ 1
Congr@@ 1
F.@@ 0.7986389075869531
Villers 1
isra@@ 1
Kyoto 1
Beethoven 1
IE@@ 1
eros 0.19471758064687267
Grace 0.6447141229420758
Reconn@@ 1
104 0.6917724921305025
Mom@@ 0.8114206623686453
book 0.05727628790331754
1,7 1
oe 0.43906205283316396
vr@@ 1
Inc 1
hen 0.5220433635690862
éclip@@ 1
Giorgio 1
ethn@@ 1
polyg@@ 1
Hid@@ 0.8582153898995643
Rodol@@ 1
compensation 1
Fus@@ 1
bit 0.2901486917291343
tas@@ 0.4175989985637169
Publ@@ 0.7732317259336223
laser 1
Four 0.27776896008994
Bom@@ 0.6370962428960274
atre 1
substr@@ 1
euc@@ 1
obsc@@ 1
Net@@ 0.647306505519223
Jo 1
czy@@ 1
dom 0.4692594348642297
HD 0.4533082550457161
traf@@ 1
Albums 0.5092683501467512
Prin@@ 0.9645476399175845
T.@@ 0.8301242152448893
fo 1
Hin@@ 0.3147026806975143
facto 1
stress 0.7567994959591824
cev@@ 1
Dean 0.42786607250969116
Japan 0.08580605441003099
Duv@@ 1
Micha@@ 1
Sis@@ 1
cristal 1
Magnus 1
intellig@@ 1
ders 0.14989024660239003
mena 1
Chelsea 0.7508151714590141
Orlando 0.8500014563209398
unter 0.029236009426406036
Leonard 0.6920889753651229
réser@@ 1
azi 0.8219097414037456
sain@@ 1
23,@@ 1
Gibraltar 1
Sept@@ 1
ologien 1
rine 1
Ronald 0.8104759225808504
formats 1
Meurthe 1
EC@@ 0.8070587842853582
Tang@@ 0.9794912979863083
TGV 1
MP 0.32250703891259963
Aaron 0.7770163485311268
Hardy 1
ionn@@ 1
moy@@ 1
Tex@@ 0.48977775639110194
Yas@@ 0.9864828983271642
lance@@ 1
discrimin@@ 1
Vu@@ 1
parade 1
Dru@@ 0.5948100980148561
sages 1
Rémy 1
jiang 1
Sph@@ 1
tif@@ 0.4510348715038135
Genti@@ 1
Lal@@ 1
nitr@@ 0.8200186316122897
rod@@ 0.5818051215429572
hand@@ 0.18835391800475995
inves@@ 1
pastor@@ 1
Rim@@ 1
Ille 1
Jud@@ 0.34322630774032964
azar 0.8698320298015023
current 0.10813049729269189
Hein@@ 0.5990800901424176
Tanz@@ 0.96699878023094
Brigade 0.3301409046470481
Tig@@ 0.9236204003062757
51,@@ 1
Sean 0.7612294110298115
Ces@@ 1
harc@@ 1
head 0.061019660473038785
oon 0.342128425609482
1760 1
Kle@@ 0.38435234065997953
Section 0.6438793896386248
Secret 0.7903680652896384
sia 1
Klein 0.7658965787355605
superfici@@ 1
Table 1
aja 0.3479396750974284
Dance 0.39295323828675766
say 0.2893777422763606
ss@@ 1
Gail@@ 1
gage 1
Now@@ 0.6969679500772566
ld 1
nac@@ 0.8686868523844735
Jin 1
eld 0.5881088985745708
Montmar@@ 1
mite 1
quis 1
3000 0.4375577120807564
Electric 0.5648673838263627
guise 1
ayo 0.4877010533510448
Bed@@ 0.4755683248854636
Xe 1
berges 1
aît 1
wag@@ 0.8348880871423096
Alpha 0.83553925674203
his@@ 1
ater@@ 0.58818411918809
Bang@@ 0.9054695686778592
Rolling 0.5993359282242953
Way 0.43153166511496693
Ye@@ 0.5730302233699383
compres@@ 1
Dus@@ 1
inspec@@ 0.9718625875426519
agny 1
lez 1
Fay@@ 1
cond@@ 1
jer@@ 0.3968447895205783
Hills 0.41898206040126734
variant 0.6513703017027452
Garr@@ 0.8896724328988069
owice 1
emy 1
gigant@@ 1
navales 1
Patri@@ 0.49505629360463466
manufacture 1
igr@@ 1
Greg 0.7720212149975165
Beth@@ 0.8641739810895888
Leon@@ 0.6241892419702283
fluvi@@ 1
chio 1
Alessandro 1
bei 0.014388470243237948
esa 0.13744819446501202
Fav@@ 1
Jal@@ 1
chel@@ 1
globe 1
1776 0.9689572980128912
francisc@@ 1
ias 0.4286728282766421
Brie 1
pè@@ 1
combe 1
contra@@ 1
RTL 1
22@@ 0.5377426818334009
xon 1
Garden 0.4104423885952625
tyre 1
alpin@@ 1
VA 0.6094643113709106
enga 1
Ż@@ 1
bou 1
gar 0.366870345424128
Nuremberg 1
Villiers 1
ome@@ 0.3562958816553319
inga 0.7476653053563261
48,@@ 1
ú 0.4227200948527759
Auschwitz 1
Rein@@ 0.454564434201505
Neuv@@ 1
Abel 1
Cah@@ 1
emin@@ 0.7547948185969754
Tot@@ 0.6729459569206626
Valois 1
Kings 0.5554566319641666
square 0.19448069834128542
ør@@ 0.7994291016849717
1763 1
ony 0.315381389191277
Girls 0.41527926890198996
Hosp@@ 1
Wik@@ 1
Design 0.28315318872490747
auses 0.6805236791059553
Dioc@@ 1
Cameron 0.7348339712113626
Fontainebleau 1
Pig@@ 1
Trem@@ 1
Crist@@ 1
MTV 0.4780508171498249
kom@@ 0.21948874307653743
aze 1
ru 1
anni@@ 1
ù 1
jard@@ 1
slogan 1
Tu 1
enza 0.7054007126741726
tag@@ 0.4511965514117503
Classic 0.5336593472692093
comparti@@ 1
permission 0.7417021391901741
Grammy 0.5895974568994417
Miles 0.8608044587255776
aven@@ 0.8654410674923784
justif@@ 1
elo 0.47155902240747205
Batman 0.9212461283406718
Carl@@ 0.8359618625109215
Athletic 0.4145105166627312
You@@ 1
Put@@ 0.7439817554049142
bine 1
Coch@@ 1
conversation 1
get 0.10644737356466794
Abd 1
Cabinet 0.8414308828896876
congr@@ 0.9889782498174274
effici@@ 1
forma 0.09338963577417927
Aire 1
Gros 1
Jer@@ 0.6610263410878088
Machine 0.784295769011286
PT@@ 1
onial 1
Mans@@ 1
unk@@ 0.28710879461495914
Memorial 0.28022287167646975
hin 0.25804748584657705
Bridge 0.23617258474727928
Miss@@ 0.5320422008366035
cons 1
Limous@@ 1
boyc@@ 1
garage 1
Angel@@ 0.8911793791310728
zin 1
1700 0.8320051811956555
Spencer 0.7274258823024855
game 0.03462937015350935
sw@@ 0.1201328058368204
Delta 0.6080556778725458
Hart 0.7079422373803439
primitive 1
L.@@ 0.6670121958172329
e. 0.942874740287199
ellan 1
stra@@ 1
Gers 1
LM 1
perpendi@@ 1
xu@@ 1
Ball 0.5397781560231482
Berger@@ 1
Apol@@ 1
Utrecht 1
Jor@@ 1
leuc@@ 1
delta 1
29,@@ 1
isier 1
igueur 1
Watson 0.6588647081058938
Nicholas 0.492807383411554
Orientales 1
aldo 0.8126017269210677
Rabat 1
Recon@@ 1
NS 0.6170728627939691
esté 1
pler 0.8004882976449699
→ 0.6824059546678851
Avi@@ 0.9829245413930408
Ques@@ 1
ms 0.15744427487682552
iva 0.5848466439270515
Bun@@ 0.5097517056113222
Blaise 1
Hunter 0.5329608499467509
ords 0.7378697323021763
rante 1
Lanka 0.48558372903240077
migrants 1
bia 0.8510265524294427
iec 1
intu@@ 1
Dah@@ 1
Quel@@ 1
ender 0.13901364844567732
particular@@ 1
entom@@ 1
estation 1
Vier@@ 0.4243128857608948
Harr@@ 0.7718276325679184
ARN 1
Felix 0.7195557832926109
vaux 1
fascin@@ 1
González 0.49111480002228836
Khal@@ 1
ków 1
Wu 0.7764600554640826
incon@@ 1
tint 1
former@@ 1
Mire@@ 1
asso 1
combat@@ 1
109 0.7083903200782468
isch@@ 0.20440684289144057
1786 1
aussée 1
prose 1
iel 1
ER 0.7720654572582173
Chim@@ 1
Sti@@ 0.49611055435278956
ate@@ 0.5644874760567932
fen@@ 0.3847305285371171
atern@@ 1
nombre@@ 1
pakist@@ 1
soprano 1
kir@@ 0.43700603571295527
Ruth 0.7261551462207574
lah 0.9616614800215023
monoc@@ 1
Technology 0.24770728456533767
Explo@@ 1
Khar@@ 1
Satur@@ 1
quième 1
Hector 1
Xbox 0.8460869644614
asti@@ 0.5346534157065324
Del 0.3833727400101543
acy 0.13929185568844943
brev@@ 1
LE 1
hat@@ 0.35830297323718213
Héro@@ 1
gan 0.48404912097093145
onius 1
ouville 1
edr@@ 0.4456691148320163
phras@@ 1
Durand 1
ape@@ 1
Brig@@ 0.8837685688998769
Sound 0.3891880999891112
Brigitte 1
UK 0.09304187624429001
V8 1
Yuan 1
Dakota 0.4603140758475406
Rob 0.779366606548648
aks 0.27048887243447517
Religion 0.5908089658229466
fluctu@@ 1
Circuit 0.6418581859416395
Hop@@ 0.5707841265888759
fier@@ 1
Wallace 0.654353083368825
auff@@ 0.692792424068264
iler@@ 0.8202229183399673
fratern@@ 1
28,@@ 1
phi@@ 1
III@@ 1
2,2 1
We 0.17100046220856874
eim 0.9724412800335174
commander 0.28540212397188586
postul@@ 1
chy 0.8931230522880185
103 0.67775620618012
reten@@ 1
eka 0.7393369638164736
sodium 1
spectr@@ 1
égie 1
Magic 0.6539660127731951
esh 0.399211962654004
Hockey 0.2579112314145648
yse 1
Arkansas 0.4182119394957965
Ltd 0.4110719290395265
aldi 1
bure 1
Rag@@ 0.73713931830947
cure 1
subj@@ 0.7874742383312535
letin 1
Weimar 1
akov 1
acum 1
Fra@@ 1
vag@@ 1
Blake 0.8424715281572219
Portrait 1
destroyer 1
Final 0.20201471868702747
primor@@ 1
thy@@ 1
Butler 0.6417268139542995
Abu 0.5312267856893538
iba 0.6584421111482943
perf@@ 0.49369411716347067
Organ@@ 0.5553015462955582
Gestapo 1
Igor 1
Jennifer 0.8747355077657542
Apollo 0.9388868532039001
Edo 1
chu 1
estes 1
Ret@@ 0.6269490862511309
terti@@ 1
Schmidt 0.6015838091420096
gang 0.190820949908174
vet 1
German@@ 0.7184980602035712
exceptions 1
lars 0.9084024189843796
Vettel 1
var 0.5266330998076608
onciation 1
Jab@@ 1
sov 1
Water@@ 0.4534983761546836
SG 0.6690069358783478
Eug@@ 1
ental 0.21805048791244752
Adel@@ 0.6749600644906868
Fischer 0.6775992877499213
Plo@@ 1
OM 1
Good 0.35122954378673393
amo 0.6669683217812081
Capital 0.4193968498049977
iter@@ 0.4366412178323508
meeting 0.17101696968874117
Pall@@ 1
curios@@ 1
1782 1
Helen 0.5882476788624628
F1 1
Quartier 1
Cun@@ 1
Motte 1
align 0.24952437722024742
1200 0.6113908342230785
Combat 1
ouges 1
pant@@ 1
plate@@ 1
Conqu@@ 1
Council 0.06800424318870549
Virginia 0.1155098224913656
Are@@ 1
Nevada 0.5278806428367846
Bagn@@ 1
Dragons 1
guid@@ 1
Muhammad 0.44703439490788116
poem 0.34527969829068483
verr@@ 1
1,9 1
inda 0.6679013597446936
Sér@@ 1
AV@@ 0.8042084233428786
cret 1
Sara 0.9219882104690895
jeun@@ 1
Jack@@ 0.9460049440993716
FBI 0.7685351331698825
doctor@@ 1
finland@@ 1
ía 0.04914829804400146
berto 1
Lug@@ 0.9175293309022968
asse@@ 1
gam@@ 0.5943757586522118
Dumas 1
Zel@@ 0.94958348766088
County 0.0314824361639266
morales 1
Anatol@@ 1
sormais 1
inat 1
Soy@@ 1
iya 1
robot 1
Slo@@ 0.5814263649174529
Spar@@ 0.3848453065432757
ally 0.03965606427963449
Michelle 1
Tradi@@ 0.47950799833679575
Zar@@ 0.7172732249110118
ambigu@@ 1
Haus@@ 0.2776602159870966
Wellington 0.6514690097092648
Management 0.26239442138823943
arie 1
HF 0.6990350315720493
Mail@@ 1
sep@@ 0.8629810203299436
agro@@ 1
eke 0.8022040819236659
list@@ 0.3315576090782132
ogue 1
dram@@ 1
soix@@ 1
PP 0.8764701219977115
sian 1
3,2 1
Dennis 0.5963060192368107
Bus 0.6321109541452361
Cach@@ 1
SR 0.3013450608098049
ocar@@ 1
Court 0.0890818069940941
gie 1
obi@@ 1
placement 0.7502906195505163
Vivi@@ 1
chia 0.4585680266898388
uchi 1
Sahara 1
ishi 0.9128159641767682
sule 1
cave 0.9027152096847805
cost@@ 0.40126461436406635
macro@@ 1
Att@@ 1
Carol@@ 1
kow@@ 1
Carmen 0.6781680905756338
oj@@ 0.6989154487128151
Bastia 1
teil@@ 0.312742898684367
Murphy 0.5966001748262548
inette 1
Ander@@ 0.9943771833724724
Barb@@ 1
persp@@ 1
Bam@@ 1
Craig 0.621842363335189
extraterres@@ 1
Lotus 1
Shu@@ 0.5877625169675569
Rain@@ 0.9484933138567507
Tau@@ 0.686623469805179
stand 0.08010945096475316
Good@@ 0.521708123673327
Moon 0.425873291237008
violation 1
ostr@@ 0.8425232801232176
Death 0.23347847692088788
Gw@@ 0.885351401499843
jav@@ 1
Lane 0.4100192400031573
gang@@ 0.790785106779081
soir@@ 1
Olga 1
1777 1
Caus@@ 1
220 0.6540641055485701
rail@@ 0.5558437861723863
1774 1
Neg@@ 0.4899693586990609
maur@@ 1
zel@@ 0.9269594231366469
Atlantic 0.2251602107740766
vali@@ 1
Weber 0.799180840487903
coloniales 1
108 0.6530533643135564
Open@@ 0.5624081964787393
Rodríguez 0.5108576900967705
Tag 0.2423079030571398
oral 0.334484840888448
Sit@@ 0.7095077618969723
scor@@ 0.8346132860504958
valenci@@ 1
kW 0.7284235097900688
uno 0.07724712400047258
phé@@ 1
miel 1
Memphis 0.8407074973820259
folklore 1
pper 0.5062628161762571
Emily 0.8190475476035166
NCAA 0.26389527001576124
Madison 0.529475039274684
allu@@ 1
gli@@ 0.5304371866379614
XVIII 0.33615386982870904
45@@ 0.5471274331292255
Tech 0.558437880457976
bak@@ 0.4426557052555368
hil@@ 0.446680233152874
èn@@ 1
Raz@@ 0.9443214130793849
Alc@@ 1
EA 0.8831255770191094
onal@@ 0.5487625688738234
aha 0.6593398295893347
diger 1
thriller 1
ament@@ 1
rets 1
Law 0.15151518535827582
clusi@@ 1
Buffalo 0.5399220151898726
uj@@ 0.9272832869522972
Ana 0.4974675306621916
Aviation 0.6685804216217356
Phili@@ 1
membrane 1
CBS 0.39455654127867423
GP@@ 0.8931914283397566
Goul@@ 1
Kru@@ 0.8391156860837083
entis 1
isha 0.6025694699793213
Cub@@ 0.7380630692571378
dira 1
200@@ 0.447533071492042
calibre 1
Domenico 1
omen@@ 1
transit 0.9397796006041634
zes 0.39302209535004357
wh@@ 0.14627582240669068
TR@@ 1
Grig@@ 1
cation 1
Row@@ 0.48639089814997893
pulmon@@ 1
Netflix 0.8506162381199052
homolog@@ 1
Baby 0.5851125320426339
Apollon 1
ondr@@ 1
orps 1
Kum@@ 0.5829014386466493
xa 0.4501301756356461
pier 1
provoc@@ 0.7772552209513864
soul 0.6349362106863019
Hampshire 0.45482148591349525
Nacional 0.10705342579296984
106 0.6714224781734326
Saul@@ 1
dias 1
Indian 0.07969855912823035
Railroad 0.3598225377885076
mid@@ 0.23938429046731663
Arte 0.6939174894501435
carp@@ 0.770682200136948
vulgar@@ 1
Annex@@ 1
Bail@@ 1
Phot@@ 0.5288771204314419
rates 0.29969271221228677
wich 0.6163269307232595
inspection 1
yards 0.23051175280231895
chenko 1
maximal 1
coloni@@ 1
usz 1
Da 0.14329813762218754
vog@@ 1
G.@@ 0.7724230609474639
zard 1
Luther 0.8389280789442102
fraude 1
osc@@ 1
veaux 1
FO@@ 0.8781994971944508
IV@@ 1
Obama 0.6103272493509558
inflation 1
mom@@ 1
ț 1
mat 1
Mobile 0.6347658155299528
mantel@@ 1
Jas@@ 0.9468895786986812
cham@@ 0.9435415420014096
6,5 1
Anat@@ 1
Yous@@ 1
bars 0.7609005580083358
Ever@@ 0.7942688117255594
Dream 0.5664605889190761
Buz@@ 1
Ellen 0.8541483323551988
Mi 0.8487748407187948
tics 0.14462902617943632
professionn@@ 1
intentions 1
brus@@ 1
Roberts 0.5257364050794194
Sánchez 0.639829463295463
19@@ 0.6785805796062933
Album 0.14791701845019475
lenti@@ 1
Play 0.385598035132357
transfer@@ 0.555947834207963
uy 1
hâ@@ 1
Grey 0.6638116932046989
hel@@ 0.26592831376948406
phus 0.9356890681889279
antagon@@ 1
Bonif@@ 1
Schw@@ 0.20006193747338502
elen 0.47985104908717957
vertical 0.564926958724821
alle@@ 0.5275369941374004
Lang 0.9271583784056913
boy 0.2473447836786445
phon 1
Berth@@ 1
Ard@@ 1
certification 1
Pist@@ 0.974041093455951
podi@@ 1
minist@@ 1
tang@@ 1
Léger 1
partici@@ 1
imo 0.8216728701849838
36,@@ 1
ST 0.663103470425948
Tun@@ 0.4674451116800594
alls 0.31827793774468843
Pop 0.43858490045976045
igna 1
Bundesliga 0.3396732027963111
Sud@@ 0.43786349939206437
cal 0.467498880120807
Orchestra 0.3461996482469922
Mann@@ 0.6171171457405138
CT@@ 0.7888501598987474
Gouverneur 0.9719320426613884
beur@@ 1
Bryan 0.7748551952981105
80@@ 0.3995679815564653
Cous@@ 1
Fitz@@ 0.762732630503144
oque 1
Ricardo 0.6510623217218534
Lourdes 1
O.@@ 0.8496489299585218
def@@ 0.12679894478982678
112 0.7049731022622566
hang@@ 0.46877623891978293
Catalogue 1
Gem@@ 0.41016953340437107
emann 0.5884465294720727
Berger 1
empir@@ 1
Kis@@ 0.9826328804173776
eliers 1
irrigation 1
Kre@@ 0.252248548972288
eren 0.1051498533163828
Jefferson 0.5429208174320221
NBC 0.39609316245663795
iton 1
Audi 1
cér@@ 1
Buch@@ 0.22776493945997783
icules 1
respir@@ 1
2,6 1
UE@@ 1
LGBT 0.7423032825359928
igan 1
omorph@@ 1
explore 1
arine 1
Amar@@ 0.7560408038218022
ven 0.19206814444366363
simplic@@ 1
extermin@@ 1
wen@@ 0.2820892856699776
Mall@@ 1
ovski 1
bab@@ 0.6827093737319126
Schleswig 0.6253835481291511
hit 0.12600611810712958
satisfaction 1
anor@@ 1
Mim@@ 1
Scu@@ 1
ós 0.9628627576893337
Cob@@ 0.8394941491617025
End 0.3761091353473236
financi@@ 0.6922660071763729
Fire 0.3260950800164612
Tonn@@ 1
alit@@ 0.7750688482813317
Airbus 1
Television 0.2684939466893674
Tok@@ 0.8630914015425926
arien 1
leton 0.646694940609895
obe 1
hispan@@ 1
illar@@ 1
Sex@@ 0.5000625167221957
ègre 1
Pol 1
Amy 0.8002452624402396
Honda 0.8509890770807785
ester@@ 0.4477309945420466
brigadier 1
ycl@@ 1
Liz@@ 0.7294106511379841
borde 1
5,5 1
Cand@@ 0.8152137693569127
exact 0.7361479002714093
utions 1
Six@@ 0.5791990404862074
dium 0.5713529901357296
Hot@@ 0.7905437314716651
AOC 1
al. 1
gradu@@ 0.5640001312452165
pice 1
uple 1
ases 0.3680225781576688
pinyin 1
hat 0.036663998250317305
Heart 0.3754675086724699
Ted 0.6865213884078453
glom@@ 1
join@@ 1
simulation 1
uries 1
ega 0.4496976021991665
DR 0.530967857833182
Potter 1
Prof@@ 0.42374531392545145
Rah@@ 0.6765439099203056
Cum@@ 0.5063631884369538
ö 0.6535050002167045
disco@@ 1
Montana 0.5844492894629697
Buff@@ 1
atti 1
Bagdad 1
teil 0.13466477040096833
Patricia 1
Spo@@ 0.6339872538854839
Gré@@ 1
CG 1
Cycl@@ 1
itas 0.3457575010844736
sidi@@ 1
Chas@@ 1
Pan 0.45108602307895873
olin 1
appe@@ 0.5295199028002834
hausen 0.3323874912087591
usur@@ 1
Jag@@ 0.602320360771882
Saskatchewan 0.8709609178237813
unc@@ 0.31263816373549247
Burg@@ 0.33120717152138096
internation@@ 1
agglom@@ 1
aurus 0.9859361623659161
alli 0.7070047802885346
clips 1
vière 1
Opera 0.35458188613662617
Sah@@ 0.5523161975313995
gravit@@ 1
cht 0.19647055967676455
Pons 1
[...]
