de 50457356
, 48354455
. 39981038
la 25257622
et 20341714
le 18157716
à 17112569
en 14819298
&quot; 13607370
l&apos; 13581477
des 12697469
est 12511719
@-@ 12464928
du 11778033
les 11015212
d&apos; 10331005
un 9193469
( 8317844
) 8314780
une 8138142
dans 6949164
par 6376953
au 6089428
’ 5444266
pour 5187327
il 5091880
qui 4605504
a 4558064
que 4297791
Le 4241614
sur 3961421
Il 3430050
son 3404312
avec 3360359
La 3261119
se 3258988
: 3033021
plus 2801061
l 2646704
sont 2631001
En 2544690
aux 2515276
é 2373029
ou 2343228
Les 2242115
sa 2184660
« 2095312
» 2090741
été 2086588
elle 2025467
ée 2004870
d 1958136
s&apos; 1882348
qu&apos; 1794424
ce 1752747
ses 1731215
comme 1712692
és 1672100
deux 1600754
ne 1576222
L&apos; 1563116
ent 1540546
ant 1523624
ées 1445076
pas 1439304
ont 1427605
fait 1352839
dé@@ 1320377
; 1293331
er 1275241
entre 1269026
mais 1242408
on 1241604
y 1212732
Elle 1189968
cette 1148551
sous 1120076
é@@ 1119276
même 1031781
était 1009340
être 1006592
lui 1003844
n&apos; 994991
dont 976350
es 976214
après 975276
leur 969747
% 948493
où 941027
également 909203
commune 900403
France 896658
s 877642
ation 853550
ville 852668
ait 851806
ré@@ 846721
alors 846616
&apos; 845262
ans 838616
aussi 825662
autres 825118
ainsi 815207
Saint 814934
partie 798433
ie 791652
premier 779382
ement 777762
fut 777173
nom 773102
première 755582
re@@ 755320
lors 713716
À 712148
ces 706344
puis 705535
années 685538
contre 681121
peut 675986
in@@ 654750
trois 654124
depuis 633818
ale 621193
aire 614971
avant 607992
groupe 600183
né 598213
plusieurs 596946
ations 585585
vers 582755
ité 582679
Cette 581977
très 576505
Dans 574055
ils 572128
age 564064
jusqu&apos; 543404
fois 537408
2 534934
in 528924
année 528156
/ 527765
fin 527184
S@@ 526673
avoir 522278
Paris 516916
ère 516324
te 509824
an 507794
mort 507605
Jean 507359
avait 507285
tout 506878
français 505844
- 505085
e 503736
De 502060
temps 495030
notamment 490464
1 490153
famille 487784
is 485671
el 484238
Ce 482687
ine 477425
place 477297
ch@@ 476019
sans 475628
Au 474156
monde 472475
L@@ 466018
P@@ 464714
saison 464467
ques 462854
c@@ 461121
équipe 460213
Après 458199
C@@ 448634
sud 447747
pré@@ 447351
leurs 446384
ons 444090
lieu 440421
p@@ 440106
suite 440085
pays 438814
elles 438412
ants 438285
nord 437231
tes 436858
eux 431995
us 422937
D@@ 421505
ou@@ 421302
Biographie 418485
autre 418251
3 417532
faire 416860
partir 416296
États 416250
grand 415851
Une 415691
région 415624
aires 414974
titre 414414
cours 413967
bien 412948
devient 412713
peu 411023
B@@ 410930
ci 410869
s@@ 410833
non 410156
T@@ 409877
F@@ 409451
G@@ 409183
par@@ 409086
eau 406409
&amp; 405998
Un 404588
R@@ 399257
moins 395644
iste 393056
guerre 392839
quatre 392829
V@@ 392113
al 392104
soit 392075
M@@ 391102
en@@ 388845
r@@ 387606
C&apos; 387186
film 387124
encore 386555
nouveau 383676
u 383625
pendant 380121
Son 379001
aient 376470
général 373547
tous 372633
forme 372290
politique 370980
vie 369385
at 369294
O@@ 367960
série 365512
n@@ 362853
t@@ 361055
g@@ 360793
ales 360414
tant 359639
con@@ 358274
i 357715
4 357350
ligne 356408
ar@@ 356207
début 353685
A@@ 352953
située 351249
celle 349644
Unis 348641
an@@ 347575
État 344067
enne 341362
nombre 341296
ante 337151
É@@ 336509
celui 336329
fils 336079
française 335676
L 335190
grande 334497
eur 332037
qu 331301
ens 330397
club 329679
N@@ 329362
n 329270
donc 327153
selon 327035
village 325407
it 324102
on@@ 323564
Pour 323347
ouest 322287
On 321855
ers 320630
o@@ 320534
album 320178
tard 320005
histoire 319105
c 317628
ise 317052
is@@ 316433
ères 315321
trouve 315041
nouvelle 314588
or@@ 314180
ac@@ 310977
Histoire 309578
ensuite 309511
quelques 309409
ag@@ 308989
si 308731
l@@ 308598
département 308069
centre 307605
ite 306795
compte 305902
père 305731
re 304082
c&apos; 303593
président 303580
époque 303305
b@@ 303216
v@@ 302952
f@@ 302565
deuxième 301646
étaient 300181
part 299101
6 298071
ayant 296967
able 296912
ages 296873
dernier 295858
population 295018
situé 293887
étant 291554
période 291047
2010 290762
m@@ 289303
ique 287588
H@@ 286403
environ 286049
ins 285360
ue 284971
dit 283227
roi 281572
ér@@ 281514
Ch@@ 281335
po@@ 281134
près 279744
église 279439
nombreux 278894
or 277473
d@@ 277041
mois 276144
face 275905
tour 275524
t 274159
origine 273891
5 273058
Ils 271541
ure 271370
èrent 270786
im@@ 270665
gouvernement 270606
ette 270287
Ces 270261
ap@@ 270136
di@@ 269062
o 268411
Europe 267751
tr@@ 267200
isme 267007
Pierre 266681
ad@@ 266355
co@@ 266024
j@@ 265957
nationale 264487
espèce 264215
chez 263752
of 263442
Ar@@ 262631
service 262623
al@@ 262346
sur@@ 262061
ensemble 261961
E@@ 261819
car 261453
I@@ 261170
cinq 260612
me 260306
ance 259325
homme 259269
J@@ 258945
ateur 257792
ab@@ 256930
nommé 256418
istes 256389
The 256071
chef 255745
ements 255325
permet 253895
communes 253763
afin 253077
ancien 251647
Louis 251408
eurs 250590
2018 250262
K@@ 248166
br@@ 248104
hui 247242
souvent 246531
sou@@ 245920
ti@@ 245400
reste 245314
carrière 245100
prend 244813
el@@ 244428
durant 243879
cas 243666
y@@ 243119
jeu 242787
as 242780
effet 242771
am@@ 242458
armée 242167
études 241282
mer 240717
Nord 240365
membre 240352
niveau 239617
jour 239405
at@@ 238609
av@@ 237705
Mar@@ 237369
doit 237205
société 237151
én@@ 236516
rue 235692
ét@@ 234064
rôle 233762
ents 233533
national 233264
ts 233202
membres 233080
us@@ 231405
peuvent 230205
sera 230168
per@@ 230030
américain 229969
habitants 229815
ir 229691
h@@ 228744
projet 228620
inter@@ 228236
Z@@ 228078
tique 227748
mise 227603
chaque 227266
née 226043
ï@@ 225857
ailleurs 225043
ire 224135
œuvre 223872
Sa 223353
i@@ 222581
Selon 222262
els 221987
mondiale 221963
point 221890
ren@@ 221818
présente 221761
territoire 221386
pl@@ 220673
troisième 219970
2011 219464
ard 219426
10 218974
système 218901
premiers 218452
a@@ 218358
Par 217495
dès 217464
site 217135
finale 217054
exemple 216765
toujours 216652
porte 216544
travail 216306
Sud 216214
Mais 216126
f 215955
base 215781
2000 215583
li@@ 215525
ille 215141
z@@ 214558
poste 213968
droit 213864
jours 213807
7 213606
2014 213549
_ 213266
and 213197
match 213171
em@@ 213092
tions 212297
os 212263
toute 211785
ol@@ 211560
sein 211233
Charles 210579
it@@ 210364
personnes 210187
enfants 209163
Guerre 209028
cr@@ 207897
om@@ 207889
8 207435
e@@ 206409
cet 206378
nombreuses 206014
ot@@ 205811
2015 205470
toutes 205434
2009 205389
Lors 204886
long 204347
ir@@ 203784
raison 203392
certains 203306
Des 203197
dis@@ 203014
era 202909
ais 202635
ateurs 202582
es@@ 202361
ul@@ 202340
château 202128
bi@@ 201930
ill@@ 201890
gr@@ 201550
│ 200991
u@@ 200945
ordre 200566
six 200504
succès 200251
mis 199924
vi@@ 199340
New 198906
antes 198837
prix 198732
2008 198574
tête 198160
pr@@ 198099
rapport 197810
mon@@ 197560
université 197499
maison 197212
école 196924
A 196716
construction 196478
the 196270
siège 195730
championnat 195550
2012 195092
fille 194930
mé@@ 194612
ur@@ 194428
musique 194043
type 193675
agit 193593
che 193368
jeune 193329
art 193308
teurs 193179
Grand 192910
connu 192804
eu 192526
grâce 192023
va 191983
province 191963
écrit 191421
points 191406
sé@@ 191368
m 191330
2013 191276
production 191140
île 190765
met 190664
W@@ 189775
hommes 189300
ables 189160
laquelle 189010
développement 188469
loi 188279
remporte 188227
Marie 187953
Al@@ 187727
ex@@ 187598
2020 187454
état 186970
ministre 186837
principale 186212
teur 185654
ès 185577
femme 185542
té 185479
– 185417
ter 185225
formation 185202
but 185009
as@@ 184643
participe 184314
II 183886
pouvoir 183871
ologie 183137
ég@@ 183126
âge 183082
ets 182483
joue 182428
aujourd&apos; 182286
mar@@ 182158
ane 182049
ités 181872
corps 181604
car@@ 180620
rencontre 180564
version 180564
public 180478
ennes 180442
Depuis 180420
moyenne 180297
mes 179979
création 179626
qu@@ 179009
Paul 178715
2016 178631
ass@@ 178573
cor@@ 178216
Dé@@ 177672
2007 177400
Allemagne 177306
ro@@ 177263
2017 177249
route 176409
demi 175992
commence 175873
ci@@ 175721
ic@@ 175449
formula 175383
au@@ 175170
joueur 174875
côté 174811
2006 174453
Coupe 174282
dernière 174129
François 173879
femmes 173478
Car@@ 173381
suivante 173353
ate 173318
its 173158
football 172402
op@@ 172015
Y@@ 171916
seul 171867
Con@@ 171592
ancienne 171436
grands 170891
zone 170610
ceux 170504
C 170438
plan 170378
gé@@ 170374
th@@ 170327
furent 170268
1990 169852
passe 169790
devant 169710
oc@@ 169131
ar 168634
petit 168301
déjà 168000
eaux 167942
tion 167521
produit 167350
quement 167275
ia 167092
travaux 166974
ines 166827
Ré@@ 166599
ente 166594
retour 166555
ence 166274
ph@@ 165694
isation 165662
obtient 165227
er@@ 165192
ge 165129
militaire 164707
direction 164598
tre 164126
x 164092
République 163800
différentes 163793
Italie 163630
terme 163537
gu@@ 163428
élections 163264
date 163230
John 162611
chanson 162358
anglais 162252
ellement 162182
mère 161969
ies 161801
20 161244
si@@ 161163
9 161134
parmi 160816
Avec 160792
ain 160780
ver@@ 160714
D&apos; 160322
os@@ 160244
Mon@@ 160077
pi@@ 160040
ier 159895
euse 159768
st@@ 159759
édition 159625
genre 159309
réseau 159268
milieu 158822
gt 158711
tandis 158681
parti 158117
il@@ 158048
abord 158041
ats 157966
espèces 157927
alité 157529
ton 157214
ène 157088
15 156962
cré@@ 156820
dix 156686
2005 156390
bo@@ 156360
frère 156334
parfois 156240
urs 156061
ent@@ 155930
use 155732
2019 155706
communauté 155660
id@@ 155658
liste 155370
to@@ 155338
Cependant 155307
sols 155029
ites 154925
da 154765
donne 154704
trans@@ 154652
seulement 154583
utilisé 154345
Sur 154151
particulier 154032
Description 153224
ot 153078
cadre 152906
rec@@ 152818
proche 152499
beaucoup 152215
britannique 152120
lo@@ 151705
huit 151662
qué 151620
directeur 151546
U@@ 151363
zones 150720
York 150480
fer@@ 150157
américaine 150113
aurait 149913
Ses 149812
division 149659
différents 149654
Union 149468
Jacques 149441
ches 149297
recherche 149251
second 149129
k@@ 148868
créé 148819
él@@ 148709
international 148630
scène 148483
cour@@ 148436
réalisé 148404
font 148371
sorti 148324
livre 148266
all@@ 147760
ra 147368
one 146698
bataille 146679
fonction 146673
ade 146584
épouse 146464
sept 146214
12 146023
gare 145733
occupation 145495
sens 145213
ni 145127
aide 145125
man@@ 144997
ides 144981
principalement 144932
auteur 144911
autour 144847
2004 144770
com@@ 144711
victoire 144573
bou@@ 144428
existe 144267
... 143906
cependant 143846
objet 143751
év@@ 143586
surtout 143298
um 142893
premières 142878
Canada 142533
rivière 142381
ve 142369
aine 142154
le@@ 142071
petite 141921
équipes 141604
An@@ 141587
ig@@ 141494
publié 141420
plupart 141018
mouvement 140985
millions 140899
so@@ 140858
ob@@ 140854
lt 140648
seconde 140541
Jeux 140497
œuvres 140481
bois 140400
voir 140325
1999 140177
tels 139790
rejoint 139663
style 139611
Université 139223
man 139148
Conseil 139147
allemand 138984
na 138670
cause 138614
Bar@@ 138598
cher 138542
activité 138272
z 138245
I 137963
Espagne 137735
quartier 137318
mesure 137132
domaine 136890
entreprise 136836
langue 136699
comté 136611
h 136534
onn@@ 136501
demande 136475
lequel 136426
ice 136201
là 136055
reçoit 136007
fer 135886
juin 135693
Cor@@ 135530
avaient 135443
haut 135410
suivant 134946
Afrique 134690
Par@@ 134473
bar@@ 134403
Tr@@ 133865
dire 133826
ore 133741
marque 133599
fin@@ 133402
quant 133239
position 133191
ec@@ 132876
Parti 132838
Angleterre 132708
déc@@ 132692
élu 132630
è@@ 132393
données 132357
appelé 132325
seule 132302
ner 132147
classe 132106
ues 131950
roman 131814
In@@ 131706
manière 131687
action 131567
finalement 131317
aise 131228
esse 130864
pris 130608
ai 130387
station 130350
gauche 129918
jamais 129912
conseil 129880
ach@@ 129799
propre 129171
2002 129152
mai 129050
européenne 129013
historique 128983
ni@@ 128891
étude 128883
lorsque 128814
min@@ 128506
important 128466
nouvelles 128380
mars 128233
port 128219
col@@ 128202
possède 128133
appar@@ 127900
1998 127821
Am@@ 127804
septembre 127763
moment 127726
article 127670
Per@@ 127654
vol@@ 127468
ru@@ 127080
donné 126920
présence 126723
voie 126632
iques 126568
no@@ 126459
ant@@ 126428
terre 126216
certaines 126144
organisation 125833
ép@@ 125668
ta 125575
ter@@ 125566
amp 125437
ay 125374
matchs 125287
2003 125204
Robert 125155
der 125126
principal 125074
ém@@ 124896
Ligue 124870
occasion 124775
1980 124737
Tour 124645
erie 124587
cela 124537
groupes 124425
Henri 124371
30 124077
parc 123981
référence 123981
Gu@@ 123852
quand 123806
2001 123783
&#91; 123773
entrée 123741
cu@@ 123459
annonce 123430
k 123419
cro@@ 123305
voit 123274
et@@ 123078
&#93; 123062
jeunes 123006
juillet 122991
rée 122955
Historique 122919
généralement 122892
! 122873
octobre 122856
termine 122802
° 122780
di 122625
canton 122522
Mal@@ 122511
fort 122467
celles 122429
mo@@ 122418
mettre 122312
Carrière 122045
travers 121690
théâtre 121646
isé 121513
permettant 121481
classement 121472
ile 121459
Géographie 121417
ac 121265
16 121086
0 121024
grandes 121017
onne 120952
11 120892
issent 120804
atif 120800
= 120704
Joseph 120543
Br@@ 120249
Mé@@ 119975
sort 119880
construit 119738
professeur 119629
capitale 119626
course 119611
Michel 119378
Ainsi 119256
prendre 119032
Londres 119008
taux 118917
Est 118810
jou@@ 118730
Mor@@ 118532
Québec 118473
bourg 118463
éch@@ 118463
x@@ 118287
1970 118206
Japon 118140
culture 117991
villes 117928
14 117899
politiques 117877
Nouvelle 117647
comp@@ 117609
compétition 117380
vue 117228
bâtiment 117042
court 116893
18 116788
vient 116703
ment 116247
Col@@ 116160
compagnie 116147
administration 116117
rapidement 116035
ba@@ 115905
2021 115824
pe 115784
composé 115777
res 115756
janvier 115491
meurt 115448
district 115446
Ber@@ 115274
résultats 115272
éri@@ 115159
mètres 115016
décide 115014
internationale 114848
Bou@@ 114774
retrouve 114585
musée 114514
meilleur 114504
importante 114384
B 114376
semble 114248
anti@@ 114239
tu@@ 114089
troupes 113897
su@@ 113875
bl@@ 113835
avril 113718
services 113637
Di@@ 113618
activités 113552
1950 113356
Liste 113341
Ma@@ 113157
ser@@ 113122
19 113013
auprès 112922
ème 112839
serait 112687
Ver@@ 112680
San 112597
campagne 112422
Empire 112340
tis@@ 112287
ures 112229
décembre 112218
films 112178
Ro@@ 112148
climat 112123
Pays 112111
août 112071
comprend 112042
Grande 111656
ceinture 111612
13 111589
r 111555
ative 111508
sortie 111354
carte 111259
Or@@ 111227
rem@@ 111151
ler 111129
rés 111072
ing 111047
g 111001
Si 110957
ma@@ 110948
créée 110835
pour@@ 110804
seur 110507
programme 110402
17 110302
Pendant 109860
alisation 109846
Église 109677
ri@@ 109652
novembre 109610
comte 109590
ettes 109526
actuelle 109486
cou@@ 109350
unique 109151
droite 108892
ina 108858
populaire 108396
rou@@ 108302
be 108283
supérieur 108196
Com@@ 108109
Rome 107899
inc@@ 107844
rég@@ 107679
atteint 107637
ences 107522
générale 107432
enti@@ 107431
D 107424
ole 107220
ign@@ 107211
Mont@@ 107137
faisant 107111
p 107084
argent 106970
ains 106963
droits 106940
lac 106929
ète 106786
économique 106772
for@@ 106708
terrain 106586
voix 106484
forces 106453
Pologne 106084
Seconde 106046
total 106040
départ 106005
ev@@ 105951
Comme 105869
am 105724
can@@ 105720
Chine 105687
terres 105604
rel@@ 105543
possible 105524
ang@@ 105499
ka 105496
Sainte 105384
cinéma 105206
particulièrement 105180
En@@ 105160
association 105115
quer 105111
25 105103
signe 104974
contrôle 104831
modèle 104727
découvert 104676
russe 104652
1960 104608
honneur 104594
alement 104514
sol@@ 104422
prise 104396
élection 104367
Qu@@ 104346
ades 104306
val@@ 104243
mission 104116
vis@@ 104012
nous 103951
produits 103787
fi@@ 103666
éc@@ 103539
intérieur 103470
Th@@ 103375
espace 103215
og@@ 103116
tres 103031
champion 102980
Ouest 102959
nes 102842
nouveaux 102689
un@@ 102679
ises 102667
Belgique 102636
désormais 102364
façon 102315
large 102274
entes 102017
tri@@ 101781
ois 101759
Re@@ 101662
? 101652
pro@@ 101643
res@@ 101536
etc. 101483
ances 101480
tiques 101464
maire 101460
municipalité 101440
Prix 101414
technique 101242
… 101166
idée 101123
territoires 101101
critique 101067
Se@@ 101032
Pr@@ 101007
Cet 100979
Russie 100971
— 100971
arrivée 100970
ê@@ 100824
1991 100755
Philippe 100728
lu@@ 100629
aines 100622
axe 100584
do@@ 100572
Deux 100558
ti 100369
éléments 100346
personnage 100283
Royaume 100246
Plusieurs 99947
sion 99845
ché 99803
combat 99680
se@@ 99648
issant 99625
joueurs 99337
aucun 99220
sol 99177
our@@ 99089
titres 98901
to 98744
centrale 98733
février 98574
ber@@ 98343
Amérique 98247
contrat 98147
altitude 98069
David 98049
importance 98034
son@@ 98015
sub@@ 98006
Co@@ 97814
vingt 97763
accès 97737
ch 97704
dessus 97625
olympiques 97571
montre 97554
assez 97547
Centre 97475
chemin 97406
source 97398
iser 97045
dou@@ 96756
char@@ 96725
1997 96655
enc@@ 96454
buts 96440
allemande 96417
ux 96382
devenu 96297
publie 96291
fl@@ 96208
mor@@ 96017
Val@@ 95994
double 95988
force 95961
mal@@ 95910
historiques 95866
duc 95732
attaque 95720
température 95624
astéroïdes 95567
1995 95533
outre 95425
Durant 95377
évolution 95312
24 95300
nommée 95284
École 95210
émission 95183
1996 95171
Le@@ 95158
travaille 95152
évêque 95098
trop 95074
surface 95026
Bo@@ 94980
100 94945
issement 94917
quitte 94884
jeux 94877
ve@@ 94784
situation 94759
die 94743
ologique 94699
charge 94673
formes 94612
quatrième 94582
taille 94527
sal@@ 94501
tés 94484
bas 94478
devenir 94452
men@@ 94267
journal 94174
libre 94118
marché 93961
III 93869
passage 93807
situe 93719
artistes 93618
rouge 93575
ô@@ 93532
um@@ 93366
kilomètres 93356
Gr@@ 93333
pont 93149
cl@@ 93127
tive 93114
affaires 93098
Martin 93048
passé 93036
publique 93031
bord 92740
main 92732
ç@@ 92732
ami 92621
connue 92558
anciens 92479
personne 92328
apparaît 92296
FC 92271
inscrit 92166
Bien 92131
majorité 92117
R 92084
mont 91933
italien 91801
ut 91768
salle 91740
acteur 91732
lignes 91688
rap@@ 91567
principaux 91566
ana 91508
porté 91483
rend 91400
tel 91313
santé 91273
Mo@@ 91272
lie 91207
pu 91181
atique 91115
chaîne 90940
ori@@ 90921
lég@@ 90916
1992 90911
ture 90904
spéci@@ 90872
air 90743
F 90662
la@@ 90659
ément 90604
compris 90472
Be@@ 90375
50 90330
pièces 90329
parties 90320
représente 90229
intérêt 90164
ta@@ 89979
astéroïde 89958
utilisation 89947
Sh@@ 89939
plutôt 89906
end@@ 89901
ouvrage 89865
+ 89852
fit 89806
1994 89759
Georges 89576
heures 89511
saint 89410
Première 89387
por@@ 89225
Société 89116
ff@@ 89097
sa@@ 88997
suit 88978
divers 88956
toutefois 88905
ne@@ 88797
uses 88645
derniers 88643
vidéo 88579
recensement 88570
az@@ 88429
Char@@ 88407
faible 88324
agricoles 88279
arrière 88234
éré 88173
télévision 88101
unité 88094
reçu 88077
valeur 88074
vallée 88065
M 88053
tor@@ 88045
cul@@ 87993
21 87885
Du 87878
lois 87857
simple 87852
sor@@ 87758
compos@@ 87678
sécurité 87671
arts 87633
telle 87575
af@@ 87539
ov@@ 87488
ins@@ 87418
cap@@ 87393
b 87385
chant 87270
S 87263
bal@@ 87203
cité 87201
lier 87137
côtés 87090
malgré 87086
constitu@@ 87048
fs 87005
cour 86970
our 86940
atrice 86903
1981 86873
sions 86855
tin 86825
ves 86687
km 86685
aï@@ 86674
Bretagne 86659
contr@@ 86621
sciences 86608
Parmi 86500
ati@@ 86463
ulaire 86301
Thomas 86136
chapelle 86130
peintre 85966
aucune 85931
ad 85792
longueur 85790
X 85756
plan@@ 85665
considéré 85658
armes 85590
alisme 85545
ano 85488
André 85455
des@@ 85448
forte 85438
pratique 85425
tournoi 85328
mariage 85322
issue 85297
clubs 85198
secteur 85194
1993 85168
savoir 85167
ini 85152
acc@@ 85145
vice 84949
enn@@ 84764
Suisse 84744
moitié 84711
ien 84511
conditions 84465
part@@ 84298
bande 84291
sépar@@ 84261
livres 84255
William 84223
sc@@ 84221
petits 84122
prom@@ 84081
ra@@ 83993
Club 83873
onné 83859
hé@@ 83839
ion 83822
propose 83798
cas@@ 83779
Elles 83728
reprises 83658
utilisée 83623
section 83602
dev@@ 83544
Plus 83358
emb@@ 83344
onnement 83203
presse 83098
maître 83033
abbaye 83005
22 82907
grav@@ 82852
célèbre 82817
ur 82804
isant 82781
ires 82753
police 82656
influence 82580
défense 82553
représentant 82519
gestion 82499
E 82491
As@@ 82468
régions 82456
fonctions 82420
cal@@ 82400
vo@@ 82397
proximité 82380
1975 82339
lorsqu&apos; 82299
ut@@ 82287
longue 82275
For@@ 82198
catholique 82191
Man@@ 82145
1988 82140
hauteur 82120
nuit 82105
ten@@ 82057
comptait 82029
â@@ 82027
ma 82002
presque 81960
co 81941
faut 81911
neuf 81883
qualité 81873
ge@@ 81832
empereur 81746
secrétaire 81715
moteur 81714
passer 81683
sujet 81656
te@@ 81651
1971 81624
ay@@ 81597
pierre 81565
texte 81482
député 81461
médaille 81459
int@@ 81456
commerce 81410
Bel@@ 81389
Institut 81371
Dès 81308
isi@@ 81278
lé@@ 81260
sélection 81111
Sal@@ 81092
évolue 81087
-@@ 81056
accord 81017
entr@@ 81012
conn@@ 80885
enseignement 80793
ak@@ 80781
vitesse 80746
tableau 80736
hi@@ 80730
entreprises 80724
personnages 80711
types 80698
jusqu 80688
ley 80676
Claude 80591
dic@@ 80507
protection 80446
X@@ 80423
réalise 80407
ager 80384
Bas 80364
mot 80360
soutien 80339
w@@ 80319
abilité 80131
appel 80130
royaume 80115
aqu@@ 80084
bes 80084
inf@@ 80077
certain 80051
lance 79980
lieux 79923
doivent 79866
indi@@ 79791
V 79783
ban@@ 79777
aliste 79737
arrondissement 79707
construite 79706
Académie 79678
ais@@ 79652
tiers 79564
relations 79560
vit 79515
artiste 79490
prince 79479
mêmes 79429
siècle 79407
od@@ 79246
hiver 79212
ol 79212
né@@ 79173
fondé 79157
actuel 79040
23 78965
James 78958
rant 78911
enfant 78892
0,@@ 78865
nature 78859
Ab@@ 78834
iss@@ 78691
permis 78670
fr@@ 78635
tur@@ 78627
St@@ 78620
major 78559
Entre 78552
principales 78529
voïvodie 78457
George 78410
Uni 78405
suivi 78354
appelée 78334
ain@@ 78327
orbite 78289
télé@@ 78287
épisode 78233
hors 78232
portant 78092
probablement 78045
bas@@ 77986
moyen 77877
Pl@@ 77822
O 77814
Championnat 77795
directement 77787
continue 77752
structure 77741
vu 77739
débuts 77726
militaires 77430
P 77344
1989 77336
ing@@ 77288
monuments 77220
Loire 77114
fondée 76957
professionnel 76931
mode 76841
pos@@ 76722
Australie 76705
Nicolas 76702
form@@ 76687
isée 76631
Pi@@ 76558
von 76557
rés@@ 76432
parents 76397
localité 76359
composée 76267
arrive 76259
T 76222
ell@@ 76215
nier 76185
joué 76037
thé@@ 75953
décrit 75916
naissance 75906
seurs 75901
ino 75896
offre 75894
Sch@@ 75822
and@@ 75818
bonne 75811
Li@@ 75810
out 75781
haute 75749
pièce 75730
sociale 75709
Lyon 75702
blanc 75638
El@@ 75499
bâtiments 75497
rendre 75463
régime 75325
Premier 75295
circonscription 75251
tenu 75232
acte 75229
pied 75182
ouverture 75165
ski 75138
patrimoine 75022
dispose 74999
éli@@ 74981
présent 74971
liv@@ 74959
traité 74957
Po@@ 74944
40 74930
navire 74926
jouer 74873
énergie 74869
noms 74832
ges 74755
compl@@ 74739
tionn@@ 74739
obtenir 74732
dite 74701
enfin 74681
minutes 74607
chansons 74565
not@@ 74452
éducation 74379
U 74377
Ex@@ 74356
mi@@ 74304
phase 74228
diverses 74177
chargé 74169
tournée 74148
concernant 74146
Del@@ 74144
derrière 74138
bon 74123
question 74109
figure 74089
locale 74008
moderne 73995
mer@@ 73974
Sé@@ 73968
forêts 73963
îles 73959
catégorie 73929
Ser@@ 73791
mat@@ 73578
élève 73569
classique 73532
intégr@@ 73519
000 73442
feu 73345
garde 73338
venir 73296
transport 73271
découverte 73220
classé 73199
ote 73086
lettres 73079
.@@ 73023
techniques 73016
lan@@ 72952
Bi@@ 72941
tour@@ 72928
mi 72860
ey 72851
Berlin 72831
capitaine 72751
tir 72744
hor@@ 72726
H 72718
ministère 72670
écrivain 72665
Bal@@ 72595
rien 72581
édi@@ 72580
ologiques 72500
G 72496
rive 72491
esc@@ 72477
choix 72398
belge 72302
camp 72291
So@@ 72198
créer 72192
courant 72175
ari@@ 72170
autant 72125
je 72118
atiques 72113
Lo@@ 72061
De@@ 72047
eut 72003
Richard 71959
caractéristiques 71939
usage 71875
constitue 71801
pourrait 71789
couleur 71784
de@@ 71769
ya 71749
coup 71723
viol@@ 71671
ov 71661
via 71661
statut 71605
noir 71578
ouvert 71546
éditions 71530
donner 71495
Pro@@ 71477
reprend 71311
off@@ 71196
pan@@ 71162
1986 71134
sh@@ 71035
conf@@ 71021
autor@@ 70896
itaire 70834
no 70770
élo@@ 70770
Terre 70763
utilise 70695
sign@@ 70628
bassin 70622
Vi@@ 70610
N 70579
économie 70575
nom@@ 70572
Bor@@ 70523
vol 70508
euses 70461
Association 70434
Cas@@ 70367
Alors 70315
aud 70279
revient 70224
illes 70220
ess@@ 70201
tar@@ 70180
coll@@ 70122
navires 70059
crée 70056
désigner 70053
puissance 70041
actuellement 69946
pu@@ 69900
frères 69890
tours 69890
ani 69818
conseiller 69762
Her@@ 69725
dernières 69711
Révolution 69710
del 69700
occupe 69699
social 69662
Q@@ 69660
eng@@ 69656
hôtel 69644
Ac@@ 69630
théorie 69619
Caractéristiques 69601
26 69545
yl@@ 69499
exploitation 69491
voyage 69468
anim@@ 69450
réalis@@ 69450
sert 69383
Synopsis 69358
collection 69286
stade 69253
suivantes 69246
peuple 69184
actions 69157
gi@@ 69079
tient 68967
eté 68946
problèmes 68939
emploi 68876
industrie 68862
architecte 68860
latin 68803
scientifique 68717
participation 68712
numéro 68707
essentiellement 68705
opération 68646
seront 68629
ex 68611
Des@@ 68598
ètes 68593
sœur 68581
cœur 68558
soldats 68514
1984 68426
frontière 68341
mondial 68307
étique 68257
propos@@ 68243
fiée 68242
oir 68204
entraîneur 68137
objectif 68128
exposition 68023
fon@@ 68019
image 68010
rent 67955
record 67941
conserv@@ 67926
défaite 67919
auteurs 67897
Guillaume 67886
Sou@@ 67811
décision 67763
sources 67762
officiellement 67709
dur@@ 67704
coupe 67683
éd@@ 67632
tra 67631
br 67596
mal 67553
ates 67549
fonctionn@@ 67526
cartes 67518
1987 67436
supérieure 67392
saisons 67354
devait 67337
langues 67322
Es@@ 67293
ah 67286
ang 67250
Su@@ 67240
palais 67195
bul@@ 67176
Vo@@ 67149
anc@@ 67119
est@@ 67082
gouverneur 66988
1985 66881
central 66874
arrêté 66863
Malgré 66860
commencé 66843
land 66782
Cr@@ 66757
conduit 66693
ici 66677
sites 66654
obtenu 66633
pas@@ 66614
soviétique 66603
lis 66543
littérature 66535
1930 66523
fier 66517
actrice 66405
1968 66383
déclare 66370
fond 66349
illon 66305
explo@@ 66212
naturel 66201
remporté 66201
existence 66157
revue 66154
do 66095
Antoine 66080
formé 66054
ouvre 66034
Haute 66014
Seine 65973
fié 65953
lar@@ 65947
bre@@ 65902
Cour@@ 65823
Montréal 65806
alités 65793
médi@@ 65781
loin 65759
tenue 65746
aller 65669
28 65634
rac@@ 65619
retraite 65590
concours 65556
single 65542
importants 65525
aises 65480
1945 65393
Du@@ 65393
rom@@ 65390
propriété 65355
Alexandre 65340
pape 65328
épreuve 65327
eb@@ 65290
physique 65275
opposition 65267
européen 65263
étape 65256
construire 65255
ali@@ 65238
environnement 65193
Is@@ 65145
mieux 65132
em 65129
ira 65067
changement 65066
Moyen 65061
ï 65051
telles 65007
tif 64972
indépendance 64943
27 64910
Au@@ 64904
largement 64888
1940 64854
quée 64846
densité 64811
ann@@ 64788
istique 64777
disposition 64776
1982 64726
critiques 64711
éti@@ 64675
meilleure 64622
objets 64584
gal@@ 64577
Dame 64548
établissement 64541
ica 64487
ération 64413
ache 64400
anie 64356
studio 64305
bres 64302
tier 64256
National 64242
semaine 64236
françaises 64231
cre@@ 64230
Cela 64182
remplacé 64180
ologue 64165
viv@@ 64156
architecture 64133
Mer@@ 64118
som@@ 64088
illé 63939
Assemblée 63834
côte 63796
recherches 63782
ices 63686
att@@ 63619
semaines 63615
Californie 63614
idae 63603
permettent 63593
chev@@ 63579
magazine 63576
Gar@@ 63537
bert 63531
ré 63503
suivants 63502
van 63485
passant 63454
Royal 63356
relation 63265
dés@@ 63262
Autriche 63257
familles 63227
montagne 63213
commandant 63163
10@@ 63136
me@@ 63091
pe@@ 63053
ly@@ 63030
lutte 63016
Français 62994
Anne 62993
rejoindre 62988
regroupe 62975
du@@ 62955
textes 62954
capacité 62936
Me@@ 62925
religieux 62910
japonais 62909
1983 62865
peinture 62860
communication 62831
─ 62831
î@@ 62810
personnel 62794
maisons 62791
oire 62781
asse 62779
processus 62753
matière 62738
oppos@@ 62711
championnats 62678
iv@@ 62678
forêt 62649
berg 62605
kh@@ 62575
sionn@@ 62541
adi@@ 62516
ond 62463
extérieur 62462
limite 62455
prison 62384
isés 62378
journaliste 62327
superficie 62269
be@@ 62256
sup@@ 62243
1972 62242
ata 62224
commun 62154
ouvrages 62150
longtemps 62138
couleurs 62120
distance 62087
régulièrement 62080
utiliser 62076
projets 62069
mis@@ 62045
anti 62016
Mexique 62014
constitué 62009
Notre 62001
bus 61911
utilisés 61911
Dieu 61907
ules 61899
gmina 61867
Har@@ 61843
isent 61831
tradition 61819
fond@@ 61811
ouv@@ 61754
prati@@ 61699
per 61682
if@@ 61677
Cré@@ 61669
ace 61657
El 61653
animaux 61628
royale 61604
règne 61582
arr@@ 61559
marquée 61550
Bernard 61514
radio 61490
ous 61486
Can@@ 61480
Maurice 61472
diamètre 61345
M. 61344
durée 61339
Albert 61281
sommet 61217
locaux 61216
mari@@ 61150
dr@@ 61107
ones 61082
1973 61078
label 61067
devint 61054
agent 61022
cinquième 61014
alis@@ 61013
Toutefois 60984
intitulé 60977
former 60833
quelque 60831
IV 60776
espagnol 60767
atteindre 60690
eg@@ 60671
dollars 60659
Fr@@ 60658
signifie 60641
veut 60629
couple 60625
faveur 60619
out@@ 60618
information 60605
cur@@ 60548
sait 60529
ea 60517
autorités 60512
souff@@ 60478
régiment 60438
écoles 60434
1976 60429
fondateur 60399
seigneur 60391
oph@@ 60387
pén@@ 60358
Sous 60341
iter 60321
crise 60300
concer@@ 60296
Ri@@ 60293
réalisée 60286
bronze 60274
lettre 60250
réserve 60240
perd 60222
pression 60217
1979 60211
ange 60197
édifice 60179
comporte 60136
caractère 60087
1920 60081
paroisse 60079
tom@@ 60070
1977 60065
gl@@ 60055
fication 60027
Enfin 60021
cad@@ 60012
1974 59987
No@@ 59979
importantes 59967
trouver 59962
originaire 59951
séries 59939
plantes 59930
tement 59894
ep@@ 59890
Ros@@ 59875
Bour@@ 59829
Certains 59824
Vienne 59811
Mas@@ 59761
préc@@ 59756
viennent 59740
He@@ 59737
américains 59716
Cal@@ 59699
paix 59672
Pol@@ 59668
uel 59657
contient 59614
expérience 59598
débute 59591
ak 59570
connaît 59435
sav@@ 59433
responsable 59403
chacun 59384
comité 59374
aur@@ 59351
Sar@@ 59335
entièrement 59286
rép@@ 59284
trouvent 59274
ani@@ 59269
répartition 59259
train 59239
mét@@ 59215
chambre 59186
affaire 59154
cimetière 59153
événements 59098
cer@@ 59063
1978 59061
agé 59042
gen@@ 59015
Inde 59002
faisait 58981
conflit 58967
prof@@ 58960
nouvel 58952
alisé 58948
rurale 58924
onnée 58881
ètre 58808
participé 58776
2@@ 58732
diocèse 58717
Michael 58700
étudiants 58684
ser 58659
articles 58644
Festival 58631
bat@@ 58616
dée 58615
ki 58549
mé 58486
Los 58464
fréqu@@ 58457
ran@@ 58451
Avant 58415
civile 58406
gar@@ 58401
Parlement 58341
loc@@ 58335
Bruxelles 58316
communale 58273
don 58270
appartient 58246
bâ@@ 58143
champ 58136
Trois 58076
déroule 58068
privée 58063
apparition 58051
équ@@ 58041
esp@@ 58037
juste 58027
vers@@ 58001
èse 57986
Henry 57977
Leur 57958
néanmoins 57946
Fédération 57868
attraction 57866
Asie 57846
marine 57819
filles 57799
dessous 57768
powiat 57755
vari@@ 57741
ressort 57681
traitement 57557
commandement 57554
aff@@ 57489
parvient 57488
lycée 57483
reg@@ 57472
Brésil 57282
lit 57259
Ne@@ 57250
petites 57240
justice 57230
installe 57219
provo@@ 57216
urbaine 57178
usine 57175
oux 57171
ection 57170
romaine 57169
Lorsque 57120
maladie 57119
épisodes 57112
hockey 57111
pol@@ 57093
réalité 57089
lumière 57043
v 56962
composition 56946
Mc@@ 56895
artistique 56888
difficile 56855
serv@@ 56792
der@@ 56789
mains 56787
Chambre 56727
mil@@ 56725
ger 56686
amb@@ 56640
Ko@@ 56635
60 56618
éro@@ 56572
lieutenant 56566
tic@@ 56556
variables 56556
informations 56552
Ad@@ 56546
beau 56455
hôpital 56441
unités 56437
onc@@ 56434
totale 56402
1967 56376
gén@@ 56362
ens@@ 56323
ball 56308
iles 56307
ed@@ 56300
élevé 56280
principe 56257
féminin 56244
impos@@ 56230
faits 56216
explique 56137
ys@@ 56098
are 56081
amis 56061
ara 56018
portent 55942
ven@@ 55913
analyse 55897
maintenant 55893
étudie 55887
29 55871
italienne 55835
ste 55819
ond@@ 55808
çant 55808
indique 55805
nég@@ 55765
Gal@@ 55728
alg@@ 55703
habit@@ 55690
200 55662
Mat@@ 55658
anciennes 55630
commission 55616
oni@@ 55565
ly 55560
diffusée 55558
jeunesse 55551
ili@@ 55533
local 55524
eff@@ 55523
dor@@ 55522
organisé 55522
diffusion 55513
voy@@ 55494
professionnelle 55450
problème 55422
quent 55416
infanterie 55389
Âge 55377
dispos@@ 55371
pass@@ 55359
mandat 55332
approche 55268
Cour 55265
vous 55249
vont 55234
couronne 55226
ènes 55214
porter 55165
poids 55150
fonds 55122
Bé@@ 55120
armées 55033
doute 55008
appelle 54992
Pe@@ 54978
amour 54936
compositeur 54920
vente 54918
décret 54914
cathédrale 54901
opérations 54884
ez 54882
publiée 54874
atoire 54868
permettre 54866
rugby 54866
villages 54825
Dr@@ 54822
déroul@@ 54817
prés@@ 54806
fortement 54805
ram@@ 54791
futur 54770
lendemain 54741
propriétaire 54726
Tch@@ 54696
municipal 54688
finit 54641
3@@ 54639
ard@@ 54613
code 54613
victoires 54596
sac@@ 54592
Av@@ 54534
déclar@@ 54531
jug@@ 54527
ix 54523
manque 54491
score 54454
Inter@@ 54453
mu@@ 54415
développé 54397
absence 54351
Str@@ 54348
élèves 54347
ha@@ 54343
nos 54317
devenue 54314
Gau@@ 54293
chinois 54267
termes 54237
mas@@ 54223
Er@@ 54134
nu@@ 54097
1969 54080
uniquement 54067
collaboration 54055
identi@@ 54052
publication 54047
Al 54039
étend 54030
Puis 53962
meilleurs 53962
acteurs 53954
èmes 53891
pal@@ 53880
pouvant 53879
organ@@ 53856
trouv@@ 53849
détermin@@ 53835
marqu@@ 53823
déf@@ 53780
voiture 53776
connaissance 53758
Alpes 53754
systèmes 53749
mémoire 53745
génér@@ 53716
basé 53652
Laurent 53594
réun@@ 53570
ger@@ 53560
soci@@ 53528
tombe 53500
écriture 53460
û@@ 53442
dirige 53430
rées 53424
agriculture 53394
fleuve 53392
Mag@@ 53387
Go@@ 53316
soient 53312
appartenant 53304
morts 53285
ik@@ 53254
mesures 53246
sorte 53237
régionales 53236
q 53197
modèles 53130
fus@@ 53118
Cl@@ 53117
80 53094
atifs 53086
expression 53077
grec 53062
outil 53038
établir 53019
risque 53009
Tar@@ 53004
réalisateur 52992
ête 52983
candidat 52960
fonde 52922
NGC 52906
ase 52851
liberté 52837
imp@@ 52824
cs 52808
dispute 52808
prolong@@ 52790
Pal@@ 52695
Maison 52664
rang 52660
électrique 52652
ambi@@ 52639
publics 52632
Moscou 52631
festival 52611
portée 52604
bureau 52581
journée 52574
tourn@@ 52573
Bl@@ 52569
commande 52538
régional 52517
iller 52516
ed 52508
douze 52477
plein 52436
rock 52429
lesquels 52409
ouverte 52400
tures 52388
faite 52319
mari 52298
socialiste 52256
ja 52246
bor@@ 52237
pay@@ 52227
propres 52226
parcours 52222
élec@@ 52200
iti@@ 52186
1964 52175
Commission 52169
coul@@ 52143
résultat 52122
tente 52119
tro@@ 52112
Algérie 52110
agricole 52107
poursuit 52069
lam@@ 52063
1962 52030
Daniel 52017
esprit 52013
actifs 52005
fondation 52004
éviter 51989
pose 51979
Marseille 51972
vin 51966
Ren@@ 51938
chute 51911
valeurs 51900
note 51884
parti@@ 51827
philosophie 51820
hom@@ 51807
1944 51806
mag@@ 51776
dispar@@ 51756
pé@@ 51750
vote 51727
ault 51706
participer 51695
célébr@@ 51689
nécessaire 51689
naturelle 51676
dem@@ 51667
enquête 51660
parce 51651
Ger@@ 51623
ie@@ 51613
visite 51608
chi@@ 51602
quet 51598
effectue 51586
io 51585
application 51567
vis 51564
ko 51547
peine 51545
proches 51545
vision 51536
avion 51517
véritable 51516
fix@@ 51514
chan@@ 51497
médecine 51482
actif 51447
développ@@ 51444
dre 51418
Irlande 51405
Art 51404
iers 51391
basse 51371
lé 51349
suisse 51333
compose 51319
reprise 51306
désigne 51285
condam@@ 51283
Championnats 51282
isol@@ 51268
èle 51265
présenté 51249
Vie 51240
rend@@ 51227
ita 51205
fa@@ 51203
produire 51192
1965 51185
mises 51163
dû 51131
fil@@ 51111
onde 51091
gues 51081
scientifiques 51079
méthode 51065
êtes 51053
rej@@ 51046
4@@ 51021
City 51005
travailler 50999
relativement 50965
isse 50958
cat@@ 50944
fusion 50925
cher@@ 50832
Fl@@ 50821
Ter@@ 50819
Ag@@ 50812
1966 50808
reine 50789
portes 50742
31 50728
collabor@@ 50715
pes 50708
annuelle 50684
ient 50673
Ph@@ 50649
Marc 50639
aus@@ 50634
oy@@ 50622
gaz 50618
collège 50611
cit@@ 50577
cheval 50552
ôme 50533
places 50461
officier 50411
conception 50407
nés 50405
Peter 50393
officiel 50360
ferme 50358
pilote 50344
neau 50316
législatives 50302
mène 50162
lig@@ 50150
René 50145
rach@@ 50137
moyens 50134
bour@@ 50112
hér@@ 50105
La@@ 50096
chanteur 50078
graphie 50068
cont@@ 50065
caractérisée 50062
ong 50062
fo@@ 50040
fic@@ 50035
photos 50028
missions 50023
puisque 50023
log@@ 50006
sport 49965
World 49951
promotion 49938
thème 49908
Pré@@ 49902
j 49899
domin@@ 49891
Sol@@ 49882
vert 49869
assurer 49865
érieures 49804
centr@@ 49794
ke 49793
communiste 49782
ots 49781
euros 49758
Distribution 49723
sau@@ 49719
domicile 49713
Toulouse 49692
poly@@ 49685
mur 49677
monument 49669
voire 49633
qués 49629
domaines 49628
Quelques 49604
juge 49588
bé@@ 49585
ciel 49550
voies 49546
irent 49441
onie 49431
Et 49415
ae 49413
ich@@ 49375
masse 49374
ray@@ 49364
sin@@ 49330
Chaque 49319
den 49292
auté 49288
iz@@ 49288
ah@@ 49284
Lu@@ 49278
1939 49272
trente 49247
laisse 49243
complexe 49242
deur 49201
pap@@ 49199
Tout 49122
aj@@ 49118
crois@@ 49100
raisons 49072
Cou@@ 49071
pouvait 49063
rapide 49051
pur@@ 49041
disque 49033
fourn@@ 49030
Mari@@ 49005
Ni@@ 48975
Maria 48960
biens 48943
mobil@@ 48935
engage 48911
aci@@ 48897
footballeur 48882
arabe 48870
polonais 48855
intègre 48852
procès 48850
ferroviaire 48848
auto@@ 48830
idé@@ 48820
Bas@@ 48815
écrite 48809
autorité 48805
économiques 48789
Aux 48788
mir@@ 48788
avions 48706
gros 48701
arrêt 48700
1958 48666
Musée 48661
science 48605
sauf 48599
étranger 48599
Angeles 48582
prit 48569
élus 48518
décor@@ 48433
vé@@ 48433
dés 48396
ule 48382
Comité 48355
dat@@ 48351
tis 48349
vot@@ 48349
résistance 48348
sif 48332
aériennes 48321
Tur@@ 48299
chi 48287
Land 48235
&#124; 48225
pat@@ 48214
dirigé 48210
distribution 48166
auparavant 48150
députés 48130
bu@@ 48103
prenant 48099
prot@@ 48089
effectu@@ 48085
naît 48081
hommage 48080
1866 48026
her@@ 48012
réaliser 48009
Celui 47999
contexte 47987
Jo@@ 47960
tent 47956
Démographie 47947
alli@@ 47945
heure 47889
assi@@ 47880
nant 47855
oue 47851
ō 47851
tran@@ 47806
populations 47777
super@@ 47765
atives 47758
concept 47744
apo@@ 47735
endémique 47725
illustr@@ 47715
rement 47705
lin@@ 47681
mesur@@ 47681
direc@@ 47658
perdu 47640
officielle 47601
Étienne 47598
bles 47577
ist@@ 47566
ju@@ 47551
utilisant 47546
matériel 47542
semi 47541
amén@@ 47525
til@@ 47525
oug@@ 47514
ature 47500
universitaire 47500
go@@ 47494
ome 47494
rassemb@@ 47493
Suède 47456
1963 47426
elli 47402
ari 47393
Kar@@ 47365
effets 47357
littéraire 47352
initi@@ 47282
albums 47281
irs 47270
uti@@ 47269
ablement 47264
canal 47255
découvre 47226
décédé 47202
oles 47199
im 47177
naturels 47169
ards 47167
parle 47164
Frédéric 47114
expos@@ 47113
tim@@ 47102
due 47095
ume 47086
Beau@@ 47018
sy@@ 46931
bat 46927
organise 46878
appliqu@@ 46829
mouvements 46799
aura 46781
pres@@ 46775
culturel 46759
Mus@@ 46750
Sa@@ 46748
Min@@ 46740
pa@@ 46704
contrô@@ 46685
entier 46644
producteur 46632
Mac@@ 46626
aye 46617
montée 46614
éni@@ 46605
climats 46602
ordres 46544
favor@@ 46543
capit@@ 46536
initialement 46512
fabri@@ 46495
ton@@ 46493
Arts 46492
besoin 46485
glace 46483
échelle 46472
gens 46463
épo@@ 46463
prises 46454
Dev@@ 46404
Fer@@ 46404
Nouveau 46370
ève 46337
développe 46336
façade 46335
ty@@ 46332
mann 46325
ein@@ 46305
aéroport 46294
respectivement 46283
ella 46275
grille 46265
Victor 46235
tôt 46193
sent 46157
chasse 46118
yn@@ 46118
représent@@ 46116
roy@@ 46110
correspond 46109
Ou@@ 46036
pri@@ 46030
1956 46024
oniques 45999
uelle 45984
Bri@@ 45978
attribu@@ 45971
landais 45971
marins 45922
prépar@@ 45912
circuit 45892
concerne 45889
Bordeaux 45882
1914 45869
affirme 45868
préfecture 45833
érée 45831
colonel 45814
sch@@ 45804
Armée 45801
plans 45792
lancé 45782
Dou@@ 45763
post@@ 45759
Division 45735
historien 45723
idées 45710
acqu@@ 45689
gagne 45649
traverse 45647
ura 45641
fé@@ 45586
by 45585
ha 45564
désign@@ 45557
titulaire 45502
médecin 45492
patr@@ 45479
Croix 45386
ède 45378
tionnelle 45375
45 45363
page 45361
accueille 45359
1948 45339
rest@@ 45334
om 45300
croix 45225
International 45221
St 45213
pot@@ 45202
retourne 45198
ors 45168
Compagnie 45124
monastère 45118
ell 45089
mots 45082
ège 45050
cin@@ 45023
rencontres 45003
1946 44998
quit@@ 44997
caus@@ 44984
génération 44981
romain 44972
agglomération 44930
succ@@ 44917
entraî@@ 44909
réalisation 44909
établissements 44890
anglaise 44888
lou@@ 44860
tra@@ 44859
occup@@ 44854
britanniques 44841
ye 44837
croissance 44835
K 44833
chap@@ 44832
entour@@ 44824
6@@ 44820
regroup@@ 44820
ba 44809
tionnel 44807
Washington 44796
bras 44780
ho@@ 44756
vainqueur 44756
arg@@ 44745
1961 44697
inclinaison 44683
Écosse 44674
ama 44662
lien 44653
propos 44641
Hu@@ 44565
agn@@ 44520
Grèce 44503
sociétés 44502
disponible 44498
ref@@ 44494
connus 44483
conver@@ 44472
cô@@ 44463
annoncé 44427
8@@ 44423
publiés 44396
Val 44394
obten@@ 44394
onyme 44394
za 44392
fusi@@ 44365
Records 44337
cam@@ 44331
périhélie 44328
reconn@@ 44314
Juifs 44265
piste 44264
considérée 44259
versions 44255
Culture 44251
1820 44234
7@@ 44223
issu 44219
icien 44201
locales 44169
considère 44156
ł@@ 44141
tel@@ 44109
décès 44105
télévisée 44096
guerres 44095
jo@@ 44092
abou@@ 44089
rep@@ 44085
poète 44080
35 44043
termin@@ 44035
franch@@ 44027
ça 44024
pen@@ 44021
1959 44010
500 44002
médic@@ 43999
automobile 43996
choisi 43996
olympique 43978
Jules 43946
Gi@@ 43933
Groupe 43920
ignant 43918
observ@@ 43908
cel@@ 43907
médias 43906
présent@@ 43876
bénéfici@@ 43875
victimes 43867
représentation 43866
orchestre 43850
échange 43839
quel@@ 43838
Égypte 43831
dan@@ 43824
5@@ 43800
ame 43783
représentants 43775
Ville 43762
chevaux 43761
US 43748
ze 43741
envoyé 43738
entation 43719
combats 43718
Tor@@ 43701
thèse 43649
publiques 43639
Bon@@ 43632
vivant 43616
présidence 43612
Por@@ 43606
Kh@@ 43596
yr@@ 43591
contact 43590
accessibles 43589
At@@ 43580
ière 43577
marqué 43573
final 43561
nomme 43549
majeure 43531
rie 43511
Van 43492
delà 43490
estim@@ 43484
riche 43480
assur@@ 43478
Île 43472
pron@@ 43465
ala 43431
concert 43421
signific@@ 43421
Sp@@ 43389
abbé 43370
érant 43368
ect@@ 43366
1936 43340
ail@@ 43335
avance 43334
intéress@@ 43334
réseaux 43330
officiers 43320
Bre@@ 43310
vic@@ 43307
Ann@@ 43294
1947 43291
régionale 43243
changements 43235
soir 43221
lant 43204
lesquelles 43194
atta@@ 43191
ca 43176
déclaré 43165
ert 43162
oth@@ 43158
ingénieur 43120
japonaise 43114
ai@@ 43102
vir@@ 43088
diplôme 43050
rier 43041
religion 43035
impose 43023
murs 43023
vin@@ 42993
musicale 42983
exception 42982
fil 42975
inst@@ 42968
Aut@@ 42960
ord@@ 42959
trains 42949
ment@@ 42948
sièges 42941
Mont 42938
exist@@ 42921
José 42917
ématique 42907
organisée 42888
hô@@ 42851
Chicago 42837
exp@@ 42835
hy@@ 42794
vieux 42789
Est@@ 42787
sexu@@ 42786
dépos@@ 42773
jardin 42733
transports 42731
Roger 42708
á@@ 42708
départemental 42706
réussit 42695
70 42693
latér@@ 42685
esses 42662
excentricité 42645
Kr@@ 42597
culte 42578
quitter 42572
Château 42562
Air 42560
Cro@@ 42554
fu@@ 42549
aces 42543
bibliothèque 42541
signé 42534
ulation 42534
milieux 42524
ici@@ 42518
ide 42516
estimé 42509
fac@@ 42487
feuilles 42480
révolution 42476
ler@@ 42457
Tous 42455
Rou@@ 42453
mén@@ 42432
reconnaissance 42406
développer 42399
physiques 42395
morte 42369
questions 42369
ailles 42368
los 42366
q@@ 42357
restauration 42346
Pan@@ 42345
honor@@ 42330
augmentation 42323
estime 42318
pér@@ 42318
har@@ 42317
Insee 42281
Dom@@ 42276
Do@@ 42275
front 42268
alisée 42261
ars 42256
appréci@@ 42254
refuse 42240
Denis 42232
Rhône 42219
dimin@@ 42199
Quand 42179
demeure 42147
ressources 42146
espagnole 42135
orité 42130
véhicules 42117
Christian 42116
temple 42082
té@@ 42082
anes 42078
originale 42076
œ@@ 42066
sociales 42063
ret 42059
igu@@ 42048
printemps 42041
Lé@@ 42040
lib@@ 42029
certaine 42006
précipitations 41998
Ang@@ 41997
héros 41990
prennent 41990
Mil@@ 41965
conten@@ 41942
différence 41911
tué 41905
écliptique 41898
avocat 41896
bout 41892
reli@@ 41892
Situation 41874
Ti@@ 41825
1949 41810
continu@@ 41804
clo@@ 41802
endroit 41768
rares 41767
pa 41756
beaux 41745
documents 41734
partage 41703
essais 41702
étr@@ 41671
li 41663
1942 41661
Orléans 41659
conserve 41652
Portugal 41644
vivre 41631
publi@@ 41621
oiseaux 41620
hu@@ 41613
1918 41578
vite 41574
conférence 41572
secondes 41566
arc@@ 41532
mettant 41515
nations 41515
app@@ 41506
fémin@@ 41496
Ho@@ 41492
hab@@ 41465
Ba@@ 41455
flotte 41451
figur@@ 41422
devrait 41421
ji 41413
igny 41391
ys 41385
branche 41365
évo@@ 41349
To@@ 41342
Orient 41341
nor@@ 41293
annex@@ 41261
ib@@ 41253
Hongrie 41244
Ap@@ 41234
orient@@ 41206
rière 41195
sie 41195
cé@@ 41162
associé 41149
époques 41147
métropole 41145
tifs 41128
tab@@ 41124
serbe 41111
ographie 41108
tie 41104
1957 41100
1954 41072
chanteuse 41069
profit 41063
Pon@@ 41052
uss@@ 41044
arch@@ 41031
inage 41015
1943 41010
Alain 40982
sociaux 40981
1938 40952
agu@@ 40951
fête 40951
1955 40940
aill@@ 40937
expédition 40927
Tour@@ 40911
ande 40903
enfance 40901
réforme 40877
restaur@@ 40865
pon@@ 40860
donn@@ 40858
ao 40839
vaste 40829
chœur 40808
consiste 40801
aliers 40780
zi@@ 40779
exemplaires 40776
limit@@ 40776
yeux 40771
32 40770
90 40751
consommation 40745
for 40732
étage 40728
mont@@ 40699
élément 40688
édit@@ 40685
ada 40677
ca@@ 40675
Santa 40673
adaptation 40666
traduit 40609
table 40608
envis@@ 40604
nation 40578
sixième 40570
établi 40566
A. 40558
uni@@ 40556
forment 40554
ath@@ 40536
Bu@@ 40524
Léon 40516
étrangères 40516
mou@@ 40512
volonté 40512
Simon 40500
présents 40494
syn@@ 40494
candidats 40487
vent 40475
piano 40472
accident 40461
basée 40461
noire 40461
lin 40459
revanche 40456
allemands 40450
ach 40443
1941 40438
inférieur 40402
ida 40367
ek 40356
lent 40343
seuls 40320
vend@@ 40315
atelier 40311
humaine 40303
Im@@ 40289
commercial 40289
progressivement 40284
règles 40266
bé 40254
consom@@ 40252
Auguste 40236
Corée 40235
Maz@@ 40235
possibilité 40232
spécialiste 40220
rois 40204
cycle 40203
change 40196
cot@@ 40190
massif 40168
adjoint 40161
Stade 40157
scènes 40117
modi@@ 40108
Israël 40088
bon@@ 40086
ruisseau 40075
Petit 40062
appelés 40056
neurs 40052
sang 40046
9@@ 40040
prévoit 40030
travers@@ 40029
assure 40007
aider 40000
sme 40000
tribunal 39991
distinc@@ 39949
ignent 39923
retrouv@@ 39916
disput@@ 39904
Don@@ 39891
oise 39878
voyageurs 39878
Genève 39873
ême 39869
images 39861
ble 39835
Climat 39834
libération 39833
endra 39817
reconnu 39816
placé 39812
partis 39786
événement 39779
ret@@ 39769
tue 39769
1952 39767
XV 39758
origin@@ 39757
résidence 39751
compar@@ 39739
tière 39739
techn@@ 39734
identité 39717
Fo@@ 39705
ous@@ 39700
conc@@ 39692
inform@@ 39692
marche 39683
tre@@ 39674
emplacement 39667
Baptiste 39665
Congrès 39662
érieurs 39654
J 39647
présentant 39646
travaillé 39629
radi@@ 39622
ports 39618
condu@@ 39611
complète 39608
connaître 39584
romans 39579
Mol@@ 39577
Madrid 39540
plateau 39535
Comté 39513
discours 39512
original 39511
dro@@ 39510
notre 39502
tiennent 39478
utilisées 39478
Tri@@ 39463
ison 39459
chemins 39450
rati@@ 39449
Si@@ 39447
béné@@ 39439
pens@@ 39438
communal 39434
tenant 39434
trait@@ 39432
èche 39427
Radio 39408
Chi@@ 39404
mique 39395
roul@@ 39386
Esp@@ 39380
fabrication 39373
transform@@ 39371
tempor@@ 39338
su 39315
uv@@ 39315
itement 39305
Thi@@ 39299
1953 39298
positi@@ 39294
simplement 39267
anger 39265
suites 39258
servir 39244
constituée 39231
flor@@ 39231
2022 39222
este 39207
organis@@ 39202
don@@ 39200
puisqu&apos; 39191
College 39183
ick 39183
imprim@@ 39183
Provence 39170
four@@ 39166
trou@@ 39157
trice 39148
boul@@ 39139
champions 39128
League 39122
cons@@ 39121
espaces 39100
alt@@ 39088
Ju@@ 39016
volume 39006
otte 38988
siècles 38954
privé 38915
sec@@ 38910
ode 38899
Peu 38896
Nations 38880
ail 38865
yer 38850
repris 38849
prévu 38840
érie 38838
écr@@ 38837
cule 38836
programmes 38836
ds 38822
Répartition 38813
Park 38802
arm@@ 38791
tée 38789
mention 38776
détaillée 38767
lir 38744
Occupation 38743
Édouard 38743
aud@@ 38740
Mi@@ 38738
Étymologie 38731
comm@@ 38726
régulière 38721
Maroc 38717
apprend 38716
positions 38711
déplac@@ 38676
émer@@ 38665
religieuse 38664
forc@@ 38652
chefs 38650
fau@@ 38637
royal 38637
envers 38634
concerts 38630
Gen@@ 38610
métro 38603
accompagn@@ 38600
professionnels 38582
Strasbourg 38573
ores 38573
dét@@ 38572
Toponymie 38571
appr@@ 38555
écriv@@ 38526
définitivement 38524
Catherine 38523
implant@@ 38511
internationales 38466
denses 38465
1937 38462
Côte 38451
artillerie 38450
eries 38450
direct 38449
w 38432
personnalités 38419
Ol@@ 38383
Jeanne 38374
spectacle 38365
occidentale 38354
hum@@ 38352
consacré 38343
dehors 38341
irement 38340
San@@ 38320
précédente 38318
niveaux 38309
majeur 38308
issus 38306
psych@@ 38290
Hor@@ 38282
Milan 38276
Ben@@ 38270
difficultés 38270
active 38268
cent 38252
emment 38248
lot 38232
rendu 38212
coup@@ 38210
abrite 38201
ori 38195
dessin@@ 38194
pâ@@ 38190
routes 38180
connues 38170
adop@@ 38156
Or 38150
Savoie 38146
lat@@ 38137
jaune 38133
ini@@ 38130
nationales 38121
Économie 38105
gique 38100
aissent 38089
sujets 38087
immédiatement 38083
concentr@@ 38068
logements 38032
écrits 38024
conçu 38012
my@@ 38006
Pom@@ 38001
baie 37991
tionnaire 37973
quartiers 37971
diffus@@ 37957
agne 37942
éditeur 37931
démocratique 37916
aiss@@ 37909
oni 37903
rôles 37889
protest@@ 37882
échec 37867
1933 37866
danse 37863
parler 37860
angle 37856
liaison 37836
Mel@@ 37834
J. 37833
constitution 37832
mines 37828
ôt 37814
Marine 37807
comparer 37804
ther@@ 37801
distingue 37786
enseign@@ 37782
ong@@ 37778
légèrement 37775
parallèle 37763
Allemands 37762
datant 37761
mun@@ 37757
Bur@@ 37740
fiction 37734
aî@@ 37730
initiative 37729
voitures 37729
Sam@@ 37723
Marcel 37705
Communauté 37670
combin@@ 37670
univers 37664
ford 37651
fédéral 37625
ose 37592
1919 37590
tou@@ 37580
ts@@ 37564
lée 37562
uc@@ 37557
agr@@ 37554
courses 37539
dépend@@ 37520
bro@@ 37514
Vol@@ 37509
succède 37504
mus@@ 37447
Théâtre 37441
européens 37420
intermédiaire 37420
décidé 37419
aménagement 37409
igne 37409
Rom@@ 37403
Ur@@ 37402
scrutin 37375
ros@@ 37342
administrative 37287
sén@@ 37277
tit 37261
tenir 37255
Mad@@ 37251
isées 37242
prisonniers 37242
phot@@ 37239
allant 37238
arrê@@ 37213
Urbanisme 37204
Gor@@ 37191
1951 37183
Men@@ 37181
automne 37166
blanche 37165
enter 37161
tives 37161
performance 37145
1@@ 37143
marin 37138
atte@@ 37136
dynastie 37136
Comp@@ 37113
absolue 37080
Politique 37039
tourne 37020
animation 37015
sen 37009
suivent 37003
tements 37002
dique 36999
iment 36992
Atlantique 36973
normale 36964
bin@@ 36925
phe 36923
all 36907
ajout@@ 36895
mettent 36893
qualifié 36887
établit 36874
cho@@ 36873
Ordre 36870
1935 36858
négoci@@ 36854
ult@@ 36825
établie 36820
requ@@ 36817
dessinée 36806
donnant 36804
reur 36804
vie@@ 36797
arbres 36779
introdu@@ 36759
écrire 36755
associations 36753
enseigne 36753
Vincent 36749
récit 36748
Christ 36743
étend@@ 36732
chevalier 36729
cérémonie 36725
interprète 36725
épreuves 36714
présidentielle 36713
pourtant 36710
Nantes 36708
š@@ 36707
Bau@@ 36703
statue 36699
ola 36678
belle 36667
Administration 36661
aut 36645
Der@@ 36610
end 36600
Napoléon 36586
peur 36566
protéger 36537
écologique 36534
Tou@@ 36518
mand@@ 36512
prêtre 36502
communautés 36501
fortes 36494
Pyrénées 36492
ry 36487
forts 36476
aque 36464
onze 36459
aéro@@ 36458
once 36424
suff@@ 36422
str@@ 36393
départementale 36392
nef 36377
intervention 36364
échelles 36351
Cap@@ 36348
rues 36332
èvement 36325
mathématiques 36318
Argentine 36312
ic 36298
Monde 36297
européennes 36294
lait 36292
océanique 36285
Francisco 36279
Vers 36273
tennis 36270
consécu@@ 36233
Te@@ 36231
Haut 36227
nour@@ 36226
cach@@ 36209
stations 36199
dessin 36197
basket 36186
éré@@ 36162
union 36155
barr@@ 36153
secondaires 36148
command@@ 36145
alisés 36144
chacune 36136
dép@@ 36125
gien 36125
Cassini 36114
age@@ 36113
up@@ 36107
demand@@ 36106
soul@@ 36093
enses 36091
aspect 36084
conséquence 36078
fleurs 36072
aliser 36051
pul@@ 36040
Pont 36032
fonctionnement 36029
cabinet 36025
ato 36015
canadien 36015
chose 36009
bleu 35996
étoiles 35968
étrangers 35966
humains 35950
ber 35948
IGN 35946
ps 35942
gence 35912
érique 35912
Sor@@ 35910
baron 35909
Typologie 35897
dos 35887
phénomène 35885
flam@@ 35880
commerci@@ 35879
1929 35878
tait 35865
venant 35839
impliqu@@ 35820
éran@@ 35816
suivre 35781
Organisation 35779
Lang@@ 35777
gagn@@ 35772
trafic 35765
riv@@ 35759
Sur@@ 35756
inspiré 35756
ider 35745
Mir@@ 35738
féminine 35736
associ@@ 35728
accepte 35677
ul 35665
écou@@ 35656
mot@@ 35654
patri@@ 35653
avenue 35650
1934 35648
vécu 35634
dure 35601
lique 35596
archives 35590
Tro@@ 35585
éné@@ 35578
mine 35564
oiseau 35560
Roi 35559
franco 35540
sp@@ 35530
Hol@@ 35517
distribu@@ 35516
quinze 35499
liés 35498
réaction 35491
auquel 35490
trône 35486
appareil 35475
Lou@@ 35471
Arthur 35469
promu 35469
pouss@@ 35448
solution 35433
menée 35429
asi@@ 35423
cab@@ 35423
exig@@ 35415
moteurs 35403
perte 35393
onique 35387
fre@@ 35357
ols 35348
réponse 35334
he 35330
entrer 35306
Celle 35302
stes 35297
humain 35289
classes 35235
Localisation 35231
proportion 35228
1932 35222
ri 35220
courte 35210
ner@@ 35196
classification 35187
limitée 35186
autonome 35184
Pic@@ 35181
détruit 35167
├ 35164
cultiv@@ 35161
onner 35160
ona 35155
retrouver 35151
amment 35145
impériale 35140
émissions 35117
tenus 35090
Néanmoins 35089
entaire 35086
1900 35075
sil@@ 35067
actes 35065
Mur@@ 35061
Gé@@ 35051
ogie 35047
Ram@@ 35042
diffusé 35040
pouvoirs 35035
endre 35031
mécan@@ 35026
duc@@ 35023
Service 35005
contraire 35001
victime 34978
légi@@ 34957
restent 34948
phil@@ 34935
toire 34935
révèle 34914
nationaux 34898
Disney 34894
polonaise 34876
chau@@ 34874
montré 34858
tentative 34848
matin 34846
ienne 34839
Barcelone 34829
commun@@ 34827
ast@@ 34822
circulation 34811
enceinte 34804
secondaire 34797
conservé 34795
installé 34794
oblig@@ 34788
avi@@ 34780
Normandie 34779
classée 34777
enregistré 34756
div@@ 34752
vern@@ 34749
dépend 34746
cycliste 34741
ów 34739
musical 34720
explic@@ 34714
Patrick 34662
excep@@ 34631
Sc@@ 34626
captur@@ 34612
situés 34608
totalement 34581
33 34578
extension 34577
primaire 34547
th 34547
conseillers 34532
Bourgogne 34530
correspondant 34529
quart 34525
ena 34516
so 34508
oppose 34500
cav@@ 34492
1928 34483
salles 34482
Marne 34470
pense 34463
licence 34455
Cam@@ 34451
300 34447
igner 34422
tisme 34420
dia 34414
ora 34412
néo 34410
auraient 34385
assemblée 34359
Dor@@ 34358
Smith 34340
religieuses 34332
Vil@@ 34320
Lille 34314
modernes 34302
Vierge 34289
terrains 34289
Fin 34287
èvre 34284
School 34271
paru 34271
Fon@@ 34269
atis@@ 34262
aérienne 34259
och@@ 34254
lo 34249
pêche 34242
reven@@ 34236
conqu@@ 34227
lanc@@ 34223
400 34205
tan@@ 34201
naturelles 34187
écl@@ 34183
mod@@ 34167
eth@@ 34166
Bru@@ 34155
format 34155
suiv@@ 34134
ériques 34130
extrême 34126
disparu 34125
ug@@ 34124
accor@@ 34117
destiné 34116
occupé 34113
quin@@ 34103
race 34100
aband@@ 34094
Cover 34093
compétitions 34078
1924 34072
Ru@@ 34070
Corine 34068
résist@@ 34066
soutient 34060
constituent 34051
class@@ 34050
attention 34045
désigné 34044
cardinal 34033
als 34009
proj@@ 33998
intellectu@@ 33995
Ban@@ 33985
Cin@@ 33982
installer 33980
pointe 33979
aîné 33959
1910 33955
Thé@@ 33942
visant 33939
Lam@@ 33934
septième 33927
arbre 33923
tend@@ 33923
représenté 33919
ax@@ 33911
empire 33910
Guy 33905
administratif 33881
institutions 33878
vendu 33876
appellation 33835
journ@@ 33834
dits 33831
chauff@@ 33822
ty 33815
isses 33810
Mah@@ 33802
voient 33801
dres@@ 33799
précédent 33793
contenant 33789
CD 33775
Os@@ 33774
AC 33765
améliorer 33748
Juan 33724
étiques 33722
essai 33717
gh@@ 33715
2,@@ 33712
montagnes 33694
ification 33691
sportive 33687
main@@ 33674
Né@@ 33669
ouvrir 33669
Je 33666
contribu@@ 33665
conduite 33651
utilisent 33647
Cer@@ 33646
fam@@ 33644
néerlandais 33634
dirigée 33633
numérique 33629
battu 33627
Outre 33623
aisse 33612
dirigeants 33608
éta@@ 33605
méthodes 33604
ek@@ 33600
tal@@ 33595
condamné 33586
démocrate 33584
jum@@ 33575
doctorat 33546
comédie 33535
sus@@ 33523
trac@@ 33513
sel@@ 33509
indépendant 33504
oires 33502
alise 33500
américaines 33498
quantité 33498
mentionn@@ 33495
Un@@ 33484
assemb@@ 33480
graphique 33474
biophysique 33469
Port 33463
iens 33459
cla@@ 33452
édité 33440
pratiques 33438
puiss@@ 33430
phare 33417
Famille 33402
présentent 33400
prairies 33397
ami@@ 33395
individus 33392
évolu@@ 33392
inv@@ 33390
températures 33372
erait 33370
Op@@ 33355
Jeunesse 33351
véhicule 33349
lié 33340
lev@@ 33331
langage 33315
qua 33307
incendie 33298
couverture 33278
précise 33273
modern@@ 33271
proch@@ 33266
recrut@@ 33266
nucléaire 33260
collec@@ 33255
ker 33249
ks 33230
CLC 33218
servi 33206
rig@@ 33188
uer 33182
col 33178
Antonio 33157
donnée 33151
AS 33148
comprenant 33141
san@@ 33134
ati 33132
égalité 33129
érés 33125
enf@@ 33109
ont@@ 33107
pein@@ 33094
enregistrement 33084
1870 33082
Super 33076
Em@@ 33075
structures 33054
équipage 33049
musiciens 33039
ajoute 33031
CE@@ 33029
installation 33023
Bro@@ 33022
succes@@ 33020
complet 33015
uri@@ 33011
Tokyo 33010
isson 33010
similaire 33010
Lorraine 32986
complètement 32973
prim@@ 32954
affir@@ 32945
venu 32940
performances 32927
Gir@@ 32921
liées 32920
vig@@ 32918
36 32910
élevée 32903
grade 32876
oli@@ 32846
coopération 32840
somme 32840
Hom@@ 32833
sig@@ 32812
cens@@ 32801
arriv@@ 32788
trouvé 32784
Né 32778
utilis@@ 32769
sel 32758
traduction 32738
étudier 32734
centres 32732
organisations 32732
raconte 32714
inspir@@ 32707
égi@@ 32705
Jésus 32683
1925 32679
ographiques 32668
rester 32661
intitulée 32656
tien 32654
attaques 32653
trouvait 32651
Fin@@ 32649
met@@ 32635
lancer 32627
esti@@ 32619
totalité 32615
travaill@@ 32609
vas@@ 32599
sortir 32591
profondeur 32589
SC 32587
ë@@ 32582
présenter 32581
spécifique 32572
étoile 32569
décr@@ 32555
nou@@ 32538
istiques 32535
végét@@ 32535
veille 32530
coût 32525
géographique 32525
arde 32512
Hal@@ 32511
crimin@@ 32510
dig@@ 32508
tendance 32466
opér@@ 32449
cultures 32447
Reg@@ 32445
croy@@ 32417
hydro@@ 32417
éens 32417
1912 32415
ali 32415
Pou@@ 32405
Aur@@ 32394
généraux 32384
canadienne 32380
étab@@ 32379
accueil 32376
desservie 32375
transition 32347
illy 32344
maximum 32334
civil 32328
Raymond 32323
propriétés 32323
docteur 32322
juive 32322
Turquie 32319
identique 32319
Zélande 32314
time 32312
deviennent 32311
tron@@ 32309
1931 32303
preuve 32298
répar@@ 32294
activ@@ 32292
provinces 32287
ési@@ 32266
quotidien 32254
interprétation 32242
liée 32220
planète 32216
construits 32214
Je@@ 32212
souha@@ 32193
amiral 32190
accro@@ 32189
multiples 32181
visible 32180
inscription 32145
cant@@ 32143
nav@@ 32140
observatoire 32139
Pas@@ 32128
č@@ 32108
chapitre 32094
affect@@ 32076
oncle 32069
intr@@ 32057
cellules 32049
diff@@ 32048
pel@@ 32046
Certaines 32031
omb@@ 32021
itaires 32017
oul 32015
archevêque 31995
rappel@@ 31989
Év@@ 31989
abond@@ 31985
cy@@ 31971
parlementaire 31969
éo 31965
transfert 31958
ges@@ 31951
comment@@ 31942
instruments 31930
diplom@@ 31925
jur@@ 31921
umes 31917
directe 31911
interne 31909
typologie 31901
pleine 31896
tournage 31894
introduit 31891
avis 31878
ban 31871
propriétaires 31854
dériv@@ 31849
aile 31830
public@@ 31816
Jusqu&apos; 31773
tradu@@ 31772
liens 31764
églises 31759
Serbie 31750
Sav@@ 31743
exécution 31743
affluent 31741
documentaire 31740
peintures 31740
Constitution 31734
invent@@ 31733
quées 31733
météorologique 31727
étudi@@ 31727
masculin 31714
antique 31689
troit 31670
lande 31660
postes 31648
xe 31648
barrage 31629
Affaires 31626
Music 31620
terminé 31617
solo 31616
Cat@@ 31609
taient 31605
cos@@ 31604
tiv@@ 31604
net 31592
scénario 31590
illa 31580
capable 31578
Ker@@ 31575
besoins 31568
AS@@ 31560
remonte 31560
Texas 31558
apparaissent 31558
Ir@@ 31546
Population 31545
Lee 31537
Luxembourg 31535
remplacer 31534
Max 31529
vrai 31522
commer@@ 31501
ā@@ 31489
évolué 31488
Palais 31477
élevage 31477
galerie 31470
invasion 31469
devenant 31463
con 31460
1921 31453
Colombie 31453
emprun@@ 31451
Wal@@ 31442
origines 31436
0@@ 31416
1926 31409
gé 31408
orientale 31402
provenant 31402
Far@@ 31401
accompagné 31401
ny 31392
United 31382
geant 31381
venue 31380
èses 31376
industriel 31368
cy 31362
Ukraine 31349
lecture 31349
usa 31343
arc 31338
unies 31331
dan 31325
élite 31314
Alfred 31308
illage 31305
ister 31299
Ham@@ 31286
récol@@ 31286
onnés 31260
Finlande 31258
agence 31252
1922 31246
bass@@ 31244
ok@@ 31244
aw@@ 31214
ico 31204
Han@@ 31203
davantage 31203
destruction 31202
définition 31198
West 31183
TV 31182
Rus@@ 31163
tro 31159
ind@@ 31150
situées 31139
condition 31132
Fort 31118
ventes 31118
Wil@@ 31113
notion 31098
fédér@@ 31096
Président 31095
pil@@ 31086
arme 31075
culturelle 31070
indé@@ 31047
Sénat 31043
laissant 31042
teau 31036
sing@@ 31027
Norvège 31023
réduit 31023
American 31020
tirer 31018
essentiel 31016
facilement 31000
comportement 30998
collections 30997
ancer 30994
Liège 30988
icité 30985
métrage 30981
maritime 30980
éen 30965
Venise 30957
xi@@ 30948
détru@@ 30945
genres 30937
envoie 30932
cha 30924
observations 30922
Vill@@ 30916
Dis@@ 30912
act@@ 30907
poésie 30907
acquis 30898
réc@@ 30897
Football 30871
Pap@@ 30856
illet 30852
Quatre 30841
internationaux 30837
ple@@ 30835
Danemark 30829
décisi@@ 30820
recueil 30810
lancement 30804
Saison 30803
aim@@ 30801
Dur@@ 30796
gren@@ 30792
zième 30782
Ben 30780
brû@@ 30768
Jack 30763
plante 30752
Rhin 30751
orn@@ 30740
laisser 30734
Mary 30724
populaires 30702
noble 30694
érer 30681
Force 30668
extrémité 30666
Lac@@ 30656
PS 30656
ligue 30655
Ly@@ 30651
enregistr@@ 30649
mené 30645
rapports 30645
entraîne 30637
assist@@ 30617
journaux 30616
lard 30612
champs 30607
bie 30606
den@@ 30605
sélectionné 30590
gamme 30586
bateau 30585
vain@@ 30571
représentent 30569
exc@@ 30562
disparition 30544
défin@@ 30531
Ke@@ 30527
sus 30527
budget 30520
1917 30505
tent@@ 30502
tiré 30502
institu@@ 30497
élé@@ 30495
amélior@@ 30493
indic@@ 30490
matériaux 30486
fie 30473
sculp@@ 30469
fut@@ 30457
Tom 30456
Louise 30454
donnent 30429
May@@ 30415
Az@@ 30411
az 30411
aves 30401
Nice 30400
itation 30398
illée 30389
* 30387
1927 30386
unes 30384
engagé 30382
land@@ 30381
éph@@ 30377
onale 30370
électronique 30369
nomination 30355
huitième 30352
pensée 30341
nière 30325
revenir 30312
reprendre 30310
citoyens 30304
gran@@ 30290
Eugène 30282
aï 30280
rev@@ 30279
Ét@@ 30279
B. 30252
pierres 30249
hypothèse 30248
conservateur 30247
Internet 30237
let@@ 30237
convo@@ 30236
matéri@@ 30232
Grâce 30229
grecque 30229
times 30229
technologie 30224
versant 30224
attach@@ 30223
proposition 30208
océan 30204
uil 30202
installations 30187
nécessaires 30187
mille 30173
tourné 30166
ello 30155
deviendra 30154
My@@ 30143
interdit 30137
choisit 30132
sportif 30132
Mou@@ 30124
Fran@@ 30116
itz 30113
spectateurs 30113
Garonne 30112
réduire 30110
Dar@@ 30108
exploit@@ 30101
divisions 30070
canons 30066
thi@@ 30060
Caroline 30051
opéra 30046
milliers 30043
légende 30042
guitare 30038
seraient 30038
test@@ 30022
lour@@ 30009
risques 29990
Ca@@ 29974
38 29970
contenu 29969
chercheurs 29958
office 29958
congrès 29945
supprim@@ 29944
informatique 29939
Bat@@ 29937
formule 29936
Rio 29931
Gabriel 29922
catholiques 29917
mon 29916
relais 29904
Pacifique 29901
bur@@ 29880
tableaux 29875
gros@@ 29864
eta 29859
récemment 29858
montrer 29853
Hy@@ 29841
lement 29840
ieux 29835
parts 29832
succession 29824
réunion 29813
caractérise 29807
thèmes 29804
aison 29795
alliance 29795
autrefois 29795
sac 29785
rait 29777
conquête 29776
animal 29763
cherche 29763
duo 29749
classiques 29747
sti@@ 29735
ôts 29734
coups 29720
menace 29718
produite 29718
quasi 29715
èques 29715
av. 29697
Francis 29693
concentration 29689
34 29688
pre 29686
cavalerie 29677
rav@@ 29676
parole 29667
symbole 29667
accept@@ 29655
Nor@@ 29634
giques 29626
na@@ 29623
remplacement 29619
ares 29614
imagin@@ 29614
princesse 29612
Sim@@ 29606
évoque 29599
éclair@@ 29598
plac@@ 29589
préparation 29585
étapes 29566
1923 29565
Black 29563
sar@@ 29558
ez@@ 29534
pom@@ 29525
J.-C. 29511
intérêts 29511
Noël 29505
Olivier 29504
suppos@@ 29504
dessins 29487
annonc@@ 29484
ost@@ 29483
entale 29479
blessé 29476
colonie 29470
électricité 29465
brigade 29460
changer 29443
hameau 29443
sis 29442
Parc 29436
ense@@ 29433
successeur 29433
administr@@ 29424
je@@ 29413
million 29413
tus 29408
pré 29399
phon@@ 29396
accord@@ 29371
tourisme 29371
ze@@ 29368
responsabilité 29366
id 29365
ev 29361
Fre@@ 29351
disponibles 29347
finales 29345
érieure 29336
spatial 29330
ennemi 29322
ima 29322
compter 29311
maintenir 29309
dieu 29302
tomb@@ 29299
Gérard 29288
cercle 29284
exerc@@ 29283
éenne 29283
grave 29271
Cu@@ 29261
Finalement 29256
Renaissance 29255
Bass@@ 29247
souhaite 29237
Frank 29221
Vic@@ 29213
tera 29212
75 29207
sab@@ 29206
Mark 29191
expositions 29184
VI 29179
venus 29173
Bois 29161
ref 29159
Christophe 29156
vues 29153
iche 29150
antaine 29133
tac@@ 29132
fédération 29127
dot@@ 29125
formée 29116
êtres 29105
variations 29102
catégories 29099
Na@@ 29094
traditionnelle 29086
dér@@ 29085
libér@@ 29075
participent 29072
jusque 29068
onnais 29068
uy@@ 29065
Alsace 29063
Fi@@ 29052
Mau@@ 29034
jazz 29033
russes 29031
manifestations 29025
alb@@ 29024
couvre 29014
sir@@ 29011
flan@@ 29007
baisse 29002
départements 29002
Galles 28999
magnitude 28999
eh@@ 28992
itant 28979
Bil@@ 28975
archi@@ 28973
URSS 28957
mol@@ 28951
ym@@ 28946
eusement 28945
cantons 28944
criti@@ 28939
télévis@@ 28936
souver@@ 28929
démar@@ 28925
Fondation 28914
encour@@ 28909
ômes 28905
limites 28887
vaut 28885
impact 28878
enté 28874
qualifie 28861
sœurs 28861
Météo 28856
formations 28855
âtre 28855
drapeau 28852
Ancien 28835
lab@@ 28829
gratu@@ 28827
vaisseau 28824
uz@@ 28823
vigueur 28823
revenu 28816
engagement 28808
idé 28796
accueillir 28783
début@@ 28782
changé 28766
fiant 28751
qualification 28751
pic@@ 28744
commencent 28732
milliards 28729
objectifs 28721
république 28718
pin@@ 28715
Journal 28707
Jou@@ 28702
Emmanuel 28700
bil@@ 28699
tig@@ 28694
1913 28686
artifici@@ 28686
chem@@ 28676
interpr@@ 28668
Sil@@ 28667
Ta@@ 28626
renommée 28619
alistes 28617
gagner 28614
ett@@ 28597
fér@@ 28596
inférieure 28593
montrent 28586
relève 28583
scénariste 28580
embar@@ 28576
défen@@ 28573
remplace 28565
noblesse 28558
calendrier 28542
pou@@ 28542
multi@@ 28533
mâle 28520
Edward 28514
aujourd 28512
usion 28508
huile 28500
1905 28493
inverse 28487
conservation 28482
Hall 28481
tér@@ 28480
Mos@@ 28473
quali@@ 28472
ames 28468
oï@@ 28464
chinoise 28463
peau 28457
refus@@ 28452
pages 28450
éra 28445
poissons 28442
caractéristique 28434
uni 28433
fournir 28430
recevoir 28427
Dan@@ 28416
chang@@ 28415
aches 28413
Origine 28408
Var@@ 28405
effectué 28393
iner 28383
contin@@ 28379
Émile 28376
trav@@ 28370
orientation 28365
travailleurs 28363
endr@@ 28357
historiens 28356
situ@@ 28348
sk@@ 28341
Marguerite 28337
démol@@ 28327
Yves 28320
lit@@ 28316
bi 28315
1911 28312
employé 28312
campagnes 28308
industrielle 28305
prê@@ 28282
régul@@ 28273
centaines 28270
ō@@ 28269
atures 28266
Résultats 28260
nation@@ 28259
fixe 28254
nique 28239
fédérale 28225
chrétienne 28224
réglem@@ 28212
agée 28210
standard 28202
plaine 28198
amo@@ 28194
cession 28192
field 28189
Star 28179
Ha@@ 28163
mener 28155
pilotes 28146
ographique 28143
choses 28135
entière 28116
céré@@ 28115
procé@@ 28115
lever 28114
Red 28101
traces 28097
Prince 28092
réussi 28082
empris@@ 28075
Cap 28074
vit@@ 28070
transféré 28055
effectuer 28046
laissé 28040
endant 28038
Rem@@ 28037
caractér@@ 28037
portrait 28013
frag@@ 28011
S&apos; 28009
femelle 28009
Jérusalem 28008
proposé 28007
empar@@ 27995
Et@@ 27991
Fils 27981
Lord 27976
conférences 27975
Aujourd&apos; 27972
ailes 27970
meilleures 27962
quoi 27943
men 27942
séjour 27942
nul 27938
Uni@@ 27935
semblent 27935
Munich 27934
maç@@ 27928
partisans 27924
Pu@@ 27918
enta 27915
zo@@ 27902
dirig@@ 27901
Florence 27893
off 27891
inscrits 27887
entretien 27882
entre@@ 27877
circul@@ 27874
Lor@@ 27872
da@@ 27871
usse 27865
bases 27859
Sau@@ 27858
peuples 27856
foresti@@ 27854
ignon 27852
couvent 27850
égyp@@ 27843
isti@@ 27837
Germain 27833
étudié 27827
répand@@ 27826
évacu@@ 27821
pieds 27820
climatique 27816
leader 27815
rédaction 27814
clocher 27800
cop@@ 27793
Vau@@ 27787
banque 27784
lec@@ 27784
fou@@ 27777
illés 27777
faculté 27776
Cre@@ 27770
cle 27769
subit 27768
favorable 27767
portait 27767
pole 27764
paroles 27758
Ge@@ 27751
Trans@@ 27747
chant@@ 27746
relie 27745
Trav@@ 27725
Luc@@ 27720
banlieue 27719
noter 27702
chrétiens 27696
vins 27693
cien 27683
employés 27676
soins 27660
frapp@@ 27657
ensis 27654
monte 27654
amp@@ 27640
Long@@ 27638
affich@@ 27633
longues 27628
prosp@@ 27627
gardien 27624
suivie 27622
accus@@ 27621
mécanique 27620
Luc 27617
incar@@ 27616
Rég@@ 27609
uli@@ 27608
Ste@@ 27604
papier 27591
puisse 27586
neur@@ 27556
Gol@@ 27551
accessible 27535
annul@@ 27528
ó@@ 27528
soutenu 27521
avanc@@ 27519
titude 27515
discipline 27514
consacre 27506
judiciaire 27493
règle 27489
ident 27486
environs 27482
vec@@ 27482
Company 27476
quarante 27475
Pin@@ 27474
Prague 27468
autom@@ 27460
mauvais 27459
ologues 27453
mér@@ 27447
ouvriers 27447
Autres 27445
défendre 27445
relief 27428
supplémentaires 27428
compagnies 27418
voul@@ 27417
42 27415
indépendante 27413
Hab@@ 27408
min 27397
serie 27393
amen@@ 27392
ical 27388
mixte 27382
consac@@ 27372
description 27371
bandes 27370
danger@@ 27363
Bosnie 27362
dimanche 27360
chiffre 27348
ordonn@@ 27345
conscience 27344
iciens 27344
appel@@ 27335
laï@@ 27322
Congo 27319
Gro@@ 27319
Dominique 27317
onymes 27317
1,@@ 27305
réserv@@ 27305
hétérogènes 27302
hol@@ 27298
acide 27295
portés 27275
ub@@ 27272
amie 27264
és@@ 27263
oli 27260
1908 27255
Julien 27255
mul@@ 27250
présentée 27244
violence 27242
emp@@ 27235
ro 27234
érité 27218
uls 27205
Lib@@ 27204
Bol@@ 27197
blancs 27197
érir 27185
Scott 27180
affecté 27164
of@@ 27161
côtes 27160
allemandes 27144
volumes 27143
chor@@ 27139
Légion 27137
front@@ 27118
poursuivre 27118
repose 27115
descend@@ 27106
véri@@ 27102
possession 27101
urg@@ 27100
rer 27098
réel 27098
habitat 27089
sélectionn@@ 27083
cite 27081
précisément 27081
he@@ 27080
chargée 27079
édée 27068
ésie 27063
passent 27053
C. 27045
ova 27037
ere 27036
duché 27027
trique 27021
attendre 27015
principes 27015
écran 27011
personn@@ 27008
sons 26985
quanti@@ 26983
Lar@@ 26963
appui 26955
go 26954
aventure 26939
blo@@ 26938
util@@ 26936
voc@@ 26935
dées 26930
polé@@ 26930
ave@@ 26929
King 26924
etti 26918
exprim@@ 26915
ary 26897
célèbres 26893
O&apos; 26882
tél@@ 26869
contemporaine 26854
pluviométrie 26853
personnalité 26849
détach@@ 26845
scolaire 26838
provoque 26831
urbain 26831
contrairement 26825
machine 26824
Jan@@ 26823
Iran 26822
Mes@@ 26820
document 26820
ois@@ 26807
# 26789
hautes 26788
reti@@ 26787
particulière 26786
responsables 26774
juifs 26773
débit 26759
37 26751
relev@@ 26750
user 26739
dict@@ 26728
montant 26727
maîtrise 26723
far@@ 26718
confirm@@ 26712
municipales 26711
fruits 26707
War@@ 26702
francs 26697
législ@@ 26694
poèmes 26694
stat@@ 26693
rare 26688
traite 26683
isa 26669
eront 26667
Région 26660
atr@@ 26647
reliant 26646
atoires 26644
comprendre 26642
destinée 26638
interrom@@ 26637
Open 26630
doubl@@ 26621
élue 26621
ef@@ 26619
exerce 26618
âgé 26617
menac@@ 26614
correspondent 26609
remporter 26607
machines 26601
four 26595
invité 26593
taire 26578
anges 26566
Nu@@ 26565
gué 26564
résid@@ 26558
ey@@ 26556
hal@@ 26551
contest@@ 26546
Direction 26543
décrite 26542
Anna 26539
passagers 26538
Bir@@ 26536
sem@@ 26525
plat@@ 26516
appro@@ 26514
mélange 26504
Lan@@ 26501
frontières 26489
vise 26480
utes 26479
.. 26455
calcul@@ 26452
ministres 26449
stratégie 26448
suffrages 26445
électr@@ 26438
Cur@@ 26435
juridique 26429
Walter 26420
puits 26419
vint 26416
DVD 26415
moines 26414
Roumanie 26410
Laur@@ 26391
Bataille 26383
paraît 26383
lim@@ 26369
réalisés 26369
Méditerranée 26368
consacrée 26367
á 26364
peint 26363
présidente 26355
orth@@ 26352
pertes 26335
Il@@ 26332
meur@@ 26330
boulevard 26325
arables 26324
ck 26323
vapeur 26319
Karl 26318
famili@@ 26314
parlement 26304
Alger 26291
cinquante 26284
anciennement 26278
abrit@@ 26274
Situ@@ 26272
Mul@@ 26266
EP 26263
dégrad@@ 26259
personnelle 26258
trait 26256
laboratoire 26255
indépend@@ 26238
universités 26223
renouvel@@ 26220
soutenir 26220
Mer 26207
micro@@ 26206
graphe 26201
organisme 26200
orique 26199
transformation 26190
Boston 26178
quitté 26174
pis@@ 26163
\ 26158
affirm@@ 26150
photographie 26142
révolutionnaire 26140
duquel 26138
Ali@@ 26132
ox@@ 26131
outils 26125
64 26124
Homme 26123
èges 26118
fondateurs 26116
révél@@ 26108
successivement 26103
yd@@ 26103
efforts 26087
agents 26085
chantier 26084
variété 26084
del@@ 26072
fle@@ 26067
Street 26066
baptisé 26058
fera 26053
ute 26051
traversée 26048
Basse 26038
bilité 26034
Chev@@ 26031
baseball 26030
Fa@@ 26020
Kat@@ 26014
transmission 26010
Rec@@ 26007
ave 26006
ron@@ 26004
engag@@ 26000
art@@ 25992
autoroute 25991
compétences 25989
sen@@ 25985
financement 25982
organiser 25976
illons 25966
Kam@@ 25965
enregistre 25965
lies 25962
marquis 25959
secret 25959
spéciale 25958
Nancy 25957
fondament@@ 25949
déterminer 25946
natur@@ 25942
rose 25930
recher@@ 25923
contre@@ 25907
libéral 25905
vestiges 25898
Chili 25891
mac@@ 25884
ament 25882
maréchal 25882
ling 25877
astr@@ 25874
1906 25873
1880 25868
comment 25862
dramatique 25843
Présentation 25812
attribué 25811
érien 25802
erg@@ 25800
divis@@ 25796
tuer 25795
48 25792
revenus 25786
spécialisée 25786
í 25784
correc@@ 25777
conseils 25767
ours 25762
fran@@ 25760
Ford 25749
Lav@@ 25749
mani@@ 25747
lières 25745
continent 25742
regroupant 25741
ext@@ 25739
Arab@@ 25736
œurs 25736
asser 25732
las 25730
Rad@@ 25723
Hér@@ 25719
ier@@ 25711
réputation 25710
correspond@@ 25707
jardins 25693
battant 25689
desserv@@ 25682
oubli@@ 25682
Jones 25670
phy@@ 25667
rouges 25654
55 25652
liqu@@ 25648
alliés 25641
riches 25634
frais 25631
ES@@ 25628
mairie 25620
ographe 25618
séri@@ 25618
défenseur 25607
Front 25606
recommand@@ 25606
introduction 25594
test 25593
recens@@ 25592
athlète 25591
Maur@@ 25587
pouvaient 25579
tchèque 25579
augmenter 25578
sports 25573
çon 25565
Tom@@ 25563
représenter 25560
ationn@@ 25555
Kal@@ 25551
publications 25551
confiance 25546
graphiques 25541
terror@@ 25540
coû@@ 25537
Cameroun 25532
1907 25530
coalition 25530
rappelle 25522
retrait 25520
bilan 25518
fouilles 25506
ky 25505
relati@@ 25502
élabor@@ 25501
morceaux 25498
rendent 25498
Ci@@ 25495
ko@@ 25495
paysage 25489
Contexte 25480
Pat@@ 25471
ron 25471
intégré 25469
vivent 25467
í@@ 25467
Gre@@ 25465
Grenoble 25465
tonnes 25464
Lab@@ 25462
funér@@ 25448
mit 25446
seigneurie 25441
filiale 25439
étition 25437
intention 25422
tués 25422
fenêtres 25409
largeur 25405
Pa@@ 25399
syst@@ 25396
citer 25381
aille 25380
obtenus 25377
port@@ 25373
péninsule 25370
équivalent 25367
agres@@ 25364
plais@@ 25364
économ@@ 25362
airement 25361
émie 25353
recev@@ 25351
dition 25350
avantage 25342
ral@@ 25341
ab 25337
récompens@@ 25336
Rouen 25330
vier 25328
Gas@@ 25321
Tak@@ 25321
placée 25311
Cos@@ 25307
caractères 25295
exil 25291
cm 25284
évoluant 25278
Boul@@ 25276
chois@@ 25275
préfet 25270
abandonné 25268
Hel@@ 25257
mm 25253
générales 25252
Gl@@ 25249
fréquemment 25240
instrument 25240
maladies 25239
Nov@@ 25231
exécutif 25212
nées 25212
marie 25210
destination 25209
poule 25209
franchise 25207
fant@@ 25202
latine 25202
permet@@ 25200
fal@@ 25198
empêcher 25193
neu@@ 25192
Ceci 25184
répartis 25181
méda@@ 25180
autonomie 25178
collectif 25178
administrativement 25175
ud@@ 25167
adolesc@@ 25166
conséquences 25145
roues 25139
jouent 25119
hydr@@ 25115
Dau@@ 25111
annu@@ 25111
limité 25109
institution 25103
Voir 25099
ei 25094
productions 25090
st 25086
syndic@@ 25083
climatiques 25077
amitié 25072
pôle 25068
Naples 25066
difficulté 25065
sév@@ 25065
Land@@ 25061
prononciation 25056
ian 25053
Super@@ 25052
Z 25049
alim@@ 25045
SS 25044
adj@@ 25044
débat 25035
sais@@ 25035
électriques 25032
blessés 25019
effectif 25017
bientôt 25011
organismes 25006
entraînement 25003
canon 24988
sit@@ 24981
Tunisie 24980
transfé@@ 24978
rich@@ 24971
ik 24965
gouvern@@ 24963
Anglais 24957
seigneurs 24957
Élections 24957
représentations 24947
nois 24944
provient 24943
domesti@@ 24940
uch@@ 24940
influ@@ 24934
défini 24927
Victoria 24925
Ali 24924
que@@ 24923
illant 24919
adapté 24918
péri@@ 24918
marié 24915
44 24907
ine@@ 24892
nent 24889
oh@@ 24886
Ra@@ 24881
dimension 24881
porta 24881
distingu@@ 24875
commerciale 24859
homonymie 24852
thique 24849
PC 24838
financière 24838
Awards 24836
1904 24831
foi 24826
offensive 24824
let 24822
treize 24820
exclusivement 24803
Équipe 24803
tourner 24798
soleil 24795
tu 24795
trés@@ 24793
fili@@ 24792
présentation 24791
Varsovie 24790
eter 24788
formant 24786
sifs 24784
adopté 24783
1901 24775
Rev@@ 24770
stein 24761
1915 24755
Sab@@ 24753
bach 24744
particip@@ 24743
Manuel 24734
sculpture 24719
potenti@@ 24717
catégorisée 24713
secours 24710
investis@@ 24704
Montpellier 24701
étés 24696
cu 24691
séparation 24690
saut 24687
découvrir 24684
médailles 24683
onds 24679
remp@@ 24679
décident 24677
ense 24675
rattachée 24669
dédiée 24668
révolte 24664
tire 24649
milli@@ 24646
pourquoi 24636
conséquent 24632
remarquable 24627
amateur 24612
mê@@ 24609
figures 24602
otes 24601
hon@@ 24598
verre 24598
rab@@ 24596
nommés 24593
clip 24591
trom@@ 24586
échapp@@ 24576
Contrairement 24575
sk 24572
Adam 24570
RE@@ 24568
Williams 24567
Don 24565
Slov@@ 24565
assistant 24561
végétation 24561
tori@@ 24555
lav@@ 24551
mobilier 24551
connex@@ 24543
franc 24540
aver@@ 24539
aître 24537
1860 24535
forteresse 24535
lancée 24535
bénéficie 24523
maximale 24507
partiellement 24503
ui 24499
Salon 24495
abor@@ 24491
Aff@@ 24487
Rouge 24481
radic@@ 24474
ga 24471
1890 24466
ions 24460
commémor@@ 24452
tot@@ 24449
vide 24448
embr@@ 24444
batterie 24442
voile 24440
52 24439
Géorgie 24437
quel 24433
neveu 24431
toit 24424
œil 24424
atom@@ 24420
dizaine 24418
side 24418
agir 24413
red@@ 24413
39 24399
convain@@ 24391
consult@@ 24386
ki@@ 24383
exercice 24379
composés 24373
expansion 24372
faux 24372
Lim@@ 24368
citoy@@ 24366
Ferdinand 24363
lic@@ 24362
colonnes 24361
élimin@@ 24361
inauguré 24360
icul@@ 24354
paramètres 24352
goût 24347
Tours 24344
Composition 24343
remise 24342
èrement 24330
Man 24316
ener 24315
élevait 24311
eri 24304
embl@@ 24298
oué 24295
maîtr@@ 24289
dil@@ 24286
Carlos 24271
attr@@ 24269
déclaration 24263
coureur 24262
Kor@@ 24257
concurrence 24247
poème 24242
P. 24239
employ@@ 24239
mur@@ 24231
Auvergne 24229
les@@ 24228
comportent 24223
iné 24219
adversaire 24214
etta 24208
simples 24207
Même 24203
suprême 24201
ero 24197
und 24196
dez 24193
appareils 24186
répondre 24184
ût 24182
We@@ 24181
ney 24181
1909 24171
édé 24170
acquisition 24168
parall@@ 24168
étages 24163
écar@@ 24162
César 24158
fich@@ 24156
Pas 24154
suédois 24154
Dol@@ 24150
Metz 24136
alie 24128
jouant 24128
charges 24126
estimée 24113
championne 24108
reb@@ 24102
aér@@ 24093
réduction 24093
otr@@ 24086
domination 24085
étaire 24076
divisé 24072
faç@@ 24072
équipements 24071
communi@@ 24064
relative 24063
dies 24061
musicien 24046
Joe 24041
troubles 24034
proclam@@ 24033
roch@@ 24032
Sir 24030
négociations 24030
orbitales 24026
zi 24025
participants 24023
spécifiques 24021
pousse 24010
éry 24007
contribue 24003
confirme 23995
Alexander 23993
spatiale 23991
prêt 23990
Nar@@ 23985
traditionnel 23984
disques 23982
rédig@@ 23982
andi 23978
échapper 23976
Tourn@@ 23968
una 23968
fe 23966
empê@@ 23963
20@@ 23962
accords 23961
Giovanni 23957
CA@@ 23952
Toutes 23952
41 23950
moindre 23950
alimentation 23948
structur@@ 23948
Ka@@ 23941
varie 23941
musulmans 23929
périodes 23928
uns 23926
Gilles 23925
rique 23925
présentes 23915
annon@@ 23905
contemporain 23905
quin 23902
bre 23897
humaines 23897
65 23888
reconstruction 23888
CO@@ 23887
conse@@ 23883
attaquant 23878
Society 23876
références 23876
remis 23875
Formule 23873
aç@@ 23873
concurr@@ 23864
1916 23860
détec@@ 23860
human@@ 23857
wa 23856
gares 23854
cités 23851
accél@@ 23837
colline 23826
SA 23825
traits 23824
aki 23823
san 23818
bataillon 23816
minim@@ 23808
XIII 23797
arrêter 23793
propor@@ 23792
gor@@ 23769
ende 23768
nau@@ 23757
externes 23756
qui@@ 23754
observation 23752
aga 23751
S. 23749
réélu 23746
Blan@@ 23744
Y 23737
Maj@@ 23735
endommag@@ 23731
communications 23727
han 23720
Q 23711
apprentissage 23710
ovie 23703
bos@@ 23702
applications 23697
Versailles 23692
sculpteur 23690
sph@@ 23690
ceau 23684
conserver 23680
échecs 23680
Banque 23662
installée 23661
Lem@@ 23659
achat 23659
inal 23657
épar@@ 23648
villa 23647
150 23646
décennies 23645
moul@@ 23645
Hans 23639
doul@@ 23639
cer 23637
Love 23634
défaites 23634
lave 23614
métr@@ 23611
hi 23609
Tu@@ 23602
reux 23595
efficace 23594
ok 23593
Eur@@ 23589
définit 23576
clé 23574
devaient 23571
bord@@ 23566
fum@@ 23566
Mand@@ 23550
aper@@ 23546
puissant 23545
Samuel 23540
intervient 23536
affiche 23533
audi@@ 23533
rencontrent 23518
associée 23510
noirs 23506
récup@@ 23502
consist@@ 23499
appartenait 23497
pop 23492
incorpor@@ 23491
mati@@ 23490
Parallèlement 23488
virus 23481
çu 23480
échanges 23479
préf@@ 23472
ela 23469
dimensions 23461
démission 23461
présentées 23460
touche 23457
import@@ 23456
sonne 23455
prévue 23454
chimie 23452
logique 23446
cesse 23438
val 23437
Chapelle 23434
écol@@ 23433
1848 23429
aro 23423
araignées 23421
nécessité 23418
municipale 23416
Afin 23413
ota 23411
plat 23409
jus@@ 23408
mut@@ 23404
clair 23397
crime 23396
chr@@ 23390
danger 23390
Gare 23388
fique 23383
laur@@ 23376
Pér@@ 23368
morceau 23367
Mich@@ 23366
RC 23366
convention 23366
natale 23362
qualifi@@ 23361
Capit@@ 23347
héritier 23345
magné@@ 23338
métier 23338
ennemis 23337
concl@@ 23334
accéder 23327
Plan@@ 23322
awa 23313
èlement 23308
Bos@@ 23299
penser 23297
accompagne 23294
peupl@@ 23294
Carl 23292
différent 23290
norvé@@ 23280
expériences 23270
souverain 23270
existent 23266
rédu@@ 23258
ateliers 23244
lés 23243
meurtre 23235
On@@ 23234
spiritu@@ 23231
civils 23229
biais 23227
électorale 23224
Rennes 23223
signature 23222
pê@@ 23212
Floride 23209
réunit 23208
culaire 23203
ismes 23203
modé@@ 23192
Lin@@ 23179
fournit 23178
approuv@@ 23175
possèdent 23175
exécut@@ 23174
imposer 23173
ten 23167
conflits 23165
tées 23158
fun@@ 23156
inond@@ 23155
dues 23146
Saxe 23144
sive 23144
fermeture 23139
ives 23136
secteurs 23136
environn@@ 23131
Dj@@ 23130
alisées 23120
diplômé 23117
ust@@ 23116
adresse 23115
ish@@ 23114
heur@@ 23113
neur 23113
queue 23111
iro 23109
issante 23107
soirée 23106
aka 23105
bons 23105
comédi@@ 23101
inqui@@ 23094
Johnson 23090
illi@@ 23090
Cham@@ 23089
surveillance 23087
développée 23084
fréquente 23081
rog@@ 23076
albédo 23073
Jos@@ 23066
adis 23056
prénom 23055
Lac 23051
tend 23051
extrêmement 23045
retrouvent 23044
eurent 23041
symbol@@ 23041
théâ@@ 23033
terrestre 23028
pèler@@ 23027
Communes 23021
ito 23016
Syrie 23012
ich 23012
artis@@ 23009
yle 22997
entaires 22994
journalistes 22994
Très 22980
quer@@ 22976
bateaux 22969
1902 22968
signifiant 22963
post 22957
ouvr@@ 22956
cho 22952
solaire 22952
faites 22948
proté@@ 22938
reçut 22937
ax 22935
respec@@ 22934
Toronto 22930
erne 22929
ambassadeur 22928
familiale 22927
ître 22923
Bay@@ 22922
contraint 22922
RA@@ 22921
portugais 22921
raient 22919
considér@@ 22911
çoit 22908
Sac@@ 22901
isations 22897
Fou@@ 22896
seize 22893
atus 22891
43 22890
junior 22887
batt@@ 22875
histori@@ 22874
traités 22868
47 22867
Guy@@ 22865
commerciales 22860
cousin 22853
Tre@@ 22850
Oise 22847
Ven@@ 22843
voisins 22840
asc@@ 22835
Fab@@ 22831
écart 22820
manifest@@ 22810
évêques 22808
Ed@@ 22802
immédi@@ 22802
ukrain@@ 22800
facteurs 22797
enfu@@ 22793
quier 22792
1830 22782
aissant 22777
référ@@ 22775
alier 22771
pp@@ 22771
Jan 22761
indig@@ 22759
erreur 22758
quelles 22757
relé@@ 22744
matur@@ 22741
mée 22739
couche 22723
ancé 22722
Les@@ 22721
prop@@ 22718
bau@@ 22716
classés 22713
Ontario 22710
Amsterdam 22708
R. 22708
camps 22707
uter 22706
anniversaire 22703
Aix 22701
ordin@@ 22699
africaine 22696
monter 22695
Hon@@ 22687
urbanisées 22687
SP@@ 22680
ingen 22680
attaché 22671
soumis 22670
annes 22668
itr@@ 22665
rapporte 22664
resté 22663
orgue 22660
L. 22659
VII 22658
procédure 22655
rot@@ 22649
méridi@@ 22645
AR@@ 22644
remarqu@@ 22644
ver 22642
avenir 22641
yst@@ 22641
suffisamment 22636
explor@@ 22633
retire 22633
cri@@ 22630
Racing 22628
sortant 22624
cible 22621
Pot@@ 22612
ever 22612
époux 22610
insectes 22609
champ@@ 22606
inger 22606
Collège 22601
carbone 22591
méditerran@@ 22589
monnaie 22585
tournant 22581
hongrois 22574
intégrer 22574
Brown 22573
1903 22572
51 22571
républicain 22567
satis@@ 22565
Gil@@ 22554
renforc@@ 22547
yc@@ 22545
libres 22531
Pen@@ 22530
cuisine 22528
gaz@@ 22528
bureaux 22527
Ga@@ 22525
igné 22524
égale 22522
ech@@ 22521
consul@@ 22508
enterré 22502
tracé 22499
culturelles 22496
commissaire 22490
visage 22489
Barr@@ 22487
IN@@ 22485
Direc@@ 22479
Él@@ 22478
Rap@@ 22477
fais@@ 22476
Rh@@ 22475
inclut 22472
onnées 22470
examen 22464
soulig@@ 22459
esclaves 22457
continuer 22456
pes@@ 22454
Ensuite 22452
territoriale 22451
senti@@ 22450
débar@@ 22446
Dem@@ 22441
Sel@@ 22441
ff 22433
Alliance 22432
onction 22432
soixante 22427
Athènes 22426
paysages 22424
niers 22423
All 22422
Ernest 22420
envoy@@ 22420
théologie 22419
W 22418
annuel 22418
provisoire 22408
clients 22406
marchés 22406
mes@@ 22404
abandonne 22400
Hill 22396
aceae 22393
Palmarès 22385
recours 22380
adultes 22372
Ing@@ 22370
considérés 22365
sénateur 22365
Kong 22361
procédé 22361
nie 22359
institut 22356
dirigeant 22355
UA 22352
sainte 22350
troupe 22348
Mouvement 22345
Soleil 22345
calculer 22345
aig@@ 22341
acher 22334
anime 22333
universitaires 22333
DC 22324
46 22323
Britanniques 22323
phonie 22321
capital 22317
érienne 22315
aquie 22313
étro@@ 22311
jette 22308
portail 22304
rythme 22304
salon 22304
atri@@ 22300
Cant@@ 22297
contribué 22290
augmente 22287
ponts 22287
refl@@ 22287
protec@@ 22282
charbon 22271
sent@@ 22270
cancer 22266
Félix 22264
cules 22262
Défense 22259
rarement 22255
respect 22252
répond 22249
gue 22248
Temple 22247
Guinée 22237
histoires 22233
galaxies 22232
maillot 22232
occuper 22231
ium 22223
Red@@ 22222
ua 22222
Cup 22216
plant@@ 22215
gies 22209
jury 22195
group@@ 22185
saient 22182
omé@@ 22181
anne 22179
différente 22177
bri@@ 22176
Éducation 22173
mobile 22171
connaissances 22169
longs 22169
Nic@@ 22164
Bill 22160
trag@@ 22160
travaillent 22160
anci@@ 22158
israéli@@ 22150
énie 22150
demander 22149
guitariste 22149
visiteurs 22146
Déc@@ 22144
Kir@@ 22143
ué 22141
bourge@@ 22138
sives 22137
télescope 22132
bact@@ 22130
gri@@ 22123
wood 22123
servant 22120
Gren@@ 22119
Jackson 22119
dynamique 22117
médiév@@ 22111
logiciel 22108
minimum 22105
lia 22099
acle 22093
nourriture 22092
hectares 22088
vieille 22081
Harry 22070
White 22069
ématiques 22067
Mars 22065
Chris 22064
tch@@ 22063
rétab@@ 22061
Résumé 22054
commença 22054
neaux 22049
rupture 22048
sour@@ 22046
colonies 22044
renouv@@ 22039
vingtaine 22039
métalli@@ 22034
ras@@ 22033
élev@@ 22033
constat@@ 22030
Vel@@ 22027
ash@@ 22019
expose 22019
capacités 22018
étudiant 22014
monté 22010
cass@@ 22005
pourraient 22005
web 22004
opérationn@@ 21999
poursuite 21996
harmon@@ 21995
archipel 21993
tap@@ 21993
intéresse 21991
spécial 21985
atten@@ 21980
érées 21975
Antiquité 21972
blessure 21972
minér@@ 21971
rétr@@ 21968
tivité 21968
constructions 21962
agré@@ 21960
Dal@@ 21959
sements 21959
financier 21943
molé@@ 21943
nies 21940
bin 21937
fréquence 21932
Cav@@ 21931
gard@@ 21929
ël 21928
lanceur 21923
zaine 21922
équilibre 21914
arrivent 21910
Convention 21905
onom@@ 21903
démén@@ 21902
E. 21887
Kon@@ 21885
cru@@ 21883
afflu@@ 21876
arabes 21876
vocation 21876
Blanc 21874
abl@@ 21870
kin 21867
plage 21861
centaine 21859
académie 21856
expliqu@@ 21853
dis 21852
Navy 21848
lan 21844
mentionné 21844
collabore 21838
fermé 21838
gothique 21835
mées 21833
ouvrent 21832
restes 21832
chir@@ 21831
voisine 21827
vendus 21824
mos@@ 21822
dial@@ 21821
Bavière 21807
Nous 21805
sag@@ 21801
Hôtel 21800
motifs 21798
oz@@ 21796
Anti@@ 21792
libéré 21792
Not@@ 21789
érance 21786
Bruno 21783
préci@@ 21783
dispositif 21782
toile 21779
départementales 21778
retrouvé 21775
repos@@ 21771
établ@@ 21770
ć 21765
moi 21764
bloc 21763
attend@@ 21756
demandé 21756
ung 21749
acquiert 21743
ands 21738
perspective 21735
ę@@ 21732
acier 21730
critères 21725
voisin 21725
aph@@ 21724
Reims 21717
Rose 21717
maintien 21717
neuvième 21717
achet@@ 21714
Tony 21712
lées 21707
Nationale 21700
communistes 21695
Sébastien 21688
ava 21687
Virginie 21678
agissait 21677
exemples 21676
Cot@@ 21670
évid@@ 21662
arron@@ 21659
peintres 21658
rencontr@@ 21656
liers 21655
ètres 21655
Bibliothèque 21653
House 21653
ë 21650
ble@@ 21648
appuy@@ 21646
homosexu@@ 21646
ny@@ 21644
potentiel 21642
heim 21633
Américains 21632
1er 21628
color@@ 21626
découvertes 21626
Jac@@ 21622
eu@@ 21621
gris 21618
cide 21615
1793 21608
génie 21602
pren@@ 21595
surviv@@ 21593
Constantinople 21589
quatorze 21585
ignan 21577
ball@@ 21575
blé 21569
rédacteur 21569
déplacement 21566
colonne 21564
ffe 21563
Ul@@ 21558
Santé 21557
traduc@@ 21557
Prusse 21555
Field 21553
Corse 21547
inventaire 21542
manches 21541
encad@@ 21538
dénomination 21533
plaque 21531
podium 21531
sections 21531
vêtements 21531
branches 21523
ese 21521
associés 21519
apporte 21518
sier 21516
ech 21515
49 21514
oi 21514
autorisation 21513
hou@@ 21511
efficacité 21509
écrivains 21509
tin@@ 21503
Transports 21500
attaquer 21500
Début 21497
Accueil 21493
1898 21491
Mak@@ 21484
étendue 21483
verse 21480
Bot@@ 21478
aul@@ 21473
rentre 21470
Benoît 21469
nécessit@@ 21468
littéraires 21465
ingue 21462
accueilli 21460
possibles 21455
arité 21454
remportant 21449
Museum 21448
Saône 21445
espoir 21441
len@@ 21438
Jam@@ 21436
aspects 21436
uri 21435
Clermont 21431
tribu 21431
ec 21424
Flor@@ 21419
gagné 21414
message 21400
Rock 21397
remplacée 21397
intégration 21396
utile 21392
Tam@@ 21388
dépôt 21386
marques 21382
mourut 21382
diminution 21381
disant 21376
1871 21374
maroc@@ 21374
occ@@ 21369
stati@@ 21369
quai 21363
sauver 21355
Team 21350
abe 21345
document@@ 21345
prestigi@@ 21345
listes 21340
Big 21335
Mike 21330
mexic@@ 21321
spécialisé 21319
cir@@ 21314
intérieure 21314
bel@@ 21313
Mu@@ 21310
secr@@ 21307
conduc@@ 21302
quarts 21292
rê@@ 21289
Boh@@ 21284
ajou@@ 21279
tol@@ 21278
confé@@ 21276
littéralement 21272
lire 21271
tons 21270
hiér@@ 21266
itent 21265
âme 21261
op 21260
Laval 21255
ilien 21246
œufs 21245
protég@@ 21244
résolution 21243
tirs 21239
tam@@ 21238
Maine 21236
You 21231
figurent 21226
veuve 21226
prol@@ 21225
cier 21216
voyages 21214
regard 21211
Fil@@ 21206
but@@ 21204
Sans 21202
Sport 21195
Lorsqu&apos; 21192
Ay@@ 21191
reconnue 21191
bonnes 21190
donna 21190
portées 21188
aliment@@ 21185
Young 21183
touch@@ 21183
Envir@@ 21172
sélections 21167
Roland 21161
Aquitaine 21159
Steve 21159
ans@@ 21157
promouvoir 21155
degré 21153
chaînes 21151
zo 21150
payer 21147
top@@ 21146
maîtres 21145
nien 21143
Rue 21141
D. 21140
Canal 21138
ties 21119
admis 21118
admir@@ 21113
rh@@ 21108
Production 21101
tax@@ 21098
ums 21098
Chez 21095
One 21093
couver@@ 21089
hebdomadaire 21089
lut@@ 21085
africain 21083
nobles 21082
océ@@ 21082
constructeur 21078
dy 21077
tension 21076
égard 21072
québécois 21070
Bell@@ 21065
Tél@@ 21056
cyrillique 21056
US@@ 21054
ila 21053
Cy@@ 21052
Sports 21052
chaussée 21049
itali@@ 21043
arrête 21042
1896 21040
Pres@@ 21030
écos@@ 21030
assassinat 21029
Cul@@ 21025
més 21015
tut@@ 21013
proces@@ 21012
Europ@@ 21008
représentée 21008
opposé 21005
faute 21003
entré 21000
wan 20995
sé 20989
sélec@@ 20981
Log@@ 20974
isit 20972
has@@ 20970
Util@@ 20968
dédié 20968
Mans 20967
Cass@@ 20963
Ak@@ 20960
doté 20955
èque 20955
Jus@@ 20953
réper@@ 20951
naval 20950
seules 20950
génétique 20948
amor@@ 20946
modifications 20946
Diff@@ 20944
chen@@ 20944
Mot@@ 20940
ime 20940
ajouter 20936
sable 20935
Hong 20932
bibli@@ 20930
acad@@ 20929
mo 20927
Calais 20924
irlandais 20917
ris@@ 20916
décou@@ 20915
montr@@ 20914
réclam@@ 20907
lès 20906
pion@@ 20904
Chau@@ 20901
justi@@ 20901
Top 20897
chasseurs 20896
commenc@@ 20894
fermée 20891
tern@@ 20888
érig@@ 20888
fortune 20887
chron@@ 20882
mensu@@ 20873
manche 20869
équipé 20869
autel 20864
ments 20862
ett 20853
incluant 20853
marchandises 20852
réalisées 20849
analy@@ 20843
guer@@ 20843
gués 20840
feuille 20839
surnommé 20838
Jar@@ 20837
Rob@@ 20837
Bob 20834
forti@@ 20829
ordonne 20826
Som@@ 20823
osa 20821
rain 20818
vel@@ 20816
Code 20815
correspondance 20812
froid 20811
lun@@ 20811
vil@@ 20811
ogr@@ 20807
électeurs 20800
possédait 20795
vus 20793
Bureau 20790
ist 20785
Livre 20783
magistr@@ 20782
signal@@ 20781
hauts 20779
Sin@@ 20775
alimentaire 20773
différ@@ 20772
manuscrit 20769
gau@@ 20763
gouvernement@@ 20760
Sk@@ 20757
path@@ 20754
déchets 20744
anglo 20739
Camp@@ 20736
eur@@ 20736
ih@@ 20735
australi@@ 20733
vul@@ 20726
Vit@@ 20725
opinion 20722
supplémentaire 20721
Arg@@ 20717
parcour@@ 20710
1889 20709
ham 20705
olo 20705
ele 20704
house 20702
calcul 20701
ige 20700
bus@@ 20690
tienne 20685
atmosphère 20677
fiés 20670
norm@@ 20666
Chal@@ 20661
sanctuaire 20658
satellite 20658
supérieures 20652
Pro 20644
rage 20644
portraits 20643
léger 20639
Sem@@ 20637
privilégi@@ 20637
Lincoln 20635
aviation 20628
Gou@@ 20627
ern@@ 20627
yn 20621
châ@@ 20620
fol@@ 20620
physi@@ 20619
gn@@ 20617
esque 20605
impression 20605
réduite 20604
Ier 20603
Kan@@ 20603
spect@@ 20602
spectacles 20602
sexe 20598
amont 20596
destinés 20589
bain 20582
criv@@ 20576
pseudonyme 20576
sprint 20576
comptes 20572
Madeleine 20570
Charlotte 20562
Sig@@ 20559
basque 20553
facteur 20553
ignes 20553
Six 20552
Thierry 20550
urgence 20550
décoration 20548
super 20533
médecins 20531
culturels 20526
ster 20523
ruines 20522
verte 20522
constituer 20521
impossible 20520
ž@@ 20519
vill@@ 20510
philosophe 20505
Père 20504
ilier 20497
notes 20489
Kur@@ 20484
athlétisme 20483
tissement 20482
inspiration 20480
rais@@ 20476
bourse 20473
rez 20469
ū@@ 20465
Ku@@ 20460
Ceux 20457
ika 20457
Lev@@ 20450
internet 20448
affili@@ 20442
abandon 20440
retourner 20439
normes 20438
missionn@@ 20436
Sand@@ 20433
garanti@@ 20433
Johann 20430
Membre 20429
chien 20429
1895 20423
électoral 20423
liné@@ 20422
grotte 20416
flot@@ 20409
doublé 20405
Eric 20404
Award 20400
dom@@ 20399
retirer 20395
âgée 20395
NBA 20392
liber@@ 20392
kar@@ 20387
délégation 20385
préserv@@ 20377
faus@@ 20367
carré 20366
lers 20366
chiffres 20364
perdre 20361
cents 20360
onnage 20356
difficiles 20351
échan@@ 20349
clan 20345
ôle 20345
partenariat 20341
Loi 20340
North 20339
éduc@@ 20336
partout 20334
majoritairement 20332
élector@@ 20330
wall@@ 20329
inclus 20326
rières 20325
déta@@ 20318
gouver@@ 20316
probable 20306
Pascal 20300
voulait 20299
fêtes 20298
cell@@ 20295
guér@@ 20291
cherch@@ 20286
ignée 20283
restaurant 20281
{ 20281
réfugiés 20277
semb@@ 20275
aval 20274
grec@@ 20272
Pé@@ 20269
alla 20269
└ 20266
subi 20262
délé@@ 20260
gée 20259
1850 20256
Pre@@ 20255
Den@@ 20252
Élisabeth 20249
prest@@ 20223
lon@@ 20218
tère 20217
statistiques 20211
Deuxième 20206
tiens 20206
particuliers 20205
× 20205
Chap@@ 20201
visibles 20200
décor 20198
han@@ 20192
$ 20190
Sen@@ 20190
çons 20189
SNCF 20182
Ble@@ 20180
visi@@ 20180
tribus 20178
héritage 20177
eville 20174
individu 20174
similaires 20174
déliv@@ 20165
pauvres 20163
âg@@ 20161
assé 20153
numér@@ 20153
ordonné 20150
naz@@ 20138
Classement 20136
cip@@ 20136
instruction 20130
navig@@ 20130
fuite 20128
fas@@ 20126
anais 20125
occidental 20124
alé@@ 20117
émig@@ 20110
mél@@ 20108
Diego 20103
cycl@@ 20103
bén@@ 20102
loge 20102
mauvaise 20095
Da@@ 20091
Miss 20089
progrès 20086
diplô@@ 20082
amour@@ 20079
combatt@@ 20078
Lau@@ 20077
sû@@ 20077
cous@@ 20076
adr@@ 20067
détruite 20066
environnement@@ 20065
construites 20064
surnom 20063
nières 20059
Châte@@ 20053
accusé 20053
chimique 20048
Cinq 20042
AC@@ 20041
Post@@ 20041
quette 20038
53 20033
IX 20030
récep@@ 20030
financières 20029
midi 20029
H. 20024
Herzégovine 20016
Let@@ 20016
coule 20016
commencer 20015
vitr@@ 20015
battre 20014
adap@@ 20013
Route 20011
crivant 20008
occupée 20007
1885 20005
1899 20004
Mario 19995
Cab@@ 19994
conform@@ 19994
Cau@@ 19992
noyau 19991
support 19991
Pétersbourg 19986
glo@@ 19981
fres@@ 19979
ury 19973
garçon 19972
arque 19968
alm@@ 19966
CI@@ 19965
ryth@@ 19962
périph@@ 19958
pétrole 19957
tox@@ 19955
traditions 19953
conclut 19949
voil@@ 19949
stratégique 19948
erte 19937
infrarouge 19925
galaxie 19920
variable 19918
Garde 19915
chante 19915
eo 19910
Sophie 19909
solutions 19889
coureurs 19887
traversé 19886
tenter 19883
technologies 19878
Group 19877
états 19873
expérim@@ 19872
Isabelle 19863
Island 19863
évidence 19860
décède 19857
clairement 19846
équipement 19843
complexes 19838
riers 19836
importe 19829
islamique 19826
entame 19818
optique 19815
majeures 19812
Benjamin 19805
ester 19797
nat@@ 19791
Lit@@ 19790
Conservatoire 19784
privés 19783
SA@@ 19780
identifi@@ 19766
immeuble 19765
Franc@@ 19760
reç@@ 19760
voû@@ 19760
lerie 19758
orial 19755
comprennent 19753
studios 19750
lem@@ 19749
uk@@ 19748
Énergie 19738
prédéces@@ 19734
Petite 19731
Blanche 19725
56 19724
endroits 19724
foss@@ 19720
optim@@ 19720
Rivière 19717
Alexand@@ 19716
line 19712
entaux 19710
800 19709
sensibil@@ 19705
const@@ 19703
fra@@ 19702
lu 19702
distinction 19699
neutr@@ 19695
expliquer 19693
future 19691
top 19691
paysans 19689
juif 19685
popularité 19685
1893 19682
Chan@@ 19682
illustre 19681
touristique 19678
café 19673
“ 19668
matches 19666
1897 19649
odi@@ 19644
num@@ 19643
prob@@ 19642
publicité 19641
Enf@@ 19639
morph@@ 19638
600 19635
Parcours 19635
Ty@@ 19631
enter@@ 19623
éries 19617
évaluation 19614
Té@@ 19610
Quant 19607
Elizabeth 19605
Libération 19600
Pérou 19600
Center 19599
usines 19599
fidèles 19593
temp@@ 19587
anda 19585
ith 19585
préparer 19583
incap@@ 19574
métal 19574
kilom@@ 19570
err@@ 19569
G. 19567
astronom@@ 19567
privil@@ 19567
ow@@ 19563
chance 19562
numéros 19562
otique 19556
décro@@ 19554
Oc@@ 19553
Liens 19551
taires 19544
auto 19543
aya 19538
Tol@@ 19531
diver@@ 19531
aristoc@@ 19523
Friedrich 19522
chrom@@ 19522
tenues 19515
Nom@@ 19513
aug@@ 19511
dizaines 19510
metal 19502
précision 19501
escalier 19499
ock 19488
Cri@@ 19487
national@@ 19484
FI@@ 19481
étrangère 19481
diversité 19466
divisée 19464
fins 19463
minute 19459
rapproch@@ 19455
Brest 19449
idi@@ 19445
investi@@ 19442
Hamilton 19439
chaleur 19434
Carlo 19431
extra@@ 19430
chrétien 19428
matr@@ 19425
directrice 19419
migr@@ 19418
stric@@ 19417
fasc@@ 19415
issage 19413
Romains 19409
graph@@ 19409
nœ@@ 19405
ius 19404
urban@@ 19398
armé@@ 19393
Fal@@ 19387
navigation 19387
sacré 19387
couvert 19384
mâles 19380
Alice 19379
disputé 19377
ench@@ 19377
chers 19374
apparence 19373
implique 19369
descendants 19364
scol@@ 19364
offici@@ 19362
contrain@@ 19353
Troisième 19352
amoureux 19344
ill 19344
zy@@ 19342
Anvers 19341
chercher 19340
fontaine 19335
terr@@ 19335
astiques 19334
incendi@@ 19331
dém@@ 19321
démocratie 19320
assaut 19315
ignement 19315
tionneur 19311
brun 19310
démissionne 19310
partenaire 19309
Ministère 19308
soi 19308
CN@@ 19303
comprenait 19299
moulin 19296
chée 19288
tunisi@@ 19287
évol@@ 19285
Luis 19282
ee 19281
financiers 19281
und@@ 19277
approvisi@@ 19274
panneaux 19269
solide 19269
aïque 19264
mélo@@ 19261
instaur@@ 19256
dé 19254
nit@@ 19252
Ayant 19245
Hitler 19245
Kol@@ 19241
flu@@ 19240
habituellement 19236
od 19233
Roc@@ 19227
thiop@@ 19222
Architecture 19221
ègue 19213
recu@@ 19207
logement 19206
pente 19205
virtu@@ 19202
inée 19200
Office 19189
andes 19189
Pav@@ 19187
AN@@ 19183
Docteur 19183
définie 19183
syl@@ 19177
Gran@@ 19161
paci@@ 19161
entreti@@ 19160
courts 19159
Tal@@ 19158
Françoise 19152
Dro@@ 19146
interprété 19146
Point 19144
1867 19138
indépendants 19128
indiens 19126
Hugo 19121
simultan@@ 19117
ene 19116
narr@@ 19115
bouche 19114
confie 19114
toponyme 19111
flux 19106
répon@@ 19091
récits 19089
producteurs 19088
mait 19086
allait 19082
courants 19079
58 19072
passée 19071
54 19070
Neu@@ 19065
divin@@ 19064
rattach@@ 19063
1790 19061
Sciences 19056
ondes 19056
Eff@@ 19052
ouver@@ 19047
installés 19046
reconnaît 19043
durable 19042
glaci@@ 19040
surprise 19040
bran@@ 19036
couverte 19036
ruption 19030
sey 19027
Place 19023
archéologiques 19020
cess@@ 19020
tramway 19017
aum@@ 19010
individuel 19010
expériment@@ 19008
ordinateur 19004
idité 19002
tournois 19000
séance 18997
dri@@ 18996
plas@@ 18990
oncer 18984
amateurs 18982
Serge 18978
utilisateurs 18978
manifestation 18976
sépare 18975
équip@@ 18975
différences 18959
abil@@ 18958
fabric@@ 18957
écu@@ 18957
Chin@@ 18951
phases 18950
Survey 18947
attest@@ 18947
aun@@ 18947
banc@@ 18947
pro 18946
réflexion 18945
Justice 18944
posséd@@ 18942
serp@@ 18942
Pau@@ 18941
èles 18933
Pel@@ 18929
68 18926
deurs 18923
Moselle 18919
Riv@@ 18916
Intérieur 18910
14,@@ 18907
complétée 18907
mini 18904
oises 18904
enl@@ 18903
ectif 18891
viande 18889
Formation 18886
existait 18883
Patrimoine 18881
récompense 18881
85 18879
apparaître 18878
témo@@ 18877
Gouvernement 18874
finances 18865
interdiction 18865
colons 18864
Bertrand 18862
Kou@@ 18859
Pri@@ 18857
incer@@ 18850
tum@@ 18849
amélioration 18847
habitu@@ 18846
décennie 18844
vét@@ 18840
suppl@@ 18835
Fle@@ 18832
contemporains 18828
SE@@ 18826
ingénieurs 18826
héri@@ 18825
ignons 18825
Covid 18824
net@@ 18824
tentatives 18824
plate 18823
Dec@@ 18819
officiels 18818
Irak 18811
can 18808
Cad@@ 18806
pilot@@ 18803
vertic@@ 18801
ouille 18796
renforcer 18778
” 18776
achevé 18775
quar@@ 18774
essenti@@ 18772
illi 18767
72 18766
initiale 18764
patients 18763
lion 18761
Liv@@ 18759
boîte 18759
biblioth@@ 18758
ism@@ 18755
Corps 18754
95 18749
surve@@ 18746
mit@@ 18743
Sec@@ 18728
essay@@ 18720
sky 18717
proc@@ 18716
Pier@@ 18712
57 18711
ado 18699
vend 18693
All@@ 18688
universelle 18688
linguistique 18686
entreten@@ 18683
Acc@@ 18682
italiens 18682
vérité 18680
Alphonse 18675
nov@@ 18674
substitu@@ 18674
ics 18672
provenance 18671
gol@@ 18668
lumin@@ 18668
Hen@@ 18660
Mis@@ 18659
grand@@ 18658
lac@@ 18656
organisés 18656
candidature 18655
éliminatoires 18654
tests 18652
marais 18650
aérien 18646
Bak@@ 18644
tunnel 18644
liquide 18643
extr@@ 18636
investissement 18636
écurie 18635
Four@@ 18633
vendre 18633
âges 18633
Mass@@ 18632
Tab@@ 18629
soup@@ 18628
Illinois 18627
Roy 18625
air@@ 18621
ington 18621
reau 18617
1892 18612
Dun@@ 18612
triom@@ 18610
prieuré 18609
norme 18602
A.@@ 18600
sugg@@ 18599
syndicat 18591
CA 18583
Lewis 18583
précédemment 18583
entrain@@ 18575
signes 18575
èvent 18575
navale 18573
prêtres 18569
Tournoi 18568
terminée 18568
Wilson 18565
administrateur 18565
mâ@@ 18565
posée 18562
créés 18561
modifié 18561
néerlandaise 18560
jo 18556
limitrophes 18550
Sydney 18549
British 18541
restant 18541
privées 18540
constante 18539
traî@@ 18539
photo 18537
rivières 18529
attribue 18528
cuivre 18524
inspire 18522
ud 18522
baisser 18518
Pékin 18517
sbourg 18516
plain@@ 18515
précédentes 18505
we@@ 18505
pistes 18504
pav@@ 18501
neige 18500
Rab@@ 18498
dures 18492
parisienne 18492
till@@ 18488
dispositions 18483
Son@@ 18478
Bay 18473
licenci@@ 18471
travaillant 18470
án 18469
ann 18466
initial 18466
édie 18465
XIV 18461
Chamb@@ 18456
onge 18456
organisées 18455
évent@@ 18454
médical 18452
Eng@@ 18438
égal 18437
tru@@ 18436
bien@@ 18434
mineurs 18433
mill@@ 18431
liqué 18429
prouv@@ 18429
remarquer 18426
bis 18425
décer@@ 18424
1789 18418
portation 18415
circonscriptions 18414
drome 18411
mass@@ 18408
profite 18406
dus 18400
publiées 18397
romanti@@ 18397
concili@@ 18396
thér@@ 18395
Bran@@ 18393
einte 18388
militants 18388
itin@@ 18382
assiste 18381
offrir 18376
mentation 18374
aime 18373
inhumé 18371
Génér@@ 18370
terminant 18370
Ric@@ 18368
iteur 18365
nombres 18364
câ@@ 18357
èves 18356
cordes 18354
nécessite 18354
1840 18353
déclin 18353
profession 18352
Vén@@ 18342
Monaco 18341
Œuvres 18336
continental 18331
hyper@@ 18329
oine 18327
frac@@ 18325
indien 18322
aventures 18319
adversaires 18316
abandonner 18315
légère 18315
émis 18303
Xavier 18302
humanité 18300
décisions 18299
1881 18294
osité 18294
Hauts 18281
produisent 18278
réside 18277
programmation 18276
espoirs 18275
faibles 18275
garnison 18275
estre 18273
nationalité 18266
3,@@ 18265
complém@@ 18261
réelle 18259
orthodoxe 18257
adulte 18251
issait 18250
issons 18246
crist@@ 18245
souvenir 18242
soviétiques 18240
entouré 18236
issues 18235
Lausanne 18230
ST@@ 18230
opus 18230
sage 18230
encadré 18229
Éditions 18229
option 18225
ap 18223
vague 18217
volontaires 18215
écoul@@ 18212
arri@@ 18211
arrivé 18208
industriels 18207
ip@@ 18206
diriger 18201
déplo@@ 18197
itch 18194
bis@@ 18192
vraiment 18189
archéologique 18183
femelles 18181
Sy@@ 18178
remplaçant 18178
Princip@@ 18174
lacs 18173
Loc@@ 18171
æ@@ 18169
poin@@ 18168
nettement 18167
ênes 18159
dépit 18153
pique 18151
abatt@@ 18150
signal 18150
Deb@@ 18149
Sul@@ 18149
êne 18148
Had@@ 18143
vet@@ 18141
achète 18137
estr@@ 18137
brique 18131
précédents 18130
Lag@@ 18129
basilique 18128
lignée 18128
confirmé 18127
rencontré 18127
affa@@ 18118
élém@@ 18118
1876 18114
notables 18113
1878 18111
urbanisme 18111
rencontrer 18102
ander@@ 18099
anus 18099
municipalités 18091
motif 18090
publier 18090
Canton 18089
manuscrits 18089
descente 18087
Oxford 18083
Personn@@ 18083
Sicile 18080
détails 18079
héroï@@ 18073
AP@@ 18072
photographe 18070
ort 18068
phone 18067
Tan@@ 18064
izi@@ 18064
garder 18062
combattre 18061
instar 18061
revues 18059
adopte 18058
érieur 18058
ouverts 18056
élor@@ 18055
Times 18053
réserves 18051
sollic@@ 18048
régionaux 18040
considérablement 18039
exprime 18035
miques 18035
Éric 18027
ord 18026
1894 18023
compilation 18023
débats 18023
commandes 18021
Gilbert 18014
émique 18014
South 18013
cérami@@ 18010
serte 18004
èdent 18004
dans@@ 18002
rir 18000
remportent 17999
défend 17998
matières 17995
iture 17991
Davis 17990
pétrol@@ 17987
Dav@@ 17984
Prés@@ 17983
aques 17979
rangs 17979
Cel@@ 17975
crit 17972
majoritaire 17972
Général 17965
Pos@@ 17964
indienne 17962
possé@@ 17962
ulement 17961
stabil@@ 17957
biodiversité 17953
dites 17951
Agence 17949
oma 17947
rag@@ 17946
synthèse 17944
ø@@ 17943
écossais 17942
aria 17941
philosophi@@ 17935
F. 17933
eint 17933
simul@@ 17932
Opéra 17927
burg 17925
extrait 17921
ressemb@@ 17921
méth@@ 17919
onge@@ 17919
géné@@ 17918
variétés 17917
catalogue 17916
artistiques 17915
qualités 17911
1886 17910
Système 17910
Conn@@ 17909
urent 17906
circulaire 17898
vid@@ 17897
béton 17892
terminer 17890
marbre 17889
mang@@ 17888
empêche 17884
permanente 17884
réci@@ 17883
croître 17882
musées 17877
personnels 17876
dos@@ 17874
curé 17870
différenci@@ 17869
Bab@@ 17867
chimiques 17866
oy 17863
holotype 17862
marchands 17856
olet 17853
républic@@ 17849
baptisée 17846
reproduction 17844
tan 17842
Windows 17841
individu@@ 17841
ř@@ 17837
mondi@@ 17831
démographique 17818
vera 17816
vertu 17813
statues 17812
compositions 17807
impressionn@@ 17807
cap 17805
Jersey 17803
joint 17802
Ferr@@ 17800
AD@@ 17794
cadet 17794
considérable 17791
engager 17788
discut@@ 17787
embouchure 17783
Renault 17782
eton 17781
W. 17778
déroulent 17777
répertoire 17771
patron 17765
Champagne 17760
pavillon 17758
blessures 17754
Clément 17748
Alex 17746
accent 17746
menées 17746
proposer 17745
Développement 17744
transformé 17743
Research 17738
créant 17737
by@@ 17735
émin@@ 17731
mix@@ 17730
rénovation 17728
mentionne 17727
IC@@ 17726
interrog@@ 17726
Ari@@ 17723
automatique 17722
manoir 17722
perpétu@@ 17722
62 17719
éclat@@ 17713
adoption 17712
Croatie 17708
Mik@@ 17706
remarquables 17698
Hir@@ 17695
choisir 17692
gan@@ 17692
scand@@ 17692
étain 17690
séquences 17688
réformes 17686
plateforme 17685
australien 17684
phones 17684
séqu@@ 17678
MS 17669
gi 17669
bar 17666
Améric@@ 17664
ométrie 17664
passa 17661
Hé@@ 17660
rêve 17660
professeurs 17658
administratives 17655
Fol@@ 17653
London 17652
refuge 17651
archie 17650
exposé 17647
soldat 17645
sculptures 17643
In 17641
vents 17641
aranéomorphes 17636
réception 17635
plong@@ 17633
Championship 17630
attitude 17630
gen 17630
quelle 17630
hong@@ 17629
construc@@ 17624
Live 17623
9,@@ 17622
ator 17622
poisson 17622
restera 17620
renvers@@ 17617
jugé 17613
cellule 17604
subsist@@ 17604
Hum@@ 17603
accorde 17602
rit@@ 17602
morale 17599
Avignon 17597
bol@@ 17595
garçons 17595
déclench@@ 17591
tib@@ 17590
UN@@ 17588
chés 17588
gne 17588
amène 17580
chet 17578
imb@@ 17577
ons@@ 17576
orph@@ 17575
révélé 17573
Beaux 17572
vou@@ 17572
agon@@ 17571
bombar@@ 17571
intégrée 17570
São 17569
récupérer 17567
chambres 17565
eck 17565
Vladimir 17564
algorith@@ 17564
put@@ 17562
éponyme 17558
ections 17557
magasin 17553
produc@@ 17550
District 17549
graves 17542
Explorer 17541
ectives 17534
Taylor 17533
infrastructures 17530
inscrite 17530
partenaires 17529
120 17520
iger 17520
maqu@@ 17520
Porto 17517
dixième 17512
Jacob 17511
domine 17509
pratiquement 17506
roy 17505
UCI 17504
tric@@ 17502
grève 17500
occupant 17499
Bus@@ 17489
Tim@@ 17483
compatri@@ 17479
échoue 17479
arbus@@ 17477
61 17474
Gh@@ 17472
Blue 17469
profondément 17457
Alli@@ 17455
cus 17455
particularité 17453
monts 17452
synthé@@ 17448
Bonn@@ 17447
Kim 17447
Venezuela 17445
essence 17443
1888 17442
VIII 17439
vols 17438
Ori@@ 17437
Toujours 17436
influencé 17433
Cir@@ 17430
éten@@ 17421
250 17420
remportée 17420
Lat@@ 17418
connait 17412
cau@@ 17407
kg 17407
kov 17406
éter 17405
architectes 17403
ié 17403
districts 17401
onnent 17397
tières 17396
sombre 17393
1882 17389
enberg 17388
actuels 17386
espi@@ 17382
Kn@@ 17379
13,@@ 17376
aigu@@ 17376
imag@@ 17375
autocht@@ 17371
Tran@@ 17367
Real 17359
germanique 17359
augment@@ 17358
communautaire 17358
éteint 17358
arriver 17352
reliefs 17352
affronter 17350
opposant 17349
Hélène 17340
Turin 17339
couramment 17336
RT@@ 17333
glob@@ 17331
évalu@@ 17328
din 17326
distinguer 17326
tournées 17322
1891 17316
gouvernements 17316
fisc@@ 17313
talent 17313
beauté 17311
créd@@ 17310
entreprend 17310
trace 17303
Me 17302
eil 17301
Nan@@ 17298
érieurement 17298
CH@@ 17295
enant 17295
majeurs 17294
ude 17291
59 17290
PC@@ 17288
dames 17288
Charente 17282
IC 17279
report@@ 17279
Gustave 17278
observant 17278
recue@@ 17277
trophée 17277
prisonnier 17276
Philadelphie 17275
policiers 17275
évènements 17275
Mod@@ 17270
dol@@ 17266
ètent 17262
erre 17259
inement 17256
industrielles 17255
détruire 17247
décal@@ 17245
Série 17243
pandémie 17239
design 17230
armé 17229
abr@@ 17227
1884 17226
ignor@@ 17225
Moul@@ 17224
eti@@ 17223
chaî@@ 17222
cohér@@ 17222
abol@@ 17221
refusé 17214
renommé 17211
alis 17209
preuves 17209
agement 17207
eure 17206
sex@@ 17196
Long 17195
63 17192
ativement 17189
inscr@@ 17188
dévelop@@ 17187
décid@@ 17185
obligatoire 17183
Cité 17181
régé 17174
rassemble 17173
ticul@@ 17172
Alb@@ 17171
Bes@@ 17163
impérial 17158
oto 17157
agran@@ 17156
Gon@@ 17154
frappe 17153
IS@@ 17149
enseignant 17148
déclen@@ 17142
passion 17142
manifeste 17141
1000 17140
Aires 17136
exprimés 17134
refus 17133
règlement 17133
augmenté 17132
sentiment 17129
Ast@@ 17127
God@@ 17127
Ath@@ 17123
particules 17123
précéd@@ 17122
dist@@ 17120
fini 17119
Bourbon 17117
cinématographique 17112
médiévale 17112
Jérôme 17109
mono@@ 17108
pic 17108
Cuba 17107
consid@@ 17104
explosion 17103
acheté 17102
pris@@ 17102
éal 17102
gel@@ 17097
Pod@@ 17095
ayer 17094
ieu 17094
ader 17092
Activités 17091
brièvement 17088
ution 17088
Champ@@ 17084
rus@@ 17082
66 17079
Lieux 17079
Porte 17078
Bulgarie 17077
contribution 17077
Donald 17076
avant@@ 17076
dieux 17076
Ot@@ 17074
isons 17073
centrales 17069
int 17066
eng 17064
ition 17064
procureur 17064
hésion 17059
propul@@ 17057
alentours 17056
modeste 17056
têtes 17055
Green 17054
inom@@ 17054
aid@@ 17050
fidèle 17050
ouvertes 17048
University 17039
Bul@@ 17037
couches 17034
undi 17034
fiées 17033
résidences 17032
illère 17031
manipul@@ 17027
remarque 17023
invit@@ 17019
signi@@ 17019
Film 17017
Amiens 17015
produ@@ 17009
facile 17007
sûr 17007
heureusement 17005
élique 17005
christianisme 17004
bouddh@@ 16998
iries 16997
mariée 16997
lob@@ 16990
mp@@ 16988
Madame 16987
osp@@ 16987
sexuelle 16985
Sing@@ 16983
dissolution 16983
Cannes 16980
participant 16975
malade 16971
briques 16963
parisien 16963
orie 16957
Nav@@ 16951
laine 16951
radio@@ 16951
pontific@@ 16950
argent@@ 16949
Stephen 16941
Angers 16939
inaugurée 16939
alcool 16934
envoyer 16934
Flandre 16932
vérit@@ 16930
Fe@@ 16928
balle 16927
lourds 16926
ît 16921
Oscar 16916
Franz 16914
essa@@ 16912
dérivé 16911
clergé 16908
Vallée 16907
lige 16906
pyr@@ 16906
définir 16900
détr@@ 16898
rives 16896
colonisation 16895
Fiat 16893
Vis@@ 16893
affrontent 16893
Arch@@ 16892
Institute 16891
jugement 16887
traditionnels 16886
repouss@@ 16882
agés 16878
aste 16877
causes 16876
rebelles 16874
Vér@@ 16873
venait 16871
Che@@ 16865
énerg@@ 16865
motiv@@ 16860
musiques 16859
souligne 16852
bo 16851
implic@@ 16851
triques 16846
commerciaux 16844
urie 16844
régulier 16841
abords 16838
déménage 16838
Mohamed 16837
BBC 16836
ung@@ 16835
grandit 16832
Nam 16831
antenne 16830
chômage 16830
Hou@@ 16829
way 16828
ascension 16826
fid@@ 16825
spécialistes 16821
paroisses 16817
indu@@ 16816
tionnaires 16814
Enseignement 16811
incl@@ 16811
67 16805
titr@@ 16805
veur 16805
ón 16804
cylin@@ 16802
Sénégal 16801
maj@@ 16798
quotidi@@ 16797
Emp@@ 16796
Francesco 16790
Valence 16788
rural 16786
onal 16782
dénon@@ 16781
entendre 16775
1887 16773
conç@@ 16770
mathémati@@ 16770
marchand 16763
littoral 16759
ick@@ 16758
volley 16758
travail@@ 16757
cie 16754
Phil@@ 16750
River 16742
icon@@ 16734
ando 16731
cyclisme 16729
etto 16729
geois 16728
progress@@ 16727
tâche 16727
chin@@ 16725
jé@@ 16725
RI@@ 16718
ke@@ 16717
ènent 16717
rance 16716
faune 16714
contrôler 16713
témoigne 16713
Orchestre 16711
ath 16706
aint 16703
dépasse 16703
Brian 16702
Pennsylvanie 16700
Gaulle 16695
pluie 16693
† 16692
Concours 16691
Gaston 16690
Tibet 16690
Pir@@ 16689
Leg@@ 16684
gue@@ 16681
princip@@ 16680
from@@ 16676
tables 16673
constru@@ 16671
coloniale 16666
accepter 16664
eva 16663
racines 16661
armement 16659
Sz@@ 16654
Face 16652
richesse 16652
pourra 16651
fief 16648
impulsion 16642
Jim 16637
combattants 16631
Orange 16629
golfe 16626
ancée 16625
météor@@ 16624
monarchie 16619
rand@@ 16615
consacrer 16613
psychi@@ 16611
Vall@@ 16610
prussi@@ 16606
médicale 16605
curité 16604
Hollande 16602
oa 16602
profonde 16598
Wilhelm 16596
héré@@ 16593
1875 16591
ombe 16590
placés 16590
décida 16589
humides 16589
aments 16587
anal@@ 16577
disparaît 16576
Augustin 16575
Kas@@ 16573
assurée 16571
qualifier 16569
suspen@@ 16568
élimination 16568
foyer 16567
auxquels 16566
nage 16564
suppression 16562
mier 16561
socialistes 16557
Caen 16556
continuent 16556
rejo@@ 16555
reconnaître 16551
exploitations 16546
Leurs 16541
anz@@ 16539
dier 16538
dame 16537
Lec@@ 16528
resp@@ 16525
iki 16523
Pedro 16519
well 16519
Profes@@ 16518
Ry@@ 16517
essor 16517
montrant 16513
cryp@@ 16510
dra@@ 16510
gend@@ 16510
Wall@@ 16508
cra@@ 16508
protégé 16507
ône 16506
modification 16502
écoslov@@ 16498
Musique 16495
ces@@ 16490
Ball@@ 16488
Villa 16485
My 16479
Wide 16479
réellement 16477
élevés 16477
sement 16469
péd@@ 16464
Brunswick 16461
douce 16461
hir 16461
tem@@ 16461
allié 16459
appelées 16459
FM 16458
commandé 16455
lutter 16454
êts 16453
retard 16451
Mort 16449
assassiné 16449
ept@@ 16445
nik 16444
sang@@ 16444
maine 16443
effort 16440
occupent 16439
variante 16439
désert 16437
onnet 16436
alle 16435
Bén@@ 16434
rate 16430
adi 16425
baccalauréat 16419
invités 16407
moine 16402
OS 16401
sommets 16398
Vieux 16397
fans 16393
francophone 16393
joints 16392
acheter 16391
Sain@@ 16387
débuté 16387
hypoth@@ 16387
récente 16384
Andrew 16382
allong@@ 16380
commis 16379
magasins 16378
désir 16377
prêté 16377
périodi@@ 16377
exécu@@ 16376
séminaire 16375
externe 16365
achève 16364
cend@@ 16364
larges 16362
musicales 16359
baroque 16355
ajouté 16353
Sub@@ 16351
parviennent 16351
1863 16345
rappro@@ 16344
Jane 16342
East 16340
samedi 16340
spec@@ 16339
doctrine 16334
Fontaine 16330
Ivan 16327
oud 16327
hospitali@@ 16323
Sept 16319
sauvage 16317
Buenos 16315
défaut 16315
continentale 16314
urn@@ 16314
Océ@@ 16313
Yougoslavie 16307
édifices 16307
œuf 16302
parent 16300
accède 16298
protoc@@ 16298
inclu@@ 16297
pianiste 16295
marquant 16294
aineté 16291
ille@@ 16291
zéro 16284
controver@@ 16282
entrées 16281
pénétr@@ 16281
servent 16281
carre@@ 16280
Occident 16276
renvoy@@ 16276
88 16275
eant 16274
Dijon 16272
los@@ 16266
1883 16264
dir 16264
ouve 16263
apie 16262
reçoivent 16260
AT@@ 16259
Philippines 16257
passages 16247
élarg@@ 16246
achevée 16240
vra@@ 16239
AM@@ 16237
Hambourg 16237
emplois 16237
Lady 16236
absol@@ 16236
registre 16235
réd@@ 16232
dal@@ 16231
Mam@@ 16230
otiques 16230
Catalogne 16229
ago 16226
1868 16225
foule 16224
entend 16223
Ohio 16221
inclin@@ 16221
ZNIEFF 16220
Sarah 16218
crat@@ 16214
rénov@@ 16214
sucre 16214
Fem@@ 16213
Central 16212
hausse 16212
tensions 16210
détient 16208
heureux 16206
j&apos; 16205
iments 16204
vo 16204
Alan 16203
nombr@@ 16203
itude 16202
Forces 16197
stratégi@@ 16197
Liber@@ 16195
fosse 16190
traditionnelles 16190
niques 16189
suggère 16189
tribun@@ 16188
oirs 16184
particu@@ 16183
inéd@@ 16173
cuir@@ 16172
fruit 16170
berger 16169
Douglas 16168
ATP 16165
blanches 16163
emploie 16162
référendum 16162
rit 16161
fonc@@ 16153
métropolitaine 16153
métiers 16148
Stéphane 16140
trentaine 16140
singles 16137
effond@@ 16133
usement 16132
fonctionnaires 16131
réfugi@@ 16131
assuré 16126
eine 16123
compag@@ 16122
etée 16119
laiss@@ 16116
merie 16116
yp@@ 16116
Britannique 16115
rotation 16114
Dum@@ 16113
SN@@ 16111
cord@@ 16103
positif 16100
impér@@ 16098
théories 16097
Anci@@ 16096
comparaison 16096
parcs 16096
menant 16091
yen 16091
turc 16087
Ach@@ 16086
ular@@ 16085
1872 16084
Vir@@ 16084
signer 16082
Anthony 16080
iy@@ 16080
traditionnellement 16078
onnes 16074
Ville@@ 16072
suicide 16071
kl@@ 16070
Commune 16068
alter@@ 16068
Chel@@ 16066
violon@@ 16062
Beaucoup 16061
chargés 16057
conversion 16057
Brun@@ 16054
Ober@@ 16050
abri 16048
policier 16037
1815 16035
Manchester 16033
quasiment 16022
compor@@ 16021
ope 16020
dommages 16017
mar 16017
enrich@@ 16014
teuse 16013
conservée 16012
constituant 16009
Johnny 16006
limiter 16004
metteur 16004
comprom@@ 16003
oll@@ 16000
Š@@ 16000
herbac@@ 15998
Nou@@ 15996
Pad@@ 15993
puis@@ 15993
sportifs 15990
transforme 15989
étendre 15989
vacances 15988
conçue 15986
habilit@@ 15985
dessinateur 15984
berge 15981
asses 15980
réput@@ 15980
ín 15978
umi@@ 15976
interview 15975
tante 15974
perc@@ 15969
originaires 15963
low 15957
Cambridge 15956
Pass@@ 15954
ouvrier 15948
ś@@ 15946
excl@@ 15945
couvrant 15944
Reich 15942
salariés 15940
voûte 15939
deau 15938
habitation 15938
CC@@ 15936
typi@@ 15929
démonstr@@ 15927
retenu 15925
joueuse 15923
vacc@@ 15923
Aussi 15920
routier 15920
74 15919
clame 15919
réuss@@ 15911
issance 15908
priv@@ 15908
Hugues 15906
1877 15905
gag@@ 15899
masculine 15896
Costa 15895
handball 15894
Voici 15891
indice 15891
Maître 15890
avancée 15890
Lublin 15887
provinci@@ 15887
enger 15882
oui 15881
bit@@ 15879
commen@@ 15879
spéciales 15876
Monte 15874
progression 15873
prime 15869
enregistrements 15868
issements 15866
art. 15863
Euro 15862
remani@@ 15860
coûts 15857
vallées 15853
Esc@@ 15851
ista 15847
Bible 15846
astronome 15845
1865 15843
restr@@ 15842
ordonnance 15834
ess 15833
mourir 15833
venti@@ 15833
more 15832
pend@@ 15832
ory 15830
Lucien 15829
torpil@@ 15826
Lap@@ 15825
Département 15824
couv@@ 15820
Nouv@@ 15818
téléfilm 15816
1861 15815
canadi@@ 15811
ciens 15811
feux 15803
appropri@@ 15802
immun@@ 15801
maternelle 15801
immense 15797
Camille 15791
politi@@ 15790
plaques 15789
Thérèse 15788
pédago@@ 15787
Indonésie 15785
arché@@ 15785
atrices 15782
enfer@@ 15782
protéines 15777
inae 15776
ple 15776
neux 15774
équation 15772
précis 15771
mad@@ 15768
Manche 15764
patronyme 15762
Sib@@ 15761
rum@@ 15761
set 15760
Vé@@ 15759
assurance 15758
internes 15758
perdent 15758
apparitions 15746
Mess@@ 15739
Patr@@ 15738
Cath@@ 15737
Sho@@ 15736
Hay@@ 15735
Kab@@ 15735
apparait 15735
adhér@@ 15734
révé@@ 15734
coopér@@ 15733
suc@@ 15732
ensembles 15730
satellites 15729
chapit@@ 15728
avoc@@ 15727
anth@@ 15722
belles 15720
plaç@@ 15720
session 15720
Bog@@ 15719
Confédération 15717
1873 15715
rendant 15711
1864 15707
Sam 15707
observé 15706
up 15705
Olympique 15704
attein@@ 15704
suspension 15703
Actu@@ 15702
quait 15702
modes 15699
libr@@ 15695
èches 15695
calcaire 15693
olithique 15689
Haï@@ 15685
circonstances 15681
comportant 15680
consol@@ 15679
Comte 15678
Ligne 15677
entrent 15676
caractérisant 15675
déploy@@ 15675
faibl@@ 15674
euil 15671
1874 15669
saire 15669
obtint 15668
Ash@@ 15665
attire 15664
clés 15659
Entertainment 15658
gallo 15657
Dam@@ 15654
Cé@@ 15653
autr@@ 15647
chronique 15646
barre 15641
phénomènes 15639
mini@@ 15638
inaire 15635
échang@@ 15635
onnant 15631
FA 15627
astique 15626
DJ 15625
parfaitement 15624
appartement 15623
name 15621
tari@@ 15621
Series 15620
plu@@ 15620
jud@@ 15616
install@@ 15611
Résistance 15608
palé@@ 15604
faciliter 15595
observe 15590
ectifs 15587
qualifications 15584
Toulon 15578
èg@@ 15578
Liban 15574
primer 15574
ambassade 15570
hau@@ 15570
èce 15569
spécialement 15567
Zurich 15562
traj@@ 15562
bombard@@ 15555
Burkina 15553
idence 15549
Agriculture 15548
campus 15548
collines 15545
Pourtant 15542
assistance 15542
francophones 15542
accepté 15540
incident 15539
communs 15537
apparu 15534
live 15533
athlètes 15532
charg@@ 15531
dates 15531
1879 15526
compétence 15526
suédo@@ 15522
appuie 15520
Didier 15518
Ans 15516
stockage 15516
condi@@ 15515
Massachusetts 15513
Jeune 15503
pist@@ 15500
consci@@ 15499
remet 15499
anthro@@ 15496
loy@@ 15495
Roy@@ 15491
violon 15491
rectang@@ 15488
préal@@ 15484
endrait 15480
uma 15480
ili 15479
dossier 15478
arche 15477
permettait 15475
1792 15471
rang@@ 15471
unions 15470
mic@@ 15469
civilisation 15467
rapides 15463
astre 15457
biologique 15457
variantes 15457
HMS 15456
ben 15456
ceci 15454
rayon 15454
évoluer 15446
agricul@@ 15445
tenté 15439
valor@@ 15439
détail 15438
heur 15438
cheurs 15437
Rav@@ 15430
répression 15428
oration 15427
favorables 15423
esthétique 15420
fall@@ 15420
ays 15419
volant 15414
confes@@ 15413
gion 15413
scolaires 15412
icale 15405
propositions 15404
WISE 15402
gs 15399
Poitiers 15398
atori@@ 15398
dynam@@ 15398
veau 15397
92 15395
créateur 15393
typique 15391
confon@@ 15390
yo 15387
pair 15386
chars 15385
drame 15384
fenêtre 15383
pid@@ 15383
uc 15383
considèrent 15382
convoi 15382
humor@@ 15382
Lake 15378
Faso 15371
atie 15369
remettre 15369
rattaché 15365
conduire 15361
révol@@ 15361
prête 15360
autrichien 15358
ula 15358
posé 15357
qualifiés 15353
Vend@@ 15351
comprise 15348
perman@@ 15346
CD@@ 15345
apprendre 15341
77 15338
envoyés 15338
sap@@ 15336
Roch@@ 15333
préserver 15331
Infrared 15324
assimil@@ 15324
Aub@@ 15323
Roche 15322
bic@@ 15321
clar@@ 15321
devoir 15320
Constantin 15316
èze 15315
Arizona 15314
atteinte 15314
créées 15312
ouvrant 15312
1862 15309
déser@@ 15302
maires 15302
Corporation 15299
corruption 15295
placer 15295
emporte 15294
igues 15294
dige 15293
Lune 15292
Mous@@ 15290
Wi@@ 15290
76 15289
intercommun@@ 15285
collecte 15283
phys@@ 15283
démarche 15282
Syn@@ 15274
ho 15274
tempête 15273
aidé 15271
générations 15270
Pil@@ 15265
eto 15262
puissante 15260
agan 15259
FF@@ 15258
intéres@@ 15256
préfér@@ 15256
accomp@@ 15255
fantas@@ 15254
accue@@ 15253
gérer 15246
charte 15243
massacre 15240
breton 15239
appellent 15234
brésilien 15230
retiré 15230
sens@@ 15230
spir@@ 15230
Sw@@ 15229
nucléaires 15229
bourgeois 15227
voisines 15227
ottoman 15224
chlor@@ 15221
adh@@ 15218
poud@@ 15216
Alexis 15215
resta 15211
camar@@ 15210
géré 15210
chaud 15207
identifier 15207
témoignage 15206
dur 15205
séquence 15202
suffis@@ 15201
Win@@ 15200
nomin@@ 15199
actuelles 15198
intern@@ 15198
chaire 15194
géant 15193
enz@@ 15192
lon 15189
témoin 15189
pun@@ 15188
judici@@ 15185
tâ@@ 15181
visu@@ 15180
revendi@@ 15178
ologne 15177
éner@@ 15177
uts 15175
participa 15174
ings 15173
firent 15172
CS@@ 15170
raine 15169
America 15165
professionnelles 15163
psychologie 15158
Abraham 15156
robe 15156
Belle 15154
irland@@ 15154
Sup@@ 15152
influences 15151
micro 15151
73 15150
GT 15149
crimes 15147
fron@@ 15147
métrique 15146
permanent 15145
esser 15144
desc@@ 15140
fossiles 15140
générique 15140
‘ 15138
crue 15137
vélo 15117
aux@@ 15116
gram@@ 15114
ity 15113
âne 15113
extérieure 15111
mystéri@@ 15111
nez 15110
amin@@ 15103
Îles 15103
oun 15101
1869 15100
ó 15097
amme 15094
taxe 15091
coff@@ 15090
AL@@ 15087
1,5 15085
seuil 15079
héberg@@ 15077
partielle 15077
tenait 15075
Mér@@ 15074
hélicop@@ 15074
inn@@ 15071
aisie 15068
quotidienne 15067
actualité 15066
vê@@ 15066
march@@ 15065
devenus 15064
hip@@ 15060
dégâts 15056
Action 15055
Meuse 15055
oxyde 15054
batteur 15053
guée 15050
1800 15043
recettes 15043
apporter 15042
mécanisme 15042
clandest@@ 15038
localités 15038
Kevin 15036
puissances 15036
ondre 15035
bill@@ 15034
Ig@@ 15031
contreb@@ 15030
entiel 15030
idents 15026
repê@@ 15026
cadres 15024
comptant 15017
Van@@ 15009
batailles 15002
habitant 15000
ologiste 14999
attente 14997
ster@@ 14994
inconnue 14993
gre@@ 14988
exercer 14987
oncé 14987
ravit@@ 14985
aveur 14983
rival@@ 14980
destinées 14978
simpli@@ 14977
clô@@ 14976
résol@@ 14973
formés 14969
plaf@@ 14969
Lanc@@ 14968
sant 14963
circuits 14959
AP 14958
lements 14956
lingu@@ 14956
tentent 14956
anien 14955
ash 14955
Somme 14953
finition 14952
symp@@ 14950
ú@@ 14948
Péri@@ 14946
ce@@ 14945
Sant@@ 14933
réus@@ 14932
vitesses 14932
acul@@ 14930
juridiction 14930
cheveux 14927
profes@@ 14926
astronomie 14925
préside 14925
marqués 14922
camp@@ 14920
fonte 14920
délégué 14918
ost 14918
poser 14916
Khan 14907
acces@@ 14904
éliminé 14900
rentrer 14899
traiter 14895
siers 14894
ER@@ 14891
Réunion 14889
tirage 14887
Mathieu 14883
fonder 14883
ponctu@@ 14882
Là 14878
chement 14877
kov@@ 14875
géographie 14869
onna 14868
matern@@ 14866
symbolique 14864
acité 14858
clinique 14857
administratifs 14856
inspecteur 14856
optères 14852
officielles 14844
défil@@ 14842
fiscalité 14842
manga 14841
blocs 14838
experts 14837
kin@@ 14835
fa 14834
Premi@@ 14832
désignation 14831
inj@@ 14831
phrase 14831
Hollywood 14825
brésilienne 14822
ric@@ 14822
décoré 14821
doux 14820
botanique 14818
levée 14818
Fé@@ 14816
Earth 14815
ă@@ 14815
sportives 14814
Paulo 14813
préfé@@ 14810
ciné@@ 14805
visit@@ 14800
prépare 14790
danois 14785
gis@@ 14785
ADN 14784
Cop@@ 14780
continuité 14780
Leb@@ 14775
rette 14773
princes 14767
surfaces 14767
69 14765
attribuée 14760
sauvet@@ 14758
• 14757
noires 14752
elin 14749
tionné 14747
Viêt 14746
suis 14746
Wa@@ 14739
² 14739
descendant 14734
put 14733
Plan 14732
dut 14731
erre@@ 14731
volon@@ 14727
Express 14726
décroche 14726
quête 14726
concile 14725
Hi@@ 14719
fabrique 14716
logiciels 14715
propagande 14715
lov@@ 14713
résoudre 14712
gea 14711
ska 14711
saints 14709
vidéos 14708
marquer 14703
hôte 14700
combinaison 14699
mythologie 14699
Shi@@ 14697
1851 14696
autrichienne 14696
habite 14695
épaisseur 14695
Vig@@ 14694
remont@@ 14692
.com 14689
organe 14685
remplacés 14682
I. 14681
matériau 14681
Française 14680
consul 14677
tit@@ 14677
audience 14676
collègues 14674
approximativement 14671
obligation 14671
réussite 14669
théorème 14669
DF 14667
diversi@@ 14664
rel 14664
souris 14661
Châ@@ 14656
extraordin@@ 14656
fri@@ 14656
mineur 14656
Din@@ 14654
ry@@ 14654
mondiaux 14653
redécoupage 14653
islam 14652
Aéro@@ 14651
styl@@ 14649
alphabet 14644
influenc@@ 14639
innov@@ 14639
supérieurs 14638
addi@@ 14637
aisons 14636
plomb 14635
No 14633
disputer 14632
illent 14632
faisaient 14629
Lév@@ 14627
trio 14626
disposent 14623
Francfort 14621
dépendant 14619
individuelles 14616
demeur@@ 14615
guère 14615
inconnu 14615
photographies 14613
ast 14611
Ministre 14609
fur@@ 14608
mortal@@ 14605
proprement 14602
vainqueurs 14601
anticip@@ 14597
orientales 14595
tain 14593
tome 14592
78 14591
tho@@ 14591
vaisseaux 14590
ng@@ 14589
ministéri@@ 14588
ecte 14587
arrêtés 14586
state 14585
Duch@@ 14584
hier 14584
équipée 14582
Cœur 14580
primaires 14578
attesté 14577
écarts 14576
Équ@@ 14575
bier 14573
profil 14570
Claire 14569
Occidentale 14569
vedette 14569
distances 14567
89 14566
voi 14565
onnerie 14564
fleur 14560
bâti 14559
ïque 14557
87 14554
chent 14554
applique 14552
dépression 14552
éman@@ 14549
Las 14547
inus 14547
Léopold 14543
Cit@@ 14541
adaptée 14539
thermique 14537
isait 14534
Anderson 14531
lecteur 14531
jouée 14520
guide 14519
AM 14504
bag@@ 14504
ombre 14500
parlementaires 14500
Stan@@ 14496
15,@@ 14495
adoptée 14495
écrites 14495
eli@@ 14494
familial 14493
Ass@@ 14491
sister 14490
étendant 14488
accueil@@ 14485
kan@@ 14485
ters 14484
High 14483
Tunis 14482
ack 14482
mel@@ 14481
prototype 14481
Macédoine 14479
permit 14478
ront 14478
sson 14478
descend 14474
schéma 14471
Mach@@ 14469
Ob@@ 14465
collectivités 14465
Noire 14464
affron@@ 14464
Fau@@ 14463
paraître 14463
Hydrographie 14459
PS@@ 14457
Bag@@ 14454
dépendance 14453
nait 14453
Arm@@ 14448
désin@@ 14448
rall@@ 14448
Réseau 14447
MC 14446
Chron@@ 14445
considérer 14443
émiques 14443
effectifs 14441
Fur@@ 14439
ONU 14439
équivalente 14439
S.@@ 14438
anga 14434
répond@@ 14433
territoriales 14433
1801 14428
immeubles 14428
Hur@@ 14424
84 14423
copie 14422
mineures 14422
Fri@@ 14420
Siège 14418
culminant 14418
eilles 14416
71 14414
Life 14412
Boulogne 14410
bot@@ 14410
Franco 14409
nouv@@ 14409
roise 14409
Entr@@ 14405
nu 14403
oriental 14402
Otto 14401
semblable 14399
aumes 14397
Reine 14395
utilisateur 14395
ski@@ 14394
chantiers 14393
Indes 14391
Arménie 14389
Limoges 14387
Kom@@ 14385
pain 14385
Pakistan 14384
accident@@ 14383
Eurovision 14381
Billboard 14379
présidents 14379
recueil@@ 14375
Budapest 14369
engagée 14368
1855 14364
Castel@@ 14361
hydrogène 14360
Occitanie 14355
Rot@@ 14355
tex@@ 14354
Cher 14353
prononcé 14352
not 14350
observer 14348
onnaire 14346
Aus@@ 14344
êt 14344
Stanley 14340
comtesse 14339
ampe 14335
interprétée 14335
parach@@ 14335
perd@@ 14328
Dic@@ 14325
Aragon 14323
remon@@ 14321
è 14318
Revue 14317
Stockholm 14316
arbitr@@ 14311
Ferrari 14310
arrestation 14310
cé 14309
étroite 14309
paire 14308
Tin@@ 14307
tiennes 14307
ulus 14304
Anjou 14302
tube 14301
Gra@@ 14300
aure 14300
dien 14296
93 14294
Cologne 14286
Howard 14285
Initi@@ 14284
Nag@@ 14284
capables 14284
dou 14283
Academy 14279
che@@ 14278
cum@@ 14277
québéco@@ 14275
ingéni@@ 14274
passes 14269
rejoignent 14269
ebo@@ 14262
Arc@@ 14260
Ray 14260
atterr@@ 14254
châs@@ 14254
Maritime 14253
volution 14252
inscriptions 14251
tirent 14250
T. 14249
agi@@ 14248
1859 14246
terrestres 14246
protégée 14244
saires 14244
coréen 14238
vendredi 14238
Giuseppe 14236
cep@@ 14234
modifier 14234
hydrographique 14233
impliqué 14233
porteur 14228
Province 14227
adress@@ 14227
Missouri 14226
missiles 14223
Ép@@ 14223
romanci@@ 14222
lis@@ 14221
portug@@ 14221
Met@@ 14220
ão 14219
roches 14217
transformer 14216
oxygène 14215
ulaires 14214
86 14210
éme@@ 14208
Star@@ 14206
1814 14205
Ivoire 14204
préfère 14203
vraisemblablement 14202
vé 14200
Origines 14199
définitive 14194
ě@@ 14194
Camb@@ 14191
législature 14191
rév@@ 14191
volontaire 14186
Espagn@@ 14185
pig@@ 14185
82 14184
activement 14184
chants 14184
enquê@@ 14184
Pet@@ 14183
aie 14180
intervenir 14180
récentes 14178
ott@@ 14175
entraîné 14171
Bonaparte 14170
byzant@@ 14167
édant 14167
dents 14163
feuill@@ 14163
vén@@ 14163
éliminer 14161
gère 14159
âteaux 14159
énorme 14157
Puy 14156
gienne 14156
juridi@@ 14154
Petr@@ 14153
Statisti@@ 14149
tz 14147
autorisé 14146
registr@@ 14146
Christine 14139
conservés 14137
éth@@ 14136
abb@@ 14135
Tos@@ 14133
agues 14133
dépenses 14130
Blo@@ 14128
96 14126
ague 14126
chercheur 14126
Chab@@ 14124
perturb@@ 14122
fiquement 14121
produisant 14121
communément 14118
épousé 14118
Taï@@ 14117
ecclésiastique 14117
Ki@@ 14116
résulte 14115
Heinrich 14112
amas 14112
graines 14112
urbains 14112
brill@@ 14107
épid@@ 14106
africains 14100
attentat 14098
jaun@@ 14098
bru@@ 14097
dons 14095
Franche 14092
autobi@@ 14090
téléphone 14090
usi@@ 14090
Tib@@ 14086
Fox 14084
classées 14083
vouloir 14083
érigé 14079
éma 14076
patern@@ 14075
athlon 14074
chal@@ 14074
99 14073
spéc@@ 14073
règ@@ 14072
çait 14068
moyennes 14067
sensiblement 14067
alco@@ 14066
Mic@@ 14061
State 14060
apostolique 14060
croit 14059
assass@@ 14057
bleue 14054
records 14054
stable 14054
81 14051
gène 14051
Madagascar 14049
convaincre 14047
aveug@@ 14045
ourt 14045
itions 14043
horiz@@ 14042
turque 14040
syri@@ 14038
nér@@ 14035
comtes 14034
représentés 14034
éron 14034
tionnelles 14033
triple 14033
Rich@@ 14032
Équi@@ 14032
Hubert 14029
intelligence 14029
ust 14023
Coul@@ 14020
biologie 14019
jet@@ 14019
ographi@@ 14017
municipaux 14015
Mill@@ 14013
susp@@ 14012
dir@@ 14008
poursuiv@@ 14008
réactions 14007
défend@@ 14002
ordinaire 14001
affec@@ 14000
10,@@ 13997
Miami 13992
itan 13989
Nat@@ 13988
exactement 13988
Isère 13980
radical 13980
asa 13977
entend@@ 13976
levé 13976
Big@@ 13975
aut@@ 13969
diction 13969
old 13969
festivals 13965
commandée 13964
AI@@ 13963
remplac@@ 13963
tor 13963
Ev@@ 13962
fixé 13961
congrégation 13960
Grégoire 13959
épée 13959
Cru@@ 13954
nul@@ 13954
Lot@@ 13953
partent 13952
Aucun 13949
témoignages 13949
confir@@ 13947
Castille 13945
indiquent 13945
manie 13945
aro@@ 13940
espagnols 13939
examin@@ 13939
} 13937
piliers 13935
trouvant 13935
acha 13933
restitu@@ 13933
contiennent 13932
Prot@@ 13931
dotée 13930
cardiaque 13929
ason 13926
favoriser 13925
expul@@ 13922
aussitôt 13920
Rugby 13918
prostitu@@ 13918
Baz@@ 13917
taine 13915
opérateur 13910
universel 13906
Azerbaïdjan 13902
sensible 13893
enti 13891
lap@@ 13890
sympath@@ 13890
proven@@ 13888
incline 13887
maintient 13887
révolutionnaires 13885
veurs 13885
chage 13881
phin 13881
arbitre 13880
fonctionne 13880
diplomatique 13879
volcan@@ 13879
pollution 13877
fortifications 13876
queur 13876
Bon 13872
Proj@@ 13871
Tré@@ 13871
ottom@@ 13871
malades 13866
Sun 13862
Cord@@ 13858
entité 13855
effic@@ 13847
van@@ 13846
eines 13845
réputé 13845
identifié 13840
tille 13840
bec 13839
Belgrade 13837
Villeneuve 13837
endaire 13837
paroissiale 13836
sécur@@ 13835
Div@@ 13833
constatés 13831
libérer 13831
Navarre 13829
Bains 13823
finaliste 13820
Bad@@ 13818
onales 13816
envah@@ 13814
mond 13812
réservé 13812
déclin@@ 13811
sanc@@ 13810
courir 13806
froide 13806
Michigan 13805
cède 13804
01 13802
pauvreté 13802
multipli@@ 13801
résult@@ 13799
Conférence 13798
pent@@ 13797
Midi 13794
tir@@ 13789
ker@@ 13788
coéquipier 13785
Grands 13783
Kit@@ 13783
hr@@ 13777
installent 13776
feld 13774
peuplée 13771
voulu 13769
menés 13767
Science 13766
bordure 13760
croire 13760
incarne 13757
ignac 13753
concep@@ 13751
fug@@ 13750
éraire 13749
Laz@@ 13748
animé 13747
cérémon@@ 13747
ein 13746
bel 13744
carburant 13742
islam@@ 13742
buteur 13741
instance 13740
jal@@ 13740
acous@@ 13739
extraction 13739
iko 13736
prière 13735
2,5 13733
Laf@@ 13732
datent 13732
Sorbonne 13731
enseignants 13728
lich@@ 13726
quittent 13726
musicaux 13725
seuse 13724
éventuellement 13723
1856 13721
soin 13718
Soci@@ 13717
Exposition 13716
Palestine 13716
bury 13716
jointe 13714
Łódź 13714
Monsieur 13713
Sak@@ 13710
appeler 13709
enregistrer 13709
sid@@ 13708
cylindres 13707
dec@@ 13706
reprennent 13706
échap@@ 13706
verts 13705
accompag@@ 13704
massi@@ 13703
sum@@ 13702
sim@@ 13698
ument 13698
Armand 13697
Bres@@ 13696
issi@@ 13692
Thor@@ 13691
inauguration 13691
Champion 13690
déplacer 13690
insuffis@@ 13689
monstr@@ 13687
79 13684
cerveau 13682
ignit 13680
reconstruit 13678
baies 13676
élaboration 13676
agements 13673
égal@@ 13671
invention 13669
urgie 13669
tomber 13668
Fro@@ 13664
débarquement 13663
adu@@ 13662
situations 13662
toiles 13662
chette 13660
any 13659
ion@@ 13659
artisans 13658
blan@@ 13658
Loir 13657
chon 13655
chine 13654
dominic@@ 13654
1857 13652
VI@@ 13651
zé@@ 13650
Road 13649
lor@@ 13648
pur 13648
bière 13645
Lisbonne 13644
flore 13644
Second 13642
unif@@ 13641
Bra@@ 13640
Chevalier 13640
munitions 13638
foul@@ 13635
inspirée 13634
brut@@ 13631
Aï@@ 13629
Traité 13628
case 13626
dominant 13623
existant 13621
Ran@@ 13614
Romain 13614
basses 13614
compréhension 13611
notoriété 13611
aspir@@ 13610
réparties 13610
accompagnée 13607
décors 13607
gardes 13607
réalisations 13606
voyant 13600
Hautes 13599
aly@@ 13597
républicaine 13597
zer@@ 13594
cade 13593
Gér@@ 13592
lio 13590
Bern@@ 13589
Lub@@ 13588
83 13585
din@@ 13580
paras@@ 13578
élie 13576
onia 13574
pousser 13574
réservoir 13574
aba 13570
chancelier 13570
UEFA 13569
brou@@ 13567
Maxim@@ 13566
configuration 13565
concession 13561
Nintendo 13559
belges 13559
Jur@@ 13554
industries 13554
épiscop@@ 13552
seaux 13548
Colorado 13547
suspend@@ 13547
cles 13546
entendu 13545
J&apos; 13544
remonter 13541
auxili@@ 13534
reté 13527
Gour@@ 13526
associe 13524
Bâle 13523
exprimer 13522
ïs 13522
1852 13521
fices 13521
client 13520
Rol@@ 13519
survivants 13519
décerné 13517
Besançon 13516
vér@@ 13514
carros@@ 13510
ū 13509
mant 13508
98 13507
berg@@ 13504
serment 13504
ken 13501
Andr@@ 13500
ô 13500
alternative 13499
esclavage 13499
saou@@ 13498
ampleur 13496
dessert 13496
Edmond 13494
Notes 13494
Anton@@ 13491
imposant 13491
the@@ 13491
Arc 13490
Columbia 13490
Vichy 13490
pée 13487
Seg@@ 13486
Dan 13485
RS 13485
duchesse 13485
fan@@ 13484
passer@@ 13480
réguliers 13478
hym@@ 13477
Secré@@ 13474
umi 13474
engagés 13472
Empereur 13471
occident@@ 13469
appartiennent 13468
notable 13468
Miguel 13464
loisirs 13460
fréquent@@ 13459
ouver 13459
rébellion 13458
diam@@ 13457
évang@@ 13455
ectiv@@ 13452
habitations 13452
sir 13452
Whit@@ 13448
iff@@ 13446
CF@@ 13443
But@@ 13442
len 13440
Chac@@ 13439
fice 13436
Time 13434
Duc@@ 13430
affronte 13430
chroni@@ 13430
occasionn@@ 13428
localement 13426
Concer@@ 13425
amér@@ 13425
impéri@@ 13424
star 13424
institut@@ 13420
sond@@ 13420
montag@@ 13418
infirmi@@ 13416
choc 13413
enregistrée 13410
enci@@ 13408
syndicats 13408
Tel@@ 13407
quais 13407
Thaï@@ 13406
logo 13406
minaire 13406
Kin@@ 13402
contraintes 13401
augmentent 13400
ologi@@ 13400
dale 13398
effectuée 13397
aix 13395
ective 13393
égation 13393
crit@@ 13392
icisme 13388
zac 13387
présidenti@@ 13386
1846 13384
Litu@@ 13381
entho@@ 13381
nar@@ 13380
lage 13378
tige 13377
aissance 13376
motor@@ 13376
Dublin 13374
effectiv@@ 13365
exécuté 13365
rad@@ 13364
préd@@ 13363
deven@@ 13360
considérées 13359
triang@@ 13358
implantation 13356
Lot 13355
dénonce 13354
vicomte 13353
adre 13350
libéraux 13350
LNH 13349
if 13347
capture 13346
cou 13345
Déro@@ 13344
General 13344
pé 13344
Kl@@ 13343
armo@@ 13342
tionnellement 13341
C.@@ 13339
m. 13334
Pie 13333
touché 13331
constellation 13325
tonne 13319
1854 13318
sortent 13318
symboles 13318
Allem@@ 13317
démocrates 13308
profon@@ 13304
Carr@@ 13301
luxe 13301
ultime 13298
confiée 13295
deb@@ 13293
primiti@@ 13293
yon 13292
cription 13290
lie@@ 13289
location 13288
Vin@@ 13286
tionne 13283
Viv@@ 13282
vass@@ 13282
liaisons 13280
bloc@@ 13279
fro@@ 13277
controvers@@ 13275
naturellement 13274
fourni 13270
invite 13269
respect@@ 13269
ake 13267
Bruce 13266
Guil@@ 13264
prévention 13264
offrant 13261
sauveg@@ 13261
mour@@ 13258
avère 13257
courtes 13257
milit@@ 13257
cine 13256
ids 13254
dj@@ 13253
jon 13253
conventi@@ 13252
ouch@@ 13252
approfon@@ 13248
adron 13247
instrum@@ 13247
ä@@ 13247
Bis@@ 13245
Marco 13245
dette 13244
hameaux 13240
érations 13240
lourd 13236
nh@@ 13235
sci@@ 13234
tile 13232
archéologie 13230
terminus 13230
appelait 13229
architectur@@ 13228
ologies 13228
énique 13228
indem@@ 13227
zantin 13227
Bourg 13226
synagogue 13226
Adolphe 13222
deu@@ 13221
Beach 13217
week 13212
accumul@@ 13206
divorce 13205
Distinc@@ 13204
umin@@ 13203
alimentaires 13202
Ne 13201
Socorro 13196
Faculté 13194
Mali 13189
Jimmy 13186
aume 13186
tombes 13186
Constru@@ 13185
souhait@@ 13184
anglo@@ 13178
Japonais 13177
1858 13176
Louvre 13172
mammifères 13172
RA 13170
Vosges 13170
enu 13170
excell@@ 13170
mage 13170
ania 13167
Cent 13164
Little 13164
uds 13164
produites 13159
compositeurs 13155
1849 13154
ètement 13154
eron 13152
identification 13152
issa 13152
messe 13151
revê@@ 13151
alphab@@ 13148
colère 13146
intense 13144
sécu@@ 13144
Ky@@ 13143
statistique 13143
bords 13140
MA 13138
ageant 13138
tissu 13137
SI@@ 13135
chim@@ 13135
restée 13132
pharm@@ 13131
PA 13129
V. 13129
pin 13129
entin 13123
militant 13121
LINEAR 13117
Lon@@ 13117
mir 13117
onais 13114
Cél@@ 13110
veulent 13107
ij@@ 13106
ald 13100
Atlanta 13098
détention 13098
immigration 13098
compens@@ 13096
nay 13096
sauvages 13095
mb@@ 13094
Ma 13092
Malte 13092
atu@@ 13082
bombardement 13081
faill@@ 13081
suffixe 13080
Arist@@ 13079
aa 13076
XVI 13072
Barbara 13065
nati@@ 13064
slov@@ 13063
ènement 13063
edi@@ 13060
dén@@ 13059
talents 13058
relégation 13057
faces 13056
intensité 13053
It@@ 13051
tia 13051
trich@@ 13050
Dix 13049
K. 13047
isis 13043
Spir@@ 13039
quants 13031
édon@@ 13031
Golden 13029
pitaux 13029
Ny@@ 13023
expuls@@ 13021
compagnons 13019
ataire 13018
torat 13017
protagon@@ 13012
élire 13012
vi 13010
FF 13008
Syl@@ 13008
tois 13006
s. 13005
altern@@ 13004
tropicale 13004
ception 12996
Gab@@ 12994
lante 12990
D2 12988
offensi@@ 12988
ûte 12987
bruit 12983
Ostr@@ 12982
émati@@ 12981
valid@@ 12980
dispers@@ 12979
préli@@ 12977
Lambert 12975
humide 12973
isions 12972
dirige@@ 12970
atte 12965
mémo@@ 12965
tronçon 12965
continentales 12962
fragments 12962
dialogue 12956
riz 12955
Game 12950
tic 12950
ish 12949
équipés 12949
protestante 12945
déput@@ 12944
styles 12940
700 12937
Kiev 12936
ovitch 12936
Mili@@ 12933
pressions 12932
Tarn 12922
eth 12922
législation 12922
ino@@ 12920
mosquée 12919
humour 12912
nazis 12904
disciplines 12902
91 12897
Alban@@ 12896
exploration 12894
inter 12894
curr@@ 12893
chat 12889
Pour@@ 12886
agers 12885
Xi@@ 12880
dau@@ 12880
cinqu@@ 12874
miers 12874
bras@@ 12870
contacts 12870
procur@@ 12870
olog@@ 12868
ement@@ 12867
escence 12866
xi 12866
eda 12864
Retour 12861
Gordon 12859
paiement 12858
fications 12852
dissements 12845
Pey@@ 12840
antic@@ 12838
nominations 12837
Bank 12830
Township 12830
Gros@@ 12829
udi 12824
zon 12821
noc@@ 12819
Ris@@ 12817
Corn@@ 12813
ham@@ 12810
voirs 12810
contradic@@ 12809
romains 12808
00 12806
Charlie 12802
dominante 12797
po 12797
confront@@ 12795
var@@ 12791
stimul@@ 12790
Miller 12787
ichi 12786
cheur 12783
certi@@ 12782
poli@@ 12782
CO 12781
ider@@ 12780
anarch@@ 12776
psychan@@ 12775
joint@@ 12774
mobiles 12770
sam@@ 12769
igue 12766
And@@ 12759
Mac 12751
adapter 12751
worth 12749
ratie 12748
ö@@ 12742
Œuvre 12742
appu@@ 12741
Ng@@ 12732
argen@@ 12728
sin 12728
NA 12725
cars 12723
della 12723
Dr 12722
onnel 12722
plasti@@ 12719
rival 12718
Kansas 12714
asie 12714
any@@ 12711
width 12706
Li 12705
efs 12704
Quentin 12701
125 12699
16@@ 12699
confin@@ 12699
Trente 12695
certain@@ 12694
rection 12692
Bâ@@ 12689
anat 12689
secrets 12687
certific@@ 12685
Pau 12682
verg@@ 12681
diffuse 12679
lors@@ 12679
Natura 12677
brevet 12674
illo 12674
Us@@ 12672
trah@@ 12672
Fernando 12669
transept 12669
Ges@@ 12665
Se 12665
subsiste 12660
axes 12658
asp@@ 12654
Jonathan 12653
11@@ 12643
orum 12640
opportun@@ 12639
Ō@@ 12635
Mem@@ 12631
Show 12631
ef 12630
UE 12629
Mexico 12626
auss@@ 12623
races 12622
possibil@@ 12619
Č@@ 12618
gymnas@@ 12615
impl@@ 12613
Boris 12612
meub@@ 12612
West@@ 12611
chiff@@ 12610
Christopher 12608
Res@@ 12605
14@@ 12603
victor@@ 12598
évê@@ 12592
12,@@ 12591
etti@@ 12584
orange 12584
DE@@ 12582
tes@@ 12577
biographie 12576
Robin 12575
Bell 12573
Minnesota 12573
solidar@@ 12573
Ensemble 12569
Bibliographie 12568
cord 12566
topo@@ 12565
Cher@@ 12559
Vas@@ 12559
lai 12556
AT 12555
tion@@ 12554
tira 12554
dote 12551
faun@@ 12551
noy@@ 12549
Suc@@ 12546
UNESCO 12545
coupl@@ 12539
myth@@ 12539
retar@@ 12538
Andrea 12534
repos 12532
Fond@@ 12531
dive 12528
èbre 12526
ops 12522
ire@@ 12521
Nîmes 12520
DS 12519
moments 12518
entrant 12514
civiles 12512
1791 12506
1831 12505
Vie@@ 12502
oti@@ 12501
Clo@@ 12500
seignement 12500
propag@@ 12494
éat 12494
airie 12488
onien 12486
Afghanistan 12483
motion 12482
Day 12480
moto 12478
souvenirs 12478
Enfant 12474
10.@@ 12473
yl 12473
symphon@@ 12472
Aisne 12471
aute 12466
évèn@@ 12465
réqu@@ 12464
ouvent 12463
Havre 12462
ater 12457
juniors 12457
arbor@@ 12456
Ahmed 12451
confusion 12448
ME@@ 12447
atti@@ 12447
onymie 12447
Jura 12446
bal 12438
Kos@@ 12435
sibil@@ 12432
musulman@@ 12431
oul@@ 12429
Isaac 12428
Leipzig 12427
SO@@ 12424
andre 12423
4,@@ 12418
laire 12418
ą@@ 12417
grosse 12416
illard 12409
uniforme 12408
Flam@@ 12407
individuelle 12407
programm@@ 12407
insurrection 12404
Journ@@ 12402
auc@@ 12400
Services 12398
adres@@ 12397
sible 12384
pli 12376
globale 12373
org@@ 12373
èvres 12369
onautique 12367
3D 12365
iler 12364
seigneur@@ 12363
punk 12361
obst@@ 12360
analyses 12354
abs@@ 12352
sorties 12344
cut@@ 12342
geance 12342
Barth@@ 12340
Ton@@ 12335
Égl@@ 12335
oro 12330
uit 12323
pologie 12318
1795 12316
Act 12316
Rel@@ 12315
Ernst 12313
Microsoft 12312
char 12312
Wo@@ 12309
sym@@ 12308
Études 12308
ben@@ 12305
Hot 12302
normal@@ 12302
Finances 12301
sentiments 12298
Mit@@ 12290
NO@@ 12290
Prom@@ 12290
Han 12289
Hav@@ 12286
sec 12286
Théodore 12284
Clar@@ 12278
proph@@ 12278
Pop@@ 12276
tribune 12276
persu@@ 12269
affront@@ 12267
06 12265
complex@@ 12259
App@@ 12258
ag 12257
Hô@@ 12244
Mun@@ 12242
Ridge 12242
tenance 12241
12@@ 12240
María 12239
tz@@ 12238
Archives 12237
ôles 12236
ières 12234
Ves@@ 12229
ema 12229
ial 12226
ow 12226
1794 12225
gon@@ 12225
transporter 12224
corpor@@ 12221
hin@@ 12221
attribution 12219
découver@@ 12217
facil@@ 12215
empre@@ 12214
magazines 12213
Hil@@ 12211
Tra@@ 12211
das 12211
Vatican 12208
1853 12204
plication 12200
Allen 12197
export@@ 12197
manne@@ 12197
chiens 12195
Johannes 12193
antiques 12193
Clark 12192
1845 12189
Épo@@ 12189
Kennedy 12185
sultan 12183
entraîn@@ 12181
Auc@@ 12180
Santiago 12179
départem@@ 12179
ses@@ 12179
coc@@ 12178
degr@@ 12178
esta 12176
ebr@@ 12172
Morgan 12170
Fré@@ 12167
exclu@@ 12165
Tir@@ 12162
itres 12160
tine 12160
Entre@@ 12158
Magazine 12158
palest@@ 12152
13@@ 12148
compil@@ 12147
Poly@@ 12145
Régime 12145
sch 12144
cuis@@ 12137
ido 12137
Die 12135
ran 12134
eni 12132
€ 12131
oua 12130
Hau@@ 12128
tères 12128
lent@@ 12125
py@@ 12122
provincial 12115
long@@ 12113
Type 12112
conjug@@ 12109
Chy@@ 12105
ize 12103
gras 12102
PL@@ 12101
anonyme 12096
ns 12095
voter 12094
hél@@ 12091
UMP 12090
Mut@@ 12089
assa 12088
TA 12087
pauv@@ 12087
Herbert 12080
palmar@@ 12079
Ferrand 12078
enqu@@ 12077
Calédonie 12075
hostil@@ 12073
inien 12073
spati@@ 12073
contamin@@ 12071
exer@@ 12071
30@@ 12067
devi@@ 12067
tesse 12067
urba@@ 12066
méd@@ 12063
oko 12059
Télé@@ 12058
collective 12058
XI 12046
94 12043
bud@@ 12043
posth@@ 12040
Non 12033
Class@@ 12031
aïa 12029
fou 12028
The@@ 12026
habitats 12026
1837 12024
sul@@ 12024
œuv@@ 12016
ović 12015
tubes 12015
Duc 12014
ériens 12013
olo@@ 12011
récomp@@ 12009
Moulin 12007
pre@@ 12007
rech@@ 12007
roche 12005
Gand 11999
montage 11991
Mémo@@ 11989
entra 11988
Berne 11986
gènes 11986
ott 11982
Gis@@ 11976
territorial 11975
Nick 11974
isi 11974
gest@@ 11972
rin 11972
Louisi@@ 11971
1812 11970
bombe 11970
abus 11967
box 11966
yo@@ 11963
massive 11961
sine 11959
MI@@ 11957
Fel@@ 11952
conclu@@ 11949
Alberto 11948
wald 11948
lag@@ 11943
patient 11941
gir@@ 11938
nig@@ 11936
owski 11936
Bac@@ 11928
Extr@@ 11927
jan@@ 11924
04 11923
110 11923
Studio 11923
Gri@@ 11922
entu@@ 11911
Om@@ 11908
1847 11900
Billy 11897
Sén@@ 11895
AF@@ 11891
IM@@ 11888
locut@@ 11886
Russell 11884
aler 11884
rans 11884
Mour@@ 11883
poche 11879
Imp@@ 11878
handi@@ 11875
Pay@@ 11873
March@@ 11872
lera 11868
Nelson 11865
accuse 11865
noctur@@ 11864
vesti@@ 11864
Helsinki 11859
Margaret 11850
tica 11849
1832 11848
Grand@@ 11847
Philip 11846
Kil@@ 11843
Dém@@ 11841
istan 11838
siens 11837
Ain 11833
Guer@@ 11831
icus 11828
amphibi@@ 11827
vre 11827
24@@ 11826
tiles 11821
chanter 11819
raf@@ 11817
Stal@@ 11816
Dre@@ 11814
vor@@ 11813
ennent 11811
temples 11807
wi@@ 11806
exil@@ 11804
va@@ 11798
régu@@ 11796
pi 11793
cane 11788
xes 11788
An 11784
Sag@@ 11784
Nigeria 11781
97 11780
Berg@@ 11779
pt 11779
peloton 11778
Fred 11776
Syndic@@ 11775
ken@@ 11774
autés 11773
8,@@ 11771
Hermann 11771
Station 11770
ado@@ 11770
Liverpool 11767
án@@ 11765
relatives 11759
Eg@@ 11756
Internationale 11756
Janeiro 11756
prolif@@ 11754
Lad@@ 11752
USA 11751
Ah@@ 11747
AG@@ 11743
TF1 11743
endi@@ 11737
assassin@@ 11728
Match 11725
Mission 11725
catastrophe 11724
TER 11720
module 11720
Houston 11719
mies 11719
CE 11718
Raoul 11717
tril@@ 11717
grot@@ 11715
Google 11712
yg@@ 11711
mobili@@ 11710
anatom@@ 11709
gardi@@ 11707
Neuve 11706
quels 11706
Magdalena 11705
apti@@ 11705
RD 11703
Grecs 11701
Spé@@ 11701
ballon 11696
cha@@ 11696
chard 11696
Uruguay 11694
eils 11691
coqu@@ 11688
NASA 11687
férence 11687
atlan@@ 11685
bir@@ 11682
iri 11682
quad@@ 11682
aluminium 11681
tification 11677
gendes 11674
outh 11671
syndrome 11669
cle@@ 11667
obus 11666
Rod@@ 11661
Stadium 11659
pollu@@ 11659
atur@@ 11658
ric 11656
Esprit 11649
Sl@@ 11648
Donn@@ 11646
jamb@@ 11642
MP@@ 11639
libre@@ 11634
mers 11634
1836 11633
découpage 11632
dédi@@ 11630
vies 11630
Fid@@ 11629
Pâ@@ 11629
å@@ 11629
votes 11625
attent@@ 11618
zu@@ 11616
olles 11614
inhum@@ 11613
Julie 11612
11,@@ 11606
japon@@ 11604
alternati@@ 11602
conv@@ 11602
ye@@ 11602
absor@@ 11601
1833 11600
Ross 11598
NE@@ 11595
parisi@@ 11595
Eure 11593
07 11592
Web 11585
romane 11582
passi@@ 11574
Observat@@ 11573
ister@@ 11568
Ten@@ 11565
éder 11557
Fut@@ 11556
ario 11556
authenti@@ 11555
confi@@ 11551
concepts 11548
Hun@@ 11546
istr@@ 11545
Lettres 11543
Nikol@@ 11541
ć@@ 11541
1841 11538
Shanghai 11538
cio 11532
jam@@ 11531
1835 11527
alan 11526
Ras@@ 11525
ambe 11525
bu 11525
08 11521
Meil@@ 11521
terie 11517
Georg 11514
Sym@@ 11514
innovation 11513
Ken@@ 11512
Nak@@ 11501
oche 11501
Command@@ 11498
équi@@ 11495
Prim@@ 11494
Protection 11494
lara 11493
Masters 11479
baptis@@ 11477
avier 11473
tromp@@ 11470
positive 11467
quadr@@ 11466
tron 11465
Ryan 11461
Conse@@ 11460
raffin@@ 11460
pers@@ 11458
vall@@ 11453
atin 11450
bris 11450
ovo 11450
dre@@ 11447
interven@@ 11445
Bob@@ 11443
Bowl 11441
Studios 11431
anisme 11426
Hat@@ 11424
hétéro@@ 11421
box@@ 11415
sho@@ 11415
Sher@@ 11411
Naz@@ 11408
mascul@@ 11407
core 11405
sax@@ 11402
aret 11401
Bré@@ 11393
leg@@ 11393
versi@@ 11391
Bach@@ 11388
Vancouver 11388
Commun@@ 11387
mous@@ 11385
Andre@@ 11381
amend@@ 11381
polit@@ 11381
trail@@ 11380
firme 11376
Loiret 11373
ji@@ 11373
agog@@ 11372
Bar 11361
Wit@@ 11358
Analyse 11357
Andy 11355
duit 11354
Dordogne 11353
Zone 11348
estu@@ 11345
éro 11344
mess@@ 11342
bomb@@ 11340
Coc@@ 11339
Roman 11335
pera 11335
responsabil@@ 11334
architectural 11333
DA 11330
Lov@@ 11330
Vendée 11330
Astr@@ 11328
invers@@ 11325
radar 11325
09 11324
otypes 11323
Apple 11322
Salvador 11317
15@@ 11314
Las@@ 11313
unis 11310
expres@@ 11308
osse 11308
colon@@ 11307
manager 11304
énor@@ 11303
Agn@@ 11297
anna 11295
tabl@@ 11295
entales 11294
hip 11293
Song 11292
Habitat 11285
confron@@ 11282
dose 11278
probation 11274
vette 11274
kr@@ 11271
susceptibles 11270
uer@@ 11270
Lus@@ 11268
Zo@@ 11268
exhaus@@ 11267
Aqu@@ 11261
ecti@@ 11259
Len@@ 11258
1806 11257
Chem@@ 11256
éto@@ 11256
Sun@@ 11254
WWE 11254
She@@ 11253
autonom@@ 11252
ting 11251
ambul@@ 11250
restaurants 11250
Arnaud 11248
1842 11242
hell@@ 11242
drain@@ 11240
sais 11240
conclusion 11234
try 11232
monum@@ 11231
gro 11230
Chef 11229
chré@@ 11227
pon 11226
enverg@@ 11223
ew@@ 11222
théor@@ 11221
unanim@@ 11221
Pac@@ 11220
1839 11219
Lach@@ 11216
discussions 11210
Lucas 11208
Main 11205
Lun@@ 11199
aigne 11199
tropicales 11197
Trinité 11196
yan@@ 11195
Bad 11189
Matt 11189
Jun@@ 11187
LO@@ 11187
équival@@ 11187
marines 11184
Ludwig 11181
ej@@ 11181
master 11177
bits 11176
rat 11176
atisation 11173
foc@@ 11171
tation 11170
drag@@ 11166
ks@@ 11163
itz@@ 11160
1843 11157
elot 11157
cache 11156
ace@@ 11154
1834 11149
Troph@@ 11146
ouk 11141
oblast 11138
RN 11137
définiti@@ 11135
Arn@@ 11134
locomotives 11133
Near 11127
Syst@@ 11127
Our@@ 11125
toires 11123
dramatur@@ 11121
provis@@ 11120
CS 11116
Louvain 11116
Sm@@ 11113
Sard@@ 11110
moral 11110
Yo@@ 11107
conflu@@ 11107
possessions 11107
TV@@ 11106
Moore 11103
Seigneur 11099
dy@@ 11096
Jason 11094
IS 11092
arn 11091
ky@@ 11090
eus 11088
Harvard 11086
new 11086
AR 11081
ouche 11081
etz 11080
accompl@@ 11079
stone 11077
Ange 11074
exemp@@ 11074
cog@@ 11073
Olympi@@ 11072
spirit@@ 11070
R.@@ 11067
diagnostic 11066
carri@@ 11063
arti@@ 11061
lyc@@ 11059
nag@@ 11059
adapt@@ 11057
conte 11056
Temp@@ 11054
diss@@ 11054
tariat 11054
Shin@@ 11053
Has@@ 11051
Indre 11051
Mec@@ 11046
vain 11046
Fonds 11044
odes 11040
Hus@@ 11039
Tim 11039
cre 11038
Stone 11037
oun@@ 11034
Aug@@ 11029
recru@@ 11029
exempl@@ 11028
Comics 11026
subir 11024
ammes 11023
édia 11021
Frères 11018
Adri@@ 11017
23@@ 11016
disper@@ 11016
anos 11013
Étoile 11013
Od@@ 11011
Galerie 11009
Agr@@ 11008
OTAN 11008
States 11006
Tech@@ 11006
Abbaye 11004
Ze@@ 11001
1838 11000
ameaux 10999
ange@@ 10999
Mohammed 10996
oz 10992
Seul 10991
irie 10991
Ibn 10990
accusations 10989
Temps 10988
Gironde 10984
Indien 10983
1844 10979
lot@@ 10979
gas@@ 10978
ck@@ 10972
Aig@@ 10970
plur@@ 10969
play 10968
bonus 10967
Plat@@ 10966
opo@@ 10965
thr@@ 10964
ahi 10963
Rochelle 10959
Fres@@ 10958
amide 10957
det@@ 10957
renom@@ 10955
coin 10954
Eu@@ 10949
silence 10949
auts 10938
cantonal 10938
vac@@ 10937
EC 10936
botan@@ 10936
Ron@@ 10934
ery 10933
jour@@ 10933
omni@@ 10931
Ale@@ 10925
timbre 10918
persist@@ 10917
5,@@ 10916
conven@@ 10916
mans 10915
messages 10913
Walt 10911
ampli@@ 10907
Crim@@ 10904
intim@@ 10903
borough 10902
sati@@ 10898
Territoire 10896
abat@@ 10892
Math@@ 10888
Dave 10886
Nobel 10886
Europa 10885
Jupiter 10884
démis@@ 10882
Ja@@ 10876
orien 10873
fine 10868
fib@@ 10867
religions 10867
orthodo@@ 10864
collectiv@@ 10863
Iz@@ 10860
homog@@ 10859
Wol@@ 10850
copies 10850
AD 10849
Bah@@ 10849
intermédi@@ 10848
exéc@@ 10847
grim@@ 10846
Rig@@ 10844
phosph@@ 10840
uves 10840
fur 10839
las@@ 10839
Berry 10838
nd@@ 10837
occidentales 10837
zy 10834
dop@@ 10831
sonde 10827
pneum@@ 10826
Go 10824
ix@@ 10824
Emma 10823
mathém@@ 10821
comman@@ 10820
alpin 10819
osph@@ 10818
ka@@ 10815
ocol@@ 10815
perception 10814
amine 10812
coupé 10810
Adrien 10808
Cercle 10805
inhabit@@ 10804
Mid@@ 10800
pit@@ 10800
contributions 10798
Raphaël 10796
démocrati@@ 10796
anche 10790
Rub@@ 10787
ouse 10787
trophe 10787
Forêt 10786
Médic@@ 10786
Bet@@ 10785
Moh@@ 10783
Ottawa 10780
carto@@ 10780
pharmac@@ 10776
alo 10774
imi@@ 10767
Grim@@ 10762
Mr 10761
Tul@@ 10759
GT@@ 10758
brig@@ 10754
elier 10752
secré@@ 10752
uro 10751
néces@@ 10750
Hervé 10747
Vid@@ 10743
Sir@@ 10741
angél@@ 10739
angles 10738
my 10737
supervis@@ 10737
imes 10733
progres@@ 10732
Fribourg 10723
XII 10723
lad@@ 10723
1810 10722
conj@@ 10718
variation 10717
comics 10715
Ariège 10714
ries 10709
polici@@ 10708
with 10708
comb@@ 10701
valent 10697
corte 10695
défense@@ 10695
Gos@@ 10688
destruc@@ 10688
Lind@@ 10687
Abo@@ 10685
emental 10684
confis@@ 10682
eller 10682
agi 10679
amm@@ 10679
interro@@ 10679
mages 10677
eb 10670
Rangers 10669
we 10669
Fernand 10666
dot 10664
tos 10664
News 10662
Sylv@@ 10662
mistice 10661
échal 10661
rey 10659
exam@@ 10657
aillons 10656
ocy@@ 10654
Asteroid 10653
uta 10650
rent@@ 10649
Nicol@@ 10648
abri@@ 10648
nia 10645
Dim@@ 10642
usé 10642
occu@@ 10641
doc@@ 10640
ceaux 10634
dres 10633
cerc@@ 10629
fi 10629
ony@@ 10629
oshi 10624
Scar@@ 10622
Angoulême 10621
Conception 10619
Recherche 10618
card 10616
PlayStation 10614
global 10613
manu@@ 10606
marx@@ 10605
show 10605
dam@@ 10603
Kelly 10602
Droit 10600
féré 10600
harmonie 10600
attendant 10598
roqu@@ 10590
paqu@@ 10589
vement 10589
chas@@ 10586
polym@@ 10584
Asp@@ 10582
ort@@ 10580
éger 10575
Copenhague 10574
Co 10573
toy@@ 10573
Gén@@ 10570
lucr@@ 10570
TE@@ 10569
sug@@ 10569
discussion 10567
nec@@ 10567
Publications 10564
alp@@ 10563
igo 10563
cut 10560
mysti@@ 10559
olle 10555
Mercedes 10552
ui@@ 10546
Night 10543
terri@@ 10542
Franklin 10541
espr@@ 10539
improvis@@ 10539
cami@@ 10536
arios 10533
atmosph@@ 10528
sy 10527
16,@@ 10526
Appar@@ 10526
Vor@@ 10519
roc@@ 10514
Panama 10513
divor@@ 10513
Avenue 10512
Med@@ 10512
automobiles 10506
Tribunal 10505
Grant 10504
longu@@ 10501
PE@@ 10499
onnaise 10499
ision 10498
Melbourne 10496
peste 10483
sauv@@ 10483
130 10482
Mississippi 10482
Stuart 10477
progr@@ 10473
Challenge 10472
dera 10470
nac 10469
Lom@@ 10468
arcades 10468
nin 10468
console 10466
Lig@@ 10465
NFL 10461
II@@ 10460
Structure 10459
Dipl@@ 10457
étu@@ 10457
Sovi@@ 10453
nich@@ 10452
Gam@@ 10451
š 10451
Antilles 10450
AB@@ 10447
éventu@@ 10447
af 10445
dial 10444
bay@@ 10436
hospit@@ 10434
spé@@ 10433
chirurg@@ 10432
complot 10432
Num@@ 10431
transpar@@ 10431
coordination 10430
yan 10429
Centrale 10428
als@@ 10428
potable 10420
Dup@@ 10419
Peti@@ 10418
arin 10417
cross 10415
PD@@ 10414
Proc@@ 10413
dication 10412
couples 10411
ibn 10410
originales 10409
traction 10408
Haw@@ 10407
Kaz@@ 10406
Village 10405
afric@@ 10402
gain 10398
miner@@ 10397
Hall@@ 10395
Rac@@ 10392
Pit@@ 10391
instant 10391
Canadiens 10390
Wat@@ 10389
omes 10389
épis@@ 10386
ray 10385
oisie 10384
eter@@ 10380
Saints 10379
series 10378
Indiana 10377
feu@@ 10377
Cleveland 10371
Wood@@ 10371
17@@ 10370
Boliv@@ 10367
Pietro 10366
istre 10365
tage 10365
05 10364
Pes@@ 10364
solid@@ 10362
eman 10361
normal 10356
3,5 10353
audio 10353
mano 10351
sangu@@ 10351
Monte@@ 10343
oke 10343
orbit@@ 10342
horizont@@ 10341
hist@@ 10340
AE@@ 10337
Léonard 10335
zar@@ 10335
Rid@@ 10333
Sid@@ 10333
Commonwealth 10332
colonial 10330
ku@@ 10329
CC 10326
Line 10323
ption 10322
Arti@@ 10319
extinction 10319
Sap@@ 10309
Comm@@ 10308
Jazz 10307
arab@@ 10305
valle 10304
perfec@@ 10303
vau@@ 10303
fe@@ 10302
Roberto 10301
formul@@ 10301
zer 10299
Aud@@ 10297
film@@ 10297
hop 10296
herbe 10294
oria 10294
Ł@@ 10294
usias@@ 10292
teaux 10288
Jeff 10283
Jr 10283
confluence 10281
usions 10281
vive 10280
nis@@ 10279
AF 10278
IP 10278
ingu@@ 10278
lat 10274
viers 10273
Games 10271
02 10268
partition 10267
accusation 10264
Franck 10263
XV@@ 10262
Bér@@ 10259
margin@@ 10259
èv@@ 10257
Transport 10256
compati@@ 10251
équili@@ 10251
probl@@ 10250
eler 10248
immer@@ 10247
codes 10246
yth@@ 10246
Édi@@ 10245
titudes 10242
Nam@@ 10240
Reb@@ 10239
acres 10239
améli@@ 10237
gou@@ 10236
Edgar 10235
Bit@@ 10232
iss 10230
Marvel 10226
lex@@ 10226
Pur@@ 10220
terne 10218
wo 10218
Hesse 10217
illac 10210
Restauration 10209
interface 10209
nazi 10209
trices 10209
lus 10201
articul@@ 10199
ects 10196
Jum@@ 10191
Dragon 10188
lâ@@ 10188
arium 10187
ku 10187
suffrage 10185
fir@@ 10181
Alber@@ 10176
CP@@ 10176
Boc@@ 10175
Anton 10174
approxim@@ 10173
Nik@@ 10172
Salomon 10172
empr@@ 10164
Gold 10162
udi@@ 10162
Adolf 10161
afro 10159
ley@@ 10159
Int@@ 10158
oute 10157
cic@@ 10155
accidents 10153
ore@@ 10152
illustrations 10150
ape 10148
did@@ 10147
spontan@@ 10147
Jordan 10146
employe@@ 10146
Rog@@ 10144
pard 10139
Kent 10135
Lut@@ 10134
ographies 10132
cél@@ 10128
itre 10128
rat@@ 10127
EN@@ 10122
Namur 10122
Galli@@ 10120
gio 10120
drap@@ 10115
yi 10115
aus 10113
icule 10107
Suzanne 10106
tas 10103
hall 10101
andis 10098
ballet 10097
zon@@ 10096
Chr@@ 10095
bless@@ 10095
Baie 10088
Hain@@ 10086
Tit@@ 10086
MO@@ 10085
Til@@ 10084
alar@@ 10081
attend 10079
issé 10076
magn@@ 10076
kine 10075
Boy 10070
inte 10069
Master 10068
ż@@ 10067
Rosa 10066
sembl@@ 10066
Arnold 10062
Saï@@ 10061
Air@@ 10060
Iowa 10055
halte 10055
CF 10054
dél@@ 10053
ano@@ 10051
retr@@ 10050
ras 10047
compéti@@ 10046
Buc@@ 10043
dération 10043
Lis@@ 10042
Sanc@@ 10041
Vass@@ 10040
Ian 10039
islas 10037
Murray 10036
slalom 10036
taines 10032
batteries 10027
emont 10026
insist@@ 10021
unt 10021
03 10020
Aj@@ 10016
elon 10008
sou 10005
Abdel@@ 10004
niens 10004
AG 10003
Tennessee 10003
cathol@@ 10003
conces@@ 10002
Commerce 10000
Media 9998
26@@ 9997
chen 9997
civil@@ 9996
tume 9995
Princ@@ 9994
draft 9991
sivement 9990
intensi@@ 9984
dense 9982
ros 9981
egr@@ 9979
obli@@ 9979
oscop@@ 9978
aco 9977
ador 9972
alias 9971
pois@@ 9971
Blu@@ 9970
impres@@ 9970
Chartres 9968
XX@@ 9968
lais 9967
amer 9966
tropole 9966
cli@@ 9964
esthé@@ 9964
incur@@ 9964
ieur 9959
E.@@ 9958
Power 9956
ionale 9955
marti@@ 9955
assum@@ 9952
Dunkerque 9950
escal@@ 9949
lle 9949
caf@@ 9947
demanda 9947
ourg 9947
f. 9944
composer 9942
Gun@@ 9941
popular@@ 9940
17,@@ 9939
affin@@ 9939
boud@@ 9939
esqu@@ 9936
sacri@@ 9935
uli 9935
LE@@ 9934
pure 9934
vol. 9934
finance 9932
Inter 9927
Nas@@ 9926
Jardin 9924
kab@@ 9921
ON@@ 9918
étrang@@ 9916
Sus@@ 9915
diesel 9913
taur@@ 9913
point@@ 9907
notation 9906
Sto@@ 9905
prestige 9905
inos 9904
SK 9902
habil@@ 9902
eli 9897
itat 9897
centim@@ 9891
Luigi 9889
Pul@@ 9889
exige 9888
lus@@ 9888
obligations 9888
pros@@ 9888
27@@ 9886
inge 9885
Bach 9884
PR 9884
det 9884
6,@@ 9879
Robinson 9879
Forum 9878
Pen 9878
stell@@ 9878
Lionel 9877
inces 9877
aty@@ 9875
Af@@ 9871
soc@@ 9871
acre 9869
eh 9869
Sierra 9868
blues 9864
portion 9861
abord@@ 9860
tw@@ 9860
disciplin@@ 9858
parking 9858
magni@@ 9856
Lion 9855
uk 9853
expert 9851
visions 9851
Carter 9850
Gan@@ 9850
~ 9847
Major 9846
Source 9846
Aveyron 9845
Ji@@ 9845
invitation 9845
innoc@@ 9843
thier 9843
stru@@ 9839
à@@ 9837
isie 9835
limi@@ 9835
Tat@@ 9834
Cast@@ 9833
Press 9830
Great 9828
Indo@@ 9826
marketing 9825
graphi@@ 9824
1824 9811
Montagne 9808
Vari@@ 9808
1825 9806
Bug@@ 9806
Sarkozy 9805
Oliver 9802
tillon 9802
Cho@@ 9798
clin@@ 9797
itable 9797
opp@@ 9795
plaçant 9792
musul@@ 9791
Beaumont 9789
rot 9789
Sep@@ 9788
paral@@ 9788
Gall@@ 9787
SE 9785
· 9782
elage 9781
Sat@@ 9780
bad@@ 9779
dain 9778
1802 9769
Tas@@ 9769
dine 9768
fati@@ 9767
portu@@ 9767
Best 9766
IR@@ 9763
nus 9761
HC 9760
boî@@ 9759
Jon@@ 9758
Ner@@ 9755
Quin@@ 9755
mac 9755
Marcus 9754
Verdun 9754
textile 9754
Gary 9752
gly@@ 9751
Isle 9742
Kad@@ 9742
migration 9741
Kenya 9740
thon 9739
ciple 9737
itures 9731
1803 9730
inale 9730
duel 9728
clav@@ 9727
Steven 9725
piers 9721
élites 9720
missile 9719
Glasgow 9718
sures 9718
Carp@@ 9715
Cruz 9714
teure 9714
ș@@ 9713
WTA 9712
giens 9712
Ther@@ 9711
roman@@ 9710
YouTube 9708
Car 9705
Contr@@ 9703
trajec@@ 9703
df@@ 9699
gia 9697
CR@@ 9694
kur@@ 9694
adelle 9687
percus@@ 9686
revi@@ 9685
New@@ 9683
gres@@ 9683
oll 9683
orn 9683
Renaud 9682
Square 9682
Trump 9682
myst@@ 9680
Warner 9677
chirurgie 9674
ES 9673
SS@@ 9669
auch@@ 9666
violent 9663
iron 9660
jus 9660
mutation 9659
estres 9658
comparable 9656
prudence 9655
Champs 9654
opath@@ 9654
Police 9653
Haye 9651
PK 9650
1808 9649
sentir 9649
Lombar@@ 9647
partisan 9647
entrepreneur 9645
courage 9644
festiv@@ 9644
litur@@ 9644
tium 9641
Mart@@ 9638
Laura 9637
Prov@@ 9636
insurg@@ 9635
haut@@ 9633
presby@@ 9633
press@@ 9631
tenay 9631
Adams 9629
Nicole 9624
Troyes 9622
ennement 9622
Noir 9621
infin@@ 9621
Seattle 9620
automati@@ 9620
achi 9618
espagn@@ 9615
accep@@ 9614
wo@@ 9611
Sad@@ 9608
ends 9608
EP@@ 9606
Pablo 9606
uh@@ 9605
Marshall 9596
Blois 9595
It 9595
dî@@ 9595
Châtel@@ 9594
bes@@ 9593
rais 9593
ilde 9591
mpi@@ 9584
ibil@@ 9579
trop@@ 9578
achev@@ 9576
Simone 9575
abi 9575
Kot@@ 9574
Mitterrand 9572
1813 9569
1828 9569
Cambr@@ 9568
asion 9568
rurales 9566
oth 9565
scén@@ 9564
SD@@ 9561
Cooper 9560
doubles 9560
toral 9559
Dallas 9558
indre 9557
Arles 9556
vais 9556
amba 9552
substance 9552
rup@@ 9550
Got@@ 9548
ples 9548
vic 9547
Barry 9543
ustr@@ 9543
oc 9541
facilit@@ 9540
evin 9538
patrim@@ 9538
tal 9538
za@@ 9534
pir@@ 9533
nai@@ 9529
assign@@ 9528
RO@@ 9527
Amour 9525
Blues 9524
Parker 9523
back 9523
vietnam@@ 9518
pomp@@ 9515
andi@@ 9511
jac@@ 9506
projection 9505
180 9503
interventions 9502
édo@@ 9500
Amér@@ 9497
ack@@ 9496
gab@@ 9492
carbur@@ 9489
Iv@@ 9488
Home 9487
Bod@@ 9485
Nad@@ 9483
Art@@ 9482
progressive 9481
scénar@@ 9481
accession 9480
tiges 9477
ling@@ 9476
ñ@@ 9476
poul@@ 9475
Black@@ 9473
sien 9470
sale 9469
cath@@ 9466
cumul@@ 9465
elet 9461
canon@@ 9453
dent@@ 9451
oste 9450
assis 9448
fav@@ 9448
hard 9445
Obj@@ 9444
Stu@@ 9443
interaction 9439
candidate 9437
ig 9437
ussi@@ 9435
eri@@ 9432
pension 9431
ono 9430
titul@@ 9430
Stein@@ 9429
Java 9426
arsen@@ 9426
stage 9426
Kosovo 9425
León 9425
Ok@@ 9425
actu@@ 9425
costume 9425
encyc@@ 9425
Queen 9424
cali@@ 9419
Lawrence 9418
parado@@ 9418
Rib@@ 9416
Chang@@ 9414
ston 9413
kon@@ 9412
pseud@@ 9410
aller@@ 9408
7,@@ 9406
1821 9405
Out@@ 9401
Unter@@ 9401
Martinique 9399
nica 9398
Mons 9396
fru@@ 9395
Baltimore 9394
promot@@ 9393
Austin 9391
CNRS 9391
alon 9389
documentation 9389
Peugeot 9387
Corr@@ 9383
toise 9383
alo@@ 9382
Histori@@ 9381
Thur@@ 9379
obstacles 9378
1,2 9376
Ey@@ 9376
Style 9373
Afric@@ 9371
umb@@ 9370
Argent@@ 9366
Rouss@@ 9366
pyram@@ 9358
hex@@ 9356
eil@@ 9355
faction 9354
Copa 9353
p. 9351
triangle 9351
angs 9350
dyn@@ 9350
jean 9346
ègne 9346
otti 9345
neus 9344
owo 9344
Ann 9342
kat@@ 9342
diques 9341
country 9340
opinions 9340
relevant 9333
anta 9332
Allier 9331
Stewart 9329
Broadway 9325
mographie 9323
1809 9321
Geneviève 9317
ashi 9317
1826 9316
Ep@@ 9309
Alaska 9308
cim@@ 9308
mane 9305
wan@@ 9300
Nation 9299
Nord@@ 9299
Relations 9295
1827 9293
cis@@ 9292
dog@@ 9291
Bow@@ 9288
Mey@@ 9285
Shar@@ 9284
är@@ 9284
venues 9283
esi 9280
Justin 9279
Loup 9279
ako 9279
Grav@@ 9276
1500 9275
ellip@@ 9275
ination 9274
Kel@@ 9271
ass 9271
porno@@ 9270
estin 9268
Theatre 9266
v. 9265
angers 9259
1829 9258
Construction 9258
ris 9258
Tw@@ 9254
awa@@ 9253
sieur 9253
soph@@ 9253
Lens 9250
industri@@ 9250
lang@@ 9244
tet 9244
Sum@@ 9243
rasse 9243
bap@@ 9242
Lic@@ 9241
Meg@@ 9239
Main@@ 9238
rob@@ 9237
FIFA 9233
Fir@@ 9233
merc@@ 9233
Harris 9229
Cent@@ 9228
costumes 9225
Jay 9224
rio 9224
stock@@ 9224
cycles 9222
Kurt 9220
abre 9217
tram@@ 9217
ecclési@@ 9216
350 9215
M.@@ 9215
ft 9210
Julia 9209
Arena 9205
Valley 9205
900 9202
Gru@@ 9201
continua 9201
rain@@ 9201
00@@ 9199
Garcia 9199
supporters 9199
voyag@@ 9199
Post 9198
ask@@ 9197
calc@@ 9197
ongo 9197
sez 9196
ABC 9195
ingi@@ 9194
fraction 9192
trouble 9191
arder 9190
Ful@@ 9189
hyp@@ 9186
Rousseau 9185
niv@@ 9183
Chemin 9181
101 9180
audiovis@@ 9177
nis 9176
sailles 9176
Creek 9169
excellence 9169
lact@@ 9169
Fron@@ 9164
septentr@@ 9159
1816 9157
imens 9156
ophi@@ 9156
1807 9154
invest@@ 9153
ission 9153
ole@@ 9153
Brooklyn 9152
Ž@@ 9152
Camp 9150
littér@@ 9150
maintenance 9149
stoc@@ 9149
trol@@ 9149
ativ@@ 9148
aup@@ 9148
J.@@ 9145
eck@@ 9144
grains 9140
Civ@@ 9139
raid 9138
pec@@ 9136
Jerry 9134
water 9133
ONG 9132
Mon 9126
Nog@@ 9126
tail@@ 9126
TC 9125
Sporting 9124
Danube 9121
Consid@@ 9116
tigny 9111
CI 9110
Pointe 9108
Rach@@ 9108
Jé@@ 9104
mutu@@ 9103
luxemb@@ 9102
tamb@@ 9102
Languedoc 9098
zen 9096
Fac@@ 9095
sensibles 9094
pital 9091
Monuments 9088
oku 9088
supports 9088
IT@@ 9084
disciples 9084
Voy@@ 9081
instructions 9080
war@@ 9080
Guill@@ 9079
ency 9079
obs@@ 9079
ital 9076
Alberta 9075
Mang@@ 9075
Junior 9070
Rafael 9067
cus@@ 9067
Aim@@ 9064
ril 9064
DI 9063
ppe 9059
jet 9055
trim@@ 9054
Céc@@ 9051
oyer 9047
ecture 9044
0,0@@ 9041
Grou@@ 9041
Ray@@ 9041
erc@@ 9040
ariat 9039
Vinc@@ 9037
carbon@@ 9034
Rep@@ 9030
dragon 9030
monast@@ 9026
eppe 9025
uf 9023
Ardennes 9022
Joan 9021
ancement 9018
ther 9018
Bel 9017
Lisa 9017
cipi@@ 9016
Mikha@@ 9014
diffic@@ 9014
immig@@ 9013
audit@@ 9010
ete 9010
raci@@ 9008
Avent@@ 9007
Manhattan 9007
istère 9006
gentil@@ 9004
squ@@ 9003
Wrestling 9002
PCI 8996
Space 8995
Fos@@ 8994
Lef@@ 8986
28@@ 8985
Compos@@ 8982
ä 8979
métropolit@@ 8978
Graham 8977
1823 8972
Elisabeth 8971
gent 8970
zz@@ 8969
sion@@ 8968
Brabant 8966
Fu@@ 8965
hypo@@ 8963
destin@@ 8962
frage 8959
Maxime 8958
chaux 8957
Marche 8956
dh@@ 8953
coéqui@@ 8950
Atlas 8947
Offici@@ 8947
ultés 8946
Top@@ 8945
Spe@@ 8943
eno 8943
Pla@@ 8942
Poul@@ 8940
Py@@ 8940
sach@@ 8940
Condé 8939
Nem@@ 8939
flo@@ 8939
Salle 8938
nil 8937
serve 8935
Guadeloupe 8929
quet@@ 8929
stadt 8929
mie 8928
natal 8928
promet@@ 8927
salari@@ 8927
Cim@@ 8926
Cog@@ 8926
Wor@@ 8925
Pittsburgh 8924
ams 8923
Evans 8922
Mant@@ 8922
Italiens 8920
ascend@@ 8920
monopo@@ 8916
caric@@ 8914
usses 8913
ár@@ 8913
laborat@@ 8912
insul@@ 8910
uki 8909
Gaz@@ 8908
1822 8904
1798 8900
Crac@@ 8900
Wright 8900
angla@@ 8900
Productions 8899
Rous@@ 8897
Abr@@ 8896
Frederick 8895
Wurtemberg 8894
Campbell 8891
Mozart 8887
lots 8885
Sky@@ 8880
Wh@@ 8880
Sic@@ 8878
lins 8878
entrepren@@ 8877
interactions 8874
Terr@@ 8873
pol 8871
lation 8867
commis@@ 8866
gramm@@ 8866
Testament 8863
rur@@ 8863
Beng@@ 8860
LA 8860
Centr@@ 8859
Town 8859
row 8857
rap 8856
Montre@@ 8855
brun@@ 8851
System 8850
iga 8850
Figaro 8847
diers 8842
Ve@@ 8841
patron@@ 8839
lav 8835
vamp@@ 8835
Dub@@ 8831
plates 8828
tant@@ 8828
â 8823
cruci@@ 8818
encourage 8814
Paolo 8811
Bourges 8809
oms 8807
enade 8805
Sony 8801
paroissi@@ 8801
abolition 8799
restruc@@ 8797
Hong@@ 8796
29@@ 8795
hou 8795
pause 8795
œur 8794
mouv@@ 8793
signale 8793
ü@@ 8793
Fen@@ 8792
Istanbul 8792
arcade 8792
1818 8791
ication 8790
Moy@@ 8789
propulsion 8786
permanentes 8781
orch@@ 8778
alia 8777
client@@ 8777
ferrovi@@ 8774
Martin@@ 8773
ectes 8773
D.@@ 8772
tuy@@ 8772
Audi@@ 8771
orchestr@@ 8771
Azur 8769
confrontation 8769
Var 8766
emi 8763
lys@@ 8763
Is 8762
archiv@@ 8760
aca 8757
décl@@ 8757
win 8755
Wagner 8754
pili@@ 8753
tention 8753
dal 8751
chô@@ 8750
liban@@ 8747
euf 8746
intersection 8746
Charlemagne 8745
Rochefort 8744
sto@@ 8744
para 8742
Lorient 8741
alogie 8741
Auxerre 8738
dispositi@@ 8738
multip@@ 8738
wa@@ 8737
extrémit@@ 8736
illustration 8736
pét@@ 8736
hiz@@ 8733
absten@@ 8730
avi 8730
key 8730
Alex@@ 8729
ango 8728
cis 8728
écur@@ 8727
FK 8726
Bret@@ 8723
sain 8723
mas 8721
landes 8717
rite 8715
1.@@ 8713
beek 8713
enko 8712
acr@@ 8711
vois@@ 8711
Dakar 8710
Aude 8707
ī@@ 8707
Walker 8704
ult 8704
Publi@@ 8703
sah@@ 8697
township 8696
Nature 8695
relate 8695
Clé@@ 8694
18,@@ 8693
infiltr@@ 8691
Bec@@ 8688
hygi@@ 8685
King@@ 8684
ingr@@ 8683
1804 8678
Alabama 8677
Royale 8677
Fig@@ 8676
1811 8671
yne 8671
infection 8669
kel 8668
Viol@@ 8665
amar@@ 8665
omo 8665
asy@@ 8663
outs 8661
Gold@@ 8660
Honoré 8660
Thompson 8660
ritu@@ 8660
pag@@ 8659
canc@@ 8657
filtr@@ 8656
gres 8655
atum 8652
Mayenne 8650
param@@ 8650
vast@@ 8650
Champions 8647
Ib@@ 8645
1817 8643
env@@ 8643
infrastructure 8639
Gy@@ 8638
saga 8637
uler 8637
Will 8635
accum@@ 8634
exclusion 8632
ago@@ 8631
rou 8631
Vert 8630
centage 8628
troph@@ 8625
forcement 8624
unier 8623
chol@@ 8620
lay 8620
airs 8619
Origin@@ 8618
uck 8616
Jord@@ 8614
bride 8614
dign@@ 8614
Lycée 8613
140 8611
shire 8611
indo 8610
gré 8606
Conrad 8605
1,3 8604
Duf@@ 8603
Alg@@ 8601
substances 8601
ii 8600
bra 8598
opot@@ 8598
taxes 8595
25@@ 8594
aube 8594
Marianne 8593
pairs 8593
ê 8593
BD 8586
pertin@@ 8585
zen@@ 8585
ilo 8584
aer@@ 8581
escor@@ 8579
cia 8577
destroyers 8576
amph@@ 8575
ctu@@ 8574
suic@@ 8574
García 8571
ernes 8570
philosoph@@ 8568
Bucarest 8566
Andal@@ 8565
FL@@ 8561
enth@@ 8559
uces 8559
Radi@@ 8553
Casablanca 8552
sessions 8552
Rotterdam 8551
Chirac 8547
évision 8546
Bourg@@ 8540
ophile 8539
Brande@@ 8538
com 8538
IF@@ 8537
Capr@@ 8534
contraste 8534
Old 8532
Mén@@ 8531
Phil 8528
Dig@@ 8527
onville 8526
vent@@ 8526
fiques 8525
Cla@@ 8524
acht 8524
porte@@ 8524
pare 8519
pous@@ 8519
segment 8519
Coll@@ 8517
Estr@@ 8517
roid@@ 8517
Sci@@ 8516
patin@@ 8516
1780 8514
1799 8514
Fair@@ 8514
music@@ 8513
fusil 8511
vention 8510
Will@@ 8509
masses 8509
Hem@@ 8508
TO@@ 8507
én 8506
Landes 8503
0,5 8498
Marin 8497
lum@@ 8497
récu@@ 8496
Adé@@ 8494
Principe 8491
compatible 8490
tat@@ 8488
Simpson 8487
regard@@ 8485
issy 8481
edo 8479
Cler@@ 8478
Geoff@@ 8477
Boeing 8475
natures 8472
Étu@@ 8472
Stat@@ 8467
traumati@@ 8466
Di 8464
lum 8463
Chen@@ 8460
Jorge 8457
Shakespeare 8456
dicap 8455
Joachim 8454
engr@@ 8453
thor@@ 8453
DO@@ 8451
eland 8448
Pis@@ 8447
etc 8445
Christ@@ 8443
Stars 8442
saxoph@@ 8442
Chil@@ 8439
1819 8438
40@@ 8438
Dresde 8437
Stuttgart 8436
Was@@ 8435
enay 8435
Kō@@ 8434
grou@@ 8432
Fland@@ 8431
AA 8430
commissions 8430
Rat@@ 8429
Merc@@ 8428
latitude 8427
Valenciennes 8426
ingt 8425
rol 8422
Harrison 8418
Ant@@ 8417
Cic@@ 8415
Sidi 8415
Pent@@ 8413
isy 8412
Wang 8409
apeuti@@ 8409
centen@@ 8408
gir 8406
Card@@ 8403
Network 8402
abstr@@ 8402
Lep@@ 8399
oxy@@ 8398
AB 8394
Forest 8394
Que 8394
idon 8393
rites 8391
aphy@@ 8389
PO@@ 8387
bio 8387
mement 8385
Rudolf 8378
bet 8376
È@@ 8376
alyse 8374
terminal 8371
Jol@@ 8370
î 8369
AL 8368
CP 8368
Damas 8367
day 8366
Eus@@ 8365
Bond 8363
fos@@ 8361
ogo 8360
jan 8357
idi 8356
nic@@ 8354
Campagne 8352
Matthew 8351
Ghana 8349
corr@@ 8349
mam@@ 8347
tri 8347
Spor@@ 8346
iz 8346
asi 8345
esh@@ 8345
Fili@@ 8342
bac@@ 8342
tibles 8342
lock 8341
wer@@ 8341
Army 8339
ignées 8337
embre 8336
multi 8335
icie 8334
hind@@ 8332
Hérault 8329
incul@@ 8328
plantations 8328
zu 8323
alien 8322
Alt@@ 8321
Poznań 8321
aule 8320
Ler@@ 8319
comités 8318
astres 8317
cyc@@ 8317
Boys 8316
infr@@ 8313
indon@@ 8312
Bangladesh 8311
Patrice 8310
aing 8309
arn@@ 8309
ga@@ 8309
édrale 8309
ive 8307
got 8306
Gamb@@ 8305
Neil 8305
cardin@@ 8304
excellent 8304
Richelieu 8303
Vice 8303
Hos@@ 8300
Marx 8298
colombi@@ 8298
Cook 8295
allo@@ 8295
cid@@ 8294
invasi@@ 8292
zan 8292
Silva 8291
franc@@ 8291
orium 8291
wilaya 8291
Hell@@ 8290
Parisi@@ 8286
mauv@@ 8281
Linux 8280
radios 8278
Imag@@ 8277
Note 8277
wick 8276
Angel 8273
susceptible 8272
Just@@ 8271
conforme 8271
sar 8268
manuel 8263
Charleroi 8261
Hag@@ 8259
Mog@@ 8259
cig@@ 8257
lith@@ 8256
than@@ 8256
Moldav@@ 8255
Palatin@@ 8253
déch@@ 8253
Stefan 8252
diagnos@@ 8252
divine 8249
1805 8248
ouc 8248
August 8247
First 8247
Pag@@ 8247
aman@@ 8246
Beauvais 8243
Yvelines 8242
Bobby 8240
Harold 8240
codice 8240
diment@@ 8240
envel@@ 8238
Cao 8237
Mai 8237
aris 8237
imi 8237
Hak@@ 8236
Impact 8236
tort 8232
Annie 8231
PP@@ 8231
TP 8226
Matth@@ 8224
engagements 8224
Jour@@ 8218
sheim 8218
1,6 8216
GP 8216
GE 8214
Tru@@ 8213
antiqu@@ 8211
lions 8208
War 8203
SM 8201
ME 8200
indispensable 8200
By@@ 8197
olig@@ 8197
Dark 8195
dem 8194
Eli@@ 8191
Cay@@ 8189
PR@@ 8188
Mines 8183
Og@@ 8182
160 8181
1796 8180
Vietnam 8180
Liga 8179
105 8177
Wayne 8175
Lorenzo 8171
inaugur@@ 8171
tral 8171
Maryland 8169
expressions 8169
satur@@ 8169
Ambro@@ 8168
Hydr@@ 8165
lou 8163
hique 8162
ikh 8160
file 8159
auer 8156
Belle@@ 8155
Hudson 8155
minorit@@ 8155
Lie@@ 8154
Band@@ 8152
Arras 8151
Bush 8151
Industrie 8151
occasions 8151
vibr@@ 8147
Sauveur 8145
ibl@@ 8144
Party 8142
Morris 8140
Baker 8139
robus@@ 8139
Aul@@ 8137
Saf@@ 8137
aries 8137
compare 8135
chances 8134
Up 8131
Poitou 8129
duction 8127
maf@@ 8127
ás 8123
supporter 8120
IF 8119
Montmor@@ 8117
dys@@ 8115
cht@@ 8113
Eddie 8111
Identi@@ 8111
Sign@@ 8111
indication 8111
inflam@@ 8110
initiatives 8110
igh@@ 8104
ór@@ 8104
iges 8103
tos@@ 8103
arrang@@ 8100
sis@@ 8100
mart@@ 8099
Oslo 8098
angu@@ 8097
Indiens 8088
Mâ@@ 8087
1797 8086
communau@@ 8086
GM 8085
Band 8084
Gard 8084
Magh@@ 8084
kil@@ 8083
50,@@ 8082
Sofia 8080
plantation 8080
encer 8076
pers 8076
Sarthe 8075
cluse 8072
sun@@ 8072
Dest@@ 8071
Ple@@ 8071
vières 8071
Ost@@ 8068
Cô@@ 8066
tripl@@ 8066
aj 8062
serg@@ 8062
Collection 8060
seau 8060
Juli@@ 8058
iliens 8058
Oregon 8057
Sang@@ 8057
obj@@ 8053
flexi@@ 8051
Mét@@ 8049
polar@@ 8048
prin@@ 8048
Œ@@ 8048
Lil@@ 8045
borne 8044
empl@@ 8041
Tel 8040
pan 8038
tranqu@@ 8038
Kun@@ 8033
mercen@@ 8033
pill@@ 8033
RDA 8029
trot@@ 8028
socio 8027
otro@@ 8026
pot 8023
Programme 8022
luc@@ 8021
enus 8020
Finale 8019
citation 8018
Ley@@ 8017
inser@@ 8015
Clau@@ 8014
gier 8013
IG@@ 8009
exten@@ 8006
enton 8005
Gel@@ 8003
Birmingham 8000
Constance 7999
24,@@ 7998
enburg 7990
ect 7988
bler 7987
Western 7986
Inf@@ 7985
oo 7985
BA 7984
noise 7982
B.@@ 7981
LP 7980
Liu 7980
agnes 7980
Colin 7979
otype 7979
Beatles 7978
pres 7978
bra@@ 7976
criptions 7976
hydrau@@ 7974
axi@@ 7973
Airlines 7972
ato@@ 7972
sal 7972
Nati@@ 7971
oses 7971
aki@@ 7970
Vegas 7968
nutri@@ 7968
alternatif 7967
Connecticut 7965
joy@@ 7965
Chou@@ 7963
ambre 7963
moni@@ 7962
chanc@@ 7958
nad 7958
transit@@ 7958
Fun@@ 7957
Tommy 7955
alc@@ 7955
minor@@ 7955
Classification 7954
fines 7954
Luke 7953
appe 7953
Wer@@ 7952
Norman 7949
RT 7949
Bayonne 7948
verses 7947
Boy@@ 7946
concurrent 7944
ely 7942
Bous@@ 7941
4,5 7939
Marina 7937
band@@ 7937
dei 7937
néerland@@ 7932
leau 7930
Exempl@@ 7929
Raw 7929
Sev@@ 7929
Dy@@ 7925
Sky 7925
USS 7925
antan@@ 7923
Railway 7922
oré 7922
Sources 7921
Fame 7920
dit@@ 7918
kal@@ 7917
iner@@ 7915
german@@ 7913
NS@@ 7910
Nab@@ 7908
Méd@@ 7905
Omar 7905
ress@@ 7905
cler@@ 7904
Johan 7903
Mitchell 7903
Raf@@ 7902
Standard 7900
absorb@@ 7897
mel 7897
Doc@@ 7896
charts 7896
Chir@@ 7895
combustion 7895
Turner 7891
catal@@ 7891
lière 7890
oriente 7890
50@@ 7888
20,@@ 7887
raids 7887
Pérez 7879
Ralph 7879
pertur@@ 7877
imm@@ 7875
ats@@ 7873
Haz@@ 7871
Atlan@@ 7867
ectu@@ 7866
ving@@ 7866
Lamb@@ 7863
isser 7863
conting@@ 7862
icide 7859
adaptations 7858
corn@@ 7858
360 7857
hur@@ 7857
pell@@ 7857
Sha@@ 7856
lip@@ 7852
distribut@@ 7851
golf 7850
Rico 7849
Bud@@ 7848
Films 7845
onnaires 7843
ilienne 7842
ornith@@ 7841
Arsenal 7837
astes 7837
Bois@@ 7836
Nassau 7835
Kentucky 7834
35@@ 7832
ough 7832
transcription 7829
Medi@@ 7826
Human@@ 7825
Pyramide 7825
grap@@ 7824
endur@@ 7820
18@@ 7819
haus@@ 7819
aune 7818
cue 7818
gro@@ 7815
injection 7815
Nob@@ 7813
Project 7813
Domin@@ 7812
polis 7812
ide@@ 7810
verb@@ 7807
colspan 7806
ventr@@ 7805
Achille 7801
Gat@@ 7801
ffer 7801
Wolfgang 7799
Â@@ 7797
MI 7796
isible 7796
iti 7796
Jon 7793
standards 7793
ampl@@ 7791
euro 7790
substanti@@ 7790
Châtillon 7788
pirates 7788
Kazakhstan 7786
Phase 7786
stars 7786
CB 7785
Yam@@ 7782
consultation 7782
Macron 7780
Facebook 7779
aéri@@ 7778
pseudo 7778
management 7777
huiti@@ 7775
ymologie 7773
Cincinnati 7772
inaug@@ 7771
Warren 7767
indis@@ 7766
Quali@@ 7765
acles 7765
19,@@ 7764
blind@@ 7762
Va@@ 7760
ame@@ 7760
déficit 7760
Gram@@ 7758
tarde 7757
gende 7755
DE 7754
eti 7754
uranium 7754
Rin@@ 7750
sic@@ 7748
gel 7745
glacier 7745
nome 7745
Ś@@ 7744
Autom@@ 7741
Jug@@ 7741
classi@@ 7741
cz@@ 7741
dimen@@ 7741
Soul@@ 7739
yu 7738
Roux 7736
Site 7735
mitig@@ 7734
chair 7733
Disco@@ 7731
Neuchâtel 7730
strat@@ 7730
Pokémon 7729
Gav@@ 7728
N. 7728
wal@@ 7728
dar@@ 7727
Qatar 7725
copal 7725
guet 7725
jol@@ 7724
Manif@@ 7721
ding 7721
Mountain 7720
1,4 7719
Universal 7719
Ivan@@ 7717
fiscal 7717
fan 7716
ventions 7714
Batt@@ 7713
transport@@ 7710
modest@@ 7709
lama 7707
Tap@@ 7705
agnol 7705
astron@@ 7704
CM 7701
Lah@@ 7701
osaurus 7698
stal@@ 7695
DP 7694
acer@@ 7693
dio 7692
P.@@ 7689
andin@@ 7689
emple 7689
anec@@ 7684
Sebastian 7683
Clara 7681
Monument 7677
entrev@@ 7677
amphi@@ 7676
Double 7675
O. 7675
avent@@ 7675
dorf 7672
ls 7672
Roosevelt 7668
Rhodes 7667
sat@@ 7664
orit@@ 7663
Channel 7658
Dick 7654
apper 7654
Yu@@ 7652
Ken 7651
brillante 7648
Sri 7645
TS 7645
oso 7644
applic@@ 7643
sand@@ 7642
ways 7641
Collins 7640
Bris@@ 7638
Danny 7637
Sas@@ 7635
117@@ 7633
militante 7633
Stor@@ 7632
argument 7631
Mode 7629
Tac@@ 7629
alogue 7628
encer@@ 7625
Baron 7624
tubercul@@ 7623
Gustav 7622
Pacific 7622
Shim@@ 7622
Leclerc 7619
other@@ 7618
Lloyd 7616
him@@ 7616
siv@@ 7616
dice 7614
Guatemala 7612
ivre 7612
mation 7612
Jacqueline 7609
amental 7609
Hippolyte 7608
arguments 7608
I.@@ 7604
verne 7604
aku 7603
Tag@@ 7602
nova 7598
pétr@@ 7596
May 7595
hem 7594
Lud@@ 7591
crits 7591
Marion 7589
Der 7588
Josef 7587
Pont@@ 7587
quot@@ 7587
tha 7585
transpor@@ 7584
extra 7581
nan 7581
CIA 7579
Rica 7579
Oran 7578
relat@@ 7578
yor@@ 7578
fret 7577
insec@@ 7577
7,5 7575
Dôme 7573
Presse 7572
dialog@@ 7572
nel 7571
questi@@ 7571
Call@@ 7570
Just 7570
Cyr 7569
114@@ 7568
xie 7567
Produ@@ 7566
see 7562
Islam 7561
Oklahoma 7561
mites 7559
ror@@ 7558
agh 7557
écla@@ 7557
chs 7556
SF@@ 7555
2.@@ 7553
Bill@@ 7552
cinémat@@ 7551
Raj@@ 7549
Lima 7548
Sot@@ 7548
iert 7544
Cra@@ 7543
Mathilde 7541
umière 7541
č 7540
RI 7538
e.@@ 7536
33,@@ 7528
Gul@@ 7528
Angola 7523
Italien 7523
omp@@ 7523
insky 7519
22,@@ 7517
nch@@ 7517
Influ@@ 7513
Norm@@ 7513
dioc@@ 7511
Caz@@ 7510
IP@@ 7509
Chat@@ 7508
Wisconsin 7508
Vent@@ 7507
Who 7507
respirat@@ 7505
uke 7504
evo 7503
Côtes 7499
ink 7499
Particip@@ 7495
FN 7494
cardi@@ 7494
Phoenix 7490
Malo 7488
vez 7487
expertise 7486
embran@@ 7485
Sour@@ 7482
cann@@ 7481
dispens@@ 7481
amer@@ 7480
conspir@@ 7479
Clem@@ 7477
conventions 7477
tide 7475
hos@@ 7473
biom@@ 7472
Vilaine 7470
Antoinette 7469
kol@@ 7469
Fritz 7467
Green@@ 7467
To 7466
terrible 7464
116@@ 7460
gives 7460
ps@@ 7456
Serie 7454
Amaz@@ 7453
Fant@@ 7453
Osaka 7453
Rick 7453
www.@@ 7452
Fan@@ 7451
ush@@ 7451
rar@@ 7447
Roubaix 7446
orgi@@ 7444
Paler@@ 7440
BC 7439
Cloud 7438
Salz@@ 7438
Mongol@@ 7437
PIB 7437
isch 7437
aman 7433
restrictions 7433
directions 7432
efficient 7431
ineau 7431
Julius 7430
Newton 7429
bridge 7426
Alonso 7424
Bla@@ 7422
Eau 7420
bet@@ 7418
ento 7418
dor 7417
Nie@@ 7416
leaders 7416
Off@@ 7414
ep 7414
geur 7406
Associ@@ 7405
Pie@@ 7405
2,4 7404
ories 7404
polo 7402
Lak@@ 7401
Universit@@ 7400
collision 7399
oka 7399
Niger 7398
PN@@ 7398
recycl@@ 7398
anom@@ 7397
European 7395
hostile 7395
low@@ 7394
ogne 7394
Wolf 7393
vot 7393
lip 7392
Wel@@ 7391
marathon 7391
Queensland 7389
Bras@@ 7387
Adap@@ 7384
azz@@ 7382
eption 7381
Wood 7379
Holstein 7378
consensus 7377
nas@@ 7376
perform@@ 7376
xy@@ 7376
Bristol 7375
Diane 7374
fail@@ 7373
Montau@@ 7372
Out 7372
kan 7372
torture 7368
ât 7368
conclusi@@ 7367
1788 7365
Tō@@ 7365
û 7365
Bull 7363
36@@ 7360
dispon@@ 7360
Foundation 7359
Vul@@ 7359
phyl@@ 7359
Santos 7358
liquid@@ 7357
ouin 7356
fr 7354
senior 7354
Gray 7353
Harvey 7353
nam@@ 7350
effective 7347
Biz@@ 7346
destitu@@ 7346
arith@@ 7344
Hassan 7343
Pauline 7342
López 7341
lass@@ 7338
suscit@@ 7338
Ec@@ 7336
ael 7336
inten@@ 7336
may@@ 7336
yes 7335
Mong@@ 7333
analog@@ 7333
tar 7333
ophone 7332
lop@@ 7327
gy 7326
imental 7326
agin@@ 7325
GA 7324
Strat@@ 7324
anthropo@@ 7323
immigrants 7322
Utah 7321
from 7318
MS@@ 7317
Hey@@ 7316
Tax@@ 7316
missariat 7316
Gur@@ 7313
pos 7311
tou 7310
Girl 7308
Port@@ 7308
Polyn@@ 7307
ör@@ 7307
25,@@ 7306
Aer@@ 7306
sberg 7306
segments 7306
ste@@ 7305
1775 7303
spor@@ 7302
camer@@ 7300
options 7300
Micro@@ 7299
Of 7298
arom@@ 7297
CM@@ 7295
bey 7295
dha 7294
33@@ 7293
Balkans 7293
Cross 7291
EL@@ 7289
Milit@@ 7289
Platon 7287
tex 7287
icor@@ 7286
Activ@@ 7285
Soc@@ 7284
allo 7283
ivi@@ 7283
rid@@ 7283
donation 7281
kam@@ 7281
pora 7281
Ferry 7280
TT 7280
1784 7277
Yos@@ 7277
ren 7275
octo@@ 7272
austr@@ 7271
consultant 7270
een 7270
ocre 7269
CFA 7268
Carcas@@ 7265
inski 7263
Freud 7262
lar 7262
1,8 7261
hie 7259
osaur@@ 7258
Keith 7257
Terry 7256
Comment@@ 7254
1770 7253
lets 7253
Ce@@ 7252
contempor@@ 7252
ensi@@ 7252
Dani@@ 7251
eon 7251
Erik 7247
folkl@@ 7246
ISO 7244
dest@@ 7244
got@@ 7243
inet 7242
Tang 7241
arre 7241
Churchill 7239
Beg@@ 7237
Castro 7235
onnie 7235
liner 7232
ingo 7230
Wis@@ 7229
tico 7229
uld 7229
transvers@@ 7228
Business 7227
Portug@@ 7227
tul@@ 7227
paravant 7223
Gom@@ 7222
toi 7222
ardo 7220
aton 7219
attractions 7219
instances 7219
Sarr@@ 7215
Nev@@ 7214
Pra@@ 7214
itte 7212
tester 7212
autrich@@ 7211
sanctions 7210
ń 7209
Fat@@ 7208
Sèvres 7207
ring 7207
compression 7206
town 7206
Rey 7205
Nova 7204
Geor@@ 7203
explorer 7202
oum 7198
Hard@@ 7194
ograph@@ 7194
Dag@@ 7193
escu 7193
IA 7191
2,3 7190
Gallery 7190
bs 7187
Base 7186
Belfort 7185
alet 7182
ët 7180
Quer@@ 7178
cod@@ 7177
casting 7176
ussy 7175
1,1 7173
alan@@ 7172
omb 7171
dent 7166
toil@@ 7165
Tad@@ 7159
Pand@@ 7157
ara@@ 7157
rs 7156
euv@@ 7155
reporter 7153
Eva 7151
DS@@ 7150
ju 7148
ylo@@ 7147
0,1 7145
Person@@ 7144
fluor@@ 7144
synchron@@ 7144
Portland 7143
confér@@ 7143
vier@@ 7143
Libre 7142
Qui 7142
Barn@@ 7141
Dra@@ 7139
oud@@ 7139
Gag@@ 7138
Your 7138
Nathalie 7137
fat@@ 7135
Box 7134
ego 7133
Wehrmacht 7130
Moreau 7129
Holmes 7127
Noy@@ 7127
ainville 7127
Via 7126
mitage 7125
Berkeley 7124
ulu 7124
emper@@ 7118
Cherbourg 7116
Rud@@ 7115
Tem@@ 7113
ator@@ 7112
Doubs 7111
avo@@ 7111
Westminster 7110
27,@@ 7109
Ardèche 7107
Andreas 7106
maxim@@ 7106
Deutsche 7105
absorption 7103
imit@@ 7103
male 7103
Parti@@ 7102
Yonne 7102
discrimination 7102
Wak@@ 7101
Citroën 7100
Over@@ 7099
eme 7098
Meyer 7097
Lob@@ 7096
BM@@ 7094
odor@@ 7094
AN 7089
extrê@@ 7089
Neuilly 7086
aissances 7085
her 7085
mant@@ 7085
Be 7084
Leo 7083
Juliette 7082
1783 7080
igt 7079
Cha@@ 7077
onte 7077
Canadi@@ 7076
α 7071
Quim@@ 7070
Twitter 7069
rail 7068
saur@@ 7068
juris@@ 7067
1600 7066
mark 7065
Á@@ 7065
bio@@ 7064
termina 7063
Global 7060
matricul@@ 7059
Men 7056
coph@@ 7055
grain 7054
ellen@@ 7053
Laborat@@ 7052
suj@@ 7051
Monta@@ 7050
bec@@ 7048
Antarc@@ 7047
34,@@ 7046
Bin@@ 7045
Hilaire 7042
Public 7042
ð@@ 7040
Cle@@ 7039
grad@@ 7039
sacrifice 7039
ng 7035
Max@@ 7034
Babyl@@ 7033
Nil 7033
Que@@ 7033
1750 7032
resse 7032
Grandes 7028
ers@@ 7028
amorph@@ 7027
Hugh 7025
subdivision 7022
êque 7022
Champ 7019
oga 7019
yro@@ 7018
igration 7017
mau@@ 7015
Church 7014
apa 7014
phant 7012
sets 7012
Nombre 7010
anch@@ 7010
Say@@ 7009
phine 7009
og 7006
Castell@@ 7003
macul@@ 7001
orne 7001
sz@@ 7001
oki 6999
Clinton 6998
Pasteur 6998
trail 6998
Do 6997
Larry 6997
Armstrong 6996
Brothers 6994
D1 6994
Voltaire 6994
escar@@ 6994
nuclé@@ 6992
Paraguay 6989
Lions 6988
Sergio 6988
Dir@@ 6987
Zi@@ 6987
uf@@ 6987
urus 6987
Wimbledon 6982
expér@@ 6982
signat@@ 6982
Rum@@ 6981
essis 6981
archev@@ 6980
atrième 6980
accio 6979
Alexandra 6978
Sauv@@ 6978
els@@ 6974
Guér@@ 6973
Sach@@ 6973
arp@@ 6972
Julian 6971
Werner 6971
pus 6969
elia 6968
Pictures 6967
Wes@@ 6966
rements 6966
Ron 6965
Ts@@ 6964
incidents 6964
Anth@@ 6963
Lucie 6961
arches 6958
Voyage 6956
37@@ 6954
appell@@ 6954
Book 6951
North@@ 6951
anglic@@ 6951
cogni@@ 6951
apos@@ 6948
til 6946
102 6945
39@@ 6944
SI 6939
Zhang 6939
Calvados 6937
Ish@@ 6937
biot@@ 6937
Aube 6936
Flo@@ 6936
parap@@ 6936
illance 6934
thel@@ 6933
Hug@@ 6930
ark@@ 6930
aper 6927
Feu@@ 6926
Artois 6923
34@@ 6920
Miy@@ 6919
rell 6919
Müller 6916
vić 6915
Río 6914
motions 6912
Sax@@ 6911
Gin@@ 6909
Thess@@ 6907
Gard@@ 6902
Susan 6900
eria 6900
ougou 6900
vidé@@ 6900
red 6899
collo@@ 6898
ā 6897
kar 6895
Æ@@ 6895
mos 6894
Hass@@ 6892
etz@@ 6891
Westph@@ 6890
Lieutenant 6889
Allan 6888
1787 6887
Angelo 6887
Rho@@ 6887
ao@@ 6887
sins 6885
26,@@ 6883
Wild 6882
absent 6882
Dead 6880
animales 6877
ovi@@ 6877
edi 6876
tible 6876
Roman@@ 6874
Wells 6874
ander 6874
Fabr@@ 6873
Kate 6871
ò 6871
aza 6870
stock 6869
450 6867
eline 6867
´ 6865
Santo 6864
kel@@ 6862
NR@@ 6859
uka 6859
améric@@ 6858
star@@ 6858
convertir 6857
combustible 6855
SV 6853
Wy@@ 6853
ilia 6853
Mob@@ 6852
enr@@ 6851
æ 6849
ympi@@ 6845
Cli@@ 6843
Rachel 6843
einture 6842
instruc@@ 6842
constant 6841
Orne 6840
Light 6839
bli@@ 6838
Information 6836
ady 6834
Cohen 6830
fiable 6830
Free 6826
orig@@ 6826
ved@@ 6826
alto 6825
Sea 6823
Marais 6822
Marc@@ 6822
borg 6822
clus@@ 6820
mig@@ 6819
reb 6819
ward 6819
Magn@@ 6815
contra 6815
cen@@ 6814
ński 6814
SM@@ 6811
Tah@@ 6811
Porsche 6810
jar@@ 6808
oyen 6808
Schneider 6806
21,@@ 6805
Richmond 6804
etière 6802
Vand@@ 6801
forum 6801
phylo@@ 6799
Nathan 6796
Trou@@ 6796
Reich@@ 6793
restric@@ 6793
carol@@ 6792
lane 6792
tave 6792
estamp@@ 6787
ike 6785
Promotion 6784
Sv@@ 6784
GC 6782
cister@@ 6780
Gabon 6779
Dom 6777
Henriette 6777
folk 6772
Kap@@ 6771
Race 6769
prud@@ 6768
admission 6767
Story 6764
Perry 6763
Valentin 6763
Strauss 6762
Io@@ 6757
Bess@@ 6756
Cyr@@ 6754
1785 6752
Sok@@ 6752
douin 6750
UC 6749
isc@@ 6749
régi@@ 6749
Zh@@ 6748
elt 6748
lice 6748
mutations 6745
Tes@@ 6744
occurrence 6744
pati@@ 6740
Dubois 6737
Laurence 6734
ultra 6732
Down 6730
Elena 6730
cataly@@ 6725
1778 6724
Nes@@ 6723
Bid@@ 6722
Marius 6719
rants 6718
uth 6718
Mickey 6717
Rwanda 6716
king 6716
inales 6715
Triple 6714
Um@@ 6712
ovice 6712
dura 6711
isin 6709
titu@@ 6709
Madonna 6706
Nau@@ 6706
Rohan 6706
Carthage 6704
Ed 6703
Breton 6702
intercep@@ 6701
CR 6700
Coast 6700
bli 6700
Dow@@ 6699
Chav@@ 6694
écolo@@ 6694
Ottomans 6693
informe 6693
Hach@@ 6692
osh@@ 6691
Suz@@ 6690
BMW 6689
condens@@ 6689
lands 6689
teville 6689
Pyr@@ 6688
osom@@ 6688
38@@ 6685
Install@@ 6685
Congr@@ 6684
F.@@ 6684
Villers 6684
isra@@ 6683
Kyoto 6682
Beethoven 6681
IE@@ 6681
eros 6679
Grace 6678
Reconn@@ 6678
104 6677
Mom@@ 6677
book 6675
1,7 6673
oe 6673
vr@@ 6671
Inc 6670
hen 6669
éclip@@ 6668
Giorgio 6667
ethn@@ 6667
polyg@@ 6667
Hid@@ 6664
Rodol@@ 6664
compensation 6664
Fus@@ 6662
bit 6661
tas@@ 6661
Publ@@ 6659
laser 6659
Four 6655
Bom@@ 6654
atre 6654
substr@@ 6652
euc@@ 6651
obsc@@ 6651
Net@@ 6650
Jo 6649
czy@@ 6649
dom 6648
HD 6647
traf@@ 6647
Albums 6646
Prin@@ 6646
T.@@ 6646
fo 6646
Hin@@ 6645
facto 6645
stress 6644
cev@@ 6643
Dean 6642
Japan 6642
Duv@@ 6639
Micha@@ 6639
Sis@@ 6639
cristal 6635
Magnus 6634
intellig@@ 6634
ders 6633
mena 6633
Chelsea 6632
Orlando 6632
unter 6631
Leonard 6630
réser@@ 6630
azi 6629
sain@@ 6629
23,@@ 6628
Gibraltar 6628
Sept@@ 6626
ologien 6626
rine 6626
Ronald 6625
formats 6625
Meurthe 6624
EC@@ 6622
Tang@@ 6621
TGV 6620
MP 6619
Aaron 6617
Hardy 6616
ionn@@ 6616
moy@@ 6616
Tex@@ 6615
Yas@@ 6615
lance@@ 6615
discrimin@@ 6613
Vu@@ 6611
parade 6611
Dru@@ 6610
sages 6610
Rémy 6609
jiang 6609
Sph@@ 6608
tif@@ 6608
Genti@@ 6607
Lal@@ 6607
nitr@@ 6607
rod@@ 6607
hand@@ 6606
inves@@ 6606
pastor@@ 6606
Rim@@ 6605
Ille 6604
Jud@@ 6604
azar 6599
current 6598
Hein@@ 6597
Tanz@@ 6597
Brigade 6596
Tig@@ 6594
51,@@ 6593
Sean 6593
Ces@@ 6592
harc@@ 6590
head 6589
oon 6589
1760 6588
Kle@@ 6587
Section 6587
Secret 6585
sia 6585
Klein 6584
superfici@@ 6582
Table 6580
aja 6576
Dance 6575
say 6575
ss@@ 6574
Gail@@ 6573
gage 6573
Now@@ 6572
ld 6571
nac@@ 6571
Jin 6570
eld 6570
Montmar@@ 6569
mite 6569
quis 6568
3000 6566
Electric 6566
guise 6566
ayo 6564
Bed@@ 6563
Xe 6563
berges 6561
aît 6560
wag@@ 6560
Alpha 6558
his@@ 6558
ater@@ 6557
Bang@@ 6555
Rolling 6555
Way 6555
Ye@@ 6555
compres@@ 6555
Dus@@ 6554
inspec@@ 6554
agny 6553
lez 6552
Fay@@ 6551
cond@@ 6550
jer@@ 6550
Hills 6548
variant 6546
Garr@@ 6543
owice 6543
emy 6541
gigant@@ 6539
navales 6538
Patri@@ 6537
manufacture 6536
igr@@ 6534
Greg 6532
Beth@@ 6531
Leon@@ 6531
fluvi@@ 6530
chio 6528
Alessandro 6525
bei 6524
esa 6523
Fav@@ 6522
Jal@@ 6522
chel@@ 6521
globe 6521
1776 6520
francisc@@ 6519
ias 6519
Brie 6518
pè@@ 6517
combe 6516
contra@@ 6515
RTL 6513
22@@ 6512
xon 6512
Garden 6511
tyre 6510
alpin@@ 6507
VA 6506
enga 6506
Ż@@ 6505
bou 6504
gar 6503
Nuremberg 6502
Villiers 6502
ome@@ 6498
inga 6497
48,@@ 6496
ú 6492
Auschwitz 6491
Rein@@ 6491
Neuv@@ 6490
Abel 6489
Cah@@ 6489
emin@@ 6489
Tot@@ 6488
Valois 6488
Kings 6487
square 6486
ør@@ 6486
1763 6485
ony 6483
Girls 6480
Hosp@@ 6480
Wik@@ 6477
Design 6476
auses 6475
Dioc@@ 6474
Cameron 6471
Fontainebleau 6468
Pig@@ 6468
Trem@@ 6468
Crist@@ 6467
MTV 6466
kom@@ 6465
aze 6463
ru 6462
anni@@ 6459
ù 6459
jard@@ 6458
slogan 6458
Tu 6456
enza 6456
tag@@ 6456
Classic 6454
comparti@@ 6453
permission 6450
Grammy 6449
Miles 6448
aven@@ 6447
justif@@ 6445
elo 6443
Batman 6441
Carl@@ 6441
Athletic 6440
You@@ 6440
Put@@ 6439
bine 6437
Coch@@ 6436
conversation 6435
get 6434
Abd 6433
Cabinet 6432
congr@@ 6432
effici@@ 6432
forma 6432
Aire 6431
Gros 6431
Jer@@ 6429
Machine 6429
PT@@ 6429
onial 6428
Mans@@ 6427
unk@@ 6427
Memorial 6425
hin 6424
Bridge 6422
Miss@@ 6422
cons 6422
Limous@@ 6421
boyc@@ 6421
garage 6420
Angel@@ 6419
zin 6418
1700 6417
Spencer 6417
game 6417
sw@@ 6417
Delta 6416
Hart 6416
primitive 6416
L.@@ 6415
e. 6415
ellan 6414
stra@@ 6414
Gers 6413
LM 6409
perpendi@@ 6409
xu@@ 6409
Ball 6408
Berger@@ 6408
Apol@@ 6404
Utrecht 6404
Jor@@ 6401
leuc@@ 6400
delta 6399
29,@@ 6398
isier 6393
igueur 6392
Watson 6390
Nicholas 6388
Orientales 6387
aldo 6387
Rabat 6382
Recon@@ 6382
NS 6381
esté 6381
pler 6381
→ 6381
Avi@@ 6380
Ques@@ 6378
ms 6376
iva 6375
Bun@@ 6374
Blaise 6373
Hunter 6373
ords 6373
rante 6373
Lanka 6370
migrants 6369
bia 6368
iec 6365
intu@@ 6365
Dah@@ 6364
Quel@@ 6363
ender 6363
particular@@ 6363
entom@@ 6362
estation 6362
Vier@@ 6361
Harr@@ 6360
ARN 6359
Felix 6359
vaux 6358
fascin@@ 6357
González 6355
Khal@@ 6355
ków 6355
Wu 6353
incon@@ 6353
tint 6353
former@@ 6352
Mire@@ 6350
asso 6348
combat@@ 6346
109 6345
isch@@ 6345
1786 6344
aussée 6341
prose 6341
iel 6340
ER 6339
Chim@@ 6338
Sti@@ 6338
ate@@ 6337
fen@@ 6337
atern@@ 6336
nombre@@ 6336
pakist@@ 6335
soprano 6335
kir@@ 6332
Ruth 6330
lah 6330
monoc@@ 6330
Technology 6328
Explo@@ 6327
Khar@@ 6325
Satur@@ 6325
quième 6325
Hector 6323
Xbox 6322
asti@@ 6322
Del 6321
acy 6321
brev@@ 6321
LE 6319
hat@@ 6317
Héro@@ 6316
gan 6315
onius 6314
ouville 6314
edr@@ 6310
phras@@ 6309
Durand 6305
ape@@ 6305
Brig@@ 6304
Sound 6303
Brigitte 6301
UK 6301
V8 6301
Yuan 6301
Dakota 6297
Rob 6296
aks 6296
Religion 6295
fluctu@@ 6295
Circuit 6294
Hop@@ 6292
fier@@ 6291
Wallace 6289
auff@@ 6288
iler@@ 6288
fratern@@ 6286
28,@@ 6283
phi@@ 6281
III@@ 6279
2,2 6278
We 6278
eim 6277
commander 6275
postul@@ 6272
chy 6269
103 6266
reten@@ 6265
eka 6264
sodium 6264
spectr@@ 6264
égie 6264
Magic 6263
esh 6263
Hockey 6262
yse 6261
Arkansas 6260
Ltd 6260
aldi 6258
bure 6255
Rag@@ 6254
cure 6254
subj@@ 6251
letin 6250
Weimar 6249
akov 6249
acum 6248
Fra@@ 6247
vag@@ 6247
Blake 6245
Portrait 6245
destroyer 6244
Final 6241
primor@@ 6241
thy@@ 6241
Butler 6240
Abu 6238
iba 6238
perf@@ 6237
Organ@@ 6235
Gestapo 6234
Igor 6233
Jennifer 6233
Apollo 6232
Edo 6230
chu 6229
estes 6229
Ret@@ 6226
terti@@ 6226
Schmidt 6225
gang 6225
vet 6225
German@@ 6220
exceptions 6216
lars 6216
Vettel 6215
var 6215
onciation 6214
Jab@@ 6210
sov 6210
Water@@ 6209
SG 6208
Eug@@ 6205
ental 6205
Adel@@ 6204
Fischer 6204
Plo@@ 6204
OM 6203
Good 6200
amo 6199
Capital 6198
iter@@ 6198
meeting 6198
Pall@@ 6197
curios@@ 6196
1782 6194
Helen 6194
F1 6192
Quartier 6192
Cun@@ 6191
Motte 6191
align 6191
1200 6188
Combat 6188
ouges 6188
pant@@ 6186
plate@@ 6186
Conqu@@ 6185
Council 6185
Virginia 6185
Are@@ 6184
Nevada 6184
Bagn@@ 6183
Dragons 6183
guid@@ 6183
Muhammad 6182
poem 6182
verr@@ 6182
1,9 6181
inda 6180
Sér@@ 6179
AV@@ 6178
cret 6178
Sara 6176
jeun@@ 6174
Jack@@ 6173
FBI 6171
doctor@@ 6170
finland@@ 6170
ía 6168
berto 6167
Lug@@ 6166
asse@@ 6165
gam@@ 6165
Dumas 6164
Zel@@ 6164
County 6160
morales 6160
Anatol@@ 6159
sormais 6159
inat 6158
Soy@@ 6157
iya 6157
robot 6157
Slo@@ 6156
Spar@@ 6156
ally 6156
Michelle 6154
Tradi@@ 6154
Zar@@ 6154
ambigu@@ 6154
Haus@@ 6152
Wellington 6152
Management 6151
arie 6151
HF 6150
Mail@@ 6150
sep@@ 6147
agro@@ 6146
eke 6145
list@@ 6145
ogue 6145
dram@@ 6144
soix@@ 6144
PP 6143
sian 6142
3,2 6140
Dennis 6140
Bus 6135
Cach@@ 6134
SR 6133
ocar@@ 6133
Court 6131
gie 6131
obi@@ 6130
placement 6130
Vivi@@ 6129
chia 6129
uchi 6129
Sahara 6128
ishi 6128
sule 6127
cave 6126
cost@@ 6126
macro@@ 6126
Att@@ 6124
Carol@@ 6124
kow@@ 6124
Carmen 6121
oj@@ 6121
Bastia 6120
teil@@ 6120
Murphy 6119
inette 6118
Ander@@ 6117
Barb@@ 6117
persp@@ 6114
Bam@@ 6113
Craig 6112
extraterres@@ 6112
Lotus 6111
Shu@@ 6111
Rain@@ 6109
Tau@@ 6109
stand 6109
Good@@ 6108
Moon 6107
violation 6107
ostr@@ 6106
Death 6103
Gw@@ 6103
jav@@ 6099
Lane 6097
gang@@ 6096
soir@@ 6096
Olga 6095
1777 6093
Caus@@ 6093
220 6092
rail@@ 6092
1774 6091
Neg@@ 6090
maur@@ 6090
zel@@ 6089
Atlantic 6088
vali@@ 6088
Weber 6087
coloniales 6087
108 6084
Open@@ 6083
Rodríguez 6082
Tag 6081
oral 6081
Sit@@ 6080
scor@@ 6080
valenci@@ 6080
kW 6079
uno 6078
phé@@ 6077
miel 6076
Memphis 6075
folklore 6072
pper 6071
Emily 6069
NCAA 6069
Madison 6068
allu@@ 6068
gli@@ 6068
XVIII 6065
45@@ 6064
Tech 6064
bak@@ 6064
hil@@ 6064
èn@@ 6062
Raz@@ 6061
Alc@@ 6057
EA 6054
onal@@ 6054
aha 6053
diger 6052
thriller 6052
ament@@ 6050
rets 6050
Law 6047
clusi@@ 6047
Buffalo 6044
uj@@ 6042
Ana 6040
Aviation 6039
Phili@@ 6039
membrane 6039
CBS 6038
GP@@ 6037
Goul@@ 6036
Kru@@ 6036
entis 6036
isha 6036
Cub@@ 6035
dira 6032
200@@ 6031
calibre 6031
Domenico 6029
omen@@ 6029
transit 6029
zes 6027
wh@@ 6026
TR@@ 6025
Grig@@ 6024
cation 6024
Row@@ 6022
pulmon@@ 6021
Netflix 6020
homolog@@ 6020
Baby 6019
Apollon 6018
ondr@@ 6016
orps 6015
Kum@@ 6013
xa 6012
pier 6011
provoc@@ 6011
soul 6011
Hampshire 6009
Nacional 6009
106 6007
Saul@@ 6007
dias 6007
Indian 6006
Railroad 6006
mid@@ 6004
Arte 6003
carp@@ 6003
vulgar@@ 6001
Annex@@ 5999
Bail@@ 5999
Phot@@ 5999
rates 5999
wich 5998
inspection 5997
yards 5997
chenko 5995
maximal 5995
coloni@@ 5994
usz 5994
Da 5991
vog@@ 5990
G.@@ 5984
zard 5984
Luther 5981
fraude 5981
osc@@ 5980
veaux 5978
FO@@ 5977
IV@@ 5977
Obama 5976
inflation 5974
mom@@ 5974
ț 5974
mat 5973
Mobile 5972
mantel@@ 5972
Jas@@ 5971
cham@@ 5971
6,5 5969
Anat@@ 5968
Yous@@ 5968
bars 5968
Ever@@ 5966
Dream 5965
Buz@@ 5964
Ellen 5963
Mi 5962
tics 5962
professionn@@ 5961
intentions 5959
brus@@ 5958
Roberts 5957
Sánchez 5956
19@@ 5953
Album 5953
lenti@@ 5953
Play 5949
transfer@@ 5949
uy 5949
hâ@@ 5948
Grey 5946
hel@@ 5945
phus 5944
antagon@@ 5943
Bonif@@ 5942
Schw@@ 5942
elen 5942
vertical 5942
alle@@ 5941
Lang 5940
boy 5940
phon 5940
Berth@@ 5939
Ard@@ 5937
certification 5935
Pist@@ 5932
podi@@ 5932
minist@@ 5931
tang@@ 5930
Léger 5926
partici@@ 5926
imo 5925
36,@@ 5924
ST 5923
Tun@@ 5923
alls 5923
Pop 5922
igna 5921
Bundesliga 5920
Sud@@ 5917
cal 5917
Orchestra 5916
Mann@@ 5915
CT@@ 5913
Gouverneur 5912
beur@@ 5912
Bryan 5910
80@@ 5906
Cous@@ 5904
Fitz@@ 5901
oque 5901
Ricardo 5899
Lourdes 5898
O.@@ 5897
def@@ 5897
112 5895
hang@@ 5895
Catalogue 5894
Gem@@ 5893
emann 5893
Berger 5892
empir@@ 5891
Kis@@ 5889
eliers 5889
irrigation 5889
Kre@@ 5888
eren 5886
Jefferson 5885
NBC 5883
iton 5883
Audi 5882
cér@@ 5882
Buch@@ 5880
icules 5878
respir@@ 5878
2,6 5877
UE@@ 5876
LGBT 5874
igan 5874
omorph@@ 5874
explore 5872
arine 5870
Amar@@ 5868
ven 5868
simplic@@ 5867
extermin@@ 5866
wen@@ 5866
Mall@@ 5865
ovski 5862
bab@@ 5861
Schleswig 5858
hit 5858
satisfaction 5858
anor@@ 5857
Mim@@ 5856
Scu@@ 5856
ós 5856
Cob@@ 5855
End 5855
financi@@ 5855
Fire 5854
Tonn@@ 5853
alit@@ 5853
Airbus 5851
Television 5851
Tok@@ 5851
arien 5850
leton 5850
obe 5850
hispan@@ 5848
illar@@ 5848
Sex@@ 5847
ègre 5847
Pol 5846
Amy 5845
Honda 5845
ester@@ 5845
brigadier 5844
ycl@@ 5841
Liz@@ 5840
borde 5840
5,5 5839
Cand@@ 5839
exact 5839
utions 5838
Six@@ 5833
dium 5833
Hot@@ 5832
AOC 5831
al. 5830
gradu@@ 5826
pice 5826
uple 5826
ases 5824
pinyin 5823
hat 5822
Heart 5821
Ted 5819
glom@@ 5817
join@@ 5815
simulation 5815
uries 5815
ega 5814
DR 5813
Potter 5813
Prof@@ 5811
Rah@@ 5811
Cum@@ 5810
ö 5810
disco@@ 5809
Montana 5808
Buff@@ 5806
atti 5804
Bagdad 5802
teil 5798
Patricia 5797
Spo@@ 5796
Gré@@ 5795
CG 5792
Cycl@@ 5792
itas 5790
sidi@@ 5790
Chas@@ 5785
Pan 5785
olin 5785
appe@@ 5784
hausen 5784
usur@@ 5782
Jag@@ 5781
Saskatchewan 5780
unc@@ 5780
Burg@@ 5779
internation@@ 5779
agglom@@ 5777
aurus 5777
alli 5774
clips 5774
vière 5774
Opera 5773
Sah@@ 5773
gravit@@ 5773
cht 5772
Pons 5771
Diana 5770
Page 5770
remix@@ 5770
maus@@ 5769
sburg 5769
Yu 5768
Edwards 5767
Globe 5767
Map@@ 5766
Valent@@ 5766
bamb@@ 5766
lamp@@ 5766
ning 5766
Luca 5762
nan@@ 5761
Montfort 5760
Lucius 5759
Natur@@ 5759
conson@@ 5759
Lati@@ 5758
Morav@@ 5758
kor@@ 5757
Nah@@ 5756
avar@@ 5756
coni 5751
tonal@@ 5751
litz 5750
Halle 5749
offic@@ 5749
uba 5747
Viktor 5746
wat@@ 5746
1772 5745
Düsseldorf 5744
Bien@@ 5743
dru@@ 5743
cape 5742
km@@ 5742
Daily 5741
Diam@@ 5741
sius 5740
Hed@@ 5738
Candid@@ 5737
cot 5737
Cus@@ 5736
quart@@ 5736
zel 5736
1740 5735
Zor@@ 5735
non@@ 5735
torp@@ 5735
acon@@ 5734
ondo 5734
Lip@@ 5733
icher 5733
128 5729
UC@@ 5729
Unicode 5728
chev 5728
Norfolk 5727
Compi@@ 5725
N.@@ 5725
kers 5725
offices 5725
Plant@@ 5724
Serv@@ 5724
For 5723
Amir@@ 5722
Lucy 5721
uss 5721
édr@@ 5721
As 5719
Wiel@@ 5719
parag@@ 5717
aan 5716
170 5714
Nos@@ 5714
cac@@ 5713
entis@@ 5712
Bande 5711
Chré@@ 5709
portable 5709
Kri@@ 5708
sels 5706
fre 5705
omac 5704
eg 5702
orif@@ 5700
urg 5700
Yang 5699
[...]
