the 153312695
, 143961830
. 127004075
of 84784735
and 73176787
in 64619246
&quot; 57075854
to 51061845
a 49846316
was 31681036
@-@ 28215936
The 25680845
is 23866103
) 21842243
( 21815566
for 20319936
on 20001954
as 19917929
with 17642440
by 17539036
&apos;s 15730555
that 14075220
at 13619755
from 12754559
his 11207769
an 11169527
In 10195014
he 9354271
were 8304289
it 7496064
which 7471490
are 7287272
He 6783224
or 6598049
also 6124390
be 6113766
; 6111639
had 6089932
: 5925151
ing 5850496
– 5673399
has 5665825
first 5488686
its 4949230
one 4929959
It 4915315
their 4836792
ed 4766696
who 4525757
her 4362617
not 4346914
but 4336054
two 4027352
have 4020441
this 3901416
been 3777123
&apos; 3773910
after 3387239
s 3327557
time 3325878
they 3119463
A 3115346
other 3053880
into 2990063
es 2960383
all 2915843
she 2857414
re@@ 2796517
y 2746024
more 2628877
% 2607027
On 2599290
ation 2586009
New 2547758
would 2534197
when 2528611
years 2527559
up 2507801
1 2481799
over 2455571
/ 2452128
where 2450879
This 2412673
during 2394560
year 2367947
out 2361745
season 2323139
only 2323023
new 2279422
between 2263050
three 2215702
un@@ 2203588
ate 2201351
made 2197585
used 2152767
him 2150003
then 2141033
ers 2136104
later 2130623
ated 2116329
United 2108872
2 2107613
most 2086796
&amp; 2085483
known 2079693
can 2075884
such 2067841
about 2047853
American 2037739
part 2025487
became 1999807
al 1988884
under 1987400
team 1985424
University 1984465
She 1965672
well 1960459
born 1935255
de 1914849
S@@ 1913644
I 1904961
than 1897010
including 1867589
being 1841382
film 1840485
there 1836659
s@@ 1814002
some 1782148
second 1760170
through 1752221
against 1728918
3 1726300
After 1690030
age 1681658
while 1659310
before 1656148
work 1646435
er 1640776
many 1638292
B@@ 1621153
family 1617081
them 1610946
until 1603361
P@@ 1595015
World 1587913
both 1582117
D@@ 1573594
people 1565596
played 1548772
no 1548746
States 1548678
album 1536601
G@@ 1525610
L@@ 1514641
National 1511139
man 1502544
released 1502510
T@@ 1502195
in@@ 1502038
name 1501446
4 1486460
number 1461014
ations 1457956
W@@ 1453321
series 1453075
As 1442269
won 1441660
R@@ 1440451
life 1438169
area 1434417
may 1423640
four 1418053
called 1413130
school 1412161
May 1391242
N@@ 1389873
K@@ 1386490
able 1385134
t 1371649
ted 1369527
son 1363866
March 1363460
dis@@ 1350719
A@@ 1348952
September 1348712
January 1342098
use 1327225
C@@ 1326606
end 1322411
June 1322042
career 1318327
October 1316170
ity 1313888
several 1313526
state 1311331
following 1310073
F@@ 1308697
July 1308148
same 1308001
city 1307678
early 1303542
M@@ 1300435
August 1286241
John 1286227
5 1283644
School 1277133
ly 1274525
April 1272613
H@@ 1268332
South 1268247
game 1263916
found 1262804
based 1258123
They 1257085
amp 1248630
e@@ 1248546
began 1243808
November 1241229
these 1236125
10 1234295
since 1231638
will 1229242
December 1225753
als 1220486
His 1218594
ts 1200929
6 1199869
ch@@ 1199709
place 1198227
so 1197140
group 1190025
County 1189154
d@@ 1174661
held 1167553
O@@ 1158921
located 1157949
former 1156754
day 1156371
back 1149825
At 1146743
took 1142629
War 1139744
named 1136341
York 1134886
$ 1132956
government 1129584
ar 1122691
land 1119032
ic 1118367
line 1114929
member 1114220
There 1113213
way 1113101
d 1112235
State 1108453
ous 1108272
February 1105704
E@@ 1103716
high 1100771
British 1097267
each 1096797
City 1095266
population 1094437
ating 1092521
League 1091646
century 1090641
served 1082698
V@@ 1078332
music 1075812
now 1073156
- 1071892
w@@ 1070860
ist 1069849
company 1068510
led 1067856
2010 1067788
station 1066595
J@@ 1064346
’ 1060132
ally 1057294
any 1053504
song 1048659
However 1039683
p@@ 1039291
received 1035671
home 1031826
an@@ 1030927
did 1030562
around 1027541
o@@ 1023730
f@@ 1021707
b@@ 1021355
town 1017548
m 1014229
ors 1008915
7 1008678
could 1008615
2011 1007241
r@@ 1007160
North 1006914
off 1005473
men 1003441
built 1000457
due 998712
e 992467
side 989510
i 989084
g@@ 989022
long 981988
th 976444
h@@ 975769
el 974816
et 973557
us 973163
8 972453
y@@ 970981
ar@@ 970368
single 970296
12 968427
2012 968352
system 967714
left 964949
like 964660
local 962993
public 961860
ary 961476
&apos;@@ 960890
t@@ 960454
along 959055
al@@ 956717
History 955761
band 954352
During 953708
died 952849
2014 950508
set 949670
published 947769
k 945457
members 945000
five 943530
species 942579
20 940972
en@@ 939719
building 937997
ans 936917
st@@ 936505
2013 935764
2016 934368
sh@@ 933882
club 933328
2015 931737
18 930635
own 929133
el@@ 928368
said 928255
on@@ 927677
include 927301
l@@ 926242
ting 924549
final 923378
within 923066
play 921614
de@@ 913113
2008 908749
2009 907414
large 903515
ent 903262
ings 903129
because 902582
world 893738
15 892205
2018 886135
c 885337
included 884585
2017 882032
field 881186
third 879604
village 879259
ad@@ 878288
9 869569
am 865412
2019 864283
small 863294
Ch@@ 860154
For 858803
water 858719
th@@ 855241
n@@ 853951
election 853819
o 852293
I@@ 851488
ates 849336
2007 847614
College 847356
old 845600
French 845542
form 844848
show 843068
national 841910
children 841319
2006 839949
very 838784
c@@ 835474
death 835366
football 827846
last 822368
main 821649
moved 819655
&#93; 817854
&#91; 817208
house 815560
English 815497
2020 813354
ical 813331
h 813123
West 812900
down 811075
tr@@ 810092
those 809375
11 805640
if 805537
history 803878
million 803351
still 801789
er@@ 800833
District 799437
women 797679
book 796207
30 792484
war 791609
German 791340
another 786140
co@@ 784417
or@@ 781121
service 780171
II 774288
— 773734
major 771742
16 770779
late 769823
en 769787
es@@ 769402
district 767556
International 766706
often 763842
ton 763212
as@@ 760930
near 758724
River 758203
per 758112
U.S. 756660
Z@@ 756490
London 756057
north 752948
When 751919
father 748253
different 747781
14 747013
k@@ 743617
do 743056
established 741503
j@@ 737123
19 737007
ine 735956
games 735875
U@@ 734982
country 734055
announced 733840
original 733176
again 732572
best 732119
All 731661
ment 729155
House 728216
n 727534
ley 726781
order 726725
head 726619
record 724876
Cup 722138
am@@ 720526
south 720074
started 717081
top 716912
US 714898
six 713708
13 712911
Y@@ 712464
ons 711084
title 710454
role 710181
25 709282
b 708167
One 708103
Sh@@ 707225
went 707074
joined 706022
g 704817
using 702374
law 701351
le 700228
period 698628
_ 696802
came 695729
worked 693741
just 690817
ance 689745
u 689052
for@@ 687800
what 685368
much 684537
support 684134
17 684036
ab@@ 682851
married 681139
co 679017
produced 678125
among 675530
at@@ 674728
2005 670683
p 666413
power 666052
make 665665
l 662946
2021 661906
Al@@ 660435
England 659993
Ar@@ 658644
wrote 658636
development 657836
become 656416
player 655984
having 655769
described 655707
given 655628
m@@ 654281
less 653242
works 653178
total 652563
ship 650469
general 649692
next 648495
community 647961
These 647185
24 647153
European 646063
non 644994
returned 644881
ia 644289
ty 643397
est 642611
Park 642337
various 642226
even 639769
written 639037
tions 638685
General 638358
political 636801
point 636341
East 636325
elected 634319
created 633705
William 633510
ac@@ 633406
2000 633063
Re@@ 632820
From 630719
le@@ 627364
production 626110
lo@@ 625837
position 625789
ator 625470
re 623190
2004 622954
west 622769
win 621435
ex@@ 620878
ch 620598
21 620492
Mar@@ 618937
round 618389
a@@ 617532
tion 616512
take 616021
Church 615275
pre@@ 613841
im@@ 612390
it@@ 612162
over@@ 611571
times 610765
site 610329
Party 609811
v@@ 609595
India 608397
sub@@ 607670
Australia 607012
ology 606931
days 604725
formula 604369
ks 603441
level 603385
however 602401
By 602291
founded 601426
se@@ 601104
= 600720
! 600640
opened 599431
Council 599173
continued 598730
right 596502
ant 596486
few 594821
Army 594454
According 594348
France 594212
High 593535
students 593184
Street 592819
um 592344
formed 591837
inter@@ 589789
Mc@@ 587415
ter 586999
low 585868
100 585687
version 585260
military 582788
church 582014
match 581354
z@@ 581325
ap@@ 581100
B 579798
James 579566
O 579275
signed 579023
sp@@ 578604
Division 578057
King 577431
party 577396
ism 577247
region 577074
ot@@ 576823
i@@ 576818
con@@ 576142
George 576056
et@@ 575976
appointed 575811
without 575544
bo@@ 574971
east 574817
di@@ 570660
San 569402
22 568749
art 567037
event 566660
television 565076
making 564911
St. 564825
run 562525
lost 561837
om@@ 560548
considered 560012
together 558778
present 558554
President 557882
professional 557624
recorded 557340
California 557325
0 557283
li@@ 556469
ec@@ 556385
short 556074
ess 554766
half 554448
is@@ 553976
full 550946
America 550498
case 549884
international 548657
C 548107
working 547975
Canada 547502
In@@ 546686
language 546357
ro@@ 545087
red 544849
education 544483
debut 543939
style 543605
les 541810
research 541646
king 541627
2003 541113
&apos;t 540155
ad 539546
os 538554
x 538480
story 537535
program 536469
cr@@ 536115
class 535910
ets 535360
appeared 535000
ur@@ 533352
23 530955
Association 530412
ag@@ 530282
mon@@ 530069
op@@ 529910
further 529545
ic@@ 529377
wife 529291
With 528475
developed 527940
Le@@ 526368
em@@ 525650
TV 524536
ol@@ 522967
important 522130
Early 521687
Union 521606
playing 521039
2002 520569
term 518469
points 517928
areas 516162
po@@ 515759
While 514877
body 513688
release 512674
An@@ 512340
teams 511954
ties 511758
Con@@ 511335
league 510799
der 510536
video 510388
result 509863
2001 509826
lead 509193
away 509135
Royal 508832
ability 508569
se 506795
Indian 505977
ul@@ 505429
business 505420
office 505233
Australian 505029
ence 504800
addition 504664
av@@ 502818
“ 501247
control 501185
under@@ 500385
Co@@ 499840
” 499640
director 497433
every 497129
u@@ 496143
os@@ 496136
light 495894
la 495089
br@@ 494614
28 493994
popular 492300
although 491485
car@@ 491409
average 491389
common 491056
similar 490675
id@@ 490437
Award 490078
Championship 489625
Club 489220
list 488872
others 488556
mother 488355
26 488329
example 486759
design 486576
ti@@ 485941
social 485300
Germany 485164
27 483062
First 481730
ely 479352
ard 479099
ants 478893
across 478869
himself 477619
daughter 477116
race 476257
ten 476231
president 475558
project 474879
air 474702
ents 474640
St@@ 473555
finished 473396
ever 473157
te 472568
events 471586
David 471518
ve 470682
we 470540
China 470488
services 469849
Road 469723
ie 469637
ies 469359
Company 468933
Car@@ 468784
living 468345
out@@ 467660
ists 466168
... 466049
gt 466000
sold 463119
though 460201
ite 459513
live 459302
lt 458399
Central 457340
go 456380
Court 455997
D 455702
Some 454685
how 454592
Group 454264
ended 453670
ah 453587
1999 453215
ative 453077
ens 453072
be@@ 452934
Europe 452597
designed 452468
L 452330
stage 452327
months 451610
De@@ 451153
Music 450469
road 450436
free 449634
Se@@ 449627
uses 449406
followed 448989
ics 448846
available 448748
gave 448554
Thomas 447032
never 445990
he@@ 445193
completed 444415
str@@ 443992
Japanese 443341
taken 443135
construction 441717
Robert 441642
performed 440964
to@@ 440061
open 439786
ian 439683
29 439500
Japan 438894
official 438824
coach 438702
white 438336
track 438193
remained 438084
R 437815
oc@@ 437185
Air 436436
largest 435919
per@@ 435568
seven 435526
character 435467
young 433682
reported 433591
UK 433560
modern 433256
Washington 433246
An 432248
Charles 431953
leading 431771
par@@ 431382
Her 430619
should 430285
Center 430044
Hall 429788
see 429685
Tr@@ 429216
res@@ 427686
originally 427596
Western 427467
once 426925
songs 426634
pe@@ 425992
Th@@ 425825
active 425790
ir@@ 425770
ford 425241
Bar@@ 424951
players 424842
Other 424558
1998 424025
da 423797
ver@@ 423484
Par@@ 423376
tic 422780
great 422556
Department 422349
seen 421963
process 421576
current 421064
directed 420408
Russian 420024
return 419778
Paul 419594
Institute 419426
performance 419187
refer 419183
brother 419001
bi@@ 418406
groups 418340
currently 418262
study 418139
ish 417955
Although 417618
Since 417359
Col@@ 417185
post 417033
features 416573
includes 415743
bar@@ 415572
ling 414431
Chinese 413553
eight 413468
throughout 412781
training 411933
ai 411698
ay 411322
Canadian 411267
Island 410845
ages 410529
front 410156
our 410054
placed 409881
Society 408969
does 408789
sent 408382
help 408229
1996 408074
ey 408059
forces 407633
action 407120
featured 406907
awarded 405154
ya 405010
50 404674
get 404378
African 404377
ana 403222
ters 403116
involved 403069
usually 402770
1997 402333
ak@@ 401853
ler 400840
range 400536
information 399748
ice 399729
stated 399716
eventually 399559
w 399203
episode 398851
pl@@ 398592
schools 398243
ph@@ 397795
Minister 397560
wood 397398
good 396551
board 395701
fire 395113
act 394540
Its 394285
T 394177
ed@@ 394077
degree 392997
ves 392868
human 392266
you 391444
Academy 391217
central 391170
added 391168
countries 390481
saw 390450
Br@@ 390257
U 389698
come 389055
ful 388989
force 388759
ments 388682
Act 388509
court 388509
replaced 387239
close 386907
war@@ 386242
black 385871
families 385547
Women 385310
era 385207
r 384981
winning 384883
ing@@ 384495
ars 383949
ds 383583
31 383487
car 382981
competition 382909
fourth 382852
related 382597
Man@@ 382596
media 381948
private 381895
sur@@ 381684
Africa 381616
special 381394
either 381250
ying 380846
1995 380622
ak 380157
S 379967
parts 379683
ays 379576
Spanish 378951
El@@ 378585
previous 378574
provided 378255
F 377848
police 377806
tive 376766
1992 376479
rec@@ 375585
ri@@ 375579
ological 375551
college 375458
mo@@ 375236
center 375195
z 375139
gr@@ 374998
reached 374839
killed 374705
Great 374680
Cor@@ 374550
1994 374549
radio 374398
km 374345
den 374276
af@@ 374150
lies 373619
Lake 373377
ement 373097
must 372461
ka 371751
least 371624
To 371322
ness 371255
List 371179
Italian 370974
Michael 370876
change 370811
com@@ 370118
te@@ 370031
ne@@ 369978
ong 369680
pr@@ 369591
states 368913
Best 368586
owned 368573
person 368519
above 367962
type 367656
rights 367624
writing 367252
Henry 367096
listed 367024
attended 366556
ships 366427
air@@ 366018
scored 366017
trans@@ 365715
aircraft 365277
section 365239
ground 365219
Football 364873
introduced 364422
via 364328
Republic 364301
upon 363767
rock 362376
attack 362237
na 361670
dr@@ 361545
space 361068
changed 360771
room 360623
har@@ 360318
railway 360001
M 359763
campaign 359659
decided 359351
St 359190
ory 358885
.@@ 358488
wing 358275
contract 357785
Awards 356371
shows 356135
White 355957
Career 355883
bl@@ 355484
40 355050
size 355022
ob@@ 354915
put 354862
ina 354706
mid 354543
books 354517
female 353315
census 353125
Ireland 353024
1990 352844
1993 352579
western 352540
od@@ 351877
ner 351765
films 351241
1991 350586
defeated 350279
ins 349379
Museum 349293
Saint 349103
Texas 348322
market 348193
success 347915
il@@ 347677
previously 347582
goal 347319
il 346892
La 346745
ran 346543
model 346538
represented 346347
Be@@ 346001
X 345968
start 345857
river 345513
up@@ 345194
Kingdom 345061
us@@ 344968
rather 344845
Following 344592
instead 344514
tournament 344384
Education 344345
Christian 344271
buildings 343850
Two 343765
qu@@ 343171
studio 342988
met 342655
division 342347
Per@@ 342334
ise 342040
ches 341859
X@@ 341575
organization 341524
whose 341059
aw@@ 340685
provide 340498
Black 340363
wide 339947
ter@@ 338727
successful 338693
behind 338451
Peter 338417
ps 338207
lived 337987
sc@@ 337945
taking 337641
ically 337622
lower 337395
ses 337050
week 336894
night 336879
brought 336716
almost 336705
ho@@ 336693
health 336513
Roman 336470
Government 336073
Bo@@ 335972
Mon@@ 335872
self 335420
ded 335272
ut@@ 335185
Art 335175
closed 335004
Los 334971
novel 334787
lines 334150
data 333111
ge 333025
Paris 332504
Q@@ 332230
Grand 332028
forms 331096
movement 331089
no@@ 330584
E 330499
me 329884
possible 329876
Committee 329602
Catholic 329145
Me@@ 329090
stone 329006
En@@ 328924
Later 328681
units 328619
base 328049
um@@ 327971
soon 327907
approximately 327793
Championships 327713
significant 327446
Soviet 327321
Mary 327306
ell 326939
date 326723
dec@@ 326711
outside 326456
structure 325815
writer 325336
Ex@@ 325096
Zealand 325081
1989 324937
Mor@@ 324805
ach@@ 324483
allowed 324255
northern 323502
Smith 323152
primary 322675
especially 322377
industry 322136
ass@@ 321956
plays 321761
ge@@ 321600
runs 321600
Life 321422
too 320267
Am@@ 320264
interest 320175
southern 319349
Red 319259
Har@@ 318947
1st 318816
id 318806
cl@@ 318786
0s 318421
disambiguation 317748
ce 317507
ste@@ 317478
regular 316653
course 316366
ang@@ 316351
forced 316236
summer 316182
fe@@ 316005
island 315667
1988 315175
Richard 315000
woman 314962
ends 314895
ators 314367
beginning 314061
&#124; 314005
Olympics 313791
ne 313601
Di@@ 313561
spent 313553
cor@@ 313434
No. 312797
ville 312695
capital 312587
artist 312066
leader 311981
Bay 311848
systems 311716
end@@ 311697
key 311692
itself 311197
des 311186
ding 310832
Arts 310804
Virginia 310767
ani 310527
highest 310230
studies 310131
hit 310118
Summer 309442
Un@@ 309424
Most 309202
Festival 309018
little 308927
Chicago 308888
whom 308696
ma 308675
els 308336
location 308053
towards 307318
ev@@ 307152
ational 306905
sometimes 306865
ep@@ 305965
older 305625
Second 305505
traditional 305312
independent 305041
man@@ 304995
county 304815
P 304211
Records 304122
park 303757
plant 303663
higher 303406
child 303193
mer@@ 303171
opening 303098
magazine 302879
ra 302835
far 302675
length 302548
operations 302485
hand 302418
loss 302307
rest 302132
generally 301984
appearance 301692
bridge 301676
x@@ 301447
ure 301395
ick 301365
running 301168
studied 301132
Pr@@ 300986
Force 300806
seat 300622
Film 300324
route 300315
according 300027
ill 299971
noted 299472
culture 299232
army 299105
strong 299080
launched 299060
thus 298892
network 298527
Ro@@ 298431
Com@@ 298424
natural 298424
ward 298367
# 297967
acy 297937
ang 297810
ber@@ 297710
1987 297522
entered 297319
ines 297313
collection 297168
future 296633
pro@@ 296517
For@@ 296499
Italy 296451
below 295624
J. 295574
f 295534
G 295364
going 295312
required 295264
money 295240
un 295022
genus 294703
issues 294624
You 294502
Games 294391
eg@@ 293535
ake 293454
st 293363
Navy 293196
Mexico 293054
1986 292782
month 292495
Hill 292474
ade 292319
real 292107
A. 292066
Mo@@ 291943
cast 291033
cre@@ 290887
means 290712
practice 290639
tour 290389
sea 290061
Battle 289942
Many 289938
matches 289873
1984 289426
cur@@ 289322
ke 289312
operated 288961
col@@ 288024
earlier 288002
senior 287994
Northern 287928
Angeles 287833
changes 287568
ore 287463
Ne@@ 287307
centre 287162
Qu@@ 286810
bu@@ 286702
property 286696
bre@@ 286609
ality 286580
passed 286480
economic 286322
mis@@ 286320
complete 286280
results 286062
hi@@ 286024
cases 285812
ways 285634
aries 285333
gold 285316
we@@ 285184
If 285160
1980 285058
Str@@ 285017
Gu@@ 285003
companies 284297
ou@@ 284179
1985 284154
increased 283774
individual 283712
view 283653
singer 283276
ay@@ 283259
K 283245
Russia 283172
associated 282969
selected 282827
victory 282659
becoming 282631
numerous 282492
As@@ 282110
sion 281812
majority 281226
already 281170
anti 281069
min@@ 280991
Day 280714
port 280596
tional 280479
limited 280251
ens@@ 280026
decision 279879
Greek 279533
author 279347
ta 279316
cover 279304
Gr@@ 279251
ol 279003
manager 278882
her@@ 278870
contains 278709
Joseph 278685
find 278493
eh@@ 278405
competed 278285
me@@ 278226
ig@@ 277961
activities 277923
Mal@@ 277738
cap@@ 277645
v 276871
initially 276543
caused 276306
2nd 276242
serving 275816
commercial 275801
shot 275751
ni@@ 275538
award 275522
ov@@ 275508
love 275196
unit 275116
og@@ 275026
move 274665
income 274662
food 274200
issue 274194
terms 273956
ur 273641
annual 273638
kh@@ 273543
student 273369
Board 273255
supported 272741
certain 272481
Irish 272143
ously 272068
eb@@ 272065
1983 272022
ected 271857
personal 271594
trade 271586
fall 271508
nine 271365
ese 271352
wh@@ 271343
access 271300
ot 271257
N 271212
der@@ 271110
mostly 271048
retired 271047
ale 270915
staff 270893
Wales 270682
artists 270667
Florida 270600
fl@@ 270525
rate 270474
tics 270445
Sir 270396
V 270145
eastern 270047
Route 270019
ats 269967
goals 269834
Service 269738
additional 269726
+ 269469
standard 269289
ata 269136
ently 269088
better 269035
Or@@ 268726
mar@@ 268475
ry 268388
characters 268386
Pacific 268254
chief 268185
Sch@@ 268094
4@@ 268083
ending 268023
municipality 267972
university 267590
Research 267491
elections 267291
1982 267271
particularly 267184
tors 267038
thought 266619
past 266423
fact 266055
word 265285
Southern 265058
my 264974
husband 264761
Assembly 264613
pi@@ 264573
edition 264419
claimed 264189
religious 263629
Mac@@ 263148
-@@ 263048
officer 262654
Valley 262549
1979 262444
plan 262118
management 262095
He@@ 261920
Ad@@ 261916
entire 261822
parents 261774
3@@ 261442
ah@@ 261390
famous 261286
ited 261249
ess@@ 261199
1972 261177
Bur@@ 260985
create 260463
subsequently 260322
Ma@@ 260297
Year 260051
Congress 259942
politician 259707
Louis 259520
give 259454
That 259239
Public 259135
remains 258820
championship 258807
Parliament 258544
feature 258511
Al 258509
evidence 258484
ik@@ 258369
ders 258311
medical 258201
engine 258192
legal 258006
super@@ 257734
ae 257438
face 257289
10@@ 257152
bur@@ 257068
battle 257067
? 256955
ils 256919
Ab@@ 256708
programs 256671
status 256633
ee 256578
earned 256527
relationship 256506
science 256449
Spain 256444
hours 256434
raised 256396
musical 255976
turn 255951
Ber@@ 255950
Province 255802
names 255668
today 255166
tor@@ 255015
Jewish 254579
ised 254089
ency 253997
report 253777
Old 253702
friend 253603
operation 253444
ker 253285
19th 253265
1976 253257
Commission 253225
lin@@ 253159
score 253048
sports 252919
1981 252911
ery 252835
Law 252699
ects 252609
alism 252529
fo@@ 252379
ber 252220
sister 252084
1974 252049
particular 251933
Their 251901
helped 251806
1945 251695
got 251634
Democratic 251452
Cr@@ 251374
sing 251265
referred 251010
actor 250839
weeks 250804
Times 250783
presented 250586
Ac@@ 250265
rel@@ 250173
1970 250066
meeting 250038
ain 249985
Martin 249844
larger 249831
1968 249435
Science 249059
Railway 249015
material 248750
1975 248700
asked 248635
shown 248471
energy 248442
turned 248378
believed 248162
1978 248150
likely 248101
response 248092
so@@ 247996
istic 247816
complex 247669
aged 247614
Despite 247586
weight 247571
Queen 247461
ched 247393
minutes 247376
Empire 247206
fied 247101
def@@ 246854
Pro@@ 246528
failed 246456
seasons 246254
leaving 246032
pres@@ 245993
200 245900
di 245818
longer 245758
deal 245742
stations 245718
Green 245674
basketball 245485
ci@@ 245432
mission 245421
det@@ 245184
ane 245112
Bal@@ 245069
specific 244953
star 244506
az@@ 244355
aired 244285
composed 244233
acquired 243954
Line 243533
People 243327
sw@@ 243280
Personal 243128
surface 243069
Lord 243056
increase 243019
ion 242962
reg@@ 242898
carried 242826
takes 242557
tri@@ 242528
ides 242347
tical 242094
issued 242026
Eastern 241981
policy 241926
covered 241762
houses 241719
But 241625
ching 241619
lands 241618
footballer 241432
multiple 241402
financial 241362
fight 241357
themselves 241327
constructed 241233
Big 240920
offered 240820
1973 240806
theory 240776
cost 240762
overall 240745
ell@@ 240701
1977 240686
FC 240547
ish@@ 240489
Conference 240442
graduated 240355
und@@ 240310
mainly 240216
Town 240207
need 240015
regional 240013
federal 239922
Chief 239829
Series 239765
latter 239529
remaining 239514
ara 239445
promoted 239356
ov 239247
native 239233
ru@@ 239066
starting 238862
let 238754
care 238714
Edward 238628
atic 238626
ino 238503
vote 238176
2@@ 237877
III 237830
Radio 237462
Station 237279
ill@@ 237267
acted 237193
Carolina 237084
1971 236999
source 236903
subject 236883
bs 236869
Po@@ 236790
ys 236644
proposed 236626
ā@@ 236093
male 236073
direct 236043
ains 236012
troops 235749
1969 234994
5@@ 234985
Star 234957
consists 234740
effect 234720
cat@@ 234668
Lo@@ 234661
medal 234559
Go@@ 234159
Britain 234141
variety 233899
Poland 233845
cities 233816
marriage 233804
individuals 233774
du@@ 233522
60 233509
separate 233353
ach 233191
master 233096
cultural 233088
appears 232741
ow@@ 232430
1980s 232384
train 232305
do@@ 232140
Dutch 231896
appearances 231896
command 231784
moving 231500
su@@ 231441
recording 231249
Team 231231
ha 230907
acting 230600
experience 230575
department 230428
ick@@ 230359
1967 230207
test 230180
Brown 230174
Lee 230089
civil 230008
Te@@ 230007
speed 229976
middle 229924
prior 229864
ica 229752
tracks 229747
influence 229635
square 229588
done 229496
65 229478
society 229433
meaning 229230
historical 228483
always 228323
titled 228313
Bank 228293
producer 228259
fifth 227982
directly 227967
professor 227657
ect 227608
divided 227464
coming 227368
pe 227273
broadcast 227165
Biography 227106
Ho@@ 226995
despite 226931
ase 226847
ath 226600
enti@@ 226523
Pe@@ 226479
contr@@ 226357
discovered 226280
20th 226250
ati@@ 226223
Man 226181
ked 226073
den@@ 226057
ir 225929
foreign 225721
attempt 225650
conditions 225361
£ 225121
1964 225057
Open 225024
quality 224760
ast 224756
responsible 224717
mas@@ 224619
provides 224553
managed 224522
bank 224501
Both 224337
row 224282
Prince 224244
arrived 223928
Mer@@ 223720
Dr. 223704
records 223594
Creek 223296
ized 223256
serve 223114
administrative 223082
Love 222711
ished 222700
news 222670
Another 222643
wanted 222583
Asian 222422
Under 222296
Inter@@ 222236
and@@ 222102
sound 222076
Is@@ 222075
Dis@@ 221909
nearly 221852
1970s 221732
vi@@ 221528
finally 221438
We 221123
recent 220837
si@@ 220554
0.@@ 220280
2022 220205
nearby 220144
Scotland 220059
Sp@@ 220054
ington 219890
Pennsylvania 219854
border 219830
ged 219818
technology 219795
tor 219771
Senate 219742
Kar@@ 219635
Hol@@ 219474
ins@@ 219445
sk@@ 219281
extended 219253
trial 219221
transferred 219068
Theatre 218997
ids 218987
cut 218890
movie 218815
Kh@@ 218743
plans 218675
Pol@@ 218583
organized 218419
essed 218298
told 218236
W 218222
problems 218038
ney 217909
inc@@ 217815
comes 217749
hold 217692
1965 217536
Latin 217462
Mark 217333
enough 217212
500 216800
fish 216777
Development 216478
H 216400
officially 216345
ites 216334
participated 216314
province 216304
ple@@ 216228
Jones 216226
pur@@ 216217
might 216144
rural 215865
can@@ 215794
fin@@ 215758
council 215621
text 215376
ball 215334
att@@ 215321
prot@@ 214671
saying 214565
alongside 214545
primarily 214536
products 214514
Order 214505
heavy 214375
Cal@@ 214371
ades 214365
1960 214233
tu@@ 214085
bor@@ 213977
ring 213810
1966 213786
workers 213748
hom@@ 213711
mat@@ 213674
function 213633
Foundation 213629
Men 213559
allow 213541
pre 213363
gu@@ 213248
br 213212
esses 213134
pos@@ 213009
cause 212999
residents 212870
ue 212846
ns 212839
ek 212837
Min@@ 212776
Michigan 212388
review 212346
atory 212326
Boston 212156
Governor 212010
ene 211952
leave 211845
positive 211791
1944 211662
channel 211659
elements 211560
Civil 211466
value 211238
Republican 211192
God 211071
Health 211043
oil 211017
candidate 211006
double 210898
levels 210793
Centre 210771
appear 210684
ent@@ 210648
lers 210523
editor 210470
gen@@ 210441
45 210401
C. 210190
here 210172
produce 210007
Bre@@ 209905
Francisco 209836
firm 209806
1990s 209757
Ohio 209694
places 209692
nature 209438
table 209359
Mas@@ 209135
im 208984
try 208983
friends 208979
arch@@ 208947
newspaper 208934
idea 208897
Young 208709
ones 208643
whether 208237
don 208200
makes 208090
lack 208073
ots 208035
host 207877
historic 207825
renamed 207480
grew 207465
fre@@ 207325
ises 207274
M. 207260
ards 207194
Johnson 207093
Secretary 207086
yard 207059
equ@@ 207045
ash@@ 206970
Asia 206784
Bel@@ 206762
whole 206758
No 206737
Her@@ 206728
ari 206655
households 206621
assigned 206521
fully 206440
activity 206400
ano 206318
call 206122
Scottish 206103
draw 206021
cross 205930
ws 205761
Bi@@ 205750
Director 205611
vers 205567
numbers 205444
mm 205426
ky 205354
ordered 205247
build 205146
Rec@@ 205077
Ver@@ 205075
Polish 205011
ain@@ 204967
1960s 204960
projects 204958
hospital 204930
8@@ 204916
emb@@ 204641
ant@@ 204610
growth 204577
Sal@@ 204417
loc@@ 204344
lives 204258
sed 204243
ala 204022
Major 204014
cas@@ 203829
Sea 203731
7@@ 203631
words 203630
Israel 203314
stars 203241
Alexander 203057
aging 203017
est@@ 203009
executive 202998
Char@@ 202988
rule 202905
ini 202820
continue 202749
Williams 202702
ger 202632
ering 202426
officers 202357
giving 202342
planned 202249
conducted 202166
Fr@@ 202140
union 202016
ams 201961
label 201947
off@@ 201778
yl@@ 201772
ered 201746
ra@@ 201651
tw@@ 201616
Georgia 201532
press 201488
security 201359
D. 201221
ti 201089
pol@@ 200911
worth 200907
letter 200850
ella 200828
intended 200765
BC 200757
notable 200731
prominent 200578
ably 200513
ette 200496
Three 200435
6@@ 200358
ile 200243
Office 200221
Avenue 200151
sec@@ 200025
und 200007
stop 199956
Im@@ 199925
Highway 199572
forward 199515
Columbia 199475
females 199465
ately 199165
chart 199083
inv@@ 199039
ained 199031
dy 198935
El 198903
1963 198744
1962 198546
berg 198497
ye 198294
scene 198138
coast 198030
minor 198007
agreed 197892
highly 197820
soldiers 197808
owner 197778
effects 197716
Su@@ 197612
Fort 197512
Family 197454
races 197339
gener@@ 197236
revealed 197153
treatment 197072
removed 197062
stories 197038
inf@@ 197004
formerly 196915
Li@@ 196838
ath@@ 196828
commonly 196816
Bill 196738
parish 196727
ancient 196720
basis 196439
sions 196427
capacity 196387
Sc@@ 196320
Also 196221
Middle 196057
designated 196032
1942 196026
youth 196018
eth@@ 195946
ke@@ 195895
ging 195854
dem@@ 195819
1948 195793
sites 195750
Super 195510
administration 195375
Corps 195246
ha@@ 195245
distance 195127
smaller 195098
tur@@ 195071
follows 194803
au 194791
9@@ 194783
ms 194691
alized 194575
My 194454
quickly 194419
dedicated 194375
ths 194158
sho@@ 194134
singles 193992
Sydney 193935
agreement 193894
Hospital 193879
ster 193741
ta@@ 193730
nation 193421
ishes 193375
floor 193200
awards 193155
ned 193003
assistant 192998
expected 192991
fellow 192919
ography 192766
BBC 192753
drama 192452
wor@@ 192244
Tour 192241
mixed 192192
We@@ 192038
Ke@@ 191885
Bor@@ 191877
ture 191857
the@@ 191821
Historic 191782
yet 191704
Coast 191656
leaders 191595
color 191592
settlement 191557
Mat@@ 191464
1940 191387
ari@@ 191287
News 191232
paper 191069
efforts 190995
1941 190929
pass 190811
purchased 190741
3rd 190429
initial 190365
marked 190252
1961 190093
relations 190086
lot 190042
sky 190027
cars 190016
median 189999
winner 189937
eds 189856
Ministry 189698
J 189684
Jack 189511
1939 189482
Of 189437
immediately 189402
B. 189395
potential 189380
Ser@@ 189297
tly 189254
Little 189149
estimated 189058
respectively 188821
Tri@@ 188707
Val@@ 188678
1946 188578
ances 188509
defeat 188500
founder 188345
join 188315
Bl@@ 188171
ty@@ 188151
facilities 188115
Blue 188048
35 188010
kn@@ 187980
charge 187836
Federal 187605
ac 187567
igh@@ 187382
Sur@@ 187379
au@@ 187219
featuring 187064
anti@@ 187008
E. 187006
formation 186956
arms 186839
sive 186727
probably 186703
lu@@ 186694
poor 186626
ace 186559
typically 186547
Jersey 186504
compared 186497
1956 186371
ements 186333
ita 186290
Olympic 186183
identified 186114
scale 186053
focus 185996
types 185984
clubs 185700
ities 185681
Illinois 185674
Cre@@ 185666
conference 185663
piece 185625
Mad@@ 185589
percent 185503
Sub@@ 185485
needed 185332
inside 185298
80 185285
article 185239
declared 185176
1943 185071
gained 184998
green 184923
Pre@@ 184722
physical 184719
gun 184708
upper 184657
So@@ 184468
ole 184176
Dr@@ 184095
attention 184078
paid 184029
Scott 184026
finals 183980
destroyed 183920
hosted 183907
alist 183890
CD 183700
housing 183687
S. 183674
Post 183664
ten@@ 183601
ett 183548
ind@@ 183490
operating 183445
pay 183433
positions 183392
ki 183391
Jean 183328
cu@@ 183220
format 183204
amount 183173
crew 183168
hol@@ 183133
Victoria 183091
museum 183012
miles 182995
largely 182959
W. 182806
reach 182737
Pi@@ 182684
Earth 182643
ko 182591
Airport 182566
languages 182417
Justice 182379
Berlin 182288
1950 182224
adopted 182213
enc@@ 182193
roles 182143
Rock 182139
committee 182121
widely 181993
ences 181897
1958 181702
suffered 181510
Wil@@ 181429
online 181386
wall 181373
fr@@ 181359
estate 181351
street 181334
Frank 181022
ire 181001
speci@@ 180989
des@@ 180938
1947 180849
branch 180622
leaves 180532
War@@ 180372
accepted 180360
1959 180359
ranked 180307
eng@@ 180274
sons 180258
H. 180105
territory 180099
tically 179959
communities 179906
votes 179742
yards 179724
cer@@ 179672
confirmed 179652
captured 179559
ard@@ 179472
q@@ 179459
distribution 179458
ran@@ 179450
website 179340
reviews 179238
sources 179193
mot@@ 179137
minister 179109
sex 179064
flight 179050
pressure 178979
hard 178935
Each 178831
cell 178809
keep 178677
direction 178595
occurred 178495
sel@@ 178279
Kong 178252
teacher 178220
ma@@ 178205
taught 178146
Iran 178119
Mount 178091
scoring 178029
computer 178011
post@@ 178006
iz@@ 177968
job 177947
spring 177897
Corporation 177854
FM 177820
del 177719
fer@@ 177641
semi 177619
ok@@ 177587
academic 177472
ok 177467
Hong 177436
approach 177396
tree 177343
Ros@@ 177271
dance 177221
meet 177173
ren@@ 177171
episodes 177151
resulted 177069
Can@@ 177001
gas 176940
product 176896
1957 176645
serves 176175
elling 176169
leadership 176149
ja 176042
del@@ 175849
combined 175840
Supreme 175806
recognized 175806
concept 175765
Before 175695
Islands 175623
Ste@@ 175548
Mah@@ 175494
Massachusetts 175472
ist@@ 175419
32 175414
losing 175362
plants 175352
char@@ 175350
not@@ 175310
alone 175144
Fre@@ 175097
oned 174900
Gar@@ 174870
purpose 174762
90 174670
campus 174645
critical 174618
Sports 174431
metal 174421
Stadium 174362
mass 174332
recently 174054
silver 174029
box 173949
Korea 173920
nominated 173911
analysis 173909
presence 173902
bas@@ 173886
titles 173796
platform 173724
ham 173714
Wal@@ 173645
code 173515
mentioned 173507
camp 173165
method 173123
equipment 173087
ek@@ 173080
Bishop 173045
therefore 173008
Time 173006
Elizabeth 172899
felt 172898
om 172819
Professor 172716
é 172688
prison 172684
Tom 172683
ea 172618
expanded 172580
70 172570
actions 172468
1952 172293
fell 172118
albums 172095
heart 172040
Background 172019
store 171994
Reg@@ 171992
ys@@ 171900
birth 171864
pu@@ 171843
connected 171767
ze 171756
Mil@@ 171743
difficult 171559
Home 171504
Pakistan 171426
Born 171403
buried 171313
Santa 171199
account 171150
offers 171128
urban 171122
go@@ 171061
Cas@@ 171039
parties 170931
1949 170873
image 170714
1955 170643
secondary 170598
remain 170566
Library 170538
Duke 170536
bus 170532
land@@ 170525
reduced 170175
Swedish 170054
growing 170038
Ko@@ 169962
R. 169861
von 169727
except 169716
sol@@ 169542
Final 169499
performances 169369
Geography 169364
voice 169325
clear 169253
pop 169164
Police 169119
mor@@ 169098
Don 168917
newly 168911
Er@@ 168879
Prime 168840
champion 168763
Top 168699
solo 168631
defined 168591
ear@@ 168566
fields 168558
digital 168449
ection 168359
flo@@ 168338
ap 168335
literature 168283
content 167786
Atlantic 167784
inspired 167707
Hor@@ 167612
ago 167563
van 167513
hip 167430
Toronto 167417
Sar@@ 167406
versions 167403
1954 167372
ight 167328
mountain 167261
twice 167177
rules 167148
sal@@ 167054
granted 167020
painting 167018
density 167007
j 166955
met@@ 166825
models 166777
Gre@@ 166751
ective 166623
ided 166384
prec@@ 166240
true 166145
problem 166049
organizations 166013
resulting 165908
Joe 165872
figure 165816
surname 165783
break 165704
minute 165501
ada 165440
spread 165417
Do@@ 165390
aling 165321
Mus@@ 165315
Brazil 165194
existing 165177
1953 165109
De 165068
disease 165024
damage 164984
To@@ 164961
chairman 164941
contemporary 164781
Cross 164675
couple 164546
generation 164512
tax 164384
Media 164273
ama 164227
sa 164107
Ontario 164104
em 164065
faced 164034
share 164013
suggested 163931
Nations 163814
quarter 163626
ust 163551
Jackson 163490
males 163441
ls 163420
background 163405
obtained 163368
seats 163223
arts 163167
creation 163129
ff 163113
Cur@@ 163099
Kr@@ 163062
arm@@ 163036
surrounding 163030
travel 163027
4th 163018
1,@@ 163007
kept 162913
Bridge 162733
offer 162695
sides 162370
actually 162287
2.@@ 162263
lin 162192
showed 162166
acts 162106
Ge@@ 162035
continues 162009
comedy 161985
ao 161942
providing 161909
ologist 161859
64 161807
ingly 161725
cells 161714
head@@ 161441
ser@@ 161414
high@@ 161367
twenty 161348
Des@@ 161321
1918 161279
Me 161193
P. 161175
comp@@ 161121
Far@@ 161116
officials 161108
Ph@@ 161037
Sw@@ 160989
Rome 160952
ock 160775
Military 160721
Premier 160634
bar 160602
Korean 160543
Social 160534
develop 160532
association 160527
gi@@ 160515
Philadelphia 160492
Sol@@ 160464
successfully 160392
1@@ 160332
Game 160321
greater 160240
ecting 160199
ges 160171
ann@@ 160164
ts@@ 160137
occupied 159980
finish 159905
teaching 159863
politics 159804
Show 159721
Kal@@ 159707
1951 159619
ide@@ 159474
Sam@@ 159301
Tor@@ 159288
injury 159225
entry 159198
die 159177
know 159159
ble 159114
ong@@ 159111
ash 159108
bed 159008
USA 158970
forest 158966
oth@@ 158947
tower 158931
split 158918
says 158828
necessary 158815
Super@@ 158784
1936 158722
va 158697
claims 158655
Township 158516
billion 158497
ca 158495
‘ 158483
Long 158468
becomes 158251
sets 158000
Ag@@ 157897
Book 157834
feet 157733
Gal@@ 157704
tried 157665
attacks 157597
Because 157591
authorities 157545
stor@@ 157506
At@@ 157488
guitar 157476
metres 157460
Regiment 157432
1920 157329
receive 157268
oph@@ 157218
Over 157168
ells 157118
San@@ 157035
festival 156956
eding 156918
1938 156836
governor 156827
knowledge 156765
Ram@@ 156722
ack 156694
regions 156628
Among 156597
situated 156438
succeeded 156344
Netherlands 156283
Sun 156200
kin 156161
Community 156138
Wilson 156121
sexual 156107
sen 156012
interview 156010
villages 155965
lake 155944
ni 155905
Dec@@ 155705
Mr. 155699
impact 155668
opposed 155655
arrested 155650
sixth 155555
effort 155465
applied 155464
traffic 155401
block 155338
younger 155325
iled 155322
stand 155310
ass 155275
opposition 155263
Pan@@ 155237
rank 155234
bul@@ 155211
wo@@ 155180
ening 155104
kind 155048
ened 155037
library 155025
employed 154985
ew@@ 154930
Billboard 154833
Pl@@ 154810
Mur@@ 154804
300 154732
ou 154707
effective 154692
Du@@ 154642
bat@@ 154488
sum@@ 154434
tradition 154421
ome 154376
unique 154365
dead 154356
scientific 154350
Captain 154339
Between 154248
Pal@@ 154243
blue 154224
ax@@ 154176
gives 154148
arr@@ 154123
mid@@ 153980
sales 153932
headquarters 153926
compl@@ 153645
Daniel 153414
ung 153376
captain 153094
idae 153053
ports 152932
elec@@ 152905
facility 152891
tells 152851
holds 152782
hour 152774
Lady 152636
goes 152591
du 152582
Like 152561
sey 152539
approved 152445
Andrew 152366
baseball 152331
figures 152330
Technology 152321
Mag@@ 152314
allowing 152173
commander 152139
Red@@ 152110
fighting 152065
400 151954
commissioned 151897
Ban@@ 151816
ba@@ 151773
ce@@ 151762
software 151756
dark 151703
sen@@ 151700
Business 151611
mark 151568
qualified 151514
look 151439
back@@ 151389
trains 151352
tre@@ 151302
Due 151300
climate 151300
squad 151284
classes 151268
settled 151258
Special 151256
theatre 151256
big 151213
cannot 151118
returning 151105
completely 151069
sn@@ 151059
critics 151023
bers 150994
views 150827
44 150785
situation 150650
visit 150629
Sweden 150624
1950s 150585
laws 150543
risk 150532
claim 150525
electric 150525
eless 150518
Death 150488
Taylor 150471
amp@@ 150471
ads 150468
que 150423
Arthur 150369
Register 150293
Field 150280
log@@ 150224
Port 150105
ff@@ 150100
Ben@@ 150064
ual 150058
allows 149977
brothers 149933
simply 149924
Dar@@ 149902
ili@@ 149890
1919 149850
notes 149843
Oxford 149779
blood 149725
Mike 149701
1937 149627
promotion 149445
bought 149370
ans@@ 149222
yn@@ 149190
iting 149143
sign 149119
Maria 149109
tion@@ 149089
cle@@ 149075
boat 148997
any@@ 148984
visited 148980
deep 148960
achieved 148902
grade 148885
environment 148833
Castle 148745
refused 148622
materials 148613
chosen 148601
Gen@@ 148576
advanced 148527
oldest 148453
che@@ 148408
Medical 148378
ests 148378
ested 148360
hall 148144
Emperor 148131
Mountain 148109
ati 148070
frequently 148053
rep@@ 147991
ali@@ 147874
And 147837
ona 147775
reports 147775
bro@@ 147698
Golden 147597
relatively 147568
Fl@@ 147543
ey@@ 147503
Americans 147479
elled 147334
por@@ 147333
boy 147324
imp@@ 147322
onal 147278
tries 147269
Y 147068
aff@@ 147010
all@@ 146749
rac@@ 146721
ning 146679
industrial 146586
ving 146488
Van 146425
merged 146425
Le 146422
portion 146417
drive 146314
ories 146287
Four 146265
brand 146202
Francis 146190
int@@ 146066
Several 146063
Es@@ 145853
mer 145773
things 145727
ough 145717
credited 145672
ures 145625
household 145606
joining 145583
hand@@ 145510
Press 145493
theme 145485
ret@@ 145467
1930 145450
Junior 145373
publication 145329
read 145329
begins 145322
temple 145180
transport 145121
Master 145057
actress 145050
mile 145022
ref@@ 144956
za 144921
creating 144916
rise 144868
ex 144735
Cl@@ 144713
Ash@@ 144654
standing 144649
focused 144578
murder 144381
tim@@ 144330
ular 144243
authority 144218
tic@@ 144196
broke 144164
starring 144090
1.@@ 143957
if@@ 143928
something 143913
foot 143858
rooms 143813
enter 143764
bury 143719
Nor@@ 143675
° 143627
Tur@@ 143531
1917 143395
00 143341
transfer 143262
1914 143246
Beach 143235
consisted 143212
ast@@ 143197
ab 143172
founding 143120
Davis 143080
les@@ 143043
bring 143008
fans 142960
wards 142937
eman 142926
Chris 142912
pair 142762
graduate 142614
ly@@ 142531
sl@@ 142489
Plot 142452
Journal 142332
1935 142313
ented 142268
fought 142266
ver 142259
Federation 142233
conflict 142212
attempted 142122
architecture 142062
amb@@ 141990
1933 141956
ored 141925
Region 141912
subsequent 141848
concert 141817
Del@@ 141781
NCAA 141675
Network 141547
audience 141514
unable 141484
bal@@ 141480
of@@ 141426
ft 141379
Minnesota 141330
iv@@ 141318
supply 141224
Whit@@ 141186
retirement 141130
agent 141043
origin 140984
follow 140948
apped 140939
Today 140920
roads 140847
begin 140834
cycle 140834
say 140818
op 140801
Prize 140764
lam@@ 140744
selling 140654
partner 140620
safety 140574
attacked 140533
acc@@ 140494
spe@@ 140452
principal 140350
performing 140340
dates 140264
defense 140211
hor@@ 140140
districts 140127
acks 140082
methods 140082
medi@@ 140070
perform 140044
girl 140035
gl@@ 140010
path@@ 139987
18th 139937
No@@ 139911
prevent 139853
Mexican 139812
shared 139808
receiving 139675
daily 139663
joint 139545
ough@@ 139516
dropped 139474
entitled 139403
vice 139277
Tar@@ 139274
covers 139246
onic 139174
ights 139163
animals 139119
33 139055
Co 139014
L. 138993
pot@@ 138981
ji 138966
reason 138935
Inc. 138911
winter 138839
5th 138836
beat 138834
ez@@ 138741
sch@@ 138732
fi@@ 138708
EP 138666
ere 138530
protection 138527
engineering 138430
economy 138426
1928 138260
Fe@@ 138185
inger 138162
wel@@ 138114
ve@@ 138087
aks 138002
ther@@ 138002
ization 137973
Bob 137952
setting 137948
expansion 137865
Reception 137856
reference 137851
unknown 137792
1929 137774
36 137765
volume 137765
representing 137721
write 137625
ancy 137592
sense 137495
ading 137473
trees 137465
exchange 137337
determined 137259
Mel@@ 137249
Pres@@ 137199
75 137178
System 137172
morning 137172
0@@ 137155
crime 137059
mayor 137048
machine 137040
ame 137023
girls 136896
presidential 136816
ail 136721
fiction 136643
onto 136547
Steve 136541
towns 136535
represent 136513
Gold 136500
aya 136322
Forest 136318
Gro@@ 136286
edge 136248
á@@ 136207
tle 136166
attempts 136159
Kansas 136128
permanent 136096
normal 136004
1934 135947
regul@@ 135875
Z 135831
highway 135749
pat@@ 135702
tro@@ 135621
card 135609
scheduled 135601
contributed 135565
Jr 135564
extensive 135560
cru@@ 135513
Ol@@ 135496
increasing 135463
Melbourne 135450
stream 135386
Area 135378
cancer 135364
demonstr@@ 135309
articles 135307
converted 135249
shortly 135226
Description 135059
zed 135054
bronze 135031
memory 134978
resources 134951
io 134882
containing 134875
arian 134866
guest 134840
grounds 134779
influenced 134770
AC 134731
Missouri 134708
Sunday 134697
ultimately 134688
Gor@@ 134659
hockey 134644
Pur@@ 134635
vehicles 134585
pieces 134567
derived 134532
copies 134472
hood 134420
Fox 134312
e.g. 134300
thr@@ 134238
institutions 134198
pped 134178
ola 134141
fast 134085
Moscow 134053
Muslim 134025
global 133982
Memorial 133979
constituency 133975
guns 133912
locations 133867
trac@@ 133764
AS@@ 133735
learning 133719
racing 133713
structures 133648
ali 133593
citizens 133565
Jim 133503
meant 133487
net 133484
documentary 133483
Stephen 133471
Country 133407
educational 133402
Lewis 133296
La@@ 133285
farm 133272
Night 133241
holding 133161
controlled 133067
Wisconsin 133065
cour@@ 133033
Cape 132983
rail 132959
ault 132954
properties 132935
US@@ 132908
fly 132900
letters 132802
Sa@@ 132711
sector 132690
ura 132632
simple 132516
aid 132488
Power 132482
ena 132479
maximum 132406
phase 132368
flow 132359
water@@ 132341
airport 132276
1932 132159
More 132144
ved 132089
FA 132047
hands 132002
NFL 131996
tered 131988
i.e. 131976
Live 131970
suff@@ 131958
peace 131913
ine@@ 131894
1924 131868
stock 131856
birds 131710
centuries 131690
headed 131685
ski 131683
bound 131671
Project 131637
alization 131575
F. 131527
lets 131493
onian 131485
34 131462
lyrics 131445
powerful 131367
drug 131359
Turkish 131347
cher 131289
domestic 131285
aka 131274
counter@@ 131187
Cro@@ 131160
passing 131129
hi 131098
syn@@ 130966
condition 130941
establishment 130883
q 130868
ech@@ 130841
Turkey 130839
funding 130827
od 130817
offices 130690
launch 130656
sought 130642
laid 130579
aj@@ 130575
Point 130529
Kur@@ 130522
ai@@ 130437
Sciences 130424
Queensland 130401
1922 130382
beyond 130271
Ti@@ 130250
Ap@@ 130245
Television 130234
non@@ 130215
application 130167
pal@@ 130141
yellow 130090
doing 130050
ner@@ 130033
Philippines 130030
Production 130013
aded 129996
factory 129974
Is 129942
Norway 129896
castle 129806
independence 129760
Vietnam 129733
identity 129731
ato 129652
expressed 129449
Ha@@ 129447
supporting 129381
low@@ 129358
bands 129352
ulation 129349
recognition 129297
matter 129277
occurs 129218
contact 129162
ban 129143
Upon 129120
gs 129064
vehicle 129021
walls 128940
invited 128887
eded 128872
Sel@@ 128841
finishing 128837
consecutive 128828
tier 128819
slightly 128733
borough 128698
1927 128686
Prior 128684
stay 128659
Tennessee 128598
proved 128596
producing 128569
our@@ 128564
looking 128537
core 128532
functions 128475
Wh@@ 128449
fa@@ 128432
bill 128428
ack@@ 128402
bit 128378
reasons 128346
shop 128285
je@@ 128252
armed 128242
1921 128241
Jews 128226
Ri@@ 128212
fac@@ 128192
Channel 128137
Dun@@ 128126
height 128124
candidates 128123
Song 128113
Pen@@ 128106
lie 128101
Land 128084
temperature 128080
Ter@@ 128078
micro@@ 128034
developing 127917
technical 127765
Manchester 127757
alternative 127699
ora 127647
Cambridge 127645
Khan 127511
1912 127459
rot@@ 127436
category 127389
1931 127367
royal 127353
Ger@@ 127340
scre@@ 127332
aled 127312
Native 127263
fleet 127257
Pat@@ 127228
contained 127226
lab@@ 127192
gar@@ 127182
educated 127155
search 127132
ores 127117
Building 127087
sport 126981
yan 126933
want 126856
Chi@@ 126828
writers 126804
Norwegian 126778
stat@@ 126712
orders 126709
kl@@ 126670
osis 126665
judge 126647
journalist 126646
38 126622
hotel 126601
needs 126583
architect 126564
protein 126551
Maryland 126512
gro@@ 126489
mel@@ 126425
IV 126399
abandoned 126397
ols 126394
Class 126378
Indiana 126372
ef@@ 126368
existence 126357
G. 126354
mann 126258
mental 126250
violence 126244
COVID 126103
horse 126066
rugby 126051
Studies 126037
Notable 125999
adi@@ 125973
Colorado 125869
loan 125839
stating 125783
Christmas 125777
la@@ 125763
investigation 125734
Tournament 125704
Services 125661
Labour 125599
acked 125523
door 125431
ean 125400
1925 125350
ony 125350
cont@@ 125348
Hot 125297
negative 125250
mus@@ 125249
ut 125227
brown 125165
ices 125118
refers 125105
decades 125090
Austria 125067
tures 125051
wer 125002
patients 124991
voted 124987
screen 124888
speech 124870
bodies 124840
Portuguese 124834
ger@@ 124797
ier 124787
incorporated 124757
cal@@ 124748
Affairs 124728
combat 124660
basic 124634
New@@ 124600
enemy 124514
multi 124501
1923 124480
hal@@ 124374
poly@@ 124346
hired 124317
shaped 124219
hu@@ 124152
Then 124145
Q 124105
Kil@@ 124101
chi@@ 124035
operate 124023
resigned 123943
1926 123856
literary 123849
maintained 123823
planning 123816
honor 123810
Harry 123797
stri@@ 123728
trained 123724
amed 123718
Infantry 123717
uk@@ 123650
registered 123649
DC 123630
edi@@ 123618
composer 123533
straight 123531
connection 123451
ide 123432
Albert 123382
The@@ 123375
ceremony 123344
Arizona 123335
explo@@ 123314
kill 123255
herself 123198
reaching 123190
exhibition 123179
argued 123175
establish 123093
mine 123048
ba 123011
tel@@ 122977
affected 122968
nuclear 122921
Bas@@ 122896
funds 122891
grand@@ 122885
1910 122868
Pas@@ 122845
Az@@ 122803
Hal@@ 122796
Wood@@ 122766
Foreign 122672
1916 122664
regarding 122648
illa 122610
installed 122556
representative 122501
Walter 122493
rear 122484
mand@@ 122477
pul@@ 122431
collected 122428
Res@@ 122381
ison 122329
junior 122324
Revolution 122307
hy@@ 122305
Mu@@ 122262
Ly@@ 122172
1915 122062
Sri 122055
shape 122044
profit 122016
specifically 122003
Entertainment 121985
display 121965
viol@@ 121956
tra 121859
gender 121831
About 121790
actors 121771
worldwide 121659
wins 121616
Ta@@ 121515
Cap@@ 121505
Swiss 121496
Bu@@ 121443
entrance 121416
wa@@ 121372
ising 121355
Oregon 121352
classical 121338
ster@@ 121184
ped 121162
glass 121060
ump@@ 121055
heard 121039
References 121033
hur@@ 121028
ote 121021
owners 121012
pilot 121009
zone 120928
Management 120897
passes 120894
Representatives 120892
religion 120874
scenes 120838
finds 120833
law@@ 120786
powers 120746
Ali 120723
observed 120723
heavily 120693
occur 120668
Human 120666
Islamic 120631
lock 120600
Miller 120527
IS@@ 120481
Census 120428
engaged 120419
Sk@@ 120408
ruled 120337
Political 120320
Trans@@ 120308
secretary 120308
plane 120275
Ford 120211
Fo@@ 120143
Switzerland 120139
question 120106
work@@ 120045
ond 119958
page 119901
Winter 119879
mod@@ 119864
Miss 119740
duc@@ 119721
programme 119686
ental 119665
rare 119661
roof 119649
Head 119629
sin@@ 119619
someone 119608
Egypt 119576
avoid 119570
phone 119477
marine 119410
Places 119347
cycl@@ 119306
comm@@ 119302
Singapore 119197
fuel 119153
poet 119151
soci@@ 119151
Pope 119118
1900 119021
serious 119006
Vi@@ 118917
failure 118900
pun@@ 118881
carry 118830
etc 118789
Bro@@ 118773
West@@ 118755
regarded 118698
rich 118683
T. 118682
cricket 118647
Av@@ 118646
iron 118638
Holy 118636
Si@@ 118630
uc@@ 118627
Earl 118626
Lin@@ 118589
Only 118550
Medal 118549
concluded 118492
Men@@ 118487
ial 118445
exist 118435
incident 118355
* 118300
inhabitants 118270
northeast 118232
importance 118219
choice 118193
statement 118186
lat@@ 118147
compete 118116
missions 118098
Ang@@ 118074
ki@@ 118061
chi 118056
praised 118053
programming 118048
ables 117972
protect 117972
What 117928
promote 117912
Win@@ 117897
foundation 117894
oma 117889
but@@ 117863
reserve 117863
bishop 117849
Though 117839
Ukraine 117800
MP 117760
ern@@ 117758
Mi@@ 117641
analy@@ 117637
exp@@ 117633
think 117597
ail@@ 117549
municipal 117531
ods 117467
oon 117379
spot 117354
poetry 117303
Tony 117276
Regional 117238
Design 117200
ye@@ 117198
Arab 117182
Security 117171
down@@ 117164
consisting 117096
cho@@ 117024
scr@@ 117003
internal 116992
ud@@ 116923
graphy 116893
Don@@ 116890
sections 116866
kers 116847
Member 116831
Hu@@ 116819
passenger 116802
historian 116771
SR 116744
Bureau 116709
price 116694
yl 116658
Em@@ 116638
tie 116637
ute 116608
Professional 116606
users 116534
Youth 116461
weapons 116419
thro@@ 116364
Lu@@ 116356
Ed@@ 116346
sell 116341
toward 116339
causing 116314
Main 116295
oth 116244
quite 116234
Han@@ 116166
twelve 116036
Temple 115998
Ni@@ 115970
mu@@ 115930
Greece 115857
spec@@ 115820
ici@@ 115787
aci@@ 115750
Kentucky 115734
din@@ 115728
adult 115725
pan@@ 115709
Howard 115687
selection 115672
ize 115670
entirely 115650
rant 115639
Free 115626
closely 115624
driver 115622
dro@@ 115610
gets 115551
improve 115474
break@@ 115473
starred 115446
1930s 115441
divisions 115436
invasion 115426
AD 115327
session 115221
alities 115155
peak 115111
fort 114999
environmental 114988
ken 114942
stadium 114927
ny 114908
termin@@ 114908
Hockey 114899
Por@@ 114895
Engineering 114861
med@@ 114833
37 114821
Brigade 114806
My@@ 114798
dev@@ 114791
paintings 114780
Shi@@ 114761
possibly 114714
calls 114680
ahead 114679
wn 114664
Forces 114653
1913 114644
Hamilton 114631
1911 114618
trying 114612
17th 114601
Liberal 114463
Tak@@ 114457
leg@@ 114435
aching 114403
storm 114394
sale 114292
ideas 114247
ban@@ 114229
Square 114225
tin 114214
personnel 114180
Senior 114137
verse 114111
gain 114108
42 114098
target 114096
20@@ 114068
š@@ 114067
employees 114057
ich 113877
May@@ 113824
48 113819
homes 113816
escape 113810
steel 113795
chair 113766
itation 113712
Administration 113663
Anne 113663
enter@@ 113656
standards 113603
ium 113556
mouth 113554
print 113520
wal@@ 113509
Kam@@ 113508
stands 113504
starts 113442
Il@@ 113440
Vice 113406
premiered 113369
advance 113322
tioned 113295
northwest 113268
sav@@ 113257
Ben 113211
Works 113201
Ba@@ 113156
marks 113122
6th 113118
believe 113118
otic 113059
animal 113057
accused 113052
burg 113005
swe@@ 112992
CA@@ 112882
tropical 112852
Operation 112818
Israeli 112815
draft 112753
agency 112725
boys 112724
Marine 112723
ow 112690
wr@@ 112658
Mol@@ 112651
broken 112618
Tre@@ 112599
improved 112587
ida 112567
really 112564
equal 112501
values 112481
speaking 112460
Mul@@ 112444
trip 112322
til@@ 112317
Naval 112295
suit 112241
Squadron 112194
rated 112190
.com 112174
describes 112126
dale 112117
Raj@@ 112103
Sand@@ 112059
seventh 112006
hum@@ 111940
Third 111873
bus@@ 111869
charged 111823
covering 111755
Hel@@ 111739
corner 111688
Prix 111670
I. 111588
residence 111588
regularly 111577
briefly 111543
pp@@ 111535
lar@@ 111457
seconds 111397
opportunity 111381
killing 111373
Houston 111289
dic@@ 111268
Patrick 111260
inn@@ 111222
mag@@ 111219
si 111208
Thus 111143
7th 111096
extension 111035
Dev@@ 110966
Sy@@ 110965
injured 110952
courses 110946
1908 110941
30@@ 110867
drawn 110843
painted 110841
spar@@ 110839
adv@@ 110831
reduce 110814
distributed 110691
your 110620
Stone 110584
oh@@ 110571
chose 110543
opera 110506
getting 110459
Fame 110425
hill 110421
Light 110307
Jo@@ 110288
Rural 110227
yr@@ 110226
inst@@ 110147
Simon 110108
introduction 110102
Sho@@ 110031
Diego 110006
Bat@@ 109978
fol@@ 109968
Hotel 109884
wind 109828
mit@@ 109827
Brian 109786
filled 109745
Space 109710
Over@@ 109703
arch 109700
calling 109690
continu@@ 109690
combination 109597
fine 109576
Iowa 109536
Once 109525
squ@@ 109504
Ul@@ 109472
li 109441
agricultural 109428
Ocean 109414
enh@@ 109408
applications 109329
engineer 109314
neighborhood 109243
mit 109231
Shar@@ 109209
elli 109200
ost 109194
val@@ 109190
ody 109124
pen@@ 109118
anced 109084
step 109049
interests 108984
Gil@@ 108982
Os@@ 108975
dry 108944
ep 108868
DVD 108861
Jan@@ 108848
weather 108848
Water 108792
neur@@ 108778
Executive 108763
pers 108761
ord@@ 108690
Out 108659
wa 108530
app@@ 108511
interior 108490
55 108458
prop@@ 108451
Samuel 108428
journal 108406
resistance 108369
dri@@ 108348
sil@@ 108326
chain 108299
tal@@ 108296
Communist 108275
engines 108271
Est@@ 108270
plus 108260
batt@@ 108243
earliest 108232
replace 108225
Cat@@ 108187
han 108153
urg@@ 108148
form@@ 108118
rating 108106
strength 108053
yn 108022
nur@@ 107999
enses 107981
debuted 107970
ev 107948
address 107851
singing 107787
reading 107772
Ham@@ 107740
ethnic 107690
Air@@ 107654
valley 107630
dated 107618
Anderson 107560
ul 107560
composition 107552
Frederick 107535
mem@@ 107535
Danish 107477
atus 107403
ose 107395
causes 107346
cy@@ 107312
Rugby 107287
frame 107283
formal 107262
adjacent 107253
aul@@ 107243
vin@@ 107225
oke 107213
rose 107194
ree 107153
liber@@ 107079
entr@@ 107065
treated 107021
ung@@ 107003
PA 106972
advantage 106935
class@@ 106931
16th 106899
leg 106877
Anthony 106862
fication 106851
objects 106838
coal 106805
tured 106769
esh@@ 106726
gene 106639
Bowl 106636
decade 106624
actual 106616
islands 106542
pil@@ 106480
ops 106384
och@@ 106378
ami 106363
techniques 106356
demand 106342
Lieutenant 106340
southeast 106337
survived 106292
acking 106286
mill 106268
tan@@ 106253
organisation 106216
Sam 106206
cul@@ 106193
A.@@ 106177
Alabama 106116
humans 106104
nations 106084
duty 106030
Jesus 106010
So 106007
motor@@ 106000
employment 105991
bass 105973
Program 105935
notably 105929
Modern 105901
centr@@ 105898
Rom@@ 105870
Baseball 105841
Mayor 105775
measures 105767
ø@@ 105761
Quebec 105757
experienced 105750
Tokyo 105744
musician 105701
Bow@@ 105656
stores 105633
ush@@ 105633
ased 105623
Kor@@ 105570
ik 105563
odi@@ 105525
pur 105511
Children 105505
criminal 105504
Pro 105477
reception 105461
participate 105448
shore 105443
play@@ 105428
ela 105416
vocals 105414
resid@@ 105412
leads 105411
mal@@ 105400
Village 105376
wave 105372
bottom 105354
Philip 105344
racial 105330
rejected 105312
Cer@@ 105311
K. 105311
signal 105285
pa 105279
Magazine 105268
churches 105265
my@@ 105263
charges 105261
piano 105216
Juan 105205
Kir@@ 105177
fur@@ 105177
plot 105157
Commonwealth 105152
committed 105143
Imperial 105121
med 105106
tes 105088
eland 105067
theater 105053
iss@@ 105049
Lincoln 105033
contain 105004
ima 105004
meters 104982
sa@@ 104940
Hon@@ 104910
philosophy 104904
Nar@@ 104899
Kan@@ 104872
een 104871
tain@@ 104863
Ru@@ 104818
eye 104796
greatest 104750
heads 104734
partnership 104722
Hollywood 104717
Allen 104715
examples 104713
mind 104712
pro 104669
refl@@ 104625
ands 104573
Douglas 104525
opposite 104492
mi 104469
apo@@ 104394
easily 104374
Hungarian 104373
SC 104357
Argentina 104339
goods 104335
typical 104284
proce@@ 104278
Christ 104262
AM 104252
Clark 104249
present@@ 104151
Heritage 104143
strike 104122
Czech 104115
southwest 104089
rates 104041
Independent 103957
businesses 103908
fired 103835
tis@@ 103817
41 103815
budget 103803
hosts 103782
oy@@ 103781
lif@@ 103772
Tro@@ 103746
Gi@@ 103718
bad 103699
She@@ 103668
appointment 103656
39 103622
Legislative 103591
aining 103577
comic 103564
Detroit 103563
designs 103560
qui@@ 103533
nor 103529
Cemetery 103491
AR@@ 103471
sub 103444
seems 103441
details 103440
operates 103423
oning 103418
ym@@ 103409
sequence 103340
purchase 103334
hundred 103327
Cam@@ 103323
Adam 103321
shire 103271
Band 103269
rem@@ 103257
Oklahoma 103245
aches 103215
motion 103214
1905 103163
Miami 103117
ost@@ 103080
3.@@ 103060
equivalent 103051
musicians 103041
Denmark 103014
factors 103010
lying 102994
une 102931
alls 102920
links 102910
damaged 102862
Puerto 102843
Dor@@ 102792
pping 102777
images 102753
resp@@ 102748
Mississippi 102710
ales 102677
collaboration 102675
conf@@ 102624
ie@@ 102614
user 102597
Gallery 102595
mining 102577
iy@@ 102566
didn 102526
urs 102514
Mak@@ 102446
dating 102439
Land@@ 102438
Ottoman 102408
Fire 102399
gate 102398
tom@@ 102364
Gordon 102276
tar@@ 102189
ping 102177
champions 102176
stood 102174
chemical 102120
residential 102110
hon@@ 102102
Op@@ 102098
52 102054
provincial 101988
criticized 101980
jazz 101971
passengers 101966
request 101964
contrast 101949
Local 101914
medium 101910
winners 101865
Antonio 101858
secret 101798
Cour@@ 101796
protected 101795
intelligence 101756
Iraq 101754
acid 101703
skills 101654
apping 101636
ather 101585
tis 101558
ful@@ 101545
admitted 101522
accompanied 101495
1906 101483
sun@@ 101428
contributions 101373
ped@@ 101358
reality 101342
ston 101292
maintain 101267
defeating 101262
Reserve 101259
prom@@ 101248
ment@@ 101223
flat 101215
freedom 101155
SS 101151
ured 101136
habitat 101113
Marie 101105
items 101080
Doctor 101070
costs 101055
Rose 101044
arranged 101033
Singles 101020
Constitution 101013
Belgium 100986
routes 100965
why 100965
distinct 100955
Vol@@ 100924
Je@@ 100916
commission 100864
assumed 100846
ō 100806
Kn@@ 100790
capture 100773
retained 100772
1907 100770
advoc@@ 100746
flying 100732
ani@@ 100661
bird 100615
Up 100601
stages 100576
encies 100573
ga 100558
Ku@@ 100547
Rus@@ 100544
Dublin 100535
eh 100535
gun@@ 100531
Ur@@ 100513
Rel@@ 100498
prize 100465
tend@@ 100454
attached 100449
Athletics 100441
ives 100435
pas@@ 100430
deputy 100418
aki 100409
lawyer 100397
persons 100346
Trust 100230
1909 100168
shi@@ 100007
fle@@ 100004
Louisiana 99994
Railroad 99988
Sav@@ 99986
driving 99947
delivered 99890
Fin@@ 99883
tot@@ 99846
communication 99829
flag 99781
educ@@ 99712
PC 99685
mos@@ 99656
arm 99619
inal 99606
documents 99601
mobile 99574
Five 99558
ug@@ 99483
contest 99480
extra 99476
ons@@ 99464
Ukrainian 99401
SA 99365
unc@@ 99365
nothing 99338
Bir@@ 99303
banks 99278
mur@@ 99250
MS 99244
calcul@@ 99209
eta 99205
ck 99192
Harvard 99191
Hungary 99131
justice 99064
determine 99039
CO@@ 99014
Bell 98976
colonial 98976
electronic 98921
Palace 98907
reaction 98876
eter 98869
understanding 98866
5,000 98818
ven@@ 98749
attend 98715
link 98691
ova 98683
Season 98655
vol@@ 98648
Fi@@ 98642
47 98633
Moore 98627
ler@@ 98613
eo 98554
Demographics 98551
painter 98542
path 98526
heat 98483
falls 98475
linked 98444
represents 98435
ails 98423
investment 98418
streets 98390
alists 98378
Brazilian 98331
Not 98309
Additionally 98267
poem 98267
fashion 98242
crisis 98220
reign 98215
separated 98203
Kim 98199
Gl@@ 98187
adapted 98181
Sim@@ 98156
formally 98143
brief 98138
showing 98134
spr@@ 98105
Ren@@ 98070
ownership 98067
publications 98054
49 98044
Nov@@ 98010
anniversary 98002
Anna 98000
significantly 97945
interested 97919
CEO 97913
restored 97909
ike 97880
Ak@@ 97875
degrees 97854
translated 97808
ib@@ 97783
ei 97766
dies 97758
visual 97719
12th 97712
ello 97708
iti@@ 97690
cel@@ 97668
teenth 97615
device 97544
shooting 97544
tac@@ 97539
Hay@@ 97522
See 97489
filed 97480
shar@@ 97451
multi@@ 97425
Nag@@ 97407
bad@@ 97402
1904 97365
Rights 97260
Deputy 97252
ich@@ 97218
don@@ 97180
Saturday 97175
regiment 97105
Connecticut 97100
fixed 97090
policies 97087
wings 97070
naval 97060
dig@@ 97033
pandemic 97009
Battalion 97004
folk 96995
Cop@@ 96982
dynasty 96940
atives 96931
cent 96885
purposes 96884
caught 96873
LA 96842
rest@@ 96833
Guard 96822
1,000 96792
difference 96790
popularity 96774
carrying 96749
Edinburgh 96734
Mand@@ 96720
ł@@ 96720
flows 96708
abad 96645
anger 96624
8th 96622
forming 96619
wat@@ 96619
AP@@ 96617
Rad@@ 96599
Internet 96534
behavior 96484
Mir@@ 96478
classified 96474
ush 96428
courts 96357
publishing 96351
concerns 96321
object 96303
poss@@ 96297
franchise 96285
alised 96260
chron@@ 96217
accident 96215
thing 96114
severe 96108
Good 96106
rou@@ 96035
township 96015
factor 96014
map 95984
AT@@ 95934
Age 95928
MA 95924
oid 95888
printed 95871
Margaret 95828
extr@@ 95827
Hur@@ 95816
Austrian 95784
phot@@ 95768
150 95752
Rem@@ 95747
mi@@ 95738
ori@@ 95690
2,@@ 95664
qualifying 95661
biggest 95653
lights 95639
appearing 95593
stopped 95571
Arch@@ 95517
ases 95494
oni 95492
arrival 95400
learned 95371
Dem@@ 95308
suggests 95284
guard 95276
missing 95268
Montreal 95265
save 95257
duties 95246
brick 95228
Atlanta 95217
teen 95217
eled 95153
human@@ 95138
DNA 95135
Tamil 95110
require 95110
powered 95047
tied 95023
membership 95006
legislation 95001
bot@@ 94978
Even 94955
institution 94938
43 94899
Indonesia 94869
ues 94819
13th 94817
1902 94797
offensive 94779
ABC 94724
declar@@ 94719
Mountains 94701
tery 94688
weekly 94682
scholars 94673
wounded 94624
Lat@@ 94582
ond@@ 94568
priest 94493
faculty 94425
Week 94422
rounds 94405
involving 94401
46 94396
Bol@@ 94388
esh 94379
commune 94342
competitions 94311
1901 94301
perhaps 94290
Dol@@ 94257
priv@@ 94248
51 94224
Portugal 94204
script 94166
defensive 94158
ri 94141
Fair@@ 94126
vely 94102
Ray 94076
thetic 94054
bin 94053
chance 94025
yer 94012
stayed 93994
UN@@ 93985
flowers 93970
hat@@ 93969
Colonel 93951
prepared 93946
cin@@ 93931
ishing 93902
Max 93901
José 93888
Wor@@ 93869
AC@@ 93859
Now 93855
Broadway 93813
Command 93786
ith 93743
eng 93732
Sup@@ 93691
pool 93639
ancing 93608
occupation 93604
Defense 93597
prime 93592
lis 93576
outs 93554
subjects 93536
daughters 93528
medicine 93527
crossing 93515
Metropolitan 93464
windows 93453
decor@@ 93439
red@@ 93429
note 93371
unt 93369
sti@@ 93352
ranking 93349
Lawrence 93324
criticism 93293
measure 93277
ais@@ 93243
1903 93210
č@@ 93192
reform 93167
respect 93100
extremely 93036
moth 93006
successor 92987
ification 92972
Cleveland 92966
roughly 92963
Ryan 92962
tennis 92962
responsibility 92953
waters 92946
Var@@ 92941
Global 92932
ligh@@ 92902
Ran@@ 92841
600 92827
locality 92811
Dal@@ 92806
hits 92804
organiz@@ 92766
9th 92741
Construction 92708
walk 92641
bringing 92633
Na@@ 92624
tail 92617
Hom@@ 92555
Mid@@ 92463
Chairman 92462
Liverpool 92456
Bay@@ 92439
ensure 92417
Maj@@ 92407
testing 92380
otherwise 92362
Tel@@ 92345
relative 92322
Pap@@ 92299
ills 92298
poverty 92275
boats 92264
Champions 92199
Pin@@ 92187
Walker 92160
advis@@ 92150
Bon@@ 92112
Malaysia 92107
turns 92061
peaked 92050
Sum@@ 92021
cop@@ 91982
ro 91976
err@@ 91974
thousands 91951
Welsh 91894
itz 91883
CA 91879
practices 91868
context 91838
Nazi 91836
differences 91829
oral 91755
akes 91744
Ra@@ 91738
narrow 91657
ota 91651
mil@@ 91642
celebr@@ 91636
north@@ 91604
je 91594
az 91575
Alan 91539
lik@@ 91534
mean 91530
parliament 91528
edited 91507
Upper 91506
collabor@@ 91500
Harris 91498
pattern 91465
lap 91458
markets 91450
fit 91446
description 91430
authors 91414
aspects 91408
15th 91404
800 91393
Black@@ 91387
universities 91386
solution 91370
Vienna 91363
bility 91354
Track 91305
rein@@ 91247
Div@@ 91221
Round 91156
adding 91126
assembly 91120
expression 91101
hot 91076
conduct 91061
ential 91013
una 90957
Seattle 90899
ming 90857
Singh 90837
ć 90812
uni@@ 90810
challenge 90680
teachers 90669
aqu@@ 90660
RA@@ 90636
assistance 90615
Gulf 90605
coastal 90604
stein 90589
Hy@@ 90584
returns 90556
Eric 90521
AA 90513
innings 90478
thor@@ 90465
Mos@@ 90423
Star@@ 90413
IC@@ 90392
graduating 90358
lists 90340
ika 90301
bed@@ 90295
explained 90274
incorpor@@ 90240
Not@@ 90237
10th 90172
soil 90164
mounted 90143
ater 90108
Studios 90097
storage 90015
Pot@@ 89996
95 89983
Culture 89973
Lar@@ 89973
Schools 89941
technique 89938
replacement 89937
Through 89928
window 89909
Orchestra 89896
eous 89871
cards 89852
proper 89836
lit@@ 89831
revol@@ 89813
restaurant 89795
Commander 89793
garden 89768
D.C. 89718
Haw@@ 89706
Elec@@ 89656
Baltimore 89655
14th 89654
rap@@ 89624
classic 89592
Meanwhile 89553
rivers 89522
hard@@ 89512
heritage 89489
phys@@ 89475
talk 89470
Ay@@ 89457
Dow@@ 89432
gre@@ 89374
brain 89356
Tam@@ 89335
changing 89328
Tim@@ 89321
fan 89287
novels 89265
stable 89252
pic@@ 89244
oked 89210
cited 89150
Cathedral 89127
Pri@@ 89107
dre@@ 89100
scheme 89094
sor@@ 89070
Transport 89060
translation 89019
labor 89007
ums 88999
grown 88964
Crown 88951
Basketball 88943
lay 88925
sand@@ 88905
capable 88884
Dean 88871
evening 88858
viewers 88849
Jordan 88836
forests 88836
parliamentary 88792
Alliance 88790
eness 88783
tionally 88754
devices 88731
equipped 88730
Uni@@ 88618
aker 88604
ila 88591
ome@@ 88577
oz@@ 88569
Disney 88568
Your 88502
Kelly 88492
Ross 88485
determin@@ 88481
victims 88480
SP@@ 88401
diff@@ 88384
Officer 88380
awa 88364
Cul@@ 88352
gone 88349
Kennedy 88345
Agency 88324
signing 88306
Player 88271
Front 88270
Carl 88191
ko@@ 88180
AS 88169
mates 88147
Morgan 88141
aking 88118
Athletic 88102
Tom@@ 88085
depth 88078
1920s 88050
carri@@ 88001
wear 87996
squadron 87971
lum 87952
prisoners 87949
threat 87918
coverage 87917
Kevin 87874
Fac@@ 87870
listing 87861
medieval 87846
Grant 87822
unds 87819
plan@@ 87807
Wood 87788
Sun@@ 87787
Camp 87781
electoral 87780
asing 87773
Kat@@ 87765
separ@@ 87742
neg@@ 87701
breaking 87668
Ir@@ 87667
vo@@ 87665
critic 87642
Garden 87604
kar@@ 87585
grow 87580
replacing 87576
drawing 87565
Fer@@ 87563
0,000 87555
temporary 87555
refer@@ 87551
54 87541
FL 87483
fil@@ 87473
parallel 87444
Energy 87440
ball@@ 87425
ign@@ 87309
count 87302
artistic 87297
Ltd 87230
ference 87203
tank 87178
dog 87133
Vis@@ 87122
Li 87118
etic 87102
opinion 87089
offering 87068
drop 87023
psych@@ 87013
fishing 87009
onia 86932
Jane 86910
Hills 86901
inner 86878
ein 86858
instance 86857
mir@@ 86807
friendly 86746
Chil@@ 86726
fel@@ 86711
controversy 86676
losses 86653
declined 86644
Cu@@ 86558
10,000 86543
Lane 86540
approval 86537
dish 86530
elle 86524
Conservative 86513
ther 86505
Thompson 86495
evalu@@ 86486
airs 86466
Here 86436
entering 86387
requirements 86380
aus@@ 86375
slow 86363
ker@@ 86362
branches 86336
defin@@ 86304
soccer 86304
1898 86298
driven 86297
Chart 86285
wan@@ 86285
finding 86277
wooden 86271
Review 86265
hydro@@ 86262
nomination 86217
run@@ 86180
Convention 86177
picture 86176
Roger 86158
Sarah 86153
broad 86090
ero 86073
&apos;m 86035
questions 86032
Rio 86027
influential 86004
short@@ 85991
landing 85981
NBA 85939
son@@ 85937
studying 85927
processes 85913
celebrated 85908
Lower 85880
credit 85841
ira 85792
85 85781
Conn@@ 85776
etta 85774
Boys 85766
increasingly 85766
eighth 85761
Cos@@ 85750
eu@@ 85727
Russell 85668
osa 85643
dep@@ 85614
childhood 85610
abilities 85600
tiv@@ 85600
sle@@ 85595
Bul@@ 85583
pri@@ 85575
asc@@ 85543
struck 85542
element 85538
Rid@@ 85511
boundary 85505
prosec@@ 85488
km2 85486
Dan 85476
visible 85464
ambi@@ 85433
debate 85383
Finland 85381
Wa@@ 85376
pes 85364
existed 85356
Opera 85353
Metro 85348
Pittsburgh 85348
iro 85324
railroad 85312
Bangladesh 85306
occup@@ 85267
Voivodeship 85255
Ken@@ 85251
ito 85240
threatened 85205
atr@@ 85184
proposal 85180
Gh@@ 85175
competing 85157
ST@@ 85155
men@@ 85107
fy 85074
downtown 85061
ze@@ 85061
safe 85060
sufficient 85043
thouse 85014
Kent 84992
vessels 84979
affairs 84963
rev@@ 84949
load 84930
raise 84929
medals 84913
facing 84897
requires 84896
frequency 84894
achieve 84887
Trump 84881
Donald 84872
wine 84846
bel@@ 84800
umb@@ 84797
ski@@ 84764
guitarist 84756
denied 84723
ority 84684
sy@@ 84668
Dom@@ 84666
MP@@ 84646
Taiwan 84635
components 84635
SA@@ 84625
ny@@ 84602
bit@@ 84590
ark@@ 84571
feel 84564
ert 84561
eller 84559
ires 84552
isi@@ 84487
Long@@ 84469
Information 84463
strongly 84439
wi@@ 84417
obj@@ 84411
recre@@ 84380
task 84373
Senator 84326
manufacturing 84324
genre 84308
fer 84226
11th 84224
Test 84215
Peace 84205
parent 84201
let@@ 84166
carbon 84086
constitu@@ 84057
Dallas 84054
tons 84052
pend@@ 84035
illing 84029
whe@@ 84013
hair 84003
fill 83971
limit 83966
edly 83946
Austin 83913
1899 83906
Stewart 83904
Murray 83897
End 83854
ef 83853
arg@@ 83786
reputation 83763
Arkansas 83758
annually 83750
tain 83727
S.@@ 83709
South@@ 83708
filmed 83707
nom@@ 83707
Real 83688
pon@@ 83683
Training 83682
Birmingham 83668
illed 83662
Ka@@ 83655
Sil@@ 83642
Sin@@ 83634
strategy 83603
eri 83600
message 83572
appeal 83566
v. 83544
considerable 83543
list@@ 83542
Bruce 83529
instruments 83523
accounts 83503
Pierre 83472
IN@@ 83467
Luc@@ 83466
helping 83460
Campbell 83429
Brothers 83419
ris@@ 83408
sts 83390
Authority 83384
tell 83380
53 83376
modified 83344
constant 83329
handed 83309
wood@@ 83276
lob@@ 83275
relation 83259
experiences 83249
artillery 83247
collections 83238
Daily 83232
texts 83220
lig@@ 83205
web 83204
coordin@@ 83134
Orthodox 83129
preserved 83124
recordings 83106
involvement 83096
Ten 83077
Nelson 83065
ager 83046
alleged 83043
SE@@ 83040
vision 83010
aring 83008
surrounded 82990
fund 82980
56 82975
Adams 82965
colour 82945
blo@@ 82896
lasted 82875
maker 82875
Alex 82821
nh@@ 82820
expedition 82800
Jud@@ 82782
1890 82770
with@@ 82767
huge 82760
BA 82754
Express 82708
indicated 82643
meets 82633
aying 82629
Dance 82626
skin 82620
M.@@ 82609
representation 82603
fair 82572
papers 82561
eleven 82533
sem@@ 82413
ub@@ 82368
Green@@ 82366
adaptation 82358
aves 82346
Our 82303
sponsored 82287
Bot@@ 82281
championships 82259
lied 82258
emergency 82215
funded 82194
Franklin 82191
Girls 82185
Sus@@ 82179
Sec@@ 82178
Rob@@ 82177
tory 82175
ady 82168
charts 82142
star@@ 82110
decline 82080
Che@@ 82071
enn@@ 82060
rival 82046
proj@@ 82031
66 82024
oper@@ 82006
Christopher 82004
Lan@@ 81991
screen@@ 81985
Tu@@ 81983
Heart 81977
ks@@ 81962
accoun@@ 81959
nar@@ 81942
concrete 81933
completion 81888
Medicine 81876
4,@@ 81858
Dam@@ 81855
visitors 81834
boards 81809
anth@@ 81791
Dave 81732
touchdown 81714
&apos;re 81713
camera 81683
consider 81669
drew 81664
Mission 81656
progress 81655
F.C. 81651
Judge 81639
Robinson 81617
AN@@ 81605
option 81599
mic 81544
Sab@@ 81515
God@@ 81483
counties 81465
ushing 81434
pay@@ 81418
ider 81413
Bos@@ 81403
Way 81375
voting 81360
ju@@ 81335
oking 81333
movements 81288
Wright 81260
canc@@ 81252
contested 81242
sees 81225
survey 81223
Utah 81203
eliminated 81201
somewhat 81197
Sem@@ 81192
eck 81186
ury 81186
1896 81184
alm@@ 81162
penalty 81149
V. 81131
suspended 81073
classification 81035
Dan@@ 80986
Out@@ 80965
ua 80964
Moh@@ 80963
72 80961
Unlike 80942
favor 80936
Norman 80925
Originally 80909
raising 80882
Critical 80875
repe@@ 80845
amateur 80839
ū@@ 80814
exc@@ 80783
portr@@ 80778
nor@@ 80767
Tal@@ 80741
Romania 80689
rain 80689
surviving 80678
executed 80650
Trade 80641
guar@@ 80627
songwriter 80623
Just 80605
tig@@ 80599
recru@@ 80585
Brooklyn 80572
portrayed 80533
Baron 80523
impl@@ 80522
CBS 80485
ō@@ 80469
Alfred 80437
Princess 80406
Movement 80403
vessel 80382
Economic 80357
ori 80351
mountains 80338
vers@@ 80327
Six 80313
continuing 80294
cos@@ 80284
affiliated 80279
soundtrack 80245
definition 80236
philosoph@@ 80219
elevation 80176
trus@@ 80172
shares 80167
1895 80157
uncle 80153
tall 80151
populations 80147
Organization 80141
donated 80138
AI@@ 80137
directors 80118
lieutenant 80116
long@@ 80033
benefit 80026
satis@@ 80021
hr@@ 79966
hel@@ 79930
NBC 79908
pel@@ 79902
lan@@ 79860
yc@@ 79851
Tan@@ 79849
worn 79833
organised 79799
cm 79786
UEFA 79777
Ann 79774
ader 79752
participation 79731
igned 79723
Ker@@ 79719
cler@@ 79713
consum@@ 79712
aw 79697
Silver 79681
doubles 79681
ax 79677
secure 79662
Racing 79644
Around 79634
doors 79621
respon@@ 79614
illegal 79585
AP 79570
Hen@@ 79556
distinguished 79556
infrastructure 79525
dam@@ 79487
250 79485
Belgian 79470
Within 79449
eli@@ 79442
ele 79420
thirty 79416
fu@@ 79414
dres@@ 79380
conver@@ 79373
graphic 79357
investig@@ 79345
Bachelor 79284
eers 79282
Lor@@ 79275
gh@@ 79265
ula 79256
manner 79244
Theater 79231
seeing 79216
Dur@@ 79202
Place 79202
Spring 79189
designer 79189
steam 79185
jo 79178
arrest 79149
Marshall 79126
Trophy 79062
ă@@ 79052
happened 79050
emerged 79031
commemor@@ 79020
Stanley 79019
Thailand 79010
Who 78996
1897 78981
Sound 78946
deaths 78914
visiting 78903
has@@ 78893
sett@@ 78881
grant 78874
alty 78860
Gol@@ 78854
combin@@ 78809
econom@@ 78808
Tower 78805
ser 78800
speak 78790
wild 78776
eer 78748
domin@@ 78739
widespread 78723
sup@@ 78706
57 78700
Jimmy 78691
resolution 78677
recommended 78675
bid 78673
domain 78664
controversial 78662
occasionally 78659
posted 78647
tests 78641
taining 78639
PS 78636
Treaty 78607
nes 78584
effectively 78547
Sen@@ 78523
relief 78518
FIFA 78502
ett@@ 78482
Portland 78466
ight@@ 78434
eing 78431
edit@@ 78414
dom 78408
sion@@ 78400
Mot@@ 78372
10.@@ 78369
themes 78360
chapter 78335
cold 78316
Victorian 78311
ces 78311
newspapers 78304
eyes 78287
jobs 78282
discovery 78279
Boy 78277
1000 78276
encing 78234
circuit 78202
vis@@ 78136
Wrestling 78128
attracted 78120
whereas 78099
TA 78093
spoken 78024
aps 78023
learn 78019
emp@@ 78016
Carter 78015
CH@@ 77998
LP 77986
alis@@ 77979
attributed 77953
Carlos 77899
couples 77889
ille 77847
blocks 77842
62 77826
roots 77818
ton@@ 77788
suicide 77766
agriculture 77763
output 77758
traveled 77751
anda 77744
appropriate 77738
Mun@@ 77715
fruit 77713
rig@@ 77706
characteristics 77705
organ 77689
Victor 77687
Matt 77641
Ear@@ 77637
ident 77613
Staff 77608
minimum 77605
chem@@ 77604
ruling 77589
dominated 77580
rati@@ 77572
Go 77553
58 77486
fix@@ 77474
wheel 77471
spoke 77464
patient 77445
Ball@@ 77413
gy 77388
Roy 77361
Serbian 77361
aga 77347
99 77342
depending 77318
Egyptian 77301
spo@@ 77278
Water@@ 77269
meetings 77269
Ty@@ 77238
Shortly 77229
seed 77221
journey 77201
feed 77175
grand 77122
competitive 77121
Girl 77118
Iron 77117
Hus@@ 77108
compar@@ 77096
che 77094
viewed 77078
youngest 77031
Lov@@ 77023
Cultural 77011
fro@@ 76998
Billy 76953
protest 76950
Tim 76927
wer@@ 76902
eping 76865
Nam@@ 76848
Richmond 76842
ip@@ 76805
grandfather 76791
associate 76783
mist@@ 76771
burn 76759
ava 76746
trading 76742
faith 76740
ez 76735
tioning 76732
longest 76721
ox@@ 76721
eling 76706
ensis 76691
Ward 76666
ump 76659
entertainment 76658
Med@@ 76656
CS@@ 76654
massive 76626
capit@@ 76625
ania 76603
accept 76578
platforms 76576
ray 76572
underground 76559
1893 76500
Champion 76486
Further 76486
Graham 76484
CC@@ 76478
Instead 76436
bi 76429
remainder 76411
transition 76410
whilst 76402
ographic 76382
runner 76339
Finnish 76338
satellite 76329
Nick 76312
Phil@@ 76309
demolished 76302
Limited 76269
solid 76269
realiz@@ 76266
Distribution 76265
Pa@@ 76252
Serbia 76252
ech 76232
Lang@@ 76203
oni@@ 76181
direc@@ 76174
eigh@@ 76174
Spe@@ 76149
AM@@ 76125
turning 76118
yp@@ 76104
dam 76098
wick 76090
Ven@@ 76086
may@@ 76085
Defence 76084
surgery 76082
ems 76079
column 76077
Moon 76057
belonging 76055
2,000 76050
oo 76047
rapidly 76043
AD@@ 76042
mode 76035
hin@@ 76034
pick 76031
negoti@@ 76013
Glasgow 76012
adi 75992
videos 75973
Buc@@ 75944
injuries 75901
tia 75897
departure 75868
tribe 75867
endemic 75858
processing 75855
Hampshire 75846
positi@@ 75842
erected 75825
architectural 75811
weak@@ 75807
Cricket 75780
acqu@@ 75762
Windows 75760
Indians 75757
Bab@@ 75708
ution 75707
Vo@@ 75691
far@@ 75673
Draft 75671
anything 75663
RC 75654
fying 75648
uring 75630
ries 75616
tenure 75606
emphas@@ 75601
tened 75579
Muhammad 75566
Kit@@ 75563
Romanian 75562
All@@ 75542
Fleet 75536
1889 75524
mut@@ 75512
representatives 75506
counter 75482
maintenance 75474
cousin 75470
1894 75457
rob@@ 75457
Madrid 75427
Knight 75422
versus 75397
val 75389
Bah@@ 75381
Bad@@ 75376
tools 75366
Canal 75360
1892 75349
techn@@ 75327
landscape 75314
eton 75282
Eur@@ 75269
diameter 75269
moment 75258
tric 75250
emer@@ 75231
knew 75218
Barr@@ 75216
infantry 75213
shor@@ 75204
ius 75196
steps 75186
lane 75184
writes 75169
anese 75164
keeping 75143
grave 75123
Arabic 75117
itable 75111
generated 75091
suffering 75085
chapel 75065
Dav@@ 75045
bes@@ 75045
ature 75025
assault 75005
align 74994
Mari@@ 74986
ayan 74980
bert 74963
Capital 74936
NHL 74924
intersection 74915
Natural 74900
predic@@ 74898
venue 74891
Las 74882
Orleans 74877
greatly 74869
protests 74864
aun@@ 74860
occasions 74849
easy 74827
CC 74777
terminal 74774
defence 74730
len@@ 74720
transportation 74705
63 74703
uk 74695
networks 74683
torate 74678
Islam 74662
claiming 74654
everything 74639
supporters 74634
watch 74629
iling 74617
Benjamin 74600
Afghanistan 74599
centers 74574
motor 74574
cabinet 74554
regime 74554
Will 74542
integrated 74501
24@@ 74483
59 74480
expres@@ 74471
Base 74450
examin@@ 74441
bol@@ 74427
Matthew 74422
hundreds 74400
channels 74386
thi@@ 74372
Last 74350
flu@@ 74336
21st 74321
jum@@ 74318
kg 74315
span 74310
Pad@@ 74306
concerned 74278
describe 74263
vocal 74253
Mediterranean 74228
narr@@ 74185
schedule 74178
owed 74093
Morris 74087
concern 74083
encouraged 74083
Ki@@ 74074
CE@@ 74066
agents 74066
onist 74062
ister 74050
ules 74050
etary 74040
ections 74032
sentenced 74021
1885 74020
ple 74020
unusual 74014
periods 73977
bay 73960
cli@@ 73945
deleg@@ 73942
document 73931
relationships 73919
Municipality 73918
license 73894
AL@@ 73869
shell 73866
í 73863
ave 73859
Ing@@ 73850
gal@@ 73828
sens@@ 73816
Nigeria 73815
aver@@ 73809
cultiv@@ 73805
natur@@ 73785
statue 73776
Books 73748
oration 73745
Bush 73743
Historical 73731
producers 73714
Johnny 73706
rd 73688
Lev@@ 73684
defending 73674
Yorkshire 73673
horses 73667
reportedly 73642
real@@ 73639
foot@@ 73598
bir@@ 73597
appe@@ 73569
Germans 73563
anga 73561
Farm 73554
indigenous 73552
ace@@ 73545
func@@ 73539
stroke 73527
ied 73477
eth 73467
colspan 73463
begun 73443
Note 73435
assist 73424
band@@ 73402
Kas@@ 73400
origin@@ 73372
gradually 73369
colony 73330
af 73319
Seven 73306
Hispanic 73303
ink 73298
oa 73268
send 73267
Whe@@ 73250
categories 73249
hang@@ 73219
supplies 73206
Delhi 73202
afterwards 73170
missed 73163
67 73150
territories 73144
Until 73111
1891 73086
abroad 73085
Rico 73080
marketing 73080
Gary 73069
thousand 73054
frequent 73051
Chile 73024
Back 73015
aware 73005
tun@@ 73002
immediate 73000
vill@@ 72999
OS 72992
hearing 72984
characterized 72981
ES@@ 72973
pit@@ 72963
memorial 72925
Lanka 72915
Jan 72900
Rev@@ 72892
myth@@ 72886
subur@@ 72881
Zone 72878
doctor 72835
participants 72835
exists 72813
cancelled 72790
Fund 72757
comment@@ 72755
tering 72743
ually 72727
sal 72690
relocated 72676
ety 72674
uri 72659
estr@@ 72653
honour 72651
irs 72651
agencies 72645
obtain 72644
sk 72625
genetic 72595
gers 72585
dra@@ 72575
Kon@@ 72556
crowd 72543
inaugural 72533
Prot@@ 72511
amongst 72511
absence 72501
ule 72496
governments 72484
kin@@ 72422
susp@@ 72416
ratio 72408
rapid 72405
1888 72404
normally 72375
bil@@ 72359
athletes 72352
Arena 72342
linear 72329
spir@@ 72328
Honours 72306
Maine 72284
aimed 72252
Met@@ 72242
conservative 72236
sym@@ 72221
Labor 72204
Sor@@ 72197
Nicholas 72184
Jerusalem 72174
tivity 72169
iness 72164
Appe@@ 72151
Liga 72144
spending 72144
toured 72143
supports 72140
Der@@ 72131
Deb@@ 72112
creative 72105
nation@@ 72095
concerts 72083
fire@@ 72079
teen@@ 72064
integr@@ 72060
poems 72045
suppl@@ 72043
commanded 72025
styles 72017
asure 71987
dy@@ 71981
seeking 71981
div@@ 71918
eline 71909
transmission 71900
design@@ 71887
bone 71874
cable 71866
dan 71863
constitutional 71851
fled 71850
tin@@ 71837
lo 71821
tees 71812
é@@ 71811
seek 71810
scholar 71760
oring 71751
profile 71738
submarine 71717
publicly 71707
yers 71705
CE 71699
facts 71664
itor 71660
FI@@ 71650
12@@ 71649
North@@ 71638
idi@@ 71614
Bus@@ 71611
Ann@@ 71609
Greater 71609
descent 71589
ready 71586
picked 71577
string 71577
Karl 71565
3,@@ 71563
Wo@@ 71561
ican 71552
Eng@@ 71539
ninth 71538
68 71518
duo 71503
Fellow 71499
Work 71473
recovered 71462
vic@@ 71452
Members 71446
angle 71424
moves 71418
exception 71405
Charlie 71390
Kol@@ 71387
substantial 71366
Bristol 71323
perfect 71314
dor@@ 71304
diocese 71292
Jason 71288
pole 71257
identify 71254
Vancouver 71233
ason 71221
operational 71205
compilation 71200
Transportation 71199
asts 71172
Warner 71160
deployed 71150
behalf 71138
makeup 71128
Alice 71110
panel 71075
cribed 71070
asi@@ 71067
was@@ 71030
unk 71024
she@@ 71008
61 71003
EU 70976
eper 70969
attending 70961
N. 70951
Fal@@ 70934
Thor@@ 70930
convention 70929
wan 70894
illy 70892
resident 70881
external 70866
indic@@ 70860
monument 70819
opportunities 70818
Category 70815
extent 70791
Persian 70765
Mitchell 70762
audio 70745
Beijing 70744
Late 70737
hero 70737
Hun@@ 70730
Milan 70730
Andy 70722
vac@@ 70715
sh 70709
releases 70708
sentence 70688
rebuilt 70686
assy 70685
Diocese 70667
suitable 70667
advertising 70660
aria 70659
depic@@ 70659
amps 70653
contribution 70649
aming 70645
Part 70629
segment 70624
ician 70602
alis 70584
patri@@ 70574
ranks 70552
witn@@ 70527
anna 70521
ead 70514
essing 70509
1865 70447
researchers 70404
closure 70403
1.5 70402
1880 70375
leaf 70370
ume 70365
sole 70360
show@@ 70358
port@@ 70355
16@@ 70354
earning 70350
leng@@ 70335
ectives 70321
gay 70307
adults 70306
ict 70283
iding 70280
Lak@@ 70277
symbol 70276
radi@@ 70273
77 70265
Vari@@ 70258
Tran@@ 70249
ologists 70244
But@@ 70239
onlyinclude 70229
licensed 70223
vel@@ 70216
antly 70209
× 70190
lier 70189
69 70170
su 70162
lined 70140
commented 70136
Baker 70135
Jar@@ 70127
Kin@@ 70118
eries 70118
Caribbean 70111
Digital 70084
sel 70063
Bible 70038
subs@@ 70030
component 70001
spiritual 69973
shed 69969
wers 69969
beach 69962
apparently 69930
volumes 69907
ceased 69835
questi@@ 69826
ham@@ 69805
benefits 69791
76 69790
borders 69783
á 69780
restoration 69775
rail@@ 69764
assisted 69760
broadcasting 69749
50@@ 69748
coun@@ 69737
alli@@ 69728
Gran@@ 69705
scope 69702
customers 69688
craft 69674
secured 69669
enjoyed 69654
corporate 69652
74 69646
Jeff 69640
insurance 69633
abuse 69582
clin@@ 69570
Pan 69550
icks 69550
instrumental 69533
rescue 69520
Challenge 69516
bles 69485
dle 69476
facilit@@ 69470
compos@@ 69465
indicate 69461
On@@ 69454
bomb@@ 69434
pit 69418
Orange 69406
eters 69395
looked 69373
dia 69358
Count 69344
1864 69337
Iranian 69310
excav@@ 69287
iki 69287
1887 69271
88 69238
cup 69206
implemented 69203
1870 69192
lan 69179
file 69164
fresh@@ 69159
Stars 69158
ians 69158
legislative 69146
Having 69108
Wel@@ 69102
High@@ 69097
width 69088
Along 69087
businessman 69075
serv@@ 69075
Communications 69063
Manhattan 69060
oe 69030
pm 69012
Charlotte 69004
Warren 69001
iser 69001
detailed 68995
mate 68971
plate 68959
kingdom 68958
cy 68941
lows 68940
none 68910
eligible 68902
96 68871
legs 68863
possession 68849
UN 68828
animated 68806
outs@@ 68806
Ju@@ 68804
premiere 68803
buy 68796
beautiful 68795
78 68790
Evans 68772
junction 68772
percentage 68751
Results 68749
1861 68747
conventional 68745
significance 68740
activist 68733
Lam@@ 68722
quanti@@ 68692
belonged 68690
tee 68676
lic@@ 68673
Friday 68660
acres 68647
publisher 68646
71 68625
nearest 68555
establishing 68549
partially 68544
1940s 68525
née 68518
voters 68498
understand 68461
astr@@ 68441
struggle 68413
disc 68400
izes 68397
exposed 68391
Hawaii 68373
Harrison 68368
ges@@ 68357
variant 68346
icians 68333
Market 68299
Sher@@ 68289
drugs 68288
experimental 68257
Leg@@ 68254
destruction 68242
apart 68217
fighter 68217
len 68213
lose 68210
violent 68200
Alberta 68170
responded 68161
23@@ 68154
ition 68147
anc@@ 68125
coalition 68122
Songs 68119
Wayne 68119
ily 68093
Fine 68083
int 68081
oud 68064
everyone 68060
outer 68059
Constitu@@ 68034
opponents 68031
rendered 68031
constitution 68018
ener 68017
Initially 68005
Wars 68002
mathematics 67993
palace 67979
prov@@ 67970
Up@@ 67968
attorney 67942
jury 67941
spaces 67935
thre@@ 67929
substitute 67921
principles 67914
Falls 67898
partly 67898
augh@@ 67881
izing 67876
Commissioner 67817
extreme 67784
heav@@ 67778
Roc@@ 67774
cons@@ 67769
sum 67767
Kel@@ 67764
prising 67756
spirit 67754
vern@@ 67714
pressed 67704
swimming 67698
1886 67694
Hum@@ 67686
other@@ 67678
surve@@ 67667
Thir@@ 67666
makers 67657
drafted 67645
hab@@ 67643
− 67643
municipalities 67642
pic 67620
discussed 67594
Fred 67579
VI 67574
Together 67572
DS 67571
assets 67545
1862 67518
avi@@ 67510
inch 67510
aten 67503
add 67498
exclu@@ 67476
scientists 67472
Muslims 67468
apartment 67456
aj 67454
concentration 67439
Section 67396
ogen@@ 67394
agu@@ 67386
ud 67386
ord 67369
Rangers 67349
instrument 67339
ema 67336
Hindu 67316
Story 67310
YouTube 67308
productions 67299
movies 67293
asser@@ 67285
mul@@ 67279
Municipal 67276
Wi@@ 67272
Sport 67269
Soon 67268
Mont@@ 67254
Row@@ 67252
certain@@ 67227
1863 67218
correspond@@ 67208
subsidiary 67191
Throughout 67190
84 67189
qualify 67146
possibility 67126
cus 67122
signs 67113
Guinea 67090
dismissed 67069
oms 67059
sang 67039
locally 67034
gri@@ 67017
atively 66994
commerci@@ 66987
merchant 66986
tribes 66983
revenue 66951
inning 66946
outbreak 66939
wants 66937
tend 66927
700 66919
Philippine 66909
useful 66904
alt 66886
belief 66884
Freedom 66882
statistics 66861
abor@@ 66851
accessible 66836
terminus 66829
Mill@@ 66820
cell@@ 66809
120 66807
ply 66801
settlers 66798
deb@@ 66788
distr@@ 66780
embr@@ 66777
98 66770
Ian 66769
tap@@ 66768
immigrants 66761
produces 66754
sy 66731
&apos;ve 66719
Trinity 66718
continuous 66712
honorary 66706
provinces 66704
archy 66697
ongoing 66689
endor@@ 66681
restricted 66673
prof@@ 66672
Studio 66667
conservation 66664
Nova 66658
bin@@ 66652
passage 66650
ride 66640
dat@@ 66638
pointed 66632
essential 66630
coaching 66629
fitted 66628
withdrew 66567
trust 66565
neither 66557
expensive 66549
wedding 66541
tric@@ 66540
1884 66536
ation@@ 66535
aph@@ 66515
raid 66514
5,@@ 66506
lem@@ 66484
Pet@@ 66468
sul@@ 66459
Dou@@ 66447
Socialist 66434
Broadcasting 66428
Tigers 66418
ange 66413
talent 66412
sam@@ 66411
chamber 66406
civilian 66388
73 66291
ž@@ 66275
cha 66267
thesis 66264
numbered 66262
Cooper 66243
rising 66211
merger 66202
completing 66198
ions 66193
farmers 66191
Common 66189
sign@@ 66189
matters 66181
physics 66169
oy 66139
grades 66136
RE@@ 66127
balance 66118
scholarship 66112
displayed 66111
Parker 66109
tas@@ 66102
exce@@ 66093
CI@@ 66092
oted 66074
apply 66073
throne 66055
ih@@ 66020
aine 66014
hat 66013
partners 66008
ffs 66006
Da@@ 66000
ros@@ 65991
CP@@ 65985
Branch 65984
Ci@@ 65978
repair 65972
Medi@@ 65961
tives 65956
closing 65952
hop@@ 65932
Gmina 65927
Cy@@ 65923
inform@@ 65917
Such 65910
personality 65910
Grade 65906
tica 65902
soft 65900
enders 65882
adop@@ 65877
vs. 65872
initiated 65869
playoffs 65851
zo 65836
Clinton 65818
Adelaide 65807
cemetery 65805
ector 65802
Barry 65795
1881 65783
Bak@@ 65744
Video 65732
92 65724
initiative 65707
AT 65698
Universal 65695
cular 65695
ott 65684
false 65668
aim 65658
rel 65651
án 65648
Armenian 65640
efficient 65620
ennial 65616
sculpture 65610
Oc@@ 65579
Vic@@ 65579
asks 65569
Legacy 65531
Oblast 65525
Dakota 65497
crash 65484
symbol@@ 65439
uv@@ 65386
Parish 65376
11.@@ 65351
Allied 65348
patr@@ 65340
17@@ 65331
sessions 65330
Ry@@ 65307
trials 65301
TC 65300
ng@@ 65300
touring 65269
81 65262
arrangement 65260
respective 65256
choose 65243
suburb 65238
Attorney 65233
dispute 65225
sequ@@ 65221
aint 65220
bic@@ 65206
iri 65199
edy 65189
honors 65189
bor 65184
Cel@@ 65183
minority 65168
moun@@ 65157
RAF 65151
electricity 65124
tari@@ 65119
onymous 65112
charity 65108
Sky 65100
kar 65093
Syria 65079
guilty 65064
traditions 65026
Bar 65012
harmon@@ 65006
falling 65005
Code 64990
09 64986
Wall 64986
pursue 64968
ashed 64944
connecting 64943
escor@@ 64938
Action 64935
cri@@ 64935
metre 64934
Jonathan 64925
lowest 64915
autom@@ 64893
Soccer 64891
13@@ 64882
arded 64881
zi@@ 64857
2000s 64848
tant 64842
introduc@@ 64841
Virgin 64840
diverse 64838
stimul@@ 64816
Admiral 64815
acker 64812
ported 64810
Standard 64805
ó@@ 64781
evacu@@ 64764
Pradesh 64760
Turner 64759
ees 64755
MC 64750
correc@@ 64748
net@@ 64741
crossed 64740
flan@@ 64734
Type 64726
communications 64721
anyone 64709
exclusively 64707
sailed 64697
fictional 64693
wrestling 64691
weekend 64685
86 64679
illness 64660
remove 64638
weigh@@ 64632
Direc@@ 64626
happy 64587
measur@@ 64587
PhD 64578
unsuccessful 64539
flower 64533
Buffalo 64529
desire 64523
Kings 64522
ben@@ 64508
Barbara 64500
mark@@ 64496
itch 64491
retail 64488
closer 64487
Cuba 64485
nam@@ 64477
evol@@ 64472
clinical 64463
Sto@@ 64460
alliance 64457
ranging 64455
Fran@@ 64446
faces 64410
consistent 64395
buil@@ 64379
eldest 64368
00@@ 64362
arities 64355
wearing 64348
judges 64344
Saints 64338
82 64315
08 64304
Be 64303
limits 64303
margin 64289
occasion 64274
principle 64263
Ca@@ 64246
hope 64246
pitch 64245
sman 64241
fee 64238
emplo@@ 64237
ect@@ 64235
solar 64201
electrical 64191
advice 64190
Pic@@ 64179
crimes 64176
fri@@ 64176
conv@@ 64136
treaty 64134
tural 64125
vation 64123
Technical 64119
eted 64114
fron@@ 64111
focuses 64109
Abbey 64107
dominant 64102
ico 64059
RA 64052
doesn 64018
phen@@ 64016
Years 63995
smo@@ 63994
Bou@@ 63987
1882 63978
credits 63974
Peninsula 63962
Furthermore 63956
AF@@ 63936
tha 63925
battalion 63924
Food 63920
Woman 63914
Under@@ 63913
Lim@@ 63907
Hunter 63878
asa 63878
earth 63877
ME@@ 63867
marry 63859
references 63852
regulations 63841
hop 63832
Classic 63825
Post@@ 63818
requested 63779
lec@@ 63773
14@@ 63753
novel@@ 63746
emperor 63745
phil@@ 63740
supervis@@ 63728
Control 63714
Baptist 63695
beating 63683
lowing 63681
patterns 63670
submitted 63659
dist@@ 63657
banned 63640
Collins 63616
fam@@ 63615
ogy 63612
dow@@ 63607
Peru 63597
traded 63595
colors 63592
Tech 63588
qualification 63581
93 63579
Good@@ 63576
rif@@ 63567
isolated 63564
reduction 63553
contest@@ 63536
onym 63534
Century 63525
Brisbane 63524
Hudson 63523
operator 63502
han@@ 63490
allies 63477
Cent@@ 63469
dings 63453
Assistant 63443
intr@@ 63409
borne 63402
83 63386
Ze@@ 63370
grey 63359
CS 63355
Saudi 63347
Therefore 63345
ision 63335
C.@@ 63323
istics 63321
aceae 63286
Alaska 63274
Race 63270
sight 63270
79 63238
shift 63231
conclusion 63221
Munich 63209
Cook 63196
Ice 63196
circumstances 63181
Conservation 63169
Catherine 63156
Bengal 63144
ags 63144
differ@@ 63134
fe 63131
pack@@ 63096
cargo 63093
layer 63088
eased 63079
26@@ 63074
clearly 63072
Buddhist 63069
school@@ 63045
Jacob 63031
connections 63002
lic 62982
Anglo 62953
87 62943
decisions 62923
sid@@ 62923
ographer 62917
zi 62905
art@@ 62868
strategic 62862
hot@@ 62847
conversion 62841
ship@@ 62833
practical 62825
dual 62824
crown 62804
oll@@ 62791
NY 62787
Vel@@ 62772
drummer 62754
lia 62753
act@@ 62720
editions 62703
travelled 62698
Mis@@ 62697
Scar@@ 62696
cool@@ 62694
ign 62682
else 62676
etti 62666
vari@@ 62664
Den@@ 62659
Cincinnati 62647
housed 62622
backs 62609
battery 62606
Fol@@ 62603
Urban 62593
Mrs. 62591
mol@@ 62587
Yo@@ 62559
bing 62550
soldier 62535
clothing 62526
wid@@ 62526
persu@@ 62506
hunting 62502
activated 62451
Language 62449
stones 62443
ought 62426
roll 62424
IP 62423
Lloyd 62417
influences 62412
Industry 62399
grows 62377
initi@@ 62377
Din@@ 62369
Maz@@ 62361
15@@ 62348
NO@@ 62343
Down 62342
concentr@@ 62335
comedi@@ 62330
Nation 62329
originated 62329
Model 62325
asses 62306
Pul@@ 62301
bomb 62285
sisters 62285
indicates 62284
skat@@ 62254
organic 62249
Duch@@ 62248
Students 62233
drums 62232
throw 62223
recognised 62205
motiv@@ 62199
cally 62196
ebo@@ 62194
apparent 62191
boundaries 62164
tunnel 62157
negotiations 62138
photography 62131
translat@@ 62131
cinema 62130
oured 62128
repeated 62126
defended 62124
internationally 62118
uch@@ 62102
jurisdiction 62101
evolution 62096
Faculty 62074
Ga@@ 62072
depos@@ 62071
suggest 62059
Found@@ 62053
eas@@ 62050
ode 62050
intention 62046
monastery 62037
bom@@ 62034
Territory 62027
person@@ 62007
97 61986
reveals 61977
drivers 61967
decides 61964
Son@@ 61958
involves 61949
ric@@ 61943
Trail 61940
1883 61931
ī@@ 61931
vir@@ 61920
Liber@@ 61903
settlements 61875
91 61869
govern@@ 61868
Hat@@ 61863
ado 61862
Oliver 61841
Sm@@ 61840
chers 61839
27@@ 61836
ag 61822
attrac@@ 61812
Ah@@ 61755
origins 61754
mechanism 61750
bach 61747
locomotives 61745
Barcelona 61742
timber 61724
relevant 61703
pain 61699
partner@@ 61697
manufactured 61690
proteins 61676
Unit 61669
alb@@ 61666
Springs 61652
Dark 61636
1871 61635
Doc@@ 61622
tro 61558
mix 61538
Do 61533
riding 61531
100,000 61523
94 61519
tested 61518
mechanical 61495
tone 61493
proxim@@ 61491
aster@@ 61489
Jay 61473
King@@ 61456
spl@@ 61439
lay@@ 61438
1876 61437
mission@@ 61423
ashes 61410
conqu@@ 61386
inher@@ 61384
opponent 61384
pav@@ 61379
survive 61379
ocked 61370
astic 61353
89 61345
exhibited 61341
astronom@@ 61338
expect@@ 61328
dom@@ 61298
Masters 61288
Operations 61284
1860 61271
Nic@@ 61269
overseas 61263
enberg 61258
2.5 61243
Latino 61228
amm@@ 61214
acquisition 61207
Father 61205
Au@@ 61194
Apple 61188
1878 61181
utiliz@@ 61180
thereafter 61169
cash 61165
bian 61154
Hugh 61135
Hans 61109
Sl@@ 61107
increases 61104
Phoenix 61095
Nevada 61069
temperatures 61063
tab@@ 61061
compet@@ 61060
sph@@ 61045
Luis 61029
thy 61023
som@@ 61022
styl@@ 61022
rid@@ 61005
Hebrew 60998
Mut@@ 60984
warm 60968
strip 60964
Loc@@ 60962
tax@@ 60951
rier 60913
Current 60898
Bernard 60882
Leeds 60881
fear 60874
auc@@ 60872
Tw@@ 60867
Democrat 60853
Roberts 60850
zing 60844
landed 60816
climb@@ 60793
copy 60791
Play@@ 60789
Hi@@ 60788
Les 60782
kan 60778
trag@@ 60778
cattle 60772
Colombia 60764
alled 60764
wealthy 60757
hole 60736
mill@@ 60728
twin 60705
ble@@ 60700
Ye@@ 60699
bow 60697
Microsoft 60696
Shah 60690
ners 60684
mention 60683
romantic 60683
Democrats 60673
aro 60672
Sad@@ 60651
migration 60648
Dead 60643
commission@@ 60636
debt 60625
promoting 60614
truth 60610
neigh@@ 60559
reviewed 60555
search@@ 60555
ui 60536
Let 60532
Stu@@ 60520
mail 60506
tious 60499
iler 60493
campaigns 60464
dress 60438
festivals 60425
mon 60422
shops 60415
Systems 60395
Wild 60390
ów 60390
fifteen 60384
Industrial 60379
andi@@ 60334
Players 60326
tanks 60304
cian 60289
Finally 60277
Chamber 60266
stre@@ 60257
delivery 60252
Arg@@ 60243
Fel@@ 60241
rows 60241
05 60232
Herbert 60221
assists 60204
hau@@ 60203
orchestra 60192
prim@@ 60187
planet 60182
4.@@ 60147
bow@@ 60142
IS 60137
permission 60123
lip 60114
Nepal 60113
Eth@@ 60106
uck 60104
quarter@@ 60102
shoot 60088
DA 60085
ared 60084
AF 60082
DJ 60077
preferred 60073
Vincent 60072
manufacturer 60064
participating 60038
outstanding 60030
thir@@ 60030
collaborated 60022
Bell@@ 60017
traditionally 60014
demonstrated 60010
olls 59998
resignation 59997
lands@@ 59992
bases 59990
rocks 59968
Rot@@ 59967
managing 59967
CD@@ 59954
Symphony 59952
How 59943
topics 59907
Archbishop 59899
MS@@ 59894
provid@@ 59893
PS@@ 59862
fare 59858
arding 59830
Borough 59820
soul 59818
å@@ 59811
magazines 59798
photographs 59781
trig@@ 59781
Cot@@ 59776
forcing 59761
venture 59748
dependent 59741
shall 59741
loaded 59735
rarely 59724
sson 59724
deemed 59709
Athens 59703
Cus@@ 59692
bo 59692
spac@@ 59687
elly 59686
esis 59665
Mem@@ 59663
organ@@ 59647
Costa 59626
slo@@ 59626
bon 59625
SS@@ 59612
mines 59581
3,000 59580
biological 59560
midfielder 59556
Azerbaijan 59555
Electric 59551
stress 59541
Pon@@ 59536
accept@@ 59507
placing 59496
Bil@@ 59475
Sak@@ 59471
operative 59461
Rail 59450
Hem@@ 59447
web@@ 59445
Bran@@ 59442
Nak@@ 59438
certified 59426
flights 59421
usual 59401
Wing 59400
vertical 59382
Law@@ 59377
lap@@ 59369
gence 59363
Jazz 59352
eggs 59340
Christianity 59331
Sou@@ 59308
expand 59308
discussion 59294
aud@@ 59289
funeral 59288
Gur@@ 59278
Blu@@ 59263
Cle@@ 59261
airing 59251
compiled 59249
Jam@@ 59246
aer@@ 59243
hear@@ 59231
bear 59218
rom@@ 59218
uz@@ 59196
ref 59195
yo 59177
Aqu@@ 59171
vast 59170
dil@@ 59163
Formula 59157
Pictures 59145
moral 59141
Wang 59109
Nebraska 59097
Madison 59084
peoples 59076
favour 59071
implementation 59060
activ@@ 59058
convicted 59032
symptoms 59029
rab@@ 59020
exercise 59014
industries 59011
lion 59008
Gun@@ 58985
pin@@ 58974
1867 58965
usi@@ 58957
Jr. 58952
playoff 58940
interpretation 58921
Vas@@ 58904
cooperation 58891
1872 58888
alia 58863
idge 58858
gang 58856
Norfolk 58854
scrip@@ 58837
RO@@ 58816
departed 58803
pper 58799
Circuit 58798
thick 58789
plain 58781
U.@@ 58777
lift 58769
py@@ 58747
tan 58741
1875 58734
invest@@ 58729
Nas@@ 58727
finance 58726
lov@@ 58693
ital 58688
van@@ 58671
Formation 58666
describing 58653
barr@@ 58632
unlike 58630
chrom@@ 58625
Cad@@ 58612
recur@@ 58610
usage 58607
viewer 58594
Kenya 58593
Hope 58589
vary 58589
Cab@@ 58576
Blues 58539
1879 58522
Pu@@ 58521
economics 58518
Lions 58512
olling 58511
Š@@ 58500
sharing 58498
Sha@@ 58468
extensively 58468
slaves 58467
manage 58438
virus 58436
lav@@ 58421
bright 58420
devoted 58412
Stor@@ 58405
Jur@@ 58401
Gray 58400
delayed 58399
popul@@ 58369
baby 58367
Lind@@ 58359
ministry 58359
enrolled 58352
RI@@ 58344
Cri@@ 58331
express 58330
Ot@@ 58325
Much 58304
ón 58301
contributing 58299
lingu@@ 58297
Drive 58292
coat 58289
wealth 58286
Nav@@ 58254
Nu@@ 58226
lim@@ 58205
J.@@ 58193
9.@@ 58173
inducted 58153
Gold@@ 58144
informed 58123
wider 58109
distingu@@ 58094
tified 58088
wher@@ 58085
igh 58079
roster 58076
quit@@ 58074
Those 58073
í@@ 58073
rej@@ 58065
tox@@ 58061
18@@ 58060
machines 58060
thin 58053
defend 58049
giant 58030
walking 58025
athlete 58016
consist@@ 58011
nat@@ 58009
Camp@@ 58005
exposure 58005
Pel@@ 57998
Non 57995
SO@@ 57988
1868 57970
prices 57958
Ten@@ 57955
28@@ 57937
supposed 57932
narrative 57927
sevent@@ 57921
elsewhere 57909
ope 57899
Giants 57888
partial 57883
lighting 57874
AB@@ 57842
viewing 57831
circle 57829
tile 57829
inherited 57827
designation 57822
ridge 57821
corresponding 57806
preparation 57790
trail 57786
07 57784
row@@ 57766
farming 57763
Rogers 57759
sized 57751
Ky@@ 57749
Commons 57745
reaches 57745
breeding 57739
Croatia 57736
householder 57735
reun@@ 57733
pages 57727
peti@@ 57726
conc@@ 57718
onds 57699
tournaments 57690
tou@@ 57682
quar@@ 57671
Mik@@ 57670
aboard 57664
correct 57656
filming 57652
USS 57627
Newcastle 57622
tribute 57617
ined 57611
simul@@ 57587
Proc@@ 57581
Architecture 57560
ER@@ 57554
var@@ 57548
Independence 57539
Bag@@ 57514
ushed 57504
graph@@ 57501
Vir@@ 57485
ive 57483
open@@ 57479
approached 57475
advertis@@ 57473
bachelor 57462
disch@@ 57450
Side 57438
top@@ 57425
Plan 57418
Blo@@ 57415
believes 57414
cro@@ 57407
charter 57402
Phil 57378
camps 57373
bac@@ 57369
author@@ 57362
fresh 57344
prosp@@ 57330
Range 57301
decorated 57285
import@@ 57269
concerning 57261
resumed 57259
Fair 57253
gy@@ 57253
cot@@ 57232
commenced 57224
Jerry 57223
deck 57222
Spec@@ 57221
cricketer 57205
vic 57204
Album 57203
exclusive 57190
1874 57184
observ@@ 57174
posts 57174
Abu 57163
incumbent 57149
progr@@ 57140
sort 57130
film@@ 57122
Policy 57119
Vegas 57108
zero 57108
golf 57097
Ev@@ 57096
communic@@ 57094
Hir@@ 57081
How@@ 57081
Primary 57079
Confederate 57076
Derby 57072
inj@@ 57060
limit@@ 57050
sounds 57041
reporting 57029
Had@@ 57027
Terry 57009
automatic 56992
liberal 56990
recalled 56986
waste 56983
ven 56975
Haz@@ 56967
winds 56958
inspiration 56956
expert 56952
1873 56940
RS 56931
allo@@ 56915
worker 56913
grandson 56911
ck@@ 56910
cred@@ 56906
Flo@@ 56901
imb@@ 56898
ached 56887
diplomatic 56857
identical 56855
eral 56853
alcohol 56841
dangerous 56836
depression 56829
NA 56792
1877 56791
imperial 56787
semin@@ 56785
specialized 56784
weapon 56763
eme 56762
aur@@ 56758
explic@@ 56751
Storm 56750
kins 56742
Denver 56732
06 56724
yd@@ 56682
recommend@@ 56674
São 56671
scar@@ 56664
clo@@ 56656
agre@@ 56651
depicted 56640
dn 56636
1866 56635
Soci@@ 56633
€ 56624
Neil 56620
physician 56613
eve 56612
Argentine 56599
pag@@ 56570
pitched 56557
buses 56543
org@@ 56531
utes 56519
Sultan 56514
Coun@@ 56498
ović 56498
Mill 56493
Bulgarian 56476
legislature 56476
Jefferson 56465
happ@@ 56462
tak@@ 56461
Species 56460
speaker 56458
Ed 56445
oir 56440
ehouse 56434
Pit@@ 56419
Based 56418
Croatian 56409
diseases 56403
Clar@@ 56402
Petersburg 56401
Pedro 56390
Southeast 56386
belongs 56382
found@@ 56379
saf@@ 56352
morph@@ 56347
rub@@ 56335
Florence 56322
Gra@@ 56312
evolved 56302
gaining 56297
seem 56297
Jose 56296
exhibitions 56284
nominations 56274
communist 56257
alizing 56253
nak@@ 56239
Anti 56238
thinking 56233
MI@@ 56227
clan 56219
Cher@@ 56210
uniform 56209
Rab@@ 56188
dol@@ 56166
iker 56165
sand 56164
Ridge 56136
soph@@ 56119
corruption 56108
peri@@ 56108
accur@@ 56093
Gener@@ 56092
shopping 56074
character@@ 56073
black@@ 56069
Nature 56067
portrait 56056
transi@@ 56054
Eventually 56033
ament 56031
acceler@@ 56026
Warsaw 56024
arriving 56008
enters 56005
sure 55987
AR 55983
historians 55971
oto 55954
Can 55944
Cav@@ 55927
gallery 55927
mp@@ 55925
yan@@ 55915
Patri@@ 55912
Amsterdam 55901
legacy 55886
Od@@ 55883
Murphy 55876
measured 55863
phon@@ 55855
burned 55848
legend 55845
Pav@@ 55836
till 55829
horror 55805
desc@@ 55787
vering 55778
eph@@ 55769
speakers 55761
Ottawa 55758
oll 55755
Slav@@ 55749
Xi@@ 55727
Ass@@ 55714
Helen 55713
relegated 55701
ander 55698
placement 55691
canal 55687
departments 55667
difficulties 55667
Economy 55661
ram@@ 55652
Climate 55628
Comics 55615
brigade 55612
enforcement 55607
Auckland 55588
reducing 55581
argument 55579
summit 55578
Christians 55574
sung 55572
stret@@ 55541
ku@@ 55540
extend 55532
phrase 55531
Cin@@ 55525
files 55520
Dick 55508
mainstream 55482
DP 55439
san@@ 55432
consolid@@ 55421
collec@@ 55414
interviews 55412
Play 55410
columns 55408
molec@@ 55401
oriented 55396
ante 55386
zy@@ 55385
conclu@@ 55377
visits 55370
Pil@@ 55363
belt 55357
appro@@ 55355
bri@@ 55355
challenges 55353
olo@@ 55352
Bri@@ 55335
Bulgaria 55320
quot@@ 55320
orn 55295
ave@@ 55280
Produc@@ 55279
punk 55277
Syrian 55270
param@@ 55266
camp@@ 55246
porting 55241
zes 55234
siege 55233
Edwards 55231
grass 55212
Delaware 55206
scores 55182
tool 55179
clean 55176
nik 55168
proof 55164
Yale 55155
constitut@@ 55153
Chapel 55151
connect 55151
yo@@ 55147
plat@@ 55146
Keith 55104
fighters 55103
instruc@@ 55100
addi@@ 55094
uy@@ 55077
Shanghai 55074
Luke 55072
Currently 55067
ordinary 55048
stab@@ 55040
unincorporated 55037
Fil@@ 55017
removal 55016
Wit@@ 55015
Perry 54983
excellent 54975
Eg@@ 54972
attempting 54967
hyper@@ 54961
Venice 54959
Sierra 54958
authored 54942
TV@@ 54928
wir@@ 54912
arti@@ 54882
prove 54880
helps 54873
execution 54871
spend 54855
Six@@ 54853
sim@@ 54852
regard 54843
murdered 54841
Writing 54829
looks 54828
Campaign 54824
exact 54815
affect 54814
pain@@ 54811
historically 54810
Lebanon 54801
alg@@ 54798
Harold 54785
recovery 54769
permitted 54768
enny 54749
actively 54746
Finance 54734
win@@ 54723
Corn@@ 54720
isation 54720
Grace 54714
01 54708
oes 54708
ask@@ 54702
characteristic 54701
voc@@ 54696
Kno@@ 54688
implic@@ 54684
Obama 54683
sitting 54674
argu@@ 54668
birthday 54666
writings 54643
every@@ 54639
carrier 54633
mal 54631
spin 54614
awareness 54605
guests 54571
pairs 54567
decide 54554
temporarily 54548
beauty 54526
disbanded 54523
ingen 54519
RT 54512
basin 54487
latest 54477
elimin@@ 54476
gen 54474
internet 54469
flew 54468
academy 54455
urn@@ 54451
coached 54439
six@@ 54439
bes 54431
mes@@ 54414
slave 54396
Pass@@ 54385
colleges 54384
agers 54366
Sat@@ 54364
illustr@@ 54352
Release 54342
oli 54338
IC 54337
deriv@@ 54333
remote 54326
saved 54319
Protestant 54306
sibilities 54306
cal 54292
counts 54284
aders 54281
collective 54272
Thai 54255
Manuel 54248
sexu@@ 54247
1869 54230
CO 54221
Kom@@ 54217
supplied 54214
sample 54203
spots 54202
mits 54199
esser 54191
sent@@ 54164
therapy 54141
Child 54131
Robin 54131
critic@@ 54111
mac@@ 54090
eau 54088
parks 54067
coins 54064
1848 54062
Anglican 54053
Wellington 54047
minis@@ 54028
Ther@@ 54019
29@@ 54013
aints 54002
IM@@ 54001
dollars 53990
Protection 53978
jump 53959
adjus@@ 53953
variable 53953
Stage 53943
perspective 53935
predecessor 53935
Ken 53926
indicating 53923
cavalry 53915
abolished 53913
earthquake 53912
mo 53896
payment 53881
weak 53875
neck 53862
35@@ 53860
reporter 53857
fal@@ 53849
backed 53846
bankrup@@ 53834
sac@@ 53820
3D 53813
affair 53807
sley 53799
accurate 53798
beetle 53784
dissolved 53782
gauge 53759
Tol@@ 53751
æ@@ 53747
Gregory 53736
Bobby 53734
• 53717
Future 53716
ingham 53716
tours 53716
Craig 53714
Sid@@ 53706
Ghana 53702
simultaneously 53696
opo@@ 53687
sun 53685
ener@@ 53681
Anti@@ 53658
ry@@ 53657
demands 53654
Stuart 53644
printing 53641
Report 53638
slowly 53632
rell 53627
emotional 53617
Collection 53616
restrictions 53594
rum@@ 53591
deser@@ 53583
Former 53571
bly 53569
ership 53569
Mother 53564
promin@@ 53552
elder 53539
worst 53539
6,@@ 53520
kov 53515
Workers 53504
encour@@ 53495
Batt@@ 53487
coup 53484
Larry 53483
crow@@ 53480
laun@@ 53478
mature 53473
Short 53471
aire 53468
berry 53466
Mes@@ 53464
Tow@@ 53464
sat 53462
Flight 53458
simil@@ 53458
switched 53457
copper 53452
mes 53450
geon 53446
flag@@ 53442
… 53434
alive 53432
decom@@ 53430
Financial 53414
bak@@ 53398
citing 53390
distinction 53386
earn 53376
Guy 53372
Hughes 53363
revolution 53361
namely 53358
Will@@ 53354
veget@@ 53353
hydr@@ 53345
carries 53336
root 53327
cutting 53325
tar 53322
wing@@ 53316
yi 53315
Car 53301
04 53298
spect@@ 53269
documented 53266
pulled 53266
Contemporary 53252
atmosphere 53235
Every 53228
unless 53209
Shu@@ 53194
condi@@ 53194
Gilbert 53190
chemistry 53187
ogen 53187
crosses 53185
prohib@@ 53184
pushed 53184
hence 53162
accommod@@ 53151
distinctive 53146
uns 53134
maps 53129
eva 53122
theories 53116
Nur@@ 53110
book@@ 53101
rie 53099
coll@@ 53088
sus@@ 53088
ocean 53075
collapse 53069
nephew 53067
otes 53064
options 53050
aro@@ 53044
broad@@ 53030
tenth 53030
premi@@ 53020
ministers 53012
ester 53000
Venezuela 52972
esting 52966
gap 52963
Bad 52958
tles 52950
attendance 52949
clock 52944
binding 52939
monthly 52930
14.@@ 52929
wind@@ 52914
imagin@@ 52910
lard 52905
ense 52885
Harbor 52881
valuable 52864
Gir@@ 52862
Sz@@ 52852
Plan@@ 52841
Commun@@ 52840
escaped 52840
Byzantine 52839
vian 52827
MO@@ 52826
Key 52817
sug@@ 52817
Gul@@ 52806
kidn@@ 52806
leagues 52800
NE@@ 52798
inhabited 52796
colon@@ 52795
CDP 52792
clar@@ 52792
Band@@ 52787
roc@@ 52786
encomp@@ 52785
Bog@@ 52778
Eagles 52773
Exchange 52767
administered 52758
sugar 52757
Has@@ 52744
icked 52743
vo 52743
targets 52742
recep@@ 52736
Fri@@ 52733
1850 52719
waiting 52711
guide 52704
que@@ 52695
Computer 52693
Han 52680
Sullivan 52678
Playing 52669
Males 52668
benef@@ 52652
Indonesian 52639
ej@@ 52633
liz@@ 52630
Dam 52624
enger 52613
Hitler 52605
sters 52596
Guardian 52595
Vit@@ 52586
feeling 52583
Les@@ 52580
bat 52577
Ralph 52566
crops 52548
graduation 52546
vention 52536
Aviation 52527
Albums 52523
Cru@@ 52513
intercep@@ 52496
scientist 52482
beam 52477
Run 52472
victim 52470
ruler 52469
adap@@ 52466
evil 52465
jer@@ 52465
ples 52454
Next 52451
Vermont 52447
consider@@ 52445
anch@@ 52437
res 52435
shut 52430
anism 52429
elementary 52416
recipient 52416
clay 52415
elite 52412
jus@@ 52412
emis@@ 52407
aft 52401
elevated 52398
requ@@ 52397
Environmental 52387
cap 52373
coaches 52372
40@@ 52341
amounts 52329
comparison 52321
outdoor 52312
Ep@@ 52309
descendants 52303
Hil@@ 52292
Dennis 52286
functional 52278
gathered 52256
restaurants 52238
Joint 52233
Wy@@ 52233
ares 52225
ERA 52224
Montana 52192
Delta 52190
Provincial 52134
Agriculture 52121
eto 52102
pros@@ 52096
Productions 52090
Ali@@ 52089
inter 52088
receives 52082
regulation 52082
compound 52081
Fir@@ 52078
Mr 52078
organisations 52077
clim@@ 52074
Villa 52072
aster 52072
cat 52055
Prefecture 52047
unk@@ 52042
mari@@ 52034
ancest@@ 52033
anus 52029
Sheffield 52025
Swe@@ 52020
Butler 52011
bridges 51989
rian 51983
connects 51978
approaches 51965
aic 51954
Yugoslavia 51944
gardens 51940
ando 51937
mamm@@ 51935
sequel 51935
explains 51932
leton 51914
grav@@ 51913
pt 51912
technologies 51909
entation 51905
trav@@ 51903
telling 51899
altitude 51884
publ@@ 51849
Sul@@ 51848
sover@@ 51848
alter@@ 51825
Steven 51815
cs 51802
Artillery 51784
asking 51783
tionary 51769
stem 51763
Kerala 51758
objective 51757
bey 51732
tes@@ 51726
syl@@ 51712
error 51709
Berkeley 51706
sket@@ 51699
consumption 51694
emphasis 51683
accomp@@ 51678
seemed 51675
comprises 51674
dian 51672
worship 51671
framework 51661
forth 51657
hills 51654
residing 51652
Secondary 51642
alternate 51638
wise 51637
tourism 51623
Some@@ 51607
Rat@@ 51597
uma 51586
seeds 51585
Wat@@ 51582
understood 51577
essentially 51575
Ancient 51572
challenged 51572
breaks 51571
bearing 51569
archaeological 51563
reforms 51559
Small 51554
sing@@ 51545
vocalist 51541
forty 51530
judg@@ 51527
anim@@ 51523
radical 51521
capita 51520
meter 51496
Leo 51493
ticket 51482
Hill@@ 51477
studios 51475
iko 51451
ret 51442
Monday 51434
Som@@ 51420
aja 51420
eon 51417
Sud@@ 51412
aned 51394
bars 51377
prepar@@ 51374
affili@@ 51371
kir@@ 51371
meat 51369
Jacques 51363
Friends 51348
referring 51348
poli@@ 51328
dean 51326
rice 51320
elev@@ 51314
Oper@@ 51307
ci 51297
affiliate 51289
bell 51285
mers 51285
identi@@ 51277
Google 51268
favour@@ 51268
aggregate 51246
installation 51239
kr@@ 51235
Kath@@ 51234
turn@@ 51228
ete 51216
branded 51214
predominantly 51204
patrol 51198
Cabinet 51196
Stanford 51195
bombing 51192
Susan 51191
reflect 51191
lod@@ 51186
E.@@ 51180
Student 51178
improvements 51160
dered 51148
Roosevelt 51144
dramatic 51129
suspension 51128
Days 51118
agree 51110
mix@@ 51104
aus 51103
Fall 51089
destroy 51086
Gau@@ 51066
Nashville 51065
disaster 51065
undergraduate 51059
lord 51058
Motor 51047
Ma 51044
las@@ 51042
IT 51025
Equ@@ 51000
Finals 50984
Shr@@ 50970
eum 50958
Performance 50957
Mills 50951
exerc@@ 50946
difficulty 50943
incar@@ 50940
institute 50938
resol@@ 50935
gam@@ 50933
defender 50932
Interstate 50924
Armed 50919
labour 50884
threw 50879
kw@@ 50878
experiments 50875
Horse 50872
ask 50871
favorite 50868
ticism 50863
tourist 50854
dering 50843
kilometers 50834
bel 50830
Saf@@ 50827
oug@@ 50816
lar 50812
extinct 50811
addres@@ 50809
sail@@ 50795
12.@@ 50790
uss@@ 50787
&apos;d 50782
tube 50772
quarterback 50758
hoods 50756
shut@@ 50743
recruited 50738
retiring 50737
alum@@ 50728
abled 50726
petition 50722
ling@@ 50720
news@@ 50712
set@@ 50711
martial 50709
Cruz 50708
alize 50703
mont 50697
ordin@@ 50697
talks 50696
impossible 50695
strong@@ 50695
teach 50690
Ok@@ 50666
structural 50657
External 50653
failing 50650
Kos@@ 50646
truck 50643
cam@@ 50634
enced 50625
volunteers 50617
metropolitan 50613
elabor@@ 50587
tributary 50587
aces 50581
answer 50581
Watson 50568
osh@@ 50552
citizen 50544
wrong 50538
Intelligence 50537
Methodist 50531
rap 50520
battles 50514
intellectual 50510
colleagues 50499
procedure 50477
doc@@ 50468
superior 50461
eps 50447
appreci@@ 50440
certific@@ 50439
nutri@@ 50439
ticul@@ 50436
authorized 50434
firing 50426
pass@@ 50414
rich@@ 50388
Govern@@ 50373
asi 50372
Holland 50371
politicians 50355
ket 50343
favor@@ 50325
Dame 50319
Af@@ 50318
comprehensive 50315
TE@@ 50313
Coach 50307
Higher 50296
efully 50291
Barn@@ 50290
Ron 50281
emigr@@ 50252
Previ@@ 50251
attacking 50245
taxes 50241
Starting 50239
plastic 50236
13.@@ 50232
insist@@ 50221
Dream 50220
Emer@@ 50219
argues 50219
fish@@ 50211
exhibit 50186
Meg@@ 50181
Wallace 50177
town@@ 50175
interrup@@ 50153
Ny@@ 50148
ified 50148
Beginning 50146
ald 50146
Sony 50135
vin 50135
silent 50130
salt 50128
din 50122
cut@@ 50116
laboratory 50115
eign@@ 50107
cats 50101
althcare 50084
Box 50071
wasn 50061
orph@@ 50051
Cum@@ 50050
Pir@@ 50048
Representative 50043
ignor@@ 50029
exactly 50021
1857 50015
nu@@ 50006
terror@@ 50006
orship 50000
Private 49992
god@@ 49988
Petr@@ 49986
resist@@ 49981
HMS 49975
Lem@@ 49970
drove 49969
zens 49965
Vietnamese 49964
wed 49929
developments 49925
rus@@ 49919
hidden 49911
Commerce 49903
develop@@ 49896
Wells 49886
1859 49884
convinced 49879
efficiency 49872
abund@@ 49863
consist 49843
20,000 49823
Sig@@ 49819
Dra@@ 49817
manuscript 49815
Eddie 49799
touchdowns 49792
exemp@@ 49777
casualties 49776
Vil@@ 49767
contracts 49742
stops 49742
key@@ 49736
Overview 49731
nickname 49725
flav@@ 49702
light@@ 49689
chor@@ 49681
sustained 49665
parking 49664
literally 49660
IT@@ 49657
nationally 49655
Emp@@ 49654
Jac@@ 49649
cripts 49649
Ivan 49635
public@@ 49620
MD 49618
Spar@@ 49602
unanim@@ 49602
RT@@ 49598
runners 49587
5.@@ 49585
mad@@ 49574
loop 49549
fundamental 49548
Pop 49546
emen 49531
Lou@@ 49519
ambassador 49514
illustrated 49514
Phillips 49509
MTV 49504
Golf 49490
Mason 49482
fastest 49476
pris@@ 49474
golden 49461
Raymond 49452
ort 49450
Ari@@ 49449
Nevertheless 49447
DO@@ 49445
wich 49436
compositions 49432
NY@@ 49427
Cold 49423
integration 49422
itt 49415
revised 49406
acon 49403
HL 49401
recogni@@ 49394
week@@ 49382
best@@ 49381
ais 49375
orchestr@@ 49368
sity 49368
Open@@ 49364
comments 49348
shots 49346
Sah@@ 49341
fifty 49341
Ground 49337
dead@@ 49331
promot@@ 49322
perceived 49320
Rick 49312
logo 49306
aspect 49304
Gothic 49303
Was@@ 49277
explain 49277
Palestine 49275
app 49274
relay 49272
diz@@ 49243
refugees 49237
announc@@ 49221
waves 49213
willing 49213
conserv@@ 49207
renowned 49207
Ambassador 49199
thanks 49188
ith@@ 49178
widow 49172
veteran 49170
Fourth 49162
sit@@ 49159
shipping 49157
Rol@@ 49139
Ig@@ 49136
mainland 49113
hospitals 49108
calendar 49107
engagement 49105
anian 49104
aims 49103
Price 49102
appr@@ 49102
Laur@@ 49099
oting 49092
Jon 49089
cuts 49084
fus@@ 49084
ovich 49078
strateg@@ 49074
ratings 49069
02 49065
Fu@@ 49059
Railways 49058
arians 49045
imprisoned 49044
7,@@ 49042
AFL 49031
radar 49026
Indies 49013
new@@ 48994
Pod@@ 48989
Cir@@ 48983
eni 48983
PC@@ 48982
serial 48968
variation 48962
toler@@ 48960
drinking 48956
stric@@ 48945
bie 48944
enthusias@@ 48940
manif@@ 48937
Arnold 48936
hem@@ 48935
pet@@ 48931
explan@@ 48923
night@@ 48918
ho 48908
wered 48890
Ob@@ 48876
Revolutionary 48873
Pop@@ 48872
pig@@ 48852
mond 48844
inks 48812
input 48810
pa@@ 48808
Leonard 48806
fas@@ 48804
tail@@ 48797
03 48775
zer 48771
ix 48770
LE@@ 48763
Angel 48754
eks 48753
Astr@@ 48748
las 48748
ement@@ 48735
pursu@@ 48735
cultures 48734
rescu@@ 48730
Tib@@ 48727
pling 48712
Northwest 48704
gene@@ 48704
expl@@ 48697
Literature 48695
Prague 48678
Magic 48677
gift 48658
appoint@@ 48655
pictures 48654
victories 48615
Junction 48610
oxygen 48601
orange 48595
pap@@ 48595
Leb@@ 48570
Columbus 48561
Tul@@ 48560
underwent 48542
Vin@@ 48534
Economics 48518
Ji@@ 48518
puts 48518
Gabriel 48510
examination 48502
scor@@ 48501
Celtic 48500
Romanized 48479
reflected 48477
eld 48472
neighboring 48472
uts 48461
thereby 48459
Grey 48458
Dr 48447
Congo 48432
Newton 48430
construct 48410
Harvey 48409
putting 48408
Grove 48407
handle 48407
Election 48406
Politics 48405
Dy@@ 48402
Rap@@ 48402
locomotive 48399
Bud@@ 48396
fung@@ 48396
memor@@ 48395
esters 48393
poll 48391
chec@@ 48390
discuss 48390
grap@@ 48389
enz@@ 48374
Bru@@ 48372
Ful@@ 48372
CR 48364
rul@@ 48357
sig@@ 48309
Dro@@ 48304
assi@@ 48296
ę@@ 48296
anting 48282
Mars 48269
Die 48263
focusing 48256
lawsuit 48248
eans 48246
smooth 48224
discrimination 48219
valu@@ 48218
Lac@@ 48213
progressive 48209
chanc@@ 48202
aviation 48198
accommodate 48186
uli@@ 48184
Hand@@ 48175
programmes 48173
celebration 48169
B.@@ 48162
,000 48160
diesel 48155
oria 48153
ease 48146
tex@@ 48146
Chair 48134
imposed 48132
Vid@@ 48118
Prim@@ 48112
Len@@ 48109
extending 48096
Tab@@ 48087
consult@@ 48081
Prom@@ 48080
travels 48077
con 48066
empire 48062
Tommy 48061
maintaining 48057
power@@ 48049
bonus 48048
xi@@ 48036
exile 48027
discontinued 48005
femin@@ 47999
cylinder 47992
founders 47989
R.@@ 47987
statements 47985
cens@@ 47974
heim 47974
airline 47954
Abraham 47952
Renaissance 47942
summary 47940
dir@@ 47930
illi@@ 47926
interaction 47925
signals 47921
Chang@@ 47912
Pos@@ 47912
Oscar 47895
bond 47893
ailed 47887
allegations 47884
agan 47883
Airlines 47879
judicial 47878
tra@@ 47873
detail 47861
Record 47845
rain@@ 47845
interesting 47840
prints 47840
tress 47838
Clarke 47835
virtual 47831
beaten 47827
dimensional 47808
market@@ 47806
Competition 47805
Films 47803
flat@@ 47770
zen 47769
equation 47768
prevented 47763
Palestinian 47758
Grammy 47754
controls 47739
immigration 47723
Ow@@ 47720
god 47718
artificial 47715
south@@ 47715
wore 47711
syndrome 47707
archae@@ 47704
familiar 47688
yst@@ 47686
traveling 47675
molecular 47674
lit 47664
Hamburg 47633
som 47624
Right 47606
Otto 47601
Ath@@ 47591
afternoon 47589
relating 47588
obvi@@ 47573
Vladimir 47570
concepts 47564
fold 47562
owns 47561
ectiv@@ 47554
Dre@@ 47550
theatrical 47550
Weekly 47533
experiment 47528
Mam@@ 47527
pin 47522
Neg@@ 47510
jur@@ 47508
revolutionary 47503
los@@ 47491
otions 47481
Phot@@ 47454
keys 47452
Cork 47448
isha 47445
kup 47444
Ball 47439
universal 47427
NS@@ 47413
samples 47410
planes 47399
ante@@ 47388
aes@@ 47387
ket@@ 47384
1854 47380
Statistics 47374
comics 47364
Off@@ 47362
improvement 47359
Essex 47357
nic@@ 47356
Minor 47352
itarian 47351
prepare 47333
addressed 47332
icking 47330
milk 47330
contribute 47326
updated 47324
broadcasts 47323
horn 47323
enzyme 47322
fic@@ 47321
biology 47316
dogs 47309
Plat@@ 47294
sciences 47293
Bra@@ 47292
rebounds 47289
Boulevard 47281
gan 47280
perf@@ 47277
PR 47267
nd@@ 47267
colonies 47258
deli@@ 47258
flood 47244
à 47237
worthy 47236
fires 47231
chen 47222
sar@@ 47212
Arabia 47204
moderate 47197
democracy 47194
dw@@ 47193
Ng@@ 47191
consumer 47191
Hind@@ 47182
O. 47176
ious 47170
anner 47166
universe 47145
empty 47144
liquid 47140
Ph.D. 47139
trian 47137
thirteen 47133
behavi@@ 47122
culmin@@ 47112
snow 47107
cot 47101
amend@@ 47083
Dragon 47081
warning 47081
extends 47078
aman 47066
Liu 47064
governing 47056
permanently 47054
Commercial 47048
Liberty 47047
radiation 47024
enemies 47018
readers 47018
kil@@ 47014
counted 47009
1855 47008
IP@@ 47007
segments 46998
min 46988
differenti@@ 46972
ibn 46967
pioneer 46967
aving 46963
feelings 46963
generate 46963
Iraqi 46946
ideal 46945
Hard@@ 46942
Rac@@ 46912
Honor 46911
Hunt 46903
tine 46900
Campus 46886
faster 46872
annex@@ 46864
solutions 46856
&apos;ll 46852
Thi@@ 46850
ā 46850
oi 46848
deliber@@ 46841
arly 46837
Cameron 46833
Milwaukee 46833
vern 46830
genes 46828
some@@ 46825
preserve 46816
centres 46814
select 46810
.S. 46809
sburg 46804
lifetime 46793
PO@@ 46789
computers 46783
denomin@@ 46777
allegedly 46774
Rav@@ 46773
Montgomery 46770
onies 46769
Serie 46761
Pearl 46760
exit 46756
tag@@ 46756
Sing@@ 46749
transmit@@ 46748
flies 46742
brook 46741
eri@@ 46740
har 46731
gan@@ 46729
holiday 46723
paint 46712
psychology 46712
Stakes 46706
demanded 46701
farm@@ 46669
Musical 46665
Fro@@ 46662
wars 46659
Jamaica 46655
oppos@@ 46645
nati@@ 46637
succession 46636
construc@@ 46629
induc@@ 46624
Zi@@ 46621
agreements 46620
arrives 46620
Ober@@ 46619
Punjab 46619
isions 46601
By@@ 46592
literacy 46589
continental 46588
king@@ 46585
specified 46582
Perth 46580
ric 46573
fairly 46572
photo 46572
referendum 46571
fun 46569
Panama 46567
Gri@@ 46565
ranges 46557
manga 46554
abi 46542
sely 46537
discre@@ 46532
infection 46532
intense 46530
oga 46526
Maurice 46514
prince 46514
consec@@ 46512
venues 46510
1856 46508
tension 46505
ograph@@ 46487
pure 46485
engage 46483
Wolf 46475
veter@@ 46465
Leader 46464
announcement 46463
arrive 46462
orial 46459
Outstanding 46457
reverse 46447
cau@@ 46445
missile 46433
Bun@@ 46424
Site 46415
burial 46406
decre@@ 46401
cave 46400
IL 46395
resort 46392
Wall@@ 46386
cathedral 46370
fate 46364
Nat@@ 46351
Danny 46350
Data 46340
1858 46337
lakes 46335
renewed 46332
inge 46329
codes 46320
magic 46311
cult 46299
Hart 46298
sively 46298
Morning 46296
plac@@ 46295
Elementary 46286
rebellion 46272
exhaus@@ 46266
liv@@ 46256
fewer 46255
equate 46249
Revival 46245
shorter 46242
Shaw 46232
Hop@@ 46223
Rock@@ 46222
ettes 46219
hear 46215
mixture 46212
sending 46199
handling 46197
unct 46188
Joan 46182
chester 46181
populated 46177
phosph@@ 46176
Original 46171
avi 46142
doctoral 46136
Rolling 46135
ann 46131
Population 46117
dal 46114
employee 46114
icious 46114
haz@@ 46112
photographer 46112
Cant@@ 46110
Vill@@ 46103
Marvel 46092
enabled 46092
advant@@ 46086
tif@@ 46077
Tradi@@ 46075
coc@@ 46072
tape 46065
Survey 46045
ycle 46034
Bosnia 46031
independently 46026
diversity 46021
fame 46021
pref@@ 46020
shel@@ 46020
Bennett 46014
fir@@ 46013
Oakland 46009
graph 46004
artwork 46001
AB 45998
ken@@ 45996
generations 45993
Article 45989
Notes 45988
Brunswick 45986
patent 45986
realized 45980
fallen 45963
atures 45961
arena 45960
quiry 45959
amo@@ 45951
15.@@ 45950
Mach@@ 45921
cad@@ 45919
Nan@@ 45918
gee 45911
estone 45901
ural 45898
Kot@@ 45897
cription 45876
revival 45876
Friedrich 45874
drum 45873
tea 45873
eventual 45872
dubbed 45870
confidence 45859
requiring 45854
experts 45851
Laura 45838
tru@@ 45834
Miguel 45827
stationed 45827
110 45824
repeatedly 45823
tag 45819
22@@ 45808
rag@@ 45806
H.@@ 45803
shifted 45786
disorder 45783
ucks 45783
footage 45782
retreat 45772
tern@@ 45763
ece 45762
boarding 45758
promised 45758
manipul@@ 45743
Greg 45735
AG 45732
plates 45729
queen 45727
propri@@ 45722
dar@@ 45718
tip 45718
stored 45716
Source 45707
bench 45707
day@@ 45695
assembled 45691
model@@ 45685
tissue 45685
catch 45684
freight 45675
slavery 45675
eck@@ 45670
aning 45668
aside 45656
ords 45652
tus 45641
advocate 45637
treat 45636
pose 45635
zz@@ 45635
awn 45633
phy@@ 45633
displays 45612
virtu@@ 45610
protagon@@ 45601
hardware 45589
frag@@ 45559
portions 45555
ão 45551
Georgian 45544
volcan@@ 45539
Spencer 45534
interpre@@ 45530
variants 45526
Name 45523
Beh@@ 45520
Kab@@ 45488
icon 45480
Van@@ 45479
autobi@@ 45479
accompl@@ 45471
Cardinal 45466
dialogue 45459
fantasy 45453
Spirit 45440
animation 45424
reserves 45401
Baby 45398
ensu@@ 45385
dancing 45374
Non@@ 45368
ph 45352
aye 45351
insky 45337
belong 45332
Forum 45305
inscription 45297
editorial 45292
witness 45288
eus 45285
frac@@ 45282
Cast@@ 45278
Mang@@ 45268
surrender 45258
Kun@@ 45250
particles 45245
isol@@ 45212
pilots 45211
assessment 45209
Syn@@ 45208
Academic 45205
Scientific 45204
councill@@ 45191
spokes@@ 45190
rivals 45183
Mario 45180
fourteen 45177
Nin@@ 45176
aliz@@ 45165
circulation 45165
ș@@ 45155
magnetic 45154
trad@@ 45153
constr@@ 45147
xi 45138
investigate 45134
Stockholm 45133
boxing 45125
asting 45124
lander 45112
Acc@@ 45109
Bus 45107
ield 45105
sville 45104
Lost 45088
tz 45087
dict@@ 45081
hair@@ 45067
telephone 45062
Stat@@ 45061
Mumbai 45057
acher 45051
destin@@ 45042
Johann 45040
adj@@ 45037
Wilhelm 45035
Where 45030
agh 45025
backing 45025
Typ@@ 45018
acle 45006
anime 45003
Mit@@ 45000
teeth 44993
Gan@@ 44984
gli@@ 44983
ust@@ 44969
democratic 44965
alle@@ 44953
achment 44950
Location 44946
Spo@@ 44943
noise 44940
Flying 44934
remembered 44934
athletic 44928
Room 44921
iter@@ 44915
Ras@@ 44901
nings 44899
nec@@ 44895
Shakespeare 44894
activists 44886
dic 44886
cann@@ 44880
Brah@@ 44877
Legal 44874
surprise 44874
variations 44874
80@@ 44873
plas@@ 44873
spell 44869
pitcher 44865
anticip@@ 44863
Louise 44862
ovo 44861
fun@@ 44857
Sir@@ 44856
metric 44850
naming 44844
ers@@ 44842
Foster 44840
Tac@@ 44819
enco@@ 44814
kick 44813
retain 44806
mere 44804
ous@@ 44804
Albanian 44788
1840 44783
Facebook 44771
Bed@@ 44763
followers 44763
itary 44755
Paulo 44749
maj@@ 44748
Manila 44743
beliefs 44737
1851 44734
prestigious 44734
esti@@ 44712
severely 44704
situations 44704
sixteen 44703
alling 44699
provisions 44699
pist@@ 44691
AE@@ 44687
dealing 44674
matrix 44673
intervention 44658
Penn 44657
refin@@ 44648
releasing 44647
index 44646
ordained 44643
unded 44633
Nik@@ 44628
pad@@ 44626
eption 44621
Pakistani 44616
Cuban 44596
criteria 44596
switch 44593
dock 44590
Grande 44571
enlisted 44570
DE@@ 44559
los 44558
civilians 44557
struc@@ 44557
Ori@@ 44553
suspected 44553
depend@@ 44551
notice 44547
3.5 44544
freestyle 44528
itz@@ 44522
D.@@ 44515
Wak@@ 44515
ng 44508
Shan@@ 44501
Uganda 44500
neighbouring 44500
upcoming 44500
instruction 44496
diam@@ 44495
specimens 44488
Cass@@ 44487
É@@ 44476
sedi@@ 44474
similarly 44473
commitment 44470
Nine 44465
friendship 44463
swit@@ 44458
ecu@@ 44456
oner 44455
Fur@@ 44450
dream 44449
edo 44437
voiced 44422
seriously 44413
professionals 44400
conducting 44391
resemb@@ 44389
Mac 44387
Mechan@@ 44380
lac@@ 44378
comprising 44375
cost@@ 44372
16.@@ 44367
Eagle 44361
Py@@ 44358
prisoner 44357
PM 44355
aug@@ 44351
divorce 44343
HD 44340
Manager 44337
Wes@@ 44337
cali@@ 44337
noting 44335
gros@@ 44328
layout 44326
BS 44323
confused 44320
unter 44317
Micro@@ 44314
altered 44312
seek@@ 44311
6.@@ 44272
Low 44266
clus@@ 44258
choir 44253
interpreted 44253
migrated 44251
chapters 44247
Aaron 44245
François 44237
Advanced 44234
separation 44226
societies 44218
dialect 44212
tains 44210
centered 44201
Blood 44200
topped 44188
behaviour 44187
umi 44183
zo@@ 44176
targeted 44169
seized 44165
venti@@ 44162
half@@ 44150
TS 44149
ami@@ 44140
Reb@@ 44132
urer 44103
Mobile 44098
onn@@ 44098
Somerset 44096
wil@@ 44075
ini@@ 44071
conductor 44066
marking 44059
manufacturers 44052
Sev@@ 44046
illo 44041
observation 44041
oles 44039
sin 44039
succes@@ 44038
congr@@ 44035
quest 44034
liner 44030
Continental 44026
triple 44023
Isaac 44022
Trav@@ 44003
biography 44003
Bet@@ 43993
by@@ 43990
amid 43987
.C. 43986
Wildlife 43986
minim@@ 43980
Sean 43978
disper@@ 43976
ku 43974
Laboratory 43969
streams 43965
Wild@@ 43958
heir 43955
boro 43951
ours 43948
Circle 43922
Miss@@ 43922
custom 43921
escap@@ 43920
jail 43911
lide 43906
kies 43905
lateral 43902
pology 43902
distribut@@ 43900
acoustic 43890
Indianapolis 43886
presents 43885
Secret 43877
Kl@@ 43870
Owen 43862
ido 43857
olo 43856
Voice 43834
potentially 43819
anno@@ 43817
Top@@ 43816
Say@@ 43810
p.m. 43810
heading 43805
goalkeeper 43801
vent 43790
personally 43783
wake 43783
journalists 43780
Besides 43778
Sussex 43778
celebrate 43772
tam@@ 43761
specialist 43751
aler 43750
thrown 43746
NASA 43744
wish 43743
erup@@ 43734
Tennis 43725
adow 43722
uph@@ 43709
tender 43706
invented 43698
icket 43697
ensi@@ 43696
Guide 43694
adily 43691
Scotia 43689
Durham 43685
assed 43673
orium 43667
arry 43663
ques 43662
orth@@ 43654
transit 43641
1852 43632
Ted 43632
ague 43628
codice 43628
gif@@ 43627
otion 43627
adventure 43625
Multi@@ 43620
CN@@ 43608
RNA 43606
Gardens 43587
Tex@@ 43585
harv@@ 43585
anz@@ 43582
Ernest 43581
signature 43576
Examples 43571
acht 43570
bran@@ 43569
Gam@@ 43566
arrangements 43566
Bird 43565
considering 43565
sit 43564
destination 43562
900 43551
kes 43544
Cardinals 43542
Gate 43533
eli 43526
iden 43523
Pass 43520
small@@ 43513
Sched@@ 43509
Cole 43507
Heights 43507
volleyball 43507
check 43506
Aires 43502
favorable 43500
applic@@ 43496
fat@@ 43494
tackles 43486
oid@@ 43482
siz@@ 43481
Environment 43474
after@@ 43473
Are 43460
clients 43452
rifle 43452
specul@@ 43450
findings 43442
jet 43432
tre 43428
Buenos 43423
revers@@ 43418
feder@@ 43414
purch@@ 43412
Log@@ 43407
blu@@ 43405
Reading 43401
EC 43397
49@@ 43391
Christ@@ 43385
bour 43384
Fisher 43381
indeed 43377
arium 43365
sof@@ 43361
Yu@@ 43359
uted 43353
yg@@ 43351
Beg@@ 43324
butter@@ 43321
iliz@@ 43321
aha 43320
po 43314
After@@ 43311
Ages 43310
package 43288
tasks 43285
varied 43285
corps 43284
merely 43275
pen 43270
BI 43269
campa@@ 43268
quick 43262
tut@@ 43255
Sox 43236
Artists 43231
requirement 43228
conduc@@ 43227
Tir@@ 43219
Mich@@ 43215
stand@@ 43201
esia 43198
orbit 43184
associations 43180
concentrated 43172
Mass 43171
Reed 43169
Lithuania 43167
Triple 43164
aa 43152
promp@@ 43143
Rh@@ 43141
audiences 43141
presentation 43136
Aboriginal 43134
floors 43129
reason@@ 43124
encourage 43121
sanc@@ 43116
ware 43112
Archae@@ 43111
substanti@@ 43109
unions 43108
pursued 43092
101 43077
Wu 43077
tho@@ 43077
Pun@@ 43074
preced@@ 43074
ayed 43063
volun@@ 43063
ska 43061
bears 43046
relatives 43037
Og@@ 43031
Comp@@ 43030
decrease 43030
neys 43009
commun@@ 42997
onder@@ 42983
carto@@ 42973
Rhode 42969
Ray@@ 42968
VII 42963
practic@@ 42961
desert 42956
Kate 42948
Isle 42947
comprom@@ 42947
commentary 42942
congregation 42940
trio 42928
Bears 42927
Westminster 42910
circular 42899
Fun@@ 42891
Knights 42889
hometown 42883
maintains 42876
aba 42872
yon 42865
discovers 42864
subj@@ 42858
conven@@ 42855
Bill@@ 42850
imm@@ 42841
hic 42836
Nancy 42834
BCE 42833
cab@@ 42831
suggesting 42825
Armenia 42824
abbrevi@@ 42820
Lucas 42815
doctorate 42815
gies 42811
volunteer 42805
manages 42797
1853 42786
brings 42784
touch 42776
vector 42774
psychological 42771
complic@@ 42768
threats 42767
trol@@ 42765
Sund@@ 42749
interchange 42748
exterior 42739
ont@@ 42735
AL 42726
sequences 42716
Kum@@ 42712
coffee 42709
indoor 42705
dou@@ 42701
Terr@@ 42700
locks 42696
Lad@@ 42686
das 42681
hoped 42679
intermediate 42670
inten@@ 42660
Hag@@ 42655
Transit 42641
Teams 42640
divorced 42640
encountered 42640
seri@@ 42636
ibility 42626
Rovers 42617
paying 42615
conflicts 42614
lab 42612
Son 42606
planted 42589
Todd 42570
systemati@@ 42566
Justin 42557
transformed 42555
Human@@ 42552
Aus@@ 42548
icity 42515
operators 42507
rainfall 42494
Lav@@ 42473
Newport 42455
Rev. 42455
sians 42455
shru@@ 42453
gear 42447
Dum@@ 42435
creates 42435
AG@@ 42429
Steel 42417
lip@@ 42417
ín 42417
identification 42414
17.@@ 42413
Tampa 42403
averaged 42403
Czechoslov@@ 42401
conn@@ 42399
Tem@@ 42391
theorem 42388
fair@@ 42380
Rice 42378
ont 42375
west@@ 42372
Cit@@ 42367
expanding 42367
siblings 42362
Morocco 42359
Gos@@ 42353
Copenhagen 42351
130 42347
wire 42342
recognize 42321
aly 42317
uter 42311
staged 42308
Salt 42303
AFC 42302
disciplin@@ 42297
gestion 42293
skill 42291
deeply 42290
warfare 42290
hik@@ 42288
Stan@@ 42287
Block 42279
praise 42274
Gas@@ 42265
spre@@ 42265
Using 42262
Slo@@ 42252
citizenship 42249
enclos@@ 42249
improving 42242
Marc 42238
pale 42232
Drama 42231
dh@@ 42230
cover@@ 42221
hips 42219
icist 42213
continent 42205
closest 42199
Writ@@ 42198
Radi@@ 42197
prototype 42193
4,000 42185
Compan@@ 42175
Hindi 42173
unve@@ 42171
Fitz@@ 42168
properly 42157
reli@@ 42153
sheet 42143
Parliamentary 42136
Lancashire 42132
achievements 42123
Sky@@ 42094
ii 42094
mollus@@ 42090
pianist 42086
1849 42083
axis 42066
Chester 42060
Suc@@ 42058
Shin@@ 42057
honours 42055
isi 42051
Squ@@ 42037
itus 42036
Pat 42007
edings 42005
comput@@ 42002
pione@@ 42002
procedures 42000
emerging 41993
immun@@ 41987
Hurricane 41985
rebels 41981
elds 41980
survival 41977
Parks 41976
erg@@ 41972
dial@@ 41969
ishers 41969
Aur@@ 41965
colours 41962
banking 41958
Diamond 41955
nationwide 41955
NR@@ 41952
valid@@ 41950
achievement 41947
Liv@@ 41943
Franco 41940
farms 41939
journals 41936
rey 41934
Palmer 41927
App@@ 41915
BM@@ 41912
scholar@@ 41911
nineteenth 41905
collegiate 41891
panels 41890
Bis@@ 41873
eti@@ 41868
ishments 41855
varies 41852
Amendment 41848
owski 41841
Ahmed 41840
Rob 41836
Ale@@ 41835
singers 41828
50,000 41815
cho 41815
fur 41809
verl@@ 41803
Oil 41794
survivors 41793
gramm@@ 41787
Ric@@ 41786
ank@@ 41781
Fighter 41780
edr@@ 41780
criticised 41773
Safety 41771
broadcas@@ 41771
crimin@@ 41764
Idaho 41758
jan 41747
autumn 41743
I.@@ 41741
Lithuanian 41733
wright 41731
dispos@@ 41723
rent 41723
explor@@ 41719
Davies 41717
eb 41712
age@@ 41711
headquartered 41710
visi@@ 41704
yi@@ 41696
acknowledged 41691
lux@@ 41679
vow@@ 41674
graphics 41653
chants 41646
okes 41638
honored 41635
Chen 41627
Zo@@ 41627
egg 41624
Ring 41618
ji@@ 41617
Care 41614
confron@@ 41613
pregnant 41609
Jay@@ 41607
audi@@ 41604
Plant 41596
Cyprus 41595
reduc@@ 41590
Game@@ 41589
register 41581
anta 41572
database 41572
tel 41561
alar@@ 41549
Lisa 41529
Oak 41525
impressive 41514
prise 41514
7.@@ 41513
versi@@ 41507
restore 41501
interface 41493
Det@@ 41491
journalism 41491
Lit@@ 41485
Tag@@ 41474
streak 41472
mini 41468
ender 41465
Stevens 41459
colonel 41457
Call@@ 41456
carved 41450
conjunction 41445
dition 41440
corpor@@ 41437
allied 41430
pseud@@ 41430
esque 41425
VA 41424
Yang 41424
renew@@ 41424
wash@@ 41423
ark 41421
Brussels 41415
Malta 41413
lad@@ 41413
East@@ 41412
temper@@ 41401
Events 41398
rat 41397
Publ@@ 41396
consultant 41394
wet 41390
Ferdinand 41385
Mug@@ 41384
knee 41381
scorer 41377
ventures 41373
grou@@ 41372
Chelsea 41365
Emb@@ 41365
SE 41362
sleep 41360
scandal 41351
1847 41347
pupils 41343
8,@@ 41328
Pain@@ 41324
Ruth 41317
Annual 41310
hier@@ 41307
duration 41305
hosting 41305
Cavalry 41295
ate@@ 41291
iders 41286
provision 41279
ichi 41276
feeding 41268
nut 41267
onwards 41266
sharp 41255
quot 41248
syndic@@ 41248
quarters 41246
eda 41243
Giovanni 41236
consul@@ 41233
Sr. 41231
Canterbury 41230
Lau@@ 41229
conscious 41207
step@@ 41207
chy 41197
messages 41197
Personnel 41196
Net@@ 41190
enjoy@@ 41184
collect 41177
curve 41172
towers 41167
enburg 41166
000 41161
dynam@@ 41160
trouble 41160
quoted 41158
counc@@ 41154
pies 41146
dis 41143
priests 41141
lecturer 41140
ecraft 41137
rever@@ 41137
ferry 41135
guidance 41133
danger 41130
impressed 41128
Santiago 41119
stolen 41107
nest 41102
kings 41097
fluid 41088
esp@@ 41079
neighbour@@ 41076
welfare 41076
dess 41074
grants 41073
ī 41071
disappeared 41063
anes 41048
stability 41044
Soul 41043
random 41042
{ 41038
Still 41037
advisor 41021
Living 41019
lus@@ 41017
locked 41011
201@@ 41007
Peak 41007
atric 41001
aper 41000
entity 41000
Kap@@ 40987
Rag@@ 40986
liked 40986
batting 40959
circum@@ 40951
fed 40951
warri@@ 40941
withdrawn 40939
HIV 40938
travelling 40938
persist@@ 40935
suddenly 40934
valid 40930
presidency 40915
prey 40911
array 40908
rapper 40904
deliver 40902
hu 40892
resource 40886
sensitive 40875
Napoleon 40869
burning 40866
relegation 40865
southeastern 40861
layers 40859
legitimate 40854
hs 40853
rounded 40853
estry 40852
deals 40842
upgraded 40838
mentions 40827
enne 40820
fortress 40820
abol@@ 40819
engineers 40818
derly 40806
mati@@ 40791
bal 40787
arc@@ 40786
consensus 40786
governed 40774
ovsky 40773
privately 40765
gest@@ 40761
punishment 40759
nitr@@ 40752
line@@ 40749
ion@@ 40744
Artist 40736
attr@@ 40727
ano@@ 40715
lineup 40708
Tun@@ 40705
cotton 40698
wak@@ 40695
kan@@ 40682
wickets 40678
receiver 40656
enton 40644
Saskatchewan 40637
Chancellor 40633
conferences 40630
Armstrong 40629
Lib@@ 40626
diver@@ 40626
eat 40625
Estate 40620
tham 40620
assignment 40616
da@@ 40610
devast@@ 40610
lighted 40594
Additional 40592
practiced 40588
revi@@ 40583
favourite 40578
Left 40571
telec@@ 40569
doctors 40567
porters 40567
Queens 40557
enable 40557
gi 40552
ó 40544
Cardiff 40543
Machine 40535
uly 40525
egr@@ 40523
Fernando 40520
achiev@@ 40519
haw@@ 40508
factor@@ 40491
Twitter 40484
sailing 40482
sar 40472
rew@@ 40469
tale 40464
occurring 40460
topic 40457
Dominican 40456
Chapter 40447
outh 40447
configuration 40444
abe 40442
reco@@ 40439
Carr@@ 40435
Princeton 40431
Lot@@ 40419
deposits 40417
camer@@ 40411
Franz 40410
boy@@ 40406
imen 40406
inus 40406
Sag@@ 40402
Cou@@ 40394
quantum 40394
Sabha 40392
vertebr@@ 40391
doubl@@ 40381
CF@@ 40378
rh@@ 40377
imprisonment 40373
corn 40370
conten@@ 40355
transported 40354
trop@@ 40353
diction 40344
Marcus 40340
ony@@ 40332
rocket 40331
larvae 40330
proceeded 40328
Actor 40324
ather@@ 40320
sm@@ 40306
Solomon 40304
CR@@ 40295
Evangel@@ 40293
definiti@@ 40291
fraud 40288
bery 40284
Far 40281
Buch@@ 40268
cataly@@ 40268
reliable 40260
eses 40257
Interior 40247
stretch 40245
pounds 40244
wage 40238
mall 40227
adem@@ 40220
Rud@@ 40213
tomb 40210
1846 40209
flooding 40199
watching 40189
odes 40186
Emma 40183
Belgrade 40181
chap@@ 40174
excep@@ 40170
Powell 40166
permit 40166
IF@@ 40165
strikes 40156
supporter 40148
Holmes 40145
reveal 40142
stic 40141
nia 40140
Presbyterian 40137
.. 40134
Dynasty 40125
Page 40111
Geneva 40101
temples 40084
Rut@@ 40077
Total 40076
voyage 40074
wheels 40070
ram 40068
tcy 40068
coinc@@ 40060
performers 40051
delay 40049
60@@ 40044
proc@@ 40044
strength@@ 40044
automatically 40034
Hull 40030
big@@ 40025
esian 40023
pan 40021
Tiger 40019
aux 40018
neutral 40011
Scot@@ 40003
pronounced 39999
25@@ 39995
100@@ 39988
Moreover 39988
custo@@ 39985
shif@@ 39974
ili 39970
phenomenon 39968
intendent 39966
Dig@@ 39965
Bac@@ 39964
Chin@@ 39964
HF 39962
estates 39957
territorial 39945
Dep@@ 39941
fiel@@ 39938
inary 39938
Lab@@ 39919
curriculum 39917
acquire 39916
grid 39915
investors 39911
ator@@ 39905
vor@@ 39901
muscle 39898
varying 39892
drink 39886
Nintendo 39880
urb@@ 39876
Bod@@ 39873
ried 39864
drawings 39863
Zhang 39857
Pete 39847
1,0@@ 39831
WA 39827
Ellis 39814
Amateur 39812
ander@@ 39808
vi 39803
isa 39802
stown 39801
lain 39794
Kingston 39784
beer 39772
compounds 39771
reactions 39758
Pent@@ 39750
tiz@@ 39749
algorithm 39747
Aff@@ 39743
aca 39741
enko 39736
Wol@@ 39732
ockout 39725
itely 39724
Tin@@ 39722
Popular 39709
Without 39709
ST 39703
alog 39703
myster@@ 39691
bee 39687
afts 39686
Bradford 39680
Cub@@ 39677
entries 39675
corporation 39673
lett 39670
destroy@@ 39663
reads 39662
theology 39661
tary 39647
Aer@@ 39639
preliminary 39639
og 39632
membrane 39631
noble 39629
dynamic 39610
posed 39598
Double 39596
sud@@ 39594
blues 39590
infr@@ 39585
Similarly 39578
push 39577
registration 39575
olog@@ 39573
march 39572
interactions 39566
ridor 39563
Engineers 39558
XI 39555
erry 39552
ras@@ 39546
eze 39538
northeastern 39534
eur@@ 39525
infl@@ 39524
18.@@ 39520
ś@@ 39515
publish 39513
Fifth 39511
eating 39511
struggled 39498
lectures 39497
intensity 39495
Sudan 39490
Sau@@ 39489
Java 39480
utor 39477
Albania 39474
chore@@ 39468
Relations 39460
Ton@@ 39458
define 39448
Desert 39445
pression 39445
Yellow 39438
customer 39417
flowering 39411
carp@@ 39404
easier 39401
Lodge 39400
kilometres 39393
Woods 39390
idence 39382
super 39377
environments 39366
meth@@ 39362
Simpson 39359
finite 39344
national@@ 39343
discover 39342
olly 39341
rine 39339
ruins 39338
treas@@ 39338
gor@@ 39331
Distinguished 39324
Herald 39324
rog@@ 39317
hydrogen 39316
Eff@@ 39313
Harr@@ 39313
competitors 39309
ier@@ 39304
Subsequently 39301
Bhar@@ 39294
currency 39285
PlayStation 39280
aftermath 39275
prompted 39272
shelter 39269
DF 39267
Indigenous 39266
testimon@@ 39262
33@@ 39254
NATO 39251
embarked 39243
Ronald 39241
libraries 39241
nt 39239
imag@@ 39233
PE@@ 39225
gin 39225
oks 39221
disputed 39219
testi@@ 39211
Again 39209
read@@ 39199
bled 39193
aughter 39190
client 39186
discipline 39166
tight 39166
SN@@ 39163
Tree 39162
metabol@@ 39155
Tat@@ 39152
Advisory 39150
Manitoba 39145
\ 39140
handled 39138
Pre 39137
pregn@@ 39131
acclaim 39127
Andrews 39125
solely 39123
nam 39116
phones 39097
firms 39095
inser@@ 39093
Bec@@ 39091
overwhel@@ 39085
holder 39083
Film@@ 39074
colored 39071
FBI 39067
ammunition 39067
appl@@ 39063
hous@@ 39063
modi@@ 39061
ache 39054
Kaz@@ 39051
Recording 39050
modern@@ 39047
decreased 39046
reloc@@ 39040
Comedy 39032
sli@@ 39029
verses 39027
Us 39026
shap@@ 39022
jo@@ 39018
lars 39018
reconstruction 39013
teammate 39013
alions 39011
Julian 39009
annon 39006
helicopter 39004
Command@@ 38996
ig 38990
20.@@ 38989
IBM 38983
Rod@@ 38983
rivalry 38956
1812 38949
shoulder 38932
byp@@ 38926
dozen 38926
Proper@@ 38925
Hab@@ 38921
iga 38914
erst@@ 38912
engrav@@ 38907
casting 38903
prefer@@ 38898
prised 38896
servers 38896
fusion 38890
governmental 38889
fix 38887
militia 38886
attraction 38882
terrain 38879
bassist 38877
peer 38869
feld 38867
Julia 38833
1830 38823
aut 38815
approxim@@ 38814
watched 38806
zones 38800
Wind 38799
hitting 38798
Basin 38787
institut@@ 38787
FF 38778
Cath@@ 38772
gathering 38767
Guards 38765
consent 38764
interim 38760
Zh@@ 38757
AI 38755
Brooks 38749
armies 38746
oric 38741
alisation 38740
Honor@@ 38732
Fut@@ 38728
Mid 38727
Return 38726
eville 38722
1845 38716
twentieth 38716
Eight 38708
girlfriend 38707
Eugene 38705
elia 38678
academ@@ 38676
beneath 38671
Publishing 38666
conquest 38665
Rest@@ 38664
rit@@ 38655
solve 38649
explosion 38646
tage 38637
LGBT 38635
kno@@ 38630
dying 38627
Ach@@ 38623
Brad@@ 38623
Abdul 38622
II@@ 38616
occasional 38616
varieties 38616
prayer 38614
joins 38612
striking 38607
180 38606
accumul@@ 38604
Legislature 38603
Tus@@ 38600
Caroline 38593
uit 38589
stal@@ 38583
Brit@@ 38578
hire 38578
tribal 38571
23.@@ 38570
Plaza 38567
cent@@ 38562
Connor 38560
feels 38558
tional@@ 38555
Duncan 38553
kills 38549
Complex 38546
iti 38543
proposals 38537
apa 38535
Kenneth 38534
Memphis 38531
Pau@@ 38525
bacteria 38523
ado@@ 38505
Others 38502
survi@@ 38499
Lakes 38498
export 38496
Official 38492
bud@@ 38492
creator 38490
L.@@ 38489
believ@@ 38487
Legion 38485
ballot 38484
southwestern 38479
asant 38476
farmer 38469
bills 38461
insects 38454
Chase 38451
aud 38451
bounded 38448
observations 38442
Jag@@ 38439
eka 38437
Critics 38430
exec@@ 38430
aut@@ 38425
ematic 38422
Philosophy 38418
Chal@@ 38416
emble 38416
learns 38415
stell@@ 38414
Shah@@ 38412
Rub@@ 38408
portraits 38406
shallow 38406
aran 38405
Colonial 38404
settle 38403
arbitr@@ 38402
xy 38399
posthum@@ 38391
Tang 38386
avo@@ 38386
mph 38385
yu 38376
Against 38373
Nation@@ 38373
encounter 38371
erson 38370
grain 38368
lasting 38368
ML@@ 38365
shock 38360
virtually 38335
storyline 38318
eston 38317
pent@@ 38312
Republicans 38311
11@@ 38310
Universe 38310
Arsenal 38308
vegetation 38307
stronger 38302
Number 38300
umes 38293
trend 38292
moon 38291
lessons 38289
sible 38287
Allan 38286
regardless 38279
absolute 38275
Ast@@ 38271
missionary 38269
iner 38265
nucle@@ 38264
Abr@@ 38263
profession@@ 38259
intern@@ 38258
explore 38255
ista 38248
coin@@ 38247
P.@@ 38233
amer 38230
trips 38223
Get 38213
resur@@ 38213
Emily 38210
road@@ 38210
Rabbi 38206
divid@@ 38201
hav@@ 38200
tium 38189
host@@ 38184
polis 38183
Am 38179
inclusion 38178
Surrey 38175
sur 38173
unclear 38173
Amazon 38171
cleared 38168
Eli@@ 38164
accomplished 38157
s. 38151
IX 38149
incidents 38148
AIDS 38143
mutual 38142
mansion 38137
circ@@ 38125
9,@@ 38122
organisms 38113
consequence 38110
transformation 38110
Course 38108
manor 38107
Edition 38106
aerial 38101
wery 38095
Henri 38093
transfer@@ 38088
Glen 38086
Bryan 38080
1800 38072
Planning 38071
emes 38070
excit@@ 38070
Gibson 38068
orian 38058
Cow@@ 38045
genera 38044
ife 38041
sers 38039
snow@@ 38034
Park@@ 38031
nose 38031
sits 38030
tril@@ 38027
turing 38026
surfaces 38017
doctrine 37997
hero@@ 37996
guards 37994
ister@@ 37994
igning 37963
compensation 37959
bon@@ 37953
Sang@@ 37945
45@@ 37944
Estonia 37942
selec@@ 37941
agn@@ 37932
hopes 37925
rape 37920
dense 37918
ensemble 37918
furniture 37912
Calgary 37908
collecting 37906
reservoir 37898
phic 37891
Episcopal 37888
renovation 37888
ultimate 37885
rowing 37878
vet@@ 37878
developer 37866
preservation 37858
gas@@ 37857
magnitude 37855
traffic@@ 37853
19.@@ 37848
habitats 37844
Main@@ 37839
paras@@ 37827
soap 37826
tit@@ 37825
Leon 37821
Reform 37817
Shir@@ 37816
attitude 37814
Moun@@ 37805
Michel 37800
uni 37799
autonomous 37794
bishops 37794
Brid@@ 37793
Richardson 37791
Tit@@ 37790
standings 37783
HC 37781
prosper@@ 37778
advised 37777
acet@@ 37774
oro 37771
MLB 37770
cross@@ 37769
Lucy 37768
raw 37765
Actress 37757
usion 37747
servant 37744
Blake 37740
ication 37736
congressional 37733
BL 37721
Chor@@ 37717
Colin 37712
expelled 37702
dancer 37694
absorbed 37690
sha 37688
sheep 37682
loading 37677
Nigerian 37676
Sik@@ 37676
pack 37673
Hart@@ 37668
escu 37658
stepped 37657
Leslie 37647
fortunately 37646
Iceland 37640
ishment 37638
Filipino 37634
Bailey 37628
command@@ 37628
crowned 37628
diet 37625
adoption 37623
hybrid 37623
revenge 37617
Progressive 37607
wrest@@ 37606
esty 37601
inches 37595
Angels 37592
wn@@ 37584
Kay 37580
reluc@@ 37579
Frankfurt 37562
workshops 37558
involve 37553
Study 37543
clothes 37543
Off 37539
penetr@@ 37539
mises 37536
1837 37533
introduce 37533
talking 37533
Sas@@ 37531
blocked 37525
eson 37522
equally 37516
Capitol 37515
dit 37510
Dh@@ 37500
Til@@ 37497
song@@ 37496
Deep 37493
symbols 37490
Josh 37485
starter 37475
ame@@ 37450
sacred 37450
stake 37450
monitoring 37437
rough 37437
withdrawal 37437
gian 37427
Rep@@ 37424
clu@@ 37418
holes 37417
sporting 37417
sbury 37416
furn@@ 37415
lyr@@ 37415
Alpha 37413
diagnosed 37398
profession 37394
collapsed 37390
condemned 37390
commanding 37388
promise 37385
outing 37376
vent@@ 37375
conce@@ 37369
Def@@ 37356
committees 37352
oter 37347
idel@@ 37345
riders 37341
Jes@@ 37338
isms 37336
nicknamed 37334
Riv@@ 37332
balls 37330
Sex@@ 37327
navig@@ 37319
Presidential 37318
icism 37317
process@@ 37316
moments 37315
Rachel 37314
theoretical 37313
garrison 37312
Boy@@ 37305
bot 37300
ju 37300
offs 37299
CT 37297
nian 37289
Regular 37285
intent 37282
manual 37279
Bradley 37273
Henderson 37267
aur 37265
eway 37253
Resources 37251
Clo@@ 37247
ting@@ 37226
USSR 37220
photos 37219
Brighton 37218
patron 37217
preparing 37216
anchor 37200
Chap@@ 37199
consequences 37199
marri@@ 37197
Aircraft 37196
25.@@ 37173
chorus 37173
estimate 37171
investigated 37170
24.@@ 37163
34@@ 37162
receptor 37160
renovated 37158
guided 37154
Bull 37146
Lag@@ 37146
succ@@ 37144
wet@@ 37144
leys 37139
loved 37138
nic 37132
exploration 37131
Stein@@ 37124
sional 37124
Call 37123
Cox 37112
Wind@@ 37104
vous 37104
WWE 37103
tem@@ 37103
Plymouth 37098
inaugurated 37093
Edmund 37090
preval@@ 37090
smith 37089
botan@@ 37088
fees 37087
bred 37086
spann@@ 37074
argue 37072
Stock 37071
conceived 37071
nin@@ 37071
Agreement 37065
Fish 37064
sad@@ 37063
1500 37057
proph@@ 37053
bra 37052
enna 37049
36@@ 37044
CP 37042
Gy@@ 37038
ashi 37038
bet@@ 37036
nific@@ 37030
kel@@ 37026
hou 37022
EC@@ 37019
Robertson 37019
accordance 37018
necessarily 37013
poorly 37005
demol@@ 37004
cus@@ 37000
socialist 37000
icus 36994
Eurovision 36989
brid@@ 36981
ground@@ 36981
undertaken 36981
semifinals 36978
ank 36976
united 36973
fers 36972
CM@@ 36968
Quali@@ 36966
rotation 36964
cham@@ 36959
mathematical 36945
subspecies 36939
Notre 36938
boss 36933
PR@@ 36929
cardi@@ 36929
gastropo@@ 36918
vas@@ 36916
uri@@ 36909
athle@@ 36899
dedic@@ 36891
insec@@ 36886
walks 36884
strict 36882
aton 36878
Inter 36865
desired 36865
eria 36863
ede 36857
Liberation 36855
Smo@@ 36854
sustainable 36854
polic@@ 36841
skul@@ 36840
Crus@@ 36835
ape 36822
eal 36813
Bern@@ 36805
Seg@@ 36793
sword 36792
mort@@ 36791
Fle@@ 36781
Roman@@ 36779
ö@@ 36778
faction 36768
Cli@@ 36766
amine 36759
slopes 36758
eting 36757
ä@@ 36754
ilk 36747
Ind@@ 36745
thi 36736
depicting 36735
Support 36732
statistical 36731
lease 36730
ayal 36729
350 36727
eval 36724
igu@@ 36724
healthy 36709
Poly@@ 36706
allocated 36701
Curtis 36699
inae 36696
ix@@ 36693
usa 36689
Vij@@ 36686
att 36683
125 36682
tourists 36676
limestone 36668
Tyler 36667
Mack@@ 36662
spectrum 36658
1841 36643
manufacture 36642
restric@@ 36632
McC@@ 36626
cav@@ 36625
refu@@ 36621
Stock@@ 36617
oney 36599
ologically 36597
pink 36596
Saxon 36591
heter@@ 36574
Gel@@ 36564
elimination 36561
them@@ 36551
ean@@ 36549
Oslo 36547
Bang@@ 36544
disrup@@ 36533
Lutheran 36529
27.@@ 36524
confusion 36523
Brien 36522
developers 36512
Nathan 36510
ij@@ 36498
chess 36497
tide 36496
sculptor 36493
Flor@@ 36490
María 36490
architects 36485
eby 36484
otive 36480
WW@@ 36477
Edmonton 36476
elt 36470
Amy 36469
Claude 36468
ecture 36465
SU 36458
Cov@@ 36457
2.0 36455
adver@@ 36453
administr@@ 36450
bones 36449
resolved 36448
Windsor 36447
itly 36447
seas@@ 36442
aggressive 36439
doubt 36438
mills 36435
jud@@ 36424
fin 36415
70@@ 36407
1.2 36401
ived 36401
ocene 36401
upset 36397
estimates 36389
one@@ 36389
massacre 36383
uld 36383
optical 36376
1844 36371
orientation 36370
Arab@@ 36367
Located 36366
Porter 36366
ims 36363
acclaimed 36360
predicted 36353
proclaimed 36350
ographical 36346
6,000 36340
Shak@@ 36333
Kad@@ 36329
constant@@ 36328
integral 36326
prevent@@ 36320
Preston 36317
probability 36307
vicinity 36307
Him@@ 36302
physi@@ 36302
idelines 36293
manus@@ 36292
secre@@ 36288
machin@@ 36283
infin@@ 36279
princ@@ 36276
Naples 36269
mechanisms 36267
Administrative 36265
legally 36255
customs 36253
tables 36249
kov@@ 36245
Slovenia 36240
capabilities 36240
Agricultural 36233
quet 36232
Mong@@ 36231
Globe 36227
VIII 36220
pace 36220
stick 36216
directing 36213
iny 36211
promotional 36211
Orlando 36203
Yan@@ 36203
ecti@@ 36203
Stre@@ 36196
tum@@ 36196
lev@@ 36193
genres 36191
Eve 36181
emia 36179
wildlife 36176
flood@@ 36175
omo 36172
uta 36171
Physics 36169
consideration 36156
pharm@@ 36155
vulnerable 36155
tribut@@ 36154
1838 36153
circul@@ 36152
sever@@ 36151
nominee 36140
coin 36133
Prussian 36132
Jun@@ 36130
Canyon 36127
torpedo 36126
depends 36124
Impact 36109
hull 36107
Nadu 36106
Americas 36102
kitchen 36097
numer@@ 36094
ologi@@ 36093
administrator 36090
logic 36083
assassination 36080
terrorist 36079
thood 36077
hid@@ 36076
bold 36066
researcher 36059
Reynolds 36056
edges 36056
Lyon 36055
log 36050
comprised 36041
grass@@ 36040
26.@@ 36028
happen 36028
nationalist 36012
hen@@ 36011
kat@@ 36007
explored 36005
Bear 35997
presid@@ 35997
knows 35992
Principal 35990
interviewed 35990
streaming 35990
stopp@@ 35987
bowl 35981
subordin@@ 35979
lem 35977
1836 35969
Burton 35966
Speaker 35962
Hall@@ 35957
kni@@ 35953
ination 35948
inist 35946
ait 35945
measuring 35945
ec 35937
distant 35929
Etymology 35923
shield 35922
ago@@ 35920
Chand@@ 35914
IR@@ 35912
cryp@@ 35909
tens 35908
Bes@@ 35907
Pack@@ 35907
brands 35907
unif@@ 35900
Electoral 35897
cerem@@ 35896
Establ@@ 35883
Copa 35881
athi 35868
Ahmad 35865
GA 35860
tended 35860
stic@@ 35857
sm 35856
aceful 35852
innovative 35852
GP 35842
complex@@ 35832
ū 35831
Milton 35822
Bond 35821
sian 35793
assing 35784
Motor@@ 35780
Being 35779
angr@@ 35776
landmark 35775
joint@@ 35769
Hin@@ 35768
Emmy 35766
Inn 35747
bore 35736
dimin@@ 35732
crop 35724
recover 35719
woods 35711
finale 35709
AN 35706
Albany 35701
Path@@ 35701
vinyl 35695
consid@@ 35690
ancement 35685
auto@@ 35683
1839 35674
Thur@@ 35674
avail@@ 35671
Sisters 35670
sex@@ 35670
stere@@ 35669
delegation 35667
apy 35665
Monte 35653
blind 35647
succeed 35643
Fraser 35642
Discovery 35639
Viol@@ 35636
loyal@@ 35629
caps 35626
asy@@ 35625
ega 35615
Religion 35613
25th 35609
pyr@@ 35609
Kumar 35605
uka 35603
Dog 35602
discussions 35597
patch 35596
ú@@ 35594
instructions 35586
reserved 35585
convert 35574
och 35573
Belfast 35565
horizontal 35565
Sn@@ 35557
conspiracy 35554
thriller 35553
Boeing 35552
Gab@@ 35540
gles 35540
SM@@ 35536
hibition 35532
Wyoming 35528
arose 35528
icial 35527
Tropical 35526
supre@@ 35523
Mass@@ 35520
Alb@@ 35515
legend@@ 35500
trick 35500
telev@@ 35496
ider@@ 35485
gradu@@ 35476
organize 35470
Key@@ 35464
rally 35461
Compar@@ 35457
Harbour 35457
Warriors 35446
rav@@ 35434
restr@@ 35433
bits 35428
scattered 35426
compact 35421
stead 35418
Mod@@ 35406
betr@@ 35400
Spir@@ 35395
Halifax 35392
anthrop@@ 35389
Cornwall 35386
Hopkins 35382
icing 35381
Near 35380
Ax@@ 35378
Tai@@ 35374
ero@@ 35372
Coalition 35368
enjoy 35363
McDonald 35360
abr@@ 35359
peninsula 35346
berger 35329
gar 35324
Gang@@ 35314
feminist 35310
Peri@@ 35308
37@@ 35300
Miles 35296
lag@@ 35285
honor@@ 35284
Burns 35271
investigations 35262
electr@@ 35258
Classical 35252
atics 35252
innoc@@ 35248
hub 35227
unger 35221
contribut@@ 35217
mar 35211
vey 35210
hyp@@ 35196
Exhibition 35194
hamlet 35184
Naz@@ 35183
periodic@@ 35182
hurricane 35174
Gill@@ 35172
dimensions 35160
SW@@ 35158
trophy 35154
Aj@@ 35152
hypothesis 35146
oids 35138
uli 35134
nan 35129
Grim@@ 35127
ritual 35127
Herzegovina 35120
navy 35116
crucial 35112
ein@@ 35109
folio 35107
tobac@@ 35106
marsh@@ 35102
therap@@ 35100
dramati@@ 35093
Run@@ 35082
lance 35075
proportion 35075
38@@ 35067
1842 35054
Guild 35052
vis 35052
Ou@@ 35043
Crystal 35038
Hos@@ 35037
hun@@ 35014
cryst@@ 35013
inda 35009
oshi 34997
amy 34995
Devon 34990
foss@@ 34986
succe@@ 34976
Catholics 34946
fa 34945
noticed 34943
rehabilit@@ 34937
Kosovo 34932
color@@ 34923
oak 34921
pedi@@ 34919
Case 34916
Literary 34915
convoy 34913
marble 34913
Wid@@ 34909
scales 34909
wrestler 34909
sound@@ 34908
eti 34903
contamin@@ 34898
confin@@ 34896
conversation 34892
fossil 34886
Cohen 34883
rhythm 34875
coupl@@ 34868
André 34853
Reid 34851
alleg@@ 34848
intersec@@ 34843
Portsmouth 34842
German@@ 34841
respond@@ 34832
deploy@@ 34831
Wednesday 34827
mb@@ 34824
Southwest 34819
360 34813
21.@@ 34809
Springfield 34809
cycles 34809
Counc@@ 34808
bout 34805
eholders 34803
oughts 34803
eter@@ 34798
anne 34791
sculptures 34785
Coll@@ 34779
bloc@@ 34777
compatible 34777
Istanbul 34773
disput@@ 34767
Tourism 34762
lifting 34760
Working 34751
isons 34747
1832 34746
Depression 34744
derness 34740
Criminal 34731
GO@@ 34726
ID 34718
Bish@@ 34716
Č@@ 34705
exhib@@ 34704
neces@@ 34696
kinds 34695
angers 34685
4.5 34682
frustr@@ 34681
Brook 34680
Shel@@ 34676
22.@@ 34667
eff@@ 34666
Kul@@ 34652
frequ@@ 34650
mount 34648
Cinema 34636
Fellowship 34626
Lun@@ 34622
Rosa 34610
Andrea 34607
Glen@@ 34607
killer 34603
treati@@ 34602
Esp@@ 34594
gly@@ 34584
ATP 34580
acket 34580
Sr@@ 34579
Rah@@ 34578
Inc@@ 34573
Alexandria 34569
TO@@ 34568
ca@@ 34560
gent@@ 34559
clerk 34557
Macedonia 34552
Train 34548
Imag@@ 34546
Indo 34542
fortune 34540
mysteri@@ 34530
gage 34526
velocity 34526
cher@@ 34522
loy@@ 34510
Snow 34508
oss 34508
Salvador 34506
vital 34499
Martha 34493
bic 34493
1835 34488
Maur@@ 34487
reper@@ 34484
Writers 34482
lifestyle 34476
140 34467
Dut@@ 34465
Carlo 34454
dur@@ 34453
š 34451
supervision 34448
Ferr@@ 34444
Broad@@ 34442
tained 34441
azi 34440
cluster 34437
competi@@ 34436
Spider 34435
Movie 34417
SI@@ 34407
Lords 34406
lington 34402
fies 34399
atis@@ 34396
Software 34393
maternal 34390
commerce 34387
danc@@ 34387
Wis@@ 34384
cha@@ 34371
iles 34371
Baltic 34344
Ish@@ 34340
com 34336
188@@ 34334
bulk 34333
rowed 34333
nu 34322
zar@@ 34320
kal@@ 34317
wait 34316
sweet 34315
atha 34314
theor@@ 34314
1843 34313
orum 34309
etal 34306
rid 34301
Web 34297
Docum@@ 34292
synthes@@ 34289
Mov@@ 34288
Physical 34280
Gw@@ 34279
Wool@@ 34279
athers 34279
Arctic 34261
offense 34246
oval 34244
nit@@ 34231
inger@@ 34225
geographical 34221
Change 34197
propaganda 34194
country@@ 34192
arguments 34191
gates 34190
Bath 34187
oscop@@ 34185
temp@@ 34182
Zimbabwe 34181
endra 34173
museums 34170
Lancaster 34164
Dru@@ 34162
Harper 34162
Ever@@ 34147
Mau@@ 34145
19@@ 34144
Thursday 34143
industri@@ 34142
toll 34133
lug@@ 34129
pull 34122
ingu@@ 34117
NC 34110
hir@@ 34109
wild@@ 34107
hil@@ 34104
green@@ 34103
iss 34098
Hell 34090
Neigh@@ 34088
Ethiopia 34082
aked 34080
Associate 34076
Publications 34076
Beng@@ 34074
160 34072
Beth@@ 34059
minimal 34056
breed 34050
ysis 34046
lover 34043
eno 34029
Linda 34025
Rochester 34023
Contest 34017
Hugo 34013
achers 34009
essay 33996
LO@@ 33991
CIA 33986
oko 33986
Rog@@ 33985
mean@@ 33984
Silva 33983
HS 33981
Pand@@ 33974
Rivers 33968
itors 33963
uro 33962
Sheriff 33955
instructor 33951
Journ@@ 33950
voices 33942
voltage 33939
Paralympics 33937
30,000 33931
tom 33931
Seminary 33929
Headquarters 33926
Lec@@ 33926
Chel@@ 33920
Theodore 33920
distribu@@ 33920
Directors 33917
Buddhism 33915
skel@@ 33912
icker 33905
FK 33904
atta 33900
hers 33899
ilion 33898
Big@@ 33890
etan 33882
photograph@@ 33882
Fish@@ 33880
synthesis 33875
exam@@ 33873
idents 33871
Citi@@ 33866
immer 33861
wit@@ 33854
boxes 33848
Bros. 33846
Jennifer 33834
Factory 33832
tivities 33832
stan 33821
Pay@@ 33818
Mercury 33813
shirt 33807
Dag@@ 33797
pipe 33796
quali@@ 33795
seal 33795
princip@@ 33793
8,000 33782
alam 33776
sponsor 33773
ats@@ 33767
arity 33757
reader 33757
pollution 33755
Ellen 33751
sponsor@@ 33744
NASCAR 33742
vacc@@ 33737
PL@@ 33732
Apart 33724
Faith 33724
Nacional 33723
tackle 33723
bull 33720
Vale 33716
acular 33716
Rhine 33714
inland 33693
ool 33693
icals 33683
plant@@ 33682
28.@@ 33677
cep@@ 33672
acre 33668
200@@ 33665
ornam@@ 33665
ups 33664
aceu@@ 33663
ew 33657
streng@@ 33654
Testament 33653
Inside 33647
gol@@ 33645
ë@@ 33634
Kid@@ 33630
Morrison 33629
olled 33629
sures 33629
Lud@@ 33615
Haven 33614
Ecuador 33608
Blan@@ 33606
moder@@ 33601
opath@@ 33596
notori@@ 33593
Single 33582
Jesse 33579
cool 33578
gotten 33578
align@@ 33576
masters 33575
Santos 33573
LC 33571
Guil@@ 33569
UC 33569
achi 33566
capes 33561
ilo 33560
cloud 33553
thermal 33552
oxid@@ 33549
plantation 33549
mineral 33545
wav@@ 33530
Chess 33527
substance 33526
Moses 33524
ego 33524
abling 33523
endangered 33521
electron 33502
affirm@@ 33500
trail@@ 33499
itic 33496
Jer@@ 33492
tern 33487
hir 33478
Contro@@ 33466
agr@@ 33461
batteries 33458
Hak@@ 33451
utility 33448
GT@@ 33441
Devil 33438
Khar@@ 33437
Clem@@ 33434
reve@@ 33427
spotted 33421
jiang 33419
suits 33413
ancestr@@ 33409
ulu 33402
Wagner 33401
rece@@ 33401
Gaelic 33399
Self 33368
Monroe 33356
Seoul 33356
Mic@@ 33352
point@@ 33352
NSW 33346
akers 33346
Chuck 33344
hospit@@ 33339
Sweet 33328
Bom@@ 33327
gia 33324
heroes 33317
lun@@ 33294
Lynn 33284
hap@@ 33267
initiatives 33259
Bau@@ 33254
diagn@@ 33249
Store 33242
Online 33238
Churchill 33237
EM@@ 33230
Ox@@ 33223
profess@@ 33221
download 33214
navigation 33208
Luxembourg 33205
vil 33202
kham 33201
Never 33195
esias@@ 33195
Salem 33188
raids 33188
Lion 33179
millions 33177
innovation 33173
ør@@ 33170
Gerald 33169
Gru@@ 33165
custom@@ 33165
Kyle 33163
icon@@ 33157
Manor 33152
inos 33151
Watch 33143
shaft 33142
augh 33135
event@@ 33135
loyal 33134
transl@@ 33132
fit@@ 33126
sou@@ 33125
institu@@ 33120
opping 33106
chim@@ 33103
Swimming 33100
fier@@ 33099
ael 33098
chlor@@ 33066
pot 33065
bike 33061
Secre@@ 33059
Differ@@ 33051
figur@@ 33041
ime 33041
Congreg@@ 33036
kel 33032
Access 33031
National@@ 33031
ESPN 33025
extraordin@@ 33015
mug@@ 33000
Rai@@ 32996
remin@@ 32995
Maritime 32994
Now@@ 32986
Dul@@ 32962
resear@@ 32960
quart@@ 32956
View 32954
amph@@ 32943
Baronet 32930
aji 32928
uru 32928
gamb@@ 32926
Lines 32922
Garr@@ 32917
DR 32916
Euro 32916
Apollo 32905
aspir@@ 32902
asters 32901
liver 32898
regiments 32896
induced 32892
Glenn 32888
Level 32886
aco 32878
consciousness 32871
tian 32866
tal 32858
Than@@ 32855
bonds 32853
glob@@ 32847
Algeria 32843
ron 32842
Ve@@ 32838
fortable 32836
igns 32833
invitation 32823
doms 32822
Bour@@ 32820
insig@@ 32817
kids 32815
Islam@@ 32814
Banks 32810
Marx@@ 32808
keeper 32790
enor@@ 32786
eros 32782
Edgar 32779
mig@@ 32777
Style 32766
Forbes 32755
Ulster 32755
particle 32736
estock 32730
Head@@ 32729
lah 32726
theatr@@ 32721
romance 32710
hai 32707
neutr@@ 32705
Jon@@ 32704
atom@@ 32703
directions 32698
uh@@ 32694
prev@@ 32693
sigh@@ 32692
Bug@@ 32686
Cla@@ 32686
ps@@ 32685
Julius 32683
landers 32672
sues 32672
Winnipeg 32671
Heaven 32664
Speedway 32660
Full 32652
altar 32645
Prussia 32644
depot 32644
aller 32639
monuments 32639
gel@@ 32637
ae@@ 32634
VI@@ 32632
lanes 32632
riers 32630
powder 32629
rolling 32625
Et@@ 32622
Hund@@ 32619
Malaysian 32608
assist@@ 32607
vacant 32602
105 32599
beg@@ 32584
tism 32582
indi@@ 32581
Barnes 32564
donations 32563
www.@@ 32560
notion 32554
dul@@ 32553
what@@ 32552
Crow@@ 32551
Yar@@ 32541
kab@@ 32536
secular 32535
Te 32527
antic 32522
hide 32517
Similar 32514
mathemati@@ 32507
Austr@@ 32504
asted 32499
Richards 32497
intensi@@ 32494
kon@@ 32494
ear 32492
assis 32478
eign 32477
persec@@ 32472
Rocky 32456
Vor@@ 32452
² 32449
Industries 32445
Carol 32442
Money 32440
parall@@ 32436
violin 32434
IA 32433
appropri@@ 32430
ologies 32430
1815 32427
dice 32412
rectangular 32410
Lis@@ 32409
estan 32409
Gene 32408
Prison 32397
apart@@ 32394
hes@@ 32394
0.5 32392
stoc@@ 32392
miss 32390
frames 32381
atur@@ 32367
Pom@@ 32363
immig@@ 32358
Vent@@ 32357
Tru@@ 32356
ente 32356
acial 32354
Myanmar 32353
Patr@@ 32352
enza 32348
T.@@ 32347
bos@@ 32343
seem@@ 32341
SL@@ 32340
Slovakia 32339
bab@@ 32338
alog@@ 32337
Bronze 32326
attribut@@ 32324
practi@@ 32316
managers 32309
GB 32304
otypes 32304
Veter@@ 32302
disorders 32301
Chur@@ 32296
Del 32290
challeng@@ 32288
na@@ 32285
parade 32282
Hayes 32281
Day@@ 32279
inspec@@ 32278
onom@@ 32273
Marion 32272
tran@@ 32272
ebr@@ 32264
Boul@@ 32260
anos 32252
ility 32246
fund@@ 32245
Cornell 32231
Taxonomy 32230
legi@@ 32223
Neill 32216
lady 32215
sper@@ 32214
accident@@ 32213
Rich 32210
Nord@@ 32208
Annie 32207
Yankees 32199
cig@@ 32196
Come 32193
ross 32193
diplomat 32192
rookie 32186
ht 32185
passion 32185
Antarctic 32183
SH 32167
pois@@ 32167
aven 32166
eves 32166
anj@@ 32165
cabin 32160
vas 32152
disk 32146
Lap@@ 32144
ochem@@ 32141
Pick@@ 32140
toon 32140
Superior 32138
Leicester 32130
preser@@ 32128
Frances 32125
Louisville 32124
Grammar 32111
Kids 32109
Mine 32109
Ple@@ 32105
Inf@@ 32104
Johnston 32100
yle 32098
cock@@ 32097
privileg@@ 32090
Sign@@ 32083
counting 32070
etto 32069
rend@@ 32063
Preser@@ 32058
Europ@@ 32053
Conserv@@ 32048
Table 32041
F.@@ 32035
Constantinople 32028
t. 32028
Raz@@ 32026
Jake 32017
Autom@@ 32015
Got@@ 32009
Emergency 32006
pup@@ 32001
Yam@@ 31996
Thr@@ 31974
box@@ 31974
Elliott 31972
labels 31971
Nobel 31969
absent 31964
epith@@ 31964
Put@@ 31955
cio 31954
Cat 31953
versity 31948
ée 31944
UFC 31943
Raiders 31938
mitted 31935
aristoc@@ 31933
had@@ 31931
SI 31930
Ballet 31925
Picture 31925
skir@@ 31925
ledge 31919
Fighting 31905
Rang@@ 31904
refuge 31894
Marco 31893
Hous@@ 31892
penn@@ 31891
arge 31883
Ludwig 31882
Yugoslav 31875
blan@@ 31869
bread 31867
nomin@@ 31863
Karen 31861
Beau@@ 31859
39@@ 31849
Jamie 31846
Om@@ 31845
GM 31844
Institution 31840
cit@@ 31837
encounter@@ 31837
División 31823
McK@@ 31823
mic@@ 31820
Beyond 31818
Cham@@ 31817
Fig@@ 31817
Farm@@ 31814
epidem@@ 31811
G.@@ 31810
stitut@@ 31810
Sons 31804
Marines 31794
adrons 31794
neighbor@@ 31794
Hob@@ 31789
quad@@ 31788
1.6 31786
Learning 31784
EP@@ 31783
Religious 31783
arily 31779
cation 31767
Diana 31760
arc 31760
eric 31760
Sep@@ 31759
rol@@ 31759
mobil@@ 31758
Spr@@ 31755
Betty 31754
commit@@ 31753
orous 31748
Cs 31747
Edwin 31743
bio@@ 31741
amba 31734
untain 31730
Adri@@ 31729
compan@@ 31727
PP@@ 31721
Olympi@@ 31718
Mall 31715
autonom@@ 31715
Dorothy 31711
Newfoundland 31709
Kazakhstan 31708
ango 31704
unge 31698
enth 31695
Carroll 31692
DS@@ 31687
item 31681
Female 31676
rod 31669
oblig@@ 31658
1.1 31649
1814 31646
Brother 31646
Indoor 31645
civiliz@@ 31641
tu 31640
Eye 31635
Rain@@ 31633
ois 31625
Pharm@@ 31624
inga 31616
Clay 31614
liqu@@ 31611
Malcolm 31610
loads 31606
Jeremy 31601
static 31591
Tour@@ 31590
189@@ 31578
activation 31578
pler 31575
cles 31571
oxide 31564
Mann@@ 31556
outr@@ 31551
1.3 31550
Structure 31547
lu 31535
Baldwin 31531
Carnegie 31531
ffer 31531
Audi@@ 31528
cream 31525
yed 31524
Brook@@ 31518
ift 31502
shaw 31502
SL 31501
agon@@ 31500
ses@@ 31500
aceous 31498
Aber@@ 31495
Sant@@ 31492
eover 31491
shi 31490
VC 31479
Housing 31477
ecos@@ 31477
Hed@@ 31472
1834 31471
wering 31469
Yu 31468
Cairo 31467
Vish@@ 31466
xes 31464
retire 31462
cott 31457
Dale 31455
stairs 31450
ateral 31438
SP 31435
Hey@@ 31433
Bob@@ 31430
pense 31430
rankings 31425
Raja 31407
Rever@@ 31407
ingre@@ 31405
meg@@ 31404
Nottingham 31394
identifi@@ 31389
Tribune 31373
frig@@ 31372
Gren@@ 31371
Thames 31370
Brun@@ 31367
Da 31355
Um@@ 31351
aggreg@@ 31350
melodi@@ 31343
ester@@ 31341
fiscal 31340
imin@@ 31337
mart 31320
lens 31312
ballet 31309
Tas@@ 31306
Jack@@ 31305
It@@ 31303
admission 31302
vić 31300
brand@@ 31297
gul@@ 31297
Episode 31294
hectares 31290
ock@@ 31290
Logan 31287
immune 31285
Mohammad 31281
Fab@@ 31275
29.@@ 31273
Large 31268
otr@@ 31267
mortal@@ 31263
borg 31259
premier 31258
Programme 31248
Arm@@ 31242
Aftermath 31236
eke@@ 31235
Theory 31229
standar@@ 31228
aze 31222
larg@@ 31217
Ernst 31216
emin@@ 31206
acceptable 31204
ulus 31202
pine 31201
Charleston 31198
alt@@ 31187
Newman 31184
Heinrich 31179
spite 31174
percus@@ 31169
Crawford 31168
seas 31160
control@@ 31158
aws 31156
ET 31155
formul@@ 31151
Link 31145
Budapest 31140
hind@@ 31140
Holocaust 31138
Romans 31125
Sham@@ 31125
Marqu@@ 31111
Rou@@ 31103
parti@@ 31103
Chiefs 31099
eback 31098
mak@@ 31088
trim 31088
abstract 31087
Colony 31076
cia 31071
dict 31069
ingo 31062
akia 31059
Horn@@ 31053
Ladies 31047
atten@@ 31028
reci@@ 31027
~ 31021
Tap@@ 31014
categor@@ 31010
Metal 31005
ilization 30991
Raw@@ 30986
wen@@ 30981
Individual 30977
alli 30971
Twin 30970
Burke 30968
cle 30964
chr@@ 30960
ebri@@ 30959
Minneapolis 30950
Aberdeen 30947
Sv@@ 30944
trap 30938
sour@@ 30931
Chronicle 30914
Trus@@ 30906
ovi@@ 30906
Insurance 30904
Dod@@ 30897
chase 30895
electro@@ 30885
Blair 30883
boxer 30880
Choice 30875
tram 30871
Chic@@ 30863
Combat 30862
symp@@ 30854
iring 30848
Wr@@ 30843
sus 30836
oming 30831
Bass@@ 30828
Glass 30824
Scout 30821
Planet 30820
monitor 30820
coron@@ 30817
pir@@ 30816
500,000 30809
Jos@@ 30806
milli@@ 30804
Pra@@ 30798
Num@@ 30795
perception 30795
eder 30791
Doug 30787
reck 30787
Burma 30784
fortun@@ 30783
Arms 30780
Lut@@ 30776
RN@@ 30776
Well@@ 30774
gross 30767
Sap@@ 30766
assemb@@ 30766
nav@@ 30764
Arti@@ 30758
gray 30755
Itali@@ 30751
MW 30749
sep@@ 30748
smoke 30748
chant 30746
rings 30742
leries 30739
1831 30737
cand@@ 30737
dollar 30729
1820 30728
amo 30728
Fon@@ 30722
feud@@ 30718
interven@@ 30714
inn 30712
WH@@ 30710
Gat@@ 30685
Neur@@ 30685
associ@@ 30683
tification 30681
aunt 30678
Tel 30663
ampli@@ 30663
copyright 30659
document@@ 30659
Kenny 30654
Chemical 30653
polar 30653
Ner@@ 30635
Ho 30631
aters 30626
Shadow 30601
decisi@@ 30600
ilian 30600
uki 30595
rad@@ 30591
anxi@@ 30590
fragments 30583
Enterprise 30579
lee 30574
Charter 30571
Wimbledon 30571
UC@@ 30557
Coc@@ 30546
intact 30541
variables 30539
GT 30538
Clara 30537
Task 30531
Sci@@ 30529
conviction 30518
BE 30515
aught 30510
N.@@ 30505
ron@@ 30501
Southampton 30496
True 30496
Bavaria 30486
ilers 30483
geometry 30482
cket 30481
led@@ 30480
nice 30480
submar@@ 30475
saint 30457
25,000 30454
Panthers 30444
Hero 30442
Cancer 30441
ember 30437
DE 30432
Nixon 30425
Set 30425
Comm@@ 30424
Janeiro 30417
reconnaissance 30417
Ja@@ 30414
Nuclear 30413
server 30410
destroyer 30405
SM 30398
Heat 30397
Hod@@ 30392
Shore 30390
contradic@@ 30387
deer 30386
eleph@@ 30384
omin@@ 30384
wald 30383
Happy 30380
propor@@ 30376
block@@ 30372
adows 30362
tickets 30362
Scor@@ 30355
erc@@ 30354
Leh@@ 30352
Psych@@ 30350
press@@ 30347
Malay@@ 30345
liter@@ 30345
Palm 30338
aan 30336
ism@@ 30316
pastor 30311
sculp@@ 30309
Summit 30307
Leon@@ 30299
Hit@@ 30298
PGA 30295
Walt 30285
Drake 30284
Shim@@ 30282
Walsh 30281
profits 30277
uti@@ 30269
Rum@@ 30268
Uruguay 30264
Speed 30263
Tag 30263
cipitation 30262
és 30262
Index 30261
formats 30261
threaten@@ 30249
thal 30237
Ecol@@ 30236
Statistical 30231
1833 30228
alien 30225
dome 30225
shan 30220
Educational 30216
nd 30207
remix 30206
enroll@@ 30204
icles 30188
amalg@@ 30184
Dubai 30179
Ps 30177
Sle@@ 30176
NT@@ 30170
Rich@@ 30165
Yak@@ 30165
ER 30163
Krishna 30163
SF@@ 30159
Ž@@ 30153
Sebastian 30143
750 30128
count@@ 30126
Koh@@ 30125
dorsal 30113
fail 30111
Dylan 30105
maritime 30100
3000 30096
} 30090
Lub@@ 30084
fi 30082
oper 30080
Rak@@ 30076
violation 30073
coul@@ 30062
Northeast 30061
Aut@@ 30051
theastern 30050
Peter@@ 30046
ror 30044
tices 30043
Sloven@@ 30041
cou@@ 30036
Well 30028
CT@@ 30024
Jin 30018
Sport@@ 30018
ind 30014
itter 30012
Sever@@ 30010
enic 30007
epers 30006
Adult 30004
productive 30001
Afghan 29996
bag 29992
roy 29990
Vul@@ 29978
zation 29977
Leadership 29974
rug@@ 29968
Combin@@ 29965
Contr@@ 29957
wo 29957
goal@@ 29954
onal@@ 29953
Victory 29951
Fat@@ 29950
eres 29948
Strat@@ 29938
Daw@@ 29927
Mess@@ 29926
Observatory 29926
Poetry 29924
ą@@ 29919
invent@@ 29914
tual 29906
Kurt 29903
entic@@ 29901
Grand@@ 29895
agar 29893
geographic 29893
Beatles 29880
Hid@@ 29867
mons 29866
Streets 29856
HP 29841
ater@@ 29840
uan 29838
Half 29835
AV@@ 29832
Alt@@ 29822
Settlement 29822
Vision 29818
reser@@ 29818
idal 29816
mant@@ 29816
Indi@@ 29813
Joel 29809
rhyth@@ 29809
Cowboys 29805
Roy@@ 29804
190@@ 29789
Joshua 29789
mechan@@ 29788
sibility 29785
Ey@@ 29781
Pine 29776
Tasmania 29772
rod@@ 29770
Patriots 29765
UP 29760
strik@@ 29760
front@@ 29758
kit 29758
Built 29756
TE 29744
7.5 29743
admir@@ 29739
Sicily 29730
Civ@@ 29726
Outside 29726
automobile 29718
atin 29705
liance 29703
pion@@ 29700
Julie 29697
blog 29693
platinum 29687
rider 29681
Georges 29678
Gospel 29672
unda 29667
assassin@@ 29665
Port@@ 29653
spons@@ 29648
Heath 29638
Twenty 29626
olithic 29623
PN@@ 29622
Qatar 29621
Ut@@ 29611
bid@@ 29609
CI 29607
Auth@@ 29603
Pirates 29600
cognitive 29600
90@@ 29598
Madonna 29597
segreg@@ 29594
Treasury 29592
degrad@@ 29592
Ghost 29589
Cut@@ 29586
Pyr@@ 29578
Adrian 29560
bish@@ 29553
Scho@@ 29552
oka 29543
substr@@ 29539
-- 29538
osp@@ 29538
oso 29536
boom 29534
Take 29527
oli@@ 29527
Berry 29515
classi@@ 29514
Fund@@ 29511
ishi 29511
iff 29509
miner@@ 29497
Sym@@ 29494
onym@@ 29491
bou@@ 29490
Fiji 29479
Agr@@ 29475
John@@ 29474
ege 29474
SD@@ 29471
ackers 29463
strug@@ 29462
valve 29461
dible 29460
contents 29456
certification 29455
gran@@ 29453
CF 29452
gameplay 29451
esman 29449
Asi@@ 29440
aim@@ 29426
prac@@ 29426
Karnataka 29417
rim 29411
Monument 29403
Power@@ 29398
Graduate 29391
inflam@@ 29390
plication 29388
sympath@@ 29386
Hot@@ 29376
Use 29370
Vander@@ 29358
egan 29355
anthro@@ 29346
Creative 29345
Sherman 29344
Expedition 29342
gravity 29328
antiqu@@ 29325
Ec@@ 29317
Anton 29314
Marshal 29313
FO@@ 29306
Edge 29302
Trinidad 29299
mantle 29296
atum 29289
Solar 29288
eccl@@ 29287
Rhodes 29285
granite 29281
istle 29275
trainer 29275
Kim@@ 29272
Leipzig 29264
Terminal 29262
Volume 29261
trou@@ 29261
theaters 29260
sch 29257
bu 29253
hen 29250
Easter 29240
Ferry 29239
Rib@@ 29238
kid@@ 29237
75@@ 29236
102 29234
Rifle 29232
Willie 29231
opinions 29226
Ele@@ 29224
enth@@ 29224
thers 29223
Animal 29221
Rica 29217
Bach 29216
Batman 29213
Bolivia 29210
Mathematics 29207
Gay 29192
GS 29191
Legend 29191
contacts 29185
lon 29182
Maced@@ 29177
illustrations 29177
Buil@@ 29175
alian 29159
Claire 29147
electronics 29112
umption 29105
traces 29100
comment 29095
IB@@ 29091
adher@@ 29090
elin 29087
LLC 29083
fruits 29075
finger 29071
amer@@ 29068
pec@@ 29065
UCLA 29064
Baz@@ 29063
Oak@@ 29053
hostile 29052
Bin@@ 29051
Turn@@ 29046
Sugar 29045
Downtown 29037
dem 29037
Sanskrit 29036
Syracuse 29031
staff@@ 29025
ific@@ 29023
drainage 29022
cir@@ 29017
entrepreneur 29016
Chang 29012
mechanics 29012
altern@@ 29011
Chan 28999
Confederation 28998
cylin@@ 28996
ellor 28995
UNESCO 28989
Counties 28982
Strait 28979
san 28973
1,500 28972
oh 28972
suc@@ 28970
istr@@ 28969
IF 28968
vit@@ 28968
polar@@ 28963
Pak@@ 28961
dissolution 28959
yar@@ 28959
15,000 28958
Penn@@ 28956
andra 28953
modes 28952
ause 28946
printer 28945
beta 28939
amic 28932
Archives 28931
Cann@@ 28931
Merit 28928
secret@@ 28928
arin 28912
retr@@ 28906
erie 28895
1.4 28890
Ferguson 28879
issu@@ 28877
Fantasy 28874
cano 28872
Greene 28863
Fiction 28853
ITV 28839
emic 28837
Lisbon 28835
agi 28835
enes 28834
Belarus 28828
him@@ 28825
Greatest 28823
laser 28822
nas@@ 28821
Empress 28814
Rig@@ 28814
Associated 28812
ende@@ 28809
zh@@ 28809
coordinates 28808
Any 28801
Communication 28801
1825 28797
olan 28794
missiles 28789
Given 28786
dose 28786
plain@@ 28779
Plus 28777
Lum@@ 28770
Iz@@ 28762
sworth 28752
10,@@ 28751
Johns 28750
Hut@@ 28746
ept@@ 28745
confirm@@ 28737
pron@@ 28733
Marathon 28730
Electronic 28729
ono 28726
47@@ 28724
Kirk@@ 28724
casts 28720
Ibn 28715
Map@@ 28706
Bengali 28699
opy 28696
acute 28695
Tuesday 28693
Respon@@ 28692
Colombi@@ 28679
Augustus 28661
Caucas@@ 28659
Feder@@ 28655
Nicol@@ 28651
Cave 28644
comparable 28643
computing 28634
ruption 28632
amin@@ 28631
loon 28627
renov@@ 28627
bless@@ 28622
esta 28620
Low@@ 28612
propos@@ 28611
Generation 28610
Thomson 28610
Marriage 28605
gery 28599
chand@@ 28591
Hardy 28585
licence 28585
acles 28575
salv@@ 28575
etus 28573
Mohammed 28568
uss 28563
Chemistry 28556
inhibit@@ 28556
subtropical 28552
mary 28548
7,000 28530
extrem@@ 28530
tex 28528
Il 28527
agle 28527
O.@@ 28526
assume 28524
Meh@@ 28517
Hampton 28515
improvis@@ 28509
fasc@@ 28506
tong@@ 28505
Dhar@@ 28502
Kerry 28497
antagon@@ 28496
saxoph@@ 28496
SEC 28491
SH@@ 28488
inity 28481
ession 28473
Jo 28470
Tanzania 28468
Cho@@ 28466
Body 28461
igan 28456
Santo 28455
formations 28453
arer 28452
urities 28451
tridge 28449
a.m. 28447
Troy 28444
trace 28442
Fe 28430
Twel@@ 28427
Gad@@ 28420
García 28418
yes 28418
Hood 28404
BO@@ 28403
surveillance 28401
Celebr@@ 28393
contributor 28388
Madagascar 28385
1821 28382
Show@@ 28382
Telugu 28368
lio 28364
mob@@ 28362
alan 28354
ford@@ 28350
Shield 28348
Webb 28347
ativ@@ 28347
Tot@@ 28345
30.@@ 28343
kho@@ 28341
GO 28333
keyboard 28330
auxili@@ 28325
Maharashtra 28323
Roll 28322
Māori 28319
phases 28319
Pep@@ 28317
Biology 28309
asis 28308
tensions 28307
Francesco 28304
Bombay 28302
Oh 28302
chang@@ 28300
terres@@ 28300
illiant 28299
187@@ 28291
hus@@ 28285
Return@@ 28284
pid 28282
Yuan 28278
Cloud 28275
Origin 28274
lut@@ 28273
Deg@@ 28272
transform@@ 28266
garage 28263
8.@@ 28262
bowling 28261
toms 28261
sanctu@@ 28260
Va@@ 28259
ige 28259
ikh 28253
Fen@@ 28251
Suffolk 28251
cord 28250
photograp@@ 28250
test@@ 28249
costume 28245
utili@@ 28235
ère 28233
Berg@@ 28231
W.@@ 28227
lung 28227
Darwin 28226
Lic@@ 28221
Bedford 28220
Burg@@ 28218
Las@@ 28207
Phase 28204
plaque 28204
200,000 28202
nier 28190
IG@@ 28189
forc@@ 28184
engag@@ 28175
protocol 28169
Floyd 28164
Rush 28164
reson@@ 28146
Sacramento 28145
aven@@ 28144
istic@@ 28136
divine 28132
tos 28125
descendant 28123
instances 28123
sie 28122
train@@ 28114
demand@@ 28111
Providence 28108
implement@@ 28108
elles 28106
alcohol@@ 28104
elage 28099
Winston 28095
Denis 28089
1828 28085
Aw@@ 28082
Jorge 28082
Concer@@ 28081
athing 28079
oses 28078
UTC 28077
lor 28076
Hawaiian 28068
itance 28068
Kid 28061
Gamb@@ 28055
install@@ 28055
Maxwell 28049
partisan 28045
seller 28037
Below 28033
itu@@ 28032
Partners 28029
Heavyweight 28028
Lil@@ 28028
Bath@@ 28025
lav 28025
Mom@@ 28022
eley 28012
struggl@@ 28004
Cumberland 27990
Bruno 27981
Basel 27976
Monaster@@ 27976
indie 27975
Sandy 27972
iced 27971
lefield 27970
surg@@ 27957
bats 27952
Toyota 27932
Mé@@ 27917
ink@@ 27917
Bulldogs 27916
prob@@ 27916
Griffin 27914
wag@@ 27907
Crime 27906
inct 27904
swing 27904
Vernon 27901
specif@@ 27900
genu@@ 27895
Cler@@ 27894
Ble@@ 27891
patern@@ 27889
Wad@@ 27888
Garcia 27886
ild 27885
Brad 27883
aly@@ 27883
Merr@@ 27882
Sara 27880
amaz@@ 27880
zu 27877
Castro 27873
Chennai 27873
Dub@@ 27871
archives 27865
Yor@@ 27864
itis 27860
Nem@@ 27855
trailer 27849
Boris 27846
Papua 27844
Luther 27827
Congr@@ 27823
wen 27818
forts 27817
cies 27816
dial 27812
tral 27812
text@@ 27809
oun 27803
α 27795
Duc@@ 27794
esi@@ 27790
pon 27781
captur@@ 27775
bourne 27772
lau@@ 27768
Recreation 27766
cla@@ 27755
ocy@@ 27749
ř@@ 27748
informal 27744
Walk 27743
Kem@@ 27742
Highland 27740
Montenegro 27740
dos@@ 27740
Whitney 27739
Border 27730
Dob@@ 27728
Guatemala 27728
rely 27727
Siege 27724
ults 27716
Heavy 27713
SD 27705
evo 27701
omb@@ 27701
Ō@@ 27701
corrup@@ 27700
Synopsis 27697
Andr@@ 27694
1810 27690
expedi@@ 27677
Nev@@ 27675
Histor@@ 27673
1.8 27672
Rao 27665
echn@@ 27664
atorial 27657
effectiv@@ 27656
Pati@@ 27650
nod 27650
bun@@ 27647
Rein@@ 27643
Prov@@ 27642
Scre@@ 27640
appar@@ 27637
part@@ 27637
nants 27636
Reagan 27633
Night@@ 27631
Ming 27627
Mind 27622
var 27622
mini@@ 27618
Northwestern 27615
Lynch 27608
diplom@@ 27604
occu@@ 27601
1824 27599
Mog@@ 27594
Carl@@ 27587
Greg@@ 27587
Laws 27583
moderni@@ 27574
penal@@ 27573
icide 27571
traits 27570
bush 27566
AU 27559
Things 27559
fli@@ 27559
Gle@@ 27553
Los@@ 27553
arker 27551
tubes 27548
vaccine 27548
Scots 27542
chen@@ 27539
urai 27539
chol@@ 27537
1829 27533
mass@@ 27533
Felix 27531
Midland 27531
Donn@@ 27527
utionary 27521
Volunteer 27520
prostitu@@ 27516
anci@@ 27514
sacrifice 27512
ommunications 27510
ć@@ 27510
lender 27507
450 27506
Match 27502
cape 27502
chur@@ 27500
Kashmir 27496
Lew@@ 27483
adr@@ 27483
Stories 27478
alla 27478
104 27477
ogr@@ 27476
anning 27475
Sit@@ 27474
Derek 27471
impression 27468
utt@@ 27467
Ski@@ 27463
olar 27460
Boh@@ 27457
Or 27456
migr@@ 27451
zy 27449
correspondent 27447
audit@@ 27444
Math@@ 27443
Norton 27434
Alternative 27428
hurst 27426
invasi@@ 27426
mare 27422
hid 27420
norm@@ 27414
Pink 27412
Buddha 27411
Mann 27409
burgh 27407
Ds 27392
disco@@ 27390
PP 27389
suppos@@ 27389
Zero 27388
Qing 27387
desper@@ 27386
yor 27386
dell 27380
arest 27374
lam 27362
entary 27344
phere 27344
fan@@ 27342
Hav@@ 27341
PT@@ 27339
ible 27338
yak@@ 27337
pora 27335
Kus@@ 27333
Bit@@ 27325
Sex 27318
oline 27317
prises 27317
uba 27315
consequ@@ 27313
Telegraph 27306
ward@@ 27305
Sofia 27303
Archit@@ 27294
Continu@@ 27291
MVP 27286
Silver@@ 27281
incorrec@@ 27281
supp@@ 27275
crest 27269
nave 27262
Editor 27260
ñ@@ 27256
Thunder 27253
B.A. 27249
Gibraltar 27247
Mercedes 27243
Lus@@ 27242
ghost 27242
gains 27238
uke 27237
Jav@@ 27235
vents 27235
Reh@@ 27232
eler 27232
Morton 27230
Mary@@ 27228
cant@@ 27228
experiment@@ 27227
Helena 27226
Civic 27222
ME 27215
finalist 27214
Sources 27208
Amar@@ 27203
gn@@ 27202
yt@@ 27202
Camb@@ 27200
Dragons 27192
0.1 27188
ellip@@ 27178
Marin@@ 27177
ify 27177
dys@@ 27170
mentor 27169
tent 27168
imi 27157
tall@@ 27156
News@@ 27155
par 27155
Cambodia 27152
Worcester 27147
Hawks 27145
Tyr@@ 27138
inscriptions 27138
establ@@ 27135
ben 27133
Stan 27128
oul 27122
ky@@ 27120
eleg@@ 27115
Sporting 27111
asp@@ 27108
canton 27108
fabri@@ 27106
uth 27106
Jacksonville 27103
bund@@ 27102
Back@@ 27092
Mail 27086
peline 27082
Democracy 27081
Wer@@ 27079
cass@@ 27070
tras@@ 27068
lecture 27065
Canton 27061
Inspector 27061
Nad@@ 27060
nes@@ 27060
gling 27054
Gandhi 27052
invention 27048
tico 27047
Wei 27040
Latvia 27033
anas 27032
dimension 27032
puzz@@ 27031
Kah@@ 27028
Excellence 27019
bis@@ 27017
Cran@@ 27009
Nah@@ 27009
leman 27003
Herman 27001
Khal@@ 26996
Powers 26996
absor@@ 26993
ahi 26993
osh 26992
Dynam@@ 26984
dos 26979
Myr@@ 26976
Hits 26975
Rafael 26969
Achievement 26963
Influ@@ 26963
Roberto 26963
vor 26953
Dixon 26950
statues 26948
a.@@ 26946
Tob@@ 26934
illumin@@ 26921
Tunnel 26919
Rams 26915
effici@@ 26909
Gall@@ 26904
tornado 26904
Plains 26897
Nun@@ 26895
hal 26887
Ram 26879
Tales 26875
fluor@@ 26865
Salv@@ 26860
Linux 26856
1813 26854
Potter 26853
Histori@@ 26849
fordshire 26848
excessive 26845
46@@ 26844
Battery 26842
sensi@@ 26839
Letters 26835
spor@@ 26835
foc@@ 26834
atomic 26831
prolif@@ 26831
dar 26827
tonnes 26823
ows 26822
accep@@ 26818
MI 26812
Speci@@ 26811
lum@@ 26807
Netflix 26804
Dil@@ 26799
Tok@@ 26799
Max@@ 26790
Gros@@ 26787
Helsinki 26785
Organisation 26783
Tech@@ 26781
ayo 26781
eca 26780
analog@@ 26776
GP@@ 26769
Sacred 26769
anatom@@ 26765
eur 26764
isted 26757
River@@ 26755
urst 26749
Chi 26748
ainer 26745
Initiative 26743
oker 26738
brow@@ 26732
Gib@@ 26730
Flag 26725
Jets 26723
deterior@@ 26717
Norwich 26711
lock@@ 26705
edback 26704
binary 26702
fif@@ 26695
remake 26694
Carey 26688
Adventures 26684
inas 26684
Georgetown 26678
Cologne 26673
ood 26667
nch@@ 26664
Adolf 26655
eclip@@ 26652
Nep@@ 26651
Analysis 26649
Michelle 26647
Brom@@ 26644
efield 26642
Georg 26638
Hard 26627
Gardner 26620
Coleman 26607
ient 26607
Form@@ 26599
Nicolas 26590
complications 26587
EL@@ 26582
ystal 26580
Ivan@@ 26575
Town@@ 26571
escope 26571
Davidson 26568
Slovak 26567
Chapman 26565
Casey 26561
Raf@@ 26559
conson@@ 26558
Concert 26555
escence 26555
Quarter@@ 26550
influ@@ 26545
Vatican 26544
humor 26544
nership 26542
Talk 26539
bein@@ 26533
juven@@ 26532
Cities 26529
Rules 26523
ario 26521
Broncos 26519
agon 26518
Baden 26509
luc@@ 26506
flor@@ 26501
Senators 26495
Ethiop@@ 26494
ð@@ 26491
rode 26490
ineer 26487
expi@@ 26484
iya 26482
religions 26482
sport@@ 26477
tty 26474
Belle 26472
Cycl@@ 26472
toire 26472
combine 26469
beats 26464
Internal 26463
Wings 26460
amino 26459
Negro 26455
alp@@ 26452
1826 26449
kor@@ 26447
Fight 26444
Snow@@ 26436
Maya 26432
vert 26431
ove 26426
Lamb@@ 26425
Roads 26424
Co. 26421
Sheikh 26417
Ped@@ 26415
Origins 26414
iture 26411
bidden 26408
Bach@@ 26406
unters 26404
tz@@ 26403
Dawn 26402
Bolton 26401
Hell@@ 26397
Lyn@@ 26397
Meyer 26385
demo 26384
Gas 26381
DI 26375
disciplines 26374
103 26371
istry 26371
cc 26370
pher@@ 26369
Cob@@ 26364
Deutsche 26364
Break@@ 26362
Freeman 26361
Honda 26351
drag 26350
Libya 26347
torture 26345
ample 26342
Flem@@ 26337
pi 26336
umbr@@ 26335
modifications 26333
Title 26331
Pier@@ 26325
ë 26323
combe 26321
alternati@@ 26316
Glad@@ 26314
intensive 26306
sprint 26298
hym@@ 26295
anarch@@ 26292
Swan 26291
ocks 26284
Sind@@ 26282
nerve 26281
detective 26277
Jessica 26276
Lon@@ 26273
Marsh 26268
EN@@ 26266
expertise 26266
propag@@ 26266
cip@@ 26263
bark 26261
Person@@ 26260
fat 26254
Soundtrack 26253
Academ@@ 26252
music@@ 26251
Pac@@ 26247
Geor@@ 26238
Asp@@ 26236
flora 26231
udi@@ 26224
Pride 26223
Activ@@ 26222
compens@@ 26219
Winners 26204
Yet 26198
Crisis 26193
asian 26192
Fall@@ 26186
monit@@ 26186
izer 26184
cliffe 26183
Rule 26182
Fem@@ 26181
Icel@@ 26181
xa 26179
cuisine 26178
fitness 26174
gic 26171
Kre@@ 26169
cone 26168
beit 26165
edded 26165
timately 26165
gency 26164
1818 26162
beck 26158
Timothy 26152
mood 26143
assign@@ 26142
Bloom@@ 26140
Ret@@ 26136
Kay@@ 26126
mess@@ 26122
Yas@@ 26115
ambigu@@ 26111
Ś@@ 26103
Ana 26095
alo 26092
Slam 26090
sank 26088
Centr@@ 26087
ilities 26086
Cros@@ 26083
Philippe 26081
Johannes 26080
than@@ 26080
Integr@@ 26077
Acting 26073
radius 26071
osom@@ 26069
Sac@@ 26067
yel@@ 26066
ES 26057
tren@@ 26057
Mar 26054
Underground 26054
nus 26047
48@@ 26045
anic 26045
etz 26045
compul@@ 26038
will@@ 26037
Eigh@@ 26031
Almost 26029
itive 26027
CL@@ 26025
innov@@ 26024
agram 26021
kit@@ 26018
Carol@@ 26012
lots 26010
Why 26005
patron@@ 26005
Assy@@ 26003
ana@@ 26002
Jal@@ 25996
Grav@@ 25994
Hermann 25992
5.5 25991
Parti@@ 25989
anya 25981
xton 25981
visit@@ 25980
Particip@@ 25979
esc@@ 25979
HA 25970
Paramount 25963
collectiv@@ 25947
Baroque 25943
Collegiate 25942
asan 25941
bling 25936
AllMusic 25934
UCI 25927
Admir@@ 25923
unction 25915
distances 25911
Bundesliga 25908
iz 25908
Congres@@ 25905
Riley 25899
108 25898
lins 25883
hua 25882
Strategic 25881
lor@@ 25879
auer 25868
Saxony 25864
Lou 25856
Sti@@ 25847
enta 25844
Flu@@ 25842
Europa 25840
viral 25840
twe@@ 25839
suspect 25834
Arn@@ 25833
Goth@@ 25831
skaya 25829
Tig@@ 25827
raf@@ 25823
EA 25818
iors 25811
sic 25811
Miy@@ 25810
otype 25803
Clin@@ 25794
interrog@@ 25787
án@@ 25784
ʻ@@ 25776
ux 25768
Boyd 25767
MIT 25767
Composition 25764
osaurus 25764
guil@@ 25761
1.7 25757
rels 25755
Stefan 25751
aver 25743
integ@@ 25743
impres@@ 25742
voy 25728
iah 25727
cra@@ 25725
Turks 25724
mas 25723
Carson 25721
oku 25718
opp@@ 25718
Stoke 25717
isher 25717
nou@@ 25716
esi 25713
duction 25709
raph 25704
rib@@ 25704
FIBA 25703
Qur@@ 25699
employer 25699
Jenkins 25696
igg@@ 25695
fratern@@ 25694
44@@ 25691
Lif@@ 25689
Wein@@ 25688
Dodgers 25685
Pag@@ 25684
omena 25683
Haj@@ 25680
Thunder@@ 25680
Toledo 25677
Ashley 25676
Bav@@ 25675
Sco@@ 25672
entice 25672
sequently 25672
master@@ 25661
Canberra 25656
Confeder@@ 25655
Dj@@ 25655
Haiti 25655
yro@@ 25655
compil@@ 25653
Gard@@ 25651
Cra@@ 25650
anded 25645
Pall@@ 25642
Sed@@ 25640
Webster 25632
iner@@ 25616
processor 25614
metry 25603
Jeffrey 25598
Sidney 25596
Pablo 25595
fier 25595
Venezuel@@ 25594
conting@@ 25592
Hud@@ 25583
lords 25578
Rebecca 25576
inces 25573
Nab@@ 25570
Hack@@ 25569
lery 25569
mentation 25566
Glacier 25564
clas@@ 25563
dens@@ 25562
106 25554
Ligh@@ 25548
ammed 25544
Fire@@ 25541
Visual 25540
MHz 25538
Mey@@ 25533
Bergen 25521
Regul@@ 25515
sten 25507
Anton@@ 25506
ice@@ 25503
Jacob@@ 25498
pill@@ 25490
ren 25488
ingers 25486
devi@@ 25485
legislat@@ 25484
irregular 25482
Ship@@ 25480
Brandon 25479
evich 25476
electri@@ 25473
Offic@@ 25472
awa@@ 25470
Shiva 25466
theless 25464
Janet 25460
Monica 25460
ley@@ 25458
teri@@ 25453
Mrs 25451
alan@@ 25451
Dus@@ 25450
Fletcher 25445
Alberto 25443
gig@@ 25443
rats 25442
Lima 25439
Kut@@ 25430
Int@@ 25429
oven 25427
List@@ 25424
vend@@ 25422
Malay 25417
Albion 25403
Warr@@ 25401
1806 25399
aggres@@ 25394
Exeter 25390
Sharon 25388
López 25386
Kirk 25383
awks 25369
Wiz@@ 25367
1801 25365
hibit@@ 25363
rang@@ 25363
55@@ 25361
Adv@@ 25355
Male 25354
method@@ 25345
Sent@@ 25335
ʼ@@ 25334
Madras 25331
now@@ 25330
Us@@ 25327
Swift 25320
1.0 25317
65@@ 25310
metro 25307
attractions 25304
ellation 25304
Truth 25303
Cali@@ 25302
Drew 25302
deten@@ 25301
Dim@@ 25298
Tang@@ 25295
Nordic 25293
retrosp@@ 25290
pub 25288
Alexandra 25286
fatal 25286
Dick@@ 25285
Organ@@ 25285
ventr@@ 25284
Very 25279
Mahar@@ 25276
endant 25273
bias 25272
Inde@@ 25263
Priv@@ 25263
Xavier 25263
ewell 25263
winter@@ 25263
Browns 25258
Kane 25254
adul@@ 25251
Singer 25249
bis 25249
bik@@ 25243
archi@@ 25240
even@@ 25236
Peru@@ 25235
Sutton 25232
Hannah 25230
Xbox 25229
tron@@ 25227
TH@@ 25226
Ultimate 25226
Stalin 25222
Patricia 25218
vacu@@ 25207
220 25202
Hog@@ 25200
Sister 25199
filter 25197
rop@@ 25191
1827 25190
assur@@ 25189
PD 25185
Sug@@ 25185
Domin@@ 25174
Lay@@ 25170
allu@@ 25164
euv@@ 25161
1816 25159
Beck 25159
histori@@ 25158
Initi@@ 25157
Spring@@ 25154
Sophie 25149
IN 25148
elt@@ 25148
Shane 25142
är@@ 25142
109 25136
Song@@ 25131
Metacritic 25130
uchi 25129
Nothing 25125
40,000 25123
185@@ 25120
bei 25116
aines 25113
Develop@@ 25111
Paradise 25108
pneum@@ 25108
Motion 25107
Caesar 25106
BR 25104
oughton 25100
afor@@ 25095
ucture 25091
Cecil 25090
Kav@@ 25087
arcade 25085
Lt@@ 25084
evangel@@ 25084
caus@@ 25081
canon@@ 25079
MT@@ 25069
Sally 25066
pension 25066
Buz@@ 25058
Homer 25058
vec@@ 25058
Tip@@ 25052
111 25050
Basic 25050
Chad 25050
adian 25050
apolog@@ 25050
Evening 25049
twel@@ 25048
186@@ 25044
ofs 25042
quir@@ 25042
eas 25039
courage 25037
SB 25034
bra@@ 25032
Jackie 25030
fabric@@ 25025
Past 25020
declin@@ 25017
employ@@ 25017
impacts 25017
ICC 25012
stom@@ 25011
Zagreb 25005
2.2 24992
Clare 24991
confer@@ 24981
aris 24980
loway 24975
sitcom 24967
round@@ 24961
Ministers 24958
console 24957
auto 24954
materi@@ 24953
Ibrahim 24950
stad 24949
Mall@@ 24942
biom@@ 24942
ogni@@ 24937
cran@@ 24936
Arc@@ 24932
facto 24932
Fam@@ 24923
optim@@ 24918
Lok 24916
critici@@ 24911
Four@@ 24910
Paper 24907
Gow@@ 24900
Sanders 24900
Rally 24898
Kak@@ 24896
recogn@@ 24896
obic 24894
gir@@ 24892
Reser@@ 24890
wi 24890
Trans 24886
Fields 24884
isti@@ 24868
Away 24864
emi 24862
Joyce 24860
entrepren@@ 24848
baptis@@ 24846
Free@@ 24844
pound 24842
rot 24837
depres@@ 24826
sher@@ 24818
Progress 24812
Products 24808
Alger@@ 24807
esa 24806
Aviv 24799
Card@@ 24795
Roland 24785
osci@@ 24782
tish 24779
inian 24778
DM 24774
Alpine 24770
atmosph@@ 24765
vibr@@ 24762
mediate 24758
ilia 24754
yr 24754
ames 24753
Fit@@ 24750
caster 24747
plasma 24745
franch@@ 24744
Card 24743
Id@@ 24740
Torres 24737
Voc@@ 24731
hex@@ 24731
tos@@ 24731
González 24730
egu@@ 24730
Geoffrey 24729
gall@@ 24724
ounced 24722
1819 24718
Electr@@ 24718
1803 24713
algorith@@ 24713
utions 24711
Syl@@ 24709
imo 24697
fielder 24696
grad@@ 24691
Investment 24690
estic 24684
topo@@ 24682
elong@@ 24681
tales 24679
FCC 24678
drag@@ 24674
ring@@ 24674
Nazis 24670
BP 24665
isional 24661
guber@@ 24649
Rhin@@ 24642
Wonder 24633
Joy 24628
qua 24626
eurs 24625
sert 24623
Hein@@ 24615
Carr 24614
GDP 24614
Katherine 24605
TR@@ 24601
Brig@@ 24599
boyc@@ 24598
Mark@@ 24592
bet 24592
Percy 24590
Hearts 24586
treat@@ 24586
115 24584
reven@@ 24584
1822 24578
Refu@@ 24577
Worth 24577
Afric@@ 24575
Bla@@ 24569
Eas@@ 24569
Winter@@ 24565
algeb@@ 24562
phins 24548
crip@@ 24544
CB 24538
max 24535
momentum 24535
sty@@ 24530
blade 24529
Normandy 24525
0.3 24523
rock@@ 24523
Work@@ 24518
bris 24518
buc@@ 24516
5000 24515
Rotten 24513
viv@@ 24500
Gun 24490
Tah@@ 24489
Cand@@ 24484
Drug 24468
Conservatory 24467
pol 24467
Doug@@ 24466
bond@@ 24458
Alexand@@ 24456
Roh@@ 24455
elding 24453
Vikings 24450
nan@@ 24440
Premi@@ 24438
Erie 24437
abandon 24437
impos@@ 24436
inad@@ 24433
idi 24430
Uttar 24428
akh 24428
clause 24426
divide 24426
struction 24425
archive 24419
ador@@ 24418
Got 24415
ratic 24408
Randy 24404
Holdings 24400
6.5 24399
Conrad 24399
nica 24396
jan@@ 24393
draf@@ 24392
Commission@@ 24391
Alex@@ 24386
Nash 24383
Heroes 24381
glo@@ 24381
Let@@ 24377
Auto 24375
Grou@@ 24375
nis 24369
Reds 24368
ISO 24367
Kw@@ 24363
eem 24361
Ston@@ 24360
Hastings 24353
Winchester 24350
Fif@@ 24347
oun@@ 24345
Advis@@ 24342
Techn@@ 24342
Fres@@ 24341
joy 24336
Kyiv 24333
athlon 24330
β 24328
predomin@@ 24326
Beautiful 24324
Crim@@ 24321
Savage 24321
Dundee 24320
½ 24319
Pool 24318
DB 24316
ritu@@ 24316
dair@@ 24311
Midlands 24310
hak@@ 24305
Adventure 24304
column@@ 24295
gang@@ 24293
tings 24288
Erik 24283
vernorate 24282
guit@@ 24278
graves 24276
Drum@@ 24273
rational 24271
vig@@ 24270
solic@@ 24269
1823 24266
Chit@@ 24266
neo 24266
stra@@ 24261
endi@@ 24257
Benedict 24256
Bibli@@ 24253
Seventh 24252
mise 24250
Lik@@ 24248
Cotton 24247
els@@ 24247
sue 24247
Di 24243
amar@@ 24242
aru 24237
forum 24236
Mosque 24235
escal@@ 24233
lex@@ 24230
Philharmonic 24223
Hydro@@ 24222
Pasha 24216
Veneti@@ 24216
Vie@@ 24215
Hartford 24213
Bolsh@@ 24212
Tunisia 24212
collision 24209
ception 24208
Valencia 24204
lions 24198
represent@@ 24198
home@@ 24197
tiles 24197
Wonder@@ 24193
IL@@ 24192
Cathol@@ 24188
MB 24188
Gon@@ 24186
aea 24185
inspection 24185
Declaration 24182
Nielsen 24182
Ug@@ 24180
ieved 24178
Chat@@ 24172
configur@@ 24171
Yard 24170
icken 24170
Tank 24169
Jin@@ 24168
Gent@@ 24164
Galaxy 24160
1809 24153
Mohamed 24145
magistr@@ 24139
Constantine 24138
ext@@ 24137
lian 24136
AK@@ 24127
Munster 24127
tract 24127
Pierce 24121
aza 24120
Apostol@@ 24117
Ard@@ 24114
essman 24113
iller 24099
ă 24099
Lom@@ 24091
Jas@@ 24090
Android 24084
Set@@ 24082
Angola 24080
Hyde 24075
particip@@ 24074
Abdullah 24071
popular@@ 24071
Lanc@@ 24068
itude 24068
128 24066
Tucker 24066
Trent 24059
Gloucester 24058
loses 24056
triangle 24056
subdivision 24053
Jab@@ 24052
urt 24049
Bart@@ 24047
SV 24046
wal 24045
Raw 24044
issa 24041
ACC 24037
donation 24037
module 24037
synchron@@ 24019
Lob@@ 24017
Horn 24011
amphibi@@ 24011
busin@@ 24010
mang@@ 24008
pinn@@ 24006
Mixed 24004
nell 24004
analog 24001
Art@@ 23999
lon@@ 23999
marker 23999
mou@@ 23999
orus 23996
embles 23984
stan@@ 23983
Toy@@ 23982
CBC 23976
112 23972
nel 23972
postal 23970
torial 23970
textile 23969
Wong 23967
Quinn 23965
1,4@@ 23962
Hyderabad 23960
specific@@ 23957
agne@@ 23953
Get@@ 23952
ogenic 23952
ML 23951
Face 23949
opsis 23947
istan 23946
trau@@ 23945
Hassan 23943
discuss@@ 23942
isters 23933
hara 23930
Niz@@ 23926
hypo@@ 23926
Roma 23924
apple 23922
fru@@ 23918
ceremonial 23917
Cao 23916
Make 23913
orious 23912
eras 23895
0.2 23893
financi@@ 23892
lumin@@ 23892
mud 23884
CL 23880
Strong 23878
sz@@ 23878
Cherry 23874
Bomb@@ 23869
rim@@ 23869
Christine 23868
Oce@@ 23868
etti@@ 23865
solved 23865
Cau@@ 23864
Hamp@@ 23864
assic 23863
yu@@ 23861
sham 23857
imental 23856
Neo 23853
Agnes 23844
Dresden 23843
Midd@@ 23843
auth@@ 23842
nick@@ 23840
Newark 23839
Primera 23834
ced 23833
Rey 23832
Leone 23830
icul@@ 23819
Ord@@ 23816
dio 23816
Andhra 23805
Abo@@ 23804
Dist@@ 23804
Advoc@@ 23795
petr@@ 23794
sched@@ 23792
Compos@@ 23790
zan 23787
Rudolf 23778
dium 23777
fum@@ 23777
spin@@ 23776
PI 23771
Kho@@ 23764
Capit@@ 23760
Coal 23760
elf 23755
lation 23754
exceptions 23753
Clyde 23751
Flora 23749
intelligent 23749
Auburn 23747
Ostr@@ 23738
ult 23737
Applied 23736
Cres@@ 23731
ān 23728
Arabian 23723
iman 23723
Kolkata 23721
Have 23720
inclin@@ 23719
hoe 23718
Know 23714
ru 23714
gem@@ 23711
flash@@ 23709
four@@ 23709
Performing 23708
titudes 23708
Middlesex 23707
Dir@@ 23704
flam@@ 23701
eira 23700
Antwerp 23696
wara 23694
congreg@@ 23692
apos@@ 23690
leb@@ 23681
asset 23679
WT@@ 23675
HBO 23674
12,@@ 23673
avan 23670
Iv@@ 23667
Mili@@ 23667
ult@@ 23665
Coventry 23663
juana 23663
Oriental 23662
ird 23660
Emirates 23656
107 23652
adia 23649
leigh 23643
amen 23640
Rahman 23639
ostr@@ 23633
Dawson 23632
Mile 23629
podcast 23628
1793 23625
1817 23624
Ferrari 23624
Omaha 23623
Kenn@@ 23620
bacteri@@ 23620
Yemen 23617
lyn 23617
za@@ 23613
1808 23612
andi 23597
Mt 23595
Motors 23591
hamshire 23588
cinemat@@ 23585
Patterson 23578
ias 23573
abis 23569
insur@@ 23564
Koz@@ 23560
visu@@ 23558
Zen@@ 23556
rah 23554
Prepar@@ 23553
Cay@@ 23545
Calcutta 23537
ockey 23537
escent 23535
nucleus 23531
Hang@@ 23530
A1 23527
Whiteh@@ 23524
Hand 23522
Tracy 23519
Plant@@ 23518
Classification 23514
Frank@@ 23506
Gang 23506
Bass 23505
gio 23492
ui@@ 23492
otro@@ 23487
Andre@@ 23479
fut@@ 23476
chip 23464
revel@@ 23463
Clinical 23462
Too 23459
aku 23455
exten@@ 23453
nov@@ 23452
Lorenzo 23450
intim@@ 23450
Giuseppe 23446
Prel@@ 23444
Tax 23444
Joh@@ 23440
condem@@ 23439
gren@@ 23435
Superman 23433
discrimin@@ 23432
bag@@ 23430
mation 23428
fon@@ 23427
ayn@@ 23424
erial 23423
Inner 23422
concer@@ 23421
gath@@ 23421
Psychology 23419
mus 23417
Tut@@ 23415
confluence 23414
Zar@@ 23413
Boat 23409
Parade 23409
Titans 23409
Brown@@ 23405
Der 23389
get@@ 23388
orch@@ 23388
alpha 23387
proces@@ 23383
sacri@@ 23383
ei@@ 23378
Chambers 23377
WR 23377
TP 23376
Meth@@ 23374
cane 23374
irrigation 23373
prais@@ 23365
reform@@ 23364
commissions 23361
Laun@@ 23355
én 23355
Count@@ 23354
Cha@@ 23353
radic@@ 23351
mim@@ 23350
Wag@@ 23349
reproduc@@ 23346
Shab@@ 23339
accusations 23338
Antoine 23335
cel 23332
predec@@ 23331
Scr@@ 23329
dington 23328
Osaka 23326
firm@@ 23322
trem@@ 23320
warf 23319
candid@@ 23316
Lin 23314
Arlington 23312
CM 23312
iefs 23309
Kuwait 23308
Llan@@ 23303
SF 23303
experi@@ 23302
Tall@@ 23297
brig@@ 23296
Bang 23294
sius 23294
fiber 23292
alpine 23290
yth@@ 23290
Numer@@ 23282
Hul@@ 23281
eed 23277
Vy@@ 23273
rector 23272
Rising 23271
Kand@@ 23266
Miz@@ 23251
Hour 23249
Zor@@ 23249
inqu@@ 23248
Angela 23245
oda 23243
Akh@@ 23239
distinc@@ 23235
Cerambycidae 23234
geome@@ 23234
Plain 23225
sack 23224
Hip 23223
Prec@@ 23221
Venus 23218
vs 23218
tumor 23216
atu 23215
1807 23214
Leigh 23211
iTunes 23211
organis@@ 23208
Consult@@ 23204
incur@@ 23203
Lig@@ 23201
Ham 23194
Eleanor 23193
170 23190
titude 23190
43@@ 23185
umed 23185
dioc@@ 23183
SK 23180
Eu@@ 23171
recycl@@ 23171
email 23165
anted 23162
tech 23161
Acts 23160
Hug@@ 23156
Dudley 23153
Kod@@ 23153
Cun@@ 23152
Sinclair 23151
magn@@ 23146
1794 23127
Wave 23127
1798 23126
Willis 23126
1795 23125
oirs 23125
Kis@@ 23123
Na 23117
Irving 23107
Lang 23106
Matthews 23103
León 23101
rosse 23099
mans 23098
lang 23095
pep@@ 23093
Opposition 23091
Barb@@ 23087
Nil@@ 23087
Viscount 23087
qi 23087
flash 23081
1804 23080
otte 23080
CNN 23071
Scouts 23059
sis 23059
import 23053
usive 23050
maid 23046
onne 23045
conform@@ 23044
s.@@ 23044
sati@@ 23038
Braves 23037
Yi 23032
tat@@ 23029
Lambert 23028
haven 23028
Sub 23026
ien 23024
Skat@@ 23023
enty 23021
Kov@@ 23017
ě@@ 23015
1805 23014
Credit 23003
esan 23002
hip@@ 23002
Bryant 22997
Reservoir 22997
ampton 22997
athy 22997
sberg 22997
McCarthy 22992
angles 22990
esto 22987
FF@@ 22985
Brady 22984
000,000 22981
Quarter 22981
Wanderers 22978
rors 22978
Screen 22970
Herr@@ 22969
Mongolia 22966
cum@@ 22966
Investig@@ 22963
1,5@@ 22962
polo 22958
ński 22950
hist@@ 22949
1811 22944
taxonom@@ 22944
Alder@@ 22943
Variety 22943
Scholar@@ 22940
Gujarat 22939
diploma 22939
plic@@ 22937
Mud@@ 22936
etes 22926
Points 22925
number@@ 22925
della 22924
Eva 22918
iva 22915
shir@@ 22915
Augusta 22914
trans 22912
fax 22911
para 22910
phin 22908
adolesc@@ 22904
sby 22903
Prairie 22897
alter 22896
astal 22896
Mart@@ 22892
hiz@@ 22890
ahan 22883
Bermuda 22882
igo 22882
ambul@@ 22877
Autonomous 22874
eu 22873
masses 22871
tones 22869
Pig@@ 22868
AAA 22866
owo 22866
Porto 22863
atch 22859
iche 22859
Wade 22857
mutations 22857
phras@@ 22857
Tibet 22851
ès 22850
ograph 22847
Lopez 22843
triangular 22843
Italia 22840
eke 22840
MT 22838
tempo 22837
Cove 22836
Fashion 22836
bons 22833
Shirley 22825
Vik@@ 22824
homosexu@@ 22820
ption 22816
Pearson 22815
Tehran 22813
Alleg@@ 22809
humor@@ 22806
urity 22802
Buk@@ 22801
feat 22801
bath@@ 22799
av 22798
Anth@@ 22797
participant 22797
sives 22792
Gates 22791
Brigadier 22782
Clement 22775
osyn@@ 22772
destroyers 22770
Australi@@ 22768
sertation 22767
Lindsay 22765
ballad 22764
Bangkok 22760
conventions 22760
void 22756
Kok@@ 22754
portal 22752
Baron@@ 22751
tunnels 22750
Atlas 22748
toil@@ 22742
distor@@ 22741
orn@@ 22734
zon@@ 22732
Flash 22731
Shor@@ 22731
Schmidt 22724
Word 22720
Eden 22717
itan 22715
Angel@@ 22714
Folk 22712
libr@@ 22712
elo 22710
Cameroon 22708
Resolution 22707
ż@@ 22705
omer@@ 22703
KO@@ 22700
Basque 22699
Flam@@ 22694
Eyes 22685
Nom@@ 22683
primitive 22680
Gov@@ 22679
rup@@ 22672
Trevor 22671
pump@@ 22663
observe 22660
Promotion 22658
Era 22652
dal@@ 22649
Tonight 22647
Beauty 22645
Johan 22645
marathon 22643
uled 22640
Marina 22634
dan@@ 22633
alise 22628
nham 22627
ocar@@ 22624
Krist@@ 22623
Princip@@ 22619
Cool@@ 22609
prior@@ 22607
eshi 22606
Hop 22599
pac@@ 22596
CU 22591
Epis@@ 22590
aland 22589
2.3 22588
lunar 22584
glu@@ 22579
restruc@@ 22575
Bulls 22572
hung 22572
Bh@@ 22570
Hew@@ 22569
itas 22569
kad@@ 22568
Pitt 22565
Boxing 22563
eant 22563
ensen 22560
2.1 22556
ystem 22556
RCA 22553
Tomatoes 22553
azz@@ 22553
opr@@ 22549
dop@@ 22548
confisc@@ 22542
circa 22540
Elite 22539
Selec@@ 22539
Pear@@ 22537
11,@@ 22534
etz@@ 22532
notation 22530
Bron@@ 22529
Muk@@ 22528
Jol@@ 22525
Innovation 22519
apur 22515
Tong@@ 22512
Zoo 22506
Peterson 22502
Standing 22494
Phillip 22483
inflation 22483
omes 22478
halt 22472
buff@@ 22471
Bic@@ 22467
atro@@ 22464
Cherokee 22461
JR 22461
Lein@@ 22461
Aston 22460
fascin@@ 22460
Benn@@ 22454
vik 22453
[...]
