, 1
. 1
в 1
и 1
@-@ 1
на 1
) 1
( 1
— 1
« 1
» 1
с 1
В 1
года 1
&quot; 0.33641791235608287
году 1
по 1
из 1
не 1
к 1
: 1
был 1
что 1
от 1
а 1
за 1
у 1
для 1
его 1
как 1
ной 1
; 1
но 1
до 1
он 1
ных 1
о 1
ского 1
ные 1
не@@ 1
ской 1
ский 1
ный 1
ного 1
ли 1
также 1
ки 1
С 1
у@@ 1
ла 1
на@@ 1
по@@ 1
была 1
за@@ 1
й 1
были 1
ка 1
том 1
ная 1
было 1
ном 1
ы 1
про@@ 1
время 1
л 1
м 1
во 1
е 1
ным 1
ное 1
1 1
или 1
т 1
при 1
я 1
вы@@ 1
до@@ 1
с@@ 1
пере@@ 1
́ 1
А@@ 1
ская 1
в@@ 1
при@@ 1
же 1
та 1
со@@ 1
2 1
ли@@ 1
ском 1
ко@@ 1
после 1
то 1
О@@ 1
ны 1
т@@ 1
ни@@ 1
но@@ 1
н 1
ль@@ 1
х 1
ш@@ 1
ль 1
ре@@ 1
На 1
ю 1
г 1
ских 1
ную 1
под 1
У@@ 1
По 1
д@@ 1
Э@@ 1
ро@@ 1
ка@@ 1
ты 1
области 1
д 1
их 1
са 1
ке 1
к@@ 1
/ 0.8735002714033842
3 1
о@@ 1
ва@@ 1
ра@@ 1
% 0.9951379369691163
ку 1
м@@ 1
ков 1
С@@ 1
де 1
где 1
её 1
км 1
да 1
ными 1
ри@@ 1
который 1
р 1
ло@@ 1
лет 1
ма@@ 1
И@@ 1
от@@ 1
ди@@ 1
мо@@ 1
те 1
лся 1
ло 1
ти@@ 1
си@@ 1
п@@ 1
После 1
ские 1
ма 1
со 1
По@@ 1
лись 1
а@@ 1
ве@@ 1
А 1
того 1
стал 1
год 1
это 1
4 1
э@@ 1
б@@ 1
более 1
де@@ 1
во@@ 1
ть 1
ра 1
России 1
та@@ 1
лась 1
г@@ 1
го 1
ру@@ 1
ров 1
то@@ 1
тов 1
ром 1
ви@@ 1
К@@ 1
ское 1
я@@ 1
бо@@ 1
она 1
кой 1
л@@ 1
В@@ 1
да@@ 1
ет 1
является 1
так 1
го@@ 1
ле@@ 1
з@@ 1
человек 1
га@@ 1
ским 1
се@@ 1
5 1
состав 1
ле 1
Ка@@ 1
нии 1
и@@ 1
раз@@ 1
са@@ 1
под@@ 1
ла@@ 1
н@@ 1
й@@ 1
&amp; 1
П@@ 1
ми@@ 1
бе@@ 1
х@@ 1
вой 1
ние 1
те@@ 1
ме@@ 1
па@@ 1
которые 1
ить 1
ют 1
Ко@@ 1
только 1
ни 1
р@@ 1
ж@@ 1
города 1
ь 1
ч@@ 1
ба@@ 1
10 1
ва 1
6 1
ей 1
СССР 1
ется 1
ф@@ 1
га 1
ля 1
войны 1
ги@@ 1
нов 1
цы 1
лось 1
К 1
Г@@ 1
ь@@ 1
ми 1
ды 1
этого 1
Ма@@ 1
скую 1
они 1
этом 1
годах 1
ность 1
Т@@ 1
них 1
И 1
ку@@ 1
Д@@ 1
Са@@ 1
ния 1
ком 1
пи@@ 1
ний 1
района 1
чи@@ 1
США 1
об@@ 1
История 1
На@@ 1
льной 1
М@@ 1
между 1
ности 1
ду@@ 1
ки@@ 1
Биография 1
су@@ 1
мы 1
составе 1
ко 1
8 1
когда 1
Он 1
7 1
против 1
ё@@ 1
з 1
части 1
реки 1
ст@@ 1
пе@@ 1
Ш@@ 1
вер@@ 1
ры 1
вых 1
ции 1
которых 1
мая 1
годы 1
нию 1
ту 1
чтобы 1
вал 1
ши@@ 1
жи@@ 1
января 1
Со@@ 1
сто@@ 1
За@@ 1
ан@@ 1
20 1
около 1
Не@@ 1
ста@@ 1
кон@@ 1
15 1
ту@@ 1
ше@@ 1
це@@ 1
дом 1
районе 1
ников 1
мира 1
гу@@ 1
ками 1
Б@@ 1
ля@@ 1
июля 1
льный 1
пре@@ 1
все 1
ства 1
че@@ 1
льных 1
века 1
ники 1
бы 1
ются 1
хо@@ 1
него 1
населения 1
би@@ 1
место 1
12 1
вать 1
е@@ 1
нием 1
ному 1
цев 1
цию 1
ней 1
вая 1
зо@@ 1
несколько 1
лом 1
ем 1
Ба@@ 1
через 1
декабря 1
ещё 1
ме 1
уже 1
получил 1
2010 1
ду 1
рас@@ 1
ю@@ 1
которой 1
часть 1
зи@@ 1
марта 1
Ми@@ 1
пу@@ 1
которая 1
9 1
августа 1
ев 1
ги 1
над 1
Р@@ 1
сентября 1
М 1
При@@ 1
лы 1
октября 1
территории 1
Ф@@ 1
апреля 1
Ку@@ 1
му 1
им 1
своей 1
вые 1
ди 1
ник 1
июня 1
два 1
может 1
лов 1
ре 1
№ 1
льные 1
один 1
ему 1
чем 1
се 1
из@@ 1
льного 1
Ли@@ 1
других 1
затем 1
30 1
ге@@ 1
же@@ 1
Су@@ 1
ша@@ 1
бу@@ 1
ин@@ 1
скому 1
качестве 1
воз@@ 1
му@@ 1
ноября 1
ча@@ 1
Население 1
ческих 1
группы 1
б 1
находится 1
ха@@ 1
Се@@ 1
район 1
18 1
вместе 1
ы@@ 1
ать 1
сти@@ 1
ст 1
Л@@ 1
Н@@ 1
февраля 1
Ро@@ 1
вого 1
Я@@ 1
ц@@ 1
ман@@ 1
11 1
Ра@@ 1
ство 1
_ 1
ья 1
Про@@ 1
Мо@@ 1
Однако 1
ления 1
Бо@@ 1
Ле@@ 1
однако 1
среди 1
льная 1
16 1
ца 1
участие 1
ника 1
Ар@@ 1
Ре@@ 1
которого 1
Х@@ 1
лей 1
вали 1
составляет 1
лу@@ 1
льно 1
Н 1
&#93; 1
&#91; 1
ха 1
городе 1
14 1
ках 1
всех 1
дов 1
бы@@ 1
ш 1
г. 1
период 1
Го@@ 1
числе 1
25 1
- 0.37192211893254046
Па@@ 1
вым 1
двух 1
той 1
Та@@ 1
свою 1
Мар@@ 1
начале 1
три 1
Си@@ 1
сом 1
быть 1
п 1
стала 1
годов 1
З@@ 1
13 1
город 1
работал 1
ар@@ 1
этой 1
жизни 1
ье 1
фи@@ 1
Бе@@ 1
себя 1
сы 1
рии 1
жа@@ 1
17 1
ры@@ 1
Бу@@ 1
хи@@ 1
Е@@ 1
армии 1
ри 1
ран@@ 1
ти 1
своего 1
Де@@ 1
название 1
есть 1
ну@@ 1
данным 1
За 1
Ч@@ 1
времени 1
ци@@ 1
вает 1
Ки@@ 1
Ме@@ 1
сов 1
мен@@ 1
без 1
всего 1
При 1
полу@@ 1
Это 1
скими 1
имени 1
конце 1
там 1
работы 1
село 1
I 0.6760482224202922
Ю@@ 1
ческого 1
нами 1
деревня 1
человека 1
ством 1
вом 1
ческий 1
Га@@ 1
Ва@@ 1
гор@@ 1
ция 1
2011 0.8334526958070712
Ла@@ 1
Ру@@ 1
сти 1
раз 1
19 1
Во 1
О 1
ве 1
П 1
ций 1
ск 1
2012 0.8886255388483638
льным 1
цией 1
истории 1
ён 1
Кар@@ 1
formula 1
ним 1
Ц@@ 1
2008 0.9031260136276538
2014 0.8746779010525491
ч 1
2009 0.8919688837371624
ление 1
первый 1
ником 1
лу 1
Ве@@ 1
ц 1
gt 1
У 1
тем 1
чной 1
ста 1
ческой 1
ностью 1
Также 1
имеет 1
льное 1
этот 1
ями 1
связи 1
ге 1
поло@@ 1
фа@@ 1
вы 1
2007 0.9234440963749128
II 1
сло@@ 1
lt 1
ческие 1
сть 1
лен@@ 1
До@@ 1
ак@@ 1
2013 0.8563073477755495
можно 1
2015 0.8478100000282727
ен@@ 1
мм 1
об 1
рен@@ 1
вен@@ 1
стро@@ 1
лю@@ 1
тан@@ 1
второй 1
э 1
фе@@ 1
ска@@ 1
° 1
Ви@@ 1
чего 1
24 1
теле@@ 1
2006 0.9191424910705023
пред@@ 1
21 1
Му@@ 1
22 1
си 1
ющих 1
откры@@ 1
2002 1
чных 1
ке@@ 1
тами 1
жения 1
ющий 1
рами 1
пол@@ 1
ба 1
стали 1
чный 1
переписи 1
ор@@ 1
Ан@@ 1
вала 1
Его 1
сон 1
своих 1
ью 1
2016 0.8114833936057562
2000 1
лё@@ 1
Лу@@ 1
образом 1
стра@@ 1
ниях 1
сте@@ 1
другие 1
ск@@ 1
зна@@ 1
сельского 1
эн@@ 1
ат@@ 1
вый 1
чи 1
результате 1
вается 1
собой 1
котором 1
ден@@ 1
100 1
фильм 1
одной 1
жение 1
ско@@ 1
Вы@@ 1
тах 1
мер@@ 1
Ха@@ 1
центра 1
То@@ 1
23 1
кар@@ 1
течение 1
… 1
электро@@ 1
род 1
одним 1
лишь 1
² 1
ться 1
мы@@ 1
Пе@@ 1
Украины 1
Гу@@ 1
Аль@@ 1
лем 1
мов 1
Для 1
пла@@ 1
очень 1
поселения 1
лен 1
нах 1
2017 0.7990441769291449
ска 1
ходе 1
ству 1
день 1
начала 1
26 1
мом 1
стов 1
рия 1
Ри@@ 1
страны 1
область 1
обра@@ 1
юго 1
ско 1
Российской 1
сборной 1
ж 1
2005 0.9513909903237642
вший 1
The 0.050499092070183216
Ду@@ 1
ске 1
ру 1
28 1
вания 1
зу@@ 1
зы 1
сты 1
смерти 1
род@@ 1
северо 1
гу 1
ша 1
ня@@ 1
Александр 1
чу@@ 1
гре@@ 1
2018 0.7363114935481673
ван@@ 1
2004 0.9849800610412055
Согласно 1
C 1
начал 1
зе@@ 1
ющие 1
27 1
роль 1
округа 1
Те@@ 1
гов 1
Кон@@ 1
1941 1
тро@@ 1
ёр@@ 1
дней 1
чного 1
эк@@ 1
призна@@ 1
2001 1
Хо@@ 1
кра@@ 1
свой 1
йский 1
кан@@ 1
кам 1
даже 1
команды 1
чные 1
име@@ 1
Би@@ 1
метров 1
ях 1
Республики 1
мой 1
ниями 1
назначен 1
льном 1
ды@@ 1
1990 1
первой 1
Г 1
2019 0.7498681447677243
центр 1
От@@ 1
стве 1
пло@@ 1
могут 1
Ту@@ 1
вос@@ 1
церкви 1
йского 1
’ 0.16414465241747384
обще@@ 1
.@@ 1
кино@@ 1
Да@@ 1
партии 1
вание 1
Д 1
стороны 1
цами 1
50 1
две 1
Пи@@ 1
жен@@ 1
наук 1
нов@@ 1
лин@@ 1
университета 1
гла@@ 1
шей 1
стом 1
свои 1
Из 1
ря@@ 1
компании 1
Ти@@ 1
этих 1
Ор@@ 1
тра@@ 1
нее 1
ски 1
клуб 1
кова 1
будет 1
аль@@ 1
ровать 1
тер@@ 1
вод@@ 1
ну 1
ро 1
лан@@ 1
тор@@ 1
являются 1
впервые 1
па 1
1944 1
кор@@ 1
менее 1
вался 1
Ж@@ 1
География 1
су 1
пер@@ 1
уда@@ 1
29 1
Но 1
Но@@ 1
мар@@ 1
бер@@ 1
ман 1
много@@ 1
кли@@ 1
например 1
нова 1
Ди@@ 1
родился 1
рода 1
Бер@@ 1
ший 1
тот 1
ча 1
Ф 1
Кроме 1
Пу@@ 1
ств 1
семье 1
чемпионате 1
кий 1
гом 1
сезона 1
Франции 1
ван 1
которое 1
три@@ 1
группа 1
либо 1
цен@@ 1
ева 1
фа 1
образования 1
рования 1
Совета 1
Европы 1
2020 0.7039053244134355
щ@@ 1
берегу 1
ровал 1
количество 1
сил 1
! 0.9718071870570655
ос@@ 1
бра@@ 1
жителей 1
бор@@ 1
много 1
лены 1
гра@@ 1
чер@@ 1
кру@@ 1
вели@@ 1
ком@@ 1
бе 1
вают 1
перед 1
сы@@ 1
если 1
ших 1
женщин 1
Ло@@ 1
1999 1
ёт 1
Ин@@ 1
тных 1
цкий 1
льную 1
Ал@@ 1
села 1
вую 1
br 1
– 0.11898981525570557
чно 1
Пер@@ 1
Ша@@ 1
спи@@ 1
вра@@ 1
ющей 1
31 1
ится 1
системы 1
1945 1
одного 1
йской 1
вое 1
ров@@ 1
часто 1
точ@@ 1
лет@@ 1
авто@@ 1
ф 1
он@@ 1
пар@@ 1
тся 1
Бар@@ 1
встре@@ 1
Родился 1
всё 1
Т 1
став@@ 1
школы 1
производ@@ 1
1943 1
фо@@ 1
Входит 1
тной 1
ница 1
окончил 1
селе 1
Во@@ 1
нам 1
вались 1
ющего 1
Че@@ 1
сме@@ 1
альбом 1
2003 0.9168602092213182
40 1
Германии 1
ныне 1
мор@@ 1
почти 1
До 1
ху@@ 1
организации 1
детей 1
ющая 1
лл 1
Санкт 1
Ни@@ 1
само@@ 1
вновь 1
типа 1
эти 1
ня 1
власти 1
хотя 1
культуры 1
сам 1
игры 1
ян@@ 1
жизнь 1
Федерации 1
поли@@ 1
Как 1
ит@@ 1
честь 1
иться 1
итель 1
чемпионата 1
Москве 1
площадь 1
больше 1
0 0.8178565996864812
анти@@ 1
способ@@ 1
имя 1
ряд 1
льского 1
нен@@ 1
Кор@@ 1
Она 1
рах 1
губернии 1
тен@@ 1
ям 1
чная 1
настоящее 1
ниям 1
частности 1
ческая 1
направ@@ 1
зов 1
ённые 1
ты@@ 1
Мак@@ 1
людей 1
дра@@ 1
одно@@ 1
льской 1
шего 1
тия 1
нем 1
разде@@ 1
кры@@ 1
клуба 1
генерал 1
Л 1
многих 1
пле@@ 1
тон 1
дами 1
стало 1
вского 1
1980 1
станции 1
тре@@ 1
шая 1
вших 1
шие 1
тру@@ 1
ще@@ 1
лена 1
Ста@@ 1
ан 1
жа 1
зе 1
пы 1
деятельность 1
момент 1
1991 1
кие 1
уч@@ 1
1992 1
ген@@ 1
степени 1
членом 1
лов@@ 1
гру@@ 1
ши 1
“ 0.1701948970328305
бро@@ 1
наиболее 1
никами 1
вин@@ 1
основном 1
работу 1
льский 1
мировой 1
различных 1
сезоне 1
сни@@ 1
кре@@ 1
лы@@ 1
би 1
низ@@ 1
дивизии 1
XIX 1
вский 1
Пре@@ 1
цкого 1
лли@@ 1
должность 1
входит 1
1942 1
Великой 1
первого 1
совета 1
матче 1
Ново@@ 1
стар@@ 1
нения 1
стре@@ 1
+ 1
принял 1
1960 1
нескольких 1
Отечественной 1
здесь 1
управления 1
ющим 1
таких 1
1970 1
Ге@@ 1
ясь 1
сь 1
своим 1
Лю@@ 1
тысяч 1
отде@@ 1
Так 1
ённых 1
Р 1
образ@@ 1
рин@@ 1
ких 1
ур@@ 1
бан@@ 1
це 1
своё 1
тный 1
новых 1
ше 1
моря 1
ые 1
дах 1
еди@@ 1
им@@ 1
отме@@ 1
ранее 1
кого 1
Я 1
примерно 1
обо@@ 1
месте 1
новой 1
советский 1
рует 1
линии 1
итель@@ 1
войск 1
нет 1
ницы 1
рей@@ 1
щих 1
„ 0.23177193239345195
Кри@@ 1
ща@@ 1
фильма 1
первым 1
ья@@ 1
1998 0.948811424154579
участвовал 1
вич 1
дома 1
вид 1
дер@@ 1
тного 1
лла 1
ённый 1
няя 1
Пере@@ 1
самого 1
трёх 1
серии 1
Б 1
названием 1
число 1
состоя@@ 1
образование 1
Союза 1
1930 1
1994 1
полка 1
Нью 1
Ке@@ 1
новый 1
1997 1
которую 1
возрасте 1
000 1
лями 1
of 0.010047869301746046
Владимир 1
пан@@ 1
1996 1
Ман@@ 1
рой 1
позже 1
дви@@ 1
воды 1
1995 1
Николай 1
жил 1
получила 1
2021 0.7022525588160481
виде 1
кур@@ 1
вышел 1
моло@@ 1
вет@@ 1
логи@@ 1
щения 1
мя@@ 1
сле@@ 1
полностью 1
сын 1
рав@@ 1
вар@@ 1
1920 1
ый 1
гар@@ 1
лин 1
ис@@ 1
нём 1
деятельности 1
тя@@ 1
игр 1
созда@@ 1
щи@@ 1
деревни 1
сла@@ 1
ностей 1
III 1
вернулся 1
сня@@ 1
сен@@ 1
ато@@ 1
права 1
1993 1
сель@@ 1
обы@@ 1
сси@@ 1
рован 1
Об@@ 1
рей 1
жена 1
кая 1
нок 1
ате@@ 1
гг 1
случае 1
лю 1
графи@@ 1
шим 1
значения 1
Гор@@ 1
член 1
первых 1
см 1
Чер@@ 1
нь 1
щий 1
др 1
вшие 1
городского 1
многие 1
ителей 1
ал@@ 1
XX 1
ССР 1
млн 1
вской 1
Второй 1
пара@@ 1
диа@@ 1
Был 1
коро@@ 1
альбома 1
общества 1
уз@@ 1
ваться 1
мужчин 1
&apos; 0.08874611172259955
евич 1
фор@@ 1
кла@@ 1
тон@@ 1
ков@@ 1
провёл 1
эта@@ 1
ер@@ 1
ким 1
жи 1
н. 1
уезда 1
ых 1
пор@@ 1
прекра@@ 1
щие 1
вя@@ 1
кро@@ 1
Когда 1
тин@@ 1
Они 1
щей 1
тый 1
стер@@ 1
1989 1
коло@@ 1
четыре 1
места 1
тора 1
ера 1
империи 1
ок@@ 1
жены 1
бой 1
ческое 1
кино 1
решение 1
Ак@@ 1
руководством 1
ход@@ 1
себе 1
1950 1
рок 1
тные 1
нового 1
вов 1
язы@@ 1
эй@@ 1
тер 1
тии 1
ву@@ 1
Олимпийских 1
некоторые 1
действия 1
сс 1
кин 1
тому 1
выми 1
пра@@ 1
сер@@ 1
Вер@@ 1
1940 1
Воз@@ 1
некоторых 1
ата@@ 1
движения 1
поч@@ 1
60 1
вшись 1
лению 1
помощью 1
прода@@ 1
Ча@@ 1
прав@@ 1
население 1
выде@@ 1
песни 1
хи 1
основе 1
дал 1
разме@@ 1
нович 1
яр@@ 1
= 0.6125001102929389
веке 1
пове@@ 1
мин@@ 1
лич@@ 1
видов 1
щение 1
ся 1
Фе@@ 1
Среди 1
церковь 1
развития 1
ят 1
поскольку 1
чен@@ 1
дой 1
Сер@@ 1
сельсовета 1
Фи@@ 1
боль@@ 1
зы@@ 1
совер@@ 1
йских 1
государственного 1
лении 1
Иван 1
работ 1
сса 1
ву 1
удалось 1
ез@@ 1
ждения 1
включая 1
емых 1
рамках 1
поме@@ 1
чки 1
тогда 1
истори@@ 1
сами 1
циях 1
стан@@ 1
ган@@ 1
вшего 1
мана 1
кри@@ 1
одна 1
языка 1
1918 1
Бело@@ 1
Раз@@ 1
играх 1
лей@@ 1
жением 1
1939 1
версии 1
имеют 1
академии 1
сту@@ 1
пя@@ 1
Затем 1
Ше@@ 1
гон@@ 1
рование 1
окончания 1
чным 1
другой 1
Под@@ 1
зер@@ 1
рий 1
компания 1
Мин@@ 1
че 1
Эн@@ 1
деревне 1
переда@@ 1
окру@@ 1
такие 1
ины 1
ними 1
зем@@ 1
лия 1
тель@@ 1
назва@@ 1
самых 1
поль@@ 1
дел 1
поле 1
бри@@ 1
конца 1
обычно 1
кое 1
Эр@@ 1
чения 1
вича 1
института 1
войска 1
льными 1
руется 1
ново@@ 1
важ@@ 1
благодаря 1
оста@@ 1
тех 1
Е 1
бу 1
река 1
йн 1
тыс. 1
? 1
ённой 1
дро@@ 1
ней@@ 1
Фа@@ 1
вол@@ 1
университете 1
0@@ 1
ственной 1
шения 1
син@@ 1
Мор@@ 1
лением 1
фон 1
вое@@ 1
пы@@ 1
поэтому 1
которым 1
ческом 1
ссо@@ 1
аться 1
закры@@ 1
называ@@ 1
ье@@ 1
мен 1
ита 1
ены 1
пря@@ 1
зан@@ 1
нение 1
школу 1
мире 1
выступал 1
ати@@ 1
работе 1
школе 1
тор 1
класси@@ 1
большой 1
жу@@ 1
роли 1
ток 1
Кара@@ 1
дж@@ 1
Хи@@ 1
чей 1
Сан@@ 1
перешёл 1
город@@ 1
лой 1
право@@ 1
провинции 1
шен@@ 1
лах 1
самым 1
ссе@@ 1
изда@@ 1
ём 1
Кур@@ 1
представ@@ 1
лек@@ 1
национальной 1
тур@@ 1
свя@@ 1
рус@@ 1
дан@@ 1
Первый 1
главным 1
ваются 1
тической 1
чное 1
сов@@ 1
дия 1
края 1
тё@@ 1
Иванович 1
жений 1
языке 1
бар@@ 1
част@@ 1
округ 1
рез@@ 1
1917 1
ственных 1
команда 1
работа@@ 1
дин@@ 1
согласно 1
дол@@ 1
10@@ 1
искусства 1
ред@@ 1
земли 1
ственные 1
чу 1
производства 1
Вол@@ 1
гер@@ 1
поселение 1
Ай@@ 1
ственного 1
тых 1
хе@@ 1
впоследствии 1
должен 1
200 1
частью 1
каз@@ 1
Гер@@ 1
тол@@ 1
новые 1
2@@ 1
Ши@@ 1
Ги@@ 1
российский 1
фер@@ 1
Дже@@ 1
происходит 1
Из@@ 1
лова 1
сентябре 1
слу@@ 1
бере@@ 1
над@@ 1
хов 1
чик 1
мнению 1
национа@@ 1
язык 1
цу 1
Шу@@ 1
логии 1
Михаил 1
жении 1
полк 1
стри@@ 1
цов 1
создания 1
стран 1
1988 0.9835176365284937
пода@@ 1
звание 1
ческим 1
ть@@ 1
мае 1
щен@@ 1
волости 1
спорта 1
всей 1
завод 1
карьеру 1
бал@@ 1
− 1
другими 1
Верховного 1
выра@@ 1
бо 1
мать 1
состоит 1
заме@@ 1
неё 1
избран 1
утвер@@ 1
январе 1
составляло 1
Чу@@ 1
мон@@ 1
данных 1
театра 1
Пред@@ 1
должности 1
лер 1
ден 1
особенно 1
целью 1
профессор 1
имел 1
мо 1
тие 1
роди@@ 1
марте 1
тай@@ 1
деятель 1
кую 1
Сергей 1
the 0.00424824444936215
все@@ 1
древ@@ 1
кто 1
мир 1
Ху@@ 1
чел 1
кс 1
вскоре 1
вана 1
шу@@ 1
коммуны 1
авиа@@ 1
вид@@ 1
именно 1
температура 1
сыграл 1
Москва 1
без@@ 1
станция 1
посе@@ 1
расположен 1
дня 1
ход 1
Хар@@ 1
дер 1
положение 1
посёлок 1
плат@@ 1
октябре 1
короля 1
занял 1
РФ 1
лено 1
РСФСР 1
фильме 1
государства 1
первом 1
августе 1
центра@@ 1
тов@@ 1
Сан 1
декабре 1
проект 1
Италии 1
спа@@ 1
физи@@ 1
снова 1
изобра@@ 1
рядом 1
институт 1
семьи 1
уче@@ 1
лии 1
тно 1
рон@@ 1
ет@@ 1
кто@@ 1
запре@@ 1
лами 1
отношения 1
возможность 1
каза@@ 1
относится 1
рию 1
поэ@@ 1
кин@@ 1
право 1
противника 1
рам 1
лина 1
этим 1
микро@@ 1
умер 1
служил 1
Этот 1
рай@@ 1
ковского 1
русской 1
шко@@ 1
мат@@ 1
команду 1
расстоянии 1
нин 1
первые 1
возвра@@ 1
пе 1
предло@@ 1
женщины 1
радио@@ 1
1938 1
Все 1
находился 1
емые 1
ковых 1
хоро@@ 1
пов 1
1937 1
двумя 1
контракт 1
ев@@ 1
книги 1
востоку 1
чение 1
здание 1
ство@@ 1
отца 1
играл 1
управля@@ 1
чёр@@ 1
сборную 1
Несмотря 1
нару@@ 1
литератур@@ 1
особ@@ 1
представляет 1
воло@@ 1
чка 1
долларов 1
зу 1
жен 1
1986 0.9838551903349805
уничто@@ 1
середине 1
службу 1
бин@@ 1
уровнем 1
состав@@ 1
побе@@ 1
Александра 1
июле 1
чески 1
острова 1
рова 1
дела@@ 1
школа 1
премии 1
корпуса 1
цо@@ 1
70 1
силы 1
ённого 1
западу 1
лес@@ 1
1987 0.9677105552677492
вка 1
кладбище 1
80 1
1919 1
нер 1
ун@@ 1
операции 1
проекта 1
водо@@ 1
дат@@ 1
Джа@@ 1
цар@@ 1
ё 1
1985 0.9921977732332798
1946 1
отец 1
шее 1
лях 1
постав@@ 1
вида 1
совет 1
сса@@ 1
Описание 1
жной 1
дебютировал 1
жили 1
мах 1
фак@@ 1
своём 1
ян 1
службы 1
бур@@ 1
лые 1
шка 1
дии 1
эту 1
кат@@ 1
разных 1
валась 1
дать 1
валось 1
сс@@ 1
шение 1
вшая 1
университет 1
чат@@ 1
щего 1
первую 1
пор 1
система 1
июне 1
жда@@ 1
завер@@ 1
дов@@ 1
Если 1
оп@@ 1
&#124; 0.8630768338435024
работать 1
Кубка 1
определ@@ 1
чен 1
1965 1
друг 1
поступил 1
спор@@ 1
шта@@ 1
длин@@ 1
кол@@ 1
помощи 1
вало 1
нин@@ 1
тура 1
апреле 1
таким 1
цкой 1
Сто@@ 1
s 0.10049202155498543
используется 1
совет@@ 1
другим 1
становится 1
нови@@ 1
внеш@@ 1
35 1
бле@@ 1
городской 1
организо@@ 1
отправ@@ 1
вшей 1
Тем 1
титул 1
дороги 1
разви@@ 1
центром 1
ноябре 1
ил 1
мир@@ 1
прави@@ 1
нике 1
ковский 1
нар@@ 1
ственная 1
русский 1
так@@ 1
щая 1
цам 1
т. 1
гг. 1
1984 0.9480620500311111
исследовате@@ 1
закон@@ 1
Пет@@ 1
Через 1
месяца 1
должны 1
позиции 1
штат 1
ственное 1
ссии 1
ено 1
S@@ 0.146088784639385
Пар@@ 1
1979 1
пять 1
пути 1
спе@@ 1
реаль@@ 1
доро@@ 1
Великобритании 1
нить 1
Гри@@ 1
1966 1
транспор@@ 1
Московской 1
иногда 1
йском 1
дар@@ 1
подтвер@@ 1
све@@ 1
Кан@@ 1
кина 1
пис@@ 1
ители 1
зии 1
шки 1
1968 1
цвет@@ 1
1975 0.9985890662964564
вании 1
тая 1
крас@@ 1
сона 1
1926 1
ордена 1
русские 1
тые 1
M@@ 0.20041593687878195
ковой 1
Мон@@ 1
хар@@ 1
использо@@ 1
заня@@ 1
Джон 1
писал 1
чё@@ 1
феврале 1
1948 1
рассматри@@ 1
ара 1
кроме 1
ённая 1
государственный 1
сан@@ 1
концер@@ 1
эта 1
всегда 1
0,@@ 1
обороны 1
востоке 1
нос@@ 1
здания 1
дочь 1
нику 1
согла@@ 1
зат@@ 1
шую 1
ющее 1
1963 1
итоге 1
комитета 1
1973 1
забил 1
куль@@ 1
училище 1
протяжении 1
ски@@ 1
нина 1
1976 1
второго 1
вышла 1
войне 1
Кре@@ 1
сохрани@@ 1
практически 1
класса 1
ви 1
мати@@ 1
3@@ 0.9826956436648184
опера@@ 1
выпол@@ 1
расска@@ 1
отличие 1
начало 1
1959 1
дил 1
Москвы 1
правительства 1
миро@@ 1
1972 0.9797020970969863
матчей 1
нес@@ 1
этому 1
кита@@ 1
ер 1
тела 1
тив@@ 1
ляет 1
похо@@ 1
чь 1
аль 1
вед@@ 1
фу@@ 1
уро@@ 1
Пра@@ 1
сия 1
фронта 1
Май@@ 1
вз@@ 1
президента 1
плани@@ 1
вшим 1
чную 1
эт@@ 1
1971 1
1958 1
покры@@ 1
ым 1
1956 1
расположена 1
назна@@ 1
ждение 1
ав@@ 1
занима@@ 1
Гра@@ 1
меха@@ 1
сторон@@ 1
Климат 1
составляли 1
Гре@@ 1
1982 0.9481359793079763
лли 1
май@@ 1
ску 1
коллек@@ 1
вшийся 1
яв@@ 1
сезон 1
ляется 1
состоянию 1
шин@@ 1
сына 1
кам@@ 1
бло@@ 1
ково 1
жению 1
гидро@@ 1
стоя@@ 1
дам 1
мер 1
1974 0.9926683238709265
ул 1
стране 1
двух@@ 1
1929 1
состава 1
чены 1
Мат@@ 1
сразу 1
членов 1
D@@ 0.16856483920945445
граф 1
общей 1
карьера 1
ут@@ 1
кими 1
вместо 1
1983 0.9321248298249479
1978 0.9891102347073389
ственно 1
Член 1
ься 1
изо@@ 1
программы 1
иде@@ 1
являлся 1
вой@@ 1
близ@@ 1
выпу@@ 1
1981 0.9392607779995934
награждён 1
мин 1
словам 1
нико@@ 1
фин@@ 1
времен@@ 1
улица 1
военного 1
1967 1
результатам 1
Мэ@@ 1
атов 1
участ@@ 1
Тер@@ 1
45 1
заклю@@ 1
хом 1
лок 1
центре 1
дости@@ 1
позднее 1
семейства 1
улицы 1
приобре@@ 1
демокра@@ 1
издате@@ 1
ряда 1
Александ@@ 1
1954 1
шо@@ 1
1964 1
люди 1
1957 1
рованных 1
Гар@@ 1
ен 1
V 0.8334676089000541
приня@@ 1
рим@@ 1
пат@@ 1
IV 1
комплек@@ 1
Вен@@ 1
жд@@ 1
1962 1
возмож@@ 1
автор 1
тических 1
Дэ@@ 1
1949 1
безопасности 1
ственный 1
ваны 1
A 0.1190983113161591
мед@@ 1
вве@@ 1
тар@@ 1
внимание 1
завода 1
Англии 1
очередь 1
сбор@@ 1
Японии 1
слова 1
турнира 1
мог 1
XVIII 1
ющими 1
зи 1
журнала 1
500 1
гро@@ 1
мет@@ 1
образо@@ 1
1936 1
установ@@ 1
церков@@ 1
З 1
вшихся 1
жде@@ 1
1961 1
зм 1
90 1
йские 1
сельское 1
расши@@ 1
золо@@ 1
мало@@ 1
значение 1
вне@@ 1
Первой 1
мета@@ 1
корот@@ 1
гри@@ 1
1977 1
восточной 1
Мари@@ 1
содержа@@ 1
отра@@ 1
главе 1
главного 1
пост 1
ческую 1
зации 1
зар@@ 1
западе 1
графа 1
исследования 1
западной 1
Кол@@ 1
вили 1
спустя 1
запис@@ 1
военных 1
написал 1
мест@@ 1
летом 1
Ры@@ 1
строительство 1
Код 1
лиги 1
восто@@ 1
суще@@ 1
1947 1
стиче@@ 1
соответствии 1
нему 1
превра@@ 1
получили 1
одновременно 1
ем@@ 1
гой 1
Таким 1
йн@@ 1
поро@@ 1
зоне 1
льства 1
ора 1
рова@@ 1
4@@ 0.9190423786334576
одном 1
1969 1
вил 1
штаба 1
1935 1
ще 1
32 1
широ@@ 1
Бел@@ 1
начальник 1
чин@@ 1
обла@@ 1
мых 1
сельсовет 1
американский 1
празд@@ 1
хозяй@@ 1
актив@@ 1
действу@@ 1
нил 1
нении 1
веду@@ 1
ванию 1
миче@@ 1
Позже 1
жает 1
уэ@@ 1
рев@@ 1
научных 1
строительства 1
обнару@@ 1
орга@@ 1
Жи@@ 1
четырёх 1
ата 1
площади 1
населённых 1
генера@@ 1
развитие 1
Ис@@ 1
явля@@ 1
массо@@ 1
хорошо 1
емый 1
Россия 1
P@@ 0.14856330096468137
шоу 1
нер@@ 1
зрения 1
есте@@ 1
Тре@@ 1
футболист 1
гово@@ 1
гами 1
благо@@ 1
дена 1
интер@@ 1
ся@@ 1
соответственно 1
емой 1
формы 1
рин 1
меж@@ 1
правления 1
рё@@ 1
Северной 1
собира@@ 1
новым 1
статус 1
Лин@@ 1
выступа@@ 1
противо@@ 1
цвета 1
руко@@ 1
начали 1
Испании 1
выше 1
современ@@ 1
G@@ 0.15246539439192758
цве@@ 1
революции 1
дя@@ 1
Це@@ 1
движение 1
чении 1
нача@@ 1
проходит 1
турнире 1
ум 1
кома 1
начальника 1
стей 1
дивизия 1
испан@@ 1
ётся 1
влияние 1
выда@@ 1
ционных 1
ган 1
флота 1
ционной 1
Мария 1
Кра@@ 1
льд 1
сен 1
точки 1
заявил 1
выс@@ 1
слав@@ 1
водного 1
тона 1
настоя@@ 1
множество 1
сор@@ 1
1924 1
крат@@ 1
нюю 1
боевых 1
одно 1
камен@@ 1
взя@@ 1
X 0.7299413533878089
пока 1
выиграл 1
зом 1
правительство 1
музыка@@ 1
Советского 1
цем 1
север@@ 1
мест 1
ана 1
дали 1
Чи@@ 1
бело@@ 1
ющихся 1
награ@@ 1
ровали 1
1921 1
стью 1
Не 1
бит@@ 1
километров 1
росси@@ 1
сокра@@ 1
джа@@ 1
возможно 1
шел 1
ём@@ 1
учеб@@ 1
Сюжет 1
Всего 1
Бре@@ 1
йская 1
опреде@@ 1
аре@@ 1
главный 1
периода 1
живо@@ 1
русского 1
список 1
хозяйства 1
считается 1
фон@@ 1
традицион@@ 1
-@@ 0.5471318515964237
озера 1
ственным 1
никам 1
верх@@ 1
ам@@ 1
орденом 1
фина@@ 1
тики 1
известно 1
стать 1
храни@@ 1
нского 1
находятся 1
Карьера 1
христиан@@ 1
ано 1
относительно 1
меня@@ 1
большинство 1
известный 1
1922 1
предполага@@ 1
группу 1
лон@@ 1
проводи@@ 1
реке 1
музыки 1
медали 1
шем 1
вер 1
тым 1
тная 1
Тро@@ 1
Длина 1
фото@@ 1
Королев@@ 1
атом 1
условиях 1
имели 1
уго@@ 1
Э 1
Ленина 1
сне@@ 1
1953 1
рована 1
испол@@ 1
требо@@ 1
одну 1
Алексей 1
тирова@@ 1
правило 1
пору@@ 1
ново 1
круп@@ 1
Эта 1
военной 1
слож@@ 1
группе 1
вле@@ 1
ран 1
несмотря 1
объеди@@ 1
создан 1
1928 1
москов@@ 1
которому 1
ыва@@ 1
горо@@ 1
уби@@ 1
ото@@ 1
категории 1
самой 1
записи 1
евна 1
Харь@@ 1
лки 1
совместно 1
пункт 1
состоялась 1
ху 1
Фо@@ 1
применя@@ 1
дворов 1
использовать 1
победу 1
лев@@ 1
достаточно 1
дела 1
Окончил 1
чает 1
жела@@ 1
чил 1
различные 1
Список 1
нена 1
1955 1
туре 1
помо@@ 1
Эти 1
клю@@ 1
лог 1
собствен@@ 1
узна@@ 1
1934 1
ённым 1
щены 1
могли 1
автомоби@@ 1
следующие 1
мской 1
Занимает 1
шли 1
1952 1
чиков 1
R@@ 0.15425696108201487
Вскоре 1
аны 1
пригла@@ 1
деревян@@ 1
вода 1
голо@@ 1
жей 1
оно 1
научно 1
гах 1
стой 1
ответ@@ 1
форме 1
основной 1
матч 1
команд 1
мым 1
продол@@ 1
чном 1
сильно 1
занимался 1
код 1
теории 1
мского 1
1932 1
чай@@ 1
Европе 1
тил 1
циями 1
B@@ 0.1372622939282344
названия 1
финансо@@ 1
1933 1
рина 1
T@@ 0.1420425685981136
прямой 1
няется 1
Сте@@ 1
тным 1
тического 1
учился 1
Деревня 1
лам 1
наи@@ 1
Андрей 1
укра@@ 1
профессиона@@ 1
Бор@@ 1
информации 1
Нар@@ 1
мент 1
ниче@@ 1
300 1
исследований 1
месяцев 1
лых 1
уровне 1
ане 1
твор@@ 1
министра 1
целом 1
посёлка 1
дальнейшем 1
продолжа@@ 1
песен 1
кни@@ 1
1931 1
шан@@ 1
Хан@@ 1
1923 1
такой 1
угро@@ 1
Некоторые 1
русских 1
федера@@ 1
потому 1
обе@@ 1
рождения 1
участок 1
острове 1
лиге 1
оз@@ 1
Её 1
ционного 1
высо@@ 1
лений 1
ходя@@ 1
Бра@@ 1
стами 1
мами 1
пунктов 1
вице 1
Восто@@ 1
брат 1
штата 1
ствами 1
значительно 1
япон@@ 1
убе@@ 1
опублико@@ 1
пли@@ 1
Тор@@ 1
игре 1
принимал 1
Московского 1
вокруг 1
состоялся 1
ато 1
йским 1
сли 1
a 0.006759361441631746
лян@@ 1
исполня@@ 1
гну@@ 1
бли@@ 1
лка 1
числа 1
успеш@@ 1
мента 1
включает 1
чено 1
работает 1
постоян@@ 1
Красной 1
представителей 1
5@@ 0.9657751094877797
щим 1
смог 1
эр@@ 1
най@@ 1
быстро 1
хан@@ 1
ён@@ 1
Название 1
ющую 1
сли@@ 1
действий 1
факультет 1
Рай@@ 1
Бур@@ 1
лица 1
руют 1
Ю 1
пен@@ 1
транс@@ 1
необходи@@ 1
муниципального 1
Василий 1
выборах 1
ью@@ 1
ствах 1
промышленности 1
пу 1
подо@@ 1
дет@@ 1
ек@@ 1
участник 1
F@@ 0.15657785959063125
бес@@ 1
известен 1
поля 1
лый 1
Азии 1
скры@@ 1
электри@@ 1
шёл 1
сро@@ 1
сах 1
производство 1
команде 1
науки 1
военно 1
ктором 1
вёл 1
мужчины 1
сам@@ 1
создан@@ 1
странах 1
лле@@ 1
вызва@@ 1
четвёр@@ 1
ита@@ 1
летних 1
Александрович 1
вор@@ 1
королев@@ 1
песня 1
Административный 1
воздуха 1
1951 1
ницей 1
большое 1
зал 1
сков 1
лат@@ 1
гли@@ 1
чемпионат 1
поддержи@@ 1
Николаевич 1
экра@@ 1
президент 1
ству@@ 1
Рас@@ 1
C@@ 0.16142076880289316
тические 1
коммер@@ 1
ителя 1
административного 1
тяжё@@ 1
1927 1
народ@@ 1
нский 1
бое@@ 1
мые 1
счёт 1
системе 1
став 1
ванием 1
жный 1
ус 1
лучших 1
дель@@ 1
сё@@ 1
65 1
Южной 1
последовате@@ 1
рованы 1
искусств 1
соб@@ 1
дне@@ 1
просто 1
един@@ 1
соответству@@ 1
бен@@ 1
ровка 1
Дон@@ 1
жных 1
дже@@ 1
даль@@ 1
доме 1
мере 1
выполня@@ 1
первое 1
границы 1
щее 1
ца@@ 1
войсками 1
административ@@ 1
проте@@ 1
1925 1
запа@@ 1
прото@@ 1
дочери 1
юр@@ 1
серьёз@@ 1
Ком@@ 1
суда 1
последний 1
уси@@ 1
первая 1
дан 1
сначала 1
Академии 1
шла 1
коле@@ 1
год@@ 1
следует 1
граф@@ 1
хро@@ 1
знамени@@ 1
вок 1
вре@@ 1
преимущественно 1
зин@@ 1
тое 1
математи@@ 1
7@@ 0.997688576862938
рией 1
включа@@ 1
свидетель@@ 1
Даль@@ 1
Тай@@ 1
1914 1
эль 1
Же@@ 1
Автор 1
остро@@ 1
Под 1
каждый 1
официально 1
посвящ@@ 1
дь@@ 1
пти@@ 1
подня@@ 1
муж@@ 1
Коро@@ 1
музей 1
рабо@@ 1
свобод@@ 1
представля@@ 1
произведения 1
распростра@@ 1
матча 1
медаль 1
работа 1
отношении 1
культур@@ 1
емого 1
ёт@@ 1
чена 1
собра@@ 1
своими 1
доб@@ 1
ед@@ 1
произ@@ 1
стандар@@ 1
ционный 1
армия 1
долго 1
заместитель 1
ниже 1
ум@@ 1
следующий 1
регионе 1
англи@@ 1
эн 1
сдела@@ 1
структуре 1
данные 1
поста@@ 1
ждении 1
Нико@@ 1
джи@@ 1
коне@@ 1
работала 1
Три@@ 1
мей@@ 1
старший 1
стана 1
ждена 1
64 1
Здесь 1
Умер 1
боро@@ 1
историю 1
всю 1
распреде@@ 1
рон 1
ствовал 1
Никола@@ 1
совмест@@ 1
правитель@@ 1
книг 1
улице 1
солдат 1
сторону 1
уни@@ 1
жан@@ 1
нали@@ 1
L@@ 0.1245048049039532
Дани@@ 1
Поли@@ 1
защи@@ 1
ителем 1
мии 1
юж@@ 1
Ива@@ 1
базе 1
храм 1
театра@@ 1
B 0.36899852566319197
готов@@ 1
силь@@ 1
N@@ 0.15213513585872443
сра@@ 1
дву@@ 1
тен 1
XVII 1
Помимо 1
стка 1
тки 1
Дан@@ 1
Нор@@ 1
осуществ@@ 1
Боль@@ 1
независи@@ 1
власть 1
реестра 1
форми@@ 1
стер 1
проис@@ 1
герман@@ 1
большую 1
вано 1
Тур@@ 1
ниж@@ 1
активно 1
позволяет 1
ствия 1
железной 1
36 1
вари@@ 1
мощ@@ 1
море 1
занимал 1
льности 1
6@@ 0.9562972888107849
Фор@@ 1
Виктор 1
округе 1
заключ@@ 1
продолж@@ 1
Президиума 1
юриди@@ 1
британ@@ 1
получи@@ 1
вами 1
ствие 1
гия 1
ыми 1
дво@@ 1
половине 1
военный 1
вшиеся 1
часов 1
and 0.00561406802294147
лег@@ 1
Кла@@ 1
челове@@ 1
сп@@ 1
Хотя 1
строитель@@ 1
amp 0.21702306054467863
эффектив@@ 1
общего 1
фамилия 1
государственной 1
союз@@ 1
ват@@ 1
in 0.004857275989901972
евре@@ 1
Дмитрий 1
1905 1
ленных 1
олимпи@@ 1
док 1
решил 1
Бан@@ 1
Бай@@ 1
Вар@@ 1
.. 1
Аб@@ 1
духов@@ 1
литературы 1
форма@@ 1
льство 1
пом 1
евского 1
ступ@@ 1
студии 1
защит@@ 1
средств 1
ствен@@ 1
умень@@ 1
моно@@ 1
бригады 1
Сы@@ 1
пяти 1
од@@ 1
ительный 1
восток 1
общество 1
кг 1
йся 1
городов 1
будут 1
фе 1
дело 1
стороне 1
зву@@ 1
33 1
опис@@ 1
лям 1
менты 1
рен 1
глубо@@ 1
добав@@ 1
куп@@ 1
существует 1
экономиче@@ 1
происхождения 1
пяти@@ 1
техниче@@ 1
Село 1
Стар@@ 1
план@@ 1
Кру@@ 1
Фран@@ 1
прежде 1
сей 1
печат@@ 1
ёр 1
рю@@ 1
старо@@ 1
игра@@ 1
отдела 1
ланд@@ 1
формирова@@ 1
лья 1
нич@@ 1
присут@@ 1
книге 1
потреб@@ 1
опы@@ 1
директор 1
тренер 1
действие 1
днев@@ 1
районного 1
оби@@ 1
региона 1
гло@@ 1
раза 1
фре@@ 1
ковые 1
мого 1
следующем 1
Зе@@ 1
храма 1
гол 1
шед@@ 1
ченко 1
Уэ@@ 1
фици@@ 1
вной 1
ню 1
гене@@ 1
уровня 1
домаш@@ 1
37 1
гии 1
кну@@ 1
реш@@ 1
бед@@ 1
ент@@ 1
тина 1
шек 1
административно 1
длиной 1
чика 1
средней 1
нало@@ 1
степень 1
прибы@@ 1
пробле@@ 1
линей@@ 1
тное 1
втором 1
Лан@@ 1
Все@@ 1
рения 1
новский 1
Чемпионат 1
люби@@ 1
газеты 1
проживало 1
местного 1
всем 1
большая 1
процесс 1
шими 1
голов@@ 1
Свя@@ 1
бре@@ 1
обеспечи@@ 1
пру@@ 1
сказал 1
звания 1
Кли@@ 1
зелё@@ 1
техники 1
ленный 1
Вла@@ 1
кому 1
реали@@ 1
жу 1
Бри@@ 1
привле@@ 1
рублей 1
фильмов 1
священ@@ 1
Кры@@ 1
огром@@ 1
Ев@@ 1
дении 1
сыгра@@ 1
38 1
34 1
владе@@ 1
путь 1
Бал@@ 1
свет@@ 1
нас 1
музея 1
защиты 1
вести 1
смо@@ 1
война 1
итогам 1
гин@@ 1
основных 1
Наиболее 1
Лей@@ 1
одино@@ 1
Ара@@ 1
возможности 1
de 0.0036060598756441123
пункты 1
Сти@@ 1
сериала 1
итальян@@ 1
модели 1
измени@@ 1
реб@@ 1
сте 1
1@@ 1
торов 1
Хе@@ 1
дели@@ 1
вступил 1
международных 1
последние 1
зависимости 1
партий@@ 1
ску@@ 1
W@@ 0.14858640331642733
командира 1
ходит 1
художник 1
Глав@@ 1
помощь 1
лан 1
расположен@@ 1
отделения 1
тур 1
пересе@@ 1
зва@@ 1
сии 1
средства 1
географи@@ 1
нор@@ 1
Пол@@ 1
Воен@@ 1
вошёл 1
гото@@ 1
клад@@ 1
должна 1
Дру@@ 1
политической 1
Петро@@ 1
рово@@ 1
довольно 1
паро@@ 1
семей@@ 1
хе 1
Красно@@ 1
Тру@@ 1
известных 1
торго@@ 1
версия 1
поня@@ 1
доступ@@ 1
1915 1
самом 1
финале 1
Зи@@ 1
разру@@ 1
кварти@@ 1
ленной 1
подписал 1
улуч@@ 1
упомина@@ 1
крупных 1
высота 1
Жу@@ 1
расположены 1
боях 1
местных 1
раст@@ 1
Петербурге 1
мости 1
дри@@ 1
рели@@ 1
теперь 1
спо@@ 1
истреб@@ 1
комиссии 1
нией 1
V@@ 0.15948417265466186
осу@@ 1
основан@@ 1
председатель 1
жила 1
космиче@@ 1
мастер@@ 1
Мал@@ 1
хол@@ 1
Ян@@ 1
E@@ 0.15604412382184435
игро@@ 1
кси@@ 1
тации 1
пользо@@ 1
400 1
неуда@@ 1
понима@@ 1
ЦК 1
сце@@ 1
прожи@@ 1
ённое 1
Пётр 1
нат 1
Семья 1
председателем 1
карьеры 1
партия 1
фло@@ 1
жского 1
Первая 1
стен@@ 1
рованной 1
Джи@@ 1
Кро@@ 1
поле@@ 1
кло@@ 1
нен 1
Святого 1
дорога 1
роман@@ 1
частей 1
путём 1
исто@@ 1
выступил 1
Васильевич 1
евский 1
театр 1
осуществля@@ 1
устро@@ 1
трёх@@ 1
суд 1
центральной 1
чности 1
вки 1
чемпионом 1
дор@@ 1
поз@@ 1
лож@@ 1
Ах@@ 1
8@@ 0.8693577741253876
корпус 1
A@@ 0.13118678009939466
футболу 1
Юрий 1
зда@@ 1
Впервые 1
суб@@ 1
вошли 1
тический 1
следу@@ 1
сения 1
гер 1
Дж@@ 1
вин 1
коми@@ 1
европей@@ 1
глав@@ 1
указа@@ 1
компанией 1
добы@@ 1
среднем 1
шу 1
групп 1
дин 1
Василь@@ 1
пос@@ 1
потом 1
брига@@ 1
сети 1
никогда 1
обязате@@ 1
стрел@@ 1
ьи 1
национального 1
град@@ 1
стиле 1
запу@@ 1
значитель@@ 1
решения 1
Ган@@ 1
Мен@@ 1
Эд@@ 1
миллионов 1
тран@@ 1
КПСС 1
севере 1
Ура@@ 1
использования 1
ец 1
ительно 1
ворота 1
деся@@ 1
отве@@ 1
мена 1
шесть 1
Бы@@ 1
говорит 1
ене@@ 1
Анто@@ 1
животных 1
религиоз@@ 1
юге 1
Вместе 1
Кал@@ 1
нан@@ 1
специаль@@ 1
сь@@ 1
компози@@ 1
анд@@ 1
­ 1
Один 1
щик 1
рованный 1
уез@@ 1
бывший 1
дон@@ 1
шен 1
форму 1
али@@ 1
искус@@ 1
альной 1
летний 1
оса@@ 1
арти@@ 1
цкая 1
растений 1
именем 1
чными 1
входила 1
дополнитель@@ 1
Фу@@ 1
получить 1
председателя 1
архи@@ 1
люб@@ 1
приняли 1
ровки 1
швед@@ 1
лизо@@ 1
Пав@@ 1
республики 1
луч@@ 1
Михайлович 1
комму@@ 1
лью 1
основан 1
промышлен@@ 1
иностранных 1
Павел 1
дважды 1
малень@@ 1
ити@@ 1
Фер@@ 1
уезд 1
систем 1
произошло 1
дены 1
нили 1
езд 1
дальней@@ 1
верну@@ 1
Эк@@ 1
построен 1
ули@@ 1
K@@ 0.1308316697219096
щиков 1
рение 1
направлении 1
увеличи@@ 1
ницу 1
родилась 1
четвер@@ 1
православ@@ 1
слов 1
своему 1
временем 1
присвоено 1
Париже 1
чув@@ 1
выпуска@@ 1
us 0.16231906498428275
ляции 1
постанов@@ 1
игра 1
хра@@ 1
коммуна 1
вила 1
провод@@ 1
крупней@@ 1
зыва@@ 1
Син@@ 1
принято 1
борьбы 1
депутатов 1
изменения 1
зам@@ 1
XVI 1
ительной 1
маль@@ 1
заяв@@ 1
ленные 1
Рей@@ 1
Указом 1
художе@@ 1
ниц 1
участия 1
рабочих 1
министр 1
мото@@ 1
льность 1
мыш@@ 1
баш@@ 1
счётом 1
ровала 1
Площадь 1
высоко@@ 1
участников 1
щена 1
буду@@ 1
виде@@ 1
осадков 1
Тар@@ 1
командир 1
ссия 1
проведения 1
Черно@@ 1
современной 1
Эй@@ 1
выхода 1
тера 1
технологи@@ 1
Ли 1
поддержку 1
чек 1
вплоть 1
Америки 1
сделать 1
командованием 1
приблизительно 1
жить 1
характер@@ 1
нных 1
работали 1
премьер 1
рак@@ 1
Например 1
воро@@ 1
броне@@ 1
князя 1
началось 1
тием 1
меры 1
Сар@@ 1
обви@@ 1
высоте 1
управление 1
Первые 1
бов 1
бывшего 1
написан@@ 1
Моло@@ 1
популяр@@ 1
борьбе 1
началась 1
ин 1
призёр 1
тин 1
Национа@@ 1
окончании 1
рио@@ 1
чие 1
выпущен 1
рованные 1
Х 1
ительного 1
1912 1
директором 1
ывает 1
сторо@@ 1
входят 1
фи 1
тепло@@ 1
фы 1
Бен@@ 1
нений 1
ёл 1
остров 1
Большой 1
кости 1
монастыря 1
данный 1
составляла 1
матери 1
украин@@ 1
педагоги@@ 1
бран@@ 1
ходов 1
возглавил 1
пехот@@ 1
зада@@ 1
ради@@ 1
законодате@@ 1
матчах 1
чере@@ 1
ас@@ 1
c 0.24227776311202195
сделал 1
оба 1
уча@@ 1
морской 1
1913 1
упоминается 1
кисло@@ 1
судеб@@ 1
кает 1
переве@@ 1
императора 1
тем@@ 1
H@@ 0.12807516183159365
прошёл 1
Австралии 1
внутрен@@ 1
низации 1
Армии 1
теоре@@ 1
Государ@@ 1
диссертацию 1
коль@@ 1
лая 1
судь@@ 1
широко 1
Рос@@ 1
учё@@ 1
Николая 1
скло@@ 1
информа@@ 1
АССР 1
ющийся 1
жёл@@ 1
1910 1
От 1
вклю@@ 1
протекает 1
некоторое 1
президентом 1
спортив@@ 1
шах@@ 1
Казах@@ 1
Карл 1
Пал@@ 1
директора 1
француз@@ 1
произведений 1
убий@@ 1
Средняя 1
метра 1
построен@@ 1
44 1
Рус@@ 1
Джо@@ 1
75 1
она@@ 1
Кэ@@ 1
сты@@ 1
проблемы 1
сво@@ 1
дано 1
Ещё 1
аппара@@ 1
песню 1
вии 1
глу@@ 1
подчи@@ 1
ее 1
сту 1
берг 1
пределах 1
заняла 1
король 1
новую 1
показа@@ 1
правом 1
территориаль@@ 1
42 1
ща 1
институте 1
писатель 1
побед@@ 1
нению 1
емая 1
Летом 1
жители 1
оригина@@ 1
вина 1
геро@@ 1
сных 1
переехал 1
расположено 1
друга 1
объ@@ 1
Вин@@ 1
вшейся 1
лиц 1
взры@@ 1
стр 1
принци@@ 1
инди@@ 1
повре@@ 1
ани 1
советской 1
сред@@ 1
режиссёра 1
вез@@ 1
жено 1
история 1
лий 1
Брю@@ 1
сотруд@@ 1
сной 1
документа@@ 1
полож@@ 1
минут 1
южной 1
тек@@ 1
жской 1
хан 1
лья@@ 1
влия@@ 1
вская 1
занимает 1
ческими 1
армию 1
рил 1
нной 1
создание 1
ляют 1
представители 1
функции 1
кового 1
Находится 1
ряд@@ 1
Коло@@ 1
нец 1
автобу@@ 1
международ@@ 1
альных 1
получа@@ 1
Ам@@ 1
генерала 1
Дю@@ 1
бой@@ 1
постоянно 1
весь 1
силу 1
съ@@ 1
оказался 1
Индии 1
сочета@@ 1
грани@@ 1
тили 1
Авто@@ 1
университе@@ 1
позволя@@ 1
чемпион 1
150 1
подоб@@ 1
ственном 1
советских 1
вдоль 1
рий@@ 1
вопрос 1
начальником 1
тить 1
Их 1
личе@@ 1
освобо@@ 1
Вели@@ 1
хокке@@ 1
учре@@ 1
епархии 1
журнали@@ 1
новое 1
главной 1
кер 1
театре 1
ката@@ 1
назад 1
скульп@@ 1
Герой 1
ходы 1
1916 1
нау@@ 1
умеренно 1
вероятно 1
мон 1
появился 1
ходить 1
милли@@ 1
систему 1
исклю@@ 1
окра@@ 1
пришлось 1
жного 1
ющиеся 1
распростран@@ 1
ровано 1
Пан@@ 1
Похоронен 1
ево 1
пят@@ 1
Тогда 1
выборов 1
имеется 1
сум@@ 1
государствен@@ 1
дают 1
группой 1
ссе 1
запад 1
играть 1
заво@@ 1
ологии 1
деле 1
ссы 1
выбра@@ 1
Является 1
сопер@@ 1
Бат@@ 1
восстанов@@ 1
АН 1
заверши@@ 1
ительных 1
озеро 1
кара@@ 1
хло@@ 1
поверхности 1
тором 1
анали@@ 1
удар@@ 1
создании 1
отделение 1
ционные 1
ственную 1
смер@@ 1
туре@@ 1
магни@@ 1
рек 1
следования 1
дили 1
началом 1
мало 1
мини@@ 1
обозна@@ 1
Пор@@ 1
нове@@ 1
вно 1
парк 1
дивизи@@ 1
книга 1
семья 1
програм@@ 1
ничего 1
спектак@@ 1
молодёж@@ 1
профессора 1
появились 1
Мер@@ 1
принима@@ 1
находились 1
использу@@ 1
і@@ 1
мной 1
иг@@ 1
успешно 1
автор@@ 1
кана@@ 1
зло@@ 1
боя 1
дей@@ 1
грам@@ 1
соеди@@ 1
Современ@@ 1
брата 1
маршру@@ 1
Откры@@ 1
гам 1
подготов@@ 1
ительность 1
мость 1
употреб@@ 1
Впоследствии 1
ровского 1
успе@@ 1
польского 1
Хай@@ 1
вия 1
ад@@ 1
каче@@ 1
$ 0.2466164566242368
симво@@ 1
появилась 1
основании 1
леса 1
жные 1
трени@@ 1
стской 1
Гро@@ 1
гвардии 1
чар@@ 1
французский 1
лесо@@ 1
Полу@@ 1
художника 1
води@@ 1
событий 1
картины 1
S 0.4318429228297287
народа 1
потеря@@ 1
Стра@@ 1
рис 1
O@@ 0.13396943061918742
работ@@ 1
след@@ 1
рес@@ 1
новая 1
уры 1
тского 1
льда 1
Пя@@ 1
дя 1
режиссёр 1
взаимо@@ 1
Исто@@ 1
нской 1
стат@@ 1
Федера@@ 1
Город 1
преступ@@ 1
сообще@@ 1
меся@@ 1
бил 1
регуляр@@ 1
Западной 1
имела 1
дре@@ 1
Восточной 1
дания 1
Министерства 1
библиоте@@ 1
труда 1
торгов@@ 1
северной 1
догово@@ 1
цы@@ 1
союза 1
Чёр@@ 1
большим 1
Льво@@ 1
Шар@@ 1
комплекс 1
иты 1
ходил 1
стые 1
39 1
кали@@ 1
Дей@@ 1
максима@@ 1
каждой 1
Ген@@ 1
Влади@@ 1
гале@@ 1
шин 1
ителями 1
Кам@@ 1
Марии 1
экономики 1
00 1
приток 1
языков 1
называют 1
клубе 1
главных 1
держа@@ 1
стоит 1
эй 1
лым 1
народов 1
изготов@@ 1
попа@@ 1
Кубок 1
сельский 1
вод 1
проходил 1
Северо 1
кт 1
ляются 1
Джон@@ 1
Поло@@ 1
вопро@@ 1
почёт@@ 1
ковый 1
руковод@@ 1
местности 1
стрелковой 1
зя@@ 1
секретарь 1
социаль@@ 1
памятник 1
вате@@ 1
игру 1
предназна@@ 1
куда 1
исполнитель@@ 1
бази@@ 1
Воло@@ 1
книгу 1
доктор 1
ведения 1
темпера@@ 1
зами 1
предприятия 1
око@@ 1
политики 1
ны@@ 1
основа@@ 1
Гали@@ 1
Тол@@ 1
турнир 1
щён 1
вшегося 1
заводе 1
напа@@ 1
современного 1
тоже 1
ванных 1
фран@@ 1
Многие 1
гли 1
серебря@@ 1
дно 1
сила 1
кса 1
большого 1
Вос@@ 1
вру@@ 1
Борис 1
атив@@ 1
льному 1
извест@@ 1
Род@@ 1
чёт@@ 1
создал 1
концу 1
обучения 1
Американ@@ 1
роман 1
факультета 1
шло 1
дворян@@ 1
рая 1
покинул 1
железнодорож@@ 1
счита@@ 1
граждан@@ 1
Основные 1
студен@@ 1
хов@@ 1
земле 1
создана 1
нитель@@ 1
тий 1
памяти 1
данной 1
посо@@ 1
слава 1
зимой 1
Благодаря 1
ался 1
плав@@ 1
победы 1
наслед@@ 1
дает 1
Казан@@ 1
состоял 1
богат@@ 1
Йорк 1
определя@@ 1
скла@@ 1
том@@ 1
Об 1
насчит@@ 1
Само@@ 1
регули@@ 1
войну 1
нице 1
Белоруссии 1
актёр 1
канала 1
начинает 1
нением 1
немецкий 1
выпуск@@ 1
тю@@ 1
памят@@ 1
отправился 1
кти@@ 1
55 1
Андре@@ 1
стых 1
Спи@@ 1
льская 1
заместителем 1
Динамо 1
отряд 1
построена 1
Владимира 1
члены 1
ал 1
длитель@@ 1
вла@@ 1
Пен@@ 1
ровался 1
потом@@ 1
третий 1
внутри 1
находилась 1
открыт 1
Верх@@ 1
автором 1
Национальный 1
ченных 1
аналоги@@ 1
9@@ 0.7976813313037628
весьма 1
Петербург 1
Фё@@ 1
ходят 1
остав@@ 1
уровень 1
1900 1
хот@@ 1
лизации 1
сеть 1
ходом 1
сосед@@ 1
тренером 1
лай@@ 1
момента 1
стру@@ 1
номина@@ 1
Алексе@@ 1
пора@@ 1
Виль@@ 1
стран@@ 1
чением 1
виды 1
сейчас 1
территория 1
тской 1
слом 1
сем@@ 1
фика@@ 1
араб@@ 1
коп@@ 1
тном 1
проек@@ 1
издания 1
встречается 1
отношений 1
лом@@ 1
тяже@@ 1
основания 1
вынужден 1
филь@@ 1
рем 1
входил 1
морского 1
носит 1
разработан@@ 1
каждого 1
изм 1
i 0.14011163690536674
цвет 1
бою 1
гори@@ 1
эпи@@ 1
недо@@ 1
сова 1
щается 1
меди@@ 1
армей@@ 1
двой@@ 1
Москву 1
монастырь 1
шены 1
иностран@@ 1
отвер@@ 1
Иль@@ 1
охот@@ 1
художников 1
использование 1
распоря@@ 1
тила 1
разработ@@ 1
лист 1
времена 1
округу 1
хся 1
лежа@@ 1
вошла 1
пило@@ 1
Лондоне 1
Ос@@ 1
АО 1
1911 1
зен@@ 1
передачи 1
сопровожда@@ 1
Государственной 1
ана@@ 1
другом 1
территорию 1
1000 1
Кле@@ 1
оказа@@ 1
1907 1
используются 1
Там 1
цах 1
югу 1
потер@@ 1
агент@@ 1
против@@ 1
Й@@ 1
особен@@ 1
сто 1
автомати@@ 1
служи@@ 1
премию 1
щен 1
внутренних 1
Ци@@ 1
това 1
1906 1
ёнными 1
начинается 1
пит@@ 1
воору@@ 1
заве@@ 1
льском 1
дель 1
ау@@ 1
млрд 1
сохра@@ 1
привело 1
мам 1
раб@@ 1
предыду@@ 1
Тан@@ 1
ровский 1
оружия 1
кано@@ 1
нены 1
Али@@ 1
труд@@ 1
тности 1
запад@@ 1
Оль@@ 1
Героя 1
ссы@@ 1
уме@@ 1
ссив@@ 1
торы 1
48 1
конструк@@ 1
тика 1
неоднократно 1
ун 1
районов 1
новского 1
следо@@ 1
переме@@ 1
цент@@ 1
Щ@@ 1
студи@@ 1
энергии 1
мое 1
женился 1
рекомен@@ 1
чив 1
стане 1
отда@@ 1
относи@@ 1
фир@@ 1
Дар@@ 1
сад 1
тическая 1
мол@@ 1
прав 1
Польши 1
епископ 1
состоянии 1
ведён 1
трудо@@ 1
Евгений 1
стрем@@ 1
Ну@@ 1
хо 1
пье@@ 1
подвод@@ 1
общины 1
ального 1
мович 1
кен@@ 1
Фри@@ 1
большей 1
Казахстана 1
слишком 1
попал 1
лага@@ 1
пока@@ 1
оло@@ 1
предложил 1
дского 1
индивиду@@ 1
1908 1
нос 1
I@@ 0.17071762959412354
найти 1
Эль@@ 1
Валь@@ 1
российских 1
обсу@@ 1
бург@@ 1
ванной 1
интервью 1
J@@ 0.14839744110447298
спут@@ 1
подготовки 1
экспер@@ 1
Бол@@ 1
Ниж@@ 1
гит@@ 1
финал 1
тип 1
кан 1
составил 1
американской 1
причём 1
армян@@ 1
чий 1
приме@@ 1
альные 1
преж@@ 1
Гла@@ 1
сельскохозяй@@ 1
парламен@@ 1
мисси@@ 1
ствуют 1
Новый 1
жем 1
в. 1
лейтенант 1
объектов 1
прове@@ 1
сар@@ 1
лучшим 1
мона@@ 1
пыта@@ 1
сингл 1
горы 1
русском 1
Позднее 1
ност@@ 1
нес 1
устанавли@@ 1
43 1
стить 1
объё@@ 1
называется 1
небольшой 1
оры 1
Петрович 1
назвал 1
Самар@@ 1
меня 1
чают 1
мп@@ 1
скончался 1
военные 1
Украине 1
руются 1
ВВС 1
Поэтому 1
знаком@@ 1
кер@@ 1
Расстояние 1
Анна 1
журнал 1
41 1
домов 1
относятся 1
щи 1
шению 1
1,5 1
воин@@ 1
Экономика 1
нео@@ 1
Петра 1
аб@@ 1
нической 1
исследо@@ 1
рик 1
Высо@@ 1
специализи@@ 1
мия 1
няет 1
содержит 1
означает 1
государств 1
грамо@@ 1
меньше 1
Кен@@ 1
ите@@ 1
зма 1
R 0.38000349364703506
Первоначально 1
Эм@@ 1
пах 1
ставля@@ 1
корпу@@ 1
1,@@ 0.8999387432918832
публи@@ 1
ъ@@ 1
y 0.013040674651187158
чению 1
лого 1
фактически 1
Пау@@ 1
желез@@ 1
сан 1
сви@@ 1
самостоятель@@ 1
D 0.33895468333250006
Данные 1
издание 1
моби@@ 1
Бру@@ 1
туры 1
види@@ 1
забо@@ 1
финала 1
свет 1
соревнованиях 1
Отец 1
артиллерий@@ 1
связь 1
Кавказ@@ 1
напря@@ 1
пунк@@ 1
ночь 1
философии 1
коричне@@ 1
самый 1
уста@@ 1
нических 1
VI 1
раство@@ 1
сек@@ 1
мато@@ 1
заниматься 1
днее 1
кораблей 1
численность 1
ковым 1
кафедры 1
газо@@ 1
древне@@ 1
организация 1
возник@@ 1
голов 1
археологи@@ 1
держ@@ 1
оши@@ 1
науч@@ 1
уде@@ 1
фронт 1
бах 1
гвардей@@ 1
остался 1
характер 1
Ла 1
рази@@ 1
Работал 1
австри@@ 1
Зна@@ 1
цом 1
ковской 1
состояние 1
L 0.2774055383144664
зоны 1
герцо@@ 1
еся 1
объявил 1
принадлежа@@ 1
опас@@ 1
Старо@@ 1
постепенно 1
Роберт 1
ар 1
кило@@ 1
дный 1
контра@@ 1
товой 1
видео 1
президент@@ 1
старше 1
цей 1
резер@@ 1
снима@@ 1
дж 1
альный 1
провозгла@@ 1
сол@@ 1
мина 1
Маль@@ 1
доль@@ 1
командиром 1
архитектуры 1
ую 1
Ц 1
план 1
действо@@ 1
российского 1
второе 1
Лос 1
городах 1
био@@ 1
мыс@@ 1
большие 1
революцион@@ 1
гео@@ 1
события 1
Бро@@ 1
йское 1
порядка 1
оны 1
исла@@ 1
чила 1
Фильм 1
Олимпи@@ 1
клубом 1
материалов 1
народного 1
международного 1
находи@@ 1
тив 1
тво@@ 1
очков 1
пи 1
жо@@ 1
Института 1
явления 1
ген 1
футболь@@ 1
сей@@ 1
вали@@ 1
лист@@ 1
чики 1
чность 1
этапе 1
лите@@ 1
стон 1
сре@@ 1
долж@@ 1
сно 1
46 1
1904 1
порт 1
началу 1
замет@@ 1
отдельных 1
значи@@ 1
они@@ 1
гат@@ 1
нический 1
свой@@ 1
чита@@ 1
метр 1
современных 1
принят 1
политических 1
отставку 1
американ@@ 1
рованного 1
необходимо 1
тонн 1
лье 1
подъ@@ 1
курс 1
последо@@ 1
вклад 1
родо@@ 1
голосо@@ 1
индекс 1
пер 1
ально 1
начиная 1
трав@@ 1
будучи 1
получения 1
агре@@ 1
шении 1
Новой 1
тех@@ 1
капита@@ 1
останов@@ 1
e@@ 0.11606348603269803
2022 0.7098554823715866
игроком 1
сюже@@ 1
ати 1
драмати@@ 1
сравнению 1
организаций 1
F 0.40769572752293554
сформирова@@ 1
абсолютный 1
реша@@ 1
титу@@ 1
выска@@ 1
держи@@ 1
телем 1
перевод@@ 1
ими 1
ляр@@ 1
ченные 1
шить 1
создать 1
такого 1
шина 1
рат 1
52 1
селе@@ 1
губер@@ 1
кавале@@ 1
совершен@@ 1
земле@@ 1
пры@@ 1
колон@@ 1
лета 1
льских 1
чины 1
нуж@@ 1
компьютер@@ 1
стики 1
Кай@@ 1
Кер@@ 1
золотой 1
бассейна 1
результат 1
претен@@ 1
стил 1
новка 1
игроков 1
ствует 1
соответ@@ 1
воздуш@@ 1
Вя@@ 1
Тран@@ 1
кораб@@ 1
игрок 1
поль 1
вопросам 1
частично 1
ядер@@ 1
воль@@ 1
актриса 1
мал@@ 1
рэ@@ 1
ктов 1
отряда 1
защитил 1
миру 1
ванный 1
M 0.4167179734033314
Новая 1
ходили 1
мента@@ 1
сведения 1
результаты 1
дав@@ 1
Зу@@ 1
дить 1
зия 1
слово 1
Украин@@ 1
неу@@ 1
контроль 1
объекта 1
Евро@@ 1
канал 1
оборо@@ 1
Филип@@ 1
государственном 1
горе@@ 1
замуж 1
семей 1
завоевал 1
линия 1
непосредственно 1
стаби@@ 1
император@@ 1
высокой 1
смешан@@ 1
обеспечения 1
ожи@@ 1
образ 1
пишет 1
мери@@ 1
располагается 1
щает 1
началь@@ 1
рить 1
зан 1
щено 1
млад@@ 1
47 1
местах 1
битве 1
наблю@@ 1
химиче@@ 1
Европей@@ 1
чился 1
эффек@@ 1
Име@@ 1
лович 1
Гал@@ 1
льское 1
модель 1
шает 1
упа@@ 1
ствовали 1
гать 1
государ@@ 1
смотре@@ 1
дерев@@ 1
парка 1
ьями 1
препода@@ 1
мский 1
рика 1
чаще 1
эле@@ 1
вро@@ 1
Участник 1
фрон@@ 1
лён 1
семь 1
уве@@ 1
решением 1
1909 1
Сен 1
утвержда@@ 1
развед@@ 1
веков 1
ени 1
продолжил 1
командой 1
отказался 1
гне@@ 1
Зо@@ 1
Заслуженный 1
мый 1
ид@@ 1
дит 1
пато@@ 1
союз 1
диалек@@ 1
минимум 1
фом 1
йки 1
оце@@ 1
еще 1
подпис@@ 1
иметь 1
корабля 1
ывается 1
m 0.1136001181953401
исторических 1
рь 1
удостоен 1
машины 1
заказ@@ 1
предлага@@ 1
терро@@ 1
вому 1
фаль@@ 1
нического 1
совершил 1
Сам@@ 1
километрах 1
капитан 1
Z@@ 0.14236159612593366
хода 1
вну@@ 1
женных 1
стого 1
родствен@@ 1
позволи@@ 1
проблем 1
сва@@ 1
назван 1
поражение 1
тную 1
рана 1
полага@@ 1
чается 1
персона@@ 1
высшей 1
бассейн 1
графии 1
объек@@ 1
кле@@ 1
термин 1
данного 1
сою@@ 1
дра 1
дети 1
Трои@@ 1
Джона 1
случаях 1
реги@@ 1
теат@@ 1
Гон@@ 1
уг@@ 1
зарегистри@@ 1
континентальный 1
чался 1
реку 1
Бразилии 1
ждению 1
Группа 1
рекла@@ 1
шести 1
крити@@ 1
ока@@ 1
островов 1
выпуск 1
дороге 1
образован 1
последнего 1
нера 1
руки 1
возглавлял 1
спу@@ 1
энерге@@ 1
штаб 1
уголов@@ 1
американского 1
католиче@@ 1
путеше@@ 1
прошли 1
евреев 1
конференции 1
повы@@ 1
дь 1
северу 1
приводит 1
проигра@@ 1
дено 1
Фло@@ 1
бю@@ 1
польский 1
едино@@ 1
канад@@ 1
нова@@ 1
направлен 1
ря 1
сыном 1
обучение 1
рации 1
солне@@ 1
нила 1
левом 1
вече@@ 1
стера 1
вторым 1
боло@@ 1
X@@ 0.3745407183524064
команд@@ 1
характеризуется 1
дного 1
длина 1
ква@@ 1
дати@@ 1
реак@@ 1
корабль 1
чили 1
органов 1
Дер@@ 1
эфи@@ 1
лично 1
блю@@ 1
Рабо@@ 1
больших 1
отли@@ 1
беспо@@ 1
подви@@ 1
лял 1
манов 1
структуры 1
установлены 1
встречаются 1
Константин 1
дию 1
тыся@@ 1
погиб@@ 1
ментов 1
процессе 1
разли@@ 1
пон@@ 1
Йо@@ 1
почто@@ 1
x 0.2690462695898543
следующим 1
чить 1
ступа@@ 1
доктора 1
левой 1
положения 1
региона@@ 1
разв@@ 1
дон 1
КП@@ 1
батальона 1
ченный 1
Большая 1
систе@@ 1
сда@@ 1
щении 1
мел@@ 1
раско@@ 1
полиции 1
Луч@@ 1
Михаила 1
деньги 1
царя 1
руководство 1
Остро@@ 1
ровая 1
эпохи 1
Дом 1
усили@@ 1
мастер 1
наме@@ 1
шена 1
экономи@@ 1
голосов 1
сть@@ 1
Карла 1
десяти@@ 1
ходу 1
атой 1
Следу@@ 1
сад@@ 1
сериал 1
ковая 1
51 1
принадлежит 1
Сло@@ 1
далее 1
владель@@ 1
ительные 1
вшее 1
единственный 1
память 1
Уже 1
Рим@@ 1
поселе@@ 1
лять 1
бай@@ 1
пуска@@ 1
вай@@ 1
предостав@@ 1
экспеди@@ 1
хле@@ 1
чь@@ 1
политический 1
отлич@@ 1
кость 1
связано 1
восстания 1
вел 1
вском 1
грузо@@ 1
бомбарди@@ 1
тивный 1
финанси@@ 1
продолжал 1
пут@@ 1
латин@@ 1
шением 1
расстре@@ 1
Ско@@ 1
тский 1
Ала@@ 1
секре@@ 1
лое 1
Совет 1
ближай@@ 1
пото@@ 1
бир@@ 1
Перед 1
Греции 1
комплекса 1
гор 1
отправи@@ 1
успех 1
t 0.08395725379576162
оцени@@ 1
писате@@ 1
майор 1
вся@@ 1
жесто@@ 1
Бого@@ 1
имен@@ 1
Соедин@@ 1
традиции 1
крепости 1
регион 1
научной 1
основана 1
Швеции 1
ённом 1
тически 1
сом@@ 1
Труда 1
риа@@ 1
1897 1
государственных 1
онов 1
срок 1
вера 1
Ур@@ 1
Ивана 1
Камен@@ 1
специали@@ 1
болез@@ 1
контроли@@ 1
Кат@@ 1
ент 1
пита@@ 1
мун@@ 1
ставляет 1
йна 1
исключением 1
мас@@ 1
рал@@ 1
учи@@ 1
пись 1
архитектур@@ 1
сные 1
составила 1
основал 1
произве@@ 1
on 0.011924799623465284
Сол@@ 1
статьи 1
служ@@ 1
музе@@ 1
Сын 1
журнале 1
ьер@@ 1
средневе@@ 1
нный 1
Тал@@ 1
обре@@ 1
связан@@ 1
сборная 1
представлены 1
романа 1
тренера 1
собы@@ 1
технологии 1
строения 1
дения 1
литературе 1
Джей@@ 1
говой 1
доби@@ 1
известны 1
Выс@@ 1
республикан@@ 1
захват@@ 1
погиб 1
пози@@ 1
Пара@@ 1
лод@@ 1
обслужи@@ 1
N 0.46217078149062657
арестован 1
наход@@ 1
природы 1
возраста 1
вариант 1
скорость 1
дар 1
хозяйств 1
Первым 1
Совет@@ 1
принять 1
выступает 1
чку 1
Сент 1
судов 1
взгля@@ 1
Награды 1
Украина 1
норма@@ 1
шается 1
Север@@ 1
дел@@ 1
перево@@ 1
Жан 1
дной 1
Уол@@ 1
замок 1
моги@@ 1
дене@@ 1
сена 1
дорож@@ 1
ника@@ 1
рекор@@ 1
описание 1
лон 1
пользу 1
лера 1
присоедини@@ 1
портре@@ 1
Ря@@ 1
кампании 1
бор 1
сай@@ 1
Покров@@ 1
Интер@@ 1
тан 1
Зем@@ 1
йт 1
штур@@ 1
чет@@ 1
паль@@ 1
Лен@@ 1
табли@@ 1
татар@@ 1
философ@@ 1
квадра@@ 1
раунде 1
транспорта 1
жерт@@ 1
чая 1
известного 1
парти@@ 1
бурга 1
Кё@@ 1
сериале 1
домо@@ 1
Всемир@@ 1
колхо@@ 1
перемен@@ 1
мина@@ 1
форма 1
Джеймс 1
слав 1
дебю@@ 1
офицеров 1
элементов 1
десан@@ 1
свер@@ 1
лес 1
Миро@@ 1
бель 1
вив 1
бург 1
изма 1
Русской 1
провед@@ 1
середины 1
английский 1
объединения 1
стрелкового 1
муниципальное 1
щика 1
уника@@ 1
Ката@@ 1
емым 1
Ас@@ 1
щем 1
Национальной 1
стин@@ 1
какой 1
династии 1
никах 1
юг 1
120 1
экспедиции 1
Шан@@ 1
получает 1
чемпион@@ 1
фар@@ 1
Большинство 1
аресто@@ 1
младший 1
иска@@ 1
силами 1
тыми 1
измен@@ 1
канале 1
Ярослав@@ 1
особенности 1
компаний 1
Более 1
вероя@@ 1
студентов 1
обязанности 1
организа@@ 1
рос@@ 1
предприятий 1
ракет@@ 1
Китая 1
цком 1
болезни 1
ностями 1
тка 1
ъ 1
крупнейших 1
Известные 1
сцене 1
Куль@@ 1
немецких 1
плен@@ 1
отсут@@ 1
Уильям 1
администрации 1
дей 1
сно@@ 1
гражданской 1
авиации 1
российской 1
бума@@ 1
дила 1
Церковь 1
разные 1
мяг@@ 1
официаль@@ 1
воспомина@@ 1
ждений 1
дет 1
отече@@ 1
йти 1
образова@@ 1
обнов@@ 1
всему 1
зывал 1
посвя@@ 1
2,@@ 1
радио 1
54 1
соору@@ 1
скон@@ 1
Ау@@ 1
предваритель@@ 1
Нов@@ 1
Венгрии 1
ленд 1
греб@@ 1
собора 1
Том@@ 1
звезды 1
ответ 1
сих 1
направления 1
близ 1
Владимирович 1
отношение 1
сексу@@ 1
бер 1
Советской 1
созыва 1
свыше 1
две@@ 1
руководитель 1
последних 1
дных 1
избиратель@@ 1
c@@ 0.12161895929970959
49 1
щими 1
сный 1
ительное 1
полковник 1
Крас@@ 1
мульт@@ 1
Хер@@ 1
ловский 1
экспери@@ 1
знач@@ 1
дево@@ 1
довой 1
Вто@@ 1
Америке 1
Поскольку 1
входили 1
игрока 1
тари@@ 1
Именно 1
считает 1
фронте 1
завод@@ 1
православной 1
князь 1
долго@@ 1
жан 1
Кубке 1
участием 1
послед@@ 1
Вал@@ 1
1890 1
сили 1
наде@@ 1
голу@@ 1
Кали@@ 1
сочи@@ 1
зой 1
формирования 1
Сибир@@ 1
мино@@ 1
дипломати@@ 1
произведён 1
преподавал 1
турой 1
58 1
переименован 1
услови@@ 1
программе 1
лёг@@ 1
супру@@ 1
птиц 1
Сво@@ 1
циям 1
причи@@ 1
посёлке 1
бурге 1
наци@@ 1
наряду 1
стрель@@ 1
появляется 1
щ 1
получив 1
шему 1
основным 1
конститу@@ 1
серия 1
Социалистического 1
измене@@ 1
начина@@ 1
ств@@ 1
деву@@ 1
составля@@ 1
руководил 1
тело 1
специальности 1
носи@@ 1
n 0.13304865894541323
достижения 1
нынеш@@ 1
элементы 1
Од@@ 1
любо@@ 1
ментом 1
скри@@ 1
посла@@ 1
вам 1
СМИ 1
E 0.36208645418228963
плен 1
РАН 1
музыку 1
уров@@ 1
гов@@ 1
Стре@@ 1
× 1
чин 1
мне 1
опер@@ 1
месторо@@ 1
полице@@ 1
усадь@@ 1
надцать 1
ремон@@ 1
командовал 1
юри@@ 1
пункта 1
мост 1
600 1
следовате@@ 1
здании 1
главы 1
произведе@@ 1
Анатолий 1
мель@@ 1
Кир@@ 1
депутатом 1
венгер@@ 1
Пла@@ 1
чом 1
Основ@@ 1
фри@@ 1
тат@@ 1
льник 1
земе@@ 1
Новосибир@@ 1
писателей 1
Ль@@ 1
Игорь 1
ала 1
собрания 1
следование 1
Тра@@ 1
установлен 1
Со 1
роваться 1
пусти@@ 1
статей 1
вооруж@@ 1
Гру@@ 1
первоначально 1
ступили 1
известным 1
Париж 1
взял 1
хозяйство 1
Первое 1
Records 0.5230903103945802
психо@@ 1
G 0.38734172190099486
шер@@ 1
20@@ 1
Смолен@@ 1
трак@@ 1
дове@@ 1
этно@@ 1
зав@@ 1
композиции 1
опа@@ 1
ктора 1
координа@@ 1
O 0.23742047927826412
дие 1
существования 1
располо@@ 1
ствовать 1
опубликовал 1
представлен 1
Народ@@ 1
осна@@ 1
Ран@@ 1
дни 1
ствием 1
морских 1
утра@@ 1
мова 1
неза@@ 1
Франция 1
оборудо@@ 1
дзе 1
городом 1
мень@@ 1
природ@@ 1
даёт 1
копи@@ 1
Почтовый 1
Австрии 1
э. 1
Средне@@ 1
вец 1
Хор@@ 1
ланд 1
Атлан@@ 1
1903 1
стви@@ 1
Сара@@ 1
синг@@ 1
станов@@ 1
самолётов 1
поэт 1
Сталин@@ 1
крупные 1
ари 1
чиком 1
многочисленные 1
училища 1
соревнований 1
сон@@ 1
XV 1
дт 1
прибыл 1
юноше@@ 1
объясня@@ 1
колле@@ 1
европейских 1
должно 1
телевизион@@ 1
Географическое 1
номер 1
раскры@@ 1
мани@@ 1
вшаяся 1
53 1
56 1
состоялось 1
тт 1
Бон@@ 1
Нача@@ 1
мини 1
наступление 1
фильмах 1
наро@@ 1
исключительно 1
устройства 1
времён 1
двое 1
гран@@ 1
знак 1
Ван@@ 1
худож@@ 1
сформи@@ 1
звёз@@ 1
казать 1
Союз 1
1902 1
СП@@ 1
десяти 1
эти@@ 1
зая@@ 1
ительным 1
выступления 1
Юго 1
Кос@@ 1
проекту 1
шоссе 1
гин 1
хозя@@ 1
втор@@ 1
подвер@@ 1
вернуться 1
освя@@ 1
вступ@@ 1
похоронен 1
проце@@ 1
спек@@ 1
Георги@@ 1
d@@ 0.10221914852768747
зона 1
руд@@ 1
назначения 1
Теат@@ 1
дисципли@@ 1
вес@@ 1
образу@@ 1
нями 1
считал 1
писателя 1
Сал@@ 1
2,5 1
конец 1
строй 1
ленного 1
поддержке 1
уру 1
жная 1
жид@@ 1
сайте 1
езда 1
евича 1
единственным 1
ссу 1
ятся 1
инженер@@ 1
U@@ 0.1621102951513044
Участвовал 1
НИ@@ 1
остальные 1
Гоме@@ 1
лыми 1
половины 1
Азербайджана 1
районах 1
французского 1
Турции 1
дской 1
Земли 1
Пру@@ 1
тными 1
завое@@ 1
американских 1
женой 1
прошла 1
карьере 1
академиче@@ 1
Ир@@ 1
приняла 1
Иса@@ 1
b@@ 0.10398756700902985
кир@@ 1
жал 1
Инди@@ 1
комна@@ 1
Генри 1
Анато@@ 1
Доро@@ 1
Брай@@ 1
евка 1
хана 1
Хэ@@ 1
лез@@ 1
тился 1
литов@@ 1
существу@@ 1
контро@@ 1
граждан 1
Одес@@ 1
нал 1
текст 1
старто@@ 1
населе@@ 1
пусты@@ 1
попро@@ 1
дут 1
живописи 1
форм 1
победил 1
населённые 1
выходит 1
250 1
лию 1
57 1
вест@@ 1
мэ@@ 1
отмен@@ 1
бронзо@@ 1
делает 1
эр 1
воду 1
Воль@@ 1
пери@@ 1
окончательно 1
функциони@@ 1
молодых 1
летнего 1
Стро@@ 1
средняя 1
Лит@@ 1
профессором 1
Германия 1
инженер 1
областного 1
фраг@@ 1
актри@@ 1
бом 1
Сам 1
Поль@@ 1
вышед@@ 1
рованная 1
ыш@@ 1
Скончался 1
ООН 1
Бори@@ 1
писи 1
машин 1
славян@@ 1
пользовате@@ 1
цу@@ 1
смен@@ 1
вышли 1
клады@@ 1
кров@@ 1
голь@@ 1
органи@@ 1
двину@@ 1
жать 1
идеи 1
используют 1
разо@@ 1
тс 1
кторов 1
Эл@@ 1
основные 1
чами 1
тивы 1
случа@@ 1
числен@@ 1
месяц 1
хождения 1
мнение 1
клу@@ 1
Мит@@ 1
кон 1
продукции 1
любой 1
превы@@ 1
бат@@ 1
T 0.3294204254025178
Личная 1
d 0.061188551145223084
сообща@@ 1
Мухам@@ 1
XIV 1
жизнен@@ 1
чений 1
Мир@@ 1
преподавате@@ 1
бригада 1
персонажей 1
продук@@ 1
языках 1
которыми 1
РККА 1
производи@@ 1
дея@@ 1
Хол@@ 1
62 1
надц@@ 1
прибли@@ 1
лёт@@ 1
фикации 1
Московский 1
офф 1
реформы 1
кас@@ 1
фоне 1
вей@@ 1
жая 1
чалась 1
известна 1
критиков 1
ВКП 1
сохраня@@ 1
моти@@ 1
недалеко 1
компью@@ 1
Джу@@ 1
ору@@ 1
успеха 1
Петербурга 1
Пале@@ 1
кня@@ 1
оставался 1
ёв 1
количества 1
дли@@ 1
святого 1
учёный 1
оператив@@ 1
прово@@ 1
брю@@ 1
обеща@@ 1
ваний 1
автора 1
атель 1
дора 1
Средний 1
третьего 1
действ@@ 1
пари@@ 1
активи@@ 1
свободы 1
курсы 1
зданий 1
жно 1
стая 1
ванные 1
Финляндии 1
тель 1
земель 1
крайне 1
P 0.39811142907792635
обу@@ 1
бом@@ 1
строй@@ 1
самолёта 1
проживали 1
Сэ@@ 1
спец@@ 1
фили@@ 1
лега@@ 1
Ер@@ 1
карте 1
ционная 1
нужно 1
помимо 1
мышлен@@ 1
дру@@ 1
технических 1
стратеги@@ 1
Великого 1
жается 1
отлича@@ 1
условия 1
пытается 1
механиз@@ 1
предпринимате@@ 1
енко 1
нические 1
строен@@ 1
баро@@ 1
потери 1
Канады 1
Центра@@ 1
удовлетво@@ 1
Доб@@ 1
социалистиче@@ 1
Чтобы 1
бел@@ 1
Марк 1
известные 1
сок 1
кови@@ 1
следующих 1
зво@@ 1
вит 1
процесса 1
выход@@ 1
VII 1
изначально 1
авторов 1
имеются 1
Национального 1
Коми@@ 1
кович 1
герцога 1
Бак@@ 1
Гос@@ 1
нейших 1
Военно 1
ленная 1
тему 1
раньше 1
ассоциации 1
Ана@@ 1
жский 1
кции 1
Болгарии 1
носите@@ 1
дные 1
Мы 1
сборник 1
1901 1
каз 1
немецкой 1
Император@@ 1
масси@@ 1
бота@@ 1
сегодня 1
списке 1
превос@@ 1
Другие 1
Михайлов@@ 1
биологи@@ 1
зах 1
обстоятель@@ 1
моде@@ 1
преде@@ 1
Фрэн@@ 1
a@@ 0.16429837447068796
показате@@ 1
жени@@ 1
двига@@ 1
край 1
нного 1
архите@@ 1
дета@@ 1
После@@ 1
XIII 1
шал 1
прису@@ 1
футбольный 1
режи@@ 1
подав@@ 1
зала 1
сторон 1
выиграла 1
библиотека 1
циони@@ 1
иск@@ 1
тта 1
гита@@ 1
находящи@@ 1
дением 1
умер@@ 1
поддержки 1
звезда 1
Гам@@ 1
емое 1
летия 1
образовате@@ 1
Грузии 1
Кита@@ 1
принимает 1
методи@@ 1
метро@@ 1
85 1
интерес 1
маши@@ 1
обита@@ 1
Сим@@ 1
Одновременно 1
стам 1
Гол@@ 1
кского 1
вто@@ 1
Сай@@ 1
кот@@ 1
шать 1
технического 1
тради@@ 1
моду@@ 1
цифро@@ 1
Ирландии 1
тивных 1
Оста@@ 1
b 0.18637360700002986
закон 1
институ@@ 1
мит@@ 1
наси@@ 1
избира@@ 1
замени@@ 1
бира@@ 1
ловского 1
армией 1
Центр 1
зон@@ 1
Сю@@ 1
Юж@@ 1
вес 1
преем@@ 1
Григорий 1
Томас 1
музее 1
части@@ 1
Йорке 1
тую 1
тей 1
конкре@@ 1
перио@@ 1
вследствие 1
культуре 1
освобождения 1
скор@@ 1
химии 1
Архи@@ 1
Общая 1
впадения 1
звуча@@ 1
to 0.004339839307418758
судо@@ 1
составляют 1
содерж@@ 1
Вале@@ 1
потребо@@ 1
резко 1
Вой@@ 1
бюро 1
Француз@@ 1
форд 1
могла 1
убийства 1
историк 1
конкурен@@ 1
Ву@@ 1
щую 1
Сити 1
хотел 1
чате@@ 1
номером 1
лечения 1
рал 1
Телефонный 1
фестивале 1
мя 1
сет@@ 1
советского 1
письмен@@ 1
визи@@ 1
Росси@@ 1
але 1
чал 1
выве@@ 1
фер 1
ансамб@@ 1
большеви@@ 1
графия 1
кратный 1
цели 1
располага@@ 1
менте 1
Доне@@ 1
авиацион@@ 1
мени@@ 1
численности 1
Обла@@ 1
разработки 1
жён 1
XII 1
чле@@ 1
декора@@ 1
отличается 1
сделан@@ 1
Всероссийской 1
Тех@@ 1
йной 1
ума 1
Бель@@ 1
гет@@ 1
проходили 1
участвовала 1
Георгий 1
конструкции 1
рам@@ 1
поддерж@@ 1
жар@@ 1
800 0.9918623867508063
топо@@ 1
стиль 1
зор@@ 1
рых 1
периоди@@ 1
ённую 1
выдели@@ 1
учен@@ 1
дате@@ 1
немного 1
света 1
сфере 1
тение 1
полковника 1
зова 1
выстав@@ 1
азербайджан@@ 1
йскую 1
играет 1
льт@@ 1
12@@ 1
ваясь 1
последней 1
отсутствие 1
удосто@@ 1
дистанции 1
Боб@@ 1
независимости 1
позицию 1
Макси@@ 1
пассажир@@ 1
выборы 1
делам 1
вах 1
попытки 1
немецкого 1
эксперимента@@ 1
использованием 1
Красного 1
Аре@@ 1
воде 1
рит 1
Древ@@ 1
супер@@ 1
рост 1
первонача@@ 1
Центральной 1
возле 1
Пло@@ 1
тел 1
проходи@@ 1
совершенно 1
своем 1
достига@@ 1
ступает 1
мину@@ 1
возра@@ 1
никова 1
женат 1
лэ@@ 1
торговли 1
видео@@ 1
улиц 1
начались 1
кинемато@@ 1
национальных 1
общ@@ 1
фу 1
Церкви 1
Ст@@ 1
вшими 1
Краснояр@@ 1
гей@@ 1
Пит@@ 1
являлась 1
скорости 1
редко 1
приё@@ 1
активных 1
боевой 1
поражения 1
тик 1
лев 1
95 1
фан@@ 1
мар 1
открытия 1
сложности 1
Главный 1
руя 1
мую 1
оказались 1
позволило 1
Бей@@ 1
мате@@ 1
вных 1
эпизо@@ 1
холодного 1
свето@@ 1
нач@@ 1
корен@@ 1
присоединился 1
контак@@ 1
африкан@@ 1
лил 1
рес 1
бин 1
яд@@ 1
выдвину@@ 1
идёт 1
тысячи 1
выпуска 1
летней 1
прогре@@ 1
тропи@@ 1
откуда 1
устья 1
ыр@@ 1
Тю@@ 1
восста@@ 1
набра@@ 1
ведение 1
гате@@ 1
Нью@@ 1
чать 1
Армении 1
коммунистиче@@ 1
дий 1
кост@@ 1
районы 1
городских 1
размер 1
уса 1
применения 1
команди@@ 1
рея 1
удоб@@ 1
дение 1
огонь 1
Киев@@ 1
като@@ 1
градской 1
чества 1
век 1
сама 1
сверх@@ 1
выбо@@ 1
чине 1
индей@@ 1
этап 1
Святой 1
артилле@@ 1
гун@@ 1
зор 1
тическое 1
польской 1
бит 1
материалы 1
национальный 1
довал 1
нк@@ 1
кандидат@@ 1
границе 1
ци 1
физики 1
ранен 1
вторая 1
мора@@ 1
новича 1
Ленинград@@ 1
30@@ 1
проектов 1
научный 1
владения 1
дина 1
рийской 1
фестиваля 1
упомяну@@ 1
струк@@ 1
лился 1
нис 1
женщи@@ 1
заболе@@ 1
объя@@ 1
основу 1
звез@@ 1
двигате@@ 1
двора 1
Объ@@ 1
писала 1
деление 1
76 1
рассмотре@@ 1
Круп@@ 1
1896 1
вось@@ 1
глава 1
ологи@@ 1
марки 1
составлял 1
сыновей 1
жало@@ 1
шку 1
сел@@ 1
обоих 1
государство 1
письмо 1
e 0.07057880494289602
ул@@ 1
1880 1
партизан@@ 1
крестьян 1
Али 1
ступила 1
ежегод@@ 1
ностях 1
приходится 1
поддержа@@ 1
типи@@ 1
Обще@@ 1
ющем 1
результатом 1
считают 1
кантона 1
награды 1
смерть 1
U 0.26991097307167483
металличе@@ 1
непосред@@ 1
Гей@@ 1
джи 1
сер 1
существова@@ 1
вёр@@ 1
вен 1
действует 1
комитет 1
ёс 1
логия 1
g@@ 0.09344502024271278
мусульман@@ 1
банка 1
ническое 1
вне 1
um 0.0708978900079637
ВС 1
оружие 1
Серге@@ 1
газете 1
берга 1
фабри@@ 1
нё@@ 1
Иркут@@ 1
министром 1
Ио@@ 1
реализо@@ 1
Ада@@ 1
K 0.3803321269663693
Город@@ 1
восемь 1
реи 1
Зак@@ 1
захва@@ 1
представляют 1
бки 1
французской 1
Россию 1
Оли@@ 1
Спор@@ 1
ограничен@@ 1
72 1
смы@@ 1
человеком 1
после@@ 1
1899 1
метод 1
ните@@ 1
инстру@@ 1
практи@@ 1
Бере@@ 1
источников 1
говорил 1
вопросы 1
зим@@ 1
женщина 1
такими 1
1898 1
озна@@ 1
присоеди@@ 1
оте@@ 1
стя@@ 1
Тихо@@ 1
пограни@@ 1
ай@@ 1
активности 1
Песня 1
старшего 1
o 0.05140129298325579
речной 1
флот 1
атого 1
нг 1
жали 1
обладает 1
открыта 1
мили@@ 1
кирпи@@ 1
Между 1
указыва@@ 1
работой 1
зрителей 1
мело@@ 1
ведом@@ 1
обшир@@ 1
ключе@@ 1
цеп@@ 1
оформ@@ 1
использовались 1
народных 1
Оде@@ 1
призван 1
Сла@@ 1
поводу 1
ствовала 1
самолёт 1
сного 1
зь 1
обеспе@@ 1
оставши@@ 1
Алексеевич 1
аген@@ 1
пары 1
лева 1
Генера@@ 1
менед@@ 1
губернатора 1
Фёдорович 1
ствам 1
существование 1
Ок@@ 1
Соб@@ 1
оставил 1
веще@@ 1
зер 1
ситуации 1
сход@@ 1
пки 1
ежегодно 1
медалью 1
программа 1
Воронеж@@ 1
конгре@@ 1
Кири@@ 1
подразде@@ 1
Абсолютная 1
окон@@ 1
высотой 1
водит 1
звёзд 1
тремя 1
Расположена 1
подверга@@ 1
бек 1
военную 1
влиянием 1
среды 1
груз@@ 1
Ленин@@ 1
побережье 1
ителям 1
гастро@@ 1
предприятие 1
фил@@ 1
израи@@ 1
кад@@ 1
Клубная 1
убит 1
чеш@@ 1
доказате@@ 1
Северная 1
использует 1
использовал 1
мс 1
Супер@@ 1
вообще 1
срав@@ 1
простран@@ 1
кафедрой 1
виду 1
Жа@@ 1
дский 1
каж@@ 1
носители 1
поля@@ 1
указан@@ 1
Государственного 1
рее 1
рисо@@ 1
Москов@@ 1
Ян 1
чинов@@ 1
статье 1
ьев 1
Доктор 1
изображения 1
опере@@ 1
f@@ 0.09166278836591504
веща@@ 1
Гран 1
другого 1
реч@@ 1
брон@@ 1
отметил 1
изучения 1
лейб@@ 1
чемпиона 1
железнодорожной 1
выступать 1
допол@@ 1
ляли 1
известность 1
нях 1
девя@@ 1
задачи 1
1870 1
средне@@ 1
Елена 1
Анти@@ 1
прак@@ 1
состояния 1
Лиги 1
стки 1
ворот 1
лово 1
лока@@ 1
ске@@ 1
ющейся 1
Мель@@ 1
Распространение 1
руководителем 1
1860 1
консу@@ 1
способности 1
исход@@ 1
вино@@ 1
исчез@@ 1
маном 1
четырёх@@ 1
КП 1
ие@@ 1
нефте@@ 1
смогли 1
старшим 1
сю@@ 1
причинам 1
ящи@@ 1
нёс 1
тию 1
доход 1
Ад@@ 1
станций 1
йо@@ 1
социальной 1
яви@@ 1
дата 1
причине 1
препят@@ 1
ственными 1
север 1
альная 1
призва@@ 1
Золо@@ 1
трас@@ 1
предприя@@ 1
представлена 1
такое 1
пластин@@ 1
рас 1
ряде 1
бук@@ 1
бами 1
оне 1
Джордж 1
назы@@ 1
плей 1
нью 1
лучше 1
плане 1
потенци@@ 1
Пат@@ 1
Состав 1
рый 1
строе@@ 1
творчества 1
годами 1
Транспорт 1
командование 1
ас 1
ито@@ 1
Швейцарии 1
стены 1
временно 1
службе 1
Окон@@ 1
оказалась 1
аре 1
лиш@@ 1
общественной 1
договор 1
представитель 1
серий@@ 1
устройство 1
наследия 1
нарко@@ 1
дала 1
явление 1
любви 1
вит@@ 1
духо@@ 1
1895 1
is 0.008209631250331363
преду@@ 1
л. 1
покуп@@ 1
португа@@ 1
тивной 1
сумел 1
дорог 1
капитана 1
хин@@ 1
ровской 1
ительная 1
тских 1
счё@@ 1
ванного 1
причиной 1
схо@@ 1
гек@@ 1
Константино@@ 1
партию 1
сюда 1
процессо@@ 1
тения 1
фай@@ 1
скорее 1
гости@@ 1
угле@@ 1
участвовали 1
вариан@@ 1
необходимости 1
класс 1
63 1
столицы 1
фф 1
тились 1
зин 1
программ 1
арх@@ 1
верхней 1
переехала 1
академию 1
целе@@ 1
Бир@@ 1
специально 1
Священ@@ 1
Орга@@ 1
лучший 1
Альбом 1
оборудования 1
шё@@ 1
домашних 1
садо@@ 1
собо@@ 1
ходи@@ 1
жёст@@ 1
годам 1
Желез@@ 1
отстав@@ 1
остаётся 1
надцати 1
баталь@@ 1
пола 1
нные 1
охраны 1
большинства 1
крови 1
собран@@ 1
атами 1
манд@@ 1
Большого 1
цик@@ 1
ьо@@ 1
зация 1
распространение 1
Прав@@ 1
Вит@@ 1
легко 1
австрали@@ 1
Мей@@ 1
случаев 1
щина 1
принце@@ 1
сках 1
гар 1
базы 1
офи@@ 1
участии 1
бассейновому 1
ужа@@ 1
гон 1
сценари@@ 1
дере@@ 1
расположенный 1
вблизи 1
сообщения 1
отношению 1
необы@@ 1
епископа 1
товых 1
Цар@@ 1
орке@@ 1
водой 1
жден 1
ино@@ 1
командующего 1
апосто@@ 1
дор 1
руб@@ 1
черно@@ 1
гимназии 1
обратно 1
разнообраз@@ 1
племян@@ 1
Джор@@ 1
Обо@@ 1
третьей 1
множе@@ 1
одина@@ 1
номе@@ 1
вед 1
аты 1
Институт 1
чемпионов 1
рекорд 1
лик 1
лян 1
Киеве 1
гая 1
программу 1
воспита@@ 1
59 1
Роди@@ 1
болгар@@ 1
всеми 1
аэропорт 1
щиком 1
Соло@@ 1
одному 1
встречи 1
парламента 1
Уил@@ 1
плана 1
Челябин@@ 1
одноим@@ 1
теря@@ 1
подряд 1
материаль@@ 1
шь 1
торже@@ 1
дная 1
стихи 1
технологий 1
деятельностью 1
дипло@@ 1
остат@@ 1
волость 1
школ 1
собор 1
моз@@ 1
включён 1
очеред@@ 1
Киев 1
неделю 1
обнаружи@@ 1
пто@@ 1
дова 1
следовал 1
качества 1
рец 1
коммуника@@ 1
рассказывает 1
зре@@ 1
медицин@@ 1
Сою@@ 1
сел 1
риаль@@ 1
Израиля 1
поступ@@ 1
Фар@@ 1
развитию 1
тивные 1
сным 1
столкнове@@ 1
акти@@ 1
Луи 1
регулярно 1
щением 1
Юр@@ 1
катастро@@ 1
роты 1
консуль@@ 1
преобразо@@ 1
населённый 1
братом 1
Начиная 1
годо@@ 1
разве@@ 1
зки 1
ина 1
языки 1
джа 1
муниципальных 1
посад@@ 1
лам@@ 1
туда 1
Жен@@ 1
женные 1
воспит@@ 1
дивизиона 1
предложение 1
Ван 1
применение 1
Президента 1
мона 1
бокс@@ 1
отдельные 1
даны 1
заслуги 1
Бос@@ 1
падает 1
стадии 1
скре@@ 1
семи 1
нане@@ 1
зато@@ 1
ствования 1
атмосфер@@ 1
заведующий 1
Кин@@ 1
шала 1
зная 1
рыва 1
ждены 1
инициативе 1
герба 1
выпустил 1
Петр 1
конкурса 1
местной 1
надеж@@ 1
артиллерии 1
ват 1
византи@@ 1
леген@@ 1
классов 1
61 1
Было 1
чия 1
постройки 1
оном 1
Дэвид 1
достигну@@ 1
призёром 1
начался 1
очи@@ 1
будущего 1
трех 1
контроля 1
американская 1
красно@@ 1
недели 1
крепость 1
являлись 1
творче@@ 1
фикация 1
Ат@@ 1
героя 1
Шах@@ 1
очер@@ 1
ждён 1
рь@@ 1
ГУ 1
мет 1
создате@@ 1
экс@@ 1
посел@@ 1
друз@@ 1
реше@@ 1
район@@ 1
сотрудников 1
ступил 1
сим@@ 1
писа@@ 1
СС 1
автомобилей 1
сестра 1
информацию 1
особо@@ 1
сколько 1
ходила 1
Мака@@ 1
Африки 1
пой@@ 1
офицер@@ 1
фотографи@@ 1
сообщил 1
голланд@@ 1
картина 1
ано@@ 1
1859 1
Китае 1
Фёдор 1
музыкальных 1
удо@@ 1
тельных 1
вертика@@ 1
Польше 1
ОАО 1
ждает 1
Дра@@ 1
появ@@ 1
поезда 1
слуш@@ 1
учебных 1
мно@@ 1
слов@@ 1
Чемпи@@ 1
зало@@ 1
опыт 1
берта 1
осуществляется 1
прия@@ 1
Международ@@ 1
переведён 1
лови@@ 1
Анны 1
неактивными 1
повто@@ 1
вызыва@@ 1
серию 1
завершения 1
мат 1
Специ@@ 1
порядке 1
выступала 1
кко 1
высшего 1
муниципалитет 1
братьев 1
рена 1
многочисленных 1
сообщение 1
ктор 1
пони@@ 1
предо@@ 1
различ@@ 1
гает 1
чке 1
Олег 1
Росто@@ 1
минера@@ 1
Британ@@ 1
противополож@@ 1
бух@@ 1
рато@@ 1
ительности 1
батальон 1
йных 1
печата@@ 1
информация 1
враже@@ 1
чаются 1
# 0.46537785731741704
обли@@ 1
NGC 1
изме@@ 1
объявлено 1
рово 1
побережья 1
местом 1
решили 1
разгро@@ 1
сосе@@ 1
Сту@@ 1
Сергеевич 1
товарище@@ 1
повстан@@ 1
юн@@ 1
Иванов@@ 1
68 1
полез@@ 1
футбо@@ 1
годом 1
Рома@@ 1
град 1
единица 1
академи@@ 1
памятника 1
Без@@ 1
площад@@ 1
наконец 1
энерги@@ 1
шт@@ 1
исследова@@ 1
ань 1
обе 1
тность 1
сотрудник 1
VIII 1
иллю@@ 1
кской 1
поте@@ 1
компа@@ 1
сбо@@ 1
тёплого 1
герой 1
днего 1
ила 1
Калу@@ 1
пля@@ 1
отцом 1
выигра@@ 1
суд@@ 1
иденти@@ 1
йного 1
среднего 1
вдо@@ 1
скан@@ 1
доров@@ 1
МГУ 1
Крым 1
тена 1
погибли 1
Музей 1
пытался 1
известной 1
оккупи@@ 1
откло@@ 1
пой 1
1892 1
пев@@ 1
оценки 1
террито@@ 1
русская 1
выйти 1
редактор 1
водохозяйственный 1
берт 1
ост@@ 1
продуктов 1
Теле@@ 1
рыв 1
Бала@@ 1
67 1
гай@@ 1
ок 1
выраз@@ 1
прямо 1
изуча@@ 1
дека@@ 1
Риме 1
хин 1
ровна 1
вис 1
листов 1
Калинин@@ 1
упраздн@@ 1
нима@@ 1
румы@@ 1
стый 1
закона 1
символ 1
сх@@ 1
любов@@ 1
Уилья@@ 1
летов 1
свойства 1
признан 1
украинский 1
дворе 1
новил 1
Спа@@ 1
тоне 1
66 1
соглашение 1
выпадает 1
цин@@ 1
факт 1
деб@@ 1
принимать 1
показал 1
Оле@@ 1
гно@@ 1
Около 1
редактором 1
числе@@ 1
заслу@@ 1
стра 1
стах 1
Ш 1
Шо@@ 1
атая 1
спас@@ 1
комисса@@ 1
УССР 1
рока 1
ушёл 1
Кузне@@ 1
психологи@@ 1
сены 1
Одним 1
Последний 1
див 1
дера 1
орудия 1
будди@@ 1
гиган@@ 1
Роман 1
блоки@@ 1
лесов 1
льством 1
последнее 1
ждено 1
исполните@@ 1
гель@@ 1
Улица 1
чались 1
уна@@ 1
вь 1
ристи@@ 1
моста 1
строительстве 1
брак 1
воен@@ 1
ена 1
выступлений 1
выгля@@ 1
рассчит@@ 1
фигу@@ 1
лис 1
новом 1
объект 1
Была 1
зали@@ 1
модер@@ 1
брака 1
лизи@@ 1
кари@@ 1
функ@@ 1
зад@@ 1
подразделения 1
битвы 1
Берлине 1
шев 1
фф@@ 1
библиотеки 1
достиг 1
проходят 1
слова@@ 1
Образование 1
Только 1
крейсе@@ 1
хова 1
Дмитри@@ 1
оперы 1
ровании 1
английского 1
служа@@ 1
домой 1
New 0.05921901729792679
Латвии 1
хор@@ 1
чит 1
выпустила 1
ровалась 1
присво@@ 1
фт 1
царь 1
посту 1
Послед@@ 1
ллы 1
ура 1
Коман@@ 1
стреми@@ 1
Вален@@ 1
Существует 1
водства 1
опе@@ 1
ровались 1
дуб@@ 1
наблюда@@ 1
оцен@@ 1
дению 1
ната 1
жив 1
фов 1
et 0.008568554637606883
осве@@ 1
чим 1
тал 1
низма 1
рит@@ 1
берега 1
орудий 1
жел@@ 1
основ@@ 1
объедин@@ 1
Вторая 1
рующих 1
мужа 1
вся 1
рито@@ 1
жки 1
Сви@@ 1
динами@@ 1
миллиона 1
командования 1
тери@@ 1
инвести@@ 1
лс 1
пел 1
форму@@ 1
аку@@ 1
жным 1
краси@@ 1
ФК 1
либера@@ 1
били 1
достав@@ 1
стили 1
розыгры@@ 1
впа@@ 1
общественного 1
шай@@ 1
9,@@ 1
Всесоюз@@ 1
лест@@ 1
общественных 1
НКВД 1
землю 1
ориенти@@ 1
Казахстан 1
линского 1
стой@@ 1
1885 1
ловой 1
Речной 1
демонстри@@ 1
пришёл 1
охран@@ 1
созданы 1
обязан@@ 1
Категория 1
возвращения 1
специалистов 1
s@@ 0.05100959953077076
спорт 1
Шотландии 1
заместителя 1
местные 1
корре@@ 1
штейн 1
дович 1
зывать 1
чём 1
композитор 1
степен@@ 1
74 1
Вил@@ 1
оли@@ 1
ждением 1
функциона@@ 1
Иоанна 1
заста@@ 1
атаки 1
крестьян@@ 1
кии 1
ресурсов 1
запись 1
федерации 1
ренко 1
ощу@@ 1
бассей@@ 1
пара 1
окружа@@ 1
00@@ 1
Истори@@ 1
первенстве 1
эм@@ 1
тр 1
сой 1
стым 1
лика 1
Яку@@ 1
газета 1
музыкальной 1
связанных 1
Крыма 1
дка 1
ведёт 1
денег 1
летняя 1
700 1
Побед@@ 1
действи@@ 1
приве@@ 1
прикры@@ 1
типов 1
верхов@@ 1
альбоме 1
IX 1
способность 1
y@@ 0.10095212574331905
соли@@ 1
деви@@ 1
образований 1
Выступал 1
международной 1
эволю@@ 1
сложи@@ 1
император 1
ресур@@ 1
каждом 1
ющаяся 1
правил 1
евро 1
железнодорожная 1
выну@@ 1
проиграл 1
большинстве 1
снаря@@ 1
Китай 1
стиля 1
полной 1
стен 1
лета@@ 1
максимум 1
собрание 1
наличие 1
пас@@ 1
отобра@@ 1
ряды 1
стройки 1
миль 1
гал 1
покров@@ 1
военное 1
данном 1
профи@@ 1
... 0.2153788700646097
группо@@ 1
аэро@@ 1
дом@@ 1
Аль 1
Бара@@ 1
матри@@ 1
уско@@ 1
шотланд@@ 1
Часть 1
Расположен 1
Але@@ 1
ситуация 1
следующего 1
актёр@@ 1
снаб@@ 1
взро@@ 1
молодой 1
предотвра@@ 1
щики 1
Един@@ 1
вока@@ 1
моне@@ 1
дес 1
вели 1
низи@@ 1
Джер@@ 1
ллер 1
сообщества 1
людьми 1
подру@@ 1
верси@@ 1
рейтин@@ 1
выста@@ 1
Billboard 0.8068649025707615
домини@@ 1
огра@@ 1
товари@@ 1
участке 1
ЭС 1
безу@@ 1
головы 1
рос 1
недостато@@ 1
кандидата 1
Варшав@@ 1
Изначально 1
позд@@ 1
130 1
костю@@ 1
полномо@@ 1
открыл 1
ари@@ 1
плений 1
шко 1
ствий 1
1894 1
замен@@ 1
рович 1
рев 1
Золотой 1
королём 1
наград 1
чёт 1
Санта 1
десять 1
ённость 1
Литов@@ 1
анализа 1
занимается 1
установки 1
леги@@ 1
требу@@ 1
материа@@ 1
средний 1
выход 1
установлена 1
k 0.1106865711347822
Так@@ 1
* 0.14897760212660816
вающих 1
1889 1
Глу@@ 1
пов@@ 1
проф@@ 1
радика@@ 1
гипоте@@ 1
выстре@@ 1
щины 1
независимость 1
чан 1
дая 1
приказ 1
Португалии 1
диагно@@ 1
симфо@@ 1
роз@@ 1
империя 1
Учился 1
суль@@ 1
Далее 1
использовался 1
мных 1
ьер 1
общем 1
целях 1
штате 1
вна 1
орган 1
музыкан@@ 1
колони@@ 1
посы@@ 1
Округ 1
ческому 1
гора 1
учеников 1
режиссёром 1
подбассейн 1
1893 1
лейтенанта 1
фли@@ 1
минима@@ 1
Сино@@ 1
называли 1
корей@@ 1
Сей@@ 1
социальных 1
недостат@@ 1
сток 1
вати@@ 1
женный 1
рат@@ 1
орденами 1
Занима@@ 1
ъя@@ 1
сами@@ 1
Иоси@@ 1
альтерна@@ 1
поя@@ 1
Родилась 1
родной 1
про 1
Баку 1
вило 1
чемпионатов 1
учит@@ 1
изображение 1
показатель 1
прин@@ 1
Майкл 1
рю 1
Севасто@@ 1
обуча@@ 1
Генрих 1
решает 1
мал 1
дух 1
связыва@@ 1
престол 1
методы 1
редакции 1
видом 1
францу@@ 1
ибн 1
кский 1
реди@@ 1
сада 1
ступи@@ 1
перво@@ 1
Нового 1
Пари@@ 1
пределами 1
Мюн@@ 1
примене@@ 1
припис@@ 1
достоин@@ 1
сче@@ 1
восстание 1
сыграла 1
Эстонии 1
чуть 1
лона 1
Св 1
соединения 1
отрицате@@ 1
устрой@@ 1
сцены 1
высоких 1
гола 1
тивно 1
любы@@ 1
поко@@ 1
танков 1
1878 1
1891 1
стоял 1
правах 1
охра@@ 1
разработке 1
преми@@ 1
жают 1
укреп@@ 1
изучал 1
тей@@ 1
штурмо@@ 1
весной 1
перси@@ 1
преда@@ 1
изобре@@ 1
квалифика@@ 1
пур@@ 1
закончи@@ 1
стара@@ 1
Андреевич 1
направление 1
каль@@ 1
департамента 1
использовали 1
метри@@ 1
интернет 1
совой 1
соединение 1
недель 1
типо@@ 1
матчи 1
отказа@@ 1
клубов 1
умерла 1
входя@@ 1
ура@@ 1
World 0.09893262481344181
научного 1
стан 1
рака 1
напомина@@ 1
полно@@ 1
провести 1
переговоры 1
источ@@ 1
Устье 1
живопис@@ 1
сино@@ 1
вери@@ 1
седь@@ 1
гораздо 1
счит@@ 1
возглавля@@ 1
Дне@@ 1
ирланд@@ 1
разу 1
роста 1
Государственный 1
крестьянской 1
Ё@@ 1
эпоху 1
ит 1
града 1
участники 1
безопас@@ 1
вспомина@@ 1
сове@@ 1
алгорит@@ 1
Законом 1
лоне 1
публико@@ 1
Республике 1
брази@@ 1
источниках 1
соответствует 1
самые 1
доста@@ 1
тическим 1
музыка 1
жениях 1
обладате@@ 1
памятников 1
вшем 1
оказывается 1
нка 1
йдя 1
Абра@@ 1
часа 1
ведущих 1
пище@@ 1
настолько 1
ьях 1
ссу@@ 1
Даге@@ 1
номинации 1
одержал 1
горя@@ 1
Славы 1
насчитывалось 1
лагерь 1
Павлович 1
мся 1
проя@@ 1
вернулась 1
ити 1
Наи@@ 1
Саль@@ 1
каса@@ 1
ология 1
мян@@ 1
цких 1
участка 1
точно 1
ванная 1
красо@@ 1
деми@@ 1
гвардейской 1
никаких 1
Павла 1
метро 1
XI 1
операций 1
мё@@ 1
лёт 1
делать 1
Владими@@ 1
помощником 1
щихся 1
приходилось 1
масштаб@@ 1
ак 1
69 1
лую 1
Красный 1
нашей 1
группи@@ 1
зывали 1
выте@@ 1
предусматри@@ 1
сражении 1
йл 1
син 1
чень 1
режима 1
субъек@@ 1
вли@@ 1
ьян@@ 1
построено 1
сить 1
грузин@@ 1
Сибири 1
частных 1
ню@@ 1
принимали 1
бла@@ 1
яна 1
гена 1
мене@@ 1
рестав@@ 1
96 1
Пле@@ 1
магистра@@ 1
енты 1
физической 1
98 1
посеща@@ 1
считать 1
йный 1
столь 1
атако@@ 1
высокого 1
ликвиди@@ 1
оне@@ 1
площадью 1
трек 1
Григорьевич 1
пин@@ 1
Фин@@ 1
дворя@@ 1
цо 1
категори@@ 1
бей@@ 1
основного 1
епархи@@ 1
Семё@@ 1
Спустя 1
плотность 1
ющегося 1
Украинской 1
писания 1
йскому 1
проспек@@ 1
работников 1
газа 1
глуб@@ 1
здоров@@ 1
82 1
определения 1
рист 1
ссию 1
штра@@ 1
щал 1
писали 1
поднима@@ 1
боевые 1
Ари@@ 1
ссон 1
остались 1
инте@@ 1
Абду@@ 1
паралле@@ 1
Фридрих 1
вернуть 1
гле@@ 1
полити@@ 1
суме@@ 1
71 1
заняли 1
Официальный 1
самостоятельно 1
Сезон 1
концов 1
изменя@@ 1
Силь@@ 1
тилась 1
Будучи 1
избра@@ 1
23@@ 1
азиат@@ 1
вет 1
заключения 1
Мил@@ 1
88 1
лёгкой 1
поколения 1
третье 1
99 1
Два 1
Нан@@ 1
Ранее 1
перешла 1
Ля@@ 1
увелич@@ 1
завоевала 1
конкурсе 1
пост@@ 1
оба@@ 1
81 1
реализации 1
Псковской 1
намере@@ 1
существуют 1
распа@@ 1
хочет 1
собственной 1
банк 1
Выбор@@ 1
распространя@@ 1
текста 1
счаст@@ 1
обя@@ 1
Екатерин@@ 1
Чет@@ 1
муниципа@@ 1
митрополи@@ 1
маги@@ 1
связаны 1
1886 1
руководства 1
гибели 1
организовал 1
перед@@ 1
последующие 1
серб@@ 1
Происхождение 1
Каль@@ 1
жоу 1
иза 1
проекти@@ 1
1864 1
общим 1
созданию 1
вшую 1
n@@ 0.07588054227605893
благотворитель@@ 1
реме@@ 1
Стани@@ 1
3,@@ 1
ары 1
действительно 1
экономического 1
предоставля@@ 1
1862 1
Волго@@ 1
твёр@@ 1
остальных 1
экономической 1
чему 1
110 1
корабли 1
построены 1
ек 1
самолё@@ 1
Ч 1
восточнее 1
инфра@@ 1
высоты 1
шений 1
вшимся 1
концеп@@ 1
Северного 1
тивная 1
выпущена 1
губерния 1
мера 1
оборонитель@@ 1
зависит 1
фра@@ 1
искусство 1
Уи@@ 1
защитник 1
73 1
Российская 1
чан@@ 1
Юрь@@ 1
Сен@@ 1
ia 0.11655183193791939
дана 1
ковском 1
кос@@ 1
военным 1
нив 1
увле@@ 1
гля@@ 1
ТВ 1
автодороги 1
водство 1
жка 1
ранен@@ 1
профессиональный 1
Почёт@@ 1
рус 1
Италия 1
рован@@ 1
ткан@@ 1
Республика 1
бора 1
стое 1
примы@@ 1
Валерий 1
Татар@@ 1
холодной 1
Юнайтед 1
1887 1
художественный 1
выя@@ 1
майора 1
p 0.15445621196343748
Кня@@ 1
включают 1
бывшей 1
удар 1
машино@@ 1
фонда 1
похоро@@ 1
поэта 1
Беларусь 1
западнее 1
минуте 1
общее 1
дворец 1
добро@@ 1
ленным 1
составили 1
ёз@@ 1
Гаври@@ 1
Премьер 1
Лондон 1
Ска@@ 1
пехоты 1
общи@@ 1
выставки 1
хирур@@ 1
Ричард 1
проводились 1
экологи@@ 1
кол 1
1877 1
архитектор 1
Мол@@ 1
АЗ 1
церемонии 1
ывал 1
Викто@@ 1
редак@@ 1
гера 1
печати 1
представлял 1
марок 1
личного 1
актё@@ 1
отправлен 1
резиден@@ 1
йскими 1
версию 1
материала 1
отступ@@ 1
креп@@ 1
нижней 1
линский 1
ята 1
фильмы 1
экипажа 1
уд@@ 1
цель 1
партий 1
релье@@ 1
условий 1
подготовке 1
альбомов 1
прош@@ 1
этапа 1
охват@@ 1
победителем 1
сельских 1
листиче@@ 1
самое 1
состояла 1
синте@@ 1
ранних 1
i@@ 0.10824602216637501
читал 1
вей 1
Тамбо@@ 1
пресс 1
1812 1
ори 1
тата 1
зако@@ 1
лак@@ 1
бина 1
правление 1
1861 1
реши@@ 1
стол@@ 1
ывая 1
секретаря 1
обозначения 1
брен@@ 1
полный 1
Сле@@ 1
длину 1
еха@@ 1
включ@@ 1
компанию 1
большее 1
Сергея 1
тивного 1
чали 1
1500 1
теку@@ 1
Пис@@ 1
читате@@ 1
осенью 1
Конгре@@ 1
возраст 1
сообщи@@ 1
переимено@@ 1
письма 1
78 1
ющимся 1
лор@@ 1
личности 1
бои 1
Румынии 1
тра 1
Кей@@ 1
КОАТУУ 1
крупный 1
семью 1
связанные 1
веро@@ 1
результатов 1
объяв@@ 1
существенно 1
полё@@ 1
нная 1
Ав@@ 1
героев 1
сигна@@ 1
лит@@ 1
Феодо@@ 1
Гражданской 1
Отде@@ 1
рядо@@ 1
монасты@@ 1
облада@@ 1
смогла 1
японской 1
окончила 1
знания 1
княже@@ 1
многочислен@@ 1
связана 1
щать 1
Дво@@ 1
сна 1
Верхняя 1
Леонид 1
Физи@@ 1
област@@ 1
ьевич 1
шке 1
российская 1
архитектора 1
вавших 1
Любо@@ 1
розо@@ 1
92 1
башни 1
Память 1
доброволь@@ 1
соревнования 1
развитии 1
жав@@ 1
тарь 1
комите@@ 1
Пос@@ 1
ствовало 1
1884 1
водных 1
закончил 1
замка 1
св 1
делу 1
мыми 1
единиц 1
84 1
Каре@@ 1
рата 1
топ@@ 1
Мартин 1
законо@@ 1
оказалось 1
1863 1
человече@@ 1
здоровья 1
Осенью 1
фос@@ 1
границ 1
находилось 1
конечном 1
сынов@@ 1
награду 1
l 0.042026377019251694
Встре@@ 1
темати@@ 1
йс 1
влияния 1
уне 1
властей 1
мбу@@ 1
Парижа 1
Инфраструктура 1
освобод@@ 1
ступле@@ 1
оккупации 1
Windows 0.9232334016152407
здравоохранения 1
инду@@ 1
лидеров 1
разби@@ 1
центри@@ 1
магази@@ 1
содержание 1
вав 1
окрестностях 1
указывает 1
вполне 1
шено 1
Балти@@ 1
виз@@ 1
побед 1
заявля@@ 1
возвращается 1
час 1
Пин@@ 1
Клю@@ 1
лекции 1
оказыва@@ 1
Хосе 1
x@@ 0.2190617273293586
факультете 1
er 0.01457494681088749
чиками 1
ид 1
руках 1
поп 1
правительством 1
лялся 1
еписко@@ 1
бок 1
ёж@@ 1
родов 1
языком 1
провин@@ 1
лоша@@ 1
рецеп@@ 1
физико 1
приказал 1
ывать 1
Ольга 1
Парти@@ 1
прошлом 1
гонке 1
сохранились 1
твер@@ 1
попыт@@ 1
задач 1
Медве@@ 1
питания 1
несколькими 1
испыты@@ 1
тира@@ 1
Олимпиа@@ 1
лаборатории 1
You 0.4078289075322973
кона 1
Полта@@ 1
зано 1
отмечает 1
ьч@@ 1
Югославии 1
итальянский 1
истин@@ 1
Лев 1
деж@@ 1
боле@@ 1
кала 1
публикации 1
меч@@ 1
нем@@ 1
действиях 1
страну 1
выбор@@ 1
Бельгии 1
хват@@ 1
треуго@@ 1
Есть 1
Music 0.2789493351906602
изменений 1
предста@@ 1
сная 1
участвовать 1
лето@@ 1
уст@@ 1
преоблада@@ 1
колхоза 1
популярность 1
льевич 1
зен 1
ковская 1
Екатери@@ 1
упо@@ 1
переводе 1
Миха@@ 1
эт 1
77 1
тео@@ 1
почита@@ 1
выпущен@@ 1
ограни@@ 1
Мекси@@ 1
Среднегодовая 1
o@@ 0.07988609338870303
рованным 1
зуб@@ 1
Оси@@ 1
крыль@@ 1
лингви@@ 1
фла@@ 1
слы@@ 1
привод@@ 1
хии 1
Шта@@ 1
полку 1
зави@@ 1
кс@@ 1
сед@@ 1
большом 1
автодороге 1
Мед@@ 1
бизнес 1
любовь 1
рег@@ 1
сест@@ 1
атор 1
Нау@@ 1
автомобиль 1
четверть@@ 1
1888 1
вные 1
Демография 1
пытались 1
небольших 1
позво@@ 1
Андер@@ 1
городском 1
конфликта 1
отказыва@@ 1
страхо@@ 1
обыгра@@ 1
приз@@ 1
помест@@ 1
МВД 1
документов 1
секун@@ 1
классификации 1
держан@@ 1
прось@@ 1
депутат 1
Строительство 1
Демокра@@ 1
растения 1
швейцар@@ 1
экономических 1
выигры@@ 1
парт@@ 1
Краснодар@@ 1
Пот@@ 1
достигает 1
ребёнка 1
тиви@@ 1
пропове@@ 1
щу@@ 1
зуется 1
мульти@@ 1
кля@@ 1
противостоя@@ 1
приез@@ 1
z@@ 0.07750063078647648
Международной 1
es 0.014698635606050217
женного 1
раста@@ 1
Несколько 1
имена 1
британский 1
ландии 1
вете 1
асси@@ 1
вена 1
окончате@@ 1
гана 1
миссии 1
пои@@ 1
целей 1
Западного 1
кавалерий@@ 1
гна@@ 1
глаза 1
одержа@@ 1
поединке 1
лицо 1
циф@@ 1
альбо@@ 1
кат 1
ресто@@ 1
заму@@ 1
сопрово@@ 1
тря@@ 1
ционно 1
бить 1
договора 1
Слу@@ 1
продолжает 1
Бах@@ 1
секретарём 1
Численность 1
сками 1
католи@@ 1
Алта@@ 1
кай@@ 1
ООО 1
гражда@@ 1
мпи@@ 1
ману@@ 1
Брян@@ 1
Хью@@ 1
политика 1
24@@ 0.8351705939619534
опро@@ 1
Эри@@ 1
двигателя 1
лиза@@ 1
соба@@ 1
критики 1
Андрея 1
министров 1
доне@@ 1
незакон@@ 1
чья 1
чо 1
длины 1
учёных 1
названа 1
p@@ 0.06997683931154147
86 1
программи@@ 1
провел 1
бесплат@@ 1
музыкальный 1
Три 1
старин@@ 1
ште@@ 1
чах 1
границу 1
Гай@@ 1
главой 1
звании 1
Компания 1
дина@@ 1
труп@@ 1
колхоз 1
Яро@@ 1
борьбу 1
това@@ 1
долгое 1
йцев 1
оправ@@ 1
иту@@ 1
порядок 1
Красную 1
коллекции 1
Бек@@ 1
МИ@@ 1
происхождение 1
святой 1
темы 1
пассажиров 1
различными 1
бок@@ 1
помочь 1
британской 1
дворца 1
системой 1
мок 1
обществе 1
Y@@ 0.12236724800476692
жден@@ 1
несла 1
Хен@@ 1
журналист 1
Калифорния 1
дому 1
труд 1
говор 1
щений 1
думы 1
Кот@@ 1
КНР 1
ад 1
H 0.33732167540838454
Николаев@@ 1
Творчество 1
Екатерина 1
снят 1
пет@@ 1
устраи@@ 1
столице 1
уволен 1
говорить 1
белых 1
патриар@@ 1
винов@@ 1
пространства 1
Еди@@ 1
пок 1
речь 1
Были 1
двадц@@ 1
процессов 1
английском 1
аудито@@ 1
цкое 1
опу@@ 1
символизи@@ 1
трудоспособ@@ 1
якобы 1
фестиваль 1
инструмента@@ 1
кафедре 1
линг 1
перевод 1
Усть 1
личных 1
кустар@@ 1
Рейн@@ 1
политиче@@ 1
рона 1
непреры@@ 1
17,@@ 1
Норвегии 1
Комитета 1
Кни@@ 1
внимания 1
мастера 1
жилых 1
старей@@ 1
след 1
Рожде@@ 1
избе@@ 1
кла 1
01 1
гур@@ 1
А.@@ 1
премьера 1
Степа@@ 1
низа@@ 1
РК 1
предшествен@@ 1
Основной 1
Петербург@@ 1
Волы@@ 1
гаран@@ 1
поставил 1
пера 1
нском 1
поверх@@ 1
кал 1
двор 1
мети@@ 1
ара@@ 1
корпора@@ 1
ционе@@ 1
ьей 1
поста 1
фельд@@ 1
заслуженный 1
ожида@@ 1
переход 1
температуры 1
водном 1
Объедин@@ 1
Бран@@ 1
материал 1
эпо@@ 1
Улья@@ 1
часов@@ 1
чина 1
риях 1
ступен@@ 1
пси@@ 1
демо@@ 1
Конститу@@ 1
Каждый 1
1879 1
Международного 1
цева 1
эксплуатацию 1
внес@@ 1
Иногда 1
основате@@ 1
последним 1
политического 1
Имеет 1
Витеб@@ 1
открыто 1
специалист 1
сл 1
Георгия 1
главную 1
сси 1
живёт 1
соединя@@ 1
ут 1
вного 1
сий 1
Герма@@ 1
объём 1
зок 1
относ@@ 1
Центрального 1
рабочего 1
фамили@@ 1
октябрь 1
1873 1
цова 1
белые 1
родителей 1
отло@@ 1
южно@@ 1
контр@@ 1
мони@@ 1
взять 1
лате@@ 1
Среднегодовое 1
номини@@ 1
выполнение 1
отсутствует 1
писать 1
гал@@ 1
тиче@@ 1
бка 1
Ден@@ 1
повторя@@ 1
произведение 1
Науч@@ 1
терми@@ 1
мощностью 1
женского 1
избран@@ 1
штат@@ 1
Воро@@ 1
используя 1
Диа@@ 1
ился 1
крестья@@ 1
лить 1
АТ@@ 1
схе@@ 1
правила 1
ровку 1
заби@@ 1
Флаг 1
защиту 1
хой 1
партнё@@ 1
консерватории 1
кате@@ 1
атам 1
деления 1
1882 1
рассе@@ 1
меру 1
известная 1
формирование 1
баскет@@ 1
Лар@@ 1
Постоян@@ 1
требует 1
Ссылки 1
бывших 1
великого 1
методов 1
среде 1
вооружение 1
обеих 1
герцог 1
речи 1
ственности 1
Уор@@ 1
создано 1
рак 1
рация 1
существо@@ 1
3,5 1
83 1
гры@@ 1
реестре 1
Одна 1
Голу@@ 1
пами 1
альное 1
значительной 1
ктор@@ 1
бомбардиров@@ 1
Тей@@ 1
Нидерландов 1
соста@@ 1
равно@@ 1
шести@@ 1
провинцию 1
помина@@ 1
мето@@ 1
тана 1
Международный 1
Звезда 1
Мать 1
кризи@@ 1
Эдуар@@ 1
захоро@@ 1
перебра@@ 1
Софи@@ 1
социально 1
городу 1
произо@@ 1
Весной 1
активное 1
quot 1
проводится 1
назначил 1
характеристи@@ 1
лец 1
акций 1
держать 1
персонажа 1
женной 1
Каза@@ 1
шпи@@ 1
мороз@@ 1
передан 1
День 1
КО@@ 1
еры 1
Игро@@ 1
войн 1
спро@@ 1
87 1
Мате@@ 1
ник@@ 1
заду@@ 1
цким 1
бас 1
увеличе@@ 1
Костро@@ 1
93 1
Теха@@ 1
семи@@ 1
годи@@ 1
распространения 1
ющему 1
хво@@ 1
диапа@@ 1
выращи@@ 1
прило@@ 1
гнез@@ 1
посё@@ 1
помог 1
педагог 1
97 1
Игна@@ 1
шил 1
кандидатов 1
разведки 1
ПВО 1
вающие 1
оборудование 1
нено 1
изобраз@@ 1
политик 1
астроно@@ 1
видные 1
Вай@@ 1
востока 1
проявля@@ 1
образует 1
осла@@ 1
чник 1
Антонио 1
Ле 1
передал 1
лекар@@ 1
соци@@ 1
ента 1
Арханге@@ 1
Здание 1
запада 1
карто@@ 1
Мари 1
пова 1
продажи 1
бан 1
ука@@ 1
носится 1
начать 1
упраздне@@ 1
культурного 1
тировал 1
исторической 1
учителем 1
докторскую 1
Руковод@@ 1
наступате@@ 1
хва@@ 1
Чере@@ 1
шириной 1
монастыре 1
специфи@@ 1
Ильи@@ 1
экспо@@ 1
выступле@@ 1
рые 1
метра@@ 1
зон 1
Коз@@ 1
Де 1
ваго@@ 1
полное 1
провела 1
монар@@ 1
творчество 1
Мя@@ 1
филологи@@ 1
работах 1
шили 1
семина@@ 1
члена 1
экземпляров 1
Дмитриевич 1
Дор@@ 1
гла 1
черты 1
вавший 1
фирмы 1
мию 1
подозре@@ 1
льские 1
включены 1
предлагает 1
ловской 1
Дол@@ 1
длится 1
залива 1
цикл 1
выставке 1
вшееся 1
нит 1
щаются 1
Лауреат 1
работают 1
прежнему 1
Съ@@ 1
дивизионе 1
Северный 1
холод@@ 1
знание 1
прихода 1
станови@@ 1
Треть@@ 1
³ 1
чук 1
новской 1
спортивной 1
Основная 1
Ленинградской 1
голову 1
заинтересо@@ 1
учреждения 1
щались 1
возника@@ 1
попол@@ 1
Уай@@ 1
отзывы 1
каме@@ 1
1881 1
зо 1
арен@@ 1
парке 1
путей 1
приход@@ 1
анализ 1
слен@@ 1
выжи@@ 1
режим 1
оды 1
Ранние 1
нование 1
Израи@@ 1
далеко 1
способ 1
тури@@ 1
членами 1
лас 1
объекты 1
показыва@@ 1
тическую 1
Им@@ 1
1871 0.9889434919239709
душ@@ 1
сумму 1
пропа@@ 1
художественной 1
Ему 1
оти@@ 1
ув@@ 1
трибу@@ 1
основы@@ 1
олог 1
носить 1
исправ@@ 1
организ@@ 1
покинуть 1
говор@@ 1
Тара@@ 1
немцев 1
достато@@ 1
сержант 1
пин 1
двор@@ 1
гим 1
участником 1
внешней 1
успехом 1
энциклопе@@ 1
1876 1
лер@@ 1
нации 1
медицинских 1
сухо@@ 1
Музыка@@ 1
круг 1
посетил 1
вооружённых 1
докла@@ 1
альным 1
подготовку 1
Джо 1
нился 1
гового 1
общая 1
областей 1
стадионе 1
территорий 1
желе@@ 1
надо 1
Лы@@ 1
молит@@ 1
водил 1
линию 1
лялись 1
управлением 1
плодо@@ 1
интерпре@@ 1
прибыли 1
Чай@@ 1
автономного 1
студийный 1
Лет@@ 1
край@@ 1
горизонта@@ 1
Ставро@@ 1
деревню 1
лана 1
Критика 1
источники 1
западном 1
бежал 1
лагеря 1
танковой 1
Джен@@ 1
документы 1
лёв 1
бата@@ 1
91 1
Хал@@ 1
числи@@ 1
стром 1
мара 1
браке 1
автоно@@ 1
Иг@@ 1
Офици@@ 1
Проект 1
конкур@@ 1
скорост@@ 1
использоваться 1
изгна@@ 1
любитель@@ 1
международный 1
Тен@@ 1
ката 1
дс 1
писто@@ 1
льстве 1
Главного 1
Мы@@ 1
левый 1
невозможно 1
Испол@@ 1
сис 1
Пол 1
94 1
тут 1
вар 1
классе 1
Эли@@ 1
медицинской 1
южнее 1
деяте@@ 1
соблю@@ 1
спортсмен@@ 1
потерял 1
возве@@ 1
пожало@@ 1
возобнов@@ 1
рынке 1
водоро@@ 1
ждать 1
Дж 1
друзей 1
мемориаль@@ 1
фолькло@@ 1
ордина@@ 1
Результаты 1
ловка 1
нельзя 1
привели 1
никто 1
иск 1
номера 1
Верхов@@ 1
перешли 1
плы@@ 1
народной 1
Филипп 1
мми 1
Великобритания 1
интегра@@ 1
атмосферных 1
восьми 1
рений 1
гель 1
нападающий 1
Посёлок 1
Департамент 1
засе@@ 1
проводит 1
сение 1
стор@@ 1
лос 1
десят@@ 1
изи@@ 1
Ол@@ 1
боя@@ 1
пережи@@ 1
заря@@ 1
приглаш@@ 1
Министерство 1
сфе@@ 1
79 1
появления 1
нужда@@ 1
граде 1
Кана@@ 1
полков@@ 1
Питер 1
импе@@ 1
место@@ 1
окрест@@ 1
автомобиля 1
Оренбург@@ 1
фонд 1
ваш@@ 1
новна 1
Университет 1
пад@@ 1
массы 1
характера 1
Московском 1
Русский 1
завершил 1
богосло@@ 1
связан 1
Монго@@ 1
кут@@ 1
дистан@@ 1
щению 1
алкого@@ 1
золото 1
1883 1
Гера@@ 1
шиф@@ 1
Оскар 1
топли@@ 1
Плотность 1
небольшие 1
организацию 1
Мини@@ 1
Чернигов@@ 1
рынка 1
W 0.3969136081367457
жное 1
замену 1
относя@@ 1
ателей 1
исторического 1
пуск 1
могло 1
льств 1
Православ@@ 1
служить 1
формули@@ 1
Вей@@ 1
воспитан@@ 1
поход 1
енных 1
Роберта 1
тюр@@ 1
ченной 1
интерес@@ 1
певица 1
получило 1
зафикси@@ 1
равно 1
нередко 1
чит@@ 1
Что 1
прошед@@ 1
сообщает 1
хождение 1
колоколь@@ 1
вок@@ 1
посредством 1
Ред@@ 1
Сав@@ 1
Вет@@ 1
Неме@@ 1
административный 1
эро@@ 1
духовной 1
мило@@ 1
квар@@ 1
исследование 1
эскад@@ 1
еты 1
ьям 1
Македо@@ 1
росла 1
эксплуатации 1
принимала 1
фотографии 1
организато@@ 1
непри@@ 1
бого@@ 1
89 1
порта@@ 1
славы 1
теров 1
жениями 1
Руси 1
идея 1
населением 1
наших 1
горных 1
обнаружены 1
нефти 1
поки@@ 1
класс@@ 1
дник 1
борту 1
курса 1
лав@@ 1
уна 1
Вильгельм 1
Мет@@ 1
княжества 1
абсолю@@ 1
строя 1
принята 1
Чикаго 1
ухода 1
ране 1
показывает 1
низм 1
провинция 1
русским 1
экспози@@ 1
работан@@ 1
действовать 1
обусло@@ 1
on@@ 0.07215248890478591
Кем@@ 1
рым 1
предпоч@@ 1
евой 1
Гур@@ 1
напротив 1
концентра@@ 1
популя@@ 1
Гит@@ 1
нефтя@@ 1
сопротивление 1
подроб@@ 1
1865 1
вторую 1
визу@@ 1
внутри@@ 1
телевидения 1
аэродро@@ 1
нато@@ 1
артист 1
некоторым 1
построе@@ 1
выбира@@ 1
утверждает 1
Электро@@ 1
обвиня@@ 1
пр 1
особо 1
мская 1
политику 1
ширина 1
ленное 1
цир@@ 1
колонии 1
международном 1
убийство 1
Сак@@ 1
собственные 1
совсем 1
жом 1
Общества 1
дольф 1
ог@@ 1
Африке 1
Президент 1
кар 1
устра@@ 1
пожар@@ 1
Сред@@ 1
научным 1
плати@@ 1
Востока 1
Голо@@ 1
движении 1
сег@@ 1
бек@@ 1
автоном@@ 1
пространство 1
щу 1
левого 1
жителя 1
лун@@ 1
12.@@ 1
наименование 1
Мэри 1
древних 1
храме 1
Библи@@ 1
несли 1
открытие 1
ing 0.02323129348567468
дился 1
платформы 1
хутор 1
зени@@ 1
говорят 1
высокие 1
Перво@@ 1
дальше 1
Вир@@ 1
познакомился 1
бюдже@@ 1
копий 1
Ама@@ 1
взо@@ 1
лат 1
мися 1
пребывания 1
утверждён 1
1867 1
обез@@ 1
Джек@@ 1
аро@@ 1
врач 1
перспек@@ 1
расстояние 1
Шер@@ 1
вещества 1
динамиче@@ 1
жё@@ 1
пожертво@@ 1
другое 1
мра@@ 1
йка 1
интере@@ 1
теория 1
арте@@ 1
указом 1
Яв@@ 1
описа@@ 1
мед 1
окружающей 1
научные 1
реакции 1
Музы@@ 1
мян 1
жин@@ 1
забро@@ 1
океана 1
торпе@@ 1
Солнца 1
кампа@@ 1
Премьера 1
игровой 1
исключ@@ 1
нейтра@@ 1
крае@@ 1
отделом 1
дови@@ 1
базо@@ 1
la 0.0028281449409372186
шахмат@@ 1
Соци@@ 1
психи@@ 1
Рим 1
Дании 1
приказу 1
Возможно 1
Книга 1
доступ 1
культура 1
ae 0.27993546137067277
НБА 1
щему 1
рано 1
лого@@ 1
конфликт 1
инского 1
рубе@@ 1
устойчи@@ 1
Ленинград 1
политике 1
сож@@ 1
Вид 1
выступила 1
позиция 1
мб@@ 1
соборе 1
музыкального 1
нейро@@ 1
досто@@ 1
свадь@@ 1
наступления 1
медицины 1
служба 1
Хей@@ 1
берег 1
полузащитник 1
мад 1
историко 1
станет 1
служит 1
запи@@ 1
ос 1
Всё 1
видит 1
внутренней 1
ывают 1
случай 1
бежать 1
родину 1
ваемых 1
политические 1
цикла 1
Нижегородской 1
входило 1
каждые 1
Крымской 1
дивизион 1
щаться 1
Дал@@ 1
вере 1
турнирах 1
моро@@ 1
технический 1
предположительно 1
эвакуи@@ 1
техни@@ 1
победитель 1
осталось 1
НР 1
защите 1
утверждал 1
ьё@@ 1
мексикан@@ 1
1868 1
семейство 1
Горо@@ 1
фамилии 1
Гиль@@ 1
вшему 1
говори@@ 1
телефон@@ 1
следующее 1
Иерусали@@ 1
Татьяна 1
1850 1
отборо@@ 1
уезде 1
веществ 1
запро@@ 1
Арка@@ 1
объясни@@ 1
пуск@@ 1
Сербии 1
зрите@@ 1
распо@@ 1
падения 1
сериа@@ 1
объявила 1
органы 1
городская 1
женской 1
вела 1
защитника 1
родители 1
платы 1
теро@@ 1
мный 1
шали 1
8,@@ 1
определяется 1
носят 1
лки@@ 1
натура@@ 1
собственности 1
евской 1
ентов 1
третьем 1
менти@@ 1
Знамени 1
журна@@ 1
музыке 1
Василия 1
Фон@@ 1
Ней@@ 1
народ 1
ограниче@@ 1
детства 1
Робер@@ 1
10.@@ 0.9793021822474024
туру 1
море@@ 1
двер@@ 1
кристал@@ 1
чев 1
Грэ@@ 1
Рио 1
исполнение 1
Иоанн 1
крепост@@ 1
метал@@ 1
дома@@ 1
гипер@@ 1
тёплым 1
щался 1
лед@@ 1
Генриха 1
локо@@ 1
издал 1
клет@@ 1
епископом 1
пласти@@ 1
гонки 1
практике 1
сингла 1
чис@@ 1
ительную 1
причин 1
СМ 1
кори@@ 1
зале 1
шю@@ 1
среднюю 1
Ленинградского 1
1869 1
инфек@@ 1
сведениям 1
ничества 1
умерен@@ 1
правой 1
Баш@@ 1
муниципалитета 1
Игра 1
Куйбы@@ 1
находит 1
кет@@ 1
стика 1
Оре@@ 1
Долго@@ 1
энерго@@ 1
допу@@ 1
играла 1
риал 1
лежит 1
листо@@ 1
отдыха 1
профе@@ 1
исполнения 1
поэзии 1
дирижё@@ 1
Токио 1
лив 1
высшее 1
мбо@@ 1
Яков@@ 1
голе@@ 1
признание 1
мор 1
смысле 1
отношениях 1
тает 1
Ие@@ 1
приходит 1
Ленинграде 1
производству 1
решено 1
интенсив@@ 1
цио@@ 1
убит@@ 1
дизай@@ 1
принадлеж@@ 1
молодёжи 1
останови@@ 1
Тем@@ 1
Яр@@ 1
марк@@ 1
египет@@ 1
Канаде 1
линий 1
Октябрьской 1
Франсуа 1
Начало 1
комсомо@@ 1
Пон@@ 1
сооружения 1
услуг 1
закреп@@ 1
конфлик@@ 1
Гло@@ 1
остатки 1
официальным 1
мелких 1
фигур@@ 1
нала 1
Геро@@ 1
тренер@@ 1
Францию 1
Христа 1
1866 0.8567235339567874
Собра@@ 1
ническая 1
1830 1
зависи@@ 1
ствии 1
Гви@@ 1
картин 1
реконструкции 1
Хам@@ 1
вручением 1
Петербургской 1
вести@@ 1
распада 1
решению 1
Серебря@@ 1
ЦИК 1
впадает 1
комеди@@ 1
обыкновен@@ 1
вело@@ 1
объединение 1
1848 0.9336772336772564
лище 1
Саха@@ 1
отсутствия 1
подобных 1
первен@@ 1
аристокра@@ 1
количестве 1
фило@@ 1
точка 1
добился 1
запол@@ 1
футбола 1
Свобо@@ 1
ехал 1
озву@@ 1
пен 1
Система 1
Южная 1
подзем@@ 1
лениях 1
хен@@ 1
советские 1
t@@ 0.054163428392089485
осталась 1
Пуш@@ 1
Ага@@ 1
трен@@ 1
Мало@@ 1
Финлян@@ 1
исполнении 1
нести 1
ори@@ 1
преступления 1
Ближайшие 1
сезонов 1
НИИ 1
клеток 1
каких 1
ковать 1
трое 1
Кун@@ 1
мощность 1
религии 1
Смит 1
квалификации 1
водом 1
добра@@ 1
закре@@ 1
Иде@@ 1
шир 1
компонен@@ 1
хта 1
круг@@ 1
мозга 1
дзи@@ 1
ляция 1
королевства 1
0,5 1
продоволь@@ 1
насел@@ 1
сное 1
препара@@ 1
Институте 1
высокий 1
выбор 1
йско 1
дона 1
жие 1
изданий 1
отне@@ 1
двигатель 1
сражения 1
метрополи@@ 1
Хель@@ 1
слобо@@ 1
детстве 1
специальных 1
Group 0.2603573542742579
k@@ 0.07031286543991565
рио 1
Йе@@ 1
характеристики 1
противоре@@ 1
тенни@@ 1
значительное 1
протестан@@ 1
говора 1
Храм 1
жанре 1
дочерью 1
щенко 1
гло 1
Курской 1
результ@@ 1
u 0.08750227972733611
числилось 1
намест@@ 1
приклад@@ 1
гина 1
страции 1
проживает 1
Арген@@ 1
флан@@ 1
серде@@ 1
Z 0.5054731927494844
персонаж 1
опор@@ 1
проекты 1
ГЭС 1
выполнен@@ 1
имо@@ 1
Леони@@ 1
Велико@@ 1
ритель@@ 1
носили 1
флаг 1
важным 1
кап@@ 1
поверхность 1
ито 1
Уро@@ 1
лениями 1
неболь@@ 1
клави@@ 1
ради 1
УЕФА 1
губернатор 1
общественный 1
советское 1
фю@@ 1
соном 1
нял 1
коди@@ 1
ограничи@@ 1
кандидат 1
Эль 1
основано 1
бун@@ 1
строение 1
Васи@@ 1
общий 1
рите@@ 1
Сала@@ 1
установи@@ 1
кресто@@ 1
тинский 1
банд@@ 1
эффект 1
ракеты 1
сайта 1
Лав@@ 1
Игра@@ 1
g 0.10328215417413712
восточном 1
ДНК 1
погло@@ 1
морф@@ 1
Отече@@ 1
агро@@ 1
слабо@@ 1
слан 1
Научная 1
линг@@ 1
преследо@@ 1
правый 1
огнём 1
епархия 1
Абу 1
стоимость 1
СД@@ 1
Сначала 1
коммуни@@ 1
функций 1
установлено 1
фанта@@ 1
цов@@ 1
Жо@@ 1
глад@@ 1
монго@@ 1
1856 1
топлива 1
клетки 1
станцию 1
Константи@@ 1
Лай@@ 1
режиме 1
официальных 1
чок 1
возглав@@ 1
многом 1
Высота 1
ходило 1
служеб@@ 1
Парк 1
жер 1
призы@@ 1
посвящен@@ 1
цион@@ 1
ционным 1
селение 1
торе 1
учреждений 1
русско 1
космо@@ 1
1872 1
учред@@ 1
for 0.006784365167961579
княз@@ 1
Университета 1
магазин 1
Коль@@ 1
Мю@@ 1
ГИ@@ 1
пришли 1
Памятник 1
нрав@@ 1
Алексея 1
испыта@@ 1
людям 1
продюсе@@ 1
собственных 1
командующий 1
самая 1
взрослых 1
погре@@ 1
основателей 1
высоко 1
ковод@@ 1
Зар@@ 1
свиде@@ 1
анима@@ 1
следующей 1
вара 1
цкие 1
Золотая 1
колледж 1
частях 1
Михай@@ 1
универса@@ 1
действием 1
емы 1
врага 1
называет 1
шенко 1
мужество 1
роб@@ 1
севера 1
стин 1
французских 1
примечате@@ 1
товар@@ 1
Хро@@ 1
огня 1
стек@@ 1
Алек@@ 1
планы 1
фашист@@ 1
вато@@ 1
КБ 1
живу@@ 1
осно@@ 1
жиз@@ 1
рису@@ 1
мужского 1
шкой 1
гского 1
проводятся 1
рук 1
дным 1
кации 1
поляр@@ 1
160 1
полуострова 1
нская 1
ченного 1
вызывает 1
коллегии 1
швили 1
исторический 1
кварта@@ 1
Южного 1
братья 1
вил@@ 1
община 1
высоту 1
съём@@ 1
шают 1
преодоле@@ 1
течению 1
гося 1
приготов@@ 1
увидеть 1
переданы 1
множества 1
одоб@@ 1
пом@@ 1
1875 0.998074736566818
личные 1
представления 1
бельги@@ 1
размера 1
району 1
таки 1
кевич 1
подверг@@ 1
популярных 1
порта 1
республи@@ 1
уехал 1
In@@ 0.11312910632013318
надёж@@ 1
ждается 1
лауре@@ 1
анный 1
проводил 1
управ@@ 1
дений 1
областях 1
свободу 1
выполнения 1
листь@@ 1
Широ@@ 1
предме@@ 1
Ты@@ 1
занималась 1
повсе@@ 1
британского 1
нист 1
регионов 1
возвращении 1
наре@@ 1
значительные 1
матерью 1
термина@@ 1
ьера 1
восстановления 1
Тимо@@ 1
генерального 1
спорт@@ 1
ринг 1
начинают 1
областной 1
описан 1
перехода 1
боеприпа@@ 1
свое 1
лицензи@@ 1
бывал 1
тна 1
плохо 1
появилось 1
йцы 1
примеру 1
госпита@@ 1
обеспечить 1
Приме@@ 1
Кузь@@ 1
Трудо@@ 1
лье@@ 1
крайней 1
прочих 1
Тек@@ 1
Чили 1
an 0.007612309013159155
становятся 1
положении 1
тун@@ 1
продюсер 1
монеты 1
гря@@ 1
живых 1
территориального 1
строго 1
учениками 1
вик 1
нон 1
риту@@ 1
Кло@@ 1
считали 1
Жена 1
возраст@@ 1
европейской 1
ленную 1
ене 1
наблюдате@@ 1
нета 1
рецен@@ 1
Кы@@ 1
эсте@@ 1
Дени@@ 1
применяется 1
Дмит@@ 1
волж@@ 1
инициати@@ 1
патри@@ 1
операция 1
рованное 1
силой 1
западных 1
пра 1
140 1
Федорович 1
Бет@@ 1
Чехии 1
ранга 1
передач 1
Семе@@ 1
Смир@@ 1
съезда 1
производстве 1
пуль@@ 1
организацией 1
ува@@ 1
пулемё@@ 1
деревьев 1
кислоты 1
сотни 1
высших 1
веках 1
личный 1
Кала@@ 1
Най@@ 1
воздушных 1
показали 1
Ирты@@ 1
прод@@ 1
Последние 1
рян@@ 1
каби@@ 1
Ере@@ 1
мак 1
хай@@ 1
поклон@@ 1
Мур@@ 1
нуть 1
принятия 1
бог@@ 1
экипа@@ 1
вме@@ 1
буль@@ 1
Израиль 1
м. 1
Богородицы 1
кове 1
Виш@@ 1
нки 1
носил 1
неде@@ 1
происхо@@ 1
вный 1
долине 1
структура 1
Чарльз 1
крест 1
ностям 1
Лучший 1
поставля@@ 1
лея 1
лице@@ 1
тическом 1
появляются 1
Молод@@ 1
гуманитар@@ 1
зеро 1
пуска 1
Внеш@@ 1
рующие 1
содержания 1
добиться 1
лидером 1
структуру 1
тяну@@ 1
написана 1
принца 1
финиши@@ 1
прися@@ 1
отправил 1
оценку 1
девять 1
труды 1
числу 1
Великий 1
Лебе@@ 1
размере 1
гих 1
раунда 1
расчё@@ 1
клубы 1
7,@@ 1
Наталья 1
отдел 1
повышен@@ 1
Запоро@@ 1
администра@@ 1
настав@@ 1
сэ@@ 1
ьян 1
активными 1
ухуд@@ 1
4,@@ 0.873384441810049
блок 1
выясни@@ 1
ничество 1
льским 1
заны 1
повлия@@ 1
держав@@ 1
рабаты@@ 1
Ны@@ 1
насле@@ 1
Прин@@ 1
Рядом 1
студентами 1
крыла 1
венства 1
1874 0.984195003473792
емую 1
Эдуард 1
родного 1
глав 1
островах 1
мные 1
Наполе@@ 1
рынок 1
ента@@ 1
стрелковая 1
Берлин@@ 1
испытания 1
стоимо@@ 1
XXI 1
мском 1
тексте 1
риса 1
белый 1
нападения 1
нете 1
раунд 1
1840 1
статистиче@@ 1
АМ@@ 1
исполнял 1
понятие 1
цк 1
зарубе@@ 1
прямоуго@@ 1
цилин@@ 1
каждая 1
Обычно 1
ографи@@ 1
h@@ 0.06585433987587154
Оно 1
переселен@@ 1
обработки 1
Горь@@ 1
пропу@@ 1
округов 1
ряду 1
бежен@@ 1
Жан@@ 1
днем 1
парламент 1
теп@@ 1
Зан@@ 1
зина 1
аз@@ 1
чемпионатах 1
созна@@ 1
Таи@@ 1
лети@@ 1
лидер 1
премия 1
военном 1
Австри@@ 1
кал@@ 1
оркестра 1
фини@@ 1
владение 1
idae 0.317702279651891
танка 1
глоба@@ 1
издан 1
шля@@ 1
ПО 1
Публи@@ 1
зеле@@ 1
ист 1
Луган@@ 1
Обра@@ 1
рабатыва@@ 1
бизне@@ 1
аэропор@@ 1
авторы 1
оборону 1
11@@ 1
Програм@@ 1
пресси@@ 1
ровке 1
аппарата 1
юби@@ 1
паци@@ 1
поездов 1
Ник@@ 1
связ@@ 1
пау@@ 1
Киевской 1
установить 1
экономически 1
лизма 1
Режи@@ 1
полёта 1
Бул@@ 1
третьим 1
убить 1
Фак@@ 1
тацию 1
будущем 1
План@@ 1
больных 1
лаборато@@ 1
обратился 1
признал 1
Кова@@ 1
вызвало 1
Время 1
возбу@@ 1
Жизнь 1
разведывате@@ 1
покров 1
весе 1
объединя@@ 1
хия 1
r 0.15157203561798013
тельной 1
неприя@@ 1
департамент 1
сестры 1
действии 1
мяч 1
сравни@@ 1
International 0.13612546503517978
Осе@@ 1
Ом@@ 1
Зелё@@ 1
расту@@ 1
форси@@ 1
ционное 1
прести@@ 1
тит@@ 1
преподавателем 1
счет 1
мужем 1
своеобраз@@ 1
Джан@@ 1
требования 1
статусом 1
эскадри@@ 1
гвардейского 1
разряде 1
Фут@@ 1
социали@@ 1
нились 1
фунтов 1
спортсме@@ 1
Октябрь@@ 1
избежать 1
иници@@ 1
Спе@@ 1
сского 1
работки 1
Собо@@ 1
композиций 1
аренду 1
май 1
дес@@ 1
мезо@@ 1
яче@@ 1
музыкантов 1
Рели@@ 1
Представ@@ 1
дент@@ 1
сменил 1
спокой@@ 1
святых 1
ённости 1
ниси@@ 1
брат@@ 1
герб 1
валю@@ 1
ир@@ 1
ведь 1
решений 1
льи 1
ночью 1
купа@@ 1
основы 1
столкну@@ 1
листа 1
выле@@ 1
180 1
ис 1
Считается 1
лло 1
живут 1
тельно 1
Благо@@ 1
административным 1
детский 1
пар 1
Бэ@@ 1
моря@@ 1
преподаватель 1
филд 1
хэ@@ 1
ровском 1
управлению 1
al 0.019038049278231533
произво@@ 1
риан@@ 1
Литератур@@ 1
Ефи@@ 1
санд@@ 1
заняв@@ 1
лодки 1
континента@@ 1
Уэль@@ 1
жет 1
стадион 1
изло@@ 1
як 1
гови@@ 1
одеж@@ 1
разработан 1
очередной 1
гимнази@@ 1
евым 1
художником 1
Высшей 1
овладе@@ 1
Вашинг@@ 1
Римской 1
ковом 1
валь@@ 1
Коб@@ 1
чивается 1
кубка 1
тером 1
масте@@ 1
ол@@ 1
Гроз@@ 1
Награждён 1
продолжительной 1
звуко@@ 1
сопротивления 1
дание 1
обмен 1
давления 1
осе@@ 1
10,@@ 1
Ната@@ 1
мали 1
балета 1
корреспондент 1
товые 1
упро@@ 1
Дем@@ 1
Серги@@ 1
концерт 1
эсто@@ 1
карты 1
аэропорта 1
сят 1
стату@@ 1
Литвы 1
классической 1
погибших 1
священника 1
титься 1
сохранить 1
старых 1
Генерального 1
тском 1
хит 1
спект 1
промы@@ 1
сма@@ 1
заключается 1
организован 1
имея 1
ковую 1
Эсто@@ 1
массовой 1
мара@@ 1
транспорт 1
хими@@ 1
Андре 1
начи@@ 1
зов@@ 1
гаться 1
сторонников 1
Буд@@ 1
ох@@ 1
фантастиче@@ 1
опи@@ 1
Давид 1
Максим 1
попере@@ 1
провели 1
зывает 1
играли 1
последующих 1
дис@@ 1
иран@@ 1
проводить 1
молод@@ 1
интересов 1
z 0.11235094177100835
полного 1
Зеландии 1
заплани@@ 1
Река 1
Ход@@ 1
регионального 1
отметить 1
официальный 1
тели 1
основой 1
Мел@@ 1
графом 1
знал 1
медалей 1
фей 1
Андже@@ 1
3000 1
боёв 1
еви@@ 1
критик 1
дю@@ 1
крей@@ 1
рисун@@ 1
акции 1
аспиран@@ 1
нд 1
ауди@@ 1
Спо@@ 1
созданный 1
вспомогате@@ 1
останавли@@ 1
собственную 1
усовершен@@ 1
писание 1
чии 1
Памя@@ 1
Револю@@ 1
частот@@ 1
гона 1
кван@@ 1
at 0.008836772386146684
чо@@ 1
рованию 1
источником 1
эпизод 1
Университете 1
телевидении 1
газ@@ 1
Известно 1
соедин@@ 1
Сток@@ 1
тридц@@ 1
реже 1
Герб 1
Международная 1
В.@@ 1
дифференци@@ 1
СА@@ 1
Аш@@ 1
има 1
важную 1
внедре@@ 1
удержи@@ 1
установил 1
действовал 1
клеточ@@ 1
круга 1
личной 1
Уильяма 1
волост@@ 1
выступление 1
коллектив 1
НК@@ 1
Сот@@ 1
ённому 1
кардина@@ 1
ликвидации 1
рованием 1
выяв@@ 1
казывает 1
герои@@ 1
вверх 1
восточных 1
Рафа@@ 1
бен 1
половину 1
укре@@ 1
мских 1
турни@@ 1
бая 1
певицы 1
Председатель 1
исследователи 1
кция 1
офицер 1
параллельно 1
таком 1
придвор@@ 1
экипаж 1
летию 1
Печ@@ 1
выбран 1
тар 1
греческой 1
Дон 1
радо@@ 1
чиной 1
Народный 1
охраня@@ 1
пройти 1
чество 1
советник 1
тяжело 1
Получил 1
созвездии 1
09 0.8463827600459654
сми@@ 1
отличаются 1
расстоя@@ 1
фортепиано 1
собственный 1
масса 1
товаров 1
нари@@ 1
красный 1
обстре@@ 1
спортсменов 1
лигу 1
построй@@ 1
заведу@@ 1
Хаба@@ 1
коллектива 1
высоким 1
теля 1
ации 1
рабочей 1
храня@@ 1
лину 1
соглашения 1
маршрут 1
лку 1
вынуждены 1
планеты 1
шеб@@ 1
Вене@@ 1
берёт 1
ждая 1
― 1
московского 1
префек@@ 1
доброво@@ 1
Вьетна@@ 1
Бое@@ 1
руководителя 1
Пензен@@ 1
всём 1
элли@@ 1
новыми 1
ьем 1
национальную 1
отличием 1
специального 1
втори@@ 1
веры 1
оболо@@ 1
преимуще@@ 1
яко@@ 1
Божи@@ 1
Сур@@ 1
коман@@ 1
собственного 1
камер@@ 1
подрост@@ 1
отсутствуют 1
Слова@@ 1
балти@@ 1
изуче@@ 1
Стэн@@ 1
Цвет@@ 1
зимних 1
постро@@ 1
Иванов 1
чарте 1
попала 1
трижды 1
совхоза 1
стского 1
фур@@ 1
бронзовую 1
обеспечивает 1
Смо@@ 1
заведующим 1
комиссия 1
гие 1
предстоя@@ 1
рассказыва@@ 1
оси 1
травмы 1
гау@@ 1
плацдар@@ 1
пособи@@ 1
конферен@@ 1
1.@@ 0.36138881209258267
Запад@@ 1
восточного 1
общин 1
сельской 1
сюжет 1
медицинского 1
национали@@ 1
секунд 1
больной 1
трансли@@ 1
Уль@@ 1
крупным 1
Правительства 1
волны 1
ноги 1
ГДР 1
золотую 1
количеством 1
греческого 1
тока 1
рого 1
видно 1
13,@@ 1
птицы 1
медалями 1
придержи@@ 1
вертолё@@ 1
многими 1
разно@@ 1
чемпиона@@ 1
200@@ 1
проживал 1
публике 1
коротко@@ 1
боли@@ 1
привы@@ 1
тел@@ 1
моди@@ 1
см. 1
оригинальной 1
фронтах 1
требуется 1
Элизабет 1
стройка 1
Ап@@ 1
​ 1
Вологодской 1
Аба@@ 1
Рязан@@ 1
емости 1
мячей 1
победа 1
ида 1
наблюдения 1
тиями 1
набор 1
описывает 1
Сирии 1
Антон 1
вопросов 1
произошёл 1
включена 1
отдельный 1
подписа@@ 1
имело 1
детьми 1
необходимость 1
зади 1
разрешение 1
сайт 1
Оба 1
тти 1
Башкортостан 1
Яков 1
лучшие 1
положительно 1
Территория 1
набрал 1
постоянного 1
евском 1
жир@@ 1
давно 1
Команд@@ 1
Особен@@ 1
07 0.9063416355837097
проведена 1
er@@ 0.04197763086862837
Све@@ 1
первенства 1
геологи@@ 1
каза 1
примени@@ 1
муче@@ 1
няк 1
капе@@ 1
эко@@ 1
5,@@ 0.9677211780824972
видимому 1
интеллекту@@ 1
рита 1
Воору@@ 1
негатив@@ 1
Awards 0.28874523466872104
Румы@@ 1
младшего 1
центров 1
гали 1
мур@@ 1
лога 1
оке@@ 1
повышения 1
Тони 1
Подо@@ 1
Цин@@ 1
затра@@ 1
монаше@@ 1
последнем 1
хал@@ 1
вопло@@ 1
колледже 1
ьо 1
Сейчас 1
кулы 1
полосы 1
атором 1
тино 1
насы@@ 1
одежды 1
коэффици@@ 1
лауреат 1
родном 1
случайно 1
предпочита@@ 1
каде@@ 1
Фун@@ 1
советская 1
Мос@@ 1
вооружения 1
ванным 1
адъю@@ 1
новому 1
Марти@@ 1
токси@@ 1
боеви@@ 1
какие 1
Гран@@ 1
Зим@@ 1
пенсию 1
суток 1
тиях 1
лд 1
видел 1
оде@@ 1
вспы@@ 1
рубежом 1
корреспонден@@ 1
муж 1
передана 1
ископа@@ 1
войско 1
репресси@@ 1
столетия 1
вот 1
Большое 1
Зай@@ 1
мощности 1
опти@@ 1
Бёр@@ 1
Киевского 1
бия 1
сотрудником 1
Берлин 1
депо 1
моделей 1
ване 1
ТЭ@@ 1
жур@@ 1
построил 1
монта@@ 1
проходила 1
Управления 1
полноцен@@ 1
прояв@@ 1
морфо@@ 1
обращения 1
картину 1
погру@@ 1
психологии 1
слави@@ 1
зий 1
сторона 1
рыб 1
украинского 1
вышло 1
госпит@@ 1
технической 1
стади@@ 1
гат 1
Тат@@ 1
чьи 1
Нем@@ 1
зию 1
Сор@@ 1
проведение 1
планет@@ 1
Дет@@ 1
туристи@@ 1
эваку@@ 1
чко 1
нейшие 1
Y 0.38356440869636715
больницы 1
1858 1
коммента@@ 1
вернулись 1
выступили 1
лики 1
украинской 1
покину@@ 1
фро@@ 1
глаз 1
03 1
сосредото@@ 1
кола 1
виру@@ 1
описал 1
орден 1
переименована 1
казни 1
предполо@@ 1
Артур 1
Ирина 1
кора@@ 1
отмечал 1
католической 1
мирового 1
участвует 1
вку@@ 1
Германию 1
астро@@ 1
дерева 1
Успен@@ 1
баскетбо@@ 1
племени 1
сотрудничества 1
юга 1
совокуп@@ 1
тюрьме 1
огне@@ 1
деревень 1
означа@@ 1
Барсе@@ 1
Эти@@ 1
нат@@ 1
Рен@@ 1
фигури@@ 1
хоккею 1
исследователей 1
вперёд 1
переход@@ 1
судна 1
чков 1
пович 1
разъ@@ 1
лано 1
получают 1
Побе@@ 1
Коммунистиче@@ 1
квалифици@@ 1
Алекса 1
уступив 1
четыре@@ 1
пьесы 1
предше@@ 1
Христи@@ 1
печ@@ 1
Министер@@ 1
• 0.955728573996308
пространстве 1
религиозных 1
дском 1
носа 1
похода 1
DVD 0.5868719600344471
горно@@ 1
муля@@ 1
обладателем 1
надпис@@ 1
То 1
властями 1
математики 1
эска@@ 1
дизе@@ 1
кас 1
концепции 1
актёра 1
турниров 1
опира@@ 1
серти@@ 1
ВИ@@ 1
занимались 1
Илья 1
Сухо@@ 1
Яковлевич 1
использовании 1
теме 1
характеризу@@ 1
125 1
Египта 1
важных 1
вета 1
опол@@ 1
облож@@ 1
Дону 1
Спар@@ 1
шева 1
эли@@ 1
ани@@ 1
зай@@ 1
рови@@ 1
захватил 1
страи@@ 1
знаком 1
Политическая 1
просмот@@ 1
независимо 1
Таджи@@ 1
сотрудничество 1
называлась 1
стихов 1
изделий 1
помещения 1
ГУ@@ 1
официальной 1
сказать 1
рабочий 1
сочинений 1
Никола 1
занятия 1
серебряную 1
кримина@@ 1
союзников 1
Дона@@ 1
РП 1
Свет@@ 1
академик 1
Love 0.3719635585580851
недавно 1
вниз 1
севернее 1
низу 1
мужской 1
Работа 1
Успе@@ 1
теран@@ 1
атах 1
база 1
словами 1
финансов 1
кают 1
ствование 1
вающий 1
заи@@ 1
спон@@ 1
Q@@ 0.220626359993593
выступали 1
Красная 1
предоста@@ 1
хорват@@ 1
Док@@ 1
даль 1
картине 1
el@@ 0.05041918538683017
немедленно 1
эстафете 1
Насел@@ 1
Меди@@ 1
самоуправления 1
Деятельность 1
улицу 1
Пьер 1
архиепископ 1
тинского 1
Дети 1
возоб@@ 1
трет@@ 1
дки 1
съёмки 1
Евгения 1
уничтожил 1
аренды 1
судно 1
Шам@@ 1
гам@@ 1
другу 1
деятелей 1
сооружений 1
Администра@@ 1
диссерта@@ 1
заповед@@ 1
видение 1
достигла 1
350 1
ель 1
напада@@ 1
встрече 1
льница 1
неодно@@ 1
услуги 1
СК@@ 1
предметов 1
комик@@ 1
литера@@ 1
Хра@@ 1
ролей 1
чих 1
навод@@ 1
Аэро@@ 1
пулем@@ 1
трудов 1
ссий 1
иеро@@ 1
собрал 1
представителем 1
учителя 1
ic@@ 0.10897220939557523
чкой 1
жителями 1
опубликован 1
семинарии 1
онер@@ 1
оре 1
душ 1
жами 1
губернатором 1
формат@@ 1
нала@@ 1
поведение 1
1800 1
Семи@@ 1
количеству 1
28@@ 1
ПК 1
граница 1
инструментов 1
лке 1
ленно 1
дис 1
Днепропетро@@ 1
блока 1
металлурги@@ 1
Закон 1
готовил 1
такая 1
немцы 1
являлось 1
12,@@ 1
упразднён 1
комедии 1
романе 1
крупного 1
неф@@ 1
обвинения 1
обстанов@@ 1
вши@@ 1
подве@@ 1
родом 1
Вашингтон 1
Смоленской 1
пострада@@ 1
использовалась 1
изуч@@ 1
Производство 1
кера 1
преобразован 1
ставший 1
Много@@ 1
ближе 1
зам 1
кову 1
источник 1
учёбы 1
существовала 1
власт@@ 1
основатель 1
тиков 1
мероприятия 1
разрешения 1
построить 1
Византи@@ 1
Рок@@ 1
фильму 1
08 0.8119088259573237
Ибра@@ 1
уль@@ 1
необ@@ 1
готов 1
Восточно 1
левых 1
границах 1
семьёй 1
пещер@@ 1
сдел@@ 1
четы@@ 1
Богда@@ 1
Команда 1
Центральный 1
возникла 1
возвышенности 1
лейтенан@@ 1
желание 1
продю@@ 1
Дмитрия 1
приобрёл 1
эля 1
собственно 1
04 0.8576498030964622
Вооружённых 1
белого 1
мба@@ 1
инженера 1
служили 1
Пушкина 1
водохранилища 1
пале@@ 1
хищ@@ 1
появление 1
юниор@@ 1
допуска@@ 1
статья 1
взвода 1
границей 1
системати@@ 1
композитора 1
Обу@@ 1
портрет 1
105 1
Смерть 1
INSEE 1
культур 1
Екатерины 1
Виктора 1
говых 1
желу@@ 1
заканчи@@ 1
молодого 1
направи@@ 1
Груп@@ 1
друж@@ 1
горах 1
рейтинге 1
бизнеса 1
самбле@@ 1
обл 1
современные 1
зачёте 1
Нижний 1
повести 1
переулок 1
золота 1
АС@@ 1
идею 1
действуют 1
конкурс 1
водят 1
имущества 1
ллера 1
прибре@@ 1
приз 1
поселений 1
степной 1
присутствует 1
Польша 1
мага@@ 1
мысли 1
Синг@@ 1
фундамента@@ 1
девушка 1
задача 1
Матве@@ 1
обеспечение 1
05 0.8344959118857467
мени 1
мигран@@ 1
казом 1
Казани 1
произошла 1
статуса 1
малых 1
тельные 1
альбомом 1
турецкой 1
циона@@ 1
Брат@@ 1
Каро@@ 1
Гарри 1
Пана@@ 1
Вест@@ 1
Тверской 1
церквей 1
шле@@ 1
Эле@@ 1
Меж@@ 1
бери 1
совхо@@ 1
тис 1
версий 1
лик@@ 1
адмирала 1
Мето@@ 1
борьба 1
становился 1
двигателей 1
неж@@ 1
представителями 1
календар@@ 1
сценарий 1
Майк@@ 1
Мала@@ 1
дное 1
льскую 1
специальные 1
страда@@ 1
рассказ 1
губ@@ 1
предупре@@ 1
щину 1
голосования 1
газе@@ 1
удив@@ 1
депутат@@ 1
федерального 1
сереб@@ 1
вмешате@@ 1
несён 1
тат 1
упразд@@ 1
привести 1
капитаном 1
сели@@ 1
бя@@ 1
лига 1
ВМС 1
блестя@@ 1
масшта@@ 1
хвосто@@ 1
Вод@@ 1
крае 1
консервати@@ 1
подобного 1
сина 1
тёмно 1
бру@@ 1
тёп@@ 1
йну 1
королевы 1
религи@@ 1
нибудь 1
согласо@@ 1
1857 1
неров 1
Гэ@@ 1
аниме 1
Вз@@ 1
лили 1
14@@ 0.8394097492242257
Сегодня 1
образуют 1
другую 1
хара 1
ког@@ 1
социального 1
Кристи@@ 1
жался 1
11,@@ 1
оранже@@ 1
Крем@@ 1
гоно@@ 1
топоним 1
реабили@@ 1
дино@@ 1
присвое@@ 1
управлении 1
художественного 1
11.@@ 1
Корне@@ 1
приспособ@@ 1
Уру@@ 1
диска 1
сделали 1
сочинения 1
характеризо@@ 1
моменту 1
флага 1
заре@@ 1
летий 1
рину 1
творчестве 1
ущер@@ 1
Южный 1
определить 1
тью 1
подчер@@ 1
тация 1
термо@@ 1
яро@@ 1
посет@@ 1
совете 1
лз 1
образована 1
увиде@@ 1
иконы 1
природе 1
m@@ 0.06275769177560886
Парла@@ 1
написа@@ 1
средних 1
фикси@@ 1
предметы 1
Предполага@@ 1
Извест@@ 1
опять 1
лато@@ 1
нидерланд@@ 1
пам 1
J 0.3484995744881198
отряды 1
попытался 1
окси@@ 1
воинов 1
Рот@@ 1
Иосиф 1
обучался 1
фестива@@ 1
инский 1
рациона@@ 1
профессионального 1
гы@@ 1
02 0.9866085210104188
костью 1
формой 1
шат@@ 1
техника 1
лидер@@ 1
приду@@ 1
чемпионка 1
отря@@ 1
галакти@@ 1
ведущий 1
подход 1
сколь@@ 1
Перу 1
ур 1
ковыми 1
мужчина 1
ительства 1
музыкант 1
надпись 1
лар 1
изучению 1
свобо@@ 1
ввиду 1
жок 1
зону 1
неожиданно 1
социация 1
гено@@ 1
современный 1
занять 1
Яко@@ 1
охла@@ 1
Мастер 1
емыми 1
отрица@@ 1
граничит 1
Тома@@ 1
адре@@ 1
местном 1
интересы 1
аппарат 1
диск 1
тюрьму 1
упоминание 1
описания 1
похи@@ 1
сена@@ 1
шири@@ 1
рыбо@@ 1
Заха@@ 1
18,@@ 1
влюб@@ 1
ею 1
мастеров 1
властью 1
посмертно 1
Каме@@ 1
Ch@@ 0.06879641061495878
художественных 1
возможным 1
жит 1
промежуточ@@ 1
беремен@@ 1
Грод@@ 1
Станция 1
подлин@@ 1
располагался 1
хит@@ 1
Фла@@ 1
Мест@@ 1
жье 1
ночи 1
градского 1
произошед@@ 1
отноше@@ 1
серебряный 1
осман@@ 1
Исла@@ 1
дополнительные 1
провер@@ 1
пого@@ 1
тюрьмы 1
левому 1
лидера 1
немецкие 1
папа 1
сит 1
Йор@@ 1
Хоро@@ 1
двиг 1
траге@@ 1
исторические 1
Re@@ 0.08862201576599223
очка 1
прилега@@ 1
опубликована 1
передо@@ 1
АК 1
архиеписко@@ 1
генеральный 1
населённого 1
Такие 1
помощник 1
Фан@@ 1
Фра@@ 1
Нижняя 1
Hot 0.6372481028730682
бол@@ 1
тяжёлой 1
Анджелесе 1
Да 1
лениям 1
неизвестно 1
клуб@@ 1
офице@@ 1
дец 1
немец@@ 1
меда 1
центрального 1
зали 1
Герман@@ 1
Суво@@ 1
требова@@ 1
дожд@@ 1
Фро@@ 1
бесс@@ 1
соединений 1
хим 1
идей 1
изве@@ 1
тины 1
ап@@ 1
коллекти@@ 1
ченным 1
шевского 1
4,5 1
диску@@ 1
еврейской 1
сбли@@ 1
лины 1
хранения 1
изучение 1
выпущенный 1
Первого 1
хам@@ 1
женная 1
национальном 1
предска@@ 1
дебютный 1
мари@@ 1
состоят 1
веб 1
Работы 1
предложения 1
март 1
перевоз@@ 1
странами 1
лле 1
Луис 1
r@@ 0.05078702658652953
создали 1
зывая 1
законов 1
льника 1
Азербайджанской 1
переговоров 1
селения 1
груп@@ 1
Статус 1
жном 1
дое 1
игроки 1
согласи@@ 1
хран@@ 1
отро@@ 1
чёв 1
Флорен@@ 1
менко 1
способом 1
импуль@@ 1
музыканты 1
Конституции 1
шах 1
ассистен@@ 1
данная 1
ционную 1
ревизи@@ 1
растение 1
стати@@ 1
другая 1
Иван@@ 1
пка 1
сде@@ 1
запас 1
1855 1
27@@ 0.9413562924450951
позиций 1
движ@@ 1
раннего 1
фен@@ 1
Узбекистана 1
Христо@@ 1
фру@@ 1
Русского 1
прив@@ 1
боров 1
льд@@ 1
Третий 1
быст@@ 1
дорогу 1
езде 1
атый 1
искусстве 1
Думы 1
ВМФ 1
ете 1
Востоке 1
ническим 1
успехи 1
щё@@ 1
стры 1
Ск@@ 1
яи@@ 1
иначе 1
продолжали 1
v@@ 0.07513652202035391
обнаружил 1
четвёртый 1
проявленные 1
дзю@@ 1
Кю@@ 1
арген@@ 1
гиль@@ 1
сезон@@ 1
j@@ 0.06965913948799153
гиб@@ 1
довое 1
фин 1
дзи 1
земля 1
льников 1
испытаний 1
ловича 1
оружием 1
поколе@@ 1
поряд@@ 1
участки 1
один@@ 1
Амур@@ 1
шей@@ 1
цели@@ 1
нера@@ 1
плаз@@ 1
Дай@@ 1
Иоганн 1
пришла 1
en 0.002877284877006069
реперту@@ 1
зур@@ 1
опубликованы 1
воздушной 1
графов 1
спла@@ 1
связей 1
узла 1
Апол@@ 1
Бога 1
бак@@ 1
инспе@@ 1
Председате@@ 1
англ 1
матика 1
Архангель@@ 1
Патриар@@ 1
зачастую 1
отдельной 1
зать 1
25@@ 1
тара 1
художеств 1
Гот@@ 1
гром@@ 1
неве@@ 1
испанский 1
Министров 1
900 1
держится 1
найдены 1
Генерал 1
вокали@@ 1
Нидерланд@@ 1
министерства 1
новок 1
удаётся 1
Гле@@ 1
зацию 1
критике 1
гим@@ 1
жества 1
Мир 1
сун@@ 1
цена 1
Англи@@ 1
исче@@ 1
жанра 1
административному 1
Хорватии 1
командующим 1
адрес 1
Ито@@ 1
ывали 1
государством 1
обру@@ 1
атаку 1
ветви 1
словно 1
ляя 1
нар 1
Грин@@ 1
Афгани@@ 1
Бориса 1
вырос 1
оставля@@ 1
ленко 1
урав@@ 1
Постановлением 1
ствующих 1
эмигри@@ 1
Маха@@ 1
кратер 1
летнем 1
биты 1
Entertainment 0.5902330227565422
капиту@@ 1
китайской 1
астеро@@ 1
Канада 1
Нижне@@ 1
текстов 1
Бота@@ 1
челю@@ 1
1849 1
сказа@@ 1
Человек 1
рави@@ 1
скро@@ 1
Дис@@ 1
Спартак 1
породы 1
1829 1
Чар@@ 1
высокую 1
промышленных 1
боже@@ 1
определение 1
военнослужащих 1
поведения 1
Тюмен@@ 1
просит 1
Me 0.44392050029070496
девушки 1
сыну 1
факты 1
берг@@ 1
назем@@ 1
h 0.08391039990131238
Марка 1
чатые 1
взаимодействия 1
традиционно 1
давление 1
разработал 1
принадлежал 1
точек 1
советов 1
сотрудни@@ 1
господ@@ 1
батареи 1
митрополит 1
ёра 1
Моро@@ 1
ами 1
смертью 1
бар 1
участво@@ 1
попытка 1
тские 1
6,@@ 1
отличия 1
фрак@@ 1
Тон@@ 1
Граждан@@ 1
тракто@@ 1
выставка 1
тема 1
зар 1
принадлежав@@ 1
вку 1
уступил 1
грун@@ 1
нашли 1
уйти 1
кубок 1
атели 1
мече@@ 1
фера 1
Бю@@ 1
умира@@ 1
ткани 1
Пресвятой 1
кадров 1
Дву@@ 1
Григо@@ 1
исполнил 1
Исполь@@ 1
водя@@ 1
прор@@ 1
жер@@ 1
славя@@ 1
функция 1
Закон@@ 1
Армян@@ 1
лошадей 1
жертв 1
представление 1
производится 1
ере 1
заняв 1
прием@@ 1
течения 1
испо@@ 1
кторы 1
Бла@@ 1
l@@ 0.0493812240920322
Сре@@ 1
Чемпион 1
подал 1
Управление 1
новения 1
тщате@@ 1
Времен@@ 1
инской 1
красного 1
обитания 1
вещания 1
вирту@@ 1
мотивам 1
06 0.8299597630887124
Вене 1
изменение 1
друже@@ 1
Цент@@ 1
Новые 1
Лью@@ 1
Липе@@ 1
Принимал 1
гарни@@ 1
Динамика 1
вица 1
оставить 1
немецкими 1
кандидатскую 1
стере@@ 1
вная 1
испытате@@ 1
Астрахан@@ 1
26@@ 0.8894202498158236
единицы 1
переименова@@ 1
жих 1
пейза@@ 1
Художе@@ 1
работник 1
письме 1
регионах 1
Петербургского 1
перекры@@ 1
продли@@ 1
буд@@ 1
Бой@@ 1
Ирана 1
гомосексу@@ 1
представляли 1
снабжения 1
Мексики 1
става 1
Верхне@@ 1
TV 0.15579952631051214
сите@@ 1
codice 1
Мише@@ 1
равни@@ 1
мероприятий 1
or 0.01515101001629937
Уч@@ 1
продемонстри@@ 1
констру@@ 1
сравнительно 1
ЕС 1
императри@@ 1
отыгра@@ 1
Четы@@ 1
el 0.005242546121736205
переправ@@ 1
жала 1
логических 1
землетря@@ 1
яйце@@ 1
кине 1
индустри@@ 1
армий 1
Хуан 1
Леон@@ 1
закрыт 1
перви@@ 1
карти@@ 1
перене@@ 1
Новгородской 1
Риг@@ 1
мю@@ 1
ремонт 1
ющееся 1
Александром 1
облег@@ 1
Днепр 1
лири@@ 1
перечислен@@ 1
сотрудничестве 1
рене@@ 1
учёбу 1
найден@@ 1
обслуживания 1
священник 1
Всеволо@@ 1
заданий 1
авторите@@ 1
лакти@@ 1
Чехословакии 1
палаты 1
столицу 1
Классификация 1
жском 1
гс 1
отъ@@ 1
поддерживает 1
Британской 1
Кап@@ 1
Распо@@ 1
Стефа@@ 1
сский 1
отказаться 1
нологии 1
бека 1
вещи 1
достовер@@ 1
хина 1
режисс@@ 1
обращение 1
Особ@@ 1
строить 1
торами 1
опыта 1
заболевания 1
правед@@ 1
башня 1
ционном 1
Отто 1
Сталина 1
этими 1
Народной 1
сохранилось 1
Турк@@ 1
единственной 1
аторов 1
перепи@@ 1
контин@@ 1
ывала 1
ьёв 1
Моги@@ 1
даты 1
рождение 1
метрии 1
Победы 1
актёров 1
прихо@@ 1
больнице 1
РС@@ 1
низация 1
штейна 1
Шевченко 1
суде 1
оставив 1
близости 1
Рима 1
сердца 1
тям 1
Times 0.3438261192516033
британских 1
учётом 1
экземпля@@ 1
ате 1
варда 1
любого 1
Брэ@@ 1
него@@ 1
Соревнования 1
милиции 1
пребы@@ 1
департа@@ 1
цветов 1
сферы 1
хами 1
муниципалите@@ 1
тинг 1
кци@@ 1
Хмельни@@ 1
Крон@@ 1
кули@@ 1
называемый 1
заметно 1
превышает 1
La 0.016627858667137316
предыдущих 1
Юрия 1
ава@@ 1
песней 1
трех@@ 1
гун 1
замены 1
бс 1
страна 1
15,@@ 1
испове@@ 1
усилия 1
Отли@@ 1
переселе@@ 1
отва@@ 1
машина 1
рот 1
Латви@@ 1
вечер@@ 1
законом 1
поезд 1
расположенных 1
ренно 1
сцен@@ 1
холо@@ 1
гают 1
влаж@@ 1
наблюдается 1
оппозиции 1
ренный 1
демоби@@ 1
дёт 1
Патри@@ 1
Том 1
ситуа@@ 1
расширя@@ 1
нан 1
зритель@@ 1
железная 1
лесах 1
лесу 1
позволяют 1
схват@@ 1
чрезвычайно 1
or@@ 0.05617239515075808
Кристо@@ 1
емом 1
стойчи@@ 1
Двор@@ 1
Башкир@@ 1
резо@@ 1
1854 1
группами 1
главно@@ 1
особого 1
чувств@@ 1
Новое 1
патрио@@ 1
снял 1
куб@@ 1
школах 1
Будапеш@@ 1
Джорджа 1
гражданских 1
государственные 1
упор@@ 1
французском 1
душу 1
планировалось 1
привела 1
глубине 1
мероприя@@ 1
der 0.003268048013783927
выходил 1
1853 1
Поз@@ 1
Суще@@ 1
метода 1
Восток 1
авиационный 1
гражданского 1
приём@@ 1
навы@@ 1
ковое 1
тексты 1
Вселе@@ 1
Максима@@ 1
грузки 1
ванное 1
изготавли@@ 1
существовало 1
захватили 1
гут 1
Бела@@ 1
кистана 1
согласился 1
терапии 1
госпо@@ 1
мюзи@@ 1
насекомых 1
палу@@ 1
футбольной 1
вита@@ 1
монии 1
йд 1
общих 1
американским 1
чала 1
ясно 1
задачей 1
вторжения 1
Рес@@ 1
оценке 1
кове@@ 1
Вместо 1
старого 1
итальянского 1
подразделений 1
динг 1
купи@@ 1
выпущено 1
Аргентины 1
емо@@ 1
тим 1
Внутрен@@ 1
тивное 1
правому 1
ровок 1
несен@@ 1
отправляется 1
Лё@@ 1
молекуляр@@ 1
обороне 1
Ель@@ 1
образованием 1
лор 1
плот@@ 1
трассе 1
шись 1
сана 1
украинских 1
вытяну@@ 1
тового 1
кия 1
щают 1
документах 1
зоо@@ 1
задержа@@ 1
горе 1
детских 1
структур@@ 1
фия 1
Фридриха 1
тече@@ 1
считался 1
инженером 1
заявила 1
Ог@@ 1
жную 1
заседании 1
назначение 1
40@@ 0.992410699063263
CD 0.32605487790517157
Лондон@@ 1
Лис@@ 1
Колумбии 1
прокура@@ 1
тормо@@ 1
весовой 1
справа 1
земля@@ 1
ВО 1
решила 1
смот@@ 1
попытку 1
английской 1
ливо@@ 1
цер@@ 1
присоедин@@ 1
ерс 1
РП@@ 1
сердце 1
существовал 1
рядах 1
брать@@ 1
Могилё@@ 1
дело@@ 1
стия 1
.-@@ 1
татах 1
зрев@@ 1
срока 1
диссертации 1
постоянной 1
фаши@@ 1
разработку 1
Количество 1
возможных 1
укры@@ 1
ату 1
Соко@@ 1
саунд@@ 1
сбора 1
голоса 1
молодёжной 1
офицера 1
коно@@ 1
подобные 1
репу@@ 1
адап@@ 1
Константина 1
Центральная 1
доля 1
Советов 1
посред@@ 1
северо@@ 1
шев@@ 1
американцев 1
Англия 1
Бюро 1
ica 0.1514167453221915
строен 1
Великая 1
заключил 1
вычисли@@ 1
доче@@ 1
млекопита@@ 1
железных 1
шал@@ 1
лучшую 1
Господ@@ 1
военная 1
Абха@@ 1
Викторович 1
графической 1
Евре@@ 1
образовании 1
принадлежат 1
выиграть 1
расположение 1
симметри@@ 1
жке 1
королевской 1
попадает 1
разы@@ 1
основная 1
окруж@@ 1
серви@@ 1
едва 1
минуты 1
просьбой 1
Энер@@ 1
выбро@@ 1
мастерской 1
бесконе@@ 1
Западная 1
Россией 1
Симферо@@ 1
аргу@@ 1
13@@ 0.7472987565028135
ительница 1
Сборная 1
анных 1
ребён@@ 1
юниоров 1
газ 1
Испа@@ 1
Мати@@ 1
рили 1
переходит 1
распространены 1
регистра@@ 1
Габри@@ 1
подчиня@@ 1
Неф@@ 1
Ази@@ 1
услы@@ 1
шенных 1
Вячеслав 1
практики 1
мата 1
напол@@ 1
попали 1
Шве@@ 1
en@@ 0.03205988007052393
пожа@@ 1
Курган@@ 1
Советский 1
представил 1
степ@@ 1
дации 1
лицом 1
сие 1
симпто@@ 1
врача 1
серий 1
спасти 1
Форму@@ 1
иных 1
Япон@@ 1
рский 1
псевдонимом 1
троллейбу@@ 1
орбит@@ 1
солдаты 1
войско@@ 1
почему 1
Виктория 1
Битва 1
сегодняшний 1
значительную 1
иерар@@ 1
лаго@@ 1
говая 1
частями 1
сентябрь 1
Матери 1
беге 1
колеба@@ 1
ракет 1
действовали 1
развитием 1
трон 1
общую 1
щиеся 1
16,@@ 1
учёные 1
меньшей 1
базу 1
выйдя 1
прер@@ 1
член@@ 1
юно@@ 1
вавшие 1
хам 1
ФРГ 1
известными 1
пассажи@@ 1
руководителей 1
позна@@ 1
конфи@@ 1
дую 1
Минск 1
возникает 1
сражение 1
забра@@ 1
Дома 1
авиационной 1
чёрный 1
казате@@ 1
летие 1
содержат 1
классу 1
Виталий 1
Констан@@ 1
Ташкен@@ 1
захватить 1
Гё@@ 1
лейбле 1
al@@ 0.04235067711670584
успел 1
камень 1
скота 1
наты 1
основанный 1
голос 1
подразделение 1
Млад@@ 1
поез@@ 1
журналистов 1
жская 1
праве 1
бища 1
метал 1
Лоу@@ 1
ведя 1
принц 1
Старший 1
сат@@ 1
инвали@@ 1
разруш@@ 1
станской 1
слабы@@ 1
возник 1
высад@@ 1
Им 1
МО@@ 1
улицей 1
Малая 1
онлайн 1
Пь@@ 1
передать 1
Османской 1
5000 1
старой 1
серебро 1
учиться 1
разновид@@ 1
скоп 1
Япония 1
загряз@@ 1
общине 1
серебряным 1
отказались 1
Административное 1
одноимённого 1
происходя@@ 1
просвет@@ 1
группировки 1
журналов 1
народный 1
Московская 1
Иоан@@ 1
Метал@@ 1
спектра@@ 1
Стру@@ 1
скоростью 1
Систе@@ 1
эмоциона@@ 1
горь@@ 1
совых 1
польских 1
помогает 1
эф@@ 1
Маро@@ 1
жюри 1
уво@@ 1
бронзовый 1
оккупа@@ 1
стыми 1
принцип 1
Англию 1
рейтинг 1
уходит 1
эпизодов 1
палат@@ 1
сознания 1
Ии@@ 1
Джеймса 1
оч@@ 1
ответственность 1
заявление 1
верх 1
лизация 1
неже@@ 1
Ленинграда 1
Ште@@ 1
рованными 1
слева 1
Скотт 1
композиция 1
хово 1
ави@@ 1
главные 1
Жю@@ 1
городское 1
ющимися 1
души 1
общин@@ 1
Сель@@ 1
популярной 1
аспек@@ 1
обладают 1
виль 1
публикаций 1
статистический 1
усло@@ 1
лечеб@@ 1
играют 1
Юли@@ 1
1852 1
миль@@ 1
равна 1
сахар@@ 1
смен 1
оки@@ 1
учреждение 1
Неа@@ 1
вуд 1
прито@@ 1
фильмом 1
японский 1
спортивных 1
изы 1
символом 1
in@@ 0.030264941833651377
тюре@@ 1
фракции 1
ключ@@ 1
продукты 1
исполнителей 1
привлек@@ 1
директоров 1
еле@@ 1
сверху 1
медици@@ 1
патро@@ 1
лондон@@ 1
фии 1
Расположено 1
1820 0.919199488458972
акту@@ 1
предвод@@ 1
императором 1
разным 1
бойцов 1
секции 1
неактивных 1
месте@@ 1
наль@@ 1
журналах 1
сосредоточ@@ 1
взяли 1
магистра 1
сохранения 1
чники 1
одиночном 1
ориента@@ 1
самолёты 1
ствующие 1
Теперь 1
немецком 1
1842 1
жаются 1
оппози@@ 1
фабрики 1
евская 1
привёл 1
вас 1
ленном 1
свободного 1
сыр@@ 1
Пове@@ 1
казачь@@ 1
ковка 1
дев 1
ографии 1
дта 1
царства 1
отдельно 1
Лор@@ 1
варьи@@ 1
июль 1
изображением 1
ист@@ 1
созы@@ 1
Голь@@ 1
вени@@ 1
выдающиеся 1
сельском 1
благодар@@ 1
нять 1
англо@@ 1
идеологи@@ 1
истока 1
ховского 1
лливу@@ 1
заменя@@ 1
назывался 1
взаим@@ 1
делится 1
немецким 1
поступила 1
качество 1
Род 1
шкин 1
Кировской 1
песне 1
Звезды 1
as 0.004748065220078396
диаметром 1
пина 1
скопи@@ 1
христи@@ 1
дз@@ 1
Джованни 1
лекси@@ 1
мнения 1
назвали 1
рыбы 1
баллов 1
кинского 1
располагались 1
американцы 1
сути 1
двою@@ 1
мигрантов 1
привя@@ 1
Край@@ 1
оча@@ 1
Ким 1
льна 1
прокуро@@ 1
ительном 1
тях 1
Структура 1
десятков 1
рун@@ 1
Остров 1
доба@@ 1
игрой 1
ляться 1
теорию 1
титула 1
варь 1
маться 1
суди@@ 1
верши@@ 1
дерево 1
поддерживал 1
министер@@ 1
видеть 1
встречу 1
стских 1
вои@@ 1
шка@@ 1
пород 1
современном 1
прозвище 1
Джонс 1
Имя 1
Франциско 1
нино 1
чному 1
кури@@ 1
подполь@@ 1
Чарль@@ 1
Общие 1
жаться 1
намного 1
заимство@@ 1
чисел 1
представителя 1
Досто@@ 1
барабан@@ 1
освобождён 1
пенсионерами 1
флоти@@ 1
натов 1
официального 1
приказом 1
пал 1
1834 1
отры@@ 1
избирателей 1
оттуда 1
Роб@@ 1
колё@@ 1
фаса@@ 1
Горького 1
первыми 1
Вну@@ 1
Шей@@ 1
легендар@@ 1
нарушения 1
легкоат@@ 1
новская 1
образованию 1
послан@@ 1
Солов@@ 1
кристаллы 1
контролем 1
Алма 1
пример 1
ярко 1
ступлении 1
фигуры 1
политическая 1
промышленность 1
Ори@@ 1
февра@@ 1
адво@@ 1
таун@@ 1
древе@@ 1
Павлов@@ 1
размеров 1
прошлого 1
счан@@ 1
стина 1
прида@@ 1
Егип@@ 1
наши 1
четырьмя 1
исполни@@ 1
отказ 1
частной 1
годно 1
ёл@@ 1
итальянской 1
ровой 1
слой 1
органа 1
мурав@@ 1
свин@@ 1
строи@@ 1
иско@@ 1
лице 1
Молдавии 1
широкое 1
Король 1
крестьянских 1
железнодорожного 1
Республи@@ 1
Microsoft 0.8501428698134181
алфав@@ 1
расте@@ 1
НХЛ 1
ЮАР 1
иной 1
тяж@@ 1
Продолж@@ 1
вселе@@ 1
дворце 1
нс 1
бке 1
образца 1
170 1
Испания 1
оглы 1
вещание 1
Крыму 1
напоминает 1
Препода@@ 1
купил 1
Продол@@ 1
мили 1
полуфинале 1
тони 1
щуюся 1
мов@@ 1
чечен@@ 1
местность 1
14,@@ 1
тину 1
Бернар@@ 1
социа@@ 1
рийского 1
сезо@@ 1
Запа@@ 1
Комсомо@@ 1
Company 0.17625365173424584
формации 1
профессиональной 1
чай 1
возгла@@ 1
Ата@@ 1
вке 1
геральди@@ 1
десятилетия 1
емость 1
формате 1
всемир@@ 1
сюжета 1
химических 1
Свято@@ 1
сельскохозяйственных 1
35@@ 1
написаны 1
Уча@@ 1
разработа@@ 1
Франк@@ 1
СНГ 1
князей 1
1814 1
газет@@ 1
Западном 1
Бл@@ 1
тике 1
каким 1
супруги 1
районом 1
римского 1
ристов 1
См. 1
скульптуры 1
Ж 1
бывшая 1
курор@@ 1
технике 1
кризиса 1
полномочия 1
биологии 1
хау@@ 1
Киева 1
проходя@@ 1
ослож@@ 1
Вороне@@ 1
плён@@ 1
получивший 1
землях 1
казах@@ 1
мология 1
Образо@@ 1
бывает 1
местный 1
нце 1
1,2 1
Геннадий 1
жник 1
Ивановна 1
эквивален@@ 1
личным 1
МТ@@ 1
пес@@ 1
Эф@@ 1
лост@@ 1
отрасли 1
командо@@ 1
ночных 1
подчин@@ 1
оркестр 1
an@@ 0.03684392087691614
металлов 1
еврейского 1
80@@ 1
сило@@ 1
Джек 1
политическим 1
поступа@@ 1
робо@@ 1
восстановить 1
ёнок 1
Твер@@ 1
ницах 1
спол@@ 1
Выступа@@ 1
гос@@ 1
объединены 1
слей 1
справо@@ 1
One 0.12867778624463652
Примор@@ 1
Ули@@ 1
одноимённой 1
образцо@@ 1
устройств 1
процессы 1
восьми@@ 1
вь@@ 1
искусство@@ 1
уд 1
яния 1
ждал 1
эры 1
доли@@ 1
отдал 1
пехотной 1
делал 1
мён 1
мёрт@@ 1
механизи@@ 1
Семёнович 1
пересели@@ 1
рын@@ 1
непода@@ 1
Сем@@ 1
вшемся 1
частиц 1
принимают 1
торговых 1
размно@@ 1
Филиппа 1
гард 1
змом 1
молодым 1
Тере@@ 1
двадцать 1
Александровна 1
пациентов 1
вным 1
Лиге 1
Гю@@ 1
мотор@@ 1
футболи@@ 1
1831 1
бита 1
значительный 1
жий 1
наб@@ 1
алы 1
юстиции 1
Начи@@ 1
лагере 1
вагонов 1
паре 1
мож@@ 1
хла@@ 1
Лон@@ 1
советника 1
Авгу@@ 1
Европу 1
урожен@@ 1
Ломоно@@ 1
танцева@@ 1
чно@@ 1
нером 1
председате@@ 1
рассказов 1
быстро@@ 1
линской 1
цин 1
атлетике 1
зах@@ 1
ов@@ 1
обмена 1
чешу@@ 1
Дебютировал 1
ставки 1
женский 1
лла@@ 1
зови@@ 1
inae 1
лицен@@ 1
освое@@ 1
алю@@ 1
целя@@ 1
дзу@@ 1
драмы 1
рованную 1
тогдаш@@ 1
Тимофе@@ 1
учебного 1
обрабат@@ 1
пии 1
рд 1
ошибо@@ 1
Свердловской 1
Часто 1
бера 1
гини 1
ланда 1
каналов 1
велосипе@@ 1
кки 1
Жито@@ 1
объектом 1
бара@@ 1
Особенно 1
фона 1
меняется 1
пригород@@ 1
суса 1
Пы@@ 1
певец 1
Венесуэ@@ 1
кор 1
Узбе@@ 1
гроб@@ 1
активной 1
судей 1
широколиственных 1
Индоне@@ 1
15@@ 0.7791994041272136
высокая 1
подклю@@ 1
встретился 1
Импе@@ 1
Сибирского 1
Ростовской 1
льностей 1
проектирова@@ 1
элементами 1
Тобо@@ 1
пись@@ 1
проекте 1
проведены 1
создавать 1
впечат@@ 1
авари@@ 1
лосо@@ 1
сот@@ 1
ам 1
руку 1
Язы@@ 1
настоящего 1
НО@@ 1
шенный 1
мах@@ 1
ону 1
правительстве 1
чрезвычай@@ 1
попы@@ 1
прозра@@ 1
Фили@@ 1
бакте@@ 1
захвата 1
Баль@@ 1
Пир@@ 1
Спас@@ 1
кафедру 1
самцов 1
делега@@ 1
марка 1
Апосто@@ 1
жными 1
1838 1
импер@@ 1
элемент 1
зем 1
ово@@ 1
Анджелес 1
входи@@ 1
Вернувшись 1
набе@@ 1
Лондо@@ 1
ябрь 1
близо@@ 1
оставалась 1
вершины 1
сборных 1
восстановлен 1
Гидро@@ 1
склю@@ 1
зажи@@ 1
отсе@@ 1
прогно@@ 1
клон@@ 1
понятия 1
широкой 1
анато@@ 1
бии 1
Иоган@@ 1
Кубан@@ 1
декабрь 1
приобрела 1
Наконец 1
Дель@@ 1
проло@@ 1
Владимир@@ 1
европейского 1
кой@@ 1
вдохнов@@ 1
дочер@@ 1
небольшая 1
рующий 1
50@@ 0.8477427138772115
отдельного 1
жин 1
цен 1
Начал 1
знает 1
выез@@ 1
Действие 1
зака@@ 1
Алба@@ 1
правя@@ 1
разрабаты@@ 1
Ун@@ 1
ворачи@@ 1
реда@@ 1
эл 1
наказания 1
случи@@ 1
маты 1
подсемейства 1
считая 1
талан@@ 1
студент@@ 1
заканчивается 1
съёмок 1
баев 1
чер 1
РО@@ 1
действительности 1
данное 1
помощника 1
Главным 1
воспользо@@ 1
являться 1
Масса@@ 1
специальной 1
Казань 1
нул 1
назвать 1
ану 1
расположенная 1
Гил@@ 1
специальный 1
стона 1
травя@@ 1
дебютировала 1
татар 1
составило 1
Моск@@ 1
генов 1
ждённых 1
кана 1
состоялись 1
гент@@ 1
относят 1
региональных 1
мное 1
полномочий 1
имену@@ 1
протяж@@ 1
окна 1
Еванге@@ 1
Знач@@ 1
справ@@ 1
НК 1
посели@@ 1
заводов 1
увен@@ 1
НАТО 1
решить 1
Монте@@ 1
терпе@@ 1
1836 1
Свердлов@@ 1
авиационного 1
голова 1
находясь 1
долины 1
хребта 1
Степанович 1
западного 1
лизм 1
Использование 1
сильным 1
январь 1
благород@@ 1
мусульман 1
широкий 1
продюсером 1
публику@@ 1
повтор@@ 1
рукопи@@ 1
Каз@@ 1
скоро@@ 1
Давы@@ 1
почет@@ 1
ed 0.020081860932486723
спаса@@ 1
леты 1
варианты 1
политическую 1
уре@@ 1
Бен 1
Станислав 1
My 0.36397807919835024
Лам@@ 1
СТ@@ 1
надцати@@ 1
имму@@ 1
точку 1
Стат@@ 1
коммен@@ 1
Вра@@ 1
алов 1
дже 1
мелкие 1
ленными 1
экстра@@ 1
лати@@ 1
статусе 1
владелец 1
дало 1
шель@@ 1
Российского 1
выса@@ 1
поисках 1
жах 1
льо 1
вилл 1
подчёрки@@ 1
Солне@@ 1
Al@@ 0.06483617621282105
шо 1
Экс@@ 1
склон@@ 1
урожд@@ 1
телевиде@@ 1
фабрика 1
Турке@@ 1
взят 1
татов 1
Сос@@ 1
медицинский 1
походе 1
эмиграции 1
владельцем 1
гата 1
Основным 1
вывод 1
дюй@@ 1
жек 1
мостью 1
рабов 1
эконо@@ 1
Однажды 1
праздник 1
подразуме@@ 1
горского 1
приговор@@ 1
лак 1
Избира@@ 1
расширения 1
честве 1
форм@@ 1
наций 1
доступа 1
ительство 1
доров 1
владений 1
кольцо 1
ответственности 1
хон@@ 1
ЦСКА 1
убивает 1
говорится 1
метре 1
Кава@@ 1
рабочие 1
евать 1
Томаса 1
королю 1
деле@@ 1
считаются 1
территориальная 1
om@@ 0.07979671471356958
Советская 1
учения 1
Коммуна 1
порти@@ 1
1813 1
сут@@ 1
укрепления 1
Прак@@ 1
длине 1
величина 1
мно 1
петербург@@ 1
Михаи@@ 1
проигры@@ 1
Йорка 1
лим@@ 1
Ar@@ 0.06347772325409749
зывы 1
неправи@@ 1
течёт 1
тирован 1
увидел 1
кен 1
ветера@@ 1
электронной 1
фик@@ 1
западно@@ 1
хирурги@@ 1
добави@@ 1
ченная 1
1846 1
типы 1
восстановление 1
Католиче@@ 1
преди@@ 1
оттен@@ 1
занимают 1
лённых 1
водосборного 1
племен@@ 1
кратера 1
таря 1
науке 1
озере 1
женным 1
Вероятно 1
анг@@ 1
водоё@@ 1
заболеваний 1
Эдвард 1
Академи@@ 1
съезде 1
целый 1
ГО@@ 1
видами 1
Ави@@ 1
славо@@ 1
Саратов@@ 1
культурных 1
Япо@@ 1
нашёл 1
настоящий 1
уте@@ 1
Западный 1
Воскресен@@ 1
Пита@@ 1
трудно 1
албан@@ 1
охо@@ 1
училась 1
филиал 1
дополнительных 1
нология 1
правда 1
шной 1
Аг@@ 1
Амери@@ 1
алле@@ 1
местным 1
нологи@@ 1
отпу@@ 1
парово@@ 1
Грузин@@ 1
Перио@@ 1
будто 1
Сон@@ 1
определяет 1
домохозяйств 1
тивным 1
Юлия 1
возму@@ 1
размером 1
вершине 1
взгляды 1
декла@@ 1
чину 1
450 1
вызвал 1
образа 1
активность 1
Димит@@ 1
Григорь@@ 1
Италию 1
Рэ@@ 1
говое 1
познакоми@@ 1
руб 1
сможет 1
казаков 1
некоторыми 1
бабу@@ 1
половина 1
ере@@ 1
оплат@@ 1
правого 1
OS 0.6420255092142153
концертов 1
тская 1
нави@@ 1
ственность 1
Таврической 1
ГК 1
дели 1
шасси 1
коротким 1
защищать 1
мур 1
обработ@@ 1
лённый 1
получал 1
американские 1
нена@@ 1
касается 1
An@@ 0.05664473387188673
Вильгельма 1
ar@@ 0.04162776434466035
имуще@@ 1
биографи@@ 1
феода@@ 1
индустрии 1
чны 1
Жене@@ 1
отре@@ 1
последняя 1
ери 1
ллю@@ 1
помещении 1
А. 1
вращение 1
Секре@@ 1
мная 1
Па 1
выполнять 1
новском 1
зян@@ 1
окраине 1
увеличение 1
войскам 1
приехал 1
ядра 1
Таган@@ 1
артиллерийского 1
различным 1
Винни@@ 1
венти@@ 1
прими@@ 1
Достижения 1
большими 1
существовали 1
кли 1
общеобразовате@@ 1
посвятил 1
популярности 1
зао@@ 1
лита 1
открытый 1
покинули 1
тесно 1
ответил 1
бул@@ 1
ьи@@ 1
юк 1
щин@@ 1
била 1
Существуют 1
различия 1
приро@@ 1
ar 0.028874918114841643
анные 1
гене 1
официальном 1
французским 1
поездки 1
яду 1
миром 1
прошло 1
Самый 1
строительных 1
Браун 1
внутреннего 1
пределы 1
росло 1
Tr@@ 0.08820960605675371
задачу 1
вокзала 1
супруга 1
приняло 1
тельный 1
явно 1
Ка 1
ссией 1
фан 1
слежи@@ 1
ch@@ 0.0363092369418869
МГ@@ 1
тр@@ 1
Профессиона@@ 1
увеличения 1
хать 1
химической 1
Ники@@ 1
Достопримечательности 1
выводу 1
перебро@@ 1
педагогического 1
расследо@@ 1
Подоб@@ 1
Подчи@@ 1
шар@@ 1
бронзовым 1
Фре@@ 1
расы 1
1851 0.9342747624209736
свидетельствует 1
освобождении 1
Оз@@ 1
вину 1
бакалавра 1
профессиональных 1
арки 1
вское 1
золотые 1
реформ 1
говые 1
полном 1
зарубежных 1
располагалась 1
МО 1
чета 1
тилось 1
зана 1
уи 1
богослу@@ 1
Брод@@ 1
Уин@@ 1
Яна 1
Клуб 1
ферен@@ 1
рийский 1
тоном 1
16@@ 0.6836039044951991
несу@@ 1
ситуацию 1
течении 1
берегах 1
находяще@@ 1
говоря 1
хт 1
Рах@@ 1
38@@ 1
командном 1
пира@@ 1
1802 1
Валентин 1
тович 1
Правительство 1
законы 1
лем@@ 1
совету 1
анский 1
баль@@ 1
гр 1
строительного 1
иллюстра@@ 1
получение 1
благоприя@@ 1
рении 1
1839 1
владел 1
выиграв 1
открытым 1
бей 1
вопросу 1
Служил 1
образовано 1
Ближ@@ 1
вард 1
кольца 1
лодок 1
наступа@@ 1
нашего 1
ехать 1
Рабоче 1
измерения 1
отмени@@ 1
перевозки 1
Вера 1
Ассоциации 1
Созда@@ 1
стот@@ 1
полным 1
убил 1
остановить 1
разобра@@ 1
Еже@@ 1
СК 1
лучшей 1
основание 1
Эрик 1
изготовления 1
называться 1
попасть 1
режиссё@@ 1
пое@@ 1
at@@ 0.0588875342769221
Создание 1
дири@@ 1
снялась 1
Елизавет@@ 1
американском 1
чника 1
Корпу@@ 1
впечатление 1
аном 1
крем@@ 1
Балтийского 1
конь@@ 1
российские 1
Гага@@ 1
сков@@ 1
Швар@@ 1
Олимпиаде 1
бесе@@ 1
убийстве 1
пушки 1
еву 1
роду 1
101 1
Буэ@@ 1
Калифорнии 1
вдох@@ 1
соли 1
депре@@ 1
держание 1
безработных 1
детской 1
изви@@ 1
сложных 1
настаи@@ 1
излучения 1
заба@@ 1
пользователей 1
мему@@ 1
выполнил 1
яние 1
лине 1
лечение 1
шины 1
1847 0.9972866491388797
немецкая 1
сар 1
хар 1
Социалистиче@@ 1
японских 1
гала 1
топ 1
продолжить 1
митрополита 1
1837 1
Муниципалитет 1
поедин@@ 1
лля@@ 1
плена 1
шов 1
бани 1
отделении 1
эпизоде 1
пс 1
врачей 1
альпи@@ 1
йном 1
наоборот 1
менно 1
нев 1
Плат@@ 1
доцент 1
проник@@ 1
расстрой@@ 1
уверен@@ 1
шков 1
сущ@@ 1
кожи 1
Мемо@@ 1
июнь 1
равнины 1
Произве@@ 1
Участники 1
1828 1
спир@@ 1
Уни@@ 1
сестрой 1
Рю@@ 1
ссом 1
хромо@@ 1
Воспитанник 1
Камчат@@ 1
дума@@ 1
мифологии 1
ниг@@ 1
ежене@@ 1
иса 1
социал 1
сценарист 1
Манчестер 1
мут 1
спер@@ 1
19,@@ 1
август 1
Азиат@@ 1
демонстра@@ 1
факторов 1
ази@@ 1
дополнение 1
Владимирской 1
апрель 1
ителю 1
какое 1
фта 1
дебют 1
набере@@ 1
ред 1
Преображен@@ 1
проживают 1
паст@@ 1
сведений 1
Торонто 1
недостаточно 1
очевид@@ 1
сбро@@ 1
Чемпиона@@ 1
фор 1
Сочи 1
Грей@@ 1
дио@@ 1
мла@@ 1
тантом 1
вовсе 1
Саратовской 1
кантон 1
Европейской 1
дера@@ 1
тала 1
драматур@@ 1
.com 0.5584877563221111
Худо@@ 1
значе@@ 1
редактора 1
машину 1
двум 1
простой 1
опасности 1
ствуя 1
предъ@@ 1
Филадель@@ 1
поток 1
спорту 1
статью 1
имущество 1
ор 1
размеры 1
Опреде@@ 1
ol@@ 0.07033757979880319
лар@@ 1
кафедра@@ 1
Нови@@ 1
камеры 1
чтения 1
хвата@@ 1
Джоном 1
винского 1
Проце@@ 1
продолжение 1
вию 1
собрании 1
Водо@@ 1
постановлением 1
полиция 1
сутки 1
поворо@@ 1
Q 0.4561336798116925
гара 1
102 1
Жер@@ 1
Епи@@ 1
дай@@ 1
энер@@ 1
будущий 1
угля 1
Киргизи@@ 1
29@@ 0.872443533067993
сч@@ 1
перейти 1
утром 1
Молда@@ 1
блока@@ 1
сибир@@ 1
колледжа 1
присутствии 1
природных 1
записал 1
нормати@@ 1
Тбилиси 1
Другой 1
квартира 1
госте@@ 1
СО 1
мэр 1
сал@@ 1
говорили 1
крупной 1
поддержал 1
означать 1
жити@@ 1
залив 1
земного 1
ительными 1
крестьяне 1
Роман@@ 1
операцию 1
р. 1
ГПУ 1
идов 1
ограничения 1
ссах 1
Сици@@ 1
AS@@ 0.38320838372757704
Константинович 1
Себа@@ 1
издана 1
совме@@ 1
Ще@@ 1
продаж 1
Малой 1
груди 1
Шарло@@ 1
буквально 1
Профессор 1
давлением 1
дислоци@@ 1
Николаевна 1
мса 1
корруп@@ 1
крово@@ 1
монет 1
отличился 1
правителем 1
СО@@ 1
инженеров 1
ите 1
ровало 1
сухопут@@ 1
разными 1
Чан@@ 1
ел 1
уничтожить 1
Кино@@ 1
изящ@@ 1
столько 1
монд 1
разногла@@ 1
Проис@@ 1
яще@@ 1
вшуюся 1
монастыр@@ 1
случаи 1
врагов 1
хене 1
зефа 1
описыва@@ 1
Людови@@ 1
мора 1
тто 1
Вино@@ 1
хард 1
1826 1
уточ@@ 1
Ново 1
принадлежала 1
драма 1
зента@@ 1
низмен@@ 1
1845 0.9923527330691152
значит 1
небольшое 1
така 1
Краснознам@@ 1
рет 1
Число 1
победой 1
Жил 1
Новгород 1
протя@@ 1
Аф@@ 1
карбо@@ 1
пол 1
включал 1
le 0.004652383252022567
бя 1
местами 1
Рек@@ 1
обнаружено 1
пару@@ 1
чалось 1
треть 1
веса 1
Ту 1
читать 1
Общество 1
критика 1
Район 1
комбинат 1
уще@@ 1
сж@@ 1
дских 1
утра 1
Ближай@@ 1
жилой 1
плу@@ 1
совмести@@ 1
женских 1
нор 1
происходят 1
Украинского 1
владельца 1
Франци@@ 1
Местный 1
Адам 1
Тэ@@ 1
муниципальный 1
часто@@ 1
Жур@@ 1
Кеме@@ 1
участков 1
Клин@@ 1
оруди@@ 1
тет 1
рания 1
мяча 1
Герман 1
Средней 1
учёного 1
сара@@ 1
удара 1
Основными 1
зел 1
методом 1
стья 1
хоре@@ 1
Федор 1
промышленного 1
ведущим 1
выпущены 1
Порт 1
сской 1
тамо@@ 1
Альберт 1
ливо 1
Стивен 1
гка 1
выше@@ 1
самок 1
Ради@@ 1
гитлеров@@ 1
имеющих 1
стической 1
Искус@@ 1
ленин@@ 1
уса@@ 1
оставались 1
отрав@@ 1
постра@@ 1
Рязанской 1
Никити@@ 1
вост 1
Елизавета 1
дене 1
Хру@@ 1
песня@@ 1
приняты 1
убиты 1
путешествен@@ 1
os@@ 0.077675750952185
возникновения 1
жену 1
воздухе 1
шлю@@ 1
излу@@ 1
представляла 1
присутствуют 1
проектом 1
Коре@@ 1
мятеж@@ 1
Посполи@@ 1
Афина@@ 1
миниат@@ 1
шенные 1
граммати@@ 1
кос 1
отрядов 1
Главной 1
само 1
совершенно@@ 1
поправ@@ 1
техникум 1
однажды 1
Библиоте@@ 1
дря@@ 1
прессе 1
событиях 1
основную 1
посвящена 1
отвечает 1
des 0.004197247456421374
иды 1
подписан 1
указано 1
Он@@ 1
уволь@@ 1
грав@@ 1
девяти 1
источника 1
подходя@@ 1
тром 1
Лишь 1
нарушение 1
референ@@ 1
Энн 1
остаются 1
кус 1
разгра@@ 1
Слобо@@ 1
гнут 1
матери@@ 1
эсмин@@ 1
Анри 1
Право@@ 1
Северном 1
Рам@@ 1
стике 1
серь@@ 1
Виде@@ 1
ландшаф@@ 1
цито@@ 1
ховский 1
шире 1
Забайка@@ 1
академия 1
Варшаве 1
смотри@@ 1
Применение 1
Соф@@ 1
городок 1
возвы@@ 1
формально 1
пиани@@ 1
южном 1
Леополь@@ 1
зара@@ 1
зму 1
путе@@ 1
механизм 1
Войска 1
образуется 1
Расположение 1
никакого 1
Впрочем 1
Снежный 1
бь@@ 1
зян 1
просвещения 1
туристов 1
фено@@ 1
восстанавли@@ 1
платформа 1
Данный 1
краю 1
колы 1
лито@@ 1
оче@@ 1
115 1
заведений 1
притоков 1
реаги@@ 1
архиепископа 1
эндо@@ 1
кинский 1
напрямую 1
символиче@@ 1
партн@@ 1
революционной 1
сово 1
посещал 1
Закавказ@@ 1
лёк 1
популярным 1
ценности 1
говоры 1
Мурман@@ 1
аббат@@ 1
позволили 1
Верховный 1
поезд@@ 1
хотели 1
тиру@@ 1
отцу 1
установка 1
Орден 1
Бли@@ 1
шав@@ 1
объявили 1
понимает 1
служила 1
цит@@ 1
вариантов 1
зачислен 1
разор@@ 1
вошло 1
ственному 1
ыстория 1
основное 1
пропаганди@@ 1
чников 1
сприн@@ 1
анге@@ 1
положительные 1
Sh@@ 0.0896612728530972
най 0.652042011208705
барон 1
полотни@@ 1
графство 1
жина 1
филар@@ 1
осозна@@ 1
жим 1
изделия 1
сос@@ 1
Фрей@@ 1
гендерной 1
евское 1
редакти@@ 1
Беларуси 1
г.@@ 1
тье 1
скрип@@ 1
главная 1
общения 1
разработка 1
развит@@ 1
студия 1
установления 1
ровская 1
совый 1
сотрудничал 1
пожара 1
Каспи@@ 1
Сум@@ 1
пите@@ 1
подно@@ 1
океа@@ 1
Музе@@ 1
кология 1
антрополо@@ 1
исте@@ 1
отмечается 1
срочно 1
литература 1
ловых 1
жья 1
приводи@@ 1
реду@@ 1
заметил 1
ассоции@@ 1
животно@@ 1
стихотво@@ 1
вмест@@ 1
трамвай@@ 1
головой 1
траги@@ 1
городские 1
Щер@@ 1
перевода 1
провинци@@ 1
столицей 1
проли@@ 1
Мира 1
Одной 1
штад@@ 1
Юн@@ 1
Людовика 1
собственное 1
взор@@ 1
Вор@@ 1
ковское 1
хвойно 1
Гонкон@@ 1
Место 1
кент@@ 1
консервато@@ 1
почтовых 1
Мани@@ 1
полком 1
сет 1
дости 1
Белорусского 1
вожд@@ 1
правителя 1
it@@ 0.061326030829555386
лёгких 1
недоволь@@ 1
Афанась@@ 1
туризма 1
Геор@@ 1
глубина 1
ТУ 1
чев@@ 1
этаже 1
коре@@ 1
1844 1
тине 1
Air 0.16196143776708236
введения 1
сборника 1
немецко 1
Эндрю 1
Людви@@ 1
Оцен@@ 1
осен@@ 1
располагаются 1
Борисович 1
барона 1
хер@@ 1
Мило@@ 1
кажется 1
месту 1
судьба 1
могуще@@ 1
турне 1
Кирил@@ 1
знаки 1
масс 1
Андро@@ 1
талантли@@ 1
Паль@@ 1
д. 1
городи@@ 1
as@@ 0.054086121921080726
фо 1
экономике 1
здоро@@ 1
орто@@ 1
экономико 1
Генри@@ 1
церковью 1
лиши@@ 1
Ани@@ 1
продолжала 1
ролях 1
кандидатом 1
тыс 1
показан 1
Австро 1
льт 1
гражданин 1
аспирантуру 1
христиан 1
Хат@@ 1
граду@@ 1
переди 1
вино 1
обозначение 1
Примечания 1
Известен 1
драго@@ 1
интересо@@ 1
километра 1
Центра 1
осад@@ 1
Примерно 1
повышение 1
Серб@@ 1
соревнова@@ 1
Рак@@ 1
мейстер 1
знаний 1
проез@@ 1
астрономиче@@ 1
шевский 1
государственным 1
Сат@@ 1
публикан@@ 1
ринского 1
опровер@@ 1
трам@@ 1
объявлен 1
МВт 1
Южно 1
музыкой 1
Финал 1
лето 1
способны 1
Земля 1
лна 1
порт@@ 1
Итальян@@ 1
дире@@ 1
рих 1
бах@@ 1
узлов 1
хая 1
кормо@@ 1
тово 1
ссен 1
док@@ 1
доку@@ 1
опухо@@ 1
купе@@ 1
модели@@ 1
сур@@ 1
Вита@@ 1
историка 1
строительный 1
Удмур@@ 1
Лука@@ 1
зрение 1
приклю@@ 1
регу@@ 1
1835 1
Премия 1
1796 1
организовать 1
Ени@@ 1
2.@@ 0.27589798765312873
меньшин@@ 1
Журнал 1
контракта 1
шила 1
Западно 1
дизайн 1
небольшим 1
освобождение 1
Санд@@ 1
Арно@@ 1
Моисе@@ 1
жались 1
вье 1
младшим 1
Пермского 1
Сиг@@ 1
рубеже 1
Осно@@ 1
07.@@ 1
солд@@ 1
Федо@@ 1
Су 1
детали 1
тя 1
вон@@ 1
пик 1
рое 1
живой 1
остан@@ 1
вий 1
протеста 1
сумме 1
Основан 1
демон@@ 1
станцией 1
занимала 1
кура@@ 1
Семён 1
Ричарда 1
св@@ 1
вень 1
монографий 1
кузне@@ 1
лит 1
пели 1
│ 0.41915869362313507
маро@@ 1
пригласил 1
проблема 1
комендан@@ 1
присоединения 1
тетра@@ 1
Перси@@ 1
записей 1
нца 1
обсерватории 1
секрета@@ 1
Земле 1
АН@@ 1
Ниже 1
адмирал 1
Ца@@ 1
карт 1
футбол 1
Крис 1
кух@@ 1
КГБ 1
фун@@ 1
рядов 1
АП@@ 1
Петров@@ 1
серд@@ 1
зме@@ 1
вулка@@ 1
Монасты@@ 1
соно@@ 1
аф@@ 1
рие 1
Ко 1
хах 1
гий 1
минист@@ 1
сну@@ 1
Вороши@@ 1
надле@@ 1
спира@@ 1
бай 1
пати@@ 1
Бит@@ 1
сении 1
мура 1
Родо@@ 1
берге 1
спло@@ 1
w@@ 0.050566467846949834
Даже 1
уто@@ 1
Брен@@ 1
1806 1
Петропав@@ 1
1832 1
Австралия 1
яйца 1
Ричар@@ 1
бэ@@ 1
звук 1
Лек@@ 1
пави@@ 1
марки@@ 1
1200 1
равнове@@ 1
Депутат 1
слияния 1
Шен@@ 1
Почти 1
лков 1
ути@@ 1
1825 1
20,@@ 1
шеви@@ 1
отды@@ 1
ПС 1
евро@@ 1
ццо 1
Родри@@ 1
патру@@ 1
Джозеф 1
балет@@ 1
дем 1
Кок@@ 1
06.@@ 1
Плани@@ 1
кви@@ 1
адресу 1
Кавказа 1
орна@@ 1
тно@@ 1
ленда 1
принципи@@ 1
архитек@@ 1
отстра@@ 1
дорф 1
Хали@@ 1
фред 1
РНК 1
бель@@ 1
Хил@@ 1
Степан 1
пан 1
1815 0.9032497637301469
эксплуати@@ 1
шино 1
сла 1
откро@@ 1
Кази@@ 1
Леон 1
Движение 1
Епар@@ 1
Тихоокеан@@ 1
ринга 1
дир 1
Тя@@ 1
культурной 1
М.@@ 1
Благове@@ 1
таты 1
стие 1
Две 1
цево 1
1817 1
трево@@ 1
ходя 1
кафе 1
риз@@ 1
ta 0.07933980645464549
насилия 1
военнослужа@@ 1
Скоро@@ 1
Кау@@ 1
Бог 1
слабо 1
Вологод@@ 1
чест@@ 1
Кристиан 1
достой@@ 1
арт 1
няка 1
педаго@@ 1
установили 1
извле@@ 1
Законодате@@ 1
поколение 1
Литература 1
осуще@@ 1
случай@@ 1
делом 1
Габ@@ 1
фора 1
чети 1
формирован 1
санитар@@ 1
орде@@ 1
бра 1
тости 1
пл@@ 1
104 1
комбината 1
бус 1
Август 1
Сбор@@ 1
толо@@ 1
v 0.15690802212469426
1841 1
кавказ@@ 1
Ниже@@ 1
премь@@ 1
Египет 1
сбор 1
фона@@ 1
зания 1
220 1
Дзержин@@ 1
записан 1
въ@@ 1
опо@@ 1
Мали@@ 1
чам 1
ора@@ 1
f 0.11065489857762315
разбира@@ 1
скал@@ 1
залож@@ 1
рид 1
способен 1
изобретате@@ 1
мг 1
телей 1
am 0.019603616270887025
Валентина 1
стую 1
проби@@ 1
Русская 1
шок 1
поиска 1
вичи 1
зора 1
машин@@ 1
рота 1
зя 1
казан@@ 1
гот@@ 1
атаку@@ 1
Мура@@ 1
дур@@ 1
09.@@ 1
ВЛ@@ 1
дино 1
Белый 1
прости@@ 1
135 1
Дви@@ 1
Аки@@ 1
контрак@@ 1
22@@ 1
04.@@ 1
противников 1
вере@@ 1
дово@@ 1
Стан@@ 1
борт 1
ели 1
Жанейро 1
рила 1
Афи@@ 1
цента 1
шан 1
1810 1
стани@@ 1
ние@@ 1
одо@@ 1
АП 1
строена 1
физ@@ 1
хав@@ 1
чело@@ 1
шахмати@@ 1
лай 1
процен@@ 1
7,5 1
u@@ 0.06680607480568106
профессо@@ 1
і 1
мемо@@ 1
In 0.0070768835142163925
тизма 1
афро@@ 1
зю@@ 1
апе@@ 1
Иго@@ 1
матов 1
родила 1
Турни@@ 1
Вед@@ 1
Нур@@ 1
рог@@ 1
es@@ 0.04293797579598267
пирами@@ 1
1843 1
фунда@@ 1
St@@ 0.07717345296470723
появи@@ 1
зван 1
Ордена 1
It 0.017318752690244292
ina 0.07755960335518004
затруд@@ 1
признания 1
Пря@@ 1
Научно 1
султана 1
мерно 1
Стюарт 1
ot@@ 0.06400679017810469
душно 1
Black 0.19037444351510205
ac@@ 0.057797641167656524
поса@@ 1
1833 1
Партия 1
Пробле@@ 1
Цве@@ 1
кологи@@ 1
сектора 1
Гин@@ 1
ж. 1
имение 1
разго@@ 1
хай 1
1821 1
волейбо@@ 1
недвижи@@ 1
ожесто@@ 1
ганд@@ 1
гона@@ 1
Пей@@ 1
чна 1
Мартина 1
ремо@@ 1
сирий@@ 1
Испан@@ 1
Берн@@ 1
Владислав 1
чувства 1
1805 1
et@@ 0.062432569378960454
Таш@@ 1
Над 1
Аз@@ 1
скле@@ 1
числения 1
запове@@ 1
кодек@@ 1
района@@ 1
княжество 1
сму@@ 1
нокау@@ 1
ом 1
стояние 1
просто@@ 1
компенса@@ 1
двери 1
льм 1
постановление 1
трене@@ 1
Война 1
Лок@@ 1
продо@@ 1
пци@@ 1
фович 1
ова@@ 1
стипен@@ 1
соз@@ 1
Диего 1
Стен@@ 1
Защ@@ 1
108 1
або@@ 1
яне 1
109 1
лодка 1
тило 1
мунд 1
бета 1
жест@@ 1
справедливо@@ 1
Коста 1
престола 1
Волга 1
зве@@ 1
Крей@@ 1
пр@@ 1
чее 1
ик 1
Жана 1
Коми 1
изоли@@ 1
обмен@@ 1
разре@@ 1
дара 1
восточ@@ 1
пости@@ 1
ография 1
следствие 1
Георг 1
еже@@ 1
Ма 1
Управ@@ 1
заведения 1
АТО 1
Си 1
консер@@ 1
поку@@ 1
Un@@ 0.12631415260178128
цикло@@ 1
написала 1
is@@ 0.055198962888886406
анонси@@ 1
цити@@ 1
брод@@ 1
w 0.13848173931855426
АС 1
Авиа@@ 1
Брита@@ 1
реконструи@@ 1
Ая@@ 1
Клу@@ 1
рабат@@ 1
бет 1
леп@@ 1
нелега@@ 1
яну@@ 1
Рат@@ 1
церемо@@ 1
поче@@ 1
риф@@ 1
широко@@ 1
свободно 1
Каби@@ 1
избав@@ 1
геоло@@ 1
акт 1
спря@@ 1
климат 1
противотан@@ 1
ВО@@ 1
Соро@@ 1
драв@@ 1
многи@@ 1
Цу@@ 1
хали@@ 1
коалиции 1
Кр@@ 1
Над@@ 1
Дя@@ 1
Чо@@ 1
нодорож@@ 1
полови@@ 1
доктор@@ 1
Мора@@ 1
Вадим 1
бари@@ 1
вани 1
Орле@@ 1
York 0.05096102414103246
кур 1
oc@@ 0.08870424520408865
Голи@@ 1
цизма 1
08.@@ 1
Ира@@ 1
гство 1
Вави@@ 1
Газ@@ 1
полито@@ 1
т.@@ 1
заменил 1
оконча@@ 1
Live 0.37296809715511225
Веро@@ 1
Сун@@ 1
Нер@@ 1
приятие 1
Дау@@ 1
устойчиво@@ 1
кл 1
Трам@@ 1
площа@@ 1
Зеле@@ 1
градо@@ 1
площадки 1
Бло@@ 1
анало@@ 1
демии 1
санк@@ 1
Латин@@ 1
креди@@ 1
друго@@ 1
103 1
Касти@@ 1
насо@@ 1
раке@@ 1
Рау@@ 1
Тот 1
стато@@ 1
id@@ 0.07291566132947831
Гне@@ 1
винтов@@ 1
зун@@ 1
ЮНЕСКО 1
плоско@@ 1
диф@@ 1
мос 1
стаи@@ 1
военноплен@@ 1
прямо@@ 1
Нидерлан@@ 1
обща@@ 1
Венг@@ 1
ментар@@ 1
уе@@ 1
сио 1
навига@@ 1
ровалось 1
акция 1
ралле@@ 1
Симво@@ 1
Стефан 1
попу@@ 1
диплом 1
дром 1
кно@@ 1
входа 1
Бронзо@@ 1
публика@@ 1
1795 1
Саму@@ 1
Бот@@ 1
норве@@ 1
34@@ 1
упраж@@ 1
1807 1
чат 1
количе@@ 1
Монре@@ 1
рева 1
пше@@ 1
лень@@ 1
Специали@@ 1
Псков@@ 1
шест@@ 1
каталога 1
ХЛ 1
раздел 1
1809 1
нометра@@ 1
Джейн 1
Макс 1
ято 1
гва@@ 1
фору@@ 1
стадиона 1
пнев@@ 1
храмов 1
крипто@@ 1
Мах@@ 1
кей 1
конструкция 1
прекрат@@ 1
держал 1
op@@ 0.07470906831550422
ат 1
Шко@@ 1
норвеж@@ 1
псевдо@@ 1
написан 1
зане@@ 1
компак@@ 1
поощ@@ 1
45@@ 1
Крю@@ 1
допусти@@ 1
Порт@@ 1
All 0.09754908254310851
37@@ 1
досту@@ 1
рено 1
плате@@ 1
стоян@@ 1
алге@@ 1
Плато@@ 1
бл@@ 1
жило 1
персонажи 1
В. 1
Франц 1
106 1
климата 1
Мун@@ 1
маш 1
вонача@@ 1
мифо@@ 1
букв 1
ремонта 1
сигнал 1
моле@@ 1
Надежда 1
ним@@ 1
отчасти 1
уре 1
танк 1
герои 1
линга 1
Президен@@ 1
бло 1
носо@@ 1
Педро 1
лаге@@ 1
Карл@@ 1
05.@@ 1
сюр 1
Кандидат 1
Петер@@ 1
С.@@ 1
кВт 1
оборот 1
привет@@ 1
катало@@ 1
Рад@@ 1
шево 1
Ворон@@ 1
психиат@@ 1
пехо@@ 1
112 1
Тим@@ 1
светло 1
it 0.009940495426864569
Деми@@ 1
отка@@ 1
Ива 1
плавания 1
Дро@@ 1
надписи 1
резонан@@ 1
оператор 1
пия 1
матизи@@ 1
написано 1
Ан 1
И.@@ 1
1811 1
арда 1
сфер@@ 1
оценка 1
гова 1
югослав@@ 1
автомобили 1
лиса 1
Татарстан 1
казахстан@@ 1
снения 1
Ири@@ 1
захвати@@ 1
бюджета 1
PlayStation 1
нано@@ 1
цла@@ 1
чью 1
направил 1
Джули@@ 1
128 1
полуфина@@ 1
Чудо@@ 1
швей@@ 1
показатели 1
путешествия 1
Глава 1
перифе@@ 1
плоскости 1
Life 0.20735657381244588
стров 1
лости 1
окла@@ 1
предположение 1
щали 1
onlyinclude 0.5591832677489385
Фрунзе 1
сорев@@ 1
популяри@@ 1
жев@@ 1
зага@@ 1
акционер@@ 1
лур@@ 1
36@@ 1
Губер@@ 1
позити@@ 1
цина 1
American 0.03666653915415841
ТО@@ 1
000@@ 1
синки 1
падение 1
шли@@ 1
Сало@@ 1
сло 1
има@@ 1
подра@@ 1
риат 1
Кули@@ 1
Дело 1
Индия 1
модификации 1
форт 1
чание 1
вло@@ 1
чинки 1
мас 1
стей@@ 1
лагер@@ 1
Квин@@ 1
1,3 1
1827 1
регла@@ 1
Домини@@ 1
Буря@@ 1
лие 1
Адре@@ 1
тенден@@ 1
Поме@@ 1
вай 1
Копен@@ 1
Нак@@ 1
107 1
вал@@ 1
ареста 1
учение 1
рополи@@ 1
Симо@@ 1
Чин@@ 1
Гад@@ 1
чева 1
Великобрита@@ 1
Кари@@ 1
хер 1
чет 1
Роу@@ 1
км2 1
несота 1
олето@@ 1
плато 1
Светлана 1
берто 1
иниции@@ 1
Интернет 1
биат@@ 1
зает 1
меда@@ 1
Обе@@ 1
последствия 1
характеристика 1
метрах 1
Гат@@ 1
голове 1
кве@@ 1
Играл 1
разоча@@ 1
Вул@@ 1
ata 0.11583790861825598
щате@@ 1
слуша@@ 1
корпорации 1
Проте@@ 1
Хок@@ 1
Лат@@ 1
Октя@@ 1
145 1
пада@@ 1
подобно 1
полю@@ 1
сигнала 1
Либе@@ 1
покой@@ 1
джу@@ 1
ета 1
Автомоби@@ 1
Митро@@ 1
Оп@@ 1
Развитие 1
факульте@@ 1
Оксфор@@ 1
рико 1
ректор 1
краевед@@ 1
филосо@@ 1
засу@@ 1
Гале@@ 1
молеку@@ 1
пох@@ 1
очевидно 1
Хри@@ 1
компро@@ 1
рар@@ 1
Комму@@ 1
инг 1
пети@@ 1
1816 1
Комитет 1
Тулу@@ 1
ers 0.025773523720070548
Слово 1
вр 1
Школа 1
дев@@ 1
что@@ 1
BBC 0.3002448683847402
Ди 1
употре@@ 1
1808 1
ляне 1
Отно@@ 1
возникнове@@ 1
автобиографи@@ 1
гни@@ 1
1793 1
Дебю@@ 1
Йохан@@ 1
фрей@@ 1
вале@@ 1
Time 0.33185581106043016
ханов 1
Франческо 1
публика 1
кото@@ 1
зино 1
подготовка 1
Вис@@ 1
писец 1
Людмила 1
осмо@@ 1
Люб@@ 1
трофе@@ 1
подробно 1
детекти@@ 1
насе@@ 1
диктат@@ 1
застав@@ 1
33@@ 0.9737869412922275
мели@@ 1
дежи 1
Автоно@@ 1
интегри@@ 1
Живо@@ 1
Белору@@ 1
убед@@ 1
океан@@ 1
пови@@ 1
Франко 1
АР@@ 1
делег@@ 1
кабе@@ 1
Александру 1
Праз@@ 1
ьор@@ 1
Лау@@ 1
жай@@ 1
защита 1
ваку@@ 1
Тури@@ 1
интен@@ 1
Нина 1
никнове@@ 1
наименова@@ 1
увели@@ 1
360 0.9941872255416944
Боли@@ 1
отрас@@ 1
Архитектура 1
Блан@@ 1
администрация 1
англо 1
1,6 1
шве@@ 1
Конструкция 1
неизвестна 1
Брон@@ 1
Разработка 1
Лод@@ 1
1824 1
Австрия 1
Лип@@ 1
стене 1
YouTube 0.6606412148610562
Джей 1
Шат@@ 1
завеща@@ 1
СУ 1
Мадри@@ 1
зена 1
Дин 1
большин@@ 1
Гуан@@ 1
льти@@ 1
защити@@ 1
скоп@@ 1
футболиста 1
статистики 1
Сел@@ 1
Марина 1
лд@@ 1
Амстер@@ 1
симпати@@ 1
пояса 1
сценария 1
цка 1
монумента@@ 1
Августа 1
Rock 0.25298757840929365
парамет@@ 1
122 1
спор 1
воли 1
полит@@ 1
Шек@@ 1
пиро@@ 1
Беля@@ 1
→ 1
кафе@@ 1
жды 1
Стер@@ 1
Гвар@@ 1
Корея 1
Представители 1
средство 1
лее 1
аграр@@ 1
фек@@ 1
игнори@@ 1
скоро 1
джу 1
инфор@@ 1
митин@@ 1
ето 1
рест@@ 1
КН@@ 1
Коп@@ 1
Универси@@ 1
иконо@@ 1
вокал 1
1792 1
варианта 1
man 0.029829697957859662
Co@@ 0.09089805428328436
ВП 1
Marvel 0.9541747900927307
проро@@ 1
отча@@ 1
чувство 1
привлекате@@ 1
Поля@@ 1
тера@@ 1
ФИ@@ 1
пала 1
ксе@@ 1
Фай@@ 1
хор 1
гас 1
промеж@@ 1
рону 1
111 1
кредит@@ 1
графства 1
РА@@ 1
вие 1
пап@@ 1
ana 0.06605926224687747
паке@@ 1
бана 1
индек@@ 1
Кост@@ 1
храбро@@ 1
КА 1
свое@@ 1
звать 1
бон@@ 1
ненави@@ 1
48@@ 1
дек@@ 1
импера@@ 1
5,5 1
os 0.028598086674914022
льон 1
Сме@@ 1
чими 1
Мех@@ 1
кун@@ 1
Пай@@ 1
подполковник 1
нара@@ 1
игу@@ 1
потока 1
нака@@ 1
AR@@ 0.40808164245208844
Дире@@ 1
раса 1
характе@@ 1
Майк 1
возвышен@@ 1
попада@@ 1
приход 1
документ 1
уа 1
Дек@@ 1
сержан@@ 1
бито 1
Ной@@ 1
СБ 1
СП 1
гравита@@ 1
Вяче@@ 1
цко 1
биографии 1
звука 1
трапе@@ 1
радиостанции 1
ДР 1
Коно@@ 1
лане 1
ation 0.0198039171577902
Фур@@ 1
кине@@ 1
пуше@@ 1
Там@@ 1
раздела 1
Con@@ 0.07250130172692319
Добро@@ 1
абсолютно 1
мита@@ 1
проверки 1
тант 1
Car@@ 0.07578286845661167
Люби@@ 1
бр 1
стота 1
пане@@ 1
престо@@ 1
хун@@ 1
тай 1
Муниципа@@ 1
und 0.0029231795461578626
публици@@ 1
100@@ 1
скур@@ 1
Стран@@ 1
вынуж@@ 1
кет 1
Соли@@ 1
носец 1
рер 1
сматри@@ 1
фина 1
видо@@ 1
аэрод@@ 1
организма 1
бога 1
Чело@@ 1
Ex@@ 0.1151387839609017
цер 1
чисто 1
прие@@ 1
порно@@ 1
Саксо@@ 1
евреи 1
Алжи@@ 1
Постанов@@ 1
Ино@@ 1
Северо@@ 1
Исма@@ 1
кок@@ 1
имено@@ 1
Принци@@ 1
ПП 1
жия 1
петро@@ 1
сопротив@@ 1
фонов 1
команду@@ 1
преки 1
Сва@@ 1
Ингу@@ 1
комбина@@ 1
Бр@@ 1
Чарли 1
вход@@ 1
концерта 1
показано 1
стациона@@ 1
.ru 1
am@@ 0.047716053459832874
1803 1
240 1
Карлос 1
мигра@@ 1
повторно 1
дисквали@@ 1
24,@@ 1
подхода 1
1823 1
иро@@ 1
обособ@@ 1
заключение 1
монт 1
ням 1
психиатри@@ 1
сап@@ 1
PC 0.4089374541524661
Организация 1
вариа@@ 1
1790 1
бат 1
ганов 1
диско@@ 1
зка 1
маг@@ 1
основателя 1
пенси@@ 1
поги@@ 1
гали@@ 1
Анастасия 1
анто@@ 1
разрушения 1
шир@@ 1
Лер@@ 1
Америка 1
рике 1
зит 1
сян 1
03.@@ 1
Хан 1
ял 1
авангар@@ 1
брь@@ 1
указ 1
Еле@@ 1
разделена 1
оре@@ 1
60@@ 0.8919078964753973
важно 1
душев@@ 1
арбит@@ 1
En@@ 0.09123660440083829
синтеза 1
близко 1
магистрали 1
Мид@@ 1
Th@@ 0.08618688272616772
деля@@ 1
свети@@ 1
na 0.06192876327027374
Фонд 1
дило 1
РУ 1
перееха@@ 1
лужи@@ 1
металлур@@ 1
152 1
Уит@@ 1
худ@@ 1
шествия 1
дизайна 1
Бед@@ 1
рэн@@ 1
Шир@@ 1
Cr@@ 0.1589766314078265
Рон@@ 1
жется 1
Маргарет 1
Граф 1
едо@@ 1
Малай@@ 1
жество 1
Марко 1
юрист 1
еро@@ 1
яй@@ 1
онто@@ 1
постановки 1
одобре@@ 1
племена 1
разреша@@ 1
хреб@@ 1
подписали 1
HD 0.7408564303048928
командирован 1
прозви@@ 1
фган@@ 1
ложение 1
трудности 1
изби@@ 1
Ква@@ 1
чием 1
25,@@ 1
опера 1
султа@@ 1
София 1
разло@@ 1
санти@@ 1
Сра@@ 1
1818 0.9996613584691237
Антио@@ 1
1797 1
Google 0.6674482851215103
1822 1
стари@@ 1
заселе@@ 1
царство 1
Стри@@ 1
обит@@ 1
Ся@@ 1
останки 1
Шоу 1
завоевания 1
1,8 1
3.@@ 0.331669884796825
неиз@@ 1
ch 0.06718741219932226
образец 1
ждали 1
революцио@@ 1
руп@@ 1
1784 1
работо@@ 1
дово 1
противоречи@@ 1
рези@@ 1
Фонда 1
покло@@ 1
атор@@ 1
Поч@@ 1
накло@@ 1
тюрк@@ 1
Плу@@ 1
Правда 1
ref 0.5116111344056502
ското@@ 1
1819 1
Куту@@ 1
заведение 1
Проко@@ 1
нст 1
работка 1
кис 1
Гора 1
взрос@@ 1
виса 1
геометри@@ 1
Урал 1
Вь@@ 1
принуд@@ 1
внезапно 1
философ 1
1780 1
Лорен@@ 1
акушер@@ 1
ученик 1
кара 1
Гун@@ 1
попеч@@ 1
Види@@ 1
дете@@ 1
пояс 1
тания 1
куку@@ 1
лём 1
нау 1
Либер@@ 1
” 0.04092403517123578
4.@@ 0.47237197596818903
Карло 1
Колумбия 1
бак 1
ателя 1
Жак 1
били@@ 1
насти@@ 1
генерал@@ 1
публики 1
Пото@@ 1
благосло@@ 1
Авра@@ 1
литературо@@ 1
ветери@@ 1
Гим@@ 1
технология 1
духе 1
мада 1
114 1
Форт 1
Пала@@ 1
дистри@@ 1
йство 1
спра@@ 1
Меха@@ 1
вход 1
Ы@@ 1
Концер@@ 1
учебно 1
Нобе@@ 1
крови@@ 1
1801 1
бам 1
ледо@@ 1
мил@@ 1
рино 1
ниста 1
De@@ 0.0908819532338736
неш@@ 1
ES@@ 0.4481817537245737
ов 1
клип 1
750 1
трети 1
Азербайджан@@ 1
сит@@ 1
Le@@ 0.06898417920693865
Стив 1
библи@@ 1
рите 1
Кит@@ 1
пад 1
равнин@@ 1
1,4 1
Департа@@ 1
лата 1
птица 1
калибра 1
маршрута 1
венство 1
Брат 1
оказал 1
риста 1
удостоена 1
Махму@@ 1
унд@@ 1
Мок@@ 1
шут@@ 1
недово@@ 1
ир 1
Деб@@ 1
наве@@ 1
депу@@ 1
сив 1
Дун@@ 1
куляр@@ 1
жба 1
кода 1
баси@@ 1
Петров 1
опла@@ 1
Локомотив 1
гт 1
уязви@@ 1
Духов@@ 1
туберку@@ 1
da 0.029482966809607734
стор 1
дале@@ 1
видимо 1
нукле@@ 1
перспекти@@ 1
by 0.0040357235023037365
концепция 1
гуна 1
Норман@@ 1
Фреде@@ 1
приш@@ 1
чак 1
Мад@@ 1
пил 1
1804 1
Corporation 0.3010930944685691
атлети@@ 1
Кури@@ 1
водохранилище 1
имения 1
около@@ 1
хри@@ 1
шос@@ 1
шриф@@ 1
адапти@@ 1
стери@@ 1
брони@@ 1
горск 1
align 0.41959377800426617
Реги@@ 1
раун@@ 1
дна 1
еро 1
Ита@@ 1
поли 1
бол 1
преимущество 1
зани@@ 1
забе@@ 1
термина 1
COVID 0.3912147663577174
Лук@@ 1
Никита 1
MTV 0.773735573439289
Ели@@ 1
конструктор@@ 1
чрез@@ 1
Проек@@ 1
ensis 0.26641736208847216
Швеция 1
разрушен 1
пеше@@ 1
вери 1
мала 1
Дур@@ 1
конвен@@ 1
продукт 1
Тур 1
верс 1
190 1
Африкан@@ 1
револю@@ 1
эмо@@ 1
Евдо@@ 1
вата 1
ini 0.1300919768819608
гражданство 1
one 0.013239745724075538
Охот@@ 1
Персона@@ 1
прочем 1
макро@@ 1
философи@@ 1
Лун@@ 1
гарнизон 1
соби@@ 1
фирма 1
интел@@ 1
цилиндри@@ 1
атрибу@@ 1
Теория 1
кономиче@@ 1
мл@@ 1
Рене 1
триум@@ 1
дю 1
тос 1
подро@@ 1
116 1
помещение 1
сал 1
Азербайджан 1
непо@@ 1
Оке@@ 1
Турция 1
Тради@@ 1
полуфинал 1
КС 1
Фердинан@@ 1
дат 1
Серафи@@ 1
реконструкция 1
124 1
Юсу@@ 1
Аристо@@ 1
лива 1
жене 1
археоло@@ 1
оф@@ 1
пропорциона@@ 1
дума 1
приеха@@ 1
Денис 1
Швейцария 1
Иванова 1
Или@@ 1
ad 0.08114048982166745
дун 1
компон@@ 1
st@@ 0.037620222449099947
мана@@ 1
ph@@ 0.0837269797795068
Хара@@ 1
рка 1
монархи@@ 1
БР 1
отте@@ 1
скресен@@ 1
зате@@ 1
комедия 1
шер 1
лоя@@ 1
служат 1
Статистика 1
магазина 1
Мори@@ 1
Мага@@ 1
Н.@@ 1
клана 1
нападение 1
пей@@ 1
сберг 1
азо@@ 1
некро@@ 1
облик 1
Патрик 1
Club 0.08566293740516967
мик@@ 1
сович 1
Qu@@ 0.10054909628227424
Основа@@ 1
стол 1
глуби@@ 1
Фредерик 1
выступ@@ 1
Обита@@ 1
гра 1
парта@@ 1
39@@ 1
Кораб@@ 1
Дере@@ 1
приложения 1
Много 1
апо@@ 1
именова@@ 1
Шот@@ 1
1799 1
Торпедо 1
дева 1
напис@@ 1
новение 1
онер 1
гиз@@ 1
Гай 1
гане 1
кта 1
нинг 1
стимули@@ 1
лект@@ 1
ежеднев@@ 1
ap@@ 0.05450107504245115
ьон 1
Настоя@@ 1
Уо@@ 1
монографии 1
Люксем@@ 1
Di@@ 0.0850101896265232
нев@@ 1
люд@@ 1
Участие 1
гда 1
застре@@ 1
Оло@@ 1
Боро@@ 1
Радио 1
1782 1
наказание 1
ходо@@ 1
двигатели 1
Прод@@ 1
апте@@ 1
уха@@ 1
наше@@ 1
индо@@ 1
оле@@ 1
равен 1
адми@@ 1
гиня 1
ежедневно 1
резуль@@ 1
3D 0.655848849279187
идентифици@@ 1
масла 1
тни 1
казыва@@ 1
Зада@@ 1
венециан@@ 1
турбо@@ 1
тони@@ 1
сцена 1
писе@@ 1
словия 1
ti@@ 0.05179440551987155
султан 1
ять 1
коме@@ 1
глас 1
революция 1
Командир 1
миграции 1
DC 0.3326169753493742
агита@@ 1
губерна@@ 1
мей 1
орбита@@ 1
с. 1
щаяся 1
сго@@ 1
комплекто@@ 1
Пап@@ 1
мото 1
Каролина 1
всп@@ 1
Леген@@ 1
произведен 1
Apple 0.6262751063951312
промо@@ 1
01.@@ 1
{ 0.35649440348959266
Елиза@@ 1
дама 1
Флорида 1
Хиро@@ 1
ула 1
113 1
ie 0.037365580266358334
Иран 1
оку@@ 1
отказа 1
Конго 1
конден@@ 1
показания 1
Боле@@ 1
эста@@ 1
АК@@ 1
Уот@@ 1
Характеристики 1
нно 1
дипломат 1
подчинение 1
лип@@ 1
Би 1
Тун@@ 1
псевдоним 1
враждеб@@ 1
кред@@ 1
рую 1
Дав@@ 1
ствола 1
риск 1
Иск@@ 1
непре@@ 1
дроб@@ 1
Дат@@ 1
компонент 1
противник 1
сек 1
мит 1
1794 1
17@@ 0.5515086002661934
мито@@ 1
Попов 1
архиманд@@ 1
гени@@ 1
Год@@ 1
невер@@ 1
треть@@ 1
Mar@@ 0.04750998788324935
1798 1
th@@ 0.04409658317229477
Studios 0.4654832329678244
ur@@ 0.05167921137276147
параз@@ 1
Комплек@@ 1
второстепен@@ 1
укрепле@@ 1
Ору@@ 1
мала@@ 1
117 1
Сара 1
тник 1
Офи@@ 1
инструмент 1
избрания 1
Вени@@ 1
вирус@@ 1
стеро@@ 1
Ил 1
невро@@ 1
нят 1
пано@@ 1
Магни@@ 1
реми@@ 1
02.@@ 1
Airlines 0.7834424931560154
цита@@ 1
лоб@@ 1
Фрон@@ 1
кипе@@ 1
Сул@@ 1
звали 1
смя@@ 1
Сели@@ 1
банкно@@ 1
деятель@@ 1
Фернан@@ 1
Коне@@ 1
плю@@ 1
кало 1
Милан 1
помощ@@ 1
предате@@ 1
Арте@@ 1
стиму@@ 1
Серия 1
аранжи@@ 1
англича@@ 1
Бау@@ 1
день@@ 1
самы@@ 1
Те 1
архе@@ 1
формат 1
практика 1
Мино@@ 1
жанр 1
построения 1
кир 1
стре 1
кали 1
проб@@ 1
великолеп@@ 1
1.0@@ 1
Ват@@ 1
Red 0.1553612295502444
литур@@ 1
отражение 1
резолю@@ 1
храните@@ 1
призё@@ 1
6,5 1
климати@@ 1
дискримина@@ 1
Моно@@ 1
155 1
Шми@@ 1
Man 0.16945665382565991
Калифорни@@ 1
лища 1
Вати@@ 1
Хоп@@ 1
Каш@@ 1
Решение 1
Финан@@ 1
Крат@@ 1
миря@@ 1
тома 1
прони@@ 1
заим@@ 1
пропаганд@@ 1
j 0.18361373787328925
мба 1
дока@@ 1
масло 1
характерно 1
Nintendo 0.8048645141865747
le@@ 0.04660799711798762
Шев@@ 1
случая 1
нике@@ 1
провода 1
рад 1
Кома@@ 1
отмет@@ 1
шни 1
интереса 1
справед@@ 1
68@@ 1
26,@@ 1
Лем@@ 1
негати@@ 1
Кве@@ 1
рица 1
условно 1
фоне@@ 1
реакция 1
Ростов 1
127 1
капит@@ 1
Розен@@ 1
Ски@@ 1
Юг 1
1783 1
Прото@@ 1
Рона@@ 1
23,@@ 1
ес 1
словен@@ 1
Черни@@ 1
22,@@ 1
йно 1
Араб@@ 1
нования 1
публично 1
550 1
керами@@ 1
Бо 1
с.@@ 1
27,@@ 1
230 1
Мона@@ 1
танца 1
Карло@@ 1
сенато@@ 1
Se@@ 0.07057725146852661
ИК 1
55@@ 1
Open 0.19413181695092135
Лавре@@ 1
Средиземно@@ 1
1600 1
Боб 1
Синга@@ 1
нус 1
освобожда@@ 1
знака 1
конвер@@ 1
преодо@@ 1
рёх@@ 1
кава@@ 1
компи@@ 1
Киргиз@@ 1
хип 1
Ми 1
аква@@ 1
епископ@@ 1
вини@@ 1
No 0.14877917307495034
аван@@ 1
Хон@@ 1
WWE 0.7458611742969141
65@@ 1
спар@@ 1
пионе@@ 1
мий 1
назначена 1
хора 1
ka 0.07989482396582008
Франсиско 1
Гонса@@ 1
депор@@ 1
посещения 1
разда@@ 1
МиГ 1
казал 1
Boeing 0.9441193645411633
112@@ 1
Производ@@ 1
сканда@@ 1
тайно 1
бад 1
Церков@@ 1
210 1
Sony 0.724827317821094
Густав 1
Фей@@ 1
пена 1
ОС 1
ФЛ 1
гария 1
Иси@@ 1
дубли@@ 1
проститу@@ 1
Мели@@ 1
потенциал 1
тона@@ 1
небес@@ 1
нт 1
Поня@@ 1
внук 1
националистиче@@ 1
Лак@@ 1
пал@@ 1
СИ@@ 1
Нат@@ 1
сбург 1
куз@@ 1
суро@@ 1
бул 1
Мост 1
биография 1
Дик@@ 1
шар 1
Активно 1
рера 1
мали@@ 1
Top 0.23557529690483503
бели 1
70@@ 0.8556280509158939
Cor@@ 0.08342272634440824
di 0.09286841188347478
Алекс 1
Независи@@ 1
Ток@@ 1
Фести@@ 1
конфигу@@ 1
лимпи@@ 1
подар@@ 1
предмет 1
приказ@@ 1
Вел@@ 1
Зав@@ 1
вза@@ 1
тата@@ 1
Европа 1
Обер@@ 1
менту 1
Федерация 1
4000 1
схема 1
ада 1
джо 1
Кинг 1
RA@@ 0.3852817026834251
СС@@ 1
нераз@@ 1
лино 1
примити@@ 1
рее@@ 1
процент@@ 1
мь@@ 1
пилот 1
Административно 1
Позна@@ 1
дея 1
121 1
123 1
СМ@@ 1
оско@@ 1
Установ@@ 1
мил 1
терапев@@ 1
Теоре@@ 1
Арти@@ 1
зис 1
Лео@@ 1
гес 1
разделение 1
формация 1
ганы 1
Бин@@ 1
еванге@@ 1
насеком@@ 1
Вклю@@ 1
висо@@ 1
пожар 1
броненос@@ 1
РБ 1
Реда@@ 1
столица 1
Ванку@@ 1
атия 1
Анд@@ 1
· 0.04972947695212059
Games 0.18507747167171282
комбини@@ 1
спонсо@@ 1
шке@@ 1
Бразилия 1
IS@@ 0.32854683071363644
мане 1
чести 1
тес 1
Онтарио 1
poem 0.5196542695039859
Фир@@ 1
оро@@ 1
Пери@@ 1
Анаста@@ 1
дворцо@@ 1
126 1
колум@@ 1
анс 1
харе@@ 1
ГБ 1
джин@@ 1
Сприн@@ 1
вика@@ 1
кибер@@ 1
процеду@@ 1
латви@@ 1
Linux 0.9478575437770298
Основана 1
нея 1
модернизи@@ 1
тас 1
абстрак@@ 1
46@@ 1
македон@@ 1
прови@@ 1
Award 0.1059299343659611
неизмен@@ 1
Дипло@@ 1
разнообрази@@ 1
Бенеди@@ 1
Tour 0.1321701885493344
конфли@@ 1
моли@@ 1
кипа@@ 1
прину@@ 1
Характер@@ 1
28,@@ 1
яма 1
Детство 1
методо@@ 1
USD 0.9264700607138819
кабинет 1
проведено 1
радиа@@ 1
Кот 1
кату@@ 1
плата 1
320 1
Уайт 1
Гау@@ 1
Мек@@ 1
ядро 1
буква@@ 1
Марга@@ 1
Убий@@ 1
крепо@@ 1
легиона 1
тни@@ 1
47@@ 1
Форми@@ 1
синаго@@ 1
фаво@@ 1
Завод 1
проду@@ 1
AT@@ 0.37891765209283074
миз@@ 1
ляна 1
доктри@@ 1
Сената 1
напит@@ 1
RE@@ 0.44343027772926735
Нагор@@ 1
ma 0.08387917305979817
миров 1
зили 1
em@@ 0.04847633186877893
дружества 1
Й 1
Нил 1
церемония 1
ук 1
Кара 1
См@@ 1
дент 1
етна@@ 1
кампания 1
Касте@@ 1
граждане 1
Bank 0.1950552860272928
Алан 1
0,1 1
избрана 1
сати@@ 1
сили@@ 1
Зам@@ 1
демонстрации 1
тений 1
бака 1
усе@@ 1
страх 1
Pro@@ 0.10129161217910213
ДС 1
обознача@@ 1
Изуча@@ 1
конструктор 1
скуль@@ 1
вон 1
подкреп@@ 1
жённых 1
цивилизации 1
сеп@@ 1
стратегии 1
гимнасти@@ 1
Армия 1
выступи@@ 1
Нек@@ 1
варя 1
рецензии 1
держит 1
победи@@ 1
скара 1
рако@@ 1
Лейк 1
ориен@@ 1
гава 1
РИ@@ 1
съё@@ 1
Портре@@ 1
ec@@ 0.05810811535091686
HMS 0.6606020653883463
манипу@@ 1
паша 1
развлекате@@ 1
Академия 1
Украи@@ 1
Вильгель@@ 1
1770 1
Media 0.2515411282569528
Поро@@ 1
физиологи@@ 1
галактика 1
Йозеф 1
понен@@ 1
фара@@ 1
Значение 1
Ниге@@ 1
мега@@ 1
комен@@ 1
1,7 1
Рейн 1
инженерно 1
21,@@ 1
пур 1
агломе@@ 1
Клау@@ 1
Противо@@ 1
Азербай@@ 1
Славян@@ 1
услу@@ 1
Par@@ 0.06851845190112939
картин@@ 1
ключ 1
пос 1
Блу@@ 1
Star 0.17966235638101655
кажд@@ 1
CO@@ 0.32494634831322805
Уз@@ 1
дос 1
неизбе@@ 1
участи@@ 1
Зиг@@ 1
Шел@@ 1
Бати@@ 1
кратно 1
зил 1
мимо 1
Хло@@ 1
Br@@ 0.07042542926918044
Твор@@ 1
Тав@@ 1
Узбекистан 1
гай 1
саксон@@ 1
физика 1
Прогре@@ 1
певи@@ 1
Пти@@ 1
2,4 1
Маргарита 1
стоят 1
сепара@@ 1
кай 1
парат 1
контей@@ 1
Опера@@ 1
пром 1
Super 0.20087064914306418
Акаде@@ 1
фонсо 1
архив 1
мец 1
заседа@@ 1
Rolling 0.8182341194033391
1789 0.8916113007054554
Фил@@ 1
наби@@ 1
Стю@@ 1
Боло@@ 1
Замест@@ 1
взаимодействие 1
Швед@@ 1
наследство 1
Дома@@ 1
старт 1
Шри 1
тибе@@ 1
рез 1
Португа@@ 1
дик@@ 1
Game 0.2851971082360659
Джона@@ 1
насто@@ 1
репети@@ 1
казар@@ 1
нах@@ 1
мета 1
Петер 1
пропаган@@ 1
ator 0.07487623705457848
клад 1
Хим@@ 1
Radio 0.1589368439390033
махта 1
библей@@ 1
организатор 1
Еврази@@ 1
Мара@@ 1
Ям@@ 1
Уче@@ 1
Сена@@ 1
оната 1
Ава@@ 1
Йорк@@ 1
Нот@@ 1
1791 1
тексти@@ 1
Кларк 1
транскрип@@ 1
офис 1
Кавказ 1
хет@@ 1
Колорадо 1
2,3 1
безуспешно 1
прикреп@@ 1
персо@@ 1
фект 1
154 1
ad@@ 0.033288025262146484
ul@@ 0.04785644937425045
кава 1
тихо@@ 1
Влияние 1
маркси@@ 1
наказа@@ 1
федерация 1
Фернандо 1
шно 1
se 0.0051934816353011335
реставри@@ 1
Жиз@@ 1
фектив@@ 1
конференция 1
фолк 1
Гиб@@ 1
Куз@@ 1
гости 1
включен 1
Хин@@ 1
Ланд@@ 1
Сце@@ 1
правосла@@ 1
Президент@@ 1
скандина@@ 1
ella 0.09460059509778782
вален@@ 1
чехослова@@ 1
чени 1
знаме@@ 1
катего@@ 1
1700 1
Брази@@ 1
Фото@@ 1
йе@@ 1
персонала 1
Служба 1
генери@@ 1
жизне@@ 1
кинс 1
метео@@ 1
Марио 1
несено 1
дц@@ 1
лото 1
Детро@@ 1
гол@@ 1
Тома 1
175 1
Стандар@@ 1
лоу 1
Сове@@ 1
полуфинала 1
коли@@ 1
эксплуата@@ 1
18@@ 0.5748211180629379
Томп@@ 1
Фридри@@ 1
Анали@@ 1
Класси@@ 1
иди@@ 1
Str@@ 0.08932137818411684
Сверд@@ 1
Мике@@ 1
Севи@@ 1
Аса@@ 1
Мета@@ 1
Близ@@ 1
теми 1
постепен@@ 1
степи 1
площадка 1
тали@@ 1
Интерес@@ 1
кубин@@ 1
Импера@@ 1
Ой@@ 1
Постепенно 1
левич 1
Диони@@ 1
цент 1
115@@ 1
Песни 1
драматург 1
Ил@@ 1
статисти@@ 1
Кариб@@ 1
оса 1
телеско@@ 1
Арсе@@ 1
отвле@@ 1
Доку@@ 1
118 1
Башкорто@@ 1
Тян@@ 1
чище 1
Дуна@@ 1
ходство 1
вян@@ 1
5.@@ 0.4349265857691111
no 0.016156699189214987
Капи@@ 1
кош@@ 1
космонав@@ 1
рт 1
кав@@ 1
латино@@ 1
тали 1
гю@@ 1
модифици@@ 1
Нава@@ 1
конку@@ 1
метеоро@@ 1
еги@@ 1
неа@@ 1
134 1
44@@ 1
1,1 1
131 1
жилищ@@ 1
сложно 1
ed@@ 0.06452517380151804
лежат 1
132 1
Орен@@ 1
Фердинанд 1
рати@@ 1
селек@@ 1
Ниц@@ 1
дли 1
слоя 1
IP 0.5472963105848568
Яну@@ 1
Bo@@ 0.09009270362678205
ea 0.12555068590819804
между@@ 1
букси@@ 1
Ахмед 1
De 0.05503556338863661
гендер@@ 1
ив@@ 1
янка 1
Балкан@@ 1
il@@ 0.053048930816882826
зова@@ 1
отбора 1
Робин@@ 1
грави@@ 1
награда 1
Брак 1
скар@@ 1
Капитан 1
Be@@ 0.06133965480379607
Дама@@ 1
Феликс 1
олон@@ 1
погребе@@ 1
1775 1
Шай@@ 1
жо 1
каска@@ 1
СН@@ 1
Уим@@ 1
Цари@@ 1
перегово@@ 1
монах 1
флаг@@ 1
исторически 1
интерфей@@ 1
Дре@@ 1
Ов@@ 1
дят 1
палестин@@ 1
Фило@@ 1
Посе@@ 1
кора 1
хат 1
ях@@ 1
нима 1
Stone 0.3742750505103428
Император 1
Без 1
Джузе@@ 1
констан@@ 1
Мав@@ 1
тировала 1
фарма@@ 1
Кинг@@ 1
рани 1
em 0.08259240162104758
Ким@@ 1
отраз@@ 1
стихотворение 1
хозяйственный 1
Аля@@ 1
амино@@ 1
смыс@@ 1
прице@@ 1
баков 1
положен 1
ят@@ 1
Трен@@ 1
Мерку@@ 1
косве@@ 1
сман 1
таго@@ 1
химик 1
Мадрид 1
Рин@@ 1
Запада 1
традиция 1
Почет@@ 1
уравнения 1
Чен@@ 1
Доми@@ 1
каре@@ 1
рог 1
страст@@ 1
Глаз@@ 1
пилота 1
Австрали@@ 1
стихотворения 1
поне@@ 1
ули 1
привилеги@@ 1
Наблю@@ 1
национал 1
жда 1
бий 1
борец 1
мону@@ 1
ate 0.021922392639102097
океан 1
пори@@ 1
City 0.043847207634902616
Известна 1
650 1
антро@@ 1
гел@@ 1
Ибн 1
флей@@ 1
заро@@ 1
зиди@@ 1
хотела 1
бод@@ 1
фигура 1
приорите@@ 1
Mon@@ 0.06911962005381934
чуж@@ 1
цари@@ 1
Канад@@ 1
тман 1
Инте@@ 1
Регу@@ 1
контакт 1
вёт 1
тук 1
чеб@@ 1
For@@ 0.0960841384672357
Медицин@@ 1
атак@@ 1
Реал 1
News 0.24933654370361416
Le 0.012767379427723876
ЛГБТ 1
памя@@ 1
стройство 1
туро@@ 1
Абдул 1
Мак 1
вул@@ 1
лазер@@ 1
ук@@ 1
165 1
теше@@ 1
ношение 1
Багда@@ 1
свит@@ 1
129 1
СКА 1
коко@@ 1
вампи@@ 1
ai 0.07333669906016599
Грен@@ 1
li 0.17161402702417886
вещество 1
канц@@ 1
Бавария 1
colspan 0.426180947490766
Куин@@ 1
Армения 1
Марий 1
рога 1
лову@@ 1
семе@@ 1
Лас 1
талант 1
0.@@ 0.14928462230509768
Поле@@ 1
Тет@@ 1
лорд 1
вше@@ 1
XX@@ 1
Евге@@ 1
ел@@ 1
SP@@ 0.37008253746006825
тау 1
ab@@ 0.025227753556397364
физик 1
Учеб@@ 1
личане 1
Хот@@ 1
1774 1
Спорт 1
деля 1
ыгра@@ 1
риал@@ 1
Col@@ 0.0750321407368717
оптими@@ 1
тене 1
ity 0.0414492022125364
ПО@@ 1
0,3 1
меч 1
зап@@ 1
ag@@ 0.039396858964400636
провод 1
заложен 1
основополож@@ 1
писан 1
тани 1
циан@@ 1
ученика 1
Сокра@@ 1
заку@@ 1
po@@ 0.053231183635619655
коали@@ 1
заса@@ 1
280 1
Музея 1
декс 1
достиг@@ 1
ro@@ 0.050722536610701925
Хун@@ 1
вмести@@ 1
Микро@@ 1
клин@@ 1
ter 0.0333506336618335
Изабе@@ 1
Дрей@@ 1
Локо@@ 1
щит 1
цет@@ 1
зета 1
мач@@ 1
министерство 1
Куро@@ 1
вене@@ 1
сатири@@ 1
нати@@ 1
поди@@ 1
1787 1
дро 1
29,@@ 1
време@@ 1
Операция 1
Браун@@ 1
EP 0.24124729440066126
трафи@@ 1
IB@@ 1
Ум@@ 1
регистри@@ 1
сектор 1
публицист 1
ема 1
ринг@@ 1
нта 1
образи@@ 1
Ака@@ 1
Дрез@@ 1
to@@ 0.06263906167320679
куби@@ 1
тено 1
Освобо@@ 1
Афа@@ 1
блу@@ 1
Кейт 1
форте@@ 1
Бил@@ 1
внезап@@ 1
Султан 1
обвин@@ 1
дисцип@@ 1
di@@ 0.03765685115397116
маркетин@@ 1
рама 1
ST@@ 0.37051814415809287
Бод@@ 1
такси 1
атака 1
Запад 1
Пес@@ 1
диалект 1
фал@@ 1
середи@@ 1
ine 0.03661095363805321
дог@@ 1
субтропи@@ 1
0,2 1
Така@@ 1
интри@@ 1
духа 1
безо@@ 1
цио 1
Ску@@ 1
полуостров 1
небе@@ 1
зас 1
продукта 1
Анге@@ 1
Сигиз@@ 1
яр 1
Франс 1
Теодор 1
Com@@ 0.08342076424198305
Наталь@@ 1
стена 1
Стати@@ 1
агент 1
циви@@ 1
Издате@@ 1
МС 1
Шпи@@ 1
хребет 1
Blue 0.2194234835209397
Туни@@ 1
фат 1
Тибе@@ 1
записана 1
лево 1
притока 1
Путин 1
te 0.01929114230875126
CG 1
моя 1
Афри@@ 1
стандарта 1
фармацев@@ 1
Кристина 1
парата 1
царе@@ 1
шаяся 1
вакан@@ 1
2,2 1
Андреа 1
хон 1
Челси 1
Маса@@ 1
раж 1
сувере@@ 1
бал 1
Co 0.2824935886054345
Die 0.008871305351447237
пиз@@ 1
отбор 1
прино@@ 1
Учред@@ 1
ниса 1
Радо@@ 1
Am@@ 0.07517518333406203
сак@@ 1
рожден@@ 1
дне 1
репре@@ 1
хру@@ 1
Бава@@ 1
Бруно 1
Иници@@ 1
бец 1
National 0.031769915663604195
59@@ 1
лад 1
рион 1
Папа 1
цари 1
бара 1
Pr@@ 0.08167619059597203
Гово@@ 1
Наполеон 1
писана 1
декре@@ 1
Пушкин 1
Луиза 1
многократно 1
обер@@ 1
переу@@ 1
Disney 0.3238208689743838
чино 1
маршал 1
IN@@ 0.3134373419931632
дас 1
питан@@ 1
стандарт 1
8,5 1
Служ@@ 1
пения 1
http 1
Разу@@ 1
сев 1
Шин@@ 1
мид 1
пакет 1
юрисдик@@ 1
Виз@@ 1
Кой@@ 1
Лига 1
минонос@@ 1
люс 1
116@@ 1
цово 1
катали@@ 1
НА 1
огла@@ 1
133 1
Биз@@ 1
кота 1
43@@ 1
ционер 1
Учи@@ 1
Бож@@ 1
хок@@ 1
Спен@@ 1
кю@@ 1
вспо@@ 1
рида 1
риев 1
скам 1
Размно@@ 1
млн. 1
гари 1
Аку@@ 1
опозна@@ 1
вис@@ 1
мово 1
7.@@ 0.5101886823452735
находки 1
Симп@@ 1
кани@@ 1
Лиг@@ 1
манифе@@ 1
механика 1
рим 1
фар 1
Большо@@ 1
Сали@@ 1
хим@@ 1
us@@ 0.046373237608374376
жертво@@ 1
Team 0.1216608229073073
Дин@@ 1
архие@@ 1
фокуси@@ 1
ДК 1
арми@@ 1
дай 1
балан@@ 1
гово 1
снение 1
Север 1
стили@@ 1
Сталин 1
маски@@ 1
Награ@@ 1
маз@@ 1
1788 1
á@@ 0.09161621292995091
зв@@ 1
циклопе@@ 1
Анг@@ 1
спуска@@ 1
AM@@ 0.39176167695842373
Злато@@ 1
Лед@@ 1
136 1
там@@ 1
лада 1
Хау@@ 1
144 1
style 0.0762756255265154
Ману@@ 1
етро 1
синхро@@ 1
260 1
ДП@@ 1
Джим 1
Лим@@ 1
Тин@@ 1
Смер@@ 1
Венециан@@ 1
крите@@ 1
Ел@@ 1
карта 1
шру@@ 1
Туркмени@@ 1
мония 1
Бун@@ 1
Норве@@ 1
бюджет 1
юще@@ 1
Оди@@ 1
бетон@@ 1
ьяна 1
мрамор@@ 1
ирак@@ 1
ВД 1
фен 1
3,6 1
щер@@ 1
верто@@ 1
137 1
MS 0.3224346870416503
статуи 1
тери 1
Николаев 1
гей 1
разрешено 1
Лео 1
Концеп@@ 1
резерв 1
бре 1
числен 1
Харт@@ 1
лаг 1
песен@@ 1
поде@@ 1
Рекор@@ 1
~ 0.720329038527896
1785 1
lo@@ 0.04913430466198855
li@@ 0.0442362256496433
буква 1
сна@@ 1
Ro@@ 0.08800504403058018
рай 1
Оса@@ 1
141 1
сфера 1
Днепро@@ 1
Жор@@ 1
оформление 1
Адмирал@@ 1
Бата@@ 1
Радио@@ 1
зале@@ 1
ic 0.043187703573012284
Конвен@@ 1
Фели@@ 1
Азия 1
наука 1
ака@@ 1
Обы@@ 1
Оу@@ 1
виц 1
Лаза@@ 1
метрия 1
Средизем@@ 1
Аги@@ 1
Mercedes 0.7128046063233221
ite 0.057486363386039976
пожела@@ 1
Дона 1
Бургун@@ 1
вир@@ 1
фори@@ 1
UK 0.11258877401394904
Маври@@ 1
инструк@@ 1
лек 1
2500 1
наименования 1
Моцар@@ 1
хат@@ 1
Is 0.30646253947360974
мик 1
1764 1
Кевин 1
сравнитель@@ 1
270 1
ir@@ 0.047259646092604767
докумен@@ 1
тест 1
119 1
нок@@ 1
тори@@ 1
аце@@ 1
мигри@@ 1
Сне@@ 1
Тео@@ 1
кума 1
ант 1
380 1
tr@@ 0.02983924255951116
разу@@ 1
ранг 1
нея@@ 1
Тип 1
117@@ 1
космос 1
Ford 0.2645446580706403
сент@@ 1
58@@ 1
плавате@@ 1
чания 1
печа@@ 1
фоку@@ 1
90@@ 0.8303591080941943
Night 0.28368583031495204
неподви@@ 1
тексто@@ 1
2,6 1
114@@ 1
кабинета 1
Нав@@ 1
Участ@@ 1
AT 0.4461446526772714
ничестве 1
Осман@@ 1
CD@@ 0.46661352438004555
рали 1
поми@@ 1
Xbox 0.9994073394794478
укрепление 1
нула 1
леднико@@ 1
терн 1
синхрон@@ 1
0,6 1
re@@ 0.01076848492263093
шип 1
PGC 1
приходи@@ 1
камени@@ 1
Бок@@ 1
цате@@ 1
нав@@ 1
1781 1
пера@@ 1
вечер 1
Двигате@@ 1
Симон 1
AC 0.2150035160532451
q 0.20369851385196913
подобие 1
US 0.04028380292123147
проти@@ 1
фасада 1
CA@@ 0.2739797621740654
дента 1
наследника 1
уш 1
Ару@@ 1
Свер@@ 1
лиза 1
слад@@ 1
огнестре@@ 1
Краснозна@@ 1
Рав@@ 1
арест 1
Рига 1
нич 1
6.@@ 0.42671333056755567
Резу@@ 1
Ню@@ 1
Стади@@ 1
борь@@ 1
Ne@@ 0.07454739076972958
Journal 0.24769532416995257
On 0.017359665324155314
un@@ 0.01531278640034852
арк@@ 1
секс 1
201 1
СР 1
лук 1
201@@ 0.6916903673852622
atus 0.21862425987556822
ter@@ 0.04322175443875988
архипелага 1
вят 1
заседание 1
теж 1
Аби@@ 1
Заслу@@ 1
110@@ 1
Lo@@ 0.104337865199862
Саксония 1
минг 1
озер@@ 1
коне 1
полупровод@@ 1
1778 1
Лот@@ 1
Ви 1
www.@@ 0.7930431305796279
уз 1
дефи@@ 1
стя 1
Ленин 1
несколь@@ 1
Таври@@ 1
комбинации 1
Роберто 1
зал@@ 1
плюс 1
взи@@ 1
амби@@ 1
тираж 1
15.@@ 0.6650328512559629
Коле@@ 1
Your 0.40826473531307783
барди@@ 1
Вак@@ 1
Аман@@ 1
дует 1
лини 1
ЛС 1
НС 1
Стеф@@ 1
Ирак@@ 1
мелоди@@ 1
пораз@@ 1
Госпо@@ 1
неожи@@ 1
титуляр@@ 1
тюрь@@ 1
Яма@@ 1
рентге@@ 1
никс 1
умно@@ 1
School 0.03497747990626747
поставки 1
легенда 1
сиг@@ 1
убежище 1
Необходи@@ 1
склад 1
вее 1
стик 1
co@@ 0.037576882550037105
ико@@ 1
видеокли@@ 1
призо@@ 1
ПУ 1
Уст@@ 1
автом@@ 1
Ac@@ 0.10573463254318297
даго@@ 1
ТИ@@ 1
МВ@@ 1
Рем@@ 1
гви@@ 1
знагра@@ 1
Pictures 0.5584082703537467
бег 1
водоизме@@ 1
142 1
брь 1
Сли@@ 1
Формула 1
архива 1
Pol@@ 0.10267170628135723
149 1
БА 1
мерикан@@ 1
Li@@ 0.0982186292549401
риска 1
включено 1
династи@@ 1
Гранд 1
Хел@@ 1
ант@@ 1
Директор 1
Гли@@ 1
бино 1
Антоний 1
настрое@@ 1
Pro 0.267666168164554
тени 1
мем@@ 1
AG 0.25807426494825514
Te@@ 0.09546611925897476
сено@@ 1
As@@ 0.07908616178477175
2,7 1
330 1
формата 1
ализма 1
Мур 1
НА@@ 1
Монт@@ 1
56@@ 1
др. 1
нева 1
Верну@@ 1
шел@@ 1
146 1
ty 0.06039945987851965
гимна@@ 1
синтез 1
опусто@@ 1
риан 1
49@@ 0.6946336400737005
хоп 1
Популяр@@ 1
приложение 1
Раду@@ 1
Като@@ 1
Big 0.15228462199030318
Ора@@ 1
Проду@@ 1
враг 1
енто@@ 1
риана 1
фраз@@ 1
анархи@@ 1
пас 1
мене 1
мари 1
дал@@ 1
два@@ 1
марке@@ 1
Фрай@@ 1
SS@@ 0.4486109232254709
Пли@@ 1
53@@ 1
Ред 1
Пример 1
Sonic 1
Ver@@ 0.03240596848910953
закуп@@ 1
фау@@ 1
кати@@ 1
АР 1
Фабри@@ 1
антисемит@@ 1
Street 0.07164840213820416
вестник 1
A.@@ 0.2702109571336665
могила 1
Сит@@ 1
ve 0.01618911921002147
Кате@@ 1
веков@@ 1
Inter@@ 0.09811699190766203
кна 1
est 0.0037090545624874254
цело@@ 1
сру@@ 1
Нюр@@ 1
Вследствие 1
Скор@@ 1
развали@@ 1
геноци@@ 1
Тау@@ 1
концентри@@ 1
Монте 1
местно 1
народо@@ 1
нак 1
хвой@@ 1
Прован@@ 1
Региона@@ 1
Бангладеш 1
Me@@ 0.07717477417125575
ментами 1
1300 1
шанс 1
зидиума 1
Inc 1
Френ@@ 1
лите 1
сим 1
Of 0.22144744780026743
Монако 1
Бази@@ 1
AD@@ 0.33494658045653825
Хоу@@ 1
MA 0.32905875910718424
олицетво@@ 1
67@@ 1
Ник 1
Sp@@ 0.08989635820375591
9.@@ 0.4253099766536261
SE@@ 0.2978444232029185
14.@@ 0.5544791485180448
доклад 1
рисунки 1
138 1
лага 1
Ge@@ 0.08650190527178851
изоби@@ 1
сиро@@ 1
тари 1
3,2 1
наса@@ 1
Блей@@ 1
Хасан 1
радиус 1
консул 1
банов 1
пала@@ 1
стове 1
тита@@ 1
обвинение 1
Нет@@ 1
Зву@@ 1
ent 0.01822072543956766
8.@@ 0.5853397633019328
Gr@@ 0.06585273550094031
du 0.0040058294697149985
оно@@ 1
Раст@@ 1
неблагоприя@@ 1
мусуль@@ 1
пеще@@ 1
инструмента 1
сани@@ 1
екто@@ 1
эксп@@ 1
SA 0.2585076270630906
Антаркти@@ 1
yr@@ 0.2035978635551993
Ами@@ 1
ориги@@ 1
Прай@@ 1
Террито@@ 1
Ками@@ 1
Дио@@ 1
AN@@ 0.30186985194838506
ото 1
Юни@@ 1
148 1
икона 1
визия 1
2,8 1
Bl@@ 0.10875431502779934
льди@@ 1
жандар@@ 1
нян 1
политан@@ 1
макси@@ 1
0,8 1
ER@@ 0.3828775036096383
пенди@@ 1
хаус 1
хти@@ 1
конту@@ 1
рево 1
кардинал 1
1776 1
компенси@@ 1
фланг 1
im@@ 0.03276727788446274
репли@@ 1
Зат@@ 1
затор 1
Уа@@ 1
Mo@@ 0.07876316856305351
ob@@ 0.05727519964762675
Скон@@ 1
139 1
привати@@ 1
квартал 1
IM@@ 0.4718067471805811
Астра@@ 1
кало@@ 1
1773 1
пропор@@ 1
разнообразие 1
id 0.09628964901296606
мери 1
деса 1
151 1
ию@@ 1
Лидия 1
русалим 1
социализма 1
целу@@ 1
ak 0.06859884234211518
Антония 1
лила 1
Ола@@ 1
Распростра@@ 1
Скар@@ 1
лива@@ 1
ә@@ 1
госу@@ 1
нестаби@@ 1
старта 1
дого 1
спери@@ 1
тум 1
пропуск@@ 1
Тита@@ 1
Fox 0.25238574650870566
замест@@ 1
ступив 1
og@@ 0.07774074581187053
лента 1
реформа 1
Сене@@ 1
Атлетико 1
мка 1
Клод 1
второ@@ 1
даря 1
Бундесли@@ 1
неви@@ 1
Университе@@ 1
балет 1
20.@@ 0.7208047235781038
резерва 1
пит 1
РК@@ 1
смар@@ 1
AC@@ 0.2884254984742975
вра 1
} 0.2906147340326758
нак@@ 1
Гене@@ 1
урба@@ 1
‘ 0.12756616306519594
лько 1
бав@@ 1
уми@@ 1
видят 1
але@@ 1
комплект 1
октя@@ 1
редакция 1
FM 0.21057945570455452
хайм 1
Бенджа@@ 1
Швей@@ 1
рачи@@ 1
н.@@ 1
доволь@@ 1
жре@@ 1
гау 1
лаборатор@@ 1
преце@@ 1
My@@ 0.20817612744393374
UFC 1
кул 1
андар@@ 1
иконоста@@ 1
лус 1
президен@@ 1
Dis@@ 0.12025337611781377
патриарх 1
147 1
Фланд@@ 1
бог 1
мизи@@ 1
социологи@@ 1
Best 0.10987881955290422
хронологи@@ 1
Жозеф 1
варе 1
Пиро@@ 1
среда 1
СВ 1
143 1
архипе@@ 1
катор 1
лайн 1
with 0.002646315232263336
Бене@@ 1
Per@@ 0.05971273920250422
гряз@@ 1
are 0.00622655460779563
Норвегия 1
ада@@ 1
безработи@@ 1
age 0.01903008413929726
1772 1
давле@@ 1
пай@@ 1
атлан@@ 1
Флора 1
Корин@@ 1
Уд@@ 1
Австра@@ 1
кок 1
фей@@ 1
ens 0.033164020912055066
зра@@ 1
карь@@ 1
хре@@ 1
Пак@@ 1
РО 1
Есте@@ 1
Лев@@ 1
долина 1
прова@@ 1
Дит@@ 1
System 0.17040702823024903
сбур@@ 1
,@@ 1
6000 1
приятеля 1
1786 1
продукция 1
Лихтен@@ 1
si@@ 0.06827048463895961
сив@@ 1
Sc@@ 0.15496550565922254
телеви@@ 1
излиш@@ 1
тре 1
El@@ 0.057575978101916156
розы@@ 1
чудови@@ 1
рефлек@@ 1
no@@ 0.0680735716980205
соло 1
de@@ 0.028933542575047995
капитал 1
мине 1
Лопес 1
причина 1
полис 1
Up 0.3286938929641607
лиев 1
203 1
3,3 1
Мем@@ 1
Мау@@ 1
1779 1
Out 0.32494463755325437
185 1
Grand 0.07174640878511364
2,1 1
нойс 1
лете 1
пласт@@ 1
0,7 1
od@@ 0.06821789433218449
НАСА 1
нически 1
156 1
почи@@ 1
name 0.028645644819401916
инфраструктура 1
Признание 1
Сина@@ 1
протокол 1
0,4 1
детство 1
α 0.276130514240989
1,9 1
Каси@@ 1
фата 1
Африка 1
книго@@ 1
ФИФА 1
cd@@ 1
Алиса 1
Зенит 1
ОО@@ 1
щите 1
Пантеле@@ 1
правну@@ 1
ранов 1
ия 1
тист 1
256 1
Компа@@ 1
Юри@@ 1
заблу@@ 1
шуюся 1
Art 0.06897179135635252
баланси@@ 1
воде@@ 1
приключен@@ 1
Фау@@ 1
копия 1
Закона 1
Шва@@ 1
ak@@ 0.04692811987150273
хаузен 1
co 0.04382112652985741
Хайн@@ 1
Comics 0.48709449950485617
глаго@@ 1
мани 1
9,5 1
Гав@@ 1
Скан@@ 1
уи@@ 1
Маг@@ 1
единство 1
инер@@ 1
1768 1
ale 0.03455974930872062
унд 1
высту@@ 1
геоде@@ 1
Зор@@ 1
бур 1
Страс@@ 1
Фина@@ 1
Берг@@ 1
MI@@ 0.43444208360710007
Антвер@@ 1
рел 1
вор 1
Кил@@ 1
сегодняш@@ 1
225 1
av@@ 0.04176608858111038
Фила@@ 1
1100 1
Интере@@ 1
хате@@ 1
13.@@ 0.5220150208324206
AS 0.249135831246447
трамва@@ 1
СА 1
документа 1
Петрова 1
Принц 1
отказ@@ 1
фактор 1
64@@ 1
практику@@ 1
Хит@@ 1
разрушена 1
Video 0.3407451082575394
волей@@ 1
борг 1
снего@@ 1
неме@@ 1
нистиче@@ 1
шоко@@ 1
Роза 1
ne 0.019467534200726035
звукозапис@@ 1
alis 0.25257531818356277
скал 1
спира 1
губернато@@ 1
запаса 1
сериал@@ 1
Колумби@@ 1
Муста@@ 1
тета 1
Коста@@ 1
нио 1
тус 1
способна 1
153 1
планета 1
Конрад 1
3,8 1
вари 1
предназначен 1
бро 1
PS 0.2353982894991857
Мно@@ 1
инци@@ 1
He@@ 0.07864890517694381
палео@@ 1
17.@@ 0.6205484350563816
AL@@ 0.32547233064259423
Go 0.36934734296715677
отно@@ 1
63@@ 1
образно 1
Ханс 1
победителя 1
do 0.029790320767062724
лят 1
нация 1
ru@@ 0.06944867244263893
дри 1
стро 1
vi@@ 0.061447114256956016
Оригина@@ 1
Шиш@@ 1
гнал 1
Рок 1
ā@@ 0.12093484542997554
зово 1
зион@@ 1
категория 1
развита 1
реж@@ 1
1777 1
мп 1
мус 1
душе@@ 1
суша 1
SS 0.198329123492785
рар 1
\ 0.42503844435248567
писатели 1
ликви@@ 1
Дания 1
статуя 1
шевич 1
принципа 1
нисти@@ 1
отлично 1
ti 0.09036072326834754
.с. 1
ЗИ@@ 1
Ирландия 1
Android 0.8393064470733548
Политбюро 1
камера 1
пили 1
бров@@ 1
познания 1
лиан@@ 1
дум 1
специ@@ 1
Рой@@ 1
206 1
борн 1
Studio 0.33787670232551203
доставки 1
ə@@ 1
бите 1
зани 1
гос 1
30,@@ 1
МА 1
квизи@@ 1
Васили@@ 1
Нин@@ 1
атова 1
US@@ 0.21400397217118738
Warner 0.4042931340551746
88@@ 1
паде@@ 1
ke 0.054995479619513024
Грузия 1
Поб@@ 1
ni@@ 0.06551961870155447
короно@@ 1
партиза@@ 1
цирку@@ 1
We 0.17210040190046091
IBM 0.6598633391049898
Алексан@@ 1
кири@@ 1
re 0.035841014002046666
дошли 1
отво@@ 1
1400 1
Баден 1
сипи 1
Лота@@ 1
Квар@@ 1
дим 1
ракета 1
Or@@ 0.06383561157522281
22.@@ 0.7251854036103458
Диско@@ 1
Рузве@@ 1
Христос 1
era 0.023512592550673374
мёр@@ 1
роу 1
заменена 1
кау@@ 1
линко@@ 1
вкус 1
Day 0.1297844729603859
героиня 1
глюко@@ 1
1763 1
205 1
обсервато@@ 1
мез@@ 1
Гала@@ 1
математик 1
ts 0.023608359424165906
дика 1
Свобода 1
Тим 1
ist 0.0056968730289598795
Аро@@ 1
декват@@ 1
лва 1
фт@@ 1
МКС 1
интересу@@ 1
спора 1
1762 1
формула 1
167 1
Sun 0.21137197254512752
ывалось 1
разбой@@ 1
разгрома 1
ампли@@ 1
инжене@@ 1
3,4 1
мине@@ 1
Star@@ 0.232858504590227
ler 0.0343642871512942
глобус 1
сперан@@ 1
отпечат@@ 1
ATP 0.4703138639773794
разновидности 1
тев 1
222 1
сним@@ 1
ant 0.019008694061356277
Мла@@ 1
нито@@ 1
душа 1
ризма 1
бон 1
University 0.019241111176797023
Трини@@ 1
авторитет 1
архитектура 1
инспектор 1
унт 1
1760 1
фит@@ 1
бана@@ 1
см@@ 1
пана 1
168 1
Songs 0.33944547001351794
дове 1
Образу@@ 1
впис@@ 1
повя@@ 1
162 1
SO@@ 0.3810916300327979
Произ@@ 1
ABC 0.32233218029810884
RI@@ 0.3843417906233134
тара@@ 1
кала@@ 1
q@@ 0.13775958860801624
Bar@@ 0.045047441527743225
дежда 1
AP@@ 0.25958015368545745
коса 1
арха@@ 1
Don 0.14414012677074037
дад 1
color 0.12470399072060859
Шон 1
адвокат 1
побереж@@ 1
фри 1
гуа 1
Чехослова@@ 1
дио 1
Изо@@ 1
авгу@@ 1
Аа@@ 1
шествие 1
химия 1
Ltd 0.3984738352189781
Кама@@ 1
музы@@ 1
Рит@@ 1
риф 1
县 0.15998168958212736
некти@@ 1
ó@@ 0.1006710345457843
Каса@@ 1
величе@@ 1
eb@@ 0.05553153907676954
ing@@ 0.04981163870572542
Бле@@ 1
несо@@ 1
кв. 1
FI@@ 0.32243705963391156
дман 1
зно 1
19.@@ 0.6714863756042767
публикация 1
Астро@@ 1
ya 0.02273613775461974
пиг@@ 1
клат@@ 1
мотив 1
Network 0.23716415274252414
Барба@@ 1
критику@@ 1
UTC 0.7220229044913583
популярен 1
Осло 1
3,7 1
канали@@ 1
Жорж 1
щица 1
стент 1
дур 1
комби@@ 1
Комп@@ 1
тане 1
вокалист 1
графика 1
гори 1
Луиджи 1
Лука 1
Сек@@ 1
Super@@ 0.14620079138571473
Лоб@@ 1
Тир@@ 1
Фишер 1
коны 1
NO@@ 0.3567441488330945
тове 1
услож@@ 1
вулкана 1
159 1
33,@@ 1
Фле@@ 1
57@@ 0.9688532819341733
ov@@ 0.07126175926041417
Сури@@ 1
таблица 1
173 1
Варшава 1
Вре@@ 1
убежи@@ 1
Бенга@@ 1
пресе@@ 1
результат@@ 1
Образ@@ 1
бассе@@ 1
Попо@@ 1
имити@@ 1
land 0.026384252059386205
War@@ 0.11595425934248905
Афганистан 1
Ph@@ 0.11068008724080443
Рико 1
фман 1
литературно 1
ri@@ 0.047742425083924414
цки 1
Географи@@ 1
уравнение 1
ans 0.020781031233413655
Психо@@ 1
Кастро 1
АД 1
джун@@ 1
Ало@@ 1
202 1
Чир@@ 1
дисло@@ 1
терапия 1
драт 1
ѣ@@ 1
пианист 1
вения 1
сценарии 1
Boy 0.34997803820864776
философия 1
Еф@@ 1
статистически 1
America 0.0682186398046287
можем 1
насилие 1
сор 1
ута 1
сфери@@ 1
исти@@ 1
Юсти@@ 1
Леонардо 1
Окта@@ 1
сент 1
кновен@@ 1
неравно@@ 1
Benz 1
King 0.06033266787802959
Абсолю@@ 1
Евро 1
Кан 1
172 1
Контро@@ 1
тате@@ 1
S.@@ 0.27692233846409486
75@@ 0.7837574331392244
джо@@ 1
Мюнхен 1
хен 1
Гибрал@@ 1
ys 0.10110771623435748
Опа@@ 1
диск@@ 1
eg@@ 0.04688766238149191
Адми@@ 1
Скри@@ 1
дъ@@ 1
Open@@ 0.5398916709076446
тенденции 1
ДП 1
тива 1
ig@@ 0.045313656257071684
To 0.10063479808184148
свобода 1
адвокат@@ 1
могу@@ 1
произвед@@ 1
Пело@@ 1
300@@ 1
Люд@@ 1
тава 1
Magazine 0.2849052166681216
me 0.04157254038004803
Кел@@ 1
нада 1
RS 0.3983648417475952
Богороди@@ 1
стандарти@@ 1
Мой@@ 1
Скандина@@ 1
Бог@@ 1
Марк@@ 1
Su@@ 0.08754626875508194
итуа@@ 1
пренебре@@ 1
ТА 1
Чап@@ 1
прокурор 1
un 0.002499983388818938
бис 1
джаз 1
1740 1
Beatles 0.70022495533209
Филосо@@ 1
емо 1
163 1
казано 1
клон 1
мпе@@ 1
Лонг 1
бита@@ 1
4,6 1
насла@@ 1
тли@@ 1
Ей 1
Загре@@ 1
блин 1
колония 1
Press 0.2287014921222247
летате@@ 1
Следовате@@ 1
Do@@ 0.13098853144278763
https 0.9489107232128317
Бавар@@ 1
Пед@@ 1
Курт 1
Chart 0.3907246135774933
династия 1
обработка 1
th 0.03537874659980897
β 0.5597517408000973
Space 0.2779097170086143
Счита@@ 1
юрис@@ 1
Min@@ 0.09769459726629437
21.@@ 0.6801077383096779
студент 1
Po@@ 0.08183485086327427
протест 1
слер 1
Intel 1
еве 1
les 0.0034039425415295977
мористи@@ 1
сне 1
Луций 1
Рикар@@ 1
кмет@@ 1
Изда@@ 1
австро 1
инспек@@ 1
Цице@@ 1
18.@@ 0.5986096580658552
Археологи@@ 1
лани 1
John 0.02218585555380909
IC 0.3325844157396931
WTA 0.9691570547759785
етнам 1
интервен@@ 1
Барбара 1
здра@@ 1
скандал 1
чете 1
74@@ 1
166 1
Теодо@@ 1
Франк 1
Капита@@ 1
Беле@@ 1
Морис 1
son 0.006824326435267713
Декла@@ 1
Маги@@ 1
Оба@@ 1
сенатор 1
Камбо@@ 1
йо 1
чни 0.9963025227885263
обрёл 1
sh@@ 0.030355757052769976
кация 1
Звез@@ 1
Косово 1
лаборатория 1
Темпера@@ 1
сора 1
General 0.04500421203148987
Be 0.41144942271950613
Гео@@ 1
Якоб 1
чести@@ 1
204 1
юни@@ 1
1771 1
репор@@ 1
Непосред@@ 1
3,1 1
ki 0.0933915502397767
Расте@@ 1
ca 0.07235166312659252
340 1
China 0.06039363541186407
разговор 1
словие 1
прототип 1
16.@@ 0.5291676436112713
Никарагуа 1
йни 1
постановка 1
нитет 1
ci@@ 0.05505217903940341
див@@ 1
резиденция 1
Fe@@ 0.1529663070256429
математика 1
161 1
нове 1
рами@@ 1
Гарсия 1
кит@@ 1
плоть 1
проход 1
вено 1
спан@@ 1
Рождество 1
ссов 1
1750 0.9512440743795928
процент 1
2,9 1
Digital 0.38791282592256726
Институ@@ 1
113@@ 1
бла 1
158 1
To@@ 0.12208645152395525
сдорф 1
Sega 1
Южно@@ 1
Грант 1
Вран@@ 1
157 1
ah 0.06011848819126907
Архе@@ 1
кула 1
бавар@@ 1
164 1
AB@@ 0.37408307746167296
корреспон@@ 1
зима 1
IR@@ 0.6516824725278446
DS 0.33136454286589323
Грей 1
сажи@@ 1
Хю@@ 1
тёпло@@ 1
½ 0.9497922048559515
кул@@ 1
Принима@@ 1
me@@ 0.06933734060786753
природо@@ 1
Mac@@ 0.09225652724896811
Metacritic 0.9629605403915703
джан@@ 1
дек 1
авиация 1
ФР@@ 1
можен 1
рини 1
Sch@@ 0.026759891519928452
испы@@ 1
Анда@@ 1
Гвате@@ 1
Народно 1
Семей@@ 1
спад 1
House 0.04695975807019062
щет 1
Хир@@ 1
ISBN 1
ax 0.2504823674996154
MP@@ 0.3031364133267379
Цер@@ 1
татор 1
CE@@ 0.24449879888931558
континента 1
изнача@@ 1
MLS 1
алистиче@@ 1
миш@@ 1
Симе@@ 1
Series 0.12732784794962695
диапазон 1
видеоклип 1
дане 1
криста@@ 1
декан 1
припа@@ 1
бакала@@ 1
столи@@ 1
лич 1
IC@@ 0.24163239629053204
Шах 1
кмета 1
Global 0.30531149450537476
буди@@ 1
Весе@@ 1
банки 1
СИ 1
БМ@@ 1
магне@@ 1
бри 1
гимназия 1
Верса@@ 1
ела 1
нег@@ 1
ly 0.026760659013343315
± 1
RO@@ 0.39134321128374555
коорди@@ 1
Осве@@ 1
36,@@ 1
тези 1
фат@@ 1
176 1
ik@@ 0.0469390751932374
211 1
Прага 1
Арсенал 1
кира 1
природа 1
мембра@@ 1
Адриа@@ 1
интерфейс 1
im 0.004250749365415942
Комите@@ 1
дивизион@@ 1
метаболи@@ 1
Медичи 1
ra 0.03149129220472962
Юлий 1
30.@@ 0.8868527884436694
Академик 1
пота@@ 1
шна 1
Карта@@ 1
самоуправление 1
ol 0.06887023674833999
набро@@ 1
яз@@ 1
бридж 1
коалиция 1
ru 0.8207255556647505
внимате@@ 1
кодекс 1
Поп@@ 1
йнс 1
25.@@ 0.6819388800839177
курфюр@@ 1
стихот@@ 1
Show 0.15547130105995402
ber@@ 0.04678161580165032
структури@@ 1
сус 1
High 0.05579711228321913
противопостав@@ 1
шат 1
Mus@@ 0.10034748581629516
ja 0.07254127497788306
Рей 1
Сира@@ 1
описана 1
вация 1
Михайлов 1
вето@@ 1
пож@@ 1
Почто@@ 1
вник 1
Daily 0.3598455306533922
Кав@@ 1
фами@@ 1
холм 1
наблюдение 1
невероя@@ 1
Дела@@ 1
1730 1
ВМ@@ 1
Феде@@ 1
Марта 1
Топ 1
бище 1
195 1
aceae 0.16999385252911833
квартала 1
факто 1
Павлов 1
Мале@@ 1
Universal 0.3521363625553372
Помпе@@ 1
ISO 0.6561824755624298
новь 1
снаряда 1
чица 1
Фол@@ 1
аз 1
Луизи@@ 1
спокойно 1
вете@@ 1
кален@@ 1
Архитек@@ 1
видна 1
дация 1
Post 0.15443952918226456
Буду@@ 1
батарея 1
192 1
48,@@ 1
причис@@ 1
ard 0.04346981056636382
Фал@@ 1
ард 1
Корей@@ 1
Facebook 0.4765935141733237
23.@@ 0.6063100145179254
Шара@@ 1
волю@@ 1
баланс 1
пно 1
йска 1
немед@@ 1
неожидан@@ 1
чево 1
Сиби@@ 1
Срав@@ 1
Vi@@ 0.10918052926277637
1765 1
Ser@@ 0.08375763484508893
WG 1
Канди@@ 1
Швейца@@ 1
Голд@@ 1
del 0.0037209315137725733
um@@ 0.03238467150996395
178 1
MC 0.3418055546487729
сбург@@ 1
ализация 1
Форд 1
Чика@@ 1
Традиционно 1
310 1
Сми@@ 1
трона 1
ограничен 1
Man@@ 0.05054080356764154
тано 1
Game@@ 0.6336372421304401
Венеция 1
мирович 1
Wrestling 0.308800876270903
гласно 1
AM 0.23396023052705606
никой 1
нити 1
bi@@ 0.03697827550375064
Манче@@ 1
Сил@@ 1
35,@@ 1
мес 1
This 0.01517973776655752
пани 1
купола 1
212 1
Pi@@ 0.08163716156801429
богатство 1
Tri@@ 0.08529404285947882
зеф 1
Паоло 1
охрана 1
850 1
Лоренцо 1
Канзас 1
прила@@ 1
47,@@ 1
лук@@ 1
средо@@ 1
Болга@@ 1
зрители 1
характерна 1
миграция 1
Дой@@ 1
реа@@ 1
Power 0.20986708542371144
ay 0.04932519333036027
близки 1
беле@@ 1
кола@@ 1
ола 1
54@@ 0.9652148489838899
1769 1
дол 1
174 1
риско@@ 1
гради@@ 1
Ь@@ 1
танце@@ 1
огро@@ 1
Park 0.0437210091856729
инцидента 1
просве@@ 1
183 1
бно 1
Робин 1
Rotten 0.906454230529404
вада 1
专区 1
78@@ 1
pr@@ 0.03956936882470339
1648 1
0,9 1
Film 0.050662358035978634
Country 0.22187322222960906
from 0.0028544030780734615
Еги@@ 1
Хаджи 1
Нед@@ 1
ach@@ 0.04331120313362468
купол 1
бата 1
ква 1
снен@@ 1
182 1
Джорджия 1
Мали 1
Чем@@ 1
Хаб@@ 1
Bi@@ 0.06798610665881144
Колум@@ 1
гент 1
Клав@@ 1
215 1
бестсел@@ 1
Шотландия 1
Ma@@ 0.060480395451947014
Приз@@ 1
перу@@ 1
001 1
Мери@@ 1
деш 1
гина@@ 1
атри@@ 1
астронав@@ 1
изде@@ 1
Разработ@@ 1
религия 1
Зад@@ 1
вак 1
семена 1
терна@@ 1
420 1
определена 1
чака 1
финан@@ 1
ics 0.07159101351152282
тун 1
Бонапар@@ 1
чёте 1
305 1
дого@@ 1
White 0.0829921323486184
Характеристи@@ 1
171 1
Мичиган 1
Барселона 1
шум 1
VI@@ 0.3990197483094985
Ирак 1
ация 1
основа 1
схва@@ 1
ї@@ 1
El 0.009269662597800191
Папа@@ 1
Укра@@ 1
условие 1
Адамс 1
so@@ 0.05991490402706987
ватия 1
оперативно 1
169 1
mo@@ 0.05029242816548388
left 0.03664201404952897
Арена 1
1710 1
мила 1
уважение 1
ce 0.015938067131971115
Center 0.0689963007304122
ick 0.07883268663872708
Югославия 1
пат 1
кале 1
Архите@@ 1
Краси@@ 1
66@@ 1
32@@ 1
цене@@ 1
Португалия 1
193 1
Line 0.12350262667087962
Мадага@@ 1
text 0.14625510442893036
няко@@ 1
Sol@@ 0.08366583974912775
What 0.251813002378591
background 0.19903013051946475
гую 1
Карпат@@ 1
прили@@ 1
ology 0.0561604252765326
Инду@@ 1
жди 1
Айрес 1
гано 1
графиня 1
синг 1
енс 1
Pan@@ 0.10275030831892086
den 0.0032023335006898276
28.@@ 0.7125871306827526
Мексикан@@ 1
анар@@ 1
цлав 1
se@@ 0.03226920523725057
Иисус 1
38,@@ 1
ati@@ 0.056221495661339854
толе@@ 1
Band 0.08828759419765693
норма 1
ino 0.050898548310285445
Кили@@ 1
инцидент 1
кого@@ 1
qu@@ 0.037520040125648066
ver@@ 0.014286972728316246
Зон@@ 1
pe@@ 0.0554719152679868
ks 0.043527437313792675
архимандрит 1
янов 1
Ad@@ 0.06611778135479172
Бору@@ 1
als 0.004789918264852017
235 1
Dance 0.29886918979327326
Люксембург 1
Марс 1
лаков 1
ьше 1
27.@@ 0.6618364644320605
Птоле@@ 1
Des@@ 0.08702768875147888
Tomatoes 0.9703252389895854
лабо@@ 1
SA@@ 0.23786097662349337
чане 1
оси@@ 1
мида 1
yl@@ 0.08297246890615426
салон 1
Андреев 1
куро@@ 1
порода 1
сала 1
Демо@@ 1
United 0.015537663056465726
ps 0.07342057420079219
разрабо@@ 1
Типи@@ 1
ley 0.03240485572784353
Тбили@@ 1
пейзажи 1
физически 1
1767 1
Свето@@ 1
разуме@@ 1
208 1
материал@@ 1
Максимили@@ 1
ландия 1
маха@@ 1
IT@@ 0.35887769340666387
истре@@ 1
é@@ 0.02537865334086074
Латвия 1
Express 0.2732760203035334
DE@@ 0.31252471729462306
Община 1
гроз@@ 1
Дос@@ 1
Fl@@ 0.07742218112464967
Ева 1
обши@@ 1
Харак@@ 1
концентрация 1
DJ 0.3013223317462197
церк@@ 1
Вито@@ 1
26.@@ 0.6451421016926028
Championship 0.062491967898589164
Ен@@ 1
Cl@@ 0.11287179164340368
земно@@ 1
бря 1
каро@@ 1
льян@@ 1
отбо@@ 1
177 1
монографи@@ 1
загра@@ 1
49,@@ 1
Science 0.10958758154462818
é 0.012235958445624017
NE@@ 0.37158624144646724
TE@@ 0.3459345400497348
br@@ 0.030097539986080498
запом@@ 1
Пик@@ 1
Сереб@@ 1
69@@ 1
биоти@@ 1
суэ@@ 1
нати 1
пролет@@ 1
стически 1
Кул@@ 1
коп 1
шлем 1
Мои@@ 1
die 0.0016144939758396877
ол 1
кане 1
конг 1
рел@@ 1
референдум 1
тернати@@ 1
СБ@@ 1
ura 0.0860688464747677
Вискон@@ 1
большо@@ 1
Литва 1
Пекин 1
постройка 1
Зал@@ 1
рала 1
статистика 1
Богдан 1
ей@@ 1
Куба 1
соф@@ 1
производители 1
Бей 1
MS@@ 0.3801458520278016
orum 0.3626272438579562
1660 1
4,4 1
per@@ 0.03211728962366372
£ 0.1353641834412544
Антан@@ 1
понти@@ 1
34,@@ 1
ton 0.030195547116951733
24.@@ 0.6047535468272394
Йон@@ 1
пий 1
Final 0.15798614948671796
Леона@@ 1
изре@@ 1
Royal 0.05049134157514176
Провин@@ 1
чини 1
мому 1
46,@@ 1
Go@@ 0.08358856815547597
Вестфа@@ 1
CBS 0.3152956175489223
вни@@ 1
NBC 0.3250717743323485
om 0.1076613122849634
Forbes 0.7009213762446557
UN@@ 0.19075741209016056
Кастилия 1
гарт 1
Dead 0.37998776192465505
il 0.0059674106962294745
ons 0.025414772167167626
pi@@ 0.04982211160039228
1758 1
пада 1
мити@@ 1
No@@ 0.11468774735193116
Осо@@ 1
ү@@ 1
Дел@@ 1
1720 1
188 1
Месопота@@ 1
жна 1
bo@@ 0.034443897231180645
ограничена 1
AR 0.3452355277062541
ance 0.033620890388549846
конструи@@ 1
спози@@ 1
Само 1
легат 1
лм 1
ьора 1
созвез@@ 1
Мустафа 1
€ 0.33243859492567807
1766 1
вска 1
императрица 1
DA 0.31625670196994465
бово 1
29.@@ 0.7246564854999266
дейл 1
RT@@ 0.3727803597894302
привиле@@ 1
Уста@@ 1
хаме@@ 1
гвар@@ 1
обстановка 1
1654 1
370 1
муску@@ 1
0000@@ 1
бути@@ 1
сылки 1
Mas@@ 0.07451172679291168
io 0.059553980245525245
Филип 1
410 1
Исторически 1
тенденция 1
трол@@ 1
ei 0.089648893949414
стрелка 1
Горно@@ 1
лта 1
Кук 1
ватели 1
редки 1
спешно 1
инвестиции 1
флу@@ 1
Racing 0.24188612090069217
ni 0.053495839021624955
290 1
лектри@@ 1
насий 1
лио 1
апси@@ 1
нест 1
средиземно@@ 1
1727 1
подло@@ 1
ула@@ 1
Гиз@@ 1
CI@@ 0.26985246285531395
Наталия 1
Среди@@ 1
sa 0.012851520955258815
персонал 1
1676 1
Bad 0.17701291309401115
CH@@ 0.2458083418897075
196 1
гвардия 1
говорен 1
Александров 1
Чита@@ 1
текто@@ 1
1761 1
Казимир 1
186 1
удов@@ 1
TA 0.2694003240110045
Кори@@ 1
наследник 1
Манд@@ 1
ot 0.05900209375485837
par@@ 0.026655883184410988
1756 1
впечатля@@ 1
CO 0.3525538045085123
палата 1
Ferrari 0.5205543021982462
затрудне@@ 1
š@@ 0.1235122741209092
Крепо@@ 1
ex 0.10627706551110029
† 0.053246459286360855
сол 1
Fantasy 0.6479295324244183
Пакистан 1
йор@@ 1
IP@@ 0.41439688846265244
Software 0.3922199040167249
ГБ@@ 1
Зеландия 1
спеди@@ 1
клин 1
AI@@ 0.25582974042656603
RT 0.3752317592786443
184 1
скет@@ 1
Пий 1
финансово 1
тура@@ 1
успоко@@ 1
Бар 1
пизо@@ 1
гнали 1
фотография 1
катастрофа 1
Cup 0.03735895178963611
Адриан 1
─ 0.38179424448613486
Er@@ 0.03705163012597571
ut@@ 0.0461875982560954
MO@@ 0.3492294904149811
Шлезвиг 1
развито 1
Юно@@ 1
Таджикистан 1
181 1
Bal@@ 0.06102593504338737
курорт 1
инструктор 1
217 1
близка 1
aw@@ 0.06718376681516551
Sk@@ 0.12188867069867051
данов 1
ФА 1
187 1
нома@@ 1
тавли@@ 1
Festival 0.06276210984438149
шате@@ 1
Cre@@ 0.1056115457978627
провизи@@ 1
дани 1
1708 1
бизнесмен 1
брехт 1
завладе@@ 1
инструкции 1
Хари@@ 1
вя 1
214 1
сервато@@ 1
Вестер@@ 1
итер 1
биз@@ 1
записано 1
рели 1
йм 1
AP 0.2441204273791353
Майн@@ 1
окс 1
врата 1
ститу@@ 1
Дина@@ 1
Диана 1
купа 1
дирек@@ 1
уле@@ 1
Boys 0.26085210350819543
Les 0.013658623617482567
ЕЛ@@ 1
TO@@ 0.45124891887104834
Home 0.15194802713237457
32,@@ 1
Albums 0.3445334085266381
Death 0.17522996996395515
ьор 1
We@@ 0.08235638846936683
Рено 1
характерен 1
заговор 1
4,8 1
A. 0.067926220906456
480 1
British 0.027245644813472497
мания 1
приблиз@@ 1
Макла@@ 1
Использо@@ 1
Mag@@ 0.08999065236487509
лича 1
Her@@ 0.051264573577697085
Can 0.371227190488051
oph@@ 0.10376694802368275
лари 1
реван@@ 1
Соломо@@ 1
Шал@@ 1
считан 1
BMW 0.5950174628130912
207 1
France 0.02061662317609784
Македония 0.8991303406730295
коллед@@ 1
Атлети@@ 1
Чехия 1
нек 1
189 1
ake 0.09039148067570874
Алекси@@ 1
Ultimate 0.8497117049987718
сура 1
Mor@@ 0.045825201072004634
Metal 0.3534193904315195
1722 1
таун 1
ore 0.060524967732814045
Подобно 1
Pe@@ 0.07814854540544755
1650 1
Ag@@ 0.08939972476625625
CC 0.2825348919356991
PS@@ 0.28859480313130065
Like 0.18294049098282616
do@@ 0.060233118332288386
арка 1
изли@@ 1
султан@@ 1
Построен 1
бараба@@ 1
Ho@@ 0.0764110368447903
Mac 0.37341518805856977
Силе@@ 1
4,2 1
1755 1
бив@@ 1
198 1
232 1
ниан 1
2.0 0.5031011282447574
Dark 0.3388571735031414
масо@@ 1
1721 1
лабора@@ 1
псе@@ 1
фут@@ 1
191 1
Toyota 0.6450985634673834
безработ@@ 1
стинг 1
фаза 1
Вирджи@@ 1
воя 1
дере 1
Little 0.1296385354700152
center 0.06710537282715788
Борисов 1
фауна 1
Heart 0.28686039519265116
куп 1
плей@@ 1
PO@@ 0.3838237103381857
von 0.0024897085706615195
Молдова 1
Фиджи 1
спуска 1
1719 1
1620 1
Сци@@ 1
ванов 1
брук 1
Куни@@ 1
301 1
роза 1
Ила@@ 1
Тереза 1
be 0.004780907334652257
населя@@ 1
рове 1
езда@@ 1
хондри@@ 1
Air@@ 0.20846372564518287
парла@@ 1
1735 1
Foundation 0.12490003589569516
немато@@ 1
199 1
Андреас 1
сове 1
Бели@@ 1
179 1
Vo@@ 0.15101690924432196
раст 1
5,6 1
Av@@ 0.10960296041065966
забав@@ 1
238 1
Майка 1
za 0.06008851699604343
Магну@@ 1
пиво@@ 1
Рене@@ 1
тельность 1
Адри@@ 1
st 0.05089240312469599
Сатур@@ 1
сина@@ 1
туна 1
Pink 0.692205122279006
лео@@ 1
Dream 0.41040592013400895
NCAA 0.191026841727301
ida 0.046960617182286384
Армстро@@ 1
194 1
Индиана 1
Плей@@ 1
45,@@ 1
Мехмед 1
Java 0.40011870903183977
Остин 1
меро@@ 1
254 1
Белград 1
Канта@@ 1
1757 1
275 1
заплат@@ 1
варя@@ 1
Girl 0.2746883997330358
pl@@ 0.03416138286668293
IS 0.283703032547954
бараб@@ 1
Eur@@ 0.19618875393888854
So@@ 0.07552720465322883
загла@@ 1
определено 1
Квебек 1
ира 1
предназначена 1
440 1
окли@@ 1
1741 1
ell 0.04236009965687
ent@@ 0.02343140131044042
3,9 1
430 1
стве@@ 1
мести 1
ч. 1
icus 0.31650586941495273
1759 1
горска 1
одобрение 1
150@@ 1
Sound 0.26547138877141274
лейман 1
TV@@ 0.3081346064175862
a.@@ 0.5018951313719833
Нова 1
сената 1
County 0.02243383479235568
AN 0.42907282731067264
сля@@ 1
танцу@@ 1
1745 1
War 0.02580157401252237
чайно 1
ure 0.046146365889440814
ME@@ 0.2636528654331303
Фокс 1
стила 1
харти@@ 1
all 0.009700651300931932
Окс@@ 1
Слав@@ 1
ous 0.025064245533447993
Разви@@ 1
Har@@ 0.05138025002077844
tion 0.030959443774225114
зни 1
фоль@@ 1
Буш 1
216 1
Энд@@ 1
ire 0.06562958834081703
CR@@ 0.4319888393523325
Electric 0.362092871423442
коня 1
Перу@@ 1
Si@@ 0.11833608759670286
ma@@ 0.07344704247006768
саксо@@ 1
кинг 1
Limited 0.3090141423996987
обстрел 1
209 1
Зимбабве 1
Ня@@ 1
коми 1
1640 1
мандат 1
деспо@@ 1
самоубийство 1
Renault 0.4902613370327153
хтен@@ 1
прибав@@ 1
IGN 0.500000787482868
Франклин 1
Агри@@ 1
бена 1
UGC 1
ресторан@@ 1
Dr@@ 0.07314262120748104
That 0.10686541427860043
and@@ 0.041848992043487465
интерни@@ 1
1704 1
BA 0.23355617397282818
255 1
бий@@ 1
Mark 0.08314579477211746
Джак@@ 1
проф 1
1680 1
Bre@@ 0.08131827352979366
Чехословакия 1
8000 1
West 0.029688407560717715
44,@@ 1
que 0.00188044777966421
osa 0.07858836515482932
375 1
е. 1
213 1
Del@@ 0.09086024770323121
IT 0.34424022462303766
For 0.03369733269829614
Вирджиния 1
Сестра 1
притво@@ 1
245 1
Cal@@ 0.06391431629038258
ł@@ 0.13483258008702045
Два@@ 1
шинство 1
Guardian 0.4280218492687574
ограничено 1
San 0.0211911762485184
факта 1
1743 1
Строе@@ 1
героин@@ 1
76@@ 0.8162156764497805
197 1
Двой@@ 1
к. 1
out 0.011911483569312228
Наслед@@ 1
Singles 0.20589066885798502
CC@@ 0.2451584346130031
рум 1
1723 1
LE@@ 0.3032080504698895
Сидни 1
AL 0.3797409995899094
5,7 1
Краков 1
маса 1
Arts 0.0704984554439267
Mer@@ 0.06206991017708956
пциг 1
ьон@@ 1
Light 0.2111256223467543
M. 0.08143963555255501
Апо@@ 1
Юриди@@ 1
Lin@@ 0.09719158920090276
Ахе@@ 1
per 0.02998842391273021
Do 0.20736114981340265
ө@@ 1
tra 0.08489341543326855
що@@ 1
Нами@@ 1
Japan 0.05446652546836744
Project 0.18189927047755639
равенство 1
ion 0.07308463135998403
Топ@@ 1
ните 0.16963568929584702
ur 0.04939677492906178
Амстердам 1
Hy@@ 0.13978259014259442
отстоя@@ 1
Ber@@ 0.03926434876570053
az@@ 0.0429853407981527
Грай@@ 1
19@@ 0.4628333576468689
оружи@@ 1
ara 0.046099020898885706
менена 1
ant@@ 0.049195144028943615
ops 0.1821584420410018
Рика 1
Research 0.08987975963268846
1747 1
пенсионе@@ 1
ita 0.053165674313022056
ker 0.04921191695654096
Нике@@ 1
2,0 1
PP@@ 0.5119172469312128
Queen 0.09961940032977532
пещера 1
поту@@ 1
чели 1
приори@@ 1
рк 1
шия 1
460 1
LC 0.5202397619731821
Ул@@ 1
ა@@ 1
ne@@ 0.03794322214526853
бокс 1
секция 1
Бя@@ 1
корона 1
пехота 1
Play 0.2640104984280162
Gu@@ 0.046430491711092974
ey 0.04635129019513991
Спас 1
1748 1
USS 0.30036607588990777
218 1
4,3 1
тотали@@ 1
заряд 1
Кора@@ 1
Way 0.2656544712969645
1744 1
дира 1
йорк@@ 1
сп 1
sch@@ 0.020486431594173127
Индонезия 1
1678 1
rowspan 1
чар 1
праздне@@ 1
ha 0.023521979651165398
Цо@@ 1
TS 0.3666433452008484
нели 1
сали@@ 1
Down 0.31285947504699485
довате@@ 1
лекате@@ 1
1628 1
242 1
sk@@ 0.05624040551410574
Пил@@ 1
делегация 1
пела@@ 1
секретар@@ 1
сил@@ 1
tica 0.10716301605786763
нали 1
ссиона@@ 1
Cy@@ 0.20209641234733608
хари 1
пак 1
зира@@ 1
mi@@ 0.07372962636396484
Лие@@ 1
1754 1
Good 0.22752785899788094
мел 1
ep@@ 0.04656782312957198
Bros 1
необходима 1
224 1
Скоп@@ 1
геров 1
12,5 1
5,3 1
London 0.029901927425388435
ID 0.437046606792109
ссор 1
1742 1
7000 1
бел 1
Бранденбург 1
Папуа 1
осново@@ 1
50,@@ 1
77@@ 0.944390745566397
Bur@@ 0.056720176279310294
оза@@ 1
ner 0.029748313744709022
демия 1
Productions 0.37023301899853966
самолета 1
сика 1
бала@@ 1
Алжир 1
Airways 0.7331819559216097
легион 1
I.@@ 0.3694276618191014
ничи 1
ho@@ 0.0483539237690189
Семейство 1
Fr@@ 0.054382319822712986
внима@@ 1
si 0.03529903758185656
Channel 0.17415604120228384
поручик 1
AG@@ 0.33014947574332393
Орегон 1
гория 1
гда@@ 1
рич 1
Тот@@ 1
37,@@ 1
Берг 1
Road 0.05339845506181763
форум 1
737 1
GE 0.6085422699762457
приви@@ 1
P. 0.11197020509226874
ханд@@ 1
1630 1
221 1
Young 0.09766571448790172
Сатурн 1
sp@@ 0.02937852364775687
напад@@ 1
1711 1
космоса 1
AB 0.31595212582799914
кожа 1
фол@@ 1
сково 1
ys@@ 0.08293637025160795
префектура 1
CA 0.1888501618011417
Дерев@@ 1
снаряд 1
5,2 1
Prot@@ 0.12765572239357506
Марин 1
ist@@ 0.0541353500813188
йнт 1
Гвинея 1
Клара 1
жд 1
iTunes 0.6858489998833752
ors 0.023980357772680247
Манту@@ 1
4,7 1
диана 1
Куку@@ 1
Магда@@ 1
ge 0.038154025776954134
be@@ 0.018471593010658555
66,@@ 1
Green 0.08879963860917321
252 1
Аризона 1
1701 1
54,@@ 1
Вернер 1
ели@@ 1
Association 0.04131057671593129
ua 0.11765515979180964
своя 1
опери@@ 1
3500 1
Арме@@ 1
преобразу@@ 1
Dec@@ 0.09855649985871393
Ы 1
милия 1
1670 1
ang@@ 0.032852035299301335
ens@@ 0.02970951049694003
ir 0.03661289380213925
Back 0.2817849354165443
1667 1
ell@@ 0.04510344704722162
авторство 1
подкре@@ 1
lu@@ 0.05734015970955917
остро 1
SC 0.11548006809142357
почит@@ 1
365 1
Теодора 1
инста@@ 1
Леоне 1
Фул@@ 1
шеф 1
bl@@ 0.03484205711181796
регент@@ 1
978 1
мита 1
лени 1
р.@@ 1
05@@ 1
Who 0.2500692288463674
Мекленбург 1
able 0.014498441880114786
застра@@ 1
Last 0.25870716726204945
Бобо@@ 1
кнове@@ 1
5,4 1
аро 1
лиан 1
чиновник 1
234 1
Can@@ 0.07372745219762862
Fre@@ 0.06149804966891389
ada 0.013692516013608798
Майер 1
ber 0.054827714389572665
могате@@ 1
55,@@ 1
Ste@@ 0.0663473557975606
ice 0.04032522350562406
гитле@@ 1
ora 0.07088833171649069
мис 1
Im@@ 0.07300940628594983
Samsung 0.838163168564618
бля@@ 1
1753 0.8428812875617082
1724 1
ani 0.04956406340999706
глю@@ 1
Sports 0.11985662079312069
жете 1
1736 1
чаров 1
aria 0.07465192249880324
Ломбар@@ 1
гост 1
прохода 1
незе 1
Girls 0.24231411897746488
DO@@ 0.3067889270810062
бактерии 1
con@@ 0.019967446555495826
Вт 1
қ@@ 1
39,@@ 1
à 0.0015631401506146358
Мексико 1
яно 1
сери@@ 1
юго@@ 1
Mat@@ 0.06575144145914365
Пси@@ 1
1550 1
Ана 1
Weekly 0.44737486672688515
219 1
Tor@@ 0.05805577446204976
Резуль@@ 1
ი@@ 1
1715 0.9197157631751735
241 1
Вс@@ 1
восполь@@ 1
логически 1
напом@@ 1
LA 0.19325213178143846
Преоблада@@ 1
Драго@@ 1
ex@@ 0.022715134371275144
end 0.014675168912256138
виден 1
сета 1
ходится 1
1739 1
Мра@@ 1
Brothers 0.24009716958482896
менение 1
265 1
325 1
Преобра@@ 1
стено@@ 1
GT 0.36890187427944865
Желе@@ 1
LP 0.21659417294162875
RA 0.2516722493420006
Ти 1
223 1
Авре@@ 1
Чал@@ 1
1703 1
Russia 0.09312969803380593
яс 1
Вюртем@@ 1
1618 1
ця@@ 1
Edition 0.39178896477583935
Адриати@@ 1
CS 0.2634986307326849
жал@@ 1
фео@@ 1
короле@@ 1
Юта 1
99,@@ 1
пулос 1
99@@ 0.759372355115586
Systems 0.2619399941373405
либе@@ 1
пион 1
тег@@ 1
1,0 1
227 1
популярна 1
Mc@@ 0.03381324726614922
anus 0.1820478554373981
инициатива 1
посмер@@ 1
1627 1
1737 1
Кристоф 1
гонь 1
зет@@ 1
психология 1
ken 0.03740744533465983
Скала 1
Родж@@ 1
логично 1
hi@@ 0.0519373006250533
Sky 0.28004654818912583
Цю@@ 1
Кампания 1
влади@@ 1
228 1
Бона@@ 1
водно 1
рун 1
ko 0.06766855955759639
Лили 1
кук@@ 1
Sho@@ 0.15509416361494768
кум 1
Нос@@ 1
League 0.01946756602226586
ev@@ 0.040150865429099944
play 0.02719697989720244
API 0.896453047064646
af@@ 0.03263041854899888
Classic 0.3023337433811224
зви@@ 1
лум@@ 1
наместник 1
GT@@ 0.37913934417142114
гач 1
te@@ 0.03114190961528441
верса@@ 1
кухня 1
сиа@@ 1
226 1
Bor@@ 0.056775263090857696
251 1
NA 0.2560166684847471
va 0.045112711151844787
обле@@ 1
10,5 1
Raw 0.5254372813090298
Места 1
au 0.003889761941163295
PA 0.17578824895731093
ангел 1
1702 1
DOS 0.8016741606113537
депут@@ 1
Na@@ 0.13703563819344453
сона@@ 1
che 0.045916764141197844
тика@@ 1
1746 1
зей 1
Let 0.33350294615175663
1734 1
ry 0.0733206318348389
нама@@ 1
ong 0.04770524442550911
скала 1
Force 0.06983988697131883
Квинт 1
M.@@ 0.205796587859794
проведен 1
Того 1
ляз@@ 1
tor@@ 0.04208512132899098
1725 1
нео 1
su@@ 0.03859068034516457
Society 0.05140562859226699
политически 1
ek 0.06286432331158032
osaurus 0.41905899629612603
плов@@ 1
цензу@@ 1
RC 0.20803660710028946
каф@@ 1
ok@@ 0.06274149298639649
Song 0.11086227951691216
адрес@@ 1
dia 0.13511950213130944
хове 1
ations 0.012490971985238748
07@@ 1
Baby 0.3491193530820824
Ban@@ 0.08057351784685486
Pre@@ 0.06923596050608878
Тит@@ 1
или@@ 1
вс@@ 1
Тобаго 1
дениям 1
как@@ 1
118@@ 1
98@@ 1
ë@@ 0.26912924014166284
Нари@@ 1
пот 1
AE@@ 0.30169922574571
Сингапур 1
1709 1
ano 0.030299495090153648
Columbia 0.09587228008357221
ence 0.03593411090951774
здравоохра@@ 1
подоби@@ 1
ac 0.06350055686571177
Ab@@ 0.020410533600441406
нади@@ 1
Deep 0.4529336623252386
85@@ 0.9020268295917935
Преми@@ 1
докторан@@ 1
ow@@ 0.06535026879311562
1717 1
tis 0.10301957634003184
прах 1
1690 1
470 1
236 1
303 1
Fire 0.20147590994276987
Зев@@ 1
239 1
Micro@@ 0.32556835721229455
AD 0.1630943588206186
Cap@@ 0.10708117713001698
South 0.01871995902379558
ници@@ 1
Маркс 1
Сед@@ 1
Cas@@ 0.06177034070670987
LO@@ 0.35771064553727466
Мичи@@ 1
т.е. 1
Sky@@ 0.35100764292606634
бик 1
роля 1
вити@@ 1
литра 1
стратегия 1
com@@ 0.03490316107097581
иму@@ 1
0,0@@ 1
1649 1
гломе@@ 1
Лом@@ 1
екс@@ 1
69,@@ 1
ium 0.11677602227135564
изгнание 1
пул 1
XXII 1
E.@@ 0.25860464692436214
est@@ 0.032293161317359854
ala 0.06035759945063452
Machine 0.42074236847211893
дебюта 1
oth@@ 0.09444487956456916
Назна@@ 1
eus 0.2271731634469397
учи 1
eo 0.08198305944641164
самолет 1
1610 1
рёх 1
Netflix 0.48533729840126677
стова 1
4,1 1
зас@@ 1
сосредо@@ 1
gr@@ 0.02775118031100276
tic 0.054501670711257
дено@@ 1
1705 1
time 0.0074420560880894045
наступ@@ 1
1707 1
Fi 0.7812482960088987
USA 0.06300883751892743
Максимилиан 1
243 1
плато@@ 1
229 1
Los 0.016540615421509194
Хед@@ 1
Mal@@ 0.038944880184548794
железо@@ 1
намерен 1
примечательности 1
Mad@@ 0.07560497978351374
дини 1
котлови@@ 1
пче@@ 1
нель@@ 1
10000 1
ess 0.03841092472657423
богато 1
жак 1
86@@ 0.9662462080709736
Europe 0.03357137450051985
5,8 1
чета@@ 1
gi@@ 0.050233868138743205
Book 0.13462981956357203
юта 1
музеи 1
84@@ 1
Red@@ 0.08940462194014755
Сера@@ 1
1570 1
D.@@ 0.3106708559981609
tus 0.17886968377578358
Коли@@ 1
взаимоотношения 1
1751 1
231 1
263 1
Paul 0.029253087533847887
Вюртемберг 1
500@@ 1
Ромео 1
Mel@@ 0.07704127702542637
вира 1
1646 1
Trans@@ 0.09450459545801582
[...]
