. 4359241
, 4172187
на 4097774
и 2357774
в 1941445
е 1784038
от 1471199
се 1008239
( 964235
) 964196
за 893072
@-@ 862337
с 796467
„ 677459
“ 671893
&quot; 646002
да 637900
по 468746
са 459919
– 441593
г. 410464
като 386605
през 383030
г 357438
си 339585
до 278819
година 265319
През 254786
В 243932
а 240364
му 235408
но 226754
че 203113
не 200598
: 197731
ни 195468
ните 173035
това 153740
към 152144
ната 148996
които 145558
най 141772
при 140127
който 139249
след 138804
или 138504
На 130040
ски 128006
ва 123348
фон 122444
във 122270
; 122009
има 118628
ния 116742
ска 114199
ка 111288
не@@ 110047
ли 109285
част 108863
време 108559
ската 106105
т 104005
на@@ 103462
която 103253
години 102311
След 100902
което 100811
ския 99637
със 96818
пре@@ 95512
той 94848
те 94792
ното 92753
А@@ 91618
за@@ 89961
из@@ 89388
град 87812
1 85337
л 84907
ват 84160
ци 83855
ти 82013
ване 81771
По 81564
та 81389
н 81123
раз@@ 79808
Е@@ 79408
/ 79319
д 78081
ко@@ 77631
България 77025
става 76694
я 76337
у@@ 76057
около 74438
ла 74156
к 74107
век 73655
между 73298
много 73292
2 72472
ско 72079
От 71908
Той 71107
го 70852
ди 70753
село 70089
ре@@ 70046
е@@ 69614
ите 69420
ра 68823
ли@@ 68810
но@@ 68627
ри@@ 68439
по@@ 67459
ни@@ 67248
† 67096
О@@ 67069
ят 66674
може 66501
ските 66365
с@@ 66330
ѝ 66111
ското 65984
един 65634
съ@@ 64913
ви 64861
където 64688
ът 64593
от@@ 63816
до@@ 63632
к@@ 62928
ди@@ 62818
ка@@ 62627
ката 62352
о@@ 62014
война 61890
лен 61771
както 61390
то 61326
други 61230
ният 61230
де@@ 60447
ден 60121
също 60055
под 59816
р 58230
3 58029
ването 58022
им 57256
ти@@ 56443
те@@ 56440
този 56050
м 55502
а@@ 55414
ки 55382
ви@@ 55203
о 54869
започва 54362
ците 54311
си@@ 54200
в@@ 53717
ри 53342
Ко@@ 53187
С@@ 52876
късно 52818
ле@@ 52778
само 52347
ро@@ 52273
ра@@ 52220
Ка@@ 51752
мо@@ 51364
още 51192
про@@ 50900
я@@ 50783
л@@ 50522
ма@@ 50285
И@@ 50135
За 49958
4 49750
души 49522
над 49484
при@@ 49397
него 49241
ници 48443
път 48367
една 47892
лите 47872
По@@ 47848
ми@@ 47830
срещу 47453
то@@ 47410
ва@@ 47205
У@@ 47125
лни 47098
се@@ 46838
ма 46519
така 46426
I 46378
края 46361
когато 46124
вид 45851
д@@ 45842
ми 45741
рите 45691
Биография 45618
м@@ 45374
та@@ 45291
ст 45131
п@@ 45126
5 44959
български 44851
началото 44834
ло 44464
няколко 44373
ще 44351
всички 44215
Ма@@ 44164
селото 44078
II 43769
m 43656
г@@ 43606
ло@@ 43227
ла@@ 43071
т@@ 42931
ята 42872
й@@ 42708
ени 42577
km 42134
10 42094
семейство 42093
пе@@ 42037
6 42021
тях 41930
Д@@ 41648
лно 41605
ция 41562
па@@ 41561
да@@ 41504
чен 41336
ник 41194
река 41131
20 40788
София 40768
цията 40697
з@@ 40585
чни 40338
две 40305
под@@ 40231
би@@ 40007
май 39887
септември 39788
нов 39571
На@@ 39278
града 39259
ко 39232
ките 39228
Ми@@ 39194
га 39154
бо@@ 39110
ме@@ 39075
заедно 38916
ш@@ 38835
Това 38793
тя 38768
пи@@ 38760
ве@@ 38757
га@@ 38636
Б@@ 38524
% 38472
рат 38447
получава 38243
тези 37996
граф 37912
място 37866
К@@ 37651
тази 37588
х@@ 37356
Според 37335
ща 37299
ен 37266
дъщеря 37223
ският 37117
имат 36935
ност 36904
януари 36900
ш 36796
- 36507
намира 36478
октомври 36417
лна 36412
За@@ 36278
САЩ 36174
и@@ 36162
преди 36133
Де@@ 36105
върху 36100
юни 36035
ата 35998
П@@ 35928
Са@@ 35869
юли 35861
името 35665
август 35605
два 35500
Не@@ 35472
ги 35466
различни 35461
Македония 35457
во 35412
бъде 35404
ба@@ 35391
б@@ 35204
чрез 35074
март 35048
област 34740
го@@ 34663
април 34551
вата 34455
н@@ 34436
би 34269
син 34266
че@@ 34172
ноември 34096
С 34021
работи 33978
три 33946
декември 33827
община 33743
зи@@ 33681
бе@@ 33656
ството 33656
въз@@ 33651
Ба@@ 33542
7 33328
ков 33325
Из@@ 33200
ран 33105
тите 33054
са@@ 33052
ку@@ 32997
рен 32832
об@@ 32819
15 32787
8 32571
щи 32420
История 32404
&amp; 32371
някои 31781
ци@@ 31691
група 31630
ността 31611
у 31454
ван 31440
Па@@ 31424
често 31339
жени 31271
су@@ 31265
чи@@ 31165
рия 31042
дни 30939
12 30918
де 30888
во@@ 30757
При 30454
Се@@ 30412
ки@@ 30289
страната 30226
чна 30060
Ха@@ 30040
Тя 30005
В@@ 29915
со@@ 29726
ниците 29675
февруари 29636
30 29601
сти 29567
щата 29226
ране 29167
При@@ 29146
език 29141
й 29122
рани 29019
х 29009
вече 28857
Те 28782
Ви@@ 28774
М@@ 28761
ду@@ 28627
могат 28538
сред 28537
ч@@ 28474
ч 28460
прави 28431
център 28359
пр.н.е. 28233
ц 28213
Бо@@ 28175
Ли@@ 28146
империя 28105
Съ@@ 27892
з 27818
9 27801
Ро@@ 27746
Ра@@ 27723
тен 27712
Ме@@ 27623
Разпространение 27587
ф@@ 27538
Видът 27505
нията 27499
повече 27477
ство 27475
сто@@ 27462
университет 27389
Италия 27297
Г@@ 27290
Пре@@ 27220
завършва 27191
отново 27189
ст@@ 27159
Северна 27106
ста@@ 26978
без 26956
нието 26955
роден 26936
бил 26859
използва 26813
ница 26713
щ 26697
лната 26693
000 26673
вите 26653
лата 26640
Мо@@ 26586
участва 26522
вайки 26505
страна 26500
Бе@@ 26475
Х@@ 26423
Ку@@ 26146
жители 26062
води 25994
зи 25916
училище 25903
ру@@ 25869
чно 25859
Т@@ 25852
16 25833
хи@@ 25767
ето 25760
части 25751
населението 25720
сезон 25636
височина 25635
Ф@@ 25613
Ди@@ 25573
рана 25562
Ру@@ 25552
Най 25536
Ле@@ 25515
вен 25472
ен@@ 25451
поради 25428
гу@@ 25339
Ал@@ 25328
световна 25269
трябва 25269
сти@@ 25261
нея 25250
Си@@ 25192
първата 25182
периода 25130
кон@@ 25109
Про@@ 25062
14 25020
ча@@ 25005
сен 24982
малко 24920
ги@@ 24917
обаче 24839
чи 24805
йски 24773
11 24735
според 24602
бу@@ 24592
18 24533
ин@@ 24524
зо@@ 24500
Ре@@ 24479
&apos; 24428
име 24425
ля@@ 24425
19 24356
голяма 24356
хо@@ 24289
III 24257
ха@@ 24182
ца 24167
Я@@ 24166
вани 24164
ява 24145
п 24122
Германия 24019
ж@@ 23978
Ар@@ 23953
фи@@ 23846
пред@@ 23829
Франция 23716
Пе@@ 23706
ан@@ 23672
своя 23636
член 23574
Русия 23554
13 23428
край 23427
ър 23410
тата 23282
армия 23232
Ш@@ 23206
25 23131
ба 23041
тът 22962
система 22939
умира 22939
Свети 22909
17 22868
2010 22868
били 22683
ф 22678
* 22658
До@@ 22624
три@@ 22577
смъртта 22556
р@@ 22507
лу@@ 22391
Ри@@ 22357
Да@@ 22340
км 22321
ника 22197
чев 22060
Гърция 22025
2011 21996
нен 21984
лия 21956
он 21884
вия 21879
църква 21839
население 21785
ю@@ 21745
Иван 21738
Европа 21727
йн 21724
Пи@@ 21701
Мар@@ 21632
ман 21604
Георги 21562
Въпреки 21491
вър@@ 21475
нови 21446
ено 21388
З@@ 21380
Та@@ 21338
докато 21140
днес 21103
кра@@ 21098
Н@@ 21081
То@@ 21055
лните 20980
дава 20946
Ва@@ 20913
ха 20883
ъ@@ 20882
първи 20853
Ла@@ 20797
играе 20770
едно 20744
ши@@ 20736
Мария 20626
времето 20609
б 20586
пише 20577
Раз@@ 20544
сън 20517
деца 20496
отбор 20473
вана 20391
зе@@ 20378
Роден 20351
ста 20322
стите 20307
ше@@ 20298
страни 20288
групата 20265
баща 20259
живот 20245
ту@@ 20236
ман@@ 20219
ге@@ 20198
тъй 20197
нова 20177
печели 20125
Населението 20020
му@@ 19980
Би@@ 19940
големи 19931
Ки@@ 19908
първия 19902
света 19848
ров 19845
Бу@@ 19840
Те@@ 19789
крал 19762
период 19719
окръг 19656
сили 19645
тни 19642
дени 19570
мен 19563
рано 19553
ние 19512
ващи 19463
остава 19414
Южна 19408
Лу@@ 19403
без@@ 19356
брат 19347
От@@ 19257
стра@@ 19240
ев 19239
лят 19237
Има 19226
дена 19205
Ан@@ 19180
кът 19116
ск@@ 19063
мата 19043
бург 19031
тъ@@ 19029
провинция 19018
пла@@ 19005
жи@@ 18998
21 18905
жда 18899
2000 18822
първите 18808
др 18715
войната 18709
ства 18660
ани 18637
бъдат 18629
па 18603
лов 18602
рането 18600
пред 18598
ар@@ 18545
ча 18540
Су@@ 18532
мен@@ 18410
це@@ 18396
места 18395
почти 18388
начин 18345
йки 18326
вал 18302
няма 18300
фе@@ 18269
пра@@ 18259
2012 18254
2009 18252
голям 18227
Га@@ 18216
24 18210
2007 18208
Ве@@ 18173
ц@@ 18160
2008 18090
ке@@ 18065
полу@@ 18045
22 18033
ции 18003
Го@@ 17977
продължава 17959
чните 17944
циите 17906
филм 17871
ша 17860
включва 17803
ня@@ 17747
Александър 17735
цел 17725
известен 17691
Първата 17677
берг 17662
2006 17638
Р@@ 17604
ля 17531
хора 17451
пи 17399
използват 17386
двете 17322
ж 17306
рата 17299
данни 17297
Кар@@ 17243
Ло@@ 17195
щите 17182
гра@@ 17156
все 17149
Л@@ 17082
работа 17066
же@@ 17037
всеки 17019
ан 17017
лния 17010
била 16986
лъ@@ 16975
кри@@ 16949
вали 16945
Димитър 16940
̀ 16935
американски 16930
Ти@@ 16905
ор@@ 16843
50 16820
пу@@ 16818
над@@ 16806
щ@@ 16802
А 16800
семейството 16739
нат 16735
успява 16718
Хо@@ 16714
там 16698
къ@@ 16688
ро 16655
чната 16654
резултат 16527
север 16511
областта 16485
сът 16469
района 16460
същата 16451
награда 16449
23 16441
Ю@@ 16425
море 16425
йската 16389
Фридрих 16359
кия 16350
дейност 16338
ве 16327
територията 16301
император 16287
Гра@@ 16261
Ц@@ 16246
дите 16240
ново 16238
ле 16231
100 16219
дъ@@ 16195
чу@@ 16193
юг 16173
Ни@@ 16141
четири 16078
председател 16061
ши 15916
Но@@ 15898
бра@@ 15886
Втората 15858
ран@@ 15805
Като 15802
степен 15802
съюз 15787
2013 15782
малки 15766
първият 15712
отбора 15642
партия 15608
заради 15596
пъти 15579
генерал 15577
своите 15559
мите 15549
2014 15515
дори 15514
регион 15512
република 15493
изток 15477
албум 15452
хе@@ 15431
2005 15400
лното 15354
своята 15327
жена 15291
26 15257
вания 15253
27 15220
us 15202
ел 15157
28 15150
Со@@ 15143
вода 15142
дата 15128
площ 15122
множество 15078
кар@@ 15075
мача 15064
преминава 15054
лото 15026
голямата 15020
например 15020
възраст 15018
° 15012
ща@@ 15006
обикновено 15001
тна 14959
участие 14959
тън 14938
близо 14909
IV 14908
църквата 14904
само@@ 14895
живота 14887
тра@@ 14878
жен 14868
филма 14830
съпруга 14827
2001 14810
род 14784
Към 14783
управление 14756
фа@@ 14753
idae 14738
ху@@ 14735
ер@@ 14724
рът 14711
ър@@ 14670
лин 14668
.@@ 14663
ска@@ 14655
дължина 14653
острови 14651
ну@@ 14644
разпространен 14642
организация 14636
Кон@@ 14632
остров 14632
щайн 14562
ръ@@ 14559
2015 14543
Карл 14535
мъ@@ 14522
тро@@ 14505
ша@@ 14503
войски 14495
Хи@@ 14489
излиза 14447
ьо@@ 14424
история 14416
среща 14410
2004 14406
1944 14384
40 14376
кан@@ 14362
надморска 14309
ат@@ 14302
Република 14298
йския 14284
ал@@ 14282
стта 14234
Османската 14227
тогава 14204
мо 14185
Му@@ 14181
ек@@ 14177
включително 14151
Ду@@ 14124
До 14111
2002 14108
Когато 14067
общината 14058
ак@@ 14046
достига 14025
що 13995
сни 13985
линия 13983
_ 13961
групи 13932
ме 13929
кариера 13920
съвет 13919
сия 13918
жи 13913
съпругата 13877
състои 13864
чо 13856
ващ 13834
The 13833
особено 13824
кли@@ 13817
избран 13813
Хе@@ 13806
запад 13763
Освен 13754
министър 13747
брой 13710
gt 13705
лен@@ 13700
създава 13648
лин@@ 13597
средата 13587
форма 13562
власт 13560
предимно 13551
живее 13541
География 13521
вото 13519
ден@@ 13517
ген 13484
историята 13481
вида 13476
жа 13469
добре 13466
анти@@ 13445
e 13444
² 13444
започват 13408
гла@@ 13399
ари 13381
втората 13339
херцог 13338
вен@@ 13336
Ин@@ 13296
българи 13280
Ню 13262
вероятно 13252
право 13195
И 13149
Ж@@ 13148
чер@@ 13147
йска 13139
вете 13136
кръ@@ 13076
тно 13067
29 13041
lt 13014
връзка 13010
въпреки 13009
Ч@@ 13001
Ге@@ 12988
чески 12944
ваща 12943
тре@@ 12941
вер@@ 12929
силно 12920
нарича 12879
Хайнрих 12829
отнася 12814
нява 12811
сл 12740
служба 12738
тия 12737
договор 12732
ън 12728
състава 12718
тър@@ 12700
майка 12698
бър@@ 12681
сте@@ 12653
лю@@ 12643
1990 12627
Така 12623
бата 12618
кс 12614
ер 12604
защото 12567
Кара@@ 12560
Ор@@ 12542
влиза 12540
Гу@@ 12520
Йохан 12518
годишна 12517
казва 12515
видове 12514
Никола 12494
2016 12464
V 12433
Завършва 12412
чния 12400
шка 12394
60 12366
№ 12341
ждат 12339
Петър 12330
лан@@ 12315
застрашен 12239
носи 12212
&#93; 12209
било 12199
жа@@ 12194
българска 12191
роля 12165
лка 12161
гръцки 12159
Разпространен 12149
никът 12145
ати@@ 12128
големите 12127
Пловдив 12103
ител 12097
Бер@@ 12090
&#91; 12062
Кри@@ 12055
изчезване 12051
чка 12010
ако 12002
неговата 11996
мир 11994
ствата 11992
представлява 11982
Об@@ 11974
Ке@@ 11971
ждане 11956
назначен 11953
вни 11929
мач 11925
общо 11925
район 11922
пар@@ 11911
бро@@ 11909
2003 11886
Вер@@ 11870
ско@@ 11853
дж@@ 11852
Чер@@ 11840
хората 11839
шо@@ 11831
Рим 11798
тип 11792
2017 11786
ит@@ 11755
кла@@ 11730
повечето 11730
Че@@ 11727
фо@@ 11726
песни 11724
ген@@ 11708
Джон 11706
състав 11703
Васил 11702
0 11696
стре@@ 11689
яване 11681
гле@@ 11678
Кра@@ 11676
спо@@ 11649
вла@@ 11638
свят 11637
дя@@ 11636
графиня 11609
всяка 11594
гъ@@ 11585
ян 11583
спа@@ 11567
втори 11562
нал 11557
комитет 11540
Йо@@ 11503
рен@@ 11499
ални 11490
провежда 11481
метра 11479
Хар@@ 11477
Англия 11462
академия 11419
31 11413
редица 11370
Ту@@ 11368
дър@@ 11341
човек 11324
държава 11294
Щ@@ 11292
пер@@ 11292
пр 11292
жението 11283
сла@@ 11282
рията 11258
електро@@ 11252
милиона 11206
ъ 11190
Ста@@ 11181
стро@@ 11181
джи@@ 11177
българската 11171
дия 11157
Испания 11154
свързани 11133
учи 11133
ано 11122
Фа@@ 11118
ря@@ 11112
зна@@ 11109
вена 11077
яват 11059
нски 11019
руски 10990
Нова 10983
лени 10983
въ@@ 10981
Париж 10975
дено 10966
80 10958
он@@ 10948
Стефан 10946
манастир 10908
вя@@ 10905
тан@@ 10902
полк 10900
1912 10882
командир 10869
Филип 10867
Ай@@ 10834
Бра@@ 10834
живеят 10828
сло@@ 10818
сила 10788
ално 10779
пет 10761
бързо 10758
пле@@ 10758
известни 10735
лена 10715
водо@@ 10711
род@@ 10702
Америка 10701
Три@@ 10699
образование 10694
Великобритания 10692
музика 10691
голямо 10680
неговите 10673
друг 10662
йските 10657
връх 10652
дивизия 10648
гимназия 10638
Китай 10629
1991 10612
връща 10607
бен 10557
разположен 10556
Африка 10554
развитие 10544
политически 10539
ред 10539
коле@@ 10531
ък 10513
цата 10504
10@@ 10496
ус 10493
Рай@@ 10488
мия 10485
Христо 10457
ато@@ 10450
Фи@@ 10436
чат 10428
1945 10426
Умира 10416
движение 10403
друга 10402
месеца 10396
вски 10395
разположени 10388
лица 10377
отношение 10370
Бре@@ 10367
кото 10367
приема 10352
гат 10351
Сто@@ 10347
сите 10335
стил 10335
заема 10330
театър 10314
продължение 10281
вени 10273
Кор@@ 10269
пло@@ 10269
Ша@@ 10257
бор@@ 10245
основно 10245
тор 10234
вар@@ 10232
рин@@ 10224
1999 10223
мина@@ 10208
2018 10207
реката 10207
чното 10206
1913 10197
еди@@ 10182
ред@@ 10160
СССР 10155
70 10144
нос 10143
правителство 10143
следва 10143
цар 10128
ческа 10125
+ 10120
То 10114
произход 10112
Бар@@ 10097
ези@@ 10091
дву@@ 10088
жава 10079
държави 10076
мът 10070
C 10067
Този 10067
ск 10062
литература 10049
ате@@ 10039
директор 10024
кова 10023
създаването 10014
първенство 10003
ур@@ 9997
— 9987
лятото 9984
жда@@ 9975
Япония 9955
вано 9955
мястото 9951
чета 9951
пол@@ 9948
Йорк 9943
гите 9939
нена 9933
Въз@@ 9923
новата 9920
ъл 9906
останалите 9905
ний 9900
сина 9899
английски 9894
управлението 9888
птица 9880
бива 9877
of 9872
тел 9858
Мон@@ 9857
известна 9853
= 9841
цялата 9827
лски 9818
Първият 9814
1992 9791
вна 9789
Българската 9776
първото 9770
точка 9769
Мак@@ 9762
лд 9760
1941 9750
стен 9742
политик 9735
дел@@ 9725
1989 9717
ок 9716
Николай 9698
действия 9698
книги 9694
френски 9692
Вилхелм 9680
решава 9650
свет@@ 9644
центъра 9629
Во@@ 9612
бите 9605
s 9591
XIX 9589
ити 9583
намират 9578
Анна 9574
кан 9572
1998 9571
служи 9569
Полша 9563
Западна 9555
поли@@ 9550
запа@@ 9544
дер 9536
Св 9531
мар@@ 9531
напуска 9531
другите 9523
бар@@ 9521
зия 9513
тър 9509
Михаил 9497
малка 9493
двата 9487
же 9486
Ши@@ 9480
Някои 9477
ителите 9463
чени 9456
епископ 9455
стават 9455
йн@@ 9454
formula 9443
роман 9437
щат 9436
Москва 9432
правителството 9431
ре 9424
ет@@ 9422
същото 9419
бя@@ 9418
футболист 9418
200 9416
нин 9416
разположено 9410
рена 9394
дьо 9392
албума 9388
стри@@ 9385
1997 9380
децата 9374
Ча@@ 9371
лът 9370
ролята 9337
бряг 9331
едва 9329
щати 9319
гата 9317
бан@@ 9312
гри@@ 9303
Във 9291
Тази 9288
неговото 9286
превръща 9286
сен@@ 9283
Там 9272
! 9267
значение 9267
означава 9254
ет 9250
1996 9237
Намира 9235
последните 9228
битката 9227
дат 9217
тове 9216
Азия 9211
вър 9202
Тези 9188
щия 9182
Ман@@ 9177
военни 9173
учител 9172
разлика 9170
стъ@@ 9157
началник 9154
песента 9144
лига 9140
главен 9105
мм 9095
Турция 9087
1995 9086
мин@@ 9063
сел@@ 9063
вала 9062
Селото 9060
княз 9060
дра@@ 9056
скоро 9051
тира 9042
пан@@ 9039
жение 9038
1994 9035
книга 9034
оби@@ 9026
Поради 9003
йни 9002
едно@@ 8998
успех 8981
Индия 8976
цен@@ 8970
сту@@ 8969
напълно 8959
рин 8959
мер@@ 8958
зъм 8946
ше 8940
главно 8933
изкуство 8932
лек@@ 8931
информация 8924
течение 8921
ати 8920
90 8919
малък 8918
Света 8915
издава 8915
двамата 8913
много@@ 8906
йско 8904
1980 8897
Елизабет 8895
ня 8891
Описание 8890
дро@@ 8888
компания 8887
гре@@ 8883
Сан@@ 8880
тната 8878
Сърбия 8872
кораба 8863
бри@@ 8855
ос@@ 8855
територия 8848
стена 8839
ствено 8838
ително 8836
ствена 8831
кораби 8828
президент 8823
ствени 8823
ващите 8820
нала 8810
пис@@ 8803
въстание 8796
влияние 8788
тя@@ 8782
изследвания 8781
Сан 8776
Константин 8761
Варна 8752
поле 8741
М 8736
Д 8730
развитието 8727
хар@@ 8726
Лудвиг 8720
ита 8718
све@@ 8692
работ@@ 8690
кови 8685
събрание 8685
кръг 8679
тук 8677
градове 8673
планина 8671
Це@@ 8658
лер 8654
им@@ 8651
исторически 8649
защита 8642
це 8635
тон 8630
политика 8623
шки 8622
­ 8621
тните 8621
кре@@ 8620
Участва 8615
фи 8613
писател 8609
Австралия 8601
опит 8598
ван@@ 8597
известно 8597
mm 8596
вли@@ 8592
официално 8586
фер@@ 8573
производство 8572
българските 8571
половина 8567
Дже@@ 8555
Мал@@ 8554
дар@@ 8553
целия 8550
чки 8548
случай 8538
професор 8532
вно 8530
завръща 8530
водата 8526
ална 8518
идва 8513
изцяло 8513
1993 8509
членове 8508
лява 8505
ционни 8501
Поли@@ 8495
произведения 8491
рий 8491
зата 8484
преброяването 8476
неговия 8475
Лондон 8461
развива 8456
обявява 8449
култура 8441
Украйна 8428
рени 8426
ъл@@ 8404
участват 8403
ций 8394
топ@@ 8392
правят 8386
следващите 8385
появява 8383
ери 8381
2019 8370
след@@ 8368
сестра 8363
стка 8358
Лю@@ 8346
съд 8344
ление 8333
музей 8327
планината 8318
ницата 8317
точ@@ 8306
ю 8305
Но 8304
кораб 8298
села 8296
1943 8291
чин 8291
вица 8289
вод@@ 8288
първо 8288
десет 8280
игра@@ 8272
зен 8262
Ху@@ 8252
Бразилия 8251
К 8247
1878 8243
състояние 8239
рал 8236
сме@@ 8229
тин@@ 8228
Под@@ 8215
ьор@@ 8211
Източна 8204
клуб 8201
всичко 8193
автор 8190
Пет@@ 8188
ители 8185
посо@@ 8178
ора 8176
стър 8172
против 8167
земи 8162
дът 8161
първоначално 8160
преда@@ 8155
ще@@ 8154
игри 8148
вестник 8143
дер@@ 8138
ори 8137
годината 8134
хи 8128
Май@@ 8123
условия 8123
пен 8119
плани@@ 8118
слу@@ 8113
гола 8092
Сред 8088
ителна 8088
1970 8081
br 8079
мов 8079
диа@@ 8078
помощта 8076
значително 8066
лет@@ 8066
1900 8064
нар@@ 8063
сна 8059
Разположено 8052
себе 8044
Бал@@ 8041
райони 8038
техните 8038
зона 8032
системи 8028
издаден 8027
син@@ 8024
километра 8021
проект 8018
езици 8013
морски 8011
открива 8007
годините 8003
Фе@@ 8002
1918 7994
флот 7992
a 7991
Фамилия 7989
столицата 7989
Ше@@ 7988
нина 7987
формата 7987
институт 7985
записва 7974
цели 7973
рон 7964
представител 7960
сър@@ 7949
елементи 7946
мати@@ 7945
рай@@ 7940
мост 7936
ком@@ 7931
включват 7928
Ер@@ 7922
разположена 7922
пръв 7921
българско 7915
компанията 7914
шампион 7914
хра@@ 7911
Стара 7910
Марк 7900
пара@@ 7871
ланд 7869
книгата 7865
ос 7860
ена 7856
военен 7853
ера 7852
тор@@ 7852
нали 7848
основава 7848
селище 7846
дове 7842
точки 7838
ент@@ 7837
позволява 7827
смята 7827
участието 7824
близост 7823
сто 7823
Австрия 7818
шен 7816
Пред@@ 7814
пътя 7811
секретар 7809
следващата 7808
версия 7807
зу@@ 7807
слав 7802
Вла@@ 7797
решение 7793
наре@@ 7792
the 7790
Къ@@ 7790
Дра@@ 7788
ън@@ 7787
макар 7780
1960 7779
освен 7777
Чи@@ 7773
ата@@ 7762
Други 7748
обща 7747
унищо@@ 7747
гор@@ 7746
пъ@@ 7746
часа 7745
предлага 7744
средства 7732
джа@@ 7729
брак 7727
титлата 7725
толкова 7719
нов@@ 7714
ем@@ 7708
спи@@ 7706
обя@@ 7705
тика 7705
Между 7704
1940 7693
изключително 7685
нения 7685
ФК 7679
ново@@ 7676
мета@@ 7668
ности 7666
лска 7665
кият 7664
оказва 7661
армията 7660
йна 7660
песен 7648
сезона 7645
Дж@@ 7640
cm 7639
военна 7638
сметка 7637
Ек@@ 7632
со 7631
работата 7630
пръ@@ 7626
вин@@ 7621
дело 7611
1942 7610
Джа@@ 7605
Хай@@ 7602
мини@@ 7600
коло@@ 7597
езерото 7577
мет@@ 7567
Мексико 7566
оста@@ 7565
ниво 7564
израз@@ 7562
такива 7560
шко 7560
процес 7558
поставя 7550
шест 7547
Първоначално 7538
Не 7537
къщи 7537
заместник 7536
филми 7535
сигурност 7529
ческо 7519
втория 7518
вено 7517
помощ 7511
Унгария 7510
ета 7501
500 7499
добър 7495
гия 7494
понякога 7493
Ен@@ 7485
Гор@@ 7483
губи 7482
призна@@ 7472
големият 7468
ностите 7468
тур@@ 7464
показва 7460
своето 7457
гър@@ 7456
Б 7454
гер 7453
насо@@ 7445
2020 7440
температура 7440
омъжва 7434
Пу@@ 7428
ителни 7428
Т 7426
награди 7426
сле@@ 7426
ителен 7421
следните 7418
ся@@ 7417
консул 7400
завър@@ 7396
али@@ 7395
българския 7392
ед@@ 7387
теле@@ 7387
сграда 7385
образу@@ 7384
Стра@@ 7383
мон@@ 7383
Църквата 7377
гр 7377
новия 7373
дали 7369
ул 7365
Много 7356
опа@@ 7355
представя 7353
ващо 7348
мрежа 7347
Канада 7345
възможност 7345
Же@@ 7334
класи@@ 7333
права 7332
рок 7331
йт 7329
дин@@ 7327
послед@@ 7327
събития 7324
Пар@@ 7307
Пла@@ 7306
лий 7296
1986 7295
ствен 7293
наслед@@ 7289
отказва 7289
основа 7287
бер@@ 7283
зите 7283
острова 7279
дружество 7276
щият 7258
Мари@@ 7256
започ@@ 7253
лина 7253
висока 7248
Централна 7236
определя 7234
тръ@@ 7232
бре@@ 7226
позиция 7226
ити@@ 7225
Още 7223
1988 7218
продъл@@ 7210
говори 7209
проблеми 7209
нито 7207
праз@@ 7206
П 7197
списание 7188
ин 7187
южната 7178
лено 7177
Йоан 7172
годишен 7171
Кирил 7164
вели@@ 7163
животни 7159
1950 7156
минава 7145
съдържа 7145
създадена 7144
Ел@@ 7137
Дей@@ 7135
ум 7129
достигат 7124
кул@@ 7120
съществува 7118
бъ@@ 7117
форми 7113
мя@@ 7109
Преди 7108
... 7093
новите 7093
твър@@ 7093
1934 7091
властта 7091
рамките 7083
лс 7080
области 7080
извършва 7071
ционен 7066
Тре@@ 7062
1905 7060
опитва 7060
ров@@ 7057
ясно 7057
сон 7047
авто@@ 7046
месец 7045
оръдия 7043
пости@@ 7041
треньор 7039
двама 7028
Ако 7025
они 7025
Тра@@ 7021
родена 7014
мени 7013
хайм 7006
лите@@ 7004
Египет 7001
дъл@@ 6994
пъл@@ 6994
ква 6993
културата 6990
приток 6989
програма 6984
тски 6982
сви@@ 6981
същия 6978
лов@@ 6976
северната 6972
300 6968
публикува 6958
впоследствие 6957
хиляди 6957
националния 6953
смърт 6949
фор@@ 6949
дна 6947
.. 6946
извън 6946
вра@@ 6942
ева 6940
басейн 6936
изобраз@@ 6934
границата 6933
поло@@ 6933
шу@@ 6929
основните 6928
бе 6927
Румъния 6923
вил 6914
Пра@@ 6905
управля@@ 6900
ене 6886
чите 6885
тото 6884
избори 6876
чо@@ 6874
ческите 6854
яването 6853
футбол 6852
попада 6850
гори 6844
ков@@ 6837
гли@@ 6832
Бър@@ 6825
ково 6825
наградата 6824
О 6823
нати 6823
доста 6822
мили@@ 6815
жат 6801
ал 6800
построена 6796
кара 6791
тялото 6790
изпра@@ 6786
модел 6785
юр@@ 6782
1985 6781
чава 6773
рий@@ 6772
Бан@@ 6771
лет 6771
1920 6768
чена 6768
доб@@ 6766
рис 6765
анд@@ 6763
установява 6760
ем 6759
принцеса 6747
начело 6746
поема 6744
кита@@ 6737
1987 6730
причина 6726
Ак@@ 6725
Името 6722
Население 6721
срещат 6716
фа 6715
35 6712
изпълнява 6712
немски 6712
деец 6707
жените 6706
оп@@ 6706
жу@@ 6701
създаден 6700
лението 6696
сно 6694
тер@@ 6687
вият 6686
случаи 6686
капитан 6685
езеро 6682
представители 6680
Г 6673
сега 6661
1984 6656
фамилията 6654
Пан@@ 6653
кариерата 6649
произ@@ 6648
ват@@ 6644
довете 6644
зира 6643
i 6638
зва@@ 6637
получават 6635
присъ@@ 6626
1939 6624
Първите 6624
отношения 6613
кър@@ 6611
ум@@ 6611
1981 6605
нер 6604
Произход 6600
връ@@ 6598
форми@@ 6596
1968 6594
състав@@ 6591
Вели@@ 6586
мир@@ 6584
Борис 6581
национален 6580
Берлин 6569
офицер 6566
плат@@ 6551
четата 6550
ун@@ 6544
Виена 6543
скорост 6541
ческия 6537
високо 6536
клас 6536
основни 6534
1974 6533
бур@@ 6532
енергия 6532
Балканската 6527
дем 6523
региона 6518
тер 6515
точно 6515
обе@@ 6513
статут 6505
ланд@@ 6503
из 6501
Джеймс 6500
пак 6500
митрополит 6499
так@@ 6498
път@@ 6497
Също 6491
войници 6491
въл@@ 6490
Баща 6489
епархия 6489
промени 6489
четвър@@ 6488
XX 6487
положение 6480
ян@@ 6476
май@@ 6474
подоб@@ 6467
ционна 6466
тов 6463
негов 6460
1979 6458
хода 6458
гора 6447
планински 6444
план 6442
как 6441
Фу@@ 6440
среда 6439
настоя@@ 6430
занимава 6425
ьо 6425
ета@@ 6421
ител@@ 6421
храм 6421
производството 6410
долината 6409
трите 6401
Вал@@ 6398
обра@@ 6398
1978 6395
1948 6387
VI 6386
Дъ@@ 6385
жен@@ 6382
1971 6381
големия 6381
изда@@ 6380
дом 6375
западната 6371
чието 6369
типа 6368
действие 6365
Мор@@ 6362
Административен 6359
Ги@@ 6359
съществу@@ 6355
турнира 6355
пат@@ 6353
лог 6352
цар@@ 6350
лова 6349
дру@@ 6348
лев 6343
Гла@@ 6339
посока 6339
широко 6339
дове@@ 6338
убит 6335
няват 6334
разши@@ 6334
ход@@ 6334
1928 6332
2@@ 6331
земя 6331
Кал@@ 6328
контрол 6327
инди@@ 6325
физи@@ 6325
дре@@ 6324
разде@@ 6323
влизат 6321
създа@@ 6321
ут@@ 6321
ляне 6318
1982 6315
нос@@ 6315
нето 6314
чност 6312
-@@ 6310
фу@@ 6310
логи@@ 6306
рав@@ 6302
is 6299
сед@@ 6298
реали@@ 6287
1976 6286
отбелязва 6284
Вол@@ 6282
Разположен 6280
уме@@ 6273
лич@@ 6272
дълго 6271
местообитание 6270
уч@@ 6269
иг@@ 6268
победа 6265
1946 6264
дават 6263
пти@@ 6263
открити 6262
рио@@ 6259
тин 6255
иска 6254
винаги 6246
Левски 6244
пове@@ 6244
школа 6244
кове 6241
европейски 6238
кратко 6237
мон 6236
рода 6234
кто@@ 6233
45 6231
йо@@ 6229
Й@@ 6227
тичен 6222
Владимир 6221
бах 6221
пър@@ 6221
практика 6220
гът 6219
проекта 6217
италиански 6216
войни 6214
вет@@ 6211
оригина@@ 6209
ръководството 6209
ок@@ 6208
гори@@ 6207
1972 6206
сградата 6201
Гре@@ 6199
твърди 6196
есте@@ 6191
столица 6188
тични 6186
кор@@ 6184
използвани 6181
Гри@@ 6178
момент 6178
S@@ 6172
шава 6172
гнат 6171
местните 6170
представ@@ 6167
1930 6164
т.нар. 6164
чест 6160
мент 6158
de 6157
университета 6156
мат@@ 6153
вяр@@ 6152
позна@@ 6152
дел 6151
сва@@ 6149
пока@@ 6148
гене@@ 6145
правител@@ 6145
взема 6136
жни 6136
откри@@ 6133
ито 6130
собстве@@ 6129
тори 6128
лската 6127
т.е. 6125
бал@@ 6122
дял 6122
творчество 6120
къща 6117
нени 6114
остават 6113
зем@@ 6110
източната 6105
ните@@ 6101
тена 6101
турската 6099
йското 6098
Димитров 6092
цялото 6089
Нико@@ 6088
Градът 6085
дале@@ 6083
рено 6083
еле@@ 6082
зву@@ 6079
Всички 6078
1975 6077
мни 6074
редактор 6074
използва@@ 6073
общество 6070
присъединява 6066
1947 6065
океан 6064
тен@@ 6063
Калифорния 6057
постепенно 6057
Син@@ 6044
жителите 6040
стру@@ 6039
гол 6037
обла@@ 6035
нение 6025
Ев@@ 6024
дж 6023
ръководител 6019
свързва 6016
лният 6015
тар@@ 6008
тан 6007
Днес 6005
Зе@@ 6005
наричат 5998
разпростра@@ 5996
два@@ 5994
чават 5993
1969 5991
дан 5990
Солун 5986
Ото 5980
ев@@ 5978
битка 5972
1973 5967
мал@@ 5965
Площта 5963
вът 5961
организацията 5961
бой@@ 5959
нични 5955
1983 5954
Започва 5954
ган 5945
вид@@ 5943
отива 5934
земята 5931
ил 5928
пет@@ 5927
пол 5927
забра@@ 5926
ели@@ 5921
рова 5917
Кла@@ 5916
дете 5915
гро@@ 5913
православна 5912
Кру@@ 5910
зад 5908
заминава 5904
1927 5903
революция 5902
вол@@ 5897
йл 5894
Югославия 5892
полуостров 5892
Луи 5891
дан@@ 5890
M@@ 5886
Тодор 5886
сгради 5884
стрел@@ 5884
Саксония 5882
чват 5881
нически 5880
парк 5878
спор@@ 5878
организации 5876
1919 5875
реките 5875
кло@@ 5874
турски 5869
съответно 5867
вец 5862
специално 5862
държавата 5857
1923 5852
1967 5851
ца@@ 5847
Един 5842
алните 5842
рии 5840
бивш 5838
Шу@@ 5834
нор@@ 5831
различните 5826
Въ@@ 5824
ган@@ 5819
народен 5819
Джи@@ 5818
мин 5813
тична 5813
Земята 5811
лан 5811
трети 5810
описва 5808
чет@@ 5808
Мла@@ 5805
изпраща 5805
ита@@ 5805
джа 5802
дън 5801
актьор 5799
българското 5796
пълно@@ 5796
семейства 5796
дей@@ 5791
обществе@@ 5790
край@@ 5787
сор@@ 5783
вре@@ 5782
колек@@ 5779
стът 5778
Пер@@ 5777
Лан@@ 5775
кен@@ 5774
науки 5772
станция 5772
щето 5772
издание 5770
почи@@ 5763
дворец 5762
1962 5761
манастира 5760
Бургас 5754
Павел 5752
майор 5748
шката 5748
отделни 5747
организира 5743
противо@@ 5740
зависимост 5737
раст@@ 5733
актриса 5729
въве@@ 5729
основата 5729
съгла@@ 5727
сата 5724
успешно 5723
зва 5721
граф@@ 5716
граница 5714
коре@@ 5710
лация 5707
Сер@@ 5706
изо@@ 5704
местността 5704
1966 5699
Анти@@ 5697
подписва 5697
уни@@ 5697
военно 5694
ите@@ 5689
статистиката 5686
материали 5684
Бур@@ 5680
отде@@ 5675
Тро@@ 5672
кралство 5668
транс@@ 5665
крайна 5663
открит 5663
Бру@@ 5662
консу@@ 5661
шите 5660
титла 5657
дол@@ 5653
Сре@@ 5649
дълго@@ 5649
ален 5648
сравнително 5648
господар 5642
1965 5631
вторият 5631
нския 5630
стига 5630
БКП 5628
системата 5628
дения 5627
зация 5622
радио@@ 5620
Георг 5617
P@@ 5616
Община 5616
ей 5614
Дру@@ 5613
1977 5611
дин 5609
когото 5604
1959 5603
1964 5603
Бай@@ 5602
Тук 5598
плъ@@ 5598
дри@@ 5591
1915 5588
зат@@ 5588
e@@ 5577
гара 5577
лист 5577
нен@@ 5572
лност 5568
Бор@@ 5566
Жан 5566
Уилям 5565
епоха 5565
ствие 5565
Уе@@ 5564
управлява 5562
V@@ 5560
Тогава 5560
сов 5555
южно 5555
наме@@ 5552
следващия 5551
Кай@@ 5550
паметник 5550
папа 5550
стане 5549
нер@@ 5546
1949 5545
лския 5544
Работи 5540
1938 5539
Формула 5537
тив@@ 5535
2021 5532
Ау@@ 5528
Иванов 5527
приемат 5527
зе 5526
подкрепа 5524
факултет 5524
ква@@ 5523
смър@@ 5521
имало 5515
наречен 5512
стън 5512
щото 5511
кон 5508
лянето 5503
първа 5498
градът 5496
Сла@@ 5495
лон 5495
чен@@ 5490
лати@@ 5489
женията 5487
E@@ 5485
лизи@@ 5484
романа 5484
родния 5478
градски 5475
политическа 5469
32 5468
дже@@ 5465
нейната 5462
изя@@ 5461
борба 5460
ке 5458
1961 5457
територии 5455
пови@@ 5452
логия 5450
Източ@@ 5449
Заедно 5446
мира 5446
Н 5445
тния 5445
юго@@ 5445
1956 5443
художник 5439
Голяма 5437
посещава 5436
северно 5436
вой@@ 5427
поддържа 5427
Гвинея 5425
изку@@ 5424
ане 5423
орден 5419
обучение 5418
1963 5417
вместо 5417
Швеция 5415
възможно 5415
1000 5414
лис 5412
стени 5411
D@@ 5409
защит@@ 5407
миналото 5406
ули@@ 5400
теория 5399
A@@ 5394
Търново 5394
маса 5393
глава 5391
дома 5390
1958 5385
пите 5379
българите 5374
Скопие 5373
долара 5370
ждането 5365
източници 5364
действа 5362
отколкото 5360
магни@@ 5359
стойност 5358
Йе@@ 5357
премества 5355
състоя@@ 5355
Докато 5354
известните 5354
Кле@@ 5350
шев 5349
Нор@@ 5344
негово 5342
средно 5342
клуба 5340
кт 5340
Р 5338
шно 5337
активно 5336
око@@ 5336
оти@@ 5332
1936 5329
алната 5329
обект 5328
проте@@ 5326
1924 5321
селата 5320
свой 5318
водят 5317
училището 5316
мери@@ 5312
разполага 5311
Тан@@ 5308
400 5306
прода@@ 5303
Член 5302
бо 5302
рядко 5299
сп@@ 5298
музиката 5291
Константинопол 5289
наследство 5289
Тракия 5285
режисьор 5285
ун 5285
къс@@ 5282
подобни 5281
пли@@ 5280
революционер 5277
? 5275
съвет@@ 5275
C@@ 5273
центра@@ 5273
яне 5272
1926 5268
живо@@ 5266
лу 5262
цяло 5262
езика 5260
ствената 5260
никога 5256
Кариера 5255
Етнография 5254
превод 5253
Уи@@ 5252
дно 5247
Мъ@@ 5246
зма 5246
пя@@ 5246
Хер@@ 5245
зан 5243
успяват 5242
горе@@ 5240
вич 5239
1903 5238
гръ@@ 5237
работят 5237
Гер@@ 5235
вате@@ 5235
римски 5235
Фо@@ 5234
ради@@ 5233
Е 5229
годишно 5227
мей@@ 5227
Основ@@ 5226
нем@@ 5224
техника 5224
добра 5222
люби@@ 5221
създават 5221
Тъй 5215
образува 5215
статистика 5215
броя 5214
пор@@ 5214
носител 5212
et 5210
раните 5210
закри@@ 5207
контра@@ 5205
кси@@ 5203
използването 5201
ото 5201
B@@ 5196
скъ@@ 5196
нин@@ 5195
тически 5195
операция 5194
сли@@ 5193
стан@@ 5189
пря@@ 5186
обита@@ 5185
режисьора 5182
Лин@@ 5181
млн. 5181
постав@@ 5178
продължават 5177
A 5176
връзки 5175
погре@@ 5174
крайцери 5172
достатъчно 5169
линии 5166
рам@@ 5162
T@@ 5161
бен@@ 5160
Ци@@ 5157
германски 5157
150 5154
северо@@ 5154
гар@@ 5153
бели 5149
майстор 5147
Сте@@ 5146
бира 5144
герой 5144
между@@ 5144
отбеля@@ 5142
нар 5141
демокра@@ 5139
микро@@ 5139
определени 5138
ене@@ 5133
партията 5133
Бро@@ 5132
ческата 5132
християн@@ 5131
мъже 5130
Швейцария 5129
число 5129
Крал@@ 5128
рал@@ 5127
ръко@@ 5127
залив 5125
ву@@ 5122
издадена 5121
последния 5117
революционна 5117
Тур@@ 5116
научни 5116
Фор@@ 5113
храма 5112
високи 5111
лат@@ 5111
она 5110
1935 5108
бли@@ 5108
Тър@@ 5107
бъде@@ 5107
база 5106
реки 5104
роман@@ 5103
търговски 5102
цо 5100
1952 5097
дълбочина 5096
чиято 5096
дума 5092
един@@ 5092
еми 5082
1929 5079
модер@@ 5075
свои 5074
1914 5073
сингъл 5073
пода@@ 5072
ара 5071
Първа 5070
фронт 5066
ология 5065
размери 5065
Джордж 5058
Ян@@ 5058
пен@@ 5055
цки 5055
X 5054
зани 5054
Елена 5052
Дю@@ 5051
няване 5049
отво@@ 5049
ѐ@@ 5049
ООН 5048
имена 5047
Софийския 5045
1925 5044
собственост 5041
минути 5040
Колумбия 5039
счита 5037
стен@@ 5036
стика 5036
срещ@@ 5035
Пол@@ 5034
обез@@ 5034
административен 5032
1921 5031
графи@@ 5031
лей@@ 5029
чение 5026
номер 5025
използван 5024
християни 5023
чето 5021
централната 5020
in 5019
Ран@@ 5019
зов 5019
хан 5015
ански 5014
Бен@@ 5011
гли 5008
3@@ 5004
ВМОРО 5004
мна 5004
вяват 5003
прав@@ 5003
цвят 5002
Кан@@ 5000
жъл@@ 4997
временно 4991
т.н. 4991
храна 4991
войска 4990
вало 4989
Около 4988
тел@@ 4988
птици 4987
творби 4987
Тех@@ 4986
Кур@@ 4984
тяхната 4983
кър 4982
оце@@ 4982
разкри@@ 4982
нението 4981
рей@@ 4981
седем 4981
сел 4979
стран@@ 4977
тното 4976
Доб@@ 4974
човека 4974
Вър@@ 4973
лство 4968
наследник 4967
главния 4961
икономически 4961
полски 4960
покри@@ 4958
дво@@ 4957
мото 4955
стър@@ 4955
ващата 4954
1908 4953
Националната 4950
1922 4943
нове 4943
тирани 4941
ьор 4940
построен 4939
производ@@ 4937
Министерството 4935
есента 4935
фон@@ 4935
кула 4933
американската 4932
войвода 4932
думи 4930
споменава 4922
прекра@@ 4921
финала 4921
Пър@@ 4920
Мин@@ 4919
епи@@ 4918
серия 4917
държавен 4916
линията 4916
иде@@ 4915
Русе 4914
брега 4913
Сти@@ 4909
спе@@ 4909
тона 4909
дор 4906
1951 4904
вин 4904
ничен 4904
ражда 4904
такъв 4904
Ф 4900
владе@@ 4897
висо@@ 4896
втора 4894
Чу@@ 4892
помага 4892
продукти 4892
Брат 4891
комплекс 4891
поп 4891
формира 4884
жна 4880
1953 4879
Римската 4877
мощ@@ 4877
създаване 4876
ход 4875
цо@@ 4875
обеди@@ 4874
1877 4873
Велики 4872
Ол@@ 4870
чението 4869
0@@ 4866
бол@@ 4865
зар@@ 4865
Белгия 4864
1933 4863
жки 4863
игра 4863
бър 4862
променя 4859
изди@@ 4856
върха 4855
код 4854
после 4850
спече@@ 4844
1957 4841
обратно 4841
грани@@ 4840
крайцера 4840
жо@@ 4838
военно@@ 4837
Горна 4834
рец 4834
власти 4833
Ам@@ 4831
причи@@ 4829
Джу@@ 4825
Руската 4824
пристига 4823
провеждат 4821
Загора 4820
поредица 4820
ец 4819
укра@@ 4817
нев 4816
зае@@ 4813
защитава 4809
Съединените 4808
Луций 4803
прави@@ 4803
мията 4799
уз@@ 4796
1937 4793
оръ@@ 4793
структура 4790
транспор@@ 4788
характер 4786
Филмът 4785
изкуството 4783
кали@@ 4783
братя 4779
Але@@ 4778
щение 4776
1904 4775
премах@@ 4774
кани 4773
G@@ 4770
дела 4769
дълги 4769
щи@@ 4769
бъл 4765
пролетта 4765
допъл@@ 4764
фото@@ 4764
ски@@ 4758
сий 4757
нейните 4756
стар@@ 4755
сан@@ 4753
L@@ 4752
вижда 4752
Университета 4751
Джо@@ 4749
склонове 4748
1917 4740
цент@@ 4740
чване 4740
Под 4739
роли 4739
селища 4739
възра@@ 4738
тар 4737
налага 4734
образуват 4734
единствено 4732
употреба 4731
френския 4729
дената 4727
направи 4727
принц 4727
ането 4724
проф 4723
проце@@ 4718
гане 4717
беше 4712
държа@@ 4709
Бел@@ 4708
лага 4707
загу@@ 4706
затова 4706
последната 4703
пехотен 4702
пари 4701
VII 4700
именно 4699
военните 4698
гръцката 4698
дне@@ 4695
рак@@ 4694
осъществява 4692
зъ@@ 4691
четири@@ 4688
Франц 4687
футболен 4687
мор 4684
Фри@@ 4682
изключение 4682
Една 4681
отряд 4678
камък 4675
гот@@ 4673
електри@@ 4670
осем 4669
стан 4669
У 4667
наричан 4667
включ@@ 4666
Гро@@ 4665
Купата 4665
тиран 4663
взима 4660
засе@@ 4660
бле@@ 4658
нари@@ 4658
Сюжет 4657
комисия 4653
дейността 4651
Спи@@ 4649
евре@@ 4649
1954 4646
Ед@@ 4644
американска 4644
интерес 4642
тру@@ 4642
тият 4638
международни 4637
кат@@ 4636
ѝ@@ 4636
използване 4634
растения 4634
пада 4633
Гай 4630
заявява 4629
намалява 4627
Кръ@@ 4625
кти@@ 4624
беле@@ 4623
задъл@@ 4622
поста 4620
старите 4620
Мартин 4618
отдел 4618
мар 4617
унгар@@ 4616
благодарение 4615
преподава 4615
сена 4615
дар 4614
труд 4613
заповед 4611
хо 4611
пуснат 4606
Дунав 4604
Кли@@ 4603
стоя@@ 4597
Кам@@ 4596
дка 4593
появяват 4591
’ 4589
жът 4587
текст 4587
1932 4585
ърс 4585
местни 4584
кин@@ 4581
пост 4581
произве@@ 4581
основан 4580
нещо 4579
сведения 4579
кмет 4578
теро@@ 4577
нама@@ 4576
изпратен 4573
рас@@ 4570
алното 4568
Съюза 4567
1910 4566
корпус 4566
чения 4566
носят 4565
Повечето 4562
Сту@@ 4561
дените 4559
побеждава 4559
оръжие 4556
нено 4555
следва@@ 4555
сериал 4554
смя@@ 4551
западните 4550
обекти 4550
щане 4548
Бри@@ 4545
австри@@ 4542
рез@@ 4540
уби@@ 4538
подчи@@ 4537
кам@@ 4534
наречена 4534
постъпва 4533
веднага 4532
Индонезия 4528
нд 4528
Робърт 4527
телевизия 4527
опера@@ 4526
тво@@ 4525
маси@@ 4524
идеята 4523
ковски 4523
and 4520
ландски 4520
1955 4517
замък 4515
кори@@ 4515
народ@@ 4515
ево 4509
насят 4508
крепост 4506
пит@@ 4506
алния 4503
проек@@ 4499
командването 4497
стки 4497
Вар@@ 4496
биват 4496
хард 4496
добри 4493
Фердинанд 4492
начало 4491
лейтенант 4489
федерация 4488
рак 4486
ЦСКА 4485
жаване 4484
Конрад 4483
кот@@ 4481
св 4481
дости@@ 4480
старо@@ 4480
нови@@ 4479
хими@@ 4479
лож@@ 4474
цяла 4474
срещи 4472
в. 4471
лично 4471
um 4470
обработ@@ 4465
относно 4464
компози@@ 4463
просто 4460
изви@@ 4458
мно 4458
благород@@ 4455
едновременно 4454
режим 4452
материал 4451
Спо@@ 4449
чина 4448
федера@@ 4446
лки 4445
открито 4445
част@@ 4445
Атина 4444
самия 4444
стадион 4441
чийто 4441
Въл@@ 4438
склю@@ 4438
тяхното 4437
жения 4436
4@@ 4435
Кре@@ 4435
северозапад 4435
количество 4434
раната 4434
ску@@ 4432
училища 4428
все@@ 4427
пад@@ 4427
полета 4427
ема 4426
пространство 4426
математи@@ 4424
тяло 4424
Междусъюзническата 4423
коми@@ 4423
бни 4417
чове@@ 4417
ад@@ 4416
рите@@ 4416
Аржентина 4415
произлиза 4414
сова 4413
постоянно 4412
Автор 4408
Анто@@ 4407
стват 4407
типи@@ 4406
Ернст 4404
изве@@ 4404
негови 4404
Ню@@ 4402
тран@@ 4402
щаб 4402
Албания 4400
нача@@ 4400
Южен 4399
броне@@ 4397
план@@ 4395
Томас 4394
изпълнение 4394
прекарва 4394
R@@ 4393
спрямо 4393
изключ@@ 4390
Вел@@ 4388
щава 4388
бва 4387
кос@@ 4387
Бъ@@ 4386
разработ@@ 4386
лър 4385
Край@@ 4382
орган 4381
запла@@ 4380
ческото 4378
F@@ 4377
европей@@ 4377
резер@@ 4377
зване 4375
прото@@ 4374
ращи 4368
рение 4367
паша 4366
действието 4365
квартал 4365
поч@@ 4362
хвър@@ 4361
има@@ 4360
свър@@ 4358
нската 4356
ствените 4353
чният 4353
75 4351
източно 4351
00 4350
пуска 4350
йският 4348
промен@@ 4348
Хитлер 4346
канал 4344
Един@@ 4343
Стру@@ 4343
Рей@@ 4340
добрите 4340
ам@@ 4339
кция 4339
професиона@@ 4338
убе@@ 4338
Богородица 4337
какво 4337
лово 4336
La 4335
зала 4335
основен 4334
Пор@@ 4332
фина@@ 4332
33 4328
образ@@ 4328
Тер@@ 4326
кол@@ 4326
Впоследствие 4324
Село 4323
дипло@@ 4322
играят 4320
победата 4319
западно 4318
превър@@ 4318
важна 4315
вка 4312
amp 4310
голямото 4310
мани@@ 4309
президента 4309
вина 4308
Х 4306
1931 4304
сан 4304
Пол 4302
поредицата 4301
тек@@ 4301
ства@@ 4300
тема 4299
Откри@@ 4294
лището 4294
Учи 4293
печат@@ 4293
гърци 4292
од@@ 4292
1@@ 4291
Например 4290
документи 4289
нейния 4289
O@@ 4288
програмата 4286
сравнение 4286
мента@@ 4285
звез@@ 4284
съответ@@ 4284
тай@@ 4283
жка 4282
берт 4280
Обикновено 4279
атор 4279
ляват 4277
Ара@@ 4276
нг 4276
Едуард 4274
сериала 4273
високата 4272
тима 4270
чката 4268
тическа 4267
полковник 4263
ствието 4263
библиотека 4260
нико@@ 4259
Вен@@ 4257
нените 4257
североизток 4257
истин@@ 4256
негова 4253
руския 4253
райки 4251
нове@@ 4250
съюз@@ 4250
чиито 4250
гло@@ 4249
38 4248
Става 4248
бой 4248
тивни 4245
Мер@@ 4243
достав@@ 4242
общини 4241
чева 4241
менти 4240
рява 4239
даден 4237
Кали@@ 4236
лката 4233
кин 4229
югоизток 4229
побе@@ 4227
икономика 4226
хро@@ 4226
въпроси 4225
Корея 4223
кал@@ 4223
обича@@ 4223
древ@@ 4222
коп@@ 4220
високо@@ 4219
сна@@ 4219
Вин@@ 4218
градовете 4217
общност 4216
рове 4216
Албрехт 4213
турнир 4212
зват 4210
Зо@@ 4209
Илия 4209
класа 4209
Следва@@ 4208
ръководи 4207
1916 4205
зването 4205
изградена 4205
руската 4205
Мит@@ 4204
н.в. 4204
приет 4203
устието 4200
причини 4199
сътрудничество 4199
зен@@ 4194
конгрес 4194
зин@@ 4191
вната 4187
британски 4185
ванията 4185
Злат@@ 4183
Дейвид 4180
всяко 4179
Пара@@ 4178
кур@@ 4178
висок 4176
нейното 4175
разбира 4175
чено 4175
Макар 4174
разли@@ 4174
1906 4173
лев@@ 4173
мор@@ 4171
моно@@ 4169
всичките 4168
обикнове@@ 4168
Север@@ 4167
важни 4167
получи 4167
сове 4167
дълбо@@ 4165
34 4163
Жи@@ 4162
определен 4162
преси@@ 4162
фици@@ 4161
Първото 4158
хидро@@ 4158
показват 4155
аб@@ 4153
крепостта 4151
съществуват 4148
Пен@@ 4146
извън@@ 4145
правото 4145
византи@@ 4143
първонача@@ 4141
тност 4138
лови 4137
лива 4136
цът 4136
ления 4135
тина 4135
36 4133
Родена 4132
благо@@ 4132
погребан 4132
основната 4131
разказва 4131
Първи 4129
популяр@@ 4128
учени 4128
повре@@ 4125
върне 4124
мента 4124
потреб@@ 4124
дис 4123
краля 4122
страните 4119
заве@@ 4115
Йор@@ 4114
царство 4111
км2 4110
обхваща 4109
полет 4109
Ботев 4105
приятел 4104
изследване 4103
философия 4098
сцена 4097
Бело@@ 4096
стои 4095
яр@@ 4095
Иран 4094
изи@@ 4093
km2 4092
ителя 4091
мит@@ 4091
поет 4089
търговия 4089
преве@@ 4088
румъ@@ 4087
затвор 4086
Кър@@ 4085
големина 4085
сам 4085
фаза 4084
десе@@ 4083
жител@@ 4083
лекар 4083
ниче@@ 4081
рит 4081
Август 4079
въоръжение 4078
вдъх@@ 4076
италиан@@ 4076
племена 4076
победи 4076
рина 4076
Обитава 4075
ана 4075
зо 4074
представляват 4074
жено 4073
извър@@ 4070
тация 4070
труд@@ 4068
ционните 4067
свещеник 4066
Само@@ 4065
бия 4065
Американ@@ 4063
моби@@ 4062
технологи@@ 4062
тура 4062
подвод@@ 4059
седмици 4057
бригада 4056
основана 4056
санд@@ 4054
индустри@@ 4053
рев@@ 4053
произвежда 4052
вените 4051
джи 4050
стаби@@ 4050
оценка 4049
I@@ 4048
Стан@@ 4048
уре@@ 4048
Хр 4047
вън 4047
сред@@ 4047
Израел 4046
изграждането 4046
джиев 4045
a@@ 4044
дски 4044
бю@@ 4041
600 4040
Двамата 4040
проекти 4040
кат 4039
лесно 4039
източник 4038
ул@@ 4038
тира@@ 4037
крайбрежие 4036
каза 4033
поход 4033
N@@ 4032
Национален 4031
държи 4030
селището 4030
времен@@ 4028
види@@ 4026
стин@@ 4025
нес 4022
премина@@ 4022
нямат 4021
предизвиква 4021
къл 4020
1911 4019
дов 4018
постига 4018
y@@ 4017
гол@@ 4017
слав@@ 4016
Хесен 4015
кар 4015
осигурява 4014
лон@@ 4008
мест@@ 4006
зло@@ 4005
стата 4005
образованието 4004
специалност 4003
рису@@ 4002
спомена@@ 4002
рали 4001
уче@@ 4001
ensis 4000
лар@@ 4000
независимост 3999
дъж@@ 3997
затвора 3997
автомоби@@ 3995
обявен 3995
тежки 3993
форд 3993
ль@@ 3992
събира 3991
55 3989
град@@ 3989
сията 3989
Долна 3988
въгле@@ 3986
притежава 3986
чаване 3985
общ 3983
1902 3982
югозапад 3980
друго 3979
лай@@ 3979
кро@@ 3978
гер@@ 3977
науките 3976
Георгиев 3972
флота 3971
прове@@ 3970
прием@@ 3969
Малко 3968
Мюнхен 3968
граждани 3968
правата 3968
Гар@@ 3967
низи@@ 3967
жан@@ 3966
албан@@ 3964
Климент 3962
Све@@ 3962
Спа@@ 3962
графство 3961
лира 3961
руските 3959
хор@@ 3959
разпреде@@ 3958
1907 3957
главната 3957
организи@@ 3956
сберг 3956
фен@@ 3956
Фили@@ 3954
Хенри 3954
ителните 3953
Вай@@ 3951
мини 3951
машини 3950
Нидерландия 3949
Христос 3949
лице 3948
свеще@@ 3948
вис@@ 3947
изъм 3947
преподавател 3947
Петров 3946
бойни 3946
медал 3946
убийството 3946
членовете 3946
Адолф 3944
западния 3943
ъм 3943
нася@@ 3942
рово 3940
мер 3937
сии 3937
atus 3936
вариант 3936
улица 3936
Дан@@ 3935
месе@@ 3929
хил. 3928
Голямата 3926
далеч 3925
претен@@ 3925
нас 3924
увеличава 3924
йс 3923
тивна 3923
Кънчов 3919
владетел 3919
Тай@@ 3916
архитектура 3915
открита 3915
размер 3914
x 3913
снати 3913
Свет@@ 3908
H@@ 3907
Коста 3907
общ@@ 3906
ранните 3906
яна 3905
дат@@ 3903
главата 3902
графски 3902
симво@@ 3902
сми@@ 3901
1909 3899
близ@@ 3899
поне 3899
поръ@@ 3898
силата 3898
тка 3897
зимата 3895
меха@@ 3895
лични 3894
ментите 3893
Стоян 3892
дон 3892
освобо@@ 3892
планини 3891
народна 3890
олимпийски 3890
Вътрешната 3888
публику@@ 3886
соци@@ 3886
бизнес 3885
династията 3883
120 3880
чани 3880
ширина 3878
автори 3876
еро@@ 3876
бед@@ 3874
национално 3874
ръковод@@ 3873
Мате@@ 3872
сък 3870
ент 3869
бан 3866
йд 3866
мили 3864
гел 3863
поставят 3862
функции 3862
инструменти 3860
няването 3858
войските 3856
Част 3854
залива 3854
Кро@@ 3853
къщата 3853
Милано 3852
Ну@@ 3851
най@@ 3850
загуби 3848
ника@@ 3848
произведен 3848
рения 3847
арестуван 3846
Португалия 3845
действа@@ 3845
преминават 3845
колкото 3843
ъра 3843
сне@@ 3841
Европейския 3840
команд@@ 3839
лив 3838
лище 3836
публиката 3836
Словения 3834
Ели@@ 3832
арти@@ 3832
ела 3832
стъл@@ 3831
стъп@@ 3830
избухването 3828
отборът 3828
ол@@ 3823
янето 3822
рих 3821
стер@@ 3821
документа@@ 3820
Атанас 3819
гласу@@ 3819
запазени 3819
Насау 3817
дърво 3817
интер@@ 3816
рания 3816
фил@@ 3816
култури 3815
37 3814
Скоро 3814
шата 3814
технически 3813
Зи@@ 3811
1885 3810
шни 3808
каза@@ 3807
единственият 3806
съдържание 3806
ващия 3804
взе@@ 3804
тора 3804
воде@@ 3803
лева 3803
пе 3801
Рабо@@ 3800
Антон 3799
постро@@ 3798
писва 3796
сер@@ 3795
радио 3794
Конго 3793
1873 3791
нео@@ 3791
проекти@@ 3791
Втора 3790
япон@@ 3788
фт 3785
взри@@ 3784
Ла 3783
мена 3782
пое@@ 3782
разру@@ 3781
кле@@ 3778
устройство 3777
наблюдава 3776
логията 3775
родо@@ 3774
Виктор 3773
анали@@ 3772
спек@@ 3771
Светов@@ 3770
езера 3770
Дар@@ 3768
Сред@@ 3768
подобно 3768
минера@@ 3767
въпрос 3766
каз@@ 3766
дал 3765
42 3764
старата 3763
числе@@ 3761
чужбина 3760
ителната 3758
йците 3758
Цариград 3756
ар 3756
изработ@@ 3756
надесет 3756
участник 3756
бежанци 3755
жите 3754
меди@@ 3754
Тор@@ 3752
успеш@@ 3752
подгот@@ 3751
ност@@ 3750
подготовка 3750
разви@@ 3750
целта 3750
ефектив@@ 3749
търси 3748
0,@@ 3746
полож@@ 3745
пояснение 3745
ae 3744
осъ@@ 3744
поставени 3741
Съвета 3739
жката 3739
придобива 3739
армен@@ 3738
Велико 3737
продуци@@ 3737
Численост 3736
нис 3735
региона@@ 3735
кралица 3734
реш@@ 3734
фелд 3734
&#124; 3733
Кат@@ 3733
o 3732
Гру@@ 3732
нали@@ 3732
стандар@@ 3732
ис@@ 3731
накрая 3731
отстъп@@ 3731
g 3729
Олимпи@@ 3729
съветник 3729
съветски 3729
предло@@ 3728
кръст 3727
македон@@ 3727
стопанство 3727
Херман 3725
скри@@ 3725
слабо 3724
чва 3724
гането 3722
комуни@@ 3722
твърде 3721
Среща 3720
риа@@ 3720
Бавария 3719
дебютира 3719
закон 3718
дс 3717
участ@@ 3717
Майкъл 3715
нска 3715
носе@@ 3714
повърхността 3714
национални 3713
ов@@ 3713
краси@@ 3712
водите 3711
турци 3706
дейности 3705
осъщест@@ 3705
програми 3703
вода@@ 3699
категория 3698
статии 3698
ученици 3698
македоно 3696
крайцер 3694
ничка 3694
местен 3693
процеса 3693
Ирландия 3692
Оскар 3692
убива 3692
младеж@@ 3691
лият 3690
Руско 3689
единици 3689
източните 3688
обществото 3688
партии 3688
експедиция 3687
звезда 3687
пясъ@@ 3686
Кралство 3684
броят 3683
Тру@@ 3680
звание 3680
фестивал 3677
65 3676
журналист 3676
медицина 3676
онова 3676
шена 3676
миш@@ 3675
жават 3674
смятат 3674
художе@@ 3673
Димит@@ 3672
Методий 3672
чил 3671
фак@@ 3669
рос 3667
хия 3667
Сю@@ 3666
духов@@ 3666
джу@@ 3665
Виетнам 3664
кович 3664
лие 3664
национална 3664
разби@@ 3664
музикални 3663
250 3662
Оли@@ 3661
Хел@@ 3659
архиепископ 3659
динами@@ 3659
Ван@@ 3658
Ей@@ 3657
американския 3657
графия 3657
такава 3656
Лос 3655
етап 3655
любов 3655
всъщност 3654
оло@@ 3654
ръка 3654
илю@@ 3653
използвана 3652
метод 3652
ге 3651
играч 3651
ia 3650
компании 3648
разруш@@ 3647
ралните 3646
изиграва 3645
чар@@ 3645
доби@@ 3642
изборите 3642
фло@@ 3639
ана@@ 3638
малките 3637
ническа 3637
Белград 3636
вди@@ 3636
органи@@ 3635
подава 3635
Националния 3634
отстра@@ 3634
промяна 3634
характеристики 3634
скали 3632
границите 3631
Стоянов 3630
она@@ 3630
Норвегия 3629
Съветския 3629
включени 3629
вци 3627
градче 3627
s@@ 3626
дефини@@ 3626
добро 3626
чването 3626
ката@@ 3625
ционната 3625
Николов 3624
отделя 3623
тично 3623
пру@@ 3622
име@@ 3621
водни 3617
дължи 3617
1901 3616
Юж@@ 3616
поле@@ 3616
компютър@@ 3614
предава 3614
нася 3613
фикация 3613
чита 3613
времена 3611
хаузен 3611
800 3610
Хю@@ 3610
мисия 3609
дието 3607
зър@@ 3606
мат 3605
I. 3604
помощник 3603
последният 3603
сексу@@ 3601
ляв 3599
отбори 3599
възник@@ 3598
племен@@ 3598
турците 3598
напред@@ 3594
лей 3592
глас 3591
мунд 3591
ура 3591
знак 3589
атака 3588
разделя 3587
второ 3586
династия 3586
8@@ 3585
специални 3585
неговият 3584
необходи@@ 3584
VIII 3583
Ган@@ 3583
Бил 3582
британ@@ 3582
пило@@ 3582
против@@ 3582
приблизително 3580
Босна 3578
годишната 3578
B 3577
предизви@@ 3577
функция 3575
Ска@@ 3573
десен 3573
културно 3572
основател 3571
n 3570
черно@@ 3570
премест@@ 3569
Л 3566
херцо@@ 3566
ЦК 3565
борбата 3565
публи@@ 3565
сръбски 3565
новото 3563
оните 3563
Фло@@ 3562
издате@@ 3562
Института 3561
едноименния 3560
елемент 3560
забав@@ 3560
запознава 3560
офици@@ 3560
бун@@ 3558
предполага 3558
базата 3557
въстанието 3557
самолети 3557
чът 3557
пазар 3556
Теле@@ 3555
араб@@ 3555
здра@@ 3554
принуден 3554
t 3553
източна 3553
ваните 3551
движението 3551
пари@@ 3551
убити 3551
братята 3550
островите 3549
морската 3548
силите 3546
K@@ 3545
Баден 3545
нахлу@@ 3545
дорф 3543
свързан 3543
окупи@@ 3542
on 3540
индивиду@@ 3540
пример 3540
думата 3539
окръ@@ 3539
операции 3538
уста@@ 3534
свързана 3531
отговаря 3529
управител 3529
Окръг 3528
кино@@ 3528
конфликт 3528
теж@@ 3528
играта 3527
изкуства 3527
равнина 3527
Кюстендил 3525
изглежда 3525
стични 3525
Кол@@ 3524
став@@ 3524
Ана@@ 3520
двора 3520
сценарий 3519
мс 3517
изма 3515
световно 3515
освободен 3513
певица 3513
изпъл@@ 3511
повод 3511
съсед@@ 3511
единица 3510
пери@@ 3510
чените 3510
избира 3509
Както 3506
преслед@@ 3505
новен 3502
Пле@@ 3500
гон 3499
списък 3499
съще@@ 3498
Пъ@@ 3497
местното 3496
гео@@ 3495
сбург 3494
отбраната 3493
маните 3492
сцената 3489
зер@@ 3488
Асен 3486
иска@@ 3486
създадени 3486
фен 3485
писмо 3480
фран@@ 3480
замъка 3478
поля@@ 3478
Сър@@ 3477
дати@@ 3476
вземат 3475
сар@@ 3475
рието 3474
Македо@@ 3473
академи@@ 3472
Герман@@ 3471
Пот@@ 3471
епизод 3471
спечели 3471
Съединени 3470
теоре@@ 3469
Ричард 3467
Перу 3466
Мен@@ 3465
Рек@@ 3463
Ръ@@ 3462
Сар@@ 3459
варя@@ 3459
стопан@@ 3459
ори@@ 3458
шкия 3458
смисъл 3457
новски 3456
оставя 3456
Списък 3453
дията 3452
западна 3451
кампания 3451
светлина 3451
частично 3451
клон 3450
завръщането 3449
къл@@ 3449
отговор 3446
т. 3444
1895 3442
комплек@@ 3442
член@@ 3442
c@@ 3440
опис@@ 3440
онът 3439
съдеб@@ 3438
присъеди@@ 3437
драма 3436
тери@@ 3436
морето 3435
трудно 3435
тик 3434
филмо@@ 3434
Ной@@ 3433
публикуван 3433
рес 3433
ърк@@ 3432
нощта 3431
църкви 3431
долина 3428
реди@@ 3428
архи@@ 3426
лети 3426
труда 3426
Андрей 3425
основна 3423
стените 3423
знае 3421
изби@@ 3420
дълга 3419
мачове 3419
пан 3418
писате@@ 3418
Фран@@ 3417
болница 3417
възраст@@ 3417
дър 3417
пъту@@ 3417
космически 3416
Ком@@ 3415
бург@@ 3415
главните 3415
право@@ 3415
стия 3415
аку@@ 3413
прехвър@@ 3413
нару@@ 3412
ходите 3412
ав@@ 3411
памет 3411
повлия@@ 3411
притоци 3411
футбо@@ 3411
средновеков@@ 3410
o@@ 3409
дови@@ 3409
рация 3409
хан@@ 3407
Плевен 3406
запазва 3406
фамилия 3406
ционно 3406
Вой@@ 3405
Рудолф 3405
Хор@@ 3404
генера@@ 3404
журнали@@ 3404
истори@@ 3404
лъчеперка 3403
офицери 3401
изпълняват 3400
разкази 3399
b@@ 3397
Европей@@ 3397
строителството 3397
Тран@@ 3396
империята 3396
био@@ 3395
граници 3395
вери@@ 3394
второто 3394
физика 3394
Гали@@ 3393
вещества 3393
испански 3393
издига 3391
рийски 3391
пътища 3389
фин@@ 3389
френската 3388
вява 3386
традицион@@ 3384
възможността 3382
народ 3382
позиции 3377
южните 3376
бла@@ 3375
ливи 3375
хът 3375
Дон@@ 3374
революцион@@ 3374
дадена 3373
Шо@@ 3372
вест@@ 3372
прину@@ 3372
нична 3371
Същата 3370
пехотна 3369
политиката 3368
см 3367
Област 3366
посе@@ 3366
Получава 3365
борда 3364
Вашингтон 3363
Сен 3362
екзархия 3361
Сейнт 3360
удар 3360
традиция 3359
1896 3358
родителите 3358
съдове 3357
лас 3356
Битоля 3355
режи@@ 3355
северните 3355
Вра@@ 3354
Петербург 3354
приятели 3354
Международ@@ 3352
Христов 3352
Стро@@ 3351
Габрово 3349
лд@@ 3349
соли@@ 3349
доктор 3348
веднъж 3347
световен 3347
ас 3346
товете 3346
достъп 3344
художествена 3344
символ 3343
завладя@@ 3342
ръцете 3341
семей@@ 3341
мало@@ 3339
намира@@ 3339
подо@@ 3337
ай@@ 3336
водосборния 3336
крат@@ 3336
полза 3336
увели@@ 3335
състезания 3334
дните 3333
определят 3333
морска 3332
лист@@ 3331
Бол@@ 3330
пис 3329
Българска 3327
Кипър 3327
испан@@ 3327
ске@@ 3327
диалект 3326
мина 3326
тежко 3322
методи 3319
ителното 3318
учеб@@ 3318
48 3317
извърш@@ 3316
скулп@@ 3316
пози@@ 3315
колони@@ 3313
купата 3313
изисква 3312
дския 3311
герман@@ 3310
ителят 3310
лети@@ 3310
технологии 3309
пка 3305
прие@@ 3305
кара@@ 3304
придру@@ 3304
чан@@ 3304
ено@@ 3303
въоръ@@ 3301
съдържа@@ 3301
надпис 3300
нителна 3300
национа@@ 3299
мър@@ 3298
Дания 3297
СС 3297
вкарва 3297
позицията 3297
Луис 3295
банка 3294
текстове 3294
дебют 3293
чия 3293
g@@ 3292
рик 3292
американските 3291
мнение 3291
природата 3291
домини@@ 3290
стари 3290
Северен 3289
уника@@ 3289
Групата 3288
актьор@@ 3288
популярност 3286
важен 3284
44 3282
жно 3282
чов 3282
дов@@ 3281
домакинства 3281
излъ@@ 3281
комуника@@ 3281
ниска 3281
стати@@ 3281
гар 3280
двор 3280
раждането 3279
ВМРО 3278
европейските 3278
зави@@ 3278
регистри@@ 3278
метро@@ 3277
събират 3277
кило@@ 3276
Създа@@ 3275
император@@ 3275
линг 3275
жанра 3273
останали 3273
подходя@@ 3272
стката 3271
Черна 3270
бори 3270
престъп@@ 3270
W@@ 3269
рон@@ 3269
конкурс 3267
траки@@ 3267
ъри 3266
поя@@ 3265
опълчение 3264
телевизион@@ 3264
горната 3263
дол 3263
39 3262
техниче@@ 3262
Бат@@ 3260
автор@@ 3260
кана 3260
лагер 3259
гау 3258
цов 3258
Мел@@ 3257
вят 3256
вън@@ 3254
музикален 3254
лос 3253
навлиза 3253
директно 3251
конститу@@ 3251
процеси 3251
свири 3251
утвър@@ 3249
важ@@ 3248
Венеция 3247
желез@@ 3247
концер@@ 3247
отхвър@@ 3247
прекъс@@ 3246
Ама@@ 3245
Черно 3245
тече 3245
1899 3244
хите 3244
лийски 3243
съм 3242
двигател 3241
трима 3241
актив@@ 3240
уда@@ 3240
лечение 3238
романи 3238
Йосиф 3237
Кристиан 3237
Малайзия 3237
корабите 3237
независимо 3237
свобода 3237
транспорт 3237
каче@@ 3236
бази@@ 3234
признава 3234
чево 3234
институции 3233
пътува 3233
съл 3233
9@@ 3232
източния 3232
португа@@ 3232
l 3231
курс 3231
мести 3231
турата 3231
L 3230
Или@@ 3230
звезди 3230
Али@@ 3229
научна 3229
тат@@ 3229
нс 3227
отношенията 3226
Анджелис 3225
Често 3225
интернет 3225
Ур@@ 3224
лег@@ 3224
природни 3224
карта 3223
внимание 3222
значителни 3222
тех@@ 3221
обшир@@ 3219
поро@@ 3219
ръководство 3219
заре@@ 3218
споразумение 3218
наука 3216
промишленост 3216
Оби@@ 3215
трябвало 3215
ут 3215
41 3213
мона@@ 3213
i@@ 3212
Гьо@@ 3210
Санкт 3209
чината 3209
археологически 3208
въста@@ 3208
n@@ 3207
бер 3207
кано@@ 3207
тари@@ 3207
криза 3206
сови 3206
Гю@@ 3205
хай@@ 3205
ърът 3205
самата 3204
Прав@@ 3202
застра@@ 3202
слава 3202
Йордан 3201
изва@@ 3201
копия 3200
опити 3200
загуба 3199
тивно 3199
Хаджи@@ 3198
тат 3198
военната 3197
аристокра@@ 3195
кули 3195
риал@@ 3195
Няколко 3194
кой 3194
Йозеф 3193
широка 3193
разстояние 3191
Балкан@@ 3190
останки 3190
съчета@@ 3190
ненията 3189
задача 3188
прести@@ 3188
трона 3188
японски 3188
следи 3187
услуги 3186
млади 3185
рекла@@ 3184
Римска 3183
гне@@ 3183
излъчва 3183
инженер 3183
Каролина 3182
преврат 3181
нищо 3180
окончателно 3180
врата 3179
определена 3179
третата 3179
F 3177
едни 3177
метър 3177
стване 3176
равни@@ 3175
латински 3174
огън 3174
ползва 3171
пресел@@ 3170
яв@@ 3169
Ген@@ 3168
Сити 3168
Радо@@ 3167
живе@@ 3167
43 3166
изка@@ 3166
пътеше@@ 3166
to 3165
гру@@ 3165
старши 3165
украин@@ 3164
Пау@@ 3162
видео 3162
купа 3161
работе@@ 3161
ходът 3161
кг 3160
разгле@@ 3160
славян@@ 3160
мра@@ 3158
насочва 3158
събор 3158
варят 3157
установ@@ 3157
ЕС 3156
измер@@ 3156
потвър@@ 3156
$ 3155
Агнес 3155
състезате@@ 3155
дебю@@ 3154
наличието 3154
ока@@ 3154
ней@@ 3153
откло@@ 3153
разтво@@ 3153
сериозно 3153
реша@@ 3152
тови 3151
идеи 3148
носа 3146
чак 3145
воден 3144
жп 3143
отве@@ 3143
злат@@ 3142
освобод@@ 3141
тово 3141
1876 3140
Шан@@ 3140
зони 3140
клет@@ 3140
инте@@ 3139
цу@@ 3139
държа 3138
неу@@ 3138
Тайланд 3137
вали@@ 3137
Световната 3136
сце@@ 3136
финал 3136
d@@ 3135
Стар@@ 3135
дет@@ 3134
малкото 3132
силен 3132
кови@@ 3130
мощност 3130
прило@@ 3130
7@@ 3129
гна@@ 3129
остав@@ 3129
обо@@ 3128
поддържа@@ 3128
модели 3127
недостатъ@@ 3126
обви@@ 3126
меж@@ 3124
парламент 3123
съпротива 3122
Уол@@ 3121
течението 3121
граничи 3120
климат 3120
предаване 3120
избя@@ 3119
любо@@ 3119
Само 3118
Със 3118
географ@@ 3118
бор 3117
високите 3117
лагане 3117
разглежда 3117
лил 3116
нарежда 3114
наци@@ 3112
влиянието 3111
хва@@ 3111
лии 3110
напре@@ 3110
торпе@@ 3110
клетки 3108
метъл 3108
слън@@ 3108
Вил@@ 3107
sa 3106
Симеон 3106
кер 3106
1894 3105
47 3105
бин 3105
издания 3105
стве@@ 3104
ровка 3101
Ловеч 3100
Шумен 3099
направени 3097
трета 3097
Син 3096
Сирия 3096
Национа@@ 3095
бани 3095
дире@@ 3095
d 3093
дружина 3093
6@@ 3092
герои 3091
икономиката 3091
Шарл 3090
газ 3090
католи@@ 3089
омъжена 3089
специфи@@ 3089
участък 3088
Хон@@ 3086
они@@ 3086
рие 3086
фре@@ 3086
бившия 3084
ду 3084
Анхалт 3083
Сли@@ 3083
лез@@ 3083
положението 3082
сра@@ 3082
Хал@@ 3081
адмирал 3080
Ля@@ 3078
Британ@@ 3077
кандидат 3077
редов@@ 3077
Попов 3075
ку 3075
органи 3075
Югоизточна 3074
картини 3074
гъл 3073
земите 3073
изграден 3073
место@@ 3073
основано 3072
забележител@@ 3071
художници 3071
имената 3070
самият 3070
домакин@@ 3069
чността 3069
Лау@@ 3068
Ханс 3067
хал@@ 3067
киселина 3066
Пло@@ 3065
важните 3065
700 3064
анализ 3064
третия 3064
клю@@ 3063
поста@@ 3063
XVIII 3062
недо@@ 3062
проблем 3062
ралната 3062
връзката 3060
Бой@@ 3059
шър 3058
Охридски 3057
декора@@ 3057
Кос@@ 3056
листа 3056
държат 3055
продуцент 3055
щен 3055
Хърватия 3054
изстре@@ 3054
факта 3054
Христо@@ 3053
ционния 3053
денията 3051
нараст@@ 3051
нан@@ 3050
различен 3050
Хъ@@ 3049
арабски 3049
гъл@@ 3049
построени 3049
шест@@ 3049
изпълните@@ 3048
Армения 3047
льо 3047
хърват@@ 3047
женен 3046
наследява 3045
пита@@ 3045
чини 3044
стар 3043
Маргарета 3042
Дължината 3041
Меди@@ 3041
ато 3041
гимназията 3041
кер@@ 3039
познат 3039
пия 3038
Стой@@ 3037
махала 3037
обявена 3037
писатели 3037
лек 3036
търгов@@ 3036
S 3035
даде 3035
назна@@ 3035
ствения 3034
Тръ@@ 3033
качеството 3033
науката 3033
Ал 3032
въздуха 3030
бял 3029
Бранденбург 3028
Обе@@ 3028
известния 3028
създаде 3028
ь@@ 3028
лагат 3027
тон@@ 3027
Ангел 3025
Танзания 3025
Тек@@ 3025
населени 3025
бреговете 3022
дев 3021
настъп@@ 3021
Вюртемберг 3019
научен 3019
изградени 3018
олимпи@@ 3018
няко@@ 3017
песните 3017
1880 3016
1898 3016
XIV 3016
Мадрид 3016
итите 3016
Прага 3015
прияте@@ 3015
мъж 3014
нира 3014
Луиза 3013
дие 3013
Оу@@ 3012
роди@@ 3012
шко@@ 3012
посредством 3011
приета 3011
озву@@ 3010
Авто@@ 3009
помо@@ 3008
1897 3006
Аб@@ 3005
асоциация 3005
Съществуват 3004
изпит@@ 3004
градина 3003
екра@@ 3003
Битката 3002
Заради 2998
Пала@@ 2998
международен 2998
остро@@ 2998
съдържат 2997
ресурси 2996
кру@@ 2995
сет 2995
левия 2994
плоча 2994
сня@@ 2994
съвместно 2994
държавна 2993
оцен@@ 2992
лича 2991
вътрешните 2990
швед@@ 2989
Ща@@ 2988
деня 2988
нав@@ 2988
Цент@@ 2986
събра@@ 2986
чик 2986
Мю@@ 2985
Съвет@@ 2984
осъден 2984
поставен 2984
рев 2983
биологи@@ 2982
изго@@ 2982
кари@@ 2982
образовате@@ 2982
графска 2981
мюсюлман@@ 2981
йка 2979
устройства 2979
ata 2978
зон@@ 2978
разпространение 2978
Цве@@ 2977
външните 2977
градската 2977
спу@@ 2977
хов@@ 2977
опита 2976
англи@@ 2975
бере 2975
маркграф 2975
мски 2975
някой 2975
решават 2975
Лай@@ 2973
Хър@@ 2973
африкан@@ 2973
мъж@@ 2972
тем@@ 2971
английския 2970
Дъл@@ 2969
вор@@ 2969
рил 2969
маща@@ 2968
отраз@@ 2968
ственото 2968
лате@@ 2967
откриват 2967
тс 2965
Локомотив 2962
Основните 2962
граждан@@ 2962
Черно@@ 2961
държавни 2960
сната 2960
императора 2959
рото 2959
тим 2959
ждани 2958
закона 2958
наше@@ 2958
придоби@@ 2957
ристи@@ 2956
Македоно 2955
бин@@ 2955
сражение 2955
Всяка 2954
После@@ 2954
Торино 2954
награден 2954
жела@@ 2953
лството 2952
наб@@ 2952
синът 2952
лидер 2951
пропаганда 2951
рио 2951
5@@ 2950
Популацията 2950
композитор 2950
народи 2950
Кир@@ 2949
лиза 2949
Тар@@ 2948
дви@@ 2948
калибър 2948
пер 2948
твор@@ 2948
турне 2948
Виктория 2947
тират 2947
гнати 2946
пригот@@ 2946
природ@@ 2946
тегло 2946
вните 2945
парале@@ 2945
Голе@@ 2944
лацията 2944
ждават 2942
Играе 2941
ети@@ 2941
кни@@ 2941
гроб@@ 2940
продава 2940
метри@@ 2939
земедел@@ 2937
пилот 2937
64 2936
Кате@@ 2936
Св. 2935
Майка 2934
буди@@ 2934
дръ@@ 2934
седмица 2934
бло@@ 2933
обуча@@ 2933
опит@@ 2933
приложение 2933
възниква 2932
одринска 2932
последователно 2932
източ@@ 2931
поме@@ 2931
зана 2929
Бей@@ 2928
аре@@ 2928
лагането 2928
” 2927
52 2926
уд 2926
Ала@@ 2925
леп@@ 2925
напрежение 2925
длъжността 2923
ктори 2923
мора@@ 2922
перси@@ 2921
цял 2921
вътре 2920
новени 2920
шат 2920
класа@@ 2919
рика 2919
варя 2918
лян 2918
налягане 2918
решения 2918
учен 2918
десетилетия 2916
пър 2916
гард 2915
първенството 2915
N 2914
пом@@ 2914
ъгъл 2914
лове 2913
нау 2913
предмети 2912
чичо 2912
ря 2911
ологи@@ 2910
отсъ@@ 2910
енти 2909
XVI 2908
Сал@@ 2908
годиш@@ 2908
46 2907
аси@@ 2907
предотвра@@ 2907
тска 2906
Чехия 2905
сегаш@@ 2905
екзеку@@ 2904
З 2903
Френ@@ 2903
куп@@ 2903
тис 2903
сира 2902
средната 2902
Всеки 2901
въоръжени 2901
кос 2901
продължи 2901
дядо 2900
йно 2900
привърже@@ 2900
стове 2900
суб@@ 2900
латин@@ 2899
теми 2898
IX 2897
Стре@@ 2897
лища 2897
председате@@ 2897
президент@@ 2897
техния 2897
Ян 2896
включен 2896
летище 2896
професионален 2896
вицата 2895
кино 2895
Ден@@ 2894
артилерийски 2894
водещ 2894
гат@@ 2894
бежан@@ 2893
бозайник 2893
нива 2893
падат 2893
принадлежи 2893
лед@@ 2892
отделение 2892
Иса@@ 2891
законодате@@ 2891
вследствие 2890
договора 2890
Връ@@ 2889
Лъ@@ 2889
изоста@@ 2889
самолет 2889
психо@@ 2888
версии 2886
диаметър 2886
другата 2886
повърхност 2885
покрай 2885
допълнително 2884
контрола 2884
хов 2884
ходи 2884
довежда 2883
обу@@ 2883
самолета 2883
нан 2882
цвет@@ 2882
Средна 2881
университе@@ 2881
оттегля 2880
поколение 2880
Ней@@ 2879
имал 2879
индиан@@ 2878
оке@@ 2878
съобщава 2878
Кю@@ 2877
горски 2877
малката 2877
мето 2877
социални 2877
бей 2876
музика@@ 2876
патриаршия 2876
свобод@@ 2875
срав@@ 2875
уд@@ 2875
ел@@ 2874
Класи@@ 2873
подкрепя 2873
ефект 2872
силни 2872
управ@@ 2872
Глав@@ 2870
f@@ 2869
плу@@ 2869
различна 2869
пее 2868
Сил@@ 2867
ниски 2867
поведение 2865
фла@@ 2865
Пал@@ 2864
спорт 2864
p@@ 2860
хт 2860
1890 2859
оказват 2859
брони@@ 2858
енен 2858
изме@@ 2858
явява 2858
наси@@ 2857
съществуването 2857
Санта 2856
изпис@@ 2856
нка 2855
шението 2855
1500 2854
изучава 2854
дате@@ 2853
излъчване 2853
Тео@@ 2852
започне 2852
гов 2851
тическата 2851
Офици@@ 2850
части@@ 2850
шампион@@ 2850
грама 2849
зано 2849
стер 2849
затво@@ 2848
самото 2848
дотогава 2847
принцип 2847
софи@@ 2847
Международната 2846
Свето@@ 2846
възмож@@ 2846
нараства 2846
поезия 2846
фонд 2846
мени@@ 2845
нау@@ 2845
on@@ 2843
госпо@@ 2843
митология 2843
продукт 2843
чуж@@ 2843
световното 2842
хер 2842
бъл@@ 2840
деление 2840
опера 2840
многобройни 2839
учи@@ 2839
Ново@@ 2837
дълъг 2837
оръжия 2837
тий 2836
Втори 2835
теорията 2835
лицето 2834
провинции 2834
окръга 2833
вока@@ 2832
излизат 2832
линей@@ 2832
облек@@ 2832
титли 2832
добав@@ 2831
чита@@ 2831
зна 2830
Судан 2829
пазара 2829
енерги@@ 2828
завод 2828
1879 2827
гаран@@ 2827
двореца 2827
единствен 2827
заемат 2826
зар 2826
ранен 2826
реду@@ 2826
състезание 2825
четирите 2825
боя 2824
каме@@ 2824
Мат@@ 2823
чин@@ 2823
1891 2822
вземе 2821
Трен@@ 2820
успе@@ 2820
идея 2819
свързано 2819
Все 2817
мисле@@ 2817
ic@@ 2816
разделят 2816
Затова 2815
особ@@ 2815
нят 2814
средна 2814
тил 2814
търговията 2814
Поп@@ 2813
конкурен@@ 2813
определя@@ 2813
шкото 2813
командване 2812
Изпъл@@ 2811
духо@@ 2811
реги@@ 2811
Хен@@ 2809
камъни 2809
огра@@ 2807
приключва 2807
археологи@@ 2806
гии 2806
изтреб@@ 2805
стра 2804
́ 2803
нично 2802
паци@@ 2801
спира 2801
уст@@ 2801
вице@@ 2800
устойчи@@ 2800
химия 2800
карти 2799
офи@@ 2799
Христи@@ 2798
Чрез 2798
мерки 2797
Световното 2795
баро@@ 2794
липсата 2794
собствена 2794
зират 2793
ял 2793
муску@@ 2792
философ@@ 2792
тела 2791
Бя@@ 2789
думите 2789
мената 2789
ранг 2789
иденти@@ 2788
парти@@ 2787
стие 2786
щни 2785
Херцеговина 2784
знаме 2784
скоростта 2784
kg 2783
Хан@@ 2783
бар 2783
десния 2783
отдале@@ 2783
преимену@@ 2782
чле@@ 2782
Брауншвайг 2781
Народно 2781
длъжност 2781
изра@@ 2781
индустрия 2781
Неговият 2780
Сливен 2780
единствената 2780
y 2779
Ката@@ 2779
тов@@ 2779
Бог 2777
вя 2776
зане 2776
етаж 2775
наричана 2774
съзна@@ 2774
широк 2773
Лей@@ 2772
събитие 2772
съпруг 2772
пома@@ 2771
землището 2770
1,@@ 2769
Катарина 2769
планините 2769
Неапол 2768
свързва@@ 2768
въвежда 2767
лизира 2767
момента 2767
пътна 2767
Българското 2766
публикувани 2766
Z@@ 2765
лика 2765
ствия 2765
хен@@ 2765
Обще@@ 2764
отбрана 2764
торът 2764
56 2763
85 2763
одринското 2762
теат@@ 2761
ано@@ 2759
добива 2759
народни 2759
възпита@@ 2758
резултати 2758
X@@ 2756
Сара@@ 2756
вета 2756
дели 2756
икони 2756
рекор@@ 2756
Прусия 2755
обръща 2755
проти@@ 2755
стария 2754
Цезар 2753
забележителности 2753
фай@@ 2753
Албумът 2752
Чо@@ 2752
вероя@@ 2752
разпо@@ 2752
сво@@ 2752
нович 2751
стартира 2751
съвремен@@ 2751
Мала 2750
депутат 2750
еска@@ 2750
пристанище 2750
взаимо@@ 2749
тиране 2749
фигури 2749
1870 2748
Венецуела 2748
отгле@@ 2748
откриването 2748
Фон@@ 2747
лта 2746
сор 2746
историк 2745
Основната 2744
датира 2744
бого@@ 2743
двойки 2743
колеж 2743
лицата 2743
музикална 2743
приятел@@ 2743
реше@@ 2743
широ@@ 2743
Цари@@ 2742
сно@@ 2742
правила 2741
or@@ 2740
архитек@@ 2740
ковете 2740
ума 2740
la 2739
дания 2739
контроли@@ 2739
лар 2739
лат 2739
частни 2739
манд@@ 2738
нало@@ 2738
предвид 2738
варира 2737
купува 2737
Държав@@ 2736
информа@@ 2736
откъдето 2736
републикан@@ 2736
свойства 2736
карто@@ 2735
македонски 2735
нато 2735
отка@@ 2735
монети 2734
падането 2733
дес 2732
дъщери 2732
изсел@@ 2732
Народна 2731
Теодор 2731
Висо@@ 2728
Кул@@ 2728
местния 2728
писателка 2728
Интер@@ 2727
кате@@ 2727
днешна 2726
Най@@ 2724
етите 2724
средното 2724
научно 2722
раб@@ 2722
Бю@@ 2720
световната 2720
принос 2718
архитект 2717
църков@@ 2717
жената 2716
молеку@@ 2716
серио@@ 2715
тежка 2715
тки 2715
76 2714
Освобождението 2714
обър@@ 2713
студиен 2713
Междувременно 2712
ангажи@@ 2712
социали@@ 2712
фри@@ 2712
лес 2711
Кьо@@ 2710
ател 2710
северозападно 2710
тогаваш@@ 2709
успехи 2709
Ос@@ 2708
ителството 2708
вара 2707
денбург 2707
златен 2707
протежение 2706
Гео@@ 2704
еволю@@ 2703
певец 2702
тръгва 2702
Дя@@ 2701
телевизионен 2701
насле@@ 2700
седалище 2700
яни 2700
Произве@@ 2699
конференция 2699
разделени 2699
el@@ 2698
сай@@ 2698
изче@@ 2697
култур@@ 2697
пото@@ 2697
Песента 2696
исля@@ 2695
низ@@ 2695
тиката 2695
анима@@ 2694
ство@@ 2694
Бон@@ 2692
Шар@@ 2692
гря@@ 2692
попу@@ 2690
самостоятелно 2690
цялост@@ 2690
Дър@@ 2689
девет 2689
дървета 2689
интерпре@@ 2689
религиозни 2689
търсене 2689
нощ 2688
обособ@@ 2688
първо@@ 2688
систе@@ 2688
парламента 2687
Спартак 2686
евреи 2686
сар 2686
тивен 2686
беля@@ 2685
фор 2685
1893 2684
оба@@ 2684
раща 2683
Следва 2682
щат@@ 2682
Василий 2681
важно 2681
ник@@ 2681
патриар@@ 2681
сени 2681
Живо@@ 2680
дото 2680
изгра@@ 2679
отличава 2679
цио@@ 2679
Хоен@@ 2678
ХХ 2676
дение 2676
рира 2676
агре@@ 2675
близки 2675
брази@@ 2675
конкре@@ 2675
последното 2675
грамо@@ 2673
класира 2673
тичната 2673
извършват 2672
средство 2672
центрове 2672
Марко 2671
данъ@@ 2671
демо@@ 2670
любовта 2670
свидетел@@ 2670
християнски 2670
германските 2669
изчис@@ 2669
чув@@ 2669
коро@@ 2668
оли@@ 2667
решението 2667
сблъ@@ 2667
зацията 2666
случая 2666
условията 2666
наречени 2665
паз@@ 2665
Мишев 2664
Уо@@ 2664
протича 2664
третият 2664
Пари@@ 2663
координа@@ 2663
мет 2663
новете 2663
оглавява 2662
успешен 2662
J@@ 2661
италианския 2661
ращ 2661
ползват 2660
сица 2660
хла@@ 2660
Али 2659
бек 2659
зан@@ 2659
ктор 2659
съхра@@ 2659
Коле@@ 2658
1889 2656
издадени 2656
пълна 2655
сните 2655
укреп@@ 2655
Книгата 2654
пълно 2653
Рейн@@ 2652
отделните 2652
лското 2650
днев@@ 2649
in@@ 2648
Мет@@ 2648
галерия 2648
оркестър 2647
Хаб@@ 2645
Чети@@ 2645
растение 2645
Коло@@ 2644
гнез@@ 2644
Изда@@ 2643
мюсюлмани 2643
1892 2642
гов@@ 2642
секретаря 2642
XVII 2641
Бран@@ 2641
Еквадор 2641
лиан@@ 2641
пал@@ 2641
съвсем 2640
риба 2639
Петко 2638
периоди@@ 2638
съвременните 2638
1886 2637
връщане 2637
зина 2637
подчер@@ 2637
поту@@ 2637
Воен@@ 2635
ес 2634
зни 2634
морските 2634
торите 2634
югозападно 2634
бел 2633
опитват 2633
гор 2632
дам 2632
палу@@ 2632
появата 2632
ляво 2631
последва@@ 2631
допълнителни 2630
студенти 2630
цве@@ 2630
революционен 2627
сро@@ 2627
C. 2625
живопис 2625
пов 2624
фер 2624
басейни 2623
нич@@ 2623
вато@@ 2622
задачи 2622
издигнат 2622
крити@@ 2622
лам@@ 2621
лета 2621
текста 2621
уско@@ 2621
концерти 2620
пове 2619
етата 2618
фал@@ 2618
51 2617
Богородично 2617
масо@@ 2617
обхва@@ 2617
силна 2616
канад@@ 2615
предаването 2615
заме@@ 2613
трен@@ 2613
72 2612
рю@@ 2612
малкия 2611
щението 2611
Пат@@ 2609
пряко 2609
етно@@ 2608
шил 2608
списъка 2607
Австри@@ 2606
Вале@@ 2606
Пфалц 2605
дии 2605
жде@@ 2605
ринг 2605
стоки 2604
тието 2604
автомобили 2603
литератур@@ 2603
оне@@ 2603
евро 2602
риите 2602
снаб@@ 2602
ток 2602
гроби@@ 2601
южно@@ 2601
Български 2600
Внук 2600
патриарх 2600
фанта@@ 2599
ядре@@ 2599
живо 2598
поре@@ 2598
провинцията 2598
вов 2596
кап@@ 2596
сели@@ 2596
Никола@@ 2595
изследва 2595
пояс 2595
Последният 2594
консул@@ 2594
кръсто@@ 2594
сектор 2594
служители 2594
храни 2594
общи 2593
Демократична 2592
Между@@ 2592
Сицилия 2592
дясно 2592
отне@@ 2592
позво@@ 2592
худож@@ 2592
Може 2591
завърш@@ 2591
обръ@@ 2591
яйки 2591
комунистиче@@ 2590
купу@@ 2590
напред 2590
лес@@ 2589
меда@@ 2589
подкрепата 2589
политическата 2589
Софи@@ 2587
зад@@ 2587
Чили 2586
заслу@@ 2586
капацитет 2586
моти@@ 2586
предви@@ 2586
1881 2585
наричани 2585
официален 2585
шаване 2585
вертика@@ 2583
новена 2583
подви@@ 2583
ina 2582
културни 2582
циви@@ 2582
изли@@ 2581
катедралата 2581
нация 2581
случва 2581
това@@ 2581
значи@@ 2579
чеш@@ 2579
балкан@@ 2578
изпълнението 2578
седми@@ 2578
обек@@ 2577
плавате@@ 2577
Семейство 2576
британската 2576
тният 2576
хове 2575
Кала@@ 2574
изгар@@ 2574
комедия 2574
невро@@ 2574
проучвания 2574
сис 2574
опи@@ 2573
Полу@@ 2572
изпълня@@ 2571
мпи@@ 2571
нини 2571
малната 2570
рел 2570
екипа 2569
Благо@@ 2568
Косово 2568
мате@@ 2568
бяга 2567
реак@@ 2567
слой 2567
ужа@@ 2567
Кения 2566
пъте@@ 2566
стъпва 2566
шево 2566
Мир@@ 2565
Род@@ 2565
зато@@ 2565
D 2564
Академията 2564
администрация 2564
криста@@ 2564
нър 2564
ценни 2564
Пон@@ 2563
54 2562
простира 2562
дра 2561
йе@@ 2561
комунистическа 2561
вки 2560
вну@@ 2560
нк@@ 2559
сигур@@ 2559
екземпля@@ 2558
лична 2558
отбра@@ 2558
развиват 2558
сов@@ 2558
психологи@@ 2557
учред@@ 2556
УЕФА 2555
зависи 2555
инвести@@ 2555
ту 2555
Бого@@ 2553
приеме 2553
делят 2552
концерт 2552
отрицате@@ 2552
сцени 2552
Сей@@ 2551
кримина@@ 2551
стату@@ 2551
сръб@@ 2550
Видин 2549
Холандия 2549
непре@@ 2549
рабо@@ 2549
ограни@@ 2548
видни 2546
съпер@@ 2546
БАН 2545
последовате@@ 2545
сума 2545
малкият 2544
приклю@@ 2544
вети 2543
дебе@@ 2543
мация 2543
функциона@@ 2543
вет 2541
интензи@@ 2540
настан@@ 2540
състезава 2540
тели 2540
Пав@@ 2539
Улрих 2539
котловина 2539
1,5 2538
ним 2538
шаването 2538
Пиер 2536
среща@@ 2536
циона@@ 2536
мето@@ 2535
помежду 2535
проявява 2535
er@@ 2534
германската 2534
мъжка 2534
напусне 2534
стотата 2534
диалек@@ 2533
дната 2533
съда 2533
идват 2532
осве@@ 2532
финанси@@ 2532
1884 2531
Солу@@ 2531
Тексас 2531
мърт@@ 2531
парка 2531
сбор@@ 2531
тю@@ 2531
шан@@ 2531
грижи 2530
дебелина 2530
паметници 2530
Изгра@@ 2529
рисува 2527
Наполеон 2526
печелят 2526
прочу@@ 2526
уро@@ 2526
фрайхер 2526
значителна 2525
обществени 2525
Вис@@ 2524
поставена 2524
ученик 2524
засел@@ 2523
поз@@ 2523
произведение 2523
1883 2522
Науч@@ 2522
обучението 2522
разкрива 2522
термин 2522
Две 2521
ели 2521
популярни 2521
Окръ@@ 2519
бронзо@@ 2519
насър@@ 2519
сета 2519
Съвремен@@ 2518
лива@@ 2518
Ори@@ 2517
боли@@ 2517
Пале@@ 2516
зале@@ 2516
наши 2516
относително 2516
подло@@ 2516
югоизточно 2516
юн@@ 2516
Средната 2514
дадено 2514
обслуж@@ 2514
промиш@@ 2514
шампионат 2514
Жу@@ 2513
вълна 2513
ия 2513
виде@@ 2511
лун@@ 2511
риту@@ 2509
желание 2508
преговори 2508
специален 2508
Гло@@ 2507
Фла@@ 2507
крило 2507
Запад@@ 2506
супер@@ 2506
жния 2505
начина 2505
вяване 2504
ниско 2504
62 2503
висше 2503
стичен 2503
състезанието 2503
чете 2502
бав@@ 2501
лва 2501
пена 2501
плочи 2501
3000 2500
ch@@ 2500
дска 2500
сухо@@ 2500
шна 2500
бит@@ 2499
вел 2499
неутра@@ 2499
астроно@@ 2498
машина 2498
поли 2497
представяне 2497
армии 2495
зася@@ 2495
мю@@ 2495
продължител@@ 2495
58 2494
изтег@@ 2494
казват 2494
юри@@ 2494
написана 2493
притежа@@ 2493
49 2492
изклю@@ 2492
обем 2492
отря@@ 2492
преми@@ 2492
древно@@ 2491
листи 2490
офор@@ 2489
План@@ 2488
ленд 2488
званието 2487
сва 2487
Гал@@ 2486
ителния 2486
мото@@ 2486
нато@@ 2486
подобен 2486
религия 2485
родното 2485
североизточно 2485
Четвър@@ 2484
Бори@@ 2483
народа 2483
съвременни 2483
градския 2482
засне@@ 2482
музея 2481
писана 2481
протестан@@ 2481
цветове 2481
общата 2480
строй@@ 2480
тава 2480
шоу 2480
Джовани 2479
гон@@ 2479
зин 2479
родни 2479
шън 2479
ot@@ 2478
възможности 2477
конструкция 2477
южния 2477
Диа@@ 2476
вие 2476
глу@@ 2476
долната 2476
закони 2476
османски 2476
придвиж@@ 2476
Дне@@ 2475
Казахстан 2475
жната 2475
просвет@@ 2475
рене 2475
Финландия 2474
квалифика@@ 2474
95 2473
космиче@@ 2473
що@@ 2473
Ари@@ 2472
влива 2472
ничеството 2472
асистент 2471
половината 2471
Егейска 2470
борд 2470
присъства 2470
предоставя 2469
Сел@@ 2468
бит 2468
дълбоко 2468
ерата 2468
документ 2467
енберг 2466
нелега@@ 2466
лизация 2465
необходимо 2465
Военно@@ 2464
епизода 2463
импера@@ 2463
националната 2463
Българ@@ 2461
рито@@ 2461
Фал@@ 2460
седем@@ 2460
Windows 2459
Дани@@ 2458
ковите 2458
съгласно 2458
1860 2456
НАСА 2456
меч@@ 2456
Сим@@ 2455
Френска 2455
бел@@ 2455
чисто 2455
53 2454
Миха@@ 2454
нивото 2454
съвременната 2454
базиран 2453
Административно 2452
детай@@ 2452
народно 2452
синте@@ 2452
човешки 2452
групи@@ 2451
творчеството 2451
характерни 2451
абат@@ 2450
емо@@ 2449
злато 2449
Атлан@@ 2448
египет@@ 2448
деле@@ 2447
доба@@ 2447
интереси 2446
Еле@@ 2445
Републикански 2445
мос 2445
свети@@ 2445
източно@@ 2444
кват 2444
нало 2444
сение 2444
писите 2443
преобразу@@ 2443
емата 2442
лята 2442
кандидат@@ 2441
Река 2440
обозна@@ 2440
допълнение 2439
млад 2439
Истори@@ 2438
горното 2438
еписко@@ 2438
многократно 2438
двой@@ 2437
обса@@ 2437
римската 2437
Грузия 2435
лян@@ 2435
противника 2435
оз@@ 2434
бат 2433
експер@@ 2433
намаляване 2432
съсе@@ 2432
щането 2432
линген 2431
пристигат 2431
удостоен 2431
Пей@@ 2430
Шотландия 2430
електрически 2429
запис@@ 2428
олог 2428
чаването 2428
верига 2425
континента@@ 2425
свободен 2425
фигура 2425
Божи@@ 2423
Фар@@ 2422
ез@@ 2422
фирма 2422
57 2421
XV 2421
геро@@ 2421
играчи 2421
създадено 2421
гръцките 2420
мерите 2420
кет 2418
обсъ@@ 2418
тра 2418
Юго@@ 2417
Византия 2416
площад 2416
упраж@@ 2416
хран@@ 2416
активи@@ 2415
десан@@ 2415
направен 2415
рим@@ 2415
северния 2415
Ир@@ 2413
Кей@@ 2413
бог 2413
женски 2413
кола 2413
обре@@ 2413
представен 2413
тици 2413
реакция 2412
липса 2411
наем 2411
ряване 2411
електрон@@ 2410
оча@@ 2409
градска 2408
рка 2408
уе@@ 2408
дизайн 2406
педагоги@@ 2406
руп@@ 2406
Молдова 2405
Фил@@ 2405
местност 2405
сътруд@@ 2405
акт 2404
сътрудник 2404
комен@@ 2402
68 2401
Уелс 2401
вари@@ 2401
околната 2401
собствени 2401
лекар@@ 2400
XII 2399
Рели@@ 2399
лер@@ 2399
продукция 2399
валу@@ 2398
затвор@@ 2398
кис 2398
оръдие 2398
привлича 2398
централна 2398
Population 2397
Юли@@ 2397
влияте@@ 2397
тана 2397
Добруджа 2396
оборудване 2396
македонска 2395
общински 2395
световни 2394
ов 2393
стична 2393
O 2392
десетки 2392
назначава 2392
Без@@ 2391
Тодоров 2391
медицински 2391
предлагат 2391
топо@@ 2391
чество 2391
вътрешността 2390
книжо@@ 2390
марка 2390
политическите 2390
сите@@ 2390
хар 2390
камен@@ 2389
активна 2388
Лига 2387
изразява 2387
ol@@ 2386
Мето@@ 2386
черен 2386
Macédoine 2384
дей 2384
плато 2383
реч@@ 2383
съвмест@@ 2383
училищ@@ 2383
лищ@@ 2382
агенция 2381
пълен 2381
събитията 2381
Джор@@ 2380
алпи@@ 2380
двигатели 2380
кел 2379
Chrétienne 2377
дък 2377
почетен 2377
Благоевград 2376
Носител 2376
змът 2376
площта 2376
изследовате@@ 2375
тал 2375
1888 2374
Вторият 2374
Епи@@ 2374
корпуса 2374
мската 2374
мъжете 2374
рението 2374
глав@@ 2373
французите 2373
лип@@ 2372
гледна 2371
хор 2371
вието 2370
полага 2370
служ@@ 2370
възлиза 2369
доли@@ 2369
усп@@ 2369
епохата 2368
разкло@@ 2368
om@@ 2367
Фер@@ 2367
Дел@@ 2364
дейци 2364
съоръжения 2364
Европейската 2363
минават 2362
предложение 2362
селскостопан@@ 2362
зало@@ 2360
Смит 2359
ралното 2359
сей 2359
фестивала 2359
лови@@ 2358
мис@@ 2358
Нар@@ 2357
гориво 2357
Зиг@@ 2355
Слънцето 2355
собствен 2355
нами@@ 2354
тската 2354
издаването 2353
Мей@@ 2352
Хари 2352
пиано 2352
сура 2352
Над 2351
публикувана 2351
армей@@ 2350
ней 2350
подар@@ 2350
читалище 2350
стри 2349
Ада@@ 2348
Нови 2348
занима@@ 2348
фрон@@ 2348
63 2347
ac@@ 2347
спан@@ 2347
сино@@ 2346
близък 2345
капита@@ 2345
услу@@ 2345
четвърти 2345
Ана 2344
избирате@@ 2344
известната 2344
полицията 2344
фабрика 2344
вай@@ 2343
мална 2343
Дом 2342
Кня@@ 2342
ключо@@ 2342
екип 2341
изпълнители 2341
класацията 2341
стила 2340
Златен 2339
въздух 2339
плодове 2339
учители 2339
Климатът 2338
Мил@@ 2338
доказателства 2338
Предполага 2337
леко 2337
макси@@ 2337
посланик 2337
рица 2337
Балканите 2336
бита 2336
лец 2336
неин 2336
пля@@ 2336
успешни 2336
Джей@@ 2335
Сай@@ 2335
Григорий 2334
лства 2334
слънче@@ 2334
Ас@@ 2333
Голям 2333
новият 2333
An@@ 2331
каменни 2331
собственик 2331
форма@@ 2331
Ъ@@ 2330
идентифици@@ 2330
мозъ@@ 2330
Апосто@@ 2329
вътреш@@ 2329
морския 2329
обиколка 2329
реле@@ 2329
бие 2328
вече@@ 2328
писа@@ 2328
представена 2328
рота 2328
Сергей 2327
ам 2327
руска 2327
ентите 2326
изне@@ 2326
тила 2326
апарат 2325
биха 2325
коли@@ 2325
номина@@ 2325
усилия 2325
Северо@@ 2324
дина 2324
кува 2324
свободно 2324
нападение 2323
уве@@ 2323
червен 2323
Золмс 2322
ънс 2322
Гъ@@ 2321
Дитрих 2321
германския 2321
произвеждат 2321
Беларус 2320
Зал@@ 2320
Рейн 2320
дене 2320
защитник 2320
непосредствено 2320
нско 2320
стратеги@@ 2320
явление 2320
изграждане 2319
Чар@@ 2318
съеди@@ 2318
цу 2318
ьорите 2318
Над@@ 2317
ети 2317
фек@@ 2317
хен 2317
понеже 2316
частици 2316
Бла@@ 2315
Благодарение 2315
жните 2315
леви 2315
достигне 2314
мъжки 2314
подпома@@ 2314
позволяват 2314
ари@@ 2313
инду@@ 2313
часов@@ 2313
Ата@@ 2312
Квинт 2312
ани@@ 2312
вий 2312
гост 2312
Касте@@ 2311
дани 2311
личности 2311
предпочита@@ 2311
Мър@@ 2310
бас 2310
инициатива 2310
чужди 2310
al@@ 2309
детска 2309
дина@@ 2309
лищата 2309
специална 2309
Макси@@ 2308
местната 2308
бена 2307
мел@@ 2307
мостта 2307
надесе@@ 2307
отлич@@ 2307
Сградата 2306
басейна 2306
войската 2306
личните 2306
низъм 2306
претърпява 2306
1848 2305
поддръ@@ 2305
популярен 2305
хвърля 2305
сценарист 2304
филмът 2304
югослав@@ 2304
Каме@@ 2303
действията 2303
зията 2303
черве@@ 2303
Представ@@ 2302
Червената 2301
едноименната 2301
R 2300
блок 2300
Обединеното 2299
гражданска 2299
предприятия 2299
сек@@ 2299
тера@@ 2299
дател 2298
прогре@@ 2298
строителство 2298
южна 2298
Хил@@ 2297
входа 2296
напускат 2296
телевизионни 2296
Констан@@ 2295
Смята 2295
автономен 2295
одоб@@ 2295
XI 2294
Пиемонт 2293
Юлий 2293
Него@@ 2292
наи@@ 2292
представени 2292
гнали 2291
1882 2290
h 2290
детски 2290
id@@ 2289
нации 2288
Питър 2287
маг@@ 2287
превъз@@ 2287
тността 2287
бяха 2285
гради@@ 2285
контро@@ 2285
напад@@ 2285
Мери 2284
изображения 2284
литературата 2284
настъпва 2284
считат 2284
Върховния 2283
Целта 2283
Враца 2282
отваря 2282
кост 2281
сключва 2281
зел 2280
наред 2280
Спор@@ 2279
кора 2279
орбита 2279
прости@@ 2279
фика@@ 2279
характеризира 2277
вска 2276
структури 2276
китара 2275
зада@@ 2274
служе@@ 2274
сни@@ 2273
Горно 2272
вниманието 2272
златни 2272
1871 2271
водно 2271
роб@@ 2271
шан 2271
американ@@ 2270
жаването 2270
бове 2269
джан@@ 2269
финансови 2269
брака 2268
говорят 2268
гръцкия 2268
лизъм 2268
ряват 2268
XIII 2267
гър 2267
древните 2267
начал@@ 2267
Вероятно 2266
календар 2266
ta 2265
АД 2265
Гвиана 2265
Коли@@ 2265
Ско@@ 2265
вения 2265
еца 2265
упо@@ 2265
Зеландия 2264
Флорида 2264
сериозни 2264
съкра@@ 2264
артилерия 2263
знание 2263
гиган@@ 2262
нителен 2262
Аделхайд 2261
1887 2260
отговор@@ 2260
Източен 2259
равно@@ 2259
ракети 2259
структурата 2258
географски 2257
издават 2257
сват 2257
Адам 2256
дово 2256
полице@@ 2256
построява 2256
ar@@ 2255
Киев 2255
Личен 2255
фър 2255
бело@@ 2253
дението 2253
кмет@@ 2253
филология 2253
наблюда@@ 2251
театъра 2251
икономи@@ 2250
мън 2250
тене 2250
хово 2250
шия 2250
ьори 2250
Ирак 2249
зирани 2249
оставка 2249
поко@@ 2249
сформи@@ 2249
тския 2249
екипажа 2248
имперски 2248
Неговата 2247
математика 2247
нагоре 2247
нист 2247
основите 2247
th@@ 2246
Пакистан 2245
бна 2245
бук@@ 2245
опе@@ 2245
Демокра@@ 2244
благотворите@@ 2244
загива 2244
историческа 2244
меня@@ 2244
растителност 2244
стина 2244
въз 2243
рова@@ 2243
червено 2243
Остро@@ 2242
доброволци 2242
парламентар@@ 2242
ракет@@ 2242
тета 2242
69 2241
Охрид 2241
год@@ 2241
прибли@@ 2241
цена 2241
аз 2240
интелекту@@ 2240
ничество 2239
Преди@@ 2238
активни 2238
получа@@ 2238
Вит@@ 2237
Публи@@ 2237
Понякога 2236
секунди 2236
Букурещ 2235
работен 2235
тино 2235
хер@@ 2235
мисии 2234
работници 2234
бащата 2233
въпроса 2233
Сле@@ 2232
активност 2232
тие 2232
джамия 2231
маши@@ 2231
очер@@ 2231
такова 2231
низина 2229
популярна 2229
мотиви 2228
нува 2228
традиции 2228
Три 2227
бат@@ 2227
бърг 2227
изти@@ 2227
провъзгла@@ 2227
римляните 2227
проуч@@ 2226
Ан 2225
дели@@ 2225
изво@@ 2225
стор 2225
територи@@ 2225
сър 2224
властите 2223
издателство 2223
Вален@@ 2222
Да 2222
Пазарджик 2222
ническия 2222
северна 2222
дължината 2221
Дон 2220
Управ@@ 2220
бул 2220
иконоста@@ 2220
минута 2220
духовник 2219
разширява 2219
киното 2218
пси@@ 2218
oc@@ 2217
Гър@@ 2217
вам 2217
стабилна 2217
уси@@ 2217
футболна 2217
Антонио 2216
въздушни 2216
икономическа 2216
проя@@ 2216
мексикан@@ 2215
пределите 2215
Си 2214
гват 2214
творче@@ 2214
180 2213
Вито@@ 2213
говора 2213
изоли@@ 2213
природа 2213
цикъл 2213
числа 2213
es 2212
Съюз@@ 2212
наименование 2212
трени@@ 2212
20@@ 2211
мп@@ 2211
опазване 2211
практически 2211
профи@@ 2211
Цър@@ 2210
върхо@@ 2210
местно 2210
съхранява 2210
1875 2209
Дисни 2209
повърх@@ 2209
психоанали@@ 2209
газо@@ 2208
ждата 2208
пътуване 2208
мал 2207
основателите 2207
разполо@@ 2207
снимки 2207
тинг 2207
t@@ 2206
Кьолн 2206
доброто 2206
рови 2206
представля@@ 2205
рид 2205
Емил 2204
годишния 2204
действ@@ 2204
88 2203
b 2203
Дер@@ 2203
Пловдив@@ 2203
Франк 2203
успеха 2203
намери 2202
пур@@ 2202
смен@@ 2202
спът@@ 2202
трето 2202
тури 2202
Основни 2201
Холщайн 2201
вне@@ 2201
последен 2201
празник 2201
съседните 2201
час 2201
вар 2200
дската 2200
ляни 2200
възстановяване 2199
температурата 2199
чките 2199
Икономика 2198
жилищ@@ 2198
знач@@ 2198
изследовател 2198
сим@@ 2198
сход@@ 2198
шен@@ 2198
Бир@@ 2197
Петков 2197
британските 2197
говор 2197
лските 2197
обеща@@ 2197
разнообразие 2197
• 2197
Вирджиния 2196
братовчед 2196
докла@@ 2196
младите 2196
формират 2196
хоризонта@@ 2196
чан 2196
архитектур@@ 2195
Асе@@ 2194
Друг 2194
Мест@@ 2194
вло@@ 2194
гласа 2194
Международния 2193
гне 2193
сява 2193
жесто@@ 2192
усе@@ 2192
Главен 2191
Дор@@ 2191
Историята 2191
Специ@@ 2191
турска 2191
вал@@ 2190
изложби 2190
шени 2190
1872 2189
гент@@ 2189
инструмент 2189
строежа 2189
Невро@@ 2188
гръцка 2188
рият 2188
спира@@ 2188
Охри@@ 2187
музикант 2187
обяснява 2187
православ@@ 2187
Цвет@@ 2186
века 2186
крайбре@@ 2186
оцеле@@ 2186
планинска 2186
самостоятелна 2186
софтуер 2186
Куба 2184
влю@@ 2184
норма@@ 2184
ЕЦ 2183
вул@@ 2183
избор 2183
леку@@ 2183
Родо@@ 2182
ляна 2182
мати 2182
полската 2182
Ах@@ 2181
Хоенлое 2181
музиканти 2181
приложения 2181
студио 2181
агент 2180
заболявания 2180
слага 2180
температури 2180
забеля@@ 2179
сев 2179
НАТО 2178
връщат 2178
действат 2178
фра@@ 2178
U@@ 2177
вената 2177
качества 2177
отго@@ 2177
поддръжка 2177
озна@@ 2176
съответствие 2176
експло@@ 2175
зрите@@ 2175
римския 2175
сада 2175
сним@@ 2175
търговец 2175
82 2174
c 2174
Максимилиан 2174
Теодо@@ 2174
ливо 2174
независимостта 2174
снабдя@@ 2174
нататък 2173
изнася 2172
ителство 2172
летите 2172
слуш@@ 2172
59 2171
Манасти@@ 2171
личен 2171
название 2171
ремонт 2171
съставена 2171
тропи@@ 2171
циони@@ 2171
Кот@@ 2170
дисертация 2170
нет 2170
чувства 2170
Музика@@ 2169
насам 2169
аген@@ 2168
корабо@@ 2168
побед@@ 2168
бет 2167
мемо@@ 2167
посочва 2167
построяването 2167
хребет 2167
Зна@@ 2166
66 2165
Боливия 2165
ментът 2165
Вир@@ 2164
видна 2164
помогне 2164
френските 2163
може@@ 2162
експлоатация 2161
покрива 2161
Ar@@ 2160
k@@ 2160
лах 2160
Супер@@ 2159
Ця@@ 2159
инста@@ 2159
люб@@ 2159
ляване 2159
Лен@@ 2158
Леополд 2158
белите 2158
пече@@ 2158
адвокат 2157
вле@@ 2157
мара 2157
низация 2157
покрити 2157
предварително 2157
западно@@ 2156
пто@@ 2156
шампионата 2156
орът 2155
Инди@@ 2154
Рио 2154
местности 2154
том@@ 2154
долното 2153
псевдонима 2153
стично 2153
мато@@ 2152
участници 2152
функциони@@ 2152
популяри@@ 2151
чане 2151
Няма 2150
мито@@ 2150
ждан 2149
коман@@ 2149
основаването 2149
тации 2149
Свобо@@ 2148
линко@@ 2148
лит 2148
свободна 2148
шоуто 2148
Серия 2147
стин 2147
фирмата 2147
административно 2146
ваме 2146
обработка 2146
поражение 2146
Истанбул 2145
Организацията 2145
изгот@@ 2145
окол@@ 2145
тък 2145
дребни 2144
нати@@ 2144
нята 2144
психи@@ 2144
разпространени 2144
юноше@@ 2144
World 2143
губят 2143
звук 2142
славянски 2142
съединения 2142
мед 2141
M 2139
Награди 2139
Папуа 2139
автобу@@ 2139
аро@@ 2139
Мианмар 2138
белги@@ 2138
организират 2138
основават 2138
почви 2138
Анри 2137
остатъ@@ 2137
Самият 2136
Сен@@ 2136
бълга@@ 2136
догово@@ 2136
летни 2136
телевизията 2136
дио 2135
дока@@ 2135
китайски 2135
личност 2135
етнически 2134
ръце 2134
Орга@@ 2133
общественик 2133
чие 2133
долу 2132
Анаста@@ 2131
доброволец 2131
международно 2131
никата 2131
полис 2131
каква 2130
класифици@@ 2130
религиоз@@ 2130
Кари@@ 2129
Обеди@@ 2129
искат 2129
къде 2129
мах@@ 2129
немския 2129
познати 2129
тяване 2129
Хуан 2128
жани 2128
земетре@@ 2128
подножието 2128
подобна 2128
стотици 2128
тексто@@ 2128
вици 2127
държав@@ 2127
функционира 2127
цъф@@ 2127
Неговите 2126
визи@@ 2126
една@@ 2126
засил@@ 2126
мий 2126
поддържат 2126
представят 2126
расте@@ 2126
петро@@ 2125
дент@@ 2124
цин@@ 2124
загубата 2123
оператив@@ 2123
Варшава 2122
миси@@ 2122
ровете 2122
an@@ 2121
включена 2121
онлайн 2121
You 2120
загиват 2120
критика 2120
иконо@@ 2119
повторно 2119
приз@@ 2119
специализи@@ 2119
Аре@@ 2118
вод 2118
хин@@ 2118
Марица 2117
Чарлз 2117
ковен 2117
певицата 2117
сят 2117
брига@@ 2116
предприе@@ 2116
рън 2116
Юнайтед 2115
вечер 2115
животните 2115
квар@@ 2115
лага@@ 2115
разделена 2115
шките 2115
Прин@@ 2114
потъ@@ 2114
Би 2113
жертви 2113
проби@@ 2113
Барселона 2112
Известен 2112
130 2111
Карлос 2111
Североизточна 2111
гледа 2111
социална 2111
съпрово@@ 2111
бом@@ 2110
леки 2110
Михайлов 2109
ващото 2109
направление 2109
срещата 2108
британския 2106
официални 2106
пехот@@ 2106
проучване 2106
вит@@ 2105
ph@@ 2104
Хей@@ 2103
културен 2102
намерени 2102
черни 2102
шение 2102
нки 2101
2,5 2100
преде@@ 2100
регули@@ 2100
сестри 2100
Заема 2099
активен 2099
достига@@ 2099
пони@@ 2099
преди@@ 2099
списания 2099
it@@ 2098
x@@ 2098
дец 2098
доро@@ 2098
знаци 2098
селе@@ 2098
албуми 2097
Франческо 2096
заглавие 2096
населе@@ 2096
носи@@ 2096
пресича 2096
Бракът 2095
Мило@@ 2095
кръст@@ 2095
спортни 2095
Уот@@ 2094
особености 2094
Нов 2093
вулка@@ 2093
ителността 2093
цбург 2093
вач 2092
лността 2092
службата 2092
имали 2091
мит 2091
общото 2091
отблъ@@ 2091
пускането 2091
цеп@@ 2091
Кало@@ 2090
максимална 2090
h@@ 2089
навод@@ 2089
ниите 2089
ничните 2089
67 2088
Войната 2088
установяват 2088
ждания 2087
стъплението 2087
фю@@ 2087
кавале@@ 2086
марк@@ 2086
ном 2086
останалата 2086
разпространява 2086
Уай@@ 2085
атаки 2085
деви@@ 2085
z@@ 2084
майката 2084
султан 2084
изследователи 2083
5000 2081
мната 2081
предход@@ 2081
реч 2081
свободата 2081
Ломбардия 2080
Стивън 2080
данните 2080
лита 2080
полити@@ 2080
раждане 2080
Народ@@ 2079
клубове 2079
пата 2079
посветен 2079
постъп@@ 2079
редно 2079
светов@@ 2079
ica 2078
Публий 2078
написва 2078
номиниран 2078
Либе@@ 2076
главна 2076
зова@@ 2076
книгите 2076
лации 2076
Пис@@ 2075
говоре@@ 2075
заселват 2075
коли 2075
момиче 2075
талан@@ 2075
тичните 2075
удоб@@ 2075
провод@@ 2074
племе 2073
теленове@@ 2073
върховенството 2072
излъчен 2072
масово 2072
ау@@ 2071
r@@ 2070
Хр. 2070
планове 2070
присти@@ 2070
студент@@ 2070
Даниел 2069
зор 2069
интегра@@ 2069
палуба 2069
съобще@@ 2069
m@@ 2068
лока@@ 2068
реда 2068
вдо@@ 2067
гни@@ 2067
австрали@@ 2066
обх@@ 2066
избрана 2065
търже@@ 2065
тях@@ 2064
централен 2064
Монтана 2063
вила 2063
връщането 2063
външната 2063
забеле@@ 2063
медицин@@ 2063
обекта 2063
E 2062
Кита@@ 2062
Тю@@ 2062
гнал 2062
европейската 2062
лежи 2062
несени 2062
поред@@ 2062
строй 2062
тант 2062
Лазар 2061
Цан@@ 2061
литературен 2061
поди@@ 2061
резиденция 2061
сърде@@ 2061
шпи@@ 2061
Рим@@ 2060
кня@@ 2060
Уилямс 2059
дит 2059
мове 2059
сей@@ 2059
социалистиче@@ 2059
съветските 2059
формация 2059
шават 2059
Обла@@ 2058
контакт 2058
къси 2058
преодо@@ 2058
надолу 2057
прили@@ 2057
експери@@ 2056
Кова@@ 2055
християнството 2055
читате@@ 2055
брюкен 2054
вежда 2054
пристани@@ 2054
Вод@@ 2053
женитба 2053
каф@@ 2053
околните 2053
секре@@ 2053
Използва 2052
Македонската 2052
виден 2052
престола 2052
скоро@@ 2052
di 2051
Нан@@ 2051
Представлява 2051
ленбург 2051
мяна 2051
независи@@ 2051
низма 2051
посет@@ 2051
преброяванията 2051
сара@@ 2051
светлината 2051
старото 2051
1869 2050
WWE 2050
Средновековието 2050
войните 2050
жил 2050
нарича@@ 2050
Народното 2049
ликата 2049
марки@@ 2049
съпротив@@ 2049
Союз 2048
гово 2048
доведе 2048
турен 2048
Лий 2047
богат 2047
ждение 2047
игрален 2047
разделен 2047
‰ 2047
1867 2046
Александ@@ 2046
научава 2046
чувств@@ 2046
швейцар@@ 2046
1864 2045
alis 2045
p 2045
защитата 2045
изобре@@ 2045
способността 2045
сул@@ 2045
центри@@ 2045
декла@@ 2044
пев@@ 2044
поток 2044
Основан 2043
Роб@@ 2043
административ@@ 2043
способност 2043
писа 2041
физически 2041
Йерусалим 2040
звайки 2040
мирен 2040
сон@@ 2040
Тихия 2039
Фера@@ 2039
кв. 2039
61 2038
влечу@@ 2038
обединение 2038
проник@@ 2038
Дой@@ 2037
Нем@@ 2037
зим@@ 2037
моду@@ 2037
ровки 2037
Джак 2036
зени@@ 2036
дирек@@ 2035
карти@@ 2035
вдовица 2034
региони 2034
чене 2034
Атанасов 2033
записи 2033
младия 2033
73 2032
лината 2032
тъл@@ 2032
финалите 2032
T 2031
Водо@@ 2031
Произлиза 2031
бал 2031
отразява 2031
сово 2031
осигури 2030
осъще@@ 2030
P 2029
Том 2029
външен 2029
количества 2029
нарко@@ 2029
споделя 2029
Каро@@ 2028
пел 2028
превръщат 2028
Австро 2027
вино 2027
дете@@ 2027
крайцерите 2027
приемането 2027
чената 2027
Анд@@ 2026
клетъ@@ 2026
писта 2026
увеличаване 2026
Панама 2025
Съгласно 2025
съдбата 2025
съди@@ 2025
Изенбург 2024
Любо@@ 2024
глежда 2024
зер 2024
изстрел@@ 2024
рели@@ 2024
съдия 2024
ъгъл@@ 2024
110 2023
900 2023
дий 2023
дини 2023
дома@@ 2023
малцин@@ 2023
среднове@@ 2023
учител@@ 2023
вяра 2022
ждава 2022
лик 2022
съставлява 2022
неза@@ 2021
потенци@@ 2021
пул@@ 2021
МС 2020
Реги@@ 2020
Уин@@ 2020
трибу@@ 2020
италианската 2019
мил@@ 2019
писи 2018
Кер@@ 2017
модела 2017
стено@@ 2017
колони 2016
фийлд 2016
френска 2016
98 2015
зима 2015
ид 2015
порно@@ 2015
G 2014
Добрич 2014
категори@@ 2014
мрежи 2014
Деца 2013
Друга 2012
Скот 2012
Успе@@ 2012
зиран 2012
копи@@ 2012
международна 2012
псевдоним 2011
Пише 2010
описание 2010
Ману@@ 2009
благоприя@@ 2009
докторска 2009
рек 2009
къв 2008
мандат 2008
мащаб 2008
морета 2008
фактори 2008
фар@@ 2008
язовир 2008
иза 2007
карва 2007
присъединяват 2007
сяват 2007
Италиан@@ 2006
мова 2006
стихове 2006
бити@@ 2005
Бавар@@ 2004
Мюн@@ 2004
Слън@@ 2004
препоръ@@ 2004
скала 2004
хълми@@ 2004
Афганистан 2003
Кристоф 2003
Льо@@ 2003
ползва@@ 2003
представителите 2003
Йотинген 2002
независима 2002
реб@@ 2002
самолетоноса@@ 2002
ада 2001
бърн 2001
племето 2001
живява 2000
удъл@@ 2000
Терминът 1999
бавно 1999
неща 1999
претър@@ 1999
редки 1999
Алън 1998
изпълнител 1998
моне@@ 1998
Мака@@ 1997
писателя 1997
попадат 1997
фелс 1997
награ@@ 1996
Пирин 1995
класиране 1995
морско 1995
Хасково 1993
кса 1993
отношението 1993
сков 1993
Ени@@ 1992
Закона 1992
Йоа@@ 1992
Послед@@ 1992
Словакия 1992
дух 1992
освет@@ 1992
уа 1992
драмати@@ 1991
либера@@ 1991
сиг@@ 1991
характеристика 1991
l@@ 1990
Лихтен@@ 1990
Мадагаскар 1990
апосто@@ 1990
конституция 1990
щаст@@ 1990
Успение 1989
Флоренция 1989
закон@@ 1989
концентри@@ 1989
наречено 1989
нец 1989
съставен 1989
шо 1988
очите 1987
Мора@@ 1986
Хау@@ 1986
настъпление 1986
съпру@@ 1986
Васи@@ 1985
Долно 1985
Конгре@@ 1985
Кърджали 1985
Тайван 1985
компи@@ 1985
сау 1985
сърби 1985
Еберхард 1984
Луната 1984
зал@@ 1984
краи@@ 1984
месеци 1984
батальон 1983
Ст@@ 1982
скан@@ 1982
Тон@@ 1981
качество 1981
отмъ@@ 1981
укре@@ 1981
Погребан 1980
азиат@@ 1980
дова 1980
осем@@ 1980
циф@@ 1980
Резултат@@ 1979
музе@@ 1979
профе@@ 1979
хло@@ 1979
бяло 1978
месо 1978
богата 1977
бърт 1977
енбург 1977
84 1976
дърве@@ 1976
картина 1976
ковци 1976
критие 1976
запи@@ 1975
Физи@@ 1974
ат 1974
сма@@ 1974
сърцето 1974
тютю@@ 1974
написан 1973
стически 1973
тос 1973
Азербайджан 1972
Мозамбик 1972
Сталин 1972
говор@@ 1972
защо 1972
наде@@ 1972
ников 1972
печат 1972
приказ@@ 1972
1200 1971
бойна 1971
гръцкото 1971
Манчестър 1970
Ранни 1970
ню@@ 1970
рала 1970
тясно 1970
Car@@ 1969
Адрианопол 1969
Ери@@ 1969
лагера 1969
превоз@@ 1969
факти 1969
еки@@ 1968
кване 1968
населя@@ 1968
сбо@@ 1968
бяла 1967
врати 1967
късната 1967
лом 1967
рато@@ 1967
царе@@ 1967
op@@ 1966
Петро@@ 1966
кай@@ 1966
ляз@@ 1966
противоре@@ 1966
хоро@@ 1966
щур@@ 1966
160 1965
j@@ 1965
Василев 1965
бомбарди@@ 1965
гражданин 1965
движения 1965
енето 1965
рят 1965
шков 1965
изпада 1964
морското 1964
учениците 1964
богат@@ 1963
вою@@ 1963
кас 1963
мино@@ 1963
носо@@ 1963
бездетен 1962
мол@@ 1962
Магдалена 1961
Ю 1961
госту@@ 1961
периоди 1961
предприема 1961
линг@@ 1960
майстори 1960
миграция 1960
су 1960
усъвършен@@ 1960
Дебютира 1959
Маври@@ 1959
Милан 1959
мани 1959
матери@@ 1959
национали@@ 1959
хит 1959
вяне 1958
кратно 1958
кс@@ 1958
нон 1958
служат 1958
Де 1957
бана@@ 1957
диви 1957
ждения 1957
защита@@ 1956
преоблада@@ 1956
съоръ@@ 1956
топ 1956
финансо@@ 1956
os@@ 1955
бойните 1955
желанието 1955
уеб 1955
79 1954
Апри@@ 1954
бру@@ 1954
католическата 1954
бран@@ 1953
експедицията 1953
интерес@@ 1953
колежа 1953
Берлин@@ 1952
Франсоа 1952
море@@ 1952
посветена 1952
сам@@ 1952
фили@@ 1952
вер 1951
данов 1951
планетата 1951
промо@@ 1951
шения 1951
шин@@ 1951
обявено 1950
отпечат@@ 1950
състеза@@ 1950
ента@@ 1949
осман@@ 1949
нова@@ 1948
област@@ 1948
ико@@ 1947
осъзна@@ 1947
Републикан@@ 1946
ента 1946
клу@@ 1946
любов@@ 1946
свръх@@ 1946
турнири 1946
внук 1945
глави 1945
личе@@ 1945
охла@@ 1945
ралния 1945
статия 1945
военното 1944
какв@@ 1944
резултатите 1944
стой@@ 1944
схема 1944
фан@@ 1944
ЮНЕСКО 1943
авио@@ 1943
леги@@ 1943
лили 1943
римска 1943
Жак 1942
гръцко 1942
налите 1942
полиция 1942
бремен@@ 1941
ълъ@@ 1941
ор 1940
отсе@@ 1940
Бли@@ 1939
Кен@@ 1939
Любомир 1939
алу@@ 1939
бра 1939
възела 1939
командва 1939
en@@ 1938
избяга 1938
вътрешни 1937
дже 1937
публикации 1937
1874 1936
Дал@@ 1936
Едва 1936
артилерий@@ 1936
различно 1936
школата 1936
Пин@@ 1935
Тъ@@ 1935
дървени 1935
импер@@ 1935
милиарда 1935
остане 1935
отделен 1935
рените 1935
ресторан@@ 1935
славата 1935
стрелба 1935
кили@@ 1934
локо@@ 1934
осигур@@ 1934
плаване 1934
селски 1934
изкуствата 1933
мък 1933
орбит@@ 1933
публично 1933
установка 1933
иму@@ 1932
спорта 1932
степен@@ 1932
трилър 1932
Al@@ 1931
Бил@@ 1931
зиране 1931
срок 1931
ѫ@@ 1931
1868 1930
Кристина 1930
шната 1930
кал 1929
Жив@@ 1928
губернатор 1928
конфликти 1928
крайбрежието 1928
мони@@ 1928
обкръ@@ 1928
популярните 1928
запис 1927
мални 1927
мият 1927
търсят 1927
Максим 1926
аеро@@ 1926
здраве 1926
покров@@ 1926
Нау@@ 1925
Ул@@ 1925
дъното 1925
изостав@@ 1925
никой 1925
am@@ 1924
Игра@@ 1924
Мари 1924
Северозападна 1924
изпратени 1924
прилага 1924
фът 1924
миче@@ 1923
Именно 1922
някога 1922
сини 1922
върнат 1921
тенис 1921
Англи@@ 1920
Бот@@ 1920
Тем@@ 1920
варови@@ 1920
вард 1919
папата 1919
синовете 1919
74 1918
бров@@ 1918
вари 1918
глед 1918
огъня 1918
посла@@ 1918
трай@@ 1918
78 1917
водач 1917
евреите 1917
изло@@ 1917
психология 1917
1866 1916
вой 1916
сре@@ 1916
фос@@ 1916
v@@ 1915
Общата 1915
арте@@ 1915
гръбна@@ 1915
брего@@ 1914
еви 1914
корабна 1914
наблюдават 1914
Двете 1913
Еди@@ 1913
мъжкото 1913
разве@@ 1913
сръбската 1913
указ 1913
2,@@ 1912
86 1912
видно 1912
тява 1912
Народен 1911
мисията 1911
сие 1911
юриди@@ 1911
затворен 1910
маха@@ 1910
чис@@ 1910
96 1909
Им@@ 1909
имо@@ 1909
посрещ@@ 1909
Запа@@ 1908
конкурса 1908
сенатор 1908
Нигерия 1907
Роу@@ 1907
експеримента@@ 1907
приблизителна 1907
Варнен@@ 1906
едната 1906
използвайки 1906
колекция 1906
лекции 1906
ситуация 1906
употребата 1906
Алберт 1905
посочено 1905
югоизточната 1905
Макс 1904
Френската 1904
Ър@@ 1904
аз@@ 1904
архив 1904
принуждава 1904
слад@@ 1904
участия 1904
Папа@@ 1903
лън 1903
моли 1903
редовно 1903
ру 1903
колко@@ 1902
отборите 1902
яд@@ 1902
щайки 1901
Гале@@ 1900
92 1899
лост 1899
патри@@ 1899
интере@@ 1898
музикално 1898
орке@@ 1898
1861 1897
Известни 1897
вку@@ 1897
еванге@@ 1897
състоянието 1897
универса@@ 1897
художника 1897
Реал 1896
екзархисти 1896
лежа@@ 1896
нацията 1896
разпръ@@ 1896
Ерик 1895
er 1894
Доротея 1894
симфо@@ 1894
спечелва 1894
членки 1894
Монте@@ 1893
задвиж@@ 1893
сферата 1893
хожда@@ 1893
гате@@ 1892
опти@@ 1892
разработва 1892
същите 1892
Records 1891
Ново 1891
АТ@@ 1890
Рика 1890
литературни 1890
полети 1890
списанието 1890
Андер@@ 1889
евро@@ 1889
определено 1889
процеду@@ 1889
сайт 1889
Илиев 1888
зая@@ 1888
Завръ@@ 1887
автоно@@ 1887
велик 1887
разузнавате@@ 1887
серията 1887
чуждестранни 1887
вка@@ 1886
зрители 1886
филмите 1886
ърд 1886
възстановява 1885
диагно@@ 1885
кторите 1885
разположение 1885
Вест@@ 1884
преме@@ 1884
размно@@ 1884
стото 1884
Вто@@ 1883
Сви@@ 1883
вател 1883
гале@@ 1883
земеделието 1883
иск@@ 1883
отличие 1883
съветската 1883
дипломат 1882
летът 1882
македонския 1882
мил 1882
рус 1882
ряването 1882
види 1881
класически 1881
опреде@@ 1881
продук@@ 1881
факт 1881
филмов 1880
Перник 1879
ази@@ 1879
подзем@@ 1879
Люксембург 1878
очаква 1878
партизан@@ 1878
ври 1877
непрекъснато 1877
председателя 1877
сму@@ 1877
кол 1876
националните 1876
общин@@ 1876
quot 1875
Ези@@ 1875
Сингапур 1875
демонстри@@ 1874
департамент 1874
емигран@@ 1874
ранени 1874
фоку@@ 1874
Защ@@ 1873
Комисията 1873
личния 1873
синове 1873
Дим@@ 1871
Цар@@ 1870
пенсиони@@ 1870
плодо@@ 1870
ІІ 1869
Аз 1869
Тол@@ 1869
другия 1869
емост 1869
зали@@ 1869
рас 1869
рес@@ 1869
тани 1869
турските 1869
учре@@ 1869
близките 1868
изигра@@ 1868
основния 1868
подготовката 1868
сяване 1868
днешния 1867
историческата 1867
лицен@@ 1867
мур 1867
немските 1867
фия 1866
Имат 1865
НС 1865
възстановяването 1865
двадесет 1865
лиш@@ 1865
is@@ 1864
инфек@@ 1864
кор 1864
ническите 1864
отхвърля 1864
верен 1863
присъстват 1863
пускат 1863
гани 1862
жар@@ 1862
щаба 1862
Ел 1861
социално 1861
Кинг 1860
избухва 1860
огла@@ 1860
стара 1860
Жен@@ 1859
Ред@@ 1859
говорен 1859
монах 1859
притежават 1859
фите 1859
Вън@@ 1858
диску@@ 1858
дуин 1857
замъ@@ 1857
минист@@ 1857
спон@@ 1857
чети 1857
завършват 1856
Джо 1855
въглища 1855
джаз 1855
мисли 1855
разнообразни 1855
ранната 1855
350 1854
бол 1854
джър 1854
жо 1854
спря@@ 1854
повя@@ 1853
жертва 1852
черно 1852
княжество 1851
крака 1851
майки 1851
дрехи 1850
запазена 1850
лом@@ 1850
мене@@ 1850
погребе@@ 1850
различават 1850
русна@@ 1850
лско 1849
написани 1849
ническата 1849
тради@@ 1849
фин 1849
Държавния 1848
Едно 1848
дълбока 1848
83 1847
87 1847
Сед@@ 1847
лието 1847
президентът 1847
сли 1847
тията 1847
Памет@@ 1846
вили 1846
истории 1846
кота 1846
писане 1846
преводач 1846
снима 1846
Одрин 1844
апси@@ 1844
досто@@ 1844
изслед@@ 1844
обли@@ 1844
прието 1844
Уязвим 1843
моде@@ 1843
нил 1843
секс 1843
бозайници 1842
Ву@@ 1841
Естония 1841
ничи 1841
състезател 1841
Романът 1840
блоки@@ 1840
дост 1840
преброяване 1840
търговска 1840
Лет@@ 1839
екологи@@ 1839
реформи 1839
Роман@@ 1838
печ@@ 1838
Продъл@@ 1837
баба 1837
лека 1837
натиск 1837
проблемите 1837
став 1837
съзнание 1837
Браун 1836
Камерун 1836
водена 1836
земеделски 1836
Анге@@ 1835
бени 1835
влия@@ 1835
евенту@@ 1835
плен 1835
пора@@ 1835
хау@@ 1835
камера 1834
пола 1834
as 1833
Проду@@ 1833
дипломати@@ 1833
епо@@ 1832
мб@@ 1832
обявяват 1832
средно@@ 1832
цев 1832
Фин@@ 1831
Хам@@ 1831
атели 1831
гал 1831
матика 1831
говете 1830
заслуги 1829
крепост@@ 1829
маги@@ 1829
нското 1829
признание 1829
K 1828
Храмът 1828
болести 1828
меня 1828
миро@@ 1828
служби 1828
Кана@@ 1827
Литва 1827
двигателя 1827
заболяване 1827
околностите 1827
отправя 1827
диско@@ 1826
домакин 1826
140 1825
Иконо@@ 1825
кана@@ 1825
холанд@@ 1825
германците 1824
жество 1824
нада 1824
разпада 1824
твърдят 1824
1863 1823
бое@@ 1823
въоръжена 1823
двор@@ 1823
гражданите 1822
живи 1822
замест@@ 1822
сното 1822
хожда 1822
Панай@@ 1821
виждат 1821
образ 1821
предпа@@ 1821
произхожда 1821
Средиземно 1820
ФИ@@ 1820
нататъ@@ 1820
триум@@ 1820
флу@@ 1820
базилика 1819
основното 1819
пиеси 1819
терен 1819
цин 1819
деноно@@ 1818
медии 1818
насти@@ 1818
предим@@ 1818
Радио 1817
менти@@ 1817
бакалавърска 1816
мала@@ 1816
водеща 1815
едноимен@@ 1815
хъл@@ 1815
атаку@@ 1814
възвишение 1814
господ@@ 1814
напа@@ 1814
отри@@ 1814
подготвя 1814
Западен 1813
излъч@@ 1813
тет 1813
тъм 1813
хранене 1813
замяна 1812
Густав 1811
Македонски 1811
конгре@@ 1811
родината 1811
Мав@@ 1810
добавя 1810
магистрала 1810
рам 1810
НО@@ 1809
гур@@ 1809
двойка 1809
рекорд 1809
стади@@ 1809
участниците 1809
Давид 1808
Стамбо@@ 1808
Шуленбург 1808
континента 1808
окупа@@ 1808
ордена 1808
помещения 1808
туристически 1808
Бий@@ 1807
Костур@@ 1807
административни 1807
астронав@@ 1807
вост 1807
нападател 1807
югозападната 1807
Оре@@ 1806
графовете 1806
основа@@ 1806
правило 1806
принудени 1806
Годи@@ 1805
Държавната 1805
атакува 1805
емигрира 1805
кръв 1805
разбира@@ 1805
специал@@ 1805
стая 1805
Алжир 1804
Веро@@ 1804
бай@@ 1804
листни 1804
посеща@@ 1804
предостав@@ 1804
1850 1803
Москов@@ 1803
нел 1803
обединява 1803
пистата 1803
свързват 1803
сква 1803
тън@@ 1803
държавната 1802
натруп@@ 1802
разпозна@@ 1802
сос 1802
станцията 1802
яните 1802
Владислав 1801
Ог@@ 1801
гам 1801
пустин@@ 1801
съвременния 1801
вътрешната 1800
йци 1800
район@@ 1800
самостоятелен 1800
годишнината 1799
грузин@@ 1799
деля 1799
номини@@ 1799
открития 1799
Антио@@ 1798
Чехословакия 1798
дъщерята 1798
механиз@@ 1798
насе@@ 1798
широко@@ 1798
лято 1797
пад 1797
графството 1796
доцент 1796
насекоми 1796
нах 1796
плен@@ 1796
прин@@ 1796
1865 1795
комбинация 1795
Лар@@ 1794
абсолю@@ 1794
албумът 1794
движи 1794
моста 1794
насил@@ 1794
нителни 1794
огромен 1794
пребива@@ 1794
стойности 1794
Хан 1793
съгласява 1793
необходими 1792
огром@@ 1792
слото 1792
бити 1791
заплаха 1791
команди@@ 1791
отказват 1791
продадени 1791
Цар 1790
английската 1790
кучета 1790
нително 1790
опас@@ 1790
подход 1790
принци@@ 1790
тенбург 1790
щен@@ 1790
Етиопия 1789
напом@@ 1789
онен 1789
сингъла 1789
следват 1789
фигу@@ 1789
Влиза 1788
дил 1788
препят@@ 1788
променят 1788
сложни 1788
тирана 1788
цити@@ 1788
Диони@@ 1787
Служи 1787
дипломирането 1787
Почти 1786
триъгъл@@ 1786
естествено 1785
линейни 1785
нужда@@ 1785
рецеп@@ 1785
свое 1785
сдру@@ 1785
убийство 1785
1830 1784
Ад@@ 1784
Пос@@ 1784
вечер@@ 1784
заселе@@ 1784
институ@@ 1784
манастир@@ 1784
мбо@@ 1784
повди@@ 1784
постижения 1784
самостоятелни 1784
Драго@@ 1783
владения 1783
кир@@ 1783
кира 1783
коалиция 1783
повто@@ 1783
Етнически 1782
бележи 1782
дере 1782
изгражда 1782
постоянен 1782
търговци 1782
мява 1781
отнасят 1781
традиционно 1781
Атлантическия 1780
Два@@ 1780
кел@@ 1780
Шарлота 1779
дови 1779
дят 1779
евич 1779
for 1778
Авра@@ 1778
Амалия 1778
Беле@@ 1778
Стран@@ 1778
дес@@ 1778
катастро@@ 1778
ром 1778
Пери@@ 1777
ремон@@ 1777
седа@@ 1777
Такива 1776
вълни 1776
диск 1776
истински 1776
пети 1776
присъствие 1776
фолк 1776
Раковски 1775
Так@@ 1775
впечат@@ 1775
немската 1775
разкопки 1775
Княжество 1774
Старо@@ 1774
граждански 1774
кит@@ 1774
нините 1774
обсадата 1774
ранна 1774
строеж 1774
херцогиня 1774
Ангола 1773
Ат@@ 1773
Отборът 1773
избират 1773
пазар@@ 1773
СД@@ 1772
Чикаго 1772
главни 1772
пато@@ 1772
пки 1772
1800 1771
Сестра 1771
еврейски 1771
обществено 1771
специалисти 1771
споразуме@@ 1771
масата 1770
отец 1770
пос@@ 1770
рацията 1770
шампи@@ 1770
Ямбол 1769
бина 1769
десет@@ 1769
североизточната 1769
хол@@ 1768
джо 1767
нената 1767
Апо@@ 1766
алният 1766
възможни 1766
османските 1766
потвърждава 1766
произведени 1766
Сак@@ 1765
вещество 1765
причината 1765
Негов 1764
алтерна@@ 1764
вся@@ 1764
гията 1764
молба 1764
туризъм 1764
Арабия 1763
древни 1763
организа@@ 1763
северозападната 1763
тух@@ 1763
умения 1763
Твор@@ 1762
полузащитник 1762
зако@@ 1761
измъ@@ 1761
магистра@@ 1761
ническо 1761
пов@@ 1761
увре@@ 1761
фентъзи 1761
Лука 1760
Феде@@ 1760
букви 1760
завърши 1760
международната 1760
писан 1760
химиче@@ 1760
днешно 1759
заку@@ 1759
климати@@ 1759
конту@@ 1759
операцията 1759
Кири@@ 1758
нейният 1758
отли@@ 1758
ств@@ 1758
забран@@ 1757
значителен 1757
Вътреш@@ 1756
автомати@@ 1756
ефекти 1756
компютри 1756
тоест 1756
ВИ@@ 1755
Свещената 1755
заменен 1755
териториите 1755
тини 1755
дем@@ 1754
дис@@ 1754
замър@@ 1754
известният 1754
маз@@ 1754
моря@@ 1754
U 1753
Зим@@ 1753
Купа 1753
курор@@ 1753
тане 1753
философ 1753
89 1752
Love 1752
77 1751
93 1751
І 1751
ида 1751
идеите 1751
комеди@@ 1751
логични 1751
наблюдение 1751
присъствието 1750
ti@@ 1749
Стари 1749
ливо@@ 1749
организми 1749
тео@@ 1749
Барбара 1748
Симон 1748
Хосе 1748
канали 1748
копа@@ 1748
сион 1748
съществуване 1748
ing 1747
Делчев 1747
адапти@@ 1747
визу@@ 1747
воя 1747
трудо@@ 1747
употре@@ 1747
Шри 1746
евски 1746
корона 1746
пивовар@@ 1746
радика@@ 1746
смесено 1746
Характер@@ 1745
богати 1745
станции 1745
Голя@@ 1744
Държавна 1744
Камбоджа 1744
вро@@ 1744
завършен 1744
81 1743
Министерство 1743
екс@@ 1743
лето 1743
моги@@ 1743
мии 1742
рибо@@ 1742
ur@@ 1741
Желе@@ 1741
мба@@ 1741
национал@@ 1741
позната 1741
рер 1741
удар@@ 1741
Франциско 1740
деното 1740
напада 1740
отделно 1740
сил@@ 1740
сили@@ 1740
Парла@@ 1739
Родопи 1739
лента 1739
разузнаване 1739
туристи@@ 1739
Готфрид 1738
бота@@ 1738
ваната 1738
водени 1738
електронни 1738
Гос@@ 1737
Дол@@ 1737
листата 1737
определяне 1737
Зем@@ 1736
драта 1736
нология 1736
посвещава 1736
Санд@@ 1735
Смо@@ 1735
гос 1735
дика 1735
изпре@@ 1735
бившата 1734
военния 1734
самите 1734
сения 1734
Ербах 1733
Кло@@ 1733
участъци 1733
Вре@@ 1732
Мини@@ 1732
арх@@ 1732
държане 1732
пати@@ 1732
въдство 1731
извори 1731
корени 1731
лем 1731
представи 1731
прослед@@ 1731
хълма 1731
чеството 1731
векове 1730
земни 1730
мните 1730
вилаетите 1729
сем@@ 1729
достъ@@ 1728
категории 1728
курфюрст 1728
манов 1728
отра@@ 1728
състоят 1728
РБ 1727
войниците 1727
годишни 1727
ментар@@ 1727
мляко 1727
охра@@ 1727
последно 1727
тримата 1727
трудове 1727
r 1726
Лам@@ 1726
Творчество 1726
битки 1726
вестници 1726
мска 1726
Побед@@ 1725
детето 1725
лиев 1725
постоян@@ 1725
пристигането 1725
същевременно 1725
технология 1725
отделят 1724
ръкопи@@ 1724
тит@@ 1724
черна 1724
Древен 1723
Национална 1723
Оттогава 1723
използвано 1723
масло 1723
наследници 1723
огромни 1723
Общината 1722
зависи@@ 1722
кьой 1722
Джоунс 1721
Мета@@ 1721
иран@@ 1721
кожата 1721
особе@@ 1721
разказ 1721
хипоте@@ 1721
зор@@ 1720
кина 1720
средновековна 1720
типове 1720
Илинденско 1719
дю@@ 1719
изложба 1719
свидетелства 1719
отразяваща 1718
христи@@ 1718
боле@@ 1717
запозна@@ 1717
хим@@ 1717
драматичен 1716
емите 1716
зали 1716
харес@@ 1716
цигу@@ 1716
Кума@@ 1715
яй@@ 1715
Брюксел 1714
Марс 1714
Опера@@ 1714
Подобно 1714
акту@@ 1714
възстанов@@ 1714
домо@@ 1714
ственият 1714
дружеството 1713
католически 1713
лит@@ 1713
направ@@ 1713
убие 1713
зирана 1712
кенщайн 1712
кратък 1712
нак 1712
Ис@@ 1711
държавните 1711
науч@@ 1711
склон 1711
общо@@ 1710
партиза@@ 1710
публика 1710
темпера@@ 1710
явления 1710
английска 1709
домаш@@ 1709
херцогство 1709
Алфред 1708
върш@@ 1708
допри@@ 1707
нии 1707
политическо 1707
бът 1706
геоло@@ 1706
наброява 1706
специали@@ 1706
Гоце 1705
византийски 1705
висши 1705
ителка 1705
съдържанието 1705
Архи@@ 1704
Мом@@ 1704
зас 1704
кратен 1704
нината 1704
предмет 1704
автомобил 1703
деми@@ 1703
никакви 1703
равнище 1703
къла 1702
ниската 1702
снат 1702
черти 1702
Фол@@ 1701
административна 1701
допринася 1701
естествени 1701
катедрала 1701
кау@@ 1701
конструкцията 1701
майсторство 1701
направена 1701
селското 1701
сри@@ 1701
DVD 1700
Забеле@@ 1699
Монастир 1699
здрав@@ 1699
товар@@ 1699
Марков 1698
налата 1698
продаж@@ 1698
танци 1698
целе@@ 1698
лм 1697
разрешение 1697
Соци@@ 1696
градини 1696
интервю 1696
обществена 1696
пин 1696
фе 1696
характери@@ 1696
целите 1696
2022 1695
71 1695
Крис 1695
словен@@ 1695
фурт 1695
ала 1694
зря@@ 1694
легенда 1694
нуждите 1694
фона 1694
шните 1694
Осман@@ 1693
азбука 1693
войводство 1693
гс 1693
лизат 1693
рази@@ 1693
социалните 1693
БЗНС 1692
Сава 1692
Смър@@ 1692
Фрай@@ 1692
разнообраз@@ 1692
рю 1692
Близкия 1691
Изток 1691
Музиката 1691
набро@@ 1691
Бернхард 1690
Министер@@ 1690
отда@@ 1690
Център 1689
ара@@ 1689
лаго@@ 1689
офанзи@@ 1689
произведенията 1689
Испан@@ 1688
колония 1688
османците 1688
хата 1688
ana 1687
Одрин@@ 1687
избра@@ 1687
названието 1687
операта 1687
ориен@@ 1687
потоци 1687
резерват 1687
спор 1687
1856 1686
Търговище 1686
гласи 1686
изхвър@@ 1686
повишен 1686
птемврий@@ 1686
строе@@ 1686
… 1686
Волфганг 1685
катастрофа 1685
рич 1685
червени 1685
първенства 1684
студент 1684
91 1683
Дире@@ 1683
водна 1683
подпис@@ 1683
сте 1683
третото 1683
л. 1682
Премиерата 1681
контролира 1681
лай 1681
порт 1681
Латин@@ 1680
Хол@@ 1680
Швар@@ 1680
дивизи@@ 1680
парт@@ 1680
цента 1680
Антаркти@@ 1679
диригент 1679
изпъ@@ 1679
континентален 1679
океан@@ 1679
очаква@@ 1679
половин 1679
тайно 1679
тиче@@ 1679
дн 1678
известност 1678
общия 1678
отстъпва 1678
писма 1678
плате@@ 1678
регистър 1678
железопътна 1677
ителност 1677
наградите 1677
сайта 1677
Дет@@ 1676
зеленчу@@ 1676
1862 1675
Екатерина 1675
Холи@@ 1675
височината 1675
мраз@@ 1675
предвижда 1675
произхода 1675
румънски 1675
сътрудничи 1675
товата 1675
Влади@@ 1674
взет 1674
древността 1674
незия 1674
ниан 1674
режись@@ 1674
рицар 1674
родители 1674
Битка 1673
болест 1673
бора 1673
Мери@@ 1672
личността 1672
скон@@ 1672
фикацията 1672
постанов@@ 1671
практику@@ 1671
ас@@ 1670
вход 1670
набор 1670
понятието 1670
прекратява 1670
прия@@ 1670
прова@@ 1670
развити 1670
94 1669
Дунав@@ 1669
критично 1669
общности 1669
откриване 1669
съветска 1668
Салоника 1667
зай@@ 1667
1859 1666
Исус 1666
лизацията 1666
проход 1666
руското 1666
Ради@@ 1665
възрастни 1665
ещ 1665
ческият 1665
ѣ@@ 1665
завършването 1664
запази 1664
морфо@@ 1664
сх@@ 1664
Гватемала 1663
Елеонора 1663
Комнин 1663
владичество 1663
коне 1663
памет@@ 1663
яйца 1663
Централ@@ 1662
зова 1662
историческите 1662
йните 1662
подножие 1662
щица 1662
ПФК 1661
планинските 1661
раства 1661
термо@@ 1661
Големия 1660
Хра@@ 1660
Щолберг 1660
имоти 1660
литературна 1660
хара 1660
lo@@ 1659
интели@@ 1659
душно 1658
лини 1658
прозо@@ 1658
Аполо@@ 1657
Шампионската 1657
менидж@@ 1657
предназначени 1657
Герхард 1656
Реле@@ 1656
Трай@@ 1656
ваше 1656
мла@@ 1656
тман 1656
99 1655
ul@@ 1655
бързо@@ 1655
жиз@@ 1655
картината 1655
преживя@@ 1655
ella 1654
Дебър@@ 1654
Преображенското 1654
Форд 1654
вършва 1654
захран@@ 1654
зеле@@ 1654
лани 1654
як 1654
Шва@@ 1653
формат 1653
Либия 1652
Прилеп 1652
вестника 1652
огромна 1652
потребителите 1652
Ройс 1651
застава 1651
изображение 1651
интересу@@ 1651
йната 1651
лията 1651
Селището 1650
Състеза@@ 1650
бета 1650
железопъ@@ 1650
земеделие 1650
лъж@@ 1650
морф@@ 1650
овла@@ 1650
отворен 1650
предшестве@@ 1650
цветни 1650
Хондурас 1649
# 1648
ващият 1648
веро@@ 1647
лингви@@ 1647
падане 1647
съюзници 1647
жително 1646
информацията 1646
тур 1646
формации 1646
Вазов 1645
Византи@@ 1645
зараз@@ 1645
станал 1645
кви 1644
маршал 1644
неделя 1644
организирани 1644
тания 1644
дири@@ 1643
превземането 1643
сит@@ 1643
явайки 1643
Липе 1642
базирана 1642
зоната 1642
коди@@ 1642
разпространението 1642
рида 1642
Гон@@ 1641
владение 1641
доне@@ 1641
душ@@ 1641
наем@@ 1641
значението 1640
оси@@ 1640
османската 1640
смес@@ 1640
Американската 1639
Фьо@@ 1639
възрожденска 1639
външни 1639
гас 1639
лето@@ 1639
натова@@ 1639
отличия 1639
юрист 1639
отиват 1638
Кристи@@ 1637
Парти@@ 1637
наименованието 1637
расте 1637
фро@@ 1637
u 1636
Генерал 1636
Председател 1636
акти@@ 1636
главният 1636
западното 1636
зон 1636
рит@@ 1636
совете 1636
k 1635
Последните 1635
Тря@@ 1635
вита@@ 1635
сер 1635
стената 1635
тацията 1635
Уганда 1634
вярва 1634
привле@@ 1634
сол 1634
Участ@@ 1633
марки 1633
просве@@ 1633
фалши@@ 1633
os 1632
Неговото 1632
влезе 1632
горите 1632
ландграф 1632
незакон@@ 1632
отток 1632
разбиране 1632
ляр@@ 1631
as@@ 1630
Стани@@ 1630
действителност 1630
опер@@ 1630
прикри@@ 1630
служител 1630
стиката 1630
церемо@@ 1630
шва 1630
широки 1630
Марти@@ 1629
аресту@@ 1629
защитен 1629
рус@@ 1629
същ@@ 1629
Парк 1628
гьо@@ 1628
молит@@ 1628
оправ@@ 1628
рей 1628
Централния 1627
амби@@ 1627
градите 1627
коефици@@ 1627
нейни 1627
рини 1627
учебни 1627
генерален 1626
образуването 1625
разка@@ 1625
Битол@@ 1624
Рафа@@ 1624
изчезна@@ 1624
опасност 1624
свиде@@ 1624
хиля@@ 1624
H 1623
готов@@ 1623
добро@@ 1623
японската 1623
Вместо 1622
аргу@@ 1622
валежи 1622
държавите 1622
помощ@@ 1622
справ@@ 1622
техники 1622
Ван 1621
Уни@@ 1621
благородник 1621
крайно 1621
отре@@ 1621
умират 1621
Британската 1620
Майнц 1620
Никарагуа 1620
водещи 1620
получил 1620
работил@@ 1620
116@@ 1619
Бяла 1619
Особено 1619
Тене@@ 1619
алкохо@@ 1619
гражданство 1619
изгнание 1619
нави@@ 1619
престо@@ 1619
удари 1619
Тома 1618
монар@@ 1618
раното 1618
графа 1617
кръстонос@@ 1617
лагери 1617
лега@@ 1617
незастрашен 1617
прево@@ 1617
пусната 1617
фан 1617
бъдещия 1616
възгледи 1616
гари 1616
наказате@@ 1616
отпада 1616
спортен 1616
съхраняват 1616
али 1615
развита 1615
Атанасий 1614
пани 1614
съчи@@ 1614
Военното 1613
лато@@ 1613
пиесата 1613
цер 1613
Тони 1612
земната 1612
паметта 1612
промишле@@ 1612
рьо@@ 1612
турите 1612
хит@@ 1612
Нобелова 1611
одобре@@ 1611
почит@@ 1611
Антоний 1610
Игна@@ 1610
постоянна 1610
Културни 1609
дона 1609
етническите 1609
кампанията 1609
равни 1609
случайно 1609
събрани 1609
номинации 1608
останките 1608
почет@@ 1608
Силистра 1607
богато 1607
варианти 1607
вкус 1607
двигате@@ 1607
министерство 1607
пап@@ 1607
бно 1606
максима@@ 1606
ох@@ 1606
слож@@ 1606
младият 1605
обича 1605
измисле@@ 1604
купи 1604
ръкоположен 1604
Клавдий 1603
Мохамед 1603
метали 1603
могила 1603
отсла@@ 1603
преработ@@ 1603
специ@@ 1603
Съеди@@ 1602
околия 1602
проведени 1602
световния 1602
термина 1602
трон 1602
фини@@ 1602
щина 1602
il@@ 1601
Дори 1601
Произ@@ 1601
католиче@@ 1601
намиращ 1601
насилие 1601
прозор@@ 1601
ap@@ 1600
Ил@@ 1600
Професиона@@ 1600
Ца@@ 1600
завършена 1600
подпомага 1600
чата 1600
Мароко 1599
изучаване 1599
статистическа 1599
характер@@ 1599
хранителни 1599
ea 1598
Лаза@@ 1598
Сомалия 1598
почита@@ 1598
суфектконсул 1598
Араб@@ 1597
Коро@@ 1597
Останалите 1597
Рот@@ 1597
историци 1597
пожар 1597
частност 1597
графията 1596
коремоного 1596
терена 1596
114@@ 1595
Висконти 1595
Иван@@ 1595
хотел 1595
зана@@ 1594
масив 1594
na 1593
Прави 1593
ковата 1593
ноафрикан@@ 1593
Всичко 1591
Холмс 1591
бунтов@@ 1591
мине 1591
нади@@ 1591
роби 1591
северно@@ 1591
спаси 1591
щатски 1591
05 1590
руско 1590
тец 1590
Ланд@@ 1589
източното 1589
тома 1589
удо@@ 1589
Мехмед 1588
Тат@@ 1588
еро 1588
мяната 1588
нес@@ 1588
рязко 1588
храната 1588
Коб@@ 1587
банд@@ 1587
бият 1587
исляма 1587
лея 1587
фолклор@@ 1587
концентра@@ 1586
митрополия 1586
новци 1586
писме@@ 1586
пристанището 1586
утвърждава 1586
фронта 1586
цилин@@ 1586
ьон 1586
Земя 1585
Оря@@ 1585
Славия 1585
доброво@@ 1585
експеди@@ 1585
ис 1585
кръвта 1585
лак 1585
атмосферата 1584
пова 1584
сдел@@ 1584
фами@@ 1584
Сяр 1583
дивизии 1583
жник 1583
мети@@ 1583
нужда 1583
славя@@ 1583
творба 1583
водещите 1582
изчезва 1582
кожи 1582
престол 1582
провеждане 1582
чко 1582
Чле@@ 1581
але@@ 1581
дейки 1581
ография 1581
ракета 1581
рд 1581
Тейлър 1580
настоява 1580
обика@@ 1580
тей 1580
тивната 1580
Сарафов 1579
групите 1579
кции 1579
монт 1579
подкре@@ 1579
после@@ 1579
прекалено 1579
теже@@ 1579
фабри@@ 1579
9,@@ 1578
Райн@@ 1578
вед@@ 1578
голе@@ 1578
магистърска 1578
хищ@@ 1578
Състои 1577
дик@@ 1577
ro@@ 1576
доку@@ 1576
изте@@ 1576
испанския 1576
метрия 1576
мица 1576
слов@@ 1576
списъ@@ 1576
спре 1576
Щи@@ 1575
актьори 1575
буле@@ 1575
гел@@ 1575
гени 1575
динг 1575
дли@@ 1575
жанр 1575
задължително 1575
колко 1575
пишат 1575
постигне 1575
разрабо@@ 1575
степ@@ 1575
Коста@@ 1574
Общин@@ 1574
героите 1574
заети 1574
иди 1574
символи 1574
фли@@ 1574
Разград 1573
задачата 1573
рели 1573
Геро@@ 1572
Група 1572
Краси@@ 1572
бий 1572
манасти@@ 1572
младежки 1572
смесени 1572
спорове 1572
ук 1572
флан@@ 1572
ВМС 1571
Ц 1571
Якоб 1571
Два 1570
бари@@ 1570
близко 1570
вз@@ 1570
излизането 1570
нът 1570
перу@@ 1570
разре@@ 1570
астро@@ 1569
ванов 1569
късните 1569
неправи@@ 1569
образни 1569
рито 1569
anus 1568
at@@ 1568
Гръц@@ 1568
Домини@@ 1568
алдемокра@@ 1568
стреми 1568
em@@ 1567
западен 1567
колата 1567
честота 1567
Габри@@ 1566
добит@@ 1566
ежегодно 1566
медали 1566
мом@@ 1566
Компанията 1565
Кръстьо 1565
Систе@@ 1565
конфликта 1565
мъче@@ 1565
риби 1565
селек@@ 1565
успо@@ 1565
фактор 1565
Твър@@ 1564
влади@@ 1564
гове 1564
ТВ 1563
единственото 1563
женска 1563
поляр@@ 1563
Костов 1562
корпора@@ 1562
кус 1562
нските 1562
пещер@@ 1562
социалистическа 1562
стома@@ 1562
събиране 1562
церемония 1562
изделия 1561
намере@@ 1561
шното 1561
Проектът 1560
гсбург 1560
оборуд@@ 1560
очи 1560
тения 1560
et@@ 1559
Видове 1559
бунт 1559
лед 1559
no@@ 1558
Вардарска 1558
Виен@@ 1558
работил 1558
фо 1558
Остров 1557
изиск@@ 1557
колонии 1557
мънд 1557
турско 1557
Боя@@ 1556
Есте@@ 1556
бараба@@ 1556
животински 1556
инспектор 1556
охлю@@ 1556
чков 1556
4000 1555
Ch@@ 1555
Емилия 1555
Негови 1555
Общо 1555
еквивален@@ 1555
емо 1555
кли 1555
консер@@ 1555
оттам 1555
преименуван 1555
храброст 1555
хри@@ 1555
og@@ 1554
Вран@@ 1554
Маргарита 1554
соленост 1554
цело@@ 1554
st@@ 1553
Евро@@ 1553
Фредерик 1553
починал 1553
слебен 1553
ящи 1553
Гене@@ 1552
Живот 1552
Зеле@@ 1552
отдава 1552
полагат 1552
теглото 1552
бомбардирова@@ 1551
тивните 1551
виру@@ 1550
източен 1550
императрица 1550
плава 1550
тиви@@ 1550
105 1549
Весе@@ 1549
танкова 1549
Кин@@ 1548
Себасти@@ 1548
ави@@ 1548
мисъл 1548
уи@@ 1548
Охайо 1547
гната 1547
деспо@@ 1547
доклад 1547
заоби@@ 1547
пота@@ 1547
алност 1546
владетели 1546
зелени 1546
курсове 1546
премине 1546
сфер@@ 1546
въоръжените 1545
десни 1545
изма@@ 1545
мерно 1545
правоъгъл@@ 1545
приключ@@ 1545
Лайнинген 1544
Обя@@ 1544
еваку@@ 1544
летните 1544
совата 1544
хам@@ 1544
Управление 1543
достатъ@@ 1543
лого@@ 1543
Джей 1542
Дмитрий 1542
ним@@ 1542
берто 1541
вто@@ 1541
гно@@ 1541
лок 1541
престъпления 1541
секция 1541
тени 1541
23@@ 1540
Електро@@ 1540
инициати@@ 1540
лизма 1540
разгра@@ 1540
сблъсъ@@ 1540
стира 1540
т.ч. 1540
Интер 1539
заглавието 1539
1858 1538
западни 1538
заселници 1538
обле@@ 1538
орга@@ 1538
свой@@ 1538
собствените 1538
среди 1538
събира@@ 1538
съм@@ 1538
Андже@@ 1537
Велико@@ 1537
Художе@@ 1537
българо 1537
дос 1537
лата@@ 1537
различава 1537
устро@@ 1537
чифли@@ 1537
Ланка 1536
дърво@@ 1536
посред@@ 1536
приети 1536
снаряди 1536
учебната 1536
бивша 1535
кафя@@ 1535
лиза@@ 1535
православен 1535
тогавашния 1535
Карло 1534
Разположена 1534
Троица 1534
валежите 1534
дясната 1534
изуча@@ 1534
крайбрежи@@ 1534
слабо@@ 1534
цени 1534
бази 1533
скро@@ 1533
способ@@ 1533
стенописи 1533
увелич@@ 1533
Бала@@ 1532
епизоди 1532
разполагат 1532
шири@@ 1532
Стокхолм 1531
к.с. 1531
скла@@ 1531
стъпка 1531
сутринта 1531
Господ@@ 1530
Пана@@ 1530
Сибир 1530
Югозападна 1530
кулата 1530
мнозинство 1530
мус 1530
пилоти 1530
Интере@@ 1529
Салвадор 1529
пирами@@ 1529
пролет@@ 1529
тениси@@ 1529
традиционните 1529
97 1528
at 1528
Брайън 1528
вгра@@ 1528
депре@@ 1528
завършване 1528
украински 1528
Валтер 1527
сет@@ 1527
дея@@ 1526
жив 1526
метал 1526
чник 1526
Бохемия 1525
Фре@@ 1525
кореспондент 1525
продължителност 1525
чуп@@ 1525
Жо@@ 1524
гва 1524
дисципли@@ 1524
женските 1524
някъде 1524
Следват 1523
дира 1523
композиция 1523
некро@@ 1523
спома@@ 1523
1840 1522
кръво@@ 1522
наля@@ 1522
общинския 1522
техни 1522
човешкото 1522
Заха@@ 1521
бавар@@ 1521
влаж@@ 1521
десетте 1521
младежи 1521
откро@@ 1521
сборник 1521
Петер 1520
Сек@@ 1520
канала 1520
полския 1520
формирането 1520
хил 1520
Добро@@ 1519
Сло@@ 1519
високото 1519
въвеждането 1519
дио@@ 1519
констан@@ 1519
новено 1519
отделна 1519
присъедини 1519
сигнал 1519
шено 1519
Мол@@ 1518
Сега 1518
Шен@@ 1518
боевете 1518
вилает 1518
пита 1518
рист 1518
аржен@@ 1517
принадлежат 1517
Ани@@ 1516
Джорджия 1516
Нос@@ 1516
Палестина 1516
Проце@@ 1516
албански 1516
избрани 1516
издъл@@ 1516
кен 1516
куче 1516
механизъм 1516
определи 1516
превземат 1516
убий@@ 1516
чит@@ 1516
aceae 1515
bTV 1515
Бул@@ 1515
Маха@@ 1515
Първо 1515
драматург 1515
жеството 1515
завива 1515
легендата 1515
стандарт 1515
фено@@ 1515
яко@@ 1515
1300 1514
Емили@@ 1514
Фро@@ 1514
Хън@@ 1514
пространството 1514
сражения 1514
вис 1513
градуса 1513
жителен 1513
парчета 1513
рико 1513
тежък 1513
успешна 1513
кожа 1512
мския 1512
отличават 1512
победител 1512
фирми 1512
баня 1511
бръ@@ 1511
възста@@ 1511
гнато 1511
маси 1511
професионални 1511
творбите 1511
циан 1511
Кавказ 1510
Федера@@ 1510
записани 1510
кван@@ 1510
консервати@@ 1510
турни@@ 1510
Основният 1509
производител 1509
Въоръ@@ 1508
Сиера 1508
Трета 1508
вния 1508
заменя 1508
зре@@ 1508
изпове@@ 1508
реца 1508
смятан 1508
Искър 1507
датират 1507
достъп@@ 1507
милион 1507
подкреп@@ 1507
серти@@ 1507
тари 1507
фей 1507
Будапеща 1506
Динамо 1506
Подоб@@ 1506
осигуряване 1506
стъра 1506
фат 1506
чест@@ 1506
In@@ 1505
di@@ 1505
Валд@@ 1505
Гана 1505
Западните 1505
видят 1505
Сала@@ 1504
атаката 1504
ик 1504
непосредствена 1504
порта 1504
равенство 1504
ч. 1504
Дона@@ 1503
Уор@@ 1503
буквално 1503
мел 1503
неф@@ 1503
Шиш@@ 1502
втори@@ 1502
графско 1502
катедра 1502
легендар@@ 1502
приемане 1502
сменя 1502
Par@@ 1501
Родж@@ 1501
Семейството 1501
Уругвай 1501
всякакви 1501
гърба 1501
случа@@ 1501
терминът 1501
ьос@@ 1501
позволя@@ 1500
струк@@ 1500
Броят 1499
Главният 1499
Корнелий 1499
ждащ 1499
уволнен 1499
четен 1499
Алексей 1498
Мати@@ 1498
избора 1498
изисквания 1498
комунистически 1498
ценберг 1498
Вселе@@ 1497
британците 1497
остана@@ 1497
режима 1497
26@@ 1496
възвишения 1496
ждайки 1496
квартала 1496
страници 1496
усилията 1496
1600 1495
Средно@@ 1495
изпълнителен 1495
израз 1495
концерта 1495
лигата 1495
младши 1495
предупре@@ 1495
сват@@ 1495
гали 1494
извор 1494
изгле@@ 1494
пейза@@ 1494
проду@@ 1494
редовен 1494
съюза 1494
човешката 1494
450 1493
Роман 1493
Сце@@ 1493
Токио 1493
похода 1493
сок 1493
съединение 1493
уха@@ 1493
ционното 1493
Доми@@ 1492
ленията 1492
нор 1492
отро@@ 1492
ранни 1492
m3 1491
Допъл@@ 1491
Помпей 1491
алността 1491
англичаните 1491
гин 1491
говорът 1491
кора@@ 1491
мах 1491
новява 1491
поте@@ 1491
Авре@@ 1490
Япон@@ 1490
иници@@ 1490
комисар 1490
урата 1490
Много@@ 1489
зиви 1489
съгласие 1489
трапе@@ 1489
ува@@ 1489
форму@@ 1489
чере@@ 1489
ys 1488
Ангелов 1488
гравита@@ 1488
делът 1488
кръстен 1488
получаване 1488
пускане 1488
ракетата 1488
читалището 1488
Шварцбург 1487
взето 1487
жките 1487
компютър 1487
параклис 1487
полага@@ 1487
портре@@ 1487
пункт 1487
дървен 1486
отряда 1486
предста@@ 1486
Бела@@ 1485
Военната 1485
духовна 1485
противопоставя 1485
бюро 1484
външ@@ 1484
затори 1484
контак@@ 1484
предиш@@ 1484
Град 1483
Кръст@@ 1483
Нед@@ 1483
Сам 1483
Сезон 1483
бана 1483
изгу@@ 1483
мъл@@ 1483
ничната 1483
приспособ@@ 1483
Британска 1482
Док@@ 1482
Спе@@ 1482
Струма 1482
броня 1482
годишният 1482
квадра@@ 1482
назад 1482
пресе@@ 1482
скоп 1482
Ирина 1481
заво@@ 1481
W 1480
Ем@@ 1480
жаба 1480
противник 1480
al 1479
ескадра 1479
княже@@ 1479
копие 1479
народите 1479
означа@@ 1479
Манд@@ 1478
метео@@ 1478
поне@@ 1478
препратки 1478
сил 1478
темата 1478
1849 1477
Гил@@ 1477
Древна 1477
Латвия 1477
Скоп@@ 1477
архитектурно 1477
вселе@@ 1477
горе 1477
надесет@@ 1477
ограниче@@ 1477
организирана 1477
посветени 1477
приме@@ 1477
следния 1477
тайна 1477
яща 1477
мански 1476
фера 1476
Филипини 1475
външна 1475
гимнази@@ 1475
изход@@ 1475
сладководни 1475
техниката 1475
частен 1475
Витгенщайн 1474
Редовни 1474
избух@@ 1474
корабът 1474
матри@@ 1474
независими 1474
оръдията 1474
подобряване 1474
пс 1474
ВВС 1473
Вардар 1473
градско 1473
издръ@@ 1473
неоча@@ 1473
стови 1473
тури@@ 1473
ходен 1473
Обаче 1472
дния 1472
картеч@@ 1472
парак@@ 1472
празници 1472
признат 1472
съвременен 1472
филмова 1472
ьора 1472
Дружеството 1471
гайки 1471
Tr@@ 1470
Кава@@ 1470
Спорт 1470
колеба@@ 1470
пожар@@ 1470
съединява 1470
Юта 1469
базирани 1469
ембле@@ 1469
ир@@ 1469
принадлежа@@ 1469
цови 1469
чешки 1469
icus 1468
Северно 1468
бов 1468
десетилетие 1468
освобождението 1468
ръб@@ 1468
Режи@@ 1467
актрисата 1467
инг 1467
полез@@ 1467
реално 1467
човешките 1467
Графство 1466
Лом 1466
задължения 1466
сп 1466
Народния 1465
гвардей@@ 1465
даже 1465
дипломатически 1465
смо@@ 1465
футболисти 1465
24@@ 1464
вяването 1464
разгро@@ 1464
ti 1463
Александра 1463
Виде@@ 1463
дести@@ 1463
изяви 1463
кардинал 1463
намеса 1463
пуск 1463
реаги@@ 1463
фантастика 1463
военноморски 1462
гласовете 1462
критик 1462
лошо 1462
модул 1462
мян 1462
нападения 1462
рион 1462
спортна 1462
Велес 1461
Фюр@@ 1461
акции 1461
клави@@ 1461
съби@@ 1461
Сара 1460
ост@@ 1460
принципи 1460
тока 1460
унгарски 1460
Региона@@ 1459
кварта@@ 1459
нуж@@ 1459
опазването 1459
³ 1458
Първонача@@ 1458
керамика 1458
командващ 1458
лур@@ 1458
предстоя@@ 1458
тят 1458
Пру@@ 1457
Шлезвиг 1457
дизай@@ 1457
пин@@ 1457
предполага@@ 1457
серии 1457
Главната 1456
Известно 1456
Стюарт 1456
анек@@ 1456
взимат 1456
гроз@@ 1456
емоциона@@ 1456
индо@@ 1456
онези 1456
пале@@ 1456
сния 1456
сова@@ 1456
сфера 1456
Пит@@ 1455
Рилски 1455
интегри@@ 1455
озагла@@ 1455
правосъ@@ 1455
услож@@ 1455
Образование 1454
ПС 1454
електрическа 1454
подроб@@ 1454
1806 1453
изследванията 1453
око 1453
окупация 1453
сама 1453
Google 1452
завою@@ 1452
относ@@ 1452
свети 1452
съхранение 1452
Георги@@ 1451
Президент@@ 1451
безплат@@ 1451
дици 1451
израства 1451
погребана 1451
полка 1451
рат@@ 1451
строи 1451
шар@@ 1451
Андреа 1450
Гражданската 1450
космоса 1450
потом@@ 1450
чици 1450
Me 1449
въздействие 1449
диференци@@ 1449
птиците 1449
финансова 1449
Лайпциг 1448
Новият 1448
Станислав 1448
Тит 1448
мулти@@ 1448
наистина 1448
помагат 1448
спасява 1448
Конституцията 1447
бивши 1447
международните 1447
поета 1447
попа@@ 1447
производители 1447
ферен@@ 1447
бъдеще 1446
защитени 1446
космонав@@ 1446
ну 1446
цик@@ 1446
Аристо@@ 1445
Обер@@ 1445
Рак@@ 1445
духа 1445
икономическо 1445
клубът 1445
окончате@@ 1445
провеждането 1445
Саудитска 1444
Тунис 1444
гаш@@ 1444
ефек@@ 1444
жле@@ 1444
компоненти 1444
населено 1444
носни 1444
отглеждат 1444
риан@@ 1444
чело 1444
шенията 1444
Лъв 1443
Мано@@ 1443
делото 1443
ерн 1443
кралски 1443
подходящи 1443
посещение 1443
Идеята 1442
Матилда 1442
Футбо@@ 1442
зно 1442
инженер@@ 1442
министер@@ 1442
мур@@ 1442
програмиране 1442
учените 1442
Изабела 1441
нава 1441
небето 1441
нета 1441
рисунки 1441
римско 1440
Край 1439
Постепенно 1439
изриг@@ 1439
предоста@@ 1439
чането 1439
Георгиос 1438
либе@@ 1438
сигурността 1438
скор@@ 1438
създате@@ 1438
хълм 1438
цената 1438
Лиг@@ 1437
Наслед@@ 1437
Ник@@ 1437
избегне 1437
личане 1437
непо@@ 1437
прив@@ 1437
страда 1437
тев 1437
циклопе@@ 1437
1854 1436
Мике@@ 1436
Парагвай 1436
парамет@@ 1436
стопански 1436
теории 1436
New 1435
Трите 1435
дор@@ 1435
киселини 1435
кислород 1435
платформа 1435
съобщения 1435
30@@ 1434
Дъщеря 1434
кодът 1434
обичайно 1434
ограничена 1434
онер 1434
парите 1434
писателите 1434
Пир@@ 1433
Факул@@ 1433
девой@@ 1433
екипаж 1433
кири@@ 1433
подкрепят 1433
рище 1433
ec@@ 1432
възрожден@@ 1432
изв@@ 1432
икономиче@@ 1432
препода@@ 1432
противополож@@ 1432
редакти@@ 1432
случаите 1432
летя@@ 1431
мър 1431
оспор@@ 1431
предварите@@ 1431
Замбия 1430
Мех@@ 1430
Фройд 1430
момче 1430
подполковник 1430
Ивай@@ 1429
Избран 1429
дадени 1429
желязо 1429
историческо 1429
пън 1429
слоеве 1429
ственик 1429
сяването 1429
Малта 1428
Сардиния 1428
Софийската 1428
полска 1428
собствено 1428
трибун 1428
Аба@@ 1427
Юрий 1427
наимену@@ 1427
нери 1427
рум 1427
феновете 1427
шисти 1427
es@@ 1426
or 1426
Ав@@ 1426
Специали@@ 1426
австрийски 1426
личната 1426
мениджър 1426
стихосбир@@ 1426
сури 1426
съответните 1426
codice 1425
Кръсте@@ 1425
забелязва 1425
кореспон@@ 1425
опере@@ 1425
отчасти 1425
пощен@@ 1425
Интернет 1424
запазен 1424
изре@@ 1424
обикаля 1424
разработен 1424
релеф 1424
склон@@ 1424
съвременна 1424
тизъм 1424
търа 1424
Бек@@ 1423
Ордена 1423
бъдещето 1423
гости 1423
комуникация 1423
критику@@ 1423
предавания 1423
тист 1423
централния 1423
вор 1422
деб@@ 1422
експо@@ 1422
изтъ@@ 1422
класическа 1422
обнов@@ 1422
резерва 1422
Гун@@ 1421
Съществува 1421
енергията 1421
компа@@ 1421
мана 1421
образец 1421
отправ@@ 1421
постове 1421
регент@@ 1421
специалист 1421
укри@@ 1421
четник 1421
Исландия 1420
средиземно@@ 1420
събота 1420
съз@@ 1420
Понастоящем 1419
измерване 1419
осигуряват 1419
пъл 1419
ансам@@ 1418
ауди@@ 1418
зии 1418
конструи@@ 1418
лявата 1418
същество 1418
учителка 1418
Великата 1417
Светия 1417
гството 1417
постоянни 1417
примери 1417
трав@@ 1417
италианските 1416
итен 1416
насочени 1416
тхайм 1416
формат@@ 1416
Боб@@ 1415
Валдек 1415
Изра@@ 1415
Пътят 1415
Рам@@ 1415
Хим@@ 1415
глобус 1415
джин@@ 1415
пази 1415
поведението 1415
практи@@ 1415
рови@@ 1415
Култура 1414
Смолян 1414
Филипините 1414
ака@@ 1414
жд 1414
заклю@@ 1414
съю@@ 1414
тическия 1414
цифри 1414
Мишел 1413
Северния 1413
въпро@@ 1413
върхове 1413
записан 1413
мовете 1413
разпадането 1413
революцио@@ 1413
романът 1413
ръката 1413
виж 1412
дри 1412
мрежата 1412
основният 1412
потребители 1412
превежда 1412
професионална 1412
Ливърпул 1411
Уч@@ 1411
буква 1411
вярата 1411
кралят 1411
мед@@ 1411
първи@@ 1411
реван@@ 1411
Microsoft 1410
могъ@@ 1410
почвата 1410
04 1409
Горно@@ 1409
Каза@@ 1409
Сао 1409
били@@ 1409
девет@@ 1409
надежд@@ 1409
ag@@ 1408
en 1408
Вернер 1408
Независимо 1408
Средиземно@@ 1408
датата 1408
карбо@@ 1408
количеството 1408
комунистическата 1408
костенур@@ 1408
основи 1408
продават 1408
улиците 1408
юри 1408
1853 1407
водоро@@ 1407
гунда 1407
животно@@ 1407
изпитания 1407
керами@@ 1407
наги 1407
премиера 1407
Климат 1406
ид@@ 1406
телефонният 1406
фов 1406
u@@ 1405
Евровизия 1405
Юлия 1405
изпращат 1405
политическия 1405
шев@@ 1405
102 1404
1857 1404
Алек@@ 1404
Боте@@ 1404
Европейски 1404
Константи@@ 1404
Микро@@ 1404
Сръб@@ 1404
библиотеката 1404
партньор@@ 1404
рет 1404
тренира 1404
des 1403
Без 1403
Симе@@ 1403
Централната 1403
елимини@@ 1403
зда@@ 1403
летен 1403
организиран 1403
пей@@ 1403
рад 1403
риос 1403
тара 1403
Дале@@ 1402
ХІ@@ 1402
гробище 1402
кабинета 1402
партизански 1402
преподавате@@ 1402
пълни 1402
сражението 1402
съд@@ 1402
тинския 1402
хля@@ 1402
Мала@@ 1401
Рос@@ 1401
архиепископия 1401
мигран@@ 1401
рита 1401
убежище 1401
117@@ 1400
денберг 1400
навли@@ 1400
ограничен 1400
равна 1400
стойността 1400
страта 1400
тропически 1400
ур 1400
шница 1400
БНТ 1399
Гол@@ 1399
Карта@@ 1399
Унгар@@ 1399
автономна 1399
договори 1399
ецът 1399
кава 1399
основате@@ 1399
произнася 1399
санти@@ 1399
стана 1399
старият 1399
турнето 1399
Джърси 1398
Стария 1398
европейска 1398
йерар@@ 1398
поти@@ 1398
Коми@@ 1397
Мекленбург 1397
Хуго 1397
зки 1397
лоза 1397
научната 1397
някаква 1397
плана 1397
хе 1397
хилядолетие 1397
ценности 1397
гората 1396
опро@@ 1396
Асоциацията 1395
Дейвис 1395
Ким 1395
прости 1395
сериали 1395
терми@@ 1395
Ня@@ 1394
комплекса 1394
нишки 1394
смяна 1394
царски 1394
четирима 1394
лак@@ 1393
мандата 1393
опусто@@ 1393
проф@@ 1393
следването 1393
Вул@@ 1392
Самоа 1392
въздуш@@ 1392
изпълнена 1392
литов@@ 1392
организма 1392
Бълга@@ 1391
дим 1391
класическата 1391
низацията 1391
оцвет@@ 1391
бод@@ 1390
видовете 1390
гото@@ 1390
офицер@@ 1390
ровски 1390
терапия 1390
хранят 1390
КНР 1389
СП@@ 1389
апарати 1389
ждението 1389
замръ@@ 1389
коруп@@ 1389
младата 1389
наблюдения 1389
обвинява 1389
оре@@ 1389
предгра@@ 1389
противопостав@@ 1389
регент 1389
рецът 1389
споменат 1389
ствията 1389
тес 1389
музикалната 1388
пас@@ 1388
собствената 1388
фата 1388
Дрезден 1387
архитектурата 1387
бридж 1387
възел 1387
експози@@ 1387
кафяви 1387
фрагменти 1387
хирур@@ 1387
заснет 1386
премиер 1386
принципа 1386
Тун@@ 1385
вале@@ 1385
детството 1385
дон@@ 1385
мери 1385
поде@@ 1385
пче@@ 1385
римските 1384
съкрови@@ 1384
Александров 1383
гу 1383
катедрата 1383
ким 1383
ловци 1383
плати@@ 1383
предишните 1383
протока 1383
разработка 1383
разрушен 1383
Евгений 1382
Костур 1382
ант 1382
др. 1382
инструмента@@ 1382
мигри@@ 1382
преместен 1382
ращите 1382
страх 1382
философията 1382
po@@ 1381
Фун@@ 1381
Шампи@@ 1381
квадратни 1381
лизиран 1381
с.@@ 1381
стоят 1381
тските 1381
вирту@@ 1380
вътрешен 1380
гана 1380
денов 1380
йк 1380
оценява 1380
реформа 1380
траге@@ 1380
27@@ 1379
urus 1379
Последната 1379
Хамбург 1379
находища 1379
предават 1379
ьов 1379
кааза 1378
каменна 1378
предната 1378
режисиран 1378
хберг 1378
германска 1377
земно@@ 1377
кратки 1377
минало 1377
ниско@@ 1377
вратар 1376
подкрепя@@ 1376
Ръковод@@ 1375
Сидни 1375
нара@@ 1375
Еги@@ 1374
Тен@@ 1374
инва@@ 1374
стандарти 1374
тий@@ 1374
Гай@@ 1373
Прото@@ 1373
Франкфурт 1373
капиту@@ 1373
кац@@ 1373
причините 1373
ърт 1373
Дебю@@ 1372
вличат 1372
формацията 1372
юж@@ 1372
1700 1371
Джен@@ 1371
лидери 1371
лт 1371
мис 1371
регистрирани 1371
симпто@@ 1371
усво@@ 1371
болестта 1370
експерименти 1370
начини 1370
парламентарните 1370
сал 1370
× 1369
Свищов 1369
Север 1369
Фила@@ 1369
Ш 1369
запове@@ 1369
космическа 1369
лъчи 1369
находки 1369
нисък 1369
превзема 1369
табли@@ 1369
токси@@ 1369
хаген 1369
Кем@@ 1368
мелия 1368
огле@@ 1368
планира 1368
правя 1368
специализира 1368
сюже@@ 1368
цер@@ 1368
автоматично 1367
мре@@ 1367
тински 1367
издигната 1366
нападат 1366
подписан 1366
последователни 1366
постра@@ 1366
произведе@@ 1366
растеж 1366
Хаджи 1365
вянето 1365
надпре@@ 1365
налия 1365
оттег@@ 1365
селяните 1365
тъмно@@ 1365
Местоположение 1364
Ску@@ 1364
Стай@@ 1364
здраво@@ 1364
изследователски 1364
паза@@ 1364
устройството 1364
Балканския 1363
Кит@@ 1363
ктор@@ 1363
направено 1363
ниските 1363
носители 1363
рестав@@ 1363
танка 1363
Хоенцолерн 1362
апарта@@ 1362
енерге@@ 1362
извършени 1362
корей@@ 1362
охрана 1362
Джонсън 1361
Стефанов 1361
жкия 1361
изгон@@ 1361
портрети 1361
стръмни 1361
формите 1361
Гам@@ 1360
Печели 1360
подчинение 1360
el 1359
inus 1359
{ 1359
Любен 1359
Тим@@ 1359
брегове 1359
долини 1359
комбини@@ 1359
уто 1359
цето 1359
Вижте 1358
генери@@ 1358
зам@@ 1358
предприятие 1358
продажба 1358
религията 1358
Music 1357
an 1357
Мед@@ 1357
естествен 1357
затор 1357
метални 1357
сребърен 1357
Малък 1356
Рей 1356
автора 1356
данъци 1356
мило@@ 1356
млада 1356
пост@@ 1356
розо@@ 1356
стръ@@ 1356
Ната@@ 1355
живял 1355
новосъзда@@ 1355
устрой@@ 1355
Гръцката 1354
Йохана 1354
Медичи 1354
Хро@@ 1354
занаят@@ 1354
контакти 1354
опитите 1354
радо@@ 1354
скални 1354
Con@@ 1353
Брай@@ 1353
момичета 1353
функцията 1353
z 1352
Земе@@ 1352
лине@@ 1352
реакции 1352
Българския 1351
Главните 1351
партн@@ 1351
Рождество 1350
аспекти 1350
изработени 1350
мически 1350
установки 1350
фара@@ 1350
і@@ 1350
Отече@@ 1349
библиоте@@ 1349
жертвите 1349
оценки 1349
попадения 1349
ренесан@@ 1349
спуска@@ 1349
125 1348
Бен 1348
Непал 1348
Украин@@ 1348
борби 1348
мощен 1348
мъжките 1348
семинария 1348
Кот 1347
бовете 1347
османска 1347
племенник 1347
четвърт@@ 1347
СУ 1346
авиация 1346
вание 1346
грамата 1346
гробница 1346
здравето 1346
медицинска 1346
превърне 1346
преминаването 1346
равно 1346
съюзниците 1346
управляват 1346
Женева 1345
Съпру@@ 1345
Хед@@ 1345
газове 1345
мас 1345
обгра@@ 1345
09 1344
Сръбско 1344
акция 1344
блокове 1344
игу@@ 1344
ликвиди@@ 1344
мънт 1344
Нача@@ 1343
грешка 1343
днешните 1343
разширение 1343
синьо 1343
Казанлък 1342
Катерина 1342
земе@@ 1342
реми@@ 1342
Кни@@ 1341
партньор 1341
тежките 1341
Ере@@ 1340
дала 1340
момиче@@ 1340
телевизионна 1340
том 1340
UTC 1339
домашни 1339
призовава 1339
химик 1339
Андре@@ 1338
Хари@@ 1338
Хри@@ 1338
взети 1338
длъж@@ 1338
дует 1338
местата 1338
мп 1338
хомосексу@@ 1338
ЗС 1337
Тит@@ 1337
живопис@@ 1337
фолкло@@ 1337
Кораб@@ 1336
водие 1336
водосбор@@ 1336
днешен 1336
дско 1336
ключ@@ 1336
оки@@ 1336
порта@@ 1336
стъпки 1336
тери 1336
храмът 1336
цка 1336
ob@@ 1335
Киев@@ 1335
военачалник 1335
образно 1335
обща@@ 1335
потре@@ 1335
сат 1335
унищожени 1335
Лим@@ 1334
Размно@@ 1334
Соломо@@ 1334
включваща 1334
държавно 1334
лик@@ 1334
мело@@ 1334
привлечен 1334
турни 1334
Запад 1333
демокрация 1333
диктат@@ 1333
ещи 1333
печал@@ 1333
пещерата 1333
схайм 1333
Отно@@ 1332
лищен 1332
нападението 1332
отговорност 1332
сението 1332
среден 1332
шин 1332
St@@ 1331
Архитектура 1331
Думата 1331
Мансфелд 1331
бови 1331
играл 1331
иту@@ 1331
медиите 1331
одът 1331
поети 1331
честот@@ 1331
Велика 1330
Дво@@ 1330
Леон 1330
Лотарингия 1330
Сол@@ 1330
знал 1330
имену@@ 1330
качва 1330
Генералния 1329
Монако 1329
прово@@ 1329
сула 1329
червена 1329
le 1328
Бангладеш 1328
накло@@ 1328
сег@@ 1328
споме@@ 1328
Джоузеф 1327
Използва@@ 1327
Лек@@ 1327
Марин 1327
Намибия 1327
вене@@ 1327
водоизместимост 1327
подхран@@ 1327
пораз@@ 1327
реализира 1327
3,5 1326
българският 1326
излезе 1326
прогон@@ 1326
Александрия 1325
Бели@@ 1325
Рила 1325
венец 1325
виз@@ 1325
делник 1325
ителски 1325
ками@@ 1325
лиса 1325
надви@@ 1325
нологи@@ 1325
обединени 1325
предназначение 1325
сами 1325
ru@@ 1324
Аш@@ 1324
Година 1324
КП 1324
Кан 1324
Мани@@ 1324
изпълнения 1324
озаглавен 1324
отвъд 1324
пусти@@ 1324
ръка@@ 1324
траги@@ 1324
Бланкен@@ 1323
Първи@@ 1323
окръжен 1323
склоновете 1323
следователно 1323
стихотворения 1323
яващи 1323
Археологи@@ 1322
Първия 1322
доктри@@ 1322
младеж 1322
площи 1322
разходи 1322
тори@@ 1322
фаши@@ 1322
Бюдинген 1321
множеството 1321
ора@@ 1321
свободни 1321
чности 1321
Богдан 1320
Масачузетс 1320
Монголия 1320
Роберт 1320
Слу@@ 1320
Софийска 1320
болницата 1320
дация 1320
електронна 1320
кръстоносен 1320
нефт 1320
нит 1320
правилата 1320
сбли@@ 1320
стория 1320
чащи 1320
ir@@ 1319
руи@@ 1319
дал@@ 1318
дебюта 1318
ограничени 1318
приятелски 1318
стаи 1318
субек@@ 1318
театрални 1318
Алексий 1317
див@@ 1317
легион 1317
освобождава 1317
география 1316
записват 1316
монаси 1316
общините 1316
ограничения 1316
покрай@@ 1316
сърце 1316
течения 1316
3,@@ 1315
Основа@@ 1315
Родопите 1315
масови 1315
трево@@ 1315
Бати@@ 1314
Зак@@ 1314
вес 1314
гинята 1314
ере@@ 1314
запаз@@ 1314
пещера 1314
преход 1314
Аги@@ 1313
Завър@@ 1313
тирането 1313
турския 1313
уча@@ 1313
компютърни 1312
крайната 1312
Мисисипи 1311
Рьо@@ 1311
възстанови 1311
заси@@ 1311
извършено 1311
компак@@ 1311
концепция 1311
кули@@ 1311
нейна 1311
покрив 1311
преминаване 1311
славяни 1311
Включва 1310
покрита 1310
растенията 1310
стота 1310
li@@ 1309
Брат@@ 1309
изми@@ 1309
капе@@ 1309
краката 1309
писец 1309
последва 1309
ситуацията 1309
установи 1309
хипер@@ 1309
храни@@ 1309
образа 1308
тичния 1308
университети 1308
чове 1308
ш. 1308
ed@@ 1307
Ето 1307
изоби@@ 1307
кура@@ 1307
надесети 1307
пере@@ 1307
промяната 1307
сливането 1307
социалната 1307
Лаос 1306
групо@@ 1306
печата@@ 1306
предаде 1306
прилож@@ 1306
хме 1306
Дре@@ 1305
Началото 1305
Създаден 1305
атакуват 1305
бившите 1305
изкачва 1305
спечел@@ 1305
Етимология 1304
заливи 1304
застъп@@ 1304
сериалът 1304
Живее 1303
културна 1303
недовол@@ 1303
нощ@@ 1303
чано 1303
Брю@@ 1302
Диего 1302
Крал 1302
атент@@ 1302
гин@@ 1302
гово@@ 1302
депутати 1302
дроб 1302
избро@@ 1302
магазин 1302
шел@@ 1302
Куни@@ 1301
зя@@ 1301
имала 1301
иро@@ 1301
критиката 1301
обществен 1301
разоча@@ 1301
разред 1301
стов 1301
студиото 1301
Y@@ 1300
Източната 1300
Същевременно 1300
братовче@@ 1300
жба 1300
петте 1300
религиозна 1300
Библията 1299
дом@@ 1299
карват 1299
невъзможно 1299
условие 1299
Яко@@ 1298
мун@@ 1298
синг 1298
тическите 1298
храмове 1298
Все@@ 1297
Новата 1297
Резолюция 1297
биография 1297
дружества 1297
миналия 1297
министъра 1297
разслед@@ 1297
своеобраз@@ 1297
11@@ 1296
1821 1296
Западната 1296
Училището 1296
вое@@ 1296
започнали 1296
обичай@@ 1296
описани 1296
тско 1296
убиват 1296
художествени 1296
170 1295
Айн@@ 1295
Всъщност 1295
метода 1295
наказание 1295
норве@@ 1295
официална 1295
пеене 1295
редак@@ 1295
тюр@@ 1295
Ева 1294
Отли@@ 1294
вратата 1294
кръга 1294
кул 1294
хартия 1294
частна 1294
Плат@@ 1293
Пример 1293
екзархията 1293
задълбо@@ 1293
рево 1293
снаряда 1293
стилове 1293
характерен 1293
ценен 1293
чист 1293
Кама@@ 1292
Остава 1292
амат@@ 1292
анимационен 1292
влизането 1292
днешното 1292
ефективно 1292
фрайин 1292
Лип@@ 1291
побеждават 1291
портрет 1291
практики 1291
разглеждат 1291
Жер@@ 1290
Крит 1290
Лоръ@@ 1290
виг 1290
китарист 1290
неиз@@ 1290
рап 1290
риболов 1290
селяни 1290
Емануил 1289
Йохан@@ 1289
Крум 1289
Трети 1289
лял 1289
наблюдате@@ 1289
силните 1289
толо@@ 1289
увол@@ 1289
Джаксън 1288
Леген@@ 1288
Франци@@ 1288
вац 1288
държан@@ 1288
кръгове 1288
способен 1288
Дат@@ 1287
Кьониг@@ 1287
войник 1287
дуз@@ 1287
заведения 1287
осе@@ 1287
продажби 1287
френ@@ 1287
цивилизация 1287
ъс 1287
tr@@ 1286
Нари@@ 1286
Пъл@@ 1286
въпросите 1286
паметника 1286
прехвърля 1286
Джули@@ 1285
Древ@@ 1285
кралицата 1285
чар 1285
чувство 1285
шотланд@@ 1285
Лондон@@ 1284
После 1284
Сандански 1284
почва 1284
тълку@@ 1284
човечеството 1284
Къщата 1283
Ов@@ 1283
анда 1283
значимите 1283
поръчка 1283
преглед 1283
сръбските 1283
Мно@@ 1282
андар@@ 1282
богатите 1282
гън 1282
институция 1282
македонските 1282
негати@@ 1282
полето 1282
получат 1282
северното 1282
тюрк@@ 1282
101 1281
АС@@ 1281
Пенсилвания 1281
академик 1281
визия 1281
звукозапис@@ 1281
намаля@@ 1281
проведен 1281
бестселъри 1280
добив 1280
доказва 1280
лник 1280
направят 1280
Проек@@ 1279
американците 1279
варират 1279
гражданската 1279
инженерство 1279
мая 1279
научно@@ 1279
предизвикват 1279
хори@@ 1279
Кейм@@ 1278
Мур@@ 1278
изкопа@@ 1278
1815 1277
Черномо@@ 1277
главнокомандващ 1277
едър 1277
подписват 1277
родени 1277
старо 1277
физиката 1277
In 1276
дой@@ 1276
православни 1276
съставени 1276
f 1275
le@@ 1275
oph@@ 1275
Йемен 1275
Опреде@@ 1275
боговете 1275
бу 1275
говори@@ 1275
джо@@ 1275
ловата 1275
метеоро@@ 1275
продължа@@ 1275
царя 1275
ял@@ 1275
Възможно 1274
Гюнтер 1274
Катрин 1274
Мя@@ 1274
Чад 1274
задържа 1274
прате@@ 1274
тол@@ 1274
фикси@@ 1274
цвета 1274
01 1273
Бак@@ 1273
Рав@@ 1273
Ранен 1273
Теодора 1273
взаимно 1273
дисциплини 1273
моз@@ 1273
ниц 1273
паси@@ 1273
ринген 1273
сбир@@ 1273
специфични 1273
Българско 1272
Върху 1272
Нейният 1272
възприема 1272
тежи 1272
фир@@ 1272
щения 1272
1831 1271
ЗИП 1271
мле@@ 1271
мнения 1271
него@@ 1271
оранже@@ 1271
родната 1271
1812 1270
Дължина 1270
Ливан 1270
данък 1270
етническа 1270
жител 1270
подразделения 1270
упа@@ 1270
Блан@@ 1269
воля 1269
възникват 1269
живеещи 1269
изобра@@ 1269
мисте@@ 1269
църковна 1269
Августа 1268
блат@@ 1268
жал@@ 1268
мега@@ 1268
ръст 1268
чук 1268
Води 1267
Марина 1267
Преми@@ 1267
Форт 1267
зирането 1267
почивка 1267
сието 1267
28@@ 1266
манастирът 1266
мож@@ 1266
поглед 1266
софтуер@@ 1266
хли@@ 1266
1835 1265
Опит@@ 1265
Солунската 1265
бути@@ 1265
дари 1265
дент 1265
клетка 1265
сезо@@ 1265
финансите 1265
цит@@ 1265
Дупница 1264
Уест 1264
ивица 1264
пустинята 1264
Грай@@ 1263
МВР 1263
адаптация 1263
бей@@ 1263
боже@@ 1263
взаимодействие 1263
индиви@@ 1263
многобройните 1263
подре@@ 1263
строителни 1263
удовлетво@@ 1263
Валерий 1262
крайните 1262
обще@@ 1262
окси@@ 1262
осигу@@ 1262
сек 1262
хот@@ 1262
шампиони 1262
1829 1261
My 1261
Бургундия 1261
Вилхел@@ 1261
Изи@@ 1261
Ти 1261
борн 1261
венството 1261
обикол@@ 1261
пите@@ 1261
подредени 1261
ura 1260
Бене@@ 1260
вклю@@ 1260
законо@@ 1260
конвен@@ 1260
отдавна 1260
оттеглят 1260
тест 1260
Хил 1259
вното 1259
връзките 1259
идването 1259
родните 1259
хърватски 1259
Гран@@ 1258
археоло@@ 1258
забранява 1258
ктивен 1258
мач@@ 1258
разработването 1258
стомана 1258
таря 1258
туристи 1258
вката 1257
глаго@@ 1257
денец 1257
кю@@ 1257
лиде@@ 1257
мигра@@ 1257
08 1256
Стър@@ 1256
Хората 1256
намаляваща 1256
отглеждане 1256
политан@@ 1256
турското 1256
Киргиз@@ 1255
Фау@@ 1255
бестселър 1255
инцидент 1255
лодки 1255
млрд. 1255
пасища 1255
програми@@ 1255
специализирани 1255
чила 1255
240 1254
Малави 1254
СО@@ 1254
Сенегал 1254
Ювентус 1254
ей@@ 1254
липсва 1254
незабавно 1254
нужди 1254
бъри 1253
вериги 1253
изненад@@ 1253
историческия 1253
разв@@ 1253
знания 1252
кад@@ 1252
нинг 1252
регу@@ 1252
07 1251
Брон@@ 1251
Дармщат 1251
Обо@@ 1251
Територията 1251
бак@@ 1251
въдството 1251
изпълнени 1251
насла@@ 1251
фект 1251
целу@@ 1251
Лудогорец 1250
промените 1250
риален 1250
спада 1250
усил@@ 1250
хорн 1250
Куин@@ 1249
Мила@@ 1249
бургграф 1249
валд 1249
гарнизон 1249
официалната 1249
родна 1249
сал@@ 1249
строго 1249
тракийски 1249
ДНК 1248
Образу@@ 1248
Страсбург 1248
атия 1248
води@@ 1248
външния 1248
древногръцката 1248
здраве@@ 1248
цион@@ 1248
Кирхберг 1247
Стри@@ 1247
предложението 1247
прозра@@ 1247
равен 1247
разрушена 1247
езе@@ 1246
лязъл 1246
османското 1246
присъда 1246
телно 1246
Ивоар 1245
Педро 1245
Тях@@ 1245
Фернандо 1245
арски 1245
бронзов 1245
изтък@@ 1245
крепости 1245
тта 1245
хет@@ 1245
шах@@ 1245
щер@@ 1245
Кара 1244
вътрешно 1244
змия 1244
понятие 1244
инфра@@ 1243
комисията 1243
лоя@@ 1243
нейно 1243
перка 1243
разграни@@ 1243
способни 1243
татор 1243
1855 1242
29@@ 1242
Лон@@ 1242
запъл@@ 1242
идеологи@@ 1242
ними 1242
съществено 1242
телите 1242
Исторически 1241
враже@@ 1241
въведен 1241
горния 1241
инфраструктура 1241
кцията 1241
стиче@@ 1241
стова 1241
титуляр 1241
eus 1240
АС 1240
Накрая 1240
Стен@@ 1240
мину@@ 1240
народната 1240
полица@@ 1240
риална 1240
сани@@ 1240
стигне 1240
съвмести@@ 1240
цио 1240
ядро 1240
Сам@@ 1239
затрудне@@ 1239
изпита@@ 1239
младо@@ 1239
огромно 1239
потомци 1239
север@@ 1239
съотбор@@ 1239
тили 1239
товите 1239
Воде@@ 1238
Колорадо 1238
Фра@@ 1238
кадри 1238
природен 1238
сватбата 1238
Карл@@ 1237
Продължител@@ 1237
Сон@@ 1237
бара@@ 1237
кост@@ 1237
кости 1237
кухня 1237
менно 1237
съобраз@@ 1237
употреб@@ 1237
фрак@@ 1237
храните@@ 1237
Йон@@ 1236
бло 1236
знамени@@ 1236
плановете 1236
субтропи@@ 1236
фондация 1236
06 1235
Рен@@ 1235
защитена 1235
знаме@@ 1235
менена 1235
позициите 1235
убеждава 1235
фаса@@ 1235
Ренесан@@ 1234
артилерията 1234
блата 1234
ирланд@@ 1234
попад@@ 1234
разстоянието 1234
адре@@ 1233
вай 1233
градчето 1233
дублаж 1233
открие 1233
резо@@ 1233
хуманитар@@ 1233
Външни 1232
Чове@@ 1232
антрополо@@ 1232
глобал@@ 1232
избягва 1232
прекъсва 1232
стадиона 1232
статус 1232
театрална 1232
Константинов 1231
Попо@@ 1231
Съветът 1231
Тирол 1231
Щип 1231
магне@@ 1231
намираща 1231
фур@@ 1231
вътрешна 1230
критици 1230
теку@@ 1230
Зай@@ 1229
Малки 1229
Хру@@ 1229
етническата 1229
изобщо 1229
необ@@ 1229
фило@@ 1229
хижа 1229
Държавен 1228
Разпростра@@ 1228
котлови@@ 1228
монаше@@ 1228
напр. 1228
проведе 1228
рифове 1228
способности 1228
унд 1228
църковни 1228
Бистрица 1227
Рю@@ 1227
държавния 1227
екран 1227
крайцерът 1227
прека@@ 1227
разно@@ 1227
техническо 1227
функциите 1227
Саар@@ 1226
Славей@@ 1226
освобождаването 1226
пожа@@ 1226
− 1226
1852 1225
ждавайки 1225
лда 1225
лево 1225
научните 1225
отнема 1225
предше@@ 1225
1845 1224
Cor@@ 1224
Тя@@ 1224
византийския 1224
ляването 1224
мови 1224
посве@@ 1224
страница 1224
шов 1224
Херцогство 1223
вуд 1223
изследването 1223
късния 1223
обвинения 1223
покривка 1223
1828 1222
Съю@@ 1222
зат 1222
обикновен 1222
риана 1222
Лимбург 1221
великия 1221
запазват 1221
знанието 1221
низиран 1221
спомени 1221
съкратено 1221
франк@@ 1221
хали@@ 1221
Ебер@@ 1220
коне@@ 1220
концепцията 1220
линкори 1220
пит 1220
роднини 1220
съпротивата 1220
токла@@ 1220
Ой@@ 1219
Стеф@@ 1219
магазини 1219
ориенти@@ 1219
стни 1219
тическо 1219
фолклор 1219
Илинойс 1218
ените 1218
кве@@ 1218
конг 1218
предоставят 1218
съсредото@@ 1218
хребета 1218
цветовете 1218
Арнолд 1217
Епир 1217
Тради@@ 1217
възви@@ 1217
въздушна 1217
кутия 1217
мрамор@@ 1217
мюзи@@ 1217
необходимостта 1217
орел 1217
смес 1217
спътник 1217
Гръ@@ 1216
Флавий 1216
вене 1216
задово@@ 1216
кабинет 1216
сето 1216
твърдо 1216
терито@@ 1216
ута 1216
ССР 1215
гарт 1215
железопътната 1215
ит 1215
композиции 1215
минг 1215
правен 1215
преименува 1215
разработката 1215
участвал 1215
матизи@@ 1214
новска 1214
оттогава 1214
репу@@ 1214
сдорф 1214
стък@@ 1214
тясна 1214
Кенеди 1213
Литекс 1213
въздушните 1213
гиня 1213
ейки 1213
ког@@ 1213
линни 1213
отвори 1213
писание 1213
повишаване 1213
разследване 1213
рангли@@ 1213
растителни 1213
стрем@@ 1213
чай@@ 1213
Леоне 1212
американското 1212
животно 1212
казате@@ 1212
образци 1212
отличен 1212
отте@@ 1212
полезни 1212
протести 1212
работена 1212
речни 1212
стващи 1212
характерна 1212
w@@ 1211
Основен 1211
Самоков 1211
Среден 1211
кинс 1211
показате@@ 1211
ректор 1211
спомагате@@ 1211
спуска 1211
фестивали 1211
Веднага 1210
Григор 1210
Музеят 1210
горо@@ 1210
еги@@ 1210
изтла@@ 1210
искане 1210
обединяват 1210
персона@@ 1210
платото 1210
семина@@ 1210
черта 1210
Африкан@@ 1209
Корне@@ 1209
Пере@@ 1209
Университе@@ 1209
вика@@ 1209
висшето 1209
жата 1209
кълбо 1209
лаборатория 1209
правени 1209
тив 1209
Гради@@ 1208
Хене@@ 1208
анге@@ 1208
женската 1208
ники 1208
противоречи@@ 1208
скане 1208
традицията 1208
Col@@ 1207
Гей@@ 1207
Младеж@@ 1207
Пай@@ 1207
атите 1207
възстановен 1207
дското 1207
заболяването 1207
заповядва 1207
овце 1207
около@@ 1207
Висшата 1206
Фландрия 1206
икономическата 1206
мало 1206
някакъв 1206
оставят 1206
фелдмаршал 1206
Скор@@ 1205
боеве 1205
борът 1205
корабостроител@@ 1205
пласти@@ 1205
поручик 1205
фогт 1205
химични 1205
1820 1204
Майк 1204
Одеса 1204
Фести@@ 1204
Централен 1204
бир@@ 1204
богатство 1204
ковица 1204
площа@@ 1204
прак@@ 1204
различия 1204
4,@@ 1203
Звез@@ 1203
Ман 1203
вето@@ 1203
избе@@ 1203
магистър 1203
Re@@ 1202
Палеолог 1202
двойно 1202
заседание 1202
надписи 1202
плаща 1202
френското 1202
Кюстенди@@ 1201
обслужва 1201
събитието 1201
съществувала 1201
1837 1200
Гур@@ 1200
Петка 1200
Фан@@ 1200
включващ 1200
днешната 1200
занимават 1200
истината 1200
мачовете 1200
намали 1200
писанието 1200
покрит 1200
предизвикате@@ 1200
т.@@ 1200
трасето 1200
цене@@ 1200
шведски 1200
Акть@@ 1199
Екс@@ 1199
Закон 1199
Островът 1199
Уилсън 1199
гей@@ 1199
цветя 1199
one 1198
мохаме@@ 1198
отнася@@ 1198
сори 1198
старта 1198
атмосфера 1197
готите 1197
дание 1197
конкур@@ 1197
крите@@ 1197
напу@@ 1197
рая 1197
революцията 1197
стките 1197
Почи@@ 1196
гач 1196
геометри@@ 1196
звездите 1196
историко 1196
правомо@@ 1196
Стопан@@ 1195
администрацията 1195
законите 1195
изграждат 1195
моди@@ 1195
преговорите 1195
My@@ 1194
НИ@@ 1194
гал@@ 1194
добавят 1194
заря@@ 1194
машин@@ 1194
опозиция 1194
сана 1194
1814 1193
Кристо@@ 1193
ждана 1193
загина@@ 1193
започна 1193
ограничава 1193
правни 1193
Еки@@ 1192
Желез@@ 1192
Клуб 1192
Поме@@ 1192
арестувани 1192
заловен 1192
лиан 1192
листите 1192
нанася 1192
оформя 1192
служил 1192
хребе@@ 1192
Операция 1191
горните 1191
костур@@ 1191
общества 1191
свето@@ 1191
сио 1191
счит@@ 1191
трудности 1191
хем@@ 1191
Езерото 1190
Импе@@ 1190
Общото 1190
биографи@@ 1190
изложени 1190
имението 1190
лете 1190
мнението 1190
ог@@ 1190
пят 1190
форт 1190
1847 1189
STS 1189
Ака@@ 1189
Бог@@ 1189
Боян 1189
дзи@@ 1189
древен 1189
настав@@ 1189
професия 1189
дват 1188
класове 1188
нима@@ 1188
примирие 1188
проблема 1188
християнско 1188
Крим 1187
Мали 1187
гено@@ 1187
дама 1187
живели 1187
зането 1187
номера 1187
отбележи 1187
практиката 1187
спеди@@ 1187
южното 1187
Сръбска 1186
внучка 1186
навлизат 1186
образуване 1186
уеб@@ 1186
хектара 1186
to@@ 1185
Павлов 1185
Чет@@ 1185
критиците 1185
наложи 1185
нея@@ 1185
1841 1184
Варшав@@ 1184
РП 1184
Сяр@@ 1184
вход@@ 1184
добрата 1184
средни 1184
Алпи 1183
Даун 1183
Индийския 1183
единствения 1183
загиналите 1183
момчета 1183
обстоятелства 1183
предназначен 1183
пренебре@@ 1183
трафи@@ 1183
шах 1183
152 1182
220 1182
Бела 1182
Зондер@@ 1182
Кукуш 1182
автен@@ 1182
веца 1182
възстановена 1182
доказателство 1182
поглъ@@ 1182
пот 1182
прохода 1182
ску 1182
съставено 1182
Балтийско 1181
възобнов@@ 1181
гърците 1181
задната 1181
изменения 1181
легенди 1181
местообита@@ 1181
старт 1181
Бурга@@ 1180
Клубът 1180
опъл@@ 1180
попъл@@ 1180
разказа 1180
разпределение 1180
секун@@ 1180
хармония 1180
Архангел 1179
Сфорца 1179
Шьонбург 1179
желяз@@ 1179
исто@@ 1179
комерси@@ 1179
монархия 1179
ползване 1179
танцу@@ 1179
Цвай@@ 1178
вината 1178
значими 1178
красива 1178
международния 1178
поемат 1178
помещава 1178
появи@@ 1178
представянето 1178
прояви 1178
танкове 1178
тег@@ 1178
Коре@@ 1177
Револю@@ 1177
влак 1177
камъ@@ 1177
мут 1177
намиращи 1177
наподобя@@ 1177
подобрява 1177
ръчно 1177
спокой@@ 1177
Вави@@ 1176
Калифорни@@ 1176
Нюрнберг 1176
Партията 1176
Провинции 1176
Третия 1176
Юриди@@ 1176
венециан@@ 1176
излиза@@ 1176
мисля 1176
опашката 1176
основание 1176
проток 1176
фони 1176
БСП 1175
Еге@@ 1175
атрак@@ 1175
дява 1175
еко@@ 1175
класификация 1175
ранния 1175
скулптура 1175
спортове 1175
тей@@ 1175
юби@@ 1175
TV 1174
Джузепе 1174
Опа@@ 1174
Теса@@ 1174
денци 1174
епископ@@ 1174
зет 1174
кратка 1174
осно@@ 1174
програ@@ 1174
топло@@ 1174
Източници 1173
враг 1173
затворени 1173
изучаването 1173
испанската 1173
комите@@ 1173
линкора 1173
мените 1173
тесни 1173
​ 1173
Театър 1172
градските 1172
жове 1172
композирана 1172
нели 1172
похо@@ 1172
риск 1172
скват 1172
учения 1172
шима 1172
Алфонсо 1171
Висшия 1171
Гот@@ 1171
Националният 1171
Отде@@ 1171
Стади@@ 1171
жак 1171
традиционни 1171
цизма 1171
Тиберий 1170
биология 1170
какъв 1170
партизани 1170
същества 1170
феода@@ 1170
ът@@ 1170
Ети@@ 1169
ОО@@ 1169
Фило@@ 1169
изпълни 1169
марката 1169
мюсюл@@ 1169
образи 1169
рациона@@ 1169
рити 1169
скалите 1169
следовате@@ 1169
цигани 1169
Долни 1168
Стои@@ 1168
Челси 1168
идва@@ 1168
късно@@ 1168
телство 1168
установено 1168
физик 1168
Клу@@ 1167
Морис 1167
Осе@@ 1167
Царе@@ 1167
авиа@@ 1167
вателна 1167
изискванията 1167
колона 1167
повтар@@ 1167
рог 1167
стъкло 1167
Библиоте@@ 1166
Загреб 1166
Монте 1166
Сиг@@ 1166
Ще@@ 1166
гю@@ 1166
сръбска 1166
шанс 1166
International 1165
Болоня 1165
Вселенската 1165
Марио 1165
бог@@ 1165
ерите 1165
икона 1165
кораб@@ 1165
предишния 1165
съставля@@ 1165
Бел 1164
Габон 1164
Копривщица 1164
Синът 1164
апарата 1164
ватели 1164
достъпни 1164
зът 1164
критикува 1164
лози 1164
мъртно 1164
народното 1164
носец 1164
оста 1164
0,5 1163
Стати@@ 1163
епархията 1163
навсякъде 1163
поря@@ 1163
престой 1163
топка 1163
Mar@@ 1162
Големият 1162
ТА 1162
Таймс 1162
брия 1162
докто@@ 1162
енец 1162
ловете 1162
минген 1162
осу@@ 1162
пил 1162
постигане 1162
соции@@ 1162
църковно 1162
da 1161
Буда 1161
Каспи@@ 1161
Кларк 1161
Млади 1161
Ок@@ 1161
въплъ@@ 1161
завръщат 1161
как@@ 1161
понастоящем 1161
препоръчва 1161
приходи 1161
продуцент@@ 1161
произво@@ 1161
скалата 1161
Берн@@ 1160
Перси@@ 1160
Родителите 1160
Том@@ 1160
Чър@@ 1160
движ@@ 1160
обединението 1160
обмен 1160
пиеса 1160
потенциал 1160
щети 1160
1851 1159
Ваймар 1159
Фак@@ 1159
Шей@@ 1159
жерт@@ 1159
личното 1159
отначало 1159
придоб@@ 1159
расли 1159
ственост 1159
хай 1159
боен 1158
дора 1158
ир 1158
робо@@ 1158
5,@@ 1157
Дълго@@ 1157
Московския 1157
Праз@@ 1157
географската 1157
издигат 1157
контин@@ 1157
откра@@ 1157
поеме 1157
студи@@ 1157
съответства 1157
търговско 1157
цару@@ 1157
Авгу@@ 1156
Гран 1156
Търнов@@ 1156
автомобила 1156
гористи 1156
преобладават 1156
принуд@@ 1156
японските 1156
Добри 1155
Широ@@ 1155
бюджет 1155
галакти@@ 1155
душата 1155
какви 1155
моменти 1155
ографи@@ 1155
отмен@@ 1155
пиро@@ 1155
работниците 1155
социа@@ 1155
станало 1155
съвпада 1155
дана 1154
оглед 1154
светилище 1154
ув@@ 1154
хипо@@ 1154
шили 1154
1844 1153
Джейн 1153
Транспорт 1153
мити@@ 1153
натиска 1153
оператор 1153
следната 1153
слънцето 1153
съв@@ 1153
улици 1153
ядрото 1153
Z 1152
врагове 1152
завладява 1152
изри@@ 1152
поредни 1152
продукцията 1152
стиму@@ 1152
тестове 1152
1846 1151
360 1151
Примери 1151
алкохол 1151
братство 1151
губ@@ 1151
нидерланд@@ 1151
отговаря@@ 1151
пън@@ 1151
ходни 1151
6000 1150
Октавиан 1150
сборника 1150
сбур@@ 1150
сложна 1150
спре@@ 1150
трея 1150
юта 1150
Златна 1149
Комунистиче@@ 1149
бела@@ 1149
болшеви@@ 1149
гит@@ 1149
итер 1149
пехота 1149
подписването 1149
провинци@@ 1149
ранното 1149
рената 1149
сме 1149
турби@@ 1149
цир@@ 1149
ІІІ 1148
Арсенал 1148
Артур 1148
геров 1148
заменени 1148
икономическите 1148
напояване 1148
поражението 1148
призе@@ 1148
пътуването 1148
убийства 1148
Смърт 1147
купол 1147
лаг 1147
писал 1147
чански 1147
03 1146
Армен@@ 1146
Занима@@ 1146
Септември 1146
измест@@ 1146
испанците 1146
купол@@ 1146
обвър@@ 1146
предпочита 1146
театрален 1146
чести 1146
ar 1145
Йоси@@ 1145
Сми@@ 1145
адата 1145
графи 1145
грешки 1145
движат 1145
пай@@ 1145
равнове@@ 1145
ризма 1145
цари 1145
четвъртият 1145
1836 1144
Амстердам 1144
Доктор 1144
Ж 1144
Пь@@ 1144
гова 1144
гран@@ 1144
денти 1144
ждали 1144
каже 1144
късометра@@ 1144
ландия 1144
опла@@ 1144
пласт@@ 1144
предшественик 1144
резервата 1144
финансиране 1144
Дву@@ 1143
Лит@@ 1143
Наградата 1143
Узу@@ 1143
Чав@@ 1143
копри@@ 1143
литра 1143
натовар@@ 1143
обвинен 1143
числения 1143
Никифор 1142
кали 1142
континент 1142
обит@@ 1142
пфалцграф 1142
съставя 1142
хели@@ 1142
астеро@@ 1141
видеокли@@ 1141
вицепрезидент 1141
еднак@@ 1141
рой 1141
спас@@ 1141
Команд@@ 1140
Нейната 1140
анализа 1140
католическа 1140
летището 1140
пространства 1140
сване 1140
цен 1140
Зимбабве 1139
Комитета 1139
МО@@ 1139
Нил 1139
Скопския 1139
интерв@@ 1139
короната 1139
оръдей@@ 1139
студентите 1139
факул@@ 1139
чели 1139
чиев 1139
Евро 1138
НР 1138
Патрик 1138
Пламен 1138
Юр@@ 1138
легат 1138
разузна@@ 1138
фактически 1138
lidae 1137
Колев 1137
Ун@@ 1137
кръгла 1137
маршру@@ 1137
обявяването 1137
Live 1136
Залм 1136
свален 1136
трупа 1136
цър@@ 1136
Индиана 1135
Нер@@ 1135
Орегон 1135
донася 1135
нител 1135
сика 1135
стратегически 1135
сушата 1135
Бата@@ 1134
Грей@@ 1134
Драмати@@ 1134
Здра@@ 1134
Зевс 1134
каса@@ 1134
онер@@ 1134
пие@@ 1134
руда 1134
сала 1134
сребърни 1134
строят 1134
ця@@ 1134
Вор@@ 1133
Ръко@@ 1133
Узбекистан 1133
жието 1133
начина@@ 1133
оте@@ 1133
ig@@ 1132
Вати@@ 1132
Вет@@ 1132
Сул@@ 1132
ателите 1132
екипа@@ 1132
монархи@@ 1132
Гней 1131
Създадена 1131
безопасност 1131
извест@@ 1131
планета 1131
схе@@ 1131
героя 1130
игло@@ 1130
изобразява 1130
ларов 1130
посещават 1130
съща 1130
ядрени 1130
Q@@ 1129
Уа@@ 1129
въл 1129
кралството 1129
претор 1129
стван 1129
Валентин 1128
започнал 1128
максимум 1128
обстановка 1128
прокурор 1128
рополи@@ 1128
смет@@ 1128
френско 1128
хождат 1128
цита@@ 1128
Bo@@ 1127
ДС 1127
Следовате@@ 1127
ТК@@ 1127
брат@@ 1127
постановки 1127
проза 1127
7,@@ 1126
Мра@@ 1126
Районът 1126
Сатурн 1126
йм 1126
механика 1126
пулос 1126
серий@@ 1126
шум 1126
1400 1125
Тома@@ 1125
американско 1125
конструк@@ 1125
принадлежност 1125
роза 1125
численост 1125
чъл 1125
ьон@@ 1125
Ая@@ 1124
Второто 1124
Чарли 1124
категорията 1124
поканен 1124
постройка 1124
строени 1124
цлав 1124
8,@@ 1123
Люнебург 1123
Социалистическа 1122
бизнеса 1122
дас 1122
зема 1122
каз 1122
странен 1122
1792 1121
2500 1121
ops 1121
Оператор 1121
Паи@@ 1121
арт 1121
международното 1121
наблю@@ 1121
чудови@@ 1121
готов 1120
размера 1120
Нел@@ 1119
Позна@@ 1119
изискват 1119
коп 1119
мнозина 1119
отбор@@ 1119
CD 1118
Върхов@@ 1118
Есте 1118
Сената 1118
Тур 1118
бои 1118
катедра@@ 1118
пазари 1118
сив@@ 1118
ed 1117
Производ@@ 1117
Фир@@ 1117
блус 1117
зовава 1117
компро@@ 1117
лим@@ 1117
мония 1117
Буш 1116
Фриде@@ 1116
деш 1116
душен 1116
пау@@ 1116
ями 1116
J 1115
дистан@@ 1115
залож@@ 1115
патрио@@ 1115
писто@@ 1115
подпоручик 1115
слов 1115
телефон@@ 1115
Анда@@ 1114
Висшето 1114
Райх@@ 1114
брон@@ 1114
длъжности 1114
ланка 1114
океана 1114
прах 1114
сребро 1114
Берг 1113
Надежда 1113
Оста@@ 1113
Спас 1113
Теат@@ 1113
желае 1113
журналистика 1113
площадка 1113
постройки 1113
снение 1113
туберку@@ 1113
Зон@@ 1112
Клю@@ 1112
Лор@@ 1112
Птолемей 1112
жилища 1112
заем@@ 1112
лице@@ 1112
пон@@ 1112
смарк 1112
ci@@ 1111
йв 1111
коали@@ 1111
машино@@ 1111
рока 1111
семена 1111
скорост@@ 1111
ale 1110
Балти@@ 1110
ГДР 1110
лее 1110
Андроник 1109
бате@@ 1109
орна@@ 1109
der 1108
Ахмед 1108
СВ 1108
врий@@ 1108
последователи 1108
репер@@ 1108
юноши 1108
дили 1107
мено 1107
спонсо@@ 1107
тъм@@ 1107
Агри@@ 1106
предска@@ 1106
сюжета 1106
феде@@ 1106
цент 1106
мане 1105
омъ@@ 1105
учат 1105
юно@@ 1105
язовира 1105
4,5 1104
Tour 1104
Плу@@ 1104
Хенри@@ 1104
берг@@ 1104
демонстра@@ 1104
лук@@ 1104
напис@@ 1104
отпадъ@@ 1104
програм@@ 1104
Вене@@ 1103
Венера 1103
Пекин 1103
Персия 1103
Провин@@ 1103
Шпи@@ 1103
вели 1103
майму@@ 1103
страда@@ 1103
чай 1103
вада 1102
впечатля@@ 1102
гарни@@ 1102
кона 1102
предате@@ 1102
Анастасия 1101
Ахе@@ 1101
гей 1101
изложение 1101
нера@@ 1101
Борисов 1100
Йоахим 1100
Наум 1100
ing@@ 1099
Волга 1099
Жана 1099
архе@@ 1099
завеща@@ 1099
заряд 1099
летате@@ 1099
рето 1099
чино 1099
шу 1099
odon 1098
Бруно 1098
Мало@@ 1098
Рок@@ 1098
ад 1098
кафе 1098
ряд@@ 1098
Яков 1097
дарения 1097
набе@@ 1097
сру@@ 1097
статуя 1097
Мустафа 1096
Поч@@ 1096
Тау@@ 1096
национал 1096
представления 1096
тун@@ 1096
Бога 1095
Хайн@@ 1095
лорд 1095
снато 1095
стипендия 1095
строител@@ 1095
eri 1094
безу@@ 1094
могли 1094
монумента@@ 1094
музикан@@ 1094
прене@@ 1094
приемник 1094
Алекс 1093
Вайсен@@ 1093
Маркс 1093
Рене 1093
Юлиана 1093
етна@@ 1093
конфи@@ 1093
правну@@ 1093
сь@@ 1093
1839 1092
1843 1092
костю@@ 1092
лона 1092
разстоя@@ 1092
арка 1091
гвардия 1091
диоксид 1091
люс 1091
поколения 1091
it 1090
Дек@@ 1090
Мара@@ 1090
боя@@ 1090
календар@@ 1090
ad@@ 1089
БН@@ 1089
мак 1089
нус 1089
ово@@ 1089
пробле@@ 1089
хоф 1089
шести 1089
Тереза 1088
бела 1088
жре@@ 1088
ситуации 1088
тизма 1088
Гранд 1087
Лацио 1087
Пене@@ 1087
Руска 1087
внимате@@ 1087
коно@@ 1087
нек 1087
спла@@ 1087
Кук 1086
Мори@@ 1086
носите@@ 1086
тера 1086
учение 1086
ходя@@ 1086
Обу@@ 1085
апара@@ 1085
тенберг 1085
фланг 1085
Андре 1084
ГЕ@@ 1084
Наци@@ 1084
защите@@ 1084
рея 1084
Пик@@ 1083
Тоскана 1083
лък 1083
разбо@@ 1083
фундамента@@ 1083
Иванова 1082
Херцо@@ 1082
мембра@@ 1082
co@@ 1081
Каледония 1081
Разработ@@ 1081
Сва@@ 1081
Суринам 1081
психиат@@ 1081
хим 1081
106 1080
вера 1080
гове@@ 1080
медици@@ 1080
СК 1079
жили 1079
жица 1079
ся 1079
Боле@@ 1078
Типи@@ 1078
видео@@ 1078
лога 1078
носен 1078
рона 1078
Иск@@ 1077
Камен@@ 1077
снима@@ 1077
Y 1076
Димитров@@ 1076
Зан@@ 1076
КП@@ 1076
Рой@@ 1076
бив@@ 1076
пун@@ 1076
хва 1076
зал 1075
миниат@@ 1075
фраг@@ 1075
атмосфер@@ 1074
царица 1074
акт@@ 1073
артист 1073
бла 1073
мово 1073
нитет 1073
сценари@@ 1073
280 1072
запом@@ 1072
палата 1072
Шве@@ 1071
клуб@@ 1071
космо@@ 1071
проро@@ 1071
цилиндри@@ 1071
am 1070
onidae 1070
Оде@@ 1070
Спар@@ 1070
ату 1070
дисциплина 1070
опо@@ 1070
сате@@ 1070
серви@@ 1070
Поло@@ 1069
Самар@@ 1069
Сор@@ 1069
движе@@ 1069
ела@@ 1069
загла@@ 1069
мания 1069
минимум 1069
нака@@ 1069
неа@@ 1069
стратегия 1069
тексти@@ 1069
хин 1069
шахмат 1069
шила 1069
Ac@@ 1068
Рено 1068
Чин@@ 1068
Шекспир 1068
вос@@ 1068
ter@@ 1067
псевдо@@ 1067
фат@@ 1067
.д. 1066
opus 1066
Чита@@ 1066
делегация 1066
живя@@ 1066
корен@@ 1066
лейман 1066
боеприпа@@ 1065
поклон@@ 1065
равнин@@ 1065
сков@@ 1065
Бундеслига 1064
Дио@@ 1064
Награ@@ 1064
дола@@ 1064
заим@@ 1064
увеличе@@ 1064
шал 1064
One 1063
Бари 1063
Сме@@ 1063
Фели@@ 1063
близка 1063
плит@@ 1063
резиден@@ 1063
Освобо@@ 1062
м. 1062
партий@@ 1062
сман 1062
Джан@@ 1061
Музей 1061
Фул@@ 1061
майсто@@ 1061
шина 1061
Философ@@ 1060
Франсис 1060
завода 1060
мине@@ 1060
прите@@ 1060
тано 1060
Конститу@@ 1059
Марк@@ 1059
адрес 1059
баскетбо@@ 1059
завод@@ 1059
Феликс 1058
дето 1058
жити@@ 1058
оти 1058
Цер@@ 1057
кология 1057
ri@@ 1056
автоном@@ 1056
поправ@@ 1056
1818 1055
ab@@ 1055
Кау@@ 1055
етро 1055
тали@@ 1055
Копен@@ 1054
Миро@@ 1054
атив@@ 1054
величина 1054
помещение 1054
чили 1054
жества 1053
персонал 1053
прими@@ 1053
1832 1052
Бос@@ 1052
Стандар@@ 1052
Стив 1052
гати 1052
огне@@ 1052
Ленинград 1051
МКС 1051
Орден 1051
наличие 1051
освобождение 1051
покой@@ 1051
вак 1050
единство 1050
стици@@ 1050
съсредо@@ 1050
формула 1050
1838 1049
допуска 1049
сезон@@ 1049
скре@@ 1049
1834 1048
par@@ 1048
Евре@@ 1048
Уил@@ 1048
волейбол 1048
сбах 1048
скло@@ 1048
авторите@@ 1047
архипелага 1047
зий 1047
талант 1047
Дай@@ 1046
департамента 1046
резул@@ 1046
салон 1046
02 1045
Рад@@ 1045
Силезия 1045
можен 1045
химически 1045
шахмат@@ 1045
шести@@ 1045
Вестер@@ 1044
Топ 1044
Фиджи 1044
анто@@ 1044
мари@@ 1044
чате@@ 1044
ber@@ 1043
Ски@@ 1043
кий 1043
прекрат@@ 1043
снен@@ 1043
формули@@ 1043
Клод 1042
митрополи@@ 1042
радиа@@ 1042
суша 1042
Как@@ 1041
гроб 1041
кок 1041
лю 1041
мук 1041
тии 1041
трофе@@ 1041
Адриан 1040
стал 1040
творчески 1040
тинген 1040
Ива@@ 1039
богосло@@ 1039
ила 1039
каните 1039
красота 1039
намерен 1039
провод 1039
.com 1038
Браун@@ 1038
Маги@@ 1038
Тал@@ 1038
вед 1038
гроба 1038
ограничено 1038
пира@@ 1038
схо@@ 1038
750 1037
безо@@ 1037
мбу@@ 1037
полуострова 1037
1810 1036
Вюр@@ 1036
ард 1036
бивши@@ 1036
института 1036
манипу@@ 1036
справедливо@@ 1036
Рос 1035
анато@@ 1035
депутат@@ 1035
Айова 1034
Мичиган 1034
мона 1034
нак@@ 1034
разгрома 1034
сив 1034
стор@@ 1034
Дж 1033
коса 1033
патру@@ 1033
счето@@ 1033
фенбю@@ 1033
34,@@ 1032
Еванге@@ 1032
Русен@@ 1032
Юн@@ 1032
борг 1032
пано@@ 1032
Вила 1031
Тюрингия 1031
заговор 1031
определение 1031
ресур@@ 1031
столи@@ 1031
шек 1031
1793 1030
Настоя@@ 1030
дубли@@ 1030
освобожда@@ 1030
рим 1030
футбола 1030
наклон 1029
скал 1029
члена 1029
янов 1029
108 1028
вести@@ 1028
дки 1028
публики 1028
Того 1027
отло@@ 1027
127 1026
Гонзага 1026
гени@@ 1026
мид 1026
ова@@ 1026
пара 1026
1842 1025
Бей 1025
Хом@@ 1025
Цюрих 1025
жила 1025
кала 1025
заплат@@ 1024
модифици@@ 1024
положения 1024
йо 1023
камер@@ 1023
оре 1023
фира 1023
ВП 1022
Пело@@ 1022
Царство 1022
1.@@ 1021
Hy@@ 1021
Шара@@ 1021
дек@@ 1021
маршрут 1021
ол 1021
реда@@ 1021
свобо@@ 1021
фюр@@ 1021
Алексан@@ 1020
Смир@@ 1020
вей 1020
виц 1020
гама 1020
дея 1020
подробно 1020
прони@@ 1020
Здрав@@ 1019
консерватория 1019
нест 1019
благодар@@ 1017
зате@@ 1017
нила 1017
поези@@ 1017
покан@@ 1017
ховен 1017
Боб 1016
Зигфрид 1016
Капа@@ 1016
Клин@@ 1016
Норман@@ 1016
дник 1016
ледник 1016
Реген@@ 1015
гимнасти@@ 1015
считан 1015
ционе@@ 1015
1825 1014
Гав@@ 1014
Ленин 1014
проже@@ 1014
Построена 1013
акть@@ 1013
кампании 1013
предлага@@ 1013
сали@@ 1013
1100 1012
Баба 1012
вземан@@ 1012
едино@@ 1012
мба 1012
спект 1012
тематика 1012
яния 1012
All 1011
didae 1011
пети@@ 1011
спи 1011
Порт 1010
анти 1010
впечатление 1010
кош@@ 1010
лайн 1010
модернизация 1010
1822 1009
Хара@@ 1009
ежедне@@ 1009
кономиче@@ 1009
н. 1009
резултат@@ 1009
св@@ 1009
характерно 1009
Ди 1008
Музи@@ 1008
логично 1008
номе@@ 1008
среди@@ 1008
танц@@ 1008
фри 1008
190 1007
кой@@ 1007
конден@@ 1007
плов@@ 1007
случи@@ 1007
францу@@ 1007
Шер@@ 1006
дун 1006
изобретате@@ 1006
педагог 1006
финансов 1006
флаг 1006
хаус 1006
Life 1005
автобиографи@@ 1005
банки 1005
навига@@ 1005
регистра@@ 1005
силия 1005
1813 1004
други@@ 1004
описан 1004
Бле@@ 1003
Ли 1003
жина 1003
отделения 1003
провин@@ 1003
урба@@ 1003
чица 1003
Co@@ 1002
im@@ 1002
неприя@@ 1002
показатели 1002
прокура@@ 1002
пропове@@ 1002
шахмати@@ 1002
It 1001
Инте@@ 1001
Клуб@@ 1001
администра@@ 1001
апо@@ 1001
оформ@@ 1001
сим 1001
103 1000
Дипло@@ 1000
Католиче@@ 1000
Мориц 1000
Принц 1000
Сино@@ 1000
Южно@@ 1000
Яро@@ 1000
драв@@ 1000
одрин@@ 1000
de@@ 999
re@@ 999
ТИ@@ 999
кола@@ 999
материал@@ 999
320 998
БА@@ 998
Клау@@ 998
Лили 998
Погре@@ 998
Слав@@ 998
Соб@@ 998
чака 998
Богда@@ 997
Неа@@ 997
Шьон@@ 997
скандал 997
Реда@@ 996
второ@@ 996
ола 996
стро 996
бр 995
въд@@ 995
обсервато@@ 995
пера 995
сребър@@ 995
113@@ 994
80@@ 994
АК 994
Джим 994
Крон@@ 994
гради 994
ориентация 994
отдела 994
алгори@@ 993
каш 993
компю@@ 993
структури@@ 993
форум 993
10,@@ 992
Пя@@ 992
вои@@ 992
дало 992
ченко 992
Айрес 991
аналоги@@ 991
вез@@ 991
ношение 991
приле@@ 991
Кун@@ 990
Оригина@@ 990
Пли@@ 990
лекарства 990
мотор@@ 990
наби@@ 990
ma 989
Жорж 989
Злато@@ 989
Кора@@ 989
пион 989
Group 988
Граф 988
Доро@@ 988
Маргарет 988
Медицин@@ 988
Самуил 988
Хиро@@ 988
голове 988
канцлер 988
обстоятел@@ 988
пене 988
104 987
Учи@@ 987
затруд@@ 987
новер 987
уле@@ 987
йорк@@ 986
лио 986
работник 986
риан 986
Архитек@@ 985
Прак@@ 985
Принци@@ 985
Тринидад 985
вира 985
жия 985
незе 985
фикации 985
Дома@@ 984
Рон@@ 984
Сухо@@ 984
Тере@@ 984
нички 984
сат@@ 984
сбург@@ 984
ули 984
Секре@@ 983
вас 983
рай 983
Cal@@ 982
OS 982
блин 982
зрение 982
примити@@ 982
стон 982
V. 981
Кампания 981
бомба 981
ниста 981
комик@@ 980
Близ@@ 979
Граждан@@ 979
българ@@ 979
звука 979
зя 979
показа@@ 979
преподаватели 979
слон 979
Billboard 978
дово@@ 978
заги@@ 978
очевидно 978
странно 978
que 977
Академия 977
Хали@@ 977
гава 977
замен@@ 977
коорди@@ 977
кред@@ 977
припис@@ 977
скоп@@ 977
направления 976
степени 976
тетра@@ 976
Les 975
Аг@@ 975
гун@@ 975
измен@@ 975
пусне 975
Институт 974
Пано@@ 974
внезапно 974
рот 974
сток 974
Нигер 973
Урал 973
вик 973
дворцо@@ 973
нио 973
сюл@@ 973
финансово 973
ханд@@ 973
1789 972
per@@ 972
Леонардо 972
Сем@@ 972
Тот@@ 972
саунд@@ 972
свире@@ 972
стието 972
толе@@ 972
Бази@@ 971
Бернар@@ 971
Халки@@ 971
блестя@@ 971
мали 971
махта 971
стери@@ 971
учението 971
Мали@@ 970
зян 970
предназна@@ 970
труп@@ 970
щит 970
1795 969
Юпитер 969
кнове@@ 969
марке@@ 969
нисти@@ 969
норвеж@@ 969
чно@@ 969
кини 968
предложения 968
тенденция 968
109 967
Black 967
Дама@@ 967
бокс 967
дли 967
направил 967
пат 967
рила 967
35,@@ 966
Осо@@ 966
трак@@ 966
Mus@@ 965
ждал 965
заменена 965
строена 965
търсен@@ 965
фауна 965
язвим 965
1803 964
orum 964
лоша@@ 964
меж 964
начи@@ 964
нили 964
нома@@ 964
нта 964
обяс@@ 964
флаг@@ 964
зово 963
имение 963
коня 963
лера 963
обвиня@@ 963
религио@@ 963
Гера@@ 962
Комплек@@ 962
гство 962
нарушения 962
тернати@@ 962
хари 962
Профе@@ 961
завое@@ 961
комитета 961
престоло@@ 961
пшеница 961
урав@@ 961
фман 961
tus 960
Кили@@ 960
заведение 960
пала@@ 960
пус@@ 960
сиа@@ 960
ствола 960
128 959
per 959
Клет@@ 959
Румъ@@ 959
Стат@@ 959
архипе@@ 959
чуждестран@@ 959
1797 958
º 958
куп 958
лоу 958
нем 958
чев@@ 958
шир 958
ьой 958
Грен@@ 957
Торонто 957
демия 957
понти@@ 957
следствие 957
филосо@@ 957
Лион 956
НК 956
Наблю@@ 956
конферен@@ 956
привър@@ 956
Велич@@ 955
атов 955
джия 955
кала@@ 955
проверка 955
пропорциона@@ 955
църк@@ 955
Th@@ 954
Алабама 954
Гел@@ 954
Манту@@ 954
Участник 954
горска 954
греб@@ 954
дене@@ 954
мец 954
напитки 954
основополож@@ 954
увеличение 954
Barbus 953
Ред 953
Рона@@ 953
даря 953
демон@@ 953
дошли 953
предназначена 953
риз@@ 953
стройство 953
хина 953
230 952
Бон 952
Дви@@ 952
Лици@@ 952
Орле@@ 952
Путин 952
Структура 952
мнозин@@ 952
предприя@@ 952
Ибра@@ 951
кандид@@ 951
транспорта 951
цензу@@ 951
1790 950
Зам@@ 950
Он@@ 950
вален@@ 950
жие 950
En@@ 949
pr@@ 949
взаим@@ 949
опери@@ 949
протест 949
рами@@ 949
Ex@@ 948
фасада 948
Sh@@ 947
гла 947
pi@@ 946
Дева 946
Лие@@ 946
Нат@@ 946
кода 946
лири@@ 946
плаз@@ 946
режиси@@ 946
Оклахома 945
зака@@ 945
un@@ 944
Лоренцо 944
авиацион@@ 944
ваку@@ 944
литур@@ 944
онов 944
преду@@ 944
пур 944
регла@@ 944
риев 944
хти@@ 944
чал 944
Di@@ 943
впа@@ 943
простран@@ 943
тас 943
Капитан 942
москов@@ 942
1819 941
ha 941
Беатри@@ 941
господство 941
индивида 941
лекси@@ 941
пенди@@ 941
родом 941
руд@@ 941
спери@@ 941
тла@@ 941
Канди@@ 940
конвенция 940
ционер 940
Люб@@ 939
ПК 939
небе@@ 939
поми@@ 939
фокуси@@ 939
107 938
j 938
us@@ 938
Алекси@@ 938
Бурун@@ 938
Канта@@ 938
Корпу@@ 938
Краков 938
Сигиз@@ 938
англо@@ 938
дуар@@ 938
Rock 937
Иде@@ 937
друго@@ 937
завладе@@ 937
обору@@ 937
разновидности 937
имен@@ 936
обще 936
Вид 935
Константино@@ 935
интерфейс 935
кине@@ 935
участъ@@ 935
Моно@@ 934
ОК 934
Особ@@ 934
допи@@ 934
екзархи@@ 934
жден 934
параз@@ 934
политиче@@ 934
счита@@ 934
1833 933
Британия 933
Император@@ 933
вариа@@ 933
провизи@@ 933
Клара 932
Хин@@ 932
поче@@ 932
1,2 931
1805 931
Бара@@ 931
Боро@@ 931
каби@@ 931
квалификация 931
мила 931
оперативно 931
офис 931
Робер 930
Соло@@ 930
руб@@ 930
статуи 930
Арена 929
Бенеди@@ 929
Мемо@@ 929
построено 929
хру@@ 929
Веле@@ 928
анг@@ 928
вати@@ 928
дано 928
дино 928
коко@@ 928
позити@@ 928
пропуска 928
пъти@@ 928
саксо@@ 928
6,@@ 927
vi@@ 927
Бун@@ 927
Жа@@ 927
Тимо@@ 927
Тюбин@@ 927
лари 927
мезо@@ 927
ске 927
Un@@ 926
te 926
Анато@@ 926
Бет@@ 926
австро 926
продукции 926
сутри@@ 926
укрепления 926
хоре@@ 926
Вану@@ 925
Корей@@ 925
Юни@@ 925
абстрак@@ 925
купола 925
лодка 925
орто@@ 925
Le@@ 924
Wrestling 924
Верса@@ 924
Дур@@ 924
Посе@@ 924
Яку@@ 924
музеи 924
снаряд 924
305 923
Сели@@ 923
бри 923
зах@@ 923
канди@@ 923
мес 923
фит@@ 923
ДП 922
Уче@@ 922
интерни@@ 922
можем 922
проведена 922
термина@@ 922
v 921
Вестфа@@ 921
комби@@ 921
паро@@ 921
строен@@ 921
Мале@@ 920
Нав@@ 920
Назна@@ 920
Таджикистан 920
Чай@@ 920
веще@@ 920
пр@@ 920
сувере@@ 920
титу@@ 920
Касти@@ 919
Кевин 919
дай@@ 919
звуко@@ 919
находи@@ 919
Java 918
Se@@ 918
Играл 918
Саксо@@ 918
анархи@@ 918
балет 918
верто@@ 918
вулкана 918
провер@@ 918
прогно@@ 918
реставри@@ 918
таун 918
цова 918
Хат@@ 917
бля@@ 917
гражда@@ 917
сети 917
уру 917
12@@ 916
36@@ 916
ula 916
Цо@@ 916
отвле@@ 916
Джона@@ 915
або@@ 915
гала 915
княгиня 915
монта@@ 915
нар. 915
науча@@ 915
оса 915
религии 915
решено 915
ринга 915
1808 914
бала@@ 914
компонент 914
наказа@@ 914
организатор 914
повядва 914
процент 914
стали 914
210 913
lu@@ 913
oma 913
Канзас 913
Роди@@ 913
варианта 913
венство 913
доста@@ 913
жд@@ 913
методи@@ 913
пнев@@ 913
проведено 913
сиро@@ 913
Геб@@ 912
мита 912
нева 912
статистиче@@ 912
банкно@@ 911
бук 911
мей 911
наместник 911
шич 911
яс 911
w 910
Бло@@ 910
енер@@ 910
зархи@@ 910
математик 910
р.@@ 910
служеб@@ 910
НА 909
Състе@@ 909
адвокат@@ 909
анка 909
колум@@ 909
палео@@ 909
таблица 909
1816 908
Лонг 908
Оди@@ 908
ожесто@@ 908
1799 907
Бод@@ 907
Патриар@@ 907
Хасан 907
Чен@@ 907
тибе@@ 907
чиновник 907
Коман@@ 906
Лука@@ 906
Рин@@ 906
гун 906
ляните 906
натри@@ 906
нера 906
сест@@ 906
бараб@@ 905
композитора 905
лане 905
логически 905
понятия 905
правед@@ 905
рез 905
соло 905
Рем@@ 904
вокали@@ 904
йнс 904
мида 904
стат@@ 904
Mon@@ 903
Рико 903
Франклин 903
хат@@ 903
1750 902
вта 902
гра 902
перифе@@ 902
първен@@ 902
хондри@@ 902
Инду@@ 901
Ирак@@ 901
Уайт 901
Филип@@ 901
аван@@ 901
диска 901
ком 901
леген@@ 901
пород@@ 901
публици@@ 901
сабон 901
40@@ 900
Гала@@ 900
Ква@@ 900
адап@@ 900
1796 899
Лод@@ 899
Саму@@ 899
Стефа@@ 899
единстве@@ 899
получили 899
стя@@ 899
текто@@ 899
шел 899
ca 898
Закон@@ 898
СС@@ 898
Скри@@ 898
ак 898
обстрел 898
прозви@@ 898
1817 897
Str@@ 897
Осман 897
Теофи@@ 897
геоде@@ 897
концентрация 897
ова 897
отказа@@ 897
патро@@ 897
покло@@ 897
ходство 897
34@@ 896
Приме@@ 896
Разви@@ 896
Установ@@ 896
аранжи@@ 896
док 896
щет 896
Аляска 895
Библи@@ 895
губерния 895
зап@@ 895
запас 895
наса@@ 895
рати@@ 895
социализма 895
Am@@ 894
Ага@@ 894
Ази@@ 894
Мур 894
Туркмени@@ 894
уи 894
Ph@@ 893
Месопота@@ 893
авторство 893
pe@@ 892
героиня 892
конструкции 892
синг@@ 892
bi@@ 891
con@@ 891
конкретно 891
радиус 891
Куз@@ 890
Моги@@ 890
Постоян@@ 890
Рома 890
оне 890
приве@@ 890
сати@@ 890
115 889
Юсти@@ 889
антарк@@ 889
инвестиции 889
темати@@ 889
Адамс 888
нарушение 888
нинген 888
прототип 888
уна 888
хре@@ 888
1826 887
Бурбон 887
Кози@@ 887
Магде@@ 887
Сина@@ 887
Скоро@@ 887
заяв@@ 887
сприн@@ 887
si 886
Топ@@ 886
кономи@@ 886
лод@@ 886
EP 885
Бору@@ 885
Ромео 885
алге@@ 885
върх@@ 885
мари 885
нестаби@@ 885
qu@@ 884
Аз@@ 884
Иисус 884
Кел@@ 884
ждите 884
лато 884
лус 884
int 883
Вследствие 883
Ники 883
бара 883
видеоклип 883
нъж 883
реклама 883
свин@@ 883
фина 883
щу@@ 883
1801 882
mo@@ 882
Люби@@ 882
напит@@ 882
непри@@ 882
обогат@@ 882
отча@@ 882
товар 882
яма 882
Apple 881
библиотеки 881
венти@@ 881
графика 881
пуска@@ 881
сол@@ 881
фоне@@ 881
1807 880
Бонапар@@ 880
Макла@@ 880
eg@@ 879
Блу@@ 879
Брен@@ 879
РК 879
Чир@@ 879
назначение 879
сур@@ 879
щие 879
яла 879
Бое@@ 878
Пие@@ 878
Противо@@ 878
Шах@@ 878
две@@ 878
Вя@@ 877
Гово@@ 877
Хир@@ 877
вит 877
дек 877
лаборато@@ 877
убед@@ 877
Аку@@ 876
Шампион@@ 876
Шон 876
англ 876
заключ@@ 876
кук@@ 876
рах 876
Построен 875
Православ@@ 875
зис 875
работо@@ 875
Пото@@ 874
Пробле@@ 874
вампи@@ 874
полуфинал 874
сирий@@ 874
скандина@@ 874
35@@ 873
Гиз@@ 873
Кап@@ 873
звания 873
кна 873
насеком@@ 873
рако@@ 873
султана 873
Ne@@ 872
ens 872
Чан@@ 872
езда@@ 872
конфигу@@ 872
пий 872
репре@@ 872
Турни@@ 871
Филипи@@ 871
архимандрит 871
нане@@ 871
проб@@ 871
слова@@ 871
Казимир 870
Литера@@ 870
Църк@@ 870
Шам@@ 870
меч 870
несение 870
характера 870
260 869
Плей@@ 869
ентъ@@ 869
климата 869
репор@@ 869
Гуан@@ 868
Мун@@ 868
хам 868
Конвен@@ 867
бактерии 867
веков@@ 867
стройка 867
550 866
Can@@ 866
Entertainment 866
Книга 866
нео 866
системати@@ 866
1635 865
Аризона 865
Я 865
баси@@ 865
жин@@ 865
лада 865
хате@@ 865
яро@@ 865
11,@@ 864
Алта@@ 864
компенси@@ 864
р. 864
чек 864
1648 863
650 863
Петер@@ 863
развит 863
сценария 863
еже@@ 862
протокол 862
цк 862
Магнус 861
Фолк@@ 861
драматур@@ 861
литературно 861
модерна 861
новременно 861
привиле@@ 861
разреша@@ 861
Соко@@ 860
Тури@@ 860
анс 860
направи@@ 860
1804 859
Лот@@ 859
Родри@@ 859
интри@@ 859
ору@@ 859
риско@@ 859
учителя 859
Преоблада@@ 858
назем@@ 858
подразделение 858
рое 858
ура@@ 858
ях 858
блока@@ 857
вей@@ 857
гуа 857
кля@@ 857
лила 857
минима@@ 857
плюс 857
omys 856
заса@@ 856
имуще@@ 856
паке@@ 856
Зу@@ 855
баланс 855
гъла 855
куку@@ 855
Денис 854
безопас@@ 854
бс 854
разделение 854
1794 853
25@@ 853
зира@@ 853
кури@@ 853
порода 853
270 852
ax 852
bo@@ 852
банов 852
новение 852
нян 852
прибав@@ 852
саксон@@ 852
схва@@ 852
Адриати@@ 851
Основана 851
или@@ 851
рар@@ 851
физ@@ 851
МиГ 850
Наталия 850
Плани@@ 850
Тобаго 850
командира 850
остро 850
ското@@ 850
car@@ 849
Рузве@@ 849
Учред@@ 849
Яр@@ 849
кация 849
призо@@ 849
стандарти@@ 849
фабрики 849
фун@@ 849
язови@@ 849
ni@@ 848
Бед@@ 848
Вера 848
кату@@ 848
преце@@ 848
удостоена 848
se 847
кардина@@ 847
курса 847
неизвестен 847
религиозно 847
330 846
380 846
ei 846
Благове@@ 846
Ся@@ 846
ведом@@ 846
дизе@@ 846
интереса 846
пили 846
хон@@ 846
Лев 845
графо@@ 845
ото@@ 845
пада@@ 845
плей@@ 845
2.@@ 844
Севи@@ 844
Сне@@ 844
атак@@ 844
гано 844
излож@@ 844
раста@@ 844
султан@@ 844
тум 844
1791 843
Пове@@ 843
Рикар@@ 843
иначе 843
необходима 843
сената 843
цвет 843
123 842
ad 842
cus 842
Виз@@ 842
Розен@@ 842
квалифици@@ 842
кисло@@ 842
стеро@@ 842
ov@@ 841
абсолютно 841
загра@@ 841
рун@@ 841
учебно 841
Q 840
Дуна@@ 840
Остин 840
Роберто 840
Филосо@@ 840
Шума@@ 840
верси@@ 840
казар@@ 840
клон@@ 840
II@@ 839
Per@@ 839
ator 839
Дин@@ 839
Император 839
Перу@@ 839
слави@@ 839
сора 839
io 838
Бобо@@ 838
взаимоотношения 838
вокалист 838
ксе@@ 838
ктора 838
успоко@@ 838
шеф 838
13,@@ 837
Андреас 837
Илинден@@ 837
Мона@@ 837
Фут@@ 837
Ям@@ 837
бок@@ 837
бус 837
кинг 837
разу@@ 837
раке@@ 837
111 836
era 836
Арханге@@ 836
Астро@@ 836
Госпо@@ 836
Куку@@ 836
Литератур@@ 836
Паоло 836
риса 836
тение 836
Le 835
und 835
Биз@@ 835
Грант 835
Пил@@ 835
Популяр@@ 835
ФА 835
кви@@ 835
курорт 835
натура@@ 835
публицист 835
танк 835
терн 835
Мир 834
брата 834
фу 834
12,@@ 833
1772 833
ation 833
ch 833
Арти@@ 833
детекти@@ 833
макро@@ 833
пару@@ 833
поражения 833
хова 833
чаров 833
De@@ 832
gr@@ 832
Администра@@ 832
азбу@@ 832
имущество 832
кум 832
маркси@@ 832
пропаганд@@ 832
14@@ 831
tis 831
Ник 831
батарея 831
бюдже@@ 831
лову@@ 831
оксид 831
предо@@ 831
титуляр@@ 831
уз 831
щу 831
Вак@@ 830
Име@@ 830
Пиро@@ 830
Юно@@ 830
бон 830
1824 829
33@@ 829
Дона 829
Изо@@ 829
емигри@@ 829
синхро@@ 829
яно 829
Академик 828
Вся@@ 828
СА@@ 828
Университет 828
общи@@ 828
чества 828
1680 827
od@@ 827
Цу@@ 827
раса 827
стой 827
WWF 826
Венециан@@ 826
Оцен@@ 826
ате 826
бка 826
мно@@ 826
уш 826
1576 825
1798 825
Дро@@ 825
клин 825
Tro@@ 824
ach@@ 824
СА 824
Франсиско 824
гай@@ 824
инструкции 824
кевич 824
одобрение 824
приятеля 824
унд@@ 824
аудито@@ 823
блъ@@ 823
корпу@@ 823
кун@@ 823
мура 823
тено 823
.-@@ 822
1634 822
1660 822
De 822
Micro@@ 822
Зат@@ 822
зания 822
лук 822
отказ 822
синтез 822
сю@@ 822
юни@@ 822
135 821
1827 821
Ави@@ 821
Казан@@ 821
Тин@@ 821
буд@@ 821
взи@@ 821
кипе@@ 821
хип 821
Фай@@ 820
Ход@@ 820
кале 820
материа@@ 820
множе@@ 820
пропа@@ 820
станови@@ 820
тотали@@ 820
уточ@@ 820
цина 820
1823 819
XXI 819
Федерация 819
Щер@@ 819
дет 819
кало@@ 819
модернизи@@ 819
същност 819
целя@@ 819
112 818
za 818
І@@ 818
Жанейро 818
зага@@ 818
зун@@ 818
уса 818
Ино@@ 817
Мой@@ 817
Нике@@ 817
Окс@@ 817
Пантеле@@ 817
атлан@@ 817
кипа@@ 817
15,@@ 816
1640 816
авари@@ 816
дане 816
диапазон 816
познания 816
Qu@@ 815
кмета 815
1688 814
Кън@@ 814
Осло 814
вация 814
ист 814
строен 814
уважение 814
хоп 814
ют 814
No 813
Нобе@@ 813
Проте@@ 813
дела@@ 813
мотив 813
никс 813
префектура 813
чинов@@ 813
1570 812
203 812
37@@ 812
Джер@@ 812
Пап@@ 812
Уста@@ 812
Худо@@ 812
докторан@@ 812
мизи@@ 812
оказа@@ 812
приключен@@ 812
стол 812
Двой@@ 811
Пий 811
Финан@@ 811
Франс 811
ежеднев@@ 811
ест 811
запаса 811
инжен@@ 811
175 810
Оке@@ 810
Сприн@@ 810
Фокс 810
Швед@@ 810
боро@@ 810
вакан@@ 810
1780 809
br@@ 809
Крепо@@ 809
Сици@@ 809
аро 809
герб 809
закреп@@ 809
шот@@ 809
щин@@ 809
3D 808
Доне@@ 808
Монт@@ 808
Сци@@ 808
монго@@ 808
ринг@@ 808
шлем 808
8000 807
Оси@@ 807
Патри@@ 807
мас@@ 807
1530 806
Маг@@ 806
Майер 806
отлично 806
спир@@ 806
Арка@@ 805
Капи@@ 805
Корин@@ 805
Сво@@ 805
добровол@@ 805
недвижи@@ 805
реконструкция 805
челю@@ 805
oides 804
Ками@@ 804
Монре@@ 804
люция 804
облик 804
Company 803
ore 803
ДК 803
Лас 803
бро 803
небург 803
ного 803
сочи@@ 803
туна 803
Прован@@ 802
лео@@ 802
1606 801
бизнесмен 801
жете 801
роу 801
титуля@@ 801
Дос@@ 800
ангел 800
теля 800
шоко@@ 800
Музея 799
Онтарио 799
дизайна 799
пала 799
ra 798
Иници@@ 798
Каби@@ 798
бино 798
влияния 798
несота 798
чет 798
124 797
1763 797
Or@@ 797
Скала 797
вокал 797
единени 797
енс 797
инер@@ 797
наход@@ 797
нидер@@ 797
паде@@ 797
пейзажи 797
Кори@@ 796
Тихоокеан@@ 796
Чал@@ 796
арк@@ 796
бери 796
брук 796
дистри@@ 796
к. 796
цито@@ 796
1676 795
1802 795
so@@ 795
Ила@@ 795
Коз@@ 795
Места 795
лакти@@ 795
логии 795
ориента@@ 795
семе@@ 795
хек@@ 795
7,5 794
ides 794
si@@ 794
Скандина@@ 794
дият 794
окла@@ 794
сля@@ 794
AC 793
РО 793
англо 793
дого@@ 793
матът 793
нести 793
сюжет 793
1809 792
Абу 792
говорите 792
нула 792
скопи@@ 792
Антвер@@ 791
Франко 791
Шал@@ 791
албу@@ 791
вете@@ 791
пела@@ 791
структур@@ 791
сян 791
ула@@ 791
уравнения 791
хромо@@ 791
22@@ 790
ОС 790
няк 790
отстоя@@ 790
пно 790
положен 790
риат 790
стик 790
ie 789
СО 789
деса 789
ира 789
конфлик@@ 789
лектри@@ 789
обши@@ 789
перспекти@@ 789
разуме@@ 789
словно 789
спад 789
Импера@@ 788
стрелка 788
114 787
Br@@ 787
Знач@@ 787
Тир@@ 787
ализация 787
арми@@ 787
декан 787
записана 787
пиз@@ 787
10.@@ 786
Кому@@ 786
Тита@@ 786
Чудо@@ 786
силвания 786
снаря@@ 786
соб@@ 786
ati@@ 785
ep@@ 785
Марта 785
военноплен@@ 785
жандар@@ 785
лков 785
развито 785
117 784
17,@@ 784
à 784
Армстро@@ 784
Гибрал@@ 784
Рок 784
бек@@ 784
некти@@ 784
пана 784
разновид@@ 784
редакция 784
1650 783
Pro@@ 783
Карпат@@ 783
вземането 783
реконструи@@ 783
уми@@ 783
яваща 783
1623 782
Фрон@@ 782
бира@@ 782
грав@@ 782
кисе@@ 782
кодекс 782
кух@@ 782
сери@@ 782
сперан@@ 782
стинг 782
указа@@ 782
Развитие 781
записано 781
зв@@ 781
интен@@ 781
модели@@ 781
флоти@@ 781
Кастилия 780
инцидента 780
нити 780
Аф@@ 779
Поле@@ 779
антро@@ 779
отказа 779
1618 778
aria 778
КО@@ 778
архиеписко@@ 778
казано 778
мад 778
фору@@ 778
циан@@ 778
Война 777
Приз@@ 777
измене@@ 777
инструктор 777
македо@@ 777
мероприятия 777
модификации 777
плата 777
сне 777
ству@@ 777
16@@ 776
Михай@@ 776
дефи@@ 776
дман 776
раст 776
соз@@ 776
теч@@ 776
яр 776
ans 775
Тим 775
лович 775
пави@@ 775
понен@@ 775
спора 775
хле@@ 775
чат@@ 775
Ser@@ 774
no 774
Цин@@ 774
баскет@@ 774
риф 774
снего@@ 774
1740 773
КА 773
кане 773
разбой@@ 773
рино 773
→ 773
School 772
Вед@@ 772
Диана 772
Ита@@ 772
РС@@ 772
глюко@@ 772
дивизион@@ 772
зов@@ 772
мага@@ 772
пера@@ 772
пох@@ 772
Каси@@ 771
Категория 771
Строе@@ 771
време@@ 771
усло@@ 771
хирурги@@ 771
цифро@@ 771
av@@ 770
Албу@@ 770
Герман 770
Партия 770
Поня@@ 770
виса 770
притво@@ 770
1787 769
Гарсия 769
Квебек 769
Срав@@ 769
гес 769
капитал 769
1770 768
38@@ 768
osa 768
Брак 768
Ора@@ 768
ава@@ 768
бег 768
коме@@ 768
нукле@@ 768
зена 767
Cr@@ 766
WTA 766
oth@@ 766
Еф@@ 766
лям 766
невероя@@ 766
неж@@ 766
самоубийство 766
харти@@ 766
Time 765
Концер@@ 765
Тара@@ 765
бря@@ 765
мора 765
рези@@ 765
сус 765
As@@ 764
do 764
phus 764
Мок@@ 764
Порт@@ 764
амино@@ 764
жило 764
сфери@@ 764
терапев@@ 764
Бургун@@ 763
Гим@@ 763
Конструкция 763
Средновекови@@ 763
рике 763
фар 763
Атлетико 762
Евдо@@ 762
дзе 762
персонаж 762
татар@@ 762
Леонид 761
атор@@ 761
неблагоприя@@ 761
подразде@@ 761
yl@@ 760
конференции 760
разда@@ 760
туризма 760
унт 760
1610 759
ka 759
Анали@@ 759
Виш@@ 759
Кариб@@ 759
Уит@@ 759
док@@ 759
жди 759
Луиджи 758
Ту 758
барон 758
ложение 758
природо@@ 758
сьор 758
1625 757
Види@@ 757
Люксем@@ 757
придвор@@ 757
референдум 757
филд 757
Андреев 756
Сент 756
като@@ 756
проло@@ 756
самоуправление 756
14,@@ 755
1632 755
1774 755
ον 755
Антан@@ 755
Квин@@ 755
МИ@@ 755
Фабри@@ 755
дейл 755
инци@@ 755
мористи@@ 755
порти@@ 755
ј@@ 755
1768 754
бад 754
индуст@@ 754
символизи@@ 754
щал 754
щате@@ 754
ent@@ 753
Темпера@@ 753
воли 753
герои@@ 753
дта 753
капа@@ 753
миз@@ 753
нберг 753
соли 753
шед@@ 753
16,@@ 752
Кастро 752
Непосред@@ 752
Фей@@ 752
екто@@ 752
фотография 752
tor@@ 751
Избра@@ 751
Млад@@ 751
Расте@@ 751
бис 751
експлоата@@ 751
каро@@ 751
потока 751
рел@@ 751
рили 751
тун 751
Ч 750
ада@@ 750
красо@@ 750
пал 750
яние 750
ii 749
СБ@@ 749
миров 749
нена@@ 749
страст@@ 749
физиологи@@ 749
явно 749
7000 748
ani 748
Блей@@ 748
Петрова 748
Фернан@@ 748
Цице@@ 748
дера 748
каде@@ 748
пиг@@ 748
пр.н@@ 748
Vi@@ 747
Калу@@ 747
воз@@ 747
построе@@ 747
привлекате@@ 747
разработки 747
слово 747
1560 746
tra 746
Глу@@ 746
Кейт 746
СИ@@ 746
г.@@ 746
нужно 746
работка 746
сатири@@ 746
шли 746
Васили@@ 745
Голд@@ 745
РИ@@ 745
СТ@@ 745
вице 745
забо@@ 745
заседа@@ 745
нт 745
пише@@ 745
сент 745
13@@ 744
50@@ 744
ация 744
гент 744
рован 744
тихо@@ 744
1776 743
Архе@@ 743
Вита@@ 743
Лове@@ 743
секции 743
Антония 742
Директор 742
винов@@ 742
гля@@ 742
квизи@@ 742
лесо@@ 742
пие 742
референ@@ 742
Око@@ 741
впис@@ 741
дара 741
отражение 741
притока 741
1775 740
1811 740
деж@@ 740
десети@@ 740
критики 740
надеж@@ 740
описана 740
рь@@ 740
спер@@ 740
събо@@ 740
25,@@ 739
480 739
del 739
Ей 739
Леон@@ 739
ждан@@ 739
кварти@@ 739
мик 739
1616 738
ps 738
Барба@@ 738
Бин@@ 738
Психо@@ 738
Флора 738
дубла@@ 738
€ 738
Азиат@@ 737
Ару@@ 737
Сра@@ 737
бай 737
дя 737
ина 737
кологи@@ 737
Илин@@ 736
Свобода 736
спокойно 736
статистически 736
стояние 736
Li@@ 735
Кил@@ 735
Контро@@ 735
Образ@@ 735
Отец 735
Чап@@ 735
доставки 735
риска 735
стере@@ 735
форм@@ 735
Empire 734
SS 734
Уим@@ 734
Фур@@ 734
включено 734
инструк@@ 734
подобие 734
пор 734
фармацев@@ 734
ярко 734
1630 733
Каре@@ 733
Независи@@ 733
Прогре@@ 733
глад@@ 733
душе@@ 733
хат 733
aur@@ 732
Детро@@ 732
Соф@@ 732
Сур@@ 732
жу 732
лито@@ 732
мара@@ 732
ная 732
посещения 732
Bar@@ 731
ai 731
à@@ 731
Ало@@ 731
Ви 731
Окта@@ 731
Рига 731
Убий@@ 731
излиш@@ 731
тус 731
12.@@ 730
Каса@@ 730
Место@@ 730
Пазар@@ 730
архие@@ 730
казал 730
ate 729
дискримина@@ 729
кав@@ 729
Й 728
бово 728
велосипе@@ 728
врага 728
неподви@@ 728
1701 727
ЕЛ@@ 727
ИК 727
Петрович 727
Центра@@ 727
низа@@ 727
нок@@ 727
шеб@@ 727
em 726
ne 726
Там@@ 726
нете 726
рт 726
Нами@@ 725
биоти@@ 725
ваго@@ 725
покуп@@ 725
раж 725
удосто@@ 725
фик@@ 725
yr@@ 724
Папа 724
Ря@@ 724
Шел@@ 724
зора 724
фраз@@ 724
чести@@ 724
American 723
ni 723
БМ@@ 723
Зад@@ 723
Политбюро 723
апте@@ 723
заложен 723
кет@@ 723
майстор@@ 723
с. 723
121 722
1598 722
1788 722
osus 722
алгорит@@ 722
докумен@@ 722
лежат 722
лечеб@@ 722
банк 721
шал@@ 721
1627 720
Квар@@ 720
правосла@@ 720
суро@@ 720
тенденции 720
шер 720
1683 719
IBM 719
mar@@ 719
Шин@@ 719
блу@@ 719
Робин@@ 718
Серафи@@ 718
писания 718
удара 718
щината 718
NO@@ 717
Sc@@ 717
ref 717
Командир 717
Препода@@ 717
Раду@@ 717
Уру@@ 717
кур 717
повтор@@ 717
условно 717
1651 716
MS 716
Sp@@ 716
com@@ 716
Гаври@@ 716
Законодате@@ 716
Известна 716
Курт 716
ПО 716
Служба 716
ская 716
фамилии 716
яз@@ 716
1540 715
Бах@@ 715
Гау@@ 715
Лун@@ 715
РНК 715
порт@@ 715
разо@@ 715
следванията 715
цикло@@ 715
Аби@@ 714
Канад@@ 714
Хоу@@ 714
мпе@@ 714
нич 714
обвинение 714
Зар@@ 713
Ум@@ 713
изменение 713
фт@@ 713
Бар 712
Дит@@ 712
СИ 712
вмест@@ 712
депор@@ 712
мели@@ 712
Pi@@ 711
Леона@@ 711
Мау@@ 711
sus 710
Декла@@ 710
Постро@@ 710
комендан@@ 710
короно@@ 710
никова 710
разговор 710
характеристи@@ 710
шенко 710
Времен@@ 709
Институ@@ 709
Лейк 709
Луизи@@ 709
Пти@@ 709
Рат@@ 709
заба@@ 709
инфор@@ 709
облож@@ 709
тони 709
Двигате@@ 708
СК@@ 708
СП 708
оно@@ 708
цирку@@ 708
цово 708
1667 707
XX@@ 707
балти@@ 707
душа 707
метро 707
резерв 707
риста 707
118 706
1450 706
1567 706
Hot 706
Традиционно 706
Харт@@ 706
Шах 706
ISO 705
Гли@@ 705
Мага@@ 705
Меха@@ 705
вон 705
лаков 705
неш@@ 705
цари@@ 705
Андро@@ 704
Лак@@ 704
Служ@@ 704
избира@@ 704
кла 704
метаболи@@ 704
ответ@@ 704
сад@@ 704
1638 703
vir@@ 703
Комп@@ 703
допу@@ 703
достиг 703
нометра@@ 703
1704 702
Ag@@ 702
Mark 702
Брази@@ 702
Жене@@ 702
Исма@@ 702
Яна 702
город@@ 702
зоо@@ 702
ключ 702
латви@@ 702
нормати@@ 702
чии 702
Of 701
ine 701
ini 701
Как 701
агро@@ 701
лана 701
причис@@ 701
фора 701
хват@@ 701
5,5 700
Дем@@ 700
препра@@ 700
вник 699
женит@@ 699
привет@@ 699
тряб@@ 699
15@@ 698
Lo@@ 698
gi@@ 698
Од@@ 698
Рит@@ 698
аре 698
дро 698
ибн 698
магазина 698
тона@@ 698
118@@ 697
1550 697
cor@@ 697
ter 697
Иг@@ 697
ежегод@@ 697
симпати@@ 697
1622 696
SI 696
АН@@ 696
Абду@@ 696
Ами@@ 696
Граф@@ 696
Запада 696
атом 696
инспек@@ 696
пожела@@ 696
1605 695
Mo@@ 695
biidae 695
Каш@@ 695
Мексикан@@ 695
вията 695
дере@@ 695
констру@@ 695
пианист 695
словие 695
шева 695
1526 694
1631 694
1665 694
du@@ 694
Сира@@ 694
Скар@@ 694
Шек@@ 694
гона 694
рации 694
стимули@@ 694
129 693
155 693
Cyprinidae 693
Disney 693
MHz 693
me 693
Ил 693
Карло@@ 693
Симп@@ 693
Фле@@ 693
втор@@ 693
въгли@@ 693
ландшаф@@ 693
маро@@ 693
намест@@ 693
офице@@ 693
спра@@ 693
финиши@@ 693
шат@@ 693
For@@ 692
Диско@@ 692
лект@@ 692
ориги@@ 692
ренно 692
топли@@ 692
цате@@ 692
1585 691
МА 691
РУ 691
Сокра@@ 691
леднико@@ 691
1619 690
Go@@ 690
tidae 690
дай 690
неизвестна 690
неното 690
присво@@ 690
репли@@ 690
вес@@ 689
достовер@@ 689
н.@@ 689
наро@@ 689
ский 689
1783 688
19,@@ 688
Network 688
Герой 688
Неф@@ 688
але 688
енко 688
закуп@@ 688
написано 688
броненос@@ 687
мул@@ 687
надле@@ 687
русали@@ 687
тара@@ 687
1636 686
Ет@@ 686
Фишер 686
Шарло@@ 686
вещи 686
дром 686
прила@@ 686
Севасто@@ 685
възгле@@ 685
рун 685
ver@@ 684
Павлович 684
баланси@@ 684
пина 684
ропо@@ 684
хон 684
1568 683
man 683
Автомоби@@ 683
Анг@@ 683
Славян@@ 683
лицензи@@ 683
лси 683
полуфинала 683
полю@@ 683
свръ@@ 683
стани@@ 683
тираж 683
Pr@@ 682
Грей 682
арест 682
гина@@ 682
персонажи 682
софту@@ 682
шествие 682
1620 681
1668 681
Po@@ 681
Су 681
дз@@ 681
заменя@@ 681
кта 681
куби@@ 681
луч@@ 681
мь@@ 681
1711 680
Tur@@ 680
АП 680
Кав@@ 680
второстепен@@ 680
катор 680
уравнение 680
1666 679
Афа@@ 679
ампли@@ 679
атлети@@ 679
неравно@@ 679
плението 679
1785 678
Михайлов@@ 678
войско@@ 678
градо@@ 678
джик 678
кантон 678
лаге@@ 678
мам 678
рово@@ 678
слер 678
1559 677
БР 677
Еману@@ 677
Лопес 677
Оксфор@@ 677
Саха@@ 677
Юг 677
зачислен 677
лад 677
леп 677
старин@@ 677
1569 676
1621 676
1661 676
Доку@@ 676
них 676
оро@@ 676
IP 675
du 675
ers 675
ФИФА 675
жим 675
маркетин@@ 675
пу 675
сну@@ 675
спорт@@ 675
стипен@@ 675
1612 674
1670 674
RA@@ 674
sp@@ 674
Мад@@ 674
ветери@@ 674
наследника 674
прови@@ 674
1595 673
Linux 673
Лоб@@ 673
Пушкин 673
дюй@@ 673
зара@@ 673
преки 673
Gr@@ 672
yn@@ 672
Олег 672
оле@@ 672
фео@@ 672
1250 671
Acro@@ 671
Аа@@ 671
Председате@@ 671
бомбардиров@@ 671
герба 671
канали@@ 671
факто 671
базо@@ 670
имити@@ 670
метра@@ 670
развали@@ 670
убил 670
умно@@ 670
1547 669
18,@@ 669
tes 669
Дик@@ 669
Ленинград@@ 669
лауреат 669
39@@ 668
ho@@ 668
Сали@@ 668
Сбор@@ 668
Южно 668
актри@@ 668
библей@@ 668
дю 668
лам 668
лън@@ 668
норма 668
страции 668
1536 667
1715 667
20,@@ 667
Жозеф 667
Обра@@ 667
дир 667
листо@@ 667
финан@@ 667
1,6 666
1572 666
6,5 666
Ca@@ 666
Man 666
Tri@@ 666
КС 666
Лорен@@ 666
Минск 666
ПВО 666
Роза 666
бере@@ 666
дъщер@@ 666
яйце@@ 666
′ 666
Робин 665
вир@@ 665
победителя 665
свит@@ 665
яну@@ 665
1626 664
1686 664
Год@@ 664
СБ 664
Сталин@@ 664
индек@@ 664
пра 664
1675 663
1784 663
Право@@ 663
гва@@ 663
декват@@ 663
оче@@ 663
пакет 663
пиани@@ 663
раздел 663
1769 662
On 662
è@@ 662
авангар@@ 662
инстру@@ 662
организ@@ 662
пява 662
Вли@@ 661
вила@@ 661
палестин@@ 661
плато@@ 661
сго@@ 661
щена 661
1590 660
340 660
Be@@ 660
Com@@ 660
pra@@ 660
Еврази@@ 660
Симо@@ 660
Хит@@ 660
дзу@@ 660
прикреп@@ 660
Генера@@ 659
тива 659
165 658
sch@@ 658
Хун@@ 658
лич 658
сигна@@ 658
116 657
AS@@ 657
Баку 657
Замест@@ 657
вни@@ 657
кабе@@ 657
контей@@ 657
пож@@ 657
пори@@ 657
спар@@ 657
сценарии 657
тита@@ 657
ху 657
1521 656
1699 656
mon@@ 656
вое 656
дека@@ 656
знака 656
кати@@ 656
проводи@@ 656
Cichlidae 655
Times 655
Лав@@ 655
Спен@@ 655
батальона 655
борец 655
бур 655
веща@@ 655
видо@@ 655
сена@@ 655
1492 654
Die 654
lar@@ 654
джун@@ 654
епископа 654
наименования 654
сепара@@ 654
122 653
ce 653
cu@@ 653
} 653
£ 653
Багда@@ 653
разкоп@@ 653
рама 653
типо@@ 653
ulus 652
АР@@ 652
ЮАР 652
оба 652
пович 652
хронологи@@ 652
1538 651
1637 651
1722 651
Раст@@ 651
газ@@ 651
концеп@@ 651
PC 650
Адми@@ 650
Офи@@ 650
Чере@@ 650
заблу@@ 650
инвали@@ 650
кио 650
музи@@ 650
постановка 650
предвод@@ 650
провода 650
Ge@@ 649
are 649
Военно 649
ловина 649
нито@@ 649
ях@@ 649
1,3 648
DJ 648
Като@@ 648
арки 648
бул@@ 648
генерал@@ 648
ние@@ 648
cop@@ 647
ion 647
крипто@@ 647
литературо@@ 647
цей 647
1480 646
1577 646
1664 646
КБ 646
Усп@@ 646
вме@@ 646
зу 646
резолю@@ 646
фрей@@ 646
ist@@ 645
Абдул 645
Ола@@ 645
кума 645
летие 645
манифе@@ 645
перспек@@ 645
плоско@@ 645
полупровод@@ 645
танков 645
геноци@@ 644
привилеги@@ 644
1580 643
m2 643
tic@@ 643
Глаз@@ 643
Никита 643
дт 643
привати@@ 643
спектак@@ 643
1757 642
Григо@@ 642
Прай@@ 642
детство 642
жур@@ 642
социация 642
фрид 642
1690 641
ne@@ 641
α 641
Гин@@ 641
Зор@@ 641
ганов 641
интервен@@ 641
кома 641
нано@@ 641
рентге@@ 641
риал 641
133 640
145 640
1603 640
1744 640
1762 640
ran@@ 640
ya 640
библи@@ 640
биз@@ 640
обмен@@ 640
1607 639
1689 639
Кури@@ 639
Николаев 639
Фина@@ 639
фаво@@ 639
1649 638
To 638
Your 638
Лок@@ 638
Хло@@ 638
бога 638
ирак@@ 638
кай 638
рефлек@@ 638
Бенга@@ 637
вирус@@ 637
гам@@ 637
голо@@ 637
лондон@@ 637
народо@@ 637
eb@@ 636
Ка 636
Моцар@@ 636
Президент 636
енто@@ 636
импе@@ 636
назначена 636
1453 635
1643 635
1767 635
гви@@ 635
написал 635
115@@ 634
1778 634
Cer@@ 634
do@@ 634
ent 634
Академи@@ 634
комплект 634
0.@@ 633
1633 633
1743 633
27,@@ 633
Мах@@ 633
аква@@ 633
величе@@ 633
Mal@@ 632
tica 632
Побе@@ 632
Тет@@ 632
онто@@ 632
разногла@@ 632
сило@@ 632
склад 632
съста@@ 632
1673 631
1786 631
Аро@@ 631
Португа@@ 631
катали@@ 631
пеше@@ 631
скар@@ 631
los@@ 630
uridae 630
Дис@@ 630
Зву@@ 630
НА@@ 630
Нин@@ 630
Теория 630
лейбу@@ 630
ходи@@ 630
1586 629
1659 629
MTV 629
Ro@@ 629
chem 629
Воло@@ 629
Нек@@ 629
Сун@@ 629
Франк@@ 629
126 628
406 628
Кой@@ 628
азербайджан@@ 628
извле@@ 628
1702 627
Te@@ 627
Нови@@ 627
клат@@ 627
небес@@ 627
неизбе@@ 627
питан@@ 627
1737 626
станов@@ 626
1766 625
225 625
é 625
Камчат@@ 625
Развити@@ 625
мик@@ 625
1,8 624
1663 624
1707 624
US@@ 624
oni 624
te@@ 624
Вени@@ 624
Куро@@ 624
Нет@@ 624
стара@@ 624
флей@@ 624
1535 623
28,@@ 623
45@@ 623
por@@ 623
Дела@@ 623
Лоу@@ 623
атрибу@@ 623
капаците@@ 623
огъ@@ 623
публикация 623
уязви@@ 623
1503 622
1672 622
FI@@ 622
ius 622
ПП 622
Тбилиси 622
бик 622
драт 622
об 622
сад 622
144 621
1735 621
Колумби@@ 621
Пак@@ 621
документа 621
иниции@@ 621
окра@@ 621
театра@@ 621
1712 620
Томп@@ 620
Яну@@ 620
династи@@ 620
имено@@ 620
увен@@ 620
113 619
1563 619
1604 619
1748 619
NXT 619
годи@@ 619
ив@@ 619
лост@@ 619
националистиче@@ 619
сектора 619
1328 618
КПСС 618
дне 618
застре@@ 618
получила 618
фонов 618
1760 617
24,@@ 617
co 617
ita 617
ite 617
public 617
Бау@@ 617
знагра@@ 617
11.@@ 616
1656 616
1728 616
ВМ@@ 616
вражде@@ 616
долф 616
дур 616
зили 616
1. 615
1644 615
199 615
АН 615
ВМФ 615
оборо@@ 615
турбо@@ 615
1541 614
60@@ 614
Ver@@ 614
um@@ 614
епизо@@ 614
зем 614
литет 614
сканда@@ 614
такси 614
1589 613
1596 613
Гне@@ 613
аф@@ 613
зион@@ 613
мез@@ 613
прито@@ 613
пфалц@@ 613
трамва@@ 613
фотографи@@ 613
юк 613
1771 612
Ванку@@ 612
имения 612
мка 612
обращение 612
1724 611
At@@ 611
IN@@ 611
ex 611
АР 611
гиз@@ 611
кого 611
1575 610
1652 610
Warner 610
Тулу@@ 610
близо@@ 610
ек 610
1781 609
апе@@ 609
бакте@@ 609
видимо 609
гай 609
пояса 609
проходи@@ 609
хилядо@@ 609
1519 608
un 608
ut@@ 608
Гад@@ 608
демонстрации 608
млн 608
проли@@ 608
1370 607
1756 607
ara 607
Лидия 607
благосло@@ 607
дъх@@ 607
кредит@@ 607
мелоди@@ 607
нрав@@ 607
отлича@@ 607
00@@ 606
1444 606
1777 606
CO@@ 606
`@@ 606
Бож@@ 606
количе@@ 606
моя 606
опор@@ 606
1573 605
1653 605
1720 605
1773 605
Населе@@ 605
Тип 605
нике@@ 605
1721 604
ala 604
name 604
Махму@@ 604
авторитет 604
нев@@ 604
стандарта 604
строения 604
шевич 604
Демо@@ 603
Моло@@ 603
Сало@@ 603
каре@@ 603
курфюр@@ 603
маски@@ 603
отрасли 603
1746 602
tri@@ 602
Яма@@ 602
материала 602
ранов 602
1260 601
1584 601
1641 601
1658 601
Air 601
агломе@@ 601
арха@@ 601
достиг@@ 601
лидер@@ 601
стви@@ 601
кир 600
лино 600
маршрута 600
търго@@ 600
швили 600
168 599
клип 599
литера@@ 599
соно@@ 599
хун@@ 599
1270 598
1290 598
1739 598
System 598
Зада@@ 598
Наполе@@ 598
буква@@ 598
волейбо@@ 598
сложно 598
1520 597
1592 597
Арте@@ 597
Вси@@ 597
олицетво@@ 597
организато@@ 597
психиатри@@ 597
1741 596
индекс 596
куляр@@ 596
политики 596
самостоя@@ 596
теран@@ 596
1190 595
1525 595
1726 595
Йорк@@ 595
Начало 595
1601 594
1692 594
Изуча@@ 594
Лем@@ 594
гастро@@ 594
квартира 594
недово@@ 594
получи@@ 594
1642 593
26,@@ 593
re 593
Кавказ@@ 593
НБА 593
Портре@@ 593
Признание 593
дад 593
декре@@ 593
нима 593
основания 593
пострада@@ 593
рар 593
1558 592
420 592
Ι@@ 592
Абра@@ 592
Гоме@@ 592
Президиума 592
книго@@ 592
кове@@ 592
проститу@@ 592
сла 592
стойчи@@ 592
55@@ 591
age 591
Бере@@ 591
Еже@@ 591
възгла@@ 591
основателя 591
разме@@ 591
1782 590
Club 590
il 590
болез@@ 590
глоба@@ 590
зви@@ 590
описания 590
скорости 590
1678 589
1729 589
1738 589
фта 589
хотели 589
ядра 589
1420 588
1566 588
can@@ 588
ida 588
sc@@ 588
Берг@@ 588
годно 588
1,4 587
ДР 587
Либер@@ 587
Форми@@ 587
лидера 587
нераз@@ 587
ници@@ 587
1578 586
1709 586
ino 586
Швей@@ 586
кая 586
метрополи@@ 586
продукта 586
слан 586
lan@@ 585
se@@ 585
with 585
оттен@@ 585
скле@@ 585
тно@@ 585
фелд@@ 585
хър@@ 585
1308 584
1554 584
1745 584
Conus 584
вере@@ 584
взо@@ 584
иди@@ 584
космос 584
теж 584
Fe@@ 583
Участие 583
даго@@ 583
кратер 583
Ad@@ 582
Бенджа@@ 582
декс 582
зка 582
обер@@ 582
1347 581
1350 581
1655 581
208 581
BBC 581
IS@@ 581
Иванович 581
ализма 581
пропуск@@ 581
укрепление 581
фигур@@ 581
фред 581
1340 580
1611 580
1629 580
1708 580
Corporation 580
by 580
ola 580
ЛС 580
богослу@@ 580
многобро@@ 580
1614 579
1706 579
850 579
Среднове@@ 579
олето@@ 579
стихотво@@ 579
ците@@ 579
1608 578
1639 578
High 578
sh@@ 578
Концеп@@ 578
Фрей@@ 578
безработи@@ 578
гона@@ 578
директора 578
масла 578
помест@@ 578
цла@@ 578
1548 577
1571 577
1593 577
Night 577
ili@@ 577
Ричар@@ 577
Така@@ 577
Фото@@ 577
гау@@ 577
дог@@ 577
приорите@@ 577
1371 576
1730 576
No@@ 576
\ 576
Крей@@ 576
Нина 576
бюджета 576
ведение 576
гена 576
каска@@ 576
пехо@@ 576
про 576
рога 576
стили@@ 576
1562 575
1685 575
AR@@ 575
ell@@ 575
неви@@ 575
способна 575
ть@@ 575
1669 574
1733 574
1764 574
3.@@ 574
Маса@@ 574
вше@@ 574
катало@@ 574
справед@@ 574
бито 573
сено@@ 573
1557 572
El 572
Star 572
Up 572
ys@@ 572
Жан@@ 572
Шот@@ 572
комер@@ 572
молекуляр@@ 572
палат@@ 572
ряда 572
шип 572
ь 572
Hydro@@ 571
Open 571
To@@ 571
Добру@@ 571
Кост@@ 571
СМ 571
значения 571
сак@@ 571
134 570
1415 570
1508 570
1582 570
1682 570
1714 570
1723 570
Ethno@@ 570
new 570
деяте@@ 570
консервато@@ 570
приори@@ 570
там@@ 570
1522 569
HTML 569
Is 569
[...]
