ใน 1
ที่ 1
และ 1
ของ 1
เป็น 1
มี 1
การ 1
ได้ 1
" 1
) 1
( 1
โดย 1
ว่า 1
. 0.12779393116978055
กับ 1
ปี 1
จาก 1
จะ 1
ซึ่ง 1
ให้ 1
ไม่ 1
พ.ศ. 1
ไป 1
เมื่อ 1
, 0.08591293395223329
มา 1
พระ 1
หรือ 1
นี้ 1
ค.ศ. 1
อยู่ 1
- 1
คือ 1
ใช้ 1
ก็ 1
แต่ 1
เขา 1
การ@@ 1
วันที่ 1
ๆ 1
คน 1
ถูก 1
ส 1
ด้วย 1
แห่ง 1
์ 1
ทาง 1
ประเทศ 1
เพื่อ 1
ได้รับ 1
ขึ้น 1
ยัง 1
อย่าง 1
เมือง 1
2 1
จึง 1
ล 1
นั้น 1
น 1
น@@ 1
1 1
กัน 1
ก@@ 1
ความ@@ 1
ผู้ 1
ส@@ 1
สามารถ 1
ไทย 1
ม 1
ตัว 1
ถึง 1
แล้ว 1
หนึ่ง 1
3 1
ด 1
ทำให้ 1
ชื่อ 1
ร์ 1
สร้าง 1
เธอ 1
ก 1
แบบ 1
นา 1
ม@@ 1
ต่อ 1
เรื่อง 1
ด@@ 1
ทรง 1
ง 1
จังหวัด 1
ตาม 1
ชาว 1
ออก 1
() 1
เกิด 1
อร 1
ผู้@@ 1
ระหว่าง 1
ดี 1
ต 1
ต่อมา 1
เพลง 1
วัด 1
มาก 1
ป@@ 1
ค@@ 1
อ@@ 1
ความ 1
ล@@ 1
ต@@ 1
ทั้ง 1
บ@@ 1
ทีม 1
ร@@ 1
อีก 1
แรก 1
ริ 1
เดือน 1
ว@@ 1
ปัจจุบัน 1
ต้อง 1
เช่น 1
ส่วน 1
กลุ่ม 1
ทำ 1
สำหรับ 1
4 1
รา 1
: 0.4482286973141294
พระองค์ 1
ใหม่ 1
ด้าน 1
ลง 1
กา 1
ท@@ 1
ช@@ 1
พบ 1
ลา 1
ย@@ 1
ว 1
อ 1
รี 1
ท 1
พ@@ 1
ค 1
เรียก 1
ช่วง 1
ที่สุด 1
โอ 1
อำเภอ 1
บน 1
เอ 1
หลาย 1
วัน 1
เข้า 1
ยา 1
24@@ 1
มิ 1
โลก 1
ภาษา 1
จัด 1
ภาพยนตร์ 1
หลัง 1
ตา 1
ครั้ง 1
เริ่ม 1
บ 1
5 1
เล่น 1
พระเจ้า 1
ย 1
ร 1
โรงเรียน 1
จ@@ 1
จำนวน 1
น้ำ 1
อา 1
ซี 1
ไว้ 1
ตั้งแต่ 1
ส์ 1
ใหญ่ 1
ง@@ 1
นำ 1
ฟ@@ 1
เด 1
ต่าง 1
งาน 1
กว่า 1
ช 1
การแข่งขัน 1
ลิ 1
จน 1
– 0.6818895228039649
; 0.45749165614181175
สี 1
ลี 1
ราช 1
ซา 1
รัฐ 1
มาจาก 1
สอง 1
ภาพ 1
ณ 1
ระดับ 1
พื้นที่ 1
อื่น 1
์@@ 1
อาจ 1
ห@@ 1
ทั้งหมด 1
ฟ 1
ที่จะ 1
สมเด็จ 1
ผ่าน 1
เขต 1
จีน 1
คำ 1
ญี่ปุ่น 1
ก่อน 1
เป็น@@ 1
เน@@ 1
นาย 1
ระบบ 1
ข@@ 1
เร 1
เคย 1
โร 1
ประมาณ 1
เล@@ 1
โ@@ 1
มัน 1
สมัย 1
ได้แก่ 1
พระ@@ 1
รวม 1
6 1
รอบ 1
ในประเทศ 1
ซ@@ 1
บ้าน 1
เบ@@ 1
เวลา 1
สำคัญ 1
มหาวิทยาลัย 1
เอ@@ 1
เนื่องจาก 1
เดิม 1
ตำแหน่ง 1
เพราะ 1
วิ 1
เพียง 1
ลักษณะ 1
วิ@@ 1
เต 1
การศึกษา 1
โก 1
นัก 1
สูง 1
ะ 1
เซ 1
คา 1
ชนิด 1
กลาง 1
ชุด 1
รับ 1
บริษัท 1
บาง 1
บริเวณ 1
นิ@@ 1
นา@@ 1
เท 1
ชาติ 1
ประ@@ 1
ตำบล 1
-@@ 1
โน 1
นิ 1
เม 1
"@@ 1
ย์ 1
ซิ 1
(@@ 1
วง 1
แก่ 1
โต 1
ประวัติ 1
7 1
ป 1
มา@@ 1
ชิ 1
อัน 1
ผล 1
เม@@ 1
ฝ่าย 1
หลังจาก 1
ฟุตบอล 1
ทาง@@ 1
มี@@ 1
อังกฤษ 1
า 1
หลัก 1
ตั้งอยู่ 1
ติ 1
อันดับ 1
รัฐบาล 1
เจ้า 1
เกม 1
ส่ง 1
โค 1
10 1
ฮ@@ 1
ร์@@ 1
แสดง 1
รายการ 1
เปิด 1
วงศ์ 1
หน้า 1
ดา 1
ใจ 1
ยาว 1
กีฬา 1
8 1
เดียว 1
อัลบั้ม 1
เก 1
อา@@ 1
แบ่ง 1
กำลัง 1
เซ@@ 1
สงคราม 1
กลับ 1
ภายใน 1
วา 1
เฟ@@ 1
/ 0.587461401960712
องค์ 1
สาย 1
ภาค 1
พิ@@ 1
ประกาศ 1
ฝรั่งเศส 1
สโมสร 1
เก@@ 1
เกี่ยวกับ 1
” 1
& 1
กระ@@ 1
รูป 1
ปลา 1
ที่@@ 1
เว@@ 1
อาหาร 1
เป็นการ 1
อี 1
ระ 1
จิ 1
อดีต 1
ถ@@ 1
รา@@ 1
โอลิมปิก 1
เสียง 1
ผลงาน 1
บา 1
ฮา 1
เร@@ 1
ทำ@@ 1
รุ่น 1
่ง 1
โด 1
ยุค 1
ศึกษา 1
“ 0.6287840156101437
ต์ 1
หา 1
รูปแบบ 1
ชา 1
ผ@@ 1
ดังกล่าว 1
กา@@ 1
่ 1
น้อย 1
สาม 1
เค 1
ล้าน 1
ร่วม 1
ซ 1
ชีวิต 1
ช่วย 1
ชาย 1
คำ@@ 1
คณะ 1
of 0.03985862154202749
ตั้ง 1
ลีก 1
เหนือ 1
สุ@@ 1
มากกว่า 1
เด@@ 1
เปลี่ยน 1
9 1
ชั้น 1
บี 1
เห็น 1
ครั้งแรก 1
พรรค 1
เค@@ 1
จนถึง 1
สม@@ 1
ที 1
นอกจากนี้ 1
เดียวกัน 1
ใต้ 1
ดู 1
ทอง 1
ดิ 1
อายุ 1
รัก 1
้ 1
ี 1
ท่าน 1
โล 1
เกาะ 1
ราช@@ 1
ถนน 1
เขียน 1
เข้าร่วม 1
อุ@@ 1
ซ์ 1
น์ 1
แ@@ 1
นี 1
ส่วนใหญ่ 1
โม 1
20 1
ข้อมูล 1
ตอน 1
เกิดขึ้น 1
ลูก@@ 1
ทหาร 1
เจ 1
เป@@ 1
สกุล 1
สุดท้าย 1
ยู 1
ตน 1
ประเภท 1
โรค 1
เช@@ 1
หลวง 1
เดินทาง 1
นัก@@ 1
กล@@ 1
พัฒนา 1
เอง 1
อก 1
พวกเขา 1
ประกอบ 1
ก็ได้ 1
ตัว@@ 1
มหา 1
แทน 1
เท@@ 1
ฤดูกาล 1
น้ำ@@ 1
หญิง 1
สา@@ 1
บาท 1
สัตว์ 1
ขนาด 1
มีนาคม 1
รางวัล 1
นิยม 1
สิงหาคม 1
กองทัพ 1
แห่งชาติ 1
ที่อยู่ 1
สมาชิก 1
แม่น้ำ 1
พล@@ 1
อาคาร 1
ตุลาคม 1
ลิ@@ 1
จ 1
12 1
ย้าย 1
เจ@@ 1
้ง 1
ปรากฏ 1
ออกมา 1
เข้ามา 1
อิ@@ 1
เรือ 1
กลายเป็น 1
ธรรม 1
พวก 1
ออกจาก 1
ช่อง 1
กันยายน 1
จบ 1
' 1
คน@@ 1
ประกอบด้วย 1
ยังมี 1
ด์ 1
เมษายน 1
มกราคม 1
15 1
ธันวาคม 1
สาขา 1
เต@@ 1
ริ@@ 1
เลือก 1
จักรพรรดิ 1
แต่ละ 1
), 1
ประชากร 1
บุคคล 1
ออ 1
อน 1
พฤษภาคม 1
ฐานะ 1
ต่างๆ 1
น. 1
ระ@@ 1
หม@@ 1
ทา 1
เล็ก 1
กำหนด 1
รับ@@ 1
หมายถึง 1
ประชาชน 1
กรกฎาคม 1
ชนะ 1
เมตร 1
แม@@ 1
มนุษย์ 1
รวมถึง 1
ญ 1
่@@ 1
มัก 1
ทุก 1
ศาสตร์ 1
ศรี 1
แนว 1
นัด 1
เพิ่ม 1
การเลือกตั้ง 1
ไ@@ 1
ณ@@ 1
หนังสือ 1
โซ 1
โท 1
เงิน 1
ทั้งสอง 1
ท์ 1
มิถุนายน 1
นาง 1
มิ@@ 1
ศ@@ 1
หน@@ 1
กรุง 1
อะ 1
16 1
อาศัย 1
30 1
ไม้ 1
ราชวงศ์ 1
ขอ 1
ยา@@ 1
ฉ@@ 1
ลด 1
นาน 1
สู่ 1
พฤศจิกายน 1
ทั่วไป 1
หัว 1
สิ่ง 1
ธ 1
เพ@@ 1
กรรม 1
พ 1
หล@@ 1
อีกครั้ง 1
พิเศษ 1
ไอ 1
สหรัฐอเมริกา 1
เท่านั้น 1
สาร 1
นคร 1
พา 1
เอก 1
กร 1
ตี 1
เจ้า@@ 1
ตัน 1
กุมภาพันธ์ 1
ละคร 1
ยะ 1
่น 1
เส@@ 1
การปกครอง 1
อิ 1
ธ@@ 1
สนับสนุน 1
ภายใต้ 1
11 1
อำนาจ 1
ดังนี้ 1
ประจำ 1
่า 1
ทะเล 1
ข้อ@@ 1
ฯ 1
คู่ 1
ิ@@ 1
โดย@@ 1
กิ@@ 1
ชื่อว่า 1
แข่งขัน 1
โอ@@ 1
(; 1
เครื่อง 1
ทำงาน 1
วี 1
แม่ 1
พระราชทาน 1
รักษา 1
ผลิต 1
วา@@ 1
เหตุการณ์ 1
มั@@ 1
ใด 1
ชน 1
มะ 1
ลา@@ 1
19 1
กิ 1
ชัย 1
่ง@@ 1
สังกัด 1
The 0.0877330457472124
รวมทั้ง 1
๊@@ 1
จากนั้น 1
ติ@@ 1
เดอะ 1
อาร์ 1
กะ 1
14 1
สูงสุด 1
แยก 1
เลย 1
ฤดูร้อน 1
สุ 1
18 1
ร่วมกับ 1
") 1
ใบ 1
คณะกรรมการ 1
ปา 1
เส้น 1
ประวัติศาสตร์ 1
เสียชีวิต 1
สัน 1
เด็ก 1
ถ้า 1
บท 1
จำกัด 1
ลูก 1
เรียน 1
ตะวันออก 1
รู 1
ะ@@ 1
นก 1
อั@@ 1
การแสดง 1
เครื่อง@@ 1
ทร@@ 1
บา@@ 1
ขาว 1
เอส 1
เ@@ 1
ยังคง 1
พา@@ 1
เรา 1
เล 1
ญ@@ 1
ฉบับ 1
กลับมา 1
แอ 1
ดาว 1
ป่า 1
หาก 1
พันธุ์ 1
อาการ 1
อง 1
ิน 1
รั@@ 1
จริง 1
บุตร 1
กู 1
หน่วย 1
ยุโรป 1
ไฟ 1
ต้น 1
ฮิ 1
ประตู 1
มือ 1
เข้า@@ 1
กฎหมาย 1
โบ 1
13 1
​ 1
็@@ 1
ชิง 1
คล้าย 1
คิด 1
จุด 1
ผล@@ 1
นักแสดง 1
อม 1
คอ 1
ศ 1
สภา 1
นับ 1
ซู 1
เฮ@@ 1
สาธารณรัฐ 1
ห 1
วั@@ 1
เข้าไป 1
25 1
รอ 1
คา@@ 1
รถ 1
กร@@ 1
เหล่านี้ 1
ี@@ 1
ขนาดใหญ่ 1
ฐาน 1
ให้@@ 1
ตะวันตก 1
17 1
อินเดีย 1
เจ้าชาย 1
จำหน่าย 1
เป็นที่ 1
ดำรงตำแหน่ง 1
ออกอากาศ 1
โม@@ 1
คะแนน 1
ชัน 1
ที่สอง 1
เป็นหนึ่ง 1
โครงการ 1
ดี@@ 1
% 0.34494563319365656
กษัตริย์ 1
the 0.01303377431873082
เข้าสู่ 1
ศาสนา 1
ปลาย 1
ราย 1
สหรัฐ 1
ละ 1
โย 1
สังคม 1
ก่อตั้ง 1
งาน@@ 1
ตรง 1
นะ 1
แมน 1
ตนเอง 1
เป็นต้น 1
ภายหลัง 1
เสีย 1
วิทยา 1
วิธี 1
วง@@ 1
gt 1
ตะ@@ 1
ีย@@ 1
ครอบครัว 1
า@@ 1
จนกระทั่ง 1
คณะ@@ 1
lt 1
ห์ 1
แดง 1
นาม 1
ปัญหา 1
ใกล้ 1
คุณ 1
ออกแบบ 1
สถานี 1
แสง 1
สถาบัน 1
ท่า 1
จำนวนมาก 1
สนาม 1
จี 1
เอา 1
ส่วน@@ 1
ดำ 1
เนีย 1
การพัฒนา 1
มณฑล 1
พัน 1
สี@@ 1
เซลล์ 1
หา@@ 1
อาชีพ 1
ไฟฟ้า 1
ราว 1
ต่อไป 1
จา 1
ระบุ 1
พล 1
สอน 1
้า 1
คล@@ 1
ตระกูล 1
ดินแดน 1
บิน 1
บิดา 1
วาง 1
เทพ 1
อย่างไรก็ตาม 1
สั@@ 1
สี่ 1
ิ 1
ยก 1
้า@@ 1
24 1
เจ้าหญิง 1
ลำ@@ 1
ปล@@ 1
กิน 1
ดิ@@ 1
มากขึ้น 1
้น 1
เสด็จ 1
อิน 1
อักษร 1
เชื่อ 1
แบ@@ 1
ซา@@ 1
ธรรมชาติ 1
วิทยาลัย 1
21 1
เอเชีย 1
ส่วนหนึ่ง 1
ุ 1
บิ 1
เซอร์ 1
ดนตรี 1
อง@@ 1
จัดตั้ง 1
จุด@@ 1
เย@@ 1
หลังจากนั้น 1
มาร 1
เวอร์ 1
ในขณะที่ 1
หิน 1
ตา@@ 1
มักจะ 1
นอก 1
ก่อ 1
สมาคม 1
อน@@ 1
แปล 1
ต้องการ 1
พี 1
เฮ 1
อด 1
คลอง 1
เหมือน 1
งา 1
ตัวเอง 1
พระยา 1
อเมริกัน 1
เก็บ 1
ตาย 1
กว้าง 1
ประธาน 1
หน้า@@ 1
แผ่นดิน 1
ลาย 1
รู้ 1
วัฒนธรรม 1
แม้ 1
เพื่อให้ 1
อีกด้วย 1
ครั้งนี้ 1
รัสเซีย 1
เกิน 1
โดยเฉพาะ 1
แก้ว 1
ชี 1
วิน 1
แตก 1
กั@@ 1
แพ้ 1
ดังนั้น 1
พม่า 1
ห้อง 1
กรม 1
ศูนย์ 1
.@@ 1
ฟ้า 1
อากาศ 1
ธุรกิจ 1
ควบคุม 1
อาจจะ 1
ขาย 1
ิง 1
ดอก 1
มหา@@ 1
ติด 1
วน 1
ศักดิ์ 1
ฝ@@ 1
เฉพาะ 1
วะ 1
พยายาม 1
ยอด 1
ตาม@@ 1
ู 1
ดูแล 1
ค่า 1
ดา@@ 1
ต่อ@@ 1
อร์@@ 1
ปา@@ 1
รอง 1
เหลือ 1
เยอรมนี 1
ตรา 1
ม. 1
จักรวรรดิ 1
ศิลปะ 1
ข่าว 1
ตุ@@ 1
ภา@@ 1
จิ@@ 1
เพ 1
เยอรมัน 1
บันทึก 1
นายกรัฐมนตรี 1
อัล 1
ก่อสร้าง 1
เลือด 1
กิโลเมตร 1
เก่า 1
โฮ 1
สั้น 1
ทำการ 1
เกี่ยวข้อง 1
อาณาจักร 1
โร@@ 1
เน 1
0 1
วัง 1
มีชื่อเสียง 1
สุด 1
วัน@@ 1
เทคโนโลยี 1
ยิง 1
ลำดับ 1
ปั@@ 1
ฉาย 1
เลอ 1
หมู่ 1
ศึก 1
หน้าที่ 1
เชิง 1
บท@@ 1
รบ 1
อื่นๆ 1
พืช 1
สถานที่ 1
เป็นทางการ 1
ป้องกัน 1
ภูมิ 1
โบราณ 1
ไซ 1
ล์ 1
พร้อมกับ 1
รายชื่อ 1
วิทยาศาสตร์ 1
สาร@@ 1
ู่ 1
มากมาย 1
ษ@@ 1
สถาน 1
ครู 1
ย่อย 1
วิหาร 1
ศิลปิน 1
กรม@@ 1
เริ่มต้น 1
เลี้ยง 1
ตัวละคร 1
กอ 1
กรุงเทพมหานคร 1
กุ 1
พอ 1
หมู่บ้าน 1
22 1
ข้าง 1
ว์ 1
แชมป์ 1
แซ@@ 1
รุ 1
ยุ@@ 1
ค่าย 1
ตะ 1
เปิดตัว 1
ปกครอง 1
23 1
สวน 1
โก@@ 1
พร้อม 1
้น@@ 1
กล่าว 1
นักเรียน 1
แท@@ 1
ตร@@ 1
ทำหน้าที่ 1
ใส่ 1
s 0.2615255277831753
ซิงเกิล 1
หลังจากที่ 1
จำ@@ 1
เอ็ม 1
โจมตี 1
ไท 1
ลง@@ 1
คดี 1
อุ 1
เป็นที่รู้จัก 1
ซิ@@ 1
วิชา 1
ดำเนินการ 1
เรีย 1
อิตาลี 1
ลู 1
อล 1
ฟา 1
ทิ@@ 1
ียน 1
าน 1
นักร้อง 1
จัด@@ 1
กี 1
สภาพ 1
ความสัมพันธ์ 1
โล@@ 1
ความสามารถ 1
อู 1
้@@ 1
บุ@@ 1
พระนาง 1
23@@ 1
สาว 1
). 1
ราชการ 1
= 1
นอ 1
่า@@ 1
สเปน 1
ไอ@@ 1
รู้จัก 1
ต่อต้าน 1
ไร 1
กล่าวว่า 1
ละ@@ 1
ขยาย 1
ถือ 1
พ่อ 1
การผลิต 1
สำเร็จ 1
ตลอด 1
ของ@@ 1
สิทธิ 1
ดิน 1
ตำรวจ 1
ู@@ 1
ปริ@@ 1
ทำลาย 1
แก@@ 1
สัญลักษณ์ 1
ชาว@@ 1
รัฐมนตรี 1
รี@@ 1
รับรางวัล 1
ปาก 1
นี@@ 1
เดิน 1
ออก@@ 1
ชั้น@@ 1
ค่า@@ 1
สัญญา 1
ขนาดเล็ก 1
กอง 1
จัดการ 1
ชา@@ 1
สมาชิกสภาผู้แทนราษฎร 1
แจ@@ 1
ิน@@ 1
การเมือง 1
ผู้นำ 1
วาง@@ 1
อย@@ 1
โทรทัศน์ 1
ธิดา 1
จู 1
วร 1
สัปดาห์ 1
ตัวอย่าง 1
สหราชอาณาจักร 1
(" 1
โครงสร้าง 1
บั@@ 1
26 1
ชน@@ 1
ต่างกัน 1
ได 1
บุญ 1
28 1
แม้ว่า 1
ปิ@@ 1
อร์ 1
แพทย์ 1
ฝั่ง 1
รายงาน 1
หลักสูตร 1
ประธานาธิบดี 1
ทศวรรษ 1
ภูมิภาค 1
ทำให้เกิด 1
แรง 1
100 1
่น@@ 1
ชอบ 1
สต@@ 1
ตก@@ 1
พูด 1
รุ@@ 1
ต่างประเทศ 1
ทราบ 1
บางส่วน 1
เชียงใหม่ 1
เศรษฐกิจ 1
ภ@@ 1
สิบ 1
ปล่อย 1
อย 1
ือ 1
ยึด 1
ยู@@ 1
ใช่ 1
พื้น 1
ุ@@ 1
สืบ@@ 1
ตรี 1
แต่งตั้ง 1
อก@@ 1
เย 1
ทัพ 1
โรงพยาบาล 1
พัก 1
ประสบความสำเร็จ 1
นักกีฬา 1
ขณะที่ 1
วี@@ 1
เบอร์ 1
วัตถุ 1
ซุ@@ 1
ปกติ 1
ภาวะ 1
27 1
ริน 1
คุ 1
พิธี 1
รัชกาล 1
หลักฐาน 1
คร@@ 1
ราม 1
เส้นทาง 1
โจ 1
เป็นเวลา 1
แหล่ง 1
จา@@ 1
ว่าการ 1
รัง 1
เป็นครั้งแรก 1
", 1
ชู 1
ยอมรับ 1
เหตุ 1
็ก 1
อุตสาหกรรม 1
A 0.29305157685777716
ไว 1
ซื้อ 1
มป@@ 1
คืน 1
สม 1
อ่อน 1
จับ 1
เส้น@@ 1
เห@@ 1
พลังงาน 1
ทุ@@ 1
ชั่น 1
ตั้ง@@ 1
ชุมชน 1
ัก 1
สยาม 1
องค์กร 1
ทั่วโลก 1
บอ 1
หนัก 1
เพิ่มขึ้น 1
ขาด 1
เวียดนาม 1
สิทธิ์ 1
ที่ดิน 1
เช่นกัน 1
่ม@@ 1
เจริญ 1
ร่าง 1
เล่ม 1
อาจารย์ 1
้ม 1
ลิง 1
สมอง 1
โท@@ 1
ร้าย 1
แคว้น 1
อาวุธ 1
ร่างกาย 1
โพ@@ 1
ิด 1
โค@@ 1
บริการ 1
พลัง 1
แค 1
กิจกรรม 1
นี่ 1
เนอ 1
29 1
กิจ 1
ฌ@@ 1
งค์ 1
ภาพ@@ 1
เอฟ 1
บรม 1
ท้องถิ่น 1
คริสต์ศตวรรษ 1
เสีย@@ 1
ภาษาอังกฤษ 1
ธง 1
เฉ@@ 1
เพื่อน 1
ใน@@ 1
ศพ 1
คาร์ 1
มหาวิทยาลัย@@ 1
แต่ง 1
ต่ำ 1
โซ@@ 1
คุณ@@ 1
กำกับ 1
เสนอ 1
ปฏิบัติการ 1
ดั@@ 1
วิดีโอ 1
ียง 1
50 1
ถือเป็น 1
อเมริกา 1
หัวหน้า 1
ห่าง 1
สำนักงาน 1
ร้อง 1
บุ 1
มะ@@ 1
ั@@ 1
กะ@@ 1
ดัง 1
แค@@ 1
จอห์น 1
ธาตุ 1
ห้า 1
่ว 1
แผ่น 1
อิน@@ 1
โด@@ 1
ดำเนิน 1
กาย 1
พื้นฐาน 1
ซีรีส์ 1
การค้า 1
ปิด 1
เรื่องราว 1
เสมอ 1
สต 1
อัล@@ 1
การ์ตูน 1
นท 1
พร@@ 1
ยก@@ 1
อธิบาย 1
and 0.016464378233363282
นต์ 1
ในที่สุด 1
พิมพ์ 1
ร่วมกัน 1
คอน 1
แถบ 1
มอ 1
วงการ 1
ทีวี 1
เอาชนะ 1
อม@@ 1
กุ@@ 1
เล่า 1
หย@@ 1
ำ 1
พร 1
รัฐธรรมนูญ 1
หมายเลข 1
ปร@@ 1
โน@@ 1
ตลาด 1
ยอดเยี่ยม 1
พระมหากษัตริย์ 1
ตัด 1
อบ 1
ภาษา@@ 1
ลำ 1
เครื่องบิน 1
รูป@@ 1
พระราช@@ 1
ทางการเมือง 1
ฏ@@ 1
อด@@ 1
การทำงาน 1
สื่อ 1
ทฤษฎี 1
ผสม 1
สต์ 1
เข@@ 1
ปฏิ@@ 1
โอรส 1
่อน 1
จันทร์ 1
ค์ 1
ฺ@@ 1
ล่า 1
ตก 1
สา 1
ีย์ 1
กุล 1
บอก 1
ีย 1
แต@@ 1
ถือว่า 1
ศูนย์กลาง 1
2016 0.5857561245050635
จง 1
ซี@@ 1
กรณี 1
อี@@ 1
การณ์ 1
นุ@@ 1
ภัย 1
ค้นพบ 1
ฮ์ 1
ไร่ 1
ขณะ 1
สาย@@ 1
้อ@@ 1
ดุ@@ 1
บาง@@ 1
ฟี 1
กัน@@ 1
แนวคิด 1
นุ 1
ได้@@ 1
ให้บริการ 1
สมรส 1
นโยบาย 1
ใกล้เคียง 1
หร@@ 1
ลาว 1
คู 1
ริก 1
ัก@@ 1
น่า@@ 1
ัน@@ 1
บางครั้ง 1
โกะ 1
สินค้า 1
ปรับ 1
เอ็น 1
เต็ม 1
ใจ@@ 1
2012 0.5445173404655528
เหล่า 1
ช้าง 1
หวัง 1
ระยะ 1
เยาวชน 1
_ 0.5887355152906826
มุ 1
ปราสาท 1
ไกล 1
ขา 1
2014 0.5477839261599162
ข้อ 1
ทา@@ 1
รถ@@ 1
ระเบิด 1
แอ@@ 1
ธิ@@ 1
่อ 1
บรร@@ 1
คัพ 1
ียว 1
ลึก 1
ติก 1
แลนด์ 1
การเปลี่ยนแปลง 1
สุข 1
บุรี 1
พระนาม 1
็ก@@ 1
แบ 1
สัง@@ 1
ง่าย 1
ทุก@@ 1
คัดเลือก 1
โอกาส 1
ประสาท 1
ต่อเนื่อง 1
2010 0.4308427093039815
วัย 1
2018 0.5764450577967838
มีชื่อ 1
หาย 1
อุปกรณ์ 1
กิจการ 1
ทุน 1
ด้วยกัน 1
สถิติ 1
คม 1
กรา@@ 1
ฆ่า 1
เนื้อ 1
เถ@@ 1
กระจาย 1
จี@@ 1
2554 1
ติดต่อ 1
ที่มา 1
แล@@ 1
ซาน 1
ชก 1
เทศ 1
ลั@@ 1
เกาหลี 1
ความนิยม 1
ซัน 1
ทั@@ 1
ใคร 1
ออสเตรเลีย 1
อัน@@ 1
แผน 1
in 0.01286761984753682
31 1
ที่เกิด 1
2020 0.641592557638115
นำมา 1
ลู@@ 1
ทิ้ง 1
ที@@ 1
ลม 1
2550 1
กำเนิด 1
ปี@@ 1
มารดา 1
ปรา@@ 1
มุ@@ 1
ยาน 1
ภาค@@ 1
เผยแพร่ 1
บริหาร 1
พั@@ 1
ที่ตั้ง 1
เขียว 1
กอง@@ 1
ฝ่าย@@ 1
ราชอาณาจักร 1
แน@@ 1
วอ 1
ร้อยละ 1
ต่อสู้ 1
นาย@@ 1
อบ@@ 1
บอล 1
สำ@@ 1
ชิ้น 1
เจ้าพระยา 1
ควร 1
ทั่ว 1
คู่@@ 1
ส์@@ 1
บังคับ 1
็ง 1
รัส 1
เดี่ยว 1
เรือ@@ 1
เบ 1
ประพันธ์ 1
โจ@@ 1
ตั้งขึ้น 1
ทางหลวง 1
สปีชีส์ 1
โตะ 1
อัตรา 1
ยศ 1
ยาก 1
40 1
บทบาท 1
เคมี 1
เนื้อหา 1
เป็นสมาชิก 1
โทษ 1
การนำ 1
สิ่ง@@ 1
การรักษา 1
[[ 1
ประ 1
ประชาธิปไตย 1
สิ@@ 1
กระบวนการ 1
นั@@ 1
ตัดสิน 1
จักร 1
ปืน 1
พระราชวัง 1
ลุ@@ 1
อิทธิพล 1
ต. 1
เกาหลีใต้ 1
งค@@ 1
มาตรฐาน 1
เน้น 1
ตีพิมพ์ 1
ดะ 1
หนอง 1
ข้าม 1
เช่นเดียวกับ 1
ม้า 1
กซ์ 1
ไหล 1
สังหาร 1
โพ 1
นต@@ 1
ชาวไทย 1
แข็ง 1
้อ 1
กองกำลัง 1
หยุด 1
สะพาน 1
กล่าวถึง 1
เงิน@@ 1
2557 1
แว@@ 1
นานาชาติ 1
รส 1
ใบ@@ 1
คอมพิวเตอร์ 1
ครอง 1
ทั้งสิ้น 1
ออฟ 1
โป 1
ชม 1
ไฮ 1
กระทรวง 1
ทร 1
เลีย 1
ก่อนที่จะ 1
แอน@@ 1
ถวาย 1
ไข่ 1
ก. 1
ผิด 1
คัน 1
เบล 1
2553 1
มงคล 1
โรมัน 1
้อย 1
25@@ 1
อนุ@@ 1
2015 0.48877566230239766
แขวง 1
เมน 1
แอน 1
ผู้หญิง 1
่ม 1
ประจำ@@ 1
หนี 1
พิจารณา 1
บู@@ 1
สั่ง 1
น่า 1
ไท@@ 1
กัมพูชา 1
ตำนาน 1
บัว 1
ไม@@ 1
ซอ 1
หัวใจ 1
ศาล 1
เกือบ 1
แพ@@ 1
มาน 1
ทั้ง@@ 1
สถาปัตยกรรม 1
รับบท 1
การต่อสู้ 1
ตัดสินใจ 1
ดิน@@ 1
ธิ 1
ทอ 1
พระบรม@@ 1
มหาสมุทร 1
ตู 1
วด 1
สเตอร์ 1
ระยะเวลา 1
]] 1
รัน 1
การสอน 1
เหรียญ 1
สัม@@ 1
เจดีย์ 1
เลน 1
่าง 1
หัว@@ 1
นอกจาก 1
สมบูรณ์ 1
เชิง@@ 1
นิตยสาร 1
ลี่ 1
ช่วงเวลา 1
ราคา 1
ศรี@@ 1
2017 0.516299735830561
2561 1
2551 1
็น 1
ภา 1
จิต 1
ห้อง@@ 1
แต่@@ 1
ไม้@@ 1
รุนแรง 1
วิธีการ 1
! 0.7623383499953138
มาถึง 1
ช่วยเหลือ 1
เทียบ 1
รายได้ 1
ข้าง@@ 1
2555 1
นิว@@ 1
ถือ@@ 1
นส์ 1
แข@@ 1
นู 1
2549 1
อุป@@ 1
เหตุผล 1
ยุ 1
ข้า@@ 1
ฉาก 1
ล่าง 1
นักศึกษา 1
โนะ 1
เพศ 1
แต่งงาน 1
ขุน 1
ดาว@@ 1
บ้าง 1
โต@@ 1
มอน 1
ในขณะนั้น 1
แก 1
โดยทั่วไป 1
คั@@ 1
เดิน@@ 1
2559 1
หน่วยงาน 1
้อง 1
2562 1
ยอม 1
ผู้ป่วย 1
อ. 1
คอย 1
ย์@@ 1
a 0.014151214556728107
คริสต์ 1
ซั@@ 1
ฺ 1
คำสั่ง 1
ศตวรรษ 1
โป@@ 1
คุ@@ 1
่อ@@ 1
เวน 1
ดร. 1
2008 0.4606971407939861
สด 1
T@@ 0.28509163033322815
สน@@ 1
ิร์@@ 1
เพชร 1
ปฏิบัติ 1
ระยะ@@ 1
น้ำหนัก 1
สถาปนา 1
เสียง@@ 1
ลี@@ 1
อิสระ 1
็ค 1
ความเป็น@@ 1
ส่วนตัว 1
นิกาย 1
เหล็ก 1
ศาล@@ 1
ฐ@@ 1
สตรี 1
(, 1
2013 0.45518486599527525
เห 1
ฤ@@ 1
ื@@ 1
เท่า 1
อะไร 1
บัณฑิต 1
เมืองหลวง 1
วอลเลย์บอล 1
formula 0.5804142124732805
ทั้งนี้ 1
ขน 1
เตอร์ 1
นาง@@ 1
ผม 1
กรรมการ 1
ติด@@ 1
ขา@@ 1
รอย 1
ัง 1
ี่ 1
เคน 1
ซ้าย 1
พิษ 1
ไซ@@ 1
มอบ 1
อุณหภูมิ 1
ชุ@@ 1
รหัส 1
โทร@@ 1
ฟิ@@ 1
2560 1
พรรษา 1
สำนัก 1
เอก@@ 1
S@@ 0.2251998452441607
ต้น@@ 1
นอน 1
ความคิด 1
หาง 1
ฤทธิ์ 1
บริ@@ 1
ไชย 1
คิ 1
ชิ@@ 1
ไม่@@ 1
สุริ@@ 1
รถไฟ 1
รวดเร็ว 1
เชื่อม 1
แฟน 1
เลือกตั้ง 1
รู@@ 1
ขึ้นไป 1
ฝึก 1
ตี@@ 1
@@ 0.11848185747379392
ชัดเจน 1
กำ@@ 1
แสน 1
สมเด็จพระ@@ 1
P@@ 0.26018593963376097
โดยที่ 1
๋@@ 1
ร้อย 1
งะ 1
ประโยชน์ 1
แม่@@ 1
็อง 1
มีส่วน 1
ชั@@ 1
ดอน 1
ปริมาณ 1
มหาราช 1
00 1
2019 0.4908623499142402
ิต 1
ไวรัส 1
สากล 1
แอฟริกา 1
ซูเปอร์ 1
ท่าอากาศยาน 1
สถานะ 1
2011 0.39010076206421024
เปอร์ 1
ส่งผล 1
เย็น 1
บรรดา 1
ตรวจ 1
ไต 1
ับ 1
2552 1
เมีย 1
เว 1
G@@ 0.26516540703323377
ที่สาม 1
ณา@@ 1
ชิงแชมป์ 1
ไบ@@ 1
สัมพันธ์ 1
เจ้าหน้าที่ 1
ทั้งคู่ 1
ึง 1
คว@@ 1
รู้สึก 1
มุม 1
๊ก 1
ปลูก 1
สิ้นพระชนม์ 1
แล 1
รัชสมัย 1
คนใน 1
ถึง@@ 1
การเรียน 1
สุขภาพ 1
เจอ 1
B 0.731767953477911
ไล@@ 1
เจ้าฟ้า 1
ลอนดอน 1
แกน 1
หนัง 1
ษ 1
ครึ่ง 1
พอ@@ 1
C 0.6663416284659611
ระหว่างประเทศ 1
พระราชินี 1
เพิ่มเติม 1
แดน 1
ปฏิเสธ 1
พระพุทธรูป 1
ลัย 1
ห้าม 1
เด็ก@@ 1
กระดูก 1
หอ 1
ตั@@ 1
้ง@@ 1
สึ 1
บู 1
มือ@@ 1
รัฐสภา 1
พุ@@ 1
งวง 1
สัญญาณ 1
ช่อง@@ 1
สัน@@ 1
2558 1
มู 1
โปรแกรม 1
ร. 1
กลาย 1
ขวา 1
ความเร็ว 1
ยิ่ง 1
ส่งเสริม 1
ทาน 1
บี@@ 1
ฟัง 1
รอง@@ 1
เหล@@ 1
บาร์ 1
ทุกคน 1
หรือไม่ 1
การบริหาร 1
ตี้ 1
สมัคร 1
2556 1
โปรดเกล้าฯ 1
บวร 1
ลดลง 1
แย@@ 1
ชาร์ต 1
ลัทธิ 1
พุทธ@@ 1
ลำตัว 1
พี่น้อง 1
ชิน 1
เง@@ 1
เทคนิค 1
ทราย 1
ยูไนเต็ด 1
ย่อ 1
เฉลี่ย 1
60 1
ไน 1
ำ@@ 1
เชอ 1
อวกาศ 1
สาม@@ 1
รักษา@@ 1
เปลี่ยนแปลง 1
เกร@@ 1
ทรง@@ 1
แร@@ 1
เสร็จ 1
อนุญาต 1
เร็ว 1
้อน 1
ครอง@@ 1
ขุนนาง 1
นาที 1
ประสูติ 1
ชั่วโมง 1
พุทธศักราช 1
ศิ 1
รร@@ 1
สิ้นสุด 1
เอช 1
ดู@@ 1
ฤดูหนาว 1
เป้าหมาย 1
ส่ง@@ 1
๋ 1
ซะ 1
โย@@ 1
ลล์ 1
กล 1
พระราชโอรส 1
น้ำมัน 1
น้อยกว่า 1
ประทับ 1
จั@@ 1
ยิ@@ 1
เวล 1
ผลกระทบ 1
2009 0.39569510631473054
ราย@@ 1
หมด 1
เหมาะสม 1
ไพ@@ 1
ท้าย 1
ฟิลิปปินส์ 1
ลาน 1
ป่า@@ 1
อ่าน 1
เขตการปกครอง 1
ร้องเพลง 1
โรงเรียน@@ 1
เซน 1
โรค@@ 1
ร้อน 1
หอ@@ 1
ึก@@ 1
คลื่น 1
แชมป์โลก 1
ฟรี 1
เท้า 1
อินโดนีเซีย 1
พระราชบัญญัติ 1
มีอายุ 1
แนว@@ 1
เกล้า 1
บิล 1
2563 1
รี่ 1
เวท 1
โดยตรง 1
ฟู 1
เขต@@ 1
ดั้งเดิม 1
วัคซีน 1
ให้การ 1
วิจารณ์ 1
เซนติเมตร 1
เชีย 1
ฟัน 1
มีบทบาท 1
เท่ากับ 1
ภูเขา 1
มีผล 1
ดวง 1
โช 1
เนื้อ@@ 1
ทู 1
หก 1
แข่ง 1
ลับ 1
ภรรยา 1
์" 1
แช 1
แก้ 1
2007 0.40945753329766565
เล็กน้อย 1
ฮี 1
คี@@ 1
ร็@@ 1
ความเชื่อ 1
รูปร่าง 1
ฆ@@ 1
ประดับ 1
ื้อ 1
80 1
n 0.41414703195302605
ความหมาย 1
ชี@@ 1
สิริ 1
นอกจากนั้น 1
ปีก่อน 1
ตามลำดับ 1
2@@ 1
ตรวจสอบ 1
ศ. 1
หั@@ 1
กระแส 1
)@@ 1
คง 1
ลักษณ์ 1
อพยพ 1
ความรู้ 1
ปรากฏตัว 1
สัตว์@@ 1
ขน@@ 1
การประชุม 1
ชาวบ้าน 1
B@@ 0.2267834490180626
สิ 1
เจน 1
โว 1
br 1
สร@@ 1
ใช้งาน 1
แจ้ง 1
2006 0.4131220419184924
ถิ่น 1
เบิล 1
คอนเสิร์ต 1
แทนที่ 1
อร@@ 1
ไป@@ 1
นักบุญ 1
กบฏ 1
่อง 1
รก 1
รว@@ 1
ยอ 1
รับรอง 1
เสริม 1
เกียรติ 1
สีแดง 1
ออน 1
M@@ 0.2622868739956526
สูตร 1
ธรรม@@ 1
เดนมาร์ก 1
เรียง 1
ใช้เวลา 1
รวบรวม 1
แอล 1
ตอนที่ 1
มน@@ 1
สตาร์ 1
สรุป 1
หู 1
จำ 1
มาเลเซีย 1
หมู่เกาะ 1
ทดสอบ 1
เฉพาะ@@ 1
็อก 1
จอม 1
)" 1
อล@@ 1
แด@@ 1
ยืนยัน 1
จับ@@ 1
แคนาดา 1
ปู 1
มู@@ 1
จ้าง 1
องค์การ 1
อยุธยา 1
ชนะเลิศ 1
ซู@@ 1
็อน 1
ออสเตรีย 1
คอน@@ 1
ซาร์ 1
แตกต่าง 1
ครองราชย์ 1
หว@@ 1
อะ@@ 1
หนุ่ม 1
มิส 1
กรณ์ 1
ขวัญ 1
กรีก 1
2548 1
ปริญญาตรี 1
พฤติกรรม 1
ขอ@@ 1
ภูมิ@@ 1
อันเป็น 1
ฮ่องกง 1
ยืน 1
เท่า@@ 1
ขับ 1
เซีย 1
หุ@@ 1
โปรตุเกส 1
สำเร็จการศึกษา 1
ตกลง 1
พงษ์ 1
ร็อก 1
่อง@@ 1
นับถือ 1
ก์ 1
ภพ 1
มีโอกาส 1
พันธมิตร 1
นักฟุตบอล 1
ก่อนที่ 1
สะ 1
D@@ 0.22580014531528347
การเขียน 1
ผู้คน 1
มิวสิก 1
x 0.716344437532195
อาณาเขต 1
จิน 1
แซ 1
แร 1
ราชา 1
ครอบคลุม 1
วาด 1
ยกเลิก 1
เด่น 1
ัด 1
เป 1
นั่น 1
โรง 1
โบสถ์ 1
ยั@@ 1
วาย 1
ผ้า 1
ชีพ 1
จอ 1
ผลิตภัณฑ์ 1
ศัพท์ 1
ูน 1
ออ@@ 1
เนเธอร์แลนด์ 1
ชำ@@ 1
พระองค์เจ้า 1
โช@@ 1
สืบ 1
ึ@@ 1
เปีย 1
ถ่าย@@ 1
ไร@@ 1
เครือข่าย 1
บรรจุ 1
ที่สูง 1
ตั้งชื่อ 1
อาทิ 1
อ้างอิง 1
สติ 1
โรง@@ 1
รอน 1
มายัง 1
การประกวด 1
ศาสตราจารย์ 1
ฮั@@ 1
เวที 1
แก้ไข 1
พี@@ 1
โตเกียว 1
ธร 1
คอมมิวนิสต์ 1
เรีย@@ 1
มิได้ 1
ภารกิจ 1
ประจำปี 1
สาธารณะ 1
เตรียม 1
สะ@@ 1
พุทธ 1
อียิปต์ 1
หลากหลาย 1
ีน 1
เซนต์ 1
ทันที 1
สาเหตุ 1
ได@@ 1
ความรู้สึก 1
ประเพณี 1
รถยนต์ 1
สนาม@@ 1
่าย 1
ลงมา 1
ศา@@ 1
ียร 1
ก่อนหน้า 1
บุก 1
ท้อง 1
ติดกับ 1
ผู้จัดการ 1
บัตร 1
นำไปสู่ 1
ร์ก 1
ปาก@@ 1
มวล 1
พัก@@ 1
on 0.03225666622885222
วก 1
ลอ@@ 1
จิต@@ 1
นนท์ 1
อยาก 1
สนธิสัญญา 1
แฟ@@ 1
ตามที่ 1
จำเป็น 1
ตัด@@ 1
มติ 1
้ว 1
อารมณ์ 1
ยาง 1
เว็บไซต์ 1
ทางการ 1
ไค 1
สู้ 1
เผ่า 1
ือ@@ 1
ดัดแปลง 1
วิ่ง 1
วิทยุ 1
ศิลป์ 1
ฏ 1
เหมือนกับ 1
ทรัพย์ 1
กลัว 1
ตาราง 1
ละครโทรทัศน์ 1
รัตน์ 1
กรรม@@ 1
เธ@@ 1
แรง@@ 1
ปรัชญา 1
สิ่งมีชีวิต 1
่ำ@@ 1
สาขาวิชา 1
C@@ 0.249566221309528
ปลา@@ 1
่าน 1
วิเคราะห์ 1
แฮ 1
อาร์@@ 1
E 0.973123580404027
ฟอ 1
ค่อนข้าง 1
ต์@@ 1
โปแลนด์ 1
ขี@@ 1
ฉัน 1
ชิงชนะเลิศ 1
เข้ากับ 1
ความแตกต่าง 1
มอง 1
ที่นั่ง 1
สถานีโทรทัศน์ 1
เดน 1
ศิลป@@ 1
ภ 1
2564 1
ภาษาไทย 1
คิ@@ 1
ไฮ@@ 1
มีอำนาจ 1
บทความ 1
ญา@@ 1
ท้าว 1
รวมกัน 1
เสือ 1
แกรนด์ 1
อภิ@@ 1
โชว์ 1
ประดิษฐาน 1
กลม 1
บวก 1
ไล 1
สหภาพโซเวียต 1
การควบคุม 1
เปิด@@ 1
แฮ@@ 1
ขึ้นอยู่กับ 1
พิพิธภัณฑ์ 1
นั่ง 1
นิว 1
ลบ 1
ยกเว้น 1
ไว@@ 1
ฐาน@@ 1
แค่ 1
ัน 1
สถานการณ์ 1
... 0.7721739921650167
บราซิล 1
บัน 1
จ่าย 1
ศักดิ์สิทธิ์ 1
90 1
ไน@@ 1
พิ 1
บัง@@ 1
ศัตรู 1
ต้า 1
ดาบ 1
ข้าว@@ 1
เนื้อที่ 1
ิล@@ 1
ก็ตาม 1
ความเสียหาย 1
ทัศน์ 1
แป@@ 1
ฟา@@ 1
ุน 1
โร่ 1
เนื้อเรื่อง 1
ผิว 1
เจ้าอาวาส 1
จุ@@ 1
อว@@ 1
หลายครั้ง 1
สวยงาม 1
เฟอร์ 1
คุณสมบัติ 1
ิล 1
I 0.23943395505083565
ี่ยว 1
รัง@@ 1
ยุติ 1
เติบโต 1
บันเทิง 1
สตูดิโอ 1
สวน@@ 1
ช้า 1
ประชุม 1
หนังสือพิมพ์ 1
ฮา@@ 1
N@@ 0.236528393522004
ประการ 1
รู้@@ 1
เคา 1
มีความ@@ 1
คอ@@ 1
สนใจ 1
หลวงพ่อ 1
พรีเมียร์ 1
มวย 1
เกล@@ 1
แสดง@@ 1
ปรับปรุง 1
บรา 1
ยุทธการ 1
รอย@@ 1
เลื่อน 1
ตุ 1
ปะ@@ 1
แท้จริง 1
บอ@@ 1
ขั้น 1
วิจัย 1
กี่ 1
แอร์ 1
ชาย@@ 1
องค์ประกอบ 1
ไข@@ 1
ภู 1
เอกสาร 1
ต้นไม้ 1
เทพ@@ 1
้ว@@ 1
เอ็@@ 1
สวีเดน 1
หลุยส์ 1
เพื่อน@@ 1
นัน 1
คอม 1
คอร์ 1
นิ้ว 1
ประสงค์ 1
กฎ 1
ณ์ 1
ติดตาม 1
น้อง 1
เทศบาลตำบล 1
ผู้อำนวยการ 1
เจ้าเมือง 1
ปฏิกิริยา 1
เปิดเผย 1
ลัน 1
เชื้อสาย 1
ติดเชื้อ 1
การทดลอง 1
R@@ 0.21194360320331215
L@@ 0.18949220353443583
y 0.028560324115792495
to 0.012583592713143788
2547 1
ซุน 1
เป็นผล 1
รม 1
อุโบสถ 1
ที่หนึ่ง 1
คาด 1
+ 0.877501811314705
นักเขียน 1
มิตร 1
สิงห์ 1
เทียน 1
ถ 1
องค@@ 1
อ้าง 1
S 0.8083759952305362
ร้าน 1
ราง 1
ความสนใจ 1
เป็นตัวแทน 1
สิ่งแวดล้อม 1
เชื่อมต่อ 1
ทำได้ 1
เจ้าของ 1
อริ 1
งาม 1
ิด@@ 1
เกณฑ์ 1
ความสูง 1
ระยะทาง 1
งานวิจัย 1
แนะนำ 1
ดาร 1
ปิด@@ 1
ภู@@ 1
รด 1
มพ@@ 1
อำ@@ 1
รังสี 1
รถไฟฟ้า 1
จุฬาลงกรณ์ 1
ความรัก 1
โฆษณา 1
วย 1
วาด@@ 1
ร่วมใน 1
เครื่องยนต์ 1
กำหนดให้ 1
เอา@@ 1
เสา 1
ศาส@@ 1
ยูฟ่า 1
ราชินีนาถ 1
มัน@@ 1
200 0.9941394990768766
นคร@@ 1
ภายนอก 1
อาหรับ 1
ตัวอย่างเช่น 1
มาตรา 1
ไม 1
คติ 1
ึก 1
ยง 1
นับตั้งแต่ 1
มิติ 1
F@@ 0.21797280946582034
ใส 1
พันธ์ 1
แหลม 1
i 0.278725798235458
สเป@@ 1
มัง 1
ตรวจ@@ 1
มั่น 1
แปลง 1
ชายฝั่ง 1
็ด 1
2000 0.3808040304783391
ตารางกิโลเมตร 1
าน@@ 1
กัส 1
ทิ 1
เหลือง 1
เบีย 1
อป 1
70 1
สิงคโปร์ 1
H@@ 0.22205722934834757
อิง 1
ริม 1
เคลื่อนที่ 1
ปารีส 1
คาด@@ 1
สนิท 1
เขมร 1
กรุงเทพ 1
พายุ 1
สระ 1
เวิลด์ 1
สู@@ 1
เป็นที่ตั้ง 1
ปีก 1
ฝน 1
ข้าว 1
เจ็ด 1
O@@ 0.2471541826147587
ชีว@@ 1
ผู้ใช้ 1
เทศบาล 1
ฐ 1
อันตราย 1
เบน 1
แอนด์ 1
ดยุก 1
รัก@@ 1
กาล 1
มีค่า 1
่าง@@ 1
ความขัดแย้ง 1
ชัยชนะ 1
ฟอร์ด 1
องศา 1
ระบบ@@ 1
2004 0.410849539702201
กลาง@@ 1
ภั@@ 1
ล้อม 1
สูญเสีย 1
ึง@@ 1
ยาน@@ 1
วางแผน 1
กำลัง@@ 1
ตะวันออกเฉียงเหนือ 1
รักษ์ 1
ทัน 1
สร้าง@@ 1
ชะ@@ 1
ื้อ@@ 1
ฝัน 1
ที่ว่า 1
พลเอก 1
อต 1
มนตรี 1
าย 1
เป็นเรื่อง 1
ใช้@@ 1
คณิตศาสตร์ 1
ได้มา 1
ขบวน 1
ฮังการี 1
โดดเด่น 1
ยุค@@ 1
เป็นตัว 1
โฟ@@ 1
พระพุทธ 1
เข้าใจ 1
A@@ 0.2072600172417077
2021 0.4586248599448429
มัธยมศึกษา 1
สมบัติ 1
นิวยอร์ก 1
ปัญญา 1
2005 0.38349247070369613
ตลอดจน 1
ล์@@ 1
โฮ@@ 1
35 1
เสาร์ 1
ต้อง@@ 1
ซี่ 1
การปฏิวัติ 1
ต่าง@@ 1
โซเวียต 1
วาน 1
K@@ 0.21194250418165075
บุตรชาย 1
ประชา@@ 1
ข้อความ 1
รายละเอียด 1
แพ 1
ความร้อน 1
กรุณา 1
ราชสำนัก 1
มง 1
แปซิฟิก 1
คนอื่น 1
โห@@ 1
ผนัง 1
เอกชน 1
ช์ 1
บิ@@ 1
สมัยใหม่ 1
สงครามโลกครั้งที่สอง 1
นครราชสีมา 1
รับราชการ 1
T 0.8168917789134351
ตอนเหนือ 1
ระเบ@@ 1
รุกราน 1
วงดนตรี 1
สง@@ 1
กระตุ้น 1
ทองคำ 1
วรรณกรรม 1
เติ@@ 1
ก่อ@@ 1
สว่าง 1
สวรรค์ 1
ฮัน 1
ประดิษฐ์ 1
สป@@ 1
ยึดครอง 1
บูชา 1
M 0.8375150289340163
เช่นนี้ 1
ล้าง 1
แยก@@ 1
กล้ามเนื้อ 1
โดน 1
ขอบ 1
ร์ด 1
สถาน@@ 1
กรด 1
จัดอันดับ 1
รอด 1
เอกราช 1
ว่าด้วย 1
วัฒน 1
ไฟ@@ 1
ทูต 1
ทวีป@@ 1
วิญญาณ 1
ราชบัลลังก์ 1
ช่าง 1
สายพันธุ์ 1
เรียกร้อง 1
เวียน 1
ไร้ 1
ดารา 1
มีความหมาย 1
ฮ 1
เต้น 1
ปั้น 1
พรรค@@ 1
ตลอด@@ 1
นิยาม 1
ดอลลาร์สหรัฐ 1
ทะเลสาบ 1
ทุ่ง 1
D 0.6476866613279623
คนเดียว 1
อาณานิคม 1
สถานีรถไฟ 1
สัมผัส 1
คุณภาพ 1
มรดก 1
ว่า@@ 1
ตร 1
เหม@@ 1
แรงงาน 1
กลุ่ม@@ 1
ที่ปรึกษา 1
ช่วง@@ 1
มัส 1
คณะสงฆ์ 1
ชุมนุม 1
P 0.964844576479434
เหน@@ 1
จัน 1
ร์ค 1
เชิญ 1
เทศกาล 1
การเงิน 1
ในสังกัด 1
ซิง 1
กี้ 1
ผลการแข่งขัน 1
มิน@@ 1
เทา 1
งบประมาณ 1
รองรับ 1
F 0.7922767254843158
ผู้ชนะ 1
ในนาม 1
เจมส์ 1
นำแสดง 1
เช 1
เรื่อย 1
แช@@ 1
E@@ 0.2311201630871755
ครบ 1
ความจริง 1
เก็บ@@ 1
การทหาร 1
อย่างหนึ่ง 1
ื่น 1
กำแพง 1
เสื้อ 1
ซอน 1
ย่าน 1
สันนิษฐาน 1
พระราชพิธี 1
[ 1
ภาคใต้ 1
เหล่านั้น 1
เอ็ด 1
ยิว 1
สหภาพ 1
ผู้โดยสาร 1
บะ 1
ลอง 1
ื่อ@@ 1
ให้ได้ 1
ระบาด 1
2546 1
ลอย 1
แอล@@ 1
พระที่นั่ง 1
วัสดุ 1
โจว 1
ทู@@ 1
สนามกีฬา 1
โปร@@ 1
V@@ 0.23187741245750015
ถัดมา 1
นายก 1
รองชนะเลิศ 1
เลข 1
สงบ 1
ซ้อน 1
ยาวนาน 1
คว้า 1
32 1
ขึ้น@@ 1
กระทั่ง 1
ความปลอดภัย 1
ที่วัด 1
การประ@@ 1
พ่ายแพ้ 1
นัส 1
กว้างขวาง 1
นำเสนอ 1
เผ@@ 1
สุวรรณ 1
โปรด 1
รวมไปถึง 1
วินิจฉัย 1
45 1
ศุ@@ 1
พนม 1
นำ@@ 1
สะสม 1
คะ 1
หาร 1
กำจัด 1
ทำประตู 1
ถ่ายทำ 1
อัส 1
หมาย 1
สว@@ 1
เก่าแก่ 1
2544 1
ธนาคาร 1
มังกร 1
ข 1
การคัดเลือก 1
เวีย 1
ตอบสนอง 1
กลิ่น 1
ริม@@ 1
โส@@ 1
2542 1
ค้นหา 1
สกี 1
ร่วมงาน 1
ื่อ 1
โลหะ 1
โอน 1
us 0.242284050186082
] 1
ราก 1
สอบ 1
O 0.5275256582194717
์ค 1
ยุบ 1
ถา 1
นด์ 1
วิลเลียม 1
ตอบ 1
เฟ 1
ภิ@@ 1
พรหม 1
เคร@@ 1
ความต้องการ 1
| 1
งู 1
มเหสี 1
โคร@@ 1
2539 1
ดวง@@ 1
บาล 1
อ้างว่า 1
สหพันธ์ 1
ความช่วยเหลือ 1
ยักษ์ 1
ี่@@ 1
ดาวเคราะห์ 1
เพลิง 1
พ้น 1
ฝา@@ 1
จอร์จ 1
ชั่วคราว 1
วดี 1
ชื่อเล่น 1
รัตน 1
เป็นอย่างมาก 1
มป์ 1
ผู้ชม 1
้าง 1
การป้องกัน 1
บาน 1
กระทรวง@@ 1
ซ้ำ 1
ถ้ำ 1
มวยปล้ำ 1
เตอร์@@ 1
เกีย 1
บก 1
ที่ผ่านมา 1
คัมภีร์ 1
ส่วนมาก 1
พื้นเมือง 1
โค้ง 1
N 0.9224778073349745
สามัญ 1
เบร@@ 1
บรรยาย 1
มหาชน 1
หวาน 1
ราชสมบัติ 1
พระบาทสมเด็จพระจุลจอมเกล้าเจ้าอยู่หัว 1
จน@@ 1
สืบทอด 1
มาส 1
ทหาร@@ 1
เม็กซิโก 1
เขตร้อน 1
เปรียบเทียบ 1
พจน์ 1
ลุ 1
ไต้หวัน 1
นทร์ 1
ประสบการณ์ 1
พรรคการเมือง 1
หนู 1
สเต@@ 1
โบ@@ 1
มุข 1
ลาย@@ 1
ับ@@ 1
ความสำคัญ 1
เอาไว้ 1
บ. 1
ตส์ 1
โซน 1
บรมวงศ์ 1
สหประชาชาติ 1
เข้าถึง 1
พอใจ 1
H 1
โครง@@ 1
2540 1
ธา 1
ครีบ 1
พารา 1
ภักดี 1
ภาย 1
หม่อม 1
้ำ 1
สำนัก@@ 1
รับผิดชอบ 1
มูล 1
่าย@@ 1
ผู้ใหญ่ 1
ศาลา 1
ผู้ว่า@@ 1
ยิ่งใหญ่ 1
2535 1
พายุ@@ 1
หลาน 1
ครั@@ 1
โปร 1
บัญญัติ 1
สิน@@ 1
็ต 1
กี@@ 1
ตรงข้าม 1
นวนิยาย 1
ฉา@@ 1
สีเหลือง 1
คิม 1
สห@@ 1
คณะรัฐมนตรี 1
โรงแรม 1
บ้าน@@ 1
ธรรมดา 1
สิทธิ@@ 1
ขุด 1
แสดงให้เห็น 1
ปกป้อง 1
สมัย@@ 1
้าง@@ 1
ถูกต้อง 1
แม 1
ือก 1
สงฆ์ 1
้ม@@ 1
บอก@@ 1
ัง@@ 1
พาณิชย์ 1
เพลย์ 1
จำเป็นต้อง 1
ถ่าย 1
ฝัง 1
วุ@@ 1
้าว 1
นซ์ 1
al 0.07626971232491277
ดังต่อไปนี้ 1
อุดมศึกษา 1
โปรตีน 1
W@@ 0.19622202762723562
ผี 1
เทศ@@ 1
ดัน 1
หลัก@@ 1
ลิเวอร์พูล 1
มาร์@@ 1
เอน 1
ี้ยว 1
ี้ยน 1
บริโภค 1
ล่าสุด 1
1,@@ 1
ตามมา 1
บางคน 1
์, 1
ญาติ 1
เหลี่ยม 1
ต่ำกว่า 1
เทียม 1
ขบวนการ 1
สร 1
ผา 1
ดี้ 1
เมล็ด 1
ผู้ช่วย 1
นาค 1
พัน@@ 1
ซิตี 1
ดำเนิน@@ 1
่อม 1
2545 1
นิวเคลียร์ 1
ถัง 1
มูลนิธิ 1
้อน@@ 1
เผา 1
มีอิทธิพล 1
ติดตั้ง 1
อาทิตย์ 1
บาดเจ็บ 1
ก่อให้เกิด 1
คนไข้ 1
่ว@@ 1
/@@ 1
ประกวด 1
พระพุทธศาสนา 1
่ย 1
ธา@@ 1
เทือกเขา 1
่ำ 1
ศิษย์ 1
อนุมัติ 1
ธิบดี 1
อินเตอร์ 1
สำรวจ 1
2543 1
ซับซ้อน 1
ณี 1
ยุทธ 1
X 0.7049546309523922
ข่าว@@ 1
อิสราเอล 1
ประท้วง 1
วรรณ@@ 1
ฮั่น 1
โคล@@ 1
ประถมศึกษา 1
เชื้อ 1
บอร์ด 1
กิน@@ 1
แบน 1
ตย์ 1
บำ@@ 1
ห้วย 1
เมือง@@ 1
สังเกต 1
เดช 1
สะท้อน 1
1990 0.46676443612830426
วอร์ 1
การกระทำ 1
." 1
ทวีป 1
ตรา@@ 1
เป็นอดีต 1
นำมาใช้ 1
amp 0.2599326757124896
มีประสิทธิภาพ 1
แผนก 1
้าย 1
ทว่า 1
ศัก@@ 1
เปล@@ 1
าะ 1
แปด 1
ชายแดน 1
แพร่หลาย 1
กรุงศรีอยุธยา 1
ป่วย 1
ฟังก์ชัน 1
ไหน 1
มณี 1
คิว 1
พิสูจน์ 1
ี้ย 1
WWE 1
อิหร่าน 1
เรื่อง@@ 1
รณ@@ 1
ผิด@@ 1
เหรียญทอง 1
ความพยายาม 1
บูร 1
ศร 1
รุ่น@@ 1
อธิ@@ 1
เรย์ 1
สาธารณสุข 1
็อง@@ 1
J@@ 0.2421266791932799
ัด@@ 1
500 0.9251982397740108
ยอดขาย 1
ก่อนหน้านี้ 1
ฉายา 1
ทางเศรษฐกิจ 1
เอฟ@@ 1
จาง 1
ณฑ@@ 1
พระบาทสมเด็จพระ@@ 1
์ส 1
วิวัฒนาการ 1
รับประทาน 1
หุ้น 1
หมา@@ 1
ท้อง@@ 1
สลับ 1
การเคลื่อนไหว 1
ลาด@@ 1
เต็ม@@ 1
อร์ต 1
วิชาการ 1
L 0.45659374410921966
เลิก 1
ฮุ@@ 1
ทัวร์ 1
หนา 1
ชี้ 1
มุสลิม 1
นอก@@ 1
ราก@@ 1
เหมือนกัน 1
ิม 1
ซึม 1
สิน 1
กระแส@@ 1
นัย 1
ปาง 1
เป็นต้นมา 1
บัง 1
เสนอชื่อ 1
é 0.17499622253723957
ด้วย@@ 1
ลส์ 1
ขณะนั้น 1
ผู้เข้าแข่งขัน 1
บอย 1
ภูมิศาสตร์ 1
ม่วง 1
หลง 1
เครื่องมือ 1
กวี 1
คริ@@ 1
คิง 1
นิยาย 1
ปรากฏการณ์ 1
ียบ@@ 1
เข้าแข่งขัน 1
ตอ 1
ร้อย@@ 1
ing 0.07699535310805403
ทิศเหนือ 1
กิจ@@ 1
ครั้งหนึ่ง 1
เข 1
กู@@ 1
พงศ์ 1
ด่าน 1
ปัจจัย 1
ฟุ 1
ศูนย์@@ 1
จาร 1
เทีย@@ 1
บูรณะ 1
สุด@@ 1
ตู@@ 1
ทางใต้ 1
ตกแต่ง 1
ญญา@@ 1
ถาวร 1
ธี@@ 1
บูร@@ 1
ออนไลน์ 1
idae 1
อนิเมะ 1
อินเทอร์เน็ต 1
ีก 1
ล้มเหลว 1
ินี 1
ถู 1
สรร@@ 1
ผู้เสียชีวิต 1
พี่ชาย 1
ยอม@@ 1
เวีย@@ 1
ปราบ 1
กระทรวงศึกษาธิการ 1
ฝีมือ 1
เวอร์ชัน 1
พฤ@@ 1
ุ่น 1
เซ็นสัญญา 1
ร่วมมือ 1
t 0.15143440823239454
คว้าแชมป์ 1
ลงนาม 1
กลับ@@ 1
ตอน@@ 1
ตั้งใจ 1
น่าจะ 1
พยาบาล 1
R 0.5891774403080019
ท์@@ 1
ลล@@ 1
ือง 1
เกราะ 1
จัง 1
กว@@ 1
ท. 1
ลัก@@ 1
ด้านหน้า 1
มีชีวิต 1
ิ่น 1
ตอบ@@ 1
ฑ@@ 1
เซ็@@ 1
ความถี่ 1
ฮี@@ 1
ฉลอง 1
อส 1
จักรวาล 1
หลังคา 1
ห์@@ 1
ไม่ต้อง 1
ก้า 1
ลด@@ 1
G 0.7261693151439287
สวรรคต 1
็กซ์ 1
ความสำเร็จ 1
รัฐประหาร 1
ดง 1
ทิศตะวันออก 1
2538 1
ความร่วมมือ 1
ป. 1
วาร 1
โต้ 1
ระเบียบ 1
V 0.6800403226826114
โซล 1
พี่ 1
ฮะ 1
โครง 1
ุ่ม 1
ตัวอักษร 1
สิ้น@@ 1
m 0.1917250117284164
48 1
ดับเบิลยู 1
ไพร 1
ซัส 1
และ@@ 1
นาซี 1
เจรจา 1
โดยเฉพาะอย่างยิ่ง 1
ท้องที่ 1
ลอ 1
สวม 1
ได้ดี 1
จารึก 1
c 0.3129519534695043
การแพทย์ 1
คริสตกาล 1
พนักงาน 1
ไตร@@ 1
คลัง 1
2002 0.3653350219625253
มนต์ 1
สุโขทัย 1
ซ์@@ 1
พญา 1
ทัน@@ 1
สถานี@@ 1
พระนคร 1
สตา@@ 1
อภิเษกสมรส 1
ไมล์ 1
เฮนรี 1
e@@ 0.18771240073012851
สุนทร 1
แร่ 1
ภาษี 1
แม่เหล็ก 1
ทะ@@ 1
ไก 1
ขัง 1
เด็@@ 1
ได้รับแต่งตั้ง 1
ทับ@@ 1
ื้@@ 1
ระดับ@@ 1
น้ำแข็ง 1
รัม 1
ผู้ชาย 1
เชื่อ@@ 1
เลขาธิการ 1
ด้านล่าง 1
การวิจัย 1
มีความสำคัญ 1
ม่า 1
ทั้งหลาย 1
ฯลฯ 1
พยา@@ 1
ลุง 1
หลักการ 1
จับกุม 1
ญาณ 1
กองทัพบก 1
เป็นที่นิยม 1
ถ้วย 1
ฟุต 1
สอง@@ 1
การใช้งาน 1
เลียน 1
พันธ@@ 1
ขาด@@ 1
ความมั่นคง 1
หม่อมเจ้า 1
2003 0.36834183074421945
แส@@ 1
ร่า 1
ลิน 1
มองเห็น 1
เบา 1
จริง@@ 1
สังเกต@@ 1
ี้ย@@ 1
de 0.00424830037241922
เจอร์ 1
็อ@@ 1
แคบ 1
ตึก 1
ขอให้ 1
พระครู 1
กล้อง 1
มะเร็ง 1
กองทัพเรือ 1
ศาสน@@ 1
ความเห็น 1
ยืม 1
วน@@ 1
ปก@@ 1
เซต 1
d 0.12026749896319257
อุทยานแห่งชาติ 1
ความเสี่ยง 1
ั่ง 1
จอมพล 1
บางอย่าง 1
ปอ 1
โด่งดัง 1
มัด 1
เวช 1
ทิศตะวันตก 1
ี้@@ 1
พิทักษ์ 1
ศีรษะ 1
เป็นหลัก 1
ขอนแก่น 1
ความรุนแรง 1
วิทยา@@ 1
เศ@@ 1
นาถ 1
แผ่นดินไหว 1
อี้ 1
จ. 1
โรงงาน 1
ผู้ปกครอง 1
ประมุข 1
ทั่วประเทศ 1
สโต@@ 1
ในอนาคต 1
ทางเพศ 1
ฬ 1
ฟ้า@@ 1
เอกลักษณ์ 1
เข้ม 1
จร 1
ือก@@ 1
กง 1
สมุ@@ 1
เพาะ@@ 1
ขนาน 1
ลูกชาย 1
ธี 1
ใกล้ชิด 1
ท่อ 1
ประเด็น 1
ระบอบ 1
เวลา@@ 1
นักวิชาการ 1
โระ 1
ซุ 1
โทร 1
ค่ำ 1
นักการเมือง 1
ยม 1
คู@@ 1
ดาน 1
มัธยม 1
1980 0.5299510804502112
เพิ่ม@@ 1
แน่นอน 1
ฟิสิกส์ 1
เจีย 1
an 0.02514897170670929
ทอด@@ 1
ร่วม@@ 1
กระท@@ 1
หิ@@ 1
มิต 1
สัก 1
เนียน 1
บรม@@ 1
สตัน 1
๋ง 1
ยีน 1
หญ้า 1
เบลเยียม 1
บร@@ 1
:@@ 1
อนุภาค 1
อ่าว 1
อนุรักษ์ 1
๑@@ 1
อินทร@@ 1
ถึงแม้ว่า 1
ละลาย 1
การสำรวจ 1
เกียรติ@@ 1
สิ้น 1
ไม่ค่อย 1
รัฐ@@ 1
ทิศ 1
ทะ 1
ตัวผู้ 1
วด@@ 1
แถว 1
แบบ@@ 1
ล์ม 1
สงสัย 1
ภาคเหนือ 1
ไอร์แลนด์ 1
ช่วงแรก 1
อับ 1
พระราชธิดา 1
พิธีกร 1
กรุงเทพฯ 1
ผู้บัญชาการ 1
ด้านหลัง 1
ยื่น 1
สระ@@ 1
ดำรง 1
เก้า 1
แค้น 1
หิน@@ 1
ถาม 1
มูลค่า 1
ทุกวัน 1
บริจาค 1
เชียง 1
แห้ง 1
10@@ 0.6889840416247246
นว@@ 1
โมเลกุล 1
หมอ 1
กระทรวงมหาดไทย 1
คง@@ 1
หมวดหมู่ 1
ทางสังคม 1
ส. 1
ปูน 1
ียบ 1
ถิ่นกำเนิด 1
ทรัพย์สิน 1
วุฒิ 1
สัดส่วน 1
จู@@ 1
ลักษณะ@@ 1
หมด@@ 1
เปิล 1
แผนการ 1
,@@ 1
บำรุง 1
หอม 1
โปรด@@ 1
การเกษตร 1
น์@@ 1
ตุรกี 1
ล็อก 1
ูล 1
แสง@@ 1
ช่าง@@ 1
ดวงอาทิตย์ 1
อัด 1
นก@@ 1
มิด 1
การปรับปรุง 1
นิสัย 1
ืน 1
อะตอม 1
เปลือก 1
กระ 1
ชัย@@ 1
ออกเสียง 1
เสรี 1
สัญชาติ 1
หง@@ 1
๋า 1
ผ้า@@ 1
อู่ 1
300 1
แฟร@@ 1
ทดลอง 1
น้ำตาล 1
บุรุษ 1
ตอนแรก 1
พระราชา 1
็อก@@ 1
ช่วงต้น 1
คล้ายคลึง 1
ไพ 1
ปุ 1
เต็มที่ 1
โคล 1
ราชการ@@ 1
เพื่อที่จะ 1
เสกสมรส 1
เบิร์ก 1
ส้ม 1
แชมเปียนส์ 1
ประสา@@ 1
แพทยศาสตร์ 1
พัง 1
วิถี 1
เมะ 1
โต้@@ 1
ตสึ 1
ตลก 1
เรือน 1
สถาบัน@@ 1
ผู้อ@@ 1
for 0.02092912700970221
ผู้กำกับ 1
เร็@@ 1
ไมเคิล 1
I@@ 0.2364101982993597
ปรี@@ 1
ปุ@@ 1
ฟ์ 1
แขน 1
อิส 1
ฆ 1
ฟื้นฟู 1
เฉลิม 1
ตัวแทน 1
ล้วน 1
แอบ 1
การ์ด 1
ลิขสิทธิ์ 1
จัดทำ 1
สันตะปาปา 1
ล. 1
ู่@@ 1
ทิศ@@ 1
ไทยแลนด์ 1
่อน@@ 1
กรอบ 1
งานเขียน 1
ยน 1
วาระ 1
ปริญญาโท 1
e 0.13866388913455696
ขยาย@@ 1
aceae 1
เขตเลือกตั้ง 1
คุ้มครอง 1
ดม 1
นครศรีธรรมราช 1
สังคมนิยม 1
ถอน 1
หมาย@@ 1
เพียงแค่ 1
แมค 1
ทางรถไฟ 1
เยือน 1
แหวน 1
section 0.9141148007652161
พิพากษา 1
ดับ@@ 1
ราน 1
จักรพรรดินี 1
ทุกปี 1
อีก@@ 1
ซ่า 1
สตี@@ 1
แคล@@ 1
เฝ้า 1
น่าน 1
ข้าราชการ 1
จดหมาย 1
สายการบิน 1
ตรง@@ 1
ใช้ชีวิต 1
กล้า 1
ทัย 1
มวยสากล 1
ทริ@@ 1
กุศล 1
36 1
ึ 1
เตรียม@@ 1
กรอง 1
ล่า@@ 1
ดำ@@ 1
เอ็น@@ 1
ข้อตกลง 1
ยกทัพ 1
งก์ 1
เทศบาลเมือง 1
เบส 1
แสดงว่า 1
b 0.3403550516949371
แม้แต่ 1
งอ 1
ation 0.10931838204583293
เช้า 1
เปลี่ยนเป็น 1
/& 1
กอ@@ 1
บ่อยครั้ง 1
ผู้แทน 1
ียส 1
ป้อม 1
สัก@@ 1
เกมส์ 1
เติม 1
พาน 1
นม 1
ธานี 1
สถานที่@@ 1
ไตร 1
จักร@@ 1
ประเทศ@@ 1
ธงชาติ 1
หลบหนี 1
ท่าเรือ 1
น้องชาย 1
บรรยากาศ 1
จิตใจ 1
ปะ 1
แก้@@ 1
is 0.016623328620398926
ซิม 1
เกะ 1
พื้นผิว 1
ไลน์ 1
ยึด@@ 1
วิสุงคามสีมา 1
เทวี 1
โรม 1
2001 0.3219978526895586
๒@@ 1
ฎ@@ 1
ตอนปลาย 1
ช. 1
พากย์ 1
วิทยาเขต 1
หุ้ม 1
เอ็ดเวิร์ด 1
สำเนียง 1
แฮม 1
นิช 1
อุบัติเหตุ 1
แบคทีเรีย 1
ละเอียด 1
หลายชนิด 1
ขุน@@ 1
สร้างสรรค์ 1
เนียม 1
ถุ@@ 1
ช่วย@@ 1
คุม 1
ขั้น@@ 1
ค้า 1
World 0.2252437652263822
จำลอง 1
เหยื่อ 1
ขึ้นกับ 1
เปลี่ยนไป 1
ี่ยง 1
ถัมภ์ 1
แท้ 1
แปร@@ 1
เวย์ 1
บ่อย 1
อย่างไรก็ดี 1
กรีซ 1
พรรณ 1
ราษฎร 1
วรรณ 1
ศรัทธา 1
ตต์ 1
สงขลา 1
ลูกสาว 1
เซ็น 1
มงกุฎ 1
ญา 1
นารี 1
ยม@@ 1
แบร์ 1
ไบ 1
ก้าว 1
ชื่อดัง 1
ลาก 1
นิค 1
็ม 1
ยาม 1
ฤดู 1
ดอก@@ 1
p 0.3598168907581872
ด้าน@@ 1
เวิร์@@ 1
ทำนอง 1
ดับ 1
ซึ@@ 1
ตอนต้น 1
อย่าง@@ 1
เซฟ 1
กด@@ 1
ปิ 1
ลิก 1
ฝั่ง@@ 1
แต่เดิม 1
ณ์@@ 1
โอะ 1
มีปัญหา 1
กลอง 1
ท่า@@ 1
เป็นระบบ 1
ครั้น 1
เอ็กซ์ 1
ปลายปี 1
กลีบ 1
ประกัน 1
บรรพ@@ 1
ตติ@@ 1
อัคร@@ 1
หลายอย่าง 1
สก 1
ก้าวหน้า 1
จ์ 1
จันท@@ 1
สวย 1
ฮอล@@ 1
ลังกา 1
บัญชี 1
บุค@@ 1
ไกร 1
รับเชิญ 1
จาน 1
ล้ม@@ 1
2541 1
แหล่ง@@ 1
พระธาตุ 1
ัย@@ 1
2537 1
ครอบครอง 1
สำนักพิมพ์ 1
อยู่@@ 1
ดจ์ 1
จำแนก 1
ผูก@@ 1
K 0.6855722341590217
ท่องเที่ยว 1
ผู้ผลิต 1
จาร@@ 1
เชียงราย 1
แก๊ส 1
ชีวิต@@ 1
ต่างชาติ 1
อิสลาม 1
เห็น@@ 1
แล้วก็ 1
มล 1
สีน้ำตาล 1
นอร์เวย์ 1
นักวิทยาศาสตร์ 1
แมตช์ 1
มาณ@@ 1
ค่าใช้จ่าย 1
ริเริ่ม 1
สุร@@ 1
เป็นไปได้ 1
จด@@ 1
ฝึก@@ 1
มืด 1
ถ่ายทอด 1
คาบสมุทร 1
จอร์@@ 1
ลือ 1
พ.@@ 1
อัย@@ 1
ไขมัน 1
ปฏิบัติ@@ 1
ทิศทาง 1
มองว่า 1
กรี@@ 1
อัตโนมัติ 1
้าน@@ 1
ู้ 1
กังวล 1
ว่าง 1
แต่ว่า 1
ด้า 1
2534 1
คี 1
โพธิ์ 1
33 1
เข้ารอบ 1
การสื่อสาร 1
มุมมอง 1
ดิบ 1
วัต 1
กาญ@@ 1
สมุด 1
หล่อ 1
อักเสบ 1
ทำเป็น 1
ยัน 1
ใย 1
เปร@@ 1
อิสริยยศ 1
กั้น 1
มหานิกาย 1
เวียง 1
ยุติธรรม 1
h 0.2855941805975375
เคลื่อน 1
ชนบท 1
เช่นเดียวกัน 1
55 1
คัน@@ 1
ชะ 1
วัยรุ่น 1
รัชทายาท 1
ล้อ 1
อิรัก 1
กันที่ 1
ว่ายน้ำ 1
เชื้อเพลิง 1
ไหม้ 1
“@@ 1
กลไก 1
หาด 1
แลกเปลี่ยน 1
ติดต่อกัน 1
พลเรือน 1
แคลิฟอร์เนีย 1
แกน@@ 1
พูด@@ 1
บ่อ 1
เตือน 1
เลก 1
คมนาคม 1
บัส 1
เลส 1
y@@ 0.20770658619884985
แมน@@ 1
กวาง 1
ตลาด@@ 1
ครู@@ 1
ซอง 1
พิธี@@ 1
ฟาโรห์ 1
วัตถุประสงค์ 1
เขียน@@ 1
อย่างไร 1
แด 1
วินาที 1
๑ 1
ปลดปล่อย 1
ขนส่ง 1
บาก 1
เชษฐา 1
ประสบ 1
สมา@@ 1
ซอฟต์แวร์ 1
ลด์ 1
ปะทะ 1
ดาราศาสตร์ 1
ทางทหาร 1
นิพนธ์ 1
หอย 1
ียน@@ 1
แมนเช@@ 1
ดำรง@@ 1
ดำเนินงาน 1
แพร่ 1
ทาส 1
สมั@@ 1
กระทำ 1
ทน 1
ปีศาจ 1
แจ 1
ตัวเมีย 1
ธิการ 1
ได้ยิน 1
ยิ่งขึ้น 1
วงกลม 1
วิก 1
ยูเครน 1
ญญา 1
ติน 1
แตน 1
ก้าน 1
ผู้สนับสนุน 1
ฟิ 1
เคลื่อนไหว 1
กระด@@ 1
สแต@@ 1
ขั้นตอน 1
ซัง 1
แรงบันดาลใจ 1
ศุกร์ 1
อนุชา 1
เครื่องหมาย 1
ปอนด์ 1
ผู้ก่อตั้ง 1
ใ@@ 1
ผู้บริหาร 1
ฮอ@@ 1
งก 1
ร่าง@@ 1
จังหวะ 1
ทางเหนือ 1
พื้นดิน 1
ดีขึ้น 1
สิ้นสุดลง 1
ณะ 1
ทะเล@@ 1
นึก 1
ด์@@ 1
สังเคราะห์ 1
2536 1
สมควร 1
อาสน 1
k 0.22648989705398834
พระพุทธเจ้า 1
คาร์@@ 1
นิง 1
อีสาน 1
เบื้องต้น 1
เป็นไป 1
กึ่ง 1
ี๋@@ 1
เวสต์ 1
เพาะ 1
o@@ 0.18131716138508114
ค้า@@ 1
ชั้นสูง 1
ถั@@ 1
ทางตะวันตก 1
ขัน 1
ปราบปราม 1
95 1
ข้า 1
บัติ 1
ล้านนา 1
เคล@@ 1
หลง@@ 1
อ่อน@@ 1
เงื่อนไข 1
เวลส์ 1
ประสิทธิภาพ 1
ยกฐานะ 1
กับ@@ 1
ของวัด 1
ลัด 1
สลาย 1
แมลง 1
กิโลกรัม 1
ป้าย 1
เครียด 1
U@@ 0.25059358020878575
สู้รบ 1
ั้น@@ 1
บริหาร@@ 1
ไห@@ 1
34 1
เชื้อ@@ 1
1992 0.4042259881309174
ขั้ว 1
นายพล 1
ิร์น 1
กระจก 1
ทาย 1
จฉ@@ 1
ทักษะ 1
ศก 1
ัม 1
เลิ@@ 1
นัดดา 1
รุ่งเรือง 1
วงจร 1
เทว@@ 1
1996 0.38896500430875997
ดอกไม้ 1
ประกอบ@@ 1
พร้อมด้วย 1
ขับไล่ 1
สภาพ@@ 1
ียง@@ 1
ชลบุรี 1
ดีกว่า 1
็น@@ 1
เป็นเจ้าของ 1
สภาผู้แทนราษฎร 1
เหง@@ 1
รอบ@@ 1
เยี่ยม 1
จัดตั้งขึ้น 1
จุ 1
เส 1
วจะ 1
Z@@ 0.1880322284286671
สั่ง@@ 1
ปฏิทิน 1
อุ่น 1
อดุลยเดช 1
คำถาม 1
การปฏิรูป 1
ทอด 1
มวยไทย 1
ทรัพยากร 1
ทุ 1
ป์ 1
ผู้สร้าง 1
พระทัย 1
มอญ 1
2533 1
กต์ 1
วุธ 1
เมื่อ@@ 1
1998 0.3540014706447446
ส์" 1
พัด 1
การขนส่ง 1
พระศพ 1
เศษ 1
จอมเกล้า 1
วาส 1
การท่องเที่ยว 1
ย่า 1
กุ้ง 1
ถูก@@ 1
หมื่น 1
หมุน 1
ออสการ์ 1
คริสเตียน 1
เลขที่ 1
น้องสาว 1
ปลด 1
มุ่ง@@ 1
รน 1
ชวน 1
ปีเตอร์ 1
สวิตเซอร์แลนด์ 1
เคารพ 1
สเก@@ 1
โดยรวม 1
เพศ@@ 1
มาร@@ 1
สภาวะ 1
วัดราษฎร์ 1
o 0.08810022609826443
กส์ 1
ภาควิชา 1
นั่นเอง 1
อบรม 1
ครั้งนั้น 1
พระสงฆ์ 1
เกษตร 1
ก็@@ 1
จุล@@ 1
ฝูง 1
เที่ยวบิน 1
เซา 1
ชัด 1
ดั้ม 1
ล่วง@@ 1
วิชาชีพ 1
พัฒนาการ 1
ิก 1
ถน@@ 1
พื้น@@ 1
ฟอร์ม 1
ราบ 1
ัย 1
แทบ 1
เศรษฐศาสตร์ 1
กีตาร์ 1
แผ@@ 1
กด 1
ความจำ 1
สามี 1
ทร์ 1
วม 1
วชิ@@ 1
สึ@@ 1
เรียว 1
ล้ม 1
ตัวเลข 1
r 0.40657815783644097
ั้น 1
1999 0.314574594540567
แสดงนำ 1
ข้างเคียง 1
รุก 1
วัย@@ 1
2531 1
พระเจ้าอยู่หัว 1
ด้านบน 1
ต้นกำเนิด 1
วิทยุ@@ 1
ชื่อ@@ 1
รัช 1
อล์ฟ 1
วัล 1
ไช@@ 1
X@@ 0.47654038700891754
มลายู 1
มัธยมศึกษา@@ 1
มอบหมาย 1
ืด 1
หัน 1
1970 0.4619009062216529
อรร@@ 1
แมว 1
ขาย@@ 1
แม็ก 1
ครึ่ง@@ 1
’ 0.04676393535772603
"" 1
° 0.47824256372603074
กม. 1
วัต@@ 1
เพราะว่า 1
สน์ 1
บำบัด 1
ราชภัฏ 1
ประสบ@@ 1
เสด็จสวรรคต 1
ดวงจันทร์ 1
​@@ 1
คุม@@ 1
ยอง 1
ระดับสูง 1
เดวิด 1
ดร 1
โก้ 1
สุลต่าน 1
กล่าว@@ 1
โพร@@ 1
อาน 1
แม่ทัพ 1
อิเล็กทรอนิกส์ 1
จราจร 1
กษ์ 1
มปิก 1
หลอด 1
64 0.9938805811690442
ควบ@@ 1
ภัย@@ 1
ษฐ 1
เมา 1
รัตนโกสินทร์ 1
ไล่ 1
ซาก 1
ก่อน@@ 1
ทุกอย่าง 1
วิชัย 1
เอเชียตะวันออกเฉียงใต้ 1
ทรั@@ 1
ส่วนประกอบ 1
์ก 1
สุสาน 1
ไว้@@ 1
ือน 1
ชาน 1
แนวทาง 1
เชล@@ 1
แตก@@ 1
65 0.8106797758929122
อัตรา@@ 1
กลางคืน 1
ดึง 1
กฎ@@ 1
กระทรวงการ@@ 1
กัด 1
ทำร้าย 1
สิง@@ 1
เรียบร้อย 1
เป็นที่@@ 1
กองทัพอากาศ 1
กิ่ง 1
เสมือน 1
or 0.04728905668874021
ตอนกลาง 1
นำไปใช้ 1
ประหารชีวิต 1
หมายเหตุ 1
ป็อป 1
พรรคประชาธิปัตย์ 1
ทิน 1
ือด@@ 1
เอียง 1
ลก 1
สวามี 1
สำรอง 1
ดัม 1
มุ่ง 1
จุดเริ่มต้น 1
ผ่าน@@ 1
มูล@@ 1
ส.ส. 1
สงครามโลก 1
in@@ 0.09903855914966889
เดย์ 1
42 1
เป็นต้น@@ 1
ไมโคร@@ 1
บดี 1
เคียว 1
ไหล@@ 1
เจียง 1
มหาวิทยาลัยธรรมศาสตร์ 1
โดยสาร 1
ทหารบก 1
ร้าง 1
เชน 1
บัญชาการ 1
ยาย 1
อังคาร 1
เชื่อมโยง 1
ี่ยม 1
ขอบเขต 1
ยิน@@ 1
สุนัข 1
สัตว์ป่า 1
สันหลัง 1
สันติภาพ 1
เว็บ 1
1997 0.3607808009423216
เมอร์ 1
กุมารี 1
ขับ@@ 1
บุรีรัมย์ 1
ึ่ง@@ 1
คิน 1
เนส 1
้ำ@@ 1
;/ 1
กระดูก@@ 1
จัก 1
ปก 1
กอน 1
ูป 1
ธาร 1
ยกย่อง 1
หมัด 1
คลับ 1
สนม 1
ใต้ดิน 1
จำพวก 1
ผิว@@ 1
แข็งแกร่ง 1
สังคม@@ 1
um 0.1131378122106967
ทับ 1
1960 0.4928524639423996
ณา 1
มพร 1
หัน@@ 1
เปลี่ยน@@ 1
จิตรกร 1
หมวด 1
หนึ่ง@@ 1
อนา@@ 1
บริสุทธิ์ 1
รวม@@ 1
หายใจ 1
เปอร์เซีย 1
แวร์ 1
ทรู 1
ตำ@@ 1
ตู้ 1
ยิ่ง@@ 1
เจริญ@@ 1
แทรก@@ 1
มาตร 1
เยื่อ 1
ตะวันตกเฉียงเหนือ 1
แห่ 1
ครา 1
ชวา 1
สมการ 1
เมริเดียน 1
n@@ 0.1482517187903922
ยัง@@ 1
ทธ@@ 1
ทรา@@ 1
ัล 1
ธั@@ 1
ส" 1
ธรรมเนียม 1
ต่อไปนี้ 1
ิว@@ 1
39 1
ครี@@ 1
มินิ 1
้อง@@ 1
รถถัง 1
ตรี@@ 1
มี่ 1
เคราะห์ 1
ไผ่ 1
พลเมือง 1
ษฎ@@ 1
สกอตแลนด์ 1
กรุง@@ 1
นักดนตรี 1
บพิตร 1
ทวีปยุโรป 1
ฟิล์ม 1
es 0.030416852205242217
บลู 1
ประจ@@ 1
ทางอากาศ 1
มาลา 1
ซอล 1
ตั้งถิ่นฐาน 1
วร์ 1
หลวง@@ 1
ประทาน 1
ปริญญา 1
ความผิดปกติ 1
จัดแสดง 1
ผลไม้ 1
พระพุทธ@@ 1
เหย@@ 1
บูรณ์ 1
ate 0.12682291727495973
u 0.208042181428661
โยธิน 1
พร้อมกัน 1
เพ็ญ 1
จอด 1
ด่วน 1
ปีการศึกษา 1
หยุด@@ 1
ดอย 1
ที่ทำการ 1
U 0.41322514815898687
ดาวฤกษ์ 1
หนาน 1
ไก่ 1
ปฏิวัติ 1
้วน 1
ชร 1
่าน@@ 1
คนไทย 1
รำ@@ 1
ขับร้อง 1
ท้าย@@ 1
สุร 1
หมิง 1
ไต@@ 1
เลิศ 1
กษ@@ 1
สอดคล้อง 1
อิเล็กตรอน 1
สัญ@@ 1
ยูนิ@@ 1
เบื้องหลัง 1
การออกอากาศ 1
พุ 1
44 1
ฒ@@ 1
เกษตรกรรม 1
400 0.8411179629600201
พันธุกรรม 1
พิษณุโลก 1
กวน 1
รับใช้ 1
วัว 1
เดียม 1
ยิง@@ 1
องค์การบริหารส่วนตำบล 1
s@@ 0.09050329864545395
แล้วจึง 1
ไทร 1
สัมภาษณ์ 1
งิ 1
ศาสนาพุทธ 1
on@@ 0.16043012030511933
หลิว 1
เช่า 1
กระสุน 1
ผัน 1
วัฒนา 1
ซอย 1
ia 0.22222778872735324
่อย@@ 1
น็อค 1
ลงทุน 1
เราะ 1
47 1
ธนบุรี 1
เกินไป 1
เลิฟ 1
กติ 1
บรรณา@@ 1
พร้อมทั้ง 1
ล่มสลาย 1
38 1
บ่ง@@ 1
หยาง 1
ปืนใหญ่ 1
แห@@ 1
ศา 1
ทายาท 1
อย่างยิ่ง 1
ลำปาง 1
ศาสนาคริสต์ 1
แสดงถึง 1
โฟร์ 1
Y@@ 0.24730647096733602
โดยมาก 1
วย@@ 1
ด็@@ 1
ย่อม 1
อาญา 1
ฮัน@@ 1
แผนที่ 1
— 0.03561045509538923
ซีเรีย 1
นัย@@ 1
เซียน 1
คราว 1
ทารก 1
2529 1
ื้อง 1
จุฬา 1
ชนมายุ 1
อย่างเช่น 1
กรณ@@ 1
ปี่ 1
ผู้ฝึกสอน 1
ผู้สมัคร 1
ริชาร์ด 1
วร@@ 1
โคน 1
เต่า 1
อุดม 1
เกา 1
เรื่องย่อ 1
มร@@ 1
ฮินดู 1
ปไตย 1
เล่า@@ 1
สิ่งก่อสร้าง 1
แข็งแรง 1
ยี 1
บรรพบุรุษ 1
บ้านเมือง 1
สเซิล 1
อุบลราชธานี 1
กลา@@ 1
l 0.08177985471110441
จิน@@ 1
ษา 1
เท่ากัน 1
โต๊ะ 1
ี่ย 1
เป็นประจำ 1
ได้ที่ 1
ษณ@@ 1
สัย 1
แผ่ 1
๊ 1
1,000 1
สีน้ำเงิน 1
เป็นเจ้าภาพ 1
85 1
คลื่น@@ 1
คุย 1
เวิ@@ 1
ตะวันตกเฉียงใต้ 1
สิริ@@ 1
ที่สี่ 1
โรมาเนีย 1
คริสตจักร 1
พืชดอก 1
วิศวกรรม 1
สารสนเทศ 1
เท็@@ 1
เสียหาย 1
37 1
ฉัตร 1
ยูโร 1
เดอร์ 1
เทิร์น 1
ทั่ว@@ 1
หมู 1
อัคร 1
2518 1
ก๊@@ 1
ซึ 1
สูง@@ 1
ชี้@@ 1
อวัยวะ 1
เจ้านาย 1
เศรษฐ@@ 1
นิวซีแลนด์ 1
ประเมิน 1
สติ@@ 1
พอล 1
ลอบ 1
เดีย@@ 1
ประโยค 1
ภูมิอากาศ 1
การตอบรับ 1
ต่อกัน 1
ต้าน 1
หลอดเลือด 1
ีต 1
เน็ต 1
จง@@ 1
สะอาด 1
สเตอร์@@ 1
ic 0.2625176305389637
ศิลา 1
ฮิต 1
ขี้@@ 1
จิตวิทยา 1
สห 1
บัญชา 1
บัลลังก์ 1
สนามบิน 1
โภ@@ 1
ชื่อเสียง 1
ราชินี 1
ครั้งสุดท้าย 1
นาการ 1
อาณา 1
เกลือ 1
ประจำการ 1
็ง@@ 1
โยะ 1
2530 1
สละ 1
กล่าวคือ 1
พระเยซู 1
ลย์ 1
ฮอร์@@ 1
เกียรติยศ 1
เงา 1
2532 1
หัวเมือง 1
๒ 1
ดิจิทัล 1
ทวี 1
เยาว์ 1
al@@ 0.12656938303790988
พิชิต 1
อัง 1
กรุ@@ 1
กุหลาบ 1
จิตร 1
ดาวเทียม 1
เป็นงาน 1
41 1
สุทธิ 1
แพร่@@ 1
75 0.9502910787968659
ค้าขาย 1
จิ๋ว 1
อาหาร@@ 1
อู@@ 1
20@@ 1
ธุ@@ 1
หะ 1
เวอร์@@ 1
วัยเด็ก 1
สี่@@ 1
บี้ 1
บุญ@@ 1
มนุษย@@ 1
เพลง@@ 1
ฉุกเฉิน 1
นวน 1
กู้ 1
ที่ว@@ 1
ขัด 1
เอะ 1
g 0.23355857298015162
ซ่อน 1
ตามกฎหมาย 1
น้ำจืด 1
พระมารดา 1
อัต@@ 1
ณั@@ 1
กัล@@ 1
คริสต์@@ 1
คริสต์ศักราช 1
ชนนี 1
ตำรวจ@@ 1
ทุน@@ 1
บุตร@@ 1
โปเกมอน 1
โฟ 1
คลาสสิก 1
สล@@ 1
กอก 1
พัฒน 1
ตัม 1
เจาะ 1
72 1
สวัสดิ์ 1
เสริม@@ 1
ชาน@@ 1
บึง 1
ฮิตเลอร์ 1
แสดงออก 1
ฒ 1
แล้ 1
er 0.02778767078680608
คลินิก 1
ทางการแพทย์ 1
ทางเดิน 1
มีมติ 1
เสมอ@@ 1
โจร 1
ถา@@ 1
นนทบุรี 1
เปรียบ 1
ตะวันออกเฉียงใต้ 1
นามสกุล 1
แลน 1
กำแพง@@ 1
เซิน 1
แรม 1
นิน@@ 1
สื่อ@@ 1
เหรียญรางวัล 1
แคน 1
43 1
]@@ 1
คัส 1
ลัส 1
49 1
ที่อยู่อาศัย 1
ปัจ@@ 1
สรรพ@@ 1
าม 1
โชกุน 1
ดุ 1
แผล 1
an@@ 0.11226338567490962
ทิเบต 1
ผิวหนัง 1
เสา@@ 1
ขันธ์ 1
ร้อง@@ 1
เต้ 1
ลาด 1
ตง 1
W 0.7973418077666233
ก่อตัว 1
ปัน 1
ไพร@@ 1
นักมวย 1
นักวิจัย 1
ฟิล@@ 1
เรียน@@ 1
แอป@@ 1
88 1
ณิ@@ 1
สมัครเล่น 1
ความหลากหลาย 1
ตระ@@ 1
็อต 1
1991 0.34764057421742517
ผิดพลาด 1
ียด 1
คัด@@ 1
ต้นฉบับ 1
บัญชีรายชื่อ 1
วันอาทิตย์ 1
ษี 1
นิด 1
วอน 1
ในเครือ 1
จริต 1
บูล 1
หัก 1
ขัด@@ 1
ลี้ภัย 1
ไหม 1
2519 1
ัส 1
1994 0.3415411634581753
ชื้น 1
ภาษาจีน 1
เสด็จพระราชดำเนิน 1
ไส้ 1
ฎ 1
ประชา 1
มห@@ 1
อนุ 1
คลา 1
ทีน 1
สถาปนิก 1
เนื่อง 1
สน 1
ลอน 1
แก้ปัญหา 1
ใดๆ 1
การพิจารณา 1
การเรียนรู้ 1
จัดจำหน่าย 1
หลีกเลี่ยง 1
แลก 1
เบอร์ลิน 1
เหลืออยู่ 1
นัม 1
ทูล 1
ปรัสเซีย 1
พน@@ 1
สมา 1
2522 1
บวน@@ 1
โขง 1
โจม 1
ยี่@@ 1
เบญ@@ 1
แกรมมี่ 1
กรมหลวง 1
สถ@@ 1
ุก@@ 1
เคลื่อน@@ 1
แบบนี้ 1
i@@ 0.1943673142135674
ก้อน 1
ประสาน 1
รำ 1
บันได 1
นายทหาร 1
อัศวิน 1
อักษร@@ 1
โค้@@ 1
เกิล 1
โมน 1
ขวาง 1
ใช้กับ 1
ความเข้าใจ 1
เอน@@ 1
เพียงพอ 1
่วง 1
ผู้เชี่ยวชาญ 1
๐ 1
ลวดลาย 1
เรือน@@ 1
โปรดิวเซอร์ 1
้ย 1
กระบวน 1
ฉะนั้น 1
อาร์เจนตินา 1
ซัม@@ 1
บริติช 1
ตารางวา 1
เรียบเรียง 1
คำนวณ 1
บล@@ 1
มอน@@ 1
03 1
ตลอดเวลา 1
ปล้ำ 1
หน่วย@@ 1
พุทธศาสนา 1
ทางวิทยาศาสตร์ 1
ราว@@ 1
ยุทธ@@ 1
เพิ่ง 1
93 1
นันท์ 1
สมทบ 1
91 1
ผ่าตัด 1
ฮัม 1
2,@@ 1
84 1
ขุ@@ 1
ติดอันดับ 1
นวย@@ 1
สมาชิกวุฒิสภา 1
๋อ 1
ตำรา 1
สะดวก 1
สไตน์ 1
โฉม 1
เภสัช@@ 1
เร่ง 1
บุคลากร 1
จดทะเบียน 1
ซีน 1
สไตล์ 1
ูด 1
ไลท์ 1
็ด@@ 1
ปฐม 1
52 1
ชีวภาพ 1
ทักษิณ 1
หมายความว่า 1
จนได้ 1
ความผิด 1
ดื่ม 1
ปลอดภัย 1
วรร@@ 1
อัญเชิญ 1
เนิน 1
โดยปกติ 1
พระชนม@@ 1
ร้าน@@ 1
อาย 1
เวียงจันทน์ 1
อิก 1
นาฬิกา 1
ยับยั้ง 1
ลอง@@ 1
ูป@@ 1
g@@ 0.1311629521440722
ลิป 1
โหลด 1
เครื่องราชอิสริยาภรณ์ 1
เรียนรู้ 1
้าย@@ 1
53 1
89 1
ห้องเรียน 1
แอนิเมชัน 1
โบราณคดี 1
ครุ@@ 1
วอล@@ 1
คม@@ 1
ดำริ 1
พะ@@ 1
หาย@@ 1
ทอม 1
รัศมี 1
องค์การ@@ 1
น้อยที่สุด 1
หลา@@ 1
เสื่อม 1
แดด 1
สวม@@ 1
เข้ม@@ 1
นักประวัติศาสตร์ 1
รุง@@ 1
อากาศยาน 1
ผัก 1
แบ่งกลุ่ม 1
ไฟล์ 1
เก็ต 1
เจิ@@ 1
96 1
56 1
กรีฑา 1
แฮร์รี่ 1
t@@ 0.11379565658214054
ดัตช์ 1
ท็อป 1
สำนักงานใหญ่ 1
สกา 1
สวัส@@ 1
มหาสารคาม 1
ปักกิ่ง 1
พายุหมุน 1
ร์ท 1
ช่อ 1
บาย 1
อุทยาน 1
โรเบิร์ต 1
2022 0.687874478317398
ฟอ@@ 1
ล้อมรอบ 1
57 1
สมุทร@@ 1
รัต 1
J 0.8495770610378351
นอง 1
อุทิศ 1
เทพเจ้า 1
โกร@@ 1
ผู้อื่น 1
อาคารเรียน 1
ข์ 1
งบ 1
2528 1
คลี 1
ชมพู 1
ถอด 1
ที่นั่น 1
ผสมผสาน 1
เมฆ 1
09 1
เกล 1
94 1
University 0.13282461825336933
เลือด@@ 1
กติกา 1
1993 0.34472133262172777
บวช 1
พระชนม์ 1
พระภิกษุ 1
ฟอน 1
สงบ@@ 1
เขื่อน 1
นิติ@@ 1
ลเล@@ 1
จำนวน@@ 1
สามเหลี่ยม 1
เบิร์ต 1
แบบจำลอง 1
04 1
้อย@@ 1
จารย์ 1
ที่ประชุม 1
ประหลาด 1
ำเ@@ 1
ไร้@@ 1
กัก@@ 1
ไรเดอร์ 1
ธาน 1
ี่ยน 1
เกีย@@ 1
ที่นี่ 1
ร์ต 1
เพล@@ 1
เอ็ม@@ 1
ๆ@@ 1
76 1
a@@ 0.20951203351167036
บันทึกเสียง 1
ครบรอบ 1
คูณ 1
พัท@@ 1
กัปตัน 1
พืช@@ 1
ฮู 1
โตร@@ 1
เกาหลีเหนือ 1
บัณฑ@@ 1
พ่อแม่ 1
หัวหน้าพรรค 1
ครั้ง@@ 1
ข่าย 1
บว@@ 1
ทางวัฒนธรรม 1
เบียน 1
46 1
งดงาม 1
โข@@ 1
โบราณสถาน 1
1995 0.3198790487600566
ผึ้ง 1
ื่@@ 1
ทิพย์ 1
เลต 1
คู่แข่ง 1
ปทุม 1
สามัญ@@ 1
หุ่นยนต์ 1
เนื้อเยื่อ 1
โจโฉ 1
ชั่ว@@ 1
เซ็น@@ 1
ส่งออก 1
ออกซิเจน 1
เต็มไปด้วย 1
ฟลอ@@ 1
เป็นโรค 1
ความหนาแน่น 1
บรรเลง 1
วาท 1
ส่วนภูมิภาค 1
กระดาษ 1
ชันษา 1
ลิต 1
เนื่องมาจาก 1
ผลักดัน 1
ลงโทษ 1
ลัก 1
วต 1
กัว 1
รับรู้ 1
สาน 1
หม่อมราชวงศ์ 1
แต่ง@@ 1
r@@ 0.12656662615237577
ประยุกต์ 1
ไต้ฝุ่น 1
พฤหัสบดี 1
พันธรัฐ 1
ตอง 1
ปู@@ 1
หลวงปู่ 1
หลักทรัพย์ 1
51 1
ไปหา 1
จิง 1
บาลี 1
โรมันคาทอลิก 1
จอง 1
บริเตน 1
มหิดล 1
วัด@@ 1
บาร์เซโลนา 1
ลำต้น 1
เสนา 1
เภา 1
Love 0.8442746862504641
พัทธ@@ 1
คบ@@ 1
ชื่นชอบ 1
ต้านทาน 1
เจริญเติบโต 1
เข้าเรียน 1
ควรจะ 1
มหาภูมิพล@@ 1
พยัญชนะ 1
ปอด 1
2525 1
นักท่องเที่ยว 1
พำนัก 1
ร.@@ 1
โปรโม@@ 1
บรรดาศักดิ์ 1
แปล@@ 1
แอฟริกาใต้ 1
0,000 1
97 1
เกิ้ล 1
โทรศัพท์ 1
ต้นปี 1
ภิบาล 1
รายการโทรทัศน์ 1
แซง 1
54 1
ปืน@@ 1
มอบให้ 1
วิเศษ 1
ดิ์ 1
กระโดด 1
พระตำหนัก 1
!@@ 1
กาย@@ 1
หนี้ 1
ักษ์ 1
นักวิจารณ์ 1
บาต 1
ชุน 1
เสื้อผ้า 1
.) 1
ียม 1
มน 1
อเมริกาใต้ 1
ค้น 1
ตอนนี้ 1
ผู้พูด 1
อุดม@@ 1
2516 1
เห็นชอบ 1
ทซ์ 1
สลา 1
os@@ 0.2353196118460945
นั้น@@ 1
อยู่แล้ว 1
แหล่งข้อมูล 1
เหว@@ 1
ละครใน 1
โรงภาพยนตร์ 1
ศิ@@ 1
แทน@@ 1
กัง 1
ตเตอร์ 1
ที่ราบ 1
พระราม 1
รูปทรง 1
คอร์@@ 1
ฆาต@@ 1
ออง 1
แลง 1
d@@ 0.11945292419303485
นุกรม 1
ลิก@@ 1
อิล 1
คลา@@ 1
นักรบ 1
ฟต์ 1
มล@@ 1
ลาออก 1
อ้วน 1
สารประกอบ 1
2523 1
02 1
92 1
ชัก 1
ปกคลุม 1
นางแบบ 1
นีย์ 1
รุณ 1
สื่อสาร 1
เพชรบุรี 1
โพธิ@@ 1
กรร@@ 1
ตัวเมือง 1
เป้า 1
เสนาบดี 1
ภูเขาไฟ 1
พร้าว 1
รวมตัวกัน 1
ียล 1
เสน@@ 1
รุ่ง 1
เซียม 1
2526 1
สงครามกลางเมือง 1
ฟื้น 1
ระดับนานาชาติ 1
โควิด 1
มีส่วน@@ 1
1988 0.37066530384314933
ซึมเศร้า 1
วูด 1
สำนักงานเขต 1
นักบิน 1
ลูกค้า 1
แล้วเสร็จ 1
..@@ 1
จัดงาน 1
นโปเลียน 1
ภร 1
ปริศนา 1
โรล 1
นอกเหนือจาก 1
นับว่า 1
กล้อง@@ 1
ควา@@ 1
ชุ 1
นับแต่ 1
ปฏิบัติหน้าที่ 1
มาริ 1
แป้ง 1
63 1
77 1
คืน@@ 1
สอบสวน 1
องค์กรปกครองส่วนท้องถิ่น 1
โลหิต 1
บุตรสาว 1
International 0.28267365011046014
จักรยาน 1
ชาล 1
ดุล 1
ทัว@@ 1
มิส@@ 1
ร์ส 1
ันต์ 1
ร่วมสมัย 1
อาราม 1
้อม 1
ญญ@@ 1
สุรินทร์ 1
เอเชียนเกมส์ 1
at 0.018984557082483196
กำลังจะ 1
ได้รับการยกย่อง 1
07 1
ประเสริฐ 1
พาย 1
การตลาด 1
เข้าด้วยกัน 1
คณิต 1
รส@@ 1
ลงคะแนน 1
สท์ 1
เนตร 1
ได้รับบาดเจ็บ 1
วิกฤ@@ 1
ซิก 1
ยามา 1
แนล 1
หัวข้อ 1
แล้ว@@ 1
โดยรอบ 1
ลูกทุ่ง 1
ือน@@ 1
ขยายตัว 1
บริษัท@@ 1
ศาสตรบัณฑิต 1
เสี่ยง 1
เจต@@ 1
เบิร์@@ 1
เรอ 1
ine 0.17957545079937626
แผน@@ 1
ได้รับอนุญาต 1
1989 0.3423421830990236
Ch@@ 0.1603712373881377
หลิน 1
หาญ 1
2565 1
เห็นด้วย 1
พรมแดน 1
หน้าต่าง 1
เข้มข้น 1
การตัดสินใจ 1
จุดประสงค์ 1
ที่รา@@ 1
วิทยาการ 1
คงอยู่ 1
คอล@@ 1
ตะวัน 1
บรรทุก 1
เหร@@ 1
นว 1
สายตา 1
แรงดัน 1
68 1
คฤ@@ 1
คุกคาม 1
ดีน 1
อำนาจ@@ 1
คุณค่า 1
67 1
กฤษฎีกา 1
ed 0.054907437280403225
สะเท@@ 1
โรจน์ 1
มาย 1
ต.@@ 1
วัตถุ@@ 1
แบ่ง@@ 1
พันธุ@@ 1
สุขุ@@ 1
เปอร์@@ 1
ทางเลือก 1
แป 1
กำไร 1
ปลัด 1
58 1
กุฏิ 1
จิตร@@ 1
ศาสต@@ 1
นำเข้า 1
81 1
คุณหญิง 1
มาสู่ 1
สูญพันธุ์ 1
เหรียญเงิน 1
". 1
ภัณฑ์ 1
เบา@@ 1
ตับ 1
คำแนะนำ 1
นัน@@ 1
ระงับ 1
เพลงชาติ 1
เล่น@@ 1
ไทม์ 1
ย็อง 1
ศี@@ 1
เกน 1
เทป 1
2527 1
นเรศวร 1
การปฏิบัติ 1
ถึงแม้ 1
แทนที่จะ 1
78 1
82 1
กษา 1
ทันสมัย 1
เมนต์ 1
เลี้ยง@@ 1
ตื่น@@ 1
ฟฟ์ 1
1945 0.3273394038152742
ทั้งที่ 1
จากกัน 1
นักบวช 1
บล็อก 1
พันปี 1
ร่วง 1
เอลิซาเบธ 1
2517 1
เรือง 1
คาร์บอน 1
ถอย 1
๓ 1
ขึ้นทะเบียน 1
ปุ่ม 1
มาตร@@ 1
คลุม 1
ซีดี 1
ดยุค 1
สูบ 1
ค่อย 1
ทิม 1
พ่อ@@ 1
วัล@@ 1
เรียบ 1
มด 1
เสรีภาพ 1
2524 1
ตรงกลาง 1
ตาก 1
มีระบบ 1
หลุม 1
เข็ม@@ 1
ทำสงคราม 1
ม์ 1
วันหนึ่ง 1
โหวต 1
ขวบ 1
p@@ 0.11458903961717787
ชิต 1
นักแต่งเพลง 1
ปรับตัว 1
เปล่า 1
เรียก@@ 1
ย้อน@@ 1
ซัค@@ 1
ราชานุ@@ 1
อริ@@ 1
ชาติพันธุ์ 1
สมเด็จพระนาง@@ 1
คัล 1
เฉิน 1
เดีย 1
โล่ 1
'@@ 1
ท่ามกลาง 1
59 1
ชวร 1
ธรร@@ 1
ปฐม@@ 1
การคำนวณ 1
นาม@@ 1
ฤกษ์ 1
อิฐ 1
เกษตร@@ 1
2500 1
ทางแยก 1
สวด 1
เนื่องใน 1
เมล 1
ไลฟ์ 1
แปลก 1
ท้า@@ 1
บอน 1
ฝ่ายสัมพันธมิตร 1
ผลลัพธ์ 1
เกษม 1
เหย้า 1
แย่ 1
ในขณะเดียวกัน 1
%@@ 1
มัล@@ 1
พระชายา 1
พระอุโบสถ 1
๋ว 1
สัง 1
เอนไซม์ 1
๒๕@@ 1
สภาพแวดล้อม 1
หง 1
อัฟกานิสถาน 1
แนวโน้ม 1
คนสำคัญ 1
ความสะดวก 1
คำตอบ 1
ระฆัง 1
ราชบุรี 1
ิลส์ 1
บีซี 1
เปีย@@ 1
กรรมาธิการ 1
กิตติ@@ 1
พงศาวดาร 1
มวลชน 1
วินัย 1
สส 1
แต่งกาย 1
มนุษ@@ 1
แน่น 1
ใช้การ 1
ชาร์@@ 1
ซม. 1
ดูเหมือน 1
ผิดปกติ 1
ราง@@ 1
การประเมิน 1
ชิป 1
สวิ@@ 1
66 1
ผลประโยชน์ 1
150 0.970508294450533
คุก 1
ช่วยว่าการ 1
น้อยลง 1
ตามหา 1
ผู้เข้า@@ 1
คารา@@ 1
จัก@@ 1
พ. 1
พระราชวงศ์ 1
ฟิลิป 1
ลอร์ด 1
น่าจะเป็น 1
แอร์@@ 1
ผสมพันธุ์ 1
ละคร@@ 1
อนาคต 1
อย่า 1
อเล็กซานเดอร์ 1
0.@@ 0.6739988483205178
แอก 1
เป็@@ 1
โฆษ@@ 1
เฉลิมพระเกียรติ 1
ทุกข์ 1
มัสยิด 1
4,@@ 1
79 1
์) 1
คนโต 1
ประกาศ@@ 1
แกล@@ 1
็ค@@ 1
ริยา@@ 1
คิดค้น 1
ดิส 1
ียร์ 1
ดัก 1
เกียร์ 1
เลา 1
ความรับผิดชอบ 1
พราหมณ์ 1
เท่าที่ 1
ฉีด 1
ราม@@ 1
สุก 1
end 0.1429064827257925
กก 1
or@@ 0.13173333061398596
ปฏิรูป 1
สับสน 1
ํ@@ 1
ตลอดกาล 1
บังคับบัญชา 1
ราษฎร์ 1
ใช้ประโยชน์ 1
รัส@@ 1
ลพบุรี 1
สอบ@@ 1
นครปฐม 1
ปากีสถาน 1
Y 0.7700172113365747
ดส์ 1
เสนาสนะ 1
วิกิพีเดีย 1
วินโดวส์ 1
83 1
รัล 1
หยวน 1
เกอร์ 1
ฟู@@ 1
สยาม@@ 1
ch@@ 0.09648453784293753
แพง 1
คนละ 1
หันมา 1
อาชญากรรม 1
เสรี@@ 1
จมูก 1
ศีล 1
่อย 1
2520 1
ทุกวันนี้ 1
69 1
600 1
ที่ทำงาน 1
ภาพเขียน 1
กองพล 1
ขนม 1
ดัง@@ 1
ธน 1
พระประธาน 1
พาหนะ 1
รวมทั้งหมด 1
ร็อค 1
นิ่ง 1
รัฐศาสตร์ 1
น้ำตก 1
1.@@ 0.707433632534223
กายภาพ 1
คอม@@ 1
ปรารถนา 1
เที่ยว 1
โคก 1
ใช้ได้ 1
จนกว่า 1
ชิ้นส่วน 1
ถวาย@@ 1
มิลลิเมตร 1
รร 1
สู 1
บอร์@@ 1
วารสาร 1
สมุทรปราการ 1
หลุม@@ 1
จอ@@ 1
วงษ์ 1
แซม 1
แวน 1
ชีววิทยา 1
มีน 1
You 0.6060133029004602
กรมหมื่น 1
ทะเบียน 1
มีเดีย 1
วอชิงตัน 1
สนุก 1
อัม@@ 1
เรียง@@ 1
th@@ 0.16637076708569723
ของเหลว 1
ถ่ายภาพ 1
ในกรณีที่ 1
๔@@ 1
ชนี 1
ดอร์ 1
มม. 1
ชฌ@@ 1
อัส@@ 1
เทวดา 1
ลุ่ม 1
เว้น 1
ขับเคลื่อน 1
จุก 1
ภูมิคุ้มกัน 1
ไช 1
New 0.07939403871575622
เหมือน@@ 1
ไข้@@ 1
สุดยอด 1
กระบี่ 1
ชื่นชม 1
นักเตะ 1
ริยา 1
สะเก@@ 1
เฉลิมฉลอง 1
้วย 1
กรรมการ@@ 1
ชมรม 1
ข้อเสนอ 1
จรรย์ 1
จิตรกรรม 1
ตัก 1
นราธิ@@ 1
บิ๊ก 1
บ้านเกิด 1
เสถียร 1
มัย 1
หลอด@@ 1
อฟ 1
เณร 1
แต่ละคน 1
ปัญ@@ 1
แก๊@@ 1
ละเม@@ 1
เรียกกันว่า 1
62 1
ขั้วโลก@@ 1
มหานคร 1
การลงทุน 1
ชั้นมัธยมศึกษา 1
บร 1
โกล@@ 1
กัด@@ 1
ขโมย 1
ท่าน@@ 1
ประทับใจ 1
ปราคา 1
พิการ 1
สาธิต 1
เฮา@@ 1
กฤ@@ 1
ผูก 1
อ็อง 1
73 1
จูเนียร์ 1
แอม 1
โซ่ 1
พลัง@@ 1
ยุทธศาสตร์ 1
ศัพ@@ 1
คัดค้าน 1
ดีเอ็นเอ 1
น้ำท่วม 1
สโก 1
โง 1
็บ 1
จำคุก 1
พอที่จะ 1
กระนั้น 1
แทร@@ 1
โหมด 1
่วน 1
จรวด 1
ดูด@@ 1
อุดรธานี 1
มีพลัง 1
แพร่กระจาย 1
ol@@ 0.1857476282638174
ท่อน 1
ธนู 1
ก๊ก 1
ยะ@@ 1
กล้า@@ 1
คิด@@ 1
ลัง 1
นางงาม 1
เม็ด@@ 1
แพล@@ 1
กราฟ 1
แพน 1
one 0.04721028749818534
๋อง 1
ตกเป็น 1
เช่นนั้น 1
oc@@ 0.2633610874094074
2515 1
ติฐาน 1
อุปสรรค 1
เลข@@ 1
ให@@ 1
เหรียญทองแดง 1
สำนักงาน@@ 1
แห่งประเทศไทย 1
พิน@@ 1
พี่สาว 1
แด่ 1
แปร 1
กดดัน 1
บาด@@ 1
มหาวิทยาลัยเกษตรศาสตร์ 1
เก่ง 1
มอง@@ 1
อาวุโส 1
เป็นพิเศษ 1
บรรลุ 1
ความดัน 1
เทนนิส 1
800 1
ขั้นตอนวิธี 1
ทวีปเอเชีย 1
ฝึกหัด 1
มกุฎราชกุมาร 1
นพ 1
รีบ 1
รุ่ง@@ 1
er@@ 0.08279958117690345
ญ์ 1
หมาก 1
แฟชั่น 1
ทึ@@ 1
อาเซียน 1
แบ่งแยก 1
มเป@@ 1
วู@@ 1
สาคร 1
ฮอต 1
แยกตัว 1
1984 0.3641455613702313
หู@@ 1
เที่ย@@ 1
86 1
เตะ 1
กรีน 1
ผจญภัย 1
ือง@@ 1
ค. 1
ลุย 1
สมดุล 1
สมุทร 1
สิบสอง 1
พระนครศรีอยุธยา 1
อิม 1
ความตาย 1
กาแฟ 1
ทอง@@ 1
ประกาศใช้ 1
ทางเข้า 1
ปราย 1
พื้นบ้าน 1
ไล่@@ 1
ภูมิประเทศ 1
ร่อง 1
เครือ 1
ดังที่ 1
ตรัส 1
พู 1
นันท@@ 1
รณ 1
อภิ 1
โชค 1
ประก@@ 1
ระวัง 1
ลอบ@@ 1
สลัก 1
เซา@@ 1
ตอนนั้น 1
รากฐาน 1
1950 0.3870245373470442
ก๊าซ 1
สหรัฐฯ 1
หัก@@ 1
71 1
กลยุทธ์ 1
ฟินแลนด์ 1
แปลก@@ 1
กัล 1
ปู่ 1
เพียงแต่ 1
คัด 1
ซ้อม 1
เกิดเหตุ 1
เนิ@@ 1
ถึงแก่กรรม 1
ยอน 1
สภานิติบัญญัติ 1
!" 1
คะแนนเสียง 1
ราชทูต 1
เต็@@ 1
เหลียง 1
เซิร์@@ 1
เมรุ 1
ต้นแบบ 1
สมาพันธ์ 1
เจ็บ@@ 1
นอร์@@ 1
ระบ@@ 1
จัย@@ 1
ชอบ@@ 1
ประชาสัมพันธ์ 1
et 0.011071906477218466
ดีเด่น 1
ด้วยเหตุนี้ 1
อธิบดี 1
ในเวลานั้น 1
ac@@ 0.16326643554460205
พบเห็น 1
ar@@ 0.10321998341504508
ขี่ 1
ดุสิต 1
พลังงาน@@ 1
พี่@@ 1
กองทหาร 1
พลาส@@ 1
เกี่ยว@@ 1
II 0.1560722889893404
ซีเกมส์ 1
นาญ 1
ประมวล@@ 1
ปัสสาวะ 1
เจ้าจอมมารดา 1
แย้ง 1
แล้ง 1
แท่น 1
ยูโร@@ 1
วิพากษ์วิจารณ์ 1
เทียบ@@ 1
เป็นช่วง 1
โน้@@ 1
กางเขน 1
ทางทิศใต้ 1
กรร 1
ยุทธ์ 1
ศรีนคริ@@ 1
ข้างต้น 1
ข่าน 1
ฆาต 1
ถูกจับ 1
บัลแกเรีย 1
อุตรดิตถ์ 1
แทรก 1
ในทาง@@ 1
2,000 1
กล่าวหา 1
ลัม 1
สก@@ 1
ใต้@@ 1
กุน 1
ทรรศน์ 1
ปูน@@ 1
รวย 1
ื่อย 1
หญิงสาว 1
โส 1
ภูเก็ต 1
โนน 1
á 0.5767063164230861
กองเรือ 1
คัง 1
พระบาทสมเด็จพระมงกุฎเกล้าเจ้าอยู่หัว 1
รัต@@ 1
นัล 1
ฝึกฝน 1
ลึกถึง 1
เป็นลำดับ 1
โยน 1
เวทมนตร์ 1
ar 0.0711585677491474
กลับคืน 1
ทำลาย@@ 1
พ่อค้า 1
ท้า 1
มีผลต่อ 1
ใบหน้า 1
2521 1
จีเอ็มเอ็ม 1
ทหารราบ 1
ปริญญาเอก 1
ส่วนท้องถิ่น 1
ฮ่อง@@ 1
เจ้าคณะ 1
ชู@@ 1
ซ่ง 1
ติง 1
นิติศาสตร์ 1
ราษฎร์@@ 1
สามก๊ก 1
สูร 1
ใหญ่@@ 1
ดัชเชส 1
มิวสิ@@ 1
เรียล 1
โคลน 1
ผนวก 1
ขัดขวาง 1
มาศ 1
อนึ่ง 1
ic@@ 0.21190543897628294
ity 0.17282986697926683
ปลาย@@ 1
รวง@@ 1
ลอย@@ 1
หนาแน่น 1
กก. 1
สมาธิ 1
ห่าง@@ 1
ชักชวน 1
พัง@@ 1
ลดา 1
ตาก@@ 1
บัล 1
วัง@@ 1
แถ@@ 1
จูด 1
th 0.2073176439678053
นครสวรรค์ 1
รมย์ 1
ทย์ 1
หน้ากาก 1
เทิล 1
ชุม@@ 1
เผด็@@ 1
เลือดแดง 1
74 1
ขาน 1
ทธิ@@ 1
รังสิต 1
สินธุ์ 1
ตรอน 1
วนา 1
แถลง@@ 1
แขนง 1
ถ่วง 1
ศาสนาอิสลาม 1
ออกไซด์ 1
แอตแลนติก 1
ปราศจาก 1
ส่วนผสม 1
กลืน 1
งก@@ 1
ถกเถียง 1
;& 1
ถึงแก่อ@@ 1
ปน 1
ละครเวที 1
สมรร@@ 1
ีบ 1
เนอร์ 1
กฤต 1
กิตติ 1
ซับ 1
บ้า 1
Best 0.5489395060310909
กระจาย@@ 1
กัง@@ 1
จริ@@ 1
ชั้นนำ 1
ปาร 1
v 0.41716465695846877
พิง 1
ยว 1
แหล่งน้ำ 1
วิกตอเรีย 1
จาก@@ 1
เครือ@@ 1
เลื่อนชั้น 1
โธ@@ 1
พังก์ 1
รง 1
วันนี้ 1
ฉลาด 1
เจ็บ 1
กระบอก 1
กรุก 1
เชียง@@ 1
2512 1
วิจิตร 1
พราน 1
พริ@@ 1
ือบ 1
๔ 1
คล 1
ผี@@ 1
ยศาสตร์ 1
ืน@@ 1
ไข้ 1
ทวิ@@ 1
พับ 1
ข้อหา 1
ซื้อขาย 1
ถัดไป 1
ลม@@ 1
ลิตร 1
แน่ชัด 1
TV 0.3199870990502292
เนล 1
61 1
แต่งเพลง 1
f@@ 0.10186299935712244
ต้ม 1
ทหารเรือ 1
นต่อ 1
สกัด 1
สุขา@@ 1
กระต@@ 1
ชัง 1
พุทธศตวรรษ 1
การถ่ายภาพ 1
ที่ทาง 1
เครื่องดนตรี 1
om@@ 0.18596952004335335
พุธ 1
สิ่งของ 1
็ท 1
้วย@@ 1
1986 0.3323527011353816
กัม@@ 1
บังคับใช้ 1
ภาพถ่าย 1
ฝัง@@ 1
สุ่ม 1
สูญ 1
๕ 1
5,000 1
f 0.2913424886338281
ot@@ 0.17187028971497278
ตัวนำ 1
ึน 1
ดาราจักร 1
การะ 1
พรรคเพื่อไทย 1
เนื้อร้อง 1
โมเดล 1
h@@ 0.11337111263380195
ทัศ@@ 1
วีร@@ 1
สก์ 1
อารยธรรม 1
ัม@@ 1
คร 1
ครัว 1
นิเวศ 1
วรวิหาร 1
87 1
พบกัน 1
มุ่งหน้า 1
)) 1
จัน@@ 1
พูดถึง 1
มวล@@ 1
เนชันแนล 1
ศึกษา@@ 1
หวง 1
เนะ 1
เม็ด 1
นายก@@ 1
ลอสแอนเจลิส 1
ผู้ใด 1
สุดา 1
รต 1
วี่ 1
เทคโนโลยี@@ 1
ประจุ 1
พร่อง 1
สอ 1
สีสัน 1
ความคิดเห็น 1
สัมพันธ@@ 1
เดิม@@ 1
เหตุ@@ 1
แฝด 1
น่าสนใจ 1
หมี 1
ตาราง@@ 1
อล์@@ 1
เชล 1
เท็น 1
เฟร 1
เริ่มแรก 1
แนวร่วม 1
สภา@@ 1
เรนซ์ 1
มาดริด 1
สุพรรณบุรี 1
โปรเจ@@ 1
กระทรวงกลาโหม 1
ปรึกษา 1
วิศวกร 1
จุน 1
าก 1
3,@@ 1
ความลับ 1
อ่อนแอ 1
ซัล@@ 1
บุนนาค 1
ปร 1
มีประโยชน์ 1
2513 1
การตาย 1
แคลน 1
ชินวัตร 1
ตั้งครรภ์ 1
๊ด 1
el@@ 0.09352656667876637
กุญ@@ 1
ตรงกันข้าม 1
ภายในประเทศ 1
รัด 1
สิบ@@ 1
ศาลาการเปรียญ 1
เสร็จสิ้น 1
แผง 1
หลับ 1
”@@ 1
2514 1
ครัวเรือน 1
รณรงค์ 1
ระบบประสาท 1
โดะ 1
การกำกับ 1
ขง@@ 1
ความเป็นจริง 1
ปทุมธานี 1
ส่วนกลาง 1
ทางราชการ 1
บริหารงาน 1
ือบ@@ 1
เป็นเหตุให้ 1
ฟรานซิ@@ 1
มเบิร์ก 1
ไหลผ่าน 1
เกิร์ล 1
เผชิญ 1
กัส@@ 1
ชนชั้น 1
ดน@@ 1
ดาวน์ 1
นามัย 1
มส์ 1
ร่ม 1
แต่อย่างใด 1
1940 0.4044215002627816
Music 0.371188784427144
พระบรมราชโองการ 1
รายนาม 1
แฟ 1
นต์@@ 1
? 0.3571797991633187
ชล 1
ตอบรับ 1
ทัต 1
กาฬ@@ 1
ยี่ 1
เช็ก 1
โน้ม@@ 1
จัตุรัส 1
ชิล 1
ผลิ 1
วิว 1
ศิลา@@ 1
สวา@@ 1
เฟีย 1
แฟนตาซี 1
ตุ๊ก@@ 1
่ห์ 1
บเขา 1
ผู้สำเร็จราชการ 1
ผู้เขียน 1
แบล็ก 1
บ้านเรือน 1
ยอดนิยม 1
ลงวันที่ 1
เพียง@@ 1
เหมาะ 1
คาทอลิก 1
เปา 1
2475 1
ชรา 1
ฝรั่ง 1
ลต์ 1
เรต 1
ชิง@@ 1
วิกฤต 1
ทดแทน 1
สย@@ 1
จนา@@ 1
ตัวตน 1
บทเพลง 1
ผลผลิต 1
ชล@@ 1
บะ@@ 1
สุน@@ 1
แฝ@@ 1
นาวี 1
รามคำแหง 1
ชั้นใน 1
หากิน 1
เกล็ด 1
กองทุน 1
ฎีกา 1
เพรส 1
เสนา@@ 1
จม 1
ริว 1
กรัม 1
ดิสน@@ 1
มอเตอร์ 1
เรียกชื่อ 1
คคี 1
ช้าง@@ 1
ดรา@@ 1
ตถ@@ 1
ถล่ม 1
ปวง 1
ลื@@ 1
การรับรู้ 1
ปัตตานี 1
ลงสมัครรับเลือกตั้ง 1
แสวงหา 1
0@@ 0.5122876452604697
แม้@@ 1
ฉัน@@ 1
นวล 1
ประธานกรรมการ 1
ฟีฟ่า 1
อวอร์ด 1
c@@ 0.10618113068915111
el 0.01041942081664817
นิวเคลียส 1
พุ่ม 1
รวมตัว 1
หนอง@@ 1
บาป 1
ยากจน 1
แพ้@@ 1
Re@@ 0.1671423339048454
ด้ว@@ 1
ผัง 1
ร้ายแรง 1
สถานศึกษา 1
กรุ๊ป 1
ซื่อ 1
มอสโก 1
ชุม 1
นิก@@ 1
ปฏิบัติงาน 1
สิงโต 1
In@@ 0.1807539095494601
ประติมากรรม 1
แรกเริ่ม 1
โชติ 1
ฎก 1
หลุด 1
กล่อง 1
ธรณี@@ 1
พัฒ@@ 1
ใคร@@ 1
กรุงธนบุรี 1
ประหาร 1
ภาษาละติน 1
ขัดแย้ง 1
คำร้อง 1
จัดหา 1
แกะ 1
กิ่งอำเภอ 1
ฐิ 1
ภัทร 1
เปลือก@@ 1
ฤดูใบไม้@@ 1
เจียน 1
เบอร์@@ 1
ทาวน์ 1
บาทหลวง 1
ปัก@@ 1
School 0.15210738856356268
เชย 1
เรื่อยๆ 1
ชื่อจริง 1
ทัศน@@ 1
ศักยภาพ 1
สตรี@@ 1
มุฮัม@@ 1
ยอดเขา 1
อำนวยการ 1
ื่น@@ 1
โรคมะเร็ง 1
เบิก 1
เล็บ 1
แม่นยำ 1
ตะวันออก@@ 1
บุก@@ 1
เนร@@ 1
ธนา 1
ม่ 1
ส่งสัญญาณ 1
ียด@@ 1
แผ่นดินใหญ่ 1
จินดา 1
จิ้น 1
ฟอร์@@ 1
ยนต์ 1
ระดับโลก 1
เบื้อง@@ 1
หัส 1
อุปสมบท 1
เซล@@ 1
กุมาร 1
คค 1
รบกวน 1
วงโคจร 1
เนื่องด้วย 1
เยา 1
กรุ 1
อาร์เซนอล 1
ไฮโดรเจน 1
เชียร์ 1
=" 1
ทิว@@ 1
แหล@@ 1
ความทรงจำ 1
บริวาร 1
เลขานุการ 1
ความจุ 1
งส์ 1
บางแห่ง 1
วุฒิสภา 1
หยา@@ 1
ตุลาการ 1
ปรับเปลี่ยน 1
เพลิง@@ 1
เหมาะ@@ 1
พิกัด 1
1987 0.30962768516958344
ห้า@@ 1
อัม 1
การทูต 1
ควีน 1
ปัจจุบันนี้ 1
กิง 1
ชั่น@@ 1
ธุร@@ 1
ปาน@@ 1
อาสา@@ 1
เกษีย@@ 1
เบิร์น 1
เสือ@@ 1
แท่ง 1
l@@ 0.09453792821627907
ปลายทาง 1
ราชาธิ@@ 1
สัตว์เลี้ยงลูกด้วยนม 1
เหมา 1
begin 1
กรด@@ 1
การบุก 1
โคจร 1
"( 1
สงวน 1
ฆ่าตัวตาย 1
ทำพิธี 1
พรรณ@@ 1
ภคินี 1
ภาวะ@@ 1
สเซ@@ 1
z 0.18471046380239192
คั่ง 1
ทิศใต้ 1
เจ็บปวด 1
เป็นสาเหตุ 1
ไหว@@ 1
กำ 1
เฟน 1
การฟื้นฟู 1
ข่ม@@ 1
หม่อม@@ 1
อภัย 1
เผือก 1
เวส 1
หิมะ 1
เพ็@@ 1
เอิ@@ 1
ตัวแปร 1
ทีมงาน 1
ท้องฟ้า 1
นักแสดงหญิง 1
พลัน 1
เชื้อชาติ 1
เอนเตอร์เทนเมนต์ 1
จัดสรร 1
หงส์ 1
ทางวิชาการ 1
มัง@@ 1
ยกระดับ 1
วิศวกรรมศาสตร์ 1
ออต@@ 1
เผย 1
ไอด@@ 1
็ป 1
งานการ 1
ลำพูน 1
ห่วง 1
อารี 1
เตา 1
มากเกินไป 1
ลุก 1
โมะ 1
บรมราช@@ 1
ประจำวัน 1
มาร์ค 1
หมุน@@ 1
ไปร@@ 1
ไส@@ 1
วิตามิน 1
สะกด 1
เข็ม 1
กรมศิลปากร 1
สง 1
ฝาก 1
สลา@@ 1
ขนาน@@ 1
ปรับ@@ 1
รัตนราช@@ 1
en@@ 0.06329869473712178
เกร็@@ 1
เซ็นเตอร์ 1
ปล่อยตัว 1
พยากรณ์ 1
เร้า 1
โอเพ@@ 1
กลั@@ 1
ถอนตัว 1
ทัพ@@ 1
มหาศาล 1
โฟน 1
1.5 1
ยาเสพติด 1
หมา 1
เซอร์เบีย 1
re@@ 0.0442571161110204
ตระเวน 1
ระบาย 1
วิทย์ 1
เทค@@ 1
เป็นไปตาม 1
ขนาด@@ 1
ธิเบ@@ 1
สังขรณ์ 1
โกลด์ 1
m@@ 0.11187255333305558
กองกลาง 1
99 1
ปลูก@@ 1
ิ่น@@ 1
่นวาย 1
ความกำกวม 1
ตกรอบ 1
ถอด@@ 1
ระดับน้ำทะเล 1
อนุสาวรีย์ 1
อายุ@@ 1
อำนวย 1
แคระ 1
กรี 1
ดึงดูด 1
นท์ 1
มาร์ก 1
อส์ 1
จับคู่ 1
ชาตินิยม 1
ศิริ@@ 1
เทค 1
คงที่ 1
มั่นใจ 1
เนปาล 1
เอิร์ล 1
การจับสลาก 1
ตัส 1
ภิเษก 1
ในแง่ 1
กบ 1
แข็ง@@ 1
b@@ 0.09129727189016634
ดอลลาร์ 1
ประถ@@ 1
สื่อมวลชน 1
ทรุ@@ 1
นัง 1
ฟัน@@ 1
ไส้@@ 1
ยืด@@ 1
รถไฟใต้ดิน 1
เมทัล 1
แถลง 1
บัก 1
เลียม 1
120 1
ษฐา 1
เป็นรอง 1
ตัล 1
ราชาภิเษก 1
ศ์@@ 1
เห็นได้ชัด 1
็อล@@ 1
นิสิต 1
ลน 1
มิใช่ 1
ริด 1
รอดชีวิต 1
ร้านอาหาร 1
ึ่ง 1
1985 0.307619961073361
ปริ 1
ระดับชั้น 1
คลอด 1
ฉลาม 1
โซม 1
ใส่@@ 1
กฎหมาย@@ 1
กวน@@ 1
หนา@@ 1
เดิล 1
as@@ 0.12339847894974526
นางสาว 1
มุง 1
อรี่ 1
เป็นแนว 1
แบ็ก 1
่วง@@ 1
กลางวัน 1
ขนส่ง@@ 1
พระบรมราช@@ 1
เครื่องดื่ม 1
เนียล 1
แบรนด์ 1
งา@@ 1
สัต@@ 1
งด 1
สั่งการ 1
ั้@@ 1
ร้า 1
ศิล@@ 1
กระเป@@ 1
ซีซั่น 1
แกะสลัก 1
คณ@@ 1
ชาร์ลส์ 1
นิล 1
ประสิทธิ์ 1
มุ่งหมาย 1
หนุ@@ 1
เหนียว 1
ประกอบอาชีพ 1
ใด@@ 1
ทรรศ@@ 1
ณรงค์ 1
ตร. 1
อัต 1
แฟร์ 1
ปลง@@ 1
รสชาติ 1
สังฆราช 1
อ้อม 1
ภูมิพล 1
ไบรอัน 1
ความไม่@@ 1
สมาชิกสภา 1
เซี่ยง@@ 1
k@@ 0.10236197046719783
ซ่อมแซม 1
สรี@@ 1
หลัง@@ 1
2511 1
Z 0.7045842590986193
อธิการบดี 1
โดร 1
สาธารณชน 1
บอนด์ 1
บูลย์ 1
พระธรรม 1
พิท@@ 1
สกล@@ 1
เชี่ยวชาญ 1
เบียร์ 1
5,@@ 1
ฉี@@ 1
พึ่ง 1
ระย@@ 1
สบาย 1
เดียน 1
ชิด 1
ดาย 1
ประกาศนียบัตร 1
รีม 1
as 0.009291713541251221
ซือ 1
เผชิญหน้า 1
หันไป 1
อยู่อาศัย 1
อัลบัม 1
ph@@ 0.24408670497185744
ซัว 1
อนุสรณ์ 1
ตาล 1
เพชร@@ 1
700 1
อนุบาล 1
ไก@@ 1
10,000 1
พฤติ 1
สี่เหลี่ยม@@ 1
แจ็กสัน 1
แต่กลับ 1
แต่ละ@@ 1
ตตา 1
ทะลุ 1
อนุกรม 1
Sh@@ 0.1967666136832277
ก่อการร้าย 1
1972 0.32242830555481994
op@@ 0.18433848725431606
พระนารายณ์ 1
เสน 1
ทธิ 1
ิ้ล 1
ปุระ 1
ลย@@ 1
ขณะเดียวกัน 1
สืบเชื้อสาย 1
บีบ 1
เซอร์@@ 1
รัช@@ 1
ไปมา 1
พ่าย 1
ขอบ@@ 1
สอด@@ 1
2505 1
ลอก 1
เลี้ยงดู 1
ไม่ได้ 1
อุดมสมบูรณ์ 1
ทัล 1
ธนา@@ 1
พาร์ก 1
ลึกลับ 1
นิคม 1
บก@@ 1
วัตร 1
วาล 1
ฝู@@ 1
ล้อ@@ 1
สำมะ@@ 1
มองโกล 1
สเตชัน 1
งคา@@ 1
นอง@@ 1
ฝี@@ 1
เคิล 1
ยธรรม 1
สามั@@ 1
4@@ 0.3242803662037116
สาธารณ@@ 1
it 0.024322912620298405
กระจ@@ 1
ปัก 1
พระมหา@@ 1
ทอ@@ 1
ซอ@@ 1
สีมา 1
นคริ@@ 1
๐@@ 1
ไหว 1
ไทย@@ 1
ือด 1
2499 1
2510 1
ขณะ@@ 1
ฑ 1
no 0.05283309596735041
en 0.004873893726453198
ิป@@ 1
เศร@@ 1
com 1
มั่นคง 1
ul@@ 0.15258370089348186
พิพา@@ 1
ษฐ์ 1
สงครามโลกครั้ง@@ 1
Th@@ 0.22333037781785567
วส์ 1
เจ้าภาพ 1
at@@ 0.11714083524411262
.ศ. 1
National 0.11050262103883941
ณฑ์ 1
ศิษ@@ 1
1983 0.29802014060943366
สูญ@@ 1
แพร@@ 1
ค้น@@ 1
ครบ@@ 1
ักษ@@ 1
2498 1
มอ@@ 1
พูน 1
๓@@ 1
ur@@ 0.14427439441284234
am@@ 0.12029483538386244
ซอฟ@@ 1
ตว@@ 1
2.5 1
วิชา@@ 1
แฟน@@ 1
สรรค์ 1
ุก 1
ชัก@@ 1
ศักราช 1
ธรณ@@ 1
เสื่อ@@ 1
ปรุง 1
ดูด 1
2508 1
บังคับ@@ 1
ยอด@@ 1
กลาย@@ 1
3,000 1
x@@ 0.2397819985356354
วิถ@@ 1
เจา@@ 1
ส.@@ 1
.. 0.9048096365710415
[@@ 1
In 0.015172794983154433
co@@ 0.1374374131749794
ประวั@@ 1
2506 1
am 0.04153882316980385
1930 0.3658097545295197
พยั@@ 1
An@@ 0.10594748771744693
My 0.6463905830259784
1979 0.29139406047922467
จะ@@ 1
1968 0.30186530974855247
ครรภ์ 1
โองการ 1
ภาย@@ 1
ap@@ 0.14413097827867266
j 0.49805540720463354
๊ก@@ 1
ติธรรม 1
๊ะ 1
เทน@@ 1
อินโด@@ 1
ชาญ 1
ai 0.2305156011478986
1920 0.3571179706087239
1982 0.2820572633822438
to@@ 0.20066977714098821
# 0.41354068169010716
นง 1
1981 0.2847415710114582
2501 1
Award 0.29902212486810487
วอ@@ 1
มัธย@@ 1
เอเช@@ 1
ฉะ@@ 1
เทศบาล@@ 1
1976 0.29395394996109847
สันนิ@@ 1
ื่อย@@ 1
ฟิก 1
ฤ 1
ตถ์ 1
* 0.14352228688086008
1964 0.3280188717332178
อุด@@ 1
20.@@ 1
ฬา@@ 1
le 0.008823354632469875
ae 0.32994953806484434
ลักษ@@ 1
ตำหนัก 1
อัง@@ 1
เลี้ย@@ 1
ล้าน@@ 1
1941 0.30471443118955005
6,@@ 1
Co@@ 0.207096380941995
1975 0.27433417456435716
Al@@ 0.11377506008143529
่าว 1
ฟุต@@ 1
ชาติ@@ 1
เวิร์ด 1
แผ่น@@ 1
John 0.09596801845943674
ch 0.1591986837601813
ภรณ์ 1
เลื่อน@@ 1
ค้าน 1
คาร@@ 1
ism 0.2929608745179079
พฤติ@@ 1
เพิ@@ 1
ิต@@ 1
by 0.009791000435797372
วล 1
ชัน@@ 1
๖ 1
9@@ 0.39839900836812614
1939 0.3141278785576887
;@@ 1
ภาษ@@ 1
โหล@@ 1
8@@ 0.3568240013745205
is@@ 0.110758420106231
้าน 1
จุฬา@@ 1
เกิด@@ 1
1944 0.27290020365139545
es@@ 0.08457685050846435
6@@ 0.3516540923928108
มิวนิ@@ 1
ื่อง 1
ana 0.1456405896990042
รณะ 1
แง@@ 1
man 0.06565060705630321
1978 0.2769718516205258
100,000 1
รรม@@ 1
ธง@@ 1
๙ 1
นติก 1
ō 0.648906493165904
ยืน@@ 1
250 0.7945202525713667
ti@@ 0.12557817184096973
7@@ 0.3462458104257777
Awards 0.37231191406589026
เดิ@@ 1
− 0.8069815328233059
โฉ@@ 1
1974 0.27256758549654503
Ar@@ 0.10613149361424054
Championship 0.2977816706898303
di@@ 0.11110965967946576
with 0.009395476650992298
ฤดู@@ 1
ตช์ 1
เทอร์@@ 1
ปวด 1
it@@ 0.10990157952992692
3@@ 0.2603103236767761
ก้า@@ 1
ประยุ@@ 1
มหาด@@ 1
สนิ@@ 1
ตาร์ 1
ภิ 1
ต่ำ@@ 1
รงค์ 1
นบุรี 1
ถอน@@ 1
กระทบ 1
สาห@@ 1
ชายา 1
เฉล@@ 1
อุท@@ 1
ā 1
‘ 0.433091198593159
วิศวกรรม@@ 1
อัศ@@ 1
เสริ@@ 1
ฬ@@ 1
อัญ@@ 1
id@@ 0.1401770098726382
?@@ 1
w 0.25987262137063727
อเมริ@@ 1
มองโก@@ 1
ทองแดง 1
ละติน 1
ิง@@ 1
แคว@@ 1
ฆ์ 1
ent 0.06005148673866916
พย์ 1
ขัน@@ 1
ภิกษุ 1
da 0.06559016259929529
ite 0.17268782400345903
นิเว@@ 1
ous 0.1314085462935262
องค์การบริหาร@@ 1
tic 0.3417046187796327
v@@ 0.10241741257920617
ธ์ 1
ยุโร@@ 1
นที่ 1
• 1
ศวร 1
Con@@ 0.14986782211600014
Q@@ 0.27712873477186634
ad@@ 0.08609548712162897
5@@ 0.3035267294646255
แรก@@ 1
รม@@ 1
ศรั@@ 1
ปป@@ 1
de@@ 0.09782240524469053
j@@ 0.09386477462519534
u@@ 0.12020358222355801
ระหว่าง@@ 1
หัวหน้า@@ 1
22@@ 1
os 0.05836582992811803
อากาศ@@ 1
Ex@@ 0.23582748936470432
บาล@@ 1
มณฑ@@ 1
แก่น 1
2.@@ 0.4613814710116635
7,@@ 1
ng 1
ec@@ 0.14376141864839567
เสิร์@@ 1
แบล@@ 1
Q 0.7091182051268019
× 0.6890232438970829
จม@@ 1
อัก@@ 1
๗ 1
98 0.9044290144325688
สุข@@ 1
Me 0.5713049210837051
ศั@@ 1
cor@@ 0.20991355767040445
et@@ 0.11108687823230877
ี่ยว@@ 1
๕@@ 1
ทรัพยา@@ 1
เผย@@ 1
รณ์ 1
เรียบ@@ 1
1969 0.26842423254495157
ตริ@@ 1
แพท@@ 1
คับ@@ 1
ฌ 1
1948 0.3029236677657011
สัตว@@ 1
ดก 1
ภัก@@ 1
มาก@@ 1
1967 0.2705901808554505
1977 0.2603196073459337
กบ@@ 1
ศาลา@@ 1
000,000 1
1971 0.24856175823462492
Di@@ 0.18234474699733644
1956 0.3045187017140064
em@@ 0.11427539412665343
ab@@ 0.06529721242996107
ers 0.04862066849203539
ี่ยม@@ 1
ใช@@ 1
โดด@@ 1
พว@@ 1
หาร@@ 1
อาทิ@@ 1
ary 0.1410646303287157
กลางเมือง 1
นเสียง 1
สรร 1
ata 0.21284272607511998
ฟี@@ 1
ื่อง@@ 1
้วง 1
ี่ย@@ 1
ๅ@@ 1
Man 0.3669192812955479
กิริยา 1
1942 0.27381772694654993
ฟุ@@ 1
King 0.21258006284671663
Thailand 1
05 0.9293222089511332
ขั้นต@@ 1
วิด 1
z@@ 0.06840274586024961
เที@@ 1
พิจาร@@ 1
หยุ@@ 1
บล 1
สปี@@ 1
1973 0.2432584447970437
CO@@ 0.7396971360048332
ราชธานี 1
หนาว 1
ื้อง@@ 1
ในเวลา@@ 1
๘ 1
ปลด@@ 1
lo@@ 0.13217627746042776
เฝ@@ 1
กาง@@ 1
ตล@@ 1
ัติ 1
ase 0.3314779228581294
onlyinclude 0.9414417575935125
โภค 1
เปรียบ@@ 1
เลี่ยง 1
รพ 1
เกา@@ 1
18.@@ 1
ü 1
la 0.0027313632109088677
เศร้า 1
01 0.899525660967319
It 0.028461880349709305
สำเร็จ@@ 1
การ์ 1
ag@@ 0.09675650620589339
st@@ 0.07548673292014017
ราชย์ 1
พวก@@ 1
่าว@@ 1
1918 0.3067911202120482
ี่ยง@@ 1
บิด@@ 1
วิท@@ 1
101 1
อิสริยาภรณ์ 1
Entertainment 0.6778438074204204
ูก 1
ห์น 1
เหลว 1
ํ 1
10.@@ 0.8456911545416099
1936 0.30922326054188726
ถัด@@ 1
เสถ@@ 1
เสนอ@@ 1
กลุ@@ 1
tion 0.14008153805983287
w@@ 0.07721784617437753
จุลจอม@@ 1
ya 0.07360814676629986
ชิน@@ 1
เขา@@ 1
แส 1
un@@ 0.04059302904981042
Car@@ 0.13525947100352093
กำหนด@@ 1
ูก@@ 1
ยั้ง 1
1962 0.26715902230230537
Mar@@ 0.0943785392541046
ตตา@@ 1
อดุลย@@ 1
ดีโอ 1
กรณี@@ 1
$ 0.09647308548720492
te 0.04628124647981796
ทธ 1
ื้น 1
3.@@ 0.5847722408816456
วะ@@ 1
Team 0.2953208248128935
ขั้ว@@ 1
พรร@@ 1
ไซต์ 1
En@@ 0.1618430772728848
si@@ 0.19449516754215512
ษา@@ 1
8,@@ 1
900 1
ตย@@ 1
ญาต 1
1943 0.24517255022364104
ศล 1
1963 0.2600963959291576
tr@@ 0.07469869080841833
ื่อน 1
yl@@ 0.30804817164662696
ทรัพย์@@ 1
พบ@@ 1
ษั@@ 1
เวท@@ 1
ยื@@ 1
20,000 1
1000 0.49990658582414776
1949 0.27784986734371503
ed@@ 0.14109198518062896
ong 0.238187691022811
เชส 1
180 1
ซาน@@ 1
130 1
9,@@ 0.9708683738847965
1952 0.2877537478913609
1947 0.2791885230220317
ชม@@ 1
Star 0.36947817596818355
li@@ 0.1066046480073012
ลลิ@@ 1
เสื้อ@@ 1
le@@ 0.09003450150125583
ฟื้น@@ 1
id 0.25591541651382965
พนัก@@ 1
One 0.15806493125879337
Un@@ 0.1881664682255571
อร์ด 1
0,@@ 0.3868907442388803
ure 0.19350003463250934
โมเด@@ 1
1938 0.26887228476825437
III 0.20260707290189553
ST@@ 0.8106854267611495
1946 0.2510480275733238
Se@@ 0.13550202909914605
ter 0.07442103665954496
1965 0.23584484461905536
www 1
ศาสตร@@ 1
คาร 1
รัตน@@ 1
วุฒ@@ 1
ö 1
IS@@ 0.627876867832363
ฝุ่น 1
ิว 1
1958 0.2592536395919772
ator 0.15324750112919594
หนังสือ@@ 1
ah 0.19059336537169297
ical 0.14168187358944723
ro@@ 0.11147498496677594
เลื@@ 1
ครอบ@@ 1
ศัย 1
่วย@@ 1
ー@@ 1
ated 0.058429603127891076
ักษณ์ 1
ันท@@ 1
เด็น 1
AS@@ 0.4857779167437078
นาคม 1
เบล@@ 1
Le@@ 0.11874180590073434
มีผล@@ 1
cell 0.6657377709918868
ina 0.1111618755473994
คลิ@@ 1
็อค 1
ir@@ 0.11097922923653981
หลบ@@ 1
1966 0.23300426246384692
ó 0.061139304602157926
ประสิทธิ@@ 1
United 0.05470543862374728
ูน@@ 1
แคร@@ 1
17.@@ 1
,000 1
ob@@ 0.14599780727515246
สถาปั@@ 1
ad 0.14127182791956897
โบราณ@@ 1
1954 0.2751548412147425
age 0.04995324221894969
ยิน 1
1961 0.25191401214942105
All 0.1440494645320086
Tr@@ 0.1094718260929278
วิก@@ 1
ินส์ 1
พูล 1
Group 0.21750292328318116
พิมพ@@ 1
พลาด 1
ep@@ 0.19716897062133731
กระบ@@ 1
4,000 1
American 0.05456159138103414
Black 0.2605730687840066
Cor@@ 0.1536620780202849
ั้ง 1
ชิ้น@@ 1
Par@@ 0.13178166428710428
ราชา@@ 1
กระทรว@@ 1
การปฏิ@@ 1
โลก@@ 1
im@@ 0.08113329568309932
สวรร@@ 1
08 0.7347341984502296
19.@@ 1
ปฏ@@ 1
22.@@ 1
AT@@ 0.6883399862443884
แชมเป@@ 1
ไข 1
Battle 0.38338723164048283
ษฐาน 1
ุม 1
CD 0.3419732171652313
ป้อง@@ 1
ative 0.18455522607065306
oph@@ 0.38034102456619595
พยพ 1
Mon@@ 0.13936591173743126
ษฐ@@ 1
St@@ 0.10457109831370599
neur@@ 0.6320358816051301
กว้าง@@ 1
นิส 1
แกร@@ 1
ang 0.20568553284259725
SE@@ 0.689676220585515
|@@ 1
อุตสาห@@ 1
9.@@ 0.9687257488454035
Time 0.4745912499028744
บัญ@@ 1
รอด@@ 1
สะด@@ 1
000 0.2557679235582963
ant 0.0509750040191127
Girl 1
ึ้ง 1
ol 0.20736073757717208
เตร@@ 1
06 0.7761217026874987
ศิลปากร 1
สนอง 1
แน่@@ 1
1959 0.2443893968352122
ist 0.015082095629117871
st 0.18821561861446448
CO 1
No 0.2561984229999344
น้ำทะเล 1
od@@ 0.1682896637618647
per@@ 0.10690338315415719
ผู้อำ@@ 1
บรา@@ 1
ผนว@@ 1
ma 0.1503497040974208
College 0.11074625207623276
der 0.0033613221107059825
~ 1
กุม 1
AR@@ 0.5801892312687257
ory 0.2786808062074167
พย@@ 1
00@@ 0.8163964790996511
+@@ 1
Bo@@ 0.1693109351827229
มุม@@ 1
Royal 0.16558785306011295
bi@@ 0.11179474407072261
110 0.8331367411069995
par@@ 0.09035022729346219
ทธา 1
IN@@ 0.6169366458256491
ie 0.06097018537618549
มว@@ 1
1919 0.26740430808497967
City 0.08361713644753274
็บ@@ 1
อวัย@@ 1
ก๊า@@ 1
1900 0.33803183206624576
1957 0.24255415461616442
เกิน@@ 1
ida 0.16800180623551791
ทฤษฎ@@ 1
の@@ 1
po@@ 0.10273452443764007
น้ำเงิน 1
ลึก@@ 1
11.@@ 0.8862643926397619
ฟรา@@ 1
1912 0.3222161818862047
1@@ 0.2845657138699782
sh@@ 0.08317900885187313
16.@@ 1
หนัง@@ 1
สมาชิก@@ 1
ฯ@@ 1
Live 0.4690546184134004
ology 0.1717516202462437
เซน@@ 1
car@@ 0.11029719165449912
ปัส@@ 1
ance 0.1086128389512952
พร้อม@@ 1
หัด 1
ensis 0.39852308408374815
Center 0.2081128813831481
ตน@@ 1
ลิข@@ 1
อาร@@ 1
เอล 1
แสวง@@ 1
ให้เกิด 1
นักแสดง@@ 1
วบ 1
โยง 1
Ne@@ 0.1556305592495072
ดอล@@ 1
ส่วนต@@ 1
เกล้าเจ้าอยู่หัว 1
คุ้มกัน 1
จากนี้ 1
อนิ@@ 1
Wrestling 0.8659477617199312
21.@@ 1
จน์ 1
โลห@@ 1
สิต 1
อุต@@ 1
เยาว@@ 1
ak@@ 0.10894328271843833
ซิล 1
1953 0.24620305640656254
He@@ 0.18429015819884784
กิ่ง@@ 1
วาร@@ 1
13.@@ 1
ella 0.1632505835476745
ผู้สำเร็จ@@ 1
AN@@ 0.6366060740695524
1933 0.23833667536167694
ฉ 1
เถียง 1
1955 0.23507277232817278
De@@ 0.13007580867848828
ea 0.21728760973021208
อาชญา@@ 1
เหนือ@@ 1
สับ@@ 1
us@@ 0.08812740563393426
็อป 1
หรือ@@ 1
Day 0.3039445715248842
li 0.302347559126127
1917 0.2733520870463426
50,000 1
AC 0.4205514246848856
ta 0.09225008436372943
หัส@@ 1
7.@@ 0.9154063034812784
ing@@ 0.1205323717821085
se 0.008812765228495738
ang@@ 0.12261725784697561
สงคราม@@ 1
í 0.30493759460779046
สถิ@@ 1
il@@ 0.09117800419277805
108 1
160 0.9853843415145246
As@@ 0.16023422998991538
พาณิช@@ 1
War 0.08619057282595838
กราน 1
ン@@ 1
พรี@@ 1
หุ่น@@ 1
La 0.01517843074502854
กลาโหม 1
นัด@@ 1
no@@ 0.14807772417916026
แอตแล@@ 1
System 0.36490181999841853
ตั้@@ 1
140 0.9899208136044348
og@@ 0.1632760314489123
ยาว@@ 1
q 0.3891212791543594
อภิเษ@@ 1
1937 0.23472286284615446
อิส@@ 1
ri@@ 0.11444452197528035
ตีน 1
Br@@ 0.11339854646602039
be 0.015347405528792343
สาธิ@@ 1
Life 0.25140280866515213
na 0.08268934634586238
ถิ่นฐาน 1
http 1
system 0.09321575642380629
หวัด 1
ี้ 1
บาร์@@ 1
Com@@ 0.14681521183319127
ธีการ 1
พง@@ 1
องค์@@ 1
เพช@@ 1
พิพิธ@@ 1
ฆ่า@@ 1
ชนะ@@ 1
สังฆ@@ 1
คต 1
ทาว@@ 1
ร้าย@@ 1
อนุสร@@ 1
→ 1
เพราะ@@ 1
Association 0.14518594940564358
ไฮโด@@ 1
5.@@ 0.6781740433800206
ene 0.13152247037755752
ภิกษ@@ 1
มกุ@@ 1
360 1
all 0.031020416138079085
from 0.0075974428837525705
สมัคร@@ 1
6,000 1
se@@ 0.08774633235265228
นิติบัญญัติ 1
หลุ@@ 1
3.5 1
To 0.2350021581336958
able 0.0515172742829846
colspan 0.6820063871692834
un 0.0058907147103877495
1934 0.24602776055582518
Super 0.30805510258139335
ถก@@ 1
mon@@ 0.09175343087465355
350 0.9153002832170424
Show 0.38639644068990436
Str@@ 0.1409086173275951
112 1
ka 0.11557702285326722
ฑา 1
1932 0.25838011881033546
เคา@@ 1
8.@@ 1
งคืน 1
14.@@ 1
Institute 0.18978035999514783
ความคิด@@ 1
ลาม 1
เสม@@ 1
ess 0.14412527421581028
1924 0.2602954052417415
UN@@ 0.5194134633692621
ak 0.1340563423213335
นำมา@@ 1
15.@@ 1
ty 0.11355294710649207
è 1
ach@@ 0.11126264661080788
1,500 1
RE@@ 0.6307795385853445
รายการ@@ 1
เหลือ@@ 1
ER@@ 0.7154989333101978
ics 0.18428120759297043
กาศ 1
4.@@ 0.5783259800543087
30,000 1
อค 1
end@@ 0.11697581294596936
ica 0.12792186693804108
12.@@ 0.8349262290592956
1,0@@ 1
บัน@@ 1
เภ@@ 1
Be@@ 0.0955414835232419
anti@@ 0.18328223123503679
คัมภี@@ 1
1935 0.2327342480854754
High 0.13554295775238687
ษ์ 1
โฆ@@ 1
1928 0.2382895994740079
Dis@@ 0.23246060694069817
ั่ง@@ 1
Ac@@ 0.19020958685368505
๖@@ 1
ati@@ 0.14411845678506147
การ์@@ 1
ศาสนา@@ 1
2.0 1
ne@@ 0.11938556505155747
ขนา@@ 1
ดัช@@ 1
az@@ 0.1332706330767488
วัฒน@@ 1
8,000 1
เนี@@ 1
ธรรมศาสตร์ 1
แอฟริ@@ 1
Per@@ 0.11512282861779528
เฉลิม@@ 1
ขวั@@ 1
เมล@@ 1
sp@@ 0.09494082206162036
เล็ก@@ 1
av@@ 0.08284539589239552
1951 0.21925753794883818
Me@@ 0.14049389597836523
Park 0.10693491300268375
tive 0.17296401013000712
ผ่า@@ 1
เคียง 1
เตอร์เทนเมนต์ 1
Academy 0.19361314080943792
เขน 1
Great 0.21309603202498176
ปกครอง@@ 1
Grand 0.1382475649433297
RA@@ 0.5129144696226413
Top 0.3170771429125785
คว้า@@ 1
Mo@@ 0.14492271028564488
On 0.030110058474182133
ve 0.029265549229404147
คะแน@@ 1
สามาร@@ 1
EP 0.37039896628665897
ter@@ 0.07487523570989858
CE@@ 0.5455495693151621
มอบ@@ 1
Sp@@ 0.16171364343172603
DC 0.41472821095527534
House 0.10616825792896074
ence 0.1232591077084887
are 0.011775061381633057
อ้าง@@ 1
โมง 1
125 0.8613171405474117
Film 0.12198861285006005
Science 0.2761760294364319
St 0.1856343770632953
ans 0.043963586325035955
ตำแหน@@ 1
style 0.12293450436520956
ทธิ์ 1
film 0.037290135998782066
ยี@@ 1
Asia 0.3222716471276156
Ro@@ 0.14301877438985316
William 0.09692402639164822
Pro@@ 0.13946332590374413
王@@ 0.3620358409689727
AL@@ 0.6130864345653431
mo@@ 0.12124961269282243
สันติ@@ 1
14@@ 0.5596909350172405
ly 0.06035919912634852
ular 0.37909468819410924
นน@@ 1
AK@@ 1
James 0.10378005605283791
atus 0.36175987559693085
ig@@ 0.09521350651609191
มร 1
รรษ 1
IC@@ 0.5288308406019566
Art 0.12952275207905978
row 0.32775869639674865
à 0.005012123770340046
0.5 1
6.@@ 0.6828881860035936
ay 0.11488037750455424
pr@@ 0.09273525628795537
105 0.932826812565215
ref 0.5687389698132893
นีย@@ 1
วิทยาล@@ 1
เป็นไป@@ 1
Col@@ 0.11083052037806582
PC 0.4461299326140446
อาด 1
200,000 1
MO@@ 0.880481463032548
ศักดิ์@@ 1
สหรัฐ@@ 1
เชิ@@ 1
มัธยม@@ 1
ไซด์ 1
Min@@ 0.20155318210646553
di 0.12026481474335768
เลง 1
500,000 1
Series 0.2736529923759819
ธรรมนูญ 1
มุส@@ 1
เช่น@@ 1
MA 0.5480175696681984
Or@@ 0.12236630402418051
ปริญญา@@ 1
Red 0.1917987726440699
ประชาชาติ 1
1.2 1
13@@ 0.5340645501542398
Year 0.2954886146853227
ฝึกสอน 1
Am@@ 0.11245898364393482
1911 0.2842988339503498
กุม@@ 1
Qu@@ 0.11898098098042832
บัด 1
AC@@ 0.4909508396196651
tri@@ 0.15605461953035388
was 0.0025915145009758377
เ 1
450 1
Party 0.12368961367026537
บาด 1
หลาย@@ 1
อักษ@@ 1
CT 1
1910 0.25033729161375595
นารายณ์ 1
Song 0.34711502103659875
โอลิ@@ 1
Big 0.2473453556054753
ในกรณี@@ 1
me 0.08253157465873054
re 0.06659101490270566
ประสู@@ 1
1914 0.2111416193240067
แวด@@ 1
สิก 1
าะ@@ 1
្@@ 1
1922 0.23233260667236533
Ad@@ 0.15037620619927375
Japan 0.14950940463969092
ท่วม 1
CA@@ 0.4171744015211961
Bar@@ 0.08460557640664285
Inter@@ 0.15851630216254126
ac 0.19714339525715083
ment 0.09015847197084019
ณห@@ 1
AG@@ 0.9137249992031923
gen@@ 0.11785399117242065
ให้เห็น 1
1908 0.2821675106538282
Man@@ 0.10815781253921519
RI@@ 0.6895272541296676
ler 0.06334404592015536
111 1
23.@@ 1
ci@@ 0.10944522333344457
ion 0.1970352089365105
ครั้@@ 1
ประหลา@@ 1
Young 0.2749045616578529
大@@ 0.09930920244368487
My@@ 0.3426411651963027
est 0.005963346026930574
ควร@@ 1
วัติ 1
หมุ@@ 1
เทิง 1
Sc@@ 0.2594613500713007
Su@@ 0.16727785667958314
10,@@ 0.794756510755063
Michael 0.12396014182881838
tex 1
land 0.04960994104942758
จับสลาก 1
แวดล้อม 1
Lo@@ 0.15833881331662614
OS 0.4783416254293361
WBC 1
่งข@@ 1
Records 0.1576576996943301
osis 0.46615057838439583
ป้อง 1
br@@ 0.06784927320413035
ผสาน 1
26@@ 0.5604987860653687
bo@@ 0.07926610966763016
ura 0.19375692483481674
115 1
Ph@@ 0.20450282901848724
TE@@ 0.7523151351015044
บันทึก@@ 1
Night 0.4098951964555317
Pr@@ 0.11401437608736373
Rock 0.2477356847667669
eg@@ 0.08812547281861076
นิธิ 1
Of 0.3428930657030903
SS@@ 0.671079790610472
List 0.1991644587103363
อารม@@ 1
Robert 0.09988210934548392
ung 0.0441456799156109
ตติ 1
รถไฟ@@ 1
ฮัม@@ 1
พิพิ@@ 1
อาคาร@@ 1
1929 0.1992523645798747
con@@ 0.056925187804996884
teams 0.14706061075884805
IV 0.2033661539097369
TO@@ 1
วินิ@@ 1
7,000 1
ER 1
Thai 1
had 0.012571786606459589
ฏิ 1
El@@ 0.09448579795906507
First 0.14463604147286505
ra 0.0629839794535688
des 0.003437301758442835
1904 0.299231457477184
Cr@@ 0.16095040189458698
HD 0.7083105740833912
ell@@ 0.1249247580801391
BO@@ 1
ni@@ 0.11243531998978745
ov@@ 0.12835410488183352
ูด@@ 1
นับ@@ 1
น้อง@@ 1
โปรดเกล้า@@ 1
ศาจ 1
อดุ@@ 1
Project 0.45937764569259215
ard 0.0870894538801613
um@@ 0.06528222723473008
คาม 1
ฟิน@@ 1
โดด 1
30@@ 0.3450743157469919
=@@ 1
กาส 1
son 0.012727136485261723
ä 1
ตุร@@ 1
ah@@ 0.11797208201602484
ศึ@@ 1
ng@@ 0.2854554138023124
ut@@ 0.10530927374139562
เบิล@@ 1
ร่ว@@ 1
codice 0.6825323521457928
ปล่อย@@ 1
ศ์ 1
1921 0.21460061146556195
atic 0.28532705121565033
103 1
135 1
To@@ 0.22569142561296388
We 0.28527078269680034
ton 0.06529586365711781
สงข@@ 1
Club 0.09012142498095213
Hall 0.1372964796983245
Po@@ 0.14799741908961442
als 0.01002101387697272
ara 0.11605941497757799
Mal@@ 0.11384209300499523
ne 0.03183376896778399
คาบ@@ 1
พระเกียรติ 1
For@@ 0.12088054657435744
ale 0.05582189043266157
our 0.13383230007019345
time 0.021739987805185264
ใช้จ่าย 1
Tri@@ 0.1679903024323039
inae 0.7035584544208201
นีเซีย 1
1925 0.21046952088954493
220 1
acid 0.6358006996436102
State 0.06103169721290916
ani 0.1330372369718994
ลงคะแน@@ 1
Gu@@ 0.1165653205956562
Windows 0.36342478430327313
นิก 1
วัส@@ 1
1926 0.20608903076670843
ที่ย@@ 1
1.6 1
ong@@ 0.26838926025417054
116 1
Fr@@ 0.1393752979484947
David 0.09329707347869615
ข้อง 1
ซ่อม@@ 1
สัมพันธมิตร 1
มิลลิ@@ 1
–@@ 1
Te@@ 0.1358428679740686
US 0.0558481723983023
pe@@ 0.11196617757592643
ิร์ล 1
โปรแ@@ 1
ศัตร@@ 1
line 0.06134887335299479
pre@@ 0.07679054368761655
กษา@@ 1
ส่ว@@ 1
League 0.052699441784414054
TH@@ 1
White 0.16293136399153524
ath@@ 0.21013709793786103
of@@ 0.19366122488871598
ot 0.126841477421228
ปราการ 1
109 1
ดง@@ 1
เกล้า@@ 1
106 1
1931 0.20111821538704844
Char@@ 0.17544969640782004
ES@@ 0.42107844137316736
Festival 0.13656866566800002
Miss 0.38741736662291737
ชีวิ@@ 1
Is 0.3995620577716125
WWF 1
-- 1
1906 0.26621859561859407
Paul 0.0828559495195132
cu@@ 0.12024664119357728
ไฮโดร@@ 1
Pre@@ 0.18750994184821732
ps 0.14649368603342075
เลอร์ 1
12@@ 0.4013633495816585
แน่น@@ 1
1923 0.2078288319622287
AP@@ 0.41515207828231
IM@@ 0.6570451160726083
รวจ@@ 1
เณ@@ 1
102 0.9071779412667598
il 0.01228253977966355
ั้ง@@ 1
SO@@ 0.5956918683635709
ber@@ 0.08557573145239977
eb@@ 0.0906757822637781
เลือก@@ 1
แหง 1
and@@ 0.09653137656353922
bu@@ 0.1350527691514018
ei 0.18441222047141545
oid 0.614145152645822
ดิโอ 1
มัก@@ 1
ยับ@@ 1
สำเน@@ 1
fer@@ 0.1043271173885147
you 0.1665722834552056
Charles 0.0874033052933301
Network 0.37913455039296307
Si@@ 0.26801808831610274
ay@@ 0.11493001654872456
te@@ 0.08169384520392489
Ser@@ 0.1535656292671839
17@@ 0.5276262123606291
General 0.0769791455316625
ley 0.06350909591152264
แท้@@ 1
PS 0.3521688274992304
ian 0.13333473273167037
ไบร@@ 1
Company 0.11428584646436767
Cup 0.07815894197070436
Do@@ 0.2177865964441459
States 0.04282825999775655
TNA 1
str@@ 0.08456316874543952
syndrome 1
world 0.0753311512478395
ทวี@@ 1
do@@ 0.12940442923436626
ge 0.09402176243890821
ost@@ 0.2383837839863082
poly@@ 0.34681804541010364
Girls 0.5990939176052928
NE@@ 0.706403282877591
อาณา@@ 1
su@@ 0.10084070341992141
CH@@ 0.4911024179794626
George 0.08282638600311948
Pol@@ 0.13752197300127803
Super@@ 0.23336903487933994
๙@@ 1
1927 0.19432839016020723
7.5 1
Blue 0.26061580333720064
Har@@ 0.11452350498854387
LO@@ 0.9184569514763631
Prince 0.23982327339738163
ik@@ 0.08237030016837675
เนื่อง@@ 1
4.5 1
๘@@ 1
ted 0.04831003819705253
วัฒ@@ 1
LD 1
SP@@ 0.41548051370521005
hy@@ 0.3150421275756509
ียม@@ 1
Final 0.30490878745759836
kh@@ 0.1261368384117065
บ่อย@@ 1
alism 0.25753335765234336
ens 0.0473821144195777
scope 0.8291984596449321
af@@ 0.08233483375299082
do 0.04432585628785191
group 0.055476942779706724
hi@@ 0.1302496201761661
qu@@ 0.07029745610893227
80@@ 0.617239163240521
DS@@ 1
York 0.04005351369665367
Be 0.6527277049608583
Don 0.22055762070154117
SA@@ 0.4369121956125233
pi@@ 0.09689542834173667
ล่ม 1
1896 0.31612407569423334
FI@@ 0.48800917987128384
Li@@ 0.12823296989382837
NXT 1
จันทน์ 1
MS 0.38427516848038373
Your 0.5082209896383189
Mr 0.8173891738529028
sub@@ 0.06852300275214672
tic@@ 0.22213143145349482
320 1
trans@@ 0.09712368237307495
27@@ 0.4819489361472946
ok 0.23472496581353816
ting 0.06657221301065297
Arts 0.15555678263763442
Master 0.3277462104248648
River 0.07414854293912254
model 0.1797422336880167
ผ 1
อาวุ@@ 1
1890 0.29406279271594676
Cal@@ 0.13958589441913954
Prec@@ 1
ฆา@@ 1
40,000 1
ce 0.028888731322851087
sc@@ 0.13832136730904052
ts 0.0352727647751175
สมเด็จ@@ 1
1.8 1
Media 0.25581579013196626
Society 0.12801533861375075
inal 0.40273492426159985
1905 0.22195511918848487
1915 0.21725951909241248
Sur@@ 0.21216333356952166
ho@@ 0.11114626758405247
ū 0.7724670886748394
ลาส@@ 1
107 1
16@@ 0.42372697326270525
ex@@ 0.054706482863090454
mat@@ 0.14451223406665437
sel@@ 0.14268250592693144
ทองค@@ 1
Queen 0.21914770266656067
SA 0.3350900060793122
ao 0.19724430314506797
ue 0.10361870870483687
117 1
US@@ 0.30621558297651774
tis 0.25617243686311486
up 0.024844979116209455
เสบ 1
Bur@@ 0.12832335839442477
WBA 1
oma 0.23996483338291322
yr@@ 0.26426228692308773
ปฐ@@ 1
ou@@ 0.0777705527534635
ก็ดี 1
Bi@@ 0.11878361231394834
ti 0.12905469171727144
เมิน 1
he@@ 0.09441363163769148
บาท@@ 1
ors 0.054838740822975504
Ab@@ 0.0502930086118867
Go@@ 0.154476655562177
Ver@@ 0.041520217187966446
ons 0.04740746160582478
*@@ 1
cr@@ 0.07533927535176711
disorder 1
อุบัติ@@ 1
AI@@ 0.4788934522047439
AM@@ 0.4375189484297899
DNA 0.4467139701666864
Ma@@ 0.10444102974943412
Research 0.19270610651016948
ane 0.11480181115733665
ness 0.15778900423905348
นติ@@ 1
ประท@@ 1
เภสั@@ 1
กาก 1
‍ 1
Her@@ 0.10013942887754414
1907 0.2337058857512126
300,000 1
Heart 0.5556968861506323
Story 0.6317886723271282
Up 0.4308848343650311
15,000 1
2,500 1
AB@@ 0.5699539774773981
way 0.05332834492078057
ชน์ 1
ยนต@@ 1
ฮิน@@ 1
1.3 1
Little 0.2537450703449935
NO@@ 0.5111076155357506
era 0.03349363702020473
ir 0.08276847903396241
ก้าว@@ 1
เกษ@@ 1
1913 0.20063642439334262
AT 0.5087980671444717
DA 0.565674969235522
RNA 0.9517135969430252
ca 0.11170433198202774
ผลิต@@ 1
12,@@ 0.7379382281646171
750 0.8242870730955051
Ge@@ 0.10894829194191437
dis@@ 0.034673018637408376
non@@ 0.4290097795401912
ธยา 1
Good 0.48359759814482106
South 0.04522587962045817
ari@@ 0.13566228350630458
von 0.004908615176376305
123 1
170 0.8587148330845644
Mas@@ 0.1361208746122742
น้อย@@ 1
วิวัฒ@@ 1
IS 0.5526007515042348
ade 0.10694251921675912
enc@@ 0.134723898455274
ประส@@ 1
007 1
AD 0.38542652330586835
IB@@ 1
1916 0.21151123950282436
Act 0.1435093468707027
EST 1
Pan@@ 0.17500258001577576
ick 0.13318712553420667
104 0.8346073956589113
BT 1
Boy 0.49627468853801393
Council 0.09599646249630181
DS 0.4958835813600268
Op@@ 0.2369852448078843
Pe@@ 0.1489522888818999
RO@@ 0.5957931615096804
chi@@ 0.20983334591704497
name 0.03781492508239613
ver@@ 0.02448615619812363
ลึ@@ 1
5.5 1
Lin@@ 0.1985759588108239
28@@ 0.46768345567020686
FC 0.09794598032351753
em 0.08424417700466222
ge@@ 0.05144242027331634
ha 0.049526450240861
sa 0.02336764974736955
เหล่า@@ 1
้ล 1
China 0.09070443849183857
Mag@@ 0.16822812355512837
ou 0.02324893166419656
ī 0.7884318896802585
ยอร์@@ 1
Cy@@ 0.4179100145454957
Er@@ 0.0681456202414035
IP 0.523091885348536
UTC 0.9565243923763486
ji 0.23928580792754023
114 1
CY@@ 1
DE@@ 0.520831321321431
Sch@@ 0.041011313529886774
ner 0.06314764207821014
กล้าม@@ 1
บพิ@@ 1
เคราะ@@ 1
Ho@@ 0.14370679822967458
Last 0.555467128031958
Technology 0.32799864668276724
คุก@@ 1
พิวเตอร์ 1
… 0.1204970974154314
127 1
AP 0.4404911317287836
East 0.08478242252383858
ist@@ 0.11573917095782828
man@@ 0.08544085743250096
121 1
English 0.07124473421937165
Who 0.5338528187440721
อิตา@@ 1
ala 0.14086409675673414
ee 0.15372768702397374
Bal@@ 0.11049376122127974
British 0.05032342589668588
ap 0.23682207116640208
ole 0.15674092102904358
्@@ 1
ถึงแก่@@ 1
ยาก@@ 1
รวด 1
เปรีย@@ 1
Golden 0.3025304448383631
Hello 1
Model 0.5943285329880034
สถ 1
หมู่@@ 1
๊ป 1
Generation 0.7609114610702554
มง@@ 1
Des@@ 0.14398173284481525
WCW 1
ini 0.10683376044554119
Air 0.10194331031596907
ME@@ 0.4964526096995491
cy@@ 0.37758852509515034
och@@ 0.24474186126586073
ox@@ 0.37842460234067343
pro@@ 0.1091274964840664
เภท 1
Asian 0.251669745600357
Fe@@ 0.22153878259385562
Lee 0.1694076808152232
London 0.0615393256773934
True 1
der@@ 0.0697766172100612
inter@@ 0.051456532042028935
วิน@@ 1
แอนิเม@@ 1
Hy@@ 0.2740070324630651
1,200 1
IT@@ 0.5753718167359214
MP@@ 0.4384840232144127
Mer@@ 0.12172870713136118
Sol@@ 0.13484789469589137
We@@ 0.147917527103531
les 0.004882606090151052
cer@@ 0.15171172825947543
ปาล 1
เกษตรศาสตร์ 1
เป้า@@ 1
ISO 0.9433645616901289
Kingdom 0.16101386376593713
Mc@@ 0.07349407382543406
yc@@ 0.39928644191653007
ยำ 1
11,@@ 0.7027949879278399
15@@ 0.40552375884429087
language 0.10516128223813845
40@@ 0.4697575070949455
Men 0.23351503973349294
ations 0.02770122797197693
au 0.008529944241653683
ด้วยเหตุ@@ 1
อนด์ 1
เกส 1
เบต 1
DO@@ 0.6330396963614376
Mus@@ 0.15055853260739233
Women 0.1349119271726456
จญ@@ 1
ผู้แทน@@ 1
1800 0.4599455644131034
GN 1
MRI 1
RS 0.5336912609763392
ant@@ 0.0958951571419321
tin 0.12613950322064
คุ้ม@@ 1
1870 0.2771490558229277
Gr@@ 0.07686190207971619
Inc 1
im 0.006340993573952909
ino 0.08144019584304847
so@@ 0.0944795084685133
แฮร์@@ 1
128 0.8585639621433011
Bangkok 1
ยาม@@ 1
រ@@ 1
Dream 0.7238784341479262
NWA 1
Open 0.16378642493304513
ita 0.10314214331215914
per 0.057758761871201623
that 0.0040323515983116355
イ@@ 1
1860 0.3150842678455173
Go 0.4495696576910408
Special 0.3164772242121933
ai@@ 0.22564544956854235
sion 0.12557715429953892
song 0.05194634474516831
Business 0.3019220622945369
Dr 0.816610100903212
this 0.014419946297087607
1889 0.2964055891538774
Game 0.2545674763877612
ent@@ 0.04302913822064548
1871 0.3234825494338171
Program 0.473139690286595
Thomas 0.07761003141867183
formes 0.40608019882936736
AS 0.30046596466816233
aw@@ 0.11497417090384608
ung@@ 0.11809376118064838
yl 0.32271130772693823
จอม@@ 1
Home 0.26006517955942676
Mor@@ 0.08017833464816404
Tag 0.3116011087270438
ast@@ 0.1868547248346258
out 0.022504457672927913
33@@ 0.6261812039155173
Dec@@ 0.19758505366729254
Mel@@ 0.17115577317748604
๗@@ 1
Pi@@ 0.1216080222538812
THE 1
ชัด@@ 1
So@@ 0.13533338867248218
com@@ 0.07569047905333255
enth@@ 0.6310741565116713
Ko@@ 0.1458192625583802
co 0.05291436177138842
EN@@ 0.8349941204363416
Peter 0.08795454826279964
ax@@ 0.1981144396078172
ú 0.4906373440815418
นเร@@ 1
พิว@@ 1
LE@@ 0.5481259632068471
People 0.20482808944059236
Ste@@ 0.13369559047094864
ating 0.04947162162752718
their 0.01136835252728502
ดาห์ 1
1901 0.2326864448705775
West 0.054372877182343717
yn@@ 0.19125888223231696
MI@@ 0.5001675457278163
ni 0.08707810799260596
not 0.012469675958336255
ฉั@@ 1
1.4 1
Le 0.012007843379945848
MS@@ 0.5824860842216818
side 0.052294740126843486
วาย@@ 1
หน่าย 1
25,000 1
den 0.004893068108255282
gi@@ 0.10860576598081301
ore 0.10307204156316248
{ 0.27277333785025015
£ 0.2123150388998914
1,4@@ 1
113 0.9778696093864373
Im@@ 0.14529478773825835
oth@@ 0.20059123117835226
BF 1
ความถ@@ 1
ลัง@@ 1
ั 1
เสพติด 1
Green 0.17166373088217657
Richard 0.100112089267556
ey 0.0862426675215069
ดื่@@ 1
1880 0.2722580183043406
Sal@@ 0.10488871103008401
go 0.08907215110584339
ome 0.2122319018912497
DL 1
q@@ 0.17020141719316334
บัล@@ 1
12,000 1
Chart 0.4934814944226268
Tour 0.10983561942483909
330 1
Ang@@ 0.16396434905766766
Dance 0.43730181362513126
ry 0.14861028586168185
series 0.03537588247733537
กำเ@@ 1
สาวรีย์ 1
หม 1
What 0.36497384674659394
ens@@ 0.057374147746843414
ium 0.24186114298304545
กูล 1
ออน@@ 1
AD@@ 0.3503562100204273
Ap@@ 0.18717589489248823
los@@ 0.34158107956722966
ma@@ 0.12812751785967075
คล้อง 1
ออกซิ@@ 1
1898 0.24305554187980447
At@@ 0.15464022125568305
ser@@ 0.08895172591423069
ติศาสตร์ 1
สหภาพ@@ 1
240 0.8735955402326547
PO@@ 0.6200418379886988
ax 0.33030244388418145
วิพา@@ 1
35@@ 0.46183099327951566
SS 0.22957352072728066
ns 0.16523216444527908
สุนั@@ 1
118 1
Island 0.10073885675652629
News 0.21964875228814695
be@@ 0.034961806040816376
du 0.004325840856236707
ides 0.11130948665333419
iz@@ 0.0830969980858772
pl@@ 0.0581130308843478
1,8@@ 1
Cl@@ 0.16789476301657283
For 0.059067033124453446
SC 0.21819602282148806
Street 0.0753374432163104
sive 0.22169288720755487
คล้าย@@ 1
่อม@@ 1
BC 0.21850779274105236
Dragon 0.6826900613664317
Mac@@ 0.1213264727386336
eng@@ 0.09003770335808299
for@@ 0.052678190476524646
ฤษ 1
หญ@@ 1
1909 0.20061088792712012
2400 1
gr@@ 0.05708281450597916
ind@@ 0.14024776060429708
lu@@ 0.10833824585192717
13,@@ 0.590928601344486
Hot 0.2636272926360683
ann@@ 0.13340443175137628
state 0.0390200123551996
tor@@ 0.08350390104996934
­@@ 1
α 0.3032151968580351
เพื่อ@@ 1
Ber@@ 0.06904952316718199
ill@@ 0.0823545815571632
รู้ส@@ 1
14,@@ 0.6338234451718988
AM 0.31728969427033205
America 0.084277330625915
Class 0.3689272634800327
Space 0.3425207506737029
บันดา@@ 1
ยส์ 1
Global 0.3938704247613223
Princess 0.5632805358723914
Trans@@ 0.19339892544803483
Union 0.06557313410666604
ake 0.14466278115297262
disease 0.30925185979162645
ker 0.08650798662014501
receptor 1
1500 0.3766785441456422
190 0.9252421025933496
Sea 0.21873066288490953
ell 0.0706113521729525
team 0.025402515779563678
ur 0.08592299637547288
สงค์ 1
AR 0.5040100492594053
ab 0.041060540055098564
กิโล@@ 1
ดึง@@ 1
ฤษฎ@@ 1
1903 0.2123604823075531
Gen@@ 0.13254335463150302
Ru@@ 0.16694635372228134
Season 0.47372343728375477
Sub@@ 0.15939544203749154
Tokyo 0.30595917240671366
ok@@ 0.12243654209155762
1902 0.21432879231292468
Bre@@ 0.1371844397675583
form 0.05192723756451567
FM 0.22088982904093377
ari 0.14005299825884704
É 1
ตอ@@ 1
มิว@@ 1
2.2 1
Concert 1
This 0.020676565107578992
acc@@ 0.1859699190378696
alis 0.275706400486858
center 0.10713195369479761
ys 0.12264726648463325
CI@@ 0.39685732826406667
SM@@ 0.8066818165299771
Tak@@ 0.2181037016766139
นิสถาน 1
IC 0.39959284614426255
Video 0.3655376448529494
ada 0.025289177347198762
ko 0.12789980770949885
ครร@@ 1
ๅ 1
1,6@@ 1
210 0.9455188433936095
tical 0.19398017301294412
ยาท 1
Episode 0.9964460551682524
Power 0.2785354019550332
ide 0.170946632353923
สาบ 1
126 1
Google 0.42044174566018133
Management 0.29616118232763544
Republic 0.13209481235546333
1895 0.23877235129040236
Digital 0.46575330949321375
HC 0.5775607516723515
field 0.05066595272847996
if 0.057870885534154475
ish@@ 0.1445843861761042
แหน@@ 1
2.4 1
European 0.07151059381476288
ran@@ 0.1050829015671654
Chinese 0.11684939078940262
rom@@ 0.17614505734430896
su 0.009258499847396389
1.1 1
230 0.9200781159438722
Nep@@ 1
au@@ 0.06161652884229258
ili@@ 0.14939221962279098
เต็ด 1
eus 0.43017651109319593
ice 0.07261623159306445
กระดา@@ 1
ル@@ 1
San 0.0348896509165231
Sw@@ 0.20987304121114797
ect 0.19633569811150894
oh@@ 0.15823675913197427
ç 1
9,000 1
CC@@ 0.39445167629174893
No@@ 0.16285977197486834
ks 0.059621902180841714
vi@@ 0.06666971935021454
คลาส@@ 1
จำแน@@ 1
1,9@@ 1
29@@ 0.4062573140789475
CS@@ 0.3896332569729441
MP 0.32747627576438715
onic 0.31196862121790997
sin@@ 0.12542841760874457
Ag@@ 0.1351993802265489
Can@@ 0.13048340210371498
Duke 0.2441361725658209
ile 0.04883392503540222
子@@ 0.4100995245865702
70@@ 0.5827282941013657
Anti@@ 0.31225683666096565
DVD 0.21455291493053627
VS 1
bul@@ 0.15023940866747865
ese 0.05989786389708011
me@@ 0.08457771296795229
ov 0.109721462593961
ys@@ 0.14246657178160038
1888 0.2695891616502576
34@@ 0.5623748129141048
ets 0.0592669062935643
om 0.1505099384312256
they 0.015389271911690669
ข้น 1
129 1
1899 0.2250880384369399
Bank 0.14578126470743089
ス@@ 1
1868 0.3120792599278444
Central 0.08160553868827548
Corporation 0.1954279280791825
Health 0.21004660663635524
Out 0.3258355920311736
hi 0.22753418369323303
io 0.08443566378253292
light 0.09225195474909312
member 0.04289344914738279
self 0.1370142847215002
tor 0.10202483746696939
天@@ 0.20545350769253048
6.5 1
Foundation 0.18883349021267318
ality 0.16231476876213596
edr@@ 0.4585502565183243
ev@@ 0.07237046368971271
มหาดไทย 1
1815 0.4391207799318682
Bl@@ 0.10577881423352786
MHz 1
Prot@@ 0.21514461588580988
pH 1
กรรมา@@ 1
หญิง@@ 1
124 0.902530808273465
AL 0.5865897636049215
Line 0.1613404744069456
art 0.04940293142081295
van 0.11509054082175108
ye 0.09795478841751942
กัป@@ 1
1893 0.24947532306273948
Airport 0.22985102432057267
Is@@ 0.11093868030758786
ut 0.12959066030447464
ตูน 1
ลิง@@ 1
1.7 1
122 0.9360657490439174
1830 0.3630112154119085
1867 0.29934243344314476
Billboard 0.18878747254721379
Lady 0.22873993792805095
ek@@ 0.07411398335766421
tu@@ 0.0885724384943101
ς@@ 1
Book 0.24904904155885155
ine@@ 0.21977472104960152
mer@@ 0.05974492088688902
ography 0.23579347970691242
osa 0.12267793520792443
ru@@ 0.07248533744326822
นรี 1
…@@ 1
ラ@@ 1
1,5@@ 1
Mah@@ 0.16099995697156746
ō@@ 0.2638199675805266
แกร่ง 1
60,000 1
Kh@@ 0.13410402881522754
Sar@@ 0.13427957481855027
Val@@ 0.10133393319672816
amine 0.8625706947492258
cal@@ 0.12073896709465787
ins 0.0440494124941303
ization 0.33072126731866053
ke 0.05800136733301927
ty@@ 0.16222988551614562
ve@@ 0.14465781791631344
Bor@@ 0.09985320620192992
Education 0.12860453476088965
Ter@@ 0.1437153411536809
ency 0.16879248954077472
ค่อน@@ 1
1848 0.2739401720533047
AE@@ 0.5256271878947236
Channel 0.2823925825501631
EX@@ 1
Shi@@ 0.27709269128642744
Sho@@ 0.2681646065608518
acy 0.1447565875677758
ates 0.045574898315443334
yo@@ 0.45598873075375645
จะเป็น 1
ราะ@@ 1
วิสุ@@ 1
1897 0.22015952826068352
ASA 1
God 0.199804257224483
eng 0.2349316408049511
go@@ 0.15456736010546837
lam@@ 0.1337309773680809
protein 0.32600969541675273
ปราบ@@ 1
ผู้แทนราษฎร 1
มั่น@@ 1
001 1
Empire 0.12132810768935733
Service 0.1334591964404223
back 0.03876791622308874
hydro@@ 0.3491533196418311
quot 0.5842524856064386
und 0.001779602964540936
ตแลนด์ 1
ประธาน@@ 1
ational 0.143913651061195
eph@@ 0.5830357284073702
ki 0.10612211378202052
ym@@ 0.23130791711147203
Sa@@ 0.14921289615300062
nerve 1
Henry 0.0856170675571588
Pop 0.46017220139137
aki 0.23070619733201728
ama 0.1057864309035671
mar@@ 0.059535908164666834
tics 0.15667753136074186
116@@ 0.9007296390681002
Apple 0.38844278237804236
ME 0.838021979230643
North 0.04106655500553489
PD 0.8369886028436947
act 0.10999779589756385
aka 0.21205225540732028
emia 0.7135428303089294
ette 0.0716878982223567
its 0.008775745269145662
off 0.04006612831619247
ora 0.11800299632295067
the@@ 0.12747600903410888
â 1
บัญญ@@ 1
ា@@ 1
Ta@@ 0.21059369043126103
่วย 1
Legend 1
Times 0.13429291571173588
ato 0.10714234506017034
ber 0.09073458582039055
met@@ 0.1313688524583207
เยา@@ 1
เว็บ@@ 1
Law 0.15955548409755174
Order 0.19034559167724924
Way 0.40391963586689816
awa 0.2705986296268679
ek 0.10820303780453946
yp@@ 0.30570671297266705
ละเอ@@ 1
FA 0.21676064747212478
Marvel 0.5035066864192844
Tre@@ 0.16296009373383658
วินิจฉ@@ 1
AN 0.6024265001168684
CD@@ 0.38159760082478567
Games 0.12670232839885462
Hol@@ 0.10732134955150309
อิเล็ก@@ 1
อุณห@@ 1
เที่ยว@@ 1
280 0.941048880930314
Development 0.18610251057197
Free 0.2937917172193573
ash@@ 0.14746487020535828
du@@ 0.08831637360343214
กระตุ@@ 1
น้ำเ@@ 1
ID 0.6533501815241154
Kar@@ 0.07828138168171826
MC 0.39223967436069307
Road 0.08418747658766006
ano 0.05202835799415709
lin@@ 0.09139164161083875
muscle 0.9865171391119397
é@@ 0.0321735253140135
Gar@@ 0.10830792102686165
IG@@ 0.7149921235074198
align 0.24909249913334391
ish 0.09494543489882179
opsis 0.7065835386630818
24.@@ 0.7327375098824713
Lov@@ 0.3525708009051164
band 0.042899036468746814
bar@@ 0.054839741583946194
hom@@ 0.12957631191772645
my 0.1474647031954996
ocy@@ 0.8886008096106075
wa 0.08694293523140466
จักรวรร@@ 1
สุโข@@ 1
帝@@ 1
Light 0.3080763996528803
cc@@ 1
function 0.2012592690876048
· 0.03397671342887893
BO 1
CH 0.9882618962211124
Design 0.2662677027543148
EC@@ 0.6938969971852198
Fl@@ 0.09649836669359664
PA 0.28822030840631513
Radio 0.11196958963975388
ame 0.17550247297755647
del 0.004364762638459436
down 0.05253540498345215
org 1
pe 0.08695341726435496
นซิ@@ 1
Album 0.15356689598082027
Family 0.1958824951926115
Mark 0.12011680226351565
ST 0.6470802066179653
ales 0.035967341241721684
กษ์@@ 1
ษะ 1
Edition 0.6139251034397523
ast 0.13585981285408513
mag@@ 0.18412533777743637
ster@@ 0.1423490866467611
tions 0.04996327401249874
136 1
Star@@ 0.22742936399859262
res@@ 0.05570027661198773
ประดิ@@ 1
Chi@@ 0.15457640451008853
Martin 0.08260837576495442
Ni@@ 0.13339816362187396
Olympic 0.21308386160229642
Vi@@ 0.12479868728952875
https 0.9123583093785745
ly@@ 0.1675574699855946
up@@ 0.08706660715256465
พระองค์@@ 1
อเล็กซาน@@ 1
皇@@ 0.8569476877742939
Band 0.1060081681207598
Fire 0.3316124079630446
NA 0.40863311918437983
Television 0.2752599726229194
effect 0.18223638794055672
eh@@ 0.06785035624119726
ema 0.22406486160861822
fl@@ 0.06830559997299497
king 0.07480409003379931
ler@@ 0.08728654308462297
1878 0.25232479275546305
ath 0.1406098790257428
body 0.08201224527314983
sch@@ 0.030537861275078973
มงค@@ 1
ออส@@ 1
็ 1
1885 0.2271998198112372
2.1 1
CA 0.28420125458990775
Emperor 0.28242649760029764
Like 0.24189781854634723
cl@@ 0.085110217127931
por@@ 0.10504506638564254
red 0.06684868076497133
ta@@ 0.10906608392128514
กษัตริ@@ 1
ali@@ 0.1135436803418124
anth@@ 0.3520264719864875
1600 0.6165293118847928
260 0.907547794031168
Force 0.11270196643211379
MTV 0.4253735582965154
anthus 1
clu@@ 0.9763083666233354
dae 1
set 0.042694536974916986
กษั@@ 1
ศว@@ 1
Bas@@ 0.13144508825136428
Louis 0.06741440869687741
SH@@ 0.8073427607600339
Studio 0.31218523478161386
eli@@ 0.24289253222221066
iss@@ 0.14654924740459652
less 0.06253656314485356
ological 0.10754534382839324
sur@@ 0.05731244153573635
BBC 0.1557408831311034
Back 0.420022944686602
IP@@ 0.508502121424383
Lost 0.6455765386632424
Public 0.14545237937706268
Sam@@ 0.13086603598934182
my@@ 0.25552002141448255
1892 0.22463421169143613
CP@@ 0.4231255025540966
Dr@@ 0.10158787338141344
TA 0.3325336938126272
ein 0.007551622351821997
esis 0.47645021197626414
ki@@ 0.1310156780985505
2,0@@ 1
ABA 1
MM 1
SN@@ 0.5414370635324244
istic 0.16545526192524657
mal@@ 0.09828187519855139
pol@@ 0.10392498668640486
ท่อง@@ 1
Journal 0.19573452005903874
Saint 0.029639997724468504
array 0.9558688831932256
motor 0.237352761059513
ona 0.09187660044895692
tra 0.1194036233163847
145 0.8602048509184337
1850 0.2641782198326955
Bel@@ 0.07461695916450929
Hor@@ 0.11974265915314863
Shin@@ 0.5220686139984508
Stadium 0.19551525677341408
1,7@@ 1
1894 0.22217743222412004
550 0.8377379210993082
KO@@ 1
PC@@ 0.42901673633635834
Rec@@ 0.12170569593526763
ib@@ 0.12957432310586672
ome@@ 0.3126065099222682
Kim 0.21135429732128205
RC 0.3234592022939204
low 0.0627184922263334
min@@ 0.06533812721608973
กวม 1
AF 0.42500390659493525
cap@@ 0.09449781353140844
Kam@@ 0.17539188253965315
ba@@ 0.09420222318892103
ja 0.07787389987977046
141 1
15,@@ 0.5331873850286641
17,@@ 0.5352699025685221
175 0.8112569825047284
Do 0.2816127965540652
VI@@ 0.43308505664185765
adi@@ 0.1239001982800305
ship 0.061190086836280806
—@@ 1
1,3@@ 1
1840 0.30846006506579426
250,000 1
As 0.02765249009871341
Cap@@ 0.1683689501968549
Cer@@ 0.16156784582131842
Old 0.13807599990167402
Out@@ 0.34368785528603385
Play 0.361530467290017
Raw 0.7706419046027296
Ther@@ 0.30081167293592764
key 0.11757162255342349
ode 0.27889847193546125
ud@@ 0.14468700573922177
ประโย@@ 1
มาณ 1
Dark 0.4199804967396089
Multi@@ 0.5037751465681373
Pro 0.2102832494062302
aya 0.1372841950605743
dia 0.20812736731478498
net 0.14646537412624583
Death 0.21610284463514245
GM 0.716502912377267
GT@@ 0.5589712309405236
PE@@ 0.516010248183089
PP@@ 0.6738297383559323
TS 0.4966090292566522
ach 0.06911813395667708
loc@@ 0.1072315731002668
tro@@ 0.1343664930473661
ula 0.22771489720326146
und@@ 0.08307203257940718
ē 1
400,000 1
Engineering 0.29924155791164947
Social 0.18674840698934433
Ti@@ 0.14079769279825927
Tor@@ 0.08635912515137086
her@@ 0.05788446581801256
hyper@@ 0.49643605950265096
node 1
nucleus 1
Long 0.1541287643254323
Summer 0.12046945494822164
icus 0.40113975616383646
ตอเรีย 1
1884 0.23859880166779404
Mil@@ 0.11644432309210456
first 0.007266411559478666
format 0.1708540435660843
kin 0.15843365501196746
left 0.04050970055983876
pu@@ 0.10253137298372016
ture 0.13411653743697283
ฟิลิ@@ 1
สัป@@ 1
い@@ 1
16,@@ 0.5374435629868402
747 1
90@@ 0.5784944814867219
ET 0.7097153706846268
Earth 0.18443375976132842
UK 0.08374562808407673
odi@@ 0.21580403275401536
ori 0.22065778358912938
type 0.06951789540874216
ประทับ@@ 1
ปัตย์ 1
150,000 1
1886 0.22976628632045226
Joseph 0.0707480073782371
Limited 0.392611082382237
Mad@@ 0.1181749316167724
Universal 0.3570291008267595
ds 0.08173437784973216
ha@@ 0.11826553682805015
region 0.06501461450706802
yo 0.28202817391702817
² 0.05319107917908252
แนะ@@ 1
1861 0.24127519941993966
2.3 1
650 0.8176462395613512
Bu@@ 0.12911990628858847
Met@@ 0.21214047225339255
Pl@@ 0.09107123243588236
Three 0.17908118103972587
background 0.21499880786680178
mi@@ 0.10130236195358473
que 0.0024860127087592753
uk@@ 0.12759599962862403
use 0.02575542116593408
ขึ@@ 1
Let 0.48398986128436966
Round 0.38544130556073447
Sup@@ 0.29092071624696025
action 0.07185049687039476
ft 0.12213027659620049
tional 0.13327394861862285
มภ@@ 1
李@@ 0.16445216445329547
119 0.9014038460605781
155 0.8551467420976152
1862 0.24650432160302896
col@@ 0.06450403316309535
if@@ 0.08503230562245893
medi@@ 0.1343726215645174
oku 0.7367559049317642
เลขา@@ 1
1.0 1
1891 0.2120868755286024
36@@ 0.46117910558826375
day 0.03302241149880331
ding 0.10995278931152992
text@@ 1
Del@@ 0.11750715332695016
Mat@@ 0.09427499107797563
class 0.07086603099225319
ich@@ 0.09519517705037991
ilia 0.6299969264321353
width 0.42029749239869
人@@ 0.12654790027091795
0.1 1
117@@ 0.7919295871399237
11@@ 0.36528944017291676
1789 0.5107051254952253
Ka@@ 0.2306890877908282
ON@@ 0.7235728434986229
OP@@ 1
Reg@@ 0.08479395239744288
UN 0.3958029936747447
all@@ 0.07249999073908858
dr@@ 0.05418425376620069
ger 0.08521355548991442
ประติมา@@ 1
1866 0.2104183218984225
Cas@@ 0.09268755144048306
De 0.03553372534571051
GP 0.58327882511069
Ha@@ 0.13226943524588958
SR 0.2628104881454364
bit 0.23330306809228227
ement 0.03238140611674114
fish 0.17029080658110415
point 0.044453100450887316
รรยา 1
’@@ 1
Cat@@ 0.16415378133159103
Ke@@ 0.11758757956522571
Maria 0.09465882232638424
SI 0.6148501441623557
ack 0.15743444865266987
bl@@ 0.04887675239238731
3.0 1
Kr@@ 0.07712319225851713
Pat@@ 0.15562126187519668
Sel@@ 0.1459793530979966
inhibit@@ 1
ky 0.1249987579594924
ster 0.09261247429598542
Li 0.3005268470597489
Sun 0.18163141312063494
Voice 0.6320190579027306
_@@ 1
ain 0.07863449754766419
block 0.2241673039344842
ima 0.16311171757622905
ings 0.03869425935342675
more 0.014236925563445559
od 0.18807542525322127
165 0.9042211004851911
AA 0.30822351988666835
Ltd 0.34079410099545004
RI 0.9032323639010341
That 0.13366956921638737
ami 0.14744562183827392
hab@@ 0.18332567369751285
สะท@@ 1
・@@ 1
50@@ 0.2889260873882948
Can 0.4221563571920882
France 0.024405388674236767
Mur@@ 0.12689332532477138
Syn@@ 0.2685844934275435
War@@ 0.1038852657171623
ents 0.050693390407344094
ณิช@@ 1
09.@@ 1
Han@@ 0.16577539840150513
Wi@@ 0.20897237037254432
anus 0.25358358075148074
ective 0.2030179047547277
ery 0.13227178810857348
est@@ 0.04781375320964834
~@@ 1
山@@ 0.18713136974612254
Are 0.5924234944991317
Co 0.18504402563055383
Gold 0.173591644613572
LA 0.2647310520943164
Poly@@ 0.33167028976989194
Pres@@ 0.14515383293973042
SAR@@ 1
Sor@@ 0.17547290220226497
Ul@@ 0.15120300528266495
can 0.0173113368542316
dec@@ 0.07283256813162303
micro@@ 0.189922275244049
1814 0.37690902808367904
45@@ 0.4528247767478273
Res@@ 0.18275409651877958
ton@@ 0.15404271449944004
เม็กซิ@@ 1
80,000 1
AF@@ 0.36224766715638385
Audi@@ 0.5883249063138744
Mi@@ 0.12107498397016336
Sports 0.16300764563067427
Win@@ 0.17255306696293915
ass@@ 0.05560487171548303
inc@@ 0.07841277180523039
next 0.057209825737994345
） 0.011598938765745822
114@@ 0.7794690294375626
3.1 1
Pap@@ 0.16415900992535432
RT 0.40706621671414245
San@@ 0.10365682780242472
Sciences 0.20944729000067874
Secret 0.5792198080453111
Ty@@ 0.25110397523527017
atr@@ 0.1342636877127893
ial 0.22420610212732278
ids 0.14672343694428494
onia 0.19171933194723906
text 0.14917893589303327
ual 0.18793365985730176
ิ่ม 1
144 0.9059928582744168
1864 0.22431196491060193
340 1
Du@@ 0.10260130377712566
Gal@@ 0.09941912541298291
Now 0.3208385451723481
cus 0.32702020295480855
des@@ 0.03569770165993175
didae 1
music 0.0339512046764105
ra@@ 0.09115334906876542
ภ์ 1
365 1
4.0 1
Car 0.4323509702952102
Cur@@ 0.13012279328962037
Human 0.25928934064185644
Original 0.4586464790385658
Stone 0.22398851791046284
ena 0.09382859021240564
pop 0.14399180484095506
ในแง@@ 1
າ@@ 1
133 0.9155152585459744
Ch 1
Five 0.3096136239218337
Fre@@ 0.08239213357200886
ability 0.07094691653107559
chi 0.09440005755407854
eme 0.28563385402505564
factor 0.30980205525908666
super@@ 0.08021295316100006
za 0.07057151505916319
1863 0.23117551744920375
CW 1
Four 0.21175230542430012
Heavyweight 1
Online 0.4635017606395421
RT@@ 0.3885465351556218
kl@@ 0.09838287481840097
theory 0.14961542811988743
Ba@@ 0.14608905590469942
Cop@@ 0.2197004228144456
DI 0.5989131402214012
Open@@ 0.45009697339010163
Single 0.3205554748494574
TR@@ 0.7852511601943741
based 0.02881423221157984
can@@ 0.0742758318292451
cin@@ 0.16045389401636764
gang@@ 0.6134985900946478
illa 0.09810129741271985
lateral 0.5509659577264872
oni@@ 0.145140050702423
right 0.05938276059265446
อุบล@@ 1
1887 0.21247446497380462
380 0.9216639111390756
Che@@ 0.27671897608756485
Federation 0.2255325680959877
Ros@@ 0.08977321577249411
memory 0.26497955501772597
nucle@@ 0.623302573399765
rec@@ 0.04813287751354725
รวบ@@ 1
เร็ง 1
ト@@ 1
1879 0.22732251489561742
Internet 0.17583983598685726
oz@@ 0.16217265865253022
Av@@ 0.1251798974203791
County 0.0263735732617696
Movie 0.6923032468017534
Museum 0.0693721188297309
Produc@@ 0.44421571061627174
SI@@ 0.5006392946863782
cular 0.3886641015333037
hem@@ 0.3610721320588423
return 0.08388476310657177
GB 0.38130293694828105
Mu@@ 0.147347982385347
OH 0.9307591488790908
Pal@@ 0.10176051364005533
contributor 1
โจม@@ 1
1200 0.46809345121213375
131 0.854009498504344
1882 0.22015753246462139
3.2 1
ise 0.03833403604390961
ogen@@ 0.2847358545808663
oides 0.430245262865503
ther@@ 0.14590227187754526
สถ์ 1
1875 0.23036627485753813
1877 0.23074559583078227
1881 0.21507644075246715
CP 0.4729288993743873
Det@@ 0.3578543391747551
End 0.3124944762187625
Max 0.14340865287916907
Net@@ 0.4570117919951493
SE 0.45673508276199287
TVB 1
WrestleMania 1
ail@@ 0.1545674386134543
ect@@ 0.23024060991771836
let 0.11460861615650832
log 0.779672790433877
pan@@ 0.12141344264222818
ลิซาเบธ 1
อยุ@@ 1
185 0.9880626236644169
1865 0.21884063602140572
Baby 0.4582495989999388
Hay@@ 0.20720528691751153
Lord 0.11024824766853913
Lu@@ 0.1203944400700903
Two 0.09512746439544653
ess@@ 0.07194905429765468
game 0.027371664534184888
iy@@ 0.1800237907610692
odon 0.8203854070305638
ola 0.1136287917803453
timestamp 1
1801 0.4512704476509829
Al 0.051890103297785595
Football 0.07534892632026009
When 0.04581752477962005
aur@@ 0.16545259210600144
ight 0.18480386910921037
ire 0.07568162238252539
order 0.047922470975011344
thumb 1
ク@@ 1
132 0.7788469289055614
137 0.8983082329003402
201 0.9080957564506708
AI 0.5488871065411283
Edward 0.10352975949124406
GT 0.46422400365568334
Hal@@ 0.11928303035350318
Hem@@ 0.27441128224560385
ba 0.08470295573524504
lia 0.2541310045349047
onal 0.15691733146104087
son@@ 0.1039985122125185
yg@@ 0.40827239584395214
จัง@@ 1
เหลี่ยม@@ 1
์ม 1
EN 0.8665178378225991
Homo 1
La@@ 0.12519280510607883
PS@@ 0.30721760000717496
So 0.08750013813584548
Treaty 0.43378733605154873
index 0.6364590527967505
โหว@@ 1
Jean 0.04081306639741151
Jo@@ 0.1361995025201031
Microsoft 0.2579936875714014
Sound 0.29347769143032715
Station 0.10992713404377827
^ 1
ga 0.12919660809726252
ray 0.31354309181649315
08.@@ 1
23,@@ 0.6875134719360407
Dol@@ 0.16479877170438706
High@@ 0.34628863965609347
Jr 0.1989171821803746
Men@@ 0.12552758777987294
NK 1
Office 0.1404221611602309
Over 0.19726838669856556
Palace 0.29455402956000976
ret@@ 0.11583931575427643
tus 0.24267538617060083
คับ 1
0.2 1
California 0.0500327102503967
Cyprinidae 1
Kn@@ 0.1412480477465385
bas@@ 0.07734876052468552
ection 0.14875247812036507
ef@@ 0.09772076333784391
pent@@ 0.4323886501454597
si 0.04307161028839029
vs 0.7045828527158849
ปลอด@@ 1
1790 0.4408011124276648
256 1
270 0.7627819298930861
Children 0.28062042197488796
Double 0.5537159638816254
Gro@@ 0.14738252460195145
Pu@@ 0.21620531185895936
Tar@@ 0.10817980627602361
Ur@@ 0.08804534526578477
ain@@ 0.09768541804279676
air 0.057399909609677315
aria 0.09390887230135554
eth@@ 0.11015881759151973
head 0.04541210057920025
pos@@ 0.07298197091021273
ฉบ@@ 1
ลพ@@ 1
สู้@@ 1
เดน@@ 1
26.@@ 0.5902927270241426
600,000 1
737 1
Cre@@ 0.10953969695568332
Mary 0.07924818144473741
Pen@@ 0.14158566721260443
Road@@ 1
acter 1
fe@@ 0.07729668664787637
nd 0.4990446267547769
som@@ 0.1865205320933266
tom@@ 0.13036319183973913
บัญชี@@ 1
ลงกรณ์ 1
205 0.9213226129181066
Blood 0.5190069979204263
Cro@@ 0.15216115313272083
IEEE 1
Sy@@ 0.163939542077917
amb@@ 0.11021173407158828
ful 0.08326861968185392
gen 0.08679921290235203
lig@@ 0.12601206334698503
mas@@ 0.07698418486966951
umi 0.38300202865835326
กฤษฎ@@ 1
8.5 1
850 0.9369911222684209
ECW 1
Hero 0.8006563177589437
Kan@@ 0.1107597043450415
Not@@ 0.130322461756093
Organization 0.38429246241803633
USA 0.08389646525920497
Vol@@ 0.12129920233097431
la@@ 0.10864930753087261
tree 0.1814121562417924
อิทธิ@@ 1
An 0.046425774278029464
Ben@@ 0.09571247367663939
With 0.061633728027296136
otic 0.28415180982020655
phot@@ 0.2347024878178295
therapy 0.6147298549958496
คริสต@@ 1
ถึงแก@@ 1
สมัครรับเลือกตั้ง 1
ッ@@ 1
25.@@ 0.5593557228236489
CV@@ 0.9177116527139272
Land 0.08560044981938562
refle@@ 0.5806300819101111
ติกา 1
ล่ม@@ 1
เปรียญ 1
太@@ 0.2972239317302165
134 0.8573781925505648
143 0.9542256319779726
146 0.9259132391670578
148 0.9897560627191788
199 1
Johnson 0.11669912332899529
Micro@@ 0.40959823308920035
Moon 0.3170504195435228
Tur@@ 0.09013511757095205
aph@@ 0.27252008049823484
ati 0.12908413016069836
bur@@ 0.07854541024524432
multi@@ 0.19485481033597496
play 0.03431205929981632
so 0.01563275111199154
tidae 0.6979022613797055
โหม 1
シ@@ 1
Az@@ 0.13304488855162935
Boys 0.26131809627029917
Control 0.3733824979841643
IT 0.37002109034565817
Medical 0.19970013770717684
Na@@ 0.17103020903970867
asi@@ 0.15331055720018238
username 1
ô 0.5238521815367454
กระจา@@ 1
120@@ 1
1883 0.21096097162638372
2.7 1
Alexander 0.09260136044887429
All@@ 0.1745835500583895
Hel@@ 0.11521077272015354
Por@@ 0.10163810446928956
RA 0.30296303019919635
Tower 0.309118546880881
icul@@ 0.4371872589288306
ow@@ 0.08356534017682679
ros@@ 0.1627916276803166
งคู่ 1
แห่ง@@ 1
リ@@ 1
ABC 0.2386943806831402
CC 0.2840603018687429
Days 0.4798632700660604
Los 0.021561194442999223
Rem@@ 0.16158240424496725
Roman 0.07333163066117053
Sweet 0.6584163751967728
ania 0.18794439217754946
ants 0.03456472641422573
ars 0.06662174570738423
don 0.09583962106201203
duc@@ 0.16883380536810813
jo 0.1307369783748349
mer 0.058838149689210244
ony 0.22138695875237582
tery 0.33315391365386476
tia 0.18878314087035475
­ 0.42386974543056366
ì 0.8576141371781286
พระนคร@@ 1
1839 0.3389408773300117
48@@ 0.5253499353917396
IL@@ 0.6909052958995376
Index 0.6097743652346916
Scott 0.12111627690332269
TC 0.3104546449815144
cat@@ 0.08896133849527996
jpg 1
ling 0.056074481034501286
new 0.014204587650739455
sh 0.3932604381500267
งบ@@ 1
งเกิล 1
ท่ว@@ 1
154 0.909621558845193
1859 0.23652100091903788
206 1
Cross 0.16597662979030284
Ly@@ 0.13913872647639913
phy@@ 0.3182938582416001
urus 0.7710910109880562
20,@@ 0.5549276374315609
27.@@ 0.5668661498004304
75@@ 0.5664408196700597
Bad 0.1696329928068656
Centre 0.09464020143808402
Hu@@ 0.10602796174124968
Non@@ 0.5059563113228094
Paris 0.03000016351541537
SD 0.5870721934075676
berg 0.04363286970482087
code 0.13499013188096812
ez@@ 0.0902468611260132
hu@@ 0.08975132553974799
kin@@ 0.22135351431250264
thi@@ 0.21511936100986362
vol@@ 0.07939520073586451
สุทธิ์ 1
CN@@ 0.36035376485992976
Committee 0.08987595192873087
Impact 0.5727349736117026
LS 0.7933746253492692
color 0.09297749478816289
px 1
sul@@ 0.246589246945352
sy@@ 0.1868393733266165
ten@@ 0.03973023665493876
ธัน@@ 1
1872 0.2130689200335117
3000 0.29159534494994216
Court 0.06663510606140932
ES 0.5687024409509084
IA 0.5249553853231479
Kur@@ 0.0841656217972482
Money 0.6581870124008232
low@@ 0.18595394680900212
ulation 0.15822858649365434
} 0.19089173441419346
202 0.9373516632428254
Cin@@ 0.25453901053297456
Rel@@ 0.16971696330731498
Tel@@ 0.1753014273144208
Temple 0.21068220251747083
bone 0.4039032469686123
els 0.042824502713848765
ines 0.057538991286002504
number 0.02183872924037209
ស@@ 1
37@@ 0.3867479416121788
CM@@ 0.508965356784375
Nar@@ 0.16112427834629928
Seven 0.35128243863743486
Sim@@ 0.1488592832685634
ins@@ 0.06332442900790726
บริจา@@ 1
168 0.9708323680852049
1700 0.5318315831808322
2.6 1
55@@ 0.5375922731212074
Crown 0.3141853257669271
ION 1
ON 1
char@@ 0.09455544812729579
edi@@ 0.12155777724719771
ies 0.04640049418313034
une 0.0038050452697787843
ทด@@ 1
มศึกษา 1
1873 0.20540499625816996
And 0.18816332406360006
Dar@@ 0.09585387679583897
EM@@ 0.5165292473284291
England 0.040334726751472684
Garden 0.2716682082056062
OR 1
\ 0.287630633998478
area 0.021829501352038077
clear 0.1853948511358952
control 0.05159070419414798
eo 0.1013940809846035
get 0.07428342156540386
ke@@ 0.10290540264526585
pal@@ 0.09262697170531815
ren@@ 0.05533850599850449
ten 0.012755202677634834
ts@@ 0.05727082438227434
เตอร์เทน@@ 1
်@@ 1
中@@ 0.05950372838683299
0.6 1
1820 0.24607556227085603
208 1
Beautiful 0.8723720691385011
Bro@@ 0.13178202823046054
Cos@@ 0.18137147580796825
Da@@ 0.23692261140416426
Down 0.331920953677351
EL@@ 0.5338146233092024
Kiss 0.7947930623323018
test 0.11501340175347095
ā@@ 0.08401774384073817
เยซู 1
后@@ 0.3348896199830137
152 0.7404474929188904
1806 0.3498460919166619
183 1
222 1
AB 0.3420871306019974
AND 1
BA 0.23720947906756307
Kong 0.13307481458931053
Yu@@ 0.44157044542758495
acet@@ 0.5780681763950033
ider@@ 0.298724433548629
log@@ 0.1175660410413672
ri 0.14619151893475424
them 0.019305704504813337
uc@@ 0.10495230089358597
ul 0.14079262289534308
ye@@ 0.19505518365774627
ê 0.6292216665358561
142 0.8687924108684556
151 0.8855313391557215
Alliance 0.24629985985651998
Cam@@ 0.1266605072609784
India 0.04512315584998548
Je@@ 0.15382995439479982
Mask 1
Match 0.5435359092223827
On@@ 0.18036367543635548
ard@@ 0.08446773042484898
ere 0.055057400832437535
syn@@ 0.15314250374173766
tes 0.02926992184407876
ua 0.13077876909831057
ทั่ง 1
ผู@@ 1
ราะ 1
รูปร@@ 1
19,@@ 0.5422488486876798
225 0.8182376800636101
3,0@@ 1
Ban@@ 0.09542126704283337
Fast 0.7745036516934453
GDP 0.9399649405660311
Ger@@ 0.06363620577750148
If 0.10337160588461597
Maj@@ 0.18911467972375812
PL@@ 0.4574979316551034
Sport 0.19261782727588297
gly@@ 0.6165987336374689
psych@@ 0.18232360077017068
ventr@@ 0.6496361214678358
ทั้@@ 1
ภูเขา@@ 1
รัศ@@ 1
ื 1
เวียด@@ 1
IV@@ 0.8898561926817278
Ram@@ 0.10900932733195227
Studios 0.20086304879228342
公@@ 0.15472904279748406
1874 0.20165452116700422
1876 0.19143672431872918
2.8 1
310 1
60@@ 0.3336526347253871
Ash@@ 0.15644759804059002
LE 0.819644918228371
Mak@@ 0.15502327655930334
Next 0.45380846464794977
TP 0.5674453152156483
Universe 0.618748151151353
old 0.03297489450717734
pa 0.11998894529158743
put 0.08095918282007862
EC 0.3706719230203825
Fame 0.2171610089182168
Lake 0.0670743472166146
UT@@ 0.7778507741510486
Zone 0.2729082516322053
frontal 0.9907931373094409
have 0.007572825605627415
iv@@ 0.09708658177426444
พื@@ 1
ีก@@ 1
1849 0.25353635697188676
235 0.974358270896194
65@@ 0.5187799892208633
BS 0.40876304620984333
Cl 1
DF 0.42222688471033853
Get 0.5232493793445849
Magic 0.4194392926758149
Meg@@ 0.2774634916035165
Play@@ 0.3203559743129489
arch@@ 0.09907095720761593
biaceae 1
esia 0.33318146062890647
mic 0.33845066345342134
mor@@ 0.066652526544447
nor@@ 0.13448098766256308
til@@ 0.11986557763804742
ver 0.08335412320666463
ម@@ 1
CR@@ 0.41175981135574297
Honda 0.5677770289687586
Jack 0.10493825239363272
Nations 0.13851914736410972
Performance 0.4338707362131758
Ray 0.20728794295320496
Sain@@ 0.7808731468234862
Sil@@ 0.15091382143868587
ash 0.14880549280932512
bre@@ 0.06057566094039155
sa@@ 0.10579241847441076
ters 0.05691769248664139
สถา@@ 1
宗@@ 0.4831824278186003
113@@ 0.8161731180621823
1858 0.24718753929555218
Again 0.574267262080383
Arena 0.24513605663192745
Bot@@ 0.14232527485375782
Gre@@ 0.09807377179616185
IF@@ 0.3946947289717893
IN 0.6020469694563682
Iron 0.29183215096501014
Pacific 0.10003105143010267
TV@@ 0.29378532122960516
comment 0.4982953091912708
eral 0.37399263476571665
ill 0.07878526788084687
len@@ 0.09302550457113774
lock 0.19393363158371613
process 0.0709421886731034
yu 0.40030665178966446
ศรีอยุธยา 1
ั้ม 1
เริ่ม@@ 1
（@@ 1
1869 0.20818747668449705
192 1
Div@@ 0.19895358918808398
Dor@@ 0.12003818977749871
EF 0.8342359650145672
Ran@@ 0.18850319526510653
Rose 0.18109153920214535
SM 0.4864884333216657
ae@@ 0.49127335592654375
ik 0.07408379921774315
จจะ 1
ทบ 1
147 0.8494148844704549
238 1
BM@@ 0.3947364412861466
CS 0.28603012602121514
Code 0.2586173525847974
Es@@ 0.0651182156269928
Type 0.3022247840736239
Wars 0.34982541841213693
chol@@ 0.6347293971564791
ital 0.22854039610342494
เครน 1
0.3 0.8661280853497169
153 0.9053904405560024
Air@@ 0.19370899203310216
Bridge 0.15221904989947743
Brown 0.09350053746603285
Ca@@ 0.1908200295237181
Champion 0.2900153552538834
Dem@@ 0.12641307781481634
Junior 0.15665412296930165
Kids 0.6018092621152752
Not 0.23288607443263895
SmackDown 0.9246089671543505
The@@ 0.11992424029827205
fr@@ 0.05283051033391054
lion 0.3395058486863236
ops 0.18097630104290796
path@@ 0.17314157267826963
เก่า@@ 1
420 0.9645932531272324
Beauty 0.9715574809462699
Chemical 0.7304018308105286
Fo@@ 0.13947180568551296
HE@@ 1
History 0.02992985593731664
Hong 0.12881256149705925
MIT 0.708198232993132
dium 0.3859585765302426
elli 0.11423818503381454
ick@@ 0.07805862443593581
osp@@ 0.37237655664627944
va 0.050342595020692396
มเห@@ 1
ลิส 1
เนียร์ 1
172 1
173 1
1857 0.23003811294756624
221 1
Elec@@ 0.24667192088753453
Happy 0.6162002790134459
IR@@ 0.45164986947267816
Mac 0.33224541502885885
Post@@ 0.16634701680621344
ault 0.13714251311429437
ko@@ 0.12106069363205639
oy@@ 0.12474858480882578
tur@@ 0.06161329463248619
wiki 1
ตัดสิน@@ 1
南@@ 0.09058028741696518
District 0.03454997564066774
Fox 0.1499180937560406
GO 0.6383863154185443
Hotel 0.15896950252614636
Sun@@ 0.2169836333433779
act@@ 0.18631799166517876
atory 0.13365403642959425
data 0.07945747173479109
fiber 1
otr@@ 0.2820313121959392
version 0.036400854874879436
บุรุ@@ 1
ฬิ@@ 1
ន@@ 1
、@@ 1
204 1
38@@ 0.34452979746903273
39@@ 0.3867827154692465
Bill 0.10742882548623324
DB 0.4946559994853241
Faculty 0.45561749359944687
Fi@@ 0.14422539913331958
Language 0.4019649508968818
Mid@@ 0.2250127347496373
Modern 0.21779386042839108
Mol@@ 0.10647735357280588
PR@@ 0.41438520011142954
Toyota 0.5545326739238362
ble 0.1166363937376576
etic 0.3167729161915383
men 0.021429190878363348
ock 0.1121359917845953
space 0.07852171139942306
β 0.3759306142541221
ชมพ@@ 1
มภ์ 1
านุ@@ 1
178 1
1793 0.3439338657774945
Christian 0.05577586067671911
Division 0.03863972406114712
Smith 0.06499424228551841
！@@ 1
158 0.925271474238488
184 1
212 0.9516359785074263
44@@ 0.4876861720572399
99@@ 0.7572243574730733
Army 0.0452769955346284
Brothers 0.25102497031385373
Church 0.04400391147720258
Computer 0.3336618236485112
EA 0.5383845452269235
ED 0.7993064257614277
God@@ 0.21784881567986003
Kor@@ 0.08219022180818787
Ol@@ 0.0942845417888717
Pot@@ 0.1580726631002853
Rankings 1
Som@@ 0.24414362789163283
VO@@ 0.7273488086128073
aci@@ 0.11771955745263575
aj@@ 0.07008578753223677
ide@@ 0.09908743670674632
ms 0.10017814776957763
only 0.012333864424694092
ug@@ 0.10470545578371997
will 0.02178706283560654
เมริ@@ 1
0.8 1
166 0.8880122423565617
Cel@@ 0.19085735409877114
Commission 0.08970873898389266
HTML 1
Hi@@ 0.19546499411720458
Ku@@ 0.14656415445019097
Nov@@ 0.13051296744134883
Pur@@ 0.15119341050192736
Woman 0.33890027173603055
ail 0.1334286684072472
atum 0.34426162283052075
lan@@ 0.08908112545967324
law 0.03909979283305905
mm 0.059276594498737054
ote 0.08561077542858218
una 0.004602827438212759
ซื้อ@@ 1
รบ@@ 1
็ม@@ 1
‌ 1
2,9@@ 1
4.2 1
Aqu@@ 0.2574694885303397
Chris 0.1313518095504777
El 0.007303972270743474
GO@@ 0.5179794565053546
Nak@@ 0.2699197234318277
ashi 0.41378783981392225
ays 0.06529494792551009
thr@@ 0.1564734360786704
æ 1
ฅ@@ 1
จืด 1
18,@@ 0.4482306275337187
22,@@ 0.5829345495767578
303 1
CT@@ 0.49045051907389514
Cure 1
From 0.04361692121935184
OR@@ 0.7394275576946913
SP 0.5062941681035009
active 0.060573549153578814
channel 0.13214628953416546
cop@@ 0.16980464081517727
ech@@ 0.08332864189487184
elle 0.011486439397144837
sen 0.04832893724265396
tion@@ 0.10569134433692912
would 0.011144221417270546
ทักษิ@@ 1
138 0.7153295434511521
193 1
3,500 1
301 0.912372954755085
Artist 0.553413021317332
Gl@@ 0.11914784796911353
Jackson 0.1153171657324434
Korea 0.14749031812130864
Na 0.47509791760128206
alization 0.20960139762349636
cur@@ 0.0618990523413077
lip@@ 0.3377191067093219
mann 0.04628114753828197
occus 1
pin@@ 0.17759581918505102
station 0.022403802327637695
tra@@ 0.15783980430085023
š 0.3676470493003058
ตอม 1
เจ้าอยู่@@ 1
1.9 1
1792 0.3775616954202759
315 1
430 1
BB 0.5093181818312077
Box 0.3483333267389593
Got@@ 0.2752427917260696
Il@@ 0.11353114478404835
Knight 0.28170083215426295
Operation 0.1812030051436322
Os@@ 0.10500036084647638
Ring 0.3377559781836072
Standard 0.24492668333475534
ii 0.2865661514364937
oo 0.26179438812120126
op 0.12866125089492095
opath@@ 0.5077097794348189
sk@@ 0.054665280157188016
ust 0.11882619779408501
value 0.12547568082441077
ดอลลาร์@@ 1
นอกเหนือ@@ 1
แปซิ@@ 1
156 0.8003885037346874
163 0.912315352760178
2,6@@ 1
46@@ 0.4421532805312676
Agency 0.27606065901889704
Ed@@ 0.13593184988388962
FF 0.3447619902094325
Once 0.23195373333860744
del@@ 0.07758827155159408
die 0.0013045597597049453
he 0.002918532277297656
otro@@ 0.6249653192541367
pp@@ 0.10283090445524977
ze 0.06575006898532965
18@@ 0.24802709019085917
Data 0.4176996913575564
VE 1
Web 0.3866805095721208
Yo@@ 0.2919469460476424
album 0.01427468181930479
book 0.03400797356369727
den@@ 0.052926909999916345
ely 0.05434356137034819
entr@@ 0.06797376542595804
lic 0.4019974253469621
mac@@ 0.19240071155363392
รรม 1
0.4 1
157 0.9327205298817338
BE 0.5532210945098954
BSD 1
DE 0.3840590980513443
Fin@@ 0.12823321262946466
Ig@@ 0.2800011754980911
Information 0.238485466368676
Magazine 0.18514132059849364
Nor@@ 0.08787468731991165
Stage 0.42991824376946264
Tan@@ 0.1561536463950023
Version 0.22426603080872642
hin@@ 0.11478243062033412
ites 0.06720802124573587
opo@@ 0.28691838804753056
ア@@ 1
文@@ 0.11215905937835849
195 0.8533375008289465
3.6 1
Die 0.004367015468061869
KBS 1
MI 0.5427099967110092
MV 0.5665194703162766
Pin@@ 0.13154037788222755
Real 0.10278522782483146
SF 0.6402525928269197
Siam 1
Stars 0.24929353601629514
WC 0.8136939830012315
cas@@ 0.06295529315849813
cul@@ 0.09792887960283683
ex 0.08723891462216363
ika 0.13640627205643135
inn@@ 0.10614689213935866
mi 0.0939803784633169
ny 0.13885340294330628
phen@@ 0.35452311431245465
ปรากฏ@@ 1
แ 1
元@@ 0.28201955644933535
Cu@@ 0.10081994442063116
Imperial 0.2053437703794962
May@@ 0.12976904936392203
Over@@ 0.18823380072626034
Pas@@ 0.09283516268241186
Vol 0.7116505089353082
agn@@ 0.21006184020528368
anterior 0.20666711075487343
tors 0.08692369020866106
ได้รับ@@ 1
‘@@ 1
1795 0.3887821089468104
777 1
99.@@ 0.9882018240000222
CL@@ 0.563347411318255
Heaven 0.5931505614055206
Hill 0.07180480412423787
Islands 0.14143272764957537
Oc@@ 0.20544736465696928
PM 0.4011783440890257
PT@@ 0.5559104436241322
Part 0.3137730314691706
Spir@@ 0.3221311043673858
fi@@ 0.06850255265466954
gener@@ 0.0835784089095238
int@@ 0.08824610854669857
single 0.025502991385202532
top 0.03503685910919623
xi@@ 0.21740868597673582
สัมผ@@ 1
องค์กร@@ 1
เบธ 1
三@@ 0.06974278592097252
167 0.8221523810562469
1854 0.22238575840005778
265 1
Age 0.2351242526335688
HO@@ 0.7355131052814585
Harry 0.13326570250007028
How 0.3543790111649058
Mir@@ 0.12441498306313449
Mountain 0.15041579497231672
Second 0.0805576956322917
Tom 0.09968840738636865
ally 0.024902303578114158
box 0.13233567980673003
mel@@ 0.08284303615070913
tan@@ 0.0782181183951356
°@@ 1
แชมป์@@ 1
2,4@@ 1
47@@ 0.4126795751245671
999 1
Gor@@ 0.10424386894394834
Just 0.2511799374441433
alb@@ 0.1076471021097546
len 0.08835022499078732
men@@ 0.06921442829808824
polar@@ 0.47215043183531025
prot@@ 0.07654465350530627
we@@ 0.05778044776648293
ตกล@@ 1
เมียร์ 1
國@@ 0.1279324427457254
189 1
2,8@@ 1
309 1
Api@@ 1
Ci@@ 0.1692586774674797
Government 0.07680377154337996
HA 0.683065551595859
Pseud@@ 0.5635901622930847
QS 1
Steve 0.13031450355229315
Theatre 0.10278281699101159
Vo@@ 0.12720983550714146
Wall 0.28477562053217875
amin@@ 0.3331741497692922
dy 0.09940844756242487
ham@@ 0.21288390334229843
ico 0.0638872359568263
iki 0.09972377937682385
ip@@ 0.14386562355332502
ito 0.0767059811024891
mg 0.7247474047484112
มนตร์ 1
0.7 1
181 1
1831 0.29037098307469145
214 0.9680589794024188
216 1
Core 0.804250803529902
Hydro@@ 0.4705087284919852
Indian 0.05016244933165918
Kat@@ 0.10150911915649773
Leg@@ 0.14151598944237173
Sir 0.07697172160724812
Studies 0.18061136943476958
Water 0.20927034707702674
Yes 1
Ze@@ 0.13757559442085254
bias 0.7008191520992791
case 0.046328725608741
eri@@ 0.1965961005361807
ira 0.10103656394973408
leg 0.21731174200512915
love 0.0926405936806463
sen@@ 0.06402788870015032
sin 0.04427269736623722
sw@@ 0.07037247968057982
tract 1
ysis 0.6642503939745864
203 0.8500001295034237
ING 1
Kal@@ 0.07597587013187053
LC 0.44660583874219373
LP 0.2083449051710325
PW 1
Proc@@ 0.2978062641967283
Revolution 0.14552463761582854
SBS 1
Sky 0.27031852494757186
ace 0.08943039014747897
anda 0.15576840119135366
gu@@ 0.04659008168491112
ken 0.036999581239029654
list 0.052634664578310106
match 0.03277884377380227
oli 0.20928225437278763
ผสม@@ 1
な@@ 1
神@@ 0.20035731199056797
1837 0.2618465759621734
3.4 1
EG@@ 1
Economic 0.29463117944180495
FF@@ 0.4124455881732727
Jones 0.08568104816399098
Uni@@ 0.14506984311185442
Wal@@ 0.06575612889952184
Wh@@ 0.16081354623152327
air@@ 0.06299608925163183
bit@@ 0.13906739417216724
eta 0.07087957616583358
ro 0.09758911655572465
tric 0.3217852256517299
water 0.02959862925917625
ภาพยนต@@ 1
อาช@@ 1
แกะ@@ 1
แหล่งข@@ 1
179 1
191 1
196 1
3.3 1
Action 0.26495082219471844
CE 0.2450856225154485
Championships 0.07616216881446528
Cru@@ 0.2339231412987376
Francis 0.1189477024606809
GN@@ 1
German 0.03219130044259232
Holy 0.20463815173883018
NS@@ 0.27060852722115547
Tent@@ 1
Web@@ 0.31835771660277057
YouTube 0.2059154302690135
ami@@ 0.22483859052324198
bor@@ 0.0669252281869097
cd@@ 1
cle 0.38327807083880444
ear@@ 0.12055467950293275
ius 0.1612246816324395
life 0.01797172504172004
methyl@@ 1
ond@@ 0.11692794469694232
oth 0.16940815896437178
over 0.01052042570037007
pul@@ 0.10624918821841135
sus 0.014765070139442756
take 0.04204990440453191
umb@@ 0.1693960316858261
well 0.012881394967548894
wood 0.05462703490664292
ダ@@ 1
118@@ 0.9593701227620594
1812 0.23614187172434245
182 0.8427486545191739
1845 0.24426817083341335
2,7@@ 1
35,000 1
ATP 0.26740476980873834
Ann@@ 0.14619799136611294
French 0.02994403239655448
Head 0.17970827528195285
Japanese 0.05784874910115119
NT 0.764932711601966
SW@@ 0.40861387570464364
enia 0.5011321656687123
har@@ 0.04783568833500792
like 0.026491687999219284
ota 0.0914800070399724
tar@@ 0.07078088375464414
weight 0.10251644278454215
ទ@@ 1
--- 1
139 0.7581582072715806
149 0.8221091839217489
162 0.8081147373863975
1851 0.22306348711211876
Angel 0.31116292266852374
Bay 0.06593355807573896
Christmas 0.18195839866473537
Dead 0.27588159927929684
Duch@@ 0.29789489011025194
Energy 0.2415294443719002
Fal@@ 0.14836428721238848
Justice 0.12091227168157677
Medicine 0.27945926273332716
NET 1
Nag@@ 0.15803538539918494
Nature 0.3311204040611901
Nissan 0.7951535349789208
Soul 0.39731891967855004
Var@@ 0.143134979046761
WHO 1
Wil@@ 0.07645607104809234
lab@@ 0.13255426371570483
ney 0.08752661218885778
ประชาธิ@@ 1
ปไต@@ 1
武@@ 0.19717214371505012
2023 0.6513081282497323
480 0.8489008443995649
Actress 0.6519388869243206
CDC 1
CIA 0.4147068615060062
GA 0.4077267778950667
MR 0.6948843627288319
Nam@@ 0.20270030146700863
Never 0.5158767024650914
OF 1
Ob@@ 0.17768871415865414
ff@@ 0.0564264857716859
hum@@ 0.126980109925971
ord@@ 0.08231788942172151
search 0.19840826840251677
ural 0.40496419144403
var 0.29137273669198904
zone 0.07589361582958719
‎ 1
161 0.8323356304212239
1791 0.40916405785452387
1856 0.20059776498805046
251 1
Convention 0.2185785991326888
Em@@ 0.07708918604483901
May 0.017840309544009482
NT@@ 0.4487750203269936
Rainbow 0.8027266453675729
VI 0.13080471169210156
complex 0.10202836783022305
eous 0.2762997637153699
ey@@ 0.09818345070744419
parentid 1
solid 0.3241581947393991
trac@@ 0.12437793312314492
war@@ 0.04615476435829182
−@@ 1
1824 0.31006276486311324
304 1
375 0.9666432537525298
70,000 1
Ben 0.12892914777801745
CU 0.8550898890158852
Express 0.191842556768655
Grammy 0.30812791939747786
Hom@@ 0.11856042383929537
Mobile 0.3562041234046307
Search 0.9010473896444388
Sen@@ 0.11387846065919086
Tom@@ 0.13242049067218906
eri 0.11548428022658558
eter 0.10831824910194757
inus 0.21849661350344976
ket@@ 0.2576703866713244
ku 0.29981485293206755
mus@@ 0.0968186933308964
national 0.02319794797181522
room 0.0682533521377607
second 0.013220582473706216
video 0.04155155678489325
vir@@ 0.13406933016552738
which 0.0033808979837504647
115@@ 0.7101037654101846
169 0.9029242101529514
21,@@ 0.5370313360698588
After 0.014754328766721177
Come 0.5082714975002477
Ir@@ 0.10895403945703853
Lab@@ 0.20754804249233835
Lim@@ 0.15753179511456505
Right 0.4250869805723293
Tran@@ 0.1650900761035607
Tro@@ 0.09979864139030864
Will 0.2249753152394347
bot@@ 0.125164311652841
ects 0.09309524546376223
ner@@ 0.08694085330680199
power 0.037149751244110914
star 0.08973051725880275
}@@ 1
ñ 1
金@@ 0.09081970651406185
，@@ 1
1821 0.26989031785394957
1852 0.21951547156282863
215 0.8123036017607167
28.@@ 0.46277410477457837
370 0.8351127284690235
Comp@@ 0.22791246804377943
JR 0.49842182774675975
Lor@@ 0.13982737214775523
Mand@@ 0.13193278976827283
New@@ 0.14747055754902919
YO@@ 1
aff@@ 0.07801464983324592
ali 0.1002524018224717
analysis 0.14114428483861965
aster 0.27627143742633103
ching 0.09761952074958517
enti@@ 0.05134927366074262
ff 0.09288724938893207
ham 0.10214490785005535
ichi 0.2932653723238386
lidae 0.8021833886315011
membrane 0.5416825080691856
oon 0.17866136459119106
ush@@ 0.17351658439994472
ø 0.7126018960622637
カ@@ 1
177 0.8865058574505364
Area 0.1597673699513252
COVI@@ 1
Challenge 0.2440402338797766
Champions 0.18090216561938655
Dro@@ 0.19279377414622434
Joe 0.10029403101334583
Most 0.07730704862013126
Red@@ 0.08794793162901149
atidae 1
ectus 1
free 0.054248045016437346
house 0.0286405652256553
lar@@ 0.07942989041288782
lev 1
lis 0.11144231313822775
mit@@ 0.064504135484712
public 0.02159682083262694
uk 0.1754658334492452
พระบาทสมเด็จพระมงกุ@@ 1
แอต@@ 1
朝@@ 0.43797601507794537
3.7 1
Brass@@ 1
Century 0.28730802315925613
Fantasy 0.4530940926566811
Fer@@ 0.0999348438443924
Full 0.5385701138019684
MB 0.5510382391761847
PP 0.45266201261086786
Press 0.13481019184284754
SD@@ 0.40010385277925853
Santa 0.05067515020039134
Side 0.32301520494219743
ago 0.10149261472215694
bic@@ 0.245966267594647
iro 0.11883723573540492
polar 0.5958529121462406
ser 0.023073291074243732
ub@@ 0.1116897297064137
ume 0.14873344070511468
where 0.01002944115301566
yst@@ 0.22107268016388434
25,@@ 0.5046925941126824
29.@@ 0.48859083688311
Arthur 0.09818864690273672
DR 0.3010739343994944
DV@@ 0.5157478965799491
Far@@ 0.08535627150087885
Hospital 0.09736332920236368
Oh 0.5214702678685486
SO 0.6403469238225041
Sem@@ 0.13544304661917897
Square 0.16756672444291484
alm@@ 0.1164723137330295
dy@@ 0.2415866914724634
ori@@ 0.0839772295099423
our@@ 0.09513502955774968
then 0.011263953535071331
tw@@ 0.0661201352188451
wan 0.19290767029212288
นแรง 1
ศึกษาธิการ 1
1828 0.28708694192292067
194 1
209 0.9327882062340841
AV@@ 0.4116835471748302
Doctor 0.1684002299697868
Future 0.33631734547763803
Mis@@ 0.15431261509309246
Nan@@ 0.2690442282986715
PG 0.6129563484870966
RN@@ 0.5222423271972155
Sak@@ 0.18622140123540518
Sin@@ 0.1281460587607153
Stephen 0.13001480420567102
aden@@ 0.3728499900482452
ential 0.2325520867030842
fac@@ 0.10533552997837992
ny@@ 0.15177875882583916
oa 0.1508016060951736
ost 0.1280141984111907
post@@ 0.08913492138617134
rot@@ 0.09312385762250641
ī@@ 0.2229212361877897
สนะ 1
ฬิกา 1
国@@ 0.1592966525720747
明@@ 0.15325257054343028
2,5@@ 1
36,@@ 0.7233723749602644
410 0.9666316184403804
Country 0.14363606964111625
Dev@@ 0.11399069287826329
FO@@ 0.457589949319665
IX 0.2040862117959239
Jazz 0.16866706550520438
Pa@@ 0.13321252016467833
Room 0.4257852892091779
Sing@@ 0.25379812231946525
ger@@ 0.044419881567222125
into 0.007982115584820863
ker@@ 0.09667010238028648
mod@@ 0.10245206517991907
not@@ 0.06661871060349658
pur@@ 0.07249108251922257
were 0.002914536591557032
จรา@@ 1
วัตถ@@ 1
Elizabeth 0.10236621789550522
Face 0.48228490984345634
GE 0.49046605532261567
Ham@@ 0.11528639248238436
Tim@@ 0.15065162607772745
Under@@ 0.29040955594415274
amp@@ 0.08445482191132746
astr@@ 0.14658072869541516
esti@@ 0.12295955662088447
ith 0.15490825784144616
lat@@ 0.088496399538031
ow 0.07437192130962339
จรร@@ 1
西@@ 0.061008840741768405
171 0.8577091277655684
174 0.888728312766447
305 0.8813326062090712
Bat@@ 0.09841384367183074
Der@@ 0.12859554134480547
GS 0.4552328144742279
March 0.017364150263507384
Raj@@ 0.1532688561420674
Return 0.5095854996684257
She@@ 0.16426734738023013
UR@@ 0.5445766044645511
Wor@@ 0.1413158508355825
ford 0.043200177093615344
has@@ 0.1687647604771054
ich 0.05323826293782061
mu@@ 0.06673422530613791
people 0.015238110072033167
virus 0.20939427086202905
yi 0.17378497570900792
ã 0.7771178869943491
11,000 1
1300 0.495554725742313
26,@@ 0.5159461991318961
67@@ 0.5590043648925862
Ak@@ 0.07198192624411628
Albums 0.24549873281430473
Ay@@ 0.12654087784186427
Disney 0.13466972249311832
Ky@@ 0.20846306508483384
MO 0.6952018391938838
Marie 0.0628554554122149
Medi@@ 0.14453466202932264
Mind 0.5809734917608154
Point 0.12682087583872048
Ri@@ 0.06525712768265757
Songs 0.18078175073670902
Town 0.0822053877950797
XX 0.11543287128828833
html 1
major 0.02772002154398146
prop@@ 0.11520643475610183
sal@@ 0.05349366172978729
พฤษภา@@ 1
78@@ 0.6472967419672225
Anatom@@ 0.8239286273550085
Her 0.05139252842485764
Neur@@ 0.31062859645599517
Only 0.18117739450959794
PR 0.3027156830549837
Peace 0.24180092616811386
Prize 0.15144221314982817
Rap@@ 0.20571861728476545
Sk@@ 0.08733904063546888
az 0.08546473097217278
cho@@ 0.11618530104571079
ci 0.045298254906567484
cos@@ 0.15090558861080478
ever 0.04595375961016971
inf@@ 0.058935689824991346
itz 0.0639209252587639
ose 0.11328840915725535
rate 0.07652968623055073
ties 0.04348929519151767
ville 0.01858648332868053
we 0.04362535074628297
คที@@ 1
อย่างใด 1
マ@@ 1
1853 0.21011124734692585
239 1
Arch@@ 0.16336578425835535
CR 0.32908008042155973
Daniel 0.07540031891773963
Fu@@ 0.1761738852610132
His 0.019110130015489536
Intel 0.5351572296964184
Mem@@ 0.18679470421434707
ass 0.10064253568310036
hor@@ 0.07683645438739652
hydr@@ 0.2391719400369323
olo@@ 0.20823716686929092
oscop@@ 0.4361294908208928
oto 0.14629015390936434
oxid@@ 0.429085891181064
rock 0.046024329253459624
yan@@ 0.19324840860399653
ซึม@@ 1
វ@@ 1
ん@@ 1
176 0.8078948330139273
1832 0.24453392026364087
1841 0.239494777882641
Bab@@ 0.1540792958301882
DP 0.23613840495451954
Frank 0.07656547378062803
Hell 0.43938113355374964
Karl 0.0662305102947579
Pictures 0.2429454095071759
ROH 1
Take 0.5113244992646868
Triple 0.35126285272423957
allo@@ 0.30810163374577926
ani@@ 0.10439768695452363
ep 0.167757043989622
factory 0.1785350358911532
hr@@ 0.10381253457077157
kg 0.12153723242284575
mes@@ 0.12479465538571942
orum 0.2374599361645177
potential 0.12134511666323644
ulus 0.3273050511422203
unc@@ 0.17455681825719044
xy@@ 0.5861615589490946
ยยศ 1
ลใจ 1
ド@@ 1
306 1
460 0.9602143015236828
@ 0.6368375433450671
Bac@@ 0.2760913382691214
Fut@@ 0.2549618991158723
Gener@@ 0.14912760604294853
Kas@@ 0.09736939221202036
Les 0.009812949952344593
Pit@@ 0.23054690482917117
Place 0.19233756337931976
apo@@ 0.09700725006147404
bar 0.05339621957262743
ila 0.10506089610559843
inger 0.06366521955485054
ku@@ 0.1290970761990852
pyr@@ 0.3706165678855874
sky 0.08628104737719176
surface 0.06838526476457198
war 0.004164598331483779
± 0.6308255557633619
กาศ@@ 1
มาเล@@ 1
วอลเล@@ 1
か@@ 1
ジ@@ 1
이@@ 1
243 1
Eur@@ 0.14391611386987185
Middle 0.11090941362219318
More 0.15185227017123004
PCR 1
Screen 0.7271988560589483
Singer 0.5712146924189204
ello 0.07043195856794433
fa 0.22561609793308668
sens@@ 0.19796736093998918
sor@@ 0.07470106732192648
stere@@ 0.5772258214514164
sum@@ 0.07859329555632402
wave 0.20312709747341604
レ@@ 1
159 0.7971602314955791
211 0.7624018042936966
217 0.8652351176313109
308 1
Blind 0.8858638606146637
CCD 1
Child 0.3368368589654315
Fe 0.3028002403384277
Fel@@ 0.13788738285028146
GC 0.5449668936570172
Ji@@ 0.2713656521708843
Mode 0.6029998305108694
Natural 0.22377193244919552
ONE 1
Pul@@ 0.18048816016387303
Shar@@ 0.1561035906636912
Tree 0.44827577591564627
Wild 0.2474171376172987
Years 0.31021624221277927
dor@@ 0.09485511331233994
iTunes 0.5245465592588593
map 0.22593223006466678
media 0.045441949040160794
pen@@ 0.0694668132605152
superior 0.149981419909447
ใส@@ 1
1803 0.28010975243547626
1847 0.21152261298667574
Black@@ 0.17241264576032467
Fashion 0.7246858964673059
Ju@@ 0.11957797478625264
Kir@@ 0.10705090850370351
NO 0.864219124071858
Our 0.23697013572460693
Production 0.14180169732875175
Youth 0.17275977916147864
ack@@ 0.09439632258588052
bus 0.07893410736127336
cha 0.06790298647957146
hal@@ 0.06585706656661354
iko 0.18582038910053816
oni 0.10115067470998254
other@@ 0.20477728182145763
radi@@ 0.11689647936671493
ush 0.19659072289955956
平@@ 0.1488558107653082
新@@ 0.06946756090568901
1808 0.29058446768817847
1825 0.2643055540889047
2300 1
4,0@@ 1
Department 0.051057533972714265
Fil@@ 0.11230647015058588
GP@@ 0.4285825936365545
Pun@@ 0.2782326503037216
Visual 0.5932108033353881
ein@@ 0.01904985016593191
method 0.12900409007440375
raj@@ 1
rowspan 1
บัม 1
‎@@ 1
′ 0.49157543045369606
1805 0.31984376451333196
1835 0.22701940437827495
246 1
Angeles 0.05413016016905805
Cathedral 0.23587023553053407
Dic@@ 0.29260482718237313
Eastern 0.08663914634903813
Ranking 1
Short 0.3455865301159975
agonal 0.6279356089817218
ero 0.045576794465129446
fo@@ 0.06378401137848337
iri 0.18614393425823597
ister@@ 0.1925589450705543
over@@ 0.03556793866863506
pes 0.12454434391196047
stone 0.06131402859490135
tel@@ 0.057837963406677434
จัย 1
ฟริ@@ 1
ลเลียม 1
43@@ 0.4290933622168294
5000 0.2519149172558563
AST 1
Gi@@ 0.07060042504565944
Know 0.6105090055797157
Pic@@ 0.1471936643997294
Pierre 0.05170192868724278
Radi@@ 0.16008218813490058
Rain 0.663521679924848
VII 0.15704923477901062
ace@@ 0.1904027112373825
cher 0.05558178117004032
hypo@@ 0.6015459543832088
iti@@ 0.06991394344611129
lin 0.07464580013032364
mati@@ 0.21044481805296053
mon 0.2040264331363712
pa@@ 0.13905414263523763
sem@@ 0.11402714280306848
yro@@ 0.5397148549290641
จอมมารดา 1
หลีก@@ 1
ក@@ 1
州@@ 0.31072257327267605
186 0.8568145743215559
187 0.8747565626419995
207 0.8382586930360824
223 0.9778327268116336
AO@@ 0.6638508170810172
Am 0.022429769067981994
Broadcasting 0.28627697380936934
FIFA 0.16620814672253714
Friends 0.3353593450441389
Machine 0.3510733318607923
Motor 0.16974299909124999
Tw@@ 0.22274179159006224
ades 0.0563716762752806
bal@@ 0.053463107465412135
chin@@ 0.266148419830851
cognitive 0.6909277431178694
dem@@ 0.05444293007153046
eria 0.2536121673841511
etta 0.13263097466284673
gene 0.17781918255281953
print 0.18033646871385758
ven@@ 0.059504050506935406
yrus 0.8707656965495558
ราธิ@@ 1
ฬา 1
14,000 1
1799 0.35228754937718426
295 1
323 1
4.1 1
Acanth@@ 1
Ali 0.10886113416609784
Conference 0.08179131003463722
Field 0.11571020693310423
Food 0.2915930969597904
Hen@@ 0.12841913926198664
Idol 0.7881614783420878
Phot@@ 0.2604706299862909
Sav@@ 0.11565847805074654
Sec@@ 0.13889639159959447
Stop 0.6372763035680469
Works 0.16436820497520402
Xi@@ 0.24601444737179448
agin@@ 0.5903488163012778
ban@@ 0.07638293217466809
idi@@ 0.1311972353575632
vin@@ 0.10066280049264886
vo@@ 0.09944150043964274
work 0.013270332394889797
your 0.1856145095735992
าคม 1
一@@ 0.03378599519297469
城@@ 0.20251870338649533
安@@ 0.09046384163309526
1660 0.5893229598223518
1826 0.27036502994412415
Animation 0.6367237541244295
Astr@@ 0.2148996705201675
Bell 0.15105400244813738
By 0.035636500153335374
Call 0.4057836320967632
Castle 0.11677002071179833
Director 0.09128367917436883
Got 0.5783370373090476
Kevin 0.16282287935631087
Protocol 1
RIAA 1
SU@@ 0.6174280040135743
Sony 0.22364678996064
Southern 0.07487144242943788
Spring 0.22554057512522133
but 0.004809711123976258
cre@@ 0.04230666072766049
fication 0.12887690645583127
her 0.004752617958972968
ici@@ 0.08248602898968659
minor 0.10467920887041296
ple@@ 0.07553614350577109
uri 0.16391410034054443
μ 0.402560099787599
ာ@@ 1
☆ 1
し@@ 1
江@@ 0.18810360959750738
1844 0.2200933795416749
30.@@ 0.4582798745189252
49@@ 0.28048856933211486
AW@@ 0.5533354511550667
Blu@@ 0.204938475106807
Board 0.072607115072284
Hz 0.9769097018883881
Jean@@ 1
Johnny 0.17866305645157912
LED 0.7748277556967232
Mul@@ 0.10918202969094519
Pter@@ 0.5891174095798417
SL@@ 0.38393725367240333
dic@@ 0.07047046695081584
dorsal 0.5271660879463818
elec@@ 0.11167038889607799
family 0.013390875256723136
network 0.0721120446167878
ois 0.1382791874640124
ories 0.13248296282717031
pattern 0.2342954064087639
through 0.012342114363804653
เดียวกับ 1
ใหญ@@ 1
164 0.7360157109294574
255 0.8802234228530771
4.3 1
Ai 0.5547839972052682
Bec@@ 0.2669191230714746
Dan@@ 0.1277287421879572
Freedom 0.2622208838295743
Gate 0.37250056765490847
Here 0.21482202127589933
Luc@@ 0.12351684218438536
Name 0.06273138833149879
Rhin@@ 0.5627111391119418
Van@@ 0.2314371583777408
ages 0.028004248179976547
aku 0.42755905419453705
ck 0.09473463137113927
eon 0.26230709448496614
itation 0.1345986592904661
lo 0.011546464578900137
rol@@ 0.27784996552925784
social 0.03228673235534077
tube 0.3216620550617195
ui 0.17397880621140188
ชื่น@@ 1
เหรียญ@@ 1
オ@@ 1
之@@ 0.06321591432041929
海@@ 0.07881698941317594
16,000 1
1648 0.615494091214091
1813 0.24450364186710724
Bay@@ 0.1145776878601259
CJ 1
Cast@@ 0.2702696445305422
Classification 0.6494068982191478
Make 0.5978289308955914
arg@@ 0.10937166144780151
att@@ 0.055156771660204267
ce@@ 0.09350476059741389
dys@@ 0.556231639778386
gal@@ 0.09748057705279993
ometr@@ 0.7863012803880375
ough 0.12279497522666291
phosph@@ 0.3119475127484389
trop@@ 0.1939412942125886
ule 0.10753317734052302
ute 0.10106828231237336
ə 1
ดารา@@ 1
ロ@@ 1
06.@@ 1
1400 0.48325676094798403
501 0.7845515379299207
950 0.9167717164123488
AG 0.10636948219118465
ATC 1
African 0.05048054790328686
Bachelor 0.18822841204191693
Bus@@ 0.10143838940748919
CV 0.4859097705924591
Change 0.4875044164178302
Common 0.27417482951277183
MT 0.573130731734042
Romance 0.8203961472595116
cip@@ 0.33366084097998167
ew@@ 0.07800801081476591
face 0.038870043130736324
ike 0.1411416061990667
mot@@ 0.0730832287708422
mp@@ 0.1727511461785415
pres@@ 0.047806360915483535
rd 0.2443550486120407
ł 0.7451946060825978
พรา@@ 1
ウ@@ 1
1822 0.2785573842178511
227 0.9660143003317665
29,@@ 0.5448396509723645
302 0.9570725644423124
57@@ 0.4395640863531889
ARA 1
Chicago 0.04777515548612044
Dynasty 0.4915733819884901
Flo@@ 0.2358200262479079
Gol@@ 0.10218201403775763
MBC 1
Sky@@ 0.27911028221754247
Sus@@ 0.15558120780191126
aw 0.20963993686571708
eck 0.0843093001088959
long@@ 0.17575091860871986
lum 0.16483223862388544
ones 0.03533928256911336
pel@@ 0.07579230341375326
sol@@ 0.04849014526118549
tho@@ 0.21581528042629247
yn 0.1181060973708047
มพู@@ 1
รัมย์ 1
เจร@@ 1
1080 1
1649 0.9168378520552339
1842 0.21191693704716993
24,@@ 0.43085286787421484
252 0.999252209289456
290 0.7489924559937668
37,@@ 0.738246926380828
56@@ 0.45346599663305637
660 1
Access 0.49182366330455135
Classic 0.23247116277608734
Congress 0.07744740423969274
ESPN 0.5019732288600189
Heroes 0.6011978141720551
JT@@ 1
Ren@@ 0.08432818769301086
Rom@@ 0.08397080755736576
Washington 0.0345657636343043
ave 0.13363617081845666
change 0.05061880248871943
emb@@ 0.058217954785394196
estr@@ 0.07533462487769135
ev 0.10440446591938957
fer 0.04430021861984163
lower 0.0612852855414216
osus 0.5541002474931267
ph 0.3370345518908547
sey 0.09711225977111164
two 0.005188461113656741
white 0.04724637768650829
xi 0.2522137702557589
การี 1
บัติ@@ 1
อัฟ@@ 1
เรื่อย@@ 1
ត@@ 1
ャ@@ 1
1603 0.8149291370611106
1707 0.7815723308119262
2024 0.8578626123706133
249 1
27,@@ 0.46069062081822265
3,5@@ 1
3.8 1
307 1
4.6 1
58@@ 0.47006356499799473
AV 0.4354252300544717
Actor 0.4582236686848828
BL@@ 0.7260127740390103
Deep 0.3483912517592577
Equ@@ 0.2931915606053312
Eric 0.13900947194739643
Forest 0.1248610313822998
Korean 0.1266142512056415
Number 0.4633907218427851
Plan@@ 0.11075105384364108
Platform 1
Pri@@ 0.11754379182401159
Sex@@ 0.23982436636431187
Tal@@ 0.09100101471007131
Van 0.07928852128566694
Virgin 0.2557717515959962
Wo@@ 0.1656052934904772
boy 0.12078353979943479
conver@@ 0.1369026438158058
ech 0.14314836748761736
ellidae 1
gl@@ 0.06620584080098606
int 0.19149022333064394
les@@ 0.08504767729913208
link 0.19000120487254474
ll 0.7742388152530549
phase 0.07900053896603965
phosphate 0.767041641567424
py@@ 0.24188039435191758
tre@@ 0.0622386069352652
verse 0.11528951303913428
zu 0.0036738905457056317
ǎ 1
道@@ 0.28762337452453557
高@@ 0.06428274341676522
1783 0.38644234791570514
18,000 1
1836 0.20946393120737122
1846 0.19187783872111613
1855 0.17081881169017893
5.1 0.8976101860082997
720 1
Albert 0.07339485083283223
Gang@@ 0.2811939722676921
Hon@@ 0.11546196037945415
INE 0.6874046572990438
Player 0.19737400489516496
Rid@@ 0.17073404790185492
See 0.09738765004082897
She 0.010429555331246265
Silver 0.19991029726829368
Sword 1
Zero 0.44476337185463816
basal 0.7178571760207554
cel@@ 0.08261355754580006
his 0.0018384940076575105
ier 0.04833209640134967
ison 0.10777920480735136
level 0.033959813501922
nom@@ 0.10558580538054872
port 0.04352841993979118
ron@@ 0.204581718855651
size 0.05709424378562112
try 0.08818399024363158
รนด์ 1
ลอส@@ 1
13,000 1
197 0.843848209937764
28,@@ 0.49059345241791674
Crazy 0.6707645962806335
Ele@@ 0.3112212457443733
Ga@@ 0.15969938499172825
Han 0.2044996056073607
Lev@@ 0.14847674071779352
Long@@ 0.1402602107526689
Rob@@ 0.12479246341850996
SL 0.3803738209866086
Security 0.15695488814758052
bin 0.11057211478154019
ble@@ 0.16926726139148707
ett 0.058004951474449715
fied 0.08109231346672341
ih@@ 0.11015313469005655
kar@@ 0.06997351044678368
min 0.1318578995860391
pot@@ 0.07916251361478327
sea 0.05104493517997129
tica 0.07594058558285462
wrestler 0.5814384213220175
วัค@@ 1
วิศว@@ 1
แลก@@ 1
劉@@ 0.2784773622495886
왕@@ 1
188 0.724560927437304
198 0.8239489017297935
333 0.9451775275963791
440 0.7436561986077952
53@@ 0.46658440238308546
59@@ 0.4795508846555583
Andrew 0.09755896365930786
Bowl 0.14799553561876816
DD 0.581151344878658
DI@@ 0.48591908766658054
Drama 0.2824353261170011
Ep@@ 0.17083816541840185
Ker@@ 0.09178695751717568
NJ@@ 0.977323643248886
Nine 0.37014366017487604
Run 0.2795057808393035
UI 0.7475911766558411
XIII 0.18558504626194572
anc@@ 0.08276157233780015
board 0.04879749951193272
centr@@ 0.08593103654565216
eling 0.22046733652119135
football 0.02027891812409999
mark 0.09677194334705787
phon@@ 0.19623015539802718
root 0.35968647846670193
verte@@ 0.7509022765745944
ylo@@ 0.44924473428383555
မ@@ 1
バ@@ 1
275 0.717521178436213
285 0.9322078604258515
911 0.9038377680032962
AJ 1
Adam 0.10757371341660132
Cat 0.43914393077032376
Count 0.2687446084110563
Edge 0.43006348278851014
IL 0.2995498463083945
Ji 0.6441692797124701
Mini 0.5454517512023133
Monster 0.5479826094390201
RPG 0.9719583736772379
Rat@@ 0.1719821769121722
Spe@@ 0.11752962828964132
UL@@ 0.6638621704830757
Up@@ 0.20774545414419668
Vit@@ 0.16016615979273258
Wa@@ 0.12750636787277775
Wonder 0.5410386874987448
chrom@@ 0.22658563529564618
mail 0.2734570639693664
ment@@ 0.0891099794746845
ocar@@ 0.4838832443996945
plas@@ 0.2280620549311777
school 0.014173011664031879
sk 0.11856463311806148
ves 0.03902860390040709
กองทัพ@@ 1
ฝรั@@ 1
ราชภั@@ 1
สุพรรณ@@ 1
เวียง@@ 1
1804 0.2909102978655178
234 0.9167965193239989
3,9@@ 1
5.0 1
5.7 1
6.3 1
Administration 0.12264977083204888
Advanced 0.34136704974318377
Earl 0.13041791947522013
Ghost 0.46783410882699855
IW@@ 0.7309300235193886
PN 0.7646090664461699
Pop@@ 0.1635787334858153
Py@@ 0.2336661991772653
SH 0.44145868338220656
Tiger 0.33847352247432183
ag 0.12681649086803382
any 0.018179684046393165
cm 0.05658183492394197
def 1
eki 0.5487027042679012
inum 0.8738722653567826
isi@@ 0.06371701714213726
oil 0.09284870051468634
ort 0.09636270764440275
primary 0.06197501273777083
sam@@ 0.14162908564558552
sti@@ 0.06886753640795816
tle 0.1296226625477328
top@@ 0.16663831327170073
vesti@@ 0.420431550473358
ò 0.34795618633951114
1701 0.752132487875584
1796 0.3176372282284368
1802 0.27606333617922363
1810 0.22555448023776017
218 0.7733872619829287
AU 0.40514285979703973
Away 0.5538866039857694
Din@@ 0.14902040027392705
EV@@ 0.746740755959046
Fi 0.566842185235693
Ful@@ 0.2313345662136691
HBO 0.4998407411574632
HS 0.383385245525143
Hybrid 1
Si 0.08404898890158805
Slam 0.39774820482533335
Ten@@ 0.1450929481558907
Tu@@ 0.10585766952079693
UC@@ 0.3507043767498559
UR 0.5910569990426244
WW@@ 0.42893523125520805
Western 0.04210693988925817
asa 0.12157305996586024
ater 0.11441808443138089
ector 0.21641551859218822
eum 0.24903197614054653
flow 0.14520413292590112
illus 0.6450995623426764
itis 0.35355238919187604
matrix 0.3968675463621332
oi 0.18429367354062953
trace 0.43028959756423846
uki 0.3193092714134621
usa 0.11855725931970054
val@@ 0.06364734709460276
visual 0.17335227537637618
yth@@ 0.36926116259484465
zen 0.07036462523349586
ฝ 1
ยภาพ 1
ลี้@@ 1
1794 0.2831820210311972
264 0.8490955241024429
286 0.9987641246536044
30,@@ 0.5774187235664779
34,@@ 0.6109515642624427
HD@@ 0.6509713690422104
Hollywood 0.11469691808650181
Khan 0.1164968496635836
Lat@@ 0.11064175258177097
Ocean 0.15956820612950637
Shu@@ 0.25315785064968926
TE 0.3886889653864223
Wang 0.22688856407443714
Whe@@ 0.21927471859691308
alia 0.16206033393129424
aling 0.11526735299266487
back@@ 0.12342220553856699
burg@@ 0.3340025626854487
ean 0.13045833861991643
fus@@ 0.14569347776239652
nh@@ 0.06061095885880074
tim@@ 0.06906301219052259
กำกวม 1
อีย@@ 1
「@@ 1
245 0.8386600896683357
Aer@@ 0.20864265821263545
CEO 0.1664568955685042
CG 0.48488149038202694
Cir@@ 0.17963380493226025
Cle@@ 0.21494976763496762
Collection 0.25992745198928296
DJ 0.16397903350609574
Fair@@ 0.15082481848413015
IUPAC 1
Wu 0.311557556681717
aer@@ 0.16726815964014713
cycle 0.10703989116991933
iPhone 0.698718947312725
oli@@ 0.2035816199216713
out@@ 0.03549507034051555
สวี@@ 1
グ@@ 1
1843 0.20494651830576022
228 0.869661708346015
244 0.9680126989563757
253 0.9559268148856462
Amp@@ 0.36937084752200544
Bon@@ 0.08689971947948572
Dom@@ 0.07547337359912441
Drive 0.24152829332613313
Gam@@ 0.2205217843928152
Hat@@ 0.17320735248253075
Hit@@ 0.2380310537451633
Kin@@ 0.10812266558084768
LG@@ 0.5924923109415223
Ok@@ 0.1607593089478027
Ra@@ 0.10923834655436303
Six@@ 0.2577005912944224
Software 0.2219969306868974
Theory 0.47542782354317537
ats 0.03448544167189826
ature 0.1523706838569762
dian 0.32555536229465626
ith@@ 0.21759544299274494
mal 0.05769672974714915
meth@@ 0.40653417066357816
mol 0.7772421214992841
posterior 0.24178654170023856
ying 0.04892926093517466
ˈ 1
ເ@@ 1
日@@ 0.07333318924414609
07.@@ 1
1650 0.5676151517379603
1798 0.2792328162174385
1817 0.2568345812154754
232 0.7575480854513298
247 1
640 0.8846511382042347
AY 1
Ass@@ 0.20231461895253106
CBS 0.17242938900066276
Don@@ 0.08184099784893371
Dynam@@ 0.3619442190818533
Hir@@ 0.12883481162442117
ICE 0.7649349900423011
Jan 0.11840581622767932
Jur@@ 0.11951235781525583
Key 0.28149750457722633
Ki@@ 0.10295663548511053
Library 0.10166946735290305
McMahon 0.7974948313409033
Mike 0.08707284246028109
Off 0.3264723385008827
Popular 0.20527587708397255
Prim@@ 0.14482821194472761
Wonder@@ 0.5613083167186497
aea 0.3880354686879107
aga 0.0959000731945215
core 0.12617628743248907
enz@@ 0.05214770558500561
ho 0.1778908742432977
immun@@ 0.3051128878191749
reg@@ 0.03443701482173168
sy 0.20687127405329075
tem@@ 0.1177483673731599
uli@@ 0.10927209576726996
who 0.004259275347432901
โยธ@@ 1
ガ@@ 1
226 0.8749056353623669
241 0.8880111642879359
258 1
36.@@ 0.644633205478749
4.8 1
Federal 0.07733984181408714
Fur@@ 0.1882958810480742
Hunter 0.21495975140372217
Mars 0.20651400152652324
Mod@@ 0.15753728792599375
Orchestra 0.15421936450396065
PV 0.8966604886696681
Prunus 1
Rot@@ 0.0933279300463553
Sha@@ 0.2301851842322117
Speed 0.4460327215360066
Subaru 1
Swe@@ 0.2759382752661041
Tony 0.10390979197371762
Warner 0.16806088273715739
aro 0.1144658138336876
emp@@ 0.07782834169491147
ground 0.05177046001817076
ized 0.08480528249940547
ots 0.0644535561726131
show 0.02128342284949333
sil@@ 0.08109754539369184
ณะ@@ 1
มแดน 1
ยาย@@ 1
た@@ 1
タ@@ 1
光@@ 0.13907645016771206
4.4 1
68@@ 0.3790696051855454
76@@ 0.4795564919679519
88@@ 0.5034472677291346
Africa 0.04736196587265753
BN 0.6240503725625525
Ball@@ 0.10822323863454486
Capital 0.17519424529286678
Civil 0.07085536057723192
Cul@@ 0.12329220827737843
Culture 0.13412536387590612
EM 0.30302713956702737
Fall 0.11349895180294134
Front 0.1270987198355244
Gir@@ 0.12995909091856672
HV@@ 1
Ice 0.2286177172907313
MR@@ 0.6459029558133661
Mission 0.14643248223252392
Mnet 1
Nic@@ 0.1503195678568721
Post 0.07677935024609346
Rev@@ 0.12576433682384636
Rights 0.17179612202313407
Ry@@ 0.14947279033149508
WA 0.3279520384991516
WS 0.6402220570276108
bular 0.8834909571379441
da@@ 0.1844236773151195
eu@@ 0.12359378564835836
glu@@ 0.5486323469431502
macro@@ 0.4646949795101837
off@@ 0.05648928569137419
sal 0.1448471713996657
ste@@ 0.038538568900502966
upper 0.10020723097526991
≤ 1
漢@@ 0.28449094117030815
대@@ 1
1100 0.47728639595482475
1776 0.3556011460787069
1807 0.26074498677596786
1834 0.20087381413169858
3,7@@ 1
32,@@ 0.7017496034641824
325 0.7774704813169419
Bit@@ 0.20547222269633117
Carl 0.07460427681067686
Choice 0.4270952427672703
Electronic 0.4413560856311129
Forward 0.8681771613029312
He 0.0027689282279086042
IE@@ 0.3991232445908597
IVE 1
Jan@@ 0.09674039010807754
Jim 0.10114997477312723
MB@@ 0.6987060958982815
Plus 0.1430120967302575
SQL 0.8737712937626524
Tam@@ 0.10989962363374908
Wind 0.2749350090295507
aim@@ 0.2679659707574237
ava 0.10702237283841848
dro@@ 0.0876379469264543
ental 0.09275942948208411
han 0.03497939047071213
has 0.00331270168998065
ize 0.12331694045827896
lers 0.05086994774837312
max 0.46912552201518054
opus 0.31785289200937483
revision 0.7797540375231845
tam@@ 0.1297068149535366
vers 0.022651257000390487
word 0.0700227143851341
ǐ 1
ฃ 1
ฦ@@ 1
สุล@@ 1
ົ@@ 1
地@@ 0.08776771442097196
女@@ 0.17971619867134436
1066 1
2.9 0.8976286077093666
224 0.7796288995539514
520 0.8728248299011168
At 0.016131254970701014
DL@@ 0.688389013245528
Democratic 0.07232467145675668
FDA 0.675800475453615
Fly 0.6225869537473456
Hand@@ 0.08552949561499297
ML@@ 0.3232561611803815
PE 0.5422945059973762
Supreme 0.10221713999169951
Under 0.07868693441759919
WG 0.8712794313578196
Where 0.3452302991932341
XML 0.8942374422936028
agne@@ 0.513762100057739
extr@@ 0.09966049936205386
hol@@ 0.05839967006499601
omat@@ 0.9475726743590517
tism 0.5463826307796145
trial 0.08422507806069593
พงศาว@@ 1
ไหม@@ 1
戦@@ 1
237 0.9569153449860777
242 0.8216967425273582
ACT 0.7937442859458756
Australian 0.034937467793256745
Born 0.09894706389516894
CI 0.32723783584227345
Da 0.06277918065553365
Executive 0.15448000035439263
Eyes 0.5311325400874763
Hyper@@ 0.39555194393029497
Mit@@ 0.06792560680565057
Prom@@ 0.17575922117996903
Sap@@ 0.29922416986684164
Shanghai 0.22578482615668918
Thi@@ 0.1303084863863432
also 0.002938617720219268
ben@@ 0.0820152711951149
bi 0.11656206736513602
bin@@ 0.09379767785115145
dol@@ 0.13828586310341442
ix 0.12879125156255722
oral 0.14064175749128174
oshi 0.2641368679523141
pap@@ 0.12425848692797027
table 0.07232146142576197
tag@@ 0.1759108958042211
uz@@ 0.08839343338283631
wh@@ 0.06368506616641072
zi@@ 0.05945145108762087
เฉลิ@@ 1
宋@@ 0.32593263336241485
1809 0.24639726782421228
35,@@ 0.6075683925807728
5.2 1
787 1
85@@ 0.5860872358435643
AZ@@ 1
Bir@@ 0.08526865703068572
Columbia 0.0677128007732004
DM 0.28861261676614336
HF 0.274748902798356
Imag@@ 0.27294343562626017
Ken@@ 0.13994469790015895
Kon@@ 0.04346283560914292
LAN 1
Lion 0.3529745203113181
Record 0.3009963646809099
Scar@@ 0.18989059504544628
Scre@@ 0.48919811685610565
Tru@@ 0.3158942585034456
agent 0.08962901204283001
anna 0.1579498409300797
brain 0.20210459639191042
ert 0.02942112791858867
icism 0.4864177003623956
inidae 1
load 0.1900121727160972
mic@@ 0.23467858032942251
nu@@ 0.11900200341033043
sp 1
stri@@ 0.13435222349902304
งับ 1
สาวร@@ 1
สิงค@@ 1
@@ 1
200@@ 0.18386674970846553
3.9 1
311 0.9656409299503856
625 1
About 0.13687891742588004
Authority 0.19360143393970752
Beach 0.09418747878175708
Bil@@ 0.08844965603236561
Bub@@ 0.44946714877631544
Dre@@ 0.11520106534402798
ET@@ 0.3417525902301798
Evil 0.5293408427421048
Forever 0.5568795525604092
Fro@@ 0.18504495250904704
Hum@@ 0.12196346950054991
ID@@ 0.5358214255618534
Lac@@ 0.1500046321193281
Memorial 0.11052270075735657
PO 0.523675463431818
Picture 0.4414865762612131
Sand@@ 0.07577207519684422
Show@@ 0.39816335222772625
Winter 0.09596545136982679
arr@@ 0.048577236743018525
asis 0.324057841511076
city 0.013868331704191432
etal 0.3944458184975316
gi 0.1902215206376875
graphy 0.15293852979529793
igh@@ 0.08288236357141626
mph 0.39176176482338665
pedia 1
sec@@ 0.061199720925450486
tiv@@ 0.09042746512373179
uma 0.1374862599424633
uv@@ 0.11905472795155966
year 0.007683834755557979
zi 0.12018605872825884
ังก@@ 1
แจ็ก@@ 1
る@@ 1
1640 0.5595714845683157
1838 0.18483440772396767
294 1
4.7 1
54@@ 0.42814273103779454
6.2 1
Australia 0.02591809823812077
Autom@@ 0.18684729326991079
Bak@@ 0.1243833980375732
Community 0.10353259882411818
Diamond 0.3089965582590624
Fac@@ 0.14205679113188469
Higher 0.33046734550728224
IO@@ 0.6661888919368399
Jac@@ 0.14651237905570297
Ox@@ 0.24277116929742326
Perfect 0.6854369275528581
Rus@@ 0.08683750969222813
Simon 0.08394714124038084
Valley 0.05898748747911399
aba 0.02195297522826884
alist 0.0859554689429301
any@@ 0.0910541484291069
dom 0.17294407229626116
epo@@ 0.6173818473623205
ists 0.03794945748498539
lem@@ 0.1268413268034692
nia 0.1814401970952746
nm 0.6109635934389536
orr@@ 0.20509209797203512
pi 0.2713307708180819
ry@@ 0.18127847597259822
sac@@ 0.10560071397710681
scale 0.09505539360599853
zh 0.1780842594454697
ภค@@ 1
มารี 1
รวด@@ 1
້@@ 1
う@@ 1
学@@ 0.19813715993274528
小@@ 0.05993794084297765
0.0@@ 1
0.9 0.8182052502082711
1818 0.21857593772686218
Architecture 0.21778043151766327
Eng@@ 0.11610777562621735
Fair 0.25169545427174594
Florida 0.05228392197227123
HT 1
Has@@ 0.14410017330440425
IBM 0.2507847499974779
IF 0.3042975130874759
Kit@@ 0.13383101494441768
Lam@@ 0.1044762528274414
Link 0.3690063967597736
Mut@@ 0.151710287504707
Neg@@ 0.19497581394123456
Power@@ 0.35875580937626333
Psych@@ 0.2404713023210602
Report 0.27535813951757804
Sir@@ 0.18713239155593686
TH 1
There 0.015957430541406886
Tomorrow 0.7851735638179358
Vel@@ 0.1171855706032422
app@@ 0.08079021048600557
ation@@ 0.12969931788313874
base 0.025361887833856022
cc 0.4164966750091521
dynasty 0.1846968247995706
ging 0.03310091972615902
irus 0.5365520874426716
layer 0.2780278344908307
metabol@@ 0.364222273410219
mission 0.04930449964588571
oly@@ 0.7720378113525488
ple 0.15688649300900576
porting 0.31137554966990677
ses 0.008343018766618238
ski 0.05678080925871165
species 0.018960400924781726
tos 0.06764320075652437
tre 0.06602263786261563
zo 0.0895994209669455
บวน 1
มัธ@@ 1
1819 0.24419517141732583
213 0.7246825970414432
262 0.8055125790191426
74@@ 0.541648755440974
802.@@ 1
Assembly 0.06535611015530782
Beat 0.4449900761485578
Case 0.38756075144935126
Dreams 0.6036154888214789
FE 0.8290717211402316
Giovanni 0.16083034137995475
Gy@@ 0.24591556839788717
Hab@@ 0.12317302646787834
Hun@@ 0.13826984703583814
MA@@ 0.8495265090108829
MAX 1
Masters 0.18299012156618372
Planet 0.3635845757183745
Say 0.5449483575572612
They 0.01407799992433698
Trav@@ 0.19981847565745933
Yu 0.3714518100432562
age@@ 0.18297883621296399
ans@@ 0.057381752530575376
een 0.12724862397120082
entia 0.6955741021499259
gran@@ 0.14176138749699824
iting 0.11171246405062348
med@@ 0.08550760361363684
ox 0.4562465527787958
part 0.007613794435111494
rel@@ 0.03837245915546806
tric@@ 0.16297712142675527
xin 0.3985008057916156
ć 0.11090583314948355
ธาน@@ 1
พราหม@@ 1
€ 0.16925107431377687
河@@ 0.19612233247389585
白@@ 0.11563232693516844
1797 0.2832742165301555
219 0.7769810644428294
272 0.9332892462237835
38.@@ 0.5643296931929873
6.6 1
AAA 0.5333967729218783
ACC 0.5999059576236752
AFC 0.28228667748351494
Alan 0.12234281320356684
Anne 0.0792941815004094
Contest 0.37009104981606056
Flash 0.4124064388728977
KO 0.44301141402089644
Kom@@ 0.0641097420066413
PRO@@ 0.9433138889048598
RF 0.7175996098653051
Store 0.3449925304019512
Ven@@ 0.1139449183320099
View 0.39396149715617296
Walter 0.06829562190707028
aker 0.14905077896054786
ano@@ 0.23619134836930356
ary@@ 0.7334316438040818
ayer 0.35540454222188617
central 0.030912157190898515
ematic 0.4267019459758911
ending 0.06466374637096046
gia 0.036905808643180896
ider 0.10711176322542591
mo 0.09549025366942719
ope 0.15732266945097004
orn 0.155029094385202
pid 0.5059831112757371
position 0.022252293717171478
sexual 0.09173326821741226
study 0.042054859290272
umin@@ 0.3321397784085017
usion 0.2397326307915831
wikitext 1
ปรัช@@ 1
เวณ 1
เหมา@@ 1
ニ@@ 1
276 0.9804300700106559
390 0.8212188621888157
4000 0.32136749003599197
5.6 0.9920443014130379
540 0.8125266983812371
64@@ 0.4252548133978869
Alone 0.9328272456339726
Chemistry 0.5199832920329837
Cour@@ 0.08673388410050809
DA@@ 0.6167243696205155
Enter@@ 0.5471797170672532
Era 0.22831810498219685
Ford 0.08579387871961015
Galaxy 0.38798185870345425
HS@@ 1
Heter@@ 0.5982580533849544
Him@@ 0.28690026570878646
Mot@@ 0.0961683385155507
Official 0.40647091523061374
ROM 0.6238242723680446
SK@@ 0.6226702340826863
Services 0.11332088681163228
Set 0.39436342683588455
Tales 0.39019613005685366
Unit 0.2391397405360053
Vis@@ 0.10875053658643263
XX@@ 0.31246340462073063
ading 0.11943524248408495
amid 0.3500527521966046
arium 0.22142904723736437
asc@@ 0.10401519944036507
ca@@ 0.12868545639566087
don@@ 0.0765775333929683
eal 0.2757754046958298
erg@@ 0.10243787411890501
find 0.06251477844468893
gh@@ 0.10612997816980801
lic@@ 0.13291594606575105
mid@@ 0.09743879043701797
oke 0.1282836591967738
platform 0.09954295404555666
sapiens 1
sia 0.39037018489227915
ฃ@@ 1
ศิลปา@@ 1
家@@ 0.11284161751702187
1833 0.1920391582366904
229 0.8357675873709877
268 0.9422295931250375
278 0.9786286045896581
3,6@@ 1
39,@@ 0.7027514848978988
Alice 0.13941322077723356
Bob 0.08342929184836231
Ca 0.7192076598385203
Cold 0.29033030645112623
Devil 0.3847169426813244
Docum@@ 0.32775601882300154
King@@ 0.20223341238574727
Main 0.08000665029891799
Nation 0.1801640650406343
Neo@@ 1
Oxford 0.0828018991787292
Philip 0.11852199557812075
Russian 0.04065696322673896
Sat@@ 0.13007887631992907
Sle@@ 0.3934751806399668
Vari@@ 0.13149133079679487
Wat@@ 0.18423053355469485
Williams 0.0597587424163914
af 0.1438963996267129
agus 0.5169981354560946
amo@@ 0.16805681374225298
aqu@@ 0.07049096336974585
fu@@ 0.09554535222569976
isti@@ 0.10976893999243338
ogen 0.12855819603046198
oria 0.14317101123372647
round 0.02767016947851085
san@@ 0.06332880468800546
sing@@ 0.1397804375253439
tha 0.16628696401341386
wa@@ 0.10185503560828676
สลาก 1
สโม@@ 1
อัลบ@@ 1
เติบ@@ 1
ប@@ 1
1642 0.6647904483861737
269 0.9791933077202689
Ball 0.19432555686088632
Canada 0.023543532058411025
Deb@@ 0.10764601084589934
Dun@@ 0.09094076937040049
Europe 0.022938877771397758
Facebook 0.2073503907932866
Gil@@ 0.09334227081922576
Mother 0.2706817172782649
Motion 0.4586607449967315
Net 0.4942809143323489
PN@@ 0.2923866756745199
Singh 0.1649024416327573
Talk 0.44423506748276104
Test 0.15075799622599884
Wave 0.4904900274658551
Wit@@ 0.12631574976384718
aging 0.08238173035607349
asure 0.21371007370697034
bs 0.05454865977759198
cells 0.10507205291233984
date 0.03453113747932542
esh@@ 0.11781811174957302
ido 0.03273716793339969
mRNA 1
range 0.04236926583686522
stream 0.11972029494935457
tom 0.35165052989120243
wo@@ 0.07034362198426337
に@@ 1
生@@ 0.1015569769437322
1644 0.6575359357684681
AE 0.47579309851549795
Beg@@ 0.12172367493980138
Bol@@ 0.07625991391995185
Ing@@ 0.09625645297532323
Land@@ 0.03271527646334892
Mic@@ 0.21256203452687264
Morning 0.2720259687055923
Nav@@ 0.1376120783210357
Nu@@ 0.10976919580905757
Pseudo@@ 0.7802466957995604
Sph@@ 0.3344745137013551
Sunday 0.11471483846075346
Tesla 0.9134850302689481
UM@@ 0.5081600724103394
Ye@@ 0.19903657746190556
agon 0.4255908769456962
aus@@ 0.014267973192385042
bil@@ 0.06461970903104074
bo 0.12104803229648999
bro@@ 0.0734674491232897
col 0.3401111250068005
ense 0.07426924262523187
ign@@ 0.06603519027814087
je 0.037805539488645366
onidae 0.6653084707248855
ped@@ 0.1031784616274374
peri@@ 0.1920846561852043
pus 0.46140126160252676
ree 0.13741692005907183
temporal 0.4544906332140552
uch@@ 0.08084616638740029
uni@@ 0.09346471355886395
vel@@ 0.11131321247269031
yan 0.09218846542276023
อังก@@ 1
1609 0.7430115967141918
386 1
401 0.8245978944802234
639 1
Auto 0.24094896926671008
Gund@@ 0.7217564082167532
Johann 0.05226073343487473
Mes@@ 0.09847350236710636
Orange 0.15611615106062596
PET 1
Pel@@ 0.1082191034598639
Pharm@@ 0.3547885832356248
Province 0.06158154343809728
Sister 0.5389185078855032
Sl@@ 0.14832198681095532
Spar@@ 0.14466629727723215
Systems 0.1617678673726957
Taekwondo 1
Texas 0.036795658850489604
XP 0.7634820846775024
bat@@ 0.05439352602298297
ebr@@ 0.15353966808218736
ichthys 1
ilis 0.5746033800212305
prim@@ 0.09145593008274722
sort 0.08980639025046262
unit 0.06000609436278066
ures 0.06140839316484031
win@@ 0.1752372035126168
ไซม์ 1
་@@ 1
1772 0.38189003814642647
2030 0.746709227364211
34.@@ 0.5643010219796628
98@@ 0.5956365901240062
AH 0.5681664906778178
Amar@@ 0.2814916020160644
Brian 0.10047230820284463
Countdown 1
Eff@@ 0.17471153654989277
Fight 0.4648520279554468
Fu 0.5526308346064439
Greatest 0.427022674166535
HP 0.28269798781106126
NBC 0.15419771983027478
Pearl 0.25899524885375347
Police 0.08864759630057813
SUV 1
Spec@@ 0.23552337208802845
Stu@@ 0.1139896971343695
Trich@@ 0.4238467402883422
WT@@ 0.46622315840493556
Walk 0.4182287422580107
Wilson 0.07509563241435055
atin 0.22581928221036685
cat 0.24535653409284588
dan 0.054572245417526546
eye 0.11217035538802266
fol@@ 0.08561357194699143
loop 0.31091060594180936
mir@@ 0.08755342744806086
nar 0.4783492732141314
olin 0.4322445086321183
ons@@ 0.055804600495600716
otype 0.43774426240622255
sar@@ 0.10134685242921708
service 0.01595689659817253
uy@@ 0.11282144589173614
ß 0.13083753050280866
α@@ 0.1930371754547862
จำนว@@ 1
ฟ่า 1
フ@@ 1
的@@ 0.272327248611894
1620 0.5618741396931531
1788 0.31596800278484116
257 0.8873071737924417
33.@@ 0.5078778544227482
6.0 1
9.5 1
ABS 0.8437105050735102
Ali@@ 0.11943599141439379
Antonio 0.05335303939321966
CL 0.395999867651239
Centr@@ 0.20909495114654536
Clar@@ 0.15866026916577572
Den@@ 0.10527392317571423
Dou@@ 0.12363423214068972
Electric 0.19091549910724517
Eye 0.3773021233890424
Flu@@ 0.2072834979072222
Foreign 0.1255752499421604
Lanc@@ 0.3317894469269238
Ma 0.18317576695625812
Military 0.09720285461105406
NH 0.7489543299964708
Roc@@ 0.12397484265487838
Style 0.3310683956127234
Sym@@ 0.21985020919582882
Symphony 0.22399625595704573
Teen 0.6278382656666575
Tetra@@ 1
Trade 0.17298205546604184
Whit@@ 0.08695937434722734
Zhang 0.2788424256986021
achi 0.25091520520946164
ate@@ 0.19770054470540602
ateral 0.4300605125573478
avi@@ 0.10658484678514786
chain 0.14553974784037368
culture 0.03965237495487159
enter@@ 0.1012701652173092
gy 0.16477530365324147
hex@@ 0.3233451425468659
horn 0.19209933422433775
itus 0.25306814677058226
long 0.01380672036647467
site 0.019953335997394548
tal@@ 0.06221013285060919
π@@ 0.18643971133512705
ภอ 1
ນ@@ 1
東@@ 0.10510267455551814
05.@@ 1
1526 0.8277816417880851
1688 0.6112276672277448
37.@@ 0.5712515190274715
620 0.9932080671840502
66@@ 0.42076995134257295
7.2 1
ACE 0.7495431929081416
Bar 0.16276752514496173
Beyond 0.3948712897344886
Cou@@ 0.13052232226395086
Fle@@ 0.14110696774145573
Giant 0.5598432027049074
Hur@@ 0.1004638191465267
Jud@@ 0.11772491759924841
MT@@ 0.3752929791571908
Mach@@ 0.13271932748679574
Ngu@@ 1
Note 0.17068574451399618
PI 0.3923013221071221
Phoenix 0.18305009407654782
Ras@@ 0.1423434418973854
Rh@@ 0.14157558015594243
Rod@@ 0.17092331529909782
SV@@ 0.4534186943983617
Server 0.44540455425917835
Subj@@ 0.7366582172578271
TER 0.724049423905722
Vision 0.3235762709095535
Ware 0.5591203580274318
ais 0.05407167703524611
alli@@ 0.10338039665463797
apeuti@@ 1
archy 0.23695006633987561
ball 0.052068509048381804
but@@ 0.10166672591920857
ela 0.053963334373234376
folia 0.34581941949195827
gate 0.13779378214137666
hu 0.30020015063587235
human 0.04166142487133645
istics 0.2441718169113312
kr@@ 0.06127001320722985
ning 0.09470611302887054
oxy@@ 0.5361310806081303
quest 0.33037807695762417
ras@@ 0.09611840687561532
sing 0.06165753510727595
spp 1
thal@@ 0.46598904814389436
vector 0.3240733256613298
web 0.08969367805554986
ฟื@@ 1
ราชิ@@ 1
หรับ 1
เงื่อน@@ 1
と@@ 1
德@@ 0.05844330134678684
1453 1
1829 0.1944694693237636
261 0.8693221764599313
3,8@@ 1
33,@@ 0.4871206328451614
5,0@@ 1
6.7 1
63@@ 0.4618704980698768
Anime 0.535338522730849
BE@@ 0.7958356222294368
Blo@@ 0.15020566213011532
Break@@ 0.4485798091845648
CF@@ 0.23713843696076162
Cab@@ 0.11421720110294707
Chamber 0.2377539049598141
Comics 0.1649824560764406
Gas@@ 0.09832115955366781
Lucky 0.5221723528952167
Mari@@ 0.06591695057548987
Mun@@ 0.1082842537311994
Other 0.037642438129034554
Pav@@ 0.14008243899468162
Review 0.15103347533260714
Rol@@ 0.14413651849108028
Together 0.22043904371852008
UT 0.5078604685538646
Want 0.5626013892233009
box@@ 0.2285336519111273
ening 0.09723763388529456
mode 0.1028158623890016
uli 0.2454816943252278
นั่น@@ 1
สารคาม 1
ຈ@@ 1
り@@ 1
仁@@ 0.37109412981017137
233 0.7667179608301309
266 0.8602918461455015
279 0.9540171757078546
35.@@ 0.550375774846279
Ach@@ 0.12051889412344481
Ari@@ 0.13612855035735666
BMW 0.28211215265872497
Card 0.4476664137049742
Dog 0.32519385030015935
Eu@@ 0.22231476436382866
Franz 0.07590953067438082
Learning 0.4253107871275046
Macro@@ 1
Phyl@@ 0.4111536040364555
SN 0.5291589437512288
Smart 0.48650308261653524
Summer@@ 0.5935226799387429
Third 0.13206373272691435
Vir@@ 0.11848255258589409
Warriors 0.3328583969387391
aca 0.09910004827708102
acea 0.6533597893324377
ander@@ 0.13462221170060093
anism 0.3014850224973879
corpus 0.9076562286860965
dig@@ 0.08064833460097098
each 0.01467840076771582
eur@@ 0.16497785020537648
fire 0.039600571768323815
force 0.03289178609434648
fre@@ 0.04075166000502581
gar@@ 0.052997129330339045
heart 0.0913098913784554
ige 0.027369795612053136
iness 0.20869164228286446
kan@@ 0.07600595048414384
meg@@ 0.28092505556524006
oning 0.14671922473925478
ophy@@ 0.4218790701538677
pil@@ 0.07690757004966116
sis 0.1649812195757344
spin@@ 0.41044333182462
ump@@ 0.10199994236315868
uridae 1
ı 0.09689388918576314
デ@@ 1
田@@ 0.15047295213385972
長@@ 1
19@@ 0.2402829001646167
318 0.9687517809941358
AO 0.5261030625264127
APG 1
Angels 0.31467102456094415
Another 0.06927351904168137
Bul@@ 0.09897777440864523
Conn@@ 0.12197149861213342
Dur@@ 0.09194277618623334
EPA 0.7836043313930634
Engine 0.44859272679127027
Fol@@ 0.09320138624203668
Gallery 0.1293480002049803
Hang@@ 0.31679469743634303
Miss@@ 0.1779924793711273
NFL 0.09584784329055578
PH@@ 0.7042716331118491
Pink 0.33187546759068043
Shir@@ 0.2641454450207285
Son 0.03242326628713416
Son@@ 0.1097220097979635
ais@@ 0.06558719321032447
amus 0.47139491333979583
blood 0.10541880332039927
cav@@ 0.17202056589790657
enn@@ 0.04649538051427424
ges@@ 0.03837742258758651
ju@@ 0.07387246482077768
ka@@ 0.2814758238937539
mis@@ 0.03434933202867423
nh 1
ols 0.08574948934668024
omy@@ 0.6082029666907101
oster@@ 0.6372341923391102
other 0.005227878060171947
software 0.08604125931876316
ticul@@ 0.187801361898889
ward 0.04882230515032852
xy 0.30363422951545244
มัติ 1
キ@@ 1
12.5 1
1610 0.5995119275659619
6.1 0.9866283277824598
77@@ 0.47853126366658705
79@@ 0.5481003243620923
960 0.9293805230406572
ASEAN 1
Bet@@ 0.123069147780854
CN 0.40637324733142904
Cent@@ 0.14103591013421055
Fan 0.5142395409300718
Fat@@ 0.2837247129868077
IUCN 0.4508569697796393
Integr@@ 0.3058262388451243
Major 0.06267748565829244
Mam@@ 0.15489675384010954
Med@@ 0.10689620862822614
Mik@@ 0.11670781249812096
Person@@ 0.1714558088784094
Sab@@ 0.08082681987562666
Samuel 0.08811648671964088
Stap@@ 0.380001689091991
Study 0.3382918138865831
TO 0.9485040366144093
VC 0.3554285758757272
Victor 0.09581439343145955
Victoria 0.056719976836117486
Work 0.19675274194257258
bert 0.06930849462004324
eless 0.10086886857364392
ez 0.06174639026564267
icular 0.841492808539572
ification 0.12298801293798045
kan 0.12507663322884463
land@@ 0.04353042880705755
local 0.014033096648005264
melan@@ 0.5566821303886148
mos@@ 0.09337422189055485
ony@@ 0.19063127219975107
park 0.04229098787076665
path 0.15689992068589217
uti@@ 0.1169729753479566
vas@@ 0.11307915912514936
wi@@ 0.09460876027922278
ตราย 1
ปุ่น 1
ງ@@ 1
ុ@@ 1
1368 1
1770 0.32186171244771283
1827 0.20933837048369117
283 0.9292726315371994
298 0.9920105652945107
39.@@ 0.5520893919677088
470 0.6737655081230765
ART 0.6392696793322731
And@@ 0.24939261849821828
Apo@@ 0.3084073607601123
Blues 0.15474450072777257
Chang@@ 0.2212479088791222
Charlotte 0.12394945978199473
Christ 0.10160810465733837
Fire@@ 0.4200538934287127
Fun@@ 0.15827786468030314
Hits 0.3140619684662951
IOC 0.8361722273555113
Kid 0.3466443468954446
NI@@ 0.5966759844586242
Pa 0.5314486158774286
Prix 0.0601197814172055
Race 0.18682051536517616
SF@@ 0.26813750923307067
Ten 0.15423396330466096
Tok@@ 0.29802100882012067
Too 0.46261104114016854
Yang 0.2568682794909776
address 0.1444115077905771
ado 0.007065632828482092
algorithm 0.39086983752732996
aster@@ 0.16293575190474655
ators 0.04681133095575693
between 0.006932385134381411
car 0.02317854202887123
card 0.09666031981682244
chen 0.033246050033385294
ference 0.17392286039521754
gn@@ 0.17366710845005065
gold 0.05334284881588954
iOS 0.441618738497337
plate 0.17470631413081464
pola 0.7644666029529023
squ@@ 0.12104476743425306
tissue 0.3410965318322102
tro 0.08734587079465322
yd@@ 0.12549631513205406
モ@@ 1
1787 0.29910410646211416
248 0.8126776064368402
Anna 0.06723640978960664
Anthony 0.09843221178199554
Braun 0.498123782461719
ED@@ 0.33009208388413114
Image 0.4852744883851176
Industrial 0.19034563036186297
Jar@@ 0.10783728025969606
Lag@@ 0.11633379517423913
Level 0.326922189952024
Mount 0.0705845795323679
Myr@@ 0.27335324778400893
Pil@@ 0.09665753451268255
Sam 0.09710699500434962
Seg@@ 0.11065992444539426
Step 0.6783475080718059
Touch 0.5760051868799285
adi 0.11783966868364466
ains 0.04251524196139464
cryp@@ 0.2742301675854771
ders 0.049694319829390265
ease 0.2972979705648061
general 0.016378374782348624
hat 0.014070583173821267
ie@@ 0.044944245717664866
las@@ 0.13176621127470417
machine 0.09378330538921026
ole@@ 0.30203063612872727
ring 0.06105926254955601
thus 0.04878522228376659
very 0.018338492336666224
ù 0.47451429217759694
ο@@ 0.16903411666261267
บุคลา@@ 1
ยึ@@ 1
ล้อม@@ 1
สังข@@ 1
င@@ 1
北@@ 0.062041752627467424
和@@ 0.12143035620445254
1550 0.5425841574892759
1823 0.2093235281127626
236 0.7883098794832937
263 0.8253859494525636
321 0.7937515405100174
Aff@@ 0.1617075605224375
Austria 0.08206645346773149
Building 0.10550815127726468
Celebr@@ 0.3934303162184776
Chan 0.34368221855286185
Cli@@ 0.2260541783454191
Di 0.23133161536145538
Fran@@ 0.09726175762291904
Guy 0.14069840936126723
Hope 0.198855325603413
Infer@@ 0.6968299974846444
Medal 0.1167092469068303
Plat@@ 0.11630928315390941
President 0.027200374429153778
Squ@@ 0.23785956721129467
Sum@@ 0.09693684196726343
chlor@@ 0.2597138771639101
dea 0.2699328142738597
graph 0.30028072621714685
idal 0.36440036194258957
ingi@@ 0.44821551922449476
ion@@ 0.1305700029182806
nd@@ 0.1295163817529122
oxide 0.4305078065541744
start 0.042741602346692935
toc@@ 0.4051938071470391
uke 0.2836737099688948
while 0.00926497676248171
ws 0.06346272299605202
不@@ 0.034394996449359366
世@@ 0.14104227984896892
1592 0.7775534911910948
1683 0.6244101039871525
254 0.6894410677360403
289 0.9746237679569524
510 0.9147907500679883
560 0.7717332445445096
Anim@@ 0.2976438059325865
Ax@@ 0.24714463412915524
Band@@ 0.11495185860429445
Body 0.3865998558649585
Forum 0.19709766215603866
Francisco 0.0339528351927399
Frederick 0.10903439740992144
Les@@ 0.10336758692237999
Mess@@ 0.12088500464356543
Meth@@ 0.3286744148871092
Mitsubishi 0.5931471219099725
Mos@@ 0.07018112359607047
Northern 0.0494183611898138
One@@ 0.5932393651543115
Plant@@ 0.2768622595600683
Private 0.2442722394764199
RAM 0.3827787600314589
Six 0.1338753407365876
Soci@@ 0.14311301548615687
alized 0.07748055059072005
amensis 1
atur@@ 0.13907080552259907
che 0.026601423821504426
eil@@ 0.16313369018157955
elia 0.180563625199797
emic 0.508284800504132
equ@@ 0.062462481317529635
eti@@ 0.0854279299674386
green 0.07996011985145887
high 0.01378702727201055
illi@@ 0.16285337379540263
ime 0.14886400826464177
intr@@ 0.12233980397625192
main 0.016549594642872763
mental 0.10227839847128486
omer@@ 0.2929128618266187
oration 0.15743288119450738
oy 0.12158431311113273
prise 0.10087936235105843
tern 0.061138529791061824
town 0.014560559981157507
view 0.05111504440663026
vis@@ 0.05984230146102095
zer 0.08176309049428544
張@@ 0.15304163075468186
Application 0.88793573800468
But@@ 0.11848706068906603
COM 0.48640229591113654
Care 0.30654752714428735
Cheil@@ 1
Chor@@ 0.12512413371003314
Coast 0.0699602926275201
Comic 0.35187392621830116
DOS 0.4234023964659558
Dal@@ 0.09267462319447253
Falcon 0.48162680558119386
Gos@@ 0.1826382501225432
LM 0.42880983447956955
NBA 0.08731623806129042
Oricon 0.629284236480118
Plant 0.28951874064206856
Pon@@ 0.09456553956142821
SV 0.1363675417013785
Score 0.6818500166021766
Sens@@ 0.37993146544678214
Shock 0.8662489690338053
Storm 0.20423242116636434
TM 0.6249375240057754
VA 0.1880365705631177
VB 0.5414870988025529
Wanna 1
cle@@ 0.08939034999696868
common 0.03048657184112081
eller 0.05875672093350353
ern@@ 0.04271284744849318
formation 0.03809612717410933
gas@@ 0.12934667555185414
glut@@ 0.5762658575036285
iidae 0.7733589864302417
ista 0.03420681169277638
mod 1
mol@@ 0.07847749167854874
pat@@ 0.05043112466292489
phyl@@ 0.5041749371959301
tan 0.0445424608510073
thor@@ 0.1330273599687234
ware 0.229524131340579
wing 0.04058404294985558
ฮัง@@ 1
ễ 1
1250 0.6520582043693323
1350 0.7316957361037525
1689 0.5398599539747825
402 0.9259420230651907
5.4 0.9432826360200026
Alfred 0.08076011598648856
BL 0.2546647939232784
Clo@@ 0.20470339392494727
DF@@ 0.3739132004759353
Dangerous 1
Friday 0.20155372906106386
Fund 0.1641071922577665
Howard 0.09120379047231925
Lem@@ 0.1224012970752123
Memory 0.6493692461970405
Mom@@ 0.23529025817709023
Musical 0.19415843791715842
Nas@@ 0.13085768179078913
Run@@ 0.2452742097135843
Shadow 0.3505699129321621
Singapore 0.1115541220769511
Suz@@ 0.40661917164015277
arc@@ 0.10564856123110815
azep@@ 1
generation 0.08838346020927478
hood 0.10463909770109203
ille 0.04163123813677865
ino@@ 0.27540122838493386
period 0.02138256339525026
php 1
pus@@ 0.6171928098292442
sert 0.1364832476451433
there 0.008126883041725617
Ö 0.5494974773964598
å 0.5321021314875586
สายการ@@ 1
ィ@@ 1
年@@ 0.0722130901275414
1330 1
32.@@ 0.49114293730167835
324 0.9233695449463687
404 0.8770534248131475
530 0.7605753970519108
6.4 0.991625318473037
8.1 0.7745371126716599
Affairs 0.11225422286780166
Br 1
Cuc@@ 0.6310957570799339
EX 0.8829095106351978
Gran@@ 0.08918900898756894
Hans 0.05167616614406875
Hard@@ 0.15341666284826908
Have 0.4419817396262029
ISS 0.5883958733172352
Industry 0.2049249222553592
Made 0.4784185337703453
Moore 0.10386660774125656
Petr@@ 0.1262740367944034
Professor 0.04496863150551501
Ryan 0.11266069355065428
Sac@@ 0.1731223450704277
Song@@ 0.2544966599315177
Viol@@ 0.16395173452518855
Zh@@ 0.24518524131905384
ament 0.1552240240162961
ef 0.1179143474979483
ete 0.04948253278157679
fin@@ 0.030484008948460577
icle 0.7178480990448747
idea 0.04949443938786598
lac@@ 0.16034824364607148
learning 0.10913644064078237
pic 0.16772470958215618
pon@@ 0.07022649051342328
tivity 0.20215014784465082
ump 0.1709028022132639
ya@@ 0.3832696910378823
ชุมนุ@@ 1
รัตนโกสิน@@ 1
เดียว@@ 1
ေ@@ 1
ិ@@ 1
。@@ 1
く@@ 1
ム@@ 1
10.5 1
1598 0.6507603399391155
1816 0.18093140481751016
49,@@ 0.6252539317673219
581 1
630 0.7472135034734148
69@@ 0.4194897830533478
Adap@@ 0.2921606436586699
Bang 0.31459258252287287
Christopher 0.11693556674309366
Cry 0.6097038443813015
Down@@ 0.3928066271407855
Est@@ 0.047705653410091496
Eth@@ 0.12333284768102767
Fat 0.7330530995623978
Fine 0.17859718999766583
Gun@@ 0.12750440461430693
Joint 0.22325600673329266
Maz@@ 0.0955674200514227
Movement 0.1675676820874441
Pent@@ 0.20088696508740164
Pet@@ 0.11595334238805056
Sex 0.30273047965284644
Shane 0.40110339092061276
Zo@@ 0.13793932065137132
ader 0.09742571248860886
aha 0.2107913692238335
architecture 0.0706688757255853
away 0.027844138879779826
benz@@ 0.3637618216998758
blue 0.09253797657029128
bon@@ 0.1218586682139577
born 0.007408348474701966
chr@@ 0.18189670754678705
energy 0.05860685492189951
ept@@ 0.19306672818695703
hur@@ 0.09322528687529583
ift 0.23206269886580552
ight@@ 0.16796316508539344
negative 0.1069129323688661
oideae 1
ova 0.07583687129824222
seroton@@ 1
source 0.04330009285431114
stimul@@ 0.18553855518760232
tain@@ 0.12177971273714444
wal@@ 0.06355734963192361
xx 0.5513889325315329
อุทยาน@@ 1
花@@ 0.1356445649769927
000@@ 0.37454787426828723
1185 1
1483 1
1811 0.20030000338052292
231 0.6267594050147712
49.@@ 0.577105223707524
7.6 1
7.8 1
870 1
Alex 0.10450955551403703
BR 0.3322662975110365
Bad@@ 0.08326486036140048
Davis 0.06976515546074398
Dutch 0.06059267473234501
Fort 0.05197235591886127
ISBN 0.6684817683190669
Independent 0.1171968965383999
Key@@ 0.22229814548841814
Lang@@ 0.055079649819328086
Lar@@ 0.07519255131283382
Pan 0.15351050234752325
Ride 0.5695397497802804
Spirit 0.24031157353728672
Tale 0.7339774276632263
Tonight 0.44697923068327944
apy 0.36898575357020763
bel@@ 0.04369992153355172
con 0.0022446883157895524
ecti@@ 0.2569271883724987
heter@@ 0.22565833766020751
ithecus 1
je@@ 0.06206924260918024
lit@@ 0.07081377429019971
lot 0.057710063334295715
ody 0.11623651247938915
oko 0.19806630647405182
otus 0.3824350669399358
science 0.04718600212310659
sim@@ 0.09753344767606541
tas@@ 0.12396297312336711
vous 0.15000810214613403
ë 0.21865698875731934
ū@@ 0.09166603755465562
คณิ@@ 1
ปัตตา@@ 1
យ@@ 1
ら@@ 1
サ@@ 1
君@@ 0.6165073605345619
1780 0.24786224631783865
6.9 1
610 0.7315541007414585
760 1
Ah@@ 0.10651451146390639
Airlines 0.1528772772933028
App@@ 0.15815012666045097
Break 0.5837861199859988
Direc@@ 0.1234973690236705
Expo 0.5475081415042155
Female 0.40394741650696364
Germany 0.029016738970382587
Gray 0.16684641763663327
Guide 0.2388507226766386
Kaz@@ 0.15981681005626056
Laboratory 0.2614395978892715
Marine 0.07207199879382102
Moon@@ 0.5375281113768601
Ny@@ 0.15156394575006144
RS@@ 1
Ren 1
Roger 0.08263548643271768
Sax@@ 0.27313449384080285
Sm@@ 0.14252109910837663
Soviet 0.043371925704754746
Tab@@ 0.09265190903062284
aine 0.06182231605081242
aja 0.10451913765196702
bird 0.128956741421425
course 0.03279000886277367
din@@ 0.0704447011323999
double 0.04617506728503633
eer 0.12898338035095402
enta 0.06867316627848478
nam@@ 0.09847120186816856
optera 0.41755992648665635
stage 0.030578124644218028
tail 0.14205868409934982
tal 0.05920629677341194
thera 1
ă 0.3260634490885381
ีกา 1
เปลี่ย@@ 1
宮@@ 0.4453204301421927
法@@ 0.07198565690052917
福@@ 0.13183944176165732
院@@ 0.4487294885531675
陽@@ 0.41152931632104683
1180 1
1450 0.6455097819044858
293 0.8585478981700694
7.1 0.9216903403858331
84@@ 0.651965471988676
87@@ 0.5333862542564615
ATM 1
BD 0.3264994913136481
BM 0.39738118609761935
Better 0.4915788086616797
Bin@@ 0.20937200168553646
Cs 0.36352236553970324
DX 1
Disc 0.6043093659229136
Emp@@ 0.12358938480223637
Fall@@ 0.18947208701182786
Fighters 0.9016904611642129
Hard 0.29254499595317235
Jam 0.41067890069091634
Ki 0.44076368074959404
Log@@ 0.11580745421098267
NS 0.18239101822953824
Pad@@ 0.11681552679157277
Pang@@ 0.62796798013385
Princip@@ 0.22997885522144443
RE 0.3921615761585353
SR@@ 0.3376946905809609
Smile 1
Smo@@ 0.2738413272136956
SpaceX 1
Stor@@ 0.1402016806433104
TR 0.825436682256442
Ti 0.875796102693607
Us 0.26458786413481455
Week 0.13589029898747534
aen@@ 0.6617098923690069
ams 0.05754802919773218
andra 0.2257305403349719
bers 0.07785867177126587
current 0.03311247549665453
eff@@ 0.09744946932087056
engine 0.054443265468901214
etus 0.30870499953100095
fal@@ 0.055579842306524775
gas 0.05612685170222098
growth 0.06909742290425216
ious 0.2668884553401784
lor@@ 0.1833369028124408
mes 0.0352080252657884
nuclear 0.09954989113331064
oper@@ 0.06381789562308493
quin@@ 0.17175315863880353
ถิ่น@@ 1
上@@ 0.05426904502355792
1540 0.5492304872539447
1643 0.6111233448571382
2600 0.9343487152932057
284 0.7838321162298075
297 0.9299000241477812
680 0.7908412443148725
Before 0.0770306664758299
Cartoon 0.678501720876369
Cass@@ 0.1520062714456188
Chel@@ 0.22344670700379374
DH@@ 0.601838141029863
Gold@@ 0.08655637181560229
Heavy 0.32441915250115927
Hil@@ 0.10127146618147657
KA 0.4000781883795024
Kill 0.48721322725946736
Kw@@ 0.3636867493899586
Lamborghini 1
Low 0.24234292400108137
MD 0.21555503349627117
Madonna 0.21687484639125756
Tap@@ 0.19284604850877352
Thr@@ 0.21573030031085938
Training 0.12985214203415532
UE 0.37118435659282933
Was@@ 0.1418335770713583
XI 0.13432244541077054
anga 0.10849096675639011
apping 0.12984614684767581
bridge 0.04328258183664704
dog 0.14848471711733258
esi@@ 0.19187768694106305
feat 0.5232547505084002
ision 0.1361246458457992
leg@@ 0.053670533635475456
lob@@ 0.08891076117023956
master 0.05514489476534411
ocarpus 1
olls 0.18017743821081106
plant 0.04384890179382255
polis 0.16701444445297575
pter@@ 0.5812163414550198
season 0.006045338990844578
string 0.18642381234472685
three 0.006336525715098059
uld 0.1833083241886895
won 0.009641198390679602
yrin@@ 0.7212365063939451
มวย@@ 1
สกอ@@ 1
อำเ@@ 1
แม่น@@ 1
ង@@ 1
《@@ 1
コ@@ 1
テ@@ 1
成@@ 0.08834879850445294
정@@ 1
1521 0.6832172554101231
1661 0.5604847704422019
273 0.7973152027002313
287 0.7672817654928488
288 0.7582076937117191
291 0.8882871262875965
322 0.7874768196024415
356 0.9069921749733577
570 0.8516898054433019
6.8 0.9685570155887172
AMD 0.7958101459739353
Animal 0.34683767879727606
Aur@@ 0.11445315266271511
Basic 0.4239761373778368
Bros 0.6375963781813169
Camp 0.12007900027547329
Cell 0.5696647683202168
Circle 0.24484526798043568
CoV 0.953357977928893
Crystal 0.2765325575813225
Extreme 0.616327159523162
Form 0.06075740875665483
GHz 1
IMF 1
Kelly 0.11056291699978014
Kum@@ 0.17979726759435932
Look 0.497438249853988
Merc@@ 0.45447383287326326
OK 0.5568727923754687
Oper@@ 0.09334205298943513
Otto 0.07369104242168054
Peri@@ 0.18920391361352812
Rumble 0.8279191247272277
Sang@@ 0.20460245263638596
Taylor 0.0641829156163532
Track 0.13284779966307947
WB 0.7393502137384458
WH@@ 0.3315306684757491
WO@@ 0.5529991641591675
Wr@@ 0.2739137440081183
abilis 0.8226320347632649
ank 0.21492898149106032
chem@@ 0.10215249773787254
coc@@ 0.13185564648491485
esty 0.3335016054251686
ety 0.17592090552857548
flo@@ 0.05661711155842189
form@@ 0.03963610740655704
genetic 0.1902309865714488
imb@@ 0.1127254774175269
nes 0.0554396283340493
odontidae 1
ogram 0.7603625169107687
opterus 1
ostr@@ 0.2474803075977717
ric 0.1952172560816706
square 0.058599053862908715
stein 0.03675528442065751
than 0.007246813567489102
urs 0.04826521943575093
used 0.006450840239533919
ze@@ 0.04708199535661316
č 0.27013228557951796
ě 0.8264927803669182
รุง 1
ื่อน@@ 1
ナ@@ 1
パ@@ 1
01.@@ 1
1492 0.7012512880194601
1760 0.3400814890081278
299 0.8368961859939145
338 0.882284619441626
346 1
347 1
7.3 0.996940078136177
Allen 0.09004742100295031
Amazing 0.6949834761738082
Aut@@ 0.07946532044592085
Beh@@ 0.12054723943163138
Brand 0.21951222193517908
Color 0.4499691943591814
Command 0.1272138518724227
Critics 0.28483117983960604
Cyclo@@ 0.6962844166078076
Dam@@ 0.07528078470328534
Day@@ 0.2961388685860895
ESS 0.8463139699096005
Empress 0.44677025738256526
Ev@@ 0.10069843918454942
Fighter 0.2566481637048004
Flying 0.23538152520386393
Journey 0.5157488393730532
Metal 0.14695636802919237
NHK 0.8749369217209106
Nippon 0.6319569188479165
PH 0.7260370214533616
Phil@@ 0.10090738161646692
Rep@@ 0.17284902325546544
Rider 0.5314626883947298
Say@@ 0.17281646674539697
TY 1
Tat@@ 0.13903460801986023
Ultimate 0.3348928795666226
Um@@ 0.04093914431330589
agram 0.4123672742672636
aun@@ 0.08628147312814197
bra 0.14310119863446763
gic 0.4796221564269009
hist@@ 0.3010951405340288
inferior 0.19683015043434002
ishi 0.2619481876412243
isi 0.0947698214378571
junction 0.19876888761799427
omi 0.3545457720302417
phone 0.09096517299530013
pic@@ 0.08359456123878548
po 0.12287518328187706
spot 0.11263038920626155
teen 0.1325368378450701
tos@@ 0.26347770228141904
tot@@ 0.08507976347291978
var@@ 0.0822113637940464
vari@@ 0.06072653287740165
vus 0.3802391981950524
พาก@@ 1
ราจารย์ 1
เจด@@ 1
ိ@@ 1
1170 1
1781 0.30894770182292425
281 0.7333097708157461
335 0.7688880308061853
406 0.844593782443449
5.3 0.7521084301338956
5.8 0.8658671024948169
ATA 0.7358068528957089
Af@@ 0.12345636124519131
Anniversary 0.5125244751863074
Cambridge 0.0743941514174423
Chen 0.22082441295478306
Cher@@ 0.14686606666692031
Daily 0.12433474522708891
Doc@@ 0.14082387745089905
Fish 0.28946930733655507
Flower 0.5993291619892362
Friend 0.6126535817022282
Gly@@ 0.33169665908295387
Kings 0.15594256993932723
Lewis 0.06967032040606932
Local 0.11740545567420019
OVA 0.9955508691987356
Pyr@@ 0.19607597202027297
Tai 0.42896368632183746
UEFA 0.088316871580534
Urban 0.16707982112035924
VIII 0.12068834520216597
Vic@@ 0.09810651983239654
Watch 0.27977809123915387
Yellow 0.27910123188976954
acker 0.13217304321009282
ason 0.1387639785268902
ban 0.042400284633930134
dle 0.16593525744369766
domain 0.16626966540566618
eros 0.055746869667904105
flora 0.22774387836556884
gu 0.4611192529443639
icity 0.29500200635859036
most 0.006508557690349497
odon@@ 0.39326215002956755
onian 0.09824671145144384
pressure 0.07573302430806618
program 0.025112134562066634
rit@@ 0.0846200292491236
tius 0.3971515180856992
unt 0.11278978073179097
wan@@ 0.09029751182631558
wor@@ 0.04620928378815712
yon 0.14118755209474804
ประชาธิปัตย์ 1
五@@ 0.07483995110102702
方@@ 0.13067967002096062
水@@ 0.0544202158930218
真@@ 0.21324878339244502
1777 0.29621507067185376
1778 0.2893897212659509
476 1
Boy@@ 0.182447995666004
Bruce 0.10516029487207662
Buc@@ 0.10914754030884866
Captain 0.07683632032242786
Chief 0.05208504476802801
Dra@@ 0.17701012860963042
Factory 0.2885647896816576
Give 0.651011430403612
Hu 0.6518624669399196
Hus@@ 0.10110819609625338
II@@ 0.18277245553639002
Jason 0.12602678428711797
Jay 0.1453462382159007
Jerry 0.1561500242650031
MBA 0.554832580243019
Mario 0.10695727126405805
Ple@@ 0.19254021954891026
Seoul 0.2635058400629643
Suc@@ 0.15838186728360132
Sz@@ 0.1105800827256361
Tell 0.3724876854939023
UNESCO 0.17691708902875258
Yam@@ 0.22064910997045295
aly@@ 0.2103616667006828
anger 0.07747299746914042
aries 0.04484044359686633
chart 0.06564455719791075
ches 0.023688825025692046
design 0.026157426356391032
gun 0.06573975416222137
lear 1
lip 0.16746355451294326
mass 0.07565714586371329
odes 0.17110064294653693
ogr@@ 0.1488344836632445
osh@@ 0.17327851571033215
processing 0.17536852008098028
ratio 0.16912329655533487
stress 0.19985107754686346
test@@ 0.12751884706696376
troph@@ 0.36451070479145276
unda 0.13480957827774928
vers@@ 0.051138022372377204
vi 0.09674813627508495
vo 0.07205085781045423
ดัด@@ 1
း@@ 1
寺@@ 1
春@@ 0.2415509597075083
002 1
1651 0.631323068847773
1763 0.31712014574434755
1784 0.2500746092962187
2100 0.9364166689359041
525 0.9196637562292386
Abbey 0.17304581810175185
Acc@@ 0.17964906962435653
Adventure 0.35152401845361547
August 0.007161861527872732
Avengers 0.6054282296817192
Bod@@ 0.10682455990284101
DO 0.4919439919794076
Destiny 0.7317379609195211
FBI 0.21577162256791596
Fantastic 0.8605204368491912
Glass 0.3090451057062437
Heart@@ 0.4126572092403511
Hid@@ 0.22056146376864832
Into 0.6337572448082011
Jane 0.0994270067952436
MG 0.30496763861306747
MM@@ 0.8579695965285917
Magne@@ 0.8161571874536067
Mix 0.4706745925312223
Miy@@ 0.265610106510208
Om@@ 0.2037364335939446
Oriental 0.2178190595990231
PL 0.370584023128307
Page 0.22211424708769623
Pretty 0.6633767911774133
Saf@@ 0.15316444100649618
Ultra 0.48381017474947074
Upper 0.13073164508680787
Wel@@ 0.09097412485859614
Wilhelm 0.04733335063132841
Yi 0.37979153922098036
Youtube 1
ana@@ 0.2570314523239963
anic 0.4381181413975677
ante 0.01291675611488572
award 0.047867708101037555
black 0.0336771855156199
burg 0.033863918849862236
come 0.03327228702825598
doc@@ 0.12933972098671712
ebook 0.7063115224896915
eh 0.09909399732749828
ini@@ 0.10948810216057867
ket 0.18472385985335674
ky@@ 0.2029290524002909
los 0.0014524801798804223
metal 0.05325631484624151
place 0.007912135650521467
plat@@ 0.10215977133267361
stars 0.06054117116958605
ther 0.09562917722342028
tory 0.14814042102199398
under 0.006592922669882099
ust@@ 0.09433367719967611
×@@ 1
ลวด@@ 1
エ@@ 1
夜@@ 0.39924349882843607
@@ 1
1775 0.24511929776345798
1786 0.28551796919522576
267 0.7387416950440109
282 0.7676916844929014
296 0.8428977465542499
313 0.6934093761224268
4.9 0.89945183148977
425 0.7524220968040852
6,0@@ 1
Alpha 0.21637700535312743
Bag@@ 0.12642859069084536
Benz 0.29659517867937985
Bernard 0.08589066938313862
Bird 0.21648731282679004
Bos@@ 0.07803516938958538
Communication 0.3414440930017968
Competition 0.24761825682198996
Complex 0.29345468135720626
Dig@@ 0.19401033108857657
Economics 0.22900144392868307
GR 0.49678769031602227
Honor 0.19269547851463434
Hot@@ 0.23157558016578314
Jacob 0.11008384835626771
Kurt 0.14281938709719852
Mister 0.8226707290141404
NP 0.3805503138115883
Object 0.9897283667156058
RMS 1
Rising 0.4319588202416418
Russia 0.04541131526804559
Tem@@ 0.13476216659177645
VR 0.4741185984903938
Vince 0.514756276127484
Yak@@ 0.227938792216717
actor 0.038459830744441904
ator@@ 0.10999187037376676
aul@@ 0.08090152473057734
e- 0.2831657777088465
ele 0.05316620224582515
girl 0.08746745648468682
gs 0.06710664168345104
isch@@ 0.05949113581108478
ix@@ 0.16625676621518135
languages 0.0718101319300699
medicine 0.13973884112310417
mut@@ 0.07027447581613146
news 0.05775040032675277
ogy 0.18850146778475987
pig@@ 0.1693515965431378
sed 0.06205981881203576
sion@@ 0.08344665250373531
suit 0.0643571170444888
ths 0.06138927260031559
thy@@ 0.38913322511629544
uchi 0.28646857739662
ucle@@ 0.6532865369303892
uta 0.11249200603020101
worth 0.053340047267572965
yx 0.4558460128703997
zy@@ 0.09021701769943787
á@@ 0.021992457233687847
เต็มไป@@ 1
ព@@ 1
័@@ 1
1560 0.5377564586578738
317 0.8371788120698483
8.8 1
AH@@ 0.8054200020074177
ARM 0.9274411610088977
AX 0.6057895090503567
Batt@@ 0.16734103701028444
Bio@@ 0.353912596193992
Creative 0.3295632375082389
DR@@ 0.26942371159768685
Dave 0.1099323569963245
Dist@@ 0.23361661842466097
Feel 0.7373814058038449
Films 0.10983401673013934
Flight 0.20513486976811196
Haw@@ 0.09379076570607552
Jeff 0.1275671349836592
Lan@@ 0.08458956838408052
Laur@@ 0.10995464717135862
ML 0.3144274693766395
Market 0.16381715876543937
Plas@@ 0.24757051193528365
Professional 0.1008335023276765
Superman 0.3255485970393182
Toy@@ 0.32082980359014596
Trust 0.10819594320709176
Universities 0.5364486959497903
West@@ 0.03527413957691426
Wong 0.396453692349149
ady 0.12229064423244408
angi@@ 0.5988763948296457
arch 0.1052209702679106
ards 0.04429222061209663
atsu 0.34839869933713086
attack 0.0358128449948897
ayo 0.13052634452349676
bus@@ 0.060919503519665706
chloride 0.6778885260918727
dom@@ 0.10175191203325747
edge 0.09299062441902473
etti 0.05809522067821834
fa@@ 0.06198223517181898
hormone 0.7220806598112439
iformes 0.9306243698561216
jo@@ 0.09292223968440795
ks@@ 0.057583962995380204
normal 0.07017189740894948
ont@@ 0.09018690318994561
organ 0.14391947244239103
orph@@ 0.16816049890093498
osph@@ 0.35565343532923055
plex@@ 0.4921824986740484
pneum@@ 0.31085272314029483
race 0.025406593941431816
sign@@ 0.0845148629975055
specific 0.05292584081900345
tain 0.12316439682443325
thetic 0.1356059579311056
transfer@@ 0.16271121322762278
zilla 0.9821735576513366
θ 0.5319755492514965
ดิจิ@@ 1
ออสเตร@@ 1
√ 1
」 0.013957708787270724
は@@ 1
メ@@ 1
士@@ 0.1518715204027943
月@@ 0.2532206512527553
1580 0.5042995813253675
1593 0.7512956446619627
1740 0.34589413935558017
326 0.8469510611712607
555 1
907 1
Anderson 0.08260788387671249
Brave 0.871034977602671
Bun@@ 0.1384753042773497
Charlie 0.11224403339084131
Comedy 0.22962886194251686
Ec@@ 0.14082167537808896
Electr@@ 0.3857742846619524
Exchange 0.19826757827628297
Gh@@ 0.09729032872682308
Gran 0.07864911704696534
Indonesia 0.10141327473172143
Islamic 0.10442013066889153
Juan 0.02780123135992067
Mega 0.38970062154882773
Opera 0.10859538460855962
Patrick 0.06959948616248904
Premier 0.046096249361116504
Productions 0.16210764117829
Samsung 0.36347468905753494
Sul@@ 0.10003799770760752
Tsu@@ 0.3181538348342224
UP 0.29019436129274917
Why 0.38667868772178327
Wing 0.18357071785156814
aire 0.0168031798484816
ait 0.013827215110504824
ame@@ 0.19420029011414025
andi@@ 0.14593659670574266
bot 0.13479727390944615
cho 0.011948287021452227
dop@@ 0.28252161141909765
edback 0.4251267800935645
eping 0.1564422712582257
epith@@ 0.38630713807138845
etary 0.16711290016485614
fir@@ 0.09981446818778231
illy 0.09890667327207167
lim@@ 0.08628620325549768
reaction 0.12906487378803622
response 0.05164854057027934
small 0.01478780879139601
soci@@ 0.05978329911286612
under@@ 0.02356705865610445
unk@@ 0.07970649735879763
ves@@ 0.28942400889049624
wo 0.02011949008301253
{@@ 1
เสพ@@ 1
1750 0.2746526000808916
259 0.7310331968463285
490 0.8203078140729655
Android 0.2193175243358694
Avenue 0.054709305208845316
BR@@ 0.2807159729329765
Bang@@ 0.22458566932680488
Bou@@ 0.05474628623439293
Camp@@ 0.08075544860181788
Chlor@@ 0.4122282119543876
Deg@@ 0.2405704447166838
Dong@@ 0.387339814364111
Emb@@ 0.22262358712721322
Glory 0.41444514279016453
Heat 0.3109554784785542
Jack@@ 0.24791560588701572
Jordan 0.10073750386963785
Liberation 0.31524175490740375
Linux 0.1706035102027966
Living 0.24447418722496803
Mich@@ 0.105112724751759
Miracle 0.7502709125528109
Nick 0.10779030759663832
Nur@@ 0.16703787801409592
PT 0.34933903200486377
Plan 0.0946093513139414
Rise 0.4547616832711648
SEC 0.3654430644042258
Semi@@ 1
Sense 0.9180269602155107
Sign@@ 0.1474545008458965
USB 0.43130016369123664
Without 0.2717297024456681
XII 0.13352646174951996
Xi 0.5275522310892851
aj 0.11720519334450215
amm@@ 0.08095287205995289
ats@@ 0.087472338467087
che@@ 0.06818048046340752
della 0.19148545178744125
dri@@ 0.08700429989904164
dus 0.32212573911802805
eman 0.070164665062464
icum 0.26360113242557814
ingen 0.027675379364562443
itor 0.13094817335995468
lands 0.038714051271110696
live 0.025321137189663796
metric 0.27668454046054003
mia 0.4088351689905806
oh 0.27766331315525794
oll@@ 0.07112821740753503
olog@@ 0.11734039058685956
open 0.02809181481682081
osom@@ 0.2387725133500777
ove 0.32676975370557493
pri@@ 0.07158631859043742
rh@@ 0.15540363254763376
script 0.12492107620612285
sense 0.09128861674165438
server 0.3410926104762745
vul@@ 0.1648592172429021
wer 0.07311761196246845
yon@@ 0.2250467492468415
θ@@ 0.18124479989088813
กำหน@@ 1
ไผ@@ 1
ជ@@ 1
が@@ 1
ま@@ 1
四@@ 0.05884423282048155
華@@ 0.12135513863280242
1260 0.8559359875143808
1460 0.7888258777588592
1666 0.5650686317429007
1773 0.3211263763435288
316 0.7609298917705356
980 1
Andy 0.11703996863688004
Benjamin 0.0972510001601912
Berlin 0.01737679732599499
CM 0.262656164723436
EL 0.3901392850662431
EP@@ 0.2050252281399678
Ernst 0.07685248570527818
File 0.6503802201075838
Fir@@ 0.12210547203601778
Gordon 0.08590900610988252
Grey 0.18503624203293464
Irish 0.04368593202951782
Java 0.1559385507203582
Mont@@ 0.046906072978415675
OECD 1
Organ@@ 0.14971995987964523
Pay@@ 0.18956382254519794
Phase 0.16495787747874852
Potter 0.2742409862879166
Quest 0.4237967094768684
Raymond 0.12113788507705962
Romeo 0.2951357829978304
SB 0.258889864285686
Saturday 0.11766685300252475
Save 0.44296377018819183
Scor@@ 0.22944466983217313
Singles 0.08553999423219988
Small 0.19991721128768336
TCP 0.9141565715625365
Vegas 0.1412369899483947
XIV 0.13183373619289976
acket 0.3334305259823978
anta 0.10211358968217381
arian 0.08762287310995485
aru 0.2952467336927851
bet@@ 0.110914931352928
bon 0.07959358381967371
chel@@ 0.3003345179899289
chen@@ 0.0641492096601542
dis 0.12431364554572605
forest 0.07793204190382606
four 0.008655161506146382
high@@ 0.07706221664447868
led 0.01169716584521369
mad@@ 0.08599719569876078
na@@ 0.13179640284337374
net@@ 0.10186195401132127
nig@@ 0.22436073833557038
oll 0.11709231745854454
stop 0.060095055201282756
systems 0.03710132518644743
tis@@ 0.04518728395321833
trig@@ 0.1613341751322235
ularis 0.5430656568001481
wel@@ 0.0690989867350286
ǔ 1
β@@ 0.1244392136411664
ปราม 1
原@@ 0.08357773631501371
趙@@ 1
軍@@ 0.06871884235948958
100@@ 0.16587934910826985
1392 1
1520 0.4996338593799933
1530 0.5061720766185167
1774 0.27599975636188706
1785 0.25283351400867893
344 0.9389292982041905
345 0.7502810465558168
38,@@ 0.46089090718085424
44.@@ 0.655911306891295
[...]
