de 55075479
, 39494483
. 29821636
la 25813698
en 21855463
el 19064213
y 18406832
&quot; 12766760
a 12111179
que 11398083
del 9650018
los 8926385
se 7553478
un 6583030
por 6580459
con 6088900
una 6011551
) 5707209
( 5697634
las 5558649
su 5148603
es 4342309
al 4030693
como 3908915
para 3879683
El 3560055
En 3068680
fue 3002609
@-@ 2987256
La 2851089
o 2595275
más 2159799
ado 2118090
: 2103453
no 1966715
ó 1939586
lo 1702943
sus 1677173
ada 1671528
ar 1655529
as 1651930
os 1535684
; 1414736
ados 1359268
ación 1316310
entre 1271983
era 1184108
dos 1160316
años 1074122
ando 1064332
también 1054160
Los 1048792
adas 972042
año 938980
son 927944
le 910138
hasta 909792
este 908860
an 888444
parte 883416
pero 882449
sobre 878146
donde 856284
« 848264
» 847520
ía 838128
ha 823864
aron 814848
ser 797321
desde 793310
esta 755654
Se 752386
aba 741522
re@@ 721988
durante 715148
in@@ 714301
A 713641
% 703290
des@@ 675761
ales 672369
ciudad 664329
e 652038
&apos; 632809
ya 622461
Las 611469
antes 606389
primera 606170
ón 605996
después 600830
había 597590
está 590002
aciones 581390
fueron 570584
ante 553484
San 552068
/ 547250
cuando 546439
primer 542679
Su 541293
1 534896
nombre 527259
tiene 521708
otros 519953
uno 515143
sin 507827
mismo 504087
población 502448
al@@ 496009
2 493554
tres 491787
vez 490338
eran 488524
gran 479695
puede 469502
&#93; 469092
&#91; 467656
Fue 467173
cual 465239
ano 460661
forma 456283
í@@ 452691
ido 448608
encuentra 444433
ar@@ 439893
ida 439360
ador 437999
c@@ 437182
aban 437168
ana 433594
muy 433295
así 433017
familia 431352
lugar 430737
da 425984
an@@ 424714
contra 423734
P@@ 420637
sido 417987
km 414857
A@@ 414250
Es 413496
to 412937
3 409429
es@@ 405613
ina 405310
equipo 395888
Estados 394881
p@@ 392224
ese 392090
siglo 391356
arse 390903
C@@ 386926
junto 386563
ente 383045
S@@ 381296
tiempo 380509
Unidos 378465
embargo 377752
con@@ 376751
L@@ 374652
The 372883
T@@ 371998
grupo 371511
han 369237
mayor 368584
idad 367281
bajo 364672
- 364625
ista 363744
estado 361217
ac@@ 361133
todo 358188
en@@ 357324
serie 356918
solo 350391
cada 349386
4 348348
ero 345593
España 345355
Universidad 344414
estaba 343724
quien 341115
ta 340607
De 340069
otras 339342
or@@ 337544
Nacional 334742
ad@@ 333020
ia 331709
do 330698
siendo 328829
También 328402
ción 326942
personas 326010
án 325834
ario 325634
o@@ 325450
municipio 324785
ían 324313
aunque 322096
mientras 321999
á@@ 319746
tras 317795
amente 317462
todos 317170
tanto 316380
Por 315432
vida 314095
nuevo 312585
adores 312522
Al 310723
M@@ 310316
temporada 309448
país 308991
as@@ 308763
O@@ 307634
ones 305658
t@@ 305168
hacia 304812
día 302399
entes 301981
final 301897
5 301580
io 298628
ica 296658
gobierno 295733
v@@ 293562
G@@ 291651
álbum 291588
si 290836
general 290575
mayo 290297
ella 289129
ico 288124
6 288017
E@@ 288000
Juan 287958
R@@ 287504
B@@ 287437
tuvo 287325
2010 287173
F@@ 287149
V@@ 286980
enero 286581
ó@@ 286260
marzo 286041
esa 285921
s@@ 284977
octubre 284740
encia 283992
septiembre 283882
D@@ 283469
di@@ 282734
Sin 282088
historia 281335
² 280859
película 280517
— 280512
julio 280373
total 280087
varios 279642
on@@ 279171
s 279128
10 279080
r@@ 278637
” 278023
cuatro 277816
“ 277700
el@@ 277616
l@@ 276292
junio 276091
N@@ 274353
Historia 273965
tenía 273699
él 273620
región 273338
sur 272983
at@@ 272813
&amp; 272450
diciembre 272001
partido 272001
ino 271161
er@@ 271036
habitantes 270993
abril 270191
Este 269419
agosto 269195
José 267759
d@@ 267422
idos 266182
obra 264885
especie 264550
número 264043
entonces 263777
debido 263045
u@@ 262097
g@@ 261871
car@@ 261843
noviembre 261163
ch@@ 261112
ex@@ 260829
f@@ 259749
er 259576
Durante 259168
b@@ 258684
algunos 258315
ab@@ 257365
mundo 256952
pueden 256915
río 255639
de@@ 254895
luego 253288
am@@ 253208
Al@@ 253011
Ar@@ 252784
amiento 250291
est@@ 250226
anos 250218
im@@ 249869
través 249635
estos 249141
n@@ 248457
qu@@ 247348
i@@ 246760
istas 246572
principal 246287
Con@@ 245420
además 245080
Según 244874
i 244702
sistema 244594
cu@@ 244336
su@@ 244067
e@@ 243893
norte 243494
ec@@ 243161
ismo 242726
tr@@ 241959
febrero 241866
banda 240879
Esta 239989
par@@ 239908
á 239881
or 239147
guerra 238151
agua 237870
of 236725
j@@ 236606
México 236102
ita 235525
otro 235360
les 234822
segundo 234285
20 234052
idas 233226
ic@@ 232842
ciones 232501
hizo 231969
7 230840
provincia 230672
siguiente 230503
per@@ 230013
trabajo 229593
aría 228565
tarde 228123
J@@ 227423
unos 227179
zona 226793
co@@ 226595
m 225850
endo 224746
ores 224361
ellos 224341
canción 223742
están 223657
cuenta 223119
Para 222102
ara 221694
partir 221554
8 221426
H@@ 221381
I 221288
icos 220026
segunda 220018
uso 219553
inter@@ 219242
ag@@ 219185
estadounidense 218215
presidente 217771
largo 217735
nacional 217106
Con 216564
aria 215650
in 215600
dentro 215263
Mar@@ 215237
Santa 214289
2011 214067
oso 214044
15 213942
pre@@ 213610
Nueva 213079
co 212649
I@@ 212357
is@@ 212103
conocido 211259
carrera 211022
osa 210302
Después 209900
muerte 209619
María 209424
Un 208840
Además 208539
ul@@ 208272
12 207884
ci@@ 207843
ol@@ 207803
eron 206852
ent@@ 206375
ti@@ 206172
centro 206049
cor@@ 205778
dio 205693
varias 205588
Una 205290
z@@ 205213
m@@ 205095
momento 204740
a@@ 204125
obras 203914
– 203913
ato 203281
ito 203203
Guerra 202849
género 202605
is 202553
arios 202154
ur@@ 202074
tipo 201991
ap@@ 201657
sub@@ 201495
on 201098
tos 200840
il@@ 200741
it@@ 200493
Mundial 200212
medio 200083
Desde 200005
Tras 198865
español 198429
poco 198221
época 198128
muchos 197911
grandes 197042
nueva 196504
hay 195895
estas 195606
hijo 195341
An@@ 195230
bien 195093
menos 194957
ín 194803
comenzó 194340
2012 193282
último 193174
título 193040
No 192544
ot@@ 192185
mayoría 192119
30 191839
misma 191742
com@@ 191355
otra 191114
0 190979
eta 190886
hace 190864
eros 190005
según 189935
et@@ 189862
rey 189081
2014 188102
días 188100
importante 188095
icas 187994
aje 187954
cerca 187746
2015 187693
ir@@ 187024
música 186993
padre 186984
esto 186366
ías 186337
Entre 186226
tienen 185974
h@@ 185954
casa 185952
2008 185878
poder 185320
almente 185253
diferentes 185055
manera 184661
2016 184373
és 184237
localidad 183797
Car@@ 183676
Madrid 183572
frente 183556
2013 183538
9 183433
ándose 183217
os@@ 182833
us 182697
caso 182393
ca 182337
línea 181869
producción 181559
Estado 181549
Carlos 181274
mejor 181175
ir 181090
hecho 180944
nivel 180915
lado 180758
Francia 180380
2009 180363
primeros 180191
edad 180047
16 179555
millones 179479
política 179477
18 178645
u 178029
2007 177960
Z@@ 177929
un@@ 177835
programa 177589
av@@ 177461
vi@@ 177011
República 176764
Argentina 176761
pueblo 176755
11 176607
za 176548
rec@@ 176371
oc@@ 176120
the 175584
convirtió 175480
ro@@ 175422
2000 175393
llamado 174717
II 174321
versión 174202
K@@ 173610
ejemplo 173466
le@@ 173332
om@@ 172947
ares 172807
puesto 172326
Ch@@ 172233
af@@ 172109
metros 171529
haber 171505
In@@ 171478
U@@ 171041
cargo 170993
tico 170982
das 170860
illa 170613
algunas 170442
mar@@ 170357
tan 169468
cinco 169424
res@@ 169414
distrito 169223
í 169206
veces 168981
Como 168945
va 168844
14 168616
ona 168494
inas 167834
2006 167652
able 167647
25 167490
todas 166859
13 166787
2018 166545
capital 166231
club 165975
miembros 165701
ología 165438
cuales 165339
década 165320
finales 165082
ata 165060
desarrollo 164687
17 164514
habían 164034
punto 163915
mujeres 163611
col@@ 163133
partidos 161506
construcción 161272
hacer 161130
tica 160838
Biografía 160477
Luis 160466
az@@ 160389
ri@@ 160322
19 160229
bi@@ 160119
orden 159957
us@@ 159819
2017 159609
pesar 159390
base 159213
y@@ 159063
director 158914
Com@@ 158867
actual 158726
dis@@ 158455
id@@ 157895
ubicado 157119
ena 156792
estudio 156563
ley 156376
pr@@ 156151
d 155953
siguientes 155918
toda 155906
adora 155867
br@@ 155696
mon@@ 155670
Francisco 155553
especies 155414
principales 155334
estudios 154752
casi 154506
Y@@ 153799
Europa 153785
miembro 153415
ello 153153
ora 153055
Chile 152686
juego 152408
En@@ 152350
Copa 152016
inglés 151589
condado 151431
2019 151146
llegó 151049
éxito 151009
fútbol 150976
posición 150925
proyecto 150819
ura 150717
hombres 150586
área 150363
acuerdo 150269
ven@@ 150207
Cuando 150093
Campeonato 150044
Re@@ 148756
puntos 148570
mediante 148440
inos 148176
tener 148046
op@@ 147992
na 147930
ed@@ 147460
países 147460
cualquier 147383
televisión 146890
estilo 146676
Club 146385
ja 146233
cal@@ 146124
2005 146044
_ 145634
24 145586
li@@ 145540
fuera 145137
cre@@ 144546
conocida 144494
Partido 143881
aj@@ 143797
tierra 143735
ú@@ 143399
em@@ 143330
oro 143239
21 143118
C. 142972
isla 142659
gu@@ 142311
origen 141778
po@@ 141602
libro 141592
super@@ 140861
te@@ 140857
eo 140769
York 140528
equipos 140119
22 139241
militar 139199
papel 138981
anas 138704
porque 138388
$ 138107
recibió 138071
Cor@@ 137735
pi@@ 137028
edificio 136465
ver@@ 136127
Antonio 135833
pas@@ 135757
Alemania 135413
ñ@@ 135276
ant@@ 135210
color 135199
ni 134917
Pedro 134901
grupos 134825
oeste 134804
estación 134588
enta 134285
relación 134247
te 134021
Sus 133916
Real 133543
fin 133376
alrededor 133047
2020 133043
última 133028
ento 132868
estuvo 132762
ob@@ 132757
Gran 132498
C 132414
edición 132377
encuentran 132370
2004 132318
contr@@ 132230
23 132088
et 132067
oficial 132039
ambos 131856
proceso 131492
can@@ 130910
principalmente 130846
elecciones 130701
and@@ 130589
público 130379
superficie 130301
mar 130194
iglesia 130078
W@@ 130073
canciones 130014
ea 129762
División 129619
pl@@ 129582
General 129290
ganó 129080
ter@@ 129024
principios 128985
and 128969
mucho 128901
empresa 128869
Bar@@ 128753
servicio 128641
incluso 128582
estaban 128476
enc@@ 128461
fr@@ 128381
estar 128367
ra 128282
territorio 128165
cambio 127928
eras 127371
idades 127083
disco 127069
meses 127002
cas@@ 126921
sería 126826
importantes 126761
sino 126669
arte 126649
du@@ 126546
ver 126519
llamada 126488
é@@ 126432
ela 126212
Reino 126120
jo 126060
l 126003
z 125825
é 124628
cabo 124611
sal@@ 124175
propio 124085
reg@@ 123961
pasó 123904
político 123886
América 123785
seis 123709
Mon@@ 123657
gr@@ 123627
Tr@@ 123359
B 122878
Unión 122853
internacional 122840
campo 122673
ejército 122539
Es@@ 122311
ota 122226
finalmente 122217
tor@@ 122163
ma 122057
pos@@ 122022
º 121863
término 121800
muchas 121716
bar@@ 121630
encias 121464
original 121196
eg@@ 121164
amp 121157
Primera 120881
trans@@ 120777
Liga 120756
medios 120751
densidad 120616
Norte 120610
musical 120161
Segunda 119993
Per@@ 119806
man 119725
Buenos 119507
28 119502
conjunto 119328
cuerpo 118895
.@@ 118774
arias 118746
hu@@ 118715
unas 118639
debe 118581
Aires 118435
John 118190
sede 118164
Par@@ 117780
siempre 117700
100 117504
departamento 117174
to@@ 116968
des 116529
Internacional 116445
Col@@ 116345
francés 116344
27 116257
madre 116073
tal 115968
movimiento 115924
2003 115899
obtuvo 115834
Aunque 115780
sólo 115773
ig@@ 115724
dec@@ 115633
° 115553
26 115282
Manuel 115165
resto 115123
compañía 115104
ería 115083
n 115019
posteriormente 114850
mujer 114803
ense 114748
Gu@@ 114708
Sur 114400
arr@@ 114218
entos 114040
lista 113837
Or@@ 113817
hijos 113768
esp@@ 113703
illo 113543
Iglesia 113456
alto 113381
ará 113379
realizó 113282
Italia 113127
primero 113106
categoría 112981
osos 112834
man@@ 112698
mes 112592
ellas 112493
nombrado 112471
cer@@ 112454
igual 112231
Esto 112093
central 111977
aún 111862
Cu@@ 111691
sa 111462
especialmente 111335
eto 111275
tores 110778
2001 110717
anterior 110509
ativa 110489
t 110398
dice 110342
Co@@ 110275
fuerzas 110273
social 110242
publicado 110111
sí 110085
hija 110022
alta 109914
local 109876
Ciudad 109851
hoy 109645
española 109330
único 109329
organización 109311
formación 109247
um 109058
atr@@ 108886
cha 108797
ubicada 108487
acción 108403
2002 108371
batalla 108328
media 108301
Barcelona 107942
resultado 107888
pres@@ 107869
ama 107868
censo 107838
ati@@ 107749
Instituto 107693
ay@@ 107653
período 107632
hermano 107624
dirección 107576
x@@ 107552
control 107539
án@@ 107354
um@@ 107055
Santiago 106994
París 106845
jugador 106676
estr@@ 106665
inc@@ 106655
incluyendo 106508
vol@@ 106282
medi@@ 106262
profesional 106183
agu@@ 106100
ión 105968
escuela 105327
sencillo 105309
Geografía 105249
tema 105240
investigación 104706
alización 104506
revista 104348
-@@ 104155
Man@@ 104094
O 104002
x 103955
hombre 103809
ru@@ 103763
As@@ 103758
ables 103740
ro 103704
ov@@ 103645
modo 103272
1990 103140
29 103106
fecha 102985
torneo 102896
ancia 102862
llegar 102786
paso 102727
mal@@ 102692
2021 102535
mo@@ 102470
Est@@ 102379
ativo 102348
end@@ 102082
der 102027
Le@@ 101996
! 101599
antiguo 101525
der@@ 101439
actividad 101400
apoyo 101391
Juegos 101374
tu@@ 101347
ev@@ 101320
50 101249
1999 101149
formula 101051
datos 101031
lo@@ 100954
sea 100754
francesa 100717
min@@ 100508
actualmente 100486
llevó 100413
nació 100406
decir 100276
mor@@ 100238
... 99929
alidad 99825
Perú 99735
popular 99685
osas 99554
ahora 99426
modelo 99376
espacio 99337
comunidad 99331
gen@@ 99271
superior 99256
Qu@@ 99101
pues 98985
Luego 98801
servicios 98752
derecho 98721
bal@@ 98590
Miguel 98453
ativas 98423
eso 98362
ática 98321
aparece 98318
personal 98041
ciudades 97991
elegido 97950
joven 97938
Cas@@ 97898
problemas 97887
Mor@@ 97553
bas@@ 97444
etas 97410
participó 97394
tas 97374
Cal@@ 97233
si@@ 97161
situada 97024
interior 96977
autor 96853
posible 96686
of@@ 96669
vo 96652
creación 96524
nos 96402
cine 96388
personaje 96010
información 95930
sol@@ 95921
Si 95740
iz@@ 95678
at 95651
Centro 95587
no@@ 95562
Gobierno 95548
k@@ 95448
primeras 95438
Des@@ 95362
Te@@ 95247
propia 95028
única 94985
Museo 94888
Unido 94885
ari@@ 94831
capacidad 94804
diseño 94755
tras@@ 94712
menor 94696
cantante 94630
anunció 94412
itos 94412
logró 94377
Río 94340
ce 94243
aproximadamente 94207
ten@@ 94173
ío 93921
ios 93760
re 93725
dijo 93612
ónica 93530
Consejo 93319
victoria 93130
Am@@ 93080
rom@@ 93020
Premio 92961
Val@@ 92943
Escuela 92931
situación 92616
casos 92610
ña 92601
real 92557
nunca 92471
1998 92426
Inglaterra 92424
anti@@ 92414
ala 92329
Demografía 92328
objetivo 92315
calle 92214
mat@@ 92205
publicó 92149
Más 92146
nuevos 92139
natural 92102
dar 91814
Japón 91791
ticos 91598
temas 91573
dado 91520
Brasil 91488
común 91390
alemán 91385
pe@@ 91275
Pero 91267
ne@@ 91202
El@@ 91200
allí 91182
ve 91166
volvió 90861
cantidad 90739
Colombia 90598
partes 90549
tenían 90512
principio 90455
China 90444
h 90442
especial 90185
tercer 90081
000 90043
r 89974
división 89879
pequeño 89835
cultura 89813
k 89702
trata 89579
elementos 89538
III 89531
oper@@ 89402
Ejército 89382
diversos 89350
últimos 89294
1980 89285
decidió 89280
0.@@ 89260
estructura 89136
Londres 89079
ín@@ 88977
Está 88917
ni@@ 88875
escribió 88712
cur@@ 88615
periodo 88610
ticas 88577
fuerza 88366
selección 88288
campaña 88278
altura 88229
Distribución 88114
muestra 88114
c 87978
ol 87937
actor 87795
derechos 87715
grande 87691
Fernando 87679
situado 87653
esposa 87638
mer@@ 87546
tropas 87504
antigua 87475
actividades 87434
31 87392
sin@@ 87372
planta 87353
1996 87309
ativos 87203
tivo 87110
ér@@ 86952
tur@@ 86949
participación 86909
ocho 86895
atos 86841
De@@ 86761
og@@ 86747
od@@ 86557
X 86501
pel@@ 86487
presencia 86422
entr@@ 86381
Así 86294
zonas 86294
incluye 86223
nuevas 86080
ber@@ 85783
Ber@@ 85649
Sh@@ 85551
Pr@@ 85487
Y 85475
ez 85448
fer@@ 85411
libre 85361
Censo 85115
Di@@ 85078
longitud 84990
V 84980
1997 84977
for@@ 84946
tiva 84941
Su@@ 84894
X@@ 84848
ajes 84833
clase 84789
sitio 84784
g 84764
grado 84755
vía 84735
0,@@ 84633
40 84621
tar@@ 84574
mu@@ 84556
dicho 84442
profesor 84371
1995 84345
Carrera 84315
mo 84262
películas 84214
algo 84161
cel@@ 84063
aca 83975
arlo 83964
so 83933
compuesto 83932
comuna 83673
ali@@ 83617
siete 83579
1992 83544
se@@ 83492
zo 83483
ár@@ 83407
esc@@ 83376
novela 83263
so@@ 83234
amos 83221
sum@@ 83154
causa 83132
qui@@ 83068
tercera 83034
dr@@ 83018
Esp@@ 82867
jefe 82789
teatro 82650
ye 82476
persona 82409
imagen 82378
costa 82303
referencia 82280
sociedad 82269
ayuda 82248
fal@@ 82247
campeón 82238
cant@@ 82140
cuyo 82089
N 82067
XIX 81964
ser@@ 81856
1994 81834
alismo 81793
California 81748
tamaño 81656
sión 81579
quienes 81519
her@@ 81488
mitad 81377
ola 81366
personajes 81313
cos 81296
fuerte 81275
noche 81269
lucha 81218
menudo 81200
Her@@ 81095
= 81093
au@@ 81041
pu@@ 80942
similar 80845
perteneciente 80537
Estos 80491
matrimonio 80464
León 80432
ª 80408
podría 80400
niños 80319
Sal@@ 80300
1.@@ 80299
gracias 80231
pudo 80195
luz 80153
Mientras 80152
ici@@ 80071
prueba 80035
mercado 80010
Central 79980
vio 79943
realizar 79883
fi@@ 79864
tales 79819
pequeña 79730
Ac@@ 79699
ocasiones 79699
D 79685
oma 79591
quedó 79454
1970 79394
mediados 79267
Imperio 79260
Posteriormente 79223
ins@@ 79174
bo@@ 79139
Ver@@ 79136
diversas 79068
má@@ 79019
presenta 78974
ua 78887
Br@@ 78880
E 78841
Ex@@ 78707
eno 78684
García 78653
libros 78602
medida 78595
sobre@@ 78504
actualidad 78467
XX 78447
ist@@ 78420
Gr@@ 78224
Tor@@ 78202
1991 78180
acciones 78107
premio 78096
interés 77926
función 77907
cri@@ 77856
educación 77841
aña 77732
idea 77686
Actualmente 77651
mano 77646
lleva 77572
Tiene 77561
me 77533
razas 77285
plantas 77281
artistas 77275
diferencia 77220
Fútbol 77199
ministro 77108
ell@@ 76849
mando 76825
uc@@ 76820
trabajos 76741
Venezuela 76675
do@@ 76645
gt 76584
episodio 76514
ae 76461
Ha 76405
mundial 76384
David 76367
én 76362
pal@@ 76263
Congreso 76189
cm 76095
etapa 76068
am 76016
murió 76007
go 75953
Vi@@ 75947
leg@@ 75919
horas 75889
Cruz 75798
lanzado 75752
Roma 75730
centr@@ 75623
1993 75612
imiento 75587
Ab@@ 75573
pat@@ 75527
pen@@ 75511
medalla 75461
inf@@ 75326
jugó 75285
gobernador 75256
den 75240
Festival 75217
compr@@ 75160
aire 74998
ase 74895
itas 74798
mejores 74795
ing 74716
mas@@ 74714
ete 74590
usa 74580
energía 74559
honor 74472
Gal@@ 74413
ataque 74366
adi@@ 74339
Hu@@ 74307
geográfica 74306
cuya 74082
illas 73998
Oficina 73989
L 73912
red 73911
Rusia 73871
gira 73836
valor 73754
cio 73676
mi@@ 73632
cion@@ 73542
Bal@@ 73520
defensa 73504
permite 73470
gan@@ 73364
canal 73322
presentó 73299
ill@@ 73246
amientos 73212
’ 73168
cabeza 73167
características 73144
lugares 73073
pro@@ 73064
gener@@ 72971
Del 72959
plaza 72923
pol@@ 72918
dirigida 72912
relaciones 72896
influencia 72890
kilómetros 72890
actriz 72871
baja 72866
lt 72855
tor 72752
ah@@ 72729
barrio 72710
formar 72685
fase 72623
significa 72519
Academia 72490
Pro@@ 72479
one 72424
ác@@ 72257
armas 72177
ad 72171
ático 72135
propiedad 72104
Inter@@ 72094
frontera 72082
ga 72076
bu@@ 71996
ba 71969
mil@@ 71824
cho 71736
S 71734
distancia 71724
Ma@@ 71715
importancia 71642
incluyen 71620
dejó 71546
ño 71449
añ@@ 71419
jas 71382
formó 71334
1989 71233
Casa 71184
Pi@@ 71138
etc. 71119
verano 71037
Tierra 71002
tierras 70994
ang@@ 70981
jugadores 70960
ate 70957
Bel@@ 70946
material 70869
cl@@ 70849
b 70791
Jorge 70744
diez 70736
ing@@ 70713
vista 70643
inició 70601
trabajó 70551
dic@@ 70429
camino 70424
respecto 70407
terminó 70314
ieron 70306
ens@@ 70204
sociales 70179
tes 70064
dicha 70059
port@@ 70017
sector 69972
New 69959
+ 69858
Mal@@ 69790
condiciones 69790
tir@@ 69760
generalmente 69737
comercial 69736
mil 69710
rel@@ 69617
Se@@ 69578
tura 69540
&#124; 69535
debut 69533
ba@@ 69470
ú 69450
esas 69414
ira 69395
Saint 69384
minutos 69374
carácter 69285
1960 69270
entrada 69232
calidad 69222
liga 69204
aguas 69129
campeonato 69125
sigue 69125
cr@@ 68966
aga 68963
blanco 68920
sistemas 68915
acto 68899
Cr@@ 68883
R 68854
escritor 68819
ran@@ 68801
considerado 68637
locales 68487
irse 68415
mm 68358
ep@@ 68282
Po@@ 68277
goles 68202
be@@ 68185
manos 68172
acceso 68111
pasado 68101
combate 68096
ut@@ 67937
ológico 67923
ización 67831
Cer@@ 67824
60 67737
unidades 67727
dieron 67664
parque 67599
presión 67590
lanzó 67568
ay 67545
ach@@ 67544
rock 67531
Can@@ 67523
trabajar 67515
artista 67473
én@@ 67364
productos 67352
dem@@ 67351
marca 67344
todavía 67320
eng@@ 67276
semana 67262
p 67197
tar 67124
juegos 67084
seguridad 67021
Algunos 67010
Mo@@ 66987
sentido 66857
realidad 66848
san@@ 66774
militares 66762
van 66687
consiguió 66662
ila 66659
municipal 66575
Australia 66566
vas 66465
nuevamente 66440
fines 66400
crear 66398
apareció 66238
ge@@ 66238
all@@ 66164
ai 66051
nacionales 66049
descrita 66030
có 65958
For@@ 65935
radio 65848
1988 65831
M 65826
Ley 65812
Enrique 65796
tom@@ 65764
coordenadas 65757
pública 65741
humanos 65713
acu@@ 65698
civil 65645
Martín 65635
creó 65605
voz 65467
eles 65463
India 65440
neg@@ 65429
Ro@@ 65393
líder 65366
Rec@@ 65321
administr@@ 65310
americano 65295
Grupo 65211
contrato 65176
Sol@@ 65131
? 65100
tri@@ 65098
eza 65080
restos 65070
ición 65058
versiones 65049
formas 65018
áreas 64985
lanzamiento 64958
produjo 64904
lam@@ 64865
ie 64854
empezó 64800
cambios 64732
conoce 64729
ambas 64657
jos 64563
empresas 64528
Pablo 64461
por@@ 64315
Lo@@ 64310
don@@ 64309
fil@@ 64280
Ser@@ 64273
éndose 64261
cat@@ 64188
enci@@ 64186
anc@@ 64151
Asociación 64116
realizado 64115
bol@@ 64112
cantón 64111
escrito 64108
italiano 64096
Jesús 64080
Puerto 64074
programas 64005
ton 63994
teoría 63990
iendo 63978
jóvenes 63973
1985 63940
islas 63932
Costa 63892
encontrar 63879
San@@ 63698
ka 63668
1987 63622
liber@@ 63620
cuarto 63615
utiliza 63615
velocidad 63609
1986 63567
IV 63542
mayores 63540
Ministerio 63492
numerosos 63473
del@@ 63417
eb@@ 63405
cultural 63235
80 63111
estudi@@ 63080
vuelta 63046
tivos 63043
espec@@ 63003
tra@@ 62979
il 62962
st@@ 62910
Debido 62846
obtener 62791
formado 62693
Pacífico 62683
creado 62622
comienza 62619
2@@ 62576
Descripción 62552
lengua 62514
iro 62483
Mat@@ 62454
cul@@ 62450
mol@@ 62440
anza 62439
dan 62353
Finalmente 62337
prec@@ 62297
Castilla 62096
amor 62082
plata 62070
cab@@ 62020
esti@@ 61927
figura 61911
alista 61809
hermanos 61809
favor 61806
existe 61782
elo 61781
industria 61776
idae 61757
comunicación 61712
padres 61641
cit@@ 61599
particular 61522
etes 61498
líneas 61491
lu@@ 61463
posee 61442
resultados 61405
ningún 61328
Estas 61311
ini 61270
utilizado 61229
Presidente 61099
pueblos 61085
soldados 61082
extr@@ 61073
administración 61023
observ@@ 60920
1984 60818
Teatro 60784
1982 60767
edi@@ 60756
gente 60753
blancos 60748
anteriores 60714
tuvieron 60681
tí@@ 60643
vas@@ 60516
África 60499
López 60473
dólares 60468
texto 60468
ias 60460
construido 60399
cont@@ 60384
misión 60373
ingresos 60366
1983 60362
ección 60362
internacionales 60357
estim@@ 60354
prim@@ 60344
histórico 60304
iones 60281
unidad 60141
200 60135
pequeños 60132
considera 60073
Cam@@ 60015
oficiales 60014
falta 59916
inicio 59901
ao 59886
jugar 59869
parece 59867
tera 59794
Hay 59777
posterior 59744
ológica 59703
T 59701
evento 59633
di 59623
sección 59611
contiene 59578
Vill@@ 59572
evitar 59522
animales 59425
motor 59282
podía 59279
sur@@ 59266
tamente 59183
auto@@ 59164
Le 59151
viaje 59128
hab@@ 59089
orio 59086
coloc@@ 59084
raza 59058
che 58944
me@@ 58943
bronce 58934
mi 58914
elección 58876
Dios 58796
argentino 58777
británico 58771
palabra 58759
poblacional 58679
ra@@ 58672
Sociedad 58638
suelo 58442
oblig@@ 58405
bor@@ 58335
aran 58302
tipos 58288
esper@@ 58269
madera 58199
demás 58147
Pas@@ 58135
James 58126
aci@@ 58087
apo@@ 58015
presente 58013
existen 58005
cá@@ 57960
2.@@ 57900
cost@@ 57888
gal@@ 57884
buena 57846
efecto 57830
ti 57802
gol 57792
aco 57784
ál@@ 57779
present@@ 57747
ólogo 57734
crítica 57719
estados 57680
salud 57649
distribu@@ 57522
Er@@ 57512
cómo 57496
economía 57476
Valencia 57454
ef@@ 57452
pocos 57439
piedra 57434
tradicional 57434
funciones 57414
Fr@@ 57336
unió 57320
cuanto 57289
encontraba 57287
constitu@@ 57260
jug@@ 57256
Bo@@ 57225
políticas 57194
existencia 57178
izquierda 57165
ue 57158
edificios 57157
loc@@ 57136
ór@@ 57071
políticos 57057
ind@@ 57056
Otros 57053
anta 57033
Trayectoria 56981
prepar@@ 56981
gar@@ 56930
palabras 56920
aya 56915
cara 56890
tro 56888
domin@@ 56849
puerto 56818
puestos 56793
nacido 56768
conven@@ 56747
llegada 56701
familias 56684
acompañ@@ 56652
ez@@ 56636
representa 56634
1979 56616
Ur@@ 56612
temporadas 56591
alcanzó 56587
ninguna 56580
ej@@ 56562
castillo 56561
templo 56556
form@@ 56554
occidental 56545
obispo 56525
det@@ 56516
bur@@ 56482
mantuvo 56462
ema 56440
aves 56437
val@@ 56421
aqu@@ 56407
numerosas 56406
Canadá 56398
completo 56374
70 56311
regiones 56309
tomó 56296
González 56251
haciendo 56237
F 56236
Comisión 56187
1976 56177
atención 56121
tradición 56103
Be@@ 56093
eses 56085
90 56072
torno 56044
será 55991
integr@@ 55978
oficialmente 55966
aquel 55959
colección 55952
Felipe 55938
amb@@ 55835
influ@@ 55808
ganar 55804
crecimiento 55802
hall@@ 55799
Santo 55792
llev@@ 55767
Selección 55756
Córdoba 55734
az 55725
Olímpicos 55723
eña 55723
aza 55717
policía 55717
cons@@ 55710
sac@@ 55703
fic@@ 55648
ivo 55643
españoles 55558
Artes 55557
Pan@@ 55502
imientos 55420
inform@@ 55419
gi@@ 55401
ografía 55390
referirse 55384
Men@@ 55321
pruebas 55309
independiente 55259
áticos 55243
icio 55230
adoras 55221
Un@@ 55128
1950 55127
pan@@ 55103
alcanzar 55043
Bor@@ 55028
William 55014
pa 55010
casas 54926
isa 54923
hicieron 54920
ronda 54911
económica 54871
clasificación 54856
10@@ 54842
determin@@ 54834
Ter@@ 54784
taron 54784
uras 54768
dir 54761
cin@@ 54750
dur@@ 54735
emple@@ 54724
be 54715
directamente 54712
1978 54708
conserv@@ 54657
ta@@ 54653
rev@@ 54649
son@@ 54634
probablemente 54623
prop@@ 54622
ne 54621
distintos 54589
Gar@@ 54587
not@@ 54573
Pal@@ 54545
asa 54542
sem@@ 54500
den@@ 54482
1973 54457
arían 54453
Cat@@ 54427
votos 54398
artículo 54396
fac@@ 54387
St@@ 54381
prot@@ 54381
emperador 54365
Paul 54364
per 54356
hor@@ 54351
ayo 54342
Departamento 54330
Robert 54330
continuó 54315
1981 54314
práctica 54307
entrenador 54250
pasar 54242
Em@@ 54198
3@@ 54196
toma 54186
proyectos 54176
compar@@ 54173
derecha 54141
negro 54120
transporte 54120
estudiantes 54107
bot@@ 54106
FC 54066
obstante 54042
casó 54026
viol@@ 54019
fuente 53973
Vida 53936
ilo 53902
futbolista 53832
Don 53816
atorio 53815
Provincia 53740
ines 53735
tiempos 53682
curso 53619
dinero 53610
organiz@@ 53594
gobern@@ 53581
carretera 53566
sab@@ 53564
1975 53525
fuentes 53444
gas 53441
plan@@ 53376
amigo 53375
pes@@ 53369
Mer@@ 53352
So@@ 53322
Ciencias 53318
hubo 53302
ónico 53294
pon@@ 53217
aro 53213
ped@@ 53199
fondo 53191
Virgen 53181
algún 53176
web 53173
qué 53152
eca 53139
ju@@ 53139
lin@@ 53132
Rey 53124
P 53059
declaró 53047
educ@@ 53047
Ad@@ 53029
vir@@ 53021
ret@@ 53014
esos 52991
eci@@ 52962
termin@@ 52961
Diego 52954
tic@@ 52931
Por@@ 52887
ística 52873
escena 52862
realiza 52851
estableció 52830
gran@@ 52755
autoridades 52750
colabor@@ 52716
orden@@ 52685
fin@@ 52679
doble 52620
emos 52564
pequeñas 52517
plan 52512
regresó 52482
fundó 52470
4@@ 52467
Fernández 52449
bat@@ 52416
autores 52412
Rodríguez 52410
tel@@ 52400
alguna 52394
títulos 52394
dor@@ 52359
produce 52353
tal@@ 52323
mand@@ 52306
ular 52290
ib@@ 52289
ego 52276
ende 52272
Ne@@ 52250
Cl@@ 52243
tenido 52226
denomin@@ 52205
ide@@ 52195
ers 52161
ex 52138
atoria 52132
lago 52116
signific@@ 52093
distribución 52087
1977 52079
pe 52065
tem@@ 52057
icamente 51992
Orden 51982
celebr@@ 51981
mantener 51918
análisis 51908
cru@@ 51905
decisión 51894
aliz@@ 51883
Distrito 51817
consider@@ 51811
escrita 51789
hermana 51767
trat@@ 51760
objeto 51735
ey 51688
George 51678
efectos 51656
valle 51654
distintas 51597
publicación 51568
produc@@ 51551
cap@@ 51544
dirigido 51542
nada 51527
eño 51513
segu@@ 51498
naturaleza 51489
Bu@@ 51470
lanz@@ 51469
disput@@ 51466
pul@@ 51393
incorpor@@ 51380
dido 51364
atac@@ 51347
futuro 51341
ote 51321
act@@ 51320
cadena 51266
originalmente 51265
500 51254
men@@ 51246
llega 51194
Bi@@ 51185
1974 51143
siglos 51135
vac@@ 51095
consecuencia 51088
hab 51078
Cre@@ 51064
larga 51060
radi@@ 50947
construir 50918
fundada 50913
Mas@@ 50887
dia 50875
A. 50851
isión 50849
mad@@ 50831
enfermedad 50819
problema 50813
literatura 50783
continu@@ 50713
Nuevo 50675
defin@@ 50640
ani 50637
prom@@ 50631
habit@@ 50615
Era 50595
Alfonso 50575
conde 50572
libertad 50565
ruso 50545
siguió 50522
ques 50509
abr@@ 50486
imágenes 50477
Federación 50447
recursos 50441
artículos 50394
inici@@ 50393
Ri@@ 50390
pintura 50358
expres@@ 50338
chas 50333
1972 50311
var@@ 50295
Pol@@ 50265
tomar 50263
experiencia 50262
sola 50259
clima 50255
Villa 50253
asi@@ 50248
aparición 50240
técnica 50212
tó 50208
variedad 50167
Á@@ 50133
bastante 50113
verde 50111
jer@@ 50090
exterior 50088
concepto 50004
rápidamente 50001
til@@ 49976
elimin@@ 49970
f 49956
pur@@ 49952
modific@@ 49922
nombres 49900
ece 49885
perdió 49852
arquitectura 49848
v 49840
permitió 49827
1968 49821
Mc@@ 49791
adop@@ 49770
serv@@ 49770
sonido 49768
Educación 49740
fundado 49730
oto 49712
Jean 49707
visión 49662
dad 49660
Ros@@ 49587
capitán 49537
peso 49465
actuación 49449
Portugal 49391
ampli@@ 49377
corte 49364
Alberto 49335
encuentro 49310
enas 49226
salida 49224
bio 49196
corresponden 49178
reino 49148
inferior 49140
Ni@@ 49127
eventos 49064
generación 49056
sel@@ 49044
mis@@ 49010
fundación 48976
Az@@ 48970
operaciones 48968
crisis 48966
Pre@@ 48957
universidad 48944
isi@@ 48922
titular 48917
XVIII 48915
Ger@@ 48910
Ese 48906
Lo 48882
vari@@ 48870
Mad@@ 48863
ed 48841
Pérez 48827
independencia 48813
semanas 48801
und@@ 48777
Ángeles 48754
edit@@ 48745
especi@@ 48733
World 48712
Ti@@ 48694
ch 48643
Popular 48642
Mi@@ 48615
conocidos 48611
productor 48611
Ben@@ 48609
clases 48599
vos 48593
contaba 48576
griego 48569
par 48568
mes@@ 48536
Cur@@ 48510
debajo 48509
Mac@@ 48488
ine 48453
estadio 48412
lar@@ 48400
razón 48379
sh@@ 48375
35 48365
derrota 48346
enti@@ 48323
Salvador 48314
venta 48313
máxima 48276
U 48260
llam@@ 48240
Son 48236
favor@@ 48226
1,@@ 48224
fuego 48188
cam@@ 48175
respuesta 48169
Dos 48143
mit@@ 48135
w@@ 48127
TV 48109
Uruguay 48101
Tur@@ 48098
reconocimiento 48074
gestión 48070
representación 48047
ard@@ 48033
puesta 48030
Reg@@ 48019
puso 48005
Lima 47946
Valle 47930
emp@@ 47917
onal 47909
salv@@ 47898
altitud 47883
dej@@ 47876
deben 47831
ima 47798
cosas 47778
exten@@ 47757
Radio 47740
Lu@@ 47738
represent@@ 47729
th@@ 47729
máximo 47712
escu@@ 47704
firme 47697
ánica 47696
vivo 47688
comercio 47653
1969 47627
participar 47613
llevar 47611
ras@@ 47605
ell 47566
1930 47481
Mag@@ 47462
siones 47447
antiguos 47442
indic@@ 47430
med@@ 47382
Sevilla 47324
Pres@@ 47321
oni@@ 47265
dirigió 47241
piezas 47232
afect@@ 47231
uta 47228
ca@@ 47224
Li@@ 47217
Palacio 47202
ió 47167
mal 47158
adelante 47153
registr@@ 47120
nueve 47113
completamente 47104
pareja 47074
acerca 47044
Rafael 47010
trasladó 46996
imp@@ 46973
def@@ 46945
ciencia 46934
producto 46912
arla 46904
amento 46889
puente 46852
Civil 46826
ética 46821
colaboración 46769
Th@@ 46756
fundador 46754
asc@@ 46752
abilidad 46747
aquellos 46745
actu@@ 46744
promedio 46743
Michael 46719
regreso 46686
fall@@ 46677
Asia 46673
comenzaron 46664
fir@@ 46662
ecto 46659
turas 46652
composición 46645
anteriormente 46637
Camp@@ 46605
fot@@ 46595
iles 46577
términos 46577
ás 46559
1940 46531
caus@@ 46510
municipios 46494
ud@@ 46479
establec@@ 46476
ental 46474
ulares 46469
materiales 46458
museo 46431
oras 46430
ros@@ 46422
Av@@ 46416
Parque 46414
firma 46413
hi@@ 46411
activ@@ 46383
metro 46380
óp@@ 46371
actos 46367
áticas 46366
diario 46347
Dis@@ 46330
flores 46318
XVI 46307
respectivamente 46285
conduc@@ 46251
fabric@@ 46230
azo 46217
1971 46214
llegaron 46197
amigos 46150
candidato 46117
alcalde 46115
video 46108
oriental 46105
temperatura 46104
dió 46100
conocer 46092
ur 46089
prensa 46077
pasa 46045
villa 46022
Comité 46021
entró 46020
je 46012
Records 45947
ler@@ 45923
onia 45906
comp@@ 45899
8@@ 45897
pos 45893
conflicto 45871
hom@@ 45858
go@@ 45855
periodista 45813
musicales 45810
objetos 45808
É@@ 45782
culo 45755
titulado 45718
inst@@ 45698
juega 45691
it 45689
iba 45684
1945 45680
Plaza 45675
conocimiento 45662
Federal 45661
Martínez 45657
orr@@ 45652
illos 45646
torre 45636
Sab@@ 45627
Características 45621
extremo 45621
hora 45602
arc@@ 45569
lleg@@ 45569
mismos 45542
motivo 45532
listas 45490
ecer 45476
generales 45466
pronto 45456
Tri@@ 45454
hacen 45445
1967 45438
creada 45431
pin@@ 45429
mos 45375
Eduardo 45367
Constitución 45363
Estadio 45344
City 45343
modelos 45331
continuación 45300
traslad@@ 45298
posteriores 45287
rojo 45284
Chi@@ 45264
unión 45228
Bur@@ 45182
Municipio 45163
ext@@ 45150
lig@@ 45148
volver 45148
extensión 45126
menores 45122
conquist@@ 45118
Sol 45113
vino 45077
igu@@ 45068
rango 45051
paz 45042
niveles 45025
uro 45008
noroeste 45004
mostr@@ 44983
vivir 44982
forman 44964
1@@ 44938
Washington 44936
construyó 44935
1936 44915
emb@@ 44915
calles 44870
Colegio 44855
régimen 44850
oposición 44840
Asamblea 44822
adamente 44738
Española 44727
ak@@ 44717
incluido 44696
Austria 44675
vec@@ 44666
alizado 44641
Tour 44610
decide 44608
protección 44599
separ@@ 44585
hojas 44563
ónimo 44555
League 44536
ban@@ 44529
parti@@ 44501
Plata 44496
premios 44476
ón@@ 44473
llama 44457
H 44452
institución 44432
Mar 44369
inicialmente 44367
estrella 44346
aut@@ 44334
iva 44333
frecuencia 44294
sim@@ 44290
basada 44288
cierto 44288
D. 44280
Arte 44255
tadas 44227
ruta 44212
if@@ 44202
ecimiento 44186
llegando 44181
von 44176
amar@@ 44157
ganado 44122
alemana 44120
Ecuador 44078
rum@@ 44077
acion 44075
control@@ 44057
Alejandro 44049
Charles 44038
compositor 44036
conten@@ 44015
contenido 44005
Pin@@ 43976
hogar 43965
producido 43957
Mil@@ 43944
Ju@@ 43942
Mel@@ 43933
firmó 43927
til 43920
clubes 43911
1964 43904
có@@ 43872
aviones 43855
carga 43802
apar@@ 43746
operación 43740
seg@@ 43739
estadounidenses 43716
clasific@@ 43697
estrenó 43697
ov 43687
figuras 43685
ific@@ 43678
sala 43676
Derecho 43672
acional 43644
tero 43630
au 43627
económico 43621
45 43610
acab@@ 43600
Ganó 43585
Polonia 43553
latinos 43551
ríos 43546
idioma 43521
realiz@@ 43520
ice 43499
íes 43499
disputó 43482
secretario 43477
encontró 43469
lido 43452
edo 43448
terreno 43445
impuls@@ 43442
desarrolló 43439
formato 43439
Cab@@ 43431
sil@@ 43399
médico 43366
usar 43360
ais@@ 43353
Pl@@ 43341
onía 43340
Os@@ 43288
Sierra 43287
agr@@ 43284
vis@@ 43280
elas 43253
maestro 43250
ler 43242
ascenso 43238
1966 43226
eti@@ 43211
ún 43199
comandante 43153
ah 43146
eños 43145
comerci@@ 43132
Antes 43131
Cultura 43121
0@@ 43105
ram@@ 43103
Har@@ 43092
Du@@ 43085
necesidad 43072
Junta 43066
pens@@ 43041
Categoría 43035
visto 43021
buen 43013
iti@@ 43010
competición 42997
tratamiento 42947
británica 42944
tir 42917
tora 42910
Ella 42894
habría 42867
resistencia 42867
Fundación 42832
ancho 42799
eció 42790
seguir 42771
alter@@ 42692
instalaciones 42671
suele 42665
basado 42662
Torneo 42661
gl@@ 42654
provincias 42652
posibilidad 42622
vivió 42604
etos 42577
Vol@@ 42564
Tar@@ 42560
iría 42558
lados 42548
entemente 42541
similares 42523
proporcion@@ 42522
reina 42496
Daniel 42489
capit@@ 42458
Cataluña 42445
alt@@ 42438
sta 42422
sent@@ 42418
tió 42405
ades 42401
queda 42388
hechos 42384
cional 42375
Media 42366
mezcla 42357
Ana 42356
aplicación 42350
Thomas 42342
Me@@ 42332
levant@@ 42331
narr@@ 42310
ender 42303
críticas 42287
intento 42275
Isabel 42269
detrás 42269
mexicano 42238
atura 42225
ilio 42220
Hor@@ 42210
Sch@@ 42194
ania 42181
convertirse 42180
utilizar 42171
1965 42164
limit@@ 42137
vuelve 42126
32 42095
ale 42093
vieron 42093
señ@@ 42064
recibe 42052
K 42043
contacto 42038
5@@ 42021
tecnología 42013
compuesta 41989
ánico 41973
interpretó 41970
tida 41941
Mundo 41940
Bol@@ 41909
acus@@ 41890
1920 41888
Uno 41814
marcha 41804
ner 41781
Deportivo 41775
instituciones 41772
ak 41765
aplic@@ 41762
colores 41724
refle@@ 41722
dispar@@ 41701
carta 41675
sir@@ 41674
método 41672
dist@@ 41668
oria 41652
ik@@ 41635
territorios 41634
eda 41623
Min@@ 41619
ion@@ 41619
grafía 41615
idor 41611
suces@@ 41593
F. 41583
G 41551
reun@@ 41544
barr@@ 41504
Israel 41486
ocup@@ 41486
Mayor 41468
cree 41464
tra 41458
yo 41451
ístico 41446
Hasta 41439
endi@@ 41382
Q@@ 41362
Bas@@ 41352
Cuba 41349
humano 41336
ter 41331
9@@ 41311
tido 41300
metal 41298
estaciones 41274
aumento 41273
arán 41251
diferente 41239
secre@@ 41200
cambi@@ 41183
pista 41182
desarrollado 41155
necesario 41154
escuelas 41151
sec@@ 41150
Guillermo 41132
pintor 41129
poeta 41128
solamente 41107
Cámara 41101
vuelo 41100
ega 41091
1962 41090
debía 41069
provoc@@ 41057
don 41036
Paz 41000
posiciones 41000
publicada 40991
arquitecto 40989
refer@@ 40983
propios 40977
dando 40975
memoria 40955
Mu@@ 40933
Cap@@ 40915
pot@@ 40894
pidió 40849
americana 40837
capaz 40794
carreras 40786
Peter 40784
anz@@ 40768
naturales 40767
Andrés 40725
periódico 40714
décadas 40706
niño 40662
met@@ 40658
denominado 40648
1963 40614
parroquia 40601
Guatemala 40593
cic@@ 40584
comun@@ 40524
Berlín 40522
lan@@ 40510
1939 40505
Edad 40490
Europeo 40477
ost@@ 40473
7@@ 40472
órdenes 40466
Ren@@ 40456
Facultad 40451
300 40427
Sar@@ 40423
comienzo 40413
Revolución 40407
convierte 40407
ideas 40396
CD 40363
apa 40353
bres 40353
japonés 40313
hispanos 40311
avión 40292
Ol@@ 40283
Cada 40186
anes 40161
debutó 40149
convoc@@ 40125
Ángel 40122
fund@@ 40105
técnicas 40083
ard 40076
gen 40074
príncipe 40056
abor@@ 40052
vin@@ 40051
ayud@@ 40044
difícil 40023
complejo 39974
tratado 39972
Julio 39960
coron@@ 39953
6@@ 39935
construida 39913
centros 39909
Desarrollo 39900
realizada 39873
# 39866
nombr@@ 39822
diputado 39817
nave 39814
¿ 39814
comerciales 39806
autor@@ 39800
residiendo 39779
ast@@ 39755
palacio 39755
pertenece 39737
estudió 39736
abandon@@ 39722
puerta 39722
anunci@@ 39716
Nu@@ 39708
Vicente 39704
soci@@ 39700
inicial 39672
vincul@@ 39656
endió 39616
Sánchez 39614
ambiente 39613
Castillo 39579
atribu@@ 39572
aquí 39570
ech@@ 39560
alb@@ 39559
2,@@ 39541
ren@@ 39530
escal@@ 39514
azul 39509
gado 39506
coc@@ 39486
asign@@ 39471
exposición 39469
anim@@ 39464
Asimismo 39459
designado 39445
enz@@ 39430
Domingo 39425
Fl@@ 39404
iciones 39384
simplemente 39375
alemanes 39338
ger@@ 39308
je@@ 39307
can 39281
activo 39252
Mur@@ 39239
anot@@ 39228
Ramón 39223
caracteriz@@ 39204
conciertos 39200
psic@@ 39182
cambió 39171
desp@@ 39166
conseguir 39157
católica 39150
ava 39148
directo 39140
eco 39112
resid@@ 39101
populares 39084
mont@@ 39073
ofrece 39073
habla 39071
Corea 39065
pie 39040
ave 39027
diendo 39005
cas 38999
Bolivia 38997
dominio 38996
acia 38968
medallas 38949
Music 38944
1958 38936
sello 38898
destaca 38891
Del@@ 38864
bandas 38863
endas 38842
Cristo 38840
ficación 38828
ari 38821
Allí 38812
estatal 38795
mac@@ 38750
trabajadores 38737
elos 38724
mente 38708
Otras 38705
deportiva 38697
científicamente 38686
ónicas 38685
olo 38664
iv@@ 38659
3.@@ 38646
J. 38642
tab@@ 38640
destacan 38631
sen@@ 38610
teniendo 38597
avanz@@ 38594
Grande 38570
pérdida 38562
une 38561
identific@@ 38560
altos 38556
presidencia 38553
alar@@ 38552
pasando 38540
considerada 38520
Ag@@ 38504
Naciones 38504
ite 38493
pop 38470
capilla 38468
ubic@@ 38463
ger 38436
No@@ 38427
cámara 38425
deportista 38425
duque 38416
células 38413
Aragón 38405
Ya 38383
organizaciones 38378
pag@@ 38376
comunidades 38363
berg 38330
poca 38318
1944 38314
guar@@ 38305
árabe 38298
producir 38294
dirig@@ 38264
leyes 38257
bosques 38250
apertura 38235
campos 38212
decor@@ 38203
actores 38186
tam@@ 38141
caída 38131
interes@@ 38118
completa 38105
astr@@ 38093
complet@@ 38089
ori@@ 38042
Pu@@ 38036
indi@@ 38036
experiment@@ 38018
vió 38011
Soviética 37995
cuenca 37982
din@@ 37981
península 37970
amplia 37966
nacimiento 37966
enseñ@@ 37945
salió 37945
recuper@@ 37933
falleció 37927
italiana 37924
oportunidad 37911
ma@@ 37900
Martin 37899
famoso 37899
transform@@ 37888
stas 37876
estructuras 37872
valores 37868
hon@@ 37858
1941 37849
estrellas 37847
responsable 37844
ac 37835
múltiples 37835
papa 37811
series 37808
flor@@ 37800
ot 37789
movimientos 37776
XVII 37761
física 37755
Is@@ 37742
americanos 37742
bul@@ 37739
golpe 37732
hacía 37719
direc@@ 37708
1956 37686
hábitat 37664
Banco 37619
Richard 37579
lá@@ 37547
cum@@ 37529
1948 37515
entreg@@ 37511
números 37506
clave 37499
1961 37491
argum@@ 37466
histórica 37462
indica 37451
competencia 37435
uales 37428
err@@ 37417
tan@@ 37402
envi@@ 37400
vecinos 37395
eos 37371
edor 37368
oa 37360
Poco 37347
ético 37329
mir@@ 37327
cau@@ 37323
oca 37312
Algunas 37285
diseñ@@ 37283
aliza 37281
Todos 37271
vot@@ 37246
Lin@@ 37229
montaña 37203
ocupó 37199
refiere 37166
Mir@@ 37162
elli 37156
Ci@@ 37148
rep@@ 37119
vers@@ 37108
lar 37090
agreg@@ 37089
lit@@ 37084
ancias 37058
grabación 37057
Bot@@ 37048
Sub@@ 37047
quiere 37042
indígenas 37026
br 37022
concierto 37017
usado 36993
dico 36990
har@@ 36973
ensis 36972
sabe 36972
cursos 36969
viaj@@ 36969
técnico 36968
Rom@@ 36957
lenguas 36954
dir@@ 36940
vías 36937
tismo 36919
tesis 36903
abierto 36878
peces 36875
dejar 36871
ten 36870
humana 36866
vic@@ 36863
poner 36855
pun@@ 36850
lider@@ 36849
concentr@@ 36838
escala 36825
formada 36813
record@@ 36802
Maria 36799
fica 36797
escenario 36779
señor 36778
anzas 36773
aus@@ 36753
bus@@ 36753
concurso 36753
escribir 36705
ment@@ 36702
contrario 36695
ejecut@@ 36691
sufrió 36678
progres@@ 36670
compitió 36659
result@@ 36645
cargos 36626
sangre 36620
guitarra 36611
Justicia 36607
aspecto 36577
cad@@ 36577
for 36572
ámbito 36556
aliment@@ 36534
ong 36532
ecta 36514
aparecen 36510
pic@@ 36508
franceses 36506
vive 36503
culos 36501
anía 36494
cuarta 36486
Isla 36478
Victoria 36473
Batalla 36456
totalmente 36455
dida 36447
prisión 36447
embar@@ 36440
gol@@ 36430
contribu@@ 36418
Irlanda 36411
permaneció 36405
recibido 36403
interpretación 36401
400 36396
consiste 36394
cula 36394
busca 36389
tes@@ 36383
Mont@@ 36368
expresión 36322
medidas 36305
Red 36298
código 36298
utilizando 36298
recién 36296
by 36294
ord@@ 36294
inv@@ 36293
alizar 36292
consecu@@ 36289
Nuestra 36279
Rica 36278
anual 36268
judíos 36257
núcleo 36244
proces@@ 36244
Me 36232
intención 36229
puertas 36217
declar@@ 36212
tro@@ 36212
enes 36200
revel@@ 36159
cias 36144
noreste 36125
Él 36114
vel@@ 36099
plano 36083
tre 36072
Pe@@ 36014
Medi@@ 36012
entren@@ 36011
denominada 36007
ás@@ 36002
límite 35982
industrial 35979
Gómez 35972
elev@@ 35971
bil@@ 35954
episodios 35952
resultó 35952
descubierto 35938
mut@@ 35920
1959 35895
adapt@@ 35895
llamó 35894
Premios 35885
Ho@@ 35880
fe 35868
rot@@ 35863
desempeñó 35836
electoral 35831
ocasión 35830
ataques 35818
land 35805
You 35799
nor@@ 35788
Gener@@ 35787
condición 35783
quit@@ 35782
Dr. 35776
Avenida 35759
funcion@@ 35738
1957 35736
gar 35736
podían 35700
Islas 35683
altas 35680
expedición 35677
fiesta 35668
ológicas 35639
Nació 35623
ula 35622
asociación 35618
acer@@ 35604
oz@@ 35602
1955 35600
propuesta 35568
romano 35564
cop@@ 35543
Leg@@ 35538
zar 35525
plant@@ 35516
burgo 35506
33 35483
Granada 35479
asiáticos 35476
letras 35476
culturales 35464
pies 35455
Park 35439
cruz@@ 35439
encima 35436
tado 35434
1943 35433
identidad 35417
participantes 35406
piloto 35406
Oro 35383
seguido 35377
origin@@ 35373
dejando 35365
Países 35354
sexual 35343
estudiar 35336
Ricardo 35301
comienzos 35300
masa 35294
Municipal 35277
Egipto 35276
‘ 35266
Suecia 35240
public@@ 35233
apoy@@ 35224
asesinato 35222
ili@@ 35170
corto 35165
marco 35161
hidro@@ 35160
textos 35155
únicamente 35126
1942 35120
bo 35117
combin@@ 35093
Región 35085
cos@@ 35065
em 35064
renov@@ 35055
dios 35034
bre 35026
accidente 35025
discos 35015
encu@@ 35012
Estación 35009
didos 34999
ble 34982
urbano 34979
invierno 34968
Estudios 34946
abajo 34931
abogado 34931
Alto 34903
ordenó 34898
doc@@ 34893
mul@@ 34881
ciendo 34862
conf@@ 34860
VI 34859
escudo 34854
recibir 34851
adr@@ 34849
enfer@@ 34847
poblaciones 34845
trabaj@@ 34834
regional 34809
amp@@ 34799
demasiado 34798
aument@@ 34797
utilizan 34792
reconocido 34790
apenas 34787
Ge@@ 34772
encontrado 34766
Grecia 34733
denominación 34691
encontr@@ 34688
Ru@@ 34679
últimas 34658
financi@@ 34647
íos 34621
ganador 34609
erse 34606
ferrocarril 34600
Vil@@ 34596
conoció 34588
visita 34579
ben@@ 34576
Díaz 34571
nav@@ 34567
resp@@ 34566
dot@@ 34535
Pel@@ 34534
públicas 34530
00 34526
Man 34512
He@@ 34509
cionales 34505
nación 34502
tivas 34498
árboles 34483
Str@@ 34478
res 34476
emas 34445
dev@@ 34428
intent@@ 34415
Atlético 34408
micro@@ 34391
ax@@ 34375
argentina 34364
Nor@@ 34360
ere 34348
salir 34340
ciudadanos 34329
ect@@ 34322
mencion@@ 34317
Mario 34302
afroamericanos 34278
Texas 34254
encabez@@ 34247
especiales 34219
rod@@ 34202
Canal 34195
vídeo 34181
ho@@ 34171
1946 34170
anci@@ 34165
autoridad 34163
hospital 34157
plataforma 34157
Nicolás 34156
labor 34142
comunes 34122
tis 34099
entrar 34090
iga 34089
oría 34085
natal 34082
ville 34077
Economía 34060
Social 34056
arle 34023
bandera 34023
gió 34010
femenino 33994
cierta 33980
ológicos 33979
conc@@ 33972
reconoc@@ 33965
fér@@ 33959
ces 33957
ayudar 33944
1952 33941
exp@@ 33940
Señora 33938
fuertes 33936
gas@@ 33934
1949 33922
claro 33908
estimada 33906
Hospital 33904
pir@@ 33888
quinto 33888
36 33886
involucr@@ 33883
ago 33873
igo 33861
ahí 33847
doce 33840
coronel 33834
Sistema 33811
lenguaje 33810
arco 33803
baj@@ 33802
sureste 33787
describe 33780
procesos 33779
convertido 33778
coleóptero 33774
reemplaz@@ 33773
Parlamento 33759
Sa@@ 33758
propias 33751
só@@ 33749
propiedades 33748
destino 33744
ican 33744
religión 33723
estándar 33694
récord 33691
ki 33685
Mol@@ 33682
lograr 33669
lav@@ 33631
letra 33601
vehículos 33590
atas 33583
ko 33572
ides 33561
fun@@ 33532
usando 33532
directa 33526
regular 33526
juicio 33525
activa 33511
bra 33506
Go@@ 33492
vig@@ 33488
pasajeros 33483
tador 33483
flu@@ 33479
Federico 33469
som@@ 33464
Ram@@ 33454
1954 33442
reclam@@ 33441
jur@@ 33436
bajas 33435
moderna 33432
públicos 33432
romana 33429
Fil@@ 33398
cuadr@@ 33387
reinado 33377
pint@@ 33376
Europea 33351
transmi@@ 33345
duc@@ 33330
Ten@@ 33317
he@@ 33298
búsqueda 33288
34 33280
1938 33270
conquista 33263
reunión 33235
fusión 33221
ificación 33219
teniente 33209
regres@@ 33200
Suiza 33137
ke 33137
1937 33135
violencia 33134
protagonista 33125
Superior 33124
retiró 33115
1947 33114
elabor@@ 33108
Taxonomía 33103
géneros 33102
1953 33100
luch@@ 33100
catedral 33086
ang 33083
filosofía 33080
tran@@ 33077
Fer@@ 33057
divi@@ 33051
tradicionales 33049
aspectos 33045
equip@@ 33029
Bajo 33011
copias 32979
encial 32979
corazón 32960
profesionales 32948
ier@@ 32928
hum@@ 32927
suficiente 32922
trabajando 32919
viene 32918
Trans@@ 32914
mur@@ 32912
ce@@ 32902
du 32898
raíz 32878
potencia 32874
Serie 32858
convirtiéndose 32856
ible 32842
tia 32834
suelen 32823
ventas 32818
j 32815
ojos 32814
mina 32808
patr@@ 32808
baloncesto 32800
forz@@ 32798
entorno 32795
autom@@ 32791
contó 32778
may@@ 32776
inicios 32769
conclu@@ 32768
ou 32764
Ministro 32763
Love 32761
mantiene 32761
acc@@ 32752
categorías 32736
diócesis 32732
Roberto 32716
Javier 32709
compañeros 32707
lev@@ 32707
reforma 32691
Rock 32683
rit@@ 32683
B. 32679
clásico 32675
Chicago 32669
ono 32665
presentan 32651
endido 32642
Compañía 32632
Otro 32605
relacionados 32602
Cine 32596
abrió 32588
Fuerza 32565
Organización 32563
bre@@ 32563
aer@@ 32561
álbumes 32556
American 32552
ub@@ 32538
amerindios 32535
poesía 32524
ens 32521
planeta 32517
Fu@@ 32496
desarroll@@ 32490
ísticos 32490
Florida 32488
bios 32488
alm@@ 32484
Zaragoza 32477
ates 32471
corriente 32471
zación 32448
Sur@@ 32445
documentos 32445
fachada 32445
cuerpos 32439
Paraguay 32420
ejas 32396
nu@@ 32393
materia 32390
segundos 32378
arlos 32372
sosten@@ 32372
establecer 32366
distingu@@ 32358
Bretaña 32353
artes 32351
invasión 32331
deriv@@ 32322
Occidental 32314
Kar@@ 32309
elemento 32288
Lee 32274
correc@@ 32267
Existen 32250
parlament@@ 32250
desc@@ 32248
enfrent@@ 32244
nov@@ 32244
Cel@@ 32235
aquella 32230
simple 32226
envió 32214
Sebastián 32209
retir@@ 32209
Henry 32195
tropical 32185
volumen 32159
allá 32148
Fre@@ 32143
impacto 32142
aja 32141
civiles 32136
agricultura 32132
músico 32130
po 32115
im 32110
bosque 32103
barco 32099
ber 32078
secundaria 32071
Música 32069
montañas 32066
75 32060
cuadro 32057
suroeste 32033
Rosario 32011
familiar 32009
promoción 32004
recorrido 31996
ces@@ 31985
conect@@ 31982
patri@@ 31979
escenas 31975
Sec@@ 31947
Corte 31940
latín 31933
2022 31907
descrito 31902
Frente 31895
grabado 31888
cambiar 31885
llevado 31885
Tom@@ 31877
arque@@ 31855
Comunidad 31847
Pen@@ 31845
localidades 31837
restaur@@ 31834
Super@@ 31817
nac@@ 31807
pieza 31806
página 31795
coordin@@ 31766
sirvió 31766
Mus@@ 31759
Ang@@ 31749
iso 31741
ficción 31734
corta 31731
ond@@ 31728
ve@@ 31714
quería 31700
icios 31693
char@@ 31687
Far@@ 31683
alistas 31676
duración 31676
1931 31670
guerr@@ 31654
disponible 31652
evolución 31646
Joseph 31645
At@@ 31644
historiador 31631
Santos 31629
mas 31628
dig@@ 31627
Smith 31614
mel@@ 31602
europeos 31600
ensa 31595
monasterio 31591
expansión 31590
desempeñ@@ 31573
riesgo 31562
muerto 31559
ich@@ 31557
formes 31553
oy@@ 31534
College 31528
alg@@ 31518
dedicó 31504
dedicado 31503
M. 31491
Ayuntamiento 31485
Unidas 31459
Sant@@ 31456
formando 31450
EE 31449
fondos 31442
seleccion@@ 31436
impres@@ 31426
ly 31419
prove@@ 31410
destac@@ 31409
multi@@ 31401
J 31398
incluida 31391
reci@@ 31382
aeropuerto 31378
1933 31370
Moscú 31370
Tres 31359
cola 31354
residencia 31354
consum@@ 31311
Bajos 31301
privada 31300
chino 31298
editorial 31294
ster 31274
diseñado 31268
úr@@ 31263
mexicana 31244
ám@@ 31244
conocidas 31241
int@@ 31241
ís 31216
reales 31209
Fe 31207
egas 31197
pico 31186
bombar@@ 31184
adero 31180
prefer@@ 31175
esqu@@ 31167
oh@@ 31163
federal 31158
sub 31145
Participó 31143
Ay@@ 31134
emente 31119
Muchos 31111
into 31111
isl@@ 31105
oles 31097
contexto 31076
ecas 31073
decreto 31069
aleg@@ 31067
redes 31065
piano 31056
voc@@ 31056
ont@@ 31053
árbol 31050
habl@@ 31024
Hi@@ 31000
Carmen 30987
implic@@ 30984
XIII 30981
Torre 30978
lic@@ 30977
38 30965
S. 30939
normalmente 30933
iste 30900
usuarios 30900
celebró 30882
terminar 30862
ene 30839
alizada 30836
ans@@ 30834
Ir@@ 30824
enda 30824
llevaron 30819
entas 30811
Cuenta 30804
crítico 30795
haya 30792
aur@@ 30789
cubierta 30788
entrevista 30779
explor@@ 30770
zos 30747
w 30735
Res@@ 30732
ou@@ 30731
ulación 30726
incluyó 30723
Nov@@ 30719
juntos 30708
arro@@ 30699
recur@@ 30691
presentación 30689
Panamá 30687
CO@@ 30680
traduc@@ 30668
chi@@ 30664
nombró 30660
Rosa 30654
desarrollar 30628
hel@@ 30622
utilizó 30595
Junto 30593
diferencias 30580
pion@@ 30578
ís@@ 30578
Bl@@ 30559
sor@@ 30559
isiones 30546
particularmente 30545
deja 30540
uros 30533
Inf@@ 30530
Loc@@ 30530
británicos 30525
eléctrica 30525
comarca 30519
mandato 30510
presentado 30507
planes 30494
udo 30489
IN@@ 30478
itación 30473
marcó 30473
captur@@ 30469
antiguas 30465
tin@@ 30462
lad@@ 30446
Otra 30445
deci@@ 30436
once 30430
dientes 30420
Seg@@ 30413
arm@@ 30403
65 30388
ubicación 30373
Char@@ 30369
ade 30369
1934 30366
dedicada 30366
ándole 30366
org@@ 30365
pertenecían 30364
grab@@ 30362
logra 30360
dura 30358
pocas 30354
enses 30351
1951 30350
reacción 30339
llamados 30332
erías 30322
ajo 30318
dedic@@ 30312
incluía 30312
fon@@ 30309
Castro 30293
objetivos 30293
sustitu@@ 30282
artístico 30274
trono 30268
Monte 30243
publicaciones 30240
actuales 30239
practic@@ 30237
Ing@@ 30233
¡ 30218
festival 30216
relativamente 30214
historias 30208
representante 30203
producida 30197
tramo 30197
bl@@ 30192
4.@@ 30187
eri@@ 30179
tabla 30163
pobreza 30158
entidad 30154
red@@ 30141
ectos 30131
ocupa 30127
corresponde 30125
sol 30121
uma 30095
ore 30092
consumo 30086
flota 30057
activos 30037
ng@@ 30036
bar 30035
breve 30027
religiosa 30026
cercano 30024
ge 30019
blanca 30008
tec@@ 30002
derrot@@ 30000
entales 29988
bles 29982
originales 29980
transmisión 29979
Oriental 29975
revolución 29975
homenaje 29969
miento 29968
externos 29956
músicos 29955
fa 29941
Administración 29923
popularidad 29923
quer@@ 29909
espacios 29899
destacar 29897
comparti@@ 29894
onales 29883
Mejor 29876
Sp@@ 29872
itar 29871
provincial 29869
propósito 29858
razones 29858
poderes 29848
difun@@ 29832
investigaciones 29830
Mes@@ 29821
icidad 29810
Gor@@ 29807
rol 29798
prob@@ 29793
científico 29789
constante 29784
Sin@@ 29777
protagonizada 29775
dil@@ 29769
comedia 29760
ándolo 29724
mix@@ 29722
ciclo 29720
históricos 29720
mañana 29714
aproxim@@ 29707
límites 29706
ilustr@@ 29703
precio 29702
sup@@ 29700
1935 29696
bienes 29695
motivos 29695
ocupación 29695
puestas 29690
trac@@ 29687
film@@ 29664
característica 29662
bir@@ 29661
St 29645
ual 29645
óg@@ 29637
cabecera 29627
sali@@ 29623
estad@@ 29603
hem@@ 29594
muestran 29586
figur@@ 29582
cir 29581
arreg@@ 29559
cia 29542
compañero 29540
líderes 29539
uni@@ 29535
chil@@ 29532
ans 29509
School 29508
qued@@ 29506
registro 29505
sindic@@ 29496
lí@@ 29494
marido 29463
EP 29462
enos 29455
1929 29449
conservación 29447
All 29443
críticos 29442
la@@ 29441
adaptación 29433
muertos 29429
visit@@ 29422
enviado 29419
ediciones 29411
opinión 29408
Ul@@ 29395
cientos 29387
afirmó 29383
podrían 29380
formaron 29374
revistas 29371
abandonó 29365
1932 29360
diámetro 29354
Ó@@ 29349
úa 29340
far@@ 29329
42 29327
sen 29324
mejorar 29318
ph@@ 29311
deber@@ 29306
chileno 29303
Nav@@ 29294
jar 29290
Tro@@ 29286
comand@@ 29282
motores 29277
Ali@@ 29258
entrega 29250
ick 29238
usión 29237
tren 29232
moderno 29229
encarg@@ 29214
aí@@ 29213
document@@ 29213
fábrica 29208
misiones 29193
identes 29190
porte 29184
quedando 29180
zar@@ 29172
femenina 29164
1918 29148
quién 29134
tron@@ 29134
elec@@ 29109
cuyos 29105
europeo 29105
guard@@ 29100
machos 29085
VII 29082
q@@ 29078
regresar 29075
utilizada 29072
const@@ 29059
bases 29054
Dr@@ 29049
Tribunal 29046
estre 29038
Lar@@ 29033
barcos 29020
desaparec@@ 29014
Defensa 29001
To@@ 28993
dinastía 28993
instrumentos 28989
éste 28984
verse 28969
Centr@@ 28957
inal 28946
Toledo 28941
Billboard 28931
consul@@ 28926
naval 28926
obteniendo 28920
notable 28915
Ob@@ 28909
digital 28907
mag@@ 28905
iller@@ 28904
oni 28890
víctimas 28874
sectores 28872
ices 28867
Dec@@ 28864
venc@@ 28856
añadi@@ 28845
Plan@@ 28833
Armada 28832
elenco 28826
Kr@@ 28809
consagr@@ 28808
allas 28803
Marina 28790
inmediatamente 28790
gir@@ 28789
rá@@ 28786
comportamiento 28784
ingeniero 28781
métodos 28778
conserva 28766
tienda 28748
áng@@ 28737
ém@@ 28727
Estudió 28725
Ban@@ 28714
frag@@ 28712
.. 28700
ecu@@ 28700
rápido 28697
Tel@@ 28684
ri 28663
corona 28648
establecido 28626
César 28621
64 28612
audiencia 28610
afirma 28595
Biblioteca 28582
Oriente 28582
avi@@ 28578
Catedral 28563
ple@@ 28563
prácticamente 28563
oral 28557
fan@@ 28555
emiti@@ 28554
óst@@ 28551
aport@@ 28538
contrat@@ 28531
all 28519
victorias 28518
37 28517
bel@@ 28512
Navarra 28508
artística 28502
mismas 28502
recib@@ 28491
provocó 28490
apreci@@ 28476
cir@@ 28470
inferiores 28469
Bélgica 28430
ticamente 28427
1928 28424
olí@@ 28422
Aeropuerto 28419
documental 28419
atrás 28404
neur@@ 28392
realizaron 28389
siguen 28378
veinte 28369
pinturas 28365
ty 28365
siguiendo 28362
poli@@ 28347
hierro 28337
Hab@@ 28319
superiores 28318
pil@@ 28307
profundidad 28307
ingreso 28305
Royal 28304
Louis 28296
fu@@ 28282
informe 28279
chi 28262
les@@ 28240
orient@@ 28238
Il@@ 28235
msnm 28211
genes 28195
increm@@ 28188
Primer 28180
Campo 28177
rem@@ 28172
escri@@ 28161
señal 28153
aldo 28144
Aut@@ 28133
fe@@ 28116
omo 28115
pantalla 28098
Bon@@ 28079
científicos 28067
Tam@@ 28061
tasa 28061
espectadores 28059
Franco 28053
Gabriel 28049
National 28048
alej@@ 28031
usos 28030
Lorenzo 28013
mec@@ 28006
acta 28002
ría 28001
excepción 27998
Ba@@ 27979
ieren 27970
intentó 27961
cron@@ 27959
habitual 27952
diplom@@ 27940
mant@@ 27940
destacado 27932
logr@@ 27913
química 27912
Barr@@ 27909
alimentos 27904
cultivo 27896
diferenci@@ 27894
descar@@ 27887
caron 27885
someti@@ 27882
design@@ 27880
Tratado 27861
compañías 27860
apun@@ 27847
ton@@ 27840
enseñanza 27828
azar 27821
demanda 27812
excepto 27810
dol@@ 27804
ben 27801
mejor@@ 27797
55 27796
tráfico 27773
investig@@ 27772
empate 27759
48 27746
ciertos 27742
Movimiento 27741
Pap@@ 27726
noticias 27726
monumento 27720
mos@@ 27719
histori@@ 27717
Internet 27711
ógrafo 27698
escritos 27685
rosa 27667
1000 27661
viviendas 27658
ingresó 27657
actuaciones 27653
grados 27651
* 27626
presentes 27622
norte@@ 27601
deleg@@ 27586
ey@@ 27586
distritos 27576
justo 27570
úan 27567
ich 27552
edió 27550
Cultural 27546
amplio 27529
Joaquín 27511
él@@ 27511
ani@@ 27507
serían 27506
software 27500
que@@ 27498
program@@ 27484
trayectoria 27472
XV 27458
orqu@@ 27447
King 27442
transport@@ 27441
Carolina 27439
otorg@@ 27437
legal 27426
caza 27421
pone 27418
May@@ 27415
factores 27414
miles 27412
adquir@@ 27402
entó 27402
hid@@ 27390
alizó 27385
consolid@@ 27379
negocios 27379
Doctor 27374
permanente 27365
empleo 27357
1914 27356
eado 27346
ü@@ 27335
deportivo 27333
graduó 27332
jardín 27316
Condado 27307
proviene 27306
piel 27288
cita 27286
símbolo 27286
isti@@ 27283
finalizó 27281
ford 27279
titulada 27268
acces@@ 27263
treinta 27251
uela 27246
termina 27241
Black 27240
alidades 27239
edia 27236
amor@@ 27231
mem@@ 27222
West 27214
ceremonia 27214
repar@@ 27211
cal 27209
finaliz@@ 27192
Ca@@ 27184
justicia 27182
batería 27174
ofrec@@ 27172
ejos 27154
vil@@ 27144
legisl@@ 27139
conver@@ 27133
Pon@@ 27132
confi@@ 27129
éxitos 27125
Mos@@ 27105
guion 27105
desaf@@ 27104
44 27097
Hol@@ 27092
orado 27087
estreno 27086
bió 27082
posiblemente 27079
éc@@ 27079
Bellas 27073
XII 27053
altar 27051
1919 27049
ane 27044
ópera 27044
Militar 27039
Pat@@ 27035
interna 27031
itaria 27031
consta 27028
escap@@ 27023
describió 27022
encontraban 27020
eh@@ 27019
forme 27018
familiares 27017
Bat@@ 27016
solar 27008
clar@@ 26996
íp@@ 26992
cumplir 26990
global 26989
culto 26987
Sam@@ 26986
Hungría 26984
realmente 26981
asumió 26974
fich@@ 26970
anda 26969
Viena 26967
monte 26965
ā@@ 26961
accion@@ 26939
52 26930
irá 26930
lat@@ 26927
intervención 26924
Ignacio 26916
Tre@@ 26902
sitios 26897
ubica 26892
Street 26883
dica 26878
Salud 26870
enemigo 26864
informó 26864
Bus@@ 26862
funcionamiento 26860
uz@@ 26858
escritura 26849
camp@@ 26846
yen 26844
viven 26843
Fin@@ 26841
ampliamente 26834
eje 26834
yó 26820
orquesta 26817
1910 26811
aces 26811
3,@@ 26791
disputa 26787
obten@@ 26757
neo 26748
abandonar 26747
Gi@@ 26740
pronunci@@ 26736
ectiv@@ 26719
W 26704
ai@@ 26700
Televisión 26691
municipales 26691
mann 26682
pant@@ 26675
Luna 26672
intereses 26669
Concepción 26663
peligro 26659
1924 26648
recientemente 26648
portes 26641
fiestas 26638
E. 26635
ros 26626
denunci@@ 26621
colonia 26614
efic@@ 26613
participaron 26613
llegado 26606
1917 26604
consejo 26602
extranjero 26593
primavera 26576
utiliz@@ 26575
acept@@ 26573
representantes 26571
Ha@@ 26569
Esc@@ 26562
japonesa 26562
documento 26561
entar 26556
Prot@@ 26553
Cru@@ 26549
perman@@ 26535
Dentro 26505
comunic@@ 26489
pá@@ 26462
Luc@@ 26449
Habita 26446
osis 26438
onda 26431
eter@@ 26421
sean 26416
arriba 26414
deriva 26407
ácido 26400
buscar 26388
basa 26386
continuar 26379
poblado 26373
Tercera 26361
ólogos 26359
poder@@ 26349
evidencia 26336
iente 26327
posibles 26320
Noruega 26308
Rico 26304
ganando 26301
ys 26300
ō 26299
ron@@ 26293
Católica 26286
biblioteca 26286
39 26279
ivos 26273
ski 26268
Sobre 26258
fl@@ 26257
agente 26256
Tomás 26251
Comenzó 26247
export@@ 26237
NBA 26235
ariamente 26234
oci@@ 26233
Atlántico 26227
retirada 26219
fama 26213
International 26209
Reyes 26201
cristianos 26199
pueda 26187
onte 26176
Senado 26159
Agustín 26150
gradu@@ 26117
uch@@ 26116
viendo 26112
órica 26111
debió 26110
otr@@ 26097
canales 26096
etapas 26094
alcanz@@ 26073
organizado 26067
asegur@@ 26063
Dor@@ 26056
Jack 26055
actuó 26040
dulce 26038
dictadura 26034
iniciativa 26034
permanec@@ 26033
tiles 26032
nia 26027
incluidos 26014
acos 26011
vehículo 26010
escol@@ 26009
momentos 26005
medicina 26001
proteg@@ 25993
exig@@ 25977
sion@@ 25977
R. 25953
clásica 25951
orios 25949
componentes 25948
omas 25932
terrenos 25913
empleados 25912
edades 25906
ños 25900
Company 25896
enciales 25887
dea 25876
cápita 25875
esfuerzos 25872
individual 25870
1925 25860
programación 25860
calific@@ 25857
ángulo 25849
CE@@ 25837
solución 25825
triunfo 25822
enfrentó 25816
rea 25816
à 25816
papeles 25813
ónicos 25802
deo 25801
tit@@ 25796
reciente 25795
demostr@@ 25792
ette 25792
acabó 25786
mot@@ 25782
aceae 25773
gráfico 25773
cercana 25757
Ruta 25755
asesinado 25753
odi@@ 25751
sorpr@@ 25749
inspir@@ 25736
str@@ 25735
Má@@ 25731
establece 25723
Torres 25711
enfermedades 25705
jugando 25703
eja 25699
1927 25690
Mé@@ 25690
proclam@@ 25669
Montevideo 25668
quil@@ 25661
negra 25653
enso 25651
Gen@@ 25644
Do@@ 25637
añas 25630
Seguridad 25615
finalizar 25597
sus@@ 25592
Bogotá 25583
convento 25583
terror@@ 25583
colectiv@@ 25582
Ucrania 25581
alianza 25575
dar@@ 25564
li 25563
abierta 25554
DVD 25529
egr@@ 25527
trabaja 25518
científica 25517
ñas 25517
óm@@ 25514
pide 25509
normal 25508
izado 25506
sirve 25504
cosa 25501
reserva 25493
Escocia 25491
itario 25488
ísticas 25484
deporte 25479
continente 25458
ép@@ 25458
fera 25456
cancel@@ 25454
margen 25441
istió 25440
ástica 25439
recopil@@ 25436
saber 25429
Mis@@ 25425
plante@@ 25424
atraves@@ 25421
órgano 25417
europea 25414
uer@@ 25413
core@@ 25405
iano 25404
guitarrista 25401
Dest@@ 25385
ace 25384
Álvarez 25384
daños 25382
Mendoza 25381
ug@@ 25378
ución 25370
tendencia 25369
atus 25360
1912 25359
conden@@ 25357
Super 25355
golpe@@ 25351
Sub 25333
novelas 25332
isleños 25329
ído 25324
extranjeros 25320
cán@@ 25318
idores 25318
1922 25301
proy@@ 25282
rural 25281
celebra 25279
afirm@@ 25276
individuos 25273
person@@ 25273
ciertas 25268
Im@@ 25265
import@@ 25247
juez 25246
recomend@@ 25238
fundamental 25234
infantil 25224
Vel@@ 25217
carne 25204
correspondiente 25190
delante 25190
tig@@ 25190
san 25177
coment@@ 25174
inglesa 25173
Ven@@ 25170
ejecución 25167
deb@@ 25162
Medio 25158
Tal@@ 25153
amarillo 25152
firm@@ 25147
ejemplos 25137
colegio 25130
pasaron 25128
perder 25128
undo 25118
religioso 25117
Andalucía 25116
icia 25116
mostró 25104
hacerse 25099
estructur@@ 25096
41 25084
inicia 25084
P. 25077
Argumento 25073
car 25064
comisión 25054
rama 25052
Edi@@ 25045
crea 25042
definición 25039
ocu@@ 25039
divide 25037
Independencia 25018
declarado 25017
editor 25009
alcal@@ 25007
Cant@@ 24993
artes@@ 24979
600 24976
piso 24974
repeti@@ 24952
invit@@ 24941
1926 24939
5.@@ 24933
estu@@ 24930
los@@ 24916
nes 24909
tiv@@ 24904
Mary 24901
cartas 24897
alar 24896
Sil@@ 24888
patrocin@@ 24887
significado 24884
diciendo 24878
obr@@ 24878
insecto 24871
43 24870
leyenda 24862
confirmó 24860
iden 24857
Servicio 24851
Cos@@ 24847
secu@@ 24847
Sim@@ 24846
ases@@ 24845
enf@@ 24842
descubrió 24840
Star 24836
ust@@ 24834
romanos 24829
aplicaciones 24828
perdido 24824
Ko@@ 24823
alumnos 24815
critic@@ 24813
Jug@@ 24812
Deb@@ 24810
n.º 24803
cero 24802
comput@@ 24802
Mari@@ 24800
requer@@ 24787
actuar 24786
pelig@@ 24779
alas 24778
1923 24771
Galicia 24769
hablar 24766
yendo 24764
conexión 24760
Nar@@ 24757
ejo 24752
field 24749
Lí@@ 24745
Cir@@ 24739
País 24738
regul@@ 24733
innov@@ 24725
Lista 24723
ocur@@ 24722
ial 24720
extiende 24714
eri 24711
ek 24710
empres@@ 24709
ent 24704
Zelanda 24702
id 24700
desarrolla 24696
sufr@@ 24687
totalidad 24687
fechas 24675
Alonso 24673
Cul@@ 24672
enorme 24668
mucha 24659
amenaz@@ 24649
estat@@ 24648
grabó 24644
alia 24640
azado 24636
Director 24632
afir@@ 24632
porta 24626
espectáculo 24621
áb@@ 24616
establecimiento 24615
elle 24607
logrando 24606
encuentros 24602
agrup@@ 24600
ambi@@ 24598
concentración 24598
iglesias 24588
Jaime 24585
encargado 24585
ear 24579
posesión 24571
efectu@@ 24568
presentar 24561
Sen@@ 24560
tap@@ 24552
Cop@@ 24550
Tu@@ 24542
infancia 24541
rendimiento 24539
800 24535
150 24521
estro 24513
yente 24510
portada 24500
Sudáfrica 24495
particip@@ 24495
th 24495
tratar 24491
Brown 24489
endr@@ 24487
asuntos 24471
sacerdote 24463
reo 24458
probable 24457
negocio 24454
resolución 24450
ficado 24449
enemigos 24446
pacientes 24446
absoluta 24444
show 24439
adultos 24437
económicos 24437
expan@@ 24436
Tol@@ 24423
eli@@ 24423
hielo 24420
asoci@@ 24414
Bre@@ 24405
roc@@ 24404
Dem@@ 24401
caz@@ 24399
47 24396
Ap@@ 24394
Hom@@ 24392
sitúa 24392
apr@@ 24389
organizó 24384
osamente 24382
ví@@ 24381
Alianza 24371
Van 24361
Oeste 24359
ausencia 24357
grave 24357
ras 24357
mentos 24356
gráfica 24352
columnas 24335
oj@@ 24333
cáncer 24324
Investigación 24314
Not@@ 24305
económicas 24300
• 24298
representan 24296
reco@@ 24293
lab@@ 24290
animal 24289
arri@@ 24279
allo 24278
acho 24271
Jur@@ 24265
cuestión 24264
Negro 24258
Í@@ 24256
lec@@ 24253
urban@@ 24250
regionales 24246
tim@@ 24244
eciendo 24240
necesit@@ 24235
1900 24232
Todo 24219
predomin@@ 24212
anex@@ 24210
arma 24206
sar@@ 24204
Oc@@ 24200
resulta 24200
divisiones 24199
intenta 24197
ánea 24192
otas 24186
agü@@ 24184
participado 24178
continúa 24177
ográfica 24168
Hoy 24162
alla 24160
menciona 24159
Regional 24153
adquirió 24153
pez 24141
natur@@ 24134
llevan 24127
ale@@ 24121
cionalmente 24117
graf@@ 24117
universidades 24117
ús 24114
vali@@ 24110
edores 24109
físico 24109
rode@@ 24105
jó 24101
Aer@@ 24100
religiosas 24096
institu@@ 24086
comparación 24082
Miss 24081
constituye 24080
estuvieron 24080
utilizados 24080
ciencias 24078
unirse 24071
temprana 24068
dispon@@ 24064
oscuro 24063
Pierre 24055
foc@@ 24053
pensamiento 24045
celebración 24040
liter@@ 24036
elo@@ 24031
austr@@ 24027
tex@@ 24022
presidencial 24017
hered@@ 24013
arg@@ 24012
aun 24006
incur@@ 24000
Reina 23995
encontraron 23992
Si@@ 23991
Pir@@ 23990
rar 23984
dada 23983
Direc@@ 23982
complic@@ 23981
ecido 23972
oficinas 23971
Alrededor 23958
Hugo 23954
oides 23939
naveg@@ 23931
ons@@ 23921
organismos 23917
sexo 23917
secreto 23912
Enlaces 23902
tocar 23895
ejemplares 23894
Honduras 23874
are 23871
fusion@@ 23867
cayó 23857
playa 23856
coalición 23855
deos 23854
consideran 23848
esfuerzo 23846
Caracas 23838
aldea 23832
reduc@@ 23824
rí@@ 23815
1921 23800
borde 23794
ador@@ 23791
ólico 23791
ker 23783
fel@@ 23782
rech@@ 23778
onio 23772
lejos 23765
My 23764
efectiv@@ 23747
acha 23744
46 23737
alizados 23737
dom@@ 23730
desplaz@@ 23727
individuales 23721
51 23719
espera 23719
plazo 23714
rusa 23707
verdadero 23706
famosa 23705
riqu@@ 23694
Socialista 23690
Tab@@ 23690
XIV 23683
denomina 23683
capítulo 23669
Asturias 23651
Relaciones 23648
Línea 23646
destacados 23646
fabricación 23636
rebotes 23631
ciales 23630
log@@ 23622
judicial 23618
renta 23614
DC 23603
comida 23603
Fuerzas 23598
Ambos 23597
Dinamarca 23595
debut@@ 23592
rac@@ 23591
UN@@ 23589
Jun@@ 23588
Aérea 23587
combinación 23586
enterr@@ 23575
difusión 23570
realización 23570
quinta 23568
completar 23567
griega 23555
ocurrió 23550
icias 23541
afric@@ 23527
viajó 23527
Dur@@ 23524
tercero 23518
aturas 23517
minuto 23504
contar 23503
Gir@@ 23500
derrotó 23499
negoci@@ 23498
pec@@ 23495
licenci@@ 23493
Agu@@ 23484
Estr@@ 23480
Riv@@ 23479
viento 23477
eleg@@ 23473
duró 23466
Vic@@ 23465
laterales 23459
opción 23459
Gran@@ 23453
existentes 23450
Política 23442
sonora 23440
bon@@ 23432
Lor@@ 23428
atl@@ 23428
amenaza 23425
Turquía 23424
cripción 23423
ester@@ 23421
Guardia 23413
ts 23406
Málaga 23401
Patrimonio 23398
mod@@ 23392
transfer@@ 23385
lob@@ 23384
realizan 23379
avance 23377
Caribe 23372
cultiv@@ 23368
United 23367
viajes 23361
culp@@ 23360
Sud@@ 23352
destrucción 23352
barrios 23333
dañ@@ 23331
Latina 23324
disposición 23324
eliminar 23320
empr@@ 23317
previamente 23314
ventaja 23309
acumul@@ 23305
discurso 23305
caracteriza 23301
trop@@ 23294
bahía 23292
ocupado 23287
integrantes 23285
afili@@ 23280
Frank 23273
determinar 23269
diputados 23264
quem@@ 23264
sencillos 23262
audi@@ 23251
territorial 23240
seres 23231
ántica 23226
menes 23219
otes 23218
presidi@@ 23218
amo 23208
Víctor 23203
cent@@ 23199
Mark 23194
estudiante 23194
ezas 23194
Tom 23189
Jones 23184
São 23184
atorias 23181
voto 23181
ligeramente 23175
Prim@@ 23174
ele 23167
potencial 23167
incorporó 23166
cial 23163
aprobación 23161
data 23161
fus@@ 23158
Obras 23153
Blanca 23151
ons 23151
fotografía 23133
imperio 23125
Cuerpo 23121
usan 23115
exclusivamente 23111
sal 23108
fortaleza 23105
nó 23105
recuperar 23080
ejecutivo 23078
fom@@ 23077
presa 23070
religiosos 23070
manifest@@ 23068
Ke@@ 23056
ven 23053
lidos 23052
directora 23051
eder@@ 23049
ati 23044
lograron 23042
ui@@ 23042
Antecedentes 23041
entrenamiento 23035
chos 23024
cuid@@ 23019
compra 23007
libr@@ 23007
Marcos 23002
pier@@ 23002
restauración 22983
acor@@ 22976
llamadas 22974
Rob@@ 22968
tu 22968
rez 22965
gru@@ 22962
Red@@ 22959
Fund@@ 22955
mic@@ 22954
aumentar 22951
exces@@ 22940
art 22938
empieza 22937
reducir 22937
Marco 22936
ográficos 22936
Pueblo 22931
escultura 22923
espacial 22916
85 22914
corpor@@ 22896
entado 22886
oficina 22886
One 22885
pago 22866
disponibles 22859
Mah@@ 22858
explic@@ 22855
dese@@ 22852
ibilidad 22842
maron 22842
Fun@@ 22837
pap@@ 22837
quedaron 22837
lanzada 22829
ésta 22825
asesin@@ 22816
ós 22812
vit@@ 22811
aver@@ 22799
esposo 22781
Jo@@ 22780
Autónoma 22779
suj@@ 22769
descubrimiento 22766
fenómeno 22764
habilidades 22764
uca 22764
paral@@ 22759
conmemor@@ 22753
partida 22745
comúnmente 22743
Nación 22738
uto 22737
Provincial 22735
organismo 22734
aw@@ 22726
rig@@ 22717
49 22712
viejo 22708
culmin@@ 22706
estratég@@ 22695
Vir@@ 22693
pas 22691
escritores 22681
permiten 22679
aprovech@@ 22676
tarea 22664
bras 22657
filas 22655
juventud 22651
administrativa 22647
ocul@@ 22640
Georgia 22633
zó 22632
agrad@@ 22620
consigue 22618
20@@ 22616
orilla 22604
personales 22604
éticas 22600
derrotado 22595
Cic@@ 22585
gia 22581
integrado 22578
och@@ 22578
moda 22577
1913 22574
etti 22573
convers@@ 22570
Alta 22567
Ruiz 22563
minas 22563
Sel@@ 22558
privado 22555
océano 22552
relacionadas 22552
didas 22550
instalación 22549
sp@@ 22549
Valladolid 22547
participa 22545
izar 22542
independientes 22540
istán 22540
tropicales 22526
consideró 22522
uf@@ 22522
traducción 22519
Grand 22510
definitivamente 22502
masculino 22495
tendría 22492
tarse 22486
trenes 22485
verdad 22482
competi@@ 22478
Hernández 22476
sa@@ 22474
US 22470
95 22467
opu@@ 22460
S.@@ 22457
reyes 22453
Mot@@ 22446
cuartos 22441
columna 22440
solitario 22435
ult@@ 22435
kh@@ 22432
urbana 22432
Rus@@ 22430
fácil 22429
Dirección 22428
Sor@@ 22428
gobiernos 22426
Scott 22425
Jackson 22417
invitado 22417
moder@@ 22416
descenso 22412
caballo 22410
Chil@@ 22409
prácticas 22407
Don@@ 22406
abil@@ 22401
ach 22397
publica 22396
interpretado 22387
semifinales 22371
licencia 22366
ip@@ 22365
roca 22359
usuario 22359
aliados 22342
baile 22335
declaración 22335
podemos 22326
ei 22323
Paulo 22322
ame 22321
descripción 22319
otom@@ 22314
uco 22314
CA@@ 22313
fen@@ 22312
imagin@@ 22311
Teresa 22300
capa 22297
elegida 22296
L. 22293
ji 22285
Wil@@ 22284
emitió 22284
pedi@@ 22284
neces@@ 22277
patrimonio 22271
mide 22268
enario 22267
La@@ 22265
Pública 22265
off 22261
corr@@ 22257
Día 22255
pudieron 22255
color@@ 22248
aud@@ 22243
prolong@@ 22242
vicepresidente 22239
obtiene 22234
conv@@ 22232
evo 22231
buque 22230
ejerc@@ 22229
gio 22229
uo 22225
rival 22214
egip@@ 22212
Flor@@ 22208
Disney 22207
medieval 22199
coche 22192
constitución 22192
propuso 22192
sucesor 22191
explotación 22186
poemas 22180
recor@@ 22178
motiv@@ 22170
rico 22168
Virginia 22163
realizadas 22158
Primeros 22153
invent@@ 22153
videojuego 22135
Hur@@ 22132
ramas 22128
castellano 22127
Williams 22123
aprove@@ 22115
sexto 22092
cruz 22088
agentes 22086
Solo 22084
odo 22084
ole 22081
cinta 22078
mantenimiento 22073
aso 22068
ern@@ 22057
Hal@@ 22056
ái 22052
oscur@@ 22046
excep@@ 22033
post@@ 22023
antec@@ 22022
Soci@@ 22021
XI 22020
Filipinas 22019
Lic@@ 22017
quilla 22013
pros@@ 22012
pan 22011
prohib@@ 22010
ori 22003
Baja 21997
Big 21997
fantas@@ 21997
dimensiones 21995
ivamente 21993
ante@@ 21985
Flores 21974
AN@@ 21973
Times 21966
separación 21961
seguidores 21958
pelea 21950
suma 21930
anotó 21925
mudó 21924
AS@@ 21921
conform@@ 21921
edra 21918
introducción 21911
circuito 21909
SE@@ 21907
requiere 21903
negó 21899
Jac@@ 21897
Entertainment 21891
top@@ 21887
relacionado 21881
pistas 21879
eria 21878
Cerro 21875
otorgó 21874
vención 21873
deseo 21871
reos 21864
supl@@ 21860
recientes 21858
conferencia 21854
pasos 21854
conoc@@ 21851
Hacia 21846
portugués 21846
responsabilidad 21846
asociado 21843
asistencia 21838
rechaz@@ 21838
ova 21831
rob@@ 21829
proteger 21821
amistad 21818
Elecciones 21812
usi@@ 21810
Tuvo 21807
Plan 21806
Tokio 21806
Blanco 21805
up@@ 21804
ól@@ 21803
investigadores 21802
Corona 21800
hacerlo 21796
lim@@ 21791
umb@@ 21789
doctor 21784
oamérica 21781
Falleció 21775
cierre 21771
56 21769
cerr@@ 21763
destacó 21757
disputar 21755
report@@ 21755
mus@@ 21753
Ed@@ 21750
adap@@ 21750
incap@@ 21748
hac@@ 21739
ocurre 21734
Guadalajara 21726
actitud 21725
oferta 21725
inn@@ 21721
fico 21718
egu@@ 21716
ision@@ 21714
ical 21713
diver@@ 21710
anal@@ 21707
hal@@ 21704
AR@@ 21691
ile 21691
orígenes 21687
debil@@ 21676
buques 21671
empresario 21662
inauguró 21661
1911 21659
reas 21659
Moreno 21653
detalles 21653
estrenada 21653
ayudó 21643
pre 21643
Lam@@ 21642
imperial 21640
descubre 21634
pará@@ 21633
china 21629
curs@@ 21626
age 21620
euros 21618
gencia 21618
ivas 21613
órbita 21612
combustible 21611
gan 21596
escapar 21595
aloj@@ 21592
delantero 21592
pesc@@ 21592
pri@@ 21591
instrumento 21583
54 21579
Med@@ 21579
Estatal 21569
funcionarios 21568
deportes 21563
1916 21559
descri@@ 21552
esor 21551
ango 21550
Escu@@ 21545
ES@@ 21543
fo 21539
hubiera 21528
did@@ 21525
frecuentemente 21522
vid@@ 21510
6.@@ 21502
Z 21502
Actu@@ 21501
mam@@ 21496
Bolívar 21489
canadiense 21489
espíritu 21489
vá@@ 21484
dificultades 21482
izo 21479
rar@@ 21479
necesidades 21477
alcance 21466
bieron 21466
estima 21463
lida 21463
torneos 21463
Vega 21461
explica 21457
teatral 21455
modernos 21448
primiti@@ 21436
bordo 21435
libres 21428
cot@@ 21427
eclesi@@ 21427
250 21422
decidieron 21417
Secretario 21413
juvenil 21407
q 21404
arqu@@ 21403
candidatos 21402
belleza 21397
Met@@ 21395
Final 21392
colombiano 21388
Fi@@ 21387
primaria 21387
Hum@@ 21386
pedido 21385
VIII 21371
debían 21371
roja 21370
53 21368
entación 21368
entra 21360
1915 21359
ul 21352
inaugurado 21317
registros 21314
ritmo 21308
mero 21305
bit@@ 21294
hectáreas 21290
turismo 21289
personalidad 21281
alcanza 21269
Hel@@ 21266
colonial 21262
intr@@ 21256
fueran 21250
aprobó 21246
tono 21243
fácilmente 21229
enden 21228
profesora 21227
beb@@ 21224
zada 21218
avenida 21217
Puente 21210
sale 21208
div@@ 21205
estilos 21197
Atenas 21194
tiz@@ 21194
ánicos 21193
Burgos 21192
páginas 21191
tareas 21191
cumpli@@ 21180
banco 21179
ampa 21172
evit@@ 21168
Señor 21164
azgo 21162
ofreció 21160
Hall 21149
lag@@ 21147
Sem@@ 21144
hisp@@ 21137
imas 21136
esía 21134
edr@@ 21126
ets 21126
duda 21117
Hen@@ 21115
ingeniería 21112
cristiana 21110
House 21101
I. 21100
autónoma 21089
situ@@ 21080
IX 21078
Jefe 21076
explot@@ 21075
tax@@ 21070
rap@@ 21066
decoración 21065
ásico 21059
izquierdo 21056
pertenecientes 21053
AC 21042
eva 21039
nuestra 21038
Max 21037
Cá@@ 21035
Ale@@ 21031
áceas 21022
confianza 21018
mensaje 21003
ográfico 21003
Mariano 20992
cementerio 20990
taria 20989
Año 20988
urgo 20988
conflictos 20985
transición 20983
cuyas 20974
acompañado 20973
Ste@@ 20971
botánico 20966
debate 20966
Años 20964
parec@@ 20963
Decreto 20962
prisioneros 20951
Dar@@ 20949
uy@@ 20949
sucedió 20948
Murcia 20946
patrón 20943
let@@ 20937
57 20936
etta 20935
reconocida 20932
literaria 20931
máquina 20920
ográficas 20910
producen 20907
enter@@ 20905
artillería 20895
probar 20895
raíces 20892
ão 20892
exposiciones 20888
Fal@@ 20880
Recepción 20863
perf@@ 20856
constitucional 20850
obligado 20850
Hollywood 20838
equ@@ 20837
torio 20834
aki 20833
aceptó 20832
representar 20832
define 20828
reglas 20826
pese 20825
Comunista 20822
Form@@ 20810
sesión 20807
proxim@@ 20794
imos 20792
cen@@ 20789
Gol@@ 20788
concre@@ 20788
campañas 20782
consideraba 20781
uli@@ 20777
Cádiz 20776
surgió 20774
temperaturas 20774
submar@@ 20771
guerras 20769
tác@@ 20767
var 20761
arca 20753
rica 20744
72 20739
Young 20739
zo@@ 20732
ami 20730
españolas 20729
Et@@ 20727
Lim@@ 20727
Clasificación 20725
compens@@ 20724
creciente 20722
Policía 20719
tío 20719
destinado 20715
princesa 20715
Deportes 20708
flujo 20706
cay@@ 20704
abog@@ 20702
peruano 20700
constru@@ 20695
brasileño 20691
enfoque 20691
Zona 20689
reducción 20688
nuestro 20686
Center 20685
crec@@ 20682
señal@@ 20676
ace@@ 20675
Hist@@ 20673
permitir 20671
pedir 20668
fol@@ 20664
emo@@ 20660
dial@@ 20659
Vasco 20657
cular 20657
fut@@ 20657
AC@@ 20656
Derechos 20656
dul@@ 20645
casado 20641
Nic@@ 20633
abarca 20632
acio 20625
fortal@@ 20622
teles 20618
Príncipe 20615
human@@ 20612
aniversario 20610
aten@@ 20609
ok@@ 20609
ítica 20607
suministr@@ 20606
dirige 20597
factor 20597
junta 20596
ide 20591
izada 20587
reclut@@ 20585
comenz@@ 20577
inmedi@@ 20576
introduc@@ 20565
Salamanca 20561
cocina 20557
videojuegos 20555
emigr@@ 20549
emisión 20546
agres@@ 20542
acog@@ 20541
lateral 20540
vesti@@ 20537
ariz@@ 20536
Pic@@ 20533
residentes 20531
órico 20529
Plat@@ 20526
vendió 20525
ain 20513
58 20512
rati@@ 20509
asentamiento 20508
debería 20504
recol@@ 20503
otoño 20501
Sand@@ 20500
ede 20490
senador 20486
62 20483
ahu@@ 20483
Alexander 20478
ish@@ 20475
adul@@ 20473
cios 20453
esclavos 20449
toc@@ 20444
aceler@@ 20440
idiomas 20440
bin@@ 20439
democrá@@ 20438
itado 20425
rápida 20425
pagar 20423
ADN 20420
Dom@@ 20419
adicionales 20418
chilena 20418
ort@@ 20418
ash@@ 20416
1908 20399
casco 20399
4,@@ 20398
coro 20398
montañ@@ 20397
recog@@ 20395
compone 20389
Milán 20386
ali 20385
Pos@@ 20384
Joe 20375
Libro 20375
acontecimientos 20369
cometi@@ 20369
itud 20366
kin 20365
neas 20359
enciado 20356
virus 20350
discu@@ 20339
titul@@ 20332
ejer@@ 20327
In 20319
magnitud 20319
Sinopsis 20312
recinto 20307
Calle 20306
jar@@ 20302
agrícola 20298
secciones 20296
crom@@ 20286
producciones 20286
ámico 20280
milit@@ 20279
On@@ 20273
inteligencia 20273
oga 20268
Wal@@ 20267
trabajado 20260
gica 20249
rat@@ 20249
introdujo 20235
1905 20234
caja 20232
petición 20231
usó 20231
Salón 20227
extra@@ 20227
wood 20224
encar@@ 20219
mari@@ 20218
suger@@ 20212
igualmente 20210
asistió 20205
Chris 20199
caballos 20199
sierra 20198
candidatura 20197
eas 20193
existente 20190
Guinea 20186
Live 20186
olas 20186
Sig@@ 20180
ómica 20173
Walter 20163
It 20162
divor@@ 20161
ic 20160
niña 20160
asent@@ 20155
cañones 20151
naves 20149
Rel@@ 20146
pes 20146
fos@@ 20143
fruto 20141
s. 20139
inversión 20136
pera 20136
cañón 20131
recuperación 20126
RE@@ 20121
integración 20113
H. 20109
tecn@@ 20104
White 20101
propietario 20098
xi@@ 20090
Ford 20089
influencias 20089
endía 20088
pudiera 20079
ayuntamiento 20078
orias 20078
Producción 20072
68 20071
Boston 20065
techo 20063
cóm@@ 20061
estancia 20057
surg@@ 20048
Gre@@ 20046
ocupar 20043
ks 20039
cielo 20031
fran@@ 20029
jado 20025
oya 20021
solicit@@ 20019
Top 20008
confun@@ 20006
adura 20004
nas@@ 20000
mov@@ 19998
iza 19997
Hábitat 19992
Mun@@ 19992
gico 19992
umen 19990
habiendo 19983
und 19977
trató 19973
Puebla 19971
paredes 19965
rocas 19963
cincuenta 19955
rebeldes 19955
huy@@ 19952
Augusto 19948
rutas 19947
calor 19946
A.@@ 19943
médicos 19941
hecha 19933
lesión 19924
volúmenes 19922
Sir@@ 19916
reemplazado 19912
Gracias 19909
Sac@@ 19905
jurisdicción 19902
UU 19901
atacar 19899
Contr@@ 19890
moral 19890
Hot 19879
punta 19879
ogr@@ 19878
Entonces 19868
liberación 19868
tampoco 19864
fortific@@ 19862
domés@@ 19856
ant 19855
lanza 19855
Tem@@ 19850
temporal 19848
udi@@ 19847
cali@@ 19845
respon@@ 19840
indios 19839
vegetación 19838
Alfredo 19837
disminu@@ 19836
quince 19831
Roc@@ 19830
iner@@ 19825
llevaba 19817
Colonia 19816
yeron 19816
Cortes 19815
combati@@ 19815
canto 19814
igos 19813
promover 19807
concej@@ 19805
acceder 19802
buenas 19801
modalidad 19800
polí@@ 19799
notables 19790
estrategia 19788
intentos 19786
promo@@ 19784
lia 19783
aparecer 19782
universo 19781
verso 19781
Fon@@ 19776
reformas 19776
hotel 19774
asta 19771
controlar 19766
alguien 19762
sti@@ 19762
Din@@ 19759
crito 19759
regresa 19756
Todas 19738
Johnson 19735
ejerció 19733
lor@@ 19733
ilar 19731
matar 19726
acero 19724
march@@ 19719
Debutó 19717
expuls@@ 19716
poseen 19716
pisos 19715
Esteban 19711
ches 19711
ropa 19707
causas 19705
nadie 19698
específicamente 19687
Venecia 19682
revolucion@@ 19679
Hijo 19675
Comercio 19669
Jar@@ 19666
preten@@ 19664
Jose 19659
trataba 19658
ernos 19652
Sudamérica 19651
naciones 19650
celebrado 19647
mercados 19644
len@@ 19641
Servicios 19631
sever@@ 19628
productores 19624
Football 19619
carriles 19614
land@@ 19614
creció 19608
ong@@ 19605
nombrada 19604
Jerusalén 19600
66 19599
estando 19598
llegan 19592
mesa 19592
erio 19587
cuentan 19586
éticos 19580
jazz 19575
equivalente 19573
acion@@ 19568
nace 19566
opa 19565
daba 19561
ud 19556
Econ@@ 19553
musulmanes 19551
pró@@ 19550
Edward 19548
impresion@@ 19548
carbono 19544
liz@@ 19539
Peri@@ 19538
descubr@@ 19536
disol@@ 19536
dirigir 19535
esclav@@ 19534
ecciones 19529
grabaciones 19528
Team 19527
63 19517
ciento 19517
estren@@ 19516
aparec@@ 19512
bes@@ 19507
Leon@@ 19504
numer@@ 19496
a.@@ 19495
retras@@ 19495
desaparición 19493
mala 19493
poema 19490
reparto 19478
catalán 19473
nd@@ 19467
paisaje 19466
xa 19466
considerar 19464
Ríos 19462
ric@@ 19461
Trabajo 19457
apellido 19454
grabar 19454
Cristi@@ 19449
Cristóbal 19448
Gl@@ 19445
umbral 19438
libre@@ 19437
cárcel 19431
59 19429
Agr@@ 19429
alternativa 19424
Lucas 19423
Natur@@ 19418
tiro 19416
C.@@ 19412
toneladas 19409
fiscal 19408
historiadores 19408
rebelión 19403
error 19402
ts@@ 19401
étr@@ 19400
SS 19399
ecía 19396
Vietnam 19394
normas 19394
presidenta 19393
anto 19387
mite 19386
Arturo 19379
gratu@@ 19367
Gales 19365
comprende 19359
comenzar 19352
interpretar 19350
profun@@ 19349
ánicas 19343
fórmula 19336
mencionado 19334
Rojo 19329
alo 19316
obtenido 19315
PC 19309
luchar 19307
calcul@@ 19305
Familia 19293
Les 19289
revela 19286
proteínas 19283
estric@@ 19281
manga 19281
cuadrados 19272
cubr@@ 19272
Show 19269
negros 19269
Murió 19267
Medicina 19266
voluntad 19266
Pod@@ 19264
democracia 19264
dici@@ 19263
emia 19263
ha@@ 19262
ofici@@ 19259
.com 19256
dúo 19255
millas 19254
graves 19249
nota 19248
preparación 19248
ō@@ 19248
anal 19247
Marie 19245
entidades 19244
escritora 19243
Ferrocarril 19241
igualdad 19237
bal 19232
bilidad 19232
próximo 19228
asistente 19224
dest@@ 19224
he 19223
arra 19218
Conde 19212
Fox 19211
mez@@ 19210
Liber@@ 19208
incluir 19205
variedades 19203
morir 19201
cí@@ 19192
74 19183
secuencia 19183
nacion@@ 19181
hin@@ 19173
hipótesis 19169
dividido 19168
tomando 19168
Orquesta 19166
Cuatro 19165
implement@@ 19165
98 19158
útil 19158
juz@@ 19145
sueño 19143
1906 19141
Columbia 19140
teatr@@ 19139
rebel@@ 19132
1909 19131
Gab@@ 19130
oz 19130
lio 19123
Gustavo 19122
realizados 19120
.C. 19117
salas 19117
… 19108
quin@@ 19103
nuclear 19099
drama 19098
boca 19094
idente 19091
árabes 19088
alis 19085
siguieron 19080
ector 19078
admir@@ 19071
Emilio 19069
Sc@@ 19067
88 19065
Bahía 19062
nacida 19058
compromiso 19056
marcas 19054
arena 19052
radic@@ 19052
uj@@ 19046
endémica 19042
Rem@@ 19036
voces 19036
compuestos 19035
Bru@@ 19024
tensión 19024
apariencia 19021
archivos 19014
ige 19011
expedi@@ 19008
om 19008
destruy@@ 19005
pesca 19000
ejercicio 18992
Lig@@ 18990
Uni@@ 18987
claramente 18987
vul@@ 18986
fundadores 18981
Universal 18979
conocen 18975
reveló 18972
acas 18971
Hill 18970
rescat@@ 18968
encarcel@@ 18967
continental 18964
ion 18964
telenovela 18964
hun@@ 18961
sc@@ 18957
Bern@@ 18956
ecos 18953
Pri@@ 18946
retirarse 18946
ire 18943
renac@@ 18942
1907 18940
dolor 18940
Raúl 18935
Profesional 18932
Nat@@ 18928
renuncia 18928
definitiva 18921
Campeones 18919
ley@@ 18919
comprometi@@ 18918
Pun@@ 18917
periódicos 18915
frecuente 18910
mostrar 18908
SA 18903
representado 18901
derrotar 18893
embajador 18883
liberal 18882
sustituy@@ 18875
Gutiérrez 18871
opon@@ 18870
Mediterráneo 18869
polic@@ 18864
ró@@ 18857
Gim@@ 18854
convirtieron 18849
endiendo 18848
honor@@ 18848
ff@@ 18838
glob@@ 18836
doctorado 18832
ple 18829
tros 18824
supone 18823
Interior 18822
arzobispo 18822
ítimo 18822
Irán 18819
pilotos 18819
recibieron 18819
mica 18817
teras 18812
publicados 18811
Vo@@ 18809
amentos 18809
salvo 18801
Dic@@ 18800
depende 18798
Som@@ 18796
Polí@@ 18795
Tak@@ 18793
gus@@ 18790
exilio 18787
Vis@@ 18782
encargó 18780
rus@@ 18780
tripulación 18780
amin@@ 18779
construc@@ 18779
udos 18774
Sergio 18773
sig@@ 18771
º@@ 18766
cav@@ 18765
erra 18761
mínimo 18759
Argentino 18758
sugiere 18756
Finlandia 18753
ún@@ 18753
fron@@ 18751
ab 18750
Pro 18747
obo 18747
ibles 18745
Pa@@ 18739
tidos 18738
clientes 18730
gios 18728
relato 18728
equilibrio 18727
descendientes 18724
Tanto 18722
Apo@@ 18714
Son@@ 18714
costas 18714
itan 18712
admi@@ 18710
Ben 18709
logrado 18706
limpi@@ 18704
fres@@ 18697
herramientas 18697
dibujos 18693
prest@@ 18690
agrupación 18686
tiendas 18683
feder@@ 18676
aprendizaje 18675
café 18664
enlace 18664
impuestos 18661
domingo 18651
defensi@@ 18648
gos 18648
Windows 18643
ardo 18639
tormenta 18629
Tran@@ 18628
astronomía 18628
cinturón 18628
eltas 18627
hijas 18625
cuarenta 18617
trama 18614
Silva 18611
vendido 18607
noticia 18602
renunci@@ 18602
extraordin@@ 18599
depend@@ 18598
ats 18595
taría 18595
Metro 18588
introdu@@ 18587
pad@@ 18587
Anna 18585
alizadas 18584
atur@@ 18579
editado 18579
inmigrantes 18578
alrededores 18572
eren 18568
lada 18568
Township 18561
hospit@@ 18556
lin 18556
Grandes 18551
adicional 18543
empleado 18538
estrecho 18538
comunas 18536
perdiendo 18532
Bernardo 18531
Prom@@ 18528
AS 18523
estatus 18521
distin@@ 18519
Haw@@ 18515
letas 18513
entista 18512
onas 18511
Democrática 18505
Emp@@ 18505
holand@@ 18501
apia 18499
abuelo 18498
asalto 18498
respet@@ 18496
evas 18494
Human@@ 18488
1904 18485
claus@@ 18485
cion 18483
ine@@ 18482
gana 18481
jornada 18481
vapor 18479
plane@@ 18477
ólica 18472
moneda 18467
disfrut@@ 18466
empezaron 18465
escar@@ 18465
99 18463
climá@@ 18454
suerte 18450
ónomo 18447
Secretaría 18443
orial 18438
ox@@ 18438
yentes 18436
reunió 18435
Exteriores 18433
Illinois 18432
integró 18432
ut 18430
Sau@@ 18428
ojo 18427
reproduc@@ 18422
ilidad 18420
onios 18415
afluente 18412
académico 18409
millón 18409
visitantes 18409
cac@@ 18408
hí@@ 18406
iller 18401
ientes 18396
continua 18395
Peña 18394
ender@@ 18393
09 18392
University 18392
ky 18392
aquellas 18391
caballería 18386
terrestre 18380
tomado 18377
67 18369
salto 18369
trá@@ 18364
coinci@@ 18361
establecieron 18361
italianos 18361
ek@@ 18358
fuese 18357
pudiendo 18354
Mike 18352
interpretada 18348
š@@ 18347
als 18345
adrón 18344
instituto 18341
trof@@ 18333
gri@@ 18331
haci@@ 18331
electrónica 18325
Bob 18320
Albert 18318
nea 18317
ardia 18316
We@@ 18314
1890 18308
84 18308
River 18301
prof@@ 18301
dan@@ 18299
pregun@@ 18297
inda 18295
Janeiro 18294
fuertemente 18294
destru@@ 18293
zu@@ 18289
arcos 18286
nico 18284
76 18283
Ori@@ 18281
plat@@ 18280
costo 18274
estabilidad 18271
92 18270
Sala 18270
revis@@ 18268
itz 18267
Rodrigo 18265
hogares 18262
colecciones 18251
discográfica 18250
Wilson 18249
ebr@@ 18249
heridos 18249
dobl@@ 18248
Maz@@ 18245
recuerda 18243
apariciones 18240
estatua 18239
integrada 18233
causó 18227
elegir 18227
décimo 18226
Referencias 18224
ré@@ 18223
ámica 18223
abol@@ 18222
Fran@@ 18218
ins 18218
ándola 18217
Bilbao 18212
rab@@ 18212
ús@@ 18212
danza 18207
creando 18201
versi@@ 18200
Clar@@ 18194
compil@@ 18193
Jiménez 18192
incendio 18192
anillo 18186
intercambio 18186
taller 18182
eves 18175
Cabo 18172
ij@@ 18169
dispositivos 18165
monedas 18165
decisiones 18164
crist@@ 18160
Time 18157
verdadera 18151
vor@@ 18146
Ramírez 18142
adecu@@ 18142
organizar 18142
esis 18140
negociaciones 18138
brillante 18135
venir 18128
Rivera 18120
onen 18114
calendario 18108
soporte 18108
Santander 18100
ital 18099
terminal 18094
dé@@ 18093
semillas 18091
Confederación 18089
Arquitectura 18083
murieron 18083
simb@@ 18082
brado 18074
enterrado 18073
abri@@ 18070
tradiciones 18069
Fe@@ 18065
restantes 18060
reloj 18058
Div@@ 18054
Design@@ 18051
demand@@ 18050
78 18047
contienen 18045
colonias 18043
berto 18039
enio 18036
inmediato 18036
fallecido 18031
proporciona 18029
capaces 18027
RA@@ 18025
paron 18022
sexuales 18021
700 18018
Ante 18014
rio 18013
tieron 18011
Oscar 18010
auxili@@ 18010
éndole 18007
alma 18006
existía 18004
realizando 18002
viera 18002
cambia 18000
instaló 17997
Nacido 17991
Gobernador 17989
7.@@ 17984
Jugó 17983
alberga 17980
120 17979
evolucion@@ 17974
tumba 17969
ure 17969
Pensilvania 17968
darse 17968
llen@@ 17967
perspectiva 17965
Christian 17962
comité 17962
satisfac@@ 17960
ance 17959
My@@ 17957
Operación 17951
tribu 17951
Represent@@ 17948
apoyar 17948
las@@ 17947
61 17946
conferencias 17944
gem@@ 17944
mani@@ 17942
Lug@@ 17936
colaboró 17932
Miami 17931
acred@@ 17929
servir 17926
Conferencia 17923
ung 17923
Cad@@ 17920
Morfología 17920
infantería 17920
inver@@ 17918
oll@@ 17915
ee 17914
teros 17914
derri@@ 17910
Español 17907
observar 17906
Ph@@ 17905
presupuesto 17905
procedentes 17903
fre@@ 17900
gris 17888
Wrestling 17887
cho@@ 17886
Kim 17883
eléctrico 17879
Verde 17875
ír@@ 17874
1903 17872
96 17866
físicas 17864
construyeron 17863
Unidad 17861
escultor 17859
G. 17853
racia 17851
sky 17849
Ta@@ 17846
cional@@ 17846
protagoniz@@ 17846
Art 17845
centrales 17841
Joan 17839
est 17838
torres 17838
tada 17836
Capitán 17834
Rev@@ 17833
aéreo 17831
habilidad 17831
rió 17826
dispositivo 17825
Croacia 17824
Siria 17824
cami@@ 17819
CI@@ 17818
occidentales 17816
Libertad 17815
Tony 17814
marc@@ 17813
vivientes 17809
Dol@@ 17804
solista 17801
empez@@ 17800
Padre 17798
crip@@ 17797
Sus@@ 17794
cuello 17790
mecanismo 17790
Marruecos 17786
autonomía 17784
clara 17783
adir 17782
Gil@@ 17780
ortodo@@ 17773
desa 17772
previ@@ 17771
ett 17767
nomin@@ 17763
escribe 17762
vent@@ 17758
esia 17757
puedan 17756
Cent@@ 17755
Catalina 17753
onado 17753
héroe 17751
Card@@ 17747
Constitu@@ 17747
ation 17747
vo@@ 17746
Arg@@ 17735
dat@@ 17726
esen 17722
metál@@ 17718
ecen 17715
Eur@@ 17711
petróleo 17710
sobres@@ 17710
óric@@ 17710
acionales 17705
frase 17705
Pese 17703
ció 17702
Life 17701
empu@@ 17696
ung@@ 17695
Herrera 17694
huevos 17694
Bir@@ 17687
Población 17685
Transporte 17685
pared 17685
ui 17681
mejora 17680
república 17676
tradu@@ 17668
Nicaragua 17665
olvid@@ 17664
ucran@@ 17661
señaló 17656
BBC 17651
socialista 17649
gul@@ 17648
regimiento 17644
die 17643
firmado 17639
moviliz@@ 17639
experim@@ 17633
nat@@ 17630
dismo 17628
ofensiva 17628
bis@@ 17612
anti 17605
soviético 17601
largas 17595
variante 17594
pesos 17588
europeas 17585
aspir@@ 17583
oportunidades 17583
ísmo 17579
Formación 17578
departamentos 17576
Siglo 17572
parcialmente 17572
Brian 17569
UEFA 17567
08 17562
brazo 17561
limitada 17559
Parti@@ 17558
bien@@ 17555
fracaso 17553
defender 17548
XXI 17540
IC@@ 17539
absor@@ 17539
individuo 17539
Gregorio 17538
predic@@ 17538
carr@@ 17535
lectura 17535
habitación 17534
japoneses 17534
ps 17534
chica 17533
agón 17525
máquinas 17524
vocalista 17521
Lav@@ 17519
noctur@@ 17513
Zamora 17511
supuso 17504
Filosofía 17498
rein@@ 17497
usada 17497
9,@@ 17494
riqueza 17494
Hitler 17489
tribut@@ 17489
Person@@ 17488
Peñ@@ 17488
elaboración 17488
Steve 17486
IS@@ 17485
recorr@@ 17485
ajas 17477
ingleses 17475
sat@@ 17473
tiendo 17473
tomaron 17465
ator 17462
tram@@ 17455
señala 17453
conservan 17449
nam@@ 17441
compró 17434
iana 17432
agencia 17430
trato 17429
diseños 17428
dependiendo 17427
caminos 17425
competiciones 17425
regulares 17422
partió 17417
06 17414
cordillera 17413
localizado 17411
volvieron 17410
paqu@@ 17407
aparte 17399
vuelos 17397
Hy@@ 17393
ys@@ 17390
igió 17384
Asunción 17360
1902 17356
69 17352
clas@@ 17351
propi@@ 17350
confirm@@ 17349
maestros 17349
clásicos 17339
Bill 17331
Kir@@ 17331
siglas 17326
82 17324
Ev@@ 17324
86 17323
anga 17321
versos 17321
votación 17315
cantidades 17311
trib@@ 17310
ho 17309
convirti@@ 17308
noble 17307
Regimiento 17306
Harry 17298
ulos 17297
latino 17296
ie@@ 17292
otorgado 17280
aventura 17279
quita 17279
concedió 17278
parecer 17278
ok 17277
dividida 17273
sost@@ 17273
Mujeres 17272
disciplina 17272
organizada 17261
postul@@ 17256
duras 17255
informes 17255
77 17254
tribus 17253
Ohio 17249
cerámica 17249
ater@@ 17248
asisti@@ 17245
Bautista 17244
completó 17237
idi@@ 17234
encontrarse 17233
Programa 17232
1880 17231
situaciones 17231
Ár@@ 17231
aérea 17230
Fueron 17229
estable 17220
piedras 17219
Latinoamérica 17211
Mi 17201
tari@@ 17201
tima 17199
Guerrero 17198
frío 17198
nativos 17197
aceite 17191
dispone 17191
marcado 17188
vidas 17188
ilia 17184
fallecimiento 17183
círculo 17175
umbr@@ 17170
galard@@ 17169
War@@ 17168
exili@@ 17166
Kal@@ 17164
complement@@ 17164
bautiz@@ 17154
ry 17154
terr@@ 17150
placa 17149
herencia 17147
Kong 17145
Independiente 17144
esperanza 17141
egos 17139
AD@@ 17138
campeonatos 17135
83 17133
indígena 17133
iniciar 17132
afec@@ 17128
halla 17126
muros 17125
seguro 17124
gada 17121
universal 17120
uvo 17120
Libre 17110
Imperial 17108
FA 17107
determinado 17103
fotografías 17100
bail@@ 17099
ísima 17098
5,@@ 17097
Cañ@@ 17094
benefici@@ 17090
fauna 17090
Sá@@ 17087
ejecu@@ 17087
necesaria 17086
Carl 17081
volun@@ 17081
itarios 17080
competir 17079
71 17078
apel@@ 17077
serán 17075
Colón 17074
Var@@ 17074
jardines 17074
73 17072
hermanas 17071
ence 17066
perci@@ 17065
High 17062
Princip@@ 17062
circunstancias 17059
oy 17057
Checa 17043
llan@@ 17040
daño 17038
polaco 17038
ómico 17030
iy@@ 17024
orillas 17024
contin@@ 17017
genérico 17014
Supremo 17013
seleccionado 17012
sagr@@ 17007
parecen 17005
formal 17002
retrato 17002
manej@@ 17001
perfec@@ 17001
ruedas 17000
art@@ 16999
variable 16997
estatales 16992
protestas 16990
vender 16990
elevado 16989
laz@@ 16988
existi@@ 16984
Mercedes 16979
fos 16978
sepul@@ 16976
93 16973
vienen 16973
sufrag@@ 16972
considerable 16971
alimentación 16970
corri@@ 16962
culturas 16955
capítulos 16952
Na@@ 16951
04 16946
precios 16945
griegos 16942
portuguesa 16942
02 16941
filme 16936
flora 16936
interrump@@ 16936
hier@@ 16929
bajos 16926
condu@@ 16922
referencias 16916
Adri@@ 16908
auto 16908
comple@@ 16899
destin@@ 16899
superar 16899
Félix 16895
Bro@@ 16894
conciencia 16892
animación 16888
católico 16881
Tes@@ 16880
patio 16880
AP@@ 16874
nucle@@ 16874
tard@@ 16865
OS 16854
emblem@@ 16851
Morales 16848
Turismo 16847
mp@@ 16847
tas@@ 16842
cuentos 16841
recre@@ 16841
Antár@@ 16839
atrap@@ 16825
conse@@ 16819
pena 16814
templ@@ 16813
timos 16811
bloque 16810
Inicialmente 16808
productora 16808
st 16807
cerro 16803
ev 16802
suprim@@ 16800
― 16798
asum@@ 16797
administrativo 16793
uk@@ 16783
ótica 16783
nervi@@ 16782
largos 16781
eliminado 16780
jurado 16776
hubi@@ 16774
interpre@@ 16774
Papa 16773
landia 16772
veter@@ 16772
zado 16771
oner 16764
Activ@@ 16759
separado 16751
candid@@ 16748
fijo 16746
intentar 16744
inscripción 16738
depresión 16735
saga 16735
notas 16734
Óscar 16732
Bay@@ 16730
lej@@ 16729
asen 16724
Observatorio 16723
cro@@ 16722
infraestructura 16719
lis 16719
Taylor 16718
implica 16716
exfutbolista 16712
rusos 16709
consecuencias 16704
merc@@ 16704
exitosa 16702
justific@@ 16701
rurales 16701
apropi@@ 16700
embarc@@ 16700
pist@@ 16698
sch@@ 16698
Vall@@ 16696
ope 16696
teorías 16696
dicas 16694
Ari@@ 16685
empe@@ 16682
alos 16681
adu@@ 16680
Green 16677
Álvaro 16674
91 16673
cuidado 16671
Racing 16668
Kor@@ 16664
cultivos 16662
Air 16659
gui@@ 16659
Fab@@ 16656
guionista 16656
plum@@ 16656
especialista 16655
1898 16651
Hotel 16649
03 16643
secuestr@@ 16643
abast@@ 16642
tividad 16642
rasgos 16641
Fórmula 16638
Karl 16638
tif@@ 16635
melod@@ 16633
contempl@@ 16632
lares 16631
igen 16620
desembar@@ 16619
onom@@ 16609
Situ@@ 16606
Andes 16605
Apertura 16604
Dominicana 16604
particulares 16604
resolver 16603
transformación 16600
víctima 16600
ini@@ 16597
suel@@ 16597
comentó 16592
haberse 16592
Palma 16591
mun@@ 16588
pleno 16586
cú@@ 16584
Kur@@ 16583
compon@@ 16580
frac@@ 16580
parejas 16574
quedan 16574
Af@@ 16570
partículas 16565
polis 16564
emin@@ 16560
profesores 16560
marcador 16554
Nú@@ 16552
87 16548
judía 16548
índice 16548
North 16546
construcciones 16543
vivían 16543
Romero 16541
incendi@@ 16541
gestion@@ 16539
dejado 16538
arbus@@ 16537
cer 16537
Mul@@ 16531
fur@@ 16528
dirse 16527
edific@@ 16527
edentes 16525
sublev@@ 16522
marqués 16521
considerados 16520
mezcl@@ 16520
subterrá@@ 16518
seno 16515
ablemente 16513
desambiguación 16503
valor@@ 16502
automóvil 16501
ain@@ 16499
filial 16498
zi 16496
Pil@@ 16492
Society 16489
femen@@ 16483
cámaras 16482
concluyó 16481
detall@@ 16480
ref@@ 16479
bloque@@ 16478
Llan@@ 16475
ann@@ 16473
1870 16470
dades 16468
Segundo 16467
tric@@ 16463
ventanas 16463
chó 16462
bos@@ 16460
Ernesto 16456
atorios 16456
Temporada 16455
adver@@ 16454
Ib@@ 16452
intelig@@ 16447
duro 16444
ebre 16444
virtu@@ 16444
incidente 16440
ensayos 16439
orientación 16437
81 16434
gama 16432
Nápoles 16422
diente 16420
ax 16419
tér@@ 16417
Habana 16411
Pur@@ 16411
jo@@ 16411
permitía 16411
hi 16410
Q 16405
abe 16402
ísimo 16401
Alc@@ 16399
ster@@ 16395
confes@@ 16394
cima 16392
telef@@ 16391
caer 16385
evalu@@ 16381
conspir@@ 16380
alu@@ 16373
circul@@ 16370
ordin@@ 16370
asco 16367
Aur@@ 16366
Muerte 16366
representada 16366
uncia 16366
gim@@ 16359
ais 16355
ruinas 16354
qui 16353
elia 16352
profunda 16352
sucesión 16350
fichó 16349
acusado 16346
vivienda 16344
catalog@@ 16343
ularidad 16342
vencer 16342
ER@@ 16339
Medina 16330
ét@@ 16330
arquía 16329
gest@@ 16326
beneficios 16318
ignor@@ 16316
rechazó 16305
mán 16300
ington 16297
prestigi@@ 16293
anismo 16286
ingres@@ 16286
már@@ 16284
desper@@ 16282
tión 16282
proyect@@ 16280
Existe 16279
tando 16276
Muchas 16275
lismo 16270
ileg@@ 16269
omb@@ 16267
comunista 16266
Canarias 16265
privadas 16260
instal@@ 16254
exc@@ 16253
dicos 16241
agn@@ 16240
cribió 16240
igi@@ 16240
cens@@ 16239
atar 16238
č@@ 16238
laboratorio 16236
ástico 16236
79 16235
iéndose 16235
publicar 16227
retiro 16227
ceros 16223
Conserv@@ 16221
demol@@ 16214
Asuntos 16213
semej@@ 16211
predec@@ 16208
presidenciales 16206
lanzar 16205
Trinidad 16202
matemáticas 16201
legado 16198
crearon 16193
prometi@@ 16193
típ@@ 16188
parcial 16187
vuelto 16187
Vas@@ 16183
tut@@ 16181
Avi@@ 16180
tería 16180
Blue 16175
acabar 16175
enfrentamiento 16174
tad@@ 16174
vín@@ 16174
Island 16173
Produc@@ 16173
ninguno 16173
ejércitos 16170
eve 16170
vivía 16165
prov@@ 16163
decim@@ 16161
sueco 16161
ki@@ 16158
sesiones 16158
Oper@@ 16156
94 16155
COVID 16151
eliminación 16149
ume 16148
cinematográfica 16146
interno 16141
acuerdos 16138
lus@@ 16132
Magdalena 16130
reuniones 16121
Arthur 16119
persecución 16116
07 16113
blancas 16113
05 16112
Tenía 16112
quir@@ 16111
estal 16109
America 16106
jeros 16106
1901 16105
docente 16105
pertenecía 16105
Hacienda 16102
pár@@ 16101
séptimo 16100
muestras 16094
iban 16089
específico 16088
secundarios 16086
dioses 16084
proporcionar 16084
plazas 16080
liderazgo 16079
argumento 16076
reconstrucción 16076
universitario 16074
Sinf@@ 16073
fasc@@ 16071
supervis@@ 16068
Roger 16064
archivo 16063
homónimo 16059
Guzmán 16058
cuestiones 16057
esperaba 16055
imb@@ 16055
aparentemente 16051
Davis 16049
ornam@@ 16049
pobres 16049
porcentaje 16048
cercanos 16047
ary 16046
aka 16043
literario 16040
pis@@ 16040
hol@@ 16038
AM@@ 16035
utilización 16035
lluvias 16026
yr@@ 16026
diversidad 16021
Cro@@ 16019
Regres@@ 16019
circular 16019
corrientes 16018
Gonzalo 16014
invitados 16014
Có@@ 16013
elio 16013
venció 16011
inger 16009
Juana 16007
vistas 16007
escoc@@ 16005
T. 16004
visible 16002
89 15997
Cristina 15997
Puede 15994
decía 15994
South 15988
lov@@ 15988
Inici@@ 15987
continuaron 15987
ferroviaria 15985
Rojas 15974
soport@@ 15974
pertenecen 15972
ear@@ 15969
detenido 15964
escaños 15957
intelectual 15955
renunció 15954
alfab@@ 15952
cráter 15948
Múnich 15945
primo 15945
gráficos 15944
energ@@ 15942
tidae 15942
Kat@@ 15939
12@@ 15934
Viejo 15933
1895 15932
decisi@@ 15932
Ál@@ 15931
imen 15930
Sk@@ 15929
bano 15921
circulación 15918
áticamente 15912
Carre@@ 15911
anime 15909
senc@@ 15908
ermita 15903
extinción 15903
unci@@ 15903
inae 15902
cristianismo 15899
elegidos 15898
interpretando 15898
arran@@ 15895
dibujo 15890
Bri@@ 15885
Ga@@ 15884
bia 15882
Doc@@ 15878
Acción 15874
imposible 15873
óricos 15872
Cuenca 15867
órganos 15867
desarrol@@ 15857
97 15856
Aran@@ 15855
Pes@@ 15843
oración 15843
kg 15841
fronteras 15838
perdieron 15837
antigüedad 15834
agrícolas 15833
famosos 15832
supuesto 15832
kar@@ 15831
dueño 15829
Ham@@ 15825
muro 15823
13@@ 15821
automóviles 15819
presentaron 15817
conocimientos 15815
excav@@ 15813
01 15812
Cartagena 15812
long@@ 15809
industriales 15808
retor@@ 15808
Fuente 15807
hormig@@ 15806
dó@@ 15803
solicitó 15802
Indonesia 15798
alcanzando 15798
ensayo 15791
Aqu@@ 15788
mento 15786
jesu@@ 15785
entro 15783
teo 15777
tol@@ 15773
tus 15773
pobl@@ 15770
intensidad 15765
zas 15765
premi@@ 15762
aparecido 15760
priv@@ 15759
alguno 15755
icaciones 15753
vocal 15752
insectos 15751
Úl@@ 15749
Der@@ 15745
ocional 15743
Posee 15741
asegurar 15741
talleres 15741
combates 15740
osidad 15740
otipo 15736
barra 15734
V. 15732
abrir 15732
7,@@ 15729
retirado 15727
representaciones 15725
Hong 15724
Serbia 15724
Suprema 15724
multitud 15721
santo 15719
Hon@@ 15718
crimen 15717
abre 15714
caí@@ 15714
retablo 15712
frecuentes 15711
ist 15703
herido 15701
Kaz@@ 15694
coches 15689
Night 15687
W. 15687
reducido 15682
ambiental 15680
lán 15674
ves@@ 15668
almac@@ 15665
bro 15665
hiper@@ 15663
Series 15661
comentarios 15657
Ly@@ 15654
estrecha 15654
liberales 15654
rir 15654
buenos 15651
Jersey 15650
naci@@ 15649
electo 15648
médica 15644
composiciones 15643
salvar 15642
Juventud 15639
dero 15638
Pá@@ 15637
yn@@ 15637
icul@@ 15635
musul@@ 15634
Entr@@ 15632
flan@@ 15632
monarca 15631
8.@@ 15628
buscando 15628
cón 15628
Simón 15623
Lan@@ 15620
ricos 15620
Apar@@ 15619
captura 15619
dichos 15619
limita 15615
académica 15613
ciclista 15606
Astr@@ 15604
enfoc@@ 15603
Mec@@ 15599
tin 15599
stein 15597
extendió 15596
secuencias 15594
proteína 15591
campamento 15584
remodel@@ 15583
trabajaba 15583
Varios 15582
deuda 15582
osaurus 15582
conceptos 15577
propor@@ 15567
1899 15566
refuer@@ 15564
jurí@@ 15562
Mill@@ 15561
éu@@ 15560
icidio 15559
sk@@ 15557
Stone 15554
Lisboa 15552
uel@@ 15546
fracas@@ 15544
asimismo 15539
Héctor 15535
Miranda 15535
Especies 15529
reglam@@ 15529
católicos 15528
marina 15527
jugado 15524
tigo 15515
trece 15514
produjeron 15511
pio 15509
Jardín 15506
ules 15500
creía 15497
electr@@ 15497
azúcar 15495
copa 15495
helic@@ 15489
Ce@@ 15487
vientos 15487
humanidad 15482
nica 15481
autora 15477
ficas 15475
comprar 15474
Proyecto 15470
Mem@@ 15467
experiencias 15467
nacionalidad 15466
Elena 15465
protagonistas 15463
Obra 15459
resol@@ 15458
pregunta 15456
cano 15452
adoptó 15449
Neg@@ 15448
maíz 15445
AL@@ 15441
ney 15440
Dev@@ 15437
Fo@@ 15433
drogas 15433
nobleza 15433
interpreta 15428
mision@@ 15427
Samuel 15426
originaria 15425
permiso 15425
sá@@ 15424
ásticos 15424
ógico 15424
clasificado 15423
Arizona 15420
exclu@@ 15418
mb@@ 15418
ves 15418
cionario 15409
relieve 15409
Alcal@@ 15406
terremoto 15406
Gan@@ 15405
variantes 15404
ná@@ 15400
eres 15398
pac@@ 15397
comienzan 15396
lluvia 15396
Suárez 15393
nobles 15392
condenado 15391
seguía 15391
Artí@@ 15390
aé@@ 15389
compite 15389
Incluso 15387
Irak 15386
peregr@@ 15386
concejo 15381
ister@@ 15381
nieto 15381
Diputados 15378
ling 15376
Cum@@ 15375
sesenta 15375
Oli@@ 15370
Ingeniería 15364
amas 15362
Rio 15359
band@@ 15359
Rugby 15358
inspiración 15355
Maj@@ 15354
sober@@ 15351
madur@@ 15349
marrón 15345
especializado 15343
síntomas 15342
Amar@@ 15338
ós@@ 15334
ótico 15332
Marvel 15331
ika 15331
tara 15330
aumentó 15329
grav@@ 15324
much@@ 15322
provenientes 15315
zan 15307
visi@@ 15303
usiones 15302
posicion@@ 15301
tendrá 15301
Group 15299
ativamente 15297
oridad 15297
relatos 15296
enl@@ 15295
tribunal 15291
Sajonia 15288
Fel@@ 15283
darle 15283
Cin@@ 15277
Capital 15276
ign@@ 15273
manten@@ 15273
poseía 15268
Alicante 15267
plena 15266
entregó 15259
Margarita 15258
econom@@ 15258
box@@ 15256
apu@@ 15255
perro 15254
curre 15253
eñ@@ 15246
íaco 15246
Adi@@ 15245
Guar@@ 15244
AM 15241
cualquiera 15241
Den@@ 15240
colonos 15240
autop@@ 15239
Laguna 15237
jan 15236
comunicaciones 15230
aline@@ 15227
lara 15227
visitó 15224
roso 15221
Claudio 15217
BA 15215
leche 15215
acord@@ 15213
hoja 15213
WWE 15212
aceptar 15202
carreteras 15202
Sagr@@ 15201
generar 15201
1897 15197
Bou@@ 15196
Jacques 15195
burg 15195
Chrysomelidae 15194
Kan@@ 15192
ofrecer 15191
requ@@ 15190
Quito 15185
pron@@ 15185
disolución 15183
bir 15182
test@@ 15176
LP 15175
cuadros 15175
ganadería 15175
establecida 15169
gusto 15168
Obr@@ 15164
ik 15163
incremento 15163
presentaciones 15160
televisi@@ 15159
cien 15155
Petr@@ 15153
ponen 15153
sas 15153
viajar 15152
costumbres 15151
señales 15151
heredero 15149
hembras 15148
manifestaciones 15146
Lake 15145
dez 15140
convocado 15133
archipiélago 15132
excelente 15125
bana 15121
Ciencia 15120
cuestion@@ 15115
confir@@ 15109
nacional@@ 15108
delan@@ 15105
inauguración 15105
ocupada 15099
manipul@@ 15098
zap@@ 15097
inser@@ 15096
anuales 15094
talento 15091
inten@@ 15088
asis 15087
lis@@ 15086
conjuntos 15081
citado 15080
homosexu@@ 15080
congreg@@ 15078
1896 15077
Ejecutivo 15077
contratado 15075
14@@ 15068
Bul@@ 15068
proc@@ 15067
sufri@@ 15065
Semana 15064
alternati@@ 15064
cari@@ 15064
usieron 15064
cabe 15055
oli 15053
propuestas 15048
israelí 15047
almacen@@ 15045
aventuras 15045
rug@@ 15045
olímpico 15040
Au@@ 15038
ier 15037
NA 15036
fís@@ 15034
Benito 15031
Pot@@ 15031
ismos 15031
relacionada 15026
obligó 15024
íl@@ 15023
ill 15020
obst@@ 15020
satélite 15017
sof@@ 15017
profesión 15013
uelo 15009
tis@@ 15007
demostrado 15003
Florencia 14998
Hidalgo 14997
brazos 14996
plas@@ 14995
Barrio 14991
dobles 14989
ges@@ 14987
Universitario 14978
corrupción 14978
negativa 14976
Libertadores 14974
9.@@ 14968
Poder 14964
Bé@@ 14963
condujo 14962
sk 14961
ideal 14959
Estuvo 14955
1860 14953
belga 14949
homónima 14946
bas 14944
acom@@ 14943
cardenal 14943
bos 14940
definir 14936
solic@@ 14936
visual 14932
eligió 14930
idamente 14927
erte 14926
ficos 14924
recu@@ 14924
Histórico 14922
discípul@@ 14921
enza 14921
escritas 14918
hábit@@ 14918
presas 14914
lea 14911
magn@@ 14909
espiritual 14908
abord@@ 14902
sociedades 14896
Norteamérica 14895
Ku@@ 14892
jada 14889
andal@@ 14887
cooperación 14887
partidarios 14887
sobrino 14884
Duque 14876
cifra 14874
ean 14874
radical 14872
seco 14872
paciente 14871
Simon 14870
Republic@@ 14861
itu@@ 14860
erg@@ 14859
Premier 14858
Reb@@ 14858
ecuatori@@ 14857
campeones 14856
metropolitana 14855
Dan@@ 14851
típico 14851
seca 14850
batallas 14848
Molina 14847
necesita 14846
apos@@ 14845
Muñoz 14842
cep@@ 14838
Alpes 14833
indican 14832
Medalla 14826
asteroide 14823
publicidad 14823
Vit@@ 14822
alim@@ 14821
retorno 14821
FIFA 14820
humor 14820
gabinete 14819
depos@@ 14815
1889 14811
Realizó 14808
chinos 14807
Mayo 14804
escenarios 14801
profundo 14799
sam@@ 14798
penetr@@ 14796
restr@@ 14796
Lewis 14795
mitología 14794
móvil 14793
Cabe 14789
únicos 14788
asociados 14782
llevando 14782
Ped@@ 14778
Patr@@ 14776
migr@@ 14776
desaparecido 14775
Gil 14771
demostró 14771
Baviera 14769
paro 14767
Juega 14765
Cup 14764
cobertura 14761
inde@@ 14761
bord@@ 14759
esculturas 14759
Massachusetts 14757
cortos 14755
jugaba 14755
cobre 14753
Castell@@ 14742
aparecieron 14742
quet@@ 14742
misteri@@ 14739
parecía 14739
sexta 14734
Hizo 14733
terror 14733
Kh@@ 14731
oli@@ 14731
afr@@ 14730
desierto 14726
ity 14726
rumbo 14723
mono@@ 14719
mecánica 14716
Ot@@ 14712
neutr@@ 14712
jefes 14709
ambre 14708
Vargas 14706
tradicionalmente 14704
muere 14699
discre@@ 14698
reconoció 14698
repres@@ 14698
edas 14695
Origen 14690
alc@@ 14690
30@@ 14687
flot@@ 14686
opl@@ 14686
Bell@@ 14685
bomba 14685
unieron 14682
Alej@@ 14680
cercanías 14680
entender 14679
Aquí 14678
parlamento 14675
Institu@@ 14673
ecida 14673
semi@@ 14673
Ep@@ 14672
especializada 14672
penal 14671
enor@@ 14668
valenci@@ 14666
puertos 14664
posibilidades 14663
revisión 14663
planos 14659
Colorado 14654
pura 14652
Lord 14646
Kam@@ 14641
históricas 14640
llamar 14634
ganaron 14630
Sav@@ 14629
exit@@ 14621
matem@@ 14621
salón 14620
esquina 14616
judío 14610
próxima 14609
actúa 14605
1891 14600
soldado 14600
cerrado 14599
reconoce 14598
sson 14597
castell@@ 14593
Lago 14592
ancha 14591
yl@@ 14590
AT@@ 14589
propietarios 14589
consciente 14587
constituyen 14587
promulg@@ 14586
novia 14585
ofreci@@ 14583
ópo@@ 14582
expertos 14581
positi@@ 14581
Giovanni 14575
cooper@@ 14575
basados 14570
ectar 14565
pares 14565
creador 14564
pensar 14564
alcanzado 14561
Código 14560
esco@@ 14557
Microsoft 14555
Rein@@ 14554
procedimiento 14553
preci@@ 14551
ald@@ 14550
recuer@@ 14546
reforz@@ 14546
Lib@@ 14542
Alex 14540
construidos 14540
Recibió 14538
verti@@ 14538
endida 14537
Literatura 14534
igas 14534
Originalmente 14533
trag@@ 14531
Day 14526
tot@@ 14526
coster@@ 14525
cubre 14524
bati@@ 14523
sex@@ 14523
consegu@@ 14520
gn@@ 14518
puntuación 14507
fósiles 14506
asteroides 14505
esi@@ 14505
arquitect@@ 14504
hacían 14495
almirante 14493
construy@@ 14490
Sum@@ 14487
UCI 14486
certific@@ 14486
procedente 14483
8,@@ 14482
jus@@ 14478
imit@@ 14476
incluidas 14468
tienden 14466
propuesto 14465
viuda 14465
tecnologías 14463
dal@@ 14461
aní 14454
sustituido 14451
intensi@@ 14447
contraste 14445
precisamente 14443
Azul 14441
latino@@ 14439
venezol@@ 14439
olla 14438
aficionados 14437
Guay@@ 14435
amiga 14434
Bulgaria 14432
cristiano 14432
entradas 14431
siente 14431
campesinos 14430
ífico 14430
Capit@@ 14429
diz@@ 14428
prol@@ 14428
15@@ 14427
aeron@@ 14426
armada 14426
ze@@ 14426
extensa 14422
cerebro 14417
subfamilia 14417
iniciales 14416
Mak@@ 14414
ígenes 14413
Honor 14411
Información 14411
asociaciones 14410
vér@@ 14409
ántico 14409
llevada 14408
representó 14407
Estudi@@ 14401
localiza 14398
Diario 14396
´ 14395
Elizabeth 14394
Antiguo 14393
frutos 14393
AP 14389
compuso 14389
plataformas 14389
masas 14388
conseguido 14386
asist@@ 14384
bula 14382
FI@@ 14381
legales 14381
guía 14377
atmósfera 14376
icismo 14375
funciona 14373
icon@@ 14373
consiguiendo 14372
our 14371
Tim@@ 14369
quis@@ 14368
cubierto 14367
Championship 14365
bando 14363
Alb@@ 14361
nuestros 14359
blan@@ 14355
privileg@@ 14354
pose@@ 14352
Navidad 14349
sonidos 14347
cedido 14346
espectáculos 14345
astre 14339
continuidad 14337
odoro 14334
1888 14330
Ra@@ 14329
sentencia 14329
arto 14327
nido 14327
viviendo 14326
abandonado 14322
centra 14318
dy 14318
parecido 14317
dejaron 14315
Mand@@ 14313
acep@@ 14312
dirigentes 14311
evacu@@ 14310
awa 14308
Tan@@ 14306
Lac@@ 14305
federales 14305
Hans 14304
correspondientes 14304
Oficial 14302
esco 14301
imperi@@ 14301
well 14300
acús@@ 14299
Esa 14294
ih@@ 14294
Integr@@ 14293
libras 14293
ñado 14288
Rum@@ 14287
aer 14285
Humanos 14283
paralelo 14283
arlas 14282
Han@@ 14281
quera 14280
relacion@@ 14280
simples 14280
cercanas 14274
usados 14270
inspec@@ 14266
CA 14262
Gro@@ 14257
Veracruz 14257
Camino 14253
instancia 14252
antil 14251
disputado 14251
asión 14249
celular 14248
mer 14248
cionado 14245
realista 14243
Laura 14239
deportivos 14233
eñas 14233
nombramiento 14231
Medellín 14230
US@@ 14230
miedo 14229
sucedido 14229
ogía 14228
carbón 14227
Rol@@ 14222
inmun@@ 14220
extremadamente 14219
asentamientos 14218
× 14215
ingo 14208
lanzaron 14205
suficientemente 14201
impresión 14200
Yo 14197
catorce 14196
descubrir 14196
sustan@@ 14193
popul@@ 14192
SC 14189
Dado 14187
destacando 14185
protagonizó 14183
Union 14175
concreto 14174
sí@@ 14174
reemplazo 14173
tilla 14173
estacion@@ 14172
Dal@@ 14168
venezolano 14167
glaci@@ 14164
técnicos 14160
previa 14159
DE@@ 14158
caci@@ 14157
limitado 14155
recaud@@ 14155
Association 14151
Prado 14148
Ant@@ 14135
timo 14135
gram@@ 14134
blind@@ 14133
erras 14132
adyac@@ 14123
leer 14119
localizada 14118
aler@@ 14112
lingü@@ 14111
espir@@ 14108
suspendi@@ 14105
respectiv@@ 14103
Oviedo 14101
sistem@@ 14101
temática 14101
inar 14097
play 14095
óxido 14095
positivo 14092
bancos 14091
terminado 14091
Área 14090
Adam 14087
Adolfo 14087
refugio 14083
dición 14082
protesta 14082
abildo 14081
oxid@@ 14079
tenga 14079
Mauricio 14077
respondió 14068
Paso 14067
cadá@@ 14067
fam@@ 14067
Archivo 14066
Little 14066
consist@@ 14065
Perman@@ 14064
punk 14064
uv@@ 14064
Congo 14061
Coruña 14061
apoyó 14061
gobernante 14059
banqu@@ 14056
laboral 14055
ener@@ 14051
nazi 14051
acán 14050
heter@@ 14049
oxígeno 14049
PS@@ 14048
clan 14048
eter 14047
tenis 14047
escolar 14044
inclinación 14040
Napoleón 14038
Cav@@ 14037
sé@@ 14035
vidrio 14031
Lag@@ 14027
SA@@ 14023
festivales 14023
ren 14023
responsables 14023
conforman 14021
tea 14019
rodaje 14018
à@@ 14018
directores 14017
cadenas 14015
discrimin@@ 14015
ocupando 14011
ícula 14010
dónde 14008
Kon@@ 14003
elevada 14001
facilit@@ 14001
pasan 13999
François 13995
Ortiz 13993
VI@@ 13993
Log@@ 13991
pendientes 13991
valid@@ 13990
asignado 13987
socio 13986
espada 13982
yar@@ 13982
fili@@ 13980
latina 13979
ian 13977
contenidos 13976
sujeto 13976
usualmente 13975
contribuyó 13972
desempeña 13968
asistencias 13967
rol@@ 13966
iz 13965
Liberal 13964
frecu@@ 13964
onista 13963
sey 13962
emis@@ 13961
agos 13959
necesarios 13956
mana 13955
utilizadas 13953
virtud 13953
amante 13952
brig@@ 13947
quizás 13945
Sir 13944
extrem@@ 13944
Pop@@ 13938
aprobado 13938
pobladores 13938
side 13937
emitido 13936
discográfico 13935
kl@@ 13932
garanti@@ 13931
men 13930
fundamentalmente 13929
Administr@@ 13928
crucero 13927
Ú@@ 13924
destruir 13923
éndolo 13923
Boys 13919
héroes 13919
áneo 13918
Jan@@ 13917
dram@@ 13917
encio 13915
Mexicana 13913
ider@@ 13913
1893 13912
Sam 13912
top 13912
capac@@ 13911
Op@@ 13910
ath@@ 13903
anuncio 13902
vena 13899
prestigio 13898
francesas 13897
tratados 13897
reproducción 13896
AT 13895
1500 13894
uas 13893
cambiado 13892
Lanz@@ 13889
ille 13889
ejercer 13885
varía 13885
convertiría 13883
renovación 13881
Tiempo 13879
permanece 13877
ny@@ 13876
fases 13871
Trabajó 13870
inga 13869
armado 13868
Madre 13866
vieran 13866
Dam@@ 13864
recep@@ 13863
dichas 13862
dificultad 13862
altamente 13860
calificación 13859
copia 13856
incorporación 13856
trazado 13855
acidad 13854
cé@@ 13854
Mancha 13853
modern@@ 13852
soberanía 13852
Letras 13851
inaugurada 13850
invadi@@ 13849
ongo 13847
bus 13844
fiere 13843
tre@@ 13843
dos@@ 13839
tent@@ 13836
cuar@@ 13833
mental 13833
investigador 13829
torado 13826
Legisl@@ 13825
Lem@@ 13824
East 13823
10.@@ 13818
anus 13818
oter@@ 13818
permitir@@ 13818
formalmente 13816
visitar 13816
arcas 13810
bier@@ 13806
eficiente 13805
avia 13797
contemporánea 13795
Cand@@ 13793
anarqu@@ 13791
respeto 13789
Sex@@ 13788
inspirado 13788
caballero 13787
tillo 13786
Eric 13781
Forma 13781
descrip@@ 13781
dias 13781
Lab@@ 13780
Ciudad@@ 13779
Revista 13779
uda 13778
radiación 13775
ificaciones 13774
artificial 13773
diarios 13772
iscal 13772
Romano 13771
beneficio 13771
idén@@ 13771
Bibli@@ 13770
asio 13765
ulo 13765
futbol@@ 13762
fina 13758
Mateo 13756
aumenta 13756
habilit@@ 13755
Awards 13752
bolivi@@ 13752
participando 13751
ologías 13748
comunistas 13744
consistía 13744
mis 13744
Canción 13742
precisión 13742
DE 13741
reserv@@ 13741
unido 13736
recibiendo 13735
emergencia 13734
irland@@ 13732
coinc@@ 13731
Convención 13730
colap@@ 13729
Indias 13728
doctrina 13728
ascendido 13727
brind@@ 13723
renom@@ 13723
arina 13722
débil 13721
propul@@ 13720
componente 13719
lave 13719
emisiones 13715
icion@@ 13713
republic@@ 13713
destacada 13711
pérdidas 13709
absoluto 13707
entan 13707
Duc@@ 13706
masculina 13705
Nintendo 13702
Brigada 13693
certamen 13693
Blan@@ 13688
16@@ 13685
tanques 13680
enviar 13674
bó@@ 13673
osaur@@ 13672
adecuado 13670
Valparaíso 13669
mamíferos 13669
astron@@ 13668
LA 13667
Francesa 13664
sufrido 13663
c. 13662
pandemia 13662
sabor 13656
Ejempl@@ 13654
ascendencia 13651
obispos 13651
with 13648
Campos 13647
superfici@@ 13641
ingen@@ 13639
mera 13636
Natural 13634
6,@@ 13633
pierde 13633
Había 13632
bol 13630
permitiendo 13630
codific@@ 13626
diseñada 13622
Agencia 13621
mención 13620
nic@@ 13620
seguida 13620
Lev@@ 13615
acre 13615
competencias 13611
identificación 13609
supre@@ 13607
digitales 13606
exitoso 13606
gigante 13605
Bes@@ 13604
huir 13604
reform@@ 13602
1892 13599
Paraná 13599
fo@@ 13599
ampliación 13597
mapa 13597
hero@@ 13596
contenía 13594
1800 13593
matriz 13593
monumentos 13593
soviética 13593
Hay@@ 13592
estaría 13591
positiva 13590
trasladado 13588
S.A. 13587
1868 13585
isco 13585
árqu@@ 13585
ass@@ 13581
navegación 13579
1885 13577
vern@@ 13576
mascul@@ 13575
peruana 13565
clasificó 13564
líquido 13564
tend@@ 13560
isto 13555
peor 13555
pa@@ 13552
cae 13549
retratos 13549
selecciones 13548
mé@@ 13545
rugby 13545
LE@@ 13541
núcleos 13541
MTV 13539
filosó@@ 13539
Pau@@ 13537
errores 13537
sostiene 13530
Luisa 13524
Rad@@ 13524
tocó 13520
iko 13519
foro 13518
lumin@@ 13515
semin@@ 13512
ano@@ 13511
emer@@ 13510
E.@@ 13506
iten 13505
magné@@ 13500
excel@@ 13499
eus 13494
pecho 13493
fieles 13492
meteor@@ 13492
Alan 13491
Ferro@@ 13491
andra 13488
ñez 13488
orías 13485
uniforme 13483
préstamo 13481
ochenta 13479
portero 13479
cortometr@@ 13477
concesión 13472
Roja 13471
delegación 13470
Praga 13468
muer@@ 13468
ū@@ 13467
Cantabria 13466
Ray 13466
magistr@@ 13466
refleja 13466
Aun 13465
arroyo 13465
visitas 13463
Exposición 13461
enamor@@ 13461
congres@@ 13457
clasificados 13452
Tecn@@ 13449
traje 13449
acont@@ 13447
cúpula 13447
Banda 13442
cantar 13442
setenta 13442
emplea 13441
previsto 13438
Pamplona 13436
clav@@ 13435
incluían 13434
símbolos 13434
académicos 13433
itarias 13433
exteriores 13432
Friedrich 13429
vag@@ 13429
cose@@ 13428
restabl@@ 13428
1894 13423
lieg@@ 13423
1886 13422
Mam@@ 13422
estrat@@ 13419
modificaciones 13419
eer 13418
Lov@@ 13417
conclusión 13410
ticul@@ 13410
It@@ 13409
entada 13409
fragmentos 13409
Carr@@ 13407
Ahora 13405
Guadalupe 13403
Sony 13403
adquisición 13403
leta 13401
bera 13399
Cy@@ 13397
imi@@ 13396
legislación 13396
comprom@@ 13395
Rab@@ 13393
talla 13392
iliz@@ 13385
Vuelta 13384
cobr@@ 13384
asistir 13383
sit@@ 13382
mentación 13378
autén@@ 13376
boda 13376
preocupación 13376
anualmente 13374
regla 13374
Sport 13373
Metropolitana 13372
Cot@@ 13367
enfrentarse 13366
lan 13366
adelant@@ 13363
cionar 13360
identi@@ 13360
minerales 13359
rehabilit@@ 13355
Game 13354
Quir@@ 13352
bert 13352
perfil 13352
yan 13350
defens@@ 13346
gor@@ 13345
suspensión 13341
Punta 13338
azada 13336
ham@@ 13335
Mic@@ 13334
iniciaron 13330
celebrar 13328
períodos 13326
Sigu@@ 13325
ci 13325
suelos 13325
fundamentales 13324
bau@@ 13321
labor@@ 13320
fle@@ 13319
pref@@ 13319
Anti@@ 13316
Atlanta 13313
Reserva 13309
americanas 13309
llamarse 13308
escul@@ 13303
verdes 13302
operativo 13301
diplomático 13297
Han 13295
vein@@ 13295
Fac@@ 13294
yn 13293
Infantería 13291
PSOE 13291
viernes 13287
Presidencia 13285
epíteto 13285
ko@@ 13283
zi@@ 13281
distinción 13279
Antigua 13276
conductor 13276
Toronto 13275
Mallorca 13274
ses@@ 13274
Blo@@ 13273
Tucumán 13267
octavo 13267
rayos 13267
valles 13267
prende 13266
cuán@@ 13259
esté 13259
sens@@ 13258
moderni@@ 13257
dific@@ 13256
defensor 13251
participan 13250
asedio 13249
galería 13246
manejo 13244
extremos 13243
privados 13243
nit@@ 13233
Sede 13232
encargada 13229
Je@@ 13227
deste 13225
casarse 13224
vacío 13221
ecuación 13220
acr@@ 13219
poderoso 13219
utos 13217
Star@@ 13216
iki 13214
palest@@ 13213
Corporation 13212
armon@@ 13212
compi@@ 13210
Jim 13209
rector 13209
olog@@ 13208
ódromo 13207
Ball@@ 13205
tendr@@ 13205
Kansas 13204
orum 13203
alemanas 13202
franquicia 13202
soviéticos 13200
comenzado 13199
pi 13197
épocas 13195
ø@@ 13195
Sep@@ 13193
Diseño 13192
gre@@ 13191
veget@@ 13189
observa 13184
YouTube 13182
escas@@ 13182
iliano 13181
jin@@ 13181
sudeste 13180
configuración 13179
explosión 13179
lé@@ 13172
Sofía 13168
rest@@ 13168
festiv@@ 13164
egan 13160
jun@@ 13160
Lara 13159
sacerdotes 13155
publicaron 13152
precipit@@ 13150
cotidi@@ 13144
low 13144
capturado 13141
And@@ 13140
impl@@ 13140
hici@@ 13139
reconocer 13138
ífica 13137
ítul@@ 13136
sustitución 13135
cruce 13134
erie 13132
identificar 13129
vivido 13129
Rot@@ 13128
asunto 13127
Comp@@ 13124
Douglas 13123
electrónico 13122
sospe@@ 13115
ff 13114
erá 13113
agot@@ 13112
erig@@ 13111
dosis 13110
mejoras 13105
tantos 13105
var. 13105
financiera 13104
1884 13103
Coronel 13103
formar@@ 13103
tejido 13101
Jan 13099
manteniendo 13099
supuestamente 13094
Ka@@ 13092
Catal@@ 13088
van@@ 13086
Templo 13085
negras 13085
parroquial 13085
registrado 13085
Anderson 13084
Yugoslavia 13083
film 13083
mecanismos 13081
desarrollada 13080
jeron 13080
Dolores 13076
oriente 13076
acudi@@ 13073
ami@@ 13071
Tenerife 13070
bajista 13068
Caballero 13065
escasa 13064
heridas 13062
misa 13062
reputación 13062
inclin@@ 13059
asim@@ 13057
lano 13057
dro@@ 13054
marchó 13053
detener 13052
divid@@ 13051
diera 13047
eira 13047
ceb@@ 13046
Reforma 13045
remot@@ 13045
{ 13045
ibérica 13041
vertical 13041
ocurrido 13037
vieja 13037
campus 13036
ABC 13034
celebrada 13031
traslado 13028
Monumento 13027
evid@@ 13026
1879 13025
alfabetización 13021
bizant@@ 13018
esperar 13017
orbital 13016
autoriz@@ 13013
conocía 13009
tista 13008
expon@@ 13007
jero 13006
Gri@@ 13005
biendo 13004
ish 13004
lac@@ 13004
Ferr@@ 12999
compositores 12999
ogén@@ 12999
ladr@@ 12998
represión 12997
mens@@ 12996
Sr. 12995
Oxford 12994
Stephen 12992
ofrecen 12992
mm. 12989
proclamó 12987
Spider 12984
Suc@@ 12984
MA 12982
Tir@@ 12982
cuerdas 12982
socios 12981
electorales 12979
otorga 12979
af 12977
consig@@ 12977
obtuvieron 12977
circ@@ 12974
monarquía 12973
transferencia 12972
Pav@@ 12970
uti@@ 12968
desnu@@ 12965
Studios 12963
wa 12962
Beach 12961
critas 12961
custo@@ 12961
Aten@@ 12960
alberg@@ 12958
mang@@ 12958
utilizaron 12953
percep@@ 12952
Belgrano 12949
adquirido 12949
Cí@@ 12948
antiles 12948
atleta 12948
gust@@ 12948
ll@@ 12948
remonta 12948
conduce 12944
culas 12939
algorit@@ 12938
érico 12938
Ak@@ 12936
Esti@@ 12933
nec@@ 12933
periodistas 12927
espalda 12925
repertorio 12924
separados 12924
ball@@ 12923
elles 12923
habitualmente 12922
MS 12921
kov 12918
entando 12917
uruguayo 12917
Ric@@ 12916
Jr 12915
universitaria 12914
sentimientos 12913
infr@@ 12912
visitante 12911
carp@@ 12909
inund@@ 12909
santuario 12909
acercarse 12908
austri@@ 12906
Tit@@ 12904
quedar 12901
unda 12898
mati@@ 12897
mármol 12895
aflu@@ 12893
lógica 12893
Bos@@ 12892
uri 12892
sorpresa 12891
filósofo 12889
teléfono 12889
ónom@@ 12889
barroco 12888
registró 12888
Conc@@ 12887
discusión 12887
rostro 12885
Kn@@ 12883
resist@@ 12883
env@@ 12881
900 12879
Sant 12876
conversión 12876
Land@@ 12873
Tex@@ 12873
Caballer@@ 12872
terci@@ 12871
sio 12869
ificar 12867
Ner@@ 12866
cil@@ 12866
Broadway 12865
arroz 12865
senti@@ 12864
tripul@@ 12863
Clara 12859
relativa 12859
templos 12859
describir 12856
pí@@ 12856
Publ@@ 12855
enne 12855
ze 12854
húmed@@ 12853
neos 12853
Jose@@ 12849
observación 12849
paragu@@ 12848
rodeado 12845
IM@@ 12843
Minnesota 12843
generaciones 12843
1887 12842
bibliot@@ 12842
atacó 12841
demostrar 12841
cuartel 12840
infin@@ 12840
opera 12838
bado 12836
adquirir 12835
activamente 12825
URSS 12823
clín@@ 12823
urbanos 12822
Barran@@ 12821
Boca 12820
idencia 12819
modos 12819
mínima 12819
nova 12819
Armenia 12817
Juárez 12814
encontramos 12813
marino 12810
personalidades 12810
básicos 12809
cina 12809
formaba 12807
jud@@ 12807
variaciones 12804
republicano 12801
Lincoln 12799
Sun 12793
recepción 12793
veinti@@ 12793
Mik@@ 12792
asociada 12792
Comun@@ 12791
ero@@ 12790
ess 12790
Justo 12789
colocó 12789
Salv@@ 12787
Marcelo 12786
previo 12786
intelectuales 12784
dula 12783
disminución 12781
Andrea 12779
alqu@@ 12779
vecino 12779
Francis 12773
Ast@@ 12771
dam@@ 12771
Carl@@ 12767
vangu@@ 12767
fradía 12765
actuando 12763
enfrentaron 12763
isten 12761
zano 12761
desconocido 12760
dor 12757
entrevistas 12757
representando 12757
Biblia 12754
Pet@@ 12754
arial 12752
fra@@ 12748
mita 12748
omor@@ 12747
amina 12746
firió 12746
rescate 12746
franc@@ 12745
canc@@ 12744
dependiente 12743
esquel@@ 12741
Constantinopla 12737
pudieran 12737
Proces@@ 12734
créditos 12730
retr@@ 12730
surge 12730
integrante 12729
deg@@ 12728
irlo 12727
enfrentamientos 12725
verdad@@ 12725
brevemente 12722
rse 12721
característico 12720
controversia 12719
electricidad 12719
Asi@@ 12717
plen@@ 12715
24@@ 12712
ner@@ 12708
Johann 12706
Yucatán 12706
abellón 12706
exclus@@ 12704
sud@@ 12703
Afganistán 12702
formaciones 12701
FM 12700
kr@@ 12699
Ret@@ 12698
mús@@ 12695
stru@@ 12695
procede 12694
Andrew 12693
estra 12693
modernas 12689
tel 12688
Particip@@ 12681
colina 12680
distribuye 12680
flor 12679
Bartolomé 12678
Maestro 12678
ifica 12678
permanecer 12678
pertenec@@ 12677
ógica 12677
Laur@@ 12674
Bet@@ 12672
volcán@@ 12672
IC 12671
comerciantes 12671
complejos 12671
Pío 12670
serpi@@ 12667
compl@@ 12665
presentada 12665
Radi@@ 12664
Ávila 12664
Nac@@ 12663
declaraciones 12661
tía 12660
aren@@ 12658
plantilla 12658
secundario 12656
Vivi@@ 12655
variables 12654
On 12652
significativa 12650
1850 12645
suc@@ 12642
abar@@ 12638
laguna 12633
sombr@@ 12633
azón 12632
capas 12631
interven@@ 12631
ole@@ 12628
ow@@ 12628
ajus@@ 12627
efectivo 12627
Flora 12622
abl@@ 12622
TE@@ 12620
Plant@@ 12619
sis 12619
Ah@@ 12618
set 12618
1881 12616
iguales 12615
hir@@ 12612
incorpora 12611
map@@ 12610
favorable 12608
dominante 12606
desempeño 12605
roqu@@ 12605
Pakistán 12600
Obtuvo 12599
pati@@ 12599
Deportiva 12597
1876 12595
específicos 12594
restaurante 12592
apartam@@ 12591
contrajo 12591
dinámica 12590
contemporáneo 12575
Indiana 12571
critos 12570
promedió 12569
anfitri@@ 12568
centímetros 12567
logo 12564
bill@@ 12561
sospech@@ 12561
hechas 12560
procur@@ 12560
Tailandia 12559
Pad@@ 12558
bás@@ 12556
lesiones 12553
busc@@ 12552
subcampeón 12552
dibuj@@ 12550
mir 12548
firmar 12545
veno 12544
ganadora 12542
lunes 12542
ap 12539
isc@@ 12539
Iván 12537
Señ@@ 12536
Taiwán 12533
Zú@@ 12533
mencionar 12533
ventana 12532
Hispan@@ 12528
enerse 12528
Eus@@ 12526
ix@@ 12525
británicas 12523
acaba 12522
onada 12519
clor@@ 12517
asumir 12516
asesor 12515
DA 12513
quebr@@ 12512
Fort 12511
evidente 12510
bic@@ 12509
colectivo 12507
gravedad 12507
vertebr@@ 12506
Electoral 12503
tela 12501
cuento 12500
dem 12500
parada 12500
costumbre 12494
perros 12494
ácidos 12492
espe@@ 12491
Capilla 12490
financiero 12490
Leonardo 12488
Ash@@ 12487
azos 12487
1871 12486
cable 12486
Palestina 12485
ordenado 12485
Anteriormente 12484
impulso 12482
MI@@ 12480
crímenes 12480
empat@@ 12480
Emperador 12479
alp@@ 12479
Ramos 12474
inéd@@ 12473
ingresar 12471
iny@@ 12470
curr@@ 12469
explicar 12469
opciones 12469
úl 12465
Road 12463
mán@@ 12463
Mérida 12460
varones 12460
arquitectos 12457
medicam@@ 12456
Alfred 12451
bóveda 12451
incu@@ 12450
reservas 12449
rotación 12449
tuviera 12449
acepta 12445
camar@@ 12440
Campeón 12439
Clausura 12435
cura 12435
nar 12432
ham 12431
redon@@ 12431
atis@@ 12430
Alber@@ 12429
mej@@ 12428
edido 12427
Nelson 12426
temprano 12426
criterios 12425
saque@@ 12421
Kevin 12420
Miller 12420
Zo@@ 12420
cerró 12419
Estudiantes 12415
Galería 12412
irían 12408
ónimos 12408
degrad@@ 12406
preocup@@ 12402
estí@@ 12401
Monte@@ 12400
destruc@@ 12399
áculo 12399
sm@@ 12398
átom@@ 12395
echos 12391
labores 12391
cord@@ 12389
Johnny 12388
Sicilia 12388
Eva 12386
alcohol 12385
coste 12385
lleno 12383
suyo 12383
ander@@ 12379
bloques 12378
trav@@ 12378
abund@@ 12377
rivales 12377
cliente 12373
Whit@@ 12372
N.º 12371
dedica 12370
Tal 12369
huesos 12368
Occidente 12367
interiores 12367
Bak@@ 12364
arro 12362
char 12359
Michel 12358
patas 12357
ors 12349
cantantes 12348
ándol@@ 12346
Alg@@ 12342
Bruce 12340
anfi@@ 12340
Naval 12339
ásticas 12338
Nick 12331
mantienen 12328
Míchigan 12327
perif@@ 12327
reciben 12327
Fut@@ 12326
nativa 12324
oceno 12324
arti@@ 12323
videos 12321
mico 12320
Hip@@ 12318
diseñó 12318
Video 12316
Manz@@ 12315
tercio 12315
Niño 12314
Rose 12314
ideología 12314
implant@@ 12314
típica 12312
ath 12310
iss@@ 12310
Bab@@ 12309
amba 12308
bulo 12303
www.@@ 12302
Meg@@ 12300
conservador 12300
out 12299
Let@@ 12298
Mach@@ 12298
Da@@ 12297
atraviesa 12297
ieran 12296
constantemente 12295
cueva 12295
Lit@@ 12293
Buc@@ 12289
1878 12288
ganadores 12285
ck 12284
llamaba 12284
reconoci@@ 12284
ensos 12283
Editorial 12282
allón 12282
inoc@@ 12282
Junior 12281
turístico 12281
gótico 12279
abundante 12277
ome@@ 12277
gel@@ 12273
quedado 12273
Rally 12271
Victor 12271
ubicados 12270
escuchar 12269
ocurr@@ 12267
Warner 12265
fonos 12265
ć 12264
gü@@ 12262
sacrif@@ 12262
tural 12260
internas 12259
almacenamiento 12258
Howard 12256
ingen 12256
PC@@ 12254
Arn@@ 12253
Pekín 12253
espaci@@ 12253
expl@@ 12249
ógeno 12247
Fuentes 12246
Ges@@ 12245
contemporáneos 12244
Jimmy 12243
Rod@@ 12243
jamás 12241
áculos 12241
enderse 12238
Escrit@@ 12237
1882 12236
propone 12236
combatir 12235
ocult@@ 12231
real@@ 12228
industrias 12226
carro@@ 12221
conecta 12220
presid@@ 12220
Lat@@ 12219
bi 12216
congreso 12216
sos 12216
Siendo 12213
polin@@ 12213
circun@@ 12211
onga 12210
Ki@@ 12208
procesión 12208
iluminación 12201
capacidades 12200
lana 12197
pobre 12196
rección 12195
seri@@ 12194
State 12193
ítima 12193
declarada 12192
Ecu@@ 12190
guila 12187
Verano 12185
etr@@ 12184
repos@@ 12184
vivieron 12184
23@@ 12183
Julián 12183
Long 12181
pelo 12179
tall@@ 12177
nasia 12176
ism@@ 12175
ificado 12171
comedi@@ 12166
cumbre 12165
cito 12164
izas 12164
Evangel@@ 12163
ril 12162
audio 12161
destruido 12159
igna 12159
Termin@@ 12156
osc@@ 12155
atribuye 12154
Gas@@ 12152
Ingenier@@ 12152
humanas 12152
Golfo 12151
interacción 12149
depen@@ 12148
Azerbaiyán 12147
Franc@@ 12144
1864 12142
Etimología 12142
conformado 12142
ruptura 12142
exper@@ 12141
Allen 12140
Sw@@ 12140
opía 12140
sobr@@ 12140
ecosist@@ 12139
rente 12139
Marta 12136
examin@@ 12135
estética 12132
quel 12132
Juli@@ 12131
asia 12129
finalidad 12127
reinos 12127
imo 12124
Gobern@@ 12123
mater@@ 12123
Tradi@@ 12119
enem@@ 12118
Hem@@ 12116
sedi@@ 12116
refugiados 12113
integral 12112
persa 12111
telev@@ 12110
onal@@ 12108
orientales 12108
1883 12107
Arti@@ 12106
Estonia 12106
aceptadas 12104
luchó 12104
ándolos 12104
delito 12102
Sho@@ 12100
acerc@@ 12093
instalar@@ 12093
tratando 12087
km. 12086
básica 12084
cabezas 12084
rueda 12083
sel 12083
amarca 12081
roj@@ 12080
álisis 12079
Win@@ 12078
herramienta 12078
grabada 12072
poniendo 12071
facilitar 12069
muertes 12066
ingu@@ 12065
Arri@@ 12064
But@@ 12064
cripciones 12063
definido 12063
húngaro 12063
Boy 12062
dama 12062
CF 12060
deportivas 12060
añadió 12059
permitido 12057
tránsito 12053
banc@@ 12052
disminuy@@ 12051
terio 12049
Chu@@ 12048
generó 12039
sú@@ 12038
marcada 12037
Armadas 12035
regularmente 12035
indio 12034
Especi@@ 12030
Madonna 12029
Valent@@ 12027
síntesis 12023
genética 12021
onto 12020
laron 12019
K. 12018
Arts 12016
comenzando 12015
Anthony 12013
Carab@@ 12013
Hermandad 12012
consejero 12012
Base 12010
urg@@ 12010
Ali 12007
impuso 12007
Monasterio 12006
caracteres 12005
suspen@@ 12003
ME@@ 12000
desapareció 11995
1865 11994
esión 11994
interpret@@ 11994
Argelia 11992
enam@@ 11991
vil 11991
gubernamentales 11990
cartu@@ 11987
ígen@@ 11985
Femenino 11984
placas 11981
beca 11978
evi@@ 11977
nitr@@ 11977
nominado 11976
Alem@@ 11972
God@@ 11971
Ef@@ 11970
ites 11969
delitos 11968
aprendi@@ 11965
Alcalá 11964
pase 11964
ueve 11964
way 11963
significativo 11961
Especial 11959
liberado 11954
apart@@ 11953
expresa 11950
ake 11948
Dist@@ 11945
célebre 11945
hot@@ 11944
incluyeron 11943
its 11940
existían 11939
postura 11938
recuperó 11936
adecuada 11935
mata 11933
Malasia 11932
dispers@@ 11932
colombiana 11930
jubil@@ 11929
pers@@ 11929
instrucciones 11927
adolescente 11926
3000 11925
alimento 11925
literalmente 11924
preserv@@ 11924
experimental 11923
teri@@ 11921
abandono 11920
crédito 11920
otomano 11920
maestra 11910
gastos 11908
ondas 11908
polémica 11908
ache 11904
alias 11903
giras 11903
ód@@ 11903
Herr@@ 11902
Mit@@ 11902
aman@@ 11900
sburgo 11900
Clima 11899
mulo 11899
químico 11898
ques@@ 11897
1830 11896
Def@@ 11896
apoder@@ 11896
fabricante 11896
Fall@@ 11895
continuo 11892
niñas 11892
1848 11891
Arque@@ 11891
ime 11891
Long@@ 11890
internet 11889
tramos 11887
aux 11886
simul@@ 11886
usual 11886
post 11882
pusieron 11882
ick@@ 11881
Monterrey 11878
exactamente 11875
plato 11874
mantenido 11873
marinos 11872
iter@@ 11870
Bell 11869
patrones 11869
responde 11869
ulado 11869
reconocidos 11868
folcl@@ 11867
genera 11864
podido 11863
elación 11862
probabilidad 11862
INE 11860
Vera 11860
nad@@ 11860
André 11858
Kepler 11858
establ@@ 11858
boc@@ 11856
model@@ 11855
activista 11854
creencia 11853
Paris 11852
uri@@ 11852
CV 11851
Mujer 11851
disfr@@ 11851
funer@@ 11851
pasión 11850
emper@@ 11847
ablo 11844
golfo 11844
proporción 11840
bits 11838
móviles 11838
bio@@ 11837
rechazo 11837
ministros 11833
anj@@ 11831
sufrir 11831
vuel@@ 11831
pent@@ 11829
grabados 11826
levantamiento 11826
caudal 11823
Guayaquil 11822
Fis@@ 11820
curva 11820
Arena 11815
específica 11815
1840 11814
aband@@ 11813
redact@@ 11812
acon@@ 11811
ases 11807
realistas 11807
identificado 11804
Estaba 11802
luc@@ 11802
Hir@@ 11801
Navarro 11801
Lady 11796
Pilar 11795
Prusia 11794
módul@@ 11794
aprobada 11793
turco 11791
amistoso 11789
puentes 11788
logros 11787
paisajes 11786
determinada 11782
suficientes 11782
vamente 11782
fortuna 11781
petrol@@ 11781
1867 11780
revuelta 11777
gráficas 11775
presion@@ 11773
Tap@@ 11771
contando 11771
ises 11771
montes 11771
ópteros 11770
Comics 11769
Igu@@ 11766
aragon@@ 11766
od 11765
Iber@@ 11764
extra 11764
UC@@ 11762
igiendo 11761
impuesto 11761
uz 11761
ladrillo 11758
uelto 11758
casada 11756
huelga 11751
quiso 11750
aprender 11749
armados 11749
hil@@ 11748
abstr@@ 11747
fij@@ 11747
legend@@ 11747
London 11743
luna 11743
dramatur@@ 11742
eli 11740
prefectura 11740
Rodolfo 11738
legi@@ 11736
dirigente 11735
ólicos 11730
Josep 11727
armad@@ 11727
alli@@ 11726
mobili@@ 11726
aug@@ 11725
ein@@ 11723
vice@@ 11722
Sy@@ 11721
neum@@ 11721
asamblea 11720
regi@@ 11720
Les@@ 11719
descubri@@ 11719
Bay 11718
progreso 11716
1873 11715
Cambridge 11715
ligas 11715
cuerda 11713
enfrentar 11712
madril@@ 11711
enia 11710
Composición 11707
arqueológicos 11703
Secre@@ 11697
cubri@@ 11697
experimentos 11697
gam@@ 11697
muebles 11697
meta 11694
Agricultura 11691
efectiva 11691
nieve 11690
exhibición 11689
part@@ 11689
smo 11682
ficar 11680
clandest@@ 11679
Ran@@ 11678
requisitos 11678
organiza 11675
tira 11675
Cus@@ 11674
cubrir 11674
olina 11672
RI@@ 11671
sucedi@@ 11671
asientos 11670
sul@@ 11670
cup@@ 11667
romper 11664
ATP 11663
explí@@ 11662
brasileña 11661
aplica 11657
concedi@@ 11657
universitarios 11656
cerrada 11654
iniciado 11654
australiano 11652
Esqu@@ 11648
cip@@ 11646
ésimo 11645
Universo 11642
soluciones 11641
Pach@@ 11638
fri@@ 11636
entera 11634
externa 11634
tag@@ 11633
llanura 11630
invas@@ 11628
mensajes 11628
1861 11626
asesino 11626
rop@@ 11626
Limita 11623
Arist@@ 11622
rara 11622
Valenciana 11621
restaurantes 11621
12.@@ 11611
fanes 11611
difíciles 11610
emisora 11607
reiv@@ 11607
tubo 11607
arre@@ 11606
sinc@@ 11606
interesante 11605
Cub@@ 11603
itó 11603
suy@@ 11602
desembocadura 11601
desarrollaron 11598
abora 11597
hos@@ 11597
Bruselas 11596
Morgan 11593
empar@@ 11591
misiles 11588
ponerse 11588
meridional 11587
evaluación 11586
pianista 11584
herb@@ 11582
Británica 11580
Go 11580
presentaba 11580
Pit@@ 11579
falt@@ 11577
diec@@ 11576
entados 11576
designación 11575
esquema 11575
haría 11575
promovi@@ 11575
Qui@@ 11574
periodos 11572
Puerta 11571
destacadas 11570
lagos 11570
ous 11570
Lang@@ 11569
esencial 11567
depósitos 11566
considerablemente 11564
creencias 11564
destitu@@ 11560
expresó 11559
yer@@ 11559
liger@@ 11555
veía 11555
Perón 11553
Zar@@ 11552
Film 11551
toler@@ 11551
1,5 11549
Queen 11549
tru@@ 11548
túnel 11547
provision@@ 11544
constituyó 11543
1875 11542
Trujillo 11541
documentación 11541
els 11541
ken 11539
promot@@ 11537
Moore 11535
alumno 11535
pulgadas 11535
Lau@@ 11534
cc 11534
Ker@@ 11530
Ilus@@ 11529
Cis@@ 11526
Mej@@ 11526
faro 11524
poetas 11524
reacciones 11524
ligero 11523
afa 11521
anunciado 11521
bueno 11520
eu 11520
tario 11519
derivados 11517
migración 11516
AR 11514
Is 11513
Rioja 11513
toros 11512
consiguieron 11511
Pale@@ 11509
lava 11509
Cáceres 11508
1872 11507
kg. 11506
Google 11505
concretamente 11505
vestido 11505
públicamente 11501
UU. 11499
dedicarse 11499
mundiales 11498
redacción 11498
She@@ 11497
separadas 11496
ess@@ 11494
oriales 11489
1869 11488
contribución 11488
ener 11488
Uri@@ 11486
ate@@ 11485
inco 11485
vertic@@ 11484
Patri@@ 11483
Americana 11481
mantuvieron 11481
descanso 11480
ecidos 11480
cend@@ 11479
esperado 11479
house 11479
secuela 11476
despleg@@ 11473
polo 11469
temporalmente 11468
nas 11467
Danubio 11464
tocando 11464
card@@ 11463
Orleans 11460
ífero 11460
egios 11456
Pertenece 11454
enviados 11454
escuch@@ 11453
ogen@@ 11452
ambientales 11450
bí@@ 11448
equiv@@ 11447
tamb@@ 11446
PlayStation 11445
Vía 11443
provoca 11443
femin@@ 11442
retroc@@ 11442
Ortega 11441
peri@@ 11441
aceptación 11440
científicas 11440
obisp@@ 11440
diálogo 11439
camiseta 11438
intas 11434
Núñez 11428
110 11427
tranqu@@ 11426
cifras 11425
Cantón 11424
desvi@@ 11424
tox@@ 11423
26@@ 11420
TA 11420
dera 11420
ps@@ 11419
Bec@@ 11416
Julia 11416
any@@ 11416
sufre 11413
ventajas 11412
Jane 11410
crimin@@ 11409
áneas 11409
Obispo 11407
Bank 11406
Eg@@ 11405
Up 11405
licenciatura 11399
eur@@ 11398
Fondo 11397
narra 11397
trajo 11396
Industrial 11394
Tecnología 11394
hidrógeno 11394
provisional 11394
vigor 11394
exhib@@ 11393
óf@@ 11390
aparato 11388
bet@@ 11388
integra 11388
conducta 11385
apoyado 11383
seud@@ 11380
Sag@@ 11379
prototipo 11379
Houston 11377
futura 11376
apareciendo 11375
castig@@ 11375
norma 11374
ji@@ 11372
lineal 11372
Elec@@ 11371
positivas 11371
químicos 11371
conflu@@ 11369
pintores 11365
bombas 11364
Nom@@ 11363
Pul@@ 11363
11.@@ 11362
Pop 11362
facultad 11359
logos 11359
lucr@@ 11359
ack 11356
computadora 11356
garantizar 11356
Bad@@ 11354
a. 11353
defensores 11353
prima 11352
retom@@ 11352
mér@@ 11349
diosa 11348
Que 11342
erlo 11341
vigilancia 11341
jorn@@ 11338
onmano 11338
1863 11335
Digital 11333
1874 11331
Ryan 11330
Audiencia 11329
coreano 11327
Isidro 11325
Your 11325
élite 11324
tribun@@ 11323
dieta 11322
Gru@@ 11321
Henri 11321
demuestra 11320
editó 11320
terminaron 11320
TV@@ 11319
bom@@ 11319
Sídney 11317
Fus@@ 11316
creen 11316
3D 11311
Clubes 11311
tejidos 11311
induc@@ 11310
mosa 11310
onde 11309
umin@@ 11309
selva 11308
simultáneamente 11308
Corazón 11305
afueras 11305
condi@@ 11304
itor 11304
turistas 11304
Eurovisión 11302
descendencia 11302
célula 11301
ix 11298
Vig@@ 11297
dibu@@ 11297
guardia 11297
tej@@ 11296
tenemos 11295
arch@@ 11292
cuentas 11289
baterista 11286
consult@@ 11283
deciden 11283
impos@@ 11282
Men 11280
investigar 11279
húng@@ 11277
rectangular 11277
News 11275
ascendió 11275
ócratas 11270
religi@@ 11269
terrestres 11269
Misuri 11267
intensa 11267
ager 11265
PS 11264
mencionada 11264
Ry@@ 11263
Cabrera 11262
Sat@@ 11261
Soto 11261
alab@@ 11261
Técn@@ 11260
tray@@ 11260
chicas 11258
carn@@ 11257
prosper@@ 11256
cañ@@ 11255
pino 11254
convertir 11253
produciendo 11252
Clark 11250
emplaz@@ 11250
ator@@ 11247
Segovia 11245
juveniles 11245
Batallón 11244
encaden@@ 11244
estrechamente 11244
Coc@@ 11243
anales 11243
ert 11241
ampl@@ 11235
onias 11235
recurso 11232
abreviado 11231
entretenimiento 11229
fotos 11229
difer@@ 11228
correspon@@ 11227
vera 11227
frontal 11225
Petersburgo 11224
transcurso 11223
frustr@@ 11219
Rib@@ 11215
financieros 11214
auge 11213
profesion@@ 11212
horario 11211
segmento 11209
invern@@ 11201
exploración 11200
aterrizaje 11199
10,@@ 11196
ban 11193
configur@@ 11192
invitada 11191
lujo 11189
internos 11187
educativo 11186
museos 11185
velocidades 11185
virrey 11184
ferencia 11183
pro 11182
aviación 11181
Iglesias 11179
ayudante 11178
vivos 11178
meros 11177
periodismo 11177
iler 11176
potencias 11174
ualmente 11169
live 11163
anch@@ 11162
bec@@ 11162
Baloncesto 11161
relevancia 11161
Colo 11160
op 11160
derivado 11157
Matt 11156
Vin@@ 11154
pretendía 11154
Conse@@ 11153
existir 11153
edes 11152
umi 11151
solicitud 11149
ferrovi@@ 11148
apres@@ 11147
separa 11146
bicic@@ 11145
oph@@ 11145
ativ@@ 11144
oslov@@ 11144
Iz@@ 11142
alizaciones 11142
ept@@ 11142
ock 11137
perteneció 11136
Energ@@ 11134
siva 11134
grup@@ 11133
parques 11133
quesa 11133
variación 11133
ajed@@ 11132
guarnición 11132
voluntarios 11131
dedi@@ 11130
sexu@@ 11130
testimonio 11130
triunf@@ 11129
dirigidos 11127
Fase 11123
Vázquez 11120
suave 11120
Llegó 11119
Bau@@ 11117
alba 11117
cler@@ 11117
proced@@ 11117
sintetiz@@ 11116
che@@ 11115
entero 11114
gi 11114
Harvard 11113
O. 11113
ž@@ 11110
afu@@ 11109
ondo 11109
olo@@ 11108
élites 11108
EE.UU. 11105
Viol@@ 11103
picamente 11103
ína 11102
ST@@ 11101
ONU 11097
diá@@ 11097
crece 11094
definitivo 11094
aco@@ 11093
directiva 11093
onóm@@ 11093
anchura 11090
eng 11090
Ministr@@ 11088
Velasco 11087
Varsovia 11085
fest@@ 11085
ministerio 11084
Corn@@ 11083
mensu@@ 11083
utili@@ 11083
contribuciones 11081
bizantino 11080
rendi@@ 11080
terioridad 11079
azgos 11078
llena 11076
masiva 11074
búlgar@@ 11070
aquia 11069
1857 11068
encargo 11064
Resultados 11063
fisi@@ 11063
fren@@ 11063
originario 11063
descendiente 11062
Billy 11061
centrocampista 11061
ies 11061
signos 11061
éndol@@ 11061
1866 11060
RA 11060
encontrados 11060
aderos 11058
prohi@@ 11058
SP@@ 11057
bailar@@ 11057
basadas 11057
híbr@@ 11057
té 11056
avances 11055
Sociales 11054
11@@ 11053
dieciséis 11052
cuad@@ 11050
hembra 11050
inus 11050
cráneo 11049
básico 11048
caud@@ 11048
escribiendo 11048
localización 11047
eden 11046
mineral 11045
Journal 11044
nio 11044
contra@@ 11043
fiel 11042
tación 11041
Continu@@ 11040
Dir@@ 11040
Open 11039
componen 11037
corteza 11036
trasera 11034
Filadelfia 11033
divis@@ 11032
comienda 11031
pasados 11030
130 11029
reúne 11028
franqu@@ 11025
Kit@@ 11024
goleador 11024
Jaén 11023
áñez 11022
óticos 11022
colonización 11021
Rin 11019
ash 11015
trigo 11015
condados 11011
Conservatorio 11010
Cri@@ 11010
armen@@ 11009
facto 11009
franco 11009
causar 11008
intérprete 11008
Lucía 11007
hipot@@ 11007
vigente 11004
revolucionario 11003
Charlie 11002
nosotros 11001
Nacionales 10999
farmac@@ 10998
guitarr@@ 10997
umer@@ 10997
idez 10996
vs 10994
arbitr@@ 10991
Dob@@ 10989
geográfico 10987
Construc@@ 10986
referente 10985
Jú@@ 10984
comer 10984
disper@@ 10982
meg@@ 10982
CD@@ 10981
peg@@ 10981
máxim@@ 10979
paseo 10978
neerlandés 10976
ustr@@ 10975
trin@@ 10974
gó@@ 10972
ecieron 10970
Bach@@ 10967
Investigaciones 10965
situados 10960
27@@ 10959
Detroit 10959
venganza 10959
Kas@@ 10958
PR@@ 10958
Feria 10954
convertir@@ 10952
Bien@@ 10951
Franklin 10950
Ambas 10949
convencional 10947
operar 10944
ticismo 10944
funcionar 10943
1877 10941
geografía 10941
sábado 10941
culpa 10940
lema 10938
testigo 10937
Domin@@ 10935
Holanda 10935
Luz 10935
fort 10934
joy@@ 10934
\ 10933
tonos 10933
alternativo 10932
vegetales 10931
Rolling 10930
ejes 10930
Shi@@ 10929
gracia 10929
influenci@@ 10929
resultaron 10929
forzar 10928
Olímpico 10926
geométr@@ 10926
suministro 10926
isario 10923
mara 10923
rad@@ 10923
detención 10922
juntas 10920
erna 10919
Ámsterdam 10919
sabía 10916
artís@@ 10914
escuadra 10914
diagnóstico 10912
Andr@@ 10910
conceb@@ 10909
Hombre 10906
sensación 10904
Embaj@@ 10902
caf@@ 10901
presentarse 10901
únicas 10901
autobuses 10900
1862 10899
Anne 10898
via 10897
cier@@ 10895
git@@ 10895
izos 10895
Roca 10894
dola 10894
correo 10893
pirat@@ 10893
sped 10893
dependencia 10889
ciudadanía 10888
comb@@ 10888
diseñador 10885
reper@@ 10885
articul@@ 10884
laje 10883
quint@@ 10883
00@@ 10882
Dan 10882
Jerónimo 10881
hacienda 10881
ester 10880
ópolis 10879
noru@@ 10878
ranking 10877
otipos 10875
undos 10873
sucesos 10872
more 10870
matr@@ 10868
Chávez 10867
sustancias 10864
gados 10863
memor@@ 10863
terminando 10860
perpet@@ 10854
toras 10852
Calderón 10851
Demócrata 10851
separada 10851
usaba 10851
ail@@ 10848
period@@ 10848
quedarse 10846
extrema 10844
profundamente 10844
viv@@ 10840
Iowa 10836
munici@@ 10836
marav@@ 10834
uos 10833
AI@@ 10832
elevación 10832
destinada 10831
ilegal 10830
proveniente 10830
ultades 10830
sintió 10828
Fol@@ 10827
catálogo 10826
convenc@@ 10825
ny 10823
intern@@ 10821
ídos 10821
Tac@@ 10820
cómic 10819
Girl 10817
Mov@@ 10816
carg@@ 10816
habrían 10816
filtr@@ 10814
cortas 10813
prision@@ 10813
motocic@@ 10812
concepción 10811
combus@@ 10807
Fri@@ 10805
peculi@@ 10804
Hil@@ 10803
delic@@ 10803
Kennedy 10802
vocales 10802
Gordon 10801
conforme 10797
Apple 10795
Corpor@@ 10795
Oliver 10792
erup@@ 10789
Democrático 10788
Eugenio 10788
lero 10785
mito 10785
I.@@ 10783
oco 10781
sing@@ 10781
ran 10780
cristi@@ 10776
desconoce 10776
redujo 10776
sombra 10776
traducido 10773
éntr@@ 10773
tanque 10771
tendencias 10771
marin@@ 10770
Cali 10765
faz 10762
ū 10761
Dakota 10760
hayan 10760
recoge 10760
Amor 10759
Chap@@ 10758
dispuesto 10758
itz@@ 10757
bella 10756
estros 10756
Corr@@ 10754
Dep@@ 10752
Agua 10751
regulación 10750
provinciales 10749
ars 10748
Grab@@ 10746
estabiliz@@ 10744
Patrick 10743
Nigeria 10741
accident@@ 10741
unen 10741
relevantes 10740
poblada 10739
polvo 10738
gubernamental 10736
ofensi@@ 10736
Diputación 10734
asesinatos 10730
proyección 10730
simbol@@ 10730
cómics 10729
Pom@@ 10728
cirugía 10728
giro 10724
triun@@ 10724
Constitucional 10721
himno 10721
fábricas 10719
quet 10715
Dicho 10714
Eti@@ 10714
Comandante 10713
asesinados 10707
ium 10706
derr@@ 10702
publicadas 10702
maqu@@ 10700
SO@@ 10699
ush@@ 10698
dens@@ 10697
plac@@ 10696
sacar 10696
receptor 10695
Creek 10694
conducción 10694
secos 10692
Oaxaca 10691
aliado 10691
expulsión 10690
inclusión 10690
opiniones 10690
medir 10687
cusión 10686
Inicios 10684
calificó 10682
p. 10682
Almería 10681
yacimiento 10680
Democ@@ 10679
apost@@ 10677
riz@@ 10675
vivi@@ 10670
ólicas 10670
ibn 10669
Zap@@ 10668
dimensión 10668
desarrollan 10666
redu@@ 10666
valo 10664
Got@@ 10660
psicología 10659
equival@@ 10658
17@@ 10657
Jud@@ 10656
jueces 10656
constantes 10655
moléculas 10654
planificación 10654
humedad 10653
ichi 10653
Alt@@ 10652
ke@@ 10652
polit@@ 10652
compati@@ 10651
locomot@@ 10651
} 10649
étn@@ 10649
Extremadura 10647
fil 10645
marx@@ 10645
entrevist@@ 10642
ocia 10642
adi 10638
metales 10638
ingre@@ 10637
Salta 10635
cancha 10633
Jor@@ 10632
acost@@ 10632
Rumania 10628
ficamente 10628
és@@ 10628
playas 10627
naranja 10625
aplicar 10624
apodo 10624
embr@@ 10624
AE@@ 10623
burgu@@ 10623
conces@@ 10623
pav@@ 10621
N. 10619
ters 10619
endieron 10618
Marte 10617
Montes 10617
domic@@ 10617
Dicha 10616
Parte 10615
perten@@ 10614
queta 10614
detenidos 10613
afirmando 10608
tillas 10608
Clas@@ 10606
óc@@ 10606
angular 10605
mató 10605
istos 10603
federado 10601
ocasionalmente 10600
tumb@@ 10600
Nag@@ 10599
décima 10597
expresidente 10595
ológicamente 10595
peras 10593
28@@ 10592
Renacimiento 10592
Kol@@ 10590
hispan@@ 10590
bé 10589
considerarse 10589
matrim@@ 10588
Reci@@ 10587
potente 10587
teor@@ 10586
oscura 10585
astur@@ 10582
erud@@ 10582
grima 10582
ops 10581
distinto 10577
árbi@@ 10573
1810 10572
irlandés 10572
derrotas 10571
Datos 10566
Cortés 10565
construidas 10565
necesarias 10564
venen@@ 10564
bri@@ 10563
biología 10562
húmedo 10562
feo 10560
lera 10559
Leopoldo 10558
restricciones 10558
iros 10557
http 10555
tina 10554
raci@@ 10552
dominios 10551
inspiró 10551
significativamente 10551
socialistas 10550
Mich@@ 10549
medias 10549
1820 10547
dramática 10547
eck 10547
macul@@ 10547
caliente 10545
Hamburgo 10544
autonóm@@ 10544
argentinos 10543
conoci@@ 10543
dicen 10543
rosas 10543
dices 10542
llaman 10541
tul@@ 10541
conexiones 10538
producidos 10538
alit@@ 10537
manzana 10537
volcán 10535
DJ 10534
bros 10534
Estat@@ 10532
icus 10531
rano 10531
Industria 10530
lap@@ 10530
refin@@ 10528
caras 10527
formaban 10526
protec@@ 10526
cubiertas 10525
Fá@@ 10524
Mut@@ 10523
conservadores 10523
podr@@ 10523
Home 10518
Sang@@ 10518
jera 10518
frutas 10517
multiplic@@ 10515
subur@@ 10515
rito 10514
solía 10513
Sarah 10511
écn@@ 10509
manifestación 10508
aldeas 10506
ocl@@ 10504
mostrando 10502
Declar@@ 10501
Montreal 10501
bru@@ 10501
relev@@ 10501
intenso 10500
comunicado 10499
cruzar 10497
prohibición 10497
podrá 10496
entino 10495
Ind@@ 10493
Otto 10492
armadas 10492
transit@@ 10491
introducido 10489
ída 10489
Manhattan 10487
aclar@@ 10486
alejarse 10485
Arz@@ 10484
Kelly 10483
cinemat@@ 10483
dinosaur@@ 10483
policial 10483
Días 10480
Sporting 10480
ocasion@@ 10479
ebra 10478
financiación 10477
marqu@@ 10477
franja 10476
popularmente 10474
vuelven 10474
Vegas 10473
Autor@@ 10472
Ubicación 10471
Dun@@ 10469
béisbol 10469
emitida 10468
encerr@@ 10464
macho 10462
nom@@ 10461
Ras@@ 10458
acan@@ 10458
fenómenos 10457
Borbón 10456
Russell 10455
deteri@@ 10453
nominada 10452
cumplimiento 10447
Cinco 10446
fundar 10445
tili@@ 10444
combinado 10443
cálculo 10443
diput@@ 10442
Liberación 10439
bierto 10439
Abu 10438
ingenieros 10438
capturar 10436
eral 10435
ciudadano 10434
Cientí@@ 10433
Jord@@ 10433
isos 10432
síndrome 10432
aca@@ 10431
ciona 10429
excavaciones 10426
hablan 10426
adoptado 10424
ografías 10423
entraron 10421
preguntas 10421
colaboradores 10420
irregular 10416
Chin@@ 10415
remon@@ 10415
bab@@ 10409
novel@@ 10407
orbitales 10407
Británico 10404
propag@@ 10402
abundantes 10399
mí 10399
delimit@@ 10398
odio 10397
Bravo 10395
corre 10395
enfrenta 10395
beta 10393
gases 10393
Ví@@ 10392
autobi@@ 10392
automovil@@ 10392
Americ@@ 10391
ius 10389
Bil@@ 10384
Wisconsin 10384
acusaciones 10383
silencio 10383
quidiócesis 10376
ular@@ 10376
omun@@ 10375
Minas 10374
requieren 10373
descubierta 10370
Ginebra 10368
empezar 10368
Técnica 10364
evangel@@ 10362
aseguró 10360
ametrall@@ 10358
gerente 10356
destruida 10355
ormente 10355
Albacete 10354
finland@@ 10354
ec 10353
armamento 10352
específicas 10352
pretende 10352
favorables 10351
Estadística 10350
ð@@ 10350
eibol 10348
Bohemia 10345
Rubén 10344
Aguirre 10342
Bandera 10342
PP 10340
29@@ 10338
sirven 10338
Sun@@ 10336
deten@@ 10336
olos 10335
UE 10334
eliz 10334
Network 10332
entimiento 10331
improvis@@ 10330
ráp@@ 10329
Pis@@ 10327
Ross 10327
testimon@@ 10326
Christopher 10324
condena 10323
uelos 10323
mini@@ 10321
escalera 10319
maquin@@ 10319
maestría 10315
tados 10313
sucede 10312
up 10311
· 10311
embalse 10310
inales 10305
monjes 10305
eléctricos 10304
Vélez 10303
irán 10302
contaminación 10298
Hubo 10297
GT 10296
campan@@ 10295
galardonado 10294
1833 10293
Arabia 10293
liderado 10293
1812 10292
avanzada 10292
mig@@ 10290
Negra 10289
Mesa 10286
asi 10286
depósito 10285
Old 10283
maya 10283
primarias 10281
zón 10281
ien 10279
mio 10277
Público 10276
parroquias 10276
portal 10276
Pictures 10274
comprensión 10274
Singapur 10272
habitaciones 10272
mexicanos 10271
énfasis 10271
legislatura 10268
comparte 10265
conservado 10263
gén@@ 10262
abad 10260
buscaba 10260
CC@@ 10259
ly@@ 10259
membrana 10259
derrotados 10257
promedi@@ 10257
Casas 10255
blemente 10255
matemático 10255
sobren@@ 10253
Seminario 10251
larse 10251
planetas 10251
25@@ 10250
MP@@ 10250
NO@@ 10250
secund@@ 10247
USA 10244
suizo 10244
aceptado 10243
izados 10243
ámicas 10243
Fir@@ 10242
Tin@@ 10242
cría 10242
enen 10242
Estocolmo 10240
examen 10238
Pirineos 10235
subordin@@ 10235
1821 10234
atriz 10233
campeona 10232
observaciones 10232
ernas 10230
ku@@ 10228
Kom@@ 10227
confirmado 10226
estándares 10226
ansi@@ 10223
camin@@ 10222
alan 10220
ics 10217
Die 10216
orro 10215
razon@@ 10214
peti@@ 10213
permiti@@ 10212
D.@@ 10210
deportistas 10210
reemplazar 10210
tano 10210
vener@@ 10210
cargas 10209
muralla 10209
R.@@ 10208
Vizcaya 10207
dividió 10206
France 10203
implementación 10203
oth@@ 10202
air@@ 10201
avera 10201
disc@@ 10200
corredor 10198
zor@@ 10197
procedimientos 10195
Sección 10194
mpica 10194
accede 10193
ectiva 10193
Ty@@ 10192
Maxim@@ 10189
Gloria 10188
eau 10188
encarga 10188
him@@ 10188
fech@@ 10185
telé@@ 10181
ómicas 10181
cuadrado 10180
desarrollando 10179
min 10179
Mr 10176
metod@@ 10176
fer 10175
provocando 10174
abadía 10172
ds 10172
embajada 10171
Alba 10170
lie 10169
expect@@ 10167
extracción 10167
ii 10167
reflex@@ 10167
crónica 10166
siquiera 10166
tempor@@ 10163
Alicia 10162
vir 10162
acuñ@@ 10160
vamp@@ 10160
maneras 10159
censura 10158
iment@@ 10157
interpretaciones 10156
profes@@ 10155
Mod@@ 10154
jugaron 10154
valió 10154
Intel@@ 10153
defici@@ 10153
eal 10151
Hamilton 10150
Jer@@ 10149
ití 10149
úl@@ 10148
maf@@ 10147
ł@@ 10147
Glob@@ 10144
piensa 10143
muñ@@ 10142
nominación 10141
australiana 10140
ferro@@ 10140
Registro 10138
Wilhelm 10136
m. 10136
margin@@ 10136
centen@@ 10135
We 10132
Comunicación 10130
notablemente 10128
pendiente 10127
redonde@@ 10127
emig@@ 10126
180 10125
Amp@@ 10124
achi 10123
abuela 10122
avoz 10122
ement@@ 10121
transmitir 10121
permitieron 10120
animada 10119
virtual 10118
trabajan 10114
Bosnia 10113
amenazas 10112
funcionario 10112
chico 10111
cinematográfico 10111
facilidad 10110
ise 10110
abiertos 10109
put@@ 10109
realismo 10109
agregó 10108
enberg 10107
desci@@ 10106
AD 10105
preparar 10105
Cementerio 10102
protegida 10102
manuscrito 10099
Aplic@@ 10098
caracter@@ 10098
utilizaba 10098
causando 10096
escog@@ 10096
oi 10096
send@@ 10096
Institute 10095
luces 10094
ray@@ 10094
congel@@ 10093
Empe@@ 10092
vu@@ 10092
rompió 10091
1859 10085
celebran 10085
agricul@@ 10084
vierten 10081
violación 10081
Oro@@ 10080
Grammy 10079
alum@@ 10078
engo 10077
apro@@ 10076
clasificar 10076
mapas 10076
poblados 10076
Angel 10073
litros 10073
afro@@ 10071
republicanos 10071
avanzar 10070
Nevada 10069
atractivo 10064
jidad 10064
René 10063
cambiando 10062
manifi@@ 10061
artísticas 10059
reseñas 10059
Franz 10058
Lleg@@ 10058
alumin@@ 10057
Camb@@ 10056
Legislatura 10056
alis@@ 10056
gig@@ 10054
séptima 10054
anuncia 10052
arric@@ 10051
estuario 10051
quedaba 10051
transpar@@ 10051
Will 10048
uertos 10047
Playa 10046
agon@@ 10046
Estructura 10042
éticamente 10042
reduce 10041
Tig@@ 10040
caballeros 10037
teología 10036
pensó 10035
ingos 10033
hebreo 10032
conjunta 10027
pendientemente 10027
Crist@@ 10026
Power 10026
renombr@@ 10026
pasaba 10023
Adel@@ 10022
odos 10022
Song 10020
aconse@@ 10020
arquitectónico 10020
involuc@@ 10018
ome 10018
fino 10017
aparente 10016
bloqueo 10016
rut@@ 10014
direcciones 10013
Can 10012
Juniors 10011
obreros 10009
Rub@@ 10008
íaca 10008
Acu@@ 10007
Toro 10007
perfor@@ 10007
Arch@@ 10006
Sólo 10006
Territorio 10006
cátedra 10006
nazis 10006
Carter 10005
altad 10002
destinados 10001
señores 10001
protegido 10000
tablas 10000
televisiva 10000
hur@@ 9998
mayoritariamente 9998
datan 9995
lingüística 9995
distinta 9993
Fur@@ 9990
13,@@ 9987
Arroyo 9987
filo 9986
ficó 9985
academia 9984
electrones 9983
infección 9981
Lagos 9979
surgieron 9979
Monum@@ 9978
Sindic@@ 9976
obtenidos 9976
sust@@ 9975
galax@@ 9974
itada 9971
50@@ 9970
platos 9970
16,@@ 9969
autas 9969
odía 9969
adolescentes 9967
elaborado 9966
ílica 9966
Reconoc@@ 9965
concer@@ 9965
tena 9965
bach 9962
eada 9962
recuerdo 9962
2,5 9961
arrestado 9961
rich 9961
Autom@@ 9959
Jason 9958
signo 9956
0.000 9955
jurídica 9955
óloga 9949
Túnez 9947
arta 9947
Aguilar 9945
Aparte 9944
fundaron 9943
use 9943
Kil@@ 9941
beros 9941
divulg@@ 9941
plic@@ 9941
catedrático 9940
quím@@ 9938
TC 9937
euc@@ 9936
obligados 9936
ria 9936
Villanueva 9935
yacimientos 9935
atentado 9934
baño 9934
magia 9934
rivalidad 9934
escrit@@ 9933
Simpson 9932
internacion@@ 9932
Gau@@ 9930
latitud 9929
intentaron 9928
roco 9928
Feder@@ 9927
Gén@@ 9924
quot 9924
Andy 9923
taba 9921
finca 9920
Telec@@ 9919
tril@@ 9918
civilización 9917
explicación 9917
Euroc@@ 9916
Universitaria 9916
desplazamiento 9916
judici@@ 9916
portugueses 9915
bautizado 9914
emento 9914
alz@@ 9913
aun@@ 9913
erró@@ 9913
Tul@@ 9912
reunir 9912
defendió 9910
crita 9909
aerolínea 9908
ascend@@ 9908
bordes 9908
especialidad 9908
propaganda 9908
ciudad@@ 9907
Wi@@ 9906
ciclismo 9906
situadas 9906
Fuego 9905
AB@@ 9904
óx@@ 9903
Austin 9902
carbon@@ 9902
feminista 9900
daría 9899
mercancías 9898
oide 9896
aud 9894
intens@@ 9894
quel@@ 9894
violín 9893
Diana 9892
relevante 9891
ech 9889
tarjeta 9888
decorado 9887
inmigración 9887
oe 9887
videoclip 9887
Estrella 9883
oniendo 9883
estatura 9881
tropología 9881
rog@@ 9880
ógraf@@ 9880
arqueológico 9878
Control 9877
Eli@@ 9876
cubano 9876
enga 9876
sequ@@ 9875
Hierro 9874
Jes@@ 9873
llevaban 9873
turcos 9873
Bárbara 9872
Estadísticas 9870
expulsado 9870
jam@@ 9869
Donald 9868
Primero 9868
amist@@ 9868
lent@@ 9868
octava 9868
uciones 9868
ferroviario 9867
auta 9866
eventualmente 9866
próximos 9865
confeder@@ 9862
erle 9862
350 9860
Corrientes 9860
juicios 9860
sentimiento 9860
sustancia 9860
uelas 9859
rindi@@ 9858
occidente 9857
Valley 9855
criminal 9855
eléctricas 9854
³ 9853
arist@@ 9852
Athletic 9851
exhi@@ 9850
Macedonia 9849
oamericana 9849
robo 9849
asume 9848
conec@@ 9848
Garr@@ 9844
listado 9844
Toponimia 9843
cual@@ 9843
tornos 9843
ñón 9843
incre@@ 9842
ricas 9841
disparo 9839
Diócesis 9837
judic@@ 9837
lina 9837
Dav@@ 9834
aven@@ 9834
cería 9834
gadas 9834
sia 9832
Who 9831
gradualmente 9831
Ellos 9830
ámb@@ 9830
cristal 9829
rever@@ 9829
amateur 9827
ejecutado 9826
West@@ 9825
intendente 9825
eramente 9823
sugirió 9823
nati@@ 9821
albergar 9820
instaur@@ 9820
indicar 9819
Equipo 9815
posesiones 9815
lidas 9814
organ@@ 9814
simpli@@ 9810
Océano 9809
tible 9809
tral 9809
Lyon 9808
Pascual 9807
instalado 9806
partí@@ 9806
bél@@ 9804
pios 9804
Jalisco 9799
ique 9799
Do 9798
cerem@@ 9795
clínica 9795
ses 9793
aldas 9792
ays 9792
noventa 9790
certificado 9788
epí@@ 9786
danés 9785
noc@@ 9785
constituido 9784
IT@@ 9783
Tito 9783
a- 9781
pp@@ 9781
Vent@@ 9778
nacionalista 9776
conjuntamente 9773
royos 9773
fija 9772
1858 9770
designó 9770
reducida 9770
humor@@ 9769
allos 9767
altern@@ 9767
Física 9765
xi 9765
detalle 9763
nativo 9762
Adams 9761
Argent@@ 9760
bola 9758
exclusiva 9758
abiertas 9756
equi@@ 9756
Eslovaquia 9754
Twitter 9754
luchas 9753
cilindros 9752
compartir 9751
etto 9750
brica 9749
extranjeras 9748
ison 9748
Public@@ 9747
creados 9747
Gur@@ 9746
Chec@@ 9745
mantenía 9745
platino 9745
1856 9743
dispuso 9743
coleccion@@ 9742
asiático 9740
correspondencia 9740
adorn@@ 9735
bacterias 9730
edic@@ 9730
att@@ 9728
optera 9724
funcional 9723
urbanas 9722
atracción 9721
conformada 9721
partid@@ 9721
Matr@@ 9720
amo@@ 9720
noches 9720
repe@@ 9718
Parroquia 9716
evolu@@ 9715
agas 9714
antigu@@ 9714
uk 9712
Paralímpicos 9711
antemente 9710
lando 9710
12,@@ 9709
Esperanza 9709
santos 9707
dedicados 9706
200@@ 9702
worth 9702
Abraham 9701
éndum 9701
largometraje 9699
pilares 9697
acial 9695
ès 9694
iev@@ 9693
CS@@ 9692
Bruno 9691
nodo 9691
exter@@ 9690
consideradas 9689
campes@@ 9688
cabello 9687
British 9686
ló@@ 9685
Paula 9682
AL 9681
anticip@@ 9681
infl@@ 9681
veza 9681
uano 9680
supervivencia 9679
suya 9678
véase 9676
5.000 9675
AN 9675
Frontera 9675
Out 9675
Ky@@ 9674
estelar 9672
enzo 9671
acios 9670
tomada 9670
ligera 9669
pesado 9666
ting 9666
existió 9665
denominados 9664
manual 9664
Dá@@ 9662
biografía 9662
amplió 9660
Soria 9659
Profesor 9658
Sudamericana 9658
ficticio 9658
ste@@ 9657
funda 9656
sar 9655
Test@@ 9652
érica 9648
baron 9647
pau@@ 9647
Fiestas 9645
vinos 9644
cher 9641
oposit@@ 9640
buscó 9638
electrónicos 9635
uelve 9635
soc@@ 9634
cones 9633
plástico 9633
venía 9631
CN@@ 9630
aeronaves 9628
correr 9628
quiz@@ 9628
ícola 9628
marcando 9627
descarga 9625
precipitaciones 9624
Miembro 9621
Públicas 9621
ont 9621
Isaac 9617
ajust@@ 9615
torn@@ 9615
arga 9614
tiros 9614
fuga 9613
net 9613
cuanti@@ 9612
manifiesto 9611
pacto 9611
Theatre 9610
uría 9610
mí@@ 9609
port 9609
manuscritos 9608
novio 9607
Batman 9604
hueso 9603
luchador 9603
maci@@ 9603
bro@@ 9601
espor@@ 9601
instrucción 9601
Igualmente 9600
Draft 9599
disciplin@@ 9598
PA 9597
Viv@@ 9596
perió@@ 9596
arista 9593
espectro 9593
reanud@@ 9590
Tras@@ 9589
Shar@@ 9586
Mercado 9584
ilustraciones 9584
éstos 9584
M.@@ 9582
ensamb@@ 9582
Rick 9580
nar@@ 9576
írculos 9574
Gam@@ 9573
sugi@@ 9573
Raw 9572
atil@@ 9572
1854 9569
costos 9569
old 9568
olor 9567
Tec@@ 9566
Atle@@ 9564
Rosas 9564
victori@@ 9564
volvería 9563
Lituania 9561
bíbl@@ 9558
censada 9558
music@@ 9558
puntu@@ 9558
entregado 9557
explicó 9556
norm@@ 9556
vial 9556
acompañada 9555
habituales 9554
Roque 9552
procesamiento 9550
rodeada 9550
All@@ 9548
ánimo 9548
HD 9545
viva 9545
Pac@@ 9543
porción 9541
compuestas 9538
demócrata 9537
lento 9537
contactos 9536
representaba 9536
Inclu@@ 9535
1814 9534
bury 9534
Sonora 9533
Bad 9529
repi@@ 9529
básicamente 9528
embri@@ 9527
ocol@@ 9527
also 9526
Siete 9525
Walker 9525
circuns@@ 9525
oficio 9524
paci@@ 9524
aj 9523
militantes 9523
Od@@ 9515
Alice 9514
Clemente 9514
escándalo 9514
fila 9514
Sancho 9513
125 9512
Escudo 9511
dorado 9509
1855 9508
Post 9507
crecer 9507
colon@@ 9503
inflam@@ 9502
inundaciones 9502
cifr@@ 9501
net@@ 9498
eficiencia 9496
tortu@@ 9496
queso 9495
Conv@@ 9493
singular 9493
descu@@ 9492
Biz@@ 9491
huracán 9491
line@@ 9491
respectivos 9491
ads@@ 9490
encomend@@ 9490
prud@@ 9490
señorío 9489
Alaska 9488
cerebral 9488
Salazar 9487
es.@@ 9487
fit@@ 9487
materias 9486
40@@ 9483
acordó 9480
contratos 9480
Ebro 9479
any 9479
consistente 9478
Ray@@ 9477
Wood@@ 9477
Casi 9475
lamiento 9475
aster@@ 9473
back 9473
volver@@ 9472
aff@@ 9471
Vice@@ 9469
160 9467
Brooklyn 9466
Conce@@ 9464
Il 9464
espar@@ 9461
expresiones 9459
Agrilus 9458
ál 9456
Band 9455
dij@@ 9455
cónsul 9454
fusil@@ 9454
eas@@ 9453
catalana 9450
cono 9450
osp@@ 9450
Airlines 9449
Izquierda 9448
Cob@@ 9447
Bernard 9446
Caj@@ 9446
preser@@ 9445
relata 9443
Fiesta 9442
istr@@ 9441
querían 9441
Kiev 9438
testig@@ 9438
Comer@@ 9436
from 9436
Kin@@ 9433
Camer@@ 9432
Nec@@ 9430
Terr@@ 9429
discipl@@ 9429
Badajoz 9427
eman 9425
desemboc@@ 9421
13.@@ 9420
Channel 9419
ON@@ 9419
Bran@@ 9415
esencialmente 9415
Lisa 9414
ow 9414
Bac@@ 9413
toca 9413
formarse 9412
reparti@@ 9408
esca 9407
Villar@@ 9405
señora 9402
compleja 9400
palos 9399
aber@@ 9397
tributo 9396
Vid@@ 9394
raf@@ 9394
istir 9392
ith 9390
geo 9388
hr@@ 9388
uza 9386
Sara 9384
ejempl@@ 9383
quier@@ 9383
timas 9381
marcar 9379
gato 9377
escondi@@ 9375
aristoc@@ 9374
Jonathan 9372
ensas 9370
fresco 9368
presos 9364
rup@@ 9363
excentr@@ 9362
list@@ 9362
materi@@ 9362
amen@@ 9361
brasil@@ 9360
controver@@ 9358
nik 9358
Marc 9357
corresp@@ 9357
Benjamin 9356
Francesco 9350
Micro@@ 9349
Basílica 9348
Che@@ 9344
Sports 9344
psiqui@@ 9343
gesti@@ 9342
angu@@ 9340
franquista 9340
mill@@ 9338
Dance 9337
Malvinas 9337
edía 9336
artic@@ 9333
arum 9331
cipes 9331
informa 9329
Roy 9325
Liverpool 9324
orte 9322
Las@@ 9320
Ñ@@ 9320
subir 9316
sult@@ 9315
Harris 9314
catalan@@ 9312
Tim 9310
icana 9310
Dave 9309
Monta@@ 9308
yo@@ 9308
teca 9306
arrastr@@ 9304
15,@@ 9302
agan 9301
Edificio 9300
perfecto 9300
Quebec 9299
niega 9299
toman 9299
Laborat@@ 9298
Polit@@ 9298
itudes 9297
promovido 9296
africana 9293
veng@@ 9291
Liceo 9290
iri 9289
Arias 9287
o.@@ 9283
IP 9280
Biel@@ 9279
radicales 9277
reinato 9274
vela 9274
ă@@ 9274
protoc@@ 9270
Equi@@ 9269
Imag@@ 9269
Radical 9269
Contempor@@ 9266
neerland@@ 9266
ries@@ 9265
ym@@ 9260
ectar@@ 9259
alcanzaron 9258
Him@@ 9257
huer@@ 9257
Borgo@@ 9256
Acuerdo 9254
aduc@@ 9253
tech@@ 9252
refugi@@ 9248
Lorena 9244
fug@@ 9241
vej@@ 9238
opo 9236
Quin@@ 9235
explosi@@ 9235
tez 9234
Sak@@ 9233
cercan@@ 9233
14.@@ 9231
Psic@@ 9231
israel@@ 9231
alizan 9230
Carlo 9229
CBS 9228
superficial 9225
Vari@@ 9223
ticia 9223
Almir@@ 9221
atori@@ 9221
tidas 9220
extenso 9219
vital 9219
Palmar@@ 9214
Chihuahua 9213
molecular 9213
Congreg@@ 9209
sangu@@ 9206
óleo 9206
Municipal@@ 9204
Sí@@ 9203
poli 9200
sensibil@@ 9200
5000 9199
Gé@@ 9199
consol@@ 9196
Amér@@ 9195
sula 9194
11,@@ 9192
yug@@ 9192
1851 9189
ado@@ 9187
inclu@@ 9186
Hid@@ 9185
ilumin@@ 9180
Black@@ 9179
Jam@@ 9177
subor@@ 9177
Jon 9174
udes 9165
Marqués 9164
mira 9164
artifici@@ 9159
but@@ 9159
PE@@ 9158
alle 9157
Asoci@@ 9156
Parker 9152
Van@@ 9152
tarj@@ 9151
Press 9146
compañera 9146
instrum@@ 9146
Quím@@ 9145
140 9144
subsidi@@ 9141
Méndez 9139
áu@@ 9138
Amazonas 9137
Dro@@ 9137
Cham@@ 9134
coral 9134
1842 9133
Rap@@ 9133
devo@@ 9132
14,@@ 9131
1835 9127
stan@@ 9122
Coordin@@ 9121
folia 9121
ional 9120
UTC 9118
Of 9115
Poc@@ 9111
veres 9108
reside 9107
conting@@ 9106
Wa@@ 9105
itales 9105
flam@@ 9104
silla 9104
armente 9103
ocasi@@ 9103
Ej@@ 9101
imprim@@ 9097
Nan@@ 9090
Dead 9089
Ken@@ 9089
patria 9088
proce@@ 9086
corred@@ 9084
Normand@@ 9083
Serrano 9083
atu@@ 9083
históric@@ 9083
na@@ 9083
Claude 9082
enaje 9082
Wayne 9080
Co 9079
decad@@ 9078
supo 9077
Mora 9076
dedor 9074
depre@@ 9074
Marshall 9068
flex@@ 9067
EN@@ 9066
Né@@ 9065
bili@@ 9065
front@@ 9065
Leng@@ 9063
rado 9060
Award 9058
bin 9058
Jacob 9055
Tá@@ 9054
lug@@ 9054
eonatos 9053
Robin 9052
amar 9052
octav@@ 9052
Chac@@ 9049
risto 9049
emite 9042
tern@@ 9042
Dallas 9040
Pontificia 9040
aa 9038
tango 9034
Jeff 9030
insur@@ 9030
fant@@ 9029
peru@@ 9028
anco 9027
RO@@ 9023
Modelo 9022
igencia 9022
Angeles 9021
Femenina 9021
remol@@ 9020
atado 9019
Rá@@ 9018
To 9016
1825 9014
yi 9013
Cré@@ 9008
da@@ 9008
ximo 9005
Lind@@ 9004
imper@@ 9001
contamin@@ 8999
Carta 8995
Cher@@ 8995
Li 8994
eti 8993
Pob@@ 8989
radios 8987
Hus@@ 8986
Naz@@ 8985
írculo 8985
DS 8980
bis 8978
Trabajadores 8977
Jos@@ 8976
mortal 8976
tuario 8976
Boy@@ 8975
Armando 8973
Organiz@@ 8968
Fern@@ 8967
Rog@@ 8967
Luxemb@@ 8966
AF@@ 8963
nado 8961
Revolucionario 8957
Sarmiento 8956
pais@@ 8955
blast 8954
infloresc@@ 8951
Di 8950
Georges 8950
Merc@@ 8950
doctor@@ 8945
80@@ 8940
idel@@ 8938
Arc@@ 8935
NASA 8935
Polo 8935
Salom@@ 8934
azar@@ 8934
Wright 8931
Us@@ 8930
1853 8928
PN@@ 8928
Canaria 8926
estand@@ 8925
icor@@ 8924
horizontal 8923
Pequ@@ 8922
Zagreb 8922
Bis@@ 8919
Lucha 8919
cim@@ 8919
Ober@@ 8915
orto@@ 8912
len 8910
Be 8908
intos 8908
ovia 8907
Cervantes 8905
omer@@ 8905
vica 8904
Beatriz 8901
ror@@ 8900
Proc@@ 8899
fes@@ 8899
apl@@ 8895
pagos 8895
Gibraltar 8894
monet@@ 8893
Linux 8892
Women 8890
sep@@ 8890
Golden 8889
inosa 8888
itali@@ 8888
mont 8888
PO@@ 8887
anna 8887
gento 8886
vulner@@ 8885
agru@@ 8883
individu@@ 8880
santa 8880
usias@@ 8879
Antioquia 8878
Omar 8878
hop 8877
jab@@ 8875
Ces@@ 8873
Comunicaciones 8870
asci@@ 8870
Bog@@ 8868
bina 8866
Nobel 8865
tín 8864
eador 8863
Aus@@ 8862
Orlando 8861
ig 8856
geometr@@ 8855
Magazine 8852
eba 8851
iterr@@ 8849
Bien 8848
dorsal 8848
Nas@@ 8847
Restaur@@ 8844
Raj@@ 8842
Global 8841
feria 8841
mago 8841
Leo 8835
Nova 8835
Shin@@ 8834
35@@ 8833
espect@@ 8832
Hernán 8826
ns 8826
Barry 8824
New@@ 8824
deser@@ 8821
anderas 8820
Vigo 8812
Š@@ 8810
eiro 8809
Mac 8807
Montaña 8807
contradic@@ 8805
Evol@@ 8803
Alemán 8802
etc 8801
instrumental 8801
Idi@@ 8800
recta 8799
atum 8798
estrech@@ 8797
Khan 8794
Mozart 8794
afin@@ 8794
proven@@ 8794
apo 8790
Potosí 8788
acar@@ 8786
cig@@ 8784
disco@@ 8781
plut@@ 8781
Libr@@ 8777
sic@@ 8777
Cass@@ 8776
distur@@ 8773
ensi@@ 8772
regu@@ 8772
transvers@@ 8772
Flam@@ 8767
curi@@ 8764
Conoc@@ 8761
defi@@ 8761
nen 8761
aper@@ 8760
deliber@@ 8759
Hern@@ 8757
Trabaj@@ 8756
inete 8751
Conn@@ 8749
bac@@ 8748
viz@@ 8748
mín@@ 8747
Inc 8745
crit@@ 8744
Lugo 8743
plica 8742
Constantino 8740
court 8740
onalista 8740
Post@@ 8738
interrup@@ 8733
Metal 8732
Interpre@@ 8729
1845 8728
kiló@@ 8724
Square 8722
Xavier 8720
ambul@@ 8716
ág@@ 8714
Best 8712
Gijón 8711
bibli@@ 8711
roman@@ 8709
1847 8707
Sul@@ 8706
1834 8704
ange 8704
món 8704
semifinal 8703
alif@@ 8700
UK 8697
triple 8696
hip 8695
alda 8693
ventr@@ 8692
Tí@@ 8689
1852 8688
Baden 8688
adic@@ 8688
haber@@ 8688
partici@@ 8688
Ponce 8686
https 8684
Nog@@ 8683
ault 8683
egi@@ 8681
iler@@ 8681
SI@@ 8680
úz@@ 8680
agin@@ 8679
metr@@ 8679
gir 8678
otor@@ 8678
Juvenil 8672
dif@@ 8672
persist@@ 8669
romance 8669
urugu@@ 8667
tum@@ 8665
Delgado 8664
Good 8664
tiende 8659
amer@@ 8658
Anton@@ 8657
Brun@@ 8653
egro 8653
eus@@ 8653
Heinrich 8651
eth 8648
lax@@ 8645
Nak@@ 8644
circu@@ 8644
atl 8642
septentrional 8640
Barrios 8639
let 8639
inista 8637
entina 8636
distingue 8635
líqu@@ 8635
relati@@ 8635
ucion@@ 8635
Naci@@ 8633
Siempre 8632
17,@@ 8631
Grant 8630
ní@@ 8629
Lob@@ 8626
Dark 8623
toro 8622
asar 8619
omin@@ 8618
planet@@ 8616
uelta 8616
eni 8613
monit@@ 8612
Beatles 8611
garg@@ 8611
detect@@ 8610
Air@@ 8608
vierte 8605
desemb@@ 8601
Circu@@ 8600
Emma 8600
Lom@@ 8599
Museum 8599
clás@@ 8598
arru@@ 8597
last@@ 8592
Bom@@ 8588
1849 8587
Games 8586
epid@@ 8586
Jordan 8581
eces 8581
unir 8580
adhes@@ 8579
Ann@@ 8578
Abr@@ 8577
Venus 8577
Lawrence 8574
diam@@ 8573
ref 8571
narc@@ 8570
antas 8569
Alf@@ 8566
yan@@ 8566
monot@@ 8565
Cordillera 8564
inaugur@@ 8563
coa 8562
atle@@ 8559
Hun@@ 8558
porno@@ 8556
Vati@@ 8551
gh@@ 8550
Sz@@ 8545
Docum@@ 8541
oscil@@ 8539
rique 8539
Inés 8538
MO@@ 8538
This 8538
Meridi@@ 8536
Expedi@@ 8533
adolesc@@ 8531
Prec@@ 8529
ganad@@ 8529
vi 8528
extranj@@ 8527
ted 8527
Eng@@ 8526
Tarragona 8526
Fro@@ 8525
diagnos@@ 8525
navales 8525
plasma 8524
engu@@ 8521
Qué 8518
porte@@ 8515
japon@@ 8514
Canc@@ 8513
Profes@@ 8509
estad 8504
preval@@ 8504
tz@@ 8504
Aé@@ 8502
villas 8501
descubier@@ 8500
Paseo 8496
Te 8494
hong@@ 8494
iras 8493
unca 8492
Girls 8491
amaz@@ 8491
mería 8490
sos@@ 8489
Port 8487
mortal@@ 8487
2.000 8481
Say@@ 8478
heim 8478
Pand@@ 8476
males 8474
NBC 8473
georgi@@ 8473
201@@ 8469
robus@@ 8466
MC 8465
minis@@ 8465
anés 8464
mayorit@@ 8464
Jazz 8463
oven 8461
Boeing 8458
aros 8458
æ@@ 8458
umi@@ 8457
Academy 8456
Charlotte 8454
dale 8449
dimi@@ 8449
1824 8448
reh@@ 8444
1836 8443
só 8443
salt@@ 8441
arte@@ 8440
dad@@ 8436
ings 8436
Norm@@ 8435
titudes 8435
Vieja 8434
mientos 8434
Arau@@ 8432
Ton@@ 8432
Cé@@ 8430
intermedi@@ 8430
territoriales 8429
acat@@ 8425
Pep@@ 8424
reta 8424
Robinson 8423
ogo 8422
ng 8421
Port@@ 8420
air 8418
Cooper 8417
Manchester 8415
Renault 8414
ficha 8413
agonal 8411
galle@@ 8410
Pér@@ 8407
ovich 8407
lers 8406
losa 8404
cm. 8400
plaz@@ 8395
Palmas 8394
anca 8392
deu@@ 8392
unc@@ 8392
Apolo 8391
Mart@@ 8391
Dul@@ 8387
vierno 8383
queo 8380
Zel@@ 8378
actr@@ 8378
hipo@@ 8378
óptero 8378
BC 8376
Inform@@ 8376
Caja 8374
Crimea 8373
360 8372
Sid@@ 8372
asem@@ 8371
interrog@@ 8364
Ig@@ 8363
Pseud@@ 8362
riz 8362
Albania 8361
Thor@@ 8361
atorial 8361
avent@@ 8361
suicid@@ 8361
Patria 8360
Sea 8357
maz@@ 8356
etz@@ 8355
puer@@ 8353
101 8352
mezc@@ 8352
Faus@@ 8350
uga 8350
cog@@ 8348
Chic@@ 8346
lector 8345
tier@@ 8344
Jamaica 8343
Francis@@ 8341
Horacio 8341
Mez@@ 8341
1823 8338
ensor 8338
Soledad 8336
Rég@@ 8335
ingi@@ 8335
lés 8335
nh@@ 8335
Ecol@@ 8333
Hermanos 8327
Mau@@ 8327
Point 8327
ocar@@ 8327
ory 8327
abrevi@@ 8326
filogen@@ 8326
Chiapas 8323
indu@@ 8322
opo@@ 8322
tino 8322
ère 8322
Mér@@ 8319
alan@@ 8318
Misiones 8311
criti@@ 8311
visibles 8311
stone 8310
vill@@ 8310
Ambiente 8306
Caz@@ 8306
Telev@@ 8306
caj@@ 8305
Ful@@ 8301
Harrison 8300
å@@ 8296
urn@@ 8295
Chal@@ 8293
compet@@ 8293
gon@@ 8293
yes 8293
Coch@@ 8292
16.@@ 8291
1846 8291
Vé@@ 8290
absorb@@ 8290
próxim@@ 8289
ump@@ 8287
eu@@ 8285
ker@@ 8284
dis 8283
promin@@ 8283
1837 8280
1839 8278
venti@@ 8276
HMS 8275
cuart@@ 8274
aficion@@ 8273
distr@@ 8273
IA 8272
ble@@ 8272
Lucio 8271
normales 8271
aut 8268
conson@@ 8267
tren@@ 8265
CO 8262
minim@@ 8262
Scar@@ 8261
teres 8261
Lun@@ 8256
even 8254
Fig@@ 8252
Labor@@ 8249
J.@@ 8248
sella 8245
departam@@ 8243
Java 8241
Usos 8237
hex@@ 8236
Alabama 8235
Colombi@@ 8233
Octav@@ 8232
Cali@@ 8230
Ze@@ 8230
consci@@ 8230
Maurice 8228
Way 8228
rantes 8226
oshi 8224
Inst@@ 8222
petr@@ 8222
infante 8221
Philip 8220
UFC 8220
aurus 8219
opsis 8219
Escal@@ 8218
Gary 8215
Fair@@ 8214
Nam@@ 8211
salen 8211
cach@@ 8204
iar 8204
CE 8203
Steven 8201
Salinas 8200
landes 8199
oce@@ 8198
coles 8197
Play 8196
nig@@ 8196
ée 8195
lem@@ 8194
aprob@@ 8193
formul@@ 8187
inqui@@ 8180
Jerez 8178
garr@@ 8177
Malta 8175
System 8175
Provin@@ 8174
file 8172
Palencia 8171
nes@@ 8171
feud@@ 8170
problem@@ 8170
fragment@@ 8168
itio 8165
chu@@ 8162
pale@@ 8161
Magallanes 8160
tific@@ 8159
CC 8157
Cecilia 8156
Homer 8153
Montenegro 8153
gast@@ 8153
cher@@ 8150
della 8149
blues 8148
Down 8145
Alvarado 8136
resc@@ 8136
chin@@ 8135
Armas 8133
Consider@@ 8132
Stanley 8131
visu@@ 8130
antic@@ 8129
loven@@ 8126
Thi@@ 8124
plana 8124
1844 8122
nutr@@ 8122
princip@@ 8121
Gra@@ 8119
aller@@ 8118
kan@@ 8118
Gig@@ 8113
gall@@ 8113
1815 8110
Princ@@ 8110
acá 8110
mueb@@ 8109
angél@@ 8107
ritual 8106
teria 8104
mania 8103
rompi@@ 8103
Matías 8102
metropolit@@ 8102
Ning@@ 8101
Observ@@ 8100
independ@@ 8100
univers@@ 8100
ä@@ 8100
ulla 8098
Ed 8097
è@@ 8097
chor@@ 8096
capitales 8095
corporal 8095
RC 8093
15.@@ 8092
bran@@ 8086
RS 8084
pét@@ 8084
Superman 8083
tigu@@ 8083
Crisis 8082
Tw@@ 8082
Benav@@ 8081
ili 8081
áneamente 8081
Metropolitano 8080
yac@@ 8078
mud@@ 8077
bul 8074
Brit@@ 8069
Patricia 8069
empi@@ 8068
Giuseppe 8064
Garden 8062
Ler@@ 8062
Rep@@ 8060
prác@@ 8056
Mant@@ 8055
OTAN 8055
Germán 8053
750 8049
Iron 8047
ken@@ 8047
Cov@@ 8043
Murray 8043
Perry 8043
numér@@ 8043
Vlad@@ 8042
Dubl@@ 8041
Paral@@ 8041
Memorial 8040
Fron@@ 8039
oros 8038
Baz@@ 8036
Raf@@ 8035
105 8033
Már@@ 8031
Triple 8030
cardi@@ 8030
ibo 8028
alada 8026
Lad@@ 8025
titu@@ 8025
té@@ 8025
duplic@@ 8020
uria 8020
Bag@@ 8019
álogo 8019
UNAM 8018
bes 8018
yu 8017
Huesca 8016
Tier@@ 8015
alco@@ 8015
audiovis@@ 8015
Huelva 8012
DO@@ 8009
legitim@@ 8007
Hisp@@ 8006
roles 8006
emo 8005
iera 8004
ino@@ 8002
vend@@ 8002
we@@ 8002
alina 8000
Seattle 7998
Bow@@ 7997
dri@@ 7997
Cast@@ 7996
Gü@@ 7992
jef@@ 7992
Gerardo 7991
Domínguez 7989
Fom@@ 7989
War 7984
salsa 7984
EA 7981
Lon@@ 7981
kur@@ 7981
Moon 7978
Bál@@ 7977
Chaco 7977
Silv@@ 7977
end 7977
Figueroa 7975
Great 7974
ask@@ 7972
1811 7971
aque 7970
1838 7967
Madison 7967
Jay 7965
Valdivia 7965
Graham 7963
ament@@ 7962
diales 7962
Quintana 7957
posa 7957
protestantes 7955
ag 7954
Fle@@ 7952
Town 7944
laur@@ 7941
cump@@ 7940
fum@@ 7939
hockey 7939
Callao 7938
yer 7938
lot 7937
industri@@ 7936
aseg@@ 7930
enn@@ 7930
Trump 7927
emerg@@ 7926
itis 7923
Uso 7918
What 7916
satis@@ 7916
Isl@@ 7914
Gh@@ 7910
Det@@ 7903
metal@@ 7901
Valdés 7899
Arequipa 7897
Kent 7897
Tag@@ 7896
respir@@ 7896
umo 7896
nub@@ 7895
Lec@@ 7891
trom@@ 7891
1200 7890
deter@@ 7890
Munici@@ 7889
Sad@@ 7889
Cost@@ 7888
Thompson 7887
Ronda 7886
NE@@ 7884
ances 7884
ast 7883
estruc@@ 7879
semic@@ 7879
Higgins 7877
Tennessee 7875
Pens@@ 7874
radial 7873
Band@@ 7872
Neu@@ 7871
cus 7868
Heart 7867
allar 7866
Magn@@ 7865
Nicolas 7865
ust 7864
1841 7862
ots 7861
simult@@ 7861
sed@@ 7860
embre 7859
Vila 7858
Ibn 7856
bala 7856
CIA 7855
analiz@@ 7852
kil@@ 7849
Moh@@ 7848
N.@@ 7845
nutri@@ 7845
Diez 7844
Atlas 7843
Fiat 7841
lut@@ 7841
tos@@ 7840
Toda 7838
pig@@ 7838
sentir 7837
AG@@ 7835
pet@@ 7833
Oce@@ 7832
Darío 7831
Hidro@@ 7831
Clinton 7830
Pardo 7830
dispos@@ 7830
precis@@ 7830
declin@@ 7829
vers 7829
Facebook 7827
ezan 7827
Cour@@ 7825
avo 7824
Campbell 7821
Fru@@ 7821
Caus@@ 7820
lante 7820
monumental 7820
1822 7819
€ 7818
tang@@ 7817
compatible 7815
dose 7814
Science 7813
Brasil@@ 7811
municipal@@ 7811
Tot@@ 7810
Patricio 7809
evos 7809
rent@@ 7807
abier@@ 7806
Television 7803
desambigu@@ 7802
Bosque 7800
Studio 7794
Orange 7793
Penal 7792
hosp@@ 7791
Division 7789
Xi@@ 7789
yp@@ 7787
Lis@@ 7785
Num@@ 7785
aina 7785
castil@@ 7785
Kenia 7784
compatri@@ 7782
ilde 7781
infra@@ 7780
sun@@ 7779
grad@@ 7776
atmos@@ 7775
Sou@@ 7773
Margaret 7770
Castel@@ 7769
Fray 7768
minister@@ 7768
Ian 7765
Oklahoma 7764
Edgar 7760
Pacheco 7759
Spin@@ 7756
gil 7756
onial 7756
írit@@ 7756
Recon@@ 7755
enal 7755
Cau@@ 7751
exclusiv@@ 7751
militante 7750
Austr@@ 7748
Mix@@ 7747
piz@@ 7747
Educ@@ 7743
Hudson 7742
Perten@@ 7742
CON@@ 7741
shows 7740
TVE 7739
Fen@@ 7737
Mom@@ 7737
Turner 7737
ríquez 7736
tibles 7736
íritu 7736
1843 7734
permanentes 7734
tempr@@ 7733
Ró@@ 7732
Och@@ 7730
occ@@ 7728
Fot@@ 7723
vet@@ 7722
Japon@@ 7720
hep@@ 7719
ska 7719
Mexicano 7718
labr@@ 7718
Jerry 7716
aris 7716
isbol 7716
cál@@ 7715
prominente 7714
oriano 7709
row 7708
Cárdenas 7707
Stalin 7706
apor@@ 7706
intim@@ 7705
Hin@@ 7703
embaj@@ 7702
Ech@@ 7700
yc@@ 7699
Um@@ 7698
Goya 7697
Ribera 7696
Stewart 7696
Presid@@ 7692
comport@@ 7692
encer 7690
quisi@@ 7690
rana 7689
Diput@@ 7688
ím@@ 7686
uki 7684
Sot@@ 7678
éndez 7678
Civ@@ 7677
hemis@@ 7677
As 7676
Vincent 7676
cipi@@ 7676
Indi@@ 7674
adel@@ 7674
Perci@@ 7671
equili@@ 7671
ulas 7667
Madagascar 7663
feld 7660
soy 7657
ston 7657
LO@@ 7654
Terry 7653
tour 7652
Porto 7650
estan@@ 7648
onc@@ 7646
Opera 7645
aus 7645
Univers@@ 7644
especí@@ 7640
lum 7640
tarios 7639
escape 7637
agro 7636
1808 7635
Influ@@ 7635
reson@@ 7631
1813 7623
Cret@@ 7623
abiliz@@ 7623
ashi 7622
foto 7622
uh@@ 7621
time 7620
Space 7619
VA 7617
Ludwig 7616
Melbourne 7615
flamenco 7614
pit@@ 7611
Maryland 7609
Stadium 7608
medicin@@ 7606
Shakespeare 7605
CH@@ 7604
astro 7603
tha 7600
curios@@ 7596
H.@@ 7593
Vidal 7593
isi 7592
rif@@ 7592
Sup@@ 7590
Castellón 7589
sil 7587
Arkansas 7586
Quinta 7585
mandos 7585
Márquez 7582
Jefferson 7581
tion 7580
60@@ 7579
permit@@ 7579
electro@@ 7578
maj@@ 7577
cuer@@ 7576
Eddie 7573
17.@@ 7572
Phoenix 7569
orn@@ 7569
segreg@@ 7569
imento 7566
Vive 7565
estes 7565
Continental 7563
Vista 7562
erro 7562
uba 7562
Resist@@ 7560
ö@@ 7560
Brothers 7559
Deleg@@ 7559
bó 7559
gay 7559
Cron@@ 7555
Cleveland 7553
Sas@@ 7553
enz 7553
tago 7553
Baby 7551
ube 7551
solem@@ 7550
Balear@@ 7549
Mass@@ 7548
Pru@@ 7548
divin@@ 7547
dita 7545
invers@@ 7543
xo 7542
ariz 7540
ović 7540
Hat@@ 7538
bate 7536
Dylan 7535
ī@@ 7531
Death 7529
IS 7529
insular 7529
Sever@@ 7525
Dy@@ 7524
The@@ 7524
mpicos 7524
Cár@@ 7521
herman@@ 7518
Mog@@ 7517
Consul@@ 7515
Copenhague 7515
Honda 7514
dign@@ 7514
AG 7512
ég@@ 7512
cun@@ 7511
radar 7511
Hér@@ 7510
Pent@@ 7508
topo@@ 7508
ux 7508
ape@@ 7506
win 7503
aye 7502
Guy 7496
Sky 7490
450 7489
hostili@@ 7489
Llu@@ 7488
Lérida 7484
tz 7484
semestre 7481
respirat@@ 7480
Boc@@ 7478
compañ@@ 7478
sentim@@ 7478
Cli@@ 7476
bil 7476
18@@ 7475
ry@@ 7474
Challenger 7473
panel 7472
choc@@ 7471
Local 7470
antos 7470
seman@@ 7469
umba 7469
Eu@@ 7468
ien@@ 7466
orno 7466
een 7464
correspond@@ 7463
leon@@ 7463
1600 7462
efici@@ 7462
Lot@@ 7461
Yam@@ 7460
piter 7459
ein 7458
Rat@@ 7456
itano 7456
Nombre 7455
Godo@@ 7454
diagr@@ 7451
económ@@ 7450
Onthophagus 7449
Beng@@ 7447
TO@@ 7447
tof@@ 7444
Milit@@ 7442
Tipo 7441
Tib@@ 7439
semi 7439
concurr@@ 7437
Maldonado 7436
lex@@ 7435
Bob@@ 7434
mosa@@ 7434
1826 7432
Utah 7432
mona 7432
Bush 7428
incen@@ 7427
cines 7426
Cook 7424
Ferrari 7424
Play@@ 7424
telec@@ 7424
Cach@@ 7423
oid@@ 7423
files 7421
Alar@@ 7420
zu 7419
Quil@@ 7418
rell 7416
cultivar 7414
Conqu@@ 7413
Rid@@ 7411
ça 7411
claves 7407
opat@@ 7407
opin@@ 7406
amm@@ 7405
polar@@ 7404
mó@@ 7402
illy 7398
sax@@ 7397
Cou@@ 7396
asteri@@ 7396
Ferrer 7395
métr@@ 7393
Sl@@ 7392
oko 7392
meridi@@ 7391
alog@@ 7387
Imp@@ 7384
wan@@ 7382
Ann 7377
Claudia 7374
Bach 7373
Lap@@ 7373
Pan 7370
india 7370
has@@ 7369
pastor 7369
Budapest 7368
otti 7366
Quer@@ 7365
gin@@ 7365
Cons@@ 7362
USS 7362
pec 7360
Baj@@ 7359
Ji@@ 7359
Apr@@ 7356
egio 7356
Norman 7355
Pepe 7355
IP@@ 7354
agi@@ 7354
tio 7353
ents 7351
tw@@ 7350
reli@@ 7349
Nancy 7346
idu@@ 7346
oda 7346
ayos 7345
chan 7343
Berg@@ 7340
Epis@@ 7340
intérpre@@ 7340
fraude 7337
Bra@@ 7336
Cueva 7336
insignia 7336
Gav@@ 7334
XX@@ 7333
Vitoria 7330
Tabasco 7328
bias 7326
Evans 7322
acomp@@ 7322
vik@@ 7321
Ontario 7319
Gilbert 7314
Sound 7313
cartel 7313
Pereira 7311
Angola 7310
Morelos 7310
aul@@ 7309
cogni@@ 7308
cázar 7307
Urban@@ 7306
brillantes 7305
ofer@@ 7303
Arm@@ 7299
P.@@ 7299
ballet 7299
telescop@@ 7299
Angel@@ 7298
Cór@@ 7297
Sucre 7296
Estrada 7294
cilindr@@ 7294
ë@@ 7293
wal@@ 7292
Disco@@ 7291
Songs 7291
Delta 7288
fis@@ 7286
skaya 7286
Kate 7283
há@@ 7282
Disput@@ 7275
atis 7274
Express 7273
wan 7272
Piñ@@ 7271
lip@@ 7271
lex 7270
lee 7269
Last 7267
judi@@ 7267
1829 7262
inge 7262
fono 7259
uni 7259
Guip@@ 7258
Cen@@ 7256
macro@@ 7254
Latino@@ 7253
igr@@ 7253
Art@@ 7250
Calvo 7249
Pay@@ 7249
siti@@ 7249
bern@@ 7248
alien@@ 7246
ostr@@ 7246
Chart 7244
ados@@ 7244
Pag@@ 7243
adilla 7241
Instruc@@ 7238
Fred 7237
polar 7237
Catalunya 7233
bit 7231
Judicial 7230
terap@@ 7230
Toc@@ 7227
nov 7227
trig@@ 7225
Cairo 7220
EM@@ 7214
Shang@@ 7214
funeral 7211
Vul@@ 7208
1831 7207
silv@@ 7206
Dub@@ 7205
18,@@ 7204
Emer@@ 7204
Yu@@ 7203
oba 7201
codice 7200
ues 7200
tier 7198
áneos 7194
Casta@@ 7192
hardware 7192
inaugural 7192
County 7189
nan 7188
Sha@@ 7186
rante 7186
Negr@@ 7184
patin@@ 7182
Marx 7179
cua 7179
the@@ 7178
USD 7176
argent@@ 7175
empl@@ 7174
Ernst 7169
Valle@@ 7168
n. 7168
Wh@@ 7166
Anim@@ 7164
1828 7163
Adolf 7163
Reich 7163
Liv@@ 7161
Ron@@ 7161
episcopal 7161
pice 7160
Kos@@ 7156
Pant@@ 7154
iformes 7152
Latin 7151
eman@@ 7148
ç@@ 7148
Tales 7144
Danny 7143
ort 7142
3.000 7141
Ach@@ 7140
ocer@@ 7139
zur@@ 7139
LGBT 7138
Defin@@ 7137
normati@@ 7136
Wo@@ 7135
colas 7134
aine 7131
Morris 7130
Ok@@ 7130
Phil@@ 7129
inia 7129
sell@@ 7128
oo 7127
20.@@ 7124
Maur@@ 7123
ew@@ 7120
1832 7116
Bond 7115
Georg 7114
Cuer@@ 7110
Herbert 7110
fa@@ 7110
Musical 7107
Da 7105
Gall@@ 7105
ords 7102
protestante 7102
dal 7097
Amber@@ 7093
gala 7093
3,5 7092
Chir@@ 7091
isp@@ 7091
Humberto 7090
Gun@@ 7089
Lou@@ 7089
ndi@@ 7089
Moder@@ 7087
imonio 7086
He 7084
Herman@@ 7084
Gel@@ 7083
Gold@@ 7083
Bobby 7082
alen 7082
rap 7080
vin 7075
past@@ 7074
Bundesliga 7072
haz@@ 7072
jed@@ 7072
Research 7071
enko 7071
town 7071
alpa 7070
teza 7070
osh@@ 7068
curv@@ 7067
Dre@@ 7066
cela 7065
cubier@@ 7065
ulan 7065
Baker 7064
Has@@ 7064
Kentucky 7064
tiller@@ 7056
är@@ 7056
Wagner 7054
islam 7052
cár@@ 7051
elem@@ 7050
travi@@ 7047
Japan 7045
hy@@ 7043
Doña 7039
Ye@@ 7039
infer@@ 7039
Nikol@@ 7037
fluvial 7036
Xbox 7032
grec@@ 7032
nch@@ 7031
anger 7030
panorama 7030
sovi@@ 7030
metabol@@ 7027
gs 7026
ks@@ 7026
Compl@@ 7025
For 7024
iria 7020
That 7017
Light 7016
Yar@@ 7016
Nebraska 7015
ina@@ 7015
persu@@ 7014
Supercopa 7013
egui 7013
Láz@@ 7012
lep@@ 7012
releg@@ 7011
teg@@ 7011
enco 7010
evedo 7009
trán 7009
18.@@ 7008
Ma 7008
Michelle 7005
Zen@@ 7004
Netflix 7002
Palermo 6999
Warren 6999
Salas 6998
tic 6998
Top@@ 6997
entor@@ 6996
orn 6996
Muhammad 6994
dedores 6994
zam@@ 6992
lock 6991
ónima 6991
Get@@ 6990
Gold 6990
ecti@@ 6989
An 6988
CP@@ 6988
DI 6988
confront@@ 6988
we 6988
s.@@ 6985
simetr@@ 6984
inhib@@ 6983
Clo@@ 6982
Vancouver 6981
AF 6979
incer@@ 6979
Fili@@ 6978
pé@@ 6978
Nem@@ 6975
reti@@ 6974
aniz@@ 6972
enten 6972
polio 6972
Anth@@ 6971
percus@@ 6970
introduce 6968
36@@ 6967
refriger@@ 6967
Masters 6966
First 6962
arteri@@ 6962
ures 6962
EL@@ 6961
ense@@ 6960
guatem@@ 6959
Honor@@ 6958
Guido 6957
Helena 6957
Stu@@ 6957
reú@@ 6957
ásquez 6956
sang@@ 6952
reto 6951
Kurt 6950
Back 6948
Neil 6948
ager@@ 6948
Sher@@ 6947
sist@@ 6946
46@@ 6944
Force 6943
ř@@ 6941
Aurora 6939
fé@@ 6939
ga@@ 6939
acan 6936
chim@@ 6935
Compostela 6934
ass 6934
Benedic@@ 6933
Dion@@ 6931
SE 6929
sacri@@ 6929
abi 6928
utor 6924
SN@@ 6923
académ@@ 6921
coincide 6921
colombi@@ 6921
Tommy 6920
olar 6920
34@@ 6915
Avell@@ 6915
ínsula 6912
Connecticut 6911
Grace 6911
Phil 6909
Solar 6908
F.C. 6907
hind@@ 6906
electrom@@ 6904
cabec@@ 6903
Mij@@ 6901
Escobar 6898
GP 6898
inta 6896
X. 6892
envol@@ 6889
33@@ 6888
37@@ 6888
chen 6888
Arnold 6886
abul@@ 6886
ovi@@ 6885
caric@@ 6883
Pref@@ 6877
IE@@ 6876
adía 6876
ímetros 6875
Roland 6872
Palacios 6871
Dean 6866
lun@@ 6865
Aj@@ 6864
May 6864
aller 6863
L.@@ 6862
Yo@@ 6862
rin@@ 6862
Tun@@ 6860
RT@@ 6854
19,@@ 6853
SS@@ 6853
Tu 6853
resur@@ 6853
Zu@@ 6851
Basil@@ 6849
Arsenal 6848
tens@@ 6848
habr@@ 6846
IF@@ 6841
Gamb@@ 6840
Web 6838
fiscales 6837
doctr@@ 6836
ft 6836
Carras@@ 6833
izquier@@ 6833
Dragon 6832
audit@@ 6831
orit@@ 6830
Comple@@ 6829
Hills 6829
Gaspar 6828
Master 6828
SmackDown 6827
absol@@ 6827
oscop@@ 6825
IBM 6822
Bic@@ 6820
Atl@@ 6819
óstico 6819
Vor@@ 6817
Like 6815
Contin@@ 6814
edras 6814
20,@@ 6813
Sob@@ 6813
bad 6811
Line 6810
RT 6809
Story 6806
Avenue 6805
Dim@@ 6804
superi@@ 6802
ther@@ 6801
Pico 6800
acres 6800
etim@@ 6800
Spe@@ 6796
ósitos 6795
espos@@ 6794
kan 6792
Larry 6791
Prepar@@ 6790
diese 6790
Bug@@ 6789
odon 6788
agog@@ 6786
alli 6786
− 6786
Bella 6785
Beau@@ 6784
Kl@@ 6784
pora 6784
isio 6780
Champ@@ 6778
Liz@@ 6774
Ele@@ 6773
composit@@ 6772
Dra@@ 6771
Sky@@ 6771
temp@@ 6769
Sist@@ 6768
promov@@ 6768
afor@@ 6765
reconcili@@ 6765
Ja@@ 6763
eler@@ 6762
Carrillo 6758
bolch@@ 6758
ime@@ 6756
Maine 6754
facil@@ 6753
brut@@ 6752
Allende 6751
pand@@ 6751
avi 6749
sales 6749
eccion@@ 6748
múlti@@ 6748
ARC 6747
Shu@@ 6747
boy 6747
bay@@ 6746
dial 6746
Hog@@ 6745
hereder@@ 6745
off@@ 6745
ionales 6742
Newton 6735
Farm@@ 6734
ack@@ 6733
fusil 6733
ely 6727
Matthew 6725
UNESCO 6725
portu@@ 6724
AA 6723
Sri 6722
tortur@@ 6722
fab@@ 6721
finanz@@ 6721
Gul@@ 6720
Harold 6719
racial 6718
polici@@ 6716
icación 6715
Leon 6713
bud@@ 6713
coloniales 6710
rej@@ 6710
DT 6709
F.@@ 6709
erno 6708
owski 6708
Blas 6707
ES 6705
Financi@@ 6705
Normal 6705
mach@@ 6705
sy@@ 6704
Ec@@ 6703
obia 6703
Had@@ 6700
Superliga 6700
Paco 6699
angre@@ 6699
ever@@ 6699
imbo 6698
Déc@@ 6697
Jordi 6697
Kel@@ 6697
omar 6697
Stars 6696
rist@@ 6696
orig@@ 6694
Walt 6693
Py@@ 6692
dium 6692
Capr@@ 6691
restric@@ 6691
vibr@@ 6691
nier 6690
uva 6690
ires 6689
Dream 6688
esh@@ 6688
fó@@ 6688
ulia 6687
adém@@ 6685
longitud@@ 6679
dato 6678
ios@@ 6678
anne 6674
ulosa 6674
Pompe@@ 6672
éri@@ 6671
Sonic 6670
ír 6667
Resol@@ 6665
my 6663
oth 6663
prést@@ 6663
Cay@@ 6662
cules 6661
presu@@ 6661
Antigu@@ 6658
coma 6658
similitudes 6657
Contro@@ 6656
molé@@ 6656
Beg@@ 6655
stor 6654
Building 6653
Len@@ 6653
Program@@ 6653
didae 6652
Siberia 6651
aden 6650
tiliz@@ 6649
ges 6648
Mariana 6646
mites 6646
O.@@ 6645
áce@@ 6645
Antoine 6643
mia 6643
ilan 6642
GT@@ 6641
ê@@ 6641
Desarr@@ 6640
Mid@@ 6639
oleta 6639
Audi@@ 6636
EF 6636
hél@@ 6636
Fantas@@ 6635
Ball 6631
esi 6630
Plate 6628
Rh@@ 6628
Ná@@ 6627
oneta 6627
Cle@@ 6626
Ide@@ 6625
1816 6624
ants 6624
partam@@ 6623
ARN 6622
Santi@@ 6622
leo 6622
Sebastian 6621
vora 6620
Raim@@ 6619
indo 6619
Sto@@ 6618
Teruel 6617
erer 6617
hibe 6617
ail 6615
Gon@@ 6614
dob@@ 6613
kov@@ 6613
crá@@ 6611
Cerr@@ 6609
bek@@ 6609
line 6608
45@@ 6607
Films 6607
ku 6607
otos 6606
Wood 6604
ann 6602
uss@@ 6602
hito 6600
1817 6598
encialmente 6597
clim@@ 6594
Dante 6593
quiera 6593
debates 6592
sacer@@ 6592
vigil@@ 6590
quisición 6589
odo@@ 6588
grano 6587
Equ@@ 6586
Jon@@ 6586
extin@@ 6586
trim@@ 6584
sand@@ 6583
amino@@ 6582
Baltimore 6580
Elo@@ 6578
Serena 6578
Miles 6575
iger@@ 6573
Raymond 6572
key 6570
Tah@@ 6569
Tod@@ 6568
ron 6567
Kot@@ 6565
Palm@@ 6565
B.@@ 6564
Sean 6564
Velázquez 6563
gua 6563
replic@@ 6562
Frances@@ 6561
eller 6561
onne 6561
Sali@@ 6560
Segu@@ 6560
berger 6560
playoffs 6560
Ny@@ 6559
Hermann 6556
ranza 6556
foros 6554
Land 6552
Tan 6552
ísica 6552
Bail@@ 6551
Correa 6551
dominic@@ 6550
Ambi@@ 6548
ett@@ 6548
bach@@ 6547
anova 6544
catedr@@ 6539
Torre@@ 6538
ana@@ 6538
atri@@ 6538
bet 6538
lopedia 6538
PIB 6537
salm@@ 6536
cruci@@ 6534
Histori@@ 6533
odon@@ 6532
Andre@@ 6531
Mongolia 6528
Patagonia 6528
Rita 6526
distor@@ 6526
Conference 6525
Rig@@ 6525
lunar 6525
cy 6524
oti@@ 6523
yd@@ 6522
Gand@@ 6521
za@@ 6520
Clem@@ 6519
igual@@ 6519
udan 6518
ectura 6517
nior 6517
1819 6516
daf@@ 6515
chic@@ 6513
tades 6513
inca 6512
Nazar@@ 6508
delta 6508
dent@@ 6508
Huerta 6506
arom@@ 6505
carbur@@ 6505
õ@@ 6504
hard 6503
T.@@ 6497
alles 6497
Mitchell 6496
lez 6494
basan 6493
Jal@@ 6490
Lane 6490
han@@ 6489
idal 6489
o- 6489
notori@@ 6488
Michoacán 6487
latin@@ 6487
termo@@ 6487
Roman@@ 6486
Unesco 6486
actus 6486
iterráneo 6483
Pietro 6481
lati@@ 6481
osoma 6480
pología 6480
spe@@ 6479
Expl@@ 6477
Ayala 6476
Guil@@ 6476
Inca 6475
ough 6475
din 6474
placer 6474
Soccer 6473
ifer@@ 6471
ausp@@ 6469
cem@@ 6468
Martha 6467
Nos@@ 6467
extern@@ 6467
alber@@ 6464
gresa 6463
Fire 6459
Cinemat@@ 6458
Family 6457
River@@ 6457
val 6457
kat@@ 6456
Cauca 6455
Pich@@ 6455
ETA 6454
prel@@ 6454
util@@ 6454
ici 6453
Susan 6452
Luigi 6451
Nicol@@ 6450
destro@@ 6450
hus@@ 6450
ontes 6450
alo@@ 6449
Amy 6448
Café 6448
Levante 6447
jon@@ 6447
Dich@@ 6446
Multi@@ 6444
estamp@@ 6444
Leipzig 6443
fec@@ 6442
Bá@@ 6441
Herzegovina 6441
Hesse 6439
Rav@@ 6439
Rubio 6439
dum@@ 6437
revi@@ 6437
Arenas 6434
Bart 6433
creci@@ 6432
iche 6432
170 6431
Sainte 6431
UE@@ 6429
ago@@ 6426
estri@@ 6426
alist@@ 6424
igh@@ 6424
Orientales 6423
pol 6423
triz 6420
aleta 6418
calibre 6418
andi@@ 6417
fología 6417
demu@@ 6416
dre@@ 6416
Iv@@ 6414
bares 6413
ling@@ 6413
TS 6412
Selec@@ 6411
Tat@@ 6411
Buen@@ 6408
Ken 6408
inaria 6408
remoto 6408
João 6407
mac 6407
ris 6407
isca 6406
19.@@ 6405
Ley@@ 6405
Lloyd 6405
Lus@@ 6405
kin@@ 6405
Teh@@ 6404
bero 6404
End 6403
sech@@ 6402
gieron 6398
tula 6397
iral 6396
ueras 6395
Guadal@@ 6394
cables 6393
Héro@@ 6392
responsabil@@ 6391
column@@ 6390
privil@@ 6389
oku 6388
Bit@@ 6387
Urbano 6384
buc@@ 6384
insul@@ 6384
21.@@ 6380
Barbara 6378
Blues 6378
pseud@@ 6377
Roosevelt 6370
comprim@@ 6370
requis@@ 6369
Out@@ 6368
decre@@ 6368
1809 6367
Amaz@@ 6363
acias 6363
Dé@@ 6362
horizont@@ 6362
cribe 6361
sensible 6360
Format@@ 6356
heb@@ 6356
silenci@@ 6356
Krasnodar 6354
ful@@ 6354
38@@ 6353
Acosta 6353
album 6353
xico 6352
paralel@@ 6351
ward 6350
Ceb@@ 6347
Joaqu@@ 6347
inio 6347
Two 6345
greso 6345
intest@@ 6345
Yan@@ 6342
bon 6341
refu@@ 6340
Pinto 6338
comi@@ 6335
tant@@ 6335
hormon@@ 6334
ministr@@ 6332
nev@@ 6332
Islam 6331
verd@@ 6331
enfri@@ 6330
ery 6329
ior 6329
ò@@ 6329
country 6328
hibi@@ 6328
1827 6327
ples 6327
Edwards 6325
kins 6325
Campus 6322
verb@@ 6320
Querétaro 6319
zh@@ 6319
Lorca 6317
Sap@@ 6317
acular 6317
Cross 6316
Pizarro 6316
gris@@ 6316
Mang@@ 6315
obe@@ 6315
Marino 6313
Spor@@ 6313
PP@@ 6310
DI@@ 6309
com 6309
1.5 6308
enarios 6307
Summer 6306
oval 6306
Frederick 6305
Almag@@ 6304
you 6302
UC 6301
hip@@ 6299
istic@@ 6296
Mó@@ 6295
Helsinki 6294
intend@@ 6293
Voc@@ 6291
Zor@@ 6290
horiz@@ 6290
monstr@@ 6286
2.0 6285
Daily 6284
lemente 6282
Map@@ 6281
tele@@ 6279
Ey@@ 6278
digit@@ 6277
Europe 6276
ésim@@ 6275
hái 6273
Samp@@ 6272
confin@@ 6269
eton 6269
iti 6268
resul@@ 6267
condens@@ 6266
vivencia 6266
tual 6264
incorrec@@ 6261
aret 6260
Linda 6258
Europ@@ 6257
Prince 6255
Ariel 6253
Plas@@ 6252
ring 6252
Ballet 6249
Dick 6248
tú 6248
102 6247
final@@ 6247
trap@@ 6247
Ox@@ 6243
oux 6242
transmit@@ 6242
descendi@@ 6241
Haz@@ 6239
Viz@@ 6238
ael 6238
dop@@ 6238
perí@@ 6238
Bros 6237
Gaz@@ 6237
ego@@ 6237
Carac@@ 6235
paro@@ 6235
Nob@@ 6232
Olga 6232
indis@@ 6232
Moderna 6230
eb 6230
australi@@ 6229
confer@@ 6229
Rachel 6228
Rogers 6226
borg 6226
4000 6224
berg@@ 6223
ibe 6223
Aire 6222
médic@@ 6222
Guanaj@@ 6220
Dig@@ 6219
primor@@ 6219
azz@@ 6215
preced@@ 6213
vis 6213
Č@@ 6210
Chico 6208
Denis 6207
inde 6207
Collins 6206
Portugu@@ 6204
Parra 6203
ost 6202
Project 6201
Woman 6201
Pier@@ 6199
fach@@ 6197
morales 6197
Uz@@ 6196
ô@@ 6196
vector 6195
exige 6192
plur@@ 6192
bie 6191
residi@@ 6191
ris@@ 6191
sho@@ 6191
Val 6190
128 6189
inski 6189
tepec 6189
Aren@@ 6188
blas@@ 6187
Chelsea 6186
endi 6186
triangular 6186
Acces@@ 6185
Cit@@ 6183
100.000 6182
terior 6182
Campe@@ 6180
Compar@@ 6179
fruc@@ 6177
Green@@ 6176
Sah@@ 6176
puls@@ 6173
uel 6173
matricul@@ 6172
ding 6171
1.000 6170
Ron 6167
mini 6165
agros 6164
uer 6163
Nik@@ 6161
king 6161
Jennifer 6160
diversi@@ 6160
usti@@ 6160
kal@@ 6159
Bass@@ 6157
atina 6157
descend@@ 6157
entu@@ 6157
Ralph 6154
jal@@ 6153
Will@@ 6152
olig@@ 6152
Buena 6151
zer 6151
1818 6150
Romeo 6150
cón@@ 6150
éli@@ 6149
Narc@@ 6148
insurg@@ 6147
Eul@@ 6141
hú@@ 6140
EC 6139
22.@@ 6137
Afr@@ 6137
Guevara 6137
tún@@ 6136
üe 6136
Proven@@ 6135
indefin@@ 6134
orada 6134
tac@@ 6133
ations 6132
Centre 6131
cel 6130
Wang 6129
Ord@@ 6126
dimensional 6123
People 6122
obo@@ 6119
tum 6119
sín@@ 6118
uses 6118
ciano 6117
Nah@@ 6116
fat@@ 6116
ló 6116
Bun@@ 6115
Rangers 6114
Lep@@ 6113
Pueb@@ 6113
atra 6113
nup@@ 6113
civiliz@@ 6112
Bryan 6109
ju 6109
IB@@ 6108
SI 6107
Afric@@ 6106
Emilia 6106
uke 6106
Anton 6105
Inv@@ 6103
infect@@ 6101
Slam 6100
Sv@@ 6099
impul@@ 6099
MP 6097
Establ@@ 6095
Gad@@ 6094
Arquit@@ 6093
Garcia 6093
Boh@@ 6092
EL 6090
Luke 6088
concili@@ 6086
factor@@ 6086
ovski 6086
Cuz@@ 6085
absolut@@ 6085
ateral 6085
Oreg@@ 6084
pris@@ 6084
trau@@ 6083
clo@@ 6081
20.000 6080
RF@@ 6080
ordenadas 6080
Sier@@ 6078
iTunes 6078
wick 6078
war@@ 6077
AB 6076
Oh 6076
ark@@ 6075
blo@@ 6075
infiltr@@ 6075
Dow@@ 6074
reten@@ 6074
Personal 6073
Wit@@ 6073
ów 6072
ats@@ 6070
ose 6070
Camar@@ 6068
Ich@@ 6067
Tos@@ 6067
α 6067
Bah@@ 6062
Singles 6059
propiet@@ 6059
ste 6057
gros@@ 6055
Martin@@ 6053
NFL 6051
interc@@ 6050
Foundation 6049
tomas 6049
Guardi@@ 6048
aid@@ 6048
pren@@ 6048
e.@@ 6046
kon@@ 6046
Primo 6045
Portland 6043
Wild 6043
mantel@@ 6041
tonal@@ 6041
SU@@ 6040
70@@ 6039
pulmon@@ 6039
47@@ 6038
Party 6037
aula 6037
Varela 6034
morfol@@ 6034
Ronald 6032
Tang@@ 6032
Yak@@ 6031
aro@@ 6030
say@@ 6030
Max@@ 6028
produ@@ 6028
obi@@ 6027
struc@@ 6025
laborat@@ 6022
ment 6018
ocic@@ 6017
yen@@ 6016
Aquit@@ 6014
Que@@ 6014
reality 6014
íferos 6013
Philippe 6011
Blu@@ 6010
lanceol@@ 6010
CM@@ 6009
intervenir 6009
guil@@ 6007
ols 6005
ep 6003
Vec@@ 6002
onz@@ 6001
liquid@@ 5999
100@@ 5998
ISO 5998
Manila 5998
1806 5997
oqu@@ 5997
paleont@@ 5997
Prix 5995
cili@@ 5993
frut@@ 5992
humo 5991
ollo 5990
mones 5988
uato 5987
Fres@@ 5986
Hunter 5985
Liter@@ 5984
pers 5983
Roberts 5982
10.000 5980
amon@@ 5980
metaf@@ 5980
ave@@ 5979
cut@@ 5979
ameda 5978
ometr@@ 5977
PM 5976
homosexual 5976
Johannes 5975
Ghana 5974
ako 5974
profund@@ 5974
Proy@@ 5973
heavy 5973
Gin@@ 5972
lard 5971
Saf@@ 5969
UA 5969
advoc@@ 5969
iero 5969
Ivan 5968
intermedia 5968
protagon@@ 5968
Ambro@@ 5967
FO@@ 5967
tori@@ 5967
Darwin 5966
Software 5965
ege 5965
oke 5965
afi@@ 5963
oidea 5963
Jr. 5962
Birmingham 5960
FBI 5960
devast@@ 5960
sant@@ 5960
Montana 5959
Shir@@ 5959
alición 5959
perd@@ 5959
Venez@@ 5958
déj@@ 5958
igny 5958
pasa@@ 5957
eh 5956
Dj@@ 5954
Tanzania 5954
Wolf 5954
didad 5953
Ernest 5950
ennes 5948
wi@@ 5947
caro 5945
1700 5944
Basket 5944
Wat@@ 5944
Keith 5943
Carri@@ 5942
104 5941
perturb@@ 5941
Hag@@ 5939
cis@@ 5939
potable 5939
glomer@@ 5935
oyen 5935
Verg@@ 5933
Motor 5932
greg@@ 5932
22@@ 5931
Cole@@ 5931
Gos@@ 5931
scrip@@ 5929
Cres@@ 5928
ty@@ 5928
Dennis 5926
Pist@@ 5926
Up@@ 5926
elig@@ 5926
ET 5924
PL@@ 5924
Silver 5923
bacteri@@ 5923
Pastor 5921
fluor@@ 5921
biodi@@ 5920
Audit@@ 5919
Resp@@ 5918
BO@@ 5917
anatom@@ 5917
conjun@@ 5917
Stein@@ 5916
miel 5916
Zh@@ 5915
Gray 5914
manif@@ 5914
aia 5913
D.C. 5912
anar@@ 5911
Ultimate 5908
ells 5906
Marcel 5905
Lie@@ 5904
astía 5904
Princi@@ 5903
ocampista 5902
nis 5901
eland 5900
borough 5898
Tay@@ 5897
n.@@ 5897
Flash 5893
tires 5893
ovo 5891
Kun@@ 5890
Progres@@ 5890
Tet@@ 5890
abra 5890
erios 5890
recipi@@ 5890
Sacramento 5889
convic@@ 5888
adounid@@ 5887
folk 5886
ader 5885
Enti@@ 5884
multin@@ 5884
aku 5883
star@@ 5882
Serra 5880
caria 5879
thi@@ 5879
Atlantic 5876
Wikipedia 5874
acet@@ 5874
vot 5874
Mans 5873
Natalia 5873
Place 5873
Sm@@ 5873
atan 5873
tuber@@ 5873
115 5872
108 5871
Cun@@ 5871
abrup@@ 5871
terrible 5870
CP 5868
head 5867
her 5866
isha 5866
estig@@ 5864
lom@@ 5863
mutu@@ 5862
ders 5860
less 5860
103 5859
Stor@@ 5858
NCAA 5857
Rut@@ 5856
andi 5856
Euphorbia 5855
particular@@ 5855
NT@@ 5853
thr@@ 5853
yg@@ 5853
CR@@ 5850
Itur@@ 5850
Elba 5847
Paolo 5847
reptiles 5845
Dram@@ 5844
ezo 5843
arz@@ 5842
AI 5840
ret 5840
Investig@@ 5839
detective 5838
Ses@@ 5835
uti 5835
sch 5833
taur@@ 5832
membr@@ 5831
1,2 5830
ander 5827
Pati@@ 5826
acul@@ 5826
Moldav@@ 5822
escu 5821
kel 5821
39@@ 5818
aré 5818
ctu@@ 5817
Abel 5816
Spencer 5815
patron@@ 5810
binom@@ 5809
similit@@ 5808
II@@ 5806
ejec@@ 5806
£ 5806
Country 5805
Eugenia 5804
109 5802
pastor@@ 5802
Justin 5801
1789 5800
Ix@@ 5799
Tigre 5799
Vladimir 5799
nau@@ 5799
21,@@ 5798
Hall@@ 5798
unto 5798
Ves@@ 5796
Moc@@ 5792
GB 5789
Magic 5789
Hard@@ 5786
Wor@@ 5785
Jung 5783
Four 5781
Mata 5779
Murphy 5779
abo 5778
porta@@ 5778
49@@ 5777
Von 5777
By@@ 5775
Forest 5773
lluvi@@ 5772
andro 5771
corro@@ 5770
ondr@@ 5770
melan@@ 5767
tun@@ 5767
Led@@ 5765
Luciano 5765
atamente 5765
úcar 5765
Helen 5764
circunst@@ 5764
Come 5763
Leb@@ 5763
Bowl 5762
Bar 5761
Urugu@@ 5759
carse 5758
Ax@@ 5757
ursos 5756
lengu@@ 5754
non 5754
Jesus 5753
ck@@ 5751
ibilit@@ 5751
ë 5749
Oslo 5747
Rin@@ 5746
explo@@ 5746
EC@@ 5745
huel@@ 5745
precursor 5745
aura 5743
Acta 5742
ois 5741
sets 5740
Earth 5739
out@@ 5738
cera 5737
ike 5736
prolifer@@ 5736
Rural 5732
Sent@@ 5732
ocon@@ 5732
Fuj@@ 5731
istes 5731
jard@@ 5731
menta 5731
murales 5731
ologia 5730
Berkeley 5727
220 5725
versario 5725
Benjam@@ 5724
opar@@ 5723
So 5722
Coron@@ 5721
Camp 5719
leuc@@ 5719
Nepal 5718
rie 5717
Taekwondo 5715
ingia 5714
has 5712
Over@@ 5710
yl 5710
manz@@ 5708
ustre 5707
CI 5705
og 5704
ísim@@ 5702
Lanka 5701
fascin@@ 5699
valdo 5699
Armstrong 5697
sigui@@ 5697
Nev@@ 5696
adra 5696
Tari@@ 5695
one@@ 5693
Kub@@ 5691
Acc@@ 5689
Cari@@ 5686
Glasgow 5686
Irene 5685
lang@@ 5685
Jacinto 5684
Garc@@ 5679
Knight 5679
Ted 5678
ister 5678
filó@@ 5677
Book 5676
1.0@@ 5675
sign@@ 5672
doctoral 5671
our@@ 5671
ör@@ 5670
Gabriela 5669
persp@@ 5669
Org@@ 5668
Cho@@ 5667
Once 5667
Six@@ 5666
dance 5666
Esmer@@ 5665
U. 5665
asso 5665
Industri@@ 5663
Productions 5663
dible 5661
UD 5659
heredit@@ 5659
imi 5659
Palatin@@ 5658
Lenin 5652
ague 5652
Fat@@ 5651
Jessica 5651
Call@@ 5650
Jus@@ 5650
bs 5650
lon 5650
August 5649
mural 5649
opus 5649
Tob@@ 5646
1790 5645
Alco@@ 5645
IG@@ 5645
Miy@@ 5645
anth@@ 5643
uli 5643
agio 5642
1793 5640
Catherine 5640
dán 5640
fes 5640
Og@@ 5638
eclip@@ 5637
Amad@@ 5636
but 5635
rid 5635
aram@@ 5634
ei@@ 5632
neamente 5632
Gram@@ 5631
Cabr@@ 5629
uche 5629
Dame 5626
Grim@@ 5625
chocolate 5625
22,@@ 5623
Buda 5623
Lost 5621
Miembr@@ 5621
uten 5620
Constru@@ 5619
Til@@ 5619
Ou@@ 5618
Cannes 5617
Disco 5616
jan@@ 5616
Android 5614
Leonard 5614
ampo 5612
arab@@ 5612
cala 5611
lor 5611
240 5610
quen 5610
Bour@@ 5609
usta 5609
MS@@ 5608
Durango 5607
Ni 5607
aup@@ 5607
Bed@@ 5606
neu@@ 5605
Gem@@ 5603
alti@@ 5603
U.@@ 5601
toral 5601
~ 5601
inata 5599
AV@@ 5598
eme 5598
oja 5598
arme 5591
fabr@@ 5591
Isid@@ 5589
cuta 5588
eville 5586
hilo 5586
rid@@ 5586
corn@@ 5585
ï@@ 5585
Botan@@ 5584
Finanz@@ 5583
chen@@ 5583
23.@@ 5582
enburg 5582
tenor 5582
zen 5582
manch@@ 5580
Good@@ 5579
Tad@@ 5579
Stuart 5578
al. 5578
Zam@@ 5573
Just 5572
Kim@@ 5572
Tru@@ 5572
Bin@@ 5571
Cole 5571
Vier@@ 5571
Pete 5569
Italiano 5567
hegem@@ 5566
Terminal 5565
indem@@ 5565
Champions 5563
Edit@@ 5563
1753 5562
investi@@ 5561
ric 5559
inclusive 5558
Rob 5557
balance 5556
š 5553
odor@@ 5552
2.5 5550
Andorra 5548
Fauna 5547
uchi 5545
Wall 5544
etano 5544
paramilit@@ 5544
MI 5542
Car 5541
Mountain 5539
Santana 5539
esma 5539
ore@@ 5538
26,@@ 5537
Myr@@ 5537
singles 5536
G.@@ 5535
Gy@@ 5535
24,@@ 5533
Pass@@ 5533
Louise 5530
MX 5529
urus 5529
bron@@ 5528
Asp@@ 5527
Gó@@ 5526
Western 5526
Village 5525
Watson 5525
Electric 5524
Saav@@ 5523
Bonaparte 5522
Cristiano 5522
Tower 5520
ER 5518
Let 5514
abamba 5513
peste 5513
conceptual 5511
25,@@ 5510
antagon@@ 5510
Bud@@ 5508
ML@@ 5508
zy@@ 5508
Hart 5506
bel 5504
Der 5503
Row@@ 5500
Sib@@ 5500
unter@@ 5500
marketing 5499
Ques@@ 5497
[...]
