， 1
的 1
。 1
、 1
年 1
在 1
（ 1
） 1
是 1
. 0.13832992209622588
和 1
月 1
了 1
於 1
為 1
人 1
日 1
有 1
》 1
《 1
· 1
中 1
为 1
- 1
他 1
被 1
： 1
「 1
」 1
上 1
與 1
“ 1
也 1
” 1
大@@ 1
後 1
而 1
由 1
以 1
及 1
等 1
1 1
一@@ 1
到 1
于 1
" 1
； 1
与 1
) 0.17689875357293935
( 0.17535410993954612
2 1
中@@ 1
但 1
至 1
, 0.02933827345709033
3 1
會 1
一个 1
地 1
其 1
不@@ 1
都 1
位 1
下 1
4 1
后 1
州 1
來 1
或 1
名 1
時 1
站 1
5 1
長 1
之 1
西@@ 1
對 1
三@@ 1
者 1
斯 1
子 1
大 1
10 1
不 1
6 1
出 1
可以 1
并 1
性 1
市 1
之@@ 1
8 1
道 1
7 1
山 1
所 1
中国 1
新@@ 1
日本 1
高@@ 1
德 1
使用 1
南@@ 1
12 1
用 1
省 1
第 1
人@@ 1
前 1
米 1
9 1
部 1
小@@ 1
區 1
阿@@ 1
香港 1
; 0.4332452524547037
曾 1
向 1
多@@ 1
家 1
克 1
包括 1
以及 1
时 1
她 1
里 1
其中 1
将 1
就 1
德@@ 1
一個 1
化 1
政府 1
新 1
多 1
斯@@ 1
公司 1
金@@ 1
11 1
特@@ 1
区 1
海@@ 1
人口 1
特 1
/ 0.8306266965214067
会 1
拉@@ 1
軍 1
日@@ 1
对 1
县 1
: 0.281034993763956
成 1
上@@ 1
主要 1
尔 1
克@@ 1
有@@ 1
馬 1
北@@ 1
水@@ 1
法 1
路 1
線 1
文@@ 1
作 1
安@@ 1
並@@ 1
王@@ 1
李@@ 1
又 1
縣 1
以@@ 1
巴@@ 1
科@@ 1
分@@ 1
天@@ 1
城 1
爾@@ 1
全@@ 1
該 1
個 1
科 1
生 1
卡@@ 1
加@@ 1
四@@ 1
式 1
其他 1
地@@ 1
自@@ 1
其@@ 1
该 1
拉 1
分 1
亦 1
面 1
利@@ 1
內 1
入 1
國 1
型 1
可 1
本@@ 1
將 1
國@@ 1
平方公里 1
它 1
年@@ 1
利 1
因 1
美國 1
臺 1
因此 1
外@@ 1
河 1
位于 1
二@@ 1
任 1
世界 1
度 1
最 1
從 1
法@@ 1
公@@ 1
西 1
出@@ 1
山@@ 1
爾 1
一 1
已 1
起 1
稱 1
力 1
文 1
地区 1
军 1
事 1
更 1
並 1
个 1
马@@ 1
行 1
村 1
能 1
主@@ 1
製 1
軍@@ 1
自己 1
号 1
林@@ 1
五@@ 1
約 1
可@@ 1
派 1
台 1
比 1
局 1
外 1
从 1
美国 1
中心 1
手 1
下@@ 1
布@@ 1
线 1
成立 1
研究 1
尔@@ 1
此 1
大学 1
可能 1
政治 1
美@@ 1
亞@@ 1
尼@@ 1
使 1
自 1
工作 1
重@@ 1
南 1
生@@ 1
高 1
開始 1
20 1
要 1
& 1
市镇 1
古@@ 1
則 1
哈@@ 1
代表 1
同@@ 1
镇 1
前@@ 1
伊@@ 1
水 1
表示 1
王 1
东@@ 1
小 1
海 1
由@@ 1
之一 1
天 1
次 1
器 1
即 1
格@@ 1
成@@ 1
車 1
體 1
號 1
本 1
内 1
不同 1
正@@ 1
明@@ 1
所@@ 1
說 1
屬 1
基@@ 1
東@@ 1
夫 1
民@@ 1
长 1
国 1
家@@ 1
普@@ 1
達 1
部分 1
来 1
林 1
白@@ 1
將@@ 1
相@@ 1
国@@ 1
名@@ 1
行@@ 1
平@@ 1
座 1
原@@ 1
波@@ 1
— 0.3198510478087606
石@@ 1
兩@@ 1
指 1
法国 1
_ 1
會@@ 1
比@@ 1
得 1
後@@ 1
副 1
作品 1
吉@@ 1
期 1
處 1
属 1
東 1
开始 1
制 1
公里 1
这 1
隊 1
士 1
把 1
格 1
两@@ 1
中國 1
此@@ 1
进行 1
台灣 1
清@@ 1
里@@ 1
正式 1
場 1
国家 1
一些 1
學@@ 1
安 1
年代 1
合@@ 1
定 1
光@@ 1
15 1
球 1
提供 1
開@@ 1
成为 1
這@@ 1
量 1
体 1
而@@ 1
去 1
沙@@ 1
氏 1
30 1
交@@ 1
羅 1
進行 1
行政 1
為@@ 1
所有 1
如 1
口 1
他們 1
集 1
間 1
长@@ 1
卡 1
地區 1
無@@ 1
神@@ 1
总@@ 1
時@@ 1
流@@ 1
系 1
官 1
雷@@ 1
反@@ 1
武@@ 1
發@@ 1
八@@ 1
成為 1
罗@@ 1
和@@ 1
因@@ 1
著 1
文化 1
尼 1
國家 1
瓦@@ 1
第一 1
城市 1
大學 1
2010 0.979902092991517
機 1
光 1
首@@ 1
基 1
片 1
开@@ 1
金 1
明 1
元 1
则 1
才 1
方 1
还 1
获得 1
保@@ 1
語 1
各@@ 1
约 1
塔@@ 1
百@@ 1
電@@ 1
內@@ 1
以下 1
音 1
建@@ 1
生活 1
无@@ 1
代@@ 1
族 1
% 0.40269283824905827
因為 1
當@@ 1
formula 1
通@@ 1
人物 1
物 1
點 1
學 1
米@@ 1
面積 1
院 1
没有 1
心 1
子@@ 1
他们 1
原 1
北 1
女 1
事件 1
我 1
16 1
六@@ 1
回@@ 1
認為 1
府 1
率 1
江@@ 1
均 1
称 1
星 1
18 1
電影 1
通过 1
目前 1
島 1
历史 1
段 1
太@@ 1
打@@ 1
總@@ 1
十@@ 1
當時 1
洛@@ 1
21 1
賽 1
2019 1
世@@ 1
但是 1
亞 1
2011 0.9814995805394611
版 1
數 1
福@@ 1
起@@ 1
管理 1
足球 1
羅@@ 1
城@@ 1
2009 1
教@@ 1
事@@ 1
花@@ 1
达 1
19 1
任@@ 1
陳 1
发@@ 1
2016 1
死 1
受 1
14 1
字@@ 1
車@@ 1
再 1
田@@ 1
认为 1
兵 1
加入 1
華@@ 1
学 1
過 1
同年 1
木@@ 1
女@@ 1
歷史 1
像 1
方@@ 1
语 1
2018 1
英@@ 1
维@@ 1
老@@ 1
讓 1
重要 1
代 1
13 1
較 1
塔 1
亚@@ 1
周@@ 1
2012 0.9911566872129621
永@@ 1
頭 1
郡 1
门 1
塞@@ 1
改@@ 1
内@@ 1
港 1
主 1
門 1
下辖 1
重 1
政@@ 1
2013 1
時間 1
工@@ 1
加 1
流 1
馬@@ 1
接@@ 1
維@@ 1
常@@ 1
需要 1
理 1
支持 1
2017 1
案 1
便 1
好 1
2014 0.9793536908127267
级 1
台@@ 1
17 1
乡 1
花 1
戰@@ 1
建立 1
生平 1
2015 0.9904513547348972
曲 1
合 1
说 1
作@@ 1
伯@@ 1
張@@ 1
商@@ 1
艾@@ 1
直@@ 1
指@@ 1
地方 1
{ 1
動 1
獲得 1
今 1
共 1
队 1
受@@ 1
機@@ 1
非 1
机 1
埃@@ 1
書 1
铁路 1
要求 1
学院 1
管 1
勒 1
森 1
手@@ 1
zh 1
數@@ 1
黑@@ 1
史 1
完成 1
民 1
轉@@ 1
蘭@@ 1
作为 1
25 1
意 1
入@@ 1
區@@ 1
元@@ 1
2008 0.9528575793098749
心@@ 1
同時 1
黃 1
点 1
仍 1
對@@ 1
委员会 1
同 1
立 1
} 1
后@@ 1
例 1
由于 1
車站 1
江 1
2020 1
教育 1
恩 1
单位 1
市@@ 1
形 1
黨 1
只 1
处 1
員 1
七@@ 1
石 1
种 1
例如 1
品 1
着 1
經@@ 1
立@@ 1
選@@ 1
最@@ 1
級 1
姆 1
万@@ 1
九@@ 1
电@@ 1
發 1
] 1
及@@ 1
正 1
工程 1
[ 1
田 1
字 1
街 1
成功 1
梅@@ 1
车 1
方式 1
色 1
師 1
回 1
得到 1
学@@ 1
受到 1
灣 1
第二 1
很 1
該@@ 1
提@@ 1
青@@ 1
博@@ 1
中央 1
共@@ 1
迪@@ 1
關 1
张@@ 1
目 1
奥@@ 1
上海 1
室 1
取 1
發展 1
分布 1
列@@ 1
歲 1
托@@ 1
一般 1
政 1
戰 1
堂 1
身 1
场 1
参加 1
河@@ 1
圣@@ 1
曼 1
人民 1
復 1
千@@ 1
华@@ 1
工 1
萬@@ 1
希@@ 1
每 1
通常 1
存在 1
用@@ 1
空@@ 1
前往 1
且 1
信@@ 1
宗 1
给 1
半@@ 1
平 1
一種 1
之后 1
24 1
信 1
莫@@ 1
發現 1
商 1
系統 1
2001 1
令 1
三 1
士@@ 1
纳 1
化@@ 1
角 1
人口密度 1
星@@ 1
進 1
布 1
種 1
路@@ 1
2007 0.9018977384283954
另 1
泰@@ 1
演@@ 1
纳@@ 1
美 1
推@@ 1
方面 1
－ 1
寺 1
书 1
就是 1
然而 1
提出 1
界 1
先@@ 1
未 1
瓦 1
社 1
定@@ 1
一名 1
过 1
22 1
灣@@ 1
形成 1
系统 1
每@@ 1
另外 1
索@@ 1
帕@@ 1
聖@@ 1
湖 1
國際 1
担任 1
節 1
所以 1
見 1
东 1
通 1
最大 1
館 1
2006 0.888032985064648
設 1
單@@ 1
獎 1
具有 1
視 1
史@@ 1
經 1
愛@@ 1
组织 1
龍 1
在@@ 1
收@@ 1
公 1
第一@@ 1
帶 1
师 1
甲@@ 1
皮@@ 1
主席 1
佈 1
集@@ 1
军@@ 1
宣布 1
北京 1
只有 1
最高 1
業 1
一种 1
傳@@ 1
员 1
神 1
英國 1
比賽 1
擔任 1
動@@ 1
過@@ 1
同时 1
客@@ 1
学校 1
故事 1
萬 1
根據 1
数 1
系列 1
修@@ 1
23 1
合作 1
遊戲 1
时@@ 1
巴 1
该@@ 1
源 1
一位 1
接受 1
2021 1
堡 1
土@@ 1
学名 1
往 1
世 1
此外 1
北部 1
達@@ 1
官@@ 1
出現 1
權 1
亚 1
係 1
船 1
防@@ 1
首次 1
進@@ 1
冠 1
做 1
黄@@ 1
理@@ 1
gt 1
食 1
附近 1
卻 1
= 1
这些 1
战@@ 1
制@@ 1
杜@@ 1
朱@@ 1
小行星 1
層 1
給 1
納@@ 1
2000 0.9273732225112301
造成 1
值 1
莱@@ 1
奧@@ 1
摩@@ 1
號@@ 1
角色 1
如@@ 1
游戏 1
意@@ 1
转@@ 1
兰@@ 1
世纪 1
體@@ 1
印度 1
胡@@ 1
发展 1
奇 1
面@@ 1
对@@ 1
属于 1
影響 1
建 1
一直 1
发现 1
2005 0.952205709080809
波 1
川 1
列 1
为@@ 1
程 1
風@@ 1
這些 1
28 1
專輯 1
款 1
寫 1
義@@ 1
赛 1
專@@ 1
自由 1
德国 1
封@@ 1
一座 1
轄 1
女性 1
團 1
A 0.3209996176622221
深@@ 1
火@@ 1
登@@ 1
性@@ 1
停@@ 1
時期 1
情 1
組 1
取得 1
增加 1
夫@@ 1
马 1
嘉@@ 1
传@@ 1
非@@ 1
曼@@ 1
口@@ 1
劉@@ 1
歌曲 1
密@@ 1
章 1
設計 1
唐@@ 1
開 1
汉@@ 1
这个 1
投@@ 1
会@@ 1
000 1
第二@@ 1
中华人民共和国 1
類 1
lt 1
陈@@ 1
精@@ 1
威@@ 1
刘@@ 1
音@@ 1
国际 1
這個 1
活動 1
沒有 1
沒 1
社會 1
帝 1
朝 1
道@@ 1
命名 1
件 1
之間 1
任何 1
歌 1
岛 1
如果 1
萨@@ 1
教 1
州@@ 1
当时 1
进@@ 1
司 1
动@@ 1
期间 1
表@@ 1
屆 1
康@@ 1
學校 1
共有 1
除 1
罗 1
造 1
連@@ 1
聯@@ 1
之前 1
先 1
海拔高度 1
向@@ 1
班 1
還@@ 1
26 1
當 1
景@@ 1
街道 1
达@@ 1
0 1
除了 1
首 1
則@@ 1
蘭 1
不是 1
端 1
票 1
各 1
控制 1
组 1
校 1
至@@ 1
根据 1
设计 1
實@@ 1
初@@ 1
动 1
廣@@ 1
店 1
一次 1
蘇@@ 1
岁 1
根 1
时期 1
失@@ 1
苏@@ 1
邊 1
發行 1
党 1
治 1
数@@ 1
霍@@ 1
解@@ 1
层 1
赫@@ 1
部@@ 1
当 1
皆 1
言 1
建筑 1
斯特 1
车@@ 1
27 1
薩@@ 1
漢@@ 1
版本 1
' 1
那@@ 1
电影 1
們 1
近 1
时间 1
問題 1
魚 1
納 1
修 1
英国 1
机@@ 1
勒@@ 1
常 1
無 1
南部 1
木 1
团 1
節目 1
权 1
平均 1
因为 1
清 1
關@@ 1
大量 1
二 1
支@@ 1
素 1
植物 1
力@@ 1
微@@ 1
间 1
應 1
英 1
板 1
鄉 1
教授 1
出版 1
富@@ 1
查@@ 1
雙@@ 1
情@@ 1
31 1
承@@ 1
然 1
地理 1
運@@ 1
副@@ 1
群 1
空 1
發生 1
港@@ 1
二十@@ 1
一起 1
头 1
非常 1
想 1
病 1
沃@@ 1
省@@ 1
佛@@ 1
真@@ 1
经 1
比赛 1
近@@ 1
类 1
現@@ 1
龍@@ 1
直接 1
报 1
牌 1
托 1
之间 1
2004 0.8520790707412913
物@@ 1
組織 1
位置 1
超@@ 1
置 1
全国 1
影@@ 1
问题 1
影响 1
得@@ 1
奇@@ 1
主任 1
推出 1
作為 1
宗@@ 1
期間 1
已经 1
有限公司 1
張 1
鲁@@ 1
100 0.9441946857260932
方法 1
架 1
季 1
施@@ 1
党@@ 1
打 1
門@@ 1
29 1
取@@ 1
弗@@ 1
重新 1
届 1
電 1
让 1
增@@ 1
甚至 1
該國 1
電視 1
著名 1
中国@@ 1
他@@ 1
雅@@ 1
未@@ 1
頓 1
玉@@ 1
奖 1
M@@ 0.41497653409148827
节 1
那 1
左@@ 1
命 1
当@@ 1
進入 1
身@@ 1
雖然 1
体@@ 1
參@@ 1
野@@ 1
放@@ 1
志@@ 1
面积 1
| 1
迪 1
包含 1
女子 1
经济 1
依@@ 1
出现 1
落 1
目@@ 1
解 1
车站 1
球@@ 1
发生 1
航空 1
籍 1
主义 1
最佳 1
的@@ 1
利用 1
西班牙 1
看@@ 1
形式 1
播出 1
称为 1
選 1
更@@ 1
宣@@ 1
母 1
司@@ 1
两个 1
魯@@ 1
业 1
夏@@ 1
低 1
第三@@ 1
第三 1
恩@@ 1
成員 1
校@@ 1
松@@ 1
話 1
酸 1
配@@ 1
进入 1
傳 1
G@@ 0.3465685399166899
庄 1
圖 1
京@@ 1
組@@ 1
追@@ 1
50 1
直到 1
友 1
伊 1
甲 1
管@@ 1
专@@ 1
登 1
D@@ 0.34845260102511344
列表 1
发 1
選舉 1
航@@ 1
獲 1
诺@@ 1
广@@ 1
舉行 1
學院 1
劇 1
底 1
行政区划 1
宋@@ 1
耶@@ 1
完全 1
住 1
論 1
警@@ 1
of 0.012869976615264666
战争 1
並且 1
曾@@ 1
西部 1
知 1
最終 1
被@@ 1
共同 1
委 1
現 1
C 0.884473498901719
縣@@ 1
朝@@ 1
活动 1
瑞@@ 1
低@@ 1
阳 1
出生 1
火 1
不能 1
別 1
都@@ 1
編@@ 1
男子 1
总面积 1
引@@ 1
佩@@ 1
書@@ 1
居 1
殺 1
技术 1
諾@@ 1
分別 1
活@@ 1
參加 1
一部分 1
音樂 1
再次 1
关@@ 1
演出 1
整@@ 1
计划 1
何@@ 1
战 1
家族 1
考@@ 1
兵@@ 1
红@@ 1
龙@@ 1
T@@ 0.33188298036776953
2003 0.8916683048024693
后来 1
思@@ 1
總 1
馆 1
但@@ 1
带 1
境 1
初 1
房 1
望 1
单@@ 1
春@@ 1
變@@ 1
图@@ 1
家庭 1
個@@ 1
這 1
報 1
民主 1
峰 1
桥 1
好@@ 1
跟 1
雷 1
決定 1
政策 1
菲@@ 1
送 1
師@@ 1
不過 1
大陆 1
居民 1
月台 1
希望 1
等@@ 1
能力 1
展 1
歌@@ 1
樂@@ 1
共和 1
次@@ 1
双@@ 1
万 1
具 1
意大利 1
萊@@ 1
许多 1
走 1
巴士 1
干@@ 1
这@@ 1
早期 1
而且 1
服務 1
反 1
条 1
預@@ 1
通過 1
射@@ 1
果 1
領@@ 1
古 1
蒂@@ 1
B 0.9072433299416958
升@@ 1
學生 1
極@@ 1
功能 1
著@@ 1
諾 1
B@@ 0.30586402255743245
实@@ 1
當地 1
獲@@ 1
接 1
图 1
延@@ 1
论 1
革命 1
草 1
世紀 1
交通 1
少@@ 1
落@@ 1
湖@@ 1
署 1
复@@ 1
人士 1
最终 1
寶@@ 1
表 1
你 1
留@@ 1
紅@@ 1
娜 1
守@@ 1
速 1
兰 1
兩個 1
作用 1
場@@ 1
看 1
風 1
義 1
委員會 1
华 1
龙 1
安全 1
以上 1
平方千米 1
射 1
歐洲 1
排@@ 1
圖@@ 1
鐵@@ 1
氣 1
變 1
2002 0.8114605271011002
廳 1
门@@ 1
周 1
大部分 1
索 1
戰爭 1
經濟 1
越 1
季@@ 1
頭@@ 1
核@@ 1
華 1
福 1
普 1
殿 1
克斯 1
白 1
调@@ 1
密 1
升 1
若 1
條 1
法律 1
男@@ 1
運動 1
月@@ 1
隆@@ 1
民族 1
the 0.006429936966232158
感@@ 1
賽@@ 1
切@@ 1
相 1
曲@@ 1
結@@ 1
或@@ 1
丁@@ 1
應@@ 1
消@@ 1
方向 1
会议 1
許多 1
哥@@ 1
今@@ 1
使得 1
中華民國 1
居@@ 1
模式 1
已經 1
貝@@ 1
最後@@ 1
官方 1
聲 1
吳@@ 1
客 1
40 1
病@@ 1
攻@@ 1
… 1
強@@ 1
熱@@ 1
皇@@ 1
贝@@ 1
邦 1
藏@@ 1
决定 1
計劃 1
份 1
毛@@ 1
关系 1
+ 1
感 1
特別 1
治@@ 1
三年 1
最初 1
致@@ 1
楼 1
去世 1
原因 1
中共 1
参@@ 1
社@@ 1
指出 1
加拿大 1
血@@ 1
运动 1
拍 1
船@@ 1
聯 1
梁@@ 1
放 1
生涯 1
蒙@@ 1
已@@ 1
生物 1
风@@ 1
橋 1
丹 1
質 1
野 1
逃@@ 1
游@@ 1
藏 1
仍然 1
支 1
很多 1
班@@ 1
一年 1
男 1
樓 1
旗 1
描述 1
降@@ 1
委员 1
抗@@ 1
球隊 1
香@@ 1
尾 1
徐@@ 1
務@@ 1
項 1
假@@ 1
擊 1
存 1
学生 1
道路 1
死亡 1
氣@@ 1
裡 1
聯賽 1
宮 1
相關 1
相同 1
勢 1
備 1
塞 1
少 1
连@@ 1
总人口 1
巡@@ 1
K@@ 0.3287183965721093
短@@ 1
情况 1
年度 1
負責管 1
牛@@ 1
即@@ 1
S@@ 0.22949035872570478
歐@@ 1
述 1
詞 1
全 1
四 1
右@@ 1
強 1
親@@ 1
溪 1
奧 1
预@@ 1
服 1
隨@@ 1
目的 1
戈@@ 1
組成 1
余@@ 1
兒 1
路線 1
洲 1
编@@ 1
词 1
樂 1
興@@ 1
P@@ 0.26774813462386804
倫@@ 1
兼 1
丹@@ 1
过@@ 1
唯一 1
社会 1
守 1
存@@ 1
偏@@ 1
創@@ 1
擁有 1
全球 1
杨@@ 1
鐵 1
1990 0.8555454167205319
结构 1
茨 1
展@@ 1
讀 1
衛@@ 1
爱@@ 1
雲@@ 1
資料 1
机构 1
乌@@ 1
全部 1
10@@ 1
诺 1
德國 1
臣 1
業@@ 1
辛@@ 1
包@@ 1
0.@@ 1
再@@ 1
第一次 1
男性 1
期@@ 1
谷 1
混@@ 1
無法 1
川@@ 1
分别 1
封 1
併 1
俄@@ 1
語@@ 1
省份 1
結果 1
来自 1
选@@ 1
C@@ 0.319390125445237
这种 1
成员 1
公路 1
隆 1
察@@ 1
色@@ 1
丁 1
沙 1
造@@ 1
職 1
列车 1
法國 1
见 1
大型 1
总统 1
五 1
变@@ 1
盃 1
学家 1
觀@@ 1
组成 1
厅 1
最后 1
吉 1
松 1
母@@ 1
森@@ 1
演 1
獨立 1
裔 1
0@@ 1
設有 1
宁@@ 1
保 1
結束 1
及其 1
哥 1
志 1
项目 1
助 1
廠 1
飾 1
T 1
情況 1
烏@@ 1
S 1
书@@ 1
什 1
每年 1
制度 1
N@@ 0.30471660434964526
故@@ 1
楊@@ 1
總統 1
角@@ 1
一部 1
剧 1
故 1
仁@@ 1
洛 1
建築 1
末 1
H@@ 0.3035030773187706
營 1
記 1
不久 1
L@@ 0.24692298858741402
或者 1
卢@@ 1
影 1
1999 0.7576460239046057
设 1
產@@ 1
照 1
鎮 1
越@@ 1
! 0.6798174135610501
演唱 1
卷 1
张 1
探@@ 1
激@@ 1
町 1
康 1
超過 1
離@@ 1
容@@ 1
夏季 1
1998 0.8311097925872104
彈 1
X 1
圈 1
產生 1
象 1
景 1
美元 1
尾@@ 1
祖@@ 1
側 1
赛@@ 1
顿 1
用于 1
線@@ 1
桑@@ 1
列車 1
A@@ 0.28546294744258005
裝 1
获 1
時代 1
名字 1
采用 1
就@@ 1
威 1
2@@ 1
铁@@ 1
良 1
气 1
部队 1
料 1
參 1
导致 1
穆@@ 1
几@@ 1
建设 1
明朝 1
联@@ 1
伦@@ 1
根@@ 1
为了 1
進士 1
洋@@ 1
秀@@ 1
生于 1
经@@ 1
繼續 1
热@@ 1
戴@@ 1
拥有 1
当地 1
暴@@ 1
半 1
毕业 1
環@@ 1
遭到 1
轉 1
教堂 1
透過 1
酒 1
境内 1
老 1
建造 1
並在 1
独立 1
議員 1
背景 1
极@@ 1
油 1
边 1
〉 1
美國@@ 1
并且 1
〈 1
罪 1
底@@ 1
园 1
费@@ 1
速度 1
集团 1
財@@ 1
離 1
现@@ 1
土地 1
玩家 1
草@@ 1
1980 0.9744511128173002
導致 1
职 1
进 1
西北 1
佔 1
歷@@ 1
皮 1
吴@@ 1
公園 1
联赛 1
形@@ 1
占 1
使@@ 1
集團 1
F@@ 0.2766897996742557
之後@@ 1
冰@@ 1
槍 1
写 1
欧洲 1
产生 1
D 0.9060158443843513
伯 1
接壤 1
佛 1
书记 1
俄罗斯 1
歌手 1
宗教 1
公尺 1
青年 1
調@@ 1
害 1
條@@ 1
尼亚 1
錄 1
位@@ 1
二年 1
自然 1
地球 1
应@@ 1
始@@ 1
易@@ 1
回到 1
引起 1
蒂 1
较 1
勝 1
限 1
举行 1
步 1
麥@@ 1
音乐 1
环@@ 1
步@@ 1
机场 1
1997 0.8413111845142521
最早 1
清朝 1
傳統 1
街@@ 1
利亚 1
費 1
葉@@ 1
雪@@ 1
们 1
地位 1
導@@ 1
知@@ 1
厂 1
採用 1
义 1
阿 1
苏联 1
輪 1
庫 1
島@@ 1
舰 1
營@@ 1
艦 1
村@@ 1
單位 1
熱帶 1
武 1
幾@@ 1
防 1
卫@@ 1
基本 1
200 1
s 0.12952640748846328
死@@ 1
越南 1
招@@ 1
園 1
觀 1
擊@@ 1
旧 1
作家 1
務 1
差 1
身份 1
改 1
标@@ 1
若@@ 1
需 1
夜 1
待 1
材 1
服@@ 1
維 1
供@@ 1
溫@@ 1
油@@ 1
洪@@ 1
足 1
语言 1
經過 1
什@@ 1
產 1
秀 1
第十@@ 1
聯盟 1
影片 1
元年 1
E 1
略 1
E@@ 0.30473587363675025
律 1
真 1
郎 1
舉 1
州市 1
宁 1
郭@@ 1
主教 1
容 1
優@@ 1
畢業 1
营@@ 1
乙@@ 1
制作 1
惠@@ 1
取代 1
中央@@ 1
查 1
食@@ 1
60 1
機場 1
多次 1
中部 1
人员 1
來@@ 1
突@@ 1
佐@@ 1
派@@ 1
头@@ 1
应 1
出身 1
– 0.0802445409700121
资@@ 1
服务 1
不少 1
强@@ 1
敗 1
調 1
语@@ 1
业@@ 1
岸 1
！ 1
主持 1
有人 1
處@@ 1
能@@ 1
任命 1
地面 1
M 1
戶 1
撤@@ 1
天主教 1
父 1
除@@ 1
球队 1
发行 1
序 1
載 1
農@@ 1
池 1
武器 1
加上 1
是@@ 1
短 1
军队 1
還 1
结@@ 1
快 1
4@@ 1
变 1
改革 1
退@@ 1
勞@@ 1
員@@ 1
祖 1
辦 1
反应 1
請 1
喜@@ 1
交 1
温@@ 1
技術 1
收 1
出任 1
仁 1
参与 1
鐵路 1
破@@ 1
兴@@ 1
遠 1
姆@@ 1
四年 1
西南 1
行動 1
部长 1
告@@ 1
分析 1
救@@ 1
亞洲 1
立法 1
The 0.026815554412713306
旅@@ 1
運 1
內容 1
法院 1
只是 1
阿尔@@ 1
电 1
县@@ 1
击@@ 1
秦@@ 1
皇帝 1
這種 1
R@@ 0.23537507049464645
毫米 1
营 1
库@@ 1
黨@@ 1
基地 1
1996 0.7719172982465423
运@@ 1
瑪@@ 1
原本 1
盛@@ 1
地下 1
隊@@ 1
还有 1
O@@ 0.28787307655818956
屋 1
击 1
关于 1
屬@@ 1
負責 1
魔@@ 1
泉 1
鄭@@ 1
聚@@ 1
3@@ 1
陸 1
至今 1
表演 1
节目 1
春 1
散 1
韓國 1
质 1
終@@ 1
點@@ 1
500 1
骨 1
杰@@ 1
仅 1
團@@ 1
土 1
平台 1
一定 1
过程 1
结束 1
生产 1
父親 1
项 1
科技 1
興 1
F 0.9984257232416793
晋@@ 1
示 1
左右 1
早 1
英文 1
稱@@ 1
处@@ 1
日至 1
統@@ 1
群@@ 1
运动员 1
发布 1
域 1
居住 1
泰 1
靈@@ 1
唱片 1
甘@@ 1
顺@@ 1
節@@ 1
新加坡 1
單曲 1
舊 1
岩 1
宫 1
同意 1
大多 1
到@@ 1
J@@ 0.33721532341940863
亡 1
圣 1
計@@ 1
播 1
乐@@ 1
算 1
a 0.01024906517745597
據 1
限制 1
李 1
？ 1
概念 1
1994 0.7788195001978313
日起 1
凱@@ 1
却 1
盧@@ 1
一家 1
分子 1
麗@@ 1
话 1
輕@@ 1
中学 1
公共 1
南京 1
记 1
印@@ 1
飛@@ 1
報@@ 1
完@@ 1
朗 1
伦 1
必須 1
裝@@ 1
宣 1
有些 1
降 1
範圍 1
骨@@ 1
梅 1
止 1
留 1
柯@@ 1
I 0.24551079123775493
團體 1
韦@@ 1
科学 1
系@@ 1
麻@@ 1
演員 1
魏@@ 1
局@@ 1
劇@@ 1
R 0.8625879134308266
G 1
倫 1
太平洋 1
站@@ 1
远@@ 1
艇 1
網 1
经过 1
维 1
度@@ 1
随后 1
城区 1
人口普查 1
控 1
執@@ 1
斷 1
休@@ 1
黎@@ 1
聖 1
六 1
澳門 1
議 1
1992 0.7494024376219771
驻 1
幕 1
警察 1
兄弟 1
1995 0.7579102447567136
希 1
航 1
巨@@ 1
乡镇级 1
br 1
友@@ 1
附@@ 1
判@@ 1
陸@@ 1
继续 1
我们 1
三十@@ 1
初期 1
孙@@ 1
排名 1
益 1
房@@ 1
昌 1
典 1
快@@ 1
獨@@ 1
陽@@ 1
蔡@@ 1
從@@ 1
證 1
私@@ 1
学习 1
00 1
深 1
畫 1
变化 1
号线 1
轮 1
监@@ 1
篇 1
中華 1
负责 1
竹@@ 1
元素 1
動物 1
傑@@ 1
烏克蘭 1
複 1
开发 1
監@@ 1
網@@ 1
V@@ 0.27095922347484463
呈 1
失 1
媒體 1
功 1
會議 1
資@@ 1
从@@ 1
报@@ 1
忠@@ 1
單 1
百 1
這是 1
紀錄 1
P 1
費@@ 1
評@@ 1
互@@ 1
曾任 1
二世 1
相关 1
虽然 1
叶 1
叶@@ 1
太 1
攻 1
藝術 1
宝@@ 1
赵@@ 1
勝@@ 1
第二次 1
力量 1
音樂@@ 1
毛 1
1993 0.7812176248478558
夜@@ 1
刻 1
廟 1
計畫 1
始 1
巴西 1
補@@ 1
风 1
研究所 1
临@@ 1
动物 1
榜 1
观 1
联盟 1
公布 1
蒙 1
对于 1
綫 1
標 1
區域 1
海拔 1
1991 0.7374537157331111
农@@ 1
孫@@ 1
陵 1
人員 1
幼@@ 1
學家 1
弱 1
流域 1
品@@ 1
巴黎 1
务 1
它们 1
L 0.6025539714501323
顯示 1
姓 1
言@@ 1
洞 1
僅 1
沿@@ 1
現時 1
有關 1
菌 1
兹 1
往@@ 1
王朝 1
超过 1
信息 1
授 1
充@@ 1
或是 1
足@@ 1
要@@ 1
首都 1
第四@@ 1
求@@ 1
所属 1
称@@ 1
海军 1
达到 1
8@@ 1
流行 1
奈@@ 1
浙江 1
获@@ 1
部隊 1
智@@ 1
照@@ 1
遺@@ 1
察 1
视 1
提 1
背@@ 1
陽 1
W@@ 0.23655802872364504
令@@ 1
联 1
核 1
亮 1
公园 1
阳@@ 1
文物保护 1
結構 1
努@@ 1
權@@ 1
護@@ 1
1950 1
尚@@ 1
一世 1
連 1
医院 1
组@@ 1
股@@ 1
早@@ 1
仙@@ 1
方案 1
萨 1
創作 1
計 1
碼 1
餘@@ 1
是否 1
院@@ 1
順@@ 1
办 1
獎@@ 1
雨 1
開發 1
新聞 1
妻子 1
決賽 1
始建 1
标准 1
保持 1
6@@ 1
環境 1
散@@ 1
父亲 1
宮@@ 1
只@@ 1
占@@ 1
K 1
五年 1
冠军 1
命@@ 1
返回 1
实 1
昌@@ 1
区域 1
遠@@ 1
市場 1
結 1
職@@ 1
零@@ 1
产 1
許@@ 1
选 1
证 1
联邦 1
杀 1
如下 1
别@@ 1
果@@ 1
80 1
調查 1
亂 1
帝国 1
领导 1
機構 1
助@@ 1
1949 1
症 1
第四 1
扎@@ 1
牧@@ 1
默@@ 1
兴 1
夏 1
程度 1
开 1
晚 1
供 1
归@@ 1
气@@ 1
赤@@ 1
必@@ 1
乐 1
传 1
源@@ 1
棲息 1
過程 1
强 1
终@@ 1
衣 1
O 0.5865008380216795
彈@@ 1
求 1
批准 1
效 1
眾 1
肯@@ 1
凯@@ 1
传统 1
十年 1
冷@@ 1
相當 1
振@@ 1
許 1
博士 1
住@@ 1
爲 1
1988 0.820686591718503
剧@@ 1
統 1
范@@ 1
十分 1
1.@@ 1
紫@@ 1
公分 1
俱乐部 1
鎮@@ 1
給@@ 1
产@@ 1
云@@ 1
线@@ 1
1970 0.7985614759968639
区@@ 1
领@@ 1
内容 1
费 1
库 1
君 1
我們 1
兼@@ 1
帝@@ 1
重建 1
象@@ 1
細@@ 1
久 1
协会 1
韓@@ 1
名稱 1
孔@@ 1
功@@ 1
下午 1
禮@@ 1
注@@ 1
企业 1
界@@ 1
舉辦 1
諸@@ 1
成績 1
欧@@ 1
當中 1
网@@ 1
畫@@ 1
人類 1
莱 1
炮 1
按 1
共和国 1
雅 1
犯 1
程序 1
and 0.00795664258644975
35 1
眼@@ 1
沃 1
急@@ 1
選擇 1
庄@@ 1
声 1
模@@ 1
批 1
毒@@ 1
水域 1
改為 1
范围 1
丽@@ 1
观@@ 1
n 0.3135960634242478
辦@@ 1
實 1
不再 1
鄉@@ 1
报告 1
数据 1
银行 1
協會 1
因而 1
』 1
職業 1
異@@ 1
『 1
檢@@ 1
知道 1
豪@@ 1
接近 1
U 0.7401623606234384
设立 1
社区 1
潮 1
距離 1
皇家 1
7@@ 1
菜 1
親 1
1989 0.7476211623690973
卫 1
柱 1
視@@ 1
小时 1
这一 1
更名 1
動畫 1
谢@@ 1
理论 1
统@@ 1
时代 1
套 1
京 1
大臣 1
難 1
磁@@ 1
正在 1
還有 1
务@@ 1
征@@ 1
改为 1
艘 1
崇@@ 1
培@@ 1
上映 1
无 1
远 1
聯合 1
表現 1
媒体 1
墓 1
师@@ 1
莉 1
四川 1
柏@@ 1
保护 1
魚@@ 1
人民@@ 1
某@@ 1
議會 1
主演 1
户 1
切 1
銀@@ 1
1945 0.7186783480996529
截至 1
离 1
拉斯 1
溪@@ 1
韋@@ 1
而是 1
態 1
支援 1
设有 1
提名 1
300 1
曹@@ 1
予 1
现在 1
齐@@ 1
資 1
沈@@ 1
45 1
70 1
专业 1
网 1
標準 1
別@@ 1
工业 1
著作 1
青 1
牙@@ 1
豐@@ 1
非洲 1
血 1
樹@@ 1
票@@ 1
導 1
席 1
收入 1
结果 1
持 1
中文 1
包 1
藝@@ 1
種@@ 1
取消 1
特别 1
奉@@ 1
in 0.006633855046436967
尚 1
程@@ 1
井 1
酒@@ 1
未能 1
来@@ 1
尤@@ 1
枚 1
画 1
坦 1
彭@@ 1
拜@@ 1
保留 1
股 1
莉@@ 1
交流 1
运 1
势 1
良@@ 1
中國@@ 1
攻擊 1
直至 1
赫 1
佛教 1
十 1
繼@@ 1
诸@@ 1
艺术 1
1960 0.8302222921697292
旗下 1
衛 1
救 1
善@@ 1
警方 1
養 1
眼 1
不會 1
虎 1
作者 1
2022 1
停止 1
病毒 1
薩 1
材料 1
其它 1
冠@@ 1
各地 1
澤@@ 1
看到 1
具@@ 1
韩国 1
葬 1
逝世 1
千 1
节@@ 1
思想 1
X@@ 0.7573524434077219
新增 1
块 1
高中 1
备 1
倍 1
育 1
于@@ 1
一樣 1
雄@@ 1
赛季 1
父@@ 1
陆@@ 1
禮 1
快速 1
活 1
赴 1
5@@ 1
滿@@ 1
謝@@ 1
奥 1
又名 1
可達 1
建成 1
线路 1
橫@@ 1
便@@ 1
電子 1
隔 1
坑 1
忠 1
朗@@ 1
斯特@@ 1
聲@@ 1
億 1
麗 1
移@@ 1
特殊 1
任务 1
奖@@ 1
額 1
紅 1
博物馆 1
遗@@ 1
牛 1
满@@ 1
走@@ 1
秋@@ 1
90 1
雄 1
和平 1
退 1
絲 1
网络 1
秒 1
僅@@ 1
吸@@ 1
威廉 1
西方 1
思 1
东北 1
投票 1
镇@@ 1
总 1
视@@ 1
省级 1
发表 1
鎮區 1
海岸 1
32 1
賽事 1
氏@@ 1
漢 1
再度 1
葛@@ 1
能夠 1
藍@@ 1
軍隊 1
职@@ 1
遂 1
炮@@ 1
据 1
兩 1
標@@ 1
隨著 1
主題 1
距 1
詩@@ 1
湾 1
只能 1
纪@@ 1
2.@@ 1
效力 1
奏 1
年间 1
物种 1
孩子 1
载 1
村落 1
无法 1
沉@@ 1
联合 1
行动 1
物理 1
芬 1
护@@ 1
如此 1
尚未 1
1985 0.8127914180844784
歸@@ 1
帝國 1
人民政府 1
委@@ 1
俄羅斯 1
公民 1
天津 1
迁@@ 1
麦@@ 1
固@@ 1
帶@@ 1
玛@@ 1
超 1
改名 1
舊@@ 1
排 1
哈 1
協助 1
慶@@ 1
乘@@ 1
致 1
尼亞 1
朋友 1
i 0.23671734528190638
設立 1
尤其 1
之外 1
硬@@ 1
小時 1
国际@@ 1
庙 1
善 1
拜 1
申@@ 1
福建 1
曆 1
别 1
假 1
移 1
中學 1
文件 1
盤 1
装 1
公主 1
～ 1
婚 1
童@@ 1
禁@@ 1
早年 1
命令 1
公開 1
告 1
以前 1
洋 1
1984 0.7977701124733109
先生 1
文章 1
孝@@ 1
当选 1
壓 1
播放 1
卿 1
琴 1
寧@@ 1
名称 1
茲 1
征 1
蒙古 1
項目 1
随@@ 1
簡稱 1
擊敗 1
多年 1
現在 1
味 1
傷 1
模型 1
普通 1
愛 1
隧道 1
擔 1
地震 1
庫@@ 1
H 1
持@@ 1
美国@@ 1
渡@@ 1
大樓 1
汉 1
1986 0.7692490501947755
佳@@ 1
关 1
并@@ 1
刊 1
陶@@ 1
U@@ 0.3517219618125583
环境 1
一度 1
安排 1
军事 1
片@@ 1
狀 1
坦@@ 1
荷@@ 1
樣 1
頂 1
集中 1
設@@ 1
速@@ 1
士兵 1
提高 1
皇 1
兩人 1
送@@ 1
參與 1
广场 1
台北 1
瑞 1
选举 1
審@@ 1
谷@@ 1
槍@@ 1
南方 1
發表 1
護 1
以外 1
调 1
铁 1
領 1
宇@@ 1
失去 1
争@@ 1
葉 1
類@@ 1
耶 1
小说 1
震@@ 1
呼@@ 1
坊 1
記@@ 1
址 1
候@@ 1
持續 1
否@@ 1
大道 1
1987 0.7509167041006192
珠@@ 1
翼 1
漫畫 1
阻@@ 1
这是 1
算@@ 1
移民 1
全國 1
拿 1
细@@ 1
孟@@ 1
此后 1
至少 1
露 1
警 1
市民 1
易 1
醫院 1
北京@@ 1
生產 1
舉@@ 1
保護 1
選區 1
俗 1
个@@ 1
引擎 1
不明 1
灵@@ 1
潮@@ 1
租@@ 1
掉 1
河南 1
有关 1
间@@ 1
以来 1
粉@@ 1
优@@ 1
語言 1
三个 1
津@@ 1
潘@@ 1
N 0.8865212119482674
暗@@ 1
字母 1
遷 1
异@@ 1
舞@@ 1
股份 1
规定 1
銀行 1
球員 1
借@@ 1
樂團 1
群島 1
劳@@ 1
廷 1
軍事 1
类似 1
表面 1
盟@@ 1
時候 1
实现 1
認@@ 1
年間 1
酒店 1
唱 1
售@@ 1
避免 1
基础 1
確@@ 1
机车 1
这样 1
乡@@ 1
輕 1
續 1
隻 1
以來 1
富 1
塘 1
某些 1
之下 1
断 1
陣@@ 1
国王 1
念 1
余 1
昆@@ 1
边@@ 1
中国共产党 1
浦@@ 1
烈 1
随着 1
投入 1
簡@@ 1
郑@@ 1
海域 1
牠 1
义@@ 1
高度 1
版@@ 1
舞 1
量@@ 1
有效 1
杯 1
各種 1
1982 0.7953512409182042
設施 1
處理 1
八 1
前身 1
基金 1
本地 1
一同 1
役 1
现 1
将军 1
圍 1
行为 1
執行 1
駐 1
健康 1
週@@ 1
约@@ 1
環 1
醫@@ 1
得以 1
考 1
时候 1
基督教 1
消息 1
现代 1
穿@@ 1
柳@@ 1
协@@ 1
创作 1
补@@ 1
九 1
決@@ 1
直 1
云 1
遭 1
屋@@ 1
弟 1
徒 1
核心 1
选择 1
瑞典 1
I@@ 0.2722993134912627
決 1
運動員 1
盛 1
三個 1
藤@@ 1
编码 1
東部 1
禁止 1
儿 1
同一 1
9@@ 1
隸屬 1
运行 1
部份 1
十二 1
不过 1
六年 1
瑞士 1
广州 1
壁 1
句 1
鱼 1
出口 1
河流 1
民國 1
免 1
迴 1
極 1
眾@@ 1
博 1
曾經 1
叫 1
右 1
逐漸 1
缺@@ 1
装@@ 1
执@@ 1
合并 1
离@@ 1
分为 1
恢复 1
澳洲 1
配 1
术 1
资 1
黑 1
1983 0.7760581694890454
反对 1
隔@@ 1
昂 1
特色 1
約@@ 1
羽毛球 1
宜@@ 1
旋@@ 1
嚴重 1
议会 1
珠 1
一系列 1
渡 1
之中 1
委員 1
年底 1
作出 1
紀 1
文字 1
洲@@ 1
英語 1
莫 1
榮 1
井@@ 1
尽管 1
茨@@ 1
乘客 1
侯@@ 1
找到 1
捷@@ 1
复 1
空間 1
创@@ 1
大区 1
香 1
旗@@ 1
罗马 1
跨@@ 1
唐 1
政治@@ 1
个人 1
溫 1
一条 1
必须 1
學習 1
本身 1
医@@ 1
器@@ 1
想@@ 1
策 1
x 0.4663185593150524
平方米 1
距离 1
演员 1
属下 1
圓@@ 1
指定 1
hans 1
继@@ 1
何 1
英尺 1
战役 1
国家@@ 1
知名 1
一段 1
七 1
状 1
趙 1
水平 1
于是 1
宇 1
m 0.19064558070822543
錄@@ 1
东部 1
數據 1
48 1
侯 1
一颗 1
先后 1
银@@ 1
1979 0.7627998446997921
专辑 1
讀@@ 1
很@@ 1
以色列 1
彩@@ 1
提升 1
楚@@ 1
精神 1
容易 1
约翰 1
录 1
调查 1
V 0.683175833916808
产品 1
坡 1
1@@ 1
市场 1
鲁 1
执行 1
能够 1
转 1
涅@@ 1
徑 1
記者 1
儿子 1
跑 1
决@@ 1
亲@@ 1
侵@@ 1
差@@ 1
J 1
论@@ 1
價 1
塊 1
徵@@ 1
座@@ 1
羽@@ 1
體長 1
夫人 1
桂@@ 1
雨@@ 1
緣 1
九年 1
藝 1
地铁 1
空间 1
导 1
刺 1
部门 1
露@@ 1
条@@ 1
議@@ 1
倒@@ 1
20@@ 1
國立 1
基礎 1
报道 1
爱 1
城鎮 1
術 1
决赛 1
介@@ 1
400 1
樹 1
穿 1
运营 1
廣播 1
傑 1
型@@ 1
齊@@ 1
大使 1
我@@ 1
特定 1
學者 1
略@@ 1
理論 1
砲 1
读 1
点@@ 1
雲 1
自由@@ 1
遊@@ 1
入侵 1
电视 1
生命 1
督@@ 1
陰@@ 1
信仰 1
產品 1
碑 1
認 1
迅速 1
人口数量 1
邨 1
议员 1
岡@@ 1
场@@ 1
社会@@ 1
议@@ 1
应用 1
喀@@ 1
禁 1
跳@@ 1
画@@ 1
配合 1
1978 0.7683558745230737
轻@@ 1
實際 1
印 1
大西洋 1
相似 1
離開 1
導演 1
邮政编码 1
皇后 1
藥 1
盟 1
涅 1
雜誌 1
君@@ 1
克里@@ 1
琳 1
晚@@ 1
珍@@ 1
祥 1
報告 1
顶 1
还是 1
素@@ 1
慶 1
典@@ 1
刻@@ 1
運動會 1
试@@ 1
協@@ 1
目標 1
注意 1
选区 1
刀 1
Y@@ 0.33914379730014127
剂 1
仲@@ 1
扎 1
台湾 1
埃及 1
津 1
森林 1
攝 1
等等 1
部落 1
寬 1
圍@@ 1
限@@ 1
商業 1
种@@ 1
定义 1
世界@@ 1
采@@ 1
袁@@ 1
轨道 1
古代 1
倒 1
主義 1
注 1
同樣 1
迎@@ 1
Z@@ 0.22804304758132082
飞@@ 1
微 1
感到 1
按照 1
权@@ 1
應用 1
減@@ 1
祖父 1
价 1
连接 1
健@@ 1
旅客 1
旅 1
父母 1
蓋 1
人们 1
生长 1
黃@@ 1
規@@ 1
礼@@ 1
品牌 1
韩@@ 1
交易 1
紧@@ 1
热 1
儘 1
风格 1
編號 1
岩@@ 1
末@@ 1
团@@ 1
負@@ 1
準 1
鐵道 1
充 1
電視劇 1
交通@@ 1
孔 1
酸@@ 1
设置 1
举办 1
第五 1
耳@@ 1
导@@ 1
廢@@ 1
颱 1
哲@@ 1
符 1
帮助 1
病例 1
肯 1
人类 1
超級 1
漫@@ 1
树 1
才能 1
类型 1
表明 1
毒 1
虎@@ 1
肉 1
自治区 1
宽 1
很大 1
做@@ 1
途@@ 1
瑟 1
如何 1
破 1
1981 0.7058304701782027
英雄 1
敦@@ 1
翻@@ 1
電視台 1
巨大 1
晚上 1
tw 1
普遍 1
弹 1
經營 1
示@@ 1
旁 1
母親 1
妃 1
一样 1
兒子 1
° 0.5948080836221489
本站 1
亭 1
仍@@ 1
英國@@ 1
各种 1
埃 1
創 1
錢 1
急 1
輪@@ 1
記載 1
吕@@ 1
邦@@ 1
白色 1
独@@ 1
準@@ 1
朝鲜 1
amp 0.22267562729324372
授予 1
紀念 1
离开 1
径 1
意思 1
浮@@ 1
案件 1
首府 1
改變 1
訓練 1
大學@@ 1
设备 1
声@@ 1
36 1
举@@ 1
疾病 1
开放 1
拓@@ 1
北方 1
賓@@ 1
與@@ 1
斯坦 1
繁@@ 1
％ 1
工具 1
高速公路 1
事故 1
严重 1
简称 1
董事 1
電腦 1
飛 1
婚@@ 1
丽 1
树@@ 1
都市 1
晶@@ 1
改造 1
東京 1
飞机 1
菲 1
结 1
文化@@ 1
难 1
乱 1
章@@ 1
抵@@ 1
建議 1
处理 1
新闻 1
捐@@ 1
旺@@ 1
尖@@ 1
舒@@ 1
效果 1
階段 1
出席 1
逐渐 1
試@@ 1
疫情 1
糖 1
尉 1
因素 1
太阳 1
许@@ 1
准@@ 1
HD 1
異 1
衰@@ 1
全面 1
规划 1
函数 1
33 1
賣 1
小型 1
海外 1
廣 1
行為 1
评@@ 1
药 1
主角 1
文物 1
唱@@ 1
工人 1
hk 1
物種 1
國際@@ 1
久@@ 1
司令 1
齒 1
乃@@ 1
吃 1
京都 1
阿爾@@ 1
é 0.14874373267078989
财@@ 1
卓@@ 1
妻 1
缺乏 1
榮@@ 1
反應 1
乾@@ 1
崔@@ 1
建制 1
這樣 1
端@@ 1
率@@ 1
雪 1
論@@ 1
飛機 1
本土 1
记载 1
台灣@@ 1
未來 1
细胞 1
旧@@ 1
坎@@ 1
法案 1
識 1
办@@ 1
34 1
機會 1
企業 1
环 1
摩 1
不足 1
大區 1
描@@ 1
额 1
刑@@ 1
科學 1
弹@@ 1
很快 1
更加 1
紀@@ 1
爭 1
管理@@ 1
壓@@ 1
脱@@ 1
胜 1
插@@ 1
規定 1
识@@ 1
显示 1
马来西亚 1
積@@ 1
澳@@ 1
維持 1
召@@ 1
其後@@ 1
播@@ 1
整个 1
驻@@ 1
效@@ 1
被迫 1
逊 1
西亞 1
记@@ 1
3.@@ 1
梁 1
提到 1
折@@ 1
依 1
咸@@ 1
家人 1
第五@@ 1
戈 1
冲@@ 1
完整 1
默 1
收錄 1
乔@@ 1
絕@@ 1
伴 1
它們 1
为主 1
聽 1
講@@ 1
難@@ 1
分鐘 1
換@@ 1
玉 1
枪 1
指挥 1
坐@@ 1
需求 1
高速 1
爆发 1
御@@ 1
顯@@ 1
／ 1
願 1
遗址 1
领域 1
尊@@ 1
涉及 1
能量 1
38 1
惡@@ 1
1946 0.8293136397880331
植@@ 1
Windows 1
稱為 1
襲 1
鄰 1
而成 1
鹿@@ 1
证@@ 1
败 1
炸@@ 1
玄@@ 1
戰役 1
人工 1
音乐@@ 1
靈 1
梯 1
戲@@ 1
杰 1
灰@@ 1
延伸 1
遜 1
陣 1
自治 1
y 0.017597094494028423
币 1
免@@ 1
住宅 1
录@@ 1
研究@@ 1
分類 1
樓@@ 1
宇宙 1
改善 1
de 0.003664224100839704
慢 1
候 1
大戰 1
寧 1
西藏 1
昭@@ 1
干 1
一切 1
测 1
齐 1
条件 1
工業 1
賞 1
统治 1
逢 1
1958 0.8532784051141605
臨@@ 1
然后 1
厚 1
邊@@ 1
江西 1
四十@@ 1
诗@@ 1
尔德 1
風格 1
1948 0.8224652905724024
帕 1
傷@@ 1
妮 1
主義@@ 1
仔 1
宝 1
國會 1
计@@ 1
箱 1
葡萄牙 1
太子 1
倫敦 1
战斗 1
少女 1
滿 1
鼠 1
含 1
准 1
措施 1
屏@@ 1
問@@ 1
退出 1
学者 1
週 1
迹 1
柏林 1
左 1
操作 1
爭議 1
阵@@ 1
腹@@ 1
晉@@ 1
頂@@ 1
美洲 1
on 0.017839073468367956
整個 1
天文 1
治療 1
劇情 1
类@@ 1
訴 1
阮@@ 1
網路 1
題 1
修改 1
滑@@ 1
职业 1
捕@@ 1
留下 1
广东 1
測 1
博物 1
惠 1
敬@@ 1
降低 1
t 0.12315620886660632
大約 1
频道 1
而言 1
军区 1
揭@@ 1
原名 1
燕@@ 1
撤销 1
带@@ 1
鳳@@ 1
爆@@ 1
吸引 1
用户 1
照片 1
明治 1
組合 1
席@@ 1
连 1
一帶 1
大小 1
围@@ 1
d 0.10122471033958964
啟@@ 1
燃@@ 1
正常 1
一支 1
加盟 1
採@@ 1
敏@@ 1
国务院 1
1920 0.7866753730199358
過去 1
國民 1
大约 1
坦克 1
W 1
保存 1
約翰 1
架@@ 1
舍@@ 1
时区 1
嚴@@ 1
协议 1
一條 1
盖 1
堂@@ 1
人次 1
横@@ 1
一天 1
凡 1
笑 1
行星 1
變化 1
七年 1
投资 1
伊斯 1
湖南 1
裡@@ 1
連續 1
表现 1
1940 0.7069322300884893
拿@@ 1
興建 1
鳥 1
敏 1
批評 1
西北部 1
譯 1
援 1
c 0.2562213708933496
尔斯 1
不可 1
严@@ 1
爵 1
鬼 1
真正 1
维尔 1
第一个 1
蛇 1
舞台 1
患者 1
夏令时 1
云南 1
即使 1
随 1
少年 1
1976 0.6416813750326824
朝鮮 1
魚綱 1
亦@@ 1
國民黨 1
祭@@ 1
莎 1
冬@@ 1
目标 1
审@@ 1
INSEE 1
据@@ 1
b 0.31211874662032285
蟲 1
换 1
设施 1
展示 1
比例 1
相信 1
叛@@ 1
汽车 1
亞州 1
柴@@ 1
上午 1
嘉 1
承 1
車輛 1
温 1
出演 1
之子 1
1975 0.6065131224388121
那些 1
泽@@ 1
板@@ 1
綠@@ 1
制造 1
刺@@ 1
基因 1
墨西哥 1
态 1
西南部 1
爭@@ 1
含@@ 1
宫@@ 1
譯@@ 1
輻鰭 1
形象 1
慈@@ 1
土耳其 1
企@@ 1
墓@@ 1
赞@@ 1
掌@@ 1
食物 1
技@@ 1
山东 1
事務 1
礼 1
确诊 1
競@@ 1
儀 1
填@@ 1
研@@ 1
阿拉伯 1
首先 1
潛@@ 1
37 1
显@@ 1
後來 1
冬季 1
稿 1
合成 1
任務 1
奪 1
1972 0.6073304358515969
狀況 1
丘 1
河畔 1
庆@@ 1
蘇 1
汇@@ 1
戰鬥 1
* 0.30365753774664145
乘 1
压@@ 1
連接 1
匈牙利 1
安德@@ 1
感染 1
鼓@@ 1
官员 1
貨@@ 1
八年 1
臨 1
恐@@ 1
荣@@ 1
銷 1
1930 0.7625488851892943
两 1
幾乎 1
修建 1
瑟@@ 1
陵@@ 1
質@@ 1
遷@@ 1
設置 1
澳大利亚 1
一步 1
多个 1
灌@@ 1
球季 1
負 1
契@@ 1
習 1
智 1
1956 0.7815550489596301
茶 1
報導 1
裁 1
简@@ 1
顶@@ 1
私人 1
終 1
床 1
今日 1
陳@@ 1
狀態 1
堅@@ 1
写@@ 1
恢 1
残@@ 1
o 0.08902328519359534
中国人民解放军 1
内部 1
阶段 1
p 0.32934501441174246
乳@@ 1
投降 1
國王 1
減少 1
一所 1
染@@ 1
兼任 1
标 1
中山 1
疑@@ 1
编 1
小說 1
似 1
得知 1
隨後@@ 1
墨@@ 1
丰@@ 1
固 1
固定 1
配音 1
每个 1
票房 1
靠 1
訪 1
比如 1
焦@@ 1
適@@ 1
二人 1
資訊 1
迷@@ 1
阴@@ 1
难@@ 1
積 1
1937 0.8867310856310348
伊朗 1
宿 1
貌 1
相比 1
牌@@ 1
球會 1
级@@ 1
亨利 1
怀@@ 1
母亲 1
大多数 1
經歷 1
教區 1
记录 1
词@@ 1
冊 1
大陸 1
藥@@ 1
毁 1
詞@@ 1
次年 1
成本 1
钢@@ 1
锡@@ 1
用作 1
金牌 1
红 1
us 0.15859037792595665
55 1
註 1
橋@@ 1
大致 1
JR 1
童 1
历@@ 1
原始 1
重点 1
扮演 1
东南 1
符合 1
秘密 1
中國大陸 1
例子 1
鏡 1
芳 1
1947 0.8048441680165007
解放 1
乾隆 1
路口 1
上述 1
to 0.006943464532140965
满 1
题 1
民国 1
懷@@ 1
1000 1
息 1
列入 1
了解 1
庆 1
用途 1
北京市 1
釋 1
延 1
殺@@ 1
豪 1
自然@@ 1
1941 0.6359947858174707
黑色 1
测@@ 1
年初 1
网站 1
通道 1
搭@@ 1
番 1
800 1
齊 1
方言 1
户@@ 1
液@@ 1
需@@ 1
拒絕 1
細胞 1
舰队 1
南北 1
歐 1
虛@@ 1
抽@@ 1
伯特 1
琴@@ 1
澳 1
一份 1
教育@@ 1
突然 1
莫斯科 1
熱 1
深度 1
湯@@ 1
幫助 1
伤 1
廣場 1
下降 1
64 1
42 1
駐@@ 1
狄@@ 1
避@@ 1
舍 1
虫 1
售 1
重大 1
茲@@ 1
益@@ 1
国会 1
捷 1
殘@@ 1
伏@@ 1
苏 1
仔@@ 1
幣 1
波兰 1
伍@@ 1
棋 1
凤@@ 1
46 1
总理 1
英格蘭 1
竞@@ 1
济@@ 1
分為 1
爆發 1
甚@@ 1
斗 1
茶@@ 1
1952 0.8118049698529709
600 1
杂志 1
控@@ 1
曾经 1
逐@@ 1
戴 1
有所 1
法官 1
支流 1
技 1
廷@@ 1
衝@@ 1
进攻 1
蘇聯 1
搜@@ 1
Y 1
奥林匹克运动会 1
構 1
山西 1
1968 0.5909701777173934
喜 1
判 1
熊@@ 1
頻道 1
大會 1
日期 1
里斯 1
新疆 1
制定 1
1973 0.6028463548069836
淡水 1
经济@@ 1
退休 1
罪@@ 1
替 1
停 1
卒 1
范 1
裂 1
攝@@ 1
自行 1
摄@@ 1
75 1
特征 1
刑 1
辖 1
确定 1
壘 1
俄 1
烈@@ 1
5.@@ 1
脂 1
蛋白 1
操@@ 1
压 1
歧@@ 1
衣@@ 1
建設 1
幅 1
办事处 1
分钟 1
尼斯 1
炎 1
呂@@ 1
望@@ 1
火箭 1
占领 1
條件 1
勇@@ 1
源自 1
汽車 1
準備 1
大会 1
竹 1
娛樂 1
教會 1
敵 1
代码 1
化石 1
化合物 1
董@@ 1
族@@ 1
三世 1
丙@@ 1
矿@@ 1
几乎 1
读@@ 1
輝 1
網站 1
孤@@ 1
桑 1
这里 1
赢得 1
證@@ 1
響 1
鋼@@ 1
奴@@ 1
旁@@ 1
还@@ 1
奪@@ 1
轮@@ 1
文学 1
状态 1
统一 1
介 1
雜@@ 1
成員@@ 1
藩 1
不斷 1
數量 1
药@@ 1
印尼 1
电子 1
混合 1
膜 1
觉 1
g 0.25342945894122065
幕@@ 1
分配 1
覺 1
孙 1
付@@ 1
1977 0.6095824763700508
公元 1
貿易 1
每個 1
概@@ 1
h 0.253034629831017
聯邦 1
還是 1
投 1
is 0.013689462163617399
纪念 1
圆@@ 1
准备 1
苑 1
外交 1
城堡 1
最近 1
喬@@ 1
历 1
引 1
課程 1
莎@@ 1
宜 1
養@@ 1
醫療 1
解散 1
授@@ 1
作战 1
另@@ 1
引入 1
腳 1
业务 1
途 1
盘 1
攻击 1
程式 1
海洋 1
轄@@ 1
属@@ 1
建于 1
答@@ 1
驅@@ 1
宏@@ 1
维奇 1
英语 1
獸 1
39 1
基于 1
的關 1
擴@@ 1
岭 1
變成 1
遇@@ 1
机关 1
6.@@ 1
家中 1
辰 1
挑@@ 1
讷 1
单 1
此次 1
隱@@ 1
確 1
1955 0.7881054968600283
广泛 1
侧 1
佐 1
以后 1
30@@ 1
1964 0.6336730840130345
實施 1
拆@@ 1
立即 1
粉 1
測@@ 1
輯 1
起来 1
1974 0.5622521605541582
上海市 1
塑@@ 1
资源 1
持续 1
1966 0.6491833101225575
盖@@ 1
划@@ 1
退役 1
依然 1
利亞 1
人們 1
1938 0.7283723050920433
嶺 1
見@@ 1
构@@ 1
一致 1
發出 1
女兒 1
去@@ 1
據@@ 1
已有 1
育@@ 1
夢 1
年前 1
导演 1
商业 1
做出 1
65 0.7933980494212558
平原 1
不到 1
允许 1
4.@@ 1
購@@ 1
民主@@ 1
須 1
奥斯@@ 1
怒 1
极 1
結婚 1
举 1
粗@@ 1
半島 1
逮捕 1
统计 1
殖民地 1
軟@@ 1
飾演 1
丘@@ 1
归 1
日本@@ 1
發售 1
按@@ 1
e@@ 0.13323160385631547
伴@@ 1
肉@@ 1
脈 1
经常 1
金融 1
加州 1
数量 1
全国@@ 1
习@@ 1
同样 1
劃 1
浩@@ 1
步兵 1
觀眾 1
努力 1
此時 1
秋 1
食品 1
说@@ 1
拍摄 1
讲@@ 1
伤@@ 1
側@@ 1
相对 1
劑 1
服務@@ 1
反對 1
备@@ 1
Q@@ 0.592065825671744
換 1
弗 1
农业 1
一場 1
风暴 1
遊 1
廣告 1
業務 1
簽@@ 1
绝@@ 1
今天 1
選手 1
邀 1
劃@@ 1
深圳 1
然@@ 1
評價 1
詩 1
玩@@ 1
1939 0.6156427392872983
民眾 1
尊 1
迁 1
紐約 1
邓@@ 1
1954 0.7567594128052172
听@@ 1
銅@@ 1
舰@@ 1
1944 0.5340986740903388
44 1
偶@@ 1
亚洲 1
浪@@ 1
郵@@ 1
不会 1
平面 1
管辖 1
心理 1
见@@ 1
範@@ 1
公爵 1
坪 1
酶 1
崎@@ 1
群岛 1
派遣 1
比较 1
施 1
鱼@@ 1
软件 1
將會 1
淮@@ 1
1971 0.5518707059441403
寫@@ 1
天皇 1
建议 1
陆军 1
钱@@ 1
下令 1
枝 1
工程@@ 1
貴@@ 1
拒绝 1
城镇 1
袭 1
厄@@ 1
朝廷 1
拔 1
犯罪 1
資格 1
质@@ 1
較@@ 1
創立 1
房屋 1
危@@ 1
找 1
常見 1
调整 1
球場 1
輔@@ 1
多個 1
策@@ 1
本人 1
钱 1
洗@@ 1
現場 1
责 1
护 1
办公室 1
击败 1
鋒 1
列出 1
裁@@ 1
內部 1
贏得 1
自身 1
山脈 1
水库 1
王國 1
往往 1
第六@@ 1
签@@ 1
文學 1
揚 1
巡 1
从而 1
挪威 1
撒@@ 1
德语 1
迫 1
訊 1
輛 1
e 0.10463283660538172
众 1
芬@@ 1
雙 1
領域 1
購 1
1965 0.6089900171463678
走向 1
刺史 1
蓋@@ 1
泽 1
簡介 1
莊@@ 1
汗 1
号@@ 1
幸@@ 1
证明 1
習性 1
更新 1
記錄 1
軌道 1
41 1
自動 1
沒@@ 1
身體 1
瓜@@ 1
剛@@ 1
設備 1
茂@@ 1
150 1
评价 1
宪法 1
近年 1
經常 1
專業 1
r 0.3627636341247885
上海@@ 1
庭@@ 1
召开 1
冠軍@@ 1
决 1
奈 1
劍 1
也@@ 1
社區 1
歸 1
蕭@@ 1
魂 1
瓜 1
1969 0.5720429565397435
管理局 1
扶@@ 1
某 1
間@@ 1
岛@@ 1
北美 1
名為 1
柔@@ 1
原子 1
級@@ 1
事業 1
胜@@ 1
请 1
国内 1
訓 1
跡 1
責 1
解釋 1
1959 0.6898204263207964
俊@@ 1
团体 1
由此 1
仙 1
昂@@ 1
生成 1
阻止 1
诗 1
助理 1
桥@@ 1
经历 1
九龍 1
日军 1
代理 1
付 1
壽@@ 1
類似 1
太陽 1
荒@@ 1
敬 1
侍@@ 1
丈夫 1
廣泛 1
問 1
宾@@ 1
標為 1
43 1
胞@@ 1
─ 1
營運 1
太空 1
恶@@ 1
登上 1
健 1
出版社 1
起源 1
同盟 1
绿@@ 1
汪@@ 1
規劃 1
光緒 1
1942 0.5960997898067056
名为 1
電台 1
壇 1
到达 1
庭 1
利益 1
籌@@ 1
鮮@@ 1
練@@ 1
小學 1
毀 1
許多@@ 1
检@@ 1
鄧@@ 1
译@@ 1
省委 1
國民@@ 1
服役 1
升格 1
1957 0.6969506159612527
议 1
串 1
犯@@ 1
委书记 1
浙江省 1
律@@ 1
阿拉@@ 1
1953 0.7396962225846776
兒童 1
偉@@ 1
現代 1
47 1
破壞 1
剛 1
改制 1
题@@ 1
錫@@ 1
1936 0.7112078897401166
參賽 1
卜@@ 1
第六 1
热带 1
斯克 1
蒸@@ 1
痛 1
理事 1
糖@@ 1
图书馆 1
高級 1
跨 1
佳 1
军事@@ 1
批@@ 1
养@@ 1
勇 1
中期 1
扬 1
敌 1
價值 1
1967 0.5626298098034545
翁 1
进一步 1
大利 1
双 1
昭和 1
於@@ 1
歇@@ 1
生物@@ 1
伐 1
寄@@ 1
弟弟 1
截@@ 1
改变 1
秘@@ 1
託 1
像@@ 1
餘 1
批评 1
艦@@ 1
邮@@ 1
派出 1
給予 1
化学 1
監 1
縮 1
德里 1
背 1
52 1
討論 1
湘@@ 1
君主 1
杀@@ 1
25@@ 1
样@@ 1
唐朝 1
賽季 1
未知 1
室@@ 1
賓 1
站台 1
认@@ 1
上市 1
魔 1
餐@@ 1
彼得 1
譜 1
拆除 1
頁 1
主力 1
賴@@ 1
事情 1
贸易 1
唯@@ 1
繪@@ 1
星系 1
以南 1
絲@@ 1
伦敦 1
整 1
坚@@ 1
湖北 1
孫 1
怪 1
泉@@ 1
編 1
醇 1
羽 1
市政府 1
王子 1
敦 1
棒球 1
实施 1
破坏 1
江苏 1
积 1
王国 1
改編 1
討@@ 1
中共中央 1
打算 1
1962 0.6085491673386563
山峰 1
伊利 1
1943 0.5704775313549563
濟 1
码 1
k 0.1799445518909418
奏@@ 1
薛@@ 1
透@@ 1
灵 1
拉丁@@ 1
偵@@ 1
申請 1
计算 1
奉 1
吨 1
51 1
欧 1
校长 1
万人 1
藤 1
患 1
灭 1
來源 1
桃@@ 1
姚@@ 1
辆 1
希臘 1
指揮 1
順 1
聞 1
争议 1
1961 0.6284519724896843
1951 0.7505222786309117
原住民 1
狗 1
汝@@ 1
从事 1
统 1
以北 1
爾斯 1
餐 1
岳@@ 1
规模 1
則是 1
綱 1
體系 1
1963 0.6002684659968488
煤@@ 1
车辆 1
迷 1
作戰 1
靠近 1
卫星 1
謀 1
寮 1
确@@ 1
有限 1
魯 1
外部 1
减少 1
吐@@ 1
广东省 1
人數 1
成都 1
遇 1
火山 1
公开 1
公元前 1
鄉試 1
希腊 1
沿海 1
原有 1
疏@@ 1
遇到 1
1935 0.7657485898957594
談 1
彩 1
胜利 1
貴 1
特性 1
錦標賽 1
此时 1
設計@@ 1
暂@@ 1
遭@@ 1
联系 1
勤 1
冷 1
羅馬 1
式@@ 1
艦隊 1
開放 1
山东省 1
减@@ 1
讚 1
層@@ 1
議院 1
資源 1
积@@ 1
正面 1
运输 1
含有 1
伏 1
实际 1
詹姆斯 1
试图 1
斗@@ 1
仅@@ 1
試 1
历任 1
飲@@ 1
替@@ 1
园@@ 1
婚姻 1
現代@@ 1
各自 1
栽培 1
計算 1
概要 1
胎 1
靜@@ 1
突破 1
兹@@ 1
创建 1
券 1
市长 1
厘米 1
協議 1
術@@ 1
组建 1
杂@@ 1
池@@ 1
統治 1
驱@@ 1
分裂 1
匯@@ 1
收到 1
丝 1
市区 1
產業 1
司令部 1
负@@ 1
’ 0.03790567245466209
五月 1
穆斯林 1
拍@@ 1
夢@@ 1
长期 1
四川省 1
飞 1
地名 1
56 1
南非 1
任教 1
飓风 1
學位 1
本線 1
首播 1
釋@@ 1
首席 1
隋@@ 1
骑@@ 1
參考 1
硫@@ 1
雙方 1
羊@@ 1
暴力 1
淡@@ 1
爆炸 1
段@@ 1
轴 1
乃 1
月球 1
空军 1
成绩 1
得名 1
買 1
比亚 1
主持人 1
养 1
汽@@ 1
设@@ 1
大廈 1
嘉靖 1
波斯 1
置@@ 1
全長 1
样 1
均@@ 1
進攻 1
頓@@ 1
断@@ 1
領導 1
一款 1
虚@@ 1
主張 1
憑 1
測試 1
筹@@ 1
接替 1
・ 1
軌 1
憲@@ 1
借 1
婦 1
指挥@@ 1
解決 1
耳 1
奥地利 1
裏 1
持有 1
值@@ 1
TV 0.3947790753404491
电子@@ 1
戶@@ 1
毫@@ 1
部門 1
模 1
卡尔 1
不断 1
滑 1
髮 1
革命@@ 1
an 0.01577179148284728
意外 1
历史@@ 1
雷斯 1
II 0.18257904648594592
欲 1
撞 1
计 1
萧@@ 1
屬於@@ 1
两人 1
洞@@ 1
棋@@ 1
俱樂部 1
恰@@ 1
废@@ 1
规@@ 1
啟用 1
風暴 1
獻@@ 1
隐@@ 1
蓮@@ 1
小组 1
反映 1
康熙 1
教育部 1
浪 1
境@@ 1
累@@ 1
沿 1
十三 1
肖@@ 1
农村 1
傅@@ 1
兄@@ 1
牙 1
斯基 1
× 1
市中心 1
怕 1
又称 1
阿根廷 1
质量 1
首相 1
商人 1
銜 1
电影@@ 1
厚@@ 1
游 1
賀@@ 1
解决 1
萊 1
半岛 1
困@@ 1
NBA 1
济 1
电视台 1
理解 1
空中 1
驗 1
同名 1
解释 1
說@@ 1
獄 1
投資 1
然後@@ 1
女儿 1
衝突 1
良好 1
番@@ 1
裕 1
十六 1
螺@@ 1
圖書館 1
控制@@ 1
河北 1
御史 1
戀@@ 1
双方 1
艺@@ 1
弘@@ 1
發動 1
承认 1
辽@@ 1
申 1
图示 1
凡@@ 1
曰 1
锦@@ 1
吧 1
恆星 1
運作 1
移動 1
沖 1
豆 1
杭州 1
戲 1
资格 1
所在 1
700 1
夺@@ 1
廣東 1
性能 1
榜@@ 1
圓 1
喜歡 1
构成 1
文明 1
民間 1
缺 1
讯 1
锦标赛 1
出售 1
没 1
实验 1
耀@@ 1
共产党 1
評論 1
气候 1
戏@@ 1
~ 1
指示 1
河道 1
探 1
霸@@ 1
保障 1
團隊 1
问 1
滅 1
互相 1
視為 1
僧@@ 1
01 1
碳 1
迈@@ 1
输入 1
只要 1
荷蘭 1
高等 1
序@@ 1
职务 1
本作 1
训练 1
l 0.06876666174380217
实行 1
奥运会 1
学会 1
适@@ 1
熙 1
日治 1
特徵 1
指控 1
叔@@ 1
偶像 1
繼 1
将@@ 1
溶@@ 1
常委 1
氣象 1
袭击 1
几个 1
抗 1
針 1
卡拉 1
牆 1
载@@ 1
斑@@ 1
階@@ 1
分类 1
勢力 1
在位 1
荷 1
消失 1
永 1
完工 1
方便 1
甫 1
物质 1
社会主义 1
荣 1
利斯 1
明星 1
未有 1
泛@@ 1
映 1
為止 1
蓝@@ 1
獨 1
每天 1
兩種 1
俗@@ 1
醒 1
莊 1
总部 1
接收 1
民族@@ 1
詹@@ 1
追 1
逐 1
胸@@ 1
工业@@ 1
静@@ 1
執導 1
套@@ 1
行政@@ 1
此站 1
拼@@ 1
重庆 1
分支 1
娘 1
应该 1
娃 1
英里 1
肥@@ 1
規模 1
54 1
警告 1
南極洲 1
旅游 1
押 1
漁@@ 1
農 1
幽@@ 1
弦 1
考慮 1
税 1
结合 1
檔 1
聽@@ 1
法庭 1
最多 1
启@@ 1
条约 1
狀@@ 1
郊 1
留在 1
浦 1
49 1
珍 1
球员 1
泥@@ 1
输@@ 1
泥 1
強烈 1
7.@@ 1
創辦 1
燈 1
召 1
楼@@ 1
防止 1
紋 1
贵@@ 1
尽@@ 1
62 1
穩定 1
價@@ 1
儒@@ 1
潜@@ 1
续@@ 1
宽@@ 1
科学@@ 1
碟 1
访问 1
1933 0.624969364168577
掘 1
園@@ 1
臨時 1
評 1
治疗 1
120 1
专家 1
確定 1
上升 1
拿下 1
氯@@ 1
苦@@ 1
堪@@ 1
汇 1
1928 0.7117357307872042
小学 1
天文台 1
每日 1
刚 1
地點 1
53 1
怪@@ 1
衡 1
政权 1
主题 1
筆@@ 1
港口 1
以此 1
众@@ 1
司法 1
典型 1
官員 1
現象 1
催@@ 1
外交部 1
巴赫 1
熊 1
河南省 1
艺 1
1% 1
用来 1
戒 1
桃園 1
教会 1
石油 1
發布 1
身上 1
西亚 1
地利 1
毛泽东 1
9.@@ 1
所屬 1
顧 1
獵@@ 1
腳@@ 1
形目 1
常用 1
弗朗@@ 1
寶 1
機關 1
不得 1
另一方面 1
氧化 1
奧林匹克 1
教練 1
質量 1
事务 1
接任 1
产业 1
辛 1
飛行 1
中华民国 1
镜 1
布拉@@ 1
魏 1
當選 1
中式 1
教徒 1
CD 0.7829962303754228
身分 1
58 1
宿@@ 1
任期 1
案@@ 1
增长 1
行政院 1
cn 1
盡 1
悲@@ 1
并于 1
驚@@ 1
特有 1
武汉 1
队@@ 1
周年 1
實驗 1
被捕 1
艾 1
份@@ 1
蛋 1
诉 1
出来 1
使用者 1
一场 1
尼亞@@ 1
译 1
規 1
坛 1
第七 1
科夫 1
13@@ 1
支付 1
構造 1
農業 1
錦@@ 1
玛 1
羊 1
體育 1
1931 0.7617698110416293
這次 1
四个 1
賢 1
冲突 1
手段 1
二十 1
凌晨 1
沿革 1
忽@@ 1
旦 1
西安 1
緊@@ 1
贾@@ 1
1932 0.7277577297700696
同日 1
並非 1
选手 1
電影@@ 1
權力 1
地形 1
第一位 1
该省 1
銷售 1
那里 1
少數 1
伍 1
運輸 1
codice 1
12@@ 1
路段 1
1927 0.7667483068977874
考虑 1
設定 1
萬人 1
移动 1
收集 1
愿 1
大賽 1
愿@@ 1
广西 1
證明 1
记者 1
许 1
郡@@ 1
麥 1
寿@@ 1
生存 1
鼻@@ 1
欧元 1
潭 1
所在地 1
純@@ 1
物質 1
逆@@ 1
習@@ 1
性质 1
補 1
騎@@ 1
繞 1
领导人 1
恒星 1
成就 1
搬@@ 1
绍@@ 1
應該 1
海上 1
不要 1
承認 1
蛛 1
惡 1
藝人 1
合約 1
返@@ 1
政黨 1
賴 1
儲@@ 1
研 1
冰 1
壁@@ 1
澤 1
规 1
坐标 1
英国@@ 1
通知 1
放棄 1
首位 1
er 0.022347172312736984
明顯 1
選人 1
麻 1
宋 1
失敗 1
一項 1
未来 1
旅行 1
掌 1
15@@ 1
升任 1
蔣@@ 1
邁@@ 1
集合 1
开通 1
擔@@ 1
周邊 1
Z 0.9020441802171953
偷@@ 1
顺 1
玻@@ 1
72 1
新闻@@ 1
汀 1
广播 1
訂 1
麟 1
鬥@@ 1
名单 1
研究院 1
游泳 1
换@@ 1
並將 1
振 1
第@@ 1
提及 1
督 1
金属 1
棒 1
意义 1
柱@@ 1
商品 1
早上 1
獎項 1
亿元 1
硬 1
墙 1
能源 1
貢@@ 1
當年 1
后者 1
有时 1
两种 1
料@@ 1
晉 1
絕 1
必要 1
四個 1
歡迎 1
淘汰 1
殼 1
连续 1
謝 1
席位 1
一级 1
畢@@ 1
14@@ 1
既 1
大幅 1
部長 1
落成 1
续 1
腐@@ 1
演奏 1
紅色 1
稳定 1
57 1
敵@@ 1
軟體 1
完 1
登場 1
下属 1
纽约 1
德拉 1
院长 1
晶 1
盐@@ 1
盐 1
繪 1
层@@ 1
数学 1
斯蒂@@ 1
赖@@ 1
1934 0.6598730881822411
定居 1
儿童 1
增 1
害@@ 1
折 1
食用 1
数字 1
奴 1
键 1
40@@ 1
商店 1
江苏省 1
苦 1
档 1
貝 1
即位 1
顧@@ 1
出道 1
安徽 1
东临 1
窗@@ 1
荷兰 1
古老 1
大夫 1
贝 1
大桥 1
俊 1
宣傳 1
狂@@ 1
縮@@ 1
十一 1
工厂 1
介紹 1
廊 1
50@@ 1
脫@@ 1
困 1
公斤 1
芒 1
抗日 1
东西 1
蝶 1
大学@@ 1
视频 1
中国人民@@ 1
另有 1
湖泊 1
祝@@ 1
祠 1
說法 1
劇集 1
享年 1
礦@@ 1
储@@ 1
贝尔 1
金山 1
筆 1
液 1
纪 1
体育 1
航空@@ 1
16@@ 1
乐队 1
濱 1
粒子 1
亡@@ 1
发动 1
賈@@ 1
改建 1
最低 1
革@@ 1
儀@@ 1
85 1
金屬 1
货@@ 1
旋 1
裝置 1
23@@ 1
来说 1
罕@@ 1
西斯 1
观点 1
丰 1
祥@@ 1
十八 1
引发 1
令人 1
舞蹈 1
第七@@ 1
原先 1
慢@@ 1
火星 1
本片 1
幹@@ 1
冯@@ 1
廣州 1
謀@@ 1
儀式 1
评论 1
爵士 1
直播 1
起义 1
亨@@ 1
邑 1
豆@@ 1
欣@@ 1
撰 1
譽 1
铜@@ 1
當局 1
局长 1
大家 1
24@@ 1
发射 1
理想 1
与@@ 1
吸收 1
媒@@ 1
宣传 1
综合 1
拳@@ 1
疑 1
这次 1
规则 1
廖@@ 1
一人 1
创办 1
教宗 1
枪@@ 1
谢 1
峰@@ 1
理由 1
下列 1
陕西 1
翔 1
堆 1
沟 1
蹟 1
丸 1
s@@ 0.06591181702686547
临时 1
什么 1
高雄市 1
寺@@ 1
推動 1
類型 1
乔治 1
鐘 1
捕 1
饰 1
億@@ 1
打破 1
選為 1
亿@@ 1
仪 1
兄 1
锡 1
經濟@@ 1
鰭 1
1929 0.6447198535185671
员@@ 1
阳市 1
沉 1
‘ 0.6625935283666522
针对 1
東北 1
雀 1
出入口 1
壓力 1
抵抗 1
炸 1
烟@@ 1
奧斯@@ 1
十四 1
现象 1
锋 1
不滿 1
鍾 1
學名 1
國內 1
贈 1
袋 1
电视剧 1
蒙古@@ 1
兒@@ 1
灭@@ 1
店@@ 1
滨@@ 1
f 0.30486568463212105
朝鲜@@ 1
配置 1
奎@@ 1
59 1
學會 1
宅 1
北海道 1
千米 1
76 1
雌@@ 1
束 1
缓@@ 1
衡@@ 1
姜@@ 1
斯坦@@ 1
發射 1
明显 1
ー 1
汉族 1
旨 1
號線 1
統計 1
祿 1
基督 1
飞行 1
將其 1
失败 1
發起 1
一百@@ 1
麵 1
慧@@ 1
已知 1
符@@ 1
一项 1
蹤 1
零 1
英格兰 1
屯@@ 1
通用 1
人数 1
援助 1
網絡 1
覺@@ 1
玻璃 1
似乎 1
祭 1
兩年 1
螺 1
海軍@@ 1
2% 1
損@@ 1
時任 1
聘 1
上下 1
权力 1
表達 1
61 1
杜 1
市區 1
多數 1
26@@ 1
公安@@ 1
撤退 1
形容 1
續@@ 1
u 0.14606830021123035
方程 1
斑 1
子女 1
常见 1
赞 1
南市 1
1918 0.526287013340682
青岛 1
噴@@ 1
鲍@@ 1
並以 1
布朗 1
陷入 1
经营 1
斯堡 1
处于 1
广 1
领 1
比利 1
戒@@ 1
1912 0.7104541677289986
建築@@ 1
徽 1
惟@@ 1
儿@@ 1
波蘭 1
冰川 1
剑 1
乌克兰 1
63 1
安全@@ 1
彌@@ 1
宾 1
引种 1
识 1
贵 1
出來 1
汤@@ 1
观众 1
在内 1
寬@@ 1
列为 1
洪 1
滩 1
委員@@ 1
讨论 1
尼克 1
天下 1
疫苗 1
構@@ 1
乎 1
屈@@ 1
規則 1
办理 1
for 0.01139124415459658
劍@@ 1
泰國 1
並沒有 1
最好 1
逃 1
大街 1
憲法 1
当年 1
避 1
拖@@ 1
公共@@ 1
精 1
擾 1
耐@@ 1
展開 1
練 1
福建省 1
围绕 1
大楼 1
聯合國 1
猶@@ 1
積為 1
維亞 1
暨 1
非法 1
加利福尼 1
結合 1
关注 1
岸@@ 1
邵@@ 1
十字 1
地圖 1
聚落 1
上帝 1
95 1
成長 1
の 1
威脅 1
88 1
中有 1
安娜 1
魔法 1
医生 1
翌年 1
过去 1
较@@ 1
矿 1
扬@@ 1
算法 1
寒@@ 1
影像 1
一個@@ 1
女王 1
剪@@ 1
坑@@ 1
教师 1
平衡 1
自治@@ 1
尋@@ 1
来到 1
资料 1
遭受 1
收購 1
呈@@ 1
展开 1
濃@@ 1
課 1
围 1
紀念@@ 1
首歌 1
通信 1
66 1
透露 1
抵达 1
猛@@ 1
際 1
敗@@ 1
腔 1
勃@@ 1
实际上 1
测试 1
此地 1
聚 1
此事 1
萬元 1
第八 1
遵@@ 1
巫@@ 1
氧化@@ 1
内陆 1
太后 1
國東 1
經驗 1
一首 1
起初 1
率领 1
... 0.2637519630814221
作曲 1
商場 1
构 1
鬼@@ 1
碧@@ 1
并入 1
停靠 1
陸續 1
一半 1
布鲁@@ 1
塞尔 1
崎 1
患@@ 1
朴@@ 1
鹿 1
国民@@ 1
重量 1
想要 1
三人 1
句@@ 1
驾@@ 1
南京@@ 1
披@@ 1
y@@ 0.12309450201595737
估計 1
险 1
10.@@ 1
災 1
异 1
辭 1
討 1
戀 1
勤@@ 1
hant 1
体育@@ 1
刚@@ 1
比亞 1
补 1
脫 1
以便 1
洛克 1
河北省 1
角度 1
定期 1
i@@ 0.14344496420320949
總理 1
带来 1
法兰@@ 1
壮@@ 1
晋 1
80@@ 1
新聞@@ 1
蟹 1
女孩 1
誤 1
談@@ 1
里克 1
→ 1
引發 1
內閣 1
阵 1
演化 1
工作室 1
客运 1
豐 1
监 1
标志 1
珊@@ 1
薄@@ 1
郊@@ 1
融合 1
通往 1
粒 1
晨 1
慕@@ 1
翼@@ 1
价值 1
al 0.03266636797460042
擅@@ 1
學系 1
月底 1
相反 1
斷@@ 1
菌@@ 1
Q 1
以西 1
很少 1
一代 1
瑪 1
恒@@ 1
更是 1
同性 1
朱 1
忍@@ 1
斜@@ 1
聚集 1
特里 1
计算机 1
一枚 1
联合会 1
兆@@ 1
違@@ 1
策略 1
功率 1
銀 1
了@@ 1
创 1
外交@@ 1
常常 1
伊州 1
十五 1
侍郎 1
灾 1
遭遇 1
额@@ 1
萨克@@ 1
黄 1
卑@@ 1
呼 1
嘉義@@ 1
院士 1
多名 1
姬 1
27@@ 1
编辑 1
绝对 1
旺 1
信號 1
衍生 1
四月 1
奥运 1
新建 1
搖@@ 1
高等@@ 1
況 1
燕 1
开展 1
胺 1
1919 0.5480496167597319
中共@@ 1
獅@@ 1
信号 1
斯塔 1
鸟 1
氨@@ 1
港元 1
總部 1
呎 1
贡献 1
既@@ 1
台北市 1
沿岸 1
陀 1
损@@ 1
权利 1
州府 1
市委 1
途中 1
項@@ 1
達成 1
1924 0.6324421769427954
覽@@ 1
時段 1
公眾 1
連結 1
谱 1
电视@@ 1
杭@@ 1
说法 1
n@@ 0.0966785424609266
北面 1
佩 1
介绍 1
關注 1
划 1
密度 1
纪念@@ 1
念@@ 1
鳥@@ 1
情形 1
卷@@ 1
效率 1
展出 1
高级 1
柴油机 1
简单 1
掩@@ 1
青少年 1
68 1
鐘@@ 1
组合 1
凌@@ 1
钟@@ 1
覆 1
政党 1
開設 1
礁 1
航班 1
搬 1
冬 1
南美洲 1
華人 1
賣@@ 1
主流 1
接觸 1
悬@@ 1
撒 1
建筑@@ 1
d@@ 0.09286684531205769
有着 1
花園 1
天体 1
必 1
大规模 1
參選 1
先後@@ 1
隨即 1
对象 1
幻@@ 1
邀請 1
中市 1
頻 1
歷 1
武帝 1
肺炎 1
序列 1
赖 1
丑 1
赛事 1
献@@ 1
主打 1
末期 1
指揮@@ 1
伊拉克 1
繫 1
奪得 1
衛生 1
襄@@ 1
坝 1
災@@ 1
凱 1
销@@ 1
新界 1
燃料 1
立陶宛 1
本科 1
参赛 1
古典 1
息@@ 1
继承 1
安装 1
道德 1
輻@@ 1
簡單 1
中文@@ 1
整合 1
代替 1
05 1
島嶼 1
政權 1
校区 1
兩者 1
氣旋 1
芳@@ 1
贝尔@@ 1
平均@@ 1
霸 1
自我 1
數位 1
克拉 1
昇 1
菩@@ 1
控股 1
米尔 1
差異 1
晓@@ 1
陷 1
巴基斯坦 1
救援 1
分成 1
年齡 1
恐怖 1
时任 1
龐@@ 1
人生 1
月初 1
来源 1
鹽 1
00@@ 1
防部 1
雖@@ 1
最高@@ 1
清代 1
動力 1
盡@@ 1
罰 1
1925 0.6406071540134815
28@@ 1
其實 1
涵@@ 1
疫 1
陪@@ 1
犹太人 1
c@@ 0.10296343106569283
援@@ 1
魚類 1
ing 0.03380781434388401
新型 1
菲律賓 1
伯爵 1
谋@@ 1
叔 1
妹 1
答 1
時代@@ 1
氧@@ 1
玩 1
動作 1
訊@@ 1
缩@@ 1
秦 1
隸 1
顆 1
像是 1
定性 1
埔@@ 1
稀@@ 1
仪式 1
備@@ 1
覆@@ 1
受傷 1
條例 1
1917 0.5830506406119297
单曲 1
喪@@ 1
錯 1
循@@ 1
運行 1
勝利 1
1926 0.6256541496584201
十字@@ 1
引用 1
毕@@ 1
癌 1
拍攝 1
分校 1
敌@@ 1
冒@@ 1
罩 1
Google 1
原理 1
葡萄@@ 1
1914 0.56839944462878
鎖 1
劇場 1
倉 1
誤@@ 1
DVD 0.9939836840343274
區的 1
耀 1
卢瓦尔 1
尖 1
km 0.13173683060002978
屯 1
翻译 1
碳@@ 1
協 1
宪@@ 1
新竹 1
签署 1
八月 1
67 1
结婚 1
超级 1
幾個 1
公众 1
数据@@ 1
毗@@ 1
電視@@ 1
体系 1
着@@ 1
跳 1
挑戰 1
現今 1
主管 1
促@@ 1
艺术@@ 1
胡 1
興趣 1
收藏 1
传播 1
安裝 1
事實 1
負責@@ 1
轨 1
優 1
29@@ 1
支持者 1
洛斯 1
冀@@ 1
格式 1
鏡@@ 1
偶 1
澳大利 1
软@@ 1
参数 1
稅 1
p@@ 0.09048288064688542
攻打 1
涉@@ 1
南面 1
創造 1
如今 1
r@@ 0.09198283277439288
似@@ 1
万美元 1
燒 1
实验室 1
政部 1
纪录 1
x@@ 0.27374322472414214
貓 1
北市 1
生产@@ 1
運動@@ 1
回應 1
佔@@ 1
維爾 1
请求 1
坐 1
競爭 1
机会 1
操 1
柏 1
耗@@ 1
濟@@ 1
十二@@ 1
斐@@ 1
噶@@ 1
租 1
纽约@@ 1
福州 1
抓@@ 1
安徽省 1
天然 1
国民党 1
考古 1
茅@@ 1
匹 1
干部 1
菊@@ 1
信徒 1
十月 1
物理@@ 1
訴@@ 1
卡斯 1
曾祖 1
委会 1
近代 1
动画 1
大聯盟 1
鄂@@ 1
針對 1
绘@@ 1
府@@ 1
溫度 1
太陽@@ 1
際@@ 1
疆 1
农 1
起來 1
南海 1
樣@@ 1
党员 1
蒲@@ 1
證據 1
采取 1
威胁 1
依照 1
印度@@ 1
菜@@ 1
休 1
哲学 1
亨 1
此前 1
入境 1
附 1
1922 0.6138559064064819
統治@@ 1
巴伐@@ 1
載@@ 1
香港@@ 1
相互 1
牧 1
愛爾蘭 1
临 1
勒斯 1
8.@@ 1
罗斯 1
崖 1
叉 1
高原 1
他人 1
相当 1
訂@@ 1
想法 1
太平 1
超越 1
翠@@ 1
亞目 1
联合国 1
七月 1
允許 1
毅 1
顏色 1
依據 1
众多 1
纽@@ 1
湖南省 1
裂@@ 1
专门 1
廉@@ 1
者@@ 1
视为 1
全长 1
爵@@ 1
成分 1
二月 1
俠 1
文献 1
特点 1
績 1
日报 1
拉克 1
迪士尼 1
意識 1
縱@@ 1
三角 1
99 1
卖 1
装置 1
族群 1
格勒 1
隨 1
至於 1
放在 1
編劇 1
織@@ 1
壽 1
拳 1
突出 1
技术@@ 1
死刑 1
機器 1
上方 1
哥伦@@ 1
工作@@ 1
審 1
狼 1
邻 1
幫@@ 1
学科 1
馮@@ 1
採取 1
部署 1
分之一 1
征服 1
医学 1
女主角 1
豹 1
响@@ 1
並未 1
什麼 1
伸@@ 1
万元 1
领袖 1
轰@@ 1
布魯@@ 1
學術 1
教士 1
遗产 1
扩大 1
74 1
全国政协 1
250 1
瘤 1
寻@@ 1
主場 1
德國@@ 1
柄 1
函數 1
塘@@ 1
73 1
划归 1
海峡 1
话@@ 1
聯合@@ 1
多种 1
那么 1
谋 1
烷 1
逼@@ 1
放弃 1
78 1
銷量 1
岡 1
一带 1
雕@@ 1
1.5 1
寨 1
原來 1
创造 1
高雄 1
德斯 1
氣候 1
星等 1
犬 1
訓@@ 1
定理 1
物品 1
畫家 1
班次 1
邱@@ 1
匹@@ 1
壞 1
紹@@ 1
邊界 1
閣 1
燒@@ 1
例@@ 1
尔特 1
大眾 1
发起 1
窗 1
阿富汗 1
六月 1
巧@@ 1
掌握 1
御 1
病逝 1
抗議 1
岩石 1
懸@@ 1
穴 1
谈 1
碰@@ 1
红色 1
平等 1
帅 1
埔 1
十九 1
缘 1
危機 1
山地 1
损失 1
牵引 1
上面 1
成熟 1
一共 1
内战 1
國家隊 1
巷 1
胶@@ 1
地点 1
用以 1
屏 1
上陣 1
OS 1
a@@ 0.14313926274269104
成人 1
稍@@ 1
半年 1
藉 1
迦@@ 1
71 1
貼 1
鷹 1
自动 1
叛 1
啟 1
z 0.17230579126958628
原則 1
阿里 1
流量 1
平民 1
涉嫌 1
自此 1
表达 1
69 1
山区 1
苗@@ 1
武装 1
性質 1
染 1
笔@@ 1
館@@ 1
关闭 1
堡@@ 1
b@@ 0.08660149869543088
代表团 1
磨@@ 1
替代 1
相對 1
声称 1
幼 1
現任 1
首度 1
86 1
航空公司 1
传说 1
奠@@ 1
阻 1
出色 1
地上 1
设计@@ 1
隨後 1
夺 1
吻 1
仪@@ 1
襲擊 1
岳 1
泡 1
贵族 1
殖民 1
购买 1
三月 1
生產@@ 1
議員@@ 1
繼承@@ 1
82 1
民众 1
紐@@ 1
妙 1
電車 1
变成 1
兵团 1
傳說 1
违@@ 1
一套 1
改编 1
法蘭@@ 1
道光 1
爆 1
山西省 1
销售 1
梵@@ 1
清楚 1
理念 1
識@@ 1
转移 1
芭@@ 1
1921 0.587775381146456
喷@@ 1
推行 1
仿@@ 1
鄰近 1
银 1
邀请 1
MV 1
哥哥 1
芝加哥 1
脊@@ 1
反而 1
$ 0.14313607564726646
書院 1
中間 1
迷你 1
一方 1
浙@@ 1
珊 1
幫 1
试验 1
行走 1
验@@ 1
四大 1
险@@ 1
省政府 1
耕@@ 1
鼓 1
格拉 1
路易 1
委任 1
居民点 1
际 1
大阪 1
棘 1
该市 1
入选 1
具体 1
成年 1
排行榜 1
映@@ 1
知識 1
名單 1
選出 1
徽@@ 1
工廠 1
泰勒 1
排列 1
聲音 1
合同 1
剑@@ 1
可用 1
威爾@@ 1
挖@@ 1
87 1
年轻 1
买@@ 1
77 1
貨 1
加以 1
植 1
环形山 1
比較 1
化學 1
理器 1
现任 1
西班牙语 1
聲明 1
抵達 1
剧院 1
人大代表 1
榮譽 1
周边 1
阿拉 1
史密斯 1
陨石坑 1
夫斯基 1
示威 1
装备 1
震 1
座位 1
81 1
砂@@ 1
做法 1
觀測 1
下方 1
吞@@ 1
發電@@ 1
韓 1
隊伍 1
校長 1
妹妹 1
典禮 1
满足 1
領袖 1
中華@@ 1
梦@@ 1
长江 1
通车 1
待@@ 1
任天堂 1
俄国 1
調整 1
一間 1
路上 1
团队 1
周围 1
連載 1
矛盾 1
盜 1
不得不 1
強調 1
碼頭 1
杨 1
进士 1
AT@@ 1
濱@@ 1
西接 1
雇@@ 1
山市 1
两次 1
创立 1
基本@@ 1
遣@@ 1
晚期 1
60@@ 1
尋找 1
認識 1
稻@@ 1
神社 1
揚@@ 1
測量 1
化学@@ 1
精神@@ 1
天使 1
藥物 1
ン 1
纹 1
11.@@ 1
編輯 1
賢@@ 1
保守 1
擬 1
斜 1
緊 1
棄 1
as 0.00869819993772298
部位 1
3000 1
奔@@ 1
全世界 1
電話 1
韦 1
世界杯 1
5% 1
刀@@ 1
訪問 1
邻@@ 1
鯉 1
1913 0.6394821730650095
1911 0.6763073459774783
t@@ 0.07295569650546495
囊 1
手中 1
08 1
水深 1
蕨 1
偉 1
婆 1
祈@@ 1
種族 1
估计 1
織 1
1923 0.5835255171159489
管制 1
作曲家 1
生態 1
公交 1
声明 1
98 1
多利 1
污染 1
傳播 1
激烈 1
粹 1
聘@@ 1
淑@@ 1
课程 1
人大 1
验 1
洗 1
租界 1
可是 1
队伍 1
篇@@ 1
知縣 1
湖北省 1
复杂 1
当局 1
正是 1
对应 1
暴 1
會長 1
發表@@ 1
趣 1
政治家 1
法國@@ 1
顾@@ 1
92 1
崩@@ 1
彰 1
逐步 1
剩下 1
積極 1
嘗試 1
尹@@ 1
如同 1
蘇格蘭 1
徵 1
℃ 1
戰後@@ 1
成果 1
碎@@ 1
84 1
入口 1
um 0.06272449959177583
整體 1
斯塔@@ 1
橡@@ 1
踏@@ 1
經典 1
行人 1
臂 1
綱@@ 1
领土 1
事业 1
十大 1
观察 1
荣誉 1
3% 1
貫 1
試圖 1
勞 1
意見 1
腦@@ 1
路线 1
連任 1
全新 1
損 1
碎 1
导弹 1
藉由 1
藍 1
課@@ 1
翻譯 1
色彩 1
重返 1
主张 1
天津市 1
疏 1
检测 1
妇 1
g@@ 0.08199133416198527
特拉 1
廢除 1
83 1
靜 1
形态 1
運用 1
亮@@ 1
ST@@ 1
泰国 1
女人 1
总督 1
合法 1
泳@@ 1
西里 1
嚴 1
恨 1
四世 1
方程式 1
施工 1
蔡 1
軍團 1
常务@@ 1
α 1
贡 1
卢 1
广播@@ 1
職務 1
劫 1
娶 1
中间 1
國際賽 1
進步 1
鸟@@ 1
削@@ 1
认 1
返 1
06 1
一生 1
延長 1
税@@ 1
琉球 1
黑人 1
三名 1
講 1
販@@ 1
马尔@@ 1
倉@@ 1
兵力 1
大批 1
发动机 1
绝 1
署@@ 1
件@@ 1
耗 1
责任 1
棕@@ 1
资金 1
雕 1
革 1
彥 1
推翻 1
劳 1
小組 1
桃 1
第一部 1
沟@@ 1
醫學 1
鮑@@ 1
窄 1
座堂 1
1900 0.5830528596555534
79 1
韋 1
佔領 1
并未 1
芬兰 1
琪 1
东北部 1
首任 1
權利 1
隶属于 1
跟@@ 1
域@@ 1
東西 1
疾@@ 1
习 1
惜 1
动力 1
担@@ 1
拔@@ 1
35@@ 1
修道院 1
勃 1
覆盖 1
秘书长 1
原型 1
绕 1
长度 1
醫生 1
理学 1
經理 1
旨在 1
示威者 1
最小 1
輸 1
at 0.012680948360026381
101 1
罕 1
之戰 1
當中陸 1
斯托@@ 1
適 1
一篇 1
左翼 1
扭@@ 1
楚 1
努 1
燈@@ 1
v 0.33224679680014213
损 1
路易@@ 1
沙田 1
试 1
修正 1
全国人民代表大会 1
三次 1
並不@@ 1
氢@@ 1
江南 1
氧 1
彰化 1
筒 1
地中海 1
人才 1
腦 1
销 1
人民币 1
顧問 1
埋@@ 1
mm 0.3919450042597157
樂隊 1
研究生 1
星期@@ 1
槽 1
實現 1
藻 1
診@@ 1
麦 1
午@@ 1
尚书 1
衛星 1
96 1
買@@ 1
商业@@ 1
境外 1
男女 1
笔 1
質疑 1
中正 1
阿拉伯@@ 1
探索 1
賞@@ 1
交易所 1
誠@@ 1
貢獻 1
第三次 1
言人 1
之上 1
哪@@ 1
預計 1
遍@@ 1
卵@@ 1
顯 1
赤 1
辨@@ 1
鬥 1
海南 1
其餘 1
宏 1
紙 1
纯@@ 1
翰@@ 1
慕尼黑 1
督府 1
熟@@ 1
理工@@ 1
意见 1
冕 1
法令 1
麼 1
IN@@ 1
帶來 1
廠@@ 1
同步 1
乳 1
史蒂@@ 1
橄@@ 1
错误 1
亩 1
腿 1
賜 1
后期 1
铸@@ 1
立方米 1
地下@@ 1
錦 1
星期 1
接触 1
曲目 1
頒@@ 1
没@@ 1
觀點 1
錯誤 1
ia 0.12261216702775421
灾@@ 1
額@@ 1
塔尼 1
民進 1
減 1
首個 1
新城 1
曉@@ 1
怎@@ 1
北平 1
捷克 1
厝 1
泽尔 1
购@@ 1
戰士 1
足以 1
视星等 1
or 0.024598484778909222
东方 1
妮@@ 1
09 1
工程师 1
武裝 1
04 1
事務@@ 1
確認 1
才@@ 1
串@@ 1
亿 1
铁路局 1
91 1
.@@ 0.19720725425062993
保險 1
午 1
味@@ 1
祀 1
贡@@ 1
89 1
剩@@ 1
簽署 1
饮@@ 1
雜 1
坡@@ 1
解除 1
哲 1
迫使 1
el 0.008476434022182837
納州 1
DNA 1
禄 1
伟@@ 1
定義 1
丝@@ 1
印第@@ 1
根本 1
# 0.41965539039172095
陷@@ 1
階 1
百姓 1
山大 1
洛夫 1
公室 1
柬埔寨 1
上游 1
光绪 1
肯定 1
湿@@ 1
德意志 1
機械 1
现场 1
戊@@ 1
軸@@ 1
问@@ 1
婆@@ 1
大部份 1
仇@@ 1
百年 1
多人 1
细 1
比利时 1
變得 1
欢迎 1
廣東@@ 1
辅@@ 1
模特 1
箭 1
帥 1
藩@@ 1
教学 1
薇 1
提交 1
评 1
放送 1
東方 1
出场 1
將軍@@ 1
塞爾@@ 1
顿@@ 1
蓮 1
先前 1
好友 1
暖 1
阁 1
阶级 1
綠色 1
93 1
中原 1
裝備 1
閱@@ 1
顾问 1
冲 1
弟@@ 1
07 1
滅@@ 1
灰 1
下来 1
十二年 1
軟 1
齡 1
盾 1
红军 1
爾德 1
王位 1
凝@@ 1
頻@@ 1
900 1
布尔 1
籃球 1
杆 1
侧@@ 1
些 1
剧情 1
练@@ 1
容量 1
马克@@ 1
览@@ 1
诚 1
亿美元 1
强度 1
風險 1
民主党 1
篮球 1
院校 1
本名 1
粮@@ 1
请@@ 1
听 1
除此之外 1
‧ 1
私立 1
保安 1
1909 0.7095771525465695
蓬@@ 1
訪@@ 1
量子 1
媽@@ 1
陈 1
關閉 1
现代@@ 1
定位 1
教師 1
洛杉磯 1
鄰@@ 1
高地 1
110 1
苯@@ 1
九月 1
加强 1
合物 1
欣 1
知府 1
否 1
货运 1
压力 1
神秘 1
扩@@ 1
叫做 1
尿@@ 1
社交 1
发出 1
巢 1
歌唱 1
請@@ 1
融@@ 1
題@@ 1
终 1
舟 1
總督 1
校舍 1
仇 1
華盛頓 1
嗣 1
亞歷 1
涉 1
拱@@ 1
囚@@ 1
蒙特 1
裁判 1
其余 1
梯@@ 1
确认 1
忆 1
緩@@ 1
边界 1
吹@@ 1
埃尔 1
町@@ 1
接管 1
大公 1
保罗 1
喬治@@ 1
南北@@ 1
农民 1
市長 1
缩 1
辖@@ 1
保護@@ 1
愈 1
加利 1
丹尼 1
丧@@ 1
加工 1
株 1
玲 1
公告 1
屍@@ 1
國家@@ 1
蔣 1
孟加@@ 1
两年 1
一群 1
腾@@ 1
脂@@ 1
對象 1
祭祀 1
古巴 1
贊@@ 1
福利 1
繼承 1
德尔 1
錢@@ 1
学术 1
英文@@ 1
姆斯 1
虹 1
CO@@ 0.9264415719701058
印刷 1
对此 1
建築物 1
辞@@ 1
奶@@ 1
较大 1
02 1
一批 1
這裡 1
太守 1
生長 1
每次 1
子公司 1
十一年 1
竣工 1
布里@@ 1
葬@@ 1
觸@@ 1
论文 1
卢瓦@@ 1
以往 1
永久 1
布里 1
領土 1
洛特 1
采 1
政治部 1
凯 1
战略 1
恭@@ 1
喜欢 1
高架 1
拉德 1
确 1
磷@@ 1
蛇@@ 1
么 1
遊行 1
接著 1
私 1
大字 1
庇@@ 1
初年 1
证据 1
丰富 1
日報 1
讷@@ 1
贫@@ 1
妇女 1
o@@ 0.08318183831362459
祖先 1
扁 1
億元 1
缅甸 1
气旋 1
宣言 1
山脉 1
標誌 1
移居 1
第九 1
贵州 1
煙@@ 1
亲 1
前者 1
廟@@ 1
般@@ 1
輸@@ 1
反抗 1
恆@@ 1
白人 1
是因为 1
即可 1
烧@@ 1
03 1
架構 1
軌@@ 1
带有 1
入球 1
琳@@ 1
智慧 1
小姐 1
辯@@ 1
己@@ 1
启用 1
解放军 1
闻 1
狂 1
戲劇 1
有意 1
利亚@@ 1
平方@@ 1
年任 1
较为 1
1916 0.6092072009409268
诞@@ 1
离子 1
天文@@ 1
暫@@ 1
對方 1
水量 1
合唱 1
辩@@ 1
勝出 1
最新 1
膠 1
山口 1
辟 1
顏@@ 1
订@@ 1
推 1
灘 1
夷@@ 1
涌 1
繁 1
貧@@ 1
指令 1
循 1
兩名 1
擁@@ 1
履@@ 1
她@@ 1
棟 1
力学 1
定義@@ 1
HR 1
幻想 1
斥 1
飯 1
et 0.007730680108145866
吾 1
律師 1
温度 1
高校 1
出版@@ 1
外界 1
韓國@@ 1
甜@@ 1
貞@@ 1
斯山 1
便是 1
强烈 1
医 1
樞@@ 1
国人 1
册 1
價格 1
壳 1
印地安 1
期刊 1
其父 1
圈@@ 1
碑@@ 1
2.5 1
岗@@ 1
穆罕默德 1
斯托 1
割 1
彼得@@ 1
知县 1
實行 1
不仅 1
芝 1
說明 1
智利 1
講述 1
AS@@ 0.6807222109146684
国家队 1
喬治 1
豫@@ 1
律师 1
嘴 1
遮@@ 1
奖项 1
老師 1
十二月 1
任職 1
原来 1
国立 1
送到 1
元朝 1
敘@@ 1
释放 1
普通@@ 1
阿爾 1
消 1
中华人民共和国@@ 1
丹麦 1
罷@@ 1
训 1
蒋@@ 1
學士 1
演員@@ 1
自殺 1
球场 1
迫@@ 1
齿 1
芒@@ 1
1910 0.527658406195249
多種 1
莎白 1
女神 1
锁 1
12.@@ 1
给@@ 1
靖@@ 1
鰭@@ 1
找@@ 1
拉丁 1
潜艇 1
登陸 1
维亚 1
畔 1
误@@ 1
阿尔卑@@ 1
回答 1
棉@@ 1
九龍@@ 1
叙@@ 1
协助 1
取自 1
访 1
堤 1
年時 1
卫生@@ 1
得分 1
机械 1
眠 1
变得 1
奥尔@@ 1
彼此 1
滋@@ 1
东南部 1
爱尔兰 1
称作 1
1915 0.5789128096175078
扩展 1
脑 1
威尔 1
旅遊 1
拉姆 1
价格 1
十三年 1
页 1
撰@@ 1
險@@ 1
沼@@ 1
飛彈 1
劇本 1
可見 1
新疆@@ 1
議題 1
es 0.015042213774957205
專門 1
九州 1
責任 1
三位 1
撫 1
總站 1
路易斯 1
宗教@@ 1
至此 1
般 1
官至 1
脱 1
97 1
批判 1
江戶 1
东北@@ 1
損失 1
受伤 1
有名 1
陀@@ 1
誉 1
污@@ 1
f@@ 0.07304456524573814
布拉 1
肇@@ 1
踪 1
马克 1
赠 1
铺 1
罚 1
遣 1
黑暗 1
斯洛伐克 1
AR@@ 0.8914544548139577
斗争 1
吃@@ 1
中山@@ 1
鯉@@ 1
倡@@ 1
書籍 1
紙@@ 1
94 1
之名 1
杀死 1
電力 1
祐 1
事物 1
償 1
刺激 1
谈@@ 1
贺@@ 1
90@@ 1
弱@@ 1
向量 1
桌@@ 1
立場 1
椅 1
頗 1
鹽@@ 1
難以 1
指导 1
澄@@ 1
狱 1
明代 1
兩次 1
社群 1
Ch@@ 0.0968319954634135
莱茵 1
分解 1
注入 1
克羅@@ 1
斯科 1
兩位 1
卫视 1
站房 1
挂 1
加強 1
灯 1
态@@ 1
该地 1
叙利亚 1
戌 1
势力 1
專 1
克里 1
70@@ 1
多数 1
通車 1
貝爾@@ 1
福特 1
辭@@ 1
公式 1
k@@ 0.08185102615906303
滕@@ 1
公社 1
更改 1
а 0.07431185519703963
朵 1
領導@@ 1
爾頓 1
姑@@ 1
维持 1
貴族 1
一旦 1
汗@@ 1
茂 1
寿 1
龙省 1
新人 1
昭 1
頒獎 1
十七 1
源于 1
態度 1
拘@@ 1
人民法院 1
金融@@ 1
突厥 1
裕@@ 1
搭 1
地址 1
各國 1
萨尔 1
戰車 1
主辦 1
姓氏 1
项@@ 1
AN@@ 1
列為 1
浓@@ 1
逾 1
垂直 1
尺寸 1
坂@@ 1
盆地 1
各类 1
籃@@ 1
魁@@ 1
構成 1
湾@@ 1
脚@@ 1
距@@ 1
教区 1
荷蘭@@ 1
东京 1
累计 1
刊@@ 1
龜 1
编号 1
芝@@ 1
筑 1
审 1
打擊 1
遲 1
南極條 1
晉級 1
更好 1
悉@@ 1
收购 1
内阁 1
服务@@ 1
楊 1
男孩 1
公署 1
閉@@ 1
嫁@@ 1
福音 1
鲜@@ 1
肝@@ 1
金曲 1
波特 1
紐 1
簽約 1
蝶@@ 1
国民政府 1
二次 1
漂@@ 1
憶@@ 1
停留 1
铜 1
本屆 1
轉換 1
建有 1
所謂 1
幕府 1
炭 1
用戶 1
這項 1
侦@@ 1
印象 1
平行 1
大獎 1
现有 1
召開 1
讨@@ 1
墨 1
穿越 1
辖区 1
性格 1
數字 1
签订 1
話@@ 1
勋章 1
轴@@ 1
議席 1
宣告 1
搜索 1
總會 1
銷@@ 1
技巧 1
烯 1
肥 1
扣@@ 1
衔 1
提前 1
赤經 1
申请 1
大帝 1
多尔 1
文化大革命 1
研發 1
这颗 1
輔 1
滨海 1
等待 1
旧址 1
种子 1
正月 1
證實 1
高達 1
作業 1
布雷 1
公转 1
騎 1
它@@ 1
排名第 1
会长 1
詢 1
僧 1
盘@@ 1
简介 1
誠 1
綜合 1
大埔 1
次日 1
追求 1
優勢 1
免費 1
最高法院 1
世界各地 1
讲述 1
登陆 1
密切 1
投手 1
防守 1
當天 1
造型 1
天府 1
平成 1
月份 1
漫画 1
抢@@ 1
通行 1
細 1
哲學 1
孕 1
整体 1
海峽 1
愛情 1
不可@@ 1
兽 1
函@@ 1
員工 1
该国 1
摔@@ 1
懷 1
ar 0.0472788241917871
id 0.3227469127722435
騎士 1
UN@@ 0.9180898137110906
军官 1
大衛 1
鈴@@ 1
中华 1
启动 1
危机 1
菲律宾 1
俘 1
药物 1
这座 1
熔@@ 1
嶼 1
宿舍 1
析@@ 1
SAO 1
参谋长 1
首批 1
少将 1
AP@@ 0.9866450522739387
航天@@ 1
阳县 1
意识 1
機制 1
你@@ 1
丹麥 1
姊妹 1
基本上 1
其子 1
條約 1
该党 1
布萊@@ 1
材@@ 1
出自 1
测量 1
澎湖 1
馆@@ 1
夏天 1
身体 1
垂@@ 1
霞 1
对手 1
骑兵 1
擬@@ 1
估@@ 1
掛 1
释 1
高山 1
鐸 1
17@@ 1
就任 1
惊@@ 1
靠@@ 1
大选 1
伯格 1
说明 1
1901 0.6964160163427991
株@@ 1
琉@@ 1
5000 1
下游 1
病人 1
绘 1
颜色 1
第八@@ 1
乾 1
加速 1
幹 1
王室 1
三甲 1
检察@@ 1
鼎@@ 1
移交 1
赤緯 1
赶@@ 1
彼@@ 1
华人 1
科学院 1
弗里@@ 1
真實 1
割@@ 1
新北市 1
元音 1
因應 1
乙 1
党委 1
拟@@ 1
ensis 0.5936049181999257
PC 0.8618121885943795
冈@@ 1
在此@@ 1
男人 1
行政区 1
运用 1
醫 1
坚持 1
貫@@ 1
产地 1
其后 1
簽訂 1
错 1
两侧 1
碩士 1
启 1
陕西省 1
桂 1
基督徒 1
14.@@ 1
珀 1
截止 1
褐色 1
弃 1
科学家 1
UTC 1
酮 1
孝 1
紛 1
互联网 1
弟子 1
十一月 1
汽 1
蕃 1
洪水 1
世紀@@ 1
時會 1
检查 1
优势 1
改称 1
有時 1
草案 1
巴斯 1
徙 1
一艘 1
觀察@@ 1
训@@ 1
哺@@ 1
博士学位 1
一詞 1
出戰 1
1905 0.5499039167731242
慎 1
瓶 1
豐富 1
同志 1
抗日战争 1
不但 1
克林 1
蘋果 1
贤 1
南斯拉夫 1
璋 1
乌 1
一架 1
恋 1
這場 1
加斯 1
躍@@ 1
告訴 1
扰 1
真的 1
称号 1
鴻@@ 1
誉@@ 1
一片 1
純 1
猪笼草 1
候选人 1
咖啡 1
誌 1
村民 1
注册 1
原则 1
東南 1
渔@@ 1
趕@@ 1
将领 1
政府@@ 1
缸 1
综合@@ 1
厦@@ 1
霖 1
潔 1
人員@@ 1
长沙 1
负 1
犹@@ 1
给予 1
銀經 1
鼓勵 1
评为 1
願@@ 1
公寓 1
猜@@ 1
械 1
添加 1
清真寺 1
m@@ 0.08191412208296828
伙@@ 1
翁@@ 1
外国 1
整理 1
忙 1
娱乐 1
遺址 1
勳 1
斌 1
涵 1
强调 1
脊 1
閃@@ 1
丞 1
坎 1
銀緯 1
考察 1
青年@@ 1
课 1
盧 1
名叫 1
忌 1
秩序 1
攜@@ 1
欺@@ 1
種類 1
B1900.0 1
兴建 1
积极 1
面向 1
谈判 1
不僅 1
平定 1
猫 1
驶 1
讨 1
乘坐 1
弄 1
拉特 1
種子 1
名人 1
文学@@ 1
陶 1
朗德 1
瓦尔 1
車隊 1
行业 1
多夫 1
請求 1
YouTube 1
粵語 1
这部 1
庞@@ 1
风险 1
山東 1
广告 1
伽 1
一本 1
中心@@ 1
回合 1
那州 1
鬆 1
3D 1
嗣@@ 1
秘书 1
困難 1
治所 1
画家 1
美軍@@ 1
公開賽 1
仕 1
130 1
状况 1
希特勒 1
知识 1
轨道交通 1
一面 1
仰@@ 1
东南@@ 1
on@@ 0.07380202451992404
太平@@ 1
希臘@@ 1
頒 1
郎中 1
． 1
人權 1
纵@@ 1
析 1
一日 1
信息@@ 1
身亡 1
當日 1
陸軍@@ 1
出土 1
匯 1
吊@@ 1
紛@@ 1
抗议 1
箭@@ 1
酯 1
抱@@ 1
详@@ 1
花园 1
33@@ 1
深入 1
医疗 1
庵 1
符号 1
戰鬥機 1
敲@@ 1
屆@@ 1
愛的 1
慈善 1
殖 1
伽@@ 1
國語 1
裸@@ 1
格林 1
弥@@ 1
霍 1
戰隊 1
钟 1
促进 1
誓 1
大同 1
傾@@ 1
幸 1
John 0.08374063472723252
促 1
昔@@ 1
升級 1
人群 1
吏部 1
斯克@@ 1
潘 1
稅@@ 1
任意 1
罗伯特 1
回国 1
劫@@ 1
徒@@ 1
二级 1
艺术家 1
眼睛 1
尊重 1
止@@ 1
组织@@ 1
苏格兰 1
透 1
it 0.018509384376645694
庚@@ 1
生效 1
卡特 1
軸 1
伟 1
13.@@ 1
竟 1
一路 1
阅@@ 1
參與@@ 1
數學 1
纸@@ 1
麓 1
會員 1
柳 1
機車 1
牲 1
开工 1
抚@@ 1
東京@@ 1
供奉 1
吏 1
熙@@ 1
肢 1
优秀 1
鱸 1
地域 1
院長 1
感情 1
h@@ 0.0739955875863289
审查 1
捲 1
國道 1
引力 1
天主@@ 1
鑑 1
com 1
降雨量 1
相应 1
適合 1
主唱 1
名义 1
慈 1
藍色 1
智能 1
晚年 1
殿@@ 1
十五年 1
俘@@ 1
河口 1
這也 1
尼泊@@ 1
舉人 1
費用 1
节度使 1
語言@@ 1
协 1
电力机车 1
危 1
37@@ 1
不满 1
傅 1
报纸 1
札@@ 1
á 0.3630270083428891
威尔@@ 1
维护 1
障 1
雖 1
尔省 1
明确 1
恩省 1
翰 1
讲 1
圆 1
大規模 1
纲 1
润 1
政委 1
第一名 1
少量 1
主体 1
把@@ 1
领导@@ 1
兹省 1
中以 1
手法 1
達到 1
回家 1
采访 1
回歸 1
频@@ 1
岗 1
都督 1
階級 1
第二次世界大战 1
可能性 1
闭@@ 1
殷@@ 1
鐵路車 1
摇@@ 1
教學 1
北魏 1
中将 1
告诉 1
い 1
看法 1
交界 1
分享 1
穆 1
娅 1
订 1
拜占庭 1
氟@@ 1
立法院 1
磨 1
当天 1
跑道 1
培 1
刘 1
珀@@ 1
科技@@ 1
閉 1
反对@@ 1
火车站 1
疗@@ 1
冈 1
诗人 1
雞 1
攀@@ 1
空气 1
裴@@ 1
监狱 1
34@@ 1
片段 1
嘴@@ 1
等级 1
al@@ 0.05838688491102519
一个@@ 1
经验 1
己 1
神父 1
考试 1
原子@@ 1
基金会 1
短期 1
链 1
二战 1
la 0.0028457285386887755
檢查 1
武汉@@ 1
維奇 1
轟@@ 1
縣人 1
改良 1
盤@@ 1
購買 1
予以 1
手机 1
TO@@ 1
困难 1
棲@@ 1
赏 1
廢 1
空氣 1
en 0.003690752496643635
又@@ 1
1903 0.633691623399958
敢 1
直径 1
人大常委会 1
饰演 1
针 1
开设 1
司令员 1
共和@@ 1
亮相 1
無線 1
撞击 1
十四年 1
地鐵 1
考入 1
貝爾 1
本次 1
飞行@@ 1
AC@@ 0.9057993184439835
臟 1
糕 1
一处 1
幹線 1
特區 1
任职 1
叉@@ 1
纯 1
脑@@ 1
戰鬥@@ 1
抵 1
沙漠 1
央@@ 1
稍 1
l@@ 0.064035742406941
体育场 1
哀@@ 1
换乘 1
得主 1
克里斯 1
情感 1
族人 1
手機 1
無論 1
奧運 1
兩國 1
塌 1
其他人 1
並與 1
之战 1
一級 1
轨@@ 1
灯@@ 1
符號 1
am 0.0329213133674754
亚历山大 1
厂@@ 1
暫 1
忍 1
赴@@ 1
一顆 1
奶 1
苏州 1
關鍵 1
第一代 1
考試 1
懷疑 1
臣@@ 1
隶属 1
茄 1
这场 1
抱 1
形態 1
日語 1
桓@@ 1
海水 1
地方@@ 1
狹@@ 1
尤 1
升级 1
大都 1
恐龍 1
瑜 1
1500 1
殺害 1
下面 1
华盛顿 1
靖 1
須@@ 1
廉 1
保羅 1
36@@ 1
开发@@ 1
修复 1
恐怖@@ 1
中華民國@@ 1
并非 1
餐廳 1
椎 1
增長 1
蜂 1
太郎 1
财政@@ 1
狼@@ 1
警察@@ 1
睡@@ 1
宣传@@ 1
感染者 1
稱作 1
防空 1
呈現 1
方形 1
薄 1
曹操 1
180 1
1908 0.5246702926189732
寒 1
莲@@ 1
附加 1
国民 1
五世 1
崙 1
俄罗斯@@ 1
内蒙古 1
军团 1
噸 1
封面 1
耶穌 1
年期 1
泳 1
評估 1
陆 1
PlayStation 1
美國人 1
克拉@@ 1
夸@@ 1
闽@@ 1
各国 1
檔案 1
触@@ 1
往返 1
埃纳 1
辱 1
覆蓋 1
中国科学院 1
南昌 1
鼠@@ 1
太原 1
定律 1
拟 1
為主 1
侍 1
所谓 1
储 1
北宋 1
德里@@ 1
包圍 1
謂 1
培养 1
巡洋舰 1
秉@@ 1
依靠 1
浩 1
保证 1
緩 1
抚 1
脉 1
腺@@ 1
奔 1
声音 1
南下 1
边境 1
二十年 1
舱 1
刷@@ 1
總裁 1
美國海 1
尺 1
抄@@ 1
危險 1
誕@@ 1
帽 1
о 0.10200907622435655
南宋 1
法语 1
藉@@ 1
這一@@ 1
ch@@ 0.05342704543960554
南端 1
亲王 1
烧 1
城墙 1
西侧 1
世代 1
希腊@@ 1
一期 1
五個 1
漳@@ 1
ISTAT 1
戰場 1
播映 1
AM@@ 1
嫁 1
河谷 1
遞 1
堅持 1
忘@@ 1
在于 1
葵@@ 1
尔顿 1
佑 1
甘 1
里昂 1
style 0.20154283959959485
周圍 1
泊 1
衝 1
脚 1
铁路@@ 1
Category 1
兴趣 1
日常 1
队长 1
动车组 1
哈尔@@ 1
影展 1
拥@@ 1
滾 1
带领 1
购 1
歡@@ 1
職位 1
詢@@ 1
姿@@ 1
北美洲 1
夷 1
江西省 1
神話 1
舌@@ 1
矩 1
南路 1
次列车 1
享@@ 1
作物 1
解放@@ 1
球迷 1
煌 1
驗@@ 1
布斯 1
弗雷@@ 1
云南省 1
言論 1
160 1
蜜@@ 1
轄區 1
憲 1
车队 1
刊登 1
牽@@ 1
繁殖 1
責管 1
範 1
主义者 1
床@@ 1
亦可 1
猎@@ 1
暫時 1
草原 1
遼@@ 1
勘@@ 1
通訊 1
共计 1
仓@@ 1
机制 1
戰略 1
美术@@ 1
威尼斯 1
冠状病毒 1
殊@@ 1
诉@@ 1
尼西 1
告知 1
庸 1
酷 1
静 1
恩斯 1
沈阳 1
an@@ 0.05036397769074259
黛@@ 1
抑制 1
科學@@ 1
閩@@ 1
爭取 1
暗 1
溶液 1
陝@@ 1
少数 1
校園 1
元朗 1
獵 1
一職 1
推动 1
之意 1
合理 1
蕾@@ 1
划分 1
鼎 1
模仿 1
邪 1
民间 1
盈@@ 1
風警報 1
星期一 1
春秋 1
譚@@ 1
泡@@ 1
射擊 1
苏丹 1
增強 1
排除 1
外國 1
稱呼 1
僚 1
浸@@ 1
兵部 1
粹@@ 1
电力 1
阶@@ 1
媽 1
敵人 1
运动会 1
1906 0.5396717578324687
格里 1
一張 1
司法@@ 1
荒 1
逆 1
傳媒 1
电话 1
NGC 0.9315858572834652
俄羅斯@@ 1
顾 1
1907 0.5355800686529906
乐团 1
寻找 1
第一批 1
自主 1
BD 1
累 1
align 0.8184623003600028
中华@@ 1
丛 1
因子 1
泛 1
宁波 1
道歉 1
滕 1
足夠 1
沪 1
棚 1
喜劇 1
丁堡 1
廂 1
洪武 1
十六年 1
賀 1
信任 1
制造@@ 1
赐 1
全國@@ 1
屠杀 1
追溯 1
地質 1
杉@@ 1
土壤 1
山坡 1
in@@ 0.03968395462747005
百科 1
继 1
甘肃 1
工作者 1
綠 1
立委 1
原定 1
周期 1
铜牌 1
弘 1
歐盟 1
促使 1
被告 1
黨籍 1
硝@@ 1
万历 1
抑@@ 1
电车 1
手槍 1
键@@ 1
妖@@ 1
款@@ 1
装饰 1
鉴@@ 1
动机 1
痛@@ 1
衛隊 1
达成 1
文帝 1
阶 1
软 1
隶 1
尝试 1
扇 1
娛樂@@ 1
鯰@@ 1
堆@@ 1
炎@@ 1
紐約@@ 1
分离 1
第十三届 1
罢@@ 1
卫生 1
賊 1
首歌曲 1
社會@@ 1
国军 1
尽 1
克莱@@ 1
美军 1
郎@@ 1
劣 1
匠 1
男主角 1
順利 1
象征 1
梦 1
文獻 1
观测 1
清水 1
之處 1
师范大学 1
图像 1
大连 1
联邦@@ 1
完美 1
废除 1
矮@@ 1
迟 1
山县 1
放置 1
技能 1
樑 1
幢 1
訊息 1
宣稱 1
貓@@ 1
1904 0.5526516498109013
厄尔 1
兩岸 1
天空 1
坤 1
欄 1
主權 1
蕾 1
富士 1
el@@ 0.0561424464756629
專家 1
鸡@@ 1
享有 1
公共交通 1
氣體 1
雅典 1
III 0.21942246615870878
中共中央@@ 1
亲自 1
前方 1
宴 1
翅@@ 1
16.@@ 1
差距 1
经济学 1
colspan 1
上任 1
校友 1
渠 1
打造 1
搭配 1
霧 1
厄 1
排行 1
概述 1
Ar@@ 0.08712879276688866
廿@@ 1
鋼 1
逸@@ 1
陕@@ 1
伊斯兰 1
用來 1
電視動畫 1
一角 1
前后 1
駁 1
布莱@@ 1
货物 1
冯 1
辉 1
共产@@ 1
參加@@ 1
ar@@ 0.057588877933651084
专区 1
足球@@ 1
最为 1
簡歷 1
斯顿 1
滾@@ 1
约翰@@ 1
姐妹 1
15.@@ 1
自稱 1
公立 1
维吾尔@@ 1
初步 1
競賽 1
香港政府 1
幅@@ 1
昆明 1
携@@ 1
吉林 1
免费 1
蟲@@ 1
废 1
玛丽 1
琼@@ 1
劾 1
焚@@ 1
敌人 1
斯泰@@ 1
框架 1
排球 1
RE@@ 0.9480611265952392
场所 1
推进 1
坐落 1
衍@@ 1
频率 1
各个 1
感覺 1
艙 1
LO@@ 1
熟 1
低氣壓 1
史上 1
代表性 1
140 1
榴@@ 1
11@@ 1
尚書 1
滑雪 1
各级 1
園區 1
荆@@ 1
缩写 1
立刻 1
薪@@ 1
科學家 1
蛙 1
蜀 1
林斯 1
經紀 1
採 1
各個 1
钦@@ 1
新冠 1
全年 1
籤 1
索尼 1
屯門 1
強度 1
錫 1
區劃 1
对外 1
故障 1
资产 1
火力 1
促進 1
为此 1
性別 1
毀@@ 1
耶夫 1
臀@@ 1
复兴 1
括 1
航行 1
終點 1
受害者 1
侶 1
年末 1
幸福 1
客车 1
威廉@@ 1
新区 1
本部 1
棠 1
櫻@@ 1
邪@@ 1
率領 1
年龄 1
王后 1
效应 1
總教區 1
100@@ 1
西亞@@ 1
移至 1
千年 1
夺得 1
消防 1
枢纽 1
ER@@ 1
区别 1
绿色 1
銘 1
安市 1
教练 1
肺@@ 1
淺@@ 1
片中 1
状@@ 1
歌詞 1
刑事 1
Re@@ 0.10014947222576533
並不 1
壬@@ 1
Al@@ 0.08611254792909619
市立 1
托马斯 1
漏@@ 1
妻@@ 1
职位 1
火炮 1
職棒 1
攻入 1
酷@@ 1
阿波@@ 1
翌日 1
博士@@ 1
\ 1
神經 1
u@@ 0.10216795449441282
回应 1
唐代 1
融 1
五十 1
國的 1
差异 1
血液 1
單元 1
尸@@ 1
SO@@ 1
政协 1
市政 1
涛 1
贯@@ 1
访@@ 1
自行@@ 1
代表@@ 1
卡爾 1
贸@@ 1
周恩来 1
福德 1
認定 1
障礙 1
道教 1
流行@@ 1
地图 1
平安 1
鞍@@ 1
财政 1
募@@ 1
城际 1
意味着 1
绥@@ 1
趨@@ 1
帆@@ 1
疾 1
代表作 1
授權 1
監督 1
肩@@ 1
纤@@ 1
冠狀 1
投資@@ 1
发售 1
提案 1
潭@@ 1
银牌 1
緬甸 1
SE@@ 0.8047822972231222
膨@@ 1
口岸 1
辽宁省 1
喬 1
牟@@ 1
东侧 1
卵 1
夕 1
苯 1
裝甲 1
45@@ 1
埠 1
炳@@ 1
違反 1
擴展 1
族自治@@ 1
法蘭 1
爐 1
概 1
货币 1
战后 1
突 1
椒 1
波音 1
駕駛 1
該片 1
轻 1
擋 1
輛@@ 1
面对 1
五个 1
手術 1
末年 1
登記 1
创新 1
总局 1
支部 1
消除 1
交換 1
爺 1
首个 1
開幕 1
首張 1
實驗室 1
診 1
貢 1
第二季 1
軍官 1
邸 1
北起 1
中世纪 1
寺院 1
被判 1
嫌@@ 1
第九@@ 1
减 1
同治 1
委會 1
究 1
指導 1
侵犯 1
辞职 1
闊 1
現實 1
? 0.20662280718038736
奎 1
斯州 1
主義者 1
处长 1
尼亚@@ 1
巨人 1
司馬@@ 1
網球 1
腹 1
聞名 1
6% 1
吴 1
查理 1
雕像 1
科會試 1
諮 1
名義@@ 1
疆@@ 1
弗拉@@ 1
烏 1
那裡 1
截 1
当中 1
似的 1
有所@@ 1
記憶 1
躍 1
這段 1
運輸@@ 1
月刊 1
Linux 1
38@@ 1
綜藝 1
两名 1
区间 1
劉 1
授权 1
傾向 1
地理@@ 1
4% 1
庶 1
摧毁 1
编剧 1
17.@@ 1
兆 1
越来越 1
坏 1
得出 1
吉他 1
拆 1
虹@@ 1
伙 1
執 1
犹太 1
適用 1
涂@@ 1
高峰 1
事宜 1
認證 1
询 1
漢字 1
住房 1
漫 1
搶 1
运河 1
39@@ 1
相互@@ 1
大橋 1
繁忙 1
悉 1
安置 1
暂 1
允 1
防御 1
color 0.376942634830628
主義的 1
仅仅 1
十七年 1
签 1
附属 1
日舉行 1
查局 1
不利 1
汉语 1
叫@@ 1
电台 1
经典 1
同月 1
二戰 1
徐 1
一点 1
英寸 1
man 0.049807435132004835
工会 1
瓷 1
卡爾@@ 1
閘@@ 1
房子 1
崇拜 1
柯 1
吹 1
原料 1
骑 1
重視 1
政局 1
東區 1
瞄@@ 1
打击 1
负责人 1
凸@@ 1
慘@@ 1
礦 1
师范@@ 1
駛@@ 1
by 0.007213307016896234
360 1
重要性 1
岛屿 1
拉圭 1
鄭 1
拯救 1
隊長 1
单独 1
元首 1
科幻 1
尔河 1
一台 1
文革 1
面前 1
鸿@@ 1
武装@@ 1
韩 1
誰 1
v@@ 0.08251019112118789
会员 1
热带@@ 1
魁 1
os 0.047656140332368924
扫@@ 1
椎@@ 1
行政区域 1
战斗@@ 1
跨越 1
恒 1
塔尔 1
上校 1
辽宁 1
資金 1
感受 1
函 1
禪@@ 1
太祖 1
翰林院 1
共享 1
鹰 1
高级@@ 1
審查 1
普及 1
强大 1
這部 1
格斯 1
胞 1
台幣 1
姬@@ 1
短片 1
改稱 1
共产主义 1
群众 1
罗马尼亚 1
施行 1
海姆 1
欧洲@@ 1
增强 1
拒 1
写作 1
雕塑 1
老人 1
頻率 1
三大 1
假設 1
硬币 1
哈拉 1
终于 1
底層 1
In@@ 0.1032103242187671
攻占 1
发电@@ 1
戏剧 1
十八年 1
贴 1
配備 1
民主派 1
IC@@ 0.8000542734544426
夏威夷 1
乌斯 1
淺 1
領地 1
仿 1
国家级 1
蓄@@ 1
background 0.711000354122935
况 1
人文 1
獨特 1
要塞 1
一小 1
须 1
档@@ 1
SP@@ 0.8092357781051699
匣 1
談判 1
卜 1
攝影 1
β 1
日子 1
症狀 1
克森 1
城县 1
比利@@ 1
印度尼西亚 1
吉林省 1
监督 1
修訂 1
原址 1
太宗 1
週期 1
电脑 1
栋 1
鳳 1
大卫 1
影響力 1
货 1
鎖@@ 1
若干 1
扩建 1
收費 1
蓝色 1
蜂@@ 1
另一@@ 1
IS@@ 0.6407689505001095
来源于 1
義的 1
全市 1
呼籲 1
沿用 1
軒 1
逻辑 1
擺@@ 1
次子 1
站名 1
− 0.6199341848427599
格尔 1
醫師 1
愈@@ 1
禧 1
纵队 1
賭@@ 1
燃 1
勋 1
第二代 1
AC 0.5212606782171557
公車 1
大厦 1
認同 1
改进 1
附屬 1
癌症 1
道夫 1
德勒 1
燥 1
龄 1
擁 1
汶@@ 1
不佳 1
境內 1
核酸 1
四名 1
冒險 1
格雷 1
医学院 1
105 1
台南 1
布政使 1
边缘 1
大阪@@ 1
徹@@ 1
参议院 1
唇 1
局長 1
稳@@ 1
贯 1
邏@@ 1
и 0.006825621868255288
人均 1
建筑面积 1
仓 1
掠 1
罪名 1
奧運會 1
煤 1
对抗 1
彬 1
盜@@ 1
充分 1
分之@@ 1
中旬 1
法定 1
三角形 1
夾@@ 1
MO@@ 1
畫面 1
皆@@ 1
不知 1
天體 1
彙 1
径@@ 1
自動@@ 1
卖@@ 1
旅游@@ 1
率先 1
粵@@ 1
钢 1
一道 1
帖 1
口徑 1
重修 1
豬 1
成化 1
立法@@ 1
射击 1
农场 1
尋求 1
渠@@ 1
北路 1
時報 1
觀光 1
w 0.20126656316649155
劳动@@ 1
客运@@ 1
三十 1
山區 1
堅 1
更为 1
蛋@@ 1
逼 1
儒 1
售票 1
焦 1
勾@@ 1
昏@@ 1
镜头 1
枝@@ 1
RA@@ 0.7330631380025157
並由 1
爱德华 1
的话 1
350 1
动作 1
迫害 1
欲@@ 1
宋朝 1
保守@@ 1
地帶 1
殖@@ 1
青春 1
死去 1
现存 1
阿基@@ 1
西路 1
蘇聯@@ 1
利物浦 1
设在 1
国防@@ 1
接到 1
淡 1
贞@@ 1
糧@@ 1
關於 1
出兵 1
報道 1
輝@@ 1
濕@@ 1
秘魯 1
克萊@@ 1
聖經 1
芙@@ 1
陨坑 1
撤 1
8% 1
尼古拉 1
真实 1
约瑟夫 1
伪@@ 1
埃尔@@ 1
悠久 1
全美 1
瑞克 1
宅@@ 1
掛@@ 1
死者 1
坂 1
决议 1
寓@@ 1
潤 1
民籍 1
相較 1
黏@@ 1
萨克 1
第十 1
龍科 1
完善 1
生前 1
出发 1
東北@@ 1
插 1
提议 1
不如 1
手下 1
态度 1
決議 1
合作@@ 1
斯拉夫 1
束@@ 1
公交@@ 1
齒@@ 1
TE@@ 1
隔离 1
出賽 1
广州市 1
桥梁 1
给出 1
品質 1
机械@@ 1
书院 1
收录 1
限定 1
en@@ 0.036111315616570654
維護 1
center 0.26170754073637204
充滿 1
变种 1
纷 1
垣 1
推荐 1
採訪 1
名古屋 1
戏 1
董事长 1
怡 1
森堡 1
煙 1
狭@@ 1
滿足 1
值得@@ 1
探險@@ 1
浮 1
郑州 1
鍵 1
交换 1
洛杉矶 1
适 1
粤@@ 1
掠@@ 1
发明 1
杀害 1
黄河 1
j 0.3337328595959975
大队 1
客家 1
纸 1
趋@@ 1
信奉 1
景区 1
梨 1
代表大会 1
联合@@ 1
貨幣 1
一一 1
介入 1
島式 1
傷害 1
碼@@ 1
觀察 1
車場 1
使者 1
吳 1
中央军委 1
彗星 1
東縣 1
右翼 1
薩爾@@ 1
寄生 1
趁@@ 1
蜜 1
協定 1
海省 1
惑 1
7% 1
斯洛@@ 1
预计 1
竞争 1
股票 1
腺 1
仕@@ 1
IC 1
轉移 1
交通部 1
创始人 1
一件 1
咖@@ 1
生意 1
运转 1
1898 0.5699094716764476
马丁 1
實力 1
徹 1
縱 1
期望 1
藝術@@ 1
惟 1
戰術 1
輸出 1
夫卡 1
独特 1
磅 1
下旬 1
纖@@ 1
呼吸 1
恶 1
灰色 1
欠@@ 1
黄色 1
体现 1
北侧 1
响 1
焰 1
大師 1
氢 1
le 0.005953349794198807
下行 1
躲@@ 1
早已 1
君士坦@@ 1
懼 1
後期 1
占据 1
黑龙江省 1
咒 1
現為 1
並獲 1
女歌手 1
帆 1
意義 1
正確 1
公會 1
重點 1
鎊 1
镇压 1
迄@@ 1
晚間 1
資產 1
越南@@ 1
穗 1
匪 1
祖籍 1
圆形 1
獻 1
盒 1
认识 1
城市@@ 1
標本 1
胎@@ 1
员工 1
犬@@ 1
与其 1
勁 1
壯@@ 1
集团军 1
甲基 1
黄金 1
团长 1
改由 1
治理 1
案例 1
葡萄牙语 1
or@@ 0.06053894002650242
领地 1
os@@ 0.09906696741671249
混凝土 1
游客 1
音室 1
慧 1
是从 1
邀@@ 1
独立@@ 1
阔 1
年人 1
从此 1
粘@@ 1
推广 1
栖@@ 1
資助 1
荃@@ 1
建筑物 1
域名 1
前期 1
剧本 1
天氣 1
承担 1
1902 0.5148117007223376
駕駛@@ 1
逃亡 1
递@@ 1
休息 1
忘 1
神话 1
全程 1
該校 1
首部 1
MS 0.7153459707000867
巴拿@@ 1
檢測 1
薩斯州 1
局部 1
貨物 1
as@@ 0.07018860394064376
克拉克 1
新教 1
为止 1
里亚 1
瓣 1
交付 1
啦 1
邊境 1
j@@ 0.07137422907380381
多位 1
樂器 1
獲得@@ 1
總統@@ 1
墙@@ 1
毁@@ 1
改任 1
豫 1
开发区 1
认定 1
握@@ 1
姐姐 1
跋 1
皇室 1
研发 1
迎 1
雍正 1
鞋 1
甘肃省 1
築 1
滨 1
肌肉 1
武力 1
觉得 1
隙 1
欽@@ 1
典礼 1
挂@@ 1
长子 1
北京大学 1
变量 1
改用 1
马恩省 1
严格 1
寇 1
平方 1
明確 1
身高 1
業者 1
緣@@ 1
外觀 1
豬@@ 1
颶風 1
导师 1
er@@ 0.039205480656854114
前任 1
發明 1
訊號 1
随即 1
无症状 1
甸 1
小孩 1
诊@@ 1
劳动 1
形狀 1
影响力 1
债@@ 1
殿試 1
宰相 1
消費@@ 1
辅 1
浅@@ 1
卓 1
妥@@ 1
送往 1
惨@@ 1
最為 1
18.@@ 1
爪@@ 1
輸入 1
积分 1
無人 1
陆续 1
危险 1
洁 1
姐 1
觸 1
不幸 1
知名@@ 1
紹 1
雍@@ 1
遠鏡 1
形状 1
徐州 1
致力 1
依据 1
出發 1
舌 1
按察@@ 1
text 0.48191804226065377
出局 1
文本 1
梨@@ 1
配角 1
转向 1
只好 1
哈利 1
此後@@ 1
安妮 1
干涉 1
擴張 1
標賽 1
降落 1
孕@@ 1
昆 1
安人 1
彎@@ 1
赵 1
一词 1
达州 1
飛行@@ 1
族自治区 1
越來 1
法人 1
這一 1
电气@@ 1
研制 1
藝術家 1
公投 1
扩张 1
推薦 1
故此 1
並有 1
覽 1
第一届 1
矩阵 1
丞@@ 1
治安 1
防禦 1
企圖 1
射入 1
弓@@ 1
曝@@ 1
科進士 1
扁@@ 1
批复 1
遺產 1
1895 0.5742302603230308
不敢 1
歡 1
享受 1
十五@@ 1
器官 1
帶領 1
累積 1
鶴@@ 1
75@@ 1
一大 1
轟炸@@ 1
居委会 1
崇 1
水中 1
巴拉 1
贊助 1
乘車 1
桐@@ 1
确保 1
罪行 1
佛羅里 1
地处 1
出战 1
本來 1
z@@ 0.054439743634837355
印度洋 1
两位 1
败@@ 1
写道 1
对方 1
任內 1
网络@@ 1
赋@@ 1
總監 1
螢@@ 1
足够 1
緊急 1
勇士 1
含量 1
將領 1
各有 1
好評 1
相当于 1
體育@@ 1
遵守 1
22@@ 1
学堂 1
汁 1
樂園 1
水上 1
西站 1
數個 1
達州 1
闭 1
戰時 1
爾特 1
西元 1
太阳@@ 1
低于 1
打擊@@ 1
显著 1
级别 1
字率 1
战队 1
預測 1
书籍 1
利亞@@ 1
契 1
尼奥 1
í 0.34780724260749657
允@@ 1
递 1
段时间 1
玄 1
尼尔 1
竞选 1
频 1
收視 1
四人 1
65@@ 1
w@@ 0.06502152804982754
咀 1
耶路撒冷 1
措 1
首映 1
角逐 1
墟 1
統一 1
險 1
ic@@ 0.10216060799013599
喻 1
真相 1
颁发 1
摩尔 1
爬@@ 1
拘捕 1
瑪麗@@ 1
活性 1
AM 0.7318620315355567
南站 1
内蒙古@@ 1
半部 1
挑战 1
體育館 1
判決 1
第十一届 1
驶@@ 1
詳 1
飯@@ 1
18@@ 1
第一季 1
東亞 1
猶太人 1
贝格 1
這類 1
三種 1
同學 1
國務@@ 1
摧毀 1
接下 1
人稱 1
哥倫@@ 1
接下来 1
薪 1
酋@@ 1
姓名 1
殉@@ 1
思考 1
衣服 1
评论@@ 1
相近 1
鳴@@ 1
黎明 1
周刊 1
敘述 1
安东@@ 1
流通 1
獎賽 1
屠@@ 1
扣 1
水面 1
同期 1
葛 1
走廊 1
南侧 1
吾@@ 1
生日 1
州长 1
该站 1
军衔 1
環球 1
跌 1
纷@@ 1
隸@@ 1
腰 1
偽@@ 1
免疫 1
引進 1
沃尔@@ 1
阿姆@@ 1
兔 1
峡@@ 1
逸 1
交往 1
慰 1
賦@@ 1
重力 1
用地 1
蒙德 1
鋪 1
公国 1
圣母 1
面對 1
予@@ 1
偏 1
流亡 1
紐西@@ 1
富有 1
正教 1
穿著 1
試驗 1
劝@@ 1
循环 1
甚 1
等級 1
之際 1
仲 1
瓊@@ 1
撞@@ 1
伐@@ 1
警員 1
审判 1
研究员 1
勵 1
路军 1
AL@@ 0.8291336009449767
ü 1
臉@@ 1
人力 1
分歧 1
应用@@ 1
怨 1
超人 1
厅@@ 1
将会 1
斯大林 1
添@@ 1
不用 1
西藏@@ 1
南至 1
地质 1
喇嘛 1
押@@ 1
開放@@ 1
原作 1
坚 1
办公厅 1
夕@@ 1
直徑 1
物體 1
瑞拉 1
盲@@ 1
自杀 1
BO@@ 1
政治局 1
公平 1
巴克 1
鯨 1
標題 1
相连 1
視覺 1
野生 1
偿 1
發動機 1
马来@@ 1
鸡 1
规范 1
日益 1
气温 1
骸 1
膠@@ 1
DC 0.5414294606351039
职业生涯 1
軍人 1
多斯 1
构造 1
本魚 1
工商@@ 1
職員 1
俗稱 1
美術@@ 1
鱗@@ 1
ol@@ 0.08305581029721146
情報 1
马拉@@ 1
帳@@ 1
证实 1
宣称 1
監獄 1
俄亥@@ 1
凭借 1
执导 1
癸@@ 1
ed 0.022574501034614596
延續 1
指數 1
法律@@ 1
One 0.13966028151438728
影集 1
侠 1
禾 1
真菌 1
群体 1
夫斯 1
咨@@ 1
地表 1
し 1
泉州 1
瓦拉 1
MI@@ 1
海底 1
苗 1
卡區 1
Love 0.3311949862236813
責@@ 1
塗@@ 1
鏈 1
制片@@ 1
岛上 1
青山 1
竟@@ 1
熟悉 1
那麼 1
洛阳 1
培训 1
相邻 1
維斯 1
共產黨 1
闻@@ 1
心率 1
專用 1
财产 1
神经@@ 1
營業 1
直隶 1
火車 1
辐射 1
历史学家 1
夥@@ 1
直通 1
延安 1
漸 1
拉斯@@ 1
捉 1
星期六 1
第二天 1
盗@@ 1
凹@@ 1
分離 1
拓 1
彻底 1
菲利普 1
天津@@ 1
雞@@ 1
主教练 1
刊物 1
慮 1
建筑师 1
納入 1
前夕 1
怀 1
欧盟 1
中午 1
流浪 1
之地 1
保育 1
分局 1
足協 1
劇院 1
局面 1
所得 1
墅 1
微博 1
最具 1
曹 1
第一任 1
血管 1
高等教育 1
ス 1
各省 1
漢語 1
籍@@ 1
亚军 1
イ 1
岭@@ 1
山谷 1
憶 1
学位 1
橙@@ 1
联军 1
19.@@ 1
德克 1
盗 1
跟随 1
參賽@@ 1
轉乘 1
ation 0.029002603280722933
修正案 1
维斯 1
CA@@ 0.5886607236465442
机器 1
气压 1
国务@@ 1
一行 1
恭 1
肌@@ 1
济南 1
同事 1
桶 1
重播 1
分區 1
裁定 1
山上 1
巴勒斯坦 1
倍@@ 1
时报 1
硕士 1
事实上 1
繩@@ 1
苹@@ 1
貞 1
暫停 1
債@@ 1
包围 1
肉食性 1
傳奇 1
驅 1
哈德 1
地面积 1
村庄 1
行列 1
蒙特@@ 1
ā 1
入圍 1
墩 1
3.5 1
保护区 1
安東@@ 1
航線 1
糾@@ 1
鴨 1
德里克 1
主動 1
習慣 1
4000 1
织@@ 1
本劇 1
騎兵 1
更大 1
战胜 1
不及 1
乔 1
拋@@ 1
官兵 1
诺夫 1
日出 1
主人 1
少数@@ 1
西州 1
9% 1
願意 1
資本 1
高雄@@ 1
以东 1
删@@ 1
圓形 1
输 1
巴塞@@ 1
娘@@ 1
窟 1
英超 1
友好 1
情节 1
米亚 1
Co@@ 0.12979922078217337
行駛 1
难以 1
校园 1
达尔 1
BBC 0.4140149110173104
呢 1
库尔 1
貪@@ 1
司马 1
礙 1
勸 1
嬰@@ 1
种族 1
北端 1
气体 1
黎 1
十八@@ 1
綜合@@ 1
韻@@ 1
黑龙江 1
每月 1
聯絡 1
卯 1
有線 1
光明 1
彦@@ 1
開啟 1
大使馆 1
德军 1
车厢 1
Sh@@ 0.10569841710727916
正德 1
離子 1
冥@@ 1
体制 1
学术@@ 1
日文 1
僅次 1
旋律 1
郭 1
笑@@ 1
理性 1
腓@@ 1
龜@@ 1
传媒 1
倾@@ 1
大將 1
搭乘 1
二氧化@@ 1
大城市 1
疊 1
耶稣 1
价@@ 1
發揮 1
无线@@ 1
佛罗里@@ 1
轉變 1
钠 1
东风 1
栖息 1
態@@ 1
放射@@ 1
十年代 1
型號 1
延长 1
下去 1
內戰 1
召集 1
預 1
47@@ 1
ate 0.04093155385487778
雀@@ 1
啟動 1
娥 1
秘書長 1
胶 1
AD@@ 0.7452459932055088
十六@@ 1
阿斯 1
漏 1
並止 1
卸 1
詳@@ 1
挺 1
解放军@@ 1
蓝 1
质疑 1
ん 1
真人 1
Facebook 1
事务@@ 1
苏维埃 1
針@@ 1
展覽 1
理查德 1
砂 1
服务器 1
翻新 1
吋 1
World 0.05952865519722733
多元 1
婦女 1
气象@@ 1
产物 1
螺旋 1
小平 1
太空@@ 1
辅助 1
与此同时 1
狩@@ 1
新生 1
兩側 1
尚有 1
腓特烈 1
104 1
管道 1
一事 1
公頃 1
島上 1
日晚 1
安县 1
人权 1
分散 1
绪 1
密西@@ 1
尹 1
撰写 1
工會 1
攻擊@@ 1
欖@@ 1
齋 1
战士 1
省长 1
進行@@ 1
PS 0.5694172098429242
聲稱 1
刑部 1
輔助 1
见于 1
勳章 1
多少 1
寵@@ 1
巴尔@@ 1
戰艦 1
星期日 1
堪 1
格拉斯 1
这时 1
е 0.03986445299419742
鯰 1
幻 1
影帶 1
奉命 1
48@@ 1
分割 1
合金 1
肅 1
改成 1
农业@@ 1
拉尔 1
英格蘭@@ 1
贤@@ 1
提倡 1
六個 1
勃艮第 1
普罗@@ 1
种类 1
市鎮 1
恆 1
大理@@ 1
尺@@ 1
录制 1
-- 1
誘@@ 1
斯科@@ 1
特點 1
西德 1
三角@@ 1
新西兰 1
弗吉@@ 1
重新@@ 1
體育場 1
伊斯@@ 1
寫作 1
建设@@ 1
偷 1
励 1
基隆 1
摘@@ 1
桐 1
108 1
这项 1
從事 1
普森 1
沿線 1
县城 1
滅絕 1
歸類 1
淨@@ 1
现实 1
【 1
】 1
纵 1
粒@@ 1
闪@@ 1
石器 1
開辦 1
高速@@ 1
眾多 1
人工@@ 1
大選 1
奧爾@@ 1
海军@@ 1
面临 1
55@@ 1
军人 1
适用 1
關於@@ 1
哈尔滨 1
布局 1
场景 1
帽@@ 1
背面 1
透明 1
圣经 1
所知 1
效應 1
潔@@ 1
菊 1
叛乱 1
氮 1
這時 1
闻名 1
慰@@ 1
穩 1
师长 1
Microsoft 0.8245771839288181
倾向 1
幾 1
掃@@ 1
稻 1
ó 0.05269715415002515
公演 1
罗马帝国 1
册@@ 1
普鲁士 1
北上 1
舖 1
史料 1
秋季 1
买 1
协定 1
地带 1
撞擊 1
模拟 1
愛德華 1
集會 1
元件 1
改革@@ 1
物体 1
政变 1
特区 1
颜@@ 1
北站 1
弓 1
網上 1
券@@ 1
遍 1
移植 1
美術 1
苗栗 1
亞科 1
凰 1
旱 1
背鰭 1
轉為 1
例外 1
一职 1
強大 1
102 1
图案 1
鳴 1
庆祝 1
反射 1
牵@@ 1
近似 1
票率 1
制备 1
展览 1
众议院 1
An@@ 0.06090467172463202
文艺@@ 1
卸任 1
獅 1
宗座 1
編成 1
斯省 1
襲@@ 1
进步 1
适合 1
ac@@ 0.07083506843281387
塚 1
with 0.005977953641040888
以为 1
啤酒 1
棘@@ 1
蜘@@ 1
金星 1
链接 1
北伐 1
欢@@ 1
芬蘭 1
部曲 1
主播 1
н 0.13058445122445375
※ 1
兩條 1
比亚@@ 1
颁布 1
故意 1
现为 1
公顷 1
1896 0.5160951606618182
發音 1
衍 1
證券 1
和平@@ 1
ana 0.09082333875943477
俞@@ 1
交由 1
草地 1
晨@@ 1
棄@@ 1
妙@@ 1
1890 0.4852747002159018
加利福尼亚州 1
無人@@ 1
协调 1
岐@@ 1
怀疑 1
广播电台 1
招募 1
糊 1
装甲 1
具體 1
文學@@ 1
该校 1
输出 1
酒精 1
-@@ 0.11230203459492512
清廷 1
詔@@ 1
旅遊@@ 1
裝甲@@ 1
选为 1
亚美@@ 1
分区 1
梭 1
理事会 1
提琴 1
SH@@ 1
抗战 1
溯@@ 1
贾 1
一方面 1
以至 1
爪 1
荔@@ 1
蝙蝠 1
AG@@ 1
新村 1
栏 1
六世 1
喊 1
模擬 1
春季 1
牡@@ 1
踢 1
课@@ 1
維爾@@ 1
蓬 1
诏 1
46@@ 1
中國共產黨 1
蔽 1
年生 1
暴露 1
伺@@ 1
即將 1
蛋白质 1
慕容 1
波士 1
終止 1
行使 1
RI@@ 0.9415198735458139
瑚 1
頒發 1
淘@@ 1
缺陷 1
荊@@ 1
麥克 1
先进 1
巧 1
餅 1
氯 1
罹@@ 1
開業 1
互動 1
推進 1
时针 1
情緒 1
遊客 1
外交官 1
特尔 1
筑@@ 1
下來 1
评估 1
活跃 1
麦克@@ 1
慶祝 1
札 1
怡@@ 1
发射@@ 1
誕生 1
憤@@ 1
绕@@ 1
硕士学位 1
里奥 1
仗 1
操作系统 1
第一次世界大战 1
one 0.019521246406783637
内地 1
特徵@@ 1
乒乓@@ 1
切爾@@ 1
工作人员 1
德利 1
淨 1
侵略 1
墳 1
自称 1
韶@@ 1
主導 1
精英 1
龍類 1
瀑布 1
拉多@@ 1
ch 0.09498885484397011
名列 1
蒂斯 1
鳥類 1
事處 1
战场 1
撥@@ 1
音樂錄 1
領隊 1
103 1
南投 1
巴尔 1
绩 1
中等 1
膚 1
收回 1
工業@@ 1
深刻 1
斯科特 1
預定 1
鼻 1
section 0.22470209635510788
多家 1
位居 1
联合国@@ 1
緬@@ 1
支队 1
斬 1
伊斯兰教 1
前面 1
参考 1
斯卡 1
晴@@ 1
垃圾 1
論文 1
宪 1
摆@@ 1
纺@@ 1
北岸 1
火车 1
期徒刑 1
贵州@@ 1
种植 1
跑@@ 1
一般@@ 1
瀨@@ 1
擴大 1
詳細 1
统治@@ 1
主场 1
預算 1
丘陵 1
助攻 1
青海 1
寅 1
驻地 1
大堂 1
格鲁@@ 1
有机 1
am@@ 0.06550025626825809
董 1
New 0.032024157877885186
特朗@@ 1
威爾 1
故居 1
演讲 1
玩具 1
鄂 1
嚴格 1
護照 1
颁@@ 1
多部 1
ES@@ 0.6272152744833333
伊夫 1
相继 1
雙打 1
之为 1
假设 1
孔子 1
德川 1
船只 1
全數 1
公務@@ 1
遊戲@@ 1
1897 0.5022838639539671
組賽 1
布尔@@ 1
钦 1
吉斯 1
篮@@ 1
鴻 1
FC 0.1677001796867191
佩斯 1
杏@@ 1
第十二@@ 1
東南亞 1
優秀 1
斋 1
迈克尔 1
贏 1
中央委员会 1
多倫@@ 1
化学式 1
最少 1
行者 1
纠@@ 1
訟 1
工部 1
西岸 1
丈 1
埋 1
神经 1
虐@@ 1
进程 1
RO@@ 1
た 1
杉 1
深受 1
逝 1
LE@@ 1
at@@ 0.06236320076037614
览 1
搞 1
奇幻 1
回收 1
頭部 1
炸彈 1
連續劇 1
擔心 1
脫離 1
参考@@ 1
飲 1
列斯 1
阿塞拜@@ 1
宰 1
提議 1
規範 1
鼓励 1
发挥 1
克林@@ 1
卡罗@@ 1
塞尔维亚 1
斯里@@ 1
玫瑰 1
櫃 1
橫 1
示牌 1
企業@@ 1
打入 1
曾祖父 1
鱼类 1
漸漸 1
20.@@ 1
克雷@@ 1
評論@@ 1
收視率 1
辦法 1
单元 1
重庆市 1
鑑@@ 1
个人@@ 1
极大 1
錯@@ 1
Live 0.4440564197584881
教科@@ 1
魅@@ 1
绍 1
诸 1
待遇 1
穀 1
墨西哥@@ 1
從此 1
位列 1
AKB48 1
桿 1
码头 1
蓉 1
加泰@@ 1
判决 1
安德烈 1
释@@ 1
尼日@@ 1
斯蒂安 1
认可 1
寡@@ 1
當作 1
葡萄 1
騷@@ 1
溝通 1
痛苦 1
登堡 1
報紙 1
乌鲁@@ 1
柔 1
色情 1
通勤 1
以東 1
拿破仑 1
集中@@ 1
深圳市 1
彰@@ 1
米兰 1
斐 1
呼吁 1
清末 1
纂 1
总经理 1
立场 1
週年 1
在場 1
那样 1
齿@@ 1
开行 1
纪念碑 1
计算机@@ 1
巨星 1
总额 1
猎 1
驱逐@@ 1
宜蘭@@ 1
罗讷 1
圭@@ 1
高宗 1
暗示 1
中南部 1
49@@ 1
冶@@ 1
植物@@ 1
猪 1
目的@@ 1
財 1
北海 1
上空 1
ル 1
創建 1
十名 1
哈尔 1
浪漫 1
侨 1
区分 1
各界 1
為期 1
最快 1
清华大学 1
溝 1
經常@@ 1
部下 1
障碍 1
106 1
拿到 1
编制 1
愛荷華州 1
更換 1
设定 1
里奇 1
内外 1
维也@@ 1
弗雷 1
物理学 1
賽車 1
三十年 1
協調 1
甸@@ 1
猛 1
科斯 1
最長 1
械@@ 1
蝦 1
增設 1
遙@@ 1
中央电视台 1
消滅 1
漸@@ 1
ata 0.1456849490773835
僅有 1
净@@ 1
前进 1
彭 1
辞 1
撫@@ 1
几年 1
而已 1
一個區 1
公子 1
攝影@@ 1
貿@@ 1
刪@@ 1
創下 1
墓地 1
炮兵 1
紫 1
翅 1
崇禎 1
迦 1
天地 1
生态 1
高層 1
初中 1
日耳曼 1
正确 1
納粹 1
PS@@ 0.919641995216704
弦@@ 1
特急 1
一层 1
被俘 1
加勒比@@ 1
競選 1
崛@@ 1
う 1
噪@@ 1
母艦 1
遇上 1
判定 1
短篇 1
辭職 1
錦標 1
裹 1
炉 1
賠@@ 1
匈奴 1
垒 1
畢 1
萍 1
觉@@ 1
供應 1
壩 1
行程 1
工艺 1
违反 1
留学 1
首领 1
ot@@ 0.07362099832205593
屠殺 1
担心 1
牛斯 1
end 0.05442535012993614
翡翠@@ 1
帮 1
庶@@ 1
贈@@ 1
宗室 1
療@@ 1
弘治 1
夠 1
睡 1
葵 1
蜀@@ 1
中立 1
109 1
球員@@ 1
黎巴嫩 1
魚科 1
祇 1
GB 1
剩 1
客戶 1
猴 1
場景 1
滚@@ 1
繳@@ 1
可靠 1
蔬@@ 1
彪 1
身為 1
拉夫 1
剥@@ 1
胡同 1
蒋介石 1
NE@@ 1
转换 1
悟 1
中途 1
俱@@ 1
大名 1
乃至 1
蜥 1
懲@@ 1
季後賽 1
泄@@ 1
想到 1
欽 1
矢@@ 1
意志 1
纳德 1
綁 1
You 0.2325426524020791
辨 1
1200 1
宦@@ 1
ai 0.12421111126855769
慣@@ 1
紋@@ 1
融入 1
ie 0.05343864895706141
同位素 1
普拉 1
瓶@@ 1
峻 1
親王 1
顯著 1
棒@@ 1
喝@@ 1
础@@ 1
铺@@ 1
且@@ 1
RNA 1
兰州 1
恐 1
利语 1
部件 1
蜥@@ 1
克萨@@ 1
荡 1
44@@ 1
湯 1
170 1
滑冰 1
码@@ 1
蘿@@ 1
鮮 1
閱 1
1899 0.4663957416921264
湘 1
嵌 1
攻陷 1
凉@@ 1
東南@@ 1
AR 1
争 1
谭@@ 1
ina 0.08708293353837973
夹@@ 1
武昌 1
三星 1
淮 1
NO@@ 0.8263864571088071
就读于 1
論壇 1
郁@@ 1
es@@ 0.04811503543129732
僑 1
精靈 1
奸 1
羅馬尼亞 1
葡@@ 1
鉴 1
耿@@ 1
茎 1
浏@@ 1
第二个 1
俯@@ 1
莲 1
+@@ 1
107 1
恰 1
乞@@ 1
加密 1
彝@@ 1
旭@@ 1
淆 1
磁 1
0.5 1
Android 1
is@@ 0.06245033244389962
亂@@ 1
参 1
棉 1
砖@@ 1
窮 1
狙@@ 1
渐@@ 1
坞 1
UA 1
2.0 1
矮 1
廈@@ 1
EN@@ 1
酬 1
ID 1
误 1
辉@@ 1
韻 1
虞@@ 1
Music 0.1572695703790837
IP 0.8631758218147461
Mar@@ 0.0668057586276267
125 0.9718595860914171
穩@@ 1
大师 1
塢 1
妇@@ 1
董事@@ 1
US@@ 0.46306620865740644
倪@@ 1
纬 1
NHK 1
簡 1
术语 1
筋 1
汕@@ 1
崩 1
脏 1
鬚 1
喇@@ 1
1.2 1
烟 1
st@@ 0.05084303314699485
惯@@ 1
ME@@ 0.8317924553889977
豚 1
禅@@ 1
鱷 1
銅 1
显 1
芽 1
络 1
р 0.1469380902126723
虏 1
晰 1
狮@@ 1
眉 1
om@@ 0.07550084446782004
矩@@ 1
烯@@ 1
添 1
疫@@ 1
戚 1
と 1
详 1
侄@@ 1
冒 1
鹏 1
则@@ 1
招 1
築@@ 1
婉@@ 1
1889 0.5055162927281308
oc@@ 0.09848902483795931
阜@@ 1
烹@@ 1
da 0.03860983210480489
尼亚州 1
暖@@ 1
宴@@ 1
巢@@ 1
醉 1
些@@ 1
掃 1
榆@@ 1
祯 1
AN 1
蝕 1
聞@@ 1
禦@@ 1
僱@@ 1
氫 1
鹤@@ 1
菱 1
驚 1
璃@@ 1
silver 0.5289160791753079
SS@@ 0.835411147086352
悼@@ 1
枢@@ 1
喉@@ 1
罗斯@@ 1
School 0.06427350399458744
挽@@ 1
ラ 1
错@@ 1
IG@@ 1
BS 1
ö 1
怒@@ 1
疊@@ 1
骼 1
贏@@ 1
顛@@ 1
騙 1
擲 1
24.@@ 1
響@@ 1
• 0.6630884663207871
23.@@ 1
DS 0.7755395898640014
聰@@ 1
銘@@ 1
q 0.36102270567972955
症@@ 1
舟@@ 1
践 1
杖 1
鑽@@ 1
涌@@ 1
肆 1
Th@@ 0.10609268281463703
严 1
搶@@ 1
眉@@ 1
殖民@@ 1
饭@@ 1
115 1
ad 0.10538172595997035
腰@@ 1
潰 1
囊@@ 1
狗@@ 1
か 1
繩 1
顆@@ 1
奮@@ 1
蔓@@ 1
擦@@ 1
頸 1
旦@@ 1
騰 1
AT 0.7704132437669553
馮 1
淳 1
碗 1
浴@@ 1
恋@@ 1
可汗 1
描 1
禾@@ 1
鑼@@ 1
ER 1
64@@ 1
擦 1
笛 1
21.@@ 1
娜@@ 1
瞬@@ 1
68@@ 1
孚 1
暢@@ 1
镜@@ 1
廚@@ 1
穎 1
舶 1
200@@ 0.9528709390455725
拨@@ 1
爛 1
450 1
戎 1
渤@@ 1
弧@@ 1
猴@@ 1
盾@@ 1
111 1
IM@@ 0.8746896173964505
漆 1
莖 1
蝴@@ 1
彦 1
搞@@ 1
EP 0.3796280741741005
纹@@ 1
嵌@@ 1
爸 1
痕 1
砖 1
硫 1
箱@@ 1
卧@@ 1
嗎 1
崗@@ 1
西班@@ 1
ad@@ 0.04892278814798378
CR@@ 1
钻@@ 1
説 1
哭 1
辣@@ 1
瓷@@ 1
氛 1
杆@@ 1
简 1
郝@@ 1
th@@ 0.05773191783574078
遞@@ 1
跌@@ 1
姑 1
啡@@ 1
67@@ 1
污 1
狐@@ 1
酰@@ 1
43@@ 1
丛@@ 1
庙@@ 1
墜@@ 1
咸 1
毅@@ 1
氟 1
檢 1
诱@@ 1
CH@@ 0.6573297270894328
瑙@@ 1
淋@@ 1
Le@@ 0.08432188994878995
辑@@ 1
楠 1
哇 1
疲@@ 1
慕 1
颗 1
蚀 1
輯@@ 1
抓 1
禍 1
99@@ 1
姊 1
220 1
腐 1
賈 1
喙 1
に 1
1860 0.4992661874093216
22.@@ 1
cm 0.2502337841203247
赣@@ 1
孢@@ 1
叠 1
譴@@ 1
1880 0.450340861800349
谁 1
壤 1
涼@@ 1
鵬 1
潛 1
沪@@ 1
湿 1
妾 1
愉@@ 1
int 0.8323962931607313
彻@@ 1
陇@@ 1
旬 1
祁@@ 1
​ 1
ae 0.16128911170113017
汤 1
渐 1
1600 1
SA@@ 0.5846269707487823
Car@@ 0.08617559657299935
渦@@ 1
謙 1
凶@@ 1
AV 1
Con@@ 0.08215814969469853
MP@@ 0.670481582728653
な 1
邢@@ 1
凤 1
陰 1
誓@@ 1
骚@@ 1
翻 1
凌 1
鱂 1
西洋 1
畜@@ 1
敖@@ 1
誼 1
樊@@ 1
趾 1
峽@@ 1
240 1
役@@ 1
25.@@ 1
1800 0.7106658153469259
挝 1
傍@@ 1
雁@@ 1
嫡@@ 1
La 0.012800499942545005
1894 0.4689565565500131
繞@@ 1
赔@@ 1
聊@@ 1
112 1
胃@@ 1
奋@@ 1
踐 1
Par@@ 0.0941395288066178
Me 0.3207654310818189
Ex@@ 0.12927813844982639
′ 1
煽@@ 1
ト 1
谴@@ 1
谱@@ 1
针@@ 1
1871 0.5006440462462929
58@@ 1
る 1
are 0.011309731998988373
ica 0.11709469115791489
蟻 1
TVB 1
赠@@ 1
1870 0.4198685671043113
醛 1
缀 1
Tr@@ 0.07622675485552119
症状 1
脈@@ 1
4.5 1
献 1
铭 1
ap@@ 0.06635687112185598
意味@@ 1
辽 1
唇@@ 1
弼 1
叢@@ 1
悅 1
渭@@ 1
绿 1
CD@@ 0.7449694723971617
甄@@ 1
56@@ 1
AI@@ 0.6589136699648754
凰@@ 1
哩 1
輩 1
Xbox 1
仆@@ 1
0.0@@ 1
樟@@ 1
拱 1
罵 1
瑟夫 1
ul@@ 0.06602253333465434
克尔 1
栗@@ 1
David 0.10894434901876277
预 1
VI@@ 0.929112009710996
邯@@ 1
un@@ 0.024995402194472178
碱@@ 1
衙@@ 1
贊 1
St@@ 0.07458802276779156
瘋@@ 1
峙 1
杯@@ 1
赏@@ 1
DE@@ 0.7491292933220285
漿 1
丟@@ 1
织 1
脹 1
抽 1
57@@ 1
紮 1
练 1
虽 1
贞 1
it@@ 0.05531144822338877
飼@@ 1
疼@@ 1
泌 1
茵@@ 1
削 1
天堂 1
憂@@ 1
诏@@ 1
勢@@ 1
塞尔@@ 1
婦@@ 1
讼 1
牺@@ 1
駕@@ 1
迅 1
PO@@ 1
贪@@ 1
胸 1
畜 1
障@@ 1
萌@@ 1
128 1
兔@@ 1
匿@@ 1
婿 1
è 1
颇@@ 1
畏 1
婷 1
剿 1
挺@@ 1
Cor@@ 0.10561516934374413
棍@@ 1
International 0.08339735710161177
University 0.03668980170821968
ers 0.026889613095024037
De@@ 0.10285856061907787
巩@@ 1
巫 1
颇 1
In 0.0067198901144873945
袍 1
蘆@@ 1
阅 1
id@@ 0.07129983379375378
98@@ 1
衷 1
輿@@ 1
饶@@ 1
肿@@ 1
闆 1
壯 1
抛@@ 1
26.@@ 1
扳@@ 1
MA 0.5424822641209706
您 1
薯 1
罰@@ 1
碱 1
遂@@ 1
寇@@ 1
95@@ 1
尋 1
赐@@ 1
son 0.013786961112734109
遥@@ 1
ine 0.052796975323654606
朔@@ 1
屍 1
溃 1
却@@ 1
藻@@ 1
虜 1
剝@@ 1
琦 1
撐 1
检 1
润@@ 1
粮 1
27.@@ 1
鍵@@ 1
究@@ 1
缅@@ 1
保护@@ 1
DO@@ 0.9249894655749009
亥@@ 1
朋@@ 1
с 0.011521206448325536
IS 0.745375447341316
駿 1
狐 1
der 0.0023782213278245546
6000 1
懂 1
经理 1
胤 1
人口@@ 1
BA 0.6265571992456123
Se@@ 0.08537481948448059
ah 0.12180152051846094
1885 0.43369888644455956
AB@@ 0.7544318514849467
拾 1
ur@@ 0.06080451917551124
稚 1
犧@@ 1
ab@@ 0.03505721862307716
騰@@ 1
尼古@@ 1
疇 1
闖@@ 1
衞 1
矣 1
磡 1
幣@@ 1
銳 1
势@@ 1
酉 1
笠 1
竭 1
斥@@ 1
估 1
捐 1
谊 1
鮋 1
帜 1
88@@ 1
廓 1
肖 1
卑 1
頸@@ 1
貸@@ 1
簿 1
隶@@ 1
201 1
IT@@ 0.8127126762352662
肌 1
阜 1
ma 0.10487153297395178
轟 1
暑@@ 1
茵 1
乱@@ 1
栏@@ 1
28.@@ 1
隱 1
惯 1
潤@@ 1
85@@ 1
埼 1
畿 1
撲 1
粟@@ 1
芦@@ 1
讯@@ 1
聂@@ 1
谓 1
宛@@ 1
南省 1
ph@@ 0.09348803617865464
缘@@ 1
喀 1
禄@@ 1
抄 1
奥林匹@@ 1
旱@@ 1
re@@ 0.016278469939753043
挖 1
Br@@ 0.08905158462295615
翠 1
喚 1
孟 1
愤@@ 1
坪@@ 1
账@@ 1
擾@@ 1
拒@@ 1
78@@ 1
膀 1
腸 1
横 1
謠 1
SA 0.41200520382336336
大战 1
阎@@ 1
堵 1
PE@@ 1
320 1
臭@@ 1
碧 1
FI@@ 0.5876347975514796
et@@ 0.056329475431631304
蕉 1
弯@@ 1
Mac 0.9191377167323389
誕 1
氫@@ 1
鯛 1
汶 1
鞭@@ 1
暹@@ 1
澄 1
韵@@ 1
Team 0.17246402097455107
阴 1
135 1
280 1
溝@@ 1
釜@@ 1
膽 1
蛤@@ 1
芙 1
郁 1
饼 1
垂 1
柴 1
230 1
薇@@ 1
爽 1
湛@@ 1
ang 0.1363832916592436
籌 1
勸@@ 1
颠 1
113 1
抬@@ 1
牆@@ 1
蛾 1
ti@@ 0.057634997725650707
66@@ 1
1.6 1
簧 1
食性 1
詠 1
醉@@ 1
ク 1
舆@@ 1
SS 0.3391708024284916
ref 0.5186764329351619
屈 1
ア 1
Saint 0.05445758097260416
慾 1
_@@ 1
幟 1
罚@@ 1
辑 1
59@@ 1
络@@ 1
鸣 1
濤 1
Vi@@ 0.22226813247101865
淵 1
特勒 1
十一@@ 1
桿@@ 1
啊 1
〜 1
梓@@ 1
190 1
緯 1
塾 1
缓 1
贺 1
ta 0.06793579336188175
瞭@@ 1
橘@@ 1
爬 1
ä 1
绵@@ 1
ic 0.06139519485695259
痕@@ 1
泊@@ 1
孜@@ 1
1.8 1
乏 1
煮 1
慎@@ 1
堵@@ 1
宙@@ 1
毓@@ 1
芯@@ 1
7.5 1
り 1
桓 1
述@@ 1
喝 1
il@@ 0.06717300903073804
be 0.01154429113548616
宵 1
sh@@ 0.056875711856964876
釣@@ 1
CC 0.6705396908186632
晴 1
旭 1
脉@@ 1
吞 1
贼 1
賦 1
Twitter 1
di@@ 0.05018526658751368
侨@@ 1
贸 1
憂 1
le@@ 0.05242369172435729
謙@@ 1
亚历@@ 1
僵@@ 1
晓 1
т 0.07659391628534364
リ 1
沛 1
鸣@@ 1
肤 1
砌 1
娃@@ 1
匙 1
综@@ 1
趙@@ 1
遜@@ 1
榄@@ 1
雯 1
123 1
ps 0.1557514984615631
1892 0.4058536009510351
臥@@ 1
廁@@ 1
互 1
链@@ 1
77@@ 1
蓄 1
Di@@ 0.09085358375286898
IV 0.19831319988878354
001 1
淳@@ 1
贷@@ 1
迈 1
鵝@@ 1
氰@@ 1
0.00 1
閩 1
lo@@ 0.06811297882406951
惩@@ 1
濫@@ 1
肩 1
兇@@ 1
胚@@ 1
孩@@ 1
牢@@ 1
29.@@ 1
CE@@ 0.46282460904308914
My 0.2613344389072918
1893 0.39780814826072686
沈 1
混 1
121 1
迭@@ 1
阀 1
姿 1
AP 0.5573472964600774
框 1
舒 1
斩@@ 1
諸 1
懿 1
締@@ 1
臉 1
巡洋@@ 1
泗@@ 1
铭@@ 1
帮@@ 1
滇@@ 1
蒼@@ 1
賜@@ 1
氮@@ 1
溉 1
悟@@ 1
は 1
腾 1
210 1
殊 1
di 0.10467434521638314
IP@@ 0.9217251421876463
that 0.005199868346354914
扮 1
贫 1
闢 1
ag@@ 0.05029472268155619
諭 1
114 1
淚 1
捍@@ 1
RT 0.8347134913745005
琛 1
胆@@ 1
Type 0.7698182327920327
op@@ 0.06597914278871089
饥@@ 1
届@@ 1
廈 1
煉 1
69@@ 1
肃@@ 1
遲@@ 1
擠 1
TV@@ 0.7381732797710491
膜@@ 1
CS@@ 0.6008972117554682
Cl@@ 0.23650691957244394
岑@@ 1
匈牙@@ 1
1884 0.44469355228085644
褒@@ 1
Pro 0.38475429026502234
瀏@@ 1
悔 1
邁 1
塑 1
犁 1
潟 1
陞 1
瑙 1
1887 0.4354815068581628
悠@@ 1
侣 1
1886 0.4295214062066197
Li@@ 0.14142036716765471
赋 1
MC 0.6600474314905707
蕊 1
哉 1
鳞@@ 1
54@@ 1
啓 1
愚@@ 1
爸@@ 1
iOS 1
握 1
镑 1
渊 1
錶 1
刃 1
崗 1
堯 1
渴@@ 1
阔@@ 1
William 0.08009559874702644
硅@@ 1
巾 1
吐 1
駕 1
118 1
稜 1
53@@ 1
祠@@ 1
堤@@ 1
廳@@ 1
毕 1
趕 1
Game 0.3286936046502339
堀@@ 1
赦 1
醒@@ 1
Bo@@ 0.10808438474632998
1888 0.40866369934928287
was 0.0022375236749103584
Be@@ 0.07390247123394802
ec@@ 0.06654603410584611
拖 1
奢@@ 1
斤 1
页@@ 1
Me@@ 0.1120974462184618
En@@ 0.08719971822211722
橢@@ 1
碘 1
AL 0.9201924356455249
殼@@ 1
禪 1
atus 0.30113656668209743
傘 1
UB 1
淵@@ 1
聰 1
加勒@@ 1
沧@@ 1
纲@@ 1
117 1
James 0.08537384288206715
吕 1
腸@@ 1
ak 0.10137106250979291
750 0.9848136992630372
ity 0.05128821170408298
睹 1
伪 1
譜@@ 1
责@@ 1
憾 1
盈 1
挪@@ 1
醜@@ 1
新西@@ 1
浅 1
蛛@@ 1
Group 0.12717475694458868
苍@@ 1
CA 0.4803631219014232
涡@@ 1
冊@@ 1
滴 1
1861 0.4399260073180557
谐 1
債 1
缴@@ 1
肅@@ 1
棍 1
ED@@ 1
from 0.0054991182117563155
ya 0.03781019560532774
檔@@ 1
狄 1
茅 1
饭 1
5.5 1
緯@@ 1
弊 1
塵 1
倭@@ 1
大革命 1
枯@@ 1
勉@@ 1
嘲@@ 1
л 0.0674850088416709
癒 1
穷 1
1876 0.4467722112706093
116 1
2500 1
墾 1
忧 1
愛爾@@ 1
淹@@ 1
韵 1
li@@ 0.0577859984445517
肺 1
122 1
薦 1
朴 1
Open@@ 0.9002660550667783
檐 1
閣@@ 1
胆 1
129 1
哨 1
違 1
坠@@ 1
茱@@ 1
羅馬@@ 1
梧@@ 1
瑚@@ 1
肢@@ 1
ay 0.0929553947054967
亭@@ 1
ton 0.06122595215765156
禹 1
鑽 1
锋@@ 1
閒 1
盆 1
髓 1
辆@@ 1
捨 1
詮@@ 1
AS 0.37730737880475135
擒 1
閒@@ 1
124 1
抨@@ 1
na 0.05744160209948938
姊@@ 1
if 0.08082693305110475
劣@@ 1
锐 1
奕 1
в 0.002754316831382189
ISO 1
际@@ 1
畏@@ 1
踢@@ 1
魂@@ 1
絡 1
祂 1
紡@@ 1
胀 1
79@@ 1
铎 1
li 0.20197254150601102
抒@@ 1
霹@@ 1
诚@@ 1
1.3 1
CI@@ 0.5532231555364504
淀@@ 1
祕 1
A1 1
主义@@ 1
士学位 1
127 1
iPhone 1
陪 1
阐@@ 1
1891 0.3773848939263921
衫 1
Qu@@ 0.09781137797583148
馨 1
綽@@ 1
霞@@ 1
do 0.04534513134938228
犀@@ 1
к 0.02404681829748507
让@@ 1
擢 1
301 1
庐@@ 1
职业@@ 1
憑@@ 1
em@@ 0.052038213405357706
ATP 0.7252299488236064
76@@ 1
漲 1
獸@@ 1
寂 1
跃@@ 1
歼@@ 1
蒿 1
博物@@ 1
ley 0.06246079601127288
ra 0.05573911995790197
勁@@ 1
儲 1
坝@@ 1
瑾 1
嚇 1
崑 1
鄒@@ 1
叠@@ 1
襪 1
閘 1
〔 1
勳@@ 1
钾 1
〕 1
剌 1
260 1
肪 1
Col@@ 0.08751572108628498
丑@@ 1
諜 1
酿@@ 1
稽 1
绑@@ 1
頌 1
奧運@@ 1
峽 1
圭 1
1850 0.4346943347619209
Ne@@ 0.09684185081683523
妓@@ 1
棱@@ 1
1.1 1
ter 0.03919353947896669
蹄@@ 1
駒 1
TS 0.8562162717192887
tr@@ 0.03801993013101994
撕@@ 1
填 1
to@@ 0.07398175108183491
緻 1
捉@@ 1
猪@@ 1
菲利@@ 1
Robert 0.08654352583954691
IT 0.7705950327327377
禧@@ 1
El@@ 0.08260479253618269
烤 1
鑄@@ 1
弄@@ 1
浙 1
浆 1
鰍 1
滤@@ 1
担 1
1883 0.4331554923835205
ed@@ 0.07171156772044399
璧 1
醬 1
Paul 0.07785903949655529
掀@@ 1
腫@@ 1
菇 1
1862 0.4253909938119595
蜒 1
Mo@@ 0.10808170671899972
卦 1
縫 1
盔 1
贬@@ 1
CO 0.7012004673674527
岱 1
郑 1
IBM 0.9659505289159238
閥 1
荃 1
淪@@ 1
询@@ 1
漆@@ 1
ka 0.07985378603799209
1868 0.43743977543207513
鈞 1
ッ 1
莞 1
使用@@ 1
籃 1
鱸@@ 1
Java 0.8478108046575801
雾 1
慌 1
鸚@@ 1
74@@ 1
Ge@@ 0.1154844315021554
SU@@ 1
擇@@ 1
檀@@ 1
桌 1
欠 1
歇 1
艰@@ 1
BC 0.2768476993776
办公@@ 1
共產@@ 1
净 1
菱@@ 1
ST 1
扑 1
崔 1
蜿@@ 1
膏 1
窑 1
US 0.05068088474036093
孚@@ 1
狮 1
Apple 0.5706744604202928
有限@@ 1
矢 1
驳 1
议院 1
ま 1
μ 1
絡@@ 1
炼 1
羟@@ 1
貿 1
CP 0.9026841619615588
滲@@ 1
TA 0.5254576399718508
綜@@ 1
颜 1
饱@@ 1
舜@@ 1
弃@@ 1
闸 1
Michael 0.10226283269364923
Super 0.20881639055266865
滚 1
@ 1
1867 0.41894473208617045
凉 1
牲@@ 1
寄 1
嘎@@ 1
砍@@ 1
さ 1
喉 1
磷 1
婴@@ 1
帳 1
NH@@ 1
赦@@ 1
耕 1
闲 1
优 1
峡 1
浴 1
ent 0.02411278754103028
瑛 1
侏@@ 1
撑 1
委员@@ 1
悦 1
ea 0.1344179682985097
動機 1
de@@ 0.04007673977911592
un 0.003916529834862344
凍 1
凭 1
co@@ 0.0475639102290239
渝 1
Mc@@ 0.08151759764311682
茹 1
霆 1
550 1
缪@@ 1
罐 1
² 0.08613751713555942
惧 1
椭@@ 1
盆@@ 1
普查 1
湧@@ 1
貼@@ 1
1848 0.38322138834527586
趁 1
116@@ 1
SM@@ 1
330 1
1873 0.4227888685327
淹 1
奧林匹@@ 1
猿 1
1878 0.38056260729275354
专 1
居民@@ 1
DA 0.5931655715669147
膛 1
襄 1
ella 0.09880606744325723
ا 0.7991033283818292
篡@@ 1
溶 1
禹@@ 1
鞋@@ 1
ara 0.09992515324755581
が 1
DJ 0.5446646530743993
て 1
My@@ 0.27720304643588034
僑@@ 1
鞏@@ 1
145 1
朔 1
se 0.00541911257415831
涼 1
汪 1
浸 1
Oricon 1
擺 1
諡 1
笼 1
National 0.036232957090239055
1864 0.3904158457445316
1879 0.4058057444306966
悼 1
碩@@ 1
1.4 1
四川@@ 1
EX@@ 1
au 0.00934749542379745
牢 1
翔@@ 1
锁@@ 1
GDP 1
钩 1
1877 0.41778724766799025
笼@@ 1
缝 1
莽 1
实验@@ 1
き 1
苔 1
穷@@ 1
羞@@ 1
袋@@ 1
96@@ 1
Un@@ 0.09236220101395956
療 1
AK@@ 1
剖@@ 1
甜 1
des 0.002818349891248235
te 0.02165618941908157
鴉@@ 1
彎 1
窩 1
SM 1
狸 1
ir@@ 0.055957491770658646
RS 0.5978495124718576
迅@@ 1
蕩 1
CPU 1
丢@@ 1
屡@@ 1
畅@@ 1
虞 1
岐 1
6.5 1
8000 1
ro@@ 0.05525944528126216
Com@@ 0.09240840887460419
皖@@ 1
禽 1
芜@@ 1
颗@@ 1
择@@ 1
激 1
綴 1
Am@@ 0.08392908185325282
泵 1
土耳@@ 1
雇 1
Bar@@ 0.06520997823651903
ION 1
im@@ 0.04216246247381124
匡@@ 1
掉@@ 1
琅 1
芯 1
蔚@@ 1
欢 1
庚 1
溢@@ 1
1875 0.4088883422950249
肃 1
For@@ 0.10162364167327384
re 0.050344875756243974
NT@@ 1
650 1
釐 1
1865 0.38858729112972235
刷 1
涨 1
籠 1
1882 0.38710825119445075
杭 1
City 0.0460208796523593
肠 1
Ro@@ 0.10075230287148419
32@@ 1
晤@@ 1
剪 1
畴 1
酵 1
宰@@ 1
1881 0.37789166630268384
挡 1
茜 1
鹃 1
磚@@ 1
集团@@ 1
ong 0.11146376603873762
糧 1
隕@@ 1
AD 0.38913350802463903
秘 1
綿@@ 1
霧@@ 1
Per@@ 0.07760464545859795
鬧 1
冤@@ 1
傲 1
仑 1
鸿 1
滴@@ 1
胰@@ 1
鰓 1
F1 1
Ac@@ 0.12659261673977557
谥@@ 1
酵@@ 1
堊@@ 1
窦@@ 1
虐 1
海道 1
樸 1
邹@@ 1
ler 0.04810832950363988
Go 0.491098896621754
ite 0.06566578794398964
蝠@@ 1
礁@@ 1
onlyinclude 0.4019625001616932
岁@@ 1
戚@@ 1
175 1
ne 0.026091590604256327
梓 1
岑 1
墮@@ 1
麾@@ 1
2.2 1
孵@@ 1
猶 1
碍 1
糟@@ 1
ME 1
运会 1
迟@@ 1
喻@@ 1
126 1
GO@@ 1
邱 1
汾@@ 1
呂 1
曉 1
og@@ 0.09778642869839807
棵 1
濕 1
鹤 1
HK@@ 1
姜 1
鍊 1
宠@@ 1
菸 1
SI@@ 0.8719700533985587
俾@@ 1
鰕 1
逗@@ 1
ang@@ 0.07173626025990064
挫@@ 1
敷 1
钧 1
Te@@ 0.1137919884229965
name 0.037304810774233726
罗马@@ 1
鹅 1
MTV 0.616867452028468
扇@@ 1
贴@@ 1
顱 1
ol 0.10796296506273129
155 1
q@@ 0.1910832074592687
埗 1
辈 1
黜 1
趨 1
奸@@ 1
莓 1
87@@ 1
蚌@@ 1
鑒 1
蔭@@ 1
1874 0.39916143219983874
Entertainment 0.2919115555582616
彻 1
63@@ 1
Ver@@ 0.038889318591667506
裙 1
豁@@ 1
焊@@ 1
頜 1
30.@@ 1
CS 0.5863361259392851
炼@@ 1
YO@@ 1
age 0.024106885741461054
119 1
企 1
1840 0.4584223923714069
1863 0.38161279200685566
苻 1
詐 1
諧 1
飾@@ 1
岬 1
支持@@ 1
Mac@@ 0.13821073740683099
ら 1
虫@@ 1
THE 1
380 1
蕨@@ 1
ob@@ 0.07003459301258864
攔@@ 1
篤 1
叙 1
7000 1
烃 1
シ 1
脆@@ 1
蕭 1
Netflix 1
Str@@ 0.08694456310876457
喪 1
矛@@ 1
偽 1
谦 1
阱 1
壟@@ 1
1872 0.39628271060935116
袁 1
斬@@ 1
CT 1
System 0.21293323032889472
86@@ 1
箕 1
HK 1
陡@@ 1
LED 1
卸@@ 1
As@@ 0.09203024967602978
霜 1
270 1
ing@@ 0.0684920768376586
艱@@ 1
鸭@@ 1
Pr@@ 0.08580568567494039
屢@@ 1
昏 1
腎@@ 1
厭@@ 1
HO@@ 1
駛 1
澀 1
杂 1
貶@@ 1
紧 1
羌 1
骗 1
19@@ 0.9099546603187914
聶@@ 1
酚 1
芹 1
EST 1
鸦@@ 1
ng 0.6115110484788513
哀 1
帛 1
巳 1
ON@@ 1
ak@@ 0.05927230387022307
媒 1
鹰@@ 1
祿@@ 1
哭@@ 1
厲 1
碘@@ 1
鰻 1
扶 1
鶴 1
华盛@@ 1
屑 1
不得@@ 1
It 0.01152057690914989
Unicode 1
汀@@ 1
讽@@ 1
89@@ 1
吉林@@ 1
稽@@ 1
楠@@ 1
沦@@ 1
铝 1
炒@@ 1
114@@ 1
SD@@ 0.970576173032531
St 0.12097741506845901
咬@@ 1
闸@@ 1
娟 1
孜 1
寸 1
緒 1
虑 1
鋒@@ 1
152 1
Mon@@ 0.06752950650001414
盪 1
遺 1
盲 1
嵩 1
椰@@ 1
Metacritic 1
篷 1
All 0.06707783645726019
po@@ 0.05291647539691983
姦 1
禱 1
George 0.06952128629086757
梳@@ 1
闡@@ 1
饒 1
頌@@ 1
濒 1
萼 1
俠@@ 1
th 0.049366170176398154
ty 0.06860294930058666
壹 1
嫌 1
begin 0.3832784432001758
く 1
轩 1
AV@@ 1
禅 1
簽 1
茹@@ 1
棣 1
衔@@ 1
39.@@ 1
UT@@ 1
媛 1
槟@@ 1
琼 1
OVA 1
駿@@ 1
齋@@ 1
玲@@ 1
2.4 1
CE 0.5455634527740677
亥 1
加拿@@ 1
稣@@ 1
EM@@ 0.964868606988567
醚 1
鬱 1
鹹 1
137 1
AI 0.9207537558703414
NA 0.547270835056884
司令@@ 1
im 0.006245378077244592
夥 1
酪 1
Or@@ 0.08184743011905504
Sch@@ 0.038422917805073405
孤 1
幌 1
绥 1
跤 1
浚 1
Cr@@ 0.11894951895690545
kg 0.2962225198847035
兽@@ 1
湛 1
钓@@ 1
皋 1
陛@@ 1
no@@ 0.08197018060914525
妨@@ 1
缮 1
165 1
袭@@ 1
鱷@@ 1
を 1
賺 1
傀@@ 1
幡 1
ator 0.06803254801633418
84@@ 1
舅@@ 1
淫 1
趣@@ 1
LE 1
濾@@ 1
括@@ 1
Club 0.06796993930441142
坏@@ 1
Office 0.2286123113717789
尉@@ 1
帖@@ 1
够 1
si@@ 0.08143802886135451
曙@@ 1
忆@@ 1
厌@@ 1
跋@@ 1
鵝 1
COVID 0.29615648106350023
Ph@@ 0.14642643836282876
淑 1
滙 1
漠 1
衰 1
锅@@ 1
猩@@ 1
117@@ 1
怨@@ 1
盎@@ 1
漠@@ 1
釀@@ 1
龟 1
131 1
鲜 1
侵 1
窮@@ 1
嫩 1
葫@@ 1
1869 0.3910746441348515
巨 1
粗 1
辯 1
徑@@ 1
97@@ 1
妖 1
傘@@ 1
傲@@ 1
尸 1
甫@@ 1
驱 1
IN 1
磚 1
Time 0.22638758300835496
av@@ 0.050524931570389855
圳 1
奕@@ 1
us@@ 0.04666453009348095
1866 0.3035410956352211
GO 1
瑶@@ 1
蘇格@@ 1
Mark 0.1519869450604451
麒@@ 1
カ 1
匈@@ 1
羌@@ 1
width 0.6083243201756285
剿@@ 1
1300 1
鯨@@ 1
戟 1
侮@@ 1
こ 1
渗@@ 1
龚@@ 1
閻@@ 1
塵@@ 1
丧 1
寻 1
尧 1
瘟@@ 1
蠻 1
all 0.01742317624916342
溴@@ 1
BM@@ 0.748699217850937
壶 1
膽@@ 1
炬 1
辣 1
γ 1
EL@@ 0.9665701462710483
闵@@ 1
掘@@ 1
NET 1
恕 1
剌@@ 1
On 0.018326985963404086
丙 1
参谋@@ 1
峨@@ 1
CC@@ 0.447908801712316
妈 1
紳 1
鈴 1
僕 1
贿@@ 1
頜@@ 1
弧 1
737 1
崁 1
财 1
沫 1
阪@@ 1
晃 1
錐@@ 1
Center 0.10352204065129046
Co 0.2696022796778857
琵@@ 1
鎌 1
132 1
疯@@ 1
ts 0.029229325835269715
205 1
Show 0.2196209929603688
赌@@ 1
冕@@ 1
拦@@ 1
奮 1
理事@@ 1
碩 1
汞 1
烏克@@ 1
諷@@ 1
譬@@ 1
卻@@ 1
渊@@ 1
揮@@ 1
洽 1
隐 1
肾@@ 1
ON 1
逢@@ 1
沁@@ 1
MS@@ 0.5870920263547612
み 1
峇 1
鷹@@ 1
雨量 1
莆@@ 1
Lo@@ 0.1084649272157013
瑜@@ 1
溴 1
PA 0.3576003929413964
阮 1
38.@@ 1
me 0.054081285863206624
Park 0.0636431661908198
介石 1
濒@@ 1
酋 1
桨 1
1.7 1
袖@@ 1
138 1
144 1
姚 1
懋@@ 1
萱 1
Game@@ 0.8822752650478295
1400 1
GA 0.8836589251908437
Games 0.15179500607434643
IVE 1
Star 0.1524135343317745
勿 1
隅 1
GT@@ 0.7613958550409815
BL@@ 1
勉 1
タ 1
汐 1
33.@@ 1
Dis@@ 0.13441287914065753
歼 1
梭@@ 1
苷 1
敷@@ 1
耆 1
ABC 0.3898966536466523
敢@@ 1
RT@@ 0.5765025380786271
肝 1
蟾 1
妥 1
巖 1
挥@@ 1
API 1
Charles 0.06652204711621293
〇 1
201@@ 0.6778526081831955
瀕@@ 1
贩@@ 1
栓 1
飽 1
驟 1
Thomas 0.07248720108461629
啶 1
睿 1
SC 0.22017849677678603
糙 1
颂 1
ロ 1
咬 1
嵩@@ 1
詔 1
舷 1
2.3 1
哪 1
藓 1
彤 1
堰 1
沂@@ 1
驳@@ 1
136 1
154 1
匿 1
壮 1
滥@@ 1
聪@@ 1
深圳@@ 1
Go@@ 0.12671239337671208
Min@@ 0.1239908868367881
鋸@@ 1
瓊 1
兀@@ 1
熹 1
膝@@ 1
印地@@ 1
腕 1
Win@@ 0.2422985421754828
橘 1
跆@@ 1
Lin@@ 0.1701736848590573
TBS 1
ri@@ 0.059023805618825746
餓 1
硅 1
剖 1
沸@@ 1
鯊 1
鴨@@ 1
僕@@ 1
泣 1
TC 0.49881483389399656
阁@@ 1
ens 0.0364601044974483
戮 1
措@@ 1
饰@@ 1
撲@@ 1
棲 1
垄@@ 1
Ad@@ 0.09535148735339152
185 1
淫@@ 1
168 1
饮 1
ur 0.08592134552697084
公開@@ 1
狸@@ 1
婭 1
惹 1
1.0 1
炭@@ 1
烷@@ 1
仰 1
141 1
砍 1
あ 1
埠@@ 1
苣 1
妍 1
ard 0.058840276393839444
加利@@ 1
蔚 1
褐@@ 1
梗 1
眷@@ 1
匾 1
臟@@ 1
傣@@ 1
肋@@ 1
壞@@ 1
谍 1
151 1
荀@@ 1
GP@@ 1
楷 1
麟@@ 1
黔@@ 1
墳@@ 1
TH@@ 1
ジ 1
Ma@@ 0.08414335647859233
吗 1
樱@@ 1
滇 1
烂 1
1830 0.396627836131973
嶽 1
蛤 1
霄 1
Inter@@ 0.10002036026694992
糊@@ 1
32.@@ 1
ay@@ 0.08419004227950876
溜@@ 1
販 1
land 0.031893345148596694
伸 1
巴勒@@ 1
擇 1
で 1
竺 1
156 1
ly 0.03503174603155278
倚@@ 1
113@@ 1
硒 1
舅 1
烤@@ 1
畿@@ 1
2.8 1
祸 1
Street 0.0726950242309723
罐@@ 1
讓@@ 1
琪@@ 1
竊 1
133 1
惊 1
Peter 0.08042865140288245
沛@@ 1
倆 1
潜 1
OK 1
IF@@ 0.68029528483135
交易@@ 1
Pro@@ 0.08042467911246533
唯 1
埕 1
Media 0.1988360905017206
矛 1
蚤 1
ve 0.016435747305750526
謎 1
0.3 1
158 1
High 0.0735457134068285
扰@@ 1
舵 1
College 0.04878692098575489
棕 1
1853 0.4571765963516037
吊 1
鶯 1
戎@@ 1
榕 1
Life 0.12599847926187296
誅 1
魨 1
吡@@ 1
颈@@ 1
Web 0.7204066281469415
Wii 1
沼 1
Red 0.11417770064236235
ell 0.06877276453701957
駁@@ 1
ung 0.02846156986634866
枕@@ 1
酰 1
瘦@@ 1
独 1
虔@@ 1
颖 1
0.1 1
氛@@ 1
139 1
1700 0.8657367242892561
1858 0.4159920561707958
od@@ 0.07323241553868234
慨 1
须@@ 1
π 1
Er@@ 0.05613943292117568
猩 1
悲 1
摺 1
霉@@ 1
骆@@ 1
148 1
謹 1
st 0.08113120289004926
ys 0.12052339429308456
擢@@ 1
竖@@ 1
峯 1
文物@@ 1
晏@@ 1
炳 1
翟@@ 1
FM 0.21671054479609503
塗 1
擴 1
36.@@ 1
巷@@ 1
焉 1
睦 1
House 0.05902756443948137
鑫 1
ax 0.31168721260730503
ner 0.05174412419468143
佛罗@@ 1
咪 1
寂@@ 1
懿@@ 1
肠@@ 1
褲 1
笛@@ 1
1100 1
SBS 1
窑@@ 1
1859 0.36119932787450826
雛@@ 1
TP 0.9456491718862754
2.1 1
脸 1
鑲@@ 1
Su@@ 0.1040113205893705
罷 1
恪 1
抹 1
ド 1
撥 1
币@@ 1
镶@@ 1
お 1
マ 1
蝠 1
134 1
Man 0.12209352472736108
勋@@ 1
49.@@ 1
MP 0.33301530814844654
煩 1
胃 1
SN@@ 0.647846996261186
bo@@ 0.049544364874189756
ni@@ 0.07227949667464612
西省 1
211 1
Big 0.147764636777465
厦 1
谦@@ 1
MBC 1
軒@@ 1
諷 1
倖@@ 1
跃 1
逻 1
厨@@ 1
齡@@ 1
eg@@ 0.055057369046964545
鈉 1
0.2 1
con@@ 0.03585339904284222
殷 1
侖 1
203 1
术@@ 1
钥 1
會試 1
妓 1
姓@@ 1
遼 1
鯛@@ 1
陌@@ 1
1854 0.4058981936595549
ter@@ 0.04055380724679167
誦 1
1857 0.3846915363925778
恢@@ 1
DE 0.6929807689918899
れ 1
尿 1
詠@@ 1
EN 1
闲@@ 1
曦 1
櫃@@ 1
瑩 1
202 1
King 0.06959763049257402
No 0.10720241112555337
娄@@ 1
拼 1
爷 1
栗 1
AG 0.24218851308150632
棺@@ 1
毯 1
VO@@ 1
腥 1
鵡 1
ans 0.02380047179310937
屢 1
皓 1
羚 1
衆 1
滯 1
鞘 1
CL@@ 1
Red@@ 0.1699908120554317
虛 1
倖 1
炒 1
暨@@ 1
泾@@ 1
INE 1
虽@@ 1
璃 1
莞@@ 1
諡@@ 1
Fr@@ 0.09181107237761342
bi@@ 0.04730089165623464
吻@@ 1
梗@@ 1
煮@@ 1
Richard 0.08835049867899397
黔 1
□ 1
噬 1
祝 1
窝 1
蛮 1
辰@@ 1
166 1
NASA 0.5917461912756953
警報 1
Intel 1
矽@@ 1
祷 1
秘書@@ 1
IL@@ 1
VE 1
ey 0.07575099690150629
賄@@ 1
mo 0.25882511179114515
34.@@ 1
伞@@ 1
OH 1
長@@ 1
PL@@ 0.720429447186225
毘 1
铝@@ 1
94@@ 1
渣@@ 1
铃@@ 1
凍@@ 1
樺 1
丕 1
誼@@ 1
1856 0.37809567375791
no 0.012731528425920857
抹@@ 1
曜 1
债 1
涂 1
绳 1
Limited 0.4757993181270958
妹@@ 1
盒@@ 1
レ 1
卤@@ 1
NBC 0.4413546392504158
sa 0.01812709444035819
EC@@ 0.7683160162647952
ti 0.09499085424527248
睿@@ 1
饶 1
腿@@ 1
谣 1
躲 1
俱 1
渲@@ 1
San 0.033444813574496905
UR@@ 1
卉 1
340 1
磺@@ 1
基督@@ 1
沐@@ 1
era 0.02511339641548433
顎 1
忽 1
殘 1
笨@@ 1
idae 0.10767276150322813
央 1
嫩@@ 1
當中@@ 1
訥 1
纜 1
块@@ 1
ig@@ 0.051242468242657074
匪@@ 1
稿@@ 1
鉤 1
225 1
披 1
153 1
祺@@ 1
疹 1
钙 1
146 1
λ 0.8163853489679062
享 1
吏@@ 1
綏@@ 1
鱗 1
IE@@ 1
崖@@ 1
SK@@ 1
叱@@ 1
淚@@ 1
元前 1
摸 1
硕@@ 1
諒 1
鹅@@ 1
毆 1
铸 1
235 1
256 1
310 1
able 0.0246741415900938
ani 0.08481861371347003
禺 1
饲@@ 1
ale 0.03514402215512419
証 1
鏈@@ 1
3.2 1
癌@@ 1
143 1
DR@@ 1
氦 1
鄧 1
du 0.003812333390510606
AE@@ 0.5364447871419323
Company 0.0772149675834354
VA 0.5919520977932485
EF@@ 1
帐@@ 1
晖 1
皈@@ 1
1851 0.4078437302161487
se@@ 0.04178919646560543
焚 1
穹@@ 1
逻@@ 1
鍋 1
隼 1
Project 0.2836263864837367
攬 1
8.5 1
He@@ 0.0804542702004352
娱@@ 1
釘 1
禽@@ 1
虚 1
鄞@@ 1
骤 1
Studio 0.34488602859560596
ir 0.061278980976806695
纬@@ 1
AK 1
江苏@@ 1
KBS 1
2.6 1
3.0 1
靼 1
BL 0.8128141945118434
Gr@@ 0.06196355647338154
○ 1
147 1
籠@@ 1
time 0.013534460940968409
妄@@ 1
湄@@ 1
肚 1
銳@@ 1
裸 1
162 1
org 1
执 1
苔@@ 1
0.8 1
ち 1
嬪 1
畝 1
虾 1
ce 0.020253994352340106
皖 1
萝@@ 1
脏@@ 1
ini 0.08299546763134481
qu@@ 0.04817200272223856
214 1
儡 1
颈 1
溺@@ 1
BE 0.955563810150628
return 0.10689387534245003
CBS 0.41465944922793985
ary 0.04340370273097049
阪 1
辜 1
OR@@ 1
缆 1
腊 1
坤@@ 1
祚 1
鈾 1
軼@@ 1
O2 1
il 0.007959139783657873
000@@ 1
崙@@ 1
Mk 1
憩 1
胖 1
乍@@ 1
氨 1
35.@@ 1
China 0.06813858434237526
藔 1
忒 1
毙 1
穗@@ 1
臻 1
篮 1
踏 1
劝 1
濁 1
蛙@@ 1
FA 0.22028463067564413
傭@@ 1
敕@@ 1
荐 1
0.4 1
募 1
稠@@ 1
辩 1
eb@@ 0.058819315314683304
ο 0.045748469021233945
American 0.020470239200491548
坍@@ 1
GNU 1
ç 0.9782753726395982
拷@@ 1
庾@@ 1
肛@@ 1
Air 0.0782052874084263
犁@@ 1
Man@@ 0.06084063222943979
壺 1
21@@ 1
www 1
计算@@ 1
142 1
諫 1
鸦 1
ep@@ 0.07315339844973624
ICE 1
緝 1
48.@@ 1
um@@ 0.03873425420549802
195 1
Pe@@ 0.10966968234285805
斧 1
欄@@ 1
豎@@ 1
謹@@ 1
駱@@ 1
HC 0.5311355630223271
aria 0.12309749230321526
type 0.07828705641381012
使馆 1
沮@@ 1
AB 0.4995180511060312
臘 1
諧@@ 1
趟 1
ach@@ 0.052858167050763155
暉 1
滬@@ 1
纽 1
co 0.04269192384320261
猫@@ 1
37.@@ 1
溃@@ 1
汴@@ 1
揆 1
磊 1
忌@@ 1
雍 1
丸@@ 1
ha 0.036299094650998405
匀 1
洩@@ 1
硼@@ 1
Day 0.13065525373859552
勘 1
苓 1
們@@ 1
啸 1
窝@@ 1
筹 1
蜴 1
LC 0.7770739619849432
del 0.004404247079731331
± 1
窃 1
鍋@@ 1
锦 1
Mor@@ 0.06336603197465299
501 1
SE 0.5827247545780855
IA 0.7434209802943123
om 0.13848961096562618
ge 0.0605822500466285
霜@@ 1
0.6 1
208 1
夠@@ 1
淤@@ 1
1855 0.3704415997460341
蒲 1
哨@@ 1
閃 1
嗜@@ 1
繹 1
舜 1
敛 1
囚 1
筒@@ 1
耦@@ 1
谕 1
Do@@ 0.14002120565124823
濾 1
斃 1
昊 1
绪@@ 1
菁@@ 1
楓 1
蔷@@ 1
龄@@ 1
姻@@ 1
揮 1
溥@@ 1
珂 1
寨@@ 1
隍 1
攤@@ 1
湊 1
锌 1
les 0.0036707188920629464
115@@ 1
204 1
MB 1
â 1
偿@@ 1
抑 1
漕@@ 1
io 0.0773048205456923
ED 1
mo@@ 0.06081085050185424
茜@@ 1
饒@@ 1
淄@@ 1
伞 1
珪 1
逊@@ 1
850 1
http 0.816087323961285
iTunes 1
缔@@ 1
鱈 1
Al 0.06445790561252447
咒@@ 1
1847 0.41269362493868506
Fe@@ 0.1654733752713056
冻@@ 1
淞@@ 1
狱@@ 1
Inc 0.9035388265028927
ONE 1
206 1
肆@@ 1
剂@@ 1
1841 0.4538334106347159
401 1
磯 1
肽 1
屿 1
毋@@ 1
207 1
懂@@ 1
榕@@ 1
Ber@@ 0.05767159544166974
汰@@ 1
RAM 1
顏 1
奋 1
Bi@@ 0.08008134347826616
弊@@ 1
乞 1
167 1
Har@@ 0.07256049952503447
157 1
Boy 0.3537471630169242
DOS 1
120@@ 1
ut@@ 0.060495000044772956
ú 0.38716559624395164
淀 1
192 1
も 1
尧@@ 1
槳 1
Girls 0.38061031229508774
IX 0.366472221538092
捧 1
峭 1
繡 1
銜@@ 1
149 1
420 1
Road 0.08124834993046656
蔗 1
郸 1
洁@@ 1
4.2 1
1852 0.3810113949557368
si 0.053442138950731105
龔@@ 1
冀 1
馳 1
ant 0.01871933552708795
愚 1
厘 1
鋁 1
173 1
绳@@ 1
嘎 1
沫@@ 1
铅@@ 1
鴉 1
侃 1
樞 1
厉 1
氣壓 1
鳞 1
尘 1
纏 1
Sp@@ 0.07732510531584948
坊@@ 1
浑@@ 1
163 1
Ltd 0.3863383382308287
den 0.003806175132593679
my@@ 0.2594205735795617
圃 1
肚@@ 1
鹼 1
ok 0.15214456568780774
祺 1
新加@@ 1
ino 0.060392057834929444
莒@@ 1
匾@@ 1
靶@@ 1
扮@@ 1
濬 1
CP@@ 0.43291348023352166
ING 1
2.7 1
class 0.07709760222940354
唤 1
壹@@ 1
搖 1
NT 1
椅@@ 1
潰@@ 1
邓 1
厲@@ 1
稳 1
膝 1
臧@@ 1
370 1
new 0.01826515146684343
克兰 1
繆@@ 1
扯 1
琰 1
747 1
Force 0.112044856830188
歉 1
立方@@ 1
谥 1
mi 0.1451195474907142
龟@@ 1
オ 1
So@@ 0.1027352279562001
誇@@ 1
諱 1
謠@@ 1
We@@ 0.10700468626149923
艷@@ 1
绵 1
1849 0.35523712552312525
3.6 1
匈 1
綿 1
敕 1
its 0.008071622721046091
诞 1
3.3 1
锐@@ 1
忧@@ 1
RC 0.3318491520415764
铅 1
拾@@ 1
筛@@ 1
LGBT 0.7119428994788142
PP@@ 0.717444300874239
廊@@ 1
禦 1
腎 1
ance 0.041351780901074234
妝@@ 1
CN@@ 0.4740152207659161
闯@@ 1
鲸 1
溥 1
笙 1
SI 0.6846430703606908
par@@ 0.03345521921842129
柜 1
鳩 1
劑@@ 1
EC 0.5160645669977368
妈@@ 1
out 0.016702408645207018
ous 0.034206312609514296
澳大@@ 1
脸@@ 1
à 0.002403246453658519
安徽@@ 1
琶 1
铀 1
NS@@ 0.4395018919682521
フ 1
嶺@@ 1
福建@@ 1
锂 1
161 1
183 1
em 0.0576952218913892
郵 1
1.9 1
2023 1
von 0.0032798083812850595
To@@ 0.1264021871417866
1815 0.3878728443502371
bit 0.25252887609718905
廂@@ 1
眷 1
蠟@@ 1
1846 0.39068580154871324
σ 1
沁 1
芽@@ 1
188 1
ick 0.09004810298445967
厭 1
蕴@@ 1
瀛 1
猜 1
171 1
209 1
Cy@@ 0.2886398116254673
圻 1
颠@@ 1
檻 1
SARS 1
腔@@ 1
赶 1
221 1
摘 1
泌@@ 1
鸭 1
184 1
TR@@ 0.9227860778410993
姐@@ 1
3.7 1
A2 1
у 0.022704709258784938
兜@@ 1
蚊@@ 1
谊@@ 1
鼬 1
ET 0.7554241010435735
USB 1
夏威@@ 1
M1 1
勛 1
Hall 0.07616295849930876
戍@@ 1
泸@@ 1
汲@@ 1
ue 0.06578000297081246
匡 1
潼@@ 1
鞭 1
挑 1
ε 0.5311325674550549
叡 1
嘆 1
д 0.057184167838613374
鹼@@ 1
Gen@@ 0.10632552324970966
绒 1
儂 1
159 1
est 0.003060057981010339
操作@@ 1
闊@@ 1
ke 0.050612833929401774
絮 1
RA 0.3785633372506348
穎@@ 1
ρ 0.7126183942273904
CT@@ 0.727307290339004
br@@ 0.03523862654839225
ل 0.5780005066552019
← 1
裘@@ 1
暢 1
禎 1
1820 0.3221764368406446
垦 1
庇 1
悔@@ 1
ap 0.16256705690036757
侠@@ 1
衢@@ 1
赣 1
ist 0.005301284320218489
军委 1
扑@@ 1
烘@@ 1
畸@@ 1
輩@@ 1
CCTV 1
ot 0.07193579730920835
佑@@ 1
励@@ 1
紳@@ 1
重庆@@ 1
鉛 1
肋 1
萎@@ 1
222 1
ES 0.7377191648037474
帥@@ 1
悚@@ 1
pe@@ 0.06295731971498504
蘿 1
1845 0.3875596218792789
瞿@@ 1
Server 1
164 1
ber 0.08122453692439374
沂 1
鯊@@ 1
178 1
290 1
惹@@ 1
215 1
厉@@ 1
霰@@ 1
176 1
chem 1
飢@@ 1
1844 0.41584501100132254
AMD 1
ho@@ 0.06901268564814772
溯 1
悖@@ 1
UC@@ 0.7323055580576773
South 0.029348957126472012
昧 1
Galaxy 0.9285490428307784
MHz 0.933930745537004
LA 0.28631148617694363
稷 1
晤 1
迹@@ 1
夹 1
靴 1
182 1
一届 1
逾@@ 1
Instagram 1
Association 0.0595198146595576
Records 0.080498712295735
运动@@ 1
XP 1
騙@@ 1
恤 1
AA 0.32786825419963245
É 1
1A 1
SD 0.7442727461813275
栽@@ 1
172 1
ν 0.6673161367051196
辜@@ 1
飘@@ 1
绎 1
人民代表大会 1
181 1
Pi@@ 0.08716442849471598
SQL 1
not 0.009050891950713036
乏@@ 1
93.@@ 1
鈣 1
鑿 1
齣 1
ber@@ 0.04880924112421409
凭@@ 1
吟 1
MO 1
吸 1
CEO 0.341822052014755
PC@@ 0.41746945226668963
bu@@ 0.07712402315068942
劲 1
邑@@ 1
譚 1
腊@@ 1
苷@@ 1
頑@@ 1
靡 1
196 1
菁 1
擱@@ 1
燦@@ 1
搏@@ 1
芮@@ 1
遙 1
Store 0.7997167246012572
す 1
姪 1
岔 1
惱 1
簧@@ 1
馈 1
茉@@ 1
480 1
吟@@ 1
0.7 1
況@@ 1
遵 1
锥@@ 1
212 1
枫@@ 1
驰 1
189 1
Cal@@ 0.08403771582418261
‰ 1
賃 1
敘 1
Play 0.3533496069846877
煉@@ 1
磐@@ 1
芝加@@ 1
AF@@ 0.3872025404805094
虧@@ 1
300@@ 1
ure 0.059227460357167076
IGN 0.6337115583082038
Sc@@ 0.12908067667043185
ene 0.05291225171583531
棺 1
馳@@ 1
濠 1
萧 1
遴@@ 1
10000 1
甦 1
Po@@ 0.0782358292184144
碉@@ 1
you 0.09390434740627235
庸@@ 1
45.@@ 1
North 0.0352436640388309
加利福@@ 1
殲@@ 1
238 1
颖@@ 1
嘻@@ 1
撃 1
骂 1
鬍 1
鲤@@ 1
聪 1
︰ 1
濮@@ 1
Best 0.09002255056783195
Le 0.008546904683438373
ik@@ 0.04730972758182384
楷@@ 1
濁@@ 1
瑤 1
1812 0.36016462762698104
per@@ 0.036361682052677424
暱 1
産 1
じ 1
咽@@ 1
陋 1
this 0.009896091855541706
薰 1
pi@@ 0.05668530400792735
噸@@ 1
XX 0.18971154300655943
3.1 1
Black 0.08407687616871326
aw@@ 0.07959702188939878
Mr 0.48850412954875383
櫻 1
朽 1
蒋 1
99.@@ 1
App 1
1843 0.4148395786016454
坟@@ 1
ics 0.07601897980209127
臘@@ 1
Max 0.15710539080229963
ov@@ 0.06527323861223581
ati@@ 0.06068461031743051
kh@@ 0.07272733743893545
傾 1
毫 1
佛羅@@ 1
Sony 0.4010991522836524
FS 1
ki 0.08914450141945016
WWE 0.40973206284088204
几 1
侬 1
礙@@ 1
纜@@ 1
臭 1
鈕 1
KO@@ 1
濃 1
绣 1
pr@@ 0.041388375351106364
糯@@ 1
ala 0.09097733766144238
osa 0.10048755381892148
實驗@@ 1
1814 0.3925648972494189
223 1
MVP 0.928869160836029
Mal@@ 0.05906077135757396
佣 1
僱 1
浜 1
1842 0.393362214945655
渥@@ 1
谨@@ 1
楔@@ 1
潞@@ 1
铃 1
Lee 0.11059793916135305
憤 1
脆 1
酬@@ 1
187 1
CH 0.8915604145245811
蒸 1
薹 1
煥 1
鑲 1
601 1
棱 1
Fi 1
DD 1
凸 1
紗@@ 1
驾 1
47.@@ 1
RPG 1
Val@@ 0.0826506979012295
萌 1
雁 1
Her@@ 0.06057555151407066
ab 0.030468805648505078
sp@@ 0.03982926012247603
蝙@@ 1
177 1
芷@@ 1
Ho@@ 0.09106591762905947
ca 0.06817016261390735
DI@@ 0.9440385801038762
ROM 1
ver@@ 0.015234038800792564
Don 0.12625466578504732
SL@@ 0.6912257856334472
枣@@ 1
ã 1
绒@@ 1
Sol@@ 0.08789443210445019
do@@ 0.07158324647621239
CM@@ 0.6197980432371538
DI 0.6395236618557617
ô 0.6114321804116639
佣@@ 1
197 1
430 1
キ 1
羧@@ 1
410 1
Kong 0.1615276760359216
覓 1
174 1
ex@@ 0.031843987629744115
灌 1
瞻@@ 1
Envir@@ 1
UE 1
and@@ 0.052306770778727966
弈 1
汕 1
To 0.09142382670640037
217 1
400@@ 1
Henry 0.07068798823029272
Jean 0.04425380729153825
vs 0.7957343076935911
嬰 1
SP 0.6929206800962007
ne@@ 0.049061013017257654
佬 1
Internet 0.18407847002116046
隘 1
猷 1
228 1
DB 0.6563288387545626
墊 1
斡@@ 1
羲 1
遏@@ 1
ei 0.09946886556640215
烦 1
裳 1
鳍 1
Ag@@ 0.1046657755189573
尘@@ 1
Mel@@ 0.11500468379898907
Ser@@ 0.08318485853897589
搁@@ 1
皂 1
305 1
っ 1
夭@@ 1
膺 1
駝 1
哆 1
朋 1
閔@@ 1
169 1
CG 0.9623953672952753
DP 0.3832793486849561
滋 1
HTML 1
凹 1
3A 1
詛@@ 1
Si@@ 0.14458461190525196
so@@ 0.06159038905204705
扔 1
橙 1
浑 1
跡@@ 1
胺@@ 1
ess 0.056664727873159806
岔@@ 1
爺@@ 1
BSD 1
磺 1
诊 1
晟 1
檀 1
磐 1
绰@@ 1
ell@@ 0.060754840490383474
奚@@ 1
Sal@@ 0.07227772301813248
Steam 1
栖 1
袖 1
粵 1
苑@@ 1
逵 1
驕@@ 1
畅 1
缅 1
貸 1
滄@@ 1
苟@@ 1
つ 1
詹 1
蜡@@ 1
HBO 0.9673852496251955
United 0.01627918270722223
倦 1
茄@@ 1
193 1
м 0.03740618422933892
触 1
ミ 1
燮 1
44.@@ 1
No@@ 0.123397955687339
ISBN 1
卧 1
0.9 1
BB 0.6894503014406819
秘书@@ 1
偕 1
冻 1
Up 0.25453279444731547
芸 1
Gu@@ 0.05875832054135852
ion 0.09084698289967481
911 1
Girl 0.32195645203689116
挫 1
锅 1
You@@ 1
ac 0.08990119073952918
ker 0.06165517114847879
挤 1
兑@@ 1
We 0.14123035302204545
钊 1
Na@@ 0.18967782894171845
樵 1
Unix 1
46.@@ 1
歲@@ 1
贿 1
3.8 1
寅@@ 1
冶 1
滞@@ 1
煞@@ 1
Joseph 0.0651884102437386
滤 1
璽 1
瀋 1
肪@@ 1
213 1
δ 1
蹄 1
汐@@ 1
Martin 0.06965331578173803
264 1
up 0.013990007493178675
兇 1
渣 1
耐 1
コ 1
τ 0.46194331999346655
吨@@ 1
Mer@@ 0.07600741009011636
ov 0.08254268751584953
te@@ 0.04279704441769022
叢 1
稚@@ 1
镍 1
Bur@@ 0.07234947482443624
甥 1
萃 1
侗@@ 1
濂 1
竿 1
躺 1
218 1
yl@@ 0.08462997149626572
昨@@ 1
179 1
壕 1
蒐@@ 1
ek 0.08689029740148743
凶 1
靂 1
be@@ 0.023998712848738883
line 0.030863519113081817
per 0.036639117383446225
呆 1
鬱@@ 1
ci@@ 0.04942982978338198
鰻@@ 1
勐@@ 1
壢 1
50.@@ 1
绑 1
谟 1
play 0.036952652004316786
vi@@ 0.049134475061428214
謨 1
FO@@ 0.6981322141658503
寰 1
ru@@ 0.055385015980687104
鲨@@ 1
洙 1
菅@@ 1
潑 1
瞻 1
顽@@ 1
佚 1
谐@@ 1
噪 1
帐 1
潍@@ 1
Mag@@ 0.09967440276182621
堇 1
Ab@@ 0.028231214685816273
槃 1
猿@@ 1
饋 1
ora 0.09281066724053882
篩@@ 1
鋁@@ 1
Grand 0.05513326118404716
IUCN 1
Hello 1
La@@ 0.12847781077358245
ah@@ 0.0560725224244731
懸 1
Hong 0.15638881770144236
橇 1
1789 0.47768625119930613
1832 0.3785629421762955
斋@@ 1
216 1
Bor@@ 0.07641459574195975
☆ 1
冗@@ 1
夔 1
sur 0.008162475753931244
窩@@ 1
UL@@ 1
撈 1
冉@@ 1
嫻 1
徒刑 1
B1 1
303 1
186 1
^ 1
柑@@ 1
兖@@ 1
澜 1
芋 1
陨@@ 1
Gam@@ 0.40732845982406446
Pol@@ 0.07141473532743074
River 0.03995344337735714
芥@@ 1
餉 1
und 0.0013608837935005552
电力@@ 1
砸 1
澈 1
蠕@@ 1
alis 0.1934052147557736
刮@@ 1
鲨 1
睦@@ 1
Video 0.2580381828580858
孛 1
枫 1
薛 1
劲@@ 1
爐@@ 1
搏 1
臂@@ 1
敞@@ 1
琮 1
berg 0.047187082743437025
濫 1
贷 1
262 1
緬 1
LS 0.8925323991855512
my 0.11744162842626822
沽 1
僖@@ 1
妃@@ 1
1835 0.35906325369167086
way 0.029810039411092157
嘯 1
汙@@ 1
蔭 1
鞑@@ 1
辽宁@@ 1
咤 1
羰@@ 1
蒜 1
DS@@ 0.5677104835303881
end@@ 0.04373897745366998
泄 1
祉 1
飄@@ 1
1839 0.3657735098707975
3.4 1
Japan 0.06430372160841717
廖 1
Des@@ 0.08523172172106067
key 0.10091162405080274
魄 1
Cre@@ 0.11197305383370981
吵 1
炫@@ 1
芮 1
IR@@ 0.5471846703972119
艏 1
苞 1
三届 1
凝 1
埤 1
缝@@ 1
咎 1
緝@@ 1
荫 1
ated 0.016131737664671398
娛 1
朕 1
骗@@ 1
鐵路@@ 1
row 0.131491827562232
錐 1
191 1
ao 0.10570880518952876
Tor@@ 0.07422205283036276
斛 1
俸 1
Dr 0.5072327504899904
Radio 0.08829581609169405
嚇@@ 1
笃@@ 1
365 1
az@@ 0.050347006176589125
餅@@ 1
1801 0.44991882307346875
BR 0.8177306715841485
醋 1
Pan@@ 0.09840133410597905
U21 1
1821 0.3770932572635736
ET@@ 0.6625175962958509
й 0.03252121216794705
265 1
堰@@ 1
198 1
rpm 1
1795 0.502135671523671
4.6 1
als 0.004628787848961926
穴@@ 1
1838 0.3547960639016211
塌@@ 1
寵 1
渝@@ 1
ical 0.038460405879712695
辐@@ 1
226 1
PM 0.5175918186382388
PR@@ 0.4982894030523458
PT@@ 0.7237243980819215
ς 0.4779872249716098
厝@@ 1
綁@@ 1
諮@@ 1
3500 1
褚@@ 1
瞞 1
穫 1
铵 1
誘 1
唑 1
孀 1
篠 1
罢 1
鳚 1
610 1
舱@@ 1
テ 1
勻 1
嫉@@ 1
堕@@ 1
1806 0.38601707655912354
GT 0.45878881910086433
af@@ 0.041924119715039496
勾 1
熵 1
鰈 1
1793 0.4109944430095318
拨 1
500@@ 1
oph@@ 0.10915575957851627
枢 1
255 1
Net@@ 0.44460947890082125
唔 1
ナ 1
灶 1
锥 1
驼 1
232 1
Power 0.18976015371791433
Smith 0.0762587160279662
纏@@ 1
腫 1
net 0.12245979656835108
淇 1
薑 1
1836 0.3474369228957143
233 1
This 0.013780860799012149
UI 1
凿 1
婴 1
捞 1
垃@@ 1
虔 1
撼 1
ano 0.039389656101025794
tion 0.034244929449572574
1792 0.4623465963299909
ium 0.15335009491999624
su@@ 0.04970447588497393
谏 1
km2 0.30722598832396725
沌 1
澱 1
酗@@ 1
闽 1
31.@@ 1
乂 1
紗 1
侄 1
诬@@ 1
嫔 1
竭@@ 1
PL 0.9746537637086478
car@@ 0.03369148547279836
ī 0.4439507485162057
叹 1
炯@@ 1
199 1
戛@@ 1
焕 1
Blue 0.12886133440578187
ula 0.18994346554387262
蘚 1
刁@@ 1
涯 1
翡@@ 1
4.0 1
ff 0.12474947396128384
竇@@ 1
Youtube 1
ism 0.056161617257066775
忙@@ 1
鈔 1
News 0.14009054432237752
Switch 1
樁 1
Ni@@ 0.10307821812995811
墾@@ 1
暮@@ 1
194 1
249 1
謬@@ 1
ウ 1
鈍 1
妳 1
MD 0.5212677805253008
pe 0.06601199550434585
や 1
暑 1
薨 1
2D 1
癮 1
稀 1
豔 1
ari 0.09181689085332025
ブ 1
檳@@ 1
鑰@@ 1
950 1
Bal@@ 0.06173729703778672
Be 0.32928073139437297
渾@@ 1
昕 1
Gar@@ 0.08114759957268779
瑶 1
蹈@@ 1
219 1
4.8 1
布政@@ 1
筠 1
貶 1
ι 0.33332474360895087
帧 1
宸 1
酱 1
镁 1
left 0.03348156765841536
縛 1
Tom 0.12264117364964444
hi@@ 0.06446921978378238
煩@@ 1
马斯 1
巔@@ 1
Astr@@ 0.3286531569117627
妝 1
幌@@ 1
擠@@ 1
轎@@ 1
Network 0.1811960983039591
傭 1
携 1
炀@@ 1
甬@@ 1
粟 1
Tri@@ 0.07532304200609188
1837 0.3332541892004125
275 1
ada 0.016526857793015517
牽 1
777 1
Young 0.11397689857367377
斩 1
糞 1
躁 1
樸@@ 1
汝 1
801 1
League 0.02416964834207129
擒@@ 1
篤@@ 1
57.@@ 1
尬 1
俩 1
殭 1
Art 0.049072613600563225
倭 1
荧@@ 1
59.@@ 1
9000 1
棚@@ 1
喚@@ 1
摸@@ 1
ura 0.08123231420986547
ñ 1
だ 1
愁 1
釀 1
遮 1
« 0.003077594081063552
瀉 1
炔 1
2A 1
Kar@@ 0.0575531964390937
Ki@@ 0.17527373012560346
谣@@ 1
5.1 1
Book 0.17378863292195043
West 0.03227541834498692
so 0.015262562615376146
朵@@ 1
饑 1
眶 1
粤 1
耍 1
裙@@ 1
楨 1
701 1
掙@@ 1
殆@@ 1
砌@@ 1
脾@@ 1
ee 0.08404956600962796
307 1
440 1
Power@@ 0.6682646975844945
ons 0.02420264423175243
倾 1
溧@@ 1
訝 1
贖@@ 1
醣 1
231 1
悄@@ 1
螈 1
229 1
Bel@@ 0.05825432843419493
anus 0.21977277059316247
淋 1
綜 1
224 1
MI 0.6602042836763539
轍 1
Mat@@ 0.0785735090149005
State 0.027037240955834516
ou@@ 0.03921042233232216
サ 1
槟 1
1831 0.3598099111107391
ja 0.06146596955071222
泪 1
Hy@@ 0.1523451064815357
嘗 1
秩@@ 1
eri 0.1482073187078441
field 0.03292251196426439
姻 1
牒 1
琥@@ 1
繳 1
雉 1
Island 0.061947518841223535
Now 0.2830568391054339
Plus 0.24718869391404652
勿@@ 1
圾@@ 1
4.3 1
誣@@ 1
308 1
void 1
洼@@ 1
ari@@ 0.07061144674532616
昱 1
書館 1
谨 1
氹 1
秃@@ 1
葆@@ 1
蟬 1
褒 1
251 1
CI 0.5802863196898002
渚 1
绞@@ 1
1824 0.39966217713245367
6.2 1
640 1
阡@@ 1
蛋白@@ 1
輾@@ 1
118@@ 1
Op@@ 0.12464186682452053
Mobile 0.4591994370815369
ko 0.081515886031721
mon@@ 0.030487117422476995
1825 0.37985415760816604
Fl@@ 0.07046022171178551
Jump 1
Ti@@ 0.11217950320179011
吓 1
Sir 0.093095345279745
耆@@ 1
Online 0.4118276048287561
邏 1
CF@@ 0.47351309942247155
兌@@ 1
綸 1
靳@@ 1
306 1
妊@@ 1
Top 0.11315903806424148
he 0.0033373082240616405
Del@@ 0.09644066829182187
ane 0.05793962441515161
仆 1
扫 1
粥 1
驿@@ 1
Bl@@ 0.07085109375557644
SV@@ 0.9129050651685359
蜗@@ 1
﹐ 1
胖@@ 1
淇@@ 1
鉛@@ 1
UR 0.9842308190522226
嶋 1
蠅 1
彼 1
恥 1
锯@@ 1
駭@@ 1
UN 0.32782140044106667
渥 1
Core 1
颂@@ 1
LD 1
nm 1
诛@@ 1
cc@@ 1
ill 0.08308364561429334
掷 1
ida 0.04781929023975799
ry 0.08810629721001717
tu@@ 0.05945178870957458
pl@@ 0.034948132229781055
婺@@ 1
盔@@ 1
壳@@ 1
ense 0.13804125492977437
ita 0.05723251325829791
戍 1
榔 1
欖 1
鍾@@ 1
锻@@ 1
07@@ 1
302 1
6.4 1
Is@@ 0.07394410471303199
MT@@ 0.7413185716523771
挤@@ 1
瞰 1
09@@ 1
M2 1
go@@ 0.10542655660014276
羚@@ 1
Cl 1
瑋 1
520 1
拌 1
ou 0.01205963204826408
謊@@ 1
Institute 0.06287951160113373
ant@@ 0.05251775248687522
厢 1
05@@ 1
Mas@@ 0.06908362607564658
EA 0.6014315176982932
毗 1
爱尔@@ 1
蘆 1
蚁 1
﹑ 1
1833 0.35133242289478134
CV 0.7386471746667216
ena 0.0799109498529137
檸@@ 1
HT@@ 1
咪@@ 1
敖 1
闹@@ 1
CN 0.8300610575211668
受害@@ 1
ger 0.06872099352298038
ω 0.8775703585184697
1790 0.40765783287978313
right 0.05097366329291045
洽@@ 1
瑄 1
2.9 1
5.6 1
Home 0.14544416148567685
Python 1
S2 1
SF@@ 0.5447586624049139
ム 1
檬@@ 1
Char@@ 0.07682606326491326
韶 1
390 1
560 1
溢 1
69.@@ 1
Hol@@ 0.07474366947291627
eon 0.3848160772891713
tic 0.06687057005667082
膳 1
242 1
脖@@ 1
245 1
5.2 1
Chi@@ 0.11140595616554835
Production 0.19514300889476494
ML@@ 0.5494711834299015
聊 1
豹@@ 1
CV@@ 0.8805410758918353
FF 0.3904636673583508
譽@@ 1
谭 1
楓@@ 1
鲸@@ 1
FF@@ 0.4979270865799034
325 1
Can@@ 0.08340294183053477
mar@@ 0.040356990055302806
唸 1
燦 1
鋪@@ 1
DM 0.4951165362877997
峪@@ 1
now 0.028312731353699497
Asia 0.11389492613152408
垮@@ 1
1804 0.45632800422669795
1810 0.35484583797576214
エ 1
泼@@ 1
Bank 0.09378832023643778
プ 1
肤@@ 1
骏 1
Society 0.06064213939863165
Super@@ 0.10585504559718266
ville 0.02421393856470235
叻 1
拿破@@ 1
ML 0.7692432107337909
栈 1
227 1
惜@@ 1
英格@@ 1
廬@@ 1
讳 1
110@@ 1
5.8 1
DIA 1
盼 1
荡@@ 1
驛 1
DF@@ 0.794446731496308
der@@ 0.036483674769366405
乎@@ 1
杏 1
285 1
Vista 0.7925730794577693
硼 1
雳 1
va 0.05235788298450532
膳@@ 1
饿 1
碟@@ 1
Cos@@ 0.17768011187231203
SL 0.5819251345979829
SR 0.2097830936387579
亏@@ 1
芸@@ 1
媚 1
460 1
Jack 0.10640982223397477
攸@@ 1
慷@@ 1
轿@@ 1
畑@@ 1
仑@@ 1
庞 1
汾 1
庐 1
摇 1
鋰 1
龕 1
萃@@ 1
蟾@@ 1
6.1 1
DR 0.3786731329706583
Dream 0.3920860226826476
IEEE 1
寡 1
残 1
窯 1
隋 1
摆 1
垣@@ 1
縫@@ 1
II@@ 0.4192376618635633
XML 1
which 0.004050272773155862
伎 1
桩 1
煥@@ 1
砷 1
诈@@ 1
dia 0.15625914907041907
ks 0.0370265080005052
239 1
悍 1
赎@@ 1
羈@@ 1
瀛@@ 1
陂 1
謎@@ 1
254 1
爽@@ 1
58.@@ 1
ə 1
蛮@@ 1
飽@@ 1
cr@@ 0.03577807708582688
ile 0.03034565319174894
PRO@@ 1
拐@@ 1
Lu@@ 0.10289912306245573
ase 0.06935969189427582
偕@@ 1
1799 0.491705721416558
チ 1
昵@@ 1
诵 1
sin@@ 0.07758928775285188
well 0.014847801500097589
Pre@@ 0.07979051032712725
ice 0.044421366648191685
yn@@ 0.104729143589151
Research 0.09164694967747464
冢 1
B2 1
撾 1
璜 1
94.@@ 1
GM 0.54197355587297
ations 0.014381070989513335
妒 1
Rock 0.09540603500199164
惕 1
鉅 1
311 1
Bu@@ 0.09796936665288089
琦@@ 1
踪@@ 1
嬌 1
醇@@ 1
1644 1
刹@@ 1
簇 1
ASA 1
་ 1
韌@@ 1
Bre@@ 0.08047743159710766
go 0.04928878956745031
暱@@ 1
獄@@ 1
篆@@ 1
韃@@ 1
https 0.6436729607975207
wood 0.06255551603015627
殴@@ 1
318 1
Good 0.23392290889289555
Junior 0.15818840202294807
よ 1
1809 0.4049415702145356
BT 0.8216178158792404
聆@@ 1
234 1
グ 1
Trans@@ 0.11189476085364711
弯 1
S1 1
pa 0.1164992242332711
sch@@ 0.021089929241917695
鮨 1
AF 0.3097394949246915
澎@@ 1
赂 1
Es@@ 0.06489914379931075
垫 1
筋@@ 1
901 1
厘@@ 1
柵@@ 1
Open 0.08540034494715723
衷@@ 1
遥 1
1776 0.5716883675734654
Tour 0.06069486689730992
Vol@@ 0.10641491640290623
佥@@ 1
呀 1
舵@@ 1
pH 0.8311111007579993
栅@@ 1
tis 0.1176456034973197
68.@@ 1
Sports 0.12964832059802245
雌 1
au@@ 0.036918458486175754
1834 0.3181904933476649
绅 1
530 1
gi@@ 0.05878234730927895
osaurus 0.462522093683907
涪@@ 1
600@@ 1
can 0.013556183251785744
瀾 1
mol 1
ニ 1
丕@@ 1
行榜 1
252 1
92.@@ 1
1822 0.39424585834414194
540 1
Award 0.0483884267544838
Magazine 0.19898739948232502
Medi@@ 0.17964460193508175
ba@@ 0.0675870291104152
閏 1
304 1
Billboard 0.1179618916289903
CM 0.6309153123557167
First 0.05544393907892794
ack 0.12053070850947369
5.7 1
轶@@ 1
3.9 1
580 1
Church 0.044896751555286475
8.1 1
Comic 0.7030971086293639
more 0.01091316469049203
旨@@ 1
241 1
At@@ 0.08556924550813973
White 0.06670228641550362
蟬@@ 1
4.1 1
H2O 1
630 1
T1 1
傻@@ 1
襪@@ 1
1.0@@ 0.9342975678536304
man@@ 0.04168324162730121
攤 1
1813 0.3380333375994115
470 1
嫡 1
普鲁@@ 1
淞 1
eh@@ 0.04592679702301671
踩 1
C1 1
MAX 1
SW@@ 0.46882260031313444
DF 0.4113648284568163
GS 0.5669062375784474
Fre@@ 0.06548156616078742
GE 0.6076392381106178
ba 0.07049927050780061
皿 1
Night 0.15372311120139337
» 0.0027425676620010343
岱@@ 1
386 1
Sy@@ 0.1408848492768722
tus 0.2054900883700761
苛@@ 1
EM 0.47240532802488994
慘 1
歪@@ 1
け 1
苞@@ 1
van 0.07045377893919144
廁 1
槐 1
1828 0.3456228306584048
286 1
Star@@ 0.15248655859243346
ology 0.04527087979558509
デ 1
ャ 1
苏维@@ 1
訟@@ 1
辟@@ 1
Service 0.08390082979557892
蕙 1
蠢 1
ok@@ 0.06942933893474226
嵐 1
葡 1
鷲 1
Du@@ 0.08032254397554162
Ste@@ 0.07020052105180451
梧 1
鹦@@ 1
1826 0.362483738873187
蘊@@ 1
詭@@ 1
Do 0.20014824807733764
掣 1
暇 1
葱 1
鉉 1
GL 1
Mary 0.0670370898467942
埤@@ 1
246 1
攏 1
Channel 0.17616994991455873
ni 0.04577222486620074
CNN 0.8588331875817988
瀚 1
褶@@ 1
Louis 0.04577158429410183
ford 0.05190379133475393
絨 1
Adobe 1
坳 1
窃@@ 1
逝@@ 1
Green 0.09132429437161717
Ros@@ 0.07121088530164288
贛@@ 1
720 1
ake 0.08067861331986828
ent@@ 0.021847134968527568
ff@@ 0.06328845037278477
ma@@ 0.06921058586942827
晃@@ 1
湳 1
璟 1
For 0.03229458773199933
PE 0.8619945290820311
ex 0.09147844509219961
翎 1
跪 1
骄@@ 1
氓 1
酮@@ 1
俸@@ 1
剃@@ 1
框@@ 1
荫@@ 1
肿 1
1819 0.3982952469273842
IB@@ 0.4719898896056284
Your 0.22083296737920702
芜 1
钮 1
麴 1
Ca@@ 0.18489641930894377
low 0.043326459677525464
懋 1
芦 1
Web@@ 0.3534229773110735
2025 1
ist@@ 0.05510396560991303
岷@@ 1
澜@@ 1
玺 1
璞 1
邺 1
隴@@ 1
Cas@@ 0.06842539663542828
lu@@ 0.05926158301720002
鉀 1
East 0.04028723178739756
兜 1
匝@@ 1
遗 1
263 1
PG 0.7366302023678605
バ 1
奄@@ 1
抗日@@ 1
榆 1
瘦 1
5.3 1
Data 0.43609786485651936
冤 1
擂@@ 1
晏 1
1807 0.3991128308591398
兗@@ 1
嗜 1
鄱@@ 1
鷗 1
Ha@@ 0.09742020597302424
str@@ 0.0349104426781691
擄 1
枕 1
滞 1
1805 0.41073767813683565
620 1
HTC 1
PP 0.5311192622773702
Ⅱ 1
丫@@ 1
艳 1
莹 1
诠@@ 1
243 1
323 1
Mi@@ 0.0922516286485019
1794 0.41280921917631336
Visual 0.7675701208635181
ii 0.2931315928709367
yr@@ 0.11654479543805217
楞 1
ua 0.11918806898119556
吼 1
宠 1
Wi@@ 0.15730448480450598
倩 1
Maria 0.06956652903887263
江省 1
滩@@ 1
稟 1
MB@@ 1
钉 1
De 0.0259298915707022
Point 0.15101795333863452
僚@@ 1
桢 1
謊 1
Act 0.06593674896084346
Arts 0.06690092003143772
Line 0.0960102888137369
UP 0.653745118757617
貧 1
Is 0.15881439907753514
Corporation 0.11504365343085814
Sun 0.1343183000153327
que 0.0017661116354267396
哇@@ 1
4.7 1
78.@@ 1
ema 0.14665685397154318
public 0.02440795125540333
吠@@ 1
噬@@ 1
玟 1
Science 0.08788600572018783
竊@@ 1
贖 1
償@@ 1
绸@@ 1
1808 0.3657835915988154
618 1
椒@@ 1
VII 0.1987278562356216
set 0.02812481074852398
za 0.05394870193198746
曳 1
史密@@ 1
1791 0.45823178960289856
DA@@ 1
Ke@@ 0.0856805079743303
挾@@ 1
闹 1
я 0.02962243781402064
煞 1
邮 1
ach 0.04779458710084362
灼@@ 1
秒@@ 1
翊@@ 1
靶 1
6.7 1
240@@ 1
銓 1
1829 0.3369275723470434
5.4 1
ge@@ 0.023638022417509917
iPad 1
蛺@@ 1
蝸@@ 1
衬@@ 1
谓@@ 1
253 1
ath@@ 0.08190645380894004
媛@@ 1
忻@@ 1
撓 1
VI 0.14367047829891244
璇 1
瘋 1
4.4 1
EP@@ 0.4624374403374867
拇@@ 1
昔 1
312 1
680 1
General 0.030925969082992482
have 0.006869979397953641
š 0.3675891088299482
1796 0.4505865746200231
│ 0.12353108465510287
倩@@ 1
愧 1
擅 1
椿 1
266 1
锈@@ 1
6.8 1
iz@@ 0.04377789028478205
昼@@ 1
蔥 1
Hi@@ 0.19035153218220455
Im@@ 0.0740433288544673
訶@@ 1
钞 1
Ap@@ 0.09755307071424704
孢 1
AU 0.57541649130617
Vo@@ 0.13231902892828698
ona 0.06076723818027212
妲 1
飪 1
Cube 1
Edward 0.08166301905072025
oma 0.10302056906698777
斂 1
斧@@ 1
査 1
螂 1
E3 1
毓 1
俭 1
315 1
COM 0.9219412329387329
僻 1
喊@@ 1
悅@@ 1
楞@@ 1
洩 1
矯@@ 1
詐@@ 1
1823 0.37933298659889686
236 1
κ 0.46697118553487194
赢 1
鼩 1
7.2 1
El 0.007047950718730034
ュ 1
271 1
Station 0.0870975171986962
fo@@ 0.07815355796865547
睞 1
肇 1
150@@ 1
scope 0.3434652372484938
黛 1
叭 1
79.@@ 1
Kh@@ 0.07879138969870318
ette 0.043168718314735025
姨@@ 1
迭 1
1818 0.33779284072853616
GPS 0.9517819041187459
湧 1
芥 1
007 1
244 1
ACE 1
hu@@ 0.07571855406969687
self 0.07837140979233512
迺@@ 1
雏@@ 1
DT@@ 0.8497408451549018
况@@ 1
叮@@ 1
妆 1
斯大@@ 1
襯@@ 1
负责@@ 1
鳅 1
281 1
282 1
敞 1
BE@@ 1
Gal@@ 0.07351367939982963
YG 1
癱@@ 1
Battle 0.08779915518348431
MG 0.6423196991089268
鄺@@ 1
饷 1
257 1
PI 0.6684943734807
г 0.026273429317591048
绣@@ 1
鸞 1
08@@ 1
1775 0.5184316525306892
248 1
1803 0.3396562588480944
lin 0.09132796917932462
匆@@ 1
焘 1
弥 1
Chinese 0.06435043192909543
儉 1
喃 1
MW 0.50006984229331
ィ 1
查德 1
禍@@ 1
诈 1
Mozilla 1
ence 0.03766743837743809
ty@@ 0.09447168208882953
攀 1
趋 1
237 1
CL 0.6651718037827247
彥@@ 1
洮@@ 1
1802 0.38169268393276107
338 1
Rad@@ 0.09527624351432995
厢@@ 1
Mnet 1
昶 1
纂@@ 1
鏢 1
GP 0.4149511427481171
龛 1
1816 0.33824325591294385
9.5 1
Jo@@ 0.10635290700832781
he@@ 0.03993414812638104
Dr@@ 0.0653258896936822
if@@ 0.058632001880469194
ys@@ 0.07973615163652757
佟@@ 1
涿@@ 1
321 1
臼@@ 1
麒 1
BI@@ 1
tri@@ 0.05058614545009449
灑 1
熄@@ 1
鵰 1
247 1
7.8 1
鑄 1
2400 1
2600 1
6.3 1
Party 0.040283754809340655
パ 1
硕 1
272 1
Hill 0.07140317007379193
mg 0.7546405097407796
ن 0.39623584026113473
碁 1
357 1
CK 1
ens@@ 0.028927001201445077
ve@@ 0.08339839766555202
歙@@ 1
VC 0.6174846062781216
ê 0.5516294170686694
伶 1
煎 1
蝽 1
319 1
98.@@ 1
嘱 1
墜 1
樟 1
Sa@@ 0.08746633366429023
廚 1
颍@@ 1
Ko@@ 0.07058113390727627
彌 1
艋 1
268 1
旌@@ 1
沅@@ 1
960 1
HE@@ 1
our 0.04849494967134712
瘓 1
蕃@@ 1
1798 0.3923913471686925
虧 1
3DS 1
ung@@ 0.05615893378035336
僉 1
檗 1
261 1
ر 0.399177949425981
舺 1
黴@@ 1
284 1
ev@@ 0.04037694339968047
ng@@ 0.1017769748634653
崧 1
碰 1
胥 1
Note 0.2790805908426168
oides 0.3253171773285075
蓼 1
As 0.01805181274381001
ハ 1
杠 1
N1 1
mi@@ 0.06822215717639976
卿@@ 1
堯@@ 1
脅@@ 1
葺 1
AO@@ 0.8239694190982134
tor 0.05660894877243077
tra 0.0760528228329865
え 1
寝 1
秩 1
FL@@ 0.6983418814934305
War@@ 0.07290984388852846
ota 0.09399993438638216
骁@@ 1
撿 1
歴 1
730 1
Em@@ 0.08044264455300901
ade 0.045957619045858836
纱@@ 1
骷@@ 1
295 1
903 1
for@@ 0.026668161010486486
ico 0.06352614058581525
JT@@ 1
沾@@ 1
VR 0.9938412465326906
わ 1
誡 1
鎂 1
ola 0.08508979902866158
締 1
鹏@@ 1
Az@@ 0.10592906212972576
咐 1
囑 1
鏽 1
2100 1
2024 1
Ang@@ 0.08093970821832898
Firefox 1
賂 1
ong@@ 0.09746119202371052
web 0.14411477779798218
峨 1
蝦@@ 1
6.6 1
Mike 0.11906042843207615
ore 0.04976916959288501
桅@@ 1
殯@@ 1
Royal 0.03863477652065294
绩@@ 1
缠@@ 1
has 0.004606579264588864
頰 1
1568 1
Free@@ 0.7153383379613383
Hel@@ 0.09160282514723152
辱@@ 1
FT 1
Ly@@ 0.11216234382174797
light 0.05052150043917807
С 0.022934383598232685
Cu@@ 0.09722705066823917
LP 0.20877978118612017
WTA 0.580104935712547
屎 1
黯@@ 1
Little 0.10666078808117711
ting 0.026507549902287555
扼@@ 1
潟@@ 1
蓟@@ 1
1817 0.3530099376034461
Hz 1
煎@@ 1
660 1
IL 0.39380243794920716
var 0.30104279245532617
伶@@ 1
僉@@ 1
剔@@ 1
510 1
999 1
ß 0.2054768187554203
钻 1
1780 0.4591632664513421
274 1
tr 1
德華 1
螨 1
258 1
Digital 0.24632884052095022
赁 1
倘@@ 1
3C 1
Kr@@ 0.052404415177248816
gu@@ 0.04604194113122465
以色@@ 1
膚@@ 1
艳@@ 1
288 1
me@@ 0.045495813472374115
η 0.027112002770998976
Alexander 0.07284209994179079
Av@@ 0.09073512324575388
Tel@@ 0.1428267578567677
first 0.004717681577033378
琉 1
薯@@ 1
Awards 0.0576447012022422
Ta@@ 0.12092886212412908
ama 0.0602061669634099
● 1
檎 1
诰 1
Scott 0.09608864076235892
ow@@ 0.06561355104897969
匠@@ 1
Wal@@ 0.0651577209617968
aceae 0.1150226112388329
沥@@ 1
籽 1
践@@ 1
辗@@ 1
269 1
276 1
TW@@ 1
283 1
垦@@ 1
壤@@ 1
钩@@ 1
驸@@ 1
Mus@@ 0.06780329822804765
Daniel 0.08309334229188745
ops 0.15862912000078286
捆@@ 1
滁@@ 1
were 0.0030994104631170533
Tur@@ 0.0697716567987262
沽@@ 1
笈 1
AW@@ 0.6761371364821415
逍@@ 1
醮 1
鬧@@ 1
ek@@ 0.04046507382324498
1750 0.5692648611596467
SB 0.5423236748547385
缚 1
1650 0.7810956857688994
313 1
瀝@@ 1
缴 1
Of 0.11357533685183234
Ter@@ 0.07940905917544161
凋@@ 1
96.@@ 1
AX 1
ins 0.024191454176913662
world 0.028121165200177895
錘 1
髒 1
up@@ 0.05163764636824826
墘 1
櫛@@ 1
除此@@ 1
AND 1
唤@@ 1
謬 1
ai@@ 0.10197173701706634
MX 0.9658725261027389
ta@@ 0.06519524149370769
瑤@@ 1
55.@@ 1
驰@@ 1
Cam@@ 0.10413301298085323
Sar@@ 0.07348137467287204
ides 0.05409929427417409
tor@@ 0.0410336158789429
ガ 1
垫@@ 1
42.@@ 1
Great 0.06062095560506742
IV@@ 0.7584113843320504
sen 0.04358393512937422
莘@@ 1
199@@ 0.9258446018509989
Ba@@ 0.10246395193327547
宵@@ 1
醯 1
钴 1
52.@@ 1
Hu@@ 0.08315272851886557
YP 1
潢 1
艙@@ 1
Cap@@ 0.1053343058456016
WS 0.8886527401847107
貌@@ 1
ato 0.06021244648253929
star 0.0907985744283327
咏@@ 1
遁 1
1645 1
7.1 1
Phone 1
eng@@ 0.04368560028117413
锤 1
1622 1
HTTP 1
ND@@ 1
40.@@ 1
ax@@ 0.09077638784491227
窒@@ 1
窖 1
1788 0.49013627549466027
掖 1
CW 0.7621075821442604
Sky@@ 0.3381150527307048
兀 1
徘@@ 1
梵 1
榄 1
緒@@ 1
腕@@ 1
333 1
EV@@ 0.9858799196333689
TCP 1
Tub@@ 0.8411220485535068
刪 1
Dec@@ 0.08920307219073215
疗 1
2030 1
375 1
J2 1
cor@@ 0.034267653682742115
堺 1
晦 1
槐@@ 1
皂@@ 1
740 1
PV 1
ひ 1
洼 1
gr@@ 0.027475541810670016
湊@@ 1
舷@@ 1
4.9 1
孺 1
259 1
277 1
309 1
ain 0.05162576907051931
綾@@ 1
蚕@@ 1
ain@@ 0.07141969016189886
ors 0.021504936983173486
メ 1
拂@@ 1
隧@@ 1
1640 0.7994150157020493
dis@@ 0.013942846262960579
icus 0.2519559558516491
ket 0.35161553348142
ts@@ 0.045324343766835466
憎@@ 1
1787 0.4897804949909806
Technology 0.13685700050654928
愛荷華@@ 1
焕@@ 1
苳 1
莺 1
Master 0.12502595031392955
п 0.10001443101867417
287 1
ダ 1
佗 1
LG@@ 0.7839487176400465
Lam@@ 0.14560366386051213
SN 0.8449404026534015
don 0.0725351548904717
opsis 0.40239234180322647
咳@@ 1
騷 1
4500 1
APG 1
奘 1
滯@@ 1
胥@@ 1
Jr 0.14356035211354246
攜 1
蘑@@ 1
54.@@ 1
oa 0.1542465112507537
孺@@ 1
mann 0.04080675497687347
160@@ 1
570 1
ame 0.09941530351895221
bl@@ 0.03148438749547132
his 0.0022029602143412816
婢 1
Drive 0.3112442094156348
彬@@ 1
柩 1
賭 1
鹃@@ 1
7.7 1
eo 0.07958895698232925
佃@@ 1
肘 1
膀@@ 1
Sin@@ 0.13030611072471093
of@@ 0.06691046015794823
姨 1
阙 1
GHz 1
ann@@ 0.0634554846578076
767 1
砸@@ 1
Works 0.18534604532781834
atum 0.3001189677113255
彝 1
魮 1
Frank 0.08091495575456861
RE 0.7001870961865224
Software 0.2841191118890418
侈 1
勵@@ 1
拙 1
279 1
Hot 0.12527119525856578
Rec@@ 0.07232395301868616
com@@ 0.033500733303897974
function 0.11266840497764484
歳 1
涧 1
誥 1
A3 1
Brown 0.07757822677821806
釉 1
鬣@@ 1
鹘 1
Fo@@ 0.11640431168845597
德华 1
JavaScript 1
Ri@@ 0.0672936816251635
烽@@ 1
皓@@ 1
裴 1
ili 0.19483480936110673
慣 1
民國@@ 1
瘫@@ 1
296 1
Union 0.031146962794111967
oth@@ 0.0904802821356471
鞍 1
餵 1
1783 0.466181711254072
66.@@ 1
坟 1
湍@@ 1
180@@ 0.835149324804434
2200 1
Taiwan 0.2431409441070043
Tar@@ 0.07722021995036579
anensis 1
螯 1
″ 1
妆@@ 1
7.6 1
Lake 0.053609627412341807
aya 0.08267931214469652
嚮 1
曬 1
穆斯@@ 1
LG 1
ment 0.027261168880282294
日耳@@ 1
Global 0.18722111336893357
War 0.020565678911963713
悦@@ 1
腭 1
97.@@ 1
Gi@@ 0.07715680066236907
Wo@@ 0.1950267061986701
谎@@ 1
刹 1
摄 1
蝇 1
43.@@ 1
PR 0.3146906444604306
抬 1
歉@@ 1
Ger@@ 0.04987062640751404
栃 1
膛@@ 1
荼 1
710 1
A4 1
Fin@@ 0.1132735997443362
煜 1
睾@@ 1
闰 1
1827 0.3270634346932495
299 1
KB 1
tv@@ 1
沱@@ 1
HP 0.41533641877919003
蠻@@ 1
5.0 1
Pal@@ 0.068891762586384
system 0.02259523568631862
南極@@ 1
栓@@ 1
Por@@ 0.07437242493473414
徊 1
灶@@ 1
贬 1
130@@ 1
ash@@ 0.07995586795559252
est@@ 0.030601618591856988
滦@@ 1
65.@@ 1
堃 1
弼@@ 1
簷 1
账 1
蔔 1
324 1
Ban@@ 0.07430268557993555
Chris 0.11161410844655786
eus 0.21238651495940314
inus 0.20963599410584707
lan@@ 0.07518298362102882
θ 1
筱@@ 1
谜 1
焰@@ 1
He 0.0035259630560148325
Sur@@ 0.07862246802240422
289 1
780 1
Model 0.24253964571148887
Wi 1
ut 0.06589541365046125
嗓@@ 1
骚 1
298 1
Bay 0.061556879383347134
忱 1
桅 1
绸 1
謗 1
冼@@ 1
娩 1
癖 1
385 1
MM 0.9451921919859924
cu@@ 0.04061232275604035
ings 0.024285674437378627
喇 1
鑰 1
335 1
Cup 0.027226904771304385
512 1
73.@@ 1
Mil@@ 0.06980629611430393
檯 1
蔗@@ 1
331 1
uc@@ 0.08035898133282375
Joe 0.09668569730163577
York 0.014350175875533961
ye 0.049333042916033625
ي 0.1769007756383285
丈@@ 1
槌 1
56.@@ 1
Journal 0.11219052679341049
Series 0.07727871883209342
Ul@@ 0.09628601488219188
所在@@ 1
璐 1
繕 1
Sor@@ 0.11171592243947033
甯 1
痪 1
278 1
CR 0.3381134046679786
MR 0.6644644535515705
崴 1
挠 1
疣 1
Santa 0.04888309610343505
Special 0.13323373151770748
ATA 1
odon 0.564219227630741
瀧@@ 1
San@@ 0.06645003936216018
抢 1
273 1
7.3 1
Explorer 0.5982023886960601
凳 1
赢@@ 1
馴@@ 1
1592 1
820 1
Mad@@ 0.07066747809493112
chi@@ 0.08169478715385996
ë 0.3621926141319987
2300 1
267 1
742 1
ō 0.09126162965731059
婁@@ 1
趾@@ 1
72.@@ 1
م 0.2653815103123413
膏@@ 1
鲷 1
筲@@ 1
ビ 1
钝 1
闖 1
51.@@ 1
Andrew 0.1134562296967031
ets 0.02899541322069368
め 1
琅@@ 1
顛 1
驯@@ 1
757 1
PD 0.44002202209843877
we 0.04349600328285364
ь 0.055424750205644045
佘@@ 1
惇 1
郴@@ 1
124@@ 1
蔽@@ 1
蟹@@ 1
霉 1
1811 0.3287706164121412
Square 0.1613654439864041
gen@@ 0.034517008935220236
纶 1
蜱 1
62.@@ 1
Lady 0.11426964297178557
ath 0.07699786468443527
廓@@ 1
轎 1
鈔@@ 1
H2@@ 1
NS 0.30483455569064455
but 0.005159059069687424
攔 1
笃 1
臼 1
韬 1
屠 1
炉@@ 1
M3 1
垮 1
釜 1
櫚@@ 1
糸 1
Pl@@ 0.05394088335208722
ost@@ 0.08141847247325774
镶 1
Free 0.1545942277543818
KK@@ 1
ish 0.050102361302753834
住民 1
燭 1
衮 1
621 1
U19 1
寞 1
揽 1
杞 1
inae 0.2249413883233509
74.@@ 1
oh@@ 0.07545564701423127
ra@@ 0.05751907713627425
Express 0.17772201048977473
SK 0.3504941219616106
胄 1
讽 1
WO@@ 0.9642957636892387
75.@@ 1
FX 1
Wil@@ 0.06915135185645852
lo 0.012443884101450454
铉 1
PN 0.9205228999410517
髻 1
590 1
978 1
Air@@ 0.1524495295182314
僭 1
忒@@ 1
Les 0.009798660660143503
M4 1
賄 1
踝 1
An 0.03193588545279175
喆 1
嬉@@ 1
磋@@ 1
190@@ 0.5370238006413066
φ 0.798060032856314
薰@@ 1
鸠 1
589 1
670 1
Space 0.15403474616803473
Town 0.08005755363503762
ali@@ 0.061620477370724666
ich@@ 0.056623009164669225
tia 0.13313237209678713
x86 1
樽 1
莪 1
Cat@@ 0.09885845210231177
ki@@ 0.07208198365246037
粲 1
艇@@ 1
53.@@ 1
880 1
NO 0.9106935460133366
Press 0.12654550465300474
cast 0.07559859160339433
ray 0.2099449676878499
sc@@ 0.04894552505627812
鞠@@ 1
鵬@@ 1
12.5 1
291 1
292 1
day 0.0194711335407109
od 0.1139255854718778
啤@@ 1
嘗@@ 1
沾 1
颶@@ 1
405 1
AST 1
Christian 0.04448523263125708
File 1
羣 1
鈎 1
钛 1
1582 1
293 1
Museum 0.04445131034018171
lin@@ 0.04732161290384982
198@@ 0.9729783471944746
690 1
AAA 0.715726975592367
Lov@@ 0.18457855331102416
ati 0.08910488570439995
1580 0.9378535658068985
NP 0.6837536555292241
捏@@ 1
犀 1
膦 1
eta 0.06217935700960326
杞@@ 1
柠@@ 1
綢 1
C2 0.8323983166868395
Mi 0.42800738597451377
賺@@ 1
郸@@ 1
鎚 1
饪 1
10.5 1
苏格@@ 1
― 0.6557410166410842
ょ 1
纱 1
铬 1
瘾 1
能性 1
Tre@@ 0.08306566637229122
瑰@@ 1
758 1
Sub@@ 0.07137732729761366
wa 0.04496618083770432
榴 1
314 1
5.9 1
Bill 0.08457003285697592
咏 1
NCAA 0.13849718799991087
窄@@ 1
驹 1
Code 0.19906158009408306
ran@@ 0.04831251975038337
泵@@ 1
綺@@ 1
250@@ 1
322 1
FIFA 0.1717394018142302
Hor@@ 0.06554088704942751
Micro@@ 0.28197329473790844
TE 0.45601151832717074
What 0.156453008193045
ire 0.04897764149943985
67.@@ 1
ro 0.08487427172095244
ろ 1
殲 1
泼 1
艉 1
鋅 1
钥@@ 1
1583 1
1797 0.36980431517713713
404 1
arg@@ 0.11648054868162568
mRNA 1
ode 0.15629100712386154
吒 1
嗅@@ 1
痴@@ 1
羁@@ 1
謁 1
鈦 1
1550 0.8276636601562748
1777 0.5100225901221987
2700 1
Council 0.03565978829045524
kin 0.0901415541318059
m3 1
77.@@ 1
ese 0.02807698208817914
ns 0.07117492261212487
ser@@ 0.03805625397057935
竄 1
CoV 1
WA 0.39716040525084667
let 0.07329175139904309
off 0.019931659657951184
sub@@ 0.02349809725225602
祸@@ 1
345 1
min@@ 0.03579214651977107
珉 1
耻 1
肄@@ 1
＋ 1
The@@ 0.09171676516401435
鎧@@ 1
Bas@@ 0.07019082815343286
aj@@ 0.05514441848690457
缔 1
oni 0.10065024615403811
圩 1
妤 1
鱇 1
1598 1
Reg@@ 0.049351737320751814
卅@@ 1
糟 1
7.4 1
H2 1
么@@ 1
驿 1
607 1
糕@@ 1
闕 1
鴿 1
70.@@ 1
VS 1
case 0.0392720752104355
use 0.014621552896730568
莽@@ 1
1571 1
ky 0.07328236748705232
sa@@ 0.07863376943365576
蔑 1
釉@@ 1
502 1
禱@@ 1
跪@@ 1
闇 1
0x@@ 1
1570 0.9141900824205139
Heart 0.19937631705357148
SU 0.4274239902622477
荥@@ 1
294 1
IEC 1
疵 1
鮭 1
浊 1
艷 1
316 1
要性 1
490 1
1648 0.6586405165799442
830 1
data 0.06075541678974155
ect 0.08958281151255838
two 0.0055132327115671766
弩 1
耿 1
麽 1
ome 0.08786371941276963
蟒 1
787 1
810 1
FDA 0.83248785546735
SR@@ 0.5408677367921184
翹 1
NI@@ 0.8765595396698148
OT@@ 1
稠 1
絞@@ 1
鮟 1
厥 1
捧@@ 1
氾 1
渦 1
翊 1
逮@@ 1
317 1
峻@@ 1
IPv@@ 1
London 0.023240791697778766
愷 1
1621 1
Cur@@ 0.07841791862788608
Eur@@ 0.13895070295424555
ji 0.08800369733388765
505 1
SF 0.5280854430413656
宕 1
挡@@ 1
HIV 0.436078467920649
art 0.02301101264563248
bar@@ 0.027453441283367228
pop 0.08664763028186695
奬 1
聆 1
Hal@@ 0.07536185037888565
Net 0.6521560569195757
匣@@ 1
60.@@ 1
б 0.07964140171989248
馏 1
707 1
Sam@@ 0.06845398246715814
Summer 0.0663050196520469
嫂 1
尝 1
柚@@ 1
邵 1
4G 1
SH 0.4948780263218776
倪 1
兮 1
334 1
Flash 0.5254093446690903
ast 0.06874250532431393
lis 0.09901446269663926
羞 1
逕 1
噴 1
诱 1
琨 1
蝎@@ 1
1625 0.9378046864327109
DL 0.6036883508420956
OF 1
FBI 0.3606898087533379
锰 1
ian 0.042430427021990756
mer@@ 0.027845740913861196
ole 0.057829769199999236
拢 1
1778 0.480088327605076
760 1
廬 1
矚@@ 1
ters 0.0411900369045947
⋯ 1
履 1
dr@@ 0.030538632208383196
佤@@ 1
呤 1
夾 1
扭 1
畠 1
裤 1
誹@@ 1
402 1
America 0.035628334120418374
Ty@@ 0.1483449180252707
ri 0.10231793636028066
1770 0.4553603477603936
Centre 0.0636360921851469
Cer@@ 0.08673254009473287
UM@@ 0.6682737022965696
厕@@ 1
拐 1
檬 1
剎@@ 1
＂ 1
Ben@@ 0.061892931825117216
Mir@@ 0.10074351322975862
唾@@ 1
诫 1
谅 1
Lis@@ 0.2794696873612755
PK 0.9762886567034901
PSP 1
ズ 1
碇 1
荆 1
贩 1
驟@@ 1
Festival 0.041614309907349364
塚@@ 1
腈 1
Steve 0.10643918899536584
die 0.001015214152827863
摔 1
撇@@ 1
穹 1
膩 1
楣 1
镀@@ 1
顱@@ 1
297 1
ze@@ 0.07338802429717604
ы 0.0222130221553055
峪 1
缉@@ 1
蕉@@ 1
353 1
Eric 0.145270681511548
XT 1
old 0.023239744232253265
329 1
Two 0.05826109700403533
灘@@ 1
脇 1
4A 1
鷺 1
檐@@ 1
泪@@ 1
臥 1
麼@@ 1
IMAX 1
ness 0.05386032024627435
吵@@ 1
茛@@ 1
蘊 1
璘 1
EMI 0.6431871632653157
Kin@@ 0.12002105275593768
ich 0.04786054386165203
ish@@ 0.06264900201534561
丐 1
颅@@ 1
槭 1
425 1
周恩@@ 1
幽 1
曜@@ 1
蕈 1
鋸 1
閑 1
恺 1
鐮@@ 1
钓 1
tic@@ 0.07218943085373344
蔑@@ 1
媳@@ 1
352 1
FN 1
緋@@ 1
Far@@ 0.07446073666163583
婉 1
醬@@ 1
Studios 0.13971606348612395
tes 0.02006626253542237
蚜 1
髓@@ 1
Central 0.03634760913357588
Soc@@ 0.38913967406471556
孩 1
汛 1
鮭@@ 1
355 1
GN 1
HD@@ 0.723724942958671
RN@@ 0.4646736506904834
pp@@ 0.07888165286709117
佬@@ 1
2800 1
465 1
Direct@@ 1
IF 0.36618316453478084
Management 0.126918948821301
³ 0.25639624119106397
谜@@ 1
RFC 0.8419178804734178
mat@@ 0.04744211347602306
ted 0.015211931782806741
瀕 1
競 1
ill@@ 0.03379363783545871
厌 1
暈 1
555 1
8.2 1
ч 0.09407704183132336
5G 1
910 1
DL@@ 0.8074742342293976
ø 0.6198830303990551
贻@@ 1
Place 0.17681595287327154
du@@ 0.041974594392246566
ez@@ 0.058951954392628396
ser 0.0197921379931942
モ 1
揭 1
褲@@ 1
583 1
Dance 0.1740702746400413
Gre@@ 0.06913105902763607
Systems 0.2041144473187941
form 0.021593876678401642
А 0.03763573544687243
瑕@@ 1
竺@@ 1
诽@@ 1
ARM 1
Sel@@ 0.08073701743767718
eng 0.10772913000399427
hi 0.10072005120805023
狡@@ 1
ili@@ 0.06417618007881182
涨@@ 1
玖 1
褐 1
迥@@ 1
384 1
BRT 1
iPod 1
ira 0.08069326686799479
oo 0.1988601022206425
ud@@ 0.07515285040115802
巒 1
愤 1
暮 1
漱@@ 1
猝@@ 1
1628 0.968043188483016
840 1
Key 0.311367375379955
Pierre 0.048943437707472594
op 0.09723167151238989
滥 1
瞳@@ 1
荊 1
镰@@ 1
12.7 1
407 1
Rem@@ 0.10370696541496939
ē 1
帅@@ 1
搜 1
赚@@ 1
Sw@@ 0.09044958403965334
USS 0.2135786763290806
ce@@ 0.0922298610627319
乒@@ 1
晷 1
770 1
STS 0.9150690315896822
cha 0.06287001533051642
宦 1
蔓 1
ess@@ 0.04282046614367336
凑 1
喘 1
櫸 1
Box 0.2637961442047369
Design 0.12789813606044875
Syn@@ 0.14956744713528064
峭@@ 1
邂@@ 1
鹉 1
1785 0.43491992910023963
89.@@ 1
AE 0.5998341298119538
MA@@ 1
Ur@@ 0.05392378482357689
梢 1
藜 1
1630 0.7406773245750765
焉@@ 1
绛 1
SG 0.3009468269804843
Sky 0.21649377175670184
Met@@ 0.11261772910678995
Not@@ 0.08073133591167608
ech 0.14462837985775873
蔻 1
1784 0.398561549361624
刮 1
昊@@ 1
］ 1
359 1
6.9 1
HA 0.546185484106071
ace 0.07091959889218555
ip@@ 0.11300246195428723
扔@@ 1
祷@@ 1
酱@@ 1
403 1
Ch 1
ft 0.06471672268963104
肾 1
逅 1
颁 1
con 0.003214583103733169
扈@@ 1
脅 1
鞅 1
Luc@@ 0.11963865223281424
鹛 1
327 1
354 1
BP 0.49100940588122877
哩@@ 1
胱 1
＝ 1
懲 1
邕 1
咕@@ 1
咽 1
MK 0.9009687505784008
惰@@ 1
［ 1
328 1
Football 0.04435413954823781
GPU 1
П 0.09886033466802226
婪 1
碲 1
鈕@@ 1
麝@@ 1
3G 1
elli 0.08026402165671322
潼 1
Ben 0.10561612393982232
pre@@ 0.02210910317694914
ū 0.24709072241184074
办事@@ 1
踞 1
銃 1
鳃 1
344 1
Mu@@ 0.08517168846010627
NG 0.9550981829044272
back 0.017342350713652286
ick@@ 0.05468157108874088
tin 0.0453708486061453
豌@@ 1
頤 1
Out@@ 0.1747754558257862
ali 0.08278904057853818
叟 1
碾@@ 1
輿 1
1631 1
1661 0.8600181746851586
356 1
嘧@@ 1
New@@ 0.12174527994300902
illa 0.05549249445421711
و 0.06637468857758518
1573 1
1636 0.9903910235497696
res 0.08248205948318943
525 1
Kir@@ 0.09672068285029552
och@@ 0.08539703966944595
伊斯兰@@ 1
壠 1
笋 1
羹 1
萍@@ 1
1521 1
Ku@@ 0.10529712045586635
歧 1
罄 1
ha@@ 0.061056447131145934
Δ 0.7569283879635732
1601 1
MR@@ 0.7154050254650899
TER 0.9352975242371756
UK@@ 0.7256091022670925
aur@@ 0.09636808433782602
ten@@ 0.025107754444844223
ul 0.09220236972265329
せ 1
曇 1
维吾@@ 1
6.0 1
Bob 0.09841174515269241
懈 1
纤 1
蓉@@ 1
O4 1
Prot@@ 0.09237460089391213
Si 0.0863334124548382
Van 0.07789756497222122
port 0.043009680679080516
NC 0.4392641364489411
蝗@@ 1
1565 1
1616 1
416 1
PO 0.5985167746844554
溜 1
煦 1
贮@@ 1
921 1
夸 1
柿@@ 1
蜆 1
谤 1
888 1
Cin@@ 0.1622905586840962
less 0.029990324910311218
pro@@ 0.03768841884339306
貪 1
140@@ 1
EX 1
Pop 0.20582295838397272
巅@@ 1
泾 1
瘤@@ 1
韧@@ 1
1553 1
Bon@@ 0.09071541521251558
Out 0.13829139108139554
ett 0.05737316825518543
戳 1
炫 1
炯 1
疟@@ 1
瞒 1
诅@@ 1
鼐 1
1603 0.8198768656022688
367 1
Edge 0.4384076151650311
F2 1
Ol@@ 0.06649203808819427
Song 0.08554865496529215
翌@@ 1
錨 1
ib@@ 0.06325122788241165
勖 1
卦@@ 1
挣@@ 1
毛泽@@ 1
1786 0.44623139039998566
395 1
870 1
930 1
Black@@ 0.15387629901590383
Su 0.03498862493672003
und@@ 0.041529284979394676
斡 1
渾 1
脷 1
菸@@ 1
隍@@ 1
88.@@ 1
had 0.003296522267367692
ten 0.00813366685264554
睐 1
1368 1
Che@@ 0.15455940077652822
GN@@ 0.8328443812890675
Gro@@ 0.08677319813340872
瓚 1
絃 1
蚓 1
诃 1
1620 0.7008323154127402
G1 1
VL@@ 1
kW 0.31936972861904067
the@@ 0.056402314231249195
tom@@ 0.07698424852920276
嗽 1
蚌 1
Light 0.14123528702087637
Marie 0.05313418071679905
act 0.04860748272449394
Ig@@ 0.20559784495362285
弁 1
枣 1
諦 1
遐@@ 1
358 1
860 1
Beyond 0.4910241490820049
Bit@@ 0.2203755553191696
District 0.023736727318062693
Kan@@ 0.06576211962441113
Mak@@ 0.10162420415677513
eme 0.15697127997183763
衢 1
鄴 1
鎬 1
BR@@ 0.4507417947091122
缉 1
襟 1
Sim@@ 0.09369849649516454
ative 0.031176062739965312
king 0.034737636855074874
res@@ 0.02567938677216821
К 0.050286725741646957
噁 1
樊 1
Dol@@ 0.09555205077686253
E2 1
PDF 1
ard@@ 0.05430765152551972
ating 0.017949431224822517
玫@@ 1
1646 1
trans@@ 0.02945063703725877
晝@@ 1
桁@@ 1
IO@@ 0.7578009356480206
TL 1
悠 1
谿 1
鲤 1
1643 0.9004525981645112
fac@@ 0.0862892585648022
ster 0.04821776880717255
椿@@ 1
氙 1
醋@@ 1
钞@@ 1
Sam 0.12479958922578689
bian 0.26467022025576614
拮@@ 1
耽@@ 1
蚜@@ 1
1772 0.4620792382477468
CON@@ 0.7923306927008514
垒@@ 1
轩@@ 1
192@@ 1
County 0.014584465756670498
ere 0.03516015485514859
嘌@@ 1
弛 1
抖@@ 1
95.@@ 1
Meg@@ 0.18244309913491538
WT@@ 0.5655361318442627
壢@@ 1
聿@@ 1
陕 1
1st 0.06074721904461364
Mod 1
Play@@ 0.21067105320633633
Pres@@ 0.07677627957605142
WH@@ 0.4822895124923607
ling 0.033940544796559925
will 0.015030800183109113
賑@@ 1
軀@@ 1
HT 1
Mur@@ 0.06649415285473143
滘 1
346 1
UT 0.6329999369206417
code 0.08245073667000251
苛 1
1586 1
宙 1
嵐@@ 1
掏@@ 1
矗@@ 1
蠶@@ 1
貳 1
1760 0.49794985008004683
Ci@@ 0.12589692263441774
Pat@@ 0.08030859975735863
ela 0.06480322955125997
get 0.04645595584408829
nan@@ 0.4774845046204491
瞳 1
蜓 1
1577 1
705 1
Mol@@ 0.07243046447178868
dium 0.26049776672063285
寸@@ 1
蚂@@ 1
8.8 1
8.3 1
Kal@@ 0.05681972615776701
RI 0.47525589356942544
ik 0.04873699866721239
抉@@ 1
立陶@@ 1
TT@@ 0.7293668432261339
菠@@ 1
锑 1
髏 1
Ray 0.13520784484213996
č 0.3873710498703014
.1 0.7660999312286735
Dream@@ 0.5641532087549995
Johnson 0.06869395768462817
ebook 1
螞@@ 1
1624 0.9528415633844803
351 1
ART 0.825793340409148
cc 0.46321225041962105
1763 0.4756586274036812
7.9 1
Ju 0.8772751470001913
恥@@ 1
祗 1
1574 1
411 1
LM 0.5683451760802523
Public 0.06748278855799215
訥@@ 1
1781 0.45178809344045384
Law 0.06928230511172775
绅@@ 1
鍛@@ 1
鏞 1
Men@@ 0.07097360517062457
D1 1
Disney 0.11072275466827547
ates 0.019142237319193456
杵 1
衙 1
鎳 1
鮑 1
鹵@@ 1
--- 1
343 1
361 1
Class 0.13963377061062682
ima 0.08340438564348474
rowspan 1
幂 1
桔@@ 1
蒴@@ 1
625 1
Stephen 0.10402774039157099
图书@@ 1
窘@@ 1
訣 1
閔 1
485 1
UE@@ 0.6760131419676494
ents 0.02601727267078712
谏@@ 1
HO 1
ise 0.020888984418042676
ito 0.05597220823213512
寓 1
1610 0.7570114772656866
1619 0.9808482380171594
195@@ 1
336 1
BMW 0.3433481838095632
Block 0.3012220623634847
ERS 1
Nav@@ 0.15736036152186042
iv@@ 0.061760888154211276
ock 0.07505393879458191
舆 1
1642 0.7732208149662079
980 1
爛@@ 1
Ed@@ 0.09477760761854861
over 0.007813593044984019
媳 1
谍@@ 1
霑 1
326 1
亳@@ 1
塊@@ 1
釁 1
371 1
Alpha 0.32166410366566095
British 0.016350186233889973
C6@@ 1
挨@@ 1
籲@@ 1
胱@@ 1
鱨 1
can@@ 0.03938408821494479
ゆ 1
嚼 1
岚 1
浓 1
ASCII 1
Children 0.1582891465614027
Foundation 0.07619722154728942
Sho@@ 0.11148792377253264
巾@@ 1
泻 1
燧 1
ius 0.1194271198620942
棧 1
餚 1
ASP 1
ass@@ 0.028642747800052687
their 0.003958590384085549
娠 1
浆@@ 1
鑫@@ 1
Pa 0.6671948073347196
number 0.0130683933937766
Story 0.19385488466306716
璧@@ 1
627 1
倚 1
悍@@ 1
憐 1
mu@@ 0.05333717496268973
怜 1
悶 1
Last 0.17747726851146894
彷 1
Dev@@ 0.08993098560985822
Tw@@ 0.19320548622662406
tro@@ 0.06351089307936106
1615 0.9923782025218597
337 1
8.6 1
Player 0.18335687453774166
Post@@ 0.10842023495680446
tive 0.036570236311341583
澡 1
鑣 1
馥 1
int@@ 0.06210600258839976
sy@@ 0.11038121771512613
while 0.011435316107462422
慌@@ 1
昇@@ 1
Film 0.026212818669212642
Pa@@ 0.1048313035567912
size 0.052633152549572966
壘@@ 1
感染@@ 1
旷@@ 1
獾 1
酐 1
鱲 1
IME 1
Williams 0.06550995586998076
side 0.018176863272839
弔 1
灸 1
眠@@ 1
1618 0.7888234616098017
HS 0.3709830129870985
薔@@ 1
Final 0.08631498917153957
80.@@ 1
惑@@ 1
掩 1
敲 1
洵 1
狠@@ 1
邮政@@ 1
581 1
HF 0.2855690600577561
箔 1
雾@@ 1
＆ 1
DT 0.485083991143605
IK@@ 1
az 0.0684227215902641
Fire 0.1458205821287757
GE@@ 0.7174798929065386
UM 0.7500562780162227
aurus 0.4150097817285586
枋@@ 1
碌 1
128@@ 1
1590 0.8215826619072957
406 1
AO 0.6364384466990503
ga 0.0702798702782278
俞 1
疚 1
龐 1
332 1
Academy 0.040603113315304945
UC 0.36093699387156747
咀@@ 1
捆 1
3200 1
535 1
ost 0.09904882946846208
urus 0.45203449462731204
幔 1
铂 1
鳄 1
1.5@@ 1
帘 1
貂@@ 1
迂@@ 1
酿 1
隘@@ 1
folia 0.4010502483747151
icul@@ 0.2503304471590583
TRA@@ 1
ly@@ 0.07277424889383224
з 0.05088698766463901
岚@@ 1
985 1
Jones 0.06138847717620074
adi@@ 0.056877483735586654
xi@@ 0.1511494673731753
兑 1
417 1
DV 1
篆 1
馀 1
528 1
MF 0.826653481423122
MG@@ 1
ding 0.05267708043197312
ds 0.038546839294183295
М 0.064107079527733
壩@@ 1
彧 1
Mini 0.5148828352102296
圩@@ 1
昀 1
柑 1
瓯 1
诛 1
1589 1
605 1
塞拜@@ 1
炱 1
礫@@ 1
繹@@ 1
肴 1
1730 0.5701167299290012
940 1
ke@@ 0.06081625185884202
纖 1
Name 0.054262014839585274
bus 0.0647105587954725
В 0.0030667042109057806
1000@@ 1
1627 0.8926863804816535
1774 0.42075753972176544
341 1
Band 0.04576620936284063
Show@@ 0.41244985615013524
侷 1
May@@ 0.08873584440555628
aw 0.18583564862009322
鸽 1
1604 0.910693391549405
Pop@@ 0.15220735731679047
Queen 0.06294575323206493
also 0.002935981243989819
酥 1
elle 0.007522541653492779
tics 0.06370177024536892
咲@@ 1
娑 1
宛 1
巽@@ 1
1585 0.9432270704618825
Moon 0.17692727619158322
TO 1
Up@@ 0.19178177592473053
WHO 0.9018251799324397
ŋ 1
祚@@ 1
驼@@ 1
415 1
556 1
Cop@@ 0.11209984990580109
D2 0.7333892110052597
cul@@ 0.06625158505603766
ello 0.05660507198046823
la@@ 0.059494507222575176
ver 0.050801136061019395
where 0.007507644630446504
俟 1
渔 1
del@@ 0.05155739622838564
栢 1
爷@@ 1
粱 1
菴 1
鑾 1
闍 1
fer@@ 0.027721814412261545
mer 0.03299329626676557
犹 1
窦 1
Pur@@ 0.0978054896545459
剃 1
璉 1
筏 1
Arthur 0.07383193718432834
Pen@@ 0.07656758042037033
SO 0.48976377781618485
bar 0.042427913196610156
group 0.01529863787038419
ms 0.06431104865935391
por@@ 0.04522656646187401
yc@@ 0.1273181039261867
1683 0.7779685184669533
342 1
DNS 1
U17 1
弋@@ 1
綾 1
虢 1
褶 1
366 1
Earth 0.08531892003440693
ID@@ 0.551769204529189
ISA 0.7335162773348585
Poly@@ 0.163072417695719
sky 0.06848392839069917
ı 0.11060191374906331
1609 0.8354735631065788
Bus@@ 0.08786702449605072
Hotel 0.1002985157718524
ori@@ 0.06291254588961986
偃@@ 1
冥 1
淦 1
狩 1
瘧@@ 1
葱@@ 1
鴞 1
yl 0.10567424230603549
383 1
惧@@ 1
袜 1
1782 0.3856952497903056
ero 0.03717125798473818
叩@@ 1
恨@@ 1
戦 1
Edition 0.2597064588986989
ler@@ 0.0370264884449311
su 0.003423557474508575
tica 0.06782894382229122
｢ 1
907 1
Control 0.2066034381908371
Shi@@ 0.10933798779581408
etta 0.10972819624883808
ike 0.12176949720766167
mail 0.2495216479663772
弩@@ 1
賤@@ 1
109@@ 1
1634 0.8088046894016746
Bridge 0.09394314715579545
棟@@ 1
１ 1
Let 0.22561052078412952
ass 0.07821252660062093
浇@@ 1
睢@@ 1
祐@@ 1
諺@@ 1
15000 1
476 1
Lord 0.056870459159735626
main 0.019727697366587197
咎@@ 1
熏@@ 1
腱 1
蕙@@ 1
399 1
cal@@ 0.047032680425421115
pu@@ 0.04667640888704408
348 1
VV@@ 1
ales 0.014938343812633046
ash 0.08960740016466437
box 0.08943856642920044
ory 0.04469999164854033
ど 1
寰@@ 1
汞@@ 1
AZ@@ 1
IE 1
Os@@ 0.06817257963456697
PT 0.5091853341344711
粪@@ 1
1559 0.9529846766148354
196@@ 0.8744981667573352
EL 0.5765340174683512
Je@@ 0.08976131144310352
KDE 1
MT 0.4984947947489879
呆@@ 1
扳 1
碍@@ 1
9.2 1
non 0.01659974250951568
920 1
Jim 0.09728990611535966
PH@@ 0.823350272645447
歆 1
珩 1
脩 1
铯 1
飆@@ 1
鰨 1
20000 1
970 1
瀨 1
踩@@ 1
377 1
Dor@@ 0.0724786182762701
PI@@ 0.664080062905853
Ru@@ 0.05906291857014948
value 0.08106051823758664
闵 1
骠@@ 1
508 1
Avenue 0.07769376196746947
God 0.07797860486415416
Mah@@ 0.061997660405421436
TY 1
chi 0.04642522501980933
歪 1
泮@@ 1
1723 0.734054976087218
Nov@@ 0.08236938287119291
On@@ 0.10460927444533336
Tak@@ 0.07795223371037836
list 0.03598491687398846
紓 1
綬 1
绢 1
鶯@@ 1
194@@ 1
AH 0.6256250374073227
GR@@ 0.594844360186706
R2 1
So 0.045147322780917695
嘔@@ 1
林匹@@ 1
柜@@ 1
1660 0.4939899325866705
347 1
California 0.02610463876031864
DSM 1
Pas@@ 0.06130212507198305
into 0.005908479912550142
栾@@ 1
箏 1
193@@ 1
col@@ 0.029513974377456294
筍 1
醍@@ 1
釣 1
435 1
617 1
懶 1
Fil@@ 0.08920023174885848
睽 1
酯@@ 1
靴@@ 1
驴 1
412 1
427 1
Res@@ 0.08752683055577659
U2 0.8771689127356412
厥@@ 1
Tom@@ 0.0937735770766109
枋 1
砾@@ 1
秧@@ 1
蚊 1
袞 1
pm 0.23687964653318747
抖 1
蜈@@ 1
鵑 1
fl@@ 0.02824004385684589
inger 0.04895953061872405
傢 1
摊@@ 1
轰 1
41.@@ 1
Dragon 0.23410038107347403
ros@@ 0.08781713502612928
xx 0.689176563853477
墅@@ 1
季後@@ 1
胁@@ 1
芋@@ 1
轭 1
1680 0.6068963328531791
Taylor 0.08221558111859367
atr@@ 0.0644070863191763
霄@@ 1
Business 0.094955863135501
寢 1
槿@@ 1
軀 1
1613 0.9300012321927692
8.4 1
DG 1
帚 1
轅 1
1595 0.9197832866096879
1779 0.4341227283029239
CF 0.2872726935678142
History 0.01798434134533507
棵@@ 1
蜍 1
339 1
408 1
551 1
Pix@@ 0.8183253625059034
嶄@@ 1
珈 1
纥 1
185@@ 0.49630203820579727
Fe 0.23587491495559615
憬 1
蜻@@ 1
遶 1
1556 1
Tro@@ 0.07023297620233113
Walter 0.06843667297201372
air 0.02958276668715607
cher 0.04405854346560084
Д 0.11497830433165325
喵 1
囉 1
骰@@ 1
SAT 0.8806328417945756
Zo@@ 0.16698908332551632
only 0.00756696059097751
ب 0.23999590429768522
俚@@ 1
嬌@@ 1
槓@@ 1
舫 1
醐 1
隈 1
1562 1
廍 1
慄 1
旻 1
螃@@ 1
387 1
612 1
GL@@ 0.7747350343961803
May 0.012336264595519677
匕@@ 1
荚 1
醴@@ 1
409 1
QS 1
諏 1
鱈@@ 1
Baby 0.22954929686676784
Simon 0.08161781266869399
bre@@ 0.035202065321814385
002 1
364 1
381 1
398 1
727 1
91.@@ 1
Fi@@ 0.08734972903856325
T2 1
UNIX 1
ault 0.08219511459925917
ust 0.07462580204524949
辍@@ 1
1662 0.8298654165016622
H5@@ 1
States 0.01091628428418906
TF 0.697475980288649
USA 0.043489423827803506
赈@@ 1
頁@@ 1
Don@@ 0.07435565642710266
LTE 1
剋 1
叹@@ 1
噩@@ 1
烴 1
耻@@ 1
AY 1
Vita 0.7147525712253726
狠 1
讞 1
谔 1
鄙@@ 1
1755 0.5366788950371557
hy@@ 0.08195113160625364
like 0.017862266612701457
悌 1
蚣 1
head 0.023108577953154828
yi 0.1271218873953271
恂 1
晒 1
讶 1
186@@ 0.4771789773921303
479 1
Hem@@ 0.13706996578062208
Yahoo 1
phy@@ 0.17089683143328335
劭 1
卅 1
滔 1
腻 1
菏@@ 1
378 1
418 1
475 1
Sk@@ 0.06438336587201343
macOS 1
懇@@ 1
榨@@ 1
焯 1
甄 1
钚 1
372 1
NFL 0.10441665530620585
媲@@ 1
浚@@ 1
蝉@@ 1
賊@@ 1
鰂 1
368 1
PAR@@ 1
Talk 0.45663093244148795
other 0.005664049531667572
桦@@ 1
澍 1
鸥 1
1612 0.8570690415180928
CB 0.38180557019521544
攸 1
钡 1
1517 1
Back 0.1732421379478844
Il@@ 0.07039770726707462
we@@ 0.03738139630240912
綺 1
貂 1
Ker@@ 0.07820972841423873
Uni@@ 0.0961153250688512
ally 0.015989098325780923
ef@@ 0.04916183127570253
噶 1
爹 1
螳@@ 1
이 1
Apache 0.6435337679933537
pos@@ 0.03681728960767514
ゅ 1
ェ 1
佯@@ 1
儁 1
眺@@ 1
石坑 1
辈@@ 1
Get@@ 0.3765406122428406
gl@@ 0.055013437952856035
寢@@ 1
煒 1
373 1
Jackson 0.07079839208952617
PD@@ 0.5173679561351285
tan@@ 0.05011634552431146
奠 1
芎 1
酉@@ 1
Operation 0.11189527938411703
micro@@ 0.08726287547403185
£ 0.06719006183215588
嘻 1
弋 1
彿 1
螢 1
郢 1
1547 0.934135796966866
1567 1
Like 0.09744545839674552
List 0.044191889265895096
house 0.01982884244074079
men 0.012690918544871822
晕 1
瀚@@ 1
矫@@ 1
賤 1
499 1
509 1
619 1
Can 0.19270323871909517
Li 0.13583118531774702
MAN 1
Ma 0.19086835765986707
O3 1
Times 0.05109073513333112
cl@@ 0.03417319634996841
桔 1
漁 1
瀧 1
驊 1
1508 1
376 1
Alex 0.1241227371202998
Long 0.06604035736450378
oi 0.15983392394206955
怠@@ 1
昴 1
靼@@ 1
VF 1
凿@@ 1
瑭 1
貯@@ 1
187@@ 0.41974681548458576
ith 0.11047510335636984
uk@@ 0.05535145238554701
1250 0.7699293694017624
los@@ 0.11021206443549182
嬅 1
磅@@ 1
蛹 1
392 1
506 1
552 1
Tu@@ 0.09111645425330225
襟@@ 1
镖 1
Land 0.04359854964582144
UK 0.03590560124308684
her@@ 0.024531178777595378
then 0.00782575755786531
圳@@ 1
釗 1
Metro 0.13983464986131697
ars 0.0344974465727337
els 0.022786929999987247
her 0.0037040878538714336
ight 0.08976300842569353
they 0.005438390980215812
ze 0.04028148968110422
宥 1
洒 1
548 1
BB@@ 0.5110266313236999
Way 0.1532563910210072
bal@@ 0.04112075101258357
ć 0.10639711546476777
仄 1
侈@@ 1
墊@@ 1
栅 1
1637 0.8428018611534187
1701 0.6598759947403203
486 1
ami 0.066043294308732
else 0.25026425387127
ノ 1
歹@@ 1
氐 1
熬 1
瓮@@ 1
顫@@ 1
466 1
OR 0.642791217574442
PGA 0.4710077281632319
Who 0.15230884013633805
loc@@ 0.045096311407531946
yo@@ 0.16765897186284476
喧@@ 1
1773 0.44157556642455953
K2 1
aster 0.1887651651929462
389 1
Kids 0.3484048313350995
Link 0.35311644372120754
Ra@@ 0.09542982546438983
Ram@@ 0.05998993318178599
ast@@ 0.05659978937262618
point 0.0195015440008265
寝@@ 1
鮃 1
432 1
English 0.0201833390014532
Happy 0.360126953756373
Tim@@ 0.10617028189640054
tical 0.06554784613619215
ョ 1
1607 0.8879807991518441
9.1 1
Old 0.057394267520787974
Sec@@ 0.10709559634741916
With 0.030945712814721048
atic 0.06486966894373479
ats 0.029971919923219816
嫖@@ 1
漳 1
622 1
Development 0.07054893959178668
LT@@ 0.6118679115590173
ful 0.04140697941988267
onia 0.08740154564781649
ł 0.6064975601050461
颐 1
Alan 0.11731135828501776
Albert 0.06002419876237323
Beta 0.528685544985371
ack@@ 0.07011486564676007
ila 0.07654503342998308
隕 1
442 1
After 0.009879018520741778
Han@@ 0.0741628082051397
dy 0.0629532872086698
log@@ 0.06340271286687524
常委会 1
溺 1
焙 1
茫 1
1511 1
503 1
Cloud 0.3450177367350801
Spot 0.9005673085362061
Sun@@ 0.12557821426314167
そ 1
庠 1
烦@@ 1
鸾 1
Bus 0.23139005401176435
Fam@@ 0.39912238998918265
Rob@@ 0.1026228940882278
Wilson 0.07546171575146568
謚 1
453 1
5500 1
All@@ 0.08880303723596214
C4 1
Karl 0.04766164416781285
Phot@@ 0.2001817516557854
修正@@ 1
矶 1
絨@@ 1
覃@@ 1
詣 1
諜@@ 1
轼 1
ツ 1
卞@@ 1
诡@@ 1
黍 1
1569 0.9417883652056528
1765 0.4828603067925603
che 0.029189116519790604
｣ 1
European 0.02413800671070368
LR 0.8570621236347354
iko 0.13725813283423807
model 0.04586642207771868
tro 0.09325484434755711
沧 1
179@@ 1
414 1
451 1
And@@ 0.26798320908470524
MPEG 1
Voice 0.2790839807657942
aka 0.07797877201608883
all@@ 0.0312487108069029
窟@@ 1
锤@@ 1
ALL 1
E1 1
Hub 0.8069842573428364
尼西亚 1
369 1
388 1
397 1
姦@@ 1
葦 1
170@@ 1
1771 0.48690720954493516
MBA 0.7067193163029335
map 0.1651928834593329
堇@@ 1
痴 1
胚 1
雯@@ 1
2.0@@ 1
2B 1
FE 0.7998725909851957
PM@@ 1
anti@@ 0.0327686841104136
蛟 1
604 1
TM 0.7073141391201351
Tony 0.09033165738342357
dis 0.16527236978394394
ins@@ 0.03299547653330823
ome@@ 0.1256242295588031
small 0.019076792176058163
尷@@ 1
畲@@ 1
峒 1
榷 1
涸 1
Cro@@ 0.07432596492570731
igo 0.2064845164528478
log 0.36861061178349974
巍 1
戸 1
诵@@ 1
輟@@ 1
197@@ 0.7783044050432721
495 1
Nic@@ 0.13146163564704835
掸@@ 1
攘@@ 1
濑@@ 1
颅 1
鮠 1
504 1
Carl 0.06550032504081124
KS 0.5187909900568171
oni@@ 0.06604478050244666
妄 1
欺 1
罂@@ 1
躋@@ 1
鴿@@ 1
鹭 1
433 1
WC 0.49951083619465053
ho 0.15292916722568056
誦@@ 1
谅@@ 1
1535 0.9175663667258279
1740 0.4516343616754857
396 1
413 1
Dar@@ 0.05008785315835611
Rub@@ 0.19845431013784182
ania 0.09434261929258578
哔@@ 1
基金@@ 1
婁 1
屁@@ 1
9.3 1
Cel@@ 0.11030376753921642
LL 1
ix 0.11472432222008784
sus 0.009330674400763638
ワ 1
亘 1
烛 1
184@@ 0.5501175758652862
Br 1
Francis 0.07527367361757382
夭 1
幺 1
蚀@@ 1
酪@@ 1
锺 1
Kim 0.08420512771391456
Pri@@ 0.09308648073345202
USE 1
stein 0.04342020188661151
俑 1
塹 1
簾 1
Bro@@ 0.06890401085060355
aro 0.09834767699742301
care 0.0672671169412202
cer@@ 0.04287165143613312
una 0.002639509249223894
war@@ 0.02976946140590196
躬 1
EE 0.3522151068041377
vol@@ 0.040081030433920944
1762 0.47653377339292535
455 1
Script 1
iro 0.07893628477344572
lam@@ 0.04735335448222088
★ 1
ゃ 1
囪 1
柿 1
稼@@ 1
莪@@ 1
1649 0.736566916573454
445 1
OP 1
乖@@ 1
菈 1
錘@@ 1
Sunday 0.11019359127411757
敍 1
飄 1
1560 0.6938231940003553
9.7 1
Ash@@ 0.08333391517800458
Samuel 0.0908489054701625
æ 0.9181860932161453
娶@@ 1
瓘 1
骏@@ 1
721 1
C3 1
Gaon 1
Nor@@ 0.05202829010125356
Pin@@ 0.07838785607607401
Pu@@ 0.10302958679728152
mor@@ 0.03574545777514251
sk@@ 0.03182141418965513
漯@@ 1
秤 1
簇@@ 1
蠍@@ 1
IM 0.5375869451393517
Sil@@ 0.08137593788836685
ave@@ 0.16405199730633305
ement 0.013635219928782898
sen@@ 0.0393415048565182
Å 1
摧@@ 1
腋@@ 1
1541 0.9805029250208205
391 1
Brian 0.09770486826846235
皱@@ 1
镐 1
Kur@@ 0.0424714094217452
婷@@ 1
盂 1
518 1
BF 0.7821300081383544
Chrome 1
F3 1
People 0.06031811247873617
SY@@ 0.9026053348060326
min 0.10458421382862237
υ 0.6977029899731417
洛杉@@ 1
菀 1
賬@@ 1
鲍 1
1720 0.5013875135685699
1736 0.6711535577102219
1748 0.5781584977091704
7.0 1
Next 0.24137635977020258
mac@@ 0.11287196998492242
蒐 1
3600 1
606 1
8.9 1
End 0.14302667094697397
GC 0.39053823455477554
RD 0.5342438986265526
oid 0.14297727235004226
oz@@ 0.07281048181409781
娣 1
翟 1
1.4@@ 1
1001 1
422 1
585 1
ies 0.02361286797054594
ski 0.05111540469387167
ule 0.08132955961172635
yp@@ 0.10985657502648927
咲 1
擎@@ 1
镍@@ 1
1629 0.7290667711444941
ESS 1
Touch 0.6122675248852598
ck 0.07103387808340482
ney 0.054903573996133666
Т 0.1206970110660092
扈 1
沔@@ 1
竇 1
蟻@@ 1
KP@@ 0.8367685664893928
Kevin 0.12051007037688873
Spe@@ 0.09397867557242781
蟠@@ 1
1769 0.4606675268873466
362 1
363 1
DV@@ 0.3423616266951374
chin@@ 0.19466743408423093
ev 0.08035472081563211
ko@@ 0.06649938048011608
奥林匹克@@ 1
悬 1
赎 1
188@@ 0.33082692133591163
Conn@@ 0.12292245264962157
den@@ 0.030722434352497177
tar@@ 0.04395997959379029
尻@@ 1
EF 0.45452248257861416
KA 0.46537210160171844
MAR@@ 1
縻 1
赓 1
Just 0.15102396533152643
MU@@ 1
Year 0.056403675053037686
dit 0.04678174074502902
une 0.0019204858439309195
Р 0.14081317957701076
堀 1
奚 1
恪@@ 1
猖@@ 1
L1 1
Patrick 0.0868188871265871
Real 0.060160274156421154
tions 0.0183581998583373
巽 1
掾 1
漾 1
邕@@ 1
511 1
990 1
Will 0.14373986250630616
form@@ 0.04557884629933871
喃@@ 1
懶@@ 1
榻 1
189@@ 0.35961441538342165
2nd 0.05631512696818967
532 1
啄@@ 1
壕@@ 1
歎 1
瑁 1
1757 0.5243346146696322
Dem@@ 0.0681457533834049
Gor@@ 0.062150303552656785
Library 0.08420425187020736
inter@@ 0.014015652040660883
orum 0.16312417635586085
red 0.024904010448733322
蓓@@ 1
谬 1
529 1
Fal@@ 0.09205062972019014
asi@@ 0.07362576149553852
杓 1
毎 1
泗 1
盼@@ 1
砷@@ 1
邃 1
549 1
645 1
Gl@@ 0.06747783403231886
Ki 0.5037056959340137
ova 0.0824782021154484
sion 0.035219465677154796
墮 1
1651 0.7785324397991455
431 1
666 1
NN 0.7957915098358204
煌@@ 1
428 1
639 1
Tam@@ 0.09275701417788756
asa 0.09722322753356186
啉 1
蛟@@ 1
連續@@ 1
鮫 1
1450 0.7425158564951461
443 1
515 1
553 1
567 1
7500 1
863 1
Pap@@ 0.07020060093676664
Rock@@ 0.1782590018718707
Tan@@ 0.0900986307707733
hp 0.5206330958647994
1724 0.6543921614670986
536 1
TB 0.7804306635843667
pol@@ 0.03926853681257084
劈 1
甾@@ 1
531 1
DO 0.5989210455359266
Eu@@ 0.21930292746303484
ɛ 1
夯@@ 1
甩@@ 1
遽 1
1523 1
349 1
632 1
646 1
925 1
SpaceX 1
Ubuntu 1
vi 0.11387624419192259
≤ 1
柘@@ 1
119@@ 1
426 1
inc@@ 0.03318713120919404
len 0.052061831373483546
坛@@ 1
釧 1
1B 0.9923846148670286
537 1
BW@@ 0.625166410001696
sh 0.1900926013949679
摊 1
芭 1
653 1
KO 0.40096565465503636
bi 0.09911612907686636
tra@@ 0.08845368545347057
ym@@ 0.07930441297279375
恬 1
愉 1
懺@@ 1
湃 1
Pot@@ 0.08662079519452763
呕@@ 1
帷@@ 1
躯@@ 1
394 1
侏 1
勐 1
575 1
Ha 0.14860613400749853
Lisa 0.2089295692981851
渴 1
1756 0.48234250838368203
890 1
Ak@@ 0.04738425912832553
body 0.029880913931448778
摒@@ 1
燭@@ 1
Adam 0.08342739637424179
ington 0.05445561686655464
癡 1
闪 1
3.0@@ 1
554 1
Bad 0.08169880309076914
Gear 0.7699743951454063
That 0.0549396318699292
tu 0.1150186429989504
佚@@ 1
憧@@ 1
焊 1
籬 1
褫@@ 1
1689 0.5760257819499937
382 1
AIM 1
Mont@@ 0.058264840338484856
ca@@ 0.11502640517760153
戌@@ 1
浣@@ 1
鳌 1
1647 0.8364283171663996
CH3 1
En 0.002740373358763534
Magic 0.2164847259587063
anthus 0.440388772101235
gen 0.0397991301832135
ny 0.0791031959411787
垢 1
崭@@ 1
FOX 1
VB 0.57041777786614
fr@@ 0.02772572096031769
嶠 1
顷 1
494 1
Kon@@ 0.0366895522237949
cin@@ 0.06861666038056108
sur@@ 0.021009210946764625
仗@@ 1
624 1
NR@@ 0.2420792961291829
Rose 0.09407855830400023
Shar@@ 0.10609073957969371
Zero 0.338366303111685
ery 0.05444629100045832
轿 1
陂@@ 1
紊@@ 1
鮡 1
13.5 1
1529 0.9661029255846936
1688 0.5884194204161048
423 1
468 1
538 1
636 1
686 1
Ham@@ 0.07416790392096302
Ir@@ 0.06715271381885722
Opera 0.1311700986858737
Valley 0.0504528058987245
栎 1
璿 1
1623 0.7385863600798737
8.7 1
aph@@ 0.12661411190038127
惶@@ 1
1578 0.890395599278417
1588 0.8234922104057443
534 1
790 1
ITV 0.435706221826395
Proc@@ 0.17548327344393902
Ran@@ 0.0974376912251637
Ruby 0.49396333518551966
呋@@ 1
牟 1
禿 1
虱 1
1490 0.9892840974643875
800@@ 1
RP 0.7149502169642746
aki 0.07799951049242784
amp@@ 0.05407971908252191
sel@@ 0.03392426856750224
灿@@ 1
缠 1
萩@@ 1
钵 1
1727 0.5966853249165206
762 1
Ga@@ 0.12035945213005685
ind@@ 0.04145281994772955
ois 0.098371846792712
yn 0.08636398199155847
嫦@@ 1
寥@@ 1
琊 1
迥 1
1745 0.513774862037872
DB@@ 0.950082803803136
IO 0.9896542732587662
top 0.01987725944326906
癲@@ 1
125@@ 1
454 1
751 1
Family 0.06889082359546825
岌@@ 1
拥 1
涡 1
翘 1
鍛 1
1670 0.5853925796784658
1758 0.44556961980008486
2C 1
2O@@ 1
Market 0.19437524930591282
Surface 1
缕 1
472 1
675 1
GPL 1
Nokia 0.576107359283144
Pacific 0.050962050880342114
S3 1
U20 0.6742762972029742
ug@@ 0.055855925430063215
罔@@ 1
虾@@ 1
貽@@ 1
1764 0.4427372135232928
1768 0.4039684257782637
507 1
IU@@ 1
Miss 0.0832116664909343
Services 0.09928418212117196
实际@@ 1
杲 1
泓 1
瀬 1
煬@@ 1
鏗 1
0.01 1
Education 0.0422084490208054
Jason 0.14366037712627028
讼@@ 1
闰@@ 1
1635 0.6482332773996944
602 1
P2@@ 1
Ryan 0.11644894335537255
WW@@ 0.3328868869668172
hr@@ 0.06793512967913456
丢 1
剎 1
祀@@ 1
苟 1
铲@@ 1
鳄@@ 1
6500 1
651 1
Tim 0.13006531358213802
cell 0.08123108407859922
pal@@ 0.04470781304740665
岖 1
择 1
萝 1
鄚 1
霾 1
1502 1
1505 1
379 1
佼@@ 1
鈺 1
603 1
626 1
Under 0.06400958793965106
uk 0.10764782292828252
唆 1
恼 1
暹 1
蕪 1
.. 0.07325482573749759
1.7@@ 1
439 1
iki 0.05686498882901414
悚 1
珥 1
374 1
436 1
516 1
ㄧ 1
嵊@@ 1
洄@@ 1
狹 1
鯙 1
577 1
586 1
755 1
Golden 0.07731360412774713
mal@@ 0.035495946589731896
帑 1
漪 1
稔 1
蛭 1
1667 0.6668313864085503
615 1
Ple@@ 0.21789943407614976
囱 1
榭 1
祈 1
鳖 1
1591 0.9316999434257931
522 1
TGV 1
UB@@ 0.7633681955556719
瑠@@ 1
鐸@@ 1
424 1
456 1
CSS 1
Gil@@ 0.08195061315506855
Over@@ 0.10447500079060539
She@@ 0.10372192143929762
愍 1
馨@@ 1
42@@ 1
Dan 0.11701513068920404
ESPN 0.3656744184046874
Harry 0.07460498631597717
MP3 1
amb@@ 0.048868657564479376
兌 1
燊 1
颚 1
BM 0.4276423616781132
ci 0.02880241336554195
cur@@ 0.03308078253527407
拂 1
痊 1
絹 1
1538 0.9553079080501201
DH@@ 0.6602795419965001
MAC 0.6242877904984814
peria 1
剷 1
摹 1
秉 1
筝 1
1526 0.778320034314528
393 1
cap@@ 0.0344287709206007
摯@@ 1
805 1
AY@@ 1
tur@@ 0.03145605617853428
搅@@ 1
涩 1
硤 1
礫 1
鉑 1
1626 0.7235547094132728
1735 0.5728974270319871
1759 0.47958884015293757
492 1
ARA 1
LCD 1
ava 0.08508406718155703
long@@ 0.12505233018576714
ther@@ 0.061319605841878656
title 0.020909736833266412
瑗 1
禿@@ 1
谒 1
444 1
Collection 0.19942648902982865
栩@@ 1
汁@@ 1
綵 1
肱@@ 1
軾 1
颌@@ 1
419 1
AX@@ 1
Are 0.23682446601226348
Framework 0.943800804629518
Holdings 0.43984384477078275
bur@@ 0.03510721038831184
px 1
浊@@ 1
漲@@ 1
穢 1
芹@@ 1
1597 0.8605688042641413
561 1
Anim@@ 0.29380963818512595
Ath@@ 0.1458817247547072
Stadium 0.07007425696411508
Tower 0.1397462045712705
吩@@ 1
绶 1
蒜@@ 1
鉅@@ 1
1.8@@ 1
Amazon 0.27092166017906344
DX 1
FR 0.6332864560754111
char@@ 0.04435319963190456
itch 0.15469225265679248
usa 0.08882788944311842
vir@@ 0.07900542708684162
ば 1
孽 1
嵇@@ 1
耘 1
酥@@ 1
545 1
MIT 0.3612065174698116
Na 0.25295174517173746
ご 1
乩 1
拘 1
曠@@ 1
琬 1
瑕 1
镉 1
731 1
Angel 0.18038312687138106
Mul@@ 0.07478480753075446
Soul 0.23077416941785828
ʰ 1
疽 1
1487 1
541 1
565 1
CU@@ 1
Dro@@ 0.11536430542294364
ture 0.049750851863763774
勅 1
瑋@@ 1
聾 1
1370 1
1606 0.7842926295663369
557 1
Stage 0.2327692933304686
Victor 0.08960843359261148
ika 0.07381522365271029
son@@ 0.04395595153164086
砾 1
綏 1
羯 1
臚 1
533 1
936 1
CJ 1
Engine 0.42095052784989434
IPA 1
TER@@ 1
iss@@ 0.05115075132550194
lar@@ 0.047276032165259614
砦 1
羨@@ 1
込 1
霓@@ 1
Social 0.0685228678002473
ble 0.05934262013428352
ham 0.06038085575891777
iy@@ 0.07532103130594296
print 0.12058775171142899
懦@@ 1
栈@@ 1
渎 1
蝰 1
酌 1
釘@@ 1
1767 0.4477840254319404
523 1
Port 0.06724783130846967
蚕 1
蛾@@ 1
邈 1
镓 1
髦 1
yd@@ 0.11799183071161276
闾 1
鸽@@ 1
452 1
524 1
711 1
905 1
Alice 0.11847817412781712
long 0.012207050658939457
olo@@ 0.13077305906752001
ote 0.044037652206246475
戡@@ 1
楹 1
瀆 1
灼 1
荨@@ 1
餡@@ 1
715 1
Prince 0.05191079598552484
anc@@ 0.05975589374971507
收視@@ 1
桦 1
1752 0.5369988706402555
458 1
725 1
Ther@@ 0.10855660648366583
裘 1
贛 1
韜 1
IST 0.9522920241666447
Sound 0.12410405845069279
pes 0.08137534887386172
rom@@ 0.05221944722396001
嚨 1
擱 1
梟 1
矶@@ 1
粘 1
缪 1
钒 1
457 1
613 1
Ka@@ 0.08713922689952207
巍@@ 1
梳 1
鐮 1
钯 1
颐@@ 1
722 1
Die 0.002325070268634849
Main 0.0673859928469321
enc@@ 0.03187987444345986
ger@@ 0.026741236797733565
lock 0.09432224756946803
ず 1
嘛 1
苇 1
Capital 0.13496378771854547
Samsung 0.4188386698895654
View 0.3293332640914287
ll 0.5541511171182039
yun@@ 1
傻 1
喘@@ 1
跻@@ 1
1572 0.7094768192441782
493 1
929 1
973 1
Kn@@ 0.059789717097861426
MK@@ 0.9500190939954398
Not 0.11475718789950679
pan@@ 0.049857614201011376
tex 0.3049333274386588
wan@@ 0.0968188045419716
Ⅰ 1
涟@@ 1
畹@@ 1
1493 1
1544 0.9938687550041057
628 1
634 1
BI 0.2643366169130736
Sen@@ 0.06554460404472444
def 1
ham@@ 0.1165539171129845
ny@@ 0.09066550458547773
ton@@ 0.059902350364751264
繇 1
茴@@ 1
釐@@ 1
TG@@ 1
fer 0.030697792060325066
than 0.007552590375610326
績@@ 1
钙@@ 1
614 1
655 1
Bo 0.40376840793794566
Jan@@ 0.0745200173815115
Tal@@ 0.06351028978929237
V8 0.37867086085460855
max 0.36573498891192896
钨 1
1545 0.9059169488099234
1633 0.7267010625514624
546 1
547 1
Friedrich 0.04080755361855558
H.@@ 0.1764761785809828
har@@ 0.026745187163642978
檜 1
祁 1
668 1
815 1
Dakota 0.14387019240185048
down 0.017310391820310238
los 0.0015748796565834078
print@@ 0.9706763509014098
د 0.22905312621794452
س 0.19403610573918062
澹 1
NH 0.6686944005797926
ye@@ 0.09022147028489359
zi 0.09530608392263532
蕴 1
顗 1
Am 0.01459202335948513
App@@ 0.15962876470511225
Dark 0.14983099184335646
MD@@ 0.588253948442741
Take 0.3193814867843077
晞 1
1.6@@ 1
527 1
Bar 0.14305895955999445
Cl2 1
GSM 1
Plan@@ 0.07680415215948262
len@@ 0.04454577993537824
喂@@ 1
齦 1
571 1
643 1
759 1
Mos@@ 0.06621523498922859
OM 0.754197579616989
RB 0.5519820329307404
icum 0.3015776292605149
戟@@ 1
賠 1
餌 1
1575 0.833072635371542
Level 0.30519275120227995
N2 1
app 0.2038437264948027
ζ 0.5511327480478834
尻 1
炙@@ 1
荠 1
钉@@ 1
鹊 1
1555 0.7744877238972744
1659 0.7011279796511519
576 1
623 1
915 1
Interactive 0.5287788973707096
ability 0.02773702063186317
esa 0.04279057927944385
ku@@ 0.07995504556659865
pen@@ 0.04352380125113546
pin@@ 0.0907045758236374
掺@@ 1
隧 1
568 1
608 1
Cross 0.07294381792074285
Department 0.03235415539040436
char 0.4303614988127204
セ 1
儸 1
捻 1
湟@@ 1
疼 1
鍍 1
Information 0.12426330425998984
Mand@@ 0.07561129120157555
ichthys 1
ken 0.020077048222223167
pa@@ 0.08937721752629298
事实@@ 1
蘋 1
颌 1
ASS 1
Ace 0.5363424614615651
Au@@ 0.06766619973157713
Bab@@ 0.09447367196368696
Kor@@ 0.04085557989329963
bor@@ 0.0367051397187594
啮@@ 1
嘯@@ 1
骥 1
Access 0.338898274208873
PN@@ 0.2444511187851731
aris 0.23971340682784611
ier 0.033374750159281784
not@@ 0.039193720141543854
暈@@ 1
様 1
燁 1
1540 0.5690584013984409
Din@@ 0.10694433189952571
Jane 0.10666349279894247
Ken 0.17801423721181883
PCI 0.7076969824639512
ster@@ 0.046551175660340914
yo 0.10146251228462634
µ 1
亢 1
薊@@ 1
1632 0.6261062963208776
578 1
And 0.08488193678118468
恃 1
捣@@ 1
滸@@ 1
璨 1
鈺@@ 1
1457 1
1733 0.5907839365653985
438 1
Bou@@ 0.06120141662704978
QU@@ 1
Zone 0.1273555109134817
itz 0.0383961955549566
po 0.12727433085086237
ren@@ 0.024875811503333636
俐 1
癸 1
1639 0.7670858044360351
519 1
521 1
717 1
A5 1
Bat@@ 0.05833959119776406
俭@@ 1
1.9@@ 1
498 1
544 1
684 1
902 1
Gh@@ 0.10741346174235054
Kiss 0.3622469109522295
瘡 1
祜@@ 1
鷺@@ 1
1652 0.6851486545794254
421 1
Davis 0.06807182373966024
Sport 0.08808577753275562
eri@@ 0.10523069435900204
ume 0.08534379744366748
墨西@@ 1
壬 1
沭@@ 1
漿@@ 1
燮@@ 1
瞄 1
诲 1
鱧 1
0.0 0.7017932024691695
1664 0.6752692114388871
635 1
648 1
don@@ 0.061837004408486274
dor@@ 0.05855686057513825
ori 0.07836324048872773
ʁ 1
嬪@@ 1
晟@@ 1
獺 1
羲@@ 1
颊 1
1594 0.8356308463161543
596 1
611 1
FL 0.1340414895928579
France 0.009080008770400898
Hom@@ 0.06618290277359994
OL 0.970161077673462
ites 0.03441540716040499
作曲@@ 1
哮@@ 1
垩@@ 1
涇@@ 1
1728 0.613688746009153
598 1
Bet@@ 0.10961086050313976
C2@@ 1
Comp@@ 0.12887722478396008
Pul@@ 0.11133674235363826
pi 0.21258135099787767
zi@@ 0.04513700993820712
琐 1
迂 1
邢 1
锚 1
驍@@ 1
Oh 0.30184435211545824
PF 0.49770499202699564
PHP 1
Women 0.03299231109788772
oro 0.0664860754466629
犍 1
肽@@ 1
1684 0.7029431209153559
Anthony 0.0890241640469281
Base 0.13159519685852394
Juan 0.0303316738849586
Unit 0.1930716615819552
mel@@ 0.043195153273283694
恳@@ 1
陇 1
1584 0.8103691283052648
629 1
704 1
匐 1
妒@@ 1
痘 1
絶 1
羔@@ 1
豎 1
鄙 1
釷 1
钼 1
镛 1
765 1
Elizabeth 0.05954538075164572
Human 0.09880203810152303
P1 0.9831626315158306
UD 0.4868386030532048
been 0.0036968782600507294
love 0.04899409423419011
嚕 1
缆@@ 1
526 1
587 1
656 1
682 1
Bio@@ 0.3860101305706543
Lewis 0.07165789782118712
Mess@@ 0.11110639053774558
cat@@ 0.037951124066170426
ines 0.02510886222124253
osus 0.3748553863650944
忏@@ 1
痺 1
衅 1
1654 0.6085337709722326
1725 0.5681963917793729
464 1
559 1
Committee 0.03881989836855611
Health 0.06125911442073116
sti@@ 0.04797720384960248
偃 1
娄 1
屡 1
蒯@@ 1
蜡 1
閏@@ 1
鰲 1
ulu 0.22659961038393614
綦@@ 1
萸 1
饿@@ 1
Prix 0.05331557891188858
Vel@@ 0.09106993590440583
tw@@ 0.03751060521397602
恺@@ 1
撐@@ 1
1655 0.675667430743875
1713 0.5473343203769994
926 1
Bol@@ 0.06222184424364338
Computer 0.16217407950218746
Spir@@ 0.1661304918417869
Б 0.12501764730636153
淅@@ 1
漬 1
471 1
908 1
Jay 0.1505946949330927
Py@@ 0.16260869705512376
Tech@@ 0.26320107508637536
UFO 0.983627383527782
旻@@ 1
罩@@ 1
437 1
483 1
488 1
702 1
Hyper@@ 0.2987316161291479
Mik@@ 0.10229482100507574
Nu@@ 0.08940775806515512
栽 1
糙@@ 1
胭@@ 1
562 1
Theatre 0.05344575605237755
ie@@ 0.039987847765888644
nam@@ 0.09514162958793167
og 0.17034504708534626
ppm 1
匍@@ 1
悄 1
柵 1
汙 1
汰 1
淖@@ 1
辻@@ 1
1350 0.6951124751223666
447 1
448 1
712 1
Pentium 1
х 0.018510807381494795
胪 1
茗 1
1050 1
446 1
Blo@@ 0.12761333780387527
Sem@@ 0.07629158849157466
space 0.037330892044404956
ux 0.0914999530022168
婕 1
恙 1
瘟 1
1721 0.572191304239439
461 1
965 1
Anna 0.05961322903836411
Bir@@ 0.06392892967141627
Christopher 0.11026801495260787
Division 0.018426094406034956
Mes@@ 0.08042196875068125
Tran@@ 0.09069338533064539
U23 0.5698923953834052
Wh@@ 0.08478762657058421
ez 0.05369876397894636
ow 0.04255614422521141
shell 0.17856194489243324
tho@@ 0.1415744415469625
ui 0.11161606312761865
嘅 1
媚@@ 1
烂@@ 1
迄 1
钰 1
頃 1
鳍@@ 1
BAS@@ 0.9337385674041917
town 0.013117784141622192
槛 1
浒@@ 1
熾@@ 1
543 1
572 1
ARC 0.42562425029718
H1 1
L2 1
LV@@ 0.8063919626067715
Standard 0.12064818541428347
alm@@ 0.06529413439353587
尝@@ 1
汛@@ 1
痰 1
竿@@ 1
茫@@ 1
鈸 1
1080 1
825 1
Board 0.04593908096401042
West@@ 0.037189979446335585
lum 0.10751435149564999
壺@@ 1
渭 1
珅 1
璠 1
盏 1
砵 1
铋 1
麓@@ 1
681 1
685 1
HMS 0.1355078387890564
Philip 0.09379718059459993
Wiki 1
je 0.03036353728561763
峠 1
漩 1
玫 1
642 1
975 1
Jo 0.2810596295670819
NY 0.19705272720264547
score 0.043914155270728755
婕@@ 1
恤@@ 1
沅 1
示威@@ 1
荀 1
1707 0.5234329256275965
1761 0.44382452089040436
962 1
Imag@@ 0.20403008445653628
lie 0.05406281283593577
侗 1
铊 1
锗 1
1638 0.646987428390463
434 1
482 1
IU 1
Mount 0.06195462191948303
Pay 0.772794618420769
Sea 0.058143356308155744
ey@@ 0.05268714499325976
parent 0.1298849166035441
wan 0.10753240922371154
互联@@ 1
1754 0.46450746410585964
469 1
558 1
By@@ 0.16168738746066386
Raw 0.25959856329868214
ech@@ 0.040140521519959386
lat@@ 0.05006700045315319
ual 0.06904458265180513
vo@@ 0.06164852487994887
咄@@ 1
尴@@ 1
峴 1
溉@@ 1
滬 1
澗 1
582 1
冉 1
潇@@ 1
窪@@ 1
003 1
709 1
Lim@@ 0.08527174788506503
Yo@@ 0.14380033396444053
瓣@@ 1
輻 1
铨 1
靺 1
496 1
918 1
Ju@@ 0.07140439426464869
苴 1
478 1
802 1
Miller 0.0801436757948457
PH 0.7360800441129282
Pad@@ 0.11167079572048487
Ze@@ 0.07043263084827785
ele 0.05473458500771717
ency 0.0491183544658369
html 1
thr@@ 0.07463274186216598
乍 1
清华@@ 1
1766 0.4165386883869671
616 1
Ep@@ 0.11388351719425363
Mic@@ 0.16946507787999737
Portable 1
Pseud@@ 0.28880407798121743
next 0.02074857750697743
reg@@ 0.024115284183759664
Ⅲ 1
嗪 1
嵯@@ 1
掖@@ 1
459 1
oth 0.0880241900431857
熹@@ 1
瑣@@ 1
1260 0.9554705981968656
692 1
Stone 0.08214487405728765
water 0.01522751879294257
榈 1
瀾@@ 1
盞 1
鐳 1
陲 1
Ay@@ 0.07170293552150252
Roger 0.07759866384795922
俺 1
756 1
802.@@ 1
Fol@@ 0.07840458095799557
Gaga 0.634618126796146
ISS 0.545698306313934
Kam@@ 0.05752662525550857
VHS 0.5251155859411885
book 0.01650192998769803
ub@@ 0.06086909104116729
ネ 1
揣@@ 1
榈@@ 1
郢@@ 1
頗@@ 1
1369 1
1751 0.5036841811820123
1753 0.3871449176521341
467 1
CB@@ 0.5048416396507297
Wa@@ 0.08489826494177069
ago 0.05521799691185415
ological 0.03407665983794127
灑@@ 1
缸@@ 1
駒@@ 1
487 1
638 1
Advance 0.7305311188279928
NA@@ 0.47333351622116543
NY@@ 0.21901824184189383
Part 0.15595368993231332
Rot@@ 0.06539314898191015
Sav@@ 0.07057301947487353
娼 1
闫@@ 1
鞨 1
鱺 1
542 1
971 1
FP@@ 0.489261989916001
How 0.17698902774619923
Pascal 0.29583862551182516
U18 0.7306422968565688
after 0.003925656834236523
ert 0.0213828330593239
oy@@ 0.05696257570542574
sim@@ 0.0901557042591603
栋@@ 1
皺 1
祜 1
酌@@ 1
鈣@@ 1
497 1
Loc@@ 0.10181456135458804
Paris 0.012334712319815052
Pic@@ 0.0884067408945775
dec@@ 0.025899342413981487
偈 1
眺 1
窪 1
笹@@ 1
荻@@ 1
萤@@ 1
1466 1
1561 0.8388847632684839
429 1
8.0 1
AU@@ 0.834889072493327
Hans 0.046575379486411876
Maj@@ 0.0815867836887771
struc@@ 0.2504934100656912
彪@@ 1
1587 0.8113704538091527
1729 0.5976370229477131
738 1
BT@@ 0.520244337443181
Bf 0.9732645949913844
Da 0.04510059003345602
hol@@ 0.04161264627501463
ibn 0.15814913230307762
勺 1
啡 1
臧 1
荔 1
鰺 1
1690 0.4938178316028769
CAS 0.8675762230577424
Hay@@ 0.07814985642293693
Lab@@ 0.1101395173628906
bis 0.003810531135368177
height 0.10033635813307178
sal@@ 0.029904701045382547
澧@@ 1
923 1
Om@@ 0.20474968084227052
Over 0.07589514405962437
rot@@ 0.05074535406933739
颓@@ 1
駙@@ 1
1460 0.8627807373519957
449 1
688 1
689 1
716 1
718 1
Dynam@@ 0.2508897074058058
Fer@@ 0.053721657323071055
Prim@@ 0.09978191951471586
UMP 0.7608572027624931
eria 0.15259052968827772
uri 0.09976913910521246
Н 0.054330888354552735
啞@@ 1
槽@@ 1
酶@@ 1
489 1
514 1
539 1
662 1
ail 0.06188140449633148
俏@@ 1
啼@@ 1
炽@@ 1
珞@@ 1
盱@@ 1
阇 1
馭 1
1520 0.5439716981856564
588 1
808 1
Band@@ 0.0998819252444876
CIA 0.2157538382272864
From 0.02038168101633024
Matt 0.11584122837082234
Tech 0.1637562559998745
aa 0.15103237636239325
偵 1
嘲 1
墻 1
影響@@ 1
慨@@ 1
栱 1
烙@@ 1
鍍@@ 1
Div@@ 0.0879295505840461
Garden 0.11389982627712732
Pel@@ 0.08468982675684278
Sand@@ 0.054852927101708165
炬@@ 1
蘚@@ 1
112@@ 1
1658 0.6445535220142664
441 1
Allen 0.08644193810331277
Ari@@ 0.11142324111617145
anum 0.26050284942809454
幀 1
皱 1
钧@@ 1
Bug@@ 0.18709313914097683
Log@@ 0.1075926079368737
Pay@@ 0.20000220130413104
SQ@@ 1
ulus 0.18564227208273265
嵴 1
榘 1
炙 1
鑼 1
1492 0.688564478494112
513 1
676 1
768 1
Ka 0.4459395055948886
RCA 0.35138065204147123
TR 0.7880531966815268
att@@ 0.033880234508851186
ket@@ 0.13441907125368283
tem@@ 0.08033020421979069
世界大战 1
亟@@ 1
沐 1
瘠 1
绰 1
荖 1
菓 1
蝗 1
1478 1
BK 0.3610575643478785
Enterprise 0.2957137152764565
SB@@ 0.47625687009975687
Virtual 0.5843976187585082
ep 0.09453118874945537
used 0.006077054158343955
玠 1
骤@@ 1
1150 0.8398315694715778
1530 0.5461446958559064
484 1
713 1
cus 0.11621080476135193
亢@@ 1
昱@@ 1
灿 1
597 1
Jan 0.08041152690192774
aga 0.06508726142636753
alb@@ 0.052615097646851135
lia 0.09512687965709765
ush 0.11343458495012951
炜 1
912 1
Aut@@ 0.07555628604464913
alan 0.08872938283468383
hop 0.14415006738631223
怜@@ 1
珏 1
羥@@ 1
鸫 1
1453 0.8731644469567159
1522 0.8843710258291061
1525 0.5947231585697057
463 1
Common 0.1692100009921317
GI 0.5686511102244091
Re 0.35800774462873286
mus@@ 0.04996699519392648
壇@@ 1
専 1
揀 1
癇 1
瞩@@ 1
蟒@@ 1
ATE 1
Days 0.19080506097436747
Sab@@ 0.0664664579754605
table 0.05080213354926392
1532 0.8884884749501722
754 1
761 1
Fair@@ 0.10032827512902302
Fox 0.06688310487449577
thi@@ 0.08628790422117054
垩 1
奭 1
焜 1
1685 0.5225150851870453
806 1
951 1
Big@@ 0.1825601924164286
Countdown 1
SV 0.11758793301789265
dan 0.04229862914627019
eck 0.05192210347689625
ron 0.15075705620991506
uli@@ 0.07362334883854267
醃 1
579 1
Antonio 0.041661194253224496
CY@@ 0.7051490761894923
Gold 0.059951535840327926
Hit 0.3346878120322263
Object 1
R1 1
TNT 0.6875081766895587
嬴@@ 1
盪@@ 1
饼@@ 1
1576 0.8058257651563815
595 1
657 1
659 1
Chan 0.2918266183800309
Fantasy 0.23936571383868066
LIN@@ 1
Tree 0.2556087423424783
af 0.10764479111759159
熒@@ 1
491 1
573 1
609 1
633 1
945 1
Francisco 0.02874814709336449
Rue 0.278048456131823
ail@@ 0.05635798990505832
any 0.011708182421710098
span 0.16372247767739764
string 0.17233991052583336
佥 1
樱 1
魷@@ 1
594 1
ison 0.06744490674113363
service 0.012276866442295982
tel@@ 0.033251782020970656
who 0.002844010046177504
塭 1
恿 1
苻@@ 1
鲈 1
1469 1
667 1
Howard 0.07869158260973615
RO 0.6520114119974265
ァ 1
冪 1
瀘@@ 1
猾 1
琶@@ 1
薈@@ 1
1524 0.7680620903996264
517 1
729 1
inn@@ 0.049891829794373704
洮 1
茸 1
饵 1
1732 0.5350195876844671
906 1
Г 0.08310600150859078
і 0.9609905969873868
ほ 1
筷@@ 1
蟑@@ 1
474 1
661 1
735 1
933 1
ISC 0.9701141522721722
UF@@ 0.6666251924115162
aux 0.004926667411499694
ici@@ 0.04844972925379951
nh@@ 0.03936466027988318
Ω 1
襯 1
1641 0.5876920968504242
775 1
CK@@ 0.6999536750552493
Lev@@ 0.0929617226915938
Sym@@ 0.17046887041993852
TED 1
囤@@ 1
怯 1
柝@@ 1
檜@@ 1
禺@@ 1
窺@@ 1
笨 1
蝨 1
1593 0.7704473113186778
477 1
584 1
Mega 0.39328252931348723
ial 0.07732616326882519
sey 0.059327153658121926
sp 0.8210439990948643
vel@@ 0.08360583092474264
worth 0.05183726524151707
珲@@ 1
蒼 1
豈@@ 1
鸮 1
641 1
904 1
919 1
Anne 0.05738510825583574
KE@@ 1
UV 0.4294389188278045
Whit@@ 0.0669297047240948
吓@@ 1
滔@@ 1
澎 1
蹦@@ 1
1614 0.6788841982509234
Carlos 0.04063809092713987
Hen@@ 0.07452549920066126
Rel@@ 0.06761355039805797
cos@@ 0.0814942772278208
Σ 1
1581 0.7921887137460427
647 1
706 1
SG@@ 0.7088329943683905
Victoria 0.04553236185804302
ais 0.041820955342230806
kar@@ 0.04345295494705334
thumb 0.640508297593216
澂 1
邾 1
1742 0.46266101721871616
Bell 0.08803203215938292
eli@@ 0.07292798616839383
rec@@ 0.01687470620488281
撑@@ 1
柬 1
矾 1
诣 1
辕 1
锚@@ 1
1731 0.5797298003911973
986 1
CSI 0.9115702424893108
Kab@@ 0.1095808699528161
Perl 1
X2 1
game 0.00982254534347421
庵@@ 1
惨 1
棻 1
瓏 1
窯@@ 1
覲 1
逞 1
陝 1
２ 1
1605 0.6015638708049195
698 1
Court 0.02622171422449303
Get 0.21952423665353468
Ing@@ 0.0715853139739835
Taipei 0.4845751888484906
姥@@ 1
甬 1
矚 1
荪 1
Castle 0.06767830754388264
Nam@@ 0.1004134957946327
RF 0.5242750314439805
Style 0.2543840930696715
ays 0.029033825541289197
view 0.04237003096553485
И 0.032366920652163386
弒 1
恬@@ 1
攪@@ 1
浬 1
Money 0.2601958529171603
OT 0.9662508421184779
base 0.01782236950853413
enti@@ 0.02593489685522879
ふ 1
娱 1
637 1
Alfred 0.06814162167677158
Ren@@ 0.05077755228845644
Rom@@ 0.05056193245723062
ml 0.8862633381678325
tre 0.046376276011280616
า 0.42565698272867253
禰 1
臀 1
ABA 0.5214084167786355
Call 0.23559081413560903
Multi@@ 0.15685468898997798
bert 0.05505004225092488
墩@@ 1
搗@@ 1
聾@@ 1
頡@@ 1
564 1
947 1
Fire@@ 0.34029673493026047
face 0.022977626908216014
黏 1
875 1
Deb@@ 0.0786326252508008
å 0.4541102524090983
倡 1
慑 1
殡@@ 1
肼 1
譏@@ 1
邛@@ 1
醌 1
鏟 1
788 1
917 1
Rev@@ 0.0830635307578641
apo@@ 0.05242586262741999
aus@@ 0.010467804584512849
bul@@ 0.03892295074677739
orn 0.11033051071869553
濛 1
酚@@ 1
魟 1
004 1
473 1
663 1
Ali 0.061959923188007485
tel 0.05219133500474422
呵@@ 1
扒 1
獗 1
蠡@@ 1
軔 1
1602 0.6804873766148333
997 1
CH3@@ 1
MM@@ 0.8322115313473797
TI 0.6081233531504266
Tu 0.32982852447505745
ader 0.08313901312177387
eh 0.09315963158881584
version 0.015564639004064847
ц 0.055890432944563605
匀@@ 1
匮@@ 1
荻 1
1710 0.43292681456095555
649 1
708 1
845 1
Cir@@ 0.11461105460112407
Dave 0.10561430563111983
ICA 0.813346789428705
acy 0.03889017803261866
cre@@ 0.02413206982664331
ein 0.002236122320040206
杠@@ 1
赔 1
鯤 1
1430 0.928479012079438
673 1
817 1
ational 0.03897956442453686
咆@@ 1
嶄 1
甘肃@@ 1
1666 0.5717983351790453
481 1
644 1
652 1
781 1
996 1
Boys 0.09793488003090282
Los 0.008130365130583773
Program 0.10458115107570279
bin 0.06711391828930031
lig@@ 0.04610749082715163
吡 1
1501 0.9552708765141243
1514 0.9622463649311466
1718 0.5132379306301492
658 1
IG 0.723412804751425
Mod@@ 0.10232790417141932
des@@ 0.011971525657804544
val@@ 0.039687922385564865
泓@@ 1
裨@@ 1
驥 1
1726 0.56607839221872
855 1
Building 0.084985669562963
ever 0.02406615286604339
zer 0.06645377851168116
ボ 1
俳@@ 1
娇 1
怕@@ 1
筵 1
葆 1
1673 0.6634729615177917
1737 0.5078657376540845
687 1
Action 0.12625497785028122
Bul@@ 0.07659288000351167
Future 0.1713822168623236
Plaza 0.12904715524504706
arr@@ 0.032908049524648195
win 0.01877491931641859
榛 1
蒨 1
邠 1
鵜@@ 1
1722 0.4934887507161661
574 1
785 1
Hand@@ 0.056512217116339476
Ultra 0.45677149076959495
湮@@ 1
甕 1
蠟 1
醛@@ 1
馱 1
1611 0.6231312931969801
591 1
Ho 0.2737303983793771
Mot@@ 0.06781047819774078
ide@@ 0.04252150238540343
ox@@ 0.07933595588201942
ste@@ 0.024990590906371686
∞ 1
幂@@ 1
抛 1
盎 1
鸢@@ 1
1739 0.4989273733546078
821 1
Blu 0.3213364196495013
mapframe 1
ی 0.7871610090312159
ケ 1
佰@@ 1
珮@@ 1
艮 1
蚵 1
訖 1
誨 1
躬@@ 1
005 1
CCD 1
Double 0.19953969632434948
Gary 0.11691207107547824
ag 0.0778476548044941
ants 0.012889530132188161
poem 0.0946647570434753
噻@@ 1
晰@@ 1
1010 1
1496 1
1681 0.6341747894715856
1747 0.4582392138979622
HI 0.8493043276516701
air@@ 0.029503784887672285
has@@ 0.08663661108484638
out@@ 0.022203400733232057
using 0.017377277125534156
î 0.26274976850441356
О 0.058503466453937544
丶 1
刈 1
坵 1
庑 1
柴油@@ 1
珣 1
珮 1
虏@@ 1
裤@@ 1
訶 1
1679 0.592898316917594
BN 0.4081965178297656
Med@@ 0.0827150744636375
Perf@@ 0.7469265706498357
卤 1
排名@@ 1
睇 1
莅@@ 1
鉞 1
驒 1
1653 0.6155423822493917
1697 0.5535778382601998
Dan@@ 0.07258833922270032
Lor@@ 0.06850028373603367
sw@@ 0.032483515024764806
wiki 0.7705157830820617
僖 1
癢 1
苍 1
蛸 1
袒 1
IR 0.40540743900332327
LF 0.6193175429977597
Post 0.04935320680518919
Security 0.09368308413678642
free 0.026651467682583224
ine@@ 0.057105364429099116
mas@@ 0.027655193550075924
won 0.008359466646407914
敎 1
鄯@@ 1
驛@@ 1
魴 1
935 1
Card 0.3419402693542303
Cli@@ 0.17986322003813043
anga 0.09425765651328963
han 0.022601920644829875
寛 1
憐@@ 1
鵲 1
1519 0.806774047302654
955 1
Da@@ 0.09189760281616825
Down 0.12890236727978527
Mem@@ 0.09697001599843043
ND 0.40979603994884006
Source 0.18551429494209917
ί 0.20867450408443175
ा 0.18603987142853542
撮@@ 1
笏 1
銨 1
969 1
988 1
Pod@@ 0.09323320201192338
Tor 0.14591579383213535
槓 1
猕@@ 1
莅 1
蛺 1
閹@@ 1
1130 1
741 1
886 1
937 1
Basic 0.3749036461195992
Blu@@ 0.11490560702199504
HL 0.15620018011314263
Nar@@ 0.06135211748083894
Pass 0.17797659972618235
Walker 0.09623625409205716
ado 0.00544800995346436
ans@@ 0.03909227901135068
jpg 1
oto 0.0756340795300966
tional 0.04106544065485148
拦 1
晦@@ 1
猥@@ 1
鄢@@ 1
1741 0.4490455459089388
631 1
Gol@@ 0.058695244377079514
KC 0.5830964278127794
Secret 0.18980319262398992
Voc@@ 0.3004686486569369
ective 0.06522756534982918
缽 1
蕲@@ 1
錮 1
678 1
Engineering 0.08997288126837287
ely 0.023718403271083776
् 0.0013883742666447943
岂@@ 1
愫 1
玳@@ 1
绛@@ 1
谕@@ 1
1536 0.5795012264092917
462 1
BO 0.3893930614194485
Dom@@ 0.04684749957037432
Vir@@ 0.08868550072501505
Ye@@ 0.14143666509569192
flora 0.20332758736229087
icken 0.2764988296464188
姥 1
懒@@ 1
1563 0.7106880939705613
1665 0.5598839505955653
733 1
DM@@ 0.8304526529890038
Dy@@ 0.14886771296650808
If 0.04020907154118049
Lar@@ 0.062497631764173264
粿 1
1454 1
2026 1
679 1
813 1
Land@@ 0.023059584089566536
Var@@ 0.06696680360667953
Vision 0.23846277590972073
Western 0.02544089927546891
XL 0.7054704727480142
bs 0.03813795927323421
ond@@ 0.05405129064275885
poly@@ 0.06083515119899823
under 0.005948343572768124
wh@@ 0.04129804554973433
楫 1
熾 1
稼 1
郝 1
鎧 1
馥@@ 1
563 1
695 1
714 1
876 1
Epic 0.49481390988993695
Prime 0.0662910943698305
RB@@ 0.4805347108871011
RMS 1
瀰 1
1714 0.46792252602333456
Anderson 0.07711186697553761
CU 0.4108556693672776
Dra@@ 0.15843304631003582
most 0.005724088463730925
place 0.00711529632994409
羡@@ 1
1380 0.9545151685214972
843 1
Van@@ 0.12901583220566204
app@@ 0.05389562097051929
start 0.03319317278207734
val 0.10217329372847979
儉@@ 1
卍 1
屹@@ 1
撻 1
枉@@ 1
榨 1
瑰 1
縊 1
1475 0.9835676950914626
771 1
Color 0.39662519362206095
NF 0.6599741410579969
Sl@@ 0.10512316887784383
een 0.08556842116645996
sin 0.01996096814656773
ă 0.273993857918336
1552 0.6898638642729423
1657 0.6336690477684531
1744 0.46325449269936897
569 1
669 1
968 1
Nintendo 0.13258017558312918
ani@@ 0.053384476356745224
live 0.023740847374029123
憫 1
腓特@@ 1
1709 0.5185540988203499
691 1
798 1
803 1
976 1
Fan 0.39183782401304385
Language 0.1656094008197201
Men 0.04824928653050113
Order 0.05032496384051588
VIII 0.1058868360378292
ille 0.033134710374242836
some 0.0066566453950465095
翰林@@ 1
聋@@ 1
邳@@ 1
郧@@ 1
鵑@@ 1
1280 0.9425158099805883
1564 0.7251095974890366
818 1
Kelly 0.09471182904774295
Oc@@ 0.09035031824883565
Pictures 0.12414156594429368
arch@@ 0.03877426767177403
ry@@ 0.11944578279358728
state 0.008924301686059366
洱@@ 1
浔@@ 1
灝 1
砚@@ 1
1579 0.8110993353825636
745 1
Clark 0.08067041505513597
Doc@@ 0.12322994592451623
date 0.023808891123401222
捏 1
楯 1
銮 1
1024 1
592 1
752 1
979 1
Johann 0.03662874396702866
link 0.10855059888591886
over@@ 0.01876511399813302
unc@@ 0.08878057881610905
yu 0.15832813796818762
梶@@ 1
爍 1
贱 1
闷 1
350@@ 1
748 1
784 1
835 1
928 1
BS@@ 0.5916735458156759
Championship 0.021084156435320058
FT@@ 0.7303441746352549
Nick 0.10055080283019921
dic@@ 0.03842553520008169
idi@@ 0.07065028174236965
ship 0.01770411235517773
蝕@@ 1
镕@@ 1
1672 0.49533726114651233
1715 0.3710508820200917
Head 0.08211178156758037
Lac@@ 0.0972846696843991
Mo 0.3850717798448817
action 0.021545218004861505
age@@ 0.1217839469820837
double 0.03797046492335528
wal@@ 0.05122568222807007
壑 1
蝓 1
豈 1
驃 1
﹕ 1
852 1
Fle@@ 0.10135299441265905
Gir@@ 0.080773448478728
Jacques 0.0475131794832932
Ry@@ 0.0929463277988152
TD 0.5008352483241494
Ti 0.7482917994986751
cas@@ 0.02709392365795386
nes 0.046998486730183066
亏 1
晁@@ 1
闐 1
鴕@@ 1
1276 1
593 1
599 1
Vis@@ 0.07322752173415355
alism 0.04528086681396291
music 0.010800487861628247
xy 0.2249678782600633
† 0.018903364400162614
├ 0.3029245749054648
匆 1
撮 1
櫟 1
紜 1
虢@@ 1
郃 1
763 1
909 1
Nova 0.11849477635331278
japon@@ 0.4200395432613009
桧 1
檳 1
漩@@ 1
緹 1
颤@@ 1
672 1
683 1
Airport 0.05701798785363203
Kit@@ 0.08761376523009094
about 0.005697205316319369
atan 0.31286016091166213
cy@@ 0.0753093568904237
kin@@ 0.08005811789121854
life 0.008087990474268282
onic 0.07527305272686295
ع 0.2122362047743768
怛 1
瑀 1
瓢@@ 1
絳 1
蝇@@ 1
1669 0.6133196266020913
Field 0.06165963662886425
Hot@@ 0.20748396049992127
Kit 0.5372747574581371
NAD@@ 0.9363365947692667
Premium 0.8804864228264093
bas@@ 0.02630345967621901
ect@@ 0.07609608895238787
ш 0.043148387429051985
人大@@ 1
噹 1
枚@@ 1
艘@@ 1
褪@@ 1
遁@@ 1
699 1
728 1
881 1
882 1
914 1
Fate 0.67962591867075
WE 0.7326563654320646
哗@@ 1
犍@@ 1
莘 1
蟎 1
錳 1
1699 0.5189209940932844
Cit@@ 0.15545681837484845
Hi 0.40168699856500434
` 1
las 0.002050187254885753
yan 0.06314503856217323
ピ 1
悖 1
歿 1
綬@@ 1
蛞@@ 1
豚@@ 1
鯽 1
892 1
ACA 0.8357127647233971
ARD 0.4223628403144719
Rh@@ 0.10048248263088083
based 0.00922220463242659
潁@@ 1
藐@@ 1
邇 1
锯 1
831 1
916 1
Eg@@ 0.09155149323480827
Stand 0.05274269236884907
Stor@@ 0.11510733413759436
Valve 1
mag@@ 0.0491736363186325
umi 0.13149239506334753
劈@@ 1
厨 1
洱 1
豊 1
贼@@ 1
1558 0.6559721927173161
719 1
732 1
804 1
Andy 0.10846934120775265
Jeff 0.11417341808098036
endron 0.8720141892355144
哮 1
錠 1
1481 1
924 1
961 1
ACP 0.5455823572160028
Alph@@ 0.5582960291673382
Dur@@ 0.06665054974715567
県 1
賁 1
Den@@ 0.07345651826630176
Kol@@ 0.05008571244562005
Stars 0.10557796826419487
True 0.2699992748765957
act@@ 0.07396541795105101
see 0.019828114471767477
via 0.02427699968391584
ɔ 1
ね 1
涝 1
齧 1
1675 0.5199060526864827
665 1
927 1
938 1
Ross 0.08851799718019691
Tru@@ 0.19954726782092144
ality 0.039259198255057595
ves 0.02230546349578606
ś 1
愍@@ 1
秽 1
鵙 1
黒 1
1527 0.71115352938489
Donald 0.08762151945566539
Johnny 0.0951614245396371
Wood@@ 0.07084227670508171
pedia 1
ò 0.20138464678881482
剽@@ 1
藓@@ 1
陋@@ 1
794 1
885 1
SC@@ 0.8475125746848322
aca 0.07069556171706647
ace@@ 0.09853023065344894
bach 0.02919168598269756
high 0.010388324088490605
pel@@ 0.04135963360490576
ت 0.13797236911093627
啄 1
嫣 1
蹲 1
阆@@ 1
1510 0.7282206228113528
693 1
Arg@@ 0.09293973291885102
Classic 0.12796434800586762
Sn@@ 0.20080845235984054
eth@@ 0.03693228888035093
lon 0.18528655606327907
­ 0.14843877614307774
燬 1
764 1
811 1
B3 1
Dal@@ 0.07045137378314198
PG@@ 0.733288825125738
anti 0.03004849966367151
む 1
燾 1
瑯@@ 1
篙 1
鹫 1
Advanced 0.19616379351516794
Clo@@ 0.15746545713538515
Five 0.09684887289579912
Word 0.3761844641458821
ker@@ 0.04567950986641909
mp@@ 0.09330239241557378
song 0.010476639199538788
zo 0.057192564419963794
傈@@ 1
孖 1
瓯@@ 1
鯖 1
0000@@ 1
865 1
NEC 0.8244411781334413
Rap@@ 0.09969286269884634
VIP 0.7654419335279161
XIII 0.10452375012731463
film 0.0048464721729793245
true 0.06731829148667069
would 0.004499104624569161
婢@@ 1
爨 1
龈 1
1749 0.4531944949260096
766 1
Long@@ 0.0782035969299224
Matthew 0.11157980909793797
Three 0.051733272219272985
WB 0.6213042704883543
ave 0.07289748543020459
met@@ 0.03315452539787083
枯 1
氚 1
814 1
AZ 0.3112472246028648
Bruce 0.08916692346341883
EB 0.46240998524044236
bili@@ 0.6820373965210603
jo 0.04524179769032262
ð 0.8830634045336346
晒@@ 1
筠@@ 1
1734 0.4664759128125732
Bot@@ 0.05383239574784092
CON 1
RN 0.31830798121603743
Wonder@@ 0.3345244494676294
station 0.009046756020058734
唁 1
槎 1
瓒 1
痒 1
繆 1
諺 1
948 1
981 1
CH2@@ 1
Eng@@ 0.07351587924932625
Ni 0.4010619274214783
Wong 0.35038515829575306
aba 0.01375244111977999
lang 0.040318213640547766
pro 0.04325173146894478
儼@@ 1
旬@@ 1
煊 1
癫@@ 1
秃 1
覓@@ 1
1542 0.6472894566952659
Gordon 0.07760227404634093
Wild 0.12284807718498739
ami@@ 0.0980569891581353
倻 1
726 1
Kot@@ 0.124266263610255
Review 0.10505234554536697
Sup@@ 0.08369666651718694
Vit@@ 0.08987515461266452
district 0.012758861320081553
拯 1
煇 1
軫 1
麋@@ 1
954 1
Benjamin 0.08757591127257502
Pter@@ 0.30973019073046076
edi@@ 0.04326947752274024
eph@@ 0.14359393048283417
there 0.006126008941153082
ぶ 1
彊 1
辙 1
1738 0.47568165784305677
809 1
Cle@@ 0.12402795681105458
Dun@@ 0.05963128990017559
String 0.5944575913185272
ear@@ 0.05221566450564922
eter 0.04829821231073732
凑@@ 1
睪 1
蝉 1
赚 1
魅 1
鸳@@ 1
August 0.006044438164862609
Mountain 0.0628875618743164
Zi@@ 0.08312339129752092
kHz 0.5024507487384723
匱@@ 1
妞 1
暐 1
矽 1
Jar@@ 0.07797618431937871
Mail 0.24759142937689854
Map@@ 0.21171904654568005
Republic 0.02975411933406518
WD 0.5960407685414314
m2 0.5792309410815336
sk 0.06600184234144477
tan 0.0331043827177411
ร 0.24370120654870128
卞 1
坠 1
殴 1
烨 1
聶 1
2050 1
703 1
972 1
Creek 0.04226713562295052
Lumia 1
Score 0.5159251600858282
沸 1
瘍 1
蹈 1
ACT 0.48727304105293656
Delta 0.14153983529996
Hospital 0.04441552009852033
ward 0.03412984498344825
yan@@ 0.0922491981955415
俶 1
朽@@ 1
萎 1
萼@@ 1
1746 0.43376482817303785
Centr@@ 0.1412575674544054
More 0.07372087027751856
Velvet 0.6542856966488543
ae@@ 0.18424616049669093
amm@@ 0.07122863993454366
three 0.005027336708460848
骧 1
鲀 1
龢 1
1516 0.7500424207149473
1537 0.7335867528998151
957 1
Ken@@ 0.08496607833578841
Run 0.15386415719634347
Tap@@ 0.15367939788430124
Ven@@ 0.07207791279940311
ew@@ 0.040951178531020885
part 0.00476304294571086
tree 0.059852924734925164
蝌@@ 1
1506 0.9410292874910778
But@@ 0.08747508570472867
CAN 0.7249688157691684
Fort 0.03987420818241121
Lang@@ 0.042262372863237564
Transport 0.08643561879938967
example 0.02279588181816845
gs 0.05679354580765008
hor@@ 0.03640921987564
oria 0.09203637662971068
otr@@ 0.10783654397637599
窺 1
薦@@ 1
邳 1
鴦 1
1499 0.8998794787574699
1687 0.5602208691981845
Jonathan 0.10856530382316643
Saf@@ 0.12832522633911478
ute 0.05252012636323154
愧@@ 1
緞 1
31@@ 1
842 1
897 1
Ann 0.09936237212801748
Car 0.13058900635149132
Rus@@ 0.05324108471496494
child 0.035485242499518004
hom@@ 0.032542684910537245
ih@@ 0.05965863804048036
low@@ 0.06415670995623086
news 0.048683561360994936
oll@@ 0.06211360347645275
test 0.04059726634522104
乖 1
咳 1
惰 1
阯 1
812 1
816 1
887 1
BASIC 0.8002641126167872
Only 0.08499806590564583
Triple 0.16740385619710613
acc@@ 0.040692044611637966
ate@@ 0.1323204995055215
idea 0.03700157129699163
癬 1
睽@@ 1
箴@@ 1
838 1
851 1
Alliance 0.08758882439899691
Cour@@ 0.054802445536241355
Run@@ 0.182287657439078
han@@ 0.09612506864868747
tha 0.1061901866944968
tz 0.09426599264263402
拙@@ 1
覬@@ 1
諒@@ 1
锭 1
1599 0.6373731518213025
Commission 0.03462316452959921
Twins 0.4628575010410854
sor@@ 0.035763488106337546
哑@@ 1
怠 1
违 1
閭 1
顒 1
驤 1
1566 0.6378096170786864
566 1
Formation 0.10882134610219298
ISE 1
Kw@@ 0.2877872582531403
pp 0.27621272612403536
tion@@ 0.04115801841996315
墀 1
揉@@ 1
蜚@@ 1
袍@@ 1
鉢 1
＞ 1
724 1
922 1
995 1
AMP 0.9098331400035814
Kingdom 0.03053873832845433
Tab@@ 0.0710169670184296
Temple 0.07239034362398476
י 1
ソ 1
檄@@ 1
淄 1
谎 1
韬@@ 1
1528 0.6965561003882839
1712 0.48934403907928037
789 1
828 1
913 1
934 1
Bag@@ 0.10568418848668683
Lind@@ 0.07769150389262565
Metal 0.117556408173435
Utr@@ 1
law 0.014999163950458758
oon 0.07856342801858003
scape 0.9081848915615459
傣 1
蠍 1
錡 1
1512 0.7501921881011631
1674 0.5704513054747342
783 1
898 1
Chart 0.10094386314373878
Git@@ 0.2719068955679212
Soft 0.5572823485680403
TH 0.6661925998142343
she 0.003817288854864347
syn@@ 0.05391220432829153
ular 0.0476088026171577
uta 0.09381666159888348
▲ 1
ゲ 1
疱@@ 1
蝨@@ 1
餡 1
1717 0.4417510605015937
939 1
Arena 0.08924373292286496
Cat 0.2395152653924251
Our 0.11423082007779967
Seven 0.12078729575853293
SmackDown 0.3445167499366993
adi 0.08295778801646424
dow 0.41737730680971136
ild 0.23582070309787376
涕 1
潑@@ 1
輒 1
鉗 1
閨@@ 1
1656 0.5086497308266704
ICA@@ 0.6990751882483065
TF@@ 0.9274587916273499
gi 0.11407049858705279
second 0.005698898057513194
嬴 1
氪 1
籽@@ 1
胤@@ 1
蹇 1
韭@@ 1
1371 1
Carex 0.8744796223431561
GG 0.5346525938001098
RM 0.38602623209632403
Stop 0.31887598038765746
Wright 0.09589474992797983
XX@@ 0.19566255398186258
alia 0.08956373166119172
ams 0.04412148959258185
ゴ 1
嗆 1
磊@@ 1
箴 1
纺 1
1702 0.4706707236993522
744 1
807 1
FB 0.6245553010082591
Mach@@ 0.08786671287262393
Mission 0.08394435868149422
Solo 0.17815446110879543
Storm 0.1476306553631
TT 0.38075267403639024
URL 1
orus 0.2613075037218813
static 0.32285562058365974
your 0.09194173400063992
ポ 1
奢 1
渺@@ 1
蓁 1
蚯@@ 1
觐 1
阈@@ 1
隗@@ 1
韌 1
鳌@@ 1
1127 1
786 1
877 1
959 1
998 1
Fu@@ 0.08152007448632537
Mam@@ 0.10630647014381295
Wilhelm 0.038586797547117545
ages 0.01409434012136546
cho@@ 0.05336763124384643
gre@@ 0.07611999087617863
wo@@ 0.04438620514706854
娇@@ 1
弭 1
怯@@ 1
晝 1
曇@@ 1
曖@@ 1
杖@@ 1
1703 0.488142187932711
696 1
824 1
Audio 0.360037767133114
V6 0.5666520641352164
board 0.025968276521574123
ザ 1
儋@@ 1
晕@@ 1
疮 1
蓓 1
蕊@@ 1
觅@@ 1
軋 1
铰@@ 1
826 1
878 1
Alex@@ 0.19018411392433654
Macintosh 0.646799172013943
Side 0.1419883974809203
fe@@ 0.02448478888211315
棗@@ 1
氈 1
869 1
883 1
889 1
Champion 0.10587190001081133
Modern 0.08108476011482321
Second 0.03227489003585077
Stu@@ 0.07353254744531343
燼 1
玮 1
锷 1
Canada 0.014729386918127777
EG@@ 0.7108985617172816
Elec@@ 0.09075772981221895
LL@@ 0.9703749334545954
ete 0.03599284646464223
tis@@ 0.03874439411210672
中海 1
挚@@ 1
挨 1
歩 1
澧 1
瞎@@ 1
靚@@ 1
723 1
846 1
862 1
864 1
Autom@@ 0.11131098122881612
唆@@ 1
濠@@ 1
粽@@ 1
藕 1
蹂@@ 1
Aer@@ 0.1145965535558036
Has@@ 0.08631684476454522
JC 0.6471522038304132
bo 0.07629816670533705
fil@@ 0.04226000124384996
through 0.006099132435968197
thus 0.03365091482562507
掣@@ 1
琢@@ 1
锟 1
Ali@@ 0.07717751312733848
Creative 0.2739999404322584
Dam@@ 0.058654283663016824
Kat@@ 0.04106538422209012
Top@@ 0.11680451708315535
fri@@ 0.06965072063078113
uch@@ 0.050812556049721964
uma 0.08083608033367869
斟@@ 1
橐 1
洺 1
涓 1
箍 1
羯@@ 1
醜 1
雒@@ 1
1546 0.7670312394769464
1668 0.5250073685164525
Medical 0.06432554058209533
Pun@@ 0.1321403801131062
Rhodod@@ 1
Thi@@ 0.07522245211722625
nia 0.10747254424913781
uv@@ 0.06983912228150714
僞 1
嚐 1
烁 1
餾 1
1180 0.8104944887491687
874 1
895 1
Ann@@ 0.06032702939913403
Douglas 0.06576605572804693
LD@@ 0.9139958861546158
yg@@ 0.12473597266512347
ˋ 1
妨 1
搗 1
樽@@ 1
炽 1
糠 1
蚪 1
鄔@@ 1
866 1
891 1
Dre@@ 0.06732005500633846
Jimmy 0.08637474695384234
She 0.005375117527874834
Turbo 0.4958193908644796
WM 0.1556892045490098
Watch 0.22063155604518586
When 0.013869082911688108
nig@@ 0.1914665876776382
滎@@ 1
竖 1
郯@@ 1
1220 0.81185398307465
129@@ 1
677 1
982 1
Les@@ 0.07213709636000022
No.@@ 0.4992441994945348
P2 0.8397869485604897
Son@@ 0.07299357466914808
ku 0.12645965757870237
瀑@@ 1
絆 1
莿 1
阎 1
霏 1
鱔 1
1472 1
1504 0.838678661735834
782 1
823 1
944 1
Ky@@ 0.09318487918060951
Productions 0.1342906110333143
ei@@ 0.11982478426193435
ids 0.04195900355821181
men@@ 0.027417556399328365
people 0.006748415868626283
曷 1
煲 1
琏 1
脲 1
鮪 1
1596 0.5791852789102406
776 1
952 1
992 1
Lab 0.3387453003502762
Moore 0.07441039407355261
Singapore 0.07913323768964924
eno 0.07602280289164516
lan 0.0717762146212779
yer 0.03164699735440126
咁 1
徭@@ 1
蠔@@ 1
PCR 0.6404087060403645
Po 0.3537655115862971
core 0.06921272266329348
ony 0.07116947378633508
try 0.04517469482598712
ying 0.0265900143751831
琢 1
膾 1
鑾@@ 1
958 1
Est@@ 0.034339261157031425
HQ 0.4791041194282872
Khan 0.062315692066025115
Max@@ 0.17633693284513346
acid 0.0916227164243064
ond 0.05213218250316703
when 0.0041620502811426895
∈ 1
ぐ 1
喷 1
1440 0.7550619013545515
1534 0.6226254830917483
1617 0.5630929003623804
1711 0.4515524958514962
VP 0.21775521274209975
stone 0.02876965236264518
ties 0.01936590861295644
zoom 1
劭@@ 1
蠣 1
鞘@@ 1
颢 1
駝@@ 1
1543 0.6716223827594286
899 1
Army 0.016557728103491036
Cul@@ 0.06830583998563779
Dear 0.669822590755607
Sum@@ 0.06622297441390192
das 0.0016204210457209372
enia 0.2046897805512523
lex 0.2937936771307371
ph 0.17000468753906967
彗@@ 1
玥 1
瑩@@ 1
謫 1
赭@@ 1
FE@@ 0.4584261558365645
Forever 0.3237224000233674
Pil@@ 0.06527038573252326
win@@ 0.10909044824058421
秤@@ 1
蘋@@ 1
郓@@ 1
1277 1
1557 0.6764789018758137
1663 0.5374011522018437
1719 0.44802997999400596
Zen@@ 0.20509812956934578
eli 0.07297924597016232
index 0.19199522365619182
tle 0.06779918850604572
啸@@ 1
汨@@ 1
溟 1
舶@@ 1
袜@@ 1
铍 1
雹 1
頹@@ 1
1507 0.9824452707805935
664 1
Mind 0.2572638571052078
Movie 0.20239420265717512
Nak@@ 0.09944535903706696
Roc@@ 0.07817622918587384
anna 0.08991559282331088
emb@@ 0.02904782458027245
longitude 0.5508142579306531
plus 0.003568988431595822
ά 0.09533817097647988
勗 1
殆 1
谛 1
阀@@ 1
1513 0.7584885105625752
Bay@@ 0.05591686577120126
Florida 0.03038014755041693
Frederick 0.07467351515235972
Ian 0.10660157346560596
Ng@@ 0.09139441893651999
each 0.009469145863632799
nd@@ 0.08788580209610983
oli 0.08304517229877593
崂@@ 1
犢 1
753 1
Bom@@ 0.13250146993031675
Que@@ 0.28261986628611346
Rap 0.43243295879449656
ann 0.06959200235659103
ush@@ 0.0724038640597911
暠 1
耒@@ 1
詰 1
铮 1
頤@@ 1
1676 0.48246711320077096
822 1
Beat 0.2620784944996461
CO2 0.3173081579741045
Chen 0.1695444416357649
Christmas 0.07357847508950208
EI 0.9463693388506415
Energy 0.09774660757739129
Key@@ 0.160041210454349
Mun@@ 0.06911342762034604
Sa 0.03989464989919504
Shop 0.3363744138445952
Spring 0.10759503783018166
aea 0.21035757796418625
awa 0.06245498907320925
inf@@ 0.025902787581173658
≥ 1
宕@@ 1
糜@@ 1
654 1
743 1
Dig@@ 0.15364574417790763
EV 0.6136091528384499
Jac@@ 0.08411925452892266
Lon@@ 0.1736127125248246
Mari@@ 0.04194620023736308
qu 0.030327280099711657
work 0.006252599056231842
０ 1
827 1
931 1
Asian 0.044396352202465794
Mis@@ 0.06557825001435011
Sir@@ 0.10822961506204856
ante 0.010034801675654905
latitude 0.37345374380575896
勰 1
嘆@@ 1
爰 1
瞬 1
竞 1
褻 1
鈷 1
671 1
942 1
Beach 0.053364417166426176
FP 0.4598566878924315
Index 0.19314548966451725
Pet@@ 0.08189048722586867
ef 0.08243542508173227
former 0.008420579235026312
otus 0.27502422846688956
wer 0.05948616535409843
碗@@ 1
稹 1
繭 1
讫 1
跖@@ 1
躁@@ 1
逗 1
674 1
Never 0.20916533824837305
Russell 0.08275721768513072
Silver 0.1001030378507478
bit@@ 0.05481121447194002
hal@@ 0.02986135636394443
ji@@ 0.12726656437715336
level 0.01695305209441991
ven@@ 0.0277081175639681
へ 1
燉 1
痹 1
粪 1
蒿@@ 1
诃@@ 1
833 1
Kas@@ 0.04323170406642252
bes 0.05520899739726204
chen 0.021776122093832468
chu 0.2580045789466798
lip 0.12854093327990015
yst@@ 0.09235775772141613
淩 1
絢@@ 1
縉 1
録 1
陡 1
1682 0.4987378160243713
983 1
EB@@ 0.5648590878950251
March 0.007444847303651291
Ware 0.35347237255598074
etti 0.04588425380345507
mini 0.13416769908245724
疃 1
铬@@ 1
鬃@@ 1
1011 1
1270 0.8219999030650291
1608 0.5494849902055845
Factory 0.22148409743210476
Fly 0.34540910077520887
KG 0.29905528015423677
amer 0.15925305285515984
喱 1
朐 1
洒@@ 1
灝@@ 1
蛻@@ 1
鶘 1
麝 1
IB 0.47751471692013797
Ny@@ 0.10833487010679804
UFC 0.19948799475941428
power 0.015114447890991312
潢@@ 1
砜 1
105@@ 1
1204 0.7989259145115156
847 1
CG@@ 0.6870461505165377
GR 0.39118996512113674
Lost 0.1566442010376798
Set 0.2318894000493002
Spotify 0.8289895278420448
acker 0.09944027327433652
err@@ 0.03814710415609265
囂 1
塱 1
隅@@ 1
靡@@ 1
骅 1
1692 0.49811637371494083
1705 0.45853809871682566
772 1
791 1
868 1
894 1
AH@@ 0.6470067579517126
Lap@@ 0.13290343394143694
Palazzo 0.355285810547316
Water 0.08067075828588378
anth@@ 0.0842123036738408
igh@@ 0.04631295501827607
孃 1
帘@@ 1
柬埔@@ 1
瀑 1
疹@@ 1
靛 1
鳗 1
1549 0.7017143109783804
1743 0.39820190118189186
736 1
Again 0.19519926049291011
Ca 0.42810102004196565
Fun@@ 0.10279986147131524
Perfect 0.3905035555636856
rent 0.0850411516297069
χ 0.5633557809069017
獼@@ 1
鈹 1
1704 0.43522205621270005
946 1
977 1
Pass@@ 0.08640874197030897
home 0.009770211468743958
ide 0.034714124234269284
imb@@ 0.08244029469434963
ision 0.09855800291292983
kl@@ 0.02735090516876702
ots 0.03417639419790059
厩 1
揉 1
暄 1
碓 1
芩 1
蚺 1
誇 1
赌 1
辎@@ 1
閤 1
1464 1
Deep 0.1706205153290639
Ring 0.12266800643309766
Sarah 0.07662988662464354
Say 0.31354697979190826
ZA 0.7412550990070625
var@@ 0.06060456234950251
ベ 1
娼@@ 1
枉 1
竣 1
1470 0.6758429605745835
159@@ 1
932 1
aqu@@ 0.04109525126244863
lamb@@ 0.8062318842422693
opus 0.17142981119481238
晩 1
沢 1
眩@@ 1
虜@@ 1
輋 1
006 1
967 1
Der@@ 0.054260609130271
Fro@@ 0.10260873777094424
city 0.007662311180185934
series 0.0066780634649375
soft 0.14137283815764498
vers 0.012119619197928816
甩 1
簪 1
谟@@ 1
964 1
Pink 0.21033424075670265
Sak@@ 0.07703569276615724
Scr@@ 0.2618066879326169
album 0.005190121202927003
asi 0.10614799961884999
ein@@ 0.008487026058124956
eum 0.12651635924943852
istr@@ 0.12069565962707665
rol@@ 0.13037408516321017
® 1
徳 1
昉 1
樵@@ 1
氡 1
沮 1
溼@@ 1
痫 1
AMC 0.5366841938595504
Stre@@ 0.07844578062703289
berry 0.14558460442979204
fu@@ 0.055403154977698904
may 0.006974620843733623
such 0.004812447198234652
△ 1
愁@@ 1
捞@@ 1
橈 1
潦@@ 1
濮 1
筊 1
钠@@ 1
819 1
941 1
943 1
956 1
elia 0.11914940742369036
ope 0.08961832407986241
sol@@ 0.02305620575145826
very 0.011817510633536
vo 0.053746576857687155
ギ 1
们@@ 1
儡@@ 1
柚 1
聳@@ 1
菖@@ 1
龚 1
1554 0.6289183084521306
1694 0.5248797596833096
734 1
774 1
841 1
Ober@@ 0.01564352026560789
Som@@ 0.08523581349826802
Sus@@ 0.07396521740517391
aff@@ 0.03126395847649912
fa 0.09827988071074165
ks@@ 0.044331328030415965
sson 0.08163330074609654
thys 0.934591060742527
咯 1
恍@@ 1
氘 1
猬 1
胀@@ 1
钛@@ 1
993 1
aci@@ 0.040960345865049944
della 0.15125744256606513
school 0.007006551631463366
sive 0.04228899776737651
ust@@ 0.07092731957625925
朮 1
樺@@ 1
痊@@ 1
耸@@ 1
991 1
Arch@@ 0.06945443027633998
At 0.008596014158362924
Beautiful 0.27887159291974334
Billy 0.0844141629515125
Machine 0.15884443397638742
Oliver 0.09331509708843391
One@@ 0.39338493401363367
SO4 1
Technologies 0.3002560073273822
format 0.04265274765822814
ses 0.004630383597505139
蝮@@ 1
覦 1
鲱 1
1451 1
694 1
867 1
Aur@@ 0.0820600462090745
Europe 0.013262570276495975
MOS 1
Maker 0.6050030719411489
ign@@ 0.03855232319689515
show 0.01105456050249633
til@@ 0.0392860379611185
Á 0.2097830821105522
蟆 1
軛 1
骸@@ 1
797 1
858 1
Steven 0.1198889223401407
ches 0.01746926210278635
file 0.11220908908822308
odi@@ 0.05387508366283673
our@@ 0.038523173079790037
works 0.014971167823555566
凪 1
莢 1
锈 1
闢@@ 1
1515 0.6079104147976677
792 1
Giovanni 0.08976361493476821
JK 0.8485427059923225
band 0.009627220904346027
び 1
嶷 1
甌 1
砥@@ 1
篩 1
羽毛@@ 1
隣 1
1275 0.9990660211574296
1678 0.4496615405564314
Pie 0.3886173515521526
There 0.008787068963762593
Universal 0.08918316304854686
tern@@ 0.08278609320377109
year 0.004161055513349485
½ 0.21690032738357157
妍@@ 1
鱉 1
Kom@@ 0.035865813207130566
Sing@@ 0.10364233596746149
Yu@@ 0.13984910511233817
channel 0.04615925744708313
kr@@ 0.03677239834261863
ό 0.08346207848943689
ヤ 1
恼@@ 1
憚 1
捩@@ 1
疤@@ 1
竑 1
鰓@@ 1
1716 0.4347555602683801
CH2 1
LT 0.6048796246915118
MSN 1
Sweet 0.19798825937146627
Wave 0.2836800707141174
Yes 0.3912540796404528
archive 0.3587910164906707
away 0.018706858689902798
order 0.013421184770257364
result 0.019265318837729636
ˊ 1
伉@@ 1
冑 1
擋@@ 1
汜 1
玷@@ 1
窜 1
腌@@ 1
鳐 1
Ass@@ 0.10336890709744596
FIA 0.2929525636005522
Lanc@@ 0.19777129414463826
ender 0.030414481710026305
fi@@ 0.024869069363694707
圜 1
撼@@ 1
滷 1
漂 1
阗 1
鴛@@ 1
1382 1
62@@ 1
778 1
793 1
884 1
Sig@@ 0.07731685385268214
Studies 0.06700638966588539
bird 0.08833464661965307
him 0.004525091569061438
iti@@ 0.03077894047653496
marker 0.338136214820899
sing 0.03678107755830366
talk 0.10308371786142646
word 0.036464326033855896
ه 0.0661414614708608
淖 1
甥@@ 1
苇@@ 1
178@@ 1
839 1
CAD 0.6255498088302064
Gold@@ 0.060361762229805674
Michel 0.049461004001874656
Mode 0.26004433809577243
Scar@@ 0.1013399762818478
Under@@ 0.1184260609237772
major 0.011404873667695076
ぎ 1
坻@@ 1
寥 1
巩 1
疤 1
萘 1
觐@@ 1
Flo@@ 0.10957365833694926
Friends 0.14864585372937592
Tokyo 0.05860596891264449
Vic@@ 0.07055894513208749
isi@@ 0.031066017996972124
nor@@ 0.04328734514949648
ther 0.07032310992796939
屁 1
瞎 1
紇 1
諫@@ 1
賬 1
钕 1
钝@@ 1
1420 0.6774620866820262
832 1
Daily 0.08930856702852001
Obj@@ 0.1660827853015499
Pon@@ 0.06112609259700862
Thompson 0.08326139428925425
any@@ 0.04909957046024553
family 0.006015751824360807
ough 0.05603597239535853
sole 0.11813343197698851
旷 1
訛 1
訢 1
譙 1
醞@@ 1
1185 1
799 1
893 1
949 1
963 1
Kill 0.3415428196725312
Maz@@ 0.06354207152130516
Real@@ 0.23086620714294406
aus 0.0025727185099146386
pur 0.07175053279622415
櫥 1
燙 1
窥@@ 1
1696 0.5022681761394384
697 1
CBC 0.32676017467036
Orange 0.08991999097967353
burg 0.024704061560593113
ont 0.006390945556823497
廨 1
皋@@ 1
簾@@ 1
荐@@ 1
銫 1
779 1
Grace 0.12423096116014777
Justin 0.14358701295606793
Pit@@ 0.09659461314710652
Sailor 0.5930626450484104
trop@@ 0.08806029398229685
war 0.0017392285025101422
揄 1
琇 1
筵@@ 1
飙@@ 1
鳶 1
872 1
FI 0.4635446121437745
Fran@@ 0.06114384505466485
Wat@@ 0.10299344487166255
car 0.014267165000596676
length 0.03179294059212641
ols 0.05187129129873006
疲 1
谚@@ 1
谬@@ 1
赟 1
896 1
987 1
Conference 0.03591188897708148
England 0.012326814237896909
Gran@@ 0.05820884413601455
Number 0.21656900675529117
ecraft 0.19051996767347326
咕 1
嗚 1
挽 1
畑 1
祟 1
耙 1
蚶 1
褚 1
贅 1
1415 0.796365884048045
873 1
879 1
989 1
Clar@@ 0.0922787106759033
Dead 0.1035273935800135
Rain 0.2893524969281549
XI 0.09226720879438317
root 0.17118714476272484
zone 0.028577112092236852
ペ 1
俏 1
傕 1
攣 1
朦@@ 1
珲 1
瑯 1
缙@@ 1
DK 0.7849123434311649
Dav@@ 0.06766199674407676
IST@@ 1
JP 0.3333704489145104
P3 1
Single 0.08486419930613016
mes 0.023814595957119905
object 0.09818727209586536
page 0.057098874016019485
set@@ 0.12596939138832444
棧@@ 1
韧 1
鰨@@ 1
1691 0.5187571560530491
Area 0.061783320123289354
Lin 0.27799268146788964
Mar 0.11452170334385751
PSV 0.8270924053615283
Plan 0.07151666891230134
eni 0.08732852535446213
eth 0.0781097511750795
gar@@ 0.031475245176741926
र 0.0360053939449148
諭@@ 1
1548 0.6621183107150204
Alabama 0.06983203516537001
棗 1
炅 1
璀@@ 1
鶇 1
＊ 1
1278 1
1390 0.8566335211391689
1706 0.4722292953494052
849 1
ABS 0.4941877619620692
Nature 0.12330590910750112
Roman 0.02127756536601629
Sul@@ 0.07443903360147479
da@@ 0.09296196350205507
fish 0.04215010868600575
ple@@ 0.03304498117804197
豺@@ 1
鼱 1
1693 0.4855649657415727
Guy 0.08726528343325551
Lawrence 0.07404139998021601
Media@@ 0.7397181544120549
control 0.015573102902672033
culus 0.39192885753313605
super@@ 0.020854355273449327
ž 0.6021668713995452
挟@@ 1
檄 1
笠@@ 1
覃 1
1498 0.813210269282017
Cou@@ 0.07560489091291532
Fir@@ 0.09270646250962214
KT@@ 0.6182260077472799
Luis 0.0362390791400031
Television 0.06079478802460793
ern@@ 0.02689605053514527
ו 1
扛 1
蜢 1
鎢 1
钋 1
鯔 1
鶲 1
｜ 1
1480 0.560592599370059
746 1
FD 0.8687465050968818
Low 0.164534637870696
Lun@@ 0.13985262251924588
Monster 0.2597531112002262
Riv@@ 0.089645219064451
Vincent 0.07683543915082278
gh@@ 0.057634166860982265
仡@@ 1
玘 1
痢@@ 1
蠢@@ 1
鈞@@ 1
1340 0.7357138351357575
1531 0.7190019581544014
Brothers 0.08292057523644061
God@@ 0.07193790542171605
See 0.044718286037140176
Sid@@ 0.10507747144063312
edia 0.1797197693774593
noinclude 1
round 0.01509977643664894
ş 0.26671051923873146
悯 1
鮎@@ 1
默德 1
1330 0.7343965749790133
1686 0.46411813623421844
837 1
Bad@@ 0.05431090178056811
Bri@@ 0.05348809787805397
Cent@@ 0.0842763059879186
Rab@@ 0.07497947708563986
Washington 0.01559596599235771
ection 0.04087432572873526
ema@@ 0.7504441759420033
俨 1
晗 1
炊@@ 1
窿 1
鄜 1
镠 1
镭 1
008 1
1234 1
1433 1
Fel@@ 0.05688692662083562
Joy 0.25222012346180583
js 0.650231622276379
勣 1
孪@@ 1
1533 0.6567440162232936
749 1
Chin@@ 0.08906605972400643
Jordan 0.07473616116339044
Lem@@ 0.0771853707389577
Lib@@ 0.07096560078112903
Tol@@ 0.07172439435572917
eu@@ 0.06131871731683465
́ 0.011021764795461199
1240 0.7046622234090171
1403 1
853 1
974 1
BMG 0.6869695843174943
DN@@ 0.33010979954839387
Ford 0.046081773857302805
Pier@@ 0.14337185467346944
cat 0.138158486189016
iz 0.09037994039987374
sum 0.1065558285894802
睫@@ 1
锆 1
闾@@ 1
739 1
Death 0.05015858615993774
Hur@@ 0.0573002476253718
NK 0.36740588765369436
Spec@@ 0.13231055355974253
Version 0.07647925806176462
bin@@ 0.047436688179868076
wer@@ 0.027945726798918002
Л 0.07837119053337865
箐 1
蔴 1
3rd 0.048064919528290076
Hum@@ 0.06259495384514067
Lan@@ 0.06088891252287826
Memorial 0.056710841289999765
Tin@@ 0.11802427251823411
Urban 0.1152300408080192
Wor@@ 0.055274486877447244
Work 0.11647670259813961
ector 0.1020210686854379
lu 0.08737495184240351
uz@@ 0.044603935150512586
阙@@ 1
1206 1
1435 0.8728861769626948
1445 1
1551 0.6201811005914117
829 1
Chrom@@ 0.23370449433579277
Cot@@ 0.08108239523239862
Ev@@ 0.06841758399727407
Heart@@ 0.292467790380519
Radi@@ 0.06712575694104095
Revolution 0.05162510672918379
Songs 0.0710419928881577
Spar@@ 0.08004741041163035
Vil@@ 0.0599735219151079
anda 0.055265409219901786
good 0.023121966953697927
mon 0.08560661557980398
铟 1
锣@@ 1
Face 0.18748307961670282
Se 0.011960621514269841
Sm@@ 0.09268734082591609
Ten@@ 0.06802415497643279
loop 0.173821011479577
method 0.053237750422154034
minor 0.04466677006747275
ord@@ 0.029972267537859084
↔ 1
镧 1
1279 1
1708 0.38508947356419704
Fac@@ 0.07306926922352877
ering 0.04188349378004682
nic@@ 0.10755189077849628
ヒ 1
啞 1
斯洛伐@@ 1
钵@@ 1
1392 1
1404 1
769 1
844 1
994 1
Bak@@ 0.06381960838969043
Hunter 0.10441057657903591
LAN 0.6564218608305806
Mb@@ 0.5050912868307701
Peace 0.09508625198193435
between 0.004089863954636731
fin@@ 0.019085843635865532
丟 1
锶 1
Coc@@ 0.14397968892558277
Fr 0.42803295114200796
Graham 0.08559074009134764
IUPAC 1
flo@@ 0.03768218191871929
ista 0.02094896562626434
na@@ 0.09735909506510294
templ@@ 0.2765715918713504
囑@@ 1
寔 1
揖 1
芪 1
銹@@ 1
1385 0.8830888220265242
1695 0.4576885907481817
854 1
984 1
Album 0.03245306998730493
Bos@@ 0.0548094065167423
Fri@@ 0.06798948297402277
Gun@@ 0.08049373913701847
Hope 0.11962072667018175
MH 0.6424980098691481
Nexus 0.9884955452385189
Phil 0.10843475462753993
Robinson 0.08125515394455736
illus 0.3023705851565369
咱@@ 1
拚 1
泫 1
鉻@@ 1
＜ 1
1040 1
Charlie 0.08058180603071423
Franz 0.04332503189816889
JD 0.742219310066502
ades 0.0234578954144355
dh@@ 0.08340502385303446
feat 0.34732111310148367
oe 0.08256941011162178
sec@@ 0.030904936341175013
ư 1
喂 1
滄 1
発 1
舂 1
钗 1
闺@@ 1
861 1
Call@@ 0.13367088594002546
Community 0.05264316208557678
DJ@@ 0.3317273945252447
IATA 0.8334116568498049
Jacob 0.07705550059808701
Jet 0.27873113490103624
Ric@@ 0.09786041187849351
array 0.2112615460039684
fa@@ 0.04382547450536281
mph 0.19863043899577368
ports 0.04537909488352995
叱 1
塬 1
摻@@ 1
熏 1
聳 1
蛄 1
谘@@ 1
遏 1
騫 1
1320 0.7637680577320454
Lol@@ 0.38333739537628186
Moh@@ 0.07139781787396907
Right 0.15580717776678638
eb 0.10278528371806625
ˈ 1
弈@@ 1
惩 1
橡 1
淦@@ 1
灏 1
畈 1
篷@@ 1
藨 1
钺 1
雉@@ 1
1509 0.7734543458677381
859 1
ATC 0.6820864822049372
Fun 0.4349692129113046
Seg@@ 0.06521932770391342
plat@@ 0.07037950074554074
press 0.04389501802088664
ump 0.10598518633408271
ws 0.037725823062111245
ː 0.9652873498560425
愔 1
漓@@ 1
釵 1
锌@@ 1
1066 0.8258270580879312
1442 1
1539 0.5550212746414722
Def@@ 0.13260799492785239
Lat@@ 0.05122885059967514
TI@@ 0.8966609175603977
ache 0.043179554867070695
ean 0.060424102988226175
four 0.006287545303177615
macro@@ 0.22504968482269008
uy@@ 0.061597438015441035
吶@@ 1
岬@@ 1
戊 1
葦@@ 1
飆 1
[...]
