् 8669031
के 1665587
। 1546065
में 1258194
, 1226863
है 1085862
प 829548
की 778427
और 690486
़ 656794
से 610670
का 589243
स 587554
को 492004
एक 453416
य 400127
) 387192
( 385418
हैं 373996
&quot; 332340
क 322443
पर 321606
त 277070
ट 276230
. 274459
@-@ 274189
ने 267137
र 264960
व 263683
द 252467
किया 242141
था 229019
लिए 225826
भी 203068
यह 190775
इस 180694
गया 178847
कर 176820
या 166173
कि 161224
म 159627
न 158656
वर 153729
रूप 142312
ग 141010
जो 131657
उन 131121
ज 127771
जाता 125218
ध 123392
ड 122476
कार 118410
ही 118279
साथ 117304
करने 115682
फ 114581
उत 112411
हो 109770
वारा 107481
ष 106453
थे 104761
श 104622
&apos; 102958
भारत 101648
राज 101405
: 101376
नहीं 100235
तक 97053
बाद 93504
ब 93051
री 92406
निर 92067
तर 91883
अन 88733
तथा 86774
अपने 84981
थी 84394
दिया 80613
यक 76597
षेत 76360
ी 75917
वह 75556
ति 75295
होंने 74573
होता 72228
ण 70053
पूर 69799
र@@ 68607
ता 66906
जा 66743
हुआ 65799
दी 65141
ा 65061
थित 63530
वे 63503
इन 60836
ली 59687
कुछ 59681
सर 59664
थ 59583
म@@ 59309
हें 58524
नाम 58457
राष 58253
विश 57461
रीय 56492
सम 56383
क@@ 54337
अ@@ 54310
करते 54291
हुए 53613
तो 53360
गाँव 53341
रा 53200
न@@ 52944
च 52201
समय 52188
ल 51289
इसके 51274
एवं 50970
दर 50502
- 50373
होने 50029
कई 49377
उनके 49272
षा 48985
स@@ 48522
संस 48391
े 48306
रा@@ 48187
; 48076
भारतीय 47133
अधिक 46933
वाले 46536
व@@ 46028
ब@@ 45719
य@@ 45639
बड 45450
सबसे 45118
वि@@ 44854
कारण 44805
अपनी 44513
कम 44436
करता 44377
होती 44225
मुख 43928
पहले 43722
थान 43114
अर 43099
गए 43078
दो 42663
पत 42465
जन 42419
मार 42386
प@@ 42253
सन 42039
सकता 41932
रों 41911
रकार 41484
ल@@ 41373
आ@@ 41316
फिल 41181
त@@ 41075
किसी 40978
ए@@ 40881
&#93; 40456
ना 40456
जब 40447
गई 40309
&#91; 40299
ती 39839
रो@@ 39689
ला 39487
कहा 39249
नी 39116
टी 38827
लेकिन 38596
‍ 38393
टर 38390
रदेश 38348
ये 38078
राप 38065
ट@@ 37961
जी 37631
जाती 37345
हुई 37289
बहुत 37039
शामिल 36859
ना@@ 36694
वी 36620
का@@ 36540
रि@@ 36527
यों 36488
बर 36263
लिया 35923
द@@ 35830
मा@@ 35787
शन 35438
देश 35429
जैसे 35415
बन 35146
होते 34920
रक 34904
जिले 34545
रे@@ 34515
/ 34375
दक 34351
ले 34038
ला@@ 33606
रम 33592
रहे 33491
भाषा 33350
नि@@ 33195
मा 32677
को@@ 32496
ज@@ 32369
सा 32335
ते 32315
उनकी 32293
उस 32123
विद 32051
जाने 32037
यालय 31653
षण 31619
धर 31502
गत 31481
बीच 31257
उसके 31143
सं@@ 31136
वास 31064
रहा 31024
वा@@ 30998
सभी 30951
तरह 30673
सु@@ 30629
सी 30626
उद 30589
जिसमें 30586
पश 30579
सि@@ 30577
रस 30518
ग@@ 30367
इसे 30132
यू@@ 30102
रह 30070
ई 29968
रत 29813
भाग 29777
आर 29746
इसका 29716
अनुसार 29398
मन 29223
ख 29206
ह@@ 29100
तहसील 28994
तान 28705
या@@ 28612
बा@@ 28608
रमुख 28499
बार 28496
सा@@ 28485
करना 28396
काम 28394
चित 28092
माण 27813
ड@@ 27733
उसे 27696
अध 27669
कोई 27527
लोगों 27496
पड 27360
च@@ 27307
पा@@ 27229
अक 27204
रिया 27199
महत 27194
री@@ 27109
लि@@ 26762
बढ 26749
ञान 26719
यात 26608
उपयोग 26562
पार 26559
मण 26535
ं@@ 26474
हिन 26366
वाली 26254
ले@@ 26221
शिक 26173
ए 26133
ता@@ 26103
मान 26000
सी@@ 25999
अल 25866
मे@@ 25838
जाते 25746
जीवन 25715
भ 25653
लो@@ 25354
&#124; 25310
कु@@ 25280
जा@@ 25254
दोनों 25174
आदि 25112
बे@@ 25080
उ@@ 24899
श@@ 24839
राम 24723
मक 24548
शब 24547
मूल 24527
शहर 24496
लिये 24484
मध 24470
लगभग 24406
सिंह 24239
रयोग 24219
दौरान 24186
मि@@ 24168
यहाँ 24054
साहित 23741
ओ@@ 23709
रेस 23702
अंग 23626
इ@@ 23591
ओर 23494
सरकार 23298
चार 23168
डल 23137
अब 23120
तीन 23085
मी 22916
शुरू 22915
फिर 22847
िल 22711
के@@ 22668
% 22547
षिण 22486
जिसे 22445
विज 22374
अलग 22320
ने@@ 22316
गो@@ 22246
विकास 22223
लोग 22130
नगर 22091
काल 22077
मो@@ 22063
पास 21846
लक 21704
1 21613
करती 21602
ऑफ 21553
ध@@ 21373
पुर 21187
से@@ 21104
केवल 20931
अंतर 20907
बल 20880
शक 20839
डी 20830
जिन 20825
ठ 20754
जाना 20713
रिकेट 20614
यान 20592
सकते 20563
विशेष 20477
मु@@ 20469
मंदिर 20444
इसकी 20427
ति@@ 20286
मे 20172
युद 20110
पद 19976
वे@@ 19970
&amp; 19926
वस 19883
यम 19735
सिद 19731
वार 19625
पी@@ 19618
कभी 19576
उनका 19334
विभिन 19323
विस 19319
सदस 19317
टीम 19312
इतिहास 19127
पन 19107
दिन 19090
गर 19083
हर 19077
योंकि 18953
साल 18952
उच 18904
इसमें 18898
ंग 18873
ख@@ 18857
रु@@ 18779
बि@@ 18752
बी@@ 18743
हा@@ 18674
दा@@ 18631
तु 18615
नदी 18604
वपूर 18531
माना 18498
ियों 18436
अपना 18422
इसी 18378
बी 18371
कों 18369
राजा 18320
कहते 18274
चर 18264
हालांकि 18211
थिति 18176
रही 18131
हिस 18101
रदर 18073
बो@@ 18067
फ@@ 18063
ई@@ 17983
पे@@ 17915
किए 17888
तन 17870
2 17852
दिल 17839
वाला 17834
ह 17729
रसिद 17645
जर 17628
संख 17556
योग 17502
रथम 17501
॰ 17310
तब 17301
ली@@ 17287
वविद 17241
पहली 17220
थ@@ 17141
कुल 17116
सत 17061
आवश 17031
कै@@ 16996
गा@@ 16977
ा@@ 16934
टी@@ 16914
पुरस 16893
अस 16862
सो@@ 16842
रण 16837
कल 16821
आ 16797
रिय 16604
ों 16551
बना 16542
.@@ 16512
टो@@ 16496
षित 16457
संयुक 16450
रदान 16446
टे@@ 16430
दूसरे 16332
जिसके 16319
अमेरिका 16276
जल 16258
कृत 16203
केंद 16185
रित 16155
पो@@ 16041
थापित 16023
उल 15859
टेशन 15807
भर 15806
तत 15792
करण 15723
तमान 15711
उसकी 15697
ष@@ 15664
डे@@ 15659
वा 15605
जबकि 15591
सामान 15575
जी@@ 15558
यहां 15544
नी@@ 15514
कि@@ 15511
दे 15451
अप 15448
रता 15387
पी 15354
रन 15307
जिसका 15289
पि@@ 15243
टा@@ 15241
गु@@ 15238
टा 15224
टन 15210
पाकिस 15194
बच 15158
भ@@ 15158
ं 15153
लड 15140
धि 15070
तों 15063
आज 15060
नर 14957
वन 14929
मात 14892
माध 14879
नो@@ 14869
पक 14854
थापना 14832
टि@@ 14773
जे@@ 14752
कन 14748
िले 14708
यु@@ 14697
यता 14691
हे@@ 14691
यू 14680
मों 14649
तियों 14614
सक 14593
कृष 14592
महा@@ 14575
’ 14563
रति 14540
दे@@ 14535
अत 14466
मित 14461
‘ 14432
पिता 14423
रू@@ 14420
हि@@ 14400
एस 14369
नों 14340
घर 14331
मंत 14321
गयी 14276
रखा 14241
यवस 14237
बनाया 14220
नामक 14196
अनेक 14180
मै@@ 14158
समर 14154
आधार 14151
तौर 14118
पुस 14086
3 14059
कोड 14045
मिक 14024
एल 14019
यास 14010
बारे 13992
संग 13992
सभा 13961
उसने 13954
लों 13944
ण@@ 13916
वी@@ 13914
परिवार 13874
दा 13872
विक 13837
टि 13794
चाहिए 13749
देने 13748
बात 13707
आम 13670
मृत 13569
लैंड 13563
ययन 13548
समूह 13546
देशों 13517
संगीत 13457
बिहार 13448
भा@@ 13402
सेवा 13401
उपलब 13391
रे 13353
चा@@ 13332
शा@@ 13325
जु@@ 13270
ि@@ 13265
डा 13255
रिक 13249
ऐसा 13243
सेना 13231
अच 13166
यु 13117
शि@@ 13068
जिला 13067
सकती 13057
वीं 13048
डा@@ 12981
उप@@ 12972
हार 12908
रभाव 12901
गढ 12898
पुत 12893
राचीन 12885
केन 12869
डि@@ 12854
दृष 12851
जारी 12845
रै@@ 12844
हो@@ 12839
ऐसे 12836
तार 12817
जहां 12813
महिला 12778
े@@ 12736
बनाने 12709
डी@@ 12684
चिम 12676
वाद 12670
षों 12646
परिवर 12633
थीं 12631
ंग@@ 12624
अलावा 12607
षक 12606
छोड 12604
बु@@ 12604
राज@@ 12536
दुर 12489
दि@@ 12453
है@@ 12439
अफ 12400
20 12380
देता 12365
भूमिका 12305
वै@@ 12297
दार 12289
मैच 12271
करके 12270
छ@@ 12257
तु@@ 12205
माता 12203
तराखण 12170
जुड 12154
निम 12128
वत 12126
चिकित 12111
जिससे 12095
येक 12083
खिलाफ 12075
सार 12068
ऑस 12020
यदि 12019
दु@@ 12007
मी@@ 12002
रो 11988
वतंत 11961
मर 11927
कंपनी 11922
रोग 11919
पता 11912
काफी 11842
ठ@@ 11828
जि@@ 11822
१ 11820
सामाजिक 11814
पु@@ 11784
रति@@ 11777
बै@@ 11759
दुनिया 11747
की@@ 11724
लेकर 11704
चुनाव 11645
उसका 11629
पै@@ 11604
4 11560
मस 11557
अनु@@ 11550
कप 11477
नई 11449
शताब 11402
धार 11399
सू@@ 11397
5 11376
कला 11371
रिटिश 11354
पहला 11348
चन 11345
दूर 11333
जोड 11331
गये 11319
परीक 11310
रान 11302
परि@@ 11290
अथवा 11273
चि@@ 11266
सुरक 11252
लेख 11240
२ 11230
पानी 11194
समस 11183
जो@@ 11182
खेल 11167
ंस 11163
समान 11132
10 11124
ते@@ 11117
इंग 11067
इसलिए 11057
किये 11054
वक 11047
कर@@ 11019
शुरुआत 11015
दू 11002
आगे 10963
खा@@ 10960
अमेरिकी 10958
कूल 10955
छोटे 10949
आई 10944
जहाँ 10942
लु@@ 10902
– 10895
तेमाल 10880
पर@@ 10876
रणाली 10870
वरूप 10869
उम 10867
= 10857
आधारित 10828
जिस 10826
तरी 10819
चक 10798
रकाशित 10691
लम 10691
वीप 10678
ओ 10635
यो@@ 10623
तित 10593
उदाहरण 10591
लाल 10543
फि@@ 10542
लगा 10535
जन@@ 10488
ो@@ 10481
साम 10473
रेलवे 10472
जनवरी 10456
ो 10452
कृति 10433
समाज 10424
पूरी 10407
शास 10404
इससे 10394
राजस 10390
मुक 10384
बाहर 10345
ु@@ 10344
6 10333
ी@@ 10333
इनके 10325
पादन 10324
अंत 10306
आन 10299
भू@@ 10297
नियंत 10258
विकसित 10210
डो@@ 10206
होगा 10181
वो 10168
मद 10167
लोक 10161
गांव 10157
लर 10129
रेज 10056
पदार 10054
मत 9981
रहता 9979
भगवान 9971
संघ 9963
दस 9958
हम 9948
रेन 9945
अव@@ 9944
दशक 9939
बनी 9935
मुद 9921
दो@@ 9912
थल 9900
रेणी 9900
फर 9892
शे@@ 9888
बने 9887
दों 9883
धन 9873
वित 9856
सब 9803
आत 9797
देते 9797
अं@@ 9790
जिनमें 9783
३ 9778
रहते 9773
अतिरिक 9710
आधुनिक 9705
! 9701
होकर 9689
आई@@ 9672
एम 9641
अधिकांश 9639
शासन 9630
पति 9629
ताओं 9592
मई 9592
रृंखला 9587
शरीर 9580
रमण 9575
वाल 9568
एस@@ 9548
रेजी 9520
रात 9512
चे 9505
gt 9500
५ 9489
लोकप 9479
थिक 9461
ंट 9455
टिक 9449
सम@@ 9444
अगस 9438
गा 9433
नए 9420
डे 9403
ार 9402
शर 9401
गि@@ 9398
देखा 9396
ओं 9342
ंड 9335
यादा 9306
णन 9282
बांग 9268
संक 9249
बस 9240
टूबर 9234
देव 9230
मिल 9172
अधिकार 9139
डर 9130
रंग 9127
lt 9121
मानव 9115
लै@@ 9115
उसी 9113
ियाँ 9096
गी 9069
सिस 9066
दूसरी 9059
विभाग 9056
भिन 9043
रैल 9037
ऐ@@ 9023
राम@@ 9022
बा 9000
आप 8981
वाचन 8979
संबंध 8976
सर@@ 8974
जून 8970
चीन 8939
भूमि 8935
जगह 8931
नाथ 8927
the 8918
मिश 8911
राजधानी 8907
जुलाई 8900
देवी 8889
पूरा 8888
शीर 8882
ऊपर 8877
दी@@ 8873
वों 8865
चिमी 8825
रोत 8803
तर@@ 8793
घ@@ 8786
िया 8781
हस 8764
था@@ 8758
यन 8754
राजनीतिक 8753
विचार 8743
पष 8740
सूची 8734
तैयार 8723
of 8717
विषय 8705
बिना 8702
सप 8686
मीटर 8681
ँ@@ 8664
ाई 8655
अग 8643
चु@@ 8643
सीमा 8618
जीत 8617
अभि@@ 8611
यार 8598
छा 8583
ढ 8567
४ 8566
एम@@ 8565
किन 8556
विधानसभा 8554
लेने 8551
युग 8548
रचना 8526
राय 8509
तो@@ 8495
ञानिक 8487
वान 8487
युत 8479
पृथ 8474
वयं 8467
अंतिम 8458
खिलाड 8453
लिखा 8442
मान@@ 8426
-@@ 8425
चों 8404
६ 8404
जनसंख 8388
आकर 8381
मल 8371
ञ 8365
थानीय 8360
कड 8358
कोर 8346
रपति 8333
निक 8332
मानित 8323
वृद 8316
लू@@ 8315
उर 8301
रास 8294
समुद 8294
सहायता 8291
योजना 8280
टूर 8269
आने 8241
नीचे 8238
पा 8229
धा@@ 8209
वैज 8169
तव 8165
मूर 8142
यापक 8142
ऐसी 8105
संगठन 8100
कहानी 8099
णा 8099
थन 8099
ान 8098
होना 8082
एन@@ 8076
समाप 8074
हिंदी 8065
टेस 8058
पढ 8046
छात 8029
निया 8022
अभी 8019
पात 8013
पाया 8010
तुलना 8007
ंद 8006
कॉलेज 8004
रहने 8004
नो 7988
रकाश 7978
लो 7967
हु@@ 7954
आक 7936
रवेश 7928
तम 7926
निष 7916
मिला 7906
कार@@ 7899
शैली 7897
नाटक 7873
भाई 7871
रिस 7869
सूर 7855
कता 7854
टों 7842
लीग 7836
हा 7833
लिंग 7826
वितीय 7820
किलोमीटर 7814
पूरे 7810
चात 7801
झ@@ 7799
9 7787
विशिष 7787
रभावित 7780
८ 7769
ु 7768
सहित 7766
चा 7757
षमता 7757
सदी 7752
धान 7751
दूरी 7742
8 7737
अवधि 7735
निश 7733
७ 7718
सिर 7706
अवस 7689
सै@@ 7682
संबंधित 7672
पहाड 7648
कॉ@@ 7643
एंड 7637
सल 7632
एन 7627
15 7611
रयास 7611
यर 7604
वश 7604
फे@@ 7596
7 7588
चे@@ 7587
लगे 7586
2008 7585
अन@@ 7582
हल 7582
आबादी 7571
९ 7570
अप@@ 7567
किमी 7561
दन 7554
कुमाऊँ 7553
विधि 7547
०@@ 7538
ऐतिहासिक 7527
युक 7522
मिलता 7510
मुस 7509
बुद 7506
मैं 7501
बे 7496
वहाँ 7496
उड 7487
ंक 7483
यकता 7481
शी 7470
खान 7459
इनमें 7456
यंत 7451
पल 7448
रीका 7444
12 7428
वंश 7426
पित 7401
रियों 7401
रॉ@@ 7398
ू 7384
चंद 7369
गति 7367
तंत 7360
रेष 7348
तहत 7328
काव 7327
घोषणा 7323
यापार 7317
रहती 7310
2007 7286
तुत 7268
वीकार 7266
आकार 7262
दिए 7259
विधान 7252
खो@@ 7237
आता 7235
ित 7232
लिम 7223
पुरुष 7220
दूसरा 7215
जनगणना 7198
आते 7188
आयोजित 7169
कांग 7167
सके 7166
धा 7156
ंड@@ 7153
हाथ 7124
गीत 7123
नियम 7120
गे@@ 7096
ऊर 7083
मदद 7067
रेलिया 7065
एशिया 7040
फा@@ 7038
बौद 7038
जिसने 7025
ढ@@ 7022
फो@@ 7014
लादेश 7009
ची 6998
बनाए 6997
यी 6997
इनका 6980
दास 6979
दिखाई 6977
ही@@ 6967
विवाह 6957
वादी 6949
2018 6947
हों 6942
णी 6912
2019 6909
चौ@@ 6909
19 6892
थात 6884
बाल 6884
थर 6881
नु@@ 6878
टम 6869
हत 6860
दल 6858
आया 6839
५@@ 6835
जाति 6831
बोर 6830
2009 6808
नामेंट 6802
हेतु 6800
आर@@ 6799
जे 6797
पोर 6790
कारों 6787
धांत 6783
टै@@ 6771
धि@@ 6771
रखने 6758
याय 6752
वें 6750
गन 6747
तुम 6745
बताया 6731
४@@ 6727
सामने 6726
देव@@ 6724
अंतरराष 6723
शादी 6706
बैंक 6695
थानों 6694
महिलाओं 6682
बम 6672
मिली 6672
रारंभिक 6670
टे 6669
नन 6662
रह@@ 6648
टल 6647
सिक 6642
कं@@ 6640
उपन 6631
पांच 6629
रेट 6615
लिन 6612
ती@@ 6606
सों 6603
राह 6601
साक 6598
रप 6592
मं@@ 6586
नियुक 6585
थि@@ 6582
पुलिस 6580
सूत 6579
भक 6577
रशिक 6570
कश 6567
बंद 6567
ियां 6536
मास 6534
नेतृत 6531
हे 6522
पुनर 6520
कवि 6514
छा@@ 6512
30 6504
कुमार 6504
हवाई 6477
‌ 6472
रेल 6471
लन 6468
नस 6463
चला 6443
अम 6437
सात 6399
घटना 6396
किस 6390
सांस 6377
रिका 6373
परिषद 6371
दृश 6363
रण@@ 6363
फरवरी 6359
रिकॉर 6355
सफल 6355
जै@@ 6354
एँ 6351
लेखक 6347
पैदा 6346
राकृतिक 6346
11 6345
दिशा 6327
संरक 6326
वल 6323
डॉ 6309
मीर 6307
वेस 6294
नक 6291
नौ@@ 6291
छत 6289
बंगाल 6277
िया@@ 6277
मनुष 6276
मिलियन 6274
अरब 6261
यवहार 6247
नृत 6235
रल 6234
सितंबर 6223
रव 6216
गैर 6205
विन 6204
जानकारी 6201
वापस 6201
वामी 6198
जाए 6190
चल 6184
पण 6178
लास 6178
खड 6177
फै@@ 6177
2006 6176
जनता 6170
ार@@ 6163
आश 6161
लाभ 6160
गार 6148
बू@@ 6145
षिणी 6141
षी 6136
वजनिक 6132
६@@ 6128
मू@@ 6119
दिनों 6104
लॉ@@ 6100
छोटी 6099
सैन 6098
समुदाय 6065
यूरोप 6057
सड 6040
18 6024
मह@@ 6017
भीतर 6009
हासिल 6006
पुष 6004
हाल 5992
ीन 5978
वेल 5970
लाम 5966
कानून 5952
पू@@ 5952
गै@@ 5950
बहु@@ 5944
वृत 5928
कब 5923
इनकी 5921
खोज 5917
राइ@@ 5916
७@@ 5913
आमतौर 5911
खु@@ 5911
शी@@ 5910
तल 5905
0 5902
अगर 5901
अड 5893
बजे 5891
देती 5886
लब 5884
ू@@ 5883
धीरे 5880
सरकारी 5880
छी 5878
सामग 5874
पहचान 5857
राजमार 5853
शिव 5841
कस 5839
गुप 5831
पीछे 5829
इलेक 5822
कृतिक 5815
सिटी 5811
८@@ 5809
ठा 5808
ौ@@ 5807
रतिशत 5804
षिक 5803
जिम 5801
अधि@@ 5789
० 5789
2010 5781
टिंग 5770
उपस 5767
मैन 5766
खे@@ 5760
कृषि 5758
जिसकी 5756
९@@ 5750
डन 5749
तरफ 5747
मिस 5734
25 5718
शा 5713
समिति 5707
विष 5702
पाठ 5691
कक 5687
दिसंबर 5682
परिणाम 5670
लगता 5668
लिक 5667
सागर 5665
यही 5663
? 5648
रहण 5644
१९@@ 5643
टो 5634
कू@@ 5627
जैसा 5624
सहायक 5623
३@@ 5623
अभिनय 5619
नवंबर 5617
रम@@ 5614
ईस 5605
चरण 5604
वो@@ 5602
16 5598
डिग 5596
चीनी 5593
14 5588
लाख 5586
टर@@ 5585
महान 5585
अनुसंधान 5583
ईसा 5581
किंग 5580
मनी 5572
मौजूद 5571
टीवी 5565
बर@@ 5557
रौद 5548
सेंट 5546
वार@@ 5544
कमी 5541
नलिखित 5538
पंजाब 5535
खुद 5534
ञात 5526
नल 5510
ंत 5509
तिगत 5509
एल@@ 5504
कालीन 5502
अकादमी 5499
ताकि 5499
जीता 5493
जैन 5487
ॅ@@ 5480
मौ@@ 5475
वजह 5475
तानी 5473
तिक 5467
गोल 5465
अपेक 5464
ारा 5461
लाइ@@ 5459
आधिकारिक 5455
यतः 5454
धी 5441
तीर 5438
निजी 5436
ि 5433
ः 5430
गुरु 5429
पाद 5426
नै@@ 5422
ीय 5416
सिन 5414
ै@@ 5413
थों 5407
समा@@ 5407
रांस 5401
२@@ 5397
भाषाओं 5388
षा@@ 5373
रिलीज 5371
सह@@ 5367
थे@@ 5363
एं 5360
बदल 5358
औसत 5353
याप 5350
धारित 5349
राव 5346
रेम 5346
यिक 5343
जाएगा 5340
एकल 5337
आंदोलन 5335
योगदान 5335
नेपाल 5333
शित 5332
बाहरी 5328
णा@@ 5327
रेड 5327
यूरोपीय 5324
विशाल 5324
पिक 5322
उससे 5318
दान 5313
िला 5310
बाजार 5305
शाह 5293
लता 5289
यूटर 5287
वेद 5286
अनुमति 5270
इं@@ 5262
रु 5261
उनमें 5256
कथा 5255
21 5254
बं@@ 5254
वहां 5254
दिर 5251
साइ@@ 5243
पट 5241
पृष 5240
सौ@@ 5232
जैसी 5230
मुंबई 5228
टार 5217
रद 5216
किंतु 5213
मेल 5211
अली 5202
2014 5200
पालन 5199
सूचना 5197
पूजा 5192
रं@@ 5188
2011 5186
यत 5185
2016 5180
हाइड 5174
ठीक 5164
णय 5156
रबंधन 5143
_ 5139
गों 5139
विजय 5139
2017 5138
लाई 5137
घा@@ 5136
चुके 5131
सेन 5126
फोर 5125
लग@@ 5123
नीति 5122
डब 5113
संचालित 5106
17 5105
एं@@ 5104
रधान 5104
संदर 5103
मार@@ 5099
दू@@ 5095
देखने 5093
विरोध 5092
सीमित 5089
कविता 5088
यद 5085
रांत 5084
ऑ@@ 5083
आसपास 5076
अनुवाद 5075
आस 5065
रतियोगिता 5065
2005 5064
जल@@ 5051
रानी 5042
वती 5036
लागू 5034
लगाया 5022
मामले 5012
बिल 5006
सफलता 4999
and 4984
मन@@ 4967
वर@@ 4964
सुधार 4958
नेटवर 4954
करें 4951
जित 4947
टेक 4945
शासक 4945
चलता 4944
छ 4935
पटना 4921
ये@@ 4918
महीने 4911
+ 4910
तीय 4909
संघर 4902
नि 4900
इंडिया 4898
भोजन 4898
लौ@@ 4890
योगिकी 4882
13 4874
बिन 4864
इत 4861
शो 4861
महाराष 4859
बावजूद 4853
नता 4850
बद 4845
जॉन 4844
जों 4843
मिलती 4841
शुक 4838
बनाई 4834
जीव 4830
नया 4828
शो@@ 4821
ऑक 4820
वीर 4820
गंगा 4819
मोड 4818
लिस 4817
तविक 4803
इन@@ 4802
भारी 4799
2012 4798
नव@@ 4798
घंटे 4796
कला@@ 4792
सेल 4784
जू@@ 4781
बैंड 4771
जापान 4770
षम 4770
लू 4768
परन 4761
पाए 4760
रिटेन 4756
अधिनियम 4746
भार 4745
कहीं 4742
डिंग 4735
णु 4733
षर 4733
चरित 4732
सुन 4732
लेट 4726
संबंधी 4724
आए 4722
धारण 4721
2000 4720
धारा 4720
ोर 4715
मॉडल 4713
रयुक 4709
छह 4705
अभिनेता 4699
ें 4689
घु@@ 4687
याख 4679
तमिल 4677
पाल 4677
गठन 4671
संकेत 4660
रेक 4657
राट 4650
औ@@ 4649
मिट 4649
झील 4646
परम 4646
तुर 4642
पेन 4630
2020 4629
यस 4620
रेखा 4609
मिनट 4607
परंतु 4606
हिंदू 4602
करोड 4601
लाइन 4601
लाया 4595
माल 4592
पीड 4589
कोशिश 4582
उपचार 4581
लस 4580
रिपोर 4579
परिचय 4572
संरचना 4568
आरम 4562
रतिनिधित 4562
विवरण 4560
परियोजना 4559
माँ 4554
वज 4547
रूस 4537
तुओं 4532
50 4528
छोटा 4527
सब@@ 4527
मीडिया 4524
मामलों 4523
कृ@@ 4519
लं@@ 4517
भाव 4512
कंप 4510
होगी 4506
हर@@ 4505
साधारण 4502
मानते 4499
चले 4498
मील 4498
माने 4489
रीन 4486
रसाद 4484
100 4479
रिज 4475
तट 4470
मुरादाबाद 4470
तृत 4468
नेता 4467
ंगी 4465
रोड 4465
रतिक 4463
लेखन 4461
धित 4459
आइ@@ 4457
कौ@@ 4457
फल 4456
विपरीत 4455
गम 4454
तेज 4449
भु@@ 4448
2015 4443
अधिकारी 4441
लाने 4437
भव 4428
रोक 4423
ठी 4417
संविधान 4409
एफ 4407
जान 4401
ंगा 4395
अभियान 4395
दीन 4395
सही 4395
भागों 4394
मनो@@ 4389
शु@@ 4386
एच@@ 4384
2004 4379
रि 4378
देना 4377
महल 4375
आयोजन 4363
पुराने 4363
राय@@ 4359
तियाँ 4358
रकाशन 4355
लेषण 4354
सहयोग 4351
चिन 4350
अनुभव 4346
बार@@ 4346
ऊ@@ 4342
ारी 4341
in 4338
रिश 4334
रतिष 4332
रकृति 4330
आईसीसी 4328
अगले 4326
चू@@ 4326
याओं 4321
सिं@@ 4321
रिया@@ 4316
पाई 4311
वॉ@@ 4308
नियों 4299
पह@@ 4298
पॉ@@ 4292
रच@@ 4292
आचार 4291
घोषित 4289
डॉलर 4286
कारी 4285
22 4280
कोट 4274
24 4273
लगातार 4273
इच 4266
लेते 4265
खंड 4264
चुका 4260
मुहम 4250
मॉ@@ 4248
विधायक 4245
शुद 4245
पेट 4244
पदक 4243
भविष 4240
वीडियो 4236
तेल 4235
2013 4234
शाखा 4232
१@@ 4230
रश 4227
ओलंपिक 4221
संसद 4221
आयु 4217
डु@@ 4211
लंदन 4211
रतिस 4208
ारों 4206
िय@@ 4202
बनने 4201
रचित 4199
गुण 4195
गांधी 4182
समीक 4181
अतः 4177
िक 4177
2021 4176
नें 4176
घरेलू 4171
उसमें 4158
विभाजित 4158
१८@@ 4156
निवास 4153
पिछले 4153
विदेशी 4152
शों 4145
करीब 4143
खेलों 4134
भवन 4134
लगी 4133
बाज 4132
ंडा 4124
रंथ 4123
रशासनिक 4123
नामित 4121
राजनीति 4116
गुजरात 4115
पं@@ 4114
यादि 4112
वायु 4112
अज 4110
योगिक 4110
रां@@ 4108
षेप 4107
नम 4101
जम 4100
शल 4098
तियां 4096
a 4095
रज 4092
किनारे 4090
इसने 4087
बोली 4086
निकट 4085
सेट 4085
२० 4083
आदेश 4081
रखते 4080
जय@@ 4079
पना 4079
जिनके 4075
लाह 4074
शेष 4069
“ 4067
डिजाइन 4065
$ 4061
पकड 4061
णों 4058
खि@@ 4055
फु@@ 4052
युवा 4052
सूक 4052
लग 4050
टिन 4046
चारों 4042
संभव 4041
यायालय 4039
फॉर 4030
गंज 4028
दौरा 4028
इलाहाबाद 4022
आठ 4009
वाड 4007
दत 4004
निस 4000
रचलित 4000
सुविधा 4000
मेट 3999
पवित 3996
यूज 3993
उपकरण 3992
मिलकर 3992
मानक 3983
हॉ@@ 3983
चुना 3982
माइक 3980
परिणामस 3979
थायी 3978
नेट 3977
थोड 3971
शोध 3971
आती 3966
” 3966
पारंपरिक 3965
हमारे 3965
लय 3963
ूर 3963
बिक 3960
गो 3959
टु@@ 3955
ताव 3953
ताक 3952
ञा@@ 3950
रार 3947
लें 3944
तस 3941
अनुमान 3940
मैचों 3935
नारायण 3923
अभिनेत 3920
तरीके 3920
वाधिक 3920
ॉर 3917
नाइट 3916
रारंभ 3915
सारे 3915
गी@@ 3910
रू 3909
यपि 3905
खेला 3904
ंगे 3902
औद 3898
चेन 3898
दिसम 3895
आदर 3894
रवर 3893
वप 3892
दावा 3890
रिंग 3890
गौ@@ 3889
​ 3886
लिखी 3880
बंधित 3879
पाँच 3874
मंडल 3868
रख 3867
है- 3867
नपुर 3865
यवसाय 3858
यादातर 3856
घ 3853
नीय 3852
धु@@ 3849
भि@@ 3847
ची@@ 3841
रीलंका 3840
भावना 3838
छे 3836
कम@@ 3834
गैस 3833
ँ 3832
वृक 3831
आगरा 3824
टू@@ 3820
अभ 3818
समाचार 3815
विल 3811
आग 3810
ंज 3809
राथमिक 3807
विकेट 3803
विख 3799
टिस 3798
चैनल 3795
मौत 3794
लिय@@ 3794
नवम 3791
नागरिक 3790
नियमित 3790
नातक 3786
लेखनीय 3778
23 3777
बजाय 3774
अधीन 3771
लेन 3771
पों 3769
रतीक 3768
लियों 3761
ंडी 3759
शिव@@ 3758
2003 3756
मेंट 3753
नत 3751
मानी 3751
देश@@ 3745
संपर 3743
लिपि 3740
रुप 3738
लोक@@ 3737
कलाकार 3732
बेल 3728
घाट 3727
डिस 3726
कॉर 3724
रेरित 3722
अवसर 3721
बाई 3719
दोस 3718
रचार 3713
वां 3711
2002 3709
साइड 3709
2001 3708
लेता 3708
सॉफ 3705
इ 3703
आरंभ 3693
तू@@ 3693
यधिक 3689
सामना 3689
छि@@ 3681
अद 3680
ंद@@ 3679
26 3676
रामीण 3675
ंच@@ 3670
फाइनल 3669
थो@@ 3666
वैश 3665
दु 3664
वाक 3660
मिलते 3659
हमेशा 3659
घाटी 3658
१० 3658
कान 3653
चो@@ 3653
भट 3646
विवाद 3643
परा@@ 3642
थितियों 3640
लामी 3638
खाद 3636
उप 3633
ईश 3631
पुनः 3631
ठा@@ 3630
रशासन 3625
लना 3616
बह@@ 3612
1990 3609
मैदान 3609
शिष 3607
टेट 3606
रैक 3605
जॉर 3603
नष 3599
तीसगढ 3598
रोज 3596
जनरल 3595
पेश 3590
एकमात 3588
खी 3587
देशक 3587
पुरी 3585
धो@@ 3584
टाइ@@ 3581
जिनका 3579
एफ@@ 3578
खा 3575
जीवित 3575
रमा 3575
रंग@@ 3572
परिस 3569
नेशनल 3568
रधानमंत 3567
लिखित 3567
शै@@ 3563
मैक 3561
१७@@ 3551
तै@@ 3549
रमों 3545
टॉ@@ 3544
वालों 3541
40 3540
कनाडा 3538
तीसरे 3536
धति 3535
वेन 3534
परमाणु 3533
संपत 3531
मोर 3528
तं@@ 3527
पेड 3524
चाहते 3518
दर@@ 3514
अंतरिक 3513
यज 3513
ताप 3510
अधिकतर 3504
चै@@ 3504
ंब@@ 3503
रेडियो 3494
हीं 3487
अम@@ 3483
ऋ@@ 3481
जान@@ 3481
पे 3477
यो 3476
ौर 3475
हरा 3471
आलोचना 3469
जांच 3469
मू 3468
I 3462
मेन 3461
रुद 3460
रिय@@ 3459
ाने 3456
खण 3455
मिले 3455
बेटे 3454
निंग 3448
बत 3447
राशि 3444
हाउस 3444
पुरुषों 3435
गेम 3434
सव 3434
बेहतर 3432
यमान 3429
गणित 3426
करा@@ 3425
रकट 3425
रिकेटर 3420
रत@@ 3419
चढ 3416
चुकी 3416
टक 3414
रारम 3406
नायक 3405
इंजन 3404
तापमान 3404
षणों 3403
करियर 3399
पताल 3398
याद 3398
केरल 3397
परिक 3396
परंपरा 3392
जेल 3389
शाही 3389
मांग 3388
ईसाई 3384
जिद 3384
ीं 3376
रोह 3374
णित 3372
बराबर 3369
लंबे 3367
टवेयर 3365
नज 3365
नार 3363
सैनिक 3361
महासागर 3355
हद 3350
समारोह 3349
गल 3348
27 3341
शहरों 3340
28 3334
अंदर 3334
संचालन 3334
... 3332
टाइम 3332
मेलन 3330
हालाँकि 3330
मियों 3323
भे@@ 3319
ंच 3318
रासायनिक 3316
तीव 3314
विमान 3314
वृ@@ 3314
s 3308
गंभीर 3302
टिकोण 3302
वहीं 3300
मिलित 3292
इज 3291
फी@@ 3291
भिक 3291
केट 3290
विषयों 3288
मौसम 3283
उनसे 3280
यावरण 3279
लगाने 3279
नू@@ 3276
१९६@@ 3276
तारा 3275
टियों 3271
लेस 3271
देख 3268
मां 3265
रौ@@ 3264
रांति 3263
डो 3261
आयोग 3259
विलियम 3259
to 3257
रवा@@ 3255
रालय 3255
रोम 3254
अरबी 3253
तथ 3250
नाग@@ 3249
नान 3249
तकों 3247
थापक 3245
जड 3243
भौतिक 3243
शारीरिक 3243
आय@@ 3241
इतना 3239
गुरु@@ 3237
देखें 3237
यूट 3235
महाराज 3233
रायः 3233
घटनाओं 3230
थव 3227
डिज 3225
कल@@ 3224
लागत 3223
सितम 3223
ताल 3213
ञा 3211
पाने 3211
लिखे 3211
समूहों 3210
हमला 3210
किले 3209
तोड 3208
हैं- 3205
एच 3202
१९७@@ 3202
वन@@ 3198
बेटी 3193
मोहन 3193
वाणिज 3193
खर 3192
झा@@ 3191
शान 3191
सुल 3185
यकार 3181
कपड 3178
वही 3178
धों 3176
तकनीक 3175
परिसर 3174
संप 3174
दिक 3172
सीधे 3171
अंक 3170
टू 3170
फोन 3168
कपूर 3164
विकल 3164
विरोधी 3164
चली 3162
सेक 3162
ताह 3159
फुटबॉल 3159
विभाजन 3158
दिखाया 3157
दुल 3156
अधिकारियों 3155
इक 3154
मिलने 3153
सच 3150
षीय 3148
ंस@@ 3146
गाने 3145
ियन 3145
रॉन 3144
भेद 3143
वोच 3143
ियो 3142
हवा 3139
निभाई 3137
रियाओं 3137
लोकसभा 3136
ऊ 3131
रहालय 3131
ै 3131
चलने 3130
दौर 3130
तेजी 3127
नॉ@@ 3126
निकल 3123
वानों 3122
झु@@ 3121
थक 3120
यप 3119
रिम 3117
देशित 3115
विजेता 3113
पार@@ 3112
बल@@ 3112
शंकर 3112
कैरियर 3109
दित 3109
सभ 3109
एक@@ 3108
टस 3108
रोमन 3108
रूसी 3104
सिल 3103
1980 3102
कैसे 3101
मुझे 3101
राजवंश 3100
सह 3099
मंड@@ 3096
सतह 3092
षात 3091
भित 3089
षि@@ 3088
थाओं 3087
विरुद 3086
अश 3084
पहुंच 3084
बॉ@@ 3081
याग 3079
विचारों 3079
धियों 3077
अलीगढ 3075
दि 3074
यूक 3073
डॉ@@ 3072
1999 3068
तकनीकी 3066
सेवाओं 3061
षत 3058
भेजा 3057
छु@@ 3056
सोवियत 3055
दियों 3049
रखता 3045
॥ 3045
देखते 3042
चट 3041
चिह 3041
दिवस 3041
भुगतान 3040
घो@@ 3039
उपाधि 3038
वेंटी 3036
यावसायिक 3035
सार@@ 3029
लेक 3028
शांति 3019
नैनीताल 3014
डै@@ 3005
जोखिम 3004
देवता 3001
पसंद 3001
एशियाई 2999
चतुर 2998
देशन 2998
दौरे 2998
आये 2996
खाने 2996
शील 2996
तिब 2995
रियल 2993
लंबी 2992
इब 2989
रवृत 2989
यमंत 2988
पुराण 2986
वातावरण 2984
सरल 2984
मना@@ 2983
डॉक 2981
उचित 2979
तः 2976
रभावी 2976
विशेषज 2975
अंततः 2973
तार@@ 2973
लैक 2972
संत 2970
संभावना 2970
धातु 2967
लीय 2966
B@@ 2965
संचार 2965
जलवायु 2963
तिष 2962
जिसमे 2958
करेगा 2957
थिर 2955
नियमों 2955
शं@@ 2955
कोलकाता 2952
वाह 2950
करी 2949
बां@@ 2948
पुरा 2947
१९८@@ 2945
कण 2944
अल@@ 2943
टीमों 2942
इंस 2940
चय 2940
डों 2939
रोजन 2938
कॉन 2934
कास 2933
लैण 2933
यटन 2928
चलते 2927
जेम 2926
तें 2926
यूजीलैंड 2925
गवर 2922
जापानी 2914
टिव 2914
1998 2908
जनक 2907
मोहम 2907
आं@@ 2903
इकाई 2903
हित 2903
गतिविधियों 2902
कारक 2901
हज 2900
हड 2900
१५@@ 2900
पद@@ 2899
लि 2898
इस@@ 2895
माइ@@ 2892
एका@@ 2891
हाइ@@ 2890
कंपनियों 2889
यकाल 2889
ङ 2885
हरि@@ 2884
चार@@ 2881
रमाण 2881
गद 2880
लने 2878
टेड 2876
मानना 2875
इंडियन 2874
formula 2873
जस 2871
शैक 2870
हिल 2870
चैम 2869
रस@@ 2869
दबाव 2868
वोल 2867
मजबूत 2866
करा 2862
सारी 2860
निवेश 2859
फाइ@@ 2859
शत 2857
फैसला 2856
रिप 2856
पैमाने 2854
यौगिक 2854
कराया 2853
गति@@ 2853
टेलीविजन 2852
वाहन 2851
दोलन 2848
फू@@ 2845
कैंसर 2844
अर@@ 2841
पुराना 2835
खाड 2834
उपयोगकर 2828
शायद 2825
नुसार 2823
याय@@ 2823
सां@@ 2823
कीय 2822
लगा@@ 2822
शाह@@ 2822
रॉक 2819
सीरीज 2819
कां@@ 2816
३० 2816
थियों 2815
वरी 2815
चयन 2810
रेजों 2807
आरोप 2806
वाइ@@ 2806
करे 2804
नात 2799
यूयॉर 2798
रमा@@ 2797
वाई 2797
29 2795
उनको 2795
सीजन 2794
परिवहन 2791
यालयों 2789
वेक 2789
हाई 2788
हमें 2787
पंच@@ 2785
लार 2785
लित 2785
मोबाइल 2782
यूनाइटेड 2782
रसारण 2780
अना@@ 2779
वनि 2777
ियो@@ 2777
धिक 2776
मृ@@ 2774
लकर 2774
विशेषता 2773
2@@ 2772
भो@@ 2772
आवाज 2771
फुट 2771
नं@@ 2770
यूनिवर 2770
हास 2767
तन@@ 2766
रका@@ 2766
कीर 2764
31 2763
उपयुक 2756
जंक 2756
टेडियम 2755
१५ 2755
जानी 2754
डाला 2754
भूषण 2754
मतलब 2752
पोस 2750
गं@@ 2748
एड@@ 2747
दम 2747
रदाय 2747
सिया 2743
शिकार 2742
निवासी 2739
मानसिक 2739
असम 2738
कट 2738
वेब 2738
मेरे 2736
बद@@ 2724
१९५@@ 2723
गृह 2722
खेती 2720
ढंग 2719
रोल 2717
यें 2716
रूपों 2716
सीज 2711
लियन 2710
सैनिकों 2709
° 2706
निदेशक 2706
बाह 2706
नेस 2704
पुरानी 2704
नाइ@@ 2703
बॉक 2703
किल 2700
बहन 2700
हराया 2700
अति@@ 2699
रपुर 2699
१६@@ 2698
सान 2692
इंटरनेट 2689
उज 2688
,@@ 2687
सस 2687
तीसरी 2686
शुल 2684
जुन 2682
रॉफी 2682
बन@@ 2678
अनुप 2675
गईं 2673
ञापन 2673
राफ 2673
कृतियों 2672
णु@@ 2672
रखी 2671
मैक@@ 2667
जगत 2665
लीन 2665
रवाह 2663
विविध 2662
उष 2661
H@@ 2658
ईरान 2653
ावा 2652
वैदिक 2651
रफल 2650
इंटर@@ 2648
गूगल 2648
यकर 2647
1996 2643
बिंदु 2643
मज 2643
सिंग 2642
लकड 2640
सुंदर 2639
संसार 2638
थशास 2635
समझ 2635
यव@@ 2631
पेक 2630
शिल 2629
आपूर 2626
कियों 2624
वली 2623
हरी 2623
बनिक 2622
चुने 2618
नही 2618
लेना 2618
१२ 2618
निधन 2616
कुं@@ 2615
गिर 2615
पाइ@@ 2614
बिजली 2614
हम@@ 2614
काम@@ 2611
जीन 2609
षकों 2609
वामित 2608
ंप@@ 2605
कहना 2604
उठा@@ 2603
गड 2603
परिभाषित 2603
विदेश 2602
हरियाणा 2602
मिर 2601
गिरफ 2599
नॉर 2599
आय 2598
अनंतपुर 2595
खेले 2592
लघु 2592
इटली 2591
रसार 2591
संधि 2591
चम 2590
भग@@ 2589
पशु 2587
इल 2586
काल@@ 2585
लखनऊ 2585
ारे 2584
गणराज 2583
शकों 2583
सौ 2581
षियों 2580
हजार 2579
रुखाबाद 2578
अपराध 2577
तात 2577
बीमारी 2574
डाय@@ 2573
टता 2567
1970 2564
गे 2555
मृति 2553
कानूनी 2551
दिये 2550
नित 2550
बाबा 2550
आसानी 2548
ूल 2548
महाभारत 2543
लिमिटेड 2539
कहलाता 2537
निका@@ 2537
वु@@ 2537
कारणों 2536
१९४@@ 2535
पट@@ 2534
पीढ 2534
अनिवार 2532
आंतरिक 2531
धारी 2530
10@@ 2529
आंकड 2527
पौड 2527
साबित 2526
आयरलैंड 2525
परा 2524
1997 2519
टिप 2518
राक 2518
खास 2517
राग 2517
टरों 2516
हृदय 2516
अवार 2515
एयर 2515
नौ 2515
पुल 2513
रीकी 2513
तय 2511
देकर 2509
षिप 2508
ंडर 2507
वितरण 2507
उपग 2506
दीर 2505
गल@@ 2504
मिशन 2504
सफ 2504
गण@@ 2503
समझ@@ 2503
जोर 2502
महाराजा 2502
चारण 2499
पीठ 2499
चौड 2497
धता 2496
वानी 2495
कत 2494
एड 2493
वं@@ 2493
सें@@ 2492
फार 2490
अस@@ 2488
सदर 2488
A 2487
वोत 2487
गुणवत 2486
कोश 2484
हैदराबाद 2484
डेटा 2483
एकत 2482
नेवाले 2482
कठिन 2480
जमीन 2480
धी@@ 2479
निगम 2479
दिवसीय 2478
होटल 2477
रीक 2475
मो 2474
तरा@@ 2472
नुकसान 2472
काशी 2471
रोस 2471
सो 2471
अभिव 2468
60 2467
गाड 2466
समझा 2465
रियन 2464
जाकर 2463
पहुँच 2461
शिया 2460
बचपन 2457
लान 2456
यानी 2450
ॉन 2450
महसूस 2447
आपको 2446
नंबर 2446
साफ 2446
दें 2444
The 2442
ऋषि 2442
तिशाली 2442
राल 2442
संज 2441
बों 2439
रोकने 2438
चना 2437
डिया 2435
बंध@@ 2434
बैक 2433
किरदार 2432
निय@@ 2431
भाव@@ 2426
लती 2423
वनडे 2422
मनाया 2419
हन 2419
रंथों 2417
घट@@ 2416
बहा@@ 2415
वनस 2414
कोरिया 2412
चाहता 2412
रेय 2411
रेलियाई 2410
is 2408
बारी 2408
तीनों 2407
फी 2407
मुगल 2400
रियता 2399
ऊंचाई 2398
पंक 2397
हमले 2397
दिखा@@ 2393
जय 2392
लॉक 2392
पनी 2391
अध@@ 2390
सेंटर 2388
साथी 2384
आनंद 2383
साधन 2382
अ 2381
काओं 2381
अंग@@ 2379
फीट 2377
मुश 2377
०० 2377
खेलने 2375
राजाओं 2374
1992 2370
में@@ 2370
घरों 2368
इंजीनियरिंग 2367
दौ@@ 2365
उपज 2363
जहाज 2363
डार 2362
सुर 2362
चला@@ 2359
तृतीय 2359
यिकी 2358
१०@@ 2358
जक 2357
गीकरण 2356
अनुपात 2355
कने 2355
जयपुर 2355
समृद 2354
ाया 2353
धारावाहिक 2352
बेस 2352
कोल 2351
— 2351
पादों 2350
होंगे 2349
अहमद 2347
रायगढ 2345
छेद 2344
रीष 2343
दूध 2342
मल@@ 2342
रॉनिक 2337
तारे 2336
रीट 2336
जिनकी 2335
चूंकि 2334
बाँ@@ 2333
टुकड 2332
डेल 2331
तता 2331
नूलु 2331
षता 2330
1994 2329
रोगी 2329
यानि 2327
मंच 2326
बंगाली 2325
रय 2325
जरूरत 2324
रसारित 2324
बनाये 2322
जरी 2321
आउट 2318
मिलाकर 2318
कोण 2317
गायक 2317
डाइ@@ 2317
खत 2316
x 2315
तुरंत 2315
09 2314
किला 2313
तभी 2312
1960 2311
खाना 2310
इलाज 2309
भौगोलिक 2309
रिन 2307
गणना 2306
पियनशिप 2306
जाया 2305
रीमियर 2305
जातीय 2302
200 2300
चीज 2299
ठित 2299
हार@@ 2298
मेरी 2295
ोन 2293
गण 2292
जार 2292
मिन 2292
रुचि 2292
1991 2291
गुज 2290
जग@@ 2290
भूगोल 2289
G@@ 2288
२०@@ 2286
फा 2282
औपचारिक 2280
जनसांख 2279
रवरी 2278
काली 2277
काफ 2274
1995 2273
कुर 2273
पान 2272
टोन 2270
भागलपुर 2270
हाथों 2270
घे@@ 2269
रगति 2269
नौज 2268
गुड 2265
कदम 2264
संपूर 2264
अधिकतम 2262
आध 2262
भाषाएँ 2262
संबद 2261
1993 2260
कलाकारों 2260
ऑर 2259
बोल 2259
रतिनिधि 2258
कोशिकाओं 2257
गू@@ 2254
माल@@ 2254
रग 2254
विष@@ 2254
सौर 2253
हरे 2253
हरा@@ 2252
डू@@ 2251
उपकरणों 2247
करेंगे 2247
-- 2242
रहित 2242
सिनेमा 2241
टने 2238
तीसरा 2237
बदलाव 2237
पत@@ 2233
उपयोगी 2232
बीज 2232
गान 2231
धक 2231
महाविद 2231
गेंद 2228
बाकी 2228
भार@@ 2228
नाल 2227
लत 2227
पौधों 2226
नाट 2223
वात 2222
रांसीसी 2221
राव@@ 2220
नर@@ 2218
मारक 2217
देवताओं 2216
N@@ 2215
आदमी 2213
पंचायत 2211
रजा@@ 2211
केश 2209
परिभाषा 2207
कट@@ 2206
फूल 2205
वायु@@ 2205
निरा@@ 2201
मराठी 2200
ऊँचाई 2198
ॉ@@ 2198
घाटन 2196
बनाकर 2196
रेरणा 2195
समझने 2195
मय 2193
हॉल 2193
बनाता 2192
माह 2192
3@@ 2190
नाक 2189
हिमालय 2188
अति 2187
इट 2185
इण 2184
हूँ 2183
कह 2182
लिका 2181
लॉन 2181
अवधारणा 2180
रहस 2180
शुरुआती 2177
निहित 2176
मद@@ 2174
२५ 2174
टूडियो 2173
अंश 2172
बुल 2172
वेत 2171
दीक 2170
भी@@ 2168
धन@@ 2167
सचिव 2167
सफेद 2167
P@@ 2165
डिजिटल 2165
वायरस 2165
हटा 2165
इमारत 2162
गुज@@ 2162
जीतने 2162
रीम 2162
लौट 2159
हिंसा 2159
पथ 2157
थानांतरित 2155
सीट 2155
दैनिक 2154
नग@@ 2154
पन@@ 2154
मुसलमानों 2154
बनाते 2152
मारे 2152
रुक 2150
मचारियों 2148
जटिल 2147
फलस 2147
शस 2146
किंगडम 2145
षे@@ 2145
रॉयल 2144
सरस 2143
तू 2141
यौन 2141
लिखने 2141
तीं 2140
पेशेवर 2137
रशंसा 2137
सद 2137
इम 2136
पू 2136
बाग 2134
यल 2134
अधिकारों 2132
मोटर 2132
रभा@@ 2131
इंटरनेशनल 2130
पुन 2130
उपभोक 2129
संबंधों 2128
ंडे@@ 2126
आदि@@ 2126
११ 2126
आयुर 2125
कित 2125
परस 2125
यातायात 2125
ठे 2124
कोशिका 2120
पोषण 2120
शन@@ 2119
कच 2118
चुनावों 2116
महात 2115
१९३@@ 2115
हीन 2114
खो 2113
मक@@ 2113
रसायन 2113
षाकृत 2113
फैला 2112
रूप@@ 2112
रतीत 2108
टेन 2107
यकारी 2107
मचारी 2102
मेर 2102
डेन 2101
अमरीका 2100
पेस 2100
शराब 2099
शृंखला 2099
ोड 2099
PM 2098
कह@@ 2098
डाल 2098
लपुर 2097
तरण 2096
इलाकों 2095
बई 2095
उ 2094
कौशल 2094
जीवनी 2094
५० 2094
लभ 2093
सुपर 2093
डेविड 2092
लाइट 2091
घोड 2090
T@@ 2088
काउंटी 2087
यि@@ 2086
डोर 2085
लंबाई 2085
अशोक 2084
रष 2083
नवा@@ 2082
राजनैतिक 2080
सित 2078
याण 2077
पाल@@ 2075
तह@@ 2070
पंजाबी 2070
१४ 2070
अमेरिकन 2068
8@@ 2067
कोच 2067
ऍ@@ 2065
झ 2065
S@@ 2064
इतनी 2063
सलाह 2062
होम 2061
रखना 2060
ठभूमि 2059
पृथक 2059
अभाव 2058
संगठनों 2058
ठोस 2056
नड 2056
बंदी 2055
पौराणिक 2054
बनता 2054
शे 2052
फॉ@@ 2051
कराने 2050
तिरु@@ 2050
षरता 2048
समीप 2047
मशीन 2046
विधा@@ 2046
गेट 2045
जातियों 2045
सेस 2044
रव@@ 2043
संहिता 2043
सुन@@ 2042
वरों 2040
ऋण 2039
यपाल 2039
पें@@ 2038
शौ@@ 2038
समानता 2036
आविष 2034
मेदार 2034
खंड@@ 2033
चलती 2033
लगती 2033
सत@@ 2031
मिथ 2030
लेखों 2030
साह@@ 2028
ऊपरी 2027
बनाना 2025
महाद 2025
80 2024
रथ 2023
रोटीन 2023
तां@@ 2022
रोफेसर 2022
ञ@@ 2020
रेशन 2016
सल@@ 2015
सुबह 2015
नेताओं 2012
बास 2012
वचा 2012
शाला 2011
गलत 2010
जंगल 2010
रांड 2010
हान 2010
रर 2009
रणी 2008
रेगोरी 2007
बसा 2006
वतन 2006
किताब 2005
यांकन 2005
काले 2001
माइकल 1999
D@@ 1998
मेक 1998
ृ@@ 1998
कॉम 1997
बरी 1997
माया 1996
रेंच 1996
२१ 1996
जमा 1995
नेत 1995
विरासत 1995
बॉलीवुड 1994
वाचित 1994
इंच 1993
पहुंचती 1993
भाषा@@ 1993
शनिक 1993
सकारात 1991
नये 1990
पंडित 1990
सन@@ 1990
टेज 1989
तकालय 1989
मठ 1989
राजनीतिज 1989
M@@ 1987
सुनिश 1987
रमशः 1986
35 1985
अभ@@ 1985
धिकार 1985
समाधान 1985
लिश 1984
षि 1984
समन 1984
सुझाव 1984
शिखर 1980
ियम 1980
नदियों 1979
पिंग 1979
वैसे 1979
जीवों 1974
नाम@@ 1973
दवा 1972
बेन 1972
लेती 1972
ौ 1971
रेम@@ 1970
मीद 1969
जवाब 1968
थी@@ 1966
पाद@@ 1966
0@@ 1965
मेला 1965
शायर 1964
टिल 1963
जिंग 1962
टॉक 1962
रुपये 1962
एसोसिएशन 1960
शह@@ 1958
नेवाली 1957
शून 1957
निकाला 1956
पौ@@ 1956
ारि@@ 1955
बाल@@ 1954
बंग@@ 1953
सका 1952
टकर 1951
देखी 1951
मिया 1951
1989 1950
बिया 1950
२४ 1947
फील 1946
थलों 1944
सीन 1944
राउंड 1943
वयस 1943
जिक 1942
रजातियों 1942
संभावित 1942
विंग 1941
ंसी 1938
हिर 1938
करवाया 1937
बुक 1937
रखण 1936
तिथि 1935
कैलंडर 1934
गुणों 1933
शीघ 1933
बीमा 1931
बो 1931
मंदिरों 1931
बैठ@@ 1930
C 1929
अकबर 1929
केशन 1929
टेनिस 1929
मना 1927
समझौते 1927
जनों 1925
ताएं 1925
पारी 1924
शेयर 1924
१६ 1924
थाई 1923
देखकर 1923
वाय@@ 1923
सुप 1923
1950 1922
500 1922
संकट 1922
१९९@@ 1920
एप 1918
बक 1918
ऑन 1917
चाहे 1917
ईट 1916
रणा@@ 1916
यूरो@@ 1915
सालों 1915
वरिष 1914
गुना 1912
विलय 1911
70 1910
किम 1910
लह@@ 1910
१८ 1910
मगध 1909
कुत 1907
कैम 1907
रें 1906
कौन 1905
यथा 1905
चालक 1904
यहीं 1904
रेखांश 1903
वंद 1902
साइट 1902
खराब 1900
विच 1900
ंत@@ 1898
चुम 1897
पौधे 1897
लेखकों 1897
जीते 1895
रसन 1895
सिख 1894
ऑनलाइन 1893
खेलते 1893
ञानिकों 1893
मालिक 1893
7@@ 1892
जाये 1891
दोष 1890
नोट 1890
ंक@@ 1889
रभु 1889
हू@@ 1889
होल 1889
कहता 1888
4@@ 1887
गिर@@ 1886
ठाकुर 1886
णि@@ 1886
२०११ 1886
बदले 1885
बैठक 1885
एट 1884
टरी 1884
निरंतर 1883
चौधरी 1882
लाहौर 1882
आंध 1881
रखे 1881
भर@@ 1880
चं@@ 1878
इड 1876
ऐल 1876
गोस 1875
संसाधन 1875
सकें 1875
कारियों 1874
वाँ 1873
हुये 1873
बाब 1872
तरित 1869
धांतों 1869
नार@@ 1869
सांसद 1869
दंड 1867
रज@@ 1867
यहूदी 1865
टैक 1864
संदेश 1864
यूब 1863
9@@ 1861
योग@@ 1861
जवा@@ 1859
यापारिक 1859
लगते 1858
आहार 1857
दौड 1855
शहरी 1855
45 1854
कवर 1854
टेल 1854
चोट 1853
राणी 1853
उपा@@ 1852
पारित 1851
यूनानी 1851
रहों 1850
लेबाज 1850
बुनियादी 1849
कलकत 1848
हेनरी 1848
दीवार 1847
छवि 1846
नव 1846
नियन 1845
बिस 1844
जना 1843
जिलों 1843
थना 1843
मिंग 1842
धार@@ 1841
भू 1840
तमिलनाडु 1839
मनोविज 1839
रोगों 1839
वां@@ 1839
कोष 1838
जैक 1838
दारी 1838
याम 1838
१४@@ 1837
देखभाल 1836
१३ 1836
डबल 1835
रॉस 1835
शुरूआत 1835
अनुबंध 1833
करणों 1833
संशोधन 1832
1947 1831
नैतिक 1831
रथा 1830
ियर 1826
संकल 1825
यंजन 1824
याज 1823
यायाधीश 1823
यादव 1822
फिक 1821
२०१४ 1821
लु 1820
1986 1819
नौकरी 1819
पनिक 1819
बहादुर 1819
निकाल 1818
मती 1818
तुल 1817
मां@@ 1817
कैथोलिक 1815
बेगूसराय 1814
यांत 1814
रिकी 1810
औरंगाबाद 1809
समकालीन 1809
रतिद 1807
मनोरंजन 1806
संयोजन 1806
W@@ 1805
तारों 1805
दय 1801
नामों 1801
राइट 1799
सेवन 1798
राफी 1797
ऑफिस 1796
गुण@@ 1796
गीतों 1795
रॉबर 1795
1988 1794
अष 1794
किसान 1794
इंद 1793
वेग 1793
यंग 1791
तक@@ 1789
आपके 1788
रबंध 1787
१२@@ 1787
R@@ 1785
राई 1785
गॉ@@ 1784
मांस 1784
C@@ 1783
देर 1783
रयासों 1782
धरती 1780
हजारों 1780
छूटती 1779
नेहरू 1778
अफगानिस 1777
शासकों 1775
सिंगापुर 1775
1984 1774
निक@@ 1774
नेल 1774
बागेश 1774
रयत 1774
कुश 1773
याकरण 1772
णीय 1770
बोस 1769
अपनाया 1768
१९ 1768
बोध 1763
अदालत 1762
घू@@ 1762
हिट 1761
पाण 1760
पीटर 1760
गुर 1759
यय 1759
ंडों 1755
निदान 1754
रताप 1754
एंटी@@ 1753
कॉटलैंड 1752
दारों 1752
राजपूत 1751
लिख@@ 1751
तकें 1750
लव 1750
शाम 1750
बू 1749
पुणे 1748
बालक 1747
मीन 1746
षाओं 1746
मधु@@ 1745
90 1744
जीव@@ 1744
जैव 1743
हल@@ 1743
दश@@ 1742
रती 1741
पैरा@@ 1740
वेबसाइट 1740
षणिक 1740
कीमत 1739
राजकुमार 1739
भूत 1738
भौतिकी 1738
कैप 1737
मिल@@ 1736
टाई 1734
निन 1734
टीन 1733
दिष 1733
रवाई 1733
हिमाचल 1732
नवीन 1731
पादक 1729
विविधता 1728
मुर 1727
मौजूदा 1727
पदों 1726
* 1725
तरीय 1725
भद 1725
ारण 1725
भरी 1724
सिम 1723
अवश 1722
मकालीन 1722
रचनाओं 1722
कमाई 1721
तनाव 1721
यरत 1721
वापसी 1720
फेस 1719
बचाने 1719
लोन 1719
नंद 1718
रुव 1718
वैकल 1717
गिल 1716
रोगियों 1716
असफल 1715
१७ 1715
रामायण 1714
5@@ 1713
पहुंचा 1713
पैर 1713
उद@@ 1712
जनजाति 1711
चमोली 1709
नास 1709
निवासियों 1709
रतिमा 1709
सेवाएं 1709
1985 1707
आकाश 1706
पुन@@ 1706
आवृत 1705
भास 1705
हुसैन 1705
सामूहिक 1702
डिवीजन 1701
रभावशाली 1701
सॉ@@ 1701
आजकल 1699
अनुकूल 1698
कठोर 1698
बनाती 1698
भै@@ 1698
अफ@@ 1697
पसंख 1696
मर@@ 1696
सुविधाओं 1696
इसको 1695
पेरिस 1695
जैविक 1694
पस 1693
लिं@@ 1693
गोली 1691
रहना 1691
समी@@ 1691
br 1690
अनुरूप 1690
मुख@@ 1688
लिप 1688
• 1687
करनी 1686
जाम 1686
बता@@ 1685
अनुक 1684
वादियों 1683
वुड 1683
पतन 1681
बंदरगाह 1681
सजा 1681
तराधिकारी 1680
135 1679
संघीय 1678
ाइन 1677
कोस 1676
गृ@@ 1675
तरल 1675
रैंक 1675
नकर 1673
खिताब 1672
तरों 1672
दार@@ 1672
मानु@@ 1672
पौडी 1671
रमित 1671
विपणन 1671
खाते 1670
माला 1670
दरबार 1669
दीप 1669
केल 1668
बेहद 1667
1987 1665
चतम 1665
घटक 1664
बताते 1664
मि 1664
वास@@ 1664
जॉ@@ 1663
AM 1662
रबन 1662
संभवतः 1662
हमारी 1661
6@@ 1660
A@@ 1660
खोला 1660
डस 1660
वाणी 1659
वें@@ 1659
1@@ 1657
मछली 1657
वि 1657
1962 1656
देखे 1656
षय 1656
1971 1655
कालिक 1654
तप 1654
उपजिला 1653
काएँ 1653
मौलिक 1653
वजन 1653
आवास 1652
जात 1652
आंशिक 1651
शुरु 1651
ओवर 1650
पॉल 1649
तथापि 1648
दिख@@ 1648
रीज 1648
रने 1646
वच 1646
मंगल 1645
मुम 1645
रीति 1645
वाहि@@ 1645
बचा@@ 1644
संसदीय 1644
बचाव 1643
मेरा 1643
टिया 1642
दशा 1642
उन@@ 1640
समझौता 1639
भा 1637
राहक 1637
शासनकाल 1637
बिलियन 1636
मेडिकल 1636
सीमा@@ 1636
२२ 1636
कथा@@ 1635
वट 1634
पहुंच@@ 1633
मजबूर 1632
लोगो 1632
शतक 1632
ढा@@ 1630
पुरम 1630
1972 1627
कमा@@ 1626
1967 1625
यथार 1625
आँ@@ 1623
जेन 1623
सांख 1623
२०१० 1623
मारा 1622
टाचार 1621
आगमन 1620
बातचीत 1620
राजनेता 1620
आपने 1619
मोन 1619
रहीं 1619
नयी 1618
बांध 1618
हेल 1618
अधिग 1617
तुकला 1617
रियासत 1617
सेज 1617
डिक 1616
मारने 1616
सें 1616
चलाने 1615
दपुर 1615
वाना 1615
कथाओं 1614
टार@@ 1613
मुताबिक 1613
सोने 1613
जानते 1612
कहानियों 1611
डीज 1611
पिन 1611
भीड 1611
विचारधारा 1611
मपुर 1610
जानवरों 1608
नाय@@ 1608
यटक 1608
रजनन 1608
लैटिन 1608
ंगों 1607
रयोगों 1607
मनोवैज 1605
1952 1604
32 1604
उठ@@ 1604
कैम@@ 1604
रिं@@ 1603
बंध 1602
१३@@ 1602
J@@ 1601
अला@@ 1601
लॉस 1601
धारणा 1600
महीनों 1597
देशी 1596
बदला 1596
ऊष 1595
घायल 1595
योगों 1595
गाया 1594
छे@@ 1593
यर@@ 1593
ंगु@@ 1591
कागज 1591
चौथे 1591
L@@ 1590
ओपन 1590
दै@@ 1590
मूत 1590
सहयोगी 1588
ुदा 1588
जू 1587
रोजगार 1587
रसा@@ 1586
राण 1584
गिनी 1583
मौखिक 1583
हानि 1583
नाग 1582
लंबा 1582
विशेषकर 1582
२००९ 1582
मिनल 1580
पटकथा 1578
रारूप 1577
बौ@@ 1575
रामक 1575
अमरीकी 1574
फारसी 1574
शेर 1574
चिं@@ 1573
मंग@@ 1572
रख@@ 1572
संपादक 1572
n 1571
तिम 1571
रतिबंध 1571
रतिभा 1568
रेंस 1568
अदिलाबादु 1567
हूं 1567
हनुमान 1566
E@@ 1565
# 1564
उभ@@ 1563
घि@@ 1563
मलयालम 1563
आपस 1562
दुओं 1561
मेश 1560
रावण 1559
इंड@@ 1558
नागरिकों 1558
संयंत 1557
नक@@ 1556
I@@ 1555
कमल 1555
शनों 1555
लाइव 1554
बदलने 1553
निभा@@ 1552
बचने 1552
रब 1552
एयर@@ 1551
दृढ 1551
रयाग 1551
गठबंधन 1549
टाउन 1549
बरा@@ 1549
इतने 1548
डिय@@ 1548
सरदार 1548
बान 1547
रशांत 1547
ः@@ 1546
उदय 1546
भरा 1546
राहकों 1546
कवियों 1545
कुशल 1545
समेत 1545
हट 1545
चेतना 1544
टोरिया 1543
मणि 1543
रमिक 1542
पेशकश 1541
शू@@ 1539
शां@@ 1538
V@@ 1537
तरीकों 1537
रपात 1537
विट 1537
वेद@@ 1537
ियाई 1537
चावल 1536
पुरा@@ 1536
महादेव 1535
रिचर 1535
गोवा 1533
महर 1532
300 1531
उपनाम 1531
तनों 1531
M 1530
एण 1530
भागीदारी 1530
दाता 1529
दिव 1529
मुसलमान 1528
सुपर@@ 1528
K@@ 1527
णता 1527
पिल 1527
किसानों 1526
यां 1526
धाम 1525
B 1524
or 1524
ईंधन 1524
एकीकृत 1524
अंचल 1522
अवतार 1522
वय 1522
,००० 1521
कू 1521
जोकि 1521
ढाका 1521
नेवाला 1521
इनकार 1520
घड 1518
तावित 1518
वेज 1518
एडि@@ 1516
थापन 1516
रिड 1516
हुईं 1515
किट 1514
गेंदबाज 1514
ताज 1514
वंशज 1514
सारा 1514
1977 1513
1982 1513
तपुर 1513
भेज 1513
गहराई 1511
फसल 1511
मशहूर 1511
मता 1509
ंगे@@ 1508
पहुंचने 1508
दूसरों 1507
मलेशिया 1507
लेख@@ 1507
on 1506
इतिहासकार 1506
इलाके 1506
पशुओं 1506
मानवीय 1506
F@@ 1505
O@@ 1505
अमीर 1505
ञान@@ 1505
थु@@ 1505
आखिरी 1504
ऑल 1504
घनत 1503
बलों 1503
शय 1503
उपाध 1502
संपन 1502
लते 1501
ील 1501
ओड 1500
परंपरागत 1500
लाना 1500
i 1499
नू 1498
विपक 1498
नमक 1497
रें@@ 1497
बीस 1496
ईं 1495
सुल@@ 1495
ॆ@@ 1495
नति 1494
अपना@@ 1493
जाय 1493
रजाति 1493
रोतों 1493
ंगर 1492
गज 1492
पाता 1492
यूनि@@ 1492
संगम 1492
सेवानिवृत 1492
जलि 1491
मैंने 1491
गठित 1490
लेज 1490
शासित 1490
उपर 1489
भाषण 1489
रणालियों 1488
दुष 1487
वालीफायर 1487
नेपाली 1486
वाराणसी 1486
गीकृत 1485
जाएगी 1485
जोधपुर 1485
जोन 1485
ठान 1485
जं@@ 1484
बना@@ 1484
यवाद 1484
लाल@@ 1484
ेन 1484
साझा 1483
ऐ 1482
1.@@ 1481
यावहारिक 1481
वीपों 1481
नाओं 1479
रीस 1479
खुले 1477
पराजित 1477
पाते 1477
रोन 1477
कडप 1476
दाब 1476
सूरज 1476
काला 1475
चौथी 1475
जंगली 1475
यक@@ 1475
ुक 1475
उसको 1474
चाहिये 1474
जितना 1474
परिवारों 1474
गीता 1473
यटकों 1473
विकार 1473
वेश 1473
जनपद 1470
महाकाव 1469
आशा 1468
गतिविधि 1468
रेड@@ 1468
सज 1468
गरीब 1466
टॉप 1465
बिग 1463
णात 1462
तुति 1462
बारह 1462
तरीका 1461
बताता 1461
परत 1460
बस@@ 1460
सवाल 1460
पादित 1459
झा 1458
संगत 1458
परामर 1456
आदिवासी 1455
कमजोर 1455
संघ@@ 1454
अगली 1453
पाली 1453
दाद 1452
बाढ 1452
डम 1451
रोध 1451
गदर 1450
भारती 1450
वचन 1450
विं@@ 1450
दण 1449
नील 1449
विमानक 1449
अखिल 1448
लेयर 1448
साय@@ 1447
णक 1446
दवाओं 1446
२३ 1446
निज 1445
साँ@@ 1445
1975 1444
पिस 1443
पणी 1441
बायो@@ 1441
मेजबानी 1441
नामकरण 1440
यौ@@ 1440
समीकरण 1440
हाथी 1440
.. 1439
अमर 1439
फोट 1439
खी@@ 1438
घात 1437
चैंपियनशिप 1437
ठों 1437
वॉल 1437
गणेश 1436
एजेंसी 1435
यमिक 1435
राइल 1435
खींच@@ 1434
बहती 1434
बेटा 1433
००० 1433
चलाया 1431
सिंह@@ 1431
पहचा@@ 1430
पहुँच@@ 1430
रशा@@ 1430
आरंभिक 1429
बिट 1429
सहज 1429
आसान 1428
सृष 1428
रियो 1427
कुल@@ 1425
डियन 1424
संगीतकार 1424
झू@@ 1423
लेश 1423
al 1422
खे 1422
यापारी 1422
विंडोज 1422
1973 1420
चुनौती 1420
रखती 1420
सक@@ 1420
1979 1419
T 1419
भावनाओं 1419
हं@@ 1419
अनू@@ 1418
राओं 1418
अंतर@@ 1416
इला@@ 1416
इसीलिए 1416
उपाय 1416
झारखंड 1416
हाइट 1416
खतरा 1415
नीतियों 1415
कठ@@ 1414
कारा 1414
नाडु 1414
यताओं 1414
आलोचकों 1413
खर@@ 1413
शांत 1413
कहने 1412
बाजी 1412
हटा@@ 1412
1948 1411
डाक 1411
पब 1411
मगर 1411
अनुरोध 1410
टाइप 1410
डू 1410
वायत 1410
कुम 1409
गां@@ 1409
पाय@@ 1409
याल 1409
ीकरण 1409
२६ 1409
D 1407
कैलिफोर 1407
हक 1407
आना 1406
ञों 1406
शीतकालीन 1406
साव@@ 1406
कोटा 1405
गिरजाघर 1405
पैसे 1405
समग 1405
कुण 1404
मुंगेर 1404
यम@@ 1404
राणा 1404
ऋतु 1403
तापूर 1403
सूचीबद 1403
२००८ 1403
सदन 1402
२७ 1402
लिंक 1401
सिको 1401
४० 1401
दगी 1400
दया@@ 1400
यूनतम 1400
लिखते 1399
नाएं 1398
रतिरोध 1398
वादक 1397
संग@@ 1397
खरीद 1396
मोह@@ 1396
किशोर 1394
कूलों 1394
घिरा 1394
छः 1394
तौ@@ 1394
काट 1393
जमी@@ 1392
1930 1391
अयोध 1391
करो 1391
गिरावट 1391
चलकर 1391
चिंता 1391
धे 1391
बोलने 1390
मानता 1390
समुदायों 1390
1983 1389
कथित 1389
रफ 1389
वाहक 1389
1956 1388
मैग 1388
सुख 1388
घा 1387
दुश 1387
अवशेष 1385
an 1384
चाँ@@ 1384
टूट 1384
संदेह 1384
ंडे 1383
मत@@ 1383
लियाँ 1383
हथियार 1383
जियम 1381
तपस 1381
तोष 1381
नजर 1380
पिथोरागढ 1380
20@@ 1379
ंगल 1379
आनन 1378
बती 1378
शीलता 1378
आईटी 1377
इराक 1377
इसलिये 1377
भेड 1376
रेखा@@ 1376
संभा@@ 1376
नकारात 1375
पाती 1375
बिं@@ 1375
लगने 1375
अग@@ 1373
भाग@@ 1373
मेदारी 1372
संपादित 1372
समि@@ 1372
सोसाइटी 1372
1957 1371
भाँति 1371
सियों 1370
२८ 1370
जब@@ 1369
for 1368
खरी@@ 1368
चम@@ 1368
याँ 1368
सहमति 1368
उक 1367
वालियर 1367
शेख 1367
षांश 1367
वाभाविक 1366
आमंत 1365
ऑपरेशन 1365
गंगा@@ 1365
चरणों 1365
हारे 1365
१९०@@ 1365
मरण 1364
योतिष 1364
षु@@ 1364
शाब 1363
जौ@@ 1362
यूनियन 1362
रेटर 1360
विकिरण 1360
सहमत 1360
कमरे 1359
बसे 1359
मासिक 1359
निकाय 1358
यकताओं 1358
यूरो 1358
वैद 1357
रूढ 1355
संगठित 1355
असामान 1354
मुल 1354
योद 1354
सलाहकार 1354
२०१३ 1354
as 1352
गाना 1352
नज@@ 1352
ऊँचा 1351
संतुलन 1351
एकता 1350
0.@@ 1349
कारकों 1348
संसाधनों 1348
75 1347
सीता 1347
ताई 1346
डच 1345
नौसेना 1345
बीन 1345
दुस 1344
मुग 1344
रदेशों 1344
आधे 1343
गुफा 1343
तृ@@ 1343
निकालने 1343
खनिज 1342
मीदवार 1342
गुजराती 1341
विया 1341
कुन 1340
षति 1340
आजादी 1338
खन 1338
रथ@@ 1338
रामपुर 1338
२००६ 1338
भोपाल 1337
रयोगशाला 1337
रिकाओं 1337
एडवर 1336
वैष 1336
एव@@ 1333
नूर 1333
मुनि 1333
आरक 1331
साहब 1331
विफल 1330
m 1329
कु 1329
तैयारी 1329
S 1328
यं@@ 1328
जला@@ 1327
वाष 1327
वीकृति 1327
संवाद 1327
अमीरात 1326
पो 1326
1978 1325
जीवन@@ 1325
मथुरा 1325
वासियों 1325
साम@@ 1325
उल@@ 1324
दोनो 1324
नवाब 1324
निगरानी 1324
फौ@@ 1324
रनाथ 1324
1965 1322
निकलने 1321
33 1320
गाँधी 1320
टीट 1320
बजट 1320
बुलाया 1320
माताओं 1320
रंगों 1320
शियम 1320
संशोधित 1320
तना 1319
पशु@@ 1319
00@@ 1318
1981 1318
लट 1318
E 1317
टोक 1317
धूम 1316
पियन 1316
कही 1315
टिकट 1315
मोक 1315
रहा@@ 1315
लियो@@ 1315
शुष 1315
जातियाँ 1314
निरीक 1314
महि@@ 1314
वासी 1314
सुना@@ 1314
जाल 1313
पायी 1313
कानपुर 1312
मौका 1312
शरण 1312
संवत 1312
कोरियाई 1311
छोर 1311
जाँच 1311
भय 1311
सभा@@ 1311
1976 1310
सिविल 1310
हमने 1310
R 1309
नामांकन 1309
रेमी 1309
नीदरलैंड 1308
शती 1307
amp 1306
टोर 1305
मेले 1304
मोदी 1304
लॉर 1304
सूच@@ 1304
दायित 1303
सबूत 1303
रचनाएँ 1302
डाटा 1301
देन 1301
ञानी 1300
पांच@@ 1300
यां@@ 1300
लंघन 1299
अनुमानित 1298
टइंडीज 1297
गहरा 1296
मेगा@@ 1296
२००७ 1296
पुरातत 1295
तांत 1294
पने 1294
शानदार 1294
रीकरण 1293
36 1292
पाये 1292
पोल 1292
बहुमत 1292
मिनी 1292
राणियों 1291
लाइसेंस 1291
काला@@ 1290
रियर 1290
रिल 1290
संकलन 1290
आकृति 1289
पटेल 1289
महामारी 1289
यून 1289
1969 1288
1974 1288
फैल 1288
भुत 1288
राधा 1288
रकारों 1287
लाव 1286
हिंदुस 1286
ँग 1285
नगरों 1285
शाया 1285
तावेज 1284
निशा@@ 1284
वंशी 1284
अनुसरण 1283
दशकों 1283
मानचित 1283
सौंदर 1283
काने 1282
भूमिकाओं 1282
c 1281
कृतियाँ 1281
कैं@@ 1281
टीका 1281
तेलुगु 1281
माप 1281
कॉमिक 1280
बाड 1280
रॉय 1280
अनुष 1279
जिनसे 1279
पाक 1279
लेट@@ 1279
II 1278
बली 1278
गायन 1277
मादा 1277
अकेले 1276
कें 1276
माउ@@ 1276
F 1274
कवि@@ 1274
ारसी 1274
पावत 1273
पॉलि@@ 1273
पोरेशन 1273
एलबम 1272
गोर 1272
तंभ 1272
हारी 1271
भुज 1270
वकील 1270
विशा@@ 1270
बनते 1268
होनी 1268
.com 1267
नोबेल 1267
शाता 1267
गरम 1266
गहरी 1266
मापन 1266
निचले 1265
बख 1265
सदा 1264
सास 1264
सीखने 1264
उठाया 1263
१.@@ 1263
यमुना 1262
यापन 1262
रियम 1262
समझी 1262
सहारा 1262
y 1261
15@@ 1260
निकटतम 1259
शिला@@ 1259
बाला 1258
मोटे 1258
शिशु 1258
400 1257
डीन 1257
पठार 1257
शिप 1257
आप@@ 1256
गीय 1256
गोपाल 1256
नाथ@@ 1256
वभाव 1256
भंग 1255
विधियों 1255
ंश 1254
खिला@@ 1254
यड 1254
ळ@@ 1254
नरेश 1253
जाय@@ 1251
डिप 1251
निकलती 1251
बातों 1251
विशेषताओं 1251
साहिब 1251
सिंहासन 1251
55 1250
रही@@ 1250
सियस 1250
रामा 1249
रायद 1249
ईरानी 1248
उग 1248
एकड 1248
रूम 1248
टिकल 1247
नवी@@ 1247
पहल 1247
लिटी 1247
केस 1246
अंड@@ 1245
रोह@@ 1245
अचानक 1244
अनन 1244
टी20आई 1244
कना@@ 1243
खेत 1243
मुखी 1243
रमश 1243
विशेष@@ 1243
कॉमेडी 1242
रती@@ 1242
रांतिकारी 1242
हेक 1241
इरा@@ 1239
गौतम 1239
मिले@@ 1239
अभयारण 1238
इतालवी 1237
डक 1237
विनिर 1237
ंगो 1236
ठि@@ 1236
माई 1236
पल@@ 1234
बृ@@ 1234
यार@@ 1234
हंडिया 1234
भाजपा 1233
भूमि@@ 1233
रियाई 1233
असमर 1232
संवैधानिक 1232
सूचित 1232
सैद 1232
सोर 1232
कोशि@@ 1231
चाई 1231
दं@@ 1231
नाटकों 1231
बहु 1231
भूमध 1231
सीता@@ 1231
दलों 1230
गाय 1229
रभावों 1229
किरा@@ 1228
मरी 1228
साधना 1228
गोल@@ 1227
दावली 1226
पुण 1226
जिया 1225
भों 1225
मौर 1224
रमंडल 1224
विचार@@ 1224
घन 1223
डु 1223
कांस 1222
गोत 1222
मतदान 1222
रघु@@ 1222
सख 1222
२०१६ 1222
वयन 1221
अंकित 1220
नुक 1220
बचा 1220
रतिरक 1220
धड 1219
रेंज 1219
वीन 1219
सोच 1219
६० 1219
इकट 1218
इज@@ 1218
युगल 1218
रीकृष 1218
हॉकी 1218
२०१२ 1218
काण 1217
कैल 1217
पारिवारिक 1216
सापेक 1216
खों 1215
देशा@@ 1215
बनती 1215
रबंधक 1215
उपमहाद 1214
कहा@@ 1214
जायेगा 1214
तरार 1213
नहर 1213
वध 1213
शेखर 1213
सटीक 1213
कंट 1212
नागपुर 1212
निधि 1212
मातृ@@ 1212
रकारिता 1212
ारी@@ 1212
डि 1211
भौ@@ 1211
याति 1211
रचनात 1211
रुप@@ 1211
लगाए 1211
ोत 1211
करवा@@ 1210
भव@@ 1210
रेणियों 1210
वल@@ 1210
चरम 1209
मेज 1209
वंश@@ 1209
टाटा 1208
फाउंडेशन 1207
असली 1206
करे@@ 1206
खाली 1206
गीर 1206
निको@@ 1206
लाज 1206
पहुंचे 1205
शूटिंग 1205
खुला 1204
महारानी 1204
संगीत@@ 1204
हराकर 1204
सीमाओं 1203
खून 1201
नींव 1201
तख 1200
कंप@@ 1199
जानने 1199
नने 1199
२००० 1199
असर 1198
पहुँचा@@ 1198
रवासी 1198
लॉग 1197
समाजवादी 1197
अवैध 1196
णुओं 1196
निवे@@ 1196
बेल@@ 1196
सैयद 1196
अंडर 1195
टेबल 1195
तालाब 1195
बहस 1195
तल@@ 1194
रहे@@ 1194
राण@@ 1194
मैरी 1192
विकिपीडिया 1192
हैरी 1192
रोधी 1189
टान 1188
बुरी 1188
महिलाएं 1188
वाद@@ 1188
सफलतापूर 1188
सहस 1188
ारो@@ 1188
गयीं 1187
चाल 1187
उठा 1186
उतर@@ 1186
चौथा 1186
चौहान 1186
1000 1185
1920 1185
जरूरी 1185
जुर 1185
थॉमस 1185
मूलतः 1185
37 1184
बोलते 1184
सुधार@@ 1184
आकाश@@ 1183
रिकार 1183
शाली 1183
2.@@ 1182
दादा 1182
नेक 1182
फास 1182
मिन@@ 1182
यवादी 1182
२०१५ 1181
लाक 1180
ीक 1180
बेडकर 1179
रांसिस 1179
पूंजी 1178
बनवाया 1178
1968 1177
खतरे 1177
बाध 1177
बाबू 1177
परिणामों 1176
https 1175
औष@@ 1175
ृत 1175
अनुच 1174
उदा@@ 1174
खाता 1174
रतिवर 1174
1,@@ 1173
12@@ 1173
1964 1173
याव@@ 1173
रखकर 1173
रबल 1173
हिसाब 1173
थै@@ 1172
कुमारी 1171
टें@@ 1171
दरी 1171
ओल 1170
किन@@ 1170
देगा 1170
पेज 1170
रोडक 1170
लोहे 1170
छो@@ 1169
तिस 1169
पूछ@@ 1169
चेहरे 1168
माँ@@ 1168
सीसी 1168
चिड 1167
बिता@@ 1167
वत@@ 1167
सकीय 1167
1966 1166
खै@@ 1166
थि 1166
बातें 1166
मैसूर 1166
सवार 1166
िम 1166
रधा@@ 1165
रेत 1165
िस 1165
तने 1164
भाषी 1164
इर 1162
रतिदिन 1162
रुत 1162
टाइन 1161
रमाणित 1161
शनी 1161
घास 1160
भरे 1160
मुखर 1160
रचना@@ 1160
रणनीति 1160
परियोजनाओं 1159
फिलिप 1159
इनर 1158
काठ@@ 1158
नीज 1158
बाधा 1158
रोसॉफ 1158
सू 1158
अनुप@@ 1157
तलाश 1157
नियर 1156
दूत 1154
रगुप 1154
गौरव 1153
झो@@ 1153
निकाल@@ 1153
आरो@@ 1152
छू@@ 1152
पालिका 1152
ोसी 1152
गिरी 1151
कुंड 1150
रजत 1150
लाखों 1150
संपादन 1150
by 1149
तटीय 1149
लोर 1148
सुख@@ 1148
38 1147
रजा 1147
कालेज 1146
कुट 1146
टेलि@@ 1146
तकर 1146
दूरदर 1146
मानव@@ 1146
e@@ 1145
ऐक 1145
चलन 1145
दबा@@ 1145
सेप 1145
जानवर 1144
मानों 1144
रनों 1144
रिटी 1144
लाइफ 1144
लीला 1144
007@@ 1143
घूर 1143
रतिभा@@ 1143
वेदी 1143
सूरा 1143
मुकाबले 1142
l 1141
काई 1141
गानों 1141
धारा@@ 1141
हारों 1141
बदलकर 1140
रवादी 1140
लेंस 1140
विभक 1140
आवासीय 1139
ऋग 1139
गणितीय 1139
टाइल 1139
पीछा 1139
यमकेश 1139
रोही 1139
चि 1138
याप@@ 1138
सिंचाई 1138
ंडि@@ 1137
जीती 1137
मग@@ 1137
कात 1136
छन 1136
हितों 1136
होली 1135
ाव 1135
L 1134
ing 1134
खूबसूरत 1132
छिद 1132
टेम 1132
de 1131
ंची 1131
कायम 1131
कैन 1131
जरू@@ 1131
मज@@ 1131
संतान 1131
X 1130
रना 1129
शियन 1129
करों 1128
पूल 1128
युनिस 1128
राधिकरण 1128
शुभ 1128
२९ 1128
लेबाजी 1127
गिरि 1126
ठे@@ 1126
s@@ 1125
तिपूर 1125
नातकोत 1125
वीकृत 1125
समक 1125
सशस 1125
हू 1125
अबू 1123
जाट 1123
रूज 1123
शिला 1123
हफ 1123
अण 1122
पीने 1122
षी@@ 1122
हिमा@@ 1122
थम 1121
मिला@@ 1120
युनि@@ 1120
वयुद 1120
वारी 1120
सीबी@@ 1120
एज 1119
कथन 1119
तारीख 1119
रिसर 1119
अनुसूचित 1118
फैशन 1118
मणि@@ 1118
शेल 1118
तीस 1117
रहमान 1117
34 1116
डिजा@@ 1116
मसा@@ 1116
लयों 1116
इंदिरा 1115
डाउन 1115
मामला 1115
रदूषण 1115
लॉजी 1115
सफ@@ 1114
अंगों 1113
दाम 1113
मराठा 1112
सैकड 1112
हसन 1112
तालिका 1111
मेह@@ 1111
राजकीय 1111
रीमती 1111
19वीं 1110
जेट 1110
रिपब 1110
विहार 1110
निया@@ 1109
ौली 1109
मतों 1108
योति@@ 1108
विधि@@ 1108
सोनी 1108
अखबार 1107
१०० 1107
लिट 1106
वाट 1106
सहा@@ 1106
ऑटो@@ 1105
भाष 1105
वेट 1105
आपकी 1104
गार@@ 1104
नाई 1104
पारिस 1104
विभागों 1104
सोल 1104
इंजीनियर 1103
एयरलाइन 1103
वराज 1103
शोधकर 1103
सिया@@ 1103
मुफ 1102
रेटिंग 1102
षेपण 1102
हज@@ 1102
चाय 1101
दीवारों 1101
नु 1101
इक@@ 1100
डित 1100
65 1099
चाहती 1099
किशो@@ 1098
विध 1098
योगि@@ 1096
d@@ 1095
बकीय 1095
रते 1095
राहुल 1095
रैंड 1095
वहन 1095
ेक 1095
ation 1094
एर 1094
वागत 1094
ेश 1094
दांत 1093
यापी 1093
रोजेक 1093
जिब 1092
थिएटर 1092
पहुँचने 1092
बादशाह 1092
भूतपूर 1092
िये 1092
इनसे 1091
1940 1090
अहमदाबाद 1090
गहरे 1090
जमा@@ 1090
नबर 1090
काउंसिल 1089
जीर 1089
पूँ@@ 1089
लें@@ 1089
चुंबकीय 1088
फन 1088
मैट 1088
ar 1087
बयान 1087
विरो@@ 1087
अकाल 1086
घटित 1086
मेवाड 1086
सरकारों 1086
हिप 1086
उदयपुर 1085
णकटिबंधीय 1085
बरा 1085
भले 1084
सामं@@ 1084
टी20ई 1083
फोटोग 1083
30@@ 1082
टील 1082
ओस 1081
पुर@@ 1081
बुन 1081
सरी 1081
मानस 1080
लेफ 1080
वाकर 1080
िन 1080
खनन 1079
देह 1079
रचलन 1079
शिवाजी 1079
रवाल 1078
कविताओं 1077
काइ@@ 1077
काउ@@ 1077
ढा 1077
देख@@ 1077
बारा@@ 1077
बारिश 1077
लेम 1077
एपिसोड 1076
तिमान 1076
नियो@@ 1076
लोराइड 1076
b@@ 1075
ंचा@@ 1075
सोलहवीं 1075
एकदिवसीय 1074
कहलाते 1074
48 1073
नली 1073
संवेद@@ 1073
समाज@@ 1073
1961 1072
छाया 1072
धारक 1072
U@@ 1071
ई० 1071
एसिड 1071
चेस 1071
फूलपुर 1071
राह@@ 1071
वीय 1071
पांड@@ 1070
धू@@ 1069
चैंपियन 1068
दूर@@ 1068
N 1067
णव 1067
फाय@@ 1067
फैक 1067
यायिक 1067
सीधा 1067
N.Z.A. 1066
ंचल 1066
लिफ 1066
ंती 1065
अतीत 1065
कटिक 1065
मॉर 1065
शियाई 1065
that 1064
जंगलों 1064
थिरता 1064
नती@@ 1064
रेगिस 1064
वाहनों 1064
तरा 1063
पेय 1063
मेजर 1063
हटाने 1063
१,@@ 1063
1963 1062
बॉम 1062
ंडो 1061
कहलाती 1061
केप 1061
खरी 1060
परिचित 1060
मैन@@ 1060
रामा@@ 1060
कथानक 1059
कनेक 1059
भूकंप 1059
रायल 1059
विभा@@ 1059
२००१ 1059
८० 1059
उतना 1058
गुरुत 1058
राइव 1058
शाखाओं 1058
पॉप 1057
सुविधाएं 1057
ेद 1057
अणु 1056
औषधि 1056
औसतन 1056
कुरान 1056
पतियों 1056
पहुँचा 1056
पाश 1056
फल@@ 1056
योगी 1056
रैंकिंग 1056
भोग 1055
योजन 1055
सेनाओं 1055
ंट@@ 1054
दां@@ 1054
पाठ@@ 1054
लीफ 1054
साहन 1053
अव 1052
कीं 1052
गली 1051
जूनियर 1051
तरराष 1051
निकला 1051
विनाश 1051
रवाद 1050
लेशन 1050
षु 1050
शु 1049
अनुयायी 1048
कॉल 1048
दल@@ 1048
दोषी 1048
परे@@ 1048
बुर 1048
वसा 1048
सिलि@@ 1048
h 1047
अमे@@ 1047
कलात 1047
साउथ 1047
वितरित 1046
आस@@ 1045
काँ@@ 1045
परिकल 1045
योहार 1045
अपरि@@ 1044
गले 1044
पंद 1044
150 1043
गेंदबाजी 1043
मीरी 1043
मैने@@ 1043
लियो 1043
सदा@@ 1043
हवीं 1043
O 1042
अनेकों 1042
बिहारी 1042
मानने 1042
राजा@@ 1042
लौटने 1042
वोट 1042
52 1041
खोल 1041
चस 1041
टेलीविज 1041
महावीर 1041
मानकों 1041
आधा 1040
इकाइयों 1040
णि 1040
वसन 1040
हाट 1040
तकनीकों 1039
तिया 1039
मालि@@ 1039
वासन 1039
16@@ 1038
टाने 1038
देहरादून 1038
भोज 1038
मुलाकात 1038
b 1037
पैदल 1037
वेतन 1037
जहा@@ 1036
इंडोनेशिया 1035
पठ@@ 1035
हि 1035
इलाक 1034
कणों 1034
निशान 1034
पुराणों 1034
बॉल 1034
टिका 1033
तिर@@ 1033
लखीसराय 1033
लाए 1033
p 1032
पोरेट 1032
रिको@@ 1032
लोड 1032
1955 1031
पाठक 1031
रेडिट 1031
वरण 1031
शहीद 1031
टेंट 1030
तिका 1030
षरों 1030
सेना@@ 1030
अपील 1029
फेफड 1029
जागरण 1028
रूर 1028
१८९@@ 1028
अवसरों 1027
ताम 1027
घातक 1026
वीपसमूह 1026
शनल 1026
डेक 1025
दिग 1025
नाना 1025
रभु@@ 1025
शॉ@@ 1025
सिग 1025
सीरिया 1025
रांतीय 1024
राउ@@ 1024
शिलालेख 1024
ोस 1024
कोटि 1022
ङ@@ 1022
होनें 1022
ेगा 1021
डालने 1020
तरिक 1020
नगरी 1020
42 1019
असाधारण 1019
परे 1019
रवास 1019
पारस 1018
भाइयों 1018
भारतीयों 1018
आईएस@@ 1017
जगहों 1017
यवर 1017
राजील 1017
संलग 1017
इंदौर 1016
डाई 1016
रावधान 1016
वेदों 1016
खबर 1015
पण@@ 1015
बाइ@@ 1015
रया@@ 1015
विजय@@ 1015
अनुयाई 1014
नेश 1014
रोग@@ 1014
हिम 1014
आग@@ 1013
गोविन 1013
पाउंड 1013
फें@@ 1013
रूपांतरण 1013
ास 1013
ोल 1013
1949 1012
किक 1012
विवेचन 1012
08 1011
गुल@@ 1011
बहुसंख 1011
२००५ 1011
अमी@@ 1010
कली 1010
रीन@@ 1010
हारा 1010
छुट 1009
ई.पू. 1008
तेन 1008
आल 1007
इमारतों 1007
भेजने 1007
मिसाइल 1007
लेखा 1007
रविष 1006
राना 1006
अनाज 1005
कहती 1005
जनित 1005
मच 1005
राइड 1005
एलेक 1004
विला@@ 1004
सके@@ 1004
64 1003
आम@@ 1003
किर 1003
तगाली 1003
महाराणा 1003
षार 1003
सकी 1003
जोशी 1002
पावर 1002
कहे 1001
रभाव@@ 1001
राजकुमारी 1001
रिट 1001
संश 1001
अंडे 1000
देहा@@ 1000
धु 1000
मुहा@@ 1000
रहें 1000
वरुप 1000
गहन 999
समापन 999
1945 998
ताजी 998
ीसा 998
थानी 997
तला@@ 996
अज@@ 995
भीम@@ 995
संतुष 995
चाह@@ 994
शार@@ 994
हमलों 994
कोप 993
खाया 993
फेट 993
विलुप 993
टीज 992
तराखंड 992
याएं 992
योजनाओं 992
ववर 992
पिछली 991
पिया 991
सोडियम 991
ाना 991
अनुपस 990
गणतंत 990
नाटकीय 990
पहलुओं 990
रहेगा 990
लिप@@ 990
आवेदन 989
कबी@@ 989
याह 989
वनों 989
अनि@@ 988
लिया@@ 988
शोषण 988
२००४ 988
थाप@@ 987
रहकर 987
आख 986
खुदाई 986
बैंकों 986
सेकंड 986
चिल 985
पुनरा@@ 985
बेर 985
मांकन 985
मोडा 985
राजीव 985
सराय 984
14@@ 983
P 983
एम.@@ 983
कारोबार 983
डियों 983
ताल@@ 983
यूरे@@ 983
रतिबंधित 983
at 982
ओलि@@ 982
गांवों 982
ताएँ 982
फैले 982
मग 982
नीयता 981
यूके 981
येष 981
समाजशास 981
1954 980
रुख 980
सिंध 980
उपदेश 979
रभुत 979
विटामिन 979
विषाणु 979
शनीय 979
हमारा 979
गाई 978
नैदानिक 978
मोनो@@ 978
डेट 977
निकलता 977
फूलों 977
सांरगढ 977
13@@ 976
जगन 976
पंजीकृत 976
पोप 976
षिणपूर 976
ाइल 976
ॉ 976
दिलचस 975
वियतनाम 975
अभिक 974
आराम 974
एगा 974
कबीर 974
जलप 974
टु 974
ियाना 974
1946 973
ंदा 973
कोरो@@ 973
मापी 973
रदा@@ 973
खगोलीय 972
पेनिश 972
बनकर 972
आध@@ 971
फे 971
बैंकिंग 971
रकाश@@ 971
लेड 971
गायत 970
चालू 970
लगाकर 970
सबर 970
कष 969
टॉम 969
योर 969
लाई@@ 969
ारक 969
अंटार 968
औपनिवेशिक 968
विनिमय 968
वेयर 968
चलचित 967
थता 967
लीज 967
लैश 967
05 966
आइस@@ 966
इयों 966
छंद 966
राउन 966
लाकर 966
सती 966
सदैव 966
छिक 965
लामिक 965
वालामुखी 965
काएं 963
तरंग 963
नाश 963
बैठे 963
मोल 963
07 962
रोकार 962
सतत 962
जिन@@ 961
यूएस 961
हौ@@ 961
आंग 960
साई 960
आवर 959
डेमोक 959
सीय 959
२०१७ 959
गमन 958
तुएँ 958
पूछा 958
रकला 958
उठाने 957
लिंग@@ 956
अलेक 955
गरी 955
लिब 955
फुल 954
भीम 954
यॉर 954
वयं@@ 953
06 952
en 952
उपरांत 952
काया 952
एजेंट 951
धे@@ 951
लघु@@ 951
1958 950
उपासना 950
पदा 950
अंगू@@ 949
कॉट 949
थाईलैंड 949
रवाहित 949
७० 949
छड 948
रोक@@ 948
किरण 947
इनको 946
कोलंबिया 946
गोरखपुर 946
बनाम 946
बहने 946
रवि 946
आदित 945
बॉन 945
लोबल 945
पहलू 944
फंड 944
माँग 944
लोकतंत 944
सीक 944
ॊ@@ 944
जम@@ 943
मुकाबला 943
ऊँची 942
चोटी 942
फाल 942
भरने 942
रीम@@ 942
साथियों 942
तलाक 941
दरवा@@ 941
बिलकुल 941
मुकदमा 941
सूचक 941
२०१८ 941
1951 940
चेतावनी 940
निंदा 940
फैली 940
याया@@ 940
ओलम 939
रंगमंच 939
षद 939
खासकर 938
खू@@ 938
टेयर 938
सेनानी 938
दुबई 937
मणिपुर 937
हिम@@ 937
17@@ 936
n@@ 936
ँसी 936
ंकी 936
आद@@ 936
करार 936
घोष 936
मूल@@ 936
यथा@@ 936
रिफ 936
d 935
अक@@ 935
खतरनाक 935
धाओं 935
बँ@@ 935
बाघ 935
महोत 935
योज@@ 935
रयो@@ 935
सद@@ 935
गोप@@ 934
रतों 934
राहत 934
रोधक 934
तेलंगाना 933
दिखाने 933
1959 932
95 932
अट@@ 932
गौड 932
भाषाई 932
वय@@ 932
काना 931
यौगिकों 931
विय@@ 931
51 930
थापत 930
मॉन 930
साइंस 930
सामुदायिक 930
आउट@@ 929
बरेली 929
रक@@ 929
राफिक 929
सं 929
h@@ 928
ंडिंग 928
नगरपालिका 928
नाएँ 928
V 927
अंतराल 927
कुमार@@ 927
नरी 927
बीकानेर 927
लौर 927
हांगकांग 927
ऊंची 926
चोरी 926
जावा 926
परक 926
सृ@@ 926
धातुओं 925
पिथौरागढ 925
लॉ 925
ंपिक 924
चल@@ 924
पृ@@ 924
मुला@@ 924
p@@ 923
जीवाश 923
टेली@@ 923
ताप@@ 923
पाट 923
पारि@@ 923
बुल@@ 923
५०० 923
G 922
ंदर 922
मरा@@ 922
सकल 922
47 921
करेगी 921
गास 921
देखता 921
नामी 921
पारम 921
बीर 921
माम@@ 921
असं@@ 920
कैद 920
तावादी 920
फलन 920
वांछित 920
शिवा@@ 920
शीत@@ 920
सदियों 920
ईसवी 919
गुरू 919
णिक 919
बनावट 919
सऊदी 919
सचेंज 919
काशी@@ 918
मतभेद 918
मिका 918
वनाथ 918
कीट 917
जिल 917
ढी 917
थियो@@ 917
नाज 917
यी@@ 917
योजक 917
वदेशी 917
0,000 916
पूरक 916
बाँध 916
मातृभाषा 916
यवसा@@ 916
यासों 916
चमक 915
जिकल 915
जिनमे 915
बाद@@ 915
भूटान 915
वाही 915
सृजन 915
इतिहासकारों 914
नांक 914
पहचाना 914
मुन 914
आयात 913
तिन 913
मंद 913
44 912
t 912
जीवा@@ 912
दमन 912
मता@@ 912
वादा 912
इंटर 911
इंडीज 911
ऑव 911
तमाम 911
तरंग@@ 911
निकटता 911
तेलुगू 910
रॉ 910
लाओं 910
डीसी 909
ययनों 909
वतों 909
झिल 908
मदर 908
करी@@ 907
पंथ 907
वेश@@ 907
दाय@@ 906
पैरों 906
ॉल 906
g@@ 905
मंजूरी 905
रांस@@ 905
राब 905
रेल@@ 905
साझेदारी 905
२००३ 905
जाइ@@ 904
पास@@ 904
समतल 904
am 903
एना@@ 903
गुफा@@ 903
तली 903
बेचने 902
लुक 902
विधियाँ 902
सेनापति 902
ैर 902
अजय 901
खारिज 901
बचे 901
संजय 901
बेड 900
लौह 900
हरि 900
रीब 899
लाद 899
समू@@ 899
000 898
भागी@@ 898
रूपां@@ 898
with 897
एकीकरण 897
छूट 897
पिछड 897
फायर 897
मालवा 897
लव@@ 897
वैध 897
उपनिषद 896
डेस 896
परेशान 896
मानन 896
लुप 896
वसनीय 896
समे@@ 895
साप 895
जरिए 894
भट@@ 894
मिड@@ 894
शंस 894
काउं@@ 893
चिंग 893
जानता 893
टीरिया 893
नाड 893
रकरण 893
अटलांटिक 892
खें 892
धुरी 892
लॆ 892
सुविधा@@ 892
04 891
अकार 891
कलन 891
दाएं 891
निबंध 891
परास 891
संन 891
झे@@ 890
धृत 890
निका 890
बानी 890
रायन 890
साधनों 890
was 889
अनुमो@@ 889
अली@@ 889
ढाई 889
नीत 889
रीयता 889
रोटो@@ 889
रोशनी 889
चमत 888
तनत 888
ताना 888
धीन 888
निकी 888
वाज 888
विधेयक 888
गंध 887
नेन 887
मिलन 887
रियो@@ 887
टियाँ 886
तारित 886
देरी 886
600 885
एसए 885
चौक 885
धियाँ 885
पियर 885
रपान 885
सीधी 885
सु 885
तुलनात 884
मस@@ 884
यकों 884
लगाना 884
वाइस 884
y@@ 883
गुस 883
धांतिक 883
महमूद 883
रेरी 883
शिवलिंग 883
j@@ 882
अंत@@ 882
अतिथि 882
ऊतक 882
घट 882
भागवत 882
वैन 882
नामांकित 881
निग@@ 881
पहुँचे 881
फलों 881
आसन 880
तैनात 880
पं 880
पाप 880
मलिक 880
सिरे 880
समाधि 879
अभिप 878
करु@@ 878
कुड 878
नामा 878
मनु 878
मिलान 878
are 877
बेच 877
यकृत 877
शम 877
टमेंट 876
पैक 876
राही 876
लियां 876
षस 876
3.@@ 875
99 875
आवागमन 875
याद@@ 875
वस@@ 875
सुनाई 875
ऊँचे 874
थेन 874
भण 874
अनिश 873
उदार@@ 873
जरु@@ 873
डीएनए 873
विदेशों 873
वेर 873
शोथ 873
करनेवाले 872
कांत 872
तारा@@ 872
तिहाई 872
तृप 872
थरों 872
पाँच@@ 872
पैलेस 872
माध@@ 872
लगाते 872
वंशा@@ 872
सशक 872
जीवाणु 871
डेवल@@ 871
तावाद 871
परिष 871
तारामंडल 870
लेबल 870
खुश 869
पितृ@@ 869
सोसायटी 869
पंथी 868
रोम@@ 868
कमान 867
कीकरण 867
कोयला 867
खरीदने 867
णिया 867
बोट 867
संबोधित 867
k@@ 866
आपसी 866
कहकर 866
णिमा 866
सौंप 866
हथियारों 866
39 865
इंट 865
झारखण 865
पदा@@ 865
ुद 865
१८५@@ 865
जेने@@ 864
तिलक 864
देखना 864
बग 864
बलि 864
संवर 864
ढांचे 863
राँ@@ 863
विधा 863
वीडन 863
ीर 863
गलती 862
टित 862
पिट 862
बी.@@ 862
रमुख@@ 862
रुवीय 862
ंडा@@ 861
कठिनाई 861
कारा@@ 861
रभाग 861
शिकायत 861
सोम@@ 861
26@@ 860
खल@@ 860
गरु@@ 860
नाव 860
रेण@@ 860
वेब@@ 860
U 859
पथ@@ 859
मुड 859
मेल@@ 859
रतिबद 859
वरन 859
1857 858
a@@ 858
चाचा 858
भंडार 858
शिकागो 858
सफर 858
अधिकृत 857
तुतः 857
नीकरण 857
बृहस 857
सकर 857
रोफ 856
सकों 856
३१ 856
1942 855
आयी 855
जितनी 855
नारी 855
विवादास 855
सांप 855
साइकिल 855
कज 854
गुला@@ 854
घम 854
जंग 854
पंच 854
रशस 854
अनिय@@ 853
दिखने 853
बैं@@ 853
वियों 853
सरोवर 853
आतंकवादी 852
आपका 852
कैबिनेट 852
टेशनों 852
यौहार 852
46 851
नागा@@ 851
नेर 851
२.@@ 851
24@@ 850
43 850
an@@ 850
तीफा 850
पैटर 850
मशी@@ 850
रवी@@ 850
१९९० 850
41 849
अंकों 849
जता 849
थो 849
लियम 849
वतीय 849
एलि@@ 848
खूब 848
टना 848
टें 848
पला@@ 848
शैलियों 848
हाई@@ 848
खुशी 847
पवन 847
भेंट 847
आनु@@ 846
ओमान 846
रतियोगिताओं 846
शरी@@ 846
सुनकर 846
हिं@@ 846
अपूर 845
काज 845
जाएँ 845
टियां 845
नियाँ 845
परमा@@ 845
बनायी 845
यकालीन 845
शिय@@ 845
षड 845
टी20 844
नय 844
बीज@@ 844
भिकियासैण 844
रामिंग 844
वचालित 844
धनी 843
पहुंचा@@ 843
पैसा 843
बताती 843
मेयर 843
राजशाही 843
85 842
अजी@@ 842
अह@@ 842
ढूं@@ 842
रधानमन 842
सिंड 842
ुल 842
एग 841
निभाया 841
बेक 841
उपनिषदों 840
गरीबी 840
टैग 840
ढू@@ 840
नियल 840
मकता 840
राधा@@ 840
रूण 840
रोमा@@ 840
वेंट 840
२०० 840
अपहरण 839
आयरिश 839
गाँ@@ 839
हेड 839
00 838
करू@@ 838
कारी@@ 838
गायिका 838
तलवार 838
पीले 838
पुरु@@ 838
मांग@@ 838
मोत 838
वीपीय 838
III 837
एंजिल 837
एयरलाइंस 837
चालित 837
बाग@@ 837
बें@@ 837
सूरी 837
1953 836
अवलोकन 836
आनुवंशिक 836
पसंदीदा 836
मरने 836
महेश 836
संवेदनशील 836
होस 836
अपर 835
ओन 835
जिसको 835
नग 835
मै 835
राजदूत 835
होत 835
.एस. 834
2022 834
ंकर 834
भाप 834
महिला@@ 834
मौलाना 834
लोस 834
षण@@ 834
ढे@@ 833
थियेटर 833
रखंड 833
लाइब 833
संकाय 833
साह 833
असे@@ 832
गात 832
नम@@ 832
बनारस 832
संयोग 832
सिपा@@ 832
सिफारिश 832
कितना 831
भावी 831
हिंसक 831
उंड 830
कोइल 830
खानों 830
टकरा@@ 830
मांड 830
राजनयिक 830
वायर 830
कायमगंज 829
गु 829
चंडीगढ 829
चेक 829
ञता 829
तरी@@ 829
पेटेंट 829
भरत 829
मारी 829
रोप 829
संकेतों 829
ठहराया 828
डीह 828
दाई 828
नते 828
नाशक 828
सोशल 828
ंगटन 827
परिचालन 827
बता 827
रसूल 827
चने 826
पुरातात 826
बंधन 826
भेजे 826
रेडियो@@ 826
वकों 826
डियो@@ 825
यानों 825
राद 825
रोकथाम 825
सोच@@ 825
X@@ 824
चूँकि 824
वकालत 824
53 822
आतं@@ 822
डेड 822
ताहिक 822
बाकू 822
रैंक@@ 822
सवारी 822
2,@@ 821
टानों 821
तारी 821
बादल 821
लोकतांत 821
शॉट 821
सेमी 821
56 820
ंकि 820
किलो 820
कुमा@@ 820
अपवाद 819
गिटार 819
देवनागरी 819
बेहतरीन 819
बोले 819
यमन 819
कैलेंडर 818
बाएं 818
महे@@ 818
यवाही 818
रियाँ 817
संचरण 817
उस@@ 816
खुली 816
चेरी 816
नां@@ 816
मेजबान 816
योनि 816
विटी 816
संके@@ 816
सजा@@ 816
सिडनी 816
अमृ@@ 815
कमीशन 815
जीवी 815
दाँ@@ 815
मुंह 815
रेस@@ 815
फार@@ 814
मणों 814
मनी@@ 814
वीराज 814
उपेक 813
जेक 813
धात 813
रूचि 813
हानिकारक 813
ic 812
टीमें 812
दुर@@ 812
महासचिव 812
रसंग 812
सौंपा 812
िवादी 812
२००२ 812
आठ@@ 811
मानिया 811
रजातियां 811
टनी 810
पोशाक 810
फिया 810
बंधों 810
लिख 810
वाशिंगटन 810
अजमेर 809
घी 809
तद@@ 809
मरी@@ 809
रहवीं 809
सेतु 809
ref 808
कितनी 808
यापारियों 808
सँ@@ 808
800 807
टका 807
दाख 807
दूतावास 807
परिपथ 807
भेदभाव 807
अनुदान 806
आजाद 806
चिप@@ 806
नदियाँ 806
१८८@@ 806
एडम 805
तूफान 805
कहानियाँ 804
चारी 804
रोटोकॉल 804
संभाला 804
बलात 803
बीए 803
समावेश 803
०३ 803
o 802
आपराधिक 802
खाई 802
रानीखेत 802
हैम 802
अपितु 801
ओडिशा 801
जेस 801
धां@@ 801
बेरी 801
रावस 801
चूर 800
जहाजों 800
णत 800
बॉडी 800
भांति 800
मरीज 800
साध 800
अपराधी 799
चारित 799
धीमी 799
पिंड 799
बीसवीं 799
लेग 799
शपथ 799
सिंधु 799
सुंद@@ 799
k 798
विमानों 798
सीटों 798
उपहार 797
जोसेफ 797
धरोहर 797
पायलट 797
रमण@@ 797
वतमाला 797
सरा@@ 797
अका@@ 796
अदा 796
आलोचक 796
काॅ@@ 796
कोने 796
खम 796
यश 796
रशंसकों 796
रीनगर 796
शियल 796
ाइ@@ 796
1936 795
अहम 795
उपक 795
एलन 795
ओम 795
दुकान 795
फैसले 795
बेगम 795
संभल 795
हॉलीवुड 795
राजेश 794
लां@@ 794
अवध 793
कप@@ 793
छी@@ 793
जरिये 793
निकले 793
बाज@@ 793
भूल 793
यतीत 793
०२ 793
01 792
जाज 792
टेन@@ 792
दृ@@ 792
नंद@@ 792
बीबीसी 792
रमिकों 792
उपरोक 791
डॉन 791
थानिक 791
संभवत 791
ानिस 791
ईयों 790
गामी 790
थकों 790
नृ@@ 790
फसलों 790
बढ@@ 790
हब 790
केश@@ 789
गुलाम 789
निभाने 789
फीचर 789
यशास 789
सात@@ 789
अवकाश 788
कुंड@@ 788
गिरि@@ 788
छल 788
मरम 788
लद 788
लानी 788
विकासशील 788
50@@ 787
ऑपरेटिंग 787
टीव 787
देंगे 787
माओं 787
इसपर 786
खुर 786
खोजने 786
गामा 786
यन@@ 786
मेहता 785
सुना 785
गणितज 784
मालूम 784
सफोर 784
चाल@@ 783
हिंदुओं 783
49 782
गस 782
धौ@@ 782
लोनी 782
ऑप 781
कंद@@ 781
खाँ 781
झाड 781
डान 781
नौकर@@ 781
रंगीन 781
रतिकूल 780
अभिलेख 779
डेंट 779
नोलॉजी 779
पसन 779
72 778
c@@ 778
www.@@ 778
कारि@@ 778
परागत 778
मला@@ 778
लजी 778
लाते 778
समकक 778
सुदूर 778
अद@@ 777
ईमान@@ 777
बियन 777
बैटरी 777
शरीफ 777
परंपराओं 776
पिटल 776
बीमार 776
युनाइटेड 776
40@@ 775
H 775
http 775
ऑपरे@@ 775
कॅ@@ 775
डोमेन 775
तान@@ 775
नैतिकता 775
मुर@@ 775
राश@@ 775
सोचा 775
x@@ 774
अख 774
कॉक 774
तूर 774
रवार 774
वानु@@ 774
हदीस 774
अपरा@@ 773
किं@@ 773
जातक 773
रीड 773
रुपए 773
समझते 773
निरं@@ 772
शिमला 772
साधु 772
चतु@@ 771
नमाज 771
तुम@@ 770
देल@@ 770
भरता 770
वाण 770
अभियांत 769
अहम@@ 769
फाइल 769
बरकरार 769
विकला@@ 769
विका@@ 769
शेक 769
साइक 769
सूरत 769
1939 768
घं@@ 768
चोपड 768
माली 768
रेनी 768
ाते 768
ाम 768
जाग@@ 767
दूक 767
धरा@@ 767
मिने@@ 767
विवे@@ 767
विवेक 767
ar@@ 766
ed 766
t@@ 766
आतंकवाद 766
खुलासा 766
राथमिकता 766
r@@ 765
अदा@@ 765
खान@@ 765
साइटों 765
हरी@@ 765
एवम 764
धानों 764
नगरीय 764
नियत 764
पाउ@@ 764
रौली 764
सोम 764
g 763
आचरण 763
उजागर 763
कमांडर 763
काय 763
गह@@ 763
टते 763
टिनेंट 763
ठंडा 763
डेनमार 763
वाग 763
28@@ 762
एंग 762
ताकत 762
शोर 762
हालत 762
गेल 761
नियाई 761
ललि@@ 761
शनि 761
54 760
गुन 760
भड 760
रहार 760
रेरक 760
सुनने 760
m@@ 759
अररिया 759
नीले 759
फर@@ 759
रणो@@ 759
रेता 759
कच@@ 758
चीजों 758
टाइगर 758
णायक 758
नाते 758
माय@@ 758
यश@@ 758
रतिपादन 758
हवेली 758
अलंकार 757
खंडों 757
०.@@ 757
उपनिवेश 756
रोशन 756
लीप 756
विदा 756
सीम 756
आगामी 755
डिब 755
धनुष 755
नाराय@@ 755
पेनी 755
रंथि 755
वाय 755
वू@@ 755
गुल 754
दिला@@ 754
भयंकर 754
शिकी 754
समु@@ 754
कंपनियां 753
राघ@@ 753
षिण@@ 753
३५ 753
यारह 752
संकु@@ 752
o@@ 751
जागरूकता 751
टोनी 751
तराधिकार 751
देखरेख 751
नमूने 751
रविवार 751
सीख@@ 751
इंगित 750
जिया@@ 750
तिवारी 750
बैंगलोर 750
भूमिगत 750
वायुमंडल 750
आदान 749
खपत 749
खेड 749
दायर 749
मनाने 749
समुच 749
1941 748
आवरण 748
कानूनों 748
दीपक 748
नरेन 748
परिदृश 748
पोषक 748
मजदूर 748
लुई 748
विफलता 748
हावड 748
ियोग 748
al@@ 747
मेघालय 747
1937 746
कीन 746
खंडन 746
बालों 746
बोला 746
युवाओं 746
रगतिशील 746
लख@@ 746
लनों 746
९० 746
अपनाने 745
कराची 744
खरीदा 744
गने 744
नोकिया 744
रिजर 744
अभिनीत 743
उपयोगिता 743
चिस 743
ताब 743
दलित 743
परिमाण 743
मैत 743
लगाई 743
लिज 743
जापुर 742
दरों 742
नैशनल 742
फिन 742
सरलता 742
.मी. 741
it 741
लीड 741
झी@@ 740
डली 740
दड 740
दोपहर 740
योजनों 740
रॉड@@ 740
संकलित 740
सोना 740
सौदा 740
1900 739
काटने 739
णे 739
पां@@ 739
मानकर 739
मिता 739
रेसिंग 739
विशेषताएं 739
from 738
डांस 738
दाल 738
नशील 738
निः@@ 738
भती@@ 738
1919 737
अनुकू@@ 737
छठी 737
तविकता 737
मुकद@@ 737
राइस 737
250 736
अथ@@ 736
ईद 736
कृति@@ 736
कोल@@ 736
तम@@ 736
मामूली 736
यवाणी 736
यावरणीय 736
सिलसि@@ 736
कद 735
कारखाने 735
काली@@ 735
थलीसैंण 735
मंगल@@ 735
विशेषताएँ 735
आह 734
तनी 734
मकान 734
लूज 734
लैम 734
अख@@ 733
आईसी@@ 733
इंडस 733
एनी@@ 733
कितने 733
घुड 733
चैत 733
धम@@ 733
नाथन 733
नियोजित 733
मोनिया 733
राइज 733
राकृत 733
वसंत 733
सिग@@ 733
11@@ 732
web 732
अय 732
गिरने 732
परिपक 732
रजिस 732
ितों 732
US 731
ंडल 731
अतएव 731
अधी@@ 731
अमृतसर 731
कैमरा 731
पूजन 731
वीज 731
समो@@ 731
सीढ 731
57 730
अरुण 730
ईसापूर 730
गिन 730
चिंतन 730
सेके@@ 730
us 729
केबल 729
गीतकार 729
दाताओं 729
पीय 729
बिलारी 729
रंश 729
रविड 729
शालाओं 729
टीकरण 728
डाली 728
मदा 728
रयोग@@ 728
सिम@@ 728
हॉट 728
नाद 727
पूंजी@@ 727
बटा@@ 727
राई@@ 727
शव 727
सफाई 727
23@@ 726
25@@ 726
ए.@@ 726
केज 726
पाणि@@ 726
पुट 726
मिमी 726
मूलभूत 726
रयोजन 726
रूद 726
1932 725
तगाल 725
नियमन 725
परांत 725
बिज 725
माधव 725
मुजफ 725
विलयन 725
हिंद 725
ऐंड 724
टिम 724
डिया@@ 724
डेब 724
ढो@@ 724
धूप 724
रिंस 724
रेसि@@ 724
करन 723
दयाल 723
शिविर 723
03 722
ऐं@@ 722
गुं@@ 722
डोल 722
नाया 722
नुमा 722
मूलन 722
राजेन 722
लेप 722
शरा@@ 722
िर 722
ओक 721
कटिका 721
घटकों 721
जाएंगे 721
मुँह 721
राचार 721
सरों 721
सिकन 721
Y@@ 720
वद 720
षो 720
सने 720
हरिद 720
58 719
ऊंचा 719
धिकारी 719
बहिष 719
बुरा 719
मुं@@ 719
मुरा@@ 719
विग 719
सूचकांक 719
आयुक 718
टून 718
मने 718
वान@@ 718
62 717
66 717
एफसी 717
एयरपोर 717
यायाम 717
सैक 717
खिड 716
पैट 716
मेघ@@ 716
अलं@@ 715
कूट@@ 715
ञापनों 715
थयात 715
यूम 715
सूफी 715
68 714
ंव 714
अनो@@ 714
आशय 714
खेली 714
घंटा 714
चुनौ@@ 714
तज 714
बनना 714
रांतों 714
सौंप@@ 714
ेस 714
web.archive.org 713
उमर 713
कृपा 713
टग 713
माला@@ 713
यूजिक 713
यूनिट 713
रमाण@@ 713
रेटिक 713
विज@@ 713
अवयव 712
औरंगजेब 712
दिखता 712
भालू 712
ललित 712
आँखों 711
टोली 711
देल 711
मति 711
रता@@ 711
वैक 711
घने 710
झूठ 710
बिशप 710
यवेक 710
वसू@@ 710
आंखों 709
एससी 709
कपास 709
जवान 709
तरां 709
धाराओं 709
यूं 709
लोरिडा 709
वंत 709
िशा 709
27@@ 708
एफए 708
एमएस 708
थियाँ 708
मण@@ 708
माउंट 708
वाइरस 708
वाटर 708
सरो@@ 708
हिरण 708
ीलैंड 708
एचआईवी 707
ऐन 707
नीसवीं 707
वेषण 707
साग@@ 707
हराने 707
120 706
अनौपचारिक 706
गांधी@@ 706
पोत 706
रवि@@ 706
रियां 706
रेख 706
संध 706
चमड 705
पेशी 705
बाव@@ 705
भोजपुरी 705
यिकीय 705
योति 705
लाभ@@ 705
सरे 705
as@@ 704
कांड 704
जूर 704
नाबाद 704
पिका 704
यूल 704
रेग 704
लंका 704
वला 704
सिकंदर 704
सेवा@@ 704
सैमसंग 704
गिनती 703
टावर 703
मड 703
माद 703
सपना 703
सामा@@ 703
हंस 703
63 702
K 702
कन@@ 702
गुलाब 702
जज 702
बताने 702
बाय@@ 702
लासिक 702
लीम 702
02 701
Z 701
ई.@@ 701
जवाहरलाल 701
याएँ 701
रुस 701
विकी 701
शुरूआती 701
ंडो@@ 700
आयो@@ 700
टैंक 700
दोबारा 700
मों@@ 700
रियाएं 700
वव 700
वाया 700
4.@@ 699
i@@ 699
एजे@@ 699
गोद 699
दरवाजे 699
दुसरे 699
परमेश 699
पीपल 699
रूपी 699
लची@@ 699
आशीर 698
गज@@ 698
जादू 698
बिजनेस 698
रिंट 698
सीए 698
{ 697
आखिरकार 697
इमाम 697
गायब 697
घूमने 697
छाप 697
जगदी@@ 697
रणजी 697
राइवर 697
लिखना 697
सौन 697
4,@@ 696
णतः 696
धमकी 696
नासा 696
नुस 696
बलिदान 696
मेरठ 696
याचार 696
राध 696
लील 696
विशेषा@@ 696
समानांतर 696
३.@@ 696
e 695
आवं@@ 695
गेन 695
चुन 695
टॉवर 695
नद@@ 695
पतली 695
बाइन 695
भावस 695
यूटन 695
शनरी 695
ur 694
जला 694
पंचांग 694
पि 694
बनीं 694
रिपुरा 694
सिय@@ 694
20वीं 693
इश 693
उतनी 693
गेज 693
गैर@@ 693
चंप@@ 693
टाबेस 693
भीतरी 693
भीष 693
यांग 693
सुभाष 693
४५ 693
Y 692
धानी 692
निरपेक 692
पक@@ 692
पोषित 692
बैंग@@ 692
मॉल 692
यायन 692
राहम 692
संरचनाओं 692
कहाँ 691
काश 691
पीपुल 691
मला 691
यूशन 691
सकने 691
हीर 691
ृ 691
जनन 690
थगित 690
याण@@ 690
शंकराचार 690
सैम 690
हु 690
१९८० 690
गंगोलीहाट 689
नवीनतम 689
नशीलता 689
नापुर 689
रायपुर 689
सुफ 689
सोन 689
29@@ 688
अने@@ 688
उपायों 688
ऊन 688
कूद 688
दिमाग 688
भाशय 688
रदार 688
विवाहित 688
सला 688
ियान 688
आल@@ 687
झगड 687
तोत 687
दूरसंचार 687
नींद 687
बुं@@ 687
मीमांसा 687
मेडि@@ 687
रिए@@ 687
वड 687
कटौती 686
लोब 686
इटा@@ 685
तिज 685
रचयिता 685
अनंत 684
कूली 684
लेगा 684
लैं@@ 684
वरित 684
विधियां 684
वॉ 684
उतार 683
एसी 683
किताबें 683
कैट@@ 683
बेट 683
भोज@@ 683
हां 683
०,००० 683
अनुयायियों 682
बजाए 682
लोहा 682
विषयक 682
खगोल 681
टाफ 681
डमी 681
पिघ@@ 681
भारतवर 681
मोग 681
यसभा 681
यीय 681
रोका 681
शोषित 681
ंडन 680
कामना 680
डीवीडी 680
बग@@ 680
शीत 680
हेम@@ 680
E0 679
ंगस 679
डियो 679
भूति 679
मीय 679
यूनेस 679
া@@ 679
इंक 678
एथलीटों 678
टेलर 678
णप 678
तचाप 678
बेला 678
मशीनों 678
यामिति 678
रमी 678
रमेय 678
राठ@@ 678
लगि@@ 678
आकलन 677
गंबर 677
गाह 677
गौरी 677
चांदी 677
मैनचेस 677
लाला 677
साहस 677
सुरंग 677
सूखे 677
1928 676
इंट@@ 676
झड 676
भरपूर 676
मकथा 676
रतिबि@@ 676
राजू 676
लायक 676
शूट 676
साध@@ 676
सुब 676
कारावास 675
छिड 675
नागर 675
पौधा 675
रेश 675
हण 675
इधर 674
ए. 674
एलिज 674
ओं@@ 674
डियम 674
दानव 674
दिल@@ 674
पीसी 674
फिलिस 674
बसने 674
बाजारों 674
भगत 674
यवान 674
अठार@@ 673
करीबी 673
घंटों 673
जाए@@ 673
टिवल 673
डेंसी 673
वाइन 673
वारे 673
समुचित 673
आधि@@ 672
ऊँ@@ 672
जत 672
जितने 672
बाबर 672
विनोद 672
गैलेक 671
जियों 671
लवण 671
लिकन 671
विवेदी 671
in@@ 670
असंभव 670
कोहल 670
चिप 670
तटस 670
पुजारी 670
बिलबोर 670
भस 670
राजन 670
वारों 670
सेवक 670
१८७@@ 670
उदार 669
कामयाब 669
थली 669
नबी 669
पिय@@ 669
पेपर 669
माव@@ 669
मोटी 669
वरुण 669
षमा 669
जबलपुर 668
यूबा 668
सूट 668
हिया 668
1931 667
इंटेल 667
उनपर 667
जेंडर 667
तब@@ 667
परिवेश 667
फिट 667
बगी@@ 667
भवती 667
रियान 667
रोहित 667
सीडी 667
अंतः@@ 666
आघात 666
जयंती 666
नजदीक 666
नियो 666
ाद 666
‎ 666
अनुकरण 665
पहने 665
बैठा 665
मियामी 665
मेसो@@ 665
रकर 665
रभ@@ 665
रांग@@ 665
हीरो 665
आयाम 664
थितिकी 664
दावे 664
दिनी 664
दीं 664
नेशन 664
परम@@ 664
फॉक 664
बीमारियों 664
मिज 664
लैक@@ 664
शार 664
सट 664
सारणी 664
सीटें 664
ंतर 663
अरु@@ 663
थाइ@@ 663
पति@@ 663
मधुमेह 663
रचुर 663
रवण 663
रसंस 663
सूजन 663
1,000 662
असमिया 662
कोन 662
तिल 662
अपार 661
आव@@ 661
जहाँ@@ 661
जिंदगी 661
धारियों 661
फोटो 661
लावा 661
विवा@@ 661
ns 660
v@@ 660
आज@@ 660
नजदीकी 660
भावनात 660
सरा 660
सवाई 660
th@@ 659
अमृत 659
कॉस 659
टोरी 659
दरा 659
दाबाद 659
पम 659
परशुराम 659
मैदानों 659
रजभाषा 659
1935 658
es 658
model 658
अंदाज 658
एरिक 658
खं@@ 658
गंतव 658
चेतन 658
मिथिला 658
मुगलों 658
रॉकेट 658
वृति 658
सीकर 658
केटिंग 657
धारकों 657
निभा 657
मिठा@@ 657
युगांडा 657
राचीनतम 657
वीरता 657
अवि@@ 656
आद 656
कमेटी 656
खगड 656
थुन 656
बाण 656
राबाद 656
201@@ 655
आजीवन 655
दुबारा 655
रेंट 655
रेजिमेंट 655
लहर 655
सेंटी@@ 655
अट 654
टेप 654
पदोन 654
महाप 654
योक 654
राची@@ 654
विमर 654
1934 653
£ 653
करवा 653
घाव 653
छिबरामऊ 653
ञानात 653
टीका@@ 653
बांटा 653
बाला@@ 653
भंडारण 653
ात 653
700 652
ंभ 652
अब@@ 652
गाय@@ 652
भाषाएं 652
मुखिया 652
ाकर 652
ंगो@@ 651
कोज 651
टाल 651
नाभिकीय 651
पांडु@@ 651
बॉर 651
मारिया 651
विरूद 651
शिका 651
सराहना 651
1921 650
61 650
} 650
अभिन 650
अरुणाचल 650
ऑटो 650
कटि@@ 650
बॉस 650
राजे@@ 650
रूट 650
1924 649
खरीद@@ 649
निपट@@ 649
पोलैंड 649
फेल 649
बेचा 649
मदीना 649
मिड 649
5,@@ 648
कुलम 648
कोट@@ 648
छठे 648
तालि@@ 648
थल@@ 648
नीति@@ 648
भाषाओँ 648
मेशन 648
लेटर 648
ॅ 648
1918 647
1944 647
आगंतु@@ 647
इम@@ 647
कोविड 647
ताकार 647
धूल 647
मश 647
रिनि@@ 647
लाप 647
शिशु@@ 647
हाबाद 647
ं- 646
ठु@@ 646
थेरेपी 646
नोर 646
पचास 646
पाठकों 646
पाना 646
बहुधा 646
लायंस 646
लाह@@ 646
वंचित 646
शरणार 646
एके@@ 645
खुदरा 645
गन@@ 645
धारणाओं 645
निरूपण 645
लेजर 645
विघटन 645
अनुशासन 644
आँख 644
उपभोग 644
एकदम 644
ताइवान 644
रथाओं 644
विदों 644
शंका 644
ुरआन 644
45@@ 643
r 643
ंटी 643
आँकड 643
उपनिवे@@ 643
खिल 643
रजी 643
शाक 643
संचा@@ 643
संरचनात 643
ॉक 643
1938 642
गाथा 642
छेड 642
तृ 642
रेशम 642
वासु@@ 642
घटनाएं 641
चीफ 641
भीषण 641
रामाणिक 641
एटी@@ 640
एय@@ 640
घोर 640
टोस 640
नरसंहार 640
नाश@@ 640
पाइन 640
पैन 640
रखरखाव 640
रशं@@ 640
रीराम 640
अतरौली 639
अनुचित 639
चाइ@@ 639
छाल 639
टाय@@ 639
पंड@@ 639
भूख 639
वाई@@ 639
सुविधाएँ 639
इंडि@@ 638
थाएं 638
दाहिने 638
फिली@@ 638
रावल 638
सुनील 638
71 637
पेश@@ 637
मेटा@@ 637
यूर 637
रदाता 637
वॉन 637
वॉर 637
कलाओं 636
कालिदास 636
कोली 636
खुश@@ 636
चड 636
जीववैज 636
माहौल 636
राजन@@ 636
l@@ 635
कुवैत 635
णांक 635
नामीबिया 635
बाक 635
याना 635
रूपरेखा 635
हंगरी 635
अनुभूति 634
अपमान 634
ऊंचे 634
तुलसी 634
नियामक 634
बगल 634
वरक 634
सांता 634
सुसज 634
w@@ 633
आई.@@ 633
आयु@@ 633
एथलेटिक 633
जीराव 633
तानों 633
तूप 633
भूरे 633
रोमांटिक 633
वेरी 633
शाल 633
सहयोगियों 633
१९९८ 633
तरदायी 632
पमेंट 632
बढा@@ 632
रकाशक 632
विजयी 632
विर 632
२०१९ 632
कुशलता 631
चाप 631
नील@@ 631
पंजीकरण 631
फतेह@@ 631
बंबई 631
बेच@@ 631
भागने 631
ॅक 631
Q@@ 630
तेश 630
नाटक@@ 630
पाकर 630
विम 630
आपदा 629
कठिनाइ@@ 629
रायोजित 629
रीवा 629
रैन 629
ारू@@ 629
जीविका 628
टेलीफोन 628
तिय@@ 628
तिर 628
थराली 628
दिश 628
फेक 628
भजन 628
मम 628
लगाड 628
um 627
अपशिष 627
कोलो@@ 627
खां 627
गुट 627
नीतिक 627
सदृश 627
सियम 627
सैं@@ 627
हता 627
गेंदों 626
पहा@@ 626
बरसा@@ 626
मंगोल 626
मारवाड 626
यनों 626
रामचंद 626
वजों 626
संतुलित 626
सनी 626
f 625
चौबटाखाल 625
तून 625
मोह 625
यधारा 625
विषाक 625
षमताओं 625
A4 624
National 624
be 624
कौर 624
जैव@@ 624
णतया 624
तीकरण 624
मंड 624
माही 624
यपूर 624
यूनान 624
रामकृष 624
रिसमस 624
षतिग 624
६५ 624
3,@@ 623
उसपर 623
कराना 623
पारा 623
बैठ 623
मधु 623
िश 623
88 622
Ch@@ 622
अनिल 622
इंकार 622
इनपुट 622
जिसपर 622
दैत 622
बरो 622
भावों 622
लीटर 622
षाएं 622
ानून 622
77 621
contributor 621
आधारभूत 621
उधर 621
गला 621
गाव 621
नमूना 621
भील 621
विशे@@ 621
शरद 621
सहन 621
73 620
timestamp 620
कोलं@@ 620
चिट 620
देशभक 620
भि 620
यान@@ 620
रॉल 620
लिपियों 620
सिए@@ 620
किंव@@ 619
डिश 619
परो@@ 619
बचत 619
बाधित 619
शेयर@@ 619
सिंगल 619
सेवाएँ 619
ॅन 619
१९४७ 619
96 618
f@@ 618
आधी 618
जिनको 618
तेंदु@@ 618
निमित 618
पहनने 618
मिली@@ 618
येन 618
98 617
एहसास 617
ओरि@@ 617
गतिशील 617
चक@@ 617
टलैंड 617
दरगाह 617
दरभंगा 617
नह@@ 617
नाभिक 617
निपटने 617
मीना 617
सोमवार 617
हुक 617
आधुनि@@ 616
घेरे 616
तचित 616
पहुँ@@ 616
मधुर 616
अफगान 615
इरादा 615
नागरिकता 615
बताई 615
बदलते 615
सेमीफाइनल 615
67 614
v 614
ँगे 614
दवा@@ 614
बहाल 614
मलेरिया 614
यासी 614
रोटी 614
रोसे@@ 614
सीईओ 614
अणुओं 613
नोग 613
पंख 613
लियर 613
सला@@ 613
ुर 613
नीला 612
वासों 612
संकीर 612
74 611
कराता 611
काबुल 611
जीवनकाल 611
मप 611
रियाएँ 611
लूर 611
लेंगे 611
सुलभ 611
18वीं 610
रबर 610
शनिवार 610
२,@@ 610
अधिकां@@ 609
एसि@@ 609
केरी 609
चश 609
णमाला 609
दायक 609
नाई@@ 609
बेरीनाग 609
रेलमार 609
वाचक 609
साहेब 609
३२ 609
1943 608
इको@@ 608
खुल 608
जलीय 608
बत@@ 608
मानवता 608
यारो@@ 608
लिनी 608
समारोहों 608
साइन 608
ृंगार 608
1912 607
76 607
`@@ 607
format 607
कारिता 607
झि@@ 607
डायरेक 607
थाएँ 607
दैर 607
बैठने 607
रतिनिधियों 607
सबके 607
सवीं 607
सहकारी 607
सीपी@@ 607
१९९९ 607
84 606
86 606
ate 606
डिन 606
ढाँ@@ 606
पेशवा 606
बुखार 606
महानगर 606
मिति 606
लाभदायक 606
वंस 606
वाने 606
संदिग 606
सुधारों 606
ंडी@@ 605
ओवर@@ 605
जोकी 605
पालक 605
रवक 605
लांग 605
हाला@@ 605
एजेंसियों 604
एनिमेटेड 604
टॉन 604
तराई 604
महो@@ 604
मानसून 604
राइवेट 604
शोधन 604
समझना 604
सीना 604
10,000 603
59 603
ंका 603
अभियानों 603
पीला 603
सुदृढ 603
ईं@@ 602
डॉग 602
थॉ@@ 602
विक@@ 602
सिफ 602
इकाइ@@ 601
एनए 601
जमेंट 601
जैसे- 601
देशीय 601
निरन 601
पाध 601
बाइबिल 601
रतापगढ 601
रवात 601
समान@@ 601
ाबेथ 601
१९९१ 601
अमिताभ 600
घृ@@ 600
टसन 600
बम@@ 600
रशासित 600
हवाई@@ 600
ch@@ 599
अवसाद 599
खोलने 599
गाँवों 599
टी.@@ 599
दिशाओं 599
फायदा 599
बिगड 599
मंडी 599
मोस 599
लैंगिक 599
₹ 599
अनुभवों 598
कनी 598
नारी@@ 598
पादप 598
पारदर 598
पीएचडी 598
मीरा 598
लेबर 598
वायुसेना 598
वैत 598
एकादशी 597
जाएं 597
दात 597
पुं@@ 597
बज 597
बरे 597
बहार 597
मशास 597
रामनगर 597
रॉबिन 597
शोध@@ 597
ेशन 597
डीडी@@ 596
णी@@ 596
नायिका 596
पटल 596
परमार 596
फेर 596
भारत@@ 596
भीर 596
यं 596
रनवे 596
रिपल 596
विनो@@ 596
साई@@ 596
सिर@@ 596
1922 595
1929 595
आयतन 595
कोमल 595
नयन 595
पारसी 595
यहूदियों 595
रिवे@@ 595
लेखा@@ 595
वेंचर 595
ून 595
अपो@@ 594
कड@@ 594
डसन 594
धिया 594
लोमा 594
विलास 594
गंग@@ 593
परमात 593
पी.@@ 593
बियों 593
वाह@@ 593
वेंक@@ 593
अधिवेशन 592
आलू 592
गिरा 592
डवेयर 592
दानों 592
बडी 592
भं@@ 592
विधिक 592
शैल 592
शैव 592
हेल@@ 592
१९६० 592
७५ 592
कीड 591
कैस 591
गणक 591
दीव 591
राइफल 591
आवे@@ 590
उपरान 590
ऊतकों 590
नती 590
पांडे 590
बतौर 590
बलू@@ 590
बह 590
रावत 590
रेख@@ 590
रैं@@ 590
शाखाएँ 590
AS@@ 589
re@@ 589
घटनाएँ 589
जियो@@ 589
दिरा 589
दुरी 589
बाली 589
बोन 589
मोटर@@ 589
साधारण@@ 589
अके@@ 588
अपभ 588
आंग@@ 588
आया@@ 588
ओसी 588
कोंक@@ 588
कोक 588
देवा@@ 588
धरण 588
पहु@@ 588
बुरे 588
मांसपेशियों 588
लाभकारी 588
विचित 588
सरण 588
− 588
1933 587
एमए 587
केटबॉल 587
गोदा@@ 587
चैनलों 587
तुएं 587
भवनों 587
मेमोरी 587
रियस 587
शि 587
ad@@ 586
जिज 586
देसाई 586
यरी 586
यिका 586
रदीप 586
रसू@@ 586
रिको 586
लांट 586
लीस 586
लुईस 586
लैस 586
हजारे 586
1925 585
2.5 585
username 585
आरती 585
काय@@ 585
दादी 585
निरू@@ 585
पांचवें 585
राजभाषा 585
रोसेसर 585
कॉटिश 584
तावेजों 584
दस@@ 584
मोशन 584
यावर 584
योन 584
सुर@@ 584
एथलीट 583
कैलाश 583
नतम 583
फं@@ 583
भयानक 583
रबंध@@ 583
रेंचा@@ 583
लैप 583
सीआई@@ 583
अकाद@@ 582
छुक 582
पते 582
परिश 582
मेनिया 582
यतन 582
रमादित 582
वायर@@ 582
सले 582
सांद 582
सातवें 582
ॐ 582
अँ@@ 581
आंत 581
घोटा@@ 581
डोज 581
धुं@@ 581
पीस 581
मैदानी 581
सागरीय 581
1914 580
एटा 580
जाक 580
ठाकुरद 580
तया 580
दशा@@ 580
दावन 580
रेंड 580
सामयिक 580
४८ 580
आका@@ 579
कांडा 579
खेतों 579
चैंपियंस 579
छंद@@ 579
जनजातियों 579
टेश 579
थस 579
नियोजन 579
रदायिक 579
करो@@ 578
किण 578
कोर@@ 578
धरम@@ 578
मानो 578
रशंसक 578
रीना 578
रेसी@@ 578
रोट 578
समायोजित 578
ंदे 577
एलिजाबेथ 577
ऑडियो 577
गुवाहाटी 577
तीनी 577
पैनल 577
बीटा 577
रतिपादित 577
वतः 577
सोलह 577
खैर 576
गोलार 576
बाजों 576
बीसी@@ 576
सेदारी 576
हारि@@ 576
Z@@ 575
अगु@@ 575
रावती 575
वैशाली 575
सुत 575
1917 574
India 574
pur 574
तिहासिक 574
फारस 574
फीफा 574
मनोहर 574
मेमो@@ 574
रतिज 574
शियर 574
सवादी 574
सुंदरता 574
W 573
नरेंद 573
निवारण 573
बैल 573
वसु@@ 573
u 572
चयनित 572
परवर 572
फीति 572
यंजनों 572
रचनाएं 572
रचनाकाल 572
रयोक 572
सनातन 572
1926 571
चीजें 571
दास@@ 571
मलय 571
मैथिली 571
युत@@ 571
राजी 571
रिपाठी 571
81 570
अयस 570
कमर 570
कारिक 570
कीपर 570
गैसों 570
तिल@@ 570
दफ@@ 570
धू 570
मंदी 570
मूला 570
रखें 570
रांति@@ 570
रोज@@ 570
गाए 569
गुहा 569
टिट 569
दुकानों 569
पता@@ 569
बच@@ 569
बेरिया 569
योत 569
रकूट 569
रन@@ 569
विराजमान 569
सरी@@ 569
सैण 569
३६ 569
कराई 568
गोपा@@ 568
भरोसा 568
मांस@@ 568
लौटे 568
शिकारी 568
सिने@@ 568
होर 568
1.5 567
92 567
अमा@@ 567
ऑब 567
कहानियां 567
कैने@@ 567
धम 567
रोचक 567
रोलियम 567
वभौमिक 567
आउटपुट 566
आयन 566
आवेश 566
एंडरसन 566
कैलि@@ 566
खुराक 566
बहरहाल 566
बृहत 566
रियास@@ 566
लाता 566
लिब@@ 566
वरदान 566
अनुकूलन 565
अनुसन 565
आंदोलनों 565
कोशिकाएं 565
खलीफा 565
गेहूँ 565
घूम@@ 565
चैन 565
नसी@@ 565
भुवनेश 565
मदन 565
लूट 565
ऐश 564
कलर 564
कुक 564
कूट 564
टरेट 564
तीश 564
नना 564
फेसबुक 564
रेश@@ 564
लोज 564
सचि@@ 564
इंजीनियरी 563
कविताएँ 563
जेंटीना 563
नोली 563
मकबरा 563
रसर 563
रिमंडल 563
लबर 563
विवेका@@ 563
5.@@ 562
चुअल 562
चौरा@@ 562
तना@@ 562
तिक@@ 562
पाँ@@ 562
पाषाण 562
रमुखतः 562
रिगे@@ 562
लेनदेन 562
वेनिया 562
१९७० 562
ई0 561
उदाहरणार 561
कतर 561
कथ@@ 561
कुआ@@ 561
चुनी 561
दीवान 561
नेपोलियन 561
पदी 561
मानवाधिकार 561
यतया 561
याग@@ 561
याशित 561
लेखिका 561
लेव 561
सिका 561
सितारों 561
ारित 561
5,000 560
87 560
आईपी@@ 560
आरोपों 560
कानों 560
जीपुर 560
नोल 560
बंदर 560
बीसी 560
बूल 560
महिमा 560
ययुगीन 560
यूँ 560
रुटि 560
रोजर 560
सातवीं 560
सीआई 560
82 559
अंगु@@ 559
उपनगर 559
गुच 559
तौड 559
फरी@@ 559
भली 559
विराम 559
शाखा@@ 559
हमला@@ 559
हृद@@ 559
IS@@ 558
किशन 558
कोयले 558
फलक 558
बसाया 558
मितीय 558
मोज 558
वीरों 558
97 557
अलगाव 557
आंख 557
आफ 557
ईमान 557
उपजाऊ 557
घर@@ 557
जेफ 557
डं@@ 557
रिहा 557
वच@@ 557
गोरि@@ 556
तुलसी@@ 556
नाइजीरिया 556
पहलवान 556
युधिष 556
रिए 556
वरा 556
वीर@@ 556
अंपायर 555
खल 555
ताना@@ 555
बैडमिंटन 555
मदिन 555
यासकार 555
रीलंकाई 555
लोहा@@ 555
सिखों 555
१८६@@ 555
ओब 554
किलोग 554
झी 554
नवजात 554
नॉल 554
बैनर 554
भगवती 554
मसी@@ 554
माइल 554
मीनार 554
वना 554
वयंसेवक 554
विशुद 554
अमेरि@@ 553
ऐप 553
ढाल 553
पय 553
फुट@@ 553
यमों 553
रून 553
वाला@@ 553
वेने@@ 553
सुरेश 553
६.@@ 553
कें@@ 552
घकालिक 552
जाये@@ 552
निकलकर 552
भूभाग 552
मनों 552
मुना@@ 552
जग 551
बिर@@ 551
हुयी 551
78 550
one 550
इंसान 550
कुश@@ 550
ठो@@ 550
राणा@@ 550
वादों 550
.सी. 549
which 549
आखिर 549
कथाएँ 549
कमे@@ 549
केतु 549
परगना 549
बट 549
बामा 549
रांश 549
रुति 549
विकृत 549
सतपुली 549
१९९६ 549
तिकारी 548
दहन 548
मछ@@ 548
लगीं 548
विजयनगर 548
विप 548
साजि@@ 548
सिनेमा@@ 548
ाज 548
१९९२ 548
इसमे 547
किताबों 547
छावनी 547
जस@@ 547
पलायन 547
रोटेस 547
िलाफ 547
ऋषि@@ 546
टायर 546
दिखा 546
भंड@@ 546
मॉडलिंग 546
रवासियों 546
रिये 546
शिया@@ 546
83 545
अंध@@ 545
एट@@ 545
घनिष 545
छद 545
जयसिंह 545
दुःख 545
मानद 545
वांग 545
अवशिष 544
एंटरटेनमेंट 544
कना 544
कॉप 544
जीतकर 544
नकल 544
परिधि 544
फरी 544
मजबू@@ 544
विषम 544
शाते 544
सना 544
उदय@@ 543
एंगे 543
गुम 543
डें@@ 543
डौ@@ 543
तमा@@ 543
दकोश 543
हैंड@@ 543
ेल 543
अरबों 542
अविश 542
आकस 542
उधार 542
कती 542
ताड 542
दान@@ 542
निकलते 542
निभाते 542
मेड 542
रोहि@@ 542
वांशिक 542
वाकांक 542
ाकू 542
असंख 541
धातु@@ 541
पिया@@ 541
फिल@@ 541
बियाई 541
बॉय 541
युवक 541
लैब 541
विधवा 541
समलैंगिक 541
०४ 541
किरणों 540
गोविंद 540
झीलों 540
रंट 540
रासंगिक 540
वाओं 540
विचारक 540
1927 539
ँच 539
गुणा 539
जि 539
झे 539
ठता 539
डाउनलोड 539
रचालन 539
रृंख@@ 539
लोजी 539
वटी 539
सुई 539
सौदे 539
.डी@@ 538
ईमेल 538
कदा@@ 538
काक 538
कालांतर 538
गठ@@ 538
ढी@@ 538
थानांतरण 538
भासी 538
भिषेक 538
मफेयर 538
मैड 538
रंथ@@ 538
रेली 538
ैन 538
अनुभवी 537
उम@@ 537
गौर 537
याँ@@ 537
लेडी 537
सहारे 537
साइं@@ 537
साउंडट 537
हेन 537
इमारतें 536
उदाहरणों 536
घराने 536
टिनम 536
दया 536
दामो@@ 536
निकोबार 536
पापुआ 536
पैड 536
मछलियों 536
मांड@@ 536
विवादों 536
शाकाहारी 536
साड 536
ाता 536
69 535
आपत 535
तेरे 535
दिशा@@ 535
परिपूर 535
पालतू 535
पींस 535
बूत 535
मंगोलिया 535
षुद 535
ीज 535
--@@ 534
उभरा 534
एपि@@ 534
कते 534
केदार 534
खाल 534
छाया@@ 534
जोकर 534
पराज@@ 534
फेडरेशन 534
बज@@ 534
भेदों 534
मोती 534
मोहन@@ 534
रशाह 534
वकर 534
अंधे@@ 533
अभिषेक 533
अलौकिक 533
आलोचनात 533
इंडियाना 533
छता 533
जमै@@ 533
जादू@@ 533
डालते 533
तरदायित 533
फांसी 533
सलमान 533
सलाम 533
35@@ 532
इग 532
टियर 532
ताने 532
धमनी 532
पॉली@@ 532
मही@@ 532
वेच 532
सौते@@ 532
er@@ 531
चेष 531
ढने 531
तंग 531
थाय@@ 531
नांग 531
वाल@@ 531
सोशलिस 531
िज 531
१९८९ 531
अधिका@@ 530
उपनिवेश@@ 530
कवच 530
जली 530
ढांच@@ 530
दायरे 530
मजदूरों 530
मेस 530
रंखला 530
रदायों 530
वादन 530
शाती 530
संगठ@@ 530
सहाय 530
सीखा 530
हैं@@ 530
अकेला 529
अरस 529
अवक 529
कराते 529
कारें 529
चैतन 529
टली 529
टवर 529
नारियल 529
परित 529
पहना 529
मह 529
रकारी 529
राने 529
वथा 529
सियत 529
1908 528
अंडा@@ 528
गुर@@ 528
जार@@ 528
ठिर 528
डालता 528
णो@@ 528
नेह 528
परोप@@ 528
पेरा 528
फली 528
बिताया 528
बेंग@@ 528
यांश 528
रतियोगी 528
रशी@@ 528
रावली 528
शाप 528
शिका@@ 528
ारपुर 528
ity 527
ya 527
उग@@ 527
कैथरीन 527
कॉफी 527
तथाकथित 527
पंचाय@@ 527
फिन@@ 527
बहुतायत 527
मधुमक 527
लीकरण 527
वितीयक 527
1910 526
am@@ 526
अंडर@@ 526
ईंट 526
जरलैंड 526
जु 526
टीना 526
तिहा@@ 526
धतियों 526
पहुंचाने 526
पैं@@ 526
रवा 526
रिस@@ 526
शिंग 526
सुस 526
· 525
इश@@ 525
इष 525
एंटी 525
केदार@@ 525
कॉमन 525
गुणसूत 525
पंचम 525
बायोटिक 525
मंजिल 525
वालीफाई 525
षैतिज 525
la 524
ईन 524
झाने 524
तला 524
धालु 524
निकटवर 524
पेंटिंग 524
बोडिया 524
रकोप 524
राजपूतों 524
विता 524
संहि@@ 524
१९५० 524
चेल 523
चेहरा 523
दना 523
दाह 523
याम@@ 523
विवर 523
सुश 523
अपराधों 522
अमूर 522
आनंद@@ 522
खोई 522
गाते 522
टैंड 522
नवाज 522
फेयर 522
विले 522
खियों 521
पोटा@@ 521
यमय 521
रमन 521
सुक 521
हाँ 521
गोलाकार 520
जीने 520
डमैन 520
डेय 520
बैटमैन 520
भीत 520
रमेश 520
विजे@@ 520
आराधना 519
कामों 519
तकी 519
तले 519
दिलाने 519
निकली 519
निषेध 519
मसूत 519
लूम 519
लेबना@@ 519
ादी 519
१९७१ 519
1905 518
1923 518
ंडक 518
एलिस 518
चोर 518
जनी 518
जेन@@ 518
झलक 518
पिच 518
यवसायों 518
लिना 518
संभालने 518
सालाना 518
हरित 518
comment 517
आदत 517
कवरेज 517
ठानों 517
पुरूष 517
फेंक 517
बिलासपुर 517
यजीव 517
युवा@@ 517
रीकृत 517
रेषण 517
लट@@ 517
× 516
अवशोषण 516
औषधीय 516
थिल 516
निवेशकों 516
नेवालों 516
परजीवी 516
बोलचाल 516
विसर 516
सीकरण 516
1911 515
आयामी 515
इंत@@ 515
चो 515
डीए 515
नाराज 515
राहिम 515
रेखाओं 515
शॉर 515
३०० 515
केशव 514
खरे 514
गरी@@ 514
पालि 514
पिशा@@ 514
फाइड 514
बलिया 514
महासभा 514
यग 514
शेषों 514
साधारणतया 514
सिंग@@ 514
४२ 514
ंगत 513
कलेक 513
कीटों 513
कैन@@ 513
चरि@@ 513
चालुक 513
डोस 513
नकली 513
नेह@@ 513
पेशे 513
बहुविकल 513
भैरव 513
योजना@@ 513
राख 513
रिके@@ 513
हीरा 513
३७ 513
ंप 512
अवरोध 512
इसी@@ 512
चालीस 512
चौदह 512
मापने 512
मापा 512
लोदी 512
लोप 512
वेशन 512
शोक 512
सामरिक 512
हिष 512
ईसी@@ 511
कॉर@@ 511
जलाशय 511
नारद 511
पीयर 511
बुध 511
बुला 511
मीदवारों 511
मूलक 511
लेखांकन 511
विलक 511
सील 511
१९८४ 511
अभिनेताओं 510
जटिल@@ 510
टैन@@ 510
धियां 510
निलंबित 510
नुभूति 510
परिणा@@ 510
पैतृक 510
पौत 510
मले@@ 510
याचिका 510
लिपि@@ 510
वाराहाट 510
विश@@ 510
सबको 510
समाहित 510
सहभा@@ 510
२५@@ 510
३३ 510
on@@ 509
उंग@@ 509
चमक@@ 509
तुकार 509
पॉट 509
बदलती 509
बालाजी 509
मदर@@ 509
रहेंगे 509
राया 509
लाभा@@ 509
शतः 509
91 508
असल 508
रांसि@@ 508
लॉट 508
हेम 508
6,@@ 507
अराज@@ 507
अलंकृत 507
अवयवों 507
आरा@@ 507
एनएस@@ 507
करीबन 507
गारंटी 507
चिमोत 507
जॉनसन 507
तरंगों 507
धूम@@ 507
बदलता 507
मराठों 507
रणीय 507
राइम 507
रिएक 507
संतों 507
समालो@@ 507
ag@@ 506
अमर@@ 506
आठवीं 506
कोणीय 506
कोहली 506
गंभीरता 506
चियन 506
टल@@ 506
दाखिला 506
दिलीप 506
पच 506
रगढ 506
वनी 506
विन@@ 506
हनु@@ 506
३,@@ 506
di@@ 505
कीज 505
केक 505
थार 505
नायर 505
परावर 505
पीकर 505
बुजुर 505
महानगरीय 505
मेहनत 505
विकृति 505
शेयरों 505
शोभा 505
हाज 505
किटेक 504
खुफिया 504
डिफ 504
नशी@@ 504
राधि@@ 504
रूनी 504
वियर 504
7,@@ 503
एनबीसी 503
कंक 503
कोलम 503
डेविस 503
परेशानी 503
पिण 503
बारह@@ 503
यजनक 503
लोकों 503
हथ@@ 503
अथर 502
कुंजी 502
कोड@@ 502
खातों 502
गिना 502
गेहूं 502
ताद 502
तेजित 502
दिखाए 502
पोलिस 502
भेजी 502
लिनक 502
विकास@@ 502
सानी 502
.एस@@ 501
his 501
इग@@ 501
एकजुट 501
ऑडि@@ 501
चंदौसी 501
चोल 501
भृ@@ 501
महा 501
मॉड@@ 501
रिसन 501
वाम@@ 501
वालि@@ 501
हिटलर 501
३४ 501
कमजो@@ 500
कलम 500
गिरोह 500
गैलरी 500
घण 500
जीवविज 500
मतदाता 500
मनिरपेक 500
मांडू 500
यूस 500
रवाना 500
रियात 500
लज 500
वांग@@ 500
विवादित 500
अलाउद 499
गृहयुद 499
पड@@ 499
राफर 499
लेंज 499
j 498
ँगा 498
कसा@@ 498
गाम 498
टिने@@ 498
तालुका 498
दुका@@ 498
पुरोहित 498
बॉब 498
मरुस 498
रसाय@@ 498
शपुर 498
93 497
कहला@@ 497
धरा 497
वाधीनता 497
शांति@@ 497
शिरो@@ 497
खगोलशास 496
चॉ@@ 496
टोग 496
धोखा 496
नोक 496
रिवाज 496
संगमरमर 496
साधक 496
सेम 496
एसी@@ 495
तह 495
धीर 495
पीएस 495
पुरुष@@ 495
बूझकर 495
लाय@@ 495
शुभार@@ 495
सहार@@ 495
1916 494
ंतु 494
इनमे 494
किर@@ 494
गोवि@@ 494
साद 494
आपातकालीन 493
भरतपुर 493
मसमर 493
यूई@@ 493
योजित 493
रबै@@ 493
लैंग@@ 493
सचे@@ 493
ंडर@@ 492
अरा@@ 492
जायेगी 492
वेध@@ 492
सुझा@@ 492
सोन@@ 492
आधार@@ 491
उपवास 491
यिकीक 491
८.@@ 491
इंजेक 490
दरअसल 490
मिलना 490
वंशों 490
… 490
In 489
ap@@ 489
गुजरती 489
ऽ@@ 489
जानेवाले 488
महेंद 488
मूसा 488
यूटिंग 488
रतिबन 488
वाजपेयी 488
हिरा 488
DVD 487
कुलपति 487
साउ@@ 487
80@@ 486
आवा@@ 486
कव@@ 486
बादी 486
मृदा 486
वीक 486
हरण 486
ओल@@ 485
काजी 485
कॉलेजों 485
खिक 485
तकनी@@ 485
ab@@ 484
er 484
मानती 484
योधन 484
विध@@ 484
5000 483
लौकिक 483
समझाने 483
निकों 482
पादरी 482
फॉल 482
89 481
94 481
en@@ 481
आईपीएल 481
एनि@@ 480
टमैन 480
आतंक@@ 479
यीं 478
रागढ 478
at@@ 477
भग 477
जर@@ 476
उदाह@@ 475
एसोसिए@@ 475
6.@@ 472
un@@ 472
ताइ@@ 472
नानी 472
नेशिया 472
नोन 472
79 470
10.@@ 469
WWE 469
Windows 468
ia 467
कद@@ 467
पायर 467
सपुर 467
विड 466
सेफ 464
भरत@@ 463
सिल@@ 463
चारिक 462
ळ 462
2,000 461
मंगो@@ 461
1915 459
तारी@@ 459
गेश 458
विजन 458
11.@@ 456
वाता@@ 456
विकि@@ 456
1906 453
नगर@@ 453
1500 452
le@@ 452
or@@ 451
चौद@@ 451
रदू@@ 451
हृ@@ 451
1901 450
IN@@ 450
निषे@@ 450
हुल 450
मश@@ 449
parentid 448
आपात@@ 448
इंडो@@ 448
मिकता 448
दिरों 447
नागरी 447
हिक 447
निवृत 446
रमे@@ 445
9.@@ 444
जटि@@ 444
तुल@@ 444
फेड@@ 443
संहार 443
্ 443
200@@ 442
el@@ 442
बोल@@ 442
OS 441
et 441
चय@@ 440
वाली@@ 440
तगा@@ 439
रतिनि@@ 439
sh@@ 438
ंदगी 438
इंग@@ 438
் 436
लुओं 434
वज@@ 434
co@@ 433
180 432
1904 432
पूं@@ 432
मिं@@ 432
ine 431
ology 430
बसा@@ 430
थाई@@ 429
160 428
720 428
8,@@ 428
चुंब@@ 428
रोफे@@ 428
सना@@ 428
जीवि@@ 426
ak@@ 425
विल@@ 425
1896 424
IV 424
ंदी 424
1909 423
डाउन@@ 423
1913 421
7.@@ 420
गृह@@ 420
रेडि@@ 420
Microsoft 419
भूत@@ 419
यारी 419
350 417
मनोरं@@ 417
have 416
चालन 416
चुना@@ 416
wiki 415
900 414
es@@ 414
हिब 414
In@@ 413
तुर@@ 413
यायाधी@@ 413
किया@@ 412
नमू@@ 412
UK 411
खगोल@@ 410
ूत 410
th 409
घोष@@ 409
नियां 409
་ 409
NBC 408
ated 408
आधु@@ 408
थिय@@ 408
लेन@@ 408
1907 407
CD@@ 407
ous 407
फाई 407
विधान@@ 407
he 406
धीय 406
110 405
An@@ 405
ad 405
align 405
सूस 405
CO@@ 404
कालि@@ 404
टती 404
70@@ 403
de@@ 403
जंग@@ 402
डिवी@@ 402
J 401
thumb 401
चान 401
HIV 400
kh@@ 399
एंड@@ 399
2.0 398
is@@ 398
लेंडर 398
not 397
ur@@ 397
गंगो@@ 397
परी 397
फस@@ 397
ारस 397
130 396
एव 396
दुः@@ 396
मिया@@ 396
1890 395
Ar@@ 395
फिस 395
विषा@@ 395
वाहिक 394
8.@@ 392
has 392
3000 391
टीय 391
लरी 391
ैतिक 391
34@@ 390
60@@ 390
आलोच@@ 390
परियोज@@ 390
पहल@@ 390
गना 389
दाहि@@ 388
मौजू@@ 388
कोत 387
9,@@ 386
100,000 385
108 385
पंचा@@ 385
शिंगटन 385
अनुसं@@ 384
असम@@ 383
किलो@@ 383
55@@ 382
center 382
ism 382
Re@@ 381
नून 381
परंपरा@@ 381
140 380
el 380
यूजी@@ 380
id@@ 379
text 379
वेली 378
also 377
ers 377
कैल@@ 377
खतर@@ 377
AD@@ 376
ai 376
दीकी 376
वैधानिक 376
--- 375
3.5 375
चिका 375
रानी@@ 375
1902 374
Q 374
meridian 374
रोजग@@ 374
ऊँ 373
हरिया@@ 373
रासत 372
ियंस 372
एनिमे@@ 371
लात 371
.सी@@ 370
ic@@ 370
name 370
कारो@@ 369
गोरख@@ 369
रणों 369
AT 368
it@@ 367
खूब@@ 366
लगाव 366
वभौ@@ 366
Indian 365
ite 365
रामी@@ 363
14.@@ 362
3,000 362
12.@@ 361
1880 361
ot@@ 360
छित 359
MS 356
बेह@@ 356
ऱ 356
le 355
रतियोगि@@ 355
ra 354
z 354
जीरिया 354
Al@@ 353
ईसा@@ 353
गोरी 352
bdi 350
om@@ 350
1800 349
1899 349
50,000 349
ST@@ 349
ical 349
सफल@@ 349
Rousseau 348
ंख@@ 348
किंग@@ 348
20,000 347
पुरू@@ 347
यमु@@ 347
रेंद 347
औरंग@@ 346
गिस 346
ol@@ 345
ओडि@@ 345
Kh@@ 344
ations 344
पिछ@@ 344
माज 344
रतियो@@ 344
ec@@ 343
op@@ 343
समे 343
धारणा@@ 342
पेशे@@ 342
मिसाइ@@ 342
codice 341
13.@@ 340
this 340
125 339
ac@@ 339
पनों 339
पीडिया 339
1895 338
ˈ@@ 338
1903 337
सिफारि@@ 337
ृंग@@ 336
AC 335
बराम@@ 335
संबंध@@ 335
NA 334
बित 334
1860 333
जें@@ 333
1898 332
18@@ 332
Highway 332
ae 332
av@@ 332
ph@@ 332
q 332
747 331
जें 331
यारण 331
1858 330
ana 330
SO@@ 329
TV 329
IC@@ 328
अंतरा@@ 328
इका@@ 328
1889 327
22@@ 327
विनि@@ 327
1870 326
इनल 326
निवार@@ 326
बारा 326
दशी 325
फड 325
मानवा@@ 324
रआन 324
वियत@@ 324
105 323
1885 322
33@@ 322
SC 322
गिक 322
फान 322
1891 321
ed@@ 321
og@@ 321
² 321
,000 320
1887 320
आनुवं@@ 320
बेथ 320
u@@ 319
राजपू@@ 319
ul@@ 318
कोय@@ 318
its 317
इंजीनिय@@ 317
র@@ 317
एह@@ 316
बेड@@ 316
Sh@@ 315
ha 315
ियल 315
AL@@ 314
TS 314
ent 313
एटर 313
revision 312
शासन@@ 312
रिष 311
सटी@@ 311
तेह@@ 310
रेजि@@ 310
10,@@ 309
104 309
1897 309
can 309
z@@ 309
101 308
BC 308
River 308
id 307
ma 307
पेशियों 307
system 306
कोह@@ 306
खार 306
गीत@@ 306
हिए 306
1894 305
Th@@ 305
टलर 305
लाश 305
नाट@@ 303
360 302
pr@@ 302
se 302
ā@@ 302
लंबित 302
लाइसे@@ 302
1888 301
90@@ 301
ary 301
em@@ 301
et@@ 301
right 301
1,0@@ 300
ir@@ 300
ti@@ 300
ব@@ 300
SA@@ 299
ator 299
ka 299
थौ@@ 299
राथ@@ 299
230 298
ro@@ 298
1882 297
all 297
tic 297
tion 297
खला 297
0,@@ 296
WWF 296
da 296
नसन 295
निर@@ 295
Ig@@ 294
झार@@ 294
19@@ 293
36@@ 293
wikitext 293
टबॉल 293
DC 292
ay@@ 292
dis@@ 292
एथ@@ 292
1886 291
able 291
il@@ 291
जागरू@@ 291
यास@@ 291
Man@@ 290
na 290
कामया@@ 290
विविध@@ 290
शुरु@@ 290
100@@ 289
As 289
ISO 289
MA 289
w 289
तीयक 289
15.@@ 288
21@@ 288
47@@ 288
time 288
संशो@@ 288
CI@@ 287
ari 287
ंदु 287
कील 287
टकों 287
बलि@@ 287
1892 286
अवै@@ 286
बिज@@ 286
CA@@ 285
NT@@ 285
\ 285
विप@@ 285
16.@@ 284
4,000 284
group 284
po@@ 284
हारिक 284
102 283
1893 283
SP@@ 283
lo@@ 282
भवतः 282
घटन 281
फाउ@@ 281
यरों 281
युग@@ 281
ি@@ 281
their 279
CH@@ 278
U.S. 278
li@@ 278
man 278
os@@ 278
रताप@@ 278
1.2 277
750 277
38@@ 276
अनंत@@ 276
जोखि@@ 276
CD 275
^ 275
गेंद@@ 275
tr@@ 274
1884 273
two 273
शही@@ 273
1200 272
als 272
आयर@@ 272
एंटर@@ 272
सेमी@@ 272
05@@ 271
st@@ 271
27.@@ 270
PC 270
Par@@ 270
गू 270
समझौ@@ 270
ative 269
ॠ@@ 269
ach@@ 268
कैथ@@ 268
तिकता 268
तिग 268
रखा@@ 268
37@@ 266
भया@@ 266
LA 265
~ 265
तीत 265
SE@@ 264
Sam@@ 264
km 264
450 263
BS 263
Institute 263
ऎ@@ 263
106 262
1850 261
1881 261
ang@@ 261
ons 261
दायी 261
to@@ 260
अटलां@@ 260
कमी@@ 260
4000 259
hi 259
more 259
0.5 258
FA 258
ho@@ 258
were 258
लोकन 258
1867 257
ch 257
इसे@@ 257
भेद@@ 257
103 256
AT@@ 256
राजनी@@ 255
18.@@ 254
190@@ 254
PA 254
ance 254
ik@@ 254
് 254
डेन@@ 253
1872 252
1876 252
α 252
तथा@@ 252
पीएच@@ 252
ala 251
first 251
number 251
war 251
115 250
ating 250
but 250
im@@ 250
लखी@@ 250
1883 249
q@@ 249
ta 249
48@@ 248
Bar@@ 248
ting 248
सवी 248
UN@@ 247
age 247
ath@@ 247
os 246
other 246
अमृत@@ 246
Google 245
MTV 245
गानिस 245
बीमार@@ 245
रासं@@ 245
→ 245
Co@@ 244
RS 244
This 244
World 244
had 244
par@@ 244
ंगरी 244
1848 243
1878 243
ंचाई 243
बोधित 243
109 242
65@@ 242
AN@@ 242
AP@@ 242
ant 242
no@@ 242
ut@@ 242
गोला@@ 242
सिंहा@@ 242
been 241
ish@@ 241
संक@@ 241
.-@@ 240
1700 240
It 240
us@@ 240
ম@@ 240
GE 239
1871 238
US@@ 238
aj@@ 238
योगकर 238
30,000 237
IP@@ 237
ics 237
खली@@ 237
1865 236
जेब 236
21.@@ 235
22.@@ 235
औ 235
जने 235
सानों 234
€ 234
KM 233
गापुर 233
000,000 232
220 232
University 232
ii 232
than 232
1868 231
AB@@ 231
IC 231
International 231
ंकन 231
यण 231
षदों 231
001 230
1861 230
HD 230
Per@@ 230
bi@@ 230
html 230
ing@@ 230
107 229
17.@@ 229
1875 229
6,000 229
Am@@ 229
CS@@ 229
te 229
1873 228
उजा@@ 228
रंगा@@ 228
1877 227
78@@ 227
CC@@ 227
ha@@ 227
sp@@ 227
अत@@ 227
ृंख@@ 227
Mah@@ 226
Mar@@ 226
ah 226
ans 226
oc@@ 226
इतिहास@@ 226
साब 226
్ 226
AC@@ 225
CE@@ 225
NO@@ 225
0.1 224
SE 224
har@@ 224
law 224
.jpg 223
IP 223
ani 223
um@@ 223
used 223
नदार 223
DNA 222
FID 222
MI@@ 222
ol 222
ক@@ 222
170 221
1.3 220
1.6 220
1879 220
59.@@ 220
CE 220
ak 220
las 220
टतम 220
परेशा@@ 220
भारती@@ 220
23.@@ 219
Con@@ 219
DA 219
St@@ 219
ke 219
್ 219
1856 218
320 218
46@@ 218
FDA 218
poem 218
who 218
ল@@ 218
1600 217
1859 217
1830 216
19.@@ 216
LS 216
RA@@ 216
and@@ 216
sub@@ 216
षाण 216
हानि@@ 216
128 215
1840 215
4.5 215
GB 215
Pr@@ 215
car@@ 215
ri@@ 215
युगीन 215
रचु@@ 215
सोसिए@@ 215
1.1 214
56@@ 214
WCW 214
सराह@@ 214
ata 213
दोलनों 213
.NET 212
114 212
1866 212
2500 212
जूरी 212
हदी@@ 212
AI@@ 211
RE@@ 211
me 211
घु 211
20.@@ 210
ist 210
बिल@@ 210
राली 210
सून 210
1863 209
no 209
आउ@@ 209
7.5 208
ali 208
function 208
west 208
अमि@@ 208
धना 208
भुग@@ 208
IM@@ 207
ND@@ 207
वरु@@ 207
া 207
1,4@@ 206
112 206
126 206
AS 206
px 206
44@@ 205
cr@@ 205
hi@@ 205
ty 205
सफे@@ 205
ISBN 204
SA 204
ex@@ 204
use 204
हिंद@@ 204
ন 204
-1 203
43@@ 203
AD 203
OH 203
ara 203
ti 203
जुट 203
116 202
1818 202
25.@@ 202
CA 202
Cl@@ 202
दून 202
ऱ@@ 202
॒ 202
1.8 201
1854 201
1874 201
MS@@ 201
east 201
haplo@@ 201
डनी 201
नलों 201
रेर@@ 201
11,@@ 200
380 200
Nag@@ 200
ates 200
br@@ 200
per@@ 200
190 199
AM@@ 199
BE 199
File 199
ob@@ 199
value 199
ंचर 199
गणि@@ 199
पचा@@ 199
1.4 198
111 198
CO 198
CP@@ 198
HTML 198
ep@@ 198
ter 198
type 198
12,@@ 197
63@@ 197
BBC 197
CO2 197
Pat@@ 197
SI 197
od@@ 197
s.@@ 197
ts 197
परी@@ 197
पात@@ 197
1869 196
49@@ 196
रखाव 196
124 195
75@@ 195
@ 195
S.@@ 195
such 195
इमार@@ 195
दाज 195
240 194
New 194
mo@@ 194
parallel 194
ə@@ 194
घरेल@@ 194
जूद 194
फैस@@ 194
साझे@@ 194
39@@ 193
AP 193
माम 193
लाब 193
1815 192
8,000 192
AR@@ 192
En@@ 192
ki 192
सलाह@@ 192
1,5@@ 191
Ac@@ 191
Me@@ 191
VI 191
go@@ 191
they 191
भाषित 191
सीई@@ 191
ু@@ 191
122 189
SW@@ 189
WHO 189
der 189
णकटि@@ 189
র 189
1864 188
2.4 188
500,000 188
BM@@ 188
Ex@@ 188
amp@@ 188
ari@@ 188
ino 188
pH 188
षम@@ 188
144 187
English 187
O2 187
Ph@@ 187
eg@@ 187
energy 187
tive 187
उपयोगि@@ 187
काता 187
1820 186
He 186
ah@@ 186
ge@@ 186
æ@@ 186
कठि@@ 186
लीवुड 186
bit 185
bo@@ 185
point 185
β 185
रमि@@ 185
ॄ@@ 185
117 184
138 184
14,@@ 184
7,000 184
con@@ 184
काब@@ 184
मलया@@ 184
1855 183
RI@@ 183
121 182
123 182
650 182
Di@@ 182
Div@@ 182
between 182
ene 182
inter@@ 182
into 182
man@@ 182
­ 182
जिस@@ 182
वारा@@ 182
118 181
DN 181
li 181
line 181
1803 180
26.@@ 180
6000 180
ID 180
IT@@ 180
Se@@ 180
se@@ 180
theory 180
up 180
113 179
210 179
25,000 179
Mo@@ 179
si@@ 179
ठार@@ 179
बुनिया@@ 179
1.0 178
IS 178
IT 178
jpg 178
only 178
1- 177
145 177
24.@@ 177
CP 177
Dis@@ 177
SD@@ 177
hai 177
ig@@ 177
ॆ 177
les 176
भां@@ 176
1400 175
Cl 175
II@@ 175
Mas@@ 175
NH@@ 175
he@@ 175
language 175
औप@@ 175
पंजा@@ 175
ES@@ 174
Qu@@ 174
RA 174
alism 174
anti@@ 174
gr@@ 174
ment 174
nam@@ 174
out 174
ठाकु@@ 174
भाल 174
मुग@@ 174
16,@@ 173
1851 173
330 173
Kal@@ 173
Na@@ 173
SQL 173
SS@@ 173
il 173
where 173
ে@@ 173
.org 172
13,@@ 172
550 172
osis 172
sion 172
ː@@ 172
तका@@ 172
1845 171
2.3 171
CT 171
IQ 171
John 171
left 171
me@@ 171
power 171
ɪ@@ 171
तावे@@ 171
संभ@@ 171
132 170
1835 170
1853 170
CR@@ 170
De@@ 170
TA 170
टेनमेंट 170
लखन@@ 170
COVID 169
Ram@@ 169
languages 169
oph@@ 169
ter@@ 169
शप 169
2.2 168
57@@ 168
H.@@ 168
M.@@ 168
TE@@ 168
Tr@@ 168
Un@@ 168
` 168
ess 168
ni@@ 168
कानू@@ 168
2.1 167
2023 167
66@@ 167
form 167
mon@@ 167
most 167
ors 167
सूची@@ 167
हैद@@ 167
15,@@ 166
Col@@ 166
ati 166
ation@@ 166
aw@@ 166
ted 166
1,500 165
GP@@ 165
WH 165
bar@@ 165
ea 165
hy@@ 165
will 165
एजेंस@@ 165
लिमि@@ 165
1,8@@ 164
1819 164
2- 164
atic 164
land 164
मिथि@@ 164
স@@ 164
12,000 163
1817 163
5.5 163
A.@@ 163
IF@@ 163
ore 163
ve 163
बिला@@ 163
शः 163
सतपु@@ 163
AA 162
USB 162
be@@ 162
so 162
up@@ 162
000@@ 161
1,6@@ 161
40,000 161
BMW 161
MC 161
MP@@ 161
United 161
ath 161
colspan 161
esh@@ 161
ological 161
state 161
कॉले@@ 161
ताराम@@ 161
शाका@@ 161
ौद 161
॑ 161
দ@@ 161
1843 160
ERP 160
Open 160
PS 160
agar 160
किता@@ 160
मीमां@@ 160
141 159
15,000 159
280 159
32@@ 159
As@@ 159
CL@@ 159
MSN 159
water 159
हेब 159
29.@@ 158
CM@@ 158
On 158
PO@@ 158
Su@@ 158
era 158
est 158
if 158
ו@@ 158
गोलीय 158
850 157
Bal@@ 157
TC 157
current 157
ong 157
over 157
जबा@@ 157
दीना 157
मीद@@ 157
यौगि@@ 157
165 156
CC 156
Car@@ 156
Mal@@ 156
Ne@@ 156
body 156
e.@@ 156
π 156
ி@@ 156
201 155
Ad@@ 155
My@@ 155
ada 155
ai@@ 155
des 155
ina 155
may 155
́ 155
थेरे@@ 155
मुकाब@@ 155
1847 154
A5 154
Po@@ 154
ence 154
end 154
per 154
set 154
धरी 154
1.7 153
175 153
67@@ 153
Ge@@ 153
USA 153
pe@@ 153
when 153
ா@@ 153
1862 152
200,000 152
270 152
Be@@ 152
GDP 152
Inter@@ 152
Raj@@ 152
kar@@ 152
ন@@ 152
Cs 151
NS@@ 151
a.@@ 151
ant@@ 151
ms 151
series 151
tics 151
world 151
ऽ 151
1844 150
C2@@ 150
ay 150
pi@@ 150
pre@@ 150
sa 150
तालु@@ 150
तीस@@ 150
नाभि@@ 150
राजी@@ 150
131 149
133 149
1839 149
3.1 149
59@@ 149
Kar@@ 149
Sar@@ 149
VO@@ 149
end@@ 149
some 149
י@@ 149
142 148
CEO 148
GP 148
abad 148
apur 148
ind@@ 148
दोन 148
मोली 148
रधान@@ 148
148 147
17,@@ 147
Ab@@ 147
CN@@ 147
Com@@ 147
SP 147
ang 147
ati@@ 147
him 147
light 147
tic@@ 147
शारी@@ 147
0.2 146
DR 146
NET 146
do@@ 146
force 146
ian 146
ne@@ 146
style 146
इतिहा@@ 146
जाघर 146
सोल@@ 146
় 146
】 146
136 145
1849 145
6.5 145
76@@ 145
8.5 145
Hindi 145
PS@@ 145
any 145
लाफ 145
विराज@@ 145
Al 144
RNA 144
SAP 144
her 144
mi 144
उपनि@@ 144
मथु@@ 144
राती 144
【 144
1789 143
1838 143
8000 143
Le@@ 143
Or@@ 143
SS 143
South 143
Tri@@ 143
after 143
ally 143
cor@@ 143
ica 143
str@@ 143
we 143
well 143
पाठी 143
हराई 143
ত@@ 143
க@@ 143
264 142
53@@ 142
A. 142
Cor@@ 142
NY@@ 142
Research 142
do 142
idae 142
ir 142
1100 141
137 141
146 141
152 141
1837 141
American 141
System 141
ac 141
di 141
eh@@ 141
many 141
res@@ 141
so@@ 141
vi@@ 141
yl@@ 141
ओँ 141
दाय 141
ऩ@@ 141
शनि@@ 141
127 140
1832 140
1842 140
185 140
300@@ 140
AN 140
AOL 140
action 140
ash@@ 140
data 140
ov@@ 140
ties 140
ా@@ 140
154 139
155 139
199@@ 139
928 139
DP 139
P.@@ 139
SI@@ 139
Sc@@ 139
Te@@ 139
edi@@ 139
pro@@ 139
ver@@ 139
1300 138
134 138
153 138
3.0 138
58@@ 138
FS 138
Mad@@ 138
PN@@ 138
Pro@@ 138
UEFA 138
az@@ 138
ly 138
tis 138
तें@@ 138
166 137
1770 137
1801 137
1805 137
260 137
54@@ 137
68@@ 137
ME@@ 137
for@@ 137
same 137
ton 137
ura 137
´ 137
खुला@@ 137
तिकी 137
119 136
129 136
225 136
3.2 136
Az@@ 136
B.@@ 136
For 136
UM@@ 136
eb@@ 136
ists 136
ng 136
pl@@ 136
एयरलाइ@@ 136
मूली 136
मेर@@ 136
वाज@@ 136
157 135
28.@@ 135
74@@ 135
BA 135
ER@@ 135
Go@@ 135
HSV 135
NH 135
V6 135
YouTube 135
aceae 135
field 135
garh 135
mm 135
psychology 135
title 135
इंजी@@ 135
कंदर 135
कॉमे@@ 135
टिश 135
पोलियन 135
यादा@@ 135
ர@@ 135
1,3@@ 134
86@@ 134
888 134
Act 134
Cal@@ 134
First 134
GSM 134
Kan@@ 134
Oracle 134
RFC 134
Ro@@ 134
ST 134
lu@@ 134
mass 134
सामू@@ 134
सैंण 134
1824 133
3D 133
El@@ 133
Har@@ 133
PE@@ 133
TV@@ 133
au@@ 133
trans@@ 133
आलो@@ 133
सिफ@@ 133
য 133
116@@ 132
1846 132
98@@ 132
Rh@@ 132
about 132
uri 132
ंने 132
चेता@@ 132
ো@@ 132
143 131
149 131
340 131
ABC 131
AI 131
Bot 131
ell@@ 131
ents 131
ings 131
mart@@ 131
non 131
pal@@ 131
ve@@ 131
war@@ 131
ī@@ 131
नुक@@ 131
॓ 131
1707 130
235 130
DR@@ 130
Group 130
IATA 130
IBM 130
ICAO 130
ants 130
ens 130
ji 130
log@@ 130
ra@@ 130
wa 130
151 129
1799 129
1833 129
1841 129
202 129
Ma@@ 129
ability 129
adi 129
arg@@ 129
people 129
qu@@ 129
re 129
tical 129
ue 129
ऑन@@ 129
बंगा@@ 129
मैथि@@ 129
युगा@@ 129
1,9@@ 128
182 128
2,0@@ 128
3.3 128
AB 128
ALL 128
For@@ 128
La 128
Lee 128
NT 128
Pan@@ 128
XX@@ 128
ent@@ 128
hu@@ 128
ins 128
कैथो@@ 128
भाँ@@ 128
--------@@ 127
156 127
1826 127
205 127
23,@@ 127
AG 127
DS 127
Fe@@ 127
GA 127
RT@@ 127
SAT 127
ational 127
based 127
color 127
du 127
electric 127
ni 127
through 127
tri@@ 127
tu@@ 127
-2 126
158 126
64@@ 126
IB@@ 126
MAS 126
PL@@ 126
ane 126
un 126
अधिक@@ 126
नशिप 126
159 125
1775 125
1806 125
1814 125
7000 125
Br@@ 125
DNS 125
IR@@ 125
MO@@ 125
RO@@ 125
Ver@@ 125
called 125
ci@@ 125
cu@@ 125
dr@@ 125
ru@@ 125
three 125
18,@@ 124
Technology 124
col@@ 124
ie 124
ip@@ 124
known 124
ne 124
ot 124
ozo@@ 124
st 124
te@@ 124
वजन@@ 124
ED@@ 123
EMI 123
Sal@@ 123
XP 123
em 123
ory 123
process 123
second 123
su@@ 123
º 123
मुसल@@ 123
4.2 122
978 122
ets 122
ok@@ 122
there 122
would 122
सोलह@@ 122
1,7@@ 121
163 121
1750 121
1852 121
370 121
139 120
1825 120
9,000 120
TE 120
hal@@ 120
mar@@ 120
oid 120
ora 120
sc@@ 120
डीवी@@ 120
मुँ@@ 120
172 119
640 119
DL@@ 119
Pakistan 119
Singh 119
WA 119
att@@ 119
chrom@@ 119
iy@@ 119
ner 119
son 119
ure 119
नात@@ 119
′ 119
120@@ 118
164 118
1793 118
211 118
LO@@ 118
MP 118
RC 118
angle 118
aon 118
bu@@ 118
each 118
film 118
indi@@ 118
mer@@ 118
½ 118
डिजि@@ 118
1834 117
2.7 117
400@@ 117
AR 117
AV@@ 117
DS@@ 117
F1 117
San 117
gen@@ 117
ma@@ 117
पसं@@ 117
सेक@@ 117
த@@ 117
1761 116
1836 116
2,500 116
73.@@ 116
AF 116
An 116
Ap@@ 116
Corporation 116
Pal@@ 116
Si@@ 116
ale 116
ca 116
har 116
iv@@ 116
like 116
width 116
wikipedia.org 116
महमू@@ 116
ర@@ 116
192 115
Av@@ 115
EF@@ 115
NZ@@ 115
Sp@@ 115
air 115
com@@ 115
equ@@ 115
ile 115
ist@@ 115
kar 115
oh@@ 115
ps 115
कराचार 115
दिमा@@ 115
यहू@@ 115
် 115
0.4 114
0.7 114
147 114
195 114
20,@@ 114
256 114
500@@ 114
79@@ 114
RAM 114
UR@@ 114
ain 114
ri 114
ंडिया 114
আ@@ 114
0.6 113
168 113
169 113
1776 113
1783 113
1821 113
1831 113
3- 113
3.4 113
3.6 113
Cr@@ 113
EC@@ 113
IA 113
Long@@ 113
aya 113
both 113
distance 113
duc@@ 113
hat@@ 113
her@@ 113
mal@@ 113
new 113
बंधीय 113
প@@ 113
1792 112
1829 112
212 112
217 112
77@@ 112
9000 112
99@@ 112
BD 112
EC 112
LAN 112
MHz 112
State 112
common 112
during 112
esh 112
est@@ 112
und@@ 112
बें 112
1.9 111
161 111
Bo@@ 111
DE@@ 111
H2@@ 111
Inc. 111
ase 111
cl@@ 111
od 111
ole 111
pa 111
these 111
under 111
0.3 110
167 110
1765 110
188 110
19,@@ 110
203 110
206 110
3G 110
4- 110
999 110
EN@@ 110
Mon@@ 110
ness 110
1526 109
1772 109
30.@@ 109
4.0 109
CBS 109
D. 109
FI@@ 109
Last 109
M. 109
San@@ 109
XI 109
bl@@ 109
ee 109
ks 109
lin@@ 109
then 109
ר@@ 109
नीदर@@ 109
ारिज 109
● 109
150@@ 108
1804 108
1827 108
1828 108
2.8 108
AF@@ 108
Apple 108
DM 108
DV@@ 108
Iglesia 108
Is@@ 108
MV 108
PT@@ 108
RN@@ 108
So@@ 108
ab 108
complex 108
cy@@ 108
ler 108
ley 108
method 108
news 108
nm 108
order 108
tions 108
मोबा@@ 108
सोड 108
1773 107
1812 107
300,000 107
480 107
84@@ 107
Des@@ 107
Pre@@ 107
R.@@ 107
Samsung 107
Tar@@ 107
all@@ 107
aur 107
code 107
day 107
met@@ 107
pur@@ 107
ster 107
tor@@ 107
year 107
σ 107
1823 106
365 106
60,000 106
Temple 106
Trans@@ 106
au 106
dec@@ 106
gan@@ 106
pu@@ 106
ran@@ 106
super@@ 106
work 106
± 106
भरो@@ 106
सहम@@ 106
ு@@ 106
162 105
1764 105
1788 105
1816 105
204 105
420 105
NE@@ 105
Nar@@ 105
Sony 105
States 105
Str@@ 105
cat@@ 105
circuit 105
istic 105
ium 105
prot@@ 105
sin@@ 105
थिये@@ 105
पेयी 105
रोमां@@ 105
विटा@@ 105
सामु@@ 105
हाटी 105
জ@@ 105
117@@ 104
1780 104
1790 104
1798 104
250,000 104
85@@ 104
87@@ 104
College 104
H2O 104
Khan 104
One 104
Res@@ 104
Sch@@ 104
ain@@ 104
air@@ 104
constant 104
ding 104
ement 104
eng@@ 104
gi@@ 104
och@@ 104
ong@@ 104
pat@@ 104
phot@@ 104
public@@ 104
und 104
विधे@@ 104
হ@@ 104
ಾ@@ 104
1,200 103
1774 103
2.6 103
AIDS 103
Category 103
IE@@ 103
ME 103
Ni@@ 103
PC@@ 103
TP 103
ax@@ 103
ba@@ 103
ere 103
ev@@ 103
ial 103
im 103
int 103
ud@@ 103
uk@@ 103
years 103
� 103
22,@@ 102
39.@@ 102
4.1 102
5.0 102
6.2 102
Dev@@ 102
E. 102
FO@@ 102
LP 102
North 102
RT 102
U.@@ 102
ail 102
ential 102
ging 102
gov@@ 102
ies 102
ng@@ 102
our 102
period 102
south 102
ste@@ 102
ung@@ 102
wave 102
بن 102
वीप@@ 102
हथिय@@ 102
ਾ@@ 102
1757 101
1784 101
181 101
Bas@@ 101
LC 101
Lo@@ 101
PR 101
Pi@@ 101
ROM 101
Sa@@ 101
Ter@@ 101
adi@@ 101
ali@@ 101
area 101
del 101
ge 101
high 101
hin@@ 101
inal 101
ko 101
loc@@ 101
north 101
numbers 101
sol@@ 101
sur@@ 101
using 101
va 101
कांक 101
￼ 101
38.@@ 100
75.@@ 100
Association 100
CF@@ 100
DI 100
ICC 100
J. 100
LE@@ 100
PH@@ 100
Val@@ 100
af@@ 100
ency 100
eth@@ 100
iz@@ 100
micro@@ 100
way 100
नामां@@ 100
लोरि@@ 100
ാ@@ 100
178 99
1795 99
245 99
Ag@@ 99
Bi@@ 99
By 99
CI 99
Central 99
Hu@@ 99
IX 99
SR@@ 99
Ser@@ 99
VII 99
Web 99
ann@@ 99
ap 99
back 99
cap@@ 99
enti@@ 99
han@@ 99
ion 99
less 99
mu@@ 99
out@@ 99
phy@@ 99
rec@@ 99
ser@@ 99
चंडी@@ 99
दौसी 99
षै@@ 99
-3 98
0.8 98
183 98
215 98
37.@@ 98
88@@ 98
All 98
CS 98
I.@@ 98
ection 98
king 98
off 98
0,0@@ 97
192@@ 97
3.7 97
4.4 97
C6@@ 97
FC 97
Gar@@ 97
IG@@ 97
RI 97
SO4 97
Society 97
ba 97
book@@ 97
ling 97
list 97
ode 97
tel@@ 97
ug@@ 97
ular 97
unit 97
θ 97
दूरों 97
मुज@@ 97
110@@ 96
1556 96
177 96
1802 96
184 96
193@@ 96
4.3 96
Co 96
Do@@ 96
EP 96
ET 96
MI 96
MPEG 96
PV 96
SL@@ 96
change 96
du@@ 96
que 96
them 96
तमिल@@ 96
1760 95
221 95
28,@@ 95
5.2 95
Ban@@ 95
DE 95
HC 95
He@@ 95
Mc@@ 95
ality 95
amb@@ 95
ek@@ 95
esis 95
han 95
heat 95
ht@@ 95
minor 95
mod@@ 95
ta@@ 95
yn@@ 95
पसी 95
रलाल 95
विकता 95
ம@@ 95
115@@ 94
1822 94
195@@ 94
3500 94
6.0 94
Mac@@ 94
School 94
Siemens 94
Sur@@ 94
T. 94
act 94
ella 94
equation 94
mat@@ 94
ography 94
pol@@ 94
pressure 94
धारण@@ 94
पहर 94
यापार@@ 94
ల@@ 94
ರ@@ 94
193 93
232 93
25,@@ 93
310 93
Bhar@@ 93
CV 93
DT 93
EM@@ 93
V8 93
ages 93
cell 93
ib@@ 93
kr@@ 93
lam@@ 93
made 93
ota 93
systems 93
tion@@ 93
ulation 93
γ 93
खिला 93
गित 93
सैम@@ 93
हमे@@ 93
----@@ 92
171 92
176 92
1787 92
2,8@@ 92
265 92
36,@@ 92
Council 92
DO@@ 92
Development 92
Great 92
PET 92
PG 92
R. 92
Social 92
VI@@ 92
book 92
das 92
ds 92
imp@@ 92
neur@@ 92
oth@@ 92
ua 92
« 92
थली@@ 92
मचार@@ 92
सऊ@@ 92
ौती 92
179 91
26,@@ 91
275 91
3,0@@ 91
5.6 91
74.@@ 91
99.@@ 91
Char@@ 91
EU 91
S. 91
To@@ 91
We@@ 91
William 91
acid 91
chi 91
cos@@ 91
district 91
ess@@ 91
poly@@ 91
si 91
२००@@ 91
2,5@@ 90
227 90
48.@@ 90
80,000 90
95@@ 90
AE@@ 90
BO@@ 90
Ca@@ 90
Company 90
FIFA 90
HT@@ 90
MB 90
SB 90
Shar@@ 90
Ta@@ 90
acy 90
dh@@ 90
fer@@ 90
fl@@ 90
ke@@ 90
my 90
tra 90
ऋ 90
भुव@@ 90
मेह 90
साउंड@@ 90
1813 89
24,@@ 89
3.8 89
325 89
66.@@ 89
69@@ 89
E.@@ 89
ER 89
Hy@@ 89
ML@@ 89
asa 89
being 89
ides 89
inf@@ 89
itis 89
place 89
tric 89
vol@@ 89
पुआ 89
योगियों 89
ి@@ 89
114@@ 88
1540 88
173 88
250@@ 88
3,7@@ 88
35.@@ 88
404 88
5.1 88
B. 88
General 88
Ma 88
ans@@ 88
ek 88
fo@@ 88
given 88
life 88
low 88
oma 88
sam@@ 88
ung 88
א@@ 88
बिनेट 88
बीका@@ 88
ச@@ 88
ക@@ 88
1550 87
1763 87
1785 87
5.4 87
AG@@ 87
C. 87
Elec@@ 87
Er@@ 87
GNU 87
K. 87
Mor@@ 87
Rajasthan 87
Red@@ 87
Science 87
Sub@@ 87
UI 87
West 87
ani@@ 87
atr@@ 87
ays 87
bul@@ 87
development 87
ga@@ 87
gu@@ 87
ili@@ 87
key 87
km2 87
men 87
ometer 87
product 87
red 87
sa@@ 87
self 87
tor 87
yan@@ 87
ँकि 87
दूता@@ 87
ী 87
ப@@ 87
1620 86
174 86
1807 86
1809 86
194 86
196@@ 86
2,9@@ 86
226 86
400,000 86
AL 86
London 86
ales 86
cc 86
company 86
example 86
ey 86
fe@@ 86
following 86
inc@@ 86
mi@@ 86
my@@ 86
side 86
taya 86
जैसे@@ 86
ऴ 86
ॊ 86
ા@@ 86
ར@@ 86
10000 85
1756 85
1810 85
208 85
222 85
4.6 85
5- 85
BL 85
CL 85
Chinese 85
GR@@ 85
LLC 85
MT@@ 85
No@@ 85
SMS 85
SN@@ 85
Server 85
WW@@ 85
class 85
dar 85
electr@@ 85
ick@@ 85
ise 85
led 85
min@@ 85
part 85
space 85
the@@ 85
é 85
मुता@@ 85
वाभा@@ 85
ਸ@@ 85
07@@ 84
1782 84
199 84
239 84
290 84
BP 84
CR 84
ECW 84
Gan@@ 84
History 84
Linux 84
Year 84
ard 84
ber@@ 84
ini 84
iri 84
ization 84
table 84
tag@@ 84
very 84
अनुया@@ 84
12.5 83
2.9 83
243 83
27,@@ 83
630 83
C.@@ 83
Cy@@ 83
Gu@@ 83
Hol@@ 83
Mand@@ 83
PP@@ 83
Pur@@ 83
Union 83
anti 83
arch@@ 83
champ 83
ef@@ 83
effect 83
ids 83
ki@@ 83
later 83
ocene 83
section 83
tom@@ 83
yo@@ 83
you 83
यावसा@@ 83
■ 83
0.9 82
1660 82
194@@ 82
29,@@ 82
47.@@ 82
5.3 82
AH 82
Dynasty 82
East 82
GO@@ 82
Gr@@ 82
Life 82
N1 82
P. 82
PR@@ 82
SM@@ 82
Sanctuary 82
TT 82
UTC 82
XML 82
alis 82
free 82
human 82
ish 82
ita 82
kg 82
long 82
osome 82
phase 82
small 82
tem@@ 82
while 82
শ@@ 82
124@@ 81
1748 81
1791 81
1794 81
191 81
305 81
32.@@ 81
42@@ 81
5,0@@ 81
6.1 81
BT 81
Book 81
China 81
ES 81
Sah@@ 81
ach 81
atus 81
base 81
cells 81
der@@ 81
ean 81
gas 81
near 81
ou@@ 81
ox@@ 81
real 81
surface 81
tan@@ 81
ture 81
we@@ 81
ye 81
ɛ@@ 81
औपनिवे@@ 81
দ 81
৷ 81
130@@ 80
1536 80
196 80
2nd 80
530 80
7.4 80
70,000 80
Air 80
DB@@ 80
Day 80
FM 80
Health 80
High 80
Im@@ 80
Law 80
ML 80
NSA 80
OR@@ 80
Prot@@ 80
Publ@@ 80
ass@@ 80
ast 80
co 80
den 80
enc@@ 80
ites 80
ker 80
ome@@ 80
orr@@ 80
over@@ 80
public 80
sive 80
ā 80
ंतु@@ 80
आरं@@ 80
ਰ@@ 80
வ@@ 80
150,000 79
207 79
228 79
238 79
302 79
4,0@@ 79
560 79
950 79
API 79
Ba@@ 79
CPU 79
Cl2 79
Det@@ 79
James 79
King 79
Mag@@ 79
Mi@@ 79
RCA 79
SH@@ 79
TH@@ 79
Ti@@ 79
You 79
act@@ 79
aria 79
city 79
els 79
etic 79
ff@@ 79
ga 79
gener@@ 79
if@@ 79
ly@@ 79
ond@@ 79
onic 79
ov 79
oz@@ 79
sw@@ 79
ō@@ 79
नामी@@ 79
सोश@@ 79
গ@@ 79
ര@@ 79
1605 78
1739 78
198@@ 78
21,@@ 78
214 78
233 78
3.9 78
301 78
303 78
96@@ 78
Black 78
Bur@@ 78
Music 78
NA@@ 78
PI 78
Pe@@ 78
Santa 78
The@@ 78
cal@@ 78
century 78
control 78
ell 78
eter 78
fac@@ 78
functions 78
pan@@ 78
rom@@ 78
rot@@ 78
science 78
sin 78
source 78
ts@@ 78
ual 78
ula 78
गंभी@@ 78
दैव 78
ਿ@@ 78
ി@@ 78
1740 77
189 77
198 77
1st 77
2,7@@ 77
20000 77
234 77
72.@@ 77
Ber@@ 77
EV@@ 77
GH 77
GHz 77
HD@@ 77
Ho@@ 77
IA@@ 77
Island 77
Kam@@ 77
Kingdom 77
Mur@@ 77
PLC 77
Rec@@ 77
case 77
ce@@ 77
cur@@ 77
different 77
ema 77
ens@@ 77
has@@ 77
mag@@ 77
uc@@ 77
ताभ 77
ে 77
180@@ 76
197 76
2030 76
218 76
375 76
AMG 76
DL 76
DOS 76
FF 76
H. 76
Her@@ 76
IN 76
Pol@@ 76
UL@@ 76
anga 76
des@@ 76
ery 76
found 76
ich@@ 76
lan@@ 76
mg 76
odi@@ 76
osa 76
page 76
social 76
sources 76
tar@@ 76
temperature 76
ंडेशन 76
वारिक 76
চ@@ 76
31@@ 75
7.2 75
Ak@@ 75
Ha@@ 75
IL 75
LT@@ 75
Lin@@ 75
Mer@@ 75
SEC 75
ZA 75
down 75
electron 75
ft 75
gh@@ 75
ice 75
include 75
io 75
net 75
pe 75
ther@@ 75
tors 75
try 75
» 75
מ@@ 75
ང 75
1768 74
1778 74
216 74
241 74
244 74
At 74
IO@@ 74
Ko@@ 74
Mak@@ 74
N.@@ 74
Nu@@ 74
Ur@@ 74
bal@@ 74
cin@@ 74
cycle 74
det@@ 74
ez@@ 74
ten@@ 74
ə 74
ऍ 74
यिता 74
ன 74
ు@@ 74
ོ@@ 74
.1 73
0.0@@ 73
1786 73
1797 73
1808 73
186 73
2,6@@ 73
209 73
237 73
273 73
660 73
737 73
8.1 73
CT@@ 73
EL@@ 73
Foundation 73
George 73
KP 73
Met@@ 73
Power 73
To 73
analysis 73
ect 73
family 73
fr@@ 73
ide 73
lab@@ 73
m2 73
mtDNA 73
nagar 73
nom@@ 73
ona 73
ow@@ 73
points 73
return 73
standard 73
tha 73
ut 73
yp@@ 73
ū@@ 73
उपजा@@ 73
ী@@ 73
118@@ 72
1530 72
187 72
223 72
251 72
286 72
307 72
322 72
33.@@ 72
34,@@ 72
4.9 72
5.8 72
777 72
89@@ 72
97@@ 72
Aj@@ 72
Bah@@ 72
Dr@@ 72
Fr@@ 72
GT 72
Gal@@ 72
Medical 72
Mes@@ 72
Mu@@ 72
NBA 72
Peri@@ 72
Sir 72
VC 72
XX 72
app@@ 72
ax 72
background 72
bre@@ 72
head 72
ida 72
information 72
lat@@ 72
ogen@@ 72
position 72
radi@@ 72
raj@@ 72
region 72
ren@@ 72
tional 72
tw@@ 72
wan@@ 72
रासाय@@ 72
शुरू@@ 72
ি 72
ಿ@@ 72
248 71
44.@@ 71
540 71
8- 71
At@@ 71
BI 71
CAM 71
DB 71
David 71
Ds 71
EP@@ 71
Framework 71
Pres@@ 71
Ran@@ 71
SD 71
Sanskrit 71
Space 71
War@@ 71
ake 71
alp@@ 71
ama 71
ao 71
ce 71
cer@@ 71
cre@@ 71
dic@@ 71
ena 71
ever 71
hat 71
reg@@ 71
tes 71
una 71
ush@@ 71
wara 71
word 71
परिव@@ 71
ত 71
7- 70
79.@@ 70
94@@ 70
ANC 70
CN 70
Centre 70
DD 70
Gen@@ 70
Hg 70
Is 70
MIT 70
Open@@ 70
Proc@@ 70
Robert 70
alme 70
ams 70
ators 70
can@@ 70
ese 70
identity 70
ized 70
ja 70
om 70
ori 70
ratio 70
sing@@ 70
single 70
those 70
version 70
x86 70
अनुभ@@ 70
पंजी@@ 70
बात@@ 70
18,000 69
224 69
309 69
Bel@@ 69
CY@@ 69
District 69
Earth 69
Es@@ 69
Fe 69
Hal@@ 69
House 69
However 69
Information 69
JP 69
MA@@ 69
Man 69
N. 69
Nap@@ 69
Pradesh 69
TO@@ 69
aj 69
bs@@ 69
dia 69
ely 69
emb@@ 69
ih@@ 69
india 69
kHz 69
level 69
motion 69
old 69
quanti@@ 69
reaction 69
run 69
sph@@ 69
ul 69
ה@@ 69
محمد 69
अयो@@ 69
खाबाद 69
बैड@@ 69
‚ 69
1658 68
1689 68
1699 68
1759 68
1767 68
219 68
236 68
266 68
3,500 68
410 68
430 68
6,0@@ 68
69.@@ 68
Cap@@ 68
EE 68
Indi@@ 68
List 68
MGM 68
Mus@@ 68
NS 68
No 68
Plan@@ 68
See 68
Wildlife 68
alg@@ 68
ars 68
ast@@ 68
bs 68
fication 68
ines 68
lie 68
rule 68
star 68
tur@@ 68
uk 68
voltage 68
ys 68
नुष 68
য@@ 68
1720 67
1769 67
2100 67
213 67
231 67
247 67
262 67
356 67
36.@@ 67
37,@@ 67
570 67
6.6 67
610 67
78.@@ 67
BSD 67
CIA 67
City 67
Delhi 67
Dr. 67
EPA 67
H2 67
HP 67
Jag@@ 67
Li@@ 67
Office 67
Op@@ 67
Park 67
Some 67
UFC 67
VH1 67
WD 67
active 67
asp@@ 67
aur@@ 67
before 67
ber 67
cular 67
eri 67
frequency 67
ju@@ 67
linear 67
ments 67
mp@@ 67
much 67
nu 67
properties 67
river 67
ye@@ 67
الله 67
चीत 67
सनिक 67
మ@@ 67
မ@@ 67
0s 66
1545 66
1680 66
1729 66
1752 66
1766 66
252 66
35,@@ 66
510 66
625 66
A1 66
COM 66
Charles 66
DO 66
England 66
Far@@ 66
GN@@ 66
Le 66
Plus 66
SR 66
Vi@@ 66
aka 66
ame 66
char@@ 66
device 66
e.g. 66
emia 66
go 66
hr@@ 66
ll 66
mot@@ 66
mus@@ 66
pp@@ 66
root 66
she 66
sy@@ 66
test 66
uses 66
wor@@ 66
ē@@ 66
सोसाइ@@ 66
1690 65
1781 65
30,@@ 65
34.@@ 65
520 65
600,000 65
7.3 65
AE 65
Cer@@ 65
Cop@@ 65
ERS 65
Equ@@ 65
Gh@@ 65
IK 65
Live 65
Ltd 65
O3 65
PD 65
Pro 65
Service 65
Ther@@ 65
Tit@@ 65
ard@@ 65
calcul@@ 65
chi@@ 65
ective 65
hindi 65
how 65
ill@@ 65
ius 65
magnetic 65
mes@@ 65
ola 65
onom@@ 65
pi 65
political 65
pura 65
row 65
scale 65
tal@@ 65
tro@@ 65
जवाह@@ 65
धानिक 65
113@@ 64
1650 64
1779 64
1811 64
285 64
304 64
333 64
335 64
4.8 64
6.7 64
68.@@ 64
7.1 64
Army 64
CSI 64
Chi@@ 64
D.@@ 64
DI@@ 64
DSM 64
Dhar@@ 64
FIA 64
French 64
Human 64
Ke@@ 64
OR 64
She 64
These 64
Var@@ 64
aha 64
ats 64
centr@@ 64
chemical 64
history 64
igh@@ 64
ika 64
ils 64
induc@@ 64
log 64
other@@ 64
plat@@ 64
sions 64
tis@@ 64
true 64
umb@@ 64
ऑ 64
धिष 64
ऩ 64
ৰ@@ 64
ಕ@@ 64
‏ 64
13,000 63
1520 63
1580 63
1670 63
259 63
271 63
276 63
321 63
334 63
440 63
45.@@ 63
632 63
960 63
BAFTA 63
CM 63
Code 63
Cu@@ 63
Global 63
HF 63
HR 63
ID@@ 63
Joseph 63
MG 63
Name 63
Network 63
Por@@ 63
Republic 63
Sea 63
Tal@@ 63
Tir@@ 63
UT@@ 63
Xbox 63
above 63
ace 63
could 63
factor 63
lic 63
major 63
mis@@ 63
mm@@ 63
nam 63
negative 63
particles 63
ub@@ 63
what 63
yr@@ 63
ב@@ 63
ל@@ 63
वसीय 63
ল 63
ు 63
1610 62
1710 62
1728 62
1755 62
255 62
268 62
39,@@ 62
49.@@ 62
543 62
AK@@ 62
Bor@@ 62
Center 62
EST 62
GT@@ 62
Ga@@ 62
HA 62
His 62
IEC 62
IST 62
Kat@@ 62
Lad@@ 62
Language 62
Road 62
Sol@@ 62
Systems 62
Time 62
Tur@@ 62
agne@@ 62
ass 62
cas@@ 62
charge 62
endra 62
four 62
ham@@ 62
hol@@ 62
house 62
hyper@@ 62
ick 62
large 62
often 62
plas@@ 62
por@@ 62
result 62
tia 62
uru 62
ust 62
van@@ 62
vi 62
ō 62
і@@ 62
वियत 62
ു@@ 62
.मी@@ 61
1192 61
1527 61
1618 61
1724 61
1730 61
2050 61
229 61
323 61
326 61
460 61
911 61
CV@@ 61
Can@@ 61
Ed@@ 61
HS 61
Hem@@ 61
IUCN 61
MR 61
Min@@ 61
Moh@@ 61
RE 61
Red 61
Ros@@ 61
Shah@@ 61
Shr@@ 61
Sir@@ 61
Tel@@ 61
Theory 61
There 61
Thir@@ 61
ail@@ 61
another 61
aries 61
arp@@ 61
art 61
aus@@ 61
axis 61
books 61
cul@@ 61
dead 61
due 61
ey@@ 61
great 61
hem@@ 61
hom@@ 61
mer 61
mo 61
mor@@ 61
oli 61
positive 61
ses 61
several 61
since 61
tec@@ 61
thr@@ 61
village 61
wan 61
wh@@ 61
ysis 61
ī 61
ɑ@@ 61
अभिया@@ 61
मेघा@@ 61
ृद 61
ి 61
― 61
242 60
31.@@ 60
319 60
324 60
5.9 60
6.8 60
Ash@@ 60
B2 60
Bil@@ 60
CH3 60
De 60
European 60
Government 60
Kumar 60
Kur@@ 60
Limited 60
Me 60
Micro@@ 60
NR@@ 60
Pl@@ 60
USD 60
VIII 60
War 60
acceler@@ 60
anus 60
es.@@ 60
ew@@ 60
government 60
home 60
hum@@ 60
ine@@ 60
int@@ 60
international 60
kal@@ 60
kan@@ 60
ker@@ 60
ny@@ 60
ok 60
ote 60
peri@@ 60
ros@@ 60
ster@@ 60
tar 60
tivity 60
total 60
، 60
ـ@@ 60
ऒ@@ 60
ੰ@@ 60
ం@@ 60
త@@ 60
.S. 59
1250 59
1688 59
1749 59
1753 59
249 59
278 59
282 59
293 59
46.@@ 59
490 59
52@@ 59
6.3 59
6.4 59
BF 59
Ben@@ 59
CLC 59
Commission 59
DH@@ 59
Energy 59
Engineering 59
Ford 59
From 59
G. 59
Han@@ 59
IL@@ 59
Ind@@ 59
Jo@@ 59
Jump 59
Kol@@ 59
MRI 59
March 59
RIAA 59
RO 59
SH 59
SL 59
SM 59
T.@@ 59
TR@@ 59
Tor@@ 59
Vol@@ 59
White 59
XVI 59
ag 59
agram 59
ami 59
because 59
bur@@ 59
conver@@ 59
country 59
den@@ 59
dig@@ 59
fi@@ 59
general 59
ger 59
ks@@ 59
lar@@ 59
let 59
m.@@ 59
main 59
material 59
mel@@ 59
mic 59
music 59
now 59
phone 59
plane 59
see 59
structure 59
xx 59
चैंप@@ 59
11,000 58
1534 58
1703 58
1754 58
1796 58
188@@ 58
2025 58
281 58
295 58
3,5@@ 58
3,6@@ 58
311 58
32,@@ 58
57.@@ 58
680 58
7.6 58
77.@@ 58
Archiv@@ 58
BCE 58
BR 58
British 58
C1 58
Cent@@ 58
Da@@ 58
Gor@@ 58
Gov@@ 58
K.@@ 58
MH 58
N2 58
Psych@@ 58
Pu@@ 58
Thomas 58
Ul@@ 58
around 58
ayan 58
come 58
del@@ 58
early 58
eus 58
fied 58
final 58
hav@@ 58
ill 58
including 58
mah@@ 58
non@@ 58
oa 58
oil 58
open 58
otic 58
our@@ 58
rate 58
research 58
software 58
ten 58
ters 58
za 58
മ@@ 58
★ 58
125@@ 57
1665 57
1758 57
246 57
257 57
258 57
294 57
312 57
328 57
355 57
415 57
525 57
6- 57
6.9 57
624 57
880 57
America 57
Chand@@ 57
Education 57
Em@@ 57
Internet@@ 57
June 57
Media 57
Mel@@ 57
Paul 57
RM 57
Sim@@ 57
W. 57
anda 57
ash 57
dy 57
eli@@ 57
kho@@ 57
la@@ 57
les@@ 57
mas@@ 57
must 57
natural 57
nuclear 57
object 57
ophy@@ 57
ost@@ 57
physical 57
pos@@ 57
ray 57
should 57
sil@@ 57
sum 57
syn@@ 57
tim@@ 57
ves 57
vis@@ 57
won 57
yan 57
yu 57
अनुयाय@@ 57
धपुर 57
नांतर 57
संतु@@ 57
ਨ@@ 57
ட@@ 57
ల 57
10.5 56
14,000 56
1603 56
1627 56
274 56
306 56
313 56
345 56
35,000 56
384 56
386 56
4.7 56
470 56
760 56
980 56
Airport 56
Bu@@ 56
Ericsson 56
Force 56
Games 56
HO@@ 56
Intel 56
Khar@@ 56
Kor@@ 56
LG@@ 56
MK 56
Maj@@ 56
Net@@ 56
Public 56
SF@@ 56
SU@@ 56
SV@@ 56
Syn@@ 56
Yamato 56
against 56
black 56
box 56
direct 56
ensis 56
ering 56
forces 56
gam@@ 56
hor@@ 56
illa 56
industry 56
ire 56
modern 56
of@@ 56
onlyinclude 56
potential 56
ro 56
scope 56
ship 56
states 56
thi 56
til@@ 56
variable 56
without 56
á@@ 56
ʲ@@ 56
नागरि@@ 56
फलता 56
रारं@@ 56
ਹ@@ 56
క@@ 56
ಮ@@ 56
007 55
129@@ 55
1325 55
1517 55
1533 55
1648 55
1704 55
1713 55
308 55
390 55
4500 55
9.5 55
AST 55
Bag@@ 55
Bl@@ 55
Brah@@ 55
Business 55
ET@@ 55
Facebook 55
Green 55
HBO 55
HTTP 55
Hydro@@ 55
Ki@@ 55
Kot@@ 55
L. 55
MR@@ 55
Mac 55
Management 55
Mul@@ 55
My 55
NAS@@ 55
PL 55
Pa@@ 55
Series 55
She@@ 55
Visual 55
alization 55
asi@@ 55
atory 55
cho@@ 55
com 55
course 55
disease 55
ech 55
education 55
emis@@ 55
fier 55
him@@ 55
oning 55
ose 55
published 55
range 55
sch@@ 55
search 55
sec@@ 55
term 55
therapy 55
vector 55
xi@@ 55
ying 55
É@@ 55
अनौ@@ 55
हांग@@ 55
୍ 55
న@@ 55
བ@@ 55
0.01 54
1531 54
1542 54
1555 54
1630 54
1708 54
1725 54
254 54
283 54
287 54
327 54
840 54
August 54
Bay 54
Bh@@ 54
Bir@@ 54
EA 54
EX@@ 54
F. 54
Gang@@ 54
Hor@@ 54
If 54
Long 54
Multi@@ 54
NASA 54
Poly@@ 54
Pul@@ 54
Raw@@ 54
Royal 54
URL 54
Western 54
ade 54
alli 54
andi@@ 54
bank 54
chem@@ 54
cm 54
comp@@ 54
diff@@ 54
eous 54
estr@@ 54
even 54
ger@@ 54
hab@@ 54
last 54
mean 54
media 54
nature 54
net@@ 54
ou 54
ry 54
sar@@ 54
son@@ 54
ules 54
uv@@ 54
women 54
yl 54
à@@ 54
ক 54
ம 54
ல@@ 54
ས@@ 54
ṭ@@ 54
1316 53
15000 53
1518 53
2024 53
253 53
263 53
272 53
288 53
331 53
343 53
368 53
580 53
620 53
88.@@ 53
ATA 53
AU 53
April 53
B1 53
HM 53
I. 53
Jean 53
MW 53
Middle 53
Out@@ 53
Project 53
Records 53
Region 53
Sr@@ 53
TT@@ 53
Tam@@ 53
Vo@@ 53
Web@@ 53
aph@@ 53
arr@@ 53
bil@@ 53
blog@@ 53
cross 53
d.@@ 53
elec@@ 53
err@@ 53
ex 53
fin@@ 53
ham 53
iv 53
ko@@ 53
mann 53
mit@@ 53
nic@@ 53
ocy@@ 53
onal 53
own 53
path@@ 53
php 53
prec@@ 53
property 53
rpm 53
sp 53
species 53
stage 53
team 53
terms 53
times 53
top 53
trig@@ 53
tube 53
wari 53
æ 53
ð 53
ָ@@ 53
कारात 53
णाचल 53
दमी 53
મ@@ 53
ய@@ 53
గ@@ 53
ನ@@ 53
.p@@ 52
1564 52
16,000 52
1640 52
1659 52
1751 52
1777 52
197@@ 52
3,8@@ 52
58.@@ 52
600@@ 52
Academy 52
CH 52
Cas@@ 52
CoV 52
Court 52
ED 52
Edward 52
FF@@ 52
France 52
Gi@@ 52
ISA 52
KO 52
La@@ 52
Lake 52
OP 52
Other 52
Pen@@ 52
Ps 52
Reg@@ 52
Soci@@ 52
Standard 52
Sud@@ 52
Vista 52
allo@@ 52
among 52
andi 52
apo@@ 52
atomic 52
ava 52
ble 52
def@@ 52
eta 52
ev 52
had@@ 52
hu 52
index 52
ku@@ 52
lines 52
mati@@ 52
mium 52
mol 52
ome 52
ori@@ 52
ple@@ 52
quality 52
said 52
support 52
technology 52
uli 52
unc@@ 52
under@@ 52
ven@@ 52
¤ 52
§ 52
ð@@ 52
मुंगे@@ 52
ప@@ 52
ག@@ 52
″ 52
1320 51
1450 51
1528 51
1543 51
1598 51
1612 51
1743 51
1762 51
2,4@@ 51
2200 51
292 51
344 51
352 51
50.@@ 51
67.@@ 51
7.7 51
870 51
9.2 51
Ang@@ 51
BR@@ 51
Bad@@ 51
Baz@@ 51
Bre@@ 51
CB@@ 51
Dig@@ 51
EN 51
FD@@ 51
Fer@@ 51
GS 51
Gl@@ 51
Hind@@ 51
July 51
Kas@@ 51
NI@@ 51
Na 51
PE 51
RH 51
Rel@@ 51
Sad@@ 51
UN 51
XIV 51
XV 51
aja 51
ana@@ 51
auri 51
average 51
best 51
ching 51
ebo@@ 51
ik 51
make 51
metal 51
multi@@ 51
oscop@@ 51
physics 51
play 51
present 51
sel@@ 51
sine 51
specific 51
stone 51
wal 51
ys@@ 51
ε 51
अतर@@ 51
पिथो@@ 51
षेक 51
ম 51
ਮ@@ 51
√ 51
▪ 51
.C. 50
1492 50
1661 50
1702 50
1771 50
189@@ 50
2O3 50
3,9@@ 50
377 50
5.7 50
628 50
670 50
AX 50
Bank 50
C2 50
CG 50
Catedral 50
Dar@@ 50
H5@@ 50
IF 50
IV@@ 50
Internet 50
MT 50
Nam@@ 50
PO 50
Ref@@ 50
Sciences 50
Studies 50
Super 50
Sw@@ 50
TCP 50
V. 50
VA 50
Wy@@ 50
a.org 50
bus@@ 50
did 50
dit 50
eo 50
expon@@ 50
features 50
form@@ 50
forms 50
ful 50
hydro@@ 50
ide@@ 50
important 50
ised 50
kot 50
land@@ 50
lands 50
learning 50
mal 50
ner@@ 50
oni 50
pel@@ 50
rap@@ 50
rut@@ 50
san@@ 50
sem@@ 50
short 50
sk@@ 50
tica 50
tiv@@ 50
view 50
von 50
बेरी@@ 50
सबुक 50
ধ@@ 50
ভ@@ 50
ವ@@ 50
1505 49
1506 49
1541 49
1631 49
1715 49
1719 49
1722 49
1727 49
184@@ 49
261 49
279 49
284 49
354 49
512 49
622 49
661 49
7.8 49
787 49
9- 49
918 49
AND 49
Ali 49
Android 49
BM 49
Canada 49
Cavendish 49
DF 49
DX 49
Fl@@ 49
German 49
IEEE 49
LD 49
Land 49
October 49
Of 49
Old 49
Pri@@ 49
Sab@@ 49
Super@@ 49
TER@@ 49
VT 49
aa 49
bar 49
beam 49
c.@@ 49
computer 49
double 49
dy@@ 49
ements 49
equal 49
fact 49
fre@@ 49
immun@@ 49
inae 49
ion@@ 49
ira 49
je@@ 49
numer@@ 49
org@@ 49
ories 49
plan@@ 49
principle 49
radiation 49
sh 49
sor@@ 49
square 49
study 49
white 49
wood 49
ym@@ 49
І 49
נ@@ 49
तरीन 49
दूस@@ 49
ಿ 49
ು@@ 49
വ@@ 49
ས 49
း@@ 49
09@@ 48
1638 48
1666 48
1672 48
297 48
405 48
411 48
50,@@ 48
505 48
627 48
780 48
800@@ 48
930 48
970 48
Bak@@ 48
Board 48
CGI 48
Cam@@ 48
Cre@@ 48
Dec@@ 48
Del@@ 48
Egypt 48
Gur@@ 48
Henry 48
IR 48
Jur@@ 48
Kad@@ 48
PM@@ 48
Pa 48
Pale@@ 48
Pap@@ 48
R2 48
SK@@ 48
Sem@@ 48
Sil@@ 48
Sin@@ 48
Station 48
Ste@@ 48
Sum@@ 48
Sy@@ 48
Vis@@ 48
WH@@ 48
alan 48
anth@@ 48
asis 48
bor@@ 48
ech@@ 48
eli 48
etes 48
ference 48
get 48
hand 48
ili 48
ima 48
image 48
isi@@ 48
kum@@ 48
lo 48
mol@@ 48
na@@ 48
ons@@ 48
orph@@ 48
plac@@ 48
quar@@ 48
sv@@ 48
third 48
ton@@ 48
uli@@ 48
ulus 48
values 48
vas@@ 48
ω 48
ּ@@ 48
ੀ 48
ி 48
జ@@ 48
ိ@@ 48
ြ@@ 48
1010 47
1350 47
1453 47
1572 47
1576 47
1632 47
1718 47
267 47
291 47
315 47
353 47
403 47
656 47
711 47
740 47
Ar 47
BH@@ 47
Bud@@ 47
CF 47
Fil@@ 47
Jam@@ 47
January 47
Je@@ 47
Ka@@ 47
Krish@@ 47
L2 47
Lak@@ 47
Location 47
Louis 47
Non 47
Pad@@ 47
Pakistani 47
Pras@@ 47
SF 47
Sang@@ 47
Sat@@ 47
Sing@@ 47
Sudan 47
Ten@@ 47
Test 47
Uni@@ 47
WT@@ 47
When 47
aci@@ 47
ampli@@ 47
asi 47
below 47
born 47
business 47
food 47
gen 47
half 47
ky 47
oo 47
organic 47
others 47
output 47
particle 47
psych@@ 47
quantum 47
refl@@ 47
sal@@ 47
take 47
tin 47
took 47
tre@@ 47
tree 47
zero 47
ɔ@@ 47
ɡ@@ 47
ʁ@@ 47
Δ 47
י 47
आईवी 47
कायम@@ 47
ོ 47
1504 46
1535 46
1628 46
1642 46
1652 46
1667 46
1734 46
1744 46
20th 46
2600 46
269 46
289 46
2A 46
336 46
342 46
3C 46
544 46
7,0@@ 46
8.4 46
814 46
After 46
Asia 46
Cur@@ 46
E9E9E9 46
GC 46
GO 46
Jan@@ 46
Library 46
MD 46
Men@@ 46
Mobile 46
NH3 46
Pas@@ 46
People 46
SARS 46
Services 46
Sid@@ 46
Son@@ 46
TD 46
Ty@@ 46
ago 46
ains 46
article 46
astic 46
back@@ 46
bi 46
blood 46
bridge 46
ects 46
engineering 46
esti@@ 46
fil@@ 46
having 46
hyp@@ 46
iPhone 46
istics 46
kW 46
kin@@ 46
management 46
million 46
motor 46
ney 46
nucleus 46
ody@@ 46
ope 46
opo@@ 46
pa@@ 46
pil@@ 46
population 46
quot 46
sul@@ 46
symbol 46
trac@@ 46
ty@@ 46
μ@@ 46
उपभो@@ 46
नवं@@ 46
यिकी@@ 46
लेखि@@ 46
ॿ@@ 46
ਤ@@ 46
ர 46
ಂ@@ 46
ུ@@ 46
1451 45
1558 45
1560 45
1606 45
170@@ 45
1716 45
1745 45
185@@ 45
298 45
332 45
395 45
51.@@ 45
62@@ 45
89.@@ 45
ACS 45
CJ 45
CO3 45
Church 45
Dom@@ 45
Dur@@ 45
Economic 45
FP 45
FT 45
Ger@@ 45
God 45
HI 45
IPA 45
Index 45
Lord 45
MK@@ 45
MO 45
MY@@ 45
Mach@@ 45
NWA 45
ODI 45
ON@@ 45
OT 45
REM 45
RF 45
Richard 45
Sav@@ 45
Screen 45
Sen@@ 45
Tamil 45
Wh@@ 45
Yol@@ 45
York 45
ack@@ 45
af 45
ancy 45
athi 45
atti 45
cel@@ 45
cha 45
design 45
differenti@@ 45
dys@@ 45
ector 45
eme 45
eng 45
engine 45
eum 45
ford 45
full 45
gal@@ 45
gl@@ 45
graphy 45
idea 45
ight 45
inn@@ 45
input 45
iss@@ 45
iti@@ 45
lig@@ 45
magnitude 45
med@@ 45
medi@@ 45
mission 45
national 45
nav@@ 45
phil@@ 45
phon@@ 45
rd 45
ths 45
thus 45
trade 45
unger 45
within 45
ʊ@@ 45
области 45
ש@@ 45
ه 45
ং@@ 45
వ@@ 45
1303 44
1596 44
1597 44
1611 44
1624 44
1644 44
1671 44
1709 44
1717 44
317 44
391 44
501 44
565 44
590 44
8,0@@ 44
8.6 44
8.8 44
80.@@ 44
ATM 44
All@@ 44
Also 44
Arch@@ 44
Award 44
Cin@@ 44
Cir@@ 44
Du@@ 44
El 44
Euler 44
Fin@@ 44
Hume 44
Jal@@ 44
Journal 44
Kir@@ 44
LV 44
Les 44
Mir@@ 44
Os@@ 44
Phot@@ 44
RB 44
RD 44
Ra@@ 44
Sag@@ 44
Security 44
Sri 44
UV 44
Us 44
Vari@@ 44
Ven@@ 44
Water 44
Wil@@ 44
YG 44
ables 44
ano 44
ards 44
ayat 44
bit@@ 44
condition 44
critical 44
defined 44
dev@@ 44
dir 44
ect@@ 44
electro@@ 44
elements 44
ep 44
event 44
ged 44
gi 44
ho 44
i.@@ 44
ision 44
ith@@ 44
kl@@ 44
length 44
map 44
match 44
mathematical 44
matter 44
medium 44
oth 44
pole 44
products 44
quadr@@ 44
size 44
sti@@ 44
ush 44
ville 44
í@@ 44
ה 44
थानां@@ 44
শ 44
ਜ@@ 44
ದ@@ 44
≤ 44
0.0 43
002 43
119@@ 43
1509 43
1512 43
1582 43
1685 43
1705 43
1712 43
1714 43
1726 43
1746 43
299 43
318 43
366 43
52.@@ 43
629 43
7.0 43
ABA 43
ADS 43
AO@@ 43
ARC 43
Bab@@ 43
CB 43
CBE 43
CIS 43
Cat@@ 43
Class 43
Control 43
Cro@@ 43
Department 43
End 43
Hun@@ 43
Integr@@ 43
L.@@ 43
Ly@@ 43
MM 43
María 43
Mat@@ 43
May 43
Mil@@ 43
Mol@@ 43
Nav@@ 43
Ner@@ 43
PN 43
RS@@ 43
Rat@@ 43
Sho@@ 43
Sun@@ 43
They 43
Tre@@ 43
Vir@@ 43
aga 43
arm@@ 43
ater 43
block 43
certain 43
ches 43
circle 43
compound 43
countries 43
does 43
element 43
eral 43
eti@@ 43
hur@@ 43
i.e. 43
ila 43
independent 43
late 43
m3 43
medicine 43
memory 43
ml 43
morph@@ 43
mph 43
operating 43
operation 43
optera 43
resist@@ 43
spectrum 43
story 43
sus 43
syl@@ 43
until 43
wal@@ 43
written 43
ƒ 43
ɾ@@ 43
ʃ@@ 43
β@@ 43
ְ@@ 43
लेटिक 43
ನ 43
പ@@ 43
င 43
↑ 43
1024 42
140@@ 42
1565 42
1568 42
1575 42
1616 42
1622 42
1653 42
1731 42
2400 42
316 42
339 42
350@@ 42
361 42
364 42
3rd 42
49,@@ 42
7.9 42
770 42
820 42
9.3 42
ACP 42
And 42
BB@@ 42
Cel@@ 42
DJ 42
DT@@ 42
Dh@@ 42
Division 42
EM 42
FL@@ 42
Grand 42
Gy@@ 42
IJ@@ 42
IM 42
Industrial 42
Ku@@ 42
Kun@@ 42
Malaysia 42
News 42
Paris 42
Post 42
Shiv@@ 42
UC@@ 42
XII 42
Ze@@ 42
aging 42
alm@@ 42
arc@@ 42
became 42
board 42
ca@@ 42
chemistry 42
cognitive 42
cos 42
da@@ 42
date 42
dem@@ 42
deriv@@ 42
die 42
dynasty 42
efficient 42
electrical 42
emp@@ 42
face 42
good 42
groups 42
health 42
ich 42
itation 42
ix 42
lead 42
local 42
machine 42
making 42
membrane 42
men@@ 42
metry 42
oni@@ 42
onia 42
original 42
phen@@ 42
post 42
production 42
ree 42
sar 42
school 42
sym@@ 42
tam@@ 42
tex 42
units 42
vo@@ 42
works 42
Ú@@ 42
ː 42
μ 42
ת 42
परशु@@ 42
मेजबा@@ 42
། 42
0.00 41
1050 41
128@@ 41
1398 41
160@@ 41
1615 41
1669 41
1687 41
1723 41
1736 41
2D 41
31,@@ 41
314 41
329 41
33,@@ 41
338 41
385 41
406 41
42.@@ 41
44,@@ 41
636 41
712 41
93.@@ 41
ARM 41
Art 41
Arthur 41
Bang@@ 41
Big 41
Blue 41
CAD 41
CNN 41
D1 41
Eur@@ 41
IMAX 41
Kin@@ 41
Mang@@ 41
Many 41
Nations 41
Ren@@ 41
Ru@@ 41
Sec@@ 41
September 41
Source 41
Sul@@ 41
Two 41
ais@@ 41
any@@ 41
apur@@ 41
ature 41
band 41
bin@@ 41
difference 41
ete 41
films 41
graph 41
green 41
iTunes 41
ically 41
ider@@ 41
iti 41
ler@@ 41
lia 41
mos@@ 41
node 41
oper@@ 41
ots 41
possible 41
price 41
processing 41
prop@@ 41
pul@@ 41
ram@@ 41
ruled 41
sen 41
service 41
ver 41
vis 41
worth 41
zy@@ 41
बूझ@@ 41
య@@ 41
ా 41
1485 40
1511 40
1529 40
1562 40
1588 40
1623 40
1675 40
1698 40
1701 40
1721 40
1733 40
179@@ 40
2800 40
337 40
359 40
425 40
53.@@ 40
634 40
65,@@ 40
860 40
920 40
96.@@ 40
AW@@ 40
Ay@@ 40
BT@@ 40
Bin@@ 40
Ci@@ 40
Deb@@ 40
Electronics 40
Fre@@ 40
Free 40
G.@@ 40
Hi@@ 40
Hus@@ 40
ICA@@ 40
Ka 40
Korea 40
LED 40
LR 40
Military 40
NC 40
NCAA 40
Natural 40
Neur@@ 40
Note 40
Ny@@ 40
O. 40
Path@@ 40
Point 40
Pot@@ 40
Ray@@ 40
SB@@ 40
Shi@@ 40
Spec@@ 40
U2 40
Whe@@ 40
acc@@ 40
aff@@ 40
children 40
considered 40
culture 40
ders 40
din 40
dium 40
enn@@ 40
enta 40
exchange 40
generation 40
hag@@ 40
imal 40
iner@@ 40
ins@@ 40
jo 40
kha 40
leg@@ 40
notation 40
ogen 40
par 40
parts 40
play@@ 40
pon@@ 40
problem 40
record 40
resistance 40
show 40
sing 40
spir@@ 40
stat@@ 40
station 40
still 40
tit@@ 40
tro 40
ural 40
ures 40
ute 40
wall 40
web@@ 40
yc@@ 40
yg@@ 40
φ 40
ִ@@ 40
ד@@ 40
गोलिक 40
विपरी@@ 40
२०१@@ 40
প 40
ਾ 40
ന@@ 40
ി 40
ု@@ 40
≥ 40
01.@@ 39
1498 39
1510 39
1515 39
1553 39
1561 39
1625 39
1643 39
1664 39
1668 39
1683 39
1706 39
1742 39
277 39
296 39
347 39
62.@@ 39
642 39
8.3 39
810 39
Aer@@ 39
Anti@@ 39
BB 39
BI@@ 39
Basic 39
Dan@@ 39
Electric 39
F.@@ 39
Feature 39
Hel@@ 39
IPv@@ 39
MD@@ 39
Medi@@ 39
O4 39
OECD 39
Od@@ 39
PAL 39
Revolution 39
Saav@@ 39
Second 39
Sen 39
T1 39
Tim@@ 39
Vid@@ 39
Wor@@ 39
amo@@ 39
ania 39
apar@@ 39
ark@@ 39
av 39
az 39
bers 39
cat 39
chain 39
chlor@@ 39
cle@@ 39
contr@@ 39
differ@@ 39
ear@@ 39
ein 39
equivalent 39
ett@@ 39
every 39
few 39
flow 39
formation 39
gang@@ 39
held 39
ibn 39
illar@@ 39
inst@@ 39
ip 39
isation 39
jan@@ 39
ktop 39
lag@@ 39
map@@ 39
market 39
means 39
min 39
multiple 39
op 39
ough 39
results 39
spo@@ 39
star@@ 39
substance 39
tan 39
ud 39
uma 39
unda 39
urg@@ 39
vers 39
waves 39
ān 39
ʒ@@ 39
ফ@@ 39
વ@@ 39
ு 39
ം 39
ത@@ 39
ല@@ 39
ན 39
្ 39
---- 38
08@@ 38
1336 38
1519 38
1539 38
1570 38
1609 38
1732 38
40.@@ 38
444 38
475 38
486 38
591 38
603 38
683 38
843 38
927 38
94.@@ 38
940 38
AV 38
Agency 38
Ah@@ 38
Alpha 38
App@@ 38
Ari@@ 38
Authority 38
Best 38
Bhag@@ 38
Bol@@ 38
CAT 38
CH2 38
Cant@@ 38
Committee 38
Common 38
Computer 38
Defence 38
EL 38
FBI 38
FCC 38
Fi 38
Fi@@ 38
Fo@@ 38
ITV 38
Industries 38
Intelligence 38
Kon@@ 38
LE 38
Lim@@ 38
May@@ 38
New@@ 38
ON 38
PD@@ 38
Peter 38
RSS 38
Ri@@ 38
Right 38
Software 38
Su 38
Technologies 38
Yahoo 38
Zo@@ 38
acts 38
aji 38
always 38
ances 38
approxim@@ 38
arch 38
assic 38
ave 38
ban@@ 38
count 38
days 38
ded 38
determin@@ 38
don 38
ela 38
ental 38
equilibri@@ 38
fundamental 38
geometry 38
hara 38
hot@@ 38
hya 38
index@@ 38
ital 38
ka@@ 38
kam 38
len@@ 38
load 38
mature 38
mechanics 38
military 38
needed 38
network 38
omi 38
ones 38
ont@@ 38
optical 38
osphere 38
person 38
ram 38
released 38
religious 38
six 38
speed 38
sr@@ 38
stad 38
t.@@ 38
theorem 38
tt@@ 38
une 38
vir@@ 38
was@@ 38
wheel 38
yi 38
your 38
zu 38
ś@@ 38
Δ@@ 38
δ 38
و 38
अवय@@ 38
आजा@@ 38
परेखा 38
भाज@@ 38
याता@@ 38
लांतर 38
समारो@@ 38
ৰ 38
ା@@ 38
ರ 38
≡ 38
1001 37
1150 37
13.5 37
1552 37
159@@ 37
1617 37
1649 37
1694 37
1738 37
1A 37
240@@ 37
372 37
413 37
414 37
458 37
468 37
483 37
515 37
51@@ 37
645 37
715 37
730 37
786 37
8.0 37
907 37
990 37
Age 37
Ann@@ 37
BE@@ 37
Bio@@ 37
DF@@ 37
Data 37
December 37
Fort 37
GI 37
Gir@@ 37
Hill 37
Hz 37
ISS 37
Kus@@ 37
Love 37
MOS 37
Mos@@ 37
Moto@@ 37
Ms 37
November 37
Panch@@ 37
Pay@@ 37
Plas@@ 37
Radi@@ 37
S.A. 37
Search 37
Special 37
Star 37
Tu@@ 37
VHS 37
We 37
WrestleMania 37
addition 37
anc@@ 37
apy 37
basic 37
berg 37
built 37
carbon 37
cus 37
division 37
economic 37
elle 37
entr@@ 37
ern@@ 37
ette 37
fixed 37
game 37
gar@@ 37
gram 37
height 37
higher 37
hydr@@ 37
included 37
integ@@ 37
ished 37
ith 37
kin 37
kn@@ 37
lb 37
leaf 37
limit 37
lis 37
literature 37
ls 37
mad@@ 37
mil@@ 37
mul@@ 37
ord@@ 37
osh@@ 37
otr@@ 37
pen@@ 37
pig@@ 37
pres@@ 37
programming 37
py@@ 37
qui@@ 37
related 37
sea 37
soci@@ 37
solar 37
solid 37
sun@@ 37
supply 37
tax 37
tle 37
tt 37
ward 37
wat@@ 37
wrote 37
zi@@ 37
án 37
Ω 37
ן 37
ان 37
ه@@ 37
ई.पू@@ 37
वासीय 37
ॾ@@ 37
த 37
ே@@ 37
ర 37
ന 37
ေ@@ 37
1.5@@ 36
1066 36
1525 36
1532 36
1601 36
1602 36
1608 36
1641 36
1646 36
1651 36
1657 36
371 36
38,@@ 36
381 36
399 36
427 36
476 36
524 36
54.@@ 36
555 36
562 36
641 36
70.@@ 36
833 36
A2 36
ART 36
Ask@@ 36
Ball@@ 36
CG@@ 36
CSS 36
Civil 36
Cog@@ 36
Dal@@ 36
Exchange 36
FX 36
GM 36
Gre@@ 36
Him@@ 36
Hindu 36
IW@@ 36
Ir@@ 36
Lu@@ 36
M1 36
Machine 36
Martin 36
Mechan@@ 36
Mod@@ 36
Most 36
Mot@@ 36
Mut@@ 36
NFL 36
Ob@@ 36
Organ@@ 36
PT 36
Player 36
Saint 36
Sak@@ 36
Shim@@ 36
Sun 36
TF 36
Tan@@ 36
Tata 36
UD@@ 36
UP@@ 36
Vel@@ 36
W.@@ 36
Wal@@ 36
Women 36
Young 36
access 36
ack 36
animals 36
aqu@@ 36
atur@@ 36
ave@@ 36
away 36
bot@@ 36
cause 36
child 36
curve 36
earth 36
environment 36
escence 36
fa 36
far 36
father 36
fields 36
fis@@ 36
five 36
flu@@ 36
ges 36
ground 36
hal 36
haw@@ 36
isa 36
itor 36
ize 36
izing 36
just 36
kara 36
kat@@ 36
macro@@ 36
marathon 36
mus 36
nu@@ 36
nucle@@ 36
oris 36
otro@@ 36
pin@@ 36
plant 36
ples 36
print 36
rel@@ 36
reson@@ 36
script 36
she@@ 36
spec@@ 36
ss 36
started 36
statement 36
tism 36
tournament 36
towards 36
van 36
variables 36
void 36
whose 36
ya@@ 36
® 36
³ 36
è 36
ˌ@@ 36
α@@ 36
λ 36
פ@@ 36
पिथौ@@ 36
ট@@ 36
ਦ@@ 36
མ@@ 36
ာ@@ 36
ー@@ 36
大@@ 36
￸ 36
112@@ 35
1494 35
1516 35
1521 35
1613 35
1614 35
1619 35
1629 35
1636 35
1696 35
187@@ 35
351 35
357 35
392 35
534 35
56.@@ 35
575 35
586 35
599 35
606 35
768 35
8.2 35
802.@@ 35
830 35
929 35
According 35
Aqu@@ 35
Band@@ 35
California 35
Die 35
ESA 35
Fever 35
Ham@@ 35
Hello 35
Hills 35
J.@@ 35
Java 35
KO@@ 35
Kap@@ 35
League 35
Leg@@ 35
Mi 35
Mountains 35
Mun@@ 35
Net 35
Nil@@ 35
Oc@@ 35
Population 35
President 35
Railway 35
Rights 35
Sky@@ 35
Star@@ 35
Tab@@ 35
Tag@@ 35
Tak@@ 35
UK@@ 35
VL@@ 35
WS 35
alb@@ 35
alia 35
along 35
amine 35
amount 35
ander 35
array 35
avi 35
awa 35
basis 35
bol@@ 35
by@@ 35
cav@@ 35
devices 35
ei 35
ele 35
electrom@@ 35
enter@@ 35
ently 35
eph@@ 35
eri@@ 35
external 35
figure 35
fluid 35
hang@@ 35
hard 35
hel@@ 35
here 35
identi@@ 35
ji@@ 35
kind 35
lex@@ 35
mac@@ 35
marker 35
measur@@ 35
mod 35
normal 35
ock 35
oids 35
olo@@ 35
ologist 35
opath@@ 35
oral 35
org 35
phones 35
polym@@ 35
popular 35
pora 35
primary 35
produced 35
put 35
rather 35
sag@@ 35
sen@@ 35
shi 35
sid@@ 35
start 35
storage 35
stress 35
tam 35
temple 35
thetic 35
thor@@ 35
tra@@ 35
var 35
weight 35
yo 35
à 35
è@@ 35
गुवा@@ 35
धीनता 35
ਰ 35
ર@@ 35
ି@@ 35
க 35
ಗ@@ 35
ಸ@@ 35
0000@@ 34
1011 34
1206 34
1296 34
1392 34
1394 34
1480 34
1574 34
1583 34
1590 34
1626 34
1639 34
1674 34
1695 34
1711 34
1735 34
1737 34
341 34
358 34
376 34
389 34
432 34
435 34
455 34
527 34
529 34
67,@@ 34
8.7 34
9.1 34
914 34
925 34
ASP 34
Ali@@ 34
Battle 34
Chief 34
Comp@@ 34
Coun@@ 34
Country 34
Digital 34
Dor@@ 34
Fox 34
Gener@@ 34
Ghar@@ 34
Hir@@ 34
Image 34
Io@@ 34
JT@@ 34
Line 34
Log@@ 34
Med@@ 34
Medicine 34
Mount 34
NB@@ 34
NG 34
Nay@@ 34
Order 34
Organization 34
Plant 34
Political 34
Rem@@ 34
Sik@@ 34
Sit@@ 34
So 34
St. 34
Total 34
Uttar 34
Valley 34
acet@@ 34
again 34
aki 34
analy@@ 34
aq 34
architecture 34
areas 34
astr@@ 34
atics 34
ault 34
become 34
comm@@ 34
cont@@ 34
don@@ 34
duction 34
edu 34
ending 34
etary 34
eth 34
eti 34
fa@@ 34
fish 34
fold 34
foreign 34
indic@@ 34
inga 34
intr@@ 34
inver@@ 34
ited 34
kh 34
let@@ 34
liquid 34
living 34
los@@ 34
mail 34
mapframe 34
methods 34
named 34
nj@@ 34
not@@ 34
oy 34
pend@@ 34
plants 34
put@@ 34
round 34
secondary 34
sil 34
sim@@ 34
similar 34
society 34
tif@@ 34
tools 34
tox@@ 34
var@@ 34
vari@@ 34
vibr@@ 34
wi@@ 34
win 34
worm 34
ynam@@ 34
ze 34
ي 34
एकी@@ 34
नैनी@@ 34
യ@@ 34
က@@ 34
.net 33
1.0@@ 33
1000@@ 33
1236 33
1323 33
1544 33
1547 33
1554 33
1569 33
1585 33
1635 33
1693 33
2300 33
367 33
401 33
409 33
445 33
467 33
502 33
533 33
539 33
545 33
55,@@ 33
619 33
639 33
644 33
652 33
707 33
790 33
845 33
875 33
9.7 33
935 33
Africa 33
Ancient 33
Borough 33
Christian 33
Dam@@ 33
Eng@@ 33
Europe 33
FI 33
February 33
Film 33
Ga 33
Geneva 33
Hans 33
Hat@@ 33
Home 33
Hospital 33
Hydr@@ 33
IGN 33
ION 33
ISC 33
Korean 33
Ling@@ 33
Mary 33
Museum 33
NO 33
Nas@@ 33
Navy 33
Near 33
On@@ 33
PG@@ 33
PP 33
S2 33
Sev@@ 33
Si 33
Sup@@ 33
TR 33
Tro@@ 33
UC 33
Video 33
Wel@@ 33
XIX 33
absorption 33
across 33
activity 33
ads 33
ae@@ 33
age@@ 33
animal 33
aram 33
ato 33
aud@@ 33
bel@@ 33
bin 33
bus 33
changes 33
chem 33
codes 33
conduc@@ 33
cryst@@ 33
dB 33
dat@@ 33
density 33
disorder 33
distribution 33
eal 33
ebo 33
ected 33
electronic 33
ening 33
esia 33
ff 33
fol@@ 33
formed 33
ft@@ 33
hak@@ 33
head@@ 33
help 33
hex@@ 33
hil@@ 33
hip 33
however 33
hp 33
ington 33
interest 33
latitude 33
long@@ 33
lower 33
mani 33
mechanical 33
ment@@ 33
mid 33
moment 33
nas@@ 33
o.@@ 33
organ@@ 33
ova 33
para 33
physi@@ 33
placement 33
pot@@ 33
rac@@ 33
relative 33
ring 33
runs 33
sex 33
signal 33
simple 33
sometimes 33
syndrome 33
territory 33
transfer 33
udi 33
val 33
val@@ 33
velocity 33
verse 33
vous 33
whole 33
wing 33
xy@@ 33
yn 33
zo@@ 33
ó@@ 33
ø@@ 33
ρ 33
ע@@ 33
عبد 33
۝ 33
ਕ@@ 33
ਗ@@ 33
ਲ@@ 33
ತ@@ 33
ර@@ 33
ྱ@@ 33
ရ@@ 33
⁄ 33
1,1 32
1,2 32
1014 32
1290 32
1501 32
1586 32
1589 32
1591 32
1621 32
1633 32
1682 32
1697 32
1747 32
362 32
378 32
418 32
421 32
451 32
465 32
4th 32
55.@@ 32
552 32
612 32
623 32
626 32
6500 32
651 32
744 32
7500 32
765 32
775 32
848 32
945 32
965 32
98.@@ 32
ACE 32
AH@@ 32
APA 32
Ach@@ 32
BL@@ 32
Bro@@ 32
CCD 32
CW 32
Chak@@ 32
Compar@@ 32
Dragon 32
Entertainment 32
Es 32
Eth@@ 32
Fac@@ 32
Forest 32
GMT 32
GPS 32
Gun@@ 32
Juan 32
Ker@@ 32
Kos@@ 32
Kum@@ 32
Lat@@ 32
Low 32
Major 32
Mosque 32
OC 32
Party 32
Persian 32
Pin@@ 32
Pun@@ 32
Rag@@ 32
Rud@@ 32
TM 32
Tech 32
Tul@@ 32
UCLA 32
Vit@@ 32
XIII 32
alist 32
amar@@ 32
ame@@ 32
andra 32
atha 32
atom@@ 32
ats@@ 32
bes 32
big 32
but@@ 32
capital 32
ces 32
chen 32
cis 32
concept 32
cut 32
definition 32
degree 32
direction 32
display 32
diz@@ 32
ear 32
economy 32
either 32
ended 32
epo@@ 32
expression 32
fall 32
flux 32
front 32
fu@@ 32
further 32
gn@@ 32
hir@@ 32
hypo@@ 32
idi@@ 32
immune 32
inary 32
increase 32
k.@@ 32
lens 32
lock 32
longitude 32
meg@@ 32
member 32
mobile 32
names 32
noinclude 32
nor@@ 32
ols 32
otrop@@ 32
ow 32
personal 32
pic 32
plus 32
proportional 32
rana 32
received 32
rel 32
risk 32
running 32
ser 32
serv@@ 32
services 32
site 32
solution 32
sound 32
speci@@ 32
sy 32
tering 32
tes@@ 32
thought 32
today 32
tric@@ 32
tu 32
ump@@ 32
uni 32
vin@@ 32
volume 32
writing 32
you@@ 32
zone 32
н@@ 32
ى 32
ަ@@ 32
अपि@@ 32
बहुता@@ 32
मशह@@ 32
समुदा@@ 32
খ@@ 32
ன@@ 32
ద@@ 32
ಲ@@ 32
් 32
ད@@ 32
-------- 31
02.@@ 31
1347 31
1679 31
1684 31
1686 31
2,3 31
2700 31
348 31
3600 31
363 31
398 31
40,@@ 31
402 31
412 31
45,@@ 31
46,@@ 31
461 31
496 31
536 31
546 31
563 31
60.@@ 31
605 31
614 31
631 31
68,@@ 31
705 31
756 31
7th 31
885 31
912 31
AW 31
Administration 31
Af@@ 31
Am 31
Amaz@@ 31
Autom@@ 31
Bat@@ 31
Blood 31
Books 31
By@@ 31
Cell 31
Child 31
Congress 31
D2 31
DA@@ 31
Da 31
Direc@@ 31
E2 31
FL 31
Federation 31
Financial 31
Glacier 31
Gran@@ 31
IUPAC 31
Identi@@ 31
Il@@ 31
Ji@@ 31
KA 31
KN@@ 31
Kak@@ 31
Kr@@ 31
Little 31
Lun@@ 31
MB@@ 31
MF 31
Mis@@ 31
NI 31
No. 31
O.@@ 31
PRI 31
Ped@@ 31
Philosophy 31
Posi@@ 31
Press 31
RAS 31
Sand@@ 31
Scientific 31
Since 31
Times 31
Trich@@ 31
UP 31
UR 31
USSR 31
UT 31
Ud@@ 31
VP 31
Van 31
Vik@@ 31
Village 31
Wa@@ 31
XL@@ 31
acea 31
aman@@ 31
announced 31
anta 31
aran 31
arith@@ 31
artic@@ 31
attack 31
aul@@ 31
avi@@ 31
bah@@ 31
binary 31
bon 31
broad@@ 31
central 31
che 31
components 31
controlled 31
cro@@ 31
dale 31
developed 31
df 31
dimensional 31
eb 31
eding 31
ener@@ 31
enth@@ 31
eu@@ 31
eur@@ 31
evidence 31
fal@@ 31
female 31
files 31
former 31
gia 31
gly@@ 31
hap@@ 31
ikt 31
ills 31
ind 31
internal 31
kWh 31
ku 31
largest 31
little 31
live 31
lor@@ 31
lum 31
measure 31
molec@@ 31
onda 31
pap@@ 31
pas@@ 31
performance 31
plate 31
pm 31
polar 31
pros@@ 31
race 31
radio 31
ran 31
ras@@ 31
relation 31
rights 31
scrip@@ 31
shift 31
shows 31
significant 31
sky 31
sl@@ 31
spot@@ 31
static 31
step 31
thesis 31
ticism 31
ticul@@ 31
tile 31
tissue 31
town 31
tun@@ 31
uni@@ 31
upon 31
user 31
usually 31
vul@@ 31
wa@@ 31
wo@@ 31
words 31
working 31
yal@@ 31
ç@@ 31
é@@ 31
ν 31
ַ@@ 31
ם 31
ॲ@@ 31
অ@@ 31
ব 31
ਪ@@ 31
ର@@ 31
ல 31
డ@@ 31
ಪ@@ 31
ು 31
† 31
0x@@ 30
1018 30
1190 30
1386 30
1414 30
1522 30
1524 30
1634 30
1647 30
1691 30
373 30
408 30
41.@@ 30
5500 30
594 30
655 30
690 30
6th 30
704 30
710 30
725 30
91.@@ 30
910 30
915 30
944 30
97.@@ 30
973 30
Agr@@ 30
Auth@@ 30
Bos@@ 30
DN@@ 30
Def@@ 30
Din@@ 30
FT@@ 30
Fat@@ 30
Fir@@ 30
Gas@@ 30
Go 30
Gro@@ 30
HS@@ 30
Hyper@@ 30
Inf@@ 30
Jay@@ 30
KS 30
Kab@@ 30
Kashmir 30
Ky@@ 30
LF 30
Lap@@ 30
Magne@@ 30
Map@@ 30
Method 30
Nov@@ 30
PB 30
Post@@ 30
Proj@@ 30
Rah@@ 30
Rap@@ 30
Rev@@ 30
Rock 30
Self 30
Sex@@ 30
Shan@@ 30
Sor@@ 30
Sub 30
Survey 30
Sus@@ 30
TNA 30
TRA@@ 30
Teh@@ 30
Up@@ 30
VM 30
VW 30
Vin@@ 30
WB@@ 30
What 30
Wi@@ 30
Win@@ 30
Wo 30
ais 30
amba 30
amus 30
aster@@ 30
ateral 30
better 30
birds 30
bra 30
buc@@ 30
cal 30
composed 30
conservation 30
continu@@ 30
cru@@ 30
cs 30
dar@@ 30
discre@@ 30
dot 30
ductor 30
dur@@ 30
edge 30
edi 30
eds 30
election 30
ends 30
eness 30
established 30
eters 30
false 30
follow 30
fric@@ 30
gence 30
give 30
graph@@ 30
gre@@ 30
greater 30
hun@@ 30
icals 30
icus 30
ikim@@ 30
instead 30
instrument 30
integr@@ 30
iting 30
jav@@ 30
know 30
kur@@ 30
kw@@ 30
larger 30
legal 30
lic@@ 30
logic 30
loss 30
maps 30
materials 30
members 30
meter 30
night 30
ning 30
ocar@@ 30
ogr@@ 30
operations 30
ops 30
orth@@ 30
orum 30
pad@@ 30
po 30
polar@@ 30
positi@@ 30
post@@ 30
pus 30
radius 30
refr@@ 30
seen 30
seven 30
shell 30
shi@@ 30
status 30
taken 30
teenth 30
tera 30
than@@ 30
ule 30
ulum 30
vertebr@@ 30
virus 30
yst@@ 30
¾ 30
ু 30
ବ@@ 30
ந@@ 30
ோ@@ 30
ತ 30
മ 30
1194 29
1210 29
1375 29
1440 29
1537 29
1645 29
2C 29
2O@@ 29
349 29
43.@@ 29
437 29
447 29
471 29
504 29
604 29
615 29
621 29
732 29
73@@ 29
8.9 29
802 29
872 29
878 29
968 29
977 29
993 29
Alexander 29
Ath@@ 29
Au 29
Beg@@ 29
Br 29
Bruno 29
Bureau 29
Ca 29
Canis 29
Chang@@ 29
Chemical 29
Chit@@ 29
Dand@@ 29
Der@@ 29
Fal@@ 29
Festival 29
Food 29
Frederick 29
Fu@@ 29
GE@@ 29
Gandhi 29
Greek 29
Hard@@ 29
Inc 29
Ish@@ 29
Ja@@ 29
Khan@@ 29
Kod@@ 29
LV@@ 29
Lac@@ 29
Light 29
Meg@@ 29
Modern 29
More 29
NAD@@ 29
NATO 29
NF 29
Naval 29
Organisation 29
PH 29
Page 29
RC@@ 29
RP 29
Ram 29
Roman 29
Rs 29
Rus@@ 29
Russian 29
Sap@@ 29
Sind@@ 29
Som@@ 29
TN@@ 29
Tech@@ 29
Tran@@ 29
Tru@@ 29
UB 29
Wo@@ 29
Xia@@ 29
aca 29
adr@@ 29
aer@@ 29
agus 29
aling 29
although 29
anese 29
applied 29
arc 29
archy 29
art@@ 29
asc@@ 29
atives 29
atom 29
award 29
aye 29
bas@@ 29
bat 29
bat@@ 29
began 29
bes@@ 29
bird 29
ble@@ 29
bos@@ 29
bri@@ 29
building 29
came 29
cher 29
complete 29
domain 29
dop@@ 29
edded 29
elling 29
ells 29
eva 29
exposure 29
famous 29
fly 29
fusion 29
heter@@ 29
icial 29
ification 29
iler 29
imb@@ 29
iron 29
lang 29
lation 29
laws 29
lers 29
located 29
los 29
lost 29
medical 29
mir@@ 29
modi@@ 29
movement 29
nd@@ 29
never 29
official 29
ogy 29
ologists 29
onian 29
philosophy 29
phyl@@ 29
ple 29
read 29
relationship 29
rem@@ 29
runners 29
su 29
tang@@ 29
tered 29
then@@ 29
thi@@ 29
together 29
vacu@@ 29
various 29
ving 29
vision 29
á 29
خان 29
एलिजा@@ 29
धरो@@ 29
স 29
ಯ@@ 29
ത 29
ེ@@ 29
ྲ@@ 29
006 28
1215 28
1279 28
1311 28
1330 28
1351 28
1368 28
1405 28
1433 28
1469 28
1484 28
1548 28
1581 28
1599 28
1673 28
186@@ 28
374 28
388 28
397 28
416 28
43,@@ 28
454 28
462 28
4x@@ 28
578 28
581 28
5th 28
60,@@ 28
633 28
64,@@ 28
647 28
672 28
678 28
717 28
745 28
762 28
767 28
80,@@ 28
825 28
835 28
879 28
901 28
916 28
931 28
975 28
ACT 28
AJ@@ 28
AO 28
ASS 28
Alta@@ 28
Area 28
Arts 28
Au@@ 28
Beh@@ 28
Billboard 28
Book@@ 28
CCC 28
Cass@@ 28
Chau@@ 28
Civ@@ 28
Cos@@ 28
Dem@@ 28
Dro@@ 28
EV 28
Ele@@ 28
F2 28
Falls 28
Ferrari 28
Gam@@ 28
Had@@ 28
Hin@@ 28
ICS 28
LL@@ 28
Lam@@ 28
Main 28
Max 28
Now 28
OL 28
One@@ 28
Ox@@ 28
PCI 28
PF 28
PHP 28
PV@@ 28
Pand@@ 28
PlayStation 28
Rak@@ 28
Ramp@@ 28
Raw 28
Sens@@ 28
Shock 28
Street 28
Study 28
Swar@@ 28
Sym@@ 28
T20 28
Technical 28
Ti 28
Urdu 28
Van@@ 28
Vul@@ 28
Washington 28
Wr@@ 28
ably 28
absolute 28
agr@@ 28
arian 28
aro@@ 28
astronom@@ 28
awan 28
bad@@ 28
birth 28
blue 28
bro@@ 28
care 28
ci 28
colors 28
compounds 28
content 28
death 28
digital 28
dor@@ 28
dri@@ 28
ds@@ 28
eau 28
eh 28
ei@@ 28
ein@@ 28
eless 28
eling 28
eon 28
eps 28
ero 28
expansion 28
financial 28
fix 28
flo@@ 28
forest 28
gave 28
growth 28
gs 28
hir 28
ices 28
infin@@ 28
inv@@ 28
inverse 28
iser 28
itic 28
ities 28
jan 28
lan 28
lap@@ 28
levels 28
ling@@ 28
lingu@@ 28
lot 28
lumin@@ 28
middle 28
nh@@ 28
office 28
ogenic 28
oidea 28
onn@@ 28
osom@@ 28
ously 28
oy@@ 28
partial 28
patr@@ 28
pay@@ 28
pent@@ 28
played 28
pling 28
press@@ 28
regul@@ 28
rest 28
ry@@ 28
sain 28
sand 28
scat@@ 28
sequence 28
sit@@ 28
steel 28
stroke 28
studies 28
sub 28
sum@@ 28
tin@@ 28
translation 28
trom@@ 28
tus 28
uj@@ 28
ulu 28
uns 28
urs 28
via 28
vid 28
vow@@ 28
wer@@ 28
yap@@ 28
ystal 28
zz@@ 28
¿ 28
ão 28
ɪ 28
ֹ@@ 28
כ@@ 28
م 28
सदीय 28
এ@@ 28
ਵ@@ 28
ੋ@@ 28
ે 28
ந 28
ూ@@ 28
ె@@ 28
ད 28
≈ 28
ン@@ 28
1170 27
1225 27
1240 27
1260 27
1420 27
1486 27
1487 27
1502 27
1508 27
1514 27
1559 27
1592 27
1595 27
1604 27
1607 27
1662 27
1741 27
2000@@ 27
3200 27
379 27
387 27
422 27
426 27
428 27
431 27
48,@@ 27
484 27
488 27
518 27
526 27
564 27
589 27
635 27
638 27
654 27
694 27
713 27
727 27
735 27
757 27
788 27
811 27
812 27
815 27
836 27
890 27
996 27
9th 27
Agricultural 27
Air@@ 27
Alt 27
Asian 27
Astronom@@ 27
Australian 27
Awards 27
Beach 27
Bihar 27
Bul@@ 27
CAP 27
Club 27
Conference 27
Dav@@ 27
Declaration 27
Dol@@ 27
Early 27
Environment 27
Era 27
FD 27
FR@@ 27
Family 27
Germany 27
GmbH 27
Gul@@ 27
HV@@ 27
Hum@@ 27
Int@@ 27
Iron 27
Jacques 27
Japanese 27
Kn@@ 27
LG 27
Lab@@ 27
Later 27
Legal 27
Lin 27
Lingu@@ 27
MM@@ 27
NC@@ 27
Nokia 27
P2 27
Palae@@ 27
Punjab 27
Rad@@ 27
Real 27
Ret@@ 27
SUV 27
Shah 27
Smith 27
Southern 27
Sug@@ 27
Trade 27
Training 27
UB@@ 27
Vas@@ 27
Vij@@ 27
XXX 27
aik@@ 27
alized 27
amin@@ 27
angles 27
apr@@ 27
ary@@ 27
ate@@ 27
bility 27
billion 27
bing 27
charged 27
chron@@ 27
clear 27
college 27
combin@@ 27
concentration 27
constellation 27
cot@@ 27
crip@@ 27
cript 27
deep 27
dha 27
diver@@ 27
ease 27
eda 27
educ@@ 27
ej@@ 27
ement@@ 27
ems 27
ered 27
error 27
especially 27
etc 27
fas@@ 27
frac@@ 27
ges@@ 27
glass 27
gold 27
harmon@@ 27
hr 27
iOS 27
ici@@ 27
ico 27
icon@@ 27
ign@@ 27
incident 27
intelligence 27
inus 27
ishes 27
itself 27
iya 27
ju 27
ked 27
kon@@ 27
lar 27
least 27
lets 27
letter 27
lev@@ 27
lier 27
limited 27
lion 27
love 27
mother 27
oda 27
ographic 27
operative 27
oplas@@ 27
oric 27
osci@@ 27
oscill@@ 27
param@@ 27
paras@@ 27
path 27
pedia 27
pore 27
problems 27
proc@@ 27
processes 27
propag@@ 27
reci@@ 27
relations 27
ret@@ 27
sal 27
say 27
sector 27
selection 27
semi 27
sha 27
shar@@ 27
sight 27
sis 27
sort 27
sq 27
squ@@ 27
sure 27
tend@@ 27
tex@@ 27
though 27
tre 27
tri 27
triangle 27
tron 27
trop@@ 27
turn 27
udu 27
vid@@ 27
wala 27
wi 27
wind 27
wr@@ 27
write 27
yet 27
yth@@ 27
¥ 27
º@@ 27
Ð 27
ã@@ 27
ö@@ 27
ār@@ 27
ον 27
د 27
ंपरिक 27
तेलु@@ 27
यंकर 27
रणार 27
ऴ@@ 27
ॐ@@ 27
ড 27
ੀ@@ 27
ட 27
ற@@ 27
ದ 27
ೆ 27
ೆ@@ 27
ೇ@@ 27
േ@@ 27
མ 27
004 26
05.@@ 26
1015 26
1054 26
1097 26
1111 26
12.7 26
1343 26
1424 26
1444 26
1460 26
1490 26
1513 26
1566 26
1571 26
1578 26
1579 26
1587 26
1663 26
1676 26
1681 26
2026 26
2B 26
3A 26
424 26
429 26
446 26
452 26
47,@@ 26
472 26
499 26
506 26
508 26
521 26
531 26
58,@@ 26
637 26
643 26
662 26
673 26
753 26
778 26
817 26
822 26
826 26
838 26
855 26
86,@@ 26
866 26
882 26
8th 26
902 26
953 26
961 26
972 26
998 26
AA@@ 26
AAA 26
AMD 26
AVN 26
Advanced 26
Astr@@ 26
BASIC 26
Bac@@ 26
Bon@@ 26
Bot@@ 26
Box 26
Capr@@ 26
Chal@@ 26
Climate 26
Coll@@ 26
Convention 26
Culture 26
Differ@@ 26
Dum@@ 26
Dy@@ 26
Ec@@ 26
Edge 26
Emp@@ 26
FE@@ 26
Foreign 26
François 26
Fund 26
Gad@@ 26
Gn@@ 26
God@@ 26
Graph@@ 26
Hall 26
Here 26
ICE 26
Industry 26
Kand@@ 26
Khal@@ 26
Krishna 26
Laun@@ 26
Li 26
Lor@@ 26
MAC 26
MCA 26
Mental 26
Michael 26
Muhammad 26
Muk@@ 26
Nature 26
Not@@ 26
Number 26
Oper@@ 26
Ori@@ 26
PGA 26
Pak@@ 26
Pass@@ 26
Pic@@ 26
Pierre 26
Produc@@ 26
Pter@@ 26
Py@@ 26
Pyr@@ 26
QS 26
Range 26
SO 26
Shil@@ 26
Techn@@ 26
Tib@@ 26
Tol@@ 26
Treaty 26
Type 26
Upper 26
V.@@ 26
VR 26
Vic@@ 26
WG 26
XVII 26
abi 26
account 26
ading 26
aic 26
alli@@ 26
alphab@@ 26
amy 26
anna 26
asy@@ 26
ativ@@ 26
available 26
bias 26
bon@@ 26
cancer 26
cha@@ 26
che@@ 26
ched 26
ck 26
day@@ 26
died 26
dist@@ 26
divided 26
done 26
door 26
e- 26
economics 26
ert 26
ext@@ 26
eye 26
factors 26
file 26
fire 26
got 26
gradi@@ 26
gro@@ 26
hana 26
hand@@ 26
hip@@ 26
hop@@ 26
ication 26
ie@@ 26
ier 26
includes 26
infection 26
injury 26
interaction 26
kul@@ 26
lies 26
lin 26
lit 26
lit@@ 26
location 26
loss@@ 26
mark 26
mic@@ 26
monument 26
move 26
nar@@ 26
new@@ 26
off@@ 26
once 26
orbit 26
outside 26
p.@@ 26
placed 26
project 26
rak@@ 26
rane 26
rational 26
reading 26
reference 26
rock 26
rotation 26
sak@@ 26
scientific 26
security 26
sed 26
strong 26
tak@@ 26
themselves 26
thm 26
tial 26
too 26
tract 26
training 26
trav@@ 26
treatment 26
trol@@ 26
tures 26
tz 26
ui@@ 26
visual 26
y.@@ 26
yon 26
ç 26
ε@@ 26
ա@@ 26
ة 26
भिकिया@@ 26
ই@@ 26
ঙ 26
ੁ@@ 26
્ 26
ை@@ 26
స@@ 26
ക 26
ട@@ 26
ག 26
ི@@ 26
005 25
1020 25
1415 25
1470 25
1475 25
1507 25
1549 25
1563 25
1573 25
1584 25
1637 25
346 25
393 25
459 25
473 25
485 25
492 25
493 25
538 25
567 25
57,@@ 25
597 25
65.@@ 25
653 25
667 25
671 25
675 25
684 25
701 25
718 25
801 25
809 25
871 25
877 25
90,@@ 25
908 25
923 25
936 25
AK 25
Amp@@ 25
Back@@ 25
Bill 25
Bis@@ 25
CH3@@ 25
CSA 25
Championships 25
Chap@@ 25
Chlor@@ 25
Current 25
Design 25
Emb@@ 25
Ep@@ 25
Explorer 25
Friedrich 25
Game 25
Gol@@ 25
HE@@ 25
Harry 25
How 25
Human@@ 25
IE 25
IMA 25
IU@@ 25
Ide@@ 25
Japan 25
Jod@@ 25
Ju@@ 25
Key 25
Kit@@ 25
Kul@@ 25
LGBT 25
Laboratory 25
Lar@@ 25
Les@@ 25
Let 25
MBA 25
Mars 25
Mathematical 25
Mg@@ 25
Mic@@ 25
Mission 25
Motion 25
Muslim 25
Nah@@ 25
Northern 25
OK 25
PBS 25
PDF 25
PI@@ 25
Param@@ 25
Pav@@ 25
Physical 25
Policy 25
Psychology 25
RN 25
Radio 25
SG 25
SG@@ 25
Saf@@ 25
Score 25
Sher@@ 25
Sk@@ 25
Spe@@ 25
Statistical 25
Story 25
Tap@@ 25
Three 25
Twitter 25
UGC 25
USS 25
Vil@@ 25
Vish@@ 25
WR 25
Way 25
While 25
Who 25
Wikipedia 25
Wimbledon 25
X.@@ 25
XVIII 25
Zh@@ 25
aba 25
aceous 25
acquired 25
ades 25
ahi 25
angal@@ 25
anism 25
apping 25
aring 25
army 25
arrangement 25
ask@@ 25
associated 25
aut@@ 25
aw 25
bai 25
beat 25
bic@@ 25
bir@@ 25
bond 25
cath@@ 25
chol@@ 25
circum@@ 25
civil 25
commonly 25
component 25
condens@@ 25
conflict 25
core 25
dev 25
dhar@@ 25
dil@@ 25
dir@@ 25
divid@@ 25
doc@@ 25
dule 25
eller 25
eman 25
enia 25
erg@@ 25
fraction 25
frame 25
freedom 25
fuel 25
fur@@ 25
generally 25
glo@@ 25
global 25
greatest 25
gri 25
gy@@ 25
himself 25
icity 25
idal 25
ike 25
insul@@ 25
interface 25
ison 25
ista 25
ister 25
isti@@ 25
itter 25
jo@@ 25
kit 25
knowledge 25
lied 25
lob@@ 25
low@@ 25
mathematics 25
mill@@ 25
mode 25
money 25
moving 25
nar 25
navigation 25
odynam@@ 25
ogram 25
one@@ 25
opposite 25
ore@@ 25
osper@@ 25
otype 25
park 25
pers 25
piece 25
port 25
pp. 25
prim@@ 25
program 25
proof 25
ps@@ 25
quad@@ 25
reservoir 25
rh@@ 25
rian 25
rules 25
sab@@ 25
season 25
sho@@ 25
sian 25
sides 25
som@@ 25
standards 25
stock 25
stom@@ 25
test@@ 25
thermal 25
tradition 25
trial 25
uch@@ 25
unner 25
urai 25
uri@@ 25
vel@@ 25
venti@@ 25
ves@@ 25
writer 25
yon@@ 25
zh@@ 25
ñ@@ 25
÷ 25
š@@ 25
ū 25
ζ 25
۔ 25
ंडोज 25
दीदा 25
परियो@@ 25
উ@@ 25
ਬ@@ 25
ી 25
ે@@ 25
క 25
ಕ 25
འ@@ 25
ལ 25
ྫ@@ 25
တ@@ 25
ḍ@@ 25
03.@@ 24
1025 24
105@@ 24
1189 24
1230 24
1388 24
1421 24
1455 24
1478 24
1496 24
1503 24
1678 24
1692 24
1B 24
3.0@@ 24
383 24
407 24
419 24
448 24
478 24
479 24
489 24
495 24
509 24
516 24
522 24
535 24
551 24
553 24
577 24
602 24
609 24
613 24
618 24
646 24
668 24
70,@@ 24
714 24
723 24
728 24
758 24
823 24
863 24
889 24
939 24
962 24
966 24
971 24
976 24
991 24
Ad 24
Analysis 24
Another 24
Arg@@ 24
Assembly 24
Aur@@ 24
Australia 24
Bet@@ 24
Beta 24
C4 24
CAN 24
CON 24
Canadian 24
Cham@@ 24
Chang 24
Che@@ 24
Cle@@ 24
Coast 24
Contr@@ 24
Cot@@ 24
DV 24
Dak@@ 24
Diff@@ 24
Don@@ 24
Dynam@@ 24
Ed 24
Electronic 24
Empire 24
Express 24
Fol@@ 24
Gold 24
Good 24
HM@@ 24
Head 24
Heritage 24
High@@ 24
Hom@@ 24
IMF 24
Independence 24
Islands 24
LM 24
Lav@@ 24
Learning 24
Max@@ 24
Mem@@ 24
Men 24
Model 24
NHS 24
Newton 24
Night 24
Nor@@ 24
Olympic 24
Orth@@ 24
Os 24
PSP 24
Pacific 24
Power@@ 24
Princip@@ 24
Queen 24
RB@@ 24
Read 24
Rom@@ 24
STS 24
Shir@@ 24
Show 24
Shu@@ 24
Sound 24
Spo@@ 24
Studio 24
Third 24
Tik@@ 24
Top@@ 24
Twenty 24
UNICEF 24
Um@@ 24
Universal 24
WI 24
Wilhelm 24
With 24
Xi@@ 24
You@@ 24
abe 24
ace@@ 24
actions 24
agent 24
anatom@@ 24
author 24
auto@@ 24
ball 24
bb@@ 24
begin 24
bert 24
bo 24
brain 24
capac@@ 24
cases 24
cell@@ 24
characters 24
cher@@ 24
claim 24
climate 24
communication 24
concrete 24
cop@@ 24
court 24
currently 24
dan 24
derived 24
directly 24
down@@ 24
effects 24
ele@@ 24
ematic 24
enough 24
ero@@ 24
esa 24
eur 24
exc@@ 24
experiment 24
fill 24
fit 24
folia 24
forced 24
forward 24
gas@@ 24
gene 24
get@@ 24
gives 24
hain 24
hier@@ 24
historical 24
hiv@@ 24
hold 24
hours 24
indica 24
indoor 24
intensity 24
ising 24
itz 24
kal 24
lad@@ 24
lang@@ 24
loop 24
meaning 24
mental 24
months 24
nag@@ 24
nec@@ 24
neg@@ 24
next 24
oke 24
olar 24
omer@@ 24
ority 24
particular 24
pass 24
pes 24
pic@@ 24
player 24
pre 24
prime 24
produce 24
pun@@ 24
rat 24
reduction 24
religion 24
representation 24
rig@@ 24
room 24
roqui@@ 24
sav@@ 24
saw 24
sexual 24
shan 24
special 24
styl@@ 24
suc@@ 24
tabla 24
tari@@ 24
tel 24
ther 24
thir@@ 24
tho@@ 24
tory 24
ums 24
unique 24
ved 24
viol@@ 24
water@@ 24
week 24
wel@@ 24
wer 24
ws 24
yal 24
¸ 24
Ü@@ 24
̃ 24
μm 24
ק@@ 24
ر@@ 24
इताल@@ 24
णिज 24
वाराण@@ 24
संबर 24
ণ 24
ূ@@ 24
ੱ@@ 24
ମ@@ 24
ெ@@ 24
ை 24
న 24
ා@@ 24
ි@@ 24
ེ 24
ា@@ 24
█ 24
003 23
08.@@ 23
1030 23
1035 23
1070 23
1220 23
1258 23
1301 23
1370 23
1468 23
1481 23
1495 23
1499 23
1546 23
19th 23
456 23
466 23
507 23
513 23
514 23
547 23
549 23
557 23
56,@@ 23
572 23
598 23
608 23
611 23
691 23
734 23
754 23
776 23
78,@@ 23
795 23
828 23
849 23
862 23
921 23
947 23
955 23
974 23
ASCII 23
ATP 23
Ai 23
Alfred 23
Amar@@ 23
Anti 23
BN 23
Black@@ 23
Bran@@ 23
Bridge 23
CK@@ 23
Capital 23
Card 23
Centr@@ 23
Chil@@ 23
Chin@@ 23
Cup 23
Dam 23
Dead 23
Don 23
EG@@ 23
ESPN 23
F3 23
FE 23
Fel@@ 23
Field 23
Francis 23
Get@@ 23
Golden 23
Grammar 23
H1 23
Hai 23
Hand@@ 23
Hon@@ 23
Immun@@ 23
Indian@@ 23
Investment 23
Karl 23
LIN@@ 23
Liber@@ 23
Meh@@ 23
Mess@@ 23
Mr. 23
NP 23
NY 23
Natur@@ 23
Neg@@ 23
Nic@@ 23
Oxford 23
PAN@@ 23
PAR@@ 23
Pho@@ 23
Physics 23
Plan 23
Plat@@ 23
Prince 23
Rang@@ 23
Ras@@ 23
Re 23
Sel@@ 23
Sha@@ 23
Sl@@ 23
Sph@@ 23
Spir@@ 23
Square 23
Statistics 23
Stock 23
T2 23
TI@@ 23
TW@@ 23
Tem@@ 23
That 23
UA 23
UFO 23
UM 23
WRC 23
WTA 23
Wall 23
Whit@@ 23
academic 23
acted 23
addi@@ 23
ady 23
agog@@ 23
agu@@ 23
alit@@ 23
alu 23
amm@@ 23
angular 23
arium 23
asia 23
asing 23
aura 23
awn 23
bacteria 23
bad 23
biology 23
capacity 23
card 23
col 23
common@@ 23
conson@@ 23
coordinates 23
cost 23
count@@ 23
created 23
curr@@ 23
dea 23
decom@@ 23
di.@@ 23
dies 23
ensi@@ 23
entation 23
ession 23
exec@@ 23
finals 23
fir@@ 23
flav@@ 23
gun 23
hari 23
heart 23
hole 23
ij@@ 23
iki 23
inflam@@ 23
ink@@ 23
ism@@ 23
ito 23
jar 23
ky@@ 23
leading 23
lep@@ 23
liv@@ 23
luk 23
mRNA 23
mai 23
mand@@ 23
matrix 23
max 23
metric 23
mis 23
molecular 23
momentum 23
moral 23
nerve 23
obi@@ 23
obic 23
occur 23
oll@@ 23
oms 23
ond 23
oon 23
oriented 23
origin 23
otom@@ 23
ped@@ 23
pher@@ 23
phic 23
ping 23
poems 23
port@@ 23
ports 23
press 23
recur@@ 23
resulting 23
ru 23
sah@@ 23
sites 23
soil 23
sour@@ 23
span 23
t. 23
tai 23
thal@@ 23
titles 23
tone 23
top@@ 23
trag@@ 23
tras@@ 23
ui 23
ulam 23
ume 23
umin@@ 23
ventr@@ 23
vet 23
vic@@ 23
watch 23
wav@@ 23
win@@ 23
wind@@ 23
wolf 23
yam 23
yar@@ 23
yellow 23
young 23
yx 23
ze@@ 23
zer 23
¨ 23
µ@@ 23
ó 23
ē 23
ŋ@@ 23
˚ 23
в@@ 23
о@@ 23
ל 23
أبو 23
د@@ 23
ز@@ 23
علی 23
ن@@ 23
अचा@@ 23
ঁ@@ 23
ન@@ 23
ா 23
ಡ@@ 23
ಶ@@ 23
ള@@ 23
ར 23
ྒ@@ 23
သ@@ 23
္ 23
ṇ@@ 23
↓ 23
李@@ 23
09.@@ 22
1095 22
1130 22
1324 22
1360 22
1406 22
1488 22
1489 22
1493 22
1567 22
1677 22
394 22
441 22
469 22
482 22
498 22
519 22
54,@@ 22
542 22
584 22
648 22
665 22
679 22
681 22
682 22
742 22
748 22
751 22
759 22
781 22
803 22
842 22
865 22
89,@@ 22
898 22
904 22
95,@@ 22
951 22
952 22
969 22
988 22
994 22
AMA 22
AY@@ 22
Agriculture 22
Anthro@@ 22
App 22
Arc@@ 22
Archae@@ 22
Ass@@ 22
Bay@@ 22
Bell 22
Bom@@ 22
Building 22
CDC 22
CK 22
CON@@ 22
Carbon 22
Carl 22
Chem@@ 22
Cher@@ 22
Commonwealth 22
Cu 22
D.C. 22
DG@@ 22
Deg@@ 22
Diplom@@ 22
Dul@@ 22
EI 22
FR 22
Free@@ 22
GN 22
GW 22
HT 22
Honda 22
IOC 22
Indo 22
Its 22
Jan 22
Johann 22
K2 22
KB 22
Kud@@ 22
L1 22
Lambert 22
Luc@@ 22
MP3 22
MU@@ 22
Main@@ 22
Mathematics 22
Mo 22
Money 22
Mumbai 22
NGC 22
Nir@@ 22
Nuclear 22
Ol@@ 22
Only 22
Operation 22
Original 22
Part 22
Paw@@ 22
Peace 22
Port 22
Princi@@ 22
Programm@@ 22
Publishing 22
Put@@ 22
RR 22
Rao 22
Review 22
Roh@@ 22
Rol@@ 22
SAS 22
Sahi@@ 22
Seven 22
Shell 22
Short 22
Sn@@ 22
Staff 22
TB 22
Taylor 22
Termin@@ 22
Thus 22
Tiger 22
Til@@ 22
Tom@@ 22
Up 22
WC 22
Wis@@ 22
Work 22
acter 22
acting 22
added 22
additional 22
ado 22
agi 22
alam 22
alan@@ 22
alt@@ 22
ament 22
ami@@ 22
application 22
ator@@ 22
audio 22
aun@@ 22
aut 22
automatic 22
aves 22
awali 22
ayed 22
bal 22
bis 22
break 22
cand@@ 22
cc@@ 22
completed 22
condi@@ 22
conducting 22
contact 22
continuous 22
cou@@ 22
defeat 22
despite 22
dog 22
dre@@ 22
edback 22
edit@@ 22
ega 22
eing 22
electronics 22
else 22
ender 22
eping 22
eria 22
failure 22
fan 22
far@@ 22
follows 22
foot@@ 22
fourth 22
gain 22
gases 22
genetic 22
giant 22
gravity 22
heli@@ 22
human@@ 22
icide 22
icism 22
ika@@ 22
ilia 22
import 22
iro 22
issa 22
ja@@ 22
je 22
joint 22
kern@@ 22
kol@@ 22
lak@@ 22
las@@ 22
ld@@ 22
lex 22
lim 22
link 22
lip@@ 22
listed 22
look 22
lymph@@ 22
manufacturing 22
mation 22
maximum 22
meet 22
met 22
meth@@ 22
mid@@ 22
mit 22
mos 22
movie 22
nit@@ 22
nitr@@ 22
née 22
ods 22
oi 22
opia 22
ores 22
oria 22
ort 22
otes 22
oti 22
ought 22
oxid@@ 22
pag@@ 22
personality 22
pet 22
pet@@ 22
philosoph@@ 22
phora 22
phosph@@ 22
plug@@ 22
ply 22
politics 22
pren@@ 22
rare 22
rates 22
real@@ 22
rep@@ 22
repe@@ 22
required 22
resolution 22
rit@@ 22
rod@@ 22
role 22
ron 22
satur@@ 22
sep@@ 22
sets 22
sey 22
shown 22
sic 22
sign 22
sion@@ 22
spot 22
strength 22
students 22
superior 22
surgery 22
tac@@ 22
tanks 22
testing 22
therefore 22
transist@@ 22
transmission 22
tured 22
tv 22
udi@@ 22
ulas 22
union 22
usa 22
useful 22
ust@@ 22
uti@@ 22
v. 22
va@@ 22
video 22
vill@@ 22
villages 22
virtu@@ 22
vus 22
ware 22
wife 22
xy 22
yak@@ 22
yr 22
yro@@ 22
zoom 22
¢ 22
É 22
ì 22
γ@@ 22
н 22
ֶ@@ 22
צ@@ 22
ن 22
ٱ@@ 22
रीलं@@ 22
सोसाय@@ 22
জ 22
ਤ 22
ਲ 22
દ@@ 22
ལ@@ 22
ི 22
ခ@@ 22
ပ@@ 22
រ@@ 22
ṣ@@ 22
ⴰ@@ 22
1090 21
1099 21
1274 21
135@@ 21
1380 21
1423 21
1473 21
1593 21
166@@ 21
176@@ 21
2. 21
2.0@@ 21
382 21
42,@@ 21
423 21
436 21
463 21
464 21
532 21
554 21
556 21
574 21
576 21
585 21
692 21
697 21
702 21
724 21
731 21
743 21
752 21
76,@@ 21
851 21
854 21
859 21
886 21
887 21
896 21
926 21
932 21
943 21
946 21
948 21
949 21
985 21
AJ 21
ASA 21
ATE 21
Adobe 21
Akh@@ 21
Although 21
Applied 21
Arab 21
Ball 21
Be 21
Bij@@ 21
Block 21
Bou@@ 21
Cambridge 21
Cen@@ 21
Century 21
Channel 21
Chir@@ 21
Collection 21
Color 21
Coordin@@ 21
DIA 21
DM@@ 21
Dan 21
Drive 21
Eastern 21
Environmental 21
Ex 21
Fire 21
Flash 21
Front 21
GL 21
Game@@ 21
Gas 21
Gau@@ 21
Gem@@ 21
Gon@@ 21
Gra@@ 21
Heli@@ 21
Her 21
Hunger 21
Il 21
Ireland 21
Islam 21
It@@ 21
Jah@@ 21
Jas@@ 21
Jaw@@ 21
Joint 21
Land@@ 21
Lewis 21
Like 21
Mahar@@ 21
Map 21
Maria 21
Mark 21
Marx@@ 21
Mass 21
Miami 21
Mont@@ 21
Mov@@ 21
Movement 21
Myr@@ 21
Nat@@ 21
Nau@@ 21
Ng@@ 21
Not 21
OH@@ 21
OT@@ 21
Object 21
Ocean 21
P1 21
Pah@@ 21
Pedro 21
RMS 21
References 21
Sans@@ 21
Sant@@ 21
Satellite 21
Shak@@ 21
Solar 21
Sto@@ 21
String 21
Suc@@ 21
T20I 21
Thal@@ 21
Then 21
Tradi@@ 21
UE@@ 21
Ut@@ 21
Wiki@@ 21
Works 21
Yoshi@@ 21
according 21
achi 21
agreement 21
aining 21
aker 21
alay@@ 21
amin 21
anced 21
ands 21
angi 21
ares 21
arms 21
arya 21
atch 21
atis@@ 21
atta 21
ayn@@ 21
bah 21
ball@@ 21
band@@ 21
benz@@ 21
bits 21
blog 21
carbon@@ 21
ception 21
clinical 21
collection 21
companies 21
compared 21
conditions 21
conn@@ 21
cricket 21
deer 21
details 21
dice 21
document 21
dom@@ 21
dynam@@ 21
edition 21
elli 21
ema@@ 21
embr@@ 21
emic 21
enes 21
ept@@ 21
esses 21
etry 21
eval 21
expressed 21
fiel@@ 21
figures 21
find 21
flex@@ 21
fon@@ 21
gar 21
hiz@@ 21
hon@@ 21
hot 21
ights 21
illi@@ 21
illy 21
impl@@ 21
inform@@ 21
inger 21
ingi@@ 21
integral 21
ishing 21
itance 21
jag@@ 21
ken 21
kor@@ 21
lac@@ 21
layer 21
lith@@ 21
logo 21
mail@@ 21
meeting 21
month 21
mun@@ 21
mutation 21
nati@@ 21
need 21
ophys@@ 21
opus 21
ost 21
ped 21
practice 21
pression 21
primitive 21
provides 21
pt 21
quarter 21
radio@@ 21
rang 21
rati@@ 21
reactor 21
recognition 21
regular 21
report 21
response 21
reverse 21
sat@@ 21
says 21
set@@ 21
shaft 21
smo@@ 21
sn@@ 21
spread 21
stell@@ 21
string 21
subject 21
tioning 21
transition 21
types 21
ues 21
uman 21
unt 21
uria 21
usion 21
vec@@ 21
vers@@ 21
wali 21
xi 21
yana 21
â@@ 21
ŋ 21
ʊ 21
λ@@ 21
ος 21
р@@ 21
ג@@ 21
ח@@ 21
ح@@ 21
ش@@ 21
ك@@ 21
من 21
मैदा@@ 21
॔ 21
ও@@ 21
ষ 21
જ@@ 21
କ@@ 21
ସ@@ 21
బ@@ 21
ಬ@@ 21
ಲ 21
ಹ@@ 21
ೀ@@ 21
അ@@ 21
സ@@ 21
ာ 21
ḥ@@ 21
∞ 21
.com. 20
1,3 20
1075 20
1125 20
1187 20
1191 20
1199 20
1270 20
1382 20
1402 20
1441 20
1538 20
1557 20
1577 20
1654 20
369 20
396 20
434 20
474 20
491 20
497 20
511 20
52,@@ 20
541 20
548 20
559 20
587 20
593 20
664 20
695 20
709 20
785 20
793 20
794 20
797 20
806 20
821 20
844 20
847 20
852 20
899 20
919 20
92.@@ 20
964 20
967 20
983 20
987 20
99,@@ 20
997 20
ABS 20
Agreement 20
Ale@@ 20
Amazon 20
Andr@@ 20
Apo@@ 20
Back 20
Bengal 20
Bod@@ 20
Boyz 20
Buz@@ 20
CBC 20
Case 20
Cru@@ 20
Cul@@ 20
Delta 20
Dic@@ 20
Dr 20
Ear@@ 20
Eg@@ 20
Electr@@ 20
Et@@ 20
Ey@@ 20
Four 20
Fourier 20
Fran@@ 20
Gand@@ 20
Generation 20
Gold@@ 20
HO 20
Hot 20
Islamic 20
Jar@@ 20
Johnson 20
Jud@@ 20
Kath@@ 20
Kav@@ 20
Kepler 20
Kho@@ 20
Kom@@ 20
LCD 20
LM@@ 20
Lab 20
Lang@@ 20
Langu@@ 20
Lib@@ 20
Lower 20
Master 20
Memory 20
Mik@@ 20
Mund@@ 20
ND 20
NHL 20
NJ@@ 20
Nak@@ 20
Nan@@ 20
Num@@ 20
Out 20
Pel@@ 20
Ph.D. 20
Phan@@ 20
Phil@@ 20
Phon@@ 20
Pil@@ 20
Ple@@ 20
Prize 20
Retrieved 20
Rural 20
SIM 20
SU 20
Simon 20
Sm@@ 20
Soviet 20
Ta 20
Theatre 20
Therefore 20
Thor@@ 20
Too 20
Top 20
Tum@@ 20
VB 20
Ve@@ 20
Vehicle 20
Voltaire 20
Was@@ 20
Wi 20
Youth 20
acs 20
ained 20
ait@@ 20
almost 20
aly 20
amer@@ 20
ancient 20
anger 20
apa 20
articles 20
assembly 20
atio 20
atu 20
bear 20
beginning 20
ben@@ 20
bli@@ 20
career 20
cd@@ 20
chr@@ 20
cip@@ 20
competition 20
compression 20
conc@@ 20
consecutive 20
coordin@@ 20
cover@@ 20
create 20
cri@@ 20
cum@@ 20
dal 20
dial 20
dis 20
edr@@ 20
efficiency 20
electricity 20
ellip@@ 20
ences 20
enter 20
epi@@ 20
erry 20
escope 20
esian 20
ettes 20
evolution 20
exact 20
existence 20
ext 20
fast 20
formal 20
friend 20
furn@@ 20
genus 20
geome@@ 20
guide 20
hair 20
hau@@ 20
hik@@ 20
hist@@ 20
host 20
hypothesis 20
ichi 20
ided 20
ider 20
ient 20
igu@@ 20
iled 20
illumin@@ 20
ime@@ 20
impul@@ 20
individual 20
ingu@@ 20
ino@@ 20
integration 20
introduced 20
ises 20
isi 20
issue 20
itary 20
js 20
junction 20
lateral 20
lib@@ 20
lif@@ 20
lim@@ 20
links 20
male 20
matches 20
math 20
med 20
might 20
migration 20
ming 20
ms@@ 20
nch@@ 20
ned 20
needs 20
notes 20
nt 20
nutri@@ 20
odi 20
odon@@ 20
oe 20
oo@@ 20
opl@@ 20
osp@@ 20
otion 20
oxide 20
paper 20
parent 20
past 20
patch 20
phere 20
players 20
plication 20
policy 20
pping 20
principal 20
provide 20
provided 20
purpose 20
quot@@ 20
railway 20
reason 20
records 20
reduc@@ 20
ref@@ 20
rev@@ 20
revolution 20
rio 20
ror 20
scop@@ 20
separate 20
soon 20
southern 20
spectr@@ 20
spr@@ 20
sts 20
student 20
subs@@ 20
sup@@ 20
tal 20
tank 20
tap@@ 20
tas@@ 20
tetr@@ 20
topl@@ 20
tr 20
train 20
trich@@ 20
tum@@ 20
ured 20
valu@@ 20
want 20
website 20
wild 20
wood@@ 20
www 20
yah 20
yas@@ 20
Ø@@ 20
ô@@ 20
ān@@ 20
η 20
π@@ 20
а@@ 20
й 20
خ@@ 20
را@@ 20
ــــ@@ 20
م@@ 20
औस@@ 20
ই 20
ষ@@ 20
ਘ 20
ਸ 20
਼ 20
ા 20
ங 20
ப 20
ள@@ 20
ಟ@@ 20
ട 20
ശ@@ 20
န 20
း 20
◆ 20
04.@@ 19
06.@@ 19
07.@@ 19
1012 19
1202 19
1276 19
1282 19
1317 19
1326 19
1358 19
1377 19
1395 19
1404 19
1416 19
1452 19
1458 19
1461 19
1474 19
1479 19
18th 19
417 19
433 19
442 19
443 19
457 19
481 19
487 19
494 19
4A 19
517 19
528 19
579 19
5G 19
617 19
657 19
674 19
677 19
685 19
69,@@ 19
693 19
77,@@ 19
819 19
827 19
856 19
892 19
909 19
922 19
942 19
956 19
963 19
989 19
A3 19
AMC 19
About 19
African 19
Anne 19
Arabic 19
Aut@@ 19
BOL 19
Bam@@ 19
Bish@@ 19
Bus@@ 19
CAS 19
CU 19
Cape 19
Chen 19
Cho@@ 19
Concer@@ 19
Conn@@ 19
Conver@@ 19
Cultural 19
DEC 19
DG 19
Den@@ 19
Disney 19
Dud@@ 19
Dun@@ 19
Dz@@ 19
Evolution 19
FP@@ 19
Fox@@ 19
Guide 19
HK@@ 19
Head@@ 19
Hil@@ 19
Horse 19
IB 19
ING 19
Imperial 19
Indonesia 19
Ing@@ 19
Inter 19
JS 19
Jamm@@ 19
KV 19
Kang@@ 19
Lahore 19
Lal@@ 19
Link 19
M2 19
MX 19
Macintosh 19
Mam@@ 19
Marg@@ 19
Math@@ 19
Matthew 19
Meth@@ 19
Motor 19
NASCAR 19
NN 19
Nik@@ 19
OL@@ 19
Ok@@ 19
Om@@ 19
Oriental 19
P3 19
PCR 19
PRO@@ 19
Parti@@ 19
PhD 19
Physi@@ 19
Pon@@ 19
Primary 19
Protection 19
Rab@@ 19
Ray 19
Rot@@ 19
SN 19
SW 19
Sa 19
Shel@@ 19
Small 19
Stone 19
Syst@@ 19
TG@@ 19
Tang@@ 19
Terr@@ 19
Territory 19
Thérèse 19
Trach@@ 19
UD 19
Vad@@ 19
WO@@ 19
Wii 19
Wood@@ 19
Writ@@ 19
XL 19
abol@@ 19
aces 19
aching 19
adu@@ 19
agran@@ 19
ahar 19
ambara 19
ann 19
anol 19
aper@@ 19
balance 19
ban 19
becomes 19
becoming 19
bio@@ 19
bodies 19
bot 19
cannot 19
chamber 19
chloride 19
cine 19
clo@@ 19
close 19
closed 19
cogni@@ 19
collec@@ 19
colour 19
combination 19
comes 19
commercial 19
comput@@ 19
cone 19
conf@@ 19
connection 19
const@@ 19
continued 19
contract 19
conversion 19
cool@@ 19
cord 19
counter@@ 19
counts 19
cover 19
cut@@ 19
dark 19
demand 19
depth 19
digit@@ 19
div@@ 19
diya 19
dom 19
domestic 19
dro@@ 19
dry 19
eck@@ 19
ello 19
emer@@ 19
enna 19
epith@@ 19
escent 19
etti 19
etus 19
exhaus@@ 19
ez 19
fe 19
fer 19
fle@@ 19
fluor@@ 19
fo 19
func@@ 19
future 19
gate 19
gery 19
gic 19
graphic 19
guitarist 19
gy 19
highest 19
hl 19
hood 19
idas 19
idence 19
illus 19
ination 19
independence 19
influence 19
institute 19
isch@@ 19
isha 19
iter@@ 19
itude 19
ive 19
kab@@ 19
kad@@ 19
kir@@ 19
kt@@ 19
library 19
lide 19
lip 19
longer 19
lows 19
marks 19
metabol@@ 19
mind 19
motiv@@ 19
mouth 19
mum@@ 19
native 19
news@@ 19
note 19
ochem@@ 19
oh 19
oid@@ 19
onis 19
open@@ 19
opy 19
ord 19
orders 19
organization 19
oride 19
ostr@@ 19
otive 19
party 19
perception 19
phenomenon 19
phys@@ 19
polyg@@ 19
pressed 19
principles 19
private 19
quin@@ 19
rag@@ 19
recognized 19
recorded 19
release 19
remain 19
rier 19
ris@@ 19
road 19
run@@ 19
saf@@ 19
sana 19
sle@@ 19
soft 19
sover@@ 19
standing 19
stig@@ 19
struc@@ 19
structures 19
sues 19
swe@@ 19
television 19
tically 19
till@@ 19
tural 19
tz@@ 19
uh@@ 19
ularis 19
unge 19
unt@@ 19
upper 19
uta 19
uth@@ 19
verte@@ 19
wards 19
why 19
xin 19
¼ 19
Å@@ 19
Ï@@ 19
Ù@@ 19
ü@@ 19
č@@ 19
ǎ@@ 19
ɒ@@ 19
ʰ@@ 19
ʻ@@ 19
ζ@@ 19
ς 19
ال@@ 19
ع@@ 19
چ@@ 19
މ@@ 19
ট 19
ণ@@ 19
ধ 19
ফ 19
ત@@ 19
அ@@ 19
ཐ@@ 19
པ@@ 19
့ 19
ျ@@ 19
ṛ@@ 19
人 19
日本@@ 19
008 18
1016 18
1080 18
1135 18
1138 18
1180 18
1198 18
1204 18
1234 18
1257 18
1266 18
1268 18
1273 18
1294 18
1295 18
1302 18
1327 18
1399 18
1401 18
1425 18
1430 18
1456 18
1459 18
1465 18
1482 18
1483 18
1655 18
438 18
453 18
4G 18
537 18
558 18
571 18
573 18
583 18
676 18
687 18
721 18
741 18
755 18
763 18
813 18
818 18
841 18
861 18
869 18
883 18
905 18
913 18
934 18
938 18
95.@@ 18
AMP 18
Action 18
Anatom@@ 18
Andrew 18
Animal 18
Atom 18
Ax@@ 18
BAS@@ 18
Base 18
Bih@@ 18
Bone 18
CII 18
Change 18
Complex 18
Confes@@ 18
Cou@@ 18
Cri@@ 18
Cus@@ 18
DH 18
DJ@@ 18
Devi 18
Dictionary 18
Do 18
Doc@@ 18
Docum@@ 18
During 18
Dys@@ 18
Educational 18
Elizabeth 18
Encyclo@@ 18
Epi@@ 18
Father 18
Five 18
Flu@@ 18
Frank 18
Freedom 18
Fun@@ 18
Fur@@ 18
GPU 18
GR 18
Gaz@@ 18
Halloween 18
Has@@ 18
Historical 18
Hong 18
IG 18
IME 18
Imag@@ 18
Israel 18
JavaScript 18
Jos@@ 18
Jou@@ 18
Kah@@ 18
Keys 18
Ki 18
Kil@@ 18
Kong 18
LSD 18
Lag@@ 18
Latin 18
Law@@ 18
Leon@@ 18
Liter@@ 18
Lok@@ 18
Lon@@ 18
MN@@ 18
Mari@@ 18
Marie 18
MiG 18
Michaels 18
Minister 18
Morgan 18
Muz@@ 18
NAT@@ 18
NME 18
No.@@ 18
Non@@ 18
North@@ 18
OS@@ 18
Ot@@ 18
PB@@ 18
Peak 18
Pedi@@ 18
Philosoph@@ 18
Phosph@@ 18
Pir@@ 18
Planning 18
Pli@@ 18
Price 18
Prim@@ 18
Production 18
Program 18
Punj@@ 18
Python 18
Rat 18
Rob@@ 18
Russia 18
S1 18
SC@@ 18
Sci@@ 18
Scr@@ 18
Smart 18
Sog@@ 18
South@@ 18
Sper@@ 18
Sports 18
Ster@@ 18
Takah@@ 18
Thes@@ 18
Thomson 18
Ton@@ 18
Tower 18
Tree 18
Tu 18
UNESCO 18
UNIX 18
Under@@ 18
VV@@ 18
Vice 18
Will 18
X2 18
XXI 18
YO@@ 18
Zub@@ 18
acker 18
acks 18
acteria 18
actor 18
adio 18
adu 18
agin@@ 18
ait 18
aku 18
algorithm 18
alle 18
aller 18
alog 18
alti@@ 18
ank@@ 18
ante 18
antum 18
ao@@ 18
appointed 18
araj@@ 18
arge 18
aro 18
ased 18
asian 18
ately 18
atra 18
attitude 18
aurus 18
avar@@ 18
aying 18
bab@@ 18
bed 18
believed 18
belt 18
bic 18
bio 18
biom@@ 18
boundary 18
bow@@ 18
branch 18
cardi@@ 18
cast 18
celer@@ 18
cent@@ 18
changed 18
claimed 18
cle 18
client 18
community 18
compar@@ 18
dal@@ 18
dam 18
dem 18
directed 18
discovered 18
disper@@ 18
dle 18
dok@@ 18
dynamic 18
ebr@@ 18
edy 18
ef 18
eign 18
eline 18
emati@@ 18
eni 18
enz@@ 18
ested 18
eton 18
events 18
extr@@ 18
farming 18
fel@@ 18
fib@@ 18
formes 18
gir@@ 18
gray 18
haz@@ 18
heavy 18
hid 18
hou 18
humans 18
ideas 18
idge 18
ido 18
ifer@@ 18
iling 18
iliz@@ 18
imagin@@ 18
increases 18
inda 18
industrial 18
internet 18
ions 18
jap@@ 18
jet 18
kap@@ 18
kav@@ 18
ket 18
lett 18
ligh@@ 18
lu 18
lus@@ 18
marketing 18
mata 18
max@@ 18
may@@ 18
mud@@ 18
mut@@ 18
nak@@ 18
neutr@@ 18
o. 18
ograph 18
oj@@ 18
older 18
olithic 18
omyces 18
ordin@@ 18
osaurus 18
oxy@@ 18
pain 18
plasma 18
portal 18
predic@@ 18
pri@@ 18
probability 18
proj@@ 18
pu 18
pyr@@ 18
radial 18
rain 18
raj 18
red@@ 18
regions 18
ric@@ 18
rif@@ 18
ring@@ 18
rou@@ 18
rub@@ 18
scre@@ 18
sens@@ 18
shape 18
shore 18
shu@@ 18
sik@@ 18
ski 18
ski@@ 18
sm 18
spl@@ 18
ss@@ 18
stand 18
stein 18
stop 18
stor@@ 18
stories 18
straight 18
sun 18
super 18
sych@@ 18
synchron@@ 18
tension 18
tern 18
thro@@ 18
tice 18
tig@@ 18
tium 18
tiz@@ 18
tly 18
tol@@ 18
traditional 18
trap@@ 18
travel 18
tropical 18
uch 18
ucle@@ 18
ump 18
unter 18
upta 18
vention 18
vessel 18
whom 18
with@@ 18
yam@@ 18
ylon 18
ñ 18
ù 18
Ā@@ 18
ɐ 18
ɐ@@ 18
ʿ@@ 18
ν@@ 18
τ 18
ס@@ 18
ת@@ 18
احمد 18
سن@@ 18
ل@@ 18
وَ@@ 18
ِ@@ 18
গ 18
ਅ@@ 18
ਿ 18
ં@@ 18
ી@@ 18
ା 18
ள 18
చ@@ 18
ే@@ 18
ో@@ 18
ര 18
န@@ 18
ု 18
ွ@@ 18
℃ 18
← 18
子 18
山 18
， 18
1.6@@ 17
1002 17
1205 17
1211 17
1216 17
1222 17
1226 17
1253 17
1271 17
1272 17
1280 17
1310 17
1321 17
1340 17
1356 17
1371 17
1411 17
1412 17
1438 17
1442 17
1443 17
1454 17
1551 17
1656 17
178@@ 17
503 17
568 17
569 17
582 17
59,@@ 17
607 17
66,@@ 17
688 17
696 17
698 17
749 17
766 17
771 17
783 17
792 17
796 17
864 17
867 17
868 17
881 17
893 17
895 17
958 17
986 17
AX@@ 17
AZ 17
Ab 17
Abu 17
Agu@@ 17
Alternative 17
Batt@@ 17
Because 17
Bed@@ 17
Body 17
Bru@@ 17
But@@ 17
CH2@@ 17
Can 17
Catholic 17
Ce@@ 17
Census 17
Chrom@@ 17
Class@@ 17
Combin@@ 17
Cricket 17
Dog 17
Dra@@ 17
E1 17
EU@@ 17
EX 17
Economy 17
External 17
Eye 17
F.C. 17
Fa@@ 17
Fed@@ 17
Forces 17
Garden 17
Glu@@ 17
Heat 17
Heter@@ 17
Hit@@ 17
Ice 17
JR 17
Jade 17
Jr 17
Justice 17
Kash@@ 17
Kund@@ 17
Labs 17
Lawrence 17
Lex@@ 17
Liberation 17
Lili@@ 17
Mid@@ 17
Mind@@ 17
Mé@@ 17
NW@@ 17
NXT 17
Nim@@ 17
Nin@@ 17
Nuestra 17
Observatory 17
Olig@@ 17
Origin 17
Over@@ 17
P2@@ 17
Pach@@ 17
Peninsula 17
Person@@ 17
Personal 17
Petroleum 17
Phone 17
Politics 17
Potter 17
Prof. 17
RKO 17
RL 17
Rav@@ 17
Rick@@ 17
Ring 17
Ris@@ 17
Run@@ 17
S3 17
SK 17
Sac@@ 17
Samb@@ 17
Scott 17
Sex 17
Señora 17
Sign 17
Simple 17
Solaris 17
Song 17
Standards 17
Store 17
Supreme 17
TAR@@ 17
TNT 17
Team 17
Temper@@ 17
Than@@ 17
Tour 17
Toyota 17
Tun@@ 17
VS 17
View 17
Volume 17
Wad@@ 17
Water@@ 17
Wright 17
aan 17
ache 17
acute 17
aden@@ 17
adjus@@ 17
aircraft 17
algebra@@ 17
alis@@ 17
allowed 17
ampl@@ 17
anas 17
anch@@ 17
ander@@ 17
anim@@ 17
apura 17
arum 17
asan 17
athy 17
aus 17
authority 17
autom@@ 17
awards 17
bac@@ 17
bach 17
bid 17
break@@ 17
brought 17
canal 17
cep@@ 17
ceph@@ 17
character 17
chin@@ 17
chor@@ 17
circular 17
citation 17
committee 17
conj@@ 17
connected 17
consisting 17
containing 17
corresponding 17
criticized 17
cultural 17
cyc@@ 17
defeated 17
degrees 17
denomin@@ 17
described 17
dial@@ 17
dian 17
differences 17
disch@@ 17
dish 17
ecting 17
ectiv@@ 17
edia 17
effective 17
eggs 17
eigen@@ 17
elled 17
emat@@ 17
ense 17
enses 17
entry 17
eric 17
estimated 17
etal 17
etermin@@ 17
etr@@ 17
ett 17
existing 17
feature 17
fi 17
flag@@ 17
focus 17
followed 17
gear 17
gest@@ 17
gin 17
gir 17
hard@@ 17
hea 17
hol 17
holds 17
ician 17
icon 17
increased 17
inder 17
instruments 17
interactions 17
ische 17
ishi 17
jang@@ 17
jun@@ 17
kam@@ 17
kers 17
ket@@ 17
kit@@ 17
lab 17
led@@ 17
leg 17
liber@@ 17
lists 17
liz@@ 17
ló 17
mans 17
median 17
mentation 17
message 17
mine 17
nah@@ 17
navig@@ 17
ns@@ 17
ny 17
offer 17
omb 17
ony 17
opoda 17
optimiz@@ 17
oti@@ 17
ough@@ 17
ovi@@ 17
pah@@ 17
pattern 17
peg 17
persons 17
pin 17
pitch 17
pli@@ 17
pology 17
pra 17
printing 17
pro 17
profile 17
pure 17
qi 17
rah@@ 17
rant 17
rav@@ 17
read@@ 17
relief 17
rine 17
rise 17
rus@@ 17
sand@@ 17
sap@@ 17
sciences 17
sely 17
sensitive 17
sheet 17
signed 17
silver 17
sk 17
skin 17
sko@@ 17
smart@@ 17
spac@@ 17
steam 17
substitu@@ 17
sur 17
switch 17
synthesis 17
tab@@ 17
taking 17
tation 17
tax@@ 17
techniques 17
tery 17
thal 17
tham 17
toc@@ 17
tos@@ 17
tran@@ 17
troph@@ 17
unds 17
uniform 17
unk 17
urg 17
users 17
ustani 17
ution 17
utt@@ 17
uz@@ 17
vak@@ 17
variation 17
verl@@ 17
versi@@ 17
vertical 17
virtual 17
xa 17
yd@@ 17
zed 17
Ì@@ 17
ász@@ 17
å@@ 17
ă@@ 17
ě@@ 17
ł@@ 17
Š@@ 17
қ@@ 17
ө@@ 17
ר 17
ب@@ 17
ج@@ 17
شهر 17
علي 17
ــ@@ 17
ِ 17
ܝ@@ 17
मरमर 17
रावट 17
ॼ@@ 17
ৃ@@ 17
ো 17
ਆ@@ 17
ੂ@@ 17
ક@@ 17
ો@@ 17
େ@@ 17
ண 17
ண@@ 17
ய 17
ழ 17
ద 17
య 17
ἀ@@ 17
─ 17
ﷺ 17
1. 16
1.4@@ 16
109@@ 16
1154 16
1184 16
1196 16
1227 16
1228 16
1265 16
1287 16
1297 16
1308 16
1354 16
1363 16
1364 16
1372 16
1378 16
1390 16
13th 16
1413 16
1418 16
1422 16
1428 16
1439 16
1471 16
1497 16
14th 16
155@@ 16
158@@ 16
449 16
477 16
566 16
588 16
669 16
699 16
703 16
708 16
798 16
804 16
805 16
816 16
831 16
857 16
88,@@ 16
933 16
941 16
954 16
ACC 16
Afghanistan 16
Ah 16
Alliance 16
Annual 16
Antarctic 16
Anth@@ 16
Assam 16
Atlantic 16
Audio 16
B.A. 16
Bau@@ 16
Bisch@@ 16
Boh@@ 16
Bose 16
Boston 16
Boys 16
Bull 16
But 16
C3 16
Car 16
Chik@@ 16
Children 16
Cit@@ 16
Columbia 16
Commerce 16
Compu@@ 16
Comput@@ 16
Conservation 16
Cret@@ 16
Cross 16
Crow@@ 16
Dance 16
Despite 16
Dim@@ 16
Dip@@ 16
Direct 16
Down@@ 16
Editor 16
Egyptian 16
Ek@@ 16
Emile 16
Europ@@ 16
Exec@@ 16
Federal 16
Good@@ 16
Gos@@ 16
Gram 16
Grav@@ 16
HK 16
HL 16
HMS 16
Hab@@ 16
Haz@@ 16
Heinrich 16
Hollywood 16
Hou@@ 16
Howard 16
INSE@@ 16
IU 16
Imp@@ 16
Ins@@ 16
Isaac 16
Iso@@ 16
Italian 16
Jack 16
Jews 16
Jose 16
KG 16
Kann@@ 16
Kel@@ 16
Kelvin 16
Kno@@ 16
Kut@@ 16
LD@@ 16
Lec@@ 16
Len@@ 16
Lep@@ 16
Letters 16
Lif@@ 16
Lit@@ 16
Literature 16
Loc@@ 16
Lotus 16
MIN@@ 16
Mann@@ 16
Mant@@ 16
Mau@@ 16
Memorial 16
Mercury 16
Mit@@ 16
Mn@@ 16
Mohammad 16
Mom@@ 16
Motors 16
NG@@ 16
News@@ 16
Nih@@ 16
Nile 16
Off@@ 16
Official 16
Oh@@ 16
Oil 16
Or 16
Ou@@ 16
Ov@@ 16
Over 16
PAC 16
Pag@@ 16
Pati@@ 16
Perl 16
Play 16
Police 16
Private 16
Proper@@ 16
Psy@@ 16
Ques@@ 16
Religion 16
Renault 16
Rule 16
Rum@@ 16
SQ@@ 16
SV 16
Say@@ 16
Sched@@ 16
Serv@@ 16
Song@@ 16
St 16
Stat@@ 16
Stories 16
Suk@@ 16
Sv@@ 16
Syl@@ 16
TY 16
Table 16
Tad@@ 16
Text 16
Triangle 16
Tril@@ 16
UF@@ 16
Unix 16
Va@@ 16
Vol 16
Wak@@ 16
Wik@@ 16
Williams 16
Work@@ 16
Worldwide 16
XT 16
Yard@@ 16
Years 16
Yer@@ 16
Your 16
Zar@@ 16
Zone 16
aceu@@ 16
acking 16
activities 16
ader 16
adh@@ 16
agonal 16
aine 16
akh@@ 16
alone 16
alt 16
ample 16
anya 16
appar@@ 16
approach 16
arab@@ 16
aras 16
aris 16
arm 16
arts 16
assi@@ 16
aters 16
attempt 16
atum 16
aug@@ 16
bacterium 16
bag@@ 16
bed@@ 16
benef@@ 16
bia 16
blast 16
bran@@ 16
brand@@ 16
bud@@ 16
build 16
buildings 16
calendar 16
camera 16
capture 16
carrier 16
channel 16
char 16
chu@@ 16
cia 16
cities 16
civiliz@@ 16
cold 16
column 16
computing 16
concentr@@ 16
constructed 16
construction 16
consum@@ 16
corpor@@ 16
cryp@@ 16
cycles 16
dam@@ 16
database 16
daughter 16
decided 16
declared 16
define 16
definiti@@ 16
dell 16
dible 16
dic 16
din@@ 16
disc 16
domin@@ 16
drawn 16
echn@@ 16
ecium 16
edges 16
educational 16
een 16
efforts 16
emit@@ 16
ench@@ 16
endi@@ 16
engines 16
engl@@ 16
entire 16
eper 16
exist 16
exp@@ 16
experimental 16
fem@@ 16
fifth 16
finance 16
flora 16
fri@@ 16
fy 16
gauge 16
going 16
gon@@ 16
gra 16
hani 16
hipp@@ 16
hisa 16
hoc 16
hour 16
hua 16
icle 16
igh 16
ikh 16
ille 16
impact 16
induced 16
iness 16
investment 16
ives 16
kay@@ 16
keep 16
khi 16
kingdom 16
lem@@ 16
line@@ 16
liqu@@ 16
liter@@ 16
mar 16
marriage 16
mb@@ 16
mian 16
microscop@@ 16
minimum 16
musical 16
nation 16
nel 16
neph@@ 16
nia 16
noc@@ 16
noise 16
northern 16
nos@@ 16
oba 16
obia 16
objects 16
occus 16
odes 16
offic@@ 16
og 16
oking 16
oles 16
olus 16
oly@@ 16
ongo 16
ont 16
opter@@ 16
orax 16
osus 16
overall 16
ox 16
pair 16
pal 16
parti@@ 16
pat 16
peer 16
perpendi@@ 16
pha 16
places 16
planet 16
plates 16
playing 16
posterior 16
print@@ 16
produces 16
programs 16
psy@@ 16
rah 16
reported 16
retired 16
review 16
rey 16
rich 16
rop@@ 16
rot 16
rowspan 16
rup@@ 16
sac@@ 16
sad@@ 16
seal 16
sense 16
separation 16
serve 16
sia 16
small@@ 16
sof@@ 16
solutions 16
sonia 16
spar@@ 16
sper@@ 16
stab@@ 16
stable 16
sth@@ 16
store 16
stream 16
stri@@ 16
supr@@ 16
tail 16
tary 16
teaching 16
teams 16
thing 16
tose 16
tot@@ 16
transformation 16
uka 16
ulla 16
ult@@ 16
universal 16
ustan 16
valve 16
vary 16
vehicle 16
vent 16
vor@@ 16
w.@@ 16
wak@@ 16
weigh@@ 16
went 16
wil@@ 16
winning 16
woman 16
 16
ª@@ 16
Â@@ 16
Ù 16
í 16
ö 16
ʌ@@ 16
βαπ@@ 16
الم@@ 16
حسن 16
میں 16
پاکستان 16
ऎ 16
थापि 16
मुंब@@ 16
ગ@@ 16
હ@@ 16
ତ@@ 16
ନ 16
ஸ 16
అ@@ 16
ీ@@ 16
ಚ@@ 16
ಜ@@ 16
ദ@@ 16
ཁ@@ 16
བ 16
ུ 16
☃ 16
♭ 16
の@@ 16
国@@ 16
한@@ 16
﻿ 16
1040 15
1060 15
1110 15
1153 15
1185 15
1197 15
1203 15
1221 15
1291 15
12th 15
1312 15
1337 15
1348 15
1349 15
1352 15
1353 15
1365 15
1389 15
1410 15
1432 15
1436 15
1447 15
1448 15
1472 15
1594 15
2n 15
595 15
601 15
658 15
706 15
733 15
736 15
746 15
789 15
834 15
837 15
839 15
846 15
874 15
876 15
906 15
917 15
957 15
98,@@ 15
982 15
992 15
995 15
ARD 15
Abr@@ 15
Affairs 15
Analy@@ 15
Apache 15
Application 15
Atomic 15
Audi@@ 15
Bad 15
Band 15
Bell@@ 15
Bird 15
Boy 15
Britain 15
CDs 15
Cancer 15
Cath@@ 15
Championship 15
Citi@@ 15
Cler@@ 15
Coc@@ 15
Commons 15
Commun@@ 15
Compl@@ 15
Consult@@ 15
County 15
Criminal 15
Crown 15
DES 15
Dah@@ 15
Daniel 15
Denmark 15
Diamond 15
Dir@@ 15
Doctor 15
EG 15
Echin@@ 15
Emperor 15
Even 15
Extr@@ 15
FIDE 15
Fem@@ 15
Finance 15
Fix@@ 15
Fle@@ 15
Flo@@ 15
Four@@ 15
Full 15
Future 15
Gil@@ 15
Gom@@ 15
Grap@@ 15
Greater 15
Guinea 15
Haj@@ 15
Hath@@ 15
Hen@@ 15
Hey@@ 15
Hist@@ 15
Horiz@@ 15
Hos@@ 15
Hot@@ 15
Ia 15
Ich@@ 15
Internal 15
Jav@@ 15
Joe 15
Jones 15
KV@@ 15
Ked@@ 15
Kerala 15
Kim@@ 15
Kish@@ 15
Kw@@ 15
Lau@@ 15
Lem@@ 15
Loh@@ 15
Lov@@ 15
Lud@@ 15
MG@@ 15
Malik 15
Marine 15
Market 15
Masters 15
Maw@@ 15
Miller 15
Miss@@ 15
Mukh@@ 15
Museo 15
Mustang 15
Nacional 15
Naw@@ 15
Ne 15
Neo@@ 15
Networks 15
Notes 15
Olympics 15
Online 15
Otto 15
Our 15
PCC 15
Patri@@ 15
Pharm@@ 15
Phase 15
Phen@@ 15
Philip 15
Pit@@ 15
Prak@@ 15
Prom@@ 15
Province 15
QU@@ 15
Quick 15
RAF 15
RF@@ 15
Raja 15
Reh@@ 15
Rep@@ 15
Roy 15
Rub@@ 15
SHA 15
SSC 15
Sach@@ 15
Secondary 15
Sig@@ 15
Sle@@ 15
Sound@@ 15
Space@@ 15
Species 15
Spl@@ 15
Stre@@ 15
TU 15
Tas@@ 15
Tax 15
Telec@@ 15
Telugu 15
Ten 15
Tex@@ 15
Title 15
Tom 15
USAF 15
USE 15
Ung@@ 15
Ved@@ 15
Victor 15
WB 15
Wales 15
Wave 15
Why 15
Wiki 15
Wind 15
Wonder@@ 15
Ye@@ 15
Yu@@ 15
Z.@@ 15
a. 15
aar 15
abar@@ 15
acked 15
aco 15
add 15
adv@@ 15
aea 15
agon@@ 15
aise 15
akh 15
ald 15
algeb@@ 15
alisation 15
altern@@ 15
alu@@ 15
amed 15
amide 15
anap@@ 15
ano@@ 15
anthus 15
antine 15
anz@@ 15
app 15
applications 15
ara@@ 15
arti@@ 15
ases 15
ather@@ 15
atica 15
bill 15
bles 15
bow 15
boy 15
brach@@ 15
bron@@ 15
burg 15
bury 15
call 15
car 15
cent 15
characteristic 15
cible 15
cinema 15
citizens 15
cla@@ 15
classical 15
cles 15
clock 15
collision 15
command@@ 15
competed 15
compl@@ 15
conscious 15
contain 15
control@@ 15
converted 15
craft 15
critics 15
cutting 15
cycl@@ 15
cyclo@@ 15
damage 15
dedicated 15
dimensions 15
diseases 15
dol@@ 15
drum 15
eba 15
eci@@ 15
eck 15
edited 15
eight 15
emul@@ 15
encies 15
enh@@ 15
eno 15
enzyme 15
esi@@ 15
ests 15
etan 15
eto 15
evalu@@ 15
examples 15
fat 15
feed 15
feet 15
finish 15
fix@@ 15
foc@@ 15
française 15
fro@@ 15
fung@@ 15
giving 15
goal 15
gor@@ 15
graduate 15
gran@@ 15
gru@@ 15
hai@@ 15
hair@@ 15
hands 15
hardware 15
heri 15
hero 15
hic 15
hind@@ 15
hit 15
hospital 15
hus@@ 15
ias 15
ican 15
icians 15
icket 15
ight@@ 15
ign 15
inclu@@ 15
intermediate 15
isions 15
itable 15
lack 15
lake 15
law@@ 15
leaders 15
letters 15
lik@@ 15
likely 15
lime 15
magne@@ 15
main@@ 15
mark@@ 15
mart 15
measured 15
model@@ 15
moved 15
multip@@ 15
neutron 15
ning@@ 15
nor 15
noted 15
numerous 15
nun 15
nut 15
observ@@ 15
ocentr@@ 15
odor@@ 15
oku 15
olig@@ 15
ologi@@ 15
omena 15
ometr@@ 15
oned 15
onium 15
ood 15
orbital 15
orium 15
oso 15
ource 15
oxygen 15
particularly 15
person@@ 15
ph 15
pid@@ 15
pinyin 15
plain 15
plan 15
pler 15
plex@@ 15
pneum@@ 15
pose 15
prak@@ 15
proper 15
prudence 15
ques 15
quet 15
radical 15
ramp@@ 15
raph 15
referred 15
represent 15
rings 15
rol@@ 15
roman@@ 15
sample 15
sci@@ 15
scr@@ 15
selected 15
share 15
simulation 15
slow 15
sm@@ 15
song 15
songs 15
stimul@@ 15
street 15
suffered 15
supported 15
tain 15
tant 15
tard 15
technical 15
tent@@ 15
termin@@ 15
tests 15
theor@@ 15
think 15
thre@@ 15
tral 15
transport 15
tribes 15
truth 15
tubes 15
uer@@ 15
uno 15
urb@@ 15
vapor 15
victory 15
views 15
vil 15
viv@@ 15
vs. 15
wani 15
waste 15
weeks 15
wers 15
whis@@ 15
wide 15
xim@@ 15
yab@@ 15
yi@@ 15
zi 15
¡ 15
École 15
Ü 15
án@@ 15
ï@@ 15
ý@@ 15
θ@@ 15
ва 15
д@@ 15
и 15
л@@ 15
р 15
ار@@ 15
عمر 15
ی 15
ދ@@ 15
पचारिक 15
ऺ 15
হ 15
ৌ@@ 15
ਕ 15
ਨ 15
ୁ@@ 15
இ@@ 15
ஜ@@ 15
ಅ@@ 15
ೋ@@ 15
ച@@ 15
ണ@@ 15
പ 15
ൂ@@ 15
ോ@@ 15
ཆ@@ 15
⅓ 15
↔ 15
≠ 15
☑ 15
イ@@ 15
小@@ 15
1077 14
10th 14
1126 14
1207 14
1213 14
1229 14
1238 14
1244 14
1245 14
1256 14
1288 14
1292 14
1299 14
1304 14
1305 14
1331 14
1335 14
1344 14
1346 14
1367 14
1407 14
1434 14
1437 14
1446 14
1449 14
1476 14
1491 14
16th 14
1960s 14
1990s 14
2,2 14
202@@ 14
21st 14
53,@@ 14
649 14
689 14
722 14
739 14
761 14
769 14
773 14
779 14
807 14
824 14
858 14
873 14
884 14
894 14
897 14
924 14
937 14
959 14
96,@@ 14
97,@@ 14
Abd 14
Access 14
Administrative 14
Ahmed 14
Ajax 14
Albert 14
Aph@@ 14
Arc 14
Are 14
Aus@@ 14
BG 14
BMG 14
BO 14
BW@@ 14
Baba 14
Bengali 14
Benz 14
Bit@@ 14
Blan@@ 14
Bour@@ 14
Bow@@ 14
Brown 14
Bus 14
CU@@ 14
Caes@@ 14
Calcutta 14
Cann@@ 14
Canon 14
Caribbean 14
Cast@@ 14
Castle 14
Champ@@ 14
Classical 14
Cod@@ 14
Communications 14
Continu@@ 14
Core 14
Corporate 14
Cric@@ 14
Dab@@ 14
Daimler 14
Das 14
Database 14
Day@@ 14
Death 14
Deutschland 14
Diam@@ 14
Ecol@@ 14
Edition 14
Eff@@ 14
Eli@@ 14
Engine 14
Ernst 14
Eu@@ 14
Event 14
Evil 14
Exper@@ 14
Expl@@ 14
FAA 14
FK 14
FOR 14
Fair@@ 14
Ferr@@ 14
Fey@@ 14
Furn@@ 14
G1 14
GL@@ 14
Ge 14
Geography 14
Goa 14
Green@@ 14
Haw@@ 14
Hay@@ 14
Hayes 14
Heavy 14
Hew@@ 14
Holy 14
Huy@@ 14
Hyp@@ 14
Indians 14
Java@@ 14
Karnataka 14
Kau@@ 14
Kid@@ 14
LTE 14
Lan@@ 14
Late 14
Lay@@ 14
Leo 14
Lev@@ 14
Level 14
Libr@@ 14
Living 14
Marathon 14
Marx 14
Maxwell 14
Member 14
Mind 14
Ministry 14
Minor 14
Mountain 14
Movie 14
Mug@@ 14
Multi 14
Nation 14
Nel@@ 14
Nep@@ 14
Never 14
Nur@@ 14
OF 14
Opera 14
PPP 14
PW 14
Palace 14
Pari@@ 14
Pent@@ 14
Phy@@ 14
Pictures 14
Pill@@ 14
Planet 14
Pleist@@ 14
Quality 14
Rai@@ 14
Renaissance 14
Resources 14
Ry@@ 14
SBS 14
Sas@@ 14
Scar@@ 14
Scorpi@@ 14
Sense 14
Sham@@ 14
Singapore 14
Site 14
Siv@@ 14
Soft 14
Solutions 14
Son 14
Spar@@ 14
Stan@@ 14
Studios 14
Sultan@@ 14
Sut@@ 14
TI 14
Take 14
Talk 14
Today 14
Urs@@ 14
Using 14
VIP 14
Vib@@ 14
Vision 14
Voice 14
Wat@@ 14
Where 14
Wilson 14
Wine 14
Wood 14
Word 14
Yam@@ 14
Z.A. 14
Zealand 14
a- 14
abis 14
abr@@ 14
acle 14
acr@@ 14
adap@@ 14
aday 14
adri 14
agen@@ 14
agn@@ 14
ahl 14
ahu 14
aid@@ 14
aking 14
alar 14
alists 14
aller@@ 14
allus 14
alpha 14
alphabet 14
alternative 14
alty 14
amen 14
anag@@ 14
ande 14
ando 14
aning 14
anj@@ 14
ape 14
apparent 14
appear 14
aras@@ 14
arn@@ 14
asti@@ 14
ather 14
atorial 14
auto 14
banking 14
beta 14
biological 14
blo@@ 14
border 14
boys 14
cap 14
chan@@ 14
chang@@ 14
chart 14
chir@@ 14
cial 14
circuits 14
clav@@ 14
coal 14
coc@@ 14
coli 14
command 14
composition 14
compositions 14
compres@@ 14
configuration 14
consist@@ 14
correct 14
counting 14
cup 14
daily 14
defin@@ 14
depos@@ 14
dile 14
direc@@ 14
disk 14
divisions 14
dog@@ 14
dorsal 14
dra 14
dress 14
drug 14
dul@@ 14
eases 14
eer 14
eins 14
eka 14
elin 14
elles 14
employment 14
ened 14
ensor 14
ente 14
ento 14
ers@@ 14
esp@@ 14
esta 14
ester@@ 14
eties 14
etta 14
ety 14
etz@@ 14
eu 14
evich 14
except 14
experiments 14
explan@@ 14
expressions 14
faces 14
failed 14
fee 14
females 14
fertiliz@@ 14
finished 14
finite 14
folk 14
foot 14
formul@@ 14
founder 14
galax@@ 14
gall@@ 14
gamma 14
garden 14
gem@@ 14
gene@@ 14
gens 14
glu@@ 14
goes 14
grandi@@ 14
growing 14
guitar@@ 14
gul@@ 14
gur@@ 14
hata 14
herb@@ 14
hips 14
hn 14
hn@@ 14
horn 14
icles 14
icul@@ 14
icum 14
idi 14
ield 14
ify 14
iga 14
ilization 14
illed 14
illi 14
ilo 14
imbi 14
inclin@@ 14
ingly 14
ini@@ 14
involving 14
irrit@@ 14
isher 14
island 14
isol@@ 14
ition 14
itu@@ 14
justice 14
kat 14
kaya 14
ken@@ 14
kes 14
kid@@ 14
kill 14
kins 14
lam 14
launched 14
lav@@ 14
lector 14
len 14
light@@ 14
lon 14
longitud@@ 14
lov@@ 14
maker 14
mam@@ 14
mas 14
master 14
mat 14
math@@ 14
medal 14
mes 14
minister 14
minutes 14
models 14
multi 14
nad@@ 14
nan@@ 14
nation@@ 14
nea 14
necessary 14
nix 14
nos 14
nuc@@ 14
och 14
ody 14
oglo@@ 14
oki 14
olet 14
olog@@ 14
ologies 14
omer 14
online 14
ool 14
operator 14
opp@@ 14
orus 14
oted 14
othe@@ 14
otox@@ 14
ousness 14
part@@ 14
passed 14
pay 14
perf@@ 14
perfect 14
petrol@@ 14
pharm@@ 14
pper 14
processor 14
projection 14
propor@@ 14
protein 14
ption 14
push 14
quart@@ 14
que@@ 14
quoted 14
reas 14
recent 14
rein@@ 14
repeated 14
replaced 14
reproduction 14
retr@@ 14
rid@@ 14
ridor 14
rod 14
ron@@ 14
ross 14
rul@@ 14
sac 14
sad 14
satis@@ 14
sel 14
separ@@ 14
setting 14
ships 14
shock 14
situated 14
sively 14
sol 14
soul 14
speech 14
stan@@ 14
stated 14
stre@@ 14
structural 14
sura 14
talk 14
technique 14
teen 14
teeth 14
tern@@ 14
thar@@ 14
thu 14
tional@@ 14
titude 14
tobac@@ 14
tong@@ 14
trad@@ 14
trading 14
triple 14
tru@@ 14
tur 14
twice 14
ude 14
urn@@ 14
urus 14
ushing 14
uy@@ 14
variety 14
vernorate 14
vir 14
vish@@ 14
vit@@ 14
voice 14
volcan@@ 14
wali@@ 14
warf 14
ways 14
whether 14
wig@@ 14
wir@@ 14
wire 14
wn 14
writers 14
xx@@ 14
ylo@@ 14
yte 14
© 14
¶ 14
Á@@ 14
Ø 14
én 14
és 14
ɑ 14
ɡ 14
ρ@@ 14
τος 14
ка 14
ы@@ 14
ֵ@@ 14
ז@@ 14
أ@@ 14
اس@@ 14
الع@@ 14
عن 14
ف@@ 14
في 14
لَ@@ 14
مسجد 14
ي@@ 14
َ@@ 14
کی 14
ی@@ 14
पैतृ@@ 14
राणिक 14
ॻ@@ 14
ਭ@@ 14
੍ 14
અ@@ 14
ି 14
ం 14
ಣ@@ 14
ಪ 14
ಳ@@ 14
ಶ 14
റ@@ 14
လ@@ 14
ီ@@ 14
ᱟ@@ 14
ṅ@@ 14
♦ 14
新@@ 14
明@@ 14
ꯤ@@ 14
￱ 14
1,4 13
1085 13
1101 13
1120 13
1122 13
1127 13
1143 13
1156 13
1212 13
1231 13
1237 13
1242 13
1246 13
1247 13
1264 13
1283 13
1318 13
1333 13
1362 13
1369 13
1381 13
1387 13
1396 13
1408 13
1429 13
1431 13
1464 13
1467 13
177@@ 13
1980s 13
3. 13
439 13
596 13
659 13
666 13
686 13
729 13
738 13
782 13
784 13
799 13
853 13
891 13
903 13
979 13
A.C. 13
AY 13
Abdullah 13
Abraham 13
Absol@@ 13
Acc@@ 13
Acid 13
Aerospace 13
Alg@@ 13
Alt@@ 13
Amb@@ 13
Ani@@ 13
Asi@@ 13
Asunción 13
Aver@@ 13
BS@@ 13
Baj@@ 13
Barr@@ 13
Bend@@ 13
Benjamin 13
Blas@@ 13
Bombay 13
Bri@@ 13
Brothers 13
Bub@@ 13
Bug@@ 13
Bun@@ 13
CMA 13
Cab@@ 13
Chandra 13
Charlie 13
Circle 13
Classic 13
Cloud 13
Command 13
Communication 13
Cont@@ 13
Content 13
Continental 13
Corp 13
D9 13
Democ@@ 13
Dep@@ 13
Deutsche 13
Di 13
Dug@@ 13
EF 13
Economics 13
Eigh@@ 13
Embr@@ 13
Encyclopedia 13
Esp@@ 13
Examples 13
Extreme 13
FDP 13
Fab@@ 13
Fame 13
Ferdinand 13
Final 13
Forbes 13
Formula 13
Ful@@ 13
Fund@@ 13
GPL 13
Gallery 13
Giovanni 13
Girl 13
Glass 13
Gob@@ 13
Gordon 13
Gru@@ 13
Hans@@ 13
Herbert 13
IH@@ 13
Insurance 13
Jerome 13
José 13
Julian 13
Jun@@ 13
Junior 13
Just 13
Kach@@ 13
Kes@@ 13
Ket@@ 13
Kop@@ 13
Koz@@ 13
Leuc@@ 13
Lik@@ 13
Lil@@ 13
Lot@@ 13
Lut@@ 13
M3 13
Manager 13
Mart 13
Maz@@ 13
Mec@@ 13
Mercedes 13
Metallica 13
Mill@@ 13
Mim@@ 13
Mini@@ 13
Mish@@ 13
Mt 13
Mu 13
Myco@@ 13
Nab@@ 13
Nad@@ 13
Nepal 13
Offic@@ 13
Ophi@@ 13
Pall@@ 13
Paper 13
Part@@ 13
Partic@@ 13
Partido 13
Path 13
Pec@@ 13
Pep@@ 13
Ph.@@ 13
Pirates 13
Plin@@ 13
Principal 13
Priv@@ 13
Professional 13
Programme 13
Pyth@@ 13
R1 13
Rahman 13
Raj 13
Regul@@ 13
Report 13
Resp@@ 13
Rhiz@@ 13
Rhy@@ 13
Row@@ 13
Rox@@ 13
Ruby 13
SAR@@ 13
Sabha 13
Salvador 13
Samuel 13
Santiago 13
Sar 13
Sark@@ 13
Sau@@ 13
Saw@@ 13
Sche@@ 13
Scotland 13
Signal 13
Similarly 13
Simul@@ 13
SmackDown 13
Socialist 13
Spanish 13
Spot 13
Sten@@ 13
Strategic 13
Subj@@ 13
Swiss 13
TER 13
Tag 13
Task 13
Tax@@ 13
Tek@@ 13
Television 13
Test@@ 13
Thompson 13
Tin@@ 13
Tok 13
Toshi@@ 13
Transport 13
Tunnel 13
Under 13
Unicode 13
Unit 13
Vag@@ 13
Veter@@ 13
Vill@@ 13
Visa 13
Walter 13
Wide 13
Zero 13
abbrevi@@ 13
absor@@ 13
acher 13
acial 13
acquisition 13
acter@@ 13
address 13
ado@@ 13
advantage 13
aggregate 13
agon 13
agra 13
ags 13
aid 13
alar@@ 13
alde@@ 13
aliz@@ 13
alkal@@ 13
allen 13
already 13
alum 13
ament@@ 13
anes 13
angu@@ 13
anos 13
anthropo@@ 13
armed 13
arranged 13
aru 13
asar 13
ason 13
asser@@ 13
atidae 13
atmosphere 13
attention 13
avirus 13
avoid 13
azim@@ 13
bacteri@@ 13
bak@@ 13
bas 13
battery 13
battle 13
bay@@ 13
baz@@ 13
beautiful 13
behind 13
bern@@ 13
bine 13
bj@@ 13
bomb 13
bone 13
cable 13
cam@@ 13
cataly@@ 13
catch 13
cel 13
cerebral 13
ces@@ 13
charg@@ 13
chess 13
cho 13
cies 13
cim@@ 13
ck@@ 13
claims 13
collo@@ 13
comb 13
coming 13
conductor 13
consists 13
contains 13
cope 13
copper 13
cord@@ 13
corpus 13
corro@@ 13
coun@@ 13
counc@@ 13
creation 13
culus 13
currency 13
curv@@ 13
cylinder 13
dan@@ 13
declar@@ 13
declin@@ 13
democracy 13
didae 13
difficult 13
disorders 13
dix 13
doctrine 13
draw 13
duk@@ 13
e.org 13
earlier 13
eca 13
edra 13
edral 13
educated 13
eed 13
effici@@ 13
empir@@ 13
enberg 13
enko 13
entered 13
erh@@ 13
eron 13
establish 13
evi 13
expanded 13
experience 13
extrem@@ 13
facts 13
falls 13
fen@@ 13
fera 13
feud@@ 13
ffer 13
flight 13
folio 13
forests 13
found@@ 13
frag@@ 13
fs 13
ful@@ 13
functional 13
fur 13
für 13
gained 13
games 13
gau@@ 13
gel@@ 13
gestion 13
gets 13
gh 13
grap@@ 13
green@@ 13
heim 13
hen@@ 13
hes@@ 13
hos@@ 13
hs 13
hy 13
hybrid 13
hydrogen 13
ible 13
icing 13
ideal 13
ier@@ 13
iku@@ 13
illing 13
ime 13
individuals 13
inferior 13
initi@@ 13
initial 13
inner 13
integrated 13
ious 13
iss 13
iter 13
ithecus 13
ix@@ 13
jah@@ 13
jana 13
jum@@ 13
junc@@ 13
kari 13
kel 13
killed 13
kot@@ 13
kun@@ 13
label 13
lap 13
lay 13
loy@@ 13
luc@@ 13
mach@@ 13
mad 13
mainly 13
mak@@ 13
makes 13
manipul@@ 13
markets 13
married 13
mean@@ 13
mediate 13
mers 13
miner@@ 13
mixture 13
moun@@ 13
nal 13
nations 13
natur@@ 13
ners 13
nes 13
nik 13
novi@@ 13
observed 13
ogene 13
ogly@@ 13
ois 13
ois@@ 13
omin@@ 13
omyc@@ 13
onal@@ 13
onas 13
onym 13
opsis 13
osh 13
othal@@ 13
otra 13
oyan 13
paid 13
palli@@ 13
panc@@ 13
parties 13
photo 13
phus 13
plic@@ 13
pod 13
polis 13
polis@@ 13
pollution 13
powers 13
pp 13
praised 13
professional 13
prom@@ 13
proportion 13
protect 13
protection 13
province 13
pt@@ 13
question 13
radic@@ 13
rand@@ 13
random 13
rapid 13
ray@@ 13
reach 13
reached 13
refer 13
refers 13
refin@@ 13
reform 13
represented 13
representing 13
res 13
ric 13
rich@@ 13
ridge 13
runner 13
s. 13
saini 13
screen@@ 13
seed 13
sensi@@ 13
smaller 13
som 13
spirit 13
statistics 13
stones 13
sty@@ 13
sus@@ 13
tad@@ 13
tah@@ 13
tat@@ 13
techn@@ 13
teri@@ 13
terminal 13
thousand 13
thy@@ 13
tified 13
tigen 13
toral 13
tos 13
traits 13
travi@@ 13
tries 13
trus 13
tum 13
typically 13
ulo 13
university 13
uro 13
ury 13
valley 13
vin 13
vo 13
voc@@ 13
voiced 13
vot 13
wana 13
warfare 13
wash@@ 13
whilst 13
widely 13
worldwide 13
yat 13
yen@@ 13
zen 13
zo 13
Ö@@ 13
ár@@ 13
ê@@ 13
ë 13
ë@@ 13
ì@@ 13
ò 13
ú 13
þ@@ 13
ɹ@@ 13
Σ 13
χ@@ 13
г@@ 13
м 13
у@@ 13
ׁ@@ 13
ד 13
ז 13
ע 13
آباد 13
ابن 13
الح@@ 13
الرحمن 13
ری 13
ــــــــ@@ 13
محافظة 13
مو@@ 13
مَ@@ 13
و@@ 13
ު 13
दानिक 13
भंगा 13
ऺ@@ 13
ঘ@@ 13
ছ@@ 13
ਬ 13
ન 13
ભ@@ 13
સ@@ 13
ુ@@ 13
ହ@@ 13
எ@@ 13
ழ@@ 13
ట@@ 13
డ 13
హ@@ 13
ೂ@@ 13
ം@@ 13
ീ@@ 13
ൃ@@ 13
ම@@ 13
ස@@ 13
ු@@ 13
ཀ@@ 13
ན@@ 13
པ 13
စ@@ 13
ည 13
ა@@ 13
ម@@ 13
‑ 13
☉ 13
南@@ 13
國@@ 13
김@@ 13
 13
1137 12
1140 12
1155 12
1160 12
11th 12
1345 12
1374 12
1385 12
1393 12
1419 12
1445 12
175@@ 12
25th 12
41,@@ 12
561 12
663 12
716 12
726 12
764 12
772 12
808 12
829 12
984 12
A7 12
AFC 12
Active 12
Alan 12
And@@ 12
Ans@@ 12
Any 12
Aristotle 12
Assist@@ 12
B3 12
Bagh@@ 12
Bec@@ 12
Bes@@ 12
Big@@ 12
Biology 12
Biot@@ 12
Boeing 12
Bomb@@ 12
Brach@@ 12
Brain 12
Brom@@ 12
CHP 12
Calvin 12
Camp 12
Career 12
Cathedral 12
Cay@@ 12
Ceph@@ 12
Ch 12
Chan@@ 12
Chel@@ 12
Chur@@ 12
Clar@@ 12
Cli@@ 12
Clo@@ 12
Compan@@ 12
Compos@@ 12
Constitution 12
Cov@@ 12
Dark 12
Das@@ 12
Dell 12
Desert 12
Director 12
Dist@@ 12
Distribution 12
Double 12
Due 12
Dw@@ 12
E3 12
EB 12
ESS 12
Einstein 12
Emer@@ 12
En 12
End@@ 12
Entre@@ 12
Ev@@ 12
Executive 12
FIBA 12
Fas@@ 12
Form 12
Forum 12
GG 12
Gab@@ 12
Gene@@ 12
Girls 12
Govern@@ 12
Graham 12
Ground 12
Ha 12
Haf@@ 12
Hak@@ 12
Hansen 12
Helm@@ 12
Higher 12
Hippo@@ 12
Hub 12
Hypo@@ 12
IK@@ 12
IMO 12
Imper@@ 12
Incre@@ 12
Interactive 12
Introduction 12
Jak@@ 12
Ji 12
Jug@@ 12
KC 12
KE@@ 12
Kali 12
Kaw@@ 12
Key@@ 12
King@@ 12
Kings 12
Kuk@@ 12
L4 12
Lah@@ 12
Large 12
Laws 12
Left 12
Lens 12
Libre 12
Lip@@ 12
Lis@@ 12
Lob@@ 12
Local 12
Lod@@ 12
London@@ 12
Lost 12
Lu 12
MAN 12
MAX 12
MVP 12
Madras 12
Manual 12
Mb@@ 12
Mend@@ 12
Mendel@@ 12
Monte 12
Mr@@ 12
Mrs. 12
NEC 12
NES 12
NL 12
Nam 12
Nati@@ 12
Naz@@ 12
Neb@@ 12
Neo 12
Neu@@ 12
Nike 12
Nintendo 12
Nom@@ 12
Norway 12
PVC 12
Pain 12
Palestinian 12
Pet@@ 12
Phar@@ 12
Phoen@@ 12
Phoenix 12
Phys@@ 12
Plac@@ 12
Play@@ 12
Polyn@@ 12
Pos@@ 12
Pra@@ 12
Prime 12
Psil@@ 12
Psittac@@ 12
Qur@@ 12
Record 12
Refl@@ 12
Rein@@ 12
Return 12
Rig@@ 12
Rogers 12
Ross 12
Russell 12
SPD 12
SSR 12
Santo 12
Scan@@ 12
Scor@@ 12
Scre@@ 12
Scrip@@ 12
Script 12
Seg@@ 12
Shawn 12
Shen@@ 12
Shik@@ 12
Sin 12
Sky 12
Slam 12
Smo@@ 12
Sou@@ 12
Stewart 12
Such 12
Sultan 12
Sund@@ 12
Symp@@ 12
TBS 12
Tah@@ 12
Tail@@ 12
Tat@@ 12
Tea 12
Though 12
Thr@@ 12
Tokyo 12
Town 12
Trav@@ 12
Tube 12
UAE 12
VF 12
Vaj@@ 12
Ve 12
Ves@@ 12
Viv@@ 12
Wan@@ 12
Warren 12
Wars 12
Wild 12
Will@@ 12
Wimb@@ 12
XXII 12
Y.@@ 12
Yo@@ 12
Zen@@ 12
abi@@ 12
abstract 12
abu 12
accoun@@ 12
achieved 12
acqu@@ 12
actually 12
adas 12
adh 12
adj@@ 12
ador 12
aena 12
agriculture 12
akar@@ 12
aler 12
alities 12
alk@@ 12
allow 12
alpin@@ 12
alter@@ 12
alth 12
alth@@ 12
aman 12
aming 12
anis@@ 12
anner 12
ante@@ 12
anterior 12
anthro@@ 12
approximately 12
aran@@ 12
arbitr@@ 12
artists 12
asset 12
aster 12
asting 12
atal 12
atern@@ 12
athan 12
athing 12
atia 12
atika 12
atric 12
augh@@ 12
aun 12
ause 12
aver@@ 12
avu 12
axi@@ 12
ayer 12
aza 12
bands 12
bath 12
beauty 12
behavior 12
behaviour 12
berry 12
beyond 12
bian 12
boat 12
brand 12
bu 12
bular 12
c. 12
camp@@ 12
cann@@ 12
capit@@ 12
category 12
causes 12
chip 12
choice 12
cir@@ 12
circul@@ 12
circulation 12
cit@@ 12
club 12
coll@@ 12
com. 12
composite 12
con 12
concepts 12
conduct 12
conjug@@ 12
conserv@@ 12
constitu@@ 12
constr@@ 12
consumer 12
convention 12
corporation 12
counter 12
cripts 12
cula 12
cylin@@ 12
dad@@ 12
[...]
