. 1
, 0.952026119167615
là 1
và 1
&quot; 0.9982618517299895
của 1
một 1
được 1
trong 1
năm 1
có 1
các 1
) 0.9793092584177074
( 0.9800505692512141
này 1
đã 1
người 1
họ 1
với 1
ở 1
loài 1
cho 1
đầu 1
học 1
vào 1
@-@ 0.4336147087181546
thành 1
tháng 1
số 1
từ 1
không 1
đến 1
những 1
tại 1
khi 1
tả 1
tiên 1
ngày 1
ra 1
khoa 1
thể 1
Loài 1
đó 1
vật 1
: 1
công 1
thực 1
về 1
để 1
thuộc 1
sự 1
như 1
bị 1
trên 1
chính 1
ông 1
sau 1
dân 1
gia 1
quân 1
nhà 1
động 1
; 1
lại 1
cũng 1
làm 1
thời 1
nước 1
nhất 1
hiện 1
mô 1
Nam 1
sử 1
phát 1
hành 1
bộ 1
nhiều 1
theo 1
hoa 1
hai 1
khác 1
việc 1
quốc 1
quan 1
con 1
sinh 1
thế 1
chỉ 1
cùng 1
xã 1
nhân 1
hình 1
hơn 1
dụng 1
chiến 1
định 1
thứ 1
do 1
Quốc 1
đồng 1
xuất 1
viên 1
còn 1
độ 1
1 1
miêu 1
Trung 1
thị 1
cách 1
tỉnh 1
nó 1
vị 1
2 1
tên 1
cuộc 1
bản 1
Việt 1
/ 1
giới 1
trở 1
bởi 1
hợp 1
Các 1
lập 1
nhưng 1
rằng 1
khu 1
phía 1
lớn 1
cao 1
điểm 1
bằng 1
tự 1
phần 1
đội 1
đại 1
nhận 1
kết 1
chức 1
trước 1
hội 1
trường 1
giải 1
hoặc 1
Năm 1
tiếng 1
Anh 1
3 1
vùng 1
cả 1
Trong 1
phải 1
trình 1
gồm 1
thường 1
Hoa 1
tiếp 1
điều 1
lượng 1
chủ 1
qua 1
- 1
phân 1
lý 1
sản 1
Kỳ 1
mà 1
thống 1
loại 1
sẽ 1
tế 1
huyện 1
cơ 1
trung 1
tính 1
diễn 1
lên 1
đối 1
anh 1
phố 1
bao 1
tích 1
vụ 1
gọi 1
thông 1
sống 1
tác 1
đi 1
hàng 1
bắt 1
phim 1
tạo 1
vì 1
lực 1
4 1
mình 1
nhiên 1
quyền 1
vực 1
hệ 1
cánh 1
địa 1
Đại 1
trị 1
&amp; 1
đường 1
lần 1
nghiệp 1
5 1
us 1
giáo 1
đánh 1
diện 1
chi 1
cấp 1
đấu 1
chúng 1
thủ 1
Pháp 1
cầu 1
khoảng 1
sĩ 1
10 1
mới 1
Sau 1
thức 1
đoàn 1
hóa 1
trận 1
Đức 1
tranh 1
cô 1
hay 1
6 1
đêm 1
pháp 1
đề 1
Tây 1
T@@ 1
% 1
– 0.6236602986450837
liên 1
tập 1
tham 1
nhạc 1
tàu 1
chuyển 1
biển 1
thấy 1
bay 1
máy 1
bố 1
truyền 1
Mỹ 1
thì 1
năng 1
km 1
mặt 1
ta 1
toàn 1
nên 1
gian 1
rất 1
ban 1
hiệu 1
văn 1
phương 1
tới 1
hoạt 1
đô 1
đây 1
bang 1
trí 1
nam 1
giữa 1
B@@ 1
đạo 1
triển 1
đặc 1
12 1
7 1
H@@ 1
tổ 1
nhau 1
âm 1
bướm 1
Bắc 1
nghĩa 1
đá 1
8 1
danh 1
cứng 1
ba 1
Một 1
Ông 1
biệt 1
tử 1
bóng 1
thiết 1
chế 1
đất 1
đang 1
S@@ 1
nằm 1
kinh 1
bình 1
đổi 1
thuật 1
ảnh 1
kỳ 1
tâm 1
9 1
nơi 1
dài 1
đơn 1
dưới 1
chất 1
Nó 1
cuối 1
phủ 1
Công 1
ch@@ 1
bọ 1
kế 1
Liên 1
dịch 1
Đông 1
ý 1
L@@ 1
Lan 1
M@@ 1
nữ 1
&apos; 0.4834289936744713
D@@ 1
nhiệm 1
tiểu 1
điện 1
sách 1
Nhật 1
nói 1
Vào 1
biết 1
r@@ 1
phẩm 1
sáng 1
thay 1
tăng 1
châu 1
bảo 1
biến 1
trưởng 1
nguyên 1
an 0.23932702606864015
11 1
Thái 1
báo 1
đều 1
b@@ 1
tin 1
l@@ 1
mục 1
ăn 1
vẫn 1
cứu 1
ia 1
thi 1
gần 1
trọng 1
đảo 1
C@@ 1
tình 1
chơi 1
thu 1
tiến 1
amp 1
cá 1
giá 1
bài 1
Bộ 1
đặt 1
tiêu 1
thân 1
tương 1
nay 1
tư 1
án 1
nhóm 1
Ngày 1
dự 1
nhỏ 1
tìm 1
tổng 1
phòng 1
c@@ 1
dùng 1
m@@ 1
n@@ 1
bắc 1
N@@ 1
ngoài 1
lịch 1
đông 1
s@@ 1
hòa 1
bà 1
bên 1
tài 1
hậu 1
nổi 1
i 1
màu 1
ca 1
dẫn 1
h@@ 1
quả 1
phong 1
ứng 1
tuổi 1
tinh 1
Dân 1
phục 1
kỷ 1
biểu 1
đưa 1
ata 1
sát 1
đời 1
Tuy 1
đình 1
viết 1
th@@ 1
um 1
G@@ 1
t@@ 1
tục 1
Thành 1
giao 1
&#93; 1
Hà 1
Ch@@ 1
miền 1
mang 1
v@@ 1
Bản 1
m 1
quận 1
yếu 1
mùa 1
hát 1
giữ 1
Hoàng 1
rộng 1
tướng 1
trang 1
vô 1
in 0.04109728784538281
thương 1
liệu 1
sông 1
&#91; 1
² 1
bán 1
nhập 1
quyết 1
từng 1
dựng 1
V@@ 1
bất 1
idae 1
đóng 1
tấn 1
sở 1
bỏ 1
Th@@ 1
thần 1
Dương 1
quá 1
phụ 1
Xã 1
chiếc 1
g@@ 1
chương 1
viện 1
di 1
dù 1
is 0.13188297954019015
Đ@@ 1
ph@@ 1
thắng 1
câu 1
nghệ 1
vận 1
Hải 1
Văn 1
hoàn 1
nhiệt 1
Cộng 1
2010 1
Theo 1
Độ 1
vai 1
y 0.1426864085571212
binh 1
lạc 1
xây 1
khí 1
ensis 1
cung 1
cử 1
cổ 1
vệ 1
nào 1
Ấn 1
giống 1
hạng 1
xác 1
d@@ 1
tra 1
Tổng 1
tiền 1
Nguyễn 1
K@@ 1
hoàng 1
trò 1
vua 1
aceae 1
đ@@ 1
x@@ 1
Bình 1
P@@ 0.9058155449641775
mở 1
Minh 1
Những 1
y@@ 1
tây 1
sân 1
ngữ 1
chống 1
hướng 1
chung 1
cái 1
trợ 1
làng 1
chiếm 1
chưa 1
R@@ 0.9821057540428073
Từ 1
hộ 1
ghi 1
tượng 1
on 0.13332984971552106
Ban 1
cộng 1
giả 1
minh 1
de 0.02652543062605667
đạt 1
ty 1
mất 1
triệu 1
dạng 1
kiến 1
phản 1
quản 1
nh@@ 1
bệnh 1
mạnh 1
sang 1
chết 1
hạn 1
A@@ 0.9788199200134131
lúc 1
Quân 1
giờ 1
tộc 1
cảnh 1
lãnh 1
gây 1
xe 1
nguồn 1
chứng 1
kể 1
kích 1
nghiên 1
chia 1
trấn 1
kiện 1
ký 1
20 1
lệ 1
tất 1
Chúng 1
đoạn 1
ngôi 1
hữu 1
thư 1
lưu 1
yêu 1
Khi 1
a 0.04006397380155758
vương 1
Tr@@ 1
tay 1
cây 1
chân 1
Vương 1
vòng 1
thuyết 1
ít 1
giúp 1
phép 1
thêm 1
Nga 1
Chính 1
Ba 1
Châu 1
độc 1
thích 1
phá 1
trực 1
mỗi 1
Sơn 1
Âu 1
hưởng 1
vậy 1
chọn 1
The 0.09394992373351761
O@@ 1
khỏi 1
Sự 1
sắc 1
sư 1
Hội 1
cảm 1
vấn 1
Chiến 1
vi 1
cần 1
hết 1
Giải 1
ng@@ 1
Nhà 1
em 1
tốt 1
địch 1
luật 1
cư 1
La 0.365051914622181
so 1
xem 1
nội 1
xếp 1
tỷ 1
sao 1
tr@@ 1
lấy 1
An 1
gốc 1
khả 1
quy 1
2011 1
dương 1
chí 1
mạng 1
giành 1
áp 1
Thanh 1
ước 1
núi 1
trai 1
mật 1
Người 1
mắt 1
15 1
on@@ 1
ai 1
bàn 1
triều 1
Đây 1
cố 1
niên 1
giảm 1
ấy 1
huy 1
khai 1
Nhĩ 1
Quận 1
ana 1
lời 1
tuyến 1
lệnh 1
Ph@@ 1
Đảng 1
khiến 1
khách 1
Nha 1
cáo 1
Thổ 1
trẻ 1
bầu 1
duy 1
Mã 1
thảo 1
vũ 1
sức 1
Thế 1
Tân 1
bại 1
an@@ 0.7712368023430686
tuần 1
chuyên 1
ngoại 1
k@@ 1
đa 1
Tháng 1
... 1
u 1
đồ 1
dục 1
môi 1
album 1
Nhân 1
ea 1
Nội 1
Lý 1
quay 1
riêng 1
chuẩn 1
phổ 1
Tại 1
thiên 1
đới 1
thúc 1
gặp 1
đế 1
hầu 1
Xô 1
nghiệm 1
Do 1
lớp 1
nghị 1
thanh 1
lợi 1
hạt 1
Long 1
kh@@ 1
Phi 1
o@@ 0.9826131189364462
ma 1
chữ 1
e@@ 0.8142194020405408
o 0.48758416328685417
30 1
of 0.02310212763329529
doanh 1
al@@ 0.7966646958583506
lễ 1
nền 1
xuống 1
chạy 1
18 1
phiên 1
la 0.03770942297741795
Danh 1
biên 1
19 1
X@@ 1
thái 1
Lịch 1
E@@ 0.7845646555783499
s 0.32725103683898654
gái 1
bổ 1
kiểm 1
vây 1
ic@@ 1
Hòa 1
da 0.793573924572981
dòng 1
the 0.012278087901439253
tồn 1
luận 1
Hán 1
tưởng 1
Hồ 1
rồi 1
muốn 1
16 1
i@@ 1
tuyên 1
thấp 1
vàng 1
Đế 1
ol@@ 1
in@@ 0.5361199340639003
New 0.5831277926085214
tiết 1
mọi 1
or@@ 0.9549615123518176
khẩu 1
cha 1
cực 1
Á 1
Giáo 1
tức 1
đứng 1
ae 1
gi@@ 1
cửa 1
tịch 1
du 0.15090748743789778
nhanh 1
2007 0.965094390357548
14 1
giám 1
Ngoài 1
Trường 1
mức 1
mẹ 1
thờ 1
ina 1
coi 1
trúc 1
Trần 1
thất 1
ốc 1
đáng 1
dụ 1
Có 1
nữa 1
kỹ 1
dựa 1
cận 1
oc@@ 1
phi 1
os@@ 1
giáp 1
giai 1
I@@ 0.9946696020502019
ngay 1
Hồng 1
mặc 1
hạ 1
đôi 1
Nguyên 1
bảng 1
13 1
tối 1
quần 1
quanh 1
phái 1
lâu 1
thủy 1
dung 1
tuyển 1
nhện 1
phóng 1
Thiên 1
Hàn 1
lục 1
17 1
đốc 1
ar@@ 0.7336976055492775
vài 1
nhằm 1
nếu 1
pháo 1
el@@ 0.7070241074894373
ngôn 1
I 0.6136176980239686
Đô 1
Tư 1
2006 0.9224355728982156
tố 1
cải 1
2008 0.8379091449367762
thập 1
Đồng 1
đủ 1
Không 1
en@@ 0.5016089380412352
thưởng 1
atus 1
Kinh 1
ac@@ 1
Lê 1
Ý 1
bạn 1
cấu 1
A 0.3687221997220302
Chủ 1
mẫu 1
giết 1
Vũ 1
mét 1
hỗ 1
chiều 1
II 1
luyện 1
Ở 1
Kh@@ 1
xa 1
25 1
lá 1
Tông 1
Cô 1
ô 1
bắn 1
phạm 1
kéo 1
a@@ 1
kim 1
hoạch 1
ella 1
di@@ 1
chấp 1
om@@ 1
Ng@@ 1
bốn 1
rừng 1
2016 0.7875862432031056
đài 1
Geometridae 1
F@@ 0.5436713048118167
er@@ 0.5215477779663925
Họ 1
Tiên 1
lộ 1
Kim 1
môn 1
chứa 1
rõ 1
J@@ 0.754414995801969
trùng 1
tỏ 1
sóng 1
buộc 1
Ủy 1
cứ 1
chịu 1
at@@ 0.9430127467054041
Cao 1
phận 1
dành 1
cạnh 1
ủng 1
lửa 1
ngành 1
2009 0.7442543216169096
ti@@ 1
tôi 1
tôn 1
p@@ 0.6512908770485727
toán 1
đổ 1
mềm 1
đàn 1
cụ 1
ot@@ 1
trao 1
tốc 1
2004 1
hải 1
khởi 1
am@@ 0.9565980241394164
đĩa 1
Điều 1
2015 0.7267756069751662
Z@@ 0.7601300925430485
Đài 1
bờ 1
nông 1
alis 1
khúc 1
z@@ 0.695030123657034
hồ 1
nặng 1
trắng 1
Quảng 1
thổ 1
Địa 1
Bảo 1
ánh 1
2000 0.8905930426087246
ngắn 1
21 1
al 0.20893418063131017
op@@ 1
lĩnh 1
2014 0.6942791142278244
nối 1
Bà 1
2005 0.9194417836792155
hại 1
ương 1
Lưu 1
Đến 1
ruồi 1
hôn 1
Nh@@ 1
Tiểu 1
2012 0.675867338074181
hồi 1
t 0.44778716670689345
khảo 1
chú 1
chuyện 1
Giang 1
sâu 1
xảy 1
tòa 1
trạng 1
to 0.026887894935681864
ủy 1
2017 0.7469880843250446
trả 1
Ar@@ 0.8993692580707223
2013 0.6857780102021162
24 1
gì 1
trụ 1
1999 1
thiếu 1
ur@@ 1
Thượng 1
2018 0.7075895136457773
Noctuidae 1
đen 1
niệm 1
thuốc 1
nhìn 1
100 1
loạt 1
An@@ 0.7898159821415521
khó 1
chiếu 1
Gia 1
mối 1
li@@ 1
Đường 1
rút 1
as@@ 0.800777413204057
xử 1
d 0.349261454864764
2019 0.7463780194168805
n 0.7126339167317022
nuôi 1
chim 1
tái 1
bức 1
vượt 1
Y@@ 1
Thị 1
cũ 1
thuận 1
Di@@ 1
xung 1
Triều 1
tước 1
is@@ 0.8547102755948686
mua 1
U@@ 0.8794948687950129
u@@ 1
vốn 1
id@@ 1
đầy 1
sai 1
thơ 1
mại 1
gt 0.9531600915367783
tội 1
to@@ 1
Hiệp 1
Cerambycidae 1
băng 1
ap@@ 1
trục 1
ang 1
23 1
22 1
mm 1
phối 1
en 0.031099018667137553
súng 1
lt 0.980211912653474
tạp 1
Phó 1
_ 0.6414127969356217
Mặc 1
áo 1
suất 1
h 0.9171932038185985
ống 1
Ninh 1
soát 1
song 1
p 1
đai 1
Cổ 1
Cúc 1
linh 1
sa 0.47614230301860677
chủng 1
buổi 1
kịch 1
xét 1
tia 1
trái 1
thử 1
W@@ 0.4551252314938434
et 0.05467518666632735
càng 1
ica 1
k 0.7306141613363557
osa 1
Gi@@ 1
Al@@ 0.7879603601541086
góp 1
rời 1
and 0.016106491661673994
truyện 1
đỏ 1
dễ 1
Trước 1
ong 1
31 1
kiếm 1
sứ 1
e 0.38816305087466707
ngựa 1
tầng 1
2001 0.9337369204986311
đảm 1
tải 1
Chi 1
trách 1
luôn 1
chuyến 1
trì 1
ag@@ 0.8174536533227615
cập 1
dấu 1
phí 1
đích 1
aria 1
Thủ 1
am 0.2621654610409103
ấn 1
Mặt 1
ul@@ 0.9281137966683242
suốt 1
50 1
Tập 1
suy 1
bào 1
Hai 1
Hy 1
l 0.28829793355519606
Thánh 1
at 0.0782431008552908
đăng 1
kiểu 1
xỉ 1
Khu 1
Yên 1
xanh 1
Cơ 1
2020 0.6737337366098405
đào 1
khá 1
lược 1
khối 1
Tổ 1
căn 1
Với 1
vợ 1
qu@@ 1
dần 1
lòng 1
đảng 1
tín 1
hãng 1
Việc 1
j@@ 0.6784133776792644
hàm 1
trưng 1
ung 0.6425897837792185
xứ 1
es 0.09915706495695696
Úc 1
cuốn 1
ro@@ 0.9974648012999224
28 1
kê 1
Viện 1
Lạp 1
Giám 1
bụng 1
Phương 1
đương 1
mực 1
lượt 1
nghi 1
et@@ 0.7965467927118147
xuyên 1
Quang 1
= 0.8019753165723555
đột 1
il@@ 0.9784056154897669
27 1
it@@ 0.7245435894320259
ar 0.3187071919146923
26 1
ê 1
thịt 1
họa 1
Phần 1
phê 1
Cuộc 1
ya 0.5817763179995518
2002 0.8408104913577765
dữ 1
mã 1
C 0.831647941482615
hủy 1
mạch 1
bi@@ 1
kính 1
Đào 1
thừa 1
0 0.7933808628921311
Đậu 1
Sân 1
tuy 1
đạn 1
Thời 1
Par@@ 1
kẻ 1
ho@@ 1
Chu 1
nạn 1
huấn 1
thoại 1
hỏi 1
ig@@ 1
x 1
era 0.5672829053098409
vừa 1
Lâm 1
khóa 1
hiệp 1
trời 1
Thụy 1
Phong 1
Phú 1
2003 0.8340196160717572
Con 1
as 0.04652115599703728
lo@@ 0.9649097671415807
League 0.7727096358342394
Vì 1
chúa 1
Định 1
ví 1
Xuân 1
B 0.8692110211603006
Mar@@ 0.7200579668860925
ngăn 1
os 0.381240468190276
ab@@ 0.4480855161307927
đẩy 1
Sh@@ 0.994667783919257
giác 1
ẩm 1
no@@ 1
trừ 1
el 0.04709436655850947
loạn 1
nổ 1
er 0.08732048487498667
ad@@ 0.5518338613014618
TCN 1
thật 1
trải 1
San 0.7149688954484351
chóng 1
lao 1
lính 1
Chí 1
im@@ 0.6713304641361455
sơ 1
na 0.8203446875001591
mộ 1
Erebidae 1
Phật 1
1990 0.9038228570681017
hạm 1
vọng 1
diệt 1
es@@ 0.4824856331427571
điển 1
ích 1
ir@@ 0.8763439808721101
29 1
Số 1
ưu 1
thiện 1
40 1
cm 1
c 0.640020008242055
em@@ 0.7382299256116889
ly 0.667410416058256
.@@ 1
thao 1
Tham 1
sửa 1
Đội 1
bước 1
Trương 1
nhờ 1
xin 1
lai 1
thú 1
khắp 1
Sư 1
thí 1
ò 1
phù 1
phút 1
đem 1
tách 1
trào 1
ái 1
ni@@ 1
ec@@ 0.8730308911911845
Tòa 1
thụ 1
ru@@ 1
ẩn 1
ach@@ 1
cắt 1
! 0.7315168692904157
ri@@ 1
chẳng 1
Nhưng 1
nhiễm 1
Trái 1
hương 1
man 0.35614771121197686
nguy 1
bày 1
quý 1
đỉnh 1
tu 1
gửi 1
lông 1
Q@@ 1
Đất 1
chỗ 1
&#124; 1
nghe 1
kháng 1
John 0.49950280970986866
xâm 1
anus 1
hiểu 1
g 0.6629085136842164
cai 1
Huyện 1
oides 1
cầm 1
le@@ 0.6313276351568892
ens 0.6414446141840199
sắt 1
ha 0.740818165829971
hiểm 1
à 0.051477677694186603
ngầm 1
ao 1
tiện 1
tàng 1
Tên 1
đẹp 1
Thông 1
vành 1
nâng 1
khắc 1
liền 1
hơi 1
tầm 1
Nhiều 1
liệt 1
sớm 1
chỉnh 1
Ngô 1
thăm 1
êm 1
kênh 1
ura 1
cường 1
ác 1
thăng 1
chảy 1
po@@ 0.8184994747627681
tuyệt 1
Hưng 1
tù 1
1998 0.8449959268014894
ắc 1
Tỉnh 1
ex 1
xúc 1
U 1
or 0.11622223677956517
sáu 1
T 1
us@@ 0.7419902083597646
Đạo 1
ôn 1
bão 1
nửa 1
dọc 1
? 1
1945 1
it 0.10410840259837736
màn 1
tò 1
co@@ 0.6398319315874246
đọc 1
thôn 1
ob@@ 1
formula 0.5366350277483727
máu 1
Về 1
mưu 1
Để 1
quảng 1
quán 1
Hiện 1
giản 1
tán 1
át 1
Nếu 1
rêu 1
ơ 1
ôi 1
vò 1
tan 1
Vĩnh 1
un 0.0507946959829899
á 1
ệt 1
Bar@@ 0.8866112235799904
Hồi 1
per@@ 0.788157392083722
og@@ 1
chồng 1
đe 1
Cách 1
ạn 1
thẳng 1
Ai 1
ồn 1
Ngọc 1
ang@@ 0.9939024719805593
1997 0.8654752278739392
dầu 1
Ichneumonidae 1
Đặc 1
Ne@@ 1
ngược 1
phó 1
dạy 1
Phúc 1
ed@@ 0.8896767581718775
săn 1
ết 1
Lương 1
bí 1
truy 1
one 0.1507161971617119
ổn 1
ả 1
Cục 1
Hạ 1
2021 0.6097246003118373
dọa 1
oph@@ 1
+ 1
ak@@ 0.8301542135077057
atum 1
Canada 1
York 0.4834856884448252
Phân 1
b 0.6518014965136167
Tam 1
bậc 1
Áo 1
ấm 1
Thủy 1
thoát 1
video 1
Quan 1
1980 0.9362795065469566
Car@@ 0.7907777060724107
thiệu 1
w@@ 0.44374900613943113
tặng 1
Karnataka 1
1991 0.8814162634614294
tháp 1
cậu 1
bò 1
chi@@ 1
Lai 1
Paris 0.7297205701191731
thước 1
° 1
Thống 1
Phạm 1
eri 1
ga 1
Hành 1
đúng 1
lan 1
bom 1
gắn 1
xạ 1
Mùa 1
phiếu 1
Chỉ 1
onia 1
och@@ 1
Hymenoptera 1
od@@ 1
​ 1
Loan 1
Y 1
st@@ 0.40914843763681863
Cor@@ 0.9899102707335831
nghiêm 1
khoản 1
trích 1
Hậu 1
Ho@@ 1
ur 1
eg@@ 0.8716354892094527
Cá 1
sẵn 1
Le@@ 0.7276783606298234
Qu@@ 1
chó 1
tehsil 1
Per@@ 0.9730343785658622
hút 1
bãi 1
un@@ 0.22408169105884942
tá 1
sung 1
lo 0.4039579017616886
1996 0.7893360154119753
Rêu 1
av@@ 0.6946706401953099
lẫn 1
trại 1
ka 0.9156071273163383
chặn 1
D 0.8265810443349709
rơi 1
F 1
Tử 1
yl@@ 1
ạ 1
Tự 1
thù 1
siêu 1
đoán 1
ám 1
cờ 1
Saint 0.5256451910693055
si@@ 1
gắng 1
Cập 1
cựu 1
2@@ 1
As@@ 1
tắc 1
tránh 1
lâm 1
dây 1
Nghệ 1
khiển 1
lương 1
1995 0.8013069268631036
bác 1
cỏ 1
nắm 1
60 1
pha 1
ine 0.47330165342676195
Cal@@ 1
thác 1
Mông 1
1975 1
thượng 1
Khánh 1
r 0.8219550418661447
hấp 1
ưa 1
Hệ 1
ense 1
St@@ 0.6440645942293565
Bài 1
ồng 1
Bồ 1
lưng 1
World 0.3920037371109806
1992 0.7793737478304023
é 0.2526507282098395
ảo 1
Chương 1
phán 1
hè 1
Cuối 1
ối 1
nhớ 1
thánh 1
Sch@@ 0.48738636212155634
tắt 1
họp 1
Phổ 1
1.@@ 1
Tống 1
quang 1
USD 1
ki 1
nghỉ 1
vĩ 1
đáp 1
thua 1
Tôn 1
In@@ 0.573080778209553
ci@@ 0.9766865065075385
đo 1
Nghị 1
f@@ 0.3039946650946594
trồng 1
nhánh 1
Đình 1
C.@@ 1
X 0.9696471086486796
Trịnh 1
ành 1
tai 1
v 1
lẽ 1
ne@@ 0.921575204067045
sắp 1
ràng 1
Am@@ 0.9478471372092613
Linh 1
ục 1
Đầu 1
quê 1
món 1
1993 0.8094253204923666
Phòng 1
bánh 1
oma 1
par@@ 0.558265140598367
nhật 1
tống 1
đuổi 1
khăn 1
Khoa 1
tạm 1
ov 1
Trận 1
nhẹ 1
đuôi 1
ei 1
khô 1
cấm 1
Trên 1
vuông 1
Đối 1
z 0.585304609630277
Br@@ 0.7803892682750653
ita 1
V 0.9862539678669261
bật 1
ula 1
so@@ 1
xương 1
lựa 1
ngờ 1
III 1
ii 1
Học 1
phạt 1
hài 1
1994 0.7463925637607304
quỹ 1
nghề 1
Sinh 1
ên 1
ida 1
trữ 1
opsis 1
côn 1
nỗ 1
sh@@ 0.5066745640162158
Mal@@ 1
bề 1
dậy 1
Hóa 1
Tính 1
thuyền 1
ep@@ 1
Bí 1
ngân 1
phức 1
Phát 1
cặp 1
Thể 1
1970 0.860640086538582
Chúa 1
Tiến 1
ẻ 1
chữa 1
car@@ 0.6692600023492263
Brasil 1
dưỡng 1
sợ 1
mời 1
hi@@ 1
àn 1
chối 1
ala 1
thậm 1
chùa 1
giấy 1
ào 1
ng 1
hôm 1
Hợp 1
Bo@@ 0.9938681851435708
đền 1
cảng 1
thi@@ 1
Cup 0.7484315580550187
Câu 1
ân 1
Nữ 1
đỡ 1
ạc 1
O 0.6162268000181836
khủng 1
M 0.917864772384911
trú 1
br@@ 0.5604060611484614
hoá 1
che 1
re@@ 0.13245672677698012
ut@@ 0.9163594608874363
Ả 1
El@@ 0.7991627131740919
hu@@ 1
Triệu 1
tàn 1
no 0.1717611945358846
àng 1
Na 1
ngang 1
Chrysomelidae 1
nghĩ 1
vong 1
bạc 1
1960 0.9208085141516914
mưa 1
su@@ 0.9519147652494734
rắn 1
khỏe 1
ấu 1
Cảnh 1
Cùng 1
Lực 1
bé 1
âu 1
Điện 1
C. 1
A.@@ 1
Điển 1
tỉ 1
ona 1
son 0.10604669362107963
hoang 1
ing 0.09792306193114246
ồi 1
Su@@ 1
gỗ 1
1989 0.7835632460178874
game 0.4871951917816163
hùng 1
thiệt 1
A. 1
ides 1
vườn 1
mười 1
mo@@ 0.8777809342451648
Vân 1
ạt 1
le 0.03049886802540918
eo 1
ost@@ 1
ov@@ 1
lui 0.6116437791465691
phường 1
des 0.027717278466920004
ena 1
tờ 1
sub@@ 0.6486404215377041
ani 1
tis 1
ara 0.9846162225764016
Vua 1
Sở 1
odes 1
đẳng 1
ys@@ 1
Thần 1
gió 1
Lễ 1
uống 1
giảng 1
ys 1
ak 0.8833351046961574
folia 1
“ 0.10625782854088892
gà 1
dia 1
miễn 1
tus 1
Kiến 1
khán 1
Thân 1
đua 1
200 0.9621797576130469
ing@@ 0.7185773349234996
California 0.8976271168752264
ã 1
rãi 1
trứng 1
đau 1
Di 1
Cũng 1
Thuận 1
Hy@@ 1
Chi@@ 1
êu 1
icus 1
ì 1
Thạch 1
” 0.3381577699191352
Thiếu 1
dãy 1
Hiến 1
hiến 1
ay 0.812386150215524
Lục 1
10@@ 0.9481865840829508
Sĩ 1
trăm 1
mi@@ 1
Kết 1
mẽ 1
cân 1
sáp 1
thẩm 1
bá 1
Tấn 1
ốt 1
um@@ 0.5192707712147412
ổ 1
nóng 1
chấm 1
yr@@ 1
kì 1
Rập 1
ột 1
2.@@ 1
Mon@@ 0.7071940789127688
ber@@ 0.7363982215754007
se@@ 0.539482228941748
mũi 1
dị 1
va 1
80 1
ki@@ 1
Con@@ 0.5634033121013595
trốn 1
ăng 1
tận 1
tùy 1
cơn 1
1988 0.7823406343501513
Nghĩa 1
đực 1
and@@ 0.8230972026893851
Or@@ 0.8608184404276961
Cầu 1
Arctiinae 1
tròn 1
xu 1
hồng 1
chép 1
L 0.5342096170555909
ép 1
võ 1
chị 1
Đoàn 1
Thiến 1
bo@@ 0.5910339344366053
Ví 1
vi@@ 0.7979503370942138
ton 0.509948494718383
J.@@ 1
hỏa 1
Đan 1
Se@@ 0.6132290956001646
góc 1
Thiết 1
.. 1
ora 1
Col@@ 0.7473469091111227
chinh 1
quyển 1
tri@@ 1
ừng 1
Co@@ 0.66948085107347
rượu 1
Tất 1
eb@@ 0.7415794110083207
Philippines 1
70 1
ley 0.5214478091601169
ate 0.209364969956482
Như 1
nâu 1
Tương 1
Được 1
S 0.6998713065487621
lối 1
soạn 1
vỏ 1
ngũ 1
chắc 1
ans 0.277546723517015
oth@@ 1
ah 0.8537634575405755
lan@@ 1
í 1
90 1
ell@@ 0.9231569012442578
ạo 1
Là 1
can 0.2556033170801647
Thường 1
H 1
dày 1
ti 1
kia 1
Tiếng 1
dặm 1
Er@@ 0.629934281867547
ức 1
Cy@@ 1
lưới 1
ter@@ 0.4647649263227253
thỏa 1
bảy 1
ải 1
3@@ 0.8772615957639948
En@@ 0.675322812293603
kém 1
hổ 1
tho@@ 1
Hầu 1
ium 1
vịnh 1
K 0.9467299673910234
tường 1
ati@@ 0.8690660892352408
mar@@ 0.7170011394823483
1986 0.7830435356132733
au 0.08006715407625406
lu@@ 1
Tần 1
cal@@ 1
dium 1
Mor@@ 0.7855449673411729
Mi@@ 1
ngọt 1
hô 1
man@@ 0.7810556461213276
ch 0.49318166865423757
mệnh 1
vỡ 1
de@@ 0.3361698012101438
tụ 1
bạo 1
lỗi 1
ad 0.621195963610462
Pr@@ 0.7969613537881642
nhu 1
web 1
R 0.6600356250078293
te@@ 0.6373966091804387
Trang 1
4@@ 0.8797283082377503
tảng 1
Sông 1
san 1
úy 1
Li@@ 1
Sao 1
tấm 1
hiếm 1
Tuyên 1
ném 1
cục 1
Tiền 1
chuồn 1
đức 1
Hữu 1
Kông 1
Tri@@ 1
Lào 1
P 0.8792355794789353
inus 1
trống 1
Sài 1
biện 1
1950 0.8330513282048702
ất 1
Cả 1
đám 1
tu@@ 1
N 0.8927797547110945
1987 0.7496008791509925
đồn 1
vẽ 1
ấp 1
phe 1
thuế 1
Luật 1
To@@ 1
hư 1
Phim 1
Huy 1
1985 0.7668052981157103
đoạt 1
1942 0.9808002210855374
phỏng 1
Đà 1
United 0.22759531905121927
giọng 1
Toàn 1
Hoàn 1
Hungary 1
mon@@ 0.4914876553214066
cháu 1
kg 1
đốt 1
mong 1
lạnh 1
az@@ 0.7546899399559063
ne 0.21983074651551537
hòn 1
ari@@ 1
nguyện 1
gai 1
Man@@ 0.6959652198790464
ola 1
rối 1
sch@@ 0.36331589579373486
đợt 1
xưa 1
đứa 1
vẻ 1
Vòng 1
ema 1
Lộc 1
45 1
Phan 1
ếm 1
Ngụy 1
Elateridae 1
mỏ 1
sóc 1
35 1
ath@@ 1
Cung 1
Viên 1
sót 1
1981 0.799025110862425
Môi 1
tọa 1
au@@ 0.63392656968007
Nhóm 1
eus 1
0,@@ 1
óc 1
Tác 1
Sử 1
Lo@@ 1
mạc 1
1944 0.8060085208090658
giàu 1
Tào 1
1979 0.795055415499003
điệu 1
Sa 1
mái 1
1940 0.8954457533552672
1984 0.7309495457753183
Ngoại 1
Bạch 1
cừu 1
ngừng 1
ik@@ 0.6052199302725856
ino 0.7114519791162307
tám 1
Giao 1
nhảy 1
mắc 1
vợt 1
kho@@ 1
chu 1
cháy 1
H.@@ 1
vú 1
hà 1
Lạc 1
Quý 1
nhắc 1
đòi 1
ận 1
khổ 1
Gòn 1
khơi 1
Har@@ 0.8333763390930113
Cát 1
cự 1
áng 1
Indonesia 1
khám 1
dàng 1
1982 0.7595718233052084
Mas@@ 1
Grand 0.7572858138606697
George 0.5940940705522806
chuỗi 1
dõi 1
Séc 1
L.@@ 1
ant@@ 0.8188779496546099
khái 1
khấu 1
ờ 1
la@@ 1
chạm 1
Mỗi 1
’ 0.0625368749439734
pi@@ 0.7093861099290432
ay@@ 0.8086099719160257
-@@ 0.5125181823446524
Lúc 1
chặt 1
Bá 1
ie 0.2608022610745362
Dự 1
vinh 1
buôn 1
1941 0.8318290451775768
tổn 1
S.@@ 1
ô@@ 1
ano 0.5602677524766919
thiểu 1
lỵ 1
1983 0.7432877552309604
chăm 1
Thu 1
ỗ 1
aur@@ 1
olo@@ 1
Album 1
cãi 1
voi 1
bar@@ 0.5904543022027372
bu@@ 0.9294859335644322
ama 1
bèn 1
Bi@@ 0.8865192270771414
Mac@@ 1
ol 0.856191871437322
Và 1
Uy 1
1972 0.7474103833069619
1943 0.8831191537256211
do@@ 0.9003541741424869
ada 0.23566700018718917
anum 1
500 0.8699896724718753
ou@@ 0.5717853020147635
ich@@ 1
Tôi 1
Hương 1
thai 1
pl@@ 0.5190721108814758
ù 1
thạch 1
ệ 1
ỉ 1
su 0.08658733296336232
ặc 1
tim 1
ser@@ 0.7872209412691221
yn@@ 1
Thương 1
William 0.5151014253141483
1978 0.7653840254999333
Israel 1
lôi 1
co 0.44342456244319295
con@@ 0.3416792126014568
thảm 1
von 0.03636218613915105
James 0.5554003774575709
Cho 1
tựa 1
Kar@@ 0.8227564888606496
Ngay 1
Mel@@ 1
cất 1
ua 1
Me@@ 0.7244109512851514
ninh 1
ếp 1
cột 1
1930 0.9196127981352685
G 0.7005595754429697
hứng 1
1976 0.7562734149973466
ev@@ 0.7017050724211327
Truyền 1
Cẩm 1
3.@@ 1
Ber@@ 0.6148758746913925
— 0.04888236672558341
bia 1
viễn 1
cướp 1
tệ 1
ầm 1
eta 1
dứt 1
Bên 1
xưng 1
bối 1
L. 1
ima 1
cốt 1
anthus 1
chắn 1
giam 1
inh 1
Mer@@ 0.9599609320322801
FC 0.737884410363501
Thư 1
Cúp 1
đón 1
ah@@ 0.7168927261672017
chậm 1
Phiên 1
E 0.63652531078436
Võ 1
R.@@ 1
300 1
Crambidae 1
tri 1
sàng 1
Mô 1
ài 1
nghèo 1
ắt 1
Du 1
Biển 1
è 1
ăm 1
gen 1
Bor@@ 0.9684780095791481
dừng 1
mồi 1
ota 1
ist@@ 0.8678620836619079
Syria 1
sẻ 1
mu@@ 1
pes 1
ngồi 1
Gr@@ 0.5948164388400965
ền 1
Bọ 1
ặt 1
kiêm 1
Poly@@ 1
Pter@@ 1
1968 0.7216172281940542
ba@@ 1
ộc 1
Ag@@ 1
thả 1
li 1
trúng 1
dàn 1
kèm 1
lia 1
Re@@ 0.32607361597095424
Biên 1
Hàng 1
kêu 1
non 0.39898334613855646
khẳng 1
1946 0.8632642722638117
Dưới 1
ō 1
chở 1
hung 1
lái 1
Trị 1
răng 1
Nhạc 1
Âm 1
Vùng 1
Xuyên 1
5@@ 0.8381808205193748
Mu@@ 1
khi@@ 1
cỡ 1
32 0.9506301958584146
ania 1
pal@@ 1
Mục 1
alb@@ 1
7@@ 0.8967524861508511
Tài 1
chín 1
1973 0.7220789666163755
pr@@ 0.46280142904835386
triết 1
dư 1
khuôn 1
thuê 1
cụm 1
huyết 1
1954 0.9642822540718853
Te@@ 0.8112991530547141
khuyến 1
sánh 1
Ti@@ 1
Ac@@ 0.8897670360886184
gh@@ 1
Vinh 1
Charles 0.5372058959355209
land 0.2666340232878221
đậu 1
ic 0.34180370882781486
tần 1
Luân 1
ách 1
Bur@@ 0.852616017813039
f 0.5300220115827778
ngọn 1
thải 1
Tiêu 1
Mai 0.7250320322035116
tông 1
èo 1
Bằng 1
Gu@@ 0.678314265340945
ox@@ 1
đồi 1
Ko@@ 1
Bal@@ 0.7886894226116465
Ngân 1
Trichoptera 1
1974 0.6877678111752782
Be@@ 0.43121740006083403
Ser@@ 0.9425139861969181
cam 1
cer@@ 1
1965 0.7794896298145574
Duy 1
yc@@ 1
Limoniidae 1
M.@@ 1
Trời 1
mảnh 1
Quyết 1
Bu@@ 1
Phước 1
Henry 0.7831620877581589
tic@@ 1
City 0.3081235580678278
Windows 1
hỗn 1
cu@@ 0.7049282776986523
ọc 1
km2 1
Ireland 1
M. 1
ếu 1
w 0.6643222174496952
pe@@ 0.6428984900383805
Ca 1
Al 0.6089777301822319
Kể 1
chứ 1
lỗ 1
Campuchia 1
Ma@@ 0.680400190867153
… 0.827922888333293
tiêm 1
Chân 1
Thọ 1
Sc@@ 1
ini 0.7438414936584751
quen 1
tha 1
gấp 1
Her@@ 0.6513860351265219
Tứ 1
ớt 1
Pal@@ 1
ếch 1
đệ 1
iz@@ 0.6451426625609075
ôm 1
1977 0.703217366026157
1@@ 1
ops 1
hi 1
ế 1
Malaysia 1
Ma 1
Mạc 1
0@@ 0.9345662301372623
1967 0.7257147450020949
tô 1
West 0.3993308018820161
yp@@ 1
48 1
Mạch 1
vở 1
tân 1
6@@ 0.8371047956784523
Pol@@ 0.8206481633831313
Cer@@ 1
chìm 1
cor@@ 0.5508343967659027
miệng 1
sữa 1
út 1
Phụ 1
Dù 1
TV 0.5466167532522039
De@@ 0.49859372228379656
David 0.5170072159682741
vui 1
1964 0.733997874531046
vết 1
8@@ 0.8365550762233157
Đảo 1
Huế 1
Quyền 1
Mc@@ 0.5064200202554606
nig@@ 1
dã 1
65 0.920848727272428
Pi@@ 0.8772269633743585
cản 1
lang 1
Ki@@ 1
ật 1
phu 1
Lu@@ 1
Robert 0.5121159419780564
Str@@ 0.5843101752589757
ranh 1
1963 0.784206491470845
Đinh 1
ell 0.5450648884493037
aph@@ 1
Ni@@ 1
Hình 1
Washington 0.6540600116126949
lis 1
aw@@ 0.8134183163793549
ỏ 1
ten@@ 0.48300921295508636
lọt 1
Dr@@ 0.958218361919725
dinh 1
Tachinidae 1
cr@@ 0.46370258107062057
vạn 1
Động 1
Ukraina 1
ạng 1
1939 0.7166974371950507
IV 1
khích 1
Singapore 1
phúc 1
Tor@@ 0.8417142530835361
chấn 1
min@@ 0.6168539139151561
Tàu 1
tam 1
Pro@@ 0.6211030907040992
ọng 1
ét 1
Mexico 1
may 0.2671787615423238
ói 1
sc@@ 0.8260404281353768
Paul 0.45091560861102387
ại 1
Mo@@ 0.6271877895557841
Tình 1
trạm 1
yi 1
ầu 1
Hạm 1
vững 1
Vị 1
Pennsylvania 1
ard 0.4417920176426342
der 0.0112255883130443
flav@@ 1
Kế 1
Thứ 1
úng 1
ila 1
Dung 1
Trọng 1
Cha 1
oa 1
Đôn 1
Đó 1
1971 0.6339635845513453
ngư 1
ngại 1
cương 1
ngợi 1
hẹp 1
J. 0.866358539027919
ene 0.5133626180129426
ma@@ 0.9264101919177216
ê@@ 1
B.@@ 1
osus 1
Sal@@ 0.7438563798704126
kỵ 1
đẻ 1
ran@@ 0.8094674804880055
Ro@@ 0.620189307136415
Đa 1
òng 1
Cái 1
1920 0.7438518281178783
ion 0.9433258432983909
oni 1
si 0.47269625842686674
lũng 1
Thu@@ 1
van 0.9243387933922267
atr@@ 1
1969 0.6646621930660116
F.@@ 1
hoảng 1
Kr@@ 0.7609311264743372
1962 0.7430510467357543
ề 1
ven 1
Po@@ 0.751533681355112
Thực 1
ke 0.46393661587115564
thang 1
đầm 1
lợn 1
cú 1
Nghiên 1
trầm 1
men 0.27285071808346223
1956 0.759379354270804
ax@@ 1
9@@ 0.8637511648848034
màng 1
canh 1
Liêu 1
thách 1
Bel@@ 0.6667773287096398
Illinois 1
Trưởng 1
cát 1
ter 0.21419286077435334
Cr@@ 0.7840493277153532
kỉ 1
Chiêu 1
ốn 1
ạch 1
Louis 0.5880604113276072
lin@@ 0.7622444955460246
khuẩn 1
Lăng 1
ip@@ 1
cán 1
Cas@@ 0.8905080447854358
Lee 1
gu@@ 0.6523599531730421
ek@@ 0.5785435713324478
H. 1
tidae 1
Quy 1
Tak@@ 1
oni@@ 1
aya 1
1955 0.828594825098001
ann@@ 0.9493009102089013
ill@@ 0.5826999318109674
ghế 1
Hol@@ 0.8847655608638816
uy 1
Diễn 1
Ver@@ 0.2369454544025168
Tar@@ 1
aea 1
ex@@ 0.3068266024575966
ong@@ 1
1966 0.6870908629100969
lẻ 1
ưng 1
Bỉ 1
thuần 1
kho 1
tor@@ 0.5868848320430128
ra@@ 0.9059818352982064
than 0.187962779732687
ngàn 1
Cu@@ 1
by 0.02023885899270053
mạn 1
ale 0.27306035219985614
4.@@ 1
thép 1
Vụ 1
if@@ 0.7895506112099029
sky 1
Sel@@ 1
não 1
Song 1
khổng 1
Khoảng 1
sụp 1
Nông 1
ok@@ 0.8693333844322834
Hùng 1
chụp 1
lỏng 1
Tề 1
Bảng 1
Ly@@ 1
Lãnh 1
xuân 1
thầy 1
br 0.6529330050832864
dải 1
lồ 1
Đệ 1
trương 1
duyệt 1
á@@ 0.5962901492355633
E.@@ 1
ản 1
long 0.29396018033461707
gr@@ 0.38840165507686886
nhấn 1
S. 1
xấu 1
ey 0.5668761935882524
Tuấn 1
London 0.370569825339654
ri 1
già 1
ập 1
hiển 1
chợ 1
Texas 0.7729769450760923
hy 1
bụi 1
Điền 1
der@@ 0.41758461041411815
muối 1
1958 0.7238744014116849
ới 1
dường 1
Du@@ 0.9834656660476878
dis@@ 0.19404626629201294
Is@@ 0.8276175290804805
mel@@ 1
mọc 1
ax 1
ồ 1
1947 0.7539259051852358
1936 0.7837129858468035
Cần 1
col@@ 0.5747127405246412
Thi@@ 1
Phil@@ 1
én 1
j 0.9497025505962349
khung 1
cà 1
xám 1
38 1
Khang 1
flora 1
Sar@@ 1
400 0.8718277621458436
Maria 0.8598448597619726
Zealand 1
dao 1
75 1
ent@@ 0.26180078658555683
gián 1
01 1
sạch 1
hoan 1
ư 1
Eu@@ 1
Hiếu 1
Vi@@ 1
phú 1
uc@@ 1
Iran 1
pop 1
êng 1
im 0.03762801940057919
ver@@ 0.1366799071648647
Pseud@@ 1
So@@ 0.8421598909625302
top 0.4426449434378852
anime 1
can@@ 0.7024772093671099
nhạt 1
ú 1
Entertainment 1
thoái 1
te 0.11670101538671473
go@@ 1
be@@ 0.2255035989056663
ari 0.9496605941800117
52 1
hộp 1
nòng 1
nương 1
34 1
Tokyo 1
ỷ 1
Vườn 1
Tĩnh 1
niềm 1
Mic@@ 1
ều 1
lạ 1
đập 1
× 1
36 0.9498379895672455
chuột 1
sợi 1
Ger@@ 0.6964480378974522
33 0.9422522458784159
thám 1
pa 1
se 0.028490712288215658
Nhất 1
ja 0.6420180499487448
1961 0.6927642250353877
Michael 0.5290103999865984
Pe@@ 0.826923596527618
1949 0.7149902126521132
1959 0.7156314290666141
chăn 1
ji 1
oxy 1
lọc 1
nét 1
thọ 1
tiềm 1
Com@@ 0.49369664770857846
Thomas 0.4605490629437949
CP 1
èn 1
tứ 1
eri@@ 1
Hyp@@ 1
mê 1
Iowa 1
ek 0.8064553607942831
ili@@ 1
ọt 1
ón 0.4685793604447136
tháo 1
Argentina 1
Dakota 1
fer@@ 0.4992466661439274
tung 1
ly@@ 1
Bệnh 1
ko 0.8518631710473463
tan@@ 0.9757164712504103
viêm 1
ngực 1
Xương 1
Ge@@ 0.583313987703773
Nghi 1
ngủ 1
ł@@ 1
sưu 1
Vệ 1
nghìn 1
Ohio 1
hào 1
du@@ 0.6577623095286455
hang 1
xoay 1
Thiệu 1
$ 0.23576497891581094
Huệ 1
đi@@ 1
Giống 1
sơn 1
iss@@ 1
Dịch 1
bột 1
chu@@ 1
Giai 1
Min@@ 0.7871664111536187
ứ 1
ane 0.5982659545440444
Ex@@ 0.4945086207265924
Hoài 1
Tur@@ 0.894815244331744
Billboard 1
Trich@@ 1
q@@ 1
ỏi 1
ed 0.06462139441178529
za 0.6310874282415553
chờ 1
P. 1
1957 0.714980864410105
Ngôi 1
ler 0.2565620088332567
1,@@ 0.9004995261062928
Quần 1
55 1
ọ 1
đàm 1
Quản 1
ice 0.4804224915117413
1953 0.7555269436160943
47 1
illa 0.8826608338410945
México 1
eli@@ 1
UEFA 1
eh@@ 0.5087190061739569
You 0.7617969958282242
hy@@ 1
ez@@ 0.9061847417146448
bọc 1
mac@@ 1
Pl@@ 0.7482063789131377
lắp 1
ass@@ 0.48106595089015397
sp@@ 0.33629871762907
ùng 1
Tiếp 1
Đỗ 1
àm 1
Scotland 1
cưới 1
dược 1
khôi 1
Tro@@ 1
ãn 1
trần 1
64 0.8997492461597104
hâm 1
Sách 1
yên 1
bấy 1
Sp@@ 0.5808085990508258
virus 1
protein 1
anth@@ 1
lăng 1
1938 0.6700717026598966
hạnh 1
trông 1
Fr@@ 0.612555328924103
mèo 1
elia 1
E. 1
dâng 1
thợ 1
điệp 1
5.@@ 1
mát 1
Huyền 1
il 0.05490778899777722
orum 1
Viễn 1
1948 0.6288044225629433
usa 1
ami 1
Đơn 1
ố 1
dr@@ 0.4399768800734243
ere 0.5581515852882587
Môn 1
1937 0.7369008194127306
Thuật 1
bè 1
Tô 1
ce 0.13790755319772238
Ste@@ 0.7671960975844586
thiệp 1
At@@ 0.9251772294535249
ok 1
andra 1
hoà 1
mai 1
mãn 1
escens 1
xi@@ 1
Chiếc 1
str@@ 0.38348824467471104
hắn 1
ị 1
ō@@ 1
Hem@@ 1
Cuba 1
bạch 1
chút 1
trộn 1
giận 1
Mẹ 1
ym@@ 1
Park 0.3684956693282442
ib@@ 0.9848268043637572
mi 1
1951 0.7615915204590561
ni 0.4945039402505178
del 0.030623167450281843
ần 1
oh@@ 1
vir@@ 1
af@@ 0.382101809851498
Mur@@ 1
Huấn 1
xưởng 1
Gar@@ 0.7635207697907751
bọn 1
đáy 1
ae@@ 1
sus 0.17459055054700925
37 1
ruột 1
Tướng 1
dáng 1
P.@@ 1
Video 1
Cửu 1
khen 1
thận 1
nô 1
mat@@ 0.6896056222448096
Ak@@ 0.9413819026526488
hồn 1
ớ 1
hầm 1
France 0.19658342576891502
Kur@@ 0.8094150665696693
Đặng 1
Nguồn 1
mươi 1
South 0.22234834504043224
Ab@@ 0.24086646070627124
ius 1
Còn 1
ry@@ 1
aj@@ 0.7509454671612319
Lợi 1
ềm 1
lân 1
Myr@@ 1
nhượng 1
icum 1
ơi 1
ãi 1
Des@@ 0.7497853591962264
Si@@ 1
Khắc 1
Can@@ 0.8268163420984243
for 0.014665397005517361
Phục 1
00 0.930329508219042
1952 0.6754393731344688
Ur@@ 0.7871235521901774
tóc 1
Kỹ 1
ze@@ 1
Chung 1
ện 1
Báo 1
khoáng 1
oi 1
ou 0.11565775740129654
úc 1
Phủ 1
Cảng 1
ổi 1
óng 1
44 0.9302347530529557
Mat@@ 0.7356009040842918
bùng 1
phus 1
l. 1
mơ 1
ir 0.3985278794715005
Latinh 1
ngo@@ 1
me 0.3018566271349347
ỗi 1
amb@@ 0.9871510776212347
nhuận 1
đốm 1
khuyên 1
Anth@@ 1
Thừa 1
lô 1
ủ 1
Music 0.48959071989410113
úp 1
ref 1
1934 0.7701847388137761
1929 0.779786518529432
tica 1
eria 1
hưu 1
bi 1
dịp 1
Nước 1
ngập 1
phẳng 1
ros@@ 1
ngự 1
ĩ 1
1935 0.751665296966011
51 1
son@@ 0.893803257014473
42 1
Chánh 1
mer@@ 0.3776561572838013
đợi 1
esia 1
ực 1
nhị 1
id 0.5902347516159455
Tâm 1
49 1
ầy 1
har@@ 0.5486066998266882
Phù 1
Cây 1
Richard 0.5489711916400671
chư 1
My@@ 1
ulata 1
kín 1
lồng 1
Internet 1
Eri@@ 1
hề 1
phy@@ 1
He@@ 0.5103863201190583
lãm 1
Máy 1
lưỡng 1
ash@@ 0.9800662374136638
tĩnh 1
Ngũ 1
2,@@ 1
lật 1
chàng 1
thẻ 1
căng 1
ner 0.3051294646306363
ày 1
Berlin 0.4024676578533655
Martin 0.557446395667895
ira 1
phẫu 1
ữ 1
Quá 1
ây 1
Á@@ 1
ắn 1
Lao 1
Hơn 1
Ô 1
B. 0.5582999884256968
46 1
ót 1
adi@@ 0.8838000142743249
berg 0.3869886008012226
Ad@@ 0.5349336805959806
tuyết 1
cel@@ 1
Bang 1
Giới 1
rã 1
Huân 1
chôn 1
King 0.41601473357788127
cin@@ 1
ali@@ 0.7705744342773647
all@@ 0.5384307709805065
Kan@@ 0.9518484357885602
ese 0.35487229427626443
opus 1
20@@ 1
Thắng 1
Tường 1
ite 0.3079131242018487
long@@ 1
Sam@@ 0.8954855925296453
xong 1
Asilidae 1
ai@@ 1
giây 1
đèn 1
thus 0.9045868805342202
Cre@@ 0.9255075602675388
1931 0.8110590075044244
rom@@ 1
Hel@@ 1
Mộc 1
mượn 1
om 0.8971265034957949
ạp 1
Tipula 1
ers 0.09187085106550966
Wales 0.924530334813531
Manchester 1
1914 0.7387124004970642
D. 0.9087111885182025
Kho@@ 1
ghép 1
Val@@ 0.6158532803799733
uk@@ 0.9231759474609698
1918 0.6164411431031886
ro 1
loc@@ 0.7551703307657018
ey@@ 1
of@@ 0.7696442085515605
ũ 1
ênh 1
ụy 1
rot@@ 1
aki 1
phila 1
uli@@ 1
iv@@ 0.9044854552251822
1900 0.8597612015787472
lúa 1
Lập 1
nề 1
Ly 1
rau 1
thịnh 1
Hàm 1
los@@ 1
sạn 1
Sph@@ 1
me@@ 0.489397310277379
Minnesota 1
th 0.2405981222049137
č@@ 1
ơn 1
Mol@@ 1
tươi 1
com@@ 0.3789671714821575
Phái 1
ính 1
abr@@ 1
Edward 0.8300648983902604
ville 0.2175041459401582
lằn 1
thr@@ 1
inc@@ 0.5869019706149369
Tạng 1
nạp 1
awa 1
rock 0.5446167053521553
El 0.07057625018049123
ạm 1
1912 0.8142706757864703
bre@@ 0.5565756985616918
Kansas 1
nỗi 1
are 0.03642598902913807
Cải 1
cổng 1
ụ 1
dâm 1
tar@@ 0.761775305509636
uyên 1
6.@@ 1
Los 0.17978979731619552
Hi@@ 1
Hi 1
bút 1
ot 0.48923511245259316
gỡ 1
nia 1
Sm. 1
One 0.3379199725029546
den 0.024481257625808536
nấm 1
uta 1
dò 1
pan@@ 0.953164304319352
Mes@@ 1
huyền 1
ội 1
ụt 1
Siêu 1
sen 0.46993530404773903
ator 0.33228076917979016
Ấu 1
aga 1
ev 1
vé 1
Tu@@ 1
Love 0.800212232596787
Pan@@ 0.7869334902472525
Trà 1
ược 1
Trăng 1
1891 1
yl 1
ngã 1
sin@@ 0.7077462272155817
lặp 1
39 1
Kitô 1
Ros@@ 0.6783431269953957
sườn 1
cus 1
nấu 1
mỹ 1
Thập 1
tuân 1
ty@@ 0.9543184308357474
punc@@ 1
kịp 1
Sản 1
Kam@@ 1
und@@ 0.5572802317559468
ỡ 1
ảm 1
Ba@@ 1
Jean 0.3158388113944603
43 1
Sol@@ 0.6264529499506865
điền 1
lam 1
Bùi 1
ase 0.621697292143216
K. 1
Ta@@ 1
m. 1
lò 1
Por@@ 0.8330914457969463
les 0.022289461681107518
Diên 1
ộ 1
ậu 1
ă@@ 1
axit 1
41 1
nhãn 1
ow@@ 0.6805302041347355
nhịp 1
ine@@ 1
ta@@ 0.6858919998732091
io 0.4718901733735687
ngưỡng 1
Dòng 1
khứ 1
yth@@ 1
Lượng 1
1933 0.6085315254982405
asi@@ 1
mấy 1
Bị 1
1922 0.7698084401938081
Thạnh 1
1917 0.7090682690710989
gợi 1
Hạt 1
Neuroptera 1
arg@@ 1
òi 1
Lữ 1
den@@ 0.5099700333314117
ẩu 1
vang 1
bor@@ 0.6876948192233798
W.@@ 1
1913 0.8638015170301074
ắm 1
Os@@ 1
lệch 1
Moskva 1
sàn 1
Sa@@ 0.8717972251877566
thung 1
Friedrich 0.7512376461221275
53 1
treo 1
Tháp 1
Cos@@ 1
end@@ 0.3295366360877923
ằng 1
Mad@@ 0.7916072996741066
Mus@@ 0.6940826541652485
í@@ 0.4509077340397882
600 1
1932 0.7169378371504413
1924 0.7291010618491199
Joseph 0.4688114988195792
sur 0.059828651821266905
ud@@ 0.944079691721845
bê 1
rô 1
ge@@ 0.2212393608720113
No@@ 0.8835771623020354
nàng 1
ster@@ 0.8635399054333069
Hydro@@ 1
1925 0.7569000120502686
Iraq 1
Vô 1
é@@ 0.18790968306325678
Scarabaeidae 1
củng 1
ượng 1
lành 1
1908 0.927272606019553
Đăng 1
ori@@ 0.8998746181622868
thuẫn 1
đáo 1
ide 0.8976143619110517
ển 1
Kỷ 1
Lepto@@ 1
Khu@@ 1
he@@ 0.38234101844046975
inch 1
lầm 1
mây 1
Tuần 1
bồi 1
ệp 1
bền 1
Smith 0.5833818519939622
nêu 1
Bất 1
Hor@@ 0.7488006027084241
gan 1
Bol@@ 1
bơi 1
dời 1
ā@@ 0.6945540198779545
thằn 1
dỡ 1
est@@ 0.32624861461588595
ễu 1
Ter@@ 0.801979576816674
Jackson 1
fl@@ 0.40760568604035663
1919 0.6166260913343176
Go@@ 0.6274844019996026
ahalli 1
đậm 1
cul@@ 0.9298215395127195
đựng 1
Trinh 1
Tùng 1
nhầm 1
I. 0.7168614340392618
lar@@ 0.8265384901602049
06 1
Cực 1
1910 0.783387027438575
1916 0.8904430186790765
05 1
Le 0.055583148961605974
Pakistan 1
ft 0.7984405366151148
Phường 1
mor@@ 0.5613118934171182
Mil@@ 0.7485020896148367
ye 0.5275473483290656
1905 0.879634319592049
sk 1
72 1
điêu 1
1911 0.8751706790239753
T.@@ 1
54 1
7.@@ 1
cong 1
alli 1
Cl@@ 0.8217142102936621
ợ 1
Mao 1
ịch 1
Thơ 1
St. 0.29289003129976093
lắng 1
G.@@ 1
For@@ 0.41438076743846486
Cà 1
Colombia 1
tang 1
ve 0.08208790182782888
Quả 1
manga 1
ung@@ 0.5323053764041696
gen@@ 0.3700028263810477
ậy 1
ler@@ 0.5113105852748983
ny@@ 1
Brazil 1
Top 0.9005104972209104
Phía 1
bl@@ 0.3189527511855561
Bayern 1
poly@@ 1
Hoạt 1
xứng 1
Micro@@ 1
Loire 1
Lind@@ 1
ó 0.12262060236700727
fr@@ 0.4470671992534146
Peter 0.3987467927104191
02 1
F. 1
suối 1
Vịnh 1
150 0.9240113302813991
quát 1
isti@@ 1
oz@@ 1
K.@@ 1
Gor@@ 0.9847849090003462
Cat@@ 1
Kính 1
ford 0.45077550215058804
ỗng 1
agn@@ 1
Alpes 1
Hiệu 1
USS 1
lãng 1
Met@@ 1
mãi 1
D.@@ 1
b. 1
Tu 1
pu@@ 0.6393182894306604
800 1
mì 1
xóa 1
Đôi 1
Vạn 1
Sy@@ 1
nở 1
re 0.19968976520169465
hỏng 1
ova 1
1927 0.7094095595006659
Heter@@ 1
Sem@@ 1
Tế 1
Ru@@ 0.8108773978052741
ệu 1
La@@ 0.89132995072301
sổ 1
0.000 1
Afghanistan 1
Thiện 1
1923 0.729650294584115
ND 1
soái 1
Sten@@ 1
đúc 1
ó@@ 0.575738648542771
phế 1
Müll 1
chẽ 1
ùi 1
amp@@ 0.8651120622895628
Missouri 1
San@@ 0.6858855098268933
tật 1
2022 0.5589696100323172
Ram@@ 0.8713910580401826
cạn 1
yd@@ 1
Lam 1
tii 1
Giá 1
pin@@ 1
Cương 1
R. 0.9427248850183709
nh 1
Bối 1
Me 0.9092048210288356
xóm 1
Ke@@ 0.7476132342815863
1906 0.9205148836102685
gói 1
Man 0.6060833457033037
leo 1
1928 0.6284709363250928
04 1
orus 1
buồn 1
Lep@@ 1
urus 1
yg@@ 1
ằm 1
for@@ 0.24173769294238623
Hal@@ 0.8276914356594274
táng 1
ướt 1
phun 1
56 1
Chu@@ 1
mảng 1
alia 1
TV@@ 1
ac 0.5886174824874769
cap@@ 0.5518604794866289
J 0.6804594020267731
Baker 1
Venezuela 1
Hir@@ 1
Phyl@@ 1
ori 1
Australia 0.3412189742205919
Bulbophyllum 1
Ry@@ 1
ub@@ 1
ỳ 1
09 1
Hướng 1
03 1
fus@@ 1
nhắm 1
yo@@ 1
sừng 1
Đo@@ 1
ỉnh 1
dẹp 1
hoãn 1
Mak@@ 1
ngh@@ 1
Tinh 1
quái 1
ela 0.7826933294318091
Tin 1
cho@@ 1
Nẵng 1
aris 1
ifolia 1
DNA 1
formis 1
por@@ 0.580913335919685
Cói 1
War@@ 0.6504315598399423
Mật 1
enia 1
Chấp 1
mừng 1
Ang@@ 0.7278561041649927
hứa 1
ophyllum 1
Olympic 1
chuông 1
Ân 1
Tú 1
Bố 1
Dor@@ 0.9548866945969523
trinh 1
Hook@@ 1
De 0.21497584380375284
giỏi 1
ularis 1
Kal@@ 0.6811349341281151
nhựa 1
ul 1
Nho 1
07 1
Super 0.7540218808829875
tes 0.21933775409247672
chào 1
cống 1
ins@@ 0.4653697988318877
ẹt 1
osum 1
nợ 1
Mở 1
Simon 1
don 0.6841122209007974
58 1
tata 1
W 0.5905787785248123
anti@@ 0.4603616363940288
ens@@ 0.25021012119652797
khía 1
Microsoft 1
eli 1
túi 1
Thiền 1
Mary 0.541431946547844
nhì 1
Mag@@ 0.6496353586260576
bur@@ 0.5482766406408703
aka 1
đỗ 1
ko@@ 0.9690468854476222
đói 1
My 0.8149422652632591
ato 0.5508268287057527
her@@ 0.33235933845528526
Đỏ 1
hạc 1
kov 1
Lệ 1
Mãn 1
bữa 1
Guinea 1
folium 1
Angeles 0.5590197401882292
quét 1
odon 1
Thục 1
Apidae 1
yph@@ 1
Gal@@ 0.6229897880158534
Hu@@ 0.7584582030544944
acid 1
Điểm 1
Sáng 1
gl@@ 0.738672037932067
sa@@ 0.8134851823182099
ech@@ 0.6826255407046988
uyện 1
85 1
đâu 1
ess@@ 0.4685966786026048
lep@@ 1
08 1
ast@@ 0.7712527954927021
.f. 1
57 1
the@@ 0.6454786944572153
1926 0.6523999984051275
sy@@ 1
Lỗ 1
bốc 1
thô 1
tel@@ 0.5916645485516397
Salticidae 1
phấn 1
mùi 1
ha@@ 0.6849907115047581
lừa 1
Est 1
longi@@ 1
gạo 1
Thất 1
mal@@ 0.5355167157996579
ạnh 1
1909 0.8861240568430007
Trân 1
ulus 1
yan@@ 1
Đi@@ 1
1921 0.6589478776410957
Chiều 1
otus 1
Hot 1
Tín 1
otis 1
lum 1
iy@@ 1
trâu 1
lam@@ 0.6589279362750025
mỏng 1
Wil@@ 0.6761069526335435
thỉnh 1
Santa 0.4639601825157998
Cap@@ 0.9452389375588739
Thịnh 1
q 0.8784042908525616
9,@@ 1
optera 1
1895 1
Ath@@ 1
bây 1
õ 1
anensis 1
Khai 1
Quỳnh 1
wa 0.44320859398574725
Kor@@ 0.6462736604996634
Men@@ 0.8235635403147473
sọc 1
mer 0.40112359913087003
Der@@ 1
Cấp 1
súc 1
sim@@ 1
Cụm 1
hằng 1
T. 1
sốt 1
62 1
Chile 0.8811607233965877
cúp 1
Seoul 1
Francisco 0.4979804976664423
Qua 1
1915 0.751958382798265
Hitler 1
ịt 1
Florida 0.6535034334133291
ẫn 1
huy@@ 1
thôi 1
95 1
nhọn 1
Cam 1
eum 1
Do@@ 0.7095202680034574
ứt 1
Es@@ 0.48662445229220397
hẹn 1
tốn 1
kiên 1
Nak@@ 1
Khí 1
đòn 1
Division 0.2955720043955048
Nguyệt 1
rạp 1
iro 1
Thay 1
tỏa 1
Serbia 1
sk@@ 0.43266853432987784
trich@@ 1
Lư 1
zi@@ 0.7142413803753666
cat@@ 0.6032802370171376
chục 1
Trạch 1
eng@@ 0.38091668530359374
phiến 1
rạn 1
sil@@ 0.947866175826058
Tối 1
tràn 1
uyền 1
dội 1
ử 1
men@@ 0.5723132108568743
lõi 1
Sil@@ 1
nồng 1
Quỹ 1
yst@@ 1
ến 1
ẳng 1
Loại 1
tro@@ 0.736624834422147
Ottoman 1
xu@@ 1
Lin@@ 0.7230165604008223
bông 1
Mười 1
Virginia 0.5851140314046547
ellus 1
osp@@ 1
Av@@ 0.7716060670766159
Kol@@ 0.9621672305036204
ểm 1
Mah@@ 0.7601281072214405
ễ 1
unc@@ 1
Dicran@@ 1
Football 0.46924868449091367
khu@@ 1
ali 0.8857398852797315
tum 1
Not@@ 0.8484549128700738
cas@@ 0.5021380000197118
vịt 1
Champions 1
uma 1
ani@@ 0.9866580277499746
hẳn 1
Ap@@ 0.7724647015807808
Bạc 1
Mark 0.6004114469941327
Lim@@ 1
didae 1
phổi 1
lão 1
ruộng 1
Han@@ 0.967217891491241
Xuất 1
isa 1
dốc 1
ứa 1
áy 1
inae 1
Del@@ 0.658756756497086
Thi 1
mìn 1
ìm 1
Meg@@ 1
xích 1
Sải 1
ửu 1
Mẫu 1
Ol@@ 0.7148435812090049
túc 1
ằn 1
Nhờ 1
3,@@ 1
trượt 1
ặng 1
duệ 1
luân 1
inia 1
ut 0.592935287446046
Roma 1
mòn 1
don@@ 0.9533738629331424
Google 1
gọn 1
khẩn 1
mạo 1
ug@@ 0.7901672210006836
nút 1
Dũng 1
Khmer 1
áu 1
liều 1
ind@@ 0.5788170789241088
Đời 1
bon 1
ab 0.17059768871850137
len@@ 0.6654401510222168
ren@@ 0.3745081967210312
lidae 1
Bre@@ 0.5784008443465167
ito 0.6186068123730595
ian 0.41377474414582993
Lang 1
Lâu 1
Ay@@ 1
sii 1
Arg@@ 1
onidae 1
pil@@ 1
Bulgaria 1
Thăng 1
xướng 1
FIFA 1
Q 0.9834034734802299
acea 1
ts@@ 0.38539710472527594
Armenia 1
ham 0.8777145516577239
Vi 1
ski 0.6753547430816876
cl@@ 0.42195590375293246
iana 1
ilis 1
Kiều 1
Astragalus 1
Diego 1
Disney 1
România 1
ect@@ 1
Kun@@ 1
Sang 1
Hawaii 1
Kiểm 1
off 0.18513258190289628
Căn 1
huống 1
ticus 1
Đĩa 1
cy@@ 1
Vol@@ 0.7621992429506039
he 0.021894101303551128
đứt 1
Az@@ 0.8523764554971889
Khải 1
sti@@ 0.7286558309205368
ể 1
CD 0.6074909766019897
pol@@ 0.5232689583266659
Karl 0.5994650969969634
cối 1
rồng 1
# 0.4776765997383514
vời 1
ừa 1
phi@@ 1
Kat@@ 0.8122177140175902
Plat@@ 1
ami@@ 1
kar@@ 0.7210669701600183
Oscar 1
mờ 1
Don 0.6991294540388984
hưng 1
lạm 1
Mạng 1
63 1
Trò 1
béo 1
sel@@ 0.46050137085322845
tur@@ 0.43922828042142337
ự 1
1903 0.8782971166854994
ff@@ 0.4611458477772506
ín 0.7298696504451139
Binh 1
COVID 1
Tăng 1
bội 1
Hổ 1
Cử 1
Tùy 1
ci 0.3987508502952423
dắt 1
vil@@ 1
ent 0.07715650718749621
ore 0.39316946239930434
ẻo 1
tre 0.7710627843895409
Viết 1
Mit@@ 0.7663980359401834
North 0.18632465634567547
duyên 1
12@@ 1
Nag@@ 1
Alexander 0.5823613649865651
Ruồi 1
1904 0.8185626517699696
ach 0.35364765251163244
Far@@ 0.7253630909817591
móng 1
sul@@ 1
ish@@ 0.6044374483936458
ation 0.0533350334795552
mag@@ 0.8834261090664056
Khởi 1
cậy 1
radar 1
ary 0.1954844284237394
ão 1
Núi 1
Dryopteridaceae 1
Ha@@ 0.7113672908016913
quỳ 1
ểu 1
Black 0.44614912965844133
ie@@ 0.5977426871315905
làn 1
age 0.08289581635429755
Nov@@ 0.951063163187919
FA 1
lũy 1
Wisconsin 1
G. 1
Kiên 1
lũ 1
elli 0.8014061889142914
Ben@@ 0.5846253752426598
otrich@@ 1
nộp 1
cac@@ 1
Bến 1
Gmina 1
up@@ 0.4116593602430746
Van 0.7864970437825826
dae 1
1907 0.7676029744723728
khuyết 1
Phố 1
da@@ 1
Khê 1
ther@@ 0.845243140563938
hoại 1
Nintendo 1
vải 1
pos@@ 0.4349861988474851
Wal@@ 0.5137682400581391
chuyền 1
Kir@@ 0.9729627387460275
be 0.030923304748789904
VI 1
od 1
Lần 1
dê 1
gương 1
Victoria 0.733425745943342
mann 0.33416046986005365
tin@@ 1
tản 1
Ứng 1
nus 1
1898 0.9432081943336204
anthes 1
ình 1
Jo@@ 0.8025283501935259
Vàng 1
ẫm 1
Trình 1
Chế 1
Polypodiaceae 1
mốc 1
Ec@@ 1
Tom@@ 1
Làng 1
Tỷ 1
hãm 1
ưỡng 1
phia 1
ngẫu 1
Thẩm 1
1000 0.773193701302747
ain@@ 0.5771721169253319
zia 1
Doanh 1
tím 1
Peru 1
Harry 1
Z 0.6855619062624616
8.@@ 1
opo@@ 1
International 0.20147056295610985
mâu 1
Un@@ 0.29258734589341995
Tuyến 1
76 1
ỵ 1
Cyr@@ 1
ỹ 1
ễn 1
Gen@@ 0.5205068168412769
ile 0.20020116529910342
1.000 1
Ri@@ 0.5490079301837764
giấu 1
1897 0.9607058955384201
700 1
Ka@@ 1
dính 1
cia 1
ặm 1
Nigeria 1
tiệc 1
It 0.039522705028254675
estr@@ 0.720867786906245
sen@@ 0.48181337838296895
ello 0.6108120348113882
ger@@ 0.3639810064880249
W. 0.7661026207864196
ago 0.8249567414629765
59,5 1
1899 0.9417478290116472
ard@@ 0.5403762129960139
1902 0.844158214015573
eph@@ 1
múa 1
13@@ 1
61 1
Il@@ 0.8120892902348852
nhiếp 1
Madrid 0.5884530648888464
kin 0.7922843335866527
120 0.996590818216161
Serie 0.7727403626894048
đà 1
Elizabeth 0.8490305408942486
CH@@ 1
Cro@@ 0.895252364161807
cúng 1
Aquitaine 1
Linyphiidae 1
trừng 1
uti@@ 1
Trí 1
ngai 1
Trấn 1
Na@@ 1
túy 1
ngón 1
9.@@ 1
nghịch 1
oto 1
lưỡi 1
dic@@ 0.6407822576299522
Quách 1
hal@@ 0.569689064650311
ber 0.3931901283702317
Tả 1
tom@@ 0.7542378630300905
4,@@ 1
lati@@ 1
59 1
Bách 1
Mạnh 1
tê 1
icola 1
vay 1
24@@ 0.9221412314523255
Ecuador 1
Phùng 1
ìn 1
66 0.9919821336774398
bến 1
Bảy 1
kiệt 1
yum 1
Xa 1
mù 1
Premier 0.7017057571858655
idi@@ 1
Đồ 1
Chùa 1
On@@ 1
tic 0.4169501909001701
Air 0.335727986341484
oe 1
1896 0.9350829860953918
Tháo 1
ichi 1
ocarpus 1
14@@ 1
68 1
Tour 0.396741382734281
Quán 1
Hoằng 1
mầm 1
Bát 1
Pen@@ 0.8080788493523922
7,@@ 1
micro@@ 0.988419264588655
pp@@ 0.7174087582789255
tùng 1
asa 1
mỡ 1
guitar 1
eur@@ 1
đâm 1
Bão 1
khỉ 1
Carl 0.7676317555286228
Gre@@ 0.6303679642401901
DC 0.907545368229861
atha 1
ylo@@ 1
* 0.15250442521441104
Khi@@ 1
Hung 1
ậm 1
Giả 1
ửa 1
Dic@@ 1
Nar@@ 0.9825652730142155
kĩ 1
tơ 1
Milan 1
ca@@ 1
Nói 1
aul@@ 1
eni 1
Tai 1
chiêu 1
tis@@ 0.6923031013928256
bul@@ 0.5966625367148863
Lincoln 1
ik 0.47356786047865973
Chất 1
Bl@@ 0.42439152257601936
ful@@ 1
ơm 1
Dar@@ 0.5816206703920508
Hỏa 1
ừ 1
Char@@ 0.469664069714275
Chelsea 1
Ca@@ 1
Ku@@ 0.9895854376654026
pro@@ 0.35258380662322775
Brach@@ 1
ùa 1
5,@@ 1
ộn 1
1901 0.8126267268491161
Cam@@ 0.7804247431956852
st 0.30988939171814467
Chợ 1
67 1
lầy 1
hối 1
Ham@@ 0.9187012130867673
eng 0.9760272291065573
ich 0.4219285061105165
Rad@@ 0.6693243467291609
nom@@ 0.9830164738585593
Bởi 1
ke@@ 0.620710410879798
ocer@@ 1
sal@@ 0.42592785708817305
Tưởng 1
ngừa 1
ř@@ 1
ảng 1
field 0.1919289872734734
Bốn 1
rào 1
ựu 1
ge 0.25813973512891
Records 0.3791387088701834
ky 0.6187838993991087
lây 1
~ 1
Sin@@ 1
88 1
vit@@ 1
viếng 1
Vận 1
ous 0.15404017629111802
Ga 1
Đạt 1
Johnson 0.6611915016454584
69 1
oria 1
Đốc 1
aca 1
Mộ 1
Xem 1
lườn 1
nhậm 1
chốt 1
uy@@ 1
ho 1
5.000 1
inn@@ 0.7301721970608207
una 0.029838468304425193
Lam@@ 1
ặn 1
Red 0.4256241668157685
bit 1
In 0.015120899135972834
hr@@ 0.838473264360464
iki 0.7036037467131239
Sak@@ 1
nghiêng 1
nhạy 1
15@@ 1
Ale@@ 1
SS 0.819433971786541
thở 1
ton@@ 0.7736981381819855
Bán 1
1,5 1
dũng 1
ngộ 1
Diệp 1
Onthophagus 1
hảo 1
8,@@ 1
lin 0.625752878033715
77 1
chừng 1
all 0.05876234571298488
lat@@ 0.686775809025054
1894 1
ick 0.40376092734845986
itz 0.5027378628469958
Chlor@@ 1
Biểu 1
Dol@@ 0.8930446614558563
trật 1
Ngh@@ 1
đạp 1
Arkansas 1
ette 0.29073532813101566
Vật 1
with 0.010331047114255455
Em@@ 0.5616733820152394
trăng 1
bù 1
ici@@ 0.7016976423823362
vic@@ 1
ava 1
miếu 1
DVD 0.8262306972873362
rễ 1
ềng 1
Town 0.6397509629649432
Cop@@ 1
hir@@ 1
Chrys@@ 1
bớt 1
We@@ 0.4680295575508025
uk 1
Stalin 1
AS@@ 0.7170083248102951
Dav@@ 1
Bas@@ 0.5718151750374175
ati 0.7148208932477597
xá 1
ường 1
đắc 1
Fre@@ 0.4119833171963362
10.@@ 1
tấu 1
DC. 1
nhi 1
ũng 1
idaceae 1
rác 1
ts 0.09806985974847642
aus@@ 0.15190874215531305
cuồng 1
uca 1
dii 1
dec@@ 0.35333297241879286
tị 1
Đề 1
Michigan 0.721064340138109
Italia 1
Occitanie 1
sói 1
Ban@@ 0.5629936958917205
khớp 1
Chuẩn 1
Che@@ 1
Tuổi 1
Frank 0.5981422130348519
ick@@ 0.48151060270967244
Lạt 1
So 0.455939037154359
osia 1
ve@@ 0.5640648113472417
Hạng 1
mad@@ 1
Liverpool 1
iti@@ 0.5700623346222119
Game 0.8238866768305815
Ul@@ 0.7339065819472841
thỏ 1
Rhône 1
Đánh 1
aer@@ 1
gi 1
Les@@ 1
pic@@ 1
Kon@@ 0.42554666450384915
gốm 1
Khối 1
antes 0.21444943376038333
š@@ 0.6687367768070497
ista 0.4071618210106944
250 0.8567392444509095
Nobel 1
phyllum 1
eth@@ 0.5791444957854467
sút 1
triệt 1
Độc 1
Tetr@@ 1
dion 1
móc 1
Pap@@ 0.7998475839875476
bin 0.9796530733267284
icul@@ 1
sol@@ 0.4118558573087147
Euphorbia 1
rửa 1
Túc 1
hum@@ 0.8984426356650985
Tiết 1
Tri 1
tảo 1
UB@@ 1
bát 1
otr@@ 1
Ky@@ 1
ole@@ 1
73 1
Huỳnh 1
gạch 1
Cấu 1
mặn 1
đắp 1
đeo 1
hôi 1
Sor@@ 0.8419073928533181
Mậu 1
bal@@ 0.4308382010445207
Taylor 0.8307554560042727
trà 1
õm 1
ụi 1
etta 1
mũ 1
Pyr@@ 1
val@@ 0.5713801375997206
name 0.10962424239269813
Bác 1
YouTube 1
ker@@ 0.7139931933128396
mes@@ 0.9616667483441416
82 1
illar@@ 1
Croatia 1
anga 1
Đền 1
aly@@ 1
Cỏ 1
dạ 1
gấu 1
ign@@ 0.6888379542572675
vạch 1
ovich 1
Pa@@ 0.9837755747852128
ole 0.4663487364990149
zy@@ 1
Í@@ 1
din@@ 0.8743205600759997
iidae 1
ten 0.0706485488161218
74 0.9974243392372999
Giữa 1
Gray 1
ger 0.38661691275871285
asc@@ 1
arc@@ 1
Mường 1
khói 1
Nouvelle 1
Ty@@ 1
Prot@@ 0.8001743414140942
Năng 1
sis 1
ộng 1
1889 0.9314795022368451
Gần 1
cur@@ 0.3854270683784037
cài 1
Phản 1
ust@@ 1
esi 1
ps 0.3623217208985762
opter@@ 1
1890 0.791968167493503
cóc 1
xen 1
odi@@ 0.9585340380307457
ụn 1
bàng 1
eda 1
phylla 1
macro@@ 1
Nav@@ 1
Lept@@ 1
Lĩnh 1
ẽ@@ 1
thơm 1
Ư@@ 1
86 1
uyển 1
79 1
ệm 1
pe 0.34319900703589956
Đen 1
Columbia 0.6407807725539217
Maz@@ 1
lùi 1
pennis 1
Times 0.5154165680487638
71 0.9996301590824535
99 0.9576161669408926
rẽ 1
ist 0.022436035503653296
Bàn 1
16@@ 1
Ox@@ 1
Real 0.6524177264878375
đãi 1
giáng 1
not@@ 0.47458947543770297
V. 0.8813463990678955
ophora 1
trop@@ 1
American 0.0774892390641391
quỷ 1
Da@@ 1
Jack 0.5995223302306097
des@@ 0.1650928868632417
Slovakia 1
omyia 1
umi 1
vượng 1
OS 1
carbon 1
HĐ@@ 1
thùy 1
ven@@ 0.46124660001122275
TP 1
bách 1
Càn 1
var@@ 1
Star 0.48691993396562355
84 1
vân 1
ưởng 1
ngụ 1
go 0.28113056188983176
Ran@@ 1
Lã 1
Pháo 1
Pel@@ 1
Shin@@ 1
6,@@ 1
PC 0.8970129000241923
ap 0.6808649042841
23@@ 1
uch@@ 0.8117010503908344
Halictidae 1
dor@@ 0.7075615675784858
vẹn 1
Jones 0.555947063684958
Leuc@@ 1
Pas@@ 0.579505396656658
Apple 1
Mim@@ 1
khánh 1
Thích 1
98 1
Rhynch@@ 1
yo 1
ngọc 1
HMS 1
giật 1
oshi 1
ủi 1
bó 1
ee 0.4354133269106546
ãy 1
Sw@@ 0.7279008815044663
ū@@ 1
Carex 1
nảy 1
xít 1
Khả 1
isi@@ 0.536377769911002
muộn 1
óm 1
trôi 1
anes 1
3D 1
ling 0.28652096869219673
Orth@@ 1
Benth. 1
ites 0.4094429488424347
QĐ 1
Hãn 1
del@@ 0.4680118704239327
Hiền 1
Hãng 1
tựu 1
Lá 1
Giáp 1
onom@@ 1
78 0.9869229776280606
Cường 1
ennis 1
1885 0.8973703531385905
Albert 0.5970128873360365
châm 1
olus 1
81 1
Pot@@ 0.9309666686156133
arius 1
chil@@ 1
pseud@@ 1
opteris 1
ce@@ 0.7349414291975744
lụt 1
Latin 0.6911920598331264
melan@@ 1
Oxy@@ 1
nướng 1
eu@@ 1
• 1
Sri 1
Tipulidae 1
Pil@@ 1
tráng 1
Cố 1
Tom 0.6188796929289843
vari@@ 0.7392454585828115
Nhơn 1
nhu@@ 1
sét 1
hố 1
− 0.803739039348309
pin 1
Ký 1
chổi 1
30@@ 0.762972969486105
series 0.108836597334723
Pod@@ 1
ham@@ 1
cuống 1
Ble@@ 1
iko 1
uki 1
10.000 1
Australasia 1
Phụng 1
Wilhelm 0.5895858862211214
khiêu 1
éo 1
Mik@@ 1
Pic@@ 1
Luc@@ 0.9580339303846999
Megachilidae 1
kép 1
Agr@@ 1
Camp@@ 1
Ánh 1
96 0.9490496523521784
iri 1
ure 0.2473395845805388
Kas@@ 0.6948671112294587
ãng 1
Cle@@ 1
sia 1
vĩnh 1
ant 0.07152939026786682
xoắn 1
per 0.1655093492030042
Dicranomyia 1
chẩn 1
Sur@@ 0.5362398372782866
enn@@ 0.4764846702758353
Club 0.19816920535587138
UNESCO 1
Tích 1
Pit@@ 1
Big 0.4931195764998466
Java 1
NĐ 1
Sho@@ 0.9554225871871445
1878 0.9710181713303809
sẫm 1
NGC 1
ze 0.38497076755897197
đấy 1
Hymen@@ 1
vắng 1
antha 1
Williams 0.5623768632551429
Bắt 1
use 0.10525301670916212
nu@@ 1
ush@@ 1
mic@@ 1
Xá 1
Lời 1
Cai 1
Je@@ 0.8088687875533106
ilus 1
mas@@ 0.3671181641190393
Màu 1
elle 0.06518155836111914
Bóng 1
ượt 1
pul@@ 0.6628457311171568
burg 0.4101643121816758
heo 1
Pseudo@@ 1
Dis@@ 0.4055986827288024
lor@@ 1
Jac@@ 1
Trụ 1
amo@@ 1
ę@@ 1
Ep@@ 1
Trump 1
adi 1
ear@@ 0.7498186378222235
mắn 1
chém 1
ome 0.6355247893515019
Awards 0.3557527241186322
ans@@ 0.5187393446544963
Nhận 1
gar@@ 0.5274924223041288
Lớn 1
opidae 1
umb@@ 1
ales 0.13096995269091924
Cten@@ 1
GDP 1
Psychotria 1
Var@@ 0.9003472500097759
bas@@ 0.35885592266558675
say 0.9888869264738774
1870 0.7807800494273783
Cryp@@ 1
Nhi 1
rải 1
thụy 1
táo 1
Rh@@ 1
anc@@ 0.652358664959801
att@@ 0.4110182800037412
Khương 1
sôi 1
khoán 1
Sim@@ 0.7492931637439144
83 1
Pre@@ 0.4219916965615126
2.000 1
Congo 1
eti@@ 0.9002583967037422
ophyllaceae 1
cưỡng 1
hãi 1
spin@@ 1
Dal@@ 0.9865422166438502
ui 1
chòm 1
đệm 1
hãy 1
Kiểu 1
MTV 1
dám 1
2,5 1
Bourgogne 1
ngưng 1
tambon 1
ngon 1
chánh 1
thoảng 1
Hay@@ 0.937058053036829
Măng 1
giãn 1
nén 1
ria 1
Nhị 1
Hauts 1
istr@@ 1
Ái 1
Cur@@ 0.5581986092416462
Syn@@ 1
bon@@ 1
Chăm 1
Cánh 1
ãnh 1
Hom@@ 0.7431596344540936
Mand@@ 0.838758994300194
Calli@@ 1
White 0.3573964383325523
Eugène 1
nhiễu 1
sur@@ 0.21167527684403728
icidae 1
tuệ 1
26@@ 1
Eur@@ 0.9935126506971413
Rock 0.5000886506819718
hạch 1
je@@ 0.6752320406742625
87 0.9893215905058039
chua 1
91 1
ony@@ 1
ny 0.8006271179586798
quế 1
phora 1
thâm 1
ván 1
osoma 1
bol@@ 0.8470826657981206
Molophilus 1
Ngôn 1
xi 1
ros 1
tera 1
quên 1
tro 0.8771856516454327
hoạn 1
Marie 0.41177910760964337
lứa 1
onii 1
vel@@ 1
cẩn 1
cười 1
kii 1
nem@@ 1
Sav@@ 0.8258731750101632
Tho@@ 1
Young 0.5389192581148435
met@@ 0.4522883764645405
Nơi 1
Pat@@ 0.6337768269617003
chướng 1
Giáng 1
Sáu 1
abilis 1
Oc@@ 1
CN@@ 1
trộm 1
bám 1
Xiêm 1
gãy 1
ini@@ 1
pus 1
xoáy 1
93 0.9586633819266082
TH@@ 1
ika 0.7764586087102484
quãng 1
Rio 0.879884531557881
tru@@ 1
Time 0.6314169397210011
Rôma 1
Pri@@ 0.8806751335187432
vòm 1
Bat@@ 0.6356628215116599
sor@@ 0.49971275381589714
alum 1
Brown 0.4859961246604241
Tan@@ 0.8815128401570674
ain 0.3160722649309833
ates 0.15002508978028892
Chú 1
Normandie 1
Shim@@ 1
Macedonia 1
thự 1
wood 0.3210283911803283
han 0.28349909766567605
ngục 1
gii 1
Xích 1
Arthur 0.6151585824783512
Bon@@ 0.6880993612520547
Pic 1
yx 1
Ước 1
bic@@ 1
ein@@ 0.1280113901242295
esi@@ 1
Haute 1
đo@@ 1
nhũng 1
trội 1
Moore 1
lặng 1
cuộn 1
mộc 1
0.@@ 0.38823693431774065
atia 1
hàn 1
92 0.9037057433274412
Tạp 1
Liệt 1
Quế 1
khử 1
feet 0.946451427810222
dom@@ 1
oid 1
tắm 1
ray 1
Phượng 1
Dom@@ 0.5924667966299138
cola 1
cop@@ 0.9237027052975022
Ç@@ 1
Steph@@ 1
otes 1
oy@@ 0.6495170960333071
Nghi@@ 1
lộn 1
tig@@ 0.7442851586268803
Mont@@ 0.568407338343291
ele 0.615668220337215
xấp 1
Đắk 1
1893 0.8065611149643692
27@@ 1
Ple@@ 1
MiG 1
rìa 1
Diệm 1
Ra@@ 0.8596990328731057
Shi@@ 0.914684449427689
Pierre 0.35055951520269935
Kit@@ 1
17@@ 1
bil@@ 0.5750050579022797
Pomeranian 1
oba 1
Cir@@ 1
pat@@ 0.5045972095596736
khe 1
ornis 1
Costa 0.9425668530108189
Carolina 0.5024821244781842
000 0.3310119585411707
Cáp 1
Algérie 1
Nhiệm 1
rol@@ 1
Hộ 1
1859 1
fur@@ 0.9383607917226745
Panama 1
ởi 1
Sen@@ 0.6804722620687842
imb@@ 1
Sz@@ 1
nhấm 1
rùa 1
Ảnh 1
Ash@@ 0.7696201183383742
Scott 0.55478650505042
Vĩ 1
10,@@ 1
rẻ 1
pel@@ 0.538592194704881
thùng 1
Voivodeship 1
ượn 1
SE@@ 0.888923493823155
mos@@ 0.8888789829192342
ốp 1
Euro 0.8557815453675226
Miến 1
bệ 1
lí 1
pen@@ 0.4528769313603412
xo@@ 1
podium 1
Chicago 0.33677913896959033
und 0.005691668588736076
Tiệp 1
ker 0.24894030459068553
Cửa 1
tenu@@ 1
tôm 1
1882 0.9294795428599401
Gl@@ 0.6324774310482656
vo@@ 0.6753389633556938
tal@@ 0.5578940404244069
lữ 1
Chó 1
mol@@ 0.7768814152398171
97 0.985296562791108
Đã 1
ìa 1
1886 0.8660034610540709
ắng 1
ẹo 1
ừu 1
Miền 1
VII 1
Ta 1
bìa 1
miếng 1
Chức 1
May@@ 0.7083460201221402
san@@ 0.5402285885448519
AC 0.6015502776023766
Thức 1
khoang 1
Ấ@@ 1
São 1
Boston 0.4976063805320048
Nhiệt 1
củ 1
lường 1
Lanka 1
Pav@@ 1
Wilson 0.6628565446126367
NQ 1
ern@@ 0.41553064354363434
icornis 1
Julius 1
25@@ 1
giặc 1
Kav@@ 1
ngạc 1
Daniel 0.47125417081877474
Dys@@ 1
Bou@@ 0.6342632005628995
N.@@ 1
ace@@ 1
phụng 1
Chữ 1
tụng 1
ś@@ 1
Vây 1
cốc 1
res@@ 0.18665873320269508
Schltr. 1
ngột 1
Indiana 0.8761532685180634
Kenya 1
Walter 0.5664361671353061
lấn 1
1880 0.7414786682889081
Pa 1
Ach@@ 1
Ung 1
Xưởng 1
Comté 1
oga 1
play 0.14874682939806871
ốm 1
nam@@ 1
Mua 1
kem 1
buồng 1
Franche 1
ophila 1
89 0.9432934542888451
sam@@ 1
ów 1
1875 0.9541904161340834
Fl@@ 0.31861080421818455
Fri@@ 1
1888 0.8187418538051426
Sab@@ 0.7452820680148875
Sóc 1
Vit@@ 1
bổng 1
solo 0.25634777007701803
apur 1
Show 0.5854502879005945
Vai 1
All 0.16864563939593305
nho 1
Acanth@@ 1
Eupithecia 1
rh@@ 1
rủi 1
Don@@ 0.6142884732707514
flor@@ 1
ry 0.4006650927447997
Napoléon 1
oli@@ 1
1860 0.8068147539631123
Lại 1
etes 1
Live 0.6154334422660294
Chik@@ 1
plat@@ 1
Lac@@ 1
gũi 1
viền 1
vươn 1
XIX 0.6694631499428163
alus 1
Tel@@ 0.7922983701263393
Plagi@@ 1
Côn 1
Win@@ 0.6672806121802185
hái 1
thuỷ 1
National 0.08131422257248241
Fer@@ 0.5819372500936458
Kháng 1
Tam@@ 0.8433517510056376
1871 0.8301646894629117
bo 1
Night 0.7586492728540721
thổi 1
Cư 1
CN 1
Hollywood 0.8386016642506683
ire 0.3068756419666378
ẩy 1
war@@ 0.2583749205685468
Wood@@ 0.886498163225502
quật 1
AP@@ 0.8502936784465488
any@@ 0.7237276134466957
vôi 1
Dec@@ 0.5062491852260126
astr@@ 0.8780808945616103
11.@@ 1
Uganda 1
lùn 1
EP 0.5936798291248268
alm@@ 0.6810368150620218
ợn 1
Nai 1
til@@ 0.5639510515367566
Gy@@ 1
Tầm 1
đày 1
hor@@ 0.4656331793923203
29@@ 1
aba 0.1713848319728962
ổng 1
rec@@ 0.18787432858202757
ngô 1
gal@@ 0.6506813064704636
Kiệt 1
Mir@@ 0.6595966224610353
jo 0.5656049567298951
MV 1
Mẫn 1
est 0.010560265803236341
Pottiaceae 1
khoan 1
Euc@@ 1
Anne 0.6396762066013498
vin@@ 0.6517695673448992
Tranh 1
lea 1
thiền 1
28@@ 1
pur 1
lut@@ 1
ef@@ 0.40134792825022536
mia 1
dệt 1
Bos@@ 0.8459526421407003
skie 1
Sum@@ 0.8983332680456685
BBC 0.5219839261130023
Kom@@ 0.5134164033741254
Hill 0.373258685687613
Hoà 1
3.000 1
94 0.9178893830226922
ơ@@ 1
1879 0.8972078523342525
bùn 1
Cậu 1
Thác 1
Cuốn 1
Đổng 1
nát 1
Lạng 1
chặng 1
à@@ 1
Khách 1
ashi 1
Ir@@ 0.6114918402084804
Tới 1
Lasioglossum 1
thắt 1
ệnh 1
bưu 1
Li 1
ett 0.396440215547951
Gru@@ 1
apo@@ 0.5884521134852205
bel@@ 0.4218936315467805
chlor@@ 1
emon 1
dâu 1
fera 1
óa 1
Khác 1
eti 1
Rom@@ 0.5624928495185245
esti@@ 0.7187838596481908
giấc 1
Barcelona 0.6786687305955735
Group 0.24852729654010058
ếng 1
Sùng 1
coc@@ 1
Hằng 1
Cockerell 1
uz@@ 0.6686782701548537
Media 0.5492584105005328
stis 1
Rhy@@ 1
end 0.07550527203739836
ons 0.10306772179273413
zi 0.9283935079663279
ue 0.22213017373954508
Uỷ 1
electron 1
hiên 1
Miêu 1
cens 1
Nor@@ 0.4439706526971788
Broth. 1
XX 0.6780594196740243
sten@@ 1
Trì 1
hiếp 1
asia 1
bium 1
Phu 1
lê 1
Ober@@ 0.21563209118072826
Lib@@ 1
az 0.5018026623640925
Ci@@ 0.8894956414815391
bếp 1
eon@@ 1
aro 0.8354875877611883
Okinawa 1
ngòi 1
Vấn 1
Bao 1
phyl@@ 1
Nhi@@ 1
uri 1
Ker@@ 0.6255771010949226
Tre@@ 0.50113749789892
agin@@ 1
ih@@ 0.7458282959463058
Castile 1
vảy 1
aen@@ 1
nit@@ 1
Bro@@ 0.5782716365615436
Bái 1
Grammy 1
emia 1
Py@@ 1
cắn 1
ond@@ 0.6191942718574626
hiếu 1
đính 1
cáp 1
1887 0.8108272104061592
Hab@@ 0.9599246063513858
1883 0.8828407748170576
Dev@@ 0.6472725011317553
Asplenium 1
đụng 1
Cốc 1
que 0.008528406407858725
ụng 1
line@@ 1
1892 0.7353065633381837
Ren@@ 0.5519192272565048
Anna 0.5923295734887847
ghét 1
wi@@ 0.8221920383143291
Trực 1
Tám 1
Chim 1
ọa 1
giày 1
ỉa 1
1869 0.9599482669120862
Hed@@ 1
Khổng 1
bat@@ 0.4386162463835682
Tượng 1
Neph@@ 1
Airlines 1
Wi@@ 0.7598869476812404
1873 0.8947339851861595
brun@@ 1
Bức 1
rium 1
jo@@ 0.9836456411317271
1884 0.818659418701887
CLB 1
kiệm 1
bắp 1
Wang 1
him@@ 1
lấp 1
Dụ 1
Go 1
my@@ 0.8274325877615233
yia 1
Games 0.3829952774182051
han@@ 1
Perry 1
hydro 1
ảy 1
arm@@ 0.49667504802706286
Warsaw 1
nis 0.9083001551497104
nốt 1
quà 1
quy@@ 1
Blue 0.51837190062704
tràng 1
Khẩu 1
ophylla 1
N. 1
Ngựa 1
Pin@@ 0.6507740161401538
Rắn 1
INE 1
piano 0.7434311013167169
dem@@ 0.3303080840893702
chr@@ 1
kin@@ 0.9275270573507515
Thung 1
Lộ 1
fi@@ 0.33936472519080785
reg@@ 0.23876187657447318
Dem@@ 0.5752388967543701
fer 0.2832193910576443
uni@@ 0.7418687364839
yu 1
Arsenal 1
thia 1
dong 1
uyết 1
grandi@@ 1
miện 1
ở@@ 1
130 1
uyệt 1
Đàm 1
Boeing 1
‘ 0.3549095936232426
Nem@@ 1
khóc 1
Cựu 1
err@@ 0.5003397477490039
Asp@@ 1
Crypto@@ 1
hụt 1
Aph@@ 1
Triết 1
Em 1
cơm 1
Bích 1
iscus 1
Ôn 1
1866 0.7314152749271821
Khâm 1
Ngược 1
Cambridge 0.7329555673685685
Myanmar 1
vắc 1
ễm 1
Dam@@ 0.7318100782001147
inata 1
tú 1
cưỡi 1
Diệu 1
ẫy 1
Cận 1
from 0.01025525296711164
Max 0.5370297705836393
n. 1
ộp 1
buýt 1
Xây 1
Dơi 1
1864 0.8089210601993635
sey 0.6150990147935873
Bry@@ 1
Xe 1
phil@@ 1
sem@@ 0.6791785396585419
Uyên 1
kan@@ 0.6233063075008094
sắm 1
ney 0.4484642874735757
Mich@@ 1
900 1
1877 0.8646268869624887
Gil@@ 0.7189229858016677
soni 1
uke 1
Belarus 1
cành 1
nhẵn 1
tam@@ 0.9150772574003068
ington 0.45781063303166636
obr@@ 1
Christian 0.2527332484368731
Lớp 1
đắm 1
ồm 1
mb@@ 0.9826751841901926
AS 0.7065180912046588
lac@@ 1
1876 0.8259242921362288
chéo 1
cua 1
Palestine 1
Jan@@ 0.6761711408060695
1838 1
Giác 1
12.@@ 1
aux 0.04988889400679708
Heli@@ 1
Sul@@ 1
ilia 1
trùm 1
Băng 1
110 0.976299071770833
Chiêm 1
Araceae 1
lossum 1
icollis 1
1861 0.8015460441618284
Cand@@ 1
won 0.08850275764889808
bus 0.4517805348714028
O.@@ 1
Cham@@ 1
ock 0.5029099092742452
.com 0.7189681490459899
Bay@@ 0.7002672650624735
bach 0.32886161921565915
pa@@ 0.8173210434819598
cắm 1
vách 1
Hal 1
cắp 1
ron@@ 1
Massachusetts 0.5431910282441382
tẩy 1
Đêm 1
Ther@@ 0.9673809975120551
eaceae 1
py@@ 1
Thạc 1
Vel@@ 0.8523361776194056
lig@@ 0.4800998559971959
12,@@ 1
Cher@@ 1
US 0.09940109155482277
Acacia 1
Arc@@ 1
town 0.12223527241247524
v.v. 1
Model 1
Ráy 1
inger 0.35316111533015165
1867 0.8249966905286011
mil@@ 0.4816172979786757
ùm 1
chin@@ 1
nhẫn 1
Dược 1
hin@@ 0.5377659664497714
ocera 1
eon 1
ade 0.22190335488532673
luồng 1
õ@@ 1
Island 0.24512039714839207
ks 0.15589784400670711
dại 1
Life 0.32061050523160955
opa 1
stein 0.33759712650697593
11,@@ 1
Bờ 1
Championship 0.2271744979420426
UFO 1
meg@@ 1
hit 0.3899326121632618
1868 0.8404856455424213
Bay 0.3266701100196491
bos@@ 1
Dựa 1
Star@@ 0.6730716536810558
VIII 1
wal@@ 0.5556237224065839
Gly@@ 1
1881 0.7799576436278663
Nam@@ 1
Mos@@ 0.588412977136459
Lão 1
ow 0.39301896561147737
ọi 1
1874 0.8449588102114639
Chuyến 1
Mul@@ 0.6438210414566605
kr@@ 0.47443362523013016
Juan 0.27388178942322333
1863 0.8119771374947276
trọn 1
Tạ 1
Cel@@ 0.8558800954598597
Gà 1
Dầu 1
Hen@@ 0.7460911221675851
lí@@ 1
eni@@ 1
plex 1
vol@@ 0.3089489605890479
Madagascar 1
kilômét 1
lặn 1
ě@@ 1
Kos@@ 1
esta 0.15428625188336348
iculata 1
ku@@ 0.7090772799356039
Nhìn 1
Rid@@ 1
ack 0.5188404257885402
Liễu 1
Tanzania 1
thiêng 1
lus 1
gác 1
Aleyro@@ 1
MC 1
leuc@@ 1
uv@@ 0.8295430285999381
Hiển 1
neo 1
zo 0.6315754850670301
ophy@@ 1
By@@ 1
Mari@@ 0.5094253166259007
bóc 1
Begonia 1
enz@@ 0.3390292920409126
mập 1
Austr@@ 1
Lab@@ 1
Mọi 1
chn@@ 1
kiềm 1
ū 1
Lor@@ 0.7072427038802491
Thuần 1
sonii 1
Sand@@ 0.5223043300751483
els 0.16685896471344364
mồ 1
alp@@ 1
Trắng 1
Ngãi 1
Vo@@ 0.6011744819480808
tiễn 1
XIII 1
opera 0.9556923071488879
Đàn 1
Kuntze 1
Dan@@ 0.7476034102791048
bra 1
180 1
Nepal 1
gối 1
ath 0.4089570934577088
gan@@ 0.7290202203792225
ake 0.35028453268193577
palli@@ 1
Centr@@ 1
Pom@@ 1
nắng 1
Call@@ 1
ắp 1
nor@@ 0.5538865984677536
ọn 1
isia 1
Araneidae 1
Khan 0.7403887545565819
Senecio 1
Jordan 1
agri@@ 1
oku 1
ome@@ 0.9500375717972137
ủa 1
ẻ@@ 1
Marshall 1
osh@@ 1
Lit@@ 1
Pres@@ 0.4807259382524566
Nu@@ 0.8067476760823092
phiêu 1
eps 1
Pomerania 1
ins 0.11627734793616176
Kong 0.5290910599198682
lip@@ 1
Khái 1
ity 0.08848451128499611
Fo@@ 0.5881627305027013
nhiêu 1
ico 0.29599888017660614
Hal. 1
chúc 1
tour 0.21157873619340847
ero 0.24991572545081223
acul@@ 1
Ghana 1
wo 0.19186480705467862
Megachile 1
chèo 1
odendron 1
vis@@ 0.4840191334919854
phosph@@ 1
tồi 1
Cent@@ 1
Op@@ 0.47792839758516176
imus 1
1850 0.7874375228903756
Clu@@ 1
đắt 1
acc@@ 0.4521366259844808
loa 1
ú@@ 0.5664406164070427
ame 0.49257999092429344
top@@ 1
aden@@ 1
bit@@ 0.6549620480025263
Rob@@ 0.7523601529654369
Sudan 1
Samsung 1
Albania 1
Bul@@ 0.7638713137725144
Rob. 1
Hos@@ 1
Mun@@ 0.8203473868980313
nhường 1
Da 0.41337246948240225
Gro@@ 0.5266469475021506
vội 1
eck@@ 0.6053729497144964
ngài 1
Thor@@ 1
Andrena 1
Ngài 1
etus 1
Nền 1
ướng 1
form@@ 0.3464207497459572
we@@ 0.261797647155514
Dre@@ 0.7749685976021119
Ten@@ 0.897520459932901
dis 1
ớn 1
anda 0.7245481279413892
Gioan 1
hận 1
rag@@ 1
thu@@ 1
José 0.2704224920685418
khát 1
laria 1
Green 0.3853829253578987
ophorus 1
1.0@@ 1
Royal 0.17749187739815206
ui@@ 1
đu@@ 1
enes 0.8529366095092724
Had@@ 1
Vin@@ 1
udi@@ 1
Liêm 1
èze 1
gris@@ 1
Spar@@ 1
Mot@@ 0.669103421241466
The@@ 0.4906566200324736
ish 0.2584106312772575
Cụ 1
pogon 1
bầy 1
ines 0.21629252843206964
nghiện 1
Lar@@ 0.6296630986831928
Petr@@ 1
illi@@ 1
CH 1
Kênh 1
Lãng 1
Fe@@ 0.4557394664470132
1862 0.764066671303275
Yang 1
rop@@ 1
obscur@@ 1
Diện 1
Hòn 1
Ari@@ 1
Ed@@ 0.590017552794405
enc@@ 0.2618831659783094
Hassan 1
dol@@ 0.9060720418646981
Sphaer@@ 1
aci@@ 0.4930495146299532
ric@@ 1
1865 0.7493632860982687
orn@@ 1
ST@@ 0.7633385925339526
köy 1
ỏa 1
Hong 0.5249420764302645
etia 1
Tịnh 1
cre@@ 0.23085704597470186
edi@@ 0.45898091870564733
olata 1
sar@@ 0.7289857605583662
đê 1
ets 0.14616475849016625
yn 0.6735917609032211
tric@@ 1
Tuyết 1
elis 1
omum 1
ếc 1
Sti@@ 1
Rose 0.7272948389850707
Nghiệp 1
well 0.05852055961394333
quạt 1
chì 1
ju 1
xà 1
ą@@ 1
Ra 1
fan 1
Gh@@ 0.9110884180323393
Mis@@ 0.7593381545808452
Cốt 1
Niên 1
León 0.9692716563483189
Anis@@ 1
Haw@@ 0.8661074786441565
Hil@@ 0.865187300079788
Riêng 1
osperma 1
CO@@ 0.603639297828985
Davis 0.57321784490387
Yam@@ 1
PT 1
Dur@@ 0.6861567366553811
ì@@ 1
Xanth@@ 1
East 0.16694413054911422
Nom@@ 1
Romania 1
Pu@@ 0.7529623082140572
nic@@ 1
pap@@ 0.8006029263484633
101 1
13,@@ 1
Auvergne 1
F.C. 1
Sam 0.7448518264929519
Thuốc 1
100.000 1
Thelypteridaceae 1
Chris 0.5471965234033451
Doãn 1
Val 1
Š@@ 0.9048531282890664
1858 0.9826809558745646
Tết 1
osaurus 1
khuất 1
tiếc 1
ylus 1
ais 0.3870858212771617
Kaz@@ 1
idea 0.39348940503116725
raion 1
Lom@@ 1
Xê 1
1848 0.6989616722028379
Ali 0.584765660767711
ngơi 1
omys 1
trướng 1
leri 0.7112640556123421
Andrenidae 1
Tim@@ 0.7396792263797359
itis 1
nik 1
Stone 0.7182821947166375
Su 0.20210046243470642
Mi 1
lụa 1
Red@@ 0.4147995773494497
Síp 1
Meloidae 1
Hieracium 1
int@@ 0.3809985500543575
1840 0.8957966547151331
Chứng 1
Trach@@ 1
hol@@ 0.36476895373272356
xoa 1
Bru@@ 0.7824871172422287
isch@@ 0.5297754864020603
nghiệt 1
sọ 1
Bag@@ 1
Chuyển 1
Day 0.3414578420521026
hab@@ 0.5644341429046625
pula 1
SC 0.4863161421269842
ido 0.22089455601462196
agus 1
kl@@ 0.31312206871790427
I.@@ 1
omia 1
ollis 1
Litva 1
khuynh 1
unda 1
yne 1
Dryopteris 1
Ken@@ 0.8934342018473702
odon@@ 1
usia 1
khoai 1
Bac@@ 1
anica 1
bẫy 1
uốn 1
van@@ 1
Nic@@ 0.9288757528559316
hươu 1
avi@@ 0.7499830772657978
obi@@ 1
Biến 1
tể 1
naceae 1
Sony 1
mộng 1
Sid@@ 1
IX 0.9865583007182265
Lake 0.25314060792888926
Lewis 0.5943941681304884
cos@@ 0.7438151258325215
fo@@ 0.3278782765732675
ogr@@ 1
NH@@ 1
Norfolk 1
Pand@@ 1
len 0.380745226550332
ờ@@ 1
Ethiopia 1
Mach@@ 0.9422991081316515
low 0.17424926862658568
rậm 1
Puerto 0.6188642636124534
dĩ 1
inum 1
ịn 1
đằng 1
Little 0.4685684439251481
chuộng 1
tem@@ 0.7076375360933255
natri 1
Liga 0.315027798589544
hiền 1
NATO 1
phím 1
rich@@ 0.6247254868921919
ć 0.722046382714039
num 1
show 0.12693870550277678
Amp@@ 1
rụng 1
News 0.4805927044538142
Anti@@ 0.7465632353401676
GP 1
ưới 1
Pleur@@ 1
bể 1
ecium 1
Bab@@ 0.7616610446548959
enta 0.5490995825110825
lora 1
Phaolô 1
act@@ 0.7359395503128584
fu@@ 0.6329816082315929
tóm 1
Thêm 1
Gol@@ 0.5554473517037918
láng 1
Hứa 1
Vũng 1
tor 0.24223495612147966
ịu 1
alensis 1
Copel@@ 1
hom@@ 0.33417882566996554
Sas@@ 1
was 0.003524076375412836
Company 0.18857110605188154
Fiss@@ 1
kí 1
thầu 1
1857 0.9028903993156927
Wall@@ 0.8595286315390933
alan@@ 1
ck 0.5012615057730436
olejeunea 1
bin@@ 0.5770137835663104
dập 1
sấu 1
acet@@ 1
pter@@ 1
yro@@ 1
Út 1
Bri@@ 0.6450971840211001
Luer 1
tatus 1
3,5 1
Om@@ 1
chus 1
fal@@ 0.4433435482986766
Thúc 1
1830 0.8802088841245045
Trúc 1
Norman 1
ier@@ 0.3586757406813144
lei 1
ás 1
Amph@@ 1
Dy@@ 1
ẹp 1
Liban 1
Mau 1
Nes@@ 1
XII 1
nea 1
agu@@ 0.4886546477128771
Douglas 0.6996295914747012
Sydney 0.46550895264150394
Fox 0.582112151279008
trán 1
Trùng 1
Allen 0.7437818177024641
Georgia 0.454725293103258
pre@@ 0.11993967133917682
dy 0.4204119950606215
lad@@ 0.8574247510501536
Caribe 1
ya@@ 1
cyan@@ 1
roi 0.38550454543504936
anahalli 1
enti@@ 0.22987516123579807
ocephalus 1
onn@@ 0.4511367333123672
Dich@@ 1
IN@@ 0.6186853977864629
Ah@@ 0.8404607429567182
WWE 1
opogon 1
Miên 1
Aeg@@ 1
bộc 1
illo 0.5991757425018641
CS 1
Canh 1
Oregon 0.7743482309807326
lội 1
1854 0.9349112826245461
80@@ 1
emma 1
Nậm 1
Rap@@ 0.9862413648758245
cula 1
ĩnh 1
CD@@ 0.9647331060100234
Hon@@ 0.6284186010485869
eci@@ 1
gân 1
lùng 1
College 0.10787702630560056
chay 1
Epidendrum 1
kề 1
wan 0.8876432647201907
Som@@ 0.9605918453570013
oth 0.7317804954836733
Bromeliaceae 1
Franklin 0.931319261400196
Tuân 1
dig@@ 0.5586150799843629
quyến 1
Trác 1
amus 1
Alexand@@ 1
Mối 1
20.000 1
Cass@@ 1
Lap@@ 1
Tum@@ 1
ram@@ 0.6103419513222175
nhốt 1
ía 0.126257949514662
amine 1
thuôn 1
Cape 0.7408443326287992
Pir@@ 0.8243754688120066
AN@@ 0.673379758887342
chry@@ 1
.-@@ 1
1836 1
She@@ 0.7681503304991592
Apo@@ 1
mot@@ 0.38154080072960395
imp@@ 0.4083491242425181
lắm 1
xông 1
dal@@ 1
Can 1
Lyc@@ 1
Đá 1
Ludwig 0.5786235828503634
Hall 0.20426110469796885
Joe 0.4477226230810108
ky@@ 1
Boy 0.9084941414757539
margin@@ 1
thói 1
Sat@@ 0.8378472701654082
ộm 1
Bank 0.33501569523231545
Yến 1
.000 1
Rus@@ 0.5319885438149085
Kỵ 1
đành 1
chùm 1
utt@@ 1
Duyên 1
mis 0.4687162908689138
Y.@@ 1
ille 0.30631163248773385
les@@ 0.45166664530009426
wan@@ 0.7376101889068937
Miy@@ 1
Yu@@ 1
Giê@@ 1
Sức 1
eto 0.5381217096794589
Nik@@ 1
Colle@@ 1
· 0.08432106977825168
ess 0.16654379054506344
nắp 1
XIV 1
dan@@ 0.9461224948352374
RNA 1
grac@@ 1
1849 0.927211742802348
Bill 0.40630665857474074
ấ@@ 1
Ing@@ 0.6224009623471584
Kad@@ 1
Yêu 1
sương 1
Chart 1
úa 1
mép 1
nếp 1
ocy@@ 1
America 0.17786170528047007
uka 1
IS@@ 0.5435231383309413
khoác 1
ũ@@ 1
luyến 1
ươi 1
Rất 1
aku 1
trưa 1
our 0.19716863946835597
Thảo 1
mến 1
trơn 1
Azerbaijan 1
Biệt 1
Mam@@ 1
Shar@@ 0.7496484191985295
bính 1
35@@ 0.9667636521376428
Moon 1
Seine 0.2872005720427307
Fran@@ 0.692601677783934
LGBT 1
lãi 1
Lepid@@ 1
Och@@ 1
Szczecin 1
Ric@@ 1
Bangladesh 1
ier 0.2539317338821706
phidae 1
ž@@ 0.7198786107534547
log@@ 0.40875515663432094
IC@@ 0.665803766976879
Android 1
ingen 0.2355515119233111
Vài 1
tim@@ 0.3794695625284234
ater 0.6273252132175103
char@@ 0.3228601306240527
Pro 0.5643853572044047
ebr@@ 0.9991819208522938
wat@@ 0.8852632294262595
1841 1
Ching 1
ance 0.10650477617183839
vis 1
app@@ 0.4877227727562824
bái 1
mari@@ 0.7641201145535951
1872 0.7211221344587766
Acro@@ 1
ướp 1
Ny@@ 1
bro@@ 0.4662853206765936
une 0.0128478068846005
Dubai 1
ois 0.6927527974599857
f. 1
It@@ 1
ớp 1
CM 1
nhắn 1
p. 1
Carlos 0.3427879307568173
dọn 1
mir@@ 0.5645731833448163
ceph@@ 1
14,@@ 1
1851 0.9430169772990079
hydro@@ 0.8211723950467258
Melan@@ 1
heter@@ 1
Henri 0.531831843937148
rung 1
aeus 1
ij@@ 1
stri@@ 0.7896708807512052
Lan@@ 0.7013728785360352
kon@@ 0.29938123265122923
Linux 1
ken@@ 0.4052881122357838
PlayStation 1
Bengal 1
v.@@ 1
Cin@@ 0.8583586371490365
Sag@@ 1
Arch@@ 0.7490898358586817
ill 0.279103010723098
ẹ 1
Baltic 1
ech 0.741058231253949
eton 0.8457212147558836
oxide 1
Pradesh 1
Facebook 1
Rac@@ 1
mus 1
Pon@@ 0.6720565402081711
out 0.042547529819807015
yon 1
assi@@ 0.8996102931139898
zon@@ 1
Jersey 0.43024167281310577
kẽ 1
pora 1
Kẻ 1
1846 1
Hex@@ 1
pau@@ 1
Stand@@ 1
ff 0.3950325284574302
ứu 1
Leg@@ 0.5698762034844023
gran@@ 0.8550249709339598
kal@@ 0.49258652160849364
160 1
eros 0.43495132658934543
Will@@ 1
nung 0.804793597907491
pho 1
Chil@@ 0.7975213847663205
has@@ 0.7530223224168777
Ann@@ 0.6004669916019846
Corporation 0.43167547692954106
Cyclo@@ 1
iga 0.9660614124469744
50@@ 0.8133282514375503
Br. 1
Vu 1
agi 1
Hop@@ 1
ras@@ 0.618980941951064
Street 0.15057828605633367
dera 1
Queen 0.3560582281110016
pulch@@ 1
Iceland 1
iner@@ 1
phen@@ 1
ariidae 1
140 1
1753 1
c. 1
amm@@ 0.6716750178809686
jin 1
úi 1
Adam 0.559908720800558
Francis 0.47935964081272736
nha 1
yna 1
Bàng 1
Rica 1
thor@@ 0.9323018300413682
ythro@@ 1
Air@@ 0.6878497209151115
British 0.08786782699258892
amin@@ 1
ett@@ 0.44281252819587713
ku 1
Gel@@ 0.6045367549516516
MS 0.6085956482058197
Sk@@ 0.38560841730474954
ken 0.14577664465715906
Gom@@ 1
isi 0.7233860069261405
nai 1
11@@ 0.9948007850897436
aensis 1
aqu@@ 0.423523389450749
Fair@@ 0.8092752903278687
dev@@ 0.39274161135236413
Araneus 1
BT 1
lov@@ 1
Bec@@ 1
Im@@ 0.27716993113742844
Maj@@ 0.6380829837790913
abis 1
Loph@@ 1
Anderson 0.671378507801306
Mike 0.4692518991169774
ades 0.2635139844652013
opteryx 1
Scopula 1
athea 1
ulosa 1
anot@@ 1
leu@@ 1
ặp 1
1844 1
Dendrobium 1
aff@@ 0.3226046598249229
charis 1
radio 0.20179710886283866
onis 1
ovo 1
sea 0.25672895941145557
entr@@ 0.25301874005510844
ispa 1
Jan 0.6376015528250893
kor@@ 0.5840849277385837
uh@@ 0.9046697366611006
Sir@@ 1
Ven@@ 0.6702770081793177
eniaceae 1
sum@@ 0.3514339232610164
angusti@@ 1
Andrew 0.4952720549783218
Marne 1
sum 1
Swift 1
40@@ 0.8469062882522785
AT@@ 0.5949309856480811
Team 0.22608930644322314
rãnh 1
Vir@@ 0.7613691524174534
Arecaceae 1
Ga@@ 0.808748766305903
pot@@ 0.397092519628897
Piper 1
orr@@ 1
phot@@ 0.7212390842888188
fic@@ 0.6471119035908643
gán 1
vu 1
15,@@ 1
Philip 0.7059003186972013
hel@@ 0.6422242148177029
Best 0.2356656315632466
macul@@ 1
our@@ 0.3975055051390431
1853 0.927930537973512
SA 0.5322208491017278
pi 1
simil@@ 1
1845 0.9796242677076675
Mec@@ 1
ı@@ 1
350 0.9852476087561618
Ok@@ 0.8548322838894367
St 0.2139039095986473
inensis 1
multi@@ 0.5991805228142116
codice 0.9443020453622137
ecta 1
Pedro 0.44486088939746843
onium 1
chilus 1
Kum@@ 1
Open 0.29270482085940314
oli 0.8177220915216056
sei 0.31046038002044846
yan 0.5529567038375781
oti@@ 1
ữa 1
Elap@@ 1
County 0.07414457827943252
ướ@@ 1
ợt 1
chai 1
pis 1
Merr@@ 1
d. 1
00@@ 0.7352804577652905
astrum 1
Antonio 0.32482843087423474
je 0.22357825115983374
Sachsen 0.9546698567972776
ýt 1
ỏ@@ 1
Bot@@ 0.47967750268256193
ostoma 1
Kon 1
Ki 1
Kus@@ 1
Alaska 1
Ere@@ 1
ych@@ 1
ö@@ 0.2379009622924616
Otto 0.5366949648195605
aus 0.02648591839563602
Grande 0.4640343609890874
Slam 1
frons 1
Kn@@ 0.41368378142369105
Arist@@ 1
idus 1
13.@@ 1
single 0.09412677834530651
School 0.0687333247063087
icata 1
arr@@ 0.26665862523835704
gracilis 1
hem@@ 1
Lawrence 0.784547080620176
Sun 0.47810815248349625
dan 0.3261186467186813
Croton 1
rit@@ 0.6266013929793822
Lenin 1
oridae 1
pseudo@@ 1
Fun@@ 1
V.@@ 1
XI 0.9698661987890379
nang 1
olo 0.7807394076714521
4.000 1
Bes@@ 0.7085764558311466
õi 1
ựa 1
ATP 1
MA 0.6512671415361581
Philadelphia 0.5162256981518968
aem@@ 1
jeun@@ 1
kur 1
Paulo 0.9617697248966384
Lycosidae 1
NS@@ 1
ple@@ 0.3447014305123863
ulaceae 1
Dendro@@ 1
Hypo@@ 1
Studios 0.6537687276066856
als 0.013378430417535447
equ@@ 0.40850986267887285
estes 1
kov@@ 1
Frederick 0.7171062685998975
Lav@@ 0.9116850340990493
Oli@@ 1
endron 1
Cyc@@ 1
enus 1
vul@@ 1
ưở@@ 1
ử@@ 1
Uruguay 0.9499787878401326
dus 1
owski 0.9889892366182498
trium 1
AT 0.8183127237249395
Dun@@ 0.5268027213104548
nan@@ 1
Gon@@ 1
ec 1
Ố@@ 1
Kl@@ 0.4736848549757906
Adams 0.8178005268138283
anthera 1
Ō@@ 1
cata 1
Great 0.23443005518444984
lid@@ 1
ầng 1
Bolivia 1
albi@@ 1
Hamilton 0.5863361064235229
yer@@ 1
ion@@ 0.8467015949214354
dea 1
ord@@ 0.31723336717636785
ský 1
UN@@ 0.5434417496892726
ogen 0.7370508861306437
37@@ 1
Reg@@ 0.21493468622801704
Lang@@ 0.3741725971787216
105 1
itz@@ 0.4314465854873054
ươ@@ 1
dius 1
omi@@ 1
Theri@@ 1
tol@@ 1
Girls 0.8693925505538149
Kin@@ 0.5490851359836513
rup@@ 1
ré@@ 0.11078969853383051
Aul@@ 1
tos@@ 1
Ukraine 0.5130450080137873
bergia 1
sch 0.37514955952091106
SA@@ 0.6479124693307242
Stephen 0.5246749007570678
aud@@ 0.6862463719496803
Rico 0.839075533562718
iger 0.3414505372129801
16,@@ 1
Kil@@ 0.500818085240219
enko 1
DD 1
Ye@@ 1
lı 1
ưỡi 1
Pent@@ 1
Si 0.41313113410308777
Galaxy 1
ein 0.017399603909246712
Tec@@ 1
Ze@@ 0.5087180504372523
proc@@ 1
Mk 1
aculata 1
É@@ 0.2123562695003519
ùy 1
Wimbledon 1
Mang@@ 0.9735932922072582
Pet@@ 0.7780024829119434
ges@@ 0.23282905383318833
idens 1
Inter@@ 0.19075440882538758
gel@@ 0.19231922539049343
òn 1
Mordellidae 1
Theridiidae 1
folius 1
US@@ 0.46202021731321435
esh@@ 0.6704821707976204
Kazakhstan 1
centr@@ 0.4108024453049061
Ore@@ 1
ịa 1
Coel@@ 1
ino@@ 1
art 0.1003661033260082
fasciata 1
Queensland 0.6385855278098607
icolor 1
Grac@@ 1
Pokémon 1
pid@@ 1
Rome 0.3501126289387314
achi 1
roc@@ 1
XVI 0.7667063637246352
bius 1
dosa 1
Centre 0.28097952823394207
Hat@@ 0.8700237902042858
Vill@@ 0.5725711310439249
ats@@ 0.6690881607240765
prop@@ 0.4687063398864004
360 1
incta 1
port 0.20263430549289344
sin 0.1604516124001108
amar@@ 1
enberg 0.44428375624560146
ew@@ 0.35370239778296575
DS 0.7883745519253348
enzyme 1
ński 1
pros@@ 1
bar 0.2207399882735593
Côte 1
Dragon 1
Fal@@ 0.55671250119472
pur@@ 0.28704039902162115
gy@@ 1
sty@@ 1
Marx 1
elegans 1
Spr@@ 0.8187849801946263
Aur@@ 0.7974557054308873
taria 1
ix@@ 1
owo 1
Â@@ 1
Plec@@ 1
ack@@ 0.3978788843004435
lu 0.9034763458244628
Raj@@ 0.6154551990525613
eno 0.69010241456852
Gymn@@ 1
Cerat@@ 1
illus 1
ons@@ 0.3177278596321595
ç@@ 0.38221280289025855
AR@@ 0.4895315935392058
Fin@@ 0.4454042439006399
Vladimir 1
Tem@@ 0.9913684004049947
hao 1
Ot@@ 0.667851847183377
ote 0.2850509046662521
hiza 1
set 0.09514441547406556
hat@@ 0.7476309123643078
Rem@@ 0.4675516253573764
AM 0.5860477781119843
itus 1
v. 0.45905528320062544
Hid@@ 1
quin@@ 1
SP@@ 0.5885520163706841
elli@@ 1
House 0.11273171910846862
Libya 1
Osaka 1
NO@@ 0.7820942218015835
Rick 1
anna 0.8217750278571898
Fi@@ 0.47153802225669456
thon 1
Bob 0.45579857153671094
Newton 1
Super@@ 0.3236672695464765
rho@@ 1
Kot@@ 1
1856 0.7520075095717861
Mississippi 0.7198177108429307
Pur@@ 0.5013494316402046
36@@ 1
Papua 1
esch@@ 0.5952584624290159
inea 1
Eugenia 1
ji@@ 1
Ben 0.4824002014255866
Schmidt 1
ris 1
Bad@@ 0.5430624450663634
Syzygium 1
ellata 1
oceph@@ 1
PS 0.4821282079716399
ez 0.3665083341856366
azi@@ 1
phon 1
Bet@@ 0.7358824233548509
Xen@@ 1
niti@@ 1
Union 0.11899585534402732
cher 0.23354408165478308
Les 0.03944121951005852
heim 0.34324947523757887
dar@@ 0.4798849070801185
uss@@ 0.47513951411387256
cú@@ 1
Pul@@ 0.7456433322662713
asi 0.9996924737160955
14.@@ 1
Tal@@ 0.4105018530968996
land@@ 0.2564919211115656
ấc 1
Cot@@ 0.8198885257700675
Kim@@ 1
euro 1
Cantharidae 1
Pfalz 1
Plan@@ 0.4997545842173168
Got@@ 0.93154874783854
Sung 1
amer@@ 1
Tre 1
kaz 1
Muhammad 0.928859550593752
Schl@@ 0.7187432843263385
amensis 1
k. 1
kat@@ 0.6225961916928459
purpur@@ 1
uchi 1
dre@@ 0.343864633806102
Sau@@ 0.7170691551802756
ron 1
vu@@ 1
ø@@ 0.47663229829906567
17,@@ 1
Buc@@ 0.7625844056516634
Creek 0.35097752493671913
General 0.10324555246007384
Rho@@ 1
quadr@@ 1
Slovenia 1
ega 0.9907736643635896
ident@@ 1
Amaryl@@ 1
Bad 0.4869880249817858
AFC 1
Girl 0.8132079655836544
hoe 1
mod@@ 0.3929029263015768
olep@@ 1
AC@@ 0.5490229617498517
po 0.8383708066162238
Lag@@ 0.6995076035899748
Gregory 1
iensis 1
Alfred 0.5018331224862944
Rich@@ 0.8860884366425471
Has@@ 0.750077765399723
Bangkok 1
omatidae 1
Ẩ@@ 1
Roger 0.5346003019299881
che@@ 0.4977656226491744
mis@@ 0.19779290255548165
rac@@ 0.3774073514242048
Solomon 1
mus@@ 0.35388066196529533
khan 1
Malta 1
On 0.030879977799889942
Rol@@ 0.8249469258798734
luc@@ 1
cic@@ 1
xy@@ 1
Series 0.2977609387902111
Bus@@ 0.44063709740515083
Jamaica 1
icia 1
Thomisidae 1
aurea 1
yra 1
Abr@@ 0.9789292007817233
Phy@@ 1
arch@@ 0.29933401538944343
website 0.5040366913190399
hii 1
nov@@ 1
phon@@ 0.8962194047970865
ún 1
mur@@ 0.5526401083513324
asis 1
6.000 1
ais@@ 0.375584097356389
los 0.00991414918008708
Yak@@ 1
Cav@@ 0.826562203325048
Port 0.41740480345831865
SM 1
ben@@ 0.40479778038735864
Bud@@ 0.9866995361996018
alidae 1
mg 1
ska 0.981228320046608
mini 1
Dinh 1
Wikipedia 1
200@@ 0.930759321002586
Bak@@ 0.630475645025203
dam@@ 0.6297949185942211
ingi@@ 1
lit@@ 0.44589158454555816
teri 1
Lady 0.44282323355374065
min 0.5891544554682417
1847 0.8565717401911057
Astr@@ 0.9071030876001572
gly@@ 1
ẹn 1
Prim@@ 0.6879167119647386
cay 1
Max@@ 1
EU 0.6731147479228639
Vas@@ 0.776824392283773
oll@@ 0.5098487348745043
Sultan 0.9807487028947297
som@@ 0.4976815548022289
Catherine 0.7524433788038578
Est@@ 0.29467979501376335
Ele@@ 1
Ś@@ 1
Alice 0.7336339439102421
Donald 0.6919239792876088
net 0.3266242509182169
Cour@@ 0.4493390094507353
Ford 0.4442165052007228
ocarpa 1
Asteraceae 1
Cuc@@ 1
HIV 1
wil@@ 0.8921285828514672
bicolor 1
Chen 1
issa 1
ster 0.2174366845103463
Pad@@ 0.7482881263208591
sep@@ 1
Center 0.17110056113135177
Zo@@ 0.8583413403114727
bis@@ 1
iceps 1
Steve 0.44155006160994226
hat 0.08090305313633865
ver 0.2464297486043395
xia 1
Tol@@ 0.6897848307698312
lii 1
Din@@ 0.678391959605529
kali 1
Chel@@ 1
1,2 1
Radio 0.2283743705919302
ence 0.12383053750555156
uro 0.8705464969946106
Clark 0.6114846177117534
nigric@@ 1
ulum 1
pent@@ 1
Jung 1
18@@ 0.8093789373140557
Harvard 0.6222256754617914
Margaret 0.677507263805873
acantha 1
alt@@ 0.2955983801661629
Yo@@ 0.9549263542479389
ju@@ 0.41268998633112497
section 0.19048370449826263
1837 0.9036458944245079
eki 1
oko 1
CA@@ 0.4595782010976983
Herbert 0.755515406358271
Inc. 0.5749996363231326
andi@@ 1
gas@@ 0.7705640709403648
Hang 1
uni 0.9950031924580639
Bis@@ 0.9484314468239594
Brit@@ 1
aha 1
CBS 0.8032006144722528
Leu@@ 1
esp@@ 0.3249253642872102
lio 1
nat@@ 0.7796730986184173
1833 0.9975450133283966
Sir 0.25753597837607545
Cameroon 1
tz 0.7626564013455762
Shir@@ 1
zh@@ 1
Dod@@ 1
Ich@@ 1
ace 0.300664783156296
perus 1
1842 0.9079090304839447
Alabama 0.6497041916825596
Jerusalem 0.8886432692915955
Yemen 1
Gau@@ 0.5356772151179622
Howard 0.5421207957078562
aena 1
mati@@ 0.8446877362490837
oscel@@ 1
ũi 1
AD@@ 0.5851577061221441
Sicilia 1
Gn@@ 1
way 0.0748132117163491
Ball@@ 0.5046077701960967
IS 0.7972012786699401
rier 0.7513712611499126
45@@ 1
ỳnh 1
Alexandria 1
Schleswig 1
Sun@@ 0.65972373210607
TS 1
Whit@@ 0.4626420329572701
Estonia 1
Gun@@ 0.7736319830727607
Xi@@ 0.9998170177959657
evich 1
Bell@@ 0.7304785899074167
pec@@ 1
pus@@ 1
tiv@@ 0.4370271596402765
vo 0.4724935626814627
Dolich@@ 1
Gul@@ 1
Ivan 1
aro@@ 0.9607262711245947
oder@@ 1
ỏng 1
125 0.8622253061462007
gay 1
Chaet@@ 1
Qatar 1
tt@@ 1
Ferdinand 0.6945712528426038
Praha 1
Yas@@ 1
zii 1
opl@@ 1
Europa 0.25705723811602377
ifera 1
Hang@@ 1
igu@@ 0.6378021875258015
Maroc 1
GS 1
ash 0.431715729593301
Tang 1
entris 1
Rheinland 1
Sierra 0.7020983442335098
Your 0.6756313058970855
court 0.16296224101520954
Villa 0.49547545153059425
ẽ 1
Gang@@ 1
Oxford 0.41680195356472
1824 1
Tortric@@ 1
oro 0.41214414404647104
urai 1
Black@@ 0.6647221071193683
psych@@ 0.5142326579160728
Asia 0.3194954257179563
Ju@@ 0.45843409028532967
mo 0.471800780298845
Bell 0.6046584537438033
Ray 0.5994248988122397
ept@@ 1
hip@@ 1
oy 0.6983733881148814
Long@@ 0.5980015145673147
philus 1
obus 1
Sm@@ 0.8717215951722297
TT@@ 1
Cab@@ 0.6112183370758735
Lig@@ 0.6153370236684702
Fle@@ 0.7503087735729222
Mill@@ 0.7473089210193727
Odon@@ 1
trans@@ 0.12718615967332508
one@@ 1
Vil@@ 0.5584311325140284
color 0.2485411573476423
internet 0.9221340385892605
1852 0.766942467760746
33@@ 0.981966255771924
athus 1
lem@@ 0.6096652426239225
meth@@ 1
ời 1
Set@@ 1
ellia 1
Borneo 1
Schw@@ 0.4083662307852615
iss 0.8237529943434636
ope 0.7765769553291294
via 0.1804303805086695
oensis 1
old 0.09216418691520263
usi@@ 0.6447419131111933
culus 1
vitamin 1
Miller 0.5106753214239208
Nep@@ 1
nghi@@ 1
大@@ 0.10694858790313541
Hook 1
elong@@ 1
ọp 1
z. 0.37389018119871503
chloride 1
ns 0.268751447835384
1843 0.9163360216131041
aru 1
gol@@ 0.6669071384591961
mul@@ 0.5925912989452382
1839 0.8975101784044085
osidae 1
0,5 1
arum 1
cz@@ 1
Shu@@ 1
Alex 0.6203943931421495
River 0.09620407775887861
amoto 1
sun@@ 0.5574702979674719
Amazon 1
Clinton 0.9537656847684253
Napoli 1
UK 0.17918546513477762
line 0.07271336539824165
opy@@ 1
ye@@ 0.5354477188950508
Aer@@ 0.9214512124902253
HD 0.7984538564566778
Tamil 0.8099328470422615
op 0.39316562940618155
Socorro 1
NASA 1
No 0.18923980667519882
Lov@@ 0.6855319413009727
Macro@@ 1
Nec@@ 1
bert 0.37288836451387447
brevi@@ 1
inf@@ 0.21189796823070803
Dao 1
Lis@@ 1
row 0.3222756178656638
wer@@ 0.2534774853364068
more 0.031554346294145386
parvi@@ 1
University 0.037643215418973475
15.@@ 1
ban@@ 0.29518727057170907
Tunisia 1
dy@@ 0.8468863245398802
sta@@ 1
ado 0.03796694011724109
Grant 0.7054209550070758
Kry@@ 1
yak@@ 1
ail@@ 0.37028347866714956
lop@@ 1
1832 0.9006133372902563
we 0.1559788151027647
Kag@@ 1
Pti@@ 1
Anime 1
Jar@@ 0.5912428725071859
New@@ 0.5022943299000058
16.@@ 1
Ali@@ 0.6132340876586306
Torino 1
pia 1
inter@@ 0.07397668027275932
108 1
Walker 0.6749229007298969
din 0.8000250089486516
Up 0.5830365118987583
up 0.0323292569304535
igh@@ 0.38399952836523144
Champion 0.8355442885685751
Af@@ 0.773216289957702
Victor 0.5119911199235594
xanth@@ 1
Colorado 0.48903727394358154
dai 1
Bog@@ 0.6936285425024338
onica 1
Rub@@ 1
Bir@@ 0.3907720608396324
Quercus 1
Sci@@ 1
Hyper@@ 1
Arizona 0.48755229196686556
imi@@ 1
Sax@@ 1
Channel 0.5131154215879857
etti 0.3754283832708338
olim@@ 1
but@@ 0.5210848967782006
ory 0.20598148835480595
Eric 0.5640143258583694
ỉ@@ 1
acia 1
logic 1
neg@@ 0.4293263707364173
Kennedy 0.6648825837689916
enburg 0.5066379376442136
Ader@@ 1
Cactaceae 1
ith@@ 0.9510497658195848
ste@@ 0.1693547590380082
王 0.5100231922727521
Mordell@@ 1
Thelypter@@ 1
istena 1
èm 1
Ophi@@ 1
anz@@ 0.27544239403068094
sko 1
Hum@@ 0.5622095973166042
ý@@ 1
Babylon 1
Watson 1
RA@@ 0.4791951370703245
hog@@ 1
ider@@ 0.8060862456507977
Baden 0.6332752335477839
brach@@ 1
omorpha 1
1834 0.9008897803543867
cost@@ 0.7538941248270015
Hog@@ 1
thes 1
Eng@@ 0.5417750870131963
allia 1
Clarke 1
pyr@@ 1
Vor@@ 0.10895685318676913
eron 0.3383850216721388
CC@@ 0.6771723257205261
sec@@ 0.27863332705532395
Alan 0.5793563417060348
Lô 1
Scar@@ 0.8683848526444252
Č@@ 0.8796379200075115
1827 1
Bau@@ 0.16712393017337837
aine 0.35769474962477554
any 0.07481719466784001
ishi 1
robus@@ 1
sz@@ 1
inidae 1
ulatus 1
ruf@@ 1
38@@ 0.9966165723184577
ylis 1
Med@@ 0.5605624302521809
Spil@@ 1
ợi 1
Angola 1
ık 1
Chal@@ 0.985191395763258
Guam 1
eva 0.7910875106386664
Brian 0.49666943156583426
Constant@@ 1
tenus 1
Final 0.374809988390199
Tin@@ 1
dale 0.5521159940093024
omus 1
1855 0.6871852646610779
Au@@ 0.3904571385442726
Twitter 1
otar@@ 1
Kab@@ 0.715562182374901
Phi@@ 1
oda 1
Houston 0.5509197356642886
gig@@ 1
Vis@@ 0.5122523325444112
ag 0.5216229020380077
emb@@ 0.22765338895091927
220 1
Studio 0.6082473995049735
aster 0.9193241266134129
orph@@ 1
18,@@ 1
Glen@@ 1
Yos@@ 1
Son@@ 0.5647338325694754
air@@ 0.1964250094986944
Allium 1
Uy@@ 1
60@@ 0.9005733562311561
All@@ 0.4326016883372096
Ast@@ 0.9530915525182594
Vic@@ 0.593011062073227
amia 1
issima 1
assa 1
lb 1
liv@@ 0.6206522271951747
pet@@ 1
tà 1
Mitt@@ 1
side 0.07772280295319843
flu@@ 0.545009820873123
yla 1
Alo@@ 1
Manila 1
oka 1
Tony 0.443557284987377
eck 0.32580609585226444
High 0.11860499850858532
ej@@ 0.5559444181803919
Sumatra 1
West@@ 0.22020078605856033
Fir@@ 0.7999073801350416
Kraków 1
Coen@@ 1
Gir@@ 0.5594985567601419
Ji@@ 0.9787782687400095
Land@@ 0.1554558236919192
acty@@ 1
ovsky 1
tula 1
Franz 0.3823884031147572
Hun@@ 0.6358129534764244
Lec@@ 1
aulis 1
issus 1
Pach@@ 1
Tok@@ 1
elii 1
Hand@@ 0.37138473386523274
Lat@@ 0.45581778832753017
mannii 1
Jane 0.609242658710785
ei@@ 0.9245913490592398
First 0.15221360032941603
ciner@@ 1
Tir@@ 0.8347886929111754
ka@@ 1
39@@ 1
Pictures 0.8518060385382461
atin 1
gin@@ 1
Zimbabwe 1
otom@@ 1
pan 1
Ix@@ 1
Ax@@ 1
Byzantine 1
Somme 1
ison 0.4222535922973553
Salvia 1
anidae 1
eau 0.1635622885298716
Champ@@ 1
able 0.042533697449139096
Wa@@ 0.5106526452989346
Ú@@ 1
Nan@@ 0.8986834508050521
Phan@@ 1
Mog@@ 1
anta 0.6584137187353536
Coc@@ 1
dur@@ 0.42453606865439975
Bruce 0.6317914096907045
Holstein 1
Bush 0.7991182569185467
Is 0.4517175046253872
Kiev 1
Lev@@ 0.584569096917306
CIA 1
Xbox 1
pra@@ 1
PA 0.5282888397360697
inosa 1
Bit@@ 0.882985787636684
Bangalore 1
34@@ 0.9438612303960654
Cho@@ 1
Esp@@ 0.46174569503681917
apura 1
109 1
Two 0.21454317075245447
ovi@@ 1
fa 0.7897596467504453
omi 1
Ig@@ 0.8202211103260113
Am 0.080313834959224
Beatles 1
oniaceae 1
rel@@ 0.17125009869878757
450 1
God@@ 0.6080418935357675
Guatemala 0.9414968306621204
Ish@@ 1
minor 0.38239531816027456
nar@@ 0.6485746956396033
apic@@ 1
{ 0.399186734517862
Provence 1
sima 1
Chang 1
Yen@@ 1
ngu@@ 1
Chim@@ 1
aceus 1
this 0.020115166698367246
obius 1
Bang@@ 1
amba 1
leria 1
rig@@ 0.5131974882654685
102 1
Vietnam 0.4523468002637993
Fel@@ 0.47899559476966413
Moh@@ 0.619816252887749
chen@@ 0.4053584684820594
Beach 0.4095392002696282
Yosh@@ 1
CA 0.5274509696224179
IP 0.6906149501465718
1800 0.6380774796734066
auda 1
Gur@@ 0.7895107861622328
Rhin@@ 1
atsu 1
17.@@ 1
alc@@ 1
Caesar 1
Conn@@ 0.6053117555648916
alli@@ 0.4978067873590613
atis 1
Palomar 1
Pass@@ 0.6753390671624709
set@@ 1
hen@@ 1
ode 0.5425157824908179
1825 0.9346166493345678
Leyte 1
Toronto 0.34218077819375514
eman 0.43599533995879974
pos 0.8678249806699213
ère 0.13623686590085876
NA 0.7531605740588518
Rat@@ 0.6760284161872456
Brunei 1
Harrison 0.8225947325499459
acr@@ 1
teri@@ 1
Madonna 1
asci@@ 1
1831 0.8726896022095648
Gali@@ 1
Kis@@ 1
bec@@ 1
DP 0.8037610142480316
Dance 0.6470774239686818
Epi@@ 1
elius 1
opoda 1
Abu 0.9102854138320583
Gris@@ 1
eza 0.8809127018675073
Dus@@ 1
dán 1
òm 1
70@@ 0.9573414434024808
Bow@@ 0.5511131995911737
We 0.30093531310017096
Fur@@ 0.7788759739950093
Japan 0.1438306117451083
Jung@@ 0.9052539114584786
München 0.3780204369346174
eh 0.5871119659388557
Co 0.38641428549282303
Sap@@ 1
esii 1
Erica 1
Il 0.022303980213840877
Maine 0.6718233923988295
Will 0.7068782887798069
gn@@ 0.8769894718360111
ouv@@ 0.9368776712399313
AR 0.7774013027669578
Jun@@ 0.9455605867703627
Network 0.42842469335795036
fil@@ 0.3076837552756328
glau@@ 1
AI@@ 0.5951457841189226
Iso@@ 1
Point 0.4174640776070338
Tab@@ 0.5063549381504321
chum 1
Sed@@ 1
AM@@ 0.5426143470952846
ES@@ 0.46211867704307225
Moselle 1
Siberia 1
25,@@ 1
Jefferson 0.9790924365245853
plan@@ 0.2555822759219003
Alt@@ 0.4634293581131451
Tat@@ 0.7961912886273852
Pop@@ 0.6402588191981492
19,@@ 1
CE@@ 0.47751596970747595
Cheil@@ 1
Ni 1
Tim 0.6673866225328415
beta 1
insky 1
nes 0.3102001212651693
pub@@ 1
tari@@ 0.7048014254704664
Gaga 1
àu 1
Pedi@@ 1
Wit@@ 0.5741066760398196
ellidae 1
ks@@ 0.34416284968595495
Old 0.2631503225491461
Sis@@ 1
24,@@ 1
Fro@@ 0.7959345232334646
igo 0.9752247314618899
170 1
adr@@ 0.7756695446779516
AP 0.5728634570276644
Van@@ 0.8423198125095661
Bran@@ 0.5937856443287203
This 0.03145611148698036
feld 0.29222165455837734
gram@@ 1
lar 0.23650041053074225
Syr@@ 1
ander 0.8306755734988488
test@@ 0.740470373601148
Chir@@ 1
Dj@@ 1
japon@@ 1
ò@@ 1
Bun@@ 0.84128570494026
Clem@@ 1
UTC 1
Bid@@ 1
chol@@ 1
lon@@ 1
Ficus 1
s. 0.7896531365496758
auc@@ 0.9177933554009899
kan 0.6121633068743982
ako 1
Moscow 0.5507011498005392
SS@@ 0.6685963634107828
die 0.00358187352546161
wa@@ 0.45311685914347705
María 0.282671417995774
Mozambique 1
eský 1
Roc@@ 0.5768081303918475
enth 1
ż@@ 1
Fu@@ 0.5787251024311207
ics 0.14998242677176893
ocentr@@ 1
3000 0.7002738408466844
47@@ 1
Vatican 1
22@@ 0.858960998655375
ée 0.03677491836980733
opis 1
Bed@@ 0.756985561081214
Valley 0.2487962403120948
ayi 1
dro@@ 0.35564803055635197
hynchus 1
Île 1
Jong 1
XV 0.6362651808654778
Turner 0.8102746902982408
omy@@ 1
CT 1
Sym@@ 1
Wayne 0.7763518580699089
Hamp@@ 1
eca 0.8111997850506673
AL@@ 0.5367925463643352
brac@@ 1
Junior 0.4035531136575012
Liv@@ 0.8151402296531653
neutron 1
Lasi@@ 1
quar@@ 0.780720613798307
Athens 1
Ji 1
lossa 1
ped@@ 0.4614818900947193
tía 1
Pop 0.7729135612698889
hydr@@ 0.7817254359578876
Ped@@ 1
Vy@@ 1
arium 0.9753358308486555
1828 0.9052543677038573
Trig@@ 1
wo@@ 0.310300384540972
ạy 1
104 1
Heinrich 0.3036183726769162
Kyoto 1
rapper 1
oo 0.7155962403260074
opti@@ 1
worth 0.307003224117098
ùn 1
Spe@@ 0.44198595765428383
ariensis 1
Mug@@ 1
α 0.442847746546615
Semi@@ 1
Russell 0.6097247239632726
otica 1
Arn@@ 0.8544835358415247
Johann 0.23319404992766285
nica 1
LV 1
Şanlıurfa 1
Gran@@ 0.4561477253815926
Rau 1
Anthony 0.47920192451967086
Quay 1
4,5 1
48@@ 1
Bretagne 0.7546135561384771
Mey@@ 1
ifolium 1
May 0.05254915041823701
Nyc@@ 1
Schum@@ 1
ister@@ 0.6515971087562561
Rhap@@ 1
aster@@ 0.7900450853259187
opes 1
ospermum 1
Digital 0.7102619596463279
Thy@@ 1
amino 1
angay 1
ili 0.5979212877784212
robot 1
Miss 0.4085909017149933
alg@@ 0.3738023504716157
isp@@ 1
lé@@ 0.7402251050625118
Mario 0.5995498912049905
aa 0.8630028069842818
Beau@@ 0.7449115783264865
Crass@@ 1
Tag@@ 0.720234770062475
Thai 1
ert 0.11918842310540581
tea 1
tw@@ 0.20114428576601495
Prince 0.2640864703963725
spi@@ 1
Tsu@@ 1
bri@@ 0.6629442157333171
ise 0.08004495298911028
ắk 1
Jam@@ 0.7156984606932182
1835 0.7630716279433151
Dro@@ 0.5831362757280041
Luxembourg 1
Greene 1
esa 0.222095943341662
mand@@ 0.3141653621768493
30.000 1
Lob@@ 1
Wak@@ 1
otro@@ 1
species 0.07831587365096707
Jr 0.4297838429618278
alaria 1
chan@@ 0.8794542518148668
ướm 1
quad@@ 1
Gym@@ 1
LA 0.5265636893985137
Munich 0.7758127125373746
Gag@@ 1
odactylus 1
prot@@ 0.21176464883736018
ựng 1
Be 0.73335910448707
C1 1
gensis 1
20,@@ 1
Blume 1
ogn@@ 1
François 0.2798341436405031
Wu 1
estris 1
ith 0.47778206496690767
26,@@ 1
Shin 1
ep 0.534397701800127
istis 1
pon@@ 0.3511586971286486
Award 0.12119153077776837
Barn@@ 0.9828553638980909
Potter 1
ret@@ 0.24740066368144165
vus 1
But@@ 0.5832347077663232
Leningrad 1
Neg@@ 0.8118843467658176
Koch 1
idi 0.8484390005115462
ina@@ 1
kam@@ 0.8364670727908734
Next 1
neum@@ 1
novel 0.21675713389501733
ors 0.06310711721987582
Baz@@ 1
Tillandsia 1
cau@@ 0.701562186355603
Hier@@ 1
Land 0.18767210493123074
thy@@ 1
Las 0.10164196940886397
laser 1
Bil@@ 0.35693899651857913
aut@@ 0.4931000267286866
DJ 0.619602820746053
Marvel 0.8332180000327086
Conus 1
Than 1
dioxide 1
elus 1
hon 1
Road 0.13850380698557527
aja 0.5371525280078796
talis 1
Sky@@ 0.9851041617666317
ale@@ 1
asti@@ 0.8424079627367624
190 1
Warner 0.6481927130614873
acer@@ 1
Chin@@ 0.6971440282900436
Magn@@ 1
Manga 1
TC 0.699276869691943
Eucalyptus 1
Den@@ 0.46528575948746453
GB 0.7874326778541202
omer@@ 1
Prom@@ 0.6986382634937534
bass 0.6353169836057575
bau@@ 0.24576090428610445
nham 1
amph@@ 1
carpa 1
onal@@ 0.898953504838512
Jacques 0.294015598316528
cá@@ 1
hop 0.8103937925370174
Roosevelt 0.978088366464917
27,@@ 1
Mikhail 1
Jin 1
Ner@@ 0.7574436268478587
Ryan 0.5570343201951085
Sus@@ 0.5397270830993971
ylon 1
Nas@@ 0.6414241811497275
XVIII 0.5589075759834837
atica 1
320 1
Ambl@@ 1
Gam@@ 0.8339646426298464
Tach@@ 1
gun 0.3552952172960744
Echin@@ 1
PS@@ 0.6445112828190106
Rab@@ 0.5786092233574377
cip@@ 1
Golden 0.37074121334370375
Obama 1
dot 1
Rod@@ 0.7611160633652201
Nat@@ 0.6750882397317949
teria 1
tus@@ 1
yris 1
Napoleon 1
actus 1
arra 1
orn 0.6406390885412839
Zen@@ 1
eth 0.5917863933330593
mun@@ 0.7022643712741261
18.@@ 1
8.000 1
Lau@@ 0.5154780395653376
Crot@@ 1
Müll@@ 1
23,@@ 1
cher@@ 0.49056563631283295
hid@@ 1
Wo@@ 0.5784039272511236
light 0.13851934090921408
1826 0.9050634973170962
Aus@@ 0.09340255953143418
Stein@@ 0.2895827086217726
bes@@ 0.29363266702523494
sit@@ 0.5430147727187281
poli@@ 0.6453322842802942
ana@@ 1
bury 0.387350863319885
zu 0.012646375223843674
Nob@@ 1
Tul@@ 0.8240762486447892
adel@@ 1
thium 1
ud 0.5964621274907485
Aleksandr 1
Christopher 0.5771759807928729
Ela@@ 1
Net@@ 0.938875863605276
ose 0.34486642625487146
rug@@ 1
Miami 0.4750679890136796
acum 1
enza 1
Guadalcanal 1
Phal@@ 1
rix 1
AB@@ 0.6573685877841218
Taliban 1
AD 0.4501216091600212
Balkan 1
CS@@ 0.577222626544899
Scot@@ 1
Hap@@ 1
Philippe 0.47975021553152125
camera 0.8574636810369423
olia 1
Morgan 0.5587781646128807
Samuel 0.3988452027765933
Mé@@ 0.37371823366016926
dri@@ 0.4919541255817126
pach@@ 1
its 0.013711061785225305
metal 0.2860469464333764
not 0.016182687738813116
tium 1
IM@@ 0.6715290003448217
ophyl@@ 1
olepis 1
Cardi@@ 1
Chor@@ 0.5950808979339919
Raymond 0.69442042308735
Ichneum@@ 1
ST 1
Iz@@ 1
tella 1
TO@@ 0.9642710644044152
ide@@ 0.24526108514516146
lie 0.2814630712664675
Hans 0.2480195782776045
apa 0.7201131305700318
chel@@ 1
lim@@ 0.47906435481740245
Kevin 0.5323074438717822
inga 1
ä@@ 0.11035515199870917
Ostr@@ 1
Tw@@ 0.7205563930669273
ast 0.22092993388794369
lav@@ 0.5505805465529561
Banks 1
SO@@ 0.6071585483645818
erus 1
Jim 0.3805979125313612
cron@@ 1
ès 0.29684226804345915
Pyrénées 1
asp@@ 1
oxy@@ 1
rep@@ 0.3007172717638363
Bah@@ 0.5004240596915701
Nelson 0.5741400143297426
kur@@ 0.34962740398960873
onensis 1
Khar@@ 1
AIDS 1
rap 0.99559245345876
Maritime 1
Dig@@ 1
MI@@ 0.6478103243389199
Cant@@ 0.6587049527770205
glo@@ 1
Good 0.5515340661912566
Spring 0.7339099121188759
ars 0.14194261966815197
bó@@ 1
onius 1
tab@@ 0.3470930104886857
Lucas 0.798362392699523
aj 0.6539052856369986
³ 0.849584651207454
alis@@ 0.403616312760914
ocar@@ 1
Wright 0.6217884115602429
ater@@ 0.8505181531470123
128 1
Gas@@ 0.4246900386231835
Patrick 0.38046927564147537
Platy@@ 1
alba 1
ean 0.4654140302211436
olig@@ 1
Rider 1
esper@@ 0.9310671162710682
nan 1
Ery@@ 1
Play 0.6267015117310097
Venezia 1
öy 1
107 1
20.@@ 0.9976267785071309
osis 0.4162775247379795
wh@@ 0.23979020780622384
Hur@@ 0.42804194090214587
idis 1
1829 0.8436846532829523
Nova 0.708925454573284
onlyinclude 0.45662428731176097
Pau@@ 0.6841109420672796
Santiago 0.3903516585473321
hip 0.3529208136712321
lon 1
odia 1
Mut@@ 0.5936914875683182
Nicholas 0.7336342646106551
Rec@@ 0.2044043685109918
amin 1
aç@@ 0.7044598240308528
Ae@@ 1
王@@ 0.28836872670038693
oper@@ 0.31311574405856435
AU 1
Jaeger 1
Lem@@ 0.573623171470832
Warszawa 1
house 0.07988291609787879
Kra@@ 1
Rolling 0.8572680084617923
uru 1
22,@@ 1
50.000 1
DE 0.9845748886423951
FI@@ 0.5133399443188177
urn@@ 0.7042862370671018
Blake 1
Power 0.3877295137367453
kham 1
mit@@ 0.1799996142551876
李@@ 0.29024682321674317
ander@@ 0.582540888251141
cili@@ 1
urga 1
Bom@@ 0.8908405530317535
coma 1
Heart 0.6171481531147651
IC 0.5531148655266855
Pog@@ 1
aun@@ 0.43583884827395664
leg@@ 0.26428078969460583
ề@@ 1
Yok@@ 1
1820 0.5447954942301662
DA 0.6322099088144331
oan 1
Xu 1
crass@@ 1
Lon@@ 1
Wat@@ 0.74138457002608
ń 1
Bolsh@@ 1
Carter 0.6212752949604939
RO@@ 0.6783612738366241
inium 1
kei 1
ting 0.06964436919141435
Alex@@ 1
Grim@@ 0.9665472674262645
Lamp@@ 1
ault 0.32283037011611543
gens 0.6676503159541195
Aires 0.3449450524313052
Myan@@ 1
agr@@ 0.5046752063898358
cha@@ 1
yrus 1
Garonne 1
Men 0.2787009332241627
neri 1
90@@ 1
Melbourne 0.4045087371504376
actylus 1
may@@ 0.4529854288985689
Darwin 1
Hak@@ 0.9348358226586297
Robin 0.7482886249129554
Sec@@ 0.4356087472663427
olis 1
sac@@ 0.40210886592171785
acus 1
affinis 1
lich@@ 0.4725261170948515
odrom@@ 1
rap@@ 0.3119830779333351
22.@@ 1
Band@@ 0.5197993866769054
Nord@@ 0.21030973275461634
super@@ 0.14967262436039128
usta 1
Batman 1
Rud@@ 0.8935958263145137
Hag@@ 0.7766762283169142
Son 0.13828740628914907
hal 1
21.@@ 1
Buenos 0.3424808249287606
1810 0.7843684981921032
Eup@@ 1
ran 0.177352678230954
rei 1
anch@@ 0.7927221442219419
edo 0.5999023798531076
7.000 1
isha 0.920650050663788
ẫu 1
Hit@@ 0.846561503104672
acumin@@ 1
foli@@ 1
Bundesliga 0.542615844124144
Eul@@ 1
âng 1
Barbara 0.5849397838350509
hynch@@ 1
phr@@ 1
106 1
115 1
Cruz 0.446236014969359
RI@@ 0.5889771799230555
anii 1
gem@@ 0.3357849530347807
Boh@@ 0.6774546527598633
las 0.011905724833924337
uyến 1
War 0.05724758330601452
asu 1
AF@@ 0.6659405727358129
Endom@@ 1
Fantasy 1
Levi 1
Somalia 1
benz@@ 1
cid@@ 1
comp@@ 0.20642453853085854
etum 1
ling@@ 0.659798133919431
na@@ 0.7202730610118627
sag@@ 1
Id@@ 1
Mart@@ 1
103 0.9820818262424881
Namibia 1
gu 1
stach@@ 1
Genti@@ 1
Kul@@ 0.7227090387532981
Ontario 0.3191243681988819
lav 1
tae 1
Shah 0.9149114250158712
Dou@@ 0.5068610417854347
lida 1
urg@@ 0.38063107169066923
Lei@@ 1
Lombardia 1
yros 1
Eil@@ 1
Hin@@ 0.4443433848566113
Cun@@ 1
ave 0.4327827764702428
bir@@ 0.41288251601978165
bula 1
ostr@@ 1
Mac 0.7734977419831952
ding 0.1897791720836585
oki 1
agro@@ 1
sonia 1
ā 0.8419896759583977
Bruch@@ 1
Duy@@ 1
Nebraska 0.8765008871220445
Santo 0.6568582681568497
「 0.0720175918739213
Gold@@ 0.4164512760769523
MP 0.45541415017941717
eme 0.5280171341830864
Harris 0.5333824926928303
Home 0.3131378880152853
pol 1
aco 0.5949264467277728
ark@@ 0.38427741895562745
esis 0.7705725067469652
win 0.10192228366515704
CO 0.6975053235993262
Dum@@ 0.8276396835739217
oke 0.49581442072510407
ont@@ 0.4685740841083692
sson 0.55113007679364
trac@@ 0.32950723712190144
wen@@ 0.4511307576087969
」 0.07184925781262086
Dact@@ 1
Inter 1
model 0.18397785914362136
Madison 0.797176654287163
uri@@ 0.7101362752442961
Scinc@@ 1
hin 0.3767239903805945
Adi@@ 1
Sai@@ 1
argent@@ 1
n.@@ 1
Bath@@ 1
Bra@@ 0.6702207987250197
Gle@@ 0.9419675018145608
porus 1
Tiger 1
kab@@ 0.6893265775979591
key 0.1933271644346532
ń@@ 1
Rot@@ 0.3270398450871338
Assy@@ 1
cidae 1
Tennessee 0.4127202594666507
Tokugawa 1
Gabriel 0.518152504677358
Latvia 1
Sou@@ 0.41135494800854955
othal@@ 1
Einstein 1
Lord 0.20839484434793157
Sad@@ 0.6953197620765809
Lyon 0.4692767316121986
Sant@@ 0.7507875858984521
aspis 1
tre@@ 0.19964311192608633
air 0.11145215437118736
anos 0.21547102871255303
w. 1
ayat 1
ias 0.6017068339361142
Oh@@ 1
Lith@@ 1
agara 1
Ivan@@ 1
Milano 1
Ralph 0.820615985594436
Lup@@ 1
O. 0.8312349662549311
Zambia 1
nati@@ 0.8220015059874614
tag@@ 0.6357551767075955
Adolf 0.6151379381777607
king 0.11492586645514345
} 0.3950318579151272
Solanum 1
ịnh 1
oliv@@ 1
111 1
fili@@ 1
Buch@@ 0.35915585406697204
Him@@ 1
Green@@ 0.5979486907607257
Web 0.9370975139524134
ectus 1
Cous@@ 1
Marcus 0.8794246306709438
poda 1
Alb@@ 0.6121831695386383
Sankt 1
actyla 1
ocol@@ 1
ữu 1
113 1
ston 0.49636834543541414
Kō@@ 1
lex 1
lod@@ 1
tz@@ 0.7315174713598238
ser 0.06128555797818197
tul@@ 1
127 1
China 0.09838189482068387
Orch@@ 1
cun@@ 1
radi@@ 0.33873428953864604
Ama@@ 1
Jimmy 0.5353771549481325
Kepler 1
maculata 1
Mall@@ 1
Tric@@ 1
Kay@@ 1
Ray@@ 0.878996533647951
bón 1
yer 0.1959194677565496
Cul@@ 0.4274549219924641
Tran@@ 0.4323472656499168
ado@@ 0.9173834509678411
chen 0.1384230254427247
mont 0.3688792497339129
zar@@ 0.6046485684665933
jav@@ 1
proton 1
sl@@ 0.32108095694875266
eana 1
that 0.004616059845199046
Xy@@ 1
eb 0.7387730822915916
ș@@ 0.8147468899649535
Gö@@ 0.9145742611897791
Luis 0.24888168574152608
Ves@@ 1
rem@@ 0.25152774416309764
240 1
Post 0.2640620665607531
Sher@@ 0.6467422312317401
pac@@ 1
Association 0.0967562425020318
fre@@ 0.16434357224524382
sha 1
Min 1
Sek@@ 0.7516675753865328
Story 0.6613640958489663
bu 0.16198307406877238
aug@@ 0.5784268650120822
uga 1
Fort 0.23316199965384193
ASEAN 1
Uzbekistan 1
Sivas 1
Sper@@ 1
Orange 0.6051757864187349
Sharp 1
Syl@@ 1
brachy@@ 1
BC 0.27173551916324973
Maya 1
Og@@ 0.9345080406916819
1500 0.47795116600128584
46@@ 1
Cog@@ 1
ID 0.9671096308170368
IBM 0.9196010708719888
then 0.029616891204742975
tion 0.06573140158350671
Mete@@ 1
emp@@ 0.2634309129560396
mang@@ 0.788773633612021
oon 0.46549949112731337
sing@@ 0.525221047044146
stone 0.1766253987404452
win@@ 0.677872957210579
yar@@ 0.7864700846009991
19.@@ 0.96944619537143
dil@@ 0.43663662438463213
eland 0.45136321335058427
pH 1
Kel@@ 0.4906851046747727
Type 0.6622156891840119
qui@@ 0.2841340268321777
Medvedev 1
far@@ 0.35202268733179615
leb@@ 0.7680039878323061
losa 1
Bern@@ 0.610969153006821
Game@@ 1
Megal@@ 1
Neo@@ 1
Sea 0.2748926655260473
ostic@@ 1
ord 0.5208946652840281
pod@@ 1
Polyg@@ 1
ings 0.06506958617484612
ostris 1
wi 1
IUCN 1
X. 1
ds 0.13235976825447143
edia 1
Paraguay 0.9287752222328752
Sang@@ 0.9620983956749919
australis 1
his 0.0056986997419859586
lax 1
phth@@ 1
CP@@ 0.6521881346835513
Manuel 0.296106218915023
ao@@ 1
gor@@ 0.7250799672564502
28,@@ 1
Barr@@ 0.43872603906490043
Stor@@ 0.6398150300963396
Witt@@ 1
egia 1
Juventus 1
ery 0.2251220453242438
1.500 1
1806 0.7252801909505797
Apollo 1
MO@@ 0.6671646695293211
RE@@ 0.4312765584707752
anti 0.16789250175601067
lob@@ 0.40736018282294606
55@@ 1
Charlie 0.5638211695957167
Mobile 0.9168932954649454
lus@@ 0.5564717927482186
200.000 1
A1 1
formes 0.46420983430804336
Kak@@ 1
hydrox@@ 1
panch@@ 1
Ou@@ 0.6197949833106058
ort 0.3081603207303407
oster@@ 1
Vincent 0.5200507809826053
sut@@ 1
Hindu 0.8909302085493095
area 0.044011400818428324
ism 0.1071338133667467
syn@@ 0.31503855837361416
eriana 1
ust 0.2714939450409669
21,@@ 1
TVB 1
lag@@ 0.286657067559136
onyx 1
Fil@@ 0.3177460030067852
Nevada 0.7399537045964981
azi 1
100@@ 0.8644565798697242
viol@@ 0.24527624356838132
Carey 1
Afr@@ 1
ame@@ 0.9780086466003666
low@@ 0.369084921549409
orientalis 1
time 0.018664340533451427
AN 0.8662329218734631
Calais 1
yle 0.7436557715538907
Deb@@ 0.39893191280618673
Netflix 1
Newport 1
tot@@ 0.3941408571862556
210 1
Haiti 1
Jura 1
jan@@ 1
thoph@@ 1
Typh@@ 1
hormone 1
nucle@@ 1
ulin 1
Cook 0.7090717031714135
Festival 0.12110835395700749
pid 1
NT@@ 1
Sarah 0.4806677346884463
otte 0.6793480182147631
CC 0.5495595588061497
Gad@@ 1
file 0.7204220840436811
pınar 1
tem 0.5092935397124233
André 0.3954454487669251
elma 1
Did@@ 1
Saf@@ 0.7355137885725512
Z. 1
camp@@ 0.6313681510227658
1.5@@ 1
ated 0.029286472368167882
gro@@ 0.3752900138959869
rod@@ 0.7503379428021826
.C. 0.8359334373261271
Edo 1
emer@@ 0.6387133659862725
medi@@ 0.21617077193770634
cir@@ 0.763874860119607
cot@@ 0.5115588274685037
Pays 0.49398140771396215
Pyotr 1
å@@ 0.553759039817284
aurus 1
Brom@@ 1
Ja@@ 1
alo@@ 1
uli 0.9635664941359189
AG@@ 0.7213910629349599
Boul@@ 0.8147092084293328
Ful@@ 0.7397358502091318
Um@@ 0.18681809662257368
gos@@ 1
kh 1
ograd 1
65@@ 1
Chr@@ 1
TE@@ 0.6092553835218547
yana 1
40.000 1
Fest@@ 0.4382426391343068
Sai 1
Ngu@@ 1
abi 0.8457960109362278
1801 0.81380797814049
cord@@ 1
odor 1
shū 1
var. 1
Chr. 0.5096570263718264
â@@ 0.4098463137023587
ŏ@@ 1
Boys 0.494966539331157
Budapest 0.7895307364311814
idia 1
ī@@ 0.5763686955097465
Ł@@ 1
IP@@ 0.7609350141873579
Mass@@ 0.6039284112988842
yon@@ 1
Han 0.6287441942096575
Pis@@ 1
jazz 0.4075470340744069
mani 1
pon 1
wang 0.9718766171561861
Helic@@ 1
tit@@ 0.6330885840116204
Fabr@@ 1
agar 1
ostig@@ 1
OH 1
Santos 0.7347989021808755
atis@@ 0.704312164675549
plus 0.021180475106924827
Brandenburg 0.8065365560520441
Key 0.921654824227879
illy 0.4811415947445997
mé@@ 0.28786761906777963
Roy 0.5096377171208059
diesel 1
Elm@@ 1
Intel 1
Pec@@ 1
XVII 0.6187197830588019
bot@@ 0.3099183420872549
paris 1
Carthage 1
arp@@ 1
itch 0.6486131527027487
omb@@ 0.6185508978430344
1812 0.569905887072703
EC 0.761513814291917
HQ 1
IF@@ 0.8240915873869523
inella 1
Jason 0.5849134451938012
Zor@@ 1
base 0.0872657497687856
Aqu@@ 0.5648922314955909
1789 0.8252883052814913
dos 0.049607526465351465
Sen 1
Andy 0.580454202729784
Bismarck 1
Glo@@ 1
Kaw@@ 1
Wes@@ 0.5349768390544236
evik 1
tepe 1
etis 1
mon 0.5688303937496377
Dry@@ 1
Log@@ 0.505584039319597
lik@@ 0.3572581410049341
FF 0.7720858430227998
Maryland 0.3951561262833816
Ton@@ 0.4300913600803284
squ@@ 0.4774600508952526
Ka 1
Kane 1
clav@@ 1
hiro 1
orth@@ 0.7666041650798932
Tap@@ 0.8560476737452503
Y. 1
ono 0.7444069371655924
Arena 0.5040309017536997
avan 1
ott 0.5270193771910706
Clar@@ 0.5919578811619405
Oct@@ 1
Silva 0.8335038203427338
h. 0.8660408805629852
Amsterdam 0.5299922302258124
MW 1
1802 0.8635042786345285
Aragon 1
Kelly 0.4906378422345164
Light 0.4312610231271677
Saône 1
ader 0.40950123408289396
dav@@ 1
montana 1
Like 0.34729911214197107
Gram@@ 1
System 0.2203040499844951
What 0.42110854351381377
Gordon 0.42058906652300376
Leo 0.6322323691559575
Malawi 1
Steven 0.7452550329984395
cro@@ 0.3043747172683513
1.4@@ 1
112 0.9770513339280551
APG 1
Koz@@ 1
onum 1
2.0@@ 1
Artem@@ 1
Bhutan 1
Toy@@ 1
æ@@ 0.5520714167981322
ợp 1
49@@ 0.7992145682494892
Cou@@ 0.4870018462029901
big@@ 1
Jur@@ 0.3790125712542753
Alc@@ 1
Card@@ 1
Dream 0.7828470323882574
cephalus 1
toa 1
Hus@@ 0.4590257656531792
Pan 0.6494296256420686
Walt 1
135 0.9701720069729421
Dim@@ 0.9529469410654756
Po 1
inii 1
rog@@ 0.7509057079962783
Ut@@ 1
oug@@ 0.5297627683496707
Hoff@@ 1
Neur@@ 0.8074181456975286
fe@@ 0.13717522065205554
you 0.14519832515555653
Oz@@ 1
andi 0.9826654590717951
rad@@ 0.5062745894352433
Universal 0.5485582807616339
plaz@@ 1
.S. 0.9027588023390469
AL 0.7555814453137218
Habsburg 1
Kuwait 1
Mau@@ 0.5932270094547396
1821 0.6592998698549384
44@@ 1
Nick 0.5160852178803232
igata 1
zu@@ 0.23629688149654798
ABC 0.4400475102229496
DI 1
jeunea 1
1.6@@ 1
Sig@@ 0.4775983815836783
aan 1
152 1
Honduras 1
Schiz@@ 1
atic 0.23126881025841634
yri@@ 1
aman@@ 1
Idi@@ 1
ệc 1
Ross 0.46278455820779435
Sahara 1
ail 0.2812904417211282
elec@@ 0.3103727088174729
Leon@@ 0.771760906693867
Sac@@ 0.7109260462493908
aban 0.12820484832949863
tes@@ 0.4187977184919241
Dark 0.6272949500155324
MS@@ 0.6455473969799558
pig@@ 0.7832435412989662
ave@@ 0.6075153260094989
isc@@ 1
tak@@ 0.38338735922401357
fon@@ 0.431877636635007
web@@ 0.73255630305906
erman@@ 1
Fon@@ 0.5724393597604108
Luke 0.7613752136603281
Salvador 0.5636780853639869
lot@@ 1
rey 0.23437203286623656
Delhi 0.659061500477793
Euph@@ 1
German 0.07376506204204086
Kod@@ 1
Res@@ 0.29275314079636894
las@@ 0.510287253214888
stan 1
23.@@ 0.9189902135588409
how 0.12828578787402506
tiana 1
Key@@ 0.9306997305403149
State 0.04975845807255855
VI@@ 0.638791362489629
loan 0.4711678446657674
uf@@ 0.47920161710180903
‎ 1
Nev@@ 1
Ob@@ 0.41657528449226305
Row@@ 0.6580369174159164
frag@@ 0.3924866963776939
Eum@@ 1
Laur@@ 0.5069905821137075
rosa 1
Gyeong@@ 1
Benjamin 0.4633421768836153
abad 0.49230443288219217
cam@@ 0.3877443704816103
clar@@ 0.6141668180880906
AV@@ 1
Đ 1
ER@@ 0.45409705805704764
Sent@@ 1
Timor 1
kir@@ 0.5620430076399345
olor 1
29,@@ 1
Lak@@ 0.6075645050812082
cell@@ 0.6389663612241794
Pachy@@ 1
pall@@ 1
uria 1
fas@@ 0.527731601092409
500.000 1
Brachy@@ 1
Giovanni 0.5390847418275269
Hamburg 0.28991458213766186
inda 0.8565989409798624
ballad 1
Sit@@ 0.92004629153346
gium 1
lera 1
let@@ 0.3183468539985548
è@@ 0.34559939018300656
Spir@@ 0.7106440409737427
af 0.4932852925420757
Dan 0.46013416831546783
ther 0.42641892233850265
cryp@@ 1
dent@@ 1
eff@@ 0.4066095156314443
peti@@ 0.7962978669437317
vor@@ 0.07202503422912188
ago@@ 0.9347972761176754
CI@@ 0.4659019223509053
Ia 1
Seg@@ 0.4213093130491923
Mariana 1
Project 0.3585449606261775
plic@@ 1
1,3 1
Arach@@ 1
Stap@@ 1
cy 0.4883443885831946
opterus 1
yeon 1
75@@ 1
Cru@@ 0.531855216210558
Fuj@@ 1
Jo 1
manni 1
Venice 1
let 0.18972741092582243
ocarp@@ 1
rugin@@ 1
ş@@ 0.5085789228943488
Meli@@ 1
Philip@@ 1
Piedmont 1
Vienna 0.5859729860414107
Yuri 1
mak@@ 0.5984652248125184
750 0.7848324454654475
Abraham 0.6487347373809954
Agri@@ 1
Allo@@ 1
ical 0.06562244941762573
phara@@ 1
rus 1
230 1
Anom@@ 1
Gek@@ 1
Lennon 1
Stewart 0.501169962344353
dance 0.30463287646505405
Amar@@ 0.9998388284547003
Clo@@ 0.8110353605485544
iPhone 1
vers@@ 0.22212320927345827
Zero 1
Caroline 0.6769398596650672
Cha@@ 1
Eury@@ 1
Forbes 1
Montenegro 1
Oliver 0.5490987486353968
Sub@@ 0.18216691404029706
ác@@ 0.6078704345729566
1,8 1
Andr@@ 0.8514386455138777
anger 0.33670324009293934
sho@@ 0.23574572452541573
ustr@@ 0.9705250543102172
Augustus 1
Lun@@ 0.8672485693328543
Murray 0.5057279433162889
Bohemia 1
Kastamonu 1
Tham@@ 1
Wolf 0.5854439797193026
acon@@ 1
arti@@ 0.5367351707716065
erul@@ 1
Boc@@ 1
Now@@ 0.8211950438663624
Samoa 1
Foundation 0.2297991487171453
Thr@@ 0.9056264875620488
Tottenham 1
itter 1
Leon 0.9314918844076366
Miz@@ 1
Titan 1
To 0.14033318425368296
forme 0.14293383707453383
onne 0.3334913858876759
pas@@ 0.1638986018247963
Dong 1
Paras@@ 1
Ö@@ 0.3669812431709538
Jag@@ 0.8145144974790933
Luther 1
Ptolemaios 1
els@@ 0.4427979833224474
Christ 0.3761889290452577
Domin@@ 0.7505121427750296
Jay 0.6315680121838462
Office 0.23543568064136275
PO@@ 0.6856526279568471
chip 1
fasciatus 1
Alpha 0.9676677362464383
Tru@@ 1
Vern@@ 1
arus 1
ü@@ 0.164745986565507
iti 0.8351109956057563
ator@@ 0.48581854431573807
Monte 0.5607877841441645
Wood 0.5091301709889583
orpha 1
ë@@ 0.588898806616344
1,6 1
144 1
Art 0.08599223831409364
Robinson 0.509269133584272
ango 0.771773625066193
see 0.09855167166399491
Hot@@ 1
Tad@@ 1
That 0.20238234813259584
salis 1
Emb@@ 1
Ras@@ 0.5009312719552452
fa@@ 0.2744075395441994
August 0.03079791894558349
ISO 0.9482340106886866
Nixon 1
Singles 0.3930357863025198
Wor@@ 0.34032054004373574
dere 1
Corse 1
igny 0.7876716173294989
Dipl@@ 1
Sco@@ 1
Uli@@ 1
hinus 1
oride 1
Line 0.19497025670424742
ante@@ 0.6284940992184838
blog 1
Mid@@ 0.44656948755226494
AK 1
LC 0.987822612980756
iku 1
ones 0.09572141184121988
Scy@@ 1
ask@@ 0.5077349133638407
irus 1
lev@@ 0.4928790504974833
Cler@@ 1
Frankfurt 0.36179959258890687
dita 1
± 1
ë 0.8752227326738335
000.000 1
280 1
Ole@@ 1
Out 0.39013003686338743
abra 1
zh 0.5665005719699298
ören 1
Div@@ 0.3808338113200206
Junc@@ 1
ble@@ 0.47418506157698015
Way 0.5143558096000894
Austin 0.48572813299621215
Shaw 0.8879000957338811
immel 1
plum@@ 1
Seattle 0.469944989883752
anol 1
sos@@ 1
He 0.008317353176703311
tua 1
Ž@@ 0.8060414113468443
Ses@@ 1
eville 0.7514845263662653
ulu 0.9316665468027179
Stu@@ 0.38799192223066564
unga 1
census 0.15776404560503876
Evans 0.5757502058548554
anthe 1
MP@@ 0.42829141042313423
Nicaragua 1
audi@@ 0.6023539718032936
tr 1
vid@@ 0.839774826713925
TT 1
ats 0.10017851732904784
ayo 0.5728423823541066
avius 1
nad 1
nom 0.07156984355010429
Phoenix 0.6352172301407631
Valencia 0.6017958253559594
gil@@ 1
Castro 0.7589066087712344
Sports 0.2472022305542886
bak@@ 0.5645094395842554
fin@@ 0.11599979846904503
Ev@@ 0.414897516865046
Louisiana 0.49119404389857046
Yar@@ 0.9543411181579644
ime 0.5545381005717803
Gos@@ 0.6886943190014446
Graham 0.5236991265741145
Thal@@ 1
Wol@@ 0.4203705340158969
out@@ 0.10174245333621386
Trinidad 1
avi 0.7526802861175866
ellip@@ 1
ris@@ 0.3835806755262916
speci@@ 0.30317953123539776
Epic@@ 1
Jang 1
Matthew 0.5525144761247213
Roman 0.12502292929648323
fat 1
iec 1
lab@@ 0.29012488023119776
1805 0.8114358620341074
Michel 0.2840435597564475
bet@@ 0.4993601944417238
Eleu@@ 1
Kamen 1
ike 0.37440076094640495
odor@@ 1
enth@@ 0.64238774855852
Boy@@ 0.7696999460064815
Castel@@ 1
pun@@ 0.3134442306663141
trach@@ 1
Yel@@ 1
cover 0.1911392004718501
esh 0.49105883306640535
Fernando 0.3603120304184793
Lou@@ 0.5124088021719381
Sant 1
aren@@ 1
Eg@@ 0.44180178679805415
Global 0.4295889750919575
Hey@@ 0.7600546627834993
Women 0.13107876645327549
LO@@ 0.7620114490591614
Wii 1
agon@@ 0.7651761486151919
hex@@ 1
Central 0.09495553464819735
330 1
Lub@@ 0.9308058636228981
ante 0.053970649529088414
ies 0.0814290235908237
ticul@@ 0.6617524155016009
5000 0.6358538000089157
ares 0.1972262963369543
back 0.046723196649698186
imi 0.6440022706262163
nier 0.41129007148019475
org@@ 0.3847604727809612
Lic@@ 0.8254647124193691
abe 0.3421305518628368
né 0.09037373973717489
123 1
Eus@@ 1
Ken 0.699489525490422
Saur@@ 1
oscor@@ 1
Charlotte 0.441264505660735
Christ@@ 0.4531702670446396
ME@@ 0.4710324179212285
Florence 0.5942859759918797
uba 1
Newcastle 0.7428411133815902
Scap@@ 1
Square 0.3804193275127987
kom@@ 0.26413178295128636
topo@@ 1
án@@ 0.33139001861074
DF 0.7801192469260583
Trans@@ 0.20824763236814375
obia 1
1819 0.769823124059064
Calyp@@ 1
ando 0.0479382330630678
phis 1
resc@@ 1
19@@ 0.8433560743962005
SI 0.8974166570413182
doc@@ 0.5421805864917388
Kap@@ 0.35164143067692083
Maur@@ 0.560474265999404
gram 1
Cairo 1
Jacob 0.46520455297511715
Nokia 1
ười 1
57@@ 1
ges 0.18265370229014785
nano 1
omo 0.6260363174556219
AI 0.8772667228907445
Berg@@ 0.21292337141420006
Cameron 0.8313120024125777
Las@@ 0.6369907140595849
Stockholm 0.643283747767095
oby 1
Denis 0.6066466711460213
Mord@@ 1
Shō@@ 1
atar 1
jam@@ 1
lès 1
net@@ 0.4498221164020055
rom 1
ím 1
inopolis 1
isch 0.0755409169979464
phone 0.36577277864753804
soi 1
Chap@@ 0.7085697200569325
Lili@@ 1
Warren 0.5824517458573486
ers@@ 0.45955902570763096
54@@ 1
Janeiro 0.6868633607703782
Kang 1
Wer@@ 0.24540370407825704
iOS 1
Isch@@ 1
mes 0.13607730203998064
onic 0.35369111085943705
ticum 1
→ 0.7844994107420117
Athena 1
Pak@@ 0.8875617278571392
RS 0.5143270910734172
eu 0.21722498918326663
occident@@ 1
phar@@ 1
260 1
aenidae 1
meri 1
ochr@@ 1
Anton@@ 0.844760631507943
Bour@@ 0.4716662846376191
Fus@@ 1
kil@@ 0.677631616522725
mar 0.24656913435124
nium 1
ont 0.03600634600710102
r. 1
Acr@@ 1
Brid@@ 1
Rum@@ 0.6048097676365016
alla 0.6440373547267418
email 1
fen@@ 0.4581168261266036
occ@@ 1
ren 0.5952564501708535
trix 1
Ă@@ 1
Bi 1
Bo 1
Brah@@ 0.9161878536494111
aire 0.07131750767248446
alpha 1
eira 1
kard 1
lec@@ 0.44486183386938
Ho 1
Ha 0.5193376124480609
Psil@@ 1
Stach@@ 1
TA 0.43394769155146445
ought 0.7842706333035616
zen 0.19319497161029908
BA 0.4159646034168826
Lo 0.7172153665179986
spin 0.8341315976897937
tif@@ 0.5091666735877071
wald 0.33191462083422574
1,4 1
1.7@@ 1
Cad@@ 0.4828738958426573
PE@@ 0.7035470848452494
lov 1
ops@@ 1
Kut@@ 1
Stan@@ 0.6937330944527166
ters 0.10244416159612069
1818 0.6703230178789689
Iberia 1
lau 1
sex@@ 0.549632536541353
15.000 1
Cus@@ 0.603139218667015
enne 0.12802329500363574
201@@ 0.6875126889799236
Cic@@ 1
Luzon 1
alar@@ 0.4442539803769411
kel@@ 0.32619051932199894
riv@@ 0.9412250907690628
sand@@ 0.42335886168955356
Eure 1
Linnaeus 1
Minas 1
oj@@ 0.8268052765751007
utus 1
vern@@ 0.30235958496567655
Et@@ 0.3330314105877124
Sik@@ 0.9637799138852309
Stig@@ 1
ret 0.4215884285653297
1.8@@ 1
Bahrain 1
Lach@@ 1
ment 0.06058009460115462
Fiji 1
Gab@@ 0.5741720678023262
Works 0.4071752293484123
aye 0.4670403683029501
brom@@ 1
ete 0.1811390499587416
neur@@ 0.29033114754650363
osaur@@ 1
CPU 1
Cath@@ 0.7399208489519487
eles 0.5446544132252199
peru@@ 1
trat 0.1550872295667676
erg@@ 0.31778364974131235
etto 0.7393074184990844
Dixon 1
Kentucky 0.37646079267497823
aza 0.5424389550232407
trunc@@ 1
43@@ 1
Lot@@ 0.6013521890783329
Montgomery 0.8457176525386458
dorf 0.30844122434364407
Agro@@ 1
Daily 0.49691388485377
Maxim@@ 0.9809590485868013
Raw 1
Say@@ 0.68559181534062
Was@@ 0.5489832484417719
cep@@ 0.7820229590921335
Cephal@@ 1
Mali 1
Sound 0.4584221630698549
diana 1
yun@@ 1
124 1
Gothic 0.9871985497876634
King@@ 0.6344300784020374
Sarawak 1
Tik@@ 1
alpin@@ 1
cinia 1
1,1 1
Airways 1
Corn@@ 0.5627272782790667
1815 0.49931041985045094
Wel@@ 0.36928696949010564
itar@@ 1
ores 0.12939503096549218
ovice 1
117 1
McCartney 1
O2 1
ardi 1
them@@ 1
Palau 1
ano@@ 0.7277042770061848
unk@@ 0.33406744529350196
BTS 1
Duc@@ 0.7965914028839581
Mecklenburg 1
Nikolai 1
Stanley 0.447033233658293
aum 0.5366687255083111
ović 0.57327795351603
ume 0.32443912872292374
Bernard 0.35141077268515797
Lad@@ 0.4615818632680506
Od@@ 0.5797963121395329
Württemberg 0.6046667554988089
biaceae 1
rov@@ 1
Loc@@ 0.4094510023272308
ror@@ 1
Sherman 1
opp@@ 0.875767500472169
pov 1
Proc@@ 0.6108553481709393
Strand 1
ses 0.02478738775907396
Mitchell 0.5548986737587042
App@@ 0.5941358554034963
Atlanta 0.3888672979181262
Hav@@ 0.6870788779143346
Slav 1
ento 0.31004501907060855
Pep@@ 0.9507935426574614
bey 0.7370639669894086
155 1
Batt@@ 0.6943024353351038
Comp@@ 0.4899715753482281
Cyan@@ 1
Georges 0.3586958227111748
Jonathan 0.5235279091494017
art@@ 0.32614948229772667
gul@@ 0.8973437157178557
Aug@@ 0.9401281990730842
Fed@@ 1
Poec@@ 1
icius 1
CEO 0.454952380757774
Dil@@ 1
FM 0.23193701511946166
RAM 1
Tō@@ 1
Kyr@@ 1
Matt 0.4675568062933763
Wild 0.5800159242741502
eil@@ 0.5738841729896073
has 0.009313530886391018
letes 1
sius 1
uncul@@ 1
Ô@@ 1
Byr@@ 1
uth 0.9295381269788127
Berber@@ 1
com 0.7417908102727302
hop@@ 0.7100212520355138
nin 0.19157442547615178
ost 0.2794160082470727
58@@ 1
Chan 1
nd@@ 0.4488936117727033
Biał@@ 1
End 0.47001692663415995
Riv@@ 0.5032390029922594
iji 1
off@@ 0.15760961822316039
qui 0.011359185197132327
ventr@@ 1
pyg@@ 1
Johannes 0.3277734752725958
Sparta 1
eter@@ 0.4811508766180748
Fern@@ 0.4609996802056455
Nord 0.1518336702538204
Rhodod@@ 1
Rwanda 1
Virgin 0.6576907292249844
« 0.004973788603257003
Songs 0.40376168195334056
ces@@ 0.7111481565639041
ely 0.1035529887348832
sig@@ 0.36435820747372044
270 1
Hunter 0.5981641693730906
Oklahoma 0.4074203717208613
adensis 1
i.@@ 1
sign@@ 0.3441589559359064
igi@@ 1
ĩa 1
Chryso@@ 1
aver@@ 0.3832717463677864
skii 1
Book 0.279597469697205
leyi 1
post@@ 0.19256143681195229
vin 0.43018399316128136
evo 0.8222441767120163
rio 1
Flor@@ 0.48471012093950394
Genève 1
Psych@@ 0.7129040800958582
ann 0.35236348980284027
cle@@ 0.31209757586010906
pri@@ 0.29690765127300905
Justin 0.7855650377049493
Sr@@ 1
axis 1
ches 0.09221165468918122
less 0.07736774949166263
sik@@ 1
7,5 1
Anc@@ 1
Calam@@ 1
126 1
Chrom@@ 1
Greenland 1
Hay 0.6309249810547087
ilio 0.8328141323155043
Charente 1
Gold 0.24238857694861332
Miguel 0.3040968112775621
RT@@ 0.5616880106508801
cheon 1
England 0.06671422422332067
crist@@ 1
ikaze 1
Ain 1
Dasy@@ 1
andro@@ 1
my 0.1745275204780206
gene 0.42163286723010035
Gilbert 0.5782695783493582
Mysore 1
Slo@@ 0.6645637931956719
ople@@ 1
trum 1
1814 0.5289407767438542
Danube 1
chor@@ 0.5694518602358754
ectes 1
1804 0.7659334421900701
Germain 0.9507757004947476
Ron 0.7109098799773116
USA 0.12911692839243877
Urban 0.6464161498343773
1822 0.6953175004295694
Dub@@ 0.9073315470172453
Benn@@ 1
CCD 1
£ 0.20275449058836983
Scheff@@ 1
Scho@@ 0.9911633333722422
ayan 0.49737654519227104
etti@@ 0.7285668390799453
urani 1
ères 0.14943504959778756
1823 0.714259842356388
pum@@ 1
Weber 0.8979907152846796
sap@@ 1
175 1
Engl@@ 0.9334516116146079
Film 0.07133787478671416
Online 0.6646577140078794
RC 0.4078691166195067
Tos@@ 0.9504212730913266
eder@@ 0.4256598426717952
SN@@ 0.6758980936869092
emat@@ 1
ikawa 1
mec@@ 1
Stalingrad 1
allus 1
lard 0.4893579258860944
mum 1
Delta 0.6587200963657112
atrix 1
116 1
Airbus 1
boat 0.33956332459787214
121 0.9893489461658126
Petersburg 0.5832134657147255
Pras@@ 1
Press 0.2827231621755379
xis 1
122 1
Song@@ 0.9016907771272071
ants 0.05405415777205381
endr@@ 0.6513632848758976
mp@@ 0.4219810997823629
war 0.00923561044775123
etidae 1
bac@@ 0.6110085842629759
anag@@ 1
aup@@ 0.6682030480038574
oun 0.9929325246090425
1803 0.6401643699115861
rur@@ 1
ượ@@ 1
ingia 1
ix 0.3584005680545873
Ling@@ 1
toni 1
tsch@@ 0.41615069998434706
Claude 0.347228941459355
Hermann 0.3740901201537011
foot 0.3331472006099295
nm 1
Dow@@ 0.44737927733560007
lax@@ 1
rea 1
ẵn 1
Society 0.10058815318843382
Utah 0.48305862182566317
ửi 1
Express 0.3903087965199207
Olig@@ 1
adu@@ 1
ellar@@ 1
fe 0.19988908022933663
oneta 1
Ts@@ 1
Vig@@ 0.8780402912352767
cz 1
www.@@ 0.738596713116745
Sto@@ 0.33812685364546835
ass 0.21927044144298952
iken 0.41462637847269623
Bosnia 0.9005277764563886
Istanbul 0.7350111015266941
Jose 0.588370913791481
pubes@@ 1
stan@@ 0.7924105950356226
Baby 0.6688951404352946
Who 0.45830989504010455
otrop@@ 1
550 1
acan@@ 1
major 0.05928648474402235
ław@@ 1
Param@@ 1
amma 1
que@@ 0.44875362912472583
Actin@@ 1
Weekly 0.8181062706490649
lock 0.3294143777782984
5,5 1
Campo@@ 1
Mars 0.5533902960842918
Stevens 0.8647348860111299
ations 0.024388628973016847
etz@@ 0.32847652771236424
kow@@ 1
ru 1
thera 1
Rox@@ 1
ylla 1
BO@@ 0.8978883856515236
sph@@ 0.5511085273492755
Gry@@ 1
Vegas 0.5759077314197223
fes@@ 0.6369312593673051
nes@@ 0.8040436779457388
oidea 1
Copa 0.23802739159431163
Scr@@ 1
Sega 1
Sky 0.5245419817275918
stro@@ 1
Julia 0.6451397087052908
adn@@ 1
bach@@ 0.8522971591058215
elt 0.2608095265479918
ket@@ 0.5202831810672266
montan@@ 1
mu 1
Dru@@ 0.6126433363531647
Jun 1
Mom@@ 0.8080450290522831
Rog@@ 0.6999670722483123
Azur 1
Len@@ 0.4709906596394804
NE@@ 0.5251188876593075
ouk 1
Ż@@ 1
End@@ 0.4214180173485711
HT@@ 1
Louise 0.5060920657928571
Vorpommern 1
abus 1
aira 1
grap@@ 0.8162071475967584
GR@@ 1
Mr. 0.29398370822219316
Pas 1
eller 0.19657481177130431
hon@@ 0.2905868287280767
Haz@@ 0.5788399024033463
NG 1
Tour@@ 0.3487129556640236
kim@@ 1
obi 1
文@@ 0.2057804741620615
114 0.9353160832754182
Dir@@ 0.857568642280807
Zh@@ 0.8479010048992598
lun@@ 0.7948736559502854
tra@@ 0.283661305239388
uel@@ 1
Hydr@@ 1
Just 0.4756687838605021
olog@@ 0.4682855439035613
tei 1
Polyn@@ 1
Pun@@ 0.6262943434753242
Ted 0.7925831163704457
mea 1
thal@@ 1
β 0.6587407791664803
Yokohama 1
zo@@ 0.47572112733891636
天@@ 0.21597113974060494
56@@ 1
CO2 1
INSEE 1
Oise 1
WC 1
XP 1
Zhu@@ 1
ieri 1
ilo 0.45264195927977297
oste@@ 1
Master 0.2513166816260171
Oh 1
Suzuki 1
diidae 1
rid@@ 0.629960610083268
1813 0.5787511918107293
Fred 0.48144654051606706
Ster@@ 0.6218287811724577
Wall 0.5408865068399228
Ş@@ 0.6470646987343075
Jeffrey 1
Nefer@@ 1
hiz@@ 1
ór@@ 0.5262971922786522
Panzer 1
Ti 1
Uni@@ 0.2782688997572934
him 0.023052978514829788
118 1
145 1
AG 0.25114551040129807
Ever@@ 0.8787836271192989
Himalaya 1
Leone 1
Tac@@ 0.6621851508813876
hypo@@ 1
sburg 0.511372229885806
Top@@ 0.5484036055789786
fide 1
woo 1
ịp 1
1817 0.67268914604829
Earth 0.23185701673288003
def@@ 0.15237493874902058
hil@@ 0.5036884916602262
Fabaceae 1
Gamb@@ 0.9465622980765229
Ori@@ 0.4264998704467948
Phot@@ 0.5970732065238745
pep@@ 1
SE 0.6488306661875346
enger 0.5281514844175872
spic@@ 1
Blan@@ 0.5607411979586672
Chase 0.9458931015222802
Churchill 0.9628698238545211
Pyc@@ 1
Sainte 0.35133172342256125
Sn@@ 0.8796512738725129
WHO 1
公 0.6202035666910133
Adri@@ 0.6888715197035945
Boris 0.8351225662923031
Kop@@ 0.5972137145108272
jan 0.5766833005551195
Xing@@ 1
ushima 1
John@@ 1
Manhattan 0.49350654658924525
Tig@@ 0.9040192980890825
edr@@ 0.48040320578089357
nagar 1
ovic 1
Ð@@ 1
ár@@ 0.3753185291079696
ạ@@ 1
Birmingham 0.4524344727562192
Koh@@ 0.5202856199266301
Raf@@ 0.8813388741505974
Ris@@ 0.70634842025701
day 0.041914271655427514
Chry@@ 1
Gibraltar 1
Monroe 1
Vul@@ 0.6161194051181625
tric 0.6161270775513856
» 0.004674326452995885
Johnny 0.4108517798327946
Maurice 0.3702530846229482
czy@@ 1
Thun@@ 1
aia 1
anom@@ 1
ocr@@ 1
Zyg@@ 1
rons 1
try 0.2118136991391328
Cher 1
hara 1
pres@@ 0.11125604961825354
wak@@ 0.5978311612410557
zer@@ 0.2912418447043089
Rhine 1
Space 0.32894125317268147
adia 1
fum@@ 0.8677996499818196
sic@@ 1
ves 0.09542801314827132
sak@@ 0.8500830334023867
then@@ 1
Opera 0.41927163935373535
Wy@@ 0.6014330594641691
nch@@ 0.8016755240272335
neb@@ 1
other@@ 0.4473435590467594
Back 0.4940203211616492
CV@@ 1
een 0.3541469047260599
eer 0.4459795488469377
med@@ 0.23735943451976171
wel@@ 0.27199424485119406
yu@@ 1
Rib@@ 0.7774438430144471
bis 0.01409311885250265
uno 0.08931404031349903
Neu@@ 0.19932715433076806
Wed@@ 1
Yan@@ 0.8279029395516903
atidae 1
intermedia 1
tier 0.21424712508426622
Anhalt 0.9916005610883575
Last 0.4574931296733333
Rosa 0.5082208532794871
aw 0.4921977652058463
gang 0.2121035099164889
1.9@@ 1
Arts 0.11643379377153222
Sailor 1
Sl@@ 0.43371969869158394
sel 0.26657813026885774
Fire 0.37918356800847663
PL@@ 0.7335560574581719
bank 0.16049555013683983
logo 0.6268298179625467
Andre@@ 0.8065433411764203
Iron 0.4790387735839838
Mozart 1
Amen@@ 1
PT@@ 1
pend@@ 0.39348758802843603
Dallas 0.4224408014307246
Tox@@ 1
Vancouver 0.46680104631710134
izu 1
má@@ 0.5249038509934881
onus 1
Ed 0.5956215268000055
Science 0.1528441291578661
129 1
Dylan 1
Putin 1
otri@@ 1
Aut@@ 0.28284618874941275
Asian 0.20944016718164857
Edwards 0.6391466371203453
ids 0.193059608879
1,7 1
Cly@@ 1
JT@@ 1
Manche 1
dh@@ 0.44321824649877734
yevich 1
ays 0.11179256388672773
begin 0.3241973155169391
caud@@ 1
wich 0.6723748249510326
Dead 0.5259435608189058
ener 0.15158958022477864
olle 1
troph@@ 1
zy 0.8566563368811867
165 1
Carl@@ 0.8269708381004028
Porto 0.7747448577715341
Yu 1
kai 1
1775 0.920849125251644
Fraser 0.9987687350787697
Tch@@ 0.6684974421317477
ley@@ 0.561916055916674
Billy 0.4125059170416113
Sah@@ 0.6286164256669683
Syng@@ 1
củ@@ 1
wer 0.28004517968960135
Pink 1
cus@@ 0.8724055575946944
ner@@ 0.1678553385383108
Blo@@ 0.44951869322889554
SBS 1
Uttar 1
iae 1
mix@@ 0.47884171644459805
sat@@ 0.568173990934674
hyper@@ 0.6023653119087677
64@@ 1
AB 0.5334466442338424
kaya 1
pet 1
stric@@ 0.6802330669246848
ward 0.14759137796433294
Cooper 0.494535648760519
mut@@ 0.2587668006402372
ushi 1
6,5 1
EX@@ 1
Prix 0.1850536667636126
atti 1
Ann 0.43409617691492114
Nymph@@ 1
Penn@@ 1
cali@@ 0.6392358507765189
star@@ 0.322247045415434
undi@@ 1
53@@ 1
67@@ 1
Sing@@ 0.5088790741214981
cari@@ 1
egr@@ 0.4763133145571499
later@@ 1
zen@@ 0.40908162473910614
Marc 0.3869663300987187
Silesia 1
arab@@ 0.7205652012505736
dei 1
ư@@ 1
Kem@@ 0.8475114912024678
http 0.8820001586568345
kun@@ 0.8738409263918806
igi 1
Salix 1
este 0.04662029124938421
stig@@ 1
­ 0.6247866897756406
č 0.9503931960192682
1788 0.9298552498616635
IL 0.7212311852737695
eka 0.7506387234871089
rostr@@ 1
view 0.16092885019341963
Forest 0.28899513705131363
Kent 0.40728765442213827
Thompson 0.4111674181765958
Wh@@ 0.2956171235332596
başı 1
rang 0.5137881057251135
Çorum 1
,@@ 1
68@@ 0.9740042325426517
Gary 0.4578740120785582
H2O 1
opotam@@ 1
suki 1
Sofia 0.9307565694731234
aman 0.6966334655685913
arms 0.2455137926599486
ingo 0.7659612468722864
sam 1
studio 0.113020582338559
FK 0.6577035443430074
Selen@@ 1
Khr@@ 1
Phil 0.5640291912947767
Yer@@ 1
ight 0.2513878481060072
orius 1
oux 0.5062472834411572
rus@@ 0.4996870042341508
tiaceae 1
Dob@@ 0.7862619952789621
Gabon 1
ovi 1
tetr@@ 1
Gaon 1
Kızıl@@ 1
Medi@@ 0.29045236826028453
Brad@@ 0.8750266933721079
Choi 1
ted 0.03400308554316053
tir@@ 0.37087183336742724
trad@@ 0.8638151401437165
Dra@@ 0.6325130348991418
Nicolas 0.3738050675021736
fish 0.210086708126349
smi@@ 1
Ek@@ 0.8514545299356672
Rak@@ 0.5892738403604165
Zel@@ 0.948507460500861
elles 0.08975973706149018
lot 0.18925217257286422
Mauritius 1
achia 1
ef 0.380182384661402
Dean 0.41858693198813746
Timberlake 1
anya 1
did@@ 0.8018776783163272
lex@@ 0.9073866847344763
pit@@ 0.48477714622409385
sab@@ 0.2888691051294292
tas@@ 0.40783894196002335
Aloe 1
Oliv@@ 1
Connecticut 0.3728990475885606
Kens@@ 1
Kosovo 0.8048093551580286
iba 0.66796683257447
mid@@ 0.2644343978629741
ology 0.07391219441577997
120@@ 1
Bé@@ 0.4981921237819157
Christina 1
Midway 1
brasili@@ 1
Eug@@ 1
FDA 1
IT@@ 0.46971838918522213
eran 0.09017815274781397
Calcio 1
Down 0.5027347177856295
Western 0.09989778442980973
gio 0.6730067944842002
nav@@ 0.4433456093939237
747 1
Kath@@ 0.531126676393734
Sev@@ 0.686828333238671
ophr@@ 1
Fab@@ 0.5170971451555144
Gros@@ 0.7048287559862955
Holmes 0.7734681084363509
RT 0.5211607882048966
TN@@ 1
uridae 1
İ@@ 0.56498433481346
Alder@@ 1
Galicia 1
Gerais 1
Lud@@ 0.7224734442933876
Or 0.6069538599653431
Portland 0.46095643191625973
Garden 0.4073324289576798
\ 0.43147597226214107
nii 1
30,@@ 1
Ball 0.5361025894129061
Empire 0.12377410127642775
Ges@@ 0.2719306900097471
Kind@@ 1
Trag@@ 0.7653609002193522
water 0.05308336948400935
146 1
Moldova 1
otheca 1
ể@@ 1
Ant@@ 0.6992408831081254
ige 0.07945406696824824
Aisne 1
LE@@ 0.46904541347779605
Leopold 0.8065489522351119
Peterburg 1
Pug@@ 1
avia 1
Jennifer 0.8578609240272584
Lut@@ 0.8396591063131547
Nadu 1
Page 0.7931920359169009
ady 0.44324130815923407
cu 0.895982223771054
uer@@ 0.3186603171706197
300.000 1
Arm@@ 0.612957827316257
Gren@@ 0.6453450480909517
ibn 0.5579654258222597
lic 0.6874292546423589
spl@@ 0.6334036239727333
Berg 0.41752848546470417
Cli@@ 0.6946447568868583
Karak@@ 1
Zy@@ 0.8621616886786012
Boz@@ 1
Journal 0.21932947384813728
VN 1
sangu@@ 1
Denn@@ 1
Hell@@ 0.7201652658984616
elin 0.7549217129572992
North@@ 0.4927285965384583
Web@@ 0.5755657022004722
ehr 0.6147982672214757
landia 1
Hudson 0.5139118088222833
Ian 0.4784002673239308
LV@@ 1
chui 1
della 0.7110069020385126
pole@@ 1
psy@@ 1
132 1
Beijing 0.583488596198751
enna 0.9557836860471572
1792 0.6341548622299775
Busan 1
Sv@@ 0.7610607668157974
Tus@@ 0.8450621711309619
eshi 1
obo@@ 1
Hugo 0.41331061209121406
Animation 1
Bros. 1
Tet@@ 1
za@@ 0.8743771002326434
Shik@@ 1
tí@@ 0.6988744084606177
DE@@ 0.40283923655611364
plagi@@ 1
Belg@@ 1
650 0.9728539262999644
Eph@@ 1
Wah@@ 1
otia 1
parti@@ 0.27555749262402823
tria 1
Are 0.7376207045908985
ayama 1
kara 1
stein@@ 0.29828662595115363
thes@@ 1
Heidelberg 0.6427376411975968
Montana 0.626525794403132
Soul 0.721945037417232
Takahashi 1
dé@@ 0.03403002482251109
icop@@ 1
ingi 1
kas@@ 0.5977150569367764
sw@@ 0.12270953436987486
25.000 1
Cac@@ 1
Cannes 0.859151552518711
Copenhagen 1
Huy@@ 1
res 0.1854001248917686
24.@@ 0.7741798015943032
Baroque 1
bei 0.014611390901095455
ib 0.8187862144849378
Rev@@ 0.30610241917337366
ườ@@ 1
Bass@@ 0.4332444923259584
rum 1
， 0.0021507812597239355
Singh 0.44385102910366275
Ward 0.4734539306761105
alta 0.36703168358482086
pta 1
ries@@ 1
rik 1
uda 0.9601436321243576
Leh@@ 0.5164354705123536
Oman 1
iton 1
lap@@ 0.509275508941841
ER 0.7366392373985056
Monaco 0.9352850496678903
lers 0.12375333461009794
pinn@@ 1
skaya 1
Aden@@ 1
aina 1
kol@@ 0.30632252771810253
mek@@ 1
syl@@ 0.6061790909449482
1808 0.5947474532288263
25.@@ 0.773742262875442
magn@@ 0.8868063957014013
š 0.6042096307857546
1.200 1
Aj@@ 0.7377748697772013
Athletic 0.40350533800684335
hyun 1
joh@@ 1
sium 1
380 1
Carol 0.9191894820439842
Sul 1
hen 0.484179579665652
yria 1
Ceph@@ 1
Dip@@ 1
gamma 1
star 0.1629684641069222
acker 0.4457501426252387
Das@@ 1
Rhin 1
Uro@@ 1
cad@@ 0.30012559863257765
wet@@ 0.9005136927874791
Butler 0.6259964103163649
Albums 0.4725442942815373
EA 0.864753534260137
SK 0.6824386777442901
Stere@@ 1
Stre@@ 0.3555294529283793
ck@@ 0.292685426394131
euk@@ 1
ihan@@ 1
DT 1
Sic@@ 1
minut@@ 1
sy 0.4902626509745676
ves@@ 1
Academy 0.09762291814976332
Harold 0.5551863612130746
Parker 0.46264109649457696
Dni@@ 1
ecker 1
eter 0.19430394996367525
nigra 1
wol@@ 1
osi@@ 1
185 1
225 1
Bristol 0.4728834150236504
capit@@ 0.2698773939097191
kel 0.27517472730905296
Brothers 0.39689223285020886
Yor@@ 0.9353368441018628
alan 0.3073959960631213
tran@@ 0.3530966056164928
Cyn@@ 1
Hiroshi 1
His@@ 1
People 0.16791632083827712
Smil@@ 1
beri 1
but 0.009912843393386554
cera 1
eler 0.2991332434591782
wit@@ 0.9654945289604479
Chao 1
Ernst 0.2767442938142563
Metro 0.37021980421862866
Zeus 1
Weise 0.6408744227381218
oti 1
rif@@ 0.48753611465729946
Antioch@@ 1
Gli@@ 1
Jon 0.5791224170474513
Monte@@ 0.789150514952328
Rangers 0.47339708779931455
Tou@@ 0.6641962336987779
ecus 1
har 0.7117057748105702
26.@@ 0.788164969273066
BM 1
Bourbon 1
Dend@@ 1
Lus@@ 0.7082717089822805
lance@@ 1
tiva 0.4584098335832459
1807 0.6277747797938947
AA 0.36564684897545247
Dream@@ 1
Pier@@ 0.6905929355799912
Sass@@ 1
imar@@ 1
ogo 0.9413057345002285
Campbell 0.3937885207515684
Hills 0.3933451978201518
Jer@@ 0.6152420836383544
Spo@@ 0.6575396942109184
inck 1
Ang 1
Sug@@ 1
atri 1
dom 0.430979896071293
Over@@ 0.3106285433560806
Tay 1
Tit@@ 0.4264166080027808
Yamato 1
ego 0.4311360385187032
esses 0.1547323364045708
Pra@@ 0.6704702210025235
inho 1
Bond 0.7380036752468927
By 0.0728222642095088
Gra@@ 0.4295985646602906
Leonard 0.6199070713243925
PH@@ 1
Phys@@ 0.8431993626075277
endorf 0.347647058161044
lom@@ 1
CR@@ 0.61421134467013
PR 0.5771992444014155
SD@@ 0.7328336403478796
Idol 1
Marco 0.5213593858404085
fle@@ 0.24358903169526813
hap@@ 0.9400599936966868
Map@@ 0.8476649078733836
Oro@@ 1
arina 1
odo@@ 1
ux 0.2959190302512877
lava 1
uce 1
12.000 1
59@@ 1
66@@ 1
Abdul 0.8815920134294166
Clay 1
Rafael 0.4801431656554501
corn@@ 1
nas@@ 0.6446917063675937
Manisa 1
idum 1
xy 0.8568489740753449
Ana 0.497258366238109
Generation 0.5754079209180265
IA 0.733296332445762
Slav@@ 0.6227671303976722
azaki 1
hotep 1
000@@ 1
Cyrus 1
Of 0.19588072961667252
Rey 0.47964475992038247
Roberts 0.5302793586690869
Stars 0.4058657901291863
Versailles 0.9778492155988582
Voss 1
agan 0.5403538625980292
bus@@ 0.20786809205267576
elas 0.7222731729429093
her 0.009619724142486482
anae 1
spa 1
Roman@@ 0.4920995767205994
sid@@ 0.5114916798262329
136 1
RA 0.4071824995156039
Emma 0.594107470703084
Hall@@ 0.540697175532198
Laura 0.5259730807442777
Lisa 0.5904037077638177
Open@@ 0.5510626693494932
lett 0.7373521893777276
triang@@ 1
30.@@ 0.9485249878565732
Pacific 0.1468035967785572
ange 0.24002777705373757
anni 1
owice 1
pper 0.49969711477520384
2,4 1
Tot@@ 0.6089666675679717
akh 1
conf@@ 0.20988292826953772
Die 0.007006627651135167
awi 1
2.500 1
Tan 1
Tax@@ 0.8930322350346497
fran@@ 0.48711570233055496
2.0 0.6711398305936395
Bonaparte 1
Cum@@ 0.5205948550550349
Dave 0.3734297302539796
Emilia 1
Eugen 1
Mek@@ 1
SL@@ 0.7890731391988723
Sud@@ 0.4453175519113976
ester 0.2734223770306015
hisp@@ 1
ult@@ 0.4075243260019723
val 0.3763827451128144
Gib@@ 1
abri@@ 0.8122983637210829
egi@@ 1
ough 0.25276672040900067
tron 0.9320453420669924
Free 0.2898680886500011
Chester 0.7893127507050667
Franco 0.4521040549476116
duc@@ 0.22525994963079268
eby 1
mail 0.599644692670289
stel@@ 0.9019972636964698
Aub@@ 1
D.C. 0.36147625296614216
ally 0.04042458701987414
ush 0.3806697938533379
Comics 0.445889190595881
ET 0.789754324658611
Io@@ 1
Zi@@ 0.3241132319555584
ahu 1
aut 0.24561628891954537
gon 1
Hokkaidō 1
Say 1
notes 0.25446048992852405
tide 0.8946483663405982
2,3 1
Cleopatra 1
Vent@@ 0.6840605465427426
ams 0.17707452279135819
polis 0.523430578403495
Gri@@ 0.3832907097140607
Kle@@ 0.3502853265207059
Niger 1
cair@@ 1
ente 0.06103693930749768
gland@@ 1
litz 0.6937351636009849
stell@@ 0.3802162121692356
28.@@ 0.8191429342221873
Eni@@ 1
Path@@ 0.715873300702146
Phillips 0.6444154309839601
a.@@ 0.6872311260854569
m2 1
spr@@ 0.20432470169264932
tos 0.1644078805144745
Ajax 1
Dong@@ 1
Neb@@ 0.4824685159167288
Tut@@ 0.9438935827093702
kor 1
omel@@ 1
134 1
1816 0.541576809392187
Bailey 0.8589281797205471
Haus@@ 0.27341844634162377
Nicol@@ 0.6620043980490048
Yeşil@@ 1
shi 0.9023537177386391
Brun@@ 0.4412248015399426
How 0.576814066219645
LP 0.3451956724876222
gs 0.22190544008918217
99@@ 1
Calvin 1
Capr@@ 0.9521442740268594
Gan@@ 0.48172174401855417
Mem@@ 0.3466843524655991
Willis 1
ald 0.456110346800939
frig@@ 1
1758 1
Euch@@ 1
Hip@@ 1
Isaac 0.5725157620647107
PC@@ 0.4513091930957745
bal 0.5296652849760531
bian 0.5760401095940098
emus 1
tel 0.1810392475022003
tubercul@@ 1
119 1
Lie@@ 0.9460206682224064
Westminster 0.7107960113282676
emi 0.7437708947385474
emis 1
Oricon 1
Party 0.06468557415123241
Gaz@@ 0.8159387242604604
Trot@@ 1
gon@@ 1
lay 0.4036755911740672
ndi@@ 1
And@@ 0.6944750453628313
Barb@@ 1
Store 0.8577076596773426
eld 0.5196309172530968
t. 0.9437452964274823
ın@@ 1
Ahmed 0.6049452030997623
Sakura 1
aud 0.3143885237209702
clip 0.9589364928061237
hur@@ 0.27532908841867326
osta 1
yal@@ 1
340 1
Crawford 0.9843400340024028
Masters 0.4462559469042502
Taş@@ 1
rans 1
737 1
BT@@ 1
Fujiwara 1
Honda 0.8203097148163163
Kov@@ 1
iz 0.4160106937908283
wick 0.4222975866314605
young 0.09791644582730752
ň@@ 1
Mount 0.19552838158194633
Saig@@ 1
Wur@@ 0.6613771089518095
ents 0.05753592243845345
pir@@ 0.5272601490708565
tril@@ 0.6858384951919515
zel@@ 0.8492387327900814
Cole@@ 1
Cra@@ 1
Câ@@ 1
Mud@@ 1
Ronaldo 1
Up@@ 0.4452415780045927
trig@@ 0.557408785237117
Alek@@ 1
Bermuda 1
For 0.04835550305839497
Jessica 0.9630749085549672
ig 0.22403335351593304
Guy 0.3941689266326409
Normandy 1
Reagan 1
cylin@@ 0.9122204763075022
dop@@ 0.9602256157105922
ime@@ 1
mol 1
Big@@ 0.6054917503294777
Grap@@ 1
Schwarz 1
Hughes 0.5894991230723168
Now 0.37347213449764066
Rou@@ 0.42562893003202285
bridge 0.13184706292072204
hee 1
Angel 0.5215850309480582
Kobe 1
aser 1
iTunes 0.9985897273842669
As 0.028984720253192355
Fol@@ 0.24958693191137002
Hunt 0.6752649622983304
Jih@@ 1
tke 1
85@@ 1
Cran@@ 0.9892028402475718
Metacritic 0.9614656765778313
Mod@@ 0.3530746710966727
Reed 0.713078054992858
kw@@ 0.34266831356634125
ñ@@ 0.2348289019174568
Bruno 0.49290843255949174
Electric 0.49455277843649625
How@@ 0.5565392625367266
ew 0.6689654263560354
él@@ 0.21206634143283762
ī 0.5598125060086604
Buk@@ 1
Kamp@@ 0.7712203259489434
atri@@ 0.8224320773353835
137 1
1798 0.6228098392363968
Sep@@ 0.5521628013409836
fel@@ 0.23082390129382324
gir@@ 0.4492170953131541
Brooklyn 0.37954230816826917
Campan@@ 1
Donn@@ 0.6877735351889483
Fut@@ 0.47115916633349025
Gw@@ 0.803507476973267
Ind@@ 0.5489906611240355
Nab@@ 0.8305469302624302
Philippine 0.5968935295262313
umbr@@ 0.8673412714231925
uto 0.941544569277973
Fos@@ 0.9495006204076437
Gustav 0.4874609864637641
auer 0.22797329927818474
ore@@ 1
sdorf 0.3242579920973501
́ 0.04970799336572935
BM@@ 0.567906993969328
Ernest 0.5002352848558076
Zach@@ 1
atra 1
oud 0.44665805704687483
Erzurum 1
ason 0.43548882588384996
hav@@ 0.5626280256099149
Beat@@ 1
Dhar@@ 1
bea 1
core@@ 1
fri@@ 0.2761162345412361
ingham 0.6115058149342044
otea 1
Akh@@ 1
Houten 1
Ty 1
ape 0.7051409513589323
dov@@ 1
ová 1
235 1
Nancy 0.4794755025193905
dul@@ 0.6598094083219566
ebes 1
ox 1
69@@ 1
Edinburgh 0.3639878058711716
Kub@@ 0.801124664771846
enf@@ 0.16138208848370145
uku 1
Enterprise 0.9585791844436737
Force 0.11191624163909623
Hart@@ 0.5376058010179077
Stic@@ 1
Terry 0.5126779119430074
auch@@ 0.47228960288867367
live 0.08400355441363148
omor@@ 1
Ily@@ 1
Kand@@ 1
Ltd 0.3799557650141025
SH@@ 0.8139671985922409
Chen@@ 1
Christmas 0.29901799757347164
Let 0.5219611517200718
Rhein 0.6679343928313277
eir@@ 1
ști 1
1790 0.5459189073028976
AE@@ 0.47983086723029583
Ass@@ 0.4443941244846593
Barry 0.43961048930172497
Meuse 1
ael@@ 1
angala 1
ond 0.20822117052520378
pop@@ 1
rech@@ 0.26653208728257455
Chit@@ 1
Eugene 0.7466268714690703
Grace 0.5419699328282636
Jeff 0.41498888018726304
Von 0.06192604625962865
lah 0.82424460817605
子 0.11063181155114367
modi@@ 0.4131920653082825
Gem@@ 0.401060855144858
Naz@@ 0.5301797150169709
ahl 0.3602823769132986
ble 0.1688151222434116
dich@@ 0.9235335761187343
1799 0.6796840509928612
rati@@ 0.24646052096271262
sula 1
157 1
DS@@ 0.6726883924743362
bella 1
oh 0.9317251019105209
tar 0.28781376574020096
eae 1
Garr@@ 0.7386811604633411
Good@@ 0.483913565015399
borough 0.2706910449756707
acta 1
prol@@ 0.7168010487778518
Ligue 0.2688659898209969
Punjab 0.8197468360178937
Tav@@ 1
non@@ 0.28884453237029467
tad@@ 0.7408231672327033
F1 1
andinavia 1
kar 0.4355694551872728
raga 1
PM 0.623315354425281
141 1
206 1
Grove 0.6750051165955718
Hebrew 0.6634688734959112
Rai 1
Rovers 0.8073796608617851
elt@@ 0.41113668359087513
into 0.013672579655885387
县 0.15392064450529738
1600 0.6082157114593634
Nielsen 1
anh@@ 1
bie 0.41153663786332917
etr@@ 0.7106936363759514
gri@@ 0.3061988934307307
suy@@ 1
Hass@@ 0.9343906281715265
Hiroshima 1
Liu 0.6240580589868805
Thel@@ 1
IG@@ 0.6761183460505067
imoto 1
AF 0.4304040000168958
Pes@@ 0.7100335311168458
Tajikistan 1
astes 1
eg 0.5157341141006407
ente@@ 1
fi 0.6557552020435407
teen 0.4017039869165631
214 1
Adel@@ 0.5998149857657044
Broadway 0.31798405827921306
Silla 1
inin 0.2967056181923335
tern@@ 0.3475168641496715
27.@@ 0.730752776143507
Georg 0.2156187566348024
Myc@@ 1
Niz@@ 0.9275115999344963
Samsun 1
USB 1
Zhang 0.7036098536467804
away 0.07849793181786165
wor@@ 0.14049195848428062
Haj@@ 1
Neil 0.5050270834858973
Poc@@ 1
Wars 0.48908655565913584
ecia 1
Cole 0.6594860468776991
Fas@@ 0.5824679576053097
Magazine 0.278533431156017
Rech@@ 0.8778244605387091
Ron@@ 0.8387206394734651
alifor@@ 1
insig@@ 1
2,2 1
Leipzig 0.26302573689101855
cum 1
indica 0.9924414764362248
sinu@@ 1
1809 0.5570128571647232
Amphi@@ 1
Ankara 0.7323735360447174
Sha@@ 0.4993852358812705
agawa 1
Kok@@ 0.7483252771388347
had 0.006726294533548972
の@@ 1
Liberia 1
Our@@ 1
chl@@ 1
gea 1
ệch 1
Bryan 0.7090932843967552
Ceb@@ 1
Spin@@ 1
esterol 1
imum 1
int 0.3800435068974699
rates 0.2849750859058114
205 1
76@@ 1
Delph@@ 1
cum@@ 0.5237705322660933
simum 1
ọ@@ 1
Blu 1
Cres@@ 1
Thüringen 1
itt 0.45970749762693996
otti 0.8519020168401648
Nagasaki 1
amaz@@ 0.8695565209735503
mexicana 1
131 0.996531523811401
Death 0.21902356444764687
Kö@@ 0.3997106512980942
Leit@@ 0.5462619413770703
Liber@@ 0.3097793229774985
Mare 1
asper@@ 1
ozi@@ 1
philipp@@ 1
Cross 0.2081536362510235
Rhodes 0.9133342279333401
Turkmenistan 1
fol@@ 0.2091035678873884
ē@@ 1
ố@@ 1
Bod@@ 0.3289347330913549
Nadal 1
mark 0.19436909580024447
ő@@ 1
Limited 0.40560733565732665
Lip@@ 0.8592942726329009
Spears 1
mich@@ 1
ony 0.27492721285910193
tip@@ 1
€ 0.38980930135451664
Reh@@ 0.6606842485333619
bs 0.1291410446971852
erina 1
fem@@ 1
Belle 0.7739323753419435
LED 1
MG 0.949311655511969
Magic 0.5666805989765779
Marseille 0.4990115224574575
Sib@@ 0.729461180239591
alin 1
arpa 1
awan 1
ski@@ 0.37072606102764083
33,@@ 1
CL@@ 0.8580270591726709
Lot 1
allo@@ 0.5411960937893262
fru@@ 0.8035594109604843
Buf@@ 1
Pax 1
das 0.0062505421521445335
0,1 1
21@@ 1
GM 0.7270527167569161
Kru@@ 0.7373500128492244
Pou@@ 0.8060367244833478
cons@@ 0.24537632269933332
vers 0.04866312632845917
Ả@@ 1
116@@ 0.811638249814281
133 1
Buz@@ 0.9474028474564072
Carlo 0.4793995973504443
FBI 0.6647716476106769
Helena 0.8298554009128499
Nin@@ 0.6623202238507425
Thomson 0.9288284558760009
lib 1
ophi@@ 1
sax@@ 1
tex@@ 0.3785050339832255
Bung@@ 1
Geor@@ 0.5465239526944293
Princess 0.445101794485009
Southern 0.13880125512825867
ahi 0.7765480084170348
oso 0.15447406067659272
147 1
Khal@@ 1
Main 0.18670842676226357
Pag@@ 0.7482400561198597
Pho@@ 1
Water@@ 0.40310731898967067
bim@@ 1
by@@ 0.5057481630812785
card 0.24956305622883157
red 0.06308591299703356
sal 0.30954944212417435
ụp 1
Blackburn 1
Kuz@@ 1
gar 0.3140562991031975
211 1
Emmy 0.7334774049052419
Sup@@ 0.29925433132280604
ahu@@ 0.9853919766832339
quer@@ 0.4603402039386529
DL 1
DO@@ 0.44613353461568633
Malaya 1
Wallace 0.5594981838218931
anium 1
cona 1
ms 0.14064068426305082
zano 1
Tha 1
ellum 1
nu 0.5689843323311032
är@@ 0.13701386478696898
Arnold 0.41988254299410205
Cleveland 0.32680821455449305
Gall@@ 0.6282986422667185
Rama 1
Rein@@ 0.3843373777111377
Tib@@ 0.49394936463375244
cio 0.3075146692739648
1811 0.5603190026822518
Berkeley 0.5241027530677734
IGN 0.6395128764322278
Jakarta 1
Mancha 1
SP 0.7283902700844337
if 0.046748407598973196
ness 0.10034502928542266
Mercury 0.7961840338808138
Tas@@ 0.47267553923424155
acca 1
atina 1
cal 0.4325023552154346
pound 1
Gill@@ 0.7939624633678746
Nau@@ 0.8450073392521292
Ship@@ 1
Yak 1
Zar@@ 0.6193851207785641
ér@@ 0.10050407705900227
ör@@ 0.19670086476548723
Jab@@ 0.9276394163974915
Ruiz 0.9745744286874819
agon 1
amo 0.5743393001135554
annes 0.7484975447564014
Crystal 0.8080624402621646
Fa@@ 0.5984768466070218
opil@@ 1
143 1
aji 0.8152490588338918
nei 1
′ 0.8841728703825023
138 1
Iw@@ 1
dica 1
ga@@ 0.9858581386203907
lif@@ 0.3467252565142273
world 0.04374182200131901
Conte 1
Hein@@ 0.48610464657747376
Kiy@@ 1
ario 0.1047012719938067
veri 1
Hampshire 0.4119121098750914
Suz@@ 1
azione 1
Ames 1
Hou@@ 0.8052565839966924
book 0.048865200354857585
head 0.05271510959927818
hyp@@ 0.7958835683640756
sol 0.2515324261095672
zan@@ 1
148 1
aur 0.7420346225571598
cori@@ 1
esian 0.9599031955839924
maire 0.3818187196288684
és 0.02079987134105829
şehir 1
Andro@@ 1
Bobby 0.4917936751418015
Fall 0.23806661215228414
iva 0.49006720876100235
peri@@ 0.4509679697150175
DM 0.6297207448228461
Plus 0.30246486276385975
angu@@ 1
pis@@ 0.724502552315664
208 1
Asi@@ 0.6013430492928009
Dag@@ 0.5455636348724503
Italy 0.1322066967451351
Mez@@ 0.9626375496513427
Punk 1
Simpson 0.6135496995971194
Summer 0.1191440795236685
born 0.020002621792024118
Andes 1
PP@@ 0.6673038667513902
Sind@@ 1
Sok@@ 0.8798992727415759
cat 0.5862688796990654
DOS 1
NBC 0.36631553066531225
Ost@@ 0.1779756360455403
gre@@ 0.278216646830866
pura 1
203 1
VA 0.49631947729087617
VO@@ 1
hak@@ 0.7300074794702328
schi@@ 0.5639600545911625
Hope 0.5143480425733826
Hul@@ 0.9128950871454647
Lucy 0.703244637734631
ík 1
202 1
Armstrong 0.6289973625783547
Beg@@ 0.2827054937150143
Cl 1
Guardian 0.5481217687545755
Hoch@@ 0.14886607902005708
Ravenna 1
Viet@@ 1
turbine 1
Burundi 1
Core 1
ussia 1
209 1
BS 0.5343217049992125
Explorer 0.9869687892955655
Hyun 1
Marion 0.7461363321533571
Springs 0.4960016635295719
hio 1
oz 0.6167896334046491
trick 0.9473624596426494
Guyana 1
Yong 1
Algeria 1
Fe 0.5243252535604216
Mikha@@ 1
illi 0.7727725321940784
Luna 0.74049312612811
Rut@@ 0.6300064341806465
rata 1
Berry 0.7707890567591832
Hart 0.5734286458756923
Holt 1
TE 0.783007152447144
ifol@@ 1
Horn@@ 0.6118972720870652
Lop@@ 1
Newfoundland 1
Wagner 0.4965678843286346
icill@@ 1
tiế@@ 1
Andrea 0.48621477977424576
Biden 1
Franch@@ 1
Uh@@ 1
Yuk@@ 1
kare 1
ớm 1
English 0.0465839541233363
Nish@@ 1
ograp@@ 1
Fighter 0.7385972886861822
Jerry 0.45651188679121346
Steel 0.6617018848199068
29.@@ 0.7876933553566586
Aaron 0.6020964138103378
Faso 1
Ronald 0.6249011187888808
alu 1
iner 0.27545129005030405
oca 0.6321582052613023
4000 0.7251781364330806
Carr@@ 0.49485078000330424
ME 0.7252998877897925
fica 0.9100797196961662
rie 0.3388951666552739
166 1
310 1
Geneva 0.9115904707722057
Kash@@ 1
Naruto 1
Three 0.17668098906524693
ider 0.23689364944370053
marketing 0.4277924837892256
zer 0.2090888473139464
Burkina 1
Lane 0.3587894007963965
Palace 0.33280020406843974
Service 0.11259908931210712
enzy@@ 1
rev@@ 0.21229130308821131
117@@ 0.8037732569129209
162 1
Aguilera 1
Cô@@ 1
Fat@@ 0.7042965855914609
Hu 1
lies 0.09282547124521885
114@@ 0.8258700040139628
Alexandre 0.41312886406805893
Bridge 0.19976506210885453
Happy 0.8270166046859461
eidae 1
nov 1
oly@@ 1
osph@@ 1
168 1
Balıkesir 1
Knight 0.3925523972061703
Rudolf 0.3583045187727501
adin 1
Charleston 0.9652190103882023
Orleans 0.3827544820141866
Year 0.13623590419740114
Zu@@ 0.36165334947771993
illidae 1
195 1
256 1
Angel@@ 0.697275663129234
Bosna 1
Cay@@ 0.8698229094801551
Kang@@ 1
Liberty 0.6210121892103787
Not 0.30530422229748533
Tasmania 1
氏 0.29043184054312926
Pay@@ 0.5894292070978603
Stuart 0.4683758003415039
mata 1
yov 1
Nur@@ 0.5118441844822849
Phili@@ 1
Tek@@ 0.9436014310349187
Youtube 1
hay@@ 1
lid 1
omena 1
Holland 0.49546761892603736
Laurent 0.46114550531738313
NBA 0.22346615453249197
chrom@@ 0.43571459101764404
ots 0.129878416171638
ous@@ 0.3998786134102775
unif@@ 0.7244190872291656
Herzog 0.5187840523344115
Saudi 0.5181057478501764
Sob@@ 0.9874182244074521
cken@@ 1
format 0.16490224513820304
77@@ 1
rae 1
Alberto 0.3890402769788158
Pell@@ 1
dida 0.8939693289556795
mine 0.2078658185197337
ả@@ 1
ộ@@ 1
1200 0.5085252087846278
Lorraine 0.6825630153823596
ben 0.10522482529014862
fall@@ 0.25627613456782156
oru 1
ー@@ 1
156 1
Niedersachsen 1
Szcz@@ 1
evsky 1
iya 0.8680561263399985
och 0.6910284678612726
Wiel@@ 1
baz@@ 1
pers@@ 0.6996610411566111
Aman@@ 1
Edition 0.5437002411567009
Ehr@@ 0.5119420665268184
Spi@@ 0.5605031277643171
hausen 0.30464264577118305
ikh 0.9529574022978318
stadt 0.15745975702777884
370 1
Rural 0.3157209708221789
his@@ 1
itaria 1
ovina 1
Atlas 0.7270506723669101
DV@@ 0.814647326141084
Everton 1
Field 0.2014008235085147
SL 0.718187040910533
Yoo 1
ushu 1
142 1
Kid@@ 0.7345206777431641
Yoon 1
aland 0.9916813525940159
mantis 1
154 1
Caribbean 0.5113446075587368
junc@@ 1
text 0.15336668032882145
Camp 0.3303541662303987
Dah@@ 0.7796846430978484
Kashmir 1
Leicester 0.8588939474219675
Thom@@ 0.8971648128210383
Viking 1
ft@@ 0.8002787231055303
ury 0.32939756431334233
Aleksand@@ 1
Ardennes 1
Jin@@ 0.9615358244195862
Linda 0.708343294479198
Shak@@ 0.7863290045266932
Won 1
berry 0.5538105127749067
jug@@ 0.2601299634790916
lik 0.37108049610858435
sar 0.44512686402967105
én@@ 0.11433124192000284
Collins 0.4304433635878934
Paral@@ 1
SD 0.6947545667996126
kowski 0.9896231229887409
map@@ 0.856124002818599
Battle 0.1219943980291622
Institute 0.0759501719979493
Link 0.7918616891392783
Lund@@ 1
Suez 1
suff@@ 0.2170294651111612
tara 1
vector 0.7582669803622522
Amy 0.6816487743051631
Chau@@ 0.7571722825818588
Ham 1
Morris 0.3712271277607877
dot@@ 0.3695410173229127
fu 1
seu@@ 1
sus@@ 0.3236012579674042
215 1
Voice 0.6333173521938684
hiy@@ 1
安@@ 0.1559775466881979
217 1
Bin@@ 0.5631728064167772
Federer 1
Foster 0.6072331002903067
Put@@ 0.5767670778114531
Sean 0.5750363900284632
Uran@@ 1
Uz@@ 0.9550288155362676
arin 0.7234040868060755
bolivi@@ 1
ios 0.296414885627291
kha 1
Basil@@ 1
CM@@ 0.6094178998978769
Gian 1
Poh@@ 1
Seo 1
ump@@ 0.2393394459593723
Botswana 1
Nad@@ 0.6568966290857949
Note 0.39412560690512083
gam@@ 0.4887351827297894
vania 1
Cla@@ 0.6652774204568888
Palermo 1
Petro@@ 1
abi@@ 1
esz@@ 1
idge 0.48966724295251746
139 1
38.@@ 1
Chamber@@ 1
Del 0.3143018234768287
Portsmouth 0.8253623162032203
dist@@ 0.25150286146331385
ebo 1
pag@@ 0.34415284259966006
punk 0.44283726237793386
1786 0.8296143891215214
Abdullah 1
Form@@ 0.4369882358497797
Joh@@ 0.8753312686731024
ennes 0.18145497115054593
imm@@ 0.546599456976192
tics 0.1292245190573786
Dz@@ 1
Phoen@@ 1
gy 0.3752780828995255
itas 0.31036360663692847
jap@@ 1
sley 0.5424361623400505
Band 0.09234267080066963
Hannibal 1
Pant@@ 0.9612440650950701
etz 0.43716973202355497
spir@@ 0.35313983093765594
European 0.05410275674955686
Hik@@ 1
bag@@ 0.7992732074482741
yen@@ 0.852715897136409
Child 0.5566010228229911
Müller 0.430652419439242
dir@@ 0.29189702485818336
Kaiser 0.27477530668275013
Virus 1
cru@@ 0.176703110742715
153 1
Wells 0.538852833917761
sav@@ 0.20030867138484215
妃 1
305 1
84@@ 1
Helen 0.47652830132247803
Lima 0.40754091853435487
UAE 1
esus 1
Delaware 0.548284408268946
Kah@@ 0.7623794094335976
Yale 0.49708269449437115
aton 0.6432127597481199
var 0.4277123576413579
ươn 1
176 1
32,@@ 1
Calvados 1
Tyrann@@ 1
okawa 1
pera 0.9428583926979663
Colombo 1
Haf@@ 0.5756334665157117
Nog@@ 0.9844944777283793
Valent@@ 0.8744392949513897
Ve@@ 0.6050348566423163
acu@@ 0.42031103763351063
coron@@ 0.4932014090298053
kn@@ 0.15180140951529109
nú@@ 1
osema 1
Bologna 1
Juli@@ 0.6721302601289044
Loir 1
chir@@ 0.7908198438176733
vat@@ 1
yat@@ 0.9253313932336713
Cann@@ 0.7373212049169224
Coch@@ 0.8501490547186633
Cord@@ 0.9137991552802595
Theod@@ 1
oric 0.8706569487196045
88@@ 1
API 1
Mitsubishi 1
Savoie 0.8236105242369418
Whitney 0.888279875686599
ating 0.03329085857149939
istes 0.1344482873570087
met 0.06577595023532393
seus 1
violin 1
zek 1
201 0.9768320235963434
Hau@@ 0.530824187569275
Joan 0.4389703973682255
kes 0.38184619247237794
par 0.005717941519075839
umo 1
CE 0.3503264381326503
Cau@@ 0.636174618513391
Chiang 1
Euler 1
Mnet 1
Phar@@ 1
Z.@@ 1
bek 0.7393879634330024
imo 0.6722552656486417
zel 0.6826391209796888
Family 0.16596299307531143
Kuala 1
Pos@@ 0.30954035132489116
Tell 1
ache 0.17499543166893688
endi@@ 0.33582524134521824
ister 0.2319859860461848
lip 0.4638145373077559
C2 1
Dr. 0.10476986416041832
Hispanic 0.49424716384833356
Krish@@ 1
Passi@@ 1
Pérez 0.43799850243494876
Veneto 1
Wein@@ 0.2582296373837046
azu 1
ierz 1
mach@@ 0.480068443106106
Atlético 0.5490213247078487
Clin@@ 1
Cym@@ 1
HP 0.6298743753489943
Mohammed 0.6946261502363285
Mou@@ 0.6247557911709242
Rau@@ 0.47653414108515946
You@@ 1
concert 0.19791157867039438
evi@@ 0.9402442259811814
yas@@ 0.7781427438939028
3.0@@ 1
35,@@ 1
Hotspur 1
Single 0.32630765672666767
Us@@ 0.5817423617116174
anne 0.38971622797023736
hac@@ 1
2,6 1
63@@ 1
Jump 1
Tower 0.34580297535707183
indic@@ 0.24420815440991622
lis@@ 0.6261186320896017
Eich@@ 0.48047876171293075
Kre@@ 0.22022267559907968
Lloyd 0.40120163044775986
odi 1
oros 1
Bunge 1
Kate 0.5546227021057674
Saus@@ 1
Vista 0.9344354300304804
ecki 1
enda 0.6842551362952048
lier 0.20820476648290132
luk 0.9443027524172859
asta 1
eux 0.07844060194823702
fan@@ 0.39281549172990515
spar@@ 0.2600371506470919
Guy@@ 0.7423823895527397
Quebec 0.30533624149538424
Take 0.8150031584113674
ensi@@ 0.35934877880252103
myr@@ 1
Minsk 1
Sur 0.12635871156481118
Tommy 0.4880349788071584
kul@@ 0.32069829906187985
avar@@ 1
ebra 1
golf 0.5156558918128685
ily 0.47839902207557977
Cob@@ 0.6845838571759892
Tarn 1
Tau@@ 0.5455591295823317
glu@@ 1
lymph@@ 1
子@@ 0.31004098382549267
Bug@@ 0.5203019783165932
Nan 1
eyi 1
151 1
Andrei 1
Cloud 0.7480243593780217
Teph@@ 1
aven 0.5210811760276739
bic 0.933576474594653
boy 0.21227476496372794
60.000 1
CT@@ 0.6383089170942298
SmackDown 1
Teen 1
Zan@@ 1
ascus 1
enst@@ 0.24332546529607094
hot@@ 0.4445899733892807
wei 1
三@@ 0.09378223917144059
Gardner 0.9654998164337275
Hugh 0.42918586002023723
Nel@@ 1
Pall@@ 0.7590713365275118
SK@@ 1
anak@@ 1
ering 0.16406938293173035
nick 1
zz@@ 0.48633282779716686
Capitol 0.7465061657524132
Cric@@ 1
Nim@@ 1
Rag@@ 0.5654820585017306
Southampton 0.8822973065384431
atten@@ 0.4903189372107833
hot 0.3720696600767859
law 0.049669664163778944
éc@@ 0.2564555818906148
AK@@ 0.746552751654133
Tang@@ 0.6893114051183745
Volga 1
ric 0.5140682146573265
ture 0.1218819596166511
Eud@@ 1
Hard@@ 0.37792819562424373
MBC 1
Mont 0.4627134885231028
Out@@ 0.30722751734869974
SARS 1
ede 0.265209609805364
yeong 1
ượu 1
AV 0.7689994087158484
EC@@ 0.577668353682188
Floyd 0.8135391952867533
Gür@@ 1
Mark@@ 0.30113958663993673
Zak@@ 1
ayn@@ 0.8430292794825923
bat 0.27768044449120055
chan 1
deg@@ 0.7845409892636376
ș 1
Elec@@ 0.3055081844433672
Lancaster 0.7526399377619198
brid@@ 0.669815470809531
orch@@ 0.8689881475760172
Edgar 0.5569296969494383
Four 0.20998616411074755
Research 0.11023503307068425
Rihanna 1
Silver 0.35177137857850194
Stanford 0.5173835892230976
apar@@ 0.46697250771269777
tina 1
174 1
Alps 1
Cry@@ 1
tima 1
192 1
2025 1
Owen 0.5810174053249211
aten 0.11834117074763754
cri@@ 0.21411272806918433
indi@@ 0.18293143192215766
rell 0.4549587499809787
zan 0.5985809347299151
Çam@@ 1
ː 1
212 1
Captain 0.2060474723835152
Hautes 1
Tokat 1
Under@@ 0.4372007375409351
Vall@@ 0.5428556012941437
eia 1
insk 1
nix 1
ự@@ 1
Ce@@ 0.6851723791161056
McC@@ 0.7587217929073072
PP 0.6672289952495073
Secret 0.566157608368175
Spencer 0.5387478108984789
alam@@ 1
auta 1
cyn@@ 1
pris 0.2671448253565206
sta 0.45731692927819767
º@@ 1
Ê@@ 1
ế@@ 1
186 1
Amer@@ 0.8470609461824343
Novgorod 1
Rommel 1
engo 1
new 0.015552025173358353
prim@@ 0.19482245289387579
480 1
AKB48 1
Parap@@ 1
Anton 0.3473765701383999
Château 0.5008896924415083
Lockheed 1
Num@@ 0.42507395646145846
rin 0.7694204266968708
Felipe 0.44673315888817533
Luz@@ 1
NT 1
Nile 1
odontidae 1
Camb@@ 0.638001655849085
Gard@@ 0.7624080271681688
Television 0.22894586776680498
yr 0.7352874137071412
1700 0.6047792203293773
Bahamas 1
Iris 1
Spor@@ 0.559793680258093
dum 1
loss@@ 1
uya 1
ˈ@@ 1
1787 0.6951671212009661
Eli@@ 0.5183503238842051
Rogers 0.452312397830076
Wis@@ 0.5592226009535485
had@@ 0.7427147837500053
74@@ 1
Sevilla 0.5427315656216267
aim@@ 0.5112755354400904
dina 1
CG 0.8959109104095552
Cri@@ 0.366565298124639
Inca 1
also 0.005630256834112922
andr@@ 1
1791 0.5777064216383763
275 1
Campania 1
District 0.04207538582093166
Norte 0.255571108329146
Reich@@ 0.20847144304700096
Samp@@ 1
Tae 1
arist@@ 1
media 0.07057577540610828
tac@@ 0.2514594478940688
ınar 1
Fleisch@@ 1
Noth@@ 1
Yukar@@ 1
dioc@@ 0.9744331629763786
onga 0.858783245363041
plasma 0.8854191656192815
tens 0.41046220268648426
toc@@ 0.951831545451235
ươu 1
164 1
Hind@@ 0.49382202924537083
Jesus 0.25202768585267976
angi 1
oc 0.9070182469751129
ship 0.053111414084572706
urs 0.123200403779944
172 1
204 1
Diana 0.6183708964763405
MB 0.802503207157778
Rav@@ 0.4177459391684323
abar@@ 1
atta 0.7024871194614852
incer@@ 1
ires 0.19215491765059728
Má@@ 0.7494136432248943
icro@@ 1
290 1
Eb@@ 0.6068319982357127
Sebastian 0.46674199184577314
Sey@@ 0.8696240743454767
euc@@ 1
1793 0.42340353675919085
Alto 0.5886307367380831
Ferr@@ 0.44888171438943275
Imp@@ 0.5481245076761913
Switch 1
U. 1
hir 0.5061051434826906
semi@@ 1
Bomb@@ 0.8761440457814744
Dortmund 0.76121879567767
Harr@@ 0.5628203603824543
Mountain 0.19747191341630413
cosa 1
fasci@@ 1
ket 0.4939540116152198
ophilus 1
Age 0.30900194053747493
Coast 0.16345031664946105
Guinness 1
Joyce 0.9449196994245854
Mab@@ 1
Mason 0.5285700036273314
Messi 1
Mour@@ 1
Shah@@ 0.7359744495183456
Til@@ 0.48484673023158786
chromis 1
have 0.00872971760859646
皇@@ 0.7053641938671794
Doğ@@ 1
Mae 1
YG 1
amide 1
ici 0.30184370850125886
omorph@@ 1
tec 1
delic@@ 1
ilidae 1
ł 1
Colum@@ 1
Cost@@ 1
Fam@@ 0.834213548665509
Harvey 0.5075778551872461
Ju 1
Konya 1
Leeds 0.45456432898961296
Standard 0.3087483625883101
Teut@@ 1
azep@@ 1
box 0.17285620852216635
ello@@ 1
Felix 0.5248625128126728
Torres 0.5721842837134183
Trin@@ 0.6244097605747467
aber 0.03192846252411586
dives 1
shire 0.2733005113161172
0,6 1
Agath@@ 1
Jon@@ 0.5826764063318816
Muh@@ 0.9302859018444798
Vik@@ 0.619405216132189
dos@@ 0.5282975000459157
1794 0.5062894560752983
Dublin 0.26912339318000356
EF 0.9924694522650022
Eisenhower 1
God 0.15135618199586331
ink 0.3414590849775301
ovsk 1
yō 1
ç 0.7361222934077482
孝@@ 1
Amaz@@ 0.9368145177796492
Jae 1
Linn@@ 1
Mini 0.9613615670552442
Sabah 1
States 0.021768673262490053
ppo 1
183 1
207 1
Arth@@ 1
Chang@@ 0.4962108082584863
Sardin@@ 1
chon 1
het 1
jō 1
was@@ 0.37197803567043913
Macar@@ 1
Morrison 0.7143810774152257
Send@@ 0.6780761915416754
Small 0.5607815503796401
Sund@@ 0.6225156566767979
gata 1
ment@@ 0.15409608251860976
orax 1
ovka 1
2,8 1
Abe 1
Dmi@@ 1
Galileo 1
Scor@@ 0.6440465459861133
aks 0.20861803377110905
tius 1
Chand@@ 0.7534873913182053
Omar 0.7890424920035906
Soph@@ 1
cass@@ 0.6827974899838797
ilen 0.22993018330616782
189 1
Kou@@ 0.8272177539908859
Poznań 1
Sicily 1
Watanabe 1
atea 1
rub@@ 0.5480025232826531
uck 0.3729086893058048
visual 0.3041799616937331
viv@@ 0.33542059050077633
167 1
221 1
Ashley 0.9291015480960354
BP 0.8168681487739532
Ey@@ 0.5491356936669922
GP@@ 0.6663829285284447
Princeton 0.5995417021610123
Roberto 0.4248187084337887
alay@@ 1
tas 0.24706525059319728
Alexandra 0.7744897294073286
Aristotle 1
Diyarbakır 1
Nis@@ 1
asha 1
ogaster 1
phan@@ 1
uva 1
850 0.9751574595587319
Eut@@ 1
Medina 0.8680963271899212
SM@@ 0.5578037877393269
Summer@@ 1
Yorkshire 0.37857647174975406
lung 0.3334587190129841
orb@@ 0.7427077439329046
École 0.25657848129143074
ı 0.2082590241780149
Bull 0.5649385036761911
Burg@@ 0.27449968872229524
Carol@@ 0.7310363801725234
Rachel 0.5946004261109469
Software 0.39745659101800057
Zer@@ 0.4379690425384492
board 0.08296162070299204
date 0.06941082851991581
gren 0.9070596932957364
olana 1
ém 1
元@@ 0.35819622337509255
173 1
Aster@@ 1
Conan 1
Gig@@ 0.8843269422569371
II@@ 0.47311618788181337
Powell 0.6154529203044461
aik@@ 0.9945426710888906
left 0.03499992464749725
retic@@ 1
tn@@ 0.728117692655658
âz@@ 1
Emp@@ 0.30157104220740877
carp@@ 0.5828349573022976
mos 0.39332359192254546
nar 1
ram 0.5940209020442871
vac@@ 0.2543617056017625
ğ@@ 1
115@@ 0.9914184738859002
Bursa 1
Columbus 0.5507686449295544
Kro@@ 0.5808560452873044
More 0.22785207405211574
Psy@@ 0.8582517162127175
WTA 0.7556920309822555
ambo@@ 1
cont@@ 0.14352106027989994
domin@@ 0.14744989203010028
icon 0.6030701876204373
ody@@ 1
otz@@ 1
sui 1
238 1
Blu@@ 0.32689284213645126
Dul@@ 0.5917538303318951
Murphy 0.4503482841682496
Qaeda 1
Rep@@ 0.4357977093912886
Republic 0.09125903540924596
There 0.030570312462654955
entia 1
rat@@ 0.5212308747575801
0,2 1
0,3 1
Acid 1
Panther 1
Venus 0.7915783877080561
under 0.017005043596181622
Atlantic 0.17808160387187558
Gov@@ 1
Todd 0.5855171325446014
ingu@@ 0.5056676070654412
laur@@ 0.6727088576326652
179 1
Alberta 0.39111723313778873
Chan@@ 0.5734980100477437
Hig@@ 0.9939056553969021
Pascal 0.761281446850377
alea 1
pho@@ 1
tai@@ 1
0,8 1
163 1
Brussels 0.7765782004028062
Fili@@ 0.41706352960743753
Fou@@ 0.7118242965631633
Mill 0.5034397399603039
Muk@@ 0.9740508164286922
Non 0.41884065839773243
Vladi@@ 1
alı 0.6657982476855949
esc@@ 0.17887361332892066
onda 0.6601701548073495
terus 1
Clara 0.5263012719842658
Toyota 0.6611022614631017
agi@@ 0.69148807882361
hwa 1
istan 0.5950473017986444
parado@@ 1
schn@@ 0.6478767061338472
325 1
Back@@ 0.46445281966909346
Kai 0.9256302315831159
Verde 0.8259586944358572
ampa 0.8274607288202879
vier 0.06499535358773141
Bill@@ 0.5109249150303994
Dioc@@ 1
Saw@@ 0.9928879924654257
online 0.17289382538759043
pium 1
Chak@@ 1
Elo@@ 1
Jay@@ 0.6321237710442046
Maxwell 0.8241081086529293
Morton 0.904672871805857
Sheffield 0.5145397884847405
cham@@ 0.695332275078525
ques 0.059734177472571884
ycidae 1
yev 1
Belize 1
Kurt 0.3719715112613523
Mind@@ 0.7730928838267078
tao 1
Korea 0.1787366756021919
Puy 1
chev 1
gne 1
ogen@@ 0.27295134037845414
ığ 1
皇后 1
Isabella 0.9843512765397248
Leonardo 0.8019261156076275
Stefan 0.45918006516783844
mah@@ 0.6460613672570001
meridi@@ 1
thiop@@ 0.8994772084702798
184 1
199 1
Aren@@ 1
Mohamed 0.6599998402414653
dal 0.4619611964443527
geri 0.7002209460022901
明@@ 0.21387340813722494
193 1
9.000 1
Bahia 1
Glenn 0.6885039710580312
Togo 1
azz@@ 0.7228093287770663
estan 0.7464348206111152
noc@@ 0.8236378087982423
stedt 0.7487301712607534
Capo@@ 1
Never 0.6910159775273478
Planck 1
Roh@@ 0.3736920660703781
Sung@@ 1
Viola 1
tle 0.21958796562770605
Akira 1
Antig@@ 1
Bar 0.3363905550263234
Fuk@@ 1
High@@ 0.3404129699144225
Lumpur 1
africana 1
anj@@ 0.5798303281468673
box@@ 0.4780946178614304
itta 1
yang 1
222 1
420 1
Alliance 0.2682749109918844
Corr@@ 0.8169782792607159
Instagram 1
Oth@@ 1
Palae@@ 1
Peters 0.8954416879882062
Vienne 0.48906850090384646
nitr@@ 0.5476061479844085
Are@@ 0.8298538720997213
Aston 0.9351436412630996
Kabul 1
borg 0.5543512913654414
burg@@ 0.5765948065572621
oll 0.3160788140069965
style 0.04709115679882951
8,5 1
Glasgow 0.30989626309620705
Jas@@ 0.6891443364739919
Kütahya 1
Marina 0.49283870058431856
Than@@ 0.814611690791238
tosa 1
177 1
Falcon 1
Fu 1
Parac@@ 1
Sophie 0.46846265278087085
building 0.03557514151912039
fron@@ 0.2997320228825694
Days 0.4937703877337517
Diplo@@ 1
Doctor 0.2328629206306258
Hib@@ 1
Marcel 0.43118951416633483
Movie 0.654652447474025
Productions 0.42691683552312965
contr@@ 0.074865028239176
liqu@@ 0.5501166553238184
osi 0.9708437091307734
oter@@ 0.9158203133858389
wr@@ 0.28292336439440624
Atlan@@ 1
Yozgat 1
inski 0.615790297554652
kus@@ 0.6258499762514953
lach@@ 1
ps@@ 0.4678937025847606
rou@@ 0.15354985721344952
yrin@@ 1
武@@ 0.25818354111680486
178 1
2,7 1
Achil@@ 1
Elena 0.6642097649443409
Frey@@ 1
Nass@@ 1
anea 1
aon 1
capa 1
ders 0.10719392284593748
Bavaria 0.9624750391321368
Business 0.17898497754549983
Chun 1
Dist@@ 0.6083867635971781
Khan@@ 1
Nations 0.15373565783383025
Post@@ 0.19040924701440598
Tel 0.6008011935582561
atom@@ 0.46404211801354467
onymus 1
½ 0.7394241196357426
ə@@ 0.736525311308389
Five 0.28355834554110504
Logan 0.7577165817013644
Maximilian 0.8267141388539637
Nah@@ 0.34125037943131087
Oslo 0.4888390334417997
Phone 1
Pont 0.5016958759609745
Run 0.46328374164971486
Woman 0.3991885533748189
Yaz@@ 0.9622570550539554
gic 1
tie 0.1894732029632911
Bradford 0.6930347558283565
Luk@@ 0.7884433267467763
Mann@@ 0.46669297653021835
Ornith@@ 1
ande 0.41370835141384454
1776 0.6370389722711279
262 1
34,@@ 1
Karen 0.6889773674505056
RPG 1
Sty@@ 1
Wyoming 0.717321983264975
dio 0.1350116024758965
glucose 1
ypter@@ 1
Lazio 1
Ricardo 0.4905882165775771
Traf@@ 1
dollar 0.9397422727727198
eras 0.20747374068284916
kins 0.4166931629831232
ymus 1
308 1
Rhode 0.5971819092597125
SV@@ 0.9343042485680313
iler 0.16852007529369492
nev@@ 1
ák 1
ık@@ 1
182 1
265 1
365 1
Caledonia 1
Cycl@@ 0.8510497732539504
Rotten 0.7573558640075875
abl@@ 0.29771821809687304
aica 1
decor@@ 0.25085345726079067
esti 1
lang@@ 0.22828161377576192
plac@@ 0.37592512687271107
vet@@ 0.4426298467387054
ław 1
Adele 1
Erich 0.579675210355547
Mess@@ 0.26420800180048726
Mirage 1
Money 0.6871225715522474
Pseudom@@ 1
Sunni 1
Aki@@ 1
Ferguson 0.8438143764503582
Tay@@ 0.8473116499424388
ege 0.35144978470101457
magni@@ 1
tt 1
BAFTA 1
Dau@@ 0.5009856553323921
Lu 1
Pac@@ 0.5680676603920979
adan 0.5792893395088063
ajima 1
yeri 1
264 1
Brest 0.8035775956599605
Cola 1
Dh@@ 0.6909607710543472
Emer@@ 0.3988590070016855
Eth@@ 0.27963950762584944
Metz 0.6976579370716194
Orlando 0.5519259817568261
Pero 0.3529430098705625
Roy@@ 0.60251466732253
aes@@ 0.6345828951071512
ces 0.03991606713104554
icans 1
ph 0.5375575865272308
BD 0.7709272404106104
Kras@@ 1
Nach@@ 0.12626559731571896
Tanaka 1
aran@@ 1
atu 0.8635958825253954
bor 0.3733481022729833
caria 1
eba 1
elo 0.32908815780530126
ifer@@ 1
228 1
36,@@ 1
78@@ 0.919194200937864
95@@ 1
Bern 0.5418804043772236
Box 0.41363623678590217
Hob@@ 0.5615462008591967
Rang 0.2836096316486568
glut@@ 1
ld 1
IF 0.5646599677157758
akov 1
bou@@ 0.1814371560744263
form 0.03362296170640609
gó@@ 1
sov 1
300@@ 1
Henderson 0.6472385006947519
LG 1
M1 1
Yay@@ 1
ough@@ 0.21088464398105602
sion 0.07289004321305266
ỷ@@ 1
Africa 0.08200025043107312
Cz@@ 1
Duke 0.1658082734616689
Face 0.6662643052576316
Nguy@@ 1
Pros@@ 1
Pus@@ 1
Ret@@ 0.44253303529045535
Roth@@ 0.6073135490691962
actr@@ 1
illon 0.3030346648636247
tsch 1
vertic@@ 0.6995640359748263
Augusta 0.7499095826577519
Epis@@ 0.7940475434703077
Essex 0.5330258201491024
Gund@@ 1
Hanover 1
López 0.32554341388027197
Yus@@ 1
elea 1
pard 0.8349426091638014
Yi 0.9541027348038527
edon 1
linear@@ 1
EN@@ 0.4982177153263123
Gandhi 0.9164392418448031
Grey 0.4869679010258194
Naples 0.5251780158057248
Sle@@ 0.7537198657931536
Smolensk 1
comment 0.5477125241849867
over@@ 0.051911727268947064
223 1
3,2 1
98@@ 1
Bob@@ 0.4885424600494794
Rocky 0.7020685380505646
ate@@ 0.39230737892388584
Eritrea 1
GNU 1
Jorge 0.2791018840441386
Jos@@ 0.43373891312406804
Karab@@ 1
With 0.0598235894855454
kie 1
kot 1
ów@@ 1
1795 0.47227628996642684
181 1
188 1
Bali 1
Caes@@ 1
Grav@@ 0.585852808465821
Hill@@ 0.45798921883676946
Lil@@ 0.5953767823736986
Soc@@ 0.5928105031393293
alen 0.1101442319480314
ebu 1
ort@@ 0.42550673869969685
sev 1
ợ@@ 1
Bres@@ 0.736117628218081
CL 0.7894944127063084
Cron@@ 0.9609139026519268
Eagle 0.5591206888440469
Edge 0.7033401483806039
Grig@@ 0.8156236435322101
Morning 0.5250943918827161
Richmond 0.33927862711895024
SN 1
Saxony 1
Sweet 0.6590441141758534
kea 1
utu 1
Adelaide 0.43316296326121234
Ağrı 1
Herschel 1
Nice 0.6068744332694325
Server 0.897001531430048
insul@@ 0.9856167665366147
path@@ 0.1907412210864252
trin@@ 0.8135543089445124
ysi@@ 1
Calabria 1
Cichlidae 1
FO@@ 0.6207202422655759
Soo 1
Ural 1
jer@@ 0.27044271985382945
國@@ 0.15561507604648264
Pam@@ 1
Paran@@ 1
Pompe@@ 1
Scotia 0.6743862086318435
ahara 1
raya 1
sberg 0.31544685630029357
sylv@@ 1
unt 0.27032555419558
劉@@ 0.44474516047471974
州 0.07815141252569766
Beautiful 0.9146353367386181
Get@@ 0.7066058747332614
Herac@@ 1
Ibrahim 0.8245593779278021
Wat 1
acy 0.10127189878722359
ansen 0.7792552254335251
tila 1
196 1
PL 0.918789910675131
Seb@@ 0.9046851161736869
Station 0.10266081055441693
arbor@@ 1
ná 1
olan 0.08305590771763244
phag@@ 1
198 1
Dick 0.4004840866076116
cab@@ 0.22588172584940647
idel@@ 0.5694934530831008
taxi 1
xo 1
304 1
Bas 0.3490004318200849
Jal@@ 0.7401501715768845
Zon@@ 1
owska 1
xima 1
Hack@@ 0.7422562425929452
Keith 0.41166412085364434
colspan 0.22807665655695564
egu 1
wid@@ 0.260403439473567
Camus 1
Casey 0.8935324397116242
Deme@@ 1
Din 0.9261539957401074
Ko 1
Visual 0.8600407880615104
Wembley 1
Yoshi@@ 1
cott 0.7432796919473205
limb@@ 1
xus 1
ça 0.3533603365194384
KBS 1
Major 0.1274336656371987
Olivier 0.5518217822236703
Ono 1
endi 0.7149155302350777
opal@@ 1
Blood 0.4950986839851663
CONCACAF 1
EM 0.517712016647759
Play@@ 0.34088753232052976
recur@@ 0.3559097972224009
t.@@ 1
149 1
Assam 1
Bamb@@ 1
Craig 0.4369269903807205
Kenneth 0.5626250363652027
Rend@@ 1
YP 1
aux@@ 0.9597305248204702
cyclo@@ 1
ej 1
seri 1
simul@@ 0.3554356590077208
tap@@ 0.26255251611046604
255 1
After 0.018811492527182647
Cast@@ 0.4080437247768431
Gdańsk 1
Get 0.557594644464399
Greg@@ 0.6781061976301423
MHz 0.7249298257611725
PR@@ 0.46131613260445026
Shakespeare 0.4483688790612607
Symp@@ 0.835555611093189
cium 1
erk@@ 0.3688255573228174
ml 1
plut@@ 1
tyn 1
Ler@@ 0.667920781580699
Sara 0.6177725504902896
See 0.15138311378595398
Tyler 0.59525396339224
antan 1
cas 0.10637162298488473
chap@@ 0.35144611160096184
iwa 1
mph 0.6967533596417032
pio 0.8816274528630644
tur 0.4193581143683444
type 0.055939983063792074
158 1
Hussein 1
MIT 0.7789561196070143
Nagoya 1
Northern 0.10370995101167219
Saxon 0.8091177866167165
dag@@ 1
171 1
Gav@@ 0.8375587958017968
HM@@ 1
Kau@@ 0.6961506296359495
Montreal 0.2556104467454294
demo 0.9575439628282868
dict@@ 0.41124510350352683
Celtic 0.5293909065394995
Edmund 0.5273673213625961
Kri@@ 0.41069938999967026
Raz@@ 0.6408449853126703
leigh 1
lima 1
og 0.39333368669650615
Ế@@ 1
1782 0.6700398149190839
213 1
Acan@@ 1
Baltimore 0.27396773427368015
Navarre 1
apr@@ 0.6695465064035038
epi@@ 1
rain 0.2623842531709615
vas@@ 0.2280937566674513
ậ@@ 1
Indian 0.060293757626978056
acro@@ 1
sn@@ 0.19115163057562004
Dick@@ 0.7271038629240735
Iv@@ 0.6697251439602511
VC 0.7226848350764742
c.@@ 1
cath@@ 1
chem@@ 0.2343150783750169
oissi@@ 1
ovir@@ 1
paci@@ 0.6870737340037583
shō@@ 1
sti 1
1783 0.6008621916529867
38,@@ 1
Ent@@ 0.2054949941538224
Fall@@ 0.42668541025797857
Fi 0.9205335765520356
Hawk 1
Justicia 0.8148822876724767
atin@@ 1
carbon@@ 0.7276810000668139
group 0.02637312606963707
schmi@@ 1
uj@@ 0.6292532312895441
1772 0.7330819922045225
191 1
31.@@ 1
Aircraft 0.6391847609495038
Autom@@ 0.3291558031955095
Basque 1
Beyoncé 1
Chev@@ 0.5630840308892653
Cros@@ 0.7775204758468737
Jen@@ 0.7444558870975614
Lug@@ 0.6098053027274738
South@@ 0.3203488810111998
abo@@ 1
das@@ 1
ub 1
་ 1
南@@ 0.09801183808894601
219 1
Anto@@ 1
Bh@@ 1
Imag@@ 0.4738152921946147
Jud@@ 0.22737030124636906
Kw@@ 0.8328887761251098
Pablo 0.2888913910594068
Stade 0.450017335655999
Vosges 1
aly 0.5837061619373428
dem 0.004718773658243623
dub@@ 1
hard 0.14494813721431382
red@@ 0.17803412505671154
ôme 0.5008649402913031
187 1
197 1
Buck 1
Drake 0.7071374029081413
Jules 0.39484291181243575
Name 0.09215835109496748
ara@@ 1
aze 0.6533024712602981
icor@@ 1
umin@@ 0.6018907373698419
37,@@ 1
García 0.25192682923728027
Hood 0.804332700811749
Kob@@ 0.915376543385516
Rhe@@ 1
Terr@@ 0.34211965027586894
acar@@ 1
aker 0.2678832361737549
ifer 0.7654196717594727
igan 0.7119893744214139
municipal 0.13147710615776995
tum@@ 0.411026763660553
wiki 1
Day@@ 0.6881715576308356
Fag@@ 1
HC 0.36832487660529534
aklı 1
bria 1
buc@@ 0.7276500368261011
cke 0.930213061160585
roy 0.5326939083059187
tat@@ 0.6429263068720192
two 0.0078067886577766156
1797 0.5103963536933421
GA 0.5064695959746004
Nassau 0.601168370133579
Radi@@ 0.2270228487587346
Sunday 0.21262031404836568
bay@@ 0.48589360877537296
cyc@@ 1
inos 0.15068793516919637
sp. 1
Moto@@ 1
NES 1
Senior 0.2407011588369881
aber@@ 0.9425266293145091
ael 0.5609600592833958
nak@@ 0.4212068649560209
ững 1
Haplo@@ 1
Josh 0.5836610842318072
Miranda 0.7215590327041572
Pavel 1
Today 0.20585683987069614
coph@@ 1
toph@@ 1
ỗn 1
Casablanca 1
Hello 1
Sénégal 1
ková 1
ppa 1
312 1
Hannover 0.3332814547888785
Krak@@ 1
Rz@@ 1
Shor@@ 1
china 0.6849233949116971
gom@@ 1
ses@@ 0.38651991025543786
Adobe 1
Deep 0.5294930059368765
Theodore 0.6590674975138744
Zhu 1
acco 1
bas 0.23374853663405043
confer@@ 0.9890390679033495
muth 1
太@@ 0.2786859943003386
Horn 0.6611309002306254
Mardin 1
Rock@@ 0.3516115174413039
abol@@ 0.367053161136622
CR 0.44075759079083837
Glau@@ 1
MT 0.8559761149874886
Mih@@ 0.7260412046289856
Nos@@ 0.7424451068072325
Rég@@ 0.714693170949814
Tomatoes 0.7847632447839396
Triple 0.4737981710634344
Ud@@ 0.9249843335476119
cav@@ 0.33755760544276264
coli 1
cut@@ 0.44390084013585646
fun@@ 0.2470308052283699
spect@@ 0.41369737495156855
区 0.11441027042944475
113@@ 0.8587121570640475
400.000 1
767 1
79@@ 1
Jeanne 0.4824436338149194
TR@@ 0.680563582469592
Torre 0.6166887358088815
Unix 1
alim@@ 0.6318010188570025
cius 1
mose 1
Cry 1
Cube 1
Danny 0.4394696105781213
René 0.31487225287382264
Sánchez 0.4464716526890449
dimi@@ 1
entino 1
Century 0.3641484776125882
Challenge 0.30710267746776576
Jut@@ 1
Kant@@ 0.4024414104499274
Second 0.09309867901992233
four 0.0214063134404746
德@@ 0.11058678838605436
0,4 1
161 1
NH3 1
Sergei 1
Shan 1
aki@@ 1
att 0.44008453698207245
ayana 1
team 0.015362122070273536
ǎ@@ 1
Braun 1
Québec 0.2083959000637826
Wind@@ 0.2679605009027558
elop@@ 1
endrum 1
fac@@ 0.13419553989632388
interrup@@ 0.4995883265807176
sola 0.4908194537572941
Bois 0.549895652133687
Hew@@ 0.9293641159698062
Rob 0.5032393026479102
Zaragoza 0.7126808752410222
aphy@@ 1
eas@@ 0.39462802720555407
khe@@ 0.981232860035348
orium 0.3653914889439062
金@@ 0.11206261766892664
194 1
Afro@@ 1
Computer 0.3614076934583888
Detroit 0.2305119097473292
Dial@@ 0.7678117582127423
Pang@@ 1
Sol 0.44196229576594565
Soyuz 1
gate 0.26020416662074747
ning 0.1785303394910711
onian 0.22412073571850782
Geh@@ 0.30491515306596917
Law@@ 0.3756493226207819
SU 0.5862509886763582
enh@@ 0.12828360114837914
lau@@ 0.31986606396656714
shi@@ 0.28647301242774453
Andhra 1
Bella 1
Demir@@ 1
Erik 0.5967532710786051
Stanisław 1
Stark 1
acha 0.5189814186093611
deser@@ 0.47459821463429963
Göl@@ 1
Lynch 0.7378770250627251
Saturn 0.9793209421780894
cant@@ 0.21041777192249442
debut 0.05012116846406379
erst@@ 0.14350255637184078
run 0.053821299555088395
termin@@ 0.1397746671807221
track 0.06901178337041904
If 0.10281307150315866
MT@@ 0.7117128596072014
OVA 1
Pha@@ 1
Porter 0.6076280366428846
Scol@@ 1
aeg@@ 1
aş 1
enor@@ 0.478373640475444
itr@@ 0.5905056714919988
mim@@ 0.8831291369684993
pra 1
right 0.05026130694605871
sac 0.6123971644429861
ulidae 1
vic 0.3948232161757142
226 1
3,3 1
Nacional 0.07790779057031219
250.000 1
Flam@@ 0.43113663490497295
João 0.8853158566839997
Maharashtra 0.9443787249988284
Oaxaca 1
akan 1
echn@@ 0.495405536581037
oty@@ 0.9474428052820271
yard 0.14321547409530042
150.000 1
Abu@@ 1
Human 0.2165333946276091
Hut@@ 0.6008094311476025
Management 0.18251033203717285
gros@@ 0.33017957157503464
440 1
GO@@ 0.5631364700795607
Homo 1
auge 1
lic@@ 0.23336815377900233
maj@@ 0.3925617826855002
para 0.007785793015065529
vie 0.07765565220456343
Å@@ 0.7052875497866755
89@@ 1
Bolu 1
Gironde 1
Lily 0.9838054400197215
Mack@@ 0.5638585801106331
Rin@@ 0.536688731649806
Valeri@@ 1
conc@@ 0.2305082781059258
itsu 1
kit@@ 0.6350385152318934
lı@@ 1
sche 0.10838916215474674
under@@ 0.05601407175850743
Bey@@ 1
Dennis 0.39760111690606137
Fletcher 0.8794435477023145
Olympi@@ 0.3947297934185428
Special 0.17060922452670715
Sunderland 1
Yuki 1
ern 0.04237120767442218
orio 0.37199182444248724
tec@@ 0.44474877771098553
tron@@ 0.28642783589895165
wing 0.08206950262585962
234 1
Anim@@ 0.6018393448300907
Antalya 1
Idaho 0.5687765593187257
Jr. 0.4091459841389944
Latino 0.4412209905293796
commune 0.030579562968030397
mene 1
obu 1
yans@@ 1
232 1
Elisabeth 0.3379069847097683
Magu@@ 1
Sheikh 0.9885415470079121
Squ@@ 0.47436182083252715
ank@@ 0.41128417950471147
cricket 0.24401502049162913
jur@@ 0.1890213848452285
rah 0.9298587908701923
stor@@ 0.15468724026080452
uchus 1
vir 1
169 1
CV 0.7047699776791375
Comic 0.7184200418071992
Over 0.17394080736469794
Paolo 0.745993907321642
aca@@ 1
Eva 0.47414036118572483
Hok@@ 1
som 0.5104623496852134
vie@@ 0.4592059588785944
159 1
2023 0.783008882142983
Cit@@ 0.405152624186282
Flo@@ 0.3410690579566689
Jum@@ 1
Lion 0.5883209455247131
Nero 1
Wrocław 1
Yon@@ 1
aft 0.28462952864303775
rim@@ 0.8235309911261647
39,@@ 1
Ahmad 0.6099959297204757
Corin@@ 1
Gambia 1
Köppen 1
Leb@@ 0.24368396631919526
McDonald 0.6437786025372753
gil 0.8751225733993081
parall@@ 0.44644473114162064
430 1
Antoine 0.2743195786083938
Bub@@ 0.7558833204389082
CF 0.48944666258258523
Emily 0.533433616388685
Metal@@ 1
Stuttgart 0.26766180822337576
Vid@@ 0.3970455740100941
act 0.07316889191040495
amii 1
bid@@ 0.7291096031170523
1,9 1
Amur 1
CF@@ 0.44300079130544145
SW@@ 0.48084220689161855
chal@@ 0.6993339104680659
glob@@ 0.4184019203133126
opi@@ 1
own 0.03185619149033524
phal@@ 1
ü 0.29823944917792955
Born 0.16129349154312453
CNN 0.8831203864458106
Fischer 0.43753435406285907
PD 0.5592385657422478
ROM 1
Roland 0.4127501685637358
Wan 1
Wanderers 0.8885884629039313
bra@@ 0.5732916035657847
evi 0.834044564893168
kum@@ 0.4476533474124702
oue 0.5195470599729297
u.@@ 1
3,6 1
Cabrera 1
Civ@@ 0.5295331511371375
Graf 0.3227326175105514
Kes@@ 0.6664690473921363
Mohammad 0.711397066943567
Woo 1
chem 1
fasc@@ 0.46493458941485905
ikov 1
led@@ 0.6772062127034962
remix 0.7515813637453236
ws 0.12429155483269179
zon 0.7612189719050403
् 0.003462351518409534
Kursk 1
Sophia 0.8417381291170952
Systems 0.2893859769940811
Ultra 1
Wellington 0.4244049803661801
osti@@ 1
sheim 0.3760858998312467
Fukuoka 1
Raven 1
Yang@@ 0.9305420379404465
aron 0.035953839697872206
bol 0.97830957948781
ogly@@ 1
press@@ 0.6050370788301987
umani 1
Call 0.5631872378382132
Francesco 0.4125203523130039
ball 0.0950415627127902
chenko 1
Çay@@ 1
316 1
Bail@@ 1
Betty 0.6193167413060076
Carib@@ 1
Johnston 0.6993718653515675
Laden 1
Michelle 0.6576575347549044
Orne 1
augh 0.7311785776099968
bart 1
nec@@ 0.3104869868539298
Aristi@@ 1
Kannada 1
Knowles 1
Stil@@ 0.4433973470550581
U.@@ 0.3982313107303785
Werner 0.34062098632577065
anni@@ 0.974274815963508
icula 1
jac@@ 1
köprü 1
lands 0.09120302730951409
Hotel 0.16318401864486892
down 0.03580321239705806
nos@@ 1
ols 0.1604832027004311
87@@ 1
Anglo 0.4048646361383958
Cass 1
Ech@@ 0.8280805869880223
IOC 1
asim@@ 1
urt 0.5246448386299908
Drive 0.37260822858295684
Guill@@ 1
Hend@@ 1
LT@@ 1
Lost 0.4588566773695926
ages 0.03873717816367391
bell@@ 1
ful 0.0731023931574986
horn 0.3469765410179869
oł@@ 1
400@@ 1
777 1
Dynam@@ 0.5641356215596731
Nil@@ 0.7259035286647929
RAF 0.34294615343375945
SI@@ 0.41752499917388297
254 1
Doubs 1
Kaliningrad 1
Lea 1
Plymouth 0.596819748050388
cell 0.15855832965515604
imit@@ 0.48466034054480317
kiewicz 1
orea 1
sh 0.3586728882399715
ẳ@@ 1
Head 0.20672215121738016
Ibn 0.5375195611193219
adona 1
asco 0.8344508300596774
oris 1
osom@@ 0.5637298090951229
yam@@ 1
yap@@ 0.4005711160198132
Brisbane 0.3941174164037651
HD@@ 0.9960508745471899
coch@@ 1
oci@@ 0.5488978619703527
pink 0.7556414532064941
sey@@ 1
tun@@ 0.3058212443192146
Cu 1
Forster 1
Meurthe 1
Władysław 1
ondo 0.7613154319602073
onna 0.6049688641374327
reduc@@ 0.4468885691866274
ño 0.3010709678041094
227 1
279 1
Art@@ 0.46446500523434786
Hardy 0.6361307749499421
Joachim 0.4558266300019449
Just@@ 0.6825600295328188
Lopez 0.8081713969248833
Phantom 1
Verd@@ 0.7862050728843043
Wrestling 0.23846172209342104
ata@@ 1
iller 0.23087632885250597
which 0.003949736774487112
Çanakkale 1
öl@@ 0.21272478504830306
ă 0.6803743027121434
A2 0.8843923701918484
Cub@@ 0.47611133684974993
Ellen 0.5503296591061514
Seychelles 1
Tehran 1
Whe@@ 0.32969701479148794
agen 0.13040815345604054
akura 1
aule 1
dula 1
vik 0.7138673757360159
Country 0.17515358820882007
Got 0.7921577774203742
Trav@@ 0.3328785253338628
distinc@@ 0.4633288681940238
drama 0.1280534700479107
impres@@ 0.42307586245047063
isth@@ 1
oglossum 1
shin 1
ï@@ 0.11414607232075122
1784 0.559176706169723
218 1
224 1
Greg 0.4566250942032737
India 0.042684866864843865
Köln 0.23584046096463263
Palm@@ 0.6441836166240585
Rel@@ 0.156354382324473
XX@@ 0.5308858085957414
Ya 0.5030897416797165
Yahoo 1
gab@@ 0.5589429233161906
owa 0.625750176963625
229 1
86@@ 1
Cham 1
Nap@@ 0.7607118430279717
Río 0.19280581447398903
Tah@@ 0.5942109037255313
deb@@ 0.2460901601215964
ead 0.3386115719161769
96@@ 1
Alber@@ 0.42735564033634105
Fast 0.7433048927924981
Julian 0.466602309415621
Meth@@ 0.640440934834489
Ordu 1
Soccer 0.34385138124667086
Sulawesi 1
When 0.03825254519766867
kle@@ 0.3276060712193802
lit 0.23160817711586718
over 0.0118576535923329
Hull 0.5751391894169632
Mys@@ 1
Prunus 1
Sot@@ 0.8002640232177619
abo 0.971807961839903
blatt 0.5828411289759734
fos@@ 0.574744207240729
lie@@ 0.4424729040894351
mexic@@ 1
高@@ 0.09071732591423114
303 1
Beta 0.9148076053525652
Giuseppe 0.4716985935165495
Isa@@ 0.7501980759956982
Lil 1
Polk 1
Youth 0.223213195323349
Zam@@ 0.7755587331940892
band 0.02844658898443539
exil@@ 1
lug@@ 0.35496599940717516
1400 0.6734606581011671
1785 0.6026921943689525
Bratislava 1
Capital 0.2708580145994717
Daph@@ 1
Meh@@ 0.5311516062274756
Siv@@ 1
Titanic 1
eling 0.31857394957553575
i. 1
lim 1
ril@@ 1
yt@@ 0.7267062042113649
özü 1
Dep@@ 0.3788510200113222
Indre 1
Olom@@ 1
hist@@ 0.6471236326244376
sous 0.025764322755245556
virgin@@ 1
Anatolia 1
Borussia 1
Engel 1
Gay 0.6723003390602951
Johannesburg 1
Olympia 0.884633647883128
Rice 0.5405875624678678
alti@@ 1
anov 1
oya 0.8528046545799967
sack 1
trus 1
İzmir 1
32@@ 1
Irwin 1
Kron@@ 0.39805433489977116
Vau@@ 0.553796276166526
Winston 0.7053272263044705
fid@@ 0.6911828069112856
hya 1
iden 0.1355334283539979
rian 0.48614276537443224
258 1
Bradley 0.5654077659271873
Catalonia 1
Ces@@ 0.8371137167254633
Gand@@ 0.8128240912674397
Heath 0.7559663829548762
Kids 0.5965606365706341
Sham@@ 0.6838077349891019
bull 0.7208854306228014
kay@@ 0.6066391053294706
odus 1
phosphate 1
umi@@ 0.7366057306034188
Bech@@ 1
Dordogne 1
Truman 1
modes 0.6433200186534226
sou@@ 0.10130618819194133
suka 1
3,7 1
Choice 0.665340813148152
Dresden 0.25712684623722337
Mart 0.43311563137430714
Riga 0.7729172626592992
Rodríguez 0.3298146390289698
Undertaker 1
Wend@@ 0.7428885499287224
iger@@ 0.5521995197283798
-- 0.48884952613012295
239 1
245 1
Bremen 0.33505887730692135
Pinus 1
Sullivan 0.4055948685968577
Wonder 0.7873026455421914
allas 0.6571407116396866
eleg@@ 0.36924690034848784
twe@@ 0.9107656206215496
ysis 0.7357047991608119
Chiba 1
EL@@ 0.49514693812683674
Gates 0.8869349363278387
Kaf@@ 0.8689273239226986
Knox 1
anza 0.29881622958266824
pei 1
plas@@ 0.32838874401652873
pole 0.2581991867571238
2030 1
Beth@@ 0.49595246814286087
DB 0.4961145218144353
IE@@ 0.6185793638919672
Kud@@ 1
Psittac@@ 1
Troy 0.7658914462503528
Wr@@ 0.5750292460226796
ador 0.0602706557603925
lyr@@ 0.5967742493683448
vip@@ 1
Amiens 1
Bach 0.2901406663154784
Biz@@ 0.6742130831725692
Johan 0.5923747530957113
Wad@@ 0.6779257452298569
inaria 1
nos 0.172170717469998
rana 1
249 1
EM@@ 0.47466399401262727
Flow 1
Krishna 0.8250397505199406
Mant@@ 0.5709647114387363
Richardson 0.5634055233280315
aun 0.41107566369627885
schw@@ 0.14992357774417106
Łódź 0.7825332142192832
Again 0.5540656423480373
Fisher 0.4808462150287237
GHz 1
Vand@@ 0.7729428893198363
Vinc@@ 0.8705738355191539
chev@@ 0.3611621104142649
cs 0.25708042869828396
ever 0.055912437643587234
fiel@@ 0.654542036147122
hei 1
its@@ 0.43843587534661704
tuber@@ 1
unov 1
vag@@ 0.7031844766470281
KB 1
Oph@@ 1
Pasha 1
aldo 0.4771448858619606
ester@@ 0.3001821255458881
Chad 0.8190831540894534
Diamond 0.49399231300438945
Flash 0.6786688991026899
Hara 1
bric@@ 1
dit 0.08370598117378875
namo 1
odont@@ 1
sug@@ 0.41316834786864376
tiques 0.2622283737276031
32.@@ 0.9682944736301762
Agar@@ 1
Hero 0.68531272182589
Igor 0.8353918650368337
Kost@@ 0.4646674729050939
Lucia 1
Wolfgang 0.2868607091159052
bai 1
gas 0.11325245214342784
ệ@@ 1
2D 1
Heb@@ 0.586174317973202
Lebanon 0.49809996578531907
Motors 0.5767886168434367
Osh@@ 1
bio 0.3463809026044386
rat 0.12934293105335198
Hannah 0.7254397650455165
Marc@@ 1
Parma 1
asse 0.15658342724134794
bab@@ 0.4414246300194949
chio 1
dar 0.11621387865639393
ild 0.6183906531925644
sex 0.1515287535450686
té 0.1353708064194217
0,7 1
301 0.9399277979427028
Baş@@ 0.9795210565128968
Conference 0.10616975652141271
EST 1
Francis@@ 0.8012109201600863
Reynolds 0.5659061475773115
Shan@@ 0.4836814535590232
Winter 0.15024447949012917
leton 0.4201022305467297
Adon@@ 1
Blü@@ 0.8496165247247104
Curtis 0.5379394312905803
Seven 0.3153076157556843
Tao 1
Xi 1
ardia 1
blan@@ 0.44860524299431154
heim@@ 0.39795130384844923
tank@@ 1
Brook@@ 0.6671568642219808
Dres@@ 0.7672637327763987
Gate 0.49599033772398776
iPad 1
lian 0.800836523474444
sanc@@ 0.45064206515920574
1780 0.49474255310205134
263 1
Ghost 0.670906382857439
NK 1
U21 1
age@@ 0.29331341055640725
ahn 0.4679311093331377
sonar 1
ulia 1
ỡ@@ 1
2,1 1
Abbas 1
Hz 1
Stur@@ 0.617544356555587
Tes@@ 0.48339914424307195
Xu@@ 1
comune 1
eko 1
hia 1
pist@@ 0.33943256067131505
uter 0.29387225400515193
Matsum@@ 1
Patr@@ 0.2622385297165694
Pete 0.4847965249924636
Ring 0.34363190976819435
Stam@@ 0.6684786192978259
first 0.005145958421351164
methyl@@ 1
oshima 1
rav@@ 0.4019726114735061
Gou@@ 0.5853739614176887
Nou@@ 0.9657289292362053
Trabzon 1
bran@@ 0.3020749768921813
fire 0.06932876831041185
gui@@ 1
ocamp@@ 1
阮@@ 1
3,8 1
Baldwin 0.6816535992211193
Beng@@ 0.45519484929992116
Bron@@ 0.5945948531143679
Canc@@ 1
Eleanor 0.8570904293373188
Hali@@ 1
ICAO 1
Technology 0.15446225535636374
Wade 0.8374185001862826
alaya 1
ubia 1
umba 0.807195697417682
山@@ 0.14031271849203902
216 1
Cardiff 0.5379159422244931
Hash@@ 1
Let@@ 0.38908482753002177
Marcos 0.5445517435149381
aven@@ 0.49106601578186193
bet 0.5817986462930065
cea 1
data 0.07681746713555458
edra 0.6005443336554411
film 0.011960236235621735
lev 1
sman 0.3767995273283862
History 0.028575965560327432
LM 0.8119070522096344
Tobago 1
get 0.06625962216607839
metall@@ 1
polit@@ 0.7098141462503108
rhy@@ 1
410 1
Arab@@ 0.26787376236723487
Bordeaux 0.3757515805794863
Davies 0.49602659856520476
Evil 0.828320381021416
NS 0.3632177799908049
dek 1
kale 1
ongo 0.5633748445797955
pedi@@ 0.4473808905030838
31,@@ 1
Lok@@ 0.4514788652933543
Rain 0.848582439057702
True 0.6571890152589833
isto 0.7331308570222437
nhi@@ 1
self 0.08034869008673413
Auto 0.4024716447636733
Buckley 1
Daryl 1
Orléans 0.47164381068926875
Rainbow 0.8987663591100453
SH 0.6243888038092308
SV 0.2540943956555863
Wong 0.8690864272015075
jar@@ 0.5119282744553387
Öz@@ 0.7579570345504703
山 0.08470504953213596
Basel 0.364963441725045
Freedom 0.3426633752988851
Haut 0.44615895595743427
Holocaust 0.6519696439042232
Joy 0.7527506080806634
Mercedes 0.35067376610311807
Mo 0.9162354704687177
Night@@ 0.6838936087600725
basis 0.12630566348405836
cast 0.09159113390557219
ffer 0.39296850660901306
tal 0.11556177633673051
timestamp 1
ydr@@ 1
500@@ 1
80.000 1
Guil@@ 0.45085392364114446
SR 0.19069117681151793
Yonne 1
seg@@ 0.297406170351353
thys 1
ńska 1
Gladi@@ 1
González 0.2925613105396414
Isère 1
Lin 0.8137138948875737
Ov@@ 1
Tesla 1
aul 1
aş@@ 0.47315434433743725
brand@@ 0.447508031626532
cent@@ 0.39475417879947083
ensky 1
glomer@@ 0.8681641879006018
lich 0.03823827338529561
tv 1
Escobar 1
Jazz 0.19448284211829006
Kingdom 0.07749679833252957
ML@@ 0.48603904082958715
Nig@@ 0.8936796551779789
Yur@@ 1
anlı 1
azar 0.47622863614648364
bour@@ 0.3665337269476096
console 0.7766997432768749
det@@ 0.08176471090299701
issi@@ 0.9425099799505595
之@@ 0.08183248426080877
285 1
Andrews 0.5198495026196068
Descartes 1
Hopkins 0.560946563783118
Law 0.09864599054396703
Metal 0.29875676167699755
PG 0.7082211163471578
PI 0.6720618793475639
abor@@ 0.19077248878780267
arga 1
ilov 1
inj@@ 0.3389892903437548
Avi@@ 0.5480361097726356
BB 0.5100825221767099
Flu@@ 0.3490534528407278
Gü@@ 0.5816704264939357
Paul@@ 1
Valle 0.3875069251573618
hol 0.6860812887257942
ja@@ 1
1763 0.669806222248516
3DS 1
Barack 0.8646805947892829
Devon 0.6040516563032216
Kerala 0.4769676774051454
Krasno@@ 1
Nakamura 1
Paraná 1
Vasil@@ 1
Viktor 0.735491270868286
adam@@ 0.9225216489535022
atur@@ 0.2540013607960455
contributor 0.8264244978759416
quai 1
Gaza 0.806140491352708
Helsinki 0.4403238826490819
Indi@@ 0.3486012935579278
Joel 0.6033577450319685
Public 0.09556995691384639
Spl@@ 0.8774373901948452
Swe@@ 0.40212162464896106
alo 0.42141895665610957
ayak@@ 1
inger@@ 0.2946617404333392
pes@@ 0.29258115227616494
tek 0.4249123439729604
BL@@ 0.9838168048130682
Bon 0.7545549908386116
Electronic 0.6557844998319771
Hippo@@ 1
Malay 1
Senna 1
color@@ 0.3479711609520123
ān 0.7527055913512618
243 1
Ard@@ 0.6396518580144643
Blanco 0.739088927153074
Monster 0.7602208769763686
alma 0.695418114691211
denti@@ 1
nikov 1
prom@@ 0.10759824997855794
ň 1
Block 0.42673182702469525
Britney 1
CoV 1
LD 0.8774721597440647
Plant@@ 0.5053780073917926
aku@@ 0.6088048273815768
alu@@ 0.8778914411659609
asso 0.8682388116657269
escu 0.4438376621961258
286 1
9,5 1
Auguste 0.38888229052490136
Bennett 0.4389121891703525
Kali 1
Lorenzo 0.391945271676593
Orton 1
andal 1
arak 0.3979706643008893
ecr@@ 1
gelen@@ 1
imia 1
lak@@ 0.6994504111128688
1A 1
Lisbon 0.9083097622552342
Philipp@@ 0.7306279594710134
Seth 0.9474910150596649
aburi 1
afric@@ 0.7530746252944898
stream 0.19198062549951334
Concert 0.733300273433923
Kuch@@ 1
Petit 0.4330681113543428
Thymus 1
annul@@ 0.6869950757674729
chis 1
itia 1
oğlu 0.47320587639613504
quist 1
taş 1
vill@@ 0.2544338906247007
242 1
4.0@@ 1
501 1
Bieber 1
Chic@@ 0.5241554569429663
Jack@@ 0.5404399987061613
Marketing 0.7516283705360305
Poir@@ 1
Rang@@ 0.4201313521193775
ager 0.11282442217485544
heli@@ 1
nik@@ 0.7006881086010293
Aconitum 1
Ib@@ 0.5312925335535733
Kiss 0.7004458903075147
buri 1
hisar 1
kirchen 0.39157957084822803
niv@@ 1
pher@@ 0.8678525247514703
tura 0.3179899936970035
urs@@ 0.8059306271244837
HF 0.4113018631214218
Hubble 1
Kiss@@ 1
Larry 0.3551216741556147
Malatya 1
Wake 1
elly 0.35376956552407307
pling 0.49569080442527264
quis@@ 0.7476332733338539
sten 0.0610293105328858
tang@@ 0.7545930924856317
Ani@@ 0.9584572172038407
Eis@@ 0.21300296697124818
Heg@@ 1
Ic@@ 1
Jub@@ 1
MD@@ 1
Port@@ 0.42893341842376564
Shield 0.7512182303608951
Xer@@ 1
auli@@ 1
eres 0.3067662420504977
geon 0.4414496746088155
hun 1
lem 0.32361349117791505
point 0.031431616461173734
1768 0.7187913899434143
Card 0.7667485881351235
Friends 0.4158807064747195
Ingrid 1
Ocean 0.22106426105657073
Riz@@ 0.8482495047412207
bog@@ 0.45658128422268546
cla@@ 0.41916407626790386
251 1
Antonius 1
Benfica 1
Erzincan 1
atorium 1
enton 0.4580327531505593
trag@@ 0.12211464573242156
Bus 0.3735691490844973
Estr@@ 0.5559712995331946
Films 0.23031399187840823
Julie 0.4900630204897652
Leslie 0.5041747828598893
Rollins 1
Tun@@ 0.29192632095717574
ador@@ 0.492034247511358
flag@@ 0.38515675480667405
iman 0.7015930903322316
yun 1
Jake 0.590727453220581
Kingston 0.4847346494883911
NC 0.5811932602664476
UI 1
https 0.5769025053770288
sé@@ 0.12841913320797688
陳@@ 1
1781 0.6226779118040306
French 0.03134514842461192
GT@@ 0.37679392350171675
Hancock 1
Hes@@ 0.7666576328310925
IATA 1
Somerset 0.48535055948844424
alina 1
sad@@ 0.4735344799668199
username 1
35.@@ 0.9389757698108715
A.C. 1
Claire 0.4742231992210811
Giresun 1
Jonas 0.738015679307562
Mumbai 0.529620153673052
Planet 0.5584587970335595
Tonga 1
ağı 0.8770190866279963
cana 1
core 0.17739378589638266
ideae 1
leh@@ 0.462983411785567
ân@@ 1
295 1
Dog@@ 0.6044491663172048
Gibson 0.4883178626965208
Lah@@ 0.6058192456681336
N1 1
Ottawa 0.351232805960763
Salzburg 0.4785021672910815
allo 0.47907962744647214
amu 1
asma 1
ensa 0.5915350009362631
trap@@ 0.8310664296449222
Andal@@ 0.7954907676501629
Bash@@ 0.9696528229030188
Gujarat 1
Kara 0.9208256754255983
Mong@@ 0.5220687424183249
Nara 1
Peg@@ 1
Plaza 0.28185554177532746
Watch 0.5606274916503695
anie 0.3490011934154846
cık 1
mel 0.4119705503921581
Cov@@ 0.4726916747056424
Deg@@ 0.5148761038086559
Elmer 1
Machine 0.43032294983355507
Mans@@ 0.6795979742542199
Senegal 0.8859740132460947
Village 0.20203671216531197
Wester@@ 0.5268497322969535
elor@@ 1
mê@@ 1
ose@@ 1
oslav 0.8817940690121837
yurt 1
Cali@@ 0.6526575669740048
Rostov 1
Tatar 1
Toc@@ 1
Ya@@ 0.9431067898831943
bain 0.9043859322807208
code 0.11196122109804531
coni 0.878086194338233
nin@@ 0.5729172187034264
張@@ 0.2710749458100993
Adıyaman 1
Part 0.31271238892252995
Roth 0.7435584510378345
eke 0.4583638649354886
estra 1
opar@@ 0.8034474334107842
1778 0.5831083763386607
Anac@@ 1
Blair 0.6298957773270906
Eun@@ 1
Fayette 1
Kann@@ 1
Kobayashi 1
Nicole 0.6625759628167843
Pont@@ 0.9929676753654199
Robot 1
byte 1
coronavirus 0.9681739822354963
epis@@ 1
esma 1
ien 0.05953221389979875
252 1
Cena 1
Place 0.2228558734794735
angol@@ 1
bun@@ 0.5124498369481836
gut@@ 0.6155906989971439
jima 1
Constantinople 0.4951374530314852
Engel@@ 0.7089160476380304
HE@@ 1
Rhiz@@ 1
UR@@ 0.6148050724078489
arii 1
austr@@ 0.6188357872179175
bad@@ 0.2009286897766659
coll@@ 0.20665361001252197
emati@@ 0.636561471524369
gee 0.5213855172551163
nil@@ 1
scope 0.332135546409149
thel@@ 0.8559282768127344
wall 0.1313856114455334
ãm 1
257 1
Brad 0.6639708992651508
CI 0.4750369558021724
Carroll 0.6178022142167646
Fres@@ 0.3684080580447296
bes 0.14336440984692161
irō 1
ize 0.1751144017909081
233 1
33.@@ 0.8284985035841385
Josef 0.23540301233680527
Susan 0.3621934502612829
^ 1
ainville 1
aray@@ 1
arion 1
berger 0.1452962950310272
ele@@ 0.7725939020542523
haw@@ 0.507355109306411
nerv@@ 1
phin 0.6039295296320044
shu 1
302 1
Aff@@ 0.2807173570754569
Gott@@ 1
Hedgehog 1
MacArthur 1
Shōnen 1
neus 1
patr@@ 0.1703041045774955
tax@@ 0.2448622344684931
1796 0.42747783366138
DR 0.32782871400108204
ect 0.1067092536577525
emann 0.35588964968468534
jung 1
num@@ 0.4263657899665291
race 0.051890025180140305
tras@@ 0.18952769377753087
侯 1
Ches@@ 0.846057526973269
Falls 0.2776421147141222
Kara@@ 1
Pale@@ 0.6753416702595115
e.@@ 0.6048645358819846
iza 0.9087896821509457
tive 0.05092346196033373
ward@@ 0.8489836554170233
Ê 1
éri@@ 0.19254555667674295
Andreas 0.2817014516754548
Dit@@ 1
ES 0.4717431256756747
Eck@@ 0.6295405729413798
Fig@@ 0.41543868311998394
Fitz@@ 0.44990264648162104
Mindanao 1
Run@@ 0.43801373417346423
Schult@@ 1
cog@@ 0.8615434340452118
obsol@@ 0.796669034551393
ping@@ 1
3,4 1
560 1
Acer 1
Fernández 0.32149750537483895
Fy@@ 1
Galli@@ 0.7558303472896248
Lagos 0.7462274884771136
Matt@@ 1
RIAA 1
Seng@@ 1
Webb 0.7086530126919294
ank 0.41190380436004315
berg@@ 0.19880128931456104
bot 0.2785954761135741
burn 0.28352658107476736
cara 0.3676793686356109
deci@@ 0.7171518495284462
idine 1
tram 0.7129155584606702
trim@@ 0.9073960249372044
vesti@@ 0.5604816127906967
ß@@ 0.11856926879262712
Albion 0.7955127755984398
Countdown 1
Derby 0.3587837783658846
Janet 0.6968114703800237
Pf@@ 0.1803740085551992
gli@@ 0.3117325303011286
music 0.02425763390261834
Angela 0.6246900315553067
Cl2 1
Lower 0.2784975978548263
Math@@ 0.5053905063683761
Percy 0.6750019269163715
angel@@ 0.5710395765654125
bad 0.17544710776516362
garh 1
law@@ 0.18193025367335738
ourt 0.9044122265671664
pas 0.01770056360974892
uko 1
vs 0.5443213084557498
241 1
Acon@@ 1
Adam@@ 0.9549128783524297
Bok@@ 1
Kawasaki 1
St.@@ 1
Steg@@ 1
amis 0.36266813184045965
astra 1
endra 0.3235814387805154
AZ 0.7205010704250657
Carmen 0.3863611752514692
Lamb@@ 0.5268857360443238
Suk@@ 1
UT@@ 0.6773100174731957
ische 0.02195232482718391
zav@@ 1
BN 0.8766436641386914
Eddie 0.33857207217025487
Mega 0.8083449960253218
WT@@ 0.7409791070407833
hach@@ 1
lib@@ 0.3557753029004076
noi 1
organ 0.2918666299201002
rocket 0.6413786142811994
ucci 0.795788180553084
zam@@ 0.8236772525759843
Hug@@ 0.6736864699892319
Rich 0.5909311754673361
TH 1
ambo 0.8634363467858428
ede@@ 0.610264431988661
ile@@ 1
pru@@ 1
520 1
Barbados 1
Classic 0.29189892095079484
NKVD 1
Nest@@ 0.7324126726147877
Pietro 0.5622024303432124
Salt 0.45065140696424155
bah@@ 0.5363154737405273
dost@@ 0.993752032747811
lium 1
nice 0.5417489638405774
occus 1
olin 0.6840705621371654
386 1
Buffalo 0.3147854670969966
Castell@@ 0.6915741322585532
Dahl@@ 1
Dmitri 1
GE 0.5369980180798639
IT 0.29228115712138575
Oda 1
beck 0.35889680038799254
essa 1
iola 1
were 0.0031400817004621066
Dalm@@ 0.9486868056029061
Fed 1
Guar@@ 0.5586562094285854
Shig@@ 1
al. 0.9008852655638876
aper@@ 0.4789097597802148
mann@@ 0.31361528427661667
tay@@ 1
upta 1
zyn 1
ø 0.7538902204973292
Spielberg 1
blues 0.4413049635919294
mend@@ 1
ocon@@ 1
uo 0.49721522623432873
ța 1
Observatory 0.7251160705103423
Teresa 0.504532011551995
Yah@@ 1
apos@@ 0.5193124745417881
ique 0.0799092126090678
ktop 1
sul 0.6219172653764456
tuy@@ 1
460 1
GPS 0.8815664136972755
Marino 0.8929432257674963
Mu 1
Parad@@ 1
Yū@@ 1
Zürich 0.2697628970666103
amata 1
iki@@ 1
illo@@ 1
kis 1
master 0.10197344961427357
318 1
Alain 0.39796085435542267
Ef@@ 0.6542134762041328
Flying 0.447294560639577
Jupiter 0.6339153777450244
Morav@@ 1
Saddam 1
Va@@ 0.5091755828947261
acles 0.6342568099124434
mare 0.6391703754486249
penn@@ 0.7103996286520693
Étienne 0.3743007723536229
Aurora 0.7675310246288065
Becker 0.6971743588220423
Development 0.10813870960884042
Fame 0.1846411479753547
Gat@@ 0.3595674478163893
Harper 0.536661819975838
Hud@@ 0.738032500028972
Hung@@ 0.7543691289047628
Lay 1
Mach 1
asto@@ 1
idas 0.10093598887494454
rin@@ 0.8254583565552531
uss 0.23481116441702823
1740 0.704884752977624
231 1
Aube 1
Bund@@ 1
Dak@@ 1
Gong@@ 1
Mother 0.4097457157599106
Toledo 0.40400895524985786
Webster 0.7418571356776825
dice 0.16775644500098838
elleri 1
ä 0.39040803701093185
1774 0.5803732133171037
950 1
Canon 0.7886586086273218
Lorentz 1
Noel 0.8266062467600229
Oak 0.5062228958278479
Reb@@ 0.2294146911242886
UN 0.26444719838865044
aves 0.14538125179107234
ement 0.021641195233057957
jun@@ 0.7314964644316165
lington 0.5595916203923376
mun 1
中@@ 0.04864958326842362
307 1
390 1
Cow@@ 0.5008889352336706
César 0.3589400263640006
ET@@ 0.4868148710624866
Gó@@ 1
IR@@ 0.3993065833955374
KA 0.7440306121148649
Kid 0.5749501165950707
Klo@@ 1
Luca 0.8713175602751682
Oblast 0.2831935417877801
Rok@@ 1
Salamanca 0.8367684370453286
Side 0.3390222840232637
Veg@@ 1
bb@@ 1
tris@@ 1
Lew@@ 0.6012818571341587
Pie@@ 0.9662231496896113
Pol 1
Trento 1
ebe 0.4381054755827525
entina 1
gall@@ 0.6105505836858681
ilius 1
mani@@ 0.4249107490469191
和@@ 0.20147193054474105
Castil@@ 1
Flanders 1
Gud@@ 1
Himmler 1
IB@@ 0.41933028474265455
Ment@@ 0.787756601524683
Moses 0.5425224613201888
O4 1
Steiermark 1
AO@@ 0.7797468119467462
Gaulle 0.8639812360836818
Jamie 0.5488288601629026
Philos@@ 1
SF@@ 0.4414342965599049
Ye 1
eyn 1
idon 1
neph@@ 1
sper@@ 0.42620660115107234
thre@@ 0.3623060426853383
İn@@ 1
℃ 1
西@@ 0.06498796473000557
323 1
Bayer 0.9502852165188751
Brunswick 0.3555480819969659
Firefox 1
Halifax 0.5643563083852665
Jaw@@ 0.8868735747482556
Ten 0.25253206810977646
Wight 1
aco@@ 0.9042706282238602
dow@@ 0.3298080398630685
liano 1
module 0.6697520650350176
omat@@ 1
podi@@ 1
ıç@@ 1
。 0.002065743852600279
市 0.07488344743672817
001 0.713905097332926
1767 0.7749131867391527
Denver 0.3425813836123253
Monica 0.6720753075055099
Odessa 1
Randy 0.6482157557710414
alk@@ 1
face 0.04678354805080031
hier@@ 0.2816126460765919
kit 0.6264374104929109
oce 1
sir@@ 0.2818892304803618
530 1
Church 0.03909969290948853
Dae@@ 1
EN 0.6404004442184853
Hoh@@ 0.28490937587695137
Józef 1
Nike 1
Sin 0.08403554545784434
ilg@@ 0.8390284465901627
sim 1
thodes 1
ン@@ 1
Aw@@ 0.6244306406320147
Doc@@ 0.26489599274223613
Eust@@ 1
Jes@@ 0.3733728807509338
Klein 0.388752188429687
Lotus 0.7005132625676185
Meyer 0.3818326699606065
Nih@@ 1
Perkins 0.9053100968582831
Rig@@ 0.4316093546168946
Sait@@ 1
Woj@@ 1
car 0.037604326821698876
clor@@ 1
lina 0.9530168454782338
lind@@ 1
mam@@ 0.42994051758236124
othe@@ 0.9990449268021393
sie 0.008759361674707975
36.@@ 0.8706334200083793
Asper@@ 1
Edwin 0.5008839469957775
Fey@@ 1
Lyn@@ 0.6473497440395356
Suc@@ 0.3009893507170303
Thur@@ 0.44895398915138596
Tip@@ 0.7272962151752111
Za@@ 0.7105468557200861
concer@@ 0.2698957132144833
enga 0.6725046687563401
ism@@ 0.2549551881591372
ory@@ 1
qué 0.1203119865301766
246 1
268 1
94@@ 1
Adana 1
Akk@@ 1
Angelo 0.6316240550674704
Bird 0.4211770272453653
Crim@@ 0.6513491378238756
Kars 1
List 0.06525799468074617
Miss@@ 0.2839079692749528
Sims 1
eber@@ 0.4458646741787534
sau@@ 0.2975288162530498
soc@@ 0.6202794560626663
Ỷ 1
1760 0.6346485351179051
Const@@ 0.7111169342928386
DR@@ 0.5305833955348838
Gif@@ 1
Gül@@ 0.9101377376307482
Ps@@ 1
bel 0.20843163226904124
depres@@ 0.7014527195418689
Genoa 1
H2@@ 1
HBO 0.6436655992790623
Joc@@ 1
Saturday 0.23814336800967478
U.S. 0.03232240361420811
action 0.04623909414604984
adh 1
ambi@@ 0.1421632227284778
ayr@@ 0.7559753423262604
hu 0.4660017074177199
oco 0.8550162101733497
usi 0.9336024908737339
ří@@ 1
Hub@@ 0.7140048079757974
Perth 0.42381981865905594
Prop@@ 1
SO4 1
Teg@@ 1
[...]
