ใน 1211857
ที่ 1011647
และ 1003417
ของ 853546
เป็น 806352
มี 627758
การ 541870
ได้ 532674
" 471980
) 419687
( 416652
โดย 315240
ว่า 271464
. 270632
กับ 268824
ปี 263938
จาก 259069
จะ 253984
ซึ่ง 249279
ให้ 234957
ไม่ 229133
พ.ศ. 227057
ไป 219319
เมื่อ 200893
, 192327
มา 186591
พระ 163628
หรือ 162154
นี้ 161266
ค.ศ. 160906
อยู่ 158388
- 153431
คือ 148400
ใช้ 146159
ก็ 144565
แต่ 142348
เขา 140000
การ@@ 138774
วันที่ 134980
ๆ 133473
คน 131791
ถูก 130040
ส 129607
ด้วย 127410
แห่ง 126898
์ 126052
ทาง 121818
ประเทศ 118821
เพื่อ 113537
ได้รับ 113401
ขึ้น 113231
ยัง 112289
อย่าง 110317
เมือง 106694
2 106295
จึง 103338
ล 99997
นั้น 99424
น 95557
น@@ 95461
1 95056
กัน 93041
ก@@ 91098
ความ@@ 90303
ผู้ 90040
ส@@ 88323
สามารถ 87721
ไทย 87716
ม 85993
ตัว 85542
ถึง 84018
แล้ว 83159
หนึ่ง 82102
3 78984
ด 78578
ทำให้ 78025
ชื่อ 77481
ร์ 77181
สร้าง 76359
เธอ 75795
ก 75232
แบบ 75173
นา 74286
ม@@ 73910
ต่อ 73863
เรื่อง 72872
ด@@ 72813
ทรง 72242
ง 72227
จังหวัด 72130
ตาม 70740
ชาว 68532
ออก 68152
() 68085
เกิด 67993
อร 67397
ผู้@@ 67134
ระหว่าง 66459
ดี 66079
ต 65852
ต่อมา 65419
เพลง 65329
วัด 64491
มาก 63378
ป@@ 63330
ค@@ 62934
อ@@ 62912
ความ 62727
ล@@ 62721
ต@@ 62585
ทั้ง 62369
บ@@ 62362
ทีม 61326
ร@@ 60335
อีก 60323
แรก 59997
ริ 59608
เดือน 58706
ว@@ 58676
ปัจจุบัน 58648
ต้อง 58537
เช่น 58438
ส่วน 58267
กลุ่ม 57780
ทำ 57746
สำหรับ 56907
4 56521
รา 56181
: 55906
พระองค์ 55698
ใหม่ 55649
ด้าน 54974
ลง 54847
กา 54557
ท@@ 54396
ช@@ 54143
พบ 53957
ลา 53204
ย@@ 52261
ว 51942
อ 51725
รี 51576
ท 51391
พ@@ 51362
ค 50968
เรียก 50901
ช่วง 50874
ที่สุด 50269
โอ 50126
อำเภอ 49811
บน 49668
เอ 49220
หลาย 49175
วัน 49053
เข้า 48984
ยา 48880
24@@ 48252
มิ 48038
โลก 48003
ภาษา 47954
จัด 47701
ภาพยนตร์ 47647
หลัง 47512
ตา 47426
ครั้ง 47321
เริ่ม 47311
บ 47227
5 47166
เล่น 46735
พระเจ้า 46346
ย 46227
ร 45628
โรงเรียน 45445
จ@@ 45070
จำนวน 44889
น้ำ 44844
อา 44837
ซี 44826
ไว้ 44792
ตั้งแต่ 44651
ส์ 44512
ใหญ่ 44251
ง@@ 44142
นำ 43934
ฟ@@ 43709
เด 43576
ต่าง 43407
งาน 43173
กว่า 42886
ช 42854
การแข่งขัน 42461
ลิ 42397
จน 42370
– 42204
; 41769
สี 41763
ลี 41633
ราช 41533
ซา 41382
รัฐ 41347
มาจาก 40745
สอง 40375
ภาพ 40354
ณ 39956
ระดับ 39922
พื้นที่ 39902
อื่น 39242
์@@ 39080
อาจ 38608
ห@@ 38155
ทั้งหมด 38140
ฟ 37989
ที่จะ 37964
สมเด็จ 37615
ผ่าน 37579
เขต 37508
จีน 37484
คำ 37467
ญี่ปุ่น 37359
ก่อน 37345
เป็น@@ 37065
เน@@ 37030
นาย 36874
ระบบ 36748
ข@@ 36673
เร 36632
เคย 36487
โร 36312
ประมาณ 36264
เล@@ 36261
โ@@ 36164
มัน 35868
สมัย 35824
ได้แก่ 35819
พระ@@ 35687
รวม 35512
6 35419
รอบ 35320
ในประเทศ 35313
ซ@@ 35303
บ้าน 34782
เบ@@ 34697
เวลา 34674
สำคัญ 34396
มหาวิทยาลัย 34118
เอ@@ 34062
เนื่องจาก 34041
เดิม 33710
ตำแหน่ง 33607
เพราะ 33510
วิ 33448
เพียง 33322
ลักษณะ 33180
วิ@@ 33012
เต 32920
การศึกษา 32837
โก 32833
นัก 32780
สูง 32615
ะ 32507
เซ 32451
คา 32333
ชนิด 32315
กลาง 32228
ชุด 32184
รับ 32111
บริษัท 32095
บาง 32062
บริเวณ 31805
นิ@@ 31656
นา@@ 31641
เท 31640
ชาติ 31581
ประ@@ 31542
ตำบล 31418
-@@ 31375
โน 31284
นิ 31124
เม 31006
"@@ 30990
ย์ 30869
ซิ 30803
(@@ 30444
วง 30405
แก่ 30360
โต 30299
ประวัติ 30244
7 30100
ป 30075
มา@@ 29980
ชิ 29950
อัน 29933
ผล 29929
เม@@ 29916
ฝ่าย 29885
หลังจาก 29859
ฟุตบอล 29688
ทาง@@ 29538
มี@@ 29415
อังกฤษ 29324
า 29109
หลัก 29057
ตั้งอยู่ 28976
ติ 28822
อันดับ 28815
รัฐบาล 28683
เจ้า 28603
เกม 28528
ส่ง 28497
โค 28444
10 28314
ฮ@@ 28188
ร์@@ 28087
แสดง 27982
รายการ 27976
เปิด 27957
วงศ์ 27740
หน้า 27611
ดา 27533
ใจ 27499
ยาว 27464
กีฬา 27431
8 27127
เดียว 26985
อัลบั้ม 26941
เก 26821
อา@@ 26672
แบ่ง 26572
กำลัง 26319
เซ@@ 26296
สงคราม 26227
กลับ 26158
ภายใน 26141
วา 26086
เฟ@@ 26024
/ 26000
องค์ 25932
สาย 25845
ภาค 25776
พิ@@ 25749
ประกาศ 25723
ฝรั่งเศส 25678
สโมสร 25660
เก@@ 25649
เกี่ยวกับ 25619
” 25332
& 25321
กระ@@ 25316
รูป 25251
ปลา 25215
ที่@@ 25139
เว@@ 25104
อาหาร 25044
เป็นการ 24987
อี 24888
ระ 24886
จิ 24718
อดีต 24709
ถ@@ 24703
รา@@ 24696
โอลิมปิก 24673
เสียง 24653
ผลงาน 24550
บา 24527
ฮา 24526
เร@@ 24480
ทำ@@ 24465
รุ่น 24415
่ง 24328
โด 24293
ยุค 24207
ศึกษา 24108
“ 24038
ต์ 23994
หา 23887
รูปแบบ 23835
ชา 23808
ผ@@ 23782
ดังกล่าว 23715
กา@@ 23693
่ 23673
น้อย 23663
สาม 23510
  23469
เค 23437
ล้าน 23384
ร่วม 23364
ซ 23331
ชีวิต 23309
ช่วย 23308
ชาย 23160
คำ@@ 23110
คณะ 23077
of 23020
ตั้ง 23006
ลีก 22914
เหนือ 22902
สุ@@ 22871
มากกว่า 22834
เด@@ 22714
เปลี่ยน 22702
9 22682
ชั้น 22676
บี 22656
เห็น 22548
ครั้งแรก 22539
พรรค 22527
เค@@ 22500
จนถึง 22440
สม@@ 22382
ที 22348
นอกจากนี้ 22320
เดียวกัน 22255
ใต้ 22178
ดู 22102
ทอง 22000
ดิ 21985
อายุ 21935
รัก 21894
้ 21825
ี 21803
ท่าน 21792
โล 21787
เกาะ 21705
ราช@@ 21622
ถนน 21608
เขียน 21606
เข้าร่วม 21577
อุ@@ 21573
ซ์ 21519
น์ 21478
แ@@ 21362
นี 21343
ส่วนใหญ่ 21336
โม 21335
20 21327
ข้อมูล 21308
ตอน 21303
เกิดขึ้น 21179
ลูก@@ 21129
ทหาร 20963
เจ 20932
เป@@ 20911
สกุล 20887
สุดท้าย 20813
ยู 20785
ตน 20764
ประเภท 20720
โรค 20719
เช@@ 20693
หลวง 20689
เดินทาง 20673
นัก@@ 20607
กล@@ 20601
พัฒนา 20598
เอง 20583
อก 20556
พวกเขา 20534
ประกอบ 20485
ก็ได้ 20425
ตัว@@ 20423
มหา 20356
แทน 20264
เท@@ 20257
ฤดูกาล 20256
น้ำ@@ 20255
หญิง 20223
สา@@ 20220
บาท 20213
สัตว์ 20200
ขนาด 20147
มีนาคม 20143
รางวัล 20129
นิยม 20106
สิงหาคม 20098
กองทัพ 20065
แห่งชาติ 20060
ที่อยู่ 20050
สมาชิก 20047
แม่น้ำ 19986
พล@@ 19973
อาคาร 19804
ตุลาคม 19787
ลิ@@ 19760
จ 19728
12 19663
ย้าย 19662
เจ@@ 19655
้ง 19623
ปรากฏ 19571
ออกมา 19561
เข้ามา 19499
อิ@@ 19477
เรือ 19451
กลายเป็น 19441
ธรรม 19440
พวก 19417
ออกจาก 19414
ช่อง 19368
กันยายน 19312
จบ 19216
' 19212
คน@@ 19200
ประกอบด้วย 19196
ยังมี 19147
ด์ 19140
เมษายน 19139
มกราคม 19132
15 19107
ธันวาคม 19074
สาขา 19074
เต@@ 19055
ริ@@ 19044
เลือก 19020
จักรพรรดิ 19018
แต่ละ 18987
), 18983
ประชากร 18966
บุคคล 18956
ออ 18944
อน 18927
พฤษภาคม 18899
ฐานะ 18886
ต่างๆ 18853
น. 18814
ระ@@ 18804
หม@@ 18795
ทา 18773
เล็ก 18762
กำหนด 18742
รับ@@ 18730
หมายถึง 18709
ประชาชน 18707
กรกฎาคม 18699
ชนะ 18673
เมตร 18643
แม@@ 18615
มนุษย์ 18595
รวมถึง 18562
ญ 18547
่@@ 18465
มัก 18440
ทุก 18373
ศาสตร์ 18344
ศรี 18272
แนว 18241
นัด 18161
เพิ่ม 18159
การเลือกตั้ง 18136
ไ@@ 18052
ณ@@ 18026
หนังสือ 18020
โซ 17986
โท 17978
เงิน 17976
ทั้งสอง 17968
ท์ 17934
มิถุนายน 17922
นาง 17841
มิ@@ 17833
ศ@@ 17825
หน@@ 17786
กรุง 17764
อะ 17716
16 17706
อาศัย 17670
30 17658
ไม้ 17640
ราชวงศ์ 17601
ขอ 17580
ยา@@ 17575
ฉ@@ 17565
ลด 17555
นาน 17543
สู่ 17522
พฤศจิกายน 17494
ทั่วไป 17483
หัว 17471
สิ่ง 17466
ธ 17464
เพ@@ 17435
กรรม 17372
พ 17360
หล@@ 17308
อีกครั้ง 17288
พิเศษ 17262
ไอ 17245
สหรัฐอเมริกา 17238
เท่านั้น 17222
สาร 17090
นคร 17059
พา 17046
เอก 16987
กร 16973
ตี 16962
เจ้า@@ 16932
ตัน 16916
กุมภาพันธ์ 16873
ละคร 16856
ยะ 16851
่น 16851
เส@@ 16842
การปกครอง 16836
อิ 16788
ธ@@ 16751
สนับสนุน 16730
ภายใต้ 16649
11 16588
อำนาจ 16454
ดังนี้ 16445
ประจำ 16387
่า 16384
ทะเล 16323
ข้อ@@ 16285
ฯ 16282
คู่ 16224
ิ@@ 16223
โดย@@ 16217
กิ@@ 16183
ชื่อว่า 16178
แข่งขัน 16151
โอ@@ 16146
(; 16067
เครื่อง 16064
ทำงาน 16055
วี 16051
แม่ 16029
พระราชทาน 15998
รักษา 15991
ผลิต 15979
วา@@ 15964
เหตุการณ์ 15960
มั@@ 15938
ใด 15938
ชน 15932
มะ 15908
ลา@@ 15895
19 15876
กิ 15863
ชัย 15854
่ง@@ 15851
สังกัด 15818
The 15817
รวมทั้ง 15809
๊@@ 15780
จากนั้น 15768
ติ@@ 15748
เดอะ 15737
อาร์ 15725
กะ 15695
14 15666
สูงสุด 15658
แยก 15658
เลย 15656
ฤดูร้อน 15635
สุ 15610
18 15562
ร่วมกับ 15525
") 15524
ใบ 15517
คณะกรรมการ 15473
ปา 15470
เส้น 15443
ประวัติศาสตร์ 15419
เสียชีวิต 15412
สัน 15369
เด็ก 15363
ถ้า 15330
บท 15302
จำกัด 15301
ลูก 15289
เรียน 15235
ตะวันออก 15221
รู 15210
ะ@@ 15101
นก 15092
อั@@ 15071
การแสดง 15066
เครื่อง@@ 15063
ทร@@ 15035
บา@@ 14979
ขาว 14965
เอส 14962
เ@@ 14925
ยังคง 14915
พา@@ 14902
เรา 14899
เล 14858
ญ@@ 14832
ฉบับ 14825
กลับมา 14822
แอ 14792
ดาว 14781
ป่า 14767
หาก 14763
พันธุ์ 14739
อาการ 14693
อง 14677
ิน 14660
รั@@ 14641
จริง 14619
บุตร 14618
กู 14607
หน่วย 14575
ยุโรป 14533
ไฟ 14491
ต้น 14471
ฮิ 14470
ประตู 14439
มือ 14429
เข้า@@ 14404
กฎหมาย 14366
โบ 14358
13 14353
​ 14339
็@@ 14317
ชิง 14311
คล้าย 14302
คิด 14269
จุด 14226
ผล@@ 14207
นักแสดง 14110
อม 14033
คอ 14018
ศ 14013
สภา 13982
นับ 13970
ซู 13921
เฮ@@ 13879
สาธารณรัฐ 13872
ห 13841
วั@@ 13799
เข้าไป 13799
25 13775
รอ 13755
คา@@ 13752
รถ 13750
กร@@ 13726
เหล่านี้ 13704
ี@@ 13695
ขนาดใหญ่ 13694
ฐาน 13681
ให้@@ 13676
ตะวันตก 13673
17 13635
อินเดีย 13625
เจ้าชาย 13618
จำหน่าย 13609
เป็นที่ 13597
ดำรงตำแหน่ง 13592
ออกอากาศ 13572
โม@@ 13571
คะแนน 13570
ชัน 13567
ที่สอง 13544
เป็นหนึ่ง 13478
โครงการ 13476
ดี@@ 13470
% 13449
กษัตริย์ 13447
the 13436
เข้าสู่ 13430
ศาสนา 13421
ปลาย 13397
ราย 13391
สหรัฐ 13389
ละ 13382
โย 13381
สังคม 13372
ก่อตั้ง 13371
งาน@@ 13297
ตรง 13264
นะ 13247
แมน 13234
ตนเอง 13232
เป็นต้น 13221
ภายหลัง 13195
เสีย 13188
วิทยา 13168
วิธี 13164
วง@@ 13162
gt 13156
ตะ@@ 13156
ีย@@ 13090
ครอบครัว 13080
า@@ 13077
จนกระทั่ง 13072
คณะ@@ 13053
lt 13051
ห์ 13051
แดง 13025
นาม 13009
ปัญหา 13006
ใกล้ 12984
คุณ 12941
ออกแบบ 12916
สถานี 12903
แสง 12876
สถาบัน 12864
ท่า 12847
จำนวนมาก 12832
สนาม 12808
จี 12779
เอา 12770
ส่วน@@ 12768
ดำ 12760
เนีย 12746
การพัฒนา 12745
มณฑล 12738
พัน 12732
สี@@ 12725
เซลล์ 12712
หา@@ 12698
อาชีพ 12698
ไฟฟ้า 12676
ราว 12675
ต่อไป 12671
จา 12620
ระบุ 12613
พล 12590
สอน 12583
้า 12573
คล@@ 12572
ตระกูล 12572
ดินแดน 12551
บิน 12544
บิดา 12532
วาง 12512
เทพ 12490
อย่างไรก็ตาม 12446
สั@@ 12437
สี่ 12435
ิ 12425
ยก 12408
้า@@ 12406
24 12405
เจ้าหญิง 12404
ลำ@@ 12399
ปล@@ 12398
กิน 12394
ดิ@@ 12380
มากขึ้น 12378
้น 12373
เสด็จ 12323
อิน 12316
อักษร 12315
เชื่อ 12310
แบ@@ 12307
ซา@@ 12306
ธรรมชาติ 12302
วิทยาลัย 12298
21 12285
เอเชีย 12285
ส่วนหนึ่ง 12260
ุ 12260
บิ 12259
เซอร์ 12243
ดนตรี 12238
อง@@ 12223
จัดตั้ง 12218
จุด@@ 12215
เย@@ 12210
หลังจากนั้น 12179
มาร 12177
เวอร์ 12172
ในขณะที่ 12169
หิน 12165
ตา@@ 12160
มักจะ 12129
นอก 12126
ก่อ 12092
สมาคม 12083
อน@@ 12045
แปล 12032
ต้องการ 12024
พี 12013
เฮ 12004
อด 12000
คลอง 11996
เหมือน 11989
งา 11953
ตัวเอง 11930
พระยา 11912
อเมริกัน 11903
เก็บ 11902
ตาย 11856
กว้าง 11843
ประธาน 11795
หน้า@@ 11783
แผ่นดิน 11782
ลาย 11778
รู้ 11766
วัฒนธรรม 11758
แม้ 11754
เพื่อให้ 11748
อีกด้วย 11712
ครั้งนี้ 11711
รัสเซีย 11702
เกิน 11700
โดยเฉพาะ 11696
แก้ว 11675
ชี 11665
วิน 11638
แตก 11636
กั@@ 11629
แพ้ 11612
ดังนั้น 11608
พม่า 11607
ห้อง 11607
กรม 11589
ศูนย์ 11589
.@@ 11582
ฟ้า 11572
อากาศ 11571
ธุรกิจ 11561
ควบคุม 11557
อาจจะ 11555
ขาย 11537
ิง 11533
ดอก 11525
มหา@@ 11524
ติด 11513
วน 11511
ศักดิ์ 11493
ฝ@@ 11488
เฉพาะ 11483
วะ 11473
พยายาม 11428
ยอด 11405
ตาม@@ 11400
ู 11374
ดูแล 11370
ค่า 11344
ดา@@ 11339
ต่อ@@ 11333
อร์@@ 11323
ปา@@ 11300
รอง 11300
เหลือ 11299
เยอรมนี 11289
ตรา 11255
ม. 11245
จักรวรรดิ 11243
ศิลปะ 11235
ข่าว 11221
ตุ@@ 11208
ภา@@ 11183
จิ@@ 11168
เพ 11163
เยอรมัน 11163
บันทึก 11152
นายกรัฐมนตรี 11138
อัล 11128
ก่อสร้าง 11127
เลือด 11107
กิโลเมตร 11101
เก่า 11099
โฮ 11099
สั้น 11089
ทำการ 11087
เกี่ยวข้อง 11087
อาณาจักร 11075
โร@@ 11071
เน 11059
0 11053
วัง 11051
มีชื่อเสียง 11027
สุด 11016
วัน@@ 10998
เทคโนโลยี 10997
ยิง 10983
ลำดับ 10972
ปั@@ 10961
ฉาย 10938
เลอ 10930
หมู่ 10927
ศึก 10924
หน้าที่ 10917
เชิง 10906
บท@@ 10904
รบ 10895
อื่นๆ 10891
พืช 10876
สถานที่ 10837
เป็นทางการ 10830
ป้องกัน 10825
ภูมิ 10819
โบราณ 10815
ไซ 10806
ล์ 10804
พร้อมกับ 10793
รายชื่อ 10781
วิทยาศาสตร์ 10772
สาร@@ 10767
ู่ 10766
มากมาย 10751
ษ@@ 10737
สถาน 10723
ครู 10720
ย่อย 10720
วิหาร 10711
ศิลปิน 10694
กรม@@ 10678
เริ่มต้น 10663
เลี้ยง 10661
ตัวละคร 10648
กอ 10645
กรุงเทพมหานคร 10639
กุ 10624
พอ 10623
หมู่บ้าน 10621
22 10619
ข้าง 10595
ว์ 10582
แชมป์ 10556
แซ@@ 10552
รุ 10546
ยุ@@ 10545
ค่าย 10543
ตะ 10533
เปิดตัว 10518
ปกครอง 10516
23 10510
สวน 10508
โก@@ 10507
พร้อม 10500
้น@@ 10492
กล่าว 10488
นักเรียน 10471
แท@@ 10455
ตร@@ 10414
ทำหน้าที่ 10412
ใส่ 10405
s 10395
ซิงเกิล 10381
หลังจากที่ 10345
จำ@@ 10344
เอ็ม 10331
โจมตี 10325
ไท 10302
ลง@@ 10287
คดี 10267
อุ 10254
เป็นที่รู้จัก 10235
ซิ@@ 10234
วิชา 10212
ดำเนินการ 10206
เรีย 10186
อิตาลี 10178
ลู 10130
อล 10113
ฟา 10060
ทิ@@ 10051
ียน 10047
าน 10043
นักร้อง 10038
จัด@@ 10036
กี 10035
สภาพ 10034
ความสัมพันธ์ 10007
โล@@ 10004
ความสามารถ 9994
อู 9976
้@@ 9973
บุ@@ 9926
พระนาง 9916
23@@ 9906
สาว 9906
). 9899
ราชการ 9886
= 9885
นอ 9864
่า@@ 9850
สเปน 9841
ไอ@@ 9832
รู้จัก 9820
ต่อต้าน 9818
ไร 9817
กล่าวว่า 9803
ละ@@ 9802
ขยาย 9796
ถือ 9796
พ่อ 9796
การผลิต 9794
สำเร็จ 9792
ตลอด 9765
ของ@@ 9747
สิทธิ 9716
ดิน 9693
ตำรวจ 9685
ู@@ 9681
ปริ@@ 9670
ทำลาย 9667
แก@@ 9652
สัญลักษณ์ 9643
ชาว@@ 9636
รัฐมนตรี 9629
รี@@ 9628
รับรางวัล 9625
ปาก 9607
นี@@ 9589
เดิน 9577
ออก@@ 9576
ชั้น@@ 9575
ค่า@@ 9574
สัญญา 9571
ขนาดเล็ก 9562
กอง 9542
จัดการ 9526
ชา@@ 9496
สมาชิกสภาผู้แทนราษฎร 9496
แจ@@ 9491
ิน@@ 9485
การเมือง 9480
ผู้นำ 9478
วาง@@ 9468
อย@@ 9468
โทรทัศน์ 9464
ธิดา 9454
จู 9451
วร 9443
สัปดาห์ 9433
ตัวอย่าง 9422
สหราชอาณาจักร 9416
(" 9413
โครงสร้าง 9397
บั@@ 9396
26 9389
ชน@@ 9376
ต่างกัน 9376
ได 9371
บุญ 9363
28 9332
แม้ว่า 9324
ปิ@@ 9296
อร์ 9276
แพทย์ 9265
ฝั่ง 9263
รายงาน 9263
หลักสูตร 9237
ประธานาธิบดี 9228
ทศวรรษ 9215
ภูมิภาค 9215
ทำให้เกิด 9214
แรง 9214
100 9199
่น@@ 9194
ชอบ 9188
สต@@ 9175
ตก@@ 9172
พูด 9168
รุ@@ 9144
ต่างประเทศ 9125
ทราบ 9122
บางส่วน 9117
เชียงใหม่ 9103
เศรษฐกิจ 9095
ภ@@ 9094
สิบ 9084
ปล่อย 9071
อย 9070
ือ 9058
ยึด 9055
ยู@@ 9055
ใช่ 9038
พื้น 9034
ุ@@ 9034
สืบ@@ 9028
ตรี 9027
แต่งตั้ง 9022
อก@@ 9018
เย 9009
ทัพ 9002
โรงพยาบาล 8999
พัก 8982
ประสบความสำเร็จ 8981
นักกีฬา 8974
ขณะที่ 8973
วี@@ 8972
เบอร์ 8960
วัตถุ 8951
ซุ@@ 8949
ปกติ 8942
ภาวะ 8936
27 8933
ริน 8933
คุ 8929
พิธี 8928
รัชกาล 8922
หลักฐาน 8920
คร@@ 8907
ราม 8901
เส้นทาง 8901
โจ 8900
เป็นเวลา 8897
แหล่ง 8896
จา@@ 8895
ว่าการ 8894
รัง 8889
เป็นครั้งแรก 8874
", 8872
ชู 8867
ยอมรับ 8847
เหตุ 8842
็ก 8839
อุตสาหกรรม 8834
A 8826
ไว 8808
ซื้อ 8804
มป@@ 8795
คืน 8792
สม 8780
อ่อน 8773
จับ 8757
เส้น@@ 8751
เห@@ 8745
พลังงาน 8739
ทุ@@ 8737
ชั่น 8734
ตั้ง@@ 8724
ชุมชน 8716
ัก 8715
สยาม 8704
องค์กร 8703
ทั่วโลก 8687
บอ 8686
หนัก 8682
เพิ่มขึ้น 8680
ขาด 8679
เวียดนาม 8677
สิทธิ์ 8674
ที่ดิน 8662
เช่นกัน 8661
่ม@@ 8641
เจริญ 8610
ร่าง 8607
เล่ม 8605
อาจารย์ 8604
้ม 8602
ลิง 8591
สมอง 8573
โท@@ 8572
ร้าย 8567
แคว้น 8561
อาวุธ 8558
ร่างกาย 8554
โพ@@ 8542
ิด 8534
โค@@ 8529
บริการ 8528
พลัง 8528
แค 8519
กิจกรรม 8511
นี่ 8505
เนอ 8504
29 8485
กิจ 8478
ฌ@@ 8460
งค์ 8457
ภาพ@@ 8456
เอฟ 8455
บรม 8452
ท้องถิ่น 8441
คริสต์ศตวรรษ 8432
เสีย@@ 8432
ภาษาอังกฤษ 8431
ธง 8430
เฉ@@ 8422
เพื่อน 8418
ใน@@ 8417
ศพ 8416
คาร์ 8402
มหาวิทยาลัย@@ 8401
แต่ง 8400
ต่ำ 8393
โซ@@ 8389
คุณ@@ 8387
กำกับ 8386
เสนอ 8377
ปฏิบัติการ 8374
ดั@@ 8358
วิดีโอ 8330
ียง 8327
50 8326
ถือเป็น 8321
อเมริกา 8317
หัวหน้า 8314
ห่าง 8312
สำนักงาน 8308
ร้อง 8305
บุ 8299
มะ@@ 8294
ั@@ 8293
กะ@@ 8289
ดัง 8282
แค@@ 8279
จอห์น 8277
ธาตุ 8275
ห้า 8272
่ว 8268
แผ่น 8259
อิน@@ 8258
โด@@ 8244
ดำเนิน 8243
กาย 8241
พื้นฐาน 8235
ซีรีส์ 8226
การค้า 8219
ปิด 8194
เรื่องราว 8192
เสมอ 8186
สต 8184
อัล@@ 8184
การ์ตูน 8179
นท 8174
พร@@ 8174
ยก@@ 8171
อธิบาย 8163
and 8155
นต์ 8147
ในที่สุด 8143
พิมพ์ 8141
ร่วมกัน 8141
คอน 8138
แถบ 8137
มอ 8132
วงการ 8126
ทีวี 8124
เอาชนะ 8122
อม@@ 8115
กุ@@ 8111
เล่า 8110
หย@@ 8109
ำ 8098
พร 8095
รัฐธรรมนูญ 8085
หมายเลข 8082
ปร@@ 8069
โน@@ 8065
ตลาด 8047
ยอดเยี่ยม 8045
พระมหากษัตริย์ 8033
ตัด 8029
อบ 8027
ภาษา@@ 8012
ลำ 8010
เครื่องบิน 8009
รูป@@ 7997
พระราช@@ 7991
ทางการเมือง 7987
ฏ@@ 7981
อด@@ 7977
การทำงาน 7973
สื่อ 7971
ทฤษฎี 7967
ผสม 7964
สต์ 7959
เข@@ 7958
ปฏิ@@ 7956
โอรส 7953
่อน 7952
จันทร์ 7949
ค์ 7931
ฺ@@ 7929
ล่า 7920
ตก 7917
สา 7915
ีย์ 7907
กุล 7905
บอก 7904
ีย 7903
แต@@ 7901
ถือว่า 7900
ศูนย์กลาง 7897
2016 7888
จง 7875
ซี@@ 7858
กรณี 7852
อี@@ 7851
การณ์ 7843
นุ@@ 7840
ภัย 7838
ค้นพบ 7837
ฮ์ 7836
ไร่ 7834
ขณะ 7832
สาย@@ 7830
้อ@@ 7826
ดุ@@ 7815
บาง@@ 7815
ฟี 7811
กัน@@ 7805
แนวคิด 7804
นุ 7801
ได้@@ 7801
ให้บริการ 7800
สมรส 7799
นโยบาย 7794
ใกล้เคียง 7787
หร@@ 7783
ลาว 7782
คู 7767
ริก 7766
ัก@@ 7763
น่า@@ 7757
ัน@@ 7754
บางครั้ง 7751
โกะ 7747
สินค้า 7743
ปรับ 7741
เอ็น 7740
เต็ม 7732
ใจ@@ 7724
2012 7723
เหล่า 7718
ช้าง 7716
หวัง 7715
ระยะ 7709
เยาวชน 7704
_ 7697
มุ 7687
ปราสาท 7686
ไกล 7682
ขา 7679
2014 7674
ข้อ 7668
ทา@@ 7667
รถ@@ 7666
ระเบิด 7666
แอ@@ 7666
ธิ@@ 7656
่อ 7654
บรร@@ 7647
คัพ 7639
ียว 7638
ลึก 7637
ติก 7634
แลนด์ 7628
การเปลี่ยนแปลง 7615
สุข 7613
บุรี 7608
พระนาม 7604
็ก@@ 7593
แบ 7584
สัง@@ 7581
ง่าย 7579
ทุก@@ 7575
คัดเลือก 7565
โอกาส 7562
ประสาท 7549
ต่อเนื่อง 7532
2010 7528
วัย 7525
2018 7523
มีชื่อ 7520
หาย 7511
อุปกรณ์ 7509
กิจการ 7503
ทุน 7489
ด้วยกัน 7458
สถิติ 7450
คม 7442
กรา@@ 7439
ฆ่า 7438
เนื้อ 7438
เถ@@ 7435
กระจาย 7434
จี@@ 7428
2554 7424
ติดต่อ 7419
ที่มา 7417
แล@@ 7414
ซาน 7408
ชก 7405
เทศ 7396
ลั@@ 7387
เกาหลี 7382
ความนิยม 7371
ซัน 7364
ทั@@ 7362
ใคร 7353
ออสเตรเลีย 7346
อัน@@ 7345
แผน 7342
in 7340
31 7331
ที่เกิด 7325
2020 7320
นำมา 7317
ลู@@ 7302
ทิ้ง 7294
ที@@ 7294
ลม 7287
2550 7284
กำเนิด 7258
ปี@@ 7254
มารดา 7253
ปรา@@ 7237
มุ@@ 7237
ยาน 7233
ภาค@@ 7226
เผยแพร่ 7224
บริหาร 7221
พั@@ 7217
ที่ตั้ง 7213
เขียว 7203
กอง@@ 7202
ฝ่าย@@ 7190
ราชอาณาจักร 7185
แน@@ 7172
วอ 7169
ร้อยละ 7166
ต่อสู้ 7158
นาย@@ 7156
อบ@@ 7153
บอล 7148
สำ@@ 7143
ชิ้น 7142
เจ้าพระยา 7138
ควร 7133
ทั่ว 7128
คู่@@ 7125
ส์@@ 7106
บังคับ 7102
็ง 7102
รัส 7098
เดี่ยว 7093
เรือ@@ 7088
เบ 7082
ประพันธ์ 7073
โจ@@ 7072
ตั้งขึ้น 7062
ทางหลวง 7055
สปีชีส์ 7040
โตะ 7033
อัตรา 7024
ยศ 7021
ยาก 7016
40 7012
บทบาท 7009
เคมี 7008
เนื้อหา 7008
เป็นสมาชิก 6999
โทษ 6995
การนำ 6978
สิ่ง@@ 6972
การรักษา 6970
[[ 6962
ประ 6961
ประชาธิปไตย 6961
สิ@@ 6961
กระบวนการ 6960
นั@@ 6958
ตัดสิน 6954
จักร 6949
ปืน 6948
พระราชวัง 6937
ลุ@@ 6934
อิทธิพล 6927
ต. 6926
เกาหลีใต้ 6919
งค@@ 6911
มาตรฐาน 6907
เน้น 6907
ตีพิมพ์ 6905
ดะ 6904
หนอง 6899
ข้าม 6898
เช่นเดียวกับ 6898
ม้า 6895
กซ์ 6894
ไหล 6880
สังหาร 6878
โพ 6877
นต@@ 6875
ชาวไทย 6864
แข็ง 6862
้อ 6836
กองกำลัง 6835
หยุด 6835
สะพาน 6820
กล่าวถึง 6812
เงิน@@ 6811
2557 6810
แว@@ 6810
นานาชาติ 6809
รส 6800
ใบ@@ 6799
คอมพิวเตอร์ 6798
ครอง 6796
ทั้งสิ้น 6795
ออฟ 6794
โป 6794
ชม 6793
ไฮ 6792
กระทรวง 6786
ทร 6786
เลีย 6786
ก่อนที่จะ 6782
แอน@@ 6780
ถวาย 6776
ไข่ 6775
ก. 6762
ผิด 6762
คัน 6757
เบล 6756
2553 6755
มงคล 6755
โรมัน 6745
้อย 6738
25@@ 6736
อนุ@@ 6736
2015 6732
แขวง 6730
เมน 6729
แอน 6724
ผู้หญิง 6719
่ม 6718
ประจำ@@ 6716
หนี 6713
พิจารณา 6711
บู@@ 6704
สั่ง 6700
น่า 6696
ไท@@ 6692
กัมพูชา 6689
ตำนาน 6687
บัว 6686
ไม@@ 6686
ซอ 6662
หัวใจ 6661
ศาล 6658
เกือบ 6656
แพ@@ 6650
มาน 6647
ทั้ง@@ 6646
สถาปัตยกรรม 6644
รับบท 6631
การต่อสู้ 6625
ตัดสินใจ 6623
ดิน@@ 6614
ธิ 6614
ทอ 6612
พระบรม@@ 6612
มหาสมุทร 6606
ตู 6590
วด 6590
สเตอร์ 6590
ระยะเวลา 6589
]] 6582
รัน 6581
การสอน 6580
เหรียญ 6577
สัม@@ 6565
เจดีย์ 6555
เลน 6548
่าง 6546
หัว@@ 6541
นอกจาก 6539
สมบูรณ์ 6529
เชิง@@ 6528
นิตยสาร 6521
ลี่ 6520
ช่วงเวลา 6516
ราคา 6515
ศรี@@ 6515
2017 6514
2561 6513
2551 6512
็น 6509
ภา 6494
จิต 6493
ห้อง@@ 6489
แต่@@ 6487
ไม้@@ 6486
รุนแรง 6484
วิธีการ 6467
! 6465
มาถึง 6463
ช่วยเหลือ 6462
เทียบ 6459
รายได้ 6453
ข้าง@@ 6445
2555 6444
นิว@@ 6443
ถือ@@ 6438
นส์ 6432
แข@@ 6430
นู 6429
2549 6427
อุป@@ 6427
เหตุผล 6426
ยุ 6425
ข้า@@ 6423
ฉาก 6422
ล่าง 6421
นักศึกษา 6420
โนะ 6417
เพศ 6416
แต่งงาน 6416
ขุน 6413
ดาว@@ 6413
บ้าง 6405
โต@@ 6403
มอน 6400
ในขณะนั้น 6399
แก 6393
โดยทั่วไป 6388
คั@@ 6386
เดิน@@ 6386
2559 6383
หน่วยงาน 6379
้อง 6378
2562 6374
ยอม 6374
ผู้ป่วย 6371
อ. 6360
คอย 6359
ย์@@ 6354
a 6353
คริสต์ 6353
ซั@@ 6345
ฺ 6344
คำสั่ง 6336
ศตวรรษ 6332
โป@@ 6331
คุ@@ 6326
่อ@@ 6321
เวน 6318
ดร. 6317
2008 6312
สด 6305
T@@ 6301
สน@@ 6301
ิร์@@ 6301
เพชร 6300
ปฏิบัติ 6295
ระยะ@@ 6293
น้ำหนัก 6290
สถาปนา 6289
เสียง@@ 6280
ลี@@ 6279
อิสระ 6277
็ค 6276
ความเป็น@@ 6271
ส่วนตัว 6270
นิกาย 6265
เหล็ก 6245
ศาล@@ 6240
ฐ@@ 6236
สตรี 6229
(, 6228
2013 6223
เห 6222
ฤ@@ 6220
ื@@ 6214
เท่า 6211
อะไร 6209
บัณฑิต 6202
เมืองหลวง 6189
วอลเลย์บอล 6185
formula 6184
ทั้งนี้ 6184
ขน 6182
เตอร์ 6179
นาง@@ 6175
ผม 6175
กรรมการ 6171
ติด@@ 6162
ขา@@ 6160
รอย 6160
ัง 6159
ี่ 6158
เคน 6154
ซ้าย 6151
พิษ 6150
ไซ@@ 6140
มอบ 6138
อุณหภูมิ 6131
ชุ@@ 6130
รหัส 6128
โทร@@ 6121
ฟิ@@ 6118
2560 6110
พรรษา 6104
สำนัก 6104
เอก@@ 6100
S@@ 6097
ต้น@@ 6097
นอน 6089
ความคิด 6079
หาง 6079
ฤทธิ์ 6074
บริ@@ 6070
ไชย 6069
คิ 6068
ชิ@@ 6064
ไม่@@ 6063
สุริ@@ 6050
รถไฟ 6048
รวดเร็ว 6047
เชื่อม 6042
แฟน 6038
เลือกตั้ง 6037
รู@@ 6036
ขึ้นไป 6025
ฝึก 6024
ตี@@ 6021
 @@ 6013
ชัดเจน 6009
กำ@@ 6007
แสน 6005
สมเด็จพระ@@ 6002
P@@ 5993
โดยที่ 5991
๋@@ 5989
ร้อย 5985
งะ 5983
ประโยชน์ 5983
แม่@@ 5977
็อง 5974
มีส่วน 5962
ชั@@ 5956
ดอน 5956
ปริมาณ 5950
มหาราช 5950
00 5945
2019 5945
ิต 5945
ไวรัส 5943
สากล 5942
แอฟริกา 5942
ซูเปอร์ 5941
ท่าอากาศยาน 5941
สถานะ 5936
2011 5933
เปอร์ 5932
ส่งผล 5931
เย็น 5928
บรรดา 5926
ตรวจ 5925
ไต 5924
ับ 5921
2552 5919
เมีย 5918
เว 5911
G@@ 5904
ที่สาม 5904
ณา@@ 5903
ชิงแชมป์ 5899
ไบ@@ 5889
สัมพันธ์ 5883
เจ้าหน้าที่ 5877
ทั้งคู่ 5876
ึง 5876
คว@@ 5875
รู้สึก 5857
มุม 5842
๊ก 5841
ปลูก 5837
สิ้นพระชนม์ 5835
แล 5835
รัชสมัย 5830
คนใน 5829
ถึง@@ 5829
การเรียน 5828
สุขภาพ 5825
เจอ 5822
B 5821
ไล@@ 5821
เจ้าฟ้า 5817
ลอนดอน 5804
แกน 5802
หนัง 5800
ษ 5799
ครึ่ง 5798
พอ@@ 5798
C 5784
ระหว่างประเทศ 5784
พระราชินี 5771
เพิ่มเติม 5768
แดน 5768
ปฏิเสธ 5761
พระพุทธรูป 5757
ลัย 5752
ห้าม 5751
เด็ก@@ 5750
กระดูก 5745
หอ 5745
ตั@@ 5744
้ง@@ 5743
สึ 5742
บู 5740
มือ@@ 5739
รัฐสภา 5737
พุ@@ 5736
งวง 5731
สัญญาณ 5730
ช่อง@@ 5728
สัน@@ 5726
2558 5725
มู 5724
โปรแกรม 5722
ร. 5721
กลาย 5719
ขวา 5716
ความเร็ว 5714
ยิ่ง 5714
ส่งเสริม 5713
ทาน 5708
บี@@ 5706
ฟัง 5704
รอง@@ 5697
เหล@@ 5697
บาร์ 5694
ทุกคน 5693
หรือไม่ 5690
การบริหาร 5688
ตี้ 5684
สมัคร 5684
2556 5682
โปรดเกล้าฯ 5681
บวร 5672
ลดลง 5671
แย@@ 5664
ชาร์ต 5655
ลัทธิ 5654
พุทธ@@ 5634
ลำตัว 5629
พี่น้อง 5627
ชิน 5624
เง@@ 5622
เทคนิค 5615
ทราย 5611
ยูไนเต็ด 5608
ย่อ 5607
เฉลี่ย 5606
60 5604
ไน 5604
ำ@@ 5603
เชอ 5596
อวกาศ 5589
สาม@@ 5588
รักษา@@ 5585
เปลี่ยนแปลง 5583
เกร@@ 5575
ทรง@@ 5573
แร@@ 5568
เสร็จ 5566
อนุญาต 5564
เร็ว 5552
้อน 5550
ครอง@@ 5549
ขุนนาง 5542
นาที 5541
ประสูติ 5541
ชั่วโมง 5536
พุทธศักราช 5532
ศิ 5525
รร@@ 5519
สิ้นสุด 5517
เอช 5516
ดู@@ 5504
ฤดูหนาว 5503
เป้าหมาย 5500
ส่ง@@ 5495
๋ 5493
ซะ 5484
โย@@ 5482
ลล์ 5480
กล 5478
พระราชโอรส 5477
น้ำมัน 5471
น้อยกว่า 5468
ประทับ 5467
จั@@ 5465
ยิ@@ 5462
เวล 5459
ผลกระทบ 5455
2009 5448
ราย@@ 5445
หมด 5439
เหมาะสม 5438
ไพ@@ 5431
ท้าย 5421
ฟิลิปปินส์ 5417
ลาน 5415
ป่า@@ 5414
อ่าน 5413
เขตการปกครอง 5403
ร้องเพลง 5401
โรงเรียน@@ 5401
เซน 5399
โรค@@ 5398
ร้อน 5390
หอ@@ 5384
ึก@@ 5383
คลื่น 5382
แชมป์โลก 5380
ฟรี 5375
เท้า 5373
อินโดนีเซีย 5371
พระราชบัญญัติ 5369
มีอายุ 5368
แนว@@ 5365
เกล้า 5360
บิล 5355
2563 5351
รี่ 5347
เวท 5347
โดยตรง 5347
ฟู 5342
เขต@@ 5335
ดั้งเดิม 5331
วัคซีน 5331
ให้การ 5330
วิจารณ์ 5329
เซนติเมตร 5326
เชีย 5325
ฟัน 5323
มีบทบาท 5320
เท่ากับ 5316
ภูเขา 5314
มีผล 5304
ดวง 5300
โช 5299
เนื้อ@@ 5294
ทู 5291
หก 5291
แข่ง 5291
ลับ 5279
ภรรยา 5276
์" 5276
แช 5274
แก้ 5273
2007 5270
เล็กน้อย 5270
ฮี 5264
คี@@ 5263
ร็@@ 5262
ความเชื่อ 5261
รูปร่าง 5260
ฆ@@ 5259
ประดับ 5258
ื้อ 5253
80 5250
n 5250
ความหมาย 5250
ชี@@ 5248
สิริ 5248
นอกจากนั้น 5246
ปีก่อน 5244
ตามลำดับ 5234
2@@ 5233
ตรวจสอบ 5232
ศ. 5231
หั@@ 5229
กระแส 5226
)@@ 5222
คง 5218
ลักษณ์ 5218
อพยพ 5218
ความรู้ 5217
ปรากฏตัว 5215
สัตว์@@ 5203
ขน@@ 5202
การประชุม 5201
ชาวบ้าน 5198
B@@ 5193
สิ 5191
เจน 5183
โว 5177
br 5172
สร@@ 5172
ใช้งาน 5170
แจ้ง 5168
2006 5167
ถิ่น 5161
เบิล 5161
คอนเสิร์ต 5156
แทนที่ 5154
อร@@ 5153
ไป@@ 5152
นักบุญ 5151
กบฏ 5149
่อง 5143
รก 5141
รว@@ 5141
ยอ 5140
รับรอง 5140
เสริม 5140
เกียรติ 5139
สีแดง 5134
ออน 5130
M@@ 5127
สูตร 5126
ธรรม@@ 5125
เดนมาร์ก 5124
เรียง 5124
ใช้เวลา 5122
รวบรวม 5118
แอล 5114
ตอนที่ 5108
มน@@ 5102
สตาร์ 5102
สรุป 5100
หู 5087
จำ 5083
มาเลเซีย 5083
หมู่เกาะ 5083
ทดสอบ 5079
เฉพาะ@@ 5079
็อก 5079
จอม 5078
)" 5077
อล@@ 5073
แด@@ 5071
ยืนยัน 5067
จับ@@ 5061
แคนาดา 5061
ปู 5060
มู@@ 5058
จ้าง 5057
องค์การ 5056
อยุธยา 5055
ชนะเลิศ 5054
ซู@@ 5054
็อน 5051
ออสเตรีย 5050
คอน@@ 5048
ซาร์ 5045
แตกต่าง 5040
ครองราชย์ 5039
หว@@ 5039
อะ@@ 5039
หนุ่ม 5037
มิส 5032
กรณ์ 5031
ขวัญ 5027
กรีก 5025
2548 5024
ปริญญาตรี 5024
พฤติกรรม 5020
ขอ@@ 5019
ภูมิ@@ 5019
อันเป็น 5012
ฮ่องกง 5011
ยืน 5008
เท่า@@ 5006
ขับ 5005
เซีย 5003
หุ@@ 4999
โปรตุเกส 4999
สำเร็จการศึกษา 4992
ตกลง 4988
พงษ์ 4988
ร็อก 4986
่อง@@ 4986
นับถือ 4984
ก์ 4980
ภพ 4977
มีโอกาส 4972
พันธมิตร 4968
นักฟุตบอล 4965
ก่อนที่ 4962
สะ 4959
D@@ 4956
การเขียน 4955
ผู้คน 4954
มิวสิก 4940
x 4934
อาณาเขต 4928
จิน 4922
แซ 4921
แร 4921
ราชา 4920
ครอบคลุม 4918
วาด 4918
ยกเลิก 4917
เด่น 4915
ัด 4914
เป 4913
นั่น 4910
โรง 4907
โบสถ์ 4903
ยั@@ 4900
วาย 4893
ผ้า 4892
ชีพ 4888
จอ 4887
ผลิตภัณฑ์ 4885
ศัพท์ 4885
ูน 4881
ออ@@ 4880
เนเธอร์แลนด์ 4880
ชำ@@ 4873
พระองค์เจ้า 4873
โช@@ 4872
สืบ 4867
ึ@@ 4866
เปีย 4863
ถ่าย@@ 4857
ไร@@ 4857
เครือข่าย 4855
บรรจุ 4844
ที่สูง 4843
ตั้งชื่อ 4842
อาทิ 4841
อ้างอิง 4841
สติ 4840
โรง@@ 4839
รอน 4838
มายัง 4836
การประกวด 4834
ศาสตราจารย์ 4834
ฮั@@ 4833
เวที 4831
แก้ไข 4831
พี@@ 4827
โตเกียว 4826
ธร 4825
คอมมิวนิสต์ 4823
เรีย@@ 4819
มิได้ 4816
ภารกิจ 4814
ประจำปี 4812
สาธารณะ 4811
เตรียม 4810
สะ@@ 4809
พุทธ 4807
อียิปต์ 4806
หลากหลาย 4805
ีน 4802
เซนต์ 4799
ทันที 4796
สาเหตุ 4796
ได@@ 4790
ความรู้สึก 4782
ประเพณี 4780
รถยนต์ 4780
สนาม@@ 4780
่าย 4780
ลงมา 4776
ศา@@ 4775
ียร 4774
ก่อนหน้า 4773
บุก 4771
ท้อง 4770
ติดกับ 4767
ผู้จัดการ 4766
บัตร 4765
นำไปสู่ 4764
ร์ก 4764
ปาก@@ 4763
มวล 4763
พัก@@ 4757
on 4756
วก 4753
ลอ@@ 4747
จิต@@ 4745
นนท์ 4745
อยาก 4742
สนธิสัญญา 4738
แฟ@@ 4736
ตามที่ 4732
จำเป็น 4729
ตัด@@ 4729
มติ 4726
้ว 4726
อารมณ์ 4721
ยาง 4714
เว็บไซต์ 4712
ทางการ 4709
ไค 4707
สู้ 4705
เผ่า 4705
ือ@@ 4704
ดัดแปลง 4702
วิ่ง 4699
วิทยุ 4696
ศิลป์ 4686
ฏ 4682
เหมือนกับ 4681
ทรัพย์ 4675
กลัว 4670
ตาราง 4668
ละครโทรทัศน์ 4667
รัตน์ 4663
กรรม@@ 4655
เธ@@ 4651
แรง@@ 4647
ปรัชญา 4643
สิ่งมีชีวิต 4639
่ำ@@ 4639
สาขาวิชา 4638
C@@ 4636
ปลา@@ 4633
่าน 4632
วิเคราะห์ 4631
แฮ 4619
อาร์@@ 4617
E 4616
ฟอ 4616
ค่อนข้าง 4609
ต์@@ 4609
โปแลนด์ 4609
ขี@@ 4606
ฉัน 4606
ชิงชนะเลิศ 4605
เข้ากับ 4605
ความแตกต่าง 4604
มอง 4602
ที่นั่ง 4601
สถานีโทรทัศน์ 4601
เดน 4600
ศิลป@@ 4599
ภ 4597
2564 4596
ภาษาไทย 4594
คิ@@ 4593
ไฮ@@ 4591
มีอำนาจ 4589
บทความ 4585
ญา@@ 4584
ท้าว 4583
รวมกัน 4582
เสือ 4581
แกรนด์ 4578
อภิ@@ 4577
โชว์ 4577
ประดิษฐาน 4575
กลม 4568
บวก 4565
ไล 4561
สหภาพโซเวียต 4560
การควบคุม 4556
เปิด@@ 4554
แฮ@@ 4550
ขึ้นอยู่กับ 4549
พิพิธภัณฑ์ 4548
นั่ง 4547
นิว 4547
ลบ 4544
ยกเว้น 4540
ไว@@ 4539
ฐาน@@ 4535
แค่ 4535
ัน 4531
สถานการณ์ 4530
... 4527
บราซิล 4523
บัน 4523
จ่าย 4522
ศักดิ์สิทธิ์ 4522
90 4520
ไน@@ 4520
พิ 4519
บัง@@ 4516
ศัตรู 4516
ต้า 4513
ดาบ 4511
ข้าว@@ 4509
เนื้อที่ 4507
ิล@@ 4506
ก็ตาม 4504
ความเสียหาย 4504
ทัศน์ 4504
แป@@ 4504
ฟา@@ 4502
ุน 4501
โร่ 4500
เนื้อเรื่อง 4499
ผิว 4498
เจ้าอาวาส 4496
จุ@@ 4495
อว@@ 4493
หลายครั้ง 4492
สวยงาม 4490
เฟอร์ 4490
คุณสมบัติ 4488
ิล 4483
I 4481
ี่ยว 4481
รัง@@ 4480
ยุติ 4478
เติบโต 4476
บันเทิง 4475
สตูดิโอ 4472
สวน@@ 4472
ช้า 4469
ประชุม 4469
หนังสือพิมพ์ 4469
ฮา@@ 4468
N@@ 4460
ประการ 4460
รู้@@ 4459
เคา 4454
มีความ@@ 4452
คอ@@ 4450
สนใจ 4450
หลวงพ่อ 4443
พรีเมียร์ 4441
มวย 4441
เกล@@ 4441
แสดง@@ 4441
ปรับปรุง 4440
บรา 4439
ยุทธการ 4439
รอย@@ 4434
เลื่อน 4432
ตุ 4429
ปะ@@ 4428
แท้จริง 4427
บอ@@ 4425
ขั้น 4423
วิจัย 4422
กี่ 4417
แอร์ 4417
ชาย@@ 4415
องค์ประกอบ 4413
ไข@@ 4412
ภู 4410
เอกสาร 4407
ต้นไม้ 4404
เทพ@@ 4404
้ว@@ 4404
เอ็@@ 4403
สวีเดน 4401
หลุยส์ 4398
เพื่อน@@ 4398
นัน 4397
คอม 4392
คอร์ 4391
นิ้ว 4391
ประสงค์ 4390
กฎ 4388
ณ์ 4388
ติดตาม 4388
น้อง 4388
เทศบาลตำบล 4388
ผู้อำนวยการ 4386
เจ้าเมือง 4385
ปฏิกิริยา 4382
เปิดเผย 4381
ลัน 4378
เชื้อสาย 4377
ติดเชื้อ 4373
การทดลอง 4368
R@@ 4366
L@@ 4364
y 4362
to 4360
2547 4358
ซุน 4358
เป็นผล 4358
รม 4357
อุโบสถ 4356
ที่หนึ่ง 4354
คาด 4351
+ 4349
นักเขียน 4348
มิตร 4347
สิงห์ 4346
เทียน 4346
ถ 4342
องค@@ 4342
อ้าง 4342
S 4340
ร้าน 4338
ราง 4329
ความสนใจ 4322
เป็นตัวแทน 4321
สิ่งแวดล้อม 4319
เชื่อมต่อ 4319
ทำได้ 4314
เจ้าของ 4313
อริ 4308
งาม 4302
ิด@@ 4300
เกณฑ์ 4300
ความสูง 4298
ระยะทาง 4297
งานวิจัย 4296
แนะนำ 4295
ดาร 4294
ปิด@@ 4294
ภู@@ 4294
รด 4290
มพ@@ 4289
อำ@@ 4289
รังสี 4288
รถไฟฟ้า 4286
จุฬาลงกรณ์ 4285
ความรัก 4284
โฆษณา 4279
วย 4278
วาด@@ 4278
ร่วมใน 4276
เครื่องยนต์ 4274
กำหนดให้ 4273
เอา@@ 4271
เสา 4260
ศาส@@ 4258
ยูฟ่า 4257
ราชินีนาถ 4256
มัน@@ 4254
200 4251
นคร@@ 4251
ภายนอก 4250
อาหรับ 4249
ตัวอย่างเช่น 4241
มาตรา 4239
ไม 4239
คติ 4233
ึก 4233
ยง 4232
นับตั้งแต่ 4230
มิติ 4227
F@@ 4224
ใส 4223
พันธ์ 4222
แหลม 4222
i 4221
สเป@@ 4218
มัง 4212
ตรวจ@@ 4208
มั่น 4208
แปลง 4206
ชายฝั่ง 4202
็ด 4199
2000 4197
ตารางกิโลเมตร 4195
าน@@ 4194
กัส 4192
ทิ 4190
เหลือง 4187
เบีย 4185
อป 4184
70 4182
สิงคโปร์ 4181
H@@ 4178
อิง 4178
ริม 4175
เคลื่อนที่ 4173
ปารีส 4171
คาด@@ 4168
สนิท 4167
เขมร 4167
กรุงเทพ 4163
พายุ 4163
สระ 4159
เวิลด์ 4158
สู@@ 4153
เป็นที่ตั้ง 4151
ปีก 4150
ฝน 4150
ข้าว 4149
เจ็ด 4149
O@@ 4148
ชีว@@ 4147
ผู้ใช้ 4146
เทศบาล 4145
ฐ 4144
อันตราย 4142
เบน 4139
แอนด์ 4129
ดยุก 4124
รัก@@ 4124
กาล 4121
มีค่า 4119
่าง@@ 4119
ความขัดแย้ง 4117
ชัยชนะ 4117
ฟอร์ด 4115
องศา 4114
ระบบ@@ 4113
2004 4112
กลาง@@ 4111
ภั@@ 4110
ล้อม 4110
สูญเสีย 4110
ึง@@ 4110
ยาน@@ 4109
วางแผน 4107
กำลัง@@ 4105
ตะวันออกเฉียงเหนือ 4105
รักษ์ 4102
ทัน 4100
สร้าง@@ 4099
ชะ@@ 4094
ื้อ@@ 4090
ฝัน 4086
ที่ว่า 4084
พลเอก 4084
อต 4083
มนตรี 4080
าย 4080
เป็นเรื่อง 4079
ใช้@@ 4078
คณิตศาสตร์ 4075
ได้มา 4074
ขบวน 4072
ฮังการี 4072
โดดเด่น 4071
ยุค@@ 4070
เป็นตัว 4069
โฟ@@ 4069
พระพุทธ 4068
เข้าใจ 4067
A@@ 4066
2021 4065
มัธยมศึกษา 4065
สมบัติ 4065
นิวยอร์ก 4064
ปัญญา 4064
2005 4063
ตลอดจน 4062
ล์@@ 4062
โฮ@@ 4062
35 4061
เสาร์ 4059
ต้อง@@ 4057
ซี่ 4056
การปฏิวัติ 4053
ต่าง@@ 4048
โซเวียต 4048
วาน 4046
K@@ 4044
บุตรชาย 4044
ประชา@@ 4042
ข้อความ 4040
รายละเอียด 4040
แพ 4040
ความร้อน 4039
กรุณา 4036
ราชสำนัก 4034
มง 4033
แปซิฟิก 4033
คนอื่น 4027
โห@@ 4025
ผนัง 4024
เอกชน 4023
ช์ 4021
บิ@@ 4020
สมัยใหม่ 4016
สงครามโลกครั้งที่สอง 4015
นครราชสีมา 4012
รับราชการ 4011
T 4006
ตอนเหนือ 4006
ระเบ@@ 4006
รุกราน 4006
วงดนตรี 4004
สง@@ 4003
กระตุ้น 4001
ทองคำ 3998
วรรณกรรม 3994
เติ@@ 3986
ก่อ@@ 3984
สว่าง 3984
สวรรค์ 3983
ฮัน 3983
ประดิษฐ์ 3981
สป@@ 3979
ยึดครอง 3978
บูชา 3977
M 3973
เช่นนี้ 3973
ล้าง 3971
แยก@@ 3971
กล้ามเนื้อ 3966
โดน 3966
ขอบ 3965
ร์ด 3965
สถาน@@ 3965
กรด 3963
จัดอันดับ 3961
รอด 3960
เอกราช 3960
ว่าด้วย 3957
วัฒน 3956
ไฟ@@ 3955
ทูต 3954
ทวีป@@ 3953
วิญญาณ 3953
ราชบัลลังก์ 3952
ช่าง 3949
สายพันธุ์ 3949
เรียกร้อง 3949
เวียน 3948
ไร้ 3948
ดารา 3947
มีความหมาย 3947
ฮ 3946
เต้น 3946
ปั้น 3943
พรรค@@ 3942
ตลอด@@ 3937
นิยาม 3935
ดอลลาร์สหรัฐ 3934
ทะเลสาบ 3934
ทุ่ง 3934
D 3932
คนเดียว 3930
อาณานิคม 3930
สถานีรถไฟ 3920
สัมผัส 3920
คุณภาพ 3919
มรดก 3919
ว่า@@ 3918
ตร 3915
เหม@@ 3913
แรงงาน 3913
กลุ่ม@@ 3911
ที่ปรึกษา 3911
ช่วง@@ 3906
มัส 3906
คณะสงฆ์ 3904
ชุมนุม 3904
P 3900
เหน@@ 3900
จัน 3898
ร์ค 3897
เชิญ 3896
เทศกาล 3896
การเงิน 3894
ในสังกัด 3891
ซิง 3890
กี้ 3889
ผลการแข่งขัน 3884
มิน@@ 3884
เทา 3884
งบประมาณ 3883
รองรับ 3883
F 3882
ผู้ชนะ 3882
ในนาม 3881
เจมส์ 3880
นำแสดง 3878
เช 3878
เรื่อย 3878
แช@@ 3878
E@@ 3877
ครบ 3875
ความจริง 3873
เก็บ@@ 3873
การทหาร 3862
อย่างหนึ่ง 3860
ื่น 3860
กำแพง 3858
เสื้อ 3858
ซอน 3857
ย่าน 3856
สันนิษฐาน 3853
พระราชพิธี 3850
[ 3847
ภาคใต้ 3845
เหล่านั้น 3842
เอ็ด 3837
ยิว 3836
สหภาพ 3830
ผู้โดยสาร 3829
บะ 3828
ลอง 3827
ื่อ@@ 3827
ให้ได้ 3827
ระบาด 3824
2546 3823
ลอย 3823
แอล@@ 3823
พระที่นั่ง 3822
วัสดุ 3822
โจว 3822
ทู@@ 3821
สนามกีฬา 3819
โปร@@ 3819
V@@ 3817
ถัดมา 3809
นายก 3809
รองชนะเลิศ 3807
เลข 3807
สงบ 3803
ซ้อน 3796
ยาวนาน 3793
คว้า 3790
32 3789
ขึ้น@@ 3789
กระทั่ง 3788
ความปลอดภัย 3787
ที่วัด 3787
การประ@@ 3785
พ่ายแพ้ 3782
นัส 3781
กว้างขวาง 3778
นำเสนอ 3778
เผ@@ 3778
สุวรรณ 3777
โปรด 3777
รวมไปถึง 3776
วินิจฉัย 3773
45 3772
ศุ@@ 3772
พนม 3771
นำ@@ 3770
สะสม 3770
คะ 3769
หาร 3768
กำจัด 3767
ทำประตู 3767
ถ่ายทำ 3762
อัส 3761
หมาย 3760
สว@@ 3758
เก่าแก่ 3758
2544 3754
ธนาคาร 3754
มังกร 3752
ข 3750
การคัดเลือก 3749
เวีย 3744
ตอบสนอง 3743
กลิ่น 3742
ริม@@ 3740
โส@@ 3740
2542 3739
ค้นหา 3738
สกี 3737
ร่วมงาน 3735
ื่อ 3735
โลหะ 3734
โอน 3734
us 3728
] 3726
ราก 3723
สอบ 3723
O 3722
์ค 3721
ยุบ 3717
ถา 3714
นด์ 3711
วิลเลียม 3710
ตอบ 3708
เฟ 3707
ภิ@@ 3706
พรหม 3704
เคร@@ 3704
ความต้องการ 3703
| 3702
งู 3702
มเหสี 3701
โคร@@ 3701
2539 3699
ดวง@@ 3699
บาล 3699
อ้างว่า 3698
สหพันธ์ 3697
ความช่วยเหลือ 3696
ยักษ์ 3695
ี่@@ 3694
ดาวเคราะห์ 3693
เพลิง 3693
พ้น 3692
ฝา@@ 3691
จอร์จ 3689
ชั่วคราว 3686
วดี 3679
ชื่อเล่น 3678
รัตน 3675
เป็นอย่างมาก 3674
มป์ 3672
ผู้ชม 3670
้าง 3668
การป้องกัน 3664
บาน 3661
กระทรวง@@ 3660
ซ้ำ 3658
ถ้ำ 3657
มวยปล้ำ 3657
เตอร์@@ 3656
เกีย 3654
บก 3652
ที่ผ่านมา 3651
คัมภีร์ 3650
ส่วนมาก 3650
พื้นเมือง 3649
โค้ง 3649
N 3647
สามัญ 3647
เบร@@ 3644
บรรยาย 3643
มหาชน 3643
หวาน 3643
ราชสมบัติ 3642
พระบาทสมเด็จพระจุลจอมเกล้าเจ้าอยู่หัว 3640
จน@@ 3639
สืบทอด 3639
มาส 3638
ทหาร@@ 3637
เม็กซิโก 3637
เขตร้อน 3635
เปรียบเทียบ 3635
พจน์ 3630
ลุ 3629
ไต้หวัน 3629
นทร์ 3627
ประสบการณ์ 3627
พรรคการเมือง 3627
หนู 3627
สเต@@ 3626
โบ@@ 3626
มุข 3624
ลาย@@ 3624
ับ@@ 3624
ความสำคัญ 3623
เอาไว้ 3623
บ. 3621
ตส์ 3619
โซน 3615
บรมวงศ์ 3614
สหประชาชาติ 3614
เข้าถึง 3614
พอใจ 3612
H 3611
โครง@@ 3610
2540 3609
ธา 3607
ครีบ 3605
พารา 3605
ภักดี 3605
ภาย 3605
หม่อม 3602
้ำ 3601
สำนัก@@ 3600
รับผิดชอบ 3597
มูล 3596
่าย@@ 3596
ผู้ใหญ่ 3593
ศาลา 3592
ผู้ว่า@@ 3591
ยิ่งใหญ่ 3591
2535 3590
พายุ@@ 3589
หลาน 3588
ครั@@ 3585
โปร 3584
บัญญัติ 3582
สิน@@ 3580
็ต 3578
กี@@ 3577
ตรงข้าม 3576
นวนิยาย 3576
ฉา@@ 3574
สีเหลือง 3574
คิม 3572
สห@@ 3572
คณะรัฐมนตรี 3571
โรงแรม 3571
บ้าน@@ 3570
ธรรมดา 3568
สิทธิ@@ 3566
ขุด 3565
แสดงให้เห็น 3565
ปกป้อง 3564
สมัย@@ 3564
้าง@@ 3563
ถูกต้อง 3562
แม 3561
ือก 3559
สงฆ์ 3558
้ม@@ 3553
บอก@@ 3552
ัง@@ 3550
พาณิชย์ 3549
เพลย์ 3548
จำเป็นต้อง 3547
ถ่าย 3542
ฝัง 3538
วุ@@ 3532
้าว 3532
นซ์ 3530
al 3528
ดังต่อไปนี้ 3527
อุดมศึกษา 3527
โปรตีน 3524
W@@ 3521
ผี 3521
เทศ@@ 3521
ดัน 3520
หลัก@@ 3520
ลิเวอร์พูล 3518
มาร์@@ 3517
เอน 3516
ี้ยว 3515
ี้ยน 3512
บริโภค 3511
ล่าสุด 3510
1,@@ 3509
ตามมา 3509
บางคน 3508
์, 3508
ญาติ 3500
เหลี่ยม 3500
ต่ำกว่า 3491
เทียม 3491
ขบวนการ 3484
สร 3484
ผา 3482
ดี้ 3480
เมล็ด 3480
ผู้ช่วย 3475
นาค 3473
พัน@@ 3473
ซิตี 3472
ดำเนิน@@ 3471
่อม 3470
2545 3467
นิวเคลียร์ 3465
ถัง 3464
มูลนิธิ 3464
้อน@@ 3464
เผา 3462
มีอิทธิพล 3461
ติดตั้ง 3456
อาทิตย์ 3456
บาดเจ็บ 3455
ก่อให้เกิด 3454
คนไข้ 3453
่ว@@ 3453
/@@ 3452
ประกวด 3452
พระพุทธศาสนา 3452
่ย 3451
ธา@@ 3449
เทือกเขา 3447
่ำ 3447
ศิษย์ 3446
อนุมัติ 3446
ธิบดี 3445
อินเตอร์ 3442
สำรวจ 3438
2543 3435
ซับซ้อน 3434
ณี 3433
ยุทธ 3433
X 3432
ข่าว@@ 3431
อิสราเอล 3431
ประท้วง 3428
วรรณ@@ 3428
ฮั่น 3424
โคล@@ 3424
ประถมศึกษา 3423
เชื้อ 3423
บอร์ด 3422
กิน@@ 3413
แบน 3413
ตย์ 3412
บำ@@ 3412
ห้วย 3412
เมือง@@ 3412
สังเกต 3411
เดช 3411
สะท้อน 3408
1990 3407
วอร์ 3407
การกระทำ 3406
." 3405
ทวีป 3405
ตรา@@ 3404
เป็นอดีต 3404
นำมาใช้ 3400
amp 3399
มีประสิทธิภาพ 3398
แผนก 3396
้าย 3394
ทว่า 3393
ศัก@@ 3393
เปล@@ 3393
าะ 3392
แปด 3391
ชายแดน 3390
แพร่หลาย 3390
กรุงศรีอยุธยา 3387
ป่วย 3387
ฟังก์ชัน 3387
ไหน 3387
มณี 3386
คิว 3383
พิสูจน์ 3382
ี้ย 3382
WWE 3381
อิหร่าน 3380
เรื่อง@@ 3380
รณ@@ 3379
ผิด@@ 3378
เหรียญทอง 3378
ความพยายาม 3377
บูร 3377
ศร 3377
รุ่น@@ 3370
อธิ@@ 3370
เรย์ 3369
สาธารณสุข 3368
็อง@@ 3368
J@@ 3363
ัด@@ 3362
500 3360
ยอดขาย 3356
ก่อนหน้านี้ 3355
ฉายา 3354
ทางเศรษฐกิจ 3354
เอฟ@@ 3353
จาง 3351
ณฑ@@ 3351
พระบาทสมเด็จพระ@@ 3349
์ส 3348
วิวัฒนาการ 3347
รับประทาน 3346
หุ้น 3345
หมา@@ 3344
ท้อง@@ 3342
สลับ 3342
การเคลื่อนไหว 3339
ลาด@@ 3337
เต็ม@@ 3336
อร์ต 3334
วิชาการ 3331
L 3330
เลิก 3329
ฮุ@@ 3327
ทัวร์ 3325
หนา 3325
ชี้ 3324
มุสลิม 3324
นอก@@ 3323
ราก@@ 3322
เหมือนกัน 3322
ิม 3319
ซึม 3318
สิน 3318
กระแส@@ 3317
นัย 3315
ปาง 3315
เป็นต้นมา 3314
บัง 3313
เสนอชื่อ 3313
é 3312
ด้วย@@ 3310
ลส์ 3309
ขณะนั้น 3305
ผู้เข้าแข่งขัน 3304
บอย 3302
ภูมิศาสตร์ 3301
ม่วง 3300
หลง 3298
เครื่องมือ 3295
กวี 3293
คริ@@ 3293
คิง 3292
นิยาย 3291
ปรากฏการณ์ 3290
ียบ@@ 3288
เข้าแข่งขัน 3286
ตอ 3285
ร้อย@@ 3285
ing 3283
ทิศเหนือ 3279
กิจ@@ 3276
ครั้งหนึ่ง 3276
เข 3271
กู@@ 3270
พงศ์ 3270
ด่าน 3269
ปัจจัย 3267
ฟุ 3265
ศูนย์@@ 3263
จาร 3262
เทีย@@ 3262
บูรณะ 3261
สุด@@ 3260
ตู@@ 3258
ทางใต้ 3258
ตกแต่ง 3256
ญญา@@ 3254
ถาวร 3254
ธี@@ 3251
บูร@@ 3251
ออนไลน์ 3251
idae 3247
อนิเมะ 3243
อินเทอร์เน็ต 3243
ีก 3241
ล้มเหลว 3239
ินี 3239
ถู 3236
สรร@@ 3236
ผู้เสียชีวิต 3235
พี่ชาย 3235
ยอม@@ 3235
เวีย@@ 3235
ปราบ 3233
กระทรวงศึกษาธิการ 3232
ฝีมือ 3232
เวอร์ชัน 3232
พฤ@@ 3231
ุ่น 3230
เซ็นสัญญา 3230
ร่วมมือ 3229
t 3228
คว้าแชมป์ 3228
ลงนาม 3226
กลับ@@ 3225
ตอน@@ 3220
ตั้งใจ 3219
น่าจะ 3219
พยาบาล 3218
R 3216
ท์@@ 3215
ลล@@ 3215
ือง 3215
เกราะ 3215
จัง 3213
กว@@ 3212
ท. 3212
ลัก@@ 3212
ด้านหน้า 3211
มีชีวิต 3211
ิ่น 3211
ตอบ@@ 3210
ฑ@@ 3208
เซ็@@ 3208
ความถี่ 3206
ฮี@@ 3205
ฉลอง 3204
อส 3203
จักรวาล 3201
หลังคา 3201
ห์@@ 3201
ไม่ต้อง 3201
ก้า 3199
ลด@@ 3199
G 3198
สวรรคต 3198
็กซ์ 3198
ความสำเร็จ 3197
รัฐประหาร 3195
ดง 3189
ทิศตะวันออก 3189
2538 3187
ความร่วมมือ 3186
ป. 3186
วาร 3185
โต้ 3184
ระเบียบ 3183
V 3182
โซล 3181
พี่ 3180
ฮะ 3179
โครง 3179
ุ่ม 3178
ตัวอักษร 3177
สิ้น@@ 3176
m 3172
48 3171
ดับเบิลยู 3171
ไพร 3171
ซัส 3170
และ@@ 3169
นาซี 3167
เจรจา 3167
โดยเฉพาะอย่างยิ่ง 3165
ท้องที่ 3164
ลอ 3164
สวม 3163
ได้ดี 3163
จารึก 3161
c 3160
การแพทย์ 3160
คริสตกาล 3160
พนักงาน 3160
ไตร@@ 3158
คลัง 3155
2002 3154
มนต์ 3154
สุโขทัย 3154
ซ์@@ 3152
พญา 3152
ทัน@@ 3151
สถานี@@ 3151
พระนคร 3148
สตา@@ 3145
อภิเษกสมรส 3145
ไมล์ 3145
เฮนรี 3144
e@@ 3142
สุนทร 3142
แร่ 3142
ภาษี 3140
แม่เหล็ก 3140
ทะ@@ 3138
ไก 3137
ขัง 3136
เด็@@ 3136
ได้รับแต่งตั้ง 3136
ทับ@@ 3131
ื้@@ 3131
ระดับ@@ 3130
น้ำแข็ง 3129
รัม 3129
ผู้ชาย 3128
เชื่อ@@ 3128
เลขาธิการ 3128
ด้านล่าง 3127
การวิจัย 3126
มีความสำคัญ 3126
ม่า 3126
ทั้งหลาย 3125
ฯลฯ 3125
พยา@@ 3124
ลุง 3123
หลักการ 3123
จับกุม 3121
ญาณ 3120
กองทัพบก 3119
เป็นที่นิยม 3119
ถ้วย 3118
ฟุต 3118
สอง@@ 3118
การใช้งาน 3117
เลียน 3117
พันธ@@ 3116
ขาด@@ 3115
ความมั่นคง 3115
หม่อมเจ้า 3113
2003 3112
แส@@ 3112
ร่า 3111
ลิน 3111
มองเห็น 3110
เบา 3110
จริง@@ 3109
สังเกต@@ 3109
ี้ย@@ 3109
de 3108
เจอร์ 3106
็อ@@ 3105
แคบ 3104
ตึก 3103
ขอให้ 3102
พระครู 3102
กล้อง 3101
มะเร็ง 3101
กองทัพเรือ 3099
ศาสน@@ 3098
ความเห็น 3097
ยืม 3096
วน@@ 3096
ปก@@ 3094
เซต 3094
d 3093
อุทยานแห่งชาติ 3092
ความเสี่ยง 3091
ั่ง 3091
จอมพล 3087
บางอย่าง 3085
ปอ 3084
โด่งดัง 3084
มัด 3081
เวช 3081
ทิศตะวันตก 3080
ี้@@ 3080
พิทักษ์ 3079
ศีรษะ 3079
เป็นหลัก 3079
ขอนแก่น 3076
ความรุนแรง 3075
วิทยา@@ 3075
เศ@@ 3071
นาถ 3070
แผ่นดินไหว 3070
อี้ 3069
จ. 3067
โรงงาน 3066
ผู้ปกครอง 3064
ประมุข 3063
ทั่วประเทศ 3060
สโต@@ 3060
ในอนาคต 3060
ทางเพศ 3059
ฬ 3059
ฟ้า@@ 3057
เอกลักษณ์ 3055
เข้ม 3049
จร 3048
ือก@@ 3048
กง 3047
สมุ@@ 3045
เพาะ@@ 3042
ขนาน 3041
ลูกชาย 3041
ธี 3040
ใกล้ชิด 3040
ท่อ 3039
ประเด็น 3039
ระบอบ 3039
เวลา@@ 3038
นักวิชาการ 3037
โระ 3037
ซุ 3036
โทร 3035
ค่ำ 3034
นักการเมือง 3033
ยม 3032
คู@@ 3030
ดาน 3029
มัธยม 3028
1980 3027
เพิ่ม@@ 3027
แน่นอน 3025
ฟิสิกส์ 3024
เจีย 3024
an 3023
ทอด@@ 3023
ร่วม@@ 3023
กระท@@ 3021
หิ@@ 3019
มิต 3016
สัก 3013
เนียน 3011
บรม@@ 3010
สตัน 3010
๋ง 3010
ยีน 3009
หญ้า 3008
เบลเยียม 3008
บร@@ 3007
:@@ 3005
อนุภาค 3005
อ่าว 3004
อนุรักษ์ 3003
๑@@ 3003
อินทร@@ 3002
ถึงแม้ว่า 3000
ละลาย 3000
การสำรวจ 2999
เกียรติ@@ 2999
สิ้น 2997
ไม่ค่อย 2995
รัฐ@@ 2993
ทิศ 2992
ทะ 2990
ตัวผู้ 2988
วด@@ 2981
แถว 2981
แบบ@@ 2978
ล์ม 2977
สงสัย 2977
ภาคเหนือ 2974
ไอร์แลนด์ 2973
ช่วงแรก 2972
อับ 2972
พระราชธิดา 2970
พิธีกร 2970
กรุงเทพฯ 2968
ผู้บัญชาการ 2968
ด้านหลัง 2962
ยื่น 2962
สระ@@ 2962
ดำรง 2961
เก้า 2961
แค้น 2960
หิน@@ 2959
ถาม 2957
มูลค่า 2957
ทุกวัน 2955
บริจาค 2954
เชียง 2953
แห้ง 2953
10@@ 2952
นว@@ 2952
โมเลกุล 2952
หมอ 2948
กระทรวงมหาดไทย 2947
คง@@ 2947
หมวดหมู่ 2946
ทางสังคม 2945
ส. 2944
ปูน 2943
ียบ 2943
ถิ่นกำเนิด 2942
ทรัพย์สิน 2941
วุฒิ 2941
สัดส่วน 2941
จู@@ 2940
ลักษณะ@@ 2940
หมด@@ 2940
เปิล 2940
แผนการ 2940
,@@ 2938
บำรุง 2938
หอม 2935
โปรด@@ 2935
การเกษตร 2934
น์@@ 2934
ตุรกี 2933
ล็อก 2933
ูล 2930
แสง@@ 2930
ช่าง@@ 2928
ดวงอาทิตย์ 2928
อัด 2927
นก@@ 2925
มิด 2922
การปรับปรุง 2921
นิสัย 2921
ืน 2921
อะตอม 2920
เปลือก 2920
กระ 2918
ชัย@@ 2918
ออกเสียง 2917
เสรี 2916
สัญชาติ 2915
หง@@ 2915
๋า 2915
ผ้า@@ 2914
อู่ 2914
300 2913
แฟร@@ 2913
ทดลอง 2911
น้ำตาล 2911
บุรุษ 2908
ตอนแรก 2907
พระราชา 2905
็อก@@ 2905
ช่วงต้น 2902
คล้ายคลึง 2901
ไพ 2899
ปุ 2898
เต็มที่ 2897
โคล 2896
ราชการ@@ 2894
เพื่อที่จะ 2894
เสกสมรส 2894
เบิร์ก 2893
ส้ม 2892
แชมเปียนส์ 2892
ประสา@@ 2889
แพทยศาสตร์ 2887
พัง 2886
วิถี 2886
เมะ 2886
โต้@@ 2885
ตสึ 2884
ตลก 2883
เรือน 2882
สถาบัน@@ 2877
ผู้อ@@ 2874
for 2873
ผู้กำกับ 2867
เร็@@ 2867
ไมเคิล 2867
I@@ 2866
ปรี@@ 2864
ปุ@@ 2864
ฟ์ 2864
แขน 2864
อิส 2863
ฆ 2859
ฟื้นฟู 2859
เฉลิม 2859
ตัวแทน 2858
ล้วน 2858
แอบ 2857
การ์ด 2856
ลิขสิทธิ์ 2856
จัดทำ 2855
สันตะปาปา 2855
ล. 2853
ู่@@ 2852
ทิศ@@ 2851
ไทยแลนด์ 2851
่อน@@ 2851
กรอบ 2848
งานเขียน 2848
ยน 2848
วาระ 2848
ปริญญาโท 2847
e 2846
ขยาย@@ 2846
aceae 2845
เขตเลือกตั้ง 2844
คุ้มครอง 2843
ดม 2843
นครศรีธรรมราช 2841
สังคมนิยม 2841
ถอน 2840
หมาย@@ 2840
เพียงแค่ 2840
แมค 2840
ทางรถไฟ 2839
เยือน 2838
แหวน 2838
section 2837
พิพากษา 2835
ดับ@@ 2834
ราน 2834
จักรพรรดินี 2832
ทุกปี 2831
อีก@@ 2830
ซ่า 2829
สตี@@ 2828
แคล@@ 2828
เฝ้า 2826
น่าน 2825
ข้าราชการ 2824
จดหมาย 2823
สายการบิน 2823
ตรง@@ 2822
ใช้ชีวิต 2821
กล้า 2820
ทัย 2820
มวยสากล 2820
ทริ@@ 2819
กุศล 2818
36 2817
ึ 2817
เตรียม@@ 2817
กรอง 2816
ล่า@@ 2816
ดำ@@ 2814
เอ็น@@ 2814
ข้อตกลง 2813
ยกทัพ 2813
งก์ 2812
เทศบาลเมือง 2812
เบส 2810
แสดงว่า 2810
b 2809
แม้แต่ 2808
งอ 2807
ation 2806
เช้า 2804
เปลี่ยนเป็น 2803
/& 2802
กอ@@ 2800
บ่อยครั้ง 2800
ผู้แทน 2800
ียส 2800
ป้อม 2798
สัก@@ 2798
เกมส์ 2798
เติม 2798
พาน 2797
นม 2795
ธานี 2794
สถานที่@@ 2793
ไตร 2793
จักร@@ 2792
ประเทศ@@ 2792
ธงชาติ 2789
หลบหนี 2789
ท่าเรือ 2788
น้องชาย 2785
บรรยากาศ 2783
จิตใจ 2782
ปะ 2782
แก้@@ 2782
is 2781
ซิม 2781
เกะ 2781
พื้นผิว 2780
ไลน์ 2780
ยึด@@ 2779
วิสุงคามสีมา 2779
เทวี 2779
โรม 2778
2001 2777
๒@@ 2777
ฎ@@ 2776
ตอนปลาย 2776
ช. 2775
พากย์ 2775
วิทยาเขต 2775
หุ้ม 2775
เอ็ดเวิร์ด 2774
สำเนียง 2771
แฮม 2771
นิช 2768
อุบัติเหตุ 2768
แบคทีเรีย 2768
ละเอียด 2766
หลายชนิด 2766
ขุน@@ 2765
สร้างสรรค์ 2764
เนียม 2764
ถุ@@ 2763
ช่วย@@ 2762
คุม 2760
ขั้น@@ 2758
ค้า 2758
World 2757
จำลอง 2756
เหยื่อ 2755
ขึ้นกับ 2753
เปลี่ยนไป 2753
ี่ยง 2752
ถัมภ์ 2751
แท้ 2751
แปร@@ 2751
เวย์ 2747
บ่อย 2745
อย่างไรก็ดี 2743
กรีซ 2742
พรรณ 2742
ราษฎร 2742
วรรณ 2742
ศรัทธา 2740
ตต์ 2737
สงขลา 2735
ลูกสาว 2734
เซ็น 2733
มงกุฎ 2732
ญา 2731
นารี 2731
ยม@@ 2730
แบร์ 2730
ไบ 2730
ก้าว 2729
ชื่อดัง 2729
ลาก 2729
นิค 2728
็ม 2728
ยาม 2727
ฤดู 2727
ดอก@@ 2725
p 2724
ด้าน@@ 2723
เวิร์@@ 2723
ทำนอง 2722
ดับ 2721
ซึ@@ 2719
ตอนต้น 2717
อย่าง@@ 2716
เซฟ 2716
กด@@ 2715
ปิ 2715
ลิก 2715
ฝั่ง@@ 2714
แต่เดิม 2714
ณ์@@ 2712
โอะ 2712
มีปัญหา 2711
กลอง 2710
ท่า@@ 2710
เป็นระบบ 2708
ครั้น 2707
เอ็กซ์ 2707
ปลายปี 2706
กลีบ 2705
ประกัน 2705
บรรพ@@ 2704
ตติ@@ 2702
อัคร@@ 2702
หลายอย่าง 2701
สก 2699
ก้าวหน้า 2698
จ์ 2698
จันท@@ 2697
สวย 2697
ฮอล@@ 2697
ลังกา 2692
บัญชี 2691
บุค@@ 2691
ไกร 2691
รับเชิญ 2689
จาน 2687
ล้ม@@ 2687
2541 2686
แหล่ง@@ 2685
พระธาตุ 2684
ัย@@ 2684
2537 2682
ครอบครอง 2681
สำนักพิมพ์ 2681
อยู่@@ 2681
ดจ์ 2679
จำแนก 2678
ผูก@@ 2677
K 2675
ท่องเที่ยว 2675
ผู้ผลิต 2675
จาร@@ 2672
เชียงราย 2672
แก๊ส 2672
ชีวิต@@ 2671
ต่างชาติ 2669
อิสลาม 2669
เห็น@@ 2669
แล้วก็ 2669
มล 2668
สีน้ำตาล 2667
นอร์เวย์ 2665
นักวิทยาศาสตร์ 2665
แมตช์ 2665
มาณ@@ 2663
ค่าใช้จ่าย 2662
ริเริ่ม 2661
สุร@@ 2661
เป็นไปได้ 2661
จด@@ 2658
ฝึก@@ 2657
มืด 2657
ถ่ายทอด 2655
คาบสมุทร 2653
จอร์@@ 2653
ลือ 2653
พ.@@ 2650
อัย@@ 2649
ไขมัน 2648
ปฏิบัติ@@ 2645
ทิศทาง 2644
มองว่า 2644
กรี@@ 2643
อัตโนมัติ 2642
้าน@@ 2641
ู้ 2640
กังวล 2639
ว่าง 2638
แต่ว่า 2638
ด้า 2637
2534 2636
คี 2633
โพธิ์ 2632
33 2631
เข้ารอบ 2631
การสื่อสาร 2630
มุมมอง 2630
ดิบ 2627
วัต 2627
กาญ@@ 2626
สมุด 2625
หล่อ 2622
อักเสบ 2622
ทำเป็น 2621
ยัน 2621
ใย 2621
เปร@@ 2620
อิสริยยศ 2618
กั้น 2616
มหานิกาย 2616
เวียง 2616
ยุติธรรม 2615
h 2614
เคลื่อน 2614
ชนบท 2613
เช่นเดียวกัน 2613
55 2612
คัน@@ 2612
ชะ 2612
วัยรุ่น 2612
รัชทายาท 2611
ล้อ 2611
อิรัก 2611
กันที่ 2610
ว่ายน้ำ 2609
เชื้อเพลิง 2608
ไหม้ 2606
“@@ 2605
กลไก 2604
หาด 2602
แลกเปลี่ยน 2602
ติดต่อกัน 2600
พลเรือน 2600
แคลิฟอร์เนีย 2600
แกน@@ 2598
พูด@@ 2594
บ่อ 2593
เตือน 2593
เลก 2593
คมนาคม 2592
บัส 2590
เลส 2590
y@@ 2589
แมน@@ 2589
กวาง 2588
ตลาด@@ 2588
ครู@@ 2587
ซอง 2587
พิธี@@ 2587
ฟาโรห์ 2587
วัตถุประสงค์ 2587
เขียน@@ 2586
อย่างไร 2585
แด 2585
วินาที 2584
๑ 2584
ปลดปล่อย 2582
ขนส่ง 2581
บาก 2581
เชษฐา 2581
ประสบ 2580
สมา@@ 2580
ซอฟต์แวร์ 2579
ลด์ 2579
ปะทะ 2578
ดาราศาสตร์ 2576
ทางทหาร 2576
นิพนธ์ 2576
หอย 2575
ียน@@ 2575
แมนเช@@ 2575
ดำรง@@ 2574
ดำเนินงาน 2574
แพร่ 2573
ทาส 2572
สมั@@ 2572
กระทำ 2570
ทน 2570
ปีศาจ 2570
แจ 2570
ตัวเมีย 2569
ธิการ 2569
ได้ยิน 2569
ยิ่งขึ้น 2568
วงกลม 2567
วิก 2567
ยูเครน 2565
ญญา 2564
ติน 2564
แตน 2562
ก้าน 2561
ผู้สนับสนุน 2561
ฟิ 2561
เคลื่อนไหว 2560
กระด@@ 2559
สแต@@ 2559
ขั้นตอน 2556
ซัง 2556
แรงบันดาลใจ 2556
ศุกร์ 2555
อนุชา 2554
เครื่องหมาย 2554
ปอนด์ 2552
ผู้ก่อตั้ง 2552
ใ@@ 2552
ผู้บริหาร 2551
ฮอ@@ 2550
งก 2549
ร่าง@@ 2548
จังหวะ 2546
ทางเหนือ 2546
พื้นดิน 2546
ดีขึ้น 2545
สิ้นสุดลง 2545
ณะ 2544
ทะเล@@ 2544
นึก 2543
ด์@@ 2539
สังเคราะห์ 2539
2536 2538
สมควร 2538
อาสน 2538
k 2537
พระพุทธเจ้า 2537
คาร์@@ 2536
นิง 2536
อีสาน 2536
เบื้องต้น 2536
เป็นไป 2536
กึ่ง 2534
ี๋@@ 2533
เวสต์ 2532
เพาะ 2529
o@@ 2528
ค้า@@ 2528
ชั้นสูง 2527
ถั@@ 2527
ทางตะวันตก 2527
ขัน 2523
ปราบปราม 2523
95 2521
ข้า 2521
บัติ 2520
ล้านนา 2520
เคล@@ 2519
หลง@@ 2518
อ่อน@@ 2518
เงื่อนไข 2518
เวลส์ 2518
ประสิทธิภาพ 2517
ยกฐานะ 2517
กับ@@ 2516
ของวัด 2516
ลัด 2516
สลาย 2516
แมลง 2516
กิโลกรัม 2515
ป้าย 2515
เครียด 2515
U@@ 2513
สู้รบ 2513
ั้น@@ 2513
บริหาร@@ 2512
ไห@@ 2512
34 2510
เชื้อ@@ 2510
1992 2509
ขั้ว 2509
นายพล 2508
ิร์น 2508
กระจก 2504
ทาย 2503
จฉ@@ 2502
ทักษะ 2502
ศก 2502
ัม 2501
เลิ@@ 2501
นัดดา 2499
รุ่งเรือง 2499
วงจร 2499
เทว@@ 2499
1996 2498
ดอกไม้ 2496
ประกอบ@@ 2496
พร้อมด้วย 2494
ขับไล่ 2493
สภาพ@@ 2491
ียง@@ 2491
ชลบุรี 2490
ดีกว่า 2490
็น@@ 2490
เป็นเจ้าของ 2488
สภาผู้แทนราษฎร 2486
เหง@@ 2485
รอบ@@ 2484
เยี่ยม 2482
จัดตั้งขึ้น 2481
จุ 2481
เส 2481
วจะ 2480
Z@@ 2478
สั่ง@@ 2478
ปฏิทิน 2477
อุ่น 2477
อดุลยเดช 2475
คำถาม 2474
การปฏิรูป 2473
ทอด 2472
มวยไทย 2472
ทรัพยากร 2470
ทุ 2470
ป์ 2470
ผู้สร้าง 2470
พระทัย 2470
มอญ 2470
2533 2469
กต์ 2468
วุธ 2468
เมื่อ@@ 2468
1998 2466
ส์" 2465
พัด 2463
การขนส่ง 2462
พระศพ 2462
เศษ 2462
จอมเกล้า 2461
วาส 2459
การท่องเที่ยว 2457
ย่า 2457
กุ้ง 2453
ถูก@@ 2452
หมื่น 2452
หมุน 2452
ออสการ์ 2452
คริสเตียน 2451
เลขที่ 2451
น้องสาว 2450
ปลด 2450
มุ่ง@@ 2450
รน 2450
ชวน 2449
ปีเตอร์ 2449
สวิตเซอร์แลนด์ 2449
เคารพ 2449
สเก@@ 2448
โดยรวม 2448
เพศ@@ 2447
มาร@@ 2446
สภาวะ 2446
วัดราษฎร์ 2445
o 2444
กส์ 2444
ภาควิชา 2444
นั่นเอง 2442
อบรม 2442
ครั้งนั้น 2440
พระสงฆ์ 2440
เกษตร 2440
ก็@@ 2439
จุล@@ 2439
ฝูง 2438
เที่ยวบิน 2438
เซา 2437
ชัด 2436
ดั้ม 2436
ล่วง@@ 2434
วิชาชีพ 2434
พัฒนาการ 2433
ิก 2433
ถน@@ 2431
พื้น@@ 2431
ฟอร์ม 2431
ราบ 2431
ัย 2431
แทบ 2431
เศรษฐศาสตร์ 2430
กีตาร์ 2429
แผ@@ 2429
กด 2428
ความจำ 2428
สามี 2427
ทร์ 2426
วม 2426
วชิ@@ 2425
สึ@@ 2423
เรียว 2423
ล้ม 2420
ตัวเลข 2418
r 2417
ั้น 2417
1999 2416
แสดงนำ 2415
ข้างเคียง 2414
รุก 2414
วัย@@ 2414
2531 2411
พระเจ้าอยู่หัว 2411
ด้านบน 2408
ต้นกำเนิด 2408
วิทยุ@@ 2408
ชื่อ@@ 2407
รัช 2406
อล์ฟ 2406
วัล 2405
ไช@@ 2404
X@@ 2402
มลายู 2401
มัธยมศึกษา@@ 2400
มอบหมาย 2399
ืด 2399
หัน 2398
1970 2397
อรร@@ 2397
แมว 2397
ขาย@@ 2396
แม็ก 2396
ครึ่ง@@ 2395
’ 2395
"" 2393
° 2393
กม. 2392
วัต@@ 2392
เพราะว่า 2392
สน์ 2391
บำบัด 2390
ราชภัฏ 2390
ประสบ@@ 2387
เสด็จสวรรคต 2387
ดวงจันทร์ 2386
​@@ 2386
คุม@@ 2384
ยอง 2384
ระดับสูง 2384
เดวิด 2384
ดร 2383
โก้ 2383
สุลต่าน 2382
กล่าว@@ 2381
โพร@@ 2379
อาน 2378
แม่ทัพ 2378
อิเล็กทรอนิกส์ 2377
จราจร 2376
กษ์ 2370
มปิก 2369
หลอด 2369
64 2367
ควบ@@ 2367
ภัย@@ 2367
ษฐ 2367
เมา 2367
รัตนโกสินทร์ 2366
ไล่ 2366
ซาก 2365
ก่อน@@ 2364
ทุกอย่าง 2364
วิชัย 2364
เอเชียตะวันออกเฉียงใต้ 2363
ทรั@@ 2362
ส่วนประกอบ 2362
์ก 2362
สุสาน 2361
ไว้@@ 2361
ือน 2360
ชาน 2358
แนวทาง 2358
เชล@@ 2357
แตก@@ 2357
65 2356
อัตรา@@ 2356
กลางคืน 2355
ดึง 2355
กฎ@@ 2354
กระทรวงการ@@ 2354
กัด 2354
ทำร้าย 2354
สิง@@ 2354
เรียบร้อย 2353
เป็นที่@@ 2351
กองทัพอากาศ 2350
กิ่ง 2350
เสมือน 2349
or 2347
ตอนกลาง 2347
นำไปใช้ 2347
ประหารชีวิต 2347
หมายเหตุ 2347
ป็อป 2344
พรรคประชาธิปัตย์ 2344
ทิน 2343
ือด@@ 2343
เอียง 2343
ลก 2342
สวามี 2341
สำรอง 2341
ดัม 2338
มุ่ง 2338
จุดเริ่มต้น 2337
ผ่าน@@ 2337
มูล@@ 2335
ส.ส. 2332
สงครามโลก 2332
in@@ 2330
เดย์ 2330
42 2329
เป็นต้น@@ 2329
ไมโคร@@ 2329
บดี 2328
เคียว 2327
ไหล@@ 2327
เจียง 2326
มหาวิทยาลัยธรรมศาสตร์ 2325
โดยสาร 2325
ทหารบก 2324
ร้าง 2324
เชน 2324
บัญชาการ 2323
ยาย 2323
อังคาร 2320
เชื่อมโยง 2320
ี่ยม 2319
ขอบเขต 2318
ยิน@@ 2318
สุนัข 2317
สัตว์ป่า 2316
สันหลัง 2316
สันติภาพ 2315
เว็บ 2315
1997 2313
เมอร์ 2313
กุมารี 2312
ขับ@@ 2312
บุรีรัมย์ 2312
ึ่ง@@ 2310
คิน 2309
เนส 2308
้ำ@@ 2308
;/ 2307
กระดูก@@ 2307
จัก 2307
ปก 2307
กอน 2306
ูป 2306
ธาร 2305
ยกย่อง 2304
หมัด 2304
คลับ 2303
สนม 2303
ใต้ดิน 2303
จำพวก 2302
ผิว@@ 2302
แข็งแกร่ง 2302
สังคม@@ 2301
um 2300
ทับ 2300
1960 2299
ณา 2299
มพร 2299
หัน@@ 2299
เปลี่ยน@@ 2299
จิตรกร 2298
หมวด 2298
หนึ่ง@@ 2297
อนา@@ 2297
บริสุทธิ์ 2296
รวม@@ 2296
หายใจ 2295
เปอร์เซีย 2295
แวร์ 2295
ทรู 2294
ตำ@@ 2293
ตู้ 2293
ยิ่ง@@ 2293
เจริญ@@ 2293
แทรก@@ 2293
มาตร 2292
เยื่อ 2292
ตะวันตกเฉียงเหนือ 2291
แห่ 2291
ครา 2287
ชวา 2287
สมการ 2287
เมริเดียน 2287
n@@ 2286
ยัง@@ 2286
ทธ@@ 2285
ทรา@@ 2285
ัล 2284
ธั@@ 2283
ส" 2283
ธรรมเนียม 2282
ต่อไปนี้ 2281
ิว@@ 2281
39 2280
ครี@@ 2280
มินิ 2280
้อง@@ 2280
รถถัง 2279
ตรี@@ 2278
มี่ 2278
เคราะห์ 2278
ไผ่ 2278
พลเมือง 2277
ษฎ@@ 2277
สกอตแลนด์ 2277
กรุง@@ 2275
นักดนตรี 2274
บพิตร 2274
ทวีปยุโรป 2273
ฟิล์ม 2273
es 2272
บลู 2272
ประจ@@ 2271
ทางอากาศ 2270
มาลา 2269
ซอล 2268
ตั้งถิ่นฐาน 2268
วร์ 2268
หลวง@@ 2268
ประทาน 2267
ปริญญา 2267
ความผิดปกติ 2266
จัดแสดง 2266
ผลไม้ 2266
พระพุทธ@@ 2266
เหย@@ 2266
บูรณ์ 2265
ate 2264
u 2264
โยธิน 2264
พร้อมกัน 2262
เพ็ญ 2262
จอด 2260
ด่วน 2260
ปีการศึกษา 2260
หยุด@@ 2260
ดอย 2259
ที่ทำการ 2259
U 2257
ดาวฤกษ์ 2257
หนาน 2257
ไก่ 2257
ปฏิวัติ 2256
้วน 2256
ชร 2255
่าน@@ 2255
คนไทย 2254
รำ@@ 2253
ขับร้อง 2252
ท้าย@@ 2252
สุร 2252
หมิง 2252
ไต@@ 2252
เลิศ 2251
กษ@@ 2250
สอดคล้อง 2250
อิเล็กตรอน 2250
สัญ@@ 2248
ยูนิ@@ 2247
เบื้องหลัง 2247
การออกอากาศ 2246
พุ 2245
44 2244
ฒ@@ 2244
เกษตรกรรม 2244
400 2242
พันธุกรรม 2241
พิษณุโลก 2240
กวน 2238
รับใช้ 2238
วัว 2238
เดียม 2238
ยิง@@ 2237
องค์การบริหารส่วนตำบล 2237
s@@ 2236
แล้วจึง 2236
ไทร 2236
สัมภาษณ์ 2235
งิ 2234
ศาสนาพุทธ 2234
on@@ 2232
หลิว 2232
เช่า 2232
กระสุน 2231
ผัน 2231
วัฒนา 2231
ซอย 2230
ia 2229
่อย@@ 2229
น็อค 2228
ลงทุน 2228
เราะ 2228
47 2227
ธนบุรี 2227
เกินไป 2227
เลิฟ 2227
กติ 2225
บรรณา@@ 2225
พร้อมทั้ง 2224
ล่มสลาย 2224
38 2223
บ่ง@@ 2223
หยาง 2223
ปืนใหญ่ 2222
แห@@ 2222
ศา 2221
ทายาท 2220
อย่างยิ่ง 2219
ลำปาง 2218
ศาสนาคริสต์ 2218
แสดงถึง 2217
โฟร์ 2217
Y@@ 2216
โดยมาก 2215
วย@@ 2214
ด็@@ 2213
ย่อม 2213
อาญา 2213
ฮัน@@ 2213
แผนที่ 2213
— 2213
ซีเรีย 2212
นัย@@ 2212
เซียน 2212
คราว 2211
ทารก 2211
2529 2210
ื้อง 2210
จุฬา 2209
ชนมายุ 2209
อย่างเช่น 2209
กรณ@@ 2208
ปี่ 2205
ผู้ฝึกสอน 2205
ผู้สมัคร 2204
ริชาร์ด 2203
วร@@ 2203
โคน 2203
เต่า 2201
อุดม 2200
เกา 2200
เรื่องย่อ 2200
มร@@ 2199
ฮินดู 2199
ปไตย 2198
เล่า@@ 2198
สิ่งก่อสร้าง 2197
แข็งแรง 2197
ยี 2196
บรรพบุรุษ 2195
บ้านเมือง 2195
สเซิล 2195
อุบลราชธานี 2195
กลา@@ 2194
l 2193
จิน@@ 2193
ษา 2193
เท่ากัน 2193
โต๊ะ 2192
ี่ย 2191
เป็นประจำ 2191
ได้ที่ 2191
ษณ@@ 2190
สัย 2189
แผ่ 2189
๊ 2189
1,000 2188
สีน้ำเงิน 2188
เป็นเจ้าภาพ 2188
85 2187
คลื่น@@ 2187
คุย 2187
เวิ@@ 2187
ตะวันตกเฉียงใต้ 2186
สิริ@@ 2186
ที่สี่ 2185
โรมาเนีย 2185
คริสตจักร 2184
พืชดอก 2184
วิศวกรรม 2184
สารสนเทศ 2184
เท็@@ 2183
เสียหาย 2183
37 2182
ฉัตร 2181
ยูโร 2181
เดอร์ 2181
เทิร์น 2181
ทั่ว@@ 2180
หมู 2180
อัคร 2180
2518 2179
ก๊@@ 2179
ซึ 2178
สูง@@ 2178
ชี้@@ 2176
อวัยวะ 2176
เจ้านาย 2176
เศรษฐ@@ 2176
นิวซีแลนด์ 2175
ประเมิน 2175
สติ@@ 2175
พอล 2174
ลอบ 2174
เดีย@@ 2172
ประโยค 2171
ภูมิอากาศ 2170
การตอบรับ 2169
ต่อกัน 2169
ต้าน 2169
หลอดเลือด 2169
ีต 2169
เน็ต 2169
จง@@ 2168
สะอาด 2168
สเตอร์@@ 2168
ic 2167
ศิลา 2167
ฮิต 2167
ขี้@@ 2166
จิตวิทยา 2166
สห 2165
บัญชา 2164
บัลลังก์ 2164
สนามบิน 2164
โภ@@ 2164
ชื่อเสียง 2163
ราชินี 2162
ครั้งสุดท้าย 2161
นาการ 2160
อาณา 2160
เกลือ 2160
ประจำการ 2159
็ง@@ 2159
โยะ 2158
2530 2157
สละ 2157
กล่าวคือ 2156
พระเยซู 2156
ลย์ 2156
ฮอร์@@ 2156
เกียรติยศ 2156
เงา 2156
2532 2155
หัวเมือง 2155
๒ 2155
ดิจิทัล 2154
ทวี 2154
เยาว์ 2154
al@@ 2153
พิชิต 2153
อัง 2152
กรุ@@ 2151
กุหลาบ 2151
จิตร 2150
ดาวเทียม 2150
เป็นงาน 2150
41 2149
สุทธิ 2149
แพร่@@ 2149
75 2148
ค้าขาย 2148
จิ๋ว 2148
อาหาร@@ 2148
อู@@ 2148
20@@ 2147
ธุ@@ 2147
หะ 2147
เวอร์@@ 2147
วัยเด็ก 2146
สี่@@ 2146
บี้ 2145
บุญ@@ 2145
มนุษย@@ 2145
เพลง@@ 2145
ฉุกเฉิน 2144
นวน 2144
กู้ 2143
ที่ว@@ 2143
ขัด 2142
เอะ 2142
g 2141
ซ่อน 2141
ตามกฎหมาย 2141
น้ำจืด 2141
พระมารดา 2140
อัต@@ 2140
ณั@@ 2139
กัล@@ 2137
คริสต์@@ 2137
คริสต์ศักราช 2137
ชนนี 2137
ตำรวจ@@ 2137
ทุน@@ 2137
บุตร@@ 2137
โปเกมอน 2137
โฟ 2137
คลาสสิก 2136
สล@@ 2135
กอก 2134
พัฒน 2134
ตัม 2133
เจาะ 2133
72 2132
สวัสดิ์ 2132
เสริม@@ 2132
ชาน@@ 2131
บึง 2131
ฮิตเลอร์ 2131
แสดงออก 2131
ฒ 2130
แล้ 2130
er 2129
คลินิก 2128
ทางการแพทย์ 2128
ทางเดิน 2128
มีมติ 2128
เสมอ@@ 2126
โจร 2126
ถา@@ 2125
นนทบุรี 2123
เปรียบ 2123
ตะวันออกเฉียงใต้ 2122
นามสกุล 2122
แลน 2122
กำแพง@@ 2121
เซิน 2121
แรม 2120
นิน@@ 2119
สื่อ@@ 2119
เหรียญรางวัล 2119
แคน 2119
43 2118
]@@ 2118
คัส 2118
ลัส 2117
49 2115
ที่อยู่อาศัย 2115
ปัจ@@ 2113
สรรพ@@ 2113
าม 2112
โชกุน 2111
ดุ 2110
แผล 2110
an@@ 2109
ทิเบต 2109
ผิวหนัง 2109
เสา@@ 2109
ขันธ์ 2108
ร้อง@@ 2108
เต้ 2108
ลาด 2106
ตง 2105
W 2104
ก่อตัว 2104
ปัน 2104
ไพร@@ 2104
นักมวย 2103
นักวิจัย 2103
ฟิล@@ 2103
เรียน@@ 2103
แอป@@ 2102
88 2101
ณิ@@ 2101
สมัครเล่น 2101
ความหลากหลาย 2100
ตระ@@ 2100
็อต 2099
1991 2097
ผิดพลาด 2096
ียด 2095
คัด@@ 2094
ต้นฉบับ 2094
บัญชีรายชื่อ 2094
วันอาทิตย์ 2094
ษี 2094
นิด 2092
วอน 2092
ในเครือ 2092
จริต 2091
บูล 2090
หัก 2090
ขัด@@ 2089
ลี้ภัย 2089
ไหม 2089
2519 2088
ัส 2088
1994 2087
ชื้น 2087
ภาษาจีน 2087
เสด็จพระราชดำเนิน 2087
ไส้ 2087
ฎ 2086
ประชา 2086
มห@@ 2086
อนุ 2086
คลา 2084
ทีน 2084
สถาปนิก 2084
เนื่อง 2084
สน 2082
ลอน 2081
แก้ปัญหา 2081
ใดๆ 2081
การพิจารณา 2080
การเรียนรู้ 2080
จัดจำหน่าย 2080
หลีกเลี่ยง 2079
แลก 2079
เบอร์ลิน 2078
เหลืออยู่ 2078
นัม 2077
ทูล 2076
ปรัสเซีย 2075
พน@@ 2075
สมา 2075
2522 2074
บวน@@ 2073
โขง 2073
โจม 2073
ยี่@@ 2072
เบญ@@ 2071
แกรมมี่ 2071
กรมหลวง 2070
สถ@@ 2070
ุก@@ 2070
เคลื่อน@@ 2070
แบบนี้ 2070
i@@ 2069
ก้อน 2069
ประสาน 2069
รำ 2069
บันได 2068
นายทหาร 2067
อัศวิน 2067
อักษร@@ 2066
โค้@@ 2066
เกิล 2065
โมน 2065
ขวาง 2064
ใช้กับ 2064
ความเข้าใจ 2063
เอน@@ 2063
เพียงพอ 2061
่วง 2061
ผู้เชี่ยวชาญ 2060
๐ 2060
ลวดลาย 2059
เรือน@@ 2059
โปรดิวเซอร์ 2059
้ย 2059
กระบวน 2058
ฉะนั้น 2058
อาร์เจนตินา 2058
ซัม@@ 2057
บริติช 2057
ตารางวา 2055
เรียบเรียง 2055
คำนวณ 2054
บล@@ 2054
มอน@@ 2054
03 2053
ตลอดเวลา 2053
ปล้ำ 2053
หน่วย@@ 2053
พุทธศาสนา 2052
ทางวิทยาศาสตร์ 2051
ราว@@ 2051
ยุทธ@@ 2050
เพิ่ง 2049
93 2048
นันท์ 2048
สมทบ 2048
91 2047
ผ่าตัด 2047
ฮัม 2047
2,@@ 2046
84 2046
ขุ@@ 2046
ติดอันดับ 2046
นวย@@ 2046
สมาชิกวุฒิสภา 2046
๋อ 2045
ตำรา 2044
สะดวก 2044
สไตน์ 2044
โฉม 2044
เภสัช@@ 2042
เร่ง 2042
บุคลากร 2041
จดทะเบียน 2040
ซีน 2040
สไตล์ 2040
ูด 2040
ไลท์ 2040
็ด@@ 2040
ปฐม 2039
52 2038
ชีวภาพ 2038
ทักษิณ 2038
หมายความว่า 2038
จนได้ 2037
ความผิด 2036
ดื่ม 2036
ปลอดภัย 2036
วรร@@ 2036
อัญเชิญ 2036
เนิน 2036
โดยปกติ 2036
พระชนม@@ 2035
ร้าน@@ 2034
อาย 2033
เวียงจันทน์ 2033
อิก 2031
นาฬิกา 2030
ยับยั้ง 2030
ลอง@@ 2030
ูป@@ 2030
g@@ 2029
ลิป 2029
โหลด 2029
เครื่องราชอิสริยาภรณ์ 2028
เรียนรู้ 2028
้าย@@ 2028
53 2027
89 2027
ห้องเรียน 2027
แอนิเมชัน 2026
โบราณคดี 2026
ครุ@@ 2025
วอล@@ 2025
คม@@ 2024
ดำริ 2023
พะ@@ 2023
หาย@@ 2023
ทอม 2022
รัศมี 2022
องค์การ@@ 2022
น้อยที่สุด 2020
หลา@@ 2020
เสื่อม 2020
แดด 2020
สวม@@ 2019
เข้ม@@ 2019
นักประวัติศาสตร์ 2018
รุง@@ 2018
อากาศยาน 2018
ผัก 2016
แบ่งกลุ่ม 2016
ไฟล์ 2016
เก็ต 2015
เจิ@@ 2015
96 2014
56 2013
กรีฑา 2013
แฮร์รี่ 2013
t@@ 2012
ดัตช์ 2012
ท็อป 2012
สำนักงานใหญ่ 2012
สกา 2011
สวัส@@ 2011
มหาสารคาม 2010
ปักกิ่ง 2008
พายุหมุน 2008
ร์ท 2007
ช่อ 2006
บาย 2005
อุทยาน 2005
โรเบิร์ต 2005
2022 2004
ฟอ@@ 2004
ล้อมรอบ 2004
57 2003
สมุทร@@ 2003
รัต 2002
J 2001
นอง 2001
อุทิศ 2001
เทพเจ้า 2001
โกร@@ 1998
ผู้อื่น 1997
อาคารเรียน 1996
ข์ 1995
งบ 1995
2528 1994
คลี 1994
ชมพู 1994
ถอด 1994
ที่นั่น 1994
ผสมผสาน 1994
เมฆ 1994
09 1993
เกล 1993
94 1992
University 1992
เลือด@@ 1992
กติกา 1991
1993 1989
บวช 1989
พระชนม์ 1989
พระภิกษุ 1988
ฟอน 1988
สงบ@@ 1988
เขื่อน 1988
นิติ@@ 1986
ลเล@@ 1986
จำนวน@@ 1985
สามเหลี่ยม 1985
เบิร์ต 1985
แบบจำลอง 1984
04 1983
้อย@@ 1983
จารย์ 1982
ที่ประชุม 1982
ประหลาด 1982
ำเ@@ 1982
ไร้@@ 1982
กัก@@ 1981
ไรเดอร์ 1981
ธาน 1980
ี่ยน 1980
เกีย@@ 1980
ที่นี่ 1979
ร์ต 1979
เพล@@ 1979
เอ็ม@@ 1979
ๆ@@ 1979
76 1978
a@@ 1978
บันทึกเสียง 1978
ครบรอบ 1976
คูณ 1976
พัท@@ 1976
กัปตัน 1974
พืช@@ 1974
ฮู 1974
โตร@@ 1974
เกาหลีเหนือ 1972
บัณฑ@@ 1971
พ่อแม่ 1971
หัวหน้าพรรค 1971
ครั้ง@@ 1970
ข่าย 1968
บว@@ 1968
ทางวัฒนธรรม 1967
เบียน 1967
46 1966
งดงาม 1965
โข@@ 1965
โบราณสถาน 1964
1995 1963
ผึ้ง 1962
ื่@@ 1962
ทิพย์ 1961
เลต 1961
คู่แข่ง 1960
ปทุม 1960
สามัญ@@ 1960
หุ่นยนต์ 1960
เนื้อเยื่อ 1960
โจโฉ 1960
ชั่ว@@ 1959
เซ็น@@ 1959
ส่งออก 1958
ออกซิเจน 1958
เต็มไปด้วย 1957
ฟลอ@@ 1956
เป็นโรค 1956
ความหนาแน่น 1955
บรรเลง 1955
วาท 1954
ส่วนภูมิภาค 1954
กระดาษ 1953
ชันษา 1953
ลิต 1953
เนื่องมาจาก 1953
ผลักดัน 1952
ลงโทษ 1952
ลัก 1952
วต 1952
กัว 1951
รับรู้ 1951
สาน 1951
หม่อมราชวงศ์ 1950
แต่ง@@ 1950
r@@ 1949
ประยุกต์ 1949
ไต้ฝุ่น 1949
พฤหัสบดี 1947
พันธรัฐ 1947
ตอง 1946
ปู@@ 1946
หลวงปู่ 1946
หลักทรัพย์ 1946
51 1945
ไปหา 1944
จิง 1943
บาลี 1943
โรมันคาทอลิก 1943
จอง 1941
บริเตน 1941
มหิดล 1941
วัด@@ 1941
บาร์เซโลนา 1940
ลำต้น 1940
เสนา 1940
เภา 1939
Love 1938
พัทธ@@ 1938
คบ@@ 1937
ชื่นชอบ 1937
ต้านทาน 1937
เจริญเติบโต 1937
เข้าเรียน 1936
ควรจะ 1935
มหาภูมิพล@@ 1935
พยัญชนะ 1934
ปอด 1933
2525 1932
นักท่องเที่ยว 1932
พำนัก 1931
ร.@@ 1931
โปรโม@@ 1931
บรรดาศักดิ์ 1930
แปล@@ 1930
แอฟริกาใต้ 1930
0,000 1929
97 1929
เกิ้ล 1929
โทรศัพท์ 1929
ต้นปี 1928
ภิบาล 1927
รายการโทรทัศน์ 1927
แซง 1927
54 1925
ปืน@@ 1925
มอบให้ 1925
วิเศษ 1925
ดิ์ 1924
กระโดด 1923
พระตำหนัก 1923
!@@ 1922
กาย@@ 1922
หนี้ 1922
ักษ์ 1922
นักวิจารณ์ 1921
บาต 1920
ชุน 1919
เสื้อผ้า 1919
.) 1918
ียม 1918
มน 1916
อเมริกาใต้ 1916
ค้น 1914
ตอนนี้ 1914
ผู้พูด 1914
อุดม@@ 1914
2516 1912
เห็นชอบ 1911
ทซ์ 1910
สลา 1909
os@@ 1908
นั้น@@ 1908
อยู่แล้ว 1908
แหล่งข้อมูล 1908
เหว@@ 1907
ละครใน 1905
โรงภาพยนตร์ 1905
ศิ@@ 1904
แทน@@ 1904
กัง 1902
ตเตอร์ 1902
ที่ราบ 1902
พระราม 1902
รูปทรง 1902
คอร์@@ 1901
ฆาต@@ 1900
ออง 1900
แลง 1900
d@@ 1899
นุกรม 1899
ลิก@@ 1899
อิล 1899
คลา@@ 1898
นักรบ 1898
ฟต์ 1897
มล@@ 1897
ลาออก 1896
อ้วน 1896
สารประกอบ 1895
2523 1893
02 1892
92 1892
ชัก 1892
ปกคลุม 1892
นางแบบ 1890
นีย์ 1890
รุณ 1890
สื่อสาร 1889
เพชรบุรี 1889
โพธิ@@ 1889
กรร@@ 1888
ตัวเมือง 1888
เป้า 1888
เสนาบดี 1888
ภูเขาไฟ 1887
พร้าว 1886
รวมตัวกัน 1886
ียล 1886
เสน@@ 1886
รุ่ง 1885
เซียม 1885
2526 1884
สงครามกลางเมือง 1884
ฟื้น 1882
ระดับนานาชาติ 1882
โควิด 1882
มีส่วน@@ 1881
1988 1880
ซึมเศร้า 1880
วูด 1880
สำนักงานเขต 1880
นักบิน 1879
ลูกค้า 1879
แล้วเสร็จ 1879
..@@ 1878
จัดงาน 1878
นโปเลียน 1878
ภร 1878
ปริศนา 1876
โรล 1876
นอกเหนือจาก 1875
นับว่า 1875
กล้อง@@ 1874
ควา@@ 1873
ชุ 1873
นับแต่ 1873
ปฏิบัติหน้าที่ 1873
มาริ 1872
แป้ง 1872
63 1871
77 1871
คืน@@ 1871
สอบสวน 1871
องค์กรปกครองส่วนท้องถิ่น 1871
โลหิต 1871
บุตรสาว 1870
International 1868
จักรยาน 1868
ชาล 1867
ดุล 1867
ทัว@@ 1867
มิส@@ 1867
ร์ส 1867
ันต์ 1867
ร่วมสมัย 1866
อาราม 1866
้อม 1866
ญญ@@ 1865
สุรินทร์ 1865
เอเชียนเกมส์ 1865
at 1864
กำลังจะ 1864
ได้รับการยกย่อง 1864
07 1863
ประเสริฐ 1863
พาย 1863
การตลาด 1862
เข้าด้วยกัน 1862
คณิต 1861
รส@@ 1861
ลงคะแนน 1861
สท์ 1861
เนตร 1861
ได้รับบาดเจ็บ 1861
วิกฤ@@ 1860
ซิก 1859
ยามา 1859
แนล 1858
หัวข้อ 1857
แล้ว@@ 1856
โดยรอบ 1856
ลูกทุ่ง 1855
ือน@@ 1855
ขยายตัว 1854
บริษัท@@ 1854
ศาสตรบัณฑิต 1854
เสี่ยง 1854
เจต@@ 1853
เบิร์@@ 1850
เรอ 1849
ine 1848
แผน@@ 1848
ได้รับอนุญาต 1848
1989 1847
Ch@@ 1847
หลิน 1847
หาญ 1847
2565 1845
เห็นด้วย 1845
พรมแดน 1844
หน้าต่าง 1844
เข้มข้น 1844
การตัดสินใจ 1843
จุดประสงค์ 1843
ที่รา@@ 1843
วิทยาการ 1843
คงอยู่ 1842
คอล@@ 1842
ตะวัน 1842
บรรทุก 1842
เหร@@ 1842
นว 1841
สายตา 1841
แรงดัน 1841
68 1839
คฤ@@ 1839
คุกคาม 1839
ดีน 1839
อำนาจ@@ 1839
คุณค่า 1838
67 1837
กฤษฎีกา 1837
ed 1836
สะเท@@ 1836
โรจน์ 1836
มาย 1835
ต.@@ 1834
วัตถุ@@ 1833
แบ่ง@@ 1833
พันธุ@@ 1832
สุขุ@@ 1832
เปอร์@@ 1831
ทางเลือก 1830
แป 1830
กำไร 1828
ปลัด 1827
58 1826
กุฏิ 1826
จิตร@@ 1826
ศาสต@@ 1826
นำเข้า 1825
81 1823
คุณหญิง 1823
มาสู่ 1823
สูญพันธุ์ 1823
เหรียญเงิน 1823
". 1822
ภัณฑ์ 1822
เบา@@ 1822
ตับ 1821
คำแนะนำ 1820
นัน@@ 1820
ระงับ 1820
เพลงชาติ 1820
เล่น@@ 1820
ไทม์ 1820
ย็อง 1819
ศี@@ 1819
เกน 1819
เทป 1818
2527 1817
นเรศวร 1817
การปฏิบัติ 1813
ถึงแม้ 1813
แทนที่จะ 1812
78 1811
82 1811
กษา 1811
ทันสมัย 1811
เมนต์ 1811
เลี้ยง@@ 1811
ตื่น@@ 1810
ฟฟ์ 1810
1945 1809
ทั้งที่ 1809
จากกัน 1807
นักบวช 1807
บล็อก 1807
พันปี 1807
ร่วง 1807
เอลิซาเบธ 1807
2517 1806
เรือง 1806
คาร์บอน 1805
ถอย 1804
๓ 1804
ขึ้นทะเบียน 1803
ปุ่ม 1803
มาตร@@ 1803
คลุม 1802
ซีดี 1802
ดยุค 1802
สูบ 1802
ค่อย 1801
ทิม 1801
พ่อ@@ 1801
วัล@@ 1801
เรียบ 1801
มด 1800
เสรีภาพ 1800
2524 1799
ตรงกลาง 1799
ตาก 1799
มีระบบ 1799
หลุม 1799
เข็ม@@ 1799
ทำสงคราม 1798
ม์ 1797
วันหนึ่ง 1797
โหวต 1797
ขวบ 1796
p@@ 1795
ชิต 1794
นักแต่งเพลง 1794
ปรับตัว 1794
เปล่า 1794
เรียก@@ 1793
ย้อน@@ 1792
ซัค@@ 1791
ราชานุ@@ 1791
อริ@@ 1791
ชาติพันธุ์ 1790
สมเด็จพระนาง@@ 1790
คัล 1789
เฉิน 1789
เดีย 1789
โล่ 1788
'@@ 1787
ท่ามกลาง 1787
59 1786
ชวร 1786
ธรร@@ 1786
ปฐม@@ 1786
การคำนวณ 1784
นาม@@ 1784
ฤกษ์ 1784
อิฐ 1784
เกษตร@@ 1784
2500 1783
ทางแยก 1783
สวด 1783
เนื่องใน 1783
เมล 1783
ไลฟ์ 1783
แปลก 1782
ท้า@@ 1781
บอน 1780
ฝ่ายสัมพันธมิตร 1780
ผลลัพธ์ 1779
เกษม 1779
เหย้า 1779
แย่ 1779
ในขณะเดียวกัน 1779
%@@ 1778
มัล@@ 1778
พระชายา 1777
พระอุโบสถ 1777
๋ว 1777
สัง 1776
เอนไซม์ 1776
๒๕@@ 1776
สภาพแวดล้อม 1775
หง 1775
อัฟกานิสถาน 1775
แนวโน้ม 1775
คนสำคัญ 1774
ความสะดวก 1774
คำตอบ 1774
ระฆัง 1774
ราชบุรี 1774
ิลส์ 1774
บีซี 1773
เปีย@@ 1773
กรรมาธิการ 1772
กิตติ@@ 1772
พงศาวดาร 1772
มวลชน 1772
วินัย 1772
สส 1772
แต่งกาย 1772
มนุษ@@ 1770
แน่น 1770
ใช้การ 1770
ชาร์@@ 1769
ซม. 1769
ดูเหมือน 1769
ผิดปกติ 1769
ราง@@ 1769
การประเมิน 1767
ชิป 1767
สวิ@@ 1767
66 1766
ผลประโยชน์ 1766
150 1765
คุก 1765
ช่วยว่าการ 1765
น้อยลง 1765
ตามหา 1764
ผู้เข้า@@ 1764
คารา@@ 1763
จัก@@ 1763
พ. 1763
พระราชวงศ์ 1763
ฟิลิป 1763
ลอร์ด 1763
น่าจะเป็น 1762
แอร์@@ 1762
ผสมพันธุ์ 1761
ละคร@@ 1761
อนาคต 1761
อย่า 1761
อเล็กซานเดอร์ 1761
0.@@ 1760
แอก 1760
เป็@@ 1759
โฆษ@@ 1759
เฉลิมพระเกียรติ 1758
ทุกข์ 1757
มัสยิด 1757
4,@@ 1756
79 1756
์) 1756
คนโต 1754
ประกาศ@@ 1754
แกล@@ 1754
็ค@@ 1754
ริยา@@ 1753
คิดค้น 1752
ดิส 1752
ียร์ 1752
ดัก 1751
เกียร์ 1751
เลา 1751
ความรับผิดชอบ 1750
พราหมณ์ 1749
เท่าที่ 1749
ฉีด 1748
ราม@@ 1748
สุก 1748
end 1747
กก 1747
or@@ 1746
ปฏิรูป 1746
สับสน 1746
ํ@@ 1746
ตลอดกาล 1745
บังคับบัญชา 1745
ราษฎร์ 1745
ใช้ประโยชน์ 1744
รัส@@ 1743
ลพบุรี 1743
สอบ@@ 1743
นครปฐม 1742
ปากีสถาน 1742
Y 1741
ดส์ 1741
เสนาสนะ 1741
วิกิพีเดีย 1740
วินโดวส์ 1740
83 1739
รัล 1739
หยวน 1739
เกอร์ 1739
ฟู@@ 1738
สยาม@@ 1738
ch@@ 1737
แพง 1737
คนละ 1736
หันมา 1736
อาชญากรรม 1736
เสรี@@ 1736
จมูก 1735
ศีล 1735
่อย 1735
2520 1734
ทุกวันนี้ 1734
69 1733
600 1732
ที่ทำงาน 1732
ภาพเขียน 1732
กองพล 1731
ขนม 1731
ดัง@@ 1731
ธน 1731
พระประธาน 1731
พาหนะ 1731
รวมทั้งหมด 1731
ร็อค 1731
นิ่ง 1730
รัฐศาสตร์ 1730
น้ำตก 1729
1.@@ 1728
กายภาพ 1728
คอม@@ 1728
ปรารถนา 1728
เที่ยว 1727
โคก 1727
ใช้ได้ 1727
จนกว่า 1726
ชิ้นส่วน 1726
ถวาย@@ 1726
มิลลิเมตร 1726
รร 1726
สู 1726
บอร์@@ 1725
วารสาร 1725
สมุทรปราการ 1725
หลุม@@ 1725
จอ@@ 1724
วงษ์ 1724
แซม 1724
แวน 1724
ชีววิทยา 1723
มีน 1723
You 1722
กรมหมื่น 1720
ทะเบียน 1720
มีเดีย 1720
วอชิงตัน 1720
สนุก 1720
อัม@@ 1720
เรียง@@ 1720
th@@ 1719
ของเหลว 1719
ถ่ายภาพ 1719
ในกรณีที่ 1719
๔@@ 1719
ชนี 1718
ดอร์ 1718
มม. 1718
ชฌ@@ 1716
อัส@@ 1716
เทวดา 1716
ลุ่ม 1715
เว้น 1715
ขับเคลื่อน 1714
จุก 1714
ภูมิคุ้มกัน 1714
ไช 1714
New 1713
เหมือน@@ 1713
ไข้@@ 1713
สุดยอด 1712
กระบี่ 1711
ชื่นชม 1711
นักเตะ 1711
ริยา 1711
สะเก@@ 1711
เฉลิมฉลอง 1710
้วย 1710
กรรมการ@@ 1709
ชมรม 1709
ข้อเสนอ 1708
จรรย์ 1708
จิตรกรรม 1708
ตัก 1708
นราธิ@@ 1708
บิ๊ก 1708
บ้านเกิด 1708
เสถียร 1708
มัย 1707
หลอด@@ 1707
อฟ 1707
เณร 1707
แต่ละคน 1707
ปัญ@@ 1706
แก๊@@ 1706
ละเม@@ 1705
เรียกกันว่า 1705
62 1704
ขั้วโลก@@ 1704
มหานคร 1704
การลงทุน 1703
ชั้นมัธยมศึกษา 1703
บร 1703
โกล@@ 1703
กัด@@ 1702
ขโมย 1702
ท่าน@@ 1702
ประทับใจ 1702
ปราคา 1702
พิการ 1702
สาธิต 1702
เฮา@@ 1702
กฤ@@ 1701
ผูก 1701
อ็อง 1701
73 1700
จูเนียร์ 1700
แอม 1700
โซ่ 1700
พลัง@@ 1699
ยุทธศาสตร์ 1699
ศัพ@@ 1699
คัดค้าน 1698
ดีเอ็นเอ 1698
น้ำท่วม 1698
สโก 1698
โง 1698
็บ 1698
จำคุก 1697
พอที่จะ 1697
กระนั้น 1696
แทร@@ 1696
โหมด 1696
่วน 1696
จรวด 1695
ดูด@@ 1695
อุดรธานี 1695
มีพลัง 1694
แพร่กระจาย 1694
ol@@ 1693
ท่อน 1693
ธนู 1693
ก๊ก 1692
ยะ@@ 1692
กล้า@@ 1691
คิด@@ 1691
ลัง 1691
นางงาม 1690
เม็ด@@ 1690
แพล@@ 1690
กราฟ 1689
แพน 1689
one 1688
๋อง 1687
ตกเป็น 1686
เช่นนั้น 1686
oc@@ 1685
2515 1684
ติฐาน 1684
อุปสรรค 1684
เลข@@ 1684
ให@@ 1684
เหรียญทองแดง 1683
สำนักงาน@@ 1682
แห่งประเทศไทย 1682
พิน@@ 1681
พี่สาว 1681
แด่ 1681
แปร 1681
กดดัน 1680
บาด@@ 1680
มหาวิทยาลัยเกษตรศาสตร์ 1680
เก่ง 1680
มอง@@ 1679
อาวุโส 1679
เป็นพิเศษ 1679
บรรลุ 1678
ความดัน 1676
เทนนิส 1676
800 1675
ขั้นตอนวิธี 1675
ทวีปเอเชีย 1675
ฝึกหัด 1675
มกุฎราชกุมาร 1675
นพ 1674
รีบ 1672
รุ่ง@@ 1672
er@@ 1670
ญ์ 1670
หมาก 1669
แฟชั่น 1669
ทึ@@ 1668
อาเซียน 1668
แบ่งแยก 1668
มเป@@ 1667
วู@@ 1667
สาคร 1667
ฮอต 1667
แยกตัว 1667
1984 1666
หู@@ 1666
เที่ย@@ 1666
86 1665
เตะ 1665
กรีน 1664
ผจญภัย 1664
ือง@@ 1664
ค. 1663
ลุย 1663
สมดุล 1663
สมุทร 1663
สิบสอง 1663
พระนครศรีอยุธยา 1662
อิม 1662
ความตาย 1661
กาแฟ 1660
ทอง@@ 1658
ประกาศใช้ 1658
ทางเข้า 1657
ปราย 1656
พื้นบ้าน 1656
ไล่@@ 1656
ภูมิประเทศ 1655
ร่อง 1655
เครือ 1655
ดังที่ 1654
ตรัส 1654
พู 1654
นันท@@ 1653
รณ 1653
อภิ 1653
โชค 1653
ประก@@ 1652
ระวัง 1652
ลอบ@@ 1652
สลัก 1652
เซา@@ 1651
ตอนนั้น 1650
รากฐาน 1650
1950 1649
ก๊าซ 1649
สหรัฐฯ 1649
หัก@@ 1649
71 1648
กลยุทธ์ 1648
ฟินแลนด์ 1648
แปลก@@ 1648
กัล 1646
ปู่ 1646
เพียงแต่ 1646
คัด 1645
ซ้อม 1644
เกิดเหตุ 1644
เนิ@@ 1644
ถึงแก่กรรม 1643
ยอน 1643
สภานิติบัญญัติ 1643
!" 1642
คะแนนเสียง 1642
ราชทูต 1642
เต็@@ 1642
เหลียง 1642
เซิร์@@ 1641
เมรุ 1641
ต้นแบบ 1640
สมาพันธ์ 1640
เจ็บ@@ 1640
นอร์@@ 1639
ระบ@@ 1639
จัย@@ 1638
ชอบ@@ 1638
ประชาสัมพันธ์ 1638
et 1637
ดีเด่น 1637
ด้วยเหตุนี้ 1637
อธิบดี 1637
ในเวลานั้น 1637
ac@@ 1635
พบเห็น 1635
ar@@ 1634
ขี่ 1634
ดุสิต 1634
พลังงาน@@ 1632
พี่@@ 1632
กองทหาร 1631
พลาส@@ 1631
เกี่ยว@@ 1631
II 1630
ซีเกมส์ 1630
นาญ 1630
ประมวล@@ 1630
ปัสสาวะ 1630
เจ้าจอมมารดา 1630
แย้ง 1630
แล้ง 1630
แท่น 1629
ยูโร@@ 1628
วิพากษ์วิจารณ์ 1628
เทียบ@@ 1628
เป็นช่วง 1628
โน้@@ 1628
กางเขน 1627
ทางทิศใต้ 1627
กรร 1626
ยุทธ์ 1626
ศรีนคริ@@ 1626
ข้างต้น 1625
ข่าน 1623
ฆาต 1623
ถูกจับ 1623
บัลแกเรีย 1623
อุตรดิตถ์ 1623
แทรก 1623
ในทาง@@ 1623
2,000 1622
กล่าวหา 1622
ลัม 1622
สก@@ 1622
ใต้@@ 1622
กุน 1621
ทรรศน์ 1621
ปูน@@ 1621
รวย 1620
ื่อย 1620
หญิงสาว 1619
โส 1619
ภูเก็ต 1618
โนน 1618
á 1617
กองเรือ 1617
คัง 1617
พระบาทสมเด็จพระมงกุฎเกล้าเจ้าอยู่หัว 1617
รัต@@ 1617
นัล 1616
ฝึกฝน 1616
ลึกถึง 1616
เป็นลำดับ 1616
โยน 1616
เวทมนตร์ 1615
ar 1614
กลับคืน 1614
ทำลาย@@ 1614
พ่อค้า 1614
ท้า 1613
มีผลต่อ 1613
ใบหน้า 1613
2521 1612
จีเอ็มเอ็ม 1612
ทหารราบ 1612
ปริญญาเอก 1612
ส่วนท้องถิ่น 1612
ฮ่อง@@ 1612
เจ้าคณะ 1612
ชู@@ 1610
ซ่ง 1610
ติง 1610
นิติศาสตร์ 1610
ราษฎร์@@ 1610
สามก๊ก 1610
สูร 1610
ใหญ่@@ 1610
ดัชเชส 1609
มิวสิ@@ 1609
เรียล 1608
โคลน 1607
ผนวก 1606
ขัดขวาง 1605
มาศ 1605
อนึ่ง 1605
ic@@ 1603
ity 1603
ปลาย@@ 1603
รวง@@ 1603
ลอย@@ 1603
หนาแน่น 1603
กก. 1602
สมาธิ 1602
ห่าง@@ 1602
ชักชวน 1601
พัง@@ 1601
ลดา 1601
ตาก@@ 1599
บัล 1599
วัง@@ 1599
แถ@@ 1599
จูด 1598
th 1597
นครสวรรค์ 1597
รมย์ 1597
ทย์ 1596
หน้ากาก 1596
เทิล 1596
ชุม@@ 1595
เผด็@@ 1595
เลือดแดง 1595
74 1594
ขาน 1594
ทธิ@@ 1594
รังสิต 1594
สินธุ์ 1594
ตรอน 1593
วนา 1593
แถลง@@ 1593
แขนง 1592
ถ่วง 1591
ศาสนาอิสลาม 1591
ออกไซด์ 1591
แอตแลนติก 1591
ปราศจาก 1590
ส่วนผสม 1590
กลืน 1589
งก@@ 1589
ถกเถียง 1589
;& 1588
ถึงแก่อ@@ 1588
ปน 1588
ละครเวที 1588
สมรร@@ 1588
ีบ 1588
เนอร์ 1588
กฤต 1587
กิตติ 1587
ซับ 1587
บ้า 1587
Best 1585
กระจาย@@ 1585
กัง@@ 1584
จริ@@ 1583
ชั้นนำ 1583
ปาร 1583
v 1582
พิง 1582
ยว 1582
แหล่งน้ำ 1582
วิกตอเรีย 1580
จาก@@ 1579
เครือ@@ 1579
เลื่อนชั้น 1578
โธ@@ 1578
พังก์ 1577
รง 1577
วันนี้ 1577
ฉลาด 1576
เจ็บ 1576
กระบอก 1575
กรุก 1575
เชียง@@ 1575
2512 1574
วิจิตร 1574
พราน 1573
พริ@@ 1573
ือบ 1573
๔ 1573
คล 1572
ผี@@ 1572
ยศาสตร์ 1572
ืน@@ 1572
ไข้ 1571
ทวิ@@ 1570
พับ 1570
ข้อหา 1569
ซื้อขาย 1569
ถัดไป 1569
ลม@@ 1569
ลิตร 1569
แน่ชัด 1569
TV 1568
เนล 1566
61 1565
แต่งเพลง 1565
f@@ 1564
ต้ม 1564
ทหารเรือ 1563
นต่อ 1563
สกัด 1563
สุขา@@ 1563
กระต@@ 1562
ชัง 1562
พุทธศตวรรษ 1562
การถ่ายภาพ 1561
ที่ทาง 1561
เครื่องดนตรี 1561
om@@ 1560
พุธ 1560
สิ่งของ 1559
็ท 1559
้วย@@ 1559
1986 1558
กัม@@ 1558
บังคับใช้ 1558
ภาพถ่าย 1558
ฝัง@@ 1557
สุ่ม 1557
สูญ 1557
๕ 1557
5,000 1556
f 1556
ot@@ 1556
ตัวนำ 1556
ึน 1555
ดาราจักร 1554
การะ 1552
พรรคเพื่อไทย 1552
เนื้อร้อง 1552
โมเดล 1552
h@@ 1551
ทัศ@@ 1551
วีร@@ 1551
สก์ 1551
อารยธรรม 1551
ัม@@ 1551
คร 1550
ครัว 1550
นิเวศ 1550
วรวิหาร 1550
87 1549
พบกัน 1549
มุ่งหน้า 1549
)) 1548
จัน@@ 1548
พูดถึง 1548
มวล@@ 1548
เนชันแนล 1548
ศึกษา@@ 1547
หวง 1547
เนะ 1547
เม็ด 1547
นายก@@ 1546
ลอสแอนเจลิส 1546
ผู้ใด 1545
สุดา 1545
รต 1544
วี่ 1544
เทคโนโลยี@@ 1544
ประจุ 1543
พร่อง 1543
สอ 1543
สีสัน 1543
ความคิดเห็น 1542
สัมพันธ@@ 1542
เดิม@@ 1542
เหตุ@@ 1542
แฝด 1542
น่าสนใจ 1541
หมี 1541
ตาราง@@ 1540
อล์@@ 1540
เชล 1540
เท็น 1540
เฟร 1540
เริ่มแรก 1540
แนวร่วม 1540
สภา@@ 1539
เรนซ์ 1539
มาดริด 1538
สุพรรณบุรี 1538
โปรเจ@@ 1538
กระทรวงกลาโหม 1537
ปรึกษา 1537
วิศวกร 1537
จุน 1536
าก 1536
3,@@ 1535
ความลับ 1535
อ่อนแอ 1535
ซัล@@ 1534
บุนนาค 1534
ปร 1534
มีประโยชน์ 1534
2513 1533
การตาย 1532
แคลน 1532
ชินวัตร 1531
ตั้งครรภ์ 1531
๊ด 1531
el@@ 1530
กุญ@@ 1530
ตรงกันข้าม 1530
ภายในประเทศ 1530
รัด 1530
สิบ@@ 1530
ศาลาการเปรียญ 1529
เสร็จสิ้น 1529
แผง 1529
หลับ 1528
”@@ 1528
2514 1526
ครัวเรือน 1526
รณรงค์ 1526
ระบบประสาท 1526
โดะ 1526
การกำกับ 1525
ขง@@ 1524
ความเป็นจริง 1524
ปทุมธานี 1524
ส่วนกลาง 1524
ทางราชการ 1523
บริหารงาน 1523
ือบ@@ 1522
เป็นเหตุให้ 1522
ฟรานซิ@@ 1521
มเบิร์ก 1521
ไหลผ่าน 1521
เกิร์ล 1520
เผชิญ 1520
กัส@@ 1519
ชนชั้น 1519
ดน@@ 1519
ดาวน์ 1519
นามัย 1519
มส์ 1519
ร่ม 1519
แต่อย่างใด 1519
1940 1518
Music 1518
พระบรมราชโองการ 1518
รายนาม 1518
แฟ 1518
นต์@@ 1517
? 1516
ชล 1516
ตอบรับ 1516
ทัต 1516
กาฬ@@ 1515
ยี่ 1515
เช็ก 1515
โน้ม@@ 1515
จัตุรัส 1514
ชิล 1514
ผลิ 1514
วิว 1514
ศิลา@@ 1514
สวา@@ 1514
เฟีย 1514
แฟนตาซี 1514
ตุ๊ก@@ 1513
่ห์ 1513
บเขา 1512
ผู้สำเร็จราชการ 1512
ผู้เขียน 1512
แบล็ก 1512
บ้านเรือน 1511
ยอดนิยม 1511
ลงวันที่ 1511
เพียง@@ 1511
เหมาะ 1511
คาทอลิก 1510
เปา 1510
2475 1509
ชรา 1509
ฝรั่ง 1509
ลต์ 1509
เรต 1509
ชิง@@ 1508
วิกฤต 1508
ทดแทน 1507
สย@@ 1507
จนา@@ 1506
ตัวตน 1506
บทเพลง 1506
ผลผลิต 1506
ชล@@ 1505
บะ@@ 1505
สุน@@ 1505
แฝ@@ 1505
นาวี 1504
รามคำแหง 1504
ชั้นใน 1503
หากิน 1503
เกล็ด 1503
กองทุน 1502
ฎีกา 1502
เพรส 1502
เสนา@@ 1501
จม 1500
ริว 1500
กรัม 1499
ดิสน@@ 1499
มอเตอร์ 1499
เรียกชื่อ 1499
คคี 1498
ช้าง@@ 1498
ดรา@@ 1498
ตถ@@ 1498
ถล่ม 1498
ปวง 1498
ลื@@ 1498
การรับรู้ 1496
ปัตตานี 1496
ลงสมัครรับเลือกตั้ง 1496
แสวงหา 1496
0@@ 1494
แม้@@ 1494
ฉัน@@ 1493
นวล 1493
ประธานกรรมการ 1493
ฟีฟ่า 1493
อวอร์ด 1493
c@@ 1492
el 1492
นิวเคลียส 1492
พุ่ม 1492
รวมตัว 1492
หนอง@@ 1492
บาป 1491
ยากจน 1491
แพ้@@ 1491
Re@@ 1490
ด้ว@@ 1490
ผัง 1490
ร้ายแรง 1490
สถานศึกษา 1490
กรุ๊ป 1489
ซื่อ 1489
มอสโก 1489
ชุม 1488
นิก@@ 1488
ปฏิบัติงาน 1488
สิงโต 1488
In@@ 1487
ประติมากรรม 1487
แรกเริ่ม 1487
โชติ 1487
ฎก 1486
หลุด 1486
กล่อง 1484
ธรณี@@ 1483
พัฒ@@ 1483
ใคร@@ 1482
กรุงธนบุรี 1481
ประหาร 1481
ภาษาละติน 1481
ขัดแย้ง 1480
คำร้อง 1480
จัดหา 1480
แกะ 1480
กิ่งอำเภอ 1479
ฐิ 1479
ภัทร 1479
เปลือก@@ 1478
ฤดูใบไม้@@ 1477
เจียน 1477
เบอร์@@ 1477
ทาวน์ 1476
บาทหลวง 1476
ปัก@@ 1476
School 1475
เชย 1475
เรื่อยๆ 1475
ชื่อจริง 1474
ทัศน@@ 1474
ศักยภาพ 1474
สตรี@@ 1474
มุฮัม@@ 1473
ยอดเขา 1473
อำนวยการ 1473
ื่น@@ 1473
โรคมะเร็ง 1473
เบิก 1472
เล็บ 1472
แม่นยำ 1472
ตะวันออก@@ 1471
บุก@@ 1471
เนร@@ 1471
ธนา 1470
ม่ 1470
ส่งสัญญาณ 1470
ียด@@ 1470
แผ่นดินใหญ่ 1470
จินดา 1469
จิ้น 1469
ฟอร์@@ 1469
ยนต์ 1469
ระดับโลก 1469
เบื้อง@@ 1469
หัส 1468
อุปสมบท 1468
เซล@@ 1467
กุมาร 1466
คค 1466
รบกวน 1466
วงโคจร 1466
เนื่องด้วย 1466
เยา 1466
กรุ 1465
อาร์เซนอล 1465
ไฮโดรเจน 1465
เชียร์ 1464
=" 1463
ทิว@@ 1463
แหล@@ 1463
ความทรงจำ 1462
บริวาร 1462
เลขานุการ 1462
ความจุ 1461
งส์ 1461
บางแห่ง 1461
วุฒิสภา 1461
หยา@@ 1461
ตุลาการ 1460
ปรับเปลี่ยน 1460
เพลิง@@ 1460
เหมาะ@@ 1460
พิกัด 1459
1987 1458
ห้า@@ 1458
อัม 1458
การทูต 1457
ควีน 1457
ปัจจุบันนี้ 1457
กิง 1456
ชั่น@@ 1456
ธุร@@ 1456
ปาน@@ 1456
อาสา@@ 1456
เกษีย@@ 1456
เบิร์น 1456
เสือ@@ 1456
แท่ง 1456
l@@ 1455
ปลายทาง 1455
ราชาธิ@@ 1455
สัตว์เลี้ยงลูกด้วยนม 1455
เหมา 1455
begin 1454
กรด@@ 1453
การบุก 1452
โคจร 1452
"( 1451
สงวน 1451
ฆ่าตัวตาย 1450
ทำพิธี 1449
พรรณ@@ 1449
ภคินี 1449
ภาวะ@@ 1449
สเซ@@ 1449
z 1448
คั่ง 1448
ทิศใต้ 1448
เจ็บปวด 1448
เป็นสาเหตุ 1448
ไหว@@ 1448
กำ 1447
เฟน 1447
การฟื้นฟู 1446
ข่ม@@ 1446
หม่อม@@ 1446
อภัย 1446
เผือก 1446
เวส 1446
หิมะ 1445
เพ็@@ 1445
เอิ@@ 1445
ตัวแปร 1444
ทีมงาน 1443
ท้องฟ้า 1443
นักแสดงหญิง 1443
พลัน 1443
เชื้อชาติ 1443
เอนเตอร์เทนเมนต์ 1443
จัดสรร 1442
หงส์ 1442
ทางวิชาการ 1441
มัง@@ 1441
ยกระดับ 1441
วิศวกรรมศาสตร์ 1441
ออต@@ 1441
เผย 1441
ไอด@@ 1441
็ป 1441
งานการ 1440
ลำพูน 1440
ห่วง 1440
อารี 1440
เตา 1440
มากเกินไป 1439
ลุก 1439
โมะ 1439
บรมราช@@ 1438
ประจำวัน 1438
มาร์ค 1438
หมุน@@ 1438
ไปร@@ 1438
ไส@@ 1438
วิตามิน 1437
สะกด 1437
เข็ม 1437
กรมศิลปากร 1435
สง 1435
ฝาก 1434
สลา@@ 1434
ขนาน@@ 1433
ปรับ@@ 1433
รัตนราช@@ 1433
en@@ 1432
เกร็@@ 1432
เซ็นเตอร์ 1432
ปล่อยตัว 1431
พยากรณ์ 1431
เร้า 1431
โอเพ@@ 1431
กลั@@ 1430
ถอนตัว 1430
ทัพ@@ 1430
มหาศาล 1430
โฟน 1430
1.5 1428
ยาเสพติด 1428
หมา 1428
เซอร์เบีย 1428
re@@ 1427
ตระเวน 1427
ระบาย 1427
วิทย์ 1427
เทค@@ 1427
เป็นไปตาม 1427
ขนาด@@ 1426
ธิเบ@@ 1426
สังขรณ์ 1426
โกลด์ 1426
m@@ 1425
กองกลาง 1425
99 1424
ปลูก@@ 1424
ิ่น@@ 1424
่นวาย 1424
ความกำกวม 1422
ตกรอบ 1422
ถอด@@ 1422
ระดับน้ำทะเล 1422
อนุสาวรีย์ 1422
อายุ@@ 1422
อำนวย 1422
แคระ 1422
กรี 1421
ดึงดูด 1421
นท์ 1421
มาร์ก 1421
อส์ 1421
จับคู่ 1420
ชาตินิยม 1420
ศิริ@@ 1420
เทค 1420
คงที่ 1419
มั่นใจ 1419
เนปาล 1419
เอิร์ล 1419
การจับสลาก 1418
ตัส 1417
ภิเษก 1417
ในแง่ 1417
กบ 1416
แข็ง@@ 1416
b@@ 1415
ดอลลาร์ 1415
ประถ@@ 1415
สื่อมวลชน 1415
ทรุ@@ 1414
นัง 1414
ฟัน@@ 1414
ไส้@@ 1414
ยืด@@ 1413
รถไฟใต้ดิน 1413
เมทัล 1413
แถลง 1413
บัก 1412
เลียม 1412
120 1411
ษฐา 1411
เป็นรอง 1411
ตัล 1410
ราชาภิเษก 1410
ศ์@@ 1410
เห็นได้ชัด 1410
็อล@@ 1410
นิสิต 1409
ลน 1409
มิใช่ 1408
ริด 1408
รอดชีวิต 1407
ร้านอาหาร 1407
ึ่ง 1407
1985 1406
ปริ 1406
ระดับชั้น 1406
คลอด 1405
ฉลาม 1405
โซม 1405
ใส่@@ 1405
กฎหมาย@@ 1404
กวน@@ 1404
หนา@@ 1404
เดิล 1404
as@@ 1403
นางสาว 1403
มุง 1403
อรี่ 1403
เป็นแนว 1403
แบ็ก 1403
่วง@@ 1403
กลางวัน 1402
ขนส่ง@@ 1402
พระบรมราช@@ 1402
เครื่องดื่ม 1402
เนียล 1402
แบรนด์ 1402
งา@@ 1401
สัต@@ 1401
งด 1400
สั่งการ 1399
ั้@@ 1399
ร้า 1398
ศิล@@ 1397
กระเป@@ 1396
ซีซั่น 1396
แกะสลัก 1396
คณ@@ 1395
ชาร์ลส์ 1395
นิล 1395
ประสิทธิ์ 1394
มุ่งหมาย 1394
หนุ@@ 1394
เหนียว 1394
ประกอบอาชีพ 1393
ใด@@ 1393
ทรรศ@@ 1392
ณรงค์ 1391
ตร. 1391
อัต 1391
แฟร์ 1391
ปลง@@ 1390
รสชาติ 1390
สังฆราช 1390
อ้อม 1390
ภูมิพล 1389
ไบรอัน 1389
ความไม่@@ 1388
สมาชิกสภา 1388
เซี่ยง@@ 1388
k@@ 1387
ซ่อมแซม 1386
สรี@@ 1386
หลัง@@ 1386
2511 1385
Z 1385
อธิการบดี 1385
โดร 1385
สาธารณชน 1384
บอนด์ 1383
บูลย์ 1383
พระธรรม 1383
พิท@@ 1383
สกล@@ 1383
เชี่ยวชาญ 1383
เบียร์ 1383
5,@@ 1382
ฉี@@ 1382
พึ่ง 1382
ระย@@ 1382
สบาย 1382
เดียน 1382
ชิด 1381
ดาย 1381
ประกาศนียบัตร 1381
รีม 1381
as 1379
ซือ 1379
เผชิญหน้า 1379
หันไป 1378
อยู่อาศัย 1378
อัลบัม 1378
ph@@ 1377
ซัว 1377
อนุสรณ์ 1377
ตาล 1376
เพชร@@ 1376
700 1375
อนุบาล 1375
ไก@@ 1375
10,000 1374
พฤติ 1374
สี่เหลี่ยม@@ 1374
แจ็กสัน 1374
แต่กลับ 1374
แต่ละ@@ 1374
ตตา 1372
ทะลุ 1372
อนุกรม 1372
Sh@@ 1370
ก่อการร้าย 1370
1972 1369
op@@ 1369
พระนารายณ์ 1369
เสน 1367
ทธิ 1366
ิ้ล 1366
ปุระ 1365
ลย@@ 1365
ขณะเดียวกัน 1363
สืบเชื้อสาย 1363
บีบ 1362
เซอร์@@ 1362
รัช@@ 1361
ไปมา 1361
พ่าย 1360
ขอบ@@ 1359
สอด@@ 1359
2505 1356
ลอก 1356
เลี้ยงดู 1356
ไม่ได้ 1356
อุดมสมบูรณ์ 1355
ทัล 1352
ธนา@@ 1352
พาร์ก 1352
ลึกลับ 1351
นิคม 1350
บก@@ 1350
วัตร 1348
วาล 1346
ฝู@@ 1344
ล้อ@@ 1344
สำมะ@@ 1344
มองโกล 1343
สเตชัน 1343
งคา@@ 1342
นอง@@ 1342
ฝี@@ 1341
เคิล 1340
ยธรรม 1339
สามั@@ 1339
4@@ 1336
สาธารณ@@ 1336
it 1334
กระจ@@ 1332
ปัก 1329
พระมหา@@ 1326
ทอ@@ 1325
ซอ@@ 1322
สีมา 1322
นคริ@@ 1321
๐@@ 1321
ไหว 1317
ไทย@@ 1314
ือด 1310
2499 1309
2510 1309
ขณะ@@ 1308
ฑ 1308
no 1307
en 1305
ิป@@ 1304
เศร@@ 1304
com 1303
มั่นคง 1303
ul@@ 1302
พิพา@@ 1302
ษฐ์ 1300
สงครามโลกครั้ง@@ 1299
Th@@ 1297
วส์ 1296
เจ้าภาพ 1296
at@@ 1292
.ศ. 1290
National 1290
ณฑ์ 1289
ศิษ@@ 1289
1983 1283
สูญ@@ 1281
แพร@@ 1281
ค้น@@ 1280
ครบ@@ 1278
ักษ@@ 1278
2498 1276
มอ@@ 1276
พูน 1274
๓@@ 1274
ur@@ 1272
am@@ 1271
ซอฟ@@ 1271
ตว@@ 1271
2.5 1270
วิชา@@ 1270
แฟน@@ 1269
สรรค์ 1268
ุก 1267
ชัก@@ 1266
ศักราช 1264
ธรณ@@ 1262
เสื่อ@@ 1260
ปรุง 1259
ดูด 1258
2508 1255
บังคับ@@ 1252
ยอด@@ 1252
กลาย@@ 1251
3,000 1250
x@@ 1250
วิถ@@ 1250
เจา@@ 1250
ส.@@ 1249
.. 1248
[@@ 1245
In 1240
co@@ 1240
ประวั@@ 1240
2506 1239
am 1238
1930 1237
พยั@@ 1237
An@@ 1235
My 1235
1979 1234
จะ@@ 1234
1968 1233
ครรภ์ 1233
โองการ 1233
ภาย@@ 1232
ap@@ 1231
j 1230
๊ก@@ 1230
ติธรรม 1229
๊ะ 1227
เทน@@ 1225
อินโด@@ 1224
ชาญ 1223
ai 1222
1920 1218
1982 1216
to@@ 1216
# 1215
นง 1214
1981 1213
2501 1213
Award 1212
วอ@@ 1212
มัธย@@ 1211
เอเช@@ 1209
ฉะ@@ 1208
เทศบาล@@ 1208
1976 1203
สันนิ@@ 1203
ื่อย@@ 1203
ฟิก 1202
ฤ 1202
ตถ์ 1201
* 1200
1964 1200
อุด@@ 1199
20.@@ 1196
ฬา@@ 1196
le 1195
ae 1193
ลักษ@@ 1191
ตำหนัก 1186
อัง@@ 1185
เลี้ย@@ 1185
ล้าน@@ 1184
1941 1182
6,@@ 1180
Co@@ 1180
1975 1179
Al@@ 1179
่าว 1176
ฟุต@@ 1175
ชาติ@@ 1172
เวิร์ด 1172
แผ่น@@ 1171
John 1170
ch 1170
ภรณ์ 1170
เลื่อน@@ 1167
ค้าน 1166
คาร@@ 1165
ism 1163
พฤติ@@ 1163
เพิ@@ 1163
ิต@@ 1161
by 1160
วล 1160
ชัน@@ 1153
๖ 1153
9@@ 1151
1939 1148
;@@ 1148
ภาษ@@ 1147
โหล@@ 1147
8@@ 1146
is@@ 1146
้าน 1146
จุฬา@@ 1143
เกิด@@ 1143
1944 1142
es@@ 1142
6@@ 1140
มิวนิ@@ 1138
ื่อง 1138
ana 1136
รณะ 1134
แง@@ 1134
man 1133
1978 1130
100,000 1127
รรม@@ 1127
ธง@@ 1125
๙ 1125
นติก 1124
ō 1123
ยืน@@ 1122
250 1121
ti@@ 1121
7@@ 1120
Awards 1119
เดิ@@ 1119
− 1119
โฉ@@ 1118
1974 1117
Ar@@ 1116
Championship 1114
di@@ 1114
with 1112
ฤดู@@ 1112
ตช์ 1110
เทอร์@@ 1110
ปวด 1109
it@@ 1108
3@@ 1107
ก้า@@ 1107
ประยุ@@ 1107
มหาด@@ 1106
สนิ@@ 1106
ตาร์ 1105
ภิ 1100
ต่ำ@@ 1099
รงค์ 1099
นบุรี 1098
ถอน@@ 1097
กระทบ 1096
สาห@@ 1095
ชายา 1091
เฉล@@ 1091
อุท@@ 1090
ā 1088
‘ 1088
วิศวกรรม@@ 1087
อัศ@@ 1087
เสริ@@ 1083
ฬ@@ 1082
อัญ@@ 1082
id@@ 1081
?@@ 1080
w 1080
อเมริ@@ 1080
มองโก@@ 1079
ทองแดง 1077
ละติน 1076
ิง@@ 1076
แคว@@ 1075
ฆ์ 1074
ent 1073
พย์ 1070
ขัน@@ 1069
ภิกษุ 1069
da 1068
ite 1068
นิเว@@ 1068
ous 1066
องค์การบริหาร@@ 1065
tic 1062
v@@ 1062
ธ์ 1061
ยุโร@@ 1061
นที่ 1059
• 1059
ศวร 1058
Con@@ 1056
Q@@ 1056
ad@@ 1055
5@@ 1054
แรก@@ 1054
รม@@ 1053
ศรั@@ 1051
ปป@@ 1049
de@@ 1048
j@@ 1048
u@@ 1048
ระหว่าง@@ 1048
หัวหน้า@@ 1047
22@@ 1046
os 1046
อากาศ@@ 1046
Ex@@ 1045
บาล@@ 1045
มณฑ@@ 1044
แก่น 1043
2.@@ 1042
7,@@ 1039
ng 1039
ec@@ 1037
เสิร์@@ 1037
แบล@@ 1037
Q 1036
× 1036
จม@@ 1035
อัก@@ 1035
๗ 1032
98 1030
สุข@@ 1030
Me 1028
ศั@@ 1028
cor@@ 1027
et@@ 1027
ี่ยว@@ 1027
๕@@ 1025
ทรัพยา@@ 1024
เผย@@ 1024
รณ์ 1022
เรียบ@@ 1022
1969 1020
ตริ@@ 1020
แพท@@ 1020
คับ@@ 1019
ฌ 1019
1948 1018
สัตว@@ 1017
ดก 1016
ภัก@@ 1016
มาก@@ 1014
1967 1012
1977 1008
กบ@@ 1003
ศาลา@@ 1003
000,000 1002
1971 1001
Di@@ 1001
1956 999
em@@ 998
ab@@ 997
ers 995
ี่ยม@@ 994
ใช@@ 994
โดด@@ 992
พว@@ 991
หาร@@ 991
อาทิ@@ 991
ary 990
กลางเมือง 989
นเสียง 989
สรร 987
ata 986
ฟี@@ 986
ื่อง@@ 986
้วง 985
ี่ย@@ 984
ๅ@@ 984
Man 983
กิริยา 982
1942 981
ฟุ@@ 981
King 980
Thailand 980
05 977
ขั้นต@@ 977
วิด 977
z@@ 976
เที@@ 976
พิจาร@@ 975
หยุ@@ 975
บล 974
สปี@@ 974
1973 973
CO@@ 973
ราชธานี 973
หนาว 972
ื้อง@@ 972
ในเวลา@@ 970
๘ 968
ปลด@@ 966
lo@@ 965
เฝ@@ 964
กาง@@ 963
ตล@@ 963
ัติ 963
ase 961
onlyinclude 961
โภค 960
เปรียบ@@ 956
เลี่ยง 956
รพ 955
เกา@@ 953
18.@@ 952
ü 952
la 950
เศร้า 950
01 949
It 949
สำเร็จ@@ 947
การ์ 945
ag@@ 944
st@@ 944
ราชย์ 944
พวก@@ 943
่าว@@ 943
1918 942
ี่ยง@@ 942
บิด@@ 940
วิท@@ 940
101 936
อิสริยาภรณ์ 935
Entertainment 934
ูก 933
ห์น 929
เหลว 928
ํ 928
10.@@ 927
1936 925
ถัด@@ 924
เสถ@@ 924
เสนอ@@ 924
กลุ@@ 923
tion 919
w@@ 918
จุลจอม@@ 918
ya 917
ชิน@@ 917
เขา@@ 917
แส 915
un@@ 912
Car@@ 911
กำหนด@@ 911
ูก@@ 910
ยั้ง 909
1962 906
Mar@@ 906
ตตา@@ 906
อดุลย@@ 906
ดีโอ 905
กรณี@@ 898
$ 896
te 896
ทธ 896
ื้น 896
3.@@ 895
วะ@@ 895
Team 894
ขั้ว@@ 892
พรร@@ 892
ไซต์ 891
En@@ 890
si@@ 890
ษา@@ 890
8,@@ 888
900 886
ตย@@ 886
ญาต 885
1943 884
ศล 884
1963 883
tr@@ 881
ื่อน 881
yl@@ 880
ทรัพย์@@ 880
พบ@@ 880
ษั@@ 880
เวท@@ 880
ยื@@ 879
20,000 878
1000 877
1949 876
ed@@ 876
ong 876
เชส 876
180 871
ซาน@@ 871
130 870
9,@@ 870
1952 869
1947 868
ชม@@ 868
Star 867
li@@ 864
ลลิ@@ 864
เสื้อ@@ 864
le@@ 863
ฟื้น@@ 863
id 861
พนัก@@ 859
One 858
Un@@ 858
อร์ด 858
0,@@ 856
ure 856
โมเด@@ 856
1938 855
III 854
ST@@ 854
1946 853
Se@@ 853
ter 852
1965 851
www 850
ศาสตร@@ 849
คาร 848
รัตน@@ 847
วุฒ@@ 847
ö 846
IS@@ 845
ฝุ่น 845
ิว 844
1958 843
ator 843
หนังสือ@@ 843
ah 842
ical 842
ro@@ 842
เลื@@ 842
ครอบ@@ 841
ศัย 839
่วย@@ 839
ー@@ 839
ated 838
ักษณ์ 837
ันท@@ 837
เด็น 837
AS@@ 836
นาคม 836
เบล@@ 836
Le@@ 835
มีผล@@ 834
cell 833
ina 833
คลิ@@ 833
็อค 832
ir@@ 831
หลบ@@ 831
1966 830
ó 829
ประสิทธิ@@ 829
United 828
ูน@@ 828
แคร@@ 828
17.@@ 827
,000 826
ob@@ 825
สถาปั@@ 825
ad 823
โบราณ@@ 823
1954 822
age 822
ยิน 822
1961 821
All 820
Tr@@ 817
วิก@@ 816
ินส์ 815
พูล 814
Group 813
พิมพ@@ 812
พลาด 811
ep@@ 809
กระบ@@ 808
4,000 807
American 804
Black 804
Cor@@ 804
ั้ง 804
ชิ้น@@ 803
Par@@ 802
ราชา@@ 802
กระทรว@@ 801
การปฏิ@@ 801
โลก@@ 801
im@@ 800
สวรร@@ 800
08 799
19.@@ 799
ปฏ@@ 799
22.@@ 798
AT@@ 797
แชมเป@@ 797
ไข 797
Battle 796
ษฐาน 796
ุม 795
CD 794
ป้อง@@ 794
ative 791
oph@@ 791
พยพ 791
Mon@@ 790
ษฐ@@ 789
St@@ 788
neur@@ 788
กว้าง@@ 788
นิส 785
แกร@@ 783
ang 782
SE@@ 780
|@@ 780
อุตสาห@@ 778
9.@@ 777
Time 777
บัญ@@ 777
รอด@@ 777
สะด@@ 776
000 775
ant 775
Girl 773
ึ้ง 773
ol 772
เตร@@ 772
06 771
ศิลปากร 771
สนอง 771
แน่@@ 771
1959 770
ist 770
st 769
CO 768
No 768
น้ำทะเล 765
od@@ 764
per@@ 764
ผู้อำ@@ 764
บรา@@ 763
ผนว@@ 763
ma 762
College 761
der 759
~ 758
กุม 757
AR@@ 756
ory 756
พย@@ 756
00@@ 755
+@@ 754
Bo@@ 754
มุม@@ 754
Royal 752
bi@@ 752
110 751
par@@ 751
ทธา 750
IN@@ 749
ie 749
มว@@ 749
1919 748
City 748
็บ@@ 748
อวัย@@ 747
ก๊า@@ 746
1900 745
1957 743
เกิน@@ 743
ida 742
ทฤษฎ@@ 742
の@@ 742
po@@ 741
น้ำเงิน 741
ลึก@@ 741
11.@@ 739
ฟรา@@ 739
1912 738
1@@ 738
sh@@ 738
16.@@ 737
หนัง@@ 736
สมาชิก@@ 735
ฯ@@ 735
Live 734
ology 734
เซน@@ 734
car@@ 733
ปัส@@ 733
ance 732
พร้อม@@ 732
หัด 731
ensis 730
Center 729
ตน@@ 729
ลิข@@ 729
อาร@@ 728
เอล 727
แสวง@@ 727
ให้เกิด 726
นักแสดง@@ 724
วบ 724
โยง 724
Ne@@ 723
ดอล@@ 722
ส่วนต@@ 722
เกล้าเจ้าอยู่หัว 722
คุ้มกัน 720
จากนี้ 720
อนิ@@ 718
Wrestling 717
21.@@ 716
จน์ 716
โลห@@ 715
สิต 713
อุต@@ 713
เยาว@@ 713
ak@@ 712
ซิล 712
1953 711
He@@ 708
กิ่ง@@ 707
วาร@@ 707
13.@@ 706
ella 705
ผู้สำเร็จ@@ 705
AN@@ 704
1933 701
ฉ 701
เถียง 701
1955 698
De@@ 698
ea 697
อาชญา@@ 697
เหนือ@@ 697
สับ@@ 696
us@@ 695
็อป 695
หรือ@@ 693
Day 692
li 692
1917 691
50,000 691
AC 691
ta 691
หัส@@ 690
7.@@ 689
ing@@ 689
se 689
ang@@ 688
สงคราม@@ 688
í 687
สถิ@@ 687
il@@ 686
108 684
160 683
As@@ 683
พาณิช@@ 683
War 681
กราน 681
ン@@ 681
พรี@@ 680
หุ่น@@ 680
La 679
กลาโหม 679
นัด@@ 679
no@@ 678
แอตแล@@ 678
System 677
ตั้@@ 677
140 676
og@@ 675
ยาว@@ 675
q 674
อภิเษ@@ 674
1937 673
อิส@@ 673
ri@@ 671
ตีน 671
Br@@ 670
be 670
สาธิ@@ 670
Life 669
na 667
ถิ่นฐาน 667
http 666
system 666
หวัด 666
ี้ 666
บาร์@@ 665
Com@@ 664
ธีการ 664
พง@@ 662
องค์@@ 662
เพช@@ 662
พิพิธ@@ 659
ฆ่า@@ 658
ชนะ@@ 658
สังฆ@@ 658
คต 656
ทาว@@ 656
ร้าย@@ 656
อนุสร@@ 655
→ 655
เพราะ@@ 653
Association 652
ไฮโด@@ 652
5.@@ 651
ene 651
ภิกษ@@ 651
มกุ@@ 651
360 650
all 650
from 650
สมัคร@@ 650
6,000 649
se@@ 649
นิติบัญญัติ 649
หลุ@@ 649
3.5 648
To 648
able 648
colspan 645
un 645
1934 644
Super 644
ถก@@ 644
mon@@ 643
350 641
Show 640
Str@@ 640
112 639
ka 639
ฑา 639
1932 637
เคา@@ 637
8.@@ 635
งคืน 635
14.@@ 633
Institute 633
ความคิด@@ 633
ลาม 633
เสม@@ 633
ess 632
1924 631
UN@@ 631
ak 631
นำมา@@ 631
15.@@ 630
ty 630
è 630
ach@@ 629
1,500 628
RE@@ 628
รายการ@@ 628
เหลือ@@ 628
ER@@ 627
ics 627
กาศ 627
4.@@ 626
30,000 625
อค 625
end@@ 624
ica 624
12.@@ 623
1,0@@ 622
บัน@@ 622
เภ@@ 622
Be@@ 621
anti@@ 621
คัมภี@@ 621
1935 620
High 619
ษ์ 618
โฆ@@ 617
1928 616
Dis@@ 616
ั่ง@@ 615
Ac@@ 614
๖@@ 614
ati@@ 613
การ์@@ 613
ศาสนา@@ 613
2.0 611
ne@@ 611
ขนา@@ 611
ดัช@@ 611
az@@ 610
วัฒน@@ 610
8,000 609
เนี@@ 609
ธรรมศาสตร์ 608
แอฟริ@@ 608
Per@@ 607
เฉลิม@@ 607
ขวั@@ 606
เมล@@ 606
sp@@ 605
เล็ก@@ 605
av@@ 604
1951 602
Me@@ 602
Park 602
tive 602
ผ่า@@ 602
เคียง 602
เตอร์เทนเมนต์ 602
Academy 600
เขน 600
Great 599
ปกครอง@@ 599
Grand 598
RA@@ 598
Top 598
คว้า@@ 598
Mo@@ 597
On 597
ve 597
คะแน@@ 597
สามาร@@ 597
EP 596
ter@@ 596
CE@@ 595
มอบ@@ 595
Sp@@ 594
DC 593
House 593
ence 593
are 592
อ้าง@@ 592
โมง 592
125 591
Film 591
Science 590
St 590
ans 590
ตำแหน@@ 590
style 588
ทธิ์ 588
film 587
ยี@@ 586
Asia 585
Ro@@ 585
William 585
Pro@@ 584
王@@ 584
AL@@ 583
mo@@ 583
สันติ@@ 583
14@@ 582
ly 582
ular 582
นน@@ 582
AK@@ 580
James 580
atus 580
ig@@ 580
มร 580
รรษ 580
IC@@ 579
Art 578
row 578
à 578
0.5 577
6.@@ 576
ay 576
pr@@ 575
105 574
ref 574
นีย@@ 574
วิทยาล@@ 573
เป็นไป@@ 572
Col@@ 571
PC 570
อาด 570
200,000 569
MO@@ 569
ศักดิ์@@ 569
สหรัฐ@@ 569
เชิ@@ 569
มัธยม@@ 568
ไซด์ 567
Min@@ 566
di 566
เลง 566
500,000 565
Series 565
ธรรมนูญ 565
มุส@@ 565
เช่น@@ 565
MA 564
Or@@ 564
ปริญญา@@ 564
Red 562
ประชาชาติ 562
1.2 561
13@@ 561
Year 561
ฝึกสอน 560
Am@@ 559
1911 558
กุม@@ 558
Qu@@ 557
บัด 557
AC@@ 556
tri@@ 556
was 555
เ 555
450 553
Party 552
บาด 552
หลาย@@ 552
อักษ@@ 552
CT 551
1910 550
นารายณ์ 550
Song 549
โอลิ@@ 549
Big 548
ในกรณี@@ 548
me 547
re 547
ประสู@@ 547
1914 545
แวด@@ 544
สิก 543
าะ@@ 543
្@@ 543
1922 542
Ad@@ 542
Japan 542
ท่วม 542
CA@@ 541
Bar@@ 540
Inter@@ 538
ac 538
ment 538
ณห@@ 537
AG@@ 536
gen@@ 536
ให้เห็น 536
1908 535
Man@@ 535
RI@@ 535
ler 535
111 534
23.@@ 534
ci@@ 533
ion 533
ครั้@@ 532
ประหลา@@ 532
Young 531
大@@ 531
My@@ 530
est 530
ควร@@ 530
วัติ 530
หมุ@@ 529
เทิง 529
Sc@@ 528
Su@@ 528
10,@@ 527
Michael 527
tex 527
land 526
จับสลาก 526
แวดล้อม 526
Lo@@ 525
OS 525
WBC 525
่งข@@ 525
Records 524
osis 524
ป้อง 524
br@@ 523
ผสาน 523
26@@ 522
bo@@ 522
ura 522
115 521
Ph@@ 521
TE@@ 521
บันทึก@@ 521
Night 520
Pr@@ 520
Rock 520
eg@@ 520
นิธิ 520
Of 519
SS@@ 519
List 518
อารม@@ 518
Robert 517
ung 517
ตติ 517
รถไฟ@@ 517
ฮัม@@ 517
พิพิ@@ 516
อาคาร@@ 516
1929 515
con@@ 515
teams 515
IV 514
TO@@ 514
วินิ@@ 514
7,000 513
ER 513
Thai 513
had 513
ฏิ 513
El@@ 512
First 512
ra 512
des 511
1904 510
Cr@@ 510
HD 510
ell@@ 510
BO@@ 508
ni@@ 508
ov@@ 508
ูด@@ 508
นับ@@ 507
น้อง@@ 507
โปรดเกล้า@@ 507
ศาจ 506
อดุ@@ 506
Project 505
ard 505
um@@ 505
คาม 505
ฟิน@@ 505
โดด 505
30@@ 504
=@@ 503
กาส 503
son 502
ä 502
ตุร@@ 502
ah@@ 501
ศึ@@ 501
ng@@ 500
ut@@ 500
เบิล@@ 500
ร่ว@@ 499
codice 498
ปล่อย@@ 498
ศ์ 498
1921 497
atic 497
103 496
135 496
To@@ 496
We 496
ton 496
สงข@@ 496
Club 495
Hall 495
Po@@ 495
als 495
ara 495
Mal@@ 494
ne 494
คาบ@@ 494
พระเกียรติ 494
For@@ 493
ale 493
our 493
time 493
ใช้จ่าย 492
Tri@@ 491
inae 490
นีเซีย 490
1925 489
220 489
acid 489
State 488
ani 488
ลงคะแน@@ 488
Gu@@ 487
Windows 487
นิก 487
วัส@@ 487
1926 486
ที่ย@@ 486
1.6 485
ong@@ 485
116 484
Fr@@ 484
David 483
ข้อง 483
ซ่อม@@ 483
สัมพันธมิตร 483
มิลลิ@@ 482
–@@ 482
Te@@ 481
US 481
pe@@ 481
ิร์ล 481
โปรแ@@ 481
ศัตร@@ 480
line 479
pre@@ 479
กษา@@ 479
ส่ว@@ 479
League 478
TH@@ 478
White 478
ath@@ 478
of@@ 478
ot 478
ปราการ 478
109 477
ดง@@ 477
เกล้า@@ 477
106 476
1931 476
Char@@ 476
ES@@ 476
Festival 476
Miss 476
ชีวิ@@ 476
Is 475
WWF 475
-- 474
1906 474
Paul 474
cu@@ 474
ไฮโดร@@ 474
Pre@@ 472
ps 472
เลอร์ 472
12@@ 471
แน่น@@ 471
1923 470
AP@@ 470
IM@@ 470
รวจ@@ 470
เณ@@ 470
102 468
il 468
ั้ง@@ 468
SO@@ 467
ber@@ 466
eb@@ 466
เลือก@@ 466
แหง 466
and@@ 465
bu@@ 465
ei 465
oid 465
ดิโอ 465
มัก@@ 465
ยับ@@ 465
สำเน@@ 465
fer@@ 464
you 464
Charles 463
Network 463
Si@@ 463
ay@@ 463
te@@ 463
Ser@@ 462
17@@ 461
General 461
ley 461
แท้@@ 461
PS 460
ian 460
ไบร@@ 460
Company 459
Cup 459
Do@@ 459
States 459
TNA 459
str@@ 459
syndrome 459
world 459
ทวี@@ 459
do@@ 458
ge 458
ost@@ 458
poly@@ 458
Girls 457
NE@@ 457
อาณา@@ 457
su@@ 456
CH@@ 455
George 455
Pol@@ 455
Super@@ 455
๙@@ 455
1927 454
7.5 454
Blue 454
Har@@ 454
LO@@ 454
Prince 453
ik@@ 453
เนื่อง@@ 453
4.5 452
๘@@ 452
ted 451
วัฒ@@ 450
LD 449
SP@@ 449
hy@@ 449
ียม@@ 449
Final 448
kh@@ 448
บ่อย@@ 448
alism 447
ens 447
scope 447
af@@ 446
do 446
group 446
hi@@ 446
qu@@ 446
80@@ 445
DS@@ 445
York 445
Be 444
Don 444
SA@@ 444
pi@@ 444
ล่ม 444
1896 443
FI@@ 443
Li@@ 443
NXT 443
จันทน์ 443
MS 442
Your 442
Mr 441
sub@@ 441
tic@@ 441
320 440
trans@@ 440
27@@ 439
ok 439
ting 439
Arts 438
Master 438
River 438
model 438
ผ 438
อาวุ@@ 438
1890 437
Cal@@ 437
Prec@@ 437
ฆา@@ 437
40,000 436
ce 436
sc@@ 436
ts 436
สมเด็จ@@ 436
1.8 435
Media 435
Society 435
inal 435
1905 434
1915 434
Sur@@ 434
ho@@ 434
ū 434
ลาส@@ 434
107 433
16@@ 433
ex@@ 433
mat@@ 433
sel@@ 433
ทองค@@ 433
Queen 432
SA 432
ao 432
ue 432
117 431
US@@ 431
tis 431
up 431
เสบ 431
Bur@@ 430
WBA 430
oma 430
yr@@ 430
ปฐ@@ 430
ou@@ 429
ก็ดี 429
Bi@@ 428
ti 428
เมิน 428
he@@ 427
บาท@@ 427
ors 426
Ab@@ 425
Go@@ 425
Ver@@ 425
ons 425
*@@ 424
cr@@ 424
disorder 424
อุบัติ@@ 424
AI@@ 422
AM@@ 422
DNA 422
Ma@@ 422
Research 422
ane 422
ness 422
นติ@@ 422
ประท@@ 422
เภสั@@ 422
กาก 421
‍ 421
Her@@ 420
1907 419
300,000 419
Heart 419
Story 419
Up 419
15,000 418
2,500 418
AB@@ 418
way 418
ชน์ 418
ยนต@@ 418
ฮิน@@ 418
1.3 417
Little 417
NO@@ 417
era 417
ir 417
ก้าว@@ 417
เกษ@@ 417
1913 416
AT 416
DA 416
RNA 416
ca 416
ผลิต@@ 416
12,@@ 415
750 415
Ge@@ 415
dis@@ 415
non@@ 415
ธยา 415
Good 414
South 414
ari@@ 414
von 414
123 413
170 413
Mas@@ 413
น้อย@@ 413
วิวัฒ@@ 413
IS 412
ade 412
enc@@ 412
ประส@@ 412
007 411
AD 411
IB@@ 411
1916 410
Act 410
EST 410
Pan@@ 410
ick 409
104 408
BT 408
Boy 408
Council 408
DS 408
Op@@ 408
Pe@@ 408
RO@@ 408
chi@@ 407
name 407
ver@@ 407
ลึ@@ 407
5.5 406
Lin@@ 406
28@@ 405
FC 405
em 405
ge@@ 405
ha 405
sa 405
เหล่า@@ 405
้ล 405
China 404
Mag@@ 404
ou 404
ī 404
ยอร์@@ 404
Cy@@ 403
Er@@ 403
IP 403
UTC 403
ji 403
114 402
CY@@ 402
DE@@ 402
Sch@@ 402
ner 402
กล้าม@@ 402
บพิ@@ 402
เคราะ@@ 402
Ho@@ 401
Last 401
Technology 401
คุก@@ 401
พิวเตอร์ 401
… 401
127 400
AP 400
East 400
ist@@ 400
man@@ 400
121 399
English 399
Who 399
อิตา@@ 399
ala 398
ee 398
Bal@@ 397
British 397
ap 397
ole 397
्@@ 397
ถึงแก่@@ 397
ยาก@@ 397
รวด 397
เปรีย@@ 397
Golden 396
Hello 396
Model 396
สถ 396
หมู่@@ 396
๊ป 396
Generation 395
มง@@ 395
Des@@ 394
WCW 394
ini 394
Air 393
ME@@ 393
cy@@ 393
och@@ 393
ox@@ 393
pro@@ 393
เภท 393
Asian 392
Fe@@ 392
Lee 392
London 392
True 392
der@@ 392
inter@@ 391
วิน@@ 391
แอนิเม@@ 391
Hy@@ 390
1,200 389
IT@@ 389
MP@@ 389
Mer@@ 389
Sol@@ 389
We@@ 389
les 389
cer@@ 388
ปาล 388
เกษตรศาสตร์ 388
เป้า@@ 388
ISO 387
Kingdom 387
Mc@@ 387
yc@@ 387
ยำ 387
11,@@ 386
15@@ 386
language 386
40@@ 385
Men 385
ations 385
au 385
ด้วยเหตุ@@ 385
อนด์ 385
เกส 385
เบต 385
DO@@ 384
Mus@@ 384
Women 384
จญ@@ 384
ผู้แทน@@ 384
1800 383
GN 383
MRI 383
RS 383
ant@@ 383
tin 383
คุ้ม@@ 383
1870 382
Gr@@ 382
Inc 382
im 382
ino 382
so@@ 382
แฮร์@@ 382
128 381
Bangkok 381
ยาม@@ 381
រ@@ 381
Dream 380
NWA 380
Open 380
ita 380
per 380
that 380
イ@@ 380
1860 379
Go 379
Special 379
ai@@ 379
sion 379
song 379
Business 378
Dr 378
this 378
1889 377
Game 377
ent@@ 377
1871 376
Program 376
Thomas 376
formes 376
AS 375
aw@@ 375
ung@@ 375
yl 375
จอม@@ 375
Home 374
Mor@@ 374
Tag 374
ast@@ 374
out 374
33@@ 373
Dec@@ 373
Mel@@ 373
๗@@ 373
Pi@@ 372
THE 372
ชัด@@ 372
So@@ 371
com@@ 371
enth@@ 371
Ko@@ 370
co 370
EN@@ 369
Peter 369
ax@@ 369
ú 369
นเร@@ 369
พิว@@ 369
LE@@ 368
People 368
Ste@@ 368
ating 368
their 368
ดาห์ 368
1901 367
West 367
yn@@ 367
MI@@ 366
ni 366
not 366
ฉั@@ 366
1.4 365
Le 365
MS@@ 365
side 365
วาย@@ 365
หน่าย 365
25,000 364
den 364
gi@@ 364
ore 364
{ 364
£ 364
1,4@@ 363
113 363
Im@@ 363
oth@@ 363
BF 362
ความถ@@ 362
ลัง@@ 362
ั 362
เสพติด 362
Green 361
Richard 361
ey 361
ดื่@@ 361
1880 360
Sal@@ 360
go 360
ome 360
DL 359
q@@ 359
บัล@@ 359
12,000 358
Chart 358
Tour 358
330 357
Ang@@ 357
Dance 357
ry 357
series 357
กำเ@@ 357
สาวรีย์ 357
หม 357
What 356
ens@@ 356
ium 356
กูล 356
ออน@@ 356
AD@@ 355
Ap@@ 355
los@@ 355
ma@@ 355
คล้อง 355
ออกซิ@@ 355
1898 354
At@@ 354
ser@@ 354
ติศาสตร์ 354
สหภาพ@@ 354
240 353
PO@@ 353
ax 353
วิพา@@ 353
35@@ 352
SS 352
ns 352
สุนั@@ 352
118 351
Island 351
News 351
be@@ 351
du 351
ides 351
iz@@ 351
pl@@ 351
1,8@@ 350
Cl@@ 350
For 350
SC 350
Street 350
sive 350
คล้าย@@ 350
่อม@@ 350
BC 349
Dragon 349
Mac@@ 349
eng@@ 349
for@@ 349
ฤษ 349
หญ@@ 349
1909 348
2400 348
gr@@ 348
ind@@ 348
lu@@ 348
13,@@ 347
Hot 347
ann@@ 347
state 347
tor@@ 347
­@@ 347
α 347
เพื่อ@@ 347
Ber@@ 346
ill@@ 346
รู้ส@@ 346
14,@@ 345
AM 345
America 345
Class 345
Space 345
บันดา@@ 345
ยส์ 345
Global 344
Princess 344
Trans@@ 344
Union 344
ake 344
disease 344
ker 344
receptor 344
1500 343
190 343
Sea 343
ell 343
team 343
ur 343
สงค์ 343
AR 342
ab 342
กิโล@@ 342
ดึง@@ 342
ฤษฎ@@ 342
1903 341
Gen@@ 341
Ru@@ 341
Season 341
Sub@@ 341
Tokyo 341
ok@@ 341
1902 340
Bre@@ 340
form 340
FM 339
ari 339
É 339
ตอ@@ 339
มิว@@ 339
2.2 338
Concert 338
This 338
acc@@ 338
alis 338
center 338
ys 338
CI@@ 337
SM@@ 337
Tak@@ 337
นิสถาน 337
IC 336
Video 336
ada 336
ko 336
ครร@@ 336
ๅ 336
1,6@@ 335
210 335
tical 335
ยาท 335
Episode 334
Power 334
ide 334
สาบ 334
126 333
Google 333
Management 333
Republic 333
1895 332
Digital 332
HC 332
field 332
if 332
ish@@ 332
แหน@@ 332
2.4 331
European 331
ran@@ 331
Chinese 330
rom@@ 330
su 330
1.1 329
230 329
Nep@@ 329
au@@ 329
ili@@ 329
เต็ด 329
eus 328
ice 328
กระดา@@ 328
ル@@ 328
San 327
Sw@@ 327
ect 327
oh@@ 327
ç 327
9,000 326
CC@@ 326
No@@ 326
ks 326
vi@@ 326
คลาส@@ 326
จำแน@@ 326
1,9@@ 325
29@@ 325
CS@@ 325
MP 325
onic 325
sin@@ 325
Ag@@ 324
Can@@ 324
Duke 324
ile 324
子@@ 324
70@@ 323
Anti@@ 323
DVD 323
VS 323
bul@@ 323
ese 323
me@@ 323
ov 323
ys@@ 323
1888 322
34@@ 322
ets 322
om 322
they 322
ข้น 322
129 321
1899 321
Bank 321
ス@@ 321
1868 320
Central 320
Corporation 320
Health 320
Out 320
hi 320
io 320
light 320
member 320
self 320
tor 320
天@@ 320
6.5 319
Foundation 319
ality 319
edr@@ 319
ev@@ 319
มหาดไทย 319
1815 318
Bl@@ 318
MHz 318
Prot@@ 318
pH 318
กรรมา@@ 318
หญิง@@ 318
124 317
AL 317
Line 317
art 317
van 317
ye 317
กัป@@ 317
1893 316
Airport 316
Is@@ 316
ut 316
ตูน 316
ลิง@@ 316
1.7 315
122 315
1830 315
1867 315
Billboard 315
Lady 315
ek@@ 315
tu@@ 315
ς@@ 315
Book 314
ine@@ 314
mer@@ 314
ography 314
osa 314
ru@@ 314
นรี 314
…@@ 314
ラ@@ 314
1,5@@ 313
Mah@@ 313
ō@@ 313
แกร่ง 313
60,000 312
Kh@@ 312
Sar@@ 312
Val@@ 312
amine 312
cal@@ 312
ins 312
ization 312
ke 312
ty@@ 312
ve@@ 312
Bor@@ 311
Education 311
Ter@@ 311
ency 311
ค่อน@@ 311
1848 310
AE@@ 310
Channel 310
EX@@ 310
Shi@@ 310
Sho@@ 310
acy 310
ates 310
yo@@ 310
จะเป็น 310
ราะ@@ 310
วิสุ@@ 310
1897 309
ASA 309
God 309
eng 309
go@@ 309
lam@@ 309
protein 309
ปราบ@@ 309
ผู้แทนราษฎร 309
มั่น@@ 309
001 308
Empire 308
Service 308
back 308
hydro@@ 308
quot 308
und 308
ตแลนด์ 308
ประธาน@@ 308
ational 307
eph@@ 307
ki 307
ym@@ 307
Sa@@ 306
nerve 306
Henry 305
Pop 305
aki 305
ama 305
mar@@ 305
tics 305
116@@ 304
Apple 304
ME 304
North 304
PD 304
act 304
aka 304
emia 304
ette 304
its 304
off 304
ora 304
the@@ 304
â 304
บัญญ@@ 304
ា@@ 304
Ta@@ 303
่วย 303
Legend 302
Times 302
ato 302
ber 302
met@@ 302
เยา@@ 302
เว็บ@@ 302
Law 301
Order 301
Way 301
awa 301
ek 301
yp@@ 301
ละเอ@@ 301
FA 300
Marvel 300
Tre@@ 300
วินิจฉ@@ 300
AN 299
CD@@ 299
Games 299
Hol@@ 299
อิเล็ก@@ 299
อุณห@@ 299
เที่ยว@@ 299
280 298
Development 298
Free 298
ash@@ 298
du@@ 298
กระตุ@@ 298
น้ำเ@@ 298
ID 297
Kar@@ 297
MC 297
Road 297
ano 297
lin@@ 297
muscle 297
é@@ 297
Gar@@ 296
IG@@ 296
align 296
ish 296
opsis 296
24.@@ 295
Lov@@ 295
band 295
bar@@ 295
hom@@ 295
my 295
ocy@@ 295
wa 295
จักรวรร@@ 295
สุโข@@ 295
帝@@ 295
Light 294
cc@@ 294
function 294
· 294
BO 293
CH 293
Design 293
EC@@ 293
Fl@@ 293
PA 293
Radio 293
ame 293
del 293
down 293
org 293
pe 293
นซิ@@ 293
Album 292
Family 292
Mark 292
ST 292
ales 292
กษ์@@ 292
ษะ 292
Edition 291
ast 291
mag@@ 291
ster@@ 291
tions 291
136 290
Star@@ 290
res@@ 290
ประดิ@@ 290
Chi@@ 289
Martin 289
Ni@@ 289
Olympic 289
Vi@@ 289
https 289
ly@@ 289
up@@ 289
พระองค์@@ 289
อเล็กซาน@@ 289
皇@@ 289
Band 288
Fire 288
NA 288
Television 288
effect 288
eh@@ 288
ema 288
fl@@ 288
king 288
ler@@ 288
1878 287
ath 287
body 287
sch@@ 287
มงค@@ 287
ออส@@ 287
็ 287
1885 286
2.1 286
CA 286
Emperor 286
Like 286
cl@@ 286
por@@ 286
red 286
ta@@ 286
กษัตริ@@ 286
ali@@ 285
anth@@ 285
1600 284
260 284
Force 284
MTV 284
anthus 284
clu@@ 284
dae 284
set 284
กษั@@ 284
ศว@@ 284
Bas@@ 283
Louis 283
SH@@ 283
Studio 283
eli@@ 283
iss@@ 283
less 283
ological 283
sur@@ 283
BBC 282
Back 282
IP@@ 282
Lost 282
Public 282
Sam@@ 282
my@@ 282
1892 281
CP@@ 281
Dr@@ 281
TA 281
ein 281
esis 281
ki@@ 281
2,0@@ 280
ABA 280
MM 280
SN@@ 280
istic 280
mal@@ 280
pol@@ 280
ท่อง@@ 280
Journal 279
Saint 279
array 279
motor 279
ona 279
tra 279
145 278
1850 278
Bel@@ 278
Hor@@ 278
Shin@@ 278
Stadium 278
1,7@@ 277
1894 277
550 277
KO@@ 277
PC@@ 277
Rec@@ 277
ib@@ 277
ome@@ 277
Kim 276
RC 276
low 276
min@@ 276
กวม 276
AF 275
cap@@ 275
Kam@@ 274
ba@@ 274
ja 274
141 273
15,@@ 273
17,@@ 273
175 273
Do 273
VI@@ 273
adi@@ 273
ship 273
—@@ 273
1,3@@ 272
1840 272
250,000 272
As 272
Cap@@ 272
Cer@@ 272
Old 272
Out@@ 272
Play 272
Raw 272
Ther@@ 272
key 272
ode 272
ud@@ 272
ประโย@@ 272
มาณ 272
Dark 271
Multi@@ 271
Pro 271
aya 271
dia 271
net 271
Death 270
GM 270
GT@@ 270
PE@@ 270
PP@@ 270
TS 270
ach 270
loc@@ 270
tro@@ 270
ula 270
und@@ 270
ē 270
400,000 269
Engineering 269
Social 269
Ti@@ 269
Tor@@ 269
her@@ 269
hyper@@ 269
node 269
nucleus 269
Long 268
Summer 268
icus 268
ตอเรีย 268
1884 267
Mil@@ 267
first 267
format 267
kin 267
left 267
pu@@ 267
ture 267
ฟิลิ@@ 267
สัป@@ 267
い@@ 267
16,@@ 266
747 266
90@@ 266
ET 266
Earth 266
UK 266
odi@@ 266
ori 266
type 266
ประทับ@@ 266
ปัตย์ 266
150,000 265
1886 265
Joseph 265
Limited 265
Mad@@ 265
Universal 265
ds 265
ha@@ 265
region 265
yo 265
² 265
แนะ@@ 265
1861 264
2.3 264
650 264
Bu@@ 264
Met@@ 264
Pl@@ 264
Three 264
background 264
mi@@ 264
que 264
uk@@ 264
use 264
ขึ@@ 264
Let 263
Round 263
Sup@@ 263
action 263
ft 263
tional 263
มภ@@ 263
李@@ 263
119 262
155 262
1862 262
col@@ 262
if@@ 262
medi@@ 262
oku 262
เลขา@@ 262
1.0 261
1891 261
36@@ 261
day 261
ding 261
text@@ 261
Del@@ 260
Mat@@ 260
class 260
ich@@ 260
ilia 260
width 260
人@@ 260
0.1 259
117@@ 259
11@@ 259
1789 259
Ka@@ 259
ON@@ 259
OP@@ 259
Reg@@ 259
UN 259
all@@ 259
dr@@ 259
ger 259
ประติมา@@ 259
1866 258
Cas@@ 258
De 258
GP 258
Ha@@ 258
SR 258
bit 258
ement 258
fish 258
point 258
รรยา 258
’@@ 258
Cat@@ 257
Ke@@ 257
Maria 257
SI 257
ack 257
bl@@ 257
3.0 256
Kr@@ 256
Pat@@ 256
Sel@@ 256
inhibit@@ 256
ky 256
ster 256
Li 255
Sun 255
Voice 255
_@@ 255
ain 255
block 255
ima 255
ings 255
more 255
od 255
165 254
AA 254
Ltd 254
RI 254
That 254
ami 254
hab@@ 254
สะท@@ 254
・@@ 254
50@@ 253
Can 253
France 253
Mur@@ 253
Syn@@ 253
War@@ 253
ents 253
ณิช@@ 253
09.@@ 252
Han@@ 252
Wi@@ 252
anus 252
ective 252
ery 252
est@@ 252
~@@ 252
山@@ 252
Are 251
Co 251
Gold 251
LA 251
Poly@@ 251
Pres@@ 251
SAR@@ 251
Sor@@ 251
Ul@@ 251
can 251
dec@@ 251
micro@@ 251
1814 250
45@@ 250
Res@@ 250
ton@@ 250
เม็กซิ@@ 250
80,000 249
AF@@ 249
Audi@@ 249
Mi@@ 249
Sports 249
Win@@ 249
ass@@ 249
inc@@ 249
next 249
） 249
114@@ 248
3.1 248
Pap@@ 248
RT 248
San@@ 248
Sciences 248
Secret 248
Ty@@ 248
atr@@ 248
ial 248
ids 248
onia 248
text 248
ual 248
ิ่ม 248
144 247
1864 247
340 247
Du@@ 247
Gal@@ 247
Now 247
cus 247
des@@ 247
didae 247
music 247
ra@@ 247
ภ์ 247
365 246
4.0 246
Car 246
Cur@@ 246
Human 246
Original 246
Stone 246
ena 246
pop 246
ในแง@@ 246
າ@@ 246
133 245
Ch 245
Five 245
Fre@@ 245
ability 245
chi 245
eme 245
factor 245
super@@ 245
za 245
1863 244
CW 244
Four 244
Heavyweight 244
Online 244
RT@@ 244
kl@@ 244
theory 244
Ba@@ 243
Cop@@ 243
DI 243
Open@@ 243
Single 243
TR@@ 243
based 243
can@@ 243
cin@@ 243
gang@@ 243
illa 243
lateral 243
oni@@ 243
right 243
อุบล@@ 243
1887 242
380 242
Che@@ 242
Federation 242
Ros@@ 242
memory 242
nucle@@ 242
rec@@ 242
รวบ@@ 242
เร็ง 242
ト@@ 242
1879 241
Internet 241
oz@@ 241
Av@@ 240
County 240
Movie 240
Museum 240
Produc@@ 240
SI@@ 240
cular 240
hem@@ 240
return 240
GB 239
Mu@@ 239
OH 239
Pal@@ 239
contributor 239
โจม@@ 239
1200 238
131 238
1882 238
3.2 238
ise 238
ogen@@ 238
oides 238
ther@@ 238
สถ์ 238
1875 237
1877 237
1881 237
CP 237
Det@@ 237
End 237
Max 237
Net@@ 237
SE 237
TVB 237
WrestleMania 237
ail@@ 237
ect@@ 237
let 237
log 237
pan@@ 237
ลิซาเบธ 237
อยุ@@ 237
185 236
1865 236
Baby 236
Hay@@ 236
Lord 236
Lu@@ 236
Two 236
ess@@ 236
game 236
iy@@ 236
odon 236
ola 236
timestamp 236
1801 235
Al 235
Football 235
When 235
aur@@ 235
ight 235
ire 235
order 235
thumb 235
ク@@ 235
132 234
137 234
201 234
AI 234
Edward 234
GT 234
Hal@@ 234
Hem@@ 234
ba 234
lia 234
onal 234
son@@ 234
yg@@ 234
จัง@@ 234
เหลี่ยม@@ 234
์ม 234
EN 233
Homo 233
La@@ 233
PS@@ 233
So 233
Treaty 233
index 233
โหว@@ 233
Jean 232
Jo@@ 232
Microsoft 232
Sound 232
Station 232
^ 232
ga 232
ray 232
08.@@ 231
23,@@ 231
Dol@@ 231
High@@ 231
Jr 231
Men@@ 231
NK 231
Office 231
Over 231
Palace 231
ret@@ 231
tus 231
คับ 231
0.2 230
California 230
Cyprinidae 230
Kn@@ 230
bas@@ 230
ection 230
ef@@ 230
pent@@ 230
si 230
vs 230
ปลอด@@ 230
1790 229
256 229
270 229
Children 229
Double 229
Gro@@ 229
Pu@@ 229
Tar@@ 229
Ur@@ 229
ain@@ 229
air 229
aria 229
eth@@ 229
head 229
pos@@ 229
ฉบ@@ 229
ลพ@@ 229
สู้@@ 229
เดน@@ 229
26.@@ 228
600,000 228
737 228
Cre@@ 228
Mary 228
Pen@@ 228
Road@@ 228
acter 228
fe@@ 228
nd 228
som@@ 228
tom@@ 228
บัญชี@@ 228
ลงกรณ์ 228
205 227
Blood 227
Cro@@ 227
IEEE 227
Sy@@ 227
amb@@ 227
ful 227
gen 227
lig@@ 227
mas@@ 227
umi 227
กฤษฎ@@ 227
8.5 226
850 226
ECW 226
Hero 226
Kan@@ 226
Not@@ 226
Organization 226
USA 226
Vol@@ 226
la@@ 226
tree 226
อิทธิ@@ 226
An 225
Ben@@ 225
With 225
otic 225
phot@@ 225
therapy 225
คริสต@@ 225
ถึงแก@@ 225
สมัครรับเลือกตั้ง 225
ッ@@ 225
25.@@ 224
CV@@ 224
Land 224
refle@@ 224
ติกา 224
ล่ม@@ 224
เปรียญ 224
太@@ 224
134 223
143 223
146 223
148 223
199 223
Johnson 223
Micro@@ 223
Moon 223
Tur@@ 223
aph@@ 223
ati 223
bur@@ 223
multi@@ 223
play 223
so 223
tidae 223
โหม 223
シ@@ 223
Az@@ 222
Boys 222
Control 222
IT 222
Medical 222
Na@@ 222
asi@@ 222
username 222
ô 222
กระจา@@ 222
120@@ 221
1883 221
2.7 221
Alexander 221
All@@ 221
Hel@@ 221
Por@@ 221
RA 221
Tower 221
icul@@ 221
ow@@ 221
ros@@ 221
งคู่ 221
แห่ง@@ 221
リ@@ 221
ABC 220
CC 220
Days 220
Los 220
Rem@@ 220
Roman 220
Sweet 220
ania 220
ants 220
ars 220
don 220
duc@@ 220
jo 220
mer 220
ony 220
tery 220
tia 220
­ 220
ì 220
พระนคร@@ 220
1839 219
48@@ 219
IL@@ 219
Index 219
Scott 219
TC 219
cat@@ 219
jpg 219
ling 219
new 219
sh 219
งบ@@ 219
งเกิล 219
ท่ว@@ 219
154 218
1859 218
206 218
Cross 218
Ly@@ 218
phy@@ 218
urus 218
20,@@ 217
27.@@ 217
75@@ 217
Bad 217
Centre 217
Hu@@ 217
Non@@ 217
Paris 217
SD 217
berg 217
code 217
ez@@ 217
hu@@ 217
kin@@ 217
thi@@ 217
vol@@ 217
สุทธิ์ 217
CN@@ 216
Committee 216
Impact 216
LS 216
color 216
px 216
sul@@ 216
sy@@ 216
ten@@ 216
ธัน@@ 216
1872 215
3000 215
Court 215
ES 215
IA 215
Kur@@ 215
Money 215
low@@ 215
ulation 215
} 215
202 214
Cin@@ 214
Rel@@ 214
Tel@@ 214
Temple 214
bone 214
els 214
ines 214
number 214
ស@@ 214
37@@ 213
CM@@ 213
Nar@@ 213
Seven 213
Sim@@ 213
ins@@ 213
บริจา@@ 213
168 212
1700 212
2.6 212
55@@ 212
Crown 212
ION 212
ON 212
char@@ 212
edi@@ 212
ies 212
une 212
ทด@@ 212
มศึกษา 212
1873 211
And 211
Dar@@ 211
EM@@ 211
England 211
Garden 211
OR 211
\ 211
area 211
clear 211
control 211
eo 211
get 211
ke@@ 211
pal@@ 211
ren@@ 211
ten 211
ts@@ 211
เตอร์เทน@@ 211
်@@ 211
中@@ 211
0.6 210
1820 210
208 210
Beautiful 210
Bro@@ 210
Cos@@ 210
Da@@ 210
Down 210
EL@@ 210
Kiss 210
test 210
ā@@ 210
เยซู 210
后@@ 210
152 209
1806 209
183 209
222 209
AB 209
AND 209
BA 209
Kong 209
Yu@@ 209
acet@@ 209
ider@@ 209
log@@ 209
ri 209
them 209
uc@@ 209
ul 209
ye@@ 209
ê 209
142 208
151 208
Alliance 208
Cam@@ 208
India 208
Je@@ 208
Mask 208
Match 208
On@@ 208
ard@@ 208
ere 208
syn@@ 208
tes 208
ua 208
ทั่ง 208
ผู@@ 208
ราะ 208
รูปร@@ 208
19,@@ 207
225 207
3,0@@ 207
Ban@@ 207
Fast 207
GDP 207
Ger@@ 207
If 207
Maj@@ 207
PL@@ 207
Sport 207
gly@@ 207
psych@@ 207
ventr@@ 207
ทั้@@ 207
ภูเขา@@ 207
รัศ@@ 207
ื 207
เวียด@@ 207
IV@@ 206
Ram@@ 206
Studios 206
公@@ 206
1874 205
1876 205
2.8 205
310 205
60@@ 205
Ash@@ 205
LE 205
Mak@@ 205
Next 205
TP 205
Universe 205
old 205
pa 205
put 205
EC 204
Fame 204
Lake 204
UT@@ 204
Zone 204
frontal 204
have 204
iv@@ 204
พื@@ 204
ีก@@ 204
1849 203
235 203
65@@ 203
BS 203
Cl 203
DF 203
Get 203
Magic 203
Meg@@ 203
Play@@ 203
arch@@ 203
biaceae 203
esia 203
mic 203
mor@@ 203
nor@@ 203
til@@ 203
ver 203
ម@@ 203
CR@@ 202
Honda 202
Jack 202
Nations 202
Performance 202
Ray 202
Sain@@ 202
Sil@@ 202
ash 202
bre@@ 202
sa@@ 202
ters 202
สถา@@ 202
宗@@ 202
113@@ 201
1858 201
Again 201
Arena 201
Bot@@ 201
Gre@@ 201
IF@@ 201
IN 201
Iron 201
Pacific 201
TV@@ 201
comment 201
eral 201
ill 201
len@@ 201
lock 201
process 201
yu 201
ศรีอยุธยา 201
ั้ม 201
เริ่ม@@ 201
（@@ 201
1869 200
192 200
Div@@ 200
Dor@@ 200
EF 200
Ran@@ 200
Rose 200
SM 200
ae@@ 200
ik 200
จจะ 200
ทบ 200
147 199
238 199
BM@@ 199
CS 199
Code 199
Es@@ 199
Type 199
Wars 199
chol@@ 199
ital 199
เครน 199
0.3 198
153 198
Air@@ 198
Bridge 198
Brown 198
Ca@@ 198
Champion 198
Dem@@ 198
Junior 198
Kids 198
Not 198
SmackDown 198
The@@ 198
fr@@ 198
lion 198
ops 198
path@@ 198
เก่า@@ 198
420 197
Beauty 197
Chemical 197
Fo@@ 197
HE@@ 197
History 197
Hong 197
MIT 197
dium 197
elli 197
ick@@ 197
osp@@ 197
va 197
มเห@@ 197
ลิส 197
เนียร์ 197
172 196
173 196
1857 196
221 196
Elec@@ 196
Happy 196
IR@@ 196
Mac 196
Post@@ 196
ault 196
ko@@ 196
oy@@ 196
tur@@ 196
wiki 196
ตัดสิน@@ 196
南@@ 196
District 195
Fox 195
GO 195
Hotel 195
Sun@@ 195
act@@ 195
atory 195
data 195
fiber 195
otr@@ 195
version 195
บุรุ@@ 195
ฬิ@@ 195
ន@@ 195
、@@ 195
204 194
38@@ 194
39@@ 194
Bill 194
DB 194
Faculty 194
Fi@@ 194
Language 194
Mid@@ 194
Modern 194
Mol@@ 194
PR@@ 194
Toyota 194
ble 194
etic 194
men 194
ock 194
space 194
β 194
ชมพ@@ 194
มภ์ 194
านุ@@ 194
178 193
1793 193
Christian 193
Division 193
Smith 193
！@@ 193
158 192
184 192
212 192
44@@ 192
99@@ 192
Army 192
Brothers 192
Church 192
Computer 192
EA 192
ED 192
God@@ 192
Kor@@ 192
Ol@@ 192
Pot@@ 192
Rankings 192
Som@@ 192
VO@@ 192
aci@@ 192
aj@@ 192
ide@@ 192
ms 192
only 192
ug@@ 192
will 192
เมริ@@ 192
0.8 191
166 191
Cel@@ 191
Commission 191
HTML 191
Hi@@ 191
Ku@@ 191
Nov@@ 191
Pur@@ 191
Woman 191
ail 191
atum 191
lan@@ 191
law 191
mm 191
ote 191
una 191
ซื้อ@@ 191
รบ@@ 191
็ม@@ 191
‌ 191
2,9@@ 190
4.2 190
Aqu@@ 190
Chris 190
El 190
GO@@ 190
Nak@@ 190
ashi 190
ays 190
thr@@ 190
æ 190
ฅ@@ 190
จืด 190
18,@@ 189
22,@@ 189
303 189
CT@@ 189
Cure 189
From 189
OR@@ 189
SP 189
active 189
channel 189
cop@@ 189
ech@@ 189
elle 189
sen 189
tion@@ 189
would 189
ทักษิ@@ 189
138 188
193 188
3,500 188
301 188
Artist 188
Gl@@ 188
Jackson 188
Korea 188
Na 188
alization 188
cur@@ 188
lip@@ 188
mann 188
occus 188
pin@@ 188
station 188
tra@@ 188
š 188
ตอม 188
เจ้าอยู่@@ 188
1.9 187
1792 187
315 187
430 187
BB 187
Box 187
Got@@ 187
Il@@ 187
Knight 187
Operation 187
Os@@ 187
Ring 187
Standard 187
ii 187
oo 187
op 187
opath@@ 187
sk@@ 187
ust 187
value 187
ดอลลาร์@@ 187
นอกเหนือ@@ 187
แปซิ@@ 187
156 186
163 186
2,6@@ 186
46@@ 186
Agency 186
Ed@@ 186
FF 186
Once 186
del@@ 186
die 186
he 186
otro@@ 186
pp@@ 186
ze 186
18@@ 185
Data 185
VE 185
Web 185
Yo@@ 185
album 185
book 185
den@@ 185
ely 185
entr@@ 185
lic 185
mac@@ 185
รรม 185
0.4 184
157 184
BE 184
BSD 184
DE 184
Fin@@ 184
Ig@@ 184
Information 184
Magazine 184
Nor@@ 184
Stage 184
Tan@@ 184
Version 184
hin@@ 184
ites 184
opo@@ 184
ア@@ 184
文@@ 184
195 183
3.6 183
Die 183
KBS 183
MI 183
MV 183
Pin@@ 183
Real 183
SF 183
Siam 183
Stars 183
WC 183
cas@@ 183
cul@@ 183
ex 183
ika 183
inn@@ 183
mi 183
ny 183
phen@@ 183
ปรากฏ@@ 183
แ 183
元@@ 183
Cu@@ 182
Imperial 182
May@@ 182
Over@@ 182
Pas@@ 182
Vol 182
agn@@ 182
anterior 182
tors 182
ได้รับ@@ 182
‘@@ 182
1795 181
777 181
99.@@ 181
CL@@ 181
Heaven 181
Hill 181
Islands 181
Oc@@ 181
PM 181
PT@@ 181
Part 181
Spir@@ 181
fi@@ 181
gener@@ 181
int@@ 181
single 181
top 181
xi@@ 181
สัมผ@@ 181
องค์กร@@ 181
เบธ 181
三@@ 181
167 180
1854 180
265 180
Age 180
HO@@ 180
Harry 180
How 180
Mir@@ 180
Mountain 180
Second 180
Tom 180
ally 180
box 180
mel@@ 180
tan@@ 180
°@@ 180
แชมป์@@ 180
2,4@@ 179
47@@ 179
999 179
Gor@@ 179
Just 179
alb@@ 179
len 179
men@@ 179
polar@@ 179
prot@@ 179
we@@ 179
ตกล@@ 179
เมียร์ 179
國@@ 179
189 178
2,8@@ 178
309 178
Api@@ 178
Ci@@ 178
Government 178
HA 178
Pseud@@ 178
QS 178
Steve 178
Theatre 178
Vo@@ 178
Wall 178
amin@@ 178
dy 178
ham@@ 178
ico 178
iki 178
ip@@ 178
ito 178
mg 178
มนตร์ 178
0.7 177
181 177
1831 177
214 177
216 177
Core 177
Hydro@@ 177
Indian 177
Kat@@ 177
Leg@@ 177
Sir 177
Studies 177
Water 177
Yes 177
Ze@@ 177
bias 177
case 177
eri@@ 177
ira 177
leg 177
love 177
sen@@ 177
sin 177
sw@@ 177
tract 177
ysis 177
203 176
ING 176
Kal@@ 176
LC 176
LP 176
PW 176
Proc@@ 176
Revolution 176
SBS 176
Sky 176
ace 176
anda 176
gu@@ 176
ken 176
list 176
match 176
oli 176
ผสม@@ 176
な@@ 176
神@@ 176
1837 175
3.4 175
EG@@ 175
Economic 175
FF@@ 175
Jones 175
Uni@@ 175
Wal@@ 175
Wh@@ 175
air@@ 175
bit@@ 175
eta 175
ro 175
tric 175
water 175
ภาพยนต@@ 175
อาช@@ 175
แกะ@@ 175
แหล่งข@@ 175
179 174
191 174
196 174
3.3 174
Action 174
CE 174
Championships 174
Cru@@ 174
Francis 174
GN@@ 174
German 174
Holy 174
NS@@ 174
Tent@@ 174
Web@@ 174
YouTube 174
ami@@ 174
bor@@ 174
cd@@ 174
cle 174
ear@@ 174
ius 174
life 174
methyl@@ 174
ond@@ 174
oth 174
over 174
pul@@ 174
sus 174
take 174
umb@@ 174
well 174
wood 174
ダ@@ 174
118@@ 173
1812 173
182 173
1845 173
2,7@@ 173
35,000 173
ATP 173
Ann@@ 173
French 173
Head 173
Japanese 173
NT 173
SW@@ 173
enia 173
har@@ 173
like 173
ota 173
tar@@ 173
weight 173
ទ@@ 173
--- 172
139 172
149 172
162 172
1851 172
Angel 172
Bay 172
Christmas 172
Dead 172
Duch@@ 172
Energy 172
Fal@@ 172
Justice 172
Medicine 172
NET 172
Nag@@ 172
Nature 172
Nissan 172
Soul 172
Var@@ 172
WHO 172
Wil@@ 172
lab@@ 172
ney 172
ประชาธิ@@ 172
ปไต@@ 172
武@@ 172
2023 171
480 171
Actress 171
CDC 171
CIA 171
GA 171
MR 171
Nam@@ 171
Never 171
OF 171
Ob@@ 171
ff@@ 171
hum@@ 171
ord@@ 171
search 171
ural 171
var 171
zone 171
‎ 171
161 170
1791 170
1856 170
251 170
Convention 170
Em@@ 170
May 170
NT@@ 170
Rainbow 170
VI 170
complex 170
eous 170
ey@@ 170
parentid 170
solid 170
trac@@ 170
war@@ 170
−@@ 170
1824 169
304 169
375 169
70,000 169
Ben 169
CU 169
Express 169
Grammy 169
Hom@@ 169
Mobile 169
Search 169
Sen@@ 169
Tom@@ 169
eri 169
eter 169
inus 169
ket@@ 169
ku 169
mus@@ 169
national 169
room 169
second 169
video 169
vir@@ 169
which 169
115@@ 168
169 168
21,@@ 168
After 168
Come 168
Ir@@ 168
Lab@@ 168
Lim@@ 168
Right 168
Tran@@ 168
Tro@@ 168
Will 168
bot@@ 168
ects 168
ner@@ 168
power 168
star 168
}@@ 168
ñ 168
金@@ 168
，@@ 168
1821 167
1852 167
215 167
28.@@ 167
370 167
Comp@@ 167
JR 167
Lor@@ 167
Mand@@ 167
New@@ 167
YO@@ 167
aff@@ 167
ali 167
analysis 167
aster 167
ching 167
enti@@ 167
ff 167
ham 167
ichi 167
lidae 167
membrane 167
oon 167
ush@@ 167
ø 167
カ@@ 167
177 166
Area 166
COVI@@ 166
Challenge 166
Champions 166
Dro@@ 166
Joe 166
Most 166
Red@@ 166
atidae 166
ectus 166
free 166
house 166
lar@@ 166
lev 166
lis 166
mit@@ 166
public 166
uk 166
พระบาทสมเด็จพระมงกุ@@ 166
แอต@@ 166
朝@@ 166
3.7 165
Brass@@ 165
Century 165
Fantasy 165
Fer@@ 165
Full 165
MB 165
PP 165
Press 165
SD@@ 165
Santa 165
Side 165
ago 165
bic@@ 165
iro 165
polar 165
ser 165
ub@@ 165
ume 165
where 165
yst@@ 165
25,@@ 164
29.@@ 164
Arthur 164
DR 164
DV@@ 164
Far@@ 164
Hospital 164
Oh 164
SO 164
Sem@@ 164
Square 164
alm@@ 164
dy@@ 164
ori@@ 164
our@@ 164
then 164
tw@@ 164
wan 164
นแรง 164
ศึกษาธิการ 164
1828 163
194 163
209 163
AV@@ 163
Doctor 163
Future 163
Mis@@ 163
Nan@@ 163
PG 163
RN@@ 163
Sak@@ 163
Sin@@ 163
Stephen 163
aden@@ 163
ential 163
fac@@ 163
ny@@ 163
oa 163
ost 163
post@@ 163
rot@@ 163
ī@@ 163
สนะ 163
ฬิกา 163
国@@ 163
明@@ 163
2,5@@ 162
36,@@ 162
410 162
Country 162
Dev@@ 162
FO@@ 162
IX 162
Jazz 162
Pa@@ 162
Room 162
Sing@@ 162
ger@@ 162
into 162
ker@@ 162
mod@@ 162
not@@ 162
pur@@ 162
were 162
จรา@@ 162
วัตถ@@ 162
Elizabeth 161
Face 161
GE 161
Ham@@ 161
Tim@@ 161
Under@@ 161
amp@@ 161
astr@@ 161
esti@@ 161
ith 161
lat@@ 161
ow 161
จรร@@ 161
西@@ 161
171 160
174 160
305 160
Bat@@ 160
Der@@ 160
GS 160
March 160
Raj@@ 160
Return 160
She@@ 160
UR@@ 160
Wor@@ 160
ford 160
has@@ 160
ich 160
mu@@ 160
people 160
virus 160
yi 160
ã 160
11,000 159
1300 159
26,@@ 159
67@@ 159
Ak@@ 159
Albums 159
Ay@@ 159
Disney 159
Ky@@ 159
MO 159
Marie 159
Medi@@ 159
Mind 159
Point 159
Ri@@ 159
Songs 159
Town 159
XX 159
html 159
major 159
prop@@ 159
sal@@ 159
พฤษภา@@ 159
78@@ 158
Anatom@@ 158
Her 158
Neur@@ 158
Only 158
PR 158
Peace 158
Prize 158
Rap@@ 158
Sk@@ 158
az 158
cho@@ 158
ci 158
cos@@ 158
ever 158
inf@@ 158
itz 158
ose 158
rate 158
ties 158
ville 158
we 158
คที@@ 158
อย่างใด 158
マ@@ 158
1853 157
239 157
Arch@@ 157
CR 157
Daniel 157
Fu@@ 157
His 157
Intel 157
Mem@@ 157
ass 157
hor@@ 157
hydr@@ 157
olo@@ 157
oscop@@ 157
oto 157
oxid@@ 157
rock 157
yan@@ 157
ซึม@@ 157
វ@@ 157
ん@@ 157
176 156
1832 156
1841 156
Bab@@ 156
DP 156
Frank 156
Hell 156
Karl 156
Pictures 156
ROH 156
Take 156
Triple 156
allo@@ 156
ani@@ 156
ep 156
factory 156
hr@@ 156
kg 156
mes@@ 156
orum 156
potential 156
ulus 156
unc@@ 156
xy@@ 156
ยยศ 156
ลใจ 156
ド@@ 156
306 155
460 155
@ 155
Bac@@ 155
Fut@@ 155
Gener@@ 155
Kas@@ 155
Les 155
Pit@@ 155
Place 155
apo@@ 155
bar 155
ila 155
inger 155
ku@@ 155
pyr@@ 155
sky 155
surface 155
war 155
± 155
กาศ@@ 155
มาเล@@ 155
วอลเล@@ 155
か@@ 155
ジ@@ 155
이@@ 155
243 154
Eur@@ 154
Middle 154
More 154
PCR 154
Screen 154
Singer 154
ello 154
fa 154
sens@@ 154
sor@@ 154
stere@@ 154
sum@@ 154
wave 154
レ@@ 154
159 153
211 153
217 153
308 153
Blind 153
CCD 153
Child 153
Fe 153
Fel@@ 153
GC 153
Ji@@ 153
Mode 153
Natural 153
ONE 153
Pul@@ 153
Shar@@ 153
Tree 153
Wild 153
Years 153
dor@@ 153
iTunes 153
map 153
media 153
pen@@ 153
superior 153
ใส@@ 153
1803 152
1847 152
Black@@ 152
Fashion 152
Ju@@ 152
Kir@@ 152
NO 152
Our 152
Production 152
Youth 152
ack@@ 152
bus 152
cha 152
hal@@ 152
iko 152
oni 152
other@@ 152
radi@@ 152
ush 152
平@@ 152
新@@ 152
1808 151
1825 151
2300 151
4,0@@ 151
Department 151
Fil@@ 151
GP@@ 151
Pun@@ 151
Visual 151
ein@@ 151
method 151
raj@@ 151
rowspan 151
บัม 151
 @@ 151
‎@@ 151
′ 151
1805 150
1835 150
246 150
Angeles 150
Cathedral 150
Dic@@ 150
Eastern 150
Ranking 150
Short 150
agonal 150
ero 150
fo@@ 150
iri 150
ister@@ 150
over@@ 150
pes 150
stone 150
tel@@ 150
จัย 150
ฟริ@@ 150
ลเลียม 150
43@@ 149
5000 149
AST 149
Gi@@ 149
Know 149
Pic@@ 149
Pierre 149
Radi@@ 149
Rain 149
VII 149
ace@@ 149
cher 149
hypo@@ 149
iti@@ 149
lin 149
mati@@ 149
mon 149
pa@@ 149
sem@@ 149
yro@@ 149
จอมมารดา 149
หลีก@@ 149
ក@@ 149
州@@ 149
186 148
187 148
207 148
223 148
AO@@ 148
Am 148
Broadcasting 148
FIFA 148
Friends 148
Machine 148
Motor 148
Tw@@ 148
ades 148
bal@@ 148
chin@@ 148
cognitive 148
dem@@ 148
eria 148
etta 148
gene 148
print 148
ven@@ 148
yrus 148
ราธิ@@ 148
ฬา 148
14,000 147
1799 147
295 147
323 147
4.1 147
Acanth@@ 147
Ali 147
Conference 147
Field 147
Food 147
Hen@@ 147
Idol 147
Phot@@ 147
Sav@@ 147
Sec@@ 147
Stop 147
Works 147
Xi@@ 147
agin@@ 147
ban@@ 147
idi@@ 147
vin@@ 147
vo@@ 147
work 147
your 147
าคม 147
一@@ 147
城@@ 147
安@@ 147
1660 146
1826 146
Animation 146
Astr@@ 146
Bell 146
By 146
Call 146
Castle 146
Director 146
Got 146
Kevin 146
Protocol 146
RIAA 146
SU@@ 146
Sony 146
Southern 146
Spring 146
but 146
cre@@ 146
fication 146
her 146
ici@@ 146
minor 146
ple@@ 146
uri 146
μ 146
ာ@@ 146
☆ 146
し@@ 146
江@@ 146
1844 145
30.@@ 145
49@@ 145
AW@@ 145
Blu@@ 145
Board 145
Hz 145
Jean@@ 145
Johnny 145
LED 145
Mul@@ 145
Pter@@ 145
SL@@ 145
dic@@ 145
dorsal 145
elec@@ 145
family 145
network 145
ois 145
ories 145
pattern 145
through 145
เดียวกับ 145
ใหญ@@ 145
164 144
255 144
4.3 144
Ai 144
Bec@@ 144
Dan@@ 144
Freedom 144
Gate 144
Here 144
Luc@@ 144
Name 144
Rhin@@ 144
Van@@ 144
ages 144
aku 144
ck 144
eon 144
itation 144
lo 144
rol@@ 144
social 144
tube 144
ui 144
ชื่น@@ 144
เหรียญ@@ 144
オ@@ 144
之@@ 144
海@@ 144
16,000 143
1648 143
1813 143
Bay@@ 143
CJ 143
Cast@@ 143
Classification 143
Make 143
arg@@ 143
att@@ 143
ce@@ 143
dys@@ 143
gal@@ 143
ometr@@ 143
ough 143
phosph@@ 143
trop@@ 143
ule 143
ute 143
ə 143
ดารา@@ 143
ロ@@ 143
06.@@ 142
1400 142
501 142
950 142
AG 142
ATC 142
African 142
Bachelor 142
Bus@@ 142
CV 142
Change 142
Common 142
MT 142
Romance 142
cip@@ 142
ew@@ 142
face 142
ike 142
mot@@ 142
mp@@ 142
pres@@ 142
rd 142
ł 142
พรา@@ 142
ウ@@ 142
1822 141
227 141
29,@@ 141
302 141
57@@ 141
ARA 141
Chicago 141
Dynasty 141
Flo@@ 141
Gol@@ 141
MBC 141
Sky@@ 141
Sus@@ 141
aw 141
eck 141
long@@ 141
lum 141
ones 141
pel@@ 141
sol@@ 141
tho@@ 141
yn 141
มพู@@ 141
รัมย์ 141
เจร@@ 141
1080 140
1649 140
1842 140
24,@@ 140
252 140
290 140
37,@@ 140
56@@ 140
660 140
Access 140
Classic 140
Congress 140
ESPN 140
Heroes 140
JT@@ 140
Ren@@ 140
Rom@@ 140
Washington 140
ave 140
change 140
emb@@ 140
estr@@ 140
ev 140
fer 140
lower 140
osus 140
ph 140
sey 140
two 140
white 140
xi 140
การี 140
บัติ@@ 140
อัฟ@@ 140
เรื่อย@@ 140
ត@@ 140
ャ@@ 140
1603 139
1707 139
2024 139
249 139
27,@@ 139
3,5@@ 139
3.8 139
307 139
4.6 139
58@@ 139
AV 139
Actor 139
BL@@ 139
Deep 139
Equ@@ 139
Eric 139
Forest 139
Korean 139
Number 139
Plan@@ 139
Platform 139
Pri@@ 139
Sex@@ 139
Tal@@ 139
Van 139
Virgin 139
Wo@@ 139
boy 139
conver@@ 139
ech 139
ellidae 139
gl@@ 139
int 139
les@@ 139
link 139
ll 139
phase 139
phosphate 139
py@@ 139
tre@@ 139
verse 139
zu 139
ǎ 139
　@@ 139
道@@ 139
高@@ 139
1783 138
18,000 138
1836 138
1846 138
1855 138
5.1 138
720 138
Albert 138
Gang@@ 138
Hon@@ 138
INE 138
Player 138
Rid@@ 138
See 138
She 138
Silver 138
Sword 138
Zero 138
basal 138
cel@@ 138
his 138
ier 138
ison 138
level 138
nom@@ 138
port 138
ron@@ 138
size 138
try 138
รนด์ 138
ลอส@@ 138
13,000 137
197 137
28,@@ 137
Crazy 137
Ele@@ 137
Ga@@ 137
Han 137
Lev@@ 137
Long@@ 137
Rob@@ 137
SL 137
Security 137
bin 137
ble@@ 137
ett 137
fied 137
ih@@ 137
kar@@ 137
min 137
pot@@ 137
sea 137
tica 137
wrestler 137
วัค@@ 137
วิศว@@ 137
แลก@@ 137
劉@@ 137
왕@@ 137
188 136
198 136
333 136
440 136
53@@ 136
59@@ 136
Andrew 136
Bowl 136
DD 136
DI@@ 136
Drama 136
Ep@@ 136
Ker@@ 136
NJ@@ 136
Nine 136
Run 136
UI 136
XIII 136
anc@@ 136
board 136
centr@@ 136
eling 136
football 136
mark 136
phon@@ 136
root 136
verte@@ 136
ylo@@ 136
မ@@ 136
バ@@ 136
275 135
285 135
911 135
AJ 135
Adam 135
Cat 135
Count 135
Edge 135
IL 135
Ji 135
Mini 135
Monster 135
RPG 135
Rat@@ 135
Spe@@ 135
UL@@ 135
Up@@ 135
Vit@@ 135
Wa@@ 135
Wonder 135
chrom@@ 135
mail 135
ment@@ 135
ocar@@ 135
plas@@ 135
school 135
sk 135
ves 135
กองทัพ@@ 135
ฝรั@@ 135
ราชภั@@ 135
สุพรรณ@@ 135
เวียง@@ 135
1804 134
234 134
3,9@@ 134
5.0 134
5.7 134
6.3 134
Administration 134
Advanced 134
Earl 134
Ghost 134
IW@@ 134
PN 134
Pop@@ 134
Py@@ 134
SH 134
Tiger 134
ag 134
any 134
cm 134
def 134
eki 134
inum 134
isi@@ 134
oil 134
ort 134
primary 134
sam@@ 134
sti@@ 134
tle 134
top@@ 134
vesti@@ 134
ò 134
1701 133
1796 133
1802 133
1810 133
218 133
AU 133
Away 133
Din@@ 133
EV@@ 133
Fi 133
Ful@@ 133
HBO 133
HS 133
Hybrid 133
Si 133
Slam 133
Ten@@ 133
Tu@@ 133
UC@@ 133
UR 133
WW@@ 133
Western 133
asa 133
ater 133
ector 133
eum 133
flow 133
illus 133
itis 133
matrix 133
oi 133
trace 133
uki 133
usa 133
val@@ 133
visual 133
yth@@ 133
zen 133
ฝ 133
ยภาพ 133
ลี้@@ 133
1794 132
264 132
286 132
30,@@ 132
34,@@ 132
HD@@ 132
Hollywood 132
Khan 132
Lat@@ 132
Ocean 132
Shu@@ 132
TE 132
Wang 132
Whe@@ 132
alia 132
aling 132
back@@ 132
burg@@ 132
ean 132
fus@@ 132
nh@@ 132
tim@@ 132
กำกวม 132
อีย@@ 132
「@@ 132
245 131
Aer@@ 131
CEO 131
CG 131
Cir@@ 131
Cle@@ 131
Collection 131
DJ 131
Fair@@ 131
IUPAC 131
Wu 131
aer@@ 131
cycle 131
iPhone 131
oli@@ 131
out@@ 131
สวี@@ 131
グ@@ 131
1843 130
228 130
244 130
253 130
Amp@@ 130
Bon@@ 130
Dom@@ 130
Drive 130
Gam@@ 130
Hat@@ 130
Hit@@ 130
Kin@@ 130
LG@@ 130
Ok@@ 130
Ra@@ 130
Six@@ 130
Software 130
Theory 130
ats 130
ature 130
dian 130
ith@@ 130
mal 130
meth@@ 130
mol 130
posterior 130
ying 130
ˈ 130
ເ@@ 130
日@@ 130
07.@@ 129
1650 129
1798 129
1817 129
232 129
247 129
640 129
AY 129
Ass@@ 129
CBS 129
Don@@ 129
Dynam@@ 129
Hir@@ 129
ICE 129
Jan 129
Jur@@ 129
Key 129
Ki@@ 129
Library 129
McMahon 129
Mike 129
Off 129
Popular 129
Prim@@ 129
Wonder@@ 129
aea 129
aga 129
core 129
enz@@ 129
ho 129
immun@@ 129
reg@@ 129
sy 129
tem@@ 129
uli@@ 129
who 129
โยธ@@ 129
ガ@@ 129
226 128
241 128
258 128
36.@@ 128
4.8 128
Federal 128
Fur@@ 128
Hunter 128
Mars 128
Mod@@ 128
Orchestra 128
PV 128
Prunus 128
Rot@@ 128
Sha@@ 128
Speed 128
Subaru 128
Swe@@ 128
Tony 128
Warner 128
aro 128
emp@@ 128
ground 128
ized 128
ots 128
show 128
sil@@ 128
ณะ@@ 128
มแดน 128
ยาย@@ 128
た@@ 128
タ@@ 128
光@@ 128
4.4 127
68@@ 127
76@@ 127
88@@ 127
Africa 127
BN 127
Ball@@ 127
Capital 127
Civil 127
Cul@@ 127
Culture 127
EM 127
Fall 127
Front 127
Gir@@ 127
HV@@ 127
Ice 127
MR@@ 127
Mission 127
Mnet 127
Nic@@ 127
Post 127
Rev@@ 127
Rights 127
Ry@@ 127
WA 127
WS 127
bular 127
da@@ 127
eu@@ 127
glu@@ 127
macro@@ 127
off@@ 127
sal 127
ste@@ 127
upper 127
≤ 127
漢@@ 127
대@@ 127
1100 126
1776 126
1807 126
1834 126
3,7@@ 126
32,@@ 126
325 126
Bit@@ 126
Carl 126
Choice 126
Electronic 126
Forward 126
He 126
IE@@ 126
IVE 126
Jan@@ 126
Jim 126
MB@@ 126
Plus 126
SQL 126
Tam@@ 126
Wind 126
aim@@ 126
ava 126
dro@@ 126
ental 126
han 126
has 126
ize 126
lers 126
max 126
opus 126
revision 126
tam@@ 126
vers 126
word 126
ǐ 126
ฃ 126
ฦ@@ 126
สุล@@ 126
ົ@@ 126
地@@ 126
女@@ 126
1066 125
2.9 125
224 125
520 125
At 125
DL@@ 125
Democratic 125
FDA 125
Fly 125
Hand@@ 125
ML@@ 125
PE 125
Supreme 125
Under 125
WG 125
Where 125
XML 125
agne@@ 125
extr@@ 125
hol@@ 125
omat@@ 125
tism 125
trial 125
พงศาว@@ 125
ไหม@@ 125
戦@@ 125
237 124
242 124
ACT 124
Australian 124
Born 124
CI 124
Da 124
Executive 124
Eyes 124
Hyper@@ 124
Mit@@ 124
Prom@@ 124
Sap@@ 124
Shanghai 124
Thi@@ 124
also 124
ben@@ 124
bi 124
bin@@ 124
dol@@ 124
ix 124
oral 124
oshi 124
pap@@ 124
table 124
tag@@ 124
uz@@ 124
wh@@ 124
zi@@ 124
เฉลิ@@ 124
宋@@ 124
1809 123
35,@@ 123
5.2 123
787 123
85@@ 123
AZ@@ 123
Bir@@ 123
Columbia 123
DM 123
HF 123
Imag@@ 123
Ken@@ 123
Kon@@ 123
LAN 123
Lion 123
Record 123
Scar@@ 123
Scre@@ 123
Tru@@ 123
agent 123
anna 123
brain 123
ert 123
icism 123
inidae 123
load 123
mic@@ 123
nu@@ 123
sp 123
stri@@ 123
งับ 123
สาวร@@ 123
สิงค@@ 123
@@ 123
200@@ 122
3.9 122
311 122
625 122
About 122
Authority 122
Beach 122
Bil@@ 122
Bub@@ 122
Dre@@ 122
ET@@ 122
Evil 122
Forever 122
Fro@@ 122
Hum@@ 122
ID@@ 122
Lac@@ 122
Memorial 122
PO 122
Picture 122
Sand@@ 122
Show@@ 122
Winter 122
arr@@ 122
asis 122
city 122
etal 122
gi 122
graphy 122
igh@@ 122
mph 122
pedia 122
sec@@ 122
tiv@@ 122
uma 122
uv@@ 122
year 122
zi 122
ังก@@ 122
แจ็ก@@ 122
る@@ 122
1640 121
1838 121
294 121
4.7 121
54@@ 121
6.2 121
Australia 121
Autom@@ 121
Bak@@ 121
Community 121
Diamond 121
Fac@@ 121
Higher 121
IO@@ 121
Jac@@ 121
Ox@@ 121
Perfect 121
Rus@@ 121
Simon 121
Valley 121
aba 121
alist 121
any@@ 121
dom 121
epo@@ 121
ists 121
lem@@ 121
nia 121
nm 121
orr@@ 121
pi 121
ry@@ 121
sac@@ 121
scale 121
zh 121
ภค@@ 121
มารี 121
รวด@@ 121
້@@ 121
う@@ 121
学@@ 121
小@@ 121
0.0@@ 120
0.9 120
1818 120
Architecture 120
Eng@@ 120
Fair 120
Florida 120
HT 120
Has@@ 120
IBM 120
IF 120
Kit@@ 120
Lam@@ 120
Link 120
Mut@@ 120
Neg@@ 120
Power@@ 120
Psych@@ 120
Report 120
Sir@@ 120
TH 120
There 120
Tomorrow 120
Vel@@ 120
app@@ 120
ation@@ 120
base 120
cc 120
dynasty 120
ging 120
irus 120
layer 120
metabol@@ 120
mission 120
oly@@ 120
ple 120
porting 120
ses 120
ski 120
species 120
tos 120
tre 120
zo 120
บวน 120
มัธ@@ 120
1819 119
213 119
262 119
74@@ 119
802.@@ 119
Assembly 119
Beat 119
Case 119
Dreams 119
FE 119
Giovanni 119
Gy@@ 119
Hab@@ 119
Hun@@ 119
MA@@ 119
MAX 119
Masters 119
Planet 119
Say 119
They 119
Trav@@ 119
Yu 119
age@@ 119
ans@@ 119
een 119
entia 119
gran@@ 119
iting 119
med@@ 119
ox 119
part 119
rel@@ 119
tric@@ 119
xin 119
ć 119
ธาน@@ 119
พราหม@@ 119
€ 119
河@@ 119
白@@ 119
1797 118
219 118
272 118
38.@@ 118
6.6 118
AAA 118
ACC 118
AFC 118
Alan 118
Anne 118
Contest 118
Flash 118
KO 118
Kom@@ 118
PRO@@ 118
RF 118
Store 118
Ven@@ 118
View 118
Walter 118
aker 118
ano@@ 118
ary@@ 118
ayer 118
central 118
ematic 118
ending 118
gia 118
ider 118
mo 118
ope 118
orn 118
pid 118
position 118
sexual 118
study 118
umin@@ 118
usion 118
wikitext 118
ปรัช@@ 118
เวณ 118
เหมา@@ 118
ニ@@ 118
276 117
390 117
4000 117
5.6 117
540 117
64@@ 117
Alone 117
Chemistry 117
Cour@@ 117
DA@@ 117
Enter@@ 117
Era 117
Ford 117
Galaxy 117
HS@@ 117
Heter@@ 117
Him@@ 117
Mot@@ 117
Official 117
ROM 117
SK@@ 117
Services 117
Set 117
Tales 117
Unit 117
Vis@@ 117
XX@@ 117
ading 117
amid 117
arium 117
asc@@ 117
ca@@ 117
don@@ 117
eal 117
erg@@ 117
find 117
gh@@ 117
lic@@ 117
mid@@ 117
oke 117
platform 117
sapiens 117
sia 117
ฃ@@ 117
ศิลปา@@ 117
家@@ 117
1833 116
229 116
268 116
278 116
3,6@@ 116
39,@@ 116
Alice 116
Bob 116
Ca 116
Cold 116
Devil 116
Docum@@ 116
King@@ 116
Main 116
Nation 116
Neo@@ 116
Oxford 116
Philip 116
Russian 116
Sat@@ 116
Sle@@ 116
Vari@@ 116
Wat@@ 116
Williams 116
af 116
agus 116
amo@@ 116
aqu@@ 116
fu@@ 116
isti@@ 116
ogen 116
oria 116
round 116
san@@ 116
sing@@ 116
tha 116
wa@@ 116
สลาก 116
สโม@@ 116
อัลบ@@ 116
เติบ@@ 116
ប@@ 116
1642 115
269 115
Ball 115
Canada 115
Deb@@ 115
Dun@@ 115
Europe 115
Facebook 115
Gil@@ 115
Mother 115
Motion 115
Net 115
PN@@ 115
Singh 115
Talk 115
Test 115
Wave 115
Wit@@ 115
aging 115
asure 115
bs 115
cells 115
date 115
esh@@ 115
ido 115
mRNA 115
range 115
stream 115
tom 115
wo@@ 115
に@@ 115
生@@ 115
1644 114
AE 114
Beg@@ 114
Bol@@ 114
Ing@@ 114
Land@@ 114
Mic@@ 114
Morning 114
Nav@@ 114
Nu@@ 114
Pseudo@@ 114
Sph@@ 114
Sunday 114
Tesla 114
UM@@ 114
Ye@@ 114
agon 114
aus@@ 114
bil@@ 114
bo 114
bro@@ 114
col 114
ense 114
ign@@ 114
je 114
onidae 114
ped@@ 114
peri@@ 114
pus 114
ree 114
temporal 114
uch@@ 114
uni@@ 114
vel@@ 114
yan 114
อังก@@ 114
1609 113
386 113
401 113
639 113
Auto 113
Gund@@ 113
Johann 113
Mes@@ 113
Orange 113
PET 113
Pel@@ 113
Pharm@@ 113
Province 113
Sister 113
Sl@@ 113
Spar@@ 113
Systems 113
Taekwondo 113
Texas 113
XP 113
bat@@ 113
ebr@@ 113
ichthys 113
ilis 113
prim@@ 113
sort 113
unit 113
ures 113
win@@ 113
ไซม์ 113
་@@ 113
1772 112
2030 112
34.@@ 112
98@@ 112
AH 112
Amar@@ 112
Brian 112
Countdown 112
Eff@@ 112
Fight 112
Fu 112
Greatest 112
HP 112
NBC 112
Pearl 112
Police 112
SUV 112
Spec@@ 112
Stu@@ 112
Trich@@ 112
WT@@ 112
Walk 112
Wilson 112
atin 112
cat 112
dan 112
eye 112
fol@@ 112
loop 112
mir@@ 112
nar 112
olin 112
ons@@ 112
otype 112
sar@@ 112
service 112
uy@@ 112
ß 112
α@@ 112
จำนว@@ 112
ฟ่า 112
フ@@ 112
的@@ 112
1620 111
1788 111
257 111
33.@@ 111
6.0 111
9.5 111
ABS 111
Ali@@ 111
Antonio 111
CL 111
Centr@@ 111
Clar@@ 111
Den@@ 111
Dou@@ 111
Electric 111
Eye 111
Flu@@ 111
Foreign 111
Lanc@@ 111
Ma 111
Military 111
NH 111
Roc@@ 111
Style 111
Sym@@ 111
Symphony 111
Teen 111
Tetra@@ 111
Trade 111
Whit@@ 111
Zhang 111
achi 111
ate@@ 111
ateral 111
avi@@ 111
chain 111
culture 111
enter@@ 111
gy 111
hex@@ 111
horn 111
itus 111
long 111
site 111
tal@@ 111
π@@ 111
ภอ 111
ນ@@ 111
東@@ 111
05.@@ 110
1526 110
1688 110
37.@@ 110
620 110
66@@ 110
7.2 110
ACE 110
Bar 110
Beyond 110
Cou@@ 110
Fle@@ 110
Giant 110
Hur@@ 110
Jud@@ 110
MT@@ 110
Mach@@ 110
Ngu@@ 110
Note 110
PI 110
Phoenix 110
Ras@@ 110
Rh@@ 110
Rod@@ 110
SV@@ 110
Server 110
Subj@@ 110
TER 110
Vision 110
Ware 110
ais 110
alli@@ 110
apeuti@@ 110
archy 110
ball 110
but@@ 110
ela 110
folia 110
gate 110
hu 110
human 110
istics 110
kr@@ 110
ning 110
oxy@@ 110
quest 110
ras@@ 110
sing 110
spp 110
thal@@ 110
vector 110
web 110
ฟื@@ 110
ราชิ@@ 110
หรับ 110
เงื่อน@@ 110
と@@ 110
德@@ 110
1453 109
1829 109
261 109
3,8@@ 109
33,@@ 109
5,0@@ 109
6.7 109
63@@ 109
Anime 109
BE@@ 109
Blo@@ 109
Break@@ 109
CF@@ 109
Cab@@ 109
Chamber 109
Comics 109
Gas@@ 109
Lucky 109
Mari@@ 109
Mun@@ 109
Other 109
Pav@@ 109
Review 109
Rol@@ 109
Together 109
UT 109
Want 109
box@@ 109
ening 109
mode 109
uli 109
นั่น@@ 109
สารคาม 109
ຈ@@ 109
り@@ 109
仁@@ 109
233 108
266 108
279 108
35.@@ 108
Ach@@ 108
Ari@@ 108
BMW 108
Card 108
Dog 108
Eu@@ 108
Franz 108
Learning 108
Macro@@ 108
Phyl@@ 108
SN 108
Smart 108
Summer@@ 108
Third 108
Vir@@ 108
Warriors 108
aca 108
acea 108
ander@@ 108
anism 108
corpus 108
dig@@ 108
each 108
eur@@ 108
fire 108
force 108
fre@@ 108
gar@@ 108
heart 108
ige 108
iness 108
kan@@ 108
meg@@ 108
oning 108
ophy@@ 108
pil@@ 108
sis 108
spin@@ 108
ump@@ 108
uridae 108
ı 108
デ@@ 108
田@@ 108
長@@ 108
19@@ 107
318 107
AO 107
APG 107
Angels 107
Another 107
Bul@@ 107
Conn@@ 107
Dur@@ 107
EPA 107
Engine 107
Fol@@ 107
Gallery 107
Hang@@ 107
Miss@@ 107
NFL 107
PH@@ 107
Pink 107
Shir@@ 107
Son 107
Son@@ 107
ais@@ 107
amus 107
blood 107
cav@@ 107
enn@@ 107
ges@@ 107
ju@@ 107
ka@@ 107
mis@@ 107
nh 107
ols 107
omy@@ 107
oster@@ 107
other 107
software 107
ticul@@ 107
ward 107
xy 107
มัติ 107
キ@@ 107
12.5 106
1610 106
6.1 106
77@@ 106
79@@ 106
960 106
ASEAN 106
Bet@@ 106
CN 106
Cent@@ 106
Fan 106
Fat@@ 106
IUCN 106
Integr@@ 106
Major 106
Mam@@ 106
Med@@ 106
Mik@@ 106
Person@@ 106
Sab@@ 106
Samuel 106
Stap@@ 106
Study 106
TO 106
VC 106
Victor 106
Victoria 106
Work 106
bert 106
eless 106
ez 106
icular 106
ification 106
kan 106
land@@ 106
local 106
melan@@ 106
mos@@ 106
ony@@ 106
park 106
path 106
uti@@ 106
vas@@ 106
wi@@ 106
ตราย 106
ปุ่น 106
ງ@@ 106
ុ@@ 106
1368 105
1770 105
1827 105
283 105
298 105
39.@@ 105
470 105
ART 105
And@@ 105
Apo@@ 105
Blues 105
Chang@@ 105
Charlotte 105
Christ 105
Fire@@ 105
Fun@@ 105
Hits 105
IOC 105
Kid 105
NI@@ 105
Pa 105
Prix 105
Race 105
SF@@ 105
Ten 105
Tok@@ 105
Too 105
Yang 105
address 105
ado 105
algorithm 105
aster@@ 105
ators 105
between 105
car 105
card 105
chen 105
ference 105
gn@@ 105
gold 105
iOS 105
plate 105
pola 105
squ@@ 105
tissue 105
tro 105
yd@@ 105
モ@@ 105
1787 104
248 104
Anna 104
Anthony 104
Braun 104
ED@@ 104
Image 104
Industrial 104
Jar@@ 104
Lag@@ 104
Level 104
Mount 104
Myr@@ 104
Pil@@ 104
Sam 104
Seg@@ 104
Step 104
Touch 104
adi 104
ains 104
cryp@@ 104
ders 104
ease 104
general 104
hat 104
ie@@ 104
las@@ 104
machine 104
ole@@ 104
ring 104
thus 104
very 104
ù 104
ο@@ 104
บุคลา@@ 104
ยึ@@ 104
ล้อม@@ 104
สังข@@ 104
င@@ 104
北@@ 104
和@@ 104
1550 103
1823 103
236 103
263 103
321 103
Aff@@ 103
Austria 103
Building 103
Celebr@@ 103
Chan 103
Cli@@ 103
Di 103
Fran@@ 103
Guy 103
Hope 103
Infer@@ 103
Medal 103
Plat@@ 103
President 103
Squ@@ 103
Sum@@ 103
chlor@@ 103
dea 103
graph 103
idal 103
ingi@@ 103
ion@@ 103
nd@@ 103
oxide 103
start 103
toc@@ 103
uke 103
while 103
ws 103
不@@ 103
世@@ 103
1592 102
1683 102
254 102
289 102
510 102
560 102
Anim@@ 102
Ax@@ 102
Band@@ 102
Body 102
Forum 102
Francisco 102
Frederick 102
Les@@ 102
Mess@@ 102
Meth@@ 102
Mitsubishi 102
Mos@@ 102
Northern 102
One@@ 102
Plant@@ 102
Private 102
RAM 102
Six 102
Soci@@ 102
alized 102
amensis 102
atur@@ 102
che 102
eil@@ 102
elia 102
emic 102
equ@@ 102
eti@@ 102
green 102
high 102
illi@@ 102
ime 102
intr@@ 102
main 102
mental 102
omer@@ 102
oration 102
oy 102
prise 102
tern 102
town 102
view 102
vis@@ 102
zer 102
張@@ 102
Application 101
But@@ 101
COM 101
Care 101
Cheil@@ 101
Chor@@ 101
Coast 101
Comic 101
DOS 101
Dal@@ 101
Falcon 101
Gos@@ 101
LM 101
NBA 101
Oricon 101
Plant 101
Pon@@ 101
SV 101
Score 101
Sens@@ 101
Shock 101
Storm 101
TM 101
VA 101
VB 101
Wanna 101
cle@@ 101
common 101
eller 101
ern@@ 101
formation 101
gas@@ 101
glut@@ 101
iidae 101
ista 101
mod 101
mol@@ 101
pat@@ 101
phyl@@ 101
tan 101
thor@@ 101
ware 101
wing 101
ฮัง@@ 101
ễ 101
1250 100
1350 100
1689 100
402 100
5.4 100
Alfred 100
BL 100
Clo@@ 100
DF@@ 100
Dangerous 100
Friday 100
Fund 100
Howard 100
Lem@@ 100
Memory 100
Mom@@ 100
Musical 100
Nas@@ 100
Run@@ 100
Shadow 100
Singapore 100
Suz@@ 100
arc@@ 100
azep@@ 100
generation 100
hood 100
ille 100
ino@@ 100
period 100
php 100
pus@@ 100
sert 100
there 100
Ö 100
å 100
สายการ@@ 100
ィ@@ 100
年@@ 100
1330 99
32.@@ 99
324 99
404 99
530 99
6.4 99
8.1 99
Affairs 99
Br 99
Cuc@@ 99
EX 99
Gran@@ 99
Hans 99
Hard@@ 99
Have 99
ISS 99
Industry 99
Made 99
Moore 99
Petr@@ 99
Professor 99
Ryan 99
Sac@@ 99
Song@@ 99
Viol@@ 99
Zh@@ 99
ament 99
ef 99
ete 99
fin@@ 99
icle 99
idea 99
lac@@ 99
learning 99
pic 99
pon@@ 99
tivity 99
ump 99
ya@@ 99
ชุมนุ@@ 99
รัตนโกสิน@@ 99
เดียว@@ 99
ေ@@ 99
ិ@@ 99
。@@ 99
く@@ 99
ム@@ 99
10.5 98
1598 98
1816 98
49,@@ 98
581 98
630 98
69@@ 98
Adap@@ 98
Bang 98
Christopher 98
Cry 98
Down@@ 98
Est@@ 98
Eth@@ 98
Fat 98
Fine 98
Gun@@ 98
Joint 98
Maz@@ 98
Movement 98
Pent@@ 98
Pet@@ 98
Sex 98
Shane 98
Zo@@ 98
ader 98
aha 98
architecture 98
away 98
benz@@ 98
blue 98
bon@@ 98
born 98
chr@@ 98
energy 98
ept@@ 98
hur@@ 98
ift 98
ight@@ 98
negative 98
oideae 98
ova 98
seroton@@ 98
source 98
stimul@@ 98
tain@@ 98
wal@@ 98
xx 98
อุทยาน@@ 98
花@@ 98
000@@ 97
1185 97
1483 97
1811 97
231 97
49.@@ 97
7.6 97
7.8 97
870 97
Alex 97
BR 97
Bad@@ 97
Davis 97
Dutch 97
Fort 97
ISBN 97
Independent 97
Key@@ 97
Lang@@ 97
Lar@@ 97
Pan 97
Ride 97
Spirit 97
Tale 97
Tonight 97
apy 97
bel@@ 97
con 97
ecti@@ 97
heter@@ 97
ithecus 97
je@@ 97
lit@@ 97
lot 97
ody 97
oko 97
otus 97
science 97
sim@@ 97
tas@@ 97
vous 97
ë 97
ū@@ 97
คณิ@@ 97
ปัตตา@@ 97
យ@@ 97
ら@@ 97
サ@@ 97
君@@ 97
1780 96
6.9 96
610 96
760 96
Ah@@ 96
Airlines 96
App@@ 96
Break 96
Direc@@ 96
Expo 96
Female 96
Germany 96
Gray 96
Guide 96
Kaz@@ 96
Laboratory 96
Marine 96
Moon@@ 96
Ny@@ 96
RS@@ 96
Ren 96
Roger 96
Sax@@ 96
Sm@@ 96
Soviet 96
Tab@@ 96
aine 96
aja 96
bird 96
course 96
din@@ 96
double 96
eer 96
enta 96
nam@@ 96
optera 96
stage 96
tail 96
tal 96
thera 96
ă 96
ีกา 96
เปลี่ย@@ 96
宮@@ 96
法@@ 96
福@@ 96
院@@ 96
陽@@ 96
1180 95
1450 95
293 95
7.1 95
84@@ 95
87@@ 95
ATM 95
BD 95
BM 95
Better 95
Bin@@ 95
Cs 95
DX 95
Disc 95
Emp@@ 95
Fall@@ 95
Fighters 95
Hard 95
Jam 95
Ki 95
Log@@ 95
NS 95
Pad@@ 95
Pang@@ 95
Princip@@ 95
RE 95
SR@@ 95
Smile 95
Smo@@ 95
SpaceX 95
Stor@@ 95
TR 95
Ti 95
Us 95
Week 95
aen@@ 95
ams 95
andra 95
bers 95
current 95
eff@@ 95
engine 95
etus 95
fal@@ 95
gas 95
growth 95
ious 95
lor@@ 95
mes 95
nuclear 95
oper@@ 95
quin@@ 95
ถิ่น@@ 95
上@@ 95
1540 94
1643 94
2600 94
284 94
297 94
680 94
Before 94
Cartoon 94
Cass@@ 94
Chel@@ 94
DH@@ 94
Gold@@ 94
Heavy 94
Hil@@ 94
KA 94
Kill 94
Kw@@ 94
Lamborghini 94
Low 94
MD 94
Madonna 94
Tap@@ 94
Thr@@ 94
Training 94
UE 94
Was@@ 94
XI 94
anga 94
apping 94
bridge 94
dog 94
esi@@ 94
feat 94
ision 94
leg@@ 94
lob@@ 94
master 94
ocarpus 94
olls 94
plant 94
polis 94
pter@@ 94
season 94
string 94
three 94
uld 94
won 94
yrin@@ 94
มวย@@ 94
สกอ@@ 94
อำเ@@ 94
แม่น@@ 94
ង@@ 94
《@@ 94
コ@@ 94
テ@@ 94
成@@ 94
정@@ 94
1521 93
1661 93
273 93
287 93
288 93
291 93
322 93
356 93
570 93
6.8 93
AMD 93
Animal 93
Aur@@ 93
Basic 93
Bros 93
Camp 93
Cell 93
Circle 93
CoV 93
Crystal 93
Extreme 93
Form 93
GHz 93
IMF 93
Kelly 93
Kum@@ 93
Look 93
Merc@@ 93
OK 93
Oper@@ 93
Otto 93
Peri@@ 93
Rumble 93
Sang@@ 93
Taylor 93
Track 93
WB 93
WH@@ 93
WO@@ 93
Wr@@ 93
abilis 93
ank 93
chem@@ 93
coc@@ 93
esty 93
ety 93
flo@@ 93
form@@ 93
genetic 93
imb@@ 93
nes 93
odontidae 93
ogram 93
opterus 93
ostr@@ 93
ric 93
square 93
stein 93
than 93
urs 93
used 93
ze@@ 93
č 93
ě 93
รุง 93
ื่อน@@ 93
ナ@@ 93
パ@@ 93
01.@@ 92
1492 92
1760 92
299 92
338 92
346 92
347 92
7.3 92
Allen 92
Amazing 92
Aut@@ 92
Beh@@ 92
Brand 92
Color 92
Command 92
Critics 92
Cyclo@@ 92
Dam@@ 92
Day@@ 92
ESS 92
Empress 92
Ev@@ 92
Fighter 92
Flying 92
Journey 92
Metal 92
NHK 92
Nippon 92
PH 92
Phil@@ 92
Rep@@ 92
Rider 92
Say@@ 92
TY 92
Tat@@ 92
Ultimate 92
Um@@ 92
agram 92
aun@@ 92
bra 92
gic 92
hist@@ 92
inferior 92
ishi 92
isi 92
junction 92
omi 92
phone 92
pic@@ 92
po 92
spot 92
teen 92
tos@@ 92
tot@@ 92
var@@ 92
vari@@ 92
vus 92
พาก@@ 92
ราจารย์ 92
เจด@@ 92
ိ@@ 92
1170 91
1781 91
281 91
335 91
406 91
5.3 91
5.8 91
ATA 91
Af@@ 91
Anniversary 91
Cambridge 91
Chen 91
Cher@@ 91
Daily 91
Doc@@ 91
Fish 91
Flower 91
Friend 91
Gly@@ 91
Kings 91
Lewis 91
Local 91
OVA 91
Pyr@@ 91
Tai 91
UEFA 91
Urban 91
VIII 91
Vic@@ 91
Watch 91
Yellow 91
acker 91
ason 91
ban 91
dle 91
domain 91
eros 91
flora 91
gu 91
icity 91
most 91
odon@@ 91
onian 91
pressure 91
program 91
rit@@ 91
tius 91
unt 91
wan@@ 91
wor@@ 91
yon 91
ประชาธิปัตย์ 91
五@@ 91
方@@ 91
水@@ 91
真@@ 91
1777 90
1778 90
476 90
Boy@@ 90
Bruce 90
Buc@@ 90
Captain 90
Chief 90
Dra@@ 90
Factory 90
Give 90
Hu 90
Hus@@ 90
II@@ 90
Jason 90
Jay 90
Jerry 90
MBA 90
Mario 90
Ple@@ 90
Seoul 90
Suc@@ 90
Sz@@ 90
Tell 90
UNESCO 90
Yam@@ 90
aly@@ 90
anger 90
aries 90
chart 90
ches 90
design 90
gun 90
lear 90
lip 90
mass 90
odes 90
ogr@@ 90
osh@@ 90
processing 90
ratio 90
stress 90
test@@ 90
troph@@ 90
unda 90
vers@@ 90
vi 90
vo 90
ดัด@@ 90
း@@ 90
寺@@ 90
春@@ 90
002 89
1651 89
1763 89
1784 89
2100 89
525 89
Abbey 89
Acc@@ 89
Adventure 89
August 89
Avengers 89
Bod@@ 89
DO 89
Destiny 89
FBI 89
Fantastic 89
Glass 89
Heart@@ 89
Hid@@ 89
Into 89
Jane 89
MG 89
MM@@ 89
Magne@@ 89
Mix 89
Miy@@ 89
Om@@ 89
Oriental 89
PL 89
Page 89
Pretty 89
Saf@@ 89
Ultra 89
Upper 89
Wel@@ 89
Wilhelm 89
Yi 89
Youtube 89
ana@@ 89
anic 89
ante 89
award 89
black 89
burg 89
come 89
doc@@ 89
ebook 89
eh 89
ini@@ 89
ket 89
ky@@ 89
los 89
metal 89
place 89
plat@@ 89
stars 89
ther 89
tory 89
under 89
ust@@ 89
×@@ 89
ลวด@@ 89
エ@@ 89
夜@@ 89
@@ 89
1775 88
1786 88
267 88
282 88
296 88
313 88
4.9 88
425 88
6,0@@ 88
Alpha 88
Bag@@ 88
Benz 88
Bernard 88
Bird 88
Bos@@ 88
Communication 88
Competition 88
Complex 88
Dig@@ 88
Economics 88
GR 88
Honor 88
Hot@@ 88
Jacob 88
Kurt 88
Mister 88
NP 88
Object 88
RMS 88
Rising 88
Russia 88
Tem@@ 88
VR 88
Vince 88
Yak@@ 88
actor 88
ator@@ 88
aul@@ 88
e- 88
ele 88
girl 88
gs 88
isch@@ 88
ix@@ 88
languages 88
medicine 88
mut@@ 88
news 88
ogy 88
pig@@ 88
sed 88
sion@@ 88
suit 88
ths 88
thy@@ 88
uchi 88
ucle@@ 88
uta 88
worth 88
yx 88
zy@@ 88
á@@ 88
เต็มไป@@ 88
ព@@ 88
័@@ 88
1560 87
317 87
8.8 87
AH@@ 87
ARM 87
AX 87
Batt@@ 87
Bio@@ 87
Creative 87
DR@@ 87
Dave 87
Dist@@ 87
Feel 87
Films 87
Flight 87
Haw@@ 87
Jeff 87
Lan@@ 87
Laur@@ 87
ML 87
Market 87
Plas@@ 87
Professional 87
Superman 87
Toy@@ 87
Trust 87
Universities 87
West@@ 87
Wong 87
ady 87
angi@@ 87
arch 87
ards 87
atsu 87
attack 87
ayo 87
bus@@ 87
chloride 87
dom@@ 87
edge 87
etti 87
fa@@ 87
hormone 87
iformes 87
jo@@ 87
ks@@ 87
normal 87
ont@@ 87
organ 87
orph@@ 87
osph@@ 87
plex@@ 87
pneum@@ 87
race 87
sign@@ 87
specific 87
tain 87
thetic 87
transfer@@ 87
zilla 87
θ 87
ดิจิ@@ 87
ออสเตร@@ 87
√ 87
」 87
は@@ 87
メ@@ 87
士@@ 87
月@@ 87
1580 86
1593 86
1740 86
326 86
555 86
907 86
Anderson 86
Brave 86
Bun@@ 86
Charlie 86
Comedy 86
Ec@@ 86
Electr@@ 86
Exchange 86
Gh@@ 86
Gran 86
Indonesia 86
Islamic 86
Juan 86
Mega 86
Opera 86
Patrick 86
Premier 86
Productions 86
Samsung 86
Sul@@ 86
Tsu@@ 86
UP 86
Why 86
Wing 86
aire 86
ait 86
ame@@ 86
andi@@ 86
bot 86
cho 86
dop@@ 86
edback 86
eping 86
epith@@ 86
etary 86
fir@@ 86
illy 86
lim@@ 86
reaction 86
response 86
small 86
soci@@ 86
under@@ 86
unk@@ 86
ves@@ 86
wo 86
{@@ 86
เสพ@@ 86
1750 85
259 85
490 85
Android 85
Avenue 85
BR@@ 85
Bang@@ 85
Bou@@ 85
Camp@@ 85
Chlor@@ 85
Deg@@ 85
Dong@@ 85
Emb@@ 85
Glory 85
Heat 85
Jack@@ 85
Jordan 85
Liberation 85
Linux 85
Living 85
Mich@@ 85
Miracle 85
Nick 85
Nur@@ 85
PT 85
Plan 85
Rise 85
SEC 85
Semi@@ 85
Sense 85
Sign@@ 85
USB 85
Without 85
XII 85
Xi 85
aj 85
amm@@ 85
ats@@ 85
che@@ 85
della 85
dri@@ 85
dus 85
eman 85
icum 85
ingen 85
itor 85
lands 85
live 85
metric 85
mia 85
oh 85
oll@@ 85
olog@@ 85
open 85
osom@@ 85
ove 85
pri@@ 85
rh@@ 85
script 85
sense 85
server 85
vul@@ 85
wer 85
yon@@ 85
θ@@ 85
กำหน@@ 85
ไผ@@ 85
ជ@@ 85
が@@ 85
ま@@ 85
四@@ 85
華@@ 85
1260 84
1460 84
1666 84
1773 84
316 84
980 84
Andy 84
Benjamin 84
Berlin 84
CM 84
EL 84
EP@@ 84
Ernst 84
File 84
Fir@@ 84
Gordon 84
Grey 84
Irish 84
Java 84
Mont@@ 84
OECD 84
Organ@@ 84
Pay@@ 84
Phase 84
Potter 84
Quest 84
Raymond 84
Romeo 84
SB 84
Saturday 84
Save 84
Scor@@ 84
Singles 84
Small 84
TCP 84
Vegas 84
XIV 84
acket 84
anta 84
arian 84
aru 84
bet@@ 84
bon 84
chel@@ 84
chen@@ 84
dis 84
forest 84
four 84
high@@ 84
led 84
mad@@ 84
na@@ 84
net@@ 84
nig@@ 84
oll 84
stop 84
systems 84
tis@@ 84
trig@@ 84
ularis 84
wel@@ 84
ǔ 84
β@@ 84
ปราม 84
原@@ 84
趙@@ 84
軍@@ 84
100@@ 83
1392 83
1520 83
1530 83
1774 83
1785 83
344 83
345 83
38,@@ 83
44.@@ 83
47.@@ 83
48.@@ 83
Academic 83
BI@@ 83
Billy 83
Cad@@ 83
Close 83
Def@@ 83
Dream@@ 83
Du 83
Factor 83
Gabriel 83
Good@@ 83
Il 83
Inf@@ 83
Intelligence 83
Jun@@ 83
Liu 83
Matthew 83
Nintendo 83
PHP 83
Pir@@ 83
Political 83
Sig@@ 83
Sto@@ 83
Tim 83
VP 83
Xen@@ 83
agon@@ 83
alon 83
aman 83
amide 83
ango 83
arin 83
arius 83
auto@@ 83
child 83
count 83
death 83
dry 83
duction 83
gon@@ 83
han@@ 83
hep@@ 83
hypothesis 83
ior 83
ji@@ 83
km 83
kor@@ 83
mus 83
nar@@ 83
ord 83
painting 83
rac@@ 83
ric@@ 83
sex 83
tera 83
tern@@ 83
tium 83
win 83
window 83
zo@@ 83
® 83
Đ@@ 83
ו@@ 83
รัม@@ 83
ใกล้@@ 83
　 83
お@@ 83
市@@ 83
林@@ 83
正@@ 83
美@@ 83
0,0@@ 82
0.00 82
0000@@ 82
1340 82
1485 82
1568 82
1604 82
1625 82
1653 82
1765 82
1782 82
2200 82
277 82
336 82
357 82
395 82
808 82
BK 82
Back@@ 82
Bau@@ 82
HK@@ 82
Jam@@ 82
Kim@@ 82
Marketing 82
Move 82
Nicholas 82
PD@@ 82
Paradise 82
Phantom 82
Pom@@ 82
Ra 82
Roman@@ 82
Wales 82
a- 82
aming 82
asi 82
bau@@ 82
brach@@ 82
cerebral 82
coch@@ 82
cole 82
coli 82
cyn@@ 82
edia 82
eper 82
eps 82
eth 82
fil@@ 82
hynch@@ 82
iga 82
ination 82
ington 82
ink 82
ister 82
kle 82
lar 82
made 82
ond 82
ool 82
oridae 82
orth@@ 82
phus 82
positive 82
see 82
shi 82
sign 82
sound 82
spir@@ 82
uck 82
ury 82
ขอน@@ 82
พฤษ@@ 82
← 82
み@@ 82
忠@@ 82
～@@ 82
1415 81
1470 81
1582 81
1605 81
1685 81
40,@@ 81
484 81
7.0 81
978 81
BT@@ 81
BW@@ 81
Bru@@ 81
DSM 81
Esp@@ 81
Every@@ 81
Evolution 81
FL@@ 81
Grap@@ 81
Happ@@ 81
Jimmy 81
Jo 81
Jonathan 81
Lawrence 81
Musa 81
NH@@ 81
Need 81
Rio 81
Rut@@ 81
Sah@@ 81
Text 81
Total 81
Tropical 81
Vul@@ 81
assi@@ 81
ayan 81
break 81
chron@@ 81
cous@@ 81
digital 81
ebo@@ 81
eland 81
fier 81
ibn 81
iger 81
inary 81
isions 81
knot 81
let@@ 81
linear 81
pas@@ 81
rier 81
sym@@ 81
tens@@ 81
uh@@ 81
val 81
wn 81
ï 81
Δ 81
ปราก@@ 81
川@@ 81
氏@@ 81
秦@@ 81
#@@ 80
003 80
1515 80
1762 80
415 80
458 80
475 80
50,@@ 80
509 80
86@@ 80
AMP 80
April 80
Block 80
Cephal@@ 80
Cha@@ 80
Cichlidae 80
Coc@@ 80
Coll@@ 80
Cool 80
Cross@@ 80
Dancing 80
Discovery 80
Event 80
FE@@ 80
Fri@@ 80
Gone 80
Greater 80
Guard 80
HIV 80
Hak@@ 80
Half 80
Hey 80
It@@ 80
Jesus 80
Jin@@ 80
Leo 80
Lotus 80
Magn@@ 80
Mi 80
NGC 80
Nat@@ 80
Ner@@ 80
Observatory 80
Parliament 80
Pass@@ 80
Prime 80
Region 80
SMS 80
Safety 80
Snow 80
Stre@@ 80
Technical 80
Til@@ 80
Vienna 80
WD 80
acul@@ 80
antic 80
athy 80
audit@@ 80
ave@@ 80
best 80
bol@@ 80
bury 80
cs 80
emati@@ 80
enzyme 80
flag 80
gro@@ 80
ground@@ 80
hel@@ 80
itz@@ 80
limited 80
must 80
nas@@ 80
olar 80
opter@@ 80
pia 80
ping 80
rat 80
river 80
sha 80
tari@@ 80
tun@@ 80
wang 80
ประเพ@@ 80
มหิด@@ 80
ု@@ 80
周@@ 80
1204 79
1584 79
1680 79
1714 79
1766 79
319 79
343 79
354 79
512 79
7,0@@ 79
710 79
830 79
840 79
Ancient 79
Bell@@ 79
Blade 79
EG 79
ERP 79
Eagle 79
Environmental 79
FL 79
Grav@@ 79
Gun 79
Henri 79
Hig@@ 79
Hulk 79
Kab@@ 79
Killer 79
Loc@@ 79
Logic 79
MX 79
Max@@ 79
Ot@@ 79
Pag@@ 79
PlayStation 79
Premium 79
Railway 79
Rhiz@@ 79
Sarah 79
Shah 79
Steel 79
Stories 79
Strep@@ 79
Suzuki 79
Thor@@ 79
Tour@@ 79
Tournament 79
UFC 79
Village 79
adap@@ 79
ancy 79
bian 79
bos@@ 79
bran@@ 79
cut 79
cycl@@ 79
drome 79
else 79
fos@@ 79
ful@@ 79
ged 79
gli@@ 79
him@@ 79
ht@@ 79
indic@@ 79
kam@@ 79
kat@@ 79
leuk@@ 79
lie 79
natural 79
ono 79
oro 79
own 79
plac@@ 79
plan@@ 79
plus 79
pper 79
ppm 79
seed 79
speci@@ 79
tu 79
ulata 79
wall 79
·@@ 79
Á 79
γ 79
บันดาลใจ 79
ย่อง 79
ริชาร์@@ 79
โปร์ 79
さ@@ 79
会@@ 79
清@@ 79
1469 78
1519 78
1606 78
271 78
292 78
341 78
632 78
780 78
94@@ 78
API 78
CON@@ 78
Chu 78
Collabor@@ 78
Communications 78
Cultural 78
Financial 78
Hills 78
Italian 78
June 78
Kit 78
Late 78
License 78
Map 78
Matt 78
Mirror 78
Moment 78
PI@@ 78
Pack@@ 78
Piano 78
Pod@@ 78
Primary 78
Proj@@ 78
Reb@@ 78
Regional 78
Rules 78
Small@@ 78
Solaris 78
TBS 78
Top@@ 78
VL@@ 78
Venus 78
Wood@@ 78
XV 78
Yas@@ 78
Zen@@ 78
\@@ 78
about 78
arm@@ 78
asia 78
bic 78
blo@@ 78
coll@@ 78
def@@ 78
disorders 78
ej@@ 78
entary 78
etes 78
inin 78
joint 78
make 78
matter 78
mil@@ 78
ogenic 78
quar@@ 78
rap@@ 78
receive 78
rel 78
res 78
rule 78
sep@@ 78
sph@@ 78
uka 78
unter 78
wat@@ 78
µ 78
í@@ 78
พนธ์ 78
อิสริ@@ 78
เขตร@@ 78
โฉ 78
も@@ 78
ブ@@ 78
我@@ 78
陳@@ 78
1547 77
1570 77
1589 77
1755 77
1768 77
332 77
337 77
358 77
407 77
5.9 77
580 77
7.4 77
910 77
AMA 77
Active 77
Au@@ 77
Aus@@ 77
Austin 77
Baron 77
Bom@@ 77
Bug@@ 77
Butterfly 77
CAP 77
CAS 77
Cham@@ 77
Clos@@ 77
Cover 77
Dear 77
Dep@@ 77
Der 77
EU 77
Ed 77
Enterprise 77
Francesco 77
Gra@@ 77
Greek 77
Guardian 77
Guitar 77
HR 77
Ireland 77
Jacques 77
Jin 77
Malaysia 77
Metro 77
Metropolitan 77
Mill@@ 77
Moh@@ 77
Or 77
Phy@@ 77
Sci@@ 77
Shr@@ 77
Socialist 77
Tai@@ 77
Tears 77
Weekly 77
Writ@@ 77
care 77
cep@@ 77
ear 77
eds 77
eti 77
fib@@ 77
hou 77
idine 77
image 77
ime@@ 77
isa 77
iya 77
kHz 77
magnetic 77
market 77
mit 77
motion 77
omb@@ 77
onn@@ 77
output 77
real 77
recep@@ 77
relation 77
singer 77
som 77
term 77
thal 77
titude 77
user 77
wer@@ 77
π 77
น้@@ 77
八@@ 77
門@@ 77
龍@@ 77
1192 76
1482 76
1498 76
1567 76
1569 76
1585 76
366 76
670 76
7.9 76
707 76
8.2 76
Barry 76
Boston 76
CAD 76
Campus 76
Carter 76
Cloud 76
Clu@@ 76
Commerce 76
Dallas 76
Detective 76
Ey@@ 76
Friedrich 76
Gan@@ 76
Genti@@ 76
Hop@@ 76
Human@@ 76
Hydr@@ 76
ISC 76
ITV 76
Jet 76
NAD@@ 76
Pain@@ 76
Pass 76
Python 76
Remember 76
Rhythm 76
Sep@@ 76
Sou@@ 76
Spanish 76
Today 76
UM 76
ador 76
alus 76
amen 76
aur 76
conduc@@ 76
ensi@@ 76
gig@@ 76
hynchus 76
ili 76
ils 76
ities 76
izer 76
mid 76
oid@@ 76
ologue 76
parent 76
poem 76
reduc@@ 76
ref@@ 76
shift 76
sodium 76
some 76
static 76
structure 76
track 76
tuber@@ 76
wak@@ 76
ó@@ 76
ซับ@@ 76
ກ@@ 76
き@@ 76
少@@ 76
後@@ 76
義@@ 76
0.01 75
1590 75
1614 75
1687 75
1720 75
355 75
384 75
405 75
89@@ 75
Amphi@@ 75
Buddy 75
DT@@ 75
Dawn 75
Dow@@ 75
Eg@@ 75
End@@ 75
GL 75
Gau@@ 75
Goodbye 75
HMS 75
Head@@ 75
Ho 75
Infin@@ 75
Letter 75
Lon@@ 75
Mai 75
Manga 75
Miz@@ 75
Nom@@ 75
Nothing 75
Platinum 75
Rebellion 75
Row@@ 75
Sid@@ 75
Sing 75
Suite 75
Through 75
XL 75
abe 75
aeus 75
ape 75
aris 75
aro@@ 75
asons 75
cal 75
cord 75
eidae 75
element 75
enberg 75
eni 75
eron 75
flor@@ 75
footballer 75
hat@@ 75
hon@@ 75
jin 75
kai 75
known 75
lea 75
lide 75
line@@ 75
management 75
movement 75
occ@@ 75
organ@@ 75
osia 75
phic 75
ply 75
ports 75
press@@ 75
professional 75
sequence 75
sho@@ 75
stem 75
syl@@ 75
tif@@ 75
tone 75
when 75
wrestling 75
ð 75
י@@ 75
  75
星@@ 75
黃@@ 75
1494 74
1504 74
1541 74
1630 74
1699 74
2025 74
44,@@ 74
Aviation 74
Base 74
Books 74
Carlos 74
Cros@@ 74
DN@@ 74
DT 74
Ferdinand 74
GNU 74
Gif@@ 74
Hearts 74
Kil@@ 74
Kol@@ 74
Left 74
MN 74
MU@@ 74
Mass 74
Mechan@@ 74
Min 74
Mo 74
Nem@@ 74
OM 74
Ori@@ 74
Pep@@ 74
Plagi@@ 74
Port 74
Psy@@ 74
Rad@@ 74
Roy 74
Sean 74
Shin 74
Soundtrack 74
Still 74
Swiss 74
Welcome 74
Wide 74
andro@@ 74
company 74
cut@@ 74
development 74
emon 74
ester 74
fall@@ 74
gence 74
good 74
har 74
ices 74
idaceae 74
kel@@ 74
kers 74
ls 74
mul@@ 74
operation 74
oscill@@ 74
otox@@ 74
phin 74
player 74
rin 74
ron 74
sman 74
tend@@ 74
tetr@@ 74
ticus 74
wind 74
works 74
yu@@ 74
มงกุ@@ 74
ະ@@ 74
》 74
れ@@ 74
チ@@ 74
ュ@@ 74
無@@ 74
青@@ 74
～ 74
04.@@ 73
119@@ 73
1213 73
1279 73
13.5 73
1534 73
1536 73
1565 73
1572 73
1602 73
1758 73
1759 73
274 73
334 73
351 73
382 73
508 73
618 73
690 73
7.7 73
AX@@ 73
Ace 73
Adventures 73
Bass 73
Bobby 73
CK 73
Cann@@ 73
Douglas 73
Ges@@ 73
Gur@@ 73
Hamilton 73
Haz@@ 73
Identi@@ 73
Ken 73
Lau@@ 73
Lin 73
Lun@@ 73
MW 73
Meet 73
Midnight 73
Million 73
Op 73
Orth@@ 73
Princ@@ 73
RCA 73
RFC 73
Resident 73
Ross 73
Sek@@ 73
Sher@@ 73
Some@@ 73
Southeast 73
Stic@@ 73
Table 73
Theater 73
Thing 73
Things 73
Truth 73
Vampire 73
Water@@ 73
aa 73
ager 73
aly 73
angle 73
anidae 73
berry 73
break@@ 73
cell@@ 73
drug 73
earth 73
educ@@ 73
eline 73
esser 73
esta 73
grandi@@ 73
ij@@ 73
kn@@ 73
kon@@ 73
mos 73
mur@@ 73
oking 73
orders 73
ority 73
ovich 73
points 73
product 73
stic 73
sun@@ 73
tai 73
tin@@ 73
unk 73
uss@@ 73
vaccine 73
web@@ 73
ประกาศนีย@@ 73
สงค@@ 73
あ@@ 73
つ@@ 73
を@@ 73
唐@@ 73
校@@ 73
都@@ 73
1001 72
1274 72
1370 72
1543 72
1607 72
1615 72
1678 72
45.@@ 72
599 72
740 72
791 72
ATV 72
Believe 72
Big@@ 72
Bishop 72
Canadian 72
Carolina 72
Catherine 72
Cus@@ 72
Dan 72
Defense 72
Donald 72
Hart 72
Hyp@@ 72
Indo@@ 72
Jump 72
Karen 72
Kot@@ 72
Kung 72
MD@@ 72
Mb@@ 72
Nelson 72
Nuclear 72
Programm@@ 72
Rhy@@ 72
Rib@@ 72
Rome 72
Scr@@ 72
Something 72
Vent@@ 72
Virginia 72
Virus 72
Working 72
XT 72
Xbox 72
Zealand 72
aco 72
alum 72
being 72
cam@@ 72
ceph@@ 72
chia 72
comp@@ 72
dB 72
das 72
election 72
elegans 72
eli 72
err@@ 72
ett@@ 72
ges 72
imo 72
inger@@ 72
lan 72
ling@@ 72
lipo@@ 72
lu 72
noc@@ 72
nus 72
oe 72
oidea 72
org@@ 72
programming 72
standard 72
star@@ 72
union 72
usi@@ 72
ux 72
vil@@ 72
½ 72
î 72
คัญ 72
ทรัพ@@ 72
ปทุ@@ 72
主@@ 72
김@@ 72
1150 71
1599 71
666 71
8.3 71
97@@ 71
98.@@ 71
Ad 71
Atlantic 71
Attack 71
Cinema 71
Claude 71
December 71
Ear@@ 71
Emer@@ 71
Far 71
Feder@@ 71
Forces 71
Fortune 71
Gen 71
Gul@@ 71
Hare 71
Hour 71
IE 71
Jay@@ 71
Jon 71
Jor@@ 71
Kid@@ 71
Lith@@ 71
Lower 71
Matrix 71
NY@@ 71
Netflix 71
October 71
Philosophy 71
Posi@@ 71
Protection 71
Robot 71
Roll 71
Rub@@ 71
Sailor 71
Shak@@ 71
Shop 71
Sugar 71
Vie@@ 71
Wei 71
anz@@ 71
aves 71
been 71
cape 71
cereb@@ 71
conn@@ 71
coron@@ 71
ductor 71
ece 71
eness 71
event 71
functional 71
gan@@ 71
hyp@@ 71
isia 71
location 71
lut@@ 71
mind 71
og 71
oka 71
osaurus 71
osci@@ 71
page 71
personality 71
project 71
rati@@ 71
rem@@ 71
sl@@ 71
terminal 71
tum 71
urg@@ 71
vention 71
ì@@ 71
ซั่น 71
ရ@@ 71
ី 71
ズ@@ 71
心@@ 71
1440 70
1613 70
1623 70
1658 70
1713 70
312 70
400@@ 70
434 70
47,@@ 70
543 70
Asi@@ 70
Beau@@ 70
Brain 70
Bri@@ 70
Britain 70
Cog@@ 70
Content 70
Continental 70
Cov@@ 70
Dean 70
Dictionary 70
Elimin@@ 70
Environment 70
Everything 70
Gon@@ 70
Grace 70
Heli@@ 70
Ich@@ 70
LV@@ 70
Lif@@ 70
Lorraine 70
Melody 70
Monkey 70
NC 70
Neb@@ 70
Off@@ 70
Oro@@ 70
Oscar 70
Pand@@ 70
Patri@@ 70
Ret@@ 70
Rural 70
Saga 70
Sco@@ 70
Selec@@ 70
Sn@@ 70
Soc@@ 70
Spain 70
Train 70
Turner 70
Twin 70
USD 70
Use 70
Warrior 70
acher 70
ann 70
assic 70
augh@@ 70
chemical 70
chor@@ 70
combin@@ 70
cyan@@ 70
dow 70
eda 70
electron 70
father 70
heat 70
itary 70
kar 70
ments 70
nak@@ 70
nam 70
ned 70
onna 70
ont 70
post 70
principle 70
problem 70
retic@@ 70
roc@@ 70
subs@@ 70
tig@@ 70
ə@@ 70
တ@@ 70
。 70
ョ@@ 70
下@@ 70
祖@@ 70
魔@@ 70
0.0 69
1511 69
1542 69
1555 69
1637 69
314 69
331 69
843 69
Applied 69
Around 69
Batman 69
Bud@@ 69
Concept 69
Count@@ 69
Dav@@ 69
Diego 69
Father 69
Gamb@@ 69
Hit 69
Ian 69
KN@@ 69
Knowledge 69
Lab 69
Las 69
Liv@@ 69
Lonely 69
Ludwig 69
Male 69
Og@@ 69
PCC 69
Programme 69
Publishing 69
Pure 69
Racing 69
Sag@@ 69
Sas@@ 69
Source 69
Species 69
Start 69
Tea 69
Vocal 69
Yosh@@ 69
Yuan 69
access 69
acking 69
ads 69
anum 69
beta 69
complete 69
density 69
depres@@ 69
det@@ 69
dh@@ 69
direct 69
district 69
dit 69
electric 69
endi@@ 69
eption 69
error 69
eze 69
five 69
fon@@ 69
gam@@ 69
gre@@ 69
hair 69
hold 69
host 69
hot 69
illar@@ 69
inga 69
isha 69
ked 69
ken@@ 69
mean 69
nation 69
ographic 69
othal@@ 69
secondary 69
semi@@ 69
spectrum 69
thai 69
theorem 69
ticism 69
tron 69
tv 69
watch 69
years 69
zy 69
ē@@ 69
ư@@ 69
ː 69
วิจาร@@ 69
有@@ 69
인@@ 69
1328 68
1516 68
1545 68
1573 68
1618 68
1672 68
1779 68
361 68
875 68
AMG 68
ASP 68
Bo 68
Booker 68
Broad@@ 68
Chapter 68
Chrom@@ 68
Chu@@ 68
Circuit 68
Cot@@ 68
EE 68
Es 68
Expl@@ 68
GR@@ 68
Gene 68
Gig@@ 68
Goes 68
HT@@ 68
IME 68
Igu@@ 68
Investment 68
KS 68
Kel@@ 68
Lav@@ 68
Medici 68
Mov@@ 68
Mystery 68
Neo 68
Netherlands 68
Nicolas 68
Norman 68
Ordin@@ 68
Origin 68
Rabbit 68
Rick 68
Shell 68
Stay 68
String 68
Survivor 68
TG@@ 68
Tac@@ 68
Thous@@ 68
Thre@@ 68
Univers@@ 68
Worldwide 68
amic 68
ched 68
conjug@@ 68
contr@@ 68
cross 68
eine 68
emer@@ 68
erus 68
escence 68
foot 68
fur@@ 68
hai 68
hic 68
hil 68
history 68
hiz@@ 68
ident 68
inia 68
ises 68
jav@@ 68
kW 68
lymph@@ 68
neg@@ 68
olia 68
orus 68
plasma 68
pole 68
qui@@ 68
reverse 68
rt 68
run@@ 68
san 68
ska 68
sson 68
transfer 68
travel 68
vis 68
ylus 68
you@@ 68
ơ 68
ผลิ@@ 68
ມ@@ 68
ວ@@ 68
ອ@@ 68
† 68
⊕ 68
」@@ 68
孝@@ 68
阮@@ 68
1420 67
1480 67
1490 67
1510 67
1525 67
1556 67
1597 67
1628 67
1638 67
432 67
486 67
661 67
8,0@@ 67
9.2 67
ARD 67
Alex@@ 67
Beast 67
Beijing 67
Bow@@ 67
Bureau 67
CPU 67
Chic@@ 67
Chil@@ 67
Cotton 67
Coupe 67
Dome 67
Ever@@ 67
Explo@@ 67
FS 67
Fig@@ 67
Hap@@ 67
Kos@@ 67
LR 67
Larry 67
Mrs 67
Nec@@ 67
Ni 67
Oil 67
Oste@@ 67
Ps 67
Pseudom@@ 67
Reality 67
Sakura 67
Student 67
Sunshine 67
TT@@ 67
Wak@@ 67
Well@@ 67
Wind@@ 67
ako 67
aurus 67
aut 67
bak@@ 67
bu 67
by@@ 67
cardi@@ 67
cou@@ 67
country 67
defici@@ 67
drive 67
eci@@ 67
eck@@ 67
electr@@ 67
eton 67
final 67
fix@@ 67
hydrox@@ 67
icon 67
information 67
las 67
logic 67
lows 67
nec@@ 67
night 67
nu 67
obia 67
organic 67
oty@@ 67
ovi 67
pora 67
pos 67
pression 67
prol@@ 67
quad@@ 67
red@@ 67
rine 67
rop@@ 67
selection 67
teau 67
teri@@ 67
tian 67
trol@@ 67
tt@@ 67
ɪ 67
มลา@@ 67
န@@ 67
ノ@@ 67
史@@ 67
군@@ 67
02.@@ 66
1147 66
1230 66
1471 66
1503 66
1559 66
1641 66
1665 66
2050 66
348 66
367 66
376 66
417 66
503 66
727 66
920 66
990 66
ATE 66
AY@@ 66
Abu 66
Agreement 66
Austral@@ 66
Bed@@ 66
Boeing 66
Camb@@ 66
Cambodia 66
Coun@@ 66
Cyber@@ 66
Declaration 66
Explorer 66
Fed@@ 66
Fin 66
Fish@@ 66
Flag 66
Flor@@ 66
Forbes 66
Friend@@ 66
Gri@@ 66
Hippo@@ 66
IST 66
Jew@@ 66
Kad@@ 66
Lad@@ 66
Lane 66
Lut@@ 66
Mad 66
PK@@ 66
Policy 66
Rum@@ 66
SAT 66
September 66
Spl@@ 66
TB 66
TF 66
Terminal 66
Very 66
Vladimir 66
Ya@@ 66
You@@ 66
acute 66
agu@@ 66
aise 66
ands 66
binding 66
cher@@ 66
cio 66
computer 66
cryst@@ 66
dependent 66
distance 66
eau 66
fly 66
following 66
glass 66
hua 66
inflam@@ 66
ju 66
kal@@ 66
lex 66
lit 66
mile 66
molecular 66
mu 66
nen 66
non 66
obic 66
omo 66
omorpha 66
onas 66
open@@ 66
ops@@ 66
osphere 66
otrop@@ 66
pac@@ 66
political 66
research 66
rou@@ 66
sm@@ 66
udi@@ 66
ution 66
μ@@ 66
นตร์ 66
ศาว@@ 66
へ@@ 66
朱@@ 66
馬@@ 66
004 65
1360 65
1571 65
1588 65
1611 65
1667 65
329 65
499 65
8.7 65
820 65
860 65
936 65
AK 65
ALL 65
Angle 65
Arg@@ 65
Arm@@ 65
Because 65
Cape 65
Chal@@ 65
Contemporary 65
Criminal 65
Cycle 65
Duc@@ 65
Elite 65
Ere@@ 65
Ever 65
Grant 65
Holland 65
IU@@ 65
July 65
Leon 65
Lit@@ 65
Margaret 65
Miller 65
Minister 65
NFC 65
Od@@ 65
Personal 65
Please 65
Pocket 65
Produ@@ 65
Russell 65
Silent 65
Steven 65
Superstar 65
Survey 65
TER@@ 65
TRA@@ 65
Taiwan 65
Tetr@@ 65
Turn 65
UD@@ 65
Wayne 65
Yos@@ 65
ables 65
acar@@ 65
agar 65
amer@@ 65
ances 65
astic 65
atics 65
aut@@ 65
bow 65
canal 65
ces 65
culus 65
cyc@@ 65
ecular 65
enes 65
ering 65
finished 65
flower 65
fluid 65
forward 65
glob@@ 65
icious 65
identity 65
ign 65
iner@@ 65
ised 65
nal 65
nit@@ 65
ocer@@ 65
ochem@@ 65
ock@@ 65
pain 65
pseud@@ 65
ram@@ 65
related 65
sang 65
sei 65
signal 65
sleep 65
tab@@ 65
tering 65
trait 65
uan 65
ulidae 65
yer 65
yle 65
÷ 65
ć@@ 65
त@@ 65
นนท@@ 65
โน้ม 65
ី@@ 65
េ@@ 65
九@@ 65
字@@ 65
音@@ 65
（ 65
006 64
1.6@@ 64
1095 64
1225 64
1499 64
1527 64
1544 64
1549 64
1583 64
1612 64
1626 64
1629 64
1645 64
1722 64
1735 64
349 64
352 64
46.@@ 64
511 64
711 64
757 64
8.0 64
802 64
930 64
940 64
96@@ 64
Bic@@ 64
Bryan 64
Canon 64
Chang 64
Chir@@ 64
Coming 64
Cube 64
DN 64
Easy 64
FK 64
Fabaceae 64
Fr 64
Hi 64
Hours 64
Inside 64
Ivan 64
Knights 64
Kun@@ 64
Lep@@ 64
Lept@@ 64
Maurice 64
Miz 64
Mosque 64
Muhammad 64
Nova 64
Oblast 64
Phil 64
Portrait 64
RH 64
Rice 64
Rock@@ 64
South@@ 64
Stock 64
Strong 64
TI@@ 64
Tang 64
These 64
Transform@@ 64
Vil@@ 64
Virtual 64
Wood 64
Yahoo 64
ago@@ 64
alam@@ 64
ander 64
aye 64
bia 64
bomb 64
condi@@ 64
dem 64
dor 64
dou@@ 64
ells 64
flav@@ 64
flex@@ 64
full 64
gel@@ 64
hand 64
head@@ 64
induc@@ 64
inner 64
mania 64
mono@@ 64
nch@@ 64
nos 64
object 64
ough@@ 64
pin 64
poda 64
pulmon@@ 64
que@@ 64
rise 64
shall 64
stom@@ 64
tax 64
thys 64
tida 64
tile 64
tras@@ 64
urai 64
using 64
ระฆ@@ 64
ສ@@ 64
  64
プ@@ 64
昌@@ 64
書@@ 64
藏@@ 64
行@@ 64
사@@ 64
원@@ 64
1240 63
1282 63
1348 63
1506 63
1533 63
1581 63
1594 63
1632 63
1662 63
1756 63
411 63
451 63
46,@@ 63
48,@@ 63
58,@@ 63
876 63
Arms 63
BB@@ 63
BP 63
Bis@@ 63
Bit 63
Bra@@ 63
Cafe 63
Call@@ 63
Canyon 63
Capr@@ 63
Clash 63
Corps 63
Fab@@ 63
Free@@ 63
Fresh 63
Fun 63
Gang 63
Heritage 63
Holiday 63
Honey 63
Hop 63
Intercontinental 63
Iso@@ 63
Joan 63
Jungle 63
Kap@@ 63
Lind@@ 63
Manager 63
Nik@@ 63
Pac@@ 63
Pach@@ 63
Pride 63
RKO 63
Real@@ 63
Regular 63
Rog@@ 63
Rush 63
Shim@@ 63
Sleep 63
Stat@@ 63
Sydney 63
Ton@@ 63
Walker 63
Were 63
YG 63
YP 63
activity 63
alg@@ 63
association 63
awards 63
behavi@@ 63
bodies 63
cast 63
cha@@ 63
cross@@ 63
cyclo@@ 63
dance 63
dei 63
eb 63
ei@@ 63
ender 63
great 63
iker 63
jan 63
mb@@ 63
new@@ 63
nik 63
pool 63
rag@@ 63
scr@@ 63
she 63
special 63
tit@@ 63
voting 63
Ō 63
ฅ 63
ดิว@@ 63
ザ@@ 63
セ@@ 63
侯@@ 63
縣@@ 63
藤@@ 63
조@@ 63
1157 62
1189 62
1215 62
1380 62
1385 62
1464 62
1616 62
1670 62
1718 62
1724 62
1745 62
327 62
328 62
369 62
403 62
408 62
433 62
435 62
524 62
590 62
770 62
792 62
8.4 62
880 62
9.1 62
9.3 62
Always 62
Ant@@ 62
Any@@ 62
Apache 62
Audio 62
Basilica 62
Bot 62
By@@ 62
Chevrolet 62
Cryp@@ 62
Differ@@ 62
Dir@@ 62
Early 62
Effect 62
Funk 62
HK 62
Hand 62
ICA@@ 62
IM 62
IPA 62
Interactive 62
LM@@ 62
Liber@@ 62
Lives 62
Lock 62
Meeting 62
Nielsen 62
Night@@ 62
Nin@@ 62
Orlando 62
Phone 62
Platy@@ 62
RN 62
Rab@@ 62
Rak@@ 62
Ready 62
Rocket 62
Shi 62
Sis@@ 62
Stand@@ 62
Ster@@ 62
Tin@@ 62
Tol@@ 62
UA 62
UK@@ 62
USS 62
Wol@@ 62
after 62
ahi 62
alan@@ 62
alists 62
alpha 62
ando 62
apr@@ 62
arms 62
ativ@@ 62
bat 62
bound 62
cir@@ 62
distribution 62
dur@@ 62
encing 62
eon@@ 62
fel@@ 62
fle@@ 62
front 62
heim 62
ician 62
idel@@ 62
iron 62
istr@@ 62
itch 62
kov 62
last 62
lus@@ 62
mah@@ 62
may@@ 62
nat@@ 62
obi@@ 62
oceph@@ 62
oglob@@ 62
ogly@@ 62
onium 62
osome 62
otis 62
phr@@ 62
ps@@ 62
quid 62
rent 62
rod@@ 62
tar 62
tel 62
tioning 62
trach@@ 62
uo 62
vic@@ 62
wi 62
à@@ 62
ː@@ 62
ר@@ 62
ช่ว@@ 62
ល@@ 62
ハ@@ 62
昭@@ 62
風@@ 62
1187 61
1257 61
1280 61
1501 61
1587 61
1601 61
1704 61
1727 61
385 61
45,@@ 61
452 61
453 61
457 61
565 61
767 61
869 61
AIDS 61
Alive 61
Bible 61
Bus 61
CCTV 61
Cherry 61
Crew 61
Dame 61
Democracy 61
Dennis 61
Deutsche 61
Divine 61
Exhibition 61
FR 61
Fres@@ 61
Gent@@ 61
Georgia 61
IA@@ 61
ICS 61
Ind@@ 61
Iz@@ 61
Josh 61
Law@@ 61
Len@@ 61
Main@@ 61
Motors 61
OL 61
Ober@@ 61
Obj@@ 61
PBS 61
Perci@@ 61
Pig@@ 61
Pus@@ 61
RD 61
Range 61
Ranger 61
Saturn 61
Staff 61
Symp@@ 61
Te 61
Twilight 61
Voc@@ 61
Wall@@ 61
Yan 61
aceu@@ 61
agr@@ 61
alt@@ 61
ariidae 61
axis 61
aza 61
bank 61
bis 61
boat 61
bri@@ 61
character 61
cia 61
cone 61
court 61
cy 61
dil@@ 61
din 61
dynamic 61
ected 61
ements 61
enger 61
engineering 61
executive 61
fall 61
fast 61
file 61
fluor@@ 61
frame 61
ga@@ 61
genus 61
icill@@ 61
idol 61
imp@@ 61
internal 61
international 61
kins 61
ktop 61
lem 61
lop@@ 61
oked 61
oki 61
ometer 61
onom@@ 61
optical 61
pet@@ 61
pit@@ 61
plex 61
production 61
ption 61
quadr@@ 61
rho@@ 61
sensi@@ 61
sequ@@ 61
shar@@ 61
sions 61
sn@@ 61
spec@@ 61
status 61
stock 61
trag@@ 61
uku 61
ulla 61
vil 61
vor@@ 61
û 61
ý 61
ž 61
ε@@ 61
φ@@ 61
ັ@@ 61
က@@ 61
こ@@ 61
ち@@ 61
て@@ 61
ビ@@ 61
康@@ 61
情@@ 61
愛@@ 61
日本@@ 61
梁@@ 61
章@@ 61
經@@ 61
重@@ 61
성@@ 61
아@@ 61
1035 60
1137 60
1220 60
1349 60
1455 60
1475 60
1551 60
1624 60
1627 60
1636 60
1702 60
1752 60
1753 60
1764 60
342 60
362 60
387 60
412 60
441 60
479 60
488 60
58.@@ 60
754 60
794 60
8.6 60
810 60
888 60
Adobe 60
Airways 60
Ann 60
Assass@@ 60
Aston 60
Blan@@ 60
Ble@@ 60
CF 60
Chapel 60
Cities 60
Clark 60
Classical 60
Complete 60
Crypto@@ 60
Cyc@@ 60
Dat@@ 60
Dip@@ 60
Dy@@ 60
Earth@@ 60
Eight 60
Euc@@ 60
FI 60
Fighting 60
GL@@ 60
Galac@@ 60
Gas 60
Get@@ 60
Going 60
Graham 60
Guild 60
Hin@@ 60
IGN 60
Institu@@ 60
Jenny 60
Kag@@ 60
Kamp@@ 60
Laser 60
Michel 60
Ng@@ 60
Nights 60
Oliver 60
PAR@@ 60
PF 60
Pale@@ 60
REM 60
Rain@@ 60
Renaissance 60
Rest@@ 60
Rex 60
Robin 60
Rou@@ 60
SC@@ 60
Scientific 60
Sent@@ 60
Simple 60
Snow@@ 60
Tas@@ 60
Thir@@ 60
Transfer 60
Trinity 60
Unity 60
Vas@@ 60
Villa 60
Wolf 60
aks 60
ao@@ 60
art@@ 60
atis@@ 60
beng@@ 60
bir@@ 60
chan 60
content 60
eem 60
ento 60
equation 60
ero@@ 60
ext@@ 60
fro@@ 60
gin 60
hip@@ 60
ias 60
imi 60
ind 60
ited 60
iz 60
izo@@ 60
lang 60
linked 60
multiple 60
online 60
osper@@ 60
ous@@ 60
person 60
ples 60
pology 60
pot 60
prec@@ 60
sar 60
skin 60
spr@@ 60
tes@@ 60
true 60
trunc@@ 60
unds 60
urban 60
verl@@ 60
vit@@ 60
xia 60
yel@@ 60
zh@@ 60
ś 60
ศูน@@ 60
‌@@ 60
え@@ 60
っ@@ 60
ー 60
古@@ 60
如@@ 60
妃@@ 60
親@@ 60
赤@@ 60
魏@@ 60
한@@ 60
10000 59
1190 59
1522 59
1537 59
1697 59
1746 59
374 59
377 59
445 59
504 59
59.@@ 59
634 59
801 59
970 59
ASCII 59
Acid 59
Against 59
Andrea 59
Asteraceae 59
Astronom@@ 59
Barr@@ 59
Baz@@ 59
Cole 59
Control@@ 59
Cost@@ 59
Depression 59
Direct 59
Dus@@ 59
Electronics 59
Fuji 59
Gaon 59
Guy@@ 59
Harvard 59
Herbert 59
Horror 59
Jennifer 59
Jun 59
Ka 59
Kent 59
LL 59
Mail 59
Mang@@ 59
Manuel 59
Mikhail 59
Mountains 59
NATO 59
ND@@ 59
NE 59
NY 59
Naval 59
Neil 59
Oxy@@ 59
Pau@@ 59
Phas@@ 59
Phen@@ 59
Phys@@ 59
Rail 59
Refl@@ 59
Rein@@ 59
Rey 59
Sant@@ 59
Set@@ 59
Sound@@ 59
TD 59
Tox@@ 59
Transit 59
UB 59
Ug@@ 59
Vehicle 59
Volume 59
Wid@@ 59
Wish 59
aft 59
anatom@@ 59
anti 59
bec@@ 59
binary 59
cent 59
cible 59
club 59
cover 59
dead 59
dison 59
dist@@ 59
edition 59
ener@@ 59
epi@@ 59
hand@@ 59
hara 59
hard 59
hinus 59
iden 59
iria 59
lane 59
lines 59
loss@@ 59
many 59
nic@@ 59
odendron 59
omus 59
ophora 59
otom@@ 59
poli@@ 59
pros@@ 59
ran 59
result 59
score 59
set@@ 59
shell 59
shot 59
sig@@ 59
soft 59
tiz@@ 59
ud 59
umi@@ 59
uni 59
walk 59
wiki@@ 59
young 59
ú@@ 59
ω@@ 59
א@@ 59
ทักษ@@ 59
ปรารถ@@ 59
ạ 59
ミ@@ 59
信@@ 59
永@@ 59
玉@@ 59
陵@@ 59
경@@ 59
신@@ 59
1010 58
1252 58
1337 58
1430 58
1461 58
1513 58
1562 58
1674 58
1696 58
372 58
378 58
505 58
559 58
604 58
725 58
962 58
ARIA 58
AU@@ 58
Arab 58
Cath@@ 58
Cheng 58
Chi 58
Con 58
Conservation 58
Dag@@ 58
Dasy@@ 58
Did@@ 58
Dog@@ 58
EF@@ 58
Eve 58
FAO 58
Fan@@ 58
Fantas@@ 58
Gn@@ 58
Grande 58
Ground 58
HI 58
HTTP 58
Half@@ 58
Hed@@ 58
Horse 58
Hypo@@ 58
Inst@@ 58
Jung 58
Lati@@ 58
Laws 58
Lot@@ 58
Louise 58
MAR@@ 58
Morris 58
Ore@@ 58
Osaka 58
PDF 58
Parker 58
Passion 58
Proper@@ 58
Quality 58
Ray@@ 58
Re 58
Robinson 58
Rule 58
SAP 58
Sad@@ 58
Scottish 58
Shot 58
Slo@@ 58
Sonic 58
Steph@@ 58
Termin@@ 58
Tit@@ 58
Trig@@ 58
Turbo 58
Underground 58
Upon 58
Vi 58
Volleyball 58
adren@@ 58
apa 58
ark@@ 58
arp@@ 58
ases 58
bie 58
bio@@ 58
bis@@ 58
carrier 58
circuit 58
column 58
cont@@ 58
dt 58
electro@@ 58
ems 58
endra 58
esh 58
esque 58
friend 58
hard@@ 58
hin 58
icks 58
ien 58
ier@@ 58
large 58
lich@@ 58
mas 58
ml 58
mood 58
myth@@ 58
ored 58
pass 58
pose 58
protein@@ 58
quer@@ 58
regular 58
repe@@ 58
resistance 58
review 58
ride 58
ross 58
sak@@ 58
sport 58
termin@@ 58
what 58
working 58
yris 58
zz@@ 58
« 58
ş 58
Š 58
ɪ@@ 58
́@@ 58
ลิม 58
ა@@ 58
ゴ@@ 58
園@@ 58
野@@ 58
1011 57
1086 57
1160 57
1275 57
1320 57
1388 57
1608 57
1654 57
1682 57
1711 57
1757 57
31.@@ 57
339 57
364 57
396 57
43,@@ 57
444 57
55,@@ 57
623 57
626 57
678 57
790 57
95@@ 57
Agriculture 57
Arnold 57
Ast@@ 57
Bish@@ 57
Bog@@ 57
Boom 57
Chain 57
Chik@@ 57
Coron@@ 57
Dirty 57
Ds 57
Flav@@ 57
Fuj@@ 57
Gall@@ 57
Graduate 57
HL 57
HM 57
IO 57
Immun@@ 57
Incre@@ 57
Joy 57
Justin 57
Kennedy 57
Kimi 57
Ladies 57
Lepid@@ 57
Lucas 57
MF 57
Method 57
Miami 57
Mim@@ 57
Mine 57
Morgan 57
NG 57
NR@@ 57
Navy 57
Num@@ 57
Officer 57
Perry 57
Pleur@@ 57
Price 57
Products 57
Respon@@ 57
Rhodes 57
Rich 57
Rob 57
Ron 57
Sabbath 57
Scienti@@ 57
Shawn 57
Snake 57
Stand 57
Stuart 57
Sultan 57
Switch 57
TED 57
Tax 57
Then 57
Transport 57
UV 57
Was 57
Wire 57
Zhao 57
aching 57
ald 57
amba 57
antum 57
apon 57
avi 57
bac@@ 57
bal 57
both 57
elong@@ 57
esa 57
fe 57
ffer 57
flu@@ 57
frequency 57
hip 57
icon@@ 57
ideae 57
igan 57
ingo 57
interface 57
ip 57
kok 57
lation 57
lep@@ 57
morph@@ 57
o- 57
oblast 57
opl@@ 57
oplas@@ 57
osum 57
pair 57
qua 57
rain 57
sic 57
tah@@ 57
taya 57
ternal 57
tie 57
tour 57
traditional 57
vision 57
without 57
ة@@ 57
หนะ 57
ລ@@ 57
•@@ 57
石@@ 57
越@@ 57
黄@@ 57
1050 56
1135 56
1154 56
1336 56
1389 56
1468 56
1512 56
1566 56
1621 56
1652 56
1663 56
1669 56
1690 56
1751 56
359 56
363 56
391 56
421 56
443 56
455 56
528 56
60,@@ 56
605 56
622 56
636 56
645 56
65,@@ 56
69.@@ 56
718 56
79.@@ 56
855 56
904 56
Analysis 56
Arti@@ 56
Ath@@ 56
Based 56
Berry 56
Brid@@ 56
Bruno 56
CAT 56
Chron@@ 56
Compos@@ 56
Crash 56
Cri@@ 56
Drug 56
EMI 56
Eun@@ 56
Finale 56
GPL 56
Gary 56
Georg 56
Gods 56
Govern@@ 56
Green@@ 56
Harper 56
Hash@@ 56
Historia 56
Hob@@ 56
Hugh 56
Int@@ 56
Kak@@ 56
Kenneth 56
Lisa 56
Low@@ 56
MAN 56
Manchester 56
Mazda 56
Megal@@ 56
Mei 56
Mind@@ 56
Mix@@ 56
NB 56
OL@@ 56
Orch@@ 56
PSP 56
Papa 56
Physical 56
Roland 56
SG 56
Squad 56
Sti@@ 56
Strike 56
Sud@@ 56
TT 56
Tang@@ 56
Vietnam 56
Vincent 56
Win 56
Yar@@ 56
Zer@@ 56
aic 56
ampli@@ 56
anted 56
ares 56
bag 56
bond 56
call 56
chan@@ 56
ded 56
democracy 56
early 56
ente 56
gir@@ 56
ished 56
kii 56
late 56
lead 56
lik@@ 56
lus 56
magnitude 56
mak@@ 56
median 56
message 56
modern 56
mutation 56
ocephalus 56
odo@@ 56
olithic 56
perfect 56
perten@@ 56
rian 56
road 56
say 56
stell@@ 56
suff@@ 56
suki 56
sum 56
tak@@ 56
tide 56
tol@@ 56
transport 56
tz 56
ules 56
university 56
van@@ 56
venti@@ 56
yok@@ 56
yph@@ 56
เจลิส 56
သ@@ 56
定@@ 56
島@@ 56
省@@ 56
者@@ 56
英@@ 56
1.0@@ 55
1127 55
1152 55
1248 55
1270 55
1273 55
1290 55
1314 55
1394 55
1398 55
1399 55
1428 55
1563 55
1633 55
1635 55
1646 55
1664 55
1698 55
1703 55
1712 55
1721 55
1754 55
1769 55
399 55
427 55
477 55
515 55
516 55
536 55
57.@@ 55
6000 55
601 55
627 55
67,@@ 55
Angel@@ 55
Annual 55
Bah@@ 55
Beta 55
Birthday 55
Brain@@ 55
Brun@@ 55
Bull 55
Bullet 55
CAM 55
CON 55
Cant@@ 55
Cho@@ 55
Clin@@ 55
Commonwealth 55
Cont@@ 55
FT 55
Favor@@ 55
Fever 55
Format 55
Fuk@@ 55
GPS 55
GSM 55
Gel@@ 55
Had@@ 55
Hate 55
Hous@@ 55
How@@ 55
IR 55
Ish@@ 55
Jade 55
Ket@@ 55
Kno@@ 55
Kod@@ 55
Latin 55
Leslie 55
Map@@ 55
Mar 55
Monte 55
Moscow 55
NN 55
Ng 55
OP 55
Part@@ 55
Pati@@ 55
Purple 55
SU 55
Scotland 55
Sims 55
Skat@@ 55
Strange 55
Tech 55
Tech@@ 55
Teen@@ 55
Thal@@ 55
Thriller 55
Tourism 55
Tul@@ 55
Ubuntu 55
Wes@@ 55
Word 55
Xu 55
aded 55
aku@@ 55
alt 55
asy 55
aud@@ 55
bach 55
biology 55
blog@@ 55
cancer 55
clusive 55
dam@@ 55
deep 55
division 55
dre@@ 55
edra 55
ehouse 55
elly 55
eni@@ 55
fort 55
gor@@ 55
home 55
ikaze 55
istry 55
lag@@ 55
lah 55
lug@@ 55
mannii 55
noinclude 55
nos@@ 55
ods 55
office 55
once 55
one@@ 55
ores 55
otor 55
phth@@ 55
playing 55
pp 55
qi 55
ram 55
speed 55
tox@@ 55
ulu 55
utt@@ 55
virtual 55
wheel 55
ő 55
ตุรัส 55
ດ@@ 55
គ@@ 55
よ@@ 55
ン 55
京@@ 55
千@@ 55
娘@@ 55
￼@@ 55
1020 54
1130 54
1234 54
1333 54
1351 54
1429 54
1535 54
1561 54
1576 54
1578 54
1595 54
1659 54
431 54
668 54
702 54
715 54
717 54
730 54
89.@@ 54
892 54
925 54
97.@@ 54
973 54
987 54
ARC 54
Adams 54
Aeg@@ 54
Agent 54
Airbus 54
Ar 54
Autumn 54
Birds 54
Brother 54
Burma 54
Buz@@ 54
CB@@ 54
Civ@@ 54
Commercial 54
Denmark 54
Door 54
Fa@@ 54
Graph@@ 54
Gru@@ 54
Hep@@ 54
Hex@@ 54
IATA 54
Ia 54
KK 54
Kane 54
LGBT 54
Lap@@ 54
Lou@@ 54
Luke 54
MVP 54
Metro@@ 54
Much 54
OT@@ 54
Ohio 54
Ou@@ 54
PPP 54
Pain 54
Physics 54
Pos@@ 54
Raf@@ 54
Rolling 54
Ruby 54
SK 54
Satellite 54
Script 54
Soft 54
Solo 54
Stri@@ 54
Syst@@ 54
Talent 54
Thompson 54
Trach@@ 54
Tun@@ 54
Turismo 54
Veter@@ 54
Zel@@ 54
abad 54
abr@@ 54
activ@@ 54
alis@@ 54
amin 54
anak@@ 54
antagon@@ 54
arts 54
aud 54
bass 54
ck@@ 54
cri@@ 54
dale 54
degree 54
df 54
differ@@ 54
drop 54
entation 54
enter 54
eva 54
evolution 54
far@@ 54
functions 54
fusion 54
gy@@ 54
ically 54
igo 54
illo 54
ills 54
integr@@ 54
isc@@ 54
iscus 54
iti 54
itu@@ 54
kh 54
kle@@ 54
know 54
leaf 54
lies 54
may 54
middle 54
ming 54
nis@@ 54
ochrom@@ 54
oder@@ 54
omer 54
omin@@ 54
orium 54
oste@@ 54
pan 54
pass@@ 54
physics 54
plane 54
pling 54
propri@@ 54
pseudo@@ 54
random 54
s- 54
shock 54
sir@@ 54
title 54
total 54
tral 54
tru@@ 54
trus 54
uss 54
vic 54
voice 54
ways 54
yak@@ 54
§ 54
ל@@ 54
มิถุ@@ 54
สวย@@ 54
เสธ 54
ພ@@ 54
™ 54
ギ@@ 54
機@@ 54
秋@@ 54
見@@ 54
記@@ 54
郎@@ 54
面@@ 54
나@@ 54
자@@ 54
03.@@ 53
1,2 53
1214 53
1235 53
1241 53
1422 53
1425 53
1523 53
1554 53
1596 53
1619 53
1634 53
1684 53
1747 53
201@@ 53
32@@ 53
416 53
418 53
423 53
473 53
514 53
527 53
545 53
557 53
56,@@ 53
712 53
775 53
Achievement 53
Alternative 53
Ba 53
Baker 53
Catholic 53
Creek 53
Current 53
Dri@@ 53
Dut@@ 53
Emma 53
Epi@@ 53
Evangel@@ 53
Experience 53
GI 53
Gothic 53
Gregory 53
Gulf 53
Gym@@ 53
Hik@@ 53
Hungarian 53
Innovation 53
Jas@@ 53
Jer@@ 53
KK@@ 53
Keep 53
Kis@@ 53
Ko 53
Legends 53
Lincoln 53
Lingu@@ 53
Luci@@ 53
Lum@@ 53
Luna 53
MMA 53
Mall 53
Michelle 53
Ministry 53
ND 53
Nice 53
North@@ 53
Own 53
Punk 53
RAW 53
Ram 53
Scream 53
Secondary 53
Sedan 53
Support 53
Thunder 53
Travel 53
Verte@@ 53
Work@@ 53
XL@@ 53
abi 53
acial 53
against 53
ags 53
anch@@ 53
aq 53
atha 53
bacterium 53
ball@@ 53
before 53
bility 53
dar@@ 53
elli@@ 53
elus 53
eno 53
ester@@ 53
fix 53
government 53
ility 53
imin@@ 53
inda 53
island 53
lb 53
liber@@ 53
num 53
ocentr@@ 53
olla 53
ologist 53
omyces 53
onda 53
peak 53
phil@@ 53
pur 53
rant 53
rection 53
rog@@ 53
sav@@ 53
sch 53
shan 53
short 53
spe@@ 53
spectr@@ 53
tation 53
vern@@ 53
xa 53
²@@ 53
ŋ@@ 53
คอมมิวนิ@@ 53
สนุน 53
დ@@ 53
რ@@ 53
≈ 53
♥ 53
式@@ 53
景@@ 53
楊@@ 53
羅@@ 53
良@@ 53
리@@ 53
의@@ 53
005 52
1259 52
1435 52
1479 52
1505 52
1655 52
1736 52
1771 52
368 52
371 52
394 52
414 52
419 52
763 52
Activ@@ 52
Amazon 52
Archae@@ 52
BAFTA 52
Being 52
Boxing 52
Brit@@ 52
Broken 52
CB 52
CBC 52
CSI 52
Christ@@ 52
Computing 52
Constitution 52
Cow@@ 52
Crus@@ 52
Fam@@ 52
GE@@ 52
Ga 52
Hg 52
Illus@@ 52
Italy 52
Jessica 52
Julius 52
Kaw@@ 52
Kind 52
Lak@@ 52
Lands@@ 52
Marco 52
Myanmar 52
NASA 52
OH@@ 52
Outstanding 52
PAL 52
RB 52
Resp@@ 52
Ric@@ 52
Scorpi@@ 52
Seth 52
Sin 52
Sr@@ 52
UNICEF 52
Ut@@ 52
Wake 52
Wan 52
Witch 52
Worlds 52
Zhou 52
abol@@ 52
acked 52
aint 52
anced 52
anxi@@ 52
arm 52
asy@@ 52
atio 52
aux 52
ayn 52
biom@@ 52
bor 52
border 52
building 52
children 52
church 52
clo@@ 52
community 52
counter@@ 52
coupl@@ 52
depression 52
dice 52
elling 52
esi 52
esses 52
essing 52
frac@@ 52
fun@@ 52
give 52
graphic 52
hea 52
health 52
hen 52
hop 52
ikawa 52
iler 52
isch 52
isher 52
kei 52
kov@@ 52
lam 52
leuc@@ 52
mine 52
mis 52
money 52
nem@@ 52
nitr@@ 52
none 52
odor@@ 52
oric 52
parado@@ 52
perception 52
phal@@ 52
ppen 52
pun@@ 52
put@@ 52
quantum 52
regul@@ 52
segment 52
smooth 52
sun 52
times 52
trap@@ 52
triangular 52
tz@@ 52
ui@@ 52
uru 52
utes 52
via 52
was@@ 52
yr 52
Р@@ 52
र@@ 52
เวียต 52
ん 52
二@@ 52
十@@ 52
夏@@ 52
孫@@ 52
慶@@ 52
最@@ 52
會@@ 52
治@@ 52
秀@@ 52
空@@ 52
수@@ 52
종@@ 52
1.4@@ 51
1016 51
1138 51
1371 51
1442 51
1473 51
1488 51
1517 51
1553 51
1557 51
1558 51
1673 51
2026 51
456 51
522 51
654 51
681 51
7000 51
768 51
8.9 51
918 51
924 51
ASS 51
Acting 51
Anth@@ 51
Apollo 51
App 51
Arc@@ 51
Arm 51
Buddhist 51
Cable 51
Carey 51
Casino 51
Cav@@ 51
Chronicles 51
Combat 51
Combin@@ 51
Commun@@ 51
Consor@@ 51
Corn@@ 51
Course 51
Cut 51
DB@@ 51
DDR 51
Date 51
Diana 51
Emmy 51
Epic 51
Excellence 51
Faith 51
Feature 51
Ferrari 51
Flowers 51
Gates 51
Golf 51
Hall@@ 51
Hugo 51
ICAO 51
Independence 51
JP 51
Killing 51
Literature 51
Lob@@ 51
Lus@@ 51
MN@@ 51
Marc 51
Massachusetts 51
Mexico 51
Mighty 51
NG@@ 51
Natur@@ 51
Noise 51
Nord@@ 51
Path 51
Ped@@ 51
RP 51
Rac@@ 51
Randy 51
Return@@ 51
Roberts 51
Sa 51
Sev@@ 51
Sign 51
Signal 51
Sina 51
Sung@@ 51
Sunset 51
Sv@@ 51
TW@@ 51
Techn@@ 51
UB@@ 51
Words 51
Yor@@ 51
Yuk@@ 51
ache 51
aline 51
alo@@ 51
alty 51
amoto 51
arak@@ 51
ario 51
aus 51
aze 51
behavior 51
carbon 51
cau@@ 51
chn@@ 51
cla@@ 51
classical 51
comm@@ 51
compact 51
dress 51
eae 51
elii 51
enne 51
esch@@ 51
eto 51
eu 51
eve 51
fas@@ 51
food 51
gul@@ 51
hipo@@ 51
ilk 51
imal 51
inclu@@ 51
infection 51
iss 51
lav@@ 51
mar 51
now 51
odynam@@ 51
olep@@ 51
opia 51
oriented 51
ource 51
part@@ 51
pec@@ 51
press 51
rank 51
reson@@ 51
rhythm 51
rie 51
run 51
ses@@ 51
solution 51
tet@@ 51
thre@@ 51
tique 51
too 51
tr 51
tran@@ 51
vas 51
vitro 51
ythro@@ 51
š@@ 51
מ@@ 51
เษก 51
ຄ@@ 51
ệ 51
七@@ 51
本@@ 51
洪@@ 51
部@@ 51
 51
--------@@ 50
--@@ 50
1018 50
12.7 50
1202 50
1221 50
124@@ 50
1272 50
1346 50
1514 50
1524 50
1564 50
1709 50
190@@ 50
353 50
397 50
422 50
424 50
429 50
497 50
535 50
542 50
59,@@ 50
635 50
704 50
878 50
899 50
942 50
997 50
Abr@@ 50
Alo@@ 50
Artists 50
Aug@@ 50
Boh@@ 50
Carlo 50
Cave 50
Cena 50
Chin@@ 50
Chit@@ 50
Crisis 50
DH 50
Database 50
Dim@@ 50
East@@ 50
Emily 50
Eri@@ 50
Eugene 50
Evans 50
FP@@ 50
Flam@@ 50
Fred 50
Gom@@ 50
Ha 50
Hip@@ 50
Holding 50
Hungary 50
ICA 50
Ide@@ 50
Internal 50
Kang 50
Kick@@ 50
Legacy 50
Lu 50
MH 50
Mercury 50
Mk 50
Normal 50
OC 50
Palm 50
Plac@@ 50
Plaza 50
Rocky 50
Shield 50
Shine 50
Sri 50
Standing 50
Syl@@ 50
Than@@ 50
Thunder@@ 50
UC 50
Vogue 50
Wedding 50
Whis@@ 50
Woods 50
^@@ 50
agan 50
agi 50
ancer 50
apia 50
artic@@ 50
atia 50
atine 50
aughter 50
berger 50
boy@@ 50
choice 50
chu 50
combination 50
cost 50
dial@@ 50
dot 50
during 50
edes 50
edo 50
episode 50
esp@@ 50
even 50
fu 50
half 50
idge 50
igi 50
itas 50
japon@@ 50
kab@@ 50
ley@@ 50
little 50
liz@@ 50
medium 50
members 50
moon 50
nea 50
neb@@ 50
ought 50
oul 50
pack@@ 50
pad@@ 50
parti@@ 50
plication 50
qu 50
sag@@ 50
sex@@ 50
sip 50
skaya 50
sol 50
stat@@ 50
supr@@ 50
sv@@ 50
syst@@ 50
tap@@ 50
tay@@ 50
tea 50
thia 50
third 50
tier 50
tron@@ 50
tural 50
urb@@ 50
usal 50
ushi 50
uts 50
vent 50
viv@@ 50
xel 50
yal@@ 50
ycl@@ 50
yne 50
ש@@ 50
ครัว@@ 50
นิวยอร์@@ 50
ฟังก์@@ 50
สาท 50
เจ้าอยู่หัว 50
អ@@ 50
› 50
事@@ 50
区@@ 50
司@@ 50
司馬@@ 50
思@@ 50
惠@@ 50
松@@ 50
語@@ 50
1197 49
1325 49
1331 49
1332 49
1353 49
1412 49
1487 49
1531 49
1532 49
1694 49
1710 49
1748 49
381 49
388 49
42.@@ 49
478 49
491 49
539 49
549 49
588 49
612 49
616 49
641 49
642 49
643 49
667 49
705 49
713 49
751 49
890 49
922 49
992 49
Aaron 49
Analy@@ 49
Anton 49
Armag@@ 49
Artem@@ 49
Associates 49
Atomic 49
Bibli@@ 49
Bran@@ 49
Burg@@ 49
Cancer 49
Chiang 49
Class@@ 49
Dana 49
Diff@@ 49
Eddie 49
Evening 49
Finance 49
Hawaii 49
Hey@@ 49
Highway 49
Hui 49
ISA 49
Joey 49
Julian 49
KC 49
KV 49
LT 49
Langu@@ 49
Lay@@ 49
Laz@@ 49
Leon@@ 49
Letters 49
Lover 49
Luis 49
MY@@ 49
Monthly 49
Neu@@ 49
Nucle@@ 49
OS@@ 49
PM@@ 49
Prison 49
Progress 49
Quali@@ 49
Rap 49
Rapid 49
Reh@@ 49
Revol@@ 49
Rich@@ 49
Schiz@@ 49
Speci@@ 49
Spr@@ 49
Stanley 49
Sten@@ 49
Stewart 49
Tag@@ 49
Temp@@ 49
Terry 49
Tet@@ 49
Think 49
Tir@@ 49
Tut@@ 49
VO 49
Volkswagen 49
WE 49
WR 49
Zag@@ 49
aan 49
aces 49
agawa 49
aircraft 49
alo 49
arn 49
atitis 49
atric 49
beat 49
carbon@@ 49
dark 49
dow@@ 49
due 49
eding 49
enh@@ 49
ented 49
formal 49
gastro@@ 49
groups 49
hav@@ 49
him 49
hot@@ 49
ict 49
igu@@ 49
iku 49
immune 49
isation 49
iser@@ 49
jiang 49
kia 49
kir@@ 49
kit 49
kom@@ 49
lon 49
oids 49
ologi@@ 49
omatidae 49
onal@@ 49
original 49
ours 49
particle 49
pher@@ 49
pour 49
psychology 49
rostr@@ 49
ru 49
she@@ 49
sten@@ 49
ston 49
stroke 49
tank 49
then@@ 49
tii 49
uri@@ 49
uria 49
uro 49
uter 49
uu 49
vin 49
wald 49
wei 49
» 49
ซอฟต์@@ 49
ฝรั่ง@@ 49
อย่างไร@@ 49
စ@@ 49
ṭ 49
†@@ 49
仙@@ 49
何@@ 49
御@@ 49
聖@@ 49
順@@ 49
구@@ 49
장@@ 49
지@@ 49
후@@ 49
1024 48
1120 48
1125 48
1126 48
1271 48
1276 48
1305 48
1307 48
1327 48
1390 48
1538 48
1575 48
1579 48
1708 48
1715 48
1742 48
1743 48
1767 48
379 48
481 48
483 48
529 48
576 48
614 48
64,@@ 48
9.7 48
909 48
926 48
93.@@ 48
96.@@ 48
974 48
981 48
996 48
AZ 48
Acro@@ 48
Agricultural 48
Ahmed 48
Ambassador 48
Andreas 48
Arth@@ 48
Bern@@ 48
Butler 48
CSS 48
Carav@@ 48
Carl@@ 48
Certific@@ 48
Chef 48
Circus 48
Cit@@ 48
Climate 48
Coach 48
Coalition 48
Conf@@ 48
Constitu@@ 48
Continu@@ 48
Cooper 48
Danny 48
Deli@@ 48
Dendro@@ 48
Duo 48
Echin@@ 48
Educational 48
Eleven 48
Elisabeth 48
Eric@@ 48
FD 48
Framework 48
Fury 48
Guru 48
Hermann 48
Holdings 48
Hunt 48
Hyundai 48
IEC 48
Ins@@ 48
Jersey 48
Kamen 48
LF 48
Laun@@ 48
Lec@@ 48
Leonard 48
Lex@@ 48
Los@@ 48
Lux@@ 48
Marina 48
Milan 48
Minor 48
Mixed 48
Mob@@ 48
Motor@@ 48
Myco@@ 48
NC@@ 48
Newcastle 48
Nokia 48
Param@@ 48
Path@@ 48
Phal@@ 48
Population 48
Pra@@ 48
Prov@@ 48
Qi@@ 48
Rogers 48
Running 48
Sequ@@ 48
Stein@@ 48
Styles 48
TGV 48
TNT 48
Teng@@ 48
Tennis 48
Terr@@ 48
Test@@ 48
Tomb 48
Tril@@ 48
Twenty 48
Wallace 48
Walt 48
Yo 48
acoustic 48
aji 48
alensis 48
alla 48
amu 48
angular 48
anthrop@@ 48
ather@@ 48
avirus 48
band@@ 48
calcul@@ 48
chemistry 48
cines 48
coma 48
cran@@ 48
cru@@ 48
dule 48
ede 48
ega 48
endo 48
eter@@ 48
gar 48
gensis 48
icide 48
idon 48
imi@@ 48
inosa 48
ishing 48
jer@@ 48
kel 48
kw@@ 48
lave 48
lev@@ 48
lian 48
macul@@ 48
mand@@ 48
metropolitan 48
minute 48
modi@@ 48
ms@@ 48
nav@@ 48
nership 48
nis 48
oline 48
oris 48
partial 48
party 48
pers 48
play@@ 48
proc@@ 48
quality 48
ques 48
rich@@ 48
rose 48
sius 48
society 48
story 48
tac@@ 48
task 48
temple 48
thi 48
ucci 48
urn@@ 48
uses 48
อื่น@@ 48
ื่อนที่ 48
ຣ@@ 48
ả 48
东@@ 48
宣@@ 48
怪@@ 48
木@@ 48
源@@ 48
火@@ 48
黒@@ 48
공@@ 48
주@@ 48
008 47
1227 47
1246 47
1291 47
1364 47
1497 47
1502 47
1529 47
1539 47
1546 47
1552 47
1574 47
1719 47
1730 47
454 47
465 47
494 47
507 47
534 47
567 47
571 47
628 47
731 47
929 47
935 47
943 47
976 47
AJ@@ 47
Alfa 47
Algorith@@ 47
Andr@@ 47
Avent@@ 47
Bear 47
CFA 47
Campaign 47
Cand@@ 47
Candy 47
Chap@@ 47
Clinical 47
Coffee 47
Compar@@ 47
Crow@@ 47
Del 47
Dod@@ 47
Doo 47
Drew 47
Ernest 47
Gab@@ 47
Gay 47
Gilbert 47
Grand@@ 47
Harold 47
Hell@@ 47
Hogan 47
Huang 47
Illinois 47
Inten@@ 47
Invent@@ 47
Isaac 47
Johannes 47
Julia 47
KT 47
Kem@@ 47
LG 47
Lamb@@ 47
Leb@@ 47
Mong@@ 47
Nam 47
Owens 47
Polish 47
Polyg@@ 47
Prel@@ 47
Prob@@ 47
Reichs@@ 47
Retrieved 47
Rhynch@@ 47
Rudolf 47
Ship 47
Sons 47
Sunny 47
Swedish 47
Task 47
Ted 47
Tor 47
Trek 47
Trial 47
UD 47
Un 47
Uran@@ 47
Victory 47
Wireless 47
World@@ 47
Zy@@ 47
aceous 47
aci 47
adium 47
ait@@ 47
alidae 47
ansen 47
aring 47
arti@@ 47
aven@@ 47
blind 47
cian 47
cler@@ 47
dir 47
direc@@ 47
disk 47
doms 47
enza 47
essed 47
etsu 47
eval 47
fat@@ 47
fi 47
gene@@ 47
glucose 47
grave 47
ig 47
ilar 47
ild 47
induced 47
itive 47
itt 47
jus@@ 47
library 47
lio 47
look 47
nix 47
obr@@ 47
ocene 47
ois@@ 47
olus 47
opping 47
orbital 47
otop@@ 47
otrans@@ 47
ott 47
pag@@ 47
person@@ 47
phis 47
piece 47
pon 47
pping 47
ria 47
rif@@ 47
ror 47
sat@@ 47
satur@@ 47
sta 47
step 47
tage 47
thought 47
tok@@ 47
trav@@ 47
trich@@ 47
unga 47
uth 47
volume 47
xanth@@ 47
ה@@ 47
คลึง 47
สนเทศ 47
แคนา@@ 47
ຊ@@ 47
奇@@ 47
師@@ 47
慈@@ 47
政@@ 47
物@@ 47
1207 46
1219 46
1231 46
1288 46
1367 46
1402 46
1406 46
1419 46
1424 46
1432 46
1472 46
1481 46
1493 46
1495 46
1509 46
1617 46
1681 46
1728 46
392 46
426 46
471 46
502 46
54,@@ 46
57,@@ 46
602 46
633 46
655 46
66,@@ 46
8000 46
806 46
846 46
945 46
969 46
Advance 46
Ale@@ 46
Amy 46
Arc 46
Barcelona 46
Buddha 46
Buddhism 46
Canal 46
Caribbean 46
Crime 46
Cut@@ 46
Cyprin@@ 46
Dark@@ 46
Dry 46
EB@@ 46
Emil 46
Escape 46
Every 46
Find@@ 46
Glo@@ 46
Glu@@ 46
Hav@@ 46
Hawk 46
Heinrich 46
Help 46
Hos@@ 46
IMO 46
Inform@@ 46
Ja@@ 46
Joel 46
Laura 46
Liberal 46
Lic@@ 46
Lip@@ 46
Lo 46
Lorenzo 46
Macintosh 46
Massacre 46
Mete@@ 46
Miles 46
Nacional 46
November 46
Olympi@@ 46
Ophi@@ 46
Paras@@ 46
Pedi@@ 46
Philippe 46
Phillips 46
Phosph@@ 46
Photo 46
Pier@@ 46
Piper 46
Po 46
Recording 46
Rig@@ 46
Secretary 46
Strong@@ 46
Syng@@ 46
TN@@ 46
Valentine 46
Via 46
Xu@@ 46
Yang@@ 46
Yes@@ 46
ado@@ 46
alls 46
alogue 46
ambo@@ 46
amorph@@ 46
anthera 46
apse 46
aser 46
associated 46
azine 46
bee 46
bes 46
bli@@ 46
cer 46
compound 46
contrast 46
corpor@@ 46
cro@@ 46
dal 46
dal@@ 46
database 46
dell 46
dible 46
different 46
dong 46
dos 46
dot@@ 46
ec 46
edu 46
ends 46
essment 46
etto 46
expression 46
giant 46
grade 46
graph@@ 46
hir@@ 46
hole 46
icial 46
illi 46
irat@@ 46
item 46
iter 46
jack 46
lad@@ 46
lich 46
met 46
nes@@ 46
numbers 46
oda 46
ogaster 46
olo 46
ophyl@@ 46
opr@@ 46
orbit@@ 46
pep@@ 46
pir@@ 46
players 46
plic@@ 46
pt@@ 46
radio 46
rand@@ 46
rang 46
rat@@ 46
representation 46
ret 46
retr@@ 46
rich 46
sian 46
spl@@ 46
synth@@ 46
television 46
tension 46
thesis 46
tual 46
uj@@ 46
ums 46
upon 46
variant 46
vote 46
zum@@ 46
γ@@ 46
λ 46
क@@ 46
นวย 46
พิสู@@ 46
ທ@@ 46
ァ@@ 46
利@@ 46
台@@ 46
族@@ 46
時@@ 46
楚@@ 46
泰@@ 46
電@@ 46
국@@ 46
서@@ 46
씨@@ 46
；@@ 46
･@@ 46
$@@ 45
1174 45
1254 45
1284 45
1365 45
1384 45
1477 45
1622 45
1647 45
1656 45
448 45
449 45
474 45
485 45
506 45
532 45
541 45
621 45
624 45
651 45
653 45
70,@@ 45
733 45
877 45
956 45
Alb@@ 45
Arabic 45
Asper@@ 45
Augustus 45
Bamb@@ 45
Belle 45
Bh@@ 45
Bloomberg 45
Bohemia 45
Box@@ 45
Brach@@ 45
Caes@@ 45
Carbon 45
Chase 45
Chin 45
Contin@@ 45
Cra@@ 45
Defence 45
Dres@@ 45
Dum@@ 45
Elvis 45
Ferr@@ 45
Fiction 45
Franklin 45
GH 45
GW 45
Gli@@ 45
Globe 45
Hier@@ 45
Imp@@ 45
Influ@@ 45
Jol@@ 45
KB 45
Kai 45
Khmer 45
Kok@@ 45
Liberty 45
Lil 45
Lynx 45
MCA 45
Madison 45
Midd@@ 45
Monsters 45
Newton 45
Olympics 45
PB@@ 45
Philadelphia 45
Pietro 45
Revolutionary 45
Shooting 45
Sierra 45
Spider 45
Sport@@ 45
Susan 45
Swing 45
TF@@ 45
Tach@@ 45
Tank 45
Tele@@ 45
Tib@@ 45
Tong@@ 45
Traffic 45
Tum@@ 45
UE@@ 45
Valve 45
Wiz@@ 45
aem@@ 45
again 45
ale@@ 45
ante@@ 45
anza 45
around 45
atri@@ 45
ause 45
cad@@ 45
called 45
capital 45
cluster 45
cot@@ 45
crip@@ 45
dan@@ 45
dio 45
ebody 45
edy 45
eia 45
eks 45
elo@@ 45
erk@@ 45
esc@@ 45
esian 45
esterol 45
far 45
fibr@@ 45
fic@@ 45
guard 45
hak@@ 45
hall 45
ights 45
ilo 45
indi@@ 45
indica 45
inian 45
inj@@ 45
ink@@ 45
input 45
issa 45
jug@@ 45
loa 45
ockout 45
oga 45
oglo@@ 45
ophys@@ 45
organization 45
oud 45
pay@@ 45
personal 45
pith@@ 45
pod@@ 45
possible 45
pren@@ 45
qui 45
rez 45
rid@@ 45
rights 45
sle@@ 45
spatial 45
sper@@ 45
swe@@ 45
tem 45
tionary 45
tly 45
tobac@@ 45
tournament 45
traf@@ 45
unter@@ 45
wen@@ 45
wick 45
wit@@ 45
woo 45
wr@@ 45
yang 45
yte 45
zed 45
è@@ 45
ν@@ 45
จีเอ็ม@@ 45
มนี 45
สรุ@@ 45
ီ@@ 45
ボ@@ 45
代@@ 45
同@@ 45
名@@ 45
吳@@ 45
园@@ 45
曹@@ 45
湖@@ 45
色@@ 45
소@@ 45
1012 44
1040 44
1070 44
1096 44
1199 44
1223 44
1285 44
1386 44
1408 44
1447 44
1478 44
1518 44
1639 44
1657 44
1761 44
199@@ 44
447 44
461 44
551 44
554 44
575 44
587 44
593 44
649 44
68,@@ 44
68.@@ 44
762 44
784 44
817 44
824 44
868 44
915 44
955 44
975 44
Abdul 44
Ages 44
Annie 44
Archit@@ 44
Armed 44
Asy@@ 44
BI 44
BS@@ 44
Bach@@ 44
Basketball 44
Bath@@ 44
Benoit 44
Bone 44
Boss 44
But 44
CNN 44
Capit@@ 44
Cars 44
Chand@@ 44
Chaos 44
Chev@@ 44
Civic 44
Collins 44
Concerto 44
Conver@@ 44
Das 44
Delta 44
Dil@@ 44
Domin@@ 44
Doom 44
Dru@@ 44
Eli@@ 44
Em 44
Emergency 44
Evol@@ 44
Fas@@ 44
Found@@ 44
Geor@@ 44
Giuseppe 44
Hym@@ 44
Indi@@ 44
Initiative 44
Isle 44
Italia 44
Kav@@ 44
Kenny 44
Koch 44
LCD 44
Large 44
Lei@@ 44
Lucha 44
Making 44
Manual 44
Manufacturing 44
Matter 44
Member 44
Mercy 44
Mum@@ 44
Music@@ 44
Muslim 44
Noble 44
Nymph@@ 44
Orton 44
Palazzo 44
Paper 44
Plain 44
Promotion 44
Publ@@ 44
RAF 44
Raiders 44
Rho@@ 44
Riv@@ 44
SSR 44
Saw@@ 44
Silence 44
Spy@@ 44
Su 44
Tax@@ 44
Tos@@ 44
Trophy 44
Typh@@ 44
Wag@@ 44
Walking 44
adian 44
adr@@ 44
alde@@ 44
alog 44
angu@@ 44
anni 44
aper 44
application 44
arer 44
asting 44
atal 44
atis 44
atom 44
aton 44
birth 44
choose 44
cles 44
conson@@ 44
constant 44
could 44
digit@@ 44
dynam@@ 44
eases 44
ebo 44
ede@@ 44
emat@@ 44
ement@@ 44
ener 44
ephone 44
escope 44
eses 44
events 44
failure 44
fam@@ 44
fate 44
fo 44
games 44
got 44
hap@@ 44
hen@@ 44
human@@ 44
iana 44
include 44
ishes 44
iso@@ 44
isth@@ 44
iver 44
kig@@ 44
laceae 44
lact@@ 44
lex@@ 44
lingu@@ 44
medical 44
mel 44
mess@@ 44
mun@@ 44
nan 44
nati@@ 44
oc 44
odus 44
official 44
oir 44
omyc@@ 44
orian 44
ornis 44
ory@@ 44
oter 44
peer 44
phi 44
positi@@ 44
radial 44
radius 44
raf@@ 44
ranking 44
real@@ 44
rell 44
rig@@ 44
rus 44
same 44
sii 44
sit@@ 44
ski@@ 44
sure 44
target 44
tended 44
these 44
training 44
tures 44
ude 44
ulin 44
unger 44
ward@@ 44
ycle 44
®@@ 44
Å 44
ń 44
ʰ@@ 44
δ 44
δ@@ 44
ω 44
ό@@ 44
ปริศ@@ 44
เศส 44
္@@ 44
ြ@@ 44
ភ@@ 44
℃ 44
≥ 44
○@@ 44
ケ@@ 44
夫@@ 44
徳@@ 44
戰@@ 44
敬@@ 44
是@@ 44
犬@@ 44
鉄@@ 44
동@@ 44
시@@ 44
1118 43
1143 43
1191 43
1198 43
1236 43
1245 43
1258 43
1297 43
1308 43
1363 43
1382 43
1383 43
1410 43
1421 43
1443 43
1508 43
1631 43
1705 43
2,3 43
373 43
389 43
492 43
493 43
523 43
561 43
568 43
586 43
652 43
665 43
672 43
701 43
798 43
814 43
815 43
874 43
884 43
9000 43
951 43
Ain 43
Alien 43
Aph@@ 43
Audit@@ 43
Aver@@ 43
Berkeley 43
Bes@@ 43
Boyz 43
Chance 43
Charter 43
Chry@@ 43
Coff@@ 43
Communist 43
Confederation 43
Desert 43
Develop@@ 43
Dick 43
Dj@@ 43
Dys@@ 43
Einstein 43
Elder 43
FB 43
Felix 43
Four@@ 43
Frequ@@ 43
Gat@@ 43
Genesis 43
Glob@@ 43
Greg 43
Guerr@@ 43
Guil@@ 43
HO 43
IB 43
Indiana 43
Institut 43
Kus@@ 43
Manhattan 43
Master@@ 43
Met 43
Mini@@ 43
Nau@@ 43
Ostr@@ 43
Owen 43
Parad@@ 43
Parti@@ 43
Pennsylvania 43
Pieter 43
Ralph 43
Rhap@@ 43
Rico 43
Risk 43
Route 43
Sales 43
Secre@@ 43
Section 43
Session 43
Soldier 43
Spin@@ 43
Spo@@ 43
Stere@@ 43
Strateg@@ 43
Sut@@ 43
Temper@@ 43
Thomson 43
Tus@@ 43
Twel@@ 43
Twins 43
UMP 43
VN 43
VW 43
Variety 43
Vau@@ 43
Ya 43
Yok@@ 43
Zi@@ 43
abuse 43
adj@@ 43
ahan 43
analy@@ 43
anom@@ 43
antha 43
apar@@ 43
aver@@ 43
bloc@@ 43
borne 43
bute 43
chus 43
cic@@ 43
concept 43
concert 43
craft 43
dess 43
dic 43
dies 43
disc 43
dition 43
ead 43
ectiv@@ 43
elt 43
enidae 43
enko 43
etine 43
exchange 43
excit@@ 43
found 43
hii 43
infin@@ 43
inst@@ 43
ique 43
iter@@ 43
ives 43
kind 43
lap 43
lard 43
lier 43
loss 43
male 43
noise 43
ocarp@@ 43
ocarpa 43
olig@@ 43
opp@@ 43
oun 43
protocol 43
required 43
rev@@ 43
ries 43
ror@@ 43
rum 43
shin 43
switch 43
symp@@ 43
tress 43
uda 43
ular@@ 43
until 43
versi@@ 43
wara 43
well@@ 43
zon@@ 43
อาวาส 43
ຳ@@ 43
ပ@@ 43
ះ@@ 43
ố 43
す@@ 43
仮@@ 43
嘉@@ 43
多@@ 43
宇@@ 43
里@@ 43
1054 42
1099 42
1155 42
1211 42
1217 42
1226 42
1261 42
1324 42
1356 42
1369 42
1474 42
1591 42
1679 42
1686 42
1723 42
1737 42
442 42
50.@@ 42
521 42
537 42
547 42
562 42
595 42
647 42
675 42
708 42
771 42
78.@@ 42
823 42
825 42
998 42
AA@@ 42
Actin@@ 42
Adult 42
Autonomous 42
BTS 42
Bhar@@ 42
Boul@@ 42
Bu 42
Bush 42
Cay@@ 42
Chim@@ 42
Connection 42
Craig 42
Cron@@ 42
DM@@ 42
Darkness 42
Definition 42
Distribution 42
Eclipse 42
En 42
Extra 42
Fellowship 42
Form@@ 42
Formula 42
Fos@@ 42
Georges 42
Gib@@ 42
Glenn 42
Grade 42
Harmony 42
Helic@@ 42
Hip 42
Hold 42
IQ 42
Industries 42
Ivan@@ 42
Lang 42
Lom@@ 42
Lords 42
Lup@@ 42
MAC 42
MIN@@ 42
Mann@@ 42
Marshall 42
Maur@@ 42
Mental 42
NA@@ 42
NES 42
Nah@@ 42
Nih@@ 42
Oh@@ 42
Omega 42
Pepsi 42
Per 42
Phar@@ 42
Pist@@ 42
Rescue 42
Resur@@ 42
Sad 42
Salv@@ 42
Sau@@ 42
Sisters 42
Sting 42
Sug@@ 42
Than 42
VIP 42
Velvet 42
Wen@@ 42
Wer@@ 42
Won 42
Yan@@ 42
Your@@ 42
acks 42
aining 42
alan 42
aland 42
alin 42
alle@@ 42
ange@@ 42
approach 42
asp@@ 42
assy 42
ata@@ 42
bay@@ 42
cephalus 42
chil@@ 42
chilus 42
cili@@ 42
cit@@ 42
clinical 42
controlled 42
cot 42
cum@@ 42
door 42
elin 42
emis@@ 42
ensor 42
eux 42
feld 42
fin 42
gem@@ 42
gio 42
global 42
guan@@ 42
heur@@ 42
hier@@ 42
iche 42
ilion 42
illing 42
imoto 42
insky 42
insular 42
ires 42
king@@ 42
lif@@ 42
magne@@ 42
material 42
mem@@ 42
mentation 42
metry 42
nchron@@ 42
neck 42
nin 42
och 42
ocr@@ 42
olepis 42
onds 42
ordinary 42
orientalis 42
outer 42
phora 42
phyllum 42
placement 42
popular 42
prime 42
quist 42
release 42
rey 42
rio 42
rup@@ 42
sel 42
sources 42
suc@@ 42
suka 42
sz@@ 42
tigen 42
treatment 42
uno 42
variable 42
withdrawal 42
woman 42
yas@@ 42
yeon 42
ylon 42
Ø 42
ดิตถ์ 42
มาด@@ 42
สนับ@@ 42
ใ 42
ไ 42
∞ 42
≠ 42
め@@ 42
华@@ 42
合@@ 42
特@@ 42
知@@ 42
立@@ 42
郭@@ 42
鄭@@ 42
間@@ 42
릉@@ 42
07@@ 41
1014 41
1085 41
1184 41
1212 41
1216 41
1303 41
1315 41
1352 41
1405 41
1431 41
1445 41
1446 41
1732 41
393 41
428 41
468 41
482 41
495 41
519 41
531 41
538 41
585 41
613 41
637 41
755 41
793 41
866 41
871 41
887 41
895 41
947 41
972 41
AW 41
Abstr@@ 41
Adri@@ 41
Aircraft 41
Aloe 41
Antoine 41
Anton@@ 41
Arist@@ 41
Aster@@ 41
Bov@@ 41
Broadcast 41
Cerat@@ 41
Comes 41
Corp 41
Critical 41
Daddy 41
Daw@@ 41
Dollar 41
Drake 41
Ellen 41
Everybody 41
Fast@@ 41
Fav@@ 41
Fear 41
Fellow 41
GMT 41
Game@@ 41
Geo@@ 41
Geographic 41
German@@ 41
Guardi@@ 41
Hag@@ 41
Hannah 41
Helen 41
Historical 41
Holly 41
ICC 41
Initi@@ 41
Isabella 41
January 41
Kara 41
Khal@@ 41
Kou@@ 41
LLC 41
LTE 41
Lal@@ 41
Leader 41
Let@@ 41
Lines 41
Lis@@ 41
Liz@@ 41
Malcolm 41
Mama 41
Mart 41
Med 41
Milk 41
Millennium 41
Ming 41
Mu 41
Murray 41
Muz@@ 41
NCAA 41
News@@ 41
Ninja 41
Ow@@ 41
Philippines 41
Pi 41
Pope 41
Progressive 41
Qing 41
Rav@@ 41
Reich@@ 41
Reserve 41
Rifle 41
Rod 41
Ronald 41
Santiago 41
Se 41
Separ@@ 41
Sevent@@ 41
Sit@@ 41
Spike 41
Spin 41
Stan@@ 41
TI 41
Tad@@ 41
Tin 41
Tina 41
VV@@ 41
Vill@@ 41
Vor@@ 41
Wii 41
Wings 41
Wis@@ 41
Wo 41
Wright 41
Xia@@ 41
Zhu 41
abil@@ 41
acon@@ 41
acus 41
adaptation 41
alkal@@ 41
anne 41
apped 41
arding 41
atives 41
awn 41
bing 41
brom@@ 41
capit@@ 41
char 41
chu@@ 41
circum@@ 41
cium 41
component 41
cord@@ 41
council 41
cultural 41
curve 41
cus@@ 41
dat@@ 41
determin@@ 41
differenti@@ 41
director 41
diz@@ 41
domin@@ 41
eil 41
elements 41
ern 41
experiment 41
fold 41
half@@ 41
hir 41
hp 41
hwa 41
hy 41
ication 41
iki@@ 41
iliz@@ 41
ina@@ 41
iner 41
inge 41
itsu 41
kill 41
knowledge 41
kur@@ 41
lary 41
laws 41
ld 41
least 41
leman 41
length 41
leo 41
ligh@@ 41
mart 41
mation 41
mont 41
null 41
omys 41
oniaceae 41
ore@@ 41
oru 41
osi@@ 41
oti@@ 41
ovi@@ 41
ozo@@ 41
ped 41
phant 41
physical 41
plug@@ 41
pm 41
radiation 41
ros 41
silver 41
sm 41
stag@@ 41
states 41
sty@@ 41
summer 41
sup@@ 41
support 41
sut@@ 41
tified 41
together 41
trix 41
uncul@@ 41
voltage 41
wil@@ 41
work@@ 41
σ@@ 41
ลฯ 41
ហ@@ 41
⊙ 41
ツ@@ 41
ベ@@ 41
全@@ 41
動@@ 41
衛@@ 41
隆@@ 41
다@@ 41
1156 40
1186 40
1218 40
1229 40
1242 40
1264 40
1313 40
1326 40
1355 40
1378 40
1396 40
1413 40
1457 40
1675 40
1692 40
1716 40
1717 40
1725 40
1729 40
409 40
462 40
472 40
496 40
517 40
544 40
548 40
609 40
629 40
683 40
684 40
719 40
721 40
732 40
735 40
776 40
795 40
809 40
812 40
858 40
865 40
902 40
919 40
92.@@ 40
923 40
986 40
99,@@ 40
APA 40
Abraham 40
Animals 40
Architects 40
Auto@@ 40
Behind 40
Bob@@ 40
Bon 40
Broadway 40
Bron@@ 40
Camera 40
Canis 40
Ce@@ 40
Chen@@ 40
Chr@@ 40
Chun 40
Cinemat@@ 40
Cla@@ 40
Colin 40
Colis@@ 40
Colony 40
Cu 40
Cycl@@ 40
Dok@@ 40
Dong 40
ESA 40
Econom@@ 40
Edwin 40
Essenti@@ 40
Et@@ 40
Ethn@@ 40
Fon@@ 40
Fourth 40
Front@@ 40
Honor@@ 40
Houston 40
IST@@ 40
Jag@@ 40
Jang 40
Jon@@ 40
Kang@@ 40
Kath@@ 40
Kl@@ 40
LT@@ 40
Libre 40
Maker 40
Math@@ 40
Minute 40
Ms 40
NAT@@ 40
Nad@@ 40
Nancy 40
Ne 40
Nob@@ 40
Nyc@@ 40
Peak 40
Philippine 40
Pix@@ 40
Planning 40
Port@@ 40
Prin@@ 40
Priv@@ 40
Rosa 40
Siege 40
Ski@@ 40
Spot 40
Strait 40
Suk@@ 40
Toy 40
Va@@ 40
Venice 40
Vice 40
Vista 40
Warren 40
Writing 40
XXX 40
aar 40
absolute 40
acs 40
adis 40
aggio 40
aler 40
alled 40
aller@@ 40
alth 40
althcare 40
amph@@ 40
ancing 40
apor@@ 40
asian 40
bium 40
borough 40
bro 40
business 40
camp 40
cis 40
connected 40
contact 40
dent@@ 40
did 40
dose 40
ds@@ 40
eleph@@ 40
eles 40
endron 40
erie 40
eur 40
evol@@ 40
example 40
fare 40
films 40
former 40
fri@@ 40
glo@@ 40
gr 40
grav@@ 40
grey 40
gris 40
hee 40
height 40
hl 40
hon 40
how 40
hyun 40
ib 40
icked 40
iled 40
illed 40
inter 40
kho@@ 40
lay 40
magn@@ 40
maid 40
map@@ 40
mobile 40
northeastern 40
ograph 40
ograph@@ 40
ophilus 40
orn@@ 40
otes 40
outh 40
ovsky 40
population 40
prov@@ 40
quez 40
ren 40
ried 40
rocket 40
rod 40
scre@@ 40
sible 40
solar 40
stor@@ 40
storage 40
stric@@ 40
substance 40
sur 40
synchron@@ 40
tag 40
toler@@ 40
transmission 40
ues 40
universal 40
vertebr@@ 40
vol 40
water@@ 40
website 40
wen 40
wn@@ 40
yar 40
Ç 40
ë@@ 40
Δ@@ 40
Ω 40
р@@ 40
य@@ 40
รวจ 40
ลัพธ์ 40
ធ@@ 40
♣ 40
け@@ 40
ル 40
前@@ 40
条@@ 40
歌@@ 40
死@@ 40
相@@ 40
起@@ 40
郡@@ 40
雲@@ 40
도@@ 40
라@@ 40
민@@ 40
1153 39
1206 39
1208 39
1209 39
1243 39
1253 39
1296 39
1361 39
1462 39
1465 39
1744 39
192@@ 39
198@@ 39
31,@@ 39
41.@@ 39
413 39
439 39
446 39
518 39
53.@@ 39
603 39
644 39
656 39
657 39
693 39
931 39
958 39
959 39
968 39
993 39
Acu@@ 39
Aid 39
Ait@@ 39
Alc@@ 39
Amateur 39
Asp@@ 39
Baptist 39
Bavaria 39
Bluetooth 39
Boat 39
Breaking 39
Bright 39
Cali@@ 39
Cameron 39
Cargo 39
Ces@@ 39
Cet@@ 39
Chung 39
Cola 39
Confes@@ 39
Constantine 39
Cox 39
Cyan@@ 39
Dee 39
Donn@@ 39
Dram@@ 39
Driver 39
FP 39
FX 39
February 39
Fernando 39
Gram@@ 39
Hist@@ 39
IG 39
IJ@@ 39
Id@@ 39
Intel@@ 39
Israel 39
Jose@@ 39
KM 39
Lai 39
Lam 39
Lights 39
Liverpool 39
MG@@ 39
Marqu@@ 39
Michigan 39
Miguel 39
Mt 39
Murder 39
Nanj@@ 39
Native 39
Neville 39
Non 39
Operations 39
PG@@ 39
Pho@@ 39
Pis@@ 39
Poland 39
Put@@ 39
QU@@ 39
Qi 39
RF@@ 39
SG@@ 39
Self 39
Senate 39
Shal@@ 39
Shig@@ 39
Smil@@ 39
Sof@@ 39
Spencer 39
Sweden 39
Ta 39
Triangle 39
Vin@@ 39
Ward 39
Well 39
Wy@@ 39
Xavier 39
alisation 39
app 39
arom@@ 39
ask@@ 39
atten@@ 39
atu 39
auer 39
awi 39
burn 39
cath@@ 39
commun@@ 39
cos 39
cule 39
dar 39
dez 39
eg 39
emma 39
essor 39
fan 39
four@@ 39
fuel 39
gan 39
gon 39
icket 39
independent 39
ions 39
iton 39
jan@@ 39
kup 39
lot@@ 39
maker 39
marker 39
mature 39
maxim@@ 39
mese 39
omorph@@ 39
omum 39
osaur@@ 39
owski 39
palli@@ 39
param@@ 39
peace 39
pit 39
pol 39
present 39
rad 39
rapid 39
resist@@ 39
respirat@@ 39
rit 39
screen 39
simple 39
soph@@ 39
sten 39
talk 39
tat 39
tax@@ 39
transcription 39
tri 39
tries 39
trom@@ 39
tum@@ 39
ushima 39
ving 39
visible 39
voc@@ 39
warf 39
week 39
western 39
yt@@ 39
zer@@ 39
ğ 39
̍ 39
λ@@ 39
ב@@ 39
بن 39
स@@ 39
นิตย@@ 39
มนุ@@ 39
็กซิ@@ 39
ច@@ 39
ោ@@ 39
ំ@@ 39
‹ 39
せ@@ 39
ヒ@@ 39
仲@@ 39
將軍@@ 39
恭@@ 39
沙@@ 39
社@@ 39
虎@@ 39
고@@ 39
기@@ 39
선@@ 39
제@@ 39
1015 38
1115 38
1222 38
1224 38
1247 38
1263 38
1269 38
1287 38
1294 38
1295 38
1377 38
1426 38
1433 38
1434 38
1444 38
1467 38
1507 38
1668 38
1733 38
1749 38
40.@@ 38
41,@@ 38
438 38
558 38
62.@@ 38
765 38
772 38
897 38
934 38
966 38
977 38
982 38
AVN 38
Absol@@ 38
Ah 38
Amsterdam 38
Anh@@ 38
Avi@@ 38
BAS@@ 38
Bears 38
Bill@@ 38
Billie 38
Border 38
Bour@@ 38
Bundes@@ 38
CU@@ 38
Caesar 38
Campbell 38
Carr@@ 38
Cha 38
Chem@@ 38
Comple@@ 38
Dau@@ 38
Democ@@ 38
Dul@@ 38
Dyn@@ 38
Ein@@ 38
Encyclopedia 38
Estate 38
FT@@ 38
Fix@@ 38
Gard@@ 38
Gek@@ 38
Gene@@ 38
Guar@@ 38
Hands 38
Hardy 38
Historic 38
Hole 38
Horizon 38
Hou@@ 38
Hurricane 38
III@@ 38
IK@@ 38
Instrum@@ 38
Jab@@ 38
Jamie 38
Jewish 38
Joh@@ 38
Kay@@ 38
Kre@@ 38
Label 38
Labor 38
Lifetime 38
Lig@@ 38
Lil@@ 38
Mae 38
Mani@@ 38
Marx@@ 38
Mod 38
Models 38
Monday 38
Nexus 38
Nicol@@ 38
Nicole 38
Nish@@ 38
Och@@ 38
Orb@@ 38
Paran@@ 38
Past 38
Peninsula 38
Perf@@ 38
Plate 38
Poec@@ 38
Poor 38
Princi@@ 38
Problem 38
Raja 38
Raz@@ 38
Reich 38
Relations 38
Santos 38
Schools 38
Scot@@ 38
Senior 38
Simul@@ 38
Soccer 38
Some 38
Spor@@ 38
Sullivan 38
TU 38
Technologies 38
Their 38
Title 38
Tot@@ 38
Tou@@ 38
Trag@@ 38
Tu 38
UCLA 38
Voyage 38
Wat 38
What@@ 38
Wiki 38
Yuri 38
Za@@ 38
` 38
acle 38
acr@@ 38
amar@@ 38
ange 38
areas 38
atan 38
ater@@ 38
atomic 38
bed 38
bora 38
cade 38
camp@@ 38
chant 38
coin 38
coronavirus 38
count@@ 38
cra@@ 38
critical 38
dine 38
dost@@ 38
dream 38
ecus 38
eka 38
emi 38
enburg 38
enna 38
ennial 38
este 38
fem@@ 38
fen@@ 38
flat 38
flux 38
forcement 38
fron@@ 38
gap 38
gh 38
gian 38
given 38
greater 38
hed@@ 38
horizontal 38
ife 38
imus 38
ineer 38
influ@@ 38
inside 38
intestinal 38
label 38
lec@@ 38
liquid 38
magazine 38
mare 38
mata 38
mechan@@ 38
mini 38
nature 38
novel 38
ocolate 38
ogo 38
oj@@ 38
oker 38
oms 38
oso 38
paras@@ 38
pas 38
pen 38
peti@@ 38
phon 38
pio 38
plo@@ 38
protection 38
province 38
punc@@ 38
reduction 38
refl@@ 38
rei 38
relative 38
royal 38
solo 38
stan@@ 38
stick 38
tec@@ 38
thin 38
thing 38
thro@@ 38
tible 38
uch 38
uga 38
ulum 38
va@@ 38
vation 38
within 38
worm 38
xes 38
xima 38
yar@@ 38
yline 38
İ 38
ʻ 38
ρ@@ 38
ลัพ@@ 38
ូ@@ 38
ḥ 38
ネ@@ 38
ペ@@ 38
ヤ@@ 38
使@@ 38
場@@ 38
夢@@ 38
寧@@ 38
府@@ 38
度@@ 38
殿@@ 38
玄@@ 38
界@@ 38
胡@@ 38
興@@ 38
貞@@ 38
超@@ 38
龙@@ 38
영@@ 38
 38
1025 37
1030 37
1182 37
1238 37
1347 37
1373 37
1458 37
1466 37
1528 37
1577 37
1586 37
1677 37
1691 37
1731 37
187@@ 37
383 37
436 37
463 37
51.@@ 37
722 37
764 37
782 37
872 37
893 37
Acts 37
Ail@@ 37
Americans 37
Angu@@ 37
Art@@ 37
Athletic 37
Austrian 37
Bee 37
Beyon@@ 37
Bloom 37
Bourbon 37
Brom@@ 37
Buffalo 37
Butter@@ 37
Carnival 37
Chaet@@ 37
Charts 37
Comput@@ 37
Cran@@ 37
Cum@@ 37
Duck 37
EB 37
Est 37
Fields 37
Fif@@ 37
Fleet 37
Florence 37
Flow 37
GPU 37
Greece 37
Greg@@ 37
Gustav 37
Gymn@@ 37
Gymnasium 37
Harbor 37
Harris 37
Has 37
Henn@@ 37
Internationale 37
Jacob@@ 37
Jans@@ 37
Jedi 37
Job 37
Josef 37
Jung@@ 37
Koh@@ 37
Ling@@ 37
Manif@@ 37
Marcus 37
Mariah 37
Mass@@ 37
Mitchell 37
Morrison 37
Mouse 37
Never@@ 37
Nobel 37
Noc@@ 37
Pant@@ 37
Pupp@@ 37
RR 37
Reader 37
Resistance 37
Ron@@ 37
SOS 37
Sacred 37
Sand 37
Sant 37
Scol@@ 37
Sham@@ 37
Solar 37
Spice 37
Steam 37
Stra@@ 37
Superior 37
Swift 37
Tan 37
Telec@@ 37
Tex@@ 37
Tong 37
Trail 37
Trou@@ 37
Ves@@ 37
WI 37
Wrest@@ 37
Wyatt 37
Yamaha 37
Yun@@ 37
Zen 37
aber 37
actyla 37
acumin@@ 37
aena 37
aff 37
aking 37
alba 37
allo 37
alphabet 37
anol 37
aret 37
asha 37
assen 37
astrum 37
asu 37
azz@@ 37
bell 37
blu@@ 37
calcium 37
cari@@ 37
carry 37
cel 37
charge 37
chir@@ 37
circle 37
classification 37
cold 37
continuous 37
definition 37
device 37
dict 37
dii 37
domes@@ 37
dra 37
echn@@ 37
eder 37
effects 37
ego 37
eir@@ 37
eler 37
els@@ 37
elt@@ 37
embr@@ 37
emotional 37
enic 37
erc@@ 37
erian 37
eries 37
ethyl@@ 37
ets@@ 37
evich 37
false 37
fighter 37
flight 37
garden 37
happy 37
hibition 37
hill 37
hoc 37
ided 37
inata 37
interest 37
intermediate 37
isco 37
itic 37
jar@@ 37
jur@@ 37
lida 37
mam@@ 37
mechanics 37
mill@@ 37
minister 37
movie 37
nan@@ 37
neum@@ 37
nov@@ 37
obe 37
ophorus 37
oton@@ 37
pack 37
pandemic 37
phere 37
planet 37
potenti@@ 37
pression@@ 37
proteins 37
record 37
recur@@ 37
rpm 37
salt 37
scher@@ 37
secret 37
session 37
sibility 37
ss 37
storm 37
sugar 37
synthesis 37
tad@@ 37
tec 37
technology 37
terus 37
toph@@ 37
topo@@ 37
torate 37
trade 37
uca 37
urt 37
vid@@ 37
want 37
wear 37
zation 37
zen@@ 37
zia 37
ǐ@@ 37
ǔ@@ 37
ј@@ 37
》@@ 37
ひ@@ 37
む@@ 37
や@@ 37
ェ@@ 37
佛@@ 37
力@@ 37
臣@@ 37
葉@@ 37
阳@@ 37
雄@@ 37
문@@ 37
세@@ 37
우@@ 37
08@@ 36
1060 36
1071 36
110@@ 36
1111 36
1164 36
1196 36
1244 36
1286 36
1289 36
1362 36
1375 36
1395 36
1417 36
1452 36
1548 36
1695 36
42,@@ 36
459 36
464 36
52.@@ 36
556 36
597 36
619 36
687 36
69,@@ 36
743 36
744 36
746 36
748 36
76,@@ 36
781 36
785 36
828 36
853 36
873 36
927 36
937 36
94.@@ 36
953 36
991 36
After@@ 36
Ahmad 36
Allo@@ 36
Apocalyp@@ 36
Ark 36
Arrow 36
Baptiste 36
Berg@@ 36
Between 36
Beverly 36
Biot@@ 36
Bond 36
Burn 36
CGI 36
Cardi@@ 36
Carmen 36
Cau@@ 36
Clarke 36
Cler@@ 36
Cobra 36
Compan@@ 36
Concer@@ 36
Costa 36
DV 36
Dest@@ 36
Dob@@ 36
Dung@@ 36
Dz@@ 36
EI 36
Echo 36
FR@@ 36
Falls 36
Fermi 36
Fit@@ 36
Fly@@ 36
Foot@@ 36
Frontier 36
Gaz@@ 36
Ge 36
Gerard 36
Gong 36
Haj@@ 36
Hat 36
Hospit@@ 36
Hymen@@ 36
Inc@@ 36
Insurance 36
Investigation 36
Iron@@ 36
JK 36
Jal@@ 36
Jos@@ 36
Jum@@ 36
LL@@ 36
Lead 36
Leadership 36
Lightning 36
Luigi 36
Macau 36
Madame 36
Mathematical 36
Mathematics 36
Munich 36
Murphy 36
NL 36
Near 36
Neigh@@ 36
Networks 36
Nev@@ 36
Nikolai 36
Oral 36
Organisation 36
Orleans 36
PGA 36
Parado@@ 36
Paral@@ 36
Patricia 36
Players 36
Pris@@ 36
Quad@@ 36
Reed 36
Resources 36
Revival 36
Savoy 36
Seo 36
Sever@@ 36
Sherlock 36
Site 36
Solomon 36
Sophie 36
Spot@@ 36
Status 36
Stream 36
Synchron@@ 36
Territory 36
Trap@@ 36
Troy 36
Ts@@ 36
Twitter 36
UFO 36
Vac@@ 36
Von 36
WB@@ 36
Will@@ 36
acting 36
actus 36
acty@@ 36
acu@@ 36
add 36
ael 36
amer 36
amy 36
aning 36
anj@@ 36
anning 36
anos 36
arc 36
asius 36
athus 36
bacteri@@ 36
bacteria 36
bius 36
bottom 36
cens@@ 36
climate 36
diidae 36
dou 36
eat 36
eback 36
efficient 36
ehr 36
eko 36
electrom@@ 36
ellia 36
epis@@ 36
equilibri@@ 36
estic 36
ever@@ 36
fan@@ 36
formed 36
gg@@ 36
harmon@@ 36
hart 36
ican 36
idence 36
idential 36
ifolia 36
inver@@ 36
ism@@ 36
isto 36
kil@@ 36
lee 36
liver 36
lov@@ 36
lyc@@ 36
making 36
marketing 36
max@@ 36
mie 36
modul@@ 36
mond 36
nigra 36
nil@@ 36
noon 36
nt 36
oci@@ 36
ogn@@ 36
oner 36
onius 36
opteryx 36
osoma 36
oss 36
otte 36
otyp@@ 36
ovo 36
oz 36
pal 36
partment 36
passive 36
pend@@ 36
phy 36
pid@@ 36
pium 36
pler 36
received 36
recognition 36
register 36
rein@@ 36
report 36
rium 36
round@@ 36
row@@ 36
sole 36
sports 36
substanti@@ 36
sule 36
swit@@ 36
temperature 36
testing 36
theme 36
thermal 36
tul@@ 36
tv@@ 36
ulaceae 36
ulo 36
vacc@@ 36
vert 36
vier 36
vival 36
void 36
vow@@ 36
wire 36
ydr@@ 36
yellow 36
yes 36
ynam@@ 36
zar@@ 36
zero 36
Ā 36
ע@@ 36
ผลัก@@ 36
လ@@ 36
ầ 36
█@@ 36
ど@@ 36
劇@@ 36
县@@ 36
廣@@ 36
志@@ 36
村@@ 36
洋@@ 36
紅@@ 36
車@@ 36
通@@ 36
阿@@ 36
상@@ 36
하@@ 36
1122 35
1179 35
1205 35
1251 35
1265 35
1301 35
1310 35
1311 35
1312 35
1316 35
1338 35
1404 35
1423 35
1441 35
1676 35
1734 35
1741 35
186@@ 35
466 35
469 35
552 35
563 35
572 35
589 35
594 35
608 35
686 35
688 35
692 35
80,@@ 35
813 35
90,@@ 35
901 35
946 35
963 35
AOL 35
Adi@@ 35
Anthro@@ 35
Biology 35
Blood@@ 35
Bradley 35
Bride 35
CIS 35
Champ 35
Chat@@ 35
Chuck 35
Citi@@ 35
Clan@@ 35
Cob@@ 35
Cook 35
Corpus 35
Credit 35
Cruise 35
Dae@@ 35
Death@@ 35
Dion 35
EMA 35
Eden 35
Edmund 35
Edwards 35
Ensemble 35
Erik 35
Europa 35
Ex 35
External 35
FD@@ 35
FRE@@ 35
Fate 35
Flair 35
Guerrero 35
Gw@@ 35
HTC 35
Habsburg 35
Hau@@ 35
Hudson 35
ISU 35
IU 35
Ibn 35
Islam 35
JC 35
Jus@@ 35
Labs 35
Lamp@@ 35
Mark@@ 35
Messenger 35
Micro 35
Minnesota 35
Missouri 35
Nana 35
Nationale 35
[...]
