, 4589530
. 4074418
του 2813581
και 2709934
της 1997985
το 1903880
&quot; 1466922
την 1365039
από 1249766
με 1121862
ο 983558
η 951489
) 949684
( 945028
να 900511
τον 857100
που 781317
των 765996
στην 719828
σε 706663
για 692613
στο 681340
τη 605559
είναι 594120
τα 577393
Η 514541
τους 489841
οι 477376
Το 462653
Ο 444628
@-@ 442241
ήταν 397239
στη 371515
ως 349992
τις 333910
ή 308637
: 296761
στις 269833
ένα 262902
ότι 236466
μια 232556
στον 231927
« 218447
» 217092
στα 214284
δεν 198521
Οι 186392
΄ 173941
είχε 163340
ών 158193
κατά 154614
έχει 153757
αλλά 145965
Σ@@ 140671
ενώ 136856
ική 136254
ικό 135293
ος 134377
οποία 132932
ία 132527
ων 131253
θα 129773
όπως 128375
ου 127506
δύο 127389
&apos; 126918
- 122926
αν@@ 119332
ες 119068
ό 117474
μετά 114944
ίας 109656
ής 109245
επίσης 108578
ά 108565
ικά 108387
όπου 104071
ικής 103566
α 103519
ους 103253
ές 103236
/ 103096
σ@@ 101400
Π@@ 101300
Τα 98834
ικές 96644
τ@@ 96528
ι 96111
ός 95777
Κ@@ 95536
όταν 95411
Τ@@ 94880
μία 94739
φ@@ 94014
ι@@ 93799
εν@@ 93608
χ@@ 93142
ης 92996
καθώς 92708
ικού 92358
προ@@ 92078
β@@ 91397
οποίο 91206
αν 90293
απο@@ 90201
ο@@ 88746
Μ@@ 88412
Α@@ 87164
στους 86135
ικών 85067
Α 84738
π@@ 84687
μέχρι 84367
δι@@ 84233
μεταξύ 83846
ν@@ 83677
ού 83496
Λ@@ 82552
ά@@ 82064
Ν@@ 81694
μ@@ 81587
αυτό 80479
Β@@ 80031
έγινε 79536
έχουν 78737
χρόνια 77701
κ@@ 77444
Ρ@@ 76827
πρώτη 76314
εκ@@ 75937
2 75024
πιο 74705
τ 74675
προς 74454
Β 74006
α@@ 73772
δ@@ 73603
γ@@ 73268
Στις 72715
εξ@@ 72195
γκ@@ 72172
; 71912
ας 71493
1 71386
περιοχή 70631
πόλη 70479
μπορεί 69834
Φ@@ 69643
θέση 69378
ζ@@ 69243
αυτή 68949
υπο@@ 68858
Χ@@ 68754
μπ@@ 68717
ε@@ 67965
ου@@ 67765
ομάδα 67183
ίου 66590
θ@@ 66453
ε 66419
ί@@ 66156
διάρκεια 65588
λ@@ 65498
αρ@@ 65404
ς 65294
ό@@ 65185
αιώνα 64316
έ@@ 63314
Δ@@ 63309
ιν@@ 63035
ένας 63025
ρι@@ 62753
αντι@@ 62707
στ@@ 62628
ρο@@ 62285
Ο@@ 61584
λι@@ 61325
οποίος 61287
Μπ@@ 60718
Από 60696
απ@@ 60381
Ι@@ 59689
ικός 59269
αλ@@ 59186
ει 59158
&amp; 59007
Ε@@ 58900
3 58831
Στην 57737
ούς 57656
είχαν 57275
% 57174
ί 57105
συν@@ 56880
– 56709
περίοδο 56113
έναν 55784
ω@@ 55726
ικ@@ 55703
μέρος 55643
μόνο 55402
ενός 55265
πολύ 54792
άν@@ 54615
κ 54545
τι@@ 54479
επι@@ 54239
μαζί 53989
Μετά 53880
Γ@@ 53735
έως 53514
ακ@@ 53386
κατα@@ 53376
ανα@@ 53149
ν 53058
Με 52943
τσ@@ 52836
τική 52751
παρ@@ 52144
επ@@ 51786
υ@@ 51595
ίες 51127
η@@ 51003
περίπου 50924
βρίσκεται 50765
τα@@ 50765
κα@@ 50719
ρ@@ 50571
έν@@ 50474
ού@@ 50449
όμως 50434
4 50360
ρ 50292
τικό 50194
ή@@ 50038
ουν 49700
οί 49359
σαν 49270
ισ@@ 49165
ύ@@ 49067
ια 48209
ον@@ 48029
μα 47871
όνομα 47310
βι@@ 47265
αργότερα 47169
Ζ@@ 47134
Στο 47014
τότε 46858
ερ@@ 46755
το@@ 46681
κάθε 46398
Κατά 46261
λ 45529
ατ@@ 45338
μέσα 45206
ίων 45201
σι@@ 45045
εία 44923
αγ@@ 44777
σκ@@ 44738
φορά 44719
προσ@@ 44364
τος 44196
&#93; 44168
ση 43885
ώ@@ 43612
&#91; 43581
Τον 42999
Είναι 42991
Σε 42720
πρώτο 42545
μ 42370
5 42300
σης 42265
ευ@@ 42184
Γκ@@ 42087
άρ@@ 41978
λόγω 41870
τικά 41745
πως 41657
ίδια 41626
πριν 41130
ει@@ 40909
υπό 40854
Ά@@ 40798
ταινία 40792
ρα@@ 40749
κυρίως 40709
Την 40328
ον 40223
ομ@@ 40186
μη 40160
περι@@ 40106
συνέχεια 39890
τες 39743
ξ@@ 39436
εν 39411
ασ@@ 39359
κλ@@ 39201
ορ@@ 39187
ήθηκε 39182
σειρά 39023
Για 38565
πάνω 38375
Αν@@ 38372
πλ@@ 38359
άς 38149
μετα@@ 37971
μένη 37927
ελ@@ 37893
ήσει 37829
έργο 37768
τρ@@ 37345
ρί@@ 37226
όν@@ 37113
10 37062
ετών 36889
Ελλάδα 36776
Στη 36319
αι@@ 36263
ησε 36232
φορές 36099
2011 36074
χωριό 35736
Ήταν 35703
δια@@ 35636
6 35574
έ 35445
ολ@@ 35342
τά@@ 35307
ικούς 35219
σήμερα 35175
ηση 35144
να@@ 34965
τικής 34826
χωρίς 34800
Έ@@ 34641
υπ@@ 34304
ρά@@ 34296
τού 34209
ονται 33978
ούν 33933
αυτά 33584
μιας 33557
ψ@@ 33549
πι@@ 33487
Δι@@ 33473
ισμό 33317
τικών 33262
ίσ@@ 33153
Γ 33098
ίδιο 32993
ίν@@ 32978
ιο 32701
ρα 32654
σύμφωνα 32641
Τζ@@ 32586
ώντας 32530
Επίσης 32512
μέσω 32471
τι 32369
λε@@ 32347
Σύμφωνα 32317
μεγάλη 32315
μένο 32287
αφ@@ 32247
αποτέλεσμα 32203
εί 32200
ρος 32077
θε@@ 31929
θεί 31876
εται 31844
μέλος 31827
πόλης 31744
είς 31698
εποχή 31665
_ 31621
ομάδες 31513
ιστορία 31470
έτσι 31413
Τσ@@ 31308
πολλές 31248
άν 31231
τικές 31210
γι@@ 31187
τμήμα 31186
όν 30828
όρ@@ 30817
εκλογές 30803
ότητα 30765
στοιχεία 30743
όλα 30538
έλαβε 30414
τζ@@ 30275
έκανε 30252
μα@@ 30155
τρεις 30134
άλλα 30079
αμ@@ 30005
αρχές 29943
8 29914
ερ 29883
π.Χ. 29869
ιών 29813
αναφέρεται 29811
ισμού 29768
τέλος 29545
τη@@ 29392
λα@@ 29342
χώρα 29296
12 29203
είας 29166
ρου 29117
μι@@ 29096
Ωστόσο 29082
επί 29071
20 29066
ωση 29045
= 28946
κοντά 28920
έρ@@ 28842
ήσεις 28797
μον@@ 28771
7 28767
έκ@@ 28765
αποτελεί 28757
τίτλο 28685
Προ@@ 28645
πολλά 28615
υλ@@ 28602
Γι@@ 28528
κά@@ 28512
Θ@@ 28466
κι 28455
τόσο 28442
άλλες 28223
οπ@@ 28216
ηλικία 28083
έδρα 28077
ιά 28019
τερ@@ 28002
ξεκίνησε 27962
ώθηκε 27947
γιος 27946
άλ@@ 27844
κο@@ 27582
Καρ@@ 27580
The 27563
ζωή 27384
υπάρχει 27375
θηκαν 27276
είο 27262
οδ@@ 27100
εκ 27031
πρωτάθλημα 26901
οντας 26842
ρε@@ 26809
κόρη 26796
μεγάλο 26755
ικοί 26732
Παρ@@ 26724
εί@@ 26713
2010 26711
π 26680
ούσε 26675
κατοίκους 26668
15 26611
ώστε 26532
ρο 26528
έργα 26522
είται 26472
χρήση 26425
όσο 26424
εισ@@ 26243
ιλ@@ 26216
μέλη 26188
Ιουλίου 26156
τε@@ 26128
Αυγούστου 26075
.@@ 26064
ων@@ 25964
of 25652
Μαρτίου 25622
Εθνική 25603
χρόνο 25603
τικού 25593
οκ@@ 25588
μένα 25522
Ου@@ 25454
αυτές 25426
έλ@@ 25388
αφού 25329
πο@@ 25326
άκ@@ 25317
μάτων 25287
υπάρχουν 25278
Σεπτεμβρίου 25203
ισμός 25175
Οκτωβρίου 25147
βάση 25141
εκτός 25058
ω 25040
ακόμη 25028
formula 24962
’ 24904
Ιουνίου 24864
Στα 24825
οποίες 24812
Μαΐου 24788
γύρω 24753
εγ@@ 24721
περιοχές 24658
Όταν 24636
Ιανουαρίου 24608
Αρ@@ 24571
σύστημα 24488
μέ@@ 24462
ίδα 24455
δεύτερη 24375
ησης 24360
πρέπει 24305
Γου@@ 24246
ήσουν 24151
συχνά 24140
Απριλίου 24132
άσ@@ 24129
ακόμα 24117
σεζόν 24108
Μαρ@@ 24051
τρι@@ 24030
είου 23986
ομάδας 23971
9 23950
καλ@@ 23942
Συν@@ 23805
ήθηκαν 23805
κυβέρνηση 23773
μά@@ 23762
μορφή 23687
αρχικά 23646
Αυτό 23641
Αγίου 23628
νέα 23557
Νοεμβρίου 23505
τελευταία 23460
Ό@@ 23378
εκεί 23361
ρού@@ 23335
Ιστορία 23314
16 23266
ντε 23227
νε@@ 23080
11 23021
Αθήνα 23016
εναντίον 23008
30 23007
οφ@@ 22993
ονομασία 22981
όλη 22971
είτε 22939
Αλ@@ 22900
πρώην 22900
14 22855
2012 22855
όσ@@ 22854
ζ 22825
ησαν 22820
τών 22791
κοινότητα 22748
αγώνες 22593
όχι 22565
τελικά 22520
σχετικά 22506
ογ@@ 22501
γλώσσα 22365
Έχει 22317
δηλαδή 22298
οβ@@ 22238
συνήθως 22238
κέντρο 22222
Δεκεμβρίου 22191
πήρε 22153
2009 22051
υ 22049
βασιλιά 22044
gt 21947
2008 21901
ρόλο 21851
β 21739
2014 21707
εύ@@ 21653
πρώτος 21642
μπορούν 21638
εφ@@ 21622
υπερ@@ 21617
ώσει 21538
18 21534
μέτρα 21533
ότητας 21529
οσ@@ 21516
πλέον 21480
όπ@@ 21410
ϊ@@ 21337
lt 21336
Φεβρουαρίου 21335
κατηγορία 21334
άλλη 21276
2015 21272
άλλων 21259
περ@@ 21243
μένος 21233
13 21214
φ 21163
2013 21145
ειας 21122
μεγαλύτερο 21066
γεννήθηκε 21019
Δ 20987
Ευ@@ 20970
Βιογραφία 20915
αδ@@ 20911
άλμπουμ 20885
φορ@@ 20831
ματος 20787
αγώνα 20779
αχ@@ 20770
αβ@@ 20765
καθ@@ 20726
γίνει 20692
άγ@@ 20667
τον@@ 20590
αρχ@@ 20567
τικός 20567
άρχισε 20565
πρ@@ 20550
ανάμεσα 20517
κυκλοφόρησε 20504
ωσης 20481
γεγονός 20472
του@@ 20470
17 20434
κάτω 20419
παιδιά 20404
Ως 20403
έτος 20394
Πανεπιστήμιο 20385
2007 20336
θη@@ 20321
25 20286
σπ@@ 20261
κέρδισε 20259
μεγαλύτερη 20254
μαν@@ 20193
πρώτα 20163
Αν 20156
δε@@ 20091
2016 20079
de 20074
δεύτερο 20046
πολιτική 20028
ΗΠΑ 20022
ματ@@ 20022
χώρας 20008
γνωστή 19988
χρονιά 19968
τρία 19963
Η@@ 19945
ην@@ 19918
σχεδόν 19868
δεκαετία 19842
ολογία 19839
χω@@ 19719
τέ@@ 19694
υπήρξε 19672
ιστ@@ 19662
όρος 19657
Ελλάδας 19649
βλ@@ 19610
όλες 19591
γνωστό 19585
τέλη 19527
σχέση 19523
ιδιαίτερα 19508
αυ@@ 19505
τά 19454
χώρες 19428
πρό@@ 19420
περιοχής 19404
Έτσι 19401
τς 19400
2006 19390
ουλ@@ 19358
Μά@@ 19330
επειδή 19305
παν@@ 19302
υγ@@ 19285
ουν@@ 19278
κυ@@ 19270
τί@@ 19264
τού@@ 19255
μο 19236
όμ@@ 19204
εια 19116
εσ@@ 19092
0 19052
οποίοι 19050
αζ@@ 19017
ωσε 18997
Κα@@ 18955
σία 18950
the 18942
περισσότερο 18845
ιν 18810
Ανα@@ 18786
ιμ@@ 18755
μου 18740
αντ@@ 18719
θάνατο 18719
19 18701
μερ@@ 18693
Εν@@ 18673
συμμετείχε 18642
τας 18636
ταν@@ 18618
ώνεται 18618
κόσμο 18613
οχ@@ 18608
οποι@@ 18569
ίδιος 18560
τρόπο 18557
2019 18538
Ευρώπη 18509
Υ@@ 18494
-@@ 18489
μάχη 18488
παραγωγή 18488
ηθεί 18487
γίνεται 18471
θούν 18463
με@@ 18426
κάνει 18416
ίσει 18401
πληθυσμό 18367
κα 18357
βά@@ 18331
όλο 18289
Κου@@ 18270
ήματα 18264
εκείνη 18237
αστ@@ 18236
θέ@@ 18228
συ@@ 18223
ωστόσο 18205
ελ 18196
μας 18171
ντ 18153
πολ@@ 18122
πέντε 18114
απογραφή 18103
άζει 18082
Αγ@@ 18078
φιλ@@ 18040
ουσ@@ 18030
ματα 17983
όγ@@ 17966
πατέρα 17962
2017 17903
χρησιμοποιείται 17885
γκ 17785
νέο 17760
όλων 17749
πρόεδρος 17748
2018 17733
γραφ@@ 17719
ούσαν 17695
παράδειγμα 17684
αρκετά 17653
σσ@@ 17651
άτομα 17600
ανά 17600
εμ@@ 17596
πέθανε 17594
οικογένεια 17575
21 17572
πά@@ 17564
λί@@ 17558
Αθηνών 17550
χιλιόμετρα 17534
Γαλλία 17527
Μια 17510
Ε 17476
Κά@@ 17455
2004 17451
θεωρείται 17434
επαν@@ 17401
Ένα 17361
βόρεια 17360
θηκε 17345
αλλ@@ 17305
ιδρύθηκε 17304
2000 17276
Καλ@@ 17248
αριθμός 17244
ώσεις 17230
ούν@@ 17216
μεν@@ 17215
Πρωτάθλημα 17203
ίνη 17196
αυτο@@ 17172
νότια 17156
δυνάμεις 17151
ώ 17143
όλ@@ 17132
ζωής 17083
κιν@@ 17076
πατέρας 17065
επιτυχία 17017
μπο@@ 16991
ημα 16966
οικισμός 16957
δυο 16937
ώνει 16928
βρίσκονται 16911
ίζει 16906
Ντ@@ 16861
χαρ@@ 16861
έα 16836
περιλαμβάνει 16829
εις 16815
ξη 16784
νη 16775
τραγούδι 16748
ώς 16733
22 16715
ις 16715
παρά 16697
ίστηκε 16696
ίδες 16691
έδωσε 16660
αυτός 16649
κατάσταση 16646
λά@@ 16614
σει 16605
λλ@@ 16604
ήματος 16603
s 16600
ποι@@ 16597
ιδ@@ 16590
ήδη 16578
Άν@@ 16561
ούνται 16559
2005 16551
καν@@ 16536
πόλεις 16528
χώρο 16508
καρ@@ 16492
ίζεται 16486
υρ@@ 16468
τερ 16447
Μα@@ 16438
ελληνική 16433
διάστημα 16417
ρέ@@ 16392
σεις 16386
κου@@ 16366
Απο@@ 16359
νομ@@ 16313
24 16306
εργ@@ 16293
έγιναν 16292
κρατ@@ 16286
έπ@@ 16263
ειδ@@ 16259
τή 16251
ρού 16246
μουσική 16241
συμβ@@ 16228
Γεννήθηκε 16219
μένες 16211
μήκος 16205
βα 16198
κας 16173
δε 16153
ασκ@@ 16152
ίνα 16145
τικ@@ 16116
ιστική 16055
τυ@@ 16048
σημείο 16043
αυτού 16034
ριν@@ 16034
αυτών 16012
γεν@@ 16011
γνωστός 15992
τελ@@ 15990
βασιλιάς 15982
ετ@@ 15980
πέ@@ 15968
&#124; 15932
amp 15932
ανάπτυξη 15932
ιος 15924
ανέλαβε 15909
τε 15894
όρο 15883
ρίας 15853
κτ@@ 15849
πίσω 15836
ορι@@ 15796
πολυ@@ 15790
2001 15726
ονομ@@ 15692
Στον 15687
Κλ@@ 15657
ονταν 15632
ντ@@ 15627
αί@@ 15621
άλλους 15586
μυ@@ 15567
οποίων 15559
αυτόν 15557
περιόδου 15556
κάποια 15554
σμ@@ 15517
Αυτή 15516
όκ@@ 15513
εκατομμύρια 15509
23 15503
στα@@ 15483
ιού 15471
εποχής 15469
στο@@ 15466
έκδοση 15433
στική 15400
ηλ@@ 15394
άλλο 15385
χ 15379
άστηκε 15372
Γερμανία 15365
ρω@@ 15360
εντός 15357
βασ@@ 15348
αυτής 15342
ήσεων 15341
είδος 15294
ανακ@@ 15264
επίπεδο 15259
μπορούσε 15249
έφ@@ 15225
διάφορες 15205
κάτι 15186
ικα 15179
όνομά 15177
Αντι@@ 15175
ότερα 15107
πλευρά 15096
άφ@@ 15089
σα 15048
επέστρεψε 15029
τούν 15027
πόλεμο 15024
λη@@ 15003
Δεν 15002
Νέα 14999
ίδας 14998
οι@@ 14990
είδη 14981
δυ@@ 14980
ριο 14977
νησί 14950
αριθμό 14947
σχ@@ 14945
ψηφ@@ 14934
Παν@@ 14925
δεκαετίας 14923
Έλληνας 14914
Λου@@ 14914
μαχ@@ 14894
Βι@@ 14891
τές 14877
εξής 14863
εταιρεία 14857
· 14856
μητέρα 14853
28 14801
αναφέρει 14801
100 14799
οργαν@@ 14796
Γαλλίας 14772
πολέμου 14768
συμμετοχή 14763
Παγκόσμιο 14759
C 14750
βρισκόταν 14740
τής 14734
θέσεις 14731
περισσότερα 14729
μόλις 14717
θ 14709
ώθηκαν 14682
λογ@@ 14672
Μαρία 14665
ουρ@@ 14664
Μον@@ 14631
ιζ@@ 14629
νο@@ 14622
είων 14603
βαρ@@ 14569
άρι 14566
ιρ@@ 14564
χαρακτηριστικά 14554
κάτοικοι 14550
ότ@@ 14546
Ένωση 14544
έβ@@ 14537
ΐ@@ 14527
ονομάζεται 14518
κι@@ 14499
υσ@@ 14491
νι@@ 14477
ταλ@@ 14455
λίγο 14452
Απ@@ 14445
ιστεί 14414
κατασκευή 14338
άμ@@ 14337
χλμ. 14336
δημιουργία 14324
1990 14322
καριέρα 14321
ποτέ 14320
τιμ@@ 14319
ίκ@@ 14312
ωθεί 14307
παρα@@ 14296
Κύπελλο 14292
όμενο 14285
μήνες 14276
ξης 14260
λέ@@ 14247
έξι 14243
τελικό 14239
μένων 14218
! 14191
βιβλίο 14191
ηγ@@ 14176
επόμενη 14170
άρα 14156
ανήκει 14139
τεχν@@ 14136
26 14132
υν@@ 14122
ιερ@@ 14101
παρέμεινε 14098
έν 14083
Ιταλία 14079
2002 14057
Θε@@ 14054
σημαίνει 14040
χωριού 14037
ματική 13996
όπουλος 13964
αμπ@@ 13935
50 13877
Κορ@@ 13867
ότητες 13865
πρωτεύουσα 13838
27 13823
2020 13821
σημαντικό 13817
περίπτωση 13814
βαθμό 13786
ανδρών 13780
Ί@@ 13777
όμενος 13774
μαρ@@ 13762
2003 13749
μο@@ 13723
περισσότερες 13715
άρ 13690
δο@@ 13674
ουμε 13670
αντ 13669
Σου@@ 13660
οικ@@ 13660
Ιωάννης 13653
τό 13648
ωρ@@ 13609
ογραφία 13603
άδα 13594
ών@@ 13578
... 13566
ίν 13555
Ιωάννη 13552
έχοντας 13544
Μπρ@@ 13539
κατασκευ@@ 13538
γαλλικά 13536
αρχή 13513
νίκη 13511
πάλι 13503
άκη 13502
ανά@@ 13491
ητής 13491
τρο@@ 13480
αποτελούν 13476
σκοπό 13414
1999 13389
επαρχία 13354
οποίου 13346
έγραψε 13329
πε@@ 13327
τέσσερις 13312
σώμα 13307
10@@ 13302
τρα 13280
Μακ@@ 13267
Με@@ 13225
τικούς 13176
ίνο 13169
Εξ@@ 13168
φαίνεται 13164
μελ@@ 13130
γιο 13119
ταινίες 13110
φυ@@ 13091
έκταση 13082
τικοί 13080
σημαντική 13053
έγ@@ 13031
Κατ@@ 13019
ρυ@@ 13009
ότερο 12995
ρίου 12974
μικρό 12940
πληθυσμού 12934
επικεφαλής 12928
δύναμη 12891
ιτ@@ 12891
Επι@@ 12871
λο 12869
κατέκτησε 12865
δος 12853
στι@@ 12842
άσει 12839
ίζουν 12839
S@@ 12838
ιάς 12826
επίσημα 12819
όμενη 12810
αυτήν 12808
ιστές 12804
πρόγραμμα 12794
Σι@@ 12773
ρου@@ 12773
έσ@@ 12770
κατάφερε 12760
Εθνικής 12755
μαν 12751
29 12746
1η 12737
ύ 12734
σον 12708
Θεσσαλονίκης 12705
1997 12701
ημ@@ 12699
Έλληνες 12659
ξανά 12643
εκκλησία 12627
ενεργ@@ 12614
επί@@ 12599
αγι@@ 12596
Παρίσι 12594
σύνολο 12581
εξουσία 12578
πρώτες 12575
ξι@@ 12559
μ. 12543
αποτελείται 12527
σημ@@ 12522
οποίηση 12483
διά@@ 12482
γυναίκες 12474
ητή 12457
πα@@ 12455
συνολικά 12437
άζ@@ 12432
διάφορα 12422
οπότε 12393
Πολέμου 12391
μικρή 12390
Μπο@@ 12389
μεγάλες 12361
in 12356
έπειτα 12347
υφ@@ 12343
ψυχ@@ 12322
έλ 12319
δική 12317
Σχολή 12312
αθ@@ 12311
ακή 12300
απέκτησε 12287
γάμο 12284
μην 12283
άκης 12279
χρ@@ 12264
σχέδιο 12253
κολ@@ 12243
απόσταση 12189
έτη 12176
ρον@@ 12164
σκι 12155
συγκρότημα 12150
Νε@@ 12137
έας 12137
σπίτι 12131
κατ@@ 12123
ελλ@@ 12113
διακ@@ 12107
ιδι@@ 12103
κορ@@ 12100
καταστ@@ 12068
ανατολικά 12060
M@@ 12047
άνα 12040
ίδης 12034
παραγωγής 12026
νης 12018
όβ@@ 12017
στικό 12014
αυτούς 12012
ξ 11990
σή 11986
μέτρων 11968
κατά@@ 11954
T@@ 11953
διαφ@@ 11951
εγκ@@ 11947
Φιλ@@ 11945
ίστηκαν 11926
αγωνίστηκε 11924
χος 11918
ωμα 11911
ύν@@ 11904
εθνική 11898
Δημοκρατίας 11896
τρί@@ 11888
οδήγησε 11855
εβ@@ 11853
πληθυσμός 11844
ίλ@@ 11823
εδ@@ 11813
1998 11809
πατ@@ 11804
έφτασε 11801
δυτικά 11792
λερ 11791
προέρχεται 11791
ώματα 11770
αρχαι@@ 11768
χορ@@ 11764
στρατό 11754
ότερη 11750
1991 11725
συγκ@@ 11724
ητές 11707
προκειμένου 11706
κοινό 11695
1980 11687
άκι 11670
ναν 11648
Επ@@ 11643
σίας 11629
σφ@@ 11622
στά@@ 11612
γαλ@@ 11608
ιου 11604
and 11600
Δημοκρατία 11590
υπήρχε 11584
Πόλεμο 11573
Παπ@@ 11563
Δήμου 11554
υψόμετρο 11532
στιγμή 11516
Βασίλειο 11506
τσι@@ 11489
μερικές 11483
παλ@@ 11478
ημέρα 11474
1996 11473
ναυ@@ 11462
μη@@ 11453
Πέ@@ 11445
οτ@@ 11435
μέσο 11427
ολογίας 11415
αρκετές 11402
δρ@@ 11397
θρ@@ 11385
επίθεση 11369
σημαντικά 11366
ρία 11348
.. 11334
Αρχ@@ 11314
μή@@ 11314
εχ@@ 11310
μένοι 11301
άδες 11291
ίγ@@ 11288
όνα 11267
απεβίωσε 11262
δη 11249
ποδοσφαίρου 11217
Αργότερα 11207
Λι@@ 11186
ηθ@@ 11186
Βαλ@@ 11184
br 11172
πηγές 11171
Τρι@@ 11170
πρωταθλήματος 11157
C@@ 11156
φάση 11156
ροφ@@ 11151
δο 11132
Άλ@@ 11123
βοήθεια 11117
αφορά 11109
κόμμα 11105
δύ@@ 11099
ημάτων 11088
παρουσία 11081
Περ@@ 11079
λέξη 11074
Χά@@ 11052
αξι@@ 11039
μένης 11023
πολλούς 11009
κομ@@ 11005
νερό 10992
θέμα 10990
έφερε 10985
οξ@@ 10985
Ένωσης 10982
ίνης 10982
+ 10981
ρας 10980
H@@ 10979
ψη 10967
αρχαία 10961
Νέας 10952
τεί 10948
1970 10947
π.χ. 10930
ημέρες 10926
εμπ@@ 10912
άβ@@ 10905
μέγεθος 10878
σχέσεις 10877
όρους 10873
αγγλικά 10872
P@@ 10862
όφ@@ 10846
a 10840
άνο 10835
B@@ 10826
κράτος 10814
άδ@@ 10807
αϊ@@ 10805
καλοκαίρι 10799
βραβείο 10796
ζω@@ 10791
περί 10789
έρ 10785
ωσαν 10780
A 10775
1992 10772
ίζοντας 10769
ταινίας 10769
ιστικό 10766
A@@ 10765
θέματα 10765
έλεγχο 10752
ακό 10740
εστ@@ 10735
ωνα 10730
οπλ@@ 10723
πολιτικός 10723
Κοιν@@ 10721
απλ@@ 10717
διαδικασία 10715
31 10708
αργ@@ 10706
οικογένειας 10701
τοι 10691
2021 10690
δικα@@ 10688
Ιν@@ 10685
Κύπρου 10677
ξει 10676
Σήμερα 10671
λόγο 10668
κο 10665
1960 10664
ίζονται 10654
περιλαμβάνουν 10654
Πολιτείες 10644
μηχαν@@ 10607
τμήματα 10604
τύπου 10601
D@@ 10595
Κο@@ 10590
παράδοση 10582
Γερμανίας 10579
άστηκαν 10578
δημιουργήθηκε 10578
γυναίκα 10563
F@@ 10542
έμ@@ 10536
δούκα 10533
Κόμμα 10530
τρίτη 10527
ιγ@@ 10519
κρι@@ 10519
άρια 10507
Ντι@@ 10496
ίδων 10493
δήμο 10492
1994 10483
Αυτοκρατορίας 10482
βί@@ 10480
κύ@@ 10478
Ερ@@ 10473
G@@ 10465
1993 10451
αλ 10449
Ω@@ 10426
αία 10424
Επιπλέον 10413
Μέχρι 10409
ζε 10394
Ηνωμένες 10374
γιατί 10373
κατοικ@@ 10371
40 10354
όλους 10352
Σκ@@ 10345
λα 10340
Πλ@@ 10338
δόθηκε 10337
τομ@@ 10335
μένου 10330
τέσσερα 10326
Βρίσκεται 10324
Ορ@@ 10324
Παλαι@@ 10322
νέου 10319
έπρεπε 10316
όρια 10312
ητική 10298
δικό 10274
έχ@@ 10263
R@@ 10254
ίσουν 10237
Ξ@@ 10228
πολλοί 10227
μφ@@ 10225
Σαρ@@ 10224
λευ@@ 10216
άλλοι 10209
δράση 10203
βουλευτής 10201
τό@@ 10195
μβ@@ 10185
πος 10184
Κύ@@ 10172
λειτουργία 10171
μακ@@ 10158
πρωτο@@ 10155
1995 10149
ρό@@ 10142
ίο 10139
κατοίκων 10136
σειράς 10131
Υπο@@ 10124
μεταλλ@@ 10111
παλαι@@ 10109
υμ@@ 10099
L@@ 10094
1989 10083
γυναικών 10073
τσα 10062
νομού 10059
ώνοντας 10051
παιχνίδι 10026
ζει 10010
έρα 9984
Καν@@ 9982
τοπ@@ 9978
γι 9977
τιν@@ 9976
γκα 9968
Ιανουάριο 9967
ίζ@@ 9965
νη@@ 9965
Πανεπιστημίου 9963
παντρεύτηκε 9949
από@@ 9939
πάντα 9933
ούνταν 9929
πέρασε 9921
συνέχισε 9920
στερ@@ 9916
1974 9914
σύν@@ 9914
μεσ@@ 9909
Οικογένεια 9901
° 9898
ιακή 9898
γον@@ 9892
Ρώμη 9890
χρον@@ 9889
εξελέγη 9884
χή 9883
Μουσείο 9877
τραγούδια 9877
ώρα 9873
απέναντι 9870
υπολογ@@ 9866
Μετα@@ 9860
ομάδων 9857
κάποιο 9851
περιπτώσεις 9837
ροι 9824
φθ@@ 9819
Υπάρχουν 9812
λύ@@ 9807
χει@@ 9804
όχ@@ 9803
απ 9801
ίνι 9796
πορεία 9796
Αγώνες 9785
Μου@@ 9785
Και 9783
κε 9782
συγγραφέας 9781
γκολ 9766
κυβέρνησης 9744
θυ@@ 9739
αμέσως 9737
Εκ@@ 9736
Κολ@@ 9726
όνι 9725
άνδρες 9722
τολ@@ 9721
έζ@@ 9717
ποταμού 9717
2@@ 9715
ταν 9714
πορ@@ 9712
αγγ@@ 9705
Πά@@ 9699
ητών 9698
μει@@ 9698
Ευρώπης 9678
πιστ@@ 9667
Ρωσία 9664
ανό 9657
ραν@@ 9654
διασ@@ 9650
στής 9629
Ένας 9621
είες 9609
Γεώργιος 9603
γραμμή 9603
Κον@@ 9597
περιέχει 9597
Μάρ@@ 9591
τηση 9589
αποφάσισε 9588
εμφάνιση 9586
Οκτώβριο 9576
χριστιαν@@ 9573
δήμου 9563
περί@@ 9560
ώνα 9529
αρι@@ 9524
ητικό 9520
δί@@ 9515
τουλάχιστον 9508
Ελλάδος 9507
Σεπτέμβριο 9507
Σύ@@ 9505
ικο 9497
E@@ 9496
ισε 9490
κάστρο 9490
Λού@@ 9486
μάλιστα 9477
ώσουν 9476
Περι@@ 9462
ώνονται 9457
κατέ@@ 9454
ούτε 9454
Αγίας 9453
οδηγ@@ 9453
μέρη 9443
Βαρ@@ 9442
ποσοστό 9440
ώνουν 9437
Ιούνιο 9431
άι@@ 9426
Μέ@@ 9418
προβλήματα 9418
Εθνικό 9409
ειών 9399
Πρόεδρος 9396
Άγιος 9392
ασης 9386
ρατ@@ 9382
ηθοποιός 9381
N@@ 9377
ακολούθησε 9377
όλοι 9376
ύψος 9367
τιμή 9365
στικά 9363
ίδη 9360
συλλογή 9354
Εκεί 9346
εμφανίζεται 9346
συμ@@ 9346
ίδ@@ 9339
έτους 9336
μετ@@ 9331
ιση 9304
κόμη 9293
μ.Χ. 9291
συνθήκες 9283
στές 9280
ητ@@ 9230
τοπική 9225
συνεργασία 9217
ουσα 9213
Μάιο 9205
Μελ@@ 9203
μν@@ 9198
χρησιμοποιούνται 9191
Κάτω 9185
έδ@@ 9184
εντ@@ 9183
συγκεκριμένα 9179
άζεται 9176
1940 9169
ότερες 9168
άνη 9166
διατ@@ 9155
τελευταίο 9155
ματικό 9144
άντα 9141
φέρει 9139
ικ 9138
ψει 9137
άπ@@ 9128
ελληνικό 9128
θεωρία 9126
Μάρτιο 9124
κερ@@ 9119
ηθούν 9107
κύρια 9105
γαλλική 9104
οφ 9104
Ιούλιο 9080
μένους 9064
Σαλ@@ 9063
δρα@@ 9062
ελλην@@ 9059
υπήρχαν 9057
μος 9054
o 9047
νομό 9036
κοσμ@@ 9029
βολ@@ 9026
μέση 9010
δικ@@ 9007
Αντ@@ 8999
συγκροτήματος 8988
έπαιξε 8986
χαρακτήρα 8968
Αύγουστο 8967
πραγματοποιήθηκε 8953
μάν@@ 8948
Γεν@@ 8941
επίσημη 8941
προσπάθεια 8939
άχ@@ 8931
ούλ@@ 8929
συνεχ@@ 8926
κύριο 8921
Οίκο 8916
βρέθηκε 8911
οποίας 8908
Αγγλίας 8905
Ασ@@ 8901
K@@ 8900
ναός 8896
i 8895
Δήμος 8884
Παγκοσμίου 8882
άνι 8881
κορυφή 8881
διοίκηση 8877
ανού 8876
Αμερική 8871
παράλληλα 8870
I 8869
Παλ@@ 8860
Αμ@@ 8858
Κωνσταντινούπολη 8853
ράς 8849
Νικ@@ 8847
πον@@ 8847
υδ@@ 8839
άει 8837
μετρ@@ 8834
τησαν 8834
κατηγορίας 8827
επτά 8823
γενικά 8818
Δημ@@ 8817
ικαν@@ 8817
μόν@@ 8814
60 8809
ίνου 8804
Κι@@ 8800
αντίθεση 8799
καμπ@@ 8788
λιο 8767
1.@@ 8748
ψε 8748
γνω@@ 8746
σω@@ 8746
κράτους 8744
κον@@ 8739
ολογική 8739
έδαφος 8735
εργάστηκε 8730
άντ@@ 8728
όρι@@ 8723
Βόρεια 8720
επόμενο 8719
υπέγραψε 8714
Δεκέμβριο 8711
ρακ@@ 8709
ίσως 8704
άσεις 8700
ταμ@@ 8699
δα 8698
ρη 8694
Τζον 8693
ραγ@@ 8686
ορίζεται 8683
y 8680
ασαν 8678
μικρο@@ 8673
σε@@ 8668
Κατα@@ 8659
ώρες 8658
φαν@@ 8653
ήλ@@ 8650
Στα@@ 8643
όνια 8643
φων@@ 8640
Αυτοκρατορία 8639
αγων@@ 8639
αποτελέσματα 8639
νέ@@ 8633
ειδικά 8632
υποστήριξη 8631
αντί@@ 8630
ίμ@@ 8627
Εκκλησία 8626
διοργάνωση 8621
παρά@@ 8621
1981 8610
Α.@@ 8604
Αγία 8598
ειο 8592
έρευνα 8591
ίρ@@ 8590
έργου 8588
αντίστοιχα 8588
μελέτη 8586
άνθρωποι 8575
άλη 8572
διπλ@@ 8571
κό@@ 8569
σπουδές 8569
Νοέμβριο 8564
στρατού 8560
μαζ@@ 8555
Γαλ@@ 8553
ρύ@@ 8553
μισ@@ 8548
ρά 8545
τιο 8535
Πολωνίας 8532
έμεινε 8529
εδάφη 8529
σεων 8528
Ελ@@ 8527
Ψ@@ 8523
ιβ@@ 8508
1950 8498
ζεται 8495
αση 8493
έλα 8489
υψ@@ 8488
ορισμένες 8483
συμμετείχαν 8483
στη@@ 8471
παρακάτω 8469
συστήματος 8468
άλ 8465
ταρ@@ 8465
τηκε 8464
όμενα 8454
Όπως 8453
Κερ@@ 8446
μέρα 8445
θρόνο 8444
Μαν@@ 8443
στεί 8438
Αγγλία 8437
τώρα 8436
σ 8435
ίνος 8434
καν 8430
ινγκ 8427
V@@ 8414
Απρίλιο 8413
δρο@@ 8412
ειες 8408
σιο 8406
ματο@@ 8398
Εκτός 8396
κόρης 8394
τέχνης 8393
οποίους 8392
σύνθεση 8388
ίνας 8387
γλώσσες 8385
αδελφός 8380
όδ@@ 8377
O@@ 8371
ρίν@@ 8367
ωμένη 8364
Μιχαήλ 8363
τελική 8361
θεωρ@@ 8356
γράφ@@ 8355
δου 8352
ώδη 8343
εμφανίστηκε 8341
διαθέτει 8329
Παρά 8326
πληροφορίες 8326
δήλωσε 8322
ιστής 8322
βιβλία 8309
συνα@@ 8303
τευ@@ 8302
βαθμ@@ 8301
ριος 8299
τησε 8274
ανθρώπους 8273
ημένο 8273
τω@@ 8266
νω@@ 8251
αποκ@@ 8250
κλι@@ 8249
σμού 8249
στατ@@ 8248
μό 8247
Λιγκ 8246
Ελλήνων 8239
λόγους 8234
σκοπ@@ 8233
ανός 8229
80 8227
λιγότερο 8221
οντα 8221
νο 8214
οπο@@ 8209
μαγ@@ 8206
Άρ@@ 8204
βαν@@ 8202
3@@ 8201
εξαιτίας 8201
επαρχίας 8197
περίοδος 8189
όριο 8180
αγωγ@@ 8179
μέρες 8175
Τη 8166
σχολείο 8163
συλλ@@ 8161
λιος 8158
κόσμου 8154
ίδιου 8149
δήμος 8137
αυξ@@ 8133
ξε 8133
ούρ@@ 8133
κακ@@ 8127
έξω 8123
ισης 8120
ασία 8116
χά@@ 8115
οικονομική 8109
μουσικής 8103
Δήμο 8102
συμφωνία 8101
1945 8098
Κ 8097
τσι 8095
θερμ@@ 8094
ήγ@@ 8090
θερ@@ 8089
επιφάνεια 8088
συγ@@ 8086
άλα 8082
ρεκόρ 8081
1985 8076
έων 8074
αρ 8070
σημερινή 8064
άδας 8063
Πι@@ 8062
1944 8061
βιτς 8055
σχε@@ 8054
Είχε 8044
Ελλην@@ 8036
Βεν@@ 8034
αναπ@@ 8025
τρο 8019
μικ@@ 8011
άρχισαν 8004
περιφέρεια 8004
σμα 8001
Μπου@@ 7998
ταχ@@ 7997
μέν@@ 7995
πρω@@ 7993
ήρ@@ 7990
εύει 7985
νησιού 7981
Κυ@@ 7979
χρησιμοποιήθηκε 7973
απόφαση 7966
επιτυχ@@ 7966
ηματ@@ 7965
τρίτο 7962
δίνει 7961
νό@@ 7959
συγκεντρ@@ 7959
διοικητική 7957
ήττα 7951
εντάχθηκε 7951
αντί 7950
δημιούργησε 7949
αλληλ@@ 7943
x 7931
τεύ@@ 7925
εμφαν@@ 7922
αποτέλεσε 7919
κάποιες 7919
ηλι@@ 7916
αρχηγός 7913
ήμ@@ 7905
d 7898
ειρ@@ 7898
1988 7894
υπέρ 7890
Λε@@ 7887
επικ@@ 7887
εκπαίδευση 7878
περιοδικό 7877
κίνηση 7876
αναφέρονται 7871
αστεί 7866
1986 7863
Πολωνία 7862
λεκ@@ 7852
κυβερν@@ 7851
πηγή 7849
ικότητα 7847
Ε.@@ 7844
άλλ@@ 7844
τίτλος 7837
Χρ@@ 7835
θέατρο 7835
μεγάλα 7833
αίνει 7828
200 7827
εξ 7825
έργων 7822
αρχική 7819
άρχ@@ 7811
Τελικά 7808
ντεμπούτο 7807
άρχης 7805
ωνία 7805
ιακό 7803
ζαν 7802
Πολ@@ 7801
άρι@@ 7799
ιχ@@ 7799
κατηγορίες 7798
καθηγητής 7797
άζουν 7795
ανδ@@ 7794
σί@@ 7794
δημοσι@@ 7791
ργ@@ 7790
αγορά 7774
Λέ@@ 7773
Ρου@@ 7771
ίδρυση 7768
υλικό 7768
I@@ 7767
19ου 7761
πολλών 7755
Όμως 7754
κατέλαβε 7754
άνης 7753
κόμματος 7753
κρα@@ 7747
αγκ@@ 7746
τέρ@@ 7740
ελληνικής 7737
πολεμ@@ 7737
σμό 7737
άνια 7736
δημ@@ 7736
ρες 7729
ρη@@ 7718
Ρωσίας 7717
διαβ@@ 7715
σμός 7714
Μακεδονίας 7712
Συ@@ 7705
1987 7701
όζ@@ 7701
Ιταλίας 7700
Στ@@ 7700
παραπάνω 7698
θη 7697
χωριά 7685
ίτες 7682
Εργ@@ 7680
ατική 7678
σύνορα 7676
μετέπειτα 7674
Κομ@@ 7671
πλαίσιο 7670
ιας 7666
ότητά 7663
μύ@@ 7662
οτήτων 7652
Χαρ@@ 7645
θάνατό 7645
αναφορά 7641
Μπαρ@@ 7640
αλλαγή 7630
κομμάτι 7625
ενδιαφέρον 7623
Ισπαν@@ 7617
4@@ 7614
θεραπεία 7608
έλλ@@ 7606
ζουν 7606
στρατιώτες 7603
αυτοκράτορα 7602
τρα@@ 7601
εμβ@@ 7600
χαλ@@ 7597
ανακοίνωσε 7592
σχέδια 7591
συλλόγου 7582
ολογ@@ 7577
λάβει 7575
αρκ@@ 7572
βαλ@@ 7571
σημαντικές 7571
έχασε 7568
on 7567
πόντους 7567
n 7559
χν@@ 7557
στικής 7553
ώματος 7552
ζήτησε 7551
ύρ@@ 7551
προβλ@@ 7550
όρου 7541
1920 7537
Λονδίνο 7536
Χριστιαν@@ 7534
τραυματ@@ 7534
ήρθε 7532
λιγ@@ 7530
Γεωργίου 7528
ώσεων 7525
ίδρυσε 7522
Θεσσαλονίκη 7521
άσεων 7517
ψης 7508
πλοία 7507
οργάνωση 7506
1975 7504
ιστών 7503
επίδραση 7497
οκτώ 7497
κοινότητας 7496
περισσότεροι 7495
1984 7494
λειτουργ@@ 7491
δυνατότητα 7478
νεκ@@ 7478
ιστούν 7476
1982 7474
έστειλε 7474
δημιουργ@@ 7474
κλη@@ 7474
ρική 7469
Κωνσταντίνος 7463
ναό 7459
Κάρ@@ 7451
άνιο 7451
Καλλικράτης 7450
Ενώ 7443
Παράλληλα 7443
πρόσ@@ 7441
σι 7440
τύ@@ 7440
κυρι@@ 7439
Λα@@ 7436
Ντά@@ 7430
παιδί 7429
εκστρατεία 7426
θάλασσα 7421
ώρ@@ 7421
Φεβρουάριο 7417
ατζ@@ 7417
Ηνωμένων 7409
τομέα 7406
άνω 7403
γου@@ 7403
χι@@ 7403
Σαν 7400
νερού 7400
ρι 7399
ξαν 7397
ιπ@@ 7388
λος 7387
Ελληνική 7382
εξέλιξη 7379
σχήμα 7375
εντοπ@@ 7374
ισμούς 7369
Αρχικά 7367
έτα 7366
αποκαλ@@ 7361
Ντα@@ 7356
70 7349
ορθ@@ 7345
ώνη 7340
W@@ 7335
1979 7334
Πρ@@ 7332
ίτ@@ 7332
πραγματικότητα 7329
Μπι@@ 7328
δώσει 7326
συμπεριλαμβανομένων 7323
άποψη 7321
πήγε 7317
άζοντας 7313
συνεργ@@ 7313
πό@@ 7311
τούσε 7311
Βασιλείου 7308
Γκα@@ 7305
ξουν 7305
Μικ@@ 7303
1967 7299
ταγ@@ 7294
διεξήχθη 7285
μιλ@@ 7280
S 7279
Κύπρο 7277
δομή 7273
διορίστηκε 7268
συμβόλαιο 7265
υπουργός 7264
ελληνικά 7260
αύξηση 7259
ισαν 7259
εαυτό 7257
στόχο 7246
Μαλ@@ 7242
μπορούσαν 7242
παρουσιάζει 7242
όρων 7242
εύεται 7240
ασι@@ 7235
ανθ@@ 7234
ανήκε 7233
1941 7230
1912 7224
ίτη 7222
t 7221
ερμην@@ 7220
νέων 7220
ειν@@ 7218
ρών 7217
σύντομα 7217
κος 7215
όνων 7215
ορο@@ 7213
ωμένο 7212
γέν@@ 7207
έστ@@ 7204
m 7202
ρκ@@ 7198
στή 7198
όμενες 7194
κυκλοφορία 7189
μπι 7189
έννοια 7188
Συμβούλιο 7177
τριών 7176
ματικά 7174
ώνας 7174
πιθαν@@ 7172
όντων 7172
επο@@ 7170
πρόσωπο 7168
εφημερίδα 7163
” 7162
Αθήνας 7160
Ισπανία 7158
ιστο@@ 7154
σο@@ 7148
τορ@@ 7147
δέκα 7146
έμπ@@ 7144
αζε 7138
σουν 7132
γεγονότα 7131
δικαιώματα 7129
ρίων 7126
εργασία 7122
νησιά 7121
στρατιωτική 7121
ουσι@@ 7119
διαδέχθηκε 7116
βο@@ 7113
αποστολή 7110
δεύτερος 7110
ώσ@@ 7108
ητικά 7107
δικαίωμα 7100
Ασία 7098
Στέ@@ 7096
Χρυσ@@ 7092
Μεταξύ 7090
φω@@ 7089
λεπτά 7078
Κόμματος 7077
ίπ@@ 7076
γλ@@ 7074
στικές 7069
τιος 7065
έναντι 7064
ωπ@@ 7063
ιδέα 7059
άνου 7058
συμβολ@@ 7058
“ 7055
Ι 7054
O 7053
μοντέλο 7050
1978 7048
μορφές 7048
εάν 7046
ιντ 7040
90 7038
στών 7037
us 7035
1983 7034
λειτουργεί 7031
λη 7029
Σαμ@@ 7028
πραγματ@@ 7026
ενέργεια 7025
συστήματα 7018
o@@ 7015
ένωση 7014
φόρ@@ 7006
στερ 7001
τεχνική 6999
πα 6991
1973 6989
εικόνα 6981
γρήγορα 6980
ευση 6979
μην@@ 6979
ηλεκτρον@@ 6977
παγ@@ 6971
τακ@@ 6971
Π 6968
εντά@@ 6961
έζησε 6959
χών 6957
γνωστοί 6956
πολιτικής 6956
Σά@@ 6944
διευθυντής 6943
ομοι@@ 6938
1976 6937
Ναυ@@ 6937
Επιτροπής 6930
συζύγου 6927
βασιλ@@ 6921
1930 6916
επιρροή 6915
ημι@@ 6913
Κού@@ 6912
ταυτόχρονα 6910
500 6907
Κατηγορία 6902
είπε 6901
χο 6898
πί@@ 6887
Βερ@@ 6884
ιλι@@ 6882
1977 6871
εκδοχή 6864
σημασία 6863
υδρο@@ 6862
σύλλογος 6861
στρατ@@ 6853
1971 6852
εφ 6851
γύρο 6850
λει@@ 6850
ούσ@@ 6850
είδους 6848
μερικά 6843
σκορ 6842
αδελφό 6835
ωνίας 6835
Α. 6830
Επιτροπή 6830
Πριν 6827
κανον@@ 6825
αερ@@ 6822
ματά 6812
ωνικό 6811
γη 6801
2.@@ 6799
έρι 6798
καιν@@ 6798
ίνες 6796
εσωτερικό 6796
σιος 6794
έδρας 6785
7@@ 6779
εμπο@@ 6778
ισχυ@@ 6777
περιβάλλον 6775
1972 6771
Ρό@@ 6769
1968 6767
πάρει 6767
Ιταλ@@ 6762
δρόμο 6759
τή@@ 6759
γ 6746
επιπλέον 6745
ότερος 6744
αίο 6741
θερμοκρασία 6741
5@@ 6739
χρησιμοποιεί 6739
χρόνου 6736
εζ@@ 6733
κρί@@ 6733
κτίριο 6732
σύζυγος 6732
1964 6731
εφαρμογή 6729
ινή 6728
πρώτου 6726
όρ 6726
γράφει 6725
λεγ@@ 6723
ατών 6720
Νομ@@ 6714
εταιρείας 6713
καταγωγή 6707
R 6702
ανατ@@ 6698
Μεγάλη 6694
τούς 6690
ακριβώς 6685
Άννα 6683
ημένη 6680
πνευ@@ 6678
αποτελούσε 6674
ίτης 6672
ανάλογα 6672
κατ 6671
κυκλ@@ 6670
Τότε 6669
ανταγων@@ 6661
κεντρική 6657
μπουργκ 6657
1961 6654
ασε 6654
αστική 6652
εξωτερικό 6641
Εκκλησίας 6640
Αφρική 6637
Τσι@@ 6636
αλλαγές 6633
ποταμό 6629
χρονικό 6626
δημόσια 6625
έρχεται 6624
Σ 6621
χθηκε 6618
Βιογραφικά 6617
1939 6610
μεθ@@ 6609
ίσεις 6607
προστασία 6607
πλειοψηφία 6605
ελι@@ 6603
στ 6602
ψουν 6600
μορφ@@ 6596
εκπαιδευ@@ 6591
Μπλ@@ 6588
στρ@@ 6588
et 6587
ραβ@@ 6585
μαλ@@ 6575
ροί 6572
ερι@@ 6571
αι. 6570
ατικό 6569
πους 6568
δολάρια 6565
χώρος 6565
Κοινότητα 6562
αγωνίζεται 6562
κάνουν 6561
αξ@@ 6559
σημεία 6556
ιαν@@ 6554
ψεις 6554
αυτοί 6549
κω@@ 6547
αίου 6545
καταγωγής 6543
1821 6537
κράτη 6535
Ολυμπιακούς 6531
έτο 6531
Λόγω 6528
πρώτης 6526
Καστ@@ 6525
τύπος 6519
θμ@@ 6518
κομμουν@@ 6517
1963 6515
κοπ@@ 6514
διαφορετικές 6504
καθεστώς 6502
μίας 6502
γνωστά 6499
ποδοσφαιριστής 6496
ώνες 6496
μης 6491
άνοδο 6490
δυνάμεων 6489
ρούς 6489
παραμένει 6486
δίπλα 6484
υπηρεσίες 6484
Μουσ@@ 6481
αναδείχθηκε 6480
Κάρολος 6472
έκαναν 6470
σας 6469
μεγαλ@@ 6468
Σα@@ 6466
γονείς 6465
οί@@ 6464
Βασιλ@@ 6461
Νότια 6461
πίνακα 6456
μεγαλύτερος 6452
8@@ 6450
βοηθ@@ 6449
Καθώς 6446
αρχία 6446
επιλογή 6443
υπηρέτησε 6437
ορίστηκε 6434
ανασ@@ 6433
βάρος 6433
ακολουθεί 6428
μονή 6428
Κό@@ 6427
επιστροφή 6427
ύπαρξη 6421
τηκαν 6420
εντ 6417
# 6415
μετάλλιο 6413
τούσαν 6413
πολιτικό 6411
μπροστά 6409
τια 6409
τρια 6405
ιστορικό 6403
προπονητής 6402
παράγεται 6401
Αφού 6396
άτ@@ 6391
συνδυ@@ 6391
θέσεων 6388
τεν@@ 6382
ιστικά 6381
προσπάθησε 6381
τυπ@@ 6381
L 6379
εμφανίσεις 6377
επηρε@@ 6377
διετέλεσε 6376
ονομάστηκε 6375
πρόβλημα 6372
δρομ@@ 6371
υπόθεση 6367
μήνα 6364
Πολι@@ 6360
ται 6354
βερ@@ 6350
τροφ@@ 6350
ιστικής 6348
σύγχρονη 6348
εργασίας 6345
Γκου@@ 6344
δεκ@@ 6344
εκδόσεις 6344
μονα@@ 6344
1943 6341
γλώσσας 6341
ηχ@@ 6341
αγωγή 6335
1969 6334
ίστ@@ 6326
Χαλ@@ 6324
άσουν 6323
ανθρώπων 6323
μικρά 6323
δεκα@@ 6320
Ερρίκος 6317
λυ@@ 6312
νίκες 6312
1946 6311
ηγεσία 6309
βελτι@@ 6308
χρησιμοποιώντας 6305
κατόπιν 6304
λιμάνι 6304
άνθρακα 6303
βρα@@ 6302
φασ@@ 6300
καλά 6298
χα@@ 6298
νέες 6296
παρουσι@@ 6294
κερδίσει 6291
πολιτι@@ 6290
to 6282
επεκ@@ 6281
μή 6276
ριστ@@ 6275
αθλη@@ 6273
ϋ@@ 6271
σταδιοδρομία 6270
θος 6268
ιστορίας 6266
Αντί@@ 6265
Ιερ@@ 6260
ονόματα 6260
κη 6259
αγρο@@ 6258
στρατεύματα 6258
έτ@@ 6257
Όσκαρ 6253
Κυπέλλου 6249
ισσ@@ 6249
Ακ@@ 6248
ανή 6241
To 6239
χρώμα 6238
επιχειρήσεις 6236
ιω@@ 6230
Πέθανε 6224
ναού 6224
Άγιο 6223
αίνουν 6214
σιμο 6213
τροπ@@ 6212
στοιχείο 6207
Ή@@ 6200
γνωστ@@ 6200
Σε@@ 6197
οδό 6192
δημοκρατ@@ 6186
χειρο@@ 6186
τοκ@@ 6177
διοργαν@@ 6176
έξ@@ 6174
ξεις 6174
στάδιο 6171
ιτς 6170
μυθ@@ 6168
τέχνη 6168
εξαιρετικά 6166
Αλέξανδρος 6164
παί@@ 6160
γεω@@ 6159
καλύτερη 6159
τύπο 6159
στρατός 6154
τήριο 6154
F 6152
έκθεση 6148
σκα 6146
Υπήρξε 6144
μάχης 6144
δεδομένων 6143
ρό 6142
φερ@@ 6141
χιλι@@ 6140
ενάντια 6136
Συμβουλίου 6135
6@@ 6134
αντζ@@ 6134
γενε@@ 6134
δεξι@@ 6133
ιες 6133
Ευρωπαϊκό 6127
σμούς 6126
μεγάλου 6124
έδειξε 6119
οιν@@ 6117
σημείωσε 6117
υπηρεσία 6116
1965 6112
απο 6111
σπουδ@@ 6111
έι@@ 6104
οντ@@ 6102
ριζ@@ 6099
πρωταθλήματα 6098
σκηνή 6098
ιοι 6095
ρή 6094
προκάλεσε 6093
δών 6092
πεδίο 6092
ψαν 6091
σου 6088
Στρ@@ 6085
αξία 6085
πρωθυπουργός 6085
γραμ@@ 6084
διά 6083
αναγνω@@ 6082
ξε@@ 6081
αι 6079
Μι@@ 6073
Π.@@ 6073
Χάρ@@ 6068
Πατ@@ 6067
θυμ@@ 6065
απέ@@ 6063
έδρες 6062
σκηνοθεσία 6062
ίχ@@ 6060
στικών 6060
οντάς 6059
ημερ@@ 6058
Σερ@@ 6057
ωνε 6056
Βραβείο 6055
ίωση 6044
άτομο 6038
δεδομένα 6034
παιχνίδια 6032
έρν@@ 6031
γνώρισε 6031
Καμ@@ 6021
1918 6018
άου@@ 6017
ατρ@@ 6017
όνη 6016
χρησιμοποιηθεί 6014
ικότητας 6013
χημ@@ 6013
ήσ@@ 6010
ερν@@ 6008
πιθανώς 6008
μήκους 6006
σημει@@ 6006
τοποθεσία 6005
χέρια 6005
άμπ@@ 6003
ολόγος 6001
Δια@@ 6000
άμε@@ 6000
σώματος 5999
καθαρ@@ 5997
μπερ@@ 5997
Μάχη 5996
πλη@@ 5991
Μεσ@@ 5988
τερμάτισε 5987
προσπάθειες 5986
οργ@@ 5980
Τρ@@ 5978
καιρό 5978
1966 5971
άι 5971
διέ@@ 5970
Άνω 5968
εύτηκε 5967
ποίηση 5966
έγκ@@ 5965
έναρξη 5964
Ηνωμένο 5962
ξυλ@@ 5962
αιν@@ 5959
Μπερ@@ 5958
ύστερα 5956
Δυ@@ 5952
Σπούδασε 5952
H 5947
μελών 5947
χαρακτηριστικό 5947
χρυσό 5947
20@@ 5946
X 5944
Έπειτα 5942
αποφασ@@ 5942
μάν 5932
οικογένειες 5932
μπου@@ 5931
εργασίες 5925
ύγ@@ 5925
πρωτ@@ 5921
συμπ@@ 5919
D 5917
Μία 5910
ηλεκτρ@@ 5908
χάρη 5908
τέκνα 5907
πραγματοποίησε 5906
ολοκληρώθηκε 5905
χρονιάς 5904
Ισπανίας 5898
ινό 5898
γραμμές 5897
εση 5897
σταυ@@ 5890
Του@@ 5887
μεγάλης 5886
αντικείμενο 5885
ηκε 5884
αρνήθηκε 5882
ίους 5880
καμία 5880
δού@@ 5879
λεύ@@ 5878
300 5876
κλει@@ 5875
ήν@@ 5874
Βασ@@ 5873
Πρω@@ 5873
Κρήτης 5870
δης 5870
Ν 5868
έτ 5868
ωλ@@ 5867
εθνικής 5864
σχολή 5863
θητεία 5859
σχολ@@ 5857
ενέργειας 5855
λαβ@@ 5855
άζονται 5854
έλαβαν 5853
είδ@@ 5853
φον 5851
τισμού 5850
που@@ 5847
ρίες 5847
κοινή 5846
μό@@ 5844
κού@@ 5842
1928 5841
Σύστημα 5841
ίλ 5839
Γεωγραφία 5835
ρυθμ@@ 5832
πόν@@ 5829
δαν@@ 5825
εικον@@ 5824
Κιν@@ 5822
Κίνα 5820
Εφ@@ 5817
λίμνη 5817
τορα 5815
βαθμούς 5814
υβ@@ 5814
φυσική 5812
τελευταίος 5811
οστ@@ 5809
ωμ@@ 5807
φυλακ@@ 5806
πρόταση 5805
δραστηριότητες 5803
ήθελε 5802
σκ 5801
Φω@@ 5797
ολόκληρη 5794
κίνημα 5792
Πα@@ 5791
ικη 5791
όμενοι 5789
δρόμου 5788
ισμένη 5788
φρά@@ 5788
φαν 5787
διοικ@@ 5785
σπούδασε 5781
ΣΤ 5778
διδ@@ 5773
κυριαρχία 5773
λι 5769
βασίλειο 5766
προσκ@@ 5766
1947 5764
Ντε@@ 5759
νά@@ 5759
δραστηριότητα 5758
πηγ@@ 5754
παρελθόν 5753
χρησιμοποιούν 5753
άλλαξε 5752
βο 5751
ουά 5746
σταθμός 5743
ταυ@@ 5741
ουργ@@ 5739
στεν@@ 5738
Καναδά 5737
εισβολή 5736
σημερινό 5735
ίκα 5734
μαγνη@@ 5731
βίντεο 5728
δου@@ 5728
ίνων 5727
συμμετοχές 5727
έι 5725
Ιαπωνία 5724
Τουρκία 5721
προγραμματ@@ 5721
ίρ 5715
αδελφή 5715
ευσης 5712
άλι 5711
κριτική 5708
τός 5707
9@@ 5706
Σω@@ 5705
ίσματος 5703
νέος 5702
παραγωγ@@ 5702
πολίτες 5702
γραφή 5701
ατόμων 5700
Πε@@ 5699
βελ@@ 5696
περαιτέρω 5696
καλλιτέχνες 5694
ολογικά 5694
διαφορά 5691
πολι@@ 5689
ανίας 5688
χιλιάδες 5688
σου@@ 5686
χής 5678
Γερ@@ 5677
32 5671
ελληνικού 5668
χαρακτη@@ 5662
οξύ 5661
ανέ@@ 5660
Σοβιετική 5659
αντικείμενα 5659
ισμένο 5656
ωνική 5655
δυν@@ 5653
πολιτικές 5653
σελ@@ 5653
αγαπ@@ 5650
ανατολική 5642
παίκτης 5642
1948 5641
Αμερικής 5641
σύζυγό 5641
1958 5639
δείχνει 5639
Ισ@@ 5638
Κάθε 5637
Τέλος 5637
διεθνή 5632
πτώση 5631
1@@ 5622
πρίγκιπα 5622
δευ@@ 5619
δικά 5619
επαφή 5618
αγωνιστική 5617
κανείς 5613
μεταφορά 5613
κου 5612
Καριέρα 5610
1962 5609
χρώματα 5609
λόγ@@ 5608
τάξη 5607
Μονή 5606
άρχη 5606
επανάσταση 5604
συγκεκριμένη 5602
ξεκίνησαν 5601
Που@@ 5599
1956 5598
Ζαν 5597
σύ@@ 5596
ρός 5595
Γιώργος 5593
ακού 5593
άτα 5592
Μορ@@ 5591
μοναστήρι 5590
βα@@ 5589
πλοίο 5588
B 5585
Πρόκειται 5584
ζόταν 5582
άτο 5580
Σί@@ 5579
τηλε@@ 5579
μοναδικό 5577
ομιλ@@ 5577
γλωσσ@@ 5573
Μπέ@@ 5572
Βου@@ 5571
συχν@@ 5571
Ελισάβετ 5570
υπηρε@@ 5568
ιώ@@ 5567
35 5566
διών 5566
συμπερι@@ 5565
Δύο 5564
Λονδίνου 5563
ισχυρ@@ 5562
διότι 5561
ΦΚ 5560
προϊόντα 5559
Πειραιά 5556
κεφαλ@@ 5551
Ακαδημία 5550
διαφορετικά 5547
πεζ@@ 5542
αμβ@@ 5541
λλα 5541
ατα 5538
ματικές 5536
σεν@@ 5536
ερμηνεία 5534
πίεση 5532
ην 5529
ημένα 5528
νου 5526
κεντρικό 5525
λέει 5525
Κ. 5523
δίδ@@ 5522
ξεν@@ 5522
αντά@@ 5517
ειά 5516
Γη 5515
μού 5515
κομμάτια 5514
Φαρ@@ 5512
ίσματα 5512
Ανατολικής 5511
βεν@@ 5506
όπουλου 5502
Λί@@ 5495
εθνικ@@ 5495
επίπεδα 5495
βιομηχανία 5486
όνο 5486
εδώ 5483
νεο@@ 5483
Τελ@@ 5482
καταστροφή 5481
Καζ@@ 5479
σκλη@@ 5479
Σημ@@ 5477
ερω@@ 5476
μεγαλύτερες 5474
δεκαετίες 5472
νες 5467
ίος 5464
ευσε 5460
θύ@@ 5456
δίσκο 5455
τοξ@@ 5455
κατάκτηση 5454
πν@@ 5448
μικρές 5446
οικονομικά 5446
μυθιστόρημα 5442
παθ@@ 5442
σταθερ@@ 5441
Τι@@ 5438
ογράφ@@ 5438
Αυτός 5437
αποκλειστικά 5436
δυτική 5436
ρή@@ 5435
κοιν@@ 5432
όντα 5432
πυρ@@ 5430
μεταφέρθηκε 5429
μπα 5429
Μάν@@ 5428
θέν@@ 5428
μετονομάστηκε 5423
ινο 5421
μεθυλ@@ 5420
ακολουθ@@ 5419
αρχικό 5419
1919 5415
Ομοσπονδία 5415
Στους 5410
έρας 5409
αρχίας 5408
επόμενα 5406
Υόρκης 5404
δουλειά 5403
πράξη 5403
αίας 5402
μόνη 5402
λέγεται 5400
ιου@@ 5399
γκο 5398
Σοσιαλ@@ 5395
αντίδραση 5394
παραδ@@ 5394
Νό@@ 5392
δίκτυο 5390
τυχ@@ 5387
μισό 5385
απλά 5384
μάλλον 5382
ρούν 5380
ορισμένα 5379
κων 5377
Τιμ@@ 5373
άρκ@@ 5373
ιστικές 5372
κείμενο 5369
λογία 5368
ασσ@@ 5366
στρα@@ 5365
κάποιος 5362
Φρ@@ 5361
δοκιμ@@ 5361
1955 5359
ακού@@ 5358
λεπ@@ 5358
διαγωνισμό 5357
ιστή 5355
κορυφ@@ 5349
πληρ@@ 5349
πόλεμος 5349
τισ@@ 5349
Πολιτειών 5348
φυσικό 5348
Φλ@@ 5347
Σάν@@ 5346
μακριά 5344
ανεξαρτησία 5343
βγ@@ 5343
συγκεκριμένο 5343
Τά@@ 5341
Κρ@@ 5339
ενότητα 5339
βρεθεί 5337
εξέγερση 5337
ετ 5337
οποίησης 5337
s@@ 5336
σενάριο 5330
άντ 5329
ολογικό 5329
κατοχή 5328
φύση 5328
1959 5327
αγορ@@ 5325
is 5323
δω@@ 5322
γερμανική 5321
γγ@@ 5320
ακής 5317
Αγγλ@@ 5313
άδης 5313
e 5312
διοικητής 5312
Z@@ 5311
πέτυχε 5309
δια 5303
επιστρέψει 5303
ασφαλ@@ 5301
συνδυασμό 5300
Αμπ@@ 5298
καλαθοσφαίρισης 5295
ταχύτητα 5294
μιν@@ 5289
ούμενη 5289
δούκας 5286
λου 5283
βρεταν@@ 5282
Βρετανία 5280
ενς 5279
σεως 5279
Θεοδ@@ 5278
συνέπεια 5277
1942 5275
αναφορές 5271
πλήρως 5270
πλο@@ 5270
γιου 5268
παλιά 5268
λιθ@@ 5267
— 5265
σταθμό 5261
χώ@@ 5260
Κέντρο 5258
Τ 5257
ιμο 5256
ριών 5254
αξίωμα 5253
πολης 5253
φυσικά 5253
φύ@@ 5251
Λευκ@@ 5250
κρά@@ 5249
υπουργ@@ 5249
παραλ@@ 5246
Βά@@ 5245
άνος 5244
ζώνη 5244
ρικής 5242
άδων 5240
άνοντας 5240
διεθνής 5240
σειρές 5239
Ελληνικής 5231
Σπ@@ 5226
αίων 5226
al 5222
Βαλκαν@@ 5222
αστικό 5222
μονάδες 5220
παιδ@@ 5219
p 5218
τήσει 5218
ζώα 5211
αποκτήσει 5210
Μακεδονία 5208
κόμης 5206
εθνικό 5205
κατασκευάστηκε 5205
οντες 5205
ref 5203
ηγε@@ 5202
Μαζί 5201
ίς 5201
ποδόσφαιρο 5200
1951 5199
Ενότητα 5198
Αργ@@ 5197
ακολούθησαν 5197
υπόλοιπο 5194
διεκδικ@@ 5193
Δ. 5192
Στρατού 5191
Ρά@@ 5187
ερς 5186
πλήρη 5186
ηδ@@ 5185
παρακ@@ 5184
ορ 5182
Έν@@ 5181
έφυγε 5179
γραφής 5177
εθν@@ 5177
1922 5176
ματικής 5176
απαγορ@@ 5174
Ντέ@@ 5172
κίν@@ 5172
λή@@ 5171
σταδιακά 5170
ΦΕΚ 5168
μεγάλος 5168
Υπουργείο 5166
οικονομία 5166
προσωπικό 5166
άρη 5165
δυσ@@ 5165
ικώς 5165
κλίμα 5165
βου@@ 5164
Επανάσταση 5160
πλαίσια 5160
εκδ@@ 5158
Μερ@@ 5157
1936 5155
όπουλο 5155
έφεραν 5153
αέρα 5153
βία 5152
μελε@@ 5152
Ακαδημίας 5150
ζονται 5150
πωλ@@ 5147
ήτη 5146
μές 5146
υπάγεται 5143
λιν 5141
οικισμό 5141
λίγα 5140
εκτελ@@ 5139
ουσιαστικά 5139
Εθνικού 5138
θεση 5138
άτες 5137
λιά 5137
ότες 5135
ερχ@@ 5134
φυσι@@ 5134
κυβερνη@@ 5131
μείωση 5131
φοβ@@ 5129
ασίας 5127
κατασκευής 5127
επιβ@@ 5126
άγεται 5122
ίζονταν 5120
1949 5117
Αυστρίας 5116
βασίζεται 5116
P 5115
αϊκ@@ 5113
σύγκρουση 5113
τήρ@@ 5113
ειδών 5112
βρίσκονταν 5111
χρησιμοποίησε 5110
Βόρειας 5109
ετία 5109
U@@ 5107
απαρ@@ 5106
γερμανικά 5105
ρν@@ 5105
άνων 5104
βραβεία 5104
ντα 5103
αναγ@@ 5102
αποικ@@ 5100
δά@@ 5100
Κωνσταντίνου 5098
ανήκουν 5097
l 5092
γυ@@ 5087
επιθέσεις 5087
γραμμ@@ 5086
νευ@@ 5085
la 5084
απελευθερ@@ 5084
δυναμ@@ 5084
πανεπιστήμιο 5084
σύζυγο 5084
Κέν@@ 5082
αστικά 5082
σερ@@ 5082
Αίγυπτο 5081
χτίστηκε 5077
ανέφερε 5074
φέρεται 5073
Μόν@@ 5072
εγκαταστάθηκε 5072
ολογικές 5072
μετακόμισε 5071
ούμενος 5071
όσα 5069
ίβ@@ 5067
ηκαν 5067
καλλιεργ@@ 5067
μπού@@ 5067
Αλλά 5066
Ύ@@ 5065
άρθρο 5065
γκα@@ 5065
1957 5061
Έγινε 5061
χώρου 5054
J@@ 5051
λου@@ 5047
μαθητές 5046
Ασίας 5045
είσ@@ 5043
πτ@@ 5042
Νικόλαος 5039
παρόμοια 5039
Νι@@ 5038
1938 5033
δομ@@ 5033
Μπα@@ 5032
Λουδοβίκος 5030
ταξ@@ 5027
45 5026
βραβ@@ 5025
ουντ 5025
φλ@@ 5022
κάτοικοί 5021
ονομαζόταν 5021
πίνακας 5017
παγκόσμια 5015
στες 5013
πια 5011
γράμματα 5010
θους 5009
ήχ@@ 5007
αστυνομ@@ 5007
διακοσμ@@ 5007
ανακοινώθηκε 5003
θω@@ 5003
οφείλεται 5003
άθ@@ 5002
τησης 5002
λόγος 5000
Αλεξ@@ 4999
νίκησε 4998
ίσθηκε 4997
πιθανότατα 4997
0,@@ 4996
ανάπτυξης 4992
αναπτύχθηκε 4992
1952 4991
τελε@@ 4990
ιστορική 4989
στεγ@@ 4988
τικότητα 4986
βρέθηκαν 4983
κ.ά. 4983
Ισραήλ 4981
γήπεδο 4981
τέθηκε 4981
ημένες 4979
όρα 4979
βασίλισσα 4977
γειτον@@ 4976
τεν 4976
Χ 4975
βρ@@ 4974
Αττικής 4973
Σερβίας 4973
Φεστιβάλ 4972
Νέ@@ 4969
ούρα 4969
ωμένα 4968
αισθη@@ 4966
βιομηχαν@@ 4966
λαμβάνει 4965
ότερους 4964
g 4963
κοινού 4963
1924 4962
άνθρωπος 4957
ησή 4956
ιους 4956
μάχ@@ 4956
ησ@@ 4954
Αυτές 4949
Αμερικαν@@ 4945
Ρομ@@ 4943
χωρ@@ 4943
αριθμ@@ 4940
Αυτά 4938
ύλ@@ 4937
νικ@@ 4936
ακά 4934
Σού@@ 4933
Ζ 4932
άκ 4932
φως 4930
συμφ@@ 4929
Μπέρ@@ 4928
άσι@@ 4926
ντε@@ 4925
Ινστιτούτο 4924
διεξήχθησαν 4924
ευκαιρία 4921
πρώτοι 4920
οποιήθηκε 4919
φτάσει 4917
1927 4915
όνος 4914
Απεβίωσε 4913
κοινωνική 4913
συνδέεται 4911
παι@@ 4910
περιφερ@@ 4910
αλι@@ 4909
κατακτήσει 4908
ξή 4902
εμπόριο 4898
λεϊ 4895
πρόκειται 4895
άτη 4894
τάν 4894
γίνονται 4891
ρισ@@ 4891
φι@@ 4890
Ινδία 4889
αμερικαν@@ 4888
μουσείο 4888
γνώ@@ 4885
νας 4885
δεξιά 4884
χαρακτηρίζεται 4883
ώνης 4883
Μπεν@@ 4882
Ρώμης 4882
άσκ@@ 4878
έρι@@ 4877
σπίτια 4877
V 4876
παρατηρ@@ 4875
σημαία 4874
400 4873
Σαν@@ 4873
σωματ@@ 4872
ντα@@ 4868
Κρι@@ 4865
ανι@@ 4862
μνημείο 4862
κλασ@@ 4859
βασιλείας 4858
λευκ@@ 4857
Τρί@@ 4856
ετα@@ 4855
κατάστασης 4855
οικογένειά 4855
απελευθέρωση 4854
παγκοσμίως 4854
ϊκ@@ 4854
um 4851
οχή 4849
περιλαμβάνονται 4848
e@@ 4847
θο 4845
οδηγεί 4845
Μιλ@@ 4843
τιμές 4843
υποστήριξε 4843
ητο 4842
πλατ@@ 4842
άκια 4841
συγγραφείς 4840
βρήκε 4838
λίγες 4835
περισσότερους 4835
λαντ 4834
αγγλ@@ 4831
θεν@@ 4830
ώνται 4830
πέρα 4829
ιστορικός 4828
τίτλους 4828
1953 4827
εκδόθηκε 4827
µ@@ 4826
Ανατολική 4826
Σχολής 4826
κοινωνία 4824
επιβεβαι@@ 4822
μελέτες 4822
ογεν@@ 4821
συμπεριφορά 4821
κριτικές 4820
δρά@@ 4819
σύμβολο 4818
υκλ@@ 4818
αντιμετωπ@@ 4817
δέχτηκε 4817
φαινόμενο 4815
υπό@@ 4814
Άρη 4813
μόνος 4811
εντολή 4809
παρέχει 4809
ώδης 4803
Υόρκη 4800
Δημήτριος 4799
ανεξάρτη@@ 4796
ίλα 4795
αναγκάστηκε 4795
ρεύ@@ 4795
χρω@@ 4795
1929 4794
ιστορικά 4793
ικος 4791
1954 4789
γάμος 4788
ευρέως 4788
πόλ@@ 4788
δοκ@@ 4785
χωρών 4784
σο 4783
βόρειο 4781
ησι@@ 4781
Βρεταν@@ 4778
έπεσε 4776
Οικονομ@@ 4773
ήσεως 4773
Αυτοκράτορα 4772
παλαιότερα 4772
Αφ@@ 4770
διεξ@@ 4770
κείμενα 4768
ζη@@ 4765
Ομ@@ 4764
επισκ@@ 4764
Δυτικής 4763
αρχίζει 4762
ωρι@@ 4762
γενική 4761
τμήματος 4759
όλ 4759
Όλ@@ 4758
πλατεία 4758
προστατ@@ 4758
σιμη 4758
όμενων 4758
Γκά@@ 4756
ριακή 4756
ειακό 4755
εμφανίζονται 4754
τίου 4754
1935 4753
άτου 4753
ανατολικό 4753
ρίζουν 4753
πρόσβαση 4749
ιατρ@@ 4748
κύριος 4748
ευρώ 4747
Πρά@@ 4746
χθεί 4746
τζ 4743
Μ 4742
σκοτ@@ 4742
διακρι@@ 4740
θανάτου 4740
άμ 4735
ημερολόγιο 4735
ιακά 4731
Δυτική 4729
Αι@@ 4728
αντα@@ 4728
καλύτερα 4728
παρατ@@ 4728
τοπικό 4728
διαλύ@@ 4723
χιλιομέτρων 4723
απέκτησαν 4722
ευε 4721
συγγραφέα 4718
χορηγ@@ 4717
άσματα 4716
έσει 4716
τισμός 4715
συμφων@@ 4712
Νίκος 4711
αρχι@@ 4709
συμμαχ@@ 4708
υδρ@@ 4707
ίδι 4706
Θέ@@ 4705
νόμο 4705
άνεται 4704
αεροπο@@ 4704
εχθρ@@ 4702
μενος 4702
Λάν@@ 4700
φρου@@ 4698
εκλογή 4697
κεν@@ 4697
συνταγ@@ 4697
άμεσα 4696
Άλλες 4695
λίστα 4695
ξέν@@ 4695
n@@ 4694
αγώνων 4694
Μιν@@ 4693
όνου 4691
ουσία 4689
αρχαίας 4688
γης 4687
επιχείρηση 4687
θέα 4687
μυθολογία 4686
μοναδική 4685
στούντιο 4685
Γεω@@ 4684
b 4680
συλλογ@@ 4679
Βουλή 4676
άριος 4676
αγώνας 4676
μεγάλων 4676
νόμ@@ 4674
τορας 4668
Ρού@@ 4667
εκφρά@@ 4667
μονάδα 4666
ύλου 4666
ιζε 4665
συμμετάσχει 4662
Αϊ@@ 4661
Σχ@@ 4661
θεραπ@@ 4661
Σοβιε@@ 4660
υκ@@ 4660
χολ@@ 4660
υθ@@ 4659
δοθεί 4658
πού@@ 4658
Πόλεμος 4657
δολοφονία 4657
αναπαρ@@ 4656
3.@@ 4655
M 4655
λαϊκ@@ 4654
μαθηματ@@ 4654
έλη 4653
γα 4653
ιδιότητες 4653
πεί@@ 4653
παίκτες 4652
δημιουργήσει 4650
ράφ@@ 4650
έντονα 4646
er 4645
περιγράφει 4645
Τμήμα 4642
έδωσαν 4639
τάξης 4639
ώνων 4639
Ε.Π.Σ. 4637
Ξεκίνησε 4636
αναγκα@@ 4634
διαίρεση 4633
διοργανώσεις 4632
Τεχν@@ 4631
ενσωματ@@ 4631
πόδια 4631
τηρίου 4631
μνήμη 4630
πρώτους 4630
τέτοια 4629
δημοσίευσε 4628
T 4626
οθέ@@ 4622
κε@@ 4619
διεθνείς 4618
παίζει 4617
Κινηματογράφου 4616
δημοτική 4613
ερευνη@@ 4613
νών 4611
ιζόταν 4610
Ν. 4609
ηλικίας 4609
1926 4607
ΑΕΚ 4607
ανδρ@@ 4605
ασμό 4605
σαρ@@ 4605
el 4604
πο 4602
δημο@@ 4600
επαρχίες 4599
Ού@@ 4597
ασθεν@@ 4596
Ε. 4595
ρασ@@ 4595
πλήθος 4592
οικονομ@@ 4591
οϊ@@ 4591
ωσ@@ 4591
Βο@@ 4590
αιτ@@ 4590
δες 4590
χη 4590
πρόσωπα 4588
αποστ@@ 4586
είσοδο 4586
τάν@@ 4585
χρόνων 4585
όνας 4585
άσης 4584
κύκλο 4584
ονα 4584
σού@@ 4583
τάφ@@ 4581
ολοκληρω@@ 4578
όροι 4578
αίν@@ 4577
Γιάννης 4576
κατάληψη 4575
πραγματικό 4575
ατο@@ 4573
ούμενο 4572
Καλλι@@ 4571
επέκταση 4571
Κάστρο 4567
μής 4565
σβ@@ 4563
χλμ 4562
γινόταν 4561
Μέσα 4560
εκκλησι@@ 4560
στό 4560
Σύνταγμα 4559
άνοιξε 4557
ανάλυση 4557
σει@@ 4557
Λα 4556
γενν@@ 4554
διάσ@@ 4553
Αιγύπτου 4552
βασικό 4551
es 4549
βαθ@@ 4549
καλή 4549
ia 4548
θεωρούνται 4548
συνθήκη 4546
διαφόρων 4540
χρήματα 4539
αμφ@@ 4538
ικανότητα 4536
μικρότερο 4536
νεφ@@ 4535
παπ@@ 4535
Ιστορικό 4530
ζωνταν@@ 4530
εβδομάδες 4529
τηθεί 4526
ντι 4525
οποιαδήποτε 4525
λαχ@@ 4524
Στάδιο 4523
2η 4522
περιόδους 4522
άδεια 4521
αρχος 4519
γεωργ@@ 4519
1933 4518
Ολλανδ@@ 4518
σεν 4518
Τζέιμς 4517
δέ@@ 4517
άριο 4516
αίες 4516
απειλ@@ 4516
Γενικά 4514
πολύ@@ 4514
ιδιω@@ 4513
πρόεδρο 4513
ασχολήθηκε 4512
μά 4511
Επιστ@@ 4510
αμά@@ 4507
Ουγγαρίας 4506
Αβ@@ 4505
Ιδρύθηκε 4505
μελλον@@ 4504
Θέατρο 4502
Κωνσταντινούπολης 4502
αρχιτεκτονική 4500
θει@@ 4500
Εγ@@ 4499
Υπάρχει 4499
όσον 4498
Ντου@@ 4497
αμ 4497
ψήφ@@ 4497
μεγαλύτερα 4496
οικισμού 4495
δείξει 4492
ισμένα 4489
στάση 4488
Ρόμπερτ 4487
ποταμός 4487
γλυκ@@ 4483
άφησε 4481
απεικον@@ 4480
αυτοκράτορας 4480
εταιρείες 4480
1934 4478
Ρέ@@ 4478
μητέρας 4477
άνουν 4475
οειδή 4475
υποψήφιος 4475
-- 4472
υπήρξαν 4471
Αφρικής 4469
χρονολογείται 4468
Καρόλου 4465
τηλεοπτική 4465
λειτουργίας 4462
ότεροι 4461
φέρουν 4460
Ευρωπαϊκή 4459
Παρισιού 4459
ϊ 4459
δημοσιεύ@@ 4458
1937 4455
νησι@@ 4453
όδου 4451
εννέα 4450
χέρι 4449
χρησιμοποι@@ 4449
πακ@@ 4447
Περσ@@ 4446
φος 4446
πολιτικών 4445
Νικολ@@ 4444
ιστικού 4444
γράφτηκε 4443
γράψει 4442
Κρί@@ 4441
φαντα@@ 4441
παραμ@@ 4439
κ.α. 4437
εύσει 4433
ζωγράφος 4433
μαθήματα 4431
πώς 4431
μάχες 4429
τερο 4429
επιτρέπει 4428
ιακές 4427
Πορ@@ 4426
Συνολικά 4424
αναλάβει 4424
δίσκος 4424
ψηλ@@ 4424
οθε@@ 4423
όργανα 4422
Αυστραλία 4420
1923 4419
Πολων@@ 4419
όλου 4418
ιδών 4417
μι 4417
σχηματ@@ 4417
κεφάλι 4416
φωτο@@ 4416
X@@ 4413
ηλεκτρο@@ 4413
Αχαΐας 4412
Διακ@@ 4412
Τουρκ@@ 4412
Ελευθερ@@ 4409
έντονη 4409
Καλλ@@ 4408
πρότεινε 4408
βιβλιοθήκη 4405
κίνδυνο 4405
παραστάσεις 4405
περιστ@@ 4404
δας 4403
ακτές 4401
εκτέλεση 4398
διο 4397
εύκολα 4395
ογραφ@@ 4392
φάν@@ 4391
κόμ@@ 4390
1932 4389
αιώνες 4389
ενέργειες 4387
ιδιαίτερη 4386
Πολλοί 4385
αρίου 4385
πολιορκία 4385
Κί@@ 4384
ίκης 4384
προπονητή 4384
Εύ@@ 4383
προηγ@@ 4383
μετά@@ 4381
ξεων 4379
Ολυμπιακό 4378
δολοφον@@ 4378
κατεύθυνση 4378
ομώνυμο 4377
πεν@@ 4377
φυλ@@ 4377
όγκ@@ 4377
https 4375
θαν@@ 4375
πρωταγων@@ 4375
υνση 4375
χαρακτήρες 4375
φωτός 4372
Αχ@@ 4371
ριά 4371
υπόλοιπα 4371
αθλητές 4368
Αραβ@@ 4365
εκκλησίας 4365
προγράμματος 4364
Κρήτη 4363
ημένος 4363
έλι@@ 4362
αμυν@@ 4360
Ατ@@ 4359
όφιλ@@ 4358
Χίτλερ 4357
αύ@@ 4356
N 4354
Αμερικανός 4354
δων 4353
πυρην@@ 4353
Τεχνών 4351
Ειδ@@ 4350
αρτη@@ 4350
ητα 4349
Γερμανοί 4347
Ερρίκου 4347
εκτελε@@ 4347
τραγουδ@@ 4347
παρο@@ 4346
ταξίδι 4346
τουριστ@@ 4346
ανών 4344
εγκαταστάσεις 4344
κτίρια 4344
συνέ@@ 4344
παραιτήθηκε 4343
σιν@@ 4343
λάβ@@ 4342
πολιτικά 4342
βασιλική 4341
συμπεριλαμβ@@ 4341
ακ 4340
δίσκου 4338
χώρους 4338
κέντρα 4337
σοσιαλ@@ 4337
φιλοξεν@@ 4337
θλ@@ 4335
κοινων@@ 4335
φά@@ 4335
φήμη 4335
δίκη 4334
αναγνώριση 4333
κάν@@ 4333
Καμπ@@ 4332
‘ 4331
ing 4328
τέτοιο 4327
ημερομηνία 4325
οικοδομ@@ 4324
an 4322
Αρχι@@ 4322
ητήριο 4321
συρ@@ 4318
εγκαταστάθηκαν 4317
Φίλιππος 4316
στυλ 4316
Εν 4314
Να@@ 4312
μικρ@@ 4311
κανένα 4308
μπεργκ 4307
φαιν@@ 4307
Βουλγαρία 4306
ισμένος 4306
μεν 4305
1917 4304
καταρ@@ 4304
ραφ@@ 4303
Κέ@@ 4302
βοηθήσει 4302
Αρχαι@@ 4298
εξέ@@ 4297
Ουρ@@ 4296
θάλασσας 4296
ένιο 4294
κατέλαβαν 4294
Κουρ@@ 4293
Μαγ@@ 4293
τουργ@@ 4287
μετακιν@@ 4285
1925 4283
Πολεμ@@ 4280
γερμ. 4280
ριακό 4280
Στά@@ 4278
υγείας 4278
Τερ@@ 4276
Γκι@@ 4275
στοιχείων 4275
πατρι@@ 4274
Συνθήκη 4272
προσφέρει 4272
διώ@@ 4271
ιστικών 4270
στηκε 4269
εύθηκε 4268
άμεση 4267
Λουδοβίκου 4266
ακτή 4266
όμενου 4266
σα@@ 4264
Σερβ@@ 4263
ανθρωπ@@ 4263
κοινότητες 4263
Κόν@@ 4261
ρωσ@@ 4261
αρχαιότητα 4259
πλούσια 4259
Διαδ@@ 4257
προέρχονται 4257
γων@@ 4255
επανα@@ 4255
περιοδεία 4255
Μεν@@ 4254
κωμ@@ 4254
βολής 4253
βοήθησε 4251
ονία 4250
γραμματ@@ 4249
μικρότερη 4249
ονομάζονται 4248
βρά@@ 4247
ραδιοφ@@ 4247
Ελληνικό 4244
ρικό 4244
εντελώς 4243
συμμετέχει 4243
πίνακες 4240
ανάγκη 4238
ριση 4237
μενη 4236
ήθ@@ 4235
χρυσ@@ 4235
ωνικής 4235
συμπεριλαμβανομένου 4234
απόψεις 4231
Γ. 4230
ιατρική 4229
μειον@@ 4229
οβιτς 4225
πετρ@@ 4225
ρευ@@ 4225
επιτροπή 4224
πόλεων 4223
τρου 4222
βυζαντιν@@ 4221
σμοί 4220
στερε@@ 4219
εκείνος 4218
οδήγησαν 4218
γιους 4217
μεταβλ@@ 4217
πραγματοποι@@ 4217
στρω@@ 4215
Αλ 4213
τεκ@@ 4213
ιων 4211
πουλ@@ 4211
πάν@@ 4210
επεισόδιο 4208
παράσταση 4208
Λίγο 4207
33 4206
G 4206
σύλλογο 4206
άκρο 4205
Κεντρική 4203
κύπελλο 4201
ουσες 4201
Πολιτική 4200
Επειδή 4199
υπέστη 4199
άνδρα 4198
τηλεόραση 4197
ίτσα 4196
Σελ@@ 4195
επίσημο 4194
λω@@ 4193
κρε@@ 4192
κυνηγ@@ 4191
αυλή 4188
δίν@@ 4188
νου@@ 4188
ακαδημαϊκ@@ 4187
Γης 4186
σοβιε@@ 4185
τοί 4185
Σαιν 4184
τελευταίες 4182
ισμοί 4181
πυ@@ 4181
υλικά 4181
δ 4180
περιέχουν 4178
διορ@@ 4172
ποικιλία 4172
πρακτική 4171
πυρο@@ 4169
Βραβεία 4168
λεξ@@ 4168
όντ@@ 4168
τετρα@@ 4167
παρουσίασε 4165
ανατολ@@ 4164
πρεσβ@@ 4164
k 4163
πατρίδα 4163
1914 4162
έργ@@ 4157
Βολ@@ 4152
Πεν@@ 4149
έλλειψη 4149
Μάλιστα 4145
Γουλιέλμος 4144
στρατόπεδο 4144
τω 4144
κάρ@@ 4143
όφων@@ 4143
θια 4141
E 4140
και@@ 4140
συμβούλιο 4139
άδη 4138
διευ@@ 4137
ρές 4137
χλ@@ 4137
ούζ@@ 4136
c@@ 4135
Συγκεκριμένα 4135
ήριο 4135
Μυ@@ 4134
ιδίως 4133
κύτταρα 4133
άτων 4132
προστ@@ 4132
διαμέρισμα 4130
ερευν@@ 4130
πασ@@ 4128
ἐ@@ 4128
στασης 4125
νότιο 4121
προέδρου 4119
Σ. 4118
εκπαίδευσης 4118
ωνας 4116
μπήκε 4115
χειρ@@ 4115
Δανίας 4114
σπάνια 4114
αποφ@@ 4111
εξέδωσε 4111
ς.@@ 4111
χυ@@ 4111
σκηνές 4109
κρίση 4108
Έδρα 4107
ητικές 4106
διάφορους 4105
δαλ@@ 4104
Πρώ@@ 4101
εργάζεται 4100
εξουσίας 4099
κη@@ 4098
πράξεις 4098
αντιπροσωπ@@ 4097
Eurovision 4096
Περιφέρεια 4095
ετή 4095
μικρός 4095
αιώνας 4094
επιφαν@@ 4094
Εταιρείας 4092
ελε@@ 4091
προγράμματα 4091
στρατηγός 4091
άσθηκε 4090
Γάλλος 4088
ποδοσφαιρική 4087
Βελ@@ 4084
Μπό@@ 4084
σχετίζεται 4083
υψηλή 4081
βουλευτικές 4080
ανία 4078
φυλακή 4078
Σερβία 4077
ακών 4077
στρατηγ@@ 4074
θεωρήθηκε 4073
ταινιών 4073
υποστηρίζει 4073
ωγ@@ 4073
La 4072
άνει 4072
h 4071
αστές 4071
εμπορική 4070
Ιερουσαλήμ 4068
εκπομπή 4068
μάτια 4068
σχολεία 4068
βρει 4067
εύουν 4067
μουσικό 4066
χρήσης 4066
διοργάνωσης 4065
βας 4059
θανά@@ 4057
τούτου 4055
άλας 4054
αρν@@ 4053
στικός 4051
διάδοχος 4050
τσο 4050
φτάνει 4048
κτήριο 4047
τρόπος 4047
0@@ 4046
καριέρας 4045
μπά@@ 4045
συμβαίνει 4045
τήθηκε 4045
ακριβ@@ 4044
Μαρίας 4043
Οικ@@ 4043
ιές 4042
Μασ@@ 4041
Επαρχία 4038
ίκη 4036
προσωπ@@ 4033
τρέ@@ 4033
k@@ 4032
m@@ 4031
εισαγωγή 4030
κατε@@ 4030
i@@ 4029
απόδοση 4029
μου@@ 4029
νέας 4028
Κυβέρνηση 4027
ιδρυ@@ 4027
τοποι@@ 4027
ενα@@ 4026
ιδρύ@@ 4025
ώδες 4025
Κεντρικής 4024
Παι@@ 4024
Ιωαννίνων 4022
μητρο@@ 4022
ερείπια 4019
Ρο@@ 4018
Τούρκους 4018
Σιν@@ 4017
μερ 4017
Μπάρ@@ 4015
Αυγ@@ 4012
απόλυτο 4011
μπλ@@ 4011
γραφία 4010
εκπροσωπ@@ 4010
75 4009
τιμήν 4009
αισ@@ 4007
έμβ@@ 4006
τραγουδιού 4006
New 4005
τισμό 4005
εργαζ@@ 4003
λογική 4003
πολη 4003
Βασιλιά 3999
Μπαλ@@ 3999
τέταρτη 3999
αυλ@@ 3997
ευτεί 3997
d@@ 3995
δία 3995
Πέτρος 3994
Τζι@@ 3994
αρντ 3994
σκόπ@@ 3994
τωση 3994
άλλος 3992
έρτο 3992
Νικολάου 3991
Κοινοβούλιο 3990
άξ@@ 3989
ίτσ@@ 3989
u 3988
19ο 3987
36 3987
ροπ@@ 3985
αξιοσημείω@@ 3983
δείχνουν 3983
γν@@ 3982
ήν 3980
ογράφος 3979
1913 3978
1931 3978
βασιλείου 3978
χε 3978
ίδιας 3977
ρισμός 3977
Σοβιετικής 3975
Αστ@@ 3974
πολιορκ@@ 3974
Συμ@@ 3973
πη 3973
τουρνουά 3973
συνολικό 3972
Θ 3971
Ματ@@ 3970
Νότιας 3969
Σοφία 3969
Φραγκ@@ 3969
τουρκική 3968
ούντα 3967
όφ 3965
ανικά 3964
εδάφους 3964
παράγει 3964
ρίστηκε 3964
χειμώνα 3964
Γιου@@ 3963
κόμματα 3962
ριες 3962
παράγοντες 3961
ποδοσφαι@@ 3961
άντρες 3960
αίος 3960
Τρο@@ 3959
εκτιμάται 3959
σκοτώθηκε 3959
ιερό 3958
κανάλι 3956
όπλα 3956
όργανο 3956
Βιβλιοθήκη 3955
γραμμής 3955
μένει 3955
μολ@@ 3955
αγγέλ@@ 3954
δράσης 3954
Αδ@@ 3953
τέτο@@ 3951
ακές 3948
πρίγκιπας 3948
περιοχών 3945
Αποτελεί 3944
ξη@@ 3944
c 3943
επίσκοπος 3942
νησ@@ 3938
μων 3937
34 3936
θέσης 3936
ιδέες 3936
Αυστρία 3935
δικαι@@ 3933
φεστιβάλ 3932
λαμβάνουν 3931
εκείνο 3930
ξεκινήσει 3930
Αζ@@ 3929
βραχ@@ 3928
κυριαρχ@@ 3928
κ. 3927
μενο 3927
τορ 3927
Επίσ@@ 3926
ευτική 3926
εκδηλώσεις 3923
ορισμός 3922
μπαλ@@ 3921
τερματ@@ 3921
Διεθνές 3919
άγει 3918
λογοτεχν@@ 3917
γαλλ@@ 3916
ιδε@@ 3916
Ομοσπονδίας 3915
γει@@ 3914
πιθανόν 3913
άνοιξη 3912
αποχώρησε 3910
συμμετέχουν 3910
Γκλ@@ 3909
νύχτα 3909
Βλ@@ 3908
Φορ@@ 3908
επιστολή 3907
ρίσ@@ 3907
γέφυρα 3906
όρε@@ 3904
a@@ 3903
Μετ@@ 3903
μνημ@@ 3903
έχουμε 3901
αστεροειδής 3901
ισχύ 3901
θρησκεία 3897
Κώστας 3895
αστής 3895
κυκλοφόρησαν 3894
Καθολ@@ 3893
y@@ 3892
ποιητής 3892
Δω@@ 3891
θησης 3890
Κρά@@ 3888
ουδ@@ 3888
ραμ@@ 3888
Νο@@ 3886
Τόμας 3885
Αυστ@@ 3884
περιελάμβανε 3884
ωθούν 3884
διω@@ 3883
μέθοδος 3883
λογαριασμό 3882
γκεν 3881
ζευγάρι 3881
επέ@@ 3880
έλθει 3879
τηρ@@ 3879
Τουρκίας 3878
Τε@@ 3877
διαδρομή 3877
ιάν@@ 3877
ζυγ@@ 3876
οικισμούς 3876
τεράστια 3876
χεί@@ 3876
γνωστές 3875
χρή@@ 3875
βάσει 3874
Παγ@@ 3873
προκαλεί 3871
προ 3870
ρισμό 3870
δεί@@ 3868
4.@@ 3867
βασιλεία 3866
έφτασαν 3864
κή@@ 3864
υψηλής 3864
τισαν 3861
Ευρωπαϊκής 3859
at 3858
ανάγκες 3858
επάνω 3858
τιν 3858
δραστηρι@@ 3857
αναλ@@ 3856
ελέγχου 3856
σκόρερ 3856
Πρωταθλήματος 3854
άντο 3852
συμμαχία 3852
συνεδ@@ 3852
γερ@@ 3851
τοποθε@@ 3850
Αλβαν@@ 3848
ίκ 3848
πλευρές 3848
Εθν@@ 3847
τυπο@@ 3845
σχετίζονται 3843
φρούριο 3843
σύμβουλος 3841
είτο 3840
αραβ@@ 3839
χαμηλ@@ 3839
σύζυγός 3838
προτιμ@@ 3837
Βουλής 3836
Μόσχα 3833
αντιδράσεις 3833
ιον@@ 3833
Αδρι@@ 3832
βίας 3832
μεγέθους 3832
νομοθε@@ 3832
προώθηση 3832
διέταξε 3831
ενεργό 3831
ομένων 3831
απαι@@ 3830
διαν@@ 3830
μακρο@@ 3830
K 3828
πράγμα 3828
τροχ@@ 3828
επιχειρηματ@@ 3826
ισχυρή 3824
νόμου 3823
προσέγγιση 3822
Βάλ@@ 3821
φόρο 3820
ποιν@@ 3819
1900 3818
Μ. 3818
σιμα 3818
Γερμανούς 3817
ισμα 3816
σελίδα 3816
σώματα 3816
τεχνικές 3816
Αυ@@ 3815
ατσ@@ 3815
εϊ 3815
Επιστημών 3812
όνης 3809
μοντέλα 3808
άτης 3807
ασίες 3806
ποδ@@ 3806
θου 3805
λαμ@@ 3805
περιοδ@@ 3805
Ανατολή 3804
Λος 3802
Τύ@@ 3801
Φυσικά 3801
άνθρωπο 3801
οδος 3801
ραν 3801
επιτυχίες 3800
ταξι@@ 3800
Υπουργός 3799
φιλοσοφία 3799
έλι 3797
δουλ@@ 3797
παιχνιδιού 3797
φίλ@@ 3794
απώλεια 3791
εκκλησίες 3791
παραδοσιακά 3791
ταφ@@ 3791
όλης 3791
δρόμους 3789
συνεχώς 3789
χοι 3789
Λαμ@@ 3788
διαπ@@ 3788
προσοχή 3788
Παντρεύτηκε 3787
μπρ@@ 3787
νωρίτερα 3786
νερ 3785
ποσ@@ 3785
ίλι@@ 3784
εκλογών 3782
μητ@@ 3782
πρά@@ 3782
θέτει 3781
πρόσφατα 3781
Ανδρέα 3780
εξαφαν@@ 3780
ρασε 3780
πυροβολ@@ 3779
55 3778
άται 3778
επαναστατ@@ 3778
απογ@@ 3776
ασμένο 3776
τροποποι@@ 3775
αντίσταση 3773
12@@ 3772
r 3772
Στρατ@@ 3772
ασμένη 3772
επαγγελματ@@ 3772
προηγούμενη 3772
ολοκληρ@@ 3770
γυναικ@@ 3769
Ρωμαϊκή 3768
νοτιοδυτικά 3768
ρικ@@ 3768
αστερ@@ 3765
ότερων 3765
βαση 3763
υψηλ@@ 3763
κατοικία 3759
στηρι@@ 3758
Ελληνικού 3757
πυκν@@ 3756
Διετέλεσε 3755
Επικ@@ 3755
εικ@@ 3755
Δημήτρης 3754
ελά@@ 3754
00 3753
κρύ@@ 3753
Εταιρεία 3752
κατηγορ@@ 3752
Ιστορικά 3751
αποσπ@@ 3751
κάποιον 3751
όνιο 3750
παίρνει 3749
γρ@@ 3748
μός 3748
περάσει 3748
ΠΑ@@ 3747
μισθ@@ 3747
φορντ 3747
ενώσεις 3746
ρόλους 3746
στικού 3746
βορειοδυτικά 3745
ισσας 3745
μεσαι@@ 3745
Ρωμαϊκής 3744
Μεγάλου 3743
εξαίρεση 3743
θημα 3743
κοιλάδα 3739
Γαλλ@@ 3738
Δρά@@ 3738
ειακή 3738
Δημοτικό 3737
ολογικής 3737
συνελήφθη 3736
εικόνες 3735
3η 3734
Μόσχας 3734
άου 3733
κανόνες 3733
μπλε 3733
προϊόντων 3733
Ανακαλύφθηκε 3731
επιγραφή 3731
επιστημονική 3731
άνθ@@ 3730
ακου@@ 3728
πιθανό 3728
ψευδ@@ 3727
Ζώνης 3726
άλης 3725
αρχών 3724
ισπαν@@ 3724
επιθυμ@@ 3723
ητό 3723
Ακόμη 3721
ετές 3721
συνοικία 3721
1921 3718
ίλλ@@ 3715
προσθήκη 3712
άλλου 3710
38 3709
κόκκινο 3709
καύ@@ 3708
αντικ@@ 3707
Κ.@@ 3705
πλάτος 3705
p@@ 3704
Φερ@@ 3704
κυβερνήτης 3704
σκηνοθέτης 3704
βολή 3703
άρης 3701
κερδίζοντας 3701
τουρκ@@ 3700
Γκρ@@ 3699
Εκείνη 3699
Εξωτερικών 3699
βασική 3698
08 3697
βουλγαρ@@ 3697
ρίζονται 3697
ηττήθηκε 3696
δασ@@ 3694
παγκόσμιο 3694
en 3692
βε@@ 3692
έστερ@@ 3690
Σ.@@ 3687
μεγάλωσε 3687
στόχ@@ 3686
τ.χλμ. 3686
Νυμφεύτηκε 3685
λογοτεχνία 3685
αυτοκρατορίας 3684
ηφ@@ 3684
ταξε 3682
Θεωρείται 3681
μιο 3681
φαλ@@ 3680
γενιά 3679
ευρήματα 3679
Μεγάλο 3677
αντικαταστάθηκε 3676
διαρκ@@ 3676
εθνικές 3676
έρευνες 3675
Πάρ@@ 3674
ευνο@@ 3674
ματικών 3674
di 3673
Επανάστασης 3672
Ουγγαρία 3672
λύση 3672
γένος 3671
εκτιμ@@ 3671
τραπεζ@@ 3671
εγκατέλειψε 3669
Πρωτο@@ 3668
for 3667
δυτικό 3667
χου 3667
πωλήσεις 3666
σκην@@ 3666
φή 3666
Οίκου 3665
έληξε 3665
ινγκ@@ 3665
μπο 3665
οθ@@ 3665
ατικής 3664
νους 3664
ρόλος 3662
Πλά@@ 3660
αινε 3660
αιρε@@ 3660
μαθ@@ 3660
τεσσάρων 3660
τιση 3660
Αντίθετα 3658
ανο@@ 3658
καλλιτεχν@@ 3658
αμφι@@ 3657
εβιτς 3657
τόν@@ 3657
Καπ@@ 3656
καταναλ@@ 3655
Ηπείρου 3654
Ταρ@@ 3654
ήλ 3654
κατάλ@@ 3654
Κόρ@@ 3653
δίου 3653
ροφής 3653
συνολική 3653
Φι@@ 3652
Π. 3651
ασπ@@ 3651
Ρωσ@@ 3650
ζήτημα 3649
ύφος 3649
ανέβηκε 3648
οθωμαν@@ 3648
φα 3648
5.@@ 3647
Πειραιώς 3647
Σουηδία 3647
τί 3647
κάνοντας 3646
πισ@@ 3646
Προσ@@ 3645
τοπικές 3645
ογραφίας 3644
g@@ 3641
Αριστο@@ 3640
42 3639
αποκλει@@ 3639
Άλλα 3638
τερα 3638
Φρειδερίκος 3637
ηματική 3637
Ηλιακό 3635
τομείς 3635
1,@@ 3634
απόκ@@ 3634
ωτικό 3634
φημ@@ 3633
χρονη 3633
μείνει 3630
επεισόδια 3627
ρέφ@@ 3627
είχ@@ 3626
εδρ@@ 3626
20ού 3625
Κρατ@@ 3625
κυπέλλου 3624
Εθνών 3623
Χατζ@@ 3623
επέτρεψε 3623
διαχει@@ 3622
ναζ@@ 3622
στήρι@@ 3622
ποι 3621
άσσ@@ 3620
παλι@@ 3620
συνέβη 3619
Καθ@@ 3618
μετέ@@ 3618
Βορ@@ 3617
League 3616
αποτελούσαν 3615
δικές 3615
ωμένες 3615
Τζέ@@ 3613
γαμ@@ 3613
καταστράφηκε 3613
έθεσε 3612
ίλι 3612
ειδική 3612
ειρήνη 3612
κατάφεραν 3612
II 3611
Έλ@@ 3610
Ανδρέας 3610
Μηχαν@@ 3610
μετάφραση 3609
διατηρεί 3608
άρων 3607
βιβλίων 3607
χρη@@ 3606
Παρόλο 3605
λέξεις 3604
πήραν 3604
σύγκριση 3603
ενισχύ@@ 3602
πρότυπο 3602
λις 3600
Καταλ@@ 3598
βορειοανατολικά 3598
δέχεται 3598
εργασ@@ 3598
ινά 3598
κινηματογράφου 3597
αφιερ@@ 3596
δικτύου 3596
αίθουσα 3595
πεπ@@ 3595
ατικά 3594
Βερολίνο 3592
παρόλο 3592
Θάλασσα 3591
Λυ@@ 3591
εγγ@@ 3591
ολοκλήρωσε 3591
υπηρέ@@ 3590
ανοικ@@ 3589
δίνοντας 3589
κόμβ@@ 3588
Σαβ@@ 3587
παρουσιάστηκε 3585
ομαδ@@ 3584
συνεργάστηκε 3584
απλώς 3583
αρμ@@ 3581
ψήφων 3580
όδων 3580
Σαξονίας 3579
στόχος 3579
ήλθαν 3578
b@@ 3577
συμπεριλαμβανομένης 3577
όρισε 3576
ώνιο 3576
πεντα@@ 3575
γεννημένος 3574
παραγωγός 3574
πλευ@@ 3574
συνδέ@@ 3574
ολόκληρο 3572
37 3571
κης 3571
αναφέρουν 3569
Αμφ@@ 3568
t@@ 3567
εβδομάδα 3567
όμενους 3567
1910 3565
λευκό 3565
Κίνας 3564
αγγλική 3564
νοτιοανατολικά 3564
Βενετία 3563
ελπ@@ 3563
ευρύτερη 3563
νοσοκομείο 3562
Διεθνούς 3561
ανε 3560
συνάρτηση 3559
600 3558
πέρασμα 3558
παιδιών 3558
εκμεταλλ@@ 3557
εποχών 3557
καταλάβει 3557
περ 3555
κτη@@ 3554
μονής 3554
πλανήτη 3554
Records 3551
αιτία 3551
αυτ@@ 3551
επιστ@@ 3551
ηχογραφ@@ 3551
x@@ 3550
σαλ@@ 3550
Καρλ 3549
εξω@@ 3549
ριμπάουντ 3549
σες 3549
ραι@@ 3548
ύρων 3548
εντα@@ 3547
ροκ 3547
μέρους 3546
μορι@@ 3546
κληρονομ@@ 3545
αμερικανική 3544
13@@ 3543
οντος 3543
Σουηδίας 3542
ΕΕ 3541
προκρι@@ 3541
συμμετοχής 3541
φωνή 3540
Σέρ@@ 3539
διοικητικά 3539
πρώτων 3539
Βίκ@@ 3538
Α.Ο. 3537
αυτοκίνητο 3537
κάστρου 3537
Μο@@ 3536
ΕΛ 3534
ζώων 3533
Μαυ@@ 3532
Βυζαντιν@@ 3531
Περιγραφή 3531
χές 3531
σχέ@@ 3530
Μάικλ 3529
γκου@@ 3529
αληθ@@ 3528
αντέ@@ 3527
ασφάλεια 3527
συνδεδε@@ 3526
άζονταν 3525
πρεμιέρα 3525
Οθωμανική 3524
χτ@@ 3523
αξίας 3521
ισμών 3521
ούλα 3520
τρας 3520
όνες 3520
επικρατ@@ 3516
πραγματοποιήθηκαν 3516
Διοικ@@ 3515
τάση 3514
τίθεται 3513
f 3512
ικου 3512
συνέχ@@ 3512
ρώ@@ 3511
καθιερ@@ 3509
ούχος 3508
τάρ 3507
ψία 3506
Γεώργιο 3504
Καλιφόρνια 3504
ανώτερ@@ 3504
Βιέννη 3503
εταιρία 3503
ξεκινά 3503
Λιβ@@ 3502
Συγκ@@ 3501
λιών 3501
ρικών 3501
προφ@@ 3500
ότα 3500
Χι@@ 3499
συγγεν@@ 3499
Νά@@ 3498
έψει 3498
αριστοκρατ@@ 3498
αζαν 3497
πολιτισμού 3496
αποφοίτησε 3495
24@@ 3494
μού@@ 3494
Παναγίας 3493
ξανα@@ 3493
πιθανότητα 3492
Δούκα 3490
πληροφορ@@ 3490
Y@@ 3489
World 3487
Άντζελες 3487
κατάλογο 3487
Προσωπική 3486
έρων 3486
καθήκοντα 3486
ωσή 3486
αεροσκάφη 3484
μπ 3484
τως 3484
ηγέτης 3483
όμενης 3483
κατείχε 3482
άδι 3480
κλί@@ 3480
έλευση 3479
μί@@ 3478
υχ@@ 3478
Μί@@ 3477
δεύτηκε 3477
Ανδ@@ 3475
Θερ@@ 3475
Πο@@ 3475
λοιπόν 3474
λέγοντας 3473
στίχους 3473
σφαι@@ 3473
σίες 3470
ωματ@@ 3469
αυτοκ@@ 3468
διεύθυνση 3468
εθελον@@ 3468
ενημερ@@ 3468
νό 3468
πολιτεία 3468
ρίστηκαν 3468
ότα@@ 3468
Ζω@@ 3467
Πέτρου 3466
στρο@@ 3466
Βενετίας 3465
διοίκησης 3465
εω@@ 3465
τέταρτο 3465
Χιλ@@ 3464
άτ 3464
διαγ@@ 3464
λο@@ 3463
υπέρ@@ 3463
ιστορίες 3462
στρατιωτικό 3462
όμιλο 3462
σιμες 3461
καφ@@ 3460
εξετά@@ 3459
θεμελι@@ 3459
προσαρτήθηκε 3459
Κατάλογος 3458
φο 3458
συμπτώματα 3457
64 3456
ιακής 3456
ιτ 3456
συντηρη@@ 3456
υλικού 3456
στρατιωτικές 3454
ψήφους 3454
Κάν@@ 3453
ιμα 3453
νομίσματα 3453
πράγματα 3452
τρίτος 3451
65 3450
διέθετε 3449
τήρια 3449
Βουλγαρίας 3448
είδε 3448
τισε 3447
Μεγάλ@@ 3446
πύργ@@ 3446
Θα 3444
χα 3444
θηση 3443
άστ@@ 3442
Κασ@@ 3441
Χα@@ 3441
εξελ@@ 3441
σχετική 3441
800 3440
Όλα 3440
Βασιλιάς 3440
Πάπας 3440
150 3438
αρχίσει 3438
γραμματέας 3438
προηγουμένως 3438
δει 3437
καλύτερο 3437
πτυχ@@ 3437
ρεμ@@ 3437
ύνει 3437
Αζερμπαϊτζάν 3436
Μεγάλης 3436
τίν 3436
βάλει 3435
Πάπα 3434
ανησυχ@@ 3434
απευθείας 3434
απέχει 3433
αλία 3432
πλοκ@@ 3432
ρυθμό 3432
φύλλα 3432
παραγ@@ 3431
περιοδικά 3431
πων 3431
Διεθνής 3430
προστατευ@@ 3429
ανεβ@@ 3428
διευθύν@@ 3428
ράβ@@ 3427
καιρ@@ 3426
Ιωσήφ 3424
αεροδρόμιο 3423
διακρίσεις 3423
BBC 3422
τικο 3419
ώνου 3419
U 3418
single 3418
2ο 3417
οργάνωσης 3417
ζούσε 3416
ιταλική 3416
14@@ 3415
αριστερ@@ 3415
αντίπαλο 3414
τειν@@ 3414
Χέν@@ 3413
γραφείο 3413
Τού@@ 3411
ολόγ@@ 3411
προσωπική 3411
1915 3410
Καποδίστριας 3409
ετε 3409
Περιφερειακή 3408
βάθος 3408
διακή 3407
ελεύθερ@@ 3407
κινήματος 3407
παραδοσιακ@@ 3407
Ακολούθησε 3406
Ντέιβιντ 3406
διαφορετική 3406
αδελφού 3405
δευτερ@@ 3405
τελετή 3405
ανοίγ@@ 3404
48 3403
Τζάκσον 3403
οργανώσεις 3403
πόλεως 3403
Γερμαν@@ 3402
κόστος 3402
μετο@@ 3402
δημιουργώντας 3401
εκατομμυρίων 3401
Σεβ@@ 3400
ήλθε 3400
Αρι@@ 3399
Ποδοσφαίρου 3399
μάζα 3399
μικρού 3399
τόπο 3399
αίματος 3398
ουμ 3398
καλύπτει 3397
τετρ@@ 3397
z@@ 3395
άλια 3395
περικ@@ 3395
σταμάτησε 3395
άσματος 3394
οριστεί 3394
τιμήθηκε 3394
τιου 3394
γκερ 3393
στοχ@@ 3392
j@@ 3391
Κύριας 3391
περιοδικού 3391
νερά 3389
αντίτυπα 3388
μεταγενέστερ@@ 3388
ολοκλήρωση 3388
1908 3386
Υπουργ@@ 3385
ανθρώπου 3385
νος 3385
γραφές 3384
δικαιωμάτων 3384
Άγγλ@@ 3383
Ρουμανία 3383
Τί@@ 3383
διαφορές 3382
Συμμετείχε 3380
αποτελ@@ 3379
χθηκαν 3379
Έρ@@ 3378
διεξαγωγή 3377
καμ@@ 3377
σχεδί@@ 3377
σύνδεση 3377
πληροφοριών 3375
επιτρ@@ 3374
κράτησε 3374
Λίν@@ 3371
Σημαν@@ 3369
αδέλφια 3369
λεν 3369
Γερμανός 3368
ελληνικών 3368
Γιού@@ 3367
Ιερά 3367
αρχείο 3367
πολλαπλ@@ 3367
Θεού 3366
Γαλλική 3365
Πολυ@@ 3365
ασχολείται 3364
αναγνωρίστηκε 3361
όφσκι 3361
Ελένη 3360
ρικός 3360
Πρώτα 3359
Εισ@@ 3358
γυμνα@@ 3358
κόπ@@ 3357
υιοθε@@ 3357
προσπαθεί 3356
ασχολ@@ 3355
χαρακτήρας 3355
ροβ@@ 3354
ειακές 3353
επρόκειτο 3353
ερευνητές 3353
ζοντας 3353
οδηγήσει 3353
φυλή 3353
Τέχνης 3352
ρίζες 3352
συγκέντρωσε 3352
επόμενες 3351
αρχηγ@@ 3349
ωδία 3349
Πάν@@ 3348
ανάκ@@ 3348
βάλλει 3348
μεί 3348
μες 3347
αντίπαλ@@ 3345
κίνησης 3345
κλπ. 3345
βυθ@@ 3344
ίστας 3343
βέρ@@ 3343
επιθε@@ 3343
οριστικά 3343
Α1 3342
άκα 3341
ίτα 3341
αγάπη 3340
απώλειες 3340
Τούρκοι 3339
μέρει 3339
ώτες 3338
Κρο@@ 3337
Συγ@@ 3336
αστυνομία 3335
δεύτερης 3335
θαλ@@ 3335
ονίας 3335
στούν 3335
Πανελλήνιο 3334
τονία 3334
διαφορ@@ 3333
προσφορά 3333
απε@@ 3332
λόγια 3332
αίνοντας 3331
αυτοκρατορ@@ 3331
ρικές 3330
στρατο@@ 3330
Μακεδον@@ 3329
Σχε@@ 3329
ερασι@@ 3329
ητικών 3328
διεθνές 3327
στέγ@@ 3327
Λά@@ 3326
Μπορεί 3325
ακρο@@ 3325
όλογ@@ 3322
όντας 3322
εθ 3321
μπαν@@ 3321
θεσης 3320
φυλλ@@ 3318
15@@ 3315
βομβαρδι@@ 3315
ροή 3315
συνεργασίας 3315
εξυπηρε@@ 3314
επιστήμη 3312
ρίζεται 3312
ελευθερία 3311
Πρόεδρο 3310
χρησιμοποιήθηκαν 3310
Μπά@@ 3309
ώδεις 3308
* 3307
θάνατος 3307
μάς 3307
εκλογ@@ 3306
αγγλ. 3304
γε@@ 3304
ασμού 3303
χρει@@ 3303
Ντί@@ 3302
γενικές 3301
κατευθύν@@ 3300
π. 3300
ιακών 3299
τανίας 3299
αμμ@@ 3298
συνήθ@@ 3298
Βόλ@@ 3297
ριας 3297
Ουκρανία 3296
θή@@ 3296
ωνικών 3295
Ντο@@ 3293
ειρην@@ 3293
πάει 3292
δρα 3291
ύλη 3291
αρμον@@ 3289
ακός 3288
σεξουαλ@@ 3287
ξύλ@@ 3286
φρ@@ 3286
John 3285
ύψους 3285
Δικα@@ 3284
πιν@@ 3284
πουν 3283
περιγραφή 3282
Μεσσηνίας 3281
διαχείριση 3281
τοπικής 3281
ωτές 3281
ίτ 3280
μορ@@ 3280
περιορι@@ 3280
στίβου 3280
or 3279
διάκριση 3279
ούδ@@ 3278
αγωνιστεί 3277
κρ@@ 3276
περιλάμβανε 3276
πρωταθλητής 3276
κέρ@@ 3274
πλού@@ 3274
συγκρούσεις 3274
δήμαρχος 3273
νέους 3272
ριακ@@ 3272
βιν@@ 3271
κόρες 3271
προωθ@@ 3271
Κομνην@@ 3270
εύονται 3270
κινηματογραφ@@ 3270
τευσε 3270
αλκο@@ 3269
ώρας 3269
Πολιτ@@ 3267
γαρ@@ 3267
στηρίου 3267
αυτοκρατορία 3266
ολόκλη@@ 3266
φυγ@@ 3266
von 3265
ιδρυτής 3265
κάλεσε 3265
μ.@@ 3264
απάντηση 3263
ητες 3263
παρακολουθ@@ 3263
αλο 3262
αφήνοντας 3261
Ολυμπιακός 3260
σύνδεσμοι 3258
εκλεγ@@ 3257
πίστη 3257
Πρόγραμμα 3256
λαό 3256
47 3255
Βερολίνου 3255
βράδυ 3255
καπν@@ 3255
νόμος 3255
1916 3254
39 3254
αρκετούς 3254
τοπο@@ 3254
$ 3253
πυρήνα 3253
έρες 3252
έτες 3252
βενζ@@ 3252
ελληνικές 3252
ανακάλυψη 3251
ώτης 3250
μέθοδο 3249
Al@@ 3248
Γκέ@@ 3248
ζούσαν 3247
ορκ@@ 3247
σίου 3247
βαθμολογία 3246
ρίζει 3246
Ολλανδία 3245
περιουσία 3245
εμπειρία 3244
αιθ@@ 3243
ουζ@@ 3241
1ο 3240
? 3240
Λύ@@ 3240
σκηνοθε@@ 3240
θεάτρου 3239
ανακαλύ@@ 3238
εξηγ@@ 3238
κλήθηκε 3238
Ar@@ 3237
διπλό 3237
συνηθ@@ 3237
ωνο 3236
ονόματος 3235
Γιάννη 3234
Υπ@@ 3234
ιταλ@@ 3234
κινηματογράφο 3233
χώρησαν 3233
αξιωματού@@ 3230
τύπων 3230
ωμένος 3230
αιχμαλω@@ 3229
ζητήματα 3229
ποσότητα 3229
σιών 3229
στηκαν 3229
δέν@@ 3228
εσωτερική 3227
λό@@ 3225
οβα 3225
σταση 3225
Εξωτερικοί 3224
ασθενείς 3224
αστρονομ@@ 3224
Σφ@@ 3223
εστι@@ 3223
άδια 3222
ιάν 3222
δημιουργήθηκαν 3220
λίγ@@ 3220
τοντας 3220
Κω@@ 3219
ιδίου 3219
ικανοποι@@ 3219
σπι@@ 3219
έρευνας 3218
αστρονόμο 3217
τινγκ 3216
άτι 3215
γας 3215
βάθ@@ 3213
ανής 3212
δήποτε 3212
ελα@@ 3212
έφθασε 3211
αγοράς 3211
κινη@@ 3211
επίσκοπο 3210
φυσ@@ 3210
Ψυχ@@ 3209
διάλυση 3209
πρωταθλήτρια 3209
ρωμαϊκ@@ 3209
44 3208
Β. 3208
αγωνιζόταν 3208
ενότητας 3208
ρεαλ@@ 3208
Αξι@@ 3207
Τις 3206
άνες 3206
συνδε@@ 3203
ἀ@@ 3203
1905 3202
τία 3202
Πολλά 3201
έλο 3200
συναυλίες 3200
κομητεία 3199
πραγματική 3199
στρια 3199
παντρ@@ 3198
Μεσσ@@ 3197
θρησκευ@@ 3197
σημασίας 3197
z 3196
άρθρα 3196
αφηγ@@ 3196
βιο@@ 3196
δημοτικό 3196
ωκε@@ 3196
52 3195
αναλογ@@ 3195
ισμένες 3195
υπηρεσιών 3195
κέν@@ 3194
όλι@@ 3194
Επί 3193
δομές 3193
εβραϊκ@@ 3193
σχηματισμό 3193
Θράκης 3192
Ον@@ 3192
Ινδ@@ 3191
επιβλ@@ 3191
χτυπ@@ 3191
φίλος 3189
ιέ 3188
αυστη@@ 3187
18ου 3186
λεί 3186
ούχο 3186
You 3185
συνεχίζει 3185
Απόλλωνα 3184
έρχονται 3184
Ch@@ 3183
Πέρ@@ 3183
ινη 3183
ομίλου 3183
Απέχει 3182
Γέν@@ 3182
αναλυ@@ 3182
μόνον 3182
προέλευση 3182
0.000 3181
όλε@@ 3181
ράκ@@ 3180
ΕΣΣΔ 3179
Ουκρανίας 3179
Σύν@@ 3179
Διοικητικά 3178
γνώση 3178
εκτίμηση 3178
αίμα 3177
δέχθηκε 3177
ανακηρύχθηκε 3176
κινητήρα 3176
πραγματικά 3176
Βασιλική 3174
βιβλίου 3174
επαγγελματική 3174
as 3173
ούργ@@ 3173
όπλων 3173
Δημητρίου 3172
κόλ@@ 3172
πολεμική 3172
ιακού 3170
Ιουδ@@ 3168
Μαργαρίτα 3168
αθλητής 3168
ητη 3168
απού@@ 3165
τονται 3165
κατοχής 3164
σχεδιασμό 3164
αξιόλογ@@ 3163
ύβ@@ 3163
νευρ@@ 3162
αντα 3161
ασθένεια 3160
σημαντικός 3160
τοποθετήθηκε 3160
Βί@@ 3158
συστ@@ 3158
υγεία 3158
χρειάζεται 3158
Πορτογαλίας 3157
εργοστάσιο 3157
ζωγραφ@@ 3157
κυπ@@ 3157
ολογικού 3157
τόπος 3155
Α2 3153
εορτα@@ 3153
l@@ 3152
Κάρολο 3152
ιταλικά 3152
Κυβερν@@ 3151
προϊόν 3151
ορεινό 3150
Μολ@@ 3149
Πατρών 3149
16@@ 3148
Πλα@@ 3148
ολυμπ@@ 3148
δερ@@ 3147
5.000 3146
Ίν@@ 3145
Ρι@@ 3145
γλυπ@@ 3145
διαλ@@ 3145
επίδ@@ 3145
δολοφ@@ 3144
ζωγράφ@@ 3144
αρχηγό 3143
ευγενείς 3142
Εβρα@@ 3141
Γιουγκοσλαβίας 3140
Ταϊ@@ 3140
μπερτ 3140
ρίζ@@ 3140
μοιρά@@ 3139
προκαλέσει 3139
αστή 3138
πή@@ 3138
στήρια 3138
μάρ@@ 3137
ομώνυμης 3137
Σολ@@ 3134
ιμη 3134
όμα 3134
ΚΚΕ 3133
ίκι 3133
αρχιτεκτον@@ 3133
γεωργία 3133
λλο 3132
τόμ@@ 3132
αντιμετώπισε 3131
κες 3131
φωτογραφ@@ 3131
ύλης 3131
σήμα 3130
ισμ@@ 3129
Εμ@@ 3128
Οθωμανικής 3128
αναφερ@@ 3128
σλαβ@@ 3128
Αθλη@@ 3126
αρχο 3126
Κόκκιν@@ 3125
Παρ 3125
τημα 3124
καθολ@@ 3123
Καλύτερ@@ 3122
σπουδών 3122
όπο@@ 3122
Ο.@@ 3121
ανική 3121
el@@ 3120
διαμερίσματα 3120
πολιτισμό 3120
Έκανε 3119
βάσεις 3119
γεμά@@ 3119
εφαρμογές 3119
τοπικά 3119
Τα@@ 3118
γάμου 3116
περιορ@@ 3116
Πρώτη 3115
ηγέτες 3114
κεντρ@@ 3114
Πετ@@ 3113
συμβολή 3113
δηλ@@ 3112
προτού 3112
οικισμοί 3111
ΑΣ 3110
Αστεροειδών 3110
Πον@@ 3110
Σκωτίας 3110
αιότητα 3110
έντα 3109
ονες 3108
Πολλές 3107
εκτετα@@ 3107
πού 3107
Αλβανία 3106
αστικές 3106
ελευθερ@@ 3106
Δευ@@ 3105
ελεύθερη 3105
41 3104
Υπερ@@ 3104
στενά 3104
Υ 3103
αστικής 3103
ευρ@@ 3103
6.@@ 3102
οικονομικών 3102
ύρωση 3102
δυναστείας 3101
ωδ@@ 3101
συνδέονται 3100
αρχαίο 3099
ατς 3099
τραγουδίστρια 3099
on@@ 3098
βολές 3098
κλε@@ 3098
Γιαν@@ 3096
άρκα 3096
ανακαλύφθηκε 3096
οτεχν@@ 3096
πρόσφυγες 3096
τορες 3095
κώδικα 3094
εκείνης 3093
εμπορικό 3092
04 3091
κατέληξε 3091
οίκ@@ 3089
τάξεις 3088
τηλεοπ@@ 3088
όξ@@ 3088
ξεπερν@@ 3087
τρέχουσα 3087
ονας 3086
τραγ@@ 3085
φαρμακ@@ 3085
αρχεία 3084
ουσας 3084
παλιό 3084
δημοφιλής 3083
Μητρο@@ 3082
ατομ@@ 3082
J 3081
ar 3081
Χαλκ@@ 3081
μασε 3081
ρωσική 3081
μεταφρά@@ 3079
ποσό 3079
Στρατηγ@@ 3078
Ευαγγελ@@ 3076
Σουηδ@@ 3076
λήξη 3076
πρακ@@ 3076
Τρα@@ 3075
τριβ@@ 3075
λόγου 3073
παλάτι 3073
συνεχίσει 3073
ύχ@@ 3073
θήκη 3072
πιστεύεται 3072
• 3072
συνθε@@ 3071
man 3070
ατμ@@ 3070
Λόρ@@ 3066
Νήσ@@ 3064
αλλάξει 3064
επαγγελματίας 3063
θέλ@@ 3063
ζητ@@ 3062
κοινωνικής 3062
οικονομικής 3062
περσ@@ 3060
τιδα 3060
ΚΑ@@ 3059
ωνικού 3059
Τέ@@ 3057
1906 3055
βουλ@@ 3055
περιεχόμενο 3055
Ανάμεσα 3054
δώδεκα 3054
Συνέλευση 3053
Χρησιμ@@ 3053
τυλ@@ 3053
ϋ 3053
Μεσαίωνα 3052
κανονική 3052
διαχωρι@@ 3051
δό@@ 3050
θέσει 3050
οστά 3050
πάπα 3050
διαμάχη 3049
καθ 3049
νικητής 3049
πρότυπα 3049
αμοιβ@@ 3048
κατανομή 3048
πει 3048
φυτά 3048
μέτρ@@ 3047
ρεί 3046
συνθέτης 3046
85 3045
ΚΑ 3045
δύσκολο 3045
θρα@@ 3045
Πυ@@ 3044
διατήρηση 3044
άρας 3043
ητικής 3042
μαύρο 3042
οχυρ@@ 3042
πει@@ 3042
Ινδίας 3041
Ναός 3041
απέτυχε 3040
εύοντας 3040
Βουλγαρ@@ 3038
επιχειρήσεων 3038
εντυπωσι@@ 3037
Ελβετία 3036
Πάτρα 3036
ανέπτυξε 3036
κηρύ@@ 3036
μέτωπο 3036
προηγούμεν@@ 3036
− 3036
Βισ@@ 3034
Αιγ@@ 3033
αποσύρθηκε 3033
κοινοβουλευ@@ 3033
δυνατό 3032
εξασφαλ@@ 3030
θέλει 3030
καλύ@@ 3030
ρωσικά 3030
τίστηκε 3030
align 3028
γενιάς 3028
Δου@@ 3027
καταλ@@ 3027
Βοσνίας 3026
Λογ@@ 3025
υψηλότερη 3025
ισχύει 3024
μμ@@ 3024
ακολουθούν 3023
άσου 3022
Μεγαλ@@ 3021
λειτουργούν 3021
ταξινομ@@ 3021
Λατ@@ 3020
ναύ@@ 3020
παντρευτεί 3020
ότου 3020
κινεζ@@ 3019
πάρκο 3019
Ηρακλείου 3018
αριθμού 3018
ντου@@ 3018
Γκρέ@@ 3017
ασμ@@ 3015
δυνατή 3014
ιμος 3014
ψηφοφορία 3014
νι 3013
ορειν@@ 3013
χρωματ@@ 3013
διαθέ@@ 3012
πληρω@@ 3012
ηπ@@ 3011
τεται 3011
07 3010
Τζορτζ 3008
συνάντηση 3007
τακτική 3007
άχ 3006
des 3004
er@@ 3003
Αρκ@@ 3003
εγκατάσταση 3003
διανο@@ 3002
μπάσκετ 3002
εξαιρε@@ 3001
ρων 3001
διν@@ 3000
φέρ@@ 2999
Music 2998
άξει 2998
εξωτερ@@ 2998
μαρτυ@@ 2998
θεωρεί 2997
μαχος 2997
πλησι@@ 2997
έλεγ@@ 2996
γίνουν 2996
δημοσιογράφος 2996
τελείωσε 2995
ανακοιν@@ 2993
ανεξάρτητα 2992
πρώ@@ 2992
βουνά 2991
δικηγόρος 2991
ισο@@ 2991
θεατρ@@ 2990
ομορφ@@ 2990
ΐα 2989
Ηρακλή 2989
αλε@@ 2989
προκύπτει 2989
υπεύθυνος 2989
φθινόπωρο 2989
έγγραφα 2988
λιου 2988
Πασ@@ 2987
χλω@@ 2986
Χάν@@ 2985
τιά 2985
v@@ 2983
γνώμη 2983
επανάστασης 2983
διαστημ@@ 2982
Μπέν@@ 2981
θησε 2981
4η 2980
βασικά 2980
αναφ@@ 2979
Άρης 2978
Μαχ@@ 2978
ασμένα 2978
λαού 2978
πολιτών 2978
άγαλμα 2977
αρχιτεκτονικής 2976
έτο@@ 2975
λεπτό 2975
σοβαρά 2975
τείχη 2975
ετήσια 2974
καλλιέργεια 2974
τρό@@ 2974
43 2973
καθημερ@@ 2972
ρίδας 2972
ρίσει 2972
f@@ 2971
αναφέρθηκε 2971
στιγ@@ 2971
r@@ 2970
δημοψήφισμα 2970
λατιν@@ 2970
ζωγραφική 2968
Κωνσταντίνο 2967
κοινωνίας 2967
ρισμού 2967
ar@@ 2966
Στέφανος 2966
στροφή 2966
ότερης 2966
Νορβηγία 2965
στόλου 2965
πρωταγωνίστησε 2964
Disney 2963
ωτών 2963
Χριστού 2962
μπουρ@@ 2962
νων 2962
Αλεξάνδρου 2961
φιλοσοφ@@ 2961
Κατηγορίας 2960
δάση 2960
ιόν 2959
1904 2958
συλλογές 2958
χωρι@@ 2958
Αναφέρεται 2957
Δημο@@ 2957
επικεντρ@@ 2957
μεταφρα@@ 2957
αγωγής 2956
διαστ@@ 2956
ωτική 2956
βρο@@ 2955
διαστάσεις 2955
μπορ@@ 2955
ΠΑΟΚ 2954
είκοσι 2954
μεί@@ 2954
παρασκευ@@ 2954
βουνό 2953
μουσ@@ 2953
46 2952
Ποδοσφαι@@ 2952
εβο 2952
συντον@@ 2952
τετραγ@@ 2952
χρονικά 2952
Windows 2951
en@@ 2951
άκος 2951
ιον 2951
Τοπ@@ 2950
διαχω@@ 2950
Παναγ@@ 2949
μοιάζει 2949
λιβ@@ 2948
τρόπους 2948
κατακτ@@ 2947
Παρα@@ 2946
Χορ@@ 2946
καφέ 2946
ς- 2946
ώτη 2946
ρίζοντας 2943
βουλευτές 2942
γραφική 2942
ητικού 2942
κάλ@@ 2942
οχής 2942
Εάν 2940
ανθρώπινη 2940
λια 2939
προσεγγ@@ 2938
διατήρησε 2937
Χέρ@@ 2936
λογίας 2936
παρατηρούσε 2936
ποικίλ@@ 2936
Ούγ@@ 2935
Γεωργ@@ 2934
25@@ 2933
95 2933
ανέβ@@ 2933
αναρ@@ 2933
γύ@@ 2933
σινγκλ 2933
Ιαπωνίας 2932
έδρ@@ 2932
αίσθηση 2932
αεροσκάφος 2932
Πτολεμα@@ 2931
κύριες 2931
Ηλείας 2930
ηφαιστ@@ 2930
Ολυμπ@@ 2929
Στί@@ 2929
θεωρούν 2929
χων 2929
ch@@ 2928
ανατολικής 2928
εξαρτάται 2928
ούμεν@@ 2928
προήλθε 2928
συνεν@@ 2926
αιγυπτι@@ 2925
ανεξάρτητη 2925
1911 2924
Τάγματος 2924
λίου 2924
άρχου 2923
μευ@@ 2923
μοι 2923
σμών 2923
χρόνους 2923
αποσαφήνιση 2922
ληφθεί 2922
μονο@@ 2922
παρέμειναν 2921
καρδι@@ 2919
γωνία 2918
επομένως 2918
αντικατέστησε 2917
ασίστ 2917
ιδίων 2916
κλίμακα 2916
προηγούμενο 2916
αναγνωρισ@@ 2915
Συνήθως 2914
αριστερά 2914
μέλλον 2914
Μεξικό 2913
αρνη@@ 2913
παντρεμένος 2913
​ 2913
Μαυρο@@ 2912
ατικού 2912
μπα@@ 2912
Οικουμεν@@ 2910
DNA 2909
άβα 2908
λανδ@@ 2908
Κρη@@ 2907
οικογεν@@ 2907
φαρ@@ 2907
ύς 2907
νεαρή 2906
Εμφ@@ 2905
καταργήθηκε 2905
Αθλ@@ 2903
ολλανδ@@ 2903
αντιμετωπίσει 2902
δημιούργησαν 2901
ιστορικοί 2901
νύ@@ 2901
σχεδίου 2901
στροφ@@ 2900
Νορ@@ 2899
άμι 2899
ημο 2898
παίξει 2898
περιείχε 2898
άντες 2896
κινήσεις 2896
πτήση 2896
προχώρησε 2895
τωρ 2895
Σοφ@@ 2894
προσανατολ@@ 2894
στικ@@ 2894
le 2893
ήττες 2893
λαμβάνοντας 2893
μεταγραφή 2893
όι 2893
Κέντρου 2892
αλβαν@@ 2892
αρισ@@ 2892
κατανο@@ 2892
γράμμα 2891
al@@ 2890
σύγχρονο 2890
ϊκή 2890
Ερρίκο 2889
Χρον@@ 2889
ιό 2889
ίμ 2887
τεχνολογία 2887
αναγνώ@@ 2886
περιφέρειας 2886
οδού 2885
συμβουλίου 2885
εύτηκαν 2883
ιππ@@ 2883
1896 2882
Αιγαίου 2882
χαμ 2882
διηγ@@ 2881
τώντας 2881
φρον@@ 2881
Αγι@@ 2880
μμα 2880
στάδια 2880
φέρονται 2879
Πρό@@ 2878
ευρωπαϊκή 2878
Ιράν 2877
διαλυ@@ 2877
προσδιορ@@ 2877
πτυχίο 2876
τομή 2876
ροσ@@ 2875
επιτροπής 2874
οχώρι 2874
τελ 2874
Οικονομικών 2873
Παναθηναϊκό 2872
έχεται 2872
αιρέ@@ 2872
56 2871
Έχουν 2871
απλό 2870
παραμονή 2869
κατέχει 2868
κειμένου 2868
λίμνης 2868
Δού@@ 2867
τεχνών 2866
ίκο 2865
εφημερίδες 2865
κοκ@@ 2865
ρομαν@@ 2865
1907 2864
νώ@@ 2863
ότερου 2863
Έλαβε 2862
Σεν@@ 2862
ορισ@@ 2862
συστημάτων 2862
Χου@@ 2861
Παπανδρέου 2860
Φιλίππου 2860
Γιάν@@ 2858
μετονομ@@ 2858
μετέφερε 2857
γματα 2856
κατο@@ 2856
Νέων 2855
Περίπου 2855
μεταφοράς 2855
Ουκραν@@ 2854
αυξήθηκε 2853
μεταπτυχ@@ 2853
name 2852
ανώ@@ 2852
δημοκρατία 2852
μπόρεσε 2852
Φυσ@@ 2851
συνεχίστηκε 2851
2022 2850
ματός 2850
συγχων@@ 2850
συνοδεύ@@ 2850
πληθ@@ 2849
Δία 2847
Μάγ@@ 2847
στολ@@ 2847
περιφέρειες 2846
αφορούν 2845
μπαρ@@ 2845
γελ@@ 2844
παραλία 2843
ταρ 2843
Δομ@@ 2842
μεθόδους 2842
μαθηματικά 2841
παράγοντας 2841
Ναζ@@ 2840
ημερών 2840
φοιτητές 2840
Βέρ@@ 2839
Βυζαντινή 2839
έκρηξη 2839
Δ.@@ 2838
περιστρέφεται 2837
πλά@@ 2837
ωτικά 2837
καθηγητή 2836
εξωτερική 2835
εύματα 2835
ωφ@@ 2835
Ανατολής 2833
ήτρια 2833
ευρωπαϊκές 2833
νά 2833
Νέο 2832
ήχθη 2832
δεια 2832
διαπραγματεύσεις 2832
προσδι@@ 2832
´ 2830
ΕΣ@@ 2830
οποιοδήποτε 2830
Πελ@@ 2829
ακρα@@ 2829
εκπρόσωπος 2829
αντιστοιχεί 2827
θάν@@ 2827
ισχύ@@ 2827
ατόμου 2826
εγκαταλείψει 2826
ορφ@@ 2826
ουελ 2826
υποστηρίζουν 2826
κυττάρων 2825
φου 2825
ίνια 2824
ανακάλυψε 2824
δημιουργεί 2824
ρον 2824
βοηθός 2823
εμποδ@@ 2822
πλοίων 2822
Αγίων 2820
ινών 2820
λιν@@ 2820
ονος 2820
προσωρινά 2820
πρωτοβουλία 2819
παραμείνει 2818
Άλλοι 2817
δοχ@@ 2817
επιδρομές 2817
κρατών 2817
παρουσιάζουν 2817
ae 2816
Αρμεν@@ 2816
Πολιτι@@ 2816
Re@@ 2814
τίνα 2814
επιστήμονες 2813
κάτο@@ 2813
ρικά 2812
Αφγανιστάν 2811
Επαν@@ 2811
άρο 2811
h@@ 2810
διάταγμα 2810
ζα 2810
παρόμοιο 2810
υπόλοιπες 2810
ογραφική 2809
κύκλου 2808
συγκέντρωση 2808
υποψηφιότητα 2808
51 2807
εισήχθη 2807
20ου 2806
ασφαλείας 2806
εθνο@@ 2806
πανηγ@@ 2806
Λει@@ 2805
άλμα 2805
περιλαμβ@@ 2805
Νεκ@@ 2804
09 2803
Γεωργίας 2803
Χό@@ 2803
αια 2803
δημιουργηθεί 2803
ρισε 2801
Κόμ@@ 2800
Μπαν@@ 2800
ριακής 2800
συνόλου 2800
χρήστες 2800
Νορβηγίας 2799
ευτικό 2799
μεταφέρθηκαν 2799
ολο@@ 2799
1000 2798
κυκλοφορίας 2798
Μιχ@@ 2797
κόσ@@ 2797
72 2796
In@@ 2796
Νορμαν@@ 2796
Στίβου 2796
ίασε 2796
κ.@@ 2796
λεψε 2796
ορατ@@ 2796
αρά 2795
αιο 2794
υπερασπ@@ 2794
1909 2793
Λεον@@ 2793
έβαλε 2793
δυναστεία 2793
Χαν 2792
Σο@@ 2791
στού 2791
όλι 2791
Δρα@@ 2790
τουν 2790
Έκ@@ 2789
Αικατερίνη 2789
χρονολογ@@ 2789
λντ 2788
ρις 2788
Ταμ@@ 2787
οκλ@@ 2787
Χριστ@@ 2786
βορ@@ 2786
τηγ@@ 2786
φυσικής 2786
Φρειδερίκου 2785
τρεψε 2785
ύλων 2784
Όσ@@ 2783
Τούρκων 2782
αριθμούς 2782
αριθμών 2782
ιλ 2782
πέν@@ 2782
τηλεοπτικό 2782
Κατόπιν 2781
θερμοκρασίες 2781
ολογικών 2781
Κάλ@@ 2780
σιακ@@ 2780
Θεοτόκου 2779
διαμαρτυ@@ 2779
υπάρχ@@ 2779
der 2778
Ξεν@@ 2778
άνε 2778
διοικητικό 2778
τύπους 2778
Συμβ@@ 2777
αναγκά@@ 2777
ομώνυμη 2777
οπούλου 2777
πλοκή 2777
17ου 2776
βασιλείς 2776
σχεδίων 2776
Μέγας 2774
κυβερνήτη 2774
νούμερο 2774
βασικός 2773
μπει 2773
άνθη 2772
εκτείνεται 2772
επιτέθηκε 2772
τίποτα 2771
Ολυμπιακού 2770
επικοινων@@ 2770
θεωρούσε 2770
λαϊκή 2770
φη 2770
δύναμης 2769
κοινοβούλιο 2769
όμου 2767
χρόνος 2765
ήτης 2763
συνεισ@@ 2763
όλλ@@ 2763
an@@ 2762
Δημοσ@@ 2762
Ιβάν 2762
Φου@@ 2762
ρικού 2762
ξέσπασε 2761
υψηλότερο 2761
σταθερά 2760
17@@ 2759
Προέδρου 2759
νομισ@@ 2759
παράνομ@@ 2759
χτηκε 2759
Πρέ@@ 2758
άσα 2758
Μω@@ 2757
ήνης 2757
πλοίου 2757
Αυτοί 2756
στας 2756
αποφάσισαν 2755
ηθοποιό 2754
λόφο 2754
φυλές 2754
αίτηση 2753
μών 2753
Περί 2752
αιμ@@ 2752
διαφορετικό 2752
νυμφ@@ 2752
συνιστ@@ 2752
υψηλό 2752
χάρι@@ 2752
ωνίου 2752
Ευρωπαί@@ 2751
δίνουν 2751
οικονομικές 2750
πελ@@ 2750
προσπαθ@@ 2750
Αλέξανδρο 2749
Ανατολ@@ 2749
Πηγές 2749
επιστρέφει 2749
ωμάτων 2749
Αγων@@ 2748
γεωμετρ@@ 2748
ριακού 2747
φυλάκ@@ 2746
TV 2745
πειρατ@@ 2745
Βίν@@ 2744
βαθιά 2744
ειδικότερα 2744
χρησιμοποιούσαν 2743
γενικ@@ 2741
απασχολ@@ 2740
ειδικό 2740
επιτυχημένη 2740
καταφύγιο 2740
CD 2739
Συρία 2739
Μίλ@@ 2738
άλου 2738
επιπέδου 2738
κους 2738
Βαυαρίας 2737
Κέρκυρας 2737
υνε 2737
Παραγωγή 2736
αίρε@@ 2736
εμφανίστηκαν 2736
εως 2736
όχου 2736
γά@@ 2735
σταθμ@@ 2735
υποδοχ@@ 2735
έμφαση 2734
ισπανικά 2734
εκτάσεις 2733
καλλιτέχνη 2733
σταθμού 2733
χημική 2733
Billboard 2732
καὶ 2732
Γρηγοριανό 2731
απομον@@ 2731
νήσ@@ 2731
σκηνοθέτη 2731
ρωμαϊκή 2730
έκλεισε 2728
δασκ@@ 2728
σύνταγμα 2728
Αρμενίας 2727
Διά@@ 2727
χους 2727
Υψηλ@@ 2726
ίστα 2726
Επισ@@ 2725
Υπουργείου 2725
χον@@ 2725
απλή 2723
δημοσιογράφ@@ 2723
εξοπλ@@ 2721
ηπειρω@@ 2721
Μικρά 2719
Νομού 2719
πειρα@@ 2719
Φιλοσοφ@@ 2718
κοινά 2718
μεγ@@ 2718
προσαρ@@ 2718
ρούσε 2718
τούνται 2718
έκφραση 2717
ίντ 2717
επιζ@@ 2717
δρόμος 2716
ζύ@@ 2716
Μόνο 2715
ορισμό 2715
τροχιά 2715
Βραζιλία 2714
μνημεία 2714
σατ@@ 2714
φύγει 2714
10.000 2713
ΟΥΕΦΑ 2712
δεσμ@@ 2712
κρυ@@ 2712
χάσει 2712
γράφεται 2711
δάσος 2711
βάρ@@ 2710
ετός 2710
βλ. 2709
ελί@@ 2709
λης 2709
νυμφεύτηκε 2709
σά@@ 2709
προεδρικές 2708
ανασκαφές 2707
ουλ 2707
σαφ@@ 2707
Μπελ@@ 2706
έμαθε 2706
δεύτερου 2705
οργάν@@ 2705
ρης 2705
δυνατ@@ 2704
Κυριακή 2703
πρωί 2703
σεβ@@ 2703
Γιαν 2702
δικηγ@@ 2702
καλλιτέχνης 2702
Ευρωπαϊκού 2701
Ολυμπιακ@@ 2701
style 2700
Αλι@@ 2700
απαντ@@ 2700
απογόνους 2700
δυνατόν 2700
εφόσον 2699
δημιουργίας 2698
τιών 2698
ρεφ@@ 2697
εκλογική 2696
ουσίες 2696
πλημ@@ 2696
σκοτώθηκαν 2696
49 2695
επέλεξε 2695
κόλπο 2695
συμπληρ@@ 2694
1.000 2693
Τηλε@@ 2693
εξακολουθεί 2693
καλές 2693
μενα 2693
νωση 2693
στήριο 2693
ανιχν@@ 2692
οικο@@ 2692
παραστ@@ 2692
θεατών 2691
ματικού 2691
06 2690
ατμόσφαιρα 2690
γενικός 2690
εγκλ@@ 2690
μεταβ@@ 2690
ακόλουθα 2689
Θεόδωρος 2688
αποδ@@ 2688
στε 2688
σφαίρισης 2688
δικαστήριο 2687
εναλλακ@@ 2687
συναντ@@ 2687
αποστολής 2686
επιθυμία 2686
ηρω@@ 2686
Καζακστάν 2685
βελτίωση 2685
ζωγραφικής 2685
στρά@@ 2685
τρομοκρατ@@ 2685
57 2684
7.@@ 2684
έπει 2684
απαιτεί 2684
τρού@@ 2684
ώνος 2684
βλέ@@ 2682
ενεργά 2682
Δημοκρατ@@ 2681
Mar@@ 2679
ελαι@@ 2678
κυβ@@ 2678
αναστ@@ 2677
γεωγραφ@@ 2677
επικίνδυν@@ 2677
Ομάδα 2676
άζ 2676
ανοσ@@ 2676
γκι 2676
εφημερίδας 2676
γερμαν@@ 2675
ειου 2675
σύντομη 2675
Ηνωμένου 2674
Χάιν@@ 2674
συνθέ@@ 2674
ψεων 2674
in@@ 2673
διαγων@@ 2672
ντο 2672
στρατιωτικός 2672
αποτελούνταν 2671
οποίησε 2671
ωτή 2671
Ιστο@@ 2670
μάζ@@ 2670
υποθέσεις 2670
σις 2669
τασης 2669
τραγουδιστής 2669
αποκατάσταση 2668
ειος 2668
ταξίδεψε 2667
επιχειρ@@ 2666
Τό@@ 2665
Φ 2664
παραδοσιακή 2664
Ονομ@@ 2663
Ρουμανίας 2663
διάδοχο 2663
καταστάσεις 2663
προστά@@ 2663
τριες 2663
1897 2661
λατινικά 2661
53 2660
ήλιο 2660
αποτυχία 2660
εχθ@@ 2660
όγκο 2660
Σχολ@@ 2659
σκοπο@@ 2659
Τουρ@@ 2658
δηλ. 2658
ντόπ@@ 2658
ρίδα 2658
όβα 2658
ήμης 2657
κυτταρ@@ 2657
συμφώνησε 2657
Μό@@ 2656
Πλοκή 2656
πτει 2656
κάθ@@ 2655
ουραν@@ 2655
σιδηροδρομ@@ 2654
Σημει@@ 2653
άμυνα 2652
κατάλληλ@@ 2652
τροφή 2652
αξιωματικός 2651
θρησκευτική 2651
πανεπιστημι@@ 2651
δίσ@@ 2650
όσια 2650
Ιησού 2649
δήλωση 2649
ισχυρό 2649
ογέν@@ 2649
χρόν@@ 2648
αρκετοί 2646
ειρήνης 2646
ποσότητες 2646
επεξεργασία 2645
κύκλος 2645
σχεδιασ@@ 2645
όλιο 2645
54 2644
γαλλικό 2644
γραπ@@ 2644
όνε 2644
Εβραίοι 2643
αγγελ@@ 2643
ανώτα@@ 2643
θν@@ 2643
δημόσιο 2642
λάθος 2642
σιμ@@ 2642
γερμανικό 2641
χωρητικότητας 2641
Λεβ@@ 2640
Παύλου 2640
καρδιά 2640
μεταφορ@@ 2640
or@@ 2639
Υγείας 2639
ιδιότητα 2639
Βρετανίας 2638
Παύλος 2638
Προς 2638
κυκλοφορήσει 2638
ρεπ@@ 2638
ινής 2637
παγκόσμι@@ 2637
Γουλιέλμου 2636
προβλημάτων 2635
διαπιστ@@ 2634
Σικελίας 2633
αντίθετα 2633
κοινωνικές 2633
120 2632
νόμισμα 2632
Πί@@ 2631
μαϊκ@@ 2631
νοτιοδυ@@ 2631
πλευρό 2631
700 2630
Βατ@@ 2630
Πιο 2630
άκων 2629
επαρκ@@ 2629
ευόταν 2629
κάποτε 2629
συγκέντρωσης 2629
υποτελ@@ 2629
Σβ@@ 2628
σωλ@@ 2628
άνονται 2627
περιγράφεται 2627
Αυτοκράτορας 2626
επιλέχθηκε 2626
ετερ@@ 2626
Γαλλικής 2625
Ρωσική 2625
τικότητας 2625
υδρογόνου 2625
βασικές 2624
ιδιοκτησία 2624
Πελοπόννησο 2623
διαλύθηκε 2623
κορυφαία 2623
58 2622
κλασική 2622
τέν 2622
τέρου 2622
αθλ@@ 2621
γεί@@ 2621
Τούρκ@@ 2620
έλος 2620
Ενότητας 2619
θρι@@ 2619
ίσταται 2618
χο@@ 2618
Κυρι@@ 2617
ερή 2617
συλλόγους 2617
φορού@@ 2617
ΚΟ@@ 2616
ειο@@ 2616
ετς 2616
ρισαν 2616
όσους 2616
γλυ@@ 2615
λειτουργίες 2615
is@@ 2614
διάταξη 2614
θων 2614
νεαρ@@ 2614
βάλλεται 2613
μέρ@@ 2613
παραδείγματα 2613
τήθηκαν 2613
ψή 2613
ματικός 2612
οργανισμούς 2612
υπόλοιπη 2612
ούδα 2611
ούσα 2611
τέρματα 2611
απειλή 2610
ούντας 2609
Ώ@@ 2608
Αθηνα@@ 2608
απόσ@@ 2608
ρια 2608
βλέπει 2607
ουστ@@ 2607
π.Χ 2607
2.000 2606
επαρχ@@ 2606
Κώστα 2605
Σιγ@@ 2605
διδάσκ@@ 2605
μάρτυ@@ 2604
οξέος 2604
ΕΠΣ 2601
οσι@@ 2601
Σαχ@@ 2600
ειακά 2600
88 2599
Μητ@@ 2599
φωτειν@@ 2599
χρησιμοποιούνταν 2599
16ο 2598
Παλαιστ@@ 2598
Ι. 2597
Μπού@@ 2597
έτι 2597
εξέχ@@ 2597
αγκα@@ 2596
άγκ@@ 2595
νή 2595
πρωταθλ@@ 2595
σιν 2595
18ο 2593
Συντάγματος 2593
κατάταξη 2593
στόλο 2590
υρο 2590
os 2589
σιδηρο@@ 2589
1903 2588
λάμβανε 2588
Ελεύθερ@@ 2586
Ναυτικού 2586
καθή@@ 2586
Ευρωπαϊκ@@ 2585
επισκόπου 2585
χρησιμοποιήσει 2585
Εβραίων 2584
άρου 2584
βου 2584
εκλέχθηκε 2584
χρησιμοποιούσε 2584
διάσημ@@ 2583
θεν 2583
θρί@@ 2583
οσύνης 2583
όντο 2583
Βουργουνδίας 2582
ούλια 2582
ραδι@@ 2582
τελευταίου 2582
τοιχ@@ 2582
τοποίηση 2582
Ιω@@ 2581
άγνω@@ 2581
ισλαμ@@ 2581
da 2580
Γκαρ@@ 2580
Μουσουλμάν@@ 2580
Πόλη 2580
ίσεων 2580
επίσημ@@ 2580
καλύτερες 2580
συνείδ@@ 2580
ύψ@@ 2580
26@@ 2579
Αδελφ@@ 2579
πλούσι@@ 2579
στατο 2579
καταφέρει 2578
αντιμετώπιση 2576
απαιτείται 2576
Γυναικών 2575
Ακόμα 2574
Μερικά 2574
Τομ@@ 2574
Αγκ@@ 2573
Ρα@@ 2573
γραφεί 2573
μέσου 2573
σώ@@ 2572
ττα@@ 2572
πολιτείας 2571
φιλελεύθερ@@ 2571
Όμιλος 2570
Ολλανδίας 2570
αγόρ@@ 2570
δείκ@@ 2570
μάρ 2570
Σαβοΐας 2569
εισήγαγε 2569
καταστροφ@@ 2569
συντά@@ 2569
εγκαθ@@ 2568
ητος 2566
κεραμ@@ 2566
οειδ@@ 2566
σκα@@ 2566
κάποιοι 2565
ρίγκ@@ 2564
Πελοποννήσου 2563
γραφεία 2563
δηλώνει 2563
ελάχιστα 2563
at@@ 2562
ζητώντας 2562
πολιτικού 2561
στρατευμάτων 2561
φοιτη@@ 2561
μαθητής 2560
62 2559
παίκτη 2559
σκοπούς 2559
Λιμ@@ 2558
γενικότερα 2558
γκλ@@ 2558
επεξ@@ 2558
11@@ 2557
εμφανιστεί 2556
μονία 2556
Βρα@@ 2555
επιβί@@ 2554
μεταφέρει 2554
Του 2553
συστάθηκε 2553
Βέ@@ 2552
Μητροπολίτης 2552
ποιήματα 2552
ΑΣ@@ 2551
αποτέλεσαν 2551
καθιστά 2550
παραμένουν 2550
προεδρ@@ 2549
Κεντρ@@ 2548
συγκρο@@ 2548
84 2547
Δημήτρη 2546
Μερικές 2546
Πανα@@ 2546
Σίν@@ 2546
δελ@@ 2546
καθιστώντας 2546
αξίες 2545
εκθέσεις 2545
σύντομο 2545
Οθωμαν@@ 2544
ξία 2544
παροχή 2544
διασκ@@ 2543
βρίσκει 2542
κοιλι@@ 2542
πρόποδες 2542
συναλλαγ@@ 2542
τάχθηκε 2542
θεσμ@@ 2541
Ιωάννα 2540
επισκέπτες 2540
πτερ@@ 2540
σκοτειν@@ 2540
τησή 2540
Βλαχ@@ 2539
Σύμβ@@ 2539
Τράπεζα 2539
Τσε@@ 2539
απορρί@@ 2539
βασαν@@ 2539
ενημέρωσης 2539
Χαν@@ 2538
καλό 2538
υπολογιστή 2538
συνέχισαν 2537
δημοφιλές 2536
διοικητή 2536
μέτρο 2536
ουδέ@@ 2536
τέλει@@ 2536
Βέλγιο 2535
εύκολ@@ 2535
σταθερή 2535
όχθη 2535
ένοπλ@@ 2534
ήρθαν 2534
σοφ@@ 2534
τέν@@ 2534
αντιπροσωπεύει 2533
μενε 2533
ντερ 2533
ed 2532
απομακρύν@@ 2532
λογοτεχνίας 2532
λαβ 2531
ύρω@@ 2531
άρχες 2530
διαθέτουν 2530
θορ@@ 2530
τέλε@@ 2530
τοποθετη@@ 2530
Φρανς 2529
ήρια 2529
Ελληνίδα 2528
μεναν 2528
παρ 2528
ήτ@@ 2527
υγρό 2527
ϊν@@ 2527
ώσεως 2527
4ο 2526
Ιαπ@@ 2526
έβδομ@@ 2526
πάρ@@ 2526
αναμετρ@@ 2525
Ρωμαίοι 2524
αυθεν@@ 2524
εκατοντάδες 2524
μεταβολ@@ 2524
68 2523
Νου@@ 2523
γκελ@@ 2523
πυκνότητα 2523
5η 2522
Τσάμπιονς 2522
ειπ@@ 2522
Εμμανουήλ 2521
Υπό 2521
δεύ@@ 2521
Πολέμ@@ 2520
Φράν@@ 2520
δορυφ@@ 2520
καθορ@@ 2520
λίγους 2520
ούμενα 2520
προβλήθηκε 2520
φώ@@ 2520
βασιλικό 2519
επισημ@@ 2519
μέσων 2519
μερικούς 2519
πεδίου 2519
πτη@@ 2519
δεξαμεν@@ 2518
67 2517
Γερμανών 2517
Ελ 2517
τζι 2517
1878 2516
σημερινής 2516
αντιπρόεδρος 2515
χρηματ@@ 2515
Δημοτική 2514
Πάτρας 2514
φανέλα 2514
αιχμάλω@@ 2512
εσε 2512
κουν@@ 2512
προσώπων 2512
Λορ@@ 2511
Χρήστος 2511
βεβ@@ 2511
περιβαλλον@@ 2511
στέλ@@ 2511
ελέγ@@ 2510
μπια 2510
πεθάνει 2510
An@@ 2509
Μπον@@ 2509
ακρίβεια 2509
κληρονόμ@@ 2509
πλαγιές 2509
σύγχρονης 2509
φράση 2509
άξονα 2508
λαν@@ 2507
Σαλαμ@@ 2505
Διεθνή 2504
άντι 2504
ύσ@@ 2504
χρηματοδο@@ 2503
ολογίες 2502
ψι@@ 2502
Ναυτικό 2501
Πορτογαλία 2501
Συμμετ@@ 2501
νομικά 2501
όρη 2501
Λίγ@@ 2500
Χέ@@ 2500
άκρη 2500
απογραφές 2500
συμμάχ@@ 2500
Τσεχ@@ 2499
ρολογ@@ 2499
Λακ@@ 2498
χαμηλή 2498
1890 2497
SS 2497
μοναχ@@ 2497
πολιτικούς 2497
Δανία 2496
ΙΙ 2496
γραφικά 2496
διαιτη@@ 2496
πίστευε 2496
Βάρ@@ 2495
Σύλλογος 2495
επώνυμο 2495
Λό@@ 2494
έκα 2494
προπ@@ 2494
05 2493
2,@@ 2493
Επί@@ 2493
έδινε 2493
ονική 2493
φάλ@@ 2493
προειδ@@ 2492
συνδέει 2492
υποχρε@@ 2492
Live 2491
Μόρ@@ 2490
θεωρηθεί 2490
στασ@@ 2490
δεχ@@ 2489
επισ@@ 2488
σταϊν 2488
μπέ@@ 2487
πραξικόπημα 2487
συντελε@@ 2487
χρονική 2487
ύπ@@ 2487
λειτούργησε 2486
οφόρων 2486
Κόλ@@ 2485
αίοι 2485
υποστηρικτές 2485
πραγματοποιείται 2484
στέλεχος 2484
δίδαξε 2483
επεκτάθηκε 2483
ποιητή 2483
τολή 2483
Αί@@ 2482
βη 2482
θι 2482
ογραφικό 2482
συγκρότη@@ 2481
17ο 2480
αντίστοιχο 2480
διαπραγματ@@ 2480
τροφίμων 2480
Ναπολέοντα 2479
άλογα 2479
θήκες 2479
πριγκίπισσα 2479
γράφοντας 2478
φυσικού 2478
χρονολογούνται 2478
Αερ@@ 2477
εβί@@ 2477
ούτ@@ 2476
83 2475
Πό@@ 2475
τέλεσε 2475
ΑΝ@@ 2474
Στρατιω@@ 2474
δήμους 2474
ησία 2474
νεύ@@ 2474
Ζερ@@ 2473
Ορθόδοξη 2473
Σουλτάν@@ 2473
Δύ@@ 2472
Λάρισας 2472
κανόνα 2472
συνάντησε 2472
ωβ@@ 2472
Εικ@@ 2471
οκα@@ 2471
κοιλ@@ 2470
μόνιμ@@ 2470
τικα 2470
Τζό@@ 2469
έπαι@@ 2469
λεγόμενη 2469
ογι@@ 2469
επικράτησε 2468
διαδικασίες 2467
ζι 2467
καθε@@ 2467
πολέμους 2467
μεγάλους 2466
παράλληλ@@ 2466
σερβ@@ 2466
στος 2466
κ.λπ. 2465
ραφεί 2465
Βορείου 2464
ορος 2464
Πυρ@@ 2463
χώρησε 2463
ωνι@@ 2463
Χημ@@ 2462
αλυσ@@ 2462
επικράτεια 2461
Σκην@@ 2460
λεωφορ@@ 2460
ταξης 2460
επισκέπ@@ 2459
εύσεις 2459
οριζ@@ 2459
πετρελαίου 2459
στρατηγό 2459
δύσκολη 2458
ιφ@@ 2458
ότυπο 2458
διαφημ@@ 2457
συγκεκρι@@ 2457
Άρτας 2456
διστ@@ 2456
κλιν@@ 2456
ψευδώνυμο 2455
es@@ 2454
Λ 2454
Πίτερ 2454
ηγέτη 2454
λέγ@@ 2454
αρμεν@@ 2453
βαλλ@@ 2453
κατάταξης 2453
CO@@ 2452
Αγγελ@@ 2452
Αρκαδίας 2451
Ντε 2451
άλογο 2451
διεθνούς 2451
θύματα 2451
Μάλ@@ 2450
Τάγμα 2450
έλας 2450
ασμός 2450
εγκεφαλ@@ 2450
ers 2449
Βιέννης 2449
δρόμων 2449
καθόλου 2449
λεια 2449
Οσ@@ 2448
σκορ@@ 2448
διδασκαλία 2447
σταματήσει 2447
Ρωσικής 2446
ήνες 2446
αδερφ@@ 2446
μουσουλμαν@@ 2446
χιον@@ 2446
Εκκλησι@@ 2445
ημιτελικά 2445
καταγ@@ 2445
πρι@@ 2445
Γιουγκοσλαβία 2444
Λεω@@ 2443
59 2442
Λειτουργ@@ 2442
θέρ@@ 2442
Αλεξάντερ 2441
Αψβούργων 2441
Παρόλα 2441
Χρυσή 2441
ήσι@@ 2441
Αυλ@@ 2440
εκατο@@ 2440
εντερ@@ 2440
ερν 2440
ορά 2440
πρωτεύουσας 2440
Μαζ@@ 2439
λεπτομέρειες 2439
φάρμακα 2439
καθεστώτος 2438
ούμε 2438
Άλλ@@ 2437
Κόσ@@ 2437
άνδρας 2437
εκδο@@ 2437
ευθεί 2437
ντεν 2437
Αρχαία 2436
Σερρών 2436
έδειξαν 2436
ακτ@@ 2436
απόφ@@ 2436
βάρους 2436
πρωτοπ@@ 2436
ούρ 2435
παρεμβ@@ 2435
πλέ@@ 2435
66 2434
Μπουρ@@ 2434
βάν 2434
επέμβαση 2434
προέκυψε 2434
Κυπ@@ 2433
ευρωπαϊκό 2433
ποιότητα 2433
πολεμικά 2433
ρρο@@ 2433
Κλά@@ 2432
δίνεται 2432
Ιρλανδία 2431
Κέρκυρα 2431
μετάλλια 2431
μηδεν@@ 2431
άνοι@@ 2430
ριβ@@ 2428
καταλήγει 2427
πεδιν@@ 2427
πρα@@ 2427
ύρης 2427
Black 2426
Δικαστήριο 2426
θεωρούνταν 2425
παραδόσεις 2425
φιν@@ 2425
Αλβανίας 2424
Λατιν@@ 2424
Πολ 2424
μοτί@@ 2424
τοποί@@ 2424
1899 2423
Αγ 2423
Αλε@@ 2423
οσίας 2423
προσωπο@@ 2423
παιδική 2422
ρεύμα 2422
συστη@@ 2422
φίλους 2422
16ου 2421
βάλ@@ 2421
καταργ@@ 2421
φτωχ@@ 2421
σχηματίζει 2420
φωτιά 2420
Κοινοβουλίου 2419
εδαφ@@ 2419
αναφοράς 2418
γενν 2418
βιβ@@ 2417
πνεύμα 2417
ριου 2417
στάθ@@ 2417
σχηματίζουν 2417
κωδικ@@ 2416
πιθανή 2416
αιναν 2415
κοι 2415
συνεχή 2415
αγόρασε 2414
63 2413
Ρίτσαρντ 2413
έβαλαν 2413
αφορμή 2413
καλύπ@@ 2413
ποινή 2413
Car@@ 2412
International 2412
Ταξι@@ 2412
έκα@@ 2412
ανεξ@@ 2412
καθιερώθηκε 2412
ορισμένων 2412
δισκ@@ 2410
εύρεση 2410
Ηλι@@ 2409
ωνόταν 2409
92 2408
Ίδρυμα 2408
άνοιγμα 2408
ήνη 2408
γματος 2407
ζητήσει 2407
θησαν 2407
ζημιές 2406
03 2405
κέρδισαν 2405
μπος 2405
ίδου 2404
καιρούς 2404
v 2403
απόπειρα 2403
διαμορφ@@ 2402
τίων 2402
Man 2401
Αραγωνίας 2401
Οθωμανούς 2401
αερο@@ 2401
21@@ 2400
Αγώνων 2400
Αλέ@@ 2400
Κρε@@ 2400
δραματική 2400
κελ@@ 2400
δισ@@ 2399
Καβ@@ 2398
Προεδρ@@ 2398
διαφων@@ 2398
προετοιμ@@ 2397
ιακός 2396
ομίλους 2396
τσε 2396
Γρηγ@@ 2395
Πασά 2394
σουλ@@ 2394
Μεγ@@ 2393
δολοφονήθηκε 2393
θώ@@ 2393
μοι@@ 2393
Χριστο@@ 2392
δίκ@@ 2392
τελετουργ@@ 2392
Ζωή 2391
ένδειξη 2391
αποχώρηση 2391
εκπομπές 2391
61 2390
Η.Π.Α. 2390
Μπορ@@ 2390
έκτησε 2390
δωρε@@ 2390
Γκρά@@ 2389
αποστολές 2389
αρχαίων 2389
βαν 2389
Παπαδ@@ 2388
προτάσεις 2388
Γενικός 2386
παρέχουν 2386
3ο 2385
αγνο@@ 2385
αλλού 2385
01 2384
Μέρ@@ 2384
αντάλλαγμα 2384
όγειο 2384
επιδ@@ 2383
κοιμ@@ 2383
άγου 2382
καλλιτεχνών 2382
ξεκινώντας 2382
πλησί@@ 2382
σής 2382
εξαπλ@@ 2381
προβολή 2381
αποφάσεις 2380
δημοσ@@ 2380
χωρίζεται 2380
Κινέζ@@ 2379
Κοζ@@ 2379
ανέρχεται 2379
γρά@@ 2379
Σέ@@ 2378
ετούς 2378
σκότωσε 2378
Αλεξάνδρεια 2377
ακρω@@ 2377
ανούς 2377
αποδίδεται 2377
ογραφικά 2377
ταυτότητα 2377
74 2376
ευρύ 2376
ισμένοι 2376
κινηματογραφική 2376
χαρακτηριστεί 2376
άλε 2375
ξεκιν@@ 2375
παραίτηση 2375
Σάντα 2374
αγώνισμα 2374
ληση 2374
νόμους 2374
φτάνοντας 2374
98 2373
υποβιβάστηκε 2373
23@@ 2372
γράφος 2372
χάλκινο 2372
βρε@@ 2371
δικής 2371
εντρ@@ 2371
ούλ 2371
1870 2370
αντίστοιχ@@ 2370
βρίσκ@@ 2370
μελετητές 2370
ύφ@@ 2370
γεται 2367
καταστήματα 2367
Ρωμαίους 2366
θήματα 2366
μηχανή 2366
αρχιτέκτονα 2365
οδός 2365
πράσινο 2365
τάς 2365
τραγουδιών 2365
Διατ@@ 2364
ευρω@@ 2364
στρατηγική 2364
σωματείο 2364
Αστυνομ@@ 2363
Κίν@@ 2363
εγγον@@ 2363
θεωρίας 2363
σχολι@@ 2362
επιστημον@@ 2361
pop 2360
Ροδ@@ 2360
θεωρίες 2360
σσεται 2360
φαγ@@ 2360
εται@@ 2359
θαλάσσι@@ 2359
όχθες 2359
αφρικαν@@ 2358
τολόγ@@ 2358
8.@@ 2357
Μέγα 2357
νικ 2357
οντ 2357
ουζ 2357
βιν 2356
ιζαν 2356
πρώιμη 2356
Α.Ε. 2355
οικονομίας 2355
σετ 2355
250 2354
ανθρώπιν@@ 2354
δανει@@ 2353
άγνωστο 2352
ομιλία 2352
πληθυσμών 2352
υλικών 2352
Μέν@@ 2351
Φέρ@@ 2351
ξεχωριστ@@ 2351
τόξ@@ 2351
Αριστ@@ 2350
Ρ 2350
Σταδιοδρομία 2350
αριστερό 2350
δάσκαλος 2350
υρα 2350
́ 2349
Δούκας 2349
επενδύ@@ 2349
υποβιβ@@ 2349
ήματά 2348
λαμβάνεται 2348
τονίας 2348
Εξελέγη 2347
ίδρυσαν 2347
93 2346
Γουίλιαμ 2346
Καλαμά@@ 2346
Πατρι@@ 2346
έξοδο 2346
ευθύνη 2346
όπων 2346
1881 2345
one 2345
άθλημα 2345
ιστάν 2345
18@@ 2344
Μόλις 2344
αλφάβητο 2344
αποκλείστηκε 2344
γέννηση 2344
30@@ 2343
αποκλεί@@ 2343
γνωρίζει 2343
δημοσιεύθηκε 2343
ελεύθερο 2343
ικες 2343
μορφής 2343
Πρώτος 2342
επέστρεψαν 2342
επανήλθε 2342
τάσεις 2342
Φωκ@@ 2341
εμπορικά 2341
Κώ@@ 2340
ίνιο 2340
Ρί@@ 2339
άχθηκε 2339
κια 2339
πετ@@ 2339
προηγούμενες 2339
συναυλία 2339
81 2338
Μερικοί 2338
γκο@@ 2338
θεμάτων 2338
θητείας 2338
ινές 2338
κιθάρα 2338
προκαλώντας 2338
Αντρ@@ 2337
Βικ@@ 2337
Γνω@@ 2337
επιτε@@ 2337
κάποιου 2337
περιβάλλοντος 2337
σωματεία 2337
Κλε@@ 2336
θεώρηση 2336
κτιρίου 2336
συμπέρασμα 2336
εργαζόταν 2335
82 2334
δαπ@@ 2334
διαδεδο@@ 2334
ρέν@@ 2334
ωνος 2334
ύρες 2334
βυζαντινή 2333
δεικ@@ 2333
χαρτο@@ 2333
ισχύος 2332
κάλυψη 2332
ίως 2331
μβούργο 2331
πέρασαν 2331
τζα 2331
Ραμ@@ 2330
έτης 2330
αστικών 2330
διάδοχ@@ 2330
διάρκειας 2329
ημέρας 2329
78 2328
Πομ@@ 2328
γερμανικής 2328
μπολ 2328
ήσουμε 2327
Νταν@@ 2326
ονόμασε 2326
ωνικές 2326
3.000 2325
δυναμικό 2325
ώδους 2325
73 2324
γεννη@@ 2324
ολόγο 2324
υπεύθυνη 2324
μίλια 2323
W 2322
ίδρυμα 2322
αρμοδι@@ 2322
Sh@@ 2321
Μονής 2321
Παγκόσμιος 2321
αμο 2321
ομοσπονδία 2320
υπολογιστών 2320
ρέψει 2318
ρινή 2318
σημεριν@@ 2318
Λευκωσίας 2317
Μαδρίτης 2317
Πιερ@@ 2317
Χασ@@ 2317
ήσιο 2317
εκατό 2317
ούπολη 2317
όκο 2317
Ντού@@ 2316
βρετανική 2316
ποιότητας 2316
στερη 2316
ενίσχυση 2315
καταδικάστηκε 2315
Γυμνάσιο 2314
ΕΡ@@ 2314
γλύπ@@ 2314
θείο 2314
ογραφίες 2314
όλας 2314
ώπου 2314
86 2313
Όθωνα 2313
διακοπ@@ 2313
προεδρία 2313
Λε 2312
ιερέας 2312
1902 2311
επικρα@@ 2311
ημά 2311
μικρότερα 2311
ευθύν@@ 2310
θέτοντας 2310
76 2309
ατη 2309
Δί@@ 2308
απεικόνιση 2308
απονεμήθηκε 2308
ενδ@@ 2308
πολυτελ@@ 2308
Αιτωλοακαρνανίας 2306
Υπηρέτησε 2306
κτήρια 2306
συναισθ@@ 2306
Ανθ@@ 2305
ήση 2305
ανεξαρτησίας 2305
γλωσσών 2305
ηματο@@ 2305
αμερικανικό 2304
ομαλ@@ 2304
τσας 2304
φυσικές 2304
χης 2304
1880 2303
αυξάνεται 2303
ειλ@@ 2303
background 2302
δόθηκαν 2302
λεπτομερ@@ 2302
ορία 2302
σκεπ@@ 2302
om@@ 2301
άνας 2301
αναζήτηση 2301
οποιηθεί 2301
άγο 2300
ωνικά 2300
όβια 2300
μασ@@ 2299
πορτρέ@@ 2299
όλια 2299
69 2298
87 2298
δείγμα 2298
δημοφιλή 2298
προστασίας 2298
στρατηγού 2298
τικη 2298
όπερα 2298
ύτερα 2298
αστούν 2297
μπι@@ 2297
Λυκ@@ 2296
Σίτι 2296
διάμετρος 2296
Λουδοβίκο 2295
κατάρ@@ 2295
λάμβαναν 2295
μορφω@@ 2295
πετοσφαίρισης 2295
υπογραφή 2295
οβο 2294
παραδοσιακό 2294
ύρι 2294
Ηρακλής 2293
διήρκεσε 2293
θετο 2293
μετατράπηκε 2293
ύτερ@@ 2293
Πακιστάν 2292
Συνέδριο 2292
θεσε 2292
κρο@@ 2291
οποιούνται 2291
αρο@@ 2290
στά 2290
Ισλάμ 2289
Πιθαν@@ 2288
μουσικά 2288
ΕΔ@@ 2287
Ταξ@@ 2287
έρθει 2287
μπλ 2287
χρησιμοποίησαν 2287
Παναγιώτης 2286
έκτη 2286
αντες 2286
καθορι@@ 2286
κλίμακας 2286
Χω@@ 2285
ραδιο@@ 2285
αΐ@@ 2284
αντλ@@ 2284
βουν@@ 2284
ενι@@ 2284
νει 2284
ράν 2284
φυτών 2284
ασχολούνται 2283
πρέσ@@ 2283
πύλη 2283
Γερμανική 2282
δημοτικά 2282
μπορούμε 2282
σσας 2282
σχολής 2282
28@@ 2281
Παναγία 2281
Συνταγ@@ 2281
κασ@@ 2281
αποδίδ@@ 2280
διος 2280
μηχανική 2280
ορισμένοι 2280
ίστρια 2279
ίχνη 2279
ομοσπονδιακ@@ 2279
τομία 2279
Αυστραλίας 2278
Λομβαρ@@ 2278
Παγκόσμια 2277
Συχνά 2277
Τουρκο@@ 2277
παράγουν 2277
προσπάθησαν 2277
τερη 2277
Θεωρ@@ 2276
εξέταση 2276
νερ@@ 2276
ύμν@@ 2276
Ρωμαίων 2275
επιστήμες 2275
ρί 2275
τσαρτ 2275
Μαρτ@@ 2274
ίτιδα 2274
στρατιωτών 2274
Πολιτισμού 2273
Σμύρνης 2273
Τουλ@@ 2273
κατάλογος 2273
color 2272
άνεια 2272
έπαιζε 2272
εξορ@@ 2272
σύνη 2272
Έχοντας 2271
μακρ@@ 2271
φίλο 2271
1895 2270
Μέση 2270
αλλιώς 2270
Δαρ@@ 2269
ήσι 2269
κοινωνικά 2269
οσύνη 2269
Πρεσβ@@ 2268
Φίλιππο 2268
άσμα 2268
έται 2268
βασιλικής 2268
ειές 2268
κίτρι@@ 2268
Καπ 2267
ακολουθούσε 2267
διαρ@@ 2267
θάλ@@ 2267
Πήρε 2266
διαιρέ@@ 2266
περιέγραψε 2266
ροφή 2266
χειρουργ@@ 2266
1835 2265
δεχτεί 2265
όπα 2265
ΙΑ 2264
Πρε@@ 2264
αποφασίζει 2264
υγι@@ 2264
Ν.@@ 2263
δολαρίων 2263
παλαιότερη 2263
παρουσιάζεται 2263
ποιος 2263
συσσ@@ 2263
φάσμα 2263
Όλοι 2262
Ιταλός 2262
αποθηκ@@ 2262
θησαυ@@ 2262
τυπικά 2262
Ειρήνη 2261
Συμφ@@ 2261
θου@@ 2261
σχέσεων 2261
71 2260
Φρανκ 2260
αμιν@@ 2260
δηλώσει 2260
as@@ 2259
αναζη@@ 2259
κολλ@@ 2259
ριχ 2259
αστέρες 2258
εργαστήριο 2258
θι@@ 2258
πράσ@@ 2258
στάλθηκε 2258
ήτες 2257
αερίου 2257
ικία 2257
στεφ@@ 2257
ύματα 2257
ώνια 2257
Σύντομα 2256
θεια 2256
ικης 2256
ιτών 2256
μόνιμα 2256
αζόταν 2255
λαμπρ@@ 2255
έσοδα 2254
ενσ@@ 2254
εξελίχθηκε 2254
παρέ@@ 2254
τηλ@@ 2254
Ρωμαιοκαθολ@@ 2253
δρόμ@@ 2253
αντίληψη 2252
δυνα@@ 2252
τύποι 2252
Αυτοκρατορ@@ 2251
Ρε@@ 2251
αρτ@@ 2251
ικανότητες 2251
Ιππ@@ 2250
γη@@ 2250
αναγνώρισε 2249
δημοσιεύτηκε 2249
ιδιαίτερο 2249
υποστεί 2249
φυσικών 2249
θοι 2248
λλου 2248
ωνες 2248
Λι 2247
Μαρκ 2247
άγονται 2247
αιχμαλώ@@ 2247
επιλεγ@@ 2247
εϊ@@ 2247
Βασίλης 2246
επίθεσης 2246
εργασιών 2245
ευρεία 2245
μητρ@@ 2245
υπουργού 2245
ωτά 2245
Σύγ@@ 2244
τιμής 2244
έφυγαν 2243
Ταυτόχρονα 2241
ανταλλαγή 2241
συνεπ@@ 2241
κυβερνήσεις 2240
καταγόταν 2239
μηνών 2239
πρώιμ@@ 2239
τερος 2239
οικονομικό 2238
συλλογής 2238
φέροντας 2238
ακολουθήσει 2237
βιντεοπαιχν@@ 2237
Αναπ@@ 2236
ενμπεργκ 2236
ραμα 2236
… 2236
Εσ@@ 2235
καθαρά 2235
οειδών 2235
βορειο@@ 2234
προσώπου 2234
σώζονται 2234
Δεκ@@ 2233
Καθεδρ@@ 2233
Ντρ@@ 2233
αυτοκρά@@ 2233
ενμπουργκ 2233
Αριστερ@@ 2232
Πατριάρχης 2232
επιπτώσεις 2232
τάφο 2232
αυτόνομ@@ 2231
εξαρτ@@ 2231
μίσ@@ 2231
υποχρεω@@ 2231
καρι@@ 2230
σημαντικότερα 2230
ύρας 2229
ΕΛ@@ 2228
δεδομένου 2228
ενθουσι@@ 2228
καλύπτεται 2228
ταύ@@ 2228
βιος 2227
θεατές 2227
Γραμ@@ 2226
ίθεται 2226
θεί@@ 2226
μεμον@@ 2226
πέτρι@@ 2226
Βασίλισσα 2225
Love 2224
πλήρω@@ 2224
ίστανται 2223
επιδημ@@ 2223
λαφ 2223
μέσος 2223
αυστ@@ 2222
εξορία 2222
επιδράσεις 2222
στρατιωτικών 2222
ωτό 2222
Le 2221
Μάρτιν 2221
βάν@@ 2221
επιστήμης 2221
οσκ@@ 2221
οχυρω@@ 2221
ούκ 2221
σχεδιάστηκε 2221
Δελ@@ 2220
διαιρείται 2220
απαγόρ@@ 2219
είμεν@@ 2219
εκείνα 2219
κόσμος 2219
ie 2218
ανήκαν 2218
συνασπ@@ 2218
ύτερος 2218
Αρμενία 2217
δεσμούς 2217
θέτως 2217
συσκευ@@ 2217
Αντιπροσώπων 2216
Ευρ@@ 2216
έκδοσης 2216
βήμα 2216
μικρότερος 2216
τόνους 2216
ίσα 2215
απορροφ@@ 2215
θαλασσ@@ 2215
κατώ@@ 2215
ομώνυμου 2215
τρε@@ 2215
ανθρακ@@ 2214
πέμπτη 2214
καλεί 2213
μερικοί 2213
σουηδ@@ 2213
όνους 2213
ητήρ@@ 2212
πιάνο 2212
96 2211
Φρου@@ 2211
ίμων 2211
δείγματα 2211
οργανισμός 2211
79 2210
Q@@ 2210
ol@@ 2210
γράφηκε 2210
ιστορικούς 2210
Ιππο@@ 2209
Σέλ@@ 2209
αποφασίστηκε 2209
ειδικές 2209
συνέντευξη 2209
Νόμπελ 2208
προσαρτάται 2208
ρισης 2208
τείνουν 2208
χαρντ 2208
διπλωματ@@ 2207
θρόνου 2207
όψη 2207
Καλών 2206
δείχ@@ 2206
διάθεση 2206
καθεδρ@@ 2206
Γερμανό 2205
δουκάτο 2205
ποί@@ 2205
it 2204
Θάλασσας 2204
ισμένων 2204
λαός 2204
σοβαρές 2204
Σικελία 2203
ιθαγεν@@ 2203
κωμόπολη 2203
προσωπικά 2203
συμβεί 2203
94 2202
Γάλλοι 2202
λανθ@@ 2202
πάντως 2202
τύχη 2202
Χ. 2201
διού 2201
ιστοσελίδα 2201
κληρονομιά 2201
κόν@@ 2201
νεϊ 2201
ρασης 2201
συνέδριο 2201
τεχνολογίας 2201
τσου@@ 2201
υσή 2201
Rock 2200
γενικό 2200
δήμ@@ 2200
ευχαρ@@ 2200
πλαν@@ 2200
ρωση 2200
ότ 2200
Μεσόγειο 2199
Στρατό 2199
Τόμ@@ 2199
ανάγλυ@@ 2199
βήματα 2199
θεσή 2199
No 2198
λεί@@ 2198
μεθαν@@ 2198
σκοτώσει 2198
τρικ 2198
Αρμέν@@ 2196
Οργαν@@ 2196
Περιστ@@ 2196
κέντρου 2196
καθημερινή 2196
κανονικά 2196
κινα 2196
τοιχογραφίες 2196
Αμαλ@@ 2195
Κουν@@ 2195
Ναό 2195
αξε 2195
ατικές 2195
οπτική 2195
περν@@ 2195
υπάρξει 2195
αυγ@@ 2194
βασισμένη 2194
ουκραν@@ 2194
προέλευσης 2194
τ.@@ 2194
Υπηρεσία 2193
έκτοτε 2193
διεθνώς 2193
Άμυνας 2192
Λογοτεχν@@ 2192
έλες 2192
αναλαμβάνει 2192
εδαφών 2192
ειακών 2192
οπαδούς 2192
Ερυ@@ 2191
γυναίκας 2191
δισεκατομμύρια 2191
φωτογραφίες 2191
χρυσά 2191
ύτερο 2191
Μονα@@ 2190
άση 2190
γεγονότων 2190
μόνων 2190
τλ@@ 2190
υρό 2190
Βόρ@@ 2189
Μπατ@@ 2189
αποικία 2189
am 2188
Γυμνα@@ 2188
Ιράκ 2188
Μεθ@@ 2188
ένωσης 2188
ασμένος 2188
ρίσκ@@ 2188
ανεξάρτητο 2187
ητεία 2187
ολόγηση 2187
έγγραφο 2186
κατασκευάστηκαν 2186
νεαρός 2186
συσκευές 2186
έλα@@ 2185
εθνικών 2185
ναι 2185
οποιεί 2185
τοπικών 2185
όδια 2185
ώνονταν 2185
1901 2184
έμειναν 2184
ανοί 2184
θωρακ@@ 2184
μένουν 2184
σύμπ@@ 2184
αμερικάν@@ 2183
κουλ@@ 2183
Νόβ@@ 2182
Πρωσίας 2182
βορρά 2182
βόρ@@ 2182
ποίημα 2182
ic@@ 2181
Πρωθυπουργός 2181
ήθελαν 2181
αισθ@@ 2181
σημαν@@ 2181
5ο 2180
Σούπερ 2180
βιολ@@ 2180
μάτι 2180
πες 2180
φρα@@ 2180
{ 2179
Σαιντ 2179
τουρκικά 2179
δέντρα 2178
επίσημες 2178
σημαντικ@@ 2178
συνεπώς 2178
τευση 2178
τιζ@@ 2178
χες 2178
δημόσι@@ 2177
οφορ@@ 2177
υδατο@@ 2176
τέκ@@ 2175
ώνυμ@@ 2175
Δελφ@@ 2174
ήχου 2174
δεδο@@ 2174
μπασ@@ 2174
Σταν@@ 2173
Βικτ@@ 2172
Βραζιλίας 2172
Κροατίας 2172
εκείνες 2172
οργάνων 2172
τηρίων 2172
Δράμας 2171
Εδώ 2171
Μαθ@@ 2171
Νικηφ@@ 2171
ελαφ@@ 2171
κατάρρευση 2171
κοψε 2171
λοβ@@ 2171
μάγ@@ 2171
συστατικά 2171
συχνότητα 2171
ωμένων 2171
Γκρι@@ 2170
Εβραίους 2170
απουσία 2170
ζή@@ 2170
ιδρύματα 2170
νέοι 2170
τελικός 2170
Κυπριακή 2169
Ουν@@ 2169
Χίου 2169
άγνωστη 2169
άσεως 2169
αί 2169
δημοφιλ@@ 2169
ηγορ@@ 2169
Top 2168
Αλμπ@@ 2168
Λωρραίνης 2168
Μουσείου 2168
κομματ@@ 2168
99 2167
Απόλλων 2167
ήρυξη 2167
παράγωγ@@ 2167
παρακολούθησε 2167
όρθ@@ 2167
αριθμοί 2166
κει@@ 2166
πανεπιστημίου 2166
προσωριν@@ 2166
συγγενείς 2165
τοποθεσίες 2165
ΠΑΣΟΚ 2164
θετική 2164
υπολογίζεται 2164
1,5 2163
καρκίνο 2163
μεταβολές 2163
προτείνει 2163
97 2162
Tr@@ 2162
Μεξικού 2162
κατακτη@@ 2162
τελει@@ 2162
μεγαλύτερ@@ 2161
πόρ@@ 2161
σύλλογοι 2161
Γραμματ@@ 2160
Διοίκηση 2160
διαφορετικών 2160
στελέχη 2159
Ισλανδ@@ 2158
Μύ@@ 2158
έχασαν 2158
ηψης 2158
όλος 2158
άλων 2157
θρησκευτικές 2157
Δικ@@ 2156
Πού@@ 2156
εξασφαλίσει 2156
παραχώρησε 2156
τείνει 2156
στρατιωτικής 2155
ολι@@ 2154
αεροπλ@@ 2153
εισήλθε 2153
εκδήλωση 2153
πίεσης 2153
στενή 2153
συνόρων 2153
Σεν 2152
έγραφε 2152
εκδηλ@@ 2152
φορτηγ@@ 2152
άντη 2151
άπο@@ 2151
διαδικτυ@@ 2150
διευθυντή 2150
μοναδικός 2150
πιστεύουν 2150
χρησιμοποιηθούν 2150
Φοίν@@ 2149
μικρών 2149
τρό 2149
όδρομος 2149
ka 2148
γιατ@@ 2148
ιτζ@@ 2148
Ρέν@@ 2147
Χόλ@@ 2147
αναφερθεί 2147
απόλυτη 2147
τοποθετείται 2147
φύσης 2147
Γιόχαν 2146
ίνσκι 2146
αρχής 2146
ναυπηγ@@ 2146
Me 2145
Έξ@@ 2145
αμε 2145
στέμμα 2145
Αλλ@@ 2144
Γάλλους 2144
Ρωμαϊκ@@ 2144
μικρής 2144
μπροστ@@ 2144
ομοί@@ 2144
6ο 2143
Χάρι 2143
κοντιν@@ 2143
οια 2143
πολωνικά 2143
υπουργό 2143
ώρι@@ 2143
Βασιλικό 2142
Κοινότητας 2142
ισπανική 2142
ica 2141
Όρ@@ 2141
όργ@@ 2141
ώνιος 2141
θιο 2140
μηχανικός 2140
παρατήρ@@ 2140
Ορθόδοξ@@ 2139
ήμα 2139
μέγιστο 2139
χήρα 2139
w@@ 2138
ανοιχ@@ 2138
ιστορικές 2138
Γκού@@ 2137
ΟΗΕ 2137
Παρασκευή 2137
Χαρακτηριστικά 2137
άλει 2137
πόσο 2137
σταθμούς 2136
ινς 2135
Θεσσαλίας 2134
Σαμπ@@ 2134
επαναλ@@ 2134
ηλικιω@@ 2134
μένοντας 2134
οχος 2134
περιορισ@@ 2134
σφαίρα 2134
τρέχ@@ 2134
Δήμ@@ 2133
Στάν@@ 2133
επικοινωνία 2133
νεοσύ@@ 2133
αστρο@@ 2132
ουγγρ@@ 2132
Ζακ 2131
βαδ@@ 2131
διαμόρφωση 2131
ετο@@ 2131
λειτουργούσε 2131
ούταν 2131
αναμ@@ 2130
βλήθηκε 2130
Αύγουστος 2129
διάσημο 2129
κεντρικής 2129
Ελληνικά 2128
Σταυ@@ 2128
Βραβ@@ 2127
Ρεάλ 2127
επεξεργαστ@@ 2127
επιτέθηκαν 2127
παλαιά 2127
27@@ 2126
Φρά@@ 2126
αποδείχθηκε 2126
συνθέσεις 2126
στρα 2125
φορείς 2125
άλλον 2124
έκτακ@@ 2124
ερί 2124
9,@@ 2123
Κάσ@@ 2123
αίθουσες 2123
περίφημ@@ 2123
Cor@@ 2122
Πανελλήν@@ 2122
άλλοτε 2122
βό@@ 2122
όντια 2122
άλες 2121
δυσκολίες 2121
κουζ@@ 2121
συνθέτη 2121
cm 2120
Όλες 2120
ίζα 2120
ρέει 2120
Ιστορίας 2119
Κορινθ@@ 2119
θρησκ@@ 2119
πολιτισμ@@ 2119
1898 2118
Ανδρ@@ 2118
Θεός 2118
επικοινωνίας 2118
Αλέξανδρου 2117
φωνητικά 2117
νομική 2116
συνέβαλε 2115
ωρών 2115
ζήτησαν 2114
ποίησης 2114
πολέμησε 2114
στησε 2114
συμβάλλ@@ 2114
Ραδι@@ 2113
έκρινε 2113
ειδή 2113
εκδίδ@@ 2113
ουγκ@@ 2113
παραγγελ@@ 2113
Γενική 2112
Μουν@@ 2112
έργη 2112
ενδιαφέρ@@ 2112
θεά 2112
κτίστηκε 2112
ούχων 2112
παράγονται 2112
πης 2112
τιδας 2112
mm 2111
Χαμ@@ 2111
δίων 2111
ορισμένους 2111
παράκ@@ 2111
παραλλαγές 2111
προπον@@ 2111
διακρίνονται 2110
77 2109
Βελιγράδι 2109
ικοι 2109
ολογείται 2109
οργανισμό 2109
91 2108
Κολομ@@ 2108
άφους 2108
ατ 2108
αφιέρ@@ 2108
επίδοση 2108
επαγγελματικό 2108
000.000 2107
ήσια 2107
πράκ@@ 2107
ότητές 2107
Ισαβέλλα 2106
απόδειξη 2106
εμπορίου 2106
νεα@@ 2105
ντοκιμαντέρ 2105
σκάφος 2105
Αλγερ@@ 2104
Θράκη 2104
αφήσει 2104
δέρμα 2104
ϊκό 2104
ta 2103
Ιπ@@ 2103
ήφ@@ 2103
όσοι 2103
αέριο 2102
κόρ@@ 2102
οκρατ@@ 2102
άμα 2101
θαρ@@ 2101
θαυμα@@ 2101
λων 2101
τωμα 2101
φάσης 2101
Λέν@@ 2100
ημένων 2100
ξένων 2100
ξεφ@@ 2100
ανάγκασε 2099
νότο 2099
οργανισμού 2099
Βιομηχαν@@ 2098
Παναθηναϊκός 2098
Πραγ@@ 2098
είν@@ 2098
ενδείξεις 2098
ομοφυλ@@ 2098
περιβάλλ@@ 2098
ωφ 2098
Ελλ@@ 2097
Ιάκωβος 2097
Περιοχή 2097
αναπτύσσεται 2097
ατιού 2097
στρατιω@@ 2097
ανη@@ 2096
απάντησε 2096
κοβιτς 2096
μετανάστευ@@ 2096
ομό@@ 2096
άμου 2095
ούμενοι 2095
συνολ@@ 2095
Γκον@@ 2094
γένους 2094
γιοι 2094
θυγατρ@@ 2094
οδότη@@ 2094
γράφων 2093
ελλαδ@@ 2093
μούς 2093
ρίδες 2093
φιλοξενεί 2093
Μίν@@ 2092
αγορές 2092
σύλληψη 2092
it@@ 2091
καταγράφ@@ 2091
οσσ@@ 2091
σήμαινε 2091
σύμβολα 2091
Έντ@@ 2090
εργαλεία 2090
Αναγέννηση 2089
αυτό@@ 2089
εμπιστο@@ 2089
συγκεκριμένες 2089
υποψηφ@@ 2089
All 2088
Con@@ 2088
Λευ@@ 2088
αποτελούνται 2088
διάκ@@ 2088
επιγραφές 2088
ιανός 2088
προτάθηκε 2088
ηλικ@@ 2087
κυκλοφορού@@ 2087
ρίζα 2087
Βαρσοβίας 2086
Εθνικός 2086
πλευράς 2086
ποδοσφαιριστές 2086
Πόρ@@ 2085
αίτημα 2085
καλύτερ@@ 2085
ώπ@@ 2085
ειρα 2084
όρι 2084
Μικράς 2083
νοσ@@ 2083
τηλεοπτικές 2083
δόκ@@ 2082
Το@@ 2081
ολόγου 2081
02 2080
άφιξη 2080
νωρίς 2080
υψηλές 2080
φρόν@@ 2080
ευτές 2079
κί@@ 2079
πορτογαλ@@ 2079
πυρι@@ 2079
φασματικός 2079
ομοσπον@@ 2078
Δύση 2077
Χού@@ 2077
γραμμα 2077
φέ@@ 2077
0.@@ 2076
έλια 2076
ίφ@@ 2076
αλογ@@ 2076
αντικειμένων 2076
κωμωδία 2076
συγγραφ@@ 2076
χωρήσει 2076
Μή@@ 2075
αλήθεια 2075
λατ@@ 2075
πλήρης 2075
Κατασκευ@@ 2074
θετικές 2074
ξεχωριστή 2074
πολις 2074
φυλής 2074
Nissan 2073
Σλοβεν@@ 2073
κιλά 2073
κύκλους 2073
Κυκλ@@ 2072
δημοκρατίας 2072
εκστρατείας 2072
ωθ@@ 2072
Ειδικότερα 2071
Κέι@@ 2071
αδρ@@ 2071
ασυνήθι@@ 2071
δευτερόλεπτα 2071
κατανάλωση 2071
σκο 2071
φρού@@ 2071
γαλλικής 2070
διάμετρο 2070
δράσεις 2070
κατοικίες 2070
Λουί 2069
αντού@@ 2069
εξισ@@ 2069
αναμεν@@ 2068
διαι@@ 2067
ονό@@ 2067
ρικούς 2067
ριστεί 2067
τίμ@@ 2067
χερσ@@ 2067
ine 2066
εξοπλισμό 2066
ορθόδοξ@@ 2066
ύπν@@ 2066
Καλαθοσφαίρισης 2065
Οδ@@ 2065
ήχο 2065
βεν 2065
εθ@@ 2065
εμφ@@ 2065
επιστημονικής 2065
θεατρικό 2065
περιορισμένη 2065
τάφηκε 2065
Άννας 2064
αραβικά 2064
επισκοπή 2064
μουσουλμάν@@ 2064
ονομασίες 2064
Γιώργο 2063
Δεκα@@ 2063
Νορμανδίας 2063
θηλα@@ 2063
τυχαν 2063
89 2062
Ιλ 2062
εισόδου 2062
ισσα 2062
οδρομ@@ 2062
πρότ@@ 2062
Αχιλλ@@ 2061
ευγενών 2061
θολ@@ 2061
θον@@ 2061
μαρ 2061
ται@@ 2061
Α.Σ. 2060
Επιχειρ@@ 2060
τριας 2060
Χανίων 2059
ένταση 2059
συνέβ@@ 2059
Νορβηγ@@ 2058
άρει 2058
ένκο 2058
ανικό 2058
μιρ 2058
σκευ@@ 2058
Τζέν@@ 2057
επιτυγχ@@ 2057
συλλόγων 2057
σύνδρομο 2057
τρι 2057
NGC 2056
ήρωα 2056
αυτοκίνητα 2056
καυ@@ 2056
παγκόσμιας 2056
στολή 2056
αναλογία 2055
θετικά 2055
μακρά 2054
πανεπιστήμια 2054
Times 2053
μορ 2053
ωμένοι 2053
Πληθυσμός 2052
εικα@@ 2052
σύνθε@@ 2052
Επισκοπ@@ 2051
Καναδ@@ 2051
Σώμα 2051
Τσαρλς 2051
στόλος 2051
άλους 2050
ακριβής 2050
λατρεία 2050
μουσικός 2050
νοτιο@@ 2050
συζήτηση 2050
φανερ@@ 2050
χρώματος 2050
Άραβες 2049
αφιερωμένο 2049
ότζ@@ 2049
13ο 2048
Γλ@@ 2048
Δούναβη 2048
ακυρ@@ 2048
δεκάδες 2048
εμπνευσ@@ 2048
ηκ@@ 2048
del 2047
ευτικά 2047
ουρά 2047
ΕΛΑΣ 2046
κατέφυγε 2046
νοσοκομ@@ 2046
στρο 2046
ύλα 2046
Αγγλικά 2045
Σμιθ 2045
έρο 2044
βιομηχανίας 2044
οποιήσει 2044
πλέγ@@ 2044
σκι@@ 2044
στράφηκε 2044
όμορφη 2044
St@@ 2043
αγρι@@ 2043
απεικονίζει 2043
καταλή@@ 2043
παρατηρήσεις 2043
σοβαρή 2043
Βελγίου 2042
αντίστοιχη 2042
απελευθέρ@@ 2042
Ματθ@@ 2041
αρχαίος 2041
δρομή 2041
ζωντανά 2041
κατακτώντας 2041
υποδεικνύ@@ 2041
Μοχ@@ 2040
διατηρούσε 2040
επιρροές 2040
πλέι 2040
εγερ@@ 2039
ρους 2039
σελίδες 2039
στης 2039
παχ@@ 2038
τείται 2038
ώνυμο 2037
Επαγγελ@@ 2036
ιδιαίτερ@@ 2036
κτηνοτροφία 2036
ουφ@@ 2036
υποδύ@@ 2036
όμετρο 2036
NBA 2035
One 2035
Ρω@@ 2035
ευαν 2035
Παυσ@@ 2034
στραμ@@ 2034
αντιπάλους 2033
δικτα@@ 2033
κλάδο 2033
κύκλ@@ 2033
νυχτερ@@ 2033
υφίσταται 2033
Μιλάνο 2032
Νόρ@@ 2032
τιστεί 2032
ηβ@@ 2031
έκ 2029
γυμ@@ 2029
χτύπ@@ 2029
Σλοβακ@@ 2028
μέγιστη 2028
οξείδ@@ 2028
οποί@@ 2028
Αγγ@@ 2027
Μπρι@@ 2027
Συρίας 2027
έμβλημα 2027
επιτυχώς 2027
ισχυρίστηκε 2027
ζόν 2026
ξύλο 2026
τετραγωνικά 2026
1889 2025
Βασίλ@@ 2025
Μητρόπολη 2025
γραφικό 2025
ισοδύνα@@ 2025
λεγόμενο 2025
μονομ@@ 2025
αντές 2024
μικρότερες 2024
φτι@@ 2024
χωρητικότητα 2024
na 2023
Βόρειο 2023
Κωνσταντ@@ 2023
ατικών 2023
9.@@ 2022
Σκωτία 2022
τουρκικό 2022
φιλανθρωπ@@ 2022
Έντουαρντ 2021
οξι@@ 2021
υπόψη 2021
Έσσης 2020
δη@@ 2020
εξειδικευ@@ 2020
παρατηρείται 2020
100.000 2019
άντας 2019
ευτικές 2019
Αφρικαν@@ 2018
αυξαν@@ 2018
διατηρήσει 2018
επισκευ@@ 2018
ανγκ@@ 2017
συγγραφή 2017
ωνύ@@ 2017
Θεόδω@@ 2016
Παιδείας 2016
αρχαίου 2016
μέτρηση 2016
πεδο 2016
στήλη 2016
et@@ 2015
Τάρ@@ 2015
αριθμούσε 2015
καπ@@ 2015
κοινωνικό 2015
παίζοντας 2015
φιγ@@ 2015
αλφαβ@@ 2014
βαριά 2014
Νάπολης 2013
Σκο@@ 2013
Τσεχοσλοβακ@@ 2013
γιατρός 2013
εγκληματ@@ 2013
Πωλ 2012
κοφ@@ 2012
μεταρρυθμίσεις 2012
οκομ@@ 2012
ουκ 2012
τουρκο@@ 2012
Λήμ@@ 2011
πάρα 2011
σκοπός 2011
Έρευ@@ 2010
Επέστρεψε 2010
έψ@@ 2010
διαδικασίας 2010
θέας 2010
πυρα@@ 2010
ριζε 2010
Οδυσσ@@ 2009
Τζων 2009
παρουσίαση 2009
φυτό 2009
Εσωτερικών 2008
άσια 2008
ανθρώπινο 2008
διαφορετικούς 2008
στρατόπεδα 2008
ina 2007
αποκαλείται 2007
επισκέφθηκε 2007
μεγαλύτερους 2007
πλήρες 2007
άθλ@@ 2006
άτσ@@ 2006
απολύ@@ 2006
αψ@@ 2006
λήψη 2006
ολόγησης 2006
υπόγ@@ 2006
Th@@ 2005
Εμφαν@@ 2005
Οίκος 2005
E9E9E9 2004
Νυ@@ 2004
κίνη@@ 2004
οφιλ@@ 2004
Εδουάρδος 2003
Πετρ@@ 2003
Σύνοδο 2003
ευτής 2003
Όρος 2002
Πάνω 2002
εγγονός 2002
ισχ@@ 2002
Ανδρών 2001
απέρριψε 2001
ετησίως 2001
τιμών 2001
Λέων 2000
Σερ 2000
πολλαπλασι@@ 2000
προκαλ@@ 2000
χερσόνησο 2000
προσευ@@ 1999
Ανήκει 1998
Ρόδου 1998
Θάνατος 1997
άνα@@ 1997
πλαισ@@ 1997
ηχογραφήσεις 1996
θεού 1996
λιση 1996
2,5 1995
id 1995
αμερ@@ 1995
Ινστιτούτου 1994
δεχθεί 1994
νεαρό 1994
συνέλευση 1994
τροπή 1994
15ο 1993
Πρωθ@@ 1993
εργάτες 1993
καλείται 1993
μαντ@@ 1993
μετατρέ@@ 1993
πετύχει 1993
My 1992
ντι@@ 1992
πολίτευ@@ 1992
φυσικός 1992
Περιφέρειας 1991
αφαιρέ@@ 1991
δουλεύ@@ 1991
μονα 1991
νύχ@@ 1991
υδροξ@@ 1991
Le@@ 1990
Τζόρ@@ 1990
ξενοδοχ@@ 1990
ουσιών 1990
δίσκους 1989
κήρυξε 1989
Ολυμπιακών 1988
Ρόλου 1988
Τραπεζ@@ 1988
αργά 1988
ονόματι 1988
στάιν 1988
ad 1987
metal 1987
Αμέσως 1987
Βερν@@ 1987
Λεμεσού 1987
διαδοχή 1987
σκέψη 1987
όμε@@ 1987
Μανουήλ 1986
αντίστροφ@@ 1986
ναϊκ@@ 1986
μαρμά@@ 1985
Αντώνιος 1984
Δε@@ 1984
Διαφ@@ 1984
Καστίλης 1984
Σάβ@@ 1984
Τραγουδιού 1984
ανανε@@ 1984
εθνικά 1984
θεραπείας 1984
κλάδος 1984
πρωθυπουργού 1984
σπουδαι@@ 1984
Διοικητική 1983
Ζι@@ 1983
ειδικ@@ 1983
κν@@ 1983
πελλα 1983
σφραγ@@ 1983
Ορθ@@ 1982
ραγκ@@ 1982
Μονάχου 1981
άγι@@ 1981
αναφερόταν 1981
αυτοκινήτων 1981
επιβι@@ 1981
ανάλογ@@ 1980
γρα@@ 1980
κυλ@@ 1980
αναλύ@@ 1979
ητικός 1979
κλασσ@@ 1979
ρύθμιση 1979
χειμερ@@ 1979
ation 1978
Γ.Σ. 1978
Στρα@@ 1978
αναπτυχθεί 1978
απαιτήσεις 1978
τάφος 1978
Αγρο@@ 1977
Βρετανική 1977
Σχέδιο 1977
Τέτο@@ 1977
ζονταν 1977
κάς 1977
λαση 1977
ορυκτ@@ 1977
ούρι 1977
σια 1977
σκλάβ@@ 1977
Αργεντινή 1976
Βον@@ 1976
Κοζάνης 1976
κάποιους 1976
ωνικός 1976
Θεό 1975
καλύψει 1975
σύγχρονες 1975
τηλεόρασης 1975
u@@ 1974
Ανγκ@@ 1974
άνγκ 1974
βίαι@@ 1974
ικίας 1974
κρατική 1974
ΟΣ 1973
αργύρου 1973
Κορέα 1972
Φρανσουά 1972
σκο@@ 1972
ΑΕ 1971
θεσαν 1971
σύσταση 1971
1830 1970
Πέτρο 1970
γεννα@@ 1970
σχεδι@@ 1970
όλυ@@ 1970
2ου 1969
os@@ 1969
Θεάτρου 1969
έθηκε 1969
αλλάζει 1969
δοκιμα@@ 1969
Πρίγκιπα 1968
Πρωταγων@@ 1968
άσκηση 1968
αντιπολίτευσης 1968
κς 1968
WWE 1967
Γι 1967
Κριμαίας 1967
αριστ@@ 1967
γερμανικές 1967
επισήμως 1967
κοί 1967
κρέ@@ 1967
ολοκλήρου 1967
Χάμ@@ 1966
άκου 1966
άρε@@ 1966
ατο 1966
Ποι@@ 1965
πλήρωμα 1965
Γεωργία 1964
Διασ@@ 1964
Ειρήνης 1964
Λαυ@@ 1964
δάσκαλ@@ 1964
εκτελέστηκε 1964
6η 1963
ήχθησαν 1963
ίδιες 1963
αιθαν@@ 1963
μετρι@@ 1963
ύρια 1963
ύρου 1963
Εθνοσυνέλευση 1962
Τοποθεσία 1962
αστών 1962
περιλαμβάνεται 1962
ωδίες 1962
1885 1961
Br@@ 1961
III 1961
th@@ 1961
δυνατότητες 1961
σοβαρ@@ 1961
τάζ 1961
χαρακτήρων 1961
Γιανν@@ 1960
Φαλ@@ 1960
διάγνωση 1960
διαφοροποι@@ 1960
ερυθρ@@ 1960
Γκαλ@@ 1959
εσης 1959
ιαπ@@ 1959
άκρα 1958
μέτρησης 1958
σελ 1958
χρήστη 1958
Δημοκρατικό 1957
Ιησ@@ 1957
άδος 1957
ακόλουθες 1957
διάδ@@ 1957
καλλ@@ 1957
πλα 1957
προβιβ@@ 1957
όντος 1957
Μεσογείου 1956
Νερ@@ 1956
Προφ@@ 1956
πάροδο 1956
προϊστο@@ 1956
τερματο@@ 1956
τοποθέτηση 1956
Τζέρ@@ 1955
αϊκή 1955
βασίζονται 1955
ηνα@@ 1955
θεός 1955
ιθ@@ 1955
στησαν 1955
υπέ@@ 1955
Κροατία 1954
οθόνη 1954
Ακτ@@ 1953
Γ.@@ 1953
αφήν@@ 1953
19@@ 1952
Ντάν@@ 1952
αδελφ@@ 1952
κόκ@@ 1952
Γερουσία 1951
Κράτους 1951
Στι@@ 1951
Φώ@@ 1951
κόντρα 1951
σκάφη 1951
ταξίδια 1951
Αθηναίων 1950
Μπολ@@ 1950
Σλάβ@@ 1950
έντο 1950
εκπομπής 1950
εξασφάλισε 1950
επιμελ@@ 1950
14ο 1949
απόρ@@ 1949
προσωρινή 1949
ρίδιο 1949
ίκων 1948
ορού@@ 1948
σύμμαχ@@ 1948
CH2@@ 1947
Ναζί 1947
Πέρσες 1947
γιορ@@ 1947
ευαισθη@@ 1947
ηγήθηκε 1947
νεότερος 1947
προστέθηκε 1947
πτω@@ 1947
συνοδευ@@ 1947
Ποδοσφαιρική 1946
δυτικής 1946
Εξαιτίας 1945
Πρα@@ 1945
βος 1945
ρασαν 1945
ῶν 1945
Βασίλειος 1944
Μακεδ@@ 1943
Μπί@@ 1943
προκαλούν 1943
τριάντα 1943
Καλύτερης 1942
Πανι@@ 1942
συνοικ@@ 1942
Ομίλου 1941
αυθ@@ 1941
επιστρέφ@@ 1941
κατέστησε 1941
λατινική 1941
μειώθηκε 1941
ορυχ@@ 1941
περνάει 1941
σύνθεσης 1941
Saint 1940
ανακηρύ@@ 1940
δέντρο 1940
καθένα 1940
Κιλ@@ 1939
Σλαβ@@ 1939
έλυσε 1939
ίω@@ 1939
δακ@@ 1939
συμβουλ@@ 1939
ταξιδεύ@@ 1939
ότο 1939
αμφισβητ@@ 1938
απάν@@ 1938
νησιών 1938
1860 1937
Έθελ@@ 1937
Ανδρόν@@ 1937
άνους 1937
επικράτ@@ 1937
παρείχε 1937
ευγεν@@ 1936
στοιχ@@ 1936
αναγκ@@ 1935
αφ 1935
διαστάσεων 1935
υλι@@ 1935
Ο. 1934
αντιδρα@@ 1934
συντομ@@ 1934
Ακολούθησαν 1933
Κλέ@@ 1933
υλο 1933
Δυνάμεων 1932
Κίνημα 1932
έλαιο 1932
έφαλ@@ 1932
ανα 1932
προμή@@ 1932
Βυζαντινής 1931
Ουάσινγκτον 1931
Πειρα@@ 1931
χώρηση 1931
ενορ@@ 1930
λε 1930
πρωτό@@ 1930
σύγχρονα 1930
w 1929
Αθανάσιος 1929
Μέτωπο 1929
Χερσ@@ 1929
δοκιμές 1929
κινητήρες 1929
νοτι@@ 1929
φαι@@ 1929
ακαδημ@@ 1928
ανακαιν@@ 1928
ετική 1928
ιακούς 1928
Σακ@@ 1927
διατυπ@@ 1927
εξέγερσης 1927
ημιτελ@@ 1927
μπού 1927
τέλ 1927
αντίθε@@ 1926
δύνα@@ 1926
ειάς 1926
καλλιτεχνική 1926
κρίθηκε 1926
πρωτεύ@@ 1926
DVD 1925
κακή 1925
Άγγλος 1924
κενό 1924
κυκλοφορεί 1924
στάν 1924
du 1923
ήθη 1923
δίκτυα 1923
θείος 1923
κοινο@@ 1923
ότητος 1923
Γενικό 1922
ΠΟ@@ 1922
στήριξη 1922
υπόλοιποι 1922
1848 1921
Ζα@@ 1921
Ηθ@@ 1921
Σέρβ@@ 1921
ακόλου@@ 1921
am@@ 1920
εκ. 1920
σχεδια@@ 1920
Star 1919
ήντα 1919
βιλ 1919
δωμάτιο 1919
εστιατ@@ 1919
πολιτιστική 1919
στου 1919
σαν@@ 1918
Χάλ@@ 1917
έλαγος 1917
γοτθ@@ 1917
γυναικεία 1917
ετεροθαλ@@ 1917
έζ 1916
αποδεκ@@ 1916
βαρύτη@@ 1916
μόνιμη 1916
διαδραματ@@ 1915
ιακ@@ 1915
καζ@@ 1915
νυ@@ 1915
τρων 1915
Δουκάτο 1914
Εποχή 1914
Πολύ@@ 1914
αγωνίσματα 1914
κυρ@@ 1914
λάν@@ 1914
λίμνες 1914
ποτε 1914
γεωγραφικό 1913
ορθογ@@ 1913
συσκευή 1913
ΕΠ@@ 1912
Ωκε@@ 1912
ήτου 1912
ακολουθώντας 1912
καταλήφθηκε 1912
οινων@@ 1912
παραχωρ@@ 1912
συγκροτήματα 1912
Ύστερα 1911
βγήκε 1911
πρωθυπουργό 1911
ψυχαγωγ@@ 1911
Ιεράς 1910
δοκί@@ 1910
ομίλων 1910
παρόν 1910
Εμπ@@ 1909
αντο@@ 1909
εδρεύει 1909
εργαστεί 1909
ρούχα 1909
συγχώνευση 1909
όσημο 1909
Εί@@ 1908
βοήθ@@ 1908
στία 1908
Αδόλ@@ 1907
θεία 1907
μηχανές 1907
πεδία 1907
συνόδευ@@ 1907
φιλόσοφος 1907
χρονιές 1907
York 1906
Οργανισμού 1906
διατήρ@@ 1906
ερχόταν 1906
πήγ@@ 1906
πηγαίνει 1906
δημοσίευση 1905
Φραγκίσκος 1904
άγιος 1904
αύξ@@ 1904
οδηγίες 1904
ποταμών 1904
Γραφ@@ 1903
ήρυξε 1903
δεσμεύ@@ 1903
ευρύτερ@@ 1903
υποψήφια 1903
φαντασίας 1903
Αποτελέσματα 1902
υποστήριζε 1902
αποφεύγ@@ 1901
επωνυμία 1901
μυρ@@ 1901
τέχνες 1901
χρωμ@@ 1901
Νικόλαο 1900
Παλάτι 1900
Σικ@@ 1900
άσκησε 1900
είνουν 1900
Ανθρω@@ 1899
οξειδ@@ 1899
φρουρά 1899
In 1898
Κιλκίς 1898
άλει@@ 1898
ία@@ 1898
γυαλ@@ 1898
εξετάσεις 1898
ιατρικής 1898
νομιμ@@ 1898
Συνέχισε 1897
βρήκαν 1897
εμφάνισή 1897
καλύπτουν 1897
πολογ@@ 1897
υποστήρι@@ 1897
Ντάρ@@ 1896
έλλειψης 1896
βασίστηκε 1896
συμπεριλήφθηκε 1896
όπη 1896
Σάλ@@ 1895
Φόρ@@ 1895
έθ@@ 1895
ίδος 1895
ευκολ@@ 1895
θείου 1895
στόχους 1895
ley 1894
Οικονομία 1894
ημιτελικό 1894
κατάργηση 1894
τρόφιμα 1894
ύκ@@ 1894
Εδ@@ 1893
Καρο@@ 1893
Νήσων 1893
γυρίσματα 1893
διαφορε@@ 1893
διόρισε 1893
ινός 1893
κυριαρχίας 1893
τόπου 1893
20.000 1892
Γενεύ@@ 1892
Δρ@@ 1892
Τους 1892
δότησε 1892
εκτοπ@@ 1892
έκτασης 1891
αναπτύσσ@@ 1891
μάζας 1891
πλείστον 1891
Όν@@ 1890
ΕΚ 1890
Ρωμα@@ 1890
ζώνες 1890
κοινωνικών 1890
έλεγχος 1889
εννο@@ 1889
σπάν@@ 1889
συζητ@@ 1889
συνεργάτες 1889
Ριζ@@ 1888
Στάλιν 1888
ενδο@@ 1888
προσκυν@@ 1888
ριακές 1888
τέρμα 1888
Αντόνιο 1887
ζι@@ 1887
μετανάστες 1887
σημειώνοντας 1887
Άρχ@@ 1886
ισον 1886
10.@@ 1885
αγροτική 1885
αδερφή 1885
ειακής 1885
πουλιά 1885
φόρου 1885
χρονο 1885
² 1884
Σικάγο 1884
Χοεν@@ 1884
βίλ 1884
εξόρι@@ 1884
καταστροφές 1884
περισσότερων 1884
American 1883
διδακτορικό 1883
συνορεύει 1883
κάτου 1882
τερς 1882
διανομή 1881
διασχ@@ 1881
εφηβ@@ 1881
κινδύ@@ 1881
μόρφω@@ 1881
όμηση 1881
ίκια 1880
ειακού 1880
εκατοστά 1880
κατοχ@@ 1880
μαυ@@ 1880
πρωτότυπο 1880
ρουμαν@@ 1880
σερ 1880
συνδέθηκε 1880
απεσταλ@@ 1879
μήνυμα 1879
Βόλου 1878
δι 1878
πραγματοποιήσει 1878
τριπλ@@ 1878
βες 1877
επηρέασε 1877
σωμάτων 1877
τέ 1877
τακτικά 1877
ύθηκε 1877
Time 1876
Ιδιαίτερ@@ 1876
Χο@@ 1876
θεώρησε 1876
De@@ 1875
× 1875
Έρικ 1875
Ενω@@ 1875
οχήματα 1875
στίχοι 1875
ώρου 1875
Νοτιο@@ 1874
άσο 1874
εφαρμόσ@@ 1874
φάσεις 1874
φυλε@@ 1874
γεν. 1873
πνεύ@@ 1873
Καβάλας 1872
Λίμνη 1872
αντς 1872
δικαίου 1872
ινι@@ 1872
ιστορικών 1872
Εγκ@@ 1871
Σμύρνη 1871
αποτυχ@@ 1871
ετυμ@@ 1871
εφοδιασ@@ 1871
ητά 1871
ολόγοι 1871
σχηματίστηκε 1871
τραγουδιστή 1871
χρέ@@ 1871
ύγει 1871
ασθένειες 1870
εξίσωση 1870
ξέρ@@ 1870
άντης 1869
ελέγχ@@ 1869
φοράς 1869
Μαραθ@@ 1868
Φιλιππ@@ 1868
άνοι 1868
αναπαραγωγής 1868
εντυπω@@ 1868
προσέφερε 1868
πότε 1868
Qu@@ 1867
Φινλανδία 1867
αποθήκ@@ 1867
βασί@@ 1867
νησή 1867
ρίς 1867
συμπαίκ@@ 1867
όγδο@@ 1867
ΑΟ 1866
Πρώτο 1866
νικώντας 1866
σχεδιασμού 1866
σύρ@@ 1866
Λιθουανίας 1865
Πατριάρχη 1865
διαδηλ@@ 1865
λιο@@ 1865
πληθυσμούς 1865
πολωνική 1865
σημεί@@ 1865
Λαζ@@ 1864
ολογικός 1864
υπολογιστές 1864
όπλο 1864
ασμα 1863
Κοσ@@ 1862
θαλάσ@@ 1862
ολόγων 1862
πλούσιο 1862
Ερευ@@ 1861
Ηλία 1861
ήτων 1861
οπή 1861
ρε 1861
σώζεται 1861
Ενε@@ 1860
ΣΥ@@ 1860
επάγγελμα 1860
μηδέν 1860
Μπερν@@ 1859
αγιά 1859
τυπο 1859
φαινόμενα 1859
άλεσε 1858
ελαφρώς 1858
εμπορικές 1858
ενισχυ@@ 1858
προφανώς 1858
υιοθέτησε 1858
φιλοσοφίας 1858
επανεξελέγη 1857
οντα@@ 1857
προώ@@ 1857
σημερινού 1857
1866 1856
Δήμαρχος 1856
αχθεί 1856
δίκαιο 1856
δίω@@ 1856
εύς 1856
ιμπ@@ 1856
ξύ@@ 1856
οφθαλ@@ 1856
σημαντικότερο 1856
τίζεται 1856
Αιτωλ@@ 1855
Παναθηναϊκού 1855
δεύτερ@@ 1855
εμπό@@ 1855
ινούς 1855
υποψήφιοι 1855
Γκο@@ 1854
Καλαμ@@ 1854
άλογ@@ 1854
ήγαγε 1854
εγκαταστ@@ 1854
ζώνης 1854
Play 1853
st@@ 1853
Βαλδου@@ 1853
νεκροταφείο 1853
πτήσεις 1853
1ου 1852
ήρας 1852
αριστερή 1852
αστρονόμ@@ 1852
ενώσεων 1852
πολίτης 1852
αιτι@@ 1851
αυτοκινητο@@ 1851
δείτε 1851
εκλεγεί 1851
εργο@@ 1851
θαλάσσια 1851
φίλοι 1851
χαρακτηριστική 1851
Ιρλανδ@@ 1850
Ντεν@@ 1850
Πάρκο 1850
άσος 1850
αριού 1850
προσωπικότητα 1850
συνεργάτης 1850
ot@@ 1849
Παγκόσμιας 1849
Χένρι 1849
λόφου 1849
σημαντικότερες 1849
Μόναχο 1848
Σιλ@@ 1848
Σμ@@ 1848
απονέ@@ 1848
γιορτά@@ 1848
ελεγχ@@ 1848
νταν 1848
π.@@ 1848
ενοχ@@ 1847
φοι@@ 1847
Βουρβόνων 1846
ορίζει 1846
πλασ@@ 1846
It 1845
ΑΤ@@ 1845
Κυν@@ 1845
αδερφός 1845
διάβ@@ 1845
θαύ@@ 1845
συν 1845
φού@@ 1845
Μάντσεστερ 1844
άσι 1844
εφαρμό@@ 1844
στέφθηκε 1844
τώ 1844
Ελβ@@ 1843
επιστήμ@@ 1843
θαμ@@ 1843
θει 1843
ιστορι@@ 1843
ποταμ@@ 1843
τει 1843
Ιρλανδίας 1842
Λαμπ@@ 1842
Περιφερειακής 1842
αδελφούς 1842
βιογραφία 1842
πάντοτε 1842
ύρος 1842
Έγραψε 1841
Πλέ@@ 1841
μουσικούς 1841
φάρμακο 1841
1894 1840
ul@@ 1840
Ναβ@@ 1840
Σταθμός 1840
έψεις 1840
διατηρη@@ 1840
παλαιότερο 1840
συγκλ@@ 1840
σχόλια 1840
ana 1839
άμεν@@ 1839
διακοπή 1839
εφαλ@@ 1839
κατάλληλη 1839
πύργος 1839
ρυθμού 1839
επιστολές 1838
τεράστιο 1838
Σόφ@@ 1837
έζα 1837
δυσκολ@@ 1837
εθεί 1837
κατανόηση 1837
πε 1837
σχηματίζοντας 1837
υποστηρίξει 1837
Ελε@@ 1836
Σάρ@@ 1836
Συμφωνία 1836
εγκρίθηκε 1836
μνήμης 1836
ορδ@@ 1836
συνέπειες 1836
τζο 1836
1879 1835
Αεροπορίας 1835
Αυλή 1835
Πρί@@ 1835
Χίλ@@ 1835
εγκατα@@ 1835
εξαιρετική 1835
εων 1835
ροής 1835
τέτοιες 1835
Πρόσ@@ 1834
Συλλόγου 1834
προσελκύ@@ 1834
ton 1833
Γρηγόριος 1833
Σιδη@@ 1833
Σιμ@@ 1833
Φερν@@ 1833
ένια 1833
ηρε@@ 1833
κλίση 1833
Βέλ@@ 1832
βάσης 1832
μεγαλύτερου 1832
μους 1832
Αγωνίστηκε 1831
παραθ@@ 1831
προσωπικού 1831
ανν@@ 1830
θρω@@ 1830
λογισμικού 1830
12ο 1829
Γάλλο 1829
ήρυ@@ 1829
ισθη@@ 1829
σερβικά 1829
ύλιο 1829
Cup 1828
ατιν@@ 1828
γιορτή 1828
ενδεχ@@ 1828
τρεψαν 1828
Παγκόσμιου 1827
βασισμένο 1827
συμπερ@@ 1827
υρι@@ 1827
δετερ@@ 1826
επιθετικός 1826
μόρφωση 1826
περ. 1826
πιστοποι@@ 1826
τίμησε 1826
επιτρέπουν 1825
καλαθοσφαιριστής 1825
σχηματίζεται 1825
τυφλ@@ 1825
CE 1824
Di@@ 1824
καθυστερ@@ 1824
λουλ@@ 1824
μύθο 1824
πεδιάδα 1824
αίσ@@ 1823
διοργανώθηκε 1823
παράδ@@ 1823
τέκνο 1823
ώρια 1823
Y 1822
Κοι@@ 1822
καθυστέρ@@ 1822
οργάνωσε 1822
στήλ@@ 1822
χημικό 1822
ύν 1822
Δυνάμεις 1821
Ράι@@ 1821
Στρατός 1821
Συνα@@ 1821
έντι 1821
έτρ@@ 1821
δούλ@@ 1821
καταλαμβάνει 1821
παρέμβαση 1821
ριντ 1821
γίνονταν 1820
κατασκευές 1820
περιγράφ@@ 1820
τεχνικό 1820
τιλ@@ 1820
15ου 1819
Κορέας 1819
αποικίες 1819
εκφρα@@ 1819
κρατούμεν@@ 1819
πρακτικές 1819
προερχ@@ 1819
De 1818
Ζεν@@ 1818
ανθρώπινης 1818
απεικονίζεται 1818
Εργάστηκε 1817
Ολύ@@ 1817
Τρεις 1817
άνονταν 1817
νού@@ 1817
παρουσιάζονται 1817
σιγά 1817
στέκ@@ 1817
αναπτύξει 1816
επιχείρησης 1816
οδηγώντας 1816
παραλλαγή 1816
πολιτισμός 1816
ότητάς 1816
Στιούαρτ 1815
ίγκ@@ 1815
κινδύνου 1815
κριτήρια 1815
ντελ 1815
οφόρα 1815
ὐ@@ 1815
Πετρούπολη 1814
μέσ@@ 1814
νοι@@ 1814
παίρνοντας 1814
σχεδίασε 1814
Κάποια 1813
Λαϊκό 1813
Συλλογ@@ 1813
αλλαγής 1813
διεξαγωγής 1813
ευημερ@@ 1813
μαθηματικών 1813
άγους 1812
έχθηκε 1812
διαταραχή 1812
δραστηριότητας 1812
μαθη@@ 1812
ολοκληρωθεί 1812
πρωτότοκος 1812
χαρακτηρίστηκε 1812
όμορφ@@ 1812
2ος 1811
Ημέρα 1811
έπε 1811
βέβαια 1811
δίπλωμα 1811
δωρεάν 1811
θρο 1811
ξεως 1811
σκληρή 1811
Δαλ@@ 1810
ΕΣ 1810
Ποταμ@@ 1810
μεσα 1810
πέμπτο 1810
συνεργαστεί 1810
ταξί@@ 1810
τελείου 1810
τοκρά@@ 1810
φυλακίστηκε 1810
Στερε@@ 1809
άργ@@ 1809
ελεύθερος 1809
μετάδοση 1809
Γουιν@@ 1808
Σπάρτη 1808
καταστήσει 1808
ματς 1808
Γκραν 1807
Χουάν 1807
έντονο 1807
ανε@@ 1807
εκδοχές 1807
λησης 1807
Χάρι@@ 1806
κατοικούσαν 1806
Co@@ 1805
Hot 1805
ζεύγος 1805
ινες 1805
νομοθεσία 1804
σεξουαλική 1804
ψυχή 1804
En@@ 1803
ειακ@@ 1803
παίζουν 1803
τμημάτων 1803
όρν@@ 1803
ύτερη 1803
Βορρά 1802
αγκά@@ 1802
αστικού 1802
στασίου 1802
Γκραντ 1801
Κρέ@@ 1801
Νότιο 1801
άντρα 1801
διακυβέρνηση 1801
θερμοκρασίας 1801
λευσε 1801
οξυγόνο 1801
Ολ@@ 1800
καλύτερος 1800
κορυφές 1800
περιπέτ@@ 1800
πυρκαγιά 1800
Ηλίας 1799
γυμνάσιο 1799
ευτυχ@@ 1799
κουλτούρα 1799
προορισμό 1799
σχήματος 1799
Γκό@@ 1798
Ηλ@@ 1798
ιατ@@ 1798
στράτηγ@@ 1798
Λάμ@@ 1797
ηματικά 1797
ογιάν@@ 1797
πολύτι@@ 1797
σημειώθηκε 1797
Λουίζα 1796
ινού 1796
καρ 1796
καρπ@@ 1796
οδρόμ@@ 1796
Ιστορική 1795
Ουίλιαμ 1795
Προοδευ@@ 1795
ήκ@@ 1795
ήνιο 1795
βόμβ@@ 1795
Έλληνα 1794
κομμάτων 1794
μπαράζ 1794
σχολές 1794
ad@@ 1793
} 1793
επίκεντρο 1793
ροφυλ@@ 1793
χώρισε 1793
ῖ@@ 1793
οριών 1792
τσια 1792
Ξάνθης 1791
διακρίνεται 1791
διαρκεί 1791
διαστήματα 1791
Σατ@@ 1790
Τελευτα@@ 1790
ημένης 1790
καλα@@ 1790
υποψηφιότητες 1790
Αμερικανική 1789
γή@@ 1789
ηχογράφηση 1789
ιδιωτική 1789
περνά 1789
ριακά 1789
άνδ@@ 1788
ανταπο@@ 1788
ηθική 1788
χημικά 1788
χρηματοδότηση 1788
χώροι 1788
Βούλγαρ@@ 1787
Παράδ@@ 1787
μοίρα 1787
νότιας 1787
οποιείται 1787
ταχύτητας 1787
τιμάται 1787
χαρακτηρίζονται 1787
Διονύ@@ 1786
κυμαίνεται 1786
τιμος 1786
ΕΡΤ 1785
Σπυρί@@ 1785
αδερφό 1785
αντίστασης 1785
αντιστασ@@ 1785
εκτεν@@ 1785
ετής 1785
κερδίζει 1785
μετέβη 1785
ομιλίες 1785
οξυγόνου 1785
census 1784
γκτον 1784
κατόρθωσε 1784
λεσ@@ 1784
οξείδιο 1784
ορισμού 1784
ουχ@@ 1784
1892 1783
Γκάρ@@ 1783
Κατο@@ 1783
Λιν@@ 1783
απαραίτητη 1783
πνευματική 1783
ταυτ@@ 1783
όφυ@@ 1783
School 1782
Σαρλ 1782
επλ@@ 1782
κόκκιν@@ 1782
ολό@@ 1782
hous 1781
­ 1781
Αρά@@ 1781
Εύβοιας 1781
άντε 1781
κριτικούς 1781
σιακά 1781
National 1780
Ισλαμ@@ 1780
αρα 1780
διασώ@@ 1780
επίσκεψη 1780
ερασ@@ 1780
μοιρα@@ 1780
ξεκινάει 1780
ποινα 1780
ελικ@@ 1779
επικρά@@ 1779
καινο@@ 1779
ξερ@@ 1779
πάπας 1779
σύντροφ@@ 1779
www.statistics.gr 1778
Αξιοθέατα 1778
Γαλατ@@ 1778
Πέρα 1778
ούλι 1778
ριζαν 1778
ωδίας 1778
Νίκο 1777
Πλατ@@ 1777
Τατ@@ 1777
άλβεδό 1777
ανάδειξη 1777
βη@@ 1777
μαχίας 1777
.Το 1776
ίνει 1776
θεωρούσαν 1776
κίτρινο 1776
μαρκ@@ 1776
ύγουν 1776
Ονομασία 1775
οργανισμών 1775
περιεχομένου 1775
στάθηκε 1775
τήτων 1775
sh@@ 1774
Βρετανοί 1774
Μιχα@@ 1774
αγωνιστικές 1774
εύρος 1774
κραν@@ 1774
προσφύγων 1774
σπαν@@ 1774
ψυχρ@@ 1774
Γουλιέλμο 1773
Δεύτερη 1773
αγωγές 1773
αναρχ@@ 1773
περιεκ@@ 1773
πρωταγωνιστές 1773
ρίαση 1773
ύλακες 1773
ΕΟ@@ 1772
ίκους 1772
αίρεση 1772
βιομηχανική 1772
είσοδος 1772
εκτιμήσεις 1772
εξάδελφ@@ 1772
κυβέρνησε 1772
σταφ@@ 1772
συγκαταλ@@ 1772
τεία 1772
ότερ@@ 1772
Γκαμπ@@ 1771
έμ 1771
ανατολικές 1771
ολυμπιονίκης 1771
συνεχείς 1771
τέλους 1771
υποστηρί@@ 1771
βορειοδυ@@ 1770
εφαλής 1770
σος 1770
ur@@ 1769
Μάρκο 1769
διατηρού@@ 1769
Ιβη@@ 1768
Σίλ@@ 1768
στευ@@ 1768
li@@ 1767
έλτα 1767
αλγ@@ 1767
αρχιτέκτονας 1767
πληγ@@ 1767
ρούνται 1767
φλοι@@ 1767
Αλή 1766
Σουλ@@ 1766
Χολ@@ 1766
δίωξη 1766
επεξεργασίας 1766
οσία 1766
ούχου 1766
ποντας 1766
άλλης 1765
δημόσιες 1765
σουλτάν@@ 1765
χρυσού 1765
Ακρω@@ 1764
έντρ@@ 1764
αναγκάστηκαν 1764
διάδοση 1764
ενν@@ 1764
οικοδόμ@@ 1764
πιστεύει 1764
Βαβυλ@@ 1763
ΕΤ@@ 1763
διατηρήθηκε 1763
δραστηριοτήτων 1763
ρούσαν 1763
τέλης 1763
ασβεστ@@ 1762
εμφύ@@ 1762
κρέας 1762
ναί 1762
στάσιο 1762
φυγή 1762
χαρακτηριστ@@ 1762
Βουδ@@ 1761
Κέρ@@ 1761
Νίκαιας 1761
λεξε 1761
υποδηλώνει 1761
Ίδρυ@@ 1760
κά 1760
μετατροπή 1760
προσχ@@ 1760
Θή@@ 1759
Σοφίας 1759
ακτιβ@@ 1759
ακτινοβολία 1759
αρκετών 1759
διαγωνισμού 1759
Εκείν@@ 1758
Λαϊκή 1758
εμπλέκ@@ 1758
ζημ@@ 1758
κυρί@@ 1758
προσφέρουν 1758
συνάν@@ 1758
ίδιοι 1757
ηνίας 1757
ξενοδοχείο 1757
φορο@@ 1757
χάρτη 1757
ac@@ 1756
Πηγ@@ 1756
μαύρη 1756
Βουλευ@@ 1755
Ιάπ@@ 1755
διαφέρουν 1755
ενδιαφέροντος 1755
ξεχωριστά 1755
όμορφα 1755
Γενικού 1754
βερ 1754
δεσπό@@ 1754
νουν 1754
ολική 1754
Πρωταθλητής 1753
Ταχ@@ 1753
αγρότες 1753
φωλι@@ 1753
αεροσκαφών 1752
βλάστηση 1752
δικού 1752
θηλυκά 1752
Καυ@@ 1751
διαφέρει 1751
Ερζεγοβίνης 1750
Λόγ@@ 1750
απαραίτητα 1750
κατηγορού@@ 1750
πολιτ@@ 1750
AN@@ 1749
Άντρι@@ 1749
Νιού@@ 1749
Ολο@@ 1749
Πολύ 1749
Πρωτεύουσα 1749
απορ@@ 1749
αρχίες 1749
βορει@@ 1749
σύγκ@@ 1749
φτάνουν 1749
έμου 1748
απευθύν@@ 1748
γνωρίζουμε 1748
γνώσεις 1748
πομπ@@ 1748
σκυ@@ 1748
υποχρέ@@ 1748
4ου 1747
Ήλιο 1747
Βιετνάμ 1747
Βοσνία 1747
θρο@@ 1747
λής 1747
μαζική 1747
υιοθέ@@ 1747
υπερβ@@ 1747
Μπακ@@ 1746
Τράπεζας 1746
Χει@@ 1746
αρσενικά 1746
δον@@ 1746
ποτά@@ 1746
ψυχής 1746
ab@@ 1745
Δημητ@@ 1745
Λεοπόλ@@ 1745
Ράιν@@ 1745
εσωτερικά 1745
οντο@@ 1745
σακ@@ 1745
1871 1744
Hall 1744
Ιζ@@ 1744
Ρωμαν@@ 1744
Σπουδ@@ 1744
ακολουθία 1744
ενήλ@@ 1744
λλας 1744
πονται 1744
διεξάγεται 1743
εκστρατείες 1743
Microsoft 1742
έμπο@@ 1742
ανιψ@@ 1742
ελατ@@ 1742
σύνης 1742
τωνα 1742
7ο 1741
αδελφοί 1741
ερώ@@ 1741
4.000 1740
άρντο 1740
ίωσης 1740
διατηρ@@ 1740
σύνθετος 1740
υσι@@ 1740
Ευρω@@ 1739
Τορ@@ 1739
διαχείρισης 1739
κατευθυν@@ 1739
ens 1738
son 1738
www.@@ 1738
απαραίτητο 1738
βακτη@@ 1738
ευμένη 1738
κινείται 1738
ωναν 1738
όρθωση 1738
Νιου 1737
βης 1737
εμπει@@ 1737
κόλπου 1737
ρίκ@@ 1737
Ιλλ@@ 1736
Κιέβου 1736
Τρε@@ 1736
Φυσικής 1736
δικούς 1736
μπάλα 1736
Gr@@ 1735
ίκτυο 1735
ίσσ@@ 1735
αρο 1735
λαδ@@ 1735
περιφερειακής 1735
Μουσική 1734
αερίων 1734
κατάλληλο 1734
μς 1734
σύμβ@@ 1734
Δη@@ 1733
Θερινούς 1733
Ινδον@@ 1733
απεργ@@ 1733
λί 1733
Απολλ@@ 1732
αμφισβη@@ 1732
ιδρυτικό 1732
κινουμένων 1732
κύμα 1732
μάτισε 1732
μέθοδοι 1732
οπολ@@ 1732
σκόραρε 1732
συνεχεία 1732
όχους 1732
Μαϊ@@ 1731
Σταυροφορία 1731
ανακοίνωση 1731
αποτελεσ@@ 1731
ασφάλειας 1731
ηνία 1731
τιμωρ@@ 1731
υπερασ@@ 1731
φαρμάκων 1731
Χατζη@@ 1730
ρισμα 1730
βρέ@@ 1729
επιτροπ@@ 1729
κατηγορήθηκε 1729
ρόλου 1729
Άμστερνταμ 1728
Βελιγραδίου 1728
Εμπο@@ 1728
Σχολείο 1728
Φαν@@ 1728
δράμα 1728
κτι@@ 1728
οδυναμ@@ 1728
πολεμικές 1728
τερσον 1728
υση 1728
Δημιουργ@@ 1727
Μουσικής 1727
θεώρ@@ 1727
κανα@@ 1727
υπογράψει 1727
δοξ@@ 1726
προκάλεσαν 1726
εκτ@@ 1725
ηρυ@@ 1725
ισοπαλία 1725
ποια 1725
Βασιλικής 1724
Ξη@@ 1724
Φύ@@ 1724
άκου@@ 1724
δημιουργείται 1724
τονομ@@ 1724
UNESCO 1723
Γιώργου 1723
ημένου 1723
πλακ@@ 1723
ραχ@@ 1723
συγκεντρώσει 1723
χωρη@@ 1723
900 1722
Μαυροβουνίου 1722
εκατομμύριο 1722
χρήσεις 1722
ψάρια 1722
Ντελ@@ 1721
βοηθη@@ 1721
διαθέσιμο 1721
οστών 1721
πέφτει 1721
παλαιό 1721
14ου 1720
Γραμματέας 1720
Κελ@@ 1720
αυξηθεί 1720
οητευ@@ 1720
πλεονέκτημα 1720
τορπιλ@@ 1720
φωτογραφία 1720
Μολδαβίας 1719
Ρίο 1719
ίσχυ@@ 1719
ερα 1719
κληση 1719
νικητές 1719
ορυκ@@ 1719
κυρία 1718
ταχυδρομ@@ 1718
φύλακας 1718
11,@@ 1717
Κέρδισε 1717
εκτοξ@@ 1717
ισι 1717
van 1716
έννοιες 1716
αντάρτες 1716
εναπο@@ 1716
πλατφόρμα 1716
βέν@@ 1715
εταιρίας 1715
λήφθηκε 1715
ναλ 1715
παραιτηθεί 1715
Μυκ@@ 1714
Νί@@ 1714
έστερη 1714
ελκυ@@ 1714
ιώτης 1714
μεταρρύθμιση 1714
ουσίας 1714
ποικίλλ@@ 1714
1893 1713
αερό@@ 1713
ενταχθεί 1713
ναυτικό 1713
νευρο@@ 1713
πτέρυγα 1713
τρέφ@@ 1713
όνησε 1713
1822 1712
Γάλλων 1712
θετα 1712
κάτοχος 1712
κιν 1712
συζητήσεις 1712
όου 1712
άγιο 1711
1888 1710
Θεοφ@@ 1710
απόκτηση 1710
ιανού 1710
ιώτη 1710
σί 1710
σταθερό 1710
Βοημίας 1709
Σομ@@ 1709
απεικόν@@ 1709
ισορροπ@@ 1709
κάπως 1709
πιλ@@ 1709
προσπάθ@@ 1709
χαρακ@@ 1709
Αιγάλεω 1708
ανταλλ@@ 1708
εναλλ@@ 1708
θεώρημα 1708
κρίν@@ 1708
στόμα 1708
τοίχ@@ 1708
Πλατεία 1707
θηκ@@ 1707
κώ@@ 1707
τελικούς 1707
χριστιανική 1707
ύλες 1707
ύλους 1707
λογισμικό 1706
νόσ@@ 1706
Όσον 1705
άχν@@ 1705
αποτελεσματική 1705
αρσεν@@ 1705
μοί@@ 1705
Φλωρεντία 1704
ένιος 1704
αριθ@@ 1704
αριών 1704
επιλογής 1704
λέξης 1704
μνημον@@ 1704
σηματοδο@@ 1704
υποχρεώσεις 1704
χρε@@ 1704
10,@@ 1703
Be@@ 1703
Γύρω 1703
Λύκειο 1703
Φράγκ@@ 1703
αρχαιότητας 1703
αστέρια 1703
βασίλισσας 1703
ηρο 1703
μετάλλ@@ 1703
ch 1702
βρετανικό 1702
δισκογραφική 1702
Μαρσ@@ 1701
είλ@@ 1701
εξελίξεις 1701
οκτ@@ 1701
πολλ@@ 1701
σπαθ@@ 1701
29@@ 1700
Jean 1700
Super 1700
Δημοκρατικού 1700
Κλί@@ 1700
Συμμάχ@@ 1700
γραμμένο 1700
εξερευν@@ 1700
χάρ@@ 1700
Τεν@@ 1699
ηδες 1699
τράπεζ@@ 1699
ήρωας 1698
ίζ 1698
διπλωμά@@ 1698
εγκατασταθεί 1698
ελαφρ@@ 1698
μετανάστευση 1698
ata 1697
αποκτά 1697
γνώριζε 1697
καταφέρνει 1697
κρατήσει 1697
στηρίζεται 1697
1884 1696
Γιουνάιτεντ 1696
Ράν@@ 1696
αθλητικό 1696
διοικητικές 1696
εκδιώ@@ 1696
ετό 1696
ουλος 1696
ποσοστά 1696
Αξ@@ 1695
Βε@@ 1695
Ελβετίας 1695
Μωάμεθ 1695
διαί@@ 1695
επιδόσεις 1695
μετασχηματ@@ 1695
πρωτεΐ@@ 1695
σύμ@@ 1695
Ιουλι@@ 1694
Υπήρ@@ 1694
ανικής 1694
μελέτης 1694
ρινγκ 1694
ροβολ@@ 1694
τιες 1694
110 1693
7η 1693
ΝΑΤΟ 1693
μπε 1693
μπε@@ 1693
.000 1692
ανασκαφ@@ 1692
κριτικής 1692
σόλο 1692
τρώ@@ 1692
όρις 1692
Ανατολικό 1691
Ανζού 1691
διακρίν@@ 1691
δρο 1691
χαμηλό 1691
Αλφ@@ 1690
επίπεδ@@ 1690
θρησκευτικό 1690
ικόν 1690
σοβιετική 1690
τάει 1690
Έφ@@ 1689
Ζαχαρ@@ 1689
διαταγή 1689
επισκεφ@@ 1689
μοντέλου 1689
πόρων 1689
Μάρκος 1688
Μαξ 1688
Χόλσταϊν 1688
ίδρυσης 1688
av@@ 1687
te 1687
διαδοχ@@ 1686
Βιρτζίνια 1685
Ηρ@@ 1685
Θου@@ 1685
βακ@@ 1685
διοργάνωσε 1685
ματοποι@@ 1685
στείλει 1685
στρώματα 1685
ένταξη 1684
δικός 1684
πεν 1684
σόου 1684
τίτλου 1684
Καίσαρα 1683
διάσημος 1683
ζεύγ@@ 1683
κεντρικός 1683
πληθυσμοί 1683
υι@@ 1683
Βρ@@ 1682
Λω@@ 1682
δικτύ@@ 1682
Αεροδρόμιο 1681
άμυνας 1681
δευτερεύ@@ 1681
εκάστοτε 1681
ναλ@@ 1681
υδρογόνο 1681
όδρομο 1681
Βοστ@@ 1680
Προτεστ@@ 1680
καλυμ@@ 1680
σχολείου 1680
ὰ 1680
Νέου 1679
Ρος 1679
αγγελι@@ 1679
ποπ 1679
υπόλοιπους 1679
Ασι@@ 1678
Παρθέν@@ 1678
γύρος 1678
εορτά@@ 1678
επιστημονικά 1678
συμφωνίας 1678
χη@@ 1678
Αμερικανίδα 1677
Ισα@@ 1677
ανσ@@ 1677
αποφοί@@ 1677
μεται 1677
οροσειρά 1677
παραπέ@@ 1677
τισης 1677
ότυπα 1677
by 1676
βουνού 1676
διακόπ@@ 1676
μείγμα 1676
συμπεριφοράς 1676
Ρώσοι 1675
ίθενται 1675
καταδικ@@ 1675
μονάδων 1675
μπου 1675
ολιθ@@ 1675
τραυματίστηκε 1675
φου@@ 1675
Λέσβου 1674
έγκριση 1674
απαγόρευση 1674
επισκοπ@@ 1674
ογκ@@ 1674
παρότι 1674
τισσα 1674
ψευ@@ 1674
University 1673
Υπόθεση 1673
δολ@@ 1673
δυναμική 1673
εθνικού 1673
προσωπικότητες 1673
σημαντικότερους 1673
Ηρόδο@@ 1672
βραβεύτηκε 1672
κτισμένο 1672
παρόμοιες 1672
ριζόταν 1672
όβι@@ 1672
1ος 1671
Σιδηροδρομ@@ 1671
πολύπλοκ@@ 1671
Αρχιτεκτον@@ 1670
Λεων@@ 1670
έφσκι 1670
επέκ@@ 1670
θυρε@@ 1670
μεταρρυθμ@@ 1670
οξέα 1670
πρα 1670
Μεσογ@@ 1669
διάσπαση 1669
κατασκεύασε 1669
πρόσθε@@ 1669
King 1668
έπι@@ 1668
δείξεις 1668
εδρών 1668
οχω@@ 1668
ard 1667
Αποτελείται 1667
ευαίσθη@@ 1667
ια@@ 1667
μειωθεί 1667
πλατιν@@ 1667
στί@@ 1667
ήβων 1666
διακεκρι@@ 1666
εορ@@ 1666
υποβρύ@@ 1666
όκ 1666
Νίκου 1665
ΟΚ 1665
βόρειας 1665
δημοτικής 1665
θευ@@ 1665
οδηγούν 1665
ούλης 1665
προτερ@@ 1665
σχετικές 1665
Κορρά@@ 1664
Πρι@@ 1664
ανί@@ 1664
δράσεων 1664
ενδυ@@ 1664
κυν@@ 1664
μοναχός 1664
πόρους 1664
ριακών 1664
Q 1663
Κοντά 1663
Φρανσίσκο 1663
έχονται 1663
ίσκο 1663
ευρωπαϊκ@@ 1663
ιερείς 1663
καλοκαι@@ 1663
κουρ@@ 1663
περισσότερη 1663
πρωταθλητή 1663
στάν@@ 1663
1867 1662
Citroën 1662
πρόγον@@ 1662
συγκρι@@ 1662
Οθωμανών 1661
ήρα 1661
ζήσει 1661
ταξινόμηση 1661
ate 1660
Βιλ@@ 1660
Ρώσ@@ 1660
γαι@@ 1660
τημάτων 1660
υπν@@ 1660
re@@ 1659
Αναγέννησης 1659
πυρε@@ 1659
βάλλ@@ 1658
εξίσου 1658
κοντινή 1658
στρατιωτικά 1658
Λιθου@@ 1657
κρίσης 1657
μαρτυρίες 1657
προέρχονταν 1657
πρωταγωνιστ@@ 1657
.com 1656
FIFA 1656
Ηράκλειο 1656
Ντέιβις 1656
Στέφανο 1656
αποκλ@@ 1656
δυτικές 1656
προϋ@@ 1656
ργκ 1656
φιλντ 1656
χημικών 1656
Μπάν@@ 1655
άξεις 1655
ενίσχυ@@ 1655
ζευγ@@ 1655
κατατάσσ@@ 1655
λιμ@@ 1655
Ζου@@ 1654
Καθολική 1654
άξουν 1654
πολεμικό 1654
υλίου 1654
φοίτησε 1654
Ιωανν@@ 1653
θρησκευτικά 1653
ιππο@@ 1653
ag@@ 1652
ογνω@@ 1652
φυλακές 1652
1886 1651
Cr@@ 1651
Κάρο@@ 1651
Οδός 1651
Σύνδεσμ@@ 1651
Φερδινάνδος 1651
γραμμάτων 1651
ηλεκτρικό 1651
λειμ@@ 1651
λόφ@@ 1651
περίπλοκ@@ 1651
Βιογραφικό 1650
ίοι 1650
ετήσιο 1650
νυν 1650
πόδι 1650
ti@@ 1649
έλλα 1649
Συμμετο@@ 1648
αστέρων 1648
ερωτ@@ 1648
ικο@@ 1648
κοινοτήτων 1648
κτισ@@ 1648
περιστατικό 1648
θεό 1647
ορίζ@@ 1647
πριγκιπά@@ 1647
ρεύματος 1647
όφωνο 1647
1891 1646
Se@@ 1646
Στοκχόλ@@ 1646
ανο 1646
βαφ@@ 1646
ισοβ@@ 1646
νε 1646
νεκρούς 1646
φλεγ@@ 1646
Καισ@@ 1645
Μαρκ@@ 1645
Τομ 1645
ασμούς 1645
γιν@@ 1645
δάκ@@ 1645
δημοσί@@ 1645
εντολές 1645
ηνός 1645
καθάρι@@ 1645
νόσου 1645
οφείλ@@ 1645
πέναλτι 1645
όδους 1645
ˈ@@ 1644
Ανώτα@@ 1644
Κε@@ 1644
Χέρμαν 1644
αξιωματ@@ 1644
ονικό 1644
Ντό@@ 1643
πώ@@ 1643
Εδουάρδου 1642
δότη@@ 1642
καταγραφή 1642
παραπ@@ 1642
ρινό 1642
τυχαία 1642
Ακολου@@ 1641
θηλυκό 1641
ομοσπονδίας 1641
ρικ 1641
ριπ@@ 1641
τείχος 1641
ύπαρξης 1641
Club 1640
άσχ@@ 1640
αναπτυσσ@@ 1640
θρησκείας 1640
σκηνής 1640
σύγχρον@@ 1640
ταλέντο 1640
χειρόγραφα 1640
όχος 1640
εφευρέ@@ 1639
κύματα 1639
ς@@ 1639
σπουδάσει 1639
υλο@@ 1639
11ο 1638
1500 1638
Βιβλ@@ 1638
κλάδου 1638
οκίν@@ 1638
πώληση 1638
τσες 1638
Li@@ 1636
j 1636
Βαγ@@ 1636
Μπε@@ 1636
διακρίθηκε 1636
ηπειρωτική 1636
πέτρα 1636
ρίνη 1636
οπαδοί 1635
χημεία 1635
όκα 1635
1864 1634
ah 1634
γιάν@@ 1634
πριγκ@@ 1634
right 1633
άνε@@ 1633
ανοί@@ 1633
διδακ@@ 1633
ημένοι 1633
κλειστό 1633
οδο 1633
υπηρεσίας 1633
Ερασι@@ 1632
Μαδ@@ 1632
Παλατιν@@ 1632
Ριχάρ@@ 1632
έφαλο 1632
τυχε 1632
ύδ@@ 1632
ανακάλυψ@@ 1631
αυξημένη 1631
Νιγ@@ 1630
Ούν@@ 1630
Σπουδών 1630
Τέξας 1630
εκείνους 1630
ριού 1630
σκελε@@ 1630
τοπίο 1630
Δικαιοσύνης 1629
Καστοριάς 1629
Ούλ@@ 1629
αξιόπ@@ 1629
εικονογραφ@@ 1629
μαγν@@ 1629
προφορά 1629
€ 1629
6.000 1628
Βαλκάνια 1628
Ραβ@@ 1628
Φα@@ 1628
άγη 1628
ήσαν 1628
απώ@@ 1628
δώσουν 1628
ελεύθερα 1628
χαρακτήρισε 1628
Ρόζ@@ 1627
Στατι@@ 1627
Τόσο 1627
εκτεταμένη 1627
κανάλια 1627
Πληροφορ@@ 1626
ίτσας 1626
λ. 1626
οδο@@ 1626
ριακός 1626
σιά 1626
1840 1625
Αθηναϊκ@@ 1625
Μέλ@@ 1625
Ρον@@ 1625
ίτσι 1625
αντίν 1625
ηλίου 1625
τεχνίας 1625
Εντούτοις 1624
ράτ 1624
σταλ@@ 1624
τοπία 1624
άκο 1623
καθένας 1623
κυνήγι 1623
σύλλ@@ 1623
Τολ@@ 1622
έλιο 1622
αντι 1622
αφορούσε 1622
δηλώνοντας 1622
πείσει 1622
1850 1621
Metal 1621
ale 1621
Γραφείο 1621
μόλ@@ 1621
Π.χ. 1620
Τζόουνς 1620
ενδιάμεσ@@ 1620
οθωμανική 1620
παντρε@@ 1620
παύ@@ 1620
προετοιμασία 1620
προηγούμενα 1620
όραση 1620
Ερνέ@@ 1619
αδυναμία 1619
καθοδήγηση 1619
λατρ@@ 1619
πέσει 1619
Βίβλ@@ 1618
Βρέ@@ 1618
ΣΕ@@ 1618
Φ.@@ 1618
δρά 1618
ισορροπία 1618
νοια 1618
όψει 1618
Paul 1617
ΡΙ@@ 1617
ετίας 1617
μαθή@@ 1617
πολιτείες 1617
σημειώνει 1617
Σταυροφ@@ 1616
ίαση 1616
αντικαθιστώντας 1616
αντικαταστήσει 1616
δημιουργούν 1616
ευρύτερης 1616
μόρια 1616
φροντίδα 1616
22@@ 1615
Πάσχα 1615
Σταυρού 1615
αναμέτρηση 1615
απασχόλ@@ 1615
αποδεικνύ@@ 1615
αστι@@ 1615
πρωταγωνιστικό 1615
φελ@@ 1615
0,0@@ 1614
Δημήτριο 1614
Πολυτεχν@@ 1614
αμπ 1614
ανέγερση 1614
κίνδυνος 1613
κυκλο@@ 1613
τασε 1613
τγκ@@ 1613
υψηλά 1613
ino 1612
Οξφόρ@@ 1612
άρος 1612
κεφάλαιο 1612
μεταναστ@@ 1612
φι 1612
Pr@@ 1611
Μαντ@@ 1611
ίλη 1611
απαντά 1611
ασχοληθεί 1611
διορθ@@ 1611
εγχώ@@ 1611
εστ 1611
Εκπαίδευση 1610
Ιταλική 1610
Σέν@@ 1610
ζε@@ 1610
ρής 1610
Αιν@@ 1609
γερουσι@@ 1609
ιερέα 1609
νται 1609
πέρας 1609
πλεον@@ 1609
ρίδης 1609
σματα 1609
σφαγή 1609
Mon@@ 1608
Περιφερ@@ 1608
εινε 1608
επαν 1608
ηθοποιούς 1608
παρουσί@@ 1608
off 1607
πέθαναν 1607
σχεδιάσ@@ 1607
Νησι@@ 1606
Σιβη@@ 1606
έρια 1606
μέλεια 1606
πηδ@@ 1606
1887 1605
Βίλ@@ 1605
Νομική 1605
Πινακοθήκη 1605
δημιουργήσουν 1605
εδροι 1605
καταλήγ@@ 1605
καταστράφηκαν 1605
λείψανα 1605
λλην@@ 1605
ραξη 1605
σκόπιο 1605
υπαλλήλ@@ 1605
χαμ@@ 1605
Ετυμολογία 1604
απαντάται 1604
κανένας 1604
τήρα 1604
ταρχ@@ 1604
Bo@@ 1603
Αργεντινής 1603
Αυτοκιν@@ 1603
Ευρυ@@ 1603
Νόμ@@ 1603
στοίχ@@ 1603
φεύγει 1603
Θ. 1602
Καθηγ@@ 1602
έζησαν 1602
τέρα 1602
Ήδη 1601
Ημερ@@ 1601
Μασσ@@ 1601
αντανακλ@@ 1601
αώ 1601
παράδοσης 1601
Ασκ@@ 1600
οδηγούσε 1600
συνταξι@@ 1600
τάνα 1600
υγρα@@ 1600
El@@ 1599
Φραντσέσκο 1599
ισή 1599
χια 1599
ter 1598
ήγηση 1598
αγου@@ 1598
ακριβή 1598
αλου@@ 1598
δοσ@@ 1598
αναβί@@ 1597
θεατρική 1597
ορχήστρα 1597
ποδα 1597
ρέφοντας 1597
όλεϊ 1597
Un@@ 1596
Γιορ@@ 1596
Λιού@@ 1596
Τρω@@ 1596
οζ@@ 1596
παρουσίας 1596
ύτα@@ 1596
Bar@@ 1595
αδύνα@@ 1595
βιβλιοθήκης 1595
επέτρεπε 1595
κρασί 1595
James 1594
Z 1594
Γοδεφρ@@ 1594
Τόκιο 1594
άνδης 1594
μυστική 1594
ογλου 1594
προκρίθηκε 1594
1882 1593
se 1593
ατό 1593
τραβ@@ 1593
Αλβέρ@@ 1592
Κυβέρνησης 1592
Μισ@@ 1592
Τζόνσον 1592
κάθε@@ 1592
κεντρικά 1592
σημαντικούς 1592
τήρες 1592
φθάνει 1592
Studios 1591
έκλει@@ 1591
ακέρα@@ 1591
απαραίτη@@ 1591
βασης 1591
διδε 1591
επαναστάτες 1591
καρδινά@@ 1591
νησε 1591
σύμφ@@ 1591
τερματίζοντας 1591
Δεύτερο 1590
Φάλ@@ 1590
δόγ@@ 1590
μέταλλα 1590
παραβί@@ 1590
προγραμματισμού 1590
πρόσφατη 1590
συναντά 1590
ταραχές 1590
1833 1589
Ομοσπονδιακ@@ 1589
βάλλουν 1589
κβαν@@ 1589
προνόμια 1589
στήρ@@ 1589
φούρ@@ 1589
χειρουργική 1589
Έκτοτε 1588
Ερυθρ@@ 1588
γιου@@ 1588
ουβ@@ 1588
περιστατ@@ 1588
ρυ 1588
ρώσ@@ 1588
000 1587
Πύργος 1587
Στυ@@ 1587
Χερ@@ 1587
δακτυ@@ 1587
δηλώσεις 1587
διαμερ@@ 1587
εισβολής 1587
επιφάνειας 1587
κλπ 1587
μυθιστορήματα 1587
ουλευ@@ 1587
παρατηρηθεί 1587
σιμότητα 1587
σκού@@ 1587
Αττική 1586
έρω@@ 1586
ιδιοκτησίας 1586
πλοκ 1586
ριχ@@ 1586
David 1585
OS 1585
Περικ@@ 1585
αίους 1585
ανάκτορο 1585
επιτρέποντας 1585
κάμερ@@ 1585
τελικώς 1585
τιοι 1585
13ου 1584
1883 1584
Com@@ 1584
Life 1584
έγερση 1584
ήτριες 1584
αξιώματα 1584
οροφή 1584
ουλο 1584
σκηνοθέτησε 1584
στάσεις 1584
Γρα@@ 1583
Τμήματος 1583
βια 1583
νού 1583
οδηγός 1582
ούπολης 1582
Ντέν@@ 1581
Παλαιά 1581
Τοπική 1581
εξακολουθούν 1581
ναυτική 1581
παρασ@@ 1581
Γκέρ@@ 1580
Ιδρύματος 1580
Κή@@ 1580
Καρχηδ@@ 1580
Παπα@@ 1580
Χώρα 1580
ηγεμόνα 1580
ινα 1580
κατσ@@ 1580
πεδ@@ 1580
William 1579
άτι@@ 1579
εγγύ@@ 1579
κατέστ@@ 1579
φρασης 1579
Μάρκου 1578
Τσάρ@@ 1578
ελαφρά 1578
κανδιναβ@@ 1578
μυθιστορήματος 1578
χωρισ@@ 1578
Μ.@@ 1577
έσπ@@ 1577
ακτο@@ 1577
ατομικό 1577
γυναικείο 1577
δεξί 1577
εγκατέλειψαν 1577
μπιν 1577
πρωτεΐνες 1577
IV 1576
Ζηλανδία 1576
ονγκ 1575
Πύλη 1574
Ρεπουμπλικαν@@ 1574
ανοιχτό 1574
αυτονομία 1574
διαταγές 1574
παράλια 1574
σπήλαιο 1574
τεθεί 1574
όριζε 1574
em@@ 1573
Αποστολ@@ 1573
Σαρδ@@ 1573
Χιού@@ 1573
Δεδομένου 1572
Μνημείο 1572
δικαιοδοσία 1572
εξωτερικά 1572
ηλεκτρική 1572
.-@@ 1571
Όσο 1571
Ανάπτυξης 1571
Εσωτερ@@ 1571
Ρον 1571
ιζερ 1571
ολόγους 1571
υψηλού 1571
1,2 1570
Θησ@@ 1570
γερμανικών 1570
γραφίες 1570
10ο 1569
FIBA 1569
αντισφαίρισης 1569
αποφύγει 1569
απρό@@ 1569
δεσ@@ 1569
οίκο 1569
φθεί 1569
1828 1568
Πολωνοί 1568
συνδυασμός 1568
χρησιμεύ@@ 1568
κακό 1567
μεσαιωνική 1567
ξέσπασμα 1567
πραγμάτων 1567
συνεισφορά 1567
χώρων 1567
Βοιωτίας 1566
αθηναϊκ@@ 1566
αλή@@ 1566
αποδοχή 1566
μιά 1566
ολοκληρώσει 1566
Συνεπώς 1565
ανοιχτά 1565
βοσκ@@ 1565
δανεικός 1565
μειώνεται 1565
ντέ@@ 1565
συνθηκών 1565
tr@@ 1564
ήρων 1564
βοηθήσουν 1564
ύπαρ@@ 1564
Αλα@@ 1563
Παιδ@@ 1563
Στο@@ 1563
ένα@@ 1563
ισοδ@@ 1563
νής 1563
παρόντος 1563
Μπέρν@@ 1562
Χοσέ 1562
διδάκ@@ 1562
επιβεβαίωσε 1562
θεσμό 1562
ιδιωτικό 1562
οδοξ@@ 1562
τεια 1562
ya 1561
ΗΣ 1561
ίλια 1561
γεφ@@ 1561
εγκλήματα 1561
κατέστρεψε 1561
οικοδόμηση 1561
οκρι@@ 1561
Έργα 1560
Γκορ@@ 1560
έρονταν 1560
αξιωματικούς 1560
αφιερωμένη 1560
χαλκού 1560
12,@@ 1559
Λευκωσία 1559
Μπαγ@@ 1559
Σκοτ 1559
Χέλ@@ 1559
ενημέρω@@ 1559
κατασκευαστεί 1559
πλάκα 1559
ποδοσφαιριστ@@ 1559
σχεδιασμός 1559
τούνταν 1559
υποταγ@@ 1559
Εβ@@ 1558
Κρατικό 1558
άμπ 1558
πίστευαν 1558
πούλησε 1558
ύρωσε 1558
Έθν@@ 1557
ισμάτων 1557
ολόγια 1557
συστατικό 1557
φορολογ@@ 1557
Αθηναίοι 1556
Μνημ@@ 1556
Ναρ@@ 1556
λή 1556
οικία 1556
οπαθ@@ 1556
περιηγ@@ 1556
πολίτη 1556
πύ@@ 1556
σχετικό 1556
τυπική 1556
φαγητό 1556
Μπασ@@ 1555
Παλλ@@ 1555
άτος 1555
έλου 1555
είμ 1555
ευεργ@@ 1555
1834 1554
Έπαιξε 1554
Αποφοίτησε 1554
άγνωστος 1554
άιτ 1554
έντονες 1554
εκδικ@@ 1554
ελευθέρ@@ 1554
κληρονόμησε 1554
οποιώντας 1554
Ex@@ 1553
Αντώνης 1553
Λέσ@@ 1553
Φάση 1553
Χαϊ@@ 1553
αγάλματα 1553
αναγράφ@@ 1553
επιμέρους 1553
ιφά@@ 1553
ωμένου 1553
Βα@@ 1552
Μαγι@@ 1552
Μιλάνου 1552
ιδιοκτήτης 1552
1877 1551
un 1551
Βρετανούς 1551
Νεί@@ 1551
Προπον@@ 1551
αστέρας 1551
γενή 1551
εξόρυ@@ 1551
ιδρυτή 1551
ολοκλήρω@@ 1551
πανδημ@@ 1551
παρήγαγε 1551
Αποστ@@ 1550
Βίτ@@ 1550
Κωνστ@@ 1550
αμφισβή@@ 1550
ιτέχ@@ 1550
κερδ@@ 1550
κηδεία 1550
ομολογ@@ 1550
ορίζονται 1550
παρόμοι@@ 1550
ic 1549
ke 1549
Καταγ@@ 1549
Μισέλ 1549
αντικατάσταση 1549
ασή 1549
βατ@@ 1549
ολαίας 1549
Βενιζ@@ 1548
Καρυ@@ 1548
Μαρι@@ 1548
Μπαρτσελόνα 1548
Τρικάλων 1548
ούνι 1548
πολέμ@@ 1548
ρεύματα 1548
ψήφου 1548
Σκι@@ 1547
απει@@ 1547
γεωγραφική 1547
διάλεκ@@ 1547
θμα 1547
πύργο 1547
σιδήρου 1547
στηρί@@ 1547
τίμηση 1547
μαλλιά 1546
ροια 1546
χειμ@@ 1546
9ο 1545
Ίσ@@ 1545
Οχ@@ 1545
γαλλικού 1545
γωγ@@ 1545
δήλ@@ 1545
ενήλικες 1545
τρά 1545
χωριών 1545
80@@ 1544
Ουζ@@ 1544
αναφορ@@ 1544
ατμοσφαι@@ 1544
γεννημένη 1544
όσι@@ 1544
αντίκ@@ 1543
απομακρ@@ 1543
εκκλη@@ 1543
προκαλείται 1543
σαφώς 1543
τητα 1543
χρειαζόταν 1543
Διευθυντής 1542
Παρέμεινε 1542
διευκολ@@ 1542
ζητά 1542
ντράμερ 1542
υπεύθυν@@ 1542
φόβ@@ 1542
1815 1541
Ευρωλίγκα 1541
Κεν@@ 1541
Μεταρ@@ 1541
κλασικό 1541
μετακομ@@ 1541
Deep 1540
άσκαλ@@ 1540
έδει@@ 1540
αθλήτρια 1540
ουρα@@ 1540
ρωσικό 1540
τοπικού 1540
έντον@@ 1539
βέβ@@ 1539
διακόσμηση 1539
περιγράψει 1539
ρασι@@ 1539
τσον 1539
Γουίν@@ 1538
Κομμουν@@ 1538
εποπτεία 1538
θεατρικά 1538
ούλη 1538
Όμιλο 1537
Αρν@@ 1537
αναδ@@ 1537
δολοφονίας 1537
δομών 1537
λαύ@@ 1537
ναούς 1537
ψίας 1537
Κάποιοι 1536
Φιλαδέλφ@@ 1536
έροντας 1536
απου@@ 1536
βαπ@@ 1536
καταγράφηκε 1536
κοιτά@@ 1536
μόριο 1536
Επομένως 1535
ψυ@@ 1535
Καίσ@@ 1534
Μιχάλης 1534
έστειλαν 1534
ήγησης 1534
καταγραφεί 1534
τρόπ@@ 1534
3,5 1533
ανέθεσε 1533
αρχικές 1533
μαθητών 1533
στοιχει@@ 1533
χλωρι@@ 1533
όμιλος 1533
αντιμετώπ@@ 1532
αρνήθηκαν 1532
ατύχημα 1532
ετοι@@ 1532
ευκ@@ 1532
ξεχωριστό 1532
φθορο@@ 1532
χνε 1532
ti 1531
Όθων 1531
άο 1531
θρύ@@ 1531
θύμα 1531
ράκη 1531
χτισμένο 1531
δισε 1530
εύσουν 1530
κατοίκ@@ 1530
παραδόθηκε 1530
τροπο@@ 1530
χάνοντας 1530
OH 1529
Αμερικανικό 1529
διατηρείται 1529
ξεκάθ@@ 1529
id@@ 1528
Κρακο@@ 1528
ΝΒΑ 1528
Πορτογ@@ 1528
υσίας 1528
Κυκλοφόρησε 1527
διαδέχτηκε 1527
γκαρντ 1526
οδον@@ 1526
σμά 1526
Μανι@@ 1525
βιομηχανίες 1525
θάμ@@ 1525
ιστορικού 1525
μεσογ@@ 1525
τέως 1525
όρες 1525
ΑΚ@@ 1524
Φρειδερίκο 1524
άγρια 1524
ακο@@ 1524
ερημ@@ 1524
φυλάσσ@@ 1524
3ος 1523
Κάι@@ 1523
Φραγκίσκου 1523
άγγελ@@ 1523
αρχαίους 1523
δεικνύ@@ 1523
διατύπ@@ 1523
ερωτεύ@@ 1523
κειμένων 1523
κινηματογράφ@@ 1523
Channel 1522
Κατσ@@ 1522
Κυρί@@ 1522
ίκας 1522
γραπτά 1522
δίας 1522
ευρισκ@@ 1522
κτιρίων 1522
όπλ@@ 1522
Ανθρ@@ 1521
απομόν@@ 1521
ενθαρρ@@ 1521
φεμιν@@ 1521
ec@@ 1520
Μαλαισ@@ 1520
Τζακ 1520
δειγ@@ 1520
εξουσίες 1520
καταστάθηκαν 1520
μαξ@@ 1520
μοντ 1520
τελικού 1520
Μερκ@@ 1519
Χρησιμοποιείται 1519
αμυντικός 1519
αποδειχθεί 1519
ιταλικό 1519
καταιγ@@ 1519
μεμβρ@@ 1519
βαρι@@ 1518
ενασχόλ@@ 1518
μουσικών 1518
Ναπολέων 1517
ίση 1517
γιγ@@ 1517
εισαγγελ@@ 1517
μεταβολή 1517
τορφ 1517
Awards 1516
Υπολογ@@ 1516
αδελφές 1516
εκλέγεται 1516
θεωρού@@ 1516
μεγέ@@ 1516
στρατιώ@@ 1516
Ήπειρο 1515
Μέλη 1515
ΣΕ 1515
έθνος 1515
αμαξ@@ 1515
ομένου 1515
ταί@@ 1515
χαμηλής 1515
ωρα@@ 1515
Βαυαρ@@ 1514
Ραφα@@ 1514
ΣΤ@@ 1514
ευσαν 1514
μπαρόκ 1514
ούμενες 1514
πραγματοποιηθεί 1514
χερσονήσου 1514
180 1513
Κοιλ@@ 1513
άγγελος 1513
άγνωστα 1513
έλευ@@ 1513
λήμμα 1513
ξεχω@@ 1513
οσμ@@ 1513
τοσ@@ 1513
Κατοχής 1512
Πόντου 1512
Φιλι@@ 1512
δήλωσαν 1512
διαλέκ@@ 1512
ιστία 1512
προπαν@@ 1512
σηματο@@ 1512
απέσπασε 1511
αστέρα 1511
γεύση 1511
δειν@@ 1511
ευγ@@ 1511
παρέδωσε 1511
υποστηρι@@ 1511
αιφν@@ 1510
αφαίρεση 1510
εμφύλιο 1510
ηφαίστ@@ 1510
ιο@@ 1510
τάσεων 1510
1861 1509
Βασίλη 1509
ενιαίο 1509
ηχογραφήθηκε 1509
θεταν 1509
κρη@@ 1509
προχω@@ 1509
σεισμό 1509
σκέ@@ 1509
1876 1508
Par@@ 1508
Δυναστεία 1508
Ιούλιος 1508
Λέοντα 1508
Σάμου 1508
έρα@@ 1508
τροπος 1508
φθηκαν 1508
Σεμπ@@ 1507
αγγει@@ 1507
διεκδίκησε 1507
εφαρμογής 1507
ομβ@@ 1507
σημαντικών 1507
τιέ 1507
τολής 1507
φιλία 1507
Έχ@@ 1506
Κούρ@@ 1506
Οθωμανοί 1506
Σωτή@@ 1506
ακόλουθη 1506
αντιστοιχ@@ 1506
δρομές 1506
ζέ 1506
κον 1506
νοση@@ 1506
οφόρο 1506
ρίτης 1506
φυλάκιση 1506
ΑΕΠ 1505
Βρετανός 1505
δραπέ@@ 1505
μπαχ 1505
ουα 1505
πυροβ@@ 1505
φτερά 1505
φωσφ@@ 1505
ώντα 1505
έλης 1504
γεμ@@ 1504
ημη 1504
καπο@@ 1504
μείζ@@ 1504
όσες 1504
οπρα@@ 1503
χε@@ 1503
όδιο 1503
Διαθέτει 1502
έφτι@@ 1502
ακίν@@ 1502
κορίτσια 1502
οξειδίου 1502
οργανισμοί 1502
πέμπ@@ 1502
ρόπολη 1502
ψηφίστηκε 1502
Ακουι@@ 1501
Βαν 1501
Ιακώβου 1501
Ιμπ@@ 1501
Κολοκοτρ@@ 1501
έρος 1501
ανθρω@@ 1501
δικών 1501
επιλογές 1501
ωνύμιο 1501
όμοια 1501
Μοζ@@ 1500
Χονγκ 1500
στρώμα 1500
Αμβέρσα 1499
Πρωταθλήματα 1499
Συμμαχία 1499
νεκρών 1499
οδοτ@@ 1499
Βιν@@ 1498
Παραπομπές 1498
αλυσίδα 1498
ανθρώπινα 1498
διαταραχές 1498
εξωτερικού 1498
παράγοντα 1498
τέλεια 1498
Μολδαβ@@ 1497
οφόροι 1497
τήσουν 1497
ἰ@@ 1497
di@@ 1496
un@@ 1496
Ρουμάν@@ 1496
καταγράφεται 1496
χημικές 1496
αντιν@@ 1495
αρσενικό 1495
δέκατο 1495
επιβάτες 1495
ομέ@@ 1495
σπο@@ 1495
έβη 1494
ενδιαφέρον@@ 1494
ιδρύσει 1494
φορτίο 1494
ωτής 1494
όδρο@@ 1494
Διακρίσεις 1493
ανεπτυγ@@ 1493
ατος 1493
λινα 1493
τάκη 1493
όα 1493
Γαλλικά 1492
Λατινική 1492
ελάχιστη 1492
νομός 1492
συγκεντρώσεις 1492
άμβ@@ 1491
αρχηγού 1491
προκύ@@ 1491
χρησίμευ@@ 1491
όκι 1491
Άσ@@ 1490
Βενιζέλου 1490
Δολ@@ 1490
Μη@@ 1490
Πιερ 1490
άλυση 1490
αντιμέ@@ 1490
ανόδου 1490
εικόνας 1490
οχημ@@ 1490
στήρα 1490
σφαί@@ 1490
τέθηκαν 1490
ra 1489
Γρ@@ 1489
Τζαμ@@ 1489
εκείνων 1489
καλύτερους 1489
μετάβαση 1489
προταθεί 1489
ρίνης 1489
χρονών 1489
1875 1488
8ο 1488
ήγαγαν 1488
ήνων 1488
διδακτορ@@ 1488
εγγυ@@ 1488
πληρώσει 1488
φτω@@ 1488
Βρετανικό 1487
Μαγνη@@ 1487
εναλλακτική 1487
επιστημών 1487
επιχει@@ 1487
κατεχ@@ 1487
νεώ@@ 1487
οκύ@@ 1487
οσφαι@@ 1487
πρωτοπο@@ 1487
φτερ@@ 1487
όλυση 1487
Βαρσοβία 1486
Διαγωνισμό 1486
Κηφισ@@ 1486
βασιλέων 1486
εύρ@@ 1486
ιστορικής 1486
ουρανό 1486
υποψήφιο 1486
ειρο 1485
τόνων 1485
1863 1484
Ανεξάρτη@@ 1484
Κατερ@@ 1484
αποκάλυψε 1484
βις 1484
ευγενής 1484
ησίας 1484
μετεγ@@ 1484
πυραμ@@ 1484
ρύθμισης 1484
φύλο 1484
χάλ@@ 1484
130 1483
Company 1483
ΚΟ 1483
Κυβ@@ 1483
Μπουλ@@ 1483
Ορισμένοι 1483
βορειοανατολική 1483
δέσ@@ 1483
επαναληπ@@ 1483
μεγαλύτερης 1483
πέτρες 1483
στε@@ 1483
τεχνικής 1483
όσφαι@@ 1483
απολογ@@ 1482
γαλλ. 1482
διαθέσιμα 1482
επαγγελματικά 1482
καταλύ@@ 1482
υργ@@ 1482
ωστε 1482
College 1481
Δαμασκ@@ 1481
Επαρχίας 1481
Ομάδας 1481
Ταν@@ 1481
αξιοθέατα 1481
επαναλαμβαν@@ 1481
κληρονομιάς 1481
μορφών 1481
πληροφορία 1481
προχωρήσει 1481
τμ@@ 1481
Am@@ 1480
Τύπου 1480
στενό 1480
House 1479
Βοημ@@ 1479
Ορισμένες 1479
ήφθηκαν 1479
κοφ 1479
ρίζονταν 1479
ρωμαϊκής 1479
σχεδιαστ@@ 1479
υπέγραψαν 1479
φέρθηκε 1479
8,@@ 1478
Sch@@ 1478
oc@@ 1478
Κωνσταντινουπόλεως 1478
Ναού 1478
Ουλ@@ 1478
δίδυ@@ 1478
θήκης 1478
πεζικού 1478
πλειονότητα 1478
τραπέζ@@ 1478
υδρα@@ 1478
Λ. 1477
Μπάλ@@ 1477
ήμερ@@ 1477
ινγκεν 1477
οτι@@ 1477
Δικαίου 1476
Μογγ@@ 1476
Νάπολη 1476
διάφοροι 1476
καλλιτεχνικό 1476
κορίτσι 1476
κρυσταλλ@@ 1476
οχυρό 1476
ρυθμός 1476
χαλκ@@ 1476
διοργανώνει 1475
πράγματι 1475
Αμβ@@ 1474
ενσωματώθηκε 1474
κόμισσα 1474
πρωταθλημάτων 1474
συγγραφέων 1474
τεκμηρι@@ 1474
αντιπρόσω@@ 1473
ικων 1473
οφυλ@@ 1473
συχ@@ 1473
1868 1472
αφήνει 1472
εκτήματα 1472
καπι@@ 1472
τούτοις 1472
αιρ@@ 1471
πολυμερ@@ 1471
1825 1470
us@@ 1470
Σκοπός 1470
ακερ@@ 1470
επιχειρηματίας 1470
ησα 1470
θε 1470
κρυπτο@@ 1470
συνένωση 1470
ωτικού 1470
Αμμοχώστου 1469
Κληρονομιάς 1469
αποτυπ@@ 1469
καθολική 1469
μβανε 1469
νάς 1469
τύπ@@ 1469
Βρετανικής 1468
Κονγκ 1468
Κυπελλ@@ 1468
αρχίζουν 1468
εισοδ@@ 1468
εξαδέλφ@@ 1468
ευρύ@@ 1468
μίρ 1468
ματοποί@@ 1468
περιβάλλεται 1468
προστέθηκαν 1468
συγκρού@@ 1468
Ανώτατο 1467
έγκλημα 1467
έσκ@@ 1467
αντικειμεν@@ 1467
εκμετάλλευση 1467
λλαγ@@ 1467
ονόμ@@ 1467
συναντήσει 1467
τελειώνει 1467
Θεσσαλία 1466
αφοσι@@ 1466
Αιγύπ@@ 1465
ακμή 1465
βιομ@@ 1465
εμφανίζει 1465
κανονικής 1465
λέξεων 1465
τάρι 1465
τειρα 1465
Robert 1464
έξοδα 1464
αναπτύχθηκαν 1464
ασημένιο 1464
πέδων 1464
προκρίθηκαν 1464
υποστήριξης 1464
5ου 1463
CH3@@ 1463
Αξιοσημείω@@ 1463
Γαλλικό 1463
Καππα@@ 1463
Φράγκων 1463
ήγησε 1463
διατηρούν 1463
δωμάτια 1463
ξένες 1463
Αργολ@@ 1462
Μπράουν 1462
Χάου@@ 1462
διάσημη 1462
ισχυρι@@ 1462
ριστές 1462
σφαίριση 1462
Πίν@@ 1461
δομής 1461
παραβι@@ 1461
Ρόμ@@ 1460
νεότερη 1460
πάρουν 1460
παράταση 1460
ταιρι@@ 1460
Νομό 1459
Ροβ@@ 1459
εγκαινιάστηκε 1459
επιτρέπεται 1459
εταιρειών 1459
λεκάνη 1459
προέ@@ 1459
πρόθεση 1459
For@@ 1458
μπάντα 1458
στασι@@ 1458
qu@@ 1457
Μαίρη 1457
Τρικ@@ 1457
αγν@@ 1457
αναβαθμ@@ 1457
βον@@ 1457
θουν 1457
ολα 1457
φύγ@@ 1457
Πολιτικής 1456
Χανς 1456
θέν 1456
λάδι 1456
Βαρκελώνης 1455
Μπάμπ@@ 1455
αυγά 1455
γραφίας 1455
δούκισσα 1455
μετακινήθηκε 1455
ονομάζονταν 1455
50@@ 1454
`@@ 1454
Ομάδες 1454
έλεγε 1454
δυστυχ@@ 1454
εξαπ@@ 1454
πύλες 1454
υποστηρικ@@ 1454
ότοπος 1454
ώνυμα 1454
3ου 1453
Radio 1453
ΟΥ@@ 1453
Φίλ@@ 1453
αυξάνει 1453
ξένους 1453
Κύκλ@@ 1452
Ρωμαίος 1452
ανάγκης 1452
γονιμ@@ 1452
διατριβή 1452
είπει 1452
μαργ@@ 1452
ομπ@@ 1452
παρχ@@ 1452
ποδοσφαιρικό 1452
ανεκ@@ 1451
δοκία 1451
δραστηριοποιείται 1451
εισέβαλε 1451
ισθεί 1451
παραμονής 1451
Str@@ 1450
Χωρίς 1450
έπα@@ 1450
εκδίκ@@ 1450
εξέφρασε 1450
εργαστήρια 1450
εργοστάσια 1450
καλλιέργειες 1450
πλην 1450
no 1449
Παρισ@@ 1449
ήμη 1449
ίλιαμς 1449
δαι@@ 1449
καλύτερης 1449
κουζίνα 1449
λευε 1449
μπορν 1449
τολφ 1449
όπερας 1449
ini 1448
Μπρί@@ 1448
αισθητική 1448
αντίγραφο 1448
είρ@@ 1448
χώρησή 1448
Χριστιανοί 1447
αντιπροσωπεύουν 1447
αρκετό 1447
βού@@ 1447
γόν@@ 1447
διασκευ@@ 1447
ενί@@ 1447
επενδυ@@ 1447
καταλάβουν 1447
πολιτιστικό 1447
σταθ@@ 1447
υιοθετήθηκε 1447
ice 1446
Μονακό 1446
Σλέσβιχ 1446
άγος 1446
ίαν 1446
γενέστερ@@ 1446
ενέκρινε 1446
θυν@@ 1446
λεγόταν 1446
λλιο 1446
μματος 1446
οποιήθηκαν 1446
παγετ@@ 1446
παιδιού 1446
ώμα 1446
Επο@@ 1445
Ισραηλ@@ 1445
αστυνομίας 1445
ειό 1445
μαι 1445
μητρική 1445
συνέλευσης 1445
ωπηλ@@ 1445
Λεύ@@ 1444
διατηρώντας 1444
εφαρ@@ 1444
ζωντανή 1444
καμιά 1444
μάλ 1444
πατος 1444
πιλό@@ 1444
le@@ 1443
Πόλης 1443
έντεκα 1443
ελευθερίας 1443
εσωτερικές 1443
τύρ@@ 1443
Τυν@@ 1442
απόσπασμα 1442
ερυθ@@ 1442
μακεδ@@ 1442
προφορ@@ 1442
ραντ 1442
Ούγγ@@ 1441
άρθ@@ 1441
αναπληρω@@ 1441
ασκεί 1441
βροχ@@ 1441
επαναστά@@ 1441
επηρεάζει 1441
ζωγράφου 1441
ισχυρίζεται 1441
λεσε 1441
μοιάζουν 1441
Πεζικού 1440
ανήλ@@ 1440
καταγεγραμ@@ 1440
καταστολή 1440
υνσης 1440
Association 1439
ίωμα 1439
δει@@ 1439
καρυ@@ 1439
μαζικής 1439
μαθαίνει 1439
συνορι@@ 1439
τίζει 1439
ano 1438
Αυτο@@ 1438
Βλαντι@@ 1438
Πάντως 1438
Τρίτη 1438
ανατροπή 1438
ανεμ@@ 1438
ανθρωπο@@ 1438
αρνητική 1438
είλει 1438
καταλαμβάνοντας 1438
μουσικές 1438
παρατήρηση 1438
πληθυσμ@@ 1438
χίλια 1438
ωνυμ@@ 1438
Grand 1437
Αυστρα@@ 1437
ΕΑ 1437
έιν 1437
δηλητηρι@@ 1437
επισκέφτηκε 1437
ιερά 1437
μουν@@ 1437
Θηβ@@ 1436
Καρδίτσας 1436
αποσύρ@@ 1436
βιβλιο@@ 1436
εφαρμόζεται 1436
μπριτζ 1436
τηρεί 1436
Σπάρτης 1435
επαφ@@ 1435
ετοιμ@@ 1435
παιχνιδιών 1435
σταδιοδρομίας 1435
Κοπ@@ 1434
Σορ@@ 1434
Τσου@@ 1434
αβε 1434
δημοφιλείς 1434
διάλεκτο 1434
κλασικής 1434
πολέμων 1434
ποτάμι 1434
Μαυροβούνιο 1433
Πυθ@@ 1433
Τέσσ@@ 1433
Φιλε@@ 1433
άριου 1433
συνέθεσε 1433
χορήγηση 1433
Μετέ@@ 1432
θεμέλια 1432
κηδε@@ 1432
λύθηκε 1432
μαχία 1432
οκρατίας 1432
ουτ@@ 1432
τορία 1432
Michael 1431
http 1431
Ανν@@ 1431
Βαϊ@@ 1431
ανεπιθύ@@ 1431
εντύπωση 1431
επίτευξη 1431
ηθοποιού 1431
ικότερα 1431
μονες 1431
προγραμμάτων 1431
ρεια 1431
σφαγ@@ 1431
φήμες 1431
χ. 1431
γεννι@@ 1430
εξοπλισμού 1430
ητός 1430
ιστος 1430
μεταγράφηκε 1430
ράκης 1430
σάλ@@ 1430
σύνολα 1430
τύμπαν@@ 1430
χαμηλότερη 1430
CH@@ 1429
il@@ 1429
Μπολόνια 1429
έτας 1429
ρωμ@@ 1429
τραχ@@ 1429
8η 1428
Άρν@@ 1428
Ευγ@@ 1428
Ι.@@ 1428
Περιλαμβάνει 1428
ειξη 1428
ποικ@@ 1428
ψηλά 1428
Κύπρος 1427
αρχον@@ 1427
ενώπιον 1427
εξου@@ 1427
ιέρ@@ 1427
λήψεις 1427
σώσει 1427
τελείως 1427
Me@@ 1426
Γκόλ@@ 1426
Παλαιότερα 1426
Τιβ@@ 1426
βρυ@@ 1426
μονοπ@@ 1426
συντάκτης 1426
υπόσχ@@ 1426
1862 1425
1873 1425
Γερμανικής 1425
Ερν@@ 1425
άπη 1425
αδι@@ 1425
διαδίκτυο 1425
ειρά 1425
εκτελέσεις 1425
ελέγχεται 1425
θάνα@@ 1425
κατάστημα 1425
λατινικό 1425
τροφής 1425
Βιβλίο 1424
άγνωση 1424
αρχείων 1424
δήμων 1424
διακυβέρνησης 1424
ερεύνηση 1424
εχθρούς 1424
κόβ@@ 1424
Κλειστό 1423
επιτευχθεί 1423
θηκών 1423
μοίως 1423
City 1422
Ε.Σ.@@ 1422
Να 1422
Ροβέρτος 1422
ήνος 1422
αδέρφια 1422
αναπληρωτής 1422
εγκυμ@@ 1422
ικανό 1422
λάβουν 1422
ντο@@ 1422
συνολικού 1422
φόρος 1422
Ριχάρδος 1421
άβει 1421
αγγεία 1421
αντιπολίτευση 1421
αρίων 1421
ενδιαφερ@@ 1421
σχημά@@ 1421
τέρ 1421
χρειάζονται 1421
χό 1421
ΑΠΟ@@ 1420
Αίθ@@ 1420
Κλει@@ 1420
Κουλ@@ 1420
Παρασκευής 1420
Στοιχ@@ 1420
επιστημονικό 1420
μιση 1420
προπαγάν@@ 1420
Air 1419
ΚΕ 1419
Ρέι@@ 1419
αγροτικές 1419
πρόκριση 1419
Per@@ 1418
Γουόλ@@ 1418
Ζή@@ 1418
Πριγκιπά@@ 1418
άρκου 1418
ούκα 1418
ne 1417
Γουίλ@@ 1417
Μετά@@ 1417
Ντέι@@ 1417
θεσμού 1417
θορά 1417
ιταλικής 1417
νόημα 1417
ολιγ@@ 1417
ορφαν@@ 1417
σημειωθεί 1417
στιχουργ@@ 1417
φεουδ@@ 1417
χώρι 1417
Χρυσό 1416
αγωγών 1416
κρυφά 1416
πειραματ@@ 1416
προμη@@ 1416
Δημόσι@@ 1415
Ζωγράφ@@ 1415
Πρίγκιπας 1415
γνώσης 1415
γύρισε 1415
δακτύ@@ 1415
διδασκαλίας 1415
επιρροής 1415
ερμηνείες 1415
ετη@@ 1415
κερ 1415
μόνιμους 1415
παραδοσιακές 1415
ποιητές 1415
προϋπόθεση 1415
ριμ@@ 1415
δημιουργός 1414
κεντρικού 1414
οβολ@@ 1414
σπιτιού 1414
σταματ@@ 1414
σύμπλεγμα 1414
τοίχο 1414
Mo@@ 1413
Σωματείων 1413
έπαιξαν 1413
απόλυ@@ 1413
βιβλι@@ 1413
εκκλησιαστική 1413
ιστό 1413
κρεμ@@ 1413
3,@@ 1412
km 1412
Πιέρ 1412
ευμένο 1412
κατεδαφ@@ 1412
οικογενειών 1412
ουλα 1412
παραγωγές 1412
σωστή 1412
ΔΗ@@ 1411
Επαναστατ@@ 1411
Ζά@@ 1411
Ορέ@@ 1411
βαθμολογίας 1411
διατάξεις 1411
ευρωπαϊκών 1411
κανονικό 1411
κεφαλή 1411
κυκλοφορ@@ 1411
μόδας 1411
Group 1410
έχτηκε 1410
εκρηκ@@ 1410
τελευταίας 1410
υμβ@@ 1410
όσεων 1410
1800 1409
Ιεροσ@@ 1409
Νοσοκομείο 1409
οδομ@@ 1409
οπισθ@@ 1409
συναρτήσεις 1409
σύνταξη 1409
χάνει 1409
ja 1408
Αχαι@@ 1408
Πόλε@@ 1408
λεξαν 1408
πρωταρχ@@ 1408
συμμάχους 1408
ταρα@@ 1408
τεχνικά 1408
υποτροφία 1408
Συνέλευσης 1407
ιδιοκτή@@ 1407
ισχυρές 1407
ομο@@ 1407
τσου 1407
υπέστησαν 1407
όμαστε 1407
play 1406
Επιχείρηση 1406
Στρατιωτική 1406
ιερ 1406
κάλυπ@@ 1406
κόμικς 1406
λαών 1406
πρακτικά 1406
φύλου 1406
Φλαμαν@@ 1405
εκείνοι 1405
ερήμ@@ 1405
κατέκτησαν 1405
παραχωρήθηκε 1405
σαφές 1405
σεναριογράφος 1405
σεϊ 1405
χωρίζονται 1405
Άγκ@@ 1404
Αιθιοπ@@ 1404
Βρυξέλλες 1404
αρχαίοι 1404
γάλα 1404
γυρίστηκε 1404
Αθη@@ 1403
Ασχολ@@ 1403
Επαρχ@@ 1403
Κυβερνήτης 1403
Μπρο@@ 1403
Περισσ@@ 1403
γραμμών 1403
ευρωπαϊκά 1403
ξεχ@@ 1403
πειράματα 1403
πηγών 1403
πορτο@@ 1403
τείν@@ 1403
φιλόσοφ@@ 1403
1836 1402
Ελπ@@ 1402
Λάρισα 1402
Ρήγ@@ 1402
Φθιώτιδας 1402
Φλόριντα 1402
απομάκρυνση 1402
εκπαιδευτικό 1402
επαφές 1402
συνελήφθησαν 1402
Βέρν@@ 1401
Βυζάντιο 1401
Μάγκ@@ 1401
έπεται 1401
βλάβη 1401
διαδοχικά 1401
επιλέγ@@ 1401
κλινική 1401
προσχώρησε 1401
Αικατερίνης 1400
Αρσ@@ 1400
Μυρ@@ 1400
Φερδινάνδου 1400
Φυλ@@ 1400
έξυπ@@ 1400
απόγονοι 1400
εξηγεί 1400
προσπαθούν 1400
συμφωνίες 1400
υρία 1400
όγου 1400
ler 1399
Ηγ@@ 1399
Ράσ@@ 1399
Σαξ@@ 1399
Τουρκοκρατίας 1399
άρτηση 1399
αεροπορική 1399
αποσυρθεί 1399
βίν@@ 1399
οπα@@ 1399
πόνο 1399
τεχνικών 1399
ed@@ 1398
Αδελαΐ@@ 1398
Στε@@ 1398
έστω 1398
αγόρι 1398
ανγκ 1398
δυσκολία 1398
ηρη@@ 1398
παλαιότερες 1398
συμφέροντα 1398
Άγγελος 1397
Καπο@@ 1397
δεικτικά 1397
διάλυμα 1397
διαδηλώσεις 1397
ευτικής 1397
θέματος 1397
θηλυκ@@ 1397
ιαπωνική 1397
προήχθη 1397
τόπους 1397
ΣΚ 1396
Υποδ@@ 1396
διασπ@@ 1396
μάθει 1396
ριοι 1396
ς. 1396
1ης 1395
AR@@ 1395
Αριστοτέλη 1395
Βυζαντινών 1395
Συνορεύει 1395
απέν@@ 1395
απορρόφ@@ 1395
ενιαία 1395
ερευ@@ 1395
ξηρά 1395
ξηρα@@ 1395
όγκου 1395
do 1394
Πέντε 1394
ατικός 1394
δίδεται 1394
ερίου 1394
μπάν 1394
πυγ@@ 1394
ωρα 1394
1826 1393
προοδευ@@ 1393
συλλαμβ@@ 1393
τζαμ@@ 1393
υτ@@ 1393
φρε@@ 1393
1869 1392
ήρες 1392
αναλαμβ@@ 1392
βά 1392
βοηθά 1392
ερεύ@@ 1392
ετοί 1392
μαύ@@ 1392
πρωταγωνιστή 1392
les 1391
Δικαι@@ 1391
Ιουστιν@@ 1391
Καπε@@ 1391
Καρα@@ 1391
Φίλιπ@@ 1391
ίτο 1391
γγυλ@@ 1391
σπηλι@@ 1391
συμπληρω@@ 1391
σφοδ@@ 1391
ψύ@@ 1391
Col@@ 1390
Ιωάννου 1390
Κεφαλ@@ 1390
Λιθουανία 1390
Μπολσεβ@@ 1390
ανέλαβαν 1390
ανταλλαγ@@ 1390
γκέι 1390
διακά 1390
εμβολ@@ 1390
κακο@@ 1390
ούρια 1390
πλάτη 1390
4,@@ 1389
εκλέκ@@ 1389
ιστούσε 1389
μετέφεραν 1389
μουσικοί 1389
παρακολούθηση 1389
πλειοψηφ@@ 1389
τρόπαιο 1389
υποψήφ@@ 1389
Αποτελ@@ 1388
ασαφ@@ 1388
ειναν 1388
ευτή 1388
ολλ@@ 1388
προσπαθώντας 1388
σύγχυση 1388
φιλμ 1388
όπολη 1388
UEFA 1387
Δάφ@@ 1387
Ντόναλντ 1387
Φόρμουλα 1387
αγορα@@ 1387
αντιμετωπίζει 1387
διασφαλ@@ 1387
πας 1387
στιγμές 1387
φόβο 1387
UN@@ 1386
Φινλανδίας 1386
αλγόριθμ@@ 1386
ανεπαρκ@@ 1386
αξιολογ@@ 1386
λαμβ@@ 1386
οριστική 1386
ταλι@@ 1386
τυπικό 1386
RNA 1385
ent 1385
έγι@@ 1385
ήχηση 1385
διχ@@ 1385
κάποιων 1385
κοινής 1385
περιορισμό 1385
Οργανισμός 1384
Πράγματι 1384
Τρά@@ 1384
διαδοχής 1384
μεταναστών 1384
μόνα 1384
σον@@ 1384
τζιο 1384
χρονος 1384
He@@ 1383
Διοίκησης 1383
Ιδρ@@ 1383
άρτημα 1383
κυβέρ@@ 1383
κωμική 1383
συνοδεία 1383
τιους 1383
ύσματα 1383
Γκε@@ 1382
Ηλεκτ@@ 1382
αποδεκτή 1382
ατυχ@@ 1382
αυξανόμενη 1382
επιτελ@@ 1382
ευκαι@@ 1382
ιππό@@ 1382
καρδιακ@@ 1382
συμβολίζει 1382
ap@@ 1381
έτου 1381
ηλα@@ 1381
συνεχόμενη 1381
DC 1380
with 1380
Στεφαν@@ 1380
Φού@@ 1380
αφήγηση 1380
βιβλιοθήκες 1380
είωση 1380
εκλέγονται 1380
θεωρώντας 1380
ινου 1380
συνεχόμενες 1380
Επιπρόσθετα 1379
Θεω@@ 1379
Μπιλ 1379
αναμένεται 1379
αποκαλύφθηκε 1379
αποστάσεις 1379
ασθενών 1379
λαμβάνονται 1379
λογικής 1379
τάξεως 1379
τάριο 1379
όχθ@@ 1379
Αρχαιολογικό 1378
Ολυμπιάδα 1378
μεταφορές 1378
πολιτικοί 1378
στατη 1378
χορό 1378
Κακ@@ 1377
Κρις 1377
Μαρί 1377
Πρέβεζας 1377
αρχικής 1377
ευρύτερα 1377
στασίας 1377
συναισ@@ 1377
ite 1376
Γκρί@@ 1376
ελήφθη 1376
καθημερινά 1376
πρός 1376
συναν@@ 1376
σύμβαση 1376
φωση 1376
ci@@ 1375
Ακολουθεί 1375
Πετρούπολης 1375
ίφη 1375
βιβλιογραφία 1375
ημί@@ 1375
κτισμένη 1375
σίν@@ 1375
υπονο@@ 1375
φερ 1375
1872 1374
Κριστ@@ 1374
Λιβύ@@ 1374
Νόμος 1374
διεθνών 1374
εμφάνισης 1374
ενδεχομένως 1374
εξασφάλι@@ 1374
πρωθυπουργία 1374
τέλει 1374
φιλοδοξ@@ 1374
Αγώνα 1373
Τοσκ@@ 1373
ακαν@@ 1373
αμερικανικής 1373
δημητ@@ 1373
επόμενης 1373
λόγιος 1373
ορεινός 1373
πτέρυγες 1373
ροειδ@@ 1373
Or@@ 1372
Έργο 1372
Ιλ@@ 1372
Νίκη 1372
άλυψη 1372
αποτελεσματικά 1372
δορ@@ 1372
θεμα 1372
ιγι@@ 1372
καλι@@ 1372
σεξ 1372
συναντήθηκε 1372
τζαμί 1372
Lo@@ 1371
Φινλανδ@@ 1371
έσπασε 1371
ανέφεραν 1371
βαθμού 1371
μπάσο 1371
πανελλήνιο 1371
ποδηλ@@ 1371
τράπεζα 1371
Βού@@ 1370
Κλεοπά@@ 1370
δίχ@@ 1370
επιτεθεί 1370
καστ@@ 1370
μπεκ@@ 1370
νόμων 1370
πιέσεις 1370
BMW 1369
Εκδόσεις 1369
Μη 1369
ανάλυσης 1369
μιγ@@ 1369
νικήτρια 1369
ορα@@ 1369
ριστής 1369
τονήθηκε 1369
top 1368
Αρκα@@ 1368
ΕΝ@@ 1368
αφότου 1368
εκπροσώπους 1368
ελπίδα 1368
κυριολεκτικά 1368
φον@@ 1368
Αμερικανικής 1367
Λεόν 1367
Πεκ@@ 1367
Φαίνεται 1367
ερωμένη 1367
καρκιν@@ 1367
παρεκκλ@@ 1367
ραϊκ@@ 1367
τσαρ@@ 1367
1865 1366
Purple 1366
Βεατρί@@ 1366
Σπύρος 1366
δικαιώ@@ 1366
πόρτα 1366
ρίνα 1366
συμμετέχοντες 1366
συστηματική 1366
1874 1365
Ro@@ 1365
Αυτ@@ 1365
Γεννη@@ 1365
ελέγχει 1365
ισομ@@ 1365
μεταφερθεί 1365
πεθερ@@ 1365
συναντάται 1365
Ευρωμπάσκετ 1364
απαιτ@@ 1364
ορα 1364
ρίσκεται 1364
φορών 1364
ir@@ 1363
Πομερ@@ 1363
ασθέν@@ 1363
κατάλληλα 1363
τηλεφ@@ 1363
χαρακτηρίζει 1363
Λουξεμβούργου 1362
Προβηγκ@@ 1362
έσεις 1362
ασμένες 1362
επίλυση 1362
σπάσει 1362
τσεν@@ 1362
ա@@ 1362
βρουν 1361
διασχίζει 1361
εσωτερ@@ 1361
μεταφέρουν 1361
μπελ 1361
τελευταίων 1361
τόμους 1361
Ρώσος 1360
Τραγ@@ 1360
ένων 1360
αξιολόγηση 1360
γλω@@ 1360
ραγωγ@@ 1360
σήμ@@ 1360
συμμε@@ 1360
χρόνως 1360
Entertainment 1359
ani 1359
Καντ@@ 1359
Πίσ@@ 1359
Ωκεανό 1359
διαμορφω@@ 1359
ημισ@@ 1359
χαν 1359
όπεδ@@ 1359
Μοναστήρι 1358
εκδότης 1358
ιατρός 1358
ινγκραντ 1358
κέρδη 1358
καθαρό 1358
ρεψαν 1358
χωρήσουν 1358
ανς 1357
ινε 1357
ροφ 1357
συμπλήρω@@ 1357
υρός 1357
Άμ@@ 1356
Κολέγιο 1356
Φιλελεύθερ@@ 1356
αθλήματα 1356
αρνητικά 1356
κατηγόρησε 1356
οποιός 1356
s.@@ 1355
Γέφ@@ 1355
αποσπάσματα 1355
πάγκο 1355
ροντας 1355
συμφώνησαν 1355
τικώς 1355
ā@@ 1354
Αιγυπτι@@ 1354
Αμπελ@@ 1354
Ρουμαν@@ 1354
Σκωτσέζ@@ 1354
Σώματος 1354
αναπαράσταση 1354
επικεντρώνεται 1354
ζάχαρ@@ 1354
λένε 1354
ολόγιο 1354
τύχ@@ 1354
1.0@@ 1353
Αθλητικός 1353
Ιερό 1353
Πόλ@@ 1353
Ρομά 1353
Σουλτάν 1353
έγκυ@@ 1353
ίστ 1353
φρέ@@ 1353
El 1352
Γερμανικό 1352
Κράτος 1352
Λίβερπουλ 1352
Μητροπολίτη 1352
Φ. 1352
ανατέθηκε 1352
αντίστοιχες 1352
βαρυ@@ 1352
ερμήνευσε 1352
ετού 1352
ολο 1352
ψεως 1352
όμετρα 1352
30.000 1351
Google 1351
Στράβ@@ 1351
Τσί@@ 1351
διαμάχες 1351
εγκα@@ 1351
καρδιακή 1351
κύματος 1351
σκάνδ@@ 1351
τρίτου 1351
φραγ@@ 1351
ύλια 1351
Τζούν@@ 1350
έος 1350
αέρια 1350
απόγευμα 1350
ορκίστηκε 1350
πλάκες 1350
συνθέτες 1350
χρησιμ@@ 1350
350 1349
Αβρα@@ 1349
Θω@@ 1349
Καλαβρύτων 1349
Σέρβων 1349
Φρί@@ 1349
δεν@@ 1349
καταφύγ@@ 1349
λευκά 1349
μάρκ@@ 1349
μίλ@@ 1349
νήσου 1349
ρίσουν 1349
ψηφοφορίας 1349
όγκος 1349
όποι 1349
As@@ 1348
Συρακ@@ 1348
ανώτερη 1348
σιου 1348
στού@@ 1348
τάγμα 1348
φιλοξένησε 1348
ca 1347
de@@ 1347
Κοσσυφοπεδίου 1347
Τορίνο 1347
Τρίπολης 1347
αγωγική 1347
πούς 1347
ράμματα 1347
σημαντικότερη 1347
στό@@ 1347
συμμετέχοντας 1347
συνοδ@@ 1347
φορέας 1347
Κλαρ@@ 1346
Πατριαρχείου 1346
αστερισμό 1346
γωνο 1346
ρωσικής 1346
φορέα 1346
Mor@@ 1345
Πικ@@ 1345
αποτελεσμάτων 1345
αρχικού 1345
αυτόνομη 1345
εβραϊκή 1345
κοπέλα 1345
μοντέρν@@ 1345
νακ@@ 1345
ομπ 1345
περνούσε 1345
υπόλοι@@ 1345
Λουκά 1344
Πρωταθλήτρια 1344
δηλώνουν 1344
δώρο 1344
καλλιέργ@@ 1344
ληψη 1344
περίεργ@@ 1344
13,@@ 1343
Charles 1343
έπεισε 1343
έρευ@@ 1343
αντίθετη 1343
δισεκατο@@ 1343
οδεύ@@ 1343
αδελφής 1342
αποκαλύπτει 1342
δραπετεύ@@ 1342
ιστι@@ 1342
τηλεφων@@ 1342
υπουργείο 1342
Po@@ 1341
Κρυ@@ 1341
ηγεμόνας 1341
κριτικός 1341
κτηνο@@ 1341
νοντας 1341
τολών 1341
υποστήριξαν 1341
6ου 1340
Ατλαν@@ 1340
Μικρασι@@ 1340
Ορλεάνης 1340
διέσχ@@ 1340
επαγγελματίες 1340
ευμένος 1340
μελη@@ 1340
ξεπέρασε 1340
στέρ@@ 1340
Σχεδόν 1339
κτήσεις 1339
κόστους 1339
ντά@@ 1339
σκέψης 1339
φαίνονται 1339
q 1338
Διεθνείς 1338
Ελευ@@ 1338
Πτολεμαίος 1338
κύρι@@ 1338
νύμφ@@ 1338
σωστά 1338
υποστηρικτής 1338
φιλικό 1338
χιο 1338
αγωνιστής 1337
γερμανικού 1337
γμα 1337
ενώθηκε 1337
ισσες 1337
μπρο@@ 1337
bit 1336
Πάλ@@ 1336
αμος 1336
ασμάτων 1336
γεωγραφικά 1336
δων@@ 1336
κολλο 1336
πενήντα 1336
τίθενται 1336
ity 1335
Άγγλους 1335
Άκ@@ 1335
Προηγ@@ 1335
άρτη 1335
επιστρέψουν 1335
ευτικών 1335
οπρεπ@@ 1335
πάγου 1335
πυροβόλα 1335
ϊν 1335
Ιμπραήμ 1334
Κόριν@@ 1334
Λάζ@@ 1334
αναπνευ@@ 1334
αντίγραφα 1334
θετικό 1334
θρησκευτικών 1334
ταυτίζεται 1334
υπάλληλος 1334
χθούν 1334
12.@@ 1333
San 1333
Αιγαίο 1333
Διεξ@@ 1333
ακτινοβολίας 1333
αναγεν@@ 1333
γκαν@@ 1333
εργαλείο 1333
θεότητα 1333
μεσο@@ 1333
ναρκωτικών 1333
ομορφιά 1333
παικτών 1333
τέταρτος 1333
im@@ 1332
Ζοζ@@ 1332
Καρλομάγ@@ 1332
Παραδείγματα 1332
αλίας 1332
σσεξ 1332
τσερ 1332
Διον@@ 1331
Σκύ@@ 1331
ίκου 1331
αδελφών 1331
ανίχν@@ 1331
γειτονική 1331
εξάπλωση 1331
εργάζονται 1331
μπερ 1331
τσών 1331
ύρους 1331
Δαβίδ 1330
Μεδίκων 1330
Οξι@@ 1330
Στεφάνου 1330
ανώτερο 1330
κατατάχθηκε 1330
λλος 1330
μετείχαν 1330
ναρκ@@ 1330
ούντ@@ 1330
ση@@ 1330
τραγουδι@@ 1330
Young 1329
op@@ 1329
Βρανδεμβούργου 1329
Ρεθύμνου 1329
ΣΔ 1329
ήρωες 1329
πετυχ@@ 1329
ύποπ@@ 1329
11.@@ 1328
Sp@@ 1328
Ασφαλείας 1328
Κάρλος 1328
έγραψαν 1328
έδιο 1328
βλεπε 1328
δημοτικότητα 1328
δώρα 1328
επεμβ@@ 1328
ιδα 1328
μεσολάβ@@ 1328
σκηνοθέ@@ 1328
τοποθετηθεί 1328
τριγ@@ 1328
γίν@@ 1327
επισκοπής 1327
ετήσι@@ 1327
κριν@@ 1327
περιόδευ@@ 1327
τακτικό 1327
τυχόν 1327
Βαλέν@@ 1326
Κομμουνιστικού 1326
Πράσιν@@ 1326
ηλεκτρικής 1326
λευκή 1326
μεικ@@ 1326
νικήσει 1326
πραξικοπ@@ 1326
προκύπτουν 1326
συνέν@@ 1326
όφωνα 1326
Royal 1325
ma 1325
Όπερ@@ 1325
Μέσης 1325
Ορθόδοξης 1325
άγονταν 1325
έρωτα 1325
ίρι 1325
αρχιεπίσκοπος 1325
επαναπ@@ 1325
κυρίαρχη 1325
παραθαλάσ@@ 1325
τίζουν 1325
ώνησε 1325
γνωστούς 1324
ολιθική 1324
Red 1323
αποτελέσ@@ 1323
αρχαίες 1323
μαρτυρία 1323
μοντέλων 1323
πυρήνας 1323
σκληρά 1323
υσμα 1323
χαμηλά 1323
1824 1322
land 1322
δ. 1322
εγγεγραμ@@ 1322
ηνή 1322
καταδίκα@@ 1322
μιος 1322
προκλ@@ 1322
χαρτί 1322
ωτικών 1322
όχημα 1322
Εκλογές 1321
ανάδ@@ 1321
επισκεπ@@ 1321
ζώο 1321
οπτικά 1321
πρόσωπ@@ 1321
συμπί@@ 1321
συνωμ@@ 1321
ωτικές 1321
± 1320
Αεροπορία 1320
Κόσμου 1320
αμερικανικού 1320
διαταρα@@ 1320
διενεργ@@ 1320
ευρωπαϊκής 1320
θλι@@ 1320
συντήρηση 1320
τιού 1320
Εκλ@@ 1319
Καποδίστρια 1319
Κινηματο@@ 1319
Ντον@@ 1319
αναγνωρίζεται 1319
ανακοίν@@ 1319
βαείο 1319
διεκδίκ@@ 1319
λάν 1319
πεποίθηση 1319
σκότ@@ 1319
υπολοχαγ@@ 1319
Γκότ@@ 1318
Κοινοβουλευτική 1318
ήγγειλε 1318
ματο 1318
ορο 1318
σήραγ@@ 1318
ons 1317
Καρδι@@ 1317
Λαρ@@ 1317
Νάξου 1317
Σχεδ@@ 1317
ανιψιός 1317
αξιών 1317
βάλλονται 1317
κεφάλαια 1317
λόγοι 1317
μπουν 1317
παραδο@@ 1317
συμπαγ@@ 1317
συχνές 1317
ότσαρ@@ 1317
9η 1316
Μπράουν@@ 1316
Πατριαρχείο 1316
Παύλο 1316
Προϊ@@ 1316
Ροσ@@ 1316
αρμογ@@ 1316
αρχαιολογικά 1316
κατορ@@ 1316
μαστε 1316
προδοσία 1316
προσωνύμιο 1316
τελετές 1316
υποστηρίζοντας 1316
επιδιώκ@@ 1315
οδυ@@ 1315
περιφέρεται 1315
ai 1314
Πρι 1314
Ράιχ 1314
ίσης 1314
διατροφή 1314
καθηγητές 1314
κινηματογραφικές 1314
ρότητα 1314
φόρους 1314
Γερουσίας 1313
Κομμουνιστικό 1313
Σάμ@@ 1313
Χώρες 1313
άντε@@ 1313
αποσπάστηκε 1313
επιστημονικές 1313
ιτσα 1313
κάστρα 1313
κατέγραψε 1313
μιμ@@ 1313
μυθιστορ@@ 1313
ναοί 1313
οστού 1313
οφόρος 1313
πεθαίνει 1313
ρεσης 1313
τορική 1313
τούρα 1313
10η 1312
Αντου@@ 1312
Ελένης 1312
Κλίμα 1312
Οκτα@@ 1312
ανές 1312
ελάχιστες 1312
εμπειρίες 1312
οτέχ@@ 1312
τοις 1312
codice 1311
Αναστ@@ 1311
άγουν 1311
απαιτούν 1311
παρεκκλήσι 1311
πετυχαίνοντας 1311
πολιόρκ@@ 1311
χειρόγραφο 1311
Γιοχ@@ 1310
Κλι@@ 1310
Λακωνίας 1310
αστέρι 1310
ημερομ@@ 1310
μουσείου 1310
οφείλει 1310
ταμ 1310
τοίχους 1310
τροχιάς 1310
χτισμένη 1310
χώρ@@ 1310
όμορφο 1310
age 1309
Νο 1309
αξιωματικοί 1309
δημόσιας 1309
εκείνον 1309
ημένους 1309
ισχυρά 1309
κινέζ@@ 1309
ογράφο 1309
ούδας 1309
τρισ@@ 1309
Κοπεγχ@@ 1308
Ναβάρ@@ 1308
άρρ@@ 1308
έθνους 1308
δίδει 1308
εκλέχτηκε 1308
εξυπηρετεί 1308
κτηρίου 1308
λευθέρων 1308
μέταλλο 1308
μύθος 1308
πριοι 1308
φύλλ@@ 1308
ϊκά 1308
40@@ 1307
Ακολούθως 1307
άρες 1307
αρμό@@ 1307
γες 1307
δωρ@@ 1307
λωρίδα 1307
μάτι@@ 1307
ψεύ@@ 1307
όκου 1307
Ρώσους 1306
Σιδ@@ 1306
Ταλ@@ 1306
δόσεις 1306
οφόρους 1306
ραση 1306
ότοπο 1306
Πελοπον@@ 1305
αρχηγούς 1305
ιός 1305
κρύβ@@ 1305
μελετη@@ 1305
μουσεία 1305
χαμηλότερο 1305
Μυτιλή@@ 1304
αθούν 1304
απέκλει@@ 1304
γυρισ@@ 1304
μονάχα 1304
νοή 1304
ορχήστρας 1304
προσβά@@ 1304
συντρόφ@@ 1304
φτιαγ@@ 1304
1829 1303
to@@ 1303
Κλαύ@@ 1303
Μέγαρο 1303
Νεο@@ 1303
Φλάνδρας 1303
Φραγκίσ@@ 1303
ανακαλύφθηκαν 1303
αποκτήθηκε 1303
εθνικός 1303
κιθαρ@@ 1303
τέταρ@@ 1303
τρίτης 1303
φάρ@@ 1303
φυλών 1303
ωρο 1303
Καφ@@ 1302
άθεια 1302
αυστηρά 1302
γενέτ@@ 1302
γυμν@@ 1302
ερμαν@@ 1302
θίασ@@ 1302
ιζόμενη 1302
μπορέσει 1302
προσβολή 1302
ώγ@@ 1302
Διοικητικές 1301
Χριστόφ@@ 1301
αρνείται 1301
πλουσι@@ 1301
πτηνά 1301
συνασπισμού 1301
συνοικίες 1301
Κασσ@@ 1300
Υπηρε@@ 1300
ανακαίν@@ 1300
διαδρα@@ 1300
δωματ@@ 1300
κοπο@@ 1300
μικρούς 1300
μοναστήρια 1300
νήσο 1300
σχημάτισε 1300
ταχύτη@@ 1300
Ντον 1299
επιτρέψει 1299
κομητ@@ 1299
κονσ@@ 1299
νηση 1299
παρών 1299
Pol@@ 1298
Ολοκα@@ 1298
αμφιβολ@@ 1298
γκλας 1298
διάδρο@@ 1298
εκσυγχρον@@ 1298
οκ 1298
πούδ@@ 1298
όρε 1298
Κόλπο 1297
έλλας 1297
ανακαλύπτει 1297
αντιπροσώπ@@ 1297
μακρό@@ 1297
συνταγματ@@ 1297
τασή 1297
τικ 1297
χορού 1297
Αθανασίου 1296
Ατλαντικό 1296
Γυμναστήριο 1296
Ιατρικής 1296
αρθρ@@ 1296
γλυπτά 1296
δικαιολογ@@ 1296
ελάχ@@ 1296
κλείσει 1296
κλειδί 1296
κρίσεις 1296
πέραν 1296
συγγέν@@ 1296
Εκλογ@@ 1295
Ουαλίας 1295
Ωδείο 1295
ίλα@@ 1295
αμέ@@ 1295
αρωματ@@ 1295
ελληνικός 1295
παππούς 1295
παραλίες 1295
πλάι 1295
πρόσοψη 1295
σιλ@@ 1295
χάρτες 1295
Δημιουργήθηκε 1294
Νικολάι 1294
απαιτούσε 1294
κοινοβουλίου 1294
λαίου 1294
παγι@@ 1294
παρακμή 1294
ταλ 1294
τοφ 1294
Θρησκευ@@ 1293
Οργάνωση 1293
αυτοκινήτου 1293
λατρείας 1293
πάλης 1293
περιουσίας 1293
προω@@ 1293
ριων 1293
Λίγα 1292
Μαδρίτη 1292
Πύργου 1292
Σαου@@ 1292
αρραβωνι@@ 1292
δελφ@@ 1292
εμφανίζουν 1292
ολντ 1292
τομέας 1292
Μεσοπο@@ 1291
βυζαντινής 1291
ειρας 1291
ισοπ@@ 1291
κιβώ@@ 1291
κομητείας 1291
ραλ@@ 1291
τεράστι@@ 1291
ύστερ@@ 1291
office 1290
Καραϊβ@@ 1290
έντομα 1290
αποκτήσουν 1290
κήπο 1290
παράθυρα 1290
ώνυμος 1290
AL@@ 1289
Ουέ@@ 1289
αυτοκρατορική 1289
ισμένους 1289
λεβ@@ 1289
προαναφερ@@ 1289
Ιον@@ 1288
ίκευση 1288
αρκετή 1288
εβδομαδια@@ 1288
εμπλ@@ 1288
ηχογράφησε 1288
τούν@@ 1288
όβου 1288
Cl@@ 1287
Τανζ@@ 1287
δεκαν@@ 1287
διωγ@@ 1287
διώξεις 1287
καθεδρικό 1287
μετε@@ 1287
οποιημένη 1287
σουλτάνου 1287
χαμηλές 1287
ωτο 1287
1856 1286
é 1286
Βίος 1286
αδύνατο 1286
ανθεκ@@ 1286
ελάχιστο 1286
θετε 1286
χαιρε@@ 1286
Τζο 1285
έπαυ@@ 1285
ίκες 1285
ετέρου 1285
τάξει 1285
τελικής 1285
χρήσ@@ 1285
140 1284
ro@@ 1284
Ελληνικών 1284
Ιάκωβ@@ 1284
Μέσω 1284
αυτονομ@@ 1284
βαθμός 1284
βαθμών 1284
κοινωνι@@ 1284
ποτάμια 1284
τζού@@ 1284
όσιο 1284
Βυρτεμβέργης 1283
έθιμα 1283
ακατοίκ@@ 1283
αποκλεισμό 1283
διπλή 1283
Μπράιαν 1282
Χριστιανός 1282
ζωγράφισε 1282
θαυμ@@ 1282
περιστασιακά 1282
συνεχίζεται 1282
Γκίλ@@ 1281
Ποσειδώνα 1281
Χαϊδελβ@@ 1281
αντικατοπτ@@ 1281
αραβική 1281
διασπο@@ 1281
δύσκολ@@ 1281
πόντοι 1281
ρεν@@ 1281
στάλ@@ 1281
συνεχίζουν 1281
Ἀ@@ 1281
Maria 1280
Marvel 1280
ΕΜ@@ 1280
Ειρηνικού 1280
Εκστρατ@@ 1280
Κρού@@ 1280
Παπαδόπουλος 1280
Τέχ@@ 1280
Φασ@@ 1280
δικτατορίας 1280
κιλ@@ 1280
σταδίου 1280
σύγχρονων 1280
φαράγ@@ 1280
όπους 1280
ve 1279
Ανεξαρτη@@ 1279
Δίκαιο 1279
βουλευτή 1279
κινήματα 1279
προηγούμενης 1279
σαράντα 1279
1854 1278
Εμπορίου 1278
Λεγε@@ 1278
Λον@@ 1278
ΝΑ. 1278
Τόνι 1278
κρίνεται 1278
μπαν 1278
ούμενων 1278
πέδιο 1278
τετράγ@@ 1278
τετράγωνο 1278
Ποδ@@ 1277
έστ 1277
ακτι@@ 1277
εζ 1277
ειδικών 1277
ζήτηση 1277
κολύμβ@@ 1277
ρόπολης 1277
συνεργάζεται 1277
φωτι@@ 1277
ψί@@ 1277
Αυτοκρά@@ 1276
εξωτερικών 1276
ημιτελικούς 1276
οικογενειακό 1276
οπτικές 1276
προκατ@@ 1276
σμπαχ 1276
στροφές 1276
Περίοδος 1275
εμπιστ@@ 1275
λεηλατ@@ 1275
πληροφ@@ 1275
ριζοσπ@@ 1275
στικότητα 1275
συνεχίστηκαν 1275
τελευταίοι 1275
Na@@ 1274
Λασιθίου 1274
Πάφου 1274
Παναγιώτη 1274
Χαρακτηριστικό 1274
αγωνίστηκαν 1274
δημιουργούνται 1274
θεύ@@ 1274
λιμάνια 1274
μηχανικής 1274
οτροφ@@ 1274
σοβαρό 1274
τοποθέτησε 1274
ώτου 1274
Βενεζου@@ 1273
ΙΔ 1273
Καρλότ@@ 1273
Κυρ@@ 1273
Ορχή@@ 1273
διάν@@ 1273
ικανός 1273
μουντ 1273
οδική 1273
πήγαν 1273
τσί@@ 1273
Έβρου 1272
Μπρους 1272
δέκατη 1272
εύσεων 1272
λειτουργικό 1272
συγκεκριμένου 1272
συμβούλ@@ 1272
160 1271
200@@ 1271
Αλφόνσος 1271
Διονύσιος 1271
αράς 1271
ημα@@ 1271
κεφ@@ 1271
παίρνουν 1271
παρούσα 1271
ποσο@@ 1271
σίδ@@ 1271
τεχνοτροπ@@ 1271
1859 1270
Κομοτη@@ 1270
Τσέχ@@ 1270
απομακρυσ@@ 1270
νάτριο 1270
νησης 1270
οδοι 1270
πρόσφ@@ 1270
Αρχηγός 1269
Λευκορωσίας 1269
απόσυρ@@ 1269
εισι@@ 1269
ζήτησης 1269
λυκ@@ 1269
τείνεται 1269
Ξεκ@@ 1268
ΡΙΖ@@ 1268
ακιν@@ 1268
γειτονικές 1268
στός 1268
Αργυ@@ 1267
Ροδόλ@@ 1267
Ρούν@@ 1267
αιμορ@@ 1267
αποτελείτο 1267
διασκευή 1267
καθιέρωσε 1267
μερική 1267
ρίχν@@ 1267
σιμος 1267
σωζ@@ 1267
τελειώσει 1267
υνθεί 1267
ύλακα 1267
.gr 1266
7,@@ 1266
ist 1266
Πάολο 1266
Παρκ 1266
Τ. 1266
αγωνιστικής 1266
ανω@@ 1266
γηπέδου 1266
εκπαιδεύ@@ 1266
λύσεις 1266
μάρμαρ@@ 1266
υποδοχή 1266
ωμένους 1266
όγων 1266
Αμερικανό 1265
Τορόντο 1265
ακόλουθο 1265
αποζημ@@ 1265
γουεϊ 1265
διατελέσει 1265
εγκαταλείφθηκε 1265
επίβλεψη 1265
ράν@@ 1265
συναντήσεις 1265
σχήματα 1265
1844 1264
Αρχιεπίσκοπος 1264
Λένιν 1264
Νοβ@@ 1264
Τσα@@ 1264
αρίθμ@@ 1264
ζευγάρια 1264
καρκίνου 1264
μετεω@@ 1264
ογραμ@@ 1264
οπαί@@ 1264
τριχ 1264
ωμένης 1264
ώδ@@ 1264
450 1263
Night 1263
Ιατρική 1263
αγοράσει 1263
αναδεικνύ@@ 1263
αυτόματα 1263
γεγονότος 1263
διεξάγονται 1263
νίκησαν 1263
προδιαγραφ@@ 1263
τωσης 1263
Παρατηρ@@ 1262
αποχωρήσει 1262
εντάχθηκαν 1262
κατείχαν 1262
ραδιόφωνο 1262
τίτ@@ 1262
em 1261
ανταρ@@ 1261
εβδ@@ 1261
επιθυμούσε 1261
ιδιο@@ 1261
πλατφόρ@@ 1261
Αστέρας 1260
Ορισμένα 1260
Χριστου@@ 1260
έπαθ@@ 1260
αποτελώντας 1260
βικ 1260
εκδόθηκαν 1260
κορυφαίος 1260
μέλους 1260
ορντ 1260
σορ@@ 1260
συνεχής 1260
Κρου@@ 1259
ιδρύθηκαν 1259
κτήματα 1259
λαιμό 1259
λυφ@@ 1259
πουλήσει 1259
ριον 1259
τοῦ 1259
χορο@@ 1259
35@@ 1258
Ελληνοκύ@@ 1258
Μελε@@ 1258
ίνγκ 1258
βλάβ@@ 1258
διάφορων 1258
δρου 1258
δόξ@@ 1258
επιχείρησε 1258
ητού 1258
θέτουν 1258
οπαδών 1258
συνωμοσία 1258
Εκλογική 1257
Νεά@@ 1257
άνοδος 1257
βασίλεια 1257
εξέλιξης 1257
κατηγοριών 1257
μάζει 1257
μετατραπεί 1257
σιακή 1257
υπηκοότητα 1257
υποβιβασ@@ 1257
Μπαχ@@ 1256
βαλκαν@@ 1256
γέφυρας 1256
γεωμετρία 1256
δέκα@@ 1256
μετακίνηση 1256
ύνεται 1256
AC 1255
ak@@ 1255
Γεωργι@@ 1255
Μέσ@@ 1255
απόφοι@@ 1255
γρήγορη 1255
δέχθηκαν 1255
δισκογραφικής 1255
εκπροσώπ@@ 1255
μετρήσεις 1255
μόνιμο 1255
ύκλ@@ 1255
Apple 1254
Αλί 1254
Γερμανικά 1254
Δεύτερ@@ 1254
Μπουν@@ 1254
Προσω@@ 1254
βασιλέα 1254
γέννησε 1254
δεσμό 1254
κρατικό 1254
πτήσης 1254
πυρκαγι@@ 1254
όδωρος 1254
eg@@ 1253
Αυστροουγγαρ@@ 1253
Σαπ@@ 1253
Τίτλοι 1253
άδου 1253
ίδιους 1253
ακτής 1253
βραχώ@@ 1253
διακόπηκε 1253
κατάγ@@ 1253
ουλφ 1253
οφειλ@@ 1253
σύγχρονου 1253
me 1252
po@@ 1252
Λάρνακας 1252
αιγίδα 1252
ακτίνα 1252
αυτοκινητ@@ 1252
δώ@@ 1252
μιών 1252
μυκη@@ 1252
οτε 1252
προοπτική 1252
συνέγραψε 1252
co 1251
Έκθεση 1251
Αλέξιος 1251
Πνεύ@@ 1251
άξονες 1251
λιοντ@@ 1251
νατρίου 1251
ογραφικές 1251
στρατιωτικού 1251
τούμενη 1251
υπηρετήσει 1251
υπολείμματα 1251
όργαν@@ 1251
ea 1250
Ανάκ@@ 1250
αγίου 1250
αντρών 1250
ασφάλ@@ 1250
βαλντ 1250
ρωμαϊκό 1250
σμπεργκ 1250
Ber@@ 1249
αναπτύσσονται 1249
θεωρείτο 1249
τούργ@@ 1249
υποβιβασμό 1249
φύλλο 1249
άζα 1248
άνευ 1248
ίνους 1248
δωσε 1248
ηθοποι@@ 1248
χαϊμ 1248
χιλ@@ 1248
ωδών 1248
ans 1247
Αλίκη 1247
Βυζαντινούς 1247
ήρου 1247
αντιστοιχούν 1247
απόλυτα 1247
εμφυλίου 1247
ιάνα 1247
ιανή 1247
μαγειρ@@ 1247
μεγάλοι 1247
σιτς 1247
Game 1246
Δήμη@@ 1246
Θεσ@@ 1246
Κλασ@@ 1246
Σταθμ@@ 1246
άστι@@ 1246
ανεγέρθηκε 1246
ενθάρρ@@ 1246
θεών 1246
σπορ 1246
στι 1246
έιλ 1245
αναπαραστ@@ 1245
γνά@@ 1245
διάσταση 1245
κήρυξη 1245
κλα 1245
πικ@@ 1245
πινακ@@ 1245
σχέσης 1245
υποτιθέ@@ 1245
όμη 1245
κυμαίν@@ 1244
τραμ 1244
υπερβολικά 1244
1814 1243
Pe@@ 1243
Κόλπου 1243
Ομόν@@ 1243
ήποτε 1243
αναγνωρίσει 1243
αποτελέσει 1243
αύρου 1243
μβούργου 1243
νησίδα 1243
ξαφνικά 1243
πειθ@@ 1243
προκαλέσουν 1243
ρίθηκε 1243
όκαστρο 1243
Αστέρα 1242
Γαρ@@ 1242
άρνηση 1242
αλλαγών 1242
εκλογικές 1242
εκτικά 1242
επιβεβαί@@ 1242
ηρία 1242
καστ 1242
περάσουν 1242
φιναλίστ 1242
όροφο 1242
ύνουν 1242
q@@ 1241
αίτια 1241
δημοτικές 1241
εκείνου 1241
ηματικό 1241
ιππικό 1241
νόσο 1241
περιστροφή 1241
σταθεί 1241
στρες 1241
τοκύ@@ 1241
Αντιόχειας 1240
ζητούσε 1240
πόλε@@ 1240
τομο 1240
φίλη 1240
ig@@ 1239
Αφροδίτη 1239
Λέγεται 1239
Μοσχ@@ 1239
ανταρτών 1239
αντιληπτ@@ 1239
εμβολι@@ 1239
επίθετο 1239
ιδιοκτήτες 1239
καλυφθεί 1239
ρικοί 1239
όνγκ 1239
Αλλαγ@@ 1238
ΙΙΙ 1238
ενέπ@@ 1238
νότιες 1238
ορει@@ 1238
ούται 1238
περιελάμβαναν 1238
συνταγματάρχη 1238
τέρων 1238
φαινομεν@@ 1238
χρέη 1238
ωτικής 1238
όμησης 1238
IS@@ 1237
lo@@ 1237
Βαθμολογία 1237
Ευσ@@ 1237
Κεφαλλ@@ 1237
Σελήνη 1237
αγωνιζόμενος 1237
αποδο@@ 1237
απορρίφθηκε 1237
εξώ@@ 1237
καταδικα@@ 1237
προάστιο 1237
προσπαθούσε 1237
πρόοδο 1237
σκου@@ 1237
ὸν 1237
Άρθουρ 1236
Πληροφ@@ 1236
ίντα 1236
εκπέμπει 1236
θέντες 1236
θεατρικές 1236
λας 1236
λεγόμενα 1236
νομή 1236
ονότι 1236
4ος 1235
ant 1235
Αρχή 1235
Ηνω@@ 1235
Θεοδω@@ 1235
διατηρηθεί 1235
διατρ@@ 1235
λαούς 1235
νευσε 1235
οκράτες 1235
παρέμενε 1235
George 1234
Αστρονομ@@ 1234
Επιστημον@@ 1234
Πύ@@ 1234
Τρία 1234
Χαβά@@ 1234
αθλητών 1234
ακτών 1234
ανση 1234
αντιπάλου 1234
δέσμ@@ 1234
δεσμευ@@ 1234
μοστεί 1234
συγχέεται 1234
τάφοι 1234
ευθύ@@ 1233
θεούς 1233
καταγράφει 1233
συγκεκριμένης 1233
συντάγματος 1233
τεστ 1233
υπέβαλε 1233
Παλι@@ 1232
ήμισυ 1232
διαθήκη 1232
διαμέ@@ 1232
δύν@@ 1232
εορτή 1232
επηρεάστηκε 1232
εποχές 1232
ιστού 1232
κυρίαρχ@@ 1232
μενοι 1232
σκληρό 1232
υπέρο@@ 1232
District 1231
αγγλικό 1231
προσαρμογή 1231
τημ@@ 1231
12ου 1230
Bal@@ 1230
Ιλι@@ 1230
Μαντόνα 1230
Τυρ@@ 1230
ακαδημίες 1230
αποστολ@@ 1230
θία 1230
νορβηγ@@ 1230
πλοκές 1230
τυφ@@ 1230
υφιστ@@ 1230
υψηλότερα 1230
χωρεί 1230
1820 1229
NO@@ 1229
Βιβλιοθήκης 1229
Λαϊκής 1229
Περίοδο 1229
εγι@@ 1229
κορυφαίους 1229
κυαν@@ 1229
λιμαν@@ 1229
ολίνι 1229
στρέμματα 1229
Αλβέρτος 1228
Αρα@@ 1228
γάμους 1228
ηθοποιοί 1228
καθαρή 1228
κατέληξαν 1228
παραγωγό 1228
Τρέ@@ 1227
Τσερ@@ 1227
άλματος 1227
εξορίστηκε 1227
επίσημος 1227
ούρων 1227
παιδικά 1227
προβλήματος 1227
στήθος 1227
τίας 1227
Award 1226
Αντιόχεια 1226
Πρόσφ@@ 1226
Πύλου 1226
αποδίδει 1226
βιχ 1226
δή 1226
εναρ@@ 1226
κέρματα 1226
καταλυ@@ 1226
ομηχαν@@ 1226
πολεμικών 1226
χώρισαν 1226
όφελος 1226
ώτρια 1226
Αρχαίας 1225
Δόξα 1225
έστη 1225
καντ@@ 1225
οπρ@@ 1225
πάσα 1225
προκριματικά 1225
τρόφ@@ 1225
τυπα 1225
Μίσ@@ 1224
Ναμ@@ 1224
εκπροσώπησε 1224
τιμωρία 1224
τουάζ 1224
τούρκ@@ 1224
Αναστά@@ 1223
Ρόδο 1223
Φιλίπ@@ 1223
αμπελ@@ 1223
ανθρώπινου 1223
βλε@@ 1223
γκαρ 1223
εών 1223
σιδηρ@@ 1223
σχεδιαστεί 1223
φτάσουν 1223
Νότου 1222
έγονται 1222
μιλούν 1222
προσπάθειά 1222
τιλι@@ 1222
χρωμάτων 1222
ύμνος 1222
ner 1221
Άλαν 1221
Άνοι@@ 1221
Κατερίνα 1221
Συνασπ@@ 1221
Τ.@@ 1221
άδελφ@@ 1221
έστης 1221
ίδεται 1221
ερο 1221
θεσπ@@ 1221
στέ@@ 1221
Βούλγαροι 1220
Εργασίας 1220
Ουρουγου@@ 1220
έντ 1220
γειτονικό 1220
εκβολές 1220
μηχανικό 1220
ψήφισε 1220
den 1219
Βυζαντίου 1219
Θωμά 1219
Υπήρχαν 1219
εγκαταλεί@@ 1219
εμπορευ@@ 1219
επιτυχημένο 1219
καρν@@ 1219
λεπτών 1219
προκρί@@ 1219
συνέδε@@ 1219
υπόβαθρο 1219
όσι 1219
ανανέ@@ 1218
αντικατασταθεί 1218
αντιμετώπιζε 1218
ανώτατο 1218
ενηλικ@@ 1218
ιδεολογία 1218
λεηλ@@ 1218
συλ@@ 1218
und 1217
Δημοκρατική 1217
Δρυ@@ 1217
Εσπερ@@ 1217
Μάρκ@@ 1217
Μπεν 1217
Νίκαια 1217
εγκεφάλου 1217
ζων@@ 1217
κυρίου 1217
μετάλλων 1217
μιρά@@ 1217
οκρατία 1217
συγκρούσεων 1217
σύγχρονοι 1217
ΐας 1216
Γυνα@@ 1216
ανου@@ 1216
διανυσ@@ 1216
νασσ@@ 1216
πτυχές 1216
τεινε 1216
υστερ@@ 1216
Αραγ@@ 1215
ΒΔ. 1215
απλού@@ 1215
βοήθησαν 1215
κοιλάδας 1215
μηχανισμός 1215
μιούζικαλ 1215
μπουλ@@ 1215
ολοένα 1215
ομή@@ 1215
ουλεύ@@ 1215
όδοξ@@ 1215
ότσ@@ 1215
Εκπαίδευσης 1214
αστικ@@ 1214
βαρύ 1214
επιταχ@@ 1214
κλείσιμο 1214
ουγ@@ 1214
σιέ 1214
συμμετάσχουν 1214
όλεως 1214
Παί@@ 1213
Ση@@ 1213
ανοικτό 1213
ιδεών 1213
κόρυφ@@ 1213
μερικών 1213
οχημάτων 1213
παραγόντων 1213
προξεν@@ 1213
1832 1212
Αντρέ 1212
Σικελι@@ 1212
Σφαίρα 1212
άρους 1212
έρον@@ 1212
ακα 1212
εισβολ@@ 1212
επόμενους 1212
ιδιωτικά 1212
μεσολαβ@@ 1212
περίφημο 1212
Βασιλικού 1211
Πιν@@ 1211
Χάρβαρντ 1211
Χριστίνα 1211
αρος 1211
βλέποντας 1211
ευτούν 1211
ζωγράφο 1211
μακρύ 1211
οικογένειάς 1211
προϋπολογισμό 1211
σκοτώνει 1211
συνηθισμένο 1211
ak 1210
Καρολίνα 1210
Πρωταθλ@@ 1210
Φλωρεντίας 1210
άλγεβ@@ 1210
άσπρο 1210
αλληλουχ@@ 1210
ασταθ@@ 1210
δέχονται 1210
δέχτηκαν 1210
δευτεροβάθ@@ 1210
διοικητικής 1210
εκτελέστηκαν 1210
ζώ@@ 1210
παλιότερα 1210
παρουσίαζε 1210
ταχυ@@ 1210
τρόμου 1210
υγή 1210
ὲ 1210
AS@@ 1209
Αβί@@ 1209
Χάρη 1209
ίζας 1209
ίσσεται 1209
βιταμ@@ 1209
διαζύγιο 1209
ηλεγγύ@@ 1209
οβάννι 1209
οσο@@ 1209
περιορίζεται 1209
φτώχ@@ 1209
χρηματοδότη@@ 1209
5,@@ 1208
Διάσκ@@ 1208
Ιατρ@@ 1208
Κοκκιν@@ 1208
Πύργο 1208
άνεμ@@ 1208
έσουν 1208
ακτίνες 1208
δυσαρ@@ 1208
κορι@@ 1208
λόφους 1208
νεότερο 1208
οκιν@@ 1208
ρέφεται 1208
ρακας 1208
σήματα 1208
χελ@@ 1208
→ 1208
Κανον@@ 1207
Καντα@@ 1207
Μεραρχία 1207
άλατα 1207
έφθ@@ 1207
γνωρίσει 1207
ιντεν 1207
ξεκινούν 1207
ριους 1207
σχηματίσει 1207
τουρ@@ 1207
υπερβολική 1207
Κουτσ@@ 1206
Μικρασιατική 1206
άλλαξαν 1206
αντικαθ@@ 1206
επικαλ@@ 1206
ευθ@@ 1206
καθορισ@@ 1206
υπεράσπιση 1206
χάου@@ 1206
Λίγκα 1205
Πόρτο 1205
Σουδάν 1205
επέστ@@ 1205
εύματά 1205
κυρίαρχο 1205
μετρό 1205
οειδές 1205
ραξε 1205
τούμεν@@ 1205
8.000 1204
Πρωταθλητριών 1204
ίτζι 1204
αποφευ@@ 1204
γνωστού 1204
γουελ 1204
διώκ@@ 1204
μεταφερ@@ 1204
ολ 1204
πρεσιον@@ 1204
φέρνοντας 1204
Κογκρέσο 1203
Λαϊκού 1203
απαλλ@@ 1203
αυν@@ 1203
δρας 1203
εκπρόσωποι 1203
λημα 1203
πολιτιστικά 1203
ταρά@@ 1203
ότυπη 1203
Αραβία 1202
Ιακ@@ 1202
Νοτίου 1202
έφ 1202
απόδ@@ 1202
βασικών 1202
ενδέχεται 1202
ηύ@@ 1202
θυμίζει 1202
κινς 1202
μόρ@@ 1202
ούντ 1202
συνάρτησης 1202
ταχθεί 1202
1851 1201
Αχμέτ 1201
Μεχμέτ 1201
Νεβ@@ 1201
έναρξης 1201
αιώνων 1201
ασβ@@ 1201
εξελιχθεί 1201
επινο@@ 1201
κρυφ@@ 1201
χαρακτηριστικών 1201
όγον@@ 1201
Βιβ@@ 1200
Πορτογαλ@@ 1200
Ρεν@@ 1200
αξιωματικών 1200
διαθέσιμη 1200
εδρίας 1200
λογικά 1200
παλαί@@ 1200
σταθμοί 1200
τιτ@@ 1200
χάλυ@@ 1200
Best 1199
io 1199
Άγι@@ 1199
Όρους 1199
Γερμανού 1199
Νίκολ@@ 1199
άντρας 1199
ανάγκα@@ 1199
δόγμα 1199
ερεθ@@ 1199
ημάτισε 1199
ιε 1199
μεσαία 1199
προερχόταν 1199
πρόκληση 1199
σίγουρα 1199
σουμε 1199
συναδέλφ@@ 1199
re 1198
Δημοσι@@ 1198
Δυτικό 1198
Εκπαιδευ@@ 1198
Ζάγκρεμπ 1198
Παρότι 1198
άλεια 1198
απροσ@@ 1198
δημοτικού 1198
επαρχιών 1198
πληθώρα 1198
πλοιο 1198
προετοι@@ 1198
στεγάζεται 1198
υνα@@ 1198
Βρετάνης 1197
Ρότζερ 1197
αποφυγή 1197
δεκαπέντε 1197
ενεργή 1197
τάφους 1197
ταγμα 1197
χρωμοσ@@ 1197
116@@ 1196
11η 1196
Βίκινγκ 1196
Ενα@@ 1196
Νησ@@ 1196
ακολουθούσαν 1196
αναγνωρίζει 1196
επίσ@@ 1196
κατεβ@@ 1196
ρακα 1196
σύγκρουσης 1196
τσος 1196
6,@@ 1195
Is 1195
Γάλλου 1195
Πλούταρ@@ 1195
Σύνοδος 1195
δείκτη 1195
κοι@@ 1195
λωσσ@@ 1195
νικηφ@@ 1195
παράσ@@ 1195
τέα 1195
τηρού@@ 1195
50.000 1194
Πέμπ@@ 1194
Ραϋμόν@@ 1194
Φρέν@@ 1194
ανή@@ 1194
απόπ@@ 1194
δευτερότοκος 1194
ετζ@@ 1194
θανατ@@ 1194
ναυτικού 1194
οικογενειακή 1194
οινικ@@ 1194
Αναλυ@@ 1193
Κριτική 1193
Σάο 1193
αποκτ@@ 1193
βαμβ@@ 1193
δους 1193
εισέβαλαν 1193
επέτειο 1193
ευρε@@ 1193
ημερολογ@@ 1193
ινων 1193
λάβ 1193
πορείας 1193
ρίτη 1193
σημάδια 1193
συνδέσεις 1193
Μέλος 1192
Στρατιά 1192
ήσιος 1192
διοικητικού 1192
ενσωμάτωση 1192
ναυμαχία 1192
ναύτες 1192
ομιλητές 1192
περιγράφουν 1192
σκου 1192
συνολικής 1192
a.gr 1191
il 1191
Αθηνά 1191
Κεφαλον@@ 1191
Συνόδου 1191
ευρεσι@@ 1191
λέγονται 1191
μόν 1191
φύλα@@ 1191
Εσθονία 1190
Πιστεύεται 1190
ήγμα 1190
αναφέρ@@ 1190
θελ@@ 1190
στιν 1190
ύρη 1190
1843 1189
Ανρί 1189
Κολλέγιο 1189
Ντάνιελ 1189
Χρονικά 1189
έιτ 1189
ίγια 1189
εξεγέρ@@ 1189
λοφ@@ 1189
ουτσ@@ 1189
παρασκευή 1189
υγμα 1189
Iron 1188
Μαύρη 1188
άλω@@ 1188
αποτρέψει 1188
διαδρομής 1188
δικα 1188
είμαι 1188
εδρα@@ 1188
ημικ@@ 1188
μολυσ@@ 1188
ντόπιους 1188
πίστης 1188
περιορισμούς 1188
πρόσφερε 1188
συντριπτική 1188
τοι@@ 1188
υπαίθ@@ 1188
φοιτητών 1188
1,3 1187
facto 1187
Λουθηραν@@ 1187
έθνη 1187
αιο@@ 1187
εκατ. 1187
παράνομη 1187
πλοί@@ 1187
ραφτ 1187
php 1186
Κάποιες 1186
Φραν@@ 1186
έθιμο 1186
εκφράζει 1186
ενδοχ@@ 1186
ευλογ@@ 1186
μηχανισμό 1186
νια 1186
σκαλ@@ 1186
τειχών 1186
χωμα 1186
Big 1185
era 1185
Βίλχελμ 1185
Βιτ@@ 1185
Νέβιλ 1185
έκθεσης 1185
ένος 1185
αστικός 1185
δέρματος 1185
ειγμα 1185
εισηγ@@ 1185
εμπρός 1185
ενώθηκαν 1185
συγκέντρ@@ 1185
ator 1184
box 1184
ΟΥ 1184
Περιβάλλ@@ 1184
θανατη@@ 1184
μνης 1184
ξιμο 1184
πυκ@@ 1184
όραμα 1184
Έζ@@ 1183
Αντωνίου 1183
Ενόπλων 1183
Νάσσαου 1183
αποφάσεων 1183
εκατ@@ 1183
εκπληκ@@ 1183
ενοικ@@ 1183
κινητήρας 1183
νομο@@ 1183
ξής 1183
οστοιχ@@ 1183
Γιουρ@@ 1182
Κιου@@ 1182
Κοινοβουλευ@@ 1182
Ρασ@@ 1182
εκτέλεσης 1182
εχθρό 1182
θέρμανση 1182
ισότητα 1182
οποιονδήποτε 1182
πραγματοποιούνται 1182
σπονδυλ@@ 1182
συντεταγμένες 1182
τηθούν 1182
τροφοδο@@ 1182
όνομ@@ 1182
ὸ 1182
00@@ 1181
Ver@@ 1181
co@@ 1181
Εφημερ@@ 1181
Κοκ@@ 1181
Χριστιανισμό 1181
άθροισμα 1181
αποτελεσματικότητα 1181
γιαγιά 1181
γύρου 1181
διατε@@ 1181
εκπροσωπού@@ 1181
οπίσ@@ 1181
συμπατρι@@ 1181
1858 1180
Διαθήκη 1180
Μίλαν 1180
Σταμά@@ 1180
Φρι@@ 1180
διαδόχου 1180
επιτάχ@@ 1180
καπετ@@ 1180
λυρ@@ 1180
On 1179
Πέν@@ 1179
ατομική 1179
αφαιρε@@ 1179
διαστη@@ 1179
καθιέρωση 1179
σταγ@@ 1179
σχηματισμού 1179
τεράστιες 1179
ότης 1179
Αλά@@ 1178
Απόστολος 1178
Γυναικείου 1178
Μοί@@ 1178
Τακ@@ 1178
ήμερο 1178
βληθεί 1178
δίσουν 1178
ησιμ@@ 1178
κλάδους 1178
παππού 1178
πλούτο 1178
πρόληψη 1178
τρες 1178
τρόπου 1178
Πατέρας 1177
άρθρωση 1177
ασθένειας 1177
γήπεδα 1177
ογγ@@ 1177
σεβασμό 1177
υπογράφηκε 1177
χάρισε 1177
.Η 1176
Δερ@@ 1176
Περού 1176
Σεπτέμβ@@ 1176
αθλή@@ 1176
απόγονος 1176
ιππικού 1176
κιθαρίστα 1176
ούδι 1176
παραπόταμ@@ 1176
σιδηροδρομική 1176
φιλοσόφ@@ 1176
ik@@ 1175
Άργος 1175
Βουλ@@ 1175
Θανά@@ 1175
Τώρα 1175
Φον@@ 1175
άτσο 1175
αντίδρασης 1175
απομνημον@@ 1175
επικρι@@ 1175
κτίσμα 1175
υπαγόταν 1175
ότυπος 1175
Ήλιου 1174
Ανταρκ@@ 1174
Μάλτα 1174
Φρανκ@@ 1174
επαναλαμβ@@ 1174
ερις 1174
καταστροφής 1174
κινούνται 1174
κράτης 1174
ξεπεράσει 1174
τείχ@@ 1174
υπερβολ@@ 1174
ψιμο 1174
ΕΑΜ 1173
Πανιώνιο 1173
Πολωνών 1173
Στου@@ 1173
ακτιν@@ 1173
αλογον@@ 1173
εμπλου@@ 1173
εταιρίες 1173
οίκου 1173
οδών 1173
πίσ@@ 1173
συντήρ@@ 1173
τανικά 1173
όμερ@@ 1173
met 1172
ri@@ 1172
Ασφάλ@@ 1172
Σιλεσίας 1172
Χόρ@@ 1172
ανεπάρκεια 1172
πτώ@@ 1172
πόντων 1172
συνειδητοποι@@ 1172
Σταυρό 1171
έμβριος 1171
ανήλθε 1171
αποβιβ@@ 1171
προφαν@@ 1171
πρόσβασης 1171
πρόσθεσε 1171
χαμηλού 1171
1841 1170
1845 1170
Νεπ@@ 1170
Παραδ@@ 1170
Σάββατο 1170
Χαλκιδικής 1170
αινα 1170
απέζ@@ 1170
βουδι@@ 1170
εισόδημα 1170
ισθ@@ 1170
κερδοσκοπ@@ 1170
μετατρ@@ 1170
μπιν@@ 1170
συνέλαβε 1170
συρ 1170
τάνιο 1170
υψηλότερες 1170
ωρη 1170
Pro@@ 1169
Πανεπιστημι@@ 1169
εγώ 1169
επιβολή 1169
θεσμός 1169
κατέστη 1169
υποχώρηση 1169
1827 1168
Αλεξάνδρειας 1168
Λιου@@ 1168
Μαρίνα 1168
άμπι 1168
αναπαραγωγή 1168
απόδοσης 1168
αρθρο@@ 1168
γράφτηκαν 1168
γρήγορ@@ 1168
λογοτεχνικό 1168
ροντ 1168
τσά 1168
υποτίθεται 1168
όντως 1168
Τραγούδια 1167
άουτ 1167
ανάγ@@ 1167
κολέγιο 1167
πάθος 1167
παριστ@@ 1167
παρουσιάσει 1167
πολογία 1167
προστάτης 1167
πρόβ@@ 1167
συμπτω@@ 1167
4,5 1166
Αγαθ@@ 1166
αθλητισμό 1166
αξιωματούχους 1166
διαγνω@@ 1166
ερωτευ@@ 1166
κύριους 1166
πρεσβεία 1166
υφορ@@ 1166
Ίνγκ@@ 1165
Γιάκ@@ 1165
Μανώ@@ 1165
Μεγάλος 1165
Ρουσ@@ 1165
άιλ@@ 1165
αφορούσαν 1165
ισόπ@@ 1165
μεταφράσεις 1165
μυστικό 1165
οκρά@@ 1165
περιήλθε 1165
ρίνει 1165
Ανωτά@@ 1164
Μάλτας 1164
Σαίξπηρ 1164
Τζού@@ 1164
ίρα 1164
ανάλογη 1164
επωφελ@@ 1164
λες 1164
ξαναπ@@ 1164
ταση 1164
Ford 1163
Άντον@@ 1163
Βοεβοδ@@ 1163
αγάπης 1163
αλγεβ@@ 1163
βάλουν 1163
κειο 1163
κοινώς 1163
λεϋ 1163
πρόσκληση 1163
πυρά 1163
τασ@@ 1163
1823 1162
Γούν@@ 1162
Γρηγορίου 1162
Εθνικ@@ 1162
απαγ@@ 1162
ασύ@@ 1162
διασωθεί 1162
δικαλι@@ 1162
κιθ@@ 1162
λίτρων 1162
μειώνει 1162
μπήκαν 1162
Ολί@@ 1161
Ωβέρ@@ 1161
δορυφόρος 1161
ενε@@ 1161
ιταλ. 1161
καλαθοσφαίριση 1161
μαύρα 1161
προγ@@ 1161
ρήξη 1161
σκαρ@@ 1161
συνειδη@@ 1161
Κρίστιαν 1160
ΠΑ 1160
ελίτ 1160
νικητή 1160
ορεινή 1160
ποδοσφαιρικών 1160
τομα 1160
υποδυ@@ 1160
υς 1160
Αλέκ@@ 1159
Κορίνθου 1159
Ναύ@@ 1159
εθνόσημο 1159
ειων 1159
εσωτερικών 1159
κατασκεύ@@ 1159
κληρο@@ 1159
περνώντας 1159
πλήρους 1159
πνευμον@@ 1159
προσδιορισμό 1159
συλληφ@@ 1159
σχερ@@ 1159
Δημοτικού 1158
Κυκλάδων 1158
Προσωπ@@ 1158
Ρογ@@ 1158
Σπαν@@ 1158
ένζυ@@ 1158
έττα 1158
αχουσ@@ 1158
αύξησης 1158
είδαν 1158
εξήγηση 1158
εξαφάνιση 1158
εξουσι@@ 1158
τημένη 1158
LA 1157
Ανατολικού 1157
Ρώσων 1157
ΰ@@ 1157
βάθμιση 1157
βόρειες 1157
κεντρο@@ 1157
σιμων 1157
τραγούδ@@ 1157
όδοξη 1157
ύρα 1157
1812 1156
Άγγελ@@ 1156
Αλφόν@@ 1156
Ατρόμ@@ 1156
Γιόζεφ 1156
ίδρυσή 1156
εμπορικών 1156
εσωτερικής 1156
ηνών 1156
ναβ@@ 1156
ξεχωρίζει 1156
παρακολουθεί 1156
προϋπολογ@@ 1156
πυροβολικού 1156
όλου@@ 1156
Γιουγκοσλαβ@@ 1155
Μορφ@@ 1155
Φράνσις 1155
Χίν@@ 1155
αιτίες 1155
είος 1155
είσα 1155
εκπομπών 1155
καταστά@@ 1155
κοβ@@ 1155
τείες 1155
τραγωδία 1155
Film 1154
Πασάς 1154
γκου 1154
επιθεωρ@@ 1154
επινό@@ 1154
εσωτερικού 1154
κοινές 1154
νηστ@@ 1154
ουσών 1154
σπάνιο 1154
στατ 1154
συνθήκης 1154
σύνα@@ 1154
Δεσ@@ 1153
Εκτελε@@ 1153
Ιντι@@ 1153
έπεσαν 1153
ανακτήσει 1153
αποτυχημένη 1153
επιφάνειες 1153
παραφ@@ 1153
περιπλ@@ 1153
ρωσης 1153
ύγματα 1153
Αμερικανοί 1152
Ανώ@@ 1152
Ελεονώρα 1152
Μπρούν@@ 1152
Πηγή 1152
αραι@@ 1152
διέφυγε 1152
διαβί@@ 1152
ενδημ@@ 1152
κατοικίας 1152
μετατρέπεται 1152
μουσουλμάνοι 1152
περίθαλ@@ 1152
πραγματοποίησαν 1152
προέβλεπε 1152
Ιταλοί 1151
Πύρ@@ 1151
έμπνευση 1151
αξ 1151
γηγεν@@ 1151
ενσωμά@@ 1151
επιχειρησι@@ 1151
λαγ@@ 1151
λογοτέχ@@ 1151
μυελ@@ 1151
οποίον 1151
σταθερότητα 1151
τροπής 1151
υπεύθυνο 1151
φέρνει 1151
Διεύθυν@@ 1150
Μπομπ 1150
Οδού 1150
έχτισε 1150
ίδραση 1150
ακολούθως 1150
ηρύ@@ 1150
ιστικός 1150
καλα 1150
προϋποθέσεις 1150
τουρκικού 1150
υδρογον@@ 1150
Λάι@@ 1149
έδρια 1149
αντίθετο 1149
ατολογία 1149
αφιερωμένος 1149
εισιτήρια 1149
μοιράζονται 1149
μυστικά 1149
ριό 1149
υποδομής 1149
χρυσή 1149
Ανάπτυξη 1148
Ορά@@ 1148
έρμο 1148
γάτες 1148
γενέτειρά 1148
διάσκεψη 1148
εγκατεστη@@ 1148
ευθεία 1148
τζε 1148
Ιταλούς 1147
Φλώρινας 1147
απολυ@@ 1147
επικυρ@@ 1147
επισκέπτης 1147
ματολογία 1147
πρόσφατες 1147
σωματίδια 1147
σύνοδο 1147
τίτλοι 1147
υποχρεωτική 1147
όντες 1147
Κάρλο 1146
Κλη@@ 1146
Μπράν@@ 1146
Τζωρ@@ 1146
αγαθών 1146
ασθενής 1146
επιδρομή 1146
πολεμήσει 1146
σοβ@@ 1146
σύγχρονους 1146
υπέφερε 1146
Bl@@ 1145
Αλφόνσο 1145
ΕΠΟ 1145
Μοντε@@ 1145
ήθεια 1145
δόση 1145
ιαπωνικά 1145
κορυφαίο 1145
ορίων 1145
οργανική 1145
παρεν@@ 1145
ποιητική 1145
τελευταίους 1145
τσιο 1145
Al 1144
SA 1144
ts 1144
Άνχαλτ 1144
Αστεροσκοπείο 1144
Ουγγρ@@ 1144
Σουλεϊ@@ 1144
Συνδέσμ@@ 1144
αφαι@@ 1144
βύθ@@ 1144
δάν@@ 1144
κατέφυγαν 1144
κλήρωση 1144
νοημ@@ 1144
πάσχ@@ 1144
σιαλ@@ 1144
ταυτότητας 1144
Ag@@ 1143
Δομιν@@ 1143
Λοθ@@ 1143
ΜΜΕ 1143
Σαρακ@@ 1143
έγεται 1143
έρχονταν 1143
αφενός 1143
βοταν@@ 1143
δυσαρέσκ@@ 1143
συνο@@ 1143
τείνονται 1143
χωρίζει 1143
Γραφείου 1142
Εσθονίας 1142
Κυπριακής 1142
Σαχ 1142
ήφθη 1142
ανατολικού 1142
αρχείου 1142
καθολικό 1142
καλοκαιριού 1142
κρατου@@ 1142
λαϊκής 1142
λοιμώ@@ 1142
μένας 1142
μελέτησε 1142
νίκης 1142
ορόφ@@ 1142
πανελλήν@@ 1142
προκριθεί 1142
φεύγ@@ 1142
Euro 1141
Your 1141
Κογκρέσου 1141
ασημέν@@ 1141
βελτί@@ 1141
διεξαχθεί 1141
επιχείρημα 1141
μεταξ@@ 1141
πλανήτες 1141
υδάτων 1141
Tour 1140
Καραϊ@@ 1140
Νομοθε@@ 1140
Παρτιζ@@ 1140
Στέφαν@@ 1140
Τίτο 1140
αεροπλάνο 1140
γενιές 1140
γύρους 1140
εμπόδια 1140
πολλαπλών 1140
πτηνών 1140
σύχ@@ 1140
1853 1139
Εταιρ@@ 1139
Ρενέ 1139
Σπαρτιάτες 1139
Φίλι@@ 1139
Χειμερ@@ 1139
ήπειρο 1139
αβα@@ 1139
ασήμ@@ 1139
αστρ@@ 1139
αφορ@@ 1139
θαν 1139
λίρες 1139
ομιδ@@ 1139
πελάτες 1139
ταξιδιού 1139
τουρκικής 1139
³ 1138
Ατλ@@ 1138
Σπί@@ 1138
Υφ@@ 1138
ανοιχτή 1138
εριν@@ 1138
ιερού 1138
κόκκινη 1138
μαθητή 1138
νοτιοανατολική 1138
οβάνι 1138
περιφερειακή 1138
σταυρό 1138
est 1137
ly 1137
Βόν@@ 1137
Κόμης 1137
έβαλλ@@ 1137
αναγνώρισης 1137
αποκορύφωμα 1137
επένδυση 1137
κρυμ@@ 1137
μις 1137
μονό@@ 1137
ορίου 1137
προσαρμοσ@@ 1137
σχολείων 1137
τουρίστες 1137
1793 1136
Av@@ 1136
Άλφρεντ 1136
Βουν@@ 1136
Ιερός 1136
Ιωάννινα 1136
εικόνων 1136
ζεστ@@ 1136
θυνε 1136
τριτο@@ 1136
Man@@ 1135
ce 1135
Αιμ@@ 1135
Ακρόπολη 1135
Δοκ@@ 1135
Ερζεγοβίνη 1135
έλε@@ 1135
ανάμεσά 1135
βουλευτών 1135
πιστός 1135
ρίδια 1135
υποκριτική 1135
Γαβρι@@ 1134
Δραγ@@ 1134
Στό@@ 1134
Τρανσυλβαν@@ 1134
ανανέωση 1134
βαθμολογ@@ 1134
ιστες 1134
μέα 1134
σχηματισμός 1134
DS 1133
Αλεξανδρού@@ 1133
Δρόμ@@ 1133
Εδουάρ@@ 1133
Ο.Κ. 1133
Τέιλορ 1133
Υπηρεσίας 1133
ήμες 1133
αποκαταστάθηκε 1133
βοια 1133
δεις 1133
διάγραμμα 1133
διαμορφώθηκε 1133
εκκλησιών 1133
επεν@@ 1133
ζεκ@@ 1133
θέντα 1133
καθορίζει 1133
κατανομής 1133
μοναχοί 1133
μπατα@@ 1133
σαμ@@ 1133
τζερ 1133
τομέ@@ 1133
φθάσει 1133
φθορ@@ 1133
Blue 1132
Pa@@ 1132
Κρα@@ 1132
Μού@@ 1132
Πρέμιερ 1132
Σέρβοι 1132
Σύλλογ@@ 1132
ένοπλες 1132
ίγμα 1132
αναταρα@@ 1132
αϊρ 1132
δοβ@@ 1132
εξοχ@@ 1132
κωδικό 1132
στρατηγικής 1132
όβιο 1132
out 1131
Αμερικάν@@ 1131
Βουκουρέστι 1131
Πριγκίπισσα 1131
ίμι 1131
επόταν 1131
ευγενή 1131
κυριλλ@@ 1131
μέρισμα 1131
μεταφέρεται 1131
νόμοι 1131
ογενείς 1131
Ma@@ 1130
Βουργουν@@ 1130
Μπούν@@ 1130
Οκτώβ@@ 1130
Τσέλ@@ 1130
Φρίντριχ 1130
βετερ@@ 1130
ειακούς 1130
εσφαλ@@ 1130
τουά 1130
Pan@@ 1129
ane 1129
Ελευθέ@@ 1129
Σάου@@ 1129
Φιλιπ@@ 1129
βράχο 1129
νοικοκυρι@@ 1129
πουργ@@ 1129
τρένο 1129
Όμη@@ 1128
Είχαν 1128
Λισαβ@@ 1128
Φρού@@ 1128
διαμαρτυρ@@ 1128
εγχείρημα 1128
επανάληψη 1128
ερειπ@@ 1128
ικερ 1128
μείν@@ 1128
ποικιλίες 1128
σελ. 1128
σιακές 1128
τρά@@ 1128
φύλακα 1128
ότυπ@@ 1128
1849 1127
ella 1127
ni@@ 1127
Γουέλφ@@ 1127
Ζακύνθου 1127
Ρεθύ@@ 1127
Τζόζεφ 1127
αθλητική 1127
ανέμ@@ 1127
δεχόταν 1127
διακρί@@ 1127
θέλουν 1127
κτήμα 1127
πολυάριθμες 1127
προσέλκυ@@ 1127
ταιν@@ 1127
τηρη@@ 1127
1837 1126
Pi@@ 1126
Διαθήκης 1126
Καραμανλή 1126
Στεν@@ 1126
αστρονόμος 1126
θυγατ@@ 1126
κατώτερ@@ 1126
μετάδοσης 1126
πιαν@@ 1126
ποικιλ@@ 1126
σταμά@@ 1126
τσμπουργκ 1126
τωπ@@ 1126
φιλε@@ 1126
χιλιάδων 1126
NASA 1125
Park 1125
Βουλγάρων 1125
Κοινοπολιτείας 1125
Μαξιμιλι@@ 1125
Σλοβ@@ 1125
έκτο 1125
αρνητικές 1125
θυρο 1125
ιδρυτές 1125
λοίμω@@ 1125
λογικό 1125
μετανα@@ 1125
μπαρ 1125
παραδώσει 1125
προπονη@@ 1125
ταβ@@ 1125
Βερσ@@ 1124
Πράγα 1124
Σόν@@ 1124
άβουν 1124
αιχ@@ 1124
γενικής 1124
εγκαταλείψουν 1124
ητείας 1124
καναλιού 1124
μπάμα 1124
ουντ@@ 1124
πιστο@@ 1124
τερματίσει 1124
Λούντ@@ 1123
Πολωνούς 1123
απαν@@ 1123
διαγωνισμός 1123
διαλέξεις 1123
πεθ@@ 1123
προτεστ@@ 1123
πρόθεσμ@@ 1123
τούρ@@ 1123
φράγμα 1123
ϊκές 1123
11ου 1122
Day 1122
Thomas 1122
ΒΑ. 1122
Κεντ 1122
Νεφ@@ 1122
Χόλιγουντ 1122
έιρα 1122
έλθουν 1122
ανάληψη 1122
γκρουπ 1122
γράμματος 1122
δραχ@@ 1122
ηλεκτρονική 1122
κάν 1122
κυπελλ@@ 1122
πέδου 1122
σάκι 1122
τιμο 1122
φτιάχν@@ 1122
χώρια 1122
Γρεβενών 1121
Ταιν@@ 1121
Ταινίας 1121
ανακω@@ 1121
κατέβ@@ 1121
κατέρρευσε 1121
οικισμών 1121
παραπο@@ 1121
πολυάρι@@ 1121
ρυθμούς 1121
συμπο@@ 1121
τῆς 1121
χαθεί 1121
eb@@ 1120
Κρό@@ 1120
Σώ@@ 1120
αναγέν@@ 1120
αντάρ@@ 1120
αντιπάλων 1120
διανομ@@ 1120
διου 1120
καθηγήτρια 1120
κώδικας 1120
μετατόπ@@ 1120
περιπτώσεων 1120
σημερινός 1120
στοιχείου 1120
συμμορ@@ 1120
Τουρκική 1119
ανταποκρι@@ 1119
βροχοπτ@@ 1119
γκι@@ 1119
διαπίστωσε 1119
δυλ@@ 1119
επεισοδίων 1119
κατάστασή 1119
κύριοι 1119
μουσικού 1119
ντί@@ 1119
παρατηρήθηκε 1119
πριος 1119
προσωπικές 1119
υποσχέθηκε 1119
Αλεξανδ@@ 1118
Θρ@@ 1118
Χίο 1118
γκαλ@@ 1118
ειρες 1118
ινγκτον 1118
ισοφ@@ 1118
ληστ@@ 1118
λλη 1118
μετρική 1118
ουμένων 1118
πεύ@@ 1118
πλάτους 1118
συναντά@@ 1118
τακτικές 1118
τζια 1118
si@@ 1117
Κέλ@@ 1117
αντιπαράθεση 1117
ανωμαλ@@ 1117
γωγή 1117
επιτύχει 1117
κύττα@@ 1117
παραχθεί 1117
πεποιθήσεις 1117
τζαζ 1117
τικο@@ 1117
Sonic 1116
Αμπντούλ 1116
Γύ@@ 1116
Λυών 1116
Νέστο@@ 1116
Τρίπολη 1116
Χρονιάς 1116
έμπορος 1116
αντίπαλος 1116
εκτελεί 1116
θυμάτων 1116
καλοκαίρια 1116
μετακόμ@@ 1116
πρωτεϊνών 1116
σχηματίζονται 1116
φωσ@@ 1116
ing@@ 1115
ακούς 1115
αναγνωριστεί 1115
κύλιν@@ 1115
μεταγενέστερα 1115
ξεπερ@@ 1115
ομοιότητες 1115
τεχ@@ 1115
101 1114
Εθνο@@ 1114
Μεξ@@ 1114
Χαλκίδα 1114
δηλητη@@ 1114
διεργασίες 1114
επέβαλε 1114
οχές 1114
συνηθισμένη 1114
υγρά 1114
105 1113
COVID 1113
Έμ@@ 1113
Μουσταφά 1113
ΠΑΣ 1113
Παντελ@@ 1113
Τζου@@ 1113
αρη 1113
εκλογικό 1113
κοντινό 1113
ληπ@@ 1113
μάθηση 1113
περιβάλλοντα 1113
ταθεί 1113
φαινόταν 1113
όρκο 1113
ώσπου 1113
Άξονα 1112
Ματθίλδη 1112
Ροζ@@ 1112
άγματα 1112
αστ 1112
αφαίρε@@ 1112
ελλεί@@ 1112
καβ@@ 1112
κατάληξη 1112
ούρες 1112
προκάτο@@ 1112
τεύχος 1112
χρυσός 1112
Αλεξανδρείας 1111
Διοικητής 1111
Κάστ@@ 1111
Κεμπ@@ 1111
Μογγολ@@ 1111
Ναύπλιο 1111
Πρώιμη 1111
Συνθήκης 1111
ήλα@@ 1111
δρομών 1111
επιλέξει 1111
ζεν 1111
λαμαν@@ 1111
προκλη@@ 1111
σβαϊ@@ 1111
1806 1110
Ημι@@ 1110
Θηρε@@ 1110
Ομοσπον@@ 1110
βορειοδυτική 1110
εκτόξ@@ 1110
θερμότητας 1110
θεϊ@@ 1110
κατάθλι@@ 1110
λεηλά@@ 1110
οργανώσεων 1110
πληροφόρ@@ 1110
ράφη 1110
τοπικούς 1110
χριστιανικό 1110
Ζάκυν@@ 1109
Μαργαρίτας 1109
Μπόρ@@ 1109
Ρήνου 1109
Φερρ@@ 1109
Χόφ@@ 1109
έμοι@@ 1109
ηλίκων 1109
κατερ@@ 1109
μοναχούς 1109
νιας 1109
ξεκίνημα 1109
φρούτα 1109
33@@ 1108
Football 1108
Καλογ@@ 1108
Ροδόπης 1108
Τετ@@ 1108
εκδηλώσεων 1108
εκστρατ@@ 1108
εύγ@@ 1108
καυσίμου 1108
παρατηρούνται 1108
τοποθετούνται 1108
όψ@@ 1108
Ac@@ 1107
δύσκολα 1107
ετο 1107
κίονες 1107
οπάτια 1107
υφυπουργός 1107
Δαμ@@ 1106
ανιψι@@ 1106
γότ@@ 1106
διοικητές 1106
ελεύθερης 1106
καταπολέμ@@ 1106
οροσειράς 1106
vi@@ 1105
Αλεξάν@@ 1105
Λευκορωσία 1105
Μεκλεμβούργου 1105
Μεταξά 1105
έστηκε 1105
έφτανε 1105
ανθρωπιστ@@ 1105
ερνη@@ 1105
θεωρητικά 1105
λογαρι@@ 1105
μερικώς 1105
μοναστηριού 1105
πεδι@@ 1105
τανία 1105
Do@@ 1104
Warner 1104
Δικαιωμάτων 1104
Ελίζαμπ@@ 1104
Ιθ@@ 1104
ενισχύσει 1104
επανειλημμένα 1104
κατακτά 1104
ξεκ@@ 1104
σηκ@@ 1104
σολ@@ 1104
σταλλ@@ 1104
φλόγ@@ 1104
1.500 1103
Ανατολικών 1103
Βαρκελ@@ 1103
Εστ@@ 1103
ίδι@@ 1103
κρέατος 1103
σωματείου 1103
1831 1102
Τζαν@@ 1102
δουλειές 1102
λογικές 1102
σιδηροδρομικό 1102
στέψη 1102
τo 1102
φιλοξενήσει 1102
όμεν@@ 1102
κατατάσσεται 1101
υποστηρίζεται 1101
117@@ 1100
Βλάχ@@ 1100
ΕΠΣ@@ 1100
αρχαιο@@ 1100
βυζαντινό 1100
εξώφυλλο 1100
επικοινωνιών 1100
καταν@@ 1100
καυσίμων 1100
προοριζόταν 1100
χλωρο@@ 1100
1857 1099
7.000 1099
Martin 1099
Άγ@@ 1099
Αρε@@ 1099
Βρισκόταν 1099
Γλώσσα 1099
ΕΥ@@ 1099
Ζυρί@@ 1099
Κορυφ@@ 1099
αυλής 1099
διοξείδιο 1099
επιδειν@@ 1099
ov@@ 1098
Άλμπερτ 1098
Αρκετοί 1098
έρου 1098
ακεδ@@ 1098
αναζήτησης 1098
διπλωματικές 1098
ενοποίηση 1098
μαλλ@@ 1098
μοναρχία 1098
παράταξη 1098
1792 1097
are 1097
Κονγκό 1097
αποδεικνύεται 1097
κατατά@@ 1097
μονοπάτι 1097
προσάρτηση 1097
συμμετρ@@ 1097
τηλέφ@@ 1097
τιθέ@@ 1097
εφάρμο@@ 1096
ηγεμόνες 1096
θεάς 1096
μακροχρόνια 1096
ρεν 1096
χι 1096
Μεσολογγίου 1095
Πιέ@@ 1095
έριο 1095
αναδείχτηκε 1095
εκτίθενται 1095
εξεγέρσεις 1095
μιγαδ@@ 1095
μφισβή@@ 1095
περίμενε 1095
σωματική 1095
Er@@ 1094
Les 1094
Ασφ@@ 1094
Ειρηνικό 1094
Ναπο@@ 1094
Οδηγ@@ 1094
Οκ@@ 1094
ηλεκτ@@ 1094
στικούς 1094
th 1093
ίδ 1093
διορισμό 1093
εντι 1093
λαδή 1093
μυαλό 1093
οίτησε 1093
σύνδεσης 1093
ψηφι@@ 1093
Bur@@ 1092
Αντίγον@@ 1092
Ζηλανδ@@ 1092
ακτος 1092
πολεοδομ@@ 1092
πόκ@@ 1092
ὴν 1092
άστια 1091
αντός 1091
αποθέματα 1091
είωσε 1091
καρχαρ@@ 1091
οξέων 1091
οπαδ@@ 1091
ριστή 1091
Θανάσης 1090
Μπρού@@ 1090
διαφορο@@ 1090
δοκι@@ 1090
Λάρ@@ 1089
γος 1089
πολί@@ 1089
Mer@@ 1088
Βυζαντινοί 1088
Ισχ@@ 1088
αγαθά 1088
αρχαιολογικό 1088
παραίτησή 1088
σημείων 1088
άδο 1087
αεροσκ@@ 1087
επηρεάζουν 1087
κλήρω@@ 1087
μελή 1087
μοσχ@@ 1087
[...]
