. 53895110
, 39980294
der 32991082
und 25626495
die 21046723
in 19410041
&quot; 17849450
@-@ 13896996
von 12298292
den 10479741
) 9862494
( 9853715
des 9073087
im 8650854
er 8157963
mit 8037341
wurde 6895326
dem 6646202
ist 6492511
das 6248532
Die 6186032
als 6104441
zu 5603347
auf 5542510
ein 5452049
für 5429680
eine 5227592
an 5092244
sich 4950735
war 4763190
aus 3704476
auch 3510865
bis 3428960
am 3320368
nach 3301193
: 3217303
“ 3201910
„ 3181527
bei 3108369
Der 3041904
sie 2833220
einer 2828570
zum 2810263
es 2810189
en 2277836
– 2271555
durch 2263932
einem 2223102
Im 2181156
werden 2134984
nicht 2116366
Das 2109941
sind 2106098
um 2018865
; 1982774
In 1966053
wird 1965763
einen 1954372
zur 1940249
über 1919716
ten 1881308
oder 1793239
wurden 1772057
ver@@ 1694565
er@@ 1660336
dass 1584626
/ 1579432
te 1576515
en@@ 1576480
Er 1563168
unter 1522229
ung 1522117
Jahr 1508959
- 1455686
wie 1334867
vor 1301107
t 1291035
sowie 1251507
ischen 1247773
vom 1245994
s 1228697
seiner 1219334
Nach 1208716
sch@@ 1183578
nur 1171882
ische 1170962
hatte 1166721
ungen 1142705
seine 1139634
noch 1124223
Jahre 1107549
Ver@@ 1102888
de 1090351
ein@@ 1084966
Sie 1071112
zwei 1070728
aber 1068131
waren 1050474
Sch@@ 1046849
ab 1042124
hat 1020345
ungs@@ 1018213
aus@@ 1012854
ab@@ 1011927
z@@ 997773
* 990943
s@@ 972754
eines 968597
Jahren 945211
zwischen 938917
Am 933188
sein 928878
auf@@ 906008
dieser 893309
be@@ 886912
gegen 880110
S@@ 876752
Es 866103
ter 865954
el@@ 857494
k@@ 842363
Ab@@ 825065
an@@ 822620
L@@ 820740
t@@ 819337
un@@ 809765
G@@ 806636
ersten 806527
Zeit 800951
An@@ 799979
of 794115
m 788677
B@@ 786057
seit 781783
jedoch 780636
Stadt 775376
el 772135
K@@ 772034
W@@ 764189
über@@ 755757
so 749863
vor@@ 743456
man 739942
H@@ 739020
etwa 739016
drei 732275
R@@ 726048
ent@@ 713843
lich 707371
P@@ 705409
Vor@@ 705138
wieder 704787
Geschichte 700741
Aus@@ 697847
F@@ 696860
isch 690504
ern 688637
ge@@ 685357
Als 679400
D@@ 679190
e 676968
Leben 675963
liche 672988
seinem 671910
T@@ 668430
Z@@ 662868
e@@ 661366
st@@ 661315
liegt 658225
lichen 654200
n@@ 653302
seinen 646695
mehr 645876
später 643788
Von 643585
beim 642835
E@@ 642598
Bei 641614
al@@ 637643
enden 623946
Ende 623513
diese 621065
1. 619814
ihre 618624
1 614146
f@@ 608895
ende 606862
kann 603500
ch@@ 603329
ischer 602319
n 595464
wo 591814
Ein@@ 590635
da 588851
kam 588248
M@@ 587601
l@@ 585602
konnte 583547
erste 579884
Mit 579783
A@@ 577038
ä@@ 576792
Gemeinde 576331
um@@ 569505
N@@ 566992
ihm 565301
Ober@@ 561563
es@@ 559506
ens 557878
August 554700
m@@ 553452
Mai 552350
Er@@ 552137
März 548458
Januar 546720
Teil 542454
heute 541359
Oktober 541013
ter@@ 540633
b@@ 538965
2 536210
et 534439
haben 533076
dann 530675
ken 528619
ihrer 527743
w@@ 526060
&amp; 521488
ers 521228
bereits 521227
Unter@@ 519898
dort 519698
’ 519538
ige 519011
September 515383
g@@ 514574
† 513786
igen 510667
April 509910
Juni 507018
Universität 505348
ens@@ 504725
Juli 502827
ler 499797
in@@ 499128
ihn 497287
Kirche 495652
anderen 495522
während 493342
Dezember 492753
US 490662
erhielt 490256
gab 487624
re@@ 483865
h@@ 481104
vier 481089
ert 480156
Ein 478915
unter@@ 478562
V@@ 477449
November 477250
Auf@@ 476849
Saison 476826
km 475133
St@@ 474168
ie 473731
ihr 472868
beiden 472437
Diese 471110
alle 470785
dessen 469387
O@@ 467682
l 467308
d@@ 466566
at 463236
% 463008
Seit 456607
Platz 452989
Deutschland 452107
können 451910
gibt 451454
ar@@ 449952
diesem 449637
ene 448287
r@@ 444500
end 444111
Berlin 443607
Be@@ 442590
Jahrhundert 442300
z 441474
or@@ 440249
tes 438383
enen 436836
us 432981
ten@@ 429358
Mitglied 428457
Februar 428124
berg 427196
i@@ 425602
Eine 424215
d 424188
le@@ 422237
3 421108
and 418587
on@@ 416229
deutschen 414442
sten 410835
Bau@@ 409059
ner 404781
Auch 404365
chen 404231
zurück 403289
Re@@ 401507
damit 400831
on 399801
ke 398680
Für 397861
it@@ 396161
ins 396005
mann 394359
gel@@ 392753
zunächst 391572
deren 391490
Auf 387431
g 386869
iert 386571
ihren 386444
Familie 384587
us@@ 383588
zusammen 383156
Über@@ 383156
keine 382691
_ 381714
ik@@ 379746
befindet 379359
le 378394
J@@ 378298
sehr 376945
Haupt@@ 376632
Ort 376614
erte 376255
au 375961
nahm 375905
Land@@ 375081
et@@ 374475
ts 374152
weitere 372664
licher 370856
is@@ 370783
Namen 370541
stand 369439
al 369155
k 367925
begann 366412
statt 366114
eg@@ 365866
steht 365054
em 364377
ingen 364137
Film 362997
Sohn 362870
der@@ 362377
worden 358583
bekannt 357706
spielte 357125
tr@@ 356357
Stadt@@ 355272
eren 355021
ale 355012
gewann 354740
ation 353892
4 352989
th@@ 352299
bzw. 351669
Al@@ 351063
allem 350799
ebenfalls 350578
Personen 349828
C@@ 349182
p@@ 348481
2010 346758
anderem 345367
2011 345033
denen 343232
trat 343148
sen 342287
ging 341209
I@@ 340859
j@@ 339571
was 338916
land 336792
ö@@ 336685
nen 336543
ag@@ 335637
au@@ 332505
Tr@@ 332032
ien 330207
se 329730
ig@@ 329162
em@@ 328705
ek@@ 328588
as@@ 328193
-@@ 328035
zeit 327734
ere 327386
schaft 326635
In@@ 326384
selbst 325015
ohne 324764
ak@@ 324638
eb@@ 322818
2015 322222
neuen 321813
Ge@@ 321342
2009 321140
2012 320754
dabei 320295
führte 320000
2. 319868
2008 319677
ts@@ 318694
os 318306
2014 318138
ung@@ 317803
gehörte 316906
2013 316452
formula 313314
elle 312821
ellen 312537
Während 312321
19. 312076
ar 311759
hier 311664
&apos; 311387
deutscher 310978
schen 310160
Meter 309022
de@@ 308929
at@@ 308403
straße 308373
2016 307951
i 307503
neue 306819
arbeitete 306409
ang@@ 306251
ger@@ 306087
Jahrhunderts 305790
erstmals 305691
2007 305507
Bundes@@ 304665
tigen 304062
immer 303058
as 302991
U@@ 302891
is 302547
Ab 299963
bezeichnet 298434
ti@@ 298088
ur@@ 296724
y 296467
sei 296105
teil 295905
sp@@ 295775
ch 295331
New 295260
fünf 295214
o@@ 295197
ierte 295164
acht 294704
ges@@ 294595
Mar@@ 294459
2017 294062
ber@@ 293042
Seine 291866
bach 291360
The 291161
wegen 290851
mer@@ 290690
gesch@@ 290096
St. 289948
Ar@@ 289912
2006 289842
ben 289329
gehört 289318
Name 289261
ot@@ 287592
ach@@ 286905
str@@ 286245
eten 285391
ing@@ 285017
Titel 284856
gen@@ 284631
ell 284315
Kon@@ 284279
Schul@@ 283728
Deutschen 282882
Um@@ 282648
di@@ 282352
schon 281984
ol@@ 281526
Le@@ 281243
zweiten 280753
il@@ 280621
men 279249
2018 278257
Wasser@@ 278005
durch@@ 277671
Se@@ 277603
2019 277566
5 277551
Band 277390
fand 277175
sondern 276863
einige 276795
Gruppe 276724
eh@@ 276421
ler@@ 276391
Str@@ 276183
ing 276161
erten 276008
se@@ 275904
Zu 275824
seines 275292
the 275179
os@@ 274980
Sein 274847
Nord@@ 274781
ach 274760
y@@ 274540
Ch@@ 274529
ul@@ 273973
ich 273905
a 273546
end@@ 273445
b 273071
erung 273057
So 272981
alen 271327
bl@@ 271326
Liste 271192
her@@ 271068
id@@ 270038
ne 269445
erst 268559
ste 268447
isten 268389
rund 268032
ihrem 267355
ker 266994
neben 266687
studierte 266482
geb@@ 266227
10 266167
hatten 266034
ed@@ 264785
Karriere 264567
Menschen 264552
sche 264253
Friedrich 263799
Gr@@ 263658
2005 263589
tung 262927
mehrere 262506
u@@ 261357
werk 261099
3. 260677
st 259937
andere 259527
Ber@@ 259512
20 258570
besteht 258509
Landes@@ 258248
Grund@@ 258216
enz@@ 258188
20. 257787
gen 257731
Un@@ 256283
deutsche 255980
führt 255846
letzten 255742
kon@@ 255653
zurück@@ 255294
dieses 254773
großen 254635
Anfang 254476
Br@@ 254301
2000 253833
Durch 253776
ü@@ 253571
A 253565
B. 253476
genannt 253131
onen 252610
Tod 252558
a@@ 252493
Groß@@ 251282
Ne@@ 250860
Art 250806
18. 250545
1945 250309
erin 250296
bau 249576
är@@ 249491
est@@ 248610
wenn 248567
sollte 248540
o 247992
and@@ 247632
gt 247497
im@@ 247380
Kilometer 247198
amp 247143
Hoch@@ 247044
am@@ 246726
Di@@ 246502
große 246353
tätig 246197
it 245915
Nach@@ 244573
2004 244550
erfolgte 244490
diesen 244468
Da 244329
eng@@ 243743
lang 243586
6 243160
ad@@ 243042
ieren 242961
wechselte 242836
Unternehmen 242826
iger 242733
ationen 242184
weiter 241950
eln 241567
isches 241402
2020 241369
allerdings 241327
iz@@ 241243
bau@@ 241203
Her@@ 240660
Gebiet 240528
wer@@ 240473
Kr@@ 239805
Johann 239651
nach@@ 239396
burg 238468
stein 238339
wobei 237666
Einwohner 236303
Musik@@ 236006
soll 235984
Straße 234830
sh@@ 234593
Ger@@ 234493
alten 233617
Mitte 233426
Sp@@ 233137
gegründet 232874
or 232652
h 232036
Frau 231220
Staats@@ 231220
sk@@ 230038
fer 229906
fer@@ 229722
je 229341
ender 229303
Mittel@@ 229236
15 228854
Nachdem 228712
15. 227797
blieb 227466
erreichte 227429
Mannschaft 227096
Verein 226897
be 226432
aten 226364
Zweiten 226088
folgenden 225762
Karl 225736
Region 225450
übernahm 225331
gest@@ 224776
nun 224741
sechs 224570
musste 224539
4. 224500
jeweils 224355
ka 223950
z. 223785
tige 222915
r 222833
fl@@ 222549
weiteren 222451
Gebäude 222292
br@@ 221748
schließlich 221316
viele 220986
che 220757
West@@ 220673
om@@ 220218
gewählt 219658
itz 219368
Süd@@ 219012
me 218900
lt 218727
El@@ 218397
tig 218355
Vater 217696
Bis 217625
schule 217448
bar 217397
16. 216874
ierten 216860
ir@@ 216812
17. 216788
li@@ 216563
2003 215187
2001 215021
zen 215014
USA 214999
gew@@ 214264
Norden 213995
B 212939
a. 212937
ließ 212886
ations@@ 211956
ier@@ 211621
ener 211367
Bar@@ 211280
Bereich 210510
neu 210299
platz 210107
U 210075
allen 210027
ich@@ 209980
ß@@ 209932
2002 209880
sch 209804
tern 209663
An 209582
Nieder@@ 208582
insgesamt 208492
Form 208485
welche 208070
aufgrund 207995
u. 207948
stellte 207935
erhalten 207848
Berg@@ 207525
Kar@@ 207380
5. 207247
la 207114
tet 206973
te@@ 206828
University 206253
Dort 206084
stadt 205917
Pro@@ 205550
zog 204658
darauf 204552
verwendet 204094
100 203999
Tochter 203969
Dabei 203804
lag 203713
entstand 203678
verschiedenen 203512
pf@@ 203435
ei 203347
Album 203292
8 202973
2021 202853
len 202373
Fl@@ 202210
dazu 202147
Haus 201890
enten 201839
agen 201796
Land 201449
zu@@ 201067
König 200944
Süden 200887
Wilhelm 200689
feld 200649
Bau 200537
II. 200424
ah@@ 200273
Amt 200118
München 199649
13. 199539
14. 199520
FC 198964
6. 198263
finden 198243
Prozent 198121
folgender 197972
erschien 197707
Kinder 197623
Wien 197408
erneut 197379
30 197326
els 197105
mit@@ 196981
Werk 196772
Neu@@ 196422
anz@@ 195566
Rahmen 195483
Millionen 195294
He@@ 195267
ismus 194612
ität 194559
iten 194558
1999 194290
Fre@@ 194184
Fach@@ 194149
Reg@@ 194066
ser@@ 193914
Weltkrieg 193889
Mal 193734
Mit@@ 193258
kl@@ 193069
Dies 192971
En@@ 192830
Arbeit 192796
Entwicklung 192664
Stand 192523
Stein@@ 192473
op@@ 192409
John 192315
Einsatz 192094
gilt 192024
meist 191955
gr@@ 191898
insbesondere 191868
Mon@@ 191352
errichtet 191300
Lage 191210
Neben 191162
Ost@@ 191066
Dieser 190993
dr@@ 190775
recht 190747
Rolle 190567
heim 190425
Film@@ 190401
Heinrich 190274
12. 190272
konnten 190215
kommt 189716
kommen 189363
Bevölkerung 189102
ell@@ 188867
Richtung 188648
Provinz 188617
Kunst@@ 188445
8. 188379
Dorf 188128
ate 187782
gut 187704
Osten 187644
lassen 187203
gruppe 187191
1990 187163
ia 187152
7. 186972
tete 185938
Westen 185683
7 185401
Staaten 185395
starb 185287
isch@@ 185151
davon 185085
ern@@ 185064
schw@@ 184920
kirche 184790
9. 184740
16 184701
Volks@@ 184532
weise 184330
Frankreich 184297
setzte 184168
folgte 183755
stellen 183634
enf@@ 183626
0 183578
eigenen 183404
Fahr@@ 182969
ati@@ 182922
Bi@@ 182909
Th@@ 182884
innen 182856
eingesetzt 182610
bestand 182550
Frauen 182500
if@@ 182415
sehen 182386
ow 182287
enz 182280
ff@@ 182157
Wer@@ 181907
schaften 181761
Hans 181349
Kur@@ 181314
dies 181238
fast 180819
cht 180630
Gesellschaft 180596
leben 180520
Schw@@ 180237
innerhalb 180230
ken@@ 180172
Beginn 179943
Schule 179712
Fr@@ 179612
tion 179301
ik 179153
1998 179148
York 179121
ent 179096
Bedeutung 178992
den@@ 178971
Spiel@@ 178941
Lebens@@ 178757
habe 178738
v@@ 178614
zi@@ 178605
Aus 178505
istischen 178411
Seite 178291
oft 178157
inger 178148
ri@@ 177903
u 177808
Partei 177731
Peter 177593
damals 177535
Paris 177522
Kom@@ 177336
Par@@ 177200
18 177179
ums 176902
Arbeits@@ 176847
Beispiel 176803
kr@@ 176643
I. 176494
Außerdem 176447
lagen 176433
re 176229
zweite 176212
bel@@ 175831
50 175740
Paul 175660
Ur@@ 175622
zehn 175599
O 175498
also 175270
Jahres 175090
Folge 175054
p 175019
age 174954
Um 174873
Kor@@ 174707
ut@@ 174569
10. 174494
Me@@ 174367
ne@@ 174256
darunter 174131
pr@@ 173951
I 173844
ge 173793
12 173738
bahn 173702
geht 173654
ün@@ 173601
Landkreis 173524
stark 173261
ze 173214
Zur 172873
ist@@ 172811
ro@@ 172506
ehemaligen 172410
tischen 171958
Musik 171874
f 171862
Regierung 171832
Höhe 171644
findet 171623
beg@@ 171433
lange 171211
11. 171150
len@@ 171013
Qu@@ 170993
ob@@ 170877
Unter 170836
haus 170501
bi@@ 170315
Ste@@ 170171
sen@@ 169826
ierung 169737
Orts@@ 169574
heutigen 169552
kurz 169534
Rück@@ 169526
sel@@ 169102
erst@@ 168531
än@@ 168124
1994 168089
liches 168089
liegen 167590
gebiet 167523
weil 167389
Bel@@ 167305
amerikanischen 167147
Lehr@@ 166900
gegenüber 165932
14 165822
1996 165638
kom@@ 165606
Wahl@@ 165351
ologie 165306
spielen 164671
art 164629
Li@@ 164609
gang 164479
stieg 164469
1997 164443
Team 164403
Österreich 164345
1992 164269
= 164119
ie@@ 164021
fen 163984
National@@ 163851
Serie 163751
schloss 163727
veröffentlicht 163672
Spiel 163433
Einzel@@ 163127
C 163002
ina 162901
zahlreiche 162848
ans 162467
alt@@ 162018
französischen 161933
ca. 161879
sowohl 161841
tiert 161639
besch@@ 161269
Burg 161203
Bl@@ 160988
Tor@@ 160928
Welt 160568
geboren 160524
Pr@@ 160475
Kreis 160304
rat 160235
und@@ 159827
Kultur@@ 159787
muss 159691
Zum 159681
Wal@@ 159661
enn@@ 159636
zudem 159555
ber 159419
spiel 159272
ster 159219
dre@@ 159129
lo@@ 158931
Am@@ 158819
1995 158764
Krieg 158753
1991 158651
G 158496
&#91; 158336
anischen 158200
danach 158198
&#93; 158082
verschiedene 157912
mal 157795
fr@@ 157329
itz@@ 157067
30. 157013
all@@ 156970
Ex@@ 156875
si@@ 156818
Liga 156494
Sitz 156285
1993 156079
besuchte 156040
Insel 155611
weg 155331
Ak@@ 155236
gemeinsam 155180
Hand@@ 155172
geschichte 155035
Gen@@ 154968
21. 154847
bereich 154476
besonders 154157
Alter 153895
De@@ 153589
tor 153471
Gemeinden 153433
Professor 153148
Per@@ 153138
c@@ 152997
schrieb 152901
13 152835
ons@@ 152634
ft 152602
gleichen 152569
ste@@ 152564
ete 152458
one 152455
machte 152337
doch 152159
zeigt 152092
Vertrag 151882
ür@@ 151836
Maria 151830
hin 151806
ine 151638
beispielsweise 151610
Sport@@ 151487
zuvor 151375
Spieler 151295
sieben 151133
iker 151125
Kirchen@@ 151105
lag@@ 151057
kt 151039
Hamburg 151015
ze@@ 150374
1989 150369
9 150018
meisten 149938
ap@@ 149927
Or@@ 149871
na 149797
London 149769
kamen 149621
Mutter 149503
Sommer 149017
tische 149012
möglich 148876
ons 148545
Jugend@@ 148424
he@@ 148286
to 147972
teilweise 147965
äch@@ 147942
hinaus 147825
hal@@ 147636
Mann 147508
geh@@ 147438
ph@@ 147245
Reichs@@ 147227
nh@@ 147068
Y@@ 146945
Schweiz 146880
Werke 146604
los 146435
gelang 146262
befinden 146190
weit 145887
Europa 145799
auer 145778
stehen 145732
tw@@ 145706
ep@@ 145683
elt 145559
Verwaltungs@@ 145449
D 145416
fall 145413
Kreuz@@ 145006
tel@@ 144944
gi@@ 144889
Gesch@@ 144792
Militär@@ 144743
aller 144461
Inter@@ 144442
eller 144367
25 144286
25. 144252
Natur@@ 144205
stein@@ 144163
mer 144148
gehören 144137
DDR 144053
Reich@@ 144016
ihnen 143916
ger 143805
her 143743
We@@ 143724
Vereinigten 143689
Georg 143642
genutzt 143382
we@@ 143273
lage 143259
26. 143216
genommen 143056
Schloss 142953
amt 142871
ks 142806
istische 142730
Mal@@ 142545
S 142475
me@@ 142387
Arten 142375
Strecke 142214
äl@@ 142111
dern 142038
22. 141945
veröffentlichte 141895
war@@ 141876
voll@@ 141866
ör@@ 141734
Flug@@ 141696
absolvierte 141628
daher 141494
Kan@@ 141433
ok@@ 141394
Spielen 141167
arbeiten 140992
ran@@ 140917
Armee 140892
eigene 140864
League 140770
zw@@ 140682
40 140650
Mitglieder 140455
Kriegs@@ 140391
nieder@@ 140330
gem@@ 140213
Franz 140070
For@@ 140051
ster@@ 139915
Studium 139908
folgende 139871
lichkeit 139865
Betrieb 139731
Danach 139724
17 139504
dorf 139465
nachdem 139453
ator 139330
Ausbildung 139185
Tri@@ 139121
Zeit@@ 139111
süd@@ 139098
qu@@ 139023
kehrte 138900
etwas 138873
Kl@@ 138861
eck@@ 138859
eben 138798
gründete 138630
Reihe 138625
ass@@ 138622
Pl@@ 138488
kleinen 138481
28. 138430
24. 138423
meister 138283
chen@@ 138189
verw@@ 137675
gleich@@ 137596
Saint 137552
stellt 137536
Deutsche 137362
see 137333
handelt 137236
Bruder 137174
Mo@@ 137160
Bo@@ 137102
19 137057
selben 136958
23. 136901
Tag 136817
sti@@ 136705
Pol@@ 136629
Ent@@ 136522
aufgenommen 136431
mon@@ 136122
all 135962
Ludwig 135926
Sol@@ 135924
Weitere 135895
Gemeinde@@ 135829
Luft@@ 135822
Rad@@ 135764
entstanden 135706
Politiker 135687
ech@@ 135594
Te@@ 135492
zug@@ 135438
1972 135435
kein 135266
1933 135177
beide 135106
Ersten 135055
teil@@ 135033
af@@ 134970
1988 134959
eck 134862
tionen 134803
bo@@ 134703
ess@@ 134685
ni@@ 134685
häufig 134584
einigen 134491
geführt 134465
deutlich 134428
Hier 134421
La 134417
Ges@@ 134229
Zwischen 134213
Man@@ 134100
Lang@@ 134066
V 133909
27. 133856
kleine 133679
to@@ 133487
letzte 133404
Best@@ 133241
Car@@ 133234
Olympischen 133190
erreicht 133105
mel@@ 133091
ru@@ 132981
land@@ 132947
Michael 132886
the@@ 132805
Hof@@ 132586
heit 132566
Buch@@ 132549
Bahnhof 132263
Bereits 132171
hinter 132107
Museum 132047
men@@ 132025
Ad@@ 132006
halten 131971
gehen 131806
wieder@@ 131744
ig 131723
Har@@ 131503
führen 131464
somit 131461
tor@@ 131354
lässt 131247
Haus@@ 131181
1980 131155
zwar 131075
Buch 130843
iden 130502
Stelle 130424
tions@@ 130404
Klasse 130122
Wirtschafts@@ 130068
vielen 129959
Nähe 129915
außerdem 129846
1987 129714
Den 129551
x@@ 129535
29. 129433
² 129394
ursprünglich 129090
Linie 129054
1970 129039
stammt 128986
ernannt 128982
County 128877
il 128823
Über 128638
Fest@@ 128511
nung 128498
Berliner 128372
diente 128243
esch@@ 128144
ausge@@ 128127
ort 128062
ja 127944
Ma@@ 127861
versch@@ 127853
mehreren 127693
Ziel 127679
ker@@ 127657
Fernseh@@ 127653
zer@@ 127551
direkt 127406
1939 127361
reg@@ 127324
ur 127274
ho@@ 127192
Thomas 127118
Welt@@ 127070
ser 127039
per@@ 126994
bes@@ 126909
form 126873
stelle 126829
fre@@ 126803
Finale 126683
dafür 126549
wahl 126534
lers 126472
vier@@ 126472
Kre@@ 126416
Zudem 126354
ente 126343
entr@@ 126022
gestellt 125830
Siehe 125729
1938 125591
ang 125576
L 125454
gewesen 125403
enst@@ 125370
Mor@@ 125368
oh@@ 125293
südlich 125293
Wasser 125265
1986 125257
are 125241
Robert 125050
üt@@ 125046
11 125034
anschließend 125007
tan@@ 124992
hin@@ 124939
erwähnt 124924
Bur@@ 124899
Gesamt@@ 124894
ad 124848
1974 124821
Präsident 124774
Bezeichnung 124655
pro 124547
ann@@ 124546
az@@ 124323
trag@@ 124240
Dr@@ 124182
kur@@ 124061
AG 123968
31. 123946
tre@@ 123810
weniger 123633
Rechts@@ 123606
1984 123571
Erfolg 123432
fe 123404
San 123389
dritten 123380
berger 123355
War@@ 123235
1975 123212
enberg 123205
gek@@ 123180
fest@@ 123065
Martin 122891
Gründung 122880
1985 122795
Teil@@ 122759
ersch@@ 122745
Einwohnern 122680
Preis 122601
Ihre 122553
entwickelte 122504
enh@@ 122486
Spiele 122369
K 122304
Holz@@ 122272
Kas@@ 122246
National 122226
ett 122173
ef@@ 122165
mern 122072
Chr. 122064
verheiratet 122060
gebaut 122003
zwe@@ 121890
dienst 121884
heiratete 121631
Pf@@ 121623
1944 121570
ile 121530
ta 121461
zug 121365
größte 121207
del 121169
politischen 121092
Bor@@ 120949
erster 120911
mm 120899
spieler 120884
v 120759
ilen 120731
Sal@@ 120693
Nachfolger 120509
tragen 120493
As@@ 120316
assen 120203
nahmen 120050
Grab@@ 119997
seite 119991
di 119960
1978 119926
Produktion 119839
egen 119827
ihres 119799
Ang@@ 119786
ier 119767
1968 119692
größten 119363
Schweizer 119330
cm 119255
äng@@ 118882
nord@@ 118830
fanden 118779
Sprache 118673
amerikanischer 118507
Dieses 118457
1969 118305
nördlich 118215
pl@@ 118214
w 118155
ling 118109
äre 118067
sw@@ 118065
alte 118006
E 117941
ki@@ 117887
1979 117748
1973 117595
tisch 117552
elten 117532
zer 117475
1983 117468
fahrt 117438
aden 117386
1971 117325
ette 117249
Euro 117134
lang@@ 117101
1982 117028
Weg 116967
X@@ 116919
ß 116895
Ru@@ 116841
International 116837
weisen 116700
treten 116595
ett@@ 116594
bildet 116501
West 116439
brachte 116374
Beim 116219
ven 115993
1976 115944
Familienname 115915
Köln 115842
Verbindung 115647
ow@@ 115599
befand 115557
Institut 115522
Grund 115513
pp@@ 115467
ant 115303
uk@@ 115286
welches 115235
Mus@@ 115177
Damit 115126
spiele 115120
Kal@@ 114971
etz@@ 114860
Besitz 114846
ganz 114750
cher 114733
Bal@@ 114715
1960 114679
City 114670
Kloster 114592
Johannes 114510
esen 114496
verband 114424
wald 114401
kor@@ 114397
Teile 114381
umfasst 114218
Bürger@@ 114034
Raum 113854
kan@@ 113825
Hol@@ 113733
fahr@@ 113699
Meister 113661
Sozial@@ 113573
Frankfurt 113501
3@@ 113472
! 113449
hielt 113431
Carl 113425
Truppen 113403
ehemalige 113075
Anschließend 112913
1950 112852
ren@@ 112811
Fußball@@ 112761
Ri@@ 112713
err@@ 112699
1946 112659
ologischen 112529
Staffel 112521
tsch@@ 112388
1981 112345
Rot@@ 112303
England 112256
Kaiser 112244
legte 112239
c 112189
Tage 112150
entwickelt 112099
Joseph 112092
Gel@@ 112053
he 112036
stellung 112027
R 111963
Wahl 111960
kar@@ 111953
essen 111905
Rang 111890
ats 111754
Bischof 111642
einmal 111593
Nr. 111534
Hel@@ 111478
mar@@ 111451
Italien 111408
Schl@@ 111331
ton 111307
spiel@@ 111211
Wieder@@ 111202
Leitung 111089
gegeben 111078
kte 111061
spielt 111055
hr@@ 110908
v. 110888
Dar@@ 110814
Hälfte 110687
21 110683
Lin@@ 110598
Rennen 110569
Alt@@ 110564
geg@@ 110558
kel 110508
Forschungs@@ 110488
hohen 110481
Not@@ 110464
Kat@@ 110401
System 110381
kh@@ 110308
Gew@@ 110290
sdorf 110184
lin@@ 110128
Otto 110099
Wald@@ 110087
Politik 110067
fiel 110044
og@@ 109948
damaligen 109937
langen 109770
kel@@ 109708
Zuge 109668
Sieg 109588
baren 109573
Pre@@ 109571
tin 109537
benannt 109500
Ö@@ 109413
nahe 109409
1964 109407
führung 109154
24 109139
é 109089
1977 109085
wenig 109047
scher 108929
Grenze 108910
spr@@ 108910
Feld@@ 108901
1967 108849
Kol@@ 108750
ebenso 108714
dar 108697
britischen 108673
ord@@ 108642
Landes 108611
Ihr 108568
französische 108558
Ernst 108557
GmbH 108483
auen 108456
ick@@ 108439
belegte 108349
Länge 108270
werke 108182
Ro@@ 108128
mi@@ 108076
60 108036
Ortsteil 107960
ären 107867
Arbeiten 107850
wuchs 107844
200 107837
od@@ 107795
Runde 107690
Kunst 107665
General@@ 107657
Bad 107572
Besch@@ 107540
enburg 107358
ob 107172
fläche 107062
ben@@ 106936
Wein@@ 106935
Kirch@@ 106902
beträgt 106868
sogar 106627
Tur@@ 106596
iti@@ 106574
Leipzig 106557
bevor 106505
entfernt 106494
tigung 106427
Ehe 106393
Tour 106326
Begriff 106284
est 106247
yl@@ 106240
son 106157
ober@@ 106155
1965 106154
Nationalmannschaft 106097
fahren 106091
besitzt 105975
Prä@@ 105916
x 105909
linie 105896
sin@@ 105831
wen@@ 105759
Kanton 105756
alt 105754
Division 105719
ac@@ 105687
les 105661
alter 105518
Mer@@ 105516
Stil 105509
machen 105378
1966 105353
Leiter 105308
Herrschaft 105293
üh@@ 105287
Co@@ 105218
nis 105198
nt 105106
See 105023
anten 104999
par@@ 104961
Aufgrund 104954
einzige 104924
Zentrum 104798
verein 104777
Em@@ 104767
östlich 104510
weiterhin 104495
deutsch 104349
Eis@@ 104290
ak 104272
aktiv 104268
ner@@ 104245
ks@@ 104221
ordnung 104112
lich@@ 104111
Pi@@ 104094
gesetzt 104087
Kn@@ 103998
späteren 103961
1963 103951
1961 103943
ausgezeichnet 103874
av@@ 103724
Fall 103718
Christian 103692
dung 103623
arbeitet 103570
ard 103555
lebt 103550
Mas@@ 103508
ät 103441
Gi@@ 103439
ese 103339
achten 103337
1952 103301
Republik 103297
rech@@ 103246
1962 103203
endorf 103142
westlich 103072
1956 103047
Tre@@ 103046
4@@ 103005
betrieb 102896
Ze@@ 102882
1940 102881
Theater 102854
Bayern 102733
frühen 102561
bar@@ 102527
Ko@@ 102492
ana 102406
Sachsen 102365
gleich 102287
1948 102281
oren 102247
bre@@ 102213
achen 102173
wohl 102170
rich@@ 102138
buch 102118
° 102083
ib@@ 102077
lebte 102065
mal@@ 101978
Sk@@ 101952
gebracht 101944
kal@@ 101908
Park 101905
Männer 101859
verbunden 101828
Später 101774
ug@@ 101751
lu@@ 101691
Polen 101681
Wie 101645
schul@@ 101563
gefunden 101540
bringen 101519
eher 101488
zentrum 101462
dar@@ 101437
1949 101432
Fläche 101363
igkeit 101357
Firma 101347
Kreis@@ 101212
lern 101170
politische 101119
ez@@ 101118
Zahl 101003
würde 100971
inn@@ 100901
alb@@ 100879
bisher 100875
tem 100596
internationalen 100558
1941 100510
erzielte 100455
oc@@ 100421
ko 100370
enthält 100198
Dom@@ 100127
müssen 100127
fest 100116
1942 100023
1943 99987
Ros@@ 99956
kung 99866
Erst 99840
Geographie 99818
ic@@ 99689
Hilfe 99645
hausen 99609
tion@@ 99547
verlor 99431
Klein@@ 99418
1958 99362
Doppel@@ 99261
Hin@@ 99255
Es@@ 99193
lediglich 99102
Wiener 99101
Literatur 98990
zusammen@@ 98821
Akademie 98683
Sh@@ 98567
Geschäfts@@ 98492
dete 98468
aff@@ 98465
ins@@ 98460
Ben@@ 98432
Kultur 98378
Finanz@@ 98337
inen 98314
II 98235
cht@@ 98125
tri@@ 97937
ut 97937
Gast@@ 97905
bald 97829
F 97795
ex@@ 97702
lebten 97699
ai 97685
Bahn 97666
Por@@ 97621
22 97611
Im@@ 97540
David 97477
1959 97398
bare 97279
General 97261
Vor 97184
Wirtschaft 97178
Funktion 97176
ant@@ 97084
Beschreibung 97078
folgten 97072
Op@@ 96962
William 96956
Meisterschaft 96831
Halb@@ 96824
Weltmeisterschaft 96783
Regierungs@@ 96759
Bahn@@ 96738
san@@ 96697
College 96695
Gattung 96677
Winter@@ 96658
Gar@@ 96578
endet 96489
beteiligt 96468
punkt 96419
leicht 96401
sollten 96361
Alexander 96322
tritt 96295
uren 96289
bilden 96250
id 96236
Version 96196
ologische 96196
Schlacht 96105
zeit@@ 96070
unk@@ 95947
verkehr 95865
Abschluss 95844
öffentlichen 95745
1947 95738
for@@ 95720
pi@@ 95691
Hinter@@ 95683
1957 95666
är 95636
ill@@ 95617
so@@ 95553
Regel 95446
Po@@ 95388
Prot@@ 95378
th 95338
Verwendung 95276
westlichen 95251
min@@ 95227
du 95217
Vorsitzender 95205
Lo@@ 95179
einander 95159
macht 95110
Schiff 95108
schafts@@ 95084
Ha@@ 95024
Min@@ 94980
uss@@ 94976
vi@@ 94951
Ban@@ 94948
Richard 94944
Bürgermeister 94935
Uhr 94928
anti@@ 94814
nimmt 94769
iges 94728
amerikanische 94725
enti@@ 94706
system 94621
hand@@ 94609
wirkte 94532
The@@ 94512
ed 94486
pe 94466
Tal@@ 94424
Geb@@ 94369
kreis 94329
ersetzt 94203
enk@@ 94195
hohe 94174
wal@@ 94160
1918 94019
leitung 94018
wollte 93986
1953 93904
raum 93898
arten 93888
einge@@ 93858
1934 93821
per 93820
els@@ 93774
viel 93765
Außen@@ 93763
hoch@@ 93726
ßen 93695
1955 93673
1936 93650
neun 93647
1954 93643
mittel@@ 93609
III. 93606
Nor@@ 93580
erreichen 93528
nahme 93521
Zeitpunkt 93412
Mitarbeiter 93373
führten 93309
geben 93308
1920 93302
trägt 93287
isierung 93261
prä@@ 93128
gemeinde 93096
Ä@@ 93074
Cor@@ 93068
1919 92999
berg@@ 92988
ache 92982
un 92937
woh@@ 92823
Rhein@@ 92814
wagen 92811
Vier@@ 92667
tigkeit 92593
wor@@ 92554
get@@ 92468
inter@@ 92442
Wohn@@ 92430
po@@ 92426
best@@ 92335
zahlreichen 92234
ec@@ 92208
ters 92113
Privat@@ 92110
ew@@ 91964
500 91936
Man 91921
ade 91918
Hochschule 91877
oben 91855
Zug@@ 91730
heraus 91677
mt 91669
gesellschaft 91644
Gruppen 91611
Bas@@ 91595
alität 91588
aut 91578
atur 91564
stoff@@ 91552
asse 91523
unde 91494
Kap@@ 91455
Künstler 91408
kre@@ 91402
Cup 91380
Dollar 91311
nie 91297
Amts@@ 91277
nächsten 91231
Spielzeit 91152
Position 91118
verläuft 91090
ats@@ 91034
Hal@@ 90981
eter 90936
wenige 90894
Heim@@ 90869
… 90802
besten 90801
hauptsächlich 90785
Union 90752
ost@@ 90729
lauf 90719
burger 90707
Steuer@@ 90624
eröffnet 90579
Bil@@ 90522
siehe 90509
Heute 90482
weiter@@ 90482
School 90445
knapp 90437
Mari@@ 90429
ichte 90424
por@@ 90195
betrug 90136
weit@@ 90135
anische 90105
beendete 90072
Hermann 90041
kol@@ 90019
sollen 90000
keinen 89841
Sonder@@ 89825
‘ 89541
Ni@@ 89539
Roman 89503
Wil@@ 89494
Rom 89489
Jean 89469
ack@@ 89447
Vertreter 89435
Stadtteil 89401
teile 89357
Anzahl 89342
Baden 89321
1937 89277
öl@@ 89270
gesamte 89263
weist 89260
Straßen@@ 89252
bil@@ 89237
bild 89215
iken 89203
Kle@@ 89194
Projekt 89189
Kinder@@ 89183
utz@@ 89179
ände 89154
M 89088
Geh@@ 89010
net 88963
Verfügung 88915
Metern 88772
früher 88753
erfolgreich 88749
uer@@ 88659
Trainer 88630
ehemaliger 88545
T 88506
uch@@ 88490
China 88427
Max 88387
ko@@ 88383
wasser@@ 88333
tel 88293
gehörten 88277
bietet 88205
1951 88203
Mag@@ 88169
Col@@ 88164
ans@@ 88121
Tätigkeit 88115
hof 88090
1935 88034
Organisation 87983
Gegensatz 87977
Selbst@@ 87932
Handlung 87889
mussten 87807
pen@@ 87785
form@@ 87784
Verkehr 87739
Con@@ 87703
Unterstützung 87696
Eltern 87676
steig@@ 87650
+ 87610
führer 87592
Anlage 87591
Schutz@@ 87534
digen 87448
zeigen 87380
š@@ 87368
werk@@ 87337
vermutlich 87315
ley 87271
isi@@ 87263
emp@@ 87228
no@@ 87193
ite 87138
darüber 87107
hol@@ 87080
End@@ 87060
Ag@@ 87056
1930 87019
Burg@@ 87017
James 86962
formen 86894
Com@@ 86887
ov@@ 86865
do@@ 86862
isen 86839
aum 86825
ück@@ 86796
dient 86765
for 86592
mo@@ 86404
Bus@@ 86378
ide 86374
Gleich@@ 86328
Rund@@ 86248
Stamm@@ 86211
World 86209
Dresden 86196
wir@@ 86194
daraufhin 86111
Berg 86081
ors 86041
George 86018
fal@@ 85999
Betriebs@@ 85996
gebildet 85994
leitete 85970
lungen 85923
ahl@@ 85894
dadurch 85847
ener@@ 85814
ma 85754
pre@@ 85744
Gymnasium 85705
vollständig 85698
Sen@@ 85664
öh@@ 85585
Ker@@ 85559
Mark@@ 85538
Dienst@@ 85431
Dre@@ 85386
Soldaten 85335
leiter 85327
Zusammen@@ 85276
stre@@ 85265
Verw@@ 85251
Schüler 85155
ino 85135
Gegen@@ 85134
ecken 84972
einzelnen 84881
regelmäßig 84845
Verlag 84837
ind@@ 84610
anderer 84596
gleichzeitig 84593
ahl 84523
man@@ 84517
Stiftung 84514
Hauptstadt 84492
Su@@ 84411
endes 84373
80 84304
Jugend 84257
vers@@ 84180
Renn@@ 84179
att@@ 84156
Dienst 84146
At@@ 84065
Gold@@ 84023
tur@@ 83985
stätte 83977
ße 83975
Reich 83972
ve 83968
Gl@@ 83913
nehmen 83910
Anschluss 83900
Haup@@ 83892
bek@@ 83867
Hof 83831
verließ 83809
erwarb 83789
anlage 83785
Mannschaften 83766
Alle 83754
anz 83692
Ser@@ 83682
indem 83670
Fluss 83612
Verlauf 83536
bezirk 83524
verein@@ 83518
Weltmeisterschaften 83468
Durch@@ 83456
jahr 83456
H 83367
Bundesliga 83338
überwiegend 83288
Ph@@ 83244
wiederum 83239
denn 83218
gespielt 83161
Einfluss 83143
1914 83141
Dr. 83121
erg@@ 83111
zuletzt 83092
leich@@ 83057
äh@@ 83048
träge 83046
ise 83045
Artikel 83011
Konz@@ 82992
6@@ 82985
van 82962
übernommen 82937
0er 82913
zeichen 82880
ön@@ 82861
1928 82793
elte 82768
Fern@@ 82750
Main 82726
will 82700
Hor@@ 82640
Erst@@ 82631
Schwer@@ 82560
sogenannten 82534
Eing@@ 82455
ck 82309
setzt 82269
ki 82267
Sprach@@ 82175
Zwe@@ 82169
Sä@@ 82019
frei 82016
änge 82004
ele 81995
tierte 81889
sor@@ 81882
gemacht 81810
Zusammenhang 81782
Friedhof 81672
Werk@@ 81659
1929 81641
sche@@ 81616
River 81606
Zwei 81586
Hannover 81580
Gas@@ 81552
mindestens 81548
östlichen 81523
Direktor 81500
Vol@@ 81466
Is@@ 81462
Verwaltung 81461
ng@@ 81451
nungen 81407
ee 81350
Ho@@ 81304
Dem@@ 81299
verloren 81237
Grenz@@ 81218
teten 81216
ausschließlich 81212
Lig@@ 81146
Dazu 81096
lief 81052
tag 81050
Zusammenarbeit 81025
Auftrag 81014
5@@ 80999
reich@@ 80954
ha 80949
do 80874
ebene 80841
Zeitschrift 80805
chten 80805
1932 80743
23 80719
ote 80708
Japan 80703
tal 80678
ange@@ 80662
gesamten 80629
Club 80627
gingen 80491
Basis 80457
namen 80454
Jahres@@ 80440
Walter 80439
Gre@@ 80419
galt 80397
N 80390
Lied 80352
Schauspieler 80313
verwaltung 80311
ica 80297
nten 80282
Grün@@ 80228
Minuten 80220
mittel 80211
bestehen 80189
aler 80185
Nord 80178
Wappen 80177
ys 80171
verkauft 80115
« 80115
Dis@@ 80108
chte 80106
zen@@ 80035
standen 80013
ehr@@ 80007
historischen 80007
Darüber 79985
90 79925
jeder 79818
sah 79789
Ton@@ 79779
tungs@@ 79775
Monate 79760
zerstört 79759
seien 79722
1900 79711
» 79704
zogen 79702
feh@@ 79698
kten 79675
wach@@ 79665
Mel@@ 79629
kaum 79605
zahl 79515
Charles 79485
leit@@ 79415
Neben@@ 79404
no 79393
American 79380
Graf 79364
Papst 79359
Beg@@ 79297
abe 79231
politik 79196
ante 79190
mehr@@ 79175
Seiten 79139
Anna 79117
San@@ 79088
Orte 79057
ck@@ 79057
Bildung 78995
heutige 78991
angen 78963
führ@@ 78959
Zeitung 78948
liga 78934
á@@ 78903
ichen 78850
iss@@ 78843
Mi@@ 78834
Schle@@ 78832
Mat@@ 78803
Ung@@ 78803
35 78791
Stre@@ 78742
startete 78741
So@@ 78738
tä@@ 78725
satz 78699
ausgetragen 78693
betrieben 78684
Du@@ 78642
ül@@ 78632
up@@ 78610
Abteilung 78604
Handels@@ 78598
folgt 78580
nte 78563
Umgebung 78534
bruch 78521
ät@@ 78518
Sam@@ 78500
Josef 78471
entlang 78422
enzen 78414
ev@@ 78388
10@@ 78373
Ländern 78356
All@@ 78346
tigten 78314
europäischen 78269
Russland 78260
erfolgt 78202
Sand@@ 78108
großer 78103
lig@@ 78093
det 78079
Post@@ 78070
Kapelle 78020
Wi@@ 78017
üm@@ 78015
Fil@@ 77990
Ehren@@ 77963
des@@ 77956
schen@@ 77918
heißt 77912
berufen 77859
tiger 77781
Kritik 77762
400 77739
Hör@@ 77737
met@@ 77703
Einige 77687
Bre@@ 77662
wand@@ 77511
durchgeführt 77496
1970er 77490
7@@ 77488
j 77467
entdeckt 77431
Gerichts@@ 77412
trug 77281
unden 77266
chter 77256
bu@@ 77237
Geg@@ 77226
Autor 77185
Insgesamt 77161
gruppen 77109
Brücke 77090
ra 77089
Recht 77064
Kin@@ 77054
katholischen 77021
ekt 77013
Thema 76966
tik 76893
Innen@@ 76861
gebäude 76845
sport@@ 76814
Stuttgart 76750
1925 76700
preis 76679
Le 76650
äm@@ 76645
ot 76634
P 76630
Gu@@ 76536
Pan@@ 76535
Bezirk 76523
welcher 76522
unternehmen 76453
Zentr@@ 76420
erstes 76338
Fußball 76335
ton@@ 76289
Turm 76287
jährlich 76254
rä@@ 76228
Mark 76200
Trans@@ 76100
Darstellung 76089
Zürich 76069
heraus@@ 75974
tungen 75965
tar@@ 75964
zus@@ 75947
zwölf 75930
Arbeit@@ 75856
70 75844
ogen 75843
ud@@ 75841
erbaut 75765
zusätzlich 75761
mor@@ 75755
Fol@@ 75750
ms 75738
südlichen 75728
Zentral@@ 75679
isiert 75661
bauten 75594
1980er 75589
.@@ 75586
Industri@@ 75546
bildete 75517
Bild 75479
Tier@@ 75473
österreichischen 75446
Wol@@ 75444
mannschaft 75428
Verfahren 75413
beginnt 75394
SC 75388
erer 75352
SPD 75349
V. 75343
W 75318
teilung 75304
geschrieben 75279
Hintergrund 75266
1924 75257
Verkehrs@@ 75226
wahrscheinlich 75208
Bahnstrecke 75150
Obwohl 75109
dem@@ 75088
film 75066
Vom 75065
weiterer 75062
oll@@ 75031
1927 74962
gericht 74958
stoff 74950
verz@@ 74943
Daneben 74915
ek 74875
fe@@ 74845
fall@@ 74814
ann 74798
ns 74761
ae 74689
Punkte 74670
betr@@ 74648
teils 74644
ba@@ 74627
stammen 74610
Fe@@ 74596
ti 74562
hervor@@ 74520
Nordosten 74488
kul@@ 74421
Bezirks@@ 74404
äus@@ 74403
Laufbahn 74365
Eisenbahn@@ 74359
änden 74318
‚ 74294
32 74287
lung 74278
Département 74155
Pfarr@@ 74151
wiesen 74149
Zu@@ 74142
ester 74097
en- 73932
Erd@@ 73930
lands 73918
schutz@@ 73909
sodass 73908
Spr@@ 73874
fin@@ 73864
iß@@ 73857
ligen 73847
gehalten 73831
1910 73801
Mess@@ 73775
45 73742
Spe@@ 73739
ol 73704
alismus 73701
Schutz 73679
Oper@@ 73638
eder@@ 73601
Jung@@ 73584
Ap@@ 73567
Wochen 73526
deshalb 73522
bildung 73412
Plan@@ 73404
grund@@ 73355
Doch 73348
schiff 73329
Stück 73314
wand 73241
of@@ 73208
ps 73193
Zi@@ 73148
rechts 73143
Award 73120
Siedlung 73083
Dor@@ 73051
turm 73024
schrift 73014
verliehen 72982
umen 72955
Markt 72951
SV 72919
schriften 72911
Erz@@ 72910
rechte 72910
Red@@ 72882
russischen 72861
Prof@@ 72852
nah@@ 72844
fallen 72808
sicht 72760
Sub@@ 72746
kungen 72737
Sa@@ 72704
1960er 72696
Ul@@ 72694
auch@@ 72672
bez@@ 72644
flug@@ 72601
ick 72599
gabe 72593
ehe 72572
selten 72542
300 72518
ice 72506
ini 72447
d. 72442
United 72419
ativen 72400
weite 72303
gewinnen 72293
iste 72239
uten 72231
8@@ 72228
TV 72228
verl@@ 72225
Lehrer 72215
weitgehend 72208
1931 72084
verfahren 72075
Mol@@ 72015
Nutz@@ 72004
Herbst 71998
1921 71979
Südwesten 71929
1990er 71925
Königreich 71884
digung 71884
bekam 71809
relativ 71696
Gol@@ 71690
freien 71689
dritte 71682
Halle 71681
Fußballspieler 71678
Fel@@ 71634
ften 71621
größere 71605
Krieg@@ 71546
erschienen 71522
Single 71500
ano 71492
ministerium 71447
2@@ 71411
Go@@ 71388
Song 71388
Seiten@@ 71346
fort 71278
ari@@ 71268
Ortschaft 71257
Bild@@ 71221
Fisch@@ 71199
Char@@ 71191
ahr@@ 71191
Angaben 71182
lan@@ 71146
schwer 71104
zul@@ 71083
Et@@ 71073
bert 71052
enes 71048
Grand 71033
italienischen 71027
Weltkriegs 70967
Allerdings 70928
vertreten 70924
1923 70915
pel@@ 70884
laut 70849
gelegenen 70818
Bu@@ 70786
har@@ 70777
eig@@ 70766
estr@@ 70751
Heimat@@ 70743
Daten 70734
1926 70705
äu@@ 70675
ähr@@ 70663
legen 70582
fach@@ 70577
amm@@ 70545
Fahrzeuge 70541
weltweit 70517
gemein@@ 70494
Sammlung 70476
ative 70475
tlich 70449
endete 70422
Sitz@@ 70321
aw@@ 70321
č@@ 70283
uss 70261
Führung 70237
Mehr@@ 70227
Radi@@ 70137
atoren 70097
wo@@ 70071
west@@ 70049
? 70046
dig 70046
barkeit 70043
Tor 70042
Laufe 70027
Großen 70011
hoch 69967
läng@@ 69946
sieht 69928
1912 69891
Stunden 69889
Herkunft 69887
Wand@@ 69887
bew@@ 69859
ag 69858
Chor@@ 69855
Hoh@@ 69834
Open 69811
ata 69778
Stimmen 69770
jährigen 69721
ay 69648
Leit@@ 69644
Nordwesten 69636
vorhanden 69632
Kategorie 69614
geprägt 69584
vierten 69577
Teilnehmer 69563
mu@@ 69553
Wind@@ 69541
sich@@ 69534
Pal@@ 69524
Auswahl 69485
Körper@@ 69475
Kampf 69461
Anteil 69431
wechsel@@ 69427
Beide 69425
Forschung 69420
Spanien 69419
gaben 69386
minister 69380
größeren 69343
schied 69329
ule 69319
nördlichen 69230
entsprechend 69222
zeug@@ 69144
eth@@ 69119
Louis 69097
Schriftsteller 69083
Rudolf 69076
1922 69071
Pe@@ 69065
mus@@ 68991
Staat 68982
schnell 68909
inzwischen 68905
Südosten 68902
Festival 68895
lat@@ 68829
englischen 68819
Programm 68818
Sor@@ 68815
verb@@ 68801
wert 68775
anlagen 68762
Kind 68715
ane 68683
rechten 68680
tlichen 68635
Pas@@ 68632
Nachbar@@ 68626
kat@@ 68617
uch 68585
Möglichkeit 68582
gemeinschaft 68581
grenze 68556
ierungen 68555
26 68545
Fot@@ 68542
arbeit 68517
Bes@@ 68453
hergestellt 68418
del@@ 68385
Philosophie 68337
ski 68327
istisch 68230
höchsten 68209
Württemberg 68181
Voll@@ 68152
Maler 68148
Staat@@ 68137
Weise 68128
Produktions@@ 68108
Größe 68100
geschlossen 68070
wahlen 68042
Dec@@ 68032
tu@@ 68032
tere 68026
Ir@@ 68018
Gem@@ 67976
genannten 67969
gelegt 67954
verfügt 67916
geworden 67912
beruf@@ 67895
sogenannte 67875
Kurz@@ 67819
Veröffentlichung 67818
schlag 67781
Früh@@ 67689
by 67682
Bad@@ 67640
Wolfgang 67612
Z 67594
schwer@@ 67592
traf 67555
sberg 67523
Mc@@ 67522
Kö@@ 67507
Albert 67504
dagegen 67494
deten 67482
kommun@@ 67475
Familien 67472
28 67430
eingestellt 67334
Typ 67329
beschrieben 67325
Punkten 67306
Schiff@@ 67301
Regie 67292
Juden 67261
eil@@ 67245
Aut@@ 67242
brücke 67227
ales 67219
Großbritannien 67195
bas@@ 67155
Gelände 67099
Städte 67080
Folgen 67054
Tro@@ 67047
A. 67002
icht@@ 66989
Syn@@ 66978
ath@@ 66953
Theater@@ 66915
regi@@ 66915
ehen 66850
Ergebnis 66802
acher 66792
bal@@ 66778
Schön@@ 66755
zur@@ 66749
Cal@@ 66739
lö@@ 66695
neu@@ 66694
Abschnitt 66656
Stand@@ 66647
Tore 66645
Meister@@ 66636
bank 66632
name 66631
nisse 66589
äd@@ 66554
gesehen 66548
Ehefrau 66546
Modell 66541
produziert 66522
X 66521
Ol@@ 66496
Krieges 66467
uf@@ 66465
außerhalb 66462
bt 66460
Aufgaben 66344
Namens@@ 66327
Mil@@ 66241
liegenden 66215
bekannte 66146
Sche@@ 66127
jeweiligen 66115
Bewegung 66085
wichtige 66080
Des@@ 66053
früheren 66000
ys@@ 65986
ō 65983
Verbreitung 65961
ani 65954
wirtschaft 65952
Sel@@ 65944
jungen 65888
eng 65869
ou@@ 65864
Ach@@ 65845
ager 65840
fel@@ 65814
Nutzung 65749
enthalten 65744
ase 65743
27 65696
Sto@@ 65674
vol@@ 65655
Gut@@ 65654
lauf@@ 65608
Bod@@ 65603
fen@@ 65557
familie 65509
Heil@@ 65507
zeugen 65491
Wirken 65475
fern 65475
Zw@@ 65440
Reis@@ 65436
onlyinclude 65435
runde 65394
Boden 65373
Pil@@ 65373
ih@@ 65364
1913 65329
iner 65321
bekannten 65313
licht 65309
ziehen 65269
Kern@@ 65265
darin 65245
schl@@ 65231
To@@ 65158
König@@ 65127
Frage 65108
Qualifikation 65088
Erfolge 65075
Tour@@ 65055
rit@@ 65045
Os@@ 65026
blieben 65021
üb@@ 64996
mb@@ 64995
Royal 64994
icht 64993
eingeführt 64938
Il@@ 64932
vertrag 64913
Turnier 64912
Ter@@ 64886
schi@@ 64844
tigte 64827
Herzog 64768
reichen 64758
igung 64736
mehrfach 64665
Straf@@ 64658
tig@@ 64614
liste 64590
fließt 64571
Fer@@ 64546
Fund@@ 64540
gezogen 64511
ast@@ 64497
nichts 64497
Stu@@ 64494
Dach@@ 64475
Au@@ 64473
legung 64459
hervor 64447
gesetz@@ 64414
Tür@@ 64389
bestritt 64363
zählen 64295
Merkmale 64293
halt 64275
ey 64240
könnte 64216
wissenschaftlichen 64192
äf@@ 64180
h. 64167
tak@@ 64159
Los 64140
erungs@@ 64132
folgen 64117
Hessen 64101
internationale 64087
son@@ 64030
Dorf@@ 64026
ücken 64023
uz@@ 64011
Grafen 64010
Inseln 64006
folg@@ 64006
Motor 63949
acht@@ 63942
ast 63915
hält 63897
ub@@ 63890
wäre 63882
elt@@ 63880
Wert 63871
ard@@ 63850
Tal 63848
gewicht 63823
Lau@@ 63815
ologe 63814
klasse 63811
elen 63801
Ungarn 63761
jährige 63760
Kopf 63756
bere@@ 63744
Vergleich 63733
ver 63710
Schwester 63684
mitglied 63682
Frauen@@ 63660
trotz 63645
Mos@@ 63596
hingegen 63540
unterstützt 63529
off 63501
gerade 63500
Ke@@ 63492
Island 63489
neuer 63488
1911 63478
Super@@ 63431
ähnlich 63427
dienen 63391
Gest@@ 63382
flo@@ 63366
tro@@ 63346
Schne@@ 63332
hi@@ 63302
Orgel 63288
bedeutet 63285
heim@@ 63273
gegründeten 63245
äten 63177
Hand 63157
aufge@@ 63156
Christ@@ 63124
gleichnamigen 63086
rechts@@ 63086
Bremen 63079
fällt 63078
offiziell 63072
mann@@ 63061
Met@@ 63049
rot@@ 63005
0@@ 62993
Bundesstaat 62985
Gal@@ 62976
ischem 62975
Nur 62972
entscheid@@ 62970
Süd 62968
Schweden 62965
Washington 62946
strecke 62906
lin 62895
zig 62853
stell@@ 62820
Frühjahr 62813
wär@@ 62797
theater 62759
altung 62751
1000 62709
Titel@@ 62697
ets 62697
kw@@ 62670
Markt@@ 62644
aufgelöst 62638
hätte 62611
zugleich 62589
Herren 62545
ku@@ 62521
bei@@ 62511
Familien@@ 62494
zeigte 62494
wahr@@ 62457
1,@@ 62432
S. 62423
Architektur 62407
Ball@@ 62395
band 62388
bs 62386
iche 62383
ation@@ 62369
Kindern 62365
Weiß@@ 62329
ke@@ 62318
Sommer@@ 62283
Vaters 62276
elf 62252
Wald 62198
mäch@@ 62190
1907 62153
Kam@@ 62130
erhielten 62112
etten 62109
9@@ 62089
Bot@@ 62063
Dek@@ 62060
Westfalen 62033
este 62029
Grundlage 62021
pal@@ 62017
ließen 61994
verantwortlich 61939
Schn@@ 61931
konz@@ 61911
1905 61899
tier@@ 61839
ya 61836
ff 61832
wür@@ 61806
Regional@@ 61775
Wagen 61749
Lu@@ 61715
ers@@ 61714
aner 61712
tum 61709
kle@@ 61671
lingen 61671
katholische 61643
Jur@@ 61600
tliche 61563
Wall@@ 61562
Quellen 61555
wärts 61555
Themen 61552
erk@@ 61539
2022 61518
Herz@@ 61517
Bank 61511
Letz@@ 61510
Klass@@ 61507
eti@@ 61473
Rückkehr 61468
nor@@ 61429
mas@@ 61426
Pap@@ 61418
Jo@@ 61400
fort@@ 61399
erh@@ 61396
umbenannt 61375
vern@@ 61371
Berufs@@ 61369
Hö@@ 61368
app@@ 61368
fünf@@ 61362
Schulen 61360
ativ 61347
heiten 61343
ess 61329
dige 61320
nis@@ 61306
obwohl 61300
flächen 61281
punkte 61278
sprache 61270
zählt 61267
Bat@@ 61245
öff@@ 61221
atz 61220
sion 61212
ā@@ 61212
Wel@@ 61208
amen 61197
namens 61194
Jazz 61172
höchste 61138
1917 61117
entspricht 61116
× 61111
Val@@ 61103
werde 61076
SS 61070
om 61040
verlassen 61012
setzen 61002
gl@@ 60971
bewegung 60962
Gemein@@ 60945
Landwirtschaft 60917
Deutsch 60893
Kommun@@ 60873
welt@@ 60853
plätze 60824
Dam@@ 60808
haus@@ 60772
Minister@@ 60715
Neb@@ 60694
Schon 60654
Teams 60649
Sowjetunion 60627
ged@@ 60613
ater 60591
fri@@ 60573
wenigen 60561
Q@@ 60558
Aufbau 60554
1908 60518
teilen 60504
Bro@@ 60491
Adolf 60422
Aufgabe 60401
Lö@@ 60395
aren 60389
io 60385
Teilen 60350
ös@@ 60348
Star@@ 60283
kop@@ 60275
ute 60275
neues 60273
Tiere 60236
ark@@ 60213
ore 60196
Sieg@@ 60127
za 60118
verk@@ 60096
Söhne 60084
Ost 60065
Ebene 60039
musik 60014
Noch 60009
Stad@@ 59993
Heiligen 59954
groß@@ 59951
mün@@ 59914
sa 59906
ara 59905
Opfer 59892
Moskau 59891
ide@@ 59886
park 59873
Tsch@@ 59852
Marie 59849
solche 59849
erweitert 59847
Winter 59826
Leg@@ 59824
ma@@ 59796
Viele 59790
tigt 59781
Wettbewerb 59751
weiß 59734
älteste 59734
treffen 59730
uli@@ 59703
Do@@ 59702
schle@@ 59696
dahin 59655
fuhr 59647
Sinne 59640
Kenn@@ 59621
Wort 59615
ausen 59602
WM 59596
sions@@ 59590
emen 59588
Düsseldorf 59571
Ki@@ 59534
erenden 59516
appen 59483
städ@@ 59476
Präsidenten 59449
Technik 59416
Rat 59400
weiteres 59389
linken 59358
Werdegang 59349
wichtigsten 59315
berech@@ 59292
sionen 59227
Fried@@ 59216
tt@@ 59213
Leistung 59210
Eich@@ 59189
ock 59156
Dreh@@ 59141
ichten 59070
Lag@@ 59062
Del@@ 59061
alm@@ 59058
Länder@@ 59031
entwicklung 59004
nischen 58999
Frank 58994
Band@@ 58992
spi@@ 58989
Erb@@ 58987
zeiten 58938
Ther@@ 58914
versuchte 58901
Objekte 58875
sheim 58870
Schiffe 58860
gäng@@ 58856
bleiben 58838
britische 58830
legt 58827
letz@@ 58817
Wegen 58811
asti@@ 58791
geber 58769
Cr@@ 58765
Distrikt 58751
EU 58743
gegangen 58740
groß 58726
iler 58699
Win@@ 58696
sur 58658
Wit@@ 58627
bestimmt 58625
grün@@ 58608
Andreas 58573
onn@@ 58561
Person 58554
gebiete 58540
reich 58492
ili@@ 58486
ci@@ 58472
bur@@ 58464
Aufstieg 58449
inne 58449
Hektar 58396
Fuß@@ 58392
Müller 58377
kirchen 58377
Dol@@ 58371
Anti@@ 58370
Gründen 58351
Station 58329
ř@@ 58297
wi@@ 58274
sozial@@ 58239
istin 58179
junge 58169
amp@@ 58155
schaft@@ 58147
Kauf@@ 58140
eingerichtet 58140
ł@@ 58138
1906 58105
Medien 58080
versucht 58058
jüdischen 58055
Air 58054
CDU 58049
Off@@ 58008
lar@@ 58003
wid@@ 57984
heit@@ 57981
iden@@ 57974
Vi@@ 57971
Europ@@ 57951
fi@@ 57943
Laut 57927
siert 57918
ville 57913
Musiker 57902
Ehr@@ 57882
Gesetz@@ 57857
seh@@ 57855
Herr@@ 57853
Brandenburg 57847
rad@@ 57811
kg 57798
Halbfinale 57784
baute 57784
erungen 57772
chi@@ 57768
trä@@ 57768
preußischen 57763
ses 57762
PS 57732
aben 57716
Einführung 57710
Sach@@ 57615
Gesetz 57613
mis@@ 57600
Wenn 57593
Interesse 57563
kraft 57553
1950er 57552
wissenschaftliche 57533
oberen 57501
Licht@@ 57500
Eigen@@ 57424
ure 57422
mittels 57415
lau@@ 57413
Dem 57409
ges 57348
La@@ 57346
Ergebnisse 57335
deut@@ 57321
Cas@@ 57305
trieb@@ 57292
Mär@@ 57269
Literatur@@ 57203
IV. 57173
min 57171
dis@@ 57133
uh@@ 57077
römisch 57066
Ritter@@ 57040
blätter 57026
Roh@@ 57011
Niederlage 56985
tim@@ 56980
organ@@ 56974
ue 56951
dargestellt 56944
erklärt 56944
ständig 56882
Werner 56878
gesetz 56873
Zeich@@ 56862
Polizei 56858
besaß 56857
Weltkrieges 56854
De 56853
schaf@@ 56826
Weiteren 56796
ates 56773
auten 56773
Tar@@ 56759
Jahr@@ 56754
&#124; 56747
Spitz@@ 56701
beschäftigt 56694
gelegene 56674
verlegt 56654
Wes@@ 56653
früh@@ 56651
Bonn 56585
ah 56579
Architekten 56555
Abitur 56551
ebenda 56551
programm 56540
ir 56520
Pfe@@ 56517
Zentimeter 56508
Gut 56503
erscheint 56481
ass 56479
Philipp 56476
Beh@@ 56458
teilte 56433
schluss 56412
serie 56395
Kloster@@ 56388
1909 56383
angeboten 56362
wodurch 56327
Studi@@ 56311
ator@@ 56309
Kraft 56234
toren 56230
kommen@@ 56227
traten 56212
Europäischen 56201
Wor@@ 56196
taus@@ 56187
Gold 56186
kampf 56169
Ortes 56151
Kop@@ 56099
esp@@ 56097
losen 56088
Graf@@ 56084
Kant@@ 56080
Weg@@ 56078
Gener@@ 56069
betrieb@@ 56045
schutz 56021
zy@@ 56009
pol@@ 56007
Nah@@ 55994
aj@@ 55961
verbreitet 55951
äger 55932
gemäß 55820
Records 55773
res@@ 55768
Australien 55762
gezeigt 55722
phase 55713
oni@@ 55702
lige 55675
1904 55673
Hil@@ 55638
65 55635
gefähr@@ 55623
tischer 55614
Wirkung 55583
Wander@@ 55576
ege 55527
Fritz 55524
Seg@@ 55519
Bildungs@@ 55511
ologen 55487
ängen 55486
nominiert 55467
Punkt 55466
aktion 55452
Auszeichnungen 55446
Hu@@ 55428
J. 55426
wasser 55421
Rock 55415
Anton 55397
Hamburger 55389
kleiner 55388
zuerst 55366
allein 55353
Bet@@ 55334
Si@@ 55317
Bücher 55302
ven@@ 55281
schlag@@ 55272
ehr 55270
0,@@ 55256
Kons@@ 55235
Fal@@ 55144
zweit@@ 55127
Chor 55102
tieren 55075
Zer@@ 55041
Sar@@ 54999
Raum@@ 54956
unmittelbar 54942
Company 54924
lungs@@ 54916
angeb@@ 54914
nationalen 54895
Verband 54891
römischen 54884
mühle 54870
Nacht 54849
selbst@@ 54840
Koh@@ 54822
leg@@ 54801
1915 54795
Sprachen 54791
tiv@@ 54764
liert 54744
Rhein 54708
Elisabeth 54679
ce 54670
Heimat 54669
36 54656
Nummer 54647
Bü@@ 54629
tal@@ 54566
üch@@ 54524
stände 54478
Rom@@ 54477
Alfred 54470
südöstlich 54436
voll 54377
wa 54371
Kurz 54346
fte 54313
breit 54285
Liebe 54268
Erste 54234
Rein@@ 54214
station 54205
los@@ 54193
wissenschaften 54192
historische 54174
französischer 54164
zahlen 54162
Ac@@ 54161
Bri@@ 54143
größ@@ 54141
südwestlich 54123
Flughafen 54118
Häuser 54110
haltung 54100
Hom@@ 54097
bleibt 54096
oz@@ 54083
arbeit@@ 54060
trag 54054
Kanada 54016
oten 54015
Lind@@ 54000
Studien 53993
lam@@ 53990
dienst@@ 53987
Des 53973
gez@@ 53972
bung 53963
Feuer@@ 53957
Preußen 53920
linien 53900
plan@@ 53896
bestimmten 53863
häng@@ 53857
trieb 53857
Lauf 53846
gelten 53840
Debüt 53799
old 53784
würden 53781
unterschiedlichen 53773
ils 53751
auff@@ 53737
Wach@@ 53722
beste 53701
Förder@@ 53672
Internationalen 53639
einz@@ 53620
geschaffen 53619
hen 53617
Regisseur 53610
zeichnet 53610
statt@@ 53600
Pat@@ 53567
Standort 53552
sab@@ 53548
Leistungen 53542
geschlagen 53523
bed@@ 53521
Zwischen@@ 53517
Start 53512
Henry 53508
Motor@@ 53472
Ausgabe 53469
ches 53435
zweimal 53387
Höh@@ 53354
isti@@ 53306
Kranken@@ 53288
schließen 53288
Angeles 53271
ages 53252
Sport 53247
Leb@@ 53225
dor@@ 53214
du@@ 53213
sied@@ 53188
Parlament 53180
schein@@ 53177
dau@@ 53161
Rau@@ 53155
1903 53091
ennen 53090
Text 53086
recht@@ 53069
Daten@@ 53049
Bevölkerungs@@ 53043
75 53034
Refer@@ 53033
Fernsehen 53018
mechan@@ 53018
33 53008
Bir@@ 52995
ose 52979
Kron@@ 52957
haf@@ 52951
Rö@@ 52931
belegt 52919
Sy@@ 52916
Aufnahme 52894
Quelle 52890
theorie 52884
Les@@ 52880
produktion 52801
oph@@ 52787
Sek@@ 52766
Sti@@ 52765
Richter 52759
stand@@ 52755
Schauspielerin 52732
Nürnberg 52725
State 52717
star@@ 52683
Trotz 52678
ø@@ 52655
Schwarz@@ 52652
chs 52647
bieten 52646
mes 52640
kurze 52639
ecke 52630
spielten 52599
Rich@@ 52589
Mod@@ 52583
ium 52572
polnischen 52558
äs@@ 52517
verkaufte 52502
Villa 52464
Erzbischof 52458
1916 52457
abl@@ 52448
Durchmesser 52442
zugeordnet 52438
Stol@@ 52374
klass@@ 52353
ori@@ 52347
Situation 52338
verg@@ 52334
iv@@ 52322
Daniel 52318
ost 52290
proz@@ 52290
eins 52272
gewonnen 52226
nungs@@ 52219
entschied 52207
lik@@ 52201
zunehmend 52187
nordwestlich 52159
verfasste 52157
Ferdinand 52155
ther@@ 52144
lose 52142
Hir@@ 52133
folge 52131
vertrat 52127
issen 52101
erklärte 52084
Pfarrer 52073
zählte 52037
jetzt 52028
bereit@@ 52023
pro@@ 52021
eit 52011
Autoren 51966
schließt 51954
Auflösung 51953
Sänger 51937
Fakultät 51901
nordöstlich 51892
forschung 51890
su@@ 51889
29 51880
Nov@@ 51880
ings 51864
liz@@ 51824
Münster 51822
Zivil@@ 51816
Probleme 51806
Christoph 51794
wesen 51790
Tab@@ 51782
bezeichnete 51781
ika 51761
lig 51735
Künstler@@ 51730
Wir@@ 51717
Kirchen 51711
Pfarrkirche 51710
Films 51709
errichtete 51707
1902 51676
off@@ 51671
Top 51649
erstreckt 51645
Informationen 51623
genau 51621
Erde 51603
Mot@@ 51598
Radio 51598
bestimmte 51568
Han@@ 51562
Glas@@ 51560
ack 51549
angelegt 51544
Parte@@ 51539
Sozi@@ 51529
ffen 51520
Bach 51505
freig@@ 51490
sitz 51471
änder@@ 51461
iss 51425
§ 51409
Bewohner 51396
eler 51374
Gründungs@@ 51356
übertragen 51345
och@@ 51337
Beziehungen 51335
Fenster 51335
vari@@ 51310
Ausstellung 51307
dec@@ 51292
getrennt 51280
Techn@@ 51277
Kommission 51267
weg@@ 51250
bet@@ 51231
Rem@@ 51225
Sicherheits@@ 51225
Regiment 51212
Freund 51211
Mittelalter 51203
ella 51201
änd@@ 51200
selb@@ 51177
aun@@ 51176
Rel@@ 51169
Eisen@@ 51161
cher@@ 51129
promoviert 51084
Mur@@ 51083
plan 51065
Ster@@ 51021
hö@@ 51018
Kir@@ 51017
Kosten 50952
dert 50947
yn@@ 50925
ona 50910
Fri@@ 50904
endung 50896
Netz@@ 50884
Gustav 50882
dh@@ 50874
inger@@ 50868
Öffentlichkeit 50860
Chem@@ 50855
tenen 50831
ei@@ 50827
Straßen 50799
ole 50799
handelte 50776
tert 50776
grenzt 50763
atischen 50758
stets 50754
li 50746
ganze 50732
Filme 50712
sprach@@ 50701
lichkeiten 50698
ong 50683
1901 50682
ständigen 50653
South 50631
Lauf@@ 50624
Freiburg 50604
etzen 50602
reicht 50590
Schauspiel@@ 50583
äuser 50561
arbeitung 50532
Hy@@ 50527
34 50524
organisation 50495
außer 50491
Verein@@ 50489
ou 50484
mäßig 50461
ras@@ 50453
Einheit 50448
Formen 50442
eff@@ 50437
gestaltet 50429
31 50428
House 50387
mach@@ 50372
Geld 50328
tur 50321
gehend 50312
Bew@@ 50299
m. 50287
jede 50261
starken 50237
alg@@ 50235
sl@@ 50226
daran 50218
ands 50182
Ich 50123
istik 50109
zentr@@ 50091
aub@@ 50083
trifft 50083
Pa@@ 50080
werken 50074
eigentlich 50025
Wehr@@ 49979
Rek@@ 49971
Brüder 49957
ali@@ 49938
zes 49923
Wett@@ 49921
modernen 49886
Eigenschaften 49881
Wen@@ 49872
Lad@@ 49869
Stif@@ 49845
bin@@ 49839
Wür@@ 49825
ars 49819
Bach@@ 49814
eden@@ 49805
Königs 49779
Herstellung 49767
Länder 49720
schn@@ 49706
Revolution 49703
Besetzung 49698
1848 49677
Music 49673
Mädchen 49673
Bek@@ 49669
änder 49665
Pfalz 49661
leb@@ 49649
museum 49643
ernen 49620
aut@@ 49616
kran@@ 49593
utsch@@ 49574
richtung 49563
á 49563
Mont@@ 49553
öffentliche 49547
hl 49536
kri@@ 49522
Teilnahme 49520
Stein 49503
idi@@ 49495
Society 49484
Gru@@ 49482
CD 49467
aum@@ 49454
holte 49446
Farb@@ 49416
besitzen 49407
Ba@@ 49396
Anf@@ 49384
graf@@ 49368
Dadurch 49365
Spitze 49359
ück 49341
brach 49338
kapit@@ 49315
ford 49305
heb@@ 49298
leistung 49293
umfasste 49291
aufgestellt 49283
Spar@@ 49252
Anwendung 49237
nitz 49207
Men@@ 49197
Den@@ 49192
seitdem 49187
1899 49184
gegründete 49173
hinter@@ 49173
zuständig 49158
Infrastruktur 49147
japanischen 49144
ähn@@ 49140
Alben 49132
iter 49126
Sil@@ 49062
bel 49058
ien@@ 49054
Schwe@@ 49042
abge@@ 49034
aufgeführt 49032
kenn@@ 49014
Bürger 49009
Sat@@ 49001
esti@@ 48999
Ly@@ 48984
ay@@ 48983
Kapit@@ 48960
inge 48941
kn@@ 48913
Bö@@ 48910
bahnen 48876
uppen 48876
wil@@ 48841
Geografie 48836
Theologie 48833
North 48831
wechsel 48823
Deutschlands 48821
hren 48821
kontrol@@ 48821
Inn@@ 48817
Bon@@ 48815
mündet 48788
Medizin@@ 48785
ungs- 48773
Medi@@ 48764
ellen@@ 48761
länder 48740
slo@@ 48739
Kos@@ 48736
unterhalb 48715
falls 48711
mung 48701
Fein@@ 48658
150 48612
geborene 48607
kas@@ 48594
wirkt 48575
erseits 48574
bauen 48571
Tradition 48539
Gran@@ 48525
amm 48516
Orgel@@ 48510
arische 48486
zäh@@ 48477
Eng@@ 48447
weiten 48441
64 48425
erei 48415
é@@ 48403
entweder 48396
nahezu 48383
annten 48370
Küste 48368
Gebiete 48346
800 48333
mus 48319
38 48288
Fle@@ 48257
lernte 48253
erkennen 48228
kern 48218
ret@@ 48211
platz@@ 48204
verstarb 48200
keit 48190
Bilder 48178
spricht 48175
Wild@@ 48164
leitet 48156
mittlerweile 48136
Mitgliedern 48129
ensch@@ 48128
begonnen 48108
steller 48104
abgesch@@ 48102
1898 48087
ufen 48068
dt 48064
adi@@ 48033
sä@@ 48000
Eth@@ 47996
besetzt 47993
eg 47988
ala 47986
mod@@ 47956
wesentlich 47943
links 47912
Indien 47885
edi@@ 47885
spek@@ 47838
Rez@@ 47837
onie 47823
mat@@ 47820
Szene 47804
kennen 47800
kap@@ 47783
fälle 47768
Drei 47754
Web@@ 47734
wies 47693
markt 47656
Lieb@@ 47645
Kalifornien 47637
bot 47628
sol@@ 47615
kreuz@@ 47611
alisierung 47609
älteren 47607
aufgebaut 47594
bü@@ 47593
klein@@ 47580
1890 47558
Regel@@ 47555
freie 47550
eben@@ 47543
Kampf@@ 47541
ha@@ 47539
Entstehung 47516
Hockey 47487
Lehre 47473
angegeben 47460
aur@@ 47460
gener@@ 47459
ausgestattet 47452
Vereins 47451
ada 47448
Vereine 47431
co 47411
versammlung 47405
Friedens@@ 47401
ursprünglichen 47395
bedeut@@ 47388
begannen 47384
sozi@@ 47366
hätten 47359
frag@@ 47350
Ren@@ 47338
Zusammen 47336
abteilung 47336
Stahl@@ 47331
Jan 47323
unteren 47282
Wahr@@ 47259
keits@@ 47259
Geheim@@ 47256
Geld@@ 47253
Universitäts@@ 47239
Lat@@ 47228
verbrachte 47220
gel 47211
Kri@@ 47203
Spann@@ 47197
Figuren 47190
Ot@@ 47168
leh@@ 47164
Einheiten 47161
Körper 47136
Pen@@ 47116
stellten 47098
neh@@ 47094
Sim@@ 47084
Tan@@ 47074
gemeinsamen 47064
Formel 47051
ierungs@@ 47043
Salz@@ 47006
gar@@ 47005
Konzept 47001
kreuz 47000
gar 46974
jedes 46959
pu@@ 46956
sel 46954
zweiter 46945
lager 46940
abgeschlossen 46934
Hall 46925
domin@@ 46916
jur@@ 46908
Vereins@@ 46881
hinzu 46879
Bezug 46871
III 46871
elles 46859
Besuch 46852
Tagen 46851
Stellung 46831
lichem 46828
Santa 46818
C. 46809
Far@@ 46807
Rüc@@ 46804
karriere 46786
wissenschaft 46764
Status 46751
not@@ 46737
Parteien 46734
Kontakt 46726
600 46721
Stil@@ 46719
partei 46709
stätten 46709
aft 46708
Wahlkreis 46696
enth@@ 46684
sa@@ 46668
Zeiten 46662
beweg@@ 46661
ca 46651
annte 46629
Kraft@@ 46618
yr@@ 46614
späten 46613
une 46604
jedem 46602
Stell@@ 46591
Kaiser@@ 46589
Druck 46588
My@@ 46586
dortigen 46574
ikan@@ 46554
Aufnahmen 46533
stück 46520
Stadion 46519
sches 46518
Rechte 46511
Städten 46496
wertung 46486
kleinere 46469
Ob@@ 46468
Chicago 46464
spätere 46464
port 46458
eröffnete 46449
port@@ 46438
Pierre 46418
Spi@@ 46417
fäh@@ 46387
aup@@ 46385
Kammer@@ 46381
Daraufhin 46365
Schriften 46362
schuf 46360
Landtag 46329
Kup@@ 46289
sitz@@ 46286
Untersuchungen 46281
Große 46276
asi@@ 46268
1895 46254
Bol@@ 46240
era 46232
alles 46223
befördert 46218
löste 46198
herrsch@@ 46193
ange 46188
Meer 46162
ander@@ 46159
ky 46155
üst@@ 46155
tnis 46144
stehenden 46137
Basel 46133
stern 46126
Zunächst 46117
akt 46115
ister@@ 46114
Heidelberg 46107
M. 46070
Strom@@ 46061
sächsischen 46061
1896 46059
Leh@@ 46053
Theorie 46025
Rat@@ 46016
Gau@@ 45999
Mand@@ 45996
wur@@ 45993
sk 45986
politisch 45983
mes@@ 45976
ž@@ 45968
Bä@@ 45960
Neubau 45948
setzung 45931
Umwelt@@ 45925
Ann@@ 45907
Gewer@@ 45903
mark@@ 45897
Daher 45895
üge 45891
stab@@ 45884
bahn@@ 45837
rück@@ 45835
Züge 45834
Meisterschaften 45826
Est@@ 45824
direktor 45824
Amtszeit 45801
Entscheidung 45800
Todes@@ 45799
spanischen 45796
Association 45792
Sankt 45788
Einwohnerzahl 45783
Prag 45777
Tode 45770
ierter 45756
verschiedener 45755
Kun@@ 45753
kosten 45753
Mio. 45748
Vorder@@ 45734
1870 45719
erhoben 45718
Hotel 45704
Medizin 45703
Rand 45683
völlig 45674
bor@@ 45663
werte 45661
geplant 45648
spe@@ 45631
bit@@ 45622
schlug 45611
Heinz 45602
fiz@@ 45600
griechischen 45592
loc@@ 45588
Mannschafts@@ 45583
einzigen 45579
stitu@@ 45577
stimm@@ 45546
kurzen 45513
besondere 45507
Lieder 45474
Werken 45466
55 45442
wider@@ 45436
ungs 45435
Sieger 45413
Ausland 45412
vorwiegend 45393
Kreuz 45391
theit 45381
Chi@@ 45370
Gericht 45367
High 45366
belieb@@ 45355
Macht 45346
ds 45344
tz 45333
digt 45327
Förderung 45322
Prozess 45320
üssen 45316
fül@@ 45305
1871 45290
Alten@@ 45286
Boden@@ 45277
Dro@@ 45274
tiven 45271
Nachbargemeinden 45268
Angriff 45267
beziehungsweise 45248
1897 45239
üs@@ 45238
sm@@ 45235
Verhältnis 45231
pfen 45214
Wur@@ 45212
fassung 45197
gef@@ 45158
Millimeter 45157
Mexiko 45144
Organ@@ 45117
wirken 45110
rom@@ 45100
unterschiedliche 45040
ip@@ 45037
benutzt 45022
nische 44971
pos@@ 44949
Jakob 44937
itzer 44929
gute 44900
für@@ 44893
Institute 44884
erter 44880
Abgeordneter 44863
bislang 44859
Brand@@ 44836
its@@ 44815
heits@@ 44812
Gro@@ 44809
film@@ 44809
Unternehmens@@ 44788
Nordrhein 44780
lus@@ 44751
Hier@@ 44727
sek@@ 44703
Anh@@ 44682
lehr@@ 44658
Gott 44644
ac 44636
Ebenfalls 44616
pas@@ 44606
küste 44597
Pres@@ 44596
volle 44593
geleitet 44589
got@@ 44588
sprechen 44570
Beruf 44563
Beziehung 44549
werks 44542
liegende 44534
Holz 44516
Gleichzeitig 44480
far@@ 44478
annt 44476
ille 44471
esten 44467
Einrichtungen 44458
Fin@@ 44450
verändert 44415
gern 44406
Poly@@ 44403
Elemente 44385
ea 44385
Ble@@ 44379
Tag@@ 44355
auses 44340
verschw@@ 44335
Mach@@ 44332
í 44321
ov 44314
Hein@@ 44311
Figur 44309
gekommen 44299
ältesten 44297
titel 44285
Landschafts@@ 44280
Mainz 44275
Einrichtung 44266
Ing@@ 44264
Reise 44261
akademie 44252
übrigen 44240
Boot 44238
Abs 44234
ebenen 44231
Schleswig 44226
Tu@@ 44225
bild@@ 44200
Prim@@ 44193
Charts 44168
42 44159
Pot@@ 44154
versehen 44147
beschreibt 44137
ilfe 44131
ly 44130
besser 44125
stärk@@ 44112
Marine 44109
Zustand 44109
tive 44108
Fili@@ 44107
Rä@@ 44097
Tief@@ 44093
atur@@ 44080
ossen 44073
Tak@@ 44066
British 44053
sprech@@ 44044
schweren 44038
All 44010
züge 43998
Gruppen@@ 43983
zt 43979
Don@@ 43977
Eg@@ 43965
Komponist 43943
Natur 43939
Fragen 43938
Universitäten 43938
Sehenswürdigkeiten 43933
fäl@@ 43929
44 43916
Mac@@ 43881
Schwerpunkt 43878
Bistum 43863
hil@@ 43859
aktiv@@ 43832
Öl@@ 43817
ütz@@ 43814
staat@@ 43811
Lib@@ 43796
graben 43795
No@@ 43794
Einsatz@@ 43774
österreichischer 43768
Ähn@@ 43760
Breite 43751
Tonnen 43731
Arrondissement 43724
37 43719
herr@@ 43718
Bos@@ 43708
Zeitraum 43701
Songs 43691
erinnert 43691
ife 43687
orf 43663
Ti@@ 43653
Wissenschaften 43639
eit@@ 43637
Det@@ 43632
ish@@ 43617
suchen 43599
Verb@@ 43590
Menschen@@ 43523
Studien@@ 43523
füh@@ 43507
wollen 43493
Autom@@ 43482
Trag@@ 43474
Zuf@@ 43471
Fi@@ 43466
Start@@ 43453
zentrale 43452
NS 43427
emann 43427
erie 43398
Je@@ 43384
hoher 43384
dro@@ 43377
Ausstattung 43372
tis 43364
Güter@@ 43359
starke 43353
Bru@@ 43346
ändern 43317
gering@@ 43313
vorgesehen 43311
mark 43291
ausgel@@ 43290
nieder 43286
Fluss@@ 43275
zufolge 43270
Ras@@ 43263
elli 43261
Elektr@@ 43257
igt 43255
Grafschaft 43242
isen@@ 43231
Handel 43222
Got@@ 43218
bürger@@ 43216
Has@@ 43214
Frei@@ 43200
Ufer 43192
ita 43189
Bundesrepublik 43181
aktiven 43179
steine 43178
wirtschaftlichen 43178
Kul@@ 43177
Gottes@@ 43175
Klaus 43168
nannte 43150
erhält 43146
ennung 43144
Lake 43140
inde 43138
tens 43130
Vereinigung 43121
ust 43118
fak@@ 43111
ungefähr 43104
einschließlich 43097
sion@@ 43076
könne 43072
stoffe 43059
ländischen 43057
verurteilt 43055
Arts 43019
eckt 43001
geb 42972
achte 42957
Ring@@ 42955
großes 42937
ums@@ 42937
parallel 42913
Boh@@ 42911
Nicht 42901
atische 42887
ebt 42886
Schä@@ 42884
Academy 42879
shaus 42863
Zugang 42859
Test@@ 42858
Entwicklungs@@ 42853
ym@@ 42850
eler@@ 42838
Plat@@ 42832
anzu@@ 42828
Mehrheit 42827
Ram@@ 42796
Veranstaltungen 42789
Maß@@ 42783
ena 42781
lit@@ 42776
Idee 42774
schaffte 42767
Russ@@ 42740
Wahlen 42731
Sem@@ 42711
ader 42702
ämp@@ 42699
Aktivitäten 42695
promovierte 42694
ě@@ 42692
unten 42674
wir 42672
Jap@@ 42670
pa@@ 42670
Cl@@ 42654
las 42654
Kamer@@ 42651
erb@@ 42646
Lebens 42645
entlassen 42641
Ok@@ 42639
Monaten 42613
shof 42579
entlich 42564
international 42564
schie@@ 42564
1893 42549
meisterschaft 42547
fielen 42536
isation 42535
Ausnahme 42534
Minister 42534
Kost@@ 42533
wirk@@ 42528
weder 42524
Sonn@@ 42507
1,5 42504
ücke 42496
Hersteller 42490
sth@@ 42475
Hen@@ 42465
grund 42463
rek@@ 42461
Š@@ 42428
Fort@@ 42415
El 42413
Theodor 42399
Oper 42379
Braunschweig 42375
gewer@@ 42362
Gemeindegebiet 42347
inf@@ 42345
Dänemark 42338
Klosters 42326
2,@@ 42321
einzelne 42300
1.@@ 42279
isierten 42278
berichtet 42275
Bernhard 42264
moder@@ 42263
zone 42258
Rheinland 42256
kauf@@ 42255
unterscheiden 42247
fes@@ 42246
Sul@@ 42245
erreichten 42245
Flu@@ 42208
Final@@ 42207
entin 42205
Flügel@@ 42199
ain 42159
Inhalt 42151
nationale 42143
Gegner 42139
Rus@@ 42137
ment@@ 42137
sz@@ 42128
verpflichtet 42128
ora 42114
zeichnete 42104
Regionen 42096
etz 42090
Kurt 42087
Can@@ 42082
öffentlich 42078
Großteil 42069
möglicherweise 42056
ahn 42050
1850 42045
Fürst@@ 42044
Europameisterschaft 42043
nehmer 42021
direk@@ 42020
ätze 42012
hu@@ 41995
urkundlich 41970
sar@@ 41965
Struktur 41959
brü@@ 41933
Fas@@ 41921
Heraus@@ 41914
Bezir@@ 41913
kräfte 41911
48 41907
esischen 41903
fs 41891
Weibchen 41876
denden 41873
Mes@@ 41867
Türkei 41864
rau@@ 41849
SG 41840
ahlen 41829
ebr@@ 41813
heil@@ 41807
betrachtet 41788
kam@@ 41787
Bayerischen 41784
führenden 41769
siedlung 41769
Vertr@@ 41767
schaffen 41747
Patr@@ 41744
Halbinsel 41733
ängt 41733
Infanterie 41724
Schach@@ 41724
³ 41721
periode 41716
versetzt 41715
bes 41701
fle@@ 41700
1892 41694
bestätigt 41694
Fuß 41684
Viel@@ 41683
Silber@@ 41680
ganzen 41680
Fällen 41679
Roten 41671
we 41665
deutschsprachigen 41664
Initiative 41660
nennt 41642
Kongress 41635
ari 41624
1880 41611
nutz@@ 41599
eigenes 41582
la@@ 41578
zeitweise 41554
nam@@ 41551
tab@@ 41541
Landschaft 41538
Zug 41535
Kä@@ 41506
Grä@@ 41489
Kommunal@@ 41485
Errichtung 41483
Besitzer 41468
Bern 41463
tik@@ 41458
Tau@@ 41455
Europameisterschaften 41444
ffe 41444
gelegentlich 41432
psych@@ 41432
Politi@@ 41408
technischen 41401
Maßnahmen 41399
breite 41397
zieht 41396
Tit@@ 41389
1@@ 41381
res 41381
kultur@@ 41368
sal@@ 41364
vorher 41363
mut@@ 41353
ückt 41336
ath 41330
derzeit 41318
Ziel@@ 41316
indi@@ 41308
Label 41305
läuf@@ 41304
kes 41298
damalige 41280
bedingt 41279
Belgien 41261
Schmidt 41259
Kiel 41257
Ordnung 41242
disch 41241
länge 41239
Mis@@ 41228
Königin 41223
Ulrich 41220
Bibliothek 41216
Mad@@ 41200
Rezeption 41197
Zy@@ 41190
Hab@@ 41188
jahren 41188
holz 41179
steh@@ 41176
Gegen 41170
Energie 41163
außen 41163
breiten 41159
Engl@@ 41141
Star 41128
itäts@@ 41123
Mein@@ 41109
funk@@ 41095
les@@ 41093
Essen 41092
ign@@ 41050
Bestandteil 41046
enstein 41044
angew@@ 41041
Gouverneur 41001
Versuch 40985
sprach 40979
Sign@@ 40960
Auff@@ 40958
Linien 40958
einfach 40953
Ludwig@@ 40921
Gor@@ 40920
blatt 40919
ppen 40915
Volk@@ 40910
zieh@@ 40886
kopf 40882
Wissenschaft 40877
bus@@ 40873
Hafen 40864
Neue 40863
kunde 40861
let@@ 40849
gestellten 40847
Pri@@ 40844
ls 40832
ax@@ 40823
1885 40787
Hilfs@@ 40780
stür@@ 40773
zweif@@ 40773
manns 40766
Reb@@ 40741
hauses 40733
neten 40722
schwedischen 40707
tern@@ 40705
änger 40702
anzen 40689
weiß@@ 40674
Vari@@ 40672
ga 40672
Baus@@ 40652
Klub 40643
ografie 40637
q@@ 40636
Center 40629
gs 40621
miteinander 40621
lad@@ 40619
stammte 40617
Untersuchung 40615
Spezial@@ 40612
stes 40601
kus 40590
wert@@ 40566
Leistungs@@ 40561
ister 40561
ekten 40557
Silber 40556
Mittel 40541
Studenten 40538
ni 40534
1894 40527
Ritter 40522
eres 40506
Kno@@ 40486
tief@@ 40484
orien 40476
Bog@@ 40466
angehör@@ 40460
Der@@ 40456
egel@@ 40456
Rech@@ 40451
Kel@@ 40436
gemeinsame 40434
erlangte 40430
stel@@ 40430
witz 40428
Aussch@@ 40424
Bronzemedaille 40419
39 40411
anfangs 40405
Salzburg 40400
GB 40386
Göttingen 40378
Schlag@@ 40376
Group 40375
Metal 40364
ernannte 40364
1888 40347
ve@@ 40347
up 40343
anges@@ 40341
wahl@@ 40338
tz@@ 40333
lehre 40330
Woche 40314
sig@@ 40293
ius 40291
ekte 40289
Sendung 40283
schlossen 40275
enhaus 40273
befanden 40266
kurz@@ 40264
veränder@@ 40259
Brun@@ 40250
sozialen 40245
verbindet 40233
Wa@@ 40218
Mün@@ 40207
wes@@ 40203
Sau@@ 40198
offiziellen 40177
Mah@@ 40148
ensi@@ 40143
linge 40135
1889 40101
heiligen 40087
ograf@@ 40074
1874 40068
präs@@ 40044
Pflanzen 40037
ermöglicht 40031
änz@@ 40017
ros@@ 40005
Kriegsende 39996
Science 39988
Lor@@ 39986
wirtschaftliche 39969
Verfassung 39958
erende 39955
tierten 39951
aja 39945
schulen 39926
ünde 39924
mot@@ 39923
Aber 39921
fol@@ 39911
Bed@@ 39906
andten 39906
Ku@@ 39889
stücke 39884
Zeichen 39870
enstraße 39857
braun 39851
zuz@@ 39843
Football 39841
uer 39825
Lü@@ 39817
H. 39806
benannte 39797
Generation 39792
angesehen 39785
1930er 39776
fünften 39773
natur@@ 39765
egel 39757
garten 39747
Funktionen 39745
ital 39742
int@@ 39740
tenden 39740
trainer 39737
1891 39728
Hauses 39727
Pflanzen@@ 39724
ren 39717
Alle@@ 39705
genden 39705
ologisch 39700
brau@@ 39697
Material 39695
turen 39693
druck 39684
weih@@ 39680
studi@@ 39678
arch@@ 39674
öhe 39670
org@@ 39667
Satz 39666
zeich@@ 39664
Variante 39662
Jazz@@ 39659
zahl@@ 39659
Holstein 39651
behaup@@ 39648
lass@@ 39636
Gerhard 39634
ütze 39628
mittleren 39602
Deb@@ 39579
Druck@@ 39579
Chemie 39563
erischen 39563
Sicherheit 39554
Gegend 39550
J 39550
denkmal 39548
Histor@@ 39542
Kontrolle 39541
mauer 39538
früh 39531
fik@@ 39530
isl@@ 39530
sagte 39526
popul@@ 39513
Julius 39512
Brasilien 39503
klassischen 39498
Sin@@ 39495
bringt 39491
litz 39488
asen 39476
ennt 39476
Küh@@ 39470
welt 39462
Mass@@ 39457
benachbarten 39454
sburg 39449
ball@@ 39445
Ortschaften 39440
Preis@@ 39437
usch@@ 39432
ion 39420
ppe 39418
iter@@ 39411
Log@@ 39404
rot 39394
Mutter@@ 39390
Saison@@ 39382
versorgung 39346
vierte 39320
wehr@@ 39313
endgültig 39310
kammer 39306
Wör@@ 39292
Show 39288
Dann 39287
tene 39283
Tran@@ 39280
arr@@ 39274
Arbeiter@@ 39259
gend 39254
inden 39248
AS@@ 39237
charakter@@ 39224
mehrerer 39221
Ukraine 39220
darf 39218
under@@ 39218
Israel 39213
aufen 39191
ban@@ 39189
Gewerk@@ 39183
sport 39175
weis@@ 39121
Filmen 39118
On@@ 39118
Tages@@ 39109
Verkehr@@ 39107
Phase 39099
entum 39091
Gri@@ 39087
Internationale 39080
atr@@ 39069
Sender 39067
Medien@@ 39062
Bran@@ 39057
bö@@ 39048
Pfer@@ 39047
Simon 39046
verbandes 39045
Kil@@ 39030
zin@@ 39027
angenommen 39022
Arzt 39011
echt 39010
entsteht 39009
chinesischen 39008
Grab 38998
Smith 38991
Person@@ 38986
Höhen@@ 38978
Beruf@@ 38973
widmete 38973
sicher 38971
enbach 38957
artige 38948
issen@@ 38948
nes 38937
ra@@ 38934
vergeben 38931
räum@@ 38924
erwar@@ 38919
sowjetischen 38918
äuf@@ 38913
Produkte 38912
forderte 38898
landes@@ 38897
Wechsel 38895
kapelle 38881
zentralen 38880
Uni@@ 38879
Erkenn@@ 38869
ida 38863
lehrer 38861
Weltcup 38849
Texte 38846
bestehenden 38845
forsch@@ 38845
Lar@@ 38841
1860 38837
unabhängig 38835
scheiterte 38817
Nationalsozialismus 38815
Straß@@ 38813
Joachim 38809
bestimm@@ 38805
ail@@ 38801
bisherigen 38795
Lit@@ 38775
fertiggestellt 38768
mitglieder 38757
industrie 38737
Volkszählung 38731
getragen 38722
Siedlungs@@ 38721
erwäh@@ 38721
klär@@ 38714
reform 38712
geschicht@@ 38696
techn@@ 38691
Av@@ 38681
Back@@ 38681
Recht@@ 38672
NSDAP 38665
Eduard 38663
Kü@@ 38650
hieß 38650
steigen 38643
Unternehmens 38639
ok 38623
ausbildung 38613
Black 38598
stellvertretender 38585
buch@@ 38580
ahn@@ 38566
scheint 38553
1879 38551
verhindern 38515
Fran@@ 38509
its 38503
ebel 38478
sicher@@ 38474
Frankfurter 38472
Kader 38468
fü@@ 38467
ama 38452
Kab@@ 38443
agt 38438
Na@@ 38419
mitteln 38419
russische 38415
wan@@ 38412
ausgeführt 38411
Patienten 38410
Bit@@ 38402
gelangte 38402
1866 38400
offizielle 38399
Orden 38393
ogen@@ 38392
nete 38381
errichten 38377
Pfarrei 38376
Mak@@ 38373
istischer 38361
Spieltag 38343
handlung 38343
1500 38325
shausen 38319
fordert 38314
existiert 38296
Abl@@ 38292
kow 38290
Hü@@ 38274
00 38272
Schließlich 38257
Gebieten 38252
geriet 38250
kleineren 38249
Kathol@@ 38240
osen 38232
Praxis 38219
unterlag 38207
ill 38203
Groß 38191
Bür@@ 38188
Pop@@ 38188
entstehen 38187
sofort 38180
wurf 38166
ain@@ 38164
Industrie 38158
Weiter@@ 38154
Historiker 38147
uc@@ 38142
raten 38118
abel 38117
diger 38112
Bass@@ 38110
Einen 38109
tiges 38079
Portugal 38068
eil 38066
maßnahmen 38054
Rak@@ 38051
italienische 38049
hel@@ 38044
Lager 38043
Feld 38037
Beispiele 38036
Widerstand 38034
eht 38027
mig 38025
guten 38023
pres@@ 38023
Live 38010
satz@@ 38004
bog@@ 38002
nissen 38002
Auflage 37998
Naturschutzgebiet 37998
si 37991
eingesch@@ 37960
Bay 37959
feierte 37946
Pod@@ 37930
ergibt 37917
xen 37917
fähigkeit 37914
Projek@@ 37912
Arthur 37911
aten@@ 37907
Bez@@ 37885
vertr@@ 37884
bilder 37880
Paar 37876
Feh@@ 37862
kreis@@ 37816
tour@@ 37810
Gemälde 37808
Konrad 37805
manchmal 37803
Denkmal@@ 37798
lie@@ 37797
bewer@@ 37786
Krankenhaus 37784
krieg 37782
maß@@ 37775
reihe 37770
Charakter 37751
isierte 37732
prüfung 37725
österreichische 37724
ider 37715
britischer 37709
rö@@ 37707
Zusätzlich 37703
Len@@ 37701
Fischer 37699
250 37698
frage 37695
untergebracht 37692
körper@@ 37689
klassi@@ 37688
Besonders 37687
Engagement 37685
1875 37677
Repräsentantenhaus 37672
Amateur@@ 37670
ty 37668
Ham@@ 37652
etzt 37642
Wettbewer@@ 37639
Publikum 37605
Mich@@ 37600
Super 37596
Anlagen 37594
Verhalten 37585
Jan@@ 37584
fabrik 37582
gänge 37580
tag@@ 37550
übersch@@ 37550
iten@@ 37508
Lam@@ 37498
sam@@ 37498
52 37489
41 37484
englische 37474
halb@@ 37468
existieren 37448
Mühle 37432
weißen 37419
Oberliga 37412
räume 37410
dennoch 37394
Pass@@ 37391
wirkung 37391
zumeist 37381
verli@@ 37374
Ec@@ 37367
schiff@@ 37342
Kölner 37341
jeden 37341
ede 37320
spitze 37314
Ged@@ 37312
gül@@ 37309
grä@@ 37306
Plan 37302
ider@@ 37298
organisiert 37296
unterricht 37292
Behandlung 37282
43 37280
ura 37280
könig@@ 37276
Bay@@ 37274
Vorbild 37268
komple@@ 37255
eien 37252
nummer 37247
daraus 37241
Ausdruck 37233
bezogen 37229
Mühl@@ 37222
Junioren 37220
amer@@ 37215
debütierte 37200
Verfassungs@@ 37199
mar 37198
Bauern 37191
Roman@@ 37191
oth@@ 37188
uti@@ 37178
stil@@ 37175
Weiterhin 37173
Eisenbahn 37162
Vorstand 37162
Ner@@ 37159
wer 37157
Neuen 37141
beck 37141
orn 37132
Typ@@ 37117
richter 37099
ügen 37095
í@@ 37094
Zus@@ 37086
pe@@ 37066
klar 37062
fil@@ 37052
Rest 37049
Ski@@ 37035
ust@@ 37021
sicht@@ 37017
1887 37015
Eröffnung 37008
Party 37003
Sicht 37002
einheit 36987
zeuge 36986
1867 36982
schreibt 36981
bestanden 36979
höheren 36968
Architekt 36963
lten 36962
Angebot 36959
Arn@@ 36945
Jud@@ 36941
Gemeinschaft 36938
icher 36935
Erfahrungen 36934
Č@@ 36931
olog@@ 36926
Spielklasse 36908
zumindest 36908
Dru@@ 36891
Altar@@ 36889
Operation 36887
Studio 36880
umgebaut 36873
spä@@ 36864
1886 36859
Dörfer 36855
Entwurf 36855
igten 36854
ursprüngliche 36853
Son@@ 36850
kommission 36844
entsprechenden 36822
Oster@@ 36821
genannte 36821
ungst@@ 36819
anischer 36817
schä@@ 36815
Brenn@@ 36807
träger 36795
Vo@@ 36790
Klima 36787
produzierte 36787
eli@@ 36781
sum@@ 36772
Fahrzeug 36755
jüdische 36754
Lim@@ 36753
nutzen 36746
Internet 36735
bacher 36727
Gesam@@ 36720
ong@@ 36706
Dorfes 36705
anstalt 36694
atik 36689
ism@@ 36685
Palä@@ 36679
erzählt 36676
wirtschafts@@ 36667
dic@@ 36662
anger@@ 36655
suchte 36647
Monat 36646
Mik@@ 36642
Schrift 36642
Bedingungen 36629
King 36622
Verbindungen 36622
prin@@ 36617
Deutscher 36607
oni 36604
material 36603
Strecken@@ 36602
oberhalb 36578
präsidenten 36576
ash@@ 36572
Arab@@ 36563
47 36561
unterstützte 36554
umgeben 36552
ständige 36539
tatsächlich 36537
Rio 36534
120 36528
getötet 36521
bibliothek 36519
Tun@@ 36515
Chef 36489
cha 36488
Bereichen 36481
Pir@@ 36478
Fahrer 36475
dach 36466
Dennoch 36462
Brand 36449
Gedenk@@ 36439
än 36433
sech@@ 36431
ato 36423
konzentr@@ 36417
Rh@@ 36407
W. 36404
pflanz@@ 36399
desselben 36385
Männchen 36381
bücher 36380
Ern@@ 36372
fes 36370
Francisco 36356
gleiche 36351
körper 36332
Blüten@@ 36316
Send@@ 36304
tis@@ 36302
Gestaltung 36297
Mang@@ 36292
Bah@@ 36285
Thi@@ 36283
Garten@@ 36269
iger@@ 36259
Ebenso 36257
Pul@@ 36244
Beschäf@@ 36243
tors 36240
Bund 36237
digkeit 36233
Aktiv@@ 36231
rats@@ 36227
1872 36226
Friedrich@@ 36225
Sech@@ 36225
mak@@ 36222
ame 36221
dün@@ 36219
sieg 36214
Vog@@ 36210
Freien 36205
Maschinen@@ 36204
kaufte 36199
Ursprünglich 36192
Ausbau 36189
bedingungen 36188
Meeres@@ 36186
weshalb 36183
setzten 36177
Wolf 36175
Sz@@ 36168
nächste 36144
owski 36137
häuf@@ 36129
motor 36128
Hit@@ 36125
nden 36124
1884 36123
ehemals 36123
Neub@@ 36115
zusch@@ 36113
komplett 36109
blick 36104
Pokal 36100
felder 36096
Betre@@ 36073
platte 36073
fungierte 36061
geschwindigkeit 36061
ehrt 36053
Instituts 36041
ßer@@ 36038
Erich 36033
ola 36033
Río 36030
Alb@@ 36018
ichtet 36018
bildeten 36017
Religion 36015
funktion@@ 36010
Systematik 36001
Flucht 35995
1873 35991
zustellen 35975
trägen 35972
Train@@ 35954
Tanz@@ 35952
niederländischen 35938
technik 35937
langer 35935
ehmen 35933
Ruf 35932
1868 35929
geweiht 35913
49 35907
0.000 35906
51 35904
studium 35898
unterschrieb 35896
amb@@ 35893
ört 35891
kin@@ 35890
Edward 35883
ises 35882
künst@@ 35882
überhaupt 35874
Andere 35870
miss@@ 35859
reit@@ 35851
Stellen 35834
Weit@@ 35829
Blut@@ 35822
lerin 35815
basiert 35811
zehn@@ 35810
Mul@@ 35808
nd@@ 35806
Augen 35803
Kontin@@ 35802
gewannen 35799
aktions@@ 35798
Post 35797
José 35794
Veröffentlichungen 35787
Tel@@ 35781
Hum@@ 35776
präsentiert 35754
erober@@ 35736
Software 35734
Künste 35729
Minder@@ 35726
Reste 35725
Pel@@ 35723
finanz@@ 35721
etes 35719
sätze 35712
atz@@ 35709
Niederlande 35706
... 35700
ō@@ 35697
Rec@@ 35696
elektron@@ 35686
sucht 35681
Funk@@ 35663
bayerischen 35658
Viertelfinale 35650
Wochen@@ 35641
reise 35639
eber@@ 35633
Grenzen 35631
Direk@@ 35623
46 35605
läu@@ 35593
Viz@@ 35589
Deutsch@@ 35585
onalen 35582
feld@@ 35572
lebens@@ 35565
Differ@@ 35562
Bürgermeister@@ 35561
teren 35556
ball 35542
gründen 35542
Panzer@@ 35532
latein@@ 35523
womit 35494
Zukunft 35482
Sängerin 35477
Führ@@ 35467
.-@@ 35466
usi@@ 35464
Orten 35452
Vielzahl 35437
Adam 35429
reiche 35429
Kassel 35422
Ah@@ 35421
ähnliche 35412
Denkmal 35391
ode 35387
1881 35385
op 35384
1882 35380
Sum@@ 35379
lebenden 35375
Psych@@ 35369
hören 35338
lehrte 35328
uerung 35327
Loh@@ 35325
aden@@ 35324
Don 35318
Las@@ 35307
Behörden 35305
enge 35292
2,5 35291
rein 35275
Münchner 35273
angeg@@ 35257
gä@@ 35253
Reaktion 35246
zusetzen 35235
enfeld 35231
Mathematik 35230
Augen@@ 35222
States 35216
85 35208
absol@@ 35206
grad 35205
Herbert 35202
Norwegen 35196
Würzburg 35185
Geburts@@ 35176
Lab@@ 35176
lokalen 35168
eger 35156
Sur@@ 35138
Gemeinderat 35130
schne@@ 35125
10.000 35122
beigesetzt 35120
Tex@@ 35114
Wissenschaft@@ 35113
1920er 35087
enges@@ 35087
à 35086
struktur 35078
Brut@@ 35076
rein@@ 35076
Tas@@ 35074
ausstellung 35074
Haf@@ 35062
straßen 35061
etab@@ 35046
ikanischen 35043
einiger 35038
Schall@@ 35032
staatlichen 35018
aktive 35012
ilig 35007
Prin@@ 34991
Bei@@ 34990
Woiwodschaft 34990
eigen@@ 34986
stigen 34980
Ordens@@ 34974
allgemein 34966
äne 34954
verwendete 34950
bauer 34949
eme 34949
aue 34934
äusern 34931
bestehende 34923
sierte 34922
keiten 34914
pass@@ 34889
äufer 34879
eter@@ 34876
Maschinen 34873
beschäftigte 34872
Alten 34866
Magdeburg 34865
zel 34862
1883 34859
Wirk@@ 34854
Ide@@ 34848
abges@@ 34842
bach@@ 34837
zunehmen@@ 34835
1878 34829
Blüten 34819
Pin@@ 34818
bisch@@ 34803
Forst@@ 34802
dunk@@ 34802
verst@@ 34800
neg@@ 34798
Ra@@ 34790
afr@@ 34785
lautet 34768
Rollen 34767
Route 34767
va 34767
erscheinen 34761
baus 34756
Zuschauer 34737
Tat@@ 34735
Abr@@ 34728
Bronze 34726
esische 34710
Vergangenheit 34706
aug@@ 34705
Farbe 34700
national@@ 34698
Bak@@ 34687
oll 34684
laufen 34682
nern 34681
Zweit@@ 34680
ba 34679
schließ@@ 34674
inischen 34651
ty@@ 34647
ommen 34628
jüng@@ 34618
Street 34617
ders 34615
lug@@ 34610
Waffen 34608
ihe 34608
Posten 34603
Geor@@ 34602
Modelle 34600
vereins 34600
co@@ 34598
ta@@ 34598
notwendig 34596
Sak@@ 34590
Indi@@ 34589
Ka@@ 34589
ket@@ 34578
chin@@ 34559
ender@@ 34557
Bühne 34554
D. 34554
Organisationen 34553
schütz@@ 34549
ai@@ 34546
nd 34546
neug@@ 34537
schläge 34531
behandelt 34528
Kircheng@@ 34527
Stern@@ 34526
Auszeichnung 34521
moderne 34519
Luft 34515
keit@@ 34514
ū@@ 34509
ausgebaut 34506
Vogel@@ 34499
Trau@@ 34490
medi@@ 34486
ausschuss 34474
Mikro@@ 34472
fragen 34470
Senat 34466
kun@@ 34465
halb 34463
1876 34461
Wär@@ 34452
Schrift@@ 34450
Denkmalschutz 34447
anspr@@ 34441
gebieten 34440
veröffentlichten 34436
wichtigen 34431
jo@@ 34428
ther 34425
ies 34421
car@@ 34413
üblich 34407
iz 34406
az 34404
Gründer 34403
1861 34391
ela 34378
lehnte 34371
lim@@ 34370
Lok@@ 34362
Fahrzeug@@ 34359
verfügte 34352
einheit@@ 34351
art@@ 34349
bem@@ 34349
oper@@ 34349
dürfen 34347
Brief@@ 34344
AC 34343
Neur@@ 34338
Etwa 34333
siegte 34332
Festung 34320
Wunsch 34320
Mu@@ 34317
liefer@@ 34313
tnisse 34297
Anerkennung 34285
Ermitt@@ 34281
Video 34280
Mensch 34273
Besatzungs@@ 34272
verhaftet 34247
Methode 34246
Vel@@ 34233
gig 34231
privaten 34223
Proz@@ 34218
prochen 34214
nachgewiesen 34211
anders 34210
Gesundheits@@ 34206
Problem 34206
bezieht 34196
Zweck 34192
Flugzeug@@ 34185
pil@@ 34185
SA 34176
militärischen 34170
aufnahmen 34168
kirch@@ 34164
rec@@ 34162
firma 34161
Metall@@ 34160
Ruhestand 34158
eckte 34145
ó@@ 34127
ont 34111
stim@@ 34103
ment 34099
Standard@@ 34084
Mun@@ 34068
Übersetzung 34055
altet 34052
erworben 34052
bern 34042
fluss 34037
grün 34037
zuk@@ 34035
log@@ 34034
Ed@@ 34027
machten 34014
Frü@@ 34010
Platten@@ 33996
gebung 33991
christlichen 33987
Lösung 33984
beschlossen 33971
fortan 33957
bischof 33948
Synchron@@ 33946
schnitt 33932
Schaff@@ 33931
Moder@@ 33930
liter@@ 33930
bs@@ 33917
Studie 33915
Anhalt 33911
isieren 33907
ammlung 33902
gangs@@ 33867
gegen@@ 33867
verstär@@ 33849
Verkauf 33841
onien 33838
schwarz 33830
behörde 33822
flügel 33819
itige 33818
eingegliedert 33814
1869 33801
ema 33797
lte 33790
netz 33790
Kanz@@ 33781
kräf@@ 33781
atte 33779
anhand 33772
Ries@@ 33770
Hem@@ 33764
ätz@@ 33759
bedeutende 33756
mag@@ 33755
Kirchengemeinde 33749
Kohlen@@ 33747
technische 33737
DR 33723
Bern@@ 33718
Erwähnung 33717
Sü@@ 33714
Gun@@ 33711
Eff@@ 33709
France 33709
hr 33708
Fort 33693
Massen@@ 33693
ebe 33690
Aachen 33689
enc@@ 33689
eigener 33685
ausger@@ 33679
Geschlech@@ 33676
stärker 33675
Niedersachsen 33673
ello 33671
95 33665
anlässlich 33663
burg@@ 33663
regierung 33662
E. 33657
ul 33656
Trieb@@ 33651
Baureihe 33645
stä@@ 33640
1864 33636
pa 33633
erhöht 33631
Datum 33617
Red 33614
Jagd@@ 33612
strahlung 33608
dungen 33600
pen 33591
Fu@@ 33586
pflich@@ 33574
Volk 33569
Sonnen@@ 33565
Sw@@ 33565
Stefan 33562
rig 33553
täg@@ 33552
abgerissen 33548
benutz@@ 33544
beschloss 33538
Ziele 33519
ifen 33515
nämlich 33508
bad 33507
ling@@ 33505
Verz@@ 33496
Jürgen 33492
Afrika 33488
Gemeinsam 33478
terer 33466
üsse 33466
Töchter 33462
Mary 33461
rolle 33454
unterscheidet 33453
ungsp@@ 33443
Farben 33440
Frieden 33437
echnik 33436
höch@@ 33435
gebr@@ 33434
idung 33434
Silbermedaille 33433
bä@@ 33429
inner@@ 33425
Kli@@ 33423
schwere 33418
Nar@@ 33411
erw@@ 33411
Wies@@ 33410
Adel@@ 33402
Inschrift 33401
Marke 33401
1865 33395
wel@@ 33388
kost@@ 33377
jener 33376
zeug 33362
ht 33353
vollen 33350
Einer 33344
Erster 33341
Miss@@ 33334
Partner@@ 33332
700 33323
haft 33307
2.@@ 33302
Programm@@ 33297
scheid 33297
Tübingen 33290
Parlaments@@ 33288
Blatt@@ 33286
wang 33282
schiffe 33274
bus 33260
Team@@ 33256
Licht 33255
schrif@@ 33253
Kombination 33252
prak@@ 33248
beendet 33240
ermöglichen 33239
Insbesondere 33229
ees 33228
Rab@@ 33222
Ori@@ 33212
ausgestrahlt 33212
Dat@@ 33207
Himmel@@ 33206
ingt 33206
stellungen 33200
struktur@@ 33199
Garten 33193
ogenen 33192
Reiches 33184
Verteidigungs@@ 33180
Chin@@ 33179
Priester 33178
1815 33175
Albrecht 33172
Entfernung 33172
Kopf@@ 33163
mil@@ 33157
1862 33153
Mir@@ 33141
Tom@@ 33140
Einzel 33127
tau@@ 33126
Wohl@@ 33121
1877 33116
angeleg@@ 33114
ement 33113
Kanal 33107
tner 33105
ierenden 33102
Zo@@ 33094
Fernsehserie 33091
Pokal@@ 33085
Online 33080
ao 33076
ester@@ 33068
wissenschaftlicher 33057
20@@ 33051
Allgemeinen 33046
Ep@@ 33046
gehenden 33045
Prix 33037
Wich@@ 33036
1849 33031
hierbei 33027
Hause 33026
Design 33020
gewähr@@ 33017
Bab@@ 33014
gem 33008
Macht@@ 33007
rennen 32999
Stat@@ 32998
Famili@@ 32994
Hard@@ 32994
n. 32994
Texas 32986
ags 32975
ühr@@ 32973
eden 32965
flan@@ 32959
angebracht 32954
Cur@@ 32948
Sekunden 32942
Kabinett 32933
bindung 32933
frem@@ 32927
Stör@@ 32926
Plätze 32923
verkehr@@ 32922
leistungs@@ 32921
Neustadt 32920
esse 32918
Antonio 32911
gab@@ 32902
enför@@ 32898
Bör@@ 32896
Hauptrolle 32888
Kommandeur 32885
Herausgeber 32881
besitz 32878
schwe@@ 32874
Seinen 32872
Thüringen 32872
Graz 32868
Spieler@@ 32863
Dach 32862
eingeb@@ 32861
Kran@@ 32855
Magazin 32850
benö@@ 32847
trafen 32847
Amsterdam 32841
derung 32840
dig@@ 32833
ike 32833
Lokomotiven 32832
lieg@@ 32832
Vul@@ 32820
Mecklenburg 32817
Regionalliga 32815
schreiben 32813
Profess@@ 32800
Maschine 32797
Biografie 32792
Cam@@ 32786
sho@@ 32779
trit@@ 32775
viertel 32769
insel 32764
Drittel 32761
ells 32759
Bericht 32750
begrenzt 32747
Gle@@ 32743
enten@@ 32742
beam@@ 32740
entsprechende 32723
dies@@ 32708
kunst 32706
verstärkt 32703
low 32698
gol@@ 32684
jen@@ 32679
engagierte 32676
gegliedert 32675
54 32671
Und 32670
wäl@@ 32670
Niederlanden 32667
rates 32666
achtet 32661
jahre 32655
Staates 32633
kraft@@ 32628
dien@@ 32624
stanz 32620
Dür@@ 32616
Hä@@ 32603
ont@@ 32598
teln 32597
Vis@@ 32592
hafte 32578
seg@@ 32578
Journalist 32576
isse 32567
Quer@@ 32564
seither 32562
Suche 32561
halle 32561
heimer 32560
solchen 32557
samm@@ 32556
Hau@@ 32555
reiste 32553
standes 32549
G. 32545
hör@@ 32542
setz@@ 32538
Partner 32532
angeh@@ 32524
fas@@ 32506
kin 32497
arischen 32494
Schreib@@ 32492
Auto 32490
ome 32489
kW 32488
Dich@@ 32486
maßen 32472
ungsin@@ 32468
adel@@ 32463
oss 32461
soziale 32459
Kamp@@ 32450
strateg@@ 32445
Stimme 32444
Menge 32440
archä@@ 32434
Landgemeinde 32430
altar 32423
Fraktion 32421
samt 32420
Dampf@@ 32402
Sav@@ 32397
zweier 32389
brachten 32371
Technischen 32368
pers 32366
Wehrmacht 32357
höhere 32354
Lee 32351
Ris@@ 32346
entwickelten 32334
Viol@@ 32320
Übernahme 32317
gün@@ 32314
Autor@@ 32305
mut 32287
Pläne 32282
Justiz@@ 32278
ua 32272
Hochschul@@ 32270
Unabhängigkeit 32269
Hun@@ 32262
projekt 32248
Gefang@@ 32247
Komit@@ 32246
musik@@ 32245
entschieden 32244
las@@ 32240
Veränderungen 32231
offenen 32227
ofs 32222
eri@@ 32217
wander@@ 32217
Projekte 32216
Ran@@ 32213
orten 32209
leisten 32208
nig 32207
fahrts@@ 32206
uns 32206
rund@@ 32202
übte 32202
field 32194
sequ@@ 32194
stehende 32193
Karlsruhe 32191
durfte 32190
igsten 32188
ungsh@@ 32182
andte 32181
Sc@@ 32180
änderte 32178
infolge 32175
pan@@ 32171
gende 32168
Erweiterung 32163
ographie 32162
stedt 32156
56 32155
breit@@ 32155
Ausstellungen 32145
Österreich@@ 32143
Altstadt 32140
e- 32130
Jungen 32121
Standard 32117
Darmstadt 32116
Exper@@ 32115
flü@@ 32109
− 32103
Nationen 32092
position 32091
mittlere 32078
weis 32078
kt@@ 32077
Siegen 32071
ic 32070
Management 32066
Margar@@ 32062
ting 32059
spät@@ 32048
Elek@@ 32041
fang 32040
ards 32034
Partien 32032
Rum@@ 32031
Göt@@ 32024
typ@@ 32020
Arbeiter 32013
Assistent 32009
öch@@ 31998
use 31996
Spor@@ 31988
eberg 31984
Gipfel 31982
agert 31974
massi@@ 31960
Chron@@ 31938
Königs@@ 31930
Auß@@ 31923
Güter 31909
Olympi@@ 31908
Hugo 31902
Spek@@ 31899
größer 31899
Energi@@ 31894
KZ 31876
legi@@ 31875
prozess 31864
prüf@@ 31859
Charakter@@ 31858
Abstand 31857
chung 31856
platten 31844
Wohnung 31829
Co. 31827
Leichtathletik 31824
enheit 31806
verbindung 31801
priv@@ 31787
igte 31782
vers 31773
dende 31771
Schwan@@ 31767
Medaille 31763
version 31762
Flügel 31756
Nag@@ 31756
definiert 31756
Botschafter 31753
Physik 31745
Wesentlichen 31739
regel@@ 31736
entwickeln 31726
Tauf@@ 31709
herrschaft 31691
staaten 31689
gezählt 31683
Dan@@ 31677
ink@@ 31666
theoreti@@ 31664
elektr@@ 31660
ugen 31657
sit@@ 31648
Tom 31638
Mechan@@ 31635
Besucher 31630
andt 31622
außer@@ 31620
ings@@ 31618
vorgestellt 31617
Beiträge 31616
bot@@ 31616
möglichst 31615
ny 31610
Pro 31604
Tempel 31598
rhein@@ 31595
Hill 31590
einst 31586
handel 31579
Zahlen 31568
erfolgten 31560
schied@@ 31550
Kandidaten 31539
bro@@ 31527
mol@@ 31522
yp@@ 31522
lei 31521
Mission 31503
Tochter@@ 31495
Saisonende 31486
Offizier 31474
begleitet 31472
zugänglich 31471
bün@@ 31456
schwan@@ 31447
Donau 31444
owitsch 31443
bür@@ 31441
ograph@@ 31441
Minute 31432
Hus@@ 31431
esses 31427
vorbei 31425
Mö@@ 31419
Ju@@ 31418
hier@@ 31415
Klin@@ 31407
Gefängnis 31392
Besatzung 31387
bereit 31386
höher 31385
Stern 31377
53 31374
wissenschaftler 31373
Besonder@@ 31365
Inh@@ 31354
itäten 31350
brechen 31347
Kommando 31339
Kais@@ 31325
Orchester 31319
Oscar 31315
Milch@@ 31307
Anspruch 31305
Geschichts@@ 31299
Bildhauer 31298
Stadtr@@ 31298
bund 31287
schnitte 31287
e. 31286
mess@@ 31281
Malerei 31268
Gewinn 31267
tem@@ 31260
entlicher 31255
viel@@ 31255
ott 31253
fahrer 31249
Ü@@ 31249
Promotion 31246
affen 31243
lem 31242
Flotte 31241
traditionellen 31240
terin 31232
kultur 31224
Baron 31218
Stich@@ 31212
DE@@ 31208
tür@@ 31203
Stücke 31196
Al 31192
Zäh@@ 31191
baum 31169
bahnhof 31167
ines 31148
dienten 31144
Instrum@@ 31141
Frag@@ 31136
offen 31135
erforder@@ 31133
1863 31124
sexu@@ 31121
Klein 31114
Griechenland 31104
landes 31104
Augsburg 31102
Krone 31097
gestr@@ 31093
möglichen 31090
arm@@ 31086
mw@@ 31086
Feder@@ 31082
städtischen 31080
befes@@ 31072
Vir@@ 31066
verlängert 31060
Schnell@@ 31056
Anhänger 31055
stat@@ 31054
Best 31052
Eingang 31050
erische 31043
eu@@ 31041
errichteten 31039
eigenständige 31031
04 31030
Venedig 31027
Vorkommen 31020
Funde 31014
Petr@@ 31011
orienti@@ 31007
Master 31006
gebietes 31005
schles@@ 31005
Front 31002
72 31000
stimmung 30986
verlauf 30982
funden 30980
innung 30974
afft 30970
verboten 30969
üc@@ 30967
einheiten 30964
mel 30961
1800 30955
evangelischen 30955
F. 30951
Erwer@@ 30950
stil 30948
Folge@@ 30943
ati 30943
solcher 30939
Komponisten 30936
analy@@ 30936
Cre@@ 30930
lob@@ 30928
eber 30925
ieß@@ 30925
trieben 30922
derte 30919
übernehmen 30910
000 30907
führende 30904
äger@@ 30898
onal@@ 30897
Planung 30891
fließ@@ 30890
R. 30884
reifen 30877
Spre@@ 30869
Major 30868
Rol@@ 30859
Awards 30851
Ta@@ 30844
Van 30843
Alters@@ 30840
gestellte 30839
Sig@@ 30835
arbeiter 30834
Ensemble 30814
ask@@ 30812
57 30804
spann@@ 30798
Prinz 30797
Berat@@ 30794
bergs 30792
Anwesen 30791
Bauwerk 30791
Netz 30791
tra 30786
Num@@ 30784
sta@@ 30780
Religions@@ 30779
Sab@@ 30779
dänischen 30778
afen 30774
Ägypten 30768
kombin@@ 30765
tens@@ 30764
Gö@@ 30755
drei@@ 30748
Junioren@@ 30744
eingeweiht 30726
Hart@@ 30724
arbeiteten 30718
Brief 30717
Eh@@ 30716
front 30711
wege 30702
militärische 30699
Schi@@ 30697
sex@@ 30694
Auswär@@ 30692
druc@@ 30691
keln 30691
ungen@@ 30685
aill@@ 30671
ätzen 30664
könnten 30648
gewal@@ 30647
Freiheit 30646
zel@@ 30643
go 30637
innen@@ 30636
ältere 30636
tes@@ 30613
Expedition 30606
produz@@ 30604
bezeichnung 30602
Zur@@ 30600
freiwil@@ 30599
Krankheit 30593
anerk@@ 30554
betreibt 30553
Domin@@ 30551
Liber@@ 30550
kämpfen 30549
gedreht 30548
Ferner 30543
seitig 30542
tschech@@ 30542
größe 30536
spiegel 30525
tret@@ 30524
Milliarden 30522
Rathaus 30518
zeichnen 30518
Polizei@@ 30517
beschädigt 30516
verteilt 30504
verletz@@ 30502
Trin@@ 30496
Woh@@ 30496
probl@@ 30491
Drei@@ 30488
rati@@ 30488
schätz@@ 30482
spezi@@ 30473
sub@@ 30472
ary 30469
Ehren 30464
bekann@@ 30460
Dial@@ 30434
schau@@ 30431
Gewalt 30428
1856 30424
haber 30421
wettbewerb 30419
lings@@ 30418
länger 30411
diert 30408
maler 30407
Co 30404
Force 30393
lek@@ 30390
Dissertation 30386
edr@@ 30386
frühere 30379
Drehbuch 30376
tif@@ 30367
bewoh@@ 30356
haften 30353
Altar 30348
tende 30348
mehrmals 30347
Bou@@ 30342
Ereignisse 30336
Rev@@ 30335
arzt 30332
Kro@@ 30330
wandte 30327
paar 30323
inneren 30317
Publik@@ 30312
erlaubt 30308
Eur@@ 30305
bekanntesten 30303
alter@@ 30301
erkran@@ 30301
Geist@@ 30298
geblieben 30298
Eck@@ 30285
ech 30285
Blick 30280
zusätzliche 30275
spur@@ 30259
meister@@ 30257
doppel@@ 30240
staatliche 30234
alien 30230
Meinung 30228
Grad 30225
Besitz@@ 30221
Tradi@@ 30220
ständen 30219
Auftritt 30218
Frau@@ 30218
Methoden 30214
ebte 30211
tam@@ 30208
AS 30206
übersetzt 30200
deutschland 30197
erho@@ 30184
Geburt 30183
sonst 30181
Spät@@ 30180
Dichter 30177
Was@@ 30176
gas@@ 30171
Zeh@@ 30161
Rob@@ 30160
Freunde 30156
Gesang 30146
anerkannt 30142
ehren@@ 30139
nde 30133
Geschäftsführer 30132
Informations@@ 30131
Boston 30129
our 30123
häuser 30122
ausgebildet 30117
rel@@ 30113
riffen 30111
horn 30104
tend 30098
Vier 30094
Modus 30084
bin 30064
erzi@@ 30060
Vil@@ 30058
Johann@@ 30049
radi@@ 30047
Forsch@@ 30045
hab@@ 30045
beeinflusst 30043
Wissenschaftler 30040
med@@ 30031
Weltmeister 30025
Je 30022
big 30021
Nachfolge 30007
orte 30000
Freil@@ 29987
gut@@ 29984
systeme 29984
Fassung 29983
Irland 29981
schir@@ 29979
q 29967
other@@ 29963
Vorstands@@ 29961
Acker@@ 29955
tags@@ 29935
leute 29926
westliche 29925
Mannheim 29903
62 29889
herr 29888
Wege 29886
notwen@@ 29874
umb@@ 29874
hor@@ 29873
Gefahr 29868
artigen 29864
Viertel 29857
boden 29856
behalten 29855
Mündung 29842
Gebäudes 29829
Tä@@ 29829
beteiligte 29828
Dortmund 29824
gedr@@ 29823
Helmut 29820
öß@@ 29817
ond@@ 29813
Unterschied 29810
Kalk@@ 29809
hofen 29806
Amt@@ 29799
ft@@ 29781
Vorgänger 29780
wachsen 29773
angeschlossen 29769
Kindheit 29763
Astronom@@ 29762
Punk@@ 29759
fällen 29743
Systems 29742
Koordin@@ 29738
ibe 29733
Fres@@ 29732
erfolgreichen 29732
gesprochen 29729
lech@@ 29727
58 29720
Marien@@ 29716
Kupfer@@ 29710
Register 29709
läuft 29708
Vorgänger@@ 29700
chi 29700
Play 29697
Verhandlungen 29694
überliefert 29693
kosten@@ 29692
Tourismus 29689
Ty@@ 29689
ilien 29686
1840 29683
emein@@ 29679
italienischer 29676
ord 29671
Platz@@ 29670
Pariser 29659
senen 29655
NGC 29653
Rumänien 29652
region 29651
Pos@@ 29646
unterschieden 29640
Oberfläche 29628
Normal@@ 29627
angek@@ 29614
Lem@@ 29610
wiederholt 29610
ulation 29603
stattdessen 29601
Exemplare 29591
Revol@@ 29590
leid@@ 29582
let 29581
zuf@@ 29571
Morgen 29567
gelangen 29560
Böh@@ 29559
Orch@@ 29559
gestaltung 29555
engeb@@ 29552
Rostock 29551
ünden 29550
ogene 29548
richtete 29542
ergänzt 29541
fein@@ 29533
krise 29530
Blü@@ 29528
beding@@ 29526
Qualität 29524
Cap@@ 29522
Öff@@ 29518
Ev@@ 29515
Parti@@ 29515
anc@@ 29509
seits 29508
Les 29507
Herren@@ 29506
ahlung 29503
Obj@@ 29494
Wechsel@@ 29489
Rede 29488
Bestand 29487
Schau@@ 29484
gh@@ 29477
echn@@ 29476
Service 29473
stag 29473
strafe 29472
Hitler 29465
digit@@ 29463
Kilometern 29462
besonderen 29460
präg@@ 29452
lo 29443
festgelegt 29441
anus 29430
Breslau 29421
koh@@ 29419
Sebastian 29418
evangelische 29408
parte@@ 29403
Kreises 29400
Hon@@ 29391
Form@@ 29385
Flächen 29382
å@@ 29380
Phys@@ 29379
Barbara 29378
Hierbei 29377
Nationalsozialisten 29374
erheblich 29371
enthal 29364
05 29356
71 29356
orium 29355
Vit@@ 29353
liger 29351
hielten 29349
Widerst@@ 29345
Nachfol@@ 29342
jähriger 29340
pel 29333
Milli@@ 29332
Computer@@ 29331
islam@@ 29331
freund@@ 29328
orden 29323
Jena 29315
urg 29314
Mailand 29305
od 29301
Terr@@ 29298
Tabelle 29297
Singles 29294
sicherte 29293
profession@@ 29291
Führungs@@ 29285
letztlich 29284
ässer@@ 29280
Barcelona 29278
1859 29277
Südafrika 29268
ällig 29264
kanad@@ 29262
ima 29250
chn@@ 29243
ock@@ 29241
Schiffs@@ 29240
Herzog@@ 29220
schicht 29219
jahr@@ 29218
Objekt 29216
Big 29214
Klassi@@ 29209
Klavier@@ 29209
Schil@@ 29206
Protest@@ 29205
aktuellen 29204
Englisch 29199
Mön@@ 29194
benötigt 29194
Will@@ 29193
lis 29191
Lebensweise 29188
NHL 29185
08 29184
geleg@@ 29183
tei 29182
Übergang 29182
Abgeordneten 29177
Fak@@ 29176
sson 29174
Richt@@ 29170
schützen 29166
öp@@ 29164
verletzt 29158
Ursprung 29156
Amerika 29152
Unterricht 29148
Herzogtum 29141
dam@@ 29141
59 29138
sbach 29138
niedr@@ 29126
Williams 29125
hü@@ 29122
Imp@@ 29121
Jones 29121
engl 29101
alisi@@ 29091
Konzerte 29087
Bord 29086
gliederung 29083
Tim@@ 29082
blich 29080
eis@@ 29080
üg@@ 29076
Werte 29073
tenberg 29072
Bul@@ 29071
63 29069
wa@@ 29067
wechseln 29066
Baum@@ 29062
erne 29061
66 29051
Jähr@@ 29048
enter 29047
kompon@@ 29047
verzeichnet 29041
kommerzi@@ 29036
reag@@ 29030
Prinzip 29029
Aussage 29025
kum@@ 29025
Verd@@ 29021
Konstruktion 29018
beschrieb 29018
igem 29018
Archä@@ 29016
Ausbildungs@@ 29016
lieren 29016
private 29016
Tokio 29012
entw@@ 29012
schau 29012
ichts 29008
Freiwil@@ 29004
kus@@ 28995
You 28988
1806 28986
unterschiedlich 28985
kandid@@ 28984
Möglichkeiten 28972
enzi@@ 28971
bereiche 28956
kir@@ 28949
Heimatstadt 28947
empf@@ 28943
Gottes 28938
trans@@ 28936
maximal 28931
mittelalterlichen 28925
Matthias 28911
ance 28910
zeugung 28904
glau@@ 28902
Leopold 28899
allgemeinen 28895
öger@@ 28877
Verteidigung 28873
Wetter@@ 28873
weiler 28872
09 28857
isten@@ 28857
dich@@ 28851
nutzte 28849
then 28842
diesmal 28841
unterstützen 28839
Lübeck 28831
burgischen 28823
Jack 28822
beobachtet 28814
kanadischen 28813
bogen 28800
Franzosen 28795
ais 28783
illa 28782
enhof 28777
ental 28773
flug 28772
Beam@@ 28768
Brem@@ 28766
etzung 28762
partner 28760
übergeben 28754
ermittelt 28750
figur 28740
Qualifikations@@ 28734
uter 28732
ib 28731
Nikolaus 28728
Kie@@ 28720
bene 28716
Columbia 28715
ju@@ 28712
anden 28710
überw@@ 28706
Bra@@ 28704
schil@@ 28700
afrikanischen 28692
Diesel@@ 28688
Maur@@ 28678
sagt 28672
wig 28669
denkmale 28666
errang 28661
bekommen 28646
Umbau 28635
örtlichen 28634
türkischen 28633
nicht@@ 28627
ES@@ 28625
ensis 28614
Kunden 28604
sil@@ 28604
96 28597
East 28595
speziell 28594
tels 28594
Persönlichkeiten 28590
tus 28586
versi@@ 28579
Reformation 28576
Vill@@ 28573
gerichts@@ 28570
ental@@ 28568
Somit 28563
Premierminister 28560
Hag@@ 28555
Weiler 28554
aven 28552
ente@@ 28545
verd@@ 28532
Schwarz 28531
tags 28523
gu@@ 28521
Mount 28519
zi 28515
Höchst@@ 28512
Madrid 28509
politischer 28508
Bewer@@ 28506
arg@@ 28505
europäische 28499
yl 28499
ärz@@ 28498
Rücktritt 28497
Corps 28487
sam 28484
Bands 28480
terung 28475
Strecken 28470
Ansicht 28468
saß 28466
zung 28444
Verlängerung 28443
Republik@@ 28440
yst@@ 28430
geist@@ 28429
läufer 28428
Miner@@ 28427
Unternehmer 28427
ökonom@@ 28422
born 28418
kreise 28415
Völker@@ 28413
ligisten 28411
Kamera 28404
Rock@@ 28397
stor@@ 28365
organisierte 28349
Interessen 28345
Erfin@@ 28343
Ander@@ 28342
hy@@ 28340
darstellt 28333
unbekannt 28321
Höhepunkt 28316
Umsetzung 28315
engen 28298
förmig 28297
Kern 28292
Med@@ 28292
pfe@@ 28292
verlang@@ 28280
Mann@@ 28278
Fünf@@ 28274
geringen 28265
Fassade 28261
ausgest@@ 28259
untersucht 28257
serien 28250
Alte 28246
ides 28238
regionalen 28229
veranst@@ 28227
Az@@ 28226
Konstruk@@ 28224
zusammeng@@ 28221
App@@ 28219
unternahm 28219
Hohen@@ 28210
Fall@@ 28205
Eins@@ 28203
Rü@@ 28203
ense@@ 28200
eingemeindet 28197
gelegen 28197
erinnen 28195
Nachkommen 28187
parks 28187
einfachen 28182
gens 28182
Spezi@@ 28177
Verbands@@ 28174
Emil 28169
Bachelor 28167
Europas 28161
Beteiligung 28160
beschreibung 28152
Weiß 28148
kan 28142
reichte 28141
Streit 28139
ierende 28139
Initi@@ 28138
Besuch@@ 28135
Gewicht 28131
Res@@ 28125
trop@@ 28120
Ring 28119
ji 28118
thal 28101
ín 28096
ap 28091
beginn 28091
ends 28089
gestorben 28085
Presse 28082
5.000 28071
Bauten 28067
Jar@@ 28064
Diplom 28058
pon@@ 28058
Wo@@ 28053
edern 28051
Joe 28049
diverse 28046
roten 28046
handeln 28045
team 28044
jüngeren 28038
Rod@@ 28033
professor 28030
Modell@@ 28029
Taus@@ 28026
67 28019
kunden 28018
Bauern@@ 28013
größtenteils 28013
wak@@ 28012
mannschaften 28002
Zahn@@ 27998
knü@@ 27991
unterrichtete 27984
ähnlichen 27983
Brown 27982
prim@@ 27981
Synagoge 27978
qualifizierte 27973
druck@@ 27972
Wagner 27971
vorsitzender 27959
Mau@@ 27952
ständiger 27946
gearbeitet 27942
triebe 27936
Juan 27932
arti@@ 27932
Är@@ 27932
Rap@@ 27930
ungewöhn@@ 27926
alis 27924
igen@@ 27918
Saar@@ 27914
digte 27910
malen 27908
rats 27905
Edel@@ 27901
Pau@@ 27899
schwarzen 27895
1855 27888
Stock@@ 27883
letzter 27883
asien 27881
Stadtgebiet 27879
Positionen 27874
gefangen 27870
stufe 27870
ly@@ 27869
1857 27866
aufgegeben 27864
Umfang 27858
förder@@ 27857
ausgewiesen 27856
Militär 27851
kommenden 27845
Stationen 27843
Szenen 27840
Erhebung 27837
Bruch@@ 27834
täglich 27834
1854 27827
Grünen 27824
Gemarkung 27823
sechsten 27823
Priv@@ 27818
wichtiger 27818
Alpen 27813
Varianten 27811
Feuer 27803
hundert 27801
saal 27798
unterteilt 27798
Albums 27797
dreimal 27791
1830 27789
Medaill@@ 27788
andererseits 27786
modell 27783
Premiere 27777
Präs@@ 27775
teilt 27765
Lein@@ 27762
e.V. 27761
Abt 27755
Gegenwart 27754
Glocken 27749
Männern 27744
leger 27735
Eb@@ 27734
unterstellt 27730
abhängig 27725
datiert 27724
Bundesstraße 27716
Fur@@ 27713
eta 27708
Küsten@@ 27707
Goldmedaille 27704
entlichen 27703
walt 27703
üf@@ 27699
Gefe@@ 27696
Seitdem 27689
P. 27686
ris@@ 27679
Gat@@ 27678
Geden@@ 27678
61 27673
Evangelischen 27664
essel 27662
vertrieben 27659
Regeln 27657
tiere 27654
derselben 27651
Inform@@ 27649
ganz@@ 27646
Lös@@ 27645
Series 27634
Schweiz@@ 27632
Nationalpark 27626
Pian@@ 27619
beider 27618
Sl@@ 27616
gelöst 27613
que 27611
fenster 27598
Virginia 27588
istr@@ 27588
sieger 27575
bemüh@@ 27571
Wolf@@ 27569
Arnold 27557
68 27549
Kör@@ 27547
ney 27547
öne 27543
Plänen 27541
HC 27539
öfe 27536
einerseits 27534
statisti@@ 27534
Schmi@@ 27533
Original@@ 27532
Kollegen 27530
anen 27530
genehmig@@ 27529
beein@@ 27523
Herr 27522
öm@@ 27511
Definition 27510
Potsdam 27508
krimin@@ 27508
yn 27507
Kapitän 27505
mp@@ 27501
Tot@@ 27500
Kriegsgefang@@ 27497
Eber@@ 27495
Zwar 27495
Gottfried 27490
Bisch@@ 27489
ble@@ 27485
inus 27481
Laub@@ 27479
Meyer 27479
itzen 27478
tums 27472
hef@@ 27471
ri 27469
ird@@ 27465
Research 27461
Sir 27460
Fass@@ 27456
hängt 27454
Jurist 27447
thaus 27445
eo 27437
Bucht 27429
ög@@ 27426
leiten 27422
tief 27422
stellvertret@@ 27419
Rand@@ 27418
abgelöst 27415
3000 27413
stif@@ 27407
Wag@@ 27403
positiv 27397
teri@@ 27393
mögliche 27391
höh@@ 27389
Einsätzen 27380
European 27377
Innerhalb 27377
ots 27377
Quell@@ 27376
Navy 27375
ucht 27373
FA 27372
1858 27368
07 27367
lossen 27367
fuß@@ 27362
win@@ 27357
UN@@ 27348
Distrik@@ 27347
biet 27342
leutnant 27338
betre@@ 27336
ume 27330
Var@@ 27326
ahlt 27326
üche 27324
erlebte 27316
ams 27314
Zweiter 27304
Taf@@ 27302
spar@@ 27299
Now@@ 27298
EM 27293
geschäft 27284
angel@@ 27280
1852 27278
Botschaft 27278
Harry 27278
theim 27277
Kammer 27274
Nahrungs@@ 27271
Tschechien 27271
Witwe 27269
initi@@ 27258
Rechn@@ 27257
Handel@@ 27250
Hex@@ 27249
ünd@@ 27247
Regensburg 27241
maschinen 27240
Ret@@ 27238
angez@@ 27235
sene 27235
1803 27232
76 27231
umgewandelt 27227
Benutz@@ 27209
Art. 27187
Tol@@ 27185
etc. 27183
vertret@@ 27180
train@@ 27178
aktionen 27176
Bun@@ 27174
itt 27174
Telef@@ 27173
Petersburg 27167
fern@@ 27167
Lord 27162
ebäude 27160
Dur@@ 27159
walde 27158
Schottland 27151
Athen 27145
Typs 27144
Luc@@ 27142
Wohng@@ 27141
sang 27138
ffer 27135
kab@@ 27135
Love 27130
Jahrzehnten 27127
François 27126
ächer 27124
Bundeswehr 27118
fertigte 27118
offenbar 27117
Frucht@@ 27113
hell@@ 27113
wählte 27100
Dieter 27099
Bahnhof@@ 27098
sichtbar 27094
angs 27093
Bibliothek@@ 27092
bemerk@@ 27092
sing@@ 27091
riff 27087
fahrten 27077
ine@@ 27076
Hall@@ 27075
licherweise 27073
olz 27064
Publikationen 27063
Kad@@ 27061
verlauf@@ 27060
erforderlich 27057
aufgeteilt 27053
gli@@ 27050
Sinn 27047
beschrän@@ 27043
alle@@ 27041
Museums 27032
zte 27029
Trennung 27028
IV 27025
ith 27024
israel@@ 27020
Monuments 27014
val@@ 27013
loster 27012
reisen 27009
eten@@ 27007
Peter@@ 27005
trum 27003
Rot 26997
symbol@@ 26994
Verkauf@@ 26990
Rechtsanwalt 26987
Bereiche 26980
geändert 26979
Jedoch 26972
Bauer@@ 26965
schön@@ 26960
sky 26960
gründeten 26956
iben 26956
olen 26956
menge 26950
Tunnel 26949
Rit@@ 26941
benen 26941
maschine 26941
vermutet 26934
Zuvor 26933
dauer 26932
angs@@ 26929
reibung 26929
eich@@ 26928
Florida 26926
tier 26926
alisch 26921
ć 26917
Weih@@ 26904
umgeb@@ 26898
scher@@ 26890
urm 26889
Streitkräfte 26885
Emp@@ 26884
öf@@ 26883
Wei@@ 26880
sorgte 26877
eint 26875
nec@@ 26875
Wäh@@ 26872
eb 26864
Carolina 26863
Ari@@ 26860
verkehrs@@ 26860
inst@@ 26858
stab 26855
bedeutendsten 26847
Mauer@@ 26845
wehr 26842
Auftritte 26839
Nas@@ 26839
Earl 26836
Spitzen@@ 26834
Studenten@@ 26832
One 26828
Bank@@ 26821
älter 26814
ffs 26813
Sym@@ 26804
Sex@@ 26794
eleg@@ 26792
Deshalb 26783
amerikan@@ 26783
maßgeblich 26781
eri 26774
Championship 26759
ero 26759
vention 26758
Dynastie 26757
Innsbruck 26755
aturen 26752
enkt 26752
polnische 26749
zeitschrift 26745
ungstr@@ 26740
Mund@@ 26739
Fels@@ 26735
wechselt 26724
Uhr@@ 26722
Konflikt 26714
integriert 26714
sinn@@ 26714
NS@@ 26711
Träger 26711
DVD 26703
wichtigste 26695
Kinos 26689
materi@@ 26687
anger 26684
kämp@@ 26684
Tempel@@ 26683
konkre@@ 26677
Neu 26671
gerufen 26671
athlon 26670
ä 26669
White 26658
gehende 26651
plätzen 26650
fassen 26648
Inneren 26647
akon@@ 26644
syn@@ 26644
Ausgaben 26637
frau 26634
schlus@@ 26634
kunft 26630
Systeme 26625
Aufsichts@@ 26623
Gil@@ 26622
gekehrt 26621
Neuseeland 26620
Schwierigkeiten 26617
Tageb@@ 26617
sieb@@ 26617
wollten 26613
kum 26611
onischen 26610
aku@@ 26605
Sprecher 26597
ländische 26591
Karte 26590
kurrenten 26590
vorhandenen 26585
Gir@@ 26565
Schneider 26565
Wider@@ 26564
99 26561
Leipziger 26558
stalt 26553
reib@@ 26550
Ernennung 26548
Erscheinung 26547
Kontr@@ 26533
wort 26532
anien 26531
Mittler@@ 26518
Persön@@ 26518
owa 26518
entspringt 26517
Armen@@ 26515
Samuel 26513
Demonstr@@ 26512
Cat@@ 26507
betriebe 26507
asser 26505
bundes@@ 26498
ergeben 26496
Schloss@@ 26487
Adels@@ 26477
enstr@@ 26475
Arme@@ 26471
alteten 26471
Versionen 26470
low@@ 26470
Western 26459
eingebaut 26454
Eigentümer 26453
Marin@@ 26452
Park@@ 26450
deutet 26448
stör@@ 26445
ali 26444
Abend@@ 26441
Beitrag 26440
Transport 26440
Wissen 26440
zusamm@@ 26435
Pet@@ 26432
mir 26428
1845 26427
zeugt 26419
wäh@@ 26418
gegebenen 26413
Insel@@ 26412
Landkreises 26412
direkte 26412
iehen 26402
sig 26398
indischen 26397
88 26396
inszen@@ 26395
einger@@ 26392
ava 26388
Argentinien 26380
sofern 26373
Zwer@@ 26368
Jacques 26360
geld 26359
pot@@ 26357
74 26354
zuführen 26347
ail 26346
ro 26345
awa 26343
Wales 26328
1818 26325
Original 26319
beig@@ 26315
rand 26315
lar 26309
Analyse 26306
nien 26305
Din@@ 26300
ässig@@ 26296
Weltr@@ 26295
haupt@@ 26295
gefördert 26294
estell@@ 26293
mischen 26289
verbreit@@ 26288
Rechtswissenschaften 26286
tun 26283
sichten 26274
osa 26271
xe 26267
lein 26265
reduziert 26259
Felix 26248
erfolgen 26247
direkten 26237
Mittelpunkt 26235
Erzäh@@ 26227
St.-@@ 26225
menschlichen 26225
Ehemann 26220
schwier@@ 26213
Blu@@ 26206
außerord@@ 26205
Vide@@ 26202
Urkunde 26199
Änderungen 26197
sterben 26189
rekt 26188
Abend 26186
iko 26186
Regen@@ 26181
ihen 26166
gri@@ 26153
alisierte 26151
Scott 26150
brenn@@ 26149
Studiums 26148
rumän@@ 26144
kanz@@ 26141
ereien 26140
kriti@@ 26138
98 26137
Geschwindigkeit 26137
atus 26137
IC 26136
Mauer 26133
Anne 26126
eigentlichen 26125
Cu@@ 26123
Ten@@ 26123
ania 26122
geschütz@@ 26121
gro@@ 26118
besitzer 26117
eign@@ 26117
Pu@@ 26111
aux 26104
engesch@@ 26098
wei@@ 26098
zten 26095
Oze@@ 26091
Mem@@ 26085
fangen 26082
änen 26078
1851 26069
kündigte 26069
But@@ 26067
amt@@ 26063
ank@@ 26063
unbe@@ 26062
yer 26054
kritisiert 26049
Vorsitzende 26045
ägyp@@ 26042
tnissen 26040
erstr@@ 26038
prot@@ 26037
Komposition 26036
Nik@@ 26036
getr@@ 26036
vergleich@@ 26036
urg@@ 26033
Herz 26031
stag@@ 26024
ʿ@@ 26010
engagiert 26008
bedient 26007
uld 26006
werks@@ 26001
Kathedrale 25990
cker 25988
owo 25984
3,@@ 25975
Tabellen@@ 25972
pul@@ 25972
weich@@ 25971
bezüglich 25968
Laur@@ 25961
Pon@@ 25957
ähren 25953
ucht@@ 25951
spezif@@ 25945
kürz@@ 25938
US@@ 25929
Horst 25928
Sonne 25927
Kolonial@@ 25925
Heer 25922
verbindungen 25922
Hügel 25920
izen 25917
Jacob 25913
eingetragen 25902
män@@ 25892
Waff@@ 25890
grafen 25890
klar@@ 25890
Bis@@ 25881
Meg@@ 25881
Massachusetts 25880
achsen 25880
besucht 25878
Einsätze 25877
kurzer 25877
sender 25877
philosoph@@ 25876
Ersatz@@ 25872
stattfand 25867
sburger 25866
silber@@ 25862
fried@@ 25856
euch@@ 25852
Autobahn 25851
Siedlungen 25839
elegt 25835
frei@@ 25832
Angeb@@ 25831
gefertigt 25827
Verk@@ 25826
dokum@@ 25826
dist@@ 25824
ms@@ 25817
enswert 25815
Schritt 25805
kür@@ 25802
Anw@@ 25796
zugunsten 25796
Gör@@ 25793
Reh@@ 25791
Kaufmann 25783
verpasste 25781
Gitarre 25779
Lot@@ 25778
til@@ 25776
1813 25773
ehren 25770
oto 25770
verbände 25770
gle@@ 25766
Veranstaltung 25755
Bergen 25753
identi@@ 25753
endi@@ 25749
Giovanni 25742
voneinander 25741
Kath@@ 25738
Lehrstuhl 25738
Onkel 25733
starben 25730
bedeutenden 25728
digten 25728
ater@@ 25726
kämpfte 25718
Katharina 25716
1847 25709
ham 25708
Provinzen 25705
australischen 25704
Marburg 25700
Erstmals 25697
alog@@ 25679
dat@@ 25678
völ@@ 25676
Existenz 25675
enfalls 25673
ift 25669
sat@@ 25666
Begriffsklärung 25665
Diplom@@ 25665
brand@@ 25665
autor@@ 25657
berichtete 25651
möchte 25651
Österreichischen 25645
kunst@@ 25644
Central 25641
artig 25641
sü@@ 25640
historiques 25637
Pennsylvania 25632
Castle 25631
Spir@@ 25626
persönlichen 25621
geordnet 25618
sekretär 25612
May@@ 25611
chem@@ 25611
finanziellen 25606
Dun@@ 25605
nennen 25604
geschaff@@ 25603
höhe 25601
gerät 25597
ents 25593
Klu@@ 25590
ades 25590
heimischen 25590
L. 25589
ändler 25583
Versorgung 25580
Nordamerika 25578
zugelassen 25574
Army 25570
Rang@@ 25568
Dav@@ 25567
trenn@@ 25566
genutz@@ 25562
seln 25559
verlief 25558
Mör@@ 25556
gehör@@ 25554
verwendeten 25552
Angestell@@ 25550
Wiederauf@@ 25547
pädagog@@ 25547
Frequ@@ 25543
regionale 25542
Misch@@ 25537
freier 25535
lierte 25535
Französischen 25526
schreib@@ 25521
1816 25519
hierfür 25516
Dietrich 25513
modern@@ 25507
test@@ 25504
verstanden 25504
Trier 25503
Städ@@ 25502
92 25498
deutsch@@ 25493
Budapest 25491
Symp@@ 25491
weiße 25491
steigt 25487
Auswirkungen 25482
japanische 25482
Bom@@ 25480
Schö@@ 25480
ry 25479
uppe 25478
izi@@ 25477
verantwor@@ 25476
Instrument 25474
Hauptort 25473
Rosen@@ 25473
alli@@ 25468
einfache 25466
bergischen 25465
1846 25464
rechteck@@ 25453
Fürsten 25450
nochmals 25448
Einwohner@@ 25447
Doktor@@ 25446
ppen@@ 25444
englisch 25443
Ortsteile 25442
anne 25439
dienste 25438
enne 25434
imb@@ 25433
fähig 25431
Verdienste 25428
anschließenden 25421
griff 25418
Transport@@ 25409
umfangreiche 25405
Anders 25403
73 25402
Aug@@ 25402
1853 25400
Fo@@ 25399
ez 25392
put@@ 25392
Bill 25389
Innenstadt 25382
äche 25378
gehe@@ 25377
sprachen 25377
Zwisch@@ 25372
Korps 25370
zar@@ 25366
enzug 25365
Tisch@@ 25357
gesellschaften 25355
Strateg@@ 25351
stuf@@ 25349
daz@@ 25343
Spielern 25342
ring 25338
assung 25330
begren@@ 25326
Verlust 25322
Flugzeug 25320
Vorsitzenden 25319
Treffer 25311
äußeren 25309
Philosoph@@ 25308
kos@@ 25306
küh@@ 25300
Produzent 25298
110 25297
Ausbruch 25297
ausgewählt 25297
englischer 25294
via 25293
Cer@@ 25290
Damen 25290
cker@@ 25286
Zell@@ 25279
rad 25278
acker 25271
etti 25265
Flusses 25259
Aufmerksamkeit 25258
leistete 25257
kanal 25254
zell@@ 25253
zunehmen 25249
ichts@@ 25248
T. 25240
EP 25239
othek@@ 25236
tin@@ 25235
onym 25234
Box@@ 25231
Kardinal 25217
Dag@@ 25216
nunmehr 25215
atin 25211
filme 25210
iefert 25209
fiziert 25204
gebildeten 25202
geograph@@ 25200
werten 25190
ermordet 25182
Blas@@ 25179
Toren 25175
Kub@@ 25173
ikation 25171
Fär@@ 25170
einrichtungen 25164
77 25163
wieg@@ 25157
Berge 25154
trom@@ 25150
äb@@ 25149
Gang@@ 25144
kleines 25139
entdeckte 25138
gebirge 25134
Ans@@ 25133
lieferte 25132
wood 25132
etr@@ 25131
uchs@@ 25129
parti@@ 25127
Zerstörung 25126
Vik@@ 25124
Automobil@@ 25121
unser@@ 25116
Quadrat@@ 25115
geteilt 25114
abil@@ 25113
evangelisch 25112
wirtschaft@@ 25105
Kommand@@ 25097
fo@@ 25097
Span@@ 25092
histor@@ 25091
Ämter 25085
Leo 25081
Führer 25070
Mut@@ 25070
tierung 25070
æ@@ 25063
Ministerium 25062
ößen 25058
ę@@ 25057
Doppel 25055
natürlichen 25054
ding 25048
alar@@ 25041
existi@@ 25040
steinen 25029
eder 25028
Wid@@ 25027
Flor@@ 25026
fs@@ 25025
mär@@ 25024
afel 25022
Kritiken 25018
ota 25017
FDP 25016
St 25008
komman@@ 25007
Tir@@ 25001
mutter 25001
antwor@@ 24997
ey@@ 24993
lenden 24990
ays 24989
netz@@ 24987
Gebrauch 24986
Stadtrat 24980
lem@@ 24961
Hallen@@ 24952
üblichen 24950
Kapitel 24946
verfolgt 24946
bat@@ 24933
Produk@@ 24932
Cou@@ 24931
ec 24924
usw. 24924
Sekretär 24921
Strukturen 24921
sul@@ 24921
Bud@@ 24920
Aur@@ 24919
themati@@ 24917
Dsch@@ 24915
Konflik@@ 24915
Restaur@@ 24915
ergab 24915
Aktion 24913
abschnitt 24912
becken 24912
Bind@@ 24910
beeinflus@@ 24901
troffenen 24899
erstellt 24897
gebiets 24892
ennamen 24891
äuse 24884
angesch@@ 24882
Getre@@ 24877
Zeitschriften 24877
grundsätzlich 24873
Geist 24867
Linz 24864
km@@ 24863
Pflanz@@ 24862
ollen 24860
lossene 24859
Fir@@ 24857
São 24857
9,@@ 24855
Roth@@ 24853
Europäische 24849
93 24848
einfluss@@ 24836
under 24833
möglichkeiten 24830
Spielzeiten 24829
Prüf@@ 24828
ungarischen 24828
Bronz@@ 24825
dorfer 24819
besiedelt 24817
Weil 24813
Johnson 24812
78 24799
Haltung 24795
Hur@@ 24795
hart 24787
Liz@@ 24785
Kommunikation 24775
aute 24772
Victoria 24766
Fro@@ 24764
geplanten 24764
Karten 24757
trugen 24756
ith@@ 24753
É@@ 24753
achse 24746
net@@ 24746
ī@@ 24742
omen 24741
Samm@@ 24735
Flach@@ 24733
grenzen 24732
zweites 24730
zustän@@ 24728
graf 24726
Umwelt 24725
östliche 24725
Camp@@ 24719
char@@ 24717
skri@@ 24717
sämtliche 24716
ald 24715
ity 24714
anisch 24712
beginnen 24712
Bruno 24710
leich 24709
mt@@ 24709
dan@@ 24707
wör@@ 24695
gan@@ 24693
kup@@ 24692
Wiederaufbau 24689
utz 24688
restlichen 24677
ý 24677
iern 24667
graph@@ 24666
iki 24666
André 24660
förmigen 24660
Deck@@ 24657
ausgeb@@ 24655
zeichnungen 24654
Teuf@@ 24652
reformi@@ 24651
ix 24648
ny@@ 24648
Aff@@ 24636
Ideen 24634
alog 24633
voraus@@ 24633
ian 24630
ares 24627
verbr@@ 24627
wächst 24626
Blätter 24625
klein 24624
bezieh@@ 24618
ikum 24618
lösen 24617
Äl@@ 24615
Flam@@ 24614
itung 24613
Phil@@ 24612
aupt@@ 24610
Vieh@@ 24609
geschickt 24607
ake 24600
IS@@ 24599
politi@@ 24599
eröff@@ 24596
Buchstaben 24590
Gestalt 24586
angen@@ 24585
Front@@ 24584
SE@@ 24582
ättern 24581
Schluss 24580
oppelt 24574
etta 24571
Staatsan@@ 24566
güter 24564
Jüd@@ 24560
entieren 24559
eim 24558
Finnland 24555
fassten 24552
Moritz 24549
Ortste@@ 24549
igungen 24549
Bekannt 24548
durchsetzen 24542
Charlotte 24530
Umfeld 24528
Stor@@ 24522
Häusern 24516
Schüler@@ 24514
ütz 24511
Lebensraum 24510
Ky@@ 24505
94 24503
Pazif@@ 24503
Istanbul 24501
Weimar 24493
dicht 24490
häl@@ 24488
Maj@@ 24485
Umb@@ 24481
müh@@ 24480
angeordnet 24479
herren 24471
Abstieg 24470
Warschau 24470
dy 24468
Zahl@@ 24463
Reisen 24462
nen@@ 24462
rah@@ 24457
systemati@@ 24456
Personal@@ 24455
unterbrochen 24450
dens@@ 24449
dunkel@@ 24444
Wester@@ 24437
wag@@ 24436
stammten 24428
bewusst 24424
ützen 24422
ER@@ 24421
Flagge 24414
hinein 24412
69 24410
ungsver@@ 24402
Ford 24401
Song@@ 24399
ferner 24395
84 24393
Damp@@ 24389
idae 24389
Fenster@@ 24386
handlungen 24383
Erfurt 24382
Weber 24370
Fut@@ 24368
Räume 24365
ektive 24362
dierte 24361
vo@@ 24346
rang 24341
1814 24338
otte 24334
Oberst 24327
Königsberg 24313
anf@@ 24313
Young 24310
ufer 24308
3.@@ 24306
Verleihung 24306
bestehend 24302
ländern 24302
Sho@@ 24301
Schen@@ 24298
Vorrunde 24296
Moh@@ 24294
Dienste 24291
Highway 24290
pflege 24284
Apostol@@ 24279
izier@@ 24271
basis 24270
Sou@@ 24262
Bühnen@@ 24259
Chef@@ 24255
Kooperation 24255
karten 24253
fehlen 24250
Line 24249
macher 24245
Tiefe 24233
out 24232
langsam 24231
Vas@@ 24229
kamp@@ 24225
durchschnittlich 24222
mex@@ 24221
sierung 24221
keiner 24219
sau@@ 24219
mang@@ 24217
odi@@ 24211
82 24210
Rücken 24207
Philipp@@ 24201
Gefähr@@ 24200
defin@@ 24193
Hafen@@ 24191
Phot@@ 24191
Sprint 24190
Ž@@ 24187
Höl@@ 24186
elbe 24186
gau 24186
Befeh@@ 24182
Seni@@ 24181
30@@ 24176
arisch 24176
86 24175
Umw@@ 24174
Konzert 24173
ißen 24170
Sturm 24164
klin@@ 24157
Berater 24155
Weltmeister@@ 24153
Zweite 24150
holen 24149
Ausführung 24145
erzeugt 24143
Chrom@@ 24141
Geschichten 24140
beauftragt 24138
interpre@@ 24137
herausgegeben 24135
Verordnung 24127
tn@@ 24127
Cos@@ 24117
Betrieb@@ 24116
Aussagen 24108
ermöglichte 24108
nik 24107
Darstellungen 24106
ira 24105
zeitung 24105
Kh@@ 24099
Jerusalem 24097
herausrag@@ 24097
06 24096
Schar@@ 24091
klassigen 24087
Meer@@ 24085
folg 24080
Rettungs@@ 24076
gang@@ 24076
Mike 24075
dauerte 24075
seiten 24074
treib@@ 24069
Bundes 24060
Einzugsgebiet 24060
gien 24060
Architektur@@ 24059
astr@@ 24059
ruh@@ 24050
Schwein@@ 24049
Tschechoslowakei 24048
angem@@ 24048
Bere@@ 24039
kers 24039
verwenden 24035
quelle 24034
Wohnh@@ 24029
ritt 24028
Liter 24026
mati@@ 24022
ye 24017
iro 24016
ico 24009
ardt 24008
Falle 24004
ikanische 24002
una 23997
dürfte 23994
regelmäß@@ 23994
Urteil 23993
zukünf@@ 23990
81 23987
Schmal@@ 23983
Treffen 23983
abgelehnt 23981
entfer@@ 23973
vielfäl@@ 23973
ministeriums 23972
chron@@ 23971
Preise 23970
Schwestern 23963
äus 23958
Ohio 23955
Fahrt 23949
mente 23946
Sicher@@ 23944
jem@@ 23944
Christen 23942
zeichnung 23935
Beste 23934
frü@@ 23934
Mül@@ 23932
erhöh@@ 23928
Aktu@@ 23927
Nat@@ 23914
Rohr@@ 23914
Davis 23913
orin 23912
bekleidete 23911
Befehl 23909
Schäden 23909
dik@@ 23907
Motoren 23901
post@@ 23899
sorg@@ 23898
Christus 23896
ani@@ 23895
Dal@@ 23894
umgesetzt 23892
Einstellung 23891
füllt 23891
Fortsch@@ 23890
fläch@@ 23890
gestaltete 23890
rän@@ 23890
Namens 23887
sis 23881
gezwungen 23880
meisterschaften 23861
Jahrhunder@@ 23858
erheb@@ 23856
ausgestellt 23851
Fertigstellung 23850
meisters 23842
meter 23841
Sonstiges 23834
Erklärung 23832
og 23828
Ball 23826
Lan@@ 23822
angeblich 23820
engel@@ 23820
sar 23818
Gab@@ 23816
umstritten 23816
Luxemburg 23814
gie@@ 23812
egen@@ 23811
windig@@ 23807
s. 23806
Großherzog@@ 23803
funktion 23803
Anlass 23800
Anforderungen 23798
Ruh@@ 23797
DM 23794
schnell@@ 23787
weisung 23787
besi@@ 23785
Latein@@ 23784
Kot@@ 23777
spezielle 23777
Michel 23772
richten 23769
ori 23768
römische 23758
Ingenieur 23756
esien 23749
marsch 23748
Künstlern 23745
laufenden 23743
Lob@@ 23738
durchschnittliche 23736
Basketball 23734
geringe 23732
Kür@@ 23731
je@@ 23726
beschränkt 23724
Hi@@ 23720
feind@@ 23717
Schlos@@ 23703
stan@@ 23702
testen 23700
ort@@ 23699
Auseinandersetzungen 23695
äußerte 23687
eckten 23686
wies@@ 23686
bester 23681
Wohnhaus 23680
abschloss 23679
Ry@@ 23677
Green 23673
aufnahme 23672
komit@@ 23670
lichsten 23668
stellungs@@ 23656
helfen 23651
eld 23645
meistens 23644
urger 23634
Landgericht 23628
tan 23628
Hans@@ 23624
stige 23622
europ@@ 23613
OS 23610
braun@@ 23610
Dom 23605
spielerin 23603
Sammel@@ 23601
Maximilian 23598
kommis@@ 23597
Kräfte 23591
Blum@@ 23589
1843 23588
Manager 23584
lieder@@ 23584
woraufhin 23584
getroffen 23583
Da@@ 23580
olle 23580
formation 23579
Jac@@ 23574
Games 23571
emati@@ 23570
Marx 23569
3,5 23567
Bein@@ 23567
uern 23566
cke 23562
berücksichtigt 23556
religiösen 23556
don 23555
äuß@@ 23554
Sitze 23552
bildungs@@ 23551
vieler 23550
voller 23545
Energie@@ 23544
First 23544
arab@@ 23543
geführten 23542
ungser@@ 23540
Engel@@ 23539
1844 23536
entstandenen 23536
systems 23529
ativ@@ 23528
Weißen 23527
gn@@ 23527
ão 23524
darstellen 23520
Bischof@@ 23518
Dreißigjährigen 23518
etti@@ 23518
ington 23518
forscher 23516
Chir@@ 23511
Real@@ 23510
Pop 23505
feuch@@ 23504
Legende 23501
Österreichs 23501
mitten 23497
Fürst 23493
Stam@@ 23493
gers 23492
schottischen 23489
begründete 23487
gefärbt 23486
Gewässer@@ 23482
Code 23481
befür@@ 23469
Jesu 23468
kampf@@ 23467
zweig@@ 23459
erfolgreiche 23455
oma 23451
eton 23450
engl@@ 23449
quadrati@@ 23448
diplom@@ 23445
Chile 23442
Fusion 23435
riffe 23433
ländischer 23430
maß 23428
Auseinandersetzung 23418
zusammengefasst 23414
westlicher 23405
Horn@@ 23404
itag 23404
veranl@@ 23402
kehr@@ 23401
erhältlich 23391
Sektion 23388
ij@@ 23383
ram@@ 23382
Studios 23381
SK 23379
01 23378
decken 23378
ütte 23378
$ 23377
militär@@ 23377
Af@@ 23374
klus 23364
phil@@ 23364
Kolum@@ 23363
iff 23360
blau 23359
83 23358
Spuren 23356
demokratischen 23353
sin 23351
Raj@@ 23343
1832 23337
Ath@@ 23326
antiken 23324
Kriminal@@ 23322
att 23322
Stockholm 23321
zeigten 23320
Wilhel@@ 23317
1835 23309
Sing@@ 23308
Abtei 23304
afrika 23302
freiheit 23296
Thor@@ 23295
erkennbar 23291
Hüt@@ 23288
mund 23287
aufmerksam 23285
verkör@@ 23285
Jüng@@ 23283
Galerie 23282
fragt 23282
rechtlichen 23272
verstorbenen 23268
eigentliche 23265
Hey@@ 23263
derer 23263
1842 23253
spre@@ 23248
öfen 23245
betreff@@ 23241
Gesundheit 23234
Champions 23233
klassen 23224
Für@@ 23222
elektrische 23219
bah@@ 23214
historisch 23213
stur@@ 23212
91 23211
Jahrzehnte 23210
SS@@ 23204
Blue 23195
Council 23195
Verbreitungsgebiet 23191
Dresdner 23188
teilten 23180
Herrscher 23178
Jesus 23177
Brüssel 23175
Äu@@ 23172
Renaissance 23170
misch 23167
welchem 23160
Leich@@ 23152
Gebr@@ 23147
enr@@ 23146
aster 23145
Heeres@@ 23140
strecken 23137
ösen 23137
Betriebe 23136
Francis 23135
Roll@@ 23128
egr@@ 23128
Zir@@ 23124
Stoff@@ 23123
thin 23123
fran@@ 23121
kün@@ 23116
ere@@ 23110
plat@@ 23110
erweit@@ 23109
Brü@@ 23107
zwei@@ 23103
Meistertitel 23091
87 23088
Top@@ 23088
Dafür 23087
gemeinden 23086
Dev@@ 23079
Gedichte 23078
allgemeine 23076
venti@@ 23074
erhaltenen 23057
vermut@@ 23055
vater 23052
Reserve 23045
spanische 23042
Life 23039
ologischer 23038
Boote 23037
Seit@@ 23030
Victor 23030
mont 23029
farb@@ 23028
VI. 23026
Hül@@ 23024
Stau@@ 23021
Cro@@ 23017
Professur 23005
Turm@@ 23005
aktuelle 23005
farben 23005
oper 23004
zuges@@ 23003
polizei 23002
ieden 23001
Halt@@ 22999
versuchen 22995
entgegen 22993
Klavier 22990
beginn@@ 22990
wald@@ 22983
red@@ 22981
öck@@ 22981
79 22974
Gü@@ 22974
Prüfung 22973
ants 22968
Seen 22960
näher 22951
besetzten 22950
geeignet 22948
Klassen 22946
tom@@ 22943
ausgeschlossen 22941
qualifiziert 22936
zylin@@ 22936
Ursache 22933
yd@@ 22933
eke 22929
Ziegel@@ 22927
fun@@ 22926
aka 22919
ă@@ 22918
hochschule 22917
Ox@@ 22916
Produktionen 22912
89 22911
Kass@@ 22908
# 22907
gekennzeichnet 22906
dium 22905
enau 22901
4,@@ 22900
neter 22899
eus 22898
kurzzeitig 22898
Serien@@ 22892
zentrums 22887
äure 22887
Hat@@ 22881
alom 22878
Oblast 22876
Scher@@ 22876
Folgende 22874
weibliche 22870
alts@@ 22867
ifer 22867
Kopenhagen 22866
Rath@@ 22865
Schien@@ 22865
nom@@ 22865
1837 22861
Liefer@@ 22860
Skl@@ 22859
beut@@ 22859
aufgehoben 22857
scheinen 22857
Lich@@ 22855
festgestellt 22855
Tages 22854
südliche 22852
Krankhe@@ 22849
Kino 22848
Generalmajor 22843
komplex 22841
kriegs@@ 22840
ruf 22834
Amerikaner 22831
Demokratischen 22828
ession 22826
ertes 22824
ref 22821
gleicher 22814
verfüg@@ 22808
bleib@@ 22807
AD@@ 22805
Stimm@@ 22802
Committee 22801
Keller 22798
Koll@@ 22796
Multi@@ 22796
ska 22793
Carlos 22791
Stunde 22791
ire 22789
cho@@ 22782
Pic@@ 22780
Luf@@ 22779
Befes@@ 22778
gebor@@ 22776
stieß 22772
üste 22772
kund@@ 22769
ular@@ 22764
Koch 22760
ners 22758
Sowohl 22757
verläng@@ 22756
Grundschule 22750
Geographische 22748
lierten 22745
Durchbruch 22744
Briten 22741
diversen 22733
Henri 22727
sichts@@ 22724
trags@@ 22721
Folgezeit 22720
” 22718
Bass 22716
ais@@ 22716
Ostr@@ 22714
Roger 22712
Bob 22697
Ven@@ 22696
ektiv 22686
tend@@ 22686
Wort@@ 22683
Sicht@@ 22681
bers 22678
ständ@@ 22677
ZDF 22673
Erfolg@@ 22670
erschienenen 22670
Ket@@ 22663
Gebir@@ 22660
stoffen 22655
geschützt 22653
sammelte 22653
IN@@ 22652
qualifizierten 22652
wan 22651
attung 22648
Pom@@ 22647
Träger@@ 22647
ichs 22647
Gang 22644
5000 22637
Grundstück 22632
schnit@@ 22632
er- 22630
Punkt@@ 22629
Ostpreußen 22624
Erbe 22623
festen 22619
erbaute 22618
Runden 22617
schwarze 22617
Personen@@ 22616
kä@@ 22616
tragenen 22616
Formation 22615
geln 22613
lü@@ 22613
endgül@@ 22606
Blues 22604
bergen 22602
isol@@ 22591
berechtigt 22588
eim@@ 22580
kulturellen 22580
mau@@ 22577
natürliche 22575
pore 22575
sieg@@ 22569
RA@@ 22567
lokale 22566
Genf 22564
sicherheit 22563
siedelte 22562
gelö@@ 22558
musikalische 22553
darauffolgenden 22548
Sit@@ 22547
behielt 22543
Kantons 22541
musikalischen 22539
California 22537
Rektor 22537
rich 22536
Bier@@ 22534
Institutionen 22527
inc@@ 22526
wirks@@ 22526
Oxford 22525
Schnitt@@ 22521
ämpfung 22521
ws 22517
Pyr@@ 22512
Ind@@ 22504
lebende 22503
Dram@@ 22502
Guts@@ 22502
ießen 22500
durchaus 22496
Kredit@@ 22494
vorher@@ 22494
Sper@@ 22486
Bev@@ 22485
Prak@@ 22483
Pak@@ 22480
gesellschaft@@ 22476
schmi@@ 22476
KG 22473
räumen 22471
Brunnen 22470
Patrick 22470
fehlt 22466
Illinois 22464
cken 22464
aria 22462
Christi 22460
ump@@ 22458
Konzer@@ 22456
eu 22455
ew 22455
Trom@@ 22453
inspir@@ 22452
schluss@@ 22450
Bester 22449
Veget@@ 22443
weltmeisterschaften 22443
auftreten 22438
Fabrik 22437
Schülern 22436
1810 22432
grenz@@ 22427
Ben 22426
Lands@@ 22426
Merk@@ 22425
berge 22425
enthielt 22423
trock@@ 22423
Fortsetzung 22421
asch@@ 22421
ecker 22421
Toronto 22417
ühle 22417
Nu@@ 22415
barer 22414
beruh@@ 22406
usses 22402
ausgesch@@ 22396
unkte 22391
fördern 22390
kontinuier@@ 22389
Brigade 22387
Präfektur 22384
längere 22379
schar@@ 22379
fertig@@ 22377
verurs@@ 22374
inas 22368
Größ@@ 22352
mögen 22352
Zweitligisten 22351
abgeleitet 22349
ito 22347
Turnier@@ 22339
brand 22339
rief 22339
Serien 22338
Öffent@@ 22338
bedeckt 22337
agn@@ 22336
1838 22334
vis@@ 22334
Schwar@@ 22332
Alber@@ 22330
Nacht@@ 22330
1841 22326
gerichts 22326
Wende 22321
900 22317
ören 22313
Freiherr 22312
Glauben 22310
aki 22310
Heilig@@ 22309
Diözese 22304
Maz@@ 22303
hinten 22299
ünsch@@ 22293
Rose 22287
königlichen 22287
Spiegel 22286
Slo@@ 22285
gegenüber@@ 22285
Archiv@@ 22279
Hinzu 22278
temper@@ 22278
Kritiker 22276
innere 22276
Arti@@ 22274
Belagerung 22272
Lager@@ 22271
beinhaltet 22268
ebel@@ 22268
Iran 22262
rückte 22262
gewidmet 22253
endem 22250
abgebrochen 22247
auptstadt 22247
Centre 22245
Sydney 22245
Zusammensetzung 22243
Patri@@ 22231
entscheiden 22230
motoren 22223
Oberst@@ 22222
Fach 22217
imen 22217
mun@@ 22214
person@@ 22210
daneben 22209
Braun@@ 22204
1839 22203
grub@@ 22202
ätte 22198
Volksschule 22197
Volksrepublik 22196
verlieh 22196
Versuche 22195
ret 22190
Baum 22187
Kali@@ 22184
akzep@@ 22184
filmen 22184
sätzen 22183
Zellen 22181
äußerst 22180
informi@@ 22166
kiert 22165
albahn 22160
Günther 22159
stiegen 22158
bundes 22156
ordnen 22154
Nomin@@ 22150
ziti@@ 22150
beziehen 22148
Eroberung 22147
abr@@ 22146
Alter@@ 22134
Riv@@ 22133
Repar@@ 22132
Kolonie 22128
Jak@@ 22123
geringer 22123
Naturschutz@@ 22115
Was 22112
bürger 22111
erfährt 22110
lierung 22110
rasch 22110
Alt 22107
norwegischen 22106
Reform@@ 22105
these 22105
Infek@@ 22103
Provinz@@ 22103
Franken 22098
Town 22098
künstler@@ 22096
Road 22084
tigungs@@ 22083
Wind 22079
Arena 22073
endeten 22070
Unterstütz@@ 22062
Rud@@ 22060
Galax@@ 22059
Ihm 22059
ichtete 22058
Erinnerung 22057
künstlerische 22054
Zeitungen 22053
zugehör@@ 22048
Point 22046
Rep@@ 22044
Prom@@ 22042
einf@@ 22040
geisti@@ 22035
Pandemie 22033
manchen 22033
tos 22029
vorbereit@@ 22021
Wir 22020
oli 22018
erzielt 22017
Lev@@ 22014
dah@@ 22014
Manfred 22011
fikation 22008
Haft 22007
Geburtstag 22005
Kau@@ 22001
förmige 21993
laden 21992
staat 21992
Spä@@ 21989
enden@@ 21983
Corporation 21979
Ortsname 21979
Gelehr@@ 21969
behin@@ 21969
1808 21968
lende 21968
Stütz@@ 21964
UEFA 21964
Jura 21960
produktionen 21958
fristig 21950
Computer 21949
Rin@@ 21949
katholischer 21949
nördliche 21948
Hell@@ 21941
legten 21941
Erne@@ 21940
bri@@ 21935
Ehrungen 21934
lös@@ 21934
Gros@@ 21933
enger 21930
Streit@@ 21923
gefährdet 21923
Akadem@@ 21919
sive 21914
immer@@ 21910
1836 21908
ova 21906
begeg@@ 21905
offizi@@ 21905
Abstammung 21904
zeitlichen 21903
sur@@ 21898
Hub@@ 21897
Gebäuden 21894
abschluss 21893
Allgemein@@ 21892
Betrach@@ 21891
Kus@@ 21884
Neum@@ 21881
fährt 21876
bul@@ 21874
Partie 21872
gebir@@ 21871
stoß 21871
Französisch 21865
esischer 21864
mals 21860
VI@@ 21857
Brau@@ 21855
iga 21852
olymp@@ 21851
Flugzeuge 21849
ausgedeh@@ 21849
album 21846
Plattform 21843
Peking 21840
omb@@ 21838
vorgenommen 21836
sy@@ 21835
kulturelle 21833
last@@ 21832
beherrsch@@ 21830
atten 21829
1834 21827
beteiligten 21823
geplante 21821
Einzug 21819
Verbindungs@@ 21819
list@@ 21819
Git@@ 21814
vä@@ 21813
AR@@ 21811
sinn 21809
Portr@@ 21805
Preußischen 21805
Spreng@@ 21803
Zusammenschluss 21799
Dokum@@ 21796
D.C. 21794
Konkurrenz 21790
ax 21789
ebung 21789
Rest@@ 21788
Tam@@ 21786
Philadelphia 21785
Komödie 21772
Geschlecht 21765
Chris 21764
Stab@@ 21764
ährt 21763
itsch 21760
Vorbereitung 21756
Gitarr@@ 21751
runden 21750
gelb 21748
mittlung 21747
USD 21744
Kontakte 21742
diszipl@@ 21741
ult@@ 21741
Schlosses 21740
mauern 21735
1821 21725
Säulen 21723
nier 21717
Verbesserung 21714
zustand 21713
nationaler 21712
Interess@@ 21708
Sieb@@ 21704
Y 21704
Ausschuss 21703
befasste 21701
German@@ 21700
igungs@@ 21700
Nachrichten 21694
Parks 21694
Stephan 21692
stadt@@ 21689
intensi@@ 21688
gelingt 21687
gelände 21685
praktisch 21680
vielleicht 21678
Italien@@ 21677
positi@@ 21677
sicherung 21676
1820 21675
Bestand@@ 21674
uv@@ 21674
fahren@@ 21663
Taylor 21654
Sächs@@ 21648
äufe 21648
AT@@ 21647
schrau@@ 21647
Eigentum 21645
besieg@@ 21644
ön 21644
genaue 21643
Cel@@ 21640
ladung 21638
typischen 21635
Me 21632
eingestuft 21631
frühe 21631
hang 21631
Psychologie 21627
Dritt@@ 21626
Wilson 21625
kasse 21624
Weihnachts@@ 21618
ächen 21616
Rote 21615
tiv 21615
Durchführung 21611
losigkeit 21607
Mensch@@ 21602
setzungen 21602
Investi@@ 21587
Port 21585
formi@@ 21582
aya 21577
97 21576
kore@@ 21576
ands@@ 21575
Trocken@@ 21572
entsprach 21571
Interview 21567
mah@@ 21567
Oldenburg 21558
Church 21557
s- 21555
Leucht@@ 21546
männlichen 21541
Zar@@ 21538
ores 21537
irat@@ 21533
Freundin 21529
kö@@ 21518
pri@@ 21518
verhältnis 21518
Test 21512
lach 21511
Antrag 21509
Komment@@ 21508
habilitierte 21507
verhalten 21507
uung 21506
Verwaltungssitz 21505
send@@ 21504
Finanzierung 21501
finanzielle 21497
Fremd@@ 21496
mi 21496
haltungs@@ 21495
quert 21487
Gewässer 21485
üssel 21485
Powiat 21484
Ant@@ 21483
edt 21479
Südwest@@ 21478
zuh@@ 21471
Jose@@ 21466
Durchschnitts@@ 21463
Verfolgung 21459
obj@@ 21458
Hed@@ 21454
Steve 21450
way 21450
Such@@ 21445
Kongress@@ 21444
unds 21441
Änderung 21439
PC 21436
Eberhard 21435
wirtschaf@@ 21434
herstellung 21433
onia 21432
wohner 21428
Jänner 21427
My 21427
punkten 21424
Strom 21423
Nam@@ 21422
Büro 21421
Hollywood 21420
ök@@ 21416
alan@@ 21415
Kit@@ 21410
ijähr@@ 21408
Übersetz@@ 21407
Ordens 21405
Prinzessin 21405
Jugendliche 21403
ilde 21402
klassische 21401
respon@@ 21400
neben@@ 21397
begründet 21395
kurs 21393
beit@@ 21389
Episoden 21388
03 21385
tell 21383
zählten 21383
bay@@ 21382
det@@ 21378
Gra@@ 21375
lege 21374
Grundriss 21370
Drama 21367
blo@@ 21367
Kaisers 21366
Lehen 21360
alit@@ 21360
nachweis@@ 21360
Heirat 21358
ision 21353
Zeug@@ 21351
Südost@@ 21347
Häft@@ 21346
eth 21346
fach 21344
ander 21343
Dän@@ 21341
künstlerischen 21338
Tieren 21336
Seel@@ 21329
Toten 21329
terte 21326
Jackson 21324
Orchestra 21324
böh@@ 21317
hom@@ 21317
Museen 21316
Aufstand 21315
bekannter 21303
wohnte 21303
Wiesbaden 21300
eignet 21300
gasse 21299
Verschw@@ 21297
ime 21297
zum@@ 21295
lernen 21294
mig@@ 21288
Saale 21286
zweigt 21284
gekauft 21280
nü@@ 21277
Sieben@@ 21275
Beteil@@ 21274
ustr@@ 21274
entation 21273
Roc@@ 21272
Böhmen 21271
äts@@ 21271
rhein 21269
erneuert 21267
Cy@@ 21265
bo 21261
zahlreicher 21252
Werkstatt 21250
schem 21247
Liv@@ 21244
gewählten 21243
Kund@@ 21236
bevölkerung 21236
ofen 21236
Sportar@@ 21235
Saal@@ 21233
offene 21233
antrat 21225
Ton 21224
tic@@ 21224
hard 21220
Times 21216
geschw@@ 21215
interes@@ 21214
Tirol 21212
saison 21212
Dritter 21210
aceae 21208
erfolgreich@@ 21208
Ca@@ 21205
schieden 21204
leistungen 21202
persönlich 21202
warf 21202
ädagogik 21201
Lac@@ 21200
Markus 21198
Nation@@ 21198
Wah@@ 21198
Bauwerke 21195
persönliche 21190
kro@@ 21189
Invest@@ 21184
verweig@@ 21182
preis@@ 21180
prof@@ 21180
Erstligisten 21169
Kok@@ 21169
bien 21168
beherbergt 21167
feste 21165
con@@ 21162
hinzu@@ 21159
amtes 21154
fälischen 21154
bezog 21149
gründung 21148
Samen 21145
Abgeordnete 21144
betroffen 21144
verfassungs@@ 21144
präsident 21142
án 21141
Pseudonym 21140
sand@@ 21138
echte 21136
leuch@@ 21135
geschätzt 21132
Kru@@ 21130
able 21128
Dauer 21126
hn@@ 21122
Verantwortung 21120
130 21110
Gliederung 21110
landschaft 21108
ATP 21107
Stattdessen 21107
Autonom@@ 21105
genommen@@ 21102
wachsen@@ 21102
onne 21099
100.000 21093
ulen 21093
Sophie 21091
COVID 21087
Zone 21085
feier@@ 21085
Entdeckung 21084
Hütte 21083
ause 21080
sieren 21079
Vorschlag 21072
wanderung 21071
gangs 21068
Wissenschafts@@ 21065
anst@@ 21062
icke 21062
Ped@@ 21061
Pra@@ 21061
istern 21061
Angelegenheiten 21060
ziv@@ 21058
Elbe 21053
Had@@ 21052
stimmen 21048
ritten 21046
uk 21045
pern 21043
erzielen 21037
füg@@ 21036
dis 21032
fu@@ 21030
leben@@ 21029
5,@@ 21024
Nachrichten@@ 21024
Fähigkeiten 21022
umfang@@ 21020
Assist@@ 21017
Feuerwehr 21015
ami 21005
Arm@@ 21004
eingezogen 21004
any 21003
hung 21003
Windows 21002
ologi@@ 20997
männ@@ 20995
ations 20994
FK 20993
IT@@ 20993
Ecke 20990
Archiv 20989
bat 20986
Geräte 20981
Kategorien 20981
sagen 20980
Sciences 20977
oftmals 20977
gesichert 20975
restauriert 20974
Text@@ 20972
büro 20972
inhal@@ 20972
bezirke 20969
integri@@ 20968
gegense@@ 20967
eignete 20965
Cour@@ 20960
erhaltene 20959
dritt@@ 20951
ändischen 20951
Geleg@@ 20950
Vizepräsident 20950
Atom@@ 20948
1831 20944
Werft 20940
eindeutig 20933
oxid 20928
mers 20927
lichten 20926
Gemeindet@@ 20925
Technische 20923
Phänom@@ 20922
sächs@@ 20919
erwartet 20918
regulären 20916
tien 20916
nörd@@ 20913
unterstütz@@ 20909
enl@@ 20907
russischer 20906
sichern 20905
verfügen 20905
Marsch@@ 20902
gefolgt 20900
verblieb 20900
mathemati@@ 20896
Auge 20895
ührungen 20892
Abkürzung 20886
siebten 20885
äß@@ 20883
gö@@ 20881
1828 20880
Goethe 20878
karte 20878
Versch@@ 20875
beschreib@@ 20873
müsse 20873
noten 20869
zo 20868
tnis@@ 20865
nahen 20859
Wet@@ 20858
endlich 20857
geordnete 20857
Vorstellung 20855
NO@@ 20851
def@@ 20846
musiker 20846
angehörte 20845
Eig@@ 20843
Ersatz 20843
kreises 20842
resul@@ 20842
urt 20840
Nebenfluss 20837
mich 20837
Schluss@@ 20833
Unterschiede 20830
Vermögen 20828
Zulassung 20828
lossen@@ 20828
Griech@@ 20826
Lewis 20826
grau 20823
aro 20819
Schriftstel@@ 20818
alters 20816
Weimarer 20814
Thr@@ 20813
individu@@ 20810
Cambridge 20799
Statistik 20799
Hef@@ 20798
Luftwaffe 20796
benannten 20796
Tätigkeiten 20793
spruch 20793
Identi@@ 20791
wende 20790
Schönh@@ 20788
vorkommen 20788
üstung 20784
geworfen 20779
Wert@@ 20778
hängen 20773
künf@@ 20773
ów 20773
Asien 20771
Unterneh@@ 20770
Neug@@ 20767
ausgabe 20764
mand@@ 20757
Media 20754
Londoner 20750
protestanti@@ 20745
Verlag@@ 20743
Kandid@@ 20738
Training 20734
Langhaus 20733
belgischen 20728
eland 20726
Festivals 20723
Heb@@ 20720
rechtliche 20718
ßen@@ 20718
Schlesien 20715
angriff 20710
weichen 20704
belast@@ 20703
äle 20702
UN 20700
k. 20697
1812 20694
erhebt 20693
Nahrung 20690
Hinweis 20689
Pur@@ 20688
istet 20685
ausschusses 20682
š 20682
Bib@@ 20680
Erzählung 20675
einkommen 20675
Jersey 20666
Zit@@ 20666
ödie 20666
Entsprech@@ 20663
erfolglos 20663
Gesamtwertung 20659
bewegen 20657
enschaft 20657
Areal 20647
greif@@ 20645
Winterspielen 20643
besiegte 20641
emb@@ 20641
Liebes@@ 20640
lanz@@ 20638
Ob 20637
umliegenden 20633
jährig 20627
Gletscher 20624
entgeg@@ 20623
180 20622
laufbahn 20617
Auffassung 20616
Unfall 20615
1200 20614
Tournee 20611
anderes 20604
qualifizieren 20602
fass@@ 20601
Symbol 20598
Krist@@ 20595
weiblichen 20593
teilnehmen 20592
Oliver 20591
ungsweise 20589
ausführ@@ 20588
ermittel@@ 20588
verbot 20587
Frankreichs 20585
fizierung 20585
Klinik 20584
ichteten 20578
Quart@@ 20577
friedhof 20577
if 20571
Herrschafts@@ 20570
angenen 20570
Fehler 20569
Materialien 20568
Jus@@ 20564
gedeckt 20564
Nachwuchs@@ 20561
pers@@ 20560
angesiedelt 20556
Art@@ 20554
rag@@ 20551
verfasst 20537
nit@@ 20532
entwarf 20530
Douglas 20521
Kandidat 20521
Präsidentschafts@@ 20521
Interpre@@ 20520
fahrt@@ 20520
flu@@ 20520
küm@@ 20519
esch 20517
jähr@@ 20516
ografische 20514
Reihen 20511
terien 20511
real@@ 20506
erinnern 20505
Hav@@ 20502
Anbau 20500
ernden 20496
Fah@@ 20494
winkel 20493
IC@@ 20492
planung 20491
serb@@ 20490
ames 20489
ox@@ 20487
Aufenth@@ 20486
Wat@@ 20486
siv 20486
Human@@ 20484
DC 20481
Autorin 20480
Bremer 20480
urs 20480
ausgerichtet 20476
Women 20475
ate@@ 20474
1817 20469
Benjamin 20469
Challenger 20465
bildungen 20461
wichtig 20459
Bedarf 20456
Nun 20450
dungs@@ 20448
elektrischen 20447
Neuzeit 20443
Tony 20442
10,@@ 20441
Alumin@@ 20435
Stim@@ 20434
ossenschaft 20433
abger@@ 20430
Kult@@ 20429
steuer@@ 20429
Mitglieds@@ 20425
Zustimmung 20425
solle 20421
sons 20421
orie 20420
üng@@ 20419
Spani@@ 20418
sein@@ 20417
migen 20409
Ministerpräsident 20408
prinzip 20407
Identität 20399
Spielfilm 20398
Freundschaft 20396
August@@ 20393
Bezeichnungen 20391
Hochschullehrer 20391
anteil 20386
Südseite 20385
ula 20381
förderte 20379
Straßburg 20378
eto 20378
Jer@@ 20377
Papier@@ 20373
Freist@@ 20370
Sekund@@ 20370
Schir@@ 20368
Ström@@ 20368
abhäng@@ 20361
erlitt 20361
lshaber 20361
Flüssig@@ 20360
Pav@@ 20358
verständ@@ 20357
Bochum 20355
zeitgenöss@@ 20352
oy@@ 20350
8,@@ 20349
IS 20348
ls@@ 20348
produk@@ 20344
Ele@@ 20343
ahrt 20342
Gos@@ 20340
Erfahrung 20336
DJ 20332
Eigent@@ 20331
sohn 20328
gemisch@@ 20327
1833 20324
Deleg@@ 20324
östlicher 20324
ersetzte 20320
well 20320
opp@@ 20319
Regierungsbezirk 20318
ziert 20317
Glocke 20316
traße 20316
verstehen 20313
Parallel 20307
bart 20305
genug 20305
vorstand 20304
Rass@@ 20302
esi@@ 20297
frequ@@ 20296
Leib@@ 20292
Renovi@@ 20290
Becken 20287
Ausrichtung 20284
brunn 20276
Anläs@@ 20275
gehörenden 20272
übt 20269
geschi@@ 20267
bachs 20262
lossenen 20262
streifen 20261
wirtschaftlich 20261
öll@@ 20259
portal 20256
Lokal@@ 20253
pfarr@@ 20252
orientierte 20251
vgl. 20251
angebaut 20248
falt 20248
nachhal@@ 20248
Ablauf 20247
gewöhn@@ 20247
Hay@@ 20245
Seh@@ 20242
iner@@ 20240
einhalb 20233
sichtlich 20233
Münch@@ 20232
Anwendungen 20231
ettet 20231
erkannt 20228
ohlen 20228
Zwangs@@ 20223
kräften 20223
streng@@ 20222
befindlichen 20221
Program@@ 20220
gesetzten 20216
gre@@ 20215
Osman@@ 20214
Zoll@@ 20213
Schlüssel@@ 20211
bol@@ 20209
Fehl@@ 20207
Straßenbahn 20206
Produzenten 20205
Rundfunk 20203
unterrichtet 20202
Ruhr@@ 20201
beschäf@@ 20198
Romane 20197
Slowakei 20196
Stars 20194
Achtelfinale 20191
Austr@@ 20189
begleitete 20189
Staus@@ 20188
ingen@@ 20187
lä@@ 20182
urs@@ 20180
portugiesischen 20177
behörden 20176
num@@ 20173
erfüllt 20171
ickt 20169
Ord@@ 20164
punkt@@ 20161
schwedische 20157
Eishockey@@ 20153
sechs@@ 20151
bewohnt 20149
wöch@@ 20148
Brauerei 20143
mitt@@ 20143
Duo 20142
Diskus@@ 20131
Verhältnisse 20130
Erhaltung 20127
entliche 20124
K. 20121
wart 20120
steiger 20119
Schwieger@@ 20117
grünen 20117
Landesh@@ 20113
Projekt@@ 20111
Rou@@ 20111
Format 20110
sog. 20109
altete 20106
Franzis@@ 20105
stationiert 20102
Put@@ 20097
ritte 20095
entworfen 20093
anten@@ 20092
bulgar@@ 20092
Leute 20091
Besonderheit 20087
Münz@@ 20086
komponierte 20083
konserv@@ 20081
Satell@@ 20076
itu@@ 20076
oden 20076
Gebirge 20075
4.@@ 20073
universit@@ 20073
zeitlich 20072
Territorium 20069
Amtes 20068
rollen 20065
entz@@ 20064
verring@@ 20064
ics 20063
genossen 20062
Mehrere 20059
Zylin@@ 20058
misch@@ 20058
lied 20055
Bildhau@@ 20054
Ga@@ 20053
Abgeordnet@@ 20051
Ausstellungs@@ 20049
swe@@ 20042
Heid@@ 20033
ausgesetzt 20030
Frem@@ 20028
Museums@@ 20028
SP@@ 20026
.000 20025
wakischen 20025
internationaler 20022
mangel@@ 20022
sach@@ 20018
zugs@@ 20017
Anfangs@@ 20014
Schreiben 20012
Handlungs@@ 20010
imp@@ 20009
Hochzeit 20008
gend@@ 20007
Gebietsreform 20004
richtungen 20004
Beobacht@@ 20001
verkün@@ 20001
1825 19997
Pädagog@@ 19997
igkeiten 19997
drehte 19996
preuß@@ 19995
zubauen 19992
Eindruck 19989
Haut 19988
Rekord 19987
verkauften 19987
zeichneten 19987
organisationen 19984
daten 19981
entdec@@ 19979
iller 19979
vertei@@ 19977
Ay@@ 19976
Uraufführung 19973
egrün@@ 19973
Landtagswahl 19971
Konferenz 19970
Aqu@@ 19966
Siege 19966
Schmer@@ 19963
Journal 19962
teur 19957
thr@@ 19955
Kompositionen 19950
Vorsprung 19949
Blut 19947
fur@@ 19947
sowjetische 19944
Wart@@ 19942
Antike 19941
Franken@@ 19941
law@@ 19940
Soc@@ 19939
tro 19939
DP 19937
endungs@@ 19935
Geschäft 19927
HL 19926
typische 19926
abgebaut 19921
Univers@@ 19920
könig 19920
git@@ 19919
Bauer 19908
AL@@ 19906
Teilnehmer@@ 19900
strom 19899
wenden 19898
erweiterte 19897
äußer@@ 19895
Lern@@ 19893
pend@@ 19891
Sax@@ 19890
bad@@ 19887
kow@@ 19884
Gattungen 19882
Main@@ 19880
erns 19880
übernahmen 19880
ordens 19876
fusion@@ 19875
ement@@ 19871
Temperatur 19868
norweg@@ 19864
Treff@@ 19862
ifel 19862
Mengen 19857
publik@@ 19853
Real 19852
fahrzeuge 19850
Stahl 19849
Löwen 19848
apo@@ 19848
Hauptmann 19847
Mobil@@ 19845
geordneten 19845
ensystem 19844
Fälle 19838
partner@@ 19837
Palast 19834
dokumentiert 19833
Büh@@ 19830
angepasst 19829
Oder 19828
Wurzeln 19828
vielfach 19828
ī 19828
Weich@@ 19827
Lie@@ 19826
rechtlich 19826
Kreisstadt 19824
bir@@ 19823
bran@@ 19823
kohol@@ 19822
nötig 19822
pfe 19822
verlegte 19821
Stellvertreter 19819
dring@@ 19819
viert 19818
Dep@@ 19811
hof@@ 19810
realisiert 19808
versteht 19808
Mä@@ 19807
ässer 19805
Dozent 19804
Protagon@@ 19803
grundle@@ 19800
iens 19799
Materi@@ 19796
has@@ 19792
worfen 19792
bein@@ 19791
Blat@@ 19790
marsch@@ 19787
fürst@@ 19781
Hirsch@@ 19778
Junge 19778
fan@@ 19777
Jag@@ 19773
Eva 19764
Segel@@ 19763
Mög@@ 19762
Rechts 19762
Mission@@ 19759
verteilung 19759
Distanz 19757
AN@@ 19756
Rats@@ 19755
olo 19755
peln 19754
20.000 19753
annen 19752
schauspi@@ 19752
Dame 19750
formu@@ 19750
orum 19749
High@@ 19748
Schlagzeuger 19744
Weltrang@@ 19744
fasst 19739
lesen 19735
Hinweise 19731
Angehörigen 19730
Brig@@ 19730
New@@ 19730
Dreharbeiten 19729
Parall@@ 19726
spor@@ 19725
Freih@@ 19720
Tatsache 19718
tivi@@ 19717
jüngere 19716
Alternative 19715
fts@@ 19714
eur@@ 19713
üblicherweise 19712
bewahr@@ 19709
sey 19701
gewölbe 19699
bewahrt 19690
erfuhr 19690
Erwach@@ 19688
Flug 19684
Gn@@ 19684
Fron@@ 19683
Illustr@@ 19682
industri@@ 19682
Breit@@ 19681
Plas@@ 19680
Anteile 19679
äub@@ 19679
BB 19678
fertigt 19677
Angehörige 19673
Val 19670
ș@@ 19668
atten@@ 19667
tlicher 19659
Schicksal 19658
Verpflich@@ 19656
rote 19656
identisch 19655
figuren 19654
Klar@@ 19651
Effekt 19649
Rückzug 19649
sprecher 19649
Besitzungen 19647
Gedi@@ 19647
Journalisten 19647
Tax@@ 19647
1809 19645
Athleten 19641
Sattel@@ 19641
Einfl@@ 19640
württem@@ 19639
uen 19638
Cop@@ 19630
oms 19630
vermeiden 19630
Duisburg 19626
menden 19625
Archi@@ 19623
Vorteil 19621
Jeder 19618
Schieds@@ 19617
bestätigte 19615
euer 19615
Hunder@@ 19614
hau@@ 19613
neur@@ 19612
aun 19611
Qualif@@ 19610
preußische 19607
sun@@ 19607
vit@@ 19607
pap@@ 19604
hunder@@ 19603
sahen 19600
Endrunde 19599
endar@@ 19597
verbliebenen 19597
Hür@@ 19593
seinerzeit 19593
identin 19592
kommando 19592
DB 19591
Ö 19591
Anordnung 19590
Som@@ 19590
armee 19589
sem@@ 19588
Erforschung 19585
Sus@@ 19579
verhältnisse 19579
lokal@@ 19576
scheid@@ 19574
Schmu@@ 19570
versu@@ 19570
nisch 19561
zeitig 19561
half 19558
drit@@ 19557
Steine 19556
Inhaber 19555
aul@@ 19554
verwal@@ 19554
offen@@ 19551
enhausen 19550
steher 19548
Sammlungen 19547
aspiele 19545
veranstaltet 19545
Grupp@@ 19543
0,5 19541
tex@@ 19537
Masse 19534
Redakteur 19532
vorsitz@@ 19530
eldet 19527
Firmen 19526
weig@@ 19526
thi@@ 19524
fälsch@@ 19523
sierten 19522
Fun@@ 19521
verfügbar 19515
mittelalterliche 19514
Ci@@ 19513
Vorpommern 19508
medizinischen 19507
our@@ 19505
Himmel 19504
ickte 19499
zügen 19494
hersteller 19493
jährliche 19492
Beschluss 19489
Amtsgericht 19488
Zah@@ 19487
Zauber@@ 19487
aussch@@ 19485
Ist 19483
praktiz@@ 19483
Günter 19479
Brücken@@ 19476
tiz@@ 19475
bezeichneten 19474
dür@@ 19474
gering 19473
entierung 19471
Result@@ 19469
hinsichtlich 19469
Exil 19468
Fans 19468
Immobili@@ 19467
angrenzenden 19466
ila 19466
seltener 19466
02 19464
Million 19456
jap 19456
Linien@@ 19455
enser@@ 19450
Mandat 19443
Ergänz@@ 19442
Tenn@@ 19441
Alpen@@ 19437
Information 19436
unge 19435
Ansatz 19431
Q 19431
anna 19429
Rekord@@ 19428
konstru@@ 19427
öder@@ 19427
án@@ 19426
1807 19424
Kommunikations@@ 19424
chr@@ 19424
Molek@@ 19423
Tie@@ 19421
austral@@ 19419
Umgang 19418
Hoffmann 19413
Gründe 19412
Neapel 19406
Enkel 19403
platzierten 19402
ruhen 19402
Lebensmittel@@ 19401
Preuß@@ 19399
Flücht@@ 19398
Sinf@@ 19398
zellen 19398
Großvater 19395
Karos@@ 19395
Haushalte 19394
organis@@ 19389
äfte 19388
schaftliche 19387
hofs 19385
Nassau 19384
Konfes@@ 19382
és 19380
entums 19377
gesucht 19376
verwaltet 19376
350 19374
Zeichnungen 19368
pfung 19368
irischen 19367
gegenwär@@ 19365
eingel@@ 19364
Mitarbeitern 19360
ą@@ 19360
Sauerst@@ 19359
endungen 19358
sperre 19355
ärer 19354
Insolven@@ 19351
Lange 19351
tot@@ 19351
Dah@@ 19349
unver@@ 19349
ässig 19347
Bundesstaates 19346
wichtig@@ 19346
Beispi@@ 19345
bevorzugt 19345
Niederösterreich 19342
begraben 19341
1824 19337
Bedeut@@ 19333
tragung 19332
mine 19327
160 19326
DFB 19322
luther@@ 19320
Erdgeschoss 19319
Dritten 19317
Anschluss@@ 19315
Mario 19314
Sommerspielen 19314
Theologe 19312
Politische 19309
einrichtung 19305
treff@@ 19303
vollständige 19303
Gebi@@ 19299
Ulm 19297
pert 19293
treiben 19293
Andrew 19288
Valley 19287
ée 19285
Fellow 19283
Religi@@ 19282
Lav@@ 19281
andlung 19279
neun@@ 19278
takt 19277
Haushalten 19274
7,@@ 19270
Stadi@@ 19269
inneh@@ 19267
existierte 19265
abgew@@ 19258
Bündnis 19257
Hop@@ 19254
argent@@ 19249
Gleis@@ 19248
Hauptrollen 19248
gewachsen 19248
zucht 19244
DS 19241
fuhren 19240
alis@@ 19238
quartier 19237
malerei 19236
Entwür@@ 19234
iser 19234
1826 19232
Begegnung 19228
letztes 19223
sorge 19221
Vorstellungen 19220
1798 19219
etern 19219
bisherige 19218
ehende 19218
Flora 19216
Syst@@ 19209
heißen 19208
jahres@@ 19206
annter 19201
aktuell 19200
Inszen@@ 19199
bring@@ 19190
Gießen 19189
Gur@@ 19183
estelle 19177
Diskussion 19173
durften 19169
inform@@ 19169
Zustän@@ 19168
Verhal@@ 19167
hessischen 19163
kal 19159
unterschiedlicher 19159
gefallen 19157
posten 19150
circa 19148
sag@@ 19147
Nikol@@ 19145
Hammer@@ 19142
heu@@ 19142
ele@@ 19141
fungi@@ 19141
Platzierung 19140
sherr@@ 19140
ère 19135
MS 19134
diskutiert 19134
Bundestag 19124
Glocken@@ 19124
Marc 19123
Priester@@ 19123
Bundesregierung 19122
band@@ 19122
Überreste 19122
versuchten 19119
ci 19118
nö@@ 19117
Rub@@ 19112
abzu@@ 19112
1829 19111
Geschäf@@ 19110
uth 19110
umfassende 19109
Florenz 19108
Draft 19106
aufweisen 19105
gesetzes 19104
geleit@@ 19103
christ@@ 19101
Spiels 19099
stärke 19099
richtet 19097
Eugen 19096
nch@@ 19093
einziger 19089
bean@@ 19088
brunnen 19088
urin 19087
Marathon 19086
steil 19086
khaus 19084
aud@@ 19082
Edition 19078
gewöhnlich 19077
Reihenfolge 19076
anci@@ 19073
Bestr@@ 19072
Angst 19070
steig 19070
Stärke 19068
Emer@@ 19065
Hann@@ 19061
rat@@ 19059
sprung 19058
spezialisiert 19057
Besiedlung 19055
CH@@ 19050
Platte 19049
ogramm 19047
Piloten 19046
Stift 19046
1822 19045
verbundenen 19045
gebauten 19042
flügel@@ 19040
Programme 19032
regul@@ 19026
famili@@ 19022
Koblenz 19020
aches 19020
aster@@ 19018
entspr@@ 19018
konferenz 19014
leih@@ 19013
Boot@@ 19012
brücken 19010
tho@@ 19009
Schriftstellerin 19008
häufiger 19008
Instrumente 19003
skirche 19003
bein 19002
gold@@ 19002
jene 18998
Funktion@@ 18996
streit@@ 18994
Gabriel 18993
schweiz@@ 18993
Norweg@@ 18992
Zugehörigkeit 18992
Py@@ 18991
Sep@@ 18990
anstelle 18988
fär@@ 18986
ährung 18986
Trainer@@ 18985
go@@ 18985
Jubilä@@ 18984
Grundlagen 18981
erschnit@@ 18979
Bischofs@@ 18974
furt 18973
Partei@@ 18968
ausreichend 18968
kreisen 18962
gelegten 18960
Dunk@@ 18956
Verständnis 18955
befasst 18955
irat 18954
vergleichsweise 18951
Bell@@ 18950
Kontext 18942
Schwester@@ 18942
vereine 18936
Dass 18935
Landwir@@ 18930
sper@@ 18929
liber@@ 18928
Staub@@ 18924
RE@@ 18922
Wohnungen 18921
Bekanntheit 18920
dien 18920
Olympiasi@@ 18918
gerech@@ 18917
ear@@ 18915
wech@@ 18915
Abhäng@@ 18912
SED 18909
kämpfe 18909
auszu@@ 18908
ibt 18908
Verhäl@@ 18902
fund@@ 18901
träch@@ 18901
Apos@@ 18900
ossen@@ 18900
schlüsse 18898
Gelän@@ 18894
Hamilton 18891
Osnabrück 18891
vorübergehend 18890
jah@@ 18889
Vize@@ 18887
Bestimmung 18884
gelassen 18883
Zimmer 18882
ST@@ 18881
selber 18880
Evangel@@ 18878
religiöse 18876
Portal 18873
plung 18871
Feier@@ 18870
bedeutete 18869
AB 18868
Leon@@ 18866
Musical 18866
ex 18866
äufig 18866
publizierte 18859
Basketball@@ 18857
beheimat@@ 18856
hi 18852
stens 18850
platt@@ 18849
VP 18845
ament@@ 18843
betreut 18841
Alexand@@ 18838
Sec@@ 18837
Stur@@ 18836
America 18835
Doktor 18835
alia 18835
metern 18833
physi@@ 18832
Landschaftsschutz@@ 18829
Gemeinder@@ 18825
vertretung 18822
zufri@@ 18819
erhöhte 18818
Manuel 18816
erlau@@ 18814
Zun@@ 18813
Summe 18811
empfing 18811
ikas 18811
Schiffen 18810
herer 18810
Digit@@ 18808
Tem@@ 18808
geschlossenen 18805
SO@@ 18799
urnier 18799
medizin 18798
festival 18797
hn 18797
brem@@ 18796
dräng@@ 18795
Benedikt@@ 18792
amtier@@ 18789
gesellschaftlichen 18788
yc@@ 18783
mö@@ 18782
Etappe 18781
Wäl@@ 18780
barung 18780
Express 18779
Jury 18778
jo 18776
befeh@@ 18775
Adler 18772
esisch 18772
onte 18771
mens@@ 18769
Gesellschaften 18768
stammende 18765
Great 18762
fel 18762
Annahme 18755
Beton@@ 18754
Nation 18749
entstandene 18749
denkmäler 18747
Zahlreiche 18746
hardt 18746
aison 18745
gezi@@ 18743
Antark@@ 18739
Prozess@@ 18736
Demokrati@@ 18734
Moderne 18726
gebäu@@ 18724
traditionell 18721
jew 18720
schlecht 18720
griechisch 18718
ón 18718
Begrün@@ 18717
Heiz@@ 18717
Eu@@ 18716
Streifen 18716
Ruhr 18713
verwandt 18710
met 18708
Element 18701
präsentierte 18701
troc@@ 18701
Zuschauern 18698
IT 18693
1802 18692
Pfar@@ 18691
ekt@@ 18689
meldete 18687
Kommune 18685
Endspiel 18684
Hydro@@ 18683
gebrau@@ 18679
Treib@@ 18676
Hagen 18675
kette 18675
portugi@@ 18675
beruht 18672
otiven 18672
aller@@ 18666
1819 18665
Parlament@@ 18661
erreichbar 18661
Neg@@ 18659
Jahrhunderte 18658
Golden 18652
Jäger 18652
Dörfern 18651
Anspr@@ 18649
Semin@@ 18645
geschri@@ 18645
1811 18644
Gebäude@@ 18642
Urspr@@ 18642
Forschungen 18639
perf@@ 18638
genen 18637
lösung 18636
→ 18634
Saarbrücken 18633
erfasst 18633
Firmen@@ 18632
struk@@ 18632
Landrat 18631
verzichtete 18630
kritisierte 18628
Versammlung 18627
Städte@@ 18626
Tat 18622
find@@ 18621
strom@@ 18619
Russischen 18617
Krak@@ 18616
besuchen 18616
Sowje@@ 18614
endel@@ 18613
männliche 18613
verhindert 18612
schlagen 18609
baroc@@ 18606
ege@@ 18602
wettbewer@@ 18595
Fabrik@@ 18594
folgend 18594
Aufenthalt 18593
orn@@ 18591
Amerikan@@ 18590
entsprechen 18587
tsch 18583
Okres 18580
einzu@@ 18579
führungen 18579
entstammte 18575
Engel 18573
Beförderung 18564
Flot@@ 18564
Jesu@@ 18564
Dien@@ 18563
Nordseite 18562
denkmalgeschütz@@ 18562
gas 18562
Bauarbeiten 18559
Herstel@@ 18558
Bände 18557
Erinner@@ 18556
Stamm 18555
ernde 18551
otyp@@ 18551
vereinigung 18550
beur@@ 18548
Innere 18547
Act 18542
Bistums 18542
Wahrheit 18541
Üb@@ 18540
iven 18537
ieb@@ 18533
begeister@@ 18531
Mig@@ 18530
verwaltungs@@ 18527
Astr@@ 18524
auftritt 18521
einziges 18520
derten 18519
€ 18519
Ek@@ 18518
ameister 18515
zwanzig 18514
fränkischen 18512
verbesserte 18511
schwed@@ 18506
Höhle 18505
platzes 18503
24@@ 18500
Sound 18499
Währ@@ 18495
prom@@ 18494
Soldat 18488
Hit 18487
Tennis@@ 18484
automati@@ 18481
Zust@@ 18476
uchs 18476
Schwed@@ 18470
Kleine 18469
Weiterentwicklung 18469
sern 18468
darum 18466
icken 18465
provinz 18465
Netzwerk 18463
Eishockey 18461
Kaf@@ 18460
Railway 18458
Wahrschein@@ 18457
Kunsth@@ 18456
such@@ 18456
Gläub@@ 18453
rate 18452
intensiv 18451
Turniers 18450
tell@@ 18450
Mond@@ 18444
erlernte 18443
management 18442
schrieben 18442
vereinz@@ 18439
Trio 18437
Elektro@@ 18433
Alternati@@ 18432
Beach@@ 18432
ank 18432
chens 18432
Ig@@ 18431
wären 18430
ence 18428
Produkt 18424
entierte 18424
Versuch@@ 18423
Ex 18422
wissen 18422
gotische 18419
Carlo 18418
Stufe 18415
chinesische 18413
ites 18408
schafter 18408
ede@@ 18407
Poliz@@ 18406
lichkeits@@ 18403
rig@@ 18403
Claude 18398
Mannes 18398
Nich@@ 18395
erwer@@ 18395
Davon 18394
egt 18394
iefer@@ 18394
Kommandant 18391
Nationalen 18391
ó 18384
Ali 18383
Thron@@ 18382
Vertrags@@ 18381
gewisse 18381
veranstaltungen 18379
Kanzel 18374
gespe@@ 18373
Funktions@@ 18369
Gegenstand 18367
sak@@ 18366
Quadratkilometer 18365
dank 18361
Shi@@ 18360
Gräfin 18359
nehmung 18359
traditionelle 18358
alls 18357
arkt 18355
Eishockeyspieler 18353
Schwerin 18353
Karls 18352
Wend@@ 18352
ematik 18352
Eingemein@@ 18351
Produkt@@ 18351
Integration 18349
aufzu@@ 18349
besuch@@ 18349
Motiv 18347
szene 18347
Islam@@ 18346
Hoffnung 18342
Vereinigte 18341
ücks@@ 18340
feiern 18337
Oh@@ 18336
niederländische 18336
gerechnet 18334
glück@@ 18334
tori@@ 18334
ausgerüstet 18331
Els@@ 18330
einsatz 18326
Konzert@@ 18325
ograf 18325
Plätzen 18320
Geschäfte 18318
Ankl@@ 18315
Belast@@ 18315
Zugleich 18315
besitz@@ 18312
gebaute 18311
vent 18311
Schot@@ 18310
Verbandes 18310
erkannte 18307
Ruine 18306
verbreitete 18304
Beach 18303
finanziert 18303
oler 18301
ätten 18299
Fest 18297
klärung 18297
Knoten 18294
ves 18294
Bulgarien 18293
Fünf 18291
Johanna 18283
Dialog@@ 18282
belg@@ 18277
nutzt 18274
Sees 18272
ferin 18270
6,@@ 18269
Bundestags@@ 18269
Gebirgs@@ 18265
Anwalt 18263
Selb@@ 18262
bezirks 18261
Dim@@ 18258
Versicherungs@@ 18258
Legislatur@@ 18255
Premier 18255
ierend 18252
Gall@@ 18251
Worten 18251
etzte 18250
izieren 18249
öt@@ 18249
inische 18247
ept 18246
Block@@ 18243
Erkrankung 18241
Glaubens@@ 18241
Benz@@ 18236
lautete 18234
Kompet@@ 18233
bru@@ 18229
Erscheinungs@@ 18227
zusätzlichen 18224
1827 18223
Offen@@ 18219
sfeld 18218
Internet@@ 18217
essor 18215
ausdrück@@ 18214
Theaterst@@ 18211
may@@ 18211
Vertretern 18208
versicherung 18206
Einkommen 18203
UNESCO 18200
Time 18196
Graben 18194
esh@@ 18193
jüngste 18192
oe 18192
140 18191
Bag@@ 18188
Aufhebung 18187
Büchern 18187
phys@@ 18187
Verbände 18186
idet 18182
Restaurant 18180
Yorker 18180
Analy@@ 18179
gebräuch@@ 18178
Hoff@@ 18174
1801 18169
welle 18168
smus 18163
Gallen 18158
Trotzdem 18158
mäß@@ 18157
Ple@@ 18155
beauftragte 18151
verkehrs 18150
Flüsse 18149
Gesetze 18146
kend@@ 18143
Gesellschafts@@ 18138
Meth@@ 18134
Arzne@@ 18133
minister@@ 18133
Argum@@ 18132
Originaltitel 18129
Kämpfe 18128
reduz@@ 18128
Nicol@@ 18127
Berichte 18124
Haushalts@@ 18123
Ass@@ 18122
Mitbegründer 18121
Monte 18119
arbeits@@ 18119
Erziehung 18118
DNA 18114
verbessern 18111
Gelegenheit 18107
griechische 18106
Zehn@@ 18105
drück@@ 18103
lie 18102
14@@ 18101
1805 18100
alist 18098
nahme@@ 18098
dienstes 18096
berühr@@ 18095
kehren 18095
begriff 18094
urkund@@ 18093
Schlaf@@ 18089
Auslands@@ 18084
ical 18081
bessere 18080
worauf 18080
Prince 18076
Motorr@@ 18075
Autobahn@@ 18072
Kleinstadt 18069
erweise 18069
division 18068
CO@@ 18066
Aufklärung 18063
Flugplatz 18062
Slowen@@ 18058
gefeiert 18058
pft 18054
Elizabeth 18053
flüch@@ 18053
lichste 18052
Weiter 18051
klen 18051
lau 18050
oren@@ 18044
Debütalbum 18041
Föder@@ 18040
gesetzte 18037
Vögel 18033
ausgeg@@ 18032
Schu@@ 18031
Bebau@@ 18030
Lüt@@ 18026
Bras@@ 18024
sank 18021
transportiert 18020
1804 18015
club 18015
station@@ 18014
sul 18014
Eric 18013
nhaus 18012
Ausgangs@@ 18010
Nachkriegszeit 18003
ARD 17998
beha@@ 17997
Stic@@ 17996
fah@@ 17995
Offiziere 17994
verkaufen 17992
Historic 17990
Interpretation 17988
einander@@ 17988
ikern 17985
etten@@ 17984
Day 17983
enseits 17983
NATO 17977
werfen 17977
jan 17974
tiefe 17974
Wein 17973
efer@@ 17972
fung 17972
Aspekte 17971
berat@@ 17971
vog@@ 17971
Verbot 17970
Alban@@ 17969
Amer@@ 17968
Sens@@ 17967
Pass 17964
Key@@ 17963
erbte 17961
Div@@ 17958
ński 17958
Triebwagen 17957
Schichten 17954
verkle@@ 17951
Tennis 17950
agr@@ 17950
feuer@@ 17950
teilungen 17950
verstor@@ 17944
By@@ 17939
dynam@@ 17938
german@@ 17936
nachfolgenden 17934
wah@@ 17932
Creek 17925
Roland 17924
Gä@@ 17922
Little 17922
wachung 17920
Verteidiger 17919
1793 17918
Harvard 17916
erfahren 17914
ließ@@ 17914
SA@@ 17908
Verbr@@ 17907
pat@@ 17905
Messe 17904
Darin 17902
Vorsitz 17902
isses 17902
ë@@ 17901
Bin@@ 17900
Statue 17897
ś@@ 17897
Golf 17894
ligkeit 17891
Müh@@ 17890
tausend 17890
versamm@@ 17886
lass 17885
erkennt 17884
Hauptdar@@ 17882
osse 17881
pfel 17881
inter 17878
Hak@@ 17875
Tap@@ 17874
Probl@@ 17871
Gesicht 17870
interess@@ 17869
AB@@ 17868
Haft@@ 17868
emeinde 17866
Eines 17864
hä@@ 17864
veröffentlich@@ 17862
VA 17861
ú@@ 17861
literatur 17858
atorin 17857
Früchte 17856
herum 17856
Gewichts@@ 17854
spanischer 17852
Flo@@ 17851
ansonsten 17851
getrenn@@ 17850
reiches 17850
ū 17849
übernimmt 17847
eingeladen 17846
Hierzu 17842
projekte 17840
dost@@ 17839
A.@@ 17837
Wiss@@ 17837
instrum@@ 17836
sarbeit 17836
erklären 17832
nationalsozialistischen 17830
öte 17828
Jugoslawien 17823
ky@@ 17823
mens 17823
Gesell@@ 17821
Scheit@@ 17821
su 17820
ächte 17820
Lyon 17815
arischer 17814
ingenieur 17814
Chance 17810
Meh@@ 17810
Rosa 17809
seit@@ 17809
FF@@ 17808
repräsent@@ 17807
speziellen 17806
förderung 17803
Mord 17802
Verluste 17800
lip@@ 17799
zeige 17796
avi@@ 17794
Nicht@@ 17793
verord@@ 17786
Sonntag 17784
arabischen 17783
della 17782
Vorlage 17781
spätestens 17781
ado 17780
Danzig 17778
stammenden 17777
Aussehen 17775
It 17775
linger 17770
linke 17769
fühl 17765
Geologie 17762
Gast 17760
som@@ 17760
singen 17759
PD 17757
reak@@ 17757
dan 17754
retten 17754
1,2 17749
Sanierung 17749
punk@@ 17748
13@@ 17747
geöffnet 17747
Bäume 17746
bestimmen 17743
Zentimetern 17741
bekommt 17741
Kauf 17740
grab@@ 17739
kov@@ 17739
Berufung 17738
riff@@ 17738
LP 17737
Regiments 17733
Sta@@ 17731
Begriff@@ 17730
Erwar@@ 17729
Vereinten 17729
rier@@ 17729
geräte 17727
unmittelbarer 17727
Mischung 17722
berühmten 17721
spannung 17721
Allgemeine 17720
menschliche 17715
Männer@@ 17714
ichter@@ 17714
pper 17714
Öst@@ 17713
alleine 17711
Manchester 17710
wegs 17708
Donn@@ 17707
Lud@@ 17705
wirklich 17704
gehal@@ 17702
Gulden 17696
vermi@@ 17696
Blo@@ 17693
Gum@@ 17693
inghausen 17693
schaftlichen 17693
teure 17692
It@@ 17691
Fahrzeugen 17687
ickelt 17685
landwirtschaftliche 17685
zugeben 17682
Dokumentation 17681
Gär@@ 17681
Südamerika 17681
Details 17680
Ken@@ 17680
Schlu@@ 17676
Vizemeister 17676
forderung 17676
geword@@ 17675
Lehrer@@ 17674
aker 17674
händler 17673
Brücken 17670
itig 17669
scheit@@ 17669
bestattet 17667
onen@@ 17667
Zuletzt 17666
Barr@@ 17665
imit@@ 17664
adt 17660
Reit@@ 17659
Waren 17655
Lediglich 17652
pack@@ 17652
Kulturdenkmale 17651
triebs@@ 17651
nommen 17648
200@@ 17647
europä@@ 17645
stellerin 17645
tit@@ 17645
Mitarbeit@@ 17642
Ingenieur@@ 17641
schnitten 17641
grup@@ 17640
utt@@ 17640
reiter 17639
Wilhelms 17636
iziert 17634
Eier 17632
Sportliche 17632
vin@@ 17630
Bielefeld 17628
slaw@@ 17627
Atelier 17625
kels 17621
ilige 17618
umfass@@ 17618
japanischer 17617
law 17614
kub@@ 17612
Georges 17611
chemische 17609
verlässt 17608
Andre@@ 17606
Grim@@ 17606
dot@@ 17605
bi 17599
Sof@@ 17597
erfolgreichsten 17597
Buc@@ 17595
Gedanken 17591
ör 17590
40@@ 17588
alp@@ 17586
Michigan 17585
Kraftwerk 17584
eser@@ 17584
Janeiro 17583
verbind@@ 17582
Opposition 17578
feier 17577
Mam@@ 17574
Adj@@ 17573
bewal@@ 17572
gif@@ 17572
Foundation 17571
obere 17571
schwach 17569
lassung 17567
belegen 17566
Lizenz 17563
Technologie 17563
Hauptbahnhof 17560
Siegfried 17559
stattfinden 17559
Pok@@ 17552
fir@@ 17550
Nob@@ 17549
Nördlich 17549
Jes@@ 17548
lateinischen 17548
Dauer@@ 17547
Andrea 17546
Vorgeschichte 17546
Rajon 17545
AP@@ 17543
Pommern 17542
monat@@ 17537
landwirtschaftlich 17536
grab 17533
Lis@@ 17532
abgegeben 17531
ous 17531
seig@@ 17531
Ny@@ 17530
deg@@ 17530
Personal 17529
Therapie 17526
verpflich@@ 17524
Austausch 17523
Stabil@@ 17523
besaßen 17521
ündung 17518
taucht 17517
Rolf 17516
Mom@@ 17515
tisches 17515
wovon 17514
Blau 17513
ickl@@ 17513
bricht 17511
Außer@@ 17507
Testament 17507
attr@@ 17507
bestellt 17507
installiert 17506
KPD 17504
bedro@@ 17502
gedruckt 17502
tra@@ 17501
Falls 17499
iber 17497
ony@@ 17496
Ausgrabungen 17494
algemeinde 17494
christliche 17491
iment@@ 17487
fallenen 17483
messer 17480
Gef@@ 17479
Eid@@ 17477
hoff 17473
ätigkeit 17471
Skel@@ 17466
iertes 17458
Kardin@@ 17457
Maschin@@ 17457
1823 17454
Sohnes 17454
überraschend 17452
Whit@@ 17450
vieren 17449
Schwarzen 17447
inski 17447
Vin@@ 17445
1600 17444
unmittel@@ 17443
bevorzug@@ 17438
feder@@ 17435
senk@@ 17434
Gewinner 17430
otischen 17430
ho 17429
Grun@@ 17428
Wirbel@@ 17427
Zul@@ 17426
tek@@ 17426
äg@@ 17422
Neuh@@ 17420
Zufluss 17420
gemäß@@ 17420
mitgliedern 17418
russisch 17418
angef@@ 17417
alisiert 17416
jan@@ 17415
gebnis 17414
ragt 17413
Gespräch 17412
hierzu 17409
bec@@ 17405
prägte 17404
BBC 17402
12@@ 17401
Miller 17399
Flan@@ 17398
berüh@@ 17398
weilen 17391
Truppen@@ 17390
din 17387
schot@@ 17387
tron@@ 17387
Abent@@ 17386
Antrieb 17386
beschri@@ 17379
Bürgerkrieg 17378
otyp 17378
Bildern 17373
holt 17372
kraftwerk 17367
Dies@@ 17366
Darunter 17362
Maße 17362
Bamberg 17361
Entscheidungen 17360
zurückzuführen 17360
stock 17358
esk@@ 17357
ahme 17355
regelmäßigen 17348
ungsort 17348
Gäste 17346
ems 17346
Demokratie 17343
assi@@ 17343
Wis@@ 17342
antreten 17340
eimer 17336
Inzwischen 17334
ologien 17334
stuhl 17333
ziel 17332
Königreichs 17325
Asi@@ 17323
Pfund 17323
positive 17323
technisch 17323
Gan@@ 17320
anze 17320
unklar 17320
publi@@ 17319
Dop@@ 17316
energ@@ 17315
nächst@@ 17311
Schwäb@@ 17310
digungen 17309
medizinische 17306
zent 17305
Kaserne 17304
Schreibweise 17299
Politikwissen@@ 17298
krieges 17298
Innenraum 17296
sende 17292
sto@@ 17291
Symb@@ 17290
ovice 17286
Palais 17285
gebunden 17285
lieb@@ 17284
umfangreichen 17276
Ali@@ 17273
Absol@@ 17270
Skulp@@ 17270
gesperrt 17270
Model 17268
ahr 17268
unterzeichnete 17267
Journal@@ 17265
Mitteleuropa 17263
worth 17263
Karl@@ 17262
kandidierte 17262
trich@@ 17262
geeign@@ 17261
Erweiter@@ 17258
Township 17258
erfüllen 17258
Zweig@@ 17257
fried 17256
Kreise 17254
Alex 17250
unkt 17250
urgischen 17249
cor@@ 17246
wissenschaftlich 17245
Sand 17243
ezeit 17243
ungl@@ 17242
Beobach@@ 17241
gedacht 17241
mo 17241
Chr@@ 17240
Krise 17239
gotischen 17238
Fab@@ 17237
Hospital 17235
Obergeschoss 17235
soweit 17235
Lokomotive 17234
Begriffe 17233
Klam@@ 17229
Voraussetzungen 17228
Bernd 17227
Salzburger 17225
erz@@ 17224
orientiert 17221
Übertragung 17221
pfel@@ 17218
Rhyth@@ 17216
typisch 17215
ias 17214
ried 17213
Fiction 17207
Behin@@ 17205
Feuerwehr@@ 17200
gesundheit@@ 17198
semester 17198
teilungs@@ 17196
Europe 17195
Anthony 17192
CA@@ 17192
deck 17192
hüter 17190
Van@@ 17189
ansässigen 17189
legungen 17189
Jagd 17186
enseite 17185
Auto@@ 17184
gewächse 17183
tüm@@ 17183
schi 17182
Soh@@ 17181
Unabhängig@@ 17181
Country 17180
Mineral@@ 17179
hydr@@ 17179
Costa 17178
Zwecke 17177
ensen 17177
kaiser@@ 17177
mitte 17177
rüc@@ 17177
Vermö@@ 17174
Vorläufer 17174
Business 17172
unweit 17167
bese@@ 17166
han 17166
stig@@ 17165
zugeteilt 17164
Nacional 17163
ps@@ 17161
uri 17161
dach@@ 17158
ero@@ 17158
oti@@ 17155
Direkt@@ 17152
nä@@ 17147
wählen 17145
TSV 17144
pflanzen 17143
Hände 17142
schef 17139
Gitarrist 17136
quellen 17136
Bernard 17135
keinem 17132
Europä@@ 17131
Eis 17130
Räum@@ 17129
hain 17129
Klet@@ 17128
vorerst 17126
Schild@@ 17125
genz 17125
platzierte 17123
gebnisse 17121
Staatsexamen 17118
Termin@@ 17116
Juli@@ 17115
ativer 17115
peri@@ 17115
Aufführung 17111
Entlassung 17110
Glück 17110
plex 17108
ries@@ 17105
aters 17101
wen 17100
Deut@@ 17098
Holland 17098
turnier 17097
Empfang@@ 17096
Übersicht 17096
Allen 17095
stabil@@ 17094
such 17094
verm@@ 17090
Loc@@ 17088
Racing 17087
Napoleon 17086
Diesen 17083
Vok@@ 17083
Territori@@ 17082
Bogen 17080
ogr@@ 17079
reis 17078
ommen@@ 17076
ops 17075
tatsäch@@ 17075
Lebensjahr 17074
Lady 17071
Erzählungen 17069
begrün@@ 17066
Zusatz@@ 17065
aga 17063
Gloc@@ 17058
eur 17058
ministers 17056
töd@@ 17056
mäßige 17055
Rah@@ 17052
asser@@ 17050
icus 17048
verab@@ 17046
Air@@ 17045
Titelverteidiger 17045
Klima@@ 17044
lia 17042
engel 17041
not 17040
eiför@@ 17037
ürzt 17036
produkte 17030
Teilneh@@ 17029
Wik@@ 17029
ès 17028
Kim 17027
Mittelme@@ 17027
osom@@ 17026
altungen 17022
Fen@@ 17021
Nationalversammlung 17021
Pferde 17018
Abkommen 17016
loch 17015
oi 17014
Kriterien 17009
beenden 17008
vorne 17008
angestellt 17007
überführt 17007
human@@ 17006
Forum 17003
Erzbistum 17001
Over@@ 16995
fotograf@@ 16995
District 16992
XV@@ 16992
gelangt 16992
umfassen 16992
Temperaturen 16986
ux 16983
stattfin@@ 16982
will@@ 16981
Vet@@ 16980
zugeschrieben 16978
länd@@ 16976
Konzentr@@ 16974
Kommis@@ 16968
Wachstum 16967
War 16967
zusammengesch@@ 16965
Pflege 16962
Empfeh@@ 16961
ande 16961
entes 16959
1700 16955
Dau@@ 16955
usstsein 16955
versicher@@ 16955
hinteren 16950
Boc@@ 16946
Luther 16943
Verletzung 16941
ion@@ 16941
pt 16940
5.@@ 16939
sgebäude 16937
Minnesota 16936
Stephen 16934
ieder 16929
Wesen 16928
Jim 16927
Gemeinschafts@@ 16924
Werbe@@ 16924
halte 16923
samen 16923
Bald 16915
vielmehr 16907
Prozesse 16906
Clubs 16903
Verfass@@ 16900
Pflanze 16888
ef 16888
Gewöl@@ 16884
Grube 16881
Luis 16881
10.@@ 16880
erschossen 16879
niedrig@@ 16878
neuer@@ 16876
zut@@ 16876
Lissabon 16872
höhung 16871
kmale 16870
RS 16869
dichte 16869
Rainer 16868
Wer 16868
Asp@@ 16867
Oskar 16866
laus@@ 16864
Alliierten 16863
wohl@@ 16857
urgie 16852
vergröß@@ 16852
erschein@@ 16848
uelle 16848
13,@@ 16844
EG 16844
ever@@ 16844
großem 16844
Stadtbezirk 16842
röm@@ 16842
Marcus 16841
Infanter@@ 16839
Angel@@ 16838
luft@@ 16838
125 16837
Evangelisch 16831
Vorfeld 16829
Begleit@@ 16827
bestand@@ 16826
na@@ 16824
ischsprachigen 16822
Erlangen 16821
Generalleutnant 16819
HK 16819
Terror@@ 16816
schwerer 16816
Entwicklungen 16815
Bridge 16813
konstruiert 16812
Clemens 16808
kaiserlichen 16806
stands 16806
Tari@@ 16799
plante 16799
Motive 16797
abgel@@ 16795
fliehen 16795
ansässig 16794
stift 16794
trags 16793
Website 16792
bieter 16791
ík 16791
Katholiken 16790
Rog@@ 16789
Klang@@ 16788
ige@@ 16783
Coun@@ 16782
Afrik@@ 16778
olo@@ 16776
Falken@@ 16775
bedarf 16775
wesentliche 16775
Chemnitz 16770
br 16769
ej@@ 16767
Episode 16764
straf@@ 16764
geschah 16762
Nürnberger 16761
pfalz 16761
gliedert 16758
koordin@@ 16758
Louise 16756
gewinn@@ 16755
Süß@@ 16752
sius 16752
Siz@@ 16748
Port@@ 16746
rik 16745
Philos@@ 16739
nes@@ 16738
Stifts@@ 16737
Jugendlichen 16736
erinn@@ 16736
angebot 16734
sim@@ 16734
edel@@ 16733
Artiller@@ 16730
sten@@ 16726
zehnten 16725
23@@ 16722
Kne@@ 16722
tigkeits@@ 16722
charts 16716
stati@@ 16716
Aires 16715
erschien@@ 16715
verbinden 16715
Mant@@ 16710
bek 16707
stär@@ 16707
teres 16706
tilien 16705
Kes@@ 16704
uropa 16704
Dritte 16703
hervorrag@@ 16703
beteiligung 16702
jahres 16702
schlech@@ 16700
Nordwest@@ 16696
stillgelegt 16696
Waffe 16694
kommende 16693
kop 16692
Regis@@ 16690
übergab 16690
Problemen 16689
AM@@ 16688
Anpass@@ 16687
Evangelische 16687
ainer 16687
änglich 16686
ächter 16684
beschleun@@ 16683
ichert 16682
schlechten 16682
automatisch 16680
aufgaben 16675
Reser@@ 16674
Affäre 16673
Redaktion 16670
schwarz@@ 16669
Quar@@ 16667
Power 16658
sters 16658
retär@@ 16655
hofer 16651
zustan@@ 16647
ischsprach@@ 16643
Grande 16642
Thailand 16642
maximale 16642
Heide 16641
aufenth@@ 16641
Bedürf@@ 16638
ständigkeit 16637
vögel 16636
berichten 16631
vorderen 16631
jährlichen 16629
Disziplin 16628
enfabrik 16627
meng@@ 16626
arium 16625
kehrt 16623
anat 16622
dritter 16621
Siedler 16618
tich 16618
erneuten 16616
urn@@ 16614
Wand 16613
Laut@@ 16612
panz@@ 16611
Lorenz 16610
Standorte 16610
äischen 16607
Vogel 16606
Baudenkmäler 16605
Sieben 16604
geschehen 16604
Long 16603
Bataillon 16602
spreis 16601
demnach 16600
untere 16597
Fru@@ 16589
Kroatien 16589
Bewertung 16587
Regisse@@ 16587
Verletzungen 16585
prop@@ 16585
ium@@ 16583
Artillerie 16581
Free 16577
Til@@ 16575
illon 16571
tia 16571
Bac@@ 16569
Denk@@ 16566
unker 16565
Oslo 16563
zeitliche 16563
Buenos 16562
Steiermark 16561
anschließ@@ 16561
Vermutlich 16560
Insekten 16559
orb@@ 16557
verlaufen 16556
Bec@@ 16551
wesens 16551
Wellen@@ 16549
Erleb@@ 16548
Säu@@ 16548
Tum@@ 16547
Turin 16547
mende 16546
Horn 16542
Komponenten 16542
bedeutend@@ 16541
kompl@@ 16540
Becker 16538
tas@@ 16534
pok@@ 16533
Umgeben 16531
nges@@ 16529
tezeit 16526
Gesangs@@ 16522
bestä@@ 16522
gestif@@ 16520
bewegt 16519
Überblick 16516
Münzen 16513
brannte 16513
Industrie@@ 16507
Regelung 16507
trennen 16506
Forscher 16505
Single@@ 16505
Verteilung 16502
Forderungen 16499
Priesterweihe 16497
uck 16497
ebungen 16493
kollegen 16492
Lus@@ 16489
Reinhard 16488
Islam 16484
bis@@ 16484
Mitglied@@ 16483
forts@@ 16482
Konstantin@@ 16479
gerin 16479
Täter 16477
erschlossen 16476
erwies 16475
Kämp@@ 16470
gewählte 16470
Airport 16469
gleichnamige 16468
landwirtschaftlichen 16468
11,@@ 16466
Einflüsse 16463
ffer@@ 16463
neb@@ 16460
Kap 16457
Kug@@ 16456
amkeit 16456
ual@@ 16455
wolle 16453
Net@@ 16452
Pedro 16451
konvention@@ 16451
geregelt 16449
Planungen 16445
schlägt 16445
Vorjahr 16443
ør@@ 16442
brech@@ 16440
Könige 16436
court 16436
ope 16436
orenen 16435
endor@@ 16433
Conrad 16432
prüft 16429
Well@@ 16428
Dessen 16426
glaub@@ 16423
male 16423
Elf@@ 16421
üben 16420
dekor@@ 16419
Luther@@ 16418
schiffen 16417
ME@@ 16415
Badminton 16413
orthodo@@ 16412
Gedicht 16408
Konservatorium 16405
Bret@@ 16404
Hang@@ 16403
denkmalgeschützten 16403
System@@ 16399
tica 16399
Übergangs@@ 16397
skop@@ 16391
Schlagzeug 16390
alben 16390
personen 16387
Julia 16386
Karto@@ 16386
Sterne 16384
1794 16383
regional 16383
etablierte 16379
verabschied@@ 16378
Och@@ 16374
Zwill@@ 16372
Presse@@ 16371
itter 16370
Statisti@@ 16367
arm 16367
allein@@ 16362
Long@@ 16361
mige 16361
betont 16358
marki@@ 16358
haven 16357
Versorgungs@@ 16356
Kampagne 16355
unterneh@@ 16354
kinder@@ 16352
schneller 16351
konzentrierte 16349
ý@@ 16349
Sam 16347
versorgt 16344
konkurrenz 16340
rest@@ 16340
ár@@ 16337
Bergbau 16336
sitzen 16336
pol 16335
türk@@ 16334
isträger 16332
lichung 16328
Gebietes 16326
See@@ 16326
hinweg 16325
spitz@@ 16324
sturz 16324
marke 16323
modi@@ 16323
Drehbuchautor 16322
gehandelt 16322
Pflicht@@ 16321
Wy@@ 16316
kirchlichen 16316
wohlhab@@ 16316
Queen 16308
höl@@ 16307
Typen 16302
architek@@ 16302
Bus 16298
akademischen 16298
4,5 16297
line 16297
Fon@@ 16296
eku@@ 16295
een 16294
ehrenamt@@ 16294
unge@@ 16294
verheirat@@ 16294
Hubraum 16293
rain 16293
Bahnh@@ 16292
schlägen 16291
Parlaments 16288
ektiv@@ 16288
investi@@ 16288
Büro@@ 16285
Kirchspiel 16284
ziger 16284
bühne 16283
erhebliche 16283
Einkauf@@ 16282
Wirt@@ 16281
samer 16281
Fläch@@ 16279
farbe 16277
onaler 16276
junger 16275
Konzentrations@@ 16274
berühm@@ 16271
position@@ 16271
vereinigt 16269
Straßenbahn@@ 16267
16@@ 16266
bürgerlichen 16265
tigungen 16265
zentren 16265
inklusive 16263
Begeg@@ 16262
ebo@@ 16262
Verantwor@@ 16261
Ök@@ 16261
zeitwe@@ 16258
Sm@@ 16257
Überlieferung 16256
chef 16251
ausgelegt 16249
Senator 16247
same 16247
Inhalte 16246
Ensemb@@ 16245
Ankunft 16244
č 16244
with 16237
nich@@ 16235
etts 16232
fasste 16229
richs 16227
Schwim@@ 16224
Alice 16223
lüsse 16222
Erstaus@@ 16220
Fertig@@ 16220
Struktur@@ 16219
Ereignis 16215
Bedro@@ 16213
Schles@@ 16213
Verleger 16206
zweigeschossig@@ 16204
Gam@@ 16203
Vorgäng@@ 16201
Explo@@ 16199
Hochschulen 16197
Wohnungs@@ 16197
Jörg 16196
benachbar@@ 16191
codice 16190
studieren 16188
phy@@ 16187
orchester 16185
unabhängige 16183
verteidigen 16182
gestiegen 16176
Schaf@@ 16173
Turn@@ 16171
tätigkeit 16171
literarischen 16170
gehabt 16169
Asien@@ 16166
Muster 16165
Mord@@ 16160
Theatre 16160
FI@@ 16158
Kristall@@ 16154
blü@@ 16151
lug 16150
Sache 16148
vik@@ 16147
Umbenennung 16146
namentlich 16146
Humboldt 16142
René 16142
magazin 16140
Bevölkerungsdichte 16139
ausreich@@ 16138
sitzt 16138
Rumpf 16136
geneti@@ 16135
Vorlesungen 16131
Turnieren 16129
signi@@ 16129
Kong@@ 16127
fliegen 16125
bestritten 16123
jüngerer 16122
flächen@@ 16121
Tür 16116
büchern 16116
Entsteh@@ 16112
detail@@ 16112
liederung 16112
iß 16110
Ausrüstung 16108
NFL 16108
firmi@@ 16108
zwischenzeitlich 16108
Stipendium 16106
Sud@@ 16106
Entdec@@ 16105
Paar@@ 16104
Westseite 16103
Koalition 16101
experiment@@ 16101
Landesstraße 16098
ink 16097
more 16097
gegeneinander 16093
Howard 16092
geliefert 16091
persön@@ 16090
uni@@ 16090
ungszeit 16084
FF 16082
Luzern 16082
arius 16077
Dör@@ 16075
Oberbürgermeister 16074
gesagt 16073
Paulo 16072
cen 16071
CE@@ 16070
Phosph@@ 16068
show 16068
BMW 16067
folgen@@ 16067
gericht@@ 16067
bericht 16066
byzant@@ 16066
ley@@ 16065
Schacht 16061
inhaf@@ 16061
Voraussetzung 16060
Soziologie 16059
näch@@ 16059
Fulda 16058
Helsinki 16057
Hotels 16055
grüne 16054
Blatt 16053
Sommerspiele 16052
ron 16050
Musikern 16049
denken 16048
video 16047
deckt 16046
thalle 16044
gerichtet 16043
ummer 16043
becker 16039
Polize@@ 16038
Elektron@@ 16037
jewitsch 16037
aph@@ 16035
SW@@ 16034
trotzdem 16033
Angriffe 16032
Speicher@@ 16031
eid@@ 16030
erforsch@@ 16029
ory 16026
tchen 16025
metall@@ 16023
angekündigt 16022
gewinn 16021
Heilige 16020
lins 16020
annes 16016
astroph@@ 16015
sow 16014
symmetr@@ 16008
1790 16007
Solo@@ 16007
kent@@ 16007
26@@ 16006
Läng@@ 16006
NBA 16005
gemessen 16004
Pferd 16003
Filmf@@ 16001
ini@@ 16001
debüt 15998
eser 15998
win 15997
arz@@ 15996
zif@@ 15995
ements 15993
Kari@@ 15992
Publiz@@ 15990
Südlich 15987
unterhält 15987
Flüchtlinge 15986
positions@@ 15986
träts 15986
krankhe@@ 15984
Ausdehnung 15983
Elementen 15982
Willen 15982
ifen@@ 15980
eds 15979
Kämpfen 15977
Qualitäts@@ 15977
französisch 15977
Studioalbum 15976
Bour@@ 15975
Fü@@ 15975
Int@@ 15974
Handball@@ 15973
Saal 15963
illy 15962
Zeche 15960
osman@@ 15960
Gemäß 15959
analyse 15959
mensch@@ 15959
Zensus 15957
aud 15956
fahrens 15956
k.@@ 15953
wind@@ 15952
KW 15950
aufnehmen 15949
horst 15949
waltschaft 15949
zeitgenössischen 15949
Texten 15946
Empf@@ 15944
Tatsächlich 15944
metr@@ 15944
geführte 15938
sher@@ 15937
Game 15935
kritisch 15935
Genehmigung 15933
registriert 15931
finnischen 15930
ämmer@@ 15927
äßig 15925
stad@@ 15922
Brust@@ 15921
eau 15920
Francesco 15919
Immun@@ 15918
längeren 15918
Oste@@ 15916
Brian 15913
Ray 15912
Schrif@@ 15912
Film- 15911
autor 15911
franken 15911
did@@ 15910
bares 15905
Bruders 15904
Phar@@ 15904
Paderborn 15903
elben 15899
Lap@@ 15898
Polar@@ 15898
kömm@@ 15897
dänische 15896
emper@@ 15896
1792 15894
Winkel 15894
Begründung 15892
Neuk@@ 15892
Angriff@@ 15891
schwierig 15889
dreh@@ 15888
Abwehr@@ 15887
Sprung 15887
Geistlicher 15886
zig@@ 15886
extrem 15884
Morgen@@ 15883
biet@@ 15883
wissenschaft@@ 15883
Handball 15881
reine 15881
shafen 15881
UdSSR 15879
publiziert 15879
Agrar@@ 15877
Erben 15876
renoviert 15874
AC@@ 15872
Cot@@ 15871
Turni@@ 15868
Verbrechen 15866
Glasgow 15865
spf@@ 15865
gesammelt 15864
halben 15862
1940er 15861
Römer 15861
separ@@ 15859
ský 15859
Zier@@ 15857
Modern@@ 15856
entiert 15856
cup 15855
gewöl@@ 15853
stütz@@ 15853
Mitteln 15852
Schätz@@ 15852
bereichen 15852
erech@@ 15850
medizin@@ 15850
Anth@@ 15849
amente 15849
töten 15849
chil@@ 15848
ennfahrer 15847
welchen 15847
Manus@@ 15846
goldenen 15844
liefert 15843
stän@@ 15842
verleih@@ 15840
Hain@@ 15839
Portugi@@ 15839
baidsch@@ 15839
Gefäng@@ 15838
Sedi@@ 15838
ücks 15838
itten 15835
ET@@ 15824
boot 15824
angetrieben 15822
Landwirtschafts@@ 15818
Mercedes 15817
Bow@@ 15816
Ful@@ 15811
ehrung 15811
Arch@@ 15809
Hob@@ 15809
Ausscheiden 15808
Gärten 15807
bemer@@ 15806
ns@@ 15806
tiefen 15806
äume 15804
Charak@@ 15803
12,@@ 15800
Missions@@ 15800
Eigenschaft 15799
dol@@ 15799
6.@@ 15797
Sprech@@ 15794
ustrie 15793
Harald 15792
dia 15792
Leicht@@ 15791
Organis@@ 15787
Reform 15787
seitens 15787
fünfte 15785
effizi@@ 15783
Kleinen 15782
po 15782
arf 15780
itigkeiten 15780
thiop@@ 15778
Rüst@@ 15776
27@@ 15774
Anim@@ 15773
renommi@@ 15773
Herrn 15772
1.000 15771
amtlich 15767
Anhäng@@ 15765
wirkungen 15764
zipi@@ 15764
Restaurierung 15763
Ärzte 15763
uma 15762
gewonn@@ 15757
zwöl@@ 15756
bedroht 15755
älterer 15753
dauerhaft 15751
Keh@@ 15749
Asteroid 15748
Nic@@ 15747
revolution 15747
Mathematiker 15743
kalen 15742
zugehen 15742
Schließung 15741
Unentschieden 15741
leitungen 15739
Gefangenschaft 15738
durchschnit@@ 15736
zeugte 15736
verzeichnis 15732
auft 15731
ersetzen 15730
Unterscheidung 15728
Heilbronn 15727
Ort@@ 15727
müs@@ 15727
ators 15726
Stir@@ 15725
beauftrag@@ 15724
Hauptsitz 15720
Freizeit@@ 15719
Sag@@ 15719
Stadium 15718
öl 15718
Gregor 15717
Vordergrund 15717
Güterverkehr 15715
katholisch 15714
lere 15714
Dinge 15713
bekämp@@ 15713
Inspek@@ 15710
Säng@@ 15710
Dres@@ 15708
Zucker@@ 15708
Enzy@@ 15707
Peru 15704
sturm 15700
Montreal 15698
thal@@ 15696
ritt@@ 15695
werkes 15693
Provin@@ 15690
Geburt@@ 15689
Gehir@@ 15688
Lamp@@ 15685
Vereinen 15680
Vorbereit@@ 15680
Peri@@ 15679
reicher 15679
ü 15679
unterschied 15676
mith@@ 15671
attet 15670
gefügt 15670
dei 15669
deutschsprachige 15666
aer 15665
konstruk@@ 15665
Spons@@ 15664
Kum@@ 15661
verursacht 15661
rak@@ 15658
Achse 15656
verarbeitet 15655
Schal@@ 15653
Georgia 15648
beobachten 15648
Zister@@ 15645
olith@@ 15644
verdan@@ 15641
Loire 15639
arte 15639
Staatlichen 15636
1789 15632
Ganz@@ 15631
verschoben 15631
Gouver@@ 15630
Path@@ 15628
ude 15626
Blan@@ 15623
Freunden 15623
Lai@@ 15623
Takt 15621
anda 15619
siv@@ 15615
Micha@@ 15608
1797 15604
Ross 15604
ukrain@@ 15604
Kond@@ 15603
Leih@@ 15601
Block 15600
bind@@ 15600
Gericht@@ 15597
Leser 15596
MA 15595
Gh@@ 15594
ept@@ 15594
gewissen 15593
flachen 15591
Litauen 15590
Landesregierung 15588
Stück@@ 15587
demokrati@@ 15580
markiert 15580
Zerstör@@ 15577
Franziskan@@ 15576
aat 15576
verkehren 15576
beige@@ 15575
itig@@ 15575
archit@@ 15574
fügt 15574
Chefredakteur 15573
Reserv@@ 15573
bra@@ 15573
ehenden 15570
iy@@ 15569
verließen 15568
Alex@@ 15567
flüssig@@ 15567
Historische 15566
Rande 15566
zit@@ 15566
för@@ 15565
verspr@@ 15565
Erhol@@ 15564
andter 15563
türkische 15561
Biografien 15559
diejen@@ 15559
Olympische 15555
Ih@@ 15554
eli 15552
ameisterschaften 15551
Dokumente 15549
annschaft 15549
gru@@ 15549
Cent@@ 15547
Fürstentum 15546
poche 15545
Lippe 15539
Löwen@@ 15536
Pfle@@ 15536
ostr@@ 15535
stra@@ 15535
Nachbarorte 15528
Befreiung 15526
hte 15526
Fotos 15525
Stap@@ 15525
Sports 15524
Wuppertal 15524
normalen 15524
Tend@@ 15523
inos 15520
ppt 15518
2.000 15517
Cover@@ 15517
Abgrenzung 15516
Bord@@ 15513
Attent@@ 15512
produkt 15512
geehrt 15511
Sandstein 15510
betrach@@ 15510
kraf@@ 15507
Arg@@ 15505
chteten 15505
ßt 15504
befreund@@ 15502
links@@ 15502
jag@@ 15501
teilnahm 15499
öcke 15499
genü@@ 15498
seitlich 15496
Benedikt 15493
Titular@@ 15493
Römischen 15492
Sog@@ 15492
verteidigte 15492
Behörde 15491
aufweist 15490
Aufstellung 15488
Daraus 15487
historischer 15484
Rundfunk@@ 15482
chel@@ 15481
Lek@@ 15479
eigt 15479
Kontak@@ 15477
Diskografie 15474
Ressour@@ 15473
Indon@@ 15472
vornehmlich 15470
mög@@ 15469
Aufstiegs@@ 15468
ago 15468
Fün@@ 15467
Entscheidungs@@ 15466
tional@@ 15466
mag 15464
änderung 15464
wahr 15463
Los@@ 15456
Gordon 15454
anwes@@ 15454
beliebt 15453
umfassenden 15453
Vic@@ 15452
gebot 15451
use@@ 15451
asste 15447
loser 15443
erneute 15442
stall 15442
österreich@@ 15442
Konstanz 15441
Moor@@ 15440
akte 15440
ring@@ 15438
Arz@@ 15433
VfL 15433
Teilung 15432
abend 15430
Sicherung 15429
\ 15429
latt 15427
kad@@ 15426
Mill@@ 15424
BGB 15423
Nationale 15423
Fabr@@ 15422
Geschw@@ 15422
besonderer 15422
Arbeitgeber 15421
Junior 15421
lieder 15420
Skulpturen 15419
Stanley 15416
duk@@ 15415
estens 15414
änke 15413
schli@@ 15411
Kurs 15409
Leopol@@ 15409
beer@@ 15409
tschechischen 15407
ones 15406
Alan 15405
galten 15403
lässig@@ 15403
Periode 15402
Play@@ 15399
Gottesh@@ 15396
wendet 15396
ausstattung 15395
Germanistik 15393
archiv 15393
iler@@ 15393
Bomben@@ 15392
Ric@@ 15392
litten 15392
davor 15389
Jede 15385
Umzug 15384
Sternbild 15383
pfälz@@ 15379
Brüdern 15377
arren 15372
Felsen 15371
ð@@ 15369
Hinsicht 15367
ellschaft 15364
euert 15364
eingewechselt 15363
liberalen 15363
krip@@ 15360
nheim 15359
atori@@ 15358
hammer 15357
Ehepaar 15356
amik 15354
entsand@@ 15354
mf@@ 15353
Haltepunkt 15351
warb 15351
omin@@ 15350
Admiral 15349
bewaff@@ 15349
älle 15349
Römer@@ 15346
origin@@ 15346
pet@@ 15345
projek@@ 15345
Australian 15344
Mr@@ 15336
Archäologie 15334
Griff@@ 15333
wol@@ 15332
vergleichbar 15331
poem 15330
polnischer 15330
Fleisch@@ 15329
Stum@@ 15328
müc@@ 15327
Bahnhofs 15325
Ereign@@ 15325
Kabin@@ 15325
ili 15325
zipien 15325
Bekenn@@ 15321
wall 15321
Kast@@ 15315
annäher@@ 15311
Las 15310
slich 15307
zugesch@@ 15306
ehel@@ 15305
No 15302
gier 15301
Höhen 15299
ival@@ 15298
Fame 15297
Syrien 15297
Itali@@ 15296
unabhängigen 15296
Küche 15295
gehoben 15291
Abbau 15290
Nau@@ 15290
Anstellung 15287
verwirk@@ 15287
akadem@@ 15286
ellip@@ 15286
Out@@ 15285
gerne 15281
Stürmer 15280
illeg@@ 15280
tys 15277
besetzte 15276
Sun@@ 15275
Durchschnitt 15270
Santiago 15270
nitz@@ 15269
Bar 15267
stücken 15266
age@@ 15265
enor@@ 15265
oa 15263
absich@@ 15260
Aer@@ 15259
andtschaft 15256
urop@@ 15256
hagen 15254
ista 15253
Neckar 15251
landete 15250
nam 15250
Denkmall@@ 15247
Index 15246
Kolonien 15245
Eintritt 15243
krieg@@ 15243
Romans 15242
Isol@@ 15241
Fließ@@ 15240
Kompon@@ 15239
allmählich 15237
dir@@ 15237
Finn@@ 15232
Neus@@ 15232
Stipendi@@ 15227
Textil@@ 15227
lehnt 15227
Stuttgarter 15226
guter 15225
Flag@@ 15224
ugehör@@ 15221
Austragung 15220
aire 15220
Mitgliedschaft 15219
dortige 15218
Verdienst@@ 15216
Ontario 15213
offizier 15211
Popul@@ 15209
Suc@@ 15209
ühl 15207
esters 15204
ähnelt 15204
geform@@ 15203
produzent 15201
hol 15200
Mathemati@@ 15192
Abraham 15191
Mäd@@ 15191
erreich@@ 15190
regeln 15190
programme 15189
Panzer 15188
Hauptrunde 15186
DV@@ 15185
Personenverkehr 15182
Jah@@ 15181
zierte 15177
Drogen@@ 15175
atisch 15173
chemischen 15172
Radr@@ 15171
Vater@@ 15171
geklärt 15171
Ausgangspunkt 15169
IP 15169
Staffeln 15169
Haar@@ 15165
Bemühungen 15159
Kni@@ 15158
Herrenhaus 15157
80@@ 15156
emigri@@ 15155
Dikt@@ 15153
Szen@@ 15153
zun@@ 15152
Tim 15151
hinterließ 15151
konstruktion 15150
Ostseite 15146
gutes 15144
vermein@@ 15144
lio 15143
verarbeitung 15142
abgehalten 15140
Ostsee 15139
erleich@@ 15138
Eisen 15137
steuer 15137
Pit@@ 15136
Fül@@ 15133
God@@ 15133
LE@@ 15133
omp@@ 15132
vorzeitig 15132
Edinburgh 15131
Leutnant 15130
Erkran@@ 15128
endok@@ 15128
funk 15128
ome@@ 15128
ric@@ 15124
ebten 15123
wälder 15123
elen@@ 15122
Henn@@ 15121
bedeutender 15121
stin@@ 15121
stetten 15119
onnen 15117
Rahmen@@ 15114
Staatsbürger@@ 15114
reis@@ 15113
tropischen 15113
echten 15112
Hyper@@ 15111
Austria 15110
hül@@ 15110
Cheftrainer 15108
prache 15107
Düsseldorfer 15106
allgemein@@ 15103
Pfleg@@ 15102
borg 15100
säure 15096
Veränderung 15093
geprägten 15091
Sarah 15089
ärten 15089
Diego 15088
bezeichnen 15086
stadion 15085
fertigen 15082
Regime 15080
familien 15080
eingeschränkt 15078
Betreiber 15077
engang 15077
ächern 15077
öse 15077
gehalt 15074
Thüringer 15073
berief 15071
Honor@@ 15069
heitlich 15068
gebenden 15065
plötzlich 15065
erfolgreichste 15064
würfe 15061
Herzogs 15060
quote 15060
osp@@ 15059
Beendigung 15057
sorgen 15057
Tier 15056
Moskauer 15055
Run@@ 15053
Philip 15051
Lied@@ 15047
Hohl@@ 15045
Völ@@ 15045
Bibel 15044
torin 15044
Damals 15043
Gy@@ 15042
Reederei 15042
Mythologie 15041
erne@@ 15041
fehlte 15038
Manche 15037
heiraten 15036
Marco 15035
dos 15035
CSU 15034
ausstellungen 15033
verzichtet 15033
Maurice 15032
liebe 15032
Dreif@@ 15031
Moschee 15031
itas 15030
Passagiere 15029
nomin@@ 15029
was@@ 15025
Waffen@@ 15024
mäßigen 15024
Diplomat 15022
Kurzfilm 15019
Zürcher 15019
altes 15018
drucks@@ 15017
Param@@ 15016
aktu@@ 15016
aufzunehmen 15016
Freie 15015
Glet@@ 15015
Kennzeichen 15015
forderten 15015
Blin@@ 15013
Experim@@ 15013
enko 15013
wachsenden 15013
Christopher 15011
Bekannt@@ 15010
kular@@ 15009
Schnitt 15006
vermehrt 15006
old@@ 15005
Entertainment 15004
Erm@@ 15004
Mauern 15004
Lip@@ 15003
äußert 15003
Austrag@@ 15002
Erk@@ 14997
Feri@@ 14991
Dank 14989
Bug@@ 14988
Colorado 14987
abgeg@@ 14984
Aktionen 14983
gekrön@@ 14982
Faktoren 14979
Oft 14978
Kombin@@ 14971
betreiben 14971
barocke 14970
besseren 14970
Tanz 14966
damp@@ 14965
fertig 14964
onier 14964
itr@@ 14961
verbessert 14961
Nad@@ 14959
angegriffen 14958
bewaffneten 14957
Dynam@@ 14956
Eil@@ 14954
skammer 14954
vel@@ 14952
Privil@@ 14951
Vorlauf 14947
Serbien 14946
gekürzt 14946
Marken@@ 14944
Wladimir 14944
andinav@@ 14943
abweich@@ 14941
anl@@ 14941
beschä@@ 14941
schoss 14939
Hits 14938
Donau@@ 14937
Erreichen 14937
Hass@@ 14935
Umständen 14935
bewertet 14934
enfels 14932
Nord- 14930
alischen 14929
gemeinnütz@@ 14928
ordnungen 14928
union 14928
Künstlerin 14927
Opern@@ 14927
Fast 14926
Adresse 14924
Harmon@@ 14924
Old 14924
king 14922
ols 14922
Kunstgeschichte 14921
belegten 14921
tir@@ 14920
bekannteste 14918
Maxim@@ 14915
istor@@ 14915
16,@@ 14913
tau 14913
Missouri 14912
Cab@@ 14908
dän@@ 14908
Königlichen 14907
betreute 14907
fassade 14907
wesentlichen 14906
Exemplaren 14902
Install@@ 14902
jeg@@ 14902
Dokumentarfilm 14896
Kugel@@ 14894
otische 14894
Schmel@@ 14892
gestartet 14892
Hind@@ 14891
Pastor 14890
NRW 14889
offensichtlich 14889
Anton@@ 14887
Continental 14886
geholt 14883
aro@@ 14881
rü@@ 14879
Glaub@@ 14876
träglich 14874
Max@@ 14872
essischen 14872
nchen 14872
geometr@@ 14868
Kleidung 14866
affen@@ 14865
chor 14864
Sakrist@@ 14861
Dob@@ 14860
antarktischen 14860
brasili@@ 14859
Hamb@@ 14852
Mé@@ 14852
saniert 14851
VfB 14850
trol@@ 14849
angesichts 14848
Bestimmungen 14847
boten 14847
revolution@@ 14847
Sun 14846
baut 14845
Organisations@@ 14844
tendlich 14844
ets@@ 14843
adier 14842
verliebt 14841
Infolge 14838
bestes 14838
gepräg@@ 14834
epte 14832
hinger@@ 14830
Maß 14828
Technology 14827
Bron@@ 14826
ici@@ 14826
ndorf 14826
Vorhaben 14825
aufeinander 14824
unterwegs 14824
Gefüh@@ 14823
rif@@ 14823
Donald 14821
differenz@@ 14820
enta 14819
Briefe 14818
evangel@@ 14817
Nachlass 14816
motor@@ 14816
TE@@ 14815
Zieg@@ 14815
programm@@ 14812
zeitigen 14810
örtliche 14810
befindliche 14809
euti@@ 14807
büttel 14806
Pius 14802
übertrug 14801
kanischen 14800
Streich@@ 14799
Asch@@ 14798
daß 14798
bruch@@ 14797
Baut@@ 14795
Nachweis 14794
Erwin 14793
Euro@@ 14792
app 14791
tot 14789
andau@@ 14787
einzeln 14787
kes@@ 14786
suchten 14785
gefahren 14783
komplette 14783
besonder@@ 14779
orps 14778
Hos@@ 14773
Pati@@ 14773
onom@@ 14773
Bundeslig@@ 14772
gescheit@@ 14772
mittelbar 14772
Konzern 14771
Beut@@ 14770
Marok@@ 14770
beinahe 14768
quar@@ 14766
Völker 14762
stitel 14762
Ferrari 14761
Luise 14760
fristi@@ 14759
Lov@@ 14757
Niederlagen 14757
Verst@@ 14757
näher@@ 14756
Ära 14756
Franch@@ 14754
estadt 14752
Bob@@ 14749
toire 14748
ues 14748
nitten 14746
Anten@@ 14745
Duke 14745
Ermordung 14743
Kurfürsten 14743
kontin@@ 14743
Naturpark 14741
Residenz 14741
Böden 14739
mos@@ 14737
Gren@@ 14736
pur@@ 14734
Mountains 14733
105 14732
asa 14732
Maximili@@ 14728
natürlich 14727
mobil@@ 14725
weile 14725
Beck@@ 14721
enster 14721
schlüssel@@ 14721
Fred 14720
Nikolai 14720
Niveau 14719
erklär@@ 14716
lan 14716
EC 14715
Public 14711
tester 14711
Kapazität 14710
Heer@@ 14709
liefern 14709
markt@@ 14708
Corn@@ 14707
14,@@ 14706
Night 14706
lit 14706
reichsten 14706
auftrag 14705
Protok@@ 14699
tiz 14696
orde 14695
Beamten 14693
ids 14693
Moment 14692
elemente 14692
Selbst 14691
Mr. 14690
Willy 14689
emeriti@@ 14689
Adams 14688
alisierten 14688
litau@@ 14688
Fauna 14687
perte 14687
jug@@ 14686
vermittelt 14684
vergangenen 14683
Intern@@ 14678
eingeteilt 14676
profiti@@ 14676
Bemerk@@ 14675
Kemp@@ 14673
Aufsteiger 14671
Generationen 14671
verpflichtete 14669
befestigt 14666
pin@@ 14665
schätzung 14664
vorgeseh@@ 14664
Bundesstaaten 14663
ED@@ 14662
geblich 14661
köpf@@ 14659
thoch@@ 14659
Vincent 14658
jugend@@ 14658
übergreif@@ 14658
Ehem@@ 14657
Gras@@ 14657
Lande@@ 14657
Schre@@ 14656
gestütz@@ 14650
Abteilungen 14648
Borussia 14648
Einnahmen 14646
aft@@ 14646
Bewegungen 14645
Zwick@@ 14645
17@@ 14644
UK 14644
Ernährung 14643
aspielen 14643
VII. 14642
konservativen 14642
Wappen@@ 14641
armen@@ 14641
schwar@@ 14640
Johnny 14639
Weblinks 14638
prägt 14638
dirig@@ 14637
viermal 14637
Trasse 14636
Veranstaltungs@@ 14636
Nominierung 14634
äpstlichen 14634
Space 14633
Campus 14630
Syndrom 14630
ović 14629
til 14629
oth 14627
post 14627
passi@@ 14626
strö@@ 14626
Entwick@@ 14622
inseln 14621
Death 14620
Tul@@ 14618
orid 14618
stoßen 14612
Torped@@ 14610
hafen 14609
Erstlig@@ 14608
15,@@ 14606
Deg@@ 14606
geschichten 14606
Ash@@ 14605
Außenminister 14605
ault 14603
erhaus 14599
Felder 14596
polnisch 14595
Münster@@ 14588
uraufgeführt 14583
zeitgleich 14583
Forderung 14579
Sup@@ 14578
Welle 14577
verletzung 14576
Mans@@ 14575
Nek@@ 14575
Stan@@ 14575
Untersuchungs@@ 14570
erlang@@ 14570
schwung 14568
air@@ 14563
gerichteten 14562
kov 14562
Tageszeitung 14561
U.S. 14561
auffäl@@ 14560
till@@ 14560
waffen 14560
Kün@@ 14559
ablen 14558
niedrigen 14557
ukrainischen 14555
Künst@@ 14551
Themen@@ 14549
aufwän@@ 14548
Gegenstände 14547
Kooper@@ 14547
BSG 14546
Hals@@ 14544
gegriffen 14541
Airlines 14538
basierte 14538
stirbt 14538
Prop@@ 14537
Schwanz 14537
Risiko 14534
Prager 14533
Rund 14533
Spur@@ 14533
floh 14533
seitigen 14533
bildern 14529
ystem 14528
Landtag@@ 14523
egg 14523
cu@@ 14522
kritischen 14522
Individuen 14520
Order 14520
erhöhen 14520
Sturz 14519
Schwimm@@ 14518
Skis@@ 14517
Psy@@ 14515
astronom@@ 14515
legium 14514
Eisenbah@@ 14511
stuh@@ 14511
Stief@@ 14510
abermals 14509
zerstörten 14509
atorium 14508
ausschied 14508
1799 14506
verlust 14506
Spring@@ 14500
stationen 14500
Matth@@ 14499
mord 14499
jewe@@ 14498
Akt 14496
Assistenz@@ 14496
kischen 14496
fug@@ 14495
Theat@@ 14494
jüdischer 14493
malte 14493
ennetz 14491
betätigte 14487
steiner 14486
zugewiesen 14484
manche 14482
zerstörte 14482
Court 14480
lektu@@ 14479
Clark 14478
asi 14478
Südkorea 14477
Längs@@ 14476
Franz@@ 14475
Kinofil@@ 14475
künfte 14475
nar@@ 14475
eburg 14474
einte 14474
vertritt 14474
Bischöfe 14471
Händen 14470
eigenständigen 14469
herrn 14468
Geschwister 14467
Lausanne 14467
offs 14465
ografien 14462
Gymnasiums 14461
äss@@ 14459
Mindest@@ 14458
rup@@ 14458
ämmen 14456
Dienstleistungen 14453
da@@ 14453
jetz@@ 14453
Auftrit@@ 14450
Kiew 14448
ordnete 14446
sens 14445
betriebs@@ 14444
sowje@@ 14444
Audi@@ 14443
DO@@ 14443
Viertel@@ 14440
religiö@@ 14439
gefund@@ 14438
Cul@@ 14435
Gesund@@ 14434
program@@ 14434
Politikerin 14433
Reaktionen 14433
Reper@@ 14432
treu 14431
ruck@@ 14430
zweithöch@@ 14430
Expedi@@ 14429
Giuseppe 14429
neunten 14428
Häufig 14426
Haut@@ 14425
schaffung 14425
stunden 14422
Bres@@ 14420
ersdorf 14420
gerecht 14420
mische 14419
unterstand 14418
gesam@@ 14417
sammeln 14417
itischen 14416
gewünsch@@ 14414
Katastr@@ 14413
Stufen 14412
hütte 14412
Jimmy 14410
Biographie 14409
Board 14406
Weltcu@@ 14406
Law 14403
Chief 14399
entur 14399
nel@@ 14398
äumt 14398
Anti 14396
Fähigkeit 14396
Lach@@ 14396
weltmeisterschaft 14395
CA 14393
Hotel@@ 14393
litt 14393
taler 14393
Moore 14392
besich@@ 14392
regisseur 14391
Repräsent@@ 14390
Fürsten@@ 14389
produzierten 14389
Verlags@@ 14388
Anderson 14384
Wirtschaft@@ 14384
durchquert 14383
Brün@@ 14381
fres@@ 14379
Naz@@ 14378
Kreuzung 14377
naheg@@ 14376
row 14372
Einschrän@@ 14367
Hydr@@ 14367
Solo 14366
Bewohnern 14365
Anlehnung 14364
Kontroll@@ 14363
anspruch@@ 14363
Allianz 14360
aufgelistet 14360
beh@@ 14358
bury 14356
eingenommen 14355
Stämme 14352
frucht@@ 14352
geschäfts@@ 14352
Vize 14349
gebildete 14348
Subst@@ 14347
Divisi@@ 14345
Mühlen@@ 14345
sc@@ 14345
geraten 14343
lokom@@ 14342
nisses 14342
Verstär@@ 14341
gewach@@ 14341
Rav@@ 14339
entwässert 14337
proj@@ 14335
ution@@ 14332
Atmosphäre 14330
Volkes 14329
arri@@ 14329
Kansas 14328
Mob@@ 14328
Woll@@ 14326
rufen 14325
Wettbewerbe 14318
stands@@ 14318
Lothringen 14317
verkehrt 14317
vo 14317
Konflikten 14315
Proph@@ 14315
Freundschafts@@ 14314
Mayer 14314
schild 14313
Weser 14312
absolviert 14312
Popular@@ 14311
18@@ 14310
herzog@@ 14310
tre 14310
Seminar 14309
greifen 14308
Disziplinen 14307
Wittenberg 14301
Pion@@ 14300
stiftung 14300
Stän@@ 14298
eld@@ 14294
bestr@@ 14290
ländlichen 14290
Einnah@@ 14286
Adelsgeschlecht 14285
flossen 14283
befreit 14281
RI@@ 14280
xi@@ 14280
spezifische 14277
Kulturen 14276
edo 14274
Hammer 14272
Temperatur@@ 14272
ürf@@ 14272
ante@@ 14269
Antarctic 14268
Anwesenheit 14268
Rost@@ 14262
Lexikon 14261
Talent 14261
angeord@@ 14261
anon 14259
ypen 14258
Naturschutz 14256
mert 14256
schrift@@ 14256
Stock 14254
USS 14254
konzipiert 14252
verschi@@ 14252
Platten 14251
deswegen 14251
Scor@@ 14250
heirat@@ 14248
Belgrad 14247
kw 14247
Grav@@ 14246
brasilianischen 14245
physikal@@ 14240
Greifswald 14239
Seele 14239
begleit@@ 14239
lat 14239
Abbildung 14238
Europapo@@ 14238
Feuch@@ 14238
Playoffs 14238
Generalsekretär 14237
Kavallerie 14234
braucht 14234
bef@@ 14233
äußersten 14231
Koali@@ 14229
Zusch@@ 14229
kristall@@ 14228
7,5 14227
DA 14225
eigenem 14221
Vermess@@ 14220
Hinter 14217
überzeugen 14217
kritische 14216
Erdbeben 14215
Dö@@ 14214
Verfilmung 14210
eventu@@ 14209
mte 14209
entschloss 14203
Berechnung 14202
Stab 14202
col@@ 14202
Seil@@ 14198
450 14197
finanziell 14195
Keller@@ 14193
verwundet 14193
AI@@ 14190
Reiter 14189
Rechtswissenschaft 14187
zah@@ 14187
egelt 14186
ix@@ 14186
Sportler 14185
Schein@@ 14184
Maus@@ 14183
Nes@@ 14183
Wird 14180
Denn 14176
Buches 14173
Panz@@ 14168
poli@@ 14168
Alf@@ 14167
Us@@ 14166
Pacific 14164
normalerweise 14163
0ern 14162
Bühn@@ 14162
ref@@ 14162
arker 14160
ausgesprochen 14160
Klim@@ 14159
muster 14159
Seither 14158
ismen 14158
Wälder 14157
deh@@ 14157
Freiheits@@ 14156
För@@ 14156
adr@@ 14155
einzelner 14155
stürzte 14154
dit 14152
esia 14151
ario 14150
Pist@@ 14148
vorhandene 14148
Loch 14146
Thom@@ 14146
ison 14146
Schild 14142
Wiedervereinigung 14142
vul@@ 14141
demokratische 14138
750 14136
Sv@@ 14136
entierten 14135
mst@@ 14135
Arm 14133
kriegs 14133
wein 14132
Biologie 14131
Schad@@ 14131
langjährigen 14131
Big@@ 14130
Gesprä@@ 14130
Wirklichkeit 14130
anhal@@ 14129
deutliche 14129
Roth 14128
Wisconsin 14128
ecks 14128
Projekten 14127
vorherigen 14127
unken 14126
Ursachen 14122
May 14121
bten 14121
onale 14120
verschieden@@ 14120
lock 14119
enischen 14118
Gleise 14116
air 14112
Philologie 14109
folgung 14109
Christine 14107
sonn@@ 14105
ergaben 14104
leistet 14104
refer@@ 14104
therapie 14103
Billy 14102
auseinander@@ 14100
Zweig 14097
Bruch 14094
qui@@ 14093
Hildesheim 14092
Nachricht 14092
ivor@@ 14091
Detroit 14090
unbekannten 14088
Mittelmeer 14086
wände 14085
systemen 14084
eal 14083
BA 14082
Passagier@@ 14081
strecken@@ 14080
fang@@ 14079
entfernten 14077
Basis@@ 14076
Petrus 14076
Junior@@ 14072
Antwort 14070
Memorial 14067
Welter@@ 14067
Erziehungs@@ 14065
Fuchs 14065
Schwarze 14065
finale 14065
spendete 14064
Paw@@ 14063
decke 14063
Chal@@ 14060
1795 14059
Profi 14058
auso 14058
greift 14057
Mainzer 14056
Zweitlig@@ 14056
Garde 14055
verhältn@@ 14052
namens@@ 14050
omer@@ 14049
spräsident 14049
zylinder 14048
sle@@ 14046
Nachwuch@@ 14045
Haag 14041
Perspektive 14040
Unterrichts@@ 14039
oko 14039
Nak@@ 14038
Schaden 14038
herzustellen 14034
Krimin@@ 14032
Benz 14028
Gerät 14028
oph 14028
Privates 14026
Tän@@ 14026
eingang 14024
28@@ 14023
Matr@@ 14023
schnellen 14023
gebrochen 14021
usst@@ 14021
70@@ 14019
Schauspiel 14017
dauert 14016
deutsches 14016
Gül@@ 14014
anch@@ 14013
Ji@@ 14010
Derzeit 14008
can@@ 14006
Conference 14004
esz@@ 14003
aqu@@ 14002
forst@@ 14002
ware 14002
vergrößert 13999
Dirigent 13998
Lüneburg 13998
blu@@ 13995
Eröffnungs@@ 13994
entwick@@ 13994
SR 13993
stät@@ 13993
Geis@@ 13991
kmäler 13991
Strand 13989
achter 13988
schriftlich 13987
ÖVP 13987
soff@@ 13984
fertigung 13983
zimmer 13983
verständnis 13982
Seeh@@ 13979
Leiden 13972
fahrzeug 13972
o- 13970
Polizisten 13969
herz@@ 13968
Gür@@ 13965
appe 13964
cup@@ 13964
Spielbetrieb 13963
Eintracht 13962
Geli@@ 13962
leichter 13961
fuß 13959
itiger 13958
aks 13956
wann 13955
won@@ 13954
Dan 13953
praxis 13952
ariat 13950
lard 13950
Gul@@ 13948
identifiziert 13948
Gott@@ 13947
Lux@@ 13947
Fähr@@ 13946
text 13946
Melbourne 13939
17,@@ 13938
chow 13938
estellt 13938
empel 13934
Kärnten 13933
asiatischen 13933
Hanau 13932
Krem@@ 13930
tiefer 13930
Ou@@ 13927
Schicht 13927
Dorn@@ 13925
Sinn@@ 13925
.de 13922
Tö@@ 13918
fli@@ 13918
Dekan 13917
Wertung 13913
Begr@@ 13911
kau 13907
Mind@@ 13906
Ohne 13906
dati@@ 13906
École 13905
Atlan@@ 13903
vat@@ 13903
División 13898
Kompanie 13898
Charlie 13896
erd@@ 13896
Hess@@ 13895
Zerstörer 13893
Paare 13891
aufs 13889
uck@@ 13888
Berech@@ 13887
Oberbefeh@@ 13883
ür 13882
ror@@ 13881
eingesetzten 13880
imm@@ 13879
Is 13877
neutr@@ 13875
don@@ 13874
enzel 13874
Strafe 13873
Papier 13871
Handlungen 13870
istisches 13867
Reichstag 13864
provisor@@ 13864
zir@@ 13864
Kohl@@ 13863
niemals 13862
sogen@@ 13862
übung 13861
Home 13858
Willi 13858
agentur 13856
lav 13855
otr@@ 13855
Gebiets@@ 13851
status 13851
bereitung 13849
udi@@ 13849
Kurfürst 13847
lum 13847
7.@@ 13846
positionen 13846
Barock@@ 13839
Kreist@@ 13839
bun@@ 13838
öd@@ 13837
Fußballnationalmannschaft 13835
ständiges 13834
proch@@ 13833
lutherischen 13830
muslim@@ 13827
time 13824
Adap@@ 13822
Fokus 13822
itigen 13822
Mitgli@@ 13821
erteilt 13821
Schlacht@@ 13819
keinerlei 13819
undet 13817
gesti@@ 13816
Angre@@ 13815
Florian 13815
UCI 13814
pati@@ 13813
enheiten 13811
Vertretung 13810
­ 13810
trainierte 13807
gespi@@ 13806
gänz@@ 13806
opel 13804
Bremer@@ 13801
Kuh@@ 13800
hohem 13799
Indianer 13795
CS 13794
genauer 13792
Schatz@@ 13791
forderungen 13789
Kette 13785
ains 13785
grunde 13785
Cav@@ 13783
pause 13781
ères 13779
U20 13775
schafft 13775
nat@@ 13774
Wohnsitz 13773
schichten 13772
Aster@@ 13770
Kinder- 13770
Erlaubnis 13769
fasch@@ 13769
Glas 13767
kör@@ 13767
Tw@@ 13762
geschoss 13762
enheim 13759
Außer 13755
Ägyp@@ 13755
Hung@@ 13752
Bewegungs@@ 13750
nhof 13749
onstruk@@ 13749
irche 13748
Wood@@ 13745
Individu@@ 13744
Wass@@ 13744
Hubert 13741
onyme 13741
Cross 13740
Mili@@ 13736
Söh@@ 13734
SPÖ 13731
polize@@ 13730
Wild 13729
Zoll 13728
3.000 13719
him@@ 13719
Irak 13718
af 13714
hölz@@ 13710
schre@@ 13710
alische 13709
kind 13708
ühren 13707
Hut@@ 13706
Anthro@@ 13702
opo@@ 13702
trau@@ 13699
Demok@@ 13697
stechnik 13692
Öl 13691
mack 13689
tener 13688
1,3 13682
adi 13682
prob@@ 13681
verbund@@ 13679
auto@@ 13678
Dance 13675
1796 13674
gelen@@ 13673
Leder@@ 13671
Du 13669
Wagen@@ 13669
lehnung 13669
Beine 13668
Cast@@ 13667
Kapital@@ 13663
Gis@@ 13662
ümer 13662
Rugby 13661
aal 13660
verse 13659
Dist@@ 13657
50.000 13651
Vancouver 13651
ban 13649
uppen@@ 13649
ense 13648
30.000 13638
Wiesen 13635
Are@@ 13634
Pension@@ 13629
Afr@@ 13627
west 13626
uft 13625
Kem@@ 13623
Erhalt 13622
Weid@@ 13622
Laus@@ 13621
öz@@ 13621
deter 13619
ology 13619
Sno@@ 13618
vir@@ 13618
1300 13615
Nicolas 13612
Dün@@ 13611
ö 13606
Offizi@@ 13600
interessiert 13600
konst@@ 13599
identen 13596
4000 13595
Ingen@@ 13593
echen 13592
rede 13592
DF@@ 13589
Metall 13587
gene 13583
virtu@@ 13583
Burgen@@ 13582
Heeres 13580
Französ@@ 13579
harmon@@ 13579
Agr@@ 13577
Départements 13574
Lou@@ 13571
Ō@@ 13569
plant 13568
60@@ 13566
line@@ 13564
Kollek@@ 13563
digungs@@ 13562
Sultan 13561
erlaubte 13561
haupt 13558
TA 13556
IF 13552
Ins@@ 13551
Freiz@@ 13550
Fox 13549
inae 13549
tober@@ 13549
Jäger@@ 13545
bayern 13542
stiegs@@ 13541
Stettin 13538
tent@@ 13538
ilit@@ 13537
Kunsthistor@@ 13535
konom@@ 13534
Walther 13532
Master@@ 13529
Bruce 13527
Gemäl@@ 13527
Oc@@ 13523
Mountain 13519
Koch@@ 13514
Konserv@@ 13514
Kaiserreich 13512
fron@@ 13511
ögeln 13509
Mid@@ 13508
cal@@ 13506
städter 13506
romanti@@ 13505
1791 13504
assen@@ 13504
Topo@@ 13503
Veranst@@ 13501
aktivi@@ 13501
Clar@@ 13500
Marcel 13499
hur@@ 13496
Institution 13495
Oberösterreich 13495
Dog@@ 13493
Releg@@ 13493
Siemens 13493
pos 13489
sö@@ 13489
Conn@@ 13483
laub 13483
Amp@@ 13482
masse 13480
Spiegel@@ 13475
poly@@ 13473
öhn@@ 13473
Dic@@ 13472
Grön@@ 13471
meier 13469
funde 13464
zeh@@ 13462
Baumeister 13461
mond 13459
Kob@@ 13456
mium 13454
Jen@@ 13450
Indiana 13445
iff@@ 13444
Auguste 13443
neub@@ 13443
Let@@ 13442
pendi@@ 13439
Ler@@ 13435
herzog 13435
eppe 13434
Obst@@ 13432
tö@@ 13430
And@@ 13426
par 13420
Steph@@ 13415
ido 13414
uner@@ 13413
Fig@@ 13411
felde 13411
non 13411
Bell 13408
1784 13403
gür@@ 13397
Lah@@ 13395
Scho@@ 13393
meln 13392
Zuschau@@ 13390
Bayreuth 13388
Andr@@ 13387
HMS 13387
Indian@@ 13382
Sequ@@ 13382
Staffel@@ 13382
iller@@ 13380
Sperr@@ 13377
Stär@@ 13375
Mont 13373
Fac@@ 13372
15@@ 13371
Black@@ 13367
emm@@ 13364
Mineral 13363
U23 13362
mier@@ 13362
imer 13361
tius 13360
Königlich 13359
Rates 13356
gerichte 13355
scha 13355
Fj@@ 13353
Communauté 13352
AE@@ 13347
ish 13347
Weis@@ 13346
Mississippi 13341
igh@@ 13340
Korn@@ 13337
Nan@@ 13335
Still@@ 13334
101 13333
ebe@@ 13333
out@@ 13330
Verbreit@@ 13329
ui 13328
Cruz 13323
thoden 13322
Pad@@ 13321
Einheits@@ 13319
Atlanta 13315
aße 13315
GT@@ 13311
Haw@@ 13311
AP 13308
Standards 13308
Beur@@ 13302
Male 13300
demok@@ 13297
Tschech@@ 13296
Philippe 13295
transpor@@ 13295
Range 13293
Cli@@ 13291
ikers 13290
register 13290
tol@@ 13286
Beck 13283
Fra@@ 13281
Bish@@ 13280
utige 13279
orr@@ 13277
Nom@@ 13274
Jane 13271
ammen 13269
1780 13266
Wed@@ 13266
Che@@ 13265
Schwarzen@@ 13265
bestell@@ 13263
sec@@ 13262
Tests 13261
Metz@@ 13260
Roy 13259
BM@@ 13256
Holding 13253
stin 13250
Monarchie 13249
Hang 13248
gi 13248
kongr@@ 13242
irchen 13241
Schützen@@ 13239
konse@@ 13238
garanti@@ 13234
chts@@ 13232
flut@@ 13231
These 13229
Cricket 13228
Hongkong 13228
akt@@ 13228
jung@@ 13228
Türk@@ 13227
Philharmon@@ 13225
gü@@ 13225
reinen 13222
Statu@@ 13220
ku 13218
Area 13217
AG@@ 13216
Arizona 13209
Last 13209
Deren 13208
Vermut@@ 13207
brä@@ 13206
fels 13206
Kra@@ 13202
Delegation 13201
Just@@ 13200
drama 13196
Pakistan 13195
Ried@@ 13190
Aktiengesellschaft 13189
Trik@@ 13181
EB 13179
üler 13177
alternati@@ 13176
ambi@@ 13176
Erik 13174
Aller@@ 13172
Akti@@ 13169
Arrang@@ 13168
Braun 13166
Lehn@@ 13162
Up@@ 13158
Bett@@ 13156
Magazine 13150
dun@@ 13150
Ergeb@@ 13149
hes 13145
Helden 13144
Hund 13143
dier@@ 13142
Porsche 13140
Normandie 13139
apelle 13135
pler 13135
Farm@@ 13130
ims 13129
Katal@@ 13126
yg@@ 13124
Württem@@ 13120
ibn 13120
Special 13116
dal@@ 13111
Cad@@ 13104
Genre 13104
sidi@@ 13104
yr 13102
Sied@@ 13096
fing 13092
Québec 13091
ż@@ 13090
mien 13089
komp@@ 13088
Copa 13087
aver@@ 13086
eles 13086
Mog@@ 13084
CD@@ 13083
HP 13083
Railroad 13083
Physi@@ 13082
ami@@ 13082
HF 13081
griech@@ 13081
Not 13080
abor@@ 13080
IM@@ 13073
Server 13072
nischer 13071
Kevin 13070
Motors 13067
konf@@ 13067
umstr@@ 13065
Invasion 13061
eman 13061
ändert 13061
Boul@@ 13060
after 13057
Vä@@ 13056
S.@@ 13055
illi@@ 13054
Berger 13052
TU 13051
esa 13045
Hahn 13044
Gas 13036
[...]
