, 40383438
. 38692610
в 23132297
и 15900605
@-@ 9276523
на 8425654
) 8384807
( 8361292
— 7948827
« 7199178
» 7195185
с 6185314
В 5816756
года 4643830
&quot; 4295802
году 3503865
по 3411009
из 2842356
не 2766701
к 2753510
: 2446409
был 2318867
что 2073403
от 2071966
а 1978343
за 1855522
у 1772661
для 1708347
его 1693103
как 1653744
ной 1597008
; 1590221
но 1516243
до 1504424
он 1452467
ных 1374714
о 1351233
ского 1308145
ные 1300926
не@@ 1286210
ской 1230955
ский 1222084
ный 1210849
ного 1204823
ли 1161132
также 1132669
ки 1109262
С 1105361
у@@ 1092530
ла 1086018
на@@ 1050165
по@@ 1048353
была 1044685
за@@ 1024454
й 1022370
были 1020883
ка 1018193
том 994126
ная 994005
было 979426
ном 973440
ы 970944
про@@ 963164
время 953158
л 952549
м 927250
во 926357
е 925724
ным 911317
ное 910531
1 891544
или 878922
т 871349
при 862860
я 861747
вы@@ 852370
до@@ 850642
с@@ 841346
пере@@ 835717
́ 829146
А@@ 813397
ская 813032
в@@ 808438
при@@ 804069
же 802375
та 783272
со@@ 781259
2 776980
ли@@ 760249
ском 759715
ко@@ 747363
после 746740
то 740326
О@@ 739331
ны 736132
т@@ 728678
ни@@ 727074
но@@ 725914
н 725161
ль@@ 722066
х 715125
ш@@ 707076
ль 706440
ре@@ 704912
На 699814
ю 699687
г 675824
ских 672331
ную 667248
под 655254
У@@ 653507
По 649031
д@@ 646645
Э@@ 639874
ро@@ 638272
ка@@ 635041
ты 634776
области 634561
д 633925
их 633377
са 630221
ке 628542
к@@ 627639
/ 616565
3 614466
о@@ 614421
ва@@ 612382
ра@@ 611529
% 609914
ку 607887
м@@ 605580
ков 603801
С@@ 600587
де 597936
где 596875
её 593368
км 592557
да 591863
ными 587274
ри@@ 584568
который 584417
р 582661
ло@@ 581506
лет 580084
ма@@ 577355
И@@ 577223
от@@ 575596
ди@@ 570040
мо@@ 567928
те 564947
лся 563377
ло 562367
ти@@ 562201
си@@ 560910
п@@ 559221
После 556700
ские 556698
ма 555462
со 553405
По@@ 547219
лись 546893
а@@ 545822
ве@@ 545446
А 543073
того 542536
стал 541161
год 540449
это 539877
4 533276
э@@ 526966
б@@ 526612
более 521708
де@@ 520098
во@@ 519713
ть 518685
ра 516263
России 514420
та@@ 513086
лась 508665
г@@ 504870
го 503939
ру@@ 503914
ров 502942
то@@ 502006
тов 501403
ром 499544
ви@@ 499398
К@@ 495763
ское 492728
я@@ 492401
бо@@ 492033
она 491478
кой 487891
л@@ 481150
В@@ 479212
да@@ 479064
ет 478124
является 477348
так 477055
го@@ 475957
ле@@ 472056
з@@ 471254
человек 469253
га@@ 467035
ским 466913
се@@ 464550
5 464537
состав 464536
ле 463958
Ка@@ 459836
нии 458727
и@@ 458289
раз@@ 457410
са@@ 456584
под@@ 454984
ла@@ 451793
н@@ 450868
й@@ 450541
&amp; 446722
П@@ 444472
ми@@ 443176
бе@@ 441436
х@@ 441296
вой 440276
ние 439639
те@@ 436075
ме@@ 433877
па@@ 432789
которые 432763
ить 431668
ют 430684
Ко@@ 430665
только 427296
ни 426926
р@@ 424941
ж@@ 424789
города 424329
ь 421162
ч@@ 416333
ба@@ 415464
10 414617
ва 411998
6 409751
ей 404740
СССР 403387
ется 402671
ф@@ 402543
га 402442
ля 401271
войны 395790
ги@@ 393219
нов 392796
цы 391962
лось 391284
К 388122
Г@@ 386454
ь@@ 386428
ми 386328
ды 384778
этого 381858
Ма@@ 381448
скую 380363
они 379757
этом 379626
годах 379250
ность 378921
Т@@ 376695
них 375817
И 375718
ку@@ 374689
Д@@ 374534
Са@@ 373414
ния 372209
ком 368022
пи@@ 367827
ний 367072
района 366976
чи@@ 366345
США 363950
об@@ 363339
История 362848
На@@ 360962
льной 358764
М@@ 358733
между 358478
ности 357460
ду@@ 356524
ки@@ 355539
Биография 354393
су@@ 354139
мы 353840
составе 352310
ко 350624
8 350232
когда 345877
Он 344866
7 342328
против 341370
ё@@ 339080
з 338833
части 337620
реки 337602
ст@@ 337090
пе@@ 336534
Ш@@ 333767
вер@@ 332403
ры 332163
вых 331663
ции 330100
которых 328888
мая 326886
годы 326199
нию 325377
ту 325360
чтобы 325195
вал 324239
ши@@ 323598
жи@@ 322402
января 322155
Со@@ 321565
сто@@ 321324
За@@ 319733
ан@@ 318082
20 317790
около 317259
Не@@ 315605
ста@@ 315333
кон@@ 313746
15 312672
ту@@ 311093
ше@@ 310684
це@@ 310459
дом 309502
районе 309500
ников 308998
мира 308550
гу@@ 308489
ками 308474
Б@@ 308395
ля@@ 306940
июля 306885
льный 306641
пре@@ 306286
все 306139
ства 304042
че@@ 303834
льных 303826
века 303205
ники 301375
бы 300892
ются 300490
хо@@ 300458
него 299821
населения 299779
би@@ 299747
место 299103
12 298770
вать 296826
е@@ 295306
нием 294125
ному 294123
цев 293322
цию 293281
ней 293137
вая 292560
зо@@ 292019
несколько 291908
лом 291780
ем 291140
Ба@@ 291116
через 290804
декабря 290401
ещё 290159
ме 289299
уже 288900
получил 288594
2010 288462
ду 288145
рас@@ 286862
ю@@ 286734
которой 286717
часть 285755
зи@@ 285733
марта 285207
Ми@@ 285062
пу@@ 284766
которая 284694
9 283976
августа 283351
ев 282435
ги 282310
над 281548
Р@@ 281433
сентября 281172
М 281168
При@@ 280173
лы 280103
октября 279817
территории 279666
Ф@@ 278643
апреля 278588
Ку@@ 278244
му 278123
им 277545
своей 277427
вые 277237
ди 276852
ник 274784
июня 274408
два 273224
может 273202
лов 272913
ре 272079
№ 271477
льные 271367
один 270806
ему 266129
чем 266037
се 265129
из@@ 264478
льного 264282
Ли@@ 263605
других 263283
затем 262906
30 262857
ге@@ 262653
же@@ 262342
Су@@ 262135
ша@@ 262000
бу@@ 261566
ин@@ 260653
скому 259909
качестве 259741
воз@@ 259649
му@@ 258910
ноября 258798
ча@@ 257824
Население 257393
ческих 257313
группы 256732
б 255206
находится 254714
ха@@ 253664
Се@@ 253453
район 253195
18 252301
вместе 252172
ы@@ 252139
ать 252008
сти@@ 250040
ст 249630
Л@@ 248900
Н@@ 248867
февраля 248693
Ро@@ 248019
вого 247909
Я@@ 247870
ц@@ 247590
ман@@ 247532
11 247463
Ра@@ 247187
ство 245789
_ 244913
ья 244809
Про@@ 244735
Мо@@ 244443
Однако 243825
ления 242116
Бо@@ 241951
Ле@@ 241833
однако 241670
среди 241658
льная 241221
16 240926
ца 240883
участие 240677
ника 240564
Ар@@ 240529
Ре@@ 239951
которого 239624
Х@@ 239097
лей 238860
вали 238680
составляет 238237
лу@@ 238170
льно 238050
Н 237559
&#93; 237539
&#91; 237321
ха 236541
городе 233911
14 233900
ках 233863
всех 233417
дов 233134
бы@@ 232463
ш 232450
г. 231871
период 231725
Го@@ 231291
числе 231129
25 231080
- 230391
Па@@ 230213
вым 229646
двух 228797
той 227831
Та@@ 227588
свою 227511
Мар@@ 226459
начале 226386
три 225767
Си@@ 225361
сом 225323
быть 223993
п 223992
стала 223576
годов 223014
З@@ 222973
13 222858
город 222230
работал 222201
ар@@ 222052
этой 221471
жизни 221410
ье 221179
фи@@ 221155
Бе@@ 221142
себя 221012
сы 220572
рии 220527
жа@@ 218636
17 218610
ры@@ 216877
Бу@@ 216355
хи@@ 216127
Е@@ 215607
армии 215582
ри 215480
ран@@ 215466
ти 215459
своего 215278
Де@@ 214947
название 214901
есть 214259
ну@@ 213896
данным 213728
За 213367
Ч@@ 213354
времени 212559
ци@@ 212464
вает 212447
Ки@@ 211890
Ме@@ 211834
сов 211006
мен@@ 210760
без 209269
всего 209112
При 208629
полу@@ 207049
Это 206529
скими 206102
имени 206000
конце 205938
там 205891
работы 205814
село 205648
I 205629
Ю@@ 205353
ческого 204722
нами 204326
деревня 204292
человека 204159
ством 203926
вом 203525
ческий 203442
Га@@ 203356
Ва@@ 203047
гор@@ 203044
ция 203006
2011 202759
Ла@@ 202653
Ру@@ 202653
сти 202236
раз 202173
19 201945
Во 201818
О 201631
ве 201072
П 200978
ций 200955
ск 200774
2012 200629
льным 200548
цией 200506
истории 200111
ён 198968
Кар@@ 197653
formula 197491
ним 197308
Ц@@ 196786
2008 196558
2014 195350
ч 195282
2009 195228
ление 195039
первый 194691
ником 194447
лу 194446
Ве@@ 194363
ц 193805
gt 193513
У 193417
тем 193253
чной 193127
ста 192764
ческой 192558
ностью 192453
Также 192373
имеет 191947
льное 191875
этот 191778
ями 191232
связи 190122
ге 190009
поло@@ 189402
фа@@ 189028
вы 188627
2007 188331
II 188006
сло@@ 187966
lt 187934
ческие 187835
сть 187817
лен@@ 187688
До@@ 187486
ак@@ 187192
2013 186885
можно 186869
2015 186619
ен@@ 186460
мм 186423
об 186192
рен@@ 186121
вен@@ 186065
стро@@ 185381
лю@@ 184238
тан@@ 184100
второй 184064
э 184054
фе@@ 183899
ска@@ 183805
° 183754
Ви@@ 183239
чего 182968
24 182913
теле@@ 182625
2006 182247
пред@@ 181892
21 181675
Му@@ 181056
22 181028
си 180432
ющих 180372
откры@@ 180225
2002 180002
чных 179188
ке@@ 178826
тами 178781
жения 178778
ющий 178532
рами 178409
пол@@ 178305
ба 178019
стали 177340
чный 176914
переписи 176883
ор@@ 176688
Ан@@ 176466
вала 176012
Его 175938
сон 175838
своих 175779
ью 175766
2016 175435
2000 175397
лё@@ 175382
Лу@@ 174898
образом 174658
стра@@ 174356
ниях 174316
сте@@ 174145
другие 174043
ск@@ 173917
зна@@ 173888
сельского 173213
эн@@ 172828
ат@@ 172678
вый 171569
чи 171355
результате 171020
вается 169943
собой 169895
котором 169839
ден@@ 169669
100 169386
фильм 169285
одной 169233
жение 169157
ско@@ 169157
Вы@@ 168971
тах 168344
мер@@ 168221
Ха@@ 167758
центра 167612
То@@ 167322
23 167190
кар@@ 167139
течение 166891
… 166879
электро@@ 166232
род 166151
одним 165942
лишь 165939
² 165802
ться 165629
мы@@ 165554
Пе@@ 165514
Украины 164921
Гу@@ 164807
Аль@@ 164689
лем 164659
мов 164502
Для 164298
пла@@ 163465
очень 163069
поселения 162905
лен 162755
нах 162515
2017 161987
ска 161779
ходе 161771
ству 161288
день 161082
начала 160997
26 160936
мом 160887
стов 160709
рия 160646
Ри@@ 160512
страны 160506
область 160394
обра@@ 160389
юго 159927
ско 159879
Российской 159641
сборной 159469
ж 159390
2005 159222
вший 158915
The 158576
Ду@@ 158204
ске 158204
ру 158057
28 157925
вания 157849
зу@@ 157708
зы 157134
сты 157134
смерти 156488
род@@ 156479
северо 156472
гу 156242
ша 156202
ня@@ 156000
Александр 155792
чу@@ 155603
гре@@ 155601
2018 155510
ван@@ 155479
2004 155202
Согласно 155157
C 154906
начал 154796
зе@@ 154591
ющие 154109
27 153869
роль 153761
округа 153691
Те@@ 153105
гов 152685
Кон@@ 151844
1941 150615
тро@@ 150431
ёр@@ 150196
дней 150166
чного 150138
эк@@ 150083
призна@@ 150062
2001 149936
Хо@@ 149802
кра@@ 149719
свой 149591
йский 149506
кан@@ 149451
кам 149404
даже 148993
команды 148866
чные 148809
име@@ 148622
Би@@ 148582
метров 148457
ях 148383
Республики 148134
мой 147949
ниями 147853
назначен 147789
льном 147786
ды@@ 147664
1990 147329
первой 147251
Г 146979
2019 146676
центр 146350
От@@ 146076
стве 146055
пло@@ 145796
могут 145378
Ту@@ 145079
вос@@ 145029
церкви 144826
йского 144615
’ 144474
обще@@ 144457
.@@ 144438
кино@@ 144422
Да@@ 144205
партии 144103
вание 144025
Д 143960
стороны 143957
цами 143751
50 142689
две 142654
Пи@@ 142553
жен@@ 142493
наук 142321
нов@@ 142188
лин@@ 142180
университета 141904
гла@@ 141703
шей 141615
стом 141525
свои 141407
Из 140963
ря@@ 140903
компании 140899
Ти@@ 140863
этих 140724
Ор@@ 140722
тра@@ 140342
нее 140288
ски 140239
клуб 140201
кова 140196
будет 139916
аль@@ 139768
ровать 139486
тер@@ 139409
вод@@ 139267
ну 139143
ро 139013
лан@@ 138978
тор@@ 138859
являются 138616
впервые 138394
па 138321
1944 138092
кор@@ 138068
менее 137856
вался 137638
Ж@@ 137447
География 137408
су 137271
пер@@ 137185
уда@@ 137143
29 137126
Но 136638
Но@@ 136258
мар@@ 136083
бер@@ 136006
ман 135853
много@@ 135834
кли@@ 135513
например 135451
нова 135304
Ди@@ 135275
родился 134797
рода 134716
Бер@@ 134561
ший 134550
тот 134270
ча 134179
Ф 134132
Кроме 134020
Пу@@ 133864
ств 133800
семье 133666
чемпионате 133497
кий 133237
гом 132631
сезона 132601
Франции 132086
ван 131693
которое 131575
три@@ 131564
группа 131538
либо 131515
цен@@ 131467
ева 131461
фа 131424
образования 131381
рования 130970
Совета 130927
Европы 130662
2020 130478
щ@@ 130394
берегу 130359
ровал 130299
количество 130249
сил 130245
! 130232
ос@@ 130150
бра@@ 130045
жителей 130038
бор@@ 130025
много 129966
лены 129788
гра@@ 129698
чер@@ 129473
кру@@ 129226
вели@@ 129196
ком@@ 129182
бе 129167
вают 129148
перед 129041
сы@@ 128860
если 128858
ших 128769
женщин 128625
Ло@@ 128612
1999 128503
ёт 128424
Ин@@ 128337
тных 128333
цкий 128244
льную 128019
Ал@@ 127969
села 127901
вую 127879
br 127846
– 127766
чно 127738
Пер@@ 127674
Ша@@ 127584
спи@@ 127475
вра@@ 127434
ющей 127371
31 127095
ится 127095
системы 127043
1945 126963
одного 126712
йской 126532
вое 126494
ров@@ 126421
часто 126393
точ@@ 126315
лет@@ 126164
авто@@ 126131
ф 126067
он@@ 125948
пар@@ 125932
тся 125802
Бар@@ 125299
встре@@ 125193
Родился 125148
всё 125115
Т 125032
став@@ 124988
школы 124984
производ@@ 124919
1943 124846
фо@@ 124711
Входит 124549
тной 124375
ница 124332
окончил 124251
селе 124119
Во@@ 124070
нам 123980
вались 123949
ющего 123615
Че@@ 123440
сме@@ 123424
альбом 123244
2003 122796
40 122609
Германии 122560
ныне 122311
мор@@ 122089
почти 121816
До 121713
ху@@ 121466
организации 121424
детей 121348
ющая 121261
лл 121248
Санкт 121210
Ни@@ 120906
само@@ 120818
вновь 120796
типа 120489
эти 120381
ня 120153
власти 120004
хотя 119939
культуры 119908
сам 119775
игры 119751
ян@@ 119519
жизнь 119473
Федерации 119185
поли@@ 119067
Как 119021
ит@@ 118922
честь 118919
иться 118813
итель 118743
чемпионата 118603
Москве 118583
площадь 118353
больше 118246
0 118236
анти@@ 118177
способ@@ 117939
имя 117910
ряд 117894
льского 117784
нен@@ 117776
Кор@@ 117738
Она 117666
рах 117619
губернии 117580
тен@@ 117575
ям 117491
чная 117474
настоящее 117377
ниям 117321
частности 117110
ческая 117077
направ@@ 117027
зов 116972
ённые 116862
ты@@ 116797
Мак@@ 116778
людей 116721
дра@@ 116553
одно@@ 116440
льской 116373
шего 116251
тия 116015
нем 115907
разде@@ 115820
кры@@ 115709
клуба 115472
генерал 115436
Л 115265
многих 115182
пле@@ 115004
тон 114803
дами 114602
стало 114516
вского 114374
1980 114238
станции 114181
тре@@ 113977
шая 113936
вших 113764
шие 113664
тру@@ 113585
ще@@ 113583
лена 113545
Ста@@ 113447
ан 113397
жа 113356
зе 113276
пы 113132
деятельность 113107
момент 113048
1991 113014
кие 112969
уч@@ 112957
1992 112675
ген@@ 112637
степени 112472
членом 112448
лов@@ 112426
гру@@ 112386
ши 112277
“ 112175
бро@@ 111992
наиболее 111987
никами 111984
вин@@ 111930
основном 111917
работу 111760
льский 111742
мировой 111699
различных 111627
сезоне 111596
сни@@ 111529
кре@@ 111459
лы@@ 111445
би 111262
низ@@ 111008
дивизии 110978
XIX 110882
вский 110568
Пре@@ 110425
цкого 110409
лли@@ 110384
должность 110318
входит 110299
1942 110204
Великой 110074
первого 110072
совета 109946
матче 109909
Ново@@ 109854
стар@@ 109446
нения 109421
стре@@ 109255
+ 109182
принял 108988
1960 108940
нескольких 108937
Отечественной 108924
здесь 108807
управления 108663
ющим 108565
таких 108520
1970 108485
Ге@@ 108420
ясь 108398
сь 108222
своим 108169
Лю@@ 108105
тысяч 107956
отде@@ 107872
Так 107766
ённых 107750
Р 107625
образ@@ 107499
рин@@ 107363
ких 107241
ур@@ 107225
бан@@ 107206
це 107164
своё 107078
тный 107057
новых 106862
ше 106850
моря 106842
ые 106505
дах 106371
еди@@ 106359
им@@ 106272
отме@@ 106258
ранее 106138
кого 106084
Я 106074
примерно 106071
обо@@ 105962
месте 105906
новой 105903
советский 105896
рует 105838
линии 105622
итель@@ 105618
войск 105589
нет 105571
ницы 105483
рей@@ 105177
щих 104938
„ 104925
Кри@@ 104903
ща@@ 104887
фильма 104834
первым 104713
ья@@ 104455
1998 104413
участвовал 104386
вич 104379
дома 104371
вид 104353
дер@@ 104191
тного 103789
лла 103461
ённый 103282
няя 103244
Пере@@ 103226
самого 103208
трёх 103197
серии 103030
Б 102975
названием 102955
число 102792
состоя@@ 102676
образование 102459
Союза 102372
1930 102339
1994 102338
полка 102206
Нью 102165
Ке@@ 102142
новый 102018
1997 101871
которую 101778
возрасте 101776
000 101726
лями 101650
of 101522
Владимир 101500
пан@@ 101474
1996 101404
Ман@@ 101397
рой 101310
позже 101306
дви@@ 101240
воды 101233
1995 101166
Николай 101072
жил 101064
получила 101026
2021 101022
виде 100999
кур@@ 100949
вышел 100773
моло@@ 100770
вет@@ 100698
логи@@ 100603
щения 100591
мя@@ 100334
сле@@ 100254
полностью 100014
сын 99976
рав@@ 99930
вар@@ 99845
1920 99779
ый 99729
гар@@ 99637
лин 99497
ис@@ 99381
нём 99285
деятельности 99212
тя@@ 99212
игр 99179
созда@@ 99163
щи@@ 99082
деревни 99031
сла@@ 98926
ностей 98859
III 98827
вернулся 98797
сня@@ 98761
сен@@ 98725
ато@@ 98613
права 98524
1993 98488
сель@@ 98459
обы@@ 98378
сси@@ 98311
рован 98123
Об@@ 98080
рей 98040
жена 98035
кая 98028
нок 97986
ате@@ 97845
гг 97721
случае 97704
лю 97380
графи@@ 97363
шим 97351
значения 97290
Гор@@ 97273
член 97249
первых 97214
см 97094
Чер@@ 96672
нь 96644
щий 96609
др 96532
вшие 96314
городского 96314
многие 96309
ителей 96288
ал@@ 96272
XX 96192
ССР 96189
млн 96127
вской 96100
Второй 96098
пара@@ 96090
диа@@ 96066
Был 96064
коро@@ 95978
альбома 95945
общества 95937
уз@@ 95894
ваться 95872
мужчин 95825
&apos; 95824
евич 95814
фор@@ 95814
кла@@ 95768
тон@@ 95755
ков@@ 95702
провёл 95701
эта@@ 95699
ер@@ 95696
ким 95677
жи 95666
н. 95518
уезда 95506
ых 95381
пор@@ 95327
прекра@@ 95316
щие 95281
вя@@ 95196
кро@@ 95186
Когда 95071
тин@@ 95039
Они 95032
щей 94987
тый 94931
стер@@ 94913
1989 94857
коло@@ 94855
четыре 94826
места 94819
тора 94809
ера 94779
империи 94718
ок@@ 94558
жены 94554
бой 94526
ческое 94470
кино 94402
решение 94350
Ак@@ 94346
руководством 94265
ход@@ 94235
себе 94207
1950 94093
рок 93996
тные 93890
нового 93846
вов 93814
язы@@ 93689
эй@@ 93546
тер 93500
тии 93496
ву@@ 93452
Олимпийских 93428
некоторые 93406
действия 93391
сс 93381
кин 93330
тому 93288
выми 93281
пра@@ 93244
сер@@ 93205
Вер@@ 93201
1940 93119
Воз@@ 93107
некоторых 92961
ата@@ 92940
движения 92902
поч@@ 92791
60 92721
вшись 92629
лению 92628
помощью 92595
прода@@ 92498
Ча@@ 92276
прав@@ 92274
население 92174
выде@@ 92152
песни 92134
хи 92062
основе 91965
дал 91936
разме@@ 91845
нович 91779
яр@@ 91772
= 91629
веке 91532
пове@@ 91369
мин@@ 91274
лич@@ 91226
видов 91183
щение 91132
ся 91122
Фе@@ 91101
Среди 91081
церковь 91017
развития 90965
ят 90914
поскольку 90888
чен@@ 90803
дой 90801
Сер@@ 90779
сельсовета 90694
Фи@@ 90587
боль@@ 90543
зы@@ 90539
совер@@ 90486
йских 90443
государственного 90378
лении 90332
Иван 90159
работ 90148
сса 90147
ву 90137
удалось 89970
ез@@ 89964
ждения 89880
включая 89802
емых 89802
рамках 89749
поме@@ 89742
чки 89724
тогда 89667
истори@@ 89636
сами 89577
циях 89426
стан@@ 89399
ган@@ 89174
вшего 89151
мана 89137
кри@@ 88911
одна 88830
языка 88798
1918 88791
Бело@@ 88715
Раз@@ 88678
играх 88607
лей@@ 88553
жением 88481
1939 88422
версии 88365
имеют 88302
академии 88185
сту@@ 88074
пя@@ 88064
Затем 88056
Ше@@ 88044
гон@@ 88036
рование 87946
окончания 87849
чным 87781
другой 87717
Под@@ 87690
зер@@ 87680
рий 87680
компания 87612
Мин@@ 87565
че 87533
Эн@@ 87476
деревне 87465
переда@@ 87440
окру@@ 87346
такие 87248
ины 87187
ними 87186
зем@@ 87184
лия 87151
тель@@ 87097
назва@@ 87093
самых 86915
поль@@ 86895
дел 86889
поле 86668
бри@@ 86647
конца 86616
обычно 86578
кое 86521
Эр@@ 86495
чения 86379
вича 86370
института 86266
войска 86109
льными 86081
руется 86052
ново@@ 86013
важ@@ 85996
благодаря 85898
оста@@ 85864
тех 85857
Е 85845
бу 85703
река 85692
йн 85343
тыс. 85267
? 85258
ённой 85195
дро@@ 85127
ней@@ 85006
Фа@@ 84963
вол@@ 84895
университете 84876
0@@ 84815
ственной 84800
шения 84756
син@@ 84743
Мор@@ 84715
лением 84490
фон 84447
вое@@ 84436
пы@@ 84391
поэтому 84265
которым 84262
ческом 84180
ссо@@ 84171
аться 84160
закры@@ 84113
называ@@ 84105
ье@@ 84014
мен 83993
ита 83942
ены 83939
пря@@ 83926
зан@@ 83849
нение 83709
школу 83678
мире 83617
выступал 83608
ати@@ 83437
работе 83435
школе 83352
тор 83349
класси@@ 83316
большой 83260
жу@@ 83239
роли 83232
ток 83198
Кара@@ 83190
дж@@ 83144
Хи@@ 83138
чей 83062
Сан@@ 83054
перешёл 83053
город@@ 82974
лой 82938
право@@ 82878
провинции 82519
шен@@ 82371
лах 82356
самым 82310
ссе@@ 82241
изда@@ 82127
ём 82080
Кур@@ 82065
представ@@ 82065
лек@@ 82056
национальной 81990
тур@@ 81974
свя@@ 81846
рус@@ 81811
дан@@ 81804
Первый 81688
главным 81673
ваются 81654
тической 81650
чное 81639
сов@@ 81637
дия 81528
края 81459
тё@@ 81391
Иванович 81377
жений 81372
языке 81338
бар@@ 81274
част@@ 81175
округ 81173
рез@@ 81168
1917 81131
ственных 81116
команда 81023
работа@@ 81017
дин@@ 80951
согласно 80925
дол@@ 80889
10@@ 80875
искусства 80847
ред@@ 80820
земли 80773
ственные 80608
чу 80599
производства 80581
Вол@@ 80452
гер@@ 80451
поселение 80407
Ай@@ 80333
ственного 80295
тых 80257
хе@@ 80246
впоследствии 80154
должен 80132
200 80091
частью 80068
каз@@ 80038
Гер@@ 80007
тол@@ 79991
новые 79892
2@@ 79839
Ши@@ 79822
Ги@@ 79798
российский 79790
фер@@ 79766
Дже@@ 79697
происходит 79680
Из@@ 79658
лова 79469
сентябре 79352
слу@@ 79265
бере@@ 79214
над@@ 79163
хов 79158
чик 79140
мнению 79051
национа@@ 79044
язык 79008
цу 78976
Шу@@ 78954
логии 78867
Михаил 78810
жении 78808
полк 78800
стри@@ 78749
цов 78743
создания 78708
стран 78552
1988 78525
пода@@ 78339
звание 78329
ческим 78277
ть@@ 78271
мае 78269
щен@@ 78260
волости 78236
спорта 78189
всей 78167
завод 78166
карьеру 78161
бал@@ 78043
− 78020
другими 78011
Верховного 77960
выра@@ 77922
бо 77893
мать 77864
состоит 77800
заме@@ 77777
неё 77770
избран 77767
утвер@@ 77765
январе 77743
составляло 77720
Чу@@ 77709
мон@@ 77639
данных 77619
театра 77601
Пред@@ 77553
должности 77542
лер 77538
ден 77414
особенно 77361
целью 77333
профессор 77309
имел 77203
мо 77017
тие 76990
роди@@ 76987
марте 76894
тай@@ 76888
деятель 76763
кую 76712
Сергей 76663
the 76653
все@@ 76609
древ@@ 76533
кто 76522
мир 76509
Ху@@ 76504
чел 76491
кс 76322
вскоре 76318
вана 76311
шу@@ 76263
коммуны 76216
авиа@@ 76165
вид@@ 76146
именно 76131
температура 76082
сыграл 76017
Москва 75976
без@@ 75954
станция 75856
посе@@ 75834
расположен 75830
дня 75782
ход 75769
Хар@@ 75767
дер 75642
положение 75608
посёлок 75584
плат@@ 75553
октябре 75546
короля 75541
занял 75507
РФ 75490
лено 75477
РСФСР 75473
фильме 75464
государства 75462
первом 75447
августе 75418
центра@@ 75414
тов@@ 75388
Сан 75380
декабре 75260
проект 75253
Италии 75215
спа@@ 75212
физи@@ 75158
снова 75150
изобра@@ 75140
рядом 75115
институт 75112
семьи 75041
уче@@ 75030
лии 75006
тно 74973
рон@@ 74886
ет@@ 74857
кто@@ 74848
запре@@ 74752
лами 74743
отношения 74711
возможность 74704
каза@@ 74636
относится 74603
рию 74527
поэ@@ 74503
кин@@ 74497
право 74404
противника 74401
рам 74355
лина 74282
этим 74208
микро@@ 74192
умер 74109
служил 74073
Этот 74050
рай@@ 74028
ковского 74002
русской 73987
шко@@ 73957
мат@@ 73946
команду 73923
расстоянии 73921
нин 73855
первые 73771
возвра@@ 73770
пе 73767
предло@@ 73759
женщины 73629
радио@@ 73586
1938 73496
Все 73454
находился 73431
емые 73339
ковых 73331
хоро@@ 73329
пов 73304
1937 73302
двумя 73297
контракт 73286
ев@@ 73275
книги 73234
востоку 73217
чение 73215
здание 73197
ство@@ 73148
отца 73145
играл 73098
управля@@ 72959
чёр@@ 72904
сборную 72901
Несмотря 72875
нару@@ 72866
литератур@@ 72835
особ@@ 72811
представляет 72773
воло@@ 72718
чка 72681
долларов 72657
зу 72653
жен 72606
1986 72581
уничто@@ 72491
середине 72484
службу 72465
бин@@ 72449
уровнем 72400
состав@@ 72396
побе@@ 72391
Александра 72359
июле 72354
чески 72340
острова 72338
рова 72336
дела@@ 72205
школа 72173
премии 72160
корпуса 72050
цо@@ 71998
70 71975
силы 71970
ённого 71930
западу 71923
лес@@ 71877
1987 71822
вка 71772
кладбище 71685
80 71653
1919 71627
нер 71617
ун@@ 71599
операции 71587
проекта 71559
водо@@ 71548
дат@@ 71506
Джа@@ 71433
цар@@ 71372
ё 71325
1985 71292
1946 71264
отец 71227
шее 71190
лях 71139
постав@@ 71127
вида 71102
совет 71076
сса@@ 71071
Описание 71030
жной 70986
дебютировал 70947
жили 70907
мах 70871
фак@@ 70828
своём 70806
ян 70793
службы 70747
бур@@ 70690
лые 70624
шка 70604
дии 70578
эту 70564
кат@@ 70549
разных 70547
валась 70502
дать 70501
валось 70475
сс@@ 70470
шение 70450
вшая 70410
университет 70381
чат@@ 70332
щего 70295
первую 70288
пор 70260
система 70225
июне 70185
жда@@ 70126
завер@@ 70121
дов@@ 70105
Если 70003
оп@@ 70001
&#124; 69984
работать 69946
Кубка 69925
определ@@ 69908
чен 69777
1965 69772
друг 69760
поступил 69685
спор@@ 69677
шта@@ 69612
длин@@ 69602
кол@@ 69558
помощи 69558
вало 69406
нин@@ 69389
тура 69349
апреле 69326
таким 69323
цкой 69291
Сто@@ 69261
s 69250
используется 69192
совет@@ 69187
другим 69184
становится 69166
нови@@ 69154
внеш@@ 69127
35 69118
бле@@ 69105
городской 69104
организо@@ 69087
отправ@@ 69068
вшей 69064
Тем 69050
титул 69003
дороги 68978
разви@@ 68934
центром 68914
ноябре 68913
ил 68904
мир@@ 68898
прави@@ 68835
нике 68806
ковский 68753
нар@@ 68717
ственная 68715
русский 68663
так@@ 68648
щая 68647
цам 68633
т. 68630
гг. 68536
1984 68531
исследовате@@ 68529
закон@@ 68506
Пет@@ 68488
Через 68474
месяца 68473
должны 68437
позиции 68415
штат 68366
ственное 68337
ссии 68330
ено 68284
S@@ 68195
Пар@@ 68181
1979 68143
пять 68111
пути 68096
спе@@ 68088
реаль@@ 68011
доро@@ 68007
Великобритании 67911
нить 67889
Гри@@ 67885
1966 67873
транспор@@ 67817
Московской 67780
иногда 67778
йском 67696
дар@@ 67677
подтвер@@ 67529
све@@ 67524
Кан@@ 67503
кина 67502
пис@@ 67500
ители 67491
зии 67483
шки 67478
1968 67459
цвет@@ 67419
1975 67407
вании 67381
тая 67345
крас@@ 67288
сона 67248
1926 67207
ордена 67187
русские 67154
тые 67145
M@@ 67144
ковой 67137
Мон@@ 67080
хар@@ 67063
использо@@ 67032
заня@@ 67006
Джон 67003
писал 66984
чё@@ 66944
феврале 66935
1948 66850
рассматри@@ 66792
ара 66777
кроме 66763
ённая 66675
государственный 66628
сан@@ 66616
концер@@ 66614
эта 66602
всегда 66560
0,@@ 66547
обороны 66525
востоке 66439
нос@@ 66399
здания 66372
дочь 66352
нику 66245
согла@@ 66240
зат@@ 66229
шую 66220
ющее 66219
1963 66163
итоге 66154
комитета 66144
1973 66137
забил 66133
куль@@ 66129
училище 66106
протяжении 66087
ски@@ 66067
нина 66035
1976 66031
второго 65982
вышла 65980
войне 65964
Кре@@ 65963
сохрани@@ 65943
практически 65934
класса 65843
ви 65836
мати@@ 65781
3@@ 65742
опера@@ 65734
выпол@@ 65731
расска@@ 65729
отличие 65713
начало 65678
1959 65649
дил 65624
Москвы 65622
правительства 65530
миро@@ 65526
1972 65486
матчей 65484
нес@@ 65446
этому 65427
кита@@ 65413
ер 65358
тела 65282
тив@@ 65254
ляет 65251
похо@@ 65245
чь 65232
аль 65217
вед@@ 65201
фу@@ 65194
уро@@ 65174
Пра@@ 65169
сия 65067
фронта 65009
Май@@ 65001
вз@@ 64992
президента 64992
плани@@ 64951
вшим 64946
чную 64940
эт@@ 64907
1971 64851
1958 64818
покры@@ 64814
ым 64812
1956 64797
расположена 64773
назна@@ 64762
ждение 64754
ав@@ 64752
занима@@ 64742
Гра@@ 64730
меха@@ 64682
сторон@@ 64641
Климат 64635
составляли 64598
Гре@@ 64596
1982 64547
лли 64537
май@@ 64503
ску 64491
коллек@@ 64437
вшийся 64344
яв@@ 64323
сезон 64296
ляется 64268
состоянию 64216
шин@@ 64193
сына 64169
кам@@ 64100
бло@@ 64096
ково 64072
жению 64020
гидро@@ 63978
стоя@@ 63978
дам 63968
мер 63943
1974 63934
ул 63849
стране 63844
двух@@ 63840
1929 63750
состава 63731
чены 63713
Мат@@ 63703
сразу 63643
членов 63630
D@@ 63627
граф 63609
общей 63602
карьера 63578
ут@@ 63567
кими 63562
вместо 63560
1983 63481
1978 63447
ственно 63447
Член 63429
ься 63426
изо@@ 63425
программы 63343
иде@@ 63337
являлся 63308
вой@@ 63294
близ@@ 63288
выпу@@ 63285
1981 63244
награждён 63232
мин 63231
словам 63227
нико@@ 63223
фин@@ 63194
времен@@ 63182
улица 63152
военного 63132
1967 63121
результатам 63104
Мэ@@ 63076
атов 63067
участ@@ 63055
Тер@@ 63050
45 63045
заклю@@ 63022
хом 62948
лок 62931
центре 62927
дости@@ 62910
позднее 62904
семейства 62832
улицы 62830
приобре@@ 62768
демокра@@ 62754
издате@@ 62754
ряда 62720
Александ@@ 62678
1954 62666
шо@@ 62654
1964 62652
люди 62638
1957 62601
рованных 62599
Гар@@ 62569
ен 62543
V 62502
приня@@ 62489
рим@@ 62463
пат@@ 62436
IV 62419
комплек@@ 62414
Вен@@ 62382
жд@@ 62337
1962 62253
возмож@@ 62215
автор 62210
тических 62196
Дэ@@ 62177
1949 62124
безопасности 62096
ственный 62083
ваны 62070
A 62067
мед@@ 62051
вве@@ 62028
тар@@ 61963
внимание 61961
завода 61945
Англии 61920
очередь 61829
сбор@@ 61829
Японии 61784
слова 61772
турнира 61726
мог 61715
XVIII 61712
ющими 61694
зи 61691
журнала 61670
500 61649
гро@@ 61607
мет@@ 61606
образо@@ 61565
1936 61563
установ@@ 61546
церков@@ 61541
З 61539
вшихся 61513
жде@@ 61486
1961 61478
зм 61476
90 61445
йские 61435
сельское 61367
расши@@ 61332
золо@@ 61309
мало@@ 61296
значение 61293
вне@@ 61263
Первой 61231
мета@@ 61127
корот@@ 61051
гри@@ 61042
1977 60957
восточной 60947
Мари@@ 60936
содержа@@ 60927
отра@@ 60902
главе 60878
главного 60859
пост 60857
ческую 60793
зации 60785
зар@@ 60747
западе 60736
графа 60719
исследования 60719
западной 60714
Кол@@ 60689
вили 60638
спустя 60620
запис@@ 60593
военных 60590
написал 60545
мест@@ 60536
летом 60506
Ры@@ 60469
строительство 60465
Код 60448
лиги 60430
восто@@ 60412
суще@@ 60396
1947 60390
стиче@@ 60350
соответствии 60345
нему 60338
превра@@ 60307
получили 60274
одновременно 60271
ем@@ 60234
гой 60221
Таким 60136
йн@@ 60125
поро@@ 60122
зоне 60084
льства 60053
ора 60025
рова@@ 60004
4@@ 59991
одном 59939
1969 59924
вил 59845
штаба 59815
1935 59777
ще 59760
32 59757
широ@@ 59748
Бел@@ 59700
начальник 59668
чин@@ 59663
обла@@ 59661
мых 59619
сельсовет 59616
американский 59585
празд@@ 59567
хозяй@@ 59561
актив@@ 59543
действу@@ 59540
нил 59536
нении 59515
веду@@ 59502
ванию 59452
миче@@ 59417
Позже 59408
жает 59405
уэ@@ 59350
рев@@ 59342
научных 59335
строительства 59311
обнару@@ 59266
орга@@ 59260
Жи@@ 59217
четырёх 59216
ата 59195
площади 59186
населённых 59160
генера@@ 59159
развитие 59157
Ис@@ 59146
явля@@ 59145
массо@@ 59123
хорошо 59031
емый 59018
Россия 59010
P@@ 58998
шоу 58978
нер@@ 58956
зрения 58943
есте@@ 58942
Тре@@ 58930
футболист 58903
гово@@ 58835
гами 58821
благо@@ 58789
дена 58749
интер@@ 58717
ся@@ 58695
соответственно 58691
емой 58689
формы 58689
рин 58661
меж@@ 58654
правления 58654
рё@@ 58653
Северной 58650
собира@@ 58644
новым 58642
статус 58628
Лин@@ 58604
выступа@@ 58572
противо@@ 58566
цвета 58564
руко@@ 58563
начали 58535
Испании 58524
выше 58515
современ@@ 58511
G@@ 58504
цве@@ 58438
революции 58364
дя@@ 58362
Це@@ 58354
движение 58353
чении 58335
нача@@ 58313
проходит 58277
турнире 58251
ум 58245
кома 58237
начальника 58213
стей 58206
дивизия 58186
испан@@ 58170
ётся 58159
влияние 58143
выда@@ 58140
ционных 58119
ган 58097
флота 58066
ционной 58011
Мария 57990
Кра@@ 57984
льд 57979
сен 57969
точки 57926
заявил 57896
выс@@ 57883
слав@@ 57855
водного 57834
тона 57815
настоя@@ 57812
множество 57791
сор@@ 57755
1924 57741
крат@@ 57714
нюю 57708
боевых 57701
одно 57692
камен@@ 57673
взя@@ 57656
X 57598
пока 57598
выиграл 57552
зом 57550
правительство 57540
музыка@@ 57534
Советского 57498
цем 57465
север@@ 57433
мест 57409
ана 57399
дали 57387
Чи@@ 57370
бело@@ 57340
ющихся 57338
награ@@ 57311
ровали 57306
1921 57283
стью 57252
Не 57250
бит@@ 57248
километров 57237
росси@@ 57220
сокра@@ 57168
джа@@ 57158
возможно 57156
шел 57041
ём@@ 57003
учеб@@ 56994
Сюжет 56993
Всего 56975
Бре@@ 56949
йская 56944
опреде@@ 56942
аре@@ 56912
главный 56905
периода 56902
живо@@ 56891
русского 56867
список 56844
хозяйства 56840
считается 56819
фон@@ 56819
традицион@@ 56799
-@@ 56797
озера 56793
ственным 56722
никам 56712
верх@@ 56708
ам@@ 56702
орденом 56630
фина@@ 56602
тики 56553
известно 56552
стать 56552
храни@@ 56509
нского 56491
находятся 56469
Карьера 56461
христиан@@ 56454
ано 56423
относительно 56402
меня@@ 56336
большинство 56312
известный 56308
1922 56289
предполага@@ 56288
группу 56281
лон@@ 56274
проводи@@ 56253
реке 56250
музыки 56218
медали 56216
шем 56214
вер 56198
тым 56151
тная 56106
Тро@@ 56074
Длина 56054
фото@@ 56001
Королев@@ 55998
атом 55997
условиях 55966
имели 55961
уго@@ 55958
Э 55941
Ленина 55922
сне@@ 55914
1953 55880
рована 55860
испол@@ 55822
требо@@ 55805
одну 55801
Алексей 55774
тирова@@ 55745
правило 55741
пору@@ 55735
ново 55724
круп@@ 55692
Эта 55683
военной 55678
слож@@ 55675
группе 55666
вле@@ 55665
ран 55594
несмотря 55589
объеди@@ 55584
создан 55536
1928 55528
москов@@ 55487
которому 55481
ыва@@ 55469
горо@@ 55467
уби@@ 55462
ото@@ 55433
категории 55417
самой 55406
записи 55385
евна 55373
Харь@@ 55316
лки 55301
совместно 55298
пункт 55282
состоялась 55265
ху 55263
Фо@@ 55260
применя@@ 55222
дворов 55220
использовать 55213
победу 55187
лев@@ 55182
достаточно 55150
дела 55130
Окончил 55129
чает 55113
жела@@ 55094
чил 55091
различные 55087
Список 55085
нена 55083
1955 55073
туре 55043
помо@@ 55042
Эти 55037
клю@@ 54991
лог 54951
собствен@@ 54945
узна@@ 54933
1934 54925
ённым 54905
щены 54904
могли 54875
автомоби@@ 54851
следующие 54837
мской 54806
Занимает 54786
шли 54782
1952 54762
чиков 54758
R@@ 54733
Вскоре 54689
аны 54685
пригла@@ 54669
деревян@@ 54668
вода 54661
голо@@ 54661
жей 54596
оно 54594
научно 54593
гах 54530
стой 54530
ответ@@ 54500
форме 54461
основной 54450
матч 54423
команд 54412
мым 54412
продол@@ 54399
чном 54396
сильно 54395
занимался 54386
код 54375
теории 54357
мского 54329
1932 54324
чай@@ 54321
Европе 54303
тил 54289
циями 54256
B@@ 54249
названия 54245
финансо@@ 54222
1933 54218
рина 54216
T@@ 54176
прямой 54175
няется 54169
Сте@@ 54136
тным 54125
тического 54094
учился 54084
Деревня 54083
лам 54070
наи@@ 54048
Андрей 54031
укра@@ 54026
профессиона@@ 53986
Бор@@ 53973
информации 53970
Нар@@ 53960
мент 53959
ниче@@ 53942
300 53917
исследований 53898
месяцев 53859
лых 53852
уровне 53844
ане 53836
твор@@ 53796
министра 53784
целом 53767
посёлка 53730
дальнейшем 53715
продолжа@@ 53682
песен 53679
кни@@ 53676
1931 53643
шан@@ 53638
Хан@@ 53628
1923 53593
такой 53587
угро@@ 53580
Некоторые 53572
русских 53569
федера@@ 53566
потому 53532
обе@@ 53529
рождения 53498
участок 53484
острове 53479
лиге 53476
оз@@ 53475
Её 53471
ционного 53454
высо@@ 53451
лений 53444
ходя@@ 53435
Бра@@ 53413
стами 53412
мами 53385
пунктов 53380
вице 53367
Восто@@ 53355
брат 53348
штата 53335
ствами 53309
значительно 53295
япон@@ 53294
убе@@ 53261
опублико@@ 53248
пли@@ 53233
Тор@@ 53223
игре 53217
принимал 53215
Московского 53198
вокруг 53196
состоялся 53193
ато 53189
йским 53182
сли 53142
a 53099
лян@@ 53045
исполня@@ 53016
гну@@ 53008
бли@@ 52972
лка 52929
числа 52922
успеш@@ 52904
мента 52903
включает 52901
чено 52889
работает 52887
постоян@@ 52884
Красной 52873
представителей 52872
5@@ 52867
щим 52798
смог 52732
эр@@ 52730
най@@ 52724
быстро 52703
хан@@ 52639
ён@@ 52633
Название 52617
ющую 52605
сли@@ 52600
действий 52582
факультет 52581
Рай@@ 52574
Бур@@ 52565
лица 52563
руют 52532
Ю 52530
пен@@ 52520
транс@@ 52517
необходи@@ 52476
муниципального 52469
Василий 52466
выборах 52457
ью@@ 52452
ствах 52448
промышленности 52408
пу 52337
подо@@ 52319
дет@@ 52294
ек@@ 52274
участник 52256
F@@ 52251
бес@@ 52240
известен 52236
поля 52234
лый 52231
Азии 52217
скры@@ 52190
электри@@ 52185
шёл 52183
сро@@ 52157
сах 52126
производство 52116
команде 52080
науки 52077
военно 52021
ктором 52010
вёл 52002
мужчины 52002
сам@@ 51982
создан@@ 51954
странах 51948
лле@@ 51944
вызва@@ 51938
четвёр@@ 51930
ита@@ 51925
летних 51921
Александрович 51886
вор@@ 51879
королев@@ 51873
песня 51832
Административный 51821
воздуха 51819
1951 51765
ницей 51747
большое 51735
зал 51728
сков 51728
лат@@ 51727
гли@@ 51722
чемпионат 51710
поддержи@@ 51706
Николаевич 51705
экра@@ 51688
президент 51667
ству@@ 51660
Рас@@ 51636
C@@ 51619
тические 51619
коммер@@ 51618
ителя 51608
административного 51594
тяжё@@ 51584
1927 51583
народ@@ 51579
нский 51553
бое@@ 51549
мые 51540
счёт 51523
системе 51515
став 51514
ванием 51513
жный 51503
ус 51486
лучших 51449
дель@@ 51436
сё@@ 51426
65 51417
Южной 51406
последовате@@ 51367
рованы 51360
искусств 51336
соб@@ 51336
дне@@ 51315
просто 51307
един@@ 51304
соответству@@ 51295
бен@@ 51289
ровка 51283
Дон@@ 51222
жных 51201
дже@@ 51192
даль@@ 51164
доме 51145
мере 51142
выполня@@ 51120
первое 51111
границы 51106
щее 51098
ца@@ 51096
войсками 51093
административ@@ 51090
проте@@ 51080
1925 51075
запа@@ 51050
прото@@ 51016
дочери 51006
юр@@ 51002
серьёз@@ 51000
Ком@@ 50999
суда 50996
последний 50987
уси@@ 50977
первая 50974
дан 50972
сначала 50971
Академии 50943
шла 50938
коле@@ 50916
год@@ 50909
следует 50908
граф@@ 50879
хро@@ 50875
знамени@@ 50837
вок 50834
вре@@ 50797
преимущественно 50770
зин@@ 50764
тое 50750
математи@@ 50724
7@@ 50718
рией 50717
включа@@ 50708
свидетель@@ 50707
Даль@@ 50658
Тай@@ 50611
1914 50590
эль 50579
Же@@ 50559
Автор 50550
остро@@ 50541
Под 50531
каждый 50531
официально 50522
посвящ@@ 50518
дь@@ 50507
пти@@ 50499
подня@@ 50488
муж@@ 50458
Коро@@ 50455
музей 50448
рабо@@ 50446
свобод@@ 50445
представля@@ 50428
произведения 50402
распростра@@ 50398
матча 50374
медаль 50361
работа 50350
отношении 50348
культур@@ 50343
емого 50342
ёт@@ 50294
чена 50243
собра@@ 50235
своими 50188
доб@@ 50182
ед@@ 50155
произ@@ 50120
стандар@@ 50058
ционный 50042
армия 50041
долго 50040
заместитель 50037
ниже 50025
ум@@ 50019
следующий 50016
регионе 50010
англи@@ 50008
эн 50003
сдела@@ 49994
структуре 49984
данные 49972
поста@@ 49954
ждении 49951
Нико@@ 49928
джи@@ 49927
коне@@ 49898
работала 49895
Три@@ 49856
мей@@ 49845
старший 49842
стана 49827
ждена 49798
64 49793
Здесь 49771
Умер 49750
боро@@ 49741
историю 49730
всю 49722
распреде@@ 49688
рон 49678
ствовал 49667
Никола@@ 49657
совмест@@ 49657
правитель@@ 49655
книг 49647
улице 49607
солдат 49605
сторону 49595
уни@@ 49592
жан@@ 49564
нали@@ 49564
L@@ 49550
Дани@@ 49550
Поли@@ 49549
защи@@ 49547
ителем 49543
мии 49535
юж@@ 49531
Ива@@ 49530
базе 49530
храм 49528
театра@@ 49520
B 49511
готов@@ 49466
силь@@ 49441
N@@ 49431
сра@@ 49408
дву@@ 49394
тен 49391
XVII 49389
Помимо 49356
стка 49355
тки 49345
Дан@@ 49331
Нор@@ 49323
осуществ@@ 49318
Боль@@ 49303
независи@@ 49283
власть 49240
реестра 49232
форми@@ 49207
стер 49204
проис@@ 49159
герман@@ 49143
большую 49135
вано 49109
Тур@@ 49099
ниж@@ 49094
активно 49086
позволяет 49082
ствия 49080
железной 49041
36 49038
вари@@ 49033
мощ@@ 49032
море 48975
занимал 48956
льности 48953
6@@ 48935
Фор@@ 48935
Виктор 48928
округе 48926
заключ@@ 48922
продолж@@ 48903
Президиума 48892
юриди@@ 48887
британ@@ 48875
получи@@ 48872
вами 48862
ствие 48844
гия 48834
ыми 48828
дво@@ 48808
половине 48808
военный 48768
вшиеся 48735
часов 48692
and 48665
лег@@ 48629
Кла@@ 48626
челове@@ 48625
сп@@ 48601
Хотя 48588
строитель@@ 48569
amp 48546
эффектив@@ 48541
общего 48536
фамилия 48536
государственной 48534
союз@@ 48526
ват@@ 48523
in 48493
евре@@ 48478
Дмитрий 48450
1905 48439
ленных 48431
олимпи@@ 48425
док 48414
решил 48401
Бан@@ 48396
Бай@@ 48355
Вар@@ 48349
.. 48345
Аб@@ 48330
духов@@ 48323
литературы 48284
форма@@ 48280
льство 48253
пом 48249
евского 48234
ступ@@ 48206
студии 48201
защит@@ 48191
средств 48191
ствен@@ 48183
умень@@ 48178
моно@@ 48147
бригады 48140
Сы@@ 48131
пяти 48107
од@@ 48094
ительный 48077
восток 48073
общество 48067
кг 48054
йся 48045
городов 48024
будут 47973
фе 47968
дело 47961
стороне 47955
зву@@ 47954
33 47948
опис@@ 47936
лям 47925
менты 47918
рен 47918
глубо@@ 47885
добав@@ 47881
куп@@ 47877
существует 47876
экономиче@@ 47866
происхождения 47846
пяти@@ 47846
техниче@@ 47831
Село 47805
Стар@@ 47801
план@@ 47801
Кру@@ 47785
Фран@@ 47783
прежде 47760
сей 47747
печат@@ 47744
ёр 47699
рю@@ 47695
старо@@ 47667
игра@@ 47666
отдела 47615
ланд@@ 47608
формирова@@ 47604
лья 47581
нич@@ 47581
присут@@ 47496
книге 47476
потреб@@ 47470
опы@@ 47451
директор 47444
тренер 47433
действие 47428
днев@@ 47401
районного 47396
оби@@ 47393
региона 47393
гло@@ 47383
раза 47355
фре@@ 47344
ковые 47327
мого 47323
следующем 47309
Зе@@ 47258
храма 47246
гол 47240
шед@@ 47231
ченко 47217
Уэ@@ 47212
фици@@ 47204
вной 47203
ню 47194
гене@@ 47156
уровня 47145
домаш@@ 47132
37 47131
гии 47131
кну@@ 47123
реш@@ 47104
бед@@ 47098
ент@@ 47077
тина 47056
шек 47014
административно 47013
длиной 47006
чика 46991
средней 46988
нало@@ 46982
степень 46929
прибы@@ 46915
пробле@@ 46904
линей@@ 46890
тное 46866
втором 46857
Лан@@ 46846
Все@@ 46831
рения 46831
новский 46794
Чемпионат 46793
люби@@ 46784
газеты 46770
проживало 46758
местного 46753
всем 46748
большая 46743
процесс 46739
шими 46735
голов@@ 46711
Свя@@ 46709
бре@@ 46692
обеспечи@@ 46691
пру@@ 46690
сказал 46688
звания 46684
Кли@@ 46681
зелё@@ 46669
техники 46631
ленный 46614
Вла@@ 46596
кому 46584
реали@@ 46582
жу 46568
Бри@@ 46558
привле@@ 46554
рублей 46545
фильмов 46533
священ@@ 46528
Кры@@ 46500
огром@@ 46497
Ев@@ 46493
дении 46490
сыгра@@ 46484
38 46473
34 46447
владе@@ 46414
путь 46410
Бал@@ 46407
свет@@ 46391
нас 46386
музея 46361
защиты 46356
вести 46347
смо@@ 46347
война 46338
итогам 46312
гин@@ 46269
основных 46264
Наиболее 46236
Лей@@ 46231
одино@@ 46219
Ара@@ 46209
возможности 46187
de 46177
пункты 46166
Сти@@ 46150
сериала 46150
итальян@@ 46148
модели 46137
измени@@ 46136
реб@@ 46122
сте 46088
1@@ 46076
торов 46076
Хе@@ 46057
дели@@ 46040
вступил 46031
международных 45984
последние 45984
зависимости 45977
партий@@ 45977
ску@@ 45954
W@@ 45949
командира 45945
ходит 45916
художник 45900
Глав@@ 45891
помощь 45891
лан 45887
расположен@@ 45870
отделения 45842
тур 45842
пересе@@ 45836
зва@@ 45829
сии 45772
средства 45765
географи@@ 45763
нор@@ 45760
Пол@@ 45756
Воен@@ 45755
вошёл 45739
гото@@ 45724
клад@@ 45705
должна 45700
Дру@@ 45698
политической 45690
Петро@@ 45687
рово@@ 45671
довольно 45665
паро@@ 45664
семей@@ 45648
хе 45645
Красно@@ 45628
Тру@@ 45628
известных 45611
торго@@ 45577
версия 45569
поня@@ 45568
доступ@@ 45555
1915 45539
самом 45530
финале 45516
Зи@@ 45506
разру@@ 45500
кварти@@ 45489
ленной 45479
подписал 45442
улуч@@ 45438
упомина@@ 45428
крупных 45425
высота 45391
Жу@@ 45378
расположены 45371
боях 45349
местных 45333
раст@@ 45333
Петербурге 45331
мости 45287
дри@@ 45269
рели@@ 45259
теперь 45255
спо@@ 45243
истреб@@ 45232
комиссии 45211
нией 45199
V@@ 45198
осу@@ 45195
основан@@ 45194
председатель 45165
жила 45163
космиче@@ 45154
мастер@@ 45148
Мал@@ 45129
хол@@ 45112
Ян@@ 45084
E@@ 45083
игро@@ 45083
кси@@ 45074
тации 45028
пользо@@ 45020
400 45012
неуда@@ 45007
понима@@ 45007
ЦК 44995
сце@@ 44987
прожи@@ 44982
ённое 44979
Пётр 44972
нат 44968
Семья 44952
председателем 44942
карьеры 44938
партия 44921
фло@@ 44919
жского 44916
Первая 44910
стен@@ 44908
рованной 44895
Джи@@ 44878
Кро@@ 44854
поле@@ 44849
кло@@ 44817
нен 44805
Святого 44796
дорога 44786
роман@@ 44773
частей 44766
путём 44762
исто@@ 44733
выступил 44723
Васильевич 44712
евский 44675
театр 44671
осуществля@@ 44670
устро@@ 44664
трёх@@ 44652
суд 44651
центральной 44638
чности 44620
вки 44608
чемпионом 44581
дор@@ 44570
поз@@ 44545
лож@@ 44537
Ах@@ 44500
8@@ 44481
корпус 44453
A@@ 44445
футболу 44441
Юрий 44433
зда@@ 44427
Впервые 44421
суб@@ 44415
вошли 44413
тический 44410
следу@@ 44408
сения 44360
гер 44341
Дж@@ 44319
вин 44295
коми@@ 44295
европей@@ 44281
глав@@ 44267
указа@@ 44246
компанией 44219
добы@@ 44214
среднем 44183
шу 44180
групп 44156
дин 44138
Василь@@ 44133
пос@@ 44132
потом 44114
брига@@ 44112
сети 44102
никогда 44081
обязате@@ 44078
стрел@@ 44077
ьи 44075
национального 44061
град@@ 44058
стиле 44049
запу@@ 44035
значитель@@ 44025
решения 43973
Ган@@ 43965
Мен@@ 43958
Эд@@ 43957
миллионов 43950
тран@@ 43949
КПСС 43945
севере 43944
Ура@@ 43930
использования 43919
ец 43911
ительно 43898
ворота 43894
деся@@ 43866
отве@@ 43847
мена 43845
шесть 43841
Бы@@ 43828
говорит 43814
ене@@ 43811
Анто@@ 43806
животных 43800
религиоз@@ 43797
юге 43790
Вместе 43784
Кал@@ 43783
нан@@ 43761
специаль@@ 43749
сь@@ 43749
компози@@ 43745
анд@@ 43735
­ 43725
Один 43722
щик 43719
рованный 43717
уез@@ 43710
бывший 43693
дон@@ 43687
шен 43661
форму 43657
али@@ 43654
искус@@ 43650
альной 43642
летний 43641
оса@@ 43584
арти@@ 43583
цкая 43560
растений 43556
именем 43533
чными 43531
входила 43520
дополнитель@@ 43512
Фу@@ 43482
получить 43472
председателя 43472
архи@@ 43459
люб@@ 43454
приняли 43446
ровки 43437
швед@@ 43424
лизо@@ 43393
Пав@@ 43388
республики 43388
луч@@ 43377
Михайлович 43371
комму@@ 43371
лью 43355
основан 43355
промышлен@@ 43355
иностранных 43340
Павел 43313
дважды 43293
малень@@ 43286
ити@@ 43261
Фер@@ 43247
уезд 43239
систем 43228
произошло 43209
дены 43205
нили 43195
езд 43193
дальней@@ 43189
верну@@ 43159
Эк@@ 43145
построен 43143
ули@@ 43137
K@@ 43114
щиков 43103
рение 43102
направлении 43097
увеличи@@ 43089
ницу 43077
родилась 43075
четвер@@ 43065
православ@@ 43036
слов 43022
своему 43018
временем 43012
присвоено 43008
Париже 43006
чув@@ 43005
выпуска@@ 43000
us 42988
ляции 42976
постанов@@ 42955
игра 42951
хра@@ 42912
коммуна 42910
вила 42905
провод@@ 42903
крупней@@ 42902
зыва@@ 42888
Син@@ 42885
принято 42879
борьбы 42875
депутатов 42871
изменения 42857
зам@@ 42850
XVI 42845
ительной 42832
маль@@ 42832
заяв@@ 42823
ленные 42798
Рей@@ 42793
Указом 42775
художе@@ 42772
ниц 42769
участия 42744
рабочих 42732
министр 42713
мото@@ 42711
льность 42710
мыш@@ 42699
баш@@ 42663
счётом 42656
ровала 42645
Площадь 42636
высоко@@ 42636
участников 42625
щена 42619
буду@@ 42612
виде@@ 42612
осадков 42604
Тар@@ 42601
командир 42599
ссия 42591
проведения 42587
Черно@@ 42577
современной 42573
Эй@@ 42569
выхода 42557
тера 42553
технологи@@ 42550
Ли 42529
поддержку 42507
чек 42501
вплоть 42498
Америки 42496
сделать 42481
командованием 42469
приблизительно 42414
жить 42405
характер@@ 42389
нных 42386
работали 42367
премьер 42366
рак@@ 42362
Например 42361
воро@@ 42354
броне@@ 42340
князя 42334
началось 42334
тием 42332
меры 42331
Сар@@ 42310
обви@@ 42287
высоте 42276
управление 42252
Первые 42251
бов 42250
бывшего 42242
написан@@ 42230
Моло@@ 42211
популяр@@ 42155
борьбе 42142
началась 42125
ин 42112
призёр 42101
тин 42093
Национа@@ 42090
окончании 42089
рио@@ 42081
чие 42069
выпущен 42055
рованные 42055
Х 42052
ительного 42037
1912 42029
директором 42024
ывает 42019
сторо@@ 42003
входят 41992
фи 41991
тепло@@ 41986
фы 41985
Бен@@ 41958
нений 41931
ёл 41926
остров 41924
Большой 41914
кости 41901
монастыря 41897
данный 41891
составляла 41891
матери 41886
украин@@ 41866
педагоги@@ 41856
бран@@ 41837
ходов 41834
возглавил 41829
пехот@@ 41819
зада@@ 41814
ради@@ 41794
законодате@@ 41788
матчах 41786
чере@@ 41786
ас@@ 41778
c 41743
сделал 41742
оба 41738
уча@@ 41733
морской 41732
1913 41721
упоминается 41720
кисло@@ 41712
судеб@@ 41692
кает 41690
переве@@ 41678
императора 41670
тем@@ 41641
H@@ 41634
прошёл 41632
Австралии 41624
внутрен@@ 41624
низации 41624
Армии 41583
теоре@@ 41581
Государ@@ 41574
диссертацию 41572
коль@@ 41570
лая 41565
судь@@ 41561
широко 41536
Рос@@ 41529
учё@@ 41529
Николая 41526
скло@@ 41525
информа@@ 41488
АССР 41486
ющийся 41483
жёл@@ 41442
1910 41434
От 41433
вклю@@ 41414
протекает 41396
некоторое 41392
президентом 41375
спортив@@ 41368
шах@@ 41362
Казах@@ 41360
Карл 41345
Пал@@ 41332
директора 41332
француз@@ 41324
произведений 41323
убий@@ 41304
Средняя 41292
метра 41278
построен@@ 41274
44 41272
Рус@@ 41271
Джо@@ 41268
75 41264
она@@ 41263
Кэ@@ 41237
сты@@ 41237
проблемы 41207
сво@@ 41207
дано 41203
Ещё 41202
аппара@@ 41186
песню 41177
вии 41161
глу@@ 41158
подчи@@ 41144
ее 41108
сту 41096
берг 41091
пределах 41084
заняла 41074
король 41065
новую 41060
показа@@ 41055
правом 41048
территориаль@@ 41031
42 41011
ща 41010
институте 40999
писатель 40985
побед@@ 40980
нению 40976
емая 40975
Летом 40966
жители 40963
оригина@@ 40951
вина 40947
геро@@ 40936
сных 40935
переехал 40915
расположено 40899
друга 40894
объ@@ 40887
Вин@@ 40878
вшейся 40859
лиц 40857
взры@@ 40852
стр 40844
принци@@ 40832
инди@@ 40830
повре@@ 40827
ани 40826
советской 40803
сред@@ 40800
режиссёра 40797
вез@@ 40791
жено 40787
история 40775
лий 40773
Брю@@ 40767
сотруд@@ 40767
сной 40764
документа@@ 40761
полож@@ 40728
минут 40707
южной 40705
тек@@ 40702
жской 40696
хан 40688
лья@@ 40629
влия@@ 40604
вская 40592
занимает 40588
ческими 40583
армию 40581
рил 40576
нной 40574
создание 40566
ляют 40563
представители 40563
функции 40554
кового 40526
Находится 40514
ряд@@ 40513
Коло@@ 40511
нец 40497
автобу@@ 40487
международ@@ 40486
альных 40465
получа@@ 40443
Ам@@ 40413
генерала 40401
Дю@@ 40397
бой@@ 40389
постоянно 40361
весь 40351
силу 40336
съ@@ 40332
оказался 40329
Индии 40327
сочета@@ 40327
грани@@ 40324
тили 40316
Авто@@ 40313
университе@@ 40301
позволя@@ 40295
чемпион 40289
150 40272
подоб@@ 40266
ственном 40255
советских 40253
вдоль 40246
рий@@ 40229
вопрос 40220
начальником 40216
тить 40215
Их 40214
личе@@ 40211
освобо@@ 40210
Вели@@ 40199
хокке@@ 40198
учре@@ 40194
епархии 40188
журнали@@ 40176
новое 40172
главной 40154
кер 40148
театре 40148
ката@@ 40145
назад 40145
скульп@@ 40127
Герой 40113
ходы 40108
1916 40068
нау@@ 40059
умеренно 40059
вероятно 40042
мон 40035
появился 40029
ходить 40028
милли@@ 39978
систему 39975
исклю@@ 39963
окра@@ 39956
пришлось 39947
жного 39937
ющиеся 39935
распростран@@ 39903
ровано 39903
Пан@@ 39894
Похоронен 39885
ево 39871
пят@@ 39866
Тогда 39861
выборов 39850
имеется 39845
сум@@ 39834
государствен@@ 39833
дают 39810
группой 39802
ссе 39801
запад 39791
играть 39784
заво@@ 39783
ологии 39782
деле 39773
ссы 39770
выбра@@ 39762
Является 39755
сопер@@ 39741
Бат@@ 39740
восстанов@@ 39739
АН 39715
заверши@@ 39681
ительных 39677
озеро 39677
кара@@ 39664
хло@@ 39657
поверхности 39605
тором 39600
анали@@ 39599
удар@@ 39598
создании 39596
отделение 39594
ционные 39579
ственную 39575
смер@@ 39566
туре@@ 39555
магни@@ 39546
рек 39529
следования 39523
дили 39502
началом 39499
мало 39491
мини@@ 39478
обозна@@ 39473
Пор@@ 39441
нове@@ 39407
вно 39400
парк 39399
дивизи@@ 39384
книга 39383
семья 39370
програм@@ 39362
ничего 39334
спектак@@ 39329
молодёж@@ 39328
профессора 39326
появились 39320
Мер@@ 39308
принима@@ 39308
находились 39285
использу@@ 39283
і@@ 39282
мной 39266
иг@@ 39261
успешно 39259
автор@@ 39252
кана@@ 39245
зло@@ 39231
боя 39224
дей@@ 39221
грам@@ 39204
соеди@@ 39173
Современ@@ 39166
брата 39166
маршру@@ 39143
Откры@@ 39139
гам 39139
подготов@@ 39134
ительность 39101
мость 39093
употреб@@ 39093
Впоследствии 39083
ровского 39064
успе@@ 39062
польского 39050
Хай@@ 39041
вия 39038
ад@@ 39033
каче@@ 39027
$ 39007
симво@@ 38997
появилась 38996
основании 38979
леса 38962
жные 38961
трени@@ 38950
стской 38944
Гро@@ 38940
гвардии 38940
чар@@ 38933
французский 38932
лесо@@ 38925
Полу@@ 38908
художника 38907
води@@ 38895
событий 38890
картины 38864
S 38853
народа 38853
потеря@@ 38847
Стра@@ 38840
рис 38829
O@@ 38827
работ@@ 38827
след@@ 38820
рес@@ 38807
новая 38787
уры 38775
тского 38773
льда 38767
Пя@@ 38764
дя 38742
режиссёр 38728
взаимо@@ 38727
Исто@@ 38723
нской 38715
стат@@ 38715
Федера@@ 38701
Город 38687
преступ@@ 38683
сообще@@ 38683
меся@@ 38672
бил 38660
регуляр@@ 38655
Западной 38654
имела 38647
дре@@ 38626
Восточной 38620
дания 38609
Министерства 38608
библиоте@@ 38604
труда 38598
торгов@@ 38593
северной 38591
догово@@ 38588
цы@@ 38574
союза 38568
Чёр@@ 38555
большим 38528
Льво@@ 38524
Шар@@ 38515
комплекс 38464
иты 38459
ходил 38453
стые 38438
39 38429
кали@@ 38415
Дей@@ 38407
максима@@ 38401
каждой 38398
Ген@@ 38397
Влади@@ 38391
гале@@ 38389
шин 38381
ителями 38377
Кам@@ 38373
Марии 38363
экономики 38345
00 38339
приток 38314
языков 38314
называют 38307
клубе 38306
главных 38287
держа@@ 38270
стоит 38270
эй 38234
лым 38232
народов 38222
изготов@@ 38203
попа@@ 38189
Кубок 38181
сельский 38174
вод 38171
проходил 38171
Северо 38153
кт 38148
ляются 38144
Джон@@ 38141
Поло@@ 38107
вопро@@ 38099
почёт@@ 38088
ковый 38078
руковод@@ 38076
местности 38063
стрелковой 38056
зя@@ 38055
секретарь 38053
социаль@@ 38049
памятник 38033
вате@@ 38027
игру 38024
предназна@@ 38020
куда 38019
исполнитель@@ 38018
бази@@ 38013
Воло@@ 38007
книгу 38006
доктор 37999
ведения 37987
темпера@@ 37987
зами 37986
предприятия 37963
око@@ 37961
политики 37950
ны@@ 37941
основа@@ 37925
Гали@@ 37913
Тол@@ 37908
турнир 37905
щён 37905
вшегося 37899
заводе 37898
напа@@ 37895
современного 37881
тоже 37865
ванных 37861
фран@@ 37857
Многие 37856
гли 37841
серебря@@ 37838
дно 37837
сила 37825
кса 37807
большого 37799
Вос@@ 37798
вру@@ 37787
Борис 37780
атив@@ 37779
льному 37747
извест@@ 37741
Род@@ 37721
чёт@@ 37714
создал 37691
концу 37685
обучения 37681
Американ@@ 37674
роман 37662
факультета 37657
шло 37656
дворян@@ 37629
рая 37629
покинул 37627
железнодорож@@ 37619
счита@@ 37607
граждан@@ 37600
Основные 37590
студен@@ 37583
хов@@ 37576
земле 37569
создана 37564
нитель@@ 37557
тий 37548
памяти 37542
данной 37540
посо@@ 37527
слава 37526
зимой 37525
Благодаря 37518
ался 37507
плав@@ 37505
победы 37497
наслед@@ 37495
дает 37487
Казан@@ 37481
состоял 37473
богат@@ 37468
Йорк 37466
определя@@ 37464
скла@@ 37459
том@@ 37449
Об 37448
насчит@@ 37445
Само@@ 37417
регули@@ 37415
войну 37412
нице 37400
Белоруссии 37389
актёр 37389
канала 37373
начинает 37367
нением 37364
немецкий 37350
выпуск@@ 37345
тю@@ 37344
памят@@ 37342
отправился 37310
кти@@ 37309
55 37296
Андре@@ 37275
стых 37260
Спи@@ 37258
льская 37225
заместителем 37215
Динамо 37208
отряд 37202
построена 37183
Владимира 37159
члены 37158
ал 37157
длитель@@ 37150
вла@@ 37134
Пен@@ 37120
ровался 37115
потом@@ 37076
третий 37076
внутри 37069
находилась 37066
открыт 37063
Верх@@ 37049
автором 37032
Национальный 37027
ченных 37026
аналоги@@ 37007
9@@ 37006
весьма 36990
Петербург 36988
Фё@@ 36978
ходят 36971
остав@@ 36966
уровень 36962
1900 36960
хот@@ 36957
лизации 36955
сеть 36941
ходом 36940
сосед@@ 36939
тренером 36939
лай@@ 36935
момента 36932
стру@@ 36931
номина@@ 36924
Алексе@@ 36921
пора@@ 36919
Виль@@ 36880
стран@@ 36856
чением 36856
виды 36853
сейчас 36853
территория 36840
тской 36830
слом 36809
сем@@ 36806
фика@@ 36806
араб@@ 36797
коп@@ 36773
тном 36771
проек@@ 36739
издания 36728
встречается 36725
отношений 36719
лом@@ 36717
тяже@@ 36714
основания 36697
вынужден 36693
филь@@ 36690
рем 36667
входил 36656
морского 36656
носит 36649
разработан@@ 36636
каждого 36635
изм 36625
i 36623
цвет 36621
бою 36613
гори@@ 36594
эпи@@ 36588
недо@@ 36561
сова 36560
щается 36559
меди@@ 36544
армей@@ 36542
двой@@ 36534
Москву 36533
монастырь 36533
шены 36531
иностран@@ 36519
отвер@@ 36513
Иль@@ 36505
охот@@ 36499
художников 36487
использование 36474
распоря@@ 36472
тила 36472
разработ@@ 36471
лист 36447
времена 36446
округу 36443
хся 36442
лежа@@ 36433
вошла 36424
пило@@ 36417
Лондоне 36416
Ос@@ 36414
АО 36412
1911 36408
зен@@ 36408
передачи 36393
сопровожда@@ 36389
Государственной 36386
ана@@ 36385
другом 36376
территорию 36370
1000 36362
Кле@@ 36362
оказа@@ 36362
1907 36357
используются 36352
Там 36348
цах 36341
югу 36341
потер@@ 36339
агент@@ 36334
против@@ 36328
Й@@ 36322
особен@@ 36310
сто 36304
автомати@@ 36303
служи@@ 36303
премию 36297
щен 36271
внутренних 36252
Ци@@ 36251
това 36236
1906 36235
ёнными 36206
начинается 36187
пит@@ 36183
воору@@ 36180
заве@@ 36179
льском 36174
дель 36173
ау@@ 36161
млрд 36161
сохра@@ 36156
привело 36145
мам 36141
раб@@ 36126
предыду@@ 36116
Тан@@ 36113
ровский 36111
оружия 36078
кано@@ 36077
нены 36066
Али@@ 36062
труд@@ 36054
тности 36044
запад@@ 36034
Оль@@ 36022
Героя 36017
ссы@@ 36008
уме@@ 35992
ссив@@ 35983
торы 35970
48 35953
конструк@@ 35948
тика 35944
неоднократно 35925
ун 35922
районов 35919
новского 35909
следо@@ 35898
переме@@ 35879
цент@@ 35873
Щ@@ 35864
студи@@ 35864
энергии 35863
мое 35860
женился 35848
рекомен@@ 35847
чив 35840
стане 35836
отда@@ 35835
относи@@ 35833
фир@@ 35805
Дар@@ 35796
сад 35795
тическая 35790
мол@@ 35789
прав 35787
Польши 35782
епископ 35778
состоянии 35720
ведён 35714
трудо@@ 35714
Евгений 35710
стрем@@ 35707
Ну@@ 35689
хо 35683
пье@@ 35675
подвод@@ 35669
общины 35654
ального 35648
мович 35646
кен@@ 35643
Фри@@ 35642
большей 35641
Казахстана 35637
слишком 35632
попал 35630
лага@@ 35627
пока@@ 35627
оло@@ 35623
предложил 35622
дского 35619
индивиду@@ 35593
1908 35590
нос 35590
I@@ 35586
найти 35575
Эль@@ 35571
Валь@@ 35558
российских 35556
обсу@@ 35553
бург@@ 35549
ванной 35538
интервью 35536
J@@ 35533
спут@@ 35532
подготовки 35531
экспер@@ 35528
Бол@@ 35520
Ниж@@ 35519
гит@@ 35509
финал 35495
тип 35492
кан 35481
составил 35464
американской 35461
причём 35449
армян@@ 35447
чий 35433
приме@@ 35430
альные 35421
преж@@ 35414
Гла@@ 35408
сельскохозяй@@ 35407
парламен@@ 35401
мисси@@ 35400
ствуют 35393
Новый 35385
жем 35382
в. 35381
лейтенант 35374
объектов 35362
прове@@ 35356
сар@@ 35354
лучшим 35330
мона@@ 35327
пыта@@ 35313
сингл 35302
горы 35299
русском 35284
Позднее 35282
ност@@ 35279
нес 35274
устанавли@@ 35272
43 35248
стить 35248
объё@@ 35236
называется 35231
небольшой 35221
оры 35205
Петрович 35200
назвал 35187
Самар@@ 35179
меня 35170
чают 35162
мп@@ 35153
скончался 35153
военные 35151
Украине 35124
руются 35124
ВВС 35115
Поэтому 35112
знаком@@ 35110
кер@@ 35110
Расстояние 35108
Анна 35107
журнал 35099
41 35098
домов 35076
относятся 35074
щи 35072
шению 35069
1,5 35063
воин@@ 35056
Экономика 35035
нео@@ 35033
Петра 35029
аб@@ 35029
нической 35024
исследо@@ 35020
рик 35019
Высо@@ 35015
специализи@@ 35015
мия 35009
няет 35001
содержит 34976
означает 34974
государств 34973
грамо@@ 34953
меньше 34928
Кен@@ 34920
ите@@ 34919
зма 34918
R 34911
Первоначально 34892
Эм@@ 34883
пах 34878
ставля@@ 34876
корпу@@ 34870
1,@@ 34857
публи@@ 34851
ъ@@ 34837
y 34829
чению 34829
лого 34828
фактически 34826
Пау@@ 34825
желез@@ 34824
сан 34815
сви@@ 34809
самостоятель@@ 34808
D 34807
Данные 34806
издание 34806
моби@@ 34806
Бру@@ 34784
туры 34768
види@@ 34767
забо@@ 34758
финала 34739
свет 34726
соревнованиях 34722
Отец 34714
артиллерий@@ 34706
связь 34698
Кавказ@@ 34694
напря@@ 34694
пунк@@ 34691
ночь 34683
философии 34682
коричне@@ 34666
самый 34654
уста@@ 34651
нических 34641
VI 34638
раство@@ 34627
сек@@ 34627
мато@@ 34625
заниматься 34624
днее 34590
кораблей 34590
численность 34585
ковым 34584
кафедры 34582
газо@@ 34576
древне@@ 34571
организация 34568
возник@@ 34563
голов 34562
археологи@@ 34560
держ@@ 34557
оши@@ 34532
науч@@ 34531
уде@@ 34519
фронт 34518
бах 34510
гвардей@@ 34508
остался 34505
характер 34498
Ла 34496
рази@@ 34487
Работал 34465
австри@@ 34447
Зна@@ 34444
цом 34442
ковской 34433
состояние 34421
L 34417
зоны 34416
герцо@@ 34412
еся 34393
объявил 34382
принадлежа@@ 34363
опас@@ 34349
Старо@@ 34329
постепенно 34322
Роберт 34319
ар 34317
кило@@ 34317
дный 34309
контра@@ 34294
товой 34294
видео 34293
президент@@ 34286
старше 34280
цей 34277
резер@@ 34270
снима@@ 34256
дж 34253
альный 34246
провозгла@@ 34245
сол@@ 34244
мина 34234
Маль@@ 34227
доль@@ 34227
командиром 34210
архитектуры 34203
ую 34197
Ц 34190
план 34189
действо@@ 34188
российского 34182
второе 34176
Лос 34155
городах 34147
био@@ 34146
мыс@@ 34145
большие 34140
революцион@@ 34133
гео@@ 34132
события 34124
Бро@@ 34109
йское 34109
порядка 34100
оны 34098
исла@@ 34089
чила 34086
Фильм 34081
Олимпи@@ 34077
клубом 34045
материалов 34041
народного 34041
международного 34038
находи@@ 34037
тив 34012
тво@@ 33992
очков 33985
пи 33984
жо@@ 33969
Института 33964
явления 33964
ген 33963
футболь@@ 33963
сей@@ 33962
вали@@ 33946
лист@@ 33926
чики 33924
чность 33910
этапе 33910
лите@@ 33906
стон 33906
сре@@ 33894
долж@@ 33887
сно 33884
46 33879
1904 33875
порт 33873
началу 33869
замет@@ 33858
отдельных 33855
значи@@ 33845
они@@ 33840
гат@@ 33835
нический 33822
свой@@ 33813
чита@@ 33792
метр 33791
современных 33780
принят 33772
политических 33771
отставку 33768
американ@@ 33763
рованного 33751
необходимо 33750
тонн 33735
лье 33734
подъ@@ 33731
курс 33728
последо@@ 33724
вклад 33706
родо@@ 33702
голосо@@ 33699
индекс 33691
пер 33681
ально 33675
начиная 33667
трав@@ 33665
будучи 33643
получения 33643
агре@@ 33640
шении 33635
Новой 33625
тех@@ 33622
капита@@ 33620
останов@@ 33613
e@@ 33604
2022 33588
игроком 33582
сюже@@ 33581
ати 33576
драмати@@ 33574
сравнению 33570
организаций 33565
F 33563
сформирова@@ 33559
абсолютный 33556
реша@@ 33542
титу@@ 33540
выска@@ 33529
держи@@ 33528
телем 33517
перевод@@ 33506
ими 33495
ляр@@ 33492
ченные 33487
шить 33485
создать 33476
такого 33456
шина 33456
рат 33444
52 33441
селе@@ 33435
губер@@ 33429
кавале@@ 33420
совершен@@ 33420
земле@@ 33409
пры@@ 33407
колон@@ 33399
лета 33394
льских 33393
чины 33391
нуж@@ 33389
компьютер@@ 33386
стики 33381
Кай@@ 33376
Кер@@ 33364
золотой 33361
бассейна 33360
результат 33351
претен@@ 33347
стил 33347
новка 33340
игроков 33333
ствует 33321
соответ@@ 33319
воздуш@@ 33318
Вя@@ 33316
Тран@@ 33310
кораб@@ 33303
игрок 33298
поль 33295
вопросам 33292
частично 33276
ядер@@ 33269
воль@@ 33260
актриса 33255
мал@@ 33254
рэ@@ 33252
ктов 33251
отряда 33228
защитил 33221
миру 33221
ванный 33196
M 33190
Новая 33188
ходили 33185
мента@@ 33178
сведения 33177
результаты 33160
дав@@ 33159
Зу@@ 33158
дить 33156
зия 33137
слово 33135
Украин@@ 33125
неу@@ 33125
контроль 33123
объекта 33119
Евро@@ 33112
канал 33109
оборо@@ 33100
Филип@@ 33093
государственном 33086
горе@@ 33058
замуж 33057
семей 33048
завоевал 33042
линия 33039
непосредственно 33024
стаби@@ 33017
император@@ 33016
высокой 33013
смешан@@ 33011
обеспечения 32999
ожи@@ 32977
образ 32973
пишет 32968
мери@@ 32961
располагается 32958
щает 32950
началь@@ 32946
рить 32940
зан 32927
щено 32907
млад@@ 32891
47 32881
местах 32878
битве 32874
наблю@@ 32871
химиче@@ 32865
Европей@@ 32845
чился 32844
эффек@@ 32834
Име@@ 32829
лович 32827
Гал@@ 32823
льское 32813
модель 32808
шает 32800
упа@@ 32784
ствовали 32778
гать 32777
государ@@ 32776
смотре@@ 32772
дерев@@ 32770
парка 32767
ьями 32765
препода@@ 32757
мский 32747
рика 32743
чаще 32735
эле@@ 32735
вро@@ 32730
Участник 32729
фрон@@ 32724
лён 32721
семь 32715
уве@@ 32710
решением 32705
1909 32697
Сен 32687
утвержда@@ 32682
развед@@ 32673
веков 32664
ени 32649
продолжил 32629
командой 32624
отказался 32623
гне@@ 32605
Зо@@ 32593
Заслуженный 32591
мый 32590
ид@@ 32570
дит 32566
пато@@ 32566
союз 32564
диалек@@ 32558
минимум 32552
фом 32551
йки 32549
оце@@ 32544
еще 32529
подпис@@ 32529
иметь 32528
корабля 32528
ывается 32524
m 32520
исторических 32519
рь 32509
удостоен 32481
машины 32469
заказ@@ 32467
предлага@@ 32444
терро@@ 32442
вому 32440
фаль@@ 32427
нического 32419
совершил 32411
Сам@@ 32395
километрах 32365
капитан 32357
Z@@ 32354
хода 32343
вну@@ 32315
женных 32315
стого 32295
родствен@@ 32291
позволи@@ 32285
проблем 32276
сва@@ 32265
назван 32253
поражение 32246
тную 32245
рана 32244
полага@@ 32243
чается 32238
персона@@ 32237
высшей 32236
бассейн 32235
графии 32229
объек@@ 32228
кле@@ 32215
термин 32215
данного 32195
сою@@ 32192
дра 32189
дети 32183
Трои@@ 32174
Джона 32172
случаях 32160
реги@@ 32154
теат@@ 32154
Гон@@ 32151
уг@@ 32118
зарегистри@@ 32116
континентальный 32116
чался 32111
реку 32094
Бразилии 32093
ждению 32084
Группа 32079
рекла@@ 32076
шести 32075
крити@@ 32074
ока@@ 32074
островов 32073
выпуск 32064
дороге 32064
образован 32045
последнего 32024
нера 32020
руки 32016
возглавлял 32008
спу@@ 31995
энерге@@ 31994
штаб 31988
уголов@@ 31984
американского 31982
католиче@@ 31971
путеше@@ 31967
прошли 31965
евреев 31957
конференции 31957
повы@@ 31953
дь 31945
северу 31944
приводит 31942
проигра@@ 31940
дено 31937
Фло@@ 31918
бю@@ 31917
польский 31916
едино@@ 31904
канад@@ 31884
нова@@ 31882
направлен 31867
ря 31847
сыном 31839
обучение 31824
рации 31824
солне@@ 31811
нила 31807
левом 31804
вече@@ 31797
стера 31792
вторым 31788
боло@@ 31778
X@@ 31770
команд@@ 31757
характеризуется 31750
дного 31743
длина 31741
ква@@ 31734
дати@@ 31732
реак@@ 31729
корабль 31726
чили 31717
органов 31716
Дер@@ 31713
эфи@@ 31709
лично 31700
блю@@ 31691
Рабо@@ 31687
больших 31684
отли@@ 31677
беспо@@ 31676
подви@@ 31675
лял 31668
манов 31655
структуры 31640
установлены 31639
встречаются 31638
Константин 31635
дию 31634
тыся@@ 31627
погиб@@ 31626
ментов 31625
процессе 31625
разли@@ 31623
пон@@ 31621
Йо@@ 31614
почто@@ 31610
x 31609
следующим 31608
чить 31595
ступа@@ 31593
доктора 31592
левой 31590
положения 31589
региона@@ 31589
разв@@ 31587
дон 31566
КП@@ 31554
батальона 31542
ченный 31538
Большая 31524
систе@@ 31522
сда@@ 31512
щении 31511
мел@@ 31508
раско@@ 31483
полиции 31475
Луч@@ 31472
Михаила 31472
деньги 31460
царя 31459
руководство 31451
Остро@@ 31449
ровая 31440
эпохи 31439
Дом 31435
усили@@ 31434
мастер 31431
наме@@ 31427
шена 31404
экономи@@ 31404
голосов 31402
сть@@ 31399
Карла 31392
десяти@@ 31392
ходу 31378
атой 31373
Следу@@ 31365
сад@@ 31361
сериал 31361
ковая 31353
51 31352
принадлежит 31351
Сло@@ 31334
далее 31324
владель@@ 31322
ительные 31315
вшее 31311
единственный 31310
память 31308
Уже 31286
Рим@@ 31284
поселе@@ 31278
лять 31273
бай@@ 31267
пуска@@ 31267
вай@@ 31261
предостав@@ 31256
экспеди@@ 31253
хле@@ 31246
чь@@ 31245
политический 31211
отлич@@ 31207
кость 31201
связано 31194
восстания 31188
вел 31185
вском 31179
грузо@@ 31158
бомбарди@@ 31157
тивный 31152
финанси@@ 31148
продолжал 31143
пут@@ 31135
латин@@ 31131
шением 31123
расстре@@ 31121
Ско@@ 31115
тский 31114
Ала@@ 31112
секре@@ 31109
лое 31105
Совет 31099
ближай@@ 31098
пото@@ 31094
бир@@ 31088
Перед 31085
Греции 31083
комплекса 31078
гор 31067
отправи@@ 31066
успех 31065
t 31064
оцени@@ 31061
писате@@ 31060
майор 31051
вся@@ 31039
жесто@@ 31038
Бого@@ 31034
имен@@ 31031
Соедин@@ 31023
традиции 31019
крепости 31014
регион 31009
научной 30998
основана 30992
Швеции 30989
ённом 30987
тически 30982
сом@@ 30966
Труда 30953
риа@@ 30931
1897 30925
государственных 30924
онов 30923
срок 30914
вера 30911
Ур@@ 30909
Ивана 30904
Камен@@ 30898
специали@@ 30893
болез@@ 30884
контроли@@ 30881
Кат@@ 30876
ент 30863
пита@@ 30858
мун@@ 30847
ставляет 30846
йна 30845
исключением 30841
мас@@ 30832
рал@@ 30822
учи@@ 30809
пись 30801
архитектур@@ 30799
сные 30789
составила 30776
основал 30768
произве@@ 30760
on 30751
Сол@@ 30749
статьи 30748
служ@@ 30746
музе@@ 30743
Сын 30715
журнале 30704
ьер@@ 30704
средневе@@ 30698
нный 30694
Тал@@ 30692
обре@@ 30690
связан@@ 30688
сборная 30684
представлены 30675
романа 30665
тренера 30656
собы@@ 30655
технологии 30654
строения 30650
дения 30647
литературе 30640
Джей@@ 30631
говой 30626
доби@@ 30615
известны 30613
Выс@@ 30608
республикан@@ 30605
захват@@ 30593
погиб 30572
пози@@ 30571
Пара@@ 30569
лод@@ 30569
обслужи@@ 30548
N 30540
арестован 30540
наход@@ 30540
природы 30536
возраста 30527
вариант 30520
скорость 30520
дар 30519
хозяйств 30515
Первым 30510
Совет@@ 30500
принять 30494
выступает 30489
чку 30474
Сент 30468
судов 30463
взгля@@ 30458
Награды 30444
Украина 30440
норма@@ 30427
шается 30424
Север@@ 30418
дел@@ 30413
перево@@ 30409
Жан 30397
дной 30393
Уол@@ 30390
замок 30385
моги@@ 30385
дене@@ 30375
сена 30370
дорож@@ 30364
ника@@ 30362
рекор@@ 30345
описание 30342
лон 30335
пользу 30335
лера 30331
присоедини@@ 30326
портре@@ 30322
Ря@@ 30317
кампании 30310
бор 30307
сай@@ 30305
Покров@@ 30293
Интер@@ 30285
тан 30284
Зем@@ 30282
йт 30265
штур@@ 30261
чет@@ 30255
паль@@ 30254
Лен@@ 30253
табли@@ 30252
татар@@ 30248
философ@@ 30244
квадра@@ 30233
раунде 30221
транспорта 30213
жерт@@ 30202
чая 30200
известного 30198
парти@@ 30194
бурга 30191
Кё@@ 30184
сериале 30183
домо@@ 30175
Всемир@@ 30170
колхо@@ 30169
перемен@@ 30168
мина@@ 30154
форма 30151
Джеймс 30147
слав 30140
дебю@@ 30139
офицеров 30135
элементов 30119
десан@@ 30114
свер@@ 30111
лес 30108
Миро@@ 30089
бель 30087
вив 30086
бург 30075
изма 30071
Русской 30068
провед@@ 30067
середины 30055
английский 30042
объединения 30017
стрелкового 30017
муниципальное 30013
щика 30000
уника@@ 29987
Ката@@ 29986
емым 29981
Ас@@ 29977
щем 29972
Национальной 29965
стин@@ 29964
какой 29963
династии 29962
никах 29956
юг 29956
120 29950
экспедиции 29950
Шан@@ 29929
получает 29924
чемпион@@ 29918
фар@@ 29907
Большинство 29905
аресто@@ 29896
младший 29896
иска@@ 29893
силами 29890
тыми 29888
измен@@ 29887
канале 29886
Ярослав@@ 29879
особенности 29857
компаний 29854
Более 29850
вероя@@ 29848
студентов 29844
обязанности 29833
организа@@ 29832
рос@@ 29831
предприятий 29830
ракет@@ 29826
Китая 29822
цком 29818
болезни 29812
ностями 29805
тка 29803
ъ 29801
крупнейших 29799
Известные 29797
сцене 29796
Куль@@ 29794
немецких 29789
плен@@ 29785
отсут@@ 29783
Уильям 29775
администрации 29775
дей 29773
сно@@ 29770
гражданской 29766
авиации 29758
российской 29746
бума@@ 29742
дила 29742
Церковь 29734
разные 29732
мяг@@ 29727
официаль@@ 29726
воспомина@@ 29719
ждений 29710
дет 29709
отече@@ 29704
йти 29694
образова@@ 29657
обнов@@ 29655
всему 29641
зывал 29641
посвя@@ 29637
2,@@ 29631
радио 29620
54 29619
соору@@ 29618
скон@@ 29617
Ау@@ 29609
предваритель@@ 29603
Нов@@ 29602
Венгрии 29598
ленд 29598
греб@@ 29596
собора 29596
Том@@ 29595
звезды 29581
ответ 29577
сих 29575
направления 29570
близ 29568
Владимирович 29566
отношение 29555
сексу@@ 29552
бер 29550
Советской 29547
созыва 29543
свыше 29541
две@@ 29539
руководитель 29538
последних 29532
дных 29530
избиратель@@ 29530
c@@ 29525
49 29514
щими 29508
сный 29504
ительное 29487
полковник 29485
Крас@@ 29475
мульт@@ 29473
Хер@@ 29469
ловский 29452
экспери@@ 29451
знач@@ 29450
дево@@ 29444
довой 29439
Вто@@ 29432
Америке 29422
Поскольку 29420
входили 29416
игрока 29413
тари@@ 29409
Именно 29400
считает 29400
фронте 29390
завод@@ 29387
православной 29371
князь 29365
долго@@ 29363
жан 29363
Кубке 29360
участием 29360
послед@@ 29358
Вал@@ 29347
1890 29345
сили 29344
наде@@ 29343
голу@@ 29328
Кали@@ 29326
сочи@@ 29318
зой 29311
формирования 29303
Сибир@@ 29302
мино@@ 29302
дипломати@@ 29301
произведён 29297
преподавал 29287
турой 29283
58 29282
переименован 29281
услови@@ 29281
программе 29272
лёг@@ 29270
супру@@ 29263
птиц 29262
Сво@@ 29259
циям 29255
причи@@ 29254
посёлке 29240
бурге 29233
наци@@ 29233
наряду 29231
стрель@@ 29226
появляется 29220
щ 29210
получив 29208
шему 29198
основным 29193
конститу@@ 29192
серия 29192
Социалистического 29186
измене@@ 29185
начина@@ 29181
ств@@ 29181
деву@@ 29178
составля@@ 29176
руководил 29172
тело 29172
специальности 29167
носи@@ 29166
n 29161
достижения 29153
нынеш@@ 29145
элементы 29136
Од@@ 29123
любо@@ 29123
ментом 29107
скри@@ 29106
посла@@ 29067
вам 29064
СМИ 29052
E 29040
плен 29037
РАН 29035
музыку 29032
уров@@ 29025
гов@@ 29024
Стре@@ 29022
× 29017
чин 29015
мне 29013
опер@@ 29013
месторо@@ 29004
полице@@ 28991
усадь@@ 28985
надцать 28982
ремон@@ 28982
командовал 28977
юри@@ 28975
пункта 28966
мост 28964
600 28962
следовате@@ 28950
здании 28949
главы 28947
произведе@@ 28945
Анатолий 28936
мель@@ 28925
Кир@@ 28920
депутатом 28917
венгер@@ 28914
Пла@@ 28910
чом 28899
Основ@@ 28897
фри@@ 28895
тат@@ 28887
льник 28876
земе@@ 28870
Новосибир@@ 28868
писателей 28857
Ль@@ 28855
Игорь 28854
ала 28849
собрания 28846
следование 28843
Тра@@ 28808
установлен 28808
Со 28794
роваться 28789
пусти@@ 28788
статей 28787
вооруж@@ 28769
Гру@@ 28767
первоначально 28767
ступили 28763
известным 28761
Париж 28758
взял 28752
хозяйство 28737
Первое 28732
Records 28717
психо@@ 28715
G 28713
шер@@ 28711
20@@ 28708
Смолен@@ 28696
трак@@ 28693
дове@@ 28691
этно@@ 28689
зав@@ 28684
композиции 28666
опа@@ 28664
ктора 28662
координа@@ 28655
O 28640
дие 28640
существования 28639
располо@@ 28635
ствовать 28634
опубликовал 28631
представлен 28623
Народ@@ 28617
осна@@ 28614
Ран@@ 28595
дни 28592
ствием 28590
морских 28579
утра@@ 28576
мова 28564
неза@@ 28557
Франция 28548
оборудо@@ 28547
дзе 28541
городом 28538
мень@@ 28526
природ@@ 28526
даёт 28519
копи@@ 28515
Почтовый 28509
Австрии 28507
э. 28496
Средне@@ 28487
вец 28487
Хор@@ 28484
ланд 28481
Атлан@@ 28471
1903 28457
стви@@ 28455
Сара@@ 28453
синг@@ 28452
станов@@ 28450
самолётов 28447
поэт 28442
Сталин@@ 28428
крупные 28424
ари 28422
чиком 28422
многочисленные 28418
училища 28415
соревнований 28413
сон@@ 28408
XV 28401
дт 28400
прибыл 28395
юноше@@ 28395
объясня@@ 28392
колле@@ 28387
европейских 28375
должно 28371
телевизион@@ 28364
Географическое 28361
номер 28358
раскры@@ 28358
мани@@ 28356
вшаяся 28353
53 28346
56 28332
состоялось 28328
тт 28328
Бон@@ 28326
Нача@@ 28326
мини 28296
наступление 28296
фильмах 28281
наро@@ 28278
исключительно 28272
устройства 28269
времён 28265
двое 28262
гран@@ 28260
знак 28257
Ван@@ 28249
худож@@ 28239
сформи@@ 28230
звёз@@ 28229
казать 28226
Союз 28223
1902 28216
СП@@ 28211
десяти 28206
эти@@ 28205
зая@@ 28187
ительным 28182
выступления 28181
Юго 28180
Кос@@ 28170
проекту 28168
шоссе 28166
гин 28163
хозя@@ 28162
втор@@ 28160
подвер@@ 28159
вернуться 28157
освя@@ 28156
вступ@@ 28150
похоронен 28149
проце@@ 28149
спек@@ 28144
Георги@@ 28143
d@@ 28141
зона 28136
руд@@ 28134
назначения 28133
Теат@@ 28132
дисципли@@ 28128
вес@@ 28126
образу@@ 28119
нями 28118
считал 28114
писателя 28105
Сал@@ 28093
2,5 28092
конец 28091
строй 28082
ленного 28080
поддержке 28080
уру 28070
жная 28054
жид@@ 28050
сайте 28049
езда 28039
евича 28027
единственным 28006
ссу 28006
ятся 27998
инженер@@ 27996
U@@ 27983
Участвовал 27981
НИ@@ 27979
остальные 27979
Гоме@@ 27976
лыми 27974
половины 27974
Азербайджана 27970
районах 27967
французского 27962
Турции 27957
дской 27946
Земли 27941
Пру@@ 27939
тными 27939
завое@@ 27938
американских 27936
женой 27936
прошла 27933
карьере 27914
академиче@@ 27911
Ир@@ 27908
приняла 27906
Иса@@ 27900
b@@ 27899
кир@@ 27898
жал 27895
Инди@@ 27893
комна@@ 27893
Генри 27891
Анато@@ 27886
Доро@@ 27886
Брай@@ 27877
евка 27865
хана 27862
Хэ@@ 27858
лез@@ 27834
тился 27833
литов@@ 27831
существу@@ 27829
контро@@ 27823
граждан 27817
Одес@@ 27810
нал 27810
текст 27794
старто@@ 27792
населе@@ 27787
пусты@@ 27785
попро@@ 27782
дут 27768
живописи 27764
форм 27752
победил 27751
населённые 27746
выходит 27737
250 27729
лию 27729
57 27727
вест@@ 27726
мэ@@ 27726
отмен@@ 27722
бронзо@@ 27712
делает 27711
эр 27707
воду 27705
Воль@@ 27703
пери@@ 27698
окончательно 27696
функциони@@ 27687
молодых 27675
летнего 27670
Стро@@ 27660
средняя 27655
Лит@@ 27650
профессором 27649
Германия 27645
инженер 27644
областного 27625
фраг@@ 27625
актри@@ 27624
бом 27613
Сам 27609
Поль@@ 27600
вышед@@ 27593
рованная 27593
ыш@@ 27590
Скончался 27582
ООН 27574
Бори@@ 27570
писи 27563
машин 27553
славян@@ 27549
пользовате@@ 27547
цу@@ 27541
смен@@ 27539
вышли 27532
клады@@ 27523
кров@@ 27521
голь@@ 27517
органи@@ 27515
двину@@ 27514
жать 27508
идеи 27507
используют 27506
разо@@ 27501
тс 27493
кторов 27489
Эл@@ 27474
основные 27469
чами 27466
тивы 27464
случа@@ 27463
числен@@ 27463
месяц 27457
хождения 27457
мнение 27450
клу@@ 27433
Мит@@ 27429
кон 27428
продукции 27419
любой 27418
превы@@ 27396
бат@@ 27394
T 27386
Личная 27383
d 27381
сообща@@ 27367
Мухам@@ 27357
XIV 27356
жизнен@@ 27352
чений 27348
Мир@@ 27347
преподавате@@ 27346
бригада 27342
персонажей 27340
продук@@ 27335
языках 27334
которыми 27327
РККА 27322
производи@@ 27322
дея@@ 27321
Хол@@ 27316
62 27312
надц@@ 27310
прибли@@ 27299
лёт@@ 27297
фикации 27291
Московский 27284
офф 27281
реформы 27271
кас@@ 27265
фоне 27265
вей@@ 27264
жая 27262
чалась 27259
известна 27256
критиков 27251
ВКП 27247
сохраня@@ 27244
моти@@ 27242
недалеко 27241
компью@@ 27235
Джу@@ 27229
ору@@ 27223
успеха 27216
Петербурга 27209
Пале@@ 27205
кня@@ 27204
оставался 27201
ёв 27201
количества 27200
дли@@ 27193
святого 27193
учёный 27193
оператив@@ 27190
прово@@ 27185
брю@@ 27184
обеща@@ 27184
ваний 27178
автора 27176
атель 27174
дора 27174
Средний 27172
третьего 27166
действ@@ 27161
пари@@ 27152
активи@@ 27150
свободы 27146
курсы 27136
зданий 27130
жно 27129
стая 27122
ванные 27114
Финляндии 27110
тель 27106
земель 27104
крайне 27104
P 27097
обу@@ 27089
бом@@ 27087
строй@@ 27079
самолёта 27077
проживали 27075
Сэ@@ 27066
спец@@ 27063
фили@@ 27062
лега@@ 27058
Ер@@ 27054
карте 27045
ционная 27043
нужно 27034
помимо 27030
мышлен@@ 27028
дру@@ 27023
технических 27022
стратеги@@ 27020
Великого 27019
жается 27019
отлича@@ 27019
условия 27017
пытается 27007
механиз@@ 26994
предпринимате@@ 26979
енко 26970
нические 26969
строен@@ 26968
баро@@ 26967
потери 26959
Канады 26958
Центра@@ 26955
удовлетво@@ 26952
Доб@@ 26951
социалистиче@@ 26933
Чтобы 26931
бел@@ 26919
Марк 26904
известные 26902
сок 26901
кови@@ 26900
следующих 26889
зво@@ 26888
вит 26884
процесса 26882
выход@@ 26873
VII 26870
изначально 26862
авторов 26849
имеются 26843
Национального 26838
Коми@@ 26837
кович 26834
герцога 26833
Бак@@ 26832
Гос@@ 26828
нейших 26810
Военно 26807
ленная 26802
тему 26802
раньше 26783
ассоциации 26778
Ана@@ 26772
жский 26771
кции 26764
Болгарии 26757
носите@@ 26756
дные 26754
Мы 26750
сборник 26743
1901 26738
каз 26728
немецкой 26727
Император@@ 26725
масси@@ 26725
бота@@ 26719
сегодня 26719
списке 26717
превос@@ 26716
Другие 26714
Михайлов@@ 26713
биологи@@ 26711
зах 26707
обстоятель@@ 26705
моде@@ 26704
преде@@ 26700
Фрэн@@ 26694
a@@ 26686
показате@@ 26685
жени@@ 26684
двига@@ 26670
край 26669
нного 26663
архите@@ 26656
дета@@ 26655
После@@ 26652
XIII 26651
шал 26649
прису@@ 26626
футбольный 26609
режи@@ 26598
подав@@ 26593
зала 26581
сторон 26577
выиграла 26571
библиотека 26561
циони@@ 26548
иск@@ 26547
тта 26546
гита@@ 26542
находящи@@ 26539
дением 26538
умер@@ 26537
поддержки 26522
звезда 26521
Гам@@ 26520
емое 26520
летия 26520
образовате@@ 26520
Грузии 26512
Кита@@ 26505
принимает 26502
методи@@ 26501
метро@@ 26498
85 26495
интерес 26491
маши@@ 26483
обита@@ 26481
Сим@@ 26474
Одновременно 26472
стам 26464
Гол@@ 26459
кского 26447
вто@@ 26446
Сай@@ 26445
кот@@ 26444
шать 26438
технического 26437
тради@@ 26437
моду@@ 26432
цифро@@ 26429
Ирландии 26425
тивных 26424
Оста@@ 26421
b 26419
закон 26419
институ@@ 26418
мит@@ 26416
наси@@ 26416
избира@@ 26410
замени@@ 26405
бира@@ 26402
ловского 26400
армией 26398
Центр 26393
зон@@ 26393
Сю@@ 26392
Юж@@ 26392
вес 26386
преем@@ 26385
Григорий 26384
Томас 26384
музее 26381
части@@ 26373
Йорке 26372
тую 26372
тей 26367
конкре@@ 26363
перио@@ 26362
вследствие 26360
культуре 26360
освобождения 26356
скор@@ 26336
химии 26333
Архи@@ 26332
Общая 26322
впадения 26320
звуча@@ 26320
to 26319
судо@@ 26315
составляют 26308
содерж@@ 26306
Вале@@ 26303
потребо@@ 26303
резко 26303
Вой@@ 26301
бюро 26298
Француз@@ 26294
форд 26292
могла 26291
убийства 26287
историк 26285
конкурен@@ 26284
Ву@@ 26266
щую 26265
Сити 26259
хотел 26257
чате@@ 26255
номером 26254
лечения 26252
рал 26252
Телефонный 26248
фестивале 26241
мя 26231
сет@@ 26225
советского 26222
письмен@@ 26218
визи@@ 26216
Росси@@ 26204
але 26195
чал 26192
выве@@ 26190
фер 26190
ансамб@@ 26184
большеви@@ 26181
графия 26181
кратный 26171
цели 26169
располага@@ 26168
менте 26157
Доне@@ 26153
авиацион@@ 26152
мени@@ 26146
численности 26146
Обла@@ 26143
разработки 26141
жён 26134
XII 26133
чле@@ 26131
декора@@ 26130
отличается 26130
сделан@@ 26130
Всероссийской 26129
Тех@@ 26124
йной 26116
ума 26111
Бель@@ 26108
гет@@ 26098
проходили 26093
участвовала 26091
Георгий 26090
конструкции 26083
рам@@ 26074
поддерж@@ 26072
жар@@ 26071
800 26065
топо@@ 26051
стиль 26041
зор@@ 26037
рых 26034
периоди@@ 26018
ённую 26016
выдели@@ 26015
учен@@ 26015
дате@@ 26014
немного 26012
света 26002
сфере 26001
тение 25999
полковника 25997
зова 25987
выстав@@ 25980
азербайджан@@ 25979
йскую 25975
играет 25974
льт@@ 25972
12@@ 25969
ваясь 25967
последней 25950
отсутствие 25943
удосто@@ 25942
дистанции 25933
Боб@@ 25926
независимости 25921
позицию 25921
Макси@@ 25915
пассажир@@ 25910
выборы 25904
делам 25901
вах 25899
попытки 25895
немецкого 25893
эксперимента@@ 25893
использованием 25892
Красного 25886
Аре@@ 25881
воде 25881
рит 25879
Древ@@ 25871
супер@@ 25868
рост 25865
первонача@@ 25863
Центральной 25858
возле 25852
Пло@@ 25851
тел 25848
проходи@@ 25833
совершенно 25830
своем 25827
достига@@ 25817
ступает 25817
мину@@ 25811
возра@@ 25808
никова 25792
женат 25772
лэ@@ 25772
торговли 25771
видео@@ 25770
улиц 25767
начались 25760
кинемато@@ 25753
национальных 25743
общ@@ 25738
фу 25735
Церкви 25734
Ст@@ 25727
вшими 25727
Краснояр@@ 25724
гей@@ 25718
Пит@@ 25709
являлась 25705
скорости 25701
редко 25699
приё@@ 25692
активных 25691
боевой 25690
поражения 25681
тик 25675
лев 25669
95 25668
фан@@ 25668
мар 25667
открытия 25666
сложности 25664
Главный 25658
руя 25638
мую 25637
оказались 25637
позволило 25632
Бей@@ 25631
мате@@ 25626
вных 25624
эпизо@@ 25623
холодного 25622
свето@@ 25608
нач@@ 25605
корен@@ 25603
присоединился 25603
контак@@ 25593
африкан@@ 25579
лил 25578
рес 25573
бин 25563
яд@@ 25563
выдвину@@ 25560
идёт 25556
тысячи 25556
выпуска 25544
летней 25531
прогре@@ 25530
тропи@@ 25530
откуда 25526
устья 25526
ыр@@ 25519
Тю@@ 25516
восста@@ 25515
набра@@ 25512
ведение 25505
гате@@ 25502
Нью@@ 25501
чать 25499
Армении 25492
коммунистиче@@ 25489
дий 25486
кост@@ 25486
районы 25483
городских 25481
размер 25480
уса 25475
применения 25473
команди@@ 25462
рея 25461
удоб@@ 25460
дение 25459
огонь 25457
Киев@@ 25456
като@@ 25456
градской 25453
чества 25445
век 25439
сама 25436
сверх@@ 25425
выбо@@ 25421
чине 25417
индей@@ 25414
этап 25414
Святой 25406
артилле@@ 25406
гун@@ 25405
зор 25404
тическое 25398
польской 25387
бит 25374
материалы 25373
национальный 25372
довал 25369
нк@@ 25369
кандидат@@ 25368
границе 25367
ци 25365
физики 25363
ранен 25355
вторая 25347
мора@@ 25347
новича 25347
Ленинград@@ 25343
30@@ 25339
проектов 25335
научный 25331
владения 25326
дина 25326
рийской 25323
фестиваля 25303
упомяну@@ 25288
струк@@ 25282
лился 25279
нис 25279
женщи@@ 25275
заболе@@ 25272
объя@@ 25269
основу 25262
звез@@ 25254
двигате@@ 25253
двора 25253
Объ@@ 25247
писала 25245
деление 25244
76 25238
рассмотре@@ 25235
Круп@@ 25221
1896 25215
вось@@ 25215
глава 25212
ологи@@ 25210
марки 25208
составлял 25205
сыновей 25203
жало@@ 25194
шку 25192
сел@@ 25190
обоих 25186
государство 25184
письмо 25184
e 25181
ул@@ 25179
1880 25177
партизан@@ 25177
крестьян 25162
Али 25161
ступила 25158
ежегод@@ 25145
ностях 25138
приходится 25138
поддержа@@ 25136
типи@@ 25133
Обще@@ 25131
ющем 25129
результатом 25113
считают 25110
кантона 25101
награды 25099
смерть 25098
U 25093
металличе@@ 25091
непосред@@ 25084
Гей@@ 25083
джи 25083
сер 25082
существова@@ 25081
вёр@@ 25072
вен 25071
действует 25067
комитет 25066
ёс 25064
логия 25061
g@@ 25060
мусульман@@ 25060
банка 25058
ническое 25056
вне 25052
um 25049
ВС 25049
оружие 25043
Серге@@ 25029
газете 25029
берга 25020
фабри@@ 25017
нё@@ 25013
Иркут@@ 25011
министром 25011
Ио@@ 25000
реализо@@ 24995
Ада@@ 24993
K 24992
Город@@ 24992
восемь 24989
реи 24976
Зак@@ 24974
захва@@ 24971
представляют 24970
бки 24968
французской 24962
Россию 24959
Оли@@ 24958
Спор@@ 24952
ограничен@@ 24950
72 24948
смы@@ 24946
человеком 24946
после@@ 24938
1899 24937
метод 24933
ните@@ 24933
инстру@@ 24916
практи@@ 24916
Бере@@ 24915
источников 24914
говорил 24911
вопросы 24899
зим@@ 24898
женщина 24892
такими 24889
1898 24887
озна@@ 24878
присоеди@@ 24875
оте@@ 24869
стя@@ 24867
Тихо@@ 24858
пограни@@ 24858
ай@@ 24852
активности 24847
Песня 24843
старшего 24838
o 24834
речной 24832
флот 24822
атого 24820
нг 24819
жали 24809
обладает 24809
открыта 24792
мили@@ 24782
кирпи@@ 24780
Между 24778
указыва@@ 24777
работой 24773
зрителей 24761
мело@@ 24754
ведом@@ 24749
обшир@@ 24740
ключе@@ 24737
цеп@@ 24728
оформ@@ 24727
использовались 24726
народных 24725
Оде@@ 24716
призван 24712
Сла@@ 24706
поводу 24704
ствовала 24702
самолёт 24698
сного 24697
зь 24679
обеспе@@ 24678
оставши@@ 24666
Алексеевич 24665
аген@@ 24665
пары 24663
лева 24658
Генера@@ 24652
менед@@ 24651
губернатора 24650
Фёдорович 24646
ствам 24639
существование 24637
Ок@@ 24629
Соб@@ 24627
оставил 24627
веще@@ 24624
зер 24610
ситуации 24609
сход@@ 24605
пки 24600
ежегодно 24587
медалью 24586
программа 24585
Воронеж@@ 24581
конгре@@ 24580
Кири@@ 24577
подразде@@ 24577
Абсолютная 24572
окон@@ 24572
высотой 24569
водит 24563
звёзд 24558
тремя 24558
Расположена 24556
подверга@@ 24554
бек 24542
военную 24532
влиянием 24529
среды 24529
груз@@ 24524
Ленин@@ 24523
побережье 24523
ителям 24519
гастро@@ 24517
предприятие 24516
фил@@ 24516
израи@@ 24515
кад@@ 24514
Клубная 24511
убит 24511
чеш@@ 24506
доказате@@ 24505
Северная 24502
использует 24501
использовал 24498
мс 24498
Супер@@ 24495
вообще 24492
срав@@ 24490
простран@@ 24488
кафедрой 24487
виду 24480
Жа@@ 24479
дский 24478
каж@@ 24478
носители 24478
поля@@ 24472
указан@@ 24467
Государственного 24461
рее 24460
рисо@@ 24440
Москов@@ 24431
Ян 24428
чинов@@ 24424
статье 24418
ьев 24409
Доктор 24407
изображения 24407
опере@@ 24405
f@@ 24399
веща@@ 24398
Гран 24393
другого 24389
реч@@ 24389
брон@@ 24385
отметил 24372
изучения 24365
лейб@@ 24364
чемпиона 24364
железнодорожной 24354
выступать 24352
допол@@ 24351
ляли 24340
известность 24331
нях 24331
девя@@ 24328
задачи 24328
1870 24324
средне@@ 24324
Елена 24321
Анти@@ 24319
прак@@ 24319
состояния 24319
Лиги 24312
стки 24311
ворот 24306
лово 24301
лока@@ 24301
ске@@ 24297
ющейся 24296
Мель@@ 24295
Распространение 24293
руководителем 24293
1860 24290
консу@@ 24289
способности 24285
исход@@ 24282
вино@@ 24280
исчез@@ 24280
маном 24278
четырёх@@ 24276
КП 24268
ие@@ 24263
нефте@@ 24263
смогли 24263
старшим 24259
сю@@ 24257
причинам 24255
ящи@@ 24254
нёс 24251
тию 24249
доход 24248
Ад@@ 24241
станций 24240
йо@@ 24236
социальной 24230
яви@@ 24227
дата 24220
причине 24219
препят@@ 24217
ственными 24215
север 24212
альная 24204
призва@@ 24201
Золо@@ 24200
трас@@ 24200
предприя@@ 24199
представлена 24197
такое 24195
пластин@@ 24193
рас 24172
ряде 24169
бук@@ 24160
бами 24157
оне 24146
Джордж 24144
назы@@ 24139
плей 24136
нью 24135
лучше 24131
плане 24130
потенци@@ 24126
Пат@@ 24125
Состав 24122
рый 24121
строе@@ 24120
творчества 24112
годами 24103
Транспорт 24100
командование 24096
ас 24092
ито@@ 24085
Швейцарии 24080
стены 24080
временно 24079
службе 24078
Окон@@ 24073
оказалась 24072
аре 24066
лиш@@ 24066
общественной 24061
договор 24055
представитель 24051
серий@@ 24051
устройство 24051
наследия 24045
нарко@@ 24038
дала 24037
явление 24036
любви 24034
вит@@ 24033
духо@@ 24031
1895 24030
is 24029
преду@@ 24029
л. 24024
покуп@@ 24024
португа@@ 24023
тивной 24020
сумел 24005
дорог 24004
капитана 24001
хин@@ 24001
ровской 23999
ительная 23997
тских 23997
счё@@ 23994
ванного 23993
причиной 23991
схо@@ 23988
гек@@ 23960
Константино@@ 23958
партию 23956
сюда 23952
процессо@@ 23950
тения 23949
фай@@ 23942
скорее 23934
гости@@ 23929
угле@@ 23919
участвовали 23917
вариан@@ 23914
необходимости 23895
класс 23894
63 23887
столицы 23885
фф 23878
тились 23877
зин 23876
программ 23874
арх@@ 23873
верхней 23872
переехала 23867
академию 23862
целе@@ 23862
Бир@@ 23859
специально 23858
Священ@@ 23857
Орга@@ 23854
лучший 23850
Альбом 23843
оборудования 23843
шё@@ 23843
домашних 23839
садо@@ 23838
собо@@ 23833
ходи@@ 23827
жёст@@ 23826
годам 23820
Желез@@ 23817
отстав@@ 23816
остаётся 23806
надцати 23803
баталь@@ 23798
пола 23788
нные 23781
охраны 23780
большинства 23777
крови 23771
собран@@ 23771
атами 23766
манд@@ 23764
Большого 23760
цик@@ 23756
ьо@@ 23756
зация 23752
распространение 23752
Прав@@ 23742
Вит@@ 23740
легко 23739
австрали@@ 23736
Мей@@ 23734
случаев 23734
щина 23733
принце@@ 23714
сках 23709
гар 23706
базы 23704
офи@@ 23704
участии 23702
бассейновому 23698
ужа@@ 23698
гон 23695
сценари@@ 23693
дере@@ 23692
расположенный 23691
вблизи 23675
сообщения 23674
отношению 23673
необы@@ 23670
епископа 23669
товых 23669
Цар@@ 23661
орке@@ 23661
водой 23660
жден 23646
ино@@ 23646
командующего 23642
апосто@@ 23641
дор 23637
руб@@ 23636
черно@@ 23634
гимназии 23633
обратно 23632
разнообраз@@ 23632
племян@@ 23625
Джор@@ 23617
Обо@@ 23617
третьей 23608
множе@@ 23603
одина@@ 23602
номе@@ 23592
вед 23587
аты 23582
Институт 23572
чемпионов 23568
рекорд 23567
лик 23561
лян 23561
Киеве 23557
гая 23557
программу 23556
воспита@@ 23554
59 23549
Роди@@ 23548
болгар@@ 23547
всеми 23547
аэропорт 23540
щиком 23540
Соло@@ 23539
одному 23539
встречи 23537
парламента 23526
Уил@@ 23525
плана 23525
Челябин@@ 23518
одноим@@ 23518
теря@@ 23503
подряд 23501
материаль@@ 23494
шь 23493
торже@@ 23492
дная 23487
стихи 23486
технологий 23486
деятельностью 23481
дипло@@ 23478
остат@@ 23474
волость 23473
школ 23471
собор 23469
моз@@ 23467
включён 23466
очеред@@ 23466
Киев 23465
неделю 23461
обнаружи@@ 23448
пто@@ 23446
дова 23439
следовал 23438
качества 23437
рец 23434
коммуника@@ 23427
рассказывает 23426
зре@@ 23425
медицин@@ 23425
Сою@@ 23423
сел 23423
риаль@@ 23420
Израиля 23412
поступ@@ 23412
Фар@@ 23406
развитию 23400
тивные 23400
сным 23398
столкнове@@ 23390
акти@@ 23389
Луи 23388
регулярно 23380
щением 23379
Юр@@ 23374
катастро@@ 23369
роты 23369
консуль@@ 23367
преобразо@@ 23367
населённый 23360
братом 23351
Начиная 23350
годо@@ 23346
разве@@ 23343
зки 23333
ина 23329
языки 23329
джа 23328
муниципальных 23328
посад@@ 23316
лам@@ 23314
туда 23312
Жен@@ 23306
женные 23300
воспит@@ 23299
дивизиона 23299
предложение 23296
Ван 23295
применение 23295
Президента 23291
мона 23288
бокс@@ 23286
отдельные 23278
даны 23276
заслуги 23276
Бос@@ 23272
падает 23272
стадии 23271
скре@@ 23269
семи 23267
нане@@ 23259
зато@@ 23257
ствования 23255
атмосфер@@ 23254
заведующий 23252
Кин@@ 23250
шала 23250
зная 23247
рыва 23238
ждены 23236
инициативе 23231
герба 23230
выпустил 23228
Петр 23223
конкурса 23220
местной 23208
надеж@@ 23202
артиллерии 23197
ват 23196
византи@@ 23194
леген@@ 23192
классов 23190
61 23189
Было 23169
чия 23168
постройки 23163
оном 23159
Дэвид 23155
достигну@@ 23151
призёром 23148
начался 23147
очи@@ 23145
будущего 23137
трех 23135
контроля 23130
американская 23129
красно@@ 23114
недели 23114
крепость 23111
являлись 23107
творче@@ 23102
фикация 23100
Ат@@ 23097
героя 23090
Шах@@ 23087
очер@@ 23087
ждён 23079
рь@@ 23071
ГУ 23070
мет 23069
создате@@ 23069
экс@@ 23059
посел@@ 23057
друз@@ 23050
реше@@ 23046
район@@ 23045
сотрудников 23042
ступил 23042
сим@@ 23038
писа@@ 23037
СС 23034
автомобилей 23033
сестра 23033
информацию 23031
особо@@ 23024
сколько 23024
ходила 23024
Мака@@ 23013
Африки 23005
пой@@ 23003
офицер@@ 23002
фотографи@@ 22995
сообщил 22992
голланд@@ 22990
картина 22986
ано@@ 22976
1859 22965
Китае 22965
Фёдор 22958
музыкальных 22958
удо@@ 22958
тельных 22957
вертика@@ 22956
Польше 22955
ОАО 22951
ждает 22951
Дра@@ 22950
появ@@ 22941
поезда 22940
слуш@@ 22929
учебных 22927
мно@@ 22921
слов@@ 22921
Чемпи@@ 22917
зало@@ 22917
опыт 22917
берта 22909
осуществляется 22909
прия@@ 22907
Международ@@ 22905
переведён 22899
лови@@ 22895
Анны 22888
неактивными 22883
повто@@ 22879
вызыва@@ 22877
серию 22877
завершения 22876
мат 22871
Специ@@ 22868
порядке 22867
выступала 22862
кко 22861
высшего 22860
муниципалитет 22854
братьев 22849
рена 22847
многочисленных 22846
сообщение 22841
ктор 22840
пони@@ 22838
предо@@ 22838
различ@@ 22838
гает 22836
чке 22832
Олег 22824
Росто@@ 22820
минера@@ 22816
Британ@@ 22814
противополож@@ 22813
бух@@ 22808
рато@@ 22806
ительности 22799
батальон 22793
йных 22789
печата@@ 22786
информация 22776
враже@@ 22772
чаются 22772
# 22768
обли@@ 22768
NGC 22765
изме@@ 22765
объявлено 22764
рово 22763
побережья 22762
местом 22761
решили 22758
разгро@@ 22757
сосе@@ 22757
Сту@@ 22756
Сергеевич 22754
товарище@@ 22753
повстан@@ 22748
юн@@ 22748
Иванов@@ 22745
68 22743
полез@@ 22743
футбо@@ 22743
годом 22731
Рома@@ 22728
град 22722
единица 22722
академи@@ 22711
памятника 22709
Без@@ 22706
площад@@ 22706
наконец 22705
энерги@@ 22705
шт@@ 22704
исследова@@ 22700
ань 22699
обе 22697
тность 22697
сотрудник 22696
VIII 22695
иллю@@ 22689
кской 22689
поте@@ 22688
компа@@ 22685
сбо@@ 22685
тёплого 22684
герой 22682
днего 22674
ила 22666
Калу@@ 22663
пля@@ 22663
отцом 22662
выигра@@ 22660
суд@@ 22653
иденти@@ 22652
йного 22647
среднего 22647
вдо@@ 22634
скан@@ 22633
доров@@ 22630
МГУ 22627
Крым 22626
тена 22618
погибли 22611
Музей 22610
пытался 22609
известной 22604
оккупи@@ 22604
откло@@ 22603
пой 22602
1892 22599
пев@@ 22597
оценки 22594
террито@@ 22593
русская 22585
выйти 22582
редактор 22580
водохозяйственный 22578
берт 22577
ост@@ 22571
продуктов 22563
Теле@@ 22561
рыв 22561
Бала@@ 22557
67 22556
гай@@ 22555
ок 22552
выраз@@ 22550
прямо 22549
изуча@@ 22548
дека@@ 22547
Риме 22544
хин 22544
ровна 22543
вис 22539
листов 22537
Калинин@@ 22531
упраздн@@ 22530
нима@@ 22529
румы@@ 22528
стый 22526
закона 22525
символ 22525
сх@@ 22524
любов@@ 22522
Уилья@@ 22518
летов 22518
свойства 22510
признан 22505
украинский 22498
дворе 22497
новил 22495
Спа@@ 22491
тоне 22490
66 22483
соглашение 22482
выпадает 22481
цин@@ 22480
факт 22479
деб@@ 22475
принимать 22475
показал 22468
Оле@@ 22467
гно@@ 22464
Около 22463
редактором 22463
числе@@ 22463
заслу@@ 22460
стра 22459
стах 22453
Ш 22446
Шо@@ 22444
атая 22440
спас@@ 22440
комисса@@ 22435
УССР 22434
рока 22429
ушёл 22424
Кузне@@ 22421
психологи@@ 22420
сены 22412
Одним 22403
Последний 22402
див 22402
дера 22398
орудия 22398
будди@@ 22394
гиган@@ 22389
Роман 22388
блоки@@ 22386
лесов 22384
льством 22383
последнее 22375
ждено 22373
исполните@@ 22371
гель@@ 22361
Улица 22360
чались 22352
уна@@ 22350
вь 22340
ристи@@ 22339
моста 22335
строительстве 22329
брак 22325
воен@@ 22325
ена 22325
выступлений 22322
выгля@@ 22320
рассчит@@ 22315
фигу@@ 22310
лис 22307
новом 22306
объект 22304
Была 22303
зали@@ 22303
модер@@ 22299
брака 22298
лизи@@ 22298
кари@@ 22295
функ@@ 22295
зад@@ 22292
подразделения 22289
битвы 22281
Берлине 22280
шев 22276
фф@@ 22274
библиотеки 22267
достиг 22267
проходят 22264
слова@@ 22264
Образование 22263
Только 22259
крейсе@@ 22257
хова 22256
Дмитри@@ 22250
оперы 22248
ровании 22244
английского 22243
служа@@ 22241
домой 22236
New 22231
Латвии 22230
хор@@ 22230
чит 22229
выпустила 22227
ровалась 22224
присво@@ 22217
фт 22215
царь 22210
посту 22208
Послед@@ 22207
ллы 22207
ура 22199
Коман@@ 22195
стреми@@ 22194
Вален@@ 22190
Существует 22187
водства 22185
опе@@ 22185
ровались 22184
дуб@@ 22179
наблюда@@ 22178
оцен@@ 22177
дению 22168
ната 22168
жив 22167
фов 22165
et 22163
осве@@ 22161
чим 22160
тал 22159
низма 22150
рит@@ 22145
берега 22144
орудий 22143
жел@@ 22139
основ@@ 22131
объедин@@ 22124
Вторая 22116
рующих 22116
мужа 22115
вся 22114
рито@@ 22114
жки 22111
Сви@@ 22108
динами@@ 22101
миллиона 22099
командования 22084
тери@@ 22081
инвести@@ 22076
лс 22062
пел 22061
форму@@ 22061
аку@@ 22052
жным 22052
краси@@ 22049
ФК 22045
либера@@ 22044
били 22036
достав@@ 22029
стили 22025
розыгры@@ 22024
впа@@ 22023
общественного 22021
шай@@ 22015
9,@@ 22014
Всесоюз@@ 22012
лест@@ 22011
общественных 22002
НКВД 22001
землю 22001
ориенти@@ 22000
Казахстан 21997
линского 21994
стой@@ 21993
1885 21992
ловой 21991
Речной 21982
демонстри@@ 21977
пришёл 21973
охран@@ 21972
созданы 21960
обязан@@ 21958
Категория 21956
возвращения 21956
специалистов 21954
s@@ 21950
спорт 21945
Шотландии 21942
заместителя 21942
местные 21941
корре@@ 21935
штейн 21931
дович 21929
зывать 21929
чём 21929
композитор 21928
степен@@ 21924
74 21923
Вил@@ 21919
оли@@ 21918
ждением 21917
функциона@@ 21917
Иоанна 21910
заста@@ 21902
атаки 21898
крестьян@@ 21897
кии 21896
ресурсов 21894
запись 21893
федерации 21889
ренко 21886
ощу@@ 21885
бассей@@ 21881
пара 21874
окружа@@ 21873
00@@ 21871
Истори@@ 21869
первенстве 21867
эм@@ 21867
тр 21863
сой 21859
стым 21859
лика 21858
Яку@@ 21856
газета 21856
музыкальной 21854
связанных 21852
Крыма 21846
дка 21837
ведёт 21835
денег 21826
летняя 21826
700 21825
Побед@@ 21823
действи@@ 21820
приве@@ 21818
прикры@@ 21818
типов 21818
верхов@@ 21815
альбоме 21813
IX 21812
способность 21811
y@@ 21807
соли@@ 21807
деви@@ 21802
образований 21797
Выступал 21785
международной 21785
эволю@@ 21785
сложи@@ 21784
император 21781
ресур@@ 21779
каждом 21778
ющаяся 21765
правил 21762
евро 21754
железнодорожная 21751
выну@@ 21750
проиграл 21749
большинстве 21744
снаря@@ 21741
Китай 21738
стиля 21735
полной 21733
стен 21730
лета@@ 21729
максимум 21726
собрание 21725
наличие 21724
пас@@ 21724
отобра@@ 21711
ряды 21708
стройки 21702
миль 21701
гал 21696
покров@@ 21696
военное 21694
данном 21692
профи@@ 21688
... 21678
группо@@ 21677
аэро@@ 21676
дом@@ 21675
Аль 21662
Бара@@ 21659
матри@@ 21658
уско@@ 21657
шотланд@@ 21652
Часть 21651
Расположен 21650
Але@@ 21649
ситуация 21642
следующего 21641
актёр@@ 21631
снаб@@ 21627
взро@@ 21626
молодой 21615
предотвра@@ 21615
щики 21614
Един@@ 21612
вока@@ 21612
моне@@ 21611
дес 21598
вели 21594
низи@@ 21594
Джер@@ 21593
ллер 21589
сообщества 21585
людьми 21578
подру@@ 21577
верси@@ 21574
рейтин@@ 21571
выста@@ 21568
Billboard 21567
домини@@ 21562
огра@@ 21562
товари@@ 21558
участке 21558
ЭС 21557
безу@@ 21556
головы 21554
рос 21549
недостато@@ 21544
кандидата 21539
Варшав@@ 21535
Изначально 21535
позд@@ 21531
130 21524
костю@@ 21519
полномо@@ 21513
открыл 21512
ари@@ 21511
плений 21510
шко 21509
ствий 21508
1894 21505
замен@@ 21505
рович 21505
рев 21504
Золотой 21503
королём 21503
наград 21496
чёт 21494
Санта 21492
десять 21489
ённость 21488
Литов@@ 21487
анализа 21487
занимается 21486
установки 21484
леги@@ 21483
требу@@ 21478
материа@@ 21475
средний 21475
выход 21472
установлена 21467
k 21465
Так@@ 21459
* 21458
вающих 21456
1889 21453
Глу@@ 21453
пов@@ 21447
проф@@ 21445
радика@@ 21443
гипоте@@ 21442
выстре@@ 21435
щины 21435
независимость 21434
чан 21434
дая 21433
приказ 21422
Португалии 21419
диагно@@ 21416
симфо@@ 21416
роз@@ 21415
империя 21411
Учился 21405
суль@@ 21399
Далее 21398
использовался 21392
мных 21392
ьер 21391
общем 21389
целях 21389
штате 21389
вна 21388
орган 21385
музыкан@@ 21383
колони@@ 21377
посы@@ 21376
Округ 21374
ческому 21374
гора 21372
учеников 21369
режиссёром 21364
подбассейн 21359
1893 21357
лейтенанта 21354
фли@@ 21354
минима@@ 21353
Сино@@ 21348
называли 21347
корей@@ 21346
Сей@@ 21345
социальных 21342
недостат@@ 21337
сток 21323
вати@@ 21322
женный 21317
рат@@ 21313
орденами 21311
Занима@@ 21306
ъя@@ 21306
сами@@ 21300
Иоси@@ 21298
альтерна@@ 21288
поя@@ 21287
Родилась 21286
родной 21274
про 21268
Баку 21266
вило 21264
чемпионатов 21264
учит@@ 21258
изображение 21256
показатель 21255
прин@@ 21251
Майкл 21247
рю 21246
Севасто@@ 21245
обуча@@ 21245
Генрих 21238
решает 21234
мал 21232
дух 21224
связыва@@ 21218
престол 21212
методы 21211
редакции 21211
видом 21204
францу@@ 21204
ибн 21203
кский 21203
реди@@ 21202
сада 21201
ступи@@ 21200
перво@@ 21199
Нового 21194
Пари@@ 21193
пределами 21189
Мюн@@ 21187
примене@@ 21180
припис@@ 21174
достоин@@ 21173
сче@@ 21172
восстание 21171
сыграла 21171
Эстонии 21165
чуть 21164
лона 21163
Св 21159
соединения 21153
отрицате@@ 21150
устрой@@ 21149
сцены 21146
высоких 21143
гола 21143
тивно 21140
любы@@ 21131
поко@@ 21131
танков 21131
1878 21130
1891 21129
стоял 21121
правах 21119
охра@@ 21116
разработке 21111
преми@@ 21099
жают 21098
укреп@@ 21095
изучал 21094
тей@@ 21093
штурмо@@ 21087
весной 21086
перси@@ 21084
преда@@ 21082
изобре@@ 21080
квалифика@@ 21078
пур@@ 21077
закончи@@ 21070
стара@@ 21069
Андреевич 21050
направление 21049
каль@@ 21041
департамента 21038
использовали 21038
метри@@ 21035
интернет 21034
совой 21034
соединение 21031
недель 21016
типо@@ 21014
матчи 21011
отказа@@ 21010
клубов 21009
умерла 21004
входя@@ 20999
ура@@ 20994
World 20993
научного 20982
стан 20977
рака 20973
напомина@@ 20970
полно@@ 20965
провести 20965
переговоры 20963
источ@@ 20959
Устье 20957
живопис@@ 20957
сино@@ 20950
вери@@ 20949
седь@@ 20949
гораздо 20948
счит@@ 20946
возглавля@@ 20944
Дне@@ 20942
ирланд@@ 20939
разу 20937
роста 20937
Государственный 20931
крестьянской 20931
Ё@@ 20930
эпоху 20930
ит 20929
града 20921
участники 20921
безопас@@ 20911
вспомина@@ 20911
сове@@ 20905
алгорит@@ 20894
Законом 20890
лоне 20888
публико@@ 20883
Республике 20874
брази@@ 20870
источниках 20869
соответствует 20864
самые 20861
доста@@ 20854
тическим 20852
музыка 20851
жениях 20850
обладате@@ 20848
памятников 20848
вшем 20846
оказывается 20846
нка 20844
йдя 20843
Абра@@ 20839
часа 20837
ведущих 20835
пище@@ 20832
настолько 20831
ьях 20829
ссу@@ 20828
Даге@@ 20825
номинации 20825
одержал 20825
горя@@ 20818
Славы 20814
насчитывалось 20814
лагерь 20809
Павлович 20808
мся 20806
проя@@ 20802
вернулась 20798
ити 20794
Наи@@ 20790
Саль@@ 20790
каса@@ 20789
ология 20787
мян@@ 20779
цких 20777
участка 20776
точно 20775
ванная 20774
красо@@ 20770
деми@@ 20768
гвардейской 20767
никаких 20765
Павла 20763
метро 20762
XI 20761
операций 20761
мё@@ 20758
лёт 20752
делать 20751
Владими@@ 20748
помощником 20746
щихся 20743
приходилось 20741
масштаб@@ 20735
ак 20730
69 20726
лую 20725
Красный 20723
нашей 20721
группи@@ 20717
зывали 20717
выте@@ 20715
предусматри@@ 20712
сражении 20711
йл 20710
син 20703
чень 20699
режима 20697
субъек@@ 20689
вли@@ 20688
ьян@@ 20680
построено 20678
сить 20672
грузин@@ 20666
Сибири 20665
частных 20665
ню@@ 20660
принимали 20660
бла@@ 20655
яна 20653
гена 20650
мене@@ 20647
рестав@@ 20644
96 20641
Пле@@ 20638
магистра@@ 20637
енты 20635
физической 20632
98 20631
посеща@@ 20631
считать 20630
йный 20626
столь 20625
атако@@ 20624
высокого 20624
ликвиди@@ 20617
оне@@ 20614
площадью 20614
трек 20610
Григорьевич 20607
пин@@ 20606
Фин@@ 20605
дворя@@ 20605
цо 20603
категори@@ 20602
бей@@ 20599
основного 20598
епархи@@ 20589
Семё@@ 20588
Спустя 20584
плотность 20582
ющегося 20576
Украинской 20572
писания 20569
йскому 20564
проспек@@ 20550
работников 20544
газа 20543
глуб@@ 20543
здоров@@ 20541
82 20539
определения 20539
рист 20537
ссию 20537
штра@@ 20537
щал 20534
писали 20532
поднима@@ 20529
боевые 20528
Ари@@ 20525
ссон 20524
остались 20520
инте@@ 20519
Абду@@ 20516
паралле@@ 20514
Фридрих 20509
вернуть 20503
гле@@ 20502
полити@@ 20499
суме@@ 20491
71 20489
заняли 20489
Официальный 20484
самостоятельно 20484
Сезон 20482
концов 20482
изменя@@ 20480
Силь@@ 20474
тилась 20474
Будучи 20472
избра@@ 20472
23@@ 20471
азиат@@ 20470
вет 20467
заключения 20465
Мил@@ 20457
88 20456
лёгкой 20456
поколения 20453
третье 20453
99 20449
Два 20448
Нан@@ 20444
Ранее 20443
перешла 20443
Ля@@ 20442
увелич@@ 20442
завоевала 20439
конкурсе 20439
пост@@ 20439
оба@@ 20437
81 20436
реализации 20432
Псковской 20430
намере@@ 20430
существуют 20430
распа@@ 20429
хочет 20428
собственной 20427
банк 20425
Выбор@@ 20419
распространя@@ 20411
текста 20410
счаст@@ 20407
обя@@ 20405
Екатерин@@ 20400
Чет@@ 20399
муниципа@@ 20397
митрополи@@ 20396
маги@@ 20392
связаны 20383
1886 20378
руководства 20375
гибели 20370
организовал 20366
перед@@ 20365
последующие 20361
серб@@ 20360
Происхождение 20357
Каль@@ 20350
жоу 20350
иза 20347
проекти@@ 20344
1864 20342
общим 20340
созданию 20340
вшую 20332
n@@ 20328
благотворитель@@ 20328
реме@@ 20327
Стани@@ 20325
3,@@ 20319
ары 20316
действительно 20314
экономического 20314
предоставля@@ 20311
1862 20310
Волго@@ 20305
твёр@@ 20303
остальных 20294
экономической 20294
чему 20292
110 20289
корабли 20289
построены 20288
ек 20285
самолё@@ 20278
Ч 20276
восточнее 20275
инфра@@ 20273
высоты 20271
шений 20271
вшимся 20268
концеп@@ 20268
Северного 20266
тивная 20265
выпущена 20264
губерния 20262
мера 20260
оборонитель@@ 20255
зависит 20249
фра@@ 20249
искусство 20240
Уи@@ 20239
защитник 20231
73 20230
Российская 20229
чан@@ 20229
Юрь@@ 20227
Сен@@ 20226
ia 20225
дана 20221
ковском 20220
кос@@ 20218
военным 20217
нив 20217
увле@@ 20210
гля@@ 20209
ТВ 20208
автодороги 20204
водство 20202
жка 20202
ранен@@ 20200
профессиональный 20197
Почёт@@ 20195
рус 20195
Италия 20190
рован@@ 20189
ткан@@ 20187
Республика 20186
бора 20186
стое 20184
примы@@ 20182
Валерий 20181
Татар@@ 20181
холодной 20180
Юнайтед 20179
1887 20178
художественный 20176
выя@@ 20174
майора 20162
p 20160
Кня@@ 20158
включают 20156
бывшей 20153
удар 20143
машино@@ 20139
фонда 20139
похоро@@ 20137
поэта 20136
Беларусь 20128
западнее 20128
минуте 20122
общее 20120
дворец 20119
добро@@ 20116
ленным 20116
составили 20116
ёз@@ 20111
Гаври@@ 20110
Премьер 20109
Лондон 20106
Ска@@ 20104
пехоты 20100
общи@@ 20099
выставки 20090
хирур@@ 20089
Ричард 20087
проводились 20081
экологи@@ 20080
кол 20077
1877 20076
архитектор 20075
Мол@@ 20071
АЗ 20069
церемонии 20066
ывал 20064
Викто@@ 20063
редак@@ 20063
гера 20062
печати 20062
представлял 20059
марок 20058
личного 20049
актё@@ 20048
отправлен 20047
резиден@@ 20046
йскими 20041
версию 20036
материала 20028
отступ@@ 20028
креп@@ 20019
нижней 20018
линский 20016
ята 20011
фильмы 20008
экипажа 20006
уд@@ 20003
цель 19998
партий 19997
релье@@ 19996
условий 19992
подготовке 19990
альбомов 19989
прош@@ 19980
этапа 19976
охват@@ 19974
победителем 19972
сельских 19968
листиче@@ 19960
самое 19960
состояла 19958
синте@@ 19953
ранних 19952
i@@ 19950
читал 19949
вей 19948
Тамбо@@ 19947
пресс 19944
1812 19943
ори 19943
тата 19943
зако@@ 19941
лак@@ 19939
бина 19938
правление 19938
1861 19932
реши@@ 19929
стол@@ 19927
ывая 19927
секретаря 19926
обозначения 19924
брен@@ 19914
полный 19914
Сле@@ 19909
длину 19903
еха@@ 19902
включ@@ 19892
компанию 19891
большее 19889
Сергея 19888
тивного 19887
чали 19887
1500 19885
теку@@ 19883
Пис@@ 19877
читате@@ 19877
осенью 19872
Конгре@@ 19867
возраст 19866
сообщи@@ 19866
переимено@@ 19862
письма 19862
78 19861
ющимся 19860
лор@@ 19857
личности 19854
бои 19853
Румынии 19851
тра 19850
Кей@@ 19847
КОАТУУ 19835
крупный 19830
семью 19829
связанные 19826
веро@@ 19824
результатов 19824
объяв@@ 19822
существенно 19820
полё@@ 19817
нная 19816
Ав@@ 19815
героев 19810
сигна@@ 19802
лит@@ 19801
Феодо@@ 19796
Гражданской 19793
Отде@@ 19792
рядо@@ 19791
монасты@@ 19790
облада@@ 19789
смогла 19789
японской 19785
окончила 19783
знания 19782
княже@@ 19782
многочислен@@ 19778
связана 19778
щать 19777
Дво@@ 19775
сна 19772
Верхняя 19771
Леонид 19768
Физи@@ 19766
област@@ 19764
ьевич 19758
шке 19756
российская 19755
архитектора 19750
вавших 19747
Любо@@ 19745
розо@@ 19742
92 19741
башни 19740
Память 19733
доброволь@@ 19733
соревнования 19733
развитии 19732
жав@@ 19731
тарь 19731
комите@@ 19730
Пос@@ 19729
ствовало 19727
1884 19724
водных 19723
закончил 19721
замка 19720
св 19719
делу 19718
мыми 19706
единиц 19705
84 19704
Каре@@ 19703
рата 19702
топ@@ 19695
Мартин 19690
законо@@ 19685
оказалось 19681
1863 19680
человече@@ 19674
здоровья 19673
Осенью 19669
фос@@ 19661
границ 19655
находилось 19655
конечном 19654
сынов@@ 19652
награду 19649
l 19648
Встре@@ 19640
темати@@ 19638
йс 19635
влияния 19624
уне 19624
властей 19618
мбу@@ 19610
Парижа 19607
Инфраструктура 19606
освобод@@ 19606
ступле@@ 19605
оккупации 19601
Windows 19598
здравоохранения 19594
инду@@ 19591
лидеров 19591
разби@@ 19588
центри@@ 19588
магази@@ 19585
содержание 19585
вав 19577
окрестностях 19573
указывает 19571
вполне 19569
шено 19567
Балти@@ 19566
виз@@ 19565
побед 19557
заявля@@ 19555
возвращается 19553
час 19547
Пин@@ 19545
Клю@@ 19543
лекции 19543
оказыва@@ 19535
Хосе 19533
x@@ 19528
факультете 19526
er 19524
чиками 19524
ид 19522
руках 19518
поп 19516
правительством 19515
лялся 19514
еписко@@ 19512
бок 19507
ёж@@ 19501
родов 19499
языком 19498
провин@@ 19493
лоша@@ 19492
рецеп@@ 19491
физико 19490
приказал 19488
ывать 19488
Ольга 19486
Парти@@ 19485
прошлом 19485
гонке 19479
сохранились 19479
твер@@ 19476
попыт@@ 19466
задач 19465
Медве@@ 19462
питания 19455
несколькими 19453
испыты@@ 19451
тира@@ 19451
Олимпиа@@ 19450
лаборатории 19448
You 19446
кона 19441
Полта@@ 19440
зано 19440
отмечает 19440
ьч@@ 19440
Югославии 19437
итальянский 19436
истин@@ 19431
Лев 19427
деж@@ 19420
боле@@ 19414
кала 19412
публикации 19411
меч@@ 19410
нем@@ 19410
действиях 19409
страну 19409
выбор@@ 19408
Бельгии 19407
хват@@ 19400
треуго@@ 19396
Есть 19394
Music 19392
изменений 19389
предста@@ 19388
сная 19382
участвовать 19380
лето@@ 19379
уст@@ 19378
преоблада@@ 19376
колхоза 19374
популярность 19373
льевич 19372
зен 19371
ковская 19368
Екатери@@ 19366
упо@@ 19366
переводе 19363
Миха@@ 19362
эт 19362
77 19360
тео@@ 19359
почита@@ 19358
выпущен@@ 19357
ограни@@ 19356
Мекси@@ 19350
Среднегодовая 19348
o@@ 19346
рованным 19346
зуб@@ 19345
Оси@@ 19343
крыль@@ 19343
лингви@@ 19343
фла@@ 19343
слы@@ 19340
привод@@ 19339
хии 19337
Шта@@ 19328
полку 19326
зави@@ 19324
кс@@ 19324
сед@@ 19323
большом 19319
автодороге 19307
Мед@@ 19306
бизнес 19304
любовь 19302
рег@@ 19301
сест@@ 19300
атор 19298
Нау@@ 19297
автомобиль 19296
четверть@@ 19292
1888 19290
вные 19289
Демография 19287
пытались 19287
небольших 19283
позво@@ 19275
Андер@@ 19274
городском 19274
конфликта 19270
отказыва@@ 19269
страхо@@ 19263
обыгра@@ 19262
приз@@ 19261
помест@@ 19260
МВД 19255
документов 19253
секун@@ 19252
классификации 19250
держан@@ 19248
прось@@ 19248
депутат 19247
Строительство 19241
Демокра@@ 19240
растения 19232
швейцар@@ 19231
экономических 19231
выигры@@ 19229
парт@@ 19229
Краснодар@@ 19227
Пот@@ 19226
достигает 19226
ребёнка 19224
тиви@@ 19220
пропове@@ 19219
щу@@ 19215
зуется 19210
мульти@@ 19210
кля@@ 19205
противостоя@@ 19205
приез@@ 19199
z@@ 19198
Международной 19197
es 19196
женного 19195
раста@@ 19195
Несколько 19194
имена 19194
британский 19193
ландии 19192
вете 19189
асси@@ 19186
вена 19184
окончате@@ 19184
гана 19183
миссии 19177
пои@@ 19174
целей 19174
Западного 19171
кавалерий@@ 19171
гна@@ 19169
глаза 19167
одержа@@ 19166
поединке 19165
лицо 19162
циф@@ 19160
альбо@@ 19158
кат 19156
ресто@@ 19154
заму@@ 19150
сопрово@@ 19150
тря@@ 19145
ционно 19145
бить 19143
договора 19139
Слу@@ 19134
продолжает 19132
Бах@@ 19131
секретарём 19129
Численность 19128
сками 19127
католи@@ 19124
Алта@@ 19122
кай@@ 19121
ООО 19117
гражда@@ 19117
мпи@@ 19117
ману@@ 19113
Брян@@ 19106
Хью@@ 19105
политика 19104
24@@ 19100
опро@@ 19100
Эри@@ 19099
двигателя 19094
лиза@@ 19091
соба@@ 19086
критики 19082
Андрея 19077
министров 19072
доне@@ 19069
незакон@@ 19069
чья 19068
чо 19064
длины 19061
учёных 19060
названа 19055
p@@ 19053
86 19050
программи@@ 19050
провел 19049
бесплат@@ 19048
музыкальный 19048
Три 19046
старин@@ 19046
ште@@ 19045
чах 19043
границу 19042
Гай@@ 19040
главой 19034
звании 19034
Компания 19033
дина@@ 19033
труп@@ 19033
колхоз 19031
Яро@@ 19025
борьбу 19023
това@@ 19023
долгое 19019
йцев 19019
оправ@@ 19016
иту@@ 19013
порядок 19011
Красную 19006
коллекции 19001
Бек@@ 19000
МИ@@ 18994
происхождение 18991
святой 18981
темы 18981
пассажиров 18980
различными 18980
бок@@ 18977
помочь 18975
британской 18974
дворца 18972
системой 18970
мок 18968
обществе 18961
Y@@ 18960
жден@@ 18956
несла 18956
Хен@@ 18954
журналист 18954
Калифорния 18953
дому 18952
труд 18952
говор 18948
щений 18947
думы 18943
Кот@@ 18931
КНР 18926
ад 18926
H 18924
Николаев@@ 18924
Творчество 18919
Екатерина 18917
снят 18917
пет@@ 18916
устраи@@ 18911
столице 18909
уволен 18909
говорить 18908
белых 18907
патриар@@ 18907
винов@@ 18897
пространства 18895
Еди@@ 18894
пок 18887
речь 18887
Были 18884
двадц@@ 18884
процессов 18884
английском 18883
аудито@@ 18878
цкое 18874
опу@@ 18867
символизи@@ 18867
трудоспособ@@ 18866
якобы 18866
фестиваль 18862
инструмента@@ 18859
кафедре 18857
линг 18857
перевод 18857
Усть 18853
личных 18851
кустар@@ 18849
Рейн@@ 18848
политиче@@ 18848
рона 18848
непреры@@ 18846
17,@@ 18842
Норвегии 18837
Комитета 18836
Кни@@ 18832
внимания 18830
мастера 18829
жилых 18826
старей@@ 18824
след 18823
Рожде@@ 18821
избе@@ 18821
кла 18810
01 18809
гур@@ 18803
А.@@ 18799
премьера 18798
Степа@@ 18794
низа@@ 18793
РК 18790
предшествен@@ 18790
Основной 18789
Петербург@@ 18784
Волы@@ 18782
гаран@@ 18780
поставил 18779
пера 18775
нском 18773
поверх@@ 18773
кал 18772
двор 18771
мети@@ 18771
ара@@ 18769
корпора@@ 18769
ционе@@ 18761
ьей 18760
поста 18757
фельд@@ 18754
заслуженный 18751
ожида@@ 18751
переход 18751
температуры 18751
водном 18745
Объедин@@ 18744
Бран@@ 18737
материал 18736
эпо@@ 18735
Улья@@ 18734
часов@@ 18734
чина 18734
риях 18731
ступен@@ 18731
пси@@ 18730
демо@@ 18727
Конститу@@ 18723
Каждый 18722
1879 18719
Международного 18717
цева 18717
эксплуатацию 18717
внес@@ 18715
Иногда 18710
основате@@ 18707
последним 18707
политического 18705
Имеет 18696
Витеб@@ 18695
открыто 18695
специалист 18695
сл 18694
Георгия 18690
главную 18690
сси 18689
живёт 18685
соединя@@ 18685
ут 18685
вного 18681
сий 18681
Герма@@ 18680
объём 18680
зок 18677
относ@@ 18672
Центрального 18671
рабочего 18660
фамили@@ 18660
октябрь 18659
1873 18655
цова 18654
белые 18653
родителей 18653
отло@@ 18646
южно@@ 18643
контр@@ 18641
мони@@ 18640
взять 18634
лате@@ 18634
Среднегодовое 18633
номини@@ 18633
выполнение 18631
отсутствует 18621
писать 18621
гал@@ 18620
тиче@@ 18620
бка 18619
Ден@@ 18615
повторя@@ 18615
произведение 18612
Науч@@ 18609
терми@@ 18608
мощностью 18607
женского 18605
избран@@ 18605
штат@@ 18601
Воро@@ 18600
используя 18600
Диа@@ 18598
ился 18598
крестья@@ 18597
лить 18595
АТ@@ 18588
схе@@ 18587
правила 18584
ровку 18581
заби@@ 18578
Флаг 18576
защиту 18576
хой 18573
партнё@@ 18571
консерватории 18567
кате@@ 18565
атам 18564
деления 18563
1882 18562
рассе@@ 18562
меру 18560
известная 18552
формирование 18552
баскет@@ 18551
Лар@@ 18550
Постоян@@ 18550
требует 18550
Ссылки 18548
бывших 18548
великого 18546
методов 18546
среде 18546
вооружение 18540
обеих 18538
герцог 18532
речи 18532
ственности 18531
Уор@@ 18526
создано 18523
рак 18522
рация 18521
существо@@ 18519
3,5 18514
83 18513
гры@@ 18513
реестре 18511
Одна 18508
Голу@@ 18506
пами 18506
альное 18502
значительной 18497
ктор@@ 18497
бомбардиров@@ 18496
Тей@@ 18493
Нидерландов 18489
соста@@ 18488
равно@@ 18487
шести@@ 18487
провинцию 18485
помина@@ 18484
мето@@ 18482
тана 18482
Международный 18478
Звезда 18476
Мать 18476
кризи@@ 18476
Эдуар@@ 18475
захоро@@ 18475
перебра@@ 18475
Софи@@ 18471
социально 18467
городу 18466
произо@@ 18465
Весной 18462
активное 18459
quot 18458
проводится 18458
назначил 18453
характеристи@@ 18453
лец 18450
акций 18449
держать 18449
персонажа 18448
женной 18447
Каза@@ 18446
шпи@@ 18445
мороз@@ 18443
передан 18443
День 18442
КО@@ 18441
еры 18439
Игро@@ 18437
войн 18437
спро@@ 18430
87 18429
Мате@@ 18428
ник@@ 18427
заду@@ 18425
цким 18424
бас 18421
увеличе@@ 18421
Костро@@ 18420
93 18419
Теха@@ 18419
семи@@ 18413
годи@@ 18412
распространения 18411
ющему 18410
хво@@ 18406
диапа@@ 18403
выращи@@ 18394
прило@@ 18394
гнез@@ 18389
посё@@ 18385
помог 18382
педагог 18380
97 18379
Игна@@ 18378
шил 18378
кандидатов 18372
разведки 18372
ПВО 18368
вающие 18364
оборудование 18362
нено 18361
изобраз@@ 18360
политик 18360
астроно@@ 18356
видные 18351
Вай@@ 18349
востока 18349
проявля@@ 18349
образует 18338
осла@@ 18337
чник 18333
Антонио 18329
Ле 18327
передал 18327
лекар@@ 18325
соци@@ 18325
ента 18323
Арханге@@ 18319
Здание 18319
запада 18317
карто@@ 18312
Мари 18302
пова 18299
продажи 18295
бан 18294
ука@@ 18294
носится 18293
начать 18290
упраздне@@ 18290
культурного 18288
тировал 18287
исторической 18283
учителем 18282
докторскую 18281
Руковод@@ 18280
наступате@@ 18278
хва@@ 18277
Чере@@ 18275
шириной 18273
монастыре 18272
специфи@@ 18272
Ильи@@ 18271
экспо@@ 18270
выступле@@ 18265
рые 18264
метра@@ 18256
зон 18255
Коз@@ 18254
Де 18250
ваго@@ 18248
полное 18248
провела 18246
монар@@ 18240
творчество 18238
Мя@@ 18237
филологи@@ 18234
работах 18233
шили 18232
семина@@ 18230
члена 18230
экземпляров 18227
Дмитриевич 18225
Дор@@ 18225
гла 18218
черты 18207
вавший 18206
фирмы 18203
мию 18200
подозре@@ 18193
льские 18192
включены 18186
предлагает 18186
ловской 18185
Дол@@ 18184
длится 18183
залива 18180
цикл 18180
выставке 18179
вшееся 18177
нит 18177
щаются 18176
Лауреат 18175
работают 18173
прежнему 18172
Съ@@ 18170
дивизионе 18167
Северный 18166
холод@@ 18166
знание 18165
прихода 18155
станови@@ 18155
Треть@@ 18153
³ 18150
чук 18149
новской 18148
спортивной 18146
Основная 18145
Ленинградской 18144
голову 18142
заинтересо@@ 18140
учреждения 18138
щались 18138
возника@@ 18137
попол@@ 18136
Уай@@ 18134
отзывы 18134
каме@@ 18132
1881 18131
зо 18124
арен@@ 18121
парке 18117
путей 18117
приход@@ 18115
анализ 18113
слен@@ 18110
выжи@@ 18109
режим 18106
оды 18105
Ранние 18103
нование 18103
Израи@@ 18098
далеко 18096
способ 18092
тури@@ 18092
членами 18089
лас 18088
объекты 18087
показыва@@ 18087
тическую 18086
Им@@ 18082
1871 18079
душ@@ 18079
сумму 18071
пропа@@ 18068
художественной 18068
Ему 18066
оти@@ 18066
ув@@ 18065
трибу@@ 18063
основы@@ 18061
олог 18060
носить 18054
исправ@@ 18050
организ@@ 18049
покинуть 18044
говор@@ 18043
Тара@@ 18040
немцев 18040
достато@@ 18037
сержант 18037
пин 18035
двор@@ 18034
гим 18033
участником 18029
внешней 18028
успехом 18028
энциклопе@@ 18025
1876 18019
лер@@ 18017
нации 18015
медицинских 18007
сухо@@ 18005
Музыка@@ 18004
круг 18003
посетил 18003
вооружённых 18002
докла@@ 18002
альным 18000
подготовку 17999
Джо 17998
нился 17998
гового 17996
общая 17996
областей 17992
стадионе 17992
территорий 17992
желе@@ 17991
надо 17990
Лы@@ 17986
молит@@ 17986
водил 17985
линию 17979
лялись 17978
управлением 17978
плодо@@ 17974
интерпре@@ 17971
прибыли 17961
Чай@@ 17960
автономного 17954
студийный 17951
Лет@@ 17948
край@@ 17947
горизонта@@ 17946
Ставро@@ 17939
деревню 17937
лана 17937
Критика 17936
источники 17936
западном 17935
бежал 17932
лагеря 17932
танковой 17928
Джен@@ 17927
документы 17926
лёв 17926
бата@@ 17925
91 17922
Хал@@ 17919
числи@@ 17919
стром 17918
мара 17913
браке 17909
автоно@@ 17907
Иг@@ 17906
Офици@@ 17902
Проект 17900
конкур@@ 17895
скорост@@ 17894
использоваться 17893
изгна@@ 17890
любитель@@ 17889
международный 17887
Тен@@ 17884
ката 17884
дс 17883
писто@@ 17883
льстве 17882
Главного 17881
Мы@@ 17881
левый 17880
невозможно 17869
Испол@@ 17866
сис 17864
Пол 17862
94 17859
тут 17859
вар 17858
классе 17858
Эли@@ 17848
медицинской 17847
южнее 17839
деяте@@ 17838
соблю@@ 17836
спортсмен@@ 17835
потерял 17831
возве@@ 17823
пожало@@ 17817
возобнов@@ 17815
рынке 17811
водоро@@ 17810
ждать 17805
Дж 17803
друзей 17799
мемориаль@@ 17793
фолькло@@ 17787
ордина@@ 17786
Результаты 17782
ловка 17780
нельзя 17778
привели 17775
никто 17772
иск 17769
номера 17769
Верхов@@ 17767
перешли 17765
плы@@ 17765
народной 17762
Филипп 17761
мми 17754
Великобритания 17751
интегра@@ 17748
атмосферных 17737
восьми 17737
рений 17737
гель 17735
нападающий 17735
Посёлок 17730
Департамент 17728
засе@@ 17728
проводит 17727
сение 17725
стор@@ 17725
лос 17723
десят@@ 17721
изи@@ 17721
Ол@@ 17712
боя@@ 17709
пережи@@ 17707
заря@@ 17706
приглаш@@ 17706
Министерство 17705
сфе@@ 17701
79 17699
появления 17699
нужда@@ 17698
граде 17695
Кана@@ 17691
полков@@ 17691
Питер 17688
импе@@ 17686
место@@ 17683
окрест@@ 17683
автомобиля 17682
Оренбург@@ 17681
фонд 17680
ваш@@ 17678
новна 17673
Университет 17670
пад@@ 17670
массы 17668
характера 17668
Московском 17666
Русский 17659
завершил 17659
богосло@@ 17657
связан 17647
Монго@@ 17645
кут@@ 17645
дистан@@ 17640
щению 17640
алкого@@ 17638
золото 17635
1883 17631
Гера@@ 17631
шиф@@ 17630
Оскар 17629
топли@@ 17628
Плотность 17626
небольшие 17626
организацию 17626
Мини@@ 17625
Чернигов@@ 17623
рынка 17623
W 17619
жное 17619
замену 17616
относя@@ 17612
ателей 17611
исторического 17610
пуск 17609
могло 17606
льств 17604
Православ@@ 17603
служить 17601
формули@@ 17600
Вей@@ 17598
воспитан@@ 17597
поход 17597
енных 17589
Роберта 17584
тюр@@ 17583
ченной 17579
интерес@@ 17577
певица 17577
получило 17570
зафикси@@ 17569
равно 17567
нередко 17566
чит@@ 17566
Что 17564
прошед@@ 17564
сообщает 17562
хождение 17562
колоколь@@ 17560
вок@@ 17557
посредством 17555
Ред@@ 17554
Сав@@ 17553
Вет@@ 17550
Неме@@ 17550
административный 17541
эро@@ 17538
духовной 17537
мило@@ 17537
квар@@ 17535
исследование 17534
эскад@@ 17533
еты 17532
ьям 17530
Македо@@ 17529
росла 17525
эксплуатации 17525
принимала 17524
фотографии 17524
организато@@ 17521
непри@@ 17520
бого@@ 17519
89 17511
порта@@ 17511
славы 17510
теров 17510
жениями 17506
Руси 17504
идея 17502
населением 17497
наших 17494
горных 17492
обнаружены 17491
нефти 17488
поки@@ 17487
класс@@ 17483
дник 17481
борту 17480
курса 17479
лав@@ 17477
уна 17475
Вильгельм 17473
Мет@@ 17472
княжества 17470
абсолю@@ 17468
строя 17467
принята 17465
Чикаго 17463
ухода 17461
ране 17460
показывает 17454
низм 17453
провинция 17453
русским 17453
экспози@@ 17453
работан@@ 17452
действовать 17451
обусло@@ 17450
on@@ 17449
Кем@@ 17447
рым 17447
предпоч@@ 17445
евой 17444
Гур@@ 17443
напротив 17441
концентра@@ 17437
популя@@ 17436
Гит@@ 17433
нефтя@@ 17433
сопротивление 17430
подроб@@ 17427
1865 17425
вторую 17421
визу@@ 17420
внутри@@ 17419
телевидения 17415
аэродро@@ 17413
нато@@ 17413
артист 17409
некоторым 17409
построе@@ 17409
выбира@@ 17407
утверждает 17404
Электро@@ 17403
обвиня@@ 17403
пр 17401
особо 17399
мская 17396
политику 17391
ширина 17390
ленное 17388
цир@@ 17385
колонии 17384
международном 17383
убийство 17381
Сак@@ 17380
собственные 17378
совсем 17378
жом 17375
Общества 17374
дольф 17371
ог@@ 17370
Африке 17369
Президент 17368
кар 17366
устра@@ 17365
пожар@@ 17361
Сред@@ 17359
научным 17359
плати@@ 17358
Востока 17350
Голо@@ 17346
движении 17345
сег@@ 17345
бек@@ 17342
автоном@@ 17339
пространство 17339
щу 17338
левого 17337
жителя 17327
лун@@ 17327
12.@@ 17325
наименование 17322
Мэри 17321
древних 17321
храме 17321
Библи@@ 17320
несли 17319
открытие 17308
ing 17307
дился 17307
платформы 17307
хутор 17306
зени@@ 17304
говорят 17303
высокие 17302
Перво@@ 17301
дальше 17301
Вир@@ 17299
познакомился 17299
бюдже@@ 17295
копий 17293
Ама@@ 17287
взо@@ 17287
лат 17287
мися 17283
пребывания 17280
утверждён 17280
1867 17279
обез@@ 17279
Джек@@ 17277
аро@@ 17277
врач 17277
перспек@@ 17277
расстояние 17276
Шер@@ 17274
вещества 17273
динамиче@@ 17273
жё@@ 17273
пожертво@@ 17273
другое 17272
мра@@ 17270
йка 17269
интере@@ 17267
теория 17265
арте@@ 17262
указом 17258
Яв@@ 17257
описа@@ 17256
мед 17255
окружающей 17253
научные 17252
реакции 17252
Музы@@ 17247
мян 17247
жин@@ 17246
забро@@ 17246
океана 17244
торпе@@ 17243
Солнца 17236
кампа@@ 17234
Премьера 17233
игровой 17232
исключ@@ 17229
нейтра@@ 17229
крае@@ 17228
отделом 17227
дови@@ 17224
базо@@ 17220
la 17219
шахмат@@ 17218
Соци@@ 17217
психи@@ 17217
Рим 17211
Дании 17206
приказу 17206
Возможно 17204
Книга 17203
доступ 17201
культура 17200
ae 17199
НБА 17199
щему 17199
рано 17198
лого@@ 17192
конфликт 17186
инского 17183
рубе@@ 17183
устойчи@@ 17178
Ленинград 17177
политике 17171
сож@@ 17171
Вид 17170
выступила 17168
позиция 17167
мб@@ 17166
соборе 17165
музыкального 17159
нейро@@ 17159
досто@@ 17156
свадь@@ 17155
наступления 17153
медицины 17152
служба 17149
Хей@@ 17146
берег 17145
полузащитник 17144
мад 17139
историко 17137
станет 17137
служит 17131
запи@@ 17130
ос 17130
Всё 17129
видит 17128
внутренней 17126
ывают 17123
случай 17121
бежать 17112
родину 17109
ваемых 17106
политические 17102
цикла 17101
Нижегородской 17099
входило 17097
каждые 17097
Крымской 17091
дивизион 17090
щаться 17087
Дал@@ 17085
вере 17085
турнирах 17085
моро@@ 17074
технический 17068
предположительно 17064
эвакуи@@ 17064
техни@@ 17059
победитель 17056
осталось 17055
НР 17054
защите 17054
утверждал 17054
ьё@@ 17054
мексикан@@ 17050
1868 17046
семейство 17044
Горо@@ 17043
фамилии 17043
Гиль@@ 17039
вшему 17035
говори@@ 17034
телефон@@ 17034
следующее 17033
Иерусали@@ 17027
Татьяна 17027
1850 17026
отборо@@ 17022
уезде 17022
веществ 17019
запро@@ 17018
Арка@@ 17015
объясни@@ 17013
пуск@@ 17010
Сербии 17006
зрите@@ 17002
распо@@ 17002
падения 17001
сериа@@ 17001
объявила 16999
органы 16997
городская 16995
женской 16994
вела 16993
защитника 16993
родители 16993
платы 16992
теро@@ 16992
мный 16991
шали 16991
8,@@ 16989
определяется 16989
носят 16988
лки@@ 16986
натура@@ 16986
собственности 16986
евской 16985
ентов 16985
третьем 16985
менти@@ 16981
Знамени 16980
журна@@ 16979
музыке 16979
Василия 16975
Фон@@ 16972
Ней@@ 16971
народ 16971
ограниче@@ 16969
детства 16963
Робер@@ 16962
10.@@ 16959
туру 16958
море@@ 16956
двер@@ 16953
кристал@@ 16953
чев 16952
Грэ@@ 16951
Рио 16951
исполнение 16947
Иоанн 16942
крепост@@ 16936
метал@@ 16933
дома@@ 16930
гипер@@ 16922
тёплым 16922
щался 16922
лед@@ 16921
Генриха 16919
локо@@ 16918
издал 16915
клет@@ 16914
епископом 16912
пласти@@ 16910
гонки 16909
практике 16909
сингла 16909
чис@@ 16906
ительную 16904
причин 16901
СМ 16899
кори@@ 16899
зале 16897
шю@@ 16895
среднюю 16894
Ленинградского 16891
1869 16886
инфек@@ 16886
сведениям 16886
ничества 16882
умерен@@ 16879
правой 16877
Баш@@ 16875
муниципалитета 16874
Игра 16869
Куйбы@@ 16868
находит 16868
кет@@ 16864
стика 16863
Оре@@ 16858
Долго@@ 16856
энерго@@ 16856
допу@@ 16853
играла 16851
риал 16851
лежит 16849
листо@@ 16847
отдыха 16843
профе@@ 16842
исполнения 16841
поэзии 16839
дирижё@@ 16837
Токио 16836
лив 16836
высшее 16834
мбо@@ 16834
Яков@@ 16833
голе@@ 16833
признание 16832
мор 16827
смысле 16826
отношениях 16825
тает 16824
Ие@@ 16822
приходит 16821
Ленинграде 16818
производству 16818
решено 16814
интенсив@@ 16813
цио@@ 16810
убит@@ 16807
дизай@@ 16805
принадлеж@@ 16805
молодёжи 16803
останови@@ 16803
Тем@@ 16802
Яр@@ 16802
марк@@ 16802
египет@@ 16796
Канаде 16794
линий 16794
Октябрьской 16791
Франсуа 16791
Начало 16790
комсомо@@ 16789
Пон@@ 16787
сооружения 16785
услуг 16785
закреп@@ 16781
конфлик@@ 16781
Гло@@ 16779
остатки 16777
официальным 16777
мелких 16772
фигур@@ 16772
нала 16766
Геро@@ 16760
тренер@@ 16758
Францию 16749
Христа 16742
1866 16741
Собра@@ 16741
ническая 16740
1830 16739
зависи@@ 16739
ствии 16736
Гви@@ 16732
картин 16732
реконструкции 16732
Хам@@ 16729
вручением 16728
Петербургской 16727
вести@@ 16727
распада 16726
решению 16726
Серебря@@ 16723
ЦИК 16722
впадает 16719
комеди@@ 16716
обыкновен@@ 16713
вело@@ 16711
объединение 16710
1848 16709
лище 16709
Саха@@ 16708
отсутствия 16707
подобных 16707
первен@@ 16706
аристокра@@ 16704
количестве 16701
фило@@ 16701
точка 16700
добился 16699
запол@@ 16698
футбола 16698
Свобо@@ 16697
ехал 16693
озву@@ 16693
пен 16693
Система 16691
Южная 16685
подзем@@ 16683
лениях 16680
хен@@ 16678
советские 16677
t@@ 16676
осталась 16676
Пуш@@ 16675
Ага@@ 16670
трен@@ 16669
Мало@@ 16666
Финлян@@ 16663
исполнении 16661
нести 16661
ори@@ 16661
преступления 16661
Ближайшие 16660
сезонов 16660
НИИ 16659
клеток 16658
каких 16649
ковать 16649
трое 16649
Кун@@ 16648
мощность 16648
религии 16646
Смит 16643
квалификации 16637
водом 16627
добра@@ 16624
закре@@ 16624
Иде@@ 16622
шир 16620
компонен@@ 16618
хта 16618
круг@@ 16617
мозга 16616
дзи@@ 16607
ляция 16607
королевства 16604
0,5 16601
продоволь@@ 16597
насел@@ 16595
сное 16593
препара@@ 16589
Институте 16587
высокий 16583
выбор 16578
йско 16577
дона 16575
жие 16572
изданий 16572
отне@@ 16572
двигатель 16571
сражения 16571
метрополи@@ 16567
Хель@@ 16566
слобо@@ 16566
детстве 16564
специальных 16563
Group 16561
k@@ 16558
рио 16557
Йе@@ 16555
характеристики 16552
противоре@@ 16546
тенни@@ 16544
значительное 16541
протестан@@ 16541
говора 16540
Храм 16539
жанре 16538
дочерью 16537
щенко 16534
гло 16531
Курской 16529
результ@@ 16529
u 16528
числилось 16526
намест@@ 16525
приклад@@ 16519
гина 16514
страции 16510
проживает 16509
Арген@@ 16507
флан@@ 16507
серде@@ 16506
Z 16504
персонаж 16502
опор@@ 16499
проекты 16498
ГЭС 16496
выполнен@@ 16496
имо@@ 16492
Леони@@ 16491
Велико@@ 16490
ритель@@ 16486
носили 16485
флаг 16485
важным 16479
кап@@ 16479
поверхность 16476
ито 16475
Уро@@ 16473
лениями 16473
неболь@@ 16473
клави@@ 16472
ради 16472
УЕФА 16471
губернатор 16470
общественный 16468
советское 16467
фю@@ 16466
соном 16464
нял 16458
коди@@ 16457
ограничи@@ 16456
кандидат 16452
Эль 16449
основано 16439
бун@@ 16436
строение 16435
Васи@@ 16434
общий 16432
рите@@ 16431
Сала@@ 16430
установи@@ 16430
кресто@@ 16429
тинский 16424
банд@@ 16421
эффект 16418
ракеты 16416
сайта 16414
Лав@@ 16412
Игра@@ 16410
g 16406
восточном 16405
ДНК 16402
погло@@ 16401
морф@@ 16398
Отече@@ 16396
агро@@ 16396
слабо@@ 16394
слан 16394
Научная 16392
линг@@ 16392
преследо@@ 16392
правый 16389
огнём 16382
епархия 16379
Абу 16378
стоимость 16377
СД@@ 16375
Сначала 16374
коммуни@@ 16374
функций 16374
установлено 16370
фанта@@ 16370
цов@@ 16367
Жо@@ 16361
глад@@ 16360
монго@@ 16359
1856 16355
топлива 16351
клетки 16347
станцию 16347
Константи@@ 16345
Лай@@ 16337
режиме 16337
официальных 16331
чок 16331
возглав@@ 16330
многом 16330
Высота 16328
ходило 16327
служеб@@ 16326
Парк 16325
жер 16325
призы@@ 16323
посвящен@@ 16320
цион@@ 16319
ционным 16318
селение 16315
торе 16311
учреждений 16307
русско 16303
космо@@ 16301
1872 16300
учред@@ 16299
for 16297
княз@@ 16297
Университета 16296
магазин 16296
Коль@@ 16294
Мю@@ 16292
ГИ@@ 16291
пришли 16290
Памятник 16287
нрав@@ 16287
Алексея 16284
испыта@@ 16282
людям 16282
продюсе@@ 16280
собственных 16280
командующий 16279
самая 16279
взрослых 16274
погре@@ 16274
основателей 16271
высоко 16268
ковод@@ 16268
Зар@@ 16266
свиде@@ 16266
анима@@ 16264
следующей 16264
вара 16263
цкие 16263
Золотая 16258
колледж 16256
частях 16253
Михай@@ 16251
универса@@ 16249
действием 16248
емы 16240
врага 16237
называет 16235
шенко 16234
мужество 16232
роб@@ 16232
севера 16230
стин 16229
французских 16227
примечате@@ 16225
товар@@ 16225
Хро@@ 16219
огня 16215
стек@@ 16211
Алек@@ 16210
планы 16208
фашист@@ 16208
вато@@ 16205
КБ 16204
живу@@ 16202
осно@@ 16201
жиз@@ 16199
рису@@ 16199
мужского 16198
шкой 16192
гского 16189
проводятся 16189
рук 16185
дным 16178
кации 16177
поляр@@ 16176
160 16173
полуострова 16172
нская 16169
ченного 16168
вызывает 16167
коллегии 16162
швили 16156
исторический 16154
кварта@@ 16154
Южного 16152
братья 16152
вил@@ 16151
община 16148
высоту 16146
съём@@ 16145
шают 16141
преодоле@@ 16139
течению 16137
гося 16134
приготов@@ 16134
увидеть 16131
переданы 16130
множества 16128
одоб@@ 16128
пом@@ 16128
1875 16124
личные 16123
представления 16123
бельги@@ 16120
размера 16119
району 16116
таки 16115
кевич 16114
подверг@@ 16112
популярных 16112
порта 16111
республи@@ 16109
уехал 16106
In@@ 16103
надёж@@ 16102
ждается 16095
лауре@@ 16093
анный 16091
проводил 16090
управ@@ 16088
дений 16086
областях 16086
свободу 16086
выполнения 16082
листь@@ 16079
Широ@@ 16076
предме@@ 16069
Ты@@ 16068
занималась 16067
повсе@@ 16067
британского 16064
нист 16064
регионов 16062
возвращении 16061
наре@@ 16060
значительные 16058
матерью 16058
термина@@ 16056
ьера 16054
восстановления 16053
Тимо@@ 16049
генерального 16049
спорт@@ 16045
ринг 16044
начинают 16042
областной 16041
описан 16041
перехода 16039
боеприпа@@ 16038
свое 16033
лицензи@@ 16032
бывал 16030
тна 16030
плохо 16029
появилось 16029
йцы 16028
примеру 16028
госпита@@ 16026
обеспечить 16025
Приме@@ 16021
Кузь@@ 16019
Трудо@@ 16019
лье@@ 16019
крайней 16018
прочих 16018
Тек@@ 16016
Чили 16015
an 16011
становятся 16011
положении 16009
тун@@ 16008
продюсер 16006
монеты 16005
гря@@ 15999
живых 15998
территориального 15998
строго 15997
учениками 15997
вик 15996
нон 15996
риту@@ 15996
Кло@@ 15993
считали 15992
Жена 15989
возраст@@ 15989
европейской 15987
ленную 15985
ене 15983
наблюдате@@ 15980
нета 15979
рецен@@ 15977
Кы@@ 15970
эсте@@ 15970
Дени@@ 15968
применяется 15968
Дмит@@ 15967
волж@@ 15964
инициати@@ 15962
патри@@ 15962
операция 15961
рованное 15961
силой 15957
западных 15956
пра 15956
140 15953
Федорович 15951
Бет@@ 15950
Чехии 15947
ранга 15944
передач 15942
Семе@@ 15934
Смир@@ 15932
съезда 15926
производстве 15925
пуль@@ 15924
организацией 15921
ува@@ 15921
пулемё@@ 15918
деревьев 15916
кислоты 15915
сотни 15915
высших 15914
веках 15913
личный 15912
Кала@@ 15911
Най@@ 15911
воздушных 15911
показали 15903
Ирты@@ 15897
прод@@ 15896
Последние 15895
рян@@ 15895
каби@@ 15893
Ере@@ 15891
мак 15891
хай@@ 15889
поклон@@ 15888
Мур@@ 15883
нуть 15882
принятия 15882
бог@@ 15881
экипа@@ 15880
вме@@ 15877
буль@@ 15876
Израиль 15875
м. 15874
Богородицы 15872
кове 15864
Виш@@ 15863
нки 15859
носил 15858
неде@@ 15854
происхо@@ 15854
вный 15852
долине 15851
структура 15851
Чарльз 15850
крест 15850
ностям 15847
Лучший 15845
поставля@@ 15841
лея 15838
лице@@ 15835
тическом 15835
появляются 15834
Молод@@ 15831
гуманитар@@ 15829
зеро 15823
пуска 15822
Внеш@@ 15820
рующие 15817
содержания 15815
добиться 15810
лидером 15807
структуру 15807
тяну@@ 15807
написана 15803
принца 15802
финиши@@ 15802
прися@@ 15801
отправил 15799
оценку 15797
девять 15794
труды 15790
числу 15787
Великий 15784
Лебе@@ 15784
размере 15781
гих 15779
раунда 15779
расчё@@ 15778
клубы 15777
7,@@ 15774
Наталья 15774
отдел 15774
повышен@@ 15769
Запоро@@ 15768
администра@@ 15768
настав@@ 15764
сэ@@ 15762
ьян 15762
активными 15761
ухуд@@ 15760
4,@@ 15758
блок 15755
выясни@@ 15753
ничество 15752
льским 15751
заны 15747
повлия@@ 15746
держав@@ 15744
рабаты@@ 15744
Ны@@ 15743
насле@@ 15742
Прин@@ 15741
Рядом 15741
студентами 15741
крыла 15738
венства 15733
1874 15731
емую 15731
Эдуард 15729
родного 15729
глав 15728
островах 15728
мные 15724
Наполе@@ 15720
рынок 15720
ента@@ 15714
стрелковая 15714
Берлин@@ 15713
испытания 15712
стоимо@@ 15712
XXI 15711
мском 15710
тексте 15700
риса 15699
белый 15698
нападения 15697
нете 15697
раунд 15697
1840 15696
статистиче@@ 15692
АМ@@ 15687
исполнял 15681
понятие 15681
цк 15681
зарубе@@ 15678
прямоуго@@ 15678
цилин@@ 15678
каждая 15676
Обычно 15672
ографи@@ 15671
h@@ 15667
Оно 15666
переселен@@ 15666
обработки 15664
Горь@@ 15663
пропу@@ 15663
округов 15661
ряду 15661
бежен@@ 15659
Жан@@ 15658
днем 15657
парламент 15657
теп@@ 15656
Зан@@ 15655
зина 15655
аз@@ 15646
чемпионатах 15646
созна@@ 15645
Таи@@ 15644
лети@@ 15643
лидер 15643
премия 15643
военном 15642
Австри@@ 15641
кал@@ 15640
оркестра 15640
фини@@ 15636
владение 15633
idae 15630
танка 15629
глоба@@ 15628
издан 15627
шля@@ 15625
ПО 15620
Публи@@ 15620
зеле@@ 15620
ист 15620
Луган@@ 15618
Обра@@ 15618
рабатыва@@ 15615
бизне@@ 15613
аэропор@@ 15611
авторы 15610
оборону 15610
11@@ 15608
Програм@@ 15608
пресси@@ 15607
ровке 15607
аппарата 15605
юби@@ 15601
паци@@ 15600
поездов 15598
Ник@@ 15597
связ@@ 15596
пау@@ 15593
Киевской 15590
установить 15590
экономически 15588
лизма 15587
Режи@@ 15578
полёта 15578
Бул@@ 15577
третьим 15577
убить 15575
Фак@@ 15573
тацию 15572
будущем 15571
План@@ 15570
больных 15568
лаборато@@ 15564
обратился 15563
признал 15562
Кова@@ 15561
вызвало 15561
Время 15557
возбу@@ 15556
Жизнь 15555
разведывате@@ 15553
покров 15552
весе 15551
объединя@@ 15551
хия 15549
r 15545
тельной 15544
неприя@@ 15541
департамент 15540
сестры 15538
действии 15537
мяч 15535
сравни@@ 15535
International 15534
Осе@@ 15533
Ом@@ 15525
Зелё@@ 15523
расту@@ 15521
форси@@ 15520
ционное 15519
прести@@ 15518
тит@@ 15518
преподавателем 15515
счет 15513
мужем 15512
своеобраз@@ 15511
Джан@@ 15510
требования 15505
статусом 15504
эскадри@@ 15504
гвардейского 15501
разряде 15499
Фут@@ 15497
социали@@ 15497
нились 15496
фунтов 15496
спортсме@@ 15493
Октябрь@@ 15489
избежать 15488
иници@@ 15486
Спе@@ 15482
сского 15481
работки 15480
Собо@@ 15479
композиций 15479
аренду 15476
май 15476
дес@@ 15475
мезо@@ 15474
яче@@ 15474
музыкантов 15470
Рели@@ 15465
Представ@@ 15464
дент@@ 15463
сменил 15462
спокой@@ 15459
святых 15453
ённости 15451
ниси@@ 15446
брат@@ 15444
герб 15443
валю@@ 15442
ир@@ 15441
ведь 15440
решений 15440
льи 15438
ночью 15437
купа@@ 15434
основы 15433
столкну@@ 15432
листа 15431
выле@@ 15428
180 15425
ис 15425
Считается 15424
лло 15420
живут 15419
тельно 15417
Благо@@ 15415
административным 15414
детский 15410
пар 15409
Бэ@@ 15408
моря@@ 15408
преподаватель 15406
филд 15405
хэ@@ 15403
ровском 15400
управлению 15398
al 15394
произво@@ 15393
риан@@ 15391
Литератур@@ 15388
Ефи@@ 15387
санд@@ 15387
заняв@@ 15382
лодки 15382
континента@@ 15379
Уэль@@ 15377
жет 15374
стадион 15374
изло@@ 15371
як 15371
гови@@ 15369
одеж@@ 15369
разработан 15368
очередной 15367
гимнази@@ 15366
евым 15364
художником 15364
Высшей 15356
овладе@@ 15355
Вашинг@@ 15353
Римской 15351
ковом 15351
валь@@ 15350
Коб@@ 15349
чивается 15347
кубка 15344
тером 15344
масте@@ 15343
ол@@ 15343
Гроз@@ 15341
Награждён 15340
продолжительной 15336
звуко@@ 15334
сопротивления 15331
дание 15330
обмен 15330
давления 15329
осе@@ 15327
10,@@ 15325
Ната@@ 15325
мали 15325
балета 15322
корреспондент 15322
товые 15322
упро@@ 15321
Дем@@ 15320
Серги@@ 15319
концерт 15318
эсто@@ 15317
карты 15315
аэропорта 15314
сят 15312
стату@@ 15311
Литвы 15310
классической 15310
погибших 15310
священника 15308
титься 15306
сохранить 15305
старых 15304
Генерального 15302
тском 15302
хит 15302
спект 15299
промы@@ 15288
сма@@ 15286
заключается 15285
организован 15285
имея 15284
ковую 15282
Эсто@@ 15280
массовой 15280
мара@@ 15279
транспорт 15279
хими@@ 15278
Андре 15277
начи@@ 15275
зов@@ 15273
гаться 15271
сторонников 15270
Буд@@ 15268
ох@@ 15267
фантастиче@@ 15266
опи@@ 15261
Давид 15260
Максим 15260
попере@@ 15260
провели 15260
зывает 15257
играли 15257
последующих 15257
дис@@ 15250
иран@@ 15250
проводить 15249
молод@@ 15248
интересов 15245
z 15241
полного 15240
Зеландии 15239
заплани@@ 15239
Река 15238
Ход@@ 15236
регионального 15236
отметить 15234
официальный 15234
тели 15234
основой 15233
Мел@@ 15232
графом 15231
знал 15231
медалей 15230
фей 15230
Андже@@ 15227
3000 15221
боёв 15221
еви@@ 15220
критик 15219
дю@@ 15216
крей@@ 15216
рисун@@ 15213
акции 15206
аспиран@@ 15206
нд 15206
ауди@@ 15203
Спо@@ 15200
созданный 15199
вспомогате@@ 15197
останавли@@ 15195
собственную 15192
усовершен@@ 15191
писание 15190
чии 15190
Памя@@ 15189
Револю@@ 15187
частот@@ 15186
гона 15181
кван@@ 15180
at 15179
чо@@ 15178
рованию 15177
источником 15174
эпизод 15170
Университете 15169
телевидении 15168
газ@@ 15167
Известно 15166
соедин@@ 15166
Сток@@ 15165
тридц@@ 15165
реже 15163
Герб 15158
Международная 15156
В.@@ 15154
дифференци@@ 15152
СА@@ 15148
Аш@@ 15147
има 15147
важную 15141
внедре@@ 15141
удержи@@ 15140
установил 15140
действовал 15137
клеточ@@ 15133
круга 15133
личной 15132
Уильяма 15131
волост@@ 15130
выступление 15129
коллектив 15129
НК@@ 15127
Сот@@ 15124
ённому 15124
кардина@@ 15121
ликвидации 15121
рованием 15121
выяв@@ 15120
казывает 15116
герои@@ 15115
вверх 15110
восточных 15107
Рафа@@ 15105
бен 15104
половину 15101
укре@@ 15100
мских 15099
турни@@ 15098
бая 15097
певицы 15096
Председатель 15095
исследователи 15094
кция 15094
офицер 15093
параллельно 15093
таком 15092
придвор@@ 15091
экипаж 15091
летию 15087
Печ@@ 15084
выбран 15082
тар 15080
греческой 15077
Дон 15076
радо@@ 15076
чиной 15075
Народный 15074
охраня@@ 15074
пройти 15074
чество 15070
советник 15066
тяжело 15064
Получил 15063
созвездии 15063
09 15060
сми@@ 15059
отличаются 15055
расстоя@@ 15055
фортепиано 15055
собственный 15046
масса 15043
товаров 15043
нари@@ 15041
красный 15038
обстре@@ 15038
спортсменов 15038
лигу 15037
построй@@ 15036
заведу@@ 15030
Хаба@@ 15026
коллектива 15026
высоким 15019
теля 15019
ации 15017
рабочей 15015
храня@@ 15015
лину 15013
соглашения 15011
маршрут 15008
лку 15006
вынуждены 15005
планеты 15005
шеб@@ 15002
Вене@@ 15001
берёт 15001
ждая 15001
― 14996
московского 14995
префек@@ 14993
доброво@@ 14991
Вьетна@@ 14983
Бое@@ 14982
руководителя 14981
Пензен@@ 14979
всём 14977
элли@@ 14973
новыми 14972
ьем 14969
национальную 14968
отличием 14965
специального 14965
втори@@ 14963
веры 14960
оболо@@ 14960
преимуще@@ 14957
яко@@ 14955
Божи@@ 14952
Сур@@ 14952
коман@@ 14950
собственного 14948
камер@@ 14947
подрост@@ 14943
отсутствуют 14942
Слова@@ 14940
балти@@ 14940
изуче@@ 14936
Стэн@@ 14935
Цвет@@ 14935
зимних 14933
постро@@ 14929
Иванов 14926
чарте 14926
попала 14925
трижды 14924
совхоза 14923
стского 14923
фур@@ 14918
бронзовую 14917
обеспечивает 14917
Смо@@ 14911
заведующим 14911
комиссия 14910
гие 14909
предстоя@@ 14908
рассказыва@@ 14908
оси 14906
травмы 14904
гау@@ 14902
плацдар@@ 14902
пособи@@ 14902
конферен@@ 14901
1.@@ 14900
Запад@@ 14898
восточного 14896
общин 14896
сельской 14896
сюжет 14896
медицинского 14895
национали@@ 14894
секунд 14894
больной 14892
трансли@@ 14892
Уль@@ 14887
крупным 14883
Правительства 14880
волны 14879
ноги 14877
ГДР 14876
золотую 14873
количеством 14873
греческого 14870
тока 14869
рого 14866
видно 14865
13,@@ 14860
птицы 14859
медалями 14857
придержи@@ 14854
вертолё@@ 14852
многими 14849
разно@@ 14846
чемпиона@@ 14846
200@@ 14845
проживал 14843
публике 14843
коротко@@ 14841
боли@@ 14839
привы@@ 14838
тел@@ 14838
моди@@ 14837
см. 14837
оригинальной 14835
фронтах 14835
требуется 14833
Элизабет 14831
стройка 14831
Ап@@ 14830
​ 14830
Вологодской 14828
Аба@@ 14825
Рязан@@ 14825
емости 14825
мячей 14825
победа 14824
ида 14823
наблюдения 14823
тиями 14821
набор 14815
описывает 14815
Сирии 14811
Антон 14809
вопросов 14809
произошёл 14807
включена 14805
отдельный 14805
подписа@@ 14805
имело 14803
детьми 14802
необходимость 14802
зади 14800
разрешение 14800
сайт 14798
Оба 14795
тти 14793
Башкортостан 14792
Яков 14792
лучшие 14791
положительно 14787
Территория 14783
набрал 14782
постоянного 14782
евском 14780
жир@@ 14777
давно 14772
Команд@@ 14768
Особен@@ 14766
07 14765
проведена 14762
er@@ 14761
Све@@ 14761
первенства 14761
геологи@@ 14760
каза 14760
примени@@ 14759
муче@@ 14755
няк 14754
капе@@ 14752
эко@@ 14748
5,@@ 14745
видимому 14745
интеллекту@@ 14745
рита 14743
Воору@@ 14742
негатив@@ 14738
Awards 14736
Румы@@ 14736
младшего 14735
центров 14735
гали 14733
мур@@ 14732
лога 14728
оке@@ 14726
повышения 14726
Тони 14725
Подо@@ 14724
Цин@@ 14722
затра@@ 14720
монаше@@ 14718
последнем 14718
хал@@ 14718
вопло@@ 14717
колледже 14717
ьо 14717
Сейчас 14716
кулы 14715
полосы 14715
атором 14714
тино 14713
насы@@ 14712
одежды 14711
коэффици@@ 14710
лауреат 14710
родном 14708
случайно 14707
предпочита@@ 14706
каде@@ 14703
Фун@@ 14702
советская 14702
Мос@@ 14700
вооружения 14700
ванным 14698
адъю@@ 14697
новому 14697
Марти@@ 14694
токси@@ 14693
боеви@@ 14692
какие 14692
Гран@@ 14687
Зим@@ 14687
пенсию 14685
суток 14685
тиях 14685
лд 14684
видел 14683
оде@@ 14683
вспы@@ 14681
рубежом 14680
корреспонден@@ 14679
муж 14679
передана 14679
ископа@@ 14678
войско 14677
репресси@@ 14677
столетия 14677
вот 14672
Большое 14669
Зай@@ 14669
мощности 14669
опти@@ 14669
Бёр@@ 14666
Киевского 14665
бия 14665
сотрудником 14665
Берлин 14664
депо 14664
моделей 14664
ване 14663
ТЭ@@ 14658
жур@@ 14658
построил 14658
монта@@ 14653
проходила 14652
Управления 14651
полноцен@@ 14651
прояв@@ 14650
морфо@@ 14649
обращения 14647
картину 14646
погру@@ 14646
психологии 14646
слави@@ 14645
зий 14644
сторона 14644
рыб 14643
украинского 14640
вышло 14637
госпит@@ 14635
технической 14635
стади@@ 14631
гат 14629
Тат@@ 14628
чьи 14623
Нем@@ 14622
зию 14622
Сор@@ 14621
проведение 14621
планет@@ 14620
Дет@@ 14619
туристи@@ 14619
эваку@@ 14618
чко 14614
нейшие 14612
Y 14608
больницы 14608
1858 14605
коммента@@ 14604
вернулись 14601
выступили 14600
лики 14600
украинской 14598
покину@@ 14596
фро@@ 14595
глаз 14594
03 14593
сосредото@@ 14592
кола 14586
виру@@ 14581
описал 14580
орден 14579
переименована 14576
казни 14573
предполо@@ 14573
Артур 14572
Ирина 14572
кора@@ 14571
отмечал 14570
католической 14568
мирового 14563
участвует 14562
вку@@ 14559
Германию 14557
астро@@ 14557
дерева 14557
Успен@@ 14554
баскетбо@@ 14554
племени 14553
сотрудничества 14551
юга 14549
совокуп@@ 14548
тюрьме 14548
огне@@ 14547
деревень 14546
означа@@ 14545
Барсе@@ 14544
Эти@@ 14543
нат@@ 14542
Рен@@ 14541
фигури@@ 14539
хоккею 14539
исследователей 14537
вперёд 14533
переход@@ 14532
судна 14528
чков 14527
пович 14525
разъ@@ 14525
лано 14524
получают 14523
Побе@@ 14521
Коммунистиче@@ 14520
квалифици@@ 14520
Алекса 14519
уступив 14517
четыре@@ 14517
пьесы 14515
предше@@ 14513
Христи@@ 14510
печ@@ 14508
Министер@@ 14507
• 14506
пространстве 14505
религиозных 14502
дском 14501
носа 14500
похода 14500
DVD 14497
горно@@ 14496
муля@@ 14496
обладателем 14496
надпис@@ 14495
То 14494
властями 14492
математики 14492
эска@@ 14490
дизе@@ 14483
кас 14482
концепции 14479
актёра 14477
турниров 14475
опира@@ 14473
серти@@ 14473
ВИ@@ 14471
занимались 14471
Илья 14469
Сухо@@ 14469
Яковлевич 14468
использовании 14468
теме 14465
характеризу@@ 14465
125 14463
Египта 14462
важных 14457
вета 14457
опол@@ 14455
облож@@ 14452
Дону 14451
Спар@@ 14450
шева 14449
эли@@ 14446
ани@@ 14445
зай@@ 14445
рови@@ 14444
захватил 14443
страи@@ 14443
знаком 14442
Политическая 14439
просмот@@ 14439
независимо 14438
Таджи@@ 14436
сотрудничество 14436
называлась 14433
стихов 14433
изделий 14431
помещения 14431
ГУ@@ 14429
официальной 14428
сказать 14427
рабочий 14426
сочинений 14426
Никола 14424
занятия 14423
серебряную 14422
кримина@@ 14419
союзников 14417
Дона@@ 14416
РП 14414
Свет@@ 14414
академик 14413
Love 14408
недавно 14408
вниз 14405
севернее 14403
низу 14401
мужской 14397
Работа 14395
Успе@@ 14395
теран@@ 14391
атах 14390
база 14387
словами 14387
финансов 14387
кают 14386
ствование 14386
вающий 14385
заи@@ 14381
спон@@ 14380
Q@@ 14377
выступали 14377
Красная 14376
предоста@@ 14373
хорват@@ 14372
Док@@ 14370
даль 14369
картине 14369
el@@ 14367
немедленно 14367
эстафете 14367
Насел@@ 14365
Меди@@ 14363
самоуправления 14361
Деятельность 14360
улицу 14360
Пьер 14359
архиепископ 14359
тинского 14354
Дети 14351
возоб@@ 14351
трет@@ 14351
дки 14348
съёмки 14345
Евгения 14342
уничтожил 14342
аренды 14340
судно 14340
Шам@@ 14337
гам@@ 14337
другу 14335
деятелей 14327
сооружений 14327
Администра@@ 14322
диссерта@@ 14314
заповед@@ 14314
видение 14310
достигла 14309
350 14307
ель 14307
напада@@ 14306
встрече 14305
льница 14303
неодно@@ 14301
услуги 14301
СК@@ 14299
предметов 14298
комик@@ 14295
литера@@ 14295
Хра@@ 14293
ролей 14292
чих 14291
навод@@ 14289
Аэро@@ 14288
пулем@@ 14287
трудов 14287
ссий 14284
иеро@@ 14283
собрал 14275
представителем 14274
учителя 14274
ic@@ 14273
чкой 14273
жителями 14271
опубликован 14271
семинарии 14270
онер@@ 14269
оре 14269
душ 14267
жами 14267
губернатором 14266
формат@@ 14266
нала@@ 14264
поведение 14261
1800 14260
Семи@@ 14260
количеству 14260
28@@ 14258
ПК 14258
граница 14258
инструментов 14255
лке 14254
ленно 14250
дис 14247
Днепропетро@@ 14244
блока 14244
металлурги@@ 14243
Закон 14241
готовил 14240
такая 14240
немцы 14238
являлось 14238
12,@@ 14236
упразднён 14236
комедии 14234
романе 14234
крупного 14229
неф@@ 14228
обвинения 14228
обстанов@@ 14226
вши@@ 14225
подве@@ 14225
родом 14225
Вашингтон 14224
Смоленской 14221
пострада@@ 14221
использовалась 14216
изуч@@ 14215
Производство 14212
кера 14212
преобразован 14211
ставший 14208
Много@@ 14207
ближе 14207
зам 14207
кову 14206
источник 14202
учёбы 14201
существовала 14197
власт@@ 14193
основатель 14192
тиков 14192
мероприятия 14191
разрешения 14191
построить 14190
Византи@@ 14189
Рок@@ 14189
фильму 14189
08 14188
Ибра@@ 14187
уль@@ 14187
необ@@ 14186
готов 14185
Восточно 14178
левых 14178
границах 14174
семьёй 14173
пещер@@ 14171
сдел@@ 14169
четы@@ 14169
Богда@@ 14167
Команда 14167
Центральный 14167
возникла 14167
возвышенности 14166
лейтенан@@ 14165
желание 14162
продю@@ 14162
Дмитрия 14161
приобрёл 14161
эля 14161
собственно 14160
04 14159
Вооружённых 14157
белого 14157
мба@@ 14157
инженера 14155
служили 14155
Пушкина 14153
водохранилища 14153
пале@@ 14153
хищ@@ 14152
появление 14151
юниор@@ 14151
допуска@@ 14147
статья 14145
взвода 14144
границей 14144
системати@@ 14143
композитора 14141
Обу@@ 14139
портрет 14139
105 14137
Смерть 14137
INSEE 14136
культур 14136
Екатерины 14133
Виктора 14132
говых 14132
желу@@ 14132
заканчи@@ 14132
молодого 14131
направи@@ 14127
Груп@@ 14126
друж@@ 14125
горах 14124
рейтинге 14123
бизнеса 14122
самбле@@ 14121
обл 14119
современные 14119
зачёте 14118
Нижний 14117
повести 14116
переулок 14115
золота 14111
АС@@ 14110
идею 14110
действуют 14109
конкурс 14109
водят 14108
имущества 14106
ллера 14106
прибре@@ 14106
приз 14103
поселений 14102
степной 14101
присутствует 14100
Польша 14098
мага@@ 14097
мысли 14097
Синг@@ 14094
фундамента@@ 14092
девушка 14091
задача 14085
Матве@@ 14084
обеспечение 14083
05 14082
мени 14081
мигран@@ 14079
казом 14078
Казани 14070
произошла 14068
статуса 14066
малых 14065
тельные 14064
альбомом 14062
турецкой 14062
циона@@ 14061
Брат@@ 14060
Каро@@ 14059
Гарри 14058
Пана@@ 14057
Вест@@ 14053
Тверской 14050
церквей 14043
шле@@ 14042
Эле@@ 14041
Меж@@ 14039
бери 14039
совхо@@ 14036
тис 14035
версий 14033
лик@@ 14032
адмирала 14031
Мето@@ 14030
борьба 14030
становился 14029
двигателей 14028
неж@@ 14028
представителями 14028
календар@@ 14024
сценарий 14022
Майк@@ 14021
Мала@@ 14021
дное 14021
льскую 14018
специальные 14018
страда@@ 14015
рассказ 14014
губ@@ 14012
предупре@@ 14012
щину 14012
голосования 14009
газе@@ 14007
удив@@ 14005
депутат@@ 14002
федерального 14002
сереб@@ 14001
вмешате@@ 14000
несён 13999
тат 13999
упразд@@ 13999
привести 13998
капитаном 13997
сели@@ 13996
бя@@ 13995
лига 13995
ВМС 13994
блестя@@ 13992
масшта@@ 13991
хвосто@@ 13989
Вод@@ 13988
крае 13988
консервати@@ 13987
подобного 13986
сина 13984
тёмно 13984
бру@@ 13983
тёп@@ 13980
йну 13978
королевы 13978
религи@@ 13977
нибудь 13976
согласо@@ 13975
1857 13974
неров 13974
Гэ@@ 13973
аниме 13973
Вз@@ 13971
лили 13971
14@@ 13969
Сегодня 13966
образуют 13965
другую 13964
хара 13964
ког@@ 13961
социального 13961
Кристи@@ 13959
жался 13959
11,@@ 13957
оранже@@ 13954
Крем@@ 13953
гоно@@ 13953
топоним 13953
реабили@@ 13952
дино@@ 13951
присвое@@ 13947
управлении 13945
художественного 13943
11.@@ 13941
Корне@@ 13939
приспособ@@ 13939
Уру@@ 13935
диска 13934
сделали 13934
сочинения 13934
характеризо@@ 13934
моменту 13932
флага 13932
заре@@ 13931
летий 13931
рину 13929
творчестве 13928
ущер@@ 13926
Южный 13925
определить 13924
тью 13923
подчер@@ 13922
тация 13922
термо@@ 13920
яро@@ 13918
посет@@ 13917
совете 13915
лз 13913
образована 13913
увиде@@ 13913
иконы 13912
природе 13909
m@@ 13906
Парла@@ 13905
написа@@ 13905
средних 13905
фикси@@ 13904
предметы 13903
Предполага@@ 13902
Извест@@ 13899
опять 13897
лато@@ 13895
нидерланд@@ 13893
пам 13890
J 13888
отряды 13888
попытался 13887
окси@@ 13885
воинов 13884
Рот@@ 13879
Иосиф 13877
обучался 13877
фестива@@ 13874
инский 13873
рациона@@ 13872
профессионального 13871
гы@@ 13869
02 13865
костью 13863
формой 13863
шат@@ 13862
техника 13861
лидер@@ 13859
приду@@ 13858
чемпионка 13858
отря@@ 13850
галакти@@ 13849
ведущий 13847
подход 13846
сколь@@ 13845
Перу 13843
ур 13843
ковыми 13842
мужчина 13842
ительства 13841
музыкант 13838
надпись 13838
лар 13837
изучению 13835
свобо@@ 13835
ввиду 13833
жок 13833
зону 13833
неожиданно 13833
социация 13832
гено@@ 13830
современный 13828
занять 13825
Яко@@ 13824
охла@@ 13824
Мастер 13822
емыми 13821
отрица@@ 13821
граничит 13818
Тома@@ 13813
адре@@ 13813
местном 13813
интересы 13811
аппарат 13808
диск 13806
тюрьму 13806
упоминание 13804
описания 13797
похи@@ 13795
сена@@ 13791
шири@@ 13789
рыбо@@ 13788
Заха@@ 13786
18,@@ 13785
влюб@@ 13784
ею 13784
мастеров 13783
властью 13782
посмертно 13782
Каме@@ 13780
Ch@@ 13778
художественных 13775
возможным 13772
жит 13772
промежуточ@@ 13772
беремен@@ 13771
Грод@@ 13770
Станция 13767
подлин@@ 13766
располагался 13762
хит@@ 13762
Фла@@ 13761
Мест@@ 13760
жье 13760
ночи 13758
градского 13753
произошед@@ 13750
отноше@@ 13747
серебряный 13743
осман@@ 13741
Исла@@ 13737
дополнительные 13735
провер@@ 13735
пого@@ 13732
тюрьмы 13731
левому 13728
лидера 13728
немецкие 13726
папа 13726
сит 13726
Йор@@ 13725
Хоро@@ 13720
двиг 13717
траге@@ 13712
исторические 13708
Re@@ 13707
очка 13707
прилега@@ 13706
опубликована 13705
передо@@ 13705
АК 13703
архиеписко@@ 13702
генеральный 13702
населённого 13700
Такие 13697
помощник 13697
Фан@@ 13696
Фра@@ 13695
Нижняя 13693
Hot 13692
бол@@ 13692
тяжёлой 13691
Анджелесе 13690
Да 13690
лениям 13690
неизвестно 13690
клуб@@ 13688
офице@@ 13688
дец 13687
немец@@ 13687
меда 13685
центрального 13685
зали 13683
Герман@@ 13682
Суво@@ 13682
требова@@ 13682
дожд@@ 13681
Фро@@ 13680
бесс@@ 13679
соединений 13678
хим 13678
идей 13677
изве@@ 13674
тины 13674
ап@@ 13673
коллекти@@ 13672
ченным 13672
шевского 13669
4,5 13667
диску@@ 13664
еврейской 13660
сбли@@ 13658
лины 13656
хранения 13655
изучение 13654
выпущенный 13652
Первого 13651
хам@@ 13648
женная 13646
национальном 13645
предска@@ 13644
дебютный 13642
мари@@ 13642
состоят 13642
веб 13636
Работы 13634
предложения 13634
март 13632
перевоз@@ 13630
странами 13630
лле 13629
Луис 13628
r@@ 13625
создали 13625
зывая 13623
законов 13622
льника 13621
Азербайджанской 13620
переговоров 13620
селения 13614
груп@@ 13613
Статус 13611
жном 13607
дое 13605
игроки 13605
согласи@@ 13605
хран@@ 13605
отро@@ 13604
чёв 13604
Флорен@@ 13603
менко 13600
способом 13599
импуль@@ 13598
музыканты 13597
Конституции 13591
шах 13589
ассистен@@ 13588
данная 13585
ционную 13583
ревизи@@ 13582
растение 13581
стати@@ 13578
другая 13577
Иван@@ 13576
пка 13574
сде@@ 13571
запас 13570
1855 13569
27@@ 13568
позиций 13568
движ@@ 13565
раннего 13565
фен@@ 13565
Узбекистана 13562
Христо@@ 13562
фру@@ 13562
Русского 13561
прив@@ 13561
боров 13559
льд@@ 13558
Третий 13557
быст@@ 13556
дорогу 13556
езде 13556
атый 13550
искусстве 13550
Думы 13548
ВМФ 13547
ете 13547
Востоке 13546
ническим 13546
успехи 13546
щё@@ 13546
стры 13545
Ск@@ 13543
яи@@ 13540
иначе 13538
продолжали 13538
v@@ 13533
обнаружил 13533
четвёртый 13532
проявленные 13528
дзю@@ 13525
Кю@@ 13523
арген@@ 13519
гиль@@ 13519
сезон@@ 13519
j@@ 13517
гиб@@ 13517
довое 13515
фин 13510
дзи 13509
земля 13508
льников 13508
испытаний 13507
ловича 13507
оружием 13506
поколе@@ 13506
поряд@@ 13504
участки 13502
один@@ 13498
Амур@@ 13495
шей@@ 13495
цели@@ 13493
нера@@ 13492
плаз@@ 13491
Дай@@ 13490
Иоганн 13489
пришла 13487
en 13486
реперту@@ 13486
зур@@ 13484
опубликованы 13484
воздушной 13483
графов 13483
спла@@ 13482
связей 13479
узла 13478
Апол@@ 13476
Бога 13475
бак@@ 13475
инспе@@ 13475
Председате@@ 13472
англ 13468
матика 13467
Архангель@@ 13464
Патриар@@ 13464
зачастую 13464
отдельной 13464
зать 13461
25@@ 13459
тара 13459
художеств 13458
Гот@@ 13456
гром@@ 13456
неве@@ 13455
испанский 13454
Министров 13453
900 13451
держится 13451
найдены 13450
Генерал 13447
вокали@@ 13446
Нидерланд@@ 13444
министерства 13442
новок 13441
удаётся 13441
Гле@@ 13440
зацию 13440
критике 13436
гим@@ 13432
жества 13432
Мир 13430
сун@@ 13430
цена 13430
Англи@@ 13428
исче@@ 13425
жанра 13424
административному 13423
Хорватии 13421
командующим 13417
адрес 13413
Ито@@ 13411
ывали 13408
государством 13407
обру@@ 13407
атаку 13406
ветви 13406
словно 13404
ляя 13402
нар 13402
Грин@@ 13401
Афгани@@ 13397
Бориса 13397
вырос 13397
оставля@@ 13396
ленко 13394
урав@@ 13391
Постановлением 13390
ствующих 13389
эмигри@@ 13389
Маха@@ 13387
кратер 13387
летнем 13383
биты 13382
Entertainment 13381
капиту@@ 13378
китайской 13378
астеро@@ 13375
Канада 13373
Нижне@@ 13371
текстов 13370
Бота@@ 13368
челю@@ 13364
1849 13360
сказа@@ 13360
Человек 13359
рави@@ 13359
скро@@ 13359
Дис@@ 13358
Спартак 13358
породы 13358
1829 13356
Чар@@ 13356
высокую 13355
промышленных 13355
боже@@ 13353
определение 13353
военнослужащих 13352
поведения 13352
Тюмен@@ 13350
просит 13348
Me 13347
девушки 13345
сыну 13345
факты 13345
берг@@ 13344
назем@@ 13344
h 13343
Марка 13342
чатые 13340
взаимодействия 13338
традиционно 13333
давление 13331
разработал 13331
принадлежал 13329
точек 13329
советов 13327
сотрудни@@ 13324
господ@@ 13319
батареи 13318
митрополит 13315
ёра 13312
Моро@@ 13310
ами 13310
смертью 13309
бар 13308
участво@@ 13308
попытка 13307
тские 13307
6,@@ 13304
отличия 13303
фрак@@ 13301
Тон@@ 13297
Граждан@@ 13295
тракто@@ 13293
выставка 13292
тема 13292
зар 13287
принадлежав@@ 13286
вку 13284
уступил 13283
грун@@ 13282
нашли 13282
уйти 13282
кубок 13280
атели 13278
мече@@ 13277
фера 13277
Бю@@ 13275
умира@@ 13271
ткани 13268
Пресвятой 13263
кадров 13262
Дву@@ 13261
Григо@@ 13259
исполнил 13259
Исполь@@ 13258
водя@@ 13256
прор@@ 13256
жер@@ 13254
славя@@ 13254
функция 13254
Закон@@ 13253
Армян@@ 13252
лошадей 13251
жертв 13250
представление 13250
производится 13250
ере 13248
заняв 13246
прием@@ 13246
течения 13246
испо@@ 13242
кторы 13242
Бла@@ 13241
l@@ 13240
Сре@@ 13240
Чемпион 13238
подал 13237
Управление 13236
новения 13236
тщате@@ 13236
Времен@@ 13232
инской 13231
красного 13231
обитания 13231
вещания 13229
вирту@@ 13229
мотивам 13228
06 13227
Вене 13222
изменение 13221
друже@@ 13220
Цент@@ 13218
Новые 13215
Лью@@ 13213
Липе@@ 13212
Принимал 13208
гарни@@ 13208
Динамика 13203
вица 13203
оставить 13201
немецкими 13200
кандидатскую 13195
стере@@ 13195
вная 13194
испытате@@ 13194
Астрахан@@ 13188
26@@ 13186
единицы 13186
переименова@@ 13185
жих 13184
пейза@@ 13179
Художе@@ 13176
работник 13176
письме 13175
регионах 13175
Петербургского 13172
перекры@@ 13172
продли@@ 13172
буд@@ 13171
Бой@@ 13170
Ирана 13170
гомосексу@@ 13170
представляли 13168
снабжения 13163
Мексики 13162
става 13161
Верхне@@ 13159
TV 13157
сите@@ 13156
codice 13152
Мише@@ 13152
равни@@ 13152
мероприятий 13149
or 13148
Уч@@ 13148
продемонстри@@ 13148
констру@@ 13147
сравнительно 13146
ЕС 13145
императри@@ 13144
отыгра@@ 13144
Четы@@ 13141
el 13138
переправ@@ 13138
жала 13137
логических 13137
землетря@@ 13135
яйце@@ 13135
кине 13134
индустри@@ 13133
армий 13129
Хуан 13128
Леон@@ 13124
закрыт 13123
перви@@ 13123
карти@@ 13122
перене@@ 13122
Новгородской 13117
Риг@@ 13115
мю@@ 13114
ремонт 13113
ющееся 13108
Александром 13107
облег@@ 13107
Днепр 13105
лири@@ 13103
перечислен@@ 13102
сотрудничестве 13102
рене@@ 13098
учёбу 13098
найден@@ 13096
обслуживания 13096
священник 13096
Всеволо@@ 13093
заданий 13093
авторите@@ 13092
лакти@@ 13092
Чехословакии 13091
палаты 13090
столицу 13090
Классификация 13089
жском 13088
гс 13085
отъ@@ 13085
поддерживает 13085
Британской 13084
Кап@@ 13084
Распо@@ 13084
Стефа@@ 13083
сский 13083
отказаться 13081
нологии 13080
бека 13079
вещи 13079
достовер@@ 13079
хина 13078
режисс@@ 13074
обращение 13073
Особ@@ 13072
строить 13072
торами 13071
опыта 13070
заболевания 13069
правед@@ 13068
башня 13067
ционном 13066
Отто 13064
Сталина 13061
этими 13061
Народной 13060
сохранилось 13058
Турк@@ 13056
единственной 13056
аторов 13054
перепи@@ 13054
контин@@ 13053
ывала 13051
ьёв 13051
Моги@@ 13049
даты 13049
рождение 13049
метрии 13047
Победы 13046
актёров 13046
прихо@@ 13043
больнице 13041
РС@@ 13040
низация 13040
штейна 13039
Шевченко 13038
суде 13038
оставив 13036
близости 13032
Рима 13030
сердца 13030
тям 13030
Times 13027
британских 13026
учётом 13026
экземпля@@ 13025
ате 13024
варда 13024
любого 13024
Брэ@@ 13023
него@@ 13023
Соревнования 13022
милиции 13022
пребы@@ 13021
департа@@ 13018
цветов 13018
сферы 13014
хами 13013
муниципалите@@ 13011
тинг 13011
кци@@ 13010
Хмельни@@ 13006
Крон@@ 13004
кули@@ 13004
называемый 13004
заметно 13002
превышает 13002
La 13001
предыдущих 13001
Юрия 13000
ава@@ 13000
песней 12999
трех@@ 12999
гун 12997
замены 12997
бс 12996
страна 12995
15,@@ 12994
испове@@ 12992
усилия 12992
Отли@@ 12989
переселе@@ 12989
отва@@ 12988
машина 12987
рот 12986
Латви@@ 12985
вечер@@ 12985
законом 12985
поезд 12985
расположенных 12985
ренно 12985
сцен@@ 12985
холо@@ 12985
гают 12984
влаж@@ 12982
наблюдается 12982
оппозиции 12982
ренный 12982
демоби@@ 12980
дёт 12979
Патри@@ 12978
Том 12978
ситуа@@ 12975
расширя@@ 12974
нан 12973
зритель@@ 12970
железная 12968
лесах 12966
лесу 12964
позволяют 12964
схват@@ 12964
чрезвычайно 12964
or@@ 12963
Кристо@@ 12960
емом 12960
стойчи@@ 12956
Двор@@ 12955
Башкир@@ 12953
резо@@ 12953
1854 12952
группами 12952
главно@@ 12951
особого 12951
чувств@@ 12950
Новое 12946
патрио@@ 12944
снял 12943
куб@@ 12942
школах 12941
Будапеш@@ 12936
Джорджа 12933
гражданских 12933
государственные 12928
упор@@ 12927
французском 12925
душу 12923
планировалось 12923
привела 12921
глубине 12920
мероприя@@ 12919
der 12917
выходил 12917
1853 12916
Поз@@ 12916
Суще@@ 12911
метода 12910
Восток 12908
авиационный 12908
гражданского 12908
приём@@ 12908
навы@@ 12904
ковое 12901
тексты 12901
Вселе@@ 12897
Максима@@ 12894
грузки 12893
ванное 12891
изготавли@@ 12890
существовало 12890
захватили 12888
гут 12887
Бела@@ 12881
кистана 12881
согласился 12881
терапии 12881
госпо@@ 12878
мюзи@@ 12878
насекомых 12878
палу@@ 12877
футбольной 12877
вита@@ 12876
монии 12876
йд 12873
общих 12873
американским 12870
чала 12867
ясно 12865
задачей 12864
вторжения 12862
Рес@@ 12861
оценке 12861
кове@@ 12860
Вместо 12856
старого 12856
итальянского 12853
подразделений 12853
динг 12852
купи@@ 12851
выпущено 12850
Аргентины 12848
емо@@ 12847
тим 12847
Внутрен@@ 12842
тивное 12842
правому 12840
ровок 12840
несен@@ 12839
отправляется 12837
Лё@@ 12836
молекуляр@@ 12836
обороне 12835
Ель@@ 12833
образованием 12833
лор 12832
плот@@ 12831
трассе 12831
шись 12831
сана 12830
украинских 12830
вытяну@@ 12828
тового 12826
кия 12824
щают 12822
документах 12820
зоо@@ 12820
задержа@@ 12819
горе 12815
детских 12815
структур@@ 12815
фия 12813
Фридриха 12812
тече@@ 12811
считался 12809
инженером 12806
заявила 12805
Ог@@ 12804
жную 12804
заседании 12803
назначение 12803
40@@ 12800
CD 12798
Лондон@@ 12798
Лис@@ 12796
Колумбии 12793
прокура@@ 12792
тормо@@ 12791
весовой 12789
справа 12789
земля@@ 12788
ВО 12786
решила 12783
смот@@ 12783
попытку 12780
английской 12779
ливо@@ 12777
цер@@ 12776
присоедин@@ 12774
ерс 12773
РП@@ 12772
сердце 12769
существовал 12768
рядах 12767
брать@@ 12766
Могилё@@ 12762
дело@@ 12761
стия 12760
.-@@ 12757
татах 12757
зрев@@ 12753
срока 12753
диссертации 12751
постоянной 12749
фаши@@ 12749
разработку 12748
Количество 12747
возможных 12747
укры@@ 12747
ату 12746
Соко@@ 12745
саунд@@ 12745
сбора 12745
голоса 12743
молодёжной 12743
офицера 12740
коно@@ 12739
подобные 12739
репу@@ 12736
адап@@ 12735
Константина 12733
Центральная 12733
доля 12733
Советов 12730
посред@@ 12727
северо@@ 12726
шев@@ 12725
американцев 12724
Англия 12722
Бюро 12721
ica 12719
строен 12718
Великая 12717
заключил 12716
вычисли@@ 12715
доче@@ 12715
млекопита@@ 12714
железных 12713
шал@@ 12713
лучшую 12712
Господ@@ 12710
военная 12710
Абха@@ 12709
Викторович 12707
графической 12707
Евре@@ 12706
образовании 12705
принадлежат 12705
выиграть 12703
расположение 12703
симметри@@ 12702
жке 12701
королевской 12700
попадает 12699
разы@@ 12699
основная 12698
окруж@@ 12696
серви@@ 12695
едва 12694
минуты 12693
просьбой 12693
Энер@@ 12691
выбро@@ 12691
мастерской 12691
бесконе@@ 12689
Западная 12686
Россией 12686
Симферо@@ 12686
аргу@@ 12686
13@@ 12685
ительница 12682
Сборная 12680
анных 12678
ребён@@ 12677
юниоров 12677
газ 12674
Испа@@ 12673
Мати@@ 12673
рили 12673
переходит 12672
распространены 12672
регистра@@ 12672
Габри@@ 12671
подчиня@@ 12670
Неф@@ 12668
Ази@@ 12664
услы@@ 12664
шенных 12664
Вячеслав 12663
практики 12663
мата 12662
напол@@ 12661
попали 12660
Шве@@ 12659
en@@ 12658
пожа@@ 12658
Курган@@ 12655
Советский 12654
представил 12654
степ@@ 12654
дации 12653
лицом 12652
сие 12652
симпто@@ 12652
врача 12649
серий 12649
спасти 12649
Форму@@ 12647
иных 12645
Япон@@ 12644
рский 12641
псевдонимом 12638
троллейбу@@ 12633
орбит@@ 12632
солдаты 12631
войско@@ 12629
почему 12628
Виктория 12627
Битва 12623
сегодняшний 12623
значительную 12622
иерар@@ 12622
лаго@@ 12620
говая 12619
частями 12618
сентябрь 12617
Матери 12616
беге 12616
колеба@@ 12616
ракет 12616
действовали 12615
развитием 12614
трон 12613
общую 12612
щиеся 12612
16,@@ 12611
учёные 12611
меньшей 12609
базу 12608
выйдя 12606
прер@@ 12606
член@@ 12606
юно@@ 12606
вавшие 12603
хам 12603
ФРГ 12599
известными 12599
пассажи@@ 12599
руководителей 12599
позна@@ 12598
конфи@@ 12596
дую 12592
Минск 12590
возникает 12589
сражение 12584
забра@@ 12583
Дома 12582
авиационной 12581
чёрный 12580
казате@@ 12571
летие 12570
содержат 12570
классу 12569
Виталий 12567
Констан@@ 12567
Ташкен@@ 12567
захватить 12566
Гё@@ 12565
лейбле 12565
al@@ 12563
успел 12563
камень 12562
скота 12562
наты 12561
основанный 12559
голос 12555
подразделение 12554
Млад@@ 12552
поез@@ 12552
журналистов 12550
жская 12549
праве 12548
бища 12546
метал 12546
Лоу@@ 12545
ведя 12545
принц 12545
Старший 12544
сат@@ 12543
инвали@@ 12541
разруш@@ 12541
станской 12541
слабы@@ 12539
возник 12537
высад@@ 12537
Им 12535
МО@@ 12535
улицей 12534
Малая 12533
онлайн 12533
Пь@@ 12531
передать 12531
Османской 12530
5000 12527
старой 12525
серебро 12521
учиться 12521
разновид@@ 12520
скоп 12517
Япония 12515
загряз@@ 12515
общине 12515
серебряным 12514
отказались 12510
Административное 12507
одноимённого 12507
происходя@@ 12507
просвет@@ 12505
группировки 12504
журналов 12504
народный 12503
Московская 12501
Иоан@@ 12499
Метал@@ 12498
спектра@@ 12498
Стру@@ 12497
скоростью 12497
Систе@@ 12496
эмоциона@@ 12496
горь@@ 12495
совых 12495
польских 12494
помогает 12493
эф@@ 12493
Маро@@ 12492
жюри 12490
уво@@ 12488
бронзовый 12487
оккупа@@ 12487
стыми 12487
принцип 12485
Англию 12484
рейтинг 12484
уходит 12483
эпизодов 12481
палат@@ 12479
сознания 12478
Ии@@ 12477
Джеймса 12476
оч@@ 12476
ответственность 12475
заявление 12474
верх 12473
лизация 12473
неже@@ 12473
Ленинграда 12471
Ште@@ 12469
рованными 12469
слева 12468
Скотт 12467
композиция 12467
хово 12467
ави@@ 12465
главные 12465
Жю@@ 12464
городское 12464
ющимися 12464
души 12463
общин@@ 12463
Сель@@ 12462
популярной 12460
аспек@@ 12459
обладают 12457
виль 12456
публикаций 12454
статистический 12453
усло@@ 12452
лечеб@@ 12450
играют 12449
Юли@@ 12448
1852 12447
миль@@ 12442
равна 12442
сахар@@ 12442
смен 12441
оки@@ 12440
учреждение 12440
Неа@@ 12438
вуд 12438
прито@@ 12437
фильмом 12437
японский 12437
спортивных 12436
изы 12434
символом 12434
in@@ 12432
тюре@@ 12432
фракции 12432
ключ@@ 12430
продукты 12430
исполнителей 12429
привлек@@ 12429
директоров 12428
еле@@ 12428
сверху 12428
медици@@ 12427
патро@@ 12427
лондон@@ 12425
фии 12425
Расположено 12424
1820 12422
акту@@ 12422
предвод@@ 12422
императором 12421
разным 12421
бойцов 12420
секции 12420
неактивных 12419
месте@@ 12418
наль@@ 12418
журналах 12416
сосредоточ@@ 12415
взяли 12414
магистра 12414
сохранения 12412
чники 12410
одиночном 12406
ориента@@ 12406
самолёты 12406
ствующие 12406
Теперь 12403
немецком 12403
1842 12400
жаются 12400
оппози@@ 12398
фабрики 12398
евская 12397
привёл 12397
вас 12392
ленном 12390
свободного 12389
сыр@@ 12387
Пове@@ 12383
казачь@@ 12381
ковка 12381
дев 12378
ографии 12378
дта 12373
царства 12373
отдельно 12371
Лор@@ 12369
варьи@@ 12369
июль 12368
изображением 12365
ист@@ 12363
созы@@ 12363
Голь@@ 12361
вени@@ 12361
выдающиеся 12361
сельском 12360
благодар@@ 12359
нять 12359
англо@@ 12357
идеологи@@ 12357
истока 12355
ховского 12355
лливу@@ 12353
заменя@@ 12348
назывался 12345
взаим@@ 12343
делится 12343
немецким 12343
поступила 12343
качество 12342
Род 12341
шкин 12339
Кировской 12336
песне 12336
Звезды 12335
as 12333
диаметром 12333
пина 12333
скопи@@ 12333
христи@@ 12332
дз@@ 12330
Джованни 12327
лекси@@ 12326
мнения 12325
назвали 12322
рыбы 12322
баллов 12320
кинского 12320
располагались 12320
американцы 12319
сути 12318
двою@@ 12317
мигрантов 12317
привя@@ 12317
Край@@ 12316
оча@@ 12315
Ким 12314
льна 12314
прокуро@@ 12311
ительном 12310
тях 12310
Структура 12309
десятков 12308
рун@@ 12306
Остров 12305
доба@@ 12301
игрой 12301
ляться 12299
теорию 12299
титула 12299
варь 12298
маться 12297
суди@@ 12296
верши@@ 12295
дерево 12295
поддерживал 12294
министер@@ 12293
видеть 12292
встречу 12292
стских 12291
вои@@ 12290
шка@@ 12290
пород 12289
современном 12288
прозвище 12287
Джонс 12285
Имя 12285
Франциско 12285
нино 12285
чному 12284
кури@@ 12283
подполь@@ 12282
Чарль@@ 12281
Общие 12278
жаться 12277
намного 12277
заимство@@ 12276
чисел 12276
представителя 12274
Досто@@ 12273
барабан@@ 12273
освобождён 12273
пенсионерами 12272
флоти@@ 12271
натов 12270
официального 12268
приказом 12267
пал 12266
1834 12264
отры@@ 12264
избирателей 12259
оттуда 12259
Роб@@ 12258
колё@@ 12255
фаса@@ 12255
Горького 12254
первыми 12253
Вну@@ 12252
Шей@@ 12252
легендар@@ 12251
нарушения 12249
легкоат@@ 12247
новская 12247
образованию 12247
послан@@ 12247
Солов@@ 12244
кристаллы 12244
контролем 12243
Алма 12240
пример 12240
ярко 12239
ступлении 12236
фигуры 12236
политическая 12235
промышленность 12234
Ори@@ 12233
февра@@ 12232
адво@@ 12230
таун@@ 12228
древе@@ 12227
Павлов@@ 12226
размеров 12226
прошлого 12224
счан@@ 12224
стина 12220
прида@@ 12219
Егип@@ 12217
наши 12217
четырьмя 12217
исполни@@ 12216
отказ 12215
частной 12215
годно 12214
ёл@@ 12214
итальянской 12213
ровой 12212
слой 12212
органа 12210
мурав@@ 12207
свин@@ 12207
строи@@ 12207
иско@@ 12206
лице 12205
Молдавии 12204
широкое 12203
Король 12200
крестьянских 12200
железнодорожного 12198
Республи@@ 12197
Microsoft 12196
алфав@@ 12193
расте@@ 12193
НХЛ 12191
ЮАР 12191
иной 12190
тяж@@ 12190
Продолж@@ 12186
вселе@@ 12186
дворце 12185
нс 12185
бке 12183
образца 12183
170 12182
Испания 12182
оглы 12182
вещание 12181
Крыму 12180
напоминает 12179
Препода@@ 12178
купил 12177
Продол@@ 12176
мили 12175
полуфинале 12171
тони 12171
щуюся 12168
мов@@ 12167
чечен@@ 12166
местность 12165
14,@@ 12162
тину 12162
Бернар@@ 12161
социа@@ 12161
рийского 12159
сезо@@ 12158
Запа@@ 12156
Комсомо@@ 12155
Company 12154
формации 12154
профессиональной 12151
чай 12151
возгла@@ 12147
Ата@@ 12145
вке 12145
геральди@@ 12145
десятилетия 12145
емость 12145
формате 12145
всемир@@ 12144
сюжета 12143
химических 12142
Свято@@ 12141
сельскохозяйственных 12141
35@@ 12139
написаны 12138
Уча@@ 12137
разработа@@ 12134
Франк@@ 12133
СНГ 12131
князей 12131
1814 12130
газет@@ 12127
Западном 12126
Бл@@ 12125
тике 12125
каким 12123
супруги 12123
районом 12122
римского 12122
ристов 12120
См. 12119
скульптуры 12119
Ж 12118
бывшая 12118
курор@@ 12118
технике 12118
кризиса 12117
полномочия 12116
биологии 12114
хау@@ 12113
Киева 12112
проходя@@ 12111
ослож@@ 12110
Вороне@@ 12108
плён@@ 12107
получивший 12105
землях 12104
казах@@ 12102
мология 12102
Образо@@ 12099
бывает 12099
местный 12099
нце 12099
1,2 12097
Геннадий 12097
жник 12096
Ивановна 12095
эквивален@@ 12093
личным 12090
МТ@@ 12085
пес@@ 12085
Эф@@ 12084
лост@@ 12082
отрасли 12082
командо@@ 12081
ночных 12081
подчин@@ 12080
оркестр 12079
an@@ 12077
металлов 12076
еврейского 12075
80@@ 12072
сило@@ 12072
Джек 12071
политическим 12070
поступа@@ 12069
робо@@ 12069
восстановить 12068
ёнок 12067
Твер@@ 12066
ницах 12066
спол@@ 12066
Выступа@@ 12065
гос@@ 12065
объединены 12065
слей 12065
справо@@ 12064
One 12062
Примор@@ 12062
Ули@@ 12062
одноимённой 12062
образцо@@ 12057
устройств 12057
процессы 12056
восьми@@ 12055
вь@@ 12055
искусство@@ 12055
уд 12055
яния 12054
ждал 12053
эры 12053
доли@@ 12052
отдал 12050
пехотной 12050
делал 12049
мён 12047
мёрт@@ 12046
механизи@@ 12044
Семёнович 12043
пересели@@ 12040
рын@@ 12040
непода@@ 12038
Сем@@ 12036
вшемся 12036
частиц 12036
принимают 12035
торговых 12035
размно@@ 12033
Филиппа 12032
гард 12032
змом 12032
молодым 12031
Тере@@ 12030
двадцать 12030
Александровна 12028
пациентов 12028
вным 12026
Лиге 12023
Гю@@ 12021
мотор@@ 12020
футболи@@ 12020
1831 12019
бита 12019
значительный 12019
жий 12013
наб@@ 12013
алы 12010
юстиции 12009
Начи@@ 12008
лагере 12008
вагонов 12007
паре 12005
мож@@ 12003
хла@@ 12003
Лон@@ 12002
советника 11999
Авгу@@ 11998
Европу 11997
урожен@@ 11996
Ломоно@@ 11995
танцева@@ 11993
чно@@ 11993
нером 11990
председате@@ 11987
рассказов 11987
быстро@@ 11986
линской 11984
цин 11983
атлетике 11982
зах@@ 11982
ов@@ 11982
обмена 11980
чешу@@ 11980
Дебютировал 11979
ставки 11979
женский 11978
лла@@ 11978
зови@@ 11977
inae 11976
лицен@@ 11975
освое@@ 11975
алю@@ 11972
целя@@ 11970
дзу@@ 11965
драмы 11965
рованную 11965
тогдаш@@ 11965
Тимофе@@ 11964
учебного 11964
обрабат@@ 11962
пии 11961
рд 11961
ошибо@@ 11960
Свердловской 11959
Часто 11959
бера 11959
гини 11957
ланда 11956
каналов 11953
велосипе@@ 11952
кки 11952
Жито@@ 11951
объектом 11950
бара@@ 11947
Особенно 11946
фона 11946
меняется 11945
пригород@@ 11945
суса 11945
Пы@@ 11944
певец 11943
Венесуэ@@ 11942
кор 11942
Узбе@@ 11941
гроб@@ 11941
активной 11940
судей 11939
широколиственных 11939
Индоне@@ 11937
15@@ 11934
высокая 11934
подклю@@ 11934
встретился 11933
Импе@@ 11930
Сибирского 11926
Ростовской 11925
льностей 11925
проектирова@@ 11925
элементами 11925
Тобо@@ 11923
пись@@ 11922
проекте 11921
проведены 11920
создавать 11919
впечат@@ 11918
авари@@ 11917
лосо@@ 11916
сот@@ 11916
ам 11915
руку 11915
Язы@@ 11913
настоящего 11913
НО@@ 11911
шенный 11910
мах@@ 11906
ону 11906
правительстве 11906
чрезвычай@@ 11905
попы@@ 11904
прозра@@ 11904
Фили@@ 11903
бакте@@ 11902
захвата 11901
Баль@@ 11900
Пир@@ 11900
Спас@@ 11899
кафедру 11899
самцов 11898
делега@@ 11897
марка 11897
Апосто@@ 11895
жными 11895
1838 11893
импер@@ 11893
элемент 11893
зем 11891
ово@@ 11890
Анджелес 11889
входи@@ 11887
Вернувшись 11886
набе@@ 11886
Лондо@@ 11885
ябрь 11881
близо@@ 11880
оставалась 11877
вершины 11876
сборных 11876
восстановлен 11873
Гидро@@ 11872
склю@@ 11872
зажи@@ 11870
отсе@@ 11870
прогно@@ 11868
клон@@ 11867
понятия 11867
широкой 11867
анато@@ 11866
бии 11866
Иоган@@ 11865
Кубан@@ 11865
декабрь 11865
приобрела 11863
Наконец 11862
Дель@@ 11861
проло@@ 11859
Владимир@@ 11858
европейского 11857
кой@@ 11857
вдохнов@@ 11856
дочер@@ 11856
небольшая 11853
рующий 11850
50@@ 11848
отдельного 11848
жин 11847
цен 11846
Начал 11845
знает 11845
выез@@ 11844
Действие 11841
зака@@ 11839
Алба@@ 11836
правя@@ 11836
разрабаты@@ 11834
Ун@@ 11827
ворачи@@ 11826
реда@@ 11826
эл 11824
наказания 11823
случи@@ 11820
маты 11818
подсемейства 11817
считая 11817
талан@@ 11817
студент@@ 11814
заканчивается 11812
съёмок 11808
баев 11806
чер 11805
РО@@ 11804
действительности 11804
данное 11803
помощника 11803
Главным 11800
воспользо@@ 11800
являться 11798
Масса@@ 11797
специальной 11797
Казань 11796
нул 11796
назвать 11795
ану 11794
расположенная 11791
Гил@@ 11790
специальный 11790
стона 11789
травя@@ 11789
дебютировала 11787
татар 11785
составило 11784
Моск@@ 11783
генов 11783
ждённых 11781
кана 11780
состоялись 11780
гент@@ 11778
относят 11778
региональных 11777
мное 11776
полномочий 11776
имену@@ 11775
протяж@@ 11775
окна 11772
Еванге@@ 11771
Знач@@ 11770
справ@@ 11768
НК 11765
посели@@ 11765
заводов 11763
увен@@ 11762
НАТО 11761
решить 11761
Монте@@ 11760
терпе@@ 11760
1836 11759
Свердлов@@ 11759
авиационного 11758
голова 11758
находясь 11758
долины 11755
хребта 11755
Степанович 11754
западного 11753
лизм 11750
Использование 11748
сильным 11745
январь 11745
благород@@ 11744
мусульман 11744
широкий 11742
продюсером 11741
публику@@ 11741
повтор@@ 11740
рукопи@@ 11740
Каз@@ 11738
скоро@@ 11738
Давы@@ 11737
почет@@ 11737
ed 11735
спаса@@ 11734
леты 11733
варианты 11732
политическую 11732
уре@@ 11732
Бен 11731
Станислав 11731
My 11730
Лам@@ 11729
СТ@@ 11729
надцати@@ 11725
имму@@ 11724
точку 11724
Стат@@ 11718
коммен@@ 11718
Вра@@ 11715
алов 11715
дже 11715
мелкие 11715
ленными 11714
экстра@@ 11713
лати@@ 11707
статусе 11707
владелец 11706
дало 11704
шель@@ 11703
Российского 11702
выса@@ 11701
поисках 11696
жах 11693
льо 11691
вилл 11689
подчёрки@@ 11689
Солне@@ 11686
Al@@ 11685
шо 11685
Экс@@ 11684
склон@@ 11684
урожд@@ 11684
телевиде@@ 11682
фабрика 11682
Турке@@ 11680
взят 11679
татов 11678
Сос@@ 11676
медицинский 11676
походе 11675
эмиграции 11675
владельцем 11674
гата 11674
Основным 11673
вывод 11672
дюй@@ 11671
жек 11671
мостью 11671
рабов 11669
эконо@@ 11667
Однажды 11663
праздник 11663
подразуме@@ 11662
горского 11661
приговор@@ 11661
лак 11659
Избира@@ 11658
расширения 11655
честве 11654
форм@@ 11652
наций 11650
доступа 11648
ительство 11647
доров 11645
владений 11644
кольцо 11643
ответственности 11643
хон@@ 11643
ЦСКА 11642
убивает 11641
говорится 11639
метре 11639
Кава@@ 11637
рабочие 11637
евать 11633
Томаса 11632
королю 11632
деле@@ 11629
считаются 11629
территориальная 11628
om@@ 11627
Советская 11627
учения 11625
Коммуна 11624
порти@@ 11624
1813 11623
сут@@ 11622
укрепления 11621
Прак@@ 11619
длине 11618
величина 11617
мно 11615
петербург@@ 11614
Михаи@@ 11613
проигры@@ 11612
Йорка 11611
лим@@ 11611
Ar@@ 11610
зывы 11609
неправи@@ 11609
течёт 11608
тирован 11608
увидел 11608
кен 11607
ветера@@ 11605
электронной 11605
фик@@ 11603
западно@@ 11600
хирурги@@ 11600
добави@@ 11599
ченная 11598
1846 11595
типы 11595
восстановление 11593
Католиче@@ 11592
преди@@ 11590
оттен@@ 11589
занимают 11587
лённых 11587
водосборного 11585
племен@@ 11585
кратера 11584
таря 11584
науке 11583
озере 11583
женным 11582
Вероятно 11580
анг@@ 11580
водоё@@ 11580
заболеваний 11579
Эдвард 11578
Академи@@ 11576
съезде 11575
целый 11574
ГО@@ 11571
видами 11571
Ави@@ 11565
славо@@ 11565
Саратов@@ 11563
культурных 11563
Япо@@ 11562
нашёл 11562
настоящий 11561
уте@@ 11560
Западный 11559
Воскресен@@ 11558
Пита@@ 11556
трудно 11556
албан@@ 11553
охо@@ 11552
училась 11552
филиал 11552
дополнительных 11551
нология 11551
правда 11551
шной 11551
Аг@@ 11550
Амери@@ 11550
алле@@ 11549
местным 11549
нологи@@ 11549
отпу@@ 11547
парово@@ 11547
Грузин@@ 11545
Перио@@ 11545
будто 11545
Сон@@ 11544
определяет 11543
домохозяйств 11542
тивным 11540
Юлия 11537
возму@@ 11537
размером 11537
вершине 11536
взгляды 11536
декла@@ 11535
чину 11535
450 11533
вызвал 11533
образа 11533
активность 11531
Димит@@ 11528
Григорь@@ 11524
Италию 11523
Рэ@@ 11523
говое 11523
познакоми@@ 11522
руб 11522
сможет 11522
казаков 11520
некоторыми 11519
бабу@@ 11517
половина 11516
ере@@ 11514
оплат@@ 11514
правого 11514
OS 11513
концертов 11512
тская 11511
нави@@ 11508
ственность 11508
Таврической 11507
ГК 11506
дели 11505
шасси 11504
коротким 11503
защищать 11501
мур 11501
обработ@@ 11501
лённый 11499
получал 11498
американские 11496
нена@@ 11496
касается 11495
An@@ 11494
Вильгельма 11494
ar@@ 11491
имуще@@ 11491
биографи@@ 11489
феода@@ 11489
индустрии 11488
чны 11487
Жене@@ 11486
отре@@ 11486
последняя 11483
ери 11480
ллю@@ 11480
помещении 11479
А. 11478
вращение 11477
Секре@@ 11476
мная 11475
Па 11474
выполнять 11474
новском 11473
зян@@ 11469
окраине 11469
увеличение 11469
войскам 11468
приехал 11468
ядра 11468
Таган@@ 11467
артиллерийского 11466
различным 11465
Винни@@ 11463
венти@@ 11463
прими@@ 11463
Достижения 11462
большими 11462
существовали 11459
кли 11458
общеобразовате@@ 11456
посвятил 11456
популярности 11455
зао@@ 11454
лита 11454
открытый 11454
покинули 11453
тесно 11447
ответил 11446
бул@@ 11445
ьи@@ 11445
юк 11445
щин@@ 11443
била 11438
Существуют 11437
различия 11437
приро@@ 11436
ar 11435
анные 11433
гене 11433
официальном 11433
французским 11433
поездки 11431
яду 11431
миром 11428
прошло 11426
Самый 11425
строительных 11424
Браун 11423
внутреннего 11423
пределы 11423
росло 11421
Tr@@ 11418
задачу 11418
вокзала 11416
супруга 11415
приняло 11412
тельный 11412
явно 11411
Ка 11407
ссией 11407
фан 11407
слежи@@ 11406
ch@@ 11405
МГ@@ 11405
тр@@ 11405
Профессиона@@ 11404
увеличения 11403
хать 11403
химической 11402
Ники@@ 11400
Достопримечательности 11399
выводу 11399
перебро@@ 11399
педагогического 11398
расследо@@ 11397
Подоб@@ 11396
Подчи@@ 11396
шар@@ 11396
бронзовым 11394
Фре@@ 11391
расы 11389
1851 11388
свидетельствует 11387
освобождении 11386
Оз@@ 11385
вину 11385
бакалавра 11383
профессиональных 11383
арки 11382
вское 11381
золотые 11381
реформ 11379
говые 11378
полном 11378
зарубежных 11377
располагалась 11376
МО 11375
чета 11375
тилось 11373
зана 11371
уи 11369
богослу@@ 11368
Брод@@ 11366
Уин@@ 11366
Яна 11364
Клуб 11362
ферен@@ 11361
рийский 11360
тоном 11360
16@@ 11358
несу@@ 11355
ситуацию 11355
течении 11355
берегах 11354
находяще@@ 11353
говоря 11352
хт 11350
Рах@@ 11349
38@@ 11348
командном 11348
пира@@ 11347
1802 11346
Валентин 11346
тович 11346
Правительство 11345
законы 11345
лем@@ 11345
совету 11345
анский 11344
баль@@ 11344
гр 11344
строительного 11344
иллюстра@@ 11342
получение 11341
благоприя@@ 11339
рении 11339
1839 11337
владел 11337
выиграв 11337
открытым 11337
бей 11336
вопросу 11335
Служил 11334
образовано 11333
Ближ@@ 11332
вард 11332
кольца 11332
лодок 11332
наступа@@ 11331
нашего 11331
ехать 11329
Рабоче 11325
измерения 11322
отмени@@ 11322
перевозки 11322
Вера 11321
Ассоциации 11319
Созда@@ 11319
стот@@ 11319
полным 11317
убил 11317
остановить 11314
разобра@@ 11313
Еже@@ 11312
СК 11312
лучшей 11311
основание 11309
Эрик 11308
изготовления 11307
называться 11306
попасть 11306
режиссё@@ 11306
пое@@ 11305
at@@ 11304
Создание 11303
дири@@ 11303
снялась 11299
Елизавет@@ 11298
американском 11298
чника 11298
Корпу@@ 11296
впечатление 11295
аном 11293
крем@@ 11293
Балтийского 11292
конь@@ 11292
российские 11291
Гага@@ 11289
сков@@ 11289
Швар@@ 11288
Олимпиаде 11285
бесе@@ 11285
убийстве 11285
пушки 11282
еву 11281
роду 11281
101 11279
Буэ@@ 11279
Калифорнии 11278
вдох@@ 11278
соли 11278
депре@@ 11277
держание 11274
безработных 11272
детской 11268
изви@@ 11268
сложных 11267
настаи@@ 11266
излучения 11265
заба@@ 11263
пользователей 11262
мему@@ 11260
выполнил 11259
яние 11259
лине 11256
лечение 11254
шины 11254
1847 11253
немецкая 11253
сар 11253
хар 11253
Социалистиче@@ 11252
японских 11252
гала 11251
топ 11250
продолжить 11249
митрополита 11248
1837 11247
Муниципалитет 11247
поедин@@ 11247
лля@@ 11246
плена 11244
шов 11243
бани 11242
отделении 11239
эпизоде 11238
пс 11236
врачей 11235
альпи@@ 11233
йном 11233
наоборот 11233
менно 11232
нев 11231
Плат@@ 11230
доцент 11229
проник@@ 11229
расстрой@@ 11229
уверен@@ 11229
шков 11227
сущ@@ 11226
кожи 11225
Мемо@@ 11222
июнь 11222
равнины 11221
Произве@@ 11219
Участники 11219
1828 11217
спир@@ 11217
Уни@@ 11215
сестрой 11212
Рю@@ 11211
ссом 11211
хромо@@ 11211
Воспитанник 11210
Камчат@@ 11210
дума@@ 11209
мифологии 11209
ниг@@ 11209
ежене@@ 11208
иса 11208
социал 11208
сценарист 11208
Манчестер 11207
мут 11206
спер@@ 11206
19,@@ 11204
август 11203
Азиат@@ 11202
демонстра@@ 11202
факторов 11202
ази@@ 11200
дополнение 11199
Владимирской 11198
апрель 11198
ителю 11195
какое 11195
фта 11194
дебют 11193
набере@@ 11193
ред 11193
Преображен@@ 11192
проживают 11192
паст@@ 11190
сведений 11187
Торонто 11186
недостаточно 11186
очевид@@ 11186
сбро@@ 11186
Чемпиона@@ 11183
фор 11183
Сочи 11182
Грей@@ 11181
дио@@ 11181
мла@@ 11181
тантом 11179
вовсе 11178
Саратовской 11176
кантон 11176
Европейской 11175
дера@@ 11174
тала 11174
драматур@@ 11173
.com 11172
Худо@@ 11170
значе@@ 11169
редактора 11169
машину 11167
двум 11165
простой 11165
опасности 11164
ствуя 11164
предъ@@ 11163
Филадель@@ 11160
поток 11160
спорту 11160
статью 11155
имущество 11152
ор 11152
размеры 11151
Опреде@@ 11150
ol@@ 11148
лар@@ 11148
кафедра@@ 11147
Нови@@ 11144
камеры 11144
чтения 11144
хвата@@ 11143
Джоном 11142
винского 11142
Проце@@ 11140
продолжение 11140
вию 11139
собрании 11138
Водо@@ 11135
постановлением 11134
полиция 11133
сутки 11133
поворо@@ 11132
Q 11130
гара 11130
102 11129
Жер@@ 11129
Епи@@ 11125
дай@@ 11125
энер@@ 11123
будущий 11122
угля 11122
Киргизи@@ 11121
29@@ 11119
сч@@ 11119
перейти 11118
утром 11116
Молда@@ 11113
блока@@ 11113
сибир@@ 11113
колледжа 11111
присутствии 11110
природных 11107
записал 11104
нормати@@ 11104
Тбилиси 11103
Другой 11102
квартира 11102
госте@@ 11101
СО 11100
мэр 11100
сал@@ 11100
говорили 11098
крупной 11098
поддержал 11098
означать 11097
жити@@ 11096
залив 11096
земного 11095
ительными 11095
крестьяне 11095
Роман@@ 11094
операцию 11091
р. 11091
ГПУ 11090
идов 11090
ограничения 11090
ссах 11090
Сици@@ 11089
AS@@ 11088
Константинович 11088
Себа@@ 11088
издана 11088
совме@@ 11088
Ще@@ 11087
продаж 11087
Малой 11085
груди 11085
Шарло@@ 11083
буквально 11083
Профессор 11081
давлением 11081
дислоци@@ 11080
Николаевна 11077
мса 11077
корруп@@ 11075
крово@@ 11075
монет 11075
отличился 11075
правителем 11075
СО@@ 11073
инженеров 11073
ите 11073
ровало 11072
сухопут@@ 11072
разными 11071
Чан@@ 11070
ел 11070
уничтожить 11070
Кино@@ 11065
изящ@@ 11065
столько 11063
монд 11062
разногла@@ 11062
Проис@@ 11061
яще@@ 11060
вшуюся 11059
монастыр@@ 11059
случаи 11058
врагов 11057
хене 11056
зефа 11055
описыва@@ 11054
Людови@@ 11053
мора 11053
тто 11053
Вино@@ 11050
хард 11050
1826 11049
уточ@@ 11049
Ново 11048
принадлежала 11048
драма 11047
зента@@ 11046
низмен@@ 11045
1845 11044
значит 11044
небольшое 11044
така 11043
Краснознам@@ 11042
рет 11041
Число 11040
победой 11039
Жил 11038
Новгород 11038
протя@@ 11037
Аф@@ 11034
карбо@@ 11033
пол 11030
включал 11029
le 11028
бя 11028
местами 11027
Рек@@ 11026
обнаружено 11025
пару@@ 11025
чалось 11025
треть 11024
веса 11023
Ту 11021
читать 11021
Общество 11020
критика 11020
Район 11019
комбинат 11019
уще@@ 11019
сж@@ 11018
дских 11017
утра 11016
Ближай@@ 11015
жилой 11015
плу@@ 11014
совмести@@ 11011
женских 11010
нор 11010
происходят 11009
Украинского 11008
владельца 11008
Франци@@ 11007
Местный 11005
Адам 11002
Тэ@@ 11002
муниципальный 11002
часто@@ 11001
Жур@@ 10999
Кеме@@ 10999
участков 10999
Клин@@ 10998
оруди@@ 10995
тет 10995
рания 10994
мяча 10992
Герман 10991
Средней 10991
учёного 10991
сара@@ 10990
удара 10990
Основными 10988
зел 10988
методом 10988
стья 10988
хоре@@ 10987
Федор 10986
промышленного 10984
ведущим 10983
выпущены 10983
Порт 10982
сской 10982
тамо@@ 10982
Альберт 10981
ливо 10980
Стивен 10979
гка 10979
выше@@ 10978
самок 10976
Ради@@ 10975
гитлеров@@ 10974
имеющих 10969
стической 10969
Искус@@ 10968
ленин@@ 10966
уса@@ 10966
оставались 10965
отрав@@ 10964
постра@@ 10964
Рязанской 10960
Никити@@ 10959
вост 10957
Елизавета 10956
дене 10955
Хру@@ 10954
песня@@ 10952
приняты 10951
убиты 10949
путешествен@@ 10948
os@@ 10946
возникновения 10946
жену 10946
воздухе 10944
шлю@@ 10943
излу@@ 10942
представляла 10941
присутствуют 10941
проектом 10940
Коре@@ 10939
мятеж@@ 10939
Посполи@@ 10938
Афина@@ 10937
миниат@@ 10937
шенные 10936
граммати@@ 10933
кос 10932
отрядов 10932
Главной 10931
само 10931
совершенно@@ 10931
поправ@@ 10930
техникум 10930
однажды 10929
Библиоте@@ 10928
дря@@ 10928
прессе 10926
событиях 10925
основную 10924
посвящена 10923
отвечает 10922
des 10921
иды 10920
подписан 10920
указано 10919
Он@@ 10918
уволь@@ 10918
грав@@ 10917
девяти 10917
источника 10916
подходя@@ 10914
тром 10913
Лишь 10911
нарушение 10911
референ@@ 10911
Энн 10910
остаются 10910
кус 10909
разгра@@ 10909
Слобо@@ 10907
гнут 10907
матери@@ 10907
эсмин@@ 10907
Анри 10906
Право@@ 10906
Северном 10906
Рам@@ 10905
стике 10904
серь@@ 10903
Виде@@ 10902
ландшаф@@ 10902
цито@@ 10902
ховский 10901
шире 10901
Забайка@@ 10900
академия 10900
Варшаве 10898
смотри@@ 10898
Применение 10897
Соф@@ 10895
городок 10895
возвы@@ 10892
формально 10892
пиани@@ 10890
южном 10890
Леополь@@ 10889
зара@@ 10889
зму 10888
путе@@ 10887
механизм 10886
Войска 10885
образуется 10885
Расположение 10883
никакого 10883
Впрочем 10882
Снежный 10882
бь@@ 10882
зян 10882
просвещения 10882
туристов 10882
фено@@ 10882
восстанавли@@ 10879
платформа 10879
Данный 10878
краю 10878
колы 10877
лито@@ 10877
оче@@ 10877
115 10875
заведений 10874
притоков 10873
реаги@@ 10872
архиепископа 10871
эндо@@ 10869
кинский 10868
напрямую 10867
символиче@@ 10867
партн@@ 10865
революционной 10865
сово 10865
посещал 10864
Закавказ@@ 10863
лёк 10863
популярным 10863
ценности 10863
говоры 10858
Мурман@@ 10856
аббат@@ 10855
позволили 10855
Верховный 10853
поезд@@ 10853
хотели 10852
тиру@@ 10851
отцу 10850
установка 10849
Орден 10845
Бли@@ 10843
шав@@ 10843
объявили 10842
понимает 10842
служила 10842
цит@@ 10842
вариантов 10841
зачислен 10840
разор@@ 10840
вошло 10837
ственному 10836
ыстория 10836
основное 10835
пропаганди@@ 10835
чников 10835
сприн@@ 10834
анге@@ 10833
положительные 10833
Sh@@ 10832
най 10832
барон 10830
полотни@@ 10830
графство 10829
жина 10829
филар@@ 10829
осозна@@ 10827
жим 10826
изделия 10826
сос@@ 10826
Фрей@@ 10824
гендерной 10824
евское 10824
редакти@@ 10824
Беларуси 10819
г.@@ 10819
тье 10818
скрип@@ 10817
главная 10816
общения 10812
разработка 10812
развит@@ 10811
студия 10809
установления 10809
ровская 10808
совый 10808
сотрудничал 10808
пожара 10807
Каспи@@ 10806
Сум@@ 10806
пите@@ 10806
подно@@ 10802
океа@@ 10801
Музе@@ 10800
кология 10799
антрополо@@ 10798
исте@@ 10796
отмечается 10795
срочно 10795
литература 10794
ловых 10794
жья 10793
приводи@@ 10792
реду@@ 10792
заметил 10789
ассоции@@ 10787
животно@@ 10786
стихотво@@ 10785
вмест@@ 10784
трамвай@@ 10784
головой 10781
траги@@ 10781
городские 10780
Щер@@ 10779
перевода 10779
провинци@@ 10779
столицей 10779
проли@@ 10778
Мира 10776
Одной 10774
штад@@ 10774
Юн@@ 10773
Людовика 10772
собственное 10772
взор@@ 10771
Вор@@ 10769
ковское 10768
хвойно 10768
Гонкон@@ 10767
Место 10767
кент@@ 10767
консервато@@ 10767
почтовых 10766
Мани@@ 10765
полком 10765
сет 10763
дости 10762
Белорусского 10759
вожд@@ 10759
правителя 10759
it@@ 10757
лёгких 10755
недоволь@@ 10755
Афанась@@ 10753
туризма 10752
Геор@@ 10749
глубина 10749
ТУ 10748
чев@@ 10746
этаже 10746
коре@@ 10743
1844 10738
тине 10738
Air 10737
введения 10737
сборника 10736
немецко 10735
Эндрю 10734
Людви@@ 10733
Оцен@@ 10733
осен@@ 10731
располагаются 10731
Борисович 10729
барона 10728
хер@@ 10726
Мило@@ 10724
кажется 10724
месту 10720
судьба 10719
могуще@@ 10718
турне 10718
Кирил@@ 10717
знаки 10716
масс 10715
Андро@@ 10714
талантли@@ 10714
Паль@@ 10713
д. 10712
городи@@ 10710
as@@ 10709
фо 10707
экономике 10705
здоро@@ 10701
орто@@ 10700
экономико 10699
Генри@@ 10698
церковью 10698
лиши@@ 10695
Ани@@ 10694
продолжала 10693
ролях 10691
кандидатом 10689
тыс 10689
показан 10688
Австро 10687
льт 10686
гражданин 10685
аспирантуру 10684
христиан 10684
Хат@@ 10683
граду@@ 10683
переди 10682
вино 10681
обозначение 10679
Примечания 10678
Известен 10677
драго@@ 10677
интересо@@ 10677
километра 10677
Центра 10673
осад@@ 10671
Примерно 10670
повышение 10667
Серб@@ 10663
соревнова@@ 10661
Рак@@ 10660
мейстер 10660
знаний 10659
проез@@ 10659
астрономиче@@ 10658
шевский 10653
государственным 10652
Сат@@ 10651
публикан@@ 10651
ринского 10650
опровер@@ 10648
трам@@ 10647
объявлен 10646
МВт 10645
Южно 10643
музыкой 10642
Финал 10641
лето 10640
способны 10640
Земля 10639
лна 10639
порт@@ 10639
Итальян@@ 10637
дире@@ 10636
рих 10634
бах@@ 10633
узлов 10631
хая 10630
кормо@@ 10629
тово 10628
ссен 10627
док@@ 10623
доку@@ 10623
опухо@@ 10623
купе@@ 10622
модели@@ 10622
сур@@ 10618
Вита@@ 10617
историка 10617
строительный 10613
Удмур@@ 10612
Лука@@ 10611
зрение 10611
приклю@@ 10610
регу@@ 10610
1835 10609
Премия 10608
1796 10606
организовать 10605
Ени@@ 10604
2.@@ 10602
меньшин@@ 10602
Журнал 10601
контракта 10601
шила 10599
Западно 10598
дизайн 10598
небольшим 10597
освобождение 10597
Санд@@ 10594
Арно@@ 10591
Моисе@@ 10588
жались 10587
вье 10586
младшим 10585
Пермского 10582
Сиг@@ 10582
рубеже 10582
Осно@@ 10580
07.@@ 10578
солд@@ 10577
Федо@@ 10574
Су 10572
детали 10572
тя 10572
вон@@ 10566
пик 10563
рое 10563
живой 10562
остан@@ 10561
вий 10560
протеста 10560
сумме 10559
Основан 10557
демон@@ 10555
станцией 10552
занимала 10551
кура@@ 10551
Семён 10549
Ричарда 10546
св@@ 10546
вень 10545
монографий 10542
кузне@@ 10536
лит 10536
пели 10536
│ 10536
маро@@ 10533
пригласил 10533
проблема 10531
комендан@@ 10529
присоединения 10526
тетра@@ 10526
Перси@@ 10525
записей 10525
нца 10525
обсерватории 10525
секрета@@ 10525
Земле 10521
АН@@ 10520
Ниже 10520
адмирал 10516
Ца@@ 10515
карт 10515
футбол 10512
Крис 10509
кух@@ 10509
КГБ 10508
фун@@ 10508
рядов 10507
АП@@ 10506
Петров@@ 10505
серд@@ 10505
зме@@ 10503
вулка@@ 10501
Монасты@@ 10498
соно@@ 10498
аф@@ 10497
рие 10496
Ко 10495
хах 10491
гий 10489
минист@@ 10488
сну@@ 10486
Вороши@@ 10485
надле@@ 10485
спира@@ 10485
бай 10484
пати@@ 10483
Бит@@ 10482
сении 10482
мура 10481
Родо@@ 10478
берге 10475
спло@@ 10472
w@@ 10470
Даже 10470
уто@@ 10470
Брен@@ 10469
1806 10468
Петропав@@ 10467
1832 10465
Австралия 10464
яйца 10464
Ричар@@ 10463
бэ@@ 10462
звук 10460
Лек@@ 10455
пави@@ 10454
марки@@ 10453
1200 10446
равнове@@ 10446
Депутат 10445
слияния 10445
Шен@@ 10442
Почти 10440
лков 10440
ути@@ 10439
1825 10436
20,@@ 10436
шеви@@ 10434
отды@@ 10433
ПС 10431
евро@@ 10431
ццо 10430
Родри@@ 10428
патру@@ 10426
Джозеф 10425
балет@@ 10424
дем 10422
Кок@@ 10421
06.@@ 10418
Плани@@ 10416
кви@@ 10416
адресу 10415
Кавказа 10414
орна@@ 10414
тно@@ 10414
ленда 10413
принципи@@ 10413
архитек@@ 10411
отстра@@ 10411
дорф 10410
Хали@@ 10408
фред 10408
РНК 10401
бель@@ 10400
Хил@@ 10399
Степан 10395
пан 10395
1815 10389
эксплуати@@ 10389
шино 10384
сла 10382
откро@@ 10379
Кази@@ 10374
Леон 10374
Движение 10373
Епар@@ 10362
Тихоокеан@@ 10358
ринга 10356
дир 10355
Тя@@ 10352
культурной 10350
М.@@ 10346
Благове@@ 10345
таты 10344
стие 10343
Две 10336
цево 10331
1817 10326
трево@@ 10325
ходя 10324
кафе 10321
риз@@ 10319
ta 10317
насилия 10316
военнослужа@@ 10314
Скоро@@ 10313
Кау@@ 10312
Бог 10310
слабо 10310
Вологод@@ 10309
чест@@ 10309
Кристиан 10308
достой@@ 10308
арт 10306
няка 10304
педаго@@ 10303
установили 10303
извле@@ 10302
Законодате@@ 10301
поколение 10299
Литература 10297
осуще@@ 10296
случай@@ 10294
делом 10288
Габ@@ 10287
фора 10285
чети 10282
формирован 10281
санитар@@ 10278
орде@@ 10276
бра 10275
тости 10271
пл@@ 10269
104 10266
комбината 10266
бус 10265
Август 10264
Сбор@@ 10264
толо@@ 10261
v 10260
1841 10259
кавказ@@ 10258
Ниже@@ 10257
премь@@ 10257
Египет 10256
сбор 10256
фона@@ 10256
зания 10255
220 10253
Дзержин@@ 10252
записан 10252
въ@@ 10250
опо@@ 10250
Мали@@ 10248
чам 10242
ора@@ 10241
f 10236
разбира@@ 10235
скал@@ 10231
залож@@ 10224
рид 10224
способен 10220
изобретате@@ 10219
мг 10215
телей 10215
am 10210
Валентина 10209
стую 10208
проби@@ 10207
Русская 10205
шок 10203
поиска 10202
вичи 10201
зора 10201
машин@@ 10194
рота 10194
зя 10192
казан@@ 10192
гот@@ 10189
атаку@@ 10188
Мура@@ 10187
дур@@ 10183
09.@@ 10182
ВЛ@@ 10181
дино 10179
Белый 10174
прости@@ 10174
135 10171
Дви@@ 10169
Аки@@ 10168
контрак@@ 10168
22@@ 10167
04.@@ 10166
противников 10165
вере@@ 10163
дово@@ 10162
Стан@@ 10161
борт 10161
ели 10156
Жанейро 10155
рила 10153
Афи@@ 10151
цента 10148
шан 10147
1810 10146
стани@@ 10146
ние@@ 10144
одо@@ 10142
АП 10141
строена 10139
физ@@ 10139
хав@@ 10139
чело@@ 10138
шахмати@@ 10137
лай 10136
процен@@ 10136
7,5 10128
u@@ 10128
профессо@@ 10126
і 10125
мемо@@ 10121
In 10120
тизма 10120
афро@@ 10118
зю@@ 10118
апе@@ 10117
Иго@@ 10115
матов 10113
родила 10112
Турни@@ 10111
Вед@@ 10110
Нур@@ 10110
рог@@ 10108
es@@ 10107
пирами@@ 10105
1843 10101
фунда@@ 10100
St@@ 10099
появи@@ 10099
зван 10098
Ордена 10097
It 10093
ina 10093
затруд@@ 10093
признания 10092
Пря@@ 10088
Научно 10087
султана 10087
мерно 10086
Стюарт 10085
ot@@ 10083
душно 10083
Black 10079
ac@@ 10078
поса@@ 10078
1833 10077
Партия 10077
Пробле@@ 10076
Цве@@ 10073
кологи@@ 10072
сектора 10072
Гин@@ 10071
ж. 10070
имение 10070
разго@@ 10069
хай 10066
1821 10065
волейбо@@ 10065
недвижи@@ 10063
ожесто@@ 10061
ганд@@ 10060
гона@@ 10060
Пей@@ 10059
чна 10052
Мартина 10049
ремо@@ 10047
сирий@@ 10047
Испан@@ 10045
Берн@@ 10044
Владислав 10044
чувства 10044
1805 10041
et@@ 10041
Таш@@ 10041
Над 10040
Аз@@ 10038
скле@@ 10038
числения 10034
запове@@ 10031
кодек@@ 10030
района@@ 10030
княжество 10029
сму@@ 10029
нокау@@ 10028
ом 10028
стояние 10027
просто@@ 10024
компенса@@ 10022
двери 10017
льм 10016
постановление 10015
трене@@ 10015
Война 10014
Лок@@ 10013
продо@@ 10012
пци@@ 10012
фович 10012
ова@@ 10010
стипен@@ 10006
соз@@ 10005
Диего 10003
Стен@@ 10003
Защ@@ 10001
108 10000
або@@ 9993
яне 9991
109 9990
лодка 9990
тило 9989
мунд 9988
бета 9986
жест@@ 9986
справедливо@@ 9986
Коста 9985
престола 9985
Волга 9984
зве@@ 9984
Крей@@ 9983
пр@@ 9983
чее 9982
ик 9981
Жана 9978
Коми 9975
изоли@@ 9975
обмен@@ 9975
разре@@ 9975
дара 9972
восточ@@ 9971
пости@@ 9971
ография 9967
следствие 9966
Георг 9965
еже@@ 9961
Ма 9957
Управ@@ 9957
заведения 9956
АТО 9954
Си 9954
консер@@ 9954
поку@@ 9954
Un@@ 9951
цикло@@ 9947
написала 9946
is@@ 9944
анонси@@ 9943
цити@@ 9942
брод@@ 9939
w 9934
АС 9932
Авиа@@ 9932
Брита@@ 9931
реконструи@@ 9924
Ая@@ 9922
Клу@@ 9922
рабат@@ 9919
бет 9918
леп@@ 9917
нелега@@ 9915
яну@@ 9915
Рат@@ 9914
церемо@@ 9907
поче@@ 9902
риф@@ 9902
широко@@ 9900
свободно 9899
Каби@@ 9897
избав@@ 9896
геоло@@ 9894
акт 9893
спря@@ 9893
климат 9892
противотан@@ 9888
ВО@@ 9886
Соро@@ 9885
драв@@ 9885
многи@@ 9885
Цу@@ 9884
хали@@ 9884
коалиции 9880
Кр@@ 9876
Над@@ 9876
Дя@@ 9873
Чо@@ 9872
нодорож@@ 9872
полови@@ 9871
доктор@@ 9870
Мора@@ 9869
Вадим 9868
бари@@ 9866
вани 9865
Орле@@ 9864
York 9858
кур 9856
oc@@ 9853
Голи@@ 9853
цизма 9852
08.@@ 9845
Ира@@ 9843
гство 9837
Вави@@ 9833
Газ@@ 9831
полито@@ 9830
т.@@ 9828
заменил 9827
оконча@@ 9827
Live 9823
Веро@@ 9823
Сун@@ 9823
Нер@@ 9820
приятие 9820
Дау@@ 9817
устойчиво@@ 9814
кл 9813
Трам@@ 9812
площа@@ 9810
Зеле@@ 9808
градо@@ 9805
площадки 9804
Бло@@ 9798
анало@@ 9796
демии 9795
санк@@ 9795
Латин@@ 9794
креди@@ 9794
друго@@ 9792
103 9790
Касти@@ 9784
насо@@ 9781
раке@@ 9781
Рау@@ 9778
Тот 9777
стато@@ 9773
id@@ 9772
Гне@@ 9772
винтов@@ 9772
зун@@ 9772
ЮНЕСКО 9771
плоско@@ 9770
диф@@ 9767
мос 9766
стаи@@ 9766
военноплен@@ 9763
прямо@@ 9763
Нидерлан@@ 9761
обща@@ 9757
Венг@@ 9756
ментар@@ 9750
уе@@ 9748
сио 9745
навига@@ 9744
ровалось 9744
акция 9738
ралле@@ 9734
Симво@@ 9733
Стефан 9732
попу@@ 9727
диплом 9724
дром 9724
кно@@ 9723
входа 9721
Бронзо@@ 9720
публика@@ 9719
1795 9717
Саму@@ 9716
Бот@@ 9714
норве@@ 9714
34@@ 9713
упраж@@ 9712
1807 9708
чат 9704
количе@@ 9698
Монре@@ 9697
рева 9697
пше@@ 9690
лень@@ 9685
Специали@@ 9684
Псков@@ 9683
шест@@ 9683
каталога 9679
ХЛ 9678
раздел 9678
1809 9677
нометра@@ 9676
Джейн 9674
Макс 9674
ято 9674
гва@@ 9671
фору@@ 9669
стадиона 9660
пнев@@ 9659
храмов 9656
крипто@@ 9654
Мах@@ 9653
кей 9653
конструкция 9647
прекрат@@ 9646
держал 9645
op@@ 9643
ат 9641
Шко@@ 9637
норвеж@@ 9637
псевдо@@ 9637
написан 9636
зане@@ 9635
компак@@ 9631
поощ@@ 9629
45@@ 9628
Крю@@ 9627
допусти@@ 9627
Порт@@ 9626
All 9623
37@@ 9622
досту@@ 9622
рено 9622
плате@@ 9620
стоян@@ 9620
алге@@ 9616
Плато@@ 9615
бл@@ 9615
жило 9615
персонажи 9615
В. 9612
Франц 9612
106 9611
климата 9611
Мун@@ 9598
маш 9598
вонача@@ 9597
мифо@@ 9597
букв 9596
ремонта 9596
сигнал 9596
моле@@ 9593
Надежда 9590
ним@@ 9587
отчасти 9587
уре 9586
танк 9585
герои 9584
линга 9579
Президен@@ 9578
бло 9578
носо@@ 9573
Педро 9572
лаге@@ 9570
Карл@@ 9569
05.@@ 9568
сюр 9566
Кандидат 9565
Петер@@ 9565
С.@@ 9565
кВт 9563
оборот 9563
привет@@ 9562
катало@@ 9561
Рад@@ 9559
шево 9558
Ворон@@ 9554
психиат@@ 9554
пехо@@ 9553
112 9543
Тим@@ 9540
светло 9539
it 9537
Деми@@ 9536
отка@@ 9534
Ива 9533
плавания 9533
Дро@@ 9532
надписи 9529
резонан@@ 9526
оператор 9516
пия 9515
матизи@@ 9512
написано 9512
Ан 9510
И.@@ 9510
1811 9507
арда 9505
сфер@@ 9503
оценка 9500
гова 9499
югослав@@ 9497
автомобили 9496
лиса 9494
Татарстан 9492
казахстан@@ 9491
снения 9491
Ири@@ 9490
захвати@@ 9488
бюджета 9478
PlayStation 9477
нано@@ 9476
цла@@ 9475
чью 9475
направил 9474
Джули@@ 9463
128 9462
полуфина@@ 9462
Чудо@@ 9461
швей@@ 9461
показатели 9457
путешествия 9457
Глава 9454
перифе@@ 9453
плоскости 9452
Life 9449
стров 9448
лости 9447
окла@@ 9447
предположение 9446
щали 9445
onlyinclude 9440
Фрунзе 9440
сорев@@ 9440
популяри@@ 9439
жев@@ 9436
зага@@ 9436
акционер@@ 9435
лур@@ 9435
36@@ 9432
Губер@@ 9431
позити@@ 9430
цина 9426
American 9424
ТО@@ 9424
000@@ 9423
синки 9423
падение 9419
шли@@ 9418
Сало@@ 9416
сло 9414
има@@ 9411
подра@@ 9411
риат 9409
Кули@@ 9402
Дело 9401
Индия 9400
модификации 9399
форт 9399
чание 9390
вло@@ 9389
чинки 9389
мас 9387
стей@@ 9387
лагер@@ 9385
Квин@@ 9384
1,3 9382
1827 9381
регла@@ 9381
Домини@@ 9380
Буря@@ 9379
лие 9378
Адре@@ 9372
тенден@@ 9372
Поме@@ 9371
вай 9371
Копен@@ 9369
Нак@@ 9365
107 9364
вал@@ 9362
ареста 9359
учение 9359
рополи@@ 9352
Симо@@ 9347
Чин@@ 9346
Гад@@ 9344
чева 9343
Великобрита@@ 9342
Кари@@ 9342
хер 9342
чет 9332
Роу@@ 9328
км2 9327
несота 9325
олето@@ 9325
плато 9324
Светлана 9321
берто 9320
иниции@@ 9319
Интернет 9312
биат@@ 9312
зает 9311
меда@@ 9310
Обе@@ 9300
последствия 9298
характеристика 9298
метрах 9297
Гат@@ 9294
голове 9294
кве@@ 9292
Играл 9289
разоча@@ 9288
Вул@@ 9285
ata 9284
щате@@ 9284
слуша@@ 9282
корпорации 9280
Проте@@ 9279
Хок@@ 9276
Лат@@ 9269
Октя@@ 9263
145 9262
пада@@ 9261
подобно 9260
полю@@ 9260
сигнала 9260
Либе@@ 9257
покой@@ 9253
джу@@ 9249
ета 9248
Автомоби@@ 9246
Митро@@ 9246
Оп@@ 9246
Развитие 9246
факульте@@ 9246
Оксфор@@ 9245
рико 9244
ректор 9242
краевед@@ 9241
филосо@@ 9240
засу@@ 9239
Гале@@ 9238
молеку@@ 9236
пох@@ 9232
очевидно 9231
Хри@@ 9228
компро@@ 9228
рар@@ 9227
Комму@@ 9226
инг 9221
пети@@ 9221
1816 9220
Комитет 9220
Тулу@@ 9212
ers 9211
Слово 9210
вр 9210
Школа 9208
дев@@ 9208
что@@ 9207
BBC 9206
Ди 9206
употре@@ 9206
1808 9205
ляне 9204
Отно@@ 9202
возникнове@@ 9201
автобиографи@@ 9199
гни@@ 9199
1793 9193
Дебю@@ 9191
Йохан@@ 9191
фрей@@ 9191
вале@@ 9190
Time 9187
ханов 9185
Франческо 9184
публика 9183
кото@@ 9181
зино 9178
подготовка 9172
Вис@@ 9170
писец 9169
Людмила 9167
осмо@@ 9167
Люб@@ 9166
трофе@@ 9166
подробно 9165
детекти@@ 9161
насе@@ 9160
диктат@@ 9158
застав@@ 9158
33@@ 9156
мели@@ 9155
дежи 9151
Автоно@@ 9150
интегри@@ 9150
Живо@@ 9149
Белору@@ 9147
убед@@ 9147
океан@@ 9141
пови@@ 9140
Франко 9137
АР@@ 9135
делег@@ 9134
кабе@@ 9132
Александру 9130
Праз@@ 9130
ьор@@ 9129
Лау@@ 9127
жай@@ 9124
защита 9123
ваку@@ 9122
Тури@@ 9121
интен@@ 9121
Нина 9120
никнове@@ 9120
наименова@@ 9117
увели@@ 9117
360 9116
Боли@@ 9112
отрас@@ 9111
Архитектура 9109
Блан@@ 9108
администрация 9107
англо 9107
1,6 9105
шве@@ 9105
Конструкция 9102
неизвестна 9102
Брон@@ 9100
Разработка 9097
Лод@@ 9094
1824 9093
Австрия 9093
Лип@@ 9089
стене 9089
YouTube 9086
Джей 9085
Шат@@ 9085
завеща@@ 9085
СУ 9084
Мадри@@ 9083
зена 9083
Дин 9081
большин@@ 9081
Гуан@@ 9078
льти@@ 9078
защити@@ 9076
скоп@@ 9074
футболиста 9074
статистики 9073
Сел@@ 9069
Марина 9068
лд@@ 9061
Амстер@@ 9059
симпати@@ 9056
пояса 9051
сценария 9051
цка 9050
монумента@@ 9049
Августа 9048
Rock 9046
парамет@@ 9044
122 9043
спор 9042
воли 9041
полит@@ 9041
Шек@@ 9040
пиро@@ 9037
Беля@@ 9033
→ 9033
кафе@@ 9032
жды 9031
Стер@@ 9029
Гвар@@ 9028
Корея 9028
Представители 9025
средство 9025
лее 9020
аграр@@ 9017
фек@@ 9017
игнори@@ 9016
скоро 9014
джу 9012
инфор@@ 9011
митин@@ 9007
ето 9006
рест@@ 9005
КН@@ 9004
Коп@@ 8998
Универси@@ 8996
иконо@@ 8996
вокал 8995
1792 8993
варианта 8991
man 8987
Co@@ 8986
ВП 8986
Marvel 8985
проро@@ 8985
отча@@ 8983
чувство 8983
привлекате@@ 8981
Поля@@ 8980
тера@@ 8979
ФИ@@ 8978
пала 8978
ксе@@ 8974
Фай@@ 8973
хор 8973
гас 8972
промеж@@ 8971
рону 8971
111 8968
кредит@@ 8967
графства 8966
РА@@ 8965
вие 8964
пап@@ 8963
ana 8962
паке@@ 8961
бана 8960
индек@@ 8959
Кост@@ 8957
храбро@@ 8957
КА 8955
свое@@ 8955
звать 8953
бон@@ 8952
ненави@@ 8952
48@@ 8951
дек@@ 8951
импера@@ 8950
5,5 8948
os 8948
льон 8946
Сме@@ 8938
чими 8934
Мех@@ 8933
кун@@ 8933
Пай@@ 8931
подполковник 8930
нара@@ 8929
игу@@ 8928
потока 8927
нака@@ 8925
AR@@ 8921
Дире@@ 8921
раса 8921
характе@@ 8920
Майк 8919
[...]
