. 5586119
, 4136577
&apos; 3258545
ve 2246307
&quot; 1949936
bir 1380549
) 821379
( 819642
da 775319
de 729860
@-@ 608661
olarak 580375
ile 514623
için 398144
in 363607
olan 346874
bu 345495
’ 324206
ın 312580
yılında 283605
tarafından 282312
en 271509
Bu 258258
sonra 257762
; 254264
: 242391
ya 241888
nin 236260
nın 232854
daha 203117
lar 202192
ilk 198781
ları 190660
ler 189617
un 183098
a 181758
te 181141
i 178017
an 174423
ise 171224
yer 164543
ı 157062
gibi 156186
leri 152827
e 147750
çok 147569
arasında 143980
kadar 137424
bağlı 135507
den 134532
veya 134110
= 133270
iki 132706
büyük 126823
inin 122644
1 122177
göre 121592
ye 121423
dan 119077
oldu 117996
ç@@ 117872
lerin 113662
ların 112568
bulunan 112355
&#124; 111493
al@@ 109836
2 108119
ası 107467
k@@ 105369
dir 104751
Türkiye 103564
olduğu 103110
u 102247
ini 101079
d 99346
- 99164
ş@@ 98455
ta 98313
an@@ 97933
tarihinde 94785
ının 94273
ma 94168
y@@ 93208
il@@ 93055
alan 93002
ine 92201
adı 91792
la 91754
li 91354
birlikte 90539
ak 90354
at@@ 90247
nde 90089
! 89884
ını 89391
esi 89286
S@@ 87887
me 87140
4 86475
km 86448
ak@@ 85361
diğer 85047
3 83948
ne 83098
/ 82949
etti 81947
K@@ 81517
nda 81496
aynı 80345
lı 79931
Türk 79929
ına 79916
lerini 79515
ar@@ 79215
ar 79196
daki 79175
at 77706
le 75037
lik 74159
adlı 73670
yıl 73579
yeni 73572
align 73485
center 73235
deki 72986
İ@@ 72871
k 72766
et@@ 72684
her 72676
aldı 72336
T@@ 71733
t@@ 71674
inde 71612
Y@@ 70962
l@@ 70872
lerinin 70760
on 70651
ancak 70533
son 70103
ik 69721
ıl@@ 69600
ında 69503
in@@ 69421
el 69403
nun 69145
o 69002
İstanbul 68631
s@@ 68511
ad@@ 68439
karşı 68290
ol@@ 68218
D@@ 67894
Avrupa 67833
larının 67666
mak 67471
ır 67411
önemli 66818
Dünya 66609
&amp; 66450
% 66375
el@@ 66063
isi 66033
larda 65717
lara 65458
c@@ 65324
G@@ 64768
eski 64354
ek@@ 64163
larını 63978
başladı 63970
Ç@@ 63920
z@@ 63579
al 63244
önce 63050
d@@ 63013
ilçesine 62982
lere 62982
m@@ 62753
eden 62670
H@@ 62264
Ş@@ 61182
kal@@ 61145
er 60707
ik@@ 60427
ay@@ 59906
A@@ 59783
et 59736
ü 59498
şekilde 58779
yap@@ 58676
olduğunu 58528
E@@ 58440
lık 58294
olmuştur 58279
yapılan 58260
g@@ 58249
The 58115
5 58040
B@@ 58001
eler 57973
üzere 57704
lerde 57629
as@@ 57607
az 56925
na 56872
içinde 56729
Üniversitesi 56703
üzerine 56391
M@@ 56382
mek 56372
ün 56301
iş@@ 56070
vardır 55979
6 55657
ama 55476
Bir 55311
birçok 55212
kez 55097
ver@@ 54952
im 54939
ması 54639
em@@ 54634
maya 54590
lerine 54550
ana 54374
am@@ 54168
Mart 54079
di 54070
kabul 53945
larına 53872
Ayrıca 53633
iler 53581
im@@ 53545
10 53513
larında 53485
lerinde 53296
m 53263
inden 53089
iyi 53062
sahip 53061
Mayıs 53004
il 52556
eli 52549
en@@ 52270
P@@ 51879
devam 51624
aş@@ 51622
Ocak 51593
aları 51568
er@@ 51329
üç 51289
ikinci 51159
ıdır 51053
ından 50932
eleri 50927
iz@@ 50677
ay 50658
Kasım 50126
gelen 50040
2010 49941
fazla 49819
tüm 49767
“ 49558
yaptı 49477
ım 49296
O@@ 49215
Eylül 49119
it 48875
Ekim 48872
enin 48867
lerinden 48775
ten 48710
” 48582
ev@@ 48509
v@@ 48459
alı 48346
ek 48308
ardından 48289
ilinin 47977
unu 47917
kon@@ 47912
Ar@@ 47898
yüksek 47783
Haziran 47778
kendi 47763
kar@@ 47598
Nisan 47560
unun 47558
ABD 47528
Osmanlı 47505
Temmuz 47242
aya 47119
ı@@ 47109
ir@@ 47108
ileri 47101
ki 46972
Daha 46970
bazı 46964
tan 46944
olmak 46940
Ağustos 46862
Amerika 46846
tek 46817
h@@ 46784
ır@@ 46702
biri 46594
Aralık 46444
meye 46407
arak 46317
hem 46263
ılar 46209
sırasında 46000
una 45756
üzerinde 45675
farklı 45601
gel@@ 45441
ayı 45398
olup 45268
az@@ 45161
miştir 45046
Ancak 44987
mesi 44943
ti@@ 44808
görev 44758
ir 44679
anın 44385
n@@ 44280
zaman 44257
r@@ 43944
oğlu 43630
V@@ 43610
ortaya 43538
f@@ 43483
C@@ 43369
ü@@ 43332
z 43054
aç@@ 42923
ada 42902
&#93; 42771
yılları 42744
İlk 42676
Şubat 42669
Birleşik 42654
of 42623
&#91; 42508
yılı 42450
N@@ 42434
colspan 42379
F@@ 42314
çeşitli 42308
Kar@@ 42189
Savaşı 42167
bulunmaktadır 41883
p@@ 41882
geri 41835
lardan 41697
küçük 41647
12 41601
us 41533
nedeniyle 41430
15 41268
Z@@ 41263
on@@ 41238
7 41229
boyunca 41178
Al@@ 41018
geç@@ 41002
kap@@ 40996
yaz@@ 40863
su 40817
L@@ 40813
yi 40790
R@@ 40786
t 40642
alar 40616
edil@@ 40576
– 40488
yeniden 40446
dır 40261
lerden 40244
ık 40199
20 40090
zamanda 40019
lu 40008
liği 39999
8 39947
b@@ 39769
di@@ 39615
larından 39590
2012 39580
ur 39560
idi 39404
2020 39389
sadece 39210
um 39075
En 38994
s 38977
unda 38883
eye 38742
miş 38740
edilen 38540
yaklaşık 38516
lan@@ 38458
göster@@ 38427
2011 38316
2009 38231
kur@@ 38220
ul@@ 38217
is@@ 38163
mektedir 38063
ın@@ 37973
ur@@ 37899
edildi 37638
av@@ 37305
ül@@ 37270
it@@ 37117
am 37094
II 37062
es@@ 36818
süre 36593
p 36568
genel 36552
esine 36537
nüfusu 36483
ış@@ 36445
film 36255
baş@@ 36242
iy@@ 36134
onu 36103
ısı 36048
An@@ 36041
man 35979
uzun 35863
ti 35853
yerine 35811
ede 35664
2008 35610
ıyla 35605
ken 35500
köy 35053
iş 35027
11 35006
2014 34998
re@@ 34953
Tarihçe 34886
ele 34862
onun 34841
merkezine 34838
dı 34733
eş@@ 34604
gün 34593
larla 34540
â@@ 34540
anı 34530
Almanya 34479
ara 34473
l 34304
rağmen 34281
Fransa 34223
or@@ 34125
ç 34017
masına 33971
asyon 33916
der@@ 33855
30 33854
2015 33817
9 33768
asında 33765
2013 33754
ili 33581
man@@ 33458
16 33451
indeki 33448
Genel 33334
bulun@@ 33324
sür@@ 33297
eri 33207
Coğrafya 33174
yı 33131
ıp 33126
ait 33091
mıştır 33090
yaptığı 33080
bulunur 33000
kişi 32969
altında 32917
2007 32868
2016 32809
ilgili 32733
kısa 32689
dahil 32650
İngiltere 32610
elde 32501
Alman 32495
ım@@ 32341
beri 32283
ür 32272
masını 32263
bul@@ 32189
bil@@ 32160
Güney 32126
2006 32095
par@@ 32047
Ankara 32026
edilmiştir 31942
New 31898
genellikle 31860
î 31847
Yeni 31841
almıştır 31840
ayrıca 31775
ter@@ 31548
esinde 31546
lerle 31486
özel 31348
the 31244
Ak@@ 31144
ed@@ 31132
y 31011
esini 31000
İngiliz 30994
doğru 30927
imi 30878
Kuzey 30875
Amerikan 30870
acak 30834
19 30817
uzaklıktadır 30814
ot@@ 30784
çalış@@ 30759
U@@ 30672
takım 30672
kazandı 30608
var@@ 30589
j@@ 30577
sa 30573
maktadır 30560
14 30558
.@@ 30473
ab@@ 30443
Rusya 30438
başka 30404
le@@ 30402
eti 30384
ah@@ 30351
eder 30289
erek 30222
13 30194
arı 30065
ılan 30056
dört 30012
18 30006
esinin 29980
lama 29889
ni 29830
O 29821
kan@@ 29758
çek@@ 29665
merkezi 29595
tir 29553
li@@ 29536
Er@@ 29528
os 29478
2018 29444
adıyla 29422
2017 29396
ağı 29379
os@@ 29327
0 29302
tan@@ 29276
tı 29272
si 29219
as 29202
Roma 29197
dil@@ 29160
um@@ 29154
tarihi 29153
Cumhuriyeti 29120
diği 29072
özellikle 29061
17 29060
ünü 29014
müzik 29006
is 28967
arasındaki 28944
ındaki 28900
lığı 28857
tut@@ 28854
ık@@ 28799
un@@ 28795
i@@ 28737
kullan@@ 28704
mış 28606
ser@@ 28597
25 28395
ş 28328
tür 28326
şu 28252
bilinen 28242
asına 28213
len@@ 28209
_ 28123
yer@@ 28061
de@@ 27995
tekrar 27982
Birliği 27909
millî 27830
Doğu 27820
dön@@ 27802
sahiptir 27787
iyle 27748
birkaç 27725
te@@ 27686
oluşan 27664
gör@@ 27662
ona 27559
çi 27548
2005 27529
sonunda 27524
kullanılan 27504
2019 27433
Büyük 27391
ok@@ 27371
e@@ 27275
Kupası 27184
om@@ 27139
2000 27072
ıldı 27071
sırada 26990
ımı 26966
bir@@ 26965
çıkar@@ 26962
hakkında 26935
İtalya 26934
ıcı 26926
devlet 26918
ilen 26877
luk 26777
yapan 26775
id@@ 26686
a@@ 26651
verdi 26603
yar@@ 26552
ev 26550
ılmış 26488
olması 26472
olmayan 26470
uy@@ 26458
ör@@ 26446
lt 26398
ünün 26317
asını 26163
o@@ 26154
say@@ 26144
mayı 26126
A 26111
kat@@ 26073
Aynı 26032
Fransız 26022
Rus 25989
üne 25974
çıkan 25958
ış 25916
çık@@ 25902
itibaren 25884
anlar 25868
Paşa 25845
undan 25794
oyuncu 25788
ka 25758
yan@@ 25701
abilir 25667
Çin 25665
sıra 25645
almaktadır 25583
etmiştir 25573
21 25565
gt 25549
f 25542
ün@@ 25526
kol@@ 25498
tak@@ 25392
Baş@@ 25378
ğ@@ 25356
2004 25289
geldi 25262
inşa 25234
yol 25228
idir 25219
öl@@ 25212
kay@@ 25186
ist@@ 25139
milyon 25032
savaş 25025
adan 25007
Devletleri 24953
sezonunda 24921
grup 24873
kullanıl@@ 24868
Mar@@ 24864
çıktı 24824
lam@@ 24822
yakın 24814
şehir 24810
yapıl@@ 24805
iç@@ 24761
ıları 24757
yapmıştır 24727
adını 24711
ö@@ 24704
24 24677
Film 24663
altı 24658
geliş@@ 24625
or 24613
yol@@ 24608
yaş@@ 24606
kazan@@ 24532
22 24496
gir@@ 24496
h 24442
I. 24426
yon 24425
ere 24423
ist 24418
Köy 24392
J@@ 24349
ıt@@ 24272
se 24265
döneminde 24262
etmek 24226
yas@@ 24207
katıl@@ 24183
bak@@ 24147
düş@@ 24147
ac@@ 24096
eyi 23968
neden 23957
26 23954
mahalledir 23905
takımı 23823
siz 23808
spor 23790
alt@@ 23749
yanı 23735
bin 23683
Partisi 23665
kır@@ 23627
uz@@ 23598
verilen 23470
Amerikalı 23403
dışında 23401
kadın 23380
tam 23375
alır 23333
teki 23318
itibarıyla 23304
mesine 23279
son@@ 23279
af@@ 23272
mesini 23270
ılmıştır 23268
den@@ 23259
ecek 23219
asının 23214
ilerin 23149
toplam 23018
ılır 22991
yen@@ 22989
sonucu 22966
od@@ 22930
çe 22929
ap@@ 22886
dolayı 22821
yayın@@ 22814
saldır@@ 22787
kor@@ 22774
futbol 22757
nüfus 22755
ince 22754
kes@@ 22741
rol 22691
tür@@ 22671
eğitim 22598
ca 22583
ip 22573
Batı 22558
23 22545
aldığı 22458
yarış@@ 22451
ılması 22397
Ligi 22365
ey@@ 22327
hav@@ 22299
tur@@ 22274
I@@ 22268
sayımına 22209
şarkı 22195
oy@@ 22193
ulaş@@ 22162
ali 22109
tem@@ 22109
se@@ 22088
kariyeri 22051
tar@@ 21975
savaş@@ 21973
dönemde 21939
ce 21933
udur 21931
Anadolu 21919
Kur@@ 21918
sayısı 21910
bas@@ 21899
bağ@@ 21876
geçir@@ 21863
kab@@ 21831
Öz@@ 21809
yılından 21789
üst 21782
York 21748
manın 21736
Ulusal 21720
olur 21720
pek 21712
tanım@@ 21707
r 21680
İmparatorluğu 21660
belir@@ 21646
du 21561
Kon@@ 21560
yle 21558
Şarkı 21470
üm@@ 21465
Ödülü 21461
anda 21458
gelir 21381
and 21379
nden 21375
2002 21346
temsil 21336
ıyor 21302
us@@ 21285
yıl@@ 21277
ut 21267
yaşında 21190
27 21187
uç@@ 21182
ildi 21156
2021 21084
yıllarında 21068
28 20986
art@@ 20969
1990 20963
üçüncü 20946
n 20915
plan@@ 20885
Uluslararası 20781
karar 20781
yan 20766
görüş@@ 20735
anlat@@ 20719
Bunun 20706
edilir 20672
Orta 20667
sel 20657
sezon 20622
alan@@ 20570
ağ@@ 20561
Ali 20506
ayrıl@@ 20483
Her 20443
insan 20439
fakat 20421
2003 20405
and@@ 20383
eb@@ 20381
sağ@@ 20347
dur@@ 20345
ö 20335
kurulan 20329
ayında 20317
doğdu 20282
ür@@ 20269
2001 20264
Or@@ 20257
Lig 20245
John 20243
kalan 20216
katıldı 20173
dünya 20158
yapımı 20153
düşün@@ 20140
kan 20140
ilik 20109
alt 20081
oloji 20021
din@@ 20017
isimli 20015
ic@@ 20010
hemen 19990
v 19979
sınır@@ 19973
ıkları 19973
aların 19967
Ö@@ 19963
iler@@ 19952
askeri 19943
ettiği 19943
diz@@ 19923
açık 19909
seç@@ 19893
temel 19857
ği 19850
sonraki 19844
ri@@ 19842
beraber 19813
ut@@ 19791
aki 19758
ez@@ 19757
leme 19754
çoğu 19752
uluslararası 19741
Ser@@ 19732
NGC 19696
konuş@@ 19696
yet@@ 19694
doğ@@ 19679
Azerbaycan 19667
ırlar 19650
100 19643
dur 19625
met@@ 19623
ler@@ 19621
mi 19609
kaldı 19588
har@@ 19570
uş@@ 19562
göz@@ 19548
bırak@@ 19531
orta 19499
köydür 19488
duy@@ 19483
beş 19466
ıyordu 19450
futbolcudur 19442
leriyle 19436
tamam@@ 19411
Parti 19406
yarat@@ 19403
tik 19369
ifade 19361
albümü 19360
lem@@ 19360
alın@@ 19345
Sovyet 19326
bin@@ 19317
ör 19310
üz@@ 19302
değiş@@ 19295
yine 19274
ra 19247
oluş@@ 19243
filmi 19241
gi@@ 19224
bulunduğu 19223
ani 19185
oranı 19172
iç 19138
ov 19133
dev@@ 19132
İyi 19128
atı 19111
yüz@@ 19111
kaz@@ 19091
geniş 19072
uk 19070
Şampiyonası 19054
tin 19044
Afrika 19038
irler 19036
mer@@ 19002
lar@@ 18992
geçen 18973
iz 18966
29 18940
Ad@@ 18932
der 18902
ilçe 18871
eme 18869
ci 18865
sen@@ 18855
yerel 18850
ünde 18848
düzenlenen 18837
biridir 18809
elerin 18797
ia 18759
Paris 18737
ıs@@ 18722
ilir 18706
El@@ 18685
u@@ 18682
eğ@@ 18676
mesiyle 18646
bi@@ 18643
tasar@@ 18639
meyi 18635
mem@@ 18633
kaç@@ 18629
Ay@@ 18615
ıydı 18613
County 18599
siyasi 18568
uk@@ 18564
kullanılır 18554
31 18524
W@@ 18514
üyesi 18494
b 18467
Kal@@ 18423
si@@ 18406
Devlet 18364
tek@@ 18310
isinin 18302
burada 18278
resmi 18272
İn@@ 18264
yıllarda 18261
es 18245
formula 18243
lik@@ 18237
İran 18212
ız 18201
transfer 18188
izin 18152
gol 18147
sat@@ 18138
ilmiş 18133
getir@@ 18123
masının 18121
eni 18098
mas@@ 18097
var 18060
herhangi 18038
ro@@ 18028
yay@@ 18028
B 18010
ad 17998
As@@ 17997
sayıda 17980
vardı 17979
içerisinde 17974
mak@@ 17970
öz@@ 17955
1999 17943
mu@@ 17940
Bar@@ 17936
ılı 17926
karşılaş@@ 17888
isini 17879
pl@@ 17834
erkek 17829
Kor@@ 17815
gönder@@ 17801
kız@@ 17786
hazır@@ 17784
em 17780
yak@@ 17774
ina 17769
usu 17742
abil@@ 17735
yon@@ 17717
yıllık 17695
oynadı 17671
grubu 17648
sezonu 17640
Nüfus 17636
ag@@ 17634
sar@@ 17628
1980 17627
kim@@ 17624
televizyon 17571
arası 17570
Bey 17508
sistemi 17502
İngilizce 17483
bütün 17479
anlamına 17467
haline 17467
res@@ 17434
MÖ 17422
tab@@ 17417
ıda 17406
boy@@ 17396
Gö@@ 17372
Hay@@ 17372
larıyla 17371
lanmış 17370
ünden 17364
zor@@ 17353
masıyla 17348
yerleş@@ 17338
sistem@@ 17306
ünlü 17285
Fakat 17269
yaşayan 17232
Har@@ 17227
Diğer 17219
del@@ 17209
hal@@ 17189
öldü 17181
başarılı 17163
mücadele 17120
başar@@ 17107
men 17096
kaldır@@ 17095
yanında 17087
per@@ 17083
amp 17082
ıya 17047
ks@@ 17014
andı 16999
kurul@@ 16992
ıların 16988
genç 16986
girdi 16984
Mısır 16974
lanan 16972
içer@@ 16956
maçta 16941
ça 16941
ederek 16927
olabilir 16902
koy@@ 16881
of@@ 16870
başlayan 16830
madan 16822
ilan 16809
dizi 16796
forma 16779
oluştur@@ 16776
oldukça 16765
çalıştı 16750
yılına 16745
sahibi 16740
C 16715
başına 16711
konusunda 16707
yüzyılda 16702
dönüş@@ 16699
ışı 16697
form@@ 16692
lü 16684
eyaletinde 16665
muş 16651
teknik 16636
iken 16615
ne@@ 16614
edilmiş 16598
değil 16573
1998 16572
isti@@ 16568
1992 16541
bunun 16531
düzen@@ 16530
taki 16506
başkanı 16494
anlaş@@ 16491
çal@@ 16471
çocuk 16470
sosyal 16465
yarı 16450
görün@@ 16423
pat@@ 16417
ec@@ 16394
mişti 16378
metre 16368
ülke 16336
İkinci 16334
günü 16321
evi 16315
san@@ 16309
yüksel@@ 16303
tespit 16302
yat@@ 16299
van 16298
değiştir@@ 16291
üs@@ 16290
savun@@ 16289
ki@@ 16279
İspanya 16273
sal 16253
geçti 16222
oyun@@ 16218
şark@@ 16212
landı 16194
men@@ 16182
gün@@ 16178
çı 16178
deniz 16151
ko@@ 16146
taş@@ 16125
gen@@ 16097
dönem 16092
bel@@ 16057
belediye 16056
ön@@ 16043
Av@@ 16032
bit@@ 16025
diğini 16025
sak@@ 15998
veren 15988
kul@@ 15980
I 15966
ans 15947
50 15906
amacıyla 15903
ular 15901
isine 15893
git@@ 15884
hiçbir 15879
maları 15878
adet 15828
başlamıştır 15825
üler 15817
Kö@@ 15804
lanır 15797
kad@@ 15766
liğini 15761
söz 15761
sonucunda 15745
tr@@ 15717
Bakanlığı 15712
güçlü 15704
kl@@ 15700
Japonya 15675
Ü@@ 15666
yazar 15665
Tak@@ 15656
eser@@ 15656
ber@@ 15654
bo@@ 15650
1996 15627
ön 15598
ük@@ 15572
albüm 15559
ri 15555
ıc@@ 15550
leş@@ 15545
ayan 15538
isinde 15528
ndan 15527
benzer 15526
attı 15518
1991 15506
Bel@@ 15502
1994 15493
aj@@ 15493
1995 15484
hareket 15472
ton 15471
maz 15469
program@@ 15466
g 15465
Fakültesi 15458
j 15444
asyon@@ 15442
tu 15437
1993 15434
1997 15430
Par@@ 15429
hava 15417
erken 15411
ismi 15377
hizmet 15372
lenen 15369
tarih@@ 15365
yana 15357
may@@ 15352
değildir 15346
yaygın 15325
yayınlanan 15324
ülkenin 15292
alanı 15285
şehrin 15277
olojik 15275
be@@ 15271
Oy 15263
Yunan 15263
başında 15258
Per@@ 15239
dığı 15235
üy@@ 15221
sona 15216
yık@@ 15213
bat@@ 15204
önceki 15195
ilmiştir 15190
esinden 15186
üş@@ 15185
yani 15182
erin 15154
ol 15129
nı 15116
Ol@@ 15115
Brezilya 15114
to@@ 15101
mezun 15080
ortak 15069
parç@@ 15068
ant@@ 15052
dağ@@ 15049
batı 15048
etmektedir 15038
dü 15034
1970 15031
takım@@ 15020
sır@@ 15014
parçası 15009
bilim 15005
mez 15005
destek@@ 14993
lo@@ 14992
ici 14982
İsrail 14973
han 14956
iddia 14956
sel@@ 14955
karar@@ 14943
yaşam@@ 14940
acağı 14936
şeklinde 14936
yön@@ 14924
oyun 14918
veril@@ 14913
elik 14905
to 14891
mez@@ 14887
uygun 14854
seçildi 14841
Sultan 14840
bilgi 14835
Ev@@ 14828
ilmesi 14821
Ne@@ 14820
tamamen 14812
bulundu 14808
meydana 14797
Asya 14785
Son 14771
nedenle 14762
İzmir 14739
meden 14737
ark@@ 14722
diye 14711
güç@@ 14709
ley@@ 14707
Bazı 14655
re 14652
Bir@@ 14635
sah@@ 14631
içeren 14626
yalnızca 14617
üdür 14612
Suriye 14606
edi 14605
üs 14601
İl@@ 14597
br 14593
kıy@@ 14581
1960 14537
tah@@ 14533
ayrı 14508
öldür@@ 14487
Hal@@ 14482
asyonu 14476
elerde 14473
sonrasında 14473
müş 14429
üsü 14426
cm 14420
babası 14408
Eski 14402
hak@@ 14397
açık@@ 14381
ulusal 14374
Bur@@ 14362
ük 14353
x 14351
ırken 14350
Kaliforniya 14320
halk 14318
eleştir@@ 14317
ova 14310
TV 14305
alarını 14301
ken@@ 14288
Bizans 14281
mekte 14279
Londra 14277
aş 14267
sun@@ 14257
tel@@ 14239
du@@ 14209
kaynak@@ 14208
İslam 14201
listesi 14188
iri 14185
kom@@ 14183
ul 14167
ans@@ 14165
Nehri 14136
gü@@ 14134
aday 14122
Mehmet 14110
Man@@ 14100
ci@@ 14098
² 14095
alarak 14075
yüzyılın 14075
dil 14055
parti@@ 14053
masında 14038
Se@@ 14031
üzerinden 14029
kem@@ 14012
konum@@ 14009
piyasaya 13989
mıştı 13984
ni@@ 13981
ekonomik 13973
D 13969
ene 13956
ge 13941
bile 13918
Japon 13913
ıktan 13878
ite 13870
alarda 13854
ger@@ 13849
mad@@ 13843
düşük 13842
Başkanı 13839
İki 13838
sin@@ 13828
sık 13825
me@@ 13814
malar 13807
kardeşi 13784
üm 13777
İtalyan 13774
araştır@@ 13770
gerçek 13766
ız@@ 13760
Ber@@ 13752
bar@@ 13744
karakter@@ 13736
ail@@ 13728
ke 13728
suç@@ 13725
î@@ 13717
birleş@@ 13700
mi@@ 13695
sız 13695
elerinin 13686
giy@@ 13685
K 13674
inan@@ 13646
gem@@ 13638
söz@@ 13623
leyen 13581
Mustafa 13579
Futbol 13578
bur@@ 13573
hastal@@ 13563
bi 13544
Krallık 13538
öğren@@ 13536
+ 13532
uğr@@ 13530
bağımsız 13526
okul@@ 13524
ib@@ 13520
kontrol 13510
yayınlandı 13508
duğu 13505
başı 13496
Ter@@ 13485
geliştir@@ 13478
Di@@ 13460
bölgesinde 13449
yardım 13427
verildi 13421
ku@@ 13406
profesyonel 13395
tur 13387
ze 13379
Polonya 13374
dik@@ 13373
lanması 13361
bek@@ 13349
Bil@@ 13345
tu@@ 13334
ebilir 13332
uc@@ 13330
st@@ 13320
Millî 13313
En@@ 13312
aca 13306
if@@ 13300
40 13285
sor@@ 13283
ığını 13282
İş@@ 13271
1989 13258
Avusturya 13249
sonrası 13248
Der@@ 13245
kendisine 13242
olmasına 13239
ap 13217
merkez@@ 13210
serbest 13181
alarının 13179
çiz@@ 13177
kariyerine 13174
Kay@@ 13170
Ch@@ 13163
op@@ 13146
ınca 13144
bölge 13128
bilinir 13127
tip 13115
acağını 13110
meleri 13088
doğal 13078
mar@@ 13078
kurulmuştur 13073
Yahudi 13066
El 13062
masından 13059
yönünde 13055
hale 13049
Arap 13042
kuş@@ 13035
birinci 13034
tiği 13027
-@@ 13022
Kol@@ 13017
dir@@ 13010
up 13006
osu 13002
maç@@ 12991
kısmı 12988
layan 12985
Örneğin 12985
uyar@@ 12981
ard@@ 12979
ah 12972
yardımcı 12971
modern 12970
kö@@ 12966
ih@@ 12955
uz 12940
ilere 12933
işlem@@ 12933
anlam@@ 12930
Eurovision 12921
sil@@ 12916
do@@ 12914
lanmıştır 12913
film@@ 12892
han@@ 12881
bölümü 12872
kam@@ 12869
ül 12864
ıl 12864
Su@@ 12851
Türkçe 12850
Sovyetler 12823
Bal@@ 12821
hat@@ 12819
dünyanın 12803
köy@@ 12802
yapıldı 12801
Be@@ 12797
kuruldu 12778
yorum@@ 12761
tır 12758
dav@@ 12749
durum 12744
verdiği 12739
maçında 12732
ıt 12724
başlar 12714
amı 12711
ığında 12710
video 12697
acı 12678
doğu 12674
list@@ 12673
Buna 12669
türü 12666
Merkezi 12658
Yüksek 12658
günümüzde 12654
ey 12637
ov@@ 12635
maç 12629
oluşur 12628
değer@@ 12626
ke@@ 12619
biy@@ 12605
tü@@ 12605
muştur 12600
uygulam@@ 12598
Yunanistan 12593
çalışan 12589
makta 12580
örü 12576
olsa 12565
su@@ 12551
laş@@ 12546
vur@@ 12546
imleri 12545
Müzik 12537
kuruluş@@ 12537
De@@ 12524
altın 12512
tarihli 12511
hızlı 12499
kav@@ 12484
dal@@ 12480
ye@@ 12475
Kan@@ 12461
yazıl@@ 12460
yok 12450
bunu 12444
sanat 12443
saat 12428
etin 12415
kas@@ 12412
lat@@ 12411
ai 12400
satın 12396
defa 12378
dikten 12376
istem@@ 12376
Mer@@ 12359
elem@@ 12355
bal@@ 12340
Ab@@ 12336
adına 12326
elerini 12323
olmuş 12316
uyla 12307
Halk 12305
luğu 12303
iye 12302
Toplam 12301
T 12293
yönetim 12293
ata 12290
ilerinin 12287
müştür 12271
eceğini 12266
lük 12264
sa@@ 12262
Kat@@ 12253
dol@@ 12252
tal@@ 12235
bu@@ 12226
Avustralya 12224
ing 12223
c 12222
endi 12214
tığı 12200
kızı 12191
mesinden 12177
ağır 12166
ılık 12153
anl@@ 12150
1988 12148
ladı 12146
beyaz 12145
ime 12144
Bay@@ 12140
baş 12138
üre@@ 12134
Am@@ 12133
ığı 12130
yapı 12128
yapılmıştır 12109
iline 12105
elerinde 12092
alanında 12090
ru@@ 12088
model@@ 12084
diler 12081
kent 12077
ses 12072
Sar@@ 12055
undaki 12036
umu 12027
ayr@@ 12012
iller 12000
mek@@ 11996
Sh@@ 11989
Ödülleri 11976
hafta 11975
Fenerbahçe 11974
çalışmaları 11972
yönelik 11963
po@@ 11960
seçim@@ 11960
za 11959
din 11954
Gün@@ 11953
irken 11941
öne 11939
verir 11936
û@@ 11934
zorunda 11931
dar@@ 11929
On@@ 11923
kız 11908
kurum@@ 11902
? 11894
içerir 11891
oz@@ 11884
ordusu 11883
alarına 11864
yaklaş@@ 11847
şehri 11844
Merkez 11832
kent@@ 11829
durum@@ 11825
1987 11823
çevir@@ 11815
imler 11799
Bununla 11794
sonuç@@ 11789
dar 11782
Kom@@ 11778
yeri 11759
dair 11750
bes@@ 11749
Galatasaray 11748
alarında 11745
albüm@@ 11745
hareket@@ 11745
lık@@ 11740
X@@ 11732
güç 11728
be 11724
ilerek 11718
sev@@ 11703
yük@@ 11698
so@@ 11696
dağıt@@ 11694
kir@@ 11691
Kanada 11688
yapmış 11685
dem@@ 11678
Yarışması 11674
şek@@ 11670
lardır 11668
familyasına 11662
ane 11659
tartış@@ 11658
Re@@ 11654
X 11650
mesinin 11648
At@@ 11643
taşın@@ 11643
ılığı 11643
ılara 11642
değerlendir@@ 11639
alm@@ 11619
1928 11617
yen 11616
Bey@@ 11610
Mal@@ 11603
Doğ@@ 11596
bölüm 11596
çocuk@@ 11596
ığ@@ 11586
Hayatı 11579
esidir 11579
yılının 11578
hi@@ 11574
dönem@@ 11567
para 11548
lardı 11547
ham@@ 11544
Hav@@ 11543
onları 11533
lay@@ 11528
San 11527
ilç@@ 11526
lidir 11524
gözlem@@ 11519
üzerindeki 11519
sinema 11516
Ukrayna 11515
öner@@ 11503
Grup 11502
öldürül@@ 11493
ob@@ 11491
Kıbrıs 11490
inç 11472
başkenti 11462
Ağ@@ 11458
şarkıcı 11458
döndü 11457
Kore 11449
iti@@ 11449
karşıl@@ 11446
yüzyıl 11439
meyen 11427
1986 11426
til@@ 11426
dünyaya 11424
etkil@@ 11419
bilin@@ 11416
ılmaktadır 11410
büyü@@ 11403
FC 11379
karşısında 11369
eg@@ 11362
boş 11355
kendini 11349
III 11347
min@@ 11334
boş@@ 11330
kişinin 11328
arlar 11327
Köyün 11326
Tar@@ 11319
geleneksel 11318
yu 11318
S 11317
belirli 11301
giriş@@ 11296
hay@@ 11295
söyledi 11295
taraf@@ 11290
altına 11283
müz@@ 11281
çünkü 11281
1950 11270
tipi 11268
sayesinde 11259
adır 11239
ığına 11231
acaktır 11230
düz@@ 11230
topl@@ 11227
iden 11221
kiş@@ 11218
menin 11217
çift@@ 11213
aktif 11210
edilmektedir 11210
yolu 11209
yazarı 11205
Ordu 11202
Le@@ 11194
artık 11194
Ver@@ 11193
ren@@ 11192
indir@@ 11189
Muhammed 11178
alara 11178
yal@@ 11177
Şehir 11172
sayı 11164
yayın 11159
taş 11157
elli 11154
gerçekleştir@@ 11153
idae 11147
Hindistan 11139
iliği 11136
liğe 11136
vi@@ 11125
Hollanda 11120
İsveç 11119
dış 11117
kurdu 11115
sit@@ 11108
oy 11096
üniversit@@ 11095
emi 11091
enerji 11087
şehir@@ 11083
konu 11081
Han 11077
ses@@ 11071
galaksidir 11061
mam@@ 11029
William 11027
uygulan@@ 11018
1984 11016
mal@@ 10998
Es@@ 10989
Süper 10982
gerek@@ 10981
kardeş@@ 10979
Devleti 10974
Burada 10962
Her@@ 10962
eceği 10960
şehirdir 10956
kut@@ 10941
asıyla 10934
tanıt@@ 10924
üyle 10923
maçı 10917
1.@@ 10906
bey@@ 10902
destek 10900
Windows 10890
oc@@ 10882
kin 10878
teor@@ 10873
E 10870
yum 10870
Gürcistan 10867
iğ@@ 10858
şarkısı 10852
ide 10851
proj@@ 10850
sim@@ 10846
single 10846
indedir 10845
ilinde 10842
yerleşim 10842
hiç 10827
yazdığı 10826
şey 10824
2. 10817
UEFA 10814
1985 10801
idari 10799
ıma 10799
takip 10789
söy@@ 10778
elerine 10751
cinstir 10745
Ger@@ 10736
bölüm@@ 10733
Böylece 10730
ölçüde 10730
1982 10718
kuzey 10718
sürekli 10718
ılarak 10715
görül@@ 10714
yoktur 10705
Kap@@ 10693
Em@@ 10692
kazanmıştır 10689
iyor 10684
cu 10680
Tr@@ 10675
deniz@@ 10674
Te@@ 10673
üç@@ 10672
İs@@ 10669
kazanan 10668
tarihleri 10667
ter 10667
ışık 10655
Tarihi 10645
etmeye 10644
atik 10642
sahn@@ 10640
final 10639
Tek@@ 10638
devlet@@ 10637
üt@@ 10637
dışı 10628
oynanan 10627
çalışma 10622
kara 10620
tes@@ 10620
oyn@@ 10619
Deniz 10614
paylaş@@ 10608
bölgede 10597
başlat@@ 10595
adında 10592
ati 10590
he@@ 10586
ısına 10578
Ahmet 10575
ale 10563
silah@@ 10561
tiyatro 10555
mada 10554
ila 10551
Irak 10541
ğin 10535
U 10534
enc@@ 10534
halk@@ 10534
anc@@ 10529
yakın@@ 10525
aşağıdaki 10514
güney 10514
Yaz@@ 10513
yerini 10507
ısında 10504
sol@@ 10498
derec@@ 10496
sürdür@@ 10495
doğrudan 10489
ıyı 10476
üc@@ 10471
por 10468
kendisi 10459
Eğitim 10458
kitap 10451
kr@@ 10450
kötü 10445
Sal@@ 10443
fil@@ 10437
gösteren 10435
yerleştir@@ 10434
ize 10430
James 10427
açıklam@@ 10427
... 10426
rol@@ 10413
yazar@@ 10411
geçmektedir 10408
resmî 10405
best@@ 10400
ef@@ 10400
takımına 10395
uma 10394
yazdı 10394
ette 10388
popüler 10384
hayvan 10382
Bah@@ 10380
taşıyan 10377
isim@@ 10369
Sonuçlar 10368
kurulmuş 10366
Bölgesi 10356
çağ@@ 10353
üst@@ 10350
enler 10342
siz@@ 10338
fer@@ 10335
1983 10324
Sel@@ 10321
çevr@@ 10306
Yen@@ 10296
manı 10294
Kurulu 10293
Özel 10289
anları 10268
görevi 10257
Kuvvetleri 10246
pr@@ 10242
Kaz@@ 10239
ayır@@ 10230
kil@@ 10226
asından 10222
yoğun 10222
mevcut 10219
gerçekleş@@ 10214
3@@ 10203
Enstitüsü 10199
elektrik 10196
dam@@ 10194
ika 10191
can@@ 10187
David 10183
seviy@@ 10183
güney@@ 10172
sınıf@@ 10167
ımlar 10166
2.@@ 10165
Tan@@ 10165
ebil@@ 10161
Birinci 10157
dır@@ 10154
leştir@@ 10150
ıy@@ 10150
oran@@ 10147
çekil@@ 10138
kullanarak 10134
ındadır 10134
uş 10128
dönemi 10123
F 10120
Yaz 10120
ha 10116
Berlin 10114
60 10110
has@@ 10105
Ermeni 10104
medi 10102
Bo@@ 10100
otur@@ 10099
gelmiştir 10090
va 10084
Şehrin 10077
ins@@ 10076
yedi 10069
işi 10063
R 10062
halinde 10046
ot 10041
‘ 10037
yılındaki 10034
hizmet@@ 10021
düğü 10019
eşi 10017
Bakanı 10010
etmiş 9997
Cumhuriyet 9984
yaşam 9981
Altın 9980
19. 9977
ilçesinde 9972
çıkmıştır 9972
bölgesi 9962
ölç@@ 9961
Moskova 9955
Bak@@ 9951
süren 9949
kendisini 9944
bü@@ 9940
aktar@@ 9939
ch@@ 9931
Car@@ 9922
gelen@@ 9921
yıldız@@ 9920
inc@@ 9911
hak 9907
Mes@@ 9904
Profesyonel 9901
liğine 9893
nu 9893
yağ@@ 9893
van@@ 9881
etkisi 9870
aj 9869
ordu 9867
tor@@ 9859
araştırma 9858
bileş@@ 9855
Beyaz 9842
çift 9833
lenmiş 9831
Başkanlığı 9827
alık 9827
donan@@ 9827
ıklar 9824
dayan@@ 9821
madalya 9814
hesap@@ 9810
kurtar@@ 9804
kin@@ 9799
grubun 9795
bitki 9793
1979 9787
St@@ 9785
adaki 9781
sırasıyla 9778
mes@@ 9775
landır@@ 9774
edi@@ 9771
Festivali 9769
adam@@ 9763
dür 9752
sefer@@ 9750
Kariyeri 9741
Okulu 9736
Ma@@ 9723
açısından 9709
ley 9707
kü@@ 9706
Belediye 9683
kullanılmaktadır 9683
kişilik 9682
canlandır@@ 9672
bazen 9668
elere 9666
kasab@@ 9659
bildir@@ 9654
Michael 9651
200 9649
lığına 9645
şirketi 9638
Bor@@ 9634
nasıl 9632
ran@@ 9627
Olimpiyatları 9625
karış@@ 9625
birleştir@@ 9624
gösterir 9621
yet 9616
deney@@ 9615
ten@@ 9615
erini 9611
1981 9593
Tur@@ 9576
kaf@@ 9573
La 9572
Müslüman 9563
ge@@ 9561
dördüncü 9560
bilimsel 9554
kültür@@ 9549
cihaz@@ 9548
eğitimi 9548
mahalle 9544
kend@@ 9542
mon@@ 9539
alındı 9533
kayıtlarında 9522
Pol@@ 9521
M 9519
lu@@ 9518
cin@@ 9517
yöntem@@ 9517
kıl@@ 9512
ımını 9512
eh@@ 9511
açıkladı 9500
göç 9496
lis@@ 9493
olabil@@ 9491
annesi 9490
Ku@@ 9488
şehrinde 9479
oyunu 9474
lenir 9473
Kral 9471
kullanılmıştır 9471
Yar@@ 9466
görev@@ 9465
Ko@@ 9462
Ordusu 9462
sal@@ 9462
ümü 9460
istan 9459
yapmaktadır 9459
L 9458
arab@@ 9457
yapmak 9456
böylece 9455
üye 9438
Mad@@ 9436
Türk@@ 9435
verilmiştir 9424
ann@@ 9423
liğinde 9419
amaç@@ 9418
vak@@ 9410
çöz@@ 9410
bulunmuştur 9407
Krallığı 9404
tir@@ 9402
3. 9400
Yap@@ 9396
1974 9392
isim 9391
üretilen 9390
aklı 9385
pu@@ 9385
ecektir 9382
Yaşamı 9379
öncesi 9378
Mak@@ 9375
etkili 9375
ili@@ 9371
bölümünde 9369
Mel@@ 9355
Mah@@ 9345
buna 9344
yabancı 9344
med@@ 9343
ok 9337
gelmektedir 9333
hayatını 9332
iddi@@ 9330
yoluyla 9329
Az@@ 9327
takımyıldızı 9327
sul@@ 9316
1978 9313
yonu 9311
dikleri 9308
Grubu 9307
komut@@ 9303
yıldız 9298
gazet@@ 9290
stüdyo 9290
Bul@@ 9289
Günümüzde 9283
ati@@ 9281
ilgi 9280
Gal@@ 9278
hız@@ 9276
Gü@@ 9275
isidir 9273
Aş@@ 9270
Spor 9270
muh@@ 9263
şampiyon@@ 9260
başkan@@ 9256
eği 9256
1945 9252
Hava 9250
neredeyse 9246
ari 9243
min 9242
Lisesi 9234
Akdeniz 9227
P 9225
malzem@@ 9224
sahne 9221
çaplı 9219
iydi 9216
ord@@ 9214
10@@ 9208
örgüt@@ 9206
İz@@ 9206
konusu 9205
Ham@@ 9200
dini 9191
do 9184
gar@@ 9183
aile 9179
tarih 9176
kapat@@ 9173
mey@@ 9172
fır@@ 9171
zi 9170
yüksek@@ 9166
90 9162
kitabı 9161
iştir 9151
lerdir 9151
maktaydı 9151
yü@@ 9151
Savaş 9142
parti 9136
lanmaktadır 9134
Dev@@ 9127
göl@@ 9124
çocuğu 9122
geçirdi 9119
Robert 9118
mil@@ 9114
izm 9108
arkadaş@@ 9107
kalm@@ 9105
kıs@@ 9101
yasa 9091
tane 9090
kaybet@@ 9089
1973 9088
görevini 9080
terk 9080
1968 9078
sezon@@ 9074
Beşiktaş 9073
nün 9071
olay@@ 9068
iyordu 9064
siyasetçi 9057
imini 9056
th@@ 9053
çoğunlukla 9053
dizisi 9052
Sa@@ 9049
kı@@ 9049
diğinde 9046
fi@@ 9042
ığından 9041
arkadaşı 9038
og@@ 9037
futbolcu 9034
oğ@@ 9033
Kemal 9021
doğrul@@ 9018
kentinde 9018
bitir@@ 9016
finalde 9007
dikkat 9003
yüzden 9003
Fer@@ 9002
siy@@ 9000
sız@@ 8999
işgal 8998
Mor@@ 8994
ıdan 8992
mü@@ 8989
sınırları 8986
yetiştir@@ 8985
1972 8980
Ah@@ 8980
FIFA 8979
almış 8979
1975 8955
ündeki 8955
şirket@@ 8950
dili 8947
göz 8939
vermiştir 8938
kelim@@ 8932
hayatı 8931
tamamladı 8930
ılarını 8929
bölgesine 8920
metr@@ 8917
Kara 8915
Britanya 8911
mut@@ 8907
yürüt@@ 8906
filmin 8904
keşfedilmiştir 8904
lığa 8903
gitti 8902
üyeleri 8901
ez 8900
ilçesi 8900
seçim 8900
Hristiyan 8893
Bursa 8889
hâ@@ 8887
andır 8879
lanma 8876
araya 8873
eti@@ 8873
ıldığı 8872
Can@@ 8871
ce@@ 8870
nü 8868
başlam@@ 8867
değer 8865
giren 8864
kleri 8863
görülür 8862
ortalama 8861
San@@ 8860
ndeki 8858
canlı 8856
milletvekili 8854
ısının 8848
Küçük 8847
nam@@ 8844
1977 8843
Mat@@ 8837
adığı 8837
Mon@@ 8831
cı 8829
Tarih 8826
1920 8820
Bat@@ 8819
yl@@ 8816
kavram@@ 8811
aç 8810
Dar@@ 8809
lig 8807
yapılmış 8805
göç@@ 8802
esiyle 8800
suz 8797
başlarında 8791
° 8790
bah@@ 8787
Macaristan 8786
korun@@ 8786
sağlar 8780
hala 8775
sağlayan 8774
George 8764
kırmızı 8761
ing@@ 8759
seçimleri 8756
4@@ 8754
durumu 8753
alınan 8746
çiler 8745
sen 8742
takımında 8738
çarp@@ 8734
fi 8733
içindeki 8731
yayımlanan 8730
Sanat 8723
tep@@ 8723
Muharebesi 8719
yönetimi 8714
aklar 8705
değ@@ 8702
bab@@ 8693
id 8693
toplant@@ 8684
kökenli 8683
Mu@@ 8682
tepe 8681
başta 8671
can 8669
1976 8668
dek 8668
Meclisi 8663
sağlam@@ 8663
sanatçı 8655
mevcuttur 8650
İsviçre 8650
Kulüp 8649
mm 8649
anti@@ 8646
kuzey@@ 8643
baz@@ 8641
mağ@@ 8638
saat@@ 8635
ilerini 8627
etik 8625
bölün@@ 8616
yaşadığı 8603
ala 8602
Kültür 8601
düğ@@ 8593
lenmesi 8593
pleri 8592
2@@ 8590
sol 8588
mayan 8584
Güneş 8570
ete 8568
özellik@@ 8566
arın 8564
Özellikle 8564
onların 8556
Tab@@ 8549
Dr. 8540
val@@ 8540
olmadığı 8536
Tüm 8531
düzenlem@@ 8526
cu@@ 8524
1969 8520
Kadın 8517
merkez 8515
tas@@ 8514
Derneği 8513
Mas@@ 8512
eler@@ 8512
puan 8510
nak@@ 8509
ko 8507
ig@@ 8505
lıdır 8498
sü@@ 8497
duvar@@ 8495
tercih 8494
Müzesi 8493
1971 8491
anan 8488
çıkar 8477
kaya 8471
Gül@@ 8470
içine 8470
spor@@ 8466
kuvvet@@ 8462
lider@@ 8462
okulu 8461
çab@@ 8461
oynadığı 8453
Yak@@ 8451
ıştı 8449
diş@@ 8448
elerinden 8444
Akademisi 8441
kurtul@@ 8438
çapında 8434
zu 8433
Portekiz 8432
onay@@ 8431
Me@@ 8426
lığını 8423
2022 8417
atandı 8412
Sey@@ 8399
götür@@ 8396
dis@@ 8395
şey@@ 8392
80 8390
att@@ 8390
City 8380
eylem@@ 8377
x@@ 8377
ülk@@ 8372
bor@@ 8371
mişlerdir 8350
üretim 8349
asker 8347
ndaki 8346
normal 8345
eriş@@ 8340
denir 8339
ep@@ 8330
ice 8328
yayınladı 8328
gerçek@@ 8324
gücü 8324
mal 8322
orijinal 8317
Dur@@ 8314
derece 8305
lı@@ 8303
Pr@@ 8302
ip@@ 8300
tav@@ 8299
edilmesi 8298
mekteydi 8295
tahmin 8295
fark 8287
taşımaktadır 8286
makin@@ 8285
Val@@ 8284
br@@ 8283
ino 8274
performans@@ 8273
bilim@@ 8272
ydi 8270
oper@@ 8263
mac@@ 8262
Kadınlar 8260
Los 8259
ayrıldı 8259
ateş@@ 8257
göstermektedir 8257
ret@@ 8257
fa@@ 8256
yok@@ 8254
ticari 8247
edir 8246
andır@@ 8244
kum@@ 8244
Br@@ 8239
asker@@ 8239
istik 8234
1967 8232
söyler 8230
no@@ 8229
Pro@@ 8228
aşırı 8228
Taş@@ 8226
ücü 8223
siyon 8222
oyuncusu 8211
azalt@@ 8210
ülkede 8208
Bunlar 8206
devr@@ 8197
aka 8191
ve@@ 8191
ent 8189
üret@@ 8186
hatta 8183
likleri 8174
Et@@ 8172
takımın 8159
lamak 8158
ent@@ 8151
ölmüştür 8151
sağ 8149
Teknik 8148
gördü 8147
Charles 8140
Kilisesi 8140
amadı 8140
ılarının 8139
etkin@@ 8138
tü 8135
H 8131
anların 8129
Bas@@ 8128
mo@@ 8128
bilinmektedir 8123
yla 8122
birlik@@ 8119
mant@@ 8118
tim@@ 8110
açtı 8106
uğu 8100
artır@@ 8096
ikler 8096
ğini 8096
arka 8094
ks 8094
asa 8092
keşf@@ 8086
Mil@@ 8084
eli@@ 8084
durumda 8080
Sır@@ 8073
Tanrı 8072
kitap@@ 8064
ba 8052
Fil@@ 8048
Mem@@ 8048
day@@ 8047
eller 8042
fotoğraf@@ 8030
lak@@ 8030
özellikleri 8030
Paul 8028
des@@ 8025
kültürel 8024
ancı 8021
aday@@ 8020
yaptır@@ 8019
sanat@@ 8016
belli 8015
neden@@ 8012
İlçenin 8012
fik@@ 8010
sebebiyle 8010
ticaret 8010
roman@@ 8009
almak 8007
yetiş@@ 8002
luk@@ 7995
1930 7990
V 7987
insanların 7979
arada 7973
ğinde 7972
dönemin 7968
Van 7967
şiir@@ 7967
Ama 7966
adi 7966
takımının 7966
olma 7964
ısını 7964
lan 7963
metal 7960
Sam@@ 7959
adamı 7956
biçim@@ 7956
sınıflandır@@ 7956
yaş 7955
one 7954
hüküm@@ 7950
kuzeyinde 7950
Ana 7949
yerde 7948
lü@@ 7942
sistem 7942
hedef@@ 7934
ang@@ 7928
derg@@ 7925
ed 7924
aracılığıyla 7921
kesin 7917
tutuk@@ 7914
ziyaret 7914
yükseldi 7913
kulübünde 7912
1961 7909
70 7906
şi 7905
Geçersiz 7904
ano 7901
örnek 7899
pozisyonunda 7898
gen 7897
yapısı 7891
gece 7887
kale 7887
astronom 7877
doğum 7876
korum@@ 7875
sergil@@ 7875
etler 7871
liğin 7869
çalışmalar 7866
akları 7862
yıllar 7859
kendine 7856
müziği 7856
yem@@ 7854
mel@@ 7853
6@@ 7848
nüfusunun 7848
yurt 7848
etme 7847
çatış@@ 7847
â 7845
amacı 7844
yası 7843
üz 7842
kamp@@ 7838
olduğuna 7838
yn@@ 7838
olmadığını 7837
sekiz 7835
mışlardır 7826
biçimde 7821
Tür@@ 7820
35 7814
oluşturan 7813
ire 7808
45 7804
kadın@@ 7803
kontluğunda 7803
çesi 7802
Dav@@ 7800
ha@@ 7789
ilerde 7788
eng@@ 7786
Atatürk 7784
Rom@@ 7783
teslim 7783
parish 7781
ğ 7780
dağ 7778
gö@@ 7778
Naz@@ 7774
günlük 7772
Kas@@ 7770
civil 7770
elen@@ 7769
ker@@ 7769
rast@@ 7768
kararı 7766
iliş@@ 7761
çisi 7760
güven@@ 7759
tanr@@ 7758
ağır@@ 7754
şah@@ 7754
pazar@@ 7753
1965 7750
Yüz@@ 7748
klasik 7748
okul 7745
alanda 7743
Çok 7742
aşam@@ 7739
lılar 7739
toprak@@ 7739
doğan 7731
bilg@@ 7727
ortam@@ 7727
ilik@@ 7726
Th@@ 7722
fe@@ 7718
sahipliği 7718
vek@@ 7716
1966 7713
örneğin 7711
İrlanda 7707
İç 7707
ie 7702
1940 7701
sh@@ 7684
500 7683
pan@@ 7682
zar@@ 7682
siyah 7676
ask@@ 7675
ulan 7674
Do@@ 7671
çalışmaya 7670
are 7668
tutul@@ 7662
Sin@@ 7661
durdur@@ 7659
Aday 7656
araz@@ 7649
yere 7642
oyuncul@@ 7640
sağlay@@ 7640
end@@ 7633
illi 7633
açıl@@ 7632
sey@@ 7629
adi@@ 7624
ji 7623
ulu 7623
Yine 7614
önceleri 7614
Kır@@ 7611
etti@@ 7608
öğretim 7608
ast@@ 7607
uları 7607
Say@@ 7606
ifad@@ 7606
1964 7605
Sosyal 7603
kayb@@ 7603
ağa 7599
lenme 7593
trik 7582
Kad@@ 7580
veri 7579
yılda 7577
oluşmaktadır 7573
yayım@@ 7572
alarından 7569
ettiler 7562
yılın 7556
4. 7553
Sak@@ 7551
ailesi 7551
laştır@@ 7549
ölümünden 7543
20. 7541
insan@@ 7541
3.@@ 7538
ödül@@ 7536
giriş 7533
Tor@@ 7529
seçil@@ 7529
karşılık 7527
anlam 7526
kitab@@ 7524
bilgisayar 7523
yapmaya 7523
toprak 7520
ruh@@ 7519
elinde 7512
Konseyi 7511
ıklı 7510
Muh@@ 7509
şe 7508
listesinde 7506
üme 7505
etmesi 7503
abilen 7498
ığın 7497
lig@@ 7496
yor@@ 7495
iyet 7494
boğ@@ 7488
dalg@@ 7488
ces@@ 7486
fiziksel 7483
any@@ 7482
Kir@@ 7481
İspanyol 7477
General 7465
Trabzon 7465
urlar 7463
gelebilir 7461
kop@@ 7458
ımına 7456
sağlık 7454
Var@@ 7453
ra@@ 7453
polis 7452
kaybetti 7450
Oyuncu 7449
kullanımı 7448
N 7439
meler 7437
kalmıştır 7433
sivil 7433
insanlar 7420
32 7417
ita 7412
yüzey@@ 7410
Arapça 7406
türüdür 7403
G 7401
aba 7401
antik 7401
mücadel@@ 7395
ucu 7391
kullanıc@@ 7390
Hasan 7387
ell@@ 7369
gerekli 7368
ras@@ 7364
Ek@@ 7363
1. 7362
kanal@@ 7356
bazıları 7355
lardaki 7355
filminde 7354
Meksika 7352
Belçika 7351
güvenlik 7351
psik@@ 7351
yaparak 7349
anlığı 7348
Müz@@ 7345
TBMM 7344
enen 7339
onlar 7339
yazı 7339
şart@@ 7337
1944 7336
içi 7336
pol@@ 7334
ilerden 7333
sur@@ 7331
tarz@@ 7331
dığını 7328
1963 7323
yayımlandı 7321
ese 7320
filmde 7320
Bulgaristan 7317
ımın 7317
teleskopla 7316
madı 7314
çeşit@@ 7314
Birçok 7311
oluşturur 7311
ilebilir 7307
if 7304
sem@@ 7303
landığı 7302
Dönem 7299
pi@@ 7298
Mus@@ 7297
Peter 7296
sonradan 7295
sözleşme 7294
yenil@@ 7290
ma@@ 7289
sebep 7288
soy@@ 7284
şirket 7283
merkezli 7282
tüke@@ 7280
ımları 7279
dış@@ 7276
sorun@@ 7273
Kam@@ 7272
ıklarını 7269
henüz 7267
olduğundan 7263
Karadeniz 7258
oluştuğu 7256
hüc@@ 7255
yum@@ 7252
Kr@@ 7250
Katalog 7242
karş@@ 7238
Kızıl@@ 7237
malı 7231
uzay 7229
fir@@ 7226
sk@@ 7225
eline 7223
ettir@@ 7220
elerden 7218
maz@@ 7218
mod@@ 7218
ıştır 7218
rom@@ 7216
görülen 7212
dolayısıyla 7211
tekn@@ 7211
Microsoft 7206
Fransızca 7205
uyor 7205
adlandırılan 7204
yandan 7202
Gökyüzünde 7200
geçer 7196
yüzünden 7195
dür@@ 7191
boyut@@ 7186
Albüm 7182
tiler 7181
kaynağı 7179
İbrahim 7171
güneyinde 7165
5@@ 7163
yapılır 7163
imin 7161
est@@ 7160
larındaki 7160
motor@@ 7160
Arjantin 7159
ceph@@ 7159
teh@@ 7157
ağ 7151
ürün@@ 7148
sonlarında 7146
ödül 7146
belirtti 7145
sağladı 7145
Dış 7141
akta 7141
Mc@@ 7140
iv@@ 7139
zengin 7137
andığı 7136
Oy@@ 7134
getirildi 7134
sayılı 7128
anya 7126
Adana 7125
Yay@@ 7115
Efendi 7107
Grand 7100
1941 7099
ayet 7098
Kab@@ 7096
rock 7094
Geç@@ 7093
kül@@ 7093
fik 7090
karşın 7089
mümkün 7089
kar 7088
ta@@ 7086
orman@@ 7084
versiyon@@ 7080
Jean 7078
birliği 7073
eyen 7072
maçına 7068
sağlamak 7067
Federasyonu 7058
Sü@@ 7056
ikleri 7056
Hukuk 7049
era 7043
ciddi 7042
Ardından 7037
nes@@ 7032
Angeles 7029
aslında 7029
1962 7028
lisans 7027
önünde 7025
Babası 7024
amay@@ 7022
Yıl@@ 7020
şöyle 7014
land 7011
acılık 7009
Demir@@ 7005
Kralı 7000
iği 7000
ilerine 6998
Bölümü 6994
1959 6993
1956 6989
teş@@ 6988
programı 6986
ölüm@@ 6985
gec@@ 6984
Far@@ 6979
evlendi 6976
haber@@ 6975
World 6964
bugün 6961
uygul@@ 6958
ilişkin 6956
je@@ 6956
7@@ 6952
faaliyet@@ 6950
kaynak 6950
alam@@ 6949
olu 6949
üp 6948
yavaş 6947
Gu@@ 6946
ledi 6945
sık@@ 6945
lem 6942
hükûmet 6939
fe 6936
Mac@@ 6933
kus@@ 6932
orada 6932
leyici 6931
uru 6931
fark@@ 6930
Hitler 6929
kültür 6928
Mo@@ 6927
ikisi 6927
ğe 6919
ari@@ 6918
olacak 6917
Müdürlüğü 6907
rec@@ 6905
olan@@ 6902
mev@@ 6899
Eğer 6898
eseri 6893
let@@ 6891
çağr@@ 6891
Dışişleri 6886
turnuv@@ 6886
üretimi 6885
ğinden 6883
ton@@ 6882
ortadan 6878
aksine 6875
ga 6875
yasal 6874
kov@@ 6873
Süleyman 6872
ae 6871
yapar 6871
Söz@@ 6870
babasının 6868
olar@@ 6865
toplan@@ 6864
kralı 6863
lıklar 6863
kış@@ 6862
irdi 6858
Yer@@ 6857
ker 6855
mesinde 6854
birbir@@ 6853
om 6853
geniş@@ 6852
benzer@@ 6851
asıdır 6850
anlamlara 6846
kg 6846
Gr@@ 6845
gösterdi 6842
atan 6840
renk@@ 6825
dakika 6824
laması 6824
larca 6823
ber 6822
toplum@@ 6820
tüm@@ 6818
Ermenistan 6816
.. 6814
ris@@ 6814
von 6814
lideri 6810
Hüseyin 6801
eşit@@ 6800
Antalya 6797
Cor@@ 6796
örnek@@ 6795
demir 6794
vad@@ 6788
Sür@@ 6784
laşma 6782
Hristiyan@@ 6778
Ke@@ 6778
ayarak 6778
cinsel 6776
kapsamında 6776
1946 6773
Ok@@ 6771
mah@@ 6767
yo@@ 6765
kişisel 6760
tad@@ 6760
hakkı 6755
işle@@ 6755
yordu 6752
Dan@@ 6746
1958 6745
atör@@ 6744
inci 6744
pler 6744
IV 6739
tör@@ 6739
In@@ 6737
üzer@@ 6736
lüğü 6735
yasak@@ 6735
Gölü 6734
kı 6728
Ac@@ 6727
for 6727
çizgi 6727
final@@ 6725
yönetmen@@ 6724
sap@@ 6722
Sivas 6721
vatandaş@@ 6720
gizli 6717
la@@ 6717
ayak@@ 6715
karakter 6715
ağın 6713
giderek 6710
Park 6709
minin 6704
no 6704
kanıt@@ 6702
ort@@ 6700
gerçekleştirilen 6698
Norveç 6697
yaşındayken 6697
masıdır 6695
ayla 6693
Üç 6691
Gürcü 6690
Belediyesi 6685
girişim@@ 6685
yönet@@ 6685
azi 6684
yetkil@@ 6679
hızla 6677
Pe@@ 6675
ora 6675
konser@@ 6674
ırdı 6673
Gök@@ 6672
etkilen@@ 6672
biraz 6670
Antik 6669
sik@@ 6664
tarım 6662
değişik 6658
köyü 6654
mec@@ 6654
Seç@@ 6650
giden 6644
çalışmalar@@ 6644
gaz@@ 6642
politik 6641
und@@ 6639
tam@@ 6637
bunların 6636
adlandır@@ 6635
Hak@@ 6632
arş@@ 6630
getirdi 6628
St 6625
Erzurum 6622
radyo 6622
sürüm@@ 6622
NBA 6617
Sab@@ 6617
amaz 6616
eyalet@@ 6615
lamıştır 6613
giydi 6612
yakal@@ 6611
1918 6610
başarı 6608
mit@@ 6606
sene 6604
ölüm 6602
Str@@ 6601
önem@@ 6598
aşı 6597
kullanan 6596
ıç@@ 6596
pro@@ 6594
ner 6593
Co@@ 6591
Hint 6589
koşul@@ 6586
kit@@ 6585
silah 6581
model 6578
makal@@ 6571
Kem@@ 6567
geçmiştir 6562
lak 6562
diren@@ 6559
1957 6555
toplamda 6552
Basketbol 6551
On 6542
Camii 6541
pen@@ 6538
Filmin 6537
Cumhurbaşkanı 6536
memiş 6534
doğumlu 6532
ill@@ 6531
müzik@@ 6525
abilecek 6524
kre@@ 6520
faaliyet 6518
Denizi 6517
hat 6515
şer@@ 6515
nedeni 6514
tic@@ 6514
liğinin 6513
Min@@ 6512
savunma 6512
Konya 6511
To@@ 6508
web 6507
ğine 6504
olay 6502
ilerinden 6501
ımda 6501
ekonom@@ 6500
nokt@@ 6499
almaya 6492
Ben@@ 6491
ulaştı 6491
Sosyalist 6490
vaz@@ 6489
zaman@@ 6489
Yunanca 6484
öğ@@ 6481
Başkan 6479
lemek 6475
eser 6472
alardan 6471
ho@@ 6470
yor 6470
tanın@@ 6469
Venedik 6463
1954 6462
tre 6460
gi 6459
ansı 6458
1955 6457
ısıdır 6457
lıkları 6455
çı@@ 6454
ılarına 6453
ide@@ 6452
araç@@ 6449
kuşat@@ 6449
ılabilir 6447
Alt@@ 6445
kişidir 6445
düşür@@ 6444
katılan 6441
askerî 6436
str@@ 6434
1943 6433
Hol@@ 6431
sınır 6431
Stadyumu 6428
uzak 6428
mis@@ 6427
5. 6425
etnik 6420
aller 6419
üyor 6416
edebil@@ 6415
ğinin 6415
roman 6412
kayn@@ 6410
Uz@@ 6405
muhtemelen 6402
rolü 6402
eş 6401
1948 6400
kel@@ 6400
Ker@@ 6398
uldu 6397
uv@@ 6393
tır@@ 6392
kulü@@ 6391
ilmektedir 6390
mesaf@@ 6389
Den@@ 6386
kullanıldı 6386
alma 6385
ro 6384
böl@@ 6376
w@@ 6373
şampiyon 6373
Sem@@ 6372
finale 6372
Med@@ 6371
ers 6368
Ur@@ 6367
halkı 6367
ilişkil@@ 6367
özg@@ 6367
madde 6364
Danimarka 6361
Henry 6358
Ölümü 6358
Adası 6356
Adaylık 6356
Uzun 6355
anlı 6355
seri 6355
Osman 6354
dey@@ 6353
graf@@ 6352
çıkış 6349
yüz 6346
Rus@@ 6345
söylem@@ 6345
Bab@@ 6344
For@@ 6344
Sah@@ 6343
idar@@ 6341
pak@@ 6341
sinin 6339
önde 6339
başardı 6338
rim 6338
lilik 6337
yük 6337
oynayan 6335
özelliği 6334
oynan@@ 6331
Thomas 6328
imparator@@ 6326
0@@ 6324
gereken 6324
akt@@ 6323
olmam@@ 6323
Mü@@ 6321
1939 6320
Milletler 6320
urdu 6320
Kızıl 6319
ali@@ 6319
Sen@@ 6316
başvur@@ 6316
koş@@ 6315
land@@ 6315
Kategori 6314
lenmektedir 6313
nö@@ 6310
League 6307
sub@@ 6305
malar@@ 6304
belirt@@ 6303
Şark@@ 6301
ödülü 6299
Mez@@ 6296
Nazi 6296
kuvvetleri 6294
şampiyonu 6288
Samsun 6287
küt@@ 6287
seçimlerinde 6286
birim@@ 6285
Ro@@ 6284
genelde 6284
Mehmed 6283
tar 6283
tedavi 6283
por@@ 6281
ys@@ 6281
Sırbistan 6279
keş@@ 6274
sürec@@ 6274
gerektiğini 6273
ica 6270
Genç 6267
Tiyatrosu 6266
ismini 6265
hayat@@ 6261
birbirine 6259
Lis@@ 6257
ade 6257
girmiştir 6257
sert 6256
seçilmiştir 6256
kh@@ 6252
çap@@ 6252
birisi 6244
kın@@ 6243
lendir@@ 6238
dek@@ 6236
Po@@ 6235
işe 6234
Komünist 6233
Ben 6232
Yarış@@ 6227
düz 6227
makam@@ 6221
nik 6221
çalıştır@@ 6221
lığın 6219
ban@@ 6217
hikây@@ 6214
Final 6213
af 6213
pop 6212
300 6208
zor 6204
fin@@ 6203
ch 6202
verilir 6196
yönel@@ 6196
civarında 6194
Kav@@ 6193
güzel 6192
milyar 6192
öy 6187
ımc@@ 6185
futbol@@ 6184
Li@@ 6183
aliz@@ 6183
ladığı 6183
ışlardır 6173
kod@@ 6172
ağaç@@ 6169
düşünül@@ 6168
iyet@@ 6168
mahall@@ 6165
çö@@ 6165
itibarı 6163
gaz 6159
Haz@@ 6158
bozul@@ 6158
Richard 6157
yazılan 6155
bölgeye 6151
düzenli 6150
ardır 6146
saha 6146
fer 6143
sürdü 6139
Oyunları 6136
egemen@@ 6136
yaşadı 6134
hafif 6133
incelem@@ 6131
arlı 6128
Mir@@ 6127
olog 6127
uğ@@ 6125
kullanılarak 6118
bölgeler@@ 6117
Kısa 6111
sı 6109
oz 6107
diy@@ 6104
endüstr@@ 6104
köş@@ 6102
çoğ@@ 6102
Has@@ 6096
hangi 6096
dizisinde 6095
Men@@ 6092
arda 6092
basit 6092
Gel@@ 6089
uydu 6087
ildiği 6086
üğ@@ 6085
kişiler 6083
Dağ@@ 6081
Antlaşması 6080
Pl@@ 6079
aci@@ 6078
eci 6077
hek@@ 6077
Washington 6076
çev@@ 6076
birden 6075
ayn@@ 6071
erkek@@ 6071
uzman@@ 6071
Yönetim 6069
bek 6067
ışt@@ 6066
gümüş 6065
Han@@ 6063
Savaş@@ 6063
Havalimanı 6061
her@@ 6060
all@@ 6058
noktası 6055
Topl@@ 6050
dılar 6049
istasyon@@ 6049
sin 6049
vermektedir 6047
taşındı 6046
Göl@@ 6045
Cel@@ 6040
gerçekleşen 6040
kın 6040
etki 6039
saldırı 6035
1942 6033
Genellikle 6030
kilis@@ 6029
mamış 6029
çekildi 6027
pe@@ 6026
asıllı 6023
günümüze 6021
rej@@ 6021
Romanya 6019
gez@@ 6018
davranış@@ 6014
krall@@ 6010
sahipti 6008
kulüp 6004
arttır@@ 6002
don@@ 6001
beşinci 5998
net 5998
düğünü 5995
yönetmen 5995
dalında 5994
gören 5993
Kırım 5992
başkan 5990
boz@@ 5988
mektu@@ 5987
tanınan 5986
undadır 5985
çıkt@@ 5984
sonuna 5981
United 5979
ori 5978
haber 5977
niş@@ 5976
Pan@@ 5975
1953 5973
des 5971
isti 5971
rak@@ 5971
sinem@@ 5971
öğrenc@@ 5970
Rusça 5968
by 5967
eceğ@@ 5966
Sur@@ 5965
hukuk 5965
erinin 5963
1919 5962
edilebilir 5962
bitirdi 5960
erine 5960
You 5956
ağaç 5956
nok@@ 5956
Sor@@ 5955
küm@@ 5955
lenmiştir 5954
kullanılabilir 5952
yerli 5949
etleri 5948
kabil@@ 5948
sok@@ 5948
sektör@@ 5946
haf@@ 5942
Nas@@ 5941
8@@ 5940
Yahud@@ 5934
çıkart@@ 5934
araç 5933
ket@@ 5933
ind@@ 5931
elerle 5928
fabrik@@ 5928
geçiş 5928
off 5924
toplam@@ 5922
Bi@@ 5920
Gen@@ 5919
taşı@@ 5918
Mur@@ 5917
Q@@ 5913
Olimpiyat 5910
dö@@ 5908
lıkla 5908
istifa 5904
zarar 5903
geçici 5902
Saint 5897
Katolik 5896
albümün 5895
kayıt@@ 5893
Finlandiya 5891
karşılaştır@@ 5887
medi@@ 5887
Ahmed 5886
çu 5885
hükûmeti 5883
emekli 5882
çıkardı 5881
görülmektedir 5879
yayınlanmıştır 5877
1952 5875
çalışır 5871
temsilc@@ 5869
Yüzölçümü 5868
memiştir 5865
gösterildi 5864
Kutsal 5862
numaralı 5862
Erkekler 5860
ard 5860
Dağı 5857
hatt@@ 5857
üd@@ 5857
ular@@ 5856
şehridir 5853
benzeri 5847
Milli 5845
ba@@ 5845
başlamış 5845
andan 5843
internet 5842
Komitesi 5839
mezar@@ 5839
teknoloj@@ 5839
Yaş@@ 5837
culuk 5837
sav@@ 5837
Lo@@ 5836
oluşturul@@ 5834
olumlu 5833
tif@@ 5831
varsay@@ 5829
Bin@@ 5827
Sev@@ 5824
tahta 5824
ıtı 5823
Viyana 5821
önceden 5821
Yas@@ 5820
abilmektedir 5820
öğrenci 5818
imzaladı 5815
hücrel@@ 5814
top 5813
faz@@ 5811
üreti@@ 5808
yaz 5802
He@@ 5801
babasıdır 5799
DNA 5797
aceae 5797
Şu 5797
dü@@ 5796
seslendir@@ 5796
fonksiyon@@ 5793
Almanca 5791
yayıl@@ 5790
kür@@ 5787
erler 5786
arken 5784
cinsidir 5784
sebe@@ 5780
yard@@ 5780
Don@@ 5779
sorumlu 5779
Pal@@ 5777
katıldığı 5777
Meclis 5776
1@@ 5775
4.@@ 5772
zamanlar 5772
evlen@@ 5769
lin 5769
ailesinin 5766
leşme 5765
Af@@ 5764
ilip 5764
resim 5763
organiz@@ 5759
ura 5759
ira 5755
rapor@@ 5754
tören@@ 5754
çizg@@ 5751
onlara 5749
dere 5748
oldukları 5748
Diyarbakır 5746
geldiği 5744
efsan@@ 5743
lek@@ 5741
benz@@ 5739
yaşamı 5736
minde 5734
Billboard 5733
bö@@ 5733
ört@@ 5733
İsa 5731
lad@@ 5730
ektedir 5728
del 5724
lerindeki 5724
red@@ 5719
alar@@ 5717
kuyru@@ 5717
Eş@@ 5716
sabit 5716
ıştır@@ 5715
genç@@ 5714
sınıf 5714
Arnavutluk 5713
zamanlarda 5713
yo 5712
sefer 5710
ımının 5709
çeş@@ 5708
platform@@ 5707
bölgenin 5704
meş@@ 5703
ederken 5702
hap@@ 5702
olmadan 5700
hakları 5699
diğ@@ 5695
koruma 5695
isinden 5694
ister 5694
Akademi 5692
özel@@ 5686
1949 5684
ket 5683
Eyaleti 5682
yarar@@ 5681
Louis 5680
tri@@ 5679
oda 5678
gerekir 5677
1947 5676
altındaki 5676
aralarında 5673
miş@@ 5672
kıt@@ 5671
edildiği 5668
endi@@ 5666
MS 5663
güneş 5662
salg@@ 5661
alg@@ 5660
mağlup 5660
sıcak 5659
komündür 5656
Sil@@ 5654
renk 5653
aktır 5652
sıcak@@ 5650
bunlar 5647
Sch@@ 5645
asındaki 5645
ayrımı 5641
400 5640
kenar@@ 5639
ısından 5637
Şampiyonlar 5635
Bağ@@ 5634
Gir@@ 5634
1938 5632
asıl 5630
Erkek 5627
not@@ 5627
parça 5627
barış 5626
unsur@@ 5626
Adaları 5621
başladığı 5621
kimyasal 5621
yönetmenliğini 5619
çalışması 5618
gan 5617
Bayr@@ 5616
Dol@@ 5616
Res@@ 5616
öğretmen@@ 5616
mahkem@@ 5615
eşit 5611
Gör@@ 5607
ettiğini 5607
İnsan 5604
ate 5603
mer 5603
organ@@ 5601
cul@@ 5600
serisi 5600
top@@ 5598
başrol@@ 5596
duyurdu 5595
serv@@ 5595
Çağ 5594
amaçlı 5593
yenin 5592
yönettiği 5592
rad@@ 5590
6. 5588
Ef@@ 5587
Love 5587
makla 5585
uğraş@@ 5584
plan 5583
toplumsal 5583
performans 5582
ülü 5582
gruplar@@ 5581
kalp 5580
attığı 5579
böyle 5579
Üçüncü 5574
Ir@@ 5573
Pat@@ 5573
amam@@ 5573
Atina 5572
ph@@ 5571
Gar@@ 5570
Gür@@ 5568
lanarak 5568
ilerle 5566
kiler 5565
Latin 5562
batısında 5562
yeşil 5559
endir@@ 5558
kamu 5557
Vol@@ 5555
öz 5555
üş 5554
yazılmış 5553
Saf@@ 5552
familyasıdır 5551
ret 5548
kurulu 5542
Modern 5541
Martin 5540
Oyun 5540
kadınlar 5538
Rum@@ 5535
sahi@@ 5534
Sim@@ 5530
birey@@ 5529
Records 5528
Si@@ 5528
zamanında 5527
aynalı 5526
bağlant@@ 5524
sezonunun 5523
ass@@ 5521
isiyle 5521
Aydın 5520
Bu@@ 5520
adam 5520
antren@@ 5520
dr@@ 5520
ven 5519
imli 5518
ılarında 5518
akla 5517
kazandır@@ 5512
sab@@ 5512
doğusunda 5509
Kudüs 5508
Tah@@ 5508
bed@@ 5508
Din@@ 5507
durumunda 5507
kilise 5507
fre@@ 5506
sunuc@@ 5505
istedi 5504
det@@ 5503
Un@@ 5502
anma 5498
ilerinde 5498
Dr@@ 5497
ınt@@ 5497
halka 5496
yesi 5496
iletişim 5493
sarı 5493
katı 5492
uşu 5492
ja 5490
tapın@@ 5490
orta@@ 5489
Fatih 5488
Su 5486
bağl@@ 5485
olmay@@ 5482
yönetic@@ 5480
bakımından 5478
oni 5476
ateş 5475
nit@@ 5475
ayar@@ 5473
işlet@@ 5473
Erken 5472
üstü 5472
Con@@ 5470
1925 5469
Sağlık 5469
katkıda 5469
Sol@@ 5468
Tat@@ 5468
eserleri 5465
kendisinin 5463
bay@@ 5462
başlandı 5461
kilometre 5461
Gre@@ 5460
fl@@ 5457
ilk@@ 5457
işlev@@ 5455
ej@@ 5453
len 5453
anus 5452
dik 5449
olojisi 5449
türleri 5449
ekran@@ 5446
kuş 5446
çevrel@@ 5446
ölümü 5445
dünyada 5444
yel@@ 5444
kâ@@ 5442
gider@@ 5439
maddel@@ 5439
acak@@ 5438
kiye 5437
yörüng@@ 5433
Ul@@ 5431
başlıca 5431
Birleşmiş 5429
Göz@@ 5427
ıza 5426
gan@@ 5425
ant 5424
ecek@@ 5422
sonuçları 5421
Güvenlik 5418
sanatçı@@ 5413
mediği 5412
bağlıdır 5411
1936 5408
ımında 5408
Pap@@ 5407
işaret 5407
ella 5406
gin@@ 5406
Kut@@ 5401
uçak 5401
başarısız 5396
lev@@ 5395
anlamda 5394
standart 5394
kalit@@ 5391
Savunma 5390
lerdeki 5389
Ve 5388
siyon@@ 5385
Farsça 5384
evinde 5383
topluluk@@ 5383
Mut@@ 5382
başl@@ 5380
sarmal 5379
yakınlarında 5378
maruz 5375
urken 5374
cam@@ 5373
leridir 5372
Kel@@ 5370
numaraya 5370
sezonda 5370
Başkan@@ 5369
İl 5369
engel@@ 5367
kullandığı 5366
yaşan@@ 5364
izi 5361
hastan@@ 5360
hir 5360
imzal@@ 5360
1951 5358
Ül@@ 5357
allar 5356
$ 5353
Lee 5350
sıralam@@ 5350
00 5348
Yol@@ 5348
oloj@@ 5348
Sırp 5346
ekiplerinden 5346
ida 5344
é 5344
1933 5343
ekte 5343
kayıt 5343
aral@@ 5341
önc@@ 5341
yalı 5340
ülkeler 5340
inti@@ 5339
1921 5338
filmidir 5338
dijital 5336
olar 5336
dalga 5334
Kullan@@ 5331
ortak@@ 5331
çekti 5331
modeli 5330
bastır@@ 5329
duyur@@ 5328
Hey@@ 5327
kulübü 5327
suyu 5327
Tem@@ 5325
aktadır 5325
ardı 5323
tuğ@@ 5323
Del@@ 5319
dile 5319
1922 5317
Makedonya 5317
birlikleri 5317
Tek 5314
kat 5314
komedi 5313
Ti@@ 5311
elektronik 5311
sp@@ 5310
adayı 5309
renkli 5309
Adalet 5307
bugünkü 5305
üniversite 5305
motor 5304
gid@@ 5302
mekle 5299
Bölge 5298
1935 5295
edin@@ 5295
ku 5295
yola 5291
ilişkileri 5289
Kurul@@ 5288
sürdürdü 5287
kapsam@@ 5284
ışma 5283
çat@@ 5281
şair 5279
Rad@@ 5276
Vakfı 5275
süt@@ 5273
Cam@@ 5270
Sez@@ 5269
katılmıştır 5269
33 5268
san 5268
paşa 5267
vil@@ 5267
öv@@ 5267
maça 5263
Joseph 5260
Hi@@ 5258
hatır@@ 5257
sezonun 5255
Al 5254
Bundan 5254
amb@@ 5254
gal@@ 5251
Tiyatro 5250
ajı 5244
atif 5243
dedi 5243
kullanır 5242
sanatçısı 5241
75 5240
emek 5240
Düş@@ 5237
dolar 5235
Adam 5231
dönüştür@@ 5231
geçmiş 5231
kurucusu 5231
Google 5229
Yerli 5229
lanabilir 5227
ski 5226
halde 5225
kup@@ 5225
dağıl@@ 5224
uva 5221
ong 5220
saf@@ 5219
lin@@ 5218
likler 5216
likte 5215
iksel 5214
ığının 5214
uyordu 5210
oynam@@ 5208
kontrol@@ 5204
yanlış 5204
Apple 5202
tik@@ 5202
üyordu 5202
işleri 5198
parçac@@ 5195
pınar 5193
yoğun@@ 5191
Dağları 5187
oynamıştır 5185
ığa 5185
çak@@ 5183
1923 5182
ediyor 5182
petrol 5182
yaşanan 5182
esindeki 5179
süre@@ 5179
gu 5178
yayınlan@@ 5176
bulundur@@ 5175
mat@@ 5175
set@@ 5175
Demokratik 5173
vir@@ 5170
yönetilen 5169
5.@@ 5168
ödülünü 5165
uygulama 5164
belgel@@ 5163
Araştırma 5162
uzun@@ 5162
lıca 5159
zaf@@ 5159
değeri 5157
Is@@ 5155
derin@@ 5155
geçerek 5153
iliyor 5153
lığının 5153
bıraktı 5150
nesn@@ 5148
yanına 5148
Ba@@ 5146
ud@@ 5145
hayatta 5144
hükümdar@@ 5144
liler 5144
anlaşma 5142
fr@@ 5142
köyün 5141
buldu 5139
Top@@ 5138
enerj@@ 5138
karmaşık 5138
sürede 5138
hayvan@@ 5135
Ho@@ 5134
Kazakistan 5133
ılardan 5132
cil 5127
vel@@ 5127
eki 5126
besi 5125
teşvik 5124
test 5123
ts@@ 5123
ven@@ 5123
takımları 5122
Madrid 5121
mış@@ 5121
rel@@ 5121
lediği 5116
tim 5116
Kraliyet 5115
Parkı 5115
ilişkiler 5115
ilerlem@@ 5114
64 5113
idam 5113
ediği 5112
Qu@@ 5111
şiir 5111
Os@@ 5110
ıf 5110
başlad@@ 5107
16. 5106
erk@@ 5106
alınmıştır 5104
Yarı 5101
liliği 5097
met 5097
vermek 5096
Evli 5094
oyu 5091
Şah 5090
fiy@@ 5088
Çanakkale 5088
anlık 5087
basketbol 5086
erdi 5086
Katılım 5084
göre@@ 5084
Ey@@ 5082
Çocuk@@ 5082
statüsü 5081
belirtil@@ 5080
grubunun 5080
isteyen 5077
kısıt@@ 5076
demiryolu 5075
eğer 5073
okum@@ 5072
uların 5070
aittir 5068
tez@@ 5066
ders 5062
hi 5062
halkın 5061
koleksiyon@@ 5061
1924 5060
malarına 5059
lük@@ 5058
açıdan 5057
menler 5053
amak 5050
ürün 5050
eğitimini 5048
kt@@ 5047
Yılın 5046
Bosna 5043
savaşı 5043
malarını 5042
asal 5039
miktarda 5039
duğunu 5038
dük@@ 5038
gesi 5037
ören 5036
aban 5034
kenti 5034
ima 5032
edebiyat 5030
görevine 5030
odak@@ 5029
Fe@@ 5026
hareketi 5026
yerleşimi 5026
Çünkü 5025
İnsan@@ 5024
adlandırılır 5022
kis@@ 5022
tarihsel 5021
başkanlığı 5016
Büyükşehir 5015
Tep@@ 5013
ilgilen@@ 5013
değildi 5011
yeterli 5011
üyesidir 5011
ılar@@ 5008
1937 5007
çevresinde 5004
etkileş@@ 5003
etrafında 5003
gömül@@ 5003
Cen@@ 5002
Doktor 5001
emez 5001
So@@ 5000
yansıt@@ 5000
talep 4999
küresel 4998
parçal@@ 4997
Kayseri 4996
bağış@@ 4995
Son@@ 4994
ailenin 4994
aza 4993
derin 4993
festiv@@ 4992
7. 4988
mot@@ 4988
raf@@ 4988
Kalesi 4986
atan@@ 4986
tabak@@ 4986
cem@@ 4985
Mahkemesi 4984
şunlardır 4983
tehdit 4982
üğü 4981
Bunların 4979
yüzde 4974
kulüplerinde 4973
Boz@@ 4972
kaçır@@ 4971
açılan 4970
İk@@ 4970
geçirdiği 4969
yönetmeni 4969
zir@@ 4969
esas 4968
Aziz 4964
34 4963
Hu@@ 4963
Me 4963
hayatına 4961
Ban@@ 4960
SS 4959
Kulübü 4958
oları 4957
ori@@ 4957
yemek 4957
pap@@ 4955
ılarından 4955
eşlik 4950
dolaş@@ 4949
aylık 4947
48 4945
artan 4944
gemi 4944
istler 4944
İsmail 4944
kategor@@ 4943
lamaya 4943
edip 4942
unca 4942
ordusunun 4941
davet 4940
gelişmiş 4940
1914 4939
Karak@@ 4939
sınırlı 4936
açıldı 4934
Col@@ 4932
general 4932
iliyordu 4932
Kürt 4930
birer 4930
yür@@ 4928
dokuz 4921
ekler 4921
ilişki 4921
Kum@@ 4920
dayanan 4920
versiyonu 4920
Boy@@ 4919
arac@@ 4919
yardımcısı 4919
aştır@@ 4918
1934 4917
olmakla 4917
biriydi 4916
meni 4916
mikro@@ 4916
bünyesinde 4915
karakteri 4915
alanları 4913
fa 4913
lim@@ 4913
engell@@ 4912
1912 4908
Kul@@ 4908
Tıp 4908
Mi@@ 4906
silahlı 4906
İsk@@ 4906
Mersin 4905
edebiyat@@ 4905
Barış 4901
Çağ@@ 4901
kuruc@@ 4900
alist 4898
def@@ 4897
önem 4896
dah@@ 4894
müd@@ 4894
doldur@@ 4890
metin 4890
dem 4889
berg 4888
ötürü 4887
Hor@@ 4886
lise 4884
unvanını 4884
şarkının 4882
köprü 4879
mavi 4879
18. 4877
eğitim@@ 4872
tat@@ 4871
Div@@ 4870
isi@@ 4869
bozuk@@ 4867
Takımı 4866
dost@@ 4865
ens@@ 4865
ekibi 4863
art 4862
Sonraki 4857
ence 4855
karıştır@@ 4855
ligi 4855
Litvanya 4854
Jackson 4853
dans 4853
yargıl@@ 4853
Kend@@ 4852
Dün@@ 4848
eleme 4848
ciler 4847
edit@@ 4846
OS 4845
olmaya 4844
kaydet@@ 4840
şüph@@ 4840
isten@@ 4839
İmparator 4839
kapalı 4838
emek@@ 4837
ell 4835
istatisti@@ 4835
larıdır 4835
yab@@ 4835
Mek@@ 4833
komutanı 4831
Star 4829
imiz 4829
mamıştır 4829
çileri 4829
Arap@@ 4828
dukları 4827
lenebilir 4827
Bulgar 4825
Lig@@ 4825
ihtiyaç 4824
Ticaret 4823
gruba 4822
karşılığında 4822
36 4820
gol@@ 4818
oluşturulan 4818
bey 4817
kullandı 4817
tarafında 4816
ğlu 4816
1917 4815
yanın 4815
tarihlerinde 4814
One 4813
önüne 4812
ahi 4811
klu 4811
birinin 4809
uncu 4808
lir 4806
müsabak@@ 4806
seçilen 4806
ülkelerde 4806
kesi 4800
kıyısında 4800
esnasında 4798
bilgisayar@@ 4797
prodük@@ 4796
Ta@@ 4795
layarak 4794
lüğünü 4794
lığ@@ 4794
Açık 4792
Ömer 4792
bilgiler 4789
tiğini 4789
düşünülmektedir 4787
ıdaki 4787
Kuş@@ 4785
ab 4785
zam@@ 4784
takımlarından 4783
Lim@@ 4782
Şi@@ 4780
Hanedanı 4779
baskı 4776
eri@@ 4776
eğiti@@ 4775
medya 4775
tarzı 4774
ılarda 4774
özgü 4773
dükten 4772
milletvek@@ 4771
çıktığı 4770
ölümüne 4770
Sarayı 4769
ayrılır 4769
Devrimi 4768
ami 4768
söyl@@ 4767
üstlendi 4766
ıyor@@ 4766
Video 4765
atlar 4765
üretil@@ 4765
oluşturduğu 4764
dak@@ 4763
bundan 4760
ayda 4757
oynamaktadır 4756
Abdül@@ 4753
iti 4751
operasyon@@ 4750
ımlı 4747
süs@@ 4746
Ör@@ 4745
imza 4743
harf@@ 4742
Çek@@ 4742
ii 4741
oğulları 4741
za@@ 4741
Yal@@ 4739
gök@@ 4738
sistemleri 4737
Yun@@ 4736
Herschel 4735
irleri 4733
9@@ 4732
süresi 4728
yaşamaktadır 4728
ea 4727
tipik 4726
yatır@@ 4726
Filistin 4724
Ag@@ 4722
fen@@ 4722
plar@@ 4722
rek 4722
bağlantılar 4720
hane 4716
Murat 4715
toplum 4715
soğ@@ 4714
zan 4714
Üniversit@@ 4714
ı.@@ 4714
kü 4709
barındır@@ 4707
okun@@ 4707
uzanan 4705
Bilim 4703
Kim@@ 4703
sisteminin 4702
tiy@@ 4702
inde@@ 4700
kurucu 4700
Siy@@ 4699
ahl@@ 4699
durumlarda 4698
şehirde 4697
abilirler 4696
Kitap 4695
Bek@@ 4694
lisi 4693
konul@@ 4688
ilg@@ 4687
WWE 4685
ikili 4685
gönderildi 4684
tesis@@ 4684
Ön@@ 4684
Yugoslavya 4683
kalma 4681
Maria 4680
giyen 4680
geliştirilen 4679
madığı 4679
olduktan 4678
nükleer 4676
vol@@ 4673
çoğunluğu 4672
yazılmıştır 4670
Yıldız 4669
Cup 4668
malıdır 4668
ızı 4668
şah 4668
1926 4667
aracı 4667
haned@@ 4667
problem@@ 4666
ıf@@ 4666
mekaniz@@ 4665
dos@@ 4664
Şeh@@ 4663
Ram@@ 4662
sınıfı 4661
takımlar 4660
tarihinin 4660
tarihte 4659
ze@@ 4659
Fu@@ 4658
temiz@@ 4658
Cem@@ 4657
Sultan@@ 4655
ıld@@ 4651
Edward 4650
Haf@@ 4650
çalışmalarına 4650
açıklandı 4649
viz@@ 4649
bütün@@ 4648
çilik 4647
forması 4646
maların 4646
görüldü 4645
temsilcisi 4645
çoğun@@ 4644
kolon@@ 4643
atlı 4641
dayalı 4641
for@@ 4639
ebe 4638
hücre 4638
Tam@@ 4636
38 4635
mesidir 4635
Eskişehir 4633
May@@ 4633
Ord@@ 4633
ece 4631
konser 4630
Şah@@ 4629
dakik@@ 4625
ıkların 4625
iyeti 4624
hayat 4623
sıklıkla 4623
irse 4622
Selçuklu 4620
türlü 4620
55 4619
alması 4619
ağının 4617
edeki 4616
tül@@ 4615
olacaktır 4612
kral@@ 4610
köpr@@ 4609
birisidir 4606
çer@@ 4606
kısmen 4604
Balıkesir 4601
1927 4600
Ra@@ 4600
Sav@@ 4600
arm@@ 4600
Ka@@ 4599
sam@@ 4599
vat@@ 4599
müh@@ 4597
De 4595
öncesinde 4595
Latince 4592
ted@@ 4592
ikli 4590
Bakü 4589
Met@@ 4589
rı 4589
ıcılar 4588
6.@@ 4587
enmiş 4586
sanayi 4586
My 4585
arasına 4584
sey 4584
nüfusun 4580
direktör 4579
sonuç 4579
yönlendir@@ 4579
mik@@ 4574
göreve 4573
— 4573
yazılım 4572
geç 4571
eğini 4570
arg@@ 4569
Macar 4568
depre@@ 4568
İç@@ 4567
hakkındaki 4566
luğunu 4566
Cer@@ 4565
algıl@@ 4564
yönetim@@ 4563
adının 4562
Yerel 4561
kaydetti 4559
ortasında 4559
Sek@@ 4558
malara 4557
Bankası 4555
ıcısı 4555
Oyun@@ 4553
go 4552
pik 4552
leyerek 4551
Kurtuluş 4550
belediyeye 4550
civar@@ 4550
dan@@ 4550
TRT 4549
atör 4548
lili@@ 4546
pler@@ 4545
kendilerini 4543
Le 4542
West 4542
bakış 4541
koruy@@ 4541
nitelendir@@ 4541
uzaklıkta 4541
Edirne 4539
Tarih@@ 4538
emiştir 4537
çocukları 4537
olaylar 4536
çalışt@@ 4536
Mik@@ 4535
göstermiştir 4533
teri 4533
aret 4532
Kı@@ 4530
akış@@ 4530
cer@@ 4530
kullanım 4530
‎ 4530
ayrılmıştır 4529
yazmıştır 4529
güc@@ 4528
çıkmış 4528
derecede 4527
şehr@@ 4527
Güzel 4526
lo 4526
bölümde 4523
çevre 4523
ang 4522
ato 4522
je 4522
soğuk 4522
boyu 4521
aylar 4520
fos@@ 4520
koz@@ 4520
işletim 4519
Nik@@ 4518
SSCB 4518
akar@@ 4518
anti 4518
sözleş@@ 4517
Abdullah 4516
ğı 4516
37 4514
buluş@@ 4514
yapılmaktadır 4514
avi 4513
tuz@@ 4513
Bölüm@@ 4511
w 4510
Bugün 4509
abileceği 4509
düştü 4509
acaktı 4508
değişik@@ 4506
kesim@@ 4505
kural@@ 4505
Nor@@ 4504
far@@ 4504
65 4502
Bunlardan 4500
Maç@@ 4499
Kül@@ 4498
ederler 4498
Takım 4496
Ge@@ 4491
ayet@@ 4491
bölgesinin 4491
uzak@@ 4486
gerçekleşti 4484
bronz 4481
lenerek 4481
örler 4480
Gazi 4478
sur 4477
sürül@@ 4476
cad@@ 4475
kolay 4475
ilidir 4474
Sın@@ 4473
Sp@@ 4472
layıcı 4472
fü@@ 4471
hip 4470
Komünün 4468
rel 4468
Askeri 4466
abilmek 4465
ağında 4465
oluşum@@ 4465
ondan 4465
hüküm 4463
lıların 4462
çiç@@ 4462
gelmiş 4459
incelen@@ 4459
kazand@@ 4458
grafik 4456
hast@@ 4455
him@@ 4453
Papa 4450
yirmi 4450
İ 4450
Sonra 4449
Santa 4448
Ni@@ 4445
başlangıçta 4445
taşıy@@ 4445
1929 4443
Por@@ 4443
Rock 4443
muşlardır 4442
işaret@@ 4439
Prix 4438
aat@@ 4434
zm 4434
Onun 4433
tıp 4433
dair@@ 4429
döng@@ 4429
yenerek 4429
Ermen@@ 4427
gruplar 4425
asit 4424
io 4423
17. 4422
Black 4422
Il@@ 4420
Ay 4419
Deniz@@ 4419
Gor@@ 4418
düğünde 4417
kral 4416
ela 4414
birimi 4413
düşman@@ 4411
dışındaki 4411
inler 4411
ren 4410
bol@@ 4409
desteklem@@ 4409
desteği 4409
gr@@ 4409
saç@@ 4409
olmasını 4408
Fin@@ 4406
incel@@ 4406
Pi@@ 4405
V. 4405
gazeteci 4405
ith@@ 4405
ürünleri 4404
Sanat@@ 4403
devletin 4403
atıl@@ 4402
yolcul@@ 4400
sun 4395
Osman@@ 4392
manyetik 4392
grupl@@ 4391
öldürüldü 4391
taşım@@ 4389
emey@@ 4388
Ekonomi 4385
dedir 4385
lamaktadır 4384
sonu 4384
Başbakan 4383
şekil@@ 4382
Tokyo 4380
bahç@@ 4380
Ödül@@ 4378
Selim 4377
kısmını 4377
teklif 4377
Ege 4375
Konusu 4375
mann 4375
hem@@ 4374
kah@@ 4372
Kosova 4371
Show 4370
ა@@ 4370
Cr@@ 4367
itler 4366
Dil@@ 4365
cumhur@@ 4365
cüm@@ 4365
pozisyon@@ 4365
senar@@ 4364
büyük@@ 4362
düzey 4362
Sat@@ 4360
hattı 4360
enz@@ 4359
organizasyon@@ 4359
Gençlik 4358
onur@@ 4358
Cephesi 4356
kapasit@@ 4354
Harry 4353
senesinde 4353
erde 4352
Cas@@ 4351
Dal@@ 4347
gerek 4347
Lev@@ 4346
abilir@@ 4346
süreç@@ 4346
1932 4345
kısmında 4345
şim@@ 4345
Kastamonu 4344
Demokrat 4343
tanı@@ 4341
Music 4339
Kuzey@@ 4338
insanları 4337
bölgelerde 4336
okudu 4335
seyahat 4335
Ren@@ 4333
hali@@ 4333
hedef 4332
mektedirler 4332
turda 4332
erkekler 4330
yerlerde 4330
müziğ@@ 4325
8. 4324
yerinde 4323
mini 4320
süreci 4319
Manisa 4318
alternatif 4318
les 4318
hu@@ 4317
Cal@@ 4315
üretic@@ 4313
ıkla 4313
Afganistan 4311
evi@@ 4311
cel@@ 4309
dergisi 4309
Manchester 4308
denilen 4308
Sezon 4307
konular@@ 4307
otomobil 4304
eserler 4303
Edebiyat 4302
th 4300
figür@@ 4299
kontrolü 4298
luğa 4298
davran@@ 4297
haz@@ 4297
ici@@ 4296
A. 4294
kayı@@ 4292
olumsuz 4292
sini 4292
zamanla 4292
karısı 4290
miktar@@ 4289
yapılması 4288
plar 4287
buz 4286
oku@@ 4286
bölgesel 4285
mede 4284
sizlik 4282
Komutanlığı 4281
ende 4280
ond@@ 4277
satış 4277
ziyaret@@ 4277
harit@@ 4276
time 4276
Beş@@ 4274
feth@@ 4274
balık 4273
Gaz@@ 4272
oj@@ 4272
Kil@@ 4271
savaşın 4271
geçer@@ 4270
Şir@@ 4270
sı@@ 4267
toplay@@ 4267
layık 4266
genelinde 4265
oyunculuk 4265
kazandığı 4263
çalışmalarını 4263
42 4262
Smith 4261
olmad@@ 4261
çıkış@@ 4261
dim 4260
COVID 4259
Bit@@ 4257
bac@@ 4257
içermektedir 4257
giz@@ 4253
tabanlı 4253
Hel@@ 4252
taşı 4252
yat 4252
İm@@ 4252
anında 4249
play 4249
Fr@@ 4248
beraber@@ 4248
lendi 4247
merkezinde 4247
All 4246
terimi 4245
hoş@@ 4244
işbirliği 4244
sak 4244
Ali@@ 4243
ilişkili 4243
üretim@@ 4243
Sad@@ 4242
Böl@@ 4240
emektedir 4240
Jack 4237
Çoğu 4237
yarısında 4235
yaşlı 4233
ish@@ 4232
karakterini 4231
kişiden 4231
Don 4230
alarla 4229
hük@@ 4229
proje 4228
ka@@ 4227
1931 4224
iminin 4224
Komisyonu 4222
tasarım 4221
İdari 4221
birini 4220
fon@@ 4220
Kim 4219
sığın@@ 4218
7.@@ 4217
başkanlık 4217
görevinden 4217
yeten@@ 4217
Entertainment 4216
desi 4216
Aşağıdaki 4214
korumak 4214
ırı 4214
aylarında 4213
işgal@@ 4213
Şampiyon@@ 4213
fas@@ 4212
Um@@ 4206
tük@@ 4205
zul@@ 4205
1,@@ 4204
ayak 4204
Bilimler 4203
sürüldü 4203
kalır 4202
yönetil@@ 4202
günümüz 4201
sosy@@ 4199
esir 4197
ölü 4196
yaşamış 4193
co@@ 4192
lendiği 4191
Mağ@@ 4190
köken@@ 4190
dıktan 4189
şimdi 4187
ami@@ 4186
Na@@ 4185
adım 4185
kte 4185
işçi 4184
Çay@@ 4184
anne 4183
Çek 4182
ters 4181
işlem 4179
mir@@ 4178
yapıldığı 4178
yazılı 4178
hac@@ 4177
luğun 4177
ben@@ 4176
km. 4176
krist@@ 4176
mimar@@ 4176
ng@@ 4175
tanış@@ 4175
varlığı 4174
yaprak@@ 4174
M. 4173
fal@@ 4173
dans@@ 4169
parlak 4169
Oper@@ 4168
tılar 4168
Ertesi 4167
malarda 4166
AB 4162
atom@@ 4161
Şirket 4161
Ros@@ 4160
imine 4158
per 4158
vide@@ 4158
Tom@@ 4157
ludur 4156
ford 4155
Android 4154
aktör 4154
romanı 4154
satışa 4154
vurgul@@ 4153
lığında 4152
anmış 4150
av 4149
sad@@ 4149
uç 4149
lamış 4146
­ 4145
üldü 4145
Rio 4144
şampiyonluğu 4144
alanlarda 4143
komutasındaki 4143
cılık 4142
akademik 4141
test@@ 4141
1915 4139
Kurumu 4139
hastalığı 4139
solo 4139
Nev@@ 4138
ava 4137
cez@@ 4137
güçlendir@@ 4137
çekilen 4137
Federal 4136
mik 4135
iptal 4134
cinsine 4133
kişilerin 4132
gösterilmiştir 4131
inen 4131
sıcaklık 4131
zayıf 4129
kısaca 4126
tekrar@@ 4126
fırlat@@ 4124
mor@@ 4124
yılların 4124
Hat@@ 4123
atları 4123
İlçe 4123
Ortodoks 4122
başarısı 4122
Frank 4121
gördüğü 4121
Balkan 4120
J. 4120
Arka 4118
ore 4118
Haçlı 4117
listesine 4117
yüzyıl@@ 4117
ai@@ 4116
gelenek@@ 4116
sim 4116
bölümünü 4115
hariç 4114
liye 4114
ılmasına 4114
bağlantı 4111
bina 4111
sın@@ 4111
müş@@ 4109
Dam@@ 4108
Eri@@ 4108
9. 4107
kel 4107
tikten 4106
gider 4105
hab@@ 4105
Hot 4104
* 4102
iro 4102
aileden 4101
ürler 4101
coğrafi 4100
etkileri 4100
š@@ 4100
sayım 4099
ef 4098
Silahlı 4096
ac 4096
Sayımı 4095
köyl@@ 4095
Çocuk 4095
q@@ 4094
amayan 4093
eğilim@@ 4092
amamıştır 4091
teorisi 4090
Biy@@ 4087
çilerin 4087
CD 4086
serg@@ 4084
ımdan 4083
ındaydı 4083
Kür@@ 4081
ya@@ 4081
Karl 4080
Sadece 4079
idare 4079
lerdi 4078
politik@@ 4077
ru 4075
det 4073
İşçi 4073
Ebu 4070
anması 4070
kendilerine 4069
Bunu 4068
Araştır@@ 4066
enleri 4065
insanın 4065
aman 4063
büyükel@@ 4063
İh@@ 4063
komş@@ 4061
ağı@@ 4060
dünyas@@ 4057
hidro@@ 4057
hazırlanan 4055
biç@@ 4054
cev@@ 4054
Pakistan 4053
kutsal 4052
özellikler 4052
á@@ 4051
EP 4049
amış 4049
ırt@@ 4049
evren@@ 4047
tık@@ 4047
Bol@@ 4046
Orta@@ 4046
aşa 4046
edilerek 4046
iklim 4045
muştu 4044
ılmasını 4044
kanalı 4043
sayılabilir 4042
ust@@ 4042
tamamı 4040
yapım 4040
İmparator@@ 4040
Nec@@ 4039
pe 4039
anlay@@ 4038
ome@@ 4038
birik@@ 4037
kütüphan@@ 4037
liste 4037
oyuna 4036
zamanlı 4036
kapsayan 4035
kurduğu 4035
redde@@ 4035
harek@@ 4034
rolünü 4034
görüntü@@ 4031
sıvı 4031
ıklık 4031
yayımladı 4030
yukar@@ 4030
ekleri 4029
Şam 4029
oma 4028
bölgedeki 4027
iktidar@@ 4027
ub@@ 4027
etinin 4025
soy 4025
kalınt@@ 4024
kaleme 4023
ick 4022
alılar 4018
Dört 4017
gu@@ 4015
eddin 4013
hizmete 4010
aram@@ 4007
başk@@ 4007
kaldığı 4005
sömür@@ 4005
uf@@ 4005
özgün 4005
çalışmıştır 4004
1000 4002
köyünde 4002
stüd@@ 4002
tanınmış 4002
0.@@ 4001
Y 4001
gazete 4001
kazanarak 4001
reform@@ 4000
disipl@@ 3999
isimler 3999
müzisyen 3999
amp@@ 3998
çiliği 3998
dizinin 3996
karşıtı 3996
golünü 3994
İngiliz@@ 3994
Bütün 3992
başlayarak 3992
hiss@@ 3992
mimari 3992
onik 3992
olas@@ 3990
altıncı 3989
au 3989
kitabında 3989
pal@@ 3988
üstün@@ 3988
enti@@ 3986
düzenlen@@ 3983
ou 3983
süz 3982
ole 3981
timi 3981
ena 3980
esin@@ 3980
dönen 3975
q 3975
tif 3975
zengin@@ 3975
Yusuf 3974
alana 3973
bölgelerinde 3973
72 3971
Belediyespor 3971
dom@@ 3971
ressam 3971
ğu 3971
Hırvatistan 3970
Mec@@ 3970
fot@@ 3970
Yan@@ 3968
doktora 3968
pları 3968
tiyatr@@ 3967
Can 3966
ner@@ 3966
anlamı 3965
bar 3965
esel 3963
aze 3962
sek@@ 3962
cen@@ 3961
tici 3960
yardımıyla 3960
kalın@@ 3959
Altı 3958
Tal@@ 3957
Muhaf@@ 3953
Ru@@ 3953
SK 3953
Karay@@ 3951
balık@@ 3950
Pers 3948
hep@@ 3947
his@@ 3947
all 3946
cilik 3945
dilleri 3945
reli 3945
Kafkasya 3944
Play 3944
Yaklaşık 3943
yapımc@@ 3943
çözün@@ 3940
Münih 3939
oyuncular 3937
profes@@ 3934
150 3933
Soy@@ 3933
belediy@@ 3933
getiren 3933
gönderdi 3933
aras@@ 3931
geçmiş@@ 3930
Tel@@ 3926
fakt@@ 3926
olası 3925
ekib@@ 3923
laşması 3923
uçuş@@ 3921
Kaynakça 3919
acağ@@ 3918
Tü@@ 3916
eleriyle 3916
kadınların 3916
sk 3915
Altın@@ 3913
aat 3913
görülmüştür 3913
standart@@ 3913
varlığını 3912
tay@@ 3911
kaçın@@ 3910
cas@@ 3908
çözüm@@ 3908
mil 3907
600 3906
koordin@@ 3905
sunul@@ 3905
dilinde 3904
ty 3904
oyunun 3901
dağılımı 3899
düny@@ 3899
resim@@ 3898
savaşa 3898
Kes@@ 3895
çok@@ 3894
10.@@ 3893
Zaman 3893
Prens 3892
ilham 3892
kullanıcı 3892
aha 3891
buc@@ 3891
King 3890
eyalet 3889
illeri 3887
şar@@ 3887
Albümün 3886
ikiye 3886
ulaşan 3885
ıç 3885
Club 3883
elektr@@ 3883
eve 3883
luğuna 3883
alb@@ 3882
beklen@@ 3882
hükûmet@@ 3881
göl 3880
sil 3878
türe@@ 3878
Ne 3876
ağına 3876
eta 3876
Kâ@@ 3875
üf@@ 3875
Sand@@ 3873
fayd@@ 3873
Uzay 3872
Daniel 3871
alıdır 3871
gerektir@@ 3871
ikna 3871
Mol@@ 3869
plak 3867
ılarla 3867
Man 3866
çök@@ 3866
ham 3865
areti 3863
binlerce 3862
doğmuştur 3861
temel@@ 3859
ō 3859
emedi 3858
ınar 3856
gösterime 3855
ayaklan@@ 3854
birlik 3851
etkin 3851
kapı 3851
yüzey 3851
​ 3851
Buffy 3850
değişikliğinden 3850
zi@@ 3850
rebil@@ 3849
Şim@@ 3849
başladılar 3848
illa 3848
muş@@ 3848
Kış 3845
otomatik 3845
sül@@ 3845
Alexander 3844
değişiklik 3843
Plan@@ 3842
ius 3842
oyunları 3842
vergi 3842
değerli 3841
kısalt@@ 3841
Buc@@ 3840
başlattı 3840
otik 3840
düzenlendi 3839
ilet@@ 3839
program 3839
suz@@ 3839
bank@@ 3838
Je@@ 3837
Tes@@ 3835
görevlendir@@ 3835
Şey@@ 3832
alizm 3831
belirgin 3827
Go@@ 3826
Rek@@ 3826
kli 3826
tepki 3826
çılık 3826
anlayış@@ 3825
elik@@ 3825
göv@@ 3825
Eleştir@@ 3824
fak@@ 3824
sebebi 3824
gerçekleştirildi 3822
yada 3822
Kent 3821
gin 3820
unvanı 3820
organize 3819
1916 3818
elle 3818
indi 3818
yüzyıldan 3818
ıldığında 3817
mümkündür 3816
sorumlul@@ 3815
türk 3815
yaşamını 3815
Ü 3815
.com 3813
Live 3813
güncell@@ 3813
güçleri 3813
onunla 3813
Chicago 3812
tanınır 3812
ens 3811
ebilecek 3810
ulaşım 3809
yöntemi 3809
dakikada 3808
doktor@@ 3808
sakat@@ 3807
İskoçya 3806
üstünde 3805
rem@@ 3804
tablo@@ 3803
Zelanda 3801
bulunmaktaydı 3801
olacağını 3799
ola 3798
şarkıyı 3794
değiştirildi 3793
denem@@ 3792
enf@@ 3792
alli 3791
9.@@ 3790
bağlam@@ 3790
aktiv@@ 3789
telefon 3788
yetenek@@ 3787
hakim@@ 3785
çıkardığı 3785
şarkıları 3785
18,7 3784
cular 3784
ebilen 3784
filmleri 3784
halkının 3784
Hen@@ 3783
Mary 3783
end 3783
ou@@ 3783
Nobel 3780
karşıya 3780
oluşturmak 3780
Görev@@ 3779
Siyasi 3779
amıştır 3779
yerleşim@@ 3778
47,5 3776
Tu@@ 3776
yaşındaki 3776
Pir@@ 3775
1908 3774
Sun@@ 3774
ınd@@ 3774
pa 3773
takıma 3772
fu@@ 3771
yaptıkları 3771
aşağı 3770
eyle 3770
hakim 3770
sıradan 3770
takımda 3770
tirir 3770
Konstantinopolis 3769
komple@@ 3768
sürümü 3768
arkadaşları 3767
fakül@@ 3767
Hab@@ 3766
Nur@@ 3766
Sakarya 3765
Çam@@ 3765
tasvir 3761
Hanım 3759
Vadisi 3759
aması 3759
şiddetli 3759
araştırmalar 3758
vererek 3758
dönemlerde 3757
dişi 3756
halen 3756
kim 3756
Kongresi 3754
suç 3753
günde 3752
sayf@@ 3752
boyutlu 3750
kli@@ 3750
köl@@ 3750
sembol@@ 3749
Mev@@ 3748
etmeyi 3748
hızı 3748
tro@@ 3748
Yılmaz 3747
Kur 3746
asi 3746
ə@@ 3746
Red 3745
buz@@ 3745
kaynakları 3745
klip 3745
diğer@@ 3744
kisi 3744
gösterdiği 3743
44 3742
alıp 3742
açıkça 3742
indi@@ 3742
yakalan@@ 3742
yarışması 3741
aire 3739
protein@@ 3739
dokun@@ 3738
olmaktadır 3738
utul@@ 3738
bet@@ 3737
uçak@@ 3737
800 3735
içeri@@ 3734
Baba 3733
Z 3730
dirler 3730
düler 3730
elek@@ 3729
taht@@ 3729
Kütahya 3727
resmen 3727
yd@@ 3727
anılan 3726
Öğ@@ 3726
ıman 3726
Voleybol 3725
melerini 3725
görür 3724
taraftar@@ 3724
toprakları 3724
Mag@@ 3722
arist@@ 3722
eci@@ 3722
olduğ@@ 3721
ello 3720
Körfezi 3718
ısal 3718
formasını 3717
ota 3717
döv@@ 3714
Değ@@ 3713
Mark 3713
aspor 3711
orum 3711
usunda 3711
Yardımcısı 3710
yapma 3709
çak 3709
Mey@@ 3708
geliştirme 3708
tilen 3708
sorum@@ 3706
ülkelerin 3706
ağırlıklı 3703
Öl@@ 3703
mekten 3702
yn 3702
çalıştığı 3701
Tro@@ 3700
kıyı 3700
pos@@ 3700
Çağı 3699
ony@@ 3697
Lübnan 3696
felsefe 3696
imz@@ 3696
ülkesi 3693
araştırmac@@ 3692
ligde 3692
Gaziantep 3691
Koz@@ 3690
São 3689
çocuğ@@ 3688
arasındadır 3687
ville 3687
Dem@@ 3686
ân 3685
anlatır 3684
maktan 3684
yükselen 3684
fo@@ 3683
savaşta 3683
isindeki 3681
soruştur@@ 3681
85 3680
Uç@@ 3680
denklem@@ 3680
Du@@ 3678
Marmara 3678
hapis 3678
Real 3677
taraf 3677
yolları 3677
ağını 3676
hal 3675
Gru@@ 3674
işti 3673
nas@@ 3673
yarım 3673
1913 3672
Albert 3672
Gi@@ 3672
Nokia 3672
Tour 3672
koyu 3670
• 3670
otom@@ 3669
evlilik 3668
inş@@ 3668
şub@@ 3668
39 3666
Ed@@ 3666
görüntü 3666
ly 3665
onya 3664
Williams 3663
maması 3663
Tom 3662
uzunluğu 3661
Yük@@ 3660
Pas@@ 3659
öğrencisi 3659
ald@@ 3658
Rum 3656
Sok@@ 3656
ekonomi 3656
düşen 3655
kalıcı 3655
Roman 3653
albümüdür 3653
zamana 3653
Pasifik 3652
International 3651
alarıyla 3651
yarış 3651
otob@@ 3650
sorunları 3650
yitir@@ 3648
darbe 3646
mezunudur 3645
field 3644
süreli 3644
bol 3643
evli 3643
arc@@ 3642
girer 3642
gelecek 3641
kavuş@@ 3641
Ste@@ 3640
eder@@ 3640
Ec@@ 3639
Hem 3639
işler 3639
santr@@ 3639
beğen@@ 3638
ges@@ 3637
ır.@@ 3637
Orhan 3636
oranda 3636
şı 3636
ener 3635
genişlem@@ 3635
hayran@@ 3635
kuvvet 3635
şehrinin 3635
nesil 3634
kampany@@ 3633
yosu 3633
üste 3633
Koleji 3632
getiril@@ 3632
başlanmıştır 3631
sti@@ 3631
İst@@ 3631
41 3630
gıda 3627
ezi 3626
47 3625
gitar 3625
Kit@@ 3624
ressam@@ 3624
Üç@@ 3624
ā@@ 3624
Cih@@ 3623
devleti 3623
enn@@ 3623
orlar 3623
Bölgesel 3622
lüğ@@ 3622
Amatör 3621
sağlamıştır 3621
95 3620
pir@@ 3620
bakan 3619
duruma 3619
Tev@@ 3618
Nüfusu 3616
Yeşil@@ 3616
iyileştir@@ 3616
kal 3616
çeken 3615
Trabzonspor 3614
Vak@@ 3613
statüs@@ 3613
st 3612
ırsa 3612
ertesi 3611
kısm@@ 3611
teknoloji 3611
opera 3610
sanay@@ 3610
yr@@ 3610
eyaletinin 3609
kutu@@ 3609
kuram@@ 3608
dam 3607
reddet@@ 3607
yakınlarındaki 3607
ağz@@ 3606
baba 3606
diğine 3606
kri@@ 3606
Â@@ 3606
Sanatlar 3605
Tı@@ 3604
ekip@@ 3604
giymektedir 3604
hiz@@ 3604
ürlüğ@@ 3604
Anne 3602
Miss 3602
dir.@@ 3602
harekete 3602
öğre@@ 3602
rüt@@ 3600
Allah 3599
görüş 3599
molekül@@ 3599
kuruluş 3598
kuruluşu 3598
satan 3598
azın@@ 3597
bitkil@@ 3597
Bağdat 3596
Big 3596
Dil 3596
satış@@ 3596
şirketin 3596
Tanr@@ 3595
tedav@@ 3595
da@@ 3594
ladılar 3593
çağdaş 3593
İlç@@ 3593
neş@@ 3592
ortalarında 3592
Örgütü 3592
olayları 3589
tün@@ 3589
oldular 3588
92 3587
dolu 3586
kapsamlı 3586
meli 3586
filmler 3585
işli 3585
rot@@ 3585
Baz@@ 3584
Belarus 3584
gâ@@ 3584
Zey@@ 3583
bireysel 3583
topluluğ@@ 3583
öngör@@ 3583
özerk 3583
ulus@@ 3582
çekimi 3582
konsol@@ 3581
parçasıdır 3581
No 3580
Okul@@ 3578
gemisi 3578
ilçedir 3578
93 3577
Teksas 3577
alınarak 3577
unvan@@ 3577
Sonuç 3576
hazır 3576
rek@@ 3576
geçerli 3575
genişlet@@ 3574
konuda 3574
ost 3574
Üniversite 3574
lular 3573
yönetiminde 3573
gücünü 3571
Hil@@ 3570
Max 3570
isyan 3569
düşünce 3568
etkis@@ 3568
konuşma 3568
rip 3567
Demografi 3565
duktan 3565
co 3564
siyaset 3564
13. 3562
Kardeş@@ 3562
bl@@ 3562
enlerin 3560
ürlük@@ 3560
Yağ@@ 3559
Dik@@ 3558
kelime 3558
isimleri 3555
akrab@@ 3554
lider 3552
AK 3551
partinin 3551
tarihindeki 3551
sözleri 3549
lisans@@ 3548
olsun 3548
kulland@@ 3547
pilot@@ 3547
Erdoğan 3545
bet 3545
Cemiyeti 3542
yüzyıla 3542
ates 3541
DVD 3540
kelimesi 3540
ödem@@ 3540
düşman 3537
ei 3537
ât 3537
Mahallenin 3536
Asyalı 3534
bit 3534
hayata 3533
ud 3532
kub@@ 3530
etli 3529
fikir 3528
lası 3528
Çelebi 3528
albümünü 3527
Yarg@@ 3526
ayrılarak 3526
beyin 3526
kültürü 3526
reye 3526
görsel 3525
1910 3524
dersleri 3524
geti@@ 3524
oluşturmaktadır 3522
Müslüman@@ 3521
albümleri 3521
olmuştu 3520
seçimi 3520
madal@@ 3519
bölgeleri 3518
eden@@ 3518
ster@@ 3517
Laz@@ 3516
yarg@@ 3516
ayın 3515
parçaları 3515
rat 3515
Sinema 3514
irli 3514
52 3513
konuk 3513
Nak@@ 3512
şeyi 3512
Hacı 3511
43 3510
Nar@@ 3510
dok@@ 3510
kasaba 3510
Arabistan 3509
doğrultusunda 3507
yolcu 3507
ımız 3507
It 3505
uçuş 3505
ıra 3505
8.@@ 3504
düzey@@ 3504
ation 3503
bağımsız@@ 3503
zorunlu 3503
sergilen@@ 3502
feder@@ 3501
paralel 3501
ışın@@ 3500
Köyü 3499
Oğ@@ 3498
melerine 3498
yemek@@ 3498
ımıyla 3498
blo@@ 3497
Demir 3495
Tri@@ 3495
bilgileri 3495
ülen 3495
alış@@ 3493
sayede 3492
Bud@@ 3490
Devletler 3490
telef@@ 3490
demir@@ 3489
Hir@@ 3488
kısım@@ 3488
sta 3488
toplama 3488
Suudi 3486
luğunun 3486
pozitif 3486
önder@@ 3485
mater@@ 3484
rik 3484
ân@@ 3484
asist 3483
kıyaf@@ 3483
zehir@@ 3483
Anna 3482
Gali@@ 3482
ograf@@ 3482
familyasından 3481
konus@@ 3481
erden 3480
İş 3480
yaşay@@ 3479
başlay@@ 3478
ray@@ 3478
gerekçesiyle 3477
Company 3476
NATO 3476
les@@ 3476
memesi 3472
larken 3471
bay 3470
genetik 3470
intihar 3470
yürü@@ 3470
arasından 3469
aray@@ 3468
ilerleyen 3468
Tav@@ 3467
lağ@@ 3467
nehir 3467
dıkları 3466
Sinan 3465
Solanum 3465
W 3465
kayded@@ 3465
ğer 3465
reddetti 3464
larlar 3463
bayr@@ 3462
projesi 3460
geliştiril@@ 3459
melidir 3459
Geliş@@ 3458
Hâ@@ 3458
maktadırlar 3458
çif@@ 3458
Kars 3457
toplu 3457
ayları 3456
yakıt 3456
Mis@@ 3452
lamalar 3451
mali 3451
mevsim@@ 3451
prot@@ 3451
grupları 3450
belediyesi 3449
genin 3449
rede 3448
tanın 3448
ecekti 3447
katkı@@ 3447
valisi 3447
Çeşitli 3447
Klasik 3446
gın 3446
yal 3446
ayrılan 3445
kalk@@ 3445
oh@@ 3445
Grubun 3444
In 3443
dergi 3443
oto 3441
ach@@ 3440
ani@@ 3440
açılmıştır 3440
ediler 3440
na@@ 3440
görüntül@@ 3439
numar@@ 3439
protest@@ 3438
ıs 3438
duğunda 3437
klar 3437
Tut@@ 3436
yüzü 3436
anlaşmaz@@ 3434
est 3434
Şarkının 3434
aret@@ 3433
bakanlık 3433
imidir 3433
57 3432
Hersek 3431
org@@ 3431
tarihine 3430
kuru 3429
Artvin 3428
programında 3428
yang@@ 3428
dışına 3427
ılım 3426
dikkate 3424
komünist 3424
ung 3422
kullanılması 3421
Özerk 3421
Arizona 3420
kart@@ 3420
anlatan 3419
15. 3418
National 3418
yapt@@ 3417
atmıştır 3416
yöneti@@ 3416
alin 3415
sonraları 3415
Pop@@ 3414
BBC 3413
Emir@@ 3413
Diy@@ 3412
albümde 3412
asyonlar 3412
inşaat 3412
hastalık 3411
Çev@@ 3411
gerçekleştirdi 3409
ıkta 3409
analiz 3407
gül@@ 3407
tasarımı 3407
âr 3407
atma 3406
dönüş 3406
şekli 3406
düzeyde 3404
kalmış 3404
Massachusetts 3403
Dön@@ 3402
gun@@ 3402
Royal 3401
ziy@@ 3401
Bolş@@ 3400
verg@@ 3400
FA 3399
ksel 3399
mit 3399
pas@@ 3399
sundu 3399
10. 3398
ordu@@ 3398
Bre@@ 3397
nitelik@@ 3395
vermeye 3395
döner 3394
ina@@ 3394
maçın 3394
yürüyü@@ 3394
Est@@ 3393
Eng@@ 3391
gun 3391
vas@@ 3391
yiy@@ 3390
malzeme 3389
Tapın@@ 3388
oluşuyordu 3387
direktör@@ 3386
eliği 3386
ver 3385
Ph@@ 3384
alle 3384
ener@@ 3384
kariyerini 3384
las@@ 3384
liğinden 3384
milliyet@@ 3384
tarihçi 3383
Chris 3382
Topluluğu 3382
fotoğraf 3382
İmparatoru 3381
taya 3380
yarışı 3380
azı 3379
CHP 3378
Başar@@ 3377
kuz@@ 3377
nek@@ 3376
diğerleri 3375
unc@@ 3375
Moğol 3373
düşüncel@@ 3373
fizik 3373
hepsi 3373
Ly@@ 3371
laborat@@ 3371
oynad@@ 3371
söylemiştir 3370
yö@@ 3370
doğa 3369
kişiye 3368
J 3367
Diz@@ 3366
bat 3365
belirti@@ 3365
Mezarlığı 3364
doğuda 3364
sos@@ 3364
yav@@ 3364
gösteril@@ 3363
çekir@@ 3363
kamera 3362
Birkaç 3361
lendirme 3361
Ang@@ 3360
tabl@@ 3360
bildirdi 3358
kati@@ 3358
sözü 3358
uzunluğunda 3358
Sanayi 3356
basın 3356
deye 3354
Fır@@ 3352
bulunuyordu 3352
Pierre 3351
binası 3351
uh@@ 3351
gul@@ 3350
imparator 3350
olanak 3350
trans@@ 3349
zon@@ 3349
Malatya 3348
liğ@@ 3348
posta 3347
Karab@@ 3346
Esk@@ 3345
Jones 3345
önlem@@ 3345
Karadağ 3344
bölgesindeki 3344
hizmeti 3344
İmparatorluk 3344
Pre@@ 3342
mekte@@ 3342
servis 3340
üt 3340
çoğunu 3339
öt@@ 3338
hakk@@ 3336
çağ 3336
diğinden 3334
Ekonomik 3333
46 3332
Liga 3332
uda 3332
Türkler 3331
adamları 3331
atür@@ 3331
ger 3331
ısıyla 3331
İçişleri 3330
88 3329
AS@@ 3329
yapımcı 3329
Bes@@ 3328
Ap@@ 3327
Ağa 3326
Siv@@ 3326
Çak@@ 3326
20@@ 3323
ō@@ 3322
maktır 3321
matematik 3319
birbirinden 3318
ehr@@ 3318
karbon@@ 3318
nü@@ 3317
1900 3316
ath@@ 3316
ic 3316
kardeş 3316
nokta 3315
Şer@@ 3315
lek 3314
Şili 3314
Premier 3313
vey@@ 3313
kimi 3312
anıl@@ 3311
İr@@ 3310
ırk@@ 3310
nek 3309
ısındaki 3309
akım 3307
çeyrek 3307
şair@@ 3307
ıncı 3306
Q 3305
Virginia 3305
şov@@ 3305
ihtim@@ 3304
danışman@@ 3302
ekli 3302
minden 3302
terfi 3302
yerleşti 3302
poli@@ 3301
sky 3301
katkı 3299
American 3298
ilçesinin 3298
lerken 3297
puanla 3297
rah@@ 3297
undur 3297
duğ@@ 3296
köyde 3296
lamaları 3296
yapımcısı 3295
ihl@@ 3294
Ailesi 3293
hazırlık 3293
Dor@@ 3291
cevap 3291
ikal 3291
Da@@ 3289
ator 3289
kış 3289
resi 3289
1911 3288
bağımsızlığını 3287
dışar@@ 3287
hız 3287
sonlarına 3287
Anayasa 3286
tul@@ 3285
Fransız@@ 3284
heykel@@ 3284
yeter@@ 3283
Florida 3282
Tokat 3282
Ex@@ 3281
Yerleş@@ 3281
dadır 3281
ölen 3281
gay@@ 3280
rolüyle 3280
çeşit 3280
emin 3279
zem@@ 3278
Kah@@ 3277
onar@@ 3277
analiz@@ 3275
şaş@@ 3275
0,@@ 3274
Vietnam 3274
klü 3274
ben 3273
otorit@@ 3273
vi 3273
üstlenmiştir 3273
şarkılar 3273
Francisco 3272
erinde 3272
leyic@@ 3272
ürken 3272
Fl@@ 3270
pol 3269
ılıp 3268
Başlangıçta 3267
Stalin 3266
yurt@@ 3266
lıktan 3265
Life 3264
orman 3264
ost@@ 3264
Kalkınma 3262
Prof. 3262
arazi 3262
ih 3262
lesi 3262
büyüm@@ 3261
Bl@@ 3260
Cumhuriy@@ 3260
aydı 3260
enden 3260
yerleri 3259
SC 3256
evine 3255
aylı 3254
açan 3254
boy 3254
canlandırdığı 3254
karşılıklı 3254
Albüm@@ 3253
Serbest 3253
dayanmaktadır 3253
duyar@@ 3253
vin@@ 3253
anının 3252
inleri 3252
nispeten 3252
yalnız 3252
çısı 3252
Estonya 3251
Keş@@ 3251
rasi 3250
ürlüğü 3250
Birlik 3249
Kıs@@ 3249
Yazar@@ 3249
gazetec@@ 3249
kler 3248
Altay 3247
Kız 3247
Radyo 3247
kadro@@ 3246
Fre@@ 3245
cusu 3244
kullanıldığı 3243
bon@@ 3242
insanı 3242
kök@@ 3242
uyu 3242
14. 3241
Ken@@ 3241
abilmesi 3241
Cum@@ 3240
Elizabeth 3239
füz@@ 3239
pul@@ 3239
astronom@@ 3238
fiz@@ 3238
ilişkisi 3235
Arthur 3234
fikir@@ 3234
sınırı 3234
Büyük@@ 3233
Alan 3232
yaparken 3232
İskender 3232
Friedrich 3231
alanlar 3231
basketbol@@ 3228
elendi 3227
kanalında 3226
Kişisel 3225
çılar 3225
Uy@@ 3224
aşk 3224
birim 3224
geriye 3224
üyeliği 3223
ao 3221
teşkil@@ 3221
albümünde 3220
forvet 3219
hep 3219
süper 3219
Köy@@ 3218
Hiz@@ 3217
hikâye 3216
maçları 3216
56 3215
La@@ 3215
Mit@@ 3215
Piy@@ 3215
sağlan@@ 3215
İktis@@ 3215
alfab@@ 3214
değişen 3213
emesi 3213
51 3212
Vir@@ 3212
küç@@ 3212
amatör 3211
filminin 3211
görülebilir 3211
hasar 3211
kavramı 3211
Köpr@@ 3210
gösterilen 3210
devre 3209
port 3209
incisi 3208
Prot@@ 3206
farklıl@@ 3206
tıbbi 3205
Lu@@ 3204
Ri@@ 3203
askerleri 3203
ran 3203
sistemin 3203
dolay@@ 3202
batıda 3201
süreçte 3200
Koc@@ 3199
Nam@@ 3199
ceza 3199
rev 3199
ulur 3199
belirlen@@ 3198
uştur@@ 3198
vok@@ 3198
galibiyet 3197
kolu 3197
organik 3197
tikleri 3197
yapıt@@ 3197
uygulamaları 3196
komşu 3195
lılık 3195
Vel@@ 3194
Kongre 3193
edecek 3193
trop@@ 3193
yağ 3192
Saldır@@ 3191
vet 3191
Türkç@@ 3190
Time 3189
Yarımadası 3189
serisinin 3189
televizyon@@ 3189
Yıldırım 3188
coğraf@@ 3188
mediğini 3188
yaralan@@ 3188
12. 3187
Dizi 3187
Hükûmeti 3186
saray 3185
sözcüğü 3185
ć 3185
asla 3184
vez@@ 3184
yorum 3183
sırt@@ 3182
Güreş 3181
Hem@@ 3179
yapılacak 3178
şarkıc@@ 3178
profesör 3177
Üyeliği 3177
başkent 3175
cumhurbaşkanı 3175
seçilmiş 3175
Okyanusu 3174
üstlendiği 3174
karbon 3171
üb@@ 3171
değişiklikler 3170
Fiz@@ 3169
Oscar 3169
Scott 3169
bulur 3169
ediyordu 3169
Vi@@ 3168
elenmiştir 3168
Gem@@ 3167
anlara 3166
peş@@ 3166
atarak 3165
ografi 3165
04 3164
Formula 3164
Millet 3164
lul@@ 3164
ülük 3164
Haç@@ 3163
Kürt@@ 3163
Nes@@ 3163
üle 3163
Maz@@ 3162
bırakıldı 3162
gelindiğinde 3162
imparatorluk 3162
İnternet 3162
ong@@ 3161
yedinci 3161
üçlü 3161
üstün 3160
üyelerinin 3160
Koruma 3159
belirtir 3159
cami 3159
gereği 3159
kamer@@ 3159
takvi@@ 3159
yayımlan@@ 3159
Com@@ 3158
Dönemi 3158
şekill@@ 3158
lukları 3157
aff@@ 3156
anlaşıl@@ 3156
sahneye 3156
sinir 3156
Şeyh 3156
bilimi 3154
qu@@ 3154
vazgeç@@ 3154
park 3153
Harek@@ 3152
pek@@ 3152
Moğol@@ 3151
ders@@ 3151
ideki 3151
58 3150
Rize 3150
albümünün 3150
ain 3149
Grammy 3147
yoğunluğu 3147
basın@@ 3146
bölgeyi 3145
fiye 3145
geldiğinde 3145
okyan@@ 3145
çıkarak 3144
Jersey 3143
Bun@@ 3141
ilaç@@ 3141
Çer@@ 3141
Temel 3140
besteci 3140
kes 3140
abı 3139
göğ@@ 3139
sorgul@@ 3139
UNESCO 3138
Sas@@ 3136
oluşturdu 3136
54 3135
abileceğini 3135
fırsat@@ 3135
kalar 3135
biyolojik 3134
gerekti@@ 3134
sonuçlar 3134
müdahal@@ 3133
topraklarına 3133
usa 3133
İspanyolca 3133
kentin 3132
Cezayir 3131
kanun 3131
taşır 3131
62 3130
Dir@@ 3130
tank@@ 3130
asi@@ 3129
başlangıç 3129
fan@@ 3129
işgali 3128
olduğunda 3128
piyas@@ 3128
ales 3127
olmasından 3126
yarışma 3126
önemlidir 3126
Had@@ 3123
belirtmiştir 3123
ion 3123
İli 3123
rit@@ 3122
sporcu 3122
Günü 3121
olayı 3121
68 3120
Nih@@ 3120
ettikleri 3120
Ayak@@ 3119
Reş@@ 3119
tayin 3119
kullanılmaya 3118
Ner@@ 3117
geçiren 3117
idi@@ 3117
120 3116
Çorum 3116
diplomatik 3114
person@@ 3114
abe 3113
stil 3113
ücretsiz 3113
his 3112
vücut 3112
zin@@ 3112
şeh@@ 3112
67 3111
kalın 3111
bez@@ 3110
mesle@@ 3109
53 3107
alleri 3107
dular 3107
sy@@ 3106
Bug@@ 3105
anz@@ 3105
potansiyel 3105
Bölüm 3104
sosyalist 3104
etiyle 3103
Mardin 3102
bölümleri 3102
performansı 3102
ülkeye 3102
utu 3101
11.@@ 3100
hipot@@ 3100
kaybol@@ 3100
Musa 3099
eksiyon 3099
nüfus@@ 3099
denet@@ 3097
ilim@@ 3097
Ki@@ 3096
ahı 3096
hukuk@@ 3096
Caddesi 3095
cal@@ 3093
sistemine 3093
başlıklı 3092
eleştirmen@@ 3092
istedi@@ 3092
Çiç@@ 3092
Erzincan 3091
Hastanesi 3091
Pey@@ 3091
cü 3091
yapılar 3091
finalinde 3090
istediği 3090
Sistemi 3089
evlili@@ 3089
katılımc@@ 3089
ulaşmıştır 3089
Tarım 3088
şi@@ 3088
prensi@@ 3086
enko 3085
ismiyle 3085
tarihinden 3085
üretilmiştir 3083
Kızılder@@ 3082
böcek 3082
kurulması 3082
yerek 3082
Cumhurbaşkanlığı 3080
Parlamentosu 3080
izlen@@ 3080
tanesi 3079
ardaki 3078
hoc@@ 3078
ilgil@@ 3078
voleybol 3078
yoktu 3078
çalın@@ 3077
kadının 3075
vermiş 3075
yöntem 3075
Ayr@@ 3074
baskın 3074
meyve 3074
tin@@ 3074
uygulanan 3072
ışın 3071
Güney@@ 3070
No@@ 3070
etini 3070
fazl@@ 3070
au@@ 3068
pay@@ 3068
Times 3067
Elazığ 3066
Tim@@ 3066
mahalle@@ 3066
sığ@@ 3066
adal@@ 3065
lis 3065
âr@@ 3065
11. 3064
cılar 3064
dizide 3064
raf 3064
Kanal 3063
alanına 3063
açar 3063
uğunu 3063
İttif@@ 3062
Türkmen 3061
asıydı 3061
arkasında 3060
Kuvvet@@ 3059
bas 3059
memektedir 3059
yaşad@@ 3059
kok@@ 3058
önlemek 3057
ian 3056
akıllı 3055
amad@@ 3055
yetik 3055
H. 3054
ılma 3054
arama 3051
müştü 3051
şiddet 3051
ruh 3050
Çift@@ 3050
Eur@@ 3049
Geleneksel 3049
adıdır 3049
Libya 3048
doğum@@ 3048
iko 3048
dev 3045
döneminin 3045
saldırıya 3044
und 3044
işlemi 3043
yakınında 3043
Lin@@ 3042
hr@@ 3041
sistemini 3041
tüy@@ 3041
uğa 3041
alama 3040
gelerek 3040
maliyet@@ 3040
rar 3040
çay 3040
Mih@@ 3039
bahse@@ 3039
noktas@@ 3038
tahmin@@ 3038
geril@@ 3037
beş@@ 3035
saldırısı 3035
öyk@@ 3035
beledi@@ 3034
uvar@@ 3034
erle 3033
uluk 3033
bağlantılı 3032
ucu@@ 3032
Gön@@ 3031
örneği 3031
Yayın@@ 3030
çevres@@ 3030
alanlarında 3029
terek 3029
İlçesi 3029
alet 3028
dayanır 3028
eyaletine 3028
fizik@@ 3028
car@@ 3027
olduklarını 3027
turn@@ 3027
çalışmaktadır 3027
Aşk 3026
Şanlıurfa 3026
şehirler 3026
Afrikan 3024
North 3024
tığını 3024
veda 3024
landırma 3023
elin 3022
Hollywood 3021
atıldı 3021
hey@@ 3021
sand@@ 3021
optik 3020
yıldır 3020
urt 3019
çelik 3019
emir 3018
ff@@ 3018
kere 3018
korku 3018
amik 3017
uya 3017
Brezilyalı 3016
Denizli 3016
Beş 3015
dökül@@ 3015
okuy@@ 3015
andaki 3013
artış 3013
şansı 3013
Düz@@ 3012
Vil@@ 3011
süz@@ 3011
Aşağı 3010
mensu@@ 3010
ney 3010
Arnavut 3009
Brown 3009
birinc@@ 3009
doğus@@ 3008
tuğu 3008
Kanunu 3007
olmasıdır 3007
sis 3006
49 3004
afa 3004
Konu 3003
Plat@@ 3003
cü@@ 3003
şarap 3002
Annesi 3001
Tay@@ 3001
bon 3000
süreç 3000
ılığını 3000
Ven@@ 2999
kolayca 2999
toplanan 2999
tutuklandı 2999
with 2999
yerler 2999
bölgesinden 2998
İslam@@ 2998
Halil 2996
ziyade 2996
mesaj@@ 2995
vb. 2995
Hüs@@ 2994
Kendisi 2994
Carl 2993
girdiği 2993
tör 2993
Cev@@ 2992
ede@@ 2992
ess@@ 2992
temsil@@ 2992
başlangıc@@ 2991
dava 2990
Kırmızı 2989
oca 2989
verilerine 2989
sözcük@@ 2988
Bot@@ 2987
94 2986
güreş@@ 2986
reklam@@ 2986
türler 2986
sorun 2985
Alaska 2984
Halep 2984
Mahmud 2983
aktaydı 2983
Değiş@@ 2982
tasarlanmış 2982
ula 2982
verimli 2982
çerçev@@ 2982
ülkeleri 2982
hâlâ 2981
sunuldu 2981
becer@@ 2980
iner 2980
Eğ@@ 2979
komis@@ 2979
96 2977
adres@@ 2977
kütle 2977
şarkısıyla 2977
let 2976
öğrenimini 2976
maddi 2975
Üst@@ 2975
Başka 2974
ağan 2974
dönüştürül@@ 2974
lukla 2972
rakibi 2972
bulmak 2971
etkinlik@@ 2970
My@@ 2969
Young 2969
güvenli 2969
çıkarılan 2969
birbirlerine 2968
Donanması 2967
ortalam@@ 2967
Ülkenin 2967
başkanlığını 2966
ilişkilendir@@ 2965
Öğret@@ 2965
1909 2963
uygulaması 2963
çuk 2963
karanlık 2962
rakam@@ 2962
yıldan 2961
Parti@@ 2960
ahşap 2960
hikâ@@ 2960
name 2960
yse 2960
Marie 2959
çağır@@ 2959
Alb@@ 2958
Doğan 2958
Johnson 2958
alıyor 2958
mur@@ 2958
sitesi 2957
tanındı 2957
İsy@@ 2957
vefat 2956
subay 2955
Alman@@ 2954
Ulu@@ 2954
klas@@ 2954
kum 2954
vb 2954
Prusya 2953
getirmiştir 2953
öğretmen 2953
İd@@ 2953
ışını 2953
derecesi 2952
sıraya 2952
yapımcılığını 2952
99 2951
M.Ö. 2951
bakter@@ 2951
getirilmiştir 2951
AN@@ 2950
engel 2950
olasıl@@ 2950
Osmanlılar 2949
etinde 2948
üce 2947
Bay 2946
demok@@ 2946
inanç@@ 2946
ileti@@ 2945
kökeni 2945
niteli@@ 2945
getirir 2944
Ford 2943
Ten@@ 2943
küçük@@ 2942
sayıl@@ 2941
dizisinin 2940
iklerin 2940
ülebilir 2940
tra 2939
eskiden 2938
Sicilya 2937
depo@@ 2937
Dünyanın 2936
faaliyetleri 2935
tren 2935
belirlenmiştir 2933
kazanmış 2933
tamamlamıştır 2933
çili@@ 2933
Ceza 2932
dahi 2932
konuşan 2932
Ha@@ 2931
eleştiriler 2931
reklam 2931
gerçekten 2930
Şek@@ 2930
63 2929
Yönet@@ 2929
eklem@@ 2929
amac@@ 2928
beyi 2927
hisar 2927
istih@@ 2927
jen@@ 2927
mekanik 2927
plaz@@ 2927
sayg@@ 2927
Giresun 2926
ebilmektedir 2926
uzaklaştır@@ 2926
imzalam@@ 2925
oyunda 2925
anahtar@@ 2924
aktivit@@ 2923
diğeri 2923
los@@ 2923
kapan@@ 2922
ayırt 2921
canlandırdı 2921
kırsal 2921
# 2920
Pav@@ 2920
siyas@@ 2920
Yor@@ 2919
bunlardan 2919
siyasal 2918
Yukar@@ 2917
malarının 2917
Televizyon 2916
yoğunlaş@@ 2916
Kız@@ 2915
bölümler 2915
evrim@@ 2915
Sir@@ 2914
milyon@@ 2914
Mütte@@ 2913
Red@@ 2913
etraf@@ 2913
jüri 2912
Hüküm@@ 2911
alınması 2911
DP 2910
Yaşam 2910
inus 2909
sö@@ 2909
ros@@ 2908
ınlar 2908
98 2907
Iş@@ 2907
Milletvekilliği 2907
atr@@ 2907
gelişen 2907
geliştirilmiş 2907
attan 2906
Def@@ 2905
Kl@@ 2905
ayının 2904
gelişme 2904
içe 2904
č@@ 2904
Kraliçe 2903
We@@ 2903
yayımlanmıştır 2903
rapor 2902
700 2901
Nov@@ 2900
gar 2899
oloji@@ 2899
Hali@@ 2898
diş 2898
yapay 2898
üstüne 2898
Dom@@ 2897
kaynaklar 2897
kadrosuna 2896
section 2896
talar 2896
Kendi 2894
Resmi 2894
açıklama 2894
mahallesi 2894
çarpış@@ 2893
Pen@@ 2891
olmayı 2891
250 2890
Pin@@ 2889
cezası 2889
saltan@@ 2889
federal 2888
istikr@@ 2888
kuantum 2888
Otom@@ 2885
1907 2884
estr@@ 2884
had@@ 2884
ülkeden 2883
ekran 2881
urt@@ 2881
eğine 2880
hizmetleri 2880
takımıyla 2880
Fakül@@ 2879
VI 2879
riv@@ 2879
şeker 2879
kadrosunda 2878
asyona 2877
edici 2877
görünür 2877
mektir 2877
şiş@@ 2877
elenen 2876
sanc@@ 2876
eserinde 2875
sıkınt@@ 2875
gener@@ 2874
kariyerinin 2874
turizm 2873
age 2872
eva 2872
ihtiyaç@@ 2872
deng@@ 2871
süper@@ 2871
sınav@@ 2871
bis@@ 2870
lileri 2870
noktada 2869
vard@@ 2869
liman@@ 2868
Öğrenc@@ 2868
popül@@ 2867
İbn 2867
Yayın 2866
buraya 2866
kten 2866
FK 2865
eten 2865
zaten 2865
2,@@ 2864
görevinde 2864
sıv@@ 2864
tüf@@ 2864
ensi 2863
terim 2863
girerek 2862
tın@@ 2862
Tok@@ 2861
düzenledi 2861
Chi@@ 2860
Kari@@ 2860
atıfta 2859
biyograf@@ 2859
çekilmiştir 2859
gönderil@@ 2858
Yozgat 2856
tamamlayan 2856
çocuklar 2856
gazetesi 2855
Tam 2854
afi 2854
tarihten 2854
hır@@ 2853
bulunması 2852
retim 2852
Hall 2851
asist@@ 2851
nik@@ 2851
sular@@ 2851
Bulgar@@ 2849
1905 2848
Hareketi 2848
sözcüğ@@ 2848
özgür 2847
Raw 2846
bilgisi 2846
kopya 2846
kamu@@ 2845
ung@@ 2845
ölçü@@ 2844
0.000 2843
Tunus 2843
76 2841
86 2841
biçiminde 2841
müzikal 2840
arla 2839
nüfuslu 2839
Yahudiler 2838
bask@@ 2838
Şehir@@ 2838
tel 2836
ımından 2836
Yani 2835
zey@@ 2835
ი@@ 2835
Yam@@ 2834
Ölüm@@ 2834
klibi 2833
görevden 2832
» 2832
öncel@@ 2832
Des@@ 2831
Malta 2830
bunları 2830
birine 2829
tüğü 2829
yonun 2829
lığından 2828
ym@@ 2828
Çalış@@ 2828
Ülke 2828
kahram@@ 2827
las 2827
yüksekliği 2827
gerç@@ 2825
kuvvetlerinin 2825
çalışırken 2825
87 2824
bağlan@@ 2824
Öte 2824
değişiklik@@ 2822
tedir 2822
66 2821
işini 2821
Küba 2820
lip@@ 2820
09 2819
Samsung 2818
cısı 2818
dis 2818
erleri 2818
Joe 2817
aldılar 2817
yıldızı 2817
çevrimiçi 2817
anak@@ 2816
yürürlüğe 2816
bot@@ 2815
ital 2815
milli 2815
şampiyonluk 2815
Sağ@@ 2814
bağımsızlık 2814
ilde 2814
çam@@ 2814
atının 2813
kanın 2813
ulmuş 2813
Turu 2811
bahar@@ 2811
küme 2811
sig@@ 2811
yukarı 2811
Oc@@ 2810
bulunmuş 2810
eceğine 2810
ps 2810
sının 2810
siyonu 2809
84 2808
gerilim 2808
annesinin 2806
teklif@@ 2806
ny@@ 2804
tip@@ 2804
kart 2803
üreten 2803
College 2802
aşağ@@ 2802
atom 2800
kaynaklarda 2800
kulübü@@ 2800
planı 2800
Selanik 2799
ayg@@ 2799
yaşar 2799
dönemine 2798
sesi 2798
şans@@ 2798
Alek@@ 2797
gezeg@@ 2797
özellik 2797
Bro@@ 2796
formasıyla 2796
inli 2796
örleri 2796
ıktır 2796
AC 2794
Şehirdeki 2794
inanc@@ 2793
stil@@ 2793
Dis@@ 2792
aman@@ 2792
kahverengi 2792
Gil@@ 2791
kron@@ 2791
oymağına 2791
destekleyen 2789
yos@@ 2789
şehre 2789
1878 2788
Hikâ@@ 2788
MTV 2788
kanat 2788
ensel 2787
gerektiği 2787
Jo@@ 2785
rahatsız@@ 2784
çerçevesinde 2784
iyileş@@ 2783
geçtiği 2782
lit 2782
yararlan@@ 2782
eksen@@ 2781
luklar 2781
Gürcüce 2780
oynay@@ 2780
phe 2780
wood 2780
drama 2779
dönüştü 2779
endisi 2779
neticesinde 2779
tanı 2779
değişir 2777
tt@@ 2777
Şub@@ 2776
izlem@@ 2775
77 2774
bağlandı 2774
cam 2774
esiz 2774
terim@@ 2774
ayolu 2773
buradan 2773
ilaç 2773
pres@@ 2773
Bon@@ 2772
ekip 2772
mevkiinde 2770
şunları 2770
73 2769
74 2769
Spor@@ 2769
başarısız@@ 2769
port@@ 2769
komün@@ 2767
uyum@@ 2767
atın 2765
şid@@ 2765
Sk@@ 2764
har 2764
köğretim 2764
yönetti 2764
ünce 2764
şimdiki 2764
Halk@@ 2763
saf 2763
asit@@ 2761
olmasının 2761
krizi 2760
HP 2759
Top 2759
değişim 2759
kolay@@ 2759
zy@@ 2759
Angel 2758
Bizans@@ 2758
diplom@@ 2757
mağaz@@ 2757
sayıları 2757
yans@@ 2757
1902 2755
D. 2755
Yer 2755
refer@@ 2754
büyüklüğ@@ 2753
eus 2753
şiddet@@ 2753
Hong 2752
Merkez@@ 2752
İlk@@ 2752
ser 2751
altyap@@ 2750
rekabet 2750
sonuçlandı 2750
Kiev 2749
Savaşları 2749
Yukarı 2749
kun@@ 2749
çar@@ 2749
tis@@ 2748
up@@ 2748
Hy@@ 2747
gerekmektedir 2747
sik 2747
Muğla 2746
360 2745
awa 2745
kalı@@ 2745
konfer@@ 2745
çubu@@ 2745
kategorisinde 2744
Ölüm 2744
hid@@ 2743
AR@@ 2742
zamanı 2742
mimar 2741
müdahale 2741
suyun 2741
Endonezya 2739
Mıs@@ 2739
Ort@@ 2739
elektron 2739
Sanatçı 2738
dy@@ 2738
Dok@@ 2737
Sul@@ 2737
uzunluğ@@ 2737
yanıt 2737
tanıştı 2735
Şirketi 2735
algorit@@ 2734
dram@@ 2734
kayd@@ 2734
ıldığını 2734
aklık 2733
eksik@@ 2733
kıyasla 2733
müze 2733
pil@@ 2733
yakından 2733
Kamp@@ 2732
Vladimir 2732
olursa 2732
Aydın@@ 2731
acağına 2731
olacağı 2731
Cey@@ 2730
Kayn@@ 2730
Kitap@@ 2730
elidir 2730
kanun@@ 2730
olanlar 2730
reak@@ 2730
gereksin@@ 2729
kariyerinde 2729
sisteminde 2729
dört@@ 2728
saygı 2728
Eser@@ 2727
alınmış 2726
Hö@@ 2725
deplas@@ 2725
kişiyi 2725
likle 2725
abi 2724
arkeolojik 2724
kalabalık 2724
yazan 2724
yaşta 2724
69 2723
Turizm 2723
enti 2722
gelişimi 2722
Listesi 2721
Siyasal 2721
avuk@@ 2721
hom@@ 2721
tren@@ 2721
« 2721
José 2720
Taylor 2720
Madonna 2719
indeydi 2719
Yeşil 2718
Yönetimi 2718
ecekleri 2718
layıp 2718
politika 2718
üsünü 2718
Lewis 2717
potansiy@@ 2717
şarkısını 2717
Ann@@ 2716
kiralık 2715
Çık@@ 2715
ema 2714
som@@ 2714
anos 2713
Belgrad 2712
bilinmemektedir 2712
bölgel@@ 2712
mobil 2712
tamamlan@@ 2712
yarışmada 2712
tehlik@@ 2711
uzan@@ 2711
chi 2710
pi 2709
Aile 2708
katılmış 2708
saniy@@ 2708
12.@@ 2707
Bilgi 2707
dayanarak 2707
girmiş 2707
Müd@@ 2706
uçağı 2706
End@@ 2705
kilometr@@ 2705
merkezidir 2705
rö@@ 2705
sayısının 2705
ts 2705
Güneydoğu 2704
Polonyalı 2704
taz@@ 2704
Koreli 2703
değişken@@ 2703
görmüştür 2703
ington 2703
kurgusal 2703
zamandan 2703
gönderilen 2702
78 2701
birinde 2701
müdürü 2701
yönde 2701
etkisiyle 2700
gruptan 2700
listelerinde 2700
oynamaya 2700
püskür@@ 2700
sürmüştür 2700
isteği 2699
Antonio 2698
Fa@@ 2698
getirilen 2698
saniye 2698
sinden 2697
verim@@ 2697
yona 2697
şifrel@@ 2697
Bob 2696
Doğal 2696
Karolina 2696
anılır 2696
manda 2696
riye 2696
yönetici 2696
şir@@ 2696
biye 2695
etkiler 2695
kle@@ 2695
Konferansı 2694
getirdiği 2694
üleri 2694
Aslında 2693
eşleş@@ 2693
koc@@ 2693
niyet 2692
Sonunda 2691
kraliyet 2691
piskopos@@ 2691
askerler 2690
lıkta 2690
yapım@@ 2690
ıd@@ 2690
Carlos 2689
Eb@@ 2689
Mari@@ 2689
PC 2689
görevlisi 2689
rezer@@ 2689
yalar 2689
trol 2688
Aç@@ 2687
beli 2687
AP 2686
Feder@@ 2686
Mirası 2686
şampiyonluğunu 2686
1886 2685
dünyadaki 2685
Pa@@ 2684
içinden 2684
kanser@@ 2684
psikolojik 2684
şık 2684
yöne@@ 2683
Dum@@ 2682
ümlü 2681
71 2680
aktan 2680
cudur 2680
içeriyordu 2680
gil 2679
kullanmıştır 2679
pazar 2679
dikkat@@ 2678
Kamu 2677
asyonun 2677
özelliklerini 2677
epe 2676
liydi 2676
maddeler 2675
taç 2675
Görün@@ 2674
direktörü 2674
Kanadalı 2673
ys 2673
Vas@@ 2672
akı 2672
anına 2672
gri 2671
RNA 2670
programları 2670
tatlı 2670
hazırlan@@ 2669
kod 2669
mand@@ 2669
türdür 2669
bürokr@@ 2668
günümüzdeki 2668
olo@@ 2668
usul@@ 2668
08 2667
başbakan 2667
á 2667
Paulo 2666
Wilhelm 2666
baz 2666
macer@@ 2666
olmalıdır 2666
sürdürmektedir 2666
Sony 2665
km2 2665
Ray@@ 2664
basınç 2664
oğludur 2664
sir@@ 2664
Group 2663
Leh@@ 2663
gelip 2663
ondur 2663
süt 2663
Kn@@ 2662
sü 2662
transfer@@ 2662
yatırım 2662
anik 2661
bağır@@ 2661
elektron@@ 2661
he 2661
Başbakanı 2660
ito 2660
Dest@@ 2659
Kocaeli 2659
bestec@@ 2659
protein 2659
açıklamıştır 2658
R. 2657
Biyografi 2656
Fel@@ 2655
Yasası 2655
dığında 2655
oradan 2655
DC 2654
doğur@@ 2654
etmişti 2654
tank 2654
Trakya 2653
geliştirdi 2653
hit 2653
kadem@@ 2652
Liverpool 2651
Cur@@ 2650
ahr@@ 2649
yken 2649
amba 2648
ast 2648
rey 2648
maksızın 2646
mill@@ 2646
61 2645
Final@@ 2645
Meg@@ 2645
giyi 2645
nem 2645
yazında 2645
beyaz@@ 2644
erişim 2644
nadir 2644
Boston 2643
emen 2643
grup@@ 2643
oluşmuştur 2643
Yahudilerin 2642
anayas@@ 2642
mus@@ 2642
Karabağ 2641
Yel@@ 2641
eğlence 2641
hayal 2641
tanımlan@@ 2641
ıştığı 2641
81 2639
etine 2639
gayet 2639
hor@@ 2638
ike 2638
traf@@ 2638
ug@@ 2638
Napolyon 2637
School 2636
yöneticisi 2636
örlük 2636
akan 2635
çekim 2635
üfetti@@ 2634
Pis@@ 2633
bağ 2633
Hollandalı 2632
delik 2632
ehir 2632
pişir@@ 2632
aşık 2631
bulut@@ 2631
manlar 2631
olağanüstü 2631
prens@@ 2631
çıkması 2631
Köprüsü 2630
açılış 2630
hayvanc@@ 2630
kitapları 2630
miktarı 2630
ped@@ 2629
protesto 2629
verilmektedir 2629
ındır@@ 2629
belirlem@@ 2628
sever@@ 2628
Sc@@ 2627
anlaşması 2627
değiştirdi 2627
Pro 2626
dün@@ 2626
meclis 2626
82 2625
Sanc@@ 2625
İstasyonu 2625
dikkatini 2623
Fo@@ 2622
Hur@@ 2622
iktir 2622
Mod@@ 2621
Psik@@ 2621
stratejik 2621
Sir 2620
doktor 2620
tiz@@ 2620
etta 2619
oya 2619
politikası 2619
tartışma 2619
Ağrı 2618
halklardan 2618
Ada 2617
büyüme 2616
eklen@@ 2616
enstr@@ 2616
konuşulan 2616
önemi 2616
97 2615
Oto@@ 2615
saptan@@ 2615
Emir 2614
Lit@@ 2614
rengi 2614
İslami 2614
Portekizce 2613
bellek 2613
birimleri 2613
gezegen@@ 2613
led@@ 2613
macı 2613
sahip@@ 2613
Haned@@ 2612
imha 2612
59 2611
ardan 2611
büyüdü 2610
ildir 2610
izler 2610
oll@@ 2610
Lenin 2609
ertel@@ 2609
Amasya 2608
Timur 2608
biçimi 2608
kateg@@ 2608
faz 2607
olog@@ 2607
Metin 2606
oni@@ 2606
tis 2606
Kilise 2605
maksimum 2605
Mavi 2604
madığını 2604
piyano 2604
ach 2601
geldiğini 2601
giye 2601
turu 2601
lıklarını 2600
raki@@ 2600
uyum 2600
antlaş@@ 2599
örnekleri 2599
bölümünün 2598
cası 2598
isiydi 2598
kurmuştur 2598
vücu@@ 2598
Kh@@ 2597
bahar 2597
yanlısı 2597
83 2596
Tiflis 2596
fikri 2596
huku@@ 2596
ons 2596
eğe 2595
ft 2594
kalıntıları 2594
komuta 2594
Mihail 2593
ayrılmış 2593
etmişlerdir 2593
Harp 2591
genişletil@@ 2591
Özbekistan 2591
Özgür 2591
çevresindeki 2591
aga 2589
kanal 2589
liy@@ 2588
İzlanda 2588
Vek@@ 2587
grubuna 2587
kendisinden 2587
sever 2587
özü 2587
alif@@ 2586
olurken 2586
denize 2585
kolaylaştır@@ 2585
sorunlar 2585
tiyle 2585
deneysel 2584
Çalışma 2584
Disney 2583
osen 2583
uzat@@ 2583
4,@@ 2582
Fik@@ 2582
ets 2582
konumu 2582
kurt 2582
zırhlı 2582
12@@ 2581
Hükümeti 2581
radyas@@ 2581
çözül@@ 2581
0,1 2580
Mars 2580
kuzeyde 2580
motoru 2580
tepel@@ 2580
Mam@@ 2579
Pot@@ 2579
Sibirya 2579
avantaj@@ 2579
belirlemek 2579
GB 2578
araba 2578
cumhurbaşkanlığı 2578
ime@@ 2578
nem@@ 2578
stat@@ 2578
haklarını 2577
hali 2577
mürette@@ 2577
reç@@ 2577
sorunu 2577
aşkın 2576
dergisinde 2576
gibidir 2576
inae 2576
pel@@ 2576
Süre@@ 2575
Gur@@ 2573
Meydanı 2573
Seferi 2573
matematiksel 2573
Simon 2572
Cem 2571
acı@@ 2571
ematik 2571
golle 2571
güneyde 2571
yoluna 2571
Ari@@ 2570
cezasına 2570
ülkeyi 2570
Day 2569
Saray 2568
lah 2567
liğindeki 2567
görünüş@@ 2566
geride 2565
İran@@ 2565
91 2564
Super 2564
etmesini 2564
illiği 2564
koalis@@ 2563
kullanmak 2563
makale 2563
oran 2563
gönüllü 2562
Dairesi 2561
Kong 2561
denk 2561
kısım 2561
Niz@@ 2560
SA@@ 2560
duk@@ 2560
etkiley@@ 2559
ojen 2559
İler@@ 2559
Yaş 2558
dun 2558
yuv@@ 2558
Yaln@@ 2557
arma 2557
müzisyen@@ 2557
İşleri 2557
düzenlenmiştir 2556
hayv@@ 2556
sekizinci 2556
Op@@ 2555
bahsedil@@ 2555
hayatının 2555
Yavuz 2554
tanımlanan 2554
tanımlanır 2554
hasta 2553
line 2553
odi@@ 2553
olun@@ 2553
anlamında 2552
eo 2552
like 2552
yarısı 2552
malarında 2551
muhab@@ 2551
Rıza 2550
asyonları 2550
lerce 2550
rekab@@ 2550
abad 2548
kaldırıldı 2548
karışık 2548
oranında 2548
sipar@@ 2548
sonlandır@@ 2548
popüler@@ 2547
Hamilton 2546
Num@@ 2546
hükümeti 2546
BM 2545
Hatta 2545
ille 2544
kör@@ 2544
od 2544
Okyan@@ 2543
Team 2543
bombard@@ 2543
Air 2542
Hız@@ 2542
atin 2542
kurum 2542
mezar 2542
oyunlar 2541
tiğinde 2541
Fox 2540
Meş@@ 2540
Sınıf@@ 2540
akıl 2540
yazmaya 2540
ain@@ 2539
bugüne 2539
süredir 2539
Demok@@ 2538
Sonr@@ 2538
keşif 2538
aro 2537
kitabın 2537
topraklarında 2537
Ant@@ 2536
Fot@@ 2536
nüfusa 2536
yarışmasında 2536
yeti 2536
Pri@@ 2535
Ty@@ 2535
ikat@@ 2535
imzalanan 2535
kork@@ 2535
Bolu 2534
endiş@@ 2534
sinde 2534
uzaklaş@@ 2534
Cav@@ 2533
memur@@ 2533
olabileceği 2533
sevi@@ 2533
Victoria 2532
laz@@ 2532
tanrı 2532
teklifi 2532
şan 2532
Dolayısıyla 2531
karak@@ 2531
01 2530
Konservatuvarı 2530
başrol 2530
köle 2530
Not@@ 2529
Teknoloji 2529
olabileceğini 2529
Yüksek@@ 2528
mı 2528
yükselmiştir 2528
müşter@@ 2527
Fir@@ 2526
Hill 2526
PKK 2526
Fran@@ 2525
alanan 2525
işleme 2525
madır 2525
ი 2525
bölgeler 2524
kaynaklanan 2524
seslendirilen 2524
Kü@@ 2523
animasyon 2523
belki 2523
sıkı 2523
Hır@@ 2522
deri 2521
söylenir 2521
1906 2520
Linux 2520
Tuna 2520
ary 2520
dönemlerinde 2520
kas 2520
Gez@@ 2519
Mül@@ 2519
Steve 2519
liman 2518
tom@@ 2518
şehristanı 2518
luğ@@ 2517
Wal@@ 2516
abl@@ 2516
gecik@@ 2516
not 2516
rakip 2516
Yah@@ 2515
sunulan 2515
biti@@ 2514
E. 2513
Juan 2513
Pel@@ 2513
entin 2513
restor@@ 2513
seçimlerde 2513
bilimkurgu 2512
istediğini 2512
ES@@ 2511
Tol@@ 2511
düzenlediği 2511
şif@@ 2511
Sol 2510
devir@@ 2510
kurban@@ 2510
ufak 2510
vokal 2510
yazarlar 2510
ısıt@@ 2510
atöl@@ 2509
devamı 2509
imde 2509
isy@@ 2509
Ry@@ 2508
ST@@ 2508
hâlen 2508
rev@@ 2508
öncelikle 2508
belgesel 2507
düşer 2507
hakimiyet@@ 2507
ister@@ 2507
Bill 2506
ebilir@@ 2506
eğit@@ 2506
atta 2505
açmıştır 2505
haftalık 2505
kurmak 2505
suzluk 2505
söylen@@ 2505
oksit 2504
duvar 2503
ürünü 2503
aw@@ 2502
recek 2502
Ön 2502
ürünler 2502
Beledi@@ 2501
Eğitimi 2501
Kafkas 2501
ağırlık 2501
cık 2501
gençlik 2501
inger 2501
sağlamaktadır 2501
elt@@ 2500
ihtiyacı 2500
usal 2500
Bundesliga 2499
amaz@@ 2499
imkân@@ 2499
nör@@ 2499
viç 2499
ılığa 2499
farklıdır 2498
sattı 2498
ile@@ 2497
çel@@ 2497
Mahmut 2496
verilmiş 2496
zu@@ 2496
Not 2495
Tony 2495
aktris 2495
diya 2495
gular 2495
Hum@@ 2494
Sos@@ 2494
kesiminde 2494
Seçimleri 2493
esc@@ 2493
sevgil@@ 2493
France 2492
Galler 2492
Seri 2492
erinden 2492
yaşına 2492
burg 2491
kaleci 2491
katılımcı 2491
benim@@ 2490
indir 2490
meyd@@ 2490
ordunun 2490
é@@ 2490
pot@@ 2489
yumuşak 2489
ımız@@ 2489
Sam 2488
bölümden 2488
teşkil 2488
rekor@@ 2487
klerini 2486
toplumun 2486
yapması 2486
büt@@ 2485
entr@@ 2485
sürecinde 2485
ash@@ 2484
başarıyla 2484
ordusunu 2484
ıntı 2483
Şen@@ 2483
89 2482
Konfeder@@ 2482
Pop 2482
anır 2482
gelmesi 2482
zayıf@@ 2482
Sün@@ 2481
meydan 2481
Lar@@ 2480
ameliy@@ 2480
geler 2480
gide 2480
parçalar 2480
adındaki 2479
gazetesinde 2479
çocukların 2479
Christian 2478
Sus@@ 2478
kullanmaya 2478
Sezar 2477
oto@@ 2477
insanlara 2475
temas 2475
va@@ 2475
Eyal@@ 2474
Kahire 2474
Rey 2474
Yardımcı 2474
pos 2474
Mühendisliği 2473
Protest@@ 2473
Bilgiler 2472
Müs@@ 2472
sanatı 2472
siyasetçidir 2472
1890 2471
döneminden 2471
verme 2471
lüdür 2470
sıralan@@ 2470
tuz 2470
urg@@ 2469
AT@@ 2468
yüzölçümüne 2468
birincil 2467
ekonomisi 2466
Ek 2465
The@@ 2465
biliş@@ 2465
ilişkis@@ 2465
almayı 2464
grupta 2464
İtalyanca 2464
görünen 2463
plastik 2463
ure 2463
uğradı 2463
çuk@@ 2463
İsveçli 2463
arke@@ 2462
element@@ 2462
görevleri 2462
güreş 2462
siyaset@@ 2462
so 2461
Kahramanmaraş 2460
Seçim 2460
aalanı 2460
iğin 2460
kuvveti 2460
sağlam 2460
semt@@ 2460
ıyan 2460
avi@@ 2459
filmlerinde 2459
tehlikeli 2459
yapımında 2459
Kupa 2458
stan@@ 2458
İskoç 2458
cinsel@@ 2457
etmesine 2457
CD@@ 2456
YouTube 2456
ente 2456
Arke@@ 2455
Boğazı 2454
Gerçek 2454
alanının 2454
05 2453
François 2453
Kütüphanesi 2453
ağr@@ 2453
onda 2453
evde 2452
numara 2452
yg@@ 2452
aly@@ 2451
çıkarıldı 2451
avir@@ 2449
bilinmeyen 2448
net@@ 2448
sanatçının 2448
yansı@@ 2448
Cengiz 2447
Tuğ@@ 2447
diklerini 2447
stein 2447
usunun 2447
katlı 2446
negatif 2446
Ruslar 2445
tasarlanmıştır 2445
ıca 2445
araçları 2444
kare 2444
lit@@ 2444
Ep@@ 2443
ern@@ 2443
topladı 2443
ımcı 2443
Pazar 2442
Polis 2442
aksiyon 2442
cezalandır@@ 2442
bakanı 2441
reh@@ 2441
Geç 2440
Geçmiş@@ 2440
Hakları 2439
Kup@@ 2439
Murad 2439
giymiştir 2439
taşıma 2439
ulaştır@@ 2439
yapının 2439
White 2438
alis@@ 2438
hidrojen 2438
seyir@@ 2438
Yakın 2437
ort 2437
Çayı 2437
Kale 2436
plak@@ 2436
ulmuştur 2436
yaspor 2436
07 2435
adları 2435
ayd@@ 2435
dirir 2435
ity 2435
umun 2435
Söz 2434
apo@@ 2434
gey@@ 2433
mim@@ 2433
yapılandır@@ 2433
în 2433
Yol 2432
boya 2432
kaydedil@@ 2432
Fas 2431
Genç@@ 2431
Türkçeye 2431
betim@@ 2431
suy@@ 2431
ıdır@@ 2431
aldıktan 2430
icra 2430
kombin@@ 2430
mükemmel 2430
1876 2429
A.@@ 2429
Cin@@ 2429
Walter 2429
ileriyle 2429
Od@@ 2428
War@@ 2428
kapsar 2428
rat@@ 2428
köpek@@ 2427
thi@@ 2427
urlu 2427
yumurta 2427
çarptır@@ 2427
Hakkında 2426
balığı 2426
hesab@@ 2426
iliy@@ 2426
Lor@@ 2425
Mahallesi 2425
adlandırıl@@ 2425
aye 2425
tekli 2425
verdiler 2425
bine 2424
dest@@ 2424
Büyükel@@ 2423
Fat@@ 2422
Mac 2422
Vit@@ 2422
Wil@@ 2422
sonuc@@ 2422
üstlen@@ 2422
Gerçek@@ 2421
hükümdarı 2421
keskin 2421
stadyum@@ 2421
anından 2420
isin 2420
salon@@ 2420
öğrenciler 2420
Finali 2419
Maked@@ 2419
alınır 2419
eka 2419
log@@ 2419
sekt@@ 2419
Bazen 2418
bulunmamaktadır 2418
kut 2418
şik@@ 2418
anna 2417
has 2417
yenilen@@ 2417
1877 2416
otlar 2416
fel@@ 2415
helik@@ 2415
ispor 2415
kimlik 2415
Atletizm 2414
ülüğ@@ 2414
İbranice 2414
etten 2413
komed@@ 2413
Antakya 2412
Madalyası 2412
bayrağı 2412
Cl@@ 2411
Tos@@ 2411
ayrıntılı 2410
rem 2410
Yabancı 2409
mektup 2409
ularının 2409
Anti@@ 2408
almasına 2408
ilin 2407
inter@@ 2407
ucusu 2407
Müdürü 2406
nat@@ 2406
yendi 2406
air 2405
79 2404
Karş@@ 2404
nu@@ 2404
tanımlanmıştır 2404
Cez@@ 2403
matematik@@ 2403
1896 2402
Oğuz 2402
Bahç@@ 2401
almakta 2401
yayı 2401
University 2400
geliştirilmiştir 2400
hiper@@ 2400
olmasıyla 2400
ordur 2400
yarışmaya 2400
Zü@@ 2399
ettikten 2399
ikincisi 2399
çekirde@@ 2399
ıtlar 2399
1904 2398
Lord 2398
Recep 2398
alim@@ 2398
kötü@@ 2398
leştirme 2398
bank 2397
ıklarında 2397
atılan 2396
uki 2396
Night 2395
Orijinal 2395
uke 2395
Yayınları 2394
eyaleti 2394
kov 2394
yaları 2394
1,5 2392
merkezinin 2392
B. 2391
Kre@@ 2391
alım 2391
azam 2391
op 2391
sıkıştır@@ 2391
ımlarına 2391
5.000 2390
Hatay 2390
pilot 2390
demokratik 2389
Wilson 2388
defans 2388
Ürdün 2388
milyondan 2387
paz@@ 2387
Cad@@ 2386
gerçekleştirilmiştir 2386
krali@@ 2386
mensup 2386
ılmaz 2386
Sed@@ 2385
ase 2385
leştirilmiş 2385
metin@@ 2385
iskel@@ 2384
lukta 2384
makine 2384
sayısını 2384
uyumlu 2384
zih@@ 2384
bombal@@ 2383
komit@@ 2383
yardımc@@ 2383
ücret@@ 2383
10.000 2382
Geliştir@@ 2382
Küre 2382
havz@@ 2382
adığını 2380
nihay@@ 2380
ağab@@ 2378
kimya 2378
konularda 2378
îler 2378
Şahin 2378
bağlayan 2377
enerjisi 2377
istasyonu 2377
pey@@ 2377
ındandır 2377
Barcelona 2376
yürüttü 2376
Şampiyon 2376
alya 2375
bağlantısı 2375
ling 2375
uyuşturucu 2375
ürü 2375
ıysa 2375
Sinop 2374
demektir 2373
gür@@ 2373
yöres@@ 2373
çiçek 2373
Arena 2372
hayvanlar 2371
elen 2370
Varşova 2369
takma 2369
alırken 2368
Arab@@ 2367
ayol@@ 2367
aşma 2367
sandal@@ 2367
sendromu 2367
Çarş@@ 2367
cinsiyet 2366
mahkeme 2366
Üzer@@ 2366
Mike 2365
Milano 2365
TÜ@@ 2365
boşalt@@ 2365
zamanın 2365
üphane 2365
Andrew 2364
C. 2364
ekt@@ 2364
çözüm 2364
direkt 2363
hazırladığı 2363
Şehri 2363
ej 2362
ittifak 2362
alay@@ 2361
dinamik 2361
evik 2361
Dördüncü 2360
ban 2360
baskısı 2360
bün@@ 2360
tadan 2360
çubuklu 2360
üsünün 2360
House 2359
lah@@ 2359
teorik 2359
dia 2358
görünt@@ 2358
tabi 2358
Brian 2357
erg@@ 2357
Yapım 2355
buhar@@ 2355
retti 2355
uygulamalar 2355
Dizinin 2354
Sig@@ 2354
Stephen 2354
katman@@ 2354
luğunda 2354
mesafe 2354
Ail@@ 2352
alanın 2352
atanmıştır 2352
bakanl@@ 2352
Yıl 2351
dal 2351
gövde 2351
mindeki 2351
düşünces@@ 2350
emri 2350
gösterilir 2350
katılmaya 2350
kaza 2350
dor@@ 2349
duygul@@ 2349
edebi 2349
ão 2349
ıyorlardı 2349
ağıdır 2348
kaynaklı 2347
mesel@@ 2347
senarist 2347
yakalam@@ 2347
Üre@@ 2347
anmıştır 2346
Derg@@ 2345
allı 2345
olmaması 2345
Kurt 2344
Rod@@ 2344
fes@@ 2344
loj@@ 2344
rük 2344
ülkes@@ 2344
Aslan 2343
Oblastı 2343
anahtar 2343
Komutanı 2342
Kri@@ 2342
ando 2342
fonksiyonu 2342
Ö 2342
öğrenim 2342
Buenos 2341
Komis@@ 2341
belges@@ 2341
Önce 2341
benzeyen 2340
fesh@@ 2340
geçmişi 2340
huzur@@ 2340
karşılaştı 2340
meslek@@ 2340
mıs@@ 2340
1901 2339
Corporation 2339
Mid@@ 2339
marka 2339
uri 2339
Kilis@@ 2338
SE@@ 2338
afya 2337
hur@@ 2337
parlament@@ 2337
S. 2336
mül@@ 2336
Hazar 2335
sadr@@ 2335
seviye 2335
yavaş@@ 2335
öldüğü 2335
Bülent 2334
Oxford 2334
bayrak 2334
hisse@@ 2334
partisi 2334
büy@@ 2333
tec@@ 2333
ırlı 2333
Aires 2331
Got@@ 2331
Kuy@@ 2331
ilgisi 2331
tanımlamak 2330
düşünülen 2329
fig@@ 2327
sat 2327
-- 2325
astr@@ 2325
Bed@@ 2323
fol@@ 2323
heyk@@ 2323
ž@@ 2323
Holding 2322
bun@@ 2322
dergisinin 2322
görmüş 2322
tutan 2322
çekici 2322
Büyü@@ 2321
Ot@@ 2321
oyuncudur 2321
topluluk 2321
yev 2321
Özellikleri 2321
üreticisi 2321
Şev@@ 2321
ett 2320
kam 2320
Çevre 2320
Kaya 2319
kaybeden 2319
yetersiz 2319
Kitab@@ 2318
Kıy@@ 2318
eriye 2318
etkisini 2318
topr@@ 2318
niyet@@ 2317
riz@@ 2317
sahne@@ 2317
sus@@ 2317
ılığ@@ 2317
Tac@@ 2316
Yıldız@@ 2316
döneme 2316
çektiği 2316
Tümeni 2315
getirmek 2315
kuzeybatısında 2315
Elektrik 2314
farkı 2314
zay@@ 2314
Onur 2313
Tiyatr@@ 2313
atası 2313
ortamda 2313
piyade 2313
Saray@@ 2312
don 2312
finansal 2312
protokol@@ 2312
ularından 2312
yazıları 2312
06 2311
Ale@@ 2310
beslen@@ 2310
diyal@@ 2310
iktis@@ 2310
Çift 2310
şeyin 2310
Napoli 2309
anını 2309
bulan 2309
endüstriyel 2309
ülkedeki 2309
iyor@@ 2308
topu 2308
umi 2308
Hans 2307
ame 2307
Ş 2307
Yat@@ 2306
çıkıp 2306
isyan@@ 2305
ortas@@ 2305
periy@@ 2305
ıtları 2305
zo 2304
Kahr@@ 2303
ე@@ 2303
Zam@@ 2302
aydınlat@@ 2302
belediyedir 2302
kâğ@@ 2302
matik 2302
tecrü@@ 2302
görünüm@@ 2301
leşmesi 2301
Championship 2300
açıklamada 2300
Çince 2300
enci 2298
firması 2298
kol 2298
örümcek 2298
bıç@@ 2297
kaydedilmiştir 2297
seyirci 2297
stratej@@ 2297
zek@@ 2297
çekim@@ 2297
sebeple 2296
Batman 2295
Hareket 2295
Jacques 2294
Zaman@@ 2294
rap@@ 2294
uta 2294
AS 2293
bırakarak 2293
Maliye 2292
başından 2292
ich@@ 2292
sürüc@@ 2292
gali@@ 2291
halef@@ 2291
Bank 2290
kuze@@ 2290
tedavisi 2290
unları 2290
yaygındır 2290
alarındaki 2289
hakkını 2289
bilgil@@ 2288
kant@@ 2288
koydu 2288
mühendislik 2288
olitik 2288
seçen@@ 2288
Örnek 2288
hâline 2287
nd@@ 2287
Gece 2286
Milli@@ 2285
topluluğu 2285
idaresi 2284
imsel 2284
tale@@ 2284
ullah 2284
yerleşik 2284
yesinde 2284
edilmesini 2283
pencer@@ 2282
yeye 2282
lemesi 2281
sed@@ 2281
yapıya 2281
zinc@@ 2281
Who 2280
olayların 2280
ins 2279
sekre@@ 2279
vatandaşı 2279
çatışmalar 2279
East 2278
yerden 2278
çatışma 2278
Bod@@ 2277
kitapta 2277
kontr@@ 2277
Ünlü 2277
Grande 2276
oter@@ 2276
Emre 2275
ayakta 2275
açtığı 2275
hareketleri 2275
low 2275
luluk 2275
yarattı 2275
zafer 2275
senaryosunu 2274
trafik 2274
öm@@ 2274
Pu@@ 2273
gökad@@ 2273
görevlerinde 2273
Giz@@ 2272
yüzlerce 2271
ıcılık 2271
Küçük@@ 2270
Yard@@ 2270
depolama 2270
vesi 2270
yete 2270
Sub@@ 2269
müst@@ 2269
oğl@@ 2269
Sarı 2268
leşmiş 2268
üyesiydi 2268
Alt 2267
bakınız 2267
yeterince 2267
üretilmiş 2267
ğidir 2267
AL@@ 2266
arının 2266
başlayıp 2266
hapishan@@ 2266
küre@@ 2266
meşhur 2266
suya 2266
belirlenen 2264
hel@@ 2264
ihan@@ 2264
maddesi 2264
zemin 2264
Boğ@@ 2263
Fi@@ 2263
baskı@@ 2263
ladır 2263
Cemal 2262
ich 2262
isimlendir@@ 2262
sans@@ 2262
Çav@@ 2262
cins@@ 2261
ng 2261
semtinde 2261
baharında 2260
konusundaki 2260
Çat@@ 2260
Cy@@ 2259
Pensilvanya 2259
galip 2259
geçiril@@ 2259
girişimi 2259
olmasa 2259
Avrupalı 2258
dör@@ 2258
rul@@ 2258
ido 2257
şeyler 2257
Letonya 2256
dağılımının 2256
eğin 2256
yöntemleri 2256
devrim@@ 2255
elinden 2255
mülki@@ 2255
töreni 2255
şa 2255
formül@@ 2254
Nah@@ 2253
bil 2253
eğitimine 2253
lil@@ 2253
Stone 2252
istihbarat 2252
liğiyle 2252
yiyecek 2252
dağlık 2251
int@@ 2251
landığını 2251
tarafı 2251
vermesi 2251
İoannis 2251
Charlie 2249
Tre@@ 2249
bağlanmıştır 2249
ilçenin 2249
tablo 2249
örne@@ 2249
ötesi 2249
Vah@@ 2248
ert 2248
uvar 2248
Aşağ@@ 2247
Benzer 2247
ago 2247
plana 2247
tran@@ 2247
une 2247
Art 2245
arya 2245
edebiyatı 2245
takımdan 2245
yaşamıştır 2245
14.@@ 2244
Askerî 2244
Kitabı 2244
zen 2244
Pet@@ 2243
etkinlik 2243
kuran 2243
lige 2243
130 2242
Prens@@ 2242
Tunç 2241
defter@@ 2241
Mark@@ 2240
bilimci 2239
ilgisini 2239
Fili@@ 2238
düşünc@@ 2238
hasıl@@ 2238
muhalefet 2238
sef@@ 2238
Arnavut@@ 2237
Beh@@ 2237
Sonrasında 2237
Yolu 2237
ji@@ 2237
katılım 2237
kayıp 2237
Çinli 2237
demli 2236
gil@@ 2236
ksi 2236
lenti@@ 2236
uygar@@ 2236
Doğr@@ 2235
Rah@@ 2235
hata 2235
likten 2235
Rem@@ 2234
işle 2234
politikacı 2234
öğretmeni 2234
Yöne@@ 2233
abildi 2233
dışarı 2233
bakım 2232
bulmuştur 2232
gül 2232
hü@@ 2232
Of 2231
Sekre@@ 2231
Genelkurmay 2230
birliklerinin 2230
değiştirilmiştir 2230
ettin 2230
keleri 2230
vis@@ 2230
haftasında 2229
istek@@ 2229
lıkların 2229
üydü 2229
ılığına 2229
Hom@@ 2228
önces@@ 2228
ū@@ 2228
Newton 2227
başbakanı 2227
siniz 2227
Ses@@ 2226
listede 2226
tey@@ 2226
yayınladığı 2226
Amerik@@ 2225
gerçekleştiril@@ 2225
Pam@@ 2224
Reg@@ 2223
akci@@ 2223
dokuzuncu 2223
tamamlandı 2223
Valisi 2222
anj@@ 2222
beden@@ 2222
soyundan 2222
tasarlanan 2222
yedek 2222
ats@@ 2221
edebilir 2221
yasama 2221
1903 2220
Rak@@ 2220
Web 2220
bahsed@@ 2220
güneybatısında 2220
Rumeli 2219
Tatar 2219
Tic@@ 2219
icat 2219
parlamento 2219
Filmde 2218
rakib@@ 2218
Lat@@ 2217
Romalılar 2217
adılar 2217
değiştiril@@ 2217
tahrip 2217
tarihe 2217
alü@@ 2216
oyunc@@ 2216
soğut@@ 2216
yağmal@@ 2216
ışlar 2216
Stad@@ 2215
alıların 2214
emeyen 2214
ky 2214
sabah 2214
zade 2214
şem@@ 2214
içeri 2213
sürgün 2213
Buz@@ 2212
diyerek 2212
iciler 2212
tırman@@ 2212
Fırat 2211
ense 2211
katk@@ 2211
yam@@ 2211
Swift 2210
tanımlar 2210
tohum@@ 2210
izledi 2209
kahraman@@ 2209
köpek 2209
yayla 2209
herkes 2208
karakterler 2208
meclis@@ 2208
oviç 2208
ularak 2208
gelecek@@ 2207
normal@@ 2207
Hek@@ 2206
değerleri 2205
gerçekleşmiştir 2205
mühendisliği 2205
Gazete 2204
rütbesine 2204
Üst 2204
17.@@ 2203
denen 2203
giller 2203
kili 2203
miye 2203
müzaker@@ 2203
yazma 2203
Biz@@ 2202
Galaxy 2202
Ulus@@ 2202
famil@@ 2202
iOS 2202
sahte 2202
avukat 2201
ly@@ 2201
osunda 2201
ee 2200
manast@@ 2200
og 2200
Floransa 2199
akademisyen 2199
gre@@ 2199
sanatçılar 2199
Alfred 2198
Ev 2198
Kırgız@@ 2197
eklendi 2197
kanıt 2197
meslek 2197
ulması 2196
Pale@@ 2195
HD 2194
Program@@ 2194
anısına 2194
Gro@@ 2193
Kub@@ 2193
gı 2193
seviyesi 2193
şehrine 2193
etiketiyle 2192
ismin 2192
num@@ 2192
turnuva 2192
açıklan@@ 2191
demiştir 2191
Ardahan 2190
ero 2190
kulübün 2190
muhaf@@ 2190
borç@@ 2189
profesörü 2189
× 2189
Almanyası 2187
beğ@@ 2187
rolünde 2187
gü 2186
sürülmüştür 2186
mun@@ 2185
taraftan 2185
Kanun 2184
direktörlük 2184
sanal 2184
sürülen 2184
usudur 2184
zırh@@ 2184
Bakanl@@ 2183
Gün 2183
Kazak 2183
Müş@@ 2183
anim@@ 2183
espor 2183
suik@@ 2183
Alice 2182
Green 2182
Orkestrası 2182
romantik 2182
çoklu 2182
emp@@ 2181
kaybı 2181
mütte@@ 2180
yeraltı 2180
çalışmak 2180
kısmının 2179
yenilgiye 2179
Girit 2178
Yedi 2178
Ceph@@ 2177
itz 2177
Projesi 2176
duygusal 2176
ailesine 2175
görevde 2175
kütle@@ 2175
Bitlis 2174
Muk@@ 2174
galak@@ 2174
klem@@ 2174
planlanan 2174
Day@@ 2173
Tur 2173
grubudur 2173
kızıl@@ 2173
1880 2171
Boş@@ 2171
arını 2171
eyal@@ 2171
politikas@@ 2171
ont 2170
sent@@ 2170
Eyü@@ 2169
atörü 2169
bırakt@@ 2169
devrimci 2169
etle 2169
iss@@ 2169
melerin 2169
modelleri 2169
mühendis@@ 2169
Cat@@ 2168
göze 2168
oru 2168
3,@@ 2167
bisiklet@@ 2167
ho 2167
mutfağ@@ 2167
aldığını 2166
mahkûm 2165
nahiy@@ 2165
salonu 2165
kararlaştır@@ 2164
takımını 2164
yarattığı 2164
öğrencileri 2164
şeklindedir 2164
landıktan 2163
ebi 2162
jin@@ 2162
mür@@ 2162
Football 2161
Tran@@ 2161
endis 2161
etmekte 2161
ihraç 2161
verilmesi 2161
Gec@@ 2160
Meryem 2160
aüstü 2160
başkanlığına 2160
bâ@@ 2160
faktör@@ 2160
farklılık 2160
sezonunu 2160
Cap@@ 2159
Yür@@ 2159
sistemler 2159
ıcıları 2159
azından 2158
durumuna 2158
omi 2158
üçünc@@ 2158
а@@ 2158
analizi 2157
deneyim@@ 2157
ladığını 2157
nehir@@ 2157
oynandı 2157
vili 2157
çıkmaya 2157
aşan 2156
imi@@ 2156
oyuncuları 2156
felak@@ 2155
ović 2155
tı@@ 2155
Enerji 2154
Sudan 2154
laştırma 2154
melere 2154
rüz@@ 2154
ua 2154
Dü@@ 2153
Little 2153
Muhar@@ 2153
Selçuk 2153
ork@@ 2153
5,@@ 2152
arayüz@@ 2152
pozisyon 2152
ölçüm@@ 2152
Alev@@ 2151
açığa 2151
yapmayı 2151
öğreti@@ 2151
okulda 2150
oluşturulmuştur 2150
Ülke@@ 2150
Faz@@ 2149
Liz@@ 2149
Ohio 2149
emiş 2149
gam@@ 2149
semb@@ 2149
düzlem@@ 2148
haftada 2148
toz 2148
desteğini 2147
kullanılmış 2147
Aj@@ 2146
Petr@@ 2146
Yapılan 2146
aydın@@ 2146
Güzel@@ 2145
gelişmeler 2145
liderliğindeki 2145
savundu 2145
gözük@@ 2144
Orada 2143
aliyeti 2142
mang@@ 2142
maçlar 2142
üretildi 2142
Eli@@ 2141
Eric 2141
kâr 2141
yenilik@@ 2141
ülkelerinde 2141
Hoca 2140
Hükûmet 2140
Island 2140
Salonu 2140
içerik 2140
sonuçlanan 2140
öh@@ 2140
Parlamento 2139
Vali 2139
aller@@ 2139
Babil 2138
laşmış 2138
olanak@@ 2138
topraklarını 2138
tro 2138
uni 2138
Columbia 2137
hızlandır@@ 2137
pp@@ 2137
çekirdek 2137
Pak@@ 2136
ilim 2136
mutlak 2136
vit@@ 2136
ster 2135
well 2135
ılığın 2135
Maine 2134
Piyade 2134
isleri 2134
Şampiyonu 2134
Kör@@ 2133
Pil@@ 2133
Super@@ 2133
belirtilmiştir 2133
mültec@@ 2133
ticaret@@ 2133
რ@@ 2133
Yazar 2132
patlam@@ 2132
ram@@ 2132
tüccar@@ 2132
öf@@ 2132
Hakan 2131
seyah@@ 2131
sürer 2131
PS 2130
Sit@@ 2130
itleri 2130
müs@@ 2130
110 2129
Ras@@ 2129
oyuncunun 2129
spektr@@ 2129
stan 2129
Atlas 2128
Heinrich 2128
Kasab@@ 2128
alak@@ 2128
koşulları 2128
Mimar 2127
Yapı 2127
aşağıda 2127
ded@@ 2127
lediler 2127
numarası 2127
âh@@ 2127
Şirketin 2127
şun@@ 2127
Kevin 2126
amaç 2126
düzenleme 2126
geçirmek 2126
pta 2126
ry 2126
seçti 2126
verileri 2126
bırakmıştır 2125
öldürür 2125
Gol@@ 2124
başlamıştı 2124
danış@@ 2124
grubunu 2124
Euro 2123
Türkleri 2123
amo@@ 2123
ark 2123
kuşu 2123
acın 2122
başarmıştır 2122
egemen 2122
TC 2121
bölümün 2121
edilmesine 2121
gerçekleştirdiği 2121
ikil@@ 2121
katılmak 2121
lıyor 2121
po 2121
uca 2121
çik@@ 2121
ördür 2121
ılmasıyla 2121
Etimoloji 2120
bizzat 2120
değişikliği 2120
evler 2120
öncü 2120
Açık@@ 2119
bilinç@@ 2119
cir 2119
maddenin 2119
öyle 2119
Konstantin 2118
Orman 2118
düzelt@@ 2118
evden 2118
hil@@ 2118
yaşamaya 2118
Savaşın 2117
Uşak 2117
alp@@ 2117
dire@@ 2117
iyice 2117
köşe 2117
maddes@@ 2117
sinyal@@ 2117
çey@@ 2117
Illinois 2116
format@@ 2116
portr@@ 2116
yaya 2115
ıldıktan 2115
hükûmetin 2114
kodu 2114
okuma 2114
ektir 2113
uvarı 2113
Alex 2112
Artık 2112
Center 2112
Eserleri 2112
Yeş@@ 2112
taray@@ 2112
rir 2111
ülkesinde 2111
Ere@@ 2110
olmaları 2110
bulunabilir 2109
üşü 2109
Şampiyonluğu 2109
SB@@ 2108
doğduğu 2108
naz@@ 2108
çalışmalarının 2108
öykü 2108
Char@@ 2107
ake 2107
cil@@ 2107
değin 2107
sizdir 2107
yağış 2107
Albümde 2106
Uzun@@ 2106
bakır 2106
güd@@ 2106
kong@@ 2106
organı 2106
yolunu 2106
Prag 2105
bağım@@ 2105
hes@@ 2105
sıkça 2105
bitiş@@ 2104
kanı 2104
katılma 2104
kemer 2104
kiyi 2104
lıklı 2104
miktar 2104
savunan 2104
tahmini 2104
Bask@@ 2103
Sistem@@ 2103
işlemc@@ 2103
SS@@ 2102
W. 2102
iliğe 2102
iran 2102
che 2101
eşcinsel 2101
Blo@@ 2100
Ensti@@ 2100
Zonguldak 2100
caz 2100
cilt 2100
Felse@@ 2099
ekle 2099
izleyic@@ 2099
kurban 2099
köyüne 2099
miner@@ 2099
saldırıları 2099
yaklaşım 2099
öğret@@ 2099
şarkıcısı 2099
Cu@@ 2098
Ez@@ 2098
Hun@@ 2098
aziz 2098
cami@@ 2098
masız 2098
rahatsız 2098
yaygın@@ 2098
Dili 2097
Kara@@ 2097
enfeksiyon@@ 2097
ensis 2097
ow@@ 2097
tura 2097
yazılar 2097
Anayasası 2096
doğmuş 2096
öl 2096
Bağımsız 2095
Opera 2095
Rob@@ 2095
eren 2095
kritik 2095
sep@@ 2095
örgütü 2095
ağız@@ 2094
eleşti@@ 2094
Mand@@ 2093
Yav@@ 2093
deydi 2093
kaçtı 2093
Türklerin 2092
duyuruldu 2092
markas@@ 2092
numaradan 2092
Adnan 2091
Devlet@@ 2091
anayasa 2091
kocası 2091
Ankar@@ 2090
eridir 2090
kot@@ 2090
mağlubi@@ 2090
raz 2090
yeteneği 2090
Komut@@ 2089
ikle 2089
muharebe 2089
salın@@ 2089
Coğr@@ 2088
Fen@@ 2088
aleyh@@ 2088
altyapısında 2088
üzüm 2088
Adolf 2087
Mektebi 2087
bran@@ 2087
kupa 2087
seb@@ 2087
türün 2087
yöneten 2087
yar 2086
arkadaş 2085
emir@@ 2085
gemileri 2085
olurlar 2085
yükselt@@ 2085
buy@@ 2084
kayda 2084
çü 2084
Berg@@ 2083
Futbol@@ 2083
biz@@ 2083
tiz 2083
rahi@@ 2082
tanıtıldı 2082
geliştirmek 2081
kapit@@ 2081
sponsor@@ 2081
ımla 2081
Bilimleri 2080
Gl@@ 2080
oğul@@ 2080
ulus 2080
Cambridge 2079
Fri@@ 2079
alkol 2079
ehir@@ 2079
eştir@@ 2079
Blue 2078
Einstein 2078
Emin 2078
güneydoğusunda 2078
lehç@@ 2078
osa 2078
ons@@ 2077
13@@ 2076
bölgeden 2076
ektif 2076
filme 2076
kontrolünü 2076
maçlarını 2076
milit@@ 2076
şeklindeki 2076
Böyle 2075
basit@@ 2075
belediyesine 2075
bik 2075
gelişim 2075
kaplı 2075
savaştan 2075
Araç 2074
RA@@ 2074
iller@@ 2074
bunlara 2073
müttefik@@ 2073
oluşturuldu 2073
İklim 2073
Cami 2072
alanındaki 2072
rest@@ 2072
yazısı 2072
röportaj@@ 2071
ides 2070
saldırdı 2070
ümüş 2070
Nu@@ 2069
etkinliği 2069
Jan@@ 2068
Porto 2068
bulgul@@ 2068
eke 2068
pasaport@@ 2068
plat@@ 2068
Müst@@ 2067
Philadelphia 2067
araçlar 2067
soyadı 2067
Çoğun@@ 2067
Michigan 2066
Türkçesi 2066
filmlerde 2066
oid 2066
seslendirdi 2066
âh 2066
öykü@@ 2066
görmek 2065
mine 2065
thi 2065
Harekâtı 2064
Hırvat 2064
Pekin 2064
Salih 2064
ebileceği 2064
konuları 2064
tecav@@ 2064
ult@@ 2064
entegre 2063
ilki 2063
kaydı 2063
moda 2063
çet@@ 2063
1870 2062
Francis 2062
Seb@@ 2062
bilen 2062
haricinde 2062
Slovenya 2061
büyüyen 2061
dünyasında 2061
gl@@ 2061
Fizik 2060
Malezya 2060
ağacı 2060
köye 2060
ordusuna 2060
Oyunun 2059
Baş 2058
Otto 2058
Sy@@ 2058
lamada 2058
çi@@ 2058
ılarıyla 2058
die 2057
döndür@@ 2057
grub@@ 2057
oksijen 2057
vize 2057
Çukur@@ 2057
şehirleri 2057
Anthony 2056
Dergisi 2056
F. 2056
eserin 2056
idin 2056
içeriği 2055
ER@@ 2054
Karşıyaka 2054
Kulesi 2054
arından 2054
güreşçi 2054
heykel 2054
iktidar 2054
14@@ 2053
Chelsea 2053
Off 2053
kazanır 2053
rom 2053
set 2053
devam@@ 2052
grubunda 2052
lam 2052
lat 2052
uygulamaya 2052
âl 2052
amadığı 2051
cr@@ 2051
eliğine 2051
ikan@@ 2051
kimse 2051
sürdüren 2051
lia 2050
yaptıktan 2050
gitmek 2049
hedefi 2049
hayvanların 2048
taarruz 2048
yetişkin 2048
İletişim 2048
Futbolculuk 2047
Peru 2047
Politi@@ 2047
cek@@ 2047
hus@@ 2047
maçını 2047
ref 2047
sist@@ 2047
uzanır 2047
1897 2046
Ces@@ 2046
ayrım 2046
bahs@@ 2046
kemeri 2046
mutlu 2046
şirketinin 2046
13.@@ 2045
Albay 2045
Bos@@ 2045
Dükü 2045
mağı 2045
ümüz 2045
arca 2044
parmak 2044
raz@@ 2044
türev@@ 2044
Önemli 2044
öden@@ 2044
Nem@@ 2043
atar 2043
desteğiyle 2043
rar@@ 2043
topraklarının 2043
örgüt 2043
1500 2042
mark@@ 2042
skor@@ 2042
yüklü 2042
DE@@ 2041
görülebil@@ 2041
sunucu 2041
Farklı 2040
Meslek 2040
adlandırıldı 2040
gittiği 2040
ımcısı 2040
Jon 2039
enek@@ 2039
tron 2039
Ash@@ 2038
Ermenice 2038
P. 2038
PlayStation 2038
Yu@@ 2038
Sto@@ 2037
rekoru 2037
Abhaz@@ 2036
Yorkshire 2036
Yör@@ 2036
aset 2036
kullanmaktadır 2036
masa 2036
ME@@ 2035
kesiş@@ 2035
tre@@ 2035
zer@@ 2035
Çor@@ 2035
Senar@@ 2034
besin 2034
duruş@@ 2033
hiç@@ 2033
nir 2033
Dost@@ 2032
padişah@@ 2032
1899 2031
Uygur 2031
anlamıyla 2031
etlerin 2031
iminde 2031
sayılan 2031
çocuğun 2031
dat@@ 2030
mitolojisinde 2030
oyunudur 2030
türünde 2030
ımların 2030
Barajı 2029
Yemen 2029
ator@@ 2029
barındıran 2029
futbolu 2028
rahat@@ 2028
karşılığı 2027
oph@@ 2027
ue 2027
DJ 2026
Hac@@ 2026
Harvard 2026
Kadıköy 2026
biten 2026
esti@@ 2026
imzalan@@ 2026
şarkıyla 2026
IP 2025
amm@@ 2025
eliptik 2025
felsefi 2025
istey@@ 2025
ittif@@ 2025
uzman 2025
KP 2024
Panzer 2024
Romalı 2024
eki@@ 2024
etk@@ 2024
işletme 2024
ortam 2024
İnönü 2024
Eyalet 2023
düşmüştür 2023
gidip 2023
göstermek 2023
isminin 2023
personel 2023
Trans@@ 2022
zincir@@ 2022
benimse@@ 2021
kilisenin 2021
Çekoslovakya 2021
arında 2020
endiler 2020
menleri 2020
atmosfer@@ 2019
beklem@@ 2019
birbirleriyle 2019
sağlığı 2019
senaryo 2019
Hid@@ 2018
Kiş@@ 2018
Vez@@ 2018
lanmıştı 2018
mana 2018
izleyen 2017
dönmüştür 2016
go@@ 2016
gözden 2016
Kolombiya 2015
Milletvekili 2015
Portekiz@@ 2015
Tayland 2015
Türkmen@@ 2015
eserlerini 2015
hafif@@ 2015
lif@@ 2015
müte@@ 2015
tavsiye 2015
tekni@@ 2015
Kin@@ 2014
Tug@@ 2014
dolarlık 2014
AT 2013
Samsunspor 2013
mut 2013
çıl@@ 2013
Street 2012
ağırlığı 2012
bulunuyor 2012
elleri 2012
kası 2012
reti 2012
Giovanni 2011
AD@@ 2010
Afyonkarahisar 2010
Fey@@ 2010
Ren 2010
dersler 2010
hoş 2010
ölçül@@ 2010
II@@ 2009
belirtilen 2009
kahraman 2008
almıştı 2007
iliğini 2007
muhareb@@ 2007
NASA 2006
TE@@ 2006
abat 2006
durumun 2006
Manastırı 2005
anıt 2005
aşamasında 2005
riyle 2005
soyl@@ 2005
torunu 2005
Okul 2004
adanın 2004
kurulduğu 2004
Noel 2003
Siyah 2003
aralık@@ 2003
cinsi 2003
trav@@ 2003
apa 2002
bal 2002
düzeni 2002
günden 2002
lebilir 2002
Ortak@@ 2001
benze@@ 2001
Gürc@@ 2000
SA 2000
kân 2000
şirketleri 2000
Frankfurt 1999
Ky@@ 1999
edem@@ 1999
korunması 1999
sahibidir 1999
VII 1998
markası 1998
Adıyaman 1997
İT@@ 1997
000 1996
Azer@@ 1996
depres@@ 1996
siv@@ 1996
yayınlanmış 1996
Koç@@ 1995
Mekke 1995
komutan 1995
sabit@@ 1995
sunar 1995
Üsküdar 1995
andığını 1994
dörtgen 1994
ico 1994
çıkarılmıştır 1994
desteklemek 1993
kök 1993
meyvel@@ 1993
faaliyetlerini 1992
krip@@ 1992
cihaz 1991
iPhone 1991
gösteri 1990
üng@@ 1990
alığı 1989
ağından 1989
fan 1989
kuzeydoğusunda 1989
reaksiyon@@ 1989
teori 1989
tüsü 1989
Len@@ 1988
alıyordu 1988
görevli 1988
muhafazak@@ 1988
plerini 1988
sizliği 1988
Key@@ 1987
akl@@ 1987
etkileyen 1987
gili 1987
plerinin 1987
tahliye 1987
uyandır@@ 1987
İstih@@ 1987
acil 1986
hükümet 1986
politi@@ 1986
çevresi 1986
ø@@ 1986
şarkısının 1986
Go 1985
eter@@ 1985
iğini 1985
iştir@@ 1985
olayın 1985
ticareti 1985
yönlü 1985
Is 1984
gev@@ 1984
ney@@ 1984
tüken@@ 1984
1864 1983
I.@@ 1983
avant@@ 1983
saray@@ 1983
ting 1983
verici 1983
yonlar 1983
Fin 1982
ilgilidir 1982
di.@@ 1981
ikinc@@ 1981
sözleşmesi 1981
yönetimine 1981
zz@@ 1981
moleküler 1980
yüzünde 1980
California 1979
Rick 1979
Teh@@ 1979
Çalışmaları 1979
defnedildi 1978
ess 1978
yangın 1978
hiye 1977
kesinti@@ 1977
Akç@@ 1976
Ca@@ 1976
Kariyer 1976
arttı 1976
bildirildi 1976
değişti@@ 1976
kömür 1976
söyley@@ 1976
yağmur 1976
alis 1975
gerçekleşir 1975
sadık 1975
yazıldı 1975
zarf@@ 1975
Miy@@ 1974
ayeti 1974
deş 1974
gerektirir 1974
okim@@ 1974
sonucuna 1974
anıdır 1973
nehri 1973
Arslan 1972
SY@@ 1972
Yardımcılığı 1972
flor@@ 1972
matr@@ 1972
sürük@@ 1972
taleb@@ 1972
Ün@@ 1972
şef@@ 1972
büyüklük@@ 1971
opo@@ 1971
İly@@ 1971
öng@@ 1970
belirten 1969
isler 1969
Tas@@ 1968
Universe 1968
Dah@@ 1967
Hikmet 1967
alandı 1967
başa 1967
pratik 1967
sokak 1967
Nişanı 1966
ayıp 1966
talim@@ 1966
bileşen@@ 1965
bomb@@ 1965
girişi 1965
Sarı@@ 1964
ack 1964
bası 1964
öre 1964
Pek 1963
bilir 1963
vilayet@@ 1963
ülerin 1963
Gazetec@@ 1962
Hap@@ 1962
Hic@@ 1962
Pek@@ 1962
bölümünden 1962
görevlerini 1962
sine 1962
söyleyerek 1962
uyd@@ 1962
Hayat 1961
Kons@@ 1961
evlilik@@ 1961
futbolcul@@ 1961
kast@@ 1961
lini 1961
Devrim 1960
Muş 1960
Villa 1960
Yaşar 1960
anca 1960
dy 1960
suikast 1960
yapıları 1960
Uygul@@ 1959
atmos@@ 1959
bitiren 1959
boyn@@ 1959
kurdular 1959
zorla 1959
Üniversitesinde 1959
Bavyera 1958
Gaga 1958
Kaç@@ 1958
Milan 1958
fikrini 1958
kariyer 1958
nadiren 1958
çalışmalarında 1958
ölçekli 1958
Mimarlık 1957
patlak 1957
yüzölçümü 1957
Akadem@@ 1956
DS@@ 1956
Japonca 1956
çay@@ 1956
Arjantinli 1955
kün@@ 1955
ligin 1955
seslendirme 1955
yardımı 1955
şefi 1955
1895 1954
Arg@@ 1954
Atlantik 1954
Ziya 1954
ahat@@ 1954
dizisidir 1954
Samuel 1953
üçte 1953
Gümüşhane 1952
Kuz@@ 1952
anlaştı 1952
oluşturulmuş 1952
ödülüne 1952
ıklarının 1952
olik 1951
1885 1950
Nuri 1950
Serie 1950
batıya 1950
gitarist 1950
ifadesi 1950
kemik 1950
meclisi 1950
sessiz 1950
sıfır 1950
80@@ 1949
Lah@@ 1949
eşme 1949
gününde 1949
ine@@ 1949
örtüsü 1949
Saat 1948
elektrikli 1948
merdi@@ 1948
yazarın 1948
û 1948
İnşaat 1948
Lam@@ 1947
ikincil 1947
rekt@@ 1947
uzaklığı 1947
çekmiştir 1947
í 1947
Küt@@ 1946
kayıtları 1946
salar 1946
söyle@@ 1946
takiben 1946
tamamladıktan 1946
tili@@ 1946
otuz 1945
Kant@@ 1944
Radi@@ 1944
Sami 1944
binin 1944
okula 1944
sonsuz 1944
usta 1944
ışla 1944
1,2 1943
Game 1943
She@@ 1943
ikal@@ 1943
tati@@ 1943
Kenan 1942
amber 1942
sayılar 1942
í@@ 1942
akşam 1941
anlaşılmaktadır 1941
değişken 1941
Tasarım 1940
farklılıklar 1940
konferans@@ 1940
testi 1940
Hizmet@@ 1939
Vilayeti 1939
edildiğini 1939
gus@@ 1939
imal@@ 1939
prömi@@ 1939
sentez@@ 1939
tap@@ 1939
uzay@@ 1939
varlık 1939
ayrınt@@ 1938
berabere 1938
destekledi 1938
muhalef@@ 1938
ödüller 1938
Gençler 1937
Luc@@ 1937
altfamilyasına 1937
röportajda 1937
Aleksandr 1936
Boğaziçi 1936
Cre@@ 1936
Kimya 1936
cuya 1936
dinî 1936
tersine 1936
yargı 1936
üel 1936
€ 1936
900 1935
Asteraceae 1935
South 1935
Ted@@ 1935
mıştır.@@ 1935
yaralandı 1935
Teb@@ 1934
alacak 1934
felsefes@@ 1934
gayr@@ 1934
lüğüne 1934
zev@@ 1934
ışlı 1934
Ceb@@ 1933
chi@@ 1933
kümesi 1933
orkestra 1933
park@@ 1933
avar 1932
edr@@ 1932
misyon@@ 1932
muharebe@@ 1932
temelini 1932
Ci@@ 1931
him 1931
tarzında 1931
AM@@ 1930
Hamburg 1930
Karaman 1930
Türkçede 1930
ff 1930
luydu 1930
tıkları 1930
Arsenal 1929
ebilirler 1929
yayılan 1929
örnekler 1929
Bö@@ 1928
Kaş@@ 1928
L. 1928
ous 1928
parçacık 1928
yör@@ 1928
üstr@@ 1928
Kuv@@ 1927
anak 1927
kriz@@ 1927
takdirde 1927
tuk@@ 1927
Odası 1926
klav@@ 1926
lez@@ 1926
turunda 1926
binanın 1925
geçmesi 1925
prefektör@@ 1925
yüzyıllarda 1925
Ray 1924
miştir.@@ 1924
şekil 1924
6,@@ 1923
avv@@ 1923
sar 1923
sinir@@ 1923
uyarınca 1923
03 1922
Kaf@@ 1922
edilmişti 1922
gündeme 1922
halif@@ 1922
kırı 1922
Hugo 1921
olgun@@ 1921
Film@@ 1920
Win@@ 1920
bisiklet 1920
evrensel 1920
km@@ 1920
çoğunun 1920
açıklanmıştır 1919
kurma 1919
şekildedir 1919
Kos@@ 1918
hazırladı 1918
sanatç@@ 1918
telif 1918
veriler 1918
Sen 1917
frekans@@ 1917
katılır 1917
klor@@ 1917
vizyona 1917
Ajansı 1916
Kolordu 1916
Liv@@ 1916
ekledi 1916
Doctor 1915
varsa 1915
G. 1914
birleşik 1914
çor@@ 1914
eceklerini 1913
kariyer@@ 1913
risk 1913
Amsterdam 1912
Bad 1912
Model 1912
kuşatma 1912
lamayı 1912
ves@@ 1912
1898 1911
Lak@@ 1911
listesidir 1911
30@@ 1910
Büyükelçisi 1910
genel@@ 1910
hop 1910
programlama 1910
yaptılar 1909
ıfl@@ 1909
teles@@ 1908
ızca 1908
His@@ 1907
vet@@ 1907
1889 1906
freguesia 1906
reg@@ 1906
dondur@@ 1905
üni@@ 1905
khan 1904
topçu 1904
önemini 1904
Kaptan 1903
Mobile 1903
elektroman@@ 1903
içerisindeki 1903
lav 1903
oluşumu 1903
anlama 1902
başlaması 1902
güneye 1902
işin 1902
Kov@@ 1901
Radio 1901
Yön@@ 1901
anta 1901
atılmıştır 1901
aşaması 1901
sahil 1901
Bisiklet 1900
fiyat@@ 1900
günlerde 1900
ilginç 1900
sön@@ 1900
yeş@@ 1900
önderliğinde 1900
ıklığı 1900
ılmaya 1900
Slo@@ 1899
kağ@@ 1899
Hacı@@ 1898
Yum@@ 1898
doç@@ 1898
iklim@@ 1898
imkânı 1898
istlerin 1898
kinin 1898
sunmaktadır 1898
formu 1897
mat 1897
okulun 1897
terör 1897
öncülük 1897
All@@ 1896
Rönesans 1896
fuz 1896
geçmişte 1896
iklimi 1896
rekorunu 1896
sch@@ 1896
uli 1896
yaptığını 1896
çıkard@@ 1896
aradan 1895
yayına 1895
Milliyet@@ 1894
ana@@ 1894
hol@@ 1894
olmaktan 1894
oyuncuların 1894
uzu 1894
yıldızlar 1894
kanser 1893
sert@@ 1893
tal 1893
canl@@ 1892
isa 1892
liberal 1892
umlu 1892
ichi 1891
uzmanı 1891
Baltık 1890
Evi 1890
başlangıcı 1890
bom@@ 1890
devamlı 1890
gerekse 1890
yye 1890
Öncel@@ 1890
Gençlerbirliği 1889
vo 1889
Jan 1888
belirlenir 1888
ë@@ 1888
Şöval@@ 1888
Lige 1887
Normal 1887
Türkmenistan 1887
slogan@@ 1887
tekniği 1887
yun@@ 1887
Ast@@ 1886
Budapeşte 1886
Sinc@@ 1886
Soğ@@ 1886
eh 1886
işlemleri 1886
konular 1886
çın 1886
Işık 1885
Turnuv@@ 1885
ollü 1885
sens@@ 1885
Çeç@@ 1885
şeb@@ 1885
güzellik 1884
inceleme 1884
ografisi 1884
vurg@@ 1884
post@@ 1883
ref@@ 1883
sürece 1883
Lad@@ 1882
Mos@@ 1882
Zor@@ 1882
ihrac@@ 1882
sın 1882
yaşama 1882
Afrik@@ 1881
Nag@@ 1881
muz@@ 1881
Kadın@@ 1880
Kent@@ 1880
Sun 1880
kuv@@ 1880
nük@@ 1880
verilebilir 1880
ğr@@ 1880
adası 1879
dosya 1879
girmesi 1879
maden 1879
kesinlikle 1878
omen 1878
orduları 1878
sızlık 1878
tanrısı 1878
uğun 1878
9,@@ 1877
Bell@@ 1877
bakıldığında 1877
referans 1877
Adı 1876
Fen 1876
Lady 1876
peygam@@ 1876
pomp@@ 1876
Dağ 1875
Georgia 1875
Sezonu 1875
Up 1875
kalb@@ 1875
bür@@ 1874
eksiyon@@ 1874
kaybetmiştir 1874
sembolü 1874
senin 1874
teli 1874
tram@@ 1874
lete 1873
24@@ 1872
ikos 1872
jen 1872
kullanıma 1872
otor@@ 1872
sayısız 1872
yuvarlak 1872
Tel 1871
geometr@@ 1871
İlişkiler 1871
danışmanı 1870
galibiyet@@ 1870
yalılar 1870
Balkanlar 1869
Mario 1869
Nat@@ 1869
çya 1869
ılmasından 1869
Hastal@@ 1868
hikâyesi 1868
lim 1868
Bursaspor 1867
Society 1867
Tanz@@ 1867
kanseri 1867
kapasitesi 1867
mayla 1867
vali 1867
çöm@@ 1867
çıkma 1867
Patrick 1866
Sap@@ 1866
baraj@@ 1866
lib@@ 1866
plerin 1866
yolunda 1866
kafa 1865
yenler 1865
Alanı 1864
Im@@ 1864
anlarının 1864
eter 1864
metre@@ 1864
türünün 1864
uli@@ 1864
Azeri 1863
Said 1863
entidir 1863
kitaplar 1863
sitesinde 1863
Edebiyatı 1862
davranış 1862
hin@@ 1862
rap 1862
ılıdır 1862
Henri 1861
ancılar 1861
ansız 1861
ikalı 1861
sırayı 1861
İkili 1861
Leon 1860
Maç 1860
akadem@@ 1860
aracın 1860
güncel 1860
merceksi 1860
teknolojisi 1860
Abbas 1859
Sekreteri 1859
mişlerdi 1859
öğrenir 1859
Köln 1858
dilde 1858
Mezopotamya 1857
benim 1857
durumunu 1857
tarihini 1857
Association 1856
Bingöl 1856
Metal 1856
Rab@@ 1856
off@@ 1856
olimpi@@ 1856
yıla 1856
şöyledir 1856
Arkad@@ 1855
Moldova 1855
düzel@@ 1855
görevlendirildi 1855
oyuncusudur 1855
Š@@ 1855
birlikler 1854
etim@@ 1854
unla 1854
buradaki 1853
ier 1853
kayde@@ 1853
sayılır 1853
Bilimsel 1852
Dep@@ 1852
Moğolistan 1852
dükleri 1852
engi 1852
onom@@ 1852
tanımı 1852
virüs@@ 1852
başlı 1851
kul 1851
merkezleri 1851
neye 1851
Luis 1850
iktidara 1850
sıralarda 1850
ğü 1850
Rose 1849
anlardan 1849
orant@@ 1849
Aleksand@@ 1848
Profesör 1848
anç 1848
erli 1848
hö@@ 1848
reddin 1848
süvari 1848
Çal@@ 1848
Franz 1847
doğrusal 1847
yapısal 1847
Çin@@ 1847
özelliğini 1847
landığında 1846
üslu@@ 1846
kullanma 1845
kuralları 1845
kurtarmak 1845
− 1845
Hati@@ 1844
con@@ 1844
yoksa 1844
Tekirdağ 1843
baskıs@@ 1843
gelir@@ 1843
hareketinin 1843
kırmız@@ 1843
temeli 1843
ımcılığı 1843
Avustralyalı 1842
Bakanlar 1842
amaçlayan 1842
bölümüne 1842
lilerin 1842
taşları 1842
zamanki 1842
çevresel 1842
çıkışı 1842
ödeme 1842
IS@@ 1841
Inter@@ 1841
Programı 1841
Toprak@@ 1841
gizlice 1841
çıkarmıştır 1841
Din 1840
Gazetesi 1840
yönetimindeki 1840
³ 1840
Zeki 1839
usun 1839
Asker@@ 1838
Karşıl@@ 1838
değişimi 1838
görevler 1838
hassas 1838
ihtiyac@@ 1838
ışığın 1838
Bilgisayar 1837
elerdeki 1837
form 1837
inşası 1837
mamaktadır 1837
terci@@ 1837
Victor 1836
kili@@ 1836
yağı 1836
acaklarını 1835
artesi 1835
family@@ 1835
görüldüğü 1835
çıkışlı 1835
16.@@ 1834
Nur 1834
Patr@@ 1834
bulunmakta 1834
fizi@@ 1834
İstikl@@ 1834
Allen 1833
Die 1833
alc@@ 1833
askerlik 1833
direniş 1833
ekar@@ 1833
manları 1833
sul 1833
şirketidir 1833
Bis@@ 1832
Filipinler 1832
Horasan 1832
bununla 1832
yatay 1832
Anderson 1831
Fabrik@@ 1831
agr@@ 1831
asti@@ 1831
obi 1831
Olu@@ 1830
Twitter 1830
geliştirilmesi 1830
kimliği 1830
kütl@@ 1830
vatandaşları 1830
viz 1830
7,@@ 1829
bayrağ@@ 1829
osunun 1829
süresince 1829
şek 1829
Jr 1828
fret 1828
kumand@@ 1828
vücud@@ 1828
Çağdaş 1828
100.000 1827
ayrılmaktadır 1827
deneme 1827
dikey 1827
gir 1827
oğlunun 1827
Ses 1826
bağı 1826
suçlu 1826
Miller 1825
entbol 1825
ikamet 1825
kül 1825
liber@@ 1825
sürdürmüştür 1825
ömür@@ 1825
Düzen@@ 1824
kitles@@ 1824
opter@@ 1824
birçoğu 1823
16@@ 1822
Media 1822
azarı 1822
dâhil 1822
kadro 1822
Beni 1821
Yeniden 1821
usuna 1821
yasası 1821
Budi@@ 1820
Lincoln 1820
boyun 1820
duran 1820
nesne 1820
tesp@@ 1820
turnuvada 1820
yolunun 1820
öğrendi 1820
Laborat@@ 1819
Senato 1819
kileri 1819
olacaktı 1819
artması 1818
sesli 1818
ulaşır 1818
uzant@@ 1818
yükseltil@@ 1818
dez@@ 1817
deş@@ 1817
kurarak 1817
lip 1817
Önceki 1817
düşmesi 1816
ebeveyn@@ 1816
işç@@ 1816
karşısına 1816
ölümünün 1816
ıklara 1816
Cab@@ 1815
Del 1815
Roger 1815
araştırmaları 1815
ınız 1815
denin 1814
geçirmiştir 1814
pay 1814
plerine 1814
Jim 1813
Kartal 1813
Studios 1813
Town 1813
güvenilir 1813
Göster@@ 1812
Tatar@@ 1812
Teşkilatı 1812
milliyetçi 1812
Çiz@@ 1812
paylaştığı 1811
teknik@@ 1811
turnuvaya 1811
Avusturyalı 1810
azar@@ 1810
com@@ 1810
Diego 1809
geçirildi 1808
mercekli 1808
sanatsal 1808
söylediği 1808
üreme 1808
02 1807
Bayezid 1807
finali 1807
iniz 1807
kalması 1807
DT@@ 1806
Venezuela 1806
eşliğinde 1806
fat 1806
leh@@ 1806
serinin 1806
suçlam@@ 1806
Üy@@ 1806
ó@@ 1806
Medya 1805
Olimpiyat@@ 1805
Tayvan 1805
çeker 1805
Sw@@ 1804
Yönetmen 1804
avcı 1804
geome@@ 1804
yamaç@@ 1804
ansal 1803
ayakkab@@ 1803
yede 1803
1860 1802
Ertuğrul 1802
düzeyi 1802
güvenliği 1802
termin@@ 1802
Adams 1801
Ulaş@@ 1801
desteklenen 1801
disk 1801
isimdir 1801
lerek 1801
rin 1801
verdikleri 1801
önerdi 1801
Jane 1800
ire@@ 1800
lüğünde 1800
strat@@ 1800
üvey 1800
Kurt@@ 1799
Marcus 1799
Stockholm 1799
duyul@@ 1799
miz@@ 1799
oti@@ 1799
Slovakya 1798
Tir@@ 1798
Vik@@ 1798
ajlı 1798
düzeyinde 1798
inal 1798
yanlış@@ 1798
yapılabilir 1798
çıkmaktadır 1798
başarısını 1797
buğday 1797
jo 1797
tuş@@ 1797
türk@@ 1797
öd@@ 1797
İrlandalı 1797
Yo@@ 1796
alandır@@ 1796
kaş@@ 1796
oa 1796
vin 1796
yaygınlaş@@ 1796
15.@@ 1795
Müslümanlar 1795
duyduğu 1795
eledi 1795
güne 1795
hücreleri 1795
key@@ 1795
yüzüne 1795
Benjamin 1794
ater@@ 1794
mimarlık 1794
ılmıştı 1794
Kurucu 1793
Kılıç 1793
Mim@@ 1793
işlevi 1793
lus 1793
satılan 1793
spek@@ 1793
ömr@@ 1793
3000 1792
işine 1792
pten 1792
yeden 1792
Uyg@@ 1791
baraj 1791
dede 1791
günleri 1791
lâ@@ 1791
mas 1791
modül@@ 1791
tarif 1791
vo@@ 1791
yüksektir 1791
izmi 1790
nova 1790
Koç 1789
dinsel 1789
harekât@@ 1789
kıvr@@ 1789
tanınmıştır 1789
çıkarmak 1789
ailesiyle 1788
grupların 1788
hukuku 1788
memel@@ 1788
zamanların 1788
öğrencilerin 1788
Lüksemburg 1787
bury 1787
gitar@@ 1787
hara 1787
iat 1787
yaşıyordu 1787
Eleme 1786
cins 1786
dönerek 1786
finanse 1786
harcam@@ 1786
unut@@ 1786
CE@@ 1785
Cihaz@@ 1785
gücünün 1785
yarımad@@ 1784
1894 1783
Cenevre 1783
adadır 1783
aldıkları 1783
barış@@ 1783
başlatılan 1783
metal@@ 1783
metredir 1783
pazarı 1783
Mevcut 1782
karmaş@@ 1782
neg@@ 1782
üsünde 1782
ıkça 1782
Halen 1781
Paz@@ 1781
Xbox 1781
birleşerek 1781
dendir 1781
zihinsel 1781
Mot@@ 1780
hapse 1780
padi@@ 1780
ania 1779
fez 1779
keşfedildi 1779
lehine 1779
oshi 1779
parlak@@ 1779
takip@@ 1779
Girl 1778
Kaynak 1778
elini 1778
kokul 1778
yazarları 1778
Christopher 1777
Dan 1777
alçak 1777
doğuya 1777
21. 1776
Dead 1776
Dun@@ 1776
Uygulam@@ 1776
piyan@@ 1776
ödüllendir@@ 1776
ölümcül 1776
ışığı 1776
filoz@@ 1775
filozof 1775
iniş 1775
solunum 1775
ısın@@ 1775
enstit@@ 1774
göze@@ 1774
sakin@@ 1774
İzmit 1774
ock 1773
Çan@@ 1773
Demiryolu 1772
Deresi 1772
Günümüz@@ 1772
Norman 1772
arlık 1772
atus 1772
azesi 1772
enj@@ 1772
ill 1772
kur 1772
ment 1772
motorlu 1772
tezi 1772
uncusu 1772
İtti@@ 1772
Adri@@ 1771
bütç@@ 1771
nic@@ 1771
sahipleri 1771
türündeki 1771
tekerlek@@ 1770
telefon@@ 1770
İsra@@ 1770
Aksu 1769
Franklin 1769
Nus@@ 1769
beden 1769
hitap 1769
kabul@@ 1769
kule 1769
Nic@@ 1768
bulaş@@ 1768
sürüm 1768
A.Ş. 1767
Bağımsızlık 1767
Sahne 1767
gezegen 1767
titr@@ 1767
İdare 1767
Kulü@@ 1766
aver@@ 1766
Özgün 1766
İmam 1766
Douglas 1765
Pay@@ 1765
akter@@ 1765
benimsem@@ 1765
evleri 1765
gur@@ 1765
kelimesinden 1765
korudu 1765
manastır@@ 1765
trol@@ 1765
başkent@@ 1764
cep 1764
eyerek 1764
kop 1764
açıklar 1763
taarruz@@ 1763
çalışmış 1763
Güm@@ 1762
UN@@ 1762
eklenmiştir 1762
işlerdir 1762
satıldı 1762
yonal 1762
Mühendislik 1761
hacmi 1761
iste 1761
worth 1761
yetenekli 1761
şirketler 1761
Johann 1760
Nitekim 1760
Soğuk 1760
Your 1760
âz@@ 1760
Atab@@ 1759
Davis 1759
beklenen 1759
belge 1759
felsefesi 1759
kişilere 1759
obj@@ 1759
otel 1759
rağ@@ 1759
seks 1759
seslendirdiği 1759
açısı 1758
ettirdi 1758
oks 1758
ordus@@ 1758
sunulmuştur 1758
üyeliğine 1758
28@@ 1757
Gelec@@ 1757
Kulüpler 1757
Sivil 1757
abildiği 1757
Direkt@@ 1756
anki 1756
konak@@ 1756
kurumu 1756
sis@@ 1756
amaya 1755
başkanlığında 1755
görüşü 1755
Lov@@ 1754
Teor@@ 1754
Tunceli 1754
bırakır 1754
itik 1754
sayfa 1754
simgel@@ 1754
suda 1754
Bad@@ 1753
Hakkı 1753
Som@@ 1753
iliyor@@ 1753
ned@@ 1753
orik 1753
tartışmalı 1753
Organiz@@ 1752
SP@@ 1752
kali@@ 1752
sall@@ 1752
tığında 1752
Turgut 1751
eman 1751
hastanede 1751
oth@@ 1751
Wh@@ 1750
belirsiz 1750
futbola 1750
oluşturmuştur 1750
ıklarına 1750
Haber 1749
atlet 1749
deneti@@ 1749
etkilenen 1749
fen 1749
ider@@ 1749
sağladığı 1749
ty@@ 1749
vasıtasıyla 1749
19.@@ 1748
MP 1748
Nük@@ 1748
acakları 1748
amaktadır 1748
wa 1748
Üyesi 1748
ğmen 1748
Almanlar 1747
eto 1747
evr@@ 1747
koz 1747
polimer@@ 1747
Hürriyet 1746
kentsel 1746
oban 1746
Aster 1745
Toprak 1745
dağı 1745
veç@@ 1745
Isparta 1744
günün 1744
yaprak 1744
atf@@ 1743
devletler 1743
eba 1743
kararlı 1743
kültürünün 1743
pist@@ 1743
tus 1743
İşletme 1743
… 1743
20.@@ 1742
Connecticut 1741
Karag@@ 1741
bebek 1741
dikil@@ 1741
eç@@ 1741
Uruguay 1740
gereklidir 1740
ish 1740
kuyu 1740
köpe@@ 1740
ucunda 1740
180 1739
Mill@@ 1739
tanrıç@@ 1739
tutar 1739
SmackDown 1738
elver@@ 1738
olojinin 1738
tasvir@@ 1738
yayınlamıştır 1738
Turnuvası 1737
Tuz@@ 1737
alarca 1737
nel 1737
başlığı 1736
enk@@ 1736
miras 1736
yeğeni 1736
1893 1735
Network 1735
Pul@@ 1735
Star@@ 1735
Whit@@ 1735
ember@@ 1735
erif 1735
kılıç 1735
okras@@ 1735
Facebook 1734
kemerini 1734
miyor 1734
sözlü 1734
şar 1734
Cos@@ 1733
Fon@@ 1733
eylem 1733
sürgüne 1733
unlu 1733
Babasının 1732
burun 1732
talık 1732
ulaşmak 1732
gök 1731
özdeş@@ 1731
Ciz@@ 1730
ceza@@ 1730
dram 1730
havalim@@ 1730
mahallenin 1730
sayısal 1730
ülkelere 1730
arip 1729
kuşlar 1729
sevdiği 1729
yollar 1729
car 1728
tz 1728
vs 1728
İngilizler 1728
avc@@ 1727
müşlerdir 1727
plerinden 1727
radikal 1727
tari@@ 1727
yaratıcı 1727
şarap@@ 1727
Sho@@ 1726
bölges@@ 1726
gösteriyor 1726
ie@@ 1726
karakterdir 1726
karakterleri 1726
stadyum 1726
Slav 1725
böbre@@ 1725
kaynaklara 1725
koruyucu 1725
sekreteri 1725
Halife 1724
Lake 1724
akış 1724
arr@@ 1724
hil 1724
ilave 1724
zorun@@ 1724
Boy 1723
dünyayı 1723
iliğin 1723
lerindendir 1723
odası 1723
ülkesinin 1723
elemeleri 1722
kromoz@@ 1722
liderleri 1722
rastgele 1722
Çankırı 1722
Ryan 1721
als 1721
emis@@ 1721
kuy@@ 1721
çapr@@ 1721
üyelerinden 1721
Katli@@ 1720
Mahkeme 1720
ance 1720
eksikliği 1720
erdir@@ 1720
mız@@ 1720
sıfat@@ 1720
öyküsü 1720
Festival 1719
Katedr@@ 1719
emati@@ 1719
gökada 1719
kasabadır 1719
tarımsal 1719
yarışmanın 1719
US@@ 1718
bel 1718
olmadı 1718
tarihî 1718
Arif 1717
akımı 1717
alışveriş 1717
beyli 1717
bölgesini 1717
isimlerin 1717
iter 1717
pür@@ 1717
radyo@@ 1717
resept@@ 1717
40@@ 1716
fabr@@ 1716
göçmen 1716
hareketli 1716
tev@@ 1716
1800 1715
Beyaz@@ 1715
Kazak@@ 1715
Song 1715
kamp 1715
mekani@@ 1715
rak 1715
Nijerya 1714
bert 1714
bireylerin 1714
evin 1714
faaliye@@ 1714
tamamlayarak 1714
AP@@ 1713
Ağır 1713
Cannes 1713
Sofya 1713
Tarihsel 1713
lus@@ 1713
üyor@@ 1713
Genelde 1712
yayımladığı 1712
Dağlık 1711
Kazan 1711
TO@@ 1711
blok 1711
dad@@ 1711
geminin 1711
kullanıcıların 1711
rebilir 1711
yarıştı 1711
üretmek 1711
18.@@ 1710
Krist@@ 1710
menaj@@ 1710
yarışan 1710
ł@@ 1710
Gine 1709
basam@@ 1709
d.@@ 1709
ledil@@ 1709
terc@@ 1709
Bâ@@ 1708
başlanan 1708
tanımladı 1708
tavsiy@@ 1708
İsmet 1708
Prenses 1707
itab@@ 1707
katliam@@ 1707
madenc@@ 1707
ıklarından 1707
Lise 1706
MS@@ 1706
Temsilc@@ 1706
alırlar 1706
arına 1706
ath 1706
kararg@@ 1706
videosu 1706
CEO 1705
Lav@@ 1705
Zer@@ 1705
Ziraat 1705
gittikçe 1705
heykeltır@@ 1705
hiyer@@ 1705
inanç 1705
toprağa 1705
ölçek@@ 1705
emb@@ 1704
ıcal@@ 1704
Cro@@ 1703
Kuşatması 1703
askerlerin 1703
dükkâ@@ 1703
tesi 1703
1882 1702
Oyuncular 1702
kabiliy@@ 1702
linde 1702
sıralama 1702
Jar@@ 1701
Kartaca 1701
Pur@@ 1701
belirlendi 1701
pandem@@ 1701
porno@@ 1701
rahi 1701
ribaund 1701
Emmy 1700
Post@@ 1700
seçenek@@ 1700
çaba 1700
çekimleri 1700
Hitit 1699
etkileşim 1699
katılarak 1699
mücadelesi 1699
tahttan 1699
çür@@ 1699
ürettiği 1699
Lawrence 1698
Minnesota 1698
amer@@ 1698
bağıml@@ 1698
dekor@@ 1698
haberi 1698
politikac@@ 1698
Çelik 1698
27@@ 1697
Ateş@@ 1697
Devrimci 1697
imparatoru 1697
ste@@ 1697
Shin@@ 1696
ado 1696
ლ@@ 1696
1892 1695
atle@@ 1695
ometr@@ 1695
out 1695
sahiptirler 1695
sunan 1695
Özgür@@ 1695
Geri 1694
herkesin 1694
ilmez 1694
inf@@ 1694
soyu 1694
udi@@ 1694
yayınlanmaya 1694
İskend@@ 1694
İçin 1694
Michel 1693
Mücadele 1693
Sistem 1693
değil@@ 1693
eleştiri 1693
kapısı 1693
organizasyon 1693
restore 1693
semptom@@ 1693
Nintendo 1692
Stüd@@ 1692
Ziy@@ 1692
ebilmesi 1692
inşa@@ 1692
kanıtlar 1692
metro@@ 1692
popü@@ 1692
VIII 1691
durumdadır 1691
hikay@@ 1691
odaklan@@ 1691
otu 1691
tsal 1691
yapısını 1691
yöntemler 1691
çıplak 1691
ediğini 1690
from 1690
iten 1690
sayımı 1690
sertifik@@ 1690
yetkilileri 1690
ündedir 1690
1881 1689
26@@ 1689
Nil@@ 1689
ibi 1689
işkence 1689
sten 1689
ıyorum 1689
Endül@@ 1688
High 1688
Turan 1688
Ukraynalı 1688
batısındaki 1688
menz@@ 1688
menlerin 1687
Şar@@ 1687
God@@ 1686
Kürtçe 1686
adap@@ 1686
azz@@ 1686
dikt@@ 1686
mo 1686
Güven@@ 1685
Ovası 1685
We 1685
dök@@ 1685
etiket@@ 1685
kuvvetler 1685
uklu 1685
yığ@@ 1685
Şem@@ 1685
Erk@@ 1684
düzenlenmiş 1684
lamasına 1684
Pictures 1683
engellen@@ 1683
golü 1683
jener@@ 1683
mezheb@@ 1683
İla@@ 1683
Queen 1682
Yeh@@ 1682
sahada 1682
ıcının 1682
Hon@@ 1681
Temsilciler 1681
bulunduğunu 1681
faş@@ 1681
geliştirildi 1681
kalesi 1681
akışı 1680
ax 1680
dağılım 1680
dre@@ 1680
vahşi 1680
zat 1680
erke@@ 1679
şöval@@ 1679
Ateş 1678
daş@@ 1678
los 1678
yürütülmektedir 1678
Şü@@ 1678
agog@@ 1677
arz@@ 1677
eth 1677
tac@@ 1677
uzaktan 1677
Gazet@@ 1676
araştırmacı 1676
hediye 1676
inn@@ 1676
iyon@@ 1676
mag@@ 1676
mezun@@ 1676
sayısına 1676
sıcaklığı 1676
Best 1675
Uğur 1675
büyüktür 1675
koşullar 1675
soylu 1675
uyor@@ 1675
yapıp 1675
Tahran 1674
büyüklüğü 1674
kavram 1674
pozis@@ 1674
İdaresi 1674
Motor 1673
bire@@ 1673
oynamış 1673
pre@@ 1673
sergi 1673
Dec@@ 1672
doları 1672
kesin@@ 1672
meden@@ 1672
nihai 1672
sağlıklı 1672
ա@@ 1672
Beyoğ@@ 1671
uyarlanan 1671
yoloji 1671
Oğuz@@ 1670
çalışmalara 1670
ıoğlu 1670
Çerkes 1669
Bekir 1668
Bou@@ 1668
Metro 1668
albümünden 1668
emeye 1668
key 1668
uyarlaması 1668
ödüllendirildi 1668
üstfamilyasına 1668
Augustus 1667
Ze@@ 1667
adel@@ 1667
ck 1667
göstererek 1667
hükûmetinin 1667
iga 1667
Dönemin 1666
bolu 1666
like@@ 1666
Böylelikle 1665
akş@@ 1665
cilt@@ 1665
evlenmiştir 1665
AE@@ 1664
Ark@@ 1664
Tekn@@ 1664
Toronto 1664
alfabesi 1664
azan 1664
gelecekte 1664
oi 1664
soykır@@ 1664
ularını 1664
yenildi 1664
yürütülen 1664
Lefkoşa 1663
Müze 1663
Sarık@@ 1663
aa 1663
doktorasını 1663
ologlar 1663
sinyal 1663
İD 1663
İstatistikleri 1663
23@@ 1662
Mont@@ 1662
Singapur 1662
Zafer 1662
izde 1662
komutasında 1662
kuz 1662
leti 1662
öy@@ 1662
arif 1661
MA 1660
kaldılar 1660
topo@@ 1660
şiiri 1660
Ayşe 1659
Yurt@@ 1659
acık 1659
amda 1659
liter@@ 1659
masıydı 1659
ücret 1659
eğinde 1658
icus 1658
iliğine 1658
muhafaza 1658
oş@@ 1658
yaparlar 1658
yeler 1658
Kongo 1657
ace 1657
dit@@ 1657
şarkıdır 1657
Bölgede 1656
Ruh@@ 1656
Yunus 1656
tarafta 1656
Öy@@ 1656
şap@@ 1656
Buz 1655
Gül 1655
bo 1655
hareketin 1655
mimarisi 1655
yarı@@ 1655
çıları 1655
Bush 1654
Sum@@ 1654
cumhuriyet@@ 1654
kalarak 1654
otomob@@ 1654
Abdur@@ 1653
Cumhuriyetçi 1653
S.@@ 1653
bölgelere 1653
entelektü@@ 1653
liderlik 1653
madeni 1653
rih 1653
taarru@@ 1653
FI@@ 1652
Senatosu 1652
Taş 1652
ehrin 1652
fin 1652
geliyordu 1652
gözlem 1652
olaydan 1652
rüzgâr 1652
tarak 1652
Nav@@ 1651
Terak@@ 1651
noktasına 1651
oyununda 1651
sıç@@ 1651
turnuvanın 1651
vüc@@ 1651
Çerk@@ 1651
Dic@@ 1650
Gazze 1650
Zeus 1650
cel 1650
güm@@ 1650
sözcük 1650
Hep@@ 1649
Trabl@@ 1649
görme 1649
maktad@@ 1649
yeleri 1649
yollarını 1649
çağrıldı 1649
çlı 1649
ağız 1648
embe 1648
kilisesi 1648
kuzeyindeki 1648
tıpkı 1648
́ 1648
kompl@@ 1647
vokal@@ 1647
ülkelerden 1647
Adını 1646
Andr@@ 1646
Mektu@@ 1646
River 1646
kayıtlı 1646
volkanik 1646
bana 1645
geçmeden 1645
ladıkları 1645
nis@@ 1645
ülerek 1645
ımsı 1645
Osmanl@@ 1644
Yaylası 1644
arşiv@@ 1644
felsef@@ 1644
fet@@ 1644
kuvvetli 1644
kısımları 1644
öğrenme 1644
Games 1643
Sarah 1643
Vincent 1643
eno 1643
ikte 1643
Akademik 1642
Etiyopya 1642
kans 1642
otiv 1642
tanınmaktadır 1642
Fal@@ 1641
Britanyalı 1640
alif 1640
devre@@ 1640
etrafındaki 1640
sios 1640
1891 1639
Sz@@ 1639
abet 1638
adlandırılmıştır 1638
lant@@ 1638
İstatisti@@ 1638
Elek@@ 1637
Tibet 1637
ecik 1637
etek@@ 1637
riz 1637
33,@@ 1636
Futbola 1636
Warner 1636
gizem@@ 1636
pahalı 1636
tere 1636
AK@@ 1635
kadrosu 1635
nh@@ 1635
tor 1634
Krall@@ 1633
ett@@ 1633
üyü 1633
Antarktika 1632
CO@@ 1632
kapasiteli 1632
seçkin 1632
udan 1632
yerleşen 1632
zirveye 1632
Manast@@ 1631
Matt 1631
RAM 1631
alındığında 1631
klinik 1631
kurşun 1631
ors 1631
M.@@ 1630
yayını 1629
Mun@@ 1628
Rec@@ 1628
Schleswig 1628
anlığın 1628
atını 1628
dalı 1628
ortalaması 1628
Ga@@ 1627
basılan 1627
lusu 1627
ıyken 1627
Herak@@ 1626
Mahkem@@ 1626
ebr@@ 1626
gözaltına 1626
kadını 1626
tutum@@ 1626
UCI 1625
yürütül@@ 1625
öğüt@@ 1625
Resmî 1624
indiği 1624
sek 1624
özgürlük 1624
29@@ 1623
nez@@ 1623
türel 1623
ılımı 1623
1835 1621
kır 1621
mülk@@ 1620
Niş@@ 1619
akıl@@ 1619
aur@@ 1619
metro 1619
programını 1619
Özellik@@ 1619
Eser 1618
Liber@@ 1618
bebek@@ 1618
London 1617
ansiy@@ 1617
arete 1617
yönü 1617
Efes 1616
Slav@@ 1616
adaya 1616
izole 1616
seviyede 1616
tarafına 1616
2.000 1615
K. 1615
Sabah 1615
tion 1615
Brüksel 1614
ife 1614
zar 1614
Kağan 1613
bölge@@ 1613
itme 1613
tay 1613
Abdülhamid 1612
oksi@@ 1612
sson 1612
Kürdistan 1611
lum 1611
Sonuç@@ 1610
mon 1610
Be 1609
akç@@ 1609
tizm 1609
Boğaz@@ 1608
Bölges@@ 1608
Ferdinand 1608
maye 1608
filtr@@ 1607
ibe 1607
ilmesine 1607
kayıtlarda 1607
Emek@@ 1606
agon@@ 1606
Alg@@ 1605
SO@@ 1605
ick@@ 1605
piş@@ 1605
West@@ 1604
old 1604
Elektronik 1603
Vikipedi 1603
án 1603
8,@@ 1602
iret@@ 1602
onia 1602
yaşadıkları 1601
Eg@@ 1600
rut 1600
Karah@@ 1599
Minas 1599
ök@@ 1599
Jay 1598
aten 1598
ayrıldıktan 1598
azar 1598
Siirt 1597
ax@@ 1597
British 1596
Filist@@ 1596
Enver 1595
aria 1595
pam@@ 1595
FM 1594
Leo 1594
yp@@ 1594
ca@@ 1593
leer 1593
Ona 1591
oe 1591
Belç@@ 1590
Mul@@ 1590
dövüş 1589
karma 1589
ment@@ 1589
Charlotte 1588
FF 1587
Ferrari 1586
akademis@@ 1586
bad@@ 1586
Asıl 1585
Jason 1585
parlam@@ 1585
teri@@ 1585
enter 1583
Marx 1582
Silah@@ 1582
insel 1582
reng@@ 1582
Bernard 1581
Black@@ 1581
çin@@ 1581
0,6 1580
anime 1580
doğru@@ 1580
ein 1580
onlyinclude 1580
Hacettepe 1579
Selçuk@@ 1579
Spar@@ 1577
kun 1577
stad@@ 1577
Wrestling 1575
doğr@@ 1575
irin 1575
kabin@@ 1575
1.000 1574
Bruce 1574
Miami 1574
Padi@@ 1574
Zeynep 1574
bağlar 1574
Kılıç@@ 1573
arik 1572
azam@@ 1572
esin 1572
may 1572
Jand@@ 1571
Tw@@ 1571
bant 1571
esir@@ 1571
SSC 1570
addin 1570
oli 1570
Andrea 1569
Howard 1569
Karat@@ 1569
fah 1569
fes 1569
tesis 1569
1848 1568
Standart 1568
mî 1568
ırmak 1568
Holstein 1567
Kelly 1567
Pers@@ 1567
Philip 1567
cinsi@@ 1567
eria 1567
oku 1567
patr@@ 1567
2,5 1566
Bell 1566
esif@@ 1566
vamp@@ 1566
İskender@@ 1566
Jür@@ 1565
ayn 1565
müc@@ 1565
Lind@@ 1564
Tarsus 1564
iliz@@ 1564
Cop@@ 1563
America 1562
Batt@@ 1562
Strat@@ 1562
ait@@ 1561
tica 1561
Bus@@ 1560
Paş@@ 1560
Petersburg 1560
Til@@ 1560
tadır 1560
Bük@@ 1559
Long 1559
Maj@@ 1559
Zir@@ 1559
fonksiyon 1559
iletiş@@ 1559
Dance 1558
Göztepe 1558
Kle@@ 1558
Mali 1558
Part@@ 1558
Post 1558
Sadr@@ 1558
asu 1558
Gordon 1557
Performan@@ 1557
kana 1557
oldu@@ 1557
lav@@ 1556
ei@@ 1555
tuk 1555
nak 1554
Muz@@ 1553
olata 1553
1867 1552
1888 1552
Akş@@ 1552
Alp 1551
Janeiro 1551
hipo@@ 1550
mevcut@@ 1550
our 1550
pa@@ 1550
1884 1549
23.@@ 1549
Lang@@ 1549
banka 1549
filos@@ 1549
mar 1549
Helsinki 1548
day 1548
efi 1548
Nil 1547
Lap@@ 1546
Manuel 1546
Nikolay 1546
gönül@@ 1546
mitoloj@@ 1546
mâ@@ 1546
Indiana 1545
Marvel 1545
eğl@@ 1545
Jü@@ 1544
List@@ 1544
Menderes 1544
Mr 1544
Pic@@ 1544
begin 1544
güzel@@ 1544
hit@@ 1544
işletil@@ 1544
önü 1544
Lid@@ 1543
Nez@@ 1543
TP 1543
This 1543
alay 1543
Bryan 1542
ebe@@ 1542
ender 1542
Öd@@ 1542
aja 1541
eda 1541
köğ@@ 1541
oride 1541
rah 1541
Lombar@@ 1540
Las 1538
ate@@ 1538
bini 1538
bebe@@ 1537
Bran@@ 1536
Russell 1536
filmi@@ 1536
20.000 1535
Pın@@ 1535
Dek@@ 1534
Marks@@ 1534
ingen 1534
neh@@ 1534
AM 1533
Net@@ 1533
Phone 1533
RT@@ 1533
iner@@ 1533
res 1533
{ 1533
Mich@@ 1532
eck 1532
sez@@ 1532
Deb@@ 1531
İsviç@@ 1531
ınık 1531
Organ@@ 1530
âm 1530
api 1529
olduk@@ 1529
traj@@ 1529
Abdul@@ 1528
Sankt 1528
asen 1527
lâm 1527
Aks@@ 1526
Hus@@ 1526
kru@@ 1526
onim 1526
ars 1525
Steven 1524
adiye 1524
int 1524
ât@@ 1524
mav@@ 1523
ნ@@ 1522
Flor@@ 1521
rün@@ 1520
tenis 1520
tras@@ 1520
uspor 1520
Meh@@ 1519
aton 1519
eff@@ 1519
1865 1518
Konfer@@ 1518
Rihanna 1518
more 1518
türe 1518
Out 1517
deleg@@ 1517
Houston 1516
But@@ 1515
Doktor@@ 1515
ow 1515
´ 1515
Ej@@ 1514
bilgis@@ 1514
Bog@@ 1513
Burak 1513
tekin 1513
ont@@ 1512
uzaklık@@ 1512
dale 1511
desteğ@@ 1511
niz@@ 1511
Fernando 1510
KK@@ 1510
lon 1510
Ludwig 1509
Tayyip 1509
Tim 1509
obil@@ 1509
140 1508
Mercedes 1508
mete 1508
zun@@ 1508
Bilecik 1507
Margaret 1507
jan 1507
Marshall 1506
Shi@@ 1506
cher 1506
Erci@@ 1505
ander 1505
doku 1505
ivi 1505
lie 1505
Ür@@ 1505
Guy 1504
Les@@ 1504
Pedro 1504
house 1504
zon 1504
Danim@@ 1502
Hidro@@ 1502
ium 1502
sus 1502
Bayan 1501
Elem@@ 1501
Hik@@ 1501
diplomat 1501
ju 1500
Duy@@ 1499
Kennedy 1499
News 1499
mün@@ 1499
yoğ@@ 1499
125 1498
Reis 1498
tr 1498
Boliv@@ 1497
LE@@ 1497
Potter 1497
Antalyaspor 1496
Kurum@@ 1496
Pres@@ 1496
ahş@@ 1496
1887 1495
1871 1494
Drama 1494
NO@@ 1494
fak 1494
haft@@ 1494
Dönem@@ 1493
Theod@@ 1493
alle@@ 1493
iade 1493
Tren 1492
indendir 1492
ros 1492
www.@@ 1492
kil 1491
rese 1491
Basil@@ 1490
barat 1490
gag@@ 1490
Boeing 1489
ahan 1489
ako 1489
antropo@@ 1489
istil@@ 1489
17@@ 1488
zad@@ 1488
skaya 1486
Dij@@ 1485
Senf@@ 1485
Van@@ 1485
bre@@ 1485
yy 1485
160 1484
Hop@@ 1484
edan 1484
kilit@@ 1484
plant@@ 1484
anay@@ 1483
dig@@ 1483
sn@@ 1483
uman 1483
ă@@ 1483
aks 1482
belle@@ 1482
.000 1481
15@@ 1481
zan@@ 1481
arru@@ 1480
komp@@ 1480
105 1479
First 1479
Kus@@ 1479
Roman@@ 1479
işk@@ 1479
ú@@ 1479
ülebil@@ 1479
Dro@@ 1478
Düzce 1478
Harris 1478
Hatun 1478
nar 1478
zır@@ 1478
Tun@@ 1477
yur@@ 1477
Gabriel 1476
101 1475
Gümüş@@ 1475
Hampshire 1475
Ernst 1474
Les 1474
Lisa 1474
Turn@@ 1474
Yang@@ 1474
ics 1474
ideal 1474
nada 1474
oria 1474
Ak 1473
Sky@@ 1473
pembe 1473
Sidney 1472
T. 1472
Will 1472
bro@@ 1472
IN@@ 1471
Rez@@ 1471
ceb@@ 1471
ush@@ 1471
Yahya 1470
ag 1470
Aviv 1469
LGBT 1469
site 1469
1850 1468
64,@@ 1468
AC@@ 1468
Balık@@ 1468
letin 1468
neyi 1468
ovo 1468
tes 1468
plas@@ 1467
stati@@ 1467
katli@@ 1466
Dür@@ 1465
Rag@@ 1465
arki 1465
cir@@ 1465
ikat 1465
monte 1464
Akh@@ 1463
tra@@ 1463
Şehzade 1463
gul 1462
iköy 1462
stik 1462
BB 1461
Pon@@ 1461
IX 1460
Kru@@ 1460
Kun@@ 1460
Moore 1460
Niğde 1460
MI@@ 1458
Intel 1457
00@@ 1456
yu@@ 1456
ador 1455
jin 1455
lej@@ 1455
metabol@@ 1455
Flam@@ 1454
keli 1454
Dark 1453
Prim@@ 1453
To 1453
MC 1452
Nick 1452
ahi@@ 1452
polar@@ 1452
pte 1452
reden 1452
cor@@ 1451
Fur@@ 1450
arom@@ 1450
hâl@@ 1450
3D 1449
eng 1449
esk@@ 1448
que 1448
1.5 1446
Bag@@ 1446
Program 1446
Shakespeare 1446
Tasar@@ 1446
ail 1446
enberg 1446
endem@@ 1446
Kral@@ 1445
Ya@@ 1445
Claude 1444
aster@@ 1444
row 1444
vay 1444
Ball@@ 1443
Reh@@ 1443
Jimmy 1442
Morgan 1442
disk@@ 1442
1883 1441
50@@ 1441
Kayser@@ 1441
isse 1441
Vo@@ 1440
kurgu 1440
Büro@@ 1439
Death 1439
dua 1439
İspanyol@@ 1439
elendir@@ 1438
ith 1438
60@@ 1437
Robin 1437
tâ@@ 1437
Aur@@ 1436
Lü@@ 1436
hükû@@ 1436
presti@@ 1435
tef@@ 1435
State 1434
TL 1434
etkisi@@ 1434
US 1433
AB@@ 1432
Donald 1432
firma 1432
versi@@ 1432
Wood@@ 1431
bomba 1431
yumuş@@ 1431
Eğiti@@ 1430
å@@ 1430
Girls 1429
ruk 1429
Broadway 1428
Jeff 1428
Kot@@ 1428
Nadir 1428
keti 1428
prati@@ 1428
rütbes@@ 1428
350 1427
Arts 1427
Do 1426
jür@@ 1426
tepe@@ 1426
2.0 1425
Edi@@ 1425
Kand@@ 1425
fon 1425
ios 1425
Great 1424
Netflix 1424
parametr@@ 1424
tia 1423
ashi 1422
vac@@ 1422
alini 1421
the@@ 1421
Serdar 1420
rum 1420
DA 1419
Pad@@ 1419
dos 1419
umb@@ 1419
vari 1419
Aşağı@@ 1418
IC@@ 1418
Konstantinos 1418
Universal 1418
ein@@ 1417
TA 1416
cik 1416
Nan@@ 1415
air@@ 1415
antal 1414
iTunes 1414
1863 1413
Manhattan 1413
adada 1413
ep 1413
Norman@@ 1412
este 1412
inos 1412
ო@@ 1412
Kont@@ 1411
depart@@ 1411
oidea 1411
oğu 1411
yir@@ 1411
pin@@ 1410
Wi@@ 1409
bos@@ 1409
gran@@ 1409
Oliver 1408
kala 1408
Boris 1407
Gam@@ 1407
oba 1407
tem 1406
şirke@@ 1406
35@@ 1405
Pod@@ 1405
ij@@ 1405
vir 1405
BA 1404
Moh@@ 1404
küre 1404
yes@@ 1404
Kırık@@ 1403
Rev@@ 1403
Way 1403
jet 1403
ray 1403
Good 1402
tidir 1402
Ross 1401
Venedi@@ 1401
rahman 1401
£ 1401
25@@ 1400
Gogh 1400
platform 1400
kuts@@ 1399
urs 1399
Banglad@@ 1398
aham@@ 1398
kost@@ 1398
0,3 1397
3.000 1397
Astr@@ 1397
Bayburt 1397
Lag@@ 1397
Sib@@ 1397
laf 1397
Gul@@ 1396
Riz@@ 1395
Wayne 1395
jan@@ 1395
semp@@ 1395
Çatal@@ 1395
Studio 1394
ote 1394
soh@@ 1394
Bölge@@ 1393
Lost 1393
vel 1393
Cena 1392
Hür@@ 1392
Shar@@ 1392
heter@@ 1392
imo 1392
İbran@@ 1392
Bet@@ 1391
Kok@@ 1391
Liberal 1391
Tul@@ 1391
Gökç@@ 1390
TV@@ 1390
ault 1390
yant@@ 1390
AG@@ 1389
Kate 1389
rine 1389
Bayern 1387
Mora 1387
1875 1386
ET@@ 1385
Ostr@@ 1385
ansa 1385
bahçe 1385
part@@ 1385
Ju@@ 1383
Fars 1382
Office 1382
SV 1382
Serv@@ 1382
amin 1382
pik@@ 1382
vim@@ 1382
Alem@@ 1381
An 1381
Dublin 1381
able 1381
back 1381
elden 1381
tiş@@ 1381
Johnny 1380
Poly@@ 1380
Thor@@ 1380
olo 1380
1873 1379
kadi@@ 1379
Haw@@ 1378
asim@@ 1377
eer 1377
Fah@@ 1376
Miguel 1376
dit 1376
manz@@ 1375
tum 1375
ûn 1375
Aer@@ 1374
Burdur 1374
caya 1374
1830 1373
Jordan 1373
Ligue 1373
Rot@@ 1373
SD@@ 1373
AD 1372
Division 1372
ä@@ 1372
ABC 1371
Kırşehir 1371
A2 1370
Vor@@ 1370
abak@@ 1370
aksi 1370
dec@@ 1370
tikçe 1370
Kırg@@ 1369
Tig@@ 1368
Profes@@ 1367
sigara 1367
Barbara 1366
Tüm@@ 1366
cin 1366
gön@@ 1366
maf@@ 1366
İliş@@ 1366
Sag@@ 1365
ais 1365
merc@@ 1365
pil 1365
yumur@@ 1365
Biz 1364
ë 1364
Amazon 1363
AG 1362
CIA 1362
Ing@@ 1362
Kan 1362
Last 1362
rü@@ 1362
ımsal 1362
CA@@ 1361
liv@@ 1361
veçli 1361
Missouri 1360
matemati@@ 1360
Store 1359
deb@@ 1359
luca 1359
oki 1359
à 1359
200@@ 1358
Ther@@ 1358
feti@@ 1358
hag 1358
128 1357
bül@@ 1357
yc@@ 1357
Kopen@@ 1356
krit@@ 1356
Şırnak 1356
aus@@ 1355
nor@@ 1355
Akhisar 1354
Helen 1354
Iğdır 1354
Lan@@ 1354
MP@@ 1354
trin@@ 1354
Channel 1353
Jerry 1353
Jonathan 1352
Yus@@ 1352
Hü@@ 1351
Kron@@ 1351
iki@@ 1351
oid@@ 1351
Zel@@ 1350
elia 1350
piter 1349
star 1349
22.@@ 1348
och@@ 1348
Üsk@@ 1348
Aksaray 1347
Carlo 1347
Tepe 1347
Ukr@@ 1347
ümer 1347
İsti@@ 1347
inay@@ 1346
Seattle 1345
Torino 1345
amin@@ 1345
mahkû@@ 1345
Julia 1344
Kart@@ 1344
1868 1343
kulu 1343
stone 1343
ısız 1343
Gag@@ 1342
Play@@ 1342
1834 1341
Karad@@ 1340
Para 1340
anatom@@ 1340
Lyon 1339
alimanı 1339
bira 1339
enza 1339
Frederick 1338
akat 1338
gru@@ 1338
Che@@ 1337
Kırklareli 1337
Riv@@ 1337
FIBA 1336
Slam 1336
eon 1336
seler 1336
alde 1335
oka 1335
oton@@ 1335
rey@@ 1335
mol@@ 1334
odo@@ 1334
Open@@ 1333
Bau@@ 1332
Hul@@ 1332
Leyla 1332
Süley@@ 1332
Yugoslav 1332
Demi@@ 1331
idea 1331
Olimpi@@ 1330
Tart@@ 1330
Junior 1329
Maur@@ 1329
Nüf@@ 1329
enburg 1329
hin 1329
itz@@ 1329
1861 1328
Lüt@@ 1328
S0 1328
engin 1328
esi@@ 1328
hen@@ 1328
meme 1328
Arti@@ 1327
Telef@@ 1327
Atlanta 1326
Hot@@ 1326
Santos 1326
1879 1325
hum@@ 1325
ps@@ 1325
way 1325
Cul@@ 1324
band@@ 1324
ric@@ 1324
18@@ 1323
Li 1323
amet@@ 1323
div@@ 1323
yid 1323
36@@ 1322
André 1322
duk 1322
Sparta 1320
Tennessee 1320
70@@ 1319
о@@ 1319
arp@@ 1318
vod@@ 1318
Ivan 1316
Raymond 1316
Sm@@ 1316
Ye@@ 1316
col@@ 1316
didae 1316
1872 1315
Anton@@ 1315
Bin 1315
Leningrad 1315
That 1315
meg@@ 1314
sir 1314
tral 1314
Out@@ 1313
Sali@@ 1313
Mant@@ 1312
Ya 1312
Kamb@@ 1311
Pom@@ 1311
ame@@ 1311
dokum@@ 1311
ole@@ 1311
omer@@ 1311
pin 1311
} 1311
Sv@@ 1310
adem@@ 1310
ison 1310
ex@@ 1309
hass@@ 1309
prom@@ 1309
das 1308
obil 1308
ose@@ 1308
ron@@ 1308
Enter@@ 1307
Heart 1307
Wright 1307
moderni@@ 1307
mutfa@@ 1307
TH@@ 1306
Hoc@@ 1305
iman 1305
000.000 1304
Giray 1304
ash 1304
keh@@ 1304
sc@@ 1304
Avrupal@@ 1303
E.@@ 1303
Motor@@ 1303
lebil@@ 1303
Geb@@ 1302
Müh@@ 1302
isten 1302
Helen@@ 1301
tol@@ 1301
http 1300
ikon 1300
1.0@@ 1299
What 1299
metik 1299
Ori@@ 1298
21.@@ 1297
AR 1297
tok@@ 1297
Ober@@ 1296
probl@@ 1296
Maya 1295
1874 1294
Kıbr@@ 1294
Marino 1294
Osmaniye 1294
hir@@ 1294
sözc@@ 1294
Home 1293
Kadi@@ 1293
ack@@ 1293
assa 1292
platin 1292
tron@@ 1292
1840 1291
Krali@@ 1291
nes 1291
zo@@ 1291
11@@ 1290
Santiago 1290
fantas@@ 1290
ome 1290
New@@ 1289
ayev 1289
für 1289
ska 1289
ambi@@ 1288
tali@@ 1288
ī@@ 1288
ango 1287
Boys 1286
Golden 1286
asy@@ 1286
graf 1286
Austin 1285
Dave 1285
Perry 1285
fres@@ 1285
alk@@ 1284
asıl@@ 1284
kini 1284
Caf@@ 1283
Justin 1283
Poe 1283
Rolling 1283
imb@@ 1283
mu 1283
problem 1283
ó 1283
DS 1282
Zo@@ 1282
pah@@ 1282
Viz@@ 1281
tw@@ 1281
zet 1281
BAL 1280
ón 1280
Family 1279
Josef 1279
had 1279
vence 1279
Katar 1277
Yos@@ 1277
owski 1277
33@@ 1276
IM@@ 1276
beta 1276
Justini@@ 1275
Land@@ 1275
UK 1275
ked@@ 1275
mir 1275
termo@@ 1275
Kimi 1274
ew@@ 1273
kont@@ 1273
obu 1273
Gran@@ 1272
akus@@ 1272
ings 1272
kurs@@ 1272
lov@@ 1272
Proj@@ 1271
Road 1271
Zen@@ 1271
eth@@ 1271
kulüb@@ 1271
Fair@@ 1270
Inc 1270
bec@@ 1270
pes 1270
ther@@ 1270
cid@@ 1269
elektro@@ 1269
pag@@ 1269
til 1269
yumu 1269
Billy 1268
Reich 1268
Stefan 1268
apr@@ 1268
ble 1268
MK@@ 1266
Sep@@ 1266
anik@@ 1266
fil 1266
Airlines 1265
Bartın 1265
Cola 1265
Amy 1263
aer@@ 1263
eji 1263
Cerr@@ 1262
Bec@@ 1261
undu 1261
Adap@@ 1260
Sl@@ 1260
Yok@@ 1260
imal 1260
molek@@ 1260
uh 1260
BC 1259
Old 1259
Single 1259
Julius 1258
ago@@ 1258
manga 1258
trat 1258
ary@@ 1257
Matthew 1256
stand@@ 1256
War 1255
ades 1254
affer 1254
fat@@ 1254
ory 1254
polis@@ 1254
yah@@ 1254
Giorgi 1253
Kang@@ 1253
Koy@@ 1253
bra 1253
elt 1253
ny 1253
1866 1252
And 1252
Eu@@ 1252
ester@@ 1252
hun 1252
Koca@@ 1251
Nö@@ 1251
Başlang@@ 1250
Brooklyn 1250
Kansas 1250
alik 1250
rod@@ 1250
Catherine 1249
Marc 1248
ecz@@ 1248
prim@@ 1248
Grig@@ 1247
Union 1247
Utah 1247
ui 1247
hay 1246
Azerbay@@ 1245
Copa 1245
Renault 1245
Sonic 1245
riter@@ 1245
usi 1245
Aliyev 1244
alla 1244
Clark 1243
Fort 1243
Wa@@ 1243
arz 1243
aus 1243
Dream 1242
Mimar@@ 1242
Port 1242
Vok@@ 1242
edon 1242
fu 1242
güt@@ 1242
ris 1242
that 1242
10,@@ 1241
Cruz 1241
Teş@@ 1241
ehr 1241
geni 1241
Hes@@ 1240
ibn 1240
ram 1240
ვ@@ 1240
Oklahoma 1239
apar@@ 1239
hibe 1239
propaganda 1239
prak@@ 1238
š 1238
Nis@@ 1237
ader 1237
esen 1237
lor@@ 1237
ex 1236
tema 1236
Kıl@@ 1235
Leg@@ 1235
stra 1235
İdar@@ 1235
M.S. 1234
alize 1234
aran@@ 1234
luy@@ 1234
Dallas 1233
MO@@ 1233
coğr@@ 1233
inda 1233
reform 1233
yuvar@@ 1233
Neb@@ 1232
Ork@@ 1232
450 1231
Cah@@ 1231
bach 1231
biz 1231
Ress@@ 1230
folkl@@ 1230
ust 1230
Fatma 1229
Power 1229
ikan 1229
mun 1229
non 1229
icum 1228
‭ 1228
Bron@@ 1226
Ian 1226
Phoenix 1226
Series 1226
hum 1226
Apollo 1225
Digital 1225
Fab@@ 1225
Git@@ 1225
Him@@ 1225
Must@@ 1225
arl@@ 1225
Eskiş@@ 1224
Kane 1224
NXT 1224
Salon 1224
etr@@ 1224
ubu@@ 1223
1869 1222
Big@@ 1222
Gary 1222
RE@@ 1222
Darwin 1221
Mirza 1221
defn@@ 1221
pes@@ 1221
yanl@@ 1221
Rap@@ 1220
ს@@ 1220
Andy 1219
Ed 1219
Nova 1219
RT 1219
Vest@@ 1219
pan 1219
ço 1219
Beach 1218
Co 1218
RC 1218
els 1218
ester 1218
hang@@ 1218
heim 1218
unt 1218
ē@@ 1218
Jap@@ 1217
Zar@@ 1217
prov@@ 1217
Kli@@ 1216
Sean 1216
kuk@@ 1216
Anim@@ 1215
Kati@@ 1215
lac@@ 1215
æ@@ 1215
Philippe 1214
Pont@@ 1214
Ric@@ 1214
pis@@ 1214
uf 1214
Č@@ 1214
1200 1213
AN 1213
Afr@@ 1213
Like 1213
Platon 1213
daima 1213
Luke 1212
anga 1212
cada 1212
git 1212
gram 1212
Alternati@@ 1211
Leon@@ 1211
organ 1211
otr@@ 1211
ISO 1210
Karam@@ 1210
Space 1210
ezya 1210
side 1210
tidae 1210
Bac@@ 1209
Dinamo 1209
Peterburg 1209
fün@@ 1209
tun@@ 1209
zin 1209
Astronom@@ 1208
Colorado 1207
gor@@ 1207
AV@@ 1206
Dul@@ 1206
Seul 1206
basi 1206
Air@@ 1205
Dean 1205
Mekte@@ 1205
Valley 1205
hidrol@@ 1205
lum@@ 1205
armon@@ 1204
simetr@@ 1204
Hind@@ 1203
erc@@ 1203
farkl@@ 1203
Journal 1202
Karabük 1202
Vis@@ 1202
Toyota 1201
ande 1201
tarif@@ 1201
ason 1200
gene 1200
Amiral 1199
Hag@@ 1199
Ran@@ 1199
Rid@@ 1199
escu 1199
ju@@ 1199
we@@ 1199
Toplul@@ 1198
esiydi 1198
B.@@ 1197
Madison 1197
Rol@@ 1197
modern@@ 1197
santi@@ 1197
Gri@@ 1196
ê@@ 1196
yl 1195
üre 1195
Mach@@ 1194
ager 1194
akr@@ 1194
amiral 1194
Homer 1193
pon 1193
ante 1192
feminist 1192
igo 1192
rop@@ 1192
Cleveland 1191
Jacob 1191
Kenya 1191
aide 1191
ech 1191
opl@@ 1191
sidir 1191
Dim@@ 1190
Tang 1190
ss@@ 1190
Internet 1189
PO@@ 1189
170 1188
Lem@@ 1188
agan 1188
puan@@ 1188
Gerais 1187
Leipzig 1187
Trump 1187
muz 1187
punk 1187
tiv@@ 1187
Tit@@ 1186
pasa@@ 1186
tüc@@ 1186
zil@@ 1186
eira 1185
Bri@@ 1184
Carter 1184
Detroit 1184
etab@@ 1184
gri@@ 1184
hid 1184
imm@@ 1184
modi@@ 1184
Ajax 1183
Esen@@ 1183
Hawaii 1183
Pan 1183
nar@@ 1183
Galer@@ 1182
Mi 1182
Seg@@ 1182
Story 1181
`@@ 1181
ogen@@ 1181
Gas@@ 1180
kit 1180
É@@ 1180
Erd@@ 1179
Sul 1179
Müc@@ 1178
harc@@ 1178
Akar@@ 1177
Roberto 1177
T.@@ 1177
Kost@@ 1176
Om@@ 1176
Zek@@ 1176
shire 1176
Rachel 1175
AF 1174
Burg@@ 1174
Rest@@ 1174
Styles 1174
aren@@ 1174
inist 1174
Sovyet@@ 1173
alp 1173
cay@@ 1173
hormon@@ 1173
Gan@@ 1172
Roc@@ 1172
alga 1172
azak@@ 1172
ysel 1172
piy@@ 1171
ylelikle 1171
At 1170
Barbar@@ 1170
shi 1170
ston 1170
Jac@@ 1169
Phil@@ 1168
Miz@@ 1167
Spe@@ 1167
17,@@ 1166
Festiv@@ 1166
IC 1166
Franco 1165
RI@@ 1165
Oslo 1164
oke 1164
Gab@@ 1163
5000 1162
Koh@@ 1162
Taliban 1162
nesi 1162
tiva 1162
Gey@@ 1161
Sis@@ 1161
onal 1161
Cooper 1160
Emma 1160
Light 1160
biyle 1160
ds 1160
eviz@@ 1160
ther 1160
‬ 1160
Ara 1159
Silva 1159
Spike 1159
fed@@ 1158
yeğ@@ 1158
ümüz@@ 1158
Gh@@ 1156
medir 1156
oko 1156
100@@ 1155
Down 1155
Georges 1155
Juventus 1155
direk@@ 1155
kura 1155
Best@@ 1154
EuroLeague 1154
Jennifer 1154
Pit@@ 1154
ank@@ 1154
Ah 1153
tirler 1153
Greg@@ 1152
alia 1152
cha 1152
Harr@@ 1151
ais@@ 1151
án@@ 1151
aliyet 1150
Jos@@ 1149
Va@@ 1149
bot 1149
Hermann 1148
Pos@@ 1148
apart@@ 1148
Moon 1147
RS 1147
amino 1147
zer 1147
Anti 1146
LA 1146
\ 1146
enteg@@ 1146
misaf@@ 1146
მ@@ 1146
4.000 1145
asta 1145
Aki@@ 1144
CP 1144
For 1144
Py@@ 1144
Var 1144
agon 1144
caz@@ 1144
propagand@@ 1144
ATP 1143
Alberto 1143
Mang@@ 1143
Ofisi 1143
Vermont 1143
dâ@@ 1143
Sec@@ 1142
Stein@@ 1142
Tank 1142
gesel 1142
oskop@@ 1142
trom@@ 1142
Basra 1141
Museum 1141
Tommy 1141
ider 1141
ín 1141
1862 1140
Gib@@ 1140
oji 1140
Dos@@ 1139
Magic 1139
İnş@@ 1139
ındayken 1139
Bart 1138
Jefferson 1138
North@@ 1138
Ny@@ 1138
Satr@@ 1138
Wisconsin 1138
she 1138
3,5 1137
Lucas 1137
atur@@ 1137
ikon@@ 1137
Central 1136
Suffolk 1136
metod@@ 1136
Stanley 1135
Willow 1135
fah@@ 1135
Dubai 1134
Duv@@ 1134
Server 1134
ini@@ 1134
oth 1134
robot@@ 1134
Point 1133
koloni 1133
Aconitum 1132
Dans 1132
May 1132
WrestleMania 1132
anali@@ 1132
mor 1132
antum 1131
familyas@@ 1131
isto 1131
Dre@@ 1130
Gy@@ 1130
Zagreb 1130
103 1129
Bonn 1128
Norfolk 1128
PA 1128
oksid@@ 1128
opter 1128
rüzgâ@@ 1128
AL 1127
Atak@@ 1127
Ontario 1127
oli@@ 1127
vik 1127
Gold@@ 1126
Pes@@ 1126
SD 1126
esta 1126
kilo 1126
Thompson 1125
err@@ 1125
âtı 1125
Mississippi 1124
ht@@ 1124
its 1124
uba 1124
Marco 1123
Mikro@@ 1123
Nelson 1123
bant@@ 1123
feld 1123
ilir@@ 1123
ink@@ 1123
ê 1123
Ma 1122
kalab@@ 1122
kaç 1122
zona 1122
Komit@@ 1121
Prince 1121
Roy 1121
Sierra 1121
Somali 1121
pus@@ 1121
rag@@ 1121
yk@@ 1121
2.5 1120
Tip 1120
iks 1120
maktay@@ 1120
mid@@ 1120
Boh@@ 1119
Comics 1119
Dış@@ 1119
doz@@ 1119
thr@@ 1119
çidir 1119
Loc@@ 1118
ege 1118
ovski 1118
örd@@ 1118
İşlet@@ 1118
Abr@@ 1117
Harun 1117
Wo@@ 1117
agn@@ 1117
arlığı 1117
Lib@@ 1116
aca@@ 1116
ondo 1116
uri@@ 1116
თ@@ 1116
PG 1115
Yem@@ 1115
Arp 1114
Palm 1114
ough 1114
porta@@ 1114
Ann 1113
Birmingham 1113
idze 1113
omen@@ 1113
Duk@@ 1112
Robinson 1112
nov@@ 1112
1828 1111
26.@@ 1111
Lloyd 1111
aliy@@ 1111
acat@@ 1110
festival 1110
Danny 1109
ME 1109
Open 1109
Sergey 1109
Ob@@ 1108
gay 1107
kapsay@@ 1107
45@@ 1106
PS@@ 1106
kans@@ 1106
omu 1106
vis 1106
ave@@ 1105
lov 1105
ogr@@ 1105
ürlük 1105
Gold 1104
ensi@@ 1104
kenin 1104
lab@@ 1104
depos@@ 1103
dul 1103
tos 1103
Fire 1102
Shim@@ 1102
alli@@ 1102
ihr@@ 1102
nav@@ 1102
yin 1102
104 1101
Atlético 1101
Bon 1101
Bruno 1101
Men 1101
Stuttgart 1101
Za@@ 1101
eau 1101
sic@@ 1101
Esp@@ 1100
Global 1100
It@@ 1100
Sports 1100
30.000 1099
Cass@@ 1099
ky@@ 1099
nekler 1099
sendrom@@ 1099
Kentucky 1098
Vatikan 1098
mab@@ 1098
Lau@@ 1097
XX@@ 1096
akat@@ 1096
Osaka 1095
Vegas 1095
kahver@@ 1095
lag@@ 1095
pas 1095
Parker 1094
ellen@@ 1094
lio 1094
mevki@@ 1094
nazar@@ 1094
Orton 1093
Vic@@ 1093
ás 1093
Fas@@ 1092
Hand@@ 1092
Il 1092
Kanuni 1092
Lac@@ 1092
Muhareb@@ 1092
aray 1092
illo 1092
itin 1092
Angola 1091
Kong@@ 1091
Plan 1091
ampiy@@ 1091
olana 1091
uil 1091
zik@@ 1091
Tet@@ 1090
hip@@ 1090
seti 1089
Coca 1088
Long@@ 1088
sif 1088
Der 1087
mese 1087
rini 1087
Triple 1086
Vat@@ 1086
dedi@@ 1086
Dakota 1085
Bru@@ 1084
ague 1084
deh@@ 1084
ismi@@ 1084
isp@@ 1084
nal 1084
osaurus 1084
Polit@@ 1083
TS 1083
′ 1083
Book 1082
ante@@ 1082
dul@@ 1082
Adam@@ 1081
Ron 1081
Texas 1081
Yur@@ 1081
nia 1081
use 1081
uti 1081
çek 1081
Dig@@ 1080
Java 1080
Lab@@ 1080
Nin@@ 1080
cara 1080
dum@@ 1080
~ 1080
Institute 1079
Kak@@ 1079
Katal@@ 1079
lamb@@ 1079
mobil@@ 1079
yas 1079
NBC 1078
System 1078
USB 1078
orn 1078
Balkan@@ 1077
Francesco 1077
eros 1077
gres@@ 1077
minimum 1077
11,@@ 1076
37@@ 1076
Alabama 1076
ista 1076
oro 1076
Hat 1075
Type 1075
gey 1075
osman@@ 1075
ʿ@@ 1075
α 1075
Grant 1074
Maryland 1074
Mini 1074
cl@@ 1074
we 1074
Nicolas 1073
bian 1073
Elektr@@ 1072
agu@@ 1072
geb@@ 1072
vic@@ 1072
Graham 1071
Grön@@ 1071
Press 1071
Solo 1071
Anah@@ 1070
Anton 1070
Just 1070
Sebastian 1070
Edge 1069
Nürnberg 1069
Rok@@ 1069
pli 1069
rim@@ 1069
ry@@ 1069
Ful@@ 1068
burg@@ 1068
hy@@ 1068
Ala@@ 1067
Herbert 1067
Kop@@ 1067
NA 1067
afir@@ 1067
binden 1067
Academy 1066
Sof@@ 1066
kopos@@ 1066
laka 1066
vr@@ 1066
Neg@@ 1065
mide 1065
seyi 1065
135 1064
Gra@@ 1064
PE@@ 1064
elb@@ 1064
mineral 1064
pon@@ 1064
AFC 1063
Clara 1063
Rey@@ 1063
Tap@@ 1063
Yab@@ 1063
enes 1063
salon 1063
öp@@ 1063
Fi 1062
Georg 1062
Hass@@ 1062
Baron 1061
osaur@@ 1061
Ath@@ 1059
Fol@@ 1059
Fred 1059
X. 1059
Shane 1058
Stewart 1058
nen 1058
Fiat 1056
HC 1056
Nok@@ 1056
Televiz@@ 1056
Voy@@ 1056
leg@@ 1056
tabaka 1056
Gaziante@@ 1055
Harold 1055
Let@@ 1055
nun@@ 1055
12,@@ 1054
Iowa 1054
Monte 1053
UTC 1053
esh@@ 1053
vik@@ 1053
Cand@@ 1052
End 1052
Magazine 1052
750 1051
Dragon 1051
Laura 1051
Vide@@ 1051
daş 1051
elma 1051
ilişk@@ 1051
İtalyan@@ 1051
Mexico 1050
Neil 1050
Sevilla 1050
ers@@ 1050
osh@@ 1050
J.@@ 1049
Kud@@ 1049
Master 1049
aun@@ 1049
enter@@ 1049
https 1049
win 1048
Andreas 1047
Hok@@ 1047
Oregon 1047
femin@@ 1047
tig@@ 1047
Aristoteles 1046
Iron 1046
tler 1046
6.000 1045
arin 1045
üzel 1045
Diyar@@ 1044
Luk@@ 1044
Scar@@ 1044
Stal@@ 1044
Stu@@ 1044
arkad@@ 1044
bisik@@ 1044
Da 1043
Laur@@ 1043
ave 1043
Bohem@@ 1042
Fame 1042
Wit@@ 1042
brah@@ 1042
dic@@ 1042
Koordin@@ 1041
Leonardo 1041
Maurice 1041
Morris 1041
Thymus 1041
eron 1041
red 1041
zen@@ 1041
1856 1040
Abraham 1040
Lok@@ 1040
Pink 1040
Raz@@ 1040
kos 1040
par 1040
MB 1039
ays 1039
bus 1039
ism@@ 1039
ū 1039
1,1 1038
Ele@@ 1038
Paraguay 1038
Salvador 1038
aht 1038
sem 1038
ube 1038
ıştır.@@ 1038
RO@@ 1037
Sik@@ 1037
Aston 1036
Brit@@ 1036
Conn@@ 1036
Kod@@ 1036
Ural 1036
tora 1036
uka 1036
Gun@@ 1035
Hotel 1035
Rocky 1035
Sic@@ 1035
illus 1035
Art@@ 1034
Beng@@ 1034
Panama 1034
Warren 1034
filo 1034
king 1034
13,@@ 1033
LED 1033
Punk 1033
atas@@ 1033
dip 1033
kınma 1033
tez 1033
vec@@ 1033
1784 1032
Bom@@ 1032
Parlament@@ 1032
piram@@ 1032
sept 1032
İb@@ 1032
Pent@@ 1031
hül@@ 1031
Log@@ 1030
Stat@@ 1030
BMW 1029
CBS 1029
Pep@@ 1029
arius 1029
emper@@ 1029
oo 1029
pros@@ 1029
Cook 1028
Hit@@ 1028
Komple@@ 1028
anov 1028
inski 1028
omor@@ 1028
109 1027
Pau@@ 1027
avar@@ 1027
eb 1027
gs 1027
card 1026
kulüpler@@ 1026
perspek@@ 1026
Glenn 1025
alyası 1025
kati 1025
uhan 1025
BK 1024
ady 1024
ა 1024
Pompe@@ 1023
enos 1023
Band@@ 1022
Toh@@ 1022
inge 1022
GP 1021
metaf@@ 1021
Fak@@ 1020
30.@@ 1019
Baden 1019
Carey 1019
Nest@@ 1019
Ved@@ 1019
gündem@@ 1019
Baby 1018
prof@@ 1018
Dawn 1017
Fro@@ 1017
Science 1017
Brothers 1016
Mehdi 1016
Teşkil@@ 1016
anet 1016
eland 1016
fid@@ 1016
kot 1016
115 1015
Bern@@ 1015
Hart 1015
kilogr@@ 1015
otop@@ 1015
sit 1015
tic 1015
1859 1014
CG 1014
SM 1014
ipi 1014
უ@@ 1014
esti 1013
iser 1013
lana 1013
Pokémon 1012
ec 1012
kak@@ 1011
rece@@ 1011
Clar@@ 1010
aud 1010
bale 1010
polisi 1010
.C. 1009
AIDS 1009
Liste 1009
hisi 1009
mur 1009
sup@@ 1009
tarafa 1009
Akk@@ 1008
Raf@@ 1008
bad 1008
bre 1008
jet@@ 1008
val 1008
yatak@@ 1008
Ž@@ 1008
KA 1007
seven 1007
âme 1007
Elena 1006
Ton@@ 1006
Two 1006
102 1005
Güre@@ 1005
Haber@@ 1005
Holmes 1005
Person@@ 1005
örgü@@ 1005
Habsburg 1004
N. 1004
annes 1004
ech@@ 1004
istin 1004
mel 1004
tz@@ 1004
Gay@@ 1003
Og@@ 1003
eze 1003
mus 1003
Slayer 1002
Tark@@ 1002
Çeşit@@ 1002
Johannes 1001
Ng@@ 1001
ifa 1001
org 1001
1.2 1000
90@@ 1000
Gari@@ 1000
Sung@@ 1000
ass 1000
erina 1000
kadros@@ 1000
H.@@ 999
Nicholas 999
abol@@ 999
nev@@ 999
urn@@ 999
י@@ 999
Medi@@ 998
PT@@ 998
Sky 998
baa 998
tilla 998
vil 998
mene 997
August 996
Dortmund 996
abr@@ 996
ajan 996
light 996
m. 996
Homo 995
Row@@ 995
Women 995
enci@@ 995
iPad 995
nut@@ 995
34@@ 994
Awards 994
Bar 994
difer@@ 994
teker@@ 994
AI@@ 993
Forest 993
Let 993
Micro@@ 993
Theatre 993
Volga 993
Wehrmacht 993
etto 993
lob@@ 993
sola 993
uti@@ 993
Back 992
Songs 992
won 992
Vampire 991
Vin@@ 991
IBM 990
SE 990
Sri 990
dat 990
xi 990
Civ@@ 989
Mic@@ 988
anom@@ 988
sing@@ 988
Minsk 987
Sid@@ 987
Thi@@ 987
ever 987
ones 987
50.000 986
Eddie 986
IS 986
alit@@ 986
nan 986
sv@@ 986
İng@@ 986
106 985
did@@ 985
Andron@@ 984
Berkeley 984
By@@ 984
Jin 984
Montreal 984
Nevada 984
edo 983
isar 983
Fahr@@ 982
Gav@@ 982
Graf@@ 982
Hills 982
Rudolf 982
Sardin@@ 982
Tuf@@ 982
cover 982
enta 982
gia 982
Kob@@ 981
Ped@@ 981
^ 981
umu@@ 981
ée 981
über@@ 981
Edinburgh 980
Fay@@ 980
Gon@@ 980
Ts@@ 980
Turner 980
illi@@ 980
jo@@ 980
opi 980
vers 980
107 979
Au@@ 979
Bologna 979
Yuri 979
bari 979
protok@@ 979
1857 978
asto@@ 978
dine 978
krom@@ 978
post 978
Hül@@ 977
VI@@ 977
cio 977
edin 977
ule 977
1849 976
Italia 976
Lumia 976
Meli@@ 976
Solomon 976
anger 976
koku 976
less 976
ord 976
sıf@@ 976
utt@@ 976
yiti@@ 976
38@@ 975
atri 975
kuku 975
moment@@ 975
terap@@ 975
240 974
Dak@@ 974
Nog@@ 974
alışver@@ 974
Maxwell 973
Plus 973
Stand@@ 973
edral 973
eran 973
1831 972
Dini 972
ikistan 972
Borussia 971
Cent@@ 971
Fos@@ 971
Gedi@@ 971
Nancy 971
tine 971
Diplom@@ 970
ende@@ 970
fahr@@ 970
yı@@ 970
Arnold 969
codice 969
Devrim@@ 968
1785 967
Ken 967
Tez@@ 967
etse 967
mani 967
Hard@@ 966
Sabri 966
mos 966
otro@@ 966
Hükû@@ 965
Jam@@ 965
Ment@@ 965
ated 965
15,@@ 964
1826 964
CA 964
ting@@ 963
GM 962
GPS 962
Gustav 962
Kaplan 962
Ted 962
iliz 962
ī 962
Baker 961
Get 961
Hiti@@ 961
Jericho 961
Nice 961
Cape 960
Earth 960
Fed@@ 960
Melbourne 960
NE@@ 960
Touch 960
1600 959
Churchill 959
Eva 959
Now 959
ember 959
enne 959
Lynch 958
Stan@@ 958
abon@@ 958
aph@@ 958
kor 958
Ard@@ 957
ater 957
ines 957
nos 957
1855 956
Amar@@ 956
CF 956
Gos@@ 956
ae@@ 956
108 955
Alfa 955
Cour@@ 955
Nehr@@ 955
Oda 955
cho 955
1854 954
Volkswagen 954
Barry 953
Shield 953
Ve@@ 953
dizi@@ 953
say 953
Carol 952
afe 952
ery 952
ple 952
25.@@ 951
Benz 951
Bra@@ 951
Hell 951
Newcastle 951
Sur 951
icks 951
ovich 951
plasti@@ 951
sam 951
Wimbledon 950
andi 950
ifi 950
kine 950
lot 950
ains 949
anal@@ 949
atsu 949
е@@ 949
Ji@@ 948
Orange 948
alo@@ 948
adze 947
anam@@ 947
ünkü 947
Collins 946
Isaac 946
Mür@@ 946
So 946
Walker 946
def 946
mm@@ 946
Telekom 945
eton 945
Dou@@ 944
Masters 944
old@@ 944
zirve@@ 944
Cru@@ 943
II. 943
SI 943
Wood 943
esel@@ 943
urs@@ 943
Neo 942
Nero 942
tha 942
Bez@@ 941
Green@@ 941
mama 941
GNU 940
Orlando 940
aran 940
nan@@ 940
evo 939
ron 938
16,@@ 937
24.@@ 937
BP 937
Beg@@ 937
Claudius 937
Hall@@ 937
klin@@ 937
ülke@@ 937
Abbas@@ 936
Murphy 936
ely 936
glu@@ 936
kaz 936
limit@@ 936
onius 936
airi 935
aki@@ 935
lö@@ 935
obi@@ 935
unk@@ 935
As 934
Buda 934
Cant@@ 934
Viktor 934
etz 934
koro 934
nam 934
pant@@ 934
Cil@@ 933
IP@@ 933
etno@@ 933
uro 933
vid@@ 933
Ash 932
Cher@@ 932
Sina 932
ding 932
sept@@ 932
tart@@ 932
Kütüphan@@ 931
Planck 931
ies 931
Ich@@ 930
adis 930
direkt@@ 930
ward 930
14,@@ 929
Sym@@ 929
agi 929
oga 929
roller 929
1839 928
Nord@@ 928
Ust@@ 928
aline 928
kos@@ 928
leyen@@ 928
Euro@@ 927
Jorge 927
amor@@ 927
ns 927
Band 926
Kard@@ 926
Shu@@ 926
kurmay 926
Barr@@ 925
HIV 925
Mozart 925
Power@@ 925
1789 924
Bobby 924
Part 924
kore@@ 924
lers 924
AA 923
God 923
R.@@ 923
kins 923
sha 923
sm@@ 923
̣ 923
Gray 922
Rafael 922
Tag 922
Tot@@ 922
isel 922
HTC 921
Kar 921
Kid@@ 921
ted 921
Hük@@ 920
Money 920
Posta 920
alog 920
app@@ 920
defl@@ 920
nom@@ 920
sof@@ 920
Baf@@ 919
CI@@ 919
KO@@ 919
Spears 919
Toy@@ 919
Us@@ 919
efa 919
head 919
müzis@@ 919
nai@@ 919
torp@@ 919
Madagaskar 918
Yosh@@ 918
aku 918
eman@@ 918
erer 918
ness 918
Önc@@ 918
201@@ 917
Bü@@ 917
ellik@@ 917
sius 917
Hunter 916
omo 916
pig@@ 916
Clinton 915
Kolon@@ 915
Louisiana 915
Wolf 915
foros 915
loc@@ 915
Klar@@ 914
Rik@@ 914
Sport 914
aul@@ 914
kayak 914
yonel 914
itch 913
morfol@@ 913
Rav@@ 912
Sco@@ 912
dak 912
gat 912
norm@@ 912
fare 911
iya 911
segment@@ 911
1858 910
Aus@@ 910
aco 910
gh@@ 910
vill@@ 910
People 909
achi 909
mati@@ 909
ulos 909
ves 909
üncü 909
AF@@ 908
DO@@ 908
Mayer 908
lon@@ 908
amoto 907
ekten 907
ril 907
sultan@@ 907
wan 907
Departamento 906
Hasan@@ 906
Montgomery 906
Ğ@@ 906
Sara 905
Sci@@ 905
aster 905
atil@@ 905
ats 905
27,@@ 904
Arist@@ 904
Vila 904
ck@@ 904
een 904
heavy 904
omb 904
Örgüt@@ 904
Hamza 903
Somerset 903
Valencia 903
ino@@ 903
liz@@ 903
onn@@ 903
sper@@ 903
spir@@ 903
XI 902
emat@@ 902
isha 902
500.000 901
Petrus 901
Yan 901
ilo 901
kek 901
Angel@@ 900
arit@@ 900
atri@@ 900
eral 900
lilik@@ 900
lock 900
tıb@@ 900
Gau@@ 899
Max@@ 899
Simpson 899
zap@@ 899
Challenge 898
EN@@ 898
AZ 897
Gener@@ 897
Gin@@ 897
Gren@@ 897
Lincolnshire 897
Rut@@ 897
Vard@@ 897
1836 896
550 896
Drive 896
Giuseppe 896
akter 896
ops 896
style 896
Lazio 895
Sn@@ 895
aine 895
şö@@ 895
1853 894
4000 894
Edgar 894
Putin 894
Rub@@ 894
Tali@@ 894
Wor@@ 894
radar 894
0.1 893
46@@ 893
Simp@@ 893
Ves@@ 893
fordshire 893
opa 893
Cle@@ 892
Gev@@ 892
Silver 892
litre 892
39@@ 891
Honda 891
Nepal 891
eum 891
hard 891
iklet 891
nm 891
Bros 890
Cir@@ 890
ento 890
online 890
s. 890
Castro 889
Denis 889
Geor@@ 889
Larry 889
Pablo 889
Roberts 889
ayi 889
Bül@@ 888
Büt@@ 888
tir.@@ 888
Business 887
Carolina 887
Diana 887
Ernest 887
IT@@ 887
Kib@@ 887
stab@@ 887
sultan 887
→ 887
Depart@@ 886
Orleans 886
Project 886
Tahir 886
ekim 886
220 885
Dö@@ 885
EA 885
Rosa 885
Yes@@ 885
asil@@ 885
etçi 885
ursa 885
Are 884
Eve 884
Hun 884
SM@@ 884
Sahi@@ 884
Tyler 884
ear@@ 884
Calabria 883
ical 883
master 883
mg 883
temelen 883
üh@@ 883
200.000 882
Chart 882
Hell@@ 882
Lil@@ 882
Molek@@ 882
Reigns 882
Sha@@ 882
aliyet@@ 882
zur 882
ხ@@ 882
1851 881
Jun@@ 881
Lorenzo 881
Uğ@@ 881
sane 881
ბ@@ 881
1845 880
CONCACAF 880
Nept@@ 880
Roosevelt 880
bli@@ 880
trib@@ 880
Blood 879
UR@@ 879
beton 879
ier@@ 879
Monica 878
Miz 877
egr@@ 877
itt 877
okol@@ 877
put@@ 877
Flash 876
Pac@@ 876
Syn@@ 876
ו@@ 876
Eminem 875
Guatemala 875
Jung 875
Online 875
Rotterdam 875
Sans@@ 875
adr@@ 875
anüstü 875
ars@@ 875
orf 875
vert@@ 875
öne@@ 875
Jessica 874
Lik@@ 874
Sac@@ 874
Total 874
Walt 874
Daily 873
Hark@@ 873
Rap 873
ations 873
kn@@ 873
Express 872
Iz@@ 872
Wat@@ 872
İsp@@ 872
Ris@@ 871
amel@@ 871
ias 871
5,2 870
Aram@@ 870
Blu@@ 870
Born 870
Jer@@ 870
Kosta 870
ann 870
bri@@ 870
günümüz@@ 870
1847 869
Ata 869
Cameron 869
Hardy 869
Tad@@ 869
ander@@ 869
111 868
Hudson 868
Joan 868
Owens 868
Sov@@ 868
bard@@ 868
fri@@ 868
nete 868
Di 867
aro@@ 867
ofisi 867
Atom 866
Free 866
Mussolini 866
Savun@@ 866
iss 866
ˈ@@ 866
Apollon 865
F1 865
Hannover 865
ihtiy@@ 865
inho 865
osis 865
1829 864
8.000 864
Kamerun 864
ano@@ 864
lok@@ 864
65@@ 863
Andre@@ 863
Arm@@ 863
Domin@@ 863
Terry 863
Wallace 863
hou 863
ple@@ 863
polin@@ 863
25. 862
Parlam@@ 862
Susan 862
Wagner 862
bud@@ 862
eper 862
rell 862
sum@@ 862
Force 861
Frank@@ 861
Phil 861
Rollins 861
frag@@ 861
kem 861
ković 861
112 860
Atl@@ 860
Lakers 860
Stanford 860
trig@@ 860
Özg@@ 860
Cole 859
Sher@@ 859
Sti@@ 859
rep@@ 859
1.4 858
Ig@@ 858
Mün@@ 858
Pand@@ 858
Slovak 858
town 858
Bang 857
SR 857
cell@@ 857
direc@@ 857
integr@@ 857
profil@@ 857
დ@@ 857
1815 856
75@@ 856
Ltd 856
Web@@ 856
itar 856
kip@@ 856
ú 856
3.5 855
Khan 855
Pag@@ 855
Peugeot 855
Racing 855
Sug@@ 855
aut 855
bul 855
mür 855
oman 855
reti@@ 855
Note 854
Sant@@ 854
Von 854
my 854
är@@ 854
NS@@ 853
Tsu@@ 853
XIV 853
atak@@ 853
ević 853
gas@@ 853
reper@@ 853
ā 853
Avru@@ 852
Felipe 852
Louise 852
ayna 852
imen@@ 852
1837 851
76@@ 851
CC@@ 851
Pist@@ 851
Tuv@@ 851
pid@@ 851
D.@@ 850
Senegal 850
ä 850
ınday@@ 850
1846 849
Abd@@ 849
CN@@ 849
Feh@@ 849
Pyr@@ 849
Western 849
galibi@@ 849
Å@@ 849
ñ@@ 849
Basel 848
XII 848
afor@@ 848
atum 848
kle 848
Anayas@@ 847
Bow@@ 847
Dev 847
Dimi@@ 847
Helena 847
Mahall@@ 847
Watson 847
esp@@ 847
22@@ 846
BM@@ 846
Dennis 846
Oh 846
Saddam 846
Termin@@ 846
XIII 846
bur 846
ents 846
1700 845
40.000 845
Cib@@ 845
Days 845
Mom@@ 845
PP@@ 845
Summer 845
alog@@ 845
leb@@ 845
span@@ 845
Pra@@ 844
Tag@@ 844
Vancouver 844
tit@@ 844
1530 843
Bagr@@ 843
Bob@@ 843
Hog@@ 843
diz 843
viral 843
„ 843
Germain 842
More 842
bor 842
ender@@ 842
pet@@ 842
soundtrack 842
44@@ 841
Asp@@ 841
Forbes 841
Sup@@ 841
Wild 841
haci@@ 841
Mansur 840
Myanmar 840
dop@@ 840
islav 840
1812 839
1820 839
Ayn@@ 839
CH@@ 839
HMS 839
Jovi 839
Leeds 839
Mum@@ 839
ladıktan 839
Bella 838
Inter 838
Josh 838
María 838
cili@@ 838
isiy@@ 838
ár@@ 838
Mason 837
Tib@@ 837
Woman 837
İnter@@ 837
ıköy 837
Lep@@ 836
SF@@ 836
API 835
BAFTA 835
Never 835
One@@ 835
Plas@@ 835
vić 835
79,@@ 834
Vista 834
gn@@ 834
inek 834
taz 834
ð@@ 834
EL@@ 833
Ekonom@@ 833
Hr@@ 833
Kret@@ 833
avy@@ 833
polar 833
uza 833
1844 832
ID 832
Na 832
eyn 832
33.@@ 831
Beyoncé 831
HF 831
duda 831
kurş@@ 831
rul 831
afak@@ 830
size 830
68@@ 829
Adrian 829
Ats@@ 829
FBI 829
Michelle 829
Undertaker 829
yot@@ 829
27.@@ 828
And@@ 828
Bremen 828
CS 828
Princeton 828
bater@@ 828
roz@@ 828
ved@@ 828
1.1 827
Emilia 827
Obama 827
them 827
Dick 826
Did@@ 826
Gregory 826
Nab@@ 826
dea 826
prop@@ 826
Arc@@ 825
Jur@@ 825
Lou@@ 825
ekn@@ 825
ferin 825
wick 825
Abu 824
ET 824
Lanka 824
Lud@@ 824
Rangers 824
mum@@ 824
ograd 824
ring 824
Mans@@ 823
Nexus 823
Saat@@ 823
amar@@ 823
astron@@ 823
feri 823
1814 822
amen 822
cia 822
odal 822
ub 822
49@@ 821
Tec@@ 821
akos 821
etes 821
fte 821
ign@@ 821
Jamaika 820
asp@@ 820
bag@@ 820
eleş@@ 820
els@@ 820
Lef@@ 819
Monroe 819
any 819
ig 819
tika 819
unv@@ 819
venc@@ 819
Mitchell 818
Suzuki 818
adil@@ 818
evski 818
Çel@@ 818
Hob@@ 817
oral 817
Athletic 816
Corn@@ 816
Line 816
ares 816
· 816
Felix 815
Meksiko 815
Tottenham 815
Up@@ 815
auf 815
Athena 814
C.@@ 814
Mart@@ 814
Rh@@ 814
Wall 814
Zh@@ 814
andum 814
fit 814
Ar 813
Evans 813
Murray 813
Stark 813
emonte 813
iPod 813
ige 813
ikti@@ 813
yac@@ 813
Hugh 812
Nikola 812
aq 812
edeb@@ 812
uga 812
LO@@ 811
Leb@@ 811
Leonard 811
Maver@@ 811
Sullivan 811
amo 811
ory@@ 811
Jose 810
Zara 810
enges@@ 810
uchi 810
Bordeaux 809
Hatt@@ 809
Medici 809
Riy@@ 809
Vul@@ 809
beste 809
dum 809
ight 809
nini 809
ortal@@ 809
voy@@ 809
190 808
England 808
Kiss 808
Patent 808
Pun@@ 808
anes 808
cus 808
galaksi 808
rif@@ 808
Claire 807
Pietro 807
m2 807
320 806
Cumhur@@ 806
Nac@@ 806
Randy 806
Survivor 806
Veter@@ 806
alem@@ 806
maj@@ 806
15.000 805
ER 805
Erik 805
Tolkien 805
bie 805
cat@@ 805
29.@@ 804
Apol@@ 804
Cou@@ 804
European 804
Ish@@ 804
Kafkas@@ 804
Nacional 804
Valent@@ 804
Vid@@ 804
aker 804
erse 804
Brun@@ 803
Lug@@ 803
Palm@@ 803
ST 803
arpa 803
bik@@ 803
ega 803
kand@@ 803
ultan 803
7.000 802
Politik 802
Stor@@ 802
Vey@@ 802
Yale 802
element 802
gerekç@@ 802
yoya 802
ě@@ 802
Pant@@ 801
anot@@ 801
atlan@@ 801
steri 801
wi@@ 801
1821 800
BT 800
Country 800
Grim@@ 800
YP 800
estra 800
grav@@ 800
kongr@@ 800
uch@@ 800
was 800
Aran@@ 799
Beatles 799
Delhi 799
Harrison 799
Kura 799
Xi@@ 799
aeus 799
peyg@@ 799
ș@@ 799
Ach@@ 798
Cot@@ 798
Hin@@ 798
Hindu 798
IF@@ 798
Vize 798
Yek@@ 798
its@@ 798
pora 798
pus 798
sburg 798
Andorra 797
Uran@@ 797
Vill@@ 797
fran@@ 797
neo 797
Tiberius 796
Vali@@ 796
XVI 796
Zay@@ 796
elektri@@ 796
mark 796
standard@@ 796
wald 796
én 796
GT 795
Monte@@ 795
gard 795
play@@ 795
57@@ 794
Pennsylvania 794
Rumble 794
Zaf@@ 794
Zak@@ 794
55@@ 793
Stuart 793
Whitney 793
imar 793
izer 793
pH 793
48@@ 792
Bach 792
Garden 792
Mog@@ 792
Ptolemy 792
atis 792
gel 792
hamshire 792
ib 792
tern@@ 792
École 792
Mug@@ 791
Yev@@ 791
aland 791
biter 791
dist@@ 791
itus 791
onis 791
č 791
Alain 790
Arn@@ 790
Land 790
bria 790
my@@ 790
210 789
Armstrong 789
Musev@@ 789
Uni@@ 789
Vad@@ 789
gal 789
inz@@ 789
vy@@ 789
Campbell 788
Ero@@ 788
Galileo 788
Tan 788
ishan@@ 788
pand@@ 788
GS 787
atini 787
imento 787
Aff@@ 786
Electric 786
Falcon 786
Productions 786
Yıld@@ 786
mb@@ 786
Knight 785
Samt@@ 785
Spir@@ 785
ado@@ 785
alist@@ 785
aris 785
borough 785
box 785
cal 785
haz 785
uss@@ 785
Frig@@ 784
Traf@@ 784
alus 784
arch@@ 784
ceden 784
got@@ 784
plo@@ 784
zif@@ 784
1,4 783
47@@ 783
650 783
Afro@@ 783
Burton 783
CO 783
Fut@@ 783
Jazz 783
Jules 783
Reform@@ 783
Suz@@ 783
aven@@ 783
isch 783
ishi 783
lime 783
odi 783
Asper@@ 782
Pus@@ 782
Romeo 782
kau@@ 782
230 781
Bristol 781
Oh@@ 781
olin 781
Bond 780
Montana 780
Over 780
Porsche 780
Eugene 779
Ralph 779
Ronald 779
akis 779
ept@@ 779
issa 779
parad@@ 779
rass@@ 779
zek 779
à@@ 779
Mud@@ 778
Test 778
anormal 778
della 778
meti 778
1832 777
Grace 777
LP 777
MVP 777
René 777
Trav@@ 777
ism 777
Goethe 776
Nad@@ 776
Zimbab@@ 776
low@@ 776
Ç 776
Japan 775
acan 775
band 775
get 775
iva 775
mes 775
sera 775
ы@@ 775
Emily 774
Fun@@ 774
Nikol@@ 774
Sou@@ 774
Tin@@ 774
revi@@ 774
tham 774
Paolo 773
Viking 773
atam@@ 773
ect 773
momentum 773
ovi@@ 773
4.0 772
Sound 772
rit 772
11,3 771
Haiti 771
Hard 771
Uganda 771
28.@@ 770
Campania 770
Of@@ 770
Secret 770
amer 770
siye 770
ISBN 769
ubi 769
Las@@ 768
Portland 768
ean 768
izi@@ 768
lararası 768
olum@@ 768
Blu 767
Lucius 767
Rüst@@ 767
ams 767
bius 767
bus@@ 767
ingo 767
proton 767
Bayer 766
Hop 766
XV@@ 766
amus 766
berger 766
inat@@ 766
rie 766
ør@@ 766
DE 765
Delta 765
Get@@ 765
Good@@ 765
loy@@ 765
phi 765
yov 765
ığ 765
Bank@@ 764
Bomb@@ 764
Caroline 764
Mountain 764
gang@@ 764
Party 763
SL@@ 763
Veh@@ 763
Battle 762
Foster 762
Leopold 762
Ricardo 762
aux 762
eg 762
ekom@@ 762
Dow@@ 761
EM@@ 761
GT@@ 761
Gilbert 761
Hip@@ 761
Lez@@ 761
Soh@@ 761
yun 761
121 760
330 760
Lus@@ 760
Milletvek@@ 760
ektör@@ 760
gari 760
kus 760
rimi 760
uzam@@ 760
üler@@ 760
Lon@@ 759
Reb@@ 759
bun 759
jili 759
ose 759
pit@@ 759
122 758
KK 758
Soul 758
Tari@@ 758
Zem@@ 758
ien 758
kün 758
ling@@ 758
yoy@@ 758
A1 757
Camp@@ 757
ES 757
Freud 757
Gn@@ 757
Malat@@ 757
Nicol@@ 757
iter@@ 757
sion 757
stad 757
CS@@ 756
Coc@@ 756
Colin 756
Lec@@ 756
Mann 756
Mobil 756
Sau@@ 756
Wall@@ 756
Wii 756
epit@@ 756
117 755
Jet 755
but@@ 755
oso 755
Ayl@@ 754
Harvey 754
IG@@ 754
SB 754
illon 754
lokom@@ 754
piz@@ 754
öte 754
Mav@@ 753
Sult@@ 753
dio 753
neğin 753
oros 753
vic 753
56@@ 752
Patri@@ 752
bent 752
kW 752
oper 752
pot 752
Ō@@ 752
β 752
BS 751
Cross 751
Ded@@ 751
GP@@ 751
Ham 751
Nathan 751
Rib@@ 751
Rig@@ 751
Tür 751
Wyatt 751
ekt 751
iret 751
seri@@ 751
ukat@@ 751
Ax@@ 750
DI 750
Dion@@ 750
Head 750
Stars 750
itibar@@ 750
Heat 749
Sokrates 749
alfa 749
ümcek 749
Aster@@ 748
Behr@@ 748
CE 748
Ce@@ 748
Was@@ 748
Zi@@ 748
aver 748
xi@@ 748
123 747
Buk@@ 747
SG 747
agres@@ 747
Four 746
Si 746
engeb@@ 746
Kō@@ 745
Opel 745
akab@@ 745
mük@@ 745
tris 745
Arkansas 744
Bull 744
O. 744
bridge 744
dafi 744
fib@@ 744
onidae 744
Alex@@ 743
Baj@@ 743
EM 743
Julie 743
Lopez 743
Yon@@ 743
dut 743
tropo@@ 743
Beta 742
Deep 742
Jamie 742
Keith 742
Metr@@ 742
TAR@@ 742
mail 742
127 741
Aut@@ 741
Costa 741
Maggie 741
dias@@ 741
erz@@ 741
ites 741
uno 741
Bluetooth 740
Instagram 740
Morrison 740
hist@@ 740
onga 740
osp@@ 740
raya 740
1852 739
Clo@@ 739
Leicester 739
Roland 739
Tik@@ 739
avat@@ 739
igh@@ 739
tho@@ 739
Abdülham@@ 738
Akr@@ 738
Gond@@ 737
Mazda 737
Min 737
Rock@@ 737
Stre@@ 737
Theodosius 737
afr@@ 737
esia 737
lard 737
ond 737
servat@@ 737
Hang@@ 736
Mess@@ 736
RA 736
oker 736
yaln@@ 736
Gang@@ 735
Gazi@@ 735
HA 735
Hask@@ 735
Page 735
Santo 735
ahu 735
aqu@@ 735
aru 735
etz@@ 735
tot@@ 735
ř@@ 735
EP@@ 734
GA 734
Sweet 734
USA 734
afat 734
ald 734
esis 734
formes 734
magne@@ 734
Det@@ 733
District 733
Olga 733
Over@@ 733
Research 733
Sheffield 733
embri@@ 733
garanti@@ 733
ilif@@ 733
manuel 733
onyalı 733
ovna 733
wich 733
Buh@@ 732
Edition 732
Got 732
Law@@ 732
Mühendis@@ 732
Rud@@ 732
Ut@@ 732
Vakf@@ 732
dae 732
ix 732
tv 732
4,5 731
Benz@@ 731
Deutsche 731
Komün@@ 731
Nietzsche 731
UI 731
hen 731
pers 731
put 731
ünc@@ 731
კ@@ 731
CC 730
João 730
Square 730
Sydney 730
lev 730
és 730
LC 729
ged@@ 729
keb@@ 729
ush 729
EL 728
Sent@@ 728
Zah@@ 728
aden 728
etus 728
itis 728
kari@@ 728
oslav 728
yem 728
Christina 727
0.3 726
1.0 726
Barrett 726
CM 726
Christmas 726
Floyd 726
Ox@@ 726
PM 726
distan 726
ego 726
gut@@ 726
ix@@ 726
Lancashire 725
Nicole 725
istanı 725
ology 725
otel@@ 725
pep@@ 725
rov 725
sekiz@@ 725
tle 725
1841 724
Capr@@ 724
Hannibal 724
Hip 724
Ki 724
Michelangelo 724
Nielsen 724
She 724
Singles 724
away 724
ms 724
mükem@@ 724
odon 724
sch 724
tab 724
ès 724
ć@@ 724
Dub@@ 723
aron 723
hiy@@ 723
insky 723
AE 722
Cec@@ 722
Euler 722
ayo 722
eles 722
habit@@ 722
ibl@@ 722
trat@@ 722
zus@@ 722
Glasgow 721
Summer@@ 721
borg 721
istr@@ 721
mont 721
orius 721
rama 721
Empire 720
Esperanto 720
Monaco 720
Nazar@@ 720
Semb@@ 720
Stalingrad 720
Stephan 720
ammer 720
basan 720
cus@@ 720
ott 720
rio 720
HBO 719
IN 719
Kay 719
Klein 719
ariz@@ 719
gy 719
idal 719
skop@@ 719
zh@@ 719
256 718
Brooks 718
Carr@@ 718
Cloud 718
Elaz@@ 718
Palermo 718
Pascal 718
Reform 718
Sea 718
acab@@ 718
arat 718
kanad@@ 718
kisi@@ 718
oner 718
67@@ 717
Ambrose 717
Dut@@ 717
Hüsey@@ 717
Ice 717
Julian 717
Ple@@ 717
Rob 717
Sporting 717
acc@@ 717
gio 717
ingham 717
wo@@ 717
Atal@@ 716
Has 716
Hein@@ 716
Kath@@ 716
Salzburg 716
astı 716
idon 716
DR 715
Ener@@ 715
Er 715
Ho 715
OH 715
ael 715
fav@@ 715
tisi 715
war@@ 715
Dresden 714
Wel@@ 714
cap@@ 714
seus 714
you 714
Aaron 713
Child 713
Europe 713
Luka 713
Television 713
ants 713
asiye 713
peria 713
pio 713
try 713
ə 713
1843 712
Baltimore 712
imar@@ 712
inga 712
otok@@ 712
show 712
Bahia 711
Joel 711
Ket@@ 711
Sophie 711
gli@@ 711
igi 711
onne 711
uktur 711
1.5@@ 710
97,@@ 710
Pok@@ 710
acy 710
aliye 710
anth@@ 710
rail@@ 710
ric 710
rov@@ 710
vaj@@ 710
WWF 709
melod@@ 709
ovu 709
sei 709
vara 709
1842 708
54@@ 708
Bulls 708
Cohen 708
Craig 708
Erz@@ 708
Iv@@ 708
Marcel 708
Parma 708
Sant 708
adin 708
andi@@ 708
mali@@ 708
Allan 707
L.@@ 707
Pik@@ 707
Wolfgang 707
sl@@ 707
59@@ 706
Giles 706
Ov@@ 706
itte 706
yosunu 706
1642 705
1787 705
Brandenburg 705
Harper 705
Mercury 705
Oz@@ 705
Petro@@ 705
andal 705
cell 705
enses 705
pto 705
2.0@@ 704
Antoine 704
Bour@@ 704
Lom@@ 704
Weekly 704
Yokohama 704
cy 704
itten 704
1833 703
Alpes 703
Core 703
Ley@@ 703
Rel@@ 703
Tiger 703
aug@@ 703
doğrult@@ 703
esa 703
eu 703
23,@@ 702
25.000 702
Drake 702
Fars@@ 702
Rü@@ 702
Saur@@ 702
amii 702
aur 702
mend@@ 702
nel@@ 702
і@@ 702
Form@@ 701
Himmler 701
Kyoto 701
esto 701
oval 701
uck 701
Lane 700
Law 700
MHz 700
Ned@@ 700
Ud@@ 700
Ufu@@ 700
aben 700
eph@@ 700
esten 700
hac 700
hut 700
ر@@ 700
Box 699
Tao 699
onist 699
out@@ 699
Humboldt 698
Kepler 698
O.@@ 698
1838 697
Award 697
Brah@@ 697
ROM 697
Smart 697
With 697
demo 697
fren@@ 697
imov 697
ning 697
12.000 696
124 696
Guardian 696
Locke 696
Pearl 696
egen 696
terminal 696
vit 696
Anglo 695
Antonius 695
BL 695
Cat 695
Cord@@ 695
Et 695
Riga 695
Rö@@ 695
Say 695
Spencer 695
Toulouse 695
ono 695
see 695
ürt 695
116 694
Aqu@@ 694
Bard@@ 694
Birleş@@ 694
Kenneth 694
PR 694
Stav@@ 694
Wol@@ 694
alen 694
ebel 694
lett 694
İli@@ 694
Buy@@ 693
Karma 693
McMahon 693
Riley 693
SL 693
Wer@@ 693
Wes@@ 693
cur@@ 693
köyü@@ 693
mul@@ 693
tas 693
tril@@ 693
Classic 692
History 692
Seine 692
When 692
adili 692
budur 692
isl@@ 692
ś@@ 692
22,@@ 691
Dob@@ 691
Raj@@ 691
Three 691
Turk@@ 691
esh 691
kund@@ 691
ogo 691
opsis 691
sos 691
Dale 690
Dmitri 690
Johan 690
Prom@@ 690
anten 690
40,@@ 689
Creek 689
ISU 689
Springs 689
Uş@@ 689
Vent@@ 689
our@@ 689
1790 688
270 688
Apo@@ 688
Kings 688
Wu 688
bola 688
büro 688
islam 688
papa 688
ring@@ 688
145 687
27. 687
Dj@@ 687
Fisher 687
Fritz 687
Just@@ 687
Theodore 687
Yuki 687
con 687
elius 687
finden 687
hl 687
motiv@@ 687
netic@@ 687
ope 687
Liège 686
Maxim@@ 686
wat@@ 686
ô@@ 686
ă 686
Nissan 685
analog 685
euro 685
pur@@ 685
riba@@ 685
yek@@ 685
Everton 684
Granada 684
Württemberg 684
cut 684
113 683
Mu 683
chen 683
encer 683
mod 683
otti 683
zim@@ 683
Banks 682
Ellen 682
Juli@@ 682
Limited 682
Petro 682
laya 682
oon 682
sisi 682
Barn@@ 681
Jim@@ 681
Lazar@@ 681
Luftwaffe 681
Sej@@ 681
ukta 681
26. 680
JK 680
hos 680
intern@@ 680
itar@@ 680
kii 680
kupas@@ 680
ous@@ 680
129 679
Benfica 679
Bismarck 679
Dominik 679
Foundation 679
Haft@@ 679
Nim@@ 679
Pass@@ 679
Ring 679
Ruanda 679
ario 679
cek 679
280 678
Gamb@@ 678
IT 678
Mass@@ 678
Müller 678
Send@@ 678
Soyuz 678
Take 678
Vall@@ 678
plen@@ 678
usu@@ 678
vatand@@ 678
Emmanuel 677
English 677
G.@@ 677
Marion 677
P.@@ 677
Rhône 677
Ronaldo 677
SMS 677
Sud@@ 677
arette 677
cre@@ 677
eson 677
lang@@ 677
wal@@ 677
2500 676
58@@ 676
Janet 676
Manson 676
Nebraska 676
Olivier 676
Paraná 676
Vl@@ 676
azaki 676
dırım 676
jer 676
114 675
Ble@@ 675
Fior@@ 675
Mé@@ 675
USS 675
XP 675
bistan 675
char@@ 675
elly 675
pedi@@ 675
vor@@ 675
Balt@@ 674
Dad@@ 674
Sana 674
Standard 674
Unix 674
Village 674
aber 674
aniz@@ 674
hiro 674
1595 673
3.0 673
Haj@@ 673
Kids 673
Reichs@@ 673
Side 673
TT@@ 673
XV 673
hici@@ 673
CO2 672
Ede@@ 672
Hos@@ 672
Ptolemaios 672
board 672
dom 672
ony 672
sportif 672
tö@@ 672
1827 671
480 671
Bilg@@ 671
Heinz 671
Kis@@ 671
Manz@@ 671
Sist@@ 671
idas 671
olig@@ 671
oris 671
ė 671
Hindu@@ 670
country 670
down 670
elim@@ 670
ikawa 670
isme 670
Erich 669
Mikhail 669
Park@@ 669
annis 669
eks 669
Aya 668
Vy@@ 668
Works 668
asma 668
kiz 668
yang 668
Hamas 667
afaa 667
veti 667
Am 666
Düsseldorf 666
Konservat@@ 666
Lip@@ 666
Schumacher 666
Blake 665
Chuck 665
Forum 665
Fuj@@ 665
Heavy 665
Jeremy 665
Kro@@ 665
Nina 665
Sting 665
Wi 665
emann 665
endir 665
kez@@ 665
melan@@ 665
meteor@@ 665
sta@@ 665
è 665
ère 665
Atlantic 664
Chaplin 664
Crown 664
Donetsk 664
auri 664
131 663
18,@@ 663
Agr@@ 663
Planet 663
Woods 663
alab@@ 663
edeyse 663
elo 663
hp 663
market@@ 663
mos@@ 663
sana 663
43@@ 662
Bub@@ 662
Century 662
DIS 662
Edmund 662
ICAO 662
Robbie 662
Salticidae 662
Ster@@ 662
aler@@ 662
aliye@@ 662
atos 662
cuy@@ 662
evre 662
folk 662
lop 662
tat 662
64@@ 661
CNN 661
Come 661
Kaw@@ 661
Mount 661
Rostov 661
Vilnius 661
Werner 661
aden@@ 661
aldo 661
ardo 661
eza 661
gate 661
odor 661
260 660
Anast@@ 660
Cheshire 660
Essex 660
Pete 660
SN@@ 660
Todd 660
cid 660
а 660
Ferguson 659
Gol 659
Torres 659
anka 659
ful 659
past@@ 659
rab@@ 659
CI 658
Metropolitan 658
Run@@ 658
dorf 658
formu@@ 658
igu@@ 658
jede 658
1808 657
78@@ 657
Christ@@ 657
MW 657
Marina 657
McLaren 657
agi@@ 657
luc@@ 657
ofil@@ 657
Fe 656
Inc. 656
Rhode 656
Service 656
paralel@@ 656
sw@@ 656
Blan@@ 655
How 655
Hz 655
Martin@@ 655
Milton 655
aea 655
coin 655
kompak@@ 655
romanti@@ 655
Fem@@ 654
Sever@@ 654
Thr@@ 654
Merk@@ 653
O2 653
bak 653
tun 653
web@@ 653
1.8@@ 652
Avustur@@ 652
Ball 652
Berry 652
Bridge 652
Dre 652
Map@@ 652
alternati@@ 652
ange 652
bizi 652
ft@@ 652
onal@@ 652
prol@@ 652
uni@@ 652
yst@@ 652
yya 652
Basketball 651
Bennett 651
EFL 651
Eh@@ 651
Magnus 651
cari@@ 651
deren 651
elli@@ 651
patent 651
veter@@ 651
22. 650
Andrey 650
Kid 650
Technology 650
Virgin 650
akov 650
auer 650
kilome@@ 650
petrol@@ 650
trans 650
1300 649
Blues 649
Fy@@ 649
Hut@@ 649
Talk 649
büyükl@@ 649
kupan@@ 649
unt@@ 649
ï@@ 649
1400 648
300.000 648
Fig@@ 648
Golf 648
Sa 648
Site 648
Zab@@ 648
eu@@ 648
fo 648
118 647
1786 647
Call@@ 647
Io@@ 647
Nun@@ 647
andinav@@ 647
ovsk 647
radi@@ 647
vu@@ 647
50. 646
Caesar 646
Friends 646
Gall@@ 646
Habitat 646
Hart@@ 646
Ja@@ 646
LG 646
Odessa 646
VA 646
cm. 646
hu 646
programa 646
rand@@ 646
ruz 646
sid@@ 646
uj@@ 646
İt@@ 646
Ivan@@ 645
Jake 645
Kingston 645
Kne@@ 645
Us 645
Wesley 645
eten@@ 645
ograf 645
skiy 645
Are@@ 644
Augusta 644
Cun@@ 644
Córdoba 644
Dame 644
He 644
Luigi 644
PR@@ 644
ux 644
App 643
Rog@@ 643
führer 643
karahisar 643
Celtics 642
Eth@@ 642
Glory 642
Monster 642
ball 642
edel@@ 642
gios 642
hib@@ 642
Again 641
Levi 641
Miss@@ 641
Reed 641
att 641
fur@@ 641
volkan@@ 641
Jong 640
King@@ 640
Sophia 640
aku@@ 640
kham 640
sponsor 640
31.@@ 639
Major 639
Palace 639
başlang@@ 639
eal 639
insk 639
mont@@ 639
uan 639
1.6 638
1.7@@ 638
Hill@@ 638
Naf@@ 638
arov 638
ionale 638
გ@@ 638
1806 637
BO@@ 637
Bora 637
García 637
Pilot 637
Stevens 637
mond 637
ticus 637
Amir@@ 636
Bern 636
China 636
trick 636
ört 636
AO@@ 635
Gene 635
IF 635
Karen 635
Leone 635
Mozambi@@ 635
ape 635
lies 635
log 635
oti 635
ril@@ 635
zah@@ 635
ös@@ 635
1810 634
Alexandre 634
Mau@@ 634
Wanderers 634
gara 634
sec@@ 634
AI 633
Airways 633
Malmö 633
Motors 633
Oran@@ 633
aos 633
kular@@ 633
tit 633
165 632
Ba 632
Connor 632
Kiy@@ 632
NT@@ 632
Swe@@ 632
bei 632
ges 632
ste 632
vari@@ 632
App@@ 631
DR@@ 631
Kamer@@ 631
Laurent 631
Lille 631
Metallica 631
bugün@@ 631
eca 631
AV 630
CPU 630
Tang@@ 630
Tesla 630
UV 630
agram 630
andal@@ 630
diki 630
kari 630
ński 630
126 629
Chan 629
Emin@@ 629
Ferr@@ 629
Jesse 629
eko 629
harmon@@ 629
ía 629
1.500 628
Deportivo 628
emo 628
facto 628
klar@@ 628
kola 628
wer@@ 628
Dram@@ 627
German@@ 627
dh@@ 627
rati@@ 627
tah 627
ısız@@ 627
DH@@ 626
Dante 626
N.@@ 626
Put@@ 626
Taz@@ 626
Test@@ 626
Voice 626
Wak@@ 626
felse@@ 626
pent@@ 626
yed@@ 626
Alf@@ 625
Cus@@ 625
Strasbourg 625
Tabl@@ 625
Wy@@ 625
Zap@@ 625
anni 625
com 625
ić 625
robot 625
tie 625
tom 625
Call 624
From 624
Wells 624
dor 624
giz 624
jiang 624
132 623
155 623
19@@ 623
Age 623
Beautiful 623
Disk@@ 623
Jag@@ 623
Klinik 623
Köl@@ 623
Oro@@ 623
Pall@@ 623
Rogers 623
Spo@@ 623
Theodor 623
emli 623
iger 623
ingi 623
orus 623
sedi@@ 623
1813 622
Children 622
EX@@ 622
Fati@@ 622
Owen 622
Roth@@ 622
Set@@ 622
Siena 622
ank 622
apur 622
cun@@ 622
ems 622
enton@@ 622
fiber 622
tius 622
vern@@ 622
Anak@@ 621
Bass@@ 621
DA@@ 621
Dar 621
Hubble 621
Jon@@ 621
Lil 621
Norte 621
water 621
Eduard 620
Proc@@ 620
Sing@@ 620
elec@@ 620
imoto 620
kete 620
tekli@@ 620
175 619
66@@ 619
Cartoon 619
Chil@@ 619
Thor 619
andra 619
mart 619
1.6@@ 618
Agri@@ 618
EC 618
Fall 618
Samp@@ 618
last@@ 618
libre@@ 618
1819 617
Alber@@ 617
Camp 617
Fermi 617
Gauss 617
Kahraman@@ 617
Machine 617
Mine 617
abor@@ 617
tri 617
147 616
Fener@@ 616
Powell 616
Software 616
bars 616
Canada 615
Gig@@ 615
Melodi@@ 615
Place 615
Soc@@ 615
debil@@ 615
ogram 615
rus@@ 615
Bağım@@ 614
DB 614
Deh@@ 614
Duke 614
Martha 614
Vig@@ 614
Whe@@ 614
atu 614
batt@@ 614
hler 614
inhibit@@ 614
23. 613
Aragon 613
Here 613
Nakamura 613
nur 613
sag@@ 613
Butler 612
Gibson 612
Gom@@ 612
III. 612
Lun@@ 612
Neville 612
Phillips 612
ally 612
dete 612
vert 612
19,@@ 611
Amp@@ 611
Dog@@ 611
Dy@@ 611
Lal@@ 611
Seth 611
c. 611
vers@@ 611
yalist 611
yr 611
ր@@ 611
FOX 610
Greg 610
Heaven 610
Lynn 610
Seven 610
Stan 610
Zeh@@ 610
acker 610
yes 610
ستان 610
24. 609
Angela 609
DF 609
Nickelodeon 609
Un 609
phus 609
urus 609
ę@@ 609
1793 608
Anth@@ 608
Cay@@ 608
Clarke 608
Heli@@ 608
Hughes 608
Lev 608
ansen 608
gani 608
ican 608
quot 608
Alpha 607
Basket 607
Bolton 607
MSN 607
Mills 607
bes 607
egan 607
falt 607
Ain 606
Dör@@ 606
Hert@@ 606
Neill 606
Rat@@ 606
Sark@@ 606
bia 606
cc 606
izu 606
minim@@ 606
nis 606
opatra 606
pac@@ 606
roy@@ 606
trof@@ 606
yedir 606
CL 605
CM@@ 605
[...]
