. 1
, 0.8681458609076474
&apos; 1
ve 1
&quot; 1
bir 1
) 0.9559477678073192
( 0.9552957099857459
da 1
de 0.46628905344566673
@-@ 0.6090782078291086
olarak 1
ile 1
için 1
in 0.2971934788195065
olan 1
bu 1
’ 1
ın 1
yılında 1
tarafından 1
en 0.4739988563188631
Bu 1
sonra 1
; 1
: 0.9113980058237514
ya 1
nin 1
nın 1
daha 1
lar 1
ilk 1
ları 1
ler 1
un 0.785135227284964
a 0.18846558450568718
te 1
i 1
an 0.6801946184489595
ise 1
yer 1
ı 1
gibi 1
leri 1
e 1
çok 1
arasında 1
kadar 1
bağlı 1
den 0.8498868951949552
veya 1
= 1
iki 1
büyük 1
inin 1
1 1
göre 1
ye 1
dan 1
oldu 1
ç@@ 1
lerin 1
ların 1
bulunan 1
&#124; 1
al@@ 1
2 1
ası 1
k@@ 1
dir 1
Türkiye 1
olduğu 1
u 1
ini 1
d 1
- 1
ş@@ 1
ta 1
an@@ 1
tarihinde 1
ının 1
ma 1
y@@ 1
il@@ 1
alan 1
ine 1
adı 1
la 0.12269513246558611
li 1
birlikte 1
ak 1
at@@ 1
nde 1
! 1
ını 1
esi 1
S@@ 1
me 1
4 1
km 1
ak@@ 1
diğer 1
3 1
ne 1
/ 0.8777215811628527
etti 1
K@@ 1
nda 1
aynı 1
lı 1
Türk 1
ına 1
lerini 1
ar@@ 1
ar 1
daki 1
at 0.36935612486006153
le 0.2581754291702343
lik 1
adlı 1
yıl 1
yeni 1
align 1
center 1
deki 1
İ@@ 1
k 1
et@@ 1
her 1
aldı 1
T@@ 1
t@@ 1
inde 1
Y@@ 1
l@@ 1
lerinin 1
on 0.22314298890767115
ancak 1
son 0.8350351359492526
ik 1
ıl@@ 1
ında 1
in@@ 1
el 0.2257459189751488
nun 1
o 1
İstanbul 1
s@@ 1
ad@@ 1
karşı 1
ol@@ 1
D@@ 1
Avrupa 1
larının 1
mak 1
ır 1
önemli 1
Dünya 1
&amp; 1
% 0.7976492811381292
el@@ 1
isi 1
larda 1
lara 1
c@@ 1
G@@ 1
eski 1
ek@@ 1
larını 1
başladı 1
Ç@@ 1
z@@ 1
al 0.6403167367721535
önce 1
d@@ 1
ilçesine 1
lere 1
m@@ 1
eden 1
H@@ 1
Ş@@ 1
kal@@ 1
er 0.3697672553380707
ik@@ 1
ay@@ 1
A@@ 1
et 0.18807889097527916
ü 1
şekilde 1
yap@@ 1
olduğunu 1
E@@ 1
lık 1
olmuştur 1
yapılan 1
g@@ 1
The 0.14989835945608443
5 1
B@@ 1
eler 1
üzere 1
lerde 1
as@@ 1
az 1
na 1
içinde 1
Üniversitesi 1
üzerine 1
M@@ 1
mek 1
ün 1
iş@@ 1
vardır 1
6 1
ama 1
Bir 1
birçok 1
kez 1
ver@@ 1
im 0.4259902927372039
ması 1
em@@ 1
maya 1
lerine 1
ana 1
am@@ 1
Mart 1
di 1
kabul 1
larına 1
Ayrıca 1
iler 1
im@@ 1
10 1
larında 1
lerinde 1
m 1
inden 1
iyi 1
sahip 1
Mayıs 1
il 0.6463078758760002
eli 1
en@@ 1
P@@ 1
devam 1
aş@@ 1
Ocak 1
aları 1
er@@ 1
üç 1
ikinci 1
ıdır 1
ından 1
eleri 1
iz@@ 1
ay 1
Kasım 1
gelen 1
2010 1
fazla 1
tüm 1
“ 0.6045707668370055
yaptı 1
ım 1
O@@ 1
Eylül 1
it 0.416157968357457
Ekim 1
enin 1
lerinden 1
ten 1
” 1
ev@@ 1
v@@ 1
alı 1
ek 1
ardından 1
ilinin 1
unu 1
kon@@ 1
Ar@@ 1
yüksek 1
Haziran 1
kendi 1
kar@@ 1
Nisan 1
unun 1
ABD 1
Osmanlı 1
Temmuz 1
aya 1
ı@@ 1
ir@@ 1
ileri 1
ki 1
Daha 1
bazı 1
tan 1
olmak 1
Ağustos 1
Amerika 1
tek 1
h@@ 1
ır@@ 1
biri 1
Aralık 1
meye 1
arak 1
hem 1
ılar 1
sırasında 1
una 0.515735242682024
üzerinde 1
farklı 1
gel@@ 1
ayı 1
olup 1
az@@ 1
miştir 1
Ancak 1
mesi 1
ti@@ 1
görev 1
ir 1
anın 1
n@@ 1
zaman 1
r@@ 1
oğlu 1
V@@ 1
ortaya 1
f@@ 1
C@@ 1
ü@@ 1
z 1
aç@@ 1
ada 1
&#93; 1
yılları 1
İlk 1
Şubat 1
Birleşik 1
of 0.034272628034330926
&#91; 1
yılı 1
N@@ 1
colspan 1
F@@ 1
çeşitli 1
Kar@@ 1
Savaşı 1
bulunmaktadır 1
p@@ 1
geri 1
lardan 1
küçük 1
12 1
us 1
nedeniyle 1
15 1
Z@@ 1
on@@ 1
7 1
boyunca 1
Al@@ 1
geç@@ 1
kap@@ 1
yaz@@ 1
su 0.5357546144304248
L@@ 0.8315956479104919
yi 1
R@@ 0.9302481696337095
t 0.8957352929786752
alar 1
edil@@ 1
– 0.3036645761314057
yeniden 1
dır 1
lerden 1
ık 1
20 1
zamanda 1
lu 1
liği 1
8 1
b@@ 1
di@@ 1
larından 1
2012 1
ur 1
idi 1
2020 1
sadece 1
um 0.9033384972260923
En 0.48057710494583505
s 0.4574867620997348
unda 1
eye 1
miş 1
edilen 1
yaklaşık 1
lan@@ 1
göster@@ 1
2011 1
2009 1
kur@@ 1
ul@@ 1
is@@ 1
mektedir 1
ın@@ 1
ur@@ 1
edildi 1
av@@ 1
ül@@ 1
it@@ 1
am 0.5825482820579525
II 1
es@@ 1
süre 1
p 1
genel 1
esine 1
nüfusu 1
ış@@ 1
film 1
baş@@ 1
iy@@ 1
onu 1
ısı 1
An@@ 1
man 0.9811773101962092
uzun 1
ti 1
yerine 1
ede 1
2008 1
ıyla 1
ken 1
köy 1
iş 1
11 1
2014 1
re@@ 0.5068280423063125
Tarihçe 1
ele 1
onun 1
merkezine 1
dı 1
eş@@ 1
gün 1
larla 1
â@@ 1
anı 1
Almanya 1
ara 1
l 0.5987296018102058
rağmen 1
Fransa 1
or@@ 1
ç 1
masına 1
asyon 1
der@@ 1
30 1
2015 1
9 1
asında 1
2013 1
ili 1
man@@ 1
16 1
indeki 1
Genel 1
bulun@@ 1
sür@@ 1
eri 1
Coğrafya 1
yı 1
ıp 1
ait 1
mıştır 1
yaptığı 1
bulunur 1
kişi 1
altında 1
2007 1
2016 1
ilgili 1
kısa 1
dahil 1
İngiltere 1
elde 1
Alman 1
ım@@ 1
beri 1
ür 1
masını 1
bul@@ 1
bil@@ 1
Güney 1
2006 1
par@@ 1
Ankara 1
edilmiştir 1
New 0.6928871422211111
genellikle 1
î 1
Yeni 1
almıştır 1
ayrıca 1
ter@@ 1
esinde 1
lerle 1
özel 1
the 0.014073589291862606
Ak@@ 1
ed@@ 1
y 0.09438173968799525
esini 1
İngiliz 1
doğru 1
imi 1
Kuzey 1
Amerikan 1
acak 1
19 1
uzaklıktadır 1
ot@@ 1
çalış@@ 1
U@@ 1
takım 1
kazandı 1
var@@ 1
j@@ 1
sa 0.8286456648203326
maktadır 1
14 1
.@@ 1
ab@@ 0.9377994817900261
Rusya 1
başka 1
le@@ 1
eti 1
ah@@ 1
eder 1
erek 1
13 1
arı 1
ılan 1
dört 1
18 1
esinin 1
lama 1
ni 1
O 1
kan@@ 1
çek@@ 1
merkezi 1
tir 1
li@@ 1
Er@@ 1
os 0.771868356699349
2018 1
adıyla 1
2017 1
ağı 1
os@@ 1
0 1
tan@@ 1
tı 1
si 1
as 0.09146956771257042
Roma 1
dil@@ 1
um@@ 1
tarihi 1
Cumhuriyeti 1
diği 1
özellikle 1
17 1
ünü 1
müzik 1
is 0.08047538477159452
arasındaki 1
ındaki 1
lığı 1
tut@@ 1
ık@@ 1
un@@ 0.6000391794729529
i@@ 1
kullan@@ 1
mış 1
ser@@ 1
25 1
ş 1
tür 1
şu 1
bilinen 1
asına 1
len@@ 1
_ 1
yer@@ 1
de@@ 1
tekrar 1
Birliği 1
millî 1
Doğu 1
dön@@ 1
sahiptir 1
iyle 1
birkaç 1
te@@ 1
oluşan 1
gör@@ 1
ona 1
çi 1
2005 1
sonunda 1
kullanılan 1
2019 1
Büyük 1
ok@@ 1
e@@ 0.7639156361485834
Kupası 1
om@@ 1
2000 1
ıldı 1
sırada 1
ımı 1
bir@@ 1
çıkar@@ 1
hakkında 1
İtalya 1
ıcı 1
devlet 1
ilen 1
luk 1
yapan 1
id@@ 1
a@@ 1
verdi 1
yar@@ 1
ev 1
ılmış 1
olması 1
olmayan 1
uy@@ 1
ör@@ 1
lt 1
ünün 1
asını 1
o@@ 0.8809178261910603
say@@ 1
mayı 1
A 0.40407398851198667
kat@@ 1
Aynı 1
Fransız 1
Rus 1
üne 1
çıkan 1
ış 1
çık@@ 1
itibaren 1
anlar 1
Paşa 1
undan 1
oyuncu 1
ka 1
yan@@ 1
abilir 1
Çin 1
sıra 1
almaktadır 1
etmiştir 1
21 1
gt 1
f 1
ün@@ 1
kol@@ 1
tak@@ 1
Baş@@ 1
ğ@@ 1
2004 1
geldi 1
inşa 1
yol 1
idir 1
öl@@ 1
kay@@ 1
ist@@ 1
milyon 1
savaş 1
adan 1
Devletleri 1
sezonunda 1
grup 1
kullanıl@@ 1
Mar@@ 1
çıktı 1
lam@@ 1
yakın 1
şehir 1
yapıl@@ 1
iç@@ 1
ıları 1
yapmıştır 1
adını 1
ö@@ 1
24 1
Film 1
altı 1
geliş@@ 1
or 0.23094278241860547
yol@@ 1
yaş@@ 1
kazan@@ 1
22 1
gir@@ 1
h 1
I. 1
yon 1
ere 1
ist 0.2227489928177837
Köy 1
J@@ 0.8222304143314486
ıt@@ 1
se 0.14439012511467053
döneminde 1
etmek 1
yas@@ 1
katıl@@ 1
bak@@ 1
düş@@ 1
ac@@ 1
eyi 1
neden 1
26 1
mahalledir 1
takımı 1
siz 1
spor 1
alt@@ 1
yanı 1
bin 1
Partisi 1
kır@@ 1
uz@@ 1
verilen 1
Amerikalı 1
dışında 1
kadın 1
tam 1
alır 1
teki 1
itibarıyla 1
mesine 1
son@@ 1
af@@ 1
mesini 1
ılmıştır 1
den@@ 1
ecek 1
asının 1
ilerin 1
toplam 1
ılır 1
yen@@ 1
sonucu 1
od@@ 1
çe 1
ap@@ 1
dolayı 1
yayın@@ 1
saldır@@ 1
kor@@ 1
futbol 1
nüfus 1
ince 1
kes@@ 1
rol 1
tür@@ 1
eğitim 1
ca 1
ip 1
Batı 1
23 1
aldığı 1
yarış@@ 1
ılması 1
Ligi 1
ey@@ 1
hav@@ 1
tur@@ 1
I@@ 0.86204594009007
sayımına 1
şarkı 1
oy@@ 1
ulaş@@ 1
ali 1
tem@@ 1
se@@ 1
kariyeri 1
tar@@ 1
savaş@@ 1
dönemde 1
ce 0.681212837459134
udur 1
Anadolu 1
Kur@@ 1
sayısı 1
bas@@ 1
bağ@@ 1
geçir@@ 1
kab@@ 1
Öz@@ 1
yılından 1
üst 1
York 0.9206411427206754
manın 1
Ulusal 1
olur 1
pek 1
tanım@@ 1
r 1
İmparatorluğu 1
belir@@ 1
du 0.12358898024264192
Kon@@ 1
yle 1
Şarkı 1
üm@@ 1
Ödülü 1
anda 1
gelir 1
and 0.020043527672366532
nden 1
2002 1
temsil 1
ıyor 1
us@@ 1
yıl@@ 1
ut 1
yaşında 1
27 1
uç@@ 1
ildi 1
2021 1
yıllarında 1
28 1
art@@ 1
1990 1
üçüncü 1
n 0.7724020353747407
plan@@ 1
Uluslararası 1
karar 1
yan 1
görüş@@ 1
anlat@@ 1
Bunun 1
edilir 1
Orta 1
sel 1
sezon 1
alan@@ 1
ağ@@ 1
Ali 1
ayrıl@@ 1
Her 1
insan 1
fakat 1
2003 1
and@@ 1
eb@@ 1
sağ@@ 1
dur@@ 1
ö 1
kurulan 1
ayında 1
doğdu 1
ür@@ 1
2001 1
Or@@ 1
Lig 1
John 0.7790568078317349
kalan 1
katıldı 1
dünya 1
yapımı 1
düşün@@ 1
kan 1
ilik 1
alt 1
oloji 1
din@@ 1
isimli 1
ic@@ 1
hemen 1
v 1
sınır@@ 1
ıkları 1
aların 1
Ö@@ 1
iler@@ 1
askeri 1
ettiği 1
diz@@ 1
açık 1
seç@@ 1
temel 1
ği 1
sonraki 1
ri@@ 1
beraber 1
ut@@ 1
aki 1
ez@@ 1
leme 1
çoğu 1
uluslararası 1
Ser@@ 1
NGC 1
konuş@@ 1
yet@@ 1
doğ@@ 1
Azerbaycan 1
ırlar 1
100 1
dur 1
met@@ 1
ler@@ 1
mi 1
kaldı 1
har@@ 1
uş@@ 1
göz@@ 1
bırak@@ 1
orta 1
köydür 1
duy@@ 1
beş 1
ıyordu 1
futbolcudur 1
leriyle 1
tamam@@ 1
Parti 1
yarat@@ 1
tik 1
ifade 1
albümü 1
lem@@ 1
alın@@ 1
Sovyet 1
bin@@ 1
ör 1
üz@@ 1
değiş@@ 1
yine 1
ra 1
oluş@@ 1
filmi 1
gi@@ 1
bulunduğu 1
ani 1
oranı 1
iç 1
ov 1
dev@@ 1
İyi 1
atı 1
yüz@@ 1
kaz@@ 1
geniş 1
uk 1
Şampiyonası 1
tin 1
Afrika 1
irler 1
mer@@ 1
lar@@ 1
geçen 1
iz 1
29 1
Ad@@ 1
der 0.03888636317071782
ilçe 1
eme 1
ci 1
sen@@ 1
yerel 1
ünde 1
düzenlenen 1
biridir 1
elerin 1
ia 0.8780046586652217
Paris 1
ıs@@ 1
ilir 1
El@@ 1
u@@ 1
eğ@@ 1
mesiyle 1
bi@@ 1
tasar@@ 1
meyi 1
mem@@ 1
kaç@@ 1
Ay@@ 1
ıydı 1
County 0.9619046939186865
siyasi 1
uk@@ 1
kullanılır 1
31 1
W@@ 0.48172854360579714
üyesi 1
b 1
Kal@@ 1
si@@ 1
Devlet 1
tek@@ 1
isinin 1
burada 1
resmi 1
İn@@ 1
yıllarda 1
es 0.113568777482715
formula 0.8010341612927759
lik@@ 1
İran 1
ız 1
transfer 1
izin 1
gol 1
sat@@ 1
ilmiş 1
getir@@ 1
masının 1
eni 1
mas@@ 1
var 1
herhangi 1
ro@@ 1
yay@@ 1
B 1
ad 1
As@@ 1
sayıda 1
vardı 1
içerisinde 1
mak@@ 1
öz@@ 1
1999 1
mu@@ 1
Bar@@ 1
ılı 1
karşılaş@@ 1
isini 1
pl@@ 1
erkek 1
Kor@@ 1
gönder@@ 1
kız@@ 1
hazır@@ 1
em 1
yak@@ 1
ina 1
usu 1
abil@@ 1
yon@@ 1
yıllık 1
oynadı 1
grubu 1
sezonu 1
Nüfus 1
ag@@ 0.848871204560242
sar@@ 1
1980 1
kim@@ 1
televizyon 1
arası 1
Bey 1
sistemi 1
İngilizce 1
bütün 1
anlamına 1
haline 1
res@@ 1
MÖ 1
tab@@ 1
ıda 1
boy@@ 1
Gö@@ 1
Hay@@ 1
larıyla 1
lanmış 1
ünden 1
zor@@ 1
masıyla 1
yerleş@@ 1
sistem@@ 1
ünlü 1
Fakat 1
yaşayan 1
Har@@ 1
Diğer 1
del@@ 1
hal@@ 1
öldü 1
başarılı 1
mücadele 1
başar@@ 1
men 0.8878521806398478
kaldır@@ 1
yanında 1
per@@ 1
amp 0.61077996408289
ıya 1
ks@@ 1
andı 1
kurul@@ 1
ıların 1
genç 1
girdi 1
Mısır 1
lanan 1
içer@@ 1
maçta 1
ça 1
ederek 1
olabilir 1
koy@@ 1
of@@ 1
başlayan 1
madan 1
ilan 1
dizi 1
forma 1
oluştur@@ 1
oldukça 1
çalıştı 1
yılına 1
sahibi 1
C 0.9016423719648974
başına 1
konusunda 1
yüzyılda 1
dönüş@@ 1
ışı 1
form@@ 1
lü 1
eyaletinde 1
muş 1
teknik 1
iken 1
ne@@ 1
edilmiş 1
değil 1
1998 1
isti@@ 1
1992 1
bunun 1
düzen@@ 1
taki 1
başkanı 1
anlaş@@ 1
çal@@ 1
çocuk 1
sosyal 1
yarı 1
görün@@ 1
pat@@ 1
ec@@ 1
mişti 1
metre 1
ülke 1
İkinci 1
günü 1
evi 1
san@@ 1
yüksel@@ 1
tespit 1
yat@@ 1
van 1
değiştir@@ 1
üs@@ 1
savun@@ 1
ki@@ 1
İspanya 1
sal 1
geçti 1
oyun@@ 1
şark@@ 1
landı 1
men@@ 1
gün@@ 1
çı 1
deniz 1
ko@@ 1
taş@@ 1
gen@@ 1
dönem 1
bel@@ 1
belediye 1
ön@@ 1
Av@@ 1
bit@@ 1
diğini 1
sak@@ 1
veren 1
kul@@ 1
I 0.397722412891276
ans 0.5559591287573424
50 1
amacıyla 1
ular 1
isine 1
git@@ 1
hiçbir 1
maları 1
adet 1
başlamıştır 1
üler 1
Kö@@ 1
lanır 1
kad@@ 1
liğini 1
söz 1
sonucunda 1
tr@@ 0.6239675122000035
Bakanlığı 1
güçlü 1
kl@@ 1
Japonya 1
Ü@@ 1
yazar 1
Tak@@ 1
eser@@ 1
ber@@ 1
bo@@ 1
1996 1
ön 1
ük@@ 1
albüm 1
ri 1
ıc@@ 1
leş@@ 1
ayan 1
isinde 1
ndan 1
benzer 1
attı 1
1991 1
Bel@@ 1
1994 1
aj@@ 1
1995 1
hareket 1
ton 0.9582338188609624
maz 1
program@@ 1
g 0.7909650253723067
Fakültesi 1
j 1
asyon@@ 1
tu 1
1993 1
1997 1
Par@@ 1
hava 1
erken 1
ismi 1
hizmet 1
lenen 1
tarih@@ 1
yana 1
may@@ 1
değildir 1
yaygın 1
yayınlanan 1
ülkenin 1
alanı 1
şehrin 1
olojik 1
be@@ 0.7133096498030772
Oy 1
Yunan 1
başında 1
Per@@ 1
dığı 1
üy@@ 1
sona 1
yık@@ 1
bat@@ 1
önceki 1
ilmiştir 1
esinden 1
üş@@ 1
yani 1
erin 1
ol 1
nı 1
Ol@@ 1
Brezilya 1
to@@ 1
mezun 1
ortak 1
parç@@ 1
ant@@ 1
dağ@@ 1
batı 1
etmektedir 1
dü 1
1970 1
takım@@ 1
sır@@ 1
parçası 1
bilim 1
mez 1
destek@@ 1
lo@@ 0.9658007194576949
ici 1
İsrail 1
han 1
iddia 1
sel@@ 1
karar@@ 1
yaşam@@ 1
acağı 1
şeklinde 1
yön@@ 1
oyun 1
veril@@ 1
elik 1
to 0.019958052569723137
mez@@ 1
uygun 1
seçildi 1
Sultan 1
bilgi 1
Ev@@ 1
ilmesi 1
Ne@@ 1
tamamen 1
bulundu 1
meydana 1
Asya 1
Son 1
nedenle 1
İzmir 1
meden 1
ark@@ 1
diye 1
güç@@ 1
ley@@ 1
Bazı 1
re 0.8377741773090954
Bir@@ 1
sah@@ 1
içeren 1
yalnızca 1
üdür 1
Suriye 1
edi 1
üs 1
İl@@ 1
br 1
kıy@@ 1
1960 1
tah@@ 1
ayrı 1
öldür@@ 1
Hal@@ 1
asyonu 1
elerde 1
sonrasında 1
müş 1
üsü 1
cm 1
babası 1
Eski 1
hak@@ 1
açık@@ 1
ulusal 1
Bur@@ 1
ük 1
x 0.9762931458325901
ırken 1
Kaliforniya 1
halk 1
eleştir@@ 1
ova 1
TV 1
alarını 1
ken@@ 1
Bizans 1
mekte 1
Londra 1
aş 1
sun@@ 1
tel@@ 1
du@@ 1
kaynak@@ 1
İslam 1
listesi 1
iri 1
kom@@ 1
ul 1
ans@@ 1
Nehri 1
gü@@ 1
aday 1
Mehmet 1
Man@@ 1
ci@@ 1
² 1
alarak 1
yüzyılın 1
dil 1
parti@@ 1
masında 1
Se@@ 1
üzerinden 1
kem@@ 1
konum@@ 1
piyasaya 1
mıştı 1
ni@@ 1
ekonomik 1
D 1
ene 1
ge 1
bile 1
Japon 1
ıktan 1
ite 1
alarda 1
ger@@ 1
mad@@ 1
düşük 1
Başkanı 1
İki 1
sin@@ 1
sık 1
me@@ 1
malar 1
kardeşi 1
üm 1
İtalyan 1
araştır@@ 1
gerçek 1
ız@@ 1
Ber@@ 1
bar@@ 1
karakter@@ 1
ail@@ 1
ke 1
suç@@ 1
î@@ 1
birleş@@ 1
mi@@ 1
sız 1
elerinin 1
giy@@ 1
K 1
inan@@ 1
gem@@ 1
söz@@ 1
leyen 1
Mustafa 1
Futbol 1
bur@@ 1
hastal@@ 1
bi 1
Krallık 1
öğren@@ 1
+ 1
uğr@@ 1
bağımsız 1
okul@@ 1
ib@@ 1
kontrol 1
yayınlandı 1
duğu 1
başı 1
Ter@@ 1
geliştir@@ 1
Di@@ 1
bölgesinde 1
yardım 1
verildi 1
ku@@ 1
profesyonel 1
tur 1
ze 1
Polonya 1
dik@@ 1
lanması 1
bek@@ 1
Bil@@ 1
tu@@ 1
ebilir 1
uc@@ 1
st@@ 0.49782116794112563
Millî 1
En@@ 1
aca 1
if@@ 1
40 1
sor@@ 1
ığını 1
İş@@ 1
1989 1
Avusturya 1
sonrası 1
Der@@ 1
kendisine 1
olmasına 1
ap 1
merkez@@ 1
serbest 1
alarının 1
çiz@@ 1
kariyerine 1
Kay@@ 1
Ch@@ 0.5341512145213201
op@@ 0.8306583503249167
ınca 1
bölge 1
bilinir 1
tip 1
acağını 1
meleri 1
doğal 1
mar@@ 1
kurulmuştur 1
Yahudi 1
El 0.23390634614510017
masından 1
yönünde 1
hale 1
Arap 1
kuş@@ 1
birinci 1
tiği 1
-@@ 0.971864464852382
Kol@@ 1
dir@@ 1
up 0.349786107171826
osu 1
maç@@ 1
kısmı 1
layan 1
Örneğin 1
uyar@@ 1
ard@@ 1
ah 1
yardımcı 1
modern 1
kö@@ 1
ih@@ 1
uz 1
ilere 1
işlem@@ 1
anlam@@ 1
Eurovision 1
sil@@ 1
do@@ 1
lanmıştır 1
film@@ 1
han@@ 1
bölümü 1
kam@@ 1
ül 1
ıl 1
Su@@ 1
Türkçe 1
Sovyetler 1
Bal@@ 1
hat@@ 1
dünyanın 1
köy@@ 1
yapıldı 1
Be@@ 0.9256976962369164
kuruldu 1
yorum@@ 1
tır 1
dav@@ 1
durum 1
verdiği 1
maçında 1
ıt 1
başlar 1
amı 1
ığında 1
video 1
acı 1
doğu 1
list@@ 1
Buna 1
türü 1
Merkezi 1
Yüksek 1
günümüzde 1
ey 1
ov@@ 1
maç 1
oluşur 1
değer@@ 1
ke@@ 1
biy@@ 1
tü@@ 1
muştur 1
uygulam@@ 1
Yunanistan 1
çalışan 1
makta 1
örü 1
olsa 1
su@@ 1
laş@@ 1
vur@@ 1
imleri 1
Müzik 1
kuruluş@@ 1
De@@ 1
altın 1
tarihli 1
hızlı 1
kav@@ 1
dal@@ 1
ye@@ 1
Kan@@ 1
yazıl@@ 1
yok 1
bunu 1
sanat 1
saat 1
etin 1
kas@@ 1
lat@@ 1
ai 1
satın 1
defa 1
dikten 1
istem@@ 1
Mer@@ 1
elem@@ 1
bal@@ 1
Ab@@ 0.6842145659971279
adına 1
elerini 1
olmuş 1
uyla 1
Halk 1
luğu 1
iye 1
Toplam 1
T 1
yönetim 1
ata 1
ilerinin 1
müştür 1
eceğini 1
lük 1
sa@@ 1
Kat@@ 1
dol@@ 1
tal@@ 1
bu@@ 1
Avustralya 1
ing 0.13328106404373008
c 0.5653716658810988
endi 1
tığı 1
kızı 1
mesinden 1
ağır 1
ılık 1
anl@@ 1
1988 1
ladı 1
beyaz 1
ime 1
Bay@@ 1
baş 1
üre@@ 1
Am@@ 1
ığı 1
yapı 1
yapılmıştır 1
iline 1
elerinde 1
alanında 1
ru@@ 1
model@@ 1
diler 1
kent 1
ses 0.3918575453416276
Sar@@ 1
undaki 1
umu 1
ayr@@ 1
iller 1
mek@@ 1
Sh@@ 0.8077038407451262
Ödülleri 1
hafta 1
Fenerbahçe 1
çalışmaları 1
yönelik 1
po@@ 0.7779587171618656
seçim@@ 1
za 1
din 1
Gün@@ 1
irken 1
öne 1
verir 1
û@@ 1
zorunda 1
dar@@ 1
On@@ 1
kız 1
kurum@@ 1
? 1
içerir 1
oz@@ 1
ordusu 1
alarına 1
yaklaş@@ 1
şehri 1
Merkez 1
kent@@ 1
durum@@ 1
1987 1
çevir@@ 1
imler 1
Bununla 1
sonuç@@ 1
dar 1
Kom@@ 1
yeri 1
dair 1
bes@@ 1
Galatasaray 1
alarında 1
albüm@@ 1
hareket@@ 1
lık@@ 1
X@@ 1
güç 1
be 0.12489917977665672
ilerek 1
sev@@ 1
yük@@ 1
so@@ 1
dağıt@@ 1
kir@@ 1
Kanada 1
yapmış 1
dem@@ 1
Yarışması 1
şek@@ 1
lardır 1
familyasına 1
ane 1
tartış@@ 1
Re@@ 0.6116258053961549
X 1
mesinin 1
At@@ 1
taşın@@ 1
ılığı 1
ılara 1
değerlendir@@ 1
alm@@ 1
1928 1
yen 1
Bey@@ 1
Mal@@ 1
Doğ@@ 1
bölüm 1
çocuk@@ 1
ığ@@ 1
Hayatı 1
esidir 1
yılının 1
hi@@ 1
dönem@@ 1
para 0.20476903066112254
lardı 1
ham@@ 1
Hav@@ 1
onları 1
lay@@ 1
San 0.5756204532086883
ilç@@ 1
lidir 1
gözlem@@ 1
üzerindeki 1
sinema 1
Ukrayna 1
öner@@ 1
Grup 1
öldürül@@ 1
ob@@ 0.956208742356642
Kıbrıs 1
inç 1
başkenti 1
Ağ@@ 1
şarkıcı 1
döndü 1
Kore 1
iti@@ 1
karşıl@@ 1
yüzyıl 1
meyen 1
1986 1
til@@ 1
dünyaya 1
etkil@@ 1
bilin@@ 1
ılmaktadır 1
büyü@@ 1
FC 1
karşısında 1
eg@@ 0.9051239974920795
boş 1
kendini 1
III 1
min@@ 1
boş@@ 1
kişinin 1
arlar 1
Köyün 1
Tar@@ 1
geleneksel 1
yu 1
S 0.9872613259290194
belirli 1
giriş@@ 1
hay@@ 1
söyledi 1
taraf@@ 1
altına 1
müz@@ 1
çünkü 1
1950 1
tipi 1
sayesinde 1
adır 1
ığına 1
acaktır 1
düz@@ 1
topl@@ 1
iden 1
kiş@@ 1
menin 1
çift@@ 1
aktif 1
edilmektedir 1
yolu 1
yazarı 1
Ordu 1
Le@@ 0.7464284610819604
artık 1
Ver@@ 0.5112930515297054
ren@@ 1
indir@@ 1
Muhammed 1
alara 1
yal@@ 1
Şehir 1
sayı 1
yayın 1
taş 1
elli 1
gerçekleştir@@ 1
idae 1
Hindistan 1
iliği 1
liğe 1
vi@@ 1
Hollanda 1
İsveç 1
dış 1
kurdu 1
sit@@ 1
oy 1
üniversit@@ 1
emi 1
enerji 1
şehir@@ 1
konu 1
Han 1
ses@@ 1
galaksidir 1
mam@@ 1
William 0.8581687219054258
uygulan@@ 1
1984 1
mal@@ 1
Es@@ 1
Süper 1
gerek@@ 1
kardeş@@ 1
Devleti 1
Burada 1
Her@@ 1
eceği 1
şehirdir 1
kut@@ 1
asıyla 1
tanıt@@ 1
üyle 1
maçı 1
1.@@ 1
bey@@ 1
destek 1
Windows 1
oc@@ 0.7973365006991032
kin 1
teor@@ 1
E 1
yum 1
Gürcistan 1
iğ@@ 1
şarkısı 1
ide 1
proj@@ 1
sim@@ 1
single 0.7167284486320409
indedir 1
ilinde 1
yerleşim 1
hiç 1
yazdığı 1
şey 1
2. 1
UEFA 1
1985 1
idari 1
ıma 1
takip 1
söy@@ 1
elerine 1
cinstir 1
Ger@@ 1
bölüm@@ 1
Böylece 1
ölçüde 1
1982 1
kuzey 1
sürekli 1
ılarak 1
görül@@ 1
yoktur 1
Kap@@ 1
Em@@ 1
kazanmıştır 1
iyor 1
cu 1
Tr@@ 0.6700201238853817
deniz@@ 1
Te@@ 1
üç@@ 1
İs@@ 1
kazanan 1
tarihleri 1
ter 0.4350932996262
ışık 1
Tarihi 1
etmeye 1
atik 1
sahn@@ 1
final 0.5803057020625229
Tek@@ 1
devlet@@ 1
üt@@ 1
dışı 1
oynanan 1
çalışma 1
kara 1
tes@@ 1
oyn@@ 1
Deniz 1
paylaş@@ 1
bölgede 1
başlat@@ 1
adında 1
ati 1
he@@ 1
ısına 1
Ahmet 1
ale 0.5595715998142669
silah@@ 1
tiyatro 1
mada 1
ila 1
Irak 1
ğin 1
U 0.9046034409963998
enc@@ 1
halk@@ 1
anc@@ 1
yakın@@ 1
aşağıdaki 1
güney 1
Yaz@@ 1
yerini 1
ısında 1
sol@@ 1
derec@@ 1
sürdür@@ 1
doğrudan 1
ıyı 1
üc@@ 1
por 0.10999315997928762
kendisi 1
Eğitim 1
kitap 1
kr@@ 1
kötü 1
Sal@@ 1
fil@@ 1
gösteren 1
yerleştir@@ 1
ize 1
James 0.8765539650784313
açıklam@@ 1
... 0.831268405715417
rol@@ 1
yazar@@ 1
geçmektedir 1
resmî 1
best@@ 1
ef@@ 1
takımına 1
uma 1
yazdı 1
ette 1
popüler 1
hayvan 1
Bah@@ 1
taşıyan 1
isim@@ 1
Sonuçlar 1
kurulmuş 1
Bölgesi 1
çağ@@ 1
üst@@ 1
enler 1
siz@@ 1
fer@@ 1
1983 1
Sel@@ 1
çevr@@ 1
Yen@@ 1
manı 1
Kurulu 1
Özel 1
anları 1
görevi 1
Kuvvetleri 1
pr@@ 0.7749963552786644
Kaz@@ 1
ayır@@ 1
kil@@ 1
asından 1
yoğun 1
mevcut 1
gerçekleş@@ 1
3@@ 1
Enstitüsü 1
elektrik 1
dam@@ 1
ika 1
can@@ 1
David 0.9248224800697064
seviy@@ 1
güney@@ 1
sınıf@@ 1
ımlar 1
2.@@ 1
Tan@@ 1
ebil@@ 1
Birinci 1
dır@@ 1
leştir@@ 1
ıy@@ 1
oran@@ 1
çekil@@ 1
kullanarak 1
ındadır 1
uş 1
dönemi 1
F 0.9671672823807976
Yaz 1
ha 0.5789488709721203
Berlin 0.9850699651010644
60 1
has@@ 1
Ermeni 1
medi 1
Bo@@ 1
otur@@ 1
gelmiştir 1
va 1
Şehrin 1
ins@@ 1
yedi 1
işi 1
R 0.8630952530663181
halinde 1
ot 1
‘ 1
yılındaki 1
hizmet@@ 1
düğü 1
eşi 1
Bakanı 1
etmiş 1
Cumhuriyet 1
yaşam 1
Altın 1
19. 1
ilçesinde 1
çıkmıştır 1
bölgesi 1
ölç@@ 1
Moskova 1
Bak@@ 1
süren 1
kendisini 1
bü@@ 1
aktar@@ 1
ch@@ 0.25689884080092507
Car@@ 0.6901412373951369
gelen@@ 1
yıldız@@ 1
inc@@ 1
hak 1
Mes@@ 1
Profesyonel 1
liğine 1
nu 1
yağ@@ 1
van@@ 1
etkisi 1
aj 1
ordu 1
tor@@ 1
araştırma 1
bileş@@ 1
Beyaz 1
çift 1
lenmiş 1
Başkanlığı 1
alık 1
donan@@ 1
ıklar 1
dayan@@ 1
madalya 1
hesap@@ 1
kurtar@@ 1
kin@@ 1
grubun 1
bitki 1
1979 1
St@@ 0.6077349962473106
adaki 1
sırasıyla 1
mes@@ 1
landır@@ 1
edi@@ 1
Festivali 1
adam@@ 1
dür 1
sefer@@ 1
Kariyeri 1
Okulu 1
Ma@@ 1
açısından 1
ley 0.6262123943962006
kü@@ 1
Belediye 1
kullanılmaktadır 1
kişilik 1
canlandır@@ 1
bazen 1
elere 1
kasab@@ 1
bildir@@ 1
Michael 1
200 1
lığına 1
şirketi 1
Bor@@ 1
nasıl 1
ran@@ 1
Olimpiyatları 1
karış@@ 1
birleştir@@ 1
gösterir 1
yet 1
deney@@ 1
ten@@ 0.8307164048507084
erini 1
1981 1
Tur@@ 1
kaf@@ 1
La 0.09947757474477914
Müslüman 1
ge@@ 0.5682599532335927
dördüncü 1
bilimsel 1
kültür@@ 1
cihaz@@ 1
eğitimi 1
mahalle 1
kend@@ 1
mon@@ 0.6373868525327193
alındı 1
kayıtlarında 1
Pol@@ 1
M 0.9389893339172538
lu@@ 1
cin@@ 1
yöntem@@ 1
kıl@@ 1
ımını 1
eh@@ 1
açıkladı 1
göç 1
lis@@ 1
olabil@@ 1
annesi 1
Ku@@ 1
şehrinde 1
oyunu 1
lenir 1
Kral 1
kullanılmıştır 1
Yar@@ 1
görev@@ 1
Ko@@ 1
Ordusu 1
sal@@ 1
ümü 1
istan 1
yapmaktadır 1
L 0.6055069475774085
arab@@ 1
yapmak 1
böylece 1
üye 1
Mad@@ 1
Türk@@ 1
verilmiştir 1
ann@@ 1
liğinde 1
amaç@@ 1
vak@@ 1
çöz@@ 1
bulunmuştur 1
Krallığı 1
tir@@ 1
3. 1
Yap@@ 1
1974 1
isim 1
üretilen 1
aklı 1
pu@@ 1
ecektir 1
Yaşamı 1
öncesi 1
Mak@@ 1
etkili 1
ili@@ 1
bölümünde 1
Mel@@ 1
Mah@@ 1
buna 1
yabancı 1
med@@ 1
ok 1
gelmektedir 1
hayatını 1
iddi@@ 1
yoluyla 1
Az@@ 1
takımyıldızı 1
sul@@ 1
1978 1
yonu 1
dikleri 1
Grubu 1
komut@@ 1
yıldız 1
gazet@@ 1
stüdyo 1
Bul@@ 1
Günümüzde 1
ati@@ 1
ilgi 1
Gal@@ 1
hız@@ 1
Gü@@ 1
isidir 1
Aş@@ 1
Spor 1
muh@@ 1
şampiyon@@ 1
başkan@@ 1
eği 1
1945 0.7843518375897531
Hava 1
neredeyse 1
ari 1
min 1
Lisesi 1
Akdeniz 1
P 1
malzem@@ 1
sahne 1
çaplı 1
iydi 1
ord@@ 1
10@@ 1
örgüt@@ 1
İz@@ 1
konusu 1
Ham@@ 1
dini 1
do 0.4262560420481356
gar@@ 1
aile 1
tarih 1
kapat@@ 1
mey@@ 1
fır@@ 1
zi 1
yüksek@@ 1
90 1
kitabı 1
iştir 1
lerdir 1
maktaydı 1
yü@@ 1
Savaş 1
parti 1
lanmaktadır 1
Dev@@ 1
göl@@ 1
çocuğu 1
geçirdi 1
Robert 0.8270574753785249
mil@@ 1
izm 1
arkadaş@@ 1
kalm@@ 1
kıs@@ 1
yasa 1
tane 1
kaybet@@ 1
1973 1
görevini 1
terk 1
1968 1
sezon@@ 1
Beşiktaş 1
nün 1
olay@@ 1
iyordu 1
siyasetçi 1
imini 1
th@@ 0.4087399864664083
çoğunlukla 1
dizisi 1
Sa@@ 1
kı@@ 1
diğinde 1
fi@@ 1
ığından 1
arkadaşı 1
og@@ 1
futbolcu 1
oğ@@ 1
Kemal 1
doğrul@@ 1
kentinde 1
bitir@@ 1
finalde 1
dikkat 1
yüzden 1
Fer@@ 1
siy@@ 1
sız@@ 1
işgal 1
Mor@@ 0.9064095741070679
ıdan 1
mü@@ 1
sınırları 1
yetiştir@@ 1
1972 0.9938695329163831
Ah@@ 1
FIFA 1
almış 1
1975 0.9792743688865336
ündeki 1
şirket@@ 1
dili 1
göz 1
vermiştir 1
kelim@@ 1
hayatı 1
tamamladı 1
ılarını 1
bölgesine 1
metr@@ 1
Kara 1
Britanya 1
mut@@ 1
yürüt@@ 1
filmin 1
keşfedilmiştir 1
lığa 1
gitti 1
üyeleri 1
ez 1
ilçesi 1
seçim 1
Hristiyan 1
Bursa 1
hâ@@ 1
andır 1
lanma 1
araya 1
eti@@ 1
ıldığı 1
Can@@ 1
ce@@ 1
nü 1
başlam@@ 1
değer 1
giren 1
kleri 1
görülür 1
ortalama 1
San@@ 1
ndeki 1
canlı 1
milletvekili 1
ısının 1
Küçük 1
nam@@ 1
1977 1
Mat@@ 1
adığı 1
Mon@@ 0.7302390941181865
cı 1
Tarih 1
1920 1
Bat@@ 1
yl@@ 1
kavram@@ 1
aç 1
Dar@@ 1
lig 1
yapılmış 1
göç@@ 1
esiyle 1
suz 1
başlarında 1
° 0.8226398290904462
bah@@ 1
Macaristan 1
korun@@ 1
sağlar 1
hala 1
sağlayan 1
George 0.7482746215249287
kırmızı 1
ing@@ 0.7181990958273984
seçimleri 1
4@@ 0.9985447248987457
durumu 1
alınan 1
çiler 1
sen 1
takımında 1
çarp@@ 1
fi 1
içindeki 1
yayımlanan 1
Sanat 1
tep@@ 1
Muharebesi 1
yönetimi 1
aklar 1
değ@@ 1
bab@@ 1
id 1
toplant@@ 1
kökenli 1
Mu@@ 1
tepe 1
başta 1
can 0.27867792636052086
1976 0.9955167064700368
dek 1
Meclisi 1
sağlam@@ 1
sanatçı 1
mevcuttur 1
İsviçre 1
Kulüp 1
mm 1
anti@@ 1
kuzey@@ 1
baz@@ 1
mağ@@ 1
saat@@ 1
ilerini 1
etik 1
bölün@@ 1
yaşadığı 1
ala 1
Kültür 1
düğ@@ 1
lenmesi 1
pleri 1
2@@ 0.986026900996693
sol 1
mayan 1
Güneş 1
ete 1
özellik@@ 1
arın 1
Özellikle 1
onların 1
Tab@@ 1
Dr. 1
val@@ 1
olmadığı 1
Tüm 1
düzenlem@@ 1
cu@@ 1
1969 1
Kadın 1
merkez 1
tas@@ 1
Derneği 1
Mas@@ 1
eler@@ 1
puan 1
nak@@ 1
ko 1
ig@@ 0.6539223782779596
lıdır 1
sü@@ 1
duvar@@ 1
tercih 1
Müzesi 1
1971 0.9912432642840548
anan 1
çıkar 1
kaya 1
Gül@@ 1
içine 1
spor@@ 1
kuvvet@@ 1
lider@@ 1
okulu 1
çab@@ 1
oynadığı 1
Yak@@ 1
ıştı 1
diş@@ 1
elerinden 1
Akademisi 1
kurtul@@ 1
çapında 1
zu 0.10363782395542714
Portekiz 1
onay@@ 1
Me@@ 0.9242807512525048
lığını 1
2022 1
atandı 1
Sey@@ 1
götür@@ 1
dis@@ 0.3271086734120509
şey@@ 1
80 1
att@@ 1
City 0.4374309758824343
eylem@@ 1
x@@ 0.7529570488153077
ülk@@ 1
bor@@ 1
mişlerdir 1
üretim 1
asker 1
ndaki 1
normal 1
eriş@@ 1
denir 1
ep@@ 0.9542832181718169
ice 0.866285339460584
yayınladı 1
gerçek@@ 1
gücü 1
mal 1
orijinal 1
Dur@@ 1
derece 1
lı@@ 1
Pr@@ 0.8548873240262982
ip@@ 1
tav@@ 1
edilmesi 1
mekteydi 1
tahmin 1
fark 1
taşımaktadır 1
makin@@ 1
Val@@ 1
br@@ 0.5022865576598318
ino 0.8283066152291462
performans@@ 1
bilim@@ 1
ydi 1
oper@@ 1
mac@@ 1
Kadınlar 1
Los 0.37779726630651084
ayrıldı 1
ateş@@ 1
göstermektedir 1
ret@@ 1
fa@@ 1
yok@@ 1
ticari 1
edir 1
andır@@ 1
kum@@ 1
Br@@ 0.6530255773076343
asker@@ 1
istik 1
1967 1
söyler 1
no@@ 0.8437413245475158
Pro@@ 0.9235521769389969
aşırı 1
Taş@@ 1
ücü 1
siyon 1
oyuncusu 1
azalt@@ 1
ülkede 1
Bunlar 1
devr@@ 1
aka 1
ve@@ 1
ent 0.21335387054929306
üret@@ 1
hatta 1
likleri 1
Et@@ 1
takımın 1
lamak 1
ent@@ 0.43451389543691504
ölmüştür 1
sağ 1
Teknik 1
gördü 1
Charles 0.7204220318995745
Kilisesi 1
amadı 1
ılarının 1
etkin@@ 1
tü 1
H 1
anların 1
Bas@@ 1
mo@@ 0.7931639492289658
bilinmektedir 1
yla 1
birlik@@ 1
mant@@ 1
tim@@ 1
açtı 1
uğu 1
artır@@ 1
ikler 1
ğini 1
arka 1
ks 0.693878541125727
asa 1
keşf@@ 1
Mil@@ 1
eli@@ 1
durumda 1
Sır@@ 1
Tanrı 1
kitap@@ 1
ba 1
Fil@@ 1
Mem@@ 1
day@@ 1
eller 1
fotoğraf@@ 1
lak@@ 1
özellikleri 1
Paul 0.6573415287178398
des@@ 0.5425652961237162
kültürel 1
ancı 1
aday@@ 1
yaptır@@ 1
sanat@@ 1
belli 1
neden@@ 1
İlçenin 1
fik@@ 1
sebebiyle 1
ticaret 1
roman@@ 1
almak 1
yetiş@@ 1
luk@@ 1
1930 1
V 0.7979902127394731
insanların 1
arada 1
ğinde 1
dönemin 1
Van 1
şiir@@ 1
Ama 1
adi 1
takımının 1
olma 1
ısını 1
lan 1
metal 1
Sam@@ 1
adamı 1
biçim@@ 1
sınıflandır@@ 1
yaş 1
one 0.1034062396589
hüküm@@ 1
kuzeyinde 1
Ana 1
yerde 1
lü@@ 1
sistem 1
hedef@@ 1
ang@@ 0.6617240896898177
derg@@ 1
ed 0.11015893807259004
aracılığıyla 1
kesin 1
tutuk@@ 1
ziyaret 1
yükseldi 1
kulübünde 1
1961 1
70 1
şi 1
Geçersiz 1
ano 0.6483926802260894
örnek 1
pozisyonunda 1
gen 1
yapısı 1
gece 1
kale 1
astronom 1
doğum 1
korum@@ 1
sergil@@ 1
etler 1
liğin 1
çalışmalar 1
akları 1
yıllar 1
kendine 1
müziği 1
yem@@ 1
mel@@ 1
6@@ 1
nüfusunun 1
yurt 1
etme 1
çatış@@ 1
â 1
amacı 1
yası 1
üz 1
kamp@@ 1
olduğuna 1
yn@@ 1
olmadığını 1
sekiz 1
mışlardır 1
biçimde 1
Tür@@ 1
35 1
oluşturan 1
ire 1
45 1
kadın@@ 1
kontluğunda 1
çesi 1
Dav@@ 1
ha@@ 1
ilerde 1
eng@@ 0.9447293398424426
Atatürk 1
Rom@@ 1
teslim 1
parish 1
ğ 1
dağ 1
gö@@ 1
Naz@@ 1
günlük 1
Kas@@ 1
civil 1
elen@@ 1
ker@@ 1
rast@@ 1
kararı 1
iliş@@ 1
çisi 1
güven@@ 1
tanr@@ 1
ağır@@ 1
şah@@ 1
pazar@@ 1
1965 1
Yüz@@ 1
klasik 1
okul 1
alanda 1
Çok 1
aşam@@ 1
lılar 1
toprak@@ 1
doğan 1
bilg@@ 1
ortam@@ 1
ilik@@ 1
Th@@ 0.6219410729197317
fe@@ 1
sahipliği 1
vek@@ 1
1966 1
örneğin 1
İrlanda 1
İç 1
ie 0.2921953877009065
1940 0.9631772301982625
sh@@ 0.40421402555141683
500 0.9901109302122725
pan@@ 1
zar@@ 1
siyah 1
ask@@ 1
ulan 1
Do@@ 1
çalışmaya 1
are 0.07087943633355064
tutul@@ 1
Sin@@ 1
durdur@@ 1
Aday 1
araz@@ 1
yere 1
oyuncul@@ 1
sağlay@@ 1
end@@ 0.6702332250426268
illi 1
açıl@@ 1
sey@@ 1
adi@@ 1
ji 1
ulu 1
Yine 1
önceleri 1
Kır@@ 1
etti@@ 1
öğretim 1
ast@@ 1
uları 1
Say@@ 1
ifad@@ 1
1964 0.9766016926694479
Sosyal 1
kayb@@ 1
ağa 1
lenme 1
trik 1
Kad@@ 1
veri 1
yılda 1
oluşmaktadır 1
yayım@@ 1
alarından 1
ettiler 1
yılın 1
4. 1
Sak@@ 1
ailesi 1
laştır@@ 1
ölümünden 1
20. 1
insan@@ 1
3.@@ 1
ödül@@ 1
giriş 1
Tor@@ 1
seçil@@ 1
karşılık 1
anlam 1
kitab@@ 1
bilgisayar 1
yapmaya 1
toprak 1
ruh@@ 1
elinde 1
Konseyi 1
ıklı 1
Muh@@ 1
şe 1
listesinde 1
üme 1
etmesi 1
abilen 1
ığın 1
lig@@ 1
yor@@ 1
iyet 1
boğ@@ 1
dalg@@ 1
ces@@ 1
fiziksel 1
any@@ 1
Kir@@ 1
İspanyol 1
General 0.5833088372821132
Trabzon 1
urlar 1
gelebilir 1
kop@@ 1
ımına 1
sağlık 1
Var@@ 1
ra@@ 1
polis 1
kaybetti 1
Oyuncu 1
kullanımı 1
N 0.8792575904991466
meler 1
kalmıştır 1
sivil 1
insanlar 1
32 1
ita 0.9461339654701912
yüzey@@ 1
Arapça 1
türüdür 1
G 0.785266872309891
aba 0.6289814154702369
antik 1
mücadel@@ 1
ucu 1
kullanıc@@ 1
Hasan 1
ell@@ 0.8475785912692837
gerekli 1
ras@@ 1
Ek@@ 1
1. 0.8050933417775314
kanal@@ 1
bazıları 1
lardaki 1
filminde 1
Meksika 1
Belçika 1
güvenlik 1
psik@@ 1
yaparak 1
anlığı 1
Müz@@ 1
TBMM 1
enen 1
onlar 1
yazı 1
şart@@ 1
1944 0.8220599079287938
içi 1
pol@@ 1
ilerden 1
sur@@ 0.6959487215732353
tarz@@ 1
dığını 1
1963 1
yayımlandı 1
ese 0.6357569862413557
filmde 1
Bulgaristan 1
ımın 1
teleskopla 1
madı 1
çeşit@@ 1
Birçok 1
oluşturur 1
ilebilir 1
if 0.5959546985223113
sem@@ 1
landığı 1
Dönem 1
pi@@ 0.7469238576978734
Mus@@ 1
Peter 0.8164408007807077
sonradan 1
sözleşme 1
yenil@@ 1
ma@@ 1
sebep 1
soy@@ 1
şirket 1
merkezli 1
tüke@@ 1
ımları 1
dış@@ 1
sorun@@ 1
Kam@@ 1
ıklarını 1
henüz 1
olduğundan 1
Karadeniz 1
oluştuğu 1
hüc@@ 1
yum@@ 1
Kr@@ 1
Katalog 1
karş@@ 1
Kızıl@@ 1
malı 1
uzay 1
fir@@ 1
sk@@ 0.9942831366506426
eline 1
ettir@@ 1
elerden 1
maz@@ 1
mod@@ 1
ıştır 1
rom@@ 1
görülen 1
dolayısıyla 1
tekn@@ 1
Microsoft 1
Fransızca 1
uyor 1
adlandırılan 1
yandan 1
Gökyüzünde 1
geçer 1
yüzünden 1
dür@@ 1
boyut@@ 1
Albüm 1
tiler 1
kaynağı 1
İbrahim 1
güneyinde 1
5@@ 0.9691182228603279
yapılır 1
imin 1
est@@ 0.6363193331495214
larındaki 1
motor@@ 1
Arjantin 1
ceph@@ 1
teh@@ 1
ağ 1
ürün@@ 1
sonlarında 1
ödül 1
belirtti 1
sağladı 1
Dış 1
akta 1
Mc@@ 0.6349895921452131
iv@@ 1
zengin 1
andığı 1
Oy@@ 1
getirildi 1
sayılı 1
anya 1
Adana 1
Yay@@ 1
Efendi 1
Grand 0.7698187180409061
1941 0.8584434893546266
ayet 1
Kab@@ 1
rock 0.9788386467331578
Geç@@ 1
kül@@ 1
fik 1
karşın 1
mümkün 1
kar 1
ta@@ 1
orman@@ 1
versiyon@@ 1
Jean 0.5828008630277755
birliği 1
eyen 1
maçına 1
sağlamak 1
Federasyonu 1
Sü@@ 1
ikleri 1
Hukuk 1
era 0.2635843628367081
ciddi 1
Ardından 1
nes@@ 1
Angeles 1
aslında 1
1962 0.9739440666303654
lisans 1
önünde 1
Babası 1
amay@@ 1
Yıl@@ 1
şöyle 1
land 0.3082691897660497
acılık 1
Demir@@ 1
Kralı 1
iği 1
ilerine 1
Bölümü 1
1959 1
1956 1
teş@@ 1
programı 1
ölüm@@ 1
gec@@ 1
Far@@ 1
evlendi 1
haber@@ 1
World 0.26476564845350836
bugün 1
uygul@@ 1
ilişkin 1
je@@ 1
7@@ 1
faaliyet@@ 1
kaynak 1
alam@@ 1
olu 1
üp 1
yavaş 1
Gu@@ 0.7799641158436419
ledi 1
sık@@ 1
lem 1
hükûmet 1
fe 1
Mac@@ 1
kus@@ 1
orada 1
leyici 1
uru 1
fark@@ 1
Hitler 1
kültür 1
Mo@@ 0.7888224535262838
ikisi 1
ğe 1
ari@@ 1
olacak 1
Müdürlüğü 1
rec@@ 0.6433429329023244
olan@@ 1
mev@@ 1
Eğer 1
eseri 1
let@@ 1
çağr@@ 1
Dışişleri 1
turnuv@@ 1
üretimi 1
ğinden 1
ton@@ 1
ortadan 1
aksine 1
ga 1
yasal 1
kov@@ 1
Süleyman 1
ae 0.8916573841422492
yapar 1
Söz@@ 1
babasının 1
olar@@ 1
toplan@@ 1
kralı 1
lıklar 1
kış@@ 1
irdi 1
Yer@@ 1
ker 0.8092315367729498
mesinde 1
birbir@@ 1
om 1
geniş@@ 1
benzer@@ 1
asıdır 1
anlamlara 1
kg 1
Gr@@ 0.6450611475335516
gösterdi 1
atan 1
renk@@ 1
dakika 1
laması 1
larca 1
ber 0.9642508805298984
toplum@@ 1
tüm@@ 1
Ermenistan 1
.. 1
ris@@ 1
von 0.037529174615834104
lideri 1
Hüseyin 1
eşit@@ 1
Antalya 1
Cor@@ 0.6077001966851253
örnek@@ 1
demir 1
vad@@ 1
Sür@@ 1
laşma 1
Hristiyan@@ 1
Ke@@ 1
ayarak 1
cinsel 1
kapsamında 1
1946 0.9364069639639166
Ok@@ 1
mah@@ 1
yo@@ 1
kişisel 1
tad@@ 1
hakkı 1
işle@@ 1
yordu 1
Dan@@ 1
1958 0.9749195565416746
atör@@ 1
inci 1
pler 1
IV 1
tör@@ 1
In@@ 0.38184562499693636
üzer@@ 1
lüğü 1
yasak@@ 1
Gölü 1
kı 1
Ac@@ 0.9799551344653507
for 0.02275654454807892
çizgi 1
final@@ 1
yönetmen@@ 1
sap@@ 1
Sivas 1
vatandaş@@ 1
gizli 1
la@@ 1
ayak@@ 1
karakter 1
ağın 1
giderek 1
Park 0.5573519299443083
minin 1
no 0.12600453828828254
kanıt@@ 1
ort@@ 1
gerçekleştirilen 1
Norveç 1
yaşındayken 1
masıdır 1
ayla 1
Üç 1
Gürcü 1
Belediyesi 1
girişim@@ 1
yönet@@ 1
azi 1
yetkil@@ 1
hızla 1
Pe@@ 1
ora 1
konser@@ 1
ırdı 1
Gök@@ 1
etkilen@@ 1
biraz 1
Antik 1
sik@@ 1
tarım 1
değişik 1
köyü 1
mec@@ 1
Seç@@ 1
giden 1
çalışmalar@@ 1
gaz@@ 1
politik 1
und@@ 0.9609662318770497
tam@@ 1
bunların 1
adlandır@@ 1
Hak@@ 1
arş@@ 1
getirdi 1
St 0.9802299552756952
Erzurum 1
radyo 1
sürüm@@ 1
NBA 1
Sab@@ 1
amaz 1
eyalet@@ 1
lamıştır 1
giydi 1
yakal@@ 1
1918 1
başarı 1
mit@@ 1
sene 1
ölüm 1
Str@@ 0.6807414157910199
önem@@ 1
aşı 1
kullanan 1
ıç@@ 1
pro@@ 0.860015569105598
ner 0.48398798035800245
Co@@ 0.5404997244590207
Hint 1
koşul@@ 1
kit@@ 1
silah 1
model 1
makal@@ 1
Kem@@ 1
geçmiştir 1
lak 1
diren@@ 1
1957 1
toplamda 1
Basketbol 1
On 0.15349952750761844
Camii 1
pen@@ 1
Filmin 1
Cumhurbaşkanı 1
memiş 1
doğumlu 1
ill@@ 0.7289105628465661
müzik@@ 1
abilecek 1
kre@@ 1
faaliyet 1
Denizi 1
hat 0.4116294933941175
şer@@ 1
nedeni 1
tic@@ 1
liğinin 1
Min@@ 1
savunma 1
Konya 1
To@@ 1
web 1
ğine 1
olay 1
ilerinden 1
ımda 1
ekonom@@ 1
nokt@@ 1
almaya 1
Ben@@ 1
ulaştı 1
Sosyalist 1
vaz@@ 1
zaman@@ 1
Yunanca 1
öğ@@ 1
Başkan 1
lemek 1
eser 1
alardan 1
ho@@ 0.7773352116882227
yor 1
tanın@@ 1
Venedik 1
1954 1
tre 1
gi 1
ansı 1
1955 1
ısıdır 1
lıkları 1
çı@@ 1
ılarına 1
ide@@ 1
araç@@ 1
kuşat@@ 1
ılabilir 1
Alt@@ 1
kişidir 1
düşür@@ 1
katılan 1
askerî 1
str@@ 0.5544278988729809
1943 0.8369741292810303
Hol@@ 1
sınır 1
Stadyumu 1
uzak 1
mis@@ 0.971093512128554
5. 1
etnik 1
aller 1
üyor 1
edebil@@ 1
ğinin 1
roman 1
kayn@@ 1
Uz@@ 1
muhtemelen 1
rolü 1
eş 1
1948 0.8937740576252309
kel@@ 1
Ker@@ 1
uldu 1
uv@@ 1
tır@@ 1
kulü@@ 1
ilmektedir 1
mesaf@@ 1
Den@@ 1
kullanıldı 1
alma 1
ro 1
böl@@ 1
w@@ 0.24965539461924324
şampiyon 1
Sem@@ 1
finale 1
Med@@ 1
ers 0.14472770621842831
Ur@@ 1
halkı 1
ilişkil@@ 1
özg@@ 1
madde 1
Danimarka 1
Henry 0.8381659207636736
Ölümü 1
Adası 1
Adaylık 1
Uzun 1
anlı 1
seri 1
Osman 1
dey@@ 1
graf@@ 1
çıkış 1
yüz 1
Rus@@ 1
söylem@@ 1
Bab@@ 1
For@@ 0.7291981760736477
Sah@@ 1
idar@@ 1
pak@@ 1
sinin 1
önde 1
başardı 1
rim 1
lilik 1
yük 1
oynayan 1
özelliği 1
oynan@@ 1
Thomas 0.6114567472170338
imparator@@ 1
0@@ 1
gereken 1
akt@@ 1
olmam@@ 1
Mü@@ 1
1939 0.8105833494099164
Milletler 1
urdu 1
Kızıl 1
ali@@ 1
Sen@@ 1
başvur@@ 1
koş@@ 1
land@@ 1
Kategori 1
lenmektedir 1
nö@@ 1
League 0.3242339920389675
sub@@ 0.45764009105543574
malar@@ 1
belirt@@ 1
Şark@@ 1
ödülü 1
Mez@@ 1
Nazi 1
kuvvetleri 1
şampiyonu 1
Samsun 1
küt@@ 1
seçimlerinde 1
birim@@ 1
Ro@@ 0.7199876631280238
genelde 1
Mehmed 1
tar 1
tedavi 1
por@@ 1
ys@@ 1
Sırbistan 1
keş@@ 1
sürec@@ 1
gerektiğini 1
ica 0.6014353008144001
Genç 1
Tiyatrosu 1
ismini 1
hayat@@ 1
birbirine 1
Lis@@ 1
ade 0.7617883095709097
girmiştir 1
sert 1
seçilmiştir 1
kh@@ 0.8263062399644213
çap@@ 1
birisi 1
kın@@ 1
lendir@@ 1
dek@@ 1
Po@@ 0.8755568709796699
işe 1
Komünist 1
Ben 1
Yarış@@ 1
düz 1
makam@@ 1
nik 1
çalıştır@@ 1
lığın 1
ban@@ 1
hikây@@ 1
Final 1
af 1
pop 1
300 1
zor 1
fin@@ 0.8980854751722468
ch 0.3936094980842373
verilir 1
yönel@@ 1
civarında 1
Kav@@ 1
güzel 1
milyar 1
öy 1
ımc@@ 1
futbol@@ 1
Li@@ 0.8402987793721969
aliz@@ 1
ladığı 1
ışlardır 1
kod@@ 1
ağaç@@ 1
düşünül@@ 1
iyet@@ 1
mahall@@ 1
çö@@ 1
itibarı 1
gaz 1
Haz@@ 1
bozul@@ 1
Richard 0.8013605019203073
yazılan 1
bölgeye 1
düzenli 1
ardır 1
saha 1
fer 0.9141051020669587
sürdü 1
Oyunları 1
egemen@@ 1
yaşadı 1
hafif 1
incelem@@ 1
arlı 1
Mir@@ 1
olog 1
uğ@@ 1
kullanılarak 1
bölgeler@@ 1
Kısa 1
sı 1
oz 1
diy@@ 1
endüstr@@ 1
köş@@ 1
çoğ@@ 1
Has@@ 1
hangi 1
dizisinde 1
Men@@ 1
arda 1
basit 1
Gel@@ 1
uydu 1
ildiği 1
üğ@@ 1
kişiler 1
Dağ@@ 1
Antlaşması 1
Pl@@ 0.9868709048174281
aci@@ 1
eci 1
hek@@ 1
Washington 0.7033954391585774
çev@@ 1
birden 1
ayn@@ 1
erkek@@ 1
uzman@@ 1
Yönetim 1
bek 1
ışt@@ 1
gümüş 1
Han@@ 1
Savaş@@ 1
Havalimanı 1
her@@ 0.6105244940162029
all@@ 0.7959644481323792
noktası 1
Topl@@ 1
dılar 1
istasyon@@ 1
sin 0.7094458323061414
vermektedir 1
taşındı 1
Göl@@ 1
Cel@@ 1
gerçekleşen 1
kın 1
etki 1
saldırı 1
1942 0.7892724522680162
Genellikle 1
kilis@@ 1
mamış 1
çekildi 1
pe@@ 0.656934813751765
asıllı 1
günümüze 1
rej@@ 1
Romanya 1
gez@@ 1
davranış@@ 1
krall@@ 1
sahipti 1
kulüp 1
arttır@@ 1
don@@ 1
beşinci 1
net 1
düğünü 1
yönetmen 1
dalında 1
gören 1
Kırım 1
başkan 1
boz@@ 1
mektu@@ 1
tanınan 1
undadır 1
çıkt@@ 1
sonuna 1
United 0.18382549236849255
ori 1
haber 1
niş@@ 1
Pan@@ 1
1953 0.9721349281928031
des 0.018652556172202187
isti 1
rak@@ 1
sinem@@ 1
öğrenc@@ 1
Rusça 1
by 0.023390031828397856
eceğ@@ 1
Sur@@ 1
hukuk 1
erinin 1
1919 1
edilebilir 1
bitirdi 1
erine 1
You 0.9829673129901533
ağaç 1
nok@@ 1
Sor@@ 1
küm@@ 1
lenmiştir 1
kullanılabilir 1
yerli 1
etleri 1
kabil@@ 1
sok@@ 1
sektör@@ 1
haf@@ 1
Nas@@ 1
8@@ 0.8673592064881006
Yahud@@ 1
çıkart@@ 1
araç 1
ket@@ 1
ind@@ 1
elerle 1
fabrik@@ 1
geçiş 1
off 0.36430271772728995
toplam@@ 1
Bi@@ 0.7706727749769439
Gen@@ 1
taşı@@ 1
Mur@@ 1
Q@@ 0.7266573899744632
Olimpiyat 1
dö@@ 1
lıkla 1
istifa 1
zarar 1
geçici 1
Saint 0.2920311240090004
Katolik 1
albümün 1
kayıt@@ 1
Finlandiya 1
karşılaştır@@ 1
medi@@ 1
Ahmed 1
çu 1
hükûmeti 1
emekli 1
çıkardı 1
görülmektedir 1
yayınlanmıştır 1
1952 0.9133478260570762
çalışır 1
temsilc@@ 1
Yüzölçümü 1
memiştir 1
gösterildi 1
Kutsal 1
numaralı 1
Erkekler 1
ard 0.47211633198237746
Dağı 1
hatt@@ 1
üd@@ 1
ular@@ 1
şehridir 1
benzeri 1
Milli 1
ba@@ 0.945103458207437
başlamış 1
andan 1
internet 1
Komitesi 1
mezar@@ 1
teknoloj@@ 1
Yaş@@ 1
culuk 1
sav@@ 1
Lo@@ 0.8260503553460533
oluşturul@@ 1
olumlu 1
tif@@ 1
varsay@@ 1
Bin@@ 1
Sev@@ 1
tahta 1
ıtı 1
Viyana 1
önceden 1
Yas@@ 1
abilmektedir 1
öğrenci 1
imzaladı 1
hücrel@@ 1
top 0.5262733859538982
faz@@ 1
üreti@@ 1
yaz 1
He@@ 0.7073354921098541
babasıdır 1
DNA 1
aceae 1
Şu 1
dü@@ 1
seslendir@@ 1
fonksiyon@@ 1
Almanca 1
yayıl@@ 1
kür@@ 1
erler 1
arken 1
cinsidir 1
sebe@@ 1
yard@@ 1
Don@@ 1
sorumlu 1
Pal@@ 1
katıldığı 1
Meclis 1
1@@ 1
4.@@ 1
zamanlar 1
evlen@@ 1
lin 1
ailesinin 1
leşme 1
Af@@ 1
ilip 1
resim 1
organiz@@ 1
ura 1
ira 1
rapor@@ 1
tören@@ 1
çizg@@ 1
onlara 1
dere 1
oldukları 1
Diyarbakır 1
geldiği 1
efsan@@ 1
lek@@ 1
benz@@ 1
yaşamı 1
minde 1
Billboard 1
bö@@ 1
ört@@ 1
İsa 1
lad@@ 1
ektedir 1
del 0.03961096874058434
lerindeki 1
red@@ 1
alar@@ 1
kuyru@@ 1
Eş@@ 1
sabit 1
ıştır@@ 1
genç@@ 1
sınıf 1
Arnavutluk 1
zamanlarda 1
yo 1
sefer 1
ımının 1
çeş@@ 1
platform@@ 1
bölgenin 1
meş@@ 1
ederken 1
hap@@ 1
olmadan 1
hakları 1
diğ@@ 1
koruma 1
isinden 1
ister 1
Akademi 1
özel@@ 1
1949 0.8456643989900439
ket 1
Eyaleti 1
yarar@@ 1
Louis 0.6336523128137704
tri@@ 0.7472332248431277
oda 1
gerekir 1
1947 0.8564876235383667
altındaki 1
aralarında 1
miş@@ 1
kıt@@ 1
edildiği 1
endi@@ 1
MS 1
güneş 1
salg@@ 1
alg@@ 1
mağlup 1
sıcak 1
komündür 1
Sil@@ 1
renk 1
aktır 1
sıcak@@ 1
bunlar 1
Sch@@ 0.2683397890163193
asındaki 1
ayrımı 1
400 0.9908435459904389
kenar@@ 1
ısından 1
Şampiyonlar 1
Bağ@@ 1
Gir@@ 1
1938 0.8306415665385495
asıl 1
Erkek 1
not@@ 1
parça 1
barış 1
unsur@@ 1
Adaları 1
başladığı 1
kimyasal 1
yönetmenliğini 1
çalışması 1
gan 1
Bayr@@ 1
Dol@@ 1
Res@@ 1
öğretmen@@ 1
mahkem@@ 1
eşit 1
Gör@@ 1
ettiğini 1
İnsan 1
ate 0.1459060069790568
mer 0.702497215195263
organ@@ 1
cul@@ 1
serisi 1
top@@ 1
başrol@@ 1
duyurdu 1
serv@@ 1
Çağ 1
amaçlı 1
yenin 1
yönettiği 1
rad@@ 1
6. 1
Ef@@ 1
Love 1
makla 1
uğraş@@ 1
plan 0.7214522867378816
toplumsal 1
performans 1
ülü 1
gruplar@@ 1
kalp 1
attığı 1
böyle 1
Üçüncü 1
Ir@@ 1
Pat@@ 1
amam@@ 1
Atina 1
ph@@ 0.4607813353986369
Gar@@ 0.9586287651050156
Gür@@ 1
lanarak 1
ilerle 1
kiler 1
Latin 1
batısında 1
yeşil 1
endir@@ 1
kamu 1
Vol@@ 1
öz 1
üş 1
yazılmış 1
Saf@@ 1
familyasıdır 1
ret 1
kurulu 1
Modern 1
Martin 0.7426828168670844
Oyun 1
kadınlar 1
Rum@@ 1
sahi@@ 1
Sim@@ 1
birey@@ 1
Records 0.7800686677404052
Si@@ 1
zamanında 1
aynalı 1
bağlant@@ 1
sezonunun 1
ass@@ 0.5769663987058268
isiyle 1
Aydın 1
Bu@@ 1
adam 1
antren@@ 1
dr@@ 0.540141300841358
ven 1
imli 1
ılarında 1
akla 1
kazandır@@ 1
sab@@ 1
doğusunda 1
Kudüs 1
Tah@@ 1
bed@@ 1
Din@@ 1
durumunda 1
kilise 1
fre@@ 0.9779112643269023
sunuc@@ 1
istedi 1
det@@ 1
Un@@ 0.564066457897194
anma 1
ilerinde 1
Dr@@ 0.9344550419539617
ınt@@ 1
halka 1
yesi 1
iletişim 1
sarı 1
katı 1
uşu 1
ja 0.7316894552855493
tapın@@ 1
orta@@ 1
Fatih 1
Su 0.6664321138874034
bağl@@ 1
olmay@@ 1
yönetic@@ 1
bakımından 1
oni 1
ateş 1
nit@@ 1
ayar@@ 1
işlet@@ 1
Erken 1
üstü 1
Con@@ 0.3619446295115918
1925 1
Sağlık 1
katkıda 1
Sol@@ 0.8905384497434584
Tat@@ 1
eserleri 1
kendisinin 1
bay@@ 1
başlandı 1
kilometre 1
Gre@@ 1
fl@@ 0.6058699348353704
ilk@@ 1
işlev@@ 1
ej@@ 1
len 1
anus 1
dik 1
olojisi 1
türleri 1
ekran@@ 1
kuş 1
çevrel@@ 1
ölümü 1
dünyada 1
yel@@ 1
kâ@@ 1
gider@@ 1
maddel@@ 1
acak@@ 1
kiye 1
yörüng@@ 1
Ul@@ 1
başlıca 1
Birleşmiş 1
Göz@@ 1
ıza 1
gan@@ 1
ant 0.16597847702297694
ecek@@ 1
sonuçları 1
Güvenlik 1
sanatçı@@ 1
mediği 1
bağlıdır 1
1936 0.8478669369219485
ımında 1
Pap@@ 1
işaret 1
ella 0.58546557915667
gin@@ 1
Kut@@ 1
uçak 1
başarısız 1
lev@@ 1
anlamda 1
standart 1
kalit@@ 1
Savunma 1
lerdeki 1
Ve 1
siyon@@ 1
Farsça 1
evinde 1
topluluk@@ 1
Mut@@ 1
başl@@ 1
sarmal 1
yakınlarında 1
maruz 1
urken 1
cam@@ 1
leridir 1
Kel@@ 1
numaraya 1
sezonda 1
Başkan@@ 1
İl 1
engel@@ 1
kullandığı 1
yaşan@@ 1
izi 1
hastan@@ 1
hir 1
imzal@@ 1
1951 0.9166568882208022
Ül@@ 1
allar 1
$ 0.2684594588999965
Lee 1
sıralam@@ 1
00 1
Yol@@ 1
oloj@@ 1
Sırp 1
ekiplerinden 1
ida 0.5657179421612659
é 0.1311911350302055
1933 0.8524170981604751
ekte 1
kayıt 1
aral@@ 1
önc@@ 1
yalı 1
ülkeler 1
inti@@ 1
1921 1
filmidir 1
dijital 1
olar 1
dalga 1
Kullan@@ 1
ortak@@ 1
çekti 1
modeli 1
bastır@@ 1
duyur@@ 1
Hey@@ 1
kulübü 1
suyu 1
Tem@@ 1
aktadır 1
ardı 1
tuğ@@ 1
Del@@ 1
dile 1
1922 1
Makedonya 1
birlikleri 1
Tek 1
kat 1
komedi 1
Ti@@ 1
elektronik 1
sp@@ 0.388802305427984
adayı 1
renkli 1
Adalet 1
bugünkü 1
üniversite 1
motor 1
gid@@ 1
mekle 1
Bölge 1
1935 0.9337857838230128
edin@@ 1
ku 1
yola 1
ilişkileri 1
Kurul@@ 1
sürdürdü 1
kapsam@@ 1
ışma 1
çat@@ 1
şair 1
Rad@@ 1
Vakfı 1
süt@@ 1
Cam@@ 1
Sez@@ 1
katılmıştır 1
33 1
san 1
paşa 1
vil@@ 1
öv@@ 1
maça 1
Joseph 0.657855865368605
Hi@@ 1
hatır@@ 1
sezonun 1
Al 0.5426552044937607
Bundan 1
amb@@ 1
gal@@ 1
Tiyatro 1
ajı 1
atif 1
dedi 1
kullanır 1
sanatçısı 1
75 1
emek 1
Düş@@ 1
dolar 1
Adam 1
dönüştür@@ 1
geçmiş 1
kurucusu 1
Google 1
Yerli 1
lanabilir 1
ski 1
halde 1
kup@@ 1
dağıl@@ 1
uva 1
ong 0.6642265658520495
saf@@ 1
lin@@ 0.7531136482138978
likler 1
likte 1
iksel 1
ığının 1
uyordu 1
oynam@@ 1
kontrol@@ 1
yanlış 1
Apple 1
tik@@ 1
üyordu 1
işleri 1
parçac@@ 1
pınar 1
yoğun@@ 1
Dağları 1
oynamıştır 1
ığa 1
çak@@ 1
1923 1
ediyor 1
petrol 1
yaşanan 1
esindeki 1
süre@@ 1
gu 1
yayınlan@@ 1
bulundur@@ 1
mat@@ 0.8104645213479514
set@@ 1
Demokratik 1
vir@@ 1
yönetilen 1
5.@@ 1
ödülünü 1
uygulama 1
belgel@@ 1
Araştırma 1
uzun@@ 1
lıca 1
zaf@@ 1
değeri 1
Is@@ 0.8499094008610971
derin@@ 1
geçerek 1
iliyor 1
lığının 1
bıraktı 1
nesn@@ 1
yanına 1
Ba@@ 1
ud@@ 1
hayatta 1
hükümdar@@ 1
liler 1
anlaşma 1
fr@@ 0.6426673865125622
köyün 1
buldu 1
Top@@ 1
enerj@@ 1
karmaşık 1
sürede 1
hayvan@@ 1
Ho@@ 0.8640304083254097
Kazakistan 1
ılardan 1
cil 1
vel@@ 1
eki 1
besi 1
teşvik 1
test 1
ts@@ 0.6514050991273101
ven@@ 0.9692663426423913
takımları 1
Madrid 1
mış@@ 1
rel@@ 0.7750385737674685
lediği 1
tim 1
Kraliyet 1
Parkı 1
ilişkiler 1
ilerlem@@ 1
64 1
idam 1
ediği 1
Qu@@ 0.5102105729193578
şiir 1
Os@@ 1
ıf 1
başlad@@ 1
16. 1
erk@@ 1
alınmıştır 1
Yarı 1
liliği 1
met 0.633582833353224
vermek 1
Evli 1
oyu 1
Şah 1
fiy@@ 1
Çanakkale 1
anlık 1
basketbol 1
erdi 1
Katılım 1
göre@@ 1
Ey@@ 1
Çocuk@@ 1
statüsü 1
belirtil@@ 1
grubunun 1
isteyen 1
kısıt@@ 1
demiryolu 1
eğer 1
okum@@ 1
uların 1
aittir 1
tez@@ 1
ders 1
hi 1
halkın 1
koleksiyon@@ 1
1924 0.9810977420026553
malarına 1
lük@@ 1
açıdan 1
menler 1
amak 1
ürün 1
eğitimini 1
kt@@ 1
Yılın 1
Bosna 1
savaşı 1
malarını 1
asal 1
miktarda 1
duğunu 1
dük@@ 1
gesi 1
ören 1
aban 0.7549328478510825
kenti 1
ima 1
edebiyat 1
görevine 1
odak@@ 1
Fe@@ 1
hareketi 1
yerleşimi 1
Çünkü 1
İnsan@@ 1
adlandırılır 1
kis@@ 1
tarihsel 1
başkanlığı 1
Büyükşehir 1
Tep@@ 1
ilgilen@@ 1
değildi 1
yeterli 1
üyesidir 1
ılar@@ 1
1937 0.8190613363173102
çevresinde 1
etkileş@@ 1
etrafında 1
gömül@@ 1
Cen@@ 1
Doktor 1
emez 1
So@@ 0.8564833928972594
yansıt@@ 1
talep 1
küresel 1
parçal@@ 1
Kayseri 1
bağış@@ 1
Son@@ 1
ailenin 1
aza 1
derin 1
festiv@@ 1
7. 1
mot@@ 1
raf@@ 1
Kalesi 1
atan@@ 1
tabak@@ 1
cem@@ 1
Mahkemesi 1
şunlardır 1
tehdit 1
üğü 1
Bunların 1
yüzde 1
kulüplerinde 1
Boz@@ 1
kaçır@@ 1
açılan 1
İk@@ 1
geçirdiği 1
yönetmeni 1
zir@@ 1
esas 1
Aziz 1
34 1
Hu@@ 1
Me 1
hayatına 1
Ban@@ 1
SS 1
Kulübü 1
oları 1
ori@@ 1
yemek 1
pap@@ 1
ılarından 1
eşlik 1
dolaş@@ 1
aylık 1
48 1
artan 1
gemi 1
istler 1
İsmail 1
kategor@@ 1
lamaya 1
edip 1
unca 1
ordusunun 1
davet 1
gelişmiş 1
1914 0.8986169552456386
Karak@@ 1
sınırlı 1
açıldı 1
Col@@ 0.44699081558506015
general 0.3624610973261319
iliyordu 1
Kürt 1
birer 1
yür@@ 1
dokuz 1
ekler 1
ilişki 1
Kum@@ 1
dayanan 1
versiyonu 1
Boy@@ 1
arac@@ 1
yardımcısı 1
aştır@@ 1
1934 0.8817622671805626
olmakla 1
biriydi 1
meni 1
mikro@@ 1
bünyesinde 1
karakteri 1
alanları 1
fa 1
lim@@ 1
engell@@ 1
1912 1
Kul@@ 1
Tıp 1
Mi@@ 1
silahlı 1
İsk@@ 1
Mersin 1
edebiyat@@ 1
Barış 1
Çağ@@ 1
kuruc@@ 1
alist 1
def@@ 1
önem 1
dah@@ 1
müd@@ 1
doldur@@ 1
metin 1
dem 0.050692925388760766
berg 0.45920687492874823
ötürü 1
Hor@@ 0.9902529674170544
lise 1
unvanını 1
şarkının 1
köprü 1
mavi 1
18. 1
eğitim@@ 1
tat@@ 1
Div@@ 1
isi@@ 1
bozuk@@ 1
Takımı 1
dost@@ 1
ens@@ 0.36580680983443087
ekibi 1
art 0.3534740362032081
Sonraki 1
ence 0.47132549952977154
karıştır@@ 1
ligi 1
Litvanya 1
Jackson 1
dans 0.04839174167564518
yargıl@@ 1
Kend@@ 1
Dün@@ 1
eleme 1
ciler 1
edit@@ 1
OS 1
olmaya 1
kaydet@@ 1
şüph@@ 1
isten@@ 1
İmparator 1
kapalı 1
emek@@ 1
ell 0.4650051376193601
istatisti@@ 1
larıdır 1
yab@@ 1
Mek@@ 1
komutanı 1
Star 0.9663721496340884
imiz 1
mamıştır 1
çileri 1
Arap@@ 1
dukları 1
lenebilir 1
Bulgar 1
Lig@@ 1
ihtiyaç 1
Ticaret 1
gruba 1
karşılığında 1
36 0.9442134356138145
gol@@ 1
oluşturulan 1
bey 1
kullandı 1
tarafında 1
ğlu 1
1917 0.894109556463501
yanın 1
tarihlerinde 1
One 0.4136875062790707
önüne 1
ahi 1
klu 1
birinin 1
uncu 1
lir 1
müsabak@@ 1
seçilen 1
ülkelerde 1
kesi 1
kıyısında 1
esnasında 1
bilgisayar@@ 1
prodük@@ 1
Ta@@ 1
layarak 1
lüğünü 1
lığ@@ 1
Açık 1
Ömer 1
bilgiler 1
tiğini 1
düşünülmektedir 1
ıdaki 1
Kuş@@ 1
ab 0.2676823626664531
zam@@ 1
takımlarından 1
Lim@@ 1
Şi@@ 1
Hanedanı 1
baskı 1
eri@@ 1
eğiti@@ 1
medya 1
tarzı 1
ılarda 1
özgü 1
dükten 1
milletvek@@ 1
çıktığı 1
ölümüne 1
Sarayı 1
ayrılır 1
Devrimi 1
ami 1
söyl@@ 1
üstlendi 1
ıyor@@ 1
Video 1
atlar 1
üretil@@ 1
oluşturduğu 1
dak@@ 1
bundan 1
ayda 1
oynamaktadır 1
Abdül@@ 1
iti 1
operasyon@@ 1
ımlı 1
süs@@ 1
Ör@@ 1
imza 1
harf@@ 1
Çek@@ 1
ii 1
oğulları 1
za@@ 1
Yal@@ 1
gök@@ 1
sistemleri 1
Yun@@ 1
Herschel 1
irleri 1
9@@ 0.766812134471367
süresi 1
yaşamaktadır 1
ea 0.689983009798199
tipik 1
yatır@@ 1
Filistin 1
Ag@@ 0.9261991040040429
fen@@ 1
plar@@ 1
rek 1
bağlantılar 1
hane 1
Murat 1
toplum 1
soğ@@ 1
zan 1
Üniversit@@ 1
ı.@@ 1
kü 1
barındır@@ 1
okun@@ 1
uzanan 1
Bilim 1
Kim@@ 1
sisteminin 1
tiy@@ 1
inde@@ 1
kurucu 1
Siy@@ 1
ahl@@ 1
durumlarda 1
şehirde 1
abilirler 1
Kitap 1
Bek@@ 1
lisi 1
konul@@ 1
ilg@@ 1
WWE 1
ikili 1
gönderildi 1
tesis@@ 1
Ön@@ 1
Yugoslavya 1
kalma 1
Maria 0.809127785868083
giyen 1
geliştirilen 1
madığı 1
olduktan 1
nükleer 1
vol@@ 0.8025595634281208
çoğunluğu 1
yazılmıştır 1
Yıldız 1
Cup 0.37082621808114263
malıdır 1
ızı 1
şah 1
1926 0.9298698668514227
aracı 1
haned@@ 1
problem@@ 1
ıf@@ 1
mekaniz@@ 1
dos@@ 1
Şeh@@ 1
Ram@@ 1
sınıfı 1
takımlar 1
tarihinin 1
tarihte 1
ze@@ 1
Fu@@ 1
temiz@@ 1
Cem@@ 1
Sultan@@ 1
ıld@@ 1
Edward 0.9678313158646857
Haf@@ 1
çalışmalarına 1
açıklandı 1
viz@@ 1
bütün@@ 1
çilik 1
forması 1
maların 1
görüldü 1
temsilcisi 1
çoğun@@ 1
kolon@@ 1
atlı 1
dayalı 1
for@@ 0.3265138733847298
ebe 1
hücre 1
Tam@@ 1
38 0.9862518218993226
mesidir 1
Eskişehir 1
May@@ 1
Ord@@ 1
ece 1
konser 1
Şah@@ 1
dakik@@ 1
ıkların 1
iyeti 1
hayat 1
sıklıkla 1
irse 1
Selçuklu 1
türlü 1
55 1
alması 1
ağının 1
edeki 1
tül@@ 1
olacaktır 1
kral@@ 1
köpr@@ 1
birisidir 1
çer@@ 1
kısmen 1
Balıkesir 1
1927 0.9251431308981853
Ra@@ 1
Sav@@ 1
arm@@ 1
Ka@@ 1
sam@@ 1
vat@@ 1
müh@@ 1
De 0.2950067968856599
öncesinde 1
Latince 1
ted@@ 1
ikli 1
Bakü 1
Met@@ 1
rı 1
ıcılar 1
6.@@ 1
enmiş 1
sanayi 1
My 1
arasına 1
sey 1
nüfusun 1
direktör 1
sonuç 1
yönlendir@@ 1
mik@@ 1
göreve 1
— 0.034173972238775115
yazılım 1
geç 1
eğini 1
arg@@ 1
Macar 1
depre@@ 1
İç@@ 1
hakkındaki 1
luğunu 1
Cer@@ 1
algıl@@ 1
yönetim@@ 1
adının 1
Yerel 1
kaydetti 1
ortasında 1
Sek@@ 1
malara 1
Bankası 1
ıcısı 1
Oyun@@ 1
go 0.5265640237083127
pik 1
leyerek 1
Kurtuluş 1
belediyeye 1
civar@@ 1
dan@@ 1
TRT 1
atör 1
lili@@ 1
pler@@ 1
kendilerini 1
Le 0.0694394524162664
West 0.31372614582156366
bakış 1
koruy@@ 1
nitelendir@@ 1
uzaklıkta 1
Edirne 1
Tarih@@ 1
emiştir 1
çocukları 1
olaylar 1
çalışt@@ 1
Mik@@ 1
göstermiştir 1
teri 1
aret 1
Kı@@ 1
akış@@ 1
cer@@ 0.8313826504941193
kullanım 1
‎ 1
ayrılmıştır 1
yazmıştır 1
güc@@ 1
çıkmış 1
derecede 1
şehr@@ 1
Güzel 1
lo 0.16889244875524156
bölümde 1
çevre 1
ang 0.5558795781888164
ato 0.7523864799885133
je 0.7031269495638658
soğuk 1
boyu 1
aylar 1
fos@@ 1
koz@@ 1
işletim 1
Nik@@ 1
SSCB 1
akar@@ 1
anti 0.8319347793861056
sözleş@@ 1
Abdullah 1
ğı 1
37 1
buluş@@ 1
yapılmaktadır 1
avi 1
tuz@@ 1
Bölüm@@ 1
w 0.5066451562146665
Bugün 1
abileceği 1
düştü 1
acaktı 1
değişik@@ 1
kesim@@ 1
kural@@ 1
Nor@@ 1
far@@ 1
65 0.7227972163239696
Bunlardan 1
Maç@@ 1
Kül@@ 1
ederler 1
Takım 1
Ge@@ 0.5513418369487572
ayet@@ 1
bölgesinin 1
uzak@@ 1
gerçekleşti 1
bronz 1
lenerek 1
örler 1
Gazi 1
sur 0.0715996487886888
sürül@@ 1
cad@@ 1
kolay 1
ilidir 1
Sın@@ 1
Sp@@ 0.5692798295287876
layıcı 1
fü@@ 1
hip 1
Komünün 1
rel 1
Askeri 1
abilmek 1
ağında 1
oluşum@@ 1
ondan 1
hüküm 1
lıların 1
çiç@@ 1
gelmiş 1
incelen@@ 1
kazand@@ 1
grafik 1
hast@@ 1
him@@ 1
Papa 1
yirmi 1
İ 1
Sonra 1
Santa 0.6398813406460722
Ni@@ 0.9649768540520091
başlangıçta 1
taşıy@@ 1
1929 0.8062969343025278
Por@@ 0.9611748584539563
Rock 0.9951979791631648
muşlardır 1
işaret@@ 1
Prix 1
aat@@ 1
zm 1
Onun 1
tıp 1
dair@@ 1
döng@@ 1
yenerek 1
Ermen@@ 1
gruplar 1
asit 1
io 0.5458020935634448
17. 1
Black 0.6706526838119998
Il@@ 1
Ay 1
Deniz@@ 1
Gor@@ 1
düğünde 1
kral 1
ela 1
birimi 1
düşman@@ 1
dışındaki 1
inler 1
ren 1
bol@@ 1
desteklem@@ 1
desteği 1
gr@@ 0.3372813308090764
saç@@ 1
olmasını 1
Fin@@ 1
incel@@ 1
Pi@@ 0.6745242117321428
V. 1
gazeteci 1
ith@@ 1
ürünleri 1
Sanat@@ 1
devletin 1
atıl@@ 1
yolcul@@ 1
sun 1
Osman@@ 1
manyetik 1
grupl@@ 1
öldürüldü 1
taşım@@ 1
emey@@ 1
Ekonomi 1
dedir 1
lamaktadır 1
sonu 1
Başbakan 1
şekil@@ 1
Tokyo 1
bahç@@ 1
Ödül@@ 1
Selim 1
kısmını 1
teklif 1
Ege 1
Konusu 1
mann 0.5035179362429042
hem@@ 1
kah@@ 1
Kosova 1
Show 1
ა@@ 1
Cr@@ 0.6451210215500098
itler 1
Dil@@ 1
cumhur@@ 1
cüm@@ 1
pozisyon@@ 1
senar@@ 1
büyük@@ 1
düzey 1
Sat@@ 1
hattı 1
enz@@ 0.8275858927934661
organizasyon@@ 1
Gençlik 1
onur@@ 1
Cephesi 1
kapasit@@ 1
Harry 1
senesinde 1
erde 1
Cas@@ 0.7329403572713664
Dal@@ 1
gerek 1
Lev@@ 1
abilir@@ 1
süreç@@ 1
1932 0.8265818291451889
kısmında 1
şim@@ 1
Kastamonu 1
Demokrat 1
tanı@@ 1
Music 0.4948890411608496
Kuzey@@ 1
insanları 1
bölgelerde 1
okudu 1
seyahat 1
Ren@@ 1
hali@@ 1
hedef 1
mektedirler 1
turda 1
erkekler 1
yerlerde 1
müziğ@@ 1
8. 1
yerinde 1
mini 1
süreci 1
Manisa 1
alternatif 1
les 0.025171888900213928
hu@@ 0.8384983462917952
Cal@@ 0.6452676302424386
üretic@@ 1
ıkla 1
Afganistan 1
evi@@ 1
cel@@ 1
dergisi 1
Manchester 1
denilen 1
Sezon 1
konular@@ 1
otomobil 1
eserler 1
Edebiyat 1
th 0.25978111914047797
figür@@ 1
kontrolü 1
luğa 1
davran@@ 1
haz@@ 1
ici@@ 1
A. 0.6322244813317432
kayı@@ 1
olumsuz 1
sini 1
zamanla 1
karısı 1
miktar@@ 1
yapılması 1
plar 1
buz 1
oku@@ 1
bölgesel 1
mede 1
sizlik 1
Komutanlığı 1
ende 0.42534537257569693
ond@@ 1
satış 1
ziyaret@@ 1
harit@@ 1
time 0.08764406909337054
Beş@@ 1
feth@@ 1
balık 1
Gaz@@ 1
oj@@ 1
Kil@@ 1
savaşın 1
geçer@@ 1
Şir@@ 1
sı@@ 1
toplay@@ 1
layık 1
genelinde 1
oyunculuk 1
kazandığı 1
çalışmalarını 1
42 1
Smith 0.6723763174637715
olmad@@ 1
çıkış@@ 1
dim 1
COVID 1
Bit@@ 1
bac@@ 1
içermektedir 1
giz@@ 1
tabanlı 1
Hel@@ 1
taşı 1
yat 1
İm@@ 1
anında 1
play 0.30480259298454776
Fr@@ 0.5720987626282863
beraber@@ 1
lendi 1
merkezinde 1
All 0.3477094025558132
terimi 1
hoş@@ 1
işbirliği 1
sak 1
Ali@@ 1
ilişkili 1
üretim@@ 1
Sad@@ 1
Böl@@ 1
emektedir 1
Jack 1
Çoğu 1
yarısında 1
yaşlı 1
ish@@ 0.8655174564304269
karakterini 1
kişiden 1
Don 0.9880112411014592
alarla 1
hük@@ 1
proje 1
ka@@ 1
1931 0.8374871291778101
iminin 1
Komisyonu 1
tasarım 1
İdari 1
birini 1
fon@@ 1
Kim 1
sığın@@ 1
7.@@ 1
başkanlık 1
görevinden 1
yeten@@ 1
Entertainment 1
desi 1
Aşağıdaki 1
korumak 1
ırı 1
aylarında 1
işgal@@ 1
Şampiyon@@ 1
fas@@ 1
Um@@ 0.8797425870623106
tük@@ 1
zul@@ 1
1,@@ 0.807599915646515
ayak 1
Bilimler 1
sürüldü 1
kalır 1
yönetil@@ 1
günümüz 1
sosy@@ 1
esir 1
ölü 1
yaşamış 1
co@@ 0.2161938641724205
lendiği 1
Mağ@@ 1
köken@@ 1
dıktan 1
şimdi 1
ami@@ 1
Na@@ 1
adım 1
kte 1
işçi 1
Çay@@ 1
anne 1
Çek 1
ters 0.5511009008815723
işlem 1
mir@@ 1
yapıldığı 1
yazılı 1
hac@@ 1
luğun 1
ben@@ 1
km. 1
krist@@ 1
mimar@@ 1
ng@@ 1
tanış@@ 1
varlığı 1
yaprak@@ 1
M. 0.8024526143652398
fal@@ 1
dans@@ 1
parlak 1
Oper@@ 1
tılar 1
Ertesi 1
malarda 1
AB 1
atom@@ 1
Şirket 1
Ros@@ 0.7235237331022538
imine 1
per 0.2945621655826907
vide@@ 1
Tom@@ 1
ludur 1
ford 0.5246471042922706
Android 1
aktör 1
romanı 1
satışa 1
vurgul@@ 1
lığında 1
anmış 1
av 1
sad@@ 1
uç 1
lamış 1
­ 1
üldü 1
Rio 1
şampiyonluğu 1
alanlarda 1
komutasındaki 1
cılık 1
akademik 1
test@@ 1
1915 0.9740708316160377
Kurumu 1
hastalığı 1
solo 0.5143117412464362
Nev@@ 1
ava 1
cez@@ 1
güçlendir@@ 1
çekilen 1
Federal 1
mik 1
iptal 1
cinsine 1
kişilerin 1
gösterilmiştir 1
inen 1
sıcaklık 1
zayıf 1
kısaca 1
tekrar@@ 1
fırlat@@ 1
mor@@ 0.6341336849765753
yılların 1
Hat@@ 1
atları 1
İlçe 1
Ortodoks 1
başarısı 1
Frank 0.951449088036517
gördüğü 1
Balkan 1
J. 0.6520987397685244
Arka 1
ore 0.5452689572410702
Haçlı 1
listesine 1
yüzyıl@@ 1
ai@@ 1
gelenek@@ 1
sim 1
bölümünü 1
hariç 1
liye 1
ılmasına 1
bağlantı 1
bina 1
sın@@ 1
müş@@ 1
Dam@@ 1
Eri@@ 1
9. 1
kel 1
tikten 1
gider 1
hab@@ 1
Hot 1
* 0.22831289817031097
iro 1
aileden 1
ürler 1
coğrafi 1
etkileri 1
š@@ 1
sayım 1
ef 1
Silahlı 1
ac 0.7029904754360368
Sayımı 1
köyl@@ 1
Çocuk 1
q@@ 0.9119601506025208
amayan 1
eğilim@@ 1
amamıştır 1
teorisi 1
Biy@@ 1
çilerin 1
CD 0.8248855349933717
serg@@ 1
ımdan 1
ındaydı 1
Kür@@ 1
ya@@ 1
Karl 0.8132894964746066
Sadece 1
idare 1
lerdi 1
politik@@ 1
ru 1
det 1
İşçi 1
Ebu 1
anması 1
kendilerine 1
Bunu 1
Araştır@@ 1
enleri 1
insanın 1
aman 1
büyükel@@ 1
İh@@ 1
komş@@ 1
ağı@@ 1
dünyas@@ 1
hidro@@ 1
hazırlanan 1
biç@@ 1
cev@@ 1
Pakistan 1
kutsal 1
özellikler 1
á@@ 0.47317965851673366
EP 1
amış 1
ırt@@ 1
evren@@ 1
tık@@ 1
Bol@@ 1
Orta@@ 1
aşa 1
edilerek 1
iklim 1
muştu 1
ılmasını 1
kanalı 1
sayılabilir 1
ust@@ 1
tamamı 1
yapım 1
İmparator@@ 1
Nec@@ 1
pe 0.5606866711293332
anlay@@ 1
ome@@ 1
birik@@ 1
kütüphan@@ 1
liste 1
oyuna 1
zamanlı 1
kapsayan 1
kurduğu 1
redde@@ 1
harek@@ 1
rolünü 1
görüntü@@ 1
sıvı 1
ıklık 1
yayımladı 1
yukar@@ 1
ekleri 1
Şam 1
oma 1
bölgedeki 1
iktidar@@ 1
ub@@ 1
etinin 1
soy 1
kalınt@@ 1
kaleme 1
ick 0.6129118900107473
alılar 1
Dört 1
gu@@ 0.49683777055506845
eddin 1
hizmete 1
aram@@ 1
başk@@ 1
kaldığı 1
sömür@@ 1
uf@@ 1
özgün 1
çalışmıştır 1
1000 1
köyünde 1
stüd@@ 1
tanınmış 1
0.@@ 0.7154867016552342
Y 0.8271222449502877
gazete 1
kazanarak 1
reform@@ 1
disipl@@ 1
isimler 1
müzisyen 1
amp@@ 0.9869887505204405
çiliği 1
dizinin 1
karşıtı 1
golünü 1
İngiliz@@ 1
Bütün 1
başlayarak 1
hiss@@ 1
mimari 1
onik 1
olas@@ 1
altıncı 1
au 0.041055302973306826
kitabında 1
pal@@ 0.8219369568032955
üstün@@ 1
enti@@ 0.573542391086864
düzenlen@@ 1
ou 0.10656587903680202
süz 1
ole 0.7367149251679993
timi 1
ena 0.7115829339020728
esin@@ 1
dönen 1
q 1
tif 1
zengin@@ 1
Yusuf 1
alana 1
bölgelerinde 1
72 1
Belediyespor 1
dom@@ 1
ressam 1
ğu 1
Hırvatistan 1
Mec@@ 1
fot@@ 1
Yan@@ 1
doktora 1
pları 1
tiyatr@@ 1
Can 1
ner@@ 0.9656040752132147
anlamı 1
bar 0.639789494963407
esel 1
aze 1
sek@@ 1
cen@@ 1
tici 1
yardımıyla 1
kalın@@ 1
Altı 1
Tal@@ 1
Muhaf@@ 1
Ru@@ 0.9092883405448999
SK 1
Karay@@ 1
balık@@ 1
Pers 1
hep@@ 1
his@@ 1
all 0.08752580764389224
cilik 1
dilleri 1
reli 1
Kafkasya 1
Play 1
Yaklaşık 1
yapımc@@ 1
çözün@@ 1
Münih 1
oyuncular 1
profes@@ 1
150 1
Soy@@ 1
belediy@@ 1
getiren 1
gönderdi 1
aras@@ 1
geçmiş@@ 1
Tel@@ 1
fakt@@ 1
olası 1
ekib@@ 1
laşması 1
uçuş@@ 1
Kaynakça 1
acağ@@ 1
Tü@@ 1
eleriyle 1
kadınların 1
sk 1
Altın@@ 1
aat 1
görülmüştür 1
standart@@ 1
varlığını 1
tay@@ 1
kaçın@@ 1
cas@@ 0.6295930086781688
çözüm@@ 1
mil 1
600 1
koordin@@ 1
sunul@@ 1
dilinde 1
ty 0.3279987030228567
oyunun 1
dağılımı 1
düny@@ 1
resim@@ 1
savaşa 1
Kes@@ 1
çok@@ 1
10.@@ 1
Zaman 1
Prens 1
ilham 1
kullanıcı 1
aha 1
buc@@ 1
King 0.3934326273244792
eyalet 1
illeri 1
şar@@ 1
Albümün 1
ikiye 1
ulaşan 1
ıç 1
Club 0.32958889721401574
elektr@@ 1
eve 1
luğuna 1
alb@@ 1
beklen@@ 1
hükûmet@@ 1
göl 1
sil 1
türe@@ 1
Ne 1
ağına 1
eta 0.7362553584447837
Kâ@@ 1
üf@@ 1
Sand@@ 1
fayd@@ 1
Uzay 1
Daniel 0.8735624291223166
alıdır 1
gerektir@@ 1
ikna 1
Mol@@ 0.9993961713825971
plak 1
ılarla 1
Man 0.6748421018195864
çök@@ 1
ham 1
areti 1
binlerce 1
doğmuştur 1
temel@@ 1
ō 1
emedi 1
ınar 1
gösterime 1
ayaklan@@ 1
birlik 1
etkin 1
kapı 1
yüzey 1
​ 1
Buffy 1
değişikliğinden 1
zi@@ 0.8673748367786007
rebil@@ 1
Şim@@ 1
başladılar 1
illa 0.7283451773338775
muş@@ 1
Kış 1
otomatik 1
sül@@ 1
Alexander 0.7554853507541187
değişiklik 1
Plan@@ 1
ius 1
oyunları 1
vergi 1
değerli 1
kısalt@@ 1
Buc@@ 1
başlattı 1
otik 1
düzenlendi 1
ilet@@ 1
program 0.4952920326334168
suz@@ 1
bank@@ 1
Je@@ 1
Tes@@ 1
görevlendir@@ 1
Şey@@ 1
alizm 1
belirgin 1
Go@@ 0.6510442015694203
Rek@@ 1
kli 1
tepki 1
çılık 1
anlayış@@ 1
elik@@ 1
göv@@ 1
Eleştir@@ 1
fak@@ 1
sebebi 1
gerçekleştirildi 1
yada 1
Kent 1
gin 1
unvanı 1
organize 1
1916 0.9253535521161408
elle 0.10789173986935946
indi 1
yüzyıldan 1
ıldığında 1
mümkündür 1
sorumlul@@ 1
türk 1
yaşamını 1
Ü 1
.com 1
Live 1
güncell@@ 1
güçleri 1
onunla 1
Chicago 0.6047138662618058
tanınır 1
ens 0.1880053461485658
ebilecek 1
ulaşım 1
yöntemi 1
dakikada 1
doktor@@ 1
sakat@@ 1
İskoçya 1
üstünde 1
rem@@ 1
tablo@@ 1
Zelanda 1
bulunmaktaydı 1
olacağını 1
ola 0.8588690155683166
şarkıyı 1
değiştirildi 1
denem@@ 1
enf@@ 1
alli 1
9.@@ 1
bağlam@@ 1
aktiv@@ 1
telefon 1
yetenek@@ 1
hakim@@ 1
çıkardığı 1
şarkıları 1
18,7 1
cular 1
ebilen 1
filmleri 1
halkının 1
Hen@@ 1
Mary 0.6155747919073551
end 0.14383581274022017
ou@@ 0.31970607896429365
Nobel 1
karşıya 1
oluşturmak 1
Görev@@ 1
Siyasi 1
amıştır 1
yerleşim@@ 1
47,5 1
Tu@@ 1
yaşındaki 1
Pir@@ 1
1908 0.9348263866259708
Sun@@ 1
ınd@@ 1
pa 1
takıma 1
fu@@ 1
yaptıkları 1
aşağı 1
eyle 1
hakim 1
sıradan 1
takımda 1
tirir 1
Konstantinopolis 1
komple@@ 1
sürümü 1
arkadaşları 1
fakül@@ 1
Hab@@ 1
Nur@@ 1
Sakarya 1
Çam@@ 1
tasvir 1
Hanım 1
Vadisi 1
aması 1
şiddetli 1
araştırmalar 1
vererek 1
dönemlerde 1
dişi 1
halen 1
kim 1
Kongresi 1
suç 1
günde 1
sayf@@ 1
boyutlu 1
kli@@ 1
köl@@ 1
sembol@@ 1
Mev@@ 1
etmeyi 1
hızı 1
tro@@ 0.8761305776399302
Yılmaz 1
Kur 1
asi 1
ə@@ 1
Red 0.597742821288781
buz@@ 1
kaynakları 1
klip 1
diğer@@ 1
kisi 1
gösterdiği 1
44 0.8003258362410121
alıp 1
açıkça 1
indi@@ 1
yakalan@@ 1
yarışması 1
aire 0.3408108638665446
protein@@ 1
dokun@@ 1
olmaktadır 1
utul@@ 1
bet@@ 1
uçak@@ 1
800 1
içeri@@ 1
Baba 1
Z 0.8880902179190728
dirler 1
düler 1
elek@@ 1
taht@@ 1
Kütahya 1
resmen 1
yd@@ 1
anılan 1
Öğ@@ 1
ıman 1
Voleybol 1
melerini 1
görür 1
taraftar@@ 1
toprakları 1
Mag@@ 0.7262918995228972
arist@@ 1
eci@@ 1
olduğ@@ 1
ello 0.798620807088608
Körfezi 1
ısal 1
formasını 1
ota 0.9241350042358797
döv@@ 1
Değ@@ 1
Mark 0.715877218969715
aspor 1
orum 1
usunda 1
Yardımcısı 1
yapma 1
çak 1
Mey@@ 1
geliştirme 1
tilen 1
sorum@@ 1
ülkelerin 1
ağırlıklı 1
Öl@@ 1
mekten 1
yn 1
çalıştığı 1
Tro@@ 1
kıyı 1
pos@@ 0.5515604298992255
Çağı 1
ony@@ 1
Lübnan 1
felsefe 1
imz@@ 1
ülkesi 1
araştırmac@@ 1
ligde 1
Gaziantep 1
Koz@@ 1
São 1
çocuğ@@ 1
arasındadır 1
ville 0.2019333446344861
Dem@@ 1
ân 1
anlatır 1
maktan 1
yükselen 1
fo@@ 0.7345031691442869
savaşta 1
isindeki 1
soruştur@@ 1
85 1
Uç@@ 1
denklem@@ 1
Du@@ 0.7161647236850787
Marmara 1
hapis 1
Real 0.9716192986091566
taraf 1
yolları 1
ağını 1
hal 1
Gru@@ 1
işti 1
nas@@ 1
yarım 1
1913 0.8309790696875999
Albert 0.9182653665579434
Gi@@ 0.8169303641438781
Nokia 1
Tour 0.526638448442261
koyu 1
• 1
otom@@ 1
evlilik 1
inş@@ 1
şub@@ 1
39 0.9429581197482769
Ed@@ 1
görüntü 1
ly 0.1768526554751802
onya 1
Williams 0.8869635239338494
maması 1
Tom 0.9539227920101835
uzunluğu 1
Yük@@ 1
Pas@@ 0.8769423703720732
öğrencisi 1
ald@@ 1
Rum 1
Sok@@ 1
ekonomi 1
düşen 1
kalıcı 1
Roman 0.5696932391362438
albümüdür 1
zamana 1
Pasifik 1
International 0.2569757723956688
alarıyla 1
yarış 1
otob@@ 1
sorunları 1
yitir@@ 1
darbe 1
mezunudur 1
field 0.2590682702042314
süreli 1
bol 1
evli 1
arc@@ 1
girer 1
gelecek 1
kavuş@@ 1
Ste@@ 0.6189040932985754
eder@@ 1
Ec@@ 1
Hem 1
işler 1
santr@@ 1
beğen@@ 1
ges@@ 0.6108217627472722
ır.@@ 1
Orhan 1
oranda 1
şı 1
ener 0.7949885988952928
genişlem@@ 1
hayran@@ 1
kuvvet 1
şehrinin 1
nesil 1
kampany@@ 1
yosu 1
üste 1
Koleji 1
getiril@@ 1
başlanmıştır 1
sti@@ 0.8769464948351393
İst@@ 1
41 0.9672441127096847
gıda 1
ezi 1
47 1
gitar 1
Kit@@ 1
ressam@@ 1
Üç@@ 1
ā@@ 0.6793778208423801
Cih@@ 1
devleti 1
enn@@ 0.7384830737416722
orlar 1
Bölgesel 1
lüğ@@ 1
Amatör 1
sağlamıştır 1
95 1
pir@@ 1
bakan 1
duruma 1
Tev@@ 1
Nüfusu 1
Yeşil@@ 1
iyileştir@@ 1
kal 1
çeken 1
Trabzonspor 1
Vak@@ 1
statüs@@ 1
st 0.41237256292771196
ırsa 1
ertesi 1
kısm@@ 1
teknoloji 1
opera 1
sanay@@ 1
yr@@ 1
eyaletinin 1
kutu@@ 1
kuram@@ 1
dam 1
reddet@@ 1
yakınlarındaki 1
ağz@@ 1
baba 1
diğine 1
kri@@ 1
Â@@ 1
Sanatlar 1
Tı@@ 1
ekip@@ 1
giymektedir 1
hiz@@ 1
ürlüğ@@ 1
Anne 1
Miss 1
dir.@@ 1
harekete 1
öğre@@ 1
rüt@@ 1
Allah 1
görüş 1
molekül@@ 1
kuruluş 1
kuruluşu 1
satan 1
azın@@ 1
bitkil@@ 1
Bağdat 1
Big 0.7605770583409378
Dil 1
satış@@ 1
şirketin 1
Tanr@@ 1
tedav@@ 1
da@@ 1
ladılar 1
çağdaş 1
İlç@@ 1
neş@@ 1
ortalarında 1
Örgütü 1
olayları 1
tün@@ 1
oldular 1
92 1
dolu 1
kapsamlı 1
meli 1
filmler 1
işli 1
rot@@ 0.9635261884114716
Baz@@ 1
Belarus 1
gâ@@ 1
Zey@@ 1
bireysel 1
topluluğ@@ 1
öngör@@ 1
özerk 1
ulus@@ 1
çekimi 1
konsol@@ 1
parçasıdır 1
No 0.557979228275519
Okul@@ 1
gemisi 1
ilçedir 1
93 1
Teksas 1
alınarak 1
unvan@@ 1
Sonuç 1
hazır 1
rek@@ 1
geçerli 1
genişlet@@ 1
konuda 1
ost 1
Üniversite 1
lular 1
yönetiminde 1
gücünü 1
Hil@@ 1
Max 1
isyan 1
düşünce 1
etkis@@ 1
konuşma 1
rip 1
Demografi 1
duktan 1
co 0.23736984238500863
siyaset 1
13. 1
Kardeş@@ 1
bl@@ 0.31584909169643477
enlerin 1
ürlük@@ 1
Yağ@@ 1
Dik@@ 1
kelime 1
isimleri 1
akrab@@ 1
lider 1
AK 1
partinin 1
tarihindeki 1
sözleri 1
lisans@@ 1
olsun 1
kulland@@ 1
pilot@@ 1
Erdoğan 1
bet 1
Cemiyeti 1
yüzyıla 1
ates 0.24247057029121807
DVD 1
kelimesi 1
ödem@@ 1
düşman 1
ei 0.656615435958276
ât 1
Mahallenin 1
Asyalı 1
bit 1
hayata 1
ud 1
kub@@ 1
etli 1
fikir 1
lası 1
Çelebi 1
albümünü 1
Yarg@@ 1
ayrılarak 1
beyin 1
kültürü 1
reye 1
görsel 1
1910 0.7515092589500887
dersleri 1
geti@@ 1
oluşturmaktadır 1
Müslüman@@ 1
albümleri 1
olmuştu 1
seçimi 1
madal@@ 1
bölgeleri 1
eden@@ 1
ster@@ 0.8072863880942688
Laz@@ 1
yarg@@ 1
ayın 1
parçaları 1
rat 1
Sinema 1
irli 1
52 0.9371182630328475
konuk 1
Nak@@ 1
şeyi 1
Hacı 1
43 0.9759764403660238
Nar@@ 1
dok@@ 1
kasaba 1
Arabistan 1
doğrultusunda 1
yolcu 1
ımız 1
It 0.04883103078831563
uçuş 1
ıra 1
8.@@ 1
düzey@@ 1
ation 0.0633741858999704
bağımsız@@ 1
zorunlu 1
sergilen@@ 1
feder@@ 1
paralel 1
ışın@@ 1
Köyü 1
Oğ@@ 1
melerine 1
yemek@@ 1
ımıyla 1
blo@@ 1
Demir 1
Tri@@ 0.5590258393286865
bilgileri 1
ülen 1
alış@@ 1
sayede 1
Bud@@ 1
Devletler 1
telef@@ 1
demir@@ 1
Hir@@ 1
kısım@@ 1
sta 1
toplama 1
Suudi 1
luğunun 1
pozitif 1
önder@@ 1
mater@@ 1
rik 1
ân@@ 1
asist 1
kıyaf@@ 1
zehir@@ 1
Anna 1
Gali@@ 1
ograf@@ 1
familyasından 1
konus@@ 1
erden 1
İş 1
yaşay@@ 1
başlay@@ 1
ray@@ 1
gerekçesiyle 1
Company 0.4038626987320049
NATO 1
les@@ 1
memesi 1
larken 1
bay 1
genetik 1
intihar 1
yürü@@ 1
arasından 1
aray@@ 1
ilerleyen 1
Tav@@ 1
lağ@@ 1
nehir 1
dıkları 1
Sinan 1
Solanum 1
W 0.6117723802764393
kayded@@ 1
ğer 1
reddetti 1
larlar 1
bayr@@ 1
projesi 1
geliştiril@@ 1
melidir 1
Geliş@@ 1
Hâ@@ 1
maktadırlar 1
çif@@ 1
Kars 1
toplu 1
ayları 1
yakıt 1
Mis@@ 1
lamalar 1
mali 1
mevsim@@ 1
prot@@ 0.6916331659266551
grupları 1
belediyesi 1
genin 1
rede 1
tanın 1
ecekti 1
katkı@@ 1
valisi 1
Çeşitli 1
Klasik 1
gın 1
yal 1
ayrılan 1
kalk@@ 1
oh@@ 0.7818784904256604
Grubun 1
In 0.019563523638994777
dergi 1
oto 1
ach@@ 0.28345949377462765
ani@@ 1
açılmıştır 1
ediler 1
na@@ 1
görüntül@@ 1
numar@@ 1
protest@@ 1
ıs 1
duğunda 1
klar 1
Tut@@ 1
yüzü 1
anlaşmaz@@ 1
est 0.017943088059459537
Şarkının 1
aret@@ 1
bakanlık 1
imidir 1
57 1
Hersek 1
org@@ 1
tarihine 1
kuru 1
Artvin 1
programında 1
yang@@ 1
dışına 1
ılım 1
dikkate 1
komünist 1
ung 0.13588962089766285
kullanılması 1
Özerk 1
Arizona 1
kart@@ 1
anlatan 1
15. 1
National 0.1361044545972709
yapt@@ 1
atmıştır 1
yöneti@@ 1
alin 1
sonraları 1
Pop@@ 1
BBC 0.8853743463293786
Emir@@ 1
Diy@@ 1
albümde 1
asyonlar 1
inşaat 1
hastalık 1
Çev@@ 1
gerçekleştirdi 1
ıkta 1
analiz 1
gül@@ 1
tasarımı 1
âr 1
atma 1
dönüş 1
şekli 1
düzeyde 1
kalmış 1
Massachusetts 1
Dön@@ 1
gun@@ 1
Royal 0.34906142995281836
ziy@@ 1
Bolş@@ 1
verg@@ 1
FA 1
ksel 1
mit 0.028871375416531505
pas@@ 0.6734521134137516
sundu 1
10. 1
ordu@@ 1
Bre@@ 0.6416601696859144
nitelik@@ 1
vermeye 1
döner 1
ina@@ 1
maçın 1
yürüyü@@ 1
Est@@ 0.7751704908249617
Eng@@ 1
gun 1
vas@@ 1
yiy@@ 1
malzeme 1
Tapın@@ 1
oluşuyordu 1
direktör@@ 1
eliği 1
ver 0.6510096163376827
Ph@@ 0.6213762479303132
alle 0.4574801047409644
ener@@ 1
kariyerini 1
las@@ 1
liğinden 1
milliyet@@ 1
tarihçi 1
Chris 1
Topluluğu 1
fotoğraf 1
İmparatoru 1
taya 1
yarışı 1
azı 1
CHP 1
Başar@@ 1
kuz@@ 1
nek@@ 1
diğerleri 1
unc@@ 1
Moğol 1
düşüncel@@ 1
fizik 1
hepsi 1
Ly@@ 1
laborat@@ 1
oynad@@ 1
söylemiştir 1
yö@@ 1
doğa 1
kişiye 1
J 0.6663059601672561
Diz@@ 1
bat 1
belirti@@ 1
Mezarlığı 1
doğuda 1
sos@@ 1
yav@@ 1
gösteril@@ 1
çekir@@ 1
kamera 1
Birkaç 1
lendirme 1
Ang@@ 0.7231544038227725
tabl@@ 1
bildirdi 1
kati@@ 1
sözü 1
uzunluğunda 1
Sanayi 1
basın 1
deye 1
Fır@@ 1
bulunuyordu 1
Pierre 0.5439016980326056
binası 1
uh@@ 1
gul@@ 1
imparator 1
olanak 1
trans@@ 0.34470189414344327
zon@@ 1
Malatya 1
liğ@@ 1
posta 1
Karab@@ 1
Esk@@ 1
Jones 0.7683517355674366
önlem@@ 1
Karadağ 1
bölgesindeki 1
hizmeti 1
İmparatorluk 1
Pre@@ 0.6211540685271687
mekte@@ 1
servis 1
üt 1
çoğunu 1
öt@@ 1
hakk@@ 1
çağ 1
diğinden 1
Ekonomik 1
46 0.9383152372710061
Liga 0.640511500569544
uda 1
Türkler 1
adamları 1
atür@@ 1
ger 0.512289728291856
ısıyla 1
İçişleri 1
88 1
AS@@ 0.9068995690981196
yapımcı 1
Bes@@ 1
Ap@@ 0.8230675300511925
Ağa 1
Siv@@ 1
Çak@@ 1
20@@ 0.8558165627558602
ō@@ 1
maktır 1
matematik 1
birbirinden 1
ehr@@ 1
karbon@@ 1
nü@@ 1
1900 0.7040502516104131
ath@@ 0.6825185782020868
ic 0.18668363982725272
kardeş 1
nokta 1
Şer@@ 1
lek 1
Şili 1
Premier 0.8341174576645588
vey@@ 1
kimi 1
anıl@@ 1
İr@@ 1
ırk@@ 1
nek 1
ısındaki 1
akım 1
çeyrek 1
şair@@ 1
ıncı 1
Q 1
Virginia 0.6141045867804547
şov@@ 1
ihtim@@ 1
danışman@@ 1
ekli 1
minden 1
terfi 1
yerleşti 1
poli@@ 1
sky 0.8632392056834873
katkı 1
American 0.10403061141125546
ilçesinin 1
lerken 1
puanla 1
rah@@ 1
undur 1
duğ@@ 1
köyde 1
lamaları 1
yapımcısı 1
ihl@@ 1
Ailesi 1
hazırlık 1
Dor@@ 0.9285915931701704
cevap 1
ikal 1
Da@@ 1
ator 0.27842639213890547
kış 1
resi 1
1911 0.7850864868875309
bağımsızlığını 1
dışar@@ 1
hız 1
sonlarına 1
Anayasa 1
tul@@ 1
Fransız@@ 1
heykel@@ 1
yeter@@ 1
Florida 0.6700874697494319
Tokat 1
Ex@@ 0.3449369037511496
Yerleş@@ 1
dadır 1
ölen 1
gay@@ 1
rolüyle 1
çeşit 1
emin 1
zem@@ 1
Kah@@ 1
onar@@ 1
analiz@@ 1
şaş@@ 1
0,@@ 0.6920947372297215
Vietnam 1
klü 1
ben 0.6282952324572123
otorit@@ 1
vi 1
üstlenmiştir 1
şarkılar 1
Francisco 0.509273758019959
erinde 1
leyic@@ 1
ürken 1
Fl@@ 0.5033195089591127
pol 1
ılıp 1
Başlangıçta 1
Stalin 1
yurt@@ 1
lıktan 1
Life 0.5732213617902602
orman 1
ost@@ 0.7965446033713381
Kalkınma 1
Prof. 1
arazi 1
ih 1
lesi 1
büyüm@@ 1
Bl@@ 0.5067893259912561
Cumhuriy@@ 1
aydı 1
enden 0.3453454282418034
yerleri 1
SC 0.9539873925702347
evine 1
aylı 1
açan 1
boy 1
canlandırdığı 1
karşılıklı 1
Albüm@@ 1
Serbest 1
dayanmaktadır 1
duyar@@ 1
vin@@ 1
anının 1
inleri 1
nispeten 1
yalnız 1
çısı 1
Estonya 1
Keş@@ 1
rasi 1
ürlüğü 1
Birlik 1
Kıs@@ 1
Yazar@@ 1
gazetec@@ 1
kler 1
Altay 1
Kız 1
Radyo 1
kadro@@ 1
Fre@@ 0.5101067795144141
cusu 1
kullanıldığı 1
bon@@ 1
insanı 1
kök@@ 1
uyu 1
14. 1
Ken@@ 1
abilmesi 1
Cum@@ 1
Elizabeth 0.9688323875658372
füz@@ 1
pul@@ 0.9299142566786269
astronom@@ 1
fiz@@ 1
ilişkisi 1
Arthur 0.9101531260397372
fikir@@ 1
sınırı 1
Büyük@@ 1
Alan 1
yaparken 1
İskender 1
Friedrich 0.6380454183545998
alanlar 1
basketbol@@ 1
elendi 1
kanalında 1
Kişisel 1
çılar 1
Uy@@ 1
aşk 1
birim 1
geriye 1
üyeliği 1
ao 0.6886713942696361
teşkil@@ 1
albümünde 1
forvet 1
hep 1
süper 1
Köy@@ 1
Hiz@@ 1
hikâye 1
maçları 1
56 1
La@@ 0.8107163936546107
Mit@@ 0.8270358748360699
Piy@@ 1
sağlan@@ 1
İktis@@ 1
alfab@@ 1
değişen 1
emesi 1
51 0.9247810990269001
Vir@@ 1
küç@@ 1
amatör 1
filminin 1
görülebilir 1
hasar 1
kavramı 1
Köpr@@ 1
gösterilen 1
devre 1
port 0.4730126194348489
incisi 1
Prot@@ 1
farklıl@@ 1
tıbbi 1
Lu@@ 0.7666424961122369
Ri@@ 0.6154855215559155
askerleri 1
ran 0.5827774787870605
sistemin 1
dolay@@ 1
batıda 1
süreçte 1
Koc@@ 1
Nam@@ 1
ceza 1
rev 1
ulur 1
belirlen@@ 1
uştur@@ 1
vok@@ 1
galibiyet 1
kolu 1
organik 1
tikleri 1
yapıt@@ 1
uygulamaları 1
komşu 1
lılık 1
Vel@@ 1
Kongre 1
edecek 1
trop@@ 1
yağ 1
Saldır@@ 1
vet 1
Türkç@@ 1
Time 0.913354449625523
Yarımadası 1
serisinin 1
televizyon@@ 1
Yıldırım 1
coğraf@@ 1
mediğini 1
yaralan@@ 1
12. 1
Dizi 1
Hükûmeti 1
saray 1
sözcüğü 1
ć 1
asla 1
vez@@ 1
yorum 1
sırt@@ 1
Güreş 1
Hem@@ 1
yapılacak 1
şarkıc@@ 1
profesör 1
Üyeliği 1
başkent 1
cumhurbaşkanı 1
seçilmiş 1
Okyanusu 1
üstlendiği 1
karbon 1
üb@@ 1
değişiklikler 1
Fiz@@ 1
Oscar 1
Scott 0.8226799767255317
bulur 1
ediyordu 1
Vi@@ 0.6404859334970067
elenmiştir 1
Gem@@ 1
anlara 1
peş@@ 1
atarak 1
ografi 1
04 1
Formula 1
Millet 1
lul@@ 1
ülük 1
Haç@@ 1
Kürt@@ 1
Nes@@ 1
üle 1
Maz@@ 1
bırakıldı 1
gelindiğinde 1
imparatorluk 1
İnternet 1
ong@@ 0.8202689733748435
yedinci 1
üçlü 1
üstün 1
üyelerinin 1
Koruma 1
belirtir 1
cami 1
gereği 1
kamer@@ 1
takvi@@ 1
yayımlan@@ 1
Com@@ 0.3253919879341436
Dönemi 1
şekill@@ 1
lukları 1
aff@@ 0.6909670190561001
anlaşıl@@ 1
sahneye 1
sinir 1
Şeyh 1
bilimi 1
qu@@ 0.23147028039905004
vazgeç@@ 1
park 0.588840239379165
Harek@@ 1
pek@@ 1
Moğol@@ 1
ders@@ 1
ideki 1
58 1
Rize 1
albümünün 1
ain 0.45355720289997187
Grammy 1
yoğunluğu 1
basın@@ 1
bölgeyi 1
fiye 1
geldiğinde 1
okyan@@ 1
çıkarak 1
Jersey 0.8919737023143542
Bun@@ 1
ilaç@@ 1
Çer@@ 1
Temel 1
besteci 1
kes 1
abı 1
göğ@@ 1
sorgul@@ 1
UNESCO 1
Sas@@ 1
oluşturdu 1
54 0.9843957495964799
abileceğini 1
fırsat@@ 1
kalar 1
biyolojik 1
gerekti@@ 1
sonuçlar 1
müdahal@@ 1
topraklarına 1
usa 1
İspanyolca 1
kentin 1
Cezayir 1
kanun 1
taşır 1
62 1
Dir@@ 1
tank@@ 1
asi@@ 1
başlangıç 1
fan@@ 1
işgali 1
olduğunda 1
piyas@@ 1
ales 0.1792487854272123
olmasından 1
yarışma 1
önemlidir 1
Had@@ 1
belirtmiştir 1
ion 0.5394671945289513
İli 1
rit@@ 1
sporcu 1
Günü 1
olayı 1
68 1
Nih@@ 1
ettikleri 1
Ayak@@ 1
Reş@@ 1
tayin 1
kullanılmaya 1
Ner@@ 1
geçiren 1
idi@@ 1
120 1
Çorum 1
diplomatik 1
person@@ 1
abe 1
stil 1
ücretsiz 1
his 0.019254207522154922
vücut 1
zin@@ 1
şeh@@ 1
67 1
kalın 1
bez@@ 1
mesle@@ 1
53 1
alleri 1
dular 1
sy@@ 1
Bug@@ 1
anz@@ 0.7174802340362109
potansiyel 1
Bölüm 1
sosyalist 1
etiyle 1
Mardin 1
bölümleri 1
performansı 1
ülkeye 1
utu 1
11.@@ 1
hipot@@ 1
kaybol@@ 1
Musa 1
eksiyon 1
nüfus@@ 1
denet@@ 1
ilim@@ 1
Ki@@ 1
ahı 1
hukuk@@ 1
Caddesi 1
cal@@ 0.5597528568683932
sistemine 1
başlıklı 1
eleştirmen@@ 1
istedi@@ 1
Çiç@@ 1
Erzincan 1
Hastanesi 1
Pey@@ 1
cü 1
yapılar 1
finalinde 1
istediği 1
Sistemi 1
evlili@@ 1
katılımc@@ 1
ulaşmıştır 1
Tarım 1
şi@@ 1
prensi@@ 1
enko 1
ismiyle 1
tarihinden 1
üretilmiştir 1
Kızılder@@ 1
böcek 1
kurulması 1
yerek 1
Cumhurbaşkanlığı 1
Parlamentosu 1
izlen@@ 1
tanesi 1
ardaki 1
hoc@@ 1
ilgil@@ 1
voleybol 1
yoktu 1
çalın@@ 1
kadının 1
vermiş 1
yöntem 1
Ayr@@ 1
baskın 1
meyve 1
tin@@ 1
uygulanan 1
ışın 1
Güney@@ 1
No@@ 0.7186550822627175
etini 1
fazl@@ 1
au@@ 0.2676925946480518
pay@@ 1
Times 0.6384576260618755
Elazığ 1
Tim@@ 1
mahalle@@ 1
sığ@@ 1
adal@@ 1
lis 0.9679380941351239
âr@@ 1
11. 1
cılar 1
dizide 1
raf 1
Kanal 1
alanına 1
açar 1
uğunu 1
İttif@@ 1
Türkmen 1
asıydı 1
arkasında 1
Kuvvet@@ 1
bas 1
memektedir 1
yaşad@@ 1
kok@@ 1
önlemek 1
ian 0.4133488536058161
akıllı 1
amad@@ 1
yetik 1
H. 0.7818005159294749
ılma 1
arama 1
müştü 1
şiddet 1
ruh 1
Çift@@ 1
Eur@@ 1
Geleneksel 1
adıdır 1
Libya 1
doğum@@ 1
iko 1
dev 1
döneminin 1
saldırıya 1
und 0.008166779620877229
işlemi 1
yakınında 1
Lin@@ 0.696797996573149
hr@@ 0.9517857592806188
sistemini 1
tüy@@ 1
uğa 1
alama 1
gelerek 1
maliyet@@ 1
rar 1
çay 1
Mih@@ 1
bahse@@ 1
noktas@@ 1
tahmin@@ 1
geril@@ 1
beş@@ 1
saldırısı 1
öyk@@ 1
beledi@@ 1
uvar@@ 1
erle 1
uluk 1
bağlantılı 1
ucu@@ 1
Gön@@ 1
örneği 1
Yayın@@ 1
çevres@@ 1
alanlarında 1
terek 1
İlçesi 1
alet 1
dayanır 1
eyaletine 1
fizik@@ 1
car@@ 0.21196495773213414
olduklarını 1
turn@@ 1
çalışmaktadır 1
Aşk 1
Şanlıurfa 1
şehirler 1
Afrikan 1
North 0.1901307647951487
tığını 1
veda 1
landırma 1
elin 1
Hollywood 1
atıldı 1
hey@@ 1
sand@@ 1
optik 1
yıldır 1
urt 1
çelik 1
emir 1
ff@@ 0.46529669434145204
kere 1
korku 1
amik 1
uya 1
Brezilyalı 1
Denizli 1
Beş 1
dökül@@ 1
okuy@@ 1
andaki 1
artış 1
şansı 1
Düz@@ 1
Vil@@ 1
süz@@ 1
Aşağı 1
mensu@@ 1
ney 0.7180903577990276
Arnavut 1
Brown 0.6656253894578007
birinc@@ 1
doğus@@ 1
tuğu 1
Kanunu 1
olmasıdır 1
sis 1
49 0.8697296162797916
afa 1
Konu 1
Plat@@ 1
cü@@ 1
şarap 1
Annesi 1
Tay@@ 1
bon 1
süreç 1
ılığını 1
Ven@@ 1
kolayca 1
toplanan 1
tutuklandı 1
with 0.011765886992104768
yerler 1
bölgesinden 1
İslam@@ 1
Halil 1
ziyade 1
mesaj@@ 1
vb. 1
Hüs@@ 1
Kendisi 1
Carl 0.8322315012012996
girdiği 1
tör 1
Cev@@ 1
ede@@ 1
ess@@ 0.425901044281666
temsil@@ 1
başlangıc@@ 1
dava 1
Kırmızı 1
oca 1
verilerine 1
sözcük@@ 1
Bot@@ 0.9951172808507552
94 1
güreş@@ 1
reklam@@ 1
türler 1
sorun 1
Alaska 1
Halep 1
Mahmud 1
aktaydı 1
Değiş@@ 1
tasarlanmış 1
ula 1
verimli 1
çerçev@@ 1
ülkeleri 1
hâlâ 1
sunuldu 1
becer@@ 1
iner 1
Eğ@@ 1
komis@@ 1
96 1
adres@@ 1
kütle 1
şarkısıyla 1
let 0.6741431697944409
öğrenimini 1
maddi 1
Üst@@ 1
Başka 1
ağan 1
dönüştürül@@ 1
lukla 1
rakibi 1
bulmak 1
etkinlik@@ 1
My@@ 0.9006658486302247
Young 0.719722913610647
güvenli 1
çıkarılan 1
birbirlerine 1
Donanması 1
ortalam@@ 1
Ülkenin 1
başkanlığını 1
ilişkilendir@@ 1
Öğret@@ 1
1909 0.8011122283211369
uygulaması 1
çuk 1
karanlık 1
rakam@@ 1
yıldan 1
Parti@@ 1
ahşap 1
hikâ@@ 1
name 0.1278903014956775
yse 1
Marie 0.5471470931166217
çağır@@ 1
Alb@@ 1
Doğan 1
Johnson 0.7256445593149657
alıyor 1
mur@@ 1
sitesi 1
tanındı 1
İsy@@ 1
vefat 1
subay 1
Alman@@ 1
Ulu@@ 1
klas@@ 1
kum 1
vb 1
Prusya 1
getirmiştir 1
öğretmen 1
İd@@ 1
ışını 1
derecesi 1
sıraya 1
yapımcılığını 1
99 1
M.Ö. 1
bakter@@ 1
getirilmiştir 1
AN@@ 1
engel 1
olasıl@@ 1
Osmanlılar 1
etinde 1
üce 1
Bay 0.5280764792400139
demok@@ 1
inanç@@ 1
ileti@@ 1
kökeni 1
niteli@@ 1
getirir 1
Ford 1
Ten@@ 1
küçük@@ 1
sayıl@@ 1
dizisinin 1
iklerin 1
ülebilir 1
tra 0.5884618877350892
eskiden 1
Sicilya 1
depo@@ 1
Dünyanın 1
faaliyetleri 1
tren 1
belirlenmiştir 1
kazanmış 1
tamamlamıştır 1
çili@@ 1
Ceza 1
dahi 1
konuşan 1
Ha@@ 0.7041095033083339
eleştiriler 1
reklam 1
gerçekten 1
Şek@@ 1
63 1
Yönet@@ 1
eklem@@ 1
amac@@ 1
beyi 1
hisar 1
istih@@ 1
jen@@ 1
mekanik 1
plaz@@ 1
sayg@@ 1
Giresun 1
ebilmektedir 1
uzaklaştır@@ 1
imzalam@@ 1
oyunda 1
anahtar@@ 1
aktivit@@ 1
diğeri 1
los@@ 1
kapan@@ 1
ayırt 1
canlandırdı 1
kırsal 1
# 0.4632343089662671
Pav@@ 1
siyas@@ 1
Yor@@ 1
bunlardan 1
siyasal 1
Yukar@@ 1
malarının 1
Televizyon 1
yoğunlaş@@ 1
Kız@@ 1
bölümler 1
evrim@@ 1
Sir@@ 1
milyon@@ 1
Mütte@@ 1
Red@@ 0.7235886714952114
etraf@@ 1
jüri 1
Hüküm@@ 1
alınması 1
DP 1
Yaşam 1
inus 1
sö@@ 1
ros@@ 1
ınlar 1
98 1
Iş@@ 1
Milletvekilliği 1
atr@@ 0.7378009942827818
gelişen 1
geliştirilmiş 1
attan 1
Def@@ 1
Kl@@ 0.9747703244218829
ayının 1
gelişme 1
içe 1
č@@ 0.9068269061981966
Kraliçe 1
We@@ 0.5158092361913978
yayımlanmıştır 1
rapor 1
700 1
Nov@@ 0.9315661249750681
gar 1
oloji@@ 1
Hali@@ 1
diş 1
yapay 1
üstüne 1
Dom@@ 0.7893610046045527
kaynaklar 1
kadrosuna 1
section 0.4332943678431709
talar 1
Kendi 1
Resmi 1
açıklama 1
mahallesi 1
çarpış@@ 1
Pen@@ 0.8428456563842508
olmayı 1
250 0.9590480495517458
Pin@@ 0.976848598452678
cezası 1
saltan@@ 1
federal 0.7387938718985629
istikr@@ 1
kuantum 1
Otom@@ 1
1907 0.7537871944705111
estr@@ 0.727708885043269
had@@ 1
ülkeden 1
ekran 1
urt@@ 1
eğine 1
hizmetleri 1
takımıyla 1
Fakül@@ 1
VI 1
riv@@ 1
şeker 1
kadrosunda 1
asyona 1
edici 1
görünür 1
mektir 1
şiş@@ 1
elenen 1
sanc@@ 1
eserinde 1
sıkınt@@ 1
gener@@ 0.6213200357335855
kariyerinin 1
turizm 1
age 0.08110096240846251
eva 1
ihtiyaç@@ 1
deng@@ 1
süper@@ 1
sınav@@ 1
bis@@ 1
lileri 1
noktada 1
vard@@ 1
liman@@ 1
Öğrenc@@ 1
popül@@ 1
İbn 1
Yayın 1
buraya 1
kten 1
FK 1
eten 0.6709086625464028
zaten 1
2,@@ 0.7657308981653764
görevinde 1
sıv@@ 1
tüf@@ 1
ensi 1
terim 1
girerek 1
tın@@ 1
Tok@@ 1
düzenledi 1
Chi@@ 0.7168197432733012
Kari@@ 1
atıfta 1
biyograf@@ 1
çekilmiştir 1
gönderil@@ 1
Yozgat 1
tamamlayan 1
çocuklar 1
gazetesi 1
Tam 1
afi 1
tarihten 1
hır@@ 1
bulunması 1
retim 1
Hall 0.3687572689775168
asist@@ 1
nik@@ 1
sular@@ 1
Bulgar@@ 1
1905 0.6818710849022261
Hareketi 1
sözcüğ@@ 1
özgür 1
Raw 1
bilgisi 1
kopya 1
kamu@@ 1
ung@@ 0.4181479008040663
ölçü@@ 1
0.000 1
Tunus 1
76 1
86 1
biçiminde 1
müzikal 1
arla 1
nüfuslu 1
Yahudiler 1
bask@@ 1
Şehir@@ 1
tel 0.8309966555860445
ımından 1
Yani 1
zey@@ 1
ი@@ 1
Yam@@ 1
Ölüm@@ 1
klibi 1
görevden 1
» 0.01858581317948174
öncel@@ 1
Des@@ 0.4832057476297461
Malta 1
bunları 1
birine 1
tüğü 1
yonun 1
lığından 1
ym@@ 1
Çalış@@ 1
Ülke 1
kahram@@ 1
las 0.03456372461246433
yüksekliği 1
gerç@@ 1
kuvvetlerinin 1
çalışırken 1
87 1
bağlan@@ 1
Öte 1
değişiklik@@ 1
tedir 1
66 0.9976448727661678
işini 1
Küba 1
lip@@ 1
09 1
Samsung 1
cısı 1
dis 1
erleri 1
Joe 0.7987607262944665
aldılar 1
yıldızı 1
çevrimiçi 1
anak@@ 1
yürürlüğe 1
bot@@ 0.9867356254347208
ital 1
milli 1
şampiyonluk 1
Sağ@@ 1
bağımsızlık 1
ilde 1
çam@@ 1
atının 1
kanın 1
ulmuş 1
Turu 1
bahar@@ 1
küme 1
sig@@ 1
yukarı 1
Oc@@ 1
bulunmuş 1
eceğine 1
ps 0.40689548507450457
sının 1
siyonu 1
84 1
gerilim 1
annesinin 1
teklif@@ 1
ny@@ 1
tip@@ 1
kart 1
üreten 1
College 0.18969834773357702
aşağ@@ 1
atom 1
kaynaklarda 1
kulübü@@ 1
planı 1
Selanik 1
ayg@@ 1
yaşar 1
dönemine 1
sesi 1
şans@@ 1
Alek@@ 1
gezeg@@ 1
özellik 1
Bro@@ 0.8235669185327733
formasıyla 1
inli 1
örleri 1
ıktır 1
AC 0.7963190261011245
Şehirdeki 1
inanc@@ 1
stil@@ 1
Dis@@ 0.491883730394703
aman@@ 1
kahverengi 1
Gil@@ 1
kron@@ 1
oymağına 1
destekleyen 1
yos@@ 1
şehre 1
1878 1
Hikâ@@ 1
MTV 1
kanat 1
ensel 1
gerektiği 1
Jo@@ 0.7667852094093718
rahatsız@@ 1
çerçevesinde 1
iyileş@@ 1
geçtiği 1
lit 1
yararlan@@ 1
eksen@@ 1
luklar 1
Gürcüce 1
oynay@@ 1
phe 1
wood 0.407448551864998
drama 0.8467374367594795
dönüştü 1
endisi 1
neticesinde 1
tanı 1
değişir 1
tt@@ 1
Şub@@ 1
izlem@@ 1
77 1
bağlandı 1
cam 1
esiz 1
terim@@ 1
ayolu 1
buradan 1
ilaç 1
pres@@ 0.436027852845081
Bon@@ 0.8705901978753775
ekip 1
mevkiinde 1
şunları 1
73 1
74 1
Spor@@ 1
başarısız@@ 1
port@@ 0.9009312114345392
komün@@ 1
uyum@@ 1
atın 1
şid@@ 1
Sk@@ 0.7162746871351172
har 1
köğretim 1
yönetti 1
ünce 1
şimdiki 1
Halk@@ 1
saf 1
asit@@ 1
olmasının 1
krizi 1
HP 1
Top 0.6844514183140763
değişim 1
kolay@@ 1
zy@@ 1
Angel 1
Bizans@@ 1
diplom@@ 1
mağaz@@ 1
sayıları 1
yans@@ 1
1902 0.8146167913388858
D. 0.6124435442828213
Yer 1
refer@@ 1
büyüklüğ@@ 1
eus 1
şiddet@@ 1
Hong 0.8449007211123986
Merkez@@ 1
İlk@@ 1
ser 0.17904210871455317
altyap@@ 1
rekabet 1
sonuçlandı 1
Kiev 1
Savaşları 1
Yukarı 1
kun@@ 1
çar@@ 1
tis@@ 0.6929821545399469
up@@ 0.3862908607098593
Hy@@ 0.9061039043914494
gerekmektedir 1
sik 1
Muğla 1
360 1
awa 1
kalı@@ 1
konfer@@ 1
çubu@@ 1
kategorisinde 1
Ölüm 1
hid@@ 1
AR@@ 0.9870762517872618
zamanı 1
mimar 1
müdahale 1
suyun 1
Endonezya 1
Mıs@@ 1
Ort@@ 1
elektron 1
Sanatçı 1
dy@@ 1
Dok@@ 1
Sul@@ 1
uzunluğ@@ 1
yanıt 1
tanıştı 1
Şirketi 1
algorit@@ 1
dram@@ 1
kayd@@ 1
ıldığını 1
aklık 1
eksik@@ 1
kıyasla 1
müze 1
pil@@ 0.9150267975492867
yakından 1
Kamp@@ 1
Vladimir 1
olursa 1
Aydın@@ 1
acağına 1
olacağı 1
Cey@@ 1
Kayn@@ 1
Kitap@@ 1
elidir 1
kanun@@ 1
olanlar 1
reak@@ 1
gereksin@@ 1
kariyerinde 1
sisteminde 1
dört@@ 1
saygı 1
Eser@@ 1
alınmış 1
Hö@@ 1
deplas@@ 1
kişiyi 1
likle 1
abi 1
arkeolojik 1
kalabalık 1
yazan 1
yaşta 1
69 1
Turizm 1
enti 1
gelişimi 1
Listesi 1
Siyasal 1
avuk@@ 1
hom@@ 0.5588878611999378
tren@@ 1
« 0.01783889170787421
José 0.4243890315331069
Taylor 0.8822441786128719
Madonna 1
indeydi 1
Yeşil 1
Yönetimi 1
ecekleri 1
layıp 1
politika 1
üsünü 1
Lewis 0.9789493535134355
potansiy@@ 1
şarkısını 1
Ann@@ 1
kiralık 1
Çık@@ 1
ema 0.9928721551345352
som@@ 1
anos 0.6139779464959626
Belgrad 1
bilinmemektedir 1
bölgel@@ 1
mobil 1
tamamlan@@ 1
yarışmada 1
tehlik@@ 1
uzan@@ 1
chi 0.48789849715874434
pi 1
Aile 1
katılmış 1
saniy@@ 1
12.@@ 1
Bilgi 1
dayanarak 1
girmiş 1
Müd@@ 1
uçağı 1
End@@ 1
kilometr@@ 1
merkezidir 1
rö@@ 1
sayısının 1
ts 0.1017282111954117
Güneydoğu 1
Polonyalı 1
taz@@ 1
Koreli 1
değişken@@ 1
görmüştür 1
ington 0.6594207061959543
kurgusal 1
zamandan 1
gönderilen 1
78 1
birinde 1
müdürü 1
yönde 1
etkisiyle 1
gruptan 1
listelerinde 1
oynamaya 1
püskür@@ 1
sürmüştür 1
isteği 1
Antonio 0.6071430677719668
Fa@@ 1
getirilen 1
saniye 1
sinden 1
verim@@ 1
yona 1
şifrel@@ 1
Bob 0.911567919028136
Doğal 1
Karolina 1
anılır 1
manda 1
riye 1
yönetici 1
şir@@ 1
biye 1
etkiler 1
kle@@ 1
Konferansı 1
getirdiği 1
üleri 1
Aslında 1
eşleş@@ 1
koc@@ 1
niyet 1
Sonunda 1
kraliyet 1
piskopos@@ 1
askerler 1
lıkta 1
yapım@@ 1
ıd@@ 1
Carlos 0.6003753362349705
Eb@@ 1
Mari@@ 0.7629615587700104
PC 0.9881137704024657
görevlisi 1
rezer@@ 1
yalar 1
trol 1
Aç@@ 1
beli 1
AP 1
Feder@@ 1
Mirası 1
şampiyonluğunu 1
1886 1
dünyadaki 1
Pa@@ 1
içinden 1
kanser@@ 1
psikolojik 1
şık 1
yöne@@ 1
Dum@@ 1
ümlü 1
71 1
aktan 1
cudur 1
içeriyordu 1
gil 1
kullanmıştır 1
pazar 1
dikkat@@ 1
Kamu 1
asyonun 1
özelliklerini 1
epe 1
liydi 1
maddeler 1
taç 1
Görün@@ 1
direktörü 1
Kanadalı 1
ys 0.452892139693574
Vas@@ 1
akı 1
anına 1
gri 1
RNA 1
programları 1
tatlı 1
hazırlan@@ 1
kod 1
mand@@ 0.7892179761156722
türdür 1
bürokr@@ 1
günümüzdeki 1
olo@@ 1
usul@@ 1
08 1
başbakan 1
á 0.442735282126052
Paulo 1
Wilhelm 0.664389056392786
baz 1
macer@@ 1
olmalıdır 1
sürdürmektedir 1
Sony 1
km2 1
Ray@@ 1
basınç 1
oğludur 1
sir@@ 1
Group 0.33187370537857896
Leh@@ 1
gelip 1
ondur 1
süt 1
Kn@@ 0.7666697059471471
sü 1
transfer@@ 1
yatırım 1
anik 1
bağır@@ 1
elektron@@ 1
he 0.019390860302600472
Başbakanı 1
ito 0.5360373109892721
Dest@@ 1
Kocaeli 1
bestec@@ 1
protein 1
açıklamıştır 1
R. 0.713763308610216
Biyografi 1
Fel@@ 1
Yasası 1
dığında 1
oradan 1
DC 0.8701669375317553
doğur@@ 1
etmişti 1
tank 1
Trakya 1
geliştirdi 1
hit 0.5665385642025345
kadem@@ 1
Liverpool 1
Cur@@ 0.6563862159423234
ahr@@ 1
yken 1
amba 1
ast 0.5782429637613633
rey 0.7267061204297011
maksızın 1
mill@@ 1
61 1
Final@@ 1
Meg@@ 1
giyi 1
nem 1
yazında 1
beyaz@@ 1
erişim 1
nadir 1
Boston 0.623689108057212
emen 1
grup@@ 1
oluşmuştur 1
Yahudilerin 1
anayas@@ 1
mus@@ 0.7094566396783644
Karabağ 1
Yel@@ 1
eğlence 1
hayal 1
tanımlan@@ 1
ıştığı 1
81 1
etine 1
gayet 1
hor@@ 0.6043238613994925
ike 1
traf@@ 1
ug@@ 0.6739390609673334
Napolyon 1
School 0.12631045653869008
yöneticisi 1
örlük 1
akan 1
çekim 1
üfetti@@ 1
Pis@@ 1
bağ 1
Hollandalı 1
delik 1
ehir 1
pişir@@ 1
aşık 1
bulut@@ 1
manlar 1
olağanüstü 1
prens@@ 1
çıkması 1
Köprüsü 1
açılış 1
hayvanc@@ 1
kitapları 1
miktarı 1
ped@@ 1
protesto 1
verilmektedir 1
ındır@@ 1
belirlem@@ 1
sever@@ 1
Sc@@ 0.6035198214760776
anlaşması 1
değiştirdi 1
Pro 0.9577579355896788
dün@@ 1
meclis 1
82 1
Sanc@@ 1
İstasyonu 1
dikkatini 1
Fo@@ 0.8718742084673242
Hur@@ 1
iktir 1
Mod@@ 1
Psik@@ 1
stratejik 1
Sir 0.5327731828154029
doktor 1
tiz@@ 1
etta 1
oya 1
politikası 1
tartışma 1
Ağrı 1
halklardan 1
Ada 1
büyüme 1
eklen@@ 1
enstr@@ 1
konuşulan 1
önemi 1
97 1
Oto@@ 1
saptan@@ 1
Emir 1
Lit@@ 1
rengi 1
İslami 1
Portekizce 1
bellek 1
birimleri 1
gezegen@@ 1
led@@ 1
macı 1
sahip@@ 1
Haned@@ 1
imha 1
59 0.9531129342196106
ardan 1
büyüdü 1
ildir 1
izler 1
oll@@ 1
Lenin 1
ertel@@ 1
Amasya 1
Timur 1
biçimi 1
kateg@@ 1
faz 1
olog@@ 1
Metin 1
oni@@ 0.7295585913222293
tis 0.7254153822553527
Kilise 1
maksimum 1
Mavi 1
madığını 1
piyano 1
ach 0.3103789795982217
geldiğini 1
giye 1
turu 1
lıklarını 1
raki@@ 1
uyum 1
antlaş@@ 1
örnekleri 1
bölümünün 1
cası 1
isiydi 1
kurmuştur 1
vücu@@ 1
Kh@@ 0.5216842813361086
bahar 1
yanlısı 1
83 1
Tiflis 1
fikri 1
huku@@ 1
ons 0.13466476095074578
eğe 1
ft 0.5633514097695741
kalıntıları 1
komuta 1
Mihail 1
ayrılmış 1
etmişlerdir 1
Harp 1
genişletil@@ 1
Özbekistan 1
Özgür 1
çevresindeki 1
aga 0.9046719180365327
kanal 1
liy@@ 1
İzlanda 1
Vek@@ 1
grubuna 1
kendisinden 1
sever 1
özü 1
alif@@ 1
olurken 1
denize 1
kolaylaştır@@ 1
sorunlar 1
tiyle 1
deneysel 1
Çalışma 1
Disney 1
osen 1
uzat@@ 1
4,@@ 1
Fik@@ 1
ets 0.22126352014760525
konumu 1
kurt 1
zırhlı 1
12@@ 1
Hükümeti 1
radyas@@ 1
çözül@@ 1
0,1 1
Mars 1
kuzeyde 1
motoru 1
tepel@@ 1
Mam@@ 1
Pot@@ 0.9989363725913081
Sibirya 1
avantaj@@ 1
belirlemek 1
GB 1
araba 1
cumhurbaşkanlığı 1
ime@@ 1
nem@@ 1
stat@@ 0.9493845201318796
haklarını 1
hali 1
mürette@@ 1
reç@@ 1
sorunu 1
aşkın 1
dergisinde 1
gibidir 1
inae 1
pel@@ 0.648569253772048
Süre@@ 1
Gur@@ 1
Meydanı 1
Seferi 1
matematiksel 1
Simon 0.838000531661567
Cem 1
acı@@ 1
ematik 1
golle 1
güneyde 1
yoluna 1
Ari@@ 1
cezasına 1
ülkeyi 1
Day 0.5267934060921566
Saray 1
lah 1
liğindeki 1
görünüş@@ 1
geride 1
İran@@ 1
91 1
Super 0.5729582475774231
etmesini 1
illiği 1
koalis@@ 1
kullanmak 1
makale 1
oran 1
gönüllü 1
Dairesi 1
Kong 0.764744915163411
denk 1
kısım 1
Niz@@ 1
SA@@ 1
duk@@ 1
etkiley@@ 1
ojen 1
İler@@ 1
Yaş 1
dun 1
yuv@@ 1
Yaln@@ 1
arma 1
müzisyen@@ 1
İşleri 1
düzenlenmiştir 1
hayv@@ 1
sekizinci 1
Op@@ 0.6948251639291186
bahsedil@@ 1
hayatının 1
Yavuz 1
tanımlanan 1
tanımlanır 1
hasta 0.1947475930761326
line 0.15208333581273448
odi@@ 0.9737262016438761
olun@@ 1
anlamında 1
eo 0.5736895146779931
like 0.1818825289139238
yarısı 1
malarında 1
muhab@@ 1
Rıza 1
asyonları 1
lerce 1
rekab@@ 1
abad 1
kaldırıldı 1
karışık 1
oranında 1
sipar@@ 1
sonlandır@@ 1
popüler@@ 1
Hamilton 1
Num@@ 1
hükümeti 1
BM 1
Hatta 1
ille 0.4950946743509881
kör@@ 1
od 0.8811015285338646
Okyan@@ 1
Team 0.3914489171456488
bombard@@ 1
Air 0.30729180369049264
Hız@@ 1
atin 1
kurum 1
mezar 1
oyunlar 1
tiğinde 1
Fox 0.9177127840530763
Meş@@ 1
Sınıf@@ 1
akıl 1
yazmaya 1
ain@@ 0.5061916921774294
bugüne 1
süredir 1
Demok@@ 1
Sonr@@ 1
keşif 1
aro 1
kitabın 1
topraklarında 1
Ant@@ 1
Fot@@ 1
nüfusa 1
yarışmasında 1
yeti 1
Pri@@ 1
Ty@@ 1
ikat@@ 1
imzalanan 1
kork@@ 1
Bolu 1
endiş@@ 1
sinde 1
uzaklaş@@ 1
Cav@@ 1
memur@@ 1
olabileceği 1
sevi@@ 1
Victoria 0.6345515095838274
laz@@ 1
tanrı 1
teklifi 1
şan 1
Dolayısıyla 1
karak@@ 1
01 1
Konservatuvarı 1
başrol 1
köle 1
Not@@ 0.6831564703661352
Teknoloji 1
olabileceğini 1
Yüksek@@ 1
mı 1
yükselmiştir 1
müşter@@ 1
Fir@@ 1
Hill 0.468171900580023
PKK 1
Fran@@ 1
alanan 1
işleme 1
madır 1
ი 1
bölgeler 1
kaynaklanan 1
seslendirilen 1
Kü@@ 1
animasyon 1
belki 1
sıkı 1
Hır@@ 1
deri 1
söylenir 1
1906 0.6622125430239761
Linux 1
Tuna 1
ary 0.16695704115374818
dönemlerinde 1
kas 1
Gez@@ 1
Mül@@ 1
Steve 0.8661499308763474
liman 1
tom@@ 0.674344312099271
şehristanı 1
luğ@@ 1
Wal@@ 0.4415276750003968
abl@@ 1
gecik@@ 1
not 0.03981853853483317
rakip 1
Yah@@ 1
sunulan 1
biti@@ 1
E. 0.6201918884463556
Juan 0.3791662557808574
Pel@@ 1
entin 1
restor@@ 1
seçimlerde 1
bilimkurgu 1
istediğini 1
ES@@ 1
Tol@@ 1
düzenlediği 1
şif@@ 1
Sol 1
devir@@ 1
kurban@@ 1
ufak 1
vokal 1
yazarlar 1
ısıt@@ 1
atöl@@ 1
devamı 1
imde 1
isy@@ 1
Ry@@ 1
ST@@ 1
hâlen 1
rev@@ 0.9612185427210549
öncelikle 1
belgesel 1
düşer 1
hakimiyet@@ 1
ister@@ 1
Bill 0.649861616171414
ebilir@@ 1
eğit@@ 1
atta 1
açmıştır 1
haftalık 1
kurmak 1
suzluk 1
söylen@@ 1
oksit 1
duvar 1
ürünü 1
aw@@ 0.3577186472818124
recek 1
Ön 1
ürünler 1
Beledi@@ 1
Eğitimi 1
Kafkas 1
ağırlık 1
cık 1
gençlik 1
inger 0.4800413405662501
sağlamaktadır 1
elt@@ 1
ihtiyacı 1
usal 1
Bundesliga 1
amaz@@ 1
imkân@@ 1
nör@@ 1
viç 1
ılığa 1
farklıdır 1
sattı 1
ile@@ 1
çel@@ 1
Mahmut 1
verilmiş 1
zu@@ 0.6836897805263796
Not 1
Tony 0.9526195787327895
aktris 1
diya 1
gular 1
Hum@@ 1
Sos@@ 1
kesiminde 1
Seçimleri 1
esc@@ 0.9132977315467126
sevgil@@ 1
France 0.11177086524370296
Galler 1
Seri 1
erinden 1
yaşına 1
burg 0.4427619230282622
kaleci 1
katılımcı 1
benim@@ 1
indir 1
meyd@@ 1
ordunun 1
é@@ 0.12543526846360756
pot@@ 0.6738687753849699
yumuşak 1
ımız@@ 1
Sam 1
bölümden 1
teşkil 1
rekor@@ 1
klerini 1
toplumun 1
yapması 1
büt@@ 1
entr@@ 0.42632834956323723
sürecinde 1
ash@@ 0.5748620348225502
başarıyla 1
ordusunu 1
ıntı 1
Şen@@ 1
89 1
Konfeder@@ 1
Pop 1
anır 1
gelmesi 1
zayıf@@ 1
Sün@@ 1
meydan 1
Lar@@ 0.9037303525862177
ameliy@@ 1
geler 1
gide 1
parçalar 1
adındaki 1
gazetesinde 1
çocukların 1
Christian 0.33396387564884744
Sus@@ 1
kullanmaya 1
Sezar 1
oto@@ 1
insanlara 1
temas 1
va@@ 1
Eyal@@ 1
Kahire 1
Rey 1
Yardımcı 1
pos 1
Mühendisliği 1
Protest@@ 1
Bilgiler 1
Müs@@ 1
sanatı 1
siyasetçidir 1
1890 0.7791320881403133
döneminden 1
verme 1
lüdür 1
sıralan@@ 1
tuz 1
urg@@ 0.9744916249210402
AT@@ 0.9992814105374572
yüzölçümüne 1
birincil 1
ekonomisi 1
Ek 1
The@@ 0.6996022732710888
biliş@@ 1
ilişkis@@ 1
almayı 1
grupta 1
İtalyanca 1
görünen 1
plastik 1
ure 0.25912867220742847
uğradı 1
çuk@@ 1
İsveçli 1
arke@@ 1
element@@ 1
görevleri 1
güreş 1
siyaset@@ 1
so 0.08018363834305775
Kahramanmaraş 1
Seçim 1
aalanı 1
iğin 1
kuvveti 1
sağlam 1
semt@@ 1
ıyan 1
avi@@ 1
filmlerinde 1
tehlikeli 1
yapımında 1
Kupa 1
stan@@ 1
İskoç 1
cinsel@@ 1
etmesine 1
CD@@ 1
YouTube 1
ente 0.23973874758218422
Arke@@ 1
Boğazı 1
Gerçek 1
alanının 1
05 1
François 0.649944700678774
Kütüphanesi 1
ağr@@ 1
onda 1
evde 1
numara 1
yg@@ 1
aly@@ 1
çıkarıldı 1
avir@@ 1
bilinmeyen 1
net@@ 1
sanatçının 1
yansı@@ 1
Cengiz 1
Tuğ@@ 1
diklerini 1
stein 0.45182269233784006
usunun 1
katlı 1
negatif 1
Ruslar 1
tasarlanmıştır 1
ıca 1
araçları 1
kare 1
lit@@ 0.8379884490667227
Ep@@ 1
ern@@ 0.4828735492549085
topladı 1
ımcı 1
Pazar 1
Polis 1
aksiyon 1
cezalandır@@ 1
bakanı 1
reh@@ 1
Geç 1
Geçmiş@@ 1
Hakları 1
Kup@@ 1
Murad 1
giymiştir 1
taşıma 1
ulaştır@@ 1
yapının 1
White 0.38756296815645447
alis@@ 0.9828317037093116
hidrojen 1
seyir@@ 1
Yakın 1
ort 0.8227775429363412
Çayı 1
Kale 1
plak@@ 1
ulmuştur 1
yaspor 1
07 1
adları 1
ayd@@ 1
dirir 1
ity 0.12196427132926496
umun 1
Söz 1
apo@@ 0.7140713628700524
gey@@ 1
mim@@ 1
yapılandır@@ 1
în 1
Yol 1
boya 1
kaydedil@@ 1
Fas 1
Genç@@ 1
Türkçeye 1
betim@@ 1
suy@@ 1
ıdır@@ 1
aldıktan 1
icra 1
kombin@@ 1
mükemmel 1
1876 1
A.@@ 0.9067196397835412
Cin@@ 1
Walter 0.6586077145541407
ileriyle 1
Od@@ 1
War@@ 0.46566169725849454
kapsar 1
rat@@ 1
köpek@@ 1
thi@@ 1
urlu 1
yumurta 1
çarptır@@ 1
Hakkında 1
balığı 1
hesab@@ 1
iliy@@ 1
Lor@@ 0.954770503890776
Mahallesi 1
adlandırıl@@ 1
aye 1
tekli 1
verdiler 1
bine 1
dest@@ 1
Büyükel@@ 1
Fat@@ 1
Mac 1
Vit@@ 1
Wil@@ 0.5032211419056419
sonuc@@ 1
üstlen@@ 1
Gerçek@@ 1
hükümdarı 1
keskin 1
stadyum@@ 1
anından 1
isin 1
salon@@ 1
öğrenciler 1
Finali 1
Maked@@ 1
alınır 1
eka 1
log@@ 0.6370646501535382
sekt@@ 1
Bazen 1
bulunmamaktadır 1
kut 1
şik@@ 1
anna 1
has 0.029515573280060124
yenilen@@ 1
1877 1
otlar 1
fel@@ 0.9185098886935509
helik@@ 1
ispor 1
kimlik 1
Atletizm 1
ülüğ@@ 1
İbranice 1
etten 1
komed@@ 1
Antakya 1
Madalyası 1
bayrağı 1
Cl@@ 0.5405475967571055
Tos@@ 1
ayrıntılı 1
rem 1
Yabancı 1
mektup 1
ularının 1
Anti@@ 1
almasına 1
ilin 1
inter@@ 0.14733253071088911
ucusu 1
Müdürü 1
nat@@ 1
yendi 1
air 0.2809085947796472
79 1
Karş@@ 1
nu@@ 1
tanımlanmıştır 1
Cez@@ 1
matematik@@ 1
1896 0.803326733238064
Oğuz 1
Bahç@@ 1
almakta 1
yayı 1
University 0.07431343888139279
geliştirilmiştir 1
hiper@@ 1
olmasıyla 1
ordur 1
yarışmaya 1
Zü@@ 1
ettikten 1
ikincisi 1
çekirde@@ 1
ıtlar 1
1904 0.6581153615906115
Lord 0.5236472462083762
Recep 1
alim@@ 1
kötü@@ 1
leştirme 1
bank 0.548407348502187
ıklarında 1
atılan 1
uki 1
Night 0.8852685169036126
Orijinal 1
uke 1
Yayınları 1
eyaleti 1
kov 1
yaları 1
1,5 1
merkezinin 1
B. 0.3216121971368336
Kre@@ 1
alım 1
azam 1
op 0.7716110533011281
sıkıştır@@ 1
ımlarına 1
5.000 1
Hatay 1
pilot 1
demokratik 1
Wilson 0.7510553496889744
defans 1
Ürdün 1
milyondan 1
paz@@ 1
Cad@@ 1
gerçekleştirilmiştir 1
krali@@ 1
mensup 1
ılmaz 1
Sed@@ 1
ase 0.3832090882001742
leştirilmiş 1
metin@@ 1
iskel@@ 1
lukta 1
makine 1
sayısını 1
uyumlu 1
zih@@ 1
bombal@@ 1
komit@@ 1
yardımc@@ 1
ücret@@ 1
10.000 1
Geliştir@@ 1
Küre 1
havz@@ 1
adığını 1
nihay@@ 1
ağab@@ 1
kimya 1
konularda 1
îler 1
Şahin 1
bağlayan 1
enerjisi 1
istasyonu 1
pey@@ 1
ındandır 1
Barcelona 0.8050630255312419
yürüttü 1
Şampiyon 1
alya 1
bağlantısı 1
ling 0.2833859121114248
uyuşturucu 1
ürü 1
ıysa 1
Sinop 1
demektir 1
gür@@ 1
yöres@@ 1
çiçek 1
Arena 1
hayvanlar 1
elen 1
Varşova 1
takma 1
alırken 1
Arab@@ 1
ayol@@ 1
aşma 1
sandal@@ 1
sendromu 1
Çarş@@ 1
cinsiyet 1
mahkeme 1
Üzer@@ 1
Mike 0.7487138808623324
Milano 1
TÜ@@ 1
boşalt@@ 1
zamanın 1
üphane 1
Andrew 0.7958450329039444
C. 0.365160839305047
ekt@@ 1
çözüm 1
direkt 1
hazırladığı 1
Şehri 1
ej 1
ittifak 1
alay@@ 1
dinamik 1
evik 1
Dördüncü 1
ban 0.5141707784393607
baskısı 1
bün@@ 1
tadan 1
çubuklu 1
üsünün 1
House 0.1965054963457728
lah@@ 1
teorik 1
dia 0.8499039875580935
görünt@@ 1
tabi 1
Brian 0.9950897381182562
erg@@ 0.970852937515415
Yapım 1
buhar@@ 1
retti 1
uygulamalar 1
Dizinin 1
Sig@@ 1
Stephen 0.882069882506601
katman@@ 1
luğunda 1
mesafe 1
Ail@@ 1
alanın 1
atanmıştır 1
bakanl@@ 1
Yıl 1
dal 1
gövde 1
mindeki 1
düşünces@@ 1
emri 1
gösterilir 1
katılmaya 1
kaza 1
dor@@ 0.682355637637233
duygul@@ 1
edebi 1
ão 1
ıyorlardı 1
ağıdır 1
kaynaklı 1
mesel@@ 1
senarist 1
yakalam@@ 1
Üre@@ 1
anmıştır 1
Derg@@ 1
allı 1
olmaması 1
Kurt 1
Rod@@ 1
fes@@ 1
loj@@ 1
rük 1
ülkes@@ 1
Aslan 1
Oblastı 1
anahtar 1
Komutanı 1
Kri@@ 1
ando 0.14149291932591557
fonksiyonu 1
Ö 1
öğrenim 1
Buenos 0.8214809756532025
Komis@@ 1
belges@@ 1
Önce 1
benzeyen 1
fesh@@ 1
geçmişi 1
huzur@@ 1
karşılaştı 1
meslek@@ 1
mıs@@ 1
1901 0.6943335472604744
Corporation 0.6687275808009708
Mid@@ 1
marka 1
uri 1
Kilis@@ 1
SE@@ 0.9687258294510613
afya 1
hur@@ 1
parlament@@ 1
S. 0.518623179747386
mül@@ 1
Hazar 1
sadr@@ 1
seviye 1
yavaş@@ 1
öldüğü 1
Bülent 1
Oxford 0.7817931604175012
bayrak 1
hisse@@ 1
partisi 1
büy@@ 1
tec@@ 1
ırlı 1
Aires 0.817951210066791
Got@@ 1
Kuy@@ 1
ilgisi 1
tanımlamak 1
düşünülen 1
fig@@ 1
sat 1
-- 1
astr@@ 0.9959087919192997
Bed@@ 1
fol@@ 0.833865896118653
heyk@@ 1
ž@@ 1
Holding 1
bun@@ 1
dergisinin 1
görmüş 1
tutan 1
çekici 1
Büyü@@ 1
Ot@@ 1
oyuncudur 1
topluluk 1
yev 1
Özellikleri 1
üreticisi 1
Şev@@ 1
ett 0.45889356775479767
kam 0.268520299080117
Çevre 1
Kaya 1
kaybeden 1
yetersiz 1
Kitab@@ 1
Kıy@@ 1
eriye 1
etkisini 1
topr@@ 1
niyet@@ 1
riz@@ 1
sahne@@ 1
sus@@ 1
ılığ@@ 1
Tac@@ 1
Yıldız@@ 1
döneme 1
çektiği 1
Tümeni 1
getirmek 1
kuzeybatısında 1
Elektrik 1
farkı 1
zay@@ 1
Onur 1
Tiyatr@@ 1
atası 1
ortamda 1
piyade 1
Saray@@ 1
don 0.4704917132574637
finansal 1
protokol@@ 1
ularından 1
yazıları 1
06 1
Ale@@ 1
beslen@@ 1
diyal@@ 1
iktis@@ 1
Çift 1
şeyin 1
Napoli 1
anını 1
bulan 1
endüstriyel 1
ülkedeki 1
iyor@@ 1
topu 1
umi 1
Hans 0.5634423544771457
ame 0.6467962697622213
Ş 1
Yat@@ 1
çıkıp 1
isyan@@ 1
ortas@@ 1
periy@@ 1
ıtları 1
zo 0.8075222090764571
Kahr@@ 1
ე@@ 1
Zam@@ 1
aydınlat@@ 1
belediyedir 1
kâğ@@ 1
matik 1
tecrü@@ 1
görünüm@@ 1
leşmesi 1
Championship 0.2860551990272744
açıklamada 1
Çince 1
enci 1
firması 1
kol 1
örümcek 1
bıç@@ 1
kaydedilmiştir 1
seyirci 1
stratej@@ 1
zek@@ 1
çekim@@ 1
sebeple 1
Batman 1
Hareket 1
Jacques 0.6476007507623434
Zaman@@ 1
rap@@ 0.7307431602216156
uta 1
AS 0.8618675256236434
bırakarak 1
Maliye 1
başından 1
ich@@ 0.3915699716594154
sürüc@@ 1
gali@@ 1
halef@@ 1
Bank 0.4857623687116286
kuze@@ 1
tedavisi 1
unları 1
yaygındır 1
alarındaki 1
hakkını 1
bilgil@@ 1
kant@@ 1
koydu 1
mühendislik 1
olitik 1
seçen@@ 1
Örnek 1
hâline 1
nd@@ 1
Gece 1
Milli@@ 1
topluluğu 1
idaresi 1
imsel 1
tale@@ 1
ullah 1
yerleşik 1
yesinde 1
edilmesini 1
pencer@@ 1
yeye 1
lemesi 1
sed@@ 1
yapıya 1
zinc@@ 1
Who 1
olayların 1
ins 0.1496665384716914
sekre@@ 1
vatandaşı 1
çatışmalar 1
East 0.2247732264888164
yerden 1
çatışma 1
Bod@@ 1
kitapta 1
kontr@@ 1
Ünlü 1
Grande 0.7328371986532672
oter@@ 1
Emre 1
ayakta 1
açtığı 1
hareketleri 1
low 0.24075570277524413
luluk 1
yarattı 1
zafer 1
senaryosunu 1
trafik 1
öm@@ 1
Pu@@ 1
gökad@@ 1
görevlerinde 1
Giz@@ 1
yüzlerce 1
ıcılık 1
Küçük@@ 1
Yard@@ 1
depolama 1
vesi 1
yete 1
Sub@@ 0.49541387106752
müst@@ 1
oğl@@ 1
Sarı 1
leşmiş 1
üyesiydi 1
Alt 1
bakınız 1
yeterince 1
üretilmiş 1
ğidir 1
AL@@ 1
arının 1
başlayıp 1
hapishan@@ 1
küre@@ 1
meşhur 1
suya 1
belirlenen 1
hel@@ 0.9918308603490131
ihan@@ 1
maddesi 1
zemin 1
Boğ@@ 1
Fi@@ 0.7892253880905379
baskı@@ 1
ladır 1
Cemal 1
ich 0.35109095862009393
isimlendir@@ 1
sans@@ 1
Çav@@ 1
cins@@ 1
ng 1
semtinde 1
baharında 1
konusundaki 1
Çat@@ 1
Cy@@ 1
Pensilvanya 1
galip 1
geçiril@@ 1
girişimi 1
olmasa 1
Avrupalı 1
dör@@ 1
rul@@ 1
ido 0.2995274018070954
şeyler 1
Letonya 1
dağılımının 1
eğin 1
yöntemleri 1
devrim@@ 1
elinden 1
mülki@@ 1
töreni 1
şa 1
formül@@ 1
Nah@@ 1
bil 1
eğitimine 1
lil@@ 1
Stone 0.963789416485367
istihbarat 1
liğiyle 1
yiyecek 1
dağlık 1
int@@ 0.5130033569793476
landığını 1
tarafı 1
vermesi 1
İoannis 1
Charlie 1
Tre@@ 0.5712442207681907
bağlanmıştır 1
ilçenin 1
tablo 1
örne@@ 1
ötesi 1
Vah@@ 1
ert 0.25050508856286663
uvar 1
Aşağ@@ 1
Benzer 1
ago 0.64725492614905
plana 1
tran@@ 1
une 0.0187292754496313
Art 0.23415761833066542
arya 1
edebiyatı 1
takımdan 1
yaşamıştır 1
14.@@ 1
Askerî 1
Kitabı 1
zen 0.555351533520929
Pet@@ 1
etkinlik 1
kuran 1
lige 1
130 1
Prens@@ 1
Tunç 1
defter@@ 1
Mark@@ 1
bilimci 1
ilgisini 1
Fili@@ 1
düşünc@@ 1
hasıl@@ 1
muhalefet 1
sef@@ 1
Arnavut@@ 1
Beh@@ 1
Sonrasında 1
Yolu 1
ji@@ 1
katılım 1
kayıp 1
Çinli 1
demli 1
gil@@ 1
ksi 1
lenti@@ 1
uygar@@ 1
Doğr@@ 1
Rah@@ 1
hata 1
likten 1
Rem@@ 0.7694105998132826
işle 1
politikacı 1
öğretmeni 1
Yöne@@ 1
abildi 1
dışarı 1
bakım 1
bulmuştur 1
gül 1
hü@@ 1
Of 0.6895646138929256
Sekre@@ 1
Genelkurmay 1
birliklerinin 1
değiştirilmiştir 1
ettin 1
keleri 1
vis@@ 0.6125486143176087
haftasında 1
istek@@ 1
lıkların 1
üydü 1
ılığına 1
Hom@@ 0.7327738869931391
önces@@ 1
ū@@ 0.9908910006552141
Newton 1
başbakanı 1
siniz 1
Ses@@ 1
listede 1
tey@@ 1
yayınladığı 1
Amerik@@ 1
gerçekleştiril@@ 1
Pam@@ 1
Reg@@ 0.33936197866881673
akci@@ 1
dokuzuncu 1
tamamlandı 1
Valisi 1
anj@@ 1
beden@@ 1
soyundan 1
tasarlanan 1
yedek 1
ats@@ 1
edebilir 1
yasama 1
1903 0.646949940663193
Rak@@ 1
Web 1
bahsed@@ 1
güneybatısında 1
Rumeli 1
Tatar 1
Tic@@ 1
icat 1
parlamento 1
Filmde 1
rakib@@ 1
Lat@@ 0.8729757587985086
Romalılar 1
adılar 1
değiştiril@@ 1
tahrip 1
tarihe 1
alü@@ 1
oyunc@@ 1
soğut@@ 1
yağmal@@ 1
ışlar 1
Stad@@ 1
alıların 1
emeyen 1
ky 0.5051445462063117
sabah 1
zade 1
şem@@ 1
içeri 1
sürgün 1
Buz@@ 1
diyerek 1
iciler 1
tırman@@ 1
Fırat 1
ense 0.6749399679724417
katk@@ 1
yam@@ 1
Swift 1
tanımlar 1
tohum@@ 1
izledi 1
kahraman@@ 1
köpek 1
yayla 1
herkes 1
karakterler 1
meclis@@ 1
oviç 1
ularak 1
gelecek@@ 1
normal@@ 1
Hek@@ 1
değerleri 1
gerçekleşmiştir 1
mühendisliği 1
Gazete 1
rütbesine 1
Üst 1
17.@@ 1
denen 0.4453573062592385
giller 1
kili 1
miye 1
müzaker@@ 1
yazma 1
Biz@@ 1
Galaxy 1
Ulus@@ 1
famil@@ 1
iOS 1
sahte 1
avukat 1
ly@@ 0.5969034934469862
osunda 1
ee 0.3963738107610059
manast@@ 1
og 1
Floransa 1
akademisyen 1
gre@@ 1
sanatçılar 1
Alfred 0.8336034260397548
Ev 1
Kırgız@@ 1
eklendi 1
kanıt 1
meslek 1
ulması 1
Pale@@ 1
HD 1
Program@@ 1
anısına 1
Gro@@ 0.6608794068869602
Kub@@ 1
gı 1
seviyesi 1
şehrine 1
etiketiyle 1
ismin 1
num@@ 1
turnuva 1
açıklan@@ 1
demiştir 1
Ardahan 1
ero 0.31023282573496735
kulübün 1
muhaf@@ 1
borç@@ 1
profesörü 1
× 0.67942218360489
Almanyası 1
beğ@@ 1
rolünde 1
gü 1
sürülmüştür 1
mun@@ 1
taraftan 1
Kanun 1
direktörlük 1
sanal 1
sürülen 1
usudur 1
zırh@@ 1
Bakanl@@ 1
Gün 1
Kazak 1
Müş@@ 1
anim@@ 0.8786921537508054
espor 1
suik@@ 1
Alice 1
Green 0.4845461901221104
Orkestrası 1
romantik 1
çoklu 1
emp@@ 0.6208840820189616
kaybı 1
mütte@@ 1
yeraltı 1
çalışmak 1
kısmının 1
yenilgiye 1
Girit 1
Yedi 1
Ceph@@ 1
itz 0.4111592770003106
Projesi 1
duygusal 1
ailesine 1
görevde 1
kütle@@ 1
Bitlis 1
Muk@@ 1
galak@@ 1
klem@@ 1
planlanan 1
Day@@ 1
Tur 1
grubudur 1
kızıl@@ 1
1880 0.769343622776702
Boş@@ 1
arını 1
eyal@@ 1
politikas@@ 1
ont 0.09938342706113455
sent@@ 1
Eyü@@ 1
atörü 1
bırakt@@ 1
devrimci 1
etle 1
iss@@ 0.52491530440417
melerin 1
modelleri 1
mühendis@@ 1
Cat@@ 0.6482209654109797
göze 1
oru 1
3,@@ 0.8514002345269444
bisiklet@@ 1
ho 1
mutfağ@@ 1
aldığını 1
mahkûm 1
nahiy@@ 1
salonu 1
kararlaştır@@ 1
takımını 1
yarattığı 1
öğrencileri 1
şeklindedir 1
landıktan 1
ebi 1
jin@@ 1
mür@@ 1
Football 0.32303410231561797
Tran@@ 0.9990278831023712
endis 1
etmekte 1
ihraç 1
verilmesi 1
Gec@@ 1
Meryem 1
aüstü 1
başkanlığına 1
bâ@@ 1
faktör@@ 1
farklılık 1
sezonunu 1
Cap@@ 0.6253713320575044
Yür@@ 1
sistemler 1
ıcıları 1
azından 1
durumuna 1
omi 1
üçünc@@ 1
а@@ 0.2481405493499612
analizi 1
deneyim@@ 1
ladığını 1
nehir@@ 1
oynandı 1
vili 1
çıkmaya 1
aşan 1
imi@@ 1
oyuncuları 1
felak@@ 1
ović 1
tı@@ 1
Enerji 1
Sudan 1
laştırma 1
melere 1
rüz@@ 1
ua 0.6339780019481458
Dü@@ 1
Little 0.6125916919537214
Muhar@@ 1
Selçuk 1
ork@@ 1
5,@@ 1
arayüz@@ 1
pozisyon 1
ölçüm@@ 1
Alev@@ 1
açığa 1
yapmayı 1
öğreti@@ 1
okulda 1
oluşturulmuştur 1
Ülke@@ 1
Faz@@ 1
Liz@@ 1
Ohio 0.5389732760970131
emiş 1
gam@@ 1
semb@@ 1
düzlem@@ 1
haftada 1
toz 1
desteğini 1
kullanılmış 1
Aj@@ 1
Petr@@ 1
Yapılan 1
aydın@@ 1
Güzel@@ 1
gelişmeler 1
liderliğindeki 1
savundu 1
gözük@@ 1
Orada 1
aliyeti 1
mang@@ 1
maçlar 1
üretildi 1
Eli@@ 1
Eric 1
kâr 1
yenilik@@ 1
ülkelerinde 1
Hoca 1
Hükûmet 1
Island 0.2861440676852178
Salonu 1
içerik 1
sonuçlanan 1
öh@@ 1
Parlamento 1
Vali 1
aller@@ 1
Babil 1
laşmış 1
olanak@@ 1
topraklarını 1
tro 0.8351920591401554
uni 1
Columbia 0.550286485899828
hızlandır@@ 1
pp@@ 0.552517244186673
çekirdek 1
Pak@@ 1
ilim 1
mutlak 1
vit@@ 1
ster 0.3602410685391856
well 0.07345495243142687
ılığın 1
Maine 1
Piyade 1
isleri 1
Şampiyonu 1
Kör@@ 1
Pil@@ 0.9321600775350788
Super@@ 0.5108770056783386
belirtilmiştir 1
mültec@@ 1
ticaret@@ 1
რ@@ 1
Yazar 1
patlam@@ 1
ram@@ 0.8168374629776638
tüccar@@ 1
öf@@ 1
Hakan 1
seyah@@ 1
sürer 1
PS 0.7636392668024535
Sit@@ 1
itleri 1
müs@@ 1
110 1
Ras@@ 1
oyuncunun 1
spektr@@ 1
stan 1
Atlas 1
Heinrich 0.5965487750819294
Kasab@@ 1
alak@@ 1
koşulları 1
Mimar 1
Yapı 1
aşağıda 1
ded@@ 1
lediler 1
numarası 1
âh@@ 1
Şirketin 1
şun@@ 1
Kevin 1
amaç 1
düzenleme 1
geçirmek 1
pta 1
ry 0.41292855888320734
seçti 1
verileri 1
bırakmıştır 1
öldürür 1
Gol@@ 0.7215890239168947
başlamıştı 1
danış@@ 1
grubunu 1
Euro 0.8467534621910391
Türkleri 1
amo@@ 1
ark 1
kuşu 1
acın 1
başarmıştır 1
egemen 1
TC 1
bölümün 1
edilmesine 1
gerçekleştirdiği 1
ikil@@ 1
katılmak 1
lıyor 1
po 1
uca 1
çik@@ 1
ördür 1
ılmasıyla 1
Etimoloji 1
bizzat 1
değişikliği 1
evler 1
öncü 1
Açık@@ 1
bilinç@@ 1
cir 1
maddenin 1
öyle 1
Konstantin 1
Orman 1
düzelt@@ 1
evden 1
hil@@ 1
yaşamaya 1
Savaşın 1
Uşak 1
alp@@ 1
dire@@ 1
iyice 1
köşe 1
maddes@@ 1
sinyal@@ 1
çey@@ 1
Illinois 0.5762141821406814
format@@ 1
portr@@ 1
yaya 1
ıldıktan 1
hükûmetin 1
kodu 1
okuma 1
ektir 1
uvarı 1
Alex 1
Artık 1
Center 0.2806732028424709
Eserleri 1
Yeş@@ 1
taray@@ 1
rir 1
ülkesinde 1
Ere@@ 1
olmaları 1
bulunabilir 1
üşü 1
Şampiyonluğu 1
SB@@ 1
doğduğu 1
naz@@ 1
çalışmalarının 1
öykü 1
Char@@ 0.3620319444844418
ake 0.41343621353243953
cil@@ 1
değin 1
sizdir 1
yağış 1
Albümde 1
Uzun@@ 1
bakır 1
güd@@ 1
kong@@ 1
organı 1
yolunu 1
Prag 1
bağım@@ 1
hes@@ 1
sıkça 1
bitiş@@ 1
kanı 1
katılma 1
kemer 1
kiyi 1
lıklı 1
miktar 1
savunan 1
tahmini 1
Bask@@ 1
Sistem@@ 1
işlemc@@ 1
SS@@ 1
W. 0.5624151000087533
iliğe 1
iran 1
che 0.2552905862240809
eşcinsel 1
Blo@@ 1
Ensti@@ 1
Zonguldak 1
caz 1
cilt 1
Felse@@ 1
ekle 1
izleyic@@ 1
kurban 1
köyüne 1
miner@@ 1
saldırıları 1
yaklaşım 1
öğret@@ 1
şarkıcısı 1
Cu@@ 0.543451439637013
Ez@@ 1
Hun@@ 1
aziz 1
cami@@ 1
masız 1
rahatsız 1
yaygın@@ 1
Dili 1
Kara@@ 1
enfeksiyon@@ 1
ensis 0.534181567772288
ow@@ 0.369900138267071
tura 1
yazılar 1
Anayasası 1
doğmuş 1
öl 1
Bağımsız 1
Opera 1
Rob@@ 0.8967030393550323
eren 0.37161898205402183
kritik 1
sep@@ 1
örgütü 1
ağız@@ 1
eleşti@@ 1
Mand@@ 0.7755920218952038
Yav@@ 1
deydi 1
kaçtı 1
Türklerin 1
duyuruldu 1
markas@@ 1
numaradan 1
Adnan 1
Devlet@@ 1
anayasa 1
kocası 1
Ankar@@ 1
eridir 1
kot@@ 1
mağlubi@@ 1
raz 1
yeteneği 1
Komut@@ 1
ikle 1
muharebe 1
salın@@ 1
Coğr@@ 1
Fen@@ 1
aleyh@@ 1
altyapısında 1
üzüm 1
Adolf 1
Mektebi 1
bran@@ 1
kupa 1
seb@@ 1
türün 1
yöneten 1
yar 1
arkadaş 1
emir@@ 1
gemileri 1
olurlar 1
yükselt@@ 1
buy@@ 1
kayda 1
çü 1
Berg@@ 0.5620973834494528
Futbol@@ 1
biz@@ 1
tiz 1
rahi@@ 1
tanıtıldı 1
geliştirmek 1
kapit@@ 1
sponsor@@ 1
ımla 1
Bilimleri 1
Gl@@ 0.616985133778034
oğul@@ 1
ulus 1
Cambridge 0.7977812791919093
Fri@@ 1
alkol 1
ehir@@ 1
eştir@@ 1
Blue 0.5573053709075632
Einstein 1
Emin 1
güneydoğusunda 1
lehç@@ 1
osa 0.378682866909066
ons@@ 0.483646535586915
13@@ 0.9265172548590884
bölgeden 1
ektif 1
filme 1
kontrolünü 1
maçlarını 1
milit@@ 1
şeklindeki 1
Böyle 1
basit@@ 1
belediyesine 1
bik 1
gelişim 1
kaplı 1
savaştan 1
Araç 1
RA@@ 0.832973875410444
iller@@ 1
bunlara 1
müttefik@@ 1
oluşturuldu 1
İklim 1
Cami 1
alanındaki 1
rest@@ 0.8340757302698772
yazısı 1
röportaj@@ 1
ides 0.3058924615591671
saldırdı 1
ümüş 1
Nu@@ 0.9367499350465683
etkinliği 1
Jan@@ 0.744605234936851
Porto 1
bulgul@@ 1
eke 1
pasaport@@ 1
plat@@ 1
Müst@@ 1
Philadelphia 0.7468197607728777
araçlar 1
soyadı 1
Çoğun@@ 1
Michigan 0.5677539242574141
Türkçesi 1
filmlerde 1
oid 1
seslendirdi 1
âh 1
öykü@@ 1
görmek 1
mine 0.781979681097157
thi 0.937707918439474
Harekâtı 1
Hırvat 1
Pekin 1
Salih 1
ebileceği 1
konuları 1
tecav@@ 1
ult@@ 1
entegre 1
ilki 1
kaydı 1
moda 1
çet@@ 1
1870 0.7002927645790528
Francis 0.6601559539976312
Seb@@ 1
bilen 1
haricinde 1
Slovenya 1
büyüyen 1
dünyasında 1
gl@@ 0.4585780076000443
Fizik 1
Malezya 1
ağacı 1
köye 1
ordusuna 1
Oyunun 1
Baş 1
Otto 0.765083670527871
Sy@@ 0.6962210348277511
lamada 1
çi@@ 1
ılarıyla 1
die 0.006699020584938674
döndür@@ 1
grub@@ 1
oksijen 1
vize 1
Çukur@@ 1
şehirleri 1
Anthony 0.9147698110505146
Dergisi 1
F. 0.6218814130544476
eserin 1
idin 1
içeriği 1
ER@@ 1
Karşıyaka 1
Kulesi 1
arından 1
güreşçi 1
heykel 1
iktidar 1
14@@ 0.9253978297262574
Chelsea 1
Off 1
kazanır 1
rom 1
set 0.14355011596320014
devam@@ 1
grubunda 1
lam 1
lat 1
uygulamaya 1
âl 1
amadığı 1
cr@@ 0.16953104068864197
eliğine 1
ikan@@ 1
kimse 1
sürdüren 1
lia 1
yaptıktan 1
gitmek 1
hedefi 1
hayvanların 1
taarruz 1
yetişkin 1
İletişim 1
Futbolculuk 1
Peru 1
Politi@@ 1
cek@@ 1
hus@@ 1
maçını 1
ref 0.9509654693390788
sist@@ 1
uzanır 1
1897 0.6824649806810841
Ces@@ 1
ayrım 1
bahs@@ 1
kemeri 1
mutlu 1
şirketinin 1
13.@@ 1
Albay 1
Bos@@ 0.8518368776465763
Dükü 1
mağı 1
ümüz 1
arca 1
parmak 1
raz@@ 1
türev@@ 1
Önemli 1
öden@@ 1
Nem@@ 1
atar 1
desteğiyle 1
rar@@ 1
topraklarının 1
örgüt 1
1500 1
mark@@ 1
skor@@ 1
yüklü 1
DE@@ 1
görülebil@@ 1
sunucu 1
Farklı 1
Meslek 1
adlandırıldı 1
gittiği 1
ımcısı 1
Jon 1
enek@@ 1
tron 1
Ash@@ 0.7289325064575362
Ermenice 1
P. 0.5638586411777341
PlayStation 1
Yu@@ 1
Sto@@ 0.9441915220751437
rekoru 1
Abhaz@@ 1
Yorkshire 1
Yör@@ 1
aset 1
kullanmaktadır 1
masa 1
ME@@ 1
kesiş@@ 1
tre@@ 0.4254700605927293
zer@@ 0.8387328332816985
Çor@@ 1
Senar@@ 1
besin 1
duruş@@ 1
hiç@@ 1
nir 1
Dost@@ 1
padişah@@ 1
1899 0.6665615691246674
Uygur 1
anlamıyla 1
etlerin 1
iminde 1
sayılan 1
çocuğun 1
dat@@ 0.8822399976886505
mitolojisinde 1
oyunudur 1
türünde 1
ımların 1
Barajı 1
Yemen 1
ator@@ 1
barındıran 1
futbolu 1
rahat@@ 1
karşılığı 1
oph@@ 0.4543255174619875
ue 0.22631229558824284
DJ 1
Hac@@ 1
Harvard 0.9861346347379584
Kadıköy 1
biten 1
esti@@ 0.725301563849127
imzalan@@ 1
şarkıyla 1
IP 1
amm@@ 0.9066163857198469
eliptik 1
felsefi 1
istey@@ 1
ittif@@ 1
uzman 1
KP 1
Panzer 1
Romalı 1
eki@@ 1
etk@@ 1
işletme 1
ortam 1
İnönü 1
Eyalet 1
düşmüştür 1
gidip 1
göstermek 1
isminin 1
personel 1
Trans@@ 0.5311437642478744
zincir@@ 1
benimse@@ 1
kilisenin 1
Çekoslovakya 1
arında 1
endiler 1
menleri 1
atmosfer@@ 1
beklem@@ 1
birbirleriyle 1
sağlığı 1
senaryo 1
Hid@@ 1
Kiş@@ 1
Vez@@ 1
lanmıştı 1
mana 1
izleyen 1
dönmüştür 1
go@@ 0.47089462183744724
gözden 1
Kolombiya 1
Milletvekili 1
Portekiz@@ 1
Tayland 1
Türkmen@@ 1
eserlerini 1
hafif@@ 1
lif@@ 1
müte@@ 1
tavsiye 1
tekni@@ 1
Kin@@ 0.7859479595678724
Tug@@ 1
dolarlık 1
AT 1
Samsunspor 1
mut 1
çıl@@ 1
Street 0.20155729545658357
ağırlığı 1
bulunuyor 1
elleri 1
kası 1
reti 1
Giovanni 1
AD@@ 0.9311793157634848
Afyonkarahisar 1
Fey@@ 1
Ren 1
dersler 1
hoş 1
ölçül@@ 1
II@@ 1
belirtilen 1
kahraman 1
almıştı 1
iliğini 1
muhareb@@ 1
NASA 1
TE@@ 1
abat 1
durumun 1
Manastırı 1
anıt 1
aşamasında 1
riyle 1
soyl@@ 1
torunu 1
Okul 1
adanın 1
kurulduğu 1
Noel 1
Siyah 1
aralık@@ 1
cinsi 1
trav@@ 1
apa 1
bal 1
düzeni 1
günden 1
lebilir 1
Ortak@@ 1
benze@@ 1
Gürc@@ 1
SA 0.726174484636007
kân 1
şirketleri 1
Frankfurt 0.885647504712927
Ky@@ 1
edem@@ 1
korunması 1
sahibidir 1
VII 0.9906676425243319
markası 1
Adıyaman 1
İT@@ 1
000 0.30666500478652536
Azer@@ 1
depres@@ 1
siv@@ 1
yayınlanmış 1
Koç@@ 1
Mekke 1
komutan 1
sabit@@ 1
sunar 1
Üsküdar 1
andığını 1
dörtgen 1
ico 0.33373635213862085
çıkarılmıştır 1
desteklemek 1
kök 1
meyvel@@ 1
faaliyetlerini 1
krip@@ 1
cihaz 1
iPhone 1
gösteri 1
üng@@ 1
alığı 1
ağından 1
fan 1
kuzeydoğusunda 1
reaksiyon@@ 1
teori 1
tüsü 1
Len@@ 1
alıyordu 1
görevli 1
muhafazak@@ 1
plerini 1
sizliği 1
Key@@ 1
akl@@ 1
etkileyen 1
gili 1
plerinin 1
tahliye 1
uyandır@@ 1
İstih@@ 1
acil 1
hükümet 1
politi@@ 1
çevresi 1
ø@@ 0.710201977289742
şarkısının 1
Go 1
eter@@ 1
iğini 1
iştir@@ 1
olayın 1
ticareti 1
yönlü 1
Is 0.7814856133033651
gev@@ 1
ney@@ 1
tüken@@ 1
1864 0.8450205710295852
I.@@ 1
avant@@ 1
saray@@ 1
ting 0.13983611442762092
verici 1
yonlar 1
Fin 1
ilgilidir 1
di.@@ 1
ikinc@@ 1
sözleşmesi 1
yönetimine 1
zz@@ 1
moleküler 1
yüzünde 1
California 0.2003852843845168
Rick 1
Teh@@ 1
Çalışmaları 1
defnedildi 1
ess 0.20985981037480267
yangın 1
hiye 1
kesinti@@ 1
Akç@@ 1
Ca@@ 0.8944105132777675
Kariyer 1
arttı 1
bildirildi 1
değişti@@ 1
kömür 1
söyley@@ 1
yağmur 1
alis 0.7547082400705888
gerçekleşir 1
sadık 1
yazıldı 1
zarf@@ 1
Miy@@ 1
ayeti 1
deş 1
gerektirir 1
okim@@ 1
sonucuna 1
anıdır 1
nehri 1
Arslan 1
SY@@ 1
Yardımcılığı 1
flor@@ 1
matr@@ 1
sürük@@ 1
taleb@@ 1
Ün@@ 1
şef@@ 1
büyüklük@@ 1
opo@@ 1
İly@@ 1
öng@@ 1
belirten 1
isler 1
Tas@@ 1
Universe 1
Dah@@ 1
Hikmet 1
alandı 1
başa 1
pratik 1
sokak 1
Nişanı 1
ayıp 1
talim@@ 1
bileşen@@ 1
bomb@@ 1
girişi 1
Sarı@@ 1
ack 0.5625257808804157
bası 1
öre 1
Pek 1
bilir 1
vilayet@@ 1
ülerin 1
Gazetec@@ 1
Hap@@ 1
Hic@@ 1
Pek@@ 1
bölümünden 1
görevlerini 1
sine 1
söyleyerek 1
uyd@@ 1
Hayat 1
Kons@@ 1
evlilik@@ 1
futbolcul@@ 1
kast@@ 1
lini 1
Devrim 1
Muş 1
Villa 0.778535777656578
Yaşar 1
anca 1
dy 0.5116183374812887
suikast 1
yapıları 1
Uygul@@ 1
atmos@@ 1
bitiren 1
boyn@@ 1
kurdular 1
zorla 1
Üniversitesinde 1
Bavyera 1
Gaga 1
Kaç@@ 1
Milan 1
fikrini 1
kariyer 1
nadiren 1
çalışmalarında 1
ölçekli 1
Mimarlık 1
patlak 1
yüzölçümü 1
Akadem@@ 1
DS@@ 1
Japonca 1
çay@@ 1
Arjantinli 1
kün@@ 1
ligin 1
seslendirme 1
yardımı 1
şefi 1
1895 0.6575946475161338
Arg@@ 1
Atlantik 1
Ziya 1
ahat@@ 1
dizisidir 1
Samuel 0.7615911785592221
üçte 1
Gümüşhane 1
Kuz@@ 1
anlaştı 1
oluşturulmuş 1
ödülüne 1
ıklarının 1
olik 1
1885 0.7256365077231015
Nuri 1
Serie 0.5283050879299811
batıya 1
gitarist 1
ifadesi 1
kemik 1
meclisi 1
sessiz 1
sıfır 1
80@@ 1
Lah@@ 1
eşme 1
gününde 1
ine@@ 0.6382382680345479
örtüsü 1
Saat 1
elektrikli 1
merdi@@ 1
yazarın 1
û 1
İnşaat 1
Lam@@ 0.7954864308100366
ikincil 1
rekt@@ 1
uzaklığı 1
çekmiştir 1
í 0.40274926970563724
Küt@@ 1
kayıtları 1
salar 1
söyle@@ 1
takiben 1
tamamladıktan 1
tili@@ 1
otuz 1
Kant@@ 1
Radi@@ 0.9823720593621563
Sami 1
binin 1
okula 1
sonsuz 1
usta 1
ışla 1
1,2 1
Game 0.6134836982457267
She@@ 0.9376463599718048
ikal@@ 1
tati@@ 1
Kenan 1
amber 1
sayılar 1
í@@ 0.23160519709404806
akşam 1
anlaşılmaktadır 1
değişken 1
Tasarım 1
farklılıklar 1
konferans@@ 1
testi 1
Hizmet@@ 1
Vilayeti 1
edildiğini 1
gus@@ 1
imal@@ 1
prömi@@ 1
sentez@@ 1
tap@@ 1
uzay@@ 1
varlık 1
ayrınt@@ 1
berabere 1
destekledi 1
muhalef@@ 1
ödüller 1
Gençler 1
Luc@@ 0.779415781677078
altfamilyasına 1
röportajda 1
Aleksandr 1
Boğaziçi 1
Cre@@ 0.4342289336980614
Kimya 1
cuya 1
dinî 1
tersine 1
yargı 1
üel 1
€ 1
900 1
Asteraceae 1
South 0.09825127144242807
Ted@@ 1
mıştır.@@ 1
yaralandı 1
Teb@@ 1
alacak 1
felsefes@@ 1
gayr@@ 1
lüğüne 1
zev@@ 1
ışlı 1
Ceb@@ 1
chi@@ 0.4651466451928721
kümesi 1
orkestra 1
park@@ 1
avar 1
edr@@ 1
misyon@@ 1
muharebe@@ 1
temelini 1
Ci@@ 0.8621196270779269
him 0.061955326230731175
tarzında 1
AM@@ 0.9388417984436912
Hamburg 0.6608205530317112
Karaman 1
Türkçede 1
ff 0.5016964299830035
luydu 1
tıkları 1
Arsenal 1
ebilirler 1
yayılan 1
örnekler 1
Bö@@ 1
Kaş@@ 1
L. 0.5980521646208217
ous 0.11042563944044807
parçacık 1
yör@@ 1
üstr@@ 1
Kuv@@ 1
anak 1
kriz@@ 1
takdirde 1
tuk@@ 1
Odası 1
klav@@ 1
lez@@ 1
turunda 1
binanın 1
geçmesi 1
prefektör@@ 1
yüzyıllarda 1
Ray 0.9276330819992583
miştir.@@ 1
şekil 1
6,@@ 1
avv@@ 1
sar 1
sinir@@ 1
uyarınca 1
03 0.9934594130490477
Kaf@@ 1
edilmişti 1
gündeme 1
halif@@ 1
kırı 1
Hugo 1
olgun@@ 1
Film@@ 0.565726650914578
Win@@ 0.6225687096493283
bisiklet 1
evrensel 1
km@@ 1
çoğunun 1
açıklanmıştır 1
kurma 1
şekildedir 1
Kos@@ 1
hazırladı 1
sanatç@@ 1
telif 1
veriler 1
Sen 1
frekans@@ 1
katılır 1
klor@@ 1
vizyona 1
Ajansı 1
Kolordu 1
Liv@@ 1
ekledi 1
Doctor 0.9298193657881721
varsa 1
G. 0.6512201947567534
birleşik 1
çor@@ 1
eceklerini 1
kariyer@@ 1
risk 0.8784837408688726
Amsterdam 1
Bad 0.7001485460875834
Model 1
kuşatma 1
lamayı 1
ves@@ 1
1898 0.6135719885719153
Lak@@ 1
listesidir 1
30@@ 0.6110926747472597
Büyükelçisi 1
genel@@ 1
hop 1
programlama 1
yaptılar 1
ıfl@@ 1
teles@@ 1
ızca 1
His@@ 1
vet@@ 1
1889 0.7013904859729291
freguesia 1
reg@@ 0.23698777144282082
dondur@@ 1
üni@@ 1
khan 1
topçu 1
önemini 1
Kaptan 1
Mobile 1
elektroman@@ 1
içerisindeki 1
lav 1
oluşumu 1
anlama 1
başlaması 1
güneye 1
işin 1
Kov@@ 1
Radio 0.33868043220508226
Yön@@ 1
anta 1
atılmıştır 1
aşaması 1
sahil 1
Bisiklet 1
fiyat@@ 1
günlerde 1
ilginç 1
sön@@ 1
yeş@@ 1
önderliğinde 1
ıklığı 1
ılmaya 1
Slo@@ 1
kağ@@ 1
Hacı@@ 1
Yum@@ 1
doç@@ 1
iklim@@ 1
imkânı 1
istlerin 1
kinin 1
sunmaktadır 1
formu 1
mat 1
okulun 1
terör 1
öncülük 1
All@@ 0.7016100221468039
Rönesans 1
fuz 1
geçmişte 1
iklimi 1
rekorunu 1
sch@@ 0.09377352745458278
uli 1
yaptığını 1
çıkard@@ 1
aradan 1
yayına 1
Milliyet@@ 1
ana@@ 1
hol@@ 0.41311812793931296
olmaktan 1
oyuncuların 1
uzu 1
yıldızlar 1
kanser 1
sert@@ 1
tal 0.5460904617043632
canl@@ 1
isa 0.9399281056886519
liberal 1
umlu 1
ichi 1
uzmanı 1
Baltık 1
Evi 1
başlangıcı 1
bom@@ 1
devamlı 1
gerekse 1
yye 1
Öncel@@ 1
Gençlerbirliği 1
vo 0.7089537218952913
Jan 0.8133657979632805
belirlenir 1
ë@@ 1
Şöval@@ 1
Lige 1
Normal 1
Türkmenistan 1
slogan@@ 1
tekniği 1
yun@@ 1
Ast@@ 1
Budapeşte 1
Sinc@@ 1
Soğ@@ 1
eh 0.9881769513435239
işlemleri 1
konular 1
çın 1
Işık 1
Turnuv@@ 1
ollü 1
sens@@ 1
Çeç@@ 1
şeb@@ 1
güzellik 1
inceleme 1
ografisi 1
vurg@@ 1
post@@ 0.4811025875416574
ref@@ 0.5908620962980269
sürece 1
Lad@@ 1
Mos@@ 0.606174742896306
Zor@@ 1
ihrac@@ 1
sın 1
yaşama 1
Afrik@@ 1
Nag@@ 0.8109336151065842
muz@@ 1
Kadın@@ 1
Kent@@ 1
Sun 0.6265703353202814
kuv@@ 1
nük@@ 1
verilebilir 1
ğr@@ 1
adası 1
dosya 1
girmesi 1
maden 1
kesinlikle 1
omen 1
orduları 1
sızlık 1
tanrısı 1
uğun 1
9,@@ 0.9798689083103983
Bell@@ 1
bakıldığında 1
referans 1
Adı 1
Fen 1
Lady 0.637316987465737
peygam@@ 1
pomp@@ 1
Dağ 1
Georgia 0.5282941248629851
Sezonu 1
Up 0.9042845307835039
kalb@@ 1
bür@@ 1
eksiyon@@ 1
kaybetmiştir 1
sembolü 1
senin 1
teli 1
tram@@ 1
lete 1
24@@ 0.6115525931258802
ikos 1
jen 1
kullanıma 1
otor@@ 1
sayısız 1
yuvarlak 1
Tel 1
geometr@@ 1
İlişkiler 1
danışmanı 1
galibiyet@@ 1
yalılar 1
Balkanlar 1
Mario 1
Nat@@ 1
çya 1
ılmasından 1
Hastal@@ 1
hikâyesi 1
lim 1
Bursaspor 1
Society 0.25581742554870657
Tanz@@ 1
kanseri 1
kapasitesi 1
mayla 1
vali 1
çöm@@ 1
çıkma 1
Patrick 0.7079612283913587
Sap@@ 1
baraj@@ 1
lib@@ 1
plerin 1
yolunda 1
kafa 1
yenler 1
Alanı 1
Im@@ 0.3477962502810045
anlarının 1
eter 0.558745650062372
metre@@ 1
türünün 1
uli@@ 0.7403568382628724
Azeri 1
Said 1
entidir 1
kitaplar 1
sitesinde 1
Edebiyatı 1
davranış 1
hin@@ 0.543093667901345
rap 1
ılıdır 1
Henri 0.644262006750543
ancılar 1
ansız 1
ikalı 1
sırayı 1
İkili 1
Leon 1
Maç 1
akadem@@ 1
aracın 1
güncel 1
merceksi 1
teknolojisi 1
Abbas 1
Sekreteri 1
mişlerdi 1
öğrenir 1
Köln 1
dilde 1
Mezopotamya 1
benim 1
durumunu 1
tarihini 1
Association 0.19223032166858775
Bingöl 1
Metal 1
Rab@@ 1
off@@ 0.3852712908518407
olimpi@@ 1
yıla 1
şöyledir 1
Arkad@@ 1
Moldova 1
düzel@@ 1
görevlendirildi 1
oyuncusudur 1
Š@@ 0.9890578566638751
birlikler 1
etim@@ 1
unla 1
buradaki 1
ier 0.30252907990056593
kayde@@ 1
sayılır 1
Bilimsel 1
Dep@@ 1
Moğolistan 1
dükleri 1
engi 1
onom@@ 1
tanımı 1
virüs@@ 1
başlı 1
kul 1
merkezleri 1
neye 1
Luis 0.49252296056503
iktidara 1
sıralarda 1
ğü 1
Rose 0.7851441605730907
anlardan 1
orant@@ 1
Aleksand@@ 1
Profesör 1
anç 1
erli 1
hö@@ 1
reddin 1
süvari 1
Çal@@ 1
Franz 0.6077015738023641
doğrusal 1
yapısal 1
Çin@@ 1
özelliğini 1
landığında 1
üslu@@ 1
kullanma 1
kuralları 1
kurtarmak 1
− 0.6199267983243054
Hati@@ 1
con@@ 0.09472676970499447
yoksa 1
Tekirdağ 1
baskıs@@ 1
gelir@@ 1
hareketinin 1
kırmız@@ 1
temeli 1
ımcılığı 1
Avustralyalı 1
Bakanlar 1
amaçlayan 1
bölümüne 1
lilerin 1
taşları 1
zamanki 1
çevresel 1
çıkışı 1
ödeme 1
IS@@ 0.6382830689109775
Inter@@ 0.25249298939205705
Programı 1
Toprak@@ 1
gizlice 1
çıkarmıştır 1
Din 1
Gazetesi 1
yönetimindeki 1
³ 1
Zeki 1
usun 1
Asker@@ 1
Karşıl@@ 1
değişimi 1
görevler 1
hassas 1
ihtiyac@@ 1
ışığın 1
Bilgisayar 1
elerdeki 1
form 0.13046006927252782
inşası 1
mamaktadır 1
terci@@ 1
Victor 0.7786623185639738
kili@@ 1
yağı 1
acaklarını 1
artesi 1
family@@ 1
görüldüğü 1
çıkışlı 1
16.@@ 1
Nur 1
Patr@@ 1
bulunmakta 1
fizi@@ 1
İstikl@@ 1
Allen 0.8425763717691439
Die 0.02031413425662058
alc@@ 1
askerlik 1
direniş 1
ekar@@ 1
manları 1
sul 1
şirketidir 1
Bis@@ 1
Filipinler 1
Horasan 1
bununla 1
yatay 1
Anderson 0.8258342520649224
Fabrik@@ 1
agr@@ 0.937934728576523
asti@@ 1
obi 1
Olu@@ 1
Twitter 1
geliştirilmesi 1
kimliği 1
kütl@@ 1
vatandaşları 1
viz 1
7,@@ 1
bayrağ@@ 1
osunun 1
süresince 1
şek 1
Jr 0.7376243450334222
fret 1
kumand@@ 1
vücud@@ 1
Çağdaş 1
100.000 1
ayrılmaktadır 1
deneme 1
dikey 1
gir 1
oğlunun 1
Ses 0.8375848140239756
bağı 1
suçlu 1
Miller 0.7564990931283397
entbol 1
ikamet 1
kül 1
liber@@ 0.5993359719340128
sürdürmüştür 1
ömür@@ 1
Düzen@@ 1
kitles@@ 1
opter@@ 1
birçoğu 1
16@@ 0.8354079487932488
Media 0.5002059206975794
azarı 1
dâhil 1
kadro 1
Beni 1
Yeniden 1
usuna 1
yasası 1
Budi@@ 1
Lincoln 0.8032476262604582
boyun 1
duran 1
nesne 1
tesp@@ 1
turnuvada 1
yolunun 1
öğrendi 1
Laborat@@ 1
Senato 1
kileri 1
olacaktı 1
artması 1
sesli 1
ulaşır 1
uzant@@ 1
yükseltil@@ 1
dez@@ 1
deş@@ 1
kurarak 1
lip 1
Önceki 1
düşmesi 1
ebeveyn@@ 1
işç@@ 1
karşısına 1
ölümünün 1
ıklara 1
Cab@@ 0.8936976011761963
Del 1
Roger 0.7326170095397777
araştırmaları 1
ınız 1
denin 1
geçirmiştir 1
pay 0.6698029989412146
plerine 1
Jim 0.6819154022970273
Kartal 1
Studios 0.8294524759782962
Town 0.4377020340928397
güvenilir 1
Göster@@ 1
Tatar@@ 1
Teşkilatı 1
milliyetçi 1
Çiz@@ 1
paylaştığı 1
teknik@@ 1
turnuvaya 1
Avusturyalı 1
azar@@ 1
com@@ 0.1717856763292534
Diego 0.6138260934847553
geçirildi 1
mercekli 1
sanatsal 1
söylediği 1
üreme 1
02 0.9499592501960197
Bayezid 1
finali 1
iniz 1
kalması 1
DT@@ 1
Venezuela 0.7681859215040651
eşliğinde 1
fat 1
leh@@ 1
serinin 1
suçlam@@ 1
Üy@@ 1
ó@@ 0.2951928810309399
Medya 1
Olimpiyat@@ 1
Tayvan 1
çeker 1
Sw@@ 0.5409960937507254
Yönetmen 1
avcı 1
geome@@ 1
yamaç@@ 1
ansal 1
ayakkab@@ 1
yede 1
1860 0.701097310354117
Ertuğrul 1
düzeyi 1
güvenliği 1
termin@@ 0.5710097708350651
Adams 1
Ulaş@@ 1
desteklenen 1
disk 1
isimdir 1
lerek 1
rin 1
verdikleri 1
önerdi 1
Jane 0.9457137811012115
ire@@ 1
lüğünde 1
strat@@ 1
üvey 1
Kurt@@ 1
Marcus 1
Stockholm 1
duyul@@ 1
miz@@ 1
oti@@ 1
Slovakya 1
Tir@@ 1
Vik@@ 1
ajlı 1
düzeyinde 1
inal 0.7794470522049174
yanlış@@ 1
yapılabilir 1
çıkmaktadır 1
başarısını 1
buğday 1
jo 0.49893152316922973
tuş@@ 1
türk@@ 1
öd@@ 1
İrlandalı 1
Yo@@ 1
alandır@@ 1
kaş@@ 1
oa 0.7793291249056606
vin 1
yaygınlaş@@ 1
15.@@ 1
Müslümanlar 1
duyduğu 1
eledi 1
güne 1
hücreleri 1
key@@ 1
yüzüne 1
Benjamin 0.9772619023735646
ater@@ 1
mimarlık 1
ılmıştı 1
Kurucu 1
Kılıç 1
Mim@@ 1
işlevi 1
lus 1
satılan 1
spek@@ 1
ömr@@ 1
3000 1
işine 1
pten 1
yeden 1
Uyg@@ 1
baraj 1
dede 1
günleri 1
lâ@@ 1
mas 1
modül@@ 1
tarif 1
vo@@ 0.5667277814239143
yüksektir 1
izmi 1
nova 1
Koç 1
dinsel 1
harekât@@ 1
kıvr@@ 1
tanınmıştır 1
çıkarmak 1
ailesiyle 1
grupların 1
hukuku 1
memel@@ 1
zamanların 1
öğrencilerin 1
Lüksemburg 1
bury 0.6719141831450808
gitar@@ 1
hara 1
iat 1
yaşıyordu 1
Eleme 1
cins 1
dönerek 1
finanse 1
harcam@@ 1
unut@@ 1
CE@@ 0.7654601252208932
Cihaz@@ 1
gücünün 1
yarımad@@ 1
1894 0.6693918905636774
Cenevre 1
adadır 1
aldıkları 1
barış@@ 1
başlatılan 1
metal@@ 1
metredir 1
pazarı 1
Mevcut 1
karmaş@@ 1
neg@@ 0.6374279405489582
üsünde 1
ıkça 1
Halen 1
Paz@@ 1
Xbox 1
birleşerek 1
dendir 1
zihinsel 1
Mot@@ 0.6855524522036559
hapse 1
padi@@ 1
ania 0.7119579676946859
fez 1
keşfedildi 1
lehine 1
oshi 1
parlak@@ 1
takip@@ 1
Girl 1
Kaynak 1
elini 1
kokul 1
yazarları 1
Christopher 0.9978180206322149
Dan 0.9685026727772367
alçak 1
doğuya 1
21. 0.7918591521567486
Dead 1
Dun@@ 0.6578422134507825
Uygulam@@ 1
piyan@@ 1
ödüllendir@@ 1
ölümcül 1
ışığı 1
filoz@@ 1
filozof 1
iniş 1
solunum 1
ısın@@ 1
enstit@@ 1
göze@@ 1
sakin@@ 1
İzmit 1
ock 0.4787377892731281
Çan@@ 1
Demiryolu 1
Deresi 1
Günümüz@@ 1
Norman 1
arlık 1
atus 0.5157126754648593
azesi 1
enj@@ 1
ill 0.32381125651751114
kur 1
ment 0.13806278822680207
motorlu 1
tezi 1
uncusu 1
İtti@@ 1
Adri@@ 1
bütç@@ 1
nic@@ 1
sahipleri 1
türündeki 1
tekerlek@@ 1
telefon@@ 1
İsra@@ 1
Aksu 1
Franklin 1
Nus@@ 1
beden 1
hitap 1
kabul@@ 1
kule 1
Nic@@ 0.9843684314092335
bulaş@@ 1
sürüm 1
A.Ş. 1
Bağımsızlık 1
Sahne 1
gezegen 1
titr@@ 1
İdare 1
Kulü@@ 1
aver@@ 0.8985151347109935
Özgün 1
İmam 1
Douglas 0.762281851210666
Pay@@ 1
akter@@ 1
benimsem@@ 1
evleri 1
gur@@ 1
kelimesinden 1
korudu 1
manastır@@ 1
trol@@ 1
başkent@@ 1
cep 1
eyerek 1
kop 1
açıklar 1
taarruz@@ 1
çalışmış 1
Güm@@ 1
UN@@ 0.6776241502474288
eklenmiştir 1
işlerdir 1
satıldı 1
yonal 1
Mühendislik 1
hacmi 1
iste 0.24064948256343963
worth 0.4989671578167973
yetenekli 1
şirketler 1
Johann 0.379852169240042
Nitekim 1
Soğuk 1
Your 0.9491894719077969
âz@@ 1
Atab@@ 1
Davis 0.5921132486379979
beklenen 1
belge 1
felsefesi 1
kişilere 1
obj@@ 1
otel 1
rağ@@ 1
seks 1
seslendirdiği 1
açısı 1
ettirdi 1
oks 1
ordus@@ 1
sunulmuştur 1
üyeliğine 1
28@@ 0.951947455591451
Gelec@@ 1
Kulüpler 1
Sivil 1
abildiği 1
Direkt@@ 1
anki 1
konak@@ 1
kurumu 1
sis@@ 1
amaya 1
başkanlığında 1
görüşü 1
Lov@@ 0.9847677550511613
Teor@@ 1
Tunceli 1
bırakır 1
itik 1
sayfa 1
simgel@@ 1
suda 1
Bad@@ 0.7053527997865428
Hakkı 1
Som@@ 1
iliyor@@ 1
ned@@ 1
orik 1
tartışmalı 1
Organiz@@ 1
SP@@ 0.7588236763694639
kali@@ 1
sall@@ 1
tığında 1
Turgut 1
eman 0.6773053327575523
hastanede 1
oth@@ 0.45155616868941234
Wh@@ 0.7539329780540706
belirsiz 1
futbola 1
oluşturmuştur 1
ıklarına 1
Haber 1
atlet 1
deneti@@ 1
etkilenen 1
fen 0.6992870984899079
ider@@ 1
sağladığı 1
ty@@ 0.42435429394290874
vasıtasıyla 1
19.@@ 1
MP 0.8256738071667262
Nük@@ 1
acakları 1
amaktadır 1
wa 0.23987588570401677
Üyesi 1
ğmen 1
Almanlar 1
eto 0.595403386580103
evr@@ 1
koz 1
polimer@@ 1
Hürriyet 1
kentsel 1
oban 1
Aster 1
Toprak 1
dağı 1
veç@@ 1
Isparta 1
günün 1
yaprak 1
atf@@ 1
devletler 1
eba 1
kararlı 1
kültürünün 1
pist@@ 1
tus 0.8592807352842108
İşletme 1
… 0.24383148538096475
20.@@ 1
Connecticut 0.9592241518293444
Karag@@ 1
bebek 1
dikil@@ 1
eç@@ 1
Uruguay 1
gereklidir 1
ish 0.2599359038357102
kuyu 1
köpe@@ 1
ucunda 1
180 1
Mill@@ 1
tanrıç@@ 1
tutar 1
SmackDown 1
elver@@ 1
olojinin 1
tasvir@@ 1
yayınlamıştır 1
Turnuvası 1
Tuz@@ 1
alarca 1
nel 1
başlığı 1
enk@@ 1
miras 1
yeğeni 1
1893 0.6407555982596058
Network 0.664254043777709
Pul@@ 0.9622692892908193
Star@@ 0.6365585165783056
Whit@@ 0.6364879103877361
ember@@ 1
erif 1
kılıç 1
okras@@ 1
Facebook 1
kemerini 1
miyor 1
sözlü 1
şar 1
Cos@@ 0.7010867137755121
Fon@@ 1
eylem 1
sürgüne 1
unlu 1
Babasının 1
burun 1
talık 1
ulaşmak 1
gök 1
özdeş@@ 1
Ciz@@ 1
ceza@@ 1
dram 1
havalim@@ 1
mahallenin 1
sayısal 1
ülkelere 1
arip 1
kuşlar 1
sevdiği 1
yollar 1
car 0.1775292039301732
tz 1
vs 1
İngilizler 1
avc@@ 1
müşlerdir 1
plerinden 1
radikal 1
tari@@ 1
yaratıcı 1
şarap@@ 1
Sho@@ 0.6989387944218767
bölges@@ 1
gösteriyor 1
ie@@ 0.3479438703506058
karakterdir 1
karakterleri 1
stadyum 1
Slav 1
böbre@@ 1
kaynaklara 1
koruyucu 1
sekreteri 1
Halife 1
Lake 0.26406130335822314
akış 1
arr@@ 0.3200765957843377
hil 1
ilave 1
zorun@@ 1
Boy 0.9835664968467939
dünyayı 1
iliğin 1
lerindendir 1
odası 1
ülkesinin 1
elemeleri 1
kromoz@@ 1
liderleri 1
rastgele 1
Çankırı 1
Ryan 0.9206572130143549
als 0.01617883640992589
emis@@ 1
kuy@@ 1
çapr@@ 1
üyelerinden 1
Katli@@ 1
Mahkeme 1
ance 0.11860751863341405
eksikliği 1
erdir@@ 1
mız@@ 1
sıfat@@ 1
öyküsü 1
Festival 0.22953263986305225
Katedr@@ 1
emati@@ 1
gökada 1
kasabadır 1
tarımsal 1
yarışmanın 1
US@@ 0.5701955025803869
bel 0.9902508952729483
olmadı 1
tarihî 1
Arif 1
akımı 1
alışveriş 1
beyli 1
bölgesini 1
isimlerin 1
iter 0.9015807255284506
pür@@ 1
radyo@@ 1
resept@@ 1
40@@ 0.9827853849261954
fabr@@ 1
göçmen 1
hareketli 1
tev@@ 1
1800 0.9665593666227207
Beyaz@@ 1
Kazak@@ 1
Song 0.5059395445217756
kamp 1
mekani@@ 1
rak 1
Nijerya 1
bert 0.5240134400736589
bireylerin 1
evin 1
faaliye@@ 1
tamamlayarak 1
AP@@ 0.7077075710886752
Ağır 1
Cannes 1
Sofya 1
Tarihsel 1
lus@@ 1
üyor@@ 1
Genelde 1
yayımladığı 1
Dağlık 1
Kazan 1
TO@@ 1
blok 1
dad@@ 1
geminin 1
kullanıcıların 1
rebilir 1
yarıştı 1
üretmek 1
18.@@ 1
Krist@@ 1
menaj@@ 1
yarışan 1
ł@@ 0.5346589300218916
Gine 1
basam@@ 1
d.@@ 1
ledil@@ 1
terc@@ 1
Bâ@@ 1
başlanan 1
tanımladı 1
tavsiy@@ 1
İsmet 1
Prenses 1
itab@@ 1
katliam@@ 1
madenc@@ 1
ıklarından 1
Lise 1
MS@@ 1
Temsilc@@ 1
alırlar 1
arına 1
ath 0.38987361442431406
kararg@@ 1
videosu 1
CEO 1
Lav@@ 1
Zer@@ 1
Ziraat 1
gittikçe 1
heykeltır@@ 1
hiyer@@ 1
inanç 1
toprağa 1
ölçek@@ 1
emb@@ 0.33042936468694567
ıcal@@ 1
Cro@@ 0.5335342667636818
Kuşatması 1
askerlerin 1
dükkâ@@ 1
tesi 1
1882 0.737655346059536
Oyuncular 1
kabiliy@@ 1
linde 1
sıralama 1
Jar@@ 0.8280602920000047
Kartaca 1
Pur@@ 0.6301961485301764
belirlendi 1
pandem@@ 1
porno@@ 1
rahi 1
ribaund 1
Emmy 1
Post@@ 0.6756431570482063
seçenek@@ 1
çaba 1
çekimleri 1
Hitit 1
etkileşim 1
katılarak 1
mücadelesi 1
tahttan 1
çür@@ 1
ürettiği 1
Lawrence 0.925634849667137
Minnesota 0.6162128890472703
amer@@ 1
bağıml@@ 1
dekor@@ 1
haberi 1
politikac@@ 1
Çelik 1
27@@ 0.8730403157964808
Ateş@@ 1
Devrimci 1
imparatoru 1
ste@@ 0.23985397181642
Shin@@ 1
ado 0.05302570188281008
ლ@@ 1
1892 0.6339007001533463
atle@@ 1
ometr@@ 1
out 0.047378942627802165
sahiptirler 1
sunan 1
Özgür@@ 1
Geri 1
herkesin 1
ilmez 1
inf@@ 0.29450258042163674
soyu 1
udi@@ 1
yayınlanmaya 1
İskend@@ 1
İçin 1
Michel 0.5981740560374949
Mücadele 1
Sistem 1
değil@@ 1
eleştiri 1
kapısı 1
organizasyon 1
restore 1
semptom@@ 1
Nintendo 1
Stüd@@ 1
Ziy@@ 1
ebilmesi 1
inşa@@ 1
kanıtlar 1
metro@@ 1
popü@@ 1
VIII 1
durumdadır 1
hikay@@ 1
odaklan@@ 1
otu 1
tsal 1
yapısını 1
yöntemler 1
çıplak 1
ediğini 1
from 0.009171998421478658
iten 0.5470962182369047
sayımı 1
sertifik@@ 1
yetkilileri 1
ündedir 1
1881 0.7179668423243344
26@@ 0.8491313131170344
Nil@@ 1
ibi 1
işkence 1
sten 0.26267714815035054
ıyorum 1
Endül@@ 1
High 0.17188055061814148
Turan 1
Ukraynalı 1
batısındaki 1
menz@@ 1
menlerin 1
Şar@@ 1
God@@ 0.8983565322555783
Kürtçe 1
adap@@ 1
azz@@ 1
dikt@@ 1
mo 0.6388839186651112
Güven@@ 1
Ovası 1
We 0.45201542228392905
dök@@ 1
etiket@@ 1
kuvvetler 1
uklu 1
yığ@@ 1
Şem@@ 1
Erk@@ 1
düzenlenmiş 1
lamasına 1
Pictures 1
engellen@@ 1
golü 1
jener@@ 1
mezheb@@ 1
İla@@ 1
Queen 0.3978431328155818
Yeh@@ 1
sahada 1
ıcının 1
Hon@@ 0.6586878401363906
Temsilciler 1
bulunduğunu 1
faş@@ 1
geliştirildi 1
kalesi 1
akışı 1
ax 0.7359597119233631
dağılım 1
dre@@ 0.4329361101440538
vahşi 1
zat 1
erke@@ 1
şöval@@ 1
Ateş 1
daş@@ 1
los 0.012716726896797422
yürütülmektedir 1
Şü@@ 1
agog@@ 1
arz@@ 1
eth 0.9586707142587911
tac@@ 0.8298180049087701
uzaktan 1
Gazet@@ 1
araştırmacı 1
hediye 1
inn@@ 0.45398290694833865
iyon@@ 1
mag@@ 0.49526092834193186
mezun@@ 1
sayısına 1
sıcaklığı 1
Best 0.2693943109690519
Uğur 1
büyüktür 1
koşullar 1
soylu 1
uyor@@ 1
yapıp 1
Tahran 1
büyüklüğü 1
kavram 1
pozis@@ 1
İdaresi 1
Motor 0.9014083932287648
bire@@ 1
oynamış 1
pre@@ 0.12468439931877122
sergi 1
Dec@@ 0.4131156853025668
doları 1
kesin@@ 1
meden@@ 1
nihai 1
sağlıklı 1
ա@@ 1
Beyoğ@@ 1
uyarlanan 1
yoloji 1
Oğuz@@ 1
çalışmalara 1
ıoğlu 1
Çerkes 1
Bekir 1
Bou@@ 0.5022150785976406
Metro 0.9582342292121846
albümünden 1
emeye 1
key 0.3361033872348555
uyarlaması 1
ödüllendirildi 1
üstfamilyasına 1
Augustus 1
Ze@@ 0.6062711218506817
adel@@ 1
ck 0.5126114980245546
göstererek 1
hükûmetinin 1
iga 1
Dönemin 1
bolu 1
like@@ 1
Böylelikle 1
akş@@ 1
cilt@@ 1
evlenmiştir 1
AE@@ 1
Ark@@ 1
Tekn@@ 1
Toronto 0.5050788393618707
alfabesi 1
azan 1
gelecekte 1
oi 1
soykır@@ 1
ularını 1
yenildi 1
yürütülen 1
Lefkoşa 1
Müze 1
Sarık@@ 1
aa 1
doktorasını 1
ologlar 1
sinyal 1
İD 1
İstatistikleri 1
23@@ 0.7069785129499864
Mont@@ 0.43344539674586047
Singapur 1
Zafer 1
izde 1
komutasında 1
kuz 1
leti 1
öy@@ 1
arif 1
MA 0.7542478442819033
kaldılar 1
topo@@ 1
şiiri 1
Ayşe 1
Yurt@@ 1
acık 1
amda 1
liter@@ 1
masıydı 1
ücret 1
eğinde 1
icus 1
iliğine 1
muhafaza 1
oş@@ 1
yaparlar 1
yeler 1
Kongo 1
ace 0.392891903727962
dit@@ 1
şarkıdır 1
Bölgede 1
Ruh@@ 1
Yunus 1
tarafta 1
Öy@@ 1
şap@@ 1
Buz 1
Gül 1
bo 0.8249264938875663
hareketin 1
mimarisi 1
yarı@@ 1
çıları 1
Bush 1
Sum@@ 0.7298498868660225
cumhuriyet@@ 1
kalarak 1
otomob@@ 1
Abdur@@ 1
Cumhuriyetçi 1
S.@@ 0.7536210597130739
bölgelere 1
entelektü@@ 1
liderlik 1
madeni 1
rih 1
taarru@@ 1
FI@@ 0.8525228020065405
Senatosu 1
Taş 1
ehrin 1
fin 0.1624214420282946
geliyordu 1
gözlem 1
olaydan 1
rüzgâr 1
tarak 1
Nav@@ 0.9369289654186456
Terak@@ 1
noktasına 1
oyununda 1
sıç@@ 1
turnuvanın 1
vüc@@ 1
Çerk@@ 1
Dic@@ 1
Gazze 1
Zeus 1
cel 1
güm@@ 1
sözcük 1
Hep@@ 1
Trabl@@ 1
görme 1
maktad@@ 1
yeleri 1
yollarını 1
çağrıldı 1
çlı 1
ağız 1
embe 1
kilisesi 1
kuzeyindeki 1
tıpkı 1
́ 0.13433005371750348
kompl@@ 1
vokal@@ 1
ülkelerden 1
Adını 1
Andr@@ 1
Mektu@@ 1
River 0.12955086855974976
kayıtlı 1
volkanik 1
bana 1
geçmeden 1
ladıkları 1
nis@@ 1
ülerek 1
ımsı 1
Osmanl@@ 1
Yaylası 1
arşiv@@ 1
felsef@@ 1
fet@@ 1
kuvvetli 1
kısımları 1
öğrenme 1
Games 0.3244855934492323
Sarah 0.8715466838577147
Vincent 0.9333193763227173
eno 0.8267592101851522
ikte 1
Akademik 1
Etiyopya 1
kans 1
otiv 1
tanınmaktadır 1
Fal@@ 0.6628140758841432
Britanyalı 1
alif 1
devre@@ 1
etrafındaki 1
sios 1
1891 0.623021662986378
Sz@@ 0.9470260988939312
abet 1
adlandırılmıştır 1
lant@@ 1
İstatisti@@ 1
Elek@@ 1
Tibet 1
ecik 1
etek@@ 1
riz 1
33,@@ 1
Futbola 1
Warner 1
gizem@@ 1
pahalı 1
tere 1
AK@@ 1
kadrosu 1
nh@@ 0.35017978078462103
tor 0.24255700187906074
Krall@@ 1
ett@@ 0.48329046840655293
üyü 1
Antarktika 1
CO@@ 0.5779709511360615
kapasiteli 1
seçkin 1
udan 1
yerleşen 1
zirveye 1
Manast@@ 1
Matt 1
RAM 1
alındığında 1
klinik 1
kurşun 1
ors 0.09758212884496135
M.@@ 0.8818933298215581
yayını 1
Mun@@ 0.758550053192716
Rec@@ 0.3334265055043781
Schleswig 1
anlığın 1
atını 1
dalı 1
ortalaması 1
Ga@@ 0.8909021330277191
basılan 1
lusu 1
ıyken 1
Herak@@ 1
Mahkem@@ 1
ebr@@ 1
gözaltına 1
kadını 1
tutum@@ 1
UCI 1
yürütül@@ 1
öğüt@@ 1
Resmî 1
indiği 1
sek 1
özgürlük 1
29@@ 0.9522706213322037
nez@@ 1
türel 1
ılımı 1
1835 1
kır 1
mülk@@ 1
Niş@@ 1
akıl@@ 1
aur@@ 0.5326949059615427
metro 1
programını 1
Özellik@@ 1
Eser 1
Liber@@ 0.8577414416638275
bebek@@ 1
London 0.11801120240752375
ansiy@@ 1
arete 1
yönü 1
Efes 1
Slav@@ 1
adaya 1
izole 1
seviyede 1
tarafına 1
2.000 1
K. 0.7066204564479401
Sabah 1
tion 0.11437573746730346
Brüksel 1
ife 1
zar 1
Kağan 1
bölge@@ 1
itme 1
tay 1
Abdülhamid 1
oksi@@ 1
sson 0.922234034846323
Kürdistan 1
lum 0.8845538452660788
Sonuç@@ 1
mon 1
Be 1
akç@@ 1
tizm 1
Boğaz@@ 1
Bölges@@ 1
Ferdinand 0.8870298729688911
maye 1
filtr@@ 1
ibe 1
ilmesine 1
kayıtlarda 1
Emek@@ 1
agon@@ 1
Alg@@ 1
SO@@ 0.9598480379610327
ick@@ 0.29637412206554187
piş@@ 1
West@@ 0.30319269319702086
old 0.11997081230813961
Elektronik 1
Vikipedi 1
án 0.20892640389832215
8,@@ 0.9607756265930888
iret@@ 1
onia 0.5790473642027604
yaşadıkları 1
Eg@@ 0.8832692021810207
rut 1
Karah@@ 1
Minas 1
ök@@ 1
Jay 1
aten 0.36590743332794184
ayrıldıktan 1
azar 1
Siirt 1
ax@@ 0.39985345710338915
British 0.09402469257529698
Filist@@ 1
Enver 1
aria 0.30482390704062673
pam@@ 1
FM 0.4848783235698645
Leo 1
yp@@ 0.7583050756675292
ca@@ 0.8224055258535946
leer 1
Ona 1
oe 1
Belç@@ 1
Mul@@ 0.5599361212806759
dövüş 1
karma 1
ment@@ 0.4901168226931003
Charlotte 0.8806554575331125
FF 1
Ferrari 1
akademis@@ 1
bad@@ 0.8343708306054367
Asıl 1
Jason 1
parlam@@ 1
teri@@ 1
enter 0.5155864261517614
Marx 1
Silah@@ 1
insel 1
reng@@ 1
Bernard 0.7234929340651375
Black@@ 0.8417374846550174
çin@@ 1
0,6 1
anime 1
doğru@@ 1
ein 0.019718790674762194
onlyinclude 0.7215710281094662
Hacettepe 1
Selçuk@@ 1
Spar@@ 0.9492576419495372
kun 1
stad@@ 1
Wrestling 0.8893235421902085
doğr@@ 1
irin 1
kabin@@ 1
1.000 1
Bruce 0.863903562440069
Miami 0.7273147249616029
Padi@@ 1
Zeynep 1
bağlar 1
Kılıç@@ 1
arik 1
azam@@ 1
esin 1
may 0.07589816848675897
Jand@@ 1
Tw@@ 1
bant 1
esir@@ 1
SSC 1
addin 1
oli 0.8764888556662798
Andrea 1
Howard 0.6703950668739451
Karat@@ 1
fah 1
fes 1
tesis 1
1848 0.6481377879946736
Standart 1
mî 1
ırmak 1
Holstein 1
Kelly 0.8751868722340884
Pers@@ 1
Philip 0.7507984151412226
cinsi@@ 1
eria 1
oku 1
patr@@ 0.7011034106604574
2,5 1
Bell 0.7597054811456067
esif@@ 1
vamp@@ 1
İskender@@ 1
Jür@@ 1
ayn 1
müc@@ 1
Lind@@ 0.7759207072355946
Tarsus 1
iliz@@ 1
Cop@@ 0.6613785047557313
America 0.1775106966129481
Batt@@ 1
Strat@@ 1
ait@@ 1
tica 0.4038701783829707
Bus@@ 0.5209274348210052
Paş@@ 1
Petersburg 1
Til@@ 1
tadır 1
Bük@@ 1
Long 0.4183538225832209
Maj@@ 0.6667909335118617
Zir@@ 1
fonksiyon 1
iletiş@@ 1
Dance 0.8948710856592115
Göztepe 1
Kle@@ 0.8744637496343678
Mali 1
Part@@ 1
Post 0.43986045925318773
Sadr@@ 1
asu 1
Gordon 0.7468468890494636
Performan@@ 1
kana 1
oldu@@ 1
lav@@ 0.8431174464348659
ei@@ 1
tuk 1
nak 1
Muz@@ 1
olata 1
1867 0.6901817690288505
1888 0.6074718184044507
Akş@@ 1
Alp 1
Janeiro 1
hipo@@ 1
mevcut@@ 1
our 0.195734521778539
pa@@ 0.6775318677161659
1884 0.6476420254467987
23.@@ 1
Lang@@ 0.4106378417668158
banka 1
filos@@ 1
mar 0.48597140383777604
Helsinki 1
day 0.09103326295564704
efi 1
Nil 1
Lap@@ 1
Manuel 0.4971637658044525
Nikolay 1
gönül@@ 1
mitoloj@@ 1
mâ@@ 1
Indiana 0.6424118293854238
Marvel 1
eğl@@ 1
Jü@@ 1
List@@ 1
Menderes 1
Mr 1
Pic@@ 0.7147552364690537
begin 0.7177211052288305
güzel@@ 1
hit@@ 1
işletil@@ 1
önü 1
Lid@@ 1
Nez@@ 1
TP 1
This 0.04384595769758099
alay 1
Bryan 1
ebe@@ 1
ender 0.3327185533608282
Öd@@ 1
aja 0.7872389850751355
eda 0.9368027474058012
köğ@@ 1
oride 1
rah 1
Lombar@@ 1
Las 0.148418292113032
ate@@ 1
bini 1
bebe@@ 1
Bran@@ 0.8216715888807421
Russell 0.8642948789272722
filmi@@ 1
20.000 1
Pın@@ 1
Dek@@ 1
Marks@@ 1
ingen 0.2326267853306909
neh@@ 1
AM 0.6594022995968227
Net@@ 1
Phone 1
RT@@ 1
iner@@ 1
res 0.4297072386161315
{ 0.5365142480260114
Mich@@ 0.8902442421507639
eck 0.42768536539799146
sez@@ 1
Deb@@ 0.6713179848178186
İsviç@@ 1
ınık 1
Organ@@ 1
âm 0.8302600330918135
api 1
olduk@@ 1
traj@@ 1
Abdul@@ 1
Sankt 1
asen 1
lâm 1
Aks@@ 1
Hus@@ 0.8046280166773434
kru@@ 1
onim 1
ars 0.2149808918089519
Steven 1
adiye 1
int 0.9873690368406577
ât@@ 1
mav@@ 1
ნ@@ 1
Flor@@ 0.9796228104902226
rün@@ 1
tenis 1
tras@@ 0.7582458697625895
uspor 1
Meh@@ 1
aton 1
eff@@ 0.7305720036362507
1865 0.6587803171362969
Konfer@@ 1
Rihanna 1
more 0.039367737386851266
türe 1
Out 0.7230609802000707
deleg@@ 0.9853338848405913
Houston 0.7085560795947878
But@@ 0.8344354403181019
Doktor@@ 1
ow 0.32628961710456356
´ 1
Ej@@ 1
bilgis@@ 1
Bog@@ 0.8673960733885242
Burak 1
tekin 1
ont@@ 0.7349769488915682
uzaklık@@ 1
dale 0.7059626191913828
desteğ@@ 1
niz@@ 1
Fernando 0.6787223548885098
KK@@ 1
lon 1
Ludwig 0.5490438593571867
Tayyip 1
Tim 0.9019628261653363
obil@@ 1
140 1
Mercedes 1
mete 1
zun@@ 1
Bilecik 1
Margaret 0.7954490994951672
jan 1
Marshall 0.9378785097500297
Shi@@ 0.6294930607251907
cher 0.261716510792461
Erci@@ 1
ander 1
doku 1
ivi 1
lie 0.41567189763406437
Ür@@ 1
Guy 0.9662276508811307
Les@@ 0.7144377678749013
Pedro 0.4578581894975731
house 0.12066461339574917
zon 1
Danim@@ 1
Hidro@@ 1
ium 0.47625564104672213
sus 0.059220403618283006
Bayan 1
Elem@@ 1
Hik@@ 1
diplomat 1
ju 1
Duy@@ 1
Kennedy 0.8282633167891229
News 0.4376246382340485
mün@@ 1
yoğ@@ 1
125 1
Reis 1
tr 1
Boliv@@ 1
LE@@ 1
Potter 1
Antalyaspor 1
Kurum@@ 1
Pres@@ 0.4036170731202004
ahş@@ 1
1887 0.6139401992374418
1871 0.6006242653293411
Drama 1
NO@@ 0.857756630146629
fak 1
haft@@ 1
Dönem@@ 1
Theod@@ 1
alle@@ 1
iade 1
Tren 1
indendir 1
ros 1
www.@@ 1
kil 1
rese 1
Basil@@ 1
barat 1
gag@@ 1
Boeing 1
ahan 1
ako 1
antropo@@ 1
istil@@ 1
17@@ 0.7969703314774809
zad@@ 1
skaya 1
Dij@@ 1
Senf@@ 1
Van@@ 1
bre@@ 0.20729056667696877
yy 1
160 1
Hop@@ 1
edan 1
kilit@@ 1
plant@@ 0.9806825498911128
anay@@ 1
dig@@ 0.5177162777360985
sn@@ 0.6219566574300193
uman 1
ă@@ 0.7603661639770382
aks 0.6198791151940358
belle@@ 1
.000 1
15@@ 0.7279885871961739
zan@@ 1
arru@@ 1
komp@@ 1
105 1
First 0.19433740597649676
Kus@@ 1
Roman@@ 1
işk@@ 1
ú@@ 0.4746443127855713
ülebil@@ 1
Dro@@ 0.8051811897800994
Düzce 1
Harris 0.8164845175985797
Hatun 1
nar 1
zır@@ 1
Tun@@ 1
yur@@ 1
Gabriel 0.7979455519384605
101 1
Gümüş@@ 1
Hampshire 1
Ernst 0.6314977000823673
Les 0.04335066369776199
Lisa 1
Turn@@ 1
Yang@@ 1
ics 0.20147547638127752
ideal 1
nada 1
oria 0.8542320136670356
Ak 1
Sky@@ 1
pembe 1
Sidney 1
T. 0.559700401271242
Will 0.9260206283953111
bro@@ 0.4430308683910938
IN@@ 0.5647929096107291
Rez@@ 1
ceb@@ 1
ush@@ 0.7161045059467626
Yahya 1
ag 0.6514219906163488
Aviv 1
LGBT 1
site 0.12280371183950876
1850 0.6526218201900488
64,@@ 1
AC@@ 0.6050919397280284
Balık@@ 1
letin 1
neyi 1
ovo 1
tes 0.09602564335030918
plas@@ 1
stati@@ 1
katli@@ 1
Dür@@ 1
Rag@@ 1
arki 1
cir@@ 1
ikat 1
monte 1
Akh@@ 1
tra@@ 0.5743938023435202
Şehzade 1
gul 1
iköy 1
stik 1
BB 1
Pon@@ 0.6405634916121045
IX 0.8634014171256188
Kru@@ 1
Kun@@ 0.9084006954991459
Moore 0.7180369597349595
Niğde 1
MI@@ 0.9344023898060362
Intel 1
00@@ 0.7346992847627841
yu@@ 1
ador 0.2114602608274449
jin 1
lej@@ 1
metabol@@ 1
Flam@@ 1
keli 1
Dark 1
Prim@@ 0.7649867526786881
To 0.2451312689750539
MC 0.8994989793270212
Nick 0.8649227443220581
ahi@@ 1
polar@@ 1
pte 1
reden 1
cor@@ 0.13777709204838126
Fur@@ 1
arom@@ 1
hâl@@ 1
3D 0.9006529424942894
eng 0.5144733441035731
esk@@ 1
que 0.006331232127172363
1.5 1
Bag@@ 0.9772825433766299
Program 0.8524801814347106
Shakespeare 1
Tasar@@ 1
ail 0.471763870669351
enberg 0.4650875237223996
endem@@ 1
Kral@@ 1
Ya@@ 1
Claude 0.6819299564967439
aster@@ 1
row 0.381425263523205
vay 1
Ball@@ 0.5752265870620853
Reh@@ 1
Jimmy 0.8192871247198691
Morgan 0.7849842763308862
disk@@ 1
1883 0.6436590384634446
50@@ 0.7710361503076504
Kayser@@ 1
isse 1
Vo@@ 0.48070355907721585
kurgu 1
Büro@@ 1
Death 0.538108971246793
dua 1
İspanyol@@ 1
elendir@@ 1
ith 0.6477049601612447
60@@ 1
Robin 1
tâ@@ 1
Aur@@ 0.8296829095138888
Lü@@ 1
hükû@@ 1
presti@@ 1
tef@@ 1
State 0.08333285749020083
TL 1
etkisi@@ 1
US 0.0773070292471693
AB@@ 0.9150124255441919
Donald 0.7619589114684719
firma 1
versi@@ 0.9915067053971865
Wood@@ 0.6148427814696529
bomba 1
yumuş@@ 1
Eğiti@@ 1
å@@ 0.8763266511537354
Girls 0.8772308662282072
ruk 1
Broadway 0.7660572587306931
Jeff 0.9851035869879577
Kot@@ 1
Nadir 1
keti 1
prati@@ 1
rütbes@@ 1
350 0.9532087943935381
Arts 0.23585637223737596
Do 0.688436463551621
jür@@ 1
tepe@@ 1
2.0 1
Edi@@ 1
Kand@@ 1
fon 1
ios 0.7800893271338784
Great 0.23566729268258177
Netflix 1
parametr@@ 1
tia 0.5708744504777958
ashi 1
vac@@ 0.7323338134350164
alini 1
the@@ 0.2775228665964531
Serdar 1
rum 1
DA 0.9041106453544564
Pad@@ 0.8190295465129498
dos 0.07940910463930825
umb@@ 0.6466322528480559
vari 1
Aşağı@@ 1
IC@@ 0.6044115062990588
Konstantinos 1
Universal 0.8963037269836647
ein@@ 0.08308761236218894
TA 0.7850502126094857
cik 1
Nan@@ 1
air@@ 0.23720163774451225
antal 1
iTunes 1
1863 0.6261947329402952
Manhattan 0.9790930356365753
adada 1
ep 0.7119152837064414
Norman@@ 1
este 0.0954605455795254
inos 0.47106221785954977
ო@@ 1
Kont@@ 1
depart@@ 1
oidea 1
oğu 1
yir@@ 1
pin@@ 0.6232268883525651
Wi@@ 0.5459860981554718
bos@@ 1
gran@@ 0.787398003261725
Oliver 0.9239535620237382
kala 1
Boris 1
Gam@@ 1
oba 1
tem 0.7892713980649009
şirke@@ 1
35@@ 0.8638415713285922
Pod@@ 0.7547564597209884
ij@@ 1
vir 1
BA 0.7466141308095513
Moh@@ 0.765209765098053
küre 1
yes@@ 1
Kırık@@ 1
Rev@@ 0.6505538878246416
Way 0.8828533041908135
jet 1
ray 0.8897617427420378
Good 0.766272375876981
tidir 1
Ross 0.7516484547886166
Venedi@@ 1
rahman 1
£ 0.38094735101836374
25@@ 0.8300393548191559
Gogh 1
platform 0.5570846267100236
kuts@@ 1
urs 0.33863287708555817
Banglad@@ 1
aham@@ 1
kost@@ 1
0,3 1
3.000 1
Astr@@ 0.9665984377014177
Bayburt 1
Lag@@ 0.7326156685442965
Sib@@ 1
laf 1
Gul@@ 1
Riz@@ 1
Wayne 0.9881509171664342
jan@@ 1
semp@@ 1
Çatal@@ 1
Studio 0.719861994574926
ote 0.2911481001489498
soh@@ 1
Bölge@@ 1
Lost 1
vel 1
Cena 1
Hür@@ 1
Shar@@ 0.6650191066637716
heter@@ 1
imo 1
İbran@@ 1
Bet@@ 0.7573756482598438
Kok@@ 1
Liberal 0.7159069028263755
Tul@@ 1
Gökç@@ 1
TV@@ 0.9543584136185443
ault 0.4540994112108105
yant@@ 1
AG@@ 1
Kate 1
rine 1
Bayern 0.7332176271188802
Mora 1
1875 0.6301967597245959
ET@@ 1
Ostr@@ 1
ansa 1
bahçe 1
part@@ 0.7193701897466436
Ju@@ 0.5084383213971692
Fars 1
Office 0.39188228313290213
SV 0.8764678635842243
Serv@@ 1
amin 1
pik@@ 1
vim@@ 1
Alem@@ 1
An 0.13251078502093624
Dublin 0.7419097283259439
able 0.050995123785964255
back 0.08077846152460184
elden 1
tiş@@ 1
Johnny 0.7975797086303977
Poly@@ 0.8551703134781936
Thor@@ 0.7938276979423018
olo 0.7486397243220293
1873 0.6280500490700395
kadi@@ 1
Haw@@ 0.6962053149462724
asim@@ 1
eer 0.8689803556236476
Fah@@ 1
Miguel 0.5572722707584878
dit 0.27980268007831155
manz@@ 1
tum 0.998871103103245
ûn 1
Aer@@ 1
Burdur 1
caya 1
1830 0.7406654393971172
Jordan 0.7632819473275142
Ligue 0.617394626750514
Rot@@ 0.467631183141226
SD@@ 1
AD 0.6009882778228266
Division 0.12773341125478854
ä@@ 0.14897212512051158
ABC 0.6964429086208906
Kırşehir 1
A2 1
Vor@@ 0.12541043848839573
abak@@ 1
aksi 1
dec@@ 0.18497116331486008
tikçe 1
Kırg@@ 1
Tig@@ 1
Profes@@ 1
sigara 1
Barbara 0.816685340715197
Tüm@@ 1
cin 1
gön@@ 1
maf@@ 1
İliş@@ 1
Sag@@ 1
ais 0.31281845264457164
merc@@ 1
pil 1
yumur@@ 1
Biz 1
ë 1
Amazon 1
AG 0.4766009930971351
CIA 1
Ing@@ 0.5377247324959491
Kan 1
Last 0.8838140041004248
rü@@ 1
ımsal 1
CA@@ 0.4893346695442266
liv@@ 0.7197853695163643
veçli 1
Missouri 0.54654105728454
matemati@@ 1
Store 1
deb@@ 0.7950353942747389
luca 1
oki 1
à 0.005471683329951272
200@@ 0.9622166696748128
Ther@@ 0.7029335511600289
feti@@ 1
hag 1
128 1
bül@@ 1
yc@@ 0.6544199601903431
Kopen@@ 1
krit@@ 1
Şırnak 1
aus@@ 0.07881987956847461
nor@@ 0.41890280492645915
Akhisar 1
Helen 1
Iğdır 1
Lan@@ 0.6163044055122702
MP@@ 0.713805944238416
trin@@ 1
Channel 0.5758964205730746
Jerry 1
Jonathan 0.9260800885431052
Yus@@ 1
Hü@@ 1
Kron@@ 1
iki@@ 1
oid@@ 1
Zel@@ 1
elia 1
piter 1
star 0.33594319486117546
22.@@ 1
och@@ 0.3913123058563715
Üsk@@ 1
Aksaray 1
Carlo 1
Tepe 1
Ukr@@ 1
ümer 1
İsti@@ 1
inay@@ 1
Seattle 0.7745796793347696
Torino 1
amin@@ 1
mahkû@@ 1
Julia 1
Kart@@ 1
1868 0.6121881550915872
kulu 1
stone 0.25571165360806525
ısız 1
Gag@@ 1
Play@@ 0.9952382860656643
1834 1
Karad@@ 1
Para 0.3924641715679539
anatom@@ 1
Lyon 0.6558534546051794
alimanı 1
bira 1
enza 1
Frederick 0.6699773653632003
akat 1
gru@@ 1
Che@@ 0.71580243020657
Kırklareli 1
Riv@@ 0.884937152865828
FIBA 1
Slam 1
eon 1
seler 1
alde 1
oka 1
oton@@ 1
rey@@ 1
mol@@ 0.4843482532639001
odo@@ 1
Open@@ 1
Bau@@ 0.18738022398005627
Hul@@ 1
Leyla 1
Süley@@ 1
Yugoslav 1
Demi@@ 1
idea 0.31022656025365447
Olimpi@@ 1
Tart@@ 1
Junior 0.4911284697269257
Maur@@ 0.9389577802167344
Nüf@@ 1
enburg 0.5595802668576257
hin 0.519905614944839
itz@@ 0.40581254945821904
1861 0.5671879227043017
Lüt@@ 1
S0 1
engin 1
esi@@ 1
hen@@ 1
meme 1
Arti@@ 1
Telef@@ 1
Atlanta 0.6729144006806446
Hot@@ 1
Santos 1
1879 0.5842621591566706
hum@@ 0.4594500337646117
ps@@ 1
way 0.07854556265546214
Cul@@ 0.6014431015089585
band@@ 0.7870089339080092
ric@@ 0.7931726085616039
18@@ 0.8320073754764448
Li 0.7300630879890755
amet@@ 1
div@@ 0.6750963579507099
yid 1
36@@ 1
André 0.5764542279706357
duk 1
Sparta 1
Tennessee 0.5676667880544517
70@@ 1
о@@ 0.13503446818182538
arp@@ 1
vod@@ 1
Ivan 1
Raymond 0.8917298691530152
Sm@@ 0.9182098881717133
Ye@@ 1
col@@ 0.15068962539616992
didae 1
1872 0.6094970870823881
Anton@@ 1
Bin 1
Leningrad 1
That 0.322505033514652
meg@@ 1
sir 1
tral 1
Out@@ 0.7771117191420819
Sali@@ 1
Mant@@ 1
Ya 1
Kamb@@ 1
Pom@@ 0.8349847934425355
ame@@ 1
dokum@@ 1
ole@@ 1
omer@@ 1
pin 1
} 0.5439682106056558
Sv@@ 1
adem@@ 1
ison 0.477947939990396
ex@@ 0.07684221225810554
hass@@ 1
prom@@ 0.35531531191299504
das 0.014024310292559627
obil 1
ose@@ 1
ron@@ 0.9108529336036172
Enter@@ 1
Heart 0.8111851290615588
Wright 0.8058062706761434
moderni@@ 1
mutfa@@ 1
TH@@ 1
Hoc@@ 1
iman 1
000.000 1
Giray 1
ash 0.44843164558107723
keh@@ 1
sc@@ 0.19242807978874743
Avrupal@@ 1
E.@@ 0.9069709683647507
Motor@@ 0.932435081459951
lebil@@ 1
Geb@@ 0.8415066470754554
Müh@@ 1
isten 0.30932173822881204
Helen@@ 1
tol@@ 1
http 1
ikon 1
1.0@@ 1
What 0.6223354729100314
metik 1
Ori@@ 0.7731487288537253
21.@@ 1
AR 0.8958723890279691
tok@@ 1
Ober@@ 0.14097368885189923
probl@@ 1
Maya 1
1874 0.5952472132971338
Kıbr@@ 1
Marino 1
Osmaniye 1
hir@@ 1
sözc@@ 1
Home 0.41923371450809654
Kadi@@ 1
ack@@ 0.3745932332242051
assa 1
platin 1
tron@@ 0.8469761451072415
1840 0.6850338462901041
Krali@@ 1
nes 0.35902918252116883
zo@@ 0.8514397245926094
11@@ 0.853015775111644
Santiago 0.503169414456587
fantas@@ 1
ome 0.35438911548293517
New@@ 0.5320048824187468
ayev 1
für 0.01639013976942626
ska 0.9599304094028454
ambi@@ 0.5044972102236954
tali@@ 1
ī@@ 0.8263373420342524
ango 1
Boys 0.7087558911305525
Golden 0.45822753313058223
asy@@ 1
graf 1
Austin 0.7633758572148601
Dave 0.7615780080917081
Perry 1
fres@@ 1
alk@@ 1
asıl@@ 1
kini 1
Caf@@ 1
Justin 1
Poe 1
Rolling 1
imb@@ 0.7290569894208762
mu 1
problem 0.5097922625583375
ó 0.04394178798598519
DS 0.7286020046090271
Zo@@ 0.8472337210506923
pah@@ 1
Viz@@ 1
tw@@ 0.24051173890015204
zet 1
BAL 1
ón 0.1253547069809
Family 0.40012682327725785
Josef 0.7895175478710036
had 0.014554341761019274
vence 1
Katar 1
Yos@@ 1
owski 0.8797568443111116
33@@ 1
IM@@ 0.8344866948320017
beta 1
Justini@@ 1
Land@@ 0.17025981529180348
UK 0.1867677078245038
ked@@ 1
mir 1
termo@@ 1
Kimi 1
ew@@ 0.32604284402754
kont@@ 1
obu 1
Gran@@ 0.5358335809784329
akus@@ 1
ings 0.08970767577537135
kurs@@ 1
lov@@ 0.853364975316456
Proj@@ 1
Road 0.1675817596215679
Zen@@ 1
eth@@ 0.2848228646375313
kulüb@@ 1
Fair@@ 0.6848839496030186
Inc 1
bec@@ 1
pes 0.4926432051271513
ther@@ 0.36300889955727583
cid@@ 1
elektro@@ 1
pag@@ 0.8094148624283813
til 1
yumu 1
Billy 0.7512013841747646
Reich 0.6864864594113419
Stefan 1
apr@@ 1
ble 0.3554824210194355
MK@@ 1
Sep@@ 1
anik@@ 1
fil 1
Airlines 0.9470839917308429
Bartın 1
Cola 1
Amy 1
aer@@ 0.756048775453384
eji 1
Cerr@@ 1
Bec@@ 1
undu 1
Adap@@ 1
Sl@@ 0.7756725605995145
Yok@@ 1
imal 1
molek@@ 1
uh 1
BC 0.36737731220448766
Old 0.2977281625537488
Single 0.7780706670123394
Julius 0.9881008590269773
ago@@ 1
manga 0.9966668719264777
trat 0.251117405850305
ary@@ 1
Matthew 0.8601278225418353
stand@@ 0.8916998090363792
War 0.07378281611536879
ades 0.22238698563115036
affer 1
fat@@ 1
ory 0.21488393982669912
polis@@ 1
yah@@ 1
Giorgi 1
Kang@@ 1
Koy@@ 1
bra 0.9159441561541168
elt 0.4495989401748607
ny 0.443820947094031
1866 0.4766679789460941
And 0.5216127570701038
Eu@@ 1
ester@@ 0.9151072110618996
hun 1
Koca@@ 1
Nö@@ 1
Başlang@@ 1
Brooklyn 0.7780539686142088
Kansas 0.47205358957696636
alik 1
rod@@ 1
Catherine 0.7195979923033541
Marc 0.6987299195872442
ecz@@ 1
prim@@ 0.4718576017663364
Grig@@ 1
Union 0.11048971224306463
Utah 0.8194252071752816
ui 0.7057880953657315
hay 0.24367131852238308
Azerbay@@ 1
Copa 0.4073635499710995
Renault 1
Sonic 1
riter@@ 1
usi 1
Aliyev 1
alla 1
Clark 0.5903149070156016
Fort 0.3104888055820781
Wa@@ 0.5489160335208434
arz 1
aus 0.02284908025516746
Dream 1
Mimar@@ 1
Port 0.395178475946926
Vok@@ 1
edon 1
fu 1
güt@@ 1
ris 1
that 0.006119428096839839
10,@@ 0.875226479892612
Cruz 0.5665964673545891
Teş@@ 1
ehr 1
geni 1
Hes@@ 1
ibn 1
ram 1
ვ@@ 1
Oklahoma 0.6664741600793348
apar@@ 1
hibe 1
propaganda 1
prak@@ 1
š 1
Nis@@ 1
ader 0.5753139382213718
esen 0.5888262907258753
lor@@ 1
ex 0.2744892185298623
tema 0.7988942328971863
Kıl@@ 1
Leg@@ 0.46105189690112014
stra 1
İdar@@ 1
M.S. 1
alize 1
aran@@ 1
luy@@ 1
Dallas 0.7415993662812155
MO@@ 0.8919738737571314
coğr@@ 1
inda 1
reform 0.6481080978644896
yuvar@@ 1
Neb@@ 0.9521520913524346
Ork@@ 1
450 1
Cah@@ 1
bach 0.21753937606819249
biz 1
Ress@@ 1
folkl@@ 1
ust 0.36449530740557573
Fatma 1
Power 0.47824006147572784
ikan 1
mun 1
non 0.07842319599208532
icum 1
‭ 1
Bron@@ 1
Ian 0.8775684760463601
Phoenix 0.9591374675346973
Series 0.27628705968076267
hum 1
Apollo 1
Digital 0.8046260619816172
Fab@@ 0.9363027703674458
Git@@ 1
Him@@ 1
Must@@ 1
arl@@ 1
Eskiş@@ 1
Kane 1
NXT 1
Salon 1
etr@@ 1
ubu@@ 1
1869 0.5948167571732386
Big@@ 1
Gary 0.8135498637065487
RE@@ 0.572153557866615
Darwin 1
Mirza 1
defn@@ 1
pes@@ 0.901499375571421
yanl@@ 1
Rap@@ 0.7443842509440048
ს@@ 1
Andy 0.79700684473349
Ed 1
Nova 0.8606896118332688
RT 0.9389809812354565
Vest@@ 1
pan 1
ço 1
Beach 0.43906817143226295
Co 0.41890072144139556
RC 0.6676709637767426
els 0.11331760993909053
ester 0.5280883291157497
hang@@ 0.9216518694640736
heim 0.3106080298517701
unt 0.7075185818477218
ē@@ 1
Jap@@ 1
Zar@@ 1
prov@@ 0.9319315825922332
Kli@@ 1
Sean 1
kuk@@ 1
Anim@@ 1
Kati@@ 1
lac@@ 0.9248530421322553
æ@@ 0.764746219499743
Philippe 0.5664109126234332
Pont@@ 1
Ric@@ 0.9055335929515909
pis@@ 1
uf 1
Č@@ 0.891384780138989
1200 1
AN 1
Afr@@ 1
Like 0.4788470358755563
Platon 1
daima 1
Luke 1
anga 0.655116500625287
cada 0.23775790300529823
git 1
gram 1
Alternati@@ 1
Leon@@ 1
organ 0.9418118909231821
otr@@ 0.8212622494793453
ISO 1
Karam@@ 1
Space 0.5609722735744319
ezya 1
side 0.08055453878249978
tidae 1
Bac@@ 1
Dinamo 1
Peterburg 1
fün@@ 1
tun@@ 0.8714441193799864
zin 1
Astronom@@ 1
Colorado 0.4874298545604406
gor@@ 0.9465654971602282
AV@@ 1
Dul@@ 1
Seul 1
basi 1
Air@@ 0.5509714329808371
Dean 0.740842009123183
Mekte@@ 1
Valley 0.2737072732919147
hidrol@@ 1
lum@@ 1
armon@@ 1
simetr@@ 1
Hind@@ 1
erc@@ 1
farkl@@ 1
Journal 0.39322357235949484
Karabük 1
Vis@@ 0.5222465979034164
Toyota 1
ande 1
tarif@@ 1
ason 0.8592942450492178
gene 0.6751045789570768
Amiral 1
Hag@@ 0.9451687778934216
Ran@@ 0.528004886397626
Rid@@ 0.6948255836953067
escu 1
ju@@ 0.3862781355299626
we@@ 0.18009093691099265
Toplul@@ 1
esiydi 1
B.@@ 0.9581645311554153
Madison 0.9866960210694773
Rol@@ 0.7420387365163609
modern@@ 0.7434720635936211
santi@@ 1
Gri@@ 0.7324559762070948
ê@@ 0.5657927823401955
yl 0.4797248164654454
üre 1
Mach@@ 0.6747569552759682
ager 0.34223198280902245
akr@@ 1
amiral 1
Homer 1
pon 1
ante 0.08040676330569137
feminist 1
igo 1
rop@@ 1
Cleveland 0.6747415361654164
Jacob 0.6981759939000992
Kenya 0.9652425683695631
aide 0.49368159530479566
ech 0.5736248204626065
opl@@ 1
sidir 1
Dim@@ 1
Tang 1
ss@@ 1
Internet 0.404652921207804
PO@@ 0.9792647717438552
170 1
Lem@@ 0.6811987397259186
agan 1
puan@@ 1
Gerais 1
Leipzig 0.5276989785869127
Trump 0.7065654241664571
muz 1
punk 0.9741290846666258
tiv@@ 0.410654792627007
Tit@@ 0.7874165878133721
pasa@@ 1
tüc@@ 1
zil@@ 1
eira 1
Bri@@ 0.46761685919242457
Carter 0.7411171569973215
Detroit 0.6153249343976938
etab@@ 1
gri@@ 0.6080499013455665
hid 1
imm@@ 1
modi@@ 0.8120621807457492
Ajax 1
Esen@@ 1
Hawaii 0.9345501084612095
Pan 0.8793412407524565
nar@@ 0.6695102508527971
Galer@@ 1
Mi 1
Seg@@ 0.5884441003357317
Story 0.8331901278079922
`@@ 1
ogen@@ 0.6609835363387728
Gas@@ 0.4973980990149951
kit 1
É@@ 0.17957965128246997
Erd@@ 0.9498976214139051
Sul 1
Müc@@ 1
harc@@ 1
Akar@@ 1
Roberto 1
T.@@ 1
Kost@@ 1
Om@@ 1
Zek@@ 1
shire 0.6391043894448312
Rachel 1
AF 0.8502929981217062
Burg@@ 0.6498704702314242
Rest@@ 1
Styles 1
aren@@ 1
inist 1
Sovyet@@ 1
alp 1
cay@@ 1
hormon@@ 1
Gan@@ 0.9071841858635545
Roc@@ 0.6126043212385553
alga 1
azak@@ 1
ysel 1
piy@@ 1
ylelikle 1
At 0.07016549240621421
Barbar@@ 1
shi 1
ston 0.6128225872085024
Jac@@ 0.6628130339477052
Phil@@ 0.5995227080040183
Miz@@ 1
Spe@@ 0.4745571451357464
17,@@ 1
Festiv@@ 1
IC 0.6480970011325023
Franco 0.8375213454280994
RI@@ 0.7009307843541664
Oslo 1
oke 0.5971341637061431
Gab@@ 0.8574366989979988
5000 0.9227041178583506
Koh@@ 0.8474074315501283
Taliban 1
nesi 1
tiva 0.8261888477451653
Gey@@ 1
Sis@@ 1
onal 0.3629807631605281
Cooper 0.8265436942169735
Emma 1
Light 0.5678053556703857
biyle 1
ds 0.16642053097448942
eviz@@ 1
ther 0.5831765503531835
‬ 1
Ara 1
Silva 1
Spike 1
fed@@ 1
yeğ@@ 1
ümüz@@ 1
Gh@@ 0.6121324427310082
medir 1
oko 1
100@@ 1
Down 0.8561370372689986
Georges 0.5408600031630211
Juventus 1
direk@@ 1
kura 1
Best@@ 0.5642322018913385
EuroLeague 1
Jennifer 1
Pit@@ 0.8049273038430163
ank@@ 1
Ah 1
tirler 1
Greg@@ 1
alia 0.6622073755380146
cha 0.23965390578922652
Harr@@ 1
ais@@ 0.3289730183469739
án@@ 0.47896777991612954
aliyet 1
Jos@@ 1
Va@@ 1
bot 0.845580162740479
Hermann 0.5828731050429155
Pos@@ 0.6700564659399033
apart@@ 1
Moon 0.7638453804667569
RS 0.7473849252831396
amino 1
zer 0.4292864053314029
Anti 1
LA 0.5647455221270615
\ 0.7315454127485884
enteg@@ 1
misaf@@ 1
მ@@ 1
4.000 1
asta 1
Aki@@ 1
CP 1
For 0.089718129949335
Py@@ 0.9372347541905878
Var 1
agon 1
caz@@ 1
propagand@@ 1
ATP 0.828575049775596
Alberto 0.8067664546360785
Mang@@ 0.7903178961582817
Ofisi 1
Vermont 1
dâ@@ 1
Sec@@ 0.5041567765904934
Stein@@ 0.3198112104002949
Tank 1
gesel 1
oskop@@ 1
trom@@ 1
Basra 1
Museum 0.15339245009718372
Tommy 1
ider 0.48387474600381547
ín 0.27584852248863134
1862 0.5007498479271485
Gib@@ 1
oji 1
Dos@@ 1
Magic 1
İnş@@ 1
ındayken 1
Bart 1
Jefferson 0.99005631761841
North@@ 0.837476091723245
Ny@@ 0.8434458714638425
Satr@@ 1
Wisconsin 0.462696654826566
she 0.027596326337348414
3,5 1
Lucas 0.8963146748130422
atur@@ 0.7266083392134802
ikon@@ 1
Central 0.13469157212356542
Suffolk 1
metod@@ 1
Stanley 0.6580667492736418
Willow 1
fah@@ 1
Dubai 1
Duv@@ 1
Server 1
ini@@ 0.653320294749099
oth 0.5158316508878585
robot@@ 1
Point 0.4217670769614848
koloni 1
Aconitum 1
Dans 0.13639930559560914
May 0.05519261406636206
WrestleMania 1
anali@@ 1
mor 1
antum 1
familyas@@ 1
isto 1
Dre@@ 0.49858028083159345
Gy@@ 1
Zagreb 1
103 1
Bonn 1
Norfolk 1
PA 0.5180182810484301
oksid@@ 1
opter 1
rüzgâ@@ 1
AL 0.9780483990650776
Atak@@ 1
Ontario 0.3698534193392365
oli@@ 0.8216674279365492
vik 1
Gold@@ 0.48446794980242025
Pes@@ 1
SD 1
esta 0.0960920096878814
kilo 1
Thompson 0.6714147716390253
err@@ 0.2929000411552787
âtı 1
Mississippi 0.5943990860092173
ht@@ 1
its 0.015067227676268046
uba 1
Marco 0.9144215132323659
Mikro@@ 1
Nelson 0.6344628606404499
bant@@ 1
feld 0.29561168765944174
ilir@@ 1
ink@@ 1
ê 1
Ma 0.8693537585232495
kalab@@ 1
kaç 1
zona 0.334510357454474
Komit@@ 1
Prince 0.27619418019926795
Roy 0.6394131052941587
Sierra 0.6249551755631046
Somali 1
pus@@ 1
rag@@ 0.8304738578216573
yk@@ 1
2.5 0.9378159843598831
Tip 1
iks 1
maktay@@ 1
mid@@ 0.43549556762072056
Boh@@ 0.773985270763756
Comics 0.7944932220008722
Dış@@ 1
doz@@ 1
thr@@ 0.43006272140180796
çidir 1
Loc@@ 0.5946216727851739
ege 0.8266114140808725
ovski 1
örd@@ 1
İşlet@@ 1
Abr@@ 0.8231992944449813
Harun 1
Wo@@ 0.6227251838572595
agn@@ 0.602922023576058
arlığı 1
Lib@@ 0.5877474900212508
aca@@ 1
ondo 1
uri@@ 0.8192719555231693
თ@@ 1
PG 1
Yem@@ 1
Arp 1
Palm 1
ough 0.4466270778558065
porta@@ 1
Ann 0.6970457973615607
Birmingham 0.7055710284495702
idze 1
omen@@ 1
Duk@@ 1
Robinson 0.6841494689330554
nov@@ 0.8936364526979018
1828 0.9187605655052068
26.@@ 1
Lloyd 0.8452995757955821
aliy@@ 1
acat@@ 1
festival 0.2974359840045565
Danny 1
ME 1
Open 0.2223959616461885
Sergey 1
Ob@@ 0.5380557266155379
gay 0.8966314222454582
kapsay@@ 1
45@@ 0.9398486036080461
PS@@ 0.6823195843715306
kans@@ 1
omu 1
vis 0.7372553675576332
ave@@ 0.7773458229495274
lov 1
ogr@@ 0.8580483028188248
ürlük 1
Gold 0.3559000934043144
ensi@@ 0.7546370940257802
kenin 1
lab@@ 0.3969286423230124
depos@@ 0.9914099336416248
dul 1
tos 0.28974633152782814
Fire 0.5928397722867004
Shim@@ 1
alli@@ 0.4838715181286052
ihr@@ 1
nav@@ 0.7200083202948057
yin 1
104 1
Atlético 1
Bon 1
Bruno 0.8863759131935689
Men 0.3109509814371463
Stuttgart 0.6794642956946002
Za@@ 1
eau 0.15603001256671856
sic@@ 1
Esp@@ 0.4426725409193958
Global 0.5881603553347897
It@@ 0.9587257351898422
Sports 0.33559043418626167
30.000 1
Cass@@ 0.8341864674288366
ky@@ 1
nekler 1
sendrom@@ 1
Kentucky 0.5320687303788992
Vatikan 1
mab@@ 1
Lau@@ 0.5443525914471616
XX@@ 1
akat@@ 1
Osaka 1
Vegas 0.8646382131528791
kahver@@ 1
lag@@ 0.3425944837401506
pas 0.05110389105668687
Parker 0.7774027471302422
ellen@@ 1
lio 0.9455230321203678
mevki@@ 1
nazar@@ 1
Orton 1
Vic@@ 0.5510766537133267
ás 0.8968382409959803
Fas@@ 1
Hand@@ 0.34845087503637023
Il 0.021760571905633918
Kanuni 1
Lac@@ 0.6283935082389496
Muhareb@@ 1
aray 1
illo 0.4060627430047675
itin 1
Angola 1
Kong@@ 1
Plan 0.568055443924032
ampiy@@ 1
olana 1
uil 1
zik@@ 1
Tet@@ 1
hip@@ 1
seti 1
Coca 1
Long@@ 0.5205548780179757
sif 1
Der 0.02448928220941706
mese 1
rini 1
Triple 1
Vat@@ 1
dedi@@ 1
Dakota 0.7537862245406278
Bru@@ 0.5028657883032739
ague 1
deh@@ 1
ismi@@ 1
isp@@ 1
nal 1
osaurus 1
Polit@@ 1
TS 0.9341792519732267
′ 1
Book 0.40007590487281247
ante@@ 0.8242553584049616
dul@@ 1
Adam@@ 1
Ron 1
Texas 0.16377506096868236
Yur@@ 1
nia 0.7599081275421162
use 0.04899026260757634
uti 1
çek 1
Dig@@ 1
Java 0.9425125636583042
Lab@@ 0.6241720398398497
Nin@@ 1
cara 1
dum@@ 1
~ 0.9452085106334861
Institute 0.15032986121332026
Kak@@ 1
Katal@@ 1
lamb@@ 1
mobil@@ 0.7820174063173386
yas 1
NBC 0.6952562123160984
System 0.270160555818075
USB 1
orn 0.663154863959939
Balkan@@ 1
Francesco 1
eros 0.3075670467450462
gres@@ 1
minimum 0.7410604356887954
11,@@ 0.9172845742416806
37@@ 0.9166882481317916
Alabama 0.5480754645320185
ista 0.16957081102275448
oro 0.3545908688855739
Hat 1
Type 0.7648089198004834
gey 1
osman@@ 1
ʿ@@ 1
α 0.4379944200735746
Grant 0.6190252230121153
Maryland 0.4796181796042689
Mini 1
cl@@ 0.1486240704872883
we 0.13791416852879
Nicolas 0.5869679535011592
bian 0.9930121272775708
Elektr@@ 1
agu@@ 0.32289250157426536
geb@@ 0.26827451774181976
vic@@ 0.45254641992202754
Graham 0.6925228509211199
Grön@@ 1
Press 0.4082916159440209
Solo 1
Anah@@ 1
Anton 0.7228384950071579
Just 0.7029890857313077
Sebastian 0.985312485080158
Edge 1
Nürnberg 1
Rok@@ 1
pli 1
rim@@ 1
ry@@ 0.750705116734416
Ful@@ 0.8719573479073999
burg@@ 1
hy@@ 0.3489347016197305
Ala@@ 1
Herbert 0.6273497690862623
Kop@@ 0.8898647737438331
NA 0.708131826993332
afir@@ 1
binden 1
Academy 0.1598694364802729
Sof@@ 1
kopos@@ 1
laka 1
vr@@ 1
Neg@@ 0.811741207998021
mide 1
seyi 1
135 1
Gra@@ 0.7121563289693496
PE@@ 0.953788183646951
elb@@ 1
mineral 1
pon@@ 0.3520360430117205
AFC 1
Clara 1
Rey@@ 1
Tap@@ 1
Yab@@ 1
enes 0.5172665531830701
salon 1
öp@@ 1
Fi 1
Georg 0.3855664017197954
Hass@@ 1
Baron 0.598329825451951
osaur@@ 1
Ath@@ 0.7236851308952265
Fol@@ 0.43066195319892814
Fred 0.7069906441823403
X. 1
Shane 1
Stewart 0.630463989765586
nen 0.2040693220819343
Fiat 1
HC 0.8601681719260142
Nok@@ 1
Televiz@@ 1
Voy@@ 1
leg@@ 0.28096834499981754
tabaka 1
Gaziante@@ 1
Harold 0.8991724876321249
Let@@ 1
nun@@ 1
12,@@ 0.8768224822187912
Iowa 0.4839772115407802
Monte 0.7112642105963144
UTC 1
esh@@ 0.5041146804070652
vik@@ 1
Cand@@ 1
End 0.6486771874743108
Magazine 0.49434727104703063
750 0.9774711177749881
Dragon 0.9633714261733878
Laura 0.8714251632537021
Vide@@ 1
daş 1
elma 1
ilişk@@ 1
İtalyan@@ 1
Mexico 0.2214942453531939
Neil 0.8938689712057787
Sevilla 1
ers@@ 0.6095984197818817
osh@@ 0.950339302750438
J.@@ 0.7356559782721513
Kud@@ 1
Master 0.36555799281562007
aun@@ 0.4595222571133666
enter@@ 0.44690322291661416
https 1
win 0.11075347466202289
Andreas 0.7771027569381168
Hok@@ 1
Oregon 0.5020589313170475
femin@@ 1
tig@@ 0.35551942989931357
Aristoteles 1
Iron 0.7109401840421654
tler 1
6.000 1
arin 1
üzel 1
Diyar@@ 1
Luk@@ 1
Scar@@ 0.7554997585253322
Stal@@ 1
Stu@@ 0.4964762949069122
arkad@@ 1
bisik@@ 1
Da 0.24593424894952468
Laur@@ 0.6170046632036222
ave 0.464919523682254
Bohem@@ 1
Fame 0.5180895346185784
Wit@@ 0.5350340081498357
brah@@ 1
dic@@ 0.23580999374541015
Koordin@@ 1
Leonardo 1
Maurice 0.540756952580894
Morris 0.7101687426578029
Thymus 1
eron 0.2949974494128185
red 0.11310402145404394
zen@@ 0.6145548262125573
1856 0.5737054694104643
Abraham 0.8001499256390289
Lok@@ 1
Pink 1
Raz@@ 1
kos 1
par 0.011167099518686982
MB 1
ays 0.16610292278444455
bus 0.2512834342521226
ism@@ 0.7266620267588343
ū 0.8648308332082149
1,1 1
Ele@@ 1
Paraguay 1
Salvador 0.6791320769588705
aht 1
sem 1
ube 1
ıştır.@@ 1
RO@@ 0.707419103188683
Sik@@ 1
Aston 1
Brit@@ 1
Conn@@ 0.55221415497899
Kod@@ 1
Ural 1
tora 1
uka 1
Gun@@ 0.6303489760676949
Hotel 0.3935501170403757
Rocky 1
Sic@@ 1
illus 1
Art@@ 1
Beng@@ 1
Panama 1
Warren 0.76018336039971
filo 1
king 0.1248544909406781
13,@@ 0.8231871691109428
LED 1
Punk 1
atas@@ 1
dip 1
kınma 1
tez 1
vec@@ 0.7098777806012818
1784 1
Bom@@ 0.9192891198484219
Parlament@@ 1
piram@@ 1
sept 0.4838001293481283
İb@@ 1
Pent@@ 0.993940407273663
hül@@ 1
Log@@ 0.5874347713156362
Stat@@ 0.7956997933460219
BMW 1
CBS 0.6437710080320179
Pep@@ 1
arius 1
emper@@ 1
oo 0.6741517723950662
pros@@ 0.7912485579705568
Cook 0.7986138434877276
Hit@@ 0.8836314329544731
Komple@@ 1
anov 1
inski 1
omor@@ 1
109 1
Pau@@ 0.69896342409115
avar@@ 1
eb 0.8049950948578043
gs 0.3653633387731009
card 0.4410243780746485
kulüpler@@ 1
perspek@@ 1
Glenn 1
alyası 1
kati 1
uhan 1
BK 1
ady 0.6742212326552715
ა 1
Pompe@@ 1
enos 1
Band@@ 0.5384868665376936
Toh@@ 1
inge 0.6243751594025594
GP 1
metaf@@ 1
Fak@@ 1
30.@@ 1
Baden 0.5368043746974706
Carey 1
Nest@@ 1
Ved@@ 1
gündem@@ 1
Baby 0.9271638796265114
prof@@ 0.42669256068167566
Dawn 1
Fro@@ 0.7227452563478816
Science 0.22132142945345695
Brothers 0.6212067926421463
Mehdi 1
Teşkil@@ 1
anet 1
eland 0.49300390409804135
fid@@ 1
kot 1
115 1
Bern@@ 0.6674033787625273
Hart 1
kilogr@@ 1
otop@@ 1
sit 1
tic 0.15161297234791746
1859 0.5137520237344476
CG 1
SM 1
ipi 1
უ@@ 1
esti 1
iser 0.3690207846973518
lana 1
Pokémon 1
ec 0.7225409696782096
kak@@ 1
rece@@ 1
Clar@@ 0.6760847240909775
aud 0.5123121267159071
bale 1
polisi 1
.C. 0.9264749684736717
AIDS 1
Liste 0.18193869358333867
hisi 1
mur 1
sup@@ 0.40029256119039186
tarafa 1
Akk@@ 1
Raf@@ 1
bad 0.46725685921496607
bre 1
jet@@ 1
val 0.6007101361992606
yatak@@ 1
Ž@@ 0.9912776168266416
KA 1
seven 0.16012580140603852
âme 1
Elena 1
Ton@@ 0.48861234257295205
Two 0.1886608459929979
102 0.9108211213722414
Güre@@ 1
Haber@@ 1
Holmes 1
Person@@ 0.7621535854672599
örgü@@ 1
Habsburg 1
N. 0.6614165129179
annes 1
ech@@ 0.20601485129941627
istin 1
mel 1
tz@@ 0.7732747419791106
Gay@@ 1
Og@@ 0.999938101212378
eze 1
mus 0.8326801610679156
Slayer 1
Tark@@ 1
Çeşit@@ 1
Johannes 0.43126036356822
Ng@@ 0.6124505764843194
ifa 1
org 1
1.2 1
90@@ 1
Gari@@ 1
Sung@@ 1
ass 0.2987043018305932
erina 1
kadros@@ 1
H.@@ 0.84994201514752
Nicholas 0.7289809664493596
abol@@ 0.8177859456967086
nev@@ 1
urn@@ 0.7025065187314131
י@@ 1
Medi@@ 0.4233632062134314
PT@@ 1
Sky 0.7177320793451101
baa 1
tilla 1
vil 1
mene 1
August 0.03723017528284071
Dortmund 1
abr@@ 0.5162461502792679
ajan 1
light 0.13348699696193647
m. 0.7763419303037044
Homo 1
Row@@ 0.7611688811999067
Women 0.1625375605314946
enci@@ 0.763338028386042
iPad 1
nut@@ 1
34@@ 0.8123907385120576
Awards 0.1535077816966062
Bar 0.6889116265215606
difer@@ 1
teker@@ 1
AI@@ 0.525471112200663
Forest 0.41627666671834085
Let 0.8561213309156085
Micro@@ 0.8549009534373899
Theatre 0.2670582734838103
Volga 1
Wehrmacht 1
etto 0.9413910762398677
lob@@ 0.4385703483969848
sola 1
uti@@ 0.5121153474554403
Back 0.6908829012894319
Songs 0.5270057603519341
won 0.04726832348758921
Vampire 1
Vin@@ 0.7239647408883703
IBM 0.9724196865204943
SE 0.8944839272238353
Sri 0.4543583050533294
dat 1
xi 0.8366278343985821
Civ@@ 1
Mic@@ 0.8647343340164595
anom@@ 1
sing@@ 0.5566657565745148
Minsk 1
Sid@@ 0.7654525836724794
Thi@@ 0.48450351606855546
ever 0.13349639735653274
ones 0.11501637099330045
50.000 1
Eddie 0.8878323350861431
IS 0.6171914596100331
alit@@ 1
nan 1
sv@@ 1
İng@@ 1
106 1
did@@ 1
Andron@@ 1
Berkeley 0.8933627424580945
By@@ 0.8154445249311453
Jin 1
Montreal 0.548300693346243
Nevada 0.7914769718995848
edo 0.5992257297991793
isar 1
Fahr@@ 0.36955930320110014
Gav@@ 1
Graf@@ 0.9404101352625731
Hills 0.5992051541843573
Rudolf 0.6319502434974117
Sardin@@ 1
Tuf@@ 1
cover 0.23346886019685437
enta 0.32753605689761495
gia 0.14285561122775095
Kob@@ 1
Ped@@ 0.988734481055816
^ 1
umu@@ 1
ée 0.03294278960022704
über@@ 0.09005817085773288
Edinburgh 0.5875374642800875
Fay@@ 1
Gon@@ 1
Ts@@ 1
Turner 0.7207884451076227
illi@@ 0.7333299062342232
jo@@ 0.48909386667084487
opi 1
vers 0.08188072109667338
107 1
Au@@ 0.3231493349705962
Bologna 1
Yuri 1
bari 1
protok@@ 1
1857 0.5362202165609469
asto@@ 1
dine 1
krom@@ 1
post 0.14497529494243364
Hül@@ 1
VI@@ 0.7250157516089254
cio 0.5199237579729332
edin 1
ule 0.3425416796070559
1849 0.569631222061167
Italia 0.4219842503838792
Lumia 1
Meli@@ 1
Solomon 1
anger 0.3920715910546514
koku 1
less 0.10023746735834542
ord 0.5481083301678333
sıf@@ 1
utt@@ 1
yiti@@ 1
38@@ 0.8114522806395963
atri 1
kuku 1
moment@@ 1
terap@@ 1
240 1
Dak@@ 1
Nog@@ 1
alışver@@ 1
Maxwell 1
Plus 0.5160632286786585
Stand@@ 0.7242062238539624
edral 1
eran 0.12923094042367456
1831 0.7468562019568562
Dini 1
ikistan 1
Borussia 1
Cent@@ 0.6044844161571047
Fos@@ 1
Gedi@@ 1
Nancy 0.7658889495527376
tine 1
Diplom@@ 1
ende@@ 1
fahr@@ 0.5881625025766557
yı@@ 1
Arnold 0.7039979780175246
codice 0.6192751745827192
Devrim@@ 1
1785 1
Ken 0.8436752092143358
Tez@@ 1
etse 1
mani 1
Hard@@ 0.7013269019982291
Sabri 1
mos 0.7670322015440895
otro@@ 1
Hükû@@ 1
Jam@@ 0.6412834916356762
Ment@@ 1
ated 0.031241352515596038
15,@@ 0.8821001540119635
1826 0.8373029461654984
CA 0.44677127322188176
ting@@ 1
GM 1
GPS 1
Gustav 0.7676296436982558
Kaplan 1
Ted 1
iliz 1
ī 0.8780490360437286
Baker 0.652899454422957
Get 1
Hiti@@ 1
Jericho 1
Nice 1
Cape 0.44347632409124693
Earth 0.3100395647886314
Fed@@ 1
Melbourne 0.392995030197585
NE@@ 0.6925621006631255
Touch 1
1600 0.9761508534003491
Churchill 1
Eva 1
Now 0.5819549471999722
ember 1
enne 0.15721402839859047
Lynch 1
Stan@@ 0.8463266110417522
abon@@ 1
aph@@ 0.546842855758299
kor 1
Ard@@ 1
ater 0.384065864112144
ines 0.11962684579855141
nos 0.3978282299895996
1855 0.5531614475387555
Amar@@ 1
CF 1
Gos@@ 0.8110133808476897
ae@@ 1
108 0.9521392999984468
Alfa 1
Cour@@ 0.3300664921456208
Nehr@@ 1
Oda 1
cho 0.06165227415495535
1854 0.5507516218522434
Volkswagen 1
Barry 0.6924533319916654
Shield 1
Ve@@ 1
dizi@@ 1
say 0.40604190750391866
Carol 1
afe 1
ery 0.23257311268951913
ple 0.582101277654753
25.@@ 1
Benz 1
Bra@@ 0.6592346016109666
Hell 1
Newcastle 0.8832726348726386
Sur 0.22842641610871034
icks 0.7181205591320932
ovich 0.9477703453539974
plasti@@ 1
sam 1
Wimbledon 1
andi 1
ifi 1
kine 1
lot 0.26330986430665565
ains 0.18053833079078777
anal@@ 1
atsu 1
е@@ 0.17971872456441265
Ji@@ 0.7880841774695093
Orange 0.6128125547340503
alo@@ 1
adze 1
anam@@ 1
ünkü 1
Collins 0.7460089049112635
Isaac 0.8686621227152597
Mür@@ 1
So 0.16523797911175148
Walker 0.5236062820262145
def 1
mm@@ 1
Telekom 1
eton 0.5176896239964449
Dou@@ 0.4912217543114367
Masters 0.6797344300806467
old@@ 1
zirve@@ 1
Cru@@ 0.5927004962223318
II. 0.3239331539734645
SI 1
Wood 0.5783292715741916
esel@@ 1
urs@@ 1
Neo 1
Nero 1
tha 0.6319609100104173
Bez@@ 1
Green@@ 0.5909942009757594
mama 1
GNU 1
Orlando 1
aran 0.6409078647861743
nan@@ 1
evo 1
ron 0.7601639564862492
16,@@ 0.8870181739566744
24.@@ 1
BP 1
Beg@@ 0.46725758475751905
Claudius 1
Hall@@ 0.797525016605319
klin@@ 1
ülke@@ 1
Abbas@@ 1
Murphy 0.8528050410378586
ely 0.12784419822453594
glu@@ 1
kaz 1
limit@@ 0.46252485563200874
onius 1
airi 1
aki@@ 1
lö@@ 0.909011992576906
obi@@ 1
unk@@ 0.4044689505455146
As 0.04410578275523945
Buda 1
Cant@@ 0.6059960433074245
Viktor 1
etz 0.7568958246119509
koro 1
nam 0.3371512418274335
pant@@ 1
Cil@@ 1
IP@@ 0.7872896989229283
etno@@ 1
uro 0.6268858298589183
vid@@ 0.9580965036126654
Ash 1
Cher@@ 0.7047616744330537
Sina 1
ding 0.182637925109827
sept@@ 1
tart@@ 1
Kütüphan@@ 1
Planck 1
ies 0.09470685469757081
Ich@@ 1
adis 1
direkt@@ 1
ward 0.1975135510891423
14,@@ 0.7981395276234827
Sym@@ 0.8636478407686314
agi 1
oga 0.7393266474742216
roller 1
1839 0.6717583144169816
Nord@@ 0.198374760351217
Ust@@ 1
aline 1
kos@@ 1
leyen@@ 1
Euro@@ 1
Jorge 0.5511808034065105
amor@@ 0.9461993825988995
ns 0.20239689414869783
Band 0.15849954375706535
Kard@@ 1
Shu@@ 0.8330284542419012
kurmay 1
Barr@@ 0.43910391864634624
HIV 1
Mozart 1
Power@@ 1
1789 0.8534024444264565
Bobby 0.7954969596940062
Part 0.7501574174856396
kore@@ 1
lers 0.1735749042511906
AA 0.5228593488377175
God 0.2778369394663348
R.@@ 0.6907737934555649
kins 0.8036512711751749
sha 1
sm@@ 0.6196572639735125
̣ 1
Gray 0.751194240099163
Rafael 0.6917920510324675
Tag 0.3577451150810789
Tot@@ 0.885086888820951
isel 1
HTC 1
Kar 1
Kid@@ 1
ted 0.04581994258091271
Hük@@ 1
Money 1
Posta 1
alog 0.9104352202982537
app@@ 0.2886155066289349
defl@@ 1
nom@@ 0.3281275145920824
sof@@ 1
Baf@@ 1
CI@@ 0.5047800760376646
KO@@ 1
Spears 1
Toy@@ 1
Us@@ 1
efa 1
head 0.08469093523728755
müzis@@ 1
nai@@ 1
torp@@ 1
Madagaskar 1
Yosh@@ 1
aku 1
eman@@ 1
erer 0.6898340902463803
ness 0.159563515836964
Önc@@ 1
201@@ 0.8042749080896854
Bü@@ 0.993162687265078
ellik@@ 1
sius 1
Hunter 0.7205920789438434
omo 0.7205267916595158
pig@@ 0.8272576216413794
Clinton 0.7052436310885408
Kolon@@ 1
Louisiana 0.5534746464408845
Wolf 0.6387932024111861
foros 1
loc@@ 0.1690099257978413
Klar@@ 1
Rik@@ 1
Sport 0.396619750381808
aul@@ 0.39211936135526987
kayak 1
yonel 1
itch 0.6616034793466793
morfol@@ 1
Rav@@ 0.7483224847102781
Sco@@ 1
dak 1
gat 1
norm@@ 1
fare 0.9333932945109186
iya 1
segment@@ 1
1858 0.5226350134778508
Aus@@ 0.0823150061145043
aco 0.5581450257853268
gh@@ 0.3851011596106018
vill@@ 0.5873463685524618
People 0.2353794464304734
achi 0.9656605597776102
mati@@ 0.6003869204927884
ulos 1
ves 0.12219434887291099
üncü 1
AF@@ 0.6172658250211894
DO@@ 0.6990183116447563
Mayer 1
lon@@ 1
amoto 1
ekten 1
ril 1
sultan@@ 1
wan 0.49824792782789296
Departamento 0.9384454534144033
Hasan@@ 1
Montgomery 0.982030048273189
Ğ@@ 1
Sara 1
Sci@@ 1
aster 0.7008336151766564
atil@@ 1
ats 0.11161592476596878
27,@@ 1
Arist@@ 1
Vila 1
ck@@ 0.40521730380455956
een 0.45134251141093135
heavy 0.2773708658501853
omb 1
Örgüt@@ 1
Hamza 1
Somerset 1
Valencia 0.6670441107402221
ino@@ 1
liz@@ 0.4926489731064712
onn@@ 0.25253938179278695
sper@@ 1
spir@@ 0.5909392504521557
XI 0.6030872174294223
emat@@ 1
isha 0.8406513357652351
500.000 1
Petrus 1
Yan 1
ilo 0.5638582572704005
kek 1
Angel@@ 1
arit@@ 1
atri@@ 1
eral 0.784313544582533
lilik@@ 1
lock 0.4049951699950623
tıb@@ 1
Gau@@ 0.37803219783957104
Max@@ 1
Simpson 0.9670326965193456
zap@@ 1
Challenge 0.6173806370689173
EN@@ 0.9510655513859008
AZ 1
Gener@@ 0.40260962323719895
Gin@@ 1
Gren@@ 0.8586430653851693
Lincolnshire 1
Rut@@ 1
Vard@@ 1
1836 0.6363251998133607
550 1
Drive 0.7803185903368801
Giuseppe 1
akter 1
ops 0.38186384046381133
style 0.08701204010641177
Lazio 1
Sn@@ 1
aine 0.2685228939121574
şö@@ 1
1853 0.5591752600159068
4000 1
Edgar 0.9589809506433514
Putin 1
Rub@@ 0.7491019130559339
Tali@@ 1
Wor@@ 0.36819887080886127
radar 0.8302542864257147
0.1 1
46@@ 0.9967954333853416
Simp@@ 1
Ves@@ 1
fordshire 1
opa 1
Cle@@ 0.6852652604261286
Gev@@ 1
Silver 0.6043540519725874
litre 1
39@@ 0.8324996180611762
Honda 1
Nepal 0.8277006113418433
eum 0.7820042914501062
hard 0.2837484770913658
iklet 1
nm 1
Bros 1
Cir@@ 0.5705934027463455
ento 0.35919043026290765
online 0.31361576969902005
s. 0.6310639308912892
Castro 0.8280577328423444
Denis 0.6785399785144189
Geor@@ 0.8346054576093521
Larry 0.8049038085938978
Pablo 0.564522531838093
Roberts 0.7389571431204085
ayi 1
Bül@@ 1
Büt@@ 1
tir.@@ 1
Business 0.32983478149016543
Carolina 0.20559403817587205
Diana 1
Ernest 0.7263676274422518
IT@@ 0.612144854696541
Kib@@ 1
stab@@ 0.6013301024051945
sultan 1
→ 0.8767414800693714
Depart@@ 1
Orleans 0.6091486507873961
Project 0.37506576421088633
Tahir 1
ekim 1
220 0.8815517615582784
Dö@@ 1
EA 1
Rosa 0.6349143160337359
Yes@@ 1
asil@@ 1
etçi 1
ursa 1
Are 0.9784934078616662
Eve 1
Hun 1
SM@@ 0.9911297274569612
Sahi@@ 1
Tyler 1
ear@@ 0.28530240634048387
Calabria 1
ical 0.06898756566162788
master 0.24125253838281416
mg 1
temelen 1
üh@@ 0.5613129144685483
200.000 1
Chart 0.5672132083329166
Hell@@ 0.9440383676189814
Lil@@ 1
Molek@@ 1
Reigns 1
Sha@@ 0.7431530681429945
aliyet@@ 1
zur 0.031390514587085076
ხ@@ 1
1851 0.5337544019285689
Jun@@ 0.735847544272128
Lorenzo 0.8739950064487955
Uğ@@ 1
sane 1
ბ@@ 1
1845 0.5807632225710535
CONCACAF 1
Nept@@ 1
Roosevelt 0.8160413766515282
bli@@ 1
trib@@ 1
Blood 0.9424830996827973
UR@@ 1
beton 1
ier@@ 0.19424754927887267
Monica 1
Miz 1
egr@@ 0.6017219905641811
itt 0.6843465430614333
okol@@ 1
put@@ 0.8135526913240204
Flash 1
Pac@@ 1
Syn@@ 0.43368732203647964
ו@@ 1
Eminem 1
Guatemala 0.714199833846163
Jung 1
Online 0.7779493914678898
Rotterdam 1
Sans@@ 1
adr@@ 0.6056023443625593
anüstü 1
ars@@ 1
orf 1
vert@@ 1
öne@@ 1
Jessica 1
Lik@@ 1
Sac@@ 0.7160933708438181
Total 1
Walt 1
Daily 0.5577842604652093
Hark@@ 1
Rap 1
ations 0.029170399083883115
kn@@ 0.24772737635235326
Express 0.4620463876751662
Iz@@ 0.9477652144102904
Wat@@ 0.6481981302331092
İsp@@ 1
Ris@@ 0.8585683594440973
amel@@ 1
ias 0.5450445543353624
5,2 1
Aram@@ 1
Blu@@ 0.5748409392598821
Born 0.32360854863875566
Jer@@ 0.8285383424486197
Kosta 1
ann 0.40533502722163905
bri@@ 0.5351233603712388
günümüz@@ 1
1847 0.5652326659123263
Ata 1
Cameron 0.9062155538256539
Hardy 1
Tad@@ 1
ander@@ 0.5061313911954619
111 0.9462756115174977
Hudson 0.6648347949909548
Joan 0.7150830195210393
Owens 1
Sov@@ 1
bard@@ 1
fri@@ 0.3933913162138974
nete 1
Di 0.9145659202665359
aro@@ 0.6538799245122813
ofisi 1
Atom 1
Free 0.397885219067535
Mussolini 1
Savun@@ 1
iss 0.5720510586945577
ˈ@@ 1
Apollon 1
F1 1
Hannover 0.6401991948847984
ihtiy@@ 1
inho 1
osis 0.3579979218370329
1829 0.7221955871505272
8.000 1
Kamerun 1
ano@@ 0.8110364493397679
lok@@ 1
65@@ 1
Andre@@ 0.9835087800710232
Arm@@ 0.7844310134720792
Domin@@ 0.7745179299835704
Terry 0.7282484187423732
Wallace 0.8324645167760858
hou 1
ple@@ 0.2078159630875938
polin@@ 1
25. 0.41322194040706384
Parlam@@ 1
Susan 0.8164639812319581
Wagner 0.7596620727777275
bud@@ 0.8398042849694668
eper 0.7183883762869961
rell 0.756762232724401
sum@@ 0.20474352476004562
Force 0.1588800793804528
Frank@@ 1
Phil 0.7061751704366638
Rollins 1
frag@@ 0.3936194723621237
kem 1
ković 1
112 0.9487226276432298
Atl@@ 1
Lakers 1
Stanford 0.8565877450297962
trig@@ 0.7746080588808194
Özg@@ 1
Cole 0.9530538060853261
Sher@@ 0.5896806716422458
Sti@@ 0.6348655115640961
rep@@ 0.25436954032951536
1.4 1
Ig@@ 0.6103867213597858
Mün@@ 1
Pand@@ 0.9751066203010316
Slovak 1
town 0.056907105853632615
Bang 1
SR 0.4069740504547238
cell@@ 0.6392577907639856
direc@@ 0.36620653790701974
integr@@ 0.4485378144863192
profil@@ 1
დ@@ 1
1815 0.551544648172334
75@@ 1
Ltd 0.5361313989010833
Web@@ 0.7332727596168813
itar 1
kip@@ 1
ú 0.5307375880391778
3.5 0.985386211367568
Khan 0.35184441301141417
Pag@@ 1
Peugeot 1
Racing 0.42016995222711084
Sug@@ 1
aut 0.3338409733872257
bul 1
mür 1
oman 1
reti@@ 1
Note 0.6200330814767961
Sant@@ 0.6647187106383986
Von 0.08755126623299964
my 0.1985746534396917
är@@ 0.20221682140983227
NS@@ 0.6203056160059258
Tsu@@ 1
XIV 0.626617055725409
atak@@ 1
ević 1
gas@@ 0.5104764764880446
reper@@ 1
ā 0.7361047323690871
Avru@@ 1
Felipe 0.7393941756907242
Louise 0.5922805475123681
ayna 1
imen@@ 1
1837 0.5952134249860072
76@@ 1
CC@@ 0.48011110991296785
Pist@@ 1
Tuv@@ 1
pid@@ 1
D.@@ 0.7155135549595834
Senegal 1
ä 0.8952735456335809
ınday@@ 1
1846 0.5517226779633508
Abd@@ 1
CN@@ 0.662289052720753
Feh@@ 1
Pyr@@ 0.8587093068012955
Western 0.12498451268028327
galibi@@ 1
Å@@ 1
ñ@@ 0.32477923848627444
Basel 0.7703026742571338
XII 0.6234847752246809
afor@@ 1
atum 0.7153037743062268
kle 1
Anayas@@ 1
Bow@@ 0.4133286783066308
Dev 1
Dimi@@ 1
Helena 1
Mahall@@ 1
Watson 0.8089081958956146
esp@@ 0.21576462837134683
22@@ 0.6561388466386856
BM@@ 0.7858765281471493
Dennis 0.7668811700843661
Oh 1
Saddam 1
Termin@@ 1
XIII 0.5394910034616971
bur 1
ents 0.07876515858879525
1700 0.9947583316897567
40.000 1
Cib@@ 1
Days 0.863605215076207
Mom@@ 0.9340444156247247
PP@@ 0.9885920934418776
Summer 0.17666087771355454
alog@@ 0.8372766892741947
leb@@ 0.6951619976235277
span@@ 1
Pra@@ 0.877733229863949
Tag@@ 0.5625099939516918
Vancouver 0.5588686492615544
tit@@ 0.5942912183790762
1530 1
Bagr@@ 1
Bob@@ 0.8758277413992618
Hog@@ 1
diz 1
viral 1
„ 0.014742198056279255
Germain 1
More 0.38723493008583587
bor 0.6618460728868301
ender@@ 0.8498471364308599
pet@@ 0.7538397592919797
soundtrack 0.7069628496210584
44@@ 1
Asp@@ 0.9149021148826523
Forbes 1
Sup@@ 0.43377339614349425
Wild 0.6361568887462747
haci@@ 1
Mansur 1
Myanmar 1
dop@@ 1
islav 1
1812 0.5349632777436902
1820 0.45871621900533266
Ayn@@ 1
CH@@ 0.42161441591548204
HMS 0.5781167769334951
Jovi 1
Leeds 0.7553797428360266
Mum@@ 1
ladıktan 1
Bella 1
Inter 0.9600903874712927
Josh 1
María 0.2146457623318699
cili@@ 1
isiy@@ 1
ár@@ 0.4394943825154771
Mason 0.8731335401691462
Tib@@ 0.7141694111620488
Woman 0.694852077811268
İnter@@ 1
ıköy 1
Lep@@ 1
SF@@ 1
API 1
BAFTA 1
Never 1
One@@ 1
Plas@@ 1
vić 1
79,@@ 1
Vista 1
gn@@ 0.6456495232006327
inek 1
taz 1
ð@@ 0.9411932451538089
EL@@ 0.9936332449090786
Ekonom@@ 1
Hr@@ 1
Kret@@ 1
avy@@ 1
polar 1
uza 1
1844 0.5904568156052097
ID 0.8565071979256931
Na 0.9869317466465819
eyn 1
33.@@ 1
Beyoncé 1
HF 0.8710346997265503
duda 1
kurş@@ 1
rul 1
afak@@ 1
size 0.1597390796765483
68@@ 1
Adrian 1
Ats@@ 1
FBI 0.9444665977403042
Michelle 1
Undertaker 1
yot@@ 1
27.@@ 1
And@@ 0.9236910752163451
Bremen 0.666933471836269
CS 0.555916503233184
Princeton 0.9945181465598459
bater@@ 1
roz@@ 1
ved@@ 1
1.1 1
Emilia 1
Obama 0.7871019379151968
them 0.035481218417082634
Dick 0.7112494972741368
Did@@ 1
Gregory 0.7809492758110199
Nab@@ 1
dea 1
prop@@ 0.2787743845769514
Arc@@ 0.952835032974024
Jur@@ 0.3564026768960279
Lou@@ 0.5242366666784891
ekn@@ 1
ferin 1
wick 0.5620685498004717
Abu 0.6596722461160325
ET 1
Lanka 0.5935736590293165
Lud@@ 0.8755363571265108
Rangers 0.6017873972817462
mum@@ 1
ograd 1
ring 0.22524868173917126
Mans@@ 1
Nexus 1
Saat@@ 1
amar@@ 0.6522779940961086
astron@@ 1
feri 1
1814 0.5787180766215739
amen 0.6106190912517581
cia 0.680593596225212
odal 1
ub 1
49@@ 0.7438599897111571
Tec@@ 1
akos 1
etes 0.44478537234914844
fte 1
ign@@ 0.221407428901435
Jamaika 1
asp@@ 1
bag@@ 1
eleş@@ 1
els@@ 0.43505407314593597
Lef@@ 1
Monroe 1
any 0.05162061855903917
ig 0.29717426154520715
tika 1
unv@@ 1
venc@@ 1
Mitchell 0.5887935200094009
Suzuki 1
adil@@ 1
evski 1
Çel@@ 1
Hob@@ 0.9668267873747165
oral 0.4325043086912208
Athletic 0.5004595484465514
Corn@@ 0.5915224706764908
Line 0.19315237500315793
ares 0.2010747862717938
· 0.04380132549071824
Felix 0.8478788406766776
Meksiko 1
Tottenham 1
Up@@ 0.5863971238683168
auf 0.0101851880397828
Athena 1
C.@@ 0.44275088758740505
Mart@@ 1
Rh@@ 0.4893802473844738
Wall 0.6087782988896844
Zh@@ 0.9472026511122186
andum 1
fit 0.30345137103131364
Ar 1
Evans 0.5725210284796141
Murray 0.4898730492839866
Stark 1
emonte 1
iPod 1
ige 0.09577347096193099
ikti@@ 1
yac@@ 1
Hugh 0.6660728599329837
Nikola 1
aq 1
edeb@@ 1
uga 1
LO@@ 0.7654440999955883
Leb@@ 0.45385759305918416
Leonard 0.7803968726994741
Maver@@ 1
Sullivan 0.7907830280997787
amo 0.8073306370064259
ory@@ 1
Jose 0.6470918272495726
Zara 1
enges@@ 1
uchi 1
Bordeaux 0.7529561840031469
Hatt@@ 1
Medici 1
Riy@@ 1
Vul@@ 0.6960761521652421
beste 1
dum 1
ight 0.2962729772703705
nini 1
ortal@@ 1
voy@@ 0.7465337429582
190 1
England 0.0717674228896089
Kiss 1
Patent 1
Pun@@ 0.6968819062407126
anes 0.40584542779138255
cus 0.49915857927727353
galaksi 1
rif@@ 0.6070166130485505
Claire 0.9855369786699195
Pietro 1
m2 1
320 1
Cumhur@@ 1
Nac@@ 1
Randy 1
Survivor 1
Veter@@ 1
alem@@ 1
maj@@ 0.7190601423994462
15.000 1
ER 0.8958889574348863
Erik 1
Tolkien 1
bie 0.5537659602693364
cat@@ 0.15206616082113428
29.@@ 1
Apol@@ 1
Cou@@ 0.4453826656794032
European 0.08070177673563575
Ish@@ 1
Kafkas@@ 1
Nacional 0.14171965379178234
Valent@@ 1
Vid@@ 0.7342521481451564
aker 0.47426284447648365
erse 1
Brun@@ 0.5665876640783181
Lug@@ 1
Palm@@ 1
ST 0.8324893395210585
arpa 1
bik@@ 1
ega 0.5897496383759472
kand@@ 1
ultan 1
7.000 1
Politik 0.5029131912816159
Stor@@ 0.5533903711532423
Vey@@ 1
Yale 0.7425504956215083
element 0.6014421695985905
gerekç@@ 1
yoya 1
ě@@ 0.6158993385765802
Pant@@ 1
anot@@ 0.9233351477581666
atlan@@ 1
steri 1
wi@@ 0.3333116412113737
1821 0.6044060537810835
BT 1
Country 0.3305763065640342
Grim@@ 0.7733369149088735
YP 1
estra 1
grav@@ 0.34293843712167676
kongr@@ 1
uch@@ 0.2642695444420257
was 0.001734370413289858
Aran@@ 1
Beatles 0.888883937957014
Delhi 0.6096052245812806
Harrison 0.5773972242231178
Kura 1
Xi@@ 0.6253992451065792
aeus 1
peyg@@ 1
ș@@ 0.6882649387886929
Ach@@ 0.4155882810676038
Cot@@ 0.4833128123342058
Hin@@ 0.3643647680561552
Hindu 0.7682812604704895
IF@@ 0.7332849995748104
Vize 1
Yek@@ 1
its@@ 0.8470031739361837
pora 1
pus 1
sburg 0.5656744337459513
Andorra 1
Uran@@ 1
Vill@@ 0.32799020797871575
fran@@ 0.6125743240952548
neo 0.9475827890580266
Tiberius 1
Vali@@ 1
XVI 0.4367017065523029
Zay@@ 1
elektri@@ 1
mark 0.26380137062221604
standard@@ 1
wald 0.33648458394411374
én 0.4359991486823881
GT 0.7377510953016406
Monte@@ 0.9654162204362496
gard 1
play@@ 0.48496781689181423
57@@ 1
Pennsylvania 0.2123566110991865
Rumble 1
Zaf@@ 1
Zak@@ 1
55@@ 0.9429238869497841
Stuart 0.667718186920494
Whitney 1
imar 1
izer 1
pH 1
48@@ 0.8902799048818627
Bach 0.5544552550381056
Garden 0.47582425599522976
Mog@@ 0.9284311087586378
Ptolemy 1
atis 1
gel 0.7616495404904329
hamshire 1
ib 0.9736899683660596
tern@@ 0.46198551073184285
École 0.40808183179899205
Mug@@ 0.9175795744592024
Yev@@ 1
aland 1
biter 1
dist@@ 0.36722073312369846
itus 0.8460639014579238
onis 1
č 1
Alain 0.8447731266088808
Arn@@ 0.6174223195883832
Land 0.14036906010678038
bria 1
my@@ 0.333372040339632
210 1
Armstrong 0.8730324804497336
Musev@@ 1
Uni@@ 0.3047082142835763
Vad@@ 1
gal 1
inz@@ 1
vy@@ 1
Campbell 0.48054993745091423
Ero@@ 1
Galileo 1
Tan 1
ishan@@ 1
pand@@ 1
GS 1
atini 1
imento 1
Aff@@ 0.5770690136870152
Electric 0.6325753216395987
Falcon 1
Productions 0.69400578211613
Yıld@@ 1
mb@@ 0.4053842651341384
Knight 0.5523663723053964
Samt@@ 1
Spir@@ 0.6533466047279093
ado@@ 0.7583724303995988
alist@@ 1
aris 0.9191393568864742
borough 0.35334651634218883
box 0.2687541714249388
cal 0.587481844162065
haz 1
uss@@ 0.27619297953542055
Frig@@ 1
Traf@@ 1
alus 1
arch@@ 0.17798287989500894
ceden 1
got@@ 0.7081931615226753
plo@@ 1
zif@@ 1
1,4 1
47@@ 0.8460015380086221
650 1
Afro@@ 1
Burton 1
CO 0.5620163991919418
Fut@@ 0.6021470931818089
Jazz 0.38014215521916
Jules 0.6797769664234425
Reform@@ 1
Suz@@ 1
aven@@ 0.9496484339638579
isch 0.07480363852263187
ishi 1
lime 1
odi 1
Asper@@ 1
Pus@@ 1
Romeo 1
kau@@ 1
230 1
Bristol 0.5669436995000757
Oh@@ 1
olin 1
Bond 0.8924036915478857
Montana 0.7334147982562916
Over 0.310235308045752
Porsche 1
Eugene 0.9586749279054404
Ralph 0.6636130057048428
Ronald 0.8661068605911196
akis 1
ept@@ 0.7189839020521075
issa 1
parad@@ 1
rass@@ 1
zek 1
à@@ 1
Mud@@ 1
Test 0.47630004635925066
anormal 1
della 0.8223192150513907
meti 1
1832 0.5691918295780825
Grace 0.6949735997036398
LP 0.42909107845898653
MVP 1
René 0.5463386442238405
Trav@@ 0.6102630827956705
ism 0.09081479869244938
Goethe 1
Nad@@ 0.9372307652306064
Zimbab@@ 1
low@@ 0.3126277087494648
Ç 1
Japan 0.09929913092663091
acan 1
band 0.05235013469235056
get 0.12684573200028804
iva 0.6636567822464643
mes 0.13357952748860627
sera 0.22240625676870665
ы@@ 0.21150774194661695
Emily 0.9493928188184511
Fun@@ 0.5453776361483192
Nikol@@ 1
Sou@@ 0.33084750763307813
Tin@@ 0.6815733825186496
revi@@ 0.8559985187219512
tham 0.2796654890792824
Paolo 1
Viking 1
atam@@ 1
ect 0.21587234637989974
momentum 1
ovi@@ 0.9861862135358593
4.0 1
Sound 0.455491159630944
rit 1
11,3 1
Haiti 1
Hard 1
Uganda 0.8171962491074977
28.@@ 1
Campania 1
Of@@ 1
Secret 0.8418296791401558
amer 0.8350732739892722
siye 1
ISBN 1
ubi 1
Las@@ 0.6140333027449258
Portland 0.5213527673901368
ean 0.35389603085548343
izi@@ 1
lararası 1
olum@@ 1
Blu 1
Lucius 1
Rüst@@ 1
ams 0.21630846203323956
bius 1
bus@@ 0.25015252570252583
ingo 0.8496775239817568
proton 1
Bayer 1
Hop 1
XV@@ 1
amus 1
berger 0.2904240209586438
inat@@ 1
rie 0.4629307241130288
ør@@ 0.8591902134849319
DE 0.7474197284775942
Delta 0.6747602493871748
Get@@ 1
Good@@ 0.6146559747089873
loy@@ 0.931803884075334
phi 0.8525065153827246
yov 1
ığ 1
Bank@@ 1
Bomb@@ 1
Caroline 0.6134267288919986
Mountain 0.2973865168974155
gang@@ 0.9034915507061474
Party 0.07940427095355587
SL@@ 0.9483779315020525
Veh@@ 1
Battle 0.17038050373029134
Foster 0.8488909491023151
Leopold 0.9071035240848905
Ricardo 0.7794429406449528
aux 0.020364304974525044
eg 0.6581232449542757
ekom@@ 1
Dow@@ 0.460807133189157
EM@@ 0.8727934706825193
GT@@ 0.736477257148906
Gilbert 0.584626528233502
Hip@@ 1
Lez@@ 1
Soh@@ 1
yun 1
121 1
330 1
Lus@@ 0.8298518208019688
Milletvek@@ 1
ektör@@ 1
gari 1
kus 0.7957375251657084
rimi 1
uzam@@ 1
üler@@ 1
Lon@@ 0.8870515934597953
Reb@@ 0.46951005653475403
bun 1
jili 1
ose 0.253402500289481
pit@@ 0.5379902554161956
122 1
KK 1
Soul 0.8203810550386749
Tari@@ 1
Zem@@ 1
ien 0.11700143081994782
kün 1
ling@@ 0.5098354088691198
yoy@@ 1
A1 1
Camp@@ 0.3353467688721038
ES 0.9386692107971663
Freud 1
Gn@@ 1
Malat@@ 1
Nicol@@ 0.7989800094882179
iter@@ 0.5066751325468023
sion 0.11655179114712969
stad 1
CS@@ 0.42226494127585595
Coc@@ 0.821429269319516
Colin 0.8991134106628667
Lec@@ 0.7109155589319174
Mann 0.28397712953662957
Mobil 1
Sau@@ 0.40256854617091853
Wall@@ 0.3943509487928098
Wii 1
epit@@ 1
117 0.979157274970426
Jet 1
but@@ 0.3252783158886508
oso 0.20045936955897584
Ayl@@ 1
Harvey 0.757055475813096
IG@@ 0.8519075454162138
SB 1
illon 0.4830181656632102
lokom@@ 1
piz@@ 1
öte 1
Mav@@ 1
Sult@@ 1
dio 0.21185181357678398
neğin 1
oros 1
vic 0.6716131243283935
56@@ 1
Patri@@ 0.5370459297314318
bent 1
kW 0.827255046898497
oper 0.8572338606579857
pot 1
Ō@@ 0.8478823703516243
β 0.6814942641149047
BS 0.7073246172483206
Cross 0.26619382689733734
Ded@@ 1
GP@@ 1
Ham 1
Nathan 0.9347839887878163
Rib@@ 0.8195994245052034
Rig@@ 0.8859157337946288
Tür 1
Wyatt 1
ekt 0.6476804690427783
iret 1
seri@@ 0.7841864600150362
ukat@@ 1
Ax@@ 0.852672874561152
DI 0.8654653051668894
Dion@@ 1
Head 0.36317394238946066
Stars 0.47682308212298646
itibar@@ 1
Heat 1
Sokrates 1
alfa 1
ümcek 1
Aster@@ 1
Behr@@ 1
CE 0.49182615693491927
Ce@@ 0.9888760418247976
Was@@ 0.52749091896994
Zi@@ 0.3849394323581233
aver 1
xi@@ 0.4190535314040572
123 0.9734169847594585
Buk@@ 1
SG 0.7439400824146362
agres@@ 1
Four 0.30146135252950623
Si 0.21944902318434314
engeb@@ 1
Kō@@ 1
Opel 1
akab@@ 1
mük@@ 1
tris 1
Arkansas 0.47319041548160234
Bull 0.8439037663133994
O. 0.6420261573007863
bridge 0.1593734192046817
dafi 1
fib@@ 1
onidae 1
Alex@@ 0.9122702588212086
Baj@@ 1
EM 0.8312710051707173
Julie 0.9324462272513393
Lopez 1
Yon@@ 1
dut 1
tropo@@ 1
Beta 1
Deep 0.872276643974948
Jamie 1
Keith 0.6577141339441507
Metr@@ 1
TAR@@ 1
mail 0.7036091020455714
127 1
Aut@@ 0.29828154928138273
Costa 0.31917341104538705
Maggie 1
dias@@ 1
erz@@ 1
ites 0.12583470258595997
uno 0.09351014358666168
Bluetooth 1
Instagram 1
Morrison 1
hist@@ 1
onga 1
osp@@ 0.6539217033001776
raya 1
1852 0.4532828428870677
Clo@@ 0.7085516664041567
Leicester 1
Roland 0.7028754907814737
Tik@@ 1
avat@@ 1
igh@@ 0.23375086625641953
tho@@ 0.5283975654668318
Abdülham@@ 1
Akr@@ 1
Gond@@ 1
Mazda 1
Min 1
Rock@@ 0.5761623978093806
Stre@@ 0.40064628083572656
Theodosius 1
afr@@ 0.820566382465721
esia 0.5649266873886902
lard 0.4832301715375871
ond 0.2534953626287029
servat@@ 1
Hang@@ 1
Mess@@ 0.40702850323117384
RA 0.470671093089029
oker 1
yaln@@ 1
Gang@@ 0.7010486470239374
Gazi@@ 1
HA 1
Hask@@ 1
Page 0.8609292604498803
Santo 0.49564702927915744
ahu 1
aqu@@ 0.20789501915105008
aru 1
etz@@ 0.3297185355855278
tot@@ 0.3168424865171059
ř@@ 0.43846173571563873
EP@@ 0.840702607288355
GA 0.819920647602262
Sweet 1
USA 0.12666802354943796
afat 1
ald 0.5354388743642172
esis 0.5808055380913227
formes 0.36900464768787344
magne@@ 1
Det@@ 0.5164514474253443
District 0.060336736820623925
Olga 1
Over@@ 0.35332605166420705
Research 0.15555621997022626
Sheffield 0.7681279256521009
embri@@ 1
garanti@@ 1
ilif@@ 1
manuel 1
onyalı 1
ovna 1
wich 0.7004877720427578
Buh@@ 1
Edition 0.7214908462489583
Got 1
Law@@ 0.6185674452820876
Mühendis@@ 1
Rud@@ 0.6589330256830274
Ut@@ 1
Vakf@@ 1
dae 1
ix 0.3544874249600852
tv 1
4,5 1
Benz@@ 1
Deutsche 0.2823842452374349
Komün@@ 1
Nietzsche 1
UI 1
hen 0.5376607273136479
pers 0.3217235707104345
put 0.1342211651491133
ünc@@ 1
კ@@ 1
CC 0.4395563448255714
João 1
Square 0.34764568424892756
Sydney 0.20931850758913095
lev 1
és 0.026569970229033287
LC 0.8670022174249072
ged@@ 0.7862866604179607
keb@@ 1
ush 0.4399535090637047
EL 1
Sent@@ 1
Zah@@ 1
aden 0.3395800817726281
etus 1
itis 0.9081083724127933
kari@@ 1
oslav 1
yem 1
Christina 1
0.3 1
1.0 1
Barrett 1
CM 1
Christmas 0.3579917044074277
Floyd 1
Ox@@ 0.6818276456305026
PM 0.7531899912260832
distan 1
ego 0.48519213998868266
gut@@ 1
ix@@ 0.6419994593102355
Lancashire 1
Nicole 1
istanı 1
ology 0.07876341964511344
otel@@ 1
pep@@ 1
rov 1
sekiz@@ 1
tle 0.32686236310778916
1841 0.5190830655208138
Capr@@ 1
Hannibal 1
Hip 1
Ki 1
Michelangelo 1
Nielsen 1
She 0.02541217003483083
Singles 0.3438053143623314
away 0.09562046080013865
ms 0.17571337231554726
mükem@@ 1
odon 1
sch 0.19262179388285147
tab 1
ès 0.21139883756012007
ć@@ 0.9739618998501514
Dub@@ 0.8700869384827435
aron 0.060147514585970105
hiy@@ 1
insky 0.7307150194638262
AE 1
Cec@@ 1
Euler 1
ayo 0.5061493035167581
eles 0.5031327920007506
habit@@ 0.4301967301716851
ibl@@ 1
trat@@ 0.6456052507392797
zus@@ 0.6287125568375873
Glasgow 0.46079859143549623
Summer@@ 1
borg 0.8226113234156738
istr@@ 0.6023175920935827
mont 0.28193178167261124
orius 1
rama 1
Empire 0.1318264370853582
Esperanto 1
Monaco 1
Nazar@@ 1
Semb@@ 1
Stalingrad 1
Stephan 1
ammer 1
basan 1
cus@@ 0.8945944830515619
ott 0.4279697010892888
rio 0.9725933368843438
HBO 1
IN 1
Kay 0.9137018805399698
Klein 0.7634203118737892
ariz@@ 1
gy 0.49855615958421073
idal 1
skop@@ 1
zh@@ 0.9663933484453228
256 1
Brooks 0.9392041162258093
Carr@@ 0.6327178268551429
Cloud 1
Elaz@@ 1
Palermo 1
Pascal 1
Reform 0.9072189954199967
Sea 0.2129230521164326
acab@@ 1
arat 1
kanad@@ 1
kisi@@ 1
oner 0.6663048602325076
67@@ 1
Ambrose 1
Dut@@ 1
Hüsey@@ 1
Ice 0.6035420985744079
Julian 0.7920644098034378
Ple@@ 0.718617377416291
Rob 0.8092342358109742
Sporting 0.951043019643098
acc@@ 0.18341669049969261
gio 0.7070172303590713
ingham 0.7170755909107756
wo@@ 0.204128797789694
Atal@@ 1
Has 1
Hein@@ 0.6052677675312345
Kath@@ 0.5584190704160495
Salzburg 0.8822226811882647
astı 1
idon 1
DR 0.6135780739625264
Ener@@ 1
Er 0.03168826838516771
Ho 1
OH 1
ael 0.8854042753214776
fav@@ 1
tisi 1
war@@ 0.09021761166572084
Dresden 0.4401485738984174
Wel@@ 0.34030838895831017
cap@@ 0.1140284792919786
seus 1
you 0.11907798768320718
Aaron 0.7631041582693664
Child 0.734851526204044
Europe 0.0660842818188728
Luka 1
Television 0.31725527150877375
ants 0.05203706398695599
asiye 1
peria 1
pio 1
try 0.2120587011017545
ə 1
1843 0.5243689721892127
Baltimore 0.4253659019527282
imar@@ 1
inga 0.7495027133861818
otok@@ 1
show 0.05500236797704826
Bahia 1
Joel 1
Ket@@ 1
Sophie 0.6872840520451766
gli@@ 0.583713356905356
igi 1
onne 0.28385612376516794
uktur 1
1.5@@ 1
97,@@ 1
Pok@@ 1
acy 0.1541222969786405
aliye 1
anth@@ 0.4086047245012286
rail@@ 0.6065370083007978
ric 0.6980039120989648
rov@@ 1
vaj@@ 1
WWF 1
melod@@ 1
ovu 1
sei 0.1505844420313546
vara 1
1842 0.5004515341190644
54@@ 1
Bulls 1
Cohen 0.9137329792173341
Craig 0.6691300550080183
Erz@@ 0.6175822332781482
Iv@@ 1
Marcel 0.6307559900788762
Parma 1
Sant 0.986149959742089
adin 1
andi@@ 0.5617744846863992
mali@@ 1
Allan 0.8510825939107581
L.@@ 0.6789010427328773
Pik@@ 1
Wolfgang 0.4924032330997143
sl@@ 0.24092529816242436
59@@ 1
Giles 1
Ov@@ 1
itte 1
yosunu 1
1642 1
1787 0.952386544083878
Brandenburg 0.6313143263135105
Harper 1
Mercury 0.967898829364074
Oz@@ 1
Petro@@ 1
andal 1
cell 0.26141970325628644
enses 0.27555431501141536
pto 1
2.0@@ 1
Antoine 0.4436992654929879
Bour@@ 0.4197704959982337
Lom@@ 0.8187770467666614
Weekly 0.7816069063741148
Yokohama 1
cy 0.4053498893777419
itten 1
1833 0.5438829421797605
Alpes 0.5260009602183416
Core 1
Ley@@ 1
Rel@@ 0.2595266857705632
Tiger 0.8324455056548973
aug@@ 0.43243874497779666
doğrult@@ 1
esa 0.14594070901636738
eu 0.19334781766562256
23,@@ 0.979226297648573
25.000 1
Drake 1
Fars@@ 1
Rü@@ 1
Saur@@ 1
amii 1
aur 0.906848860107089
mend@@ 1
nel@@ 1
і@@ 0.8965767315015584
Form@@ 0.5650771858922435
Himmler 1
Kyoto 1
esto 0.22532270383857747
oval 1
uck 0.5224838547726858
Lane 0.44849567515199845
Law 0.1725224535918656
MHz 1
Ned@@ 1
Ud@@ 1
Ufu@@ 1
aben 0.7609278675490224
eph@@ 0.6203187819025637
esten 1
hac 1
hut 1
ر@@ 0.5636953642803159
Box 0.6084097127399148
Tao 1
onist 0.5931130639240972
out@@ 0.08802556831740264
Humboldt 1
Kepler 1
O.@@ 0.9099576651432463
1838 0.4972560136014224
Award 0.07977239938991537
Brah@@ 0.8047469779268316
ROM 1
Smart 1
With 0.08872215967334961
demo 1
fren@@ 1
imov 1
ning 0.27956041719602276
12.000 1
124 0.9267100659937165
Guardian 0.6704981328279432
Locke 1
Pearl 0.7540659192053322
egen 0.363252407479044
terminal 0.4647627570135775
vit 0.5695742280433621
Anglo 0.6550877164333733
Antonius 1
BL 0.83016232240401
Cat 1
Cord@@ 1
Et 0.8739128206391842
Riga 1
Rö@@ 0.788298335279268
Say 1
Spencer 0.7223020882960642
Toulouse 0.5991094742692992
ono 0.5813105716690466
see 0.0828710045354092
ürt 1
116 0.9411694472157712
Aqu@@ 0.4386385771148942
Bard@@ 1
Birleş@@ 1
Kenneth 0.844094094022515
PR 0.6216082899922073
Stav@@ 1
Wol@@ 0.3596680538372138
alen 0.1628192687594351
ebel 0.8496587974679755
lett 0.8017230217912565
İli@@ 1
Buy@@ 1
Karma 1
McMahon 1
Riley 1
SL 0.9026430484863376
Wer@@ 0.2149224967626487
Wes@@ 0.4160691013233072
cur@@ 0.10605478051472408
köyü@@ 1
mul@@ 0.33191420141009875
tas 0.3427926040857005
tril@@ 0.7647733116844696
Classic 0.5367897718936676
History 0.04883720106997539
Seine 0.12716514161842113
When 0.06267819639710236
adili 1
budur 1
isl@@ 0.5613206726518565
ś@@ 0.5644585678729663
22,@@ 0.99986723487802
Dob@@ 0.7873486986374592
Raj@@ 0.3083749519651552
Three 0.21804878250900686
Turk@@ 1
esh 0.42008286599454664
kund@@ 1
ogo 1
opsis 0.7706972086481293
sos 1
Dale 1
Dmitri 1
Johan 0.984959140752933
Prom@@ 0.4565293827337433
anten 0.446287826421764
40,@@ 1
Creek 0.18077894116217674
ISU 1
Springs 0.6020521429032089
Uş@@ 1
Vent@@ 0.7470062850177087
our@@ 0.18594682340408247
1790 0.6185233869957959
270 1
Apo@@ 0.9490994937064868
Kings 0.5511627736090866
Wu 0.7664896028284522
bola 1
büro 1
islam 1
papa 1
ring@@ 1
145 0.9953857351829265
27. 0.35535882321700946
Dj@@ 0.7031403307859293
Fisher 0.7983370306925655
Fritz 0.5382675780056172
Just@@ 1
Theodore 1
Yuki 1
con 0.0073819071047144
elius 1
finden 0.24053336351588633
hl 0.7526983418904918
motiv@@ 0.4489293804330117
netic@@ 1
ope 0.4274269358844802
Liège 1
Maxim@@ 0.8587868038750868
wat@@ 0.38622885845669847
ô@@ 0.34607090941031754
ă 1
Nissan 1
analog 1
euro 1
pur@@ 0.14253712062256488
riba@@ 1
yek@@ 1
Everton 1
Granada 0.797291981714718
Württemberg 0.5338094545035584
cut 0.20358702741974866
113 0.8591969988550122
Mu 1
chen 0.10052891113236077
encer 1
mod 1
otti 0.9823969661361609
zim@@ 1
Banks 0.9831575213597485
Ellen 0.8830657403686113
Juli@@ 0.8542874292871281
Limited 0.4710708505704608
Petro 1
laya 1
oon 0.3400078194831368
sisi 1
Barn@@ 0.6237432456046001
Jim@@ 1
Lazar@@ 1
Luftwaffe 1
Sej@@ 1
ukta 1
26. 0.3287825877881808
JK 1
hos 1
intern@@ 0.7012147568930156
itar@@ 1
kii 1
kupas@@ 1
ous@@ 0.4894362446451965
129 1
Benfica 1
Bismarck 1
Dominik 1
Foundation 0.18688098232681838
Haft@@ 1
Nim@@ 1
Pass@@ 0.4024488485027856
Ring 0.5728047832446913
Ruanda 1
ario 0.12394065642618493
cek 1
280 1
Gamb@@ 0.8864133287987138
IT 0.5273551793185772
Mass@@ 0.45364585609972224
Müller 0.5408311388686436
Send@@ 0.9139567598096356
Soyuz 1
Take 1
Vall@@ 0.7090052108228442
plen@@ 1
usu@@ 1
vatand@@ 1
Emmanuel 0.7795817489681248
English 0.056143639795683445
G.@@ 0.7973487887601135
Marion 0.8880815300349674
P.@@ 0.662467106760611
Rhône 0.7039109696221768
Ronaldo 1
SMS 1
Sud@@ 0.47568769305467345
arette 1
cre@@ 0.09117575737804241
eson 0.8750256391454941
lang@@ 0.32299475041566034
wal@@ 0.20436559156986758
2500 1
58@@ 1
Janet 1
Manson 1
Nebraska 0.606001670785141
Olivier 0.8041481399813514
Paraná 1
Vl@@ 1
azaki 1
dırım 1
jer 1
114 0.863569823121091
Ble@@ 0.45033275822162905
Fior@@ 1
Mé@@ 0.24511592299426405
USS 0.4746040992024955
XP 1
bistan 1
char@@ 0.1399723596089476
elly 0.6071269376770385
pedi@@ 0.7466173319863825
vor@@ 0.05742682625752208
Balt@@ 1
Dad@@ 1
Sana 1
Standard 0.4116214723353146
Unix 1
Village 0.351426992416001
aber 0.042681800681399366
aniz@@ 1
hiro 1
1595 1
3.0 1
Haj@@ 1
Kids 0.9589773194936791
Reichs@@ 0.2754344608626606
Side 0.6157986942453318
TT@@ 1
XV 0.3882860802438896
hici@@ 1
CO2 1
Ede@@ 1
Hos@@ 0.704438416505579
Ptolemaios 1
board 0.1120919718590988
dom 0.4483011359043554
ony 0.31492636035255084
sportif 1
tö@@ 1
1827 0.625832852241767
480 1
Bilg@@ 1
Heinz 0.6975262795333297
Kis@@ 0.9972507829743414
Manz@@ 1
Sist@@ 1
idas 0.18187981814071255
olig@@ 1
oris 1
ė 1
Hindu@@ 1
country 0.06192018915878563
down 0.05580118751267428
elim@@ 1
ikawa 1
isme 0.17014960243905608
Erich 0.8101122826751641
Mikhail 1
Park@@ 0.6695622317592892
annis 1
eks 0.755022751899506
Aya 1
Vy@@ 1
Works 0.34814436338875443
asma 1
kiz 1
yang 1
Hamas 1
afaa 1
veti 1
Am 0.04688707835594403
Düsseldorf 0.5644844682155155
Konservat@@ 1
Lip@@ 0.9707100126411481
Schumacher 1
Blake 0.8113226810714815
Chuck 0.942223355991807
Forum 0.6009809367205139
Fuj@@ 1
Heavy 1
Jeremy 1
Kro@@ 0.7772320013246454
Nina 1
Sting 1
Wi 1
emann 0.6191392615377798
endir 1
kez@@ 1
melan@@ 1
meteor@@ 1
sta@@ 0.910122148430873
è 0.8521732271350254
ère 0.08028386443165615
Atlantic 0.23929730385965486
Chaplin 1
Crown 0.45893912357619365
Donetsk 1
auri 1
131 1
18,@@ 0.7355580836268908
Agr@@ 0.5841690549979434
Planet 0.9510694012015752
Woods 0.8709172422623193
alab@@ 1
edeyse 1
elo 0.45853085591900455
hp 1
market@@ 0.9431220715884544
mos@@ 0.27205037200251597
sana 1
43@@ 0.89396735453323
Bub@@ 1
Century 0.5383061868021731
DIS 1
Edmund 0.7592249623636931
ICAO 1
Robbie 1
Salticidae 1
Ster@@ 0.5677313052020994
aler@@ 1
aliye@@ 1
atos 0.42519209663307644
cuy@@ 1
evre 1
folk 0.4148232418122141
lop 1
tat 1
64@@ 1
CNN 1
Come 0.937837673360925
Kaw@@ 1
Mount 0.2088164525468137
Rostov 1
Vilnius 1
Werner 0.5226009132037629
aden@@ 0.707384595368906
aldo 0.7629662410721979
ardo 0.9564178080921079
eza 0.5116513905653397
gate 0.38621996823451976
odor 1
260 0.9871549045452357
Anast@@ 1
Cheshire 1
Essex 0.743162821237085
Pete 0.7851553902159344
SN@@ 0.5954705295051715
Todd 0.7802640391892274
cid 1
а 0.02054645257285734
Ferguson 1
Gol 1
Torres 0.745444813288006
anka 1
ful 0.11235414667485764
past@@ 1
rab@@ 0.39710103832710286
CI 0.8138908971902444
Metropolitan 0.407395272410649
Run@@ 0.7562358588689392
dorf 0.26086133542068324
formu@@ 1
igu@@ 0.3315963348572198
jede 0.905771398030494
1808 0.5908603695112825
78@@ 1
Christ@@ 0.371364424077381
MW 0.8312017766690897
Marina 0.6667369900696418
McLaren 1
agi@@ 0.9199844022772998
luc@@ 0.8091666903811815
ofil@@ 1
Fe 0.6068148234092842
Inc. 0.2934360192415043
Rhode 0.8160969195000196
Service 0.1321075093745157
paralel@@ 1
sw@@ 0.12124799022751576
Blan@@ 0.5101739973760355
How 0.6024875934526459
Hz 1
Martin@@ 1
Milton 0.8855992932453932
aea 0.9245465124987978
coin 0.8832608957017793
kompak@@ 1
romanti@@ 1
Fem@@ 0.8575378586434886
Sever@@ 0.8556640238922804
Thr@@ 0.7029042349062344
Merk@@ 1
O2 1
bak 1
tun 1
web@@ 0.5511992155205248
1.8@@ 1
Avustur@@ 1
Ball 0.5146475785185595
Berry 0.8866347475086654
Bridge 0.23326724322503173
Dre 1
Map@@ 0.8564028467227408
alternati@@ 0.683792917117221
ange 0.24646034216100426
bizi 1
ft@@ 0.9480367142379694
onal@@ 0.5534491491268357
prol@@ 0.7740738731839097
uni@@ 0.2489205426906972
yst@@ 0.407366254927406
yya 1
Basketball 0.37163252490268384
Bennett 0.7208055988033418
EFL 1
Eh@@ 1
Magnus 1
cari@@ 1
deren 0.11473372683228408
elli@@ 1
patent 0.9486281975355578
veter@@ 0.684294061494867
22. 0.31658047814357543
Andrey 1
Kid 1
Technology 0.24718414313141396
Virgin 0.5588270276859467
akov 1
auer 0.2422955416080664
kilome@@ 1
petrol@@ 1
trans 1
1300 0.9488192254776948
Blues 0.4464699962757704
Fy@@ 1
Hut@@ 0.8825205819447955
Talk 1
büyükl@@ 1
kupan@@ 1
unt@@ 1
ï@@ 0.1746433781624384
1400 1
300.000 1
[...]
